<unk>	0
<s>	0
</s>	0
<pad>	0
▁.	-3.19731
▁,	-3.44837
▁və	-4.11107
;	-4.38875
▁&	-4.39305
quot	-4.44613
-	-4.75523
▁)	-4.92203
n	-4.92494
▁(	-4.93324
ci	-5.2468
i	-5.29642
▁ildə	-5.32883
▁ilə	-5.34381
a	-5.35095
.	-5.38515
da	-5.41077
▁	-5.41989
▁bir	-5.42396
ə	-5.53183
lar	-5.54594
lər	-5.63834
in	-5.71914
də	-5.73695
nın	-5.80811
▁bu	-5.83684
nin	-5.84418
▁də	-5.92832
▁olan	-5.93019
na	-5.98215
▁Azərbaycan	-5.98546
li	-6.07369
▁üçün	-6.08454
▁Bu	-6.10519
dir	-6.1054
ni	-6.13625
▁isə	-6.14344
dən	-6.14669
▁—	-6.16721
▁:	-6.20329
▁sonra	-6.21387
▁kimi	-6.22752
▁da	-6.22906
dan	-6.23021
ları	-6.24452
▁ki	-6.26915
r	-6.28276
▁-	-6.29403
ın	-6.3108
s	-6.31302
▁il	-6.33322
а	-6.33466
nə	-6.35626
▁”	-6.35781
ləri	-6.3651
▁“	-6.37251
ı	-6.37721
dır	-6.39666
▁çox	-6.39851
ya	-6.4078
cü	-6.41174
l	-6.41429
t	-6.41823
la	-6.43288
k	-6.43476
lə	-6.4567
m	-6.4634
▁edir	-6.47559
▁tərəfindən	-6.51568
lı	-6.51927
nı	-6.52231
u	-6.53277
ların	-6.54449
cı	-6.57585
▁görə	-6.57601
d	-6.58154
▁–	-6.61264
▁O	-6.62519
si	-6.63776
lərin	-6.6761
▁idi	-6.68322
▁o	-6.69729
cu	-6.70164
▁olaraq	-6.76067
▁onun	-6.76197
▁ən	-6.76865
q	-6.79023
y	-6.79315
▁ya	-6.82095
di	-6.82689
▁olmuşdur	-6.85446
un	-6.86019
z	-6.86142
▁böyük	-6.8795
▁ilk	-6.89027
yə	-6.89551
▁baş	-6.90067
▁öz	-6.93209
sı	-6.94302
▁qədər	-6.9462
▁s	-6.96441
▁daha	-6.98321
▁2	-6.98605
▁ilin	-7.01146
▁;	-7.0443
▁iki	-7.0536
▁A	-7.05557
lik	-7.06216
▁istifadə	-7.06566
▁1	-7.09613
b	-7.10511
an	-7.11525
▁edən	-7.12012
▁edilmişdir	-7.13696
▁arasında	-7.14338
▁illərdə	-7.14467
▁S	-7.17287
ki	-7.17545
ma	-7.18854
ә	-7.1908
▁etmişdir	-7.19187
nda	-7.19392
ov	-7.20815
▁hər	-7.21426
▁olur	-7.21805
ş	-7.21945
e	-7.23883
▁olub	-7.23949
▁oğlu	-7.24727
▁təşkil	-7.24817
dı	-7.26642
▁/	-7.27059
o	-7.27373
▁adı	-7.28041
▁3	-7.28729
▁üzrə	-7.30022
▁yerləşir	-7.30869
▁kənd	-7.32774
inin	-7.3297
▁əsas	-7.33303
▁bütün	-7.34288
larının	-7.34641
▁­	-7.35241
▁dəfə	-7.355
h	-7.35705
▁Bakı	-7.35825
▁daxil	-7.36108
▁ildən	-7.36729
c	-7.37209
lərinin	-7.38788
▁digər	-7.40426
lərə	-7.42508
е	-7.42569
▁yeni	-7.42668
▁qarşı	-7.43923
▁etdi	-7.4428
▁olunur	-7.44426
▁biri	-7.4447
▁var	-7.45091
sa	-7.46194
▁elmi	-7.46516
f	-7.46532
▁müxtəlif	-7.46639
lıq	-7.47029
▁əsasən	-7.48508
▁edilir	-7.49572
p	-7.50235
▁etmək	-7.50236
lu	-7.5041
▁Dövlət	-7.51521
ndan	-7.51622
▁M	-7.51639
▁m	-7.51956
v	-7.52397
▁4	-7.52847
lara	-7.53117
ca	-7.54826
▁E	-7.55848
▁adlı	-7.5627
▁«	-7.56413
▁»	-7.56654
▁bəy	-7.56799
x	-7.57078
ndə	-7.57564
▁C	-7.5898
ndən	-7.59278
▁həm	-7.5968
▁haqqında	-7.60723
al	-7.60785
▁I	-7.60847
inə	-7.62255
▁5	-7.62403
▁qəbul	-7.62423
ən	-7.632
ini	-7.63233
▁18	-7.6358
▁şəhərində	-7.64699
dur	-7.65084
larda	-7.65461
▁başqa	-7.65769
о	-7.66202
▁km	-7.66639
▁su	-7.67508
▁%	-7.67784
▁həmin	-7.68201
sə	-7.68277
▁yerləşən	-7.68932
▁Respublikasının	-7.69845
▁B	-7.69897
▁orta	-7.70431
lardan	-7.70569
▁olduğu	-7.70667
ri	-7.70894
cə	-7.72136
lərini	-7.72582
▁nəfər	-7.727
▁dövlət	-7.73176
▁iştirak	-7.73922
lərdən	-7.74492
▁zamanı	-7.74639
▁onu	-7.74736
lərdə	-7.75753
▁şəhər	-7.75846
▁oldu	-7.75968
19	-7.75991
NGC	-7.77011
S	-7.779
▁K	-7.78031
▁belə	-7.78213
▁Onun	-7.7838
▁onların	-7.78763
larını	-7.7884
▁Yeni	-7.78855
▁10	-7.79292
▁təhsil	-7.79777
▁geniş	-7.8008
▁aid	-7.81039
ik	-7.81061
ində	-7.81076
▁zaman	-7.81222
man	-7.81778
▁yer	-7.81913
▁Bir	-7.82016
▁yüksək	-7.82866
▁qeyd	-7.83263
▁etdiyi	-7.83428
▁davam	-7.83672
▁6	-7.83843
▁İ	-7.84266
▁xan	-7.84658
▁anadan	-7.84725
▁Baş	-7.84855
lərindən	-7.85008
▁Lakin	-7.85349
ta	-7.85748
▁T	-7.86246
ka	-7.86381
▁ABŞ	-7.86926
▁fəaliyyət	-7.87191
▁hərbi	-7.87763
A	-7.87984
larında	-7.88307
▁tarixi	-7.88485
dakı	-7.88783
▁milli	-7.88945
▁d	-7.88993
larından	-7.8935
çi	-7.89624
▁nə	-7.90651
ar	-7.90896
▁Respublikası	-7.90929
▁U	-7.90963
lərinə	-7.91126
▁17	-7.91291
▁vardır	-7.91329
▁P	-7.9135
▁nəticəsində	-7.91878
▁olunmuşdur	-7.92101
▁gün	-7.92126
▁ona	-7.92338
mə	-7.9274
▁neçə	-7.93113
▁Böyük	-7.93207
▁müəyyən	-7.9364
▁Azərbaycanın	-7.9409
nun	-7.94947
▁F	-7.95183
ç	-7.95434
▁hesab	-7.95567
▁Rusiya	-7.95672
▁edib	-7.95685
▁üç	-7.957
▁yaxşı	-7.96107
apos	-7.96169
at	-7.96264
▁üzərində	-7.9634
ü	-7.96416
▁az	-7.96518
lərində	-7.96652
▁Milli	-7.96835
il	-7.97092
▁xüsusi	-7.97438
ti	-7.97743
lan	-7.97988
▁vasitəsilə	-7.98513
▁15	-7.98579
▁olunan	-7.98773
▁eyni	-7.98986
▁Avropa	-8.0006
▁inkişaf	-8.00341
▁Q	-8.00432
▁min	-8.00758
▁R	-8.0164
▁ikinci	-8.02016
▁kiçik	-8.02141
▁verir	-8.02641
M	-8.02698
yan	-8.03147
mi	-8.03221
▁8	-8.03227
▁qədim	-8.03788
lərlə	-8.03917
▁heç	-8.03934
▁əsrin	-8.04095
g	-8.04162
▁ibarət	-8.04469
▁7	-8.04643
▁sm	-8.05384
larla	-8.05583
▁yaxın	-8.06461
▁rayonunun	-8.06534
▁burada	-8.06623
▁olar	-8.07079
▁bilər	-8.07343
▁12	-8.07872
▁gəlir	-8.07995
▁bağlı	-8.08488
▁16	-8.08728
larına	-8.08786
▁məşhur	-8.09494
▁b	-8.09658
▁de	-8.09689
▁V	-8.09945
bi	-8.1024
er	-8.10291
us	-8.10314
▁adına	-8.10378
▁olunmuş	-8.10482
▁H	-8.11034
▁son	-8.11215
▁edilən	-8.11325
▁deyil	-8.11851
▁həmçinin	-8.11951
▁artıq	-8.12019
▁olmuş	-8.12098
▁yalnız	-8.1214
liyi	-8.12557
▁kəşf	-8.12677
B	-8.12785
▁Əli	-8.13058
çı	-8.13155
▁birlikdə	-8.13207
▁təyin	-8.13728
▁&#93;	-8.139
araq	-8.13957
▁&#91;	-8.13977
D	-8.14014
İ	-8.1418
▁altında	-8.14265
it	-8.14305
▁birinci	-8.14611
▁20	-8.14763
vi	-8.14795
▁N	-8.14991
▁edilmiş	-8.15192
▁D	-8.15261
▁əvvəl	-8.15762
▁film	-8.16439
ra	-8.16497
va	-8.16535
▁yenidən	-8.16676
P	-8.1676
▁etmiş	-8.1678
▁dünya	-8.16873
▁insan	-8.16958
▁şəkildə	-8.17483
ir	-8.17796
▁e	-8.1788
on	-8.17943
iya	-8.1825
▁tipli	-8.18561
▁Qara	-8.18686
▁edərək	-8.18847
ğ	-8.19035
▁Azərbaycanda	-8.19209
▁istiqamətində	-8.19238
▁edirdi	-8.19454
▁ərazisində	-8.19527
▁müddət	-8.19609
▁9	-8.19631
▁əl	-8.1988
du	-8.19881
▁sıra	-8.19896
le	-8.20152
▁türk	-8.20162
ba	-8.20332
▁göstərir	-8.21152
▁ərazi	-8.21166
▁qeydə	-8.21166
▁14	-8.21584
de	-8.22577
▁səbəb	-8.22591
▁malik	-8.22606
▁q	-8.22965
▁in	-8.22999
▁II	-8.23101
▁olduğunu	-8.23319
st	-8.2353
is	-8.23547
sının	-8.23813
▁şimal	-8.23853
ro	-8.24182
te	-8.24245
▁cənub	-8.24352
▁Göy	-8.24825
▁həyata	-8.25134
▁Məhəmməd	-8.25204
▁musiqi	-8.25216
maq	-8.25749
▁mərkəzi	-8.2589
▁tarixində	-8.26054
ır	-8.2617
▁a	-8.26317
▁əldə	-8.26364
▁о	-8.26446
lığı	-8.26671
▁may	-8.26689
▁sayı	-8.26865
▁11	-8.26891
▁Su	-8.27193
▁Naxçıvan	-8.27309
C	-8.27361
▁inzibati	-8.27421
sində	-8.27452
sında	-8.27772
▁vaxt	-8.27834
▁olması	-8.27979
▁əlavə	-8.28197
um	-8.28227
▁hissəsi	-8.28307
▁çıxış	-8.28312
zi	-8.2847
mış	-8.28921
▁bəzi	-8.28951
▁uzun	-8.29074
▁onlar	-8.29285
▁alınmış	-8.2948
▁dövründə	-8.2953
sinin	-8.29751
K	-8.3025
ında	-8.30376
unun	-8.31134
ının	-8.31798
▁ərzində	-8.31835
▁üzvü	-8.31973
za	-8.32398
▁SSRİ	-8.32406
▁Həmin	-8.32483
▁rus	-8.32826
▁ibarətdir	-8.33015
▁Ə	-8.33118
ğa	-8.33178
▁13	-8.33212
▁ölçülü	-8.33213
▁Burada	-8.33722
▁k	-8.34165
▁X	-8.34165
su	-8.34217
lü	-8.34227
▁həyat	-8.34332
▁qızı	-8.34348
▁ümumi	-8.34733
▁xalq	-8.35336
▁yeri	-8.35499
▁dağ	-8.3552
▁Belə	-8.35601
qa	-8.36072
ına	-8.36101
▁əsasında	-8.36732
luq	-8.37011
▁illər	-8.37117
▁Ar	-8.37143
▁tam	-8.37173
▁şəhəri	-8.37454
ını	-8.37716
rə	-8.37748
yi	-8.37773
ul	-8.37814
▁gələn	-8.38075
▁Dünya	-8.38513
ter	-8.39285
▁idarə	-8.39865
əm	-8.39919
▁əmələ	-8.40899
miş	-8.41349
▁başladı	-8.41395
▁üzündə	-8.41462
▁təsir	-8.41602
▁zamanda	-8.41648
sına	-8.41656
▁təsvir	-8.41875
▁dəniz	-8.41929
▁nəşr	-8.4194
to	-8.42002
▁siyasi	-8.42113
▁t	-8.42551
▁iş	-8.43243
▁etməyə	-8.43828
T	-8.44236
▁Bundan	-8.44667
▁lakin	-8.44841
▁La	-8.44883
▁rayonu	-8.45005
lt	-8.45081
▁başa	-8.45371
re	-8.45585
▁bürcü	-8.45594
▁keçirilən	-8.45594
en	-8.4562
▁dili	-8.45851
▁xarici	-8.45984
dəki	-8.46048
ün	-8.46212
▁əhatə	-8.46393
N	-8.46427
ur	-8.46453
▁vəfat	-8.46629
▁istehsal	-8.46925
▁kəndində	-8.47172
O	-8.47212
▁Sultan	-8.47265
zadə	-8.47398
▁yanvar	-8.4766
▁ev	-8.48041
▁Kataloq	-8.48061
▁beynəlxalq	-8.4818
▁xidmət	-8.48347
▁müdafiə	-8.48385
▁Türkiyə	-8.48579
▁səs	-8.48615
▁edirlər	-8.48646
▁Cənubi	-8.48663
▁qadın	-8.48724
or	-8.48837
▁Osmanlı	-8.48862
▁Sa	-8.48885
▁rayonunda	-8.49393
▁Türk	-8.49654
▁30	-8.49723
▁iyun	-8.49828
H	-8.49943
▁verən	-8.50129
▁baxmayaraq	-8.50209
▁dilində	-8.50227
ğı	-8.50283
▁ayında	-8.50339
▁edilməsi	-8.50487
▁edildi	-8.50732
▁yanaşı	-8.50854
ıb	-8.50933
▁?	-8.50997
▁layiq	-8.51246
▁məşğul	-8.51266
lo	-8.51526
ha	-8.51565
▁təmin	-8.51654
▁İran	-8.51739
el	-8.51815
▁dövrdə	-8.51896
▁uyğun	-8.5199
▁Ali	-8.51997
0	-8.52008
▁mart	-8.52153
mışdır	-8.52169
▁Sovet	-8.52331
ran	-8.52359
▁Xalq	-8.5247
sinə	-8.52944
F	-8.53242
R	-8.53389
▁Universitetinin	-8.53576
▁təmsil	-8.53599
▁Onlar	-8.53702
▁ay	-8.53727
ərək	-8.53845
▁Mirzə	-8.53893
▁Na	-8.53971
▁hərəkət	-8.54152
▁hücum	-8.54182
▁Li	-8.54368
siz	-8.54391
▁neft	-8.54617
Q	-8.54798
am	-8.54946
▁yerli	-8.54998
▁aprel	-8.55
▁qrup	-8.55129
▁p	-8.5521
▁Ən	-8.55245
do	-8.55252
▁Re	-8.55658
fi	-8.56088
▁Ko	-8.56162
▁erməni	-8.56163
indən	-8.56176
▁oktyabr	-8.56195
▁y	-8.56226
▁No	-8.56328
ması	-8.56383
▁başlayır	-8.56405
tə	-8.56478
▁müasir	-8.56566
▁dini	-8.5671
▁İslam	-8.57115
▁dekabr	-8.57166
▁Ş	-8.57218
▁İlk	-8.57506
ova	-8.57774
▁19	-8.57867
Ə	-8.57988
▁Qafqaz	-8.58183
ol	-8.58393
▁açıq	-8.58457
nd	-8.58738
sını	-8.58782
nu	-8.5885
▁Al	-8.58871
ər	-8.59071
os	-8.59091
▁rast	-8.59148
▁Orta	-8.59203
ib	-8.59253
▁əhalisi	-8.59288
▁Mərkəzi	-8.59343
▁sentyabr	-8.59484
▁aşağı	-8.59733
▁almışdır	-8.59875
kar	-8.60002
ko	-8.60052
▁yerinə	-8.60073
as	-8.60105
▁adını	-8.60349
▁döyüş	-8.60408
sk	-8.60454
▁Hər	-8.60778
▁ali	-8.60893
▁olmaqla	-8.61056
▁avqust	-8.61107
▁25	-8.61732
▁hələ	-8.61837
▁Beynəlxalq	-8.61882
V	-8.62329
▁yaşayan	-8.62634
▁milyon	-8.62758
▁əsrdə	-8.62771
▁ailə	-8.62782
sini	-8.62915
▁qeyri	-8.62963
ist	-8.63011
▁yaşayış	-8.63103
▁təqdim	-8.63516
dür	-8.63661
▁Qarabağ	-8.63675
▁keçmiş	-8.63823
ton	-8.63867
▁qara	-8.63876
▁rəsmi	-8.63876
▁doğru	-8.63938
▁geri	-8.63968
▁rol	-8.64136
▁Şah	-8.64143
sin	-8.64212
▁Ra	-8.6427
im	-8.64908
▁qalaktika	-8.64977
kı	-8.65009
L	-8.65077
▁i	-8.65216
▁noyabr	-8.65617
▁iyul	-8.6567
▁kəndi	-8.65764
▁çap	-8.65856
anın	-8.65971
▁əks	-8.66287
▁barədə	-8.66439
es	-8.6646
▁növ	-8.66478
▁De	-8.66574
▁Amerika	-8.66592
▁G	-8.66747
▁ad	-8.66841
▁ola	-8.66978
▁Di	-8.66979
▁elan	-8.6723
▁at	-8.67374
▁v	-8.67742
▁Y	-8.67823
▁elə	-8.6794
son	-8.67958
▁sahəsində	-8.68011
▁ş	-8.68057
▁inşa	-8.68099
▁mövcud	-8.68161
j	-8.6819
▁an	-8.68315
E	-8.68573
▁müəllim	-8.68606
▁məlumat	-8.68668
▁malikdir	-8.68931
▁ölkə	-8.68985
▁Hacı	-8.69127
▁müşahidə	-8.69203
▁mühüm	-8.69399
van	-8.6949
mağa	-8.69898
▁keçir	-8.70008
▁olunub	-8.70054
min	-8.70221
▁fevral	-8.70242
▁Ancaq	-8.70252
▁L	-8.70279
▁fərqli	-8.70505
▁yolu	-8.70552
▁ictimai	-8.70663
əli	-8.70724
ne	-8.71108
▁dörd	-8.71211
▁е	-8.71272
▁özünü	-8.714
sız	-8.71538
az	-8.71555
▁yol	-8.7156
▁daxildir	-8.71681
▁Olimpiya	-8.71882
▁Ba	-8.7223
et	-8.72528
▁sahəsi	-8.72539
▁edə	-8.72605
▁özü	-8.72744
mişdir	-8.72908
mək	-8.72943
▁Əhməd	-8.73079
aq	-8.73437
▁...	-8.735
ül	-8.73541
▁Ma	-8.73542
▁mübarizə	-8.73547
▁iri	-8.73548
▁tələb	-8.73627
▁qısa	-8.73865
▁2006-	-8.7392
tan	-8.7403
▁biridir	-8.74185
ski	-8.74201
▁metr	-8.74261
▁güclü	-8.74446
se	-8.74575
fa	-8.74839
▁re	-8.74924
▁Xəzər	-8.7493
2	-8.74959
▁uzunluğu	-8.74988
▁halda	-8.75227
▁SSR	-8.7536
▁Əliyev	-8.75533
▁_	-8.75779
▁edilib	-8.75861
yev	-8.76044
ad	-8.7636
▁iqtisadi	-8.7638
▁Həsən	-8.7644
izm	-8.76592
id	-8.76617
gi	-8.76624
▁gənc	-8.76693
▁hal	-8.76813
▁ə	-8.76822
▁ağ	-8.77456
▁vəzifəsində	-8.77507
▁təbii	-8.77568
▁h	-8.77784
▁Hüseyn	-8.77946
▁imkan	-8.77949
00	-8.78013
▁ancaq	-8.78077
▁çay	-8.78161
▁al	-8.78293
▁Gəncə	-8.78357
dığı	-8.7848
ür	-8.78667
▁atası	-8.78731
▁qala	-8.79014
ası	-8.79529
▁26	-8.79626
ng	-8.79675
▁olmayan	-8.79754
ge	-8.7992
bu	-8.79999
▁ifadə	-8.80113
▁Ha	-8.80132
▁!	-8.80135
ye	-8.80301
▁mü	-8.80635
liyə	-8.807
▁quru	-8.80746
məsi	-8.80753
х	-8.80773
▁məktəb	-8.80866
ça	-8.81072
▁üz	-8.81084
▁f	-8.81254
mir	-8.8134
▁tək	-8.81343
ak	-8.81532
▁İn	-8.81687
▁qərar	-8.82253
▁21	-8.82323
▁ələ	-8.82515
▁əhalinin	-8.82618
▁tez	-8.82633
▁ingilis	-8.82757
▁yaş	-8.82814
▁inkişafı	-8.83005
▁Se	-8.8307
▁Fransa	-8.8318
▁aşkar	-8.83282
▁mm	-8.83331
▁Çin	-8.83348
ö	-8.83413
▁sağ	-8.83551
▁100	-8.83568
▁Şimali	-8.83589
▁ağır	-8.83631
▁Bakıda	-8.83648
▁bitki	-8.8367
▁məğlub	-8.83743
yu	-8.83855
xan	-8.83935
▁meydana	-8.83972
▁yaşayır	-8.83989
no	-8.84003
▁ayrı	-8.84171
ovun	-8.84196
ver	-8.84347
▁saat	-8.84429
▁on	-8.84562
▁irəli	-8.84614
▁hava	-8.84645
▁qızıl	-8.84659
▁çayı	-8.84801
▁yerdə	-8.84807
qan	-8.84866
▁hansı	-8.85124
▁qaz	-8.85134
▁24	-8.85164
ot	-8.85188
▁növü	-8.85375
▁Ka	-8.85404
▁x	-8.8541
▁yox	-8.85507
▁Si	-8.85675
▁indiki	-8.85747
ru	-8.85816
▁Ermənistan	-8.85834
ey	-8.85975
iş	-8.86002
▁şair	-8.86117
bə	-8.86251
▁illik	-8.86527
▁Mir	-8.86596
▁Daha	-8.87042
▁Buna	-8.87042
pa	-8.8709
▁elmləri	-8.87153
ış	-8.87183
▁ci	-8.87424
hi	-8.87776
diyi	-8.87819
▁qardaşı	-8.87978
▁yaşında	-8.88101
▁tətbiq	-8.88165
▁əsr	-8.88215
▁Ay	-8.88513
▁An	-8.88576
▁Moskva	-8.89059
▁yoxdur	-8.89111
▁Kənd	-8.89171
▁XIX	-8.89184
▁birgə	-8.89242
tu	-8.89495
▁başlamışdır	-8.89701
▁torpaq	-8.89736
▁ifa	-8.89848
▁ma	-8.90221
I	-8.90246
▁yəni	-8.90314
ət	-8.90348
çu	-8.90456
▁III	-8.90468
dar	-8.90469
▁yanında	-8.90472
asiya	-8.90488
▁2010-	-8.90489
▁2016-	-8.90625
▁22	-8.90719
▁ölkənin	-8.90805
▁məqsədi	-8.90965
▁ka	-8.91356
▁təklif	-8.91371
▁Universiteti	-8.916
▁23	-8.91679
▁düymə	-8.91831
▁Ne	-8.91917
gt	-8.9201
▁əhəmiyyətli	-8.92043
▁filmi	-8.921
ler	-8.92159
▁daş	-8.9227
▁yaxınlığında	-8.92348
▁of	-8.92399
▁İkinci	-8.9245
▁əlaqədar	-8.9259
▁hakimiyyəti	-8.92657
▁hissəsində	-8.92773
▁Rus	-8.92794
▁məktəbi	-8.92865
▁top	-8.92883
▁Ağa	-8.93091
qo	-8.93182
▁kitab	-8.93228
▁verdi	-8.93556
▁onları	-8.93593
ev	-8.93644
▁tərkibində	-8.93655
▁işləri	-8.93717
X	-8.93769
▁1992-	-8.93773
▁vahidində	-8.9382
▁həsr	-8.93826
▁2009-	-8.93858
▁azad	-8.93929
▁təxminən	-8.93982
▁Kar	-8.93983
▁sistemi	-8.94005
▁daxili	-8.94498
▁Şərq	-8.94592
▁ayının	-8.94662
▁sahib	-8.94796
G	-8.94861
▁Ya	-8.94869
▁nəzərdə	-8.95065
▁28	-8.95156
▁müharibəsi	-8.95202
▁gözəl	-8.95204
ce	-8.95224
vari	-8.95366
▁yaxud	-8.95488
к	-8.95502
▁etmişdi	-8.95568
▁ədəd	-8.95672
▁pul	-8.95873
▁2012-	-8.9593
▁27	-8.9596
▁üzərinə	-8.96016
▁Ta	-8.96029
▁di	-8.96029
▁rayon	-8.96031
▁söz	-8.96094
▁yaradılmışdır	-8.96197
▁doktoru	-8.96248
dü	-8.96339
▁olmaq	-8.96355
dilər	-8.96374
▁hətta	-8.96672
▁bərabər	-8.96705
▁2015-	-8.96931
▁komanda	-8.97042
▁sədri	-8.97092
▁professor	-8.97226
və	-8.97279
▁dünyanın	-8.97346
▁mədəniyyət	-8.97366
▁cümlədən	-8.97446
▁Ağ	-8.97472
▁uşaq	-8.97493
▁qalan	-8.97548
▁sosial	-8.97644
▁Qızıl	-8.97827
unu	-8.97838
▁futbol	-8.97878
▁ticarət	-8.97989
▁Yay	-8.98153
▁ha	-8.98319
▁2011-	-8.98326
tar	-8.9834
▁Da	-8.98362
▁almaq	-8.98365
▁Roma	-8.98444
▁İrəvan	-8.98567
▁idman	-8.98586
▁Ku	-8.98617
▁rəhbərliyi	-8.98726
▁Əl	-8.99147
▁şəklində	-8.99238
▁alır	-8.99303
▁2013-	-8.99524
▁bəzən	-8.99557
▁Le	-8.99712
▁olsa	-8.99883
▁2014-	-8.99894
▁ana	-8.99939
▁siyahısı	-9.00092
ay	-9.00378
kin	-9.00448
əl	-9.00548
▁Mo	-9.00622
şa	-9.00625
▁50	-9.00633
▁çoxlu	-9.00688
▁şah	-9.00761
▁yuxarı	-9.00783
▁Mən	-9.00808
▁ibn	-9.00865
▁tə	-9.01034
▁elm	-9.01096
acaq	-9.0113
▁Ni	-9.01293
ll	-9.01318
ağa	-9.01358
▁olmuşdu	-9.01436
▁Yu	-9.01664
▁sözü	-9.01974
▁Z	-9.0219
▁1990-	-9.02235
▁alman	-9.02332
▁adası	-9.02441
▁İnstitutunun	-9.02608
▁zəngin	-9.02674
▁bədii	-9.02781
20	-9.02811
mışdı	-9.02923
▁işıq	-9.02931
▁To	-9.02974
▁Ü	-9.03053
▁verilmişdir	-9.03073
▁həbs	-9.03102
▁2008-	-9.03165
▁təhsilini	-9.03216
▁Son	-9.03412
▁Bo	-9.03443
siya	-9.03558
▁əhali	-9.03586
▁ətrafında	-9.03652
▁dünyaya	-9.03746
▁0	-9.03846
▁işçi	-9.03868
▁eləcə	-9.03899
▁qol	-9.03985
▁oyun	-9.04016
var	-9.04087
▁mövcuddur	-9.04323
▁Hazırda	-9.0434
▁asılı	-9.04364
▁təsdiq	-9.04418
▁əvəz	-9.04442
▁azərbaycanlı	-9.04536
ed	-9.04538
▁Tə	-9.04553
mo	-9.04556
▁kişi	-9.04643
▁şəhərinin	-9.04779
▁İranın	-9.04838
▁işğal	-9.04839
▁Birinci	-9.04852
▁Onların	-9.04911
▁Almaniya	-9.05019
▁olundu	-9.05044
▁ta	-9.05047
▁Hal	-9.05113
▁Film	-9.05182
▁Pa	-9.05226
▁tərk	-9.05355
▁Qa	-9.05374
▁29	-9.05379
onun	-9.05471
ut	-9.05568
oğlu	-9.0561
U	-9.05646
▁ö	-9.05727
▁təltif	-9.0574
▁Məmməd	-9.05755
tı	-9.0578
▁özünün	-9.0579
▁İbrahim	-9.05811
▁şəhərin	-9.05849
dək	-9.05863
▁tanınmış	-9.05895
ologiya	-9.06062
der	-9.06248
▁gəldi	-9.0654
▁Mü	-9.06602
▁na	-9.0661
▁buna	-9.06662
▁Bar	-9.06669
▁ərəb	-9.06678
▁dərs	-9.06942
▁paytaxtı	-9.07053
▁ciddi	-9.07059
▁müdiri	-9.07066
▁Yer	-9.07108
▁silah	-9.07113
iyyə	-9.07165
▁müavini	-9.07177
▁təsiri	-9.07237
▁Bütün	-9.0727
▁1-	-9.07271
▁saylı	-9.07299
me	-9.07358
▁So	-9.07401
▁rəhbərlik	-9.07459
▁Qərbi	-9.07468
▁XX	-9.07507
▁fəaliyyəti	-9.07709
▁işlər	-9.07749
yar	-9.07779
tik	-9.07794
▁demək	-9.07819
▁sıx	-9.07866
▁The	-9.08067
▁adam	-9.08092
▁məxsus	-9.08116
▁sahilində	-9.08266
▁çayının	-9.08269
▁mə	-9.08339
▁bilir	-9.08345
▁Ro	-9.08579
ant	-9.08686
▁bərpa	-9.08724
▁etibarən	-9.08763
▁cəlb	-9.08779
od	-9.09093
▁=	-9.0911
▁а	-9.09158
▁mümkün	-9.09228
▁sol	-9.09246
▁tutan	-9.09889
▁aşağıdakı	-9.09926
▁dil	-9.10182
▁əsəri	-9.10185
ch	-9.10231
▁dövr	-9.10289
▁məhz	-9.10397
▁şəxs	-9.10418
▁Kiçik	-9.10425
▁ç	-9.10441
▁2017-	-9.10565
▁Xan	-9.10576
▁El	-9.10609
▁anası	-9.10726
▁Mi	-9.1081
▁Şərqi	-9.10825
▁alıb	-9.10855
▁xəbər	-9.10878
▁Britaniya	-9.10886
yla	-9.10915
▁qız	-9.11015
▁°	-9.1112
▁yayılmışdır	-9.1126
▁cür	-9.11291
▁Şimal	-9.11362
▁kömək	-9.11409
▁xüsusilə	-9.1144
▁r	-9.11597
den	-9.11666
rı	-9.11892
▁ordu	-9.1196
şi	-9.12157
lük	-9.12228
▁2000-	-9.12244
▁mədəni	-9.12435
▁teatr	-9.12435
▁insanlar	-9.12442
▁2005-	-9.12454
▁məhv	-9.12681
ve	-9.12746
▁2007-	-9.13048
▁hakim	-9.1305
▁Məsələn	-9.13232
▁Gürcüstan	-9.13455
▁yazıçı	-9.13506
▁fəal	-9.13522
▁göstərən	-9.13562
▁en	-9.1357
▁günü	-9.1361
▁beş	-9.13653
▁Co	-9.13683
ub	-9.13683
iyyət	-9.13709
unda	-9.1375
▁din	-9.13761
mer	-9.13769
▁cavab	-9.13868
alı	-9.13904
▁onlara	-9.14065
▁istehsalı	-9.14171
▁dövrü	-9.1427
▁şey	-9.14298
▁1999-	-9.14321
▁vermişdir	-9.14462
▁qrupu	-9.14493
▁Paşa	-9.14552
▁orada	-9.14577
kan	-9.1483
tin	-9.14844
bir	-9.1485
xa	-9.14883
▁ordusu	-9.14916
əsi	-9.15009
▁üçüncü	-9.15046
▁31	-9.15083
tal	-9.15103
▁Amma	-9.15109
▁say	-9.15162
▁əlaqə	-9.15204
ok	-9.15205
ts	-9.1521
▁fransız	-9.15384
▁kino	-9.15418
ks	-9.15443
▁qərb	-9.15542
▁nümayiş	-9.15572
rd	-9.15663
▁avtomobil	-9.15714
▁Sə	-9.15761
▁Va	-9.15835
▁alan	-9.15956
şə	-9.15961
▁dünyada	-9.15981
▁Yaponiya	-9.16035
▁xanım	-9.1617
▁nisbətən	-9.16217
▁tarix	-9.16239
▁Fa	-9.16298
▁hadisə	-9.16301
▁sənaye	-9.16328
▁müstəqil	-9.1644
▁*	-9.16544
▁forma	-9.16613
▁xanın	-9.16752
▁müqavilə	-9.16888
▁Və	-9.16898
▁Yusif	-9.169
iz	-9.16934
▁Za	-9.16954
▁40	-9.17019
▁tərəfdən	-9.17122
ab	-9.17157
▁hüquq	-9.1716
▁Bununla	-9.17259
▁tutur	-9.17303
▁müsəlman	-9.17304
ent	-9.17309
▁işləmişdir	-9.17398
▁Me	-9.17416
çilik	-9.17505
▁qan	-9.17514
Y	-9.17579
▁Tu	-9.17579
▁gəlmişdir	-9.17629
▁Kür	-9.17674
▁tarixli	-9.17708
lılar	-9.17769
əddin	-9.17781
▁rəhbəri	-9.17835
▁adlanır	-9.17856
▁Ye	-9.17946
▁Ri	-9.17993
▁prezidenti	-9.17999
▁Ç	-9.18036
▁bi	-9.18079
▁gecə	-9.18211
▁əvvəllərində	-9.18347
ley	-9.18368
▁naziri	-9.18383
▁meşə	-9.18431
▁çıxan	-9.18496
▁ada	-9.18527
oloji	-9.18533
bo	-9.18555
▁Lo	-9.18555
hazırda	-9.18669
qu	-9.18705
▁2002-	-9.18711
▁2-	-9.18717
lığa	-9.1873
ıl	-9.18817
▁Bəzi	-9.18833
▁San	-9.18846
▁ondan	-9.18915
oz	-9.18977
▁gəlib	-9.19033
▁Elmi	-9.1906
▁Qədim	-9.19082
▁aktyor	-9.19205
öv	-9.19356
▁Con	-9.19425
▁qazandı	-9.19441
▁yazır	-9.19443
▁müharibə	-9.195
▁Asiya	-9.19716
3	-9.19792
▁bitirmişdir	-9.1984
▁olunması	-9.19847
с	-9.19994
▁tədris	-9.20011
▁İki	-9.20057
▁rejissor	-9.20243
▁isti	-9.20275
▁aiddir	-9.20568
▁məlum	-9.20625
▁hiss	-9.20666
▁Qu	-9.20681
çay	-9.20705
çə	-9.20716
ber	-9.20741
▁şərq	-9.20815
▁tamamilə	-9.2088
▁həyatı	-9.20923
tez	-9.2098
▁Nə	-9.21002
▁formula	-9.21025
▁üstünlük	-9.21106
▁etməsi	-9.21106
▁dəmir	-9.21123
san	-9.2131
▁Beləliklə	-9.21313
▁Abbas	-9.21412
▁Allah	-9.21474
▁as	-9.21484
ek	-9.21551
▁iddia	-9.21728
▁məruz	-9.2178
▁cəhətdən	-9.22006
qi	-9.22025
▁bəhs	-9.22052
▁İsa	-9.22415
▁ağa	-9.22523
▁tərcümə	-9.22641
▁rəng	-9.22661
gen	-9.2281
▁dəfn	-9.22822
▁qarşısında	-9.22841
▁kilsə	-9.22905
▁nəzərə	-9.22953
▁1993-	-9.2301
▁nəticə	-9.23016
▁düşür	-9.23149
▁həll	-9.23211
sen	-9.23369
▁boyu	-9.23389
▁illərində	-9.23513
▁Bi	-9.23556
▁Müqəddəs	-9.23573
▁Qə	-9.23636
▁müəllifi	-9.23739
una	-9.23805
▁Ca	-9.23984
▁Məmmədov	-9.23992
▁arasındakı	-9.24109
▁mahnı	-9.24211
▁əsərləri	-9.24281
▁ərazidə	-9.243
▁dəqiq	-9.24407
▁yerə	-9.24423
▁2004-	-9.24428
▁zəif	-9.24503
zə	-9.24517
▁lazımdır	-9.24801
▁görkəmli	-9.24821
▁qalib	-9.24869
▁sonunda	-9.25018
lidir	-9.25047
▁keçən	-9.25073
▁dərin	-9.25208
▁Həmçinin	-9.25238
▁uğrunda	-9.25278
▁Heydər	-9.25329
▁sovet	-9.25397
▁br	-9.25423
▁şəxsi	-9.25589
▁Əgər	-9.2563
▁pro	-9.25871
▁yoldaşı	-9.25883
▁18.7	-9.2589
▁1991-	-9.25962
mar	-9.25989
▁gedən	-9.26
▁47.5	-9.26006
▁mükafatı	-9.2612
▁deyilir	-9.26223
▁Or	-9.26237
▁yaşlı	-9.26253
▁mərkəzində	-9.26282
tor	-9.26304
▁ön	-9.26376
▁Universitetində	-9.26378
Ş	-9.2642
▁+	-9.26424
▁Digər	-9.26436
▁metal	-9.26467
▁medal	-9.2656
▁qar	-9.26639
▁məqsədilə	-9.26778
luğu	-9.26783
▁aldı	-9.26872
▁göz	-9.26906
▁özünə	-9.26967
maz	-9.27079
▁kon	-9.27113
▁təsərrüfatı	-9.27127
▁bax	-9.27146
▁görülmüşdür	-9.27259
▁xeyli	-9.27376
▁maliyyə	-9.27396
▁1918-	-9.27404
▁Oyunlarında	-9.27522
ke	-9.27558
▁güc	-9.27584
▁Man	-9.27628
▁hazır	-9.27881
▁vermiş	-9.27883
▁əksəriyyəti	-9.28018
▁İtaliya	-9.28086
▁IV	-9.28149
bar	-9.28308
▁Muxtar	-9.28336
▁En	-9.28412
▁içərisində	-9.28422
sta	-9.28425
▁sadə	-9.28456
uq	-9.28573
lənir	-9.28574
lanma	-9.28685
lov	-9.28724
▁А	-9.28788
uş	-9.28791
1	-9.28899
▁çalışmışdır	-9.29008
▁Hərbi	-9.29048
▁aydın	-9.29064
▁Aleksandr	-9.29087
ss	-9.29097
▁əmək	-9.29246
▁içində	-9.29289
qar	-9.29358
▁sal	-9.29441
▁ədəbi	-9.29576
fə	-9.29633
1-	-9.29662
▁fəlsəfə	-9.29701
dılar	-9.2971
▁etmə	-9.29721
op	-9.2986
▁hallarda	-9.29902
▁maraq	-9.2993
▁sayda	-9.29957
▁alim	-9.29988
▁Şəhər	-9.30035
▁verilir	-9.30063
▁yaradılması	-9.30074
▁tanış	-9.30077
▁xal	-9.3009
▁etdilər	-9.30103
▁Elmlər	-9.30129
▁fikir	-9.30251
▁dair	-9.30281
be	-9.30284
▁He	-9.30299
▁ve	-9.30316
▁qat	-9.3033
▁əvvəlki	-9.30398
▁Kon	-9.30424
ıq	-9.30468
laşma	-9.30484
mır	-9.30611
▁vardı	-9.30653
▁ərazisi	-9.30663
▁Bə	-9.30664
▁Eyni	-9.3084
▁Şirvan	-9.3088
men	-9.30884
▁la	-9.30891
▁düz	-9.31088
▁edirdilər	-9.31118
▁Qar	-9.3123
▁Şa	-9.3134
▁izah	-9.31378
▁çalışır	-9.31412
▁Mu	-9.31501
▁İsmayıl	-9.31512
▁öncə	-9.31547
ud	-9.31588
▁başçısı	-9.31594
▁xüsusiyyətləri	-9.31609
▁qırmızı	-9.3185
▁diqqət	-9.31928
▁verilən	-9.31935
▁bələdiyyəsi	-9.3196
can	-9.32114
▁adətən	-9.32146
▁sənət	-9.32193
▁informasiya	-9.32248
▁gətirir	-9.32262
▁ətraf	-9.32291
▁Qırmızı	-9.32355
qdan	-9.32427
ından	-9.32463
▁yük	-9.32479
▁nəfəri	-9.32491
▁Qo	-9.32492
▁ölkədə	-9.32521
▁verdiyi	-9.32528
▁sonrakı	-9.32649
▁rəngli	-9.3278
▁sistem	-9.3279
▁adlanan	-9.32902
18	-9.32977
bəyov	-9.33016
rik	-9.33082
▁yarım	-9.33138
2-	-9.33156
məyə	-9.33157
▁yaradır	-9.33217
▁dəstək	-9.33256
▁Ərəb	-9.33529
▁dəvət	-9.33596
▁Ak	-9.33615
▁Rusiyanın	-9.3366
xana	-9.33677
▁yazdığı	-9.33683
▁g	-9.33735
ser	-9.33739
per	-9.33777
▁Kor	-9.33784
▁qalır	-9.33819
pe	-9.3386
▁nümayəndələri	-9.33873
▁Akademiyasının	-9.33919
liyini	-9.33948
iyə	-9.3395
▁yara	-9.34125
▁Lu	-9.34132
▁çıxır	-9.3417
rin	-9.34226
▁başlayaraq	-9.34272
▁bina	-9.34286
qə	-9.34366
▁Ər	-9.34382
▁mürəkkəb	-9.34441
abad	-9.34541
ron	-9.34552
din	-9.34617
▁indi	-9.34642
▁mal	-9.34694
bəyli	-9.34727
▁bağ	-9.34731
▁Birləşmiş	-9.34746
▁Cənub	-9.34752
▁işi	-9.34817
kənd	-9.34868
yin	-9.34912
▁Əsas	-9.34936
▁Misir	-9.35007
▁insanların	-9.35016
uz	-9.35036
▁uzaq	-9.35283
▁Ho	-9.35292
▁mahnısı	-9.3534
▁Şəki	-9.35355
▁miqdarı	-9.35462
▁gəmi	-9.35519
▁roman	-9.35606
▁müraciət	-9.35644
▁Quba	-9.35671
▁mineral	-9.35713
▁Lənkəran	-9.35722
▁sahibi	-9.3573
▁Ana	-9.35751
han	-9.35758
ster	-9.35914
▁tut	-9.35916
▁gəlmiş	-9.3594
▁gəlinir	-9.36077
▁Ki	-9.36087
sindən	-9.36122
▁yay	-9.36207
▁3-	-9.36219
▁Şeyx	-9.36385
▁Əmir	-9.36538
▁nəzarət	-9.36576
ner	-9.36609
▁lazım	-9.36664
▁ağac	-9.36702
▁sa	-9.36723
lin	-9.3678
▁İspaniya	-9.36796
▁təsis	-9.36879
▁sərhəd	-9.36976
▁mərkəz	-9.36997
▁Az	-9.37033
▁necə	-9.37036
▁Hə	-9.3715
▁Pi	-9.37157
▁qələbə	-9.37166
▁kitabı	-9.37194
▁Be	-9.3724
▁2003-	-9.37252
▁İngiltərə	-9.37517
▁ye	-9.37575
▁ölümündən	-9.37588
▁ulduz	-9.37761
▁fiziki	-9.37791
▁ərazisinə	-9.37881
ban	-9.38156
▁əsər	-9.382
▁Nyu	-9.38223
▁real	-9.38253
▁gedir	-9.38393
10	-9.38437
▁Süleyman	-9.3859
▁etdirir	-9.38718
▁təkrar	-9.38735
▁Sonra	-9.38835
▁bundan	-9.38845
▁Çox	-9.39035
▁elmlər	-9.39053
▁işə	-9.39088
▁Po	-9.3916
▁Seyid	-9.39177
▁polis	-9.3918
▁yeganə	-9.39195
lığın	-9.39197
▁deməkdir	-9.39473
▁qatı	-9.39659
▁icra	-9.39684
ılır	-9.3979
▁amma	-9.39809
▁dənizi	-9.39825
ger	-9.39837
▁adaları	-9.39891
lənmiş	-9.39909
▁heyvan	-9.39914
ylə	-9.39941
▁qərarı	-9.3996
lanmış	-9.39989
▁si	-9.39991
▁Mustafa	-9.39994
▁xətti	-9.39996
.19	-9.40029
▁Şuşa	-9.40183
▁artır	-9.40273
▁boyunca	-9.40325
▁müəllifidir	-9.40333
▁ata	-9.40387
▁mən	-9.40408
▁c	-9.40451
▁olunurdu	-9.40471
▁məntəqəsi	-9.40489
ator	-9.40496
▁yağ	-9.40776
▁illərin	-9.40863
nik	-9.40864
▁xristian	-9.40888
dağ	-9.40893
▁fəxri	-9.40969
▁albom	-9.40971
ək	-9.41004
▁Neft	-9.41112
▁bitirib	-9.41137
▁qida	-9.4114
▁yan	-9.41159
▁partiya	-9.41198
▁növləri	-9.41309
▁tutdu	-9.41351
yer	-9.41405
liyinə	-9.41527
stan	-9.41543
kə	-9.41661
miz	-9.4171
▁ar	-9.41766
▁məcbur	-9.41788
▁Te	-9.41805
▁proqram	-9.41827
▁Şamaxı	-9.41921
▁əsrlərdə	-9.41985
▁arxa	-9.42001
▁Bunun	-9.42042
▁direktoru	-9.42042
▁cinsi	-9.42101
▁incəsənət	-9.42103
▁yaradılmış	-9.42203
ku	-9.42272
▁kəs	-9.42426
▁sonralar	-9.42445
▁kəndin	-9.4264
mət	-9.42685
mur	-9.4305
pi	-9.43104
ft	-9.43107
▁göstərmişdir	-9.4313
ləşmə	-9.432
50	-9.43202
lama	-9.43212
▁Ev	-9.43234
▁60	-9.43302
▁Mahnı	-9.4335
и	-9.43428
▁üzvləri	-9.43526
▁daxilində	-9.43671
▁rolu	-9.43682
▁kar	-9.43684
▁nail	-9.43745
▁Mor	-9.43749
▁dərc	-9.4378
▁and	-9.43817
ım	-9.43921
▁hissəsini	-9.43966
▁Dəniz	-9.44003
▁eni	-9.44011
xi	-9.44075
▁bal	-9.44108
▁çətin	-9.4414
gə	-9.44271
hə	-9.44341
▁Ti	-9.44478
▁yardım	-9.445
▁1920-	-9.44542
▁dəstəsi	-9.44555
▁hazırda	-9.44617
▁mövzusunda	-9.44794
▁qəzet	-9.44808
▁çar	-9.44933
laq	-9.44988
▁olduqca	-9.45039
▁elektrik	-9.45075
▁hissə	-9.45116
▁qayda	-9.45192
▁memarlıq	-9.45214
▁müvafiq	-9.45295
▁tərəf	-9.45315
▁sonradan	-9.45326
▁dövləti	-9.45448
▁May	-9.45463
rkən	-9.45475
ы	-9.45479
▁se	-9.45506
sən	-9.45512
▁Vi	-9.45516
▁çatır	-9.4554
▁Gül	-9.45573
▁yunan	-9.45648
th	-9.45671
▁ailəsində	-9.45701
▁vahid	-9.45783
▁yazı	-9.45789
▁2001-	-9.45906
▁general	-9.45936
lanan	-9.45947
▁nadir	-9.46037
▁cəmi	-9.46168
em	-9.46241
▁ölüm	-9.46323
po	-9.46327
▁tədqiqat	-9.46363
▁qanun	-9.46402
▁hündürlüyü	-9.46447
▁Respublika	-9.46467
▁Çünki	-9.46506
ah	-9.46547
▁Prezidenti	-9.46657
▁insanın	-9.46674
▁üsyan	-9.46743
ing	-9.46781
iki	-9.46821
rat	-9.46847
▁sahil	-9.46886
▁Mahmud	-9.46928
▁keçirilir	-9.4703
▁AMEA	-9.47119
lis	-9.47148
▁mərhələsində	-9.47161
▁ermənilər	-9.47173
▁əhalisinin	-9.4718
▁rəssam	-9.47214
tur	-9.47232
▁sə	-9.47244
▁adları	-9.4725
▁siyahıya	-9.47267
▁Ab	-9.47292
▁deyir	-9.47306
▁me	-9.47307
▁hazırlanmış	-9.47354
▁tabe	-9.47374
if	-9.47375
ndakı	-9.47429
kt	-9.47463
▁Mak	-9.4751
▁təlim	-9.47775
▁As	-9.4783
oviç	-9.47832
▁dağı	-9.4784
▁dəstə	-9.47905
4-	-9.47951
kən	-9.48049
kdən	-9.48096
▁Ölkə	-9.48149
ia	-9.48155
▁gizli	-9.48159
▁Əbu	-9.48257
▁saray	-9.4831
▁rəisi	-9.4842
▁təsadüf	-9.48489
▁Fi	-9.48601
atı	-9.48625
▁Ukrayna	-9.48625
▁həmişə	-9.48651
▁göstərmək	-9.48716
▁əsl	-9.4872
▁televiziya	-9.48748
ada	-9.48754
▁pis	-9.48809
▁qatıldı	-9.4882
▁bildirir	-9.48852
▁Qərb	-9.48875
▁övladı	-9.48963
▁İnstitutunda	-9.49065
▁qəzeti	-9.49114
vin	-9.49206
▁çünki	-9.49243
▁şirkəti	-9.49255
▁respublika	-9.49277
▁yaz	-9.49297
ment	-9.49358
▁təşkilat	-9.4936
▁1994-	-9.49419
▁Avstriya	-9.49441
▁sübut	-9.49608
▁hesabı	-9.49621
▁Mədəniyyət	-9.49641
▁Do	-9.49651
▁bunun	-9.49699
▁Er	-9.49715
▁bunu	-9.49722
▁the	-9.49745
len	-9.49815
fer	-9.4986
▁Şi	-9.49862
▁fars	-9.4992
у	-9.49925
▁şərait	-9.49927
▁Ona	-9.50062
▁Rayon	-9.50122
▁məktəbində	-9.50156
▁kifayət	-9.50172
amp	-9.50177
ana	-9.50238
▁Polşa	-9.50418
▁əsasını	-9.50469
▁temperatur	-9.50476
yo	-9.50508
bil	-9.50534
▁səbəbi	-9.50585
▁kol	-9.50588
▁əsir	-9.50631
-1	-9.50677
3-	-9.5068
▁məscid	-9.50681
▁bölgə	-9.50691
▁sinif	-9.5072
▁1980-	-9.50766
▁almış	-9.508
▁kompüter	-9.50841
▁tərkibinə	-9.50903
▁Mə	-9.51025
mağı	-9.51042
▁köhnə	-9.51043
cək	-9.5109
▁qadınlar	-9.51141
▁Vətən	-9.51159
▁parça	-9.51208
namə	-9.51301
▁ləğv	-9.51447
▁ədəbiyyat	-9.51452
sından	-9.51528
▁alt	-9.51619
▁üzv	-9.51674
▁ədəbiyyatı	-9.51729
▁Teymur	-9.51752
▁tələbə	-9.51891
▁Qazax	-9.51936
ilən	-9.51996
▁İl	-9.52095
ium	-9.521
lənən	-9.52178
▁ət	-9.52279
▁deyə	-9.52279
mişdi	-9.52345
▁üst	-9.52377
▁üzü	-9.52381
▁hökumət	-9.52433
▁məhkəmə	-9.52453
liyin	-9.52496
▁həkim	-9.52498
▁kənddə	-9.5251
▁At	-9.52559
▁nəfərdir	-9.52704
co	-9.52737
▁məsələn	-9.52781
Bu	-9.5281
▁1998-	-9.52821
▁başlayan	-9.52823
▁xilas	-9.52876
▁Aşağı	-9.52909
ker	-9.52971
daş	-9.53008
ga	-9.53062
▁vaxtı	-9.53067
▁vəzifəsinə	-9.53073
▁özündə	-9.53096
av	-9.53116
▁meyvə	-9.53237
▁radio	-9.5326
▁klubu	-9.53261
ax	-9.53291
tra	-9.53319
▁altı	-9.53325
▁tərtib	-9.53377
▁Mar	-9.5353
▁Per	-9.53572
▁Günəş	-9.53683
▁sayılır	-9.53709
▁dövlətinin	-9.53728
▁Pro	-9.53739
bər	-9.53765
▁hökuməti	-9.53776
so	-9.53804
▁başlayıb	-9.53816
▁kimya	-9.53891
`	-9.53908
▁Ağdam	-9.53915
▁bağlıdır	-9.5398
▁sülh	-9.53983
▁şərəfinə	-9.53986
tika	-9.53998
▁hə	-9.54018
ika	-9.54089
▁kəskin	-9.54097
▁tamam	-9.54148
▁Təhsil	-9.54151
▁Avstraliya	-9.54151
▁’	-9.5422
▁ailəsi	-9.54262
▁filmlərinin	-9.54263
▁düşmən	-9.543
lanır	-9.5432
▁Yan	-9.54373
▁ilkin	-9.54396
sın	-9.54438
▁Öz	-9.54506
▁Araz	-9.54543
▁katibi	-9.54583
ten	-9.54591
▁Molla	-9.54709
mon	-9.54858
▁mümkündür	-9.54875
▁yüz	-9.54902
▁xadimi	-9.54904
str	-9.54954
▁təcrübə	-9.55
▁Uzun	-9.55
▁sayəsində	-9.55061
▁ba	-9.5512
▁daşıyır	-9.55148
▁Paris	-9.55252
▁maraqlı	-9.55289
▁Komitəsinin	-9.5534
▁tibb	-9.5535
lanması	-9.55518
▁İncəsənət	-9.55619
▁abidə	-9.55622
ic	-9.55665
▁yazılmış	-9.55709
▁hakimi	-9.55742
aya	-9.55764
▁dərəcə	-9.5583
▁ruh	-9.55864
üm	-9.56036
▁nin	-9.56097
▁Tur	-9.56137
▁nəticəsi	-9.56142
▁nümayəndəsi	-9.56145
▁yenə	-9.56163
▁1988-	-9.56179
▁Fe	-9.56266
▁fərq	-9.5638
▁с	-9.56382
▁möhkəm	-9.56479
▁olmasına	-9.56496
▁ara	-9.56568
▁Hi	-9.56605
▁mənsub	-9.56609
▁bank	-9.56678
▁Har	-9.56701
ayrı	-9.56729
▁texniki	-9.56744
▁edilirdi	-9.56785
▁yumurta	-9.56964
▁iqlim	-9.57041
ləmə	-9.57134
▁Ver	-9.5716
▁Ada	-9.57232
▁te	-9.57338
▁canlı	-9.57355
uk	-9.57438
▁ehtimal	-9.57463
▁filmin	-9.57572
çılıq	-9.57576
▁medalı	-9.57626
▁ni	-9.57632
yn	-9.57694
▁baxımından	-9.57897
▁vacib	-9.57952
▁Avroviziya	-9.5797
▁həftə	-9.58028
▁enerji	-9.58055
▁Ey	-9.58109
▁Am	-9.58131
çılar	-9.58148
▁Ve	-9.58218
▁layihə	-9.58266
▁Nazirliyinin	-9.5828
▁Xa	-9.58352
▁prezident	-9.58392
mu	-9.58431
▁1997-	-9.58503
▁peşəkar	-9.58518
▁1996-	-9.58518
▁əməliyyat	-9.58536
▁edilmişdi	-9.58619
▁bazar	-9.5865
▁təmiz	-9.58705
▁məna	-9.5875
т	-9.58767
▁qüvvələri	-9.58786
▁sərbəst	-9.58802
arkən	-9.58851
▁nömrəli	-9.58876
oy	-9.58889
0-	-9.5901
▁35	-9.59026
▁1995-	-9.59096
ılmış	-9.59156
fe	-9.59299
▁n	-9.59313
▁dəyişir	-9.5933
kov	-9.59371
▁yaşı	-9.59377
11	-9.59472
▁daşı	-9.59476
▁köməyi	-9.59486
▁təbəqə	-9.59611
4	-9.59657
▁1970-	-9.59789
▁Nizami	-9.59808
▁Ber	-9.59843
şı	-9.59847
▁к	-9.59853
▁Pir	-9.59861
gər	-9.59923
80	-9.5994
▁növbəti	-9.59945
▁tikinti	-9.60009
▁ordeni	-9.60031
▁Hava	-9.60031
▁taxta	-9.6006
▁aktiv	-9.6008
ata	-9.60083
▁qoşunları	-9.60153
200	-9.60219
▁qaldı	-9.60221
▁biz	-9.60289
▁şəhid	-9.60289
▁aparıcı	-9.60378
▁qə	-9.60389
mal	-9.60404
▁Tibb	-9.60568
▁təbiət	-9.6057
▁həlak	-9.60639
ari	-9.60689
▁model	-9.60876
▁fəaliyyətinə	-9.60885
▁göy	-9.60921
▁universitet	-9.60977
▁gümüş	-9.61004
▁vergi	-9.61026
12	-9.61048
gin	-9.61062
ris	-9.6119
▁sahə	-9.61199
qərb	-9.61288
▁Üç	-9.61397
▁Təbriz	-9.61447
zu	-9.61458
▁ixtisas	-9.61497
ho	-9.61517
▁nəsil	-9.61603
▁keçdi	-9.61642
▁vilayəti	-9.61702
.1	-9.61718
▁final	-9.61761
▁proqramı	-9.61765
13	-9.61887
▁Çi	-9.61912
rit	-9.62014
inq	-9.62015
▁fəaliyyətini	-9.62075
▁cü	-9.62088
▁sonuncu	-9.62092
▁Tarix	-9.62096
▁səbəbdən	-9.62176
▁yaşadığı	-9.62178
mı	-9.62189
▁Müasir	-9.62278
▁Afrika	-9.62334
▁hakimiyyət	-9.62429
kon	-9.62455
val	-9.6247
▁Sal	-9.62475
▁azərbaycanlılar	-9.62489
▁20-	-9.62521
▁London	-9.62555
▁şəxslər	-9.6264
▁bölünür	-9.62665
▁aparılan	-9.62741
ji	-9.62751
▁binası	-9.62755
raq	-9.62828
çilər	-9.62888
lıdır	-9.62943
▁müəllimi	-9.62991
▁etmişlər	-9.63054
▁Nadir	-9.63157
▁quruluşu	-9.63158
▁elektron	-9.63187
▁Sin	-9.63198
▁çəkilmiş	-9.63271
▁4-	-9.63372
▁prosesi	-9.63441
▁İttifaqı	-9.63465
▁J	-9.63482
▁ca	-9.63486
▁oyunda	-9.63499
▁Çay	-9.63545
▁qaya	-9.63552
▁məktəbdə	-9.63577
▁onunla	-9.63613
xt	-9.63613
ard	-9.63668
▁sahədə	-9.63671
▁is	-9.63726
▁hüququ	-9.6384
▁2006	-9.63891
▁kitabxana	-9.63953
▁bar	-9.6397
▁Qala	-9.6399
▁bayrağı	-9.64024
▁səfər	-9.64074
▁l	-9.64082
▁el	-9.64145
▁təyyarə	-9.64186
я	-9.64196
ff	-9.64432
▁vəziyyət	-9.64462
▁çıxdı	-9.64563
▁Ça	-9.64573
▁çoxu	-9.64591
adlandırılmışdır	-9.64593
▁çıxar	-9.64706
▁müqəddəs	-9.64716
▁dövlətin	-9.64724
5	-9.64725
▁imza	-9.6475
▁aldığı	-9.64796
▁Pe	-9.64862
▁sarı	-9.64941
▁1960-	-9.65041
io	-9.65081
▁Kan	-9.65211
▁bəstəkar	-9.65217
▁üzvüdür	-9.65286
▁qonşu	-9.65335
▁müddətdə	-9.65484
▁yerlərdə	-9.65503
ör	-9.65505
▁klassik	-9.65529
▁qarşılıqlı	-9.6553
▁yaşıl	-9.65532
▁sahələri	-9.65535
▁olduğundan	-9.65546
▁əsərində	-9.65547
▁Qız	-9.65604
▁Bay	-9.65652
▁Azər	-9.65694
▁dərəcəsi	-9.65721
▁Kral	-9.65774
▁qiymət	-9.65792
▁Şurasının	-9.65834
▁dövrün	-9.65835
▁imtina	-9.65996
▁albomu	-9.66003
sion	-9.66011
▁Aşıq	-9.66056
tir	-9.66078
▁ixtisası	-9.66093
▁səhnə	-9.66099
▁İstanbul	-9.66134
▁70	-9.66168
▁rolunu	-9.66179
▁ayrılır	-9.66279
▁seçilmişdir	-9.6629
▁vasitəsi	-9.66323
▁dərəcədə	-9.66374
▁mənşəli	-9.66438
əyi	-9.66478
▁göl	-9.66526
▁vəziyyəti	-9.66543
▁Nazirliyi	-9.66646
▁klub	-9.6667
▁adi	-9.66737
▁seçilir	-9.66812
w	-9.66912
▁kral	-9.6693
▁ortaya	-9.66934
yon	-9.67038
▁birində	-9.67098
▁hökmdarı	-9.67176
▁istiqamət	-9.67191
iç	-9.67214
isi	-9.67279
▁etməklə	-9.6728
anı	-9.67407
▁qalmış	-9.6747
şərq	-9.67563
▁muzey	-9.67591
bat	-9.67611
▁İnstitutu	-9.67623
▁kütləvi	-9.67631
ılması	-9.67752
▁Birliyinin	-9.67775
▁hündür	-9.67827
▁okean	-9.67934
edici	-9.67968
est	-9.67993
malı	-9.68072
lənmişdir	-9.68077
çe	-9.6808
▁maddi	-9.68081
▁Hindistan	-9.68104
▁bələdiyyə	-9.68138
▁Cəfər	-9.68147
▁təhsili	-9.68216
▁va	-9.68294
▁Dağ	-9.68338
40	-9.68395
land	-9.68416
▁əsası	-9.68451
▁balıq	-9.68531
ez	-9.68531
▁məktub	-9.68577
▁İsrail	-9.68588
▁Don	-9.6861
▁nın	-9.68613
▁32	-9.68618
▁təpə	-9.68688
▁iç	-9.68693
▁qalıqları	-9.68697
м	-9.68711
laşdırılması	-9.68763
▁pay	-9.68851
▁idilər	-9.68867
▁Türkiyənin	-9.68918
▁bilən	-9.68923
▁200	-9.68942
▁Qafqazın	-9.6898
▁giriş	-9.68998
▁əsgər	-9.69098
▁iştirakı	-9.69119
▁ilədək	-9.69137
▁etməyi	-9.69154
▁kimyəvi	-9.69198
muş	-9.6926
▁suyun	-9.69301
▁tədqiqatlar	-9.69331
в	-9.6938
▁ölkələrdə	-9.69383
bin	-9.69407
ünü	-9.69413
▁can	-9.6951
▁ton	-9.69564
▁icazə	-9.69617
30	-9.69624
▁verilməsi	-9.69646
▁onlardan	-9.69659
▁parlaq	-9.69662
▁dəqiqə	-9.69716
б	-9.69723
▁Karl	-9.6973
əz	-9.69751
▁dağlıq	-9.69757
ا	-9.6977
▁bəyin	-9.69782
▁plan	-9.69809
▁şəhərinə	-9.69811
vo	-9.69873
▁qa	-9.69881
lat	-9.69927
▁XVIII	-9.69943
▁kəndinin	-9.70024
▁sərgi	-9.7008
zin	-9.70081
▁1989-	-9.70165
▁Her	-9.70187
▁bilmir	-9.70192
▁Avropada	-9.70193
▁çiçək	-9.70245
om	-9.70274
▁х	-9.70361
çısı	-9.70531
▁dərəcəli	-9.70555
▁hadisələr	-9.70565
▁küçə	-9.70615
▁əvvəlcə	-9.70747
▁redaktoru	-9.70814
çisi	-9.70937
▁xəstə	-9.70958
▁təsərrüfat	-9.71008
ze	-9.71075
6-	-9.71097
▁Du	-9.71134
▁mu	-9.71184
▁İraq	-9.71231
ram	-9.71258
09	-9.71289
▁jurnalist	-9.71369
▁dillərində	-9.7143
▁şeir	-9.71439
▁fəaliyyətə	-9.71606
▁1919-	-9.71662
Z	-9.71695
layır	-9.7172
rət	-9.71746
bət	-9.71759
▁maddə	-9.71781
▁ərazilərdə	-9.71854
▁yayılmış	-9.71914
lənmə	-9.71943
▁Zi	-9.7196
▁Ara	-9.72054
▁5-	-9.72068
▁ordusunun	-9.72134
▁keçirir	-9.72199
▁tədqiq	-9.7224
ck	-9.72305
▁namizədi	-9.72323
▁Kanada	-9.72383
▁İş	-9.72412
▁məlumatlar	-9.72421
▁rəqs	-9.72425
▁qab	-9.72447
▁alınmışdır	-9.72583
▁dissertasiyası	-9.72626
▁kq	-9.72687
iq	-9.72743
▁komandası	-9.72781
▁et	-9.72897
ağı	-9.72906
▁Alman	-9.72928
▁boya	-9.72958
▁yu	-9.7305
▁qolu	-9.73067
▁30-	-9.73112
▁akademik	-9.73118
▁aradan	-9.73171
▁vermək	-9.73208
▁tip	-9.73245
▁işləyib	-9.73299
▁ko	-9.73338
▁do	-9.73459
dr	-9.73474
▁çöl	-9.7353
16	-9.73548
▁Sü	-9.73578
▁hazırlanması	-9.73589
▁kralı	-9.73595
▁qalmışdır	-9.73631
,6	-9.7365
▁səyahət	-9.73664
▁Hüseynov	-9.73729
▁In	-9.73731
rak	-9.73784
aş	-9.73794
▁günəş	-9.73822
▁Suriya	-9.73844
▁bilmədi	-9.73896
mb	-9.73953
▁gücü	-9.73955
▁qiymətli	-9.74007
▁anti	-9.7402
ja	-9.74102
▁С	-9.74104
▁şöbə	-9.7412
▁vəziyyətdə	-9.74183
▁tətbiqi	-9.74262
з	-9.74286
▁Musa	-9.74356
▁45	-9.74369
▁üstündə	-9.74428
don	-9.74474
▁çəkilmişdir	-9.74598
ren	-9.74615
ləşdirilməsi	-9.74656
▁ostanının	-9.74664
▁müalicə	-9.7469
▁•	-9.74724
▁mövqe	-9.74734
tri	-9.74775
▁əmr	-9.7482
▁ak	-9.74868
▁struktur	-9.74931
▁işlə	-9.74936
▁İngilis	-9.7498
▁alınmasına	-9.74995
▁sözləri	-9.7501
▁ənənəvi	-9.75117
▁kişilər	-9.75156
ləyir	-9.75225
tel	-9.75263
▁çevrilir	-9.75281
iv	-9.75329
▁siyasət	-9.75422
▁Bur	-9.75445
▁ər	-9.75495
▁bitirdikdən	-9.75498
,5	-9.75612
▁fizika	-9.75657
suz	-9.75668
▁yaranmışdır	-9.75708
▁gürcü	-9.75709
▁mühəndis	-9.75724
▁500	-9.7579
▁Val	-9.75819
▁ürək	-9.75842
▁mədəniyyəti	-9.75963
▁yerində	-9.75965
▁vermə	-9.75977
▁alınması	-9.75977
▁əsərlər	-9.75983
▁atəş	-9.75996
▁çəki	-9.76032
.5	-9.76098
lənməsi	-9.76195
qal	-9.76203
▁cəmiyyət	-9.7625
▁Kol	-9.76322
▁Kəndin	-9.76397
lay	-9.76459
▁etnik	-9.76507
▁münasibətləri	-9.7655
▁Abşeron	-9.76563
rt	-9.76697
▁İnsan	-9.76867
▁mis	-9.76876
ld	-9.76879
▁bədən	-9.76879
▁yeddi	-9.7688
▁Yuxarı	-9.76889
ünün	-9.7691
▁olacaq	-9.76955
ion	-9.77114
▁mi	-9.77129
▁aylarında	-9.77137
▁Çar	-9.77182
▁W	-9.77221
▁namizəd	-9.77264
▁Elə	-9.77266
▁nüvə	-9.77292
▁Sumqayıt	-9.77314
tt	-9.77325
sti	-9.77333
lığını	-9.7738
▁li	-9.77404
▁Daş	-9.77414
zar	-9.77435
▁Sər	-9.77466
▁problemləri	-9.77527
▁video	-9.77534
▁çərçivəsində	-9.77591
▁Xarici	-9.77624
▁keçirilmiş	-9.77715
▁80	-9.77744
▁Mər	-9.77806
▁sürətlə	-9.77811
▁qarşısını	-9.77841
▁dairəsi	-9.77956
▁cild	-9.78035
▁cüt	-9.78043
▁boğazı	-9.78064
▁əməkdar	-9.78305
ura	-9.7831
▁forması	-9.78392
▁üsulu	-9.78393
5-	-9.78468
▁İlham	-9.78506
▁yetir	-9.78607
kdə	-9.78663
▁silahlı	-9.78674
▁öldür	-9.78682
▁şəbəkə	-9.78693
▁Ordubad	-9.78752
▁konsert	-9.78767
▁mənası	-9.78788
▁onda	-9.78795
▁Dil	-9.78796
▁gölü	-9.7883
bay	-9.78852
▁tədbirlər	-9.78892
▁yaratmaq	-9.78971
▁yaranan	-9.79002
▁sisteminin	-9.79009
▁əlaqələr	-9.79022
▁tərəfi	-9.79032
▁romanı	-9.79044
▁qəsəbə	-9.7907
▁Ru	-9.79135
,4	-9.79152
gah	-9.79175
▁un	-9.79231
▁olma	-9.79262
▁uğurlu	-9.79288
▁hamısı	-9.79292
▁Silahlı	-9.79329
▁tərzi	-9.79346
▁quş	-9.79362
▁şöbəsinin	-9.79369
▁yaşamış	-9.79372
▁О	-9.79381
▁Musiqi	-9.79387
▁Tək	-9.79422
▁dollar	-9.79428
əcək	-9.79481
▁cinayət	-9.79493
▁heyəti	-9.79503
▁bas	-9.79509
acağı	-9.79601
▁evi	-9.7965
▁müsbət	-9.79661
nes	-9.79729
▁nümayəndə	-9.79751
▁Tar	-9.79773
ük	-9.79795
sey	-9.79829
▁Quliyev	-9.79856
▁əmri	-9.79928
▁qazanmışdır	-9.79938
▁kilometr	-9.7996
ara	-9.79989
rək	-9.79997
▁park	-9.80008
▁fərdi	-9.80037
▁u	-9.80052
▁görünür	-9.80116
▁qəza	-9.80128
ğan	-9.80258
▁keçirilməsi	-9.80296
▁qismi	-9.80337
ilir	-9.80365
▁reaksiya	-9.80367
▁müğənni	-9.80378
▁etdikləri	-9.80469
94	-9.80498
▁Elm	-9.80527
▁bizim	-9.80531
▁Uşaq	-9.80554
enin	-9.80575
99	-9.8062
▁məsələ	-9.80633
▁başlamış	-9.80661
▁ekran	-9.80816
▁kim	-9.80828
▁bununla	-9.80863
▁Ben	-9.80937
lon	-9.80954
▁yanına	-9.80956
caq	-9.80975
▁olurlar	-9.80978
▁tərəfində	-9.81004
▁terror	-9.81008
01	-9.8105
▁Var	-9.81065
▁təkcə	-9.81092
▁150	-9.81133
▁ne	-9.81182
▁artisti	-9.81205
25	-9.8122
▁əs	-9.8122
zo	-9.81223
60	-9.81301
▁tərkibi	-9.81352
rus	-9.81388
▁qış	-9.81463
üb	-9.8147
▁Kal	-9.81481
▁görür	-9.81523
▁soyuq	-9.81587
▁habelə	-9.81604
▁ziyarət	-9.8164
▁2000	-9.81644
▁2018-	-9.81688
lit	-9.81695
▁işləyir	-9.81728
▁gəlməsi	-9.81776
▁çalışıb	-9.81801
▁əksər	-9.81805
məyi	-9.81911
▁Bizans	-9.81929
hir	-9.82013
▁fa	-9.82076
▁görüş	-9.82112
sar	-9.82131
idir	-9.82133
▁sadəcə	-9.82138
▁etiraz	-9.82153
▁Bal	-9.8224
▁məsləhət	-9.82292
▁Mat	-9.82297
▁təsviri	-9.82303
eri	-9.82338
▁layihəsi	-9.8235
▁düş	-9.82353
06	-9.82364
▁şəhərdə	-9.82387
tər	-9.82419
▁Pol	-9.82422
▁dəyişikliklər	-9.82423
05	-9.82424
▁sərt	-9.82523
▁vilayətinin	-9.82526
▁keçid	-9.82548
▁zərbə	-9.82549
▁formada	-9.82549
▁dövrünün	-9.82555
▁qır	-9.82606
▁2015	-9.82607
▁yəhudi	-9.82704
▁əsərin	-9.82748
▁hesabına	-9.82755
▁Tiflis	-9.82779
▁sultan	-9.82863
istan	-9.82944
р	-9.82978
▁Prezidentinin	-9.83006
▁gil	-9.83006
▁Atası	-9.83017
▁Hind	-9.8308
▁qu	-9.83109
sun	-9.83114
▁dəri	-9.83167
▁gələcək	-9.83189
▁bölgəsində	-9.83193
▁alma	-9.83217
▁Də	-9.83224
▁İsveç	-9.83258
▁gətirib	-9.83313
▁verildi	-9.83371
ст	-9.83405
▁saxlanılır	-9.83411
▁Türkiyədə	-9.83563
▁işarə	-9.83598
▁tanınır	-9.83628
▁nəzəriyyəsi	-9.83632
▁nizam	-9.83636
▁vəzifələrində	-9.83639
▁Kitab	-9.83666
▁kor	-9.83696
▁Bunlar	-9.8379
▁Ö	-9.83895
▁İmperiyası	-9.83985
▁baxımdan	-9.84006
▁Ser	-9.84054
arı	-9.84184
▁iz	-9.84203
▁Mehmed	-9.84334
▁filmində	-9.84334
▁müqaviləsi	-9.84408
▁qum	-9.84506
▁qoyulmuşdur	-9.84526
▁əsrlər	-9.84538
▁10-	-9.84551
dığını	-9.84594
▁Bakıya	-9.84627
ry	-9.84642
▁nümunələri	-9.84663
▁göstərilir	-9.84689
▁miqdarda	-9.84706
▁seriya	-9.84725
▁müsabiqə	-9.84837
▁tanınan	-9.84855
▁edəcək	-9.84923
▁Koreya	-9.84926
▁Əliyevin	-9.8493
▁Qış	-9.84973
lim	-9.85027
▁z	-9.85039
▁Qeyd	-9.85043
▁keçirilmişdir	-9.85053
ly	-9.85073
▁nazir	-9.85074
▁duz	-9.85174
▁çəkilən	-9.85211
▁deyildir	-9.8528
▁tayfa	-9.85348
▁sistemində	-9.85444
▁həqiqi	-9.85514
▁it	-9.85565
▁qapı	-9.85581
15	-9.85602
▁hissələri	-9.85649
▁inan	-9.85696
▁qoşun	-9.85717
▁mükafatına	-9.85719
qulu	-9.85737
▁birbaşa	-9.85796
▁Braziliya	-9.85825
▁yaranması	-9.85834
▁yaranır	-9.85855
▁qalma	-9.85864
▁müzakirə	-9.85881
▁qazan	-9.85889
ов	-9.85923
н	-9.85933
▁Qafqazda	-9.8598
▁Şirin	-9.85997
▁qalibi	-9.86028
▁bənzər	-9.86037
tr	-9.8604
▁danış	-9.86071
▁Akademiyası	-9.86076
▁Gənc	-9.86115
▁yola	-9.86146
▁üstün	-9.86148
▁əgər	-9.86155
▁ra	-9.86156
▁aparır	-9.86169
▁başlıca	-9.86182
▁yemək	-9.8621
rdi	-9.86218
nü	-9.86233
▁cəhd	-9.86265
▁XVI	-9.86269
▁Laçın	-9.86286
zan	-9.86341
▁Respublikasında	-9.86402
▁he	-9.86412
▁ardıcıl	-9.86427
▁axır	-9.86446
lət	-9.8647
▁olunmuşdu	-9.86533
▁olmasını	-9.86562
las	-9.86694
▁Müharibə	-9.86729
▁daimi	-9.86734
▁ot	-9.86744
▁yapon	-9.8676
ns	-9.8683
▁başçılıq	-9.86844
▁formasında	-9.86844
ska	-9.86885
dil	-9.86956
▁haqda	-9.86978
▁parlament	-9.87059
res	-9.8706
▁Nəticədə	-9.87061
▁Cu	-9.87101
▁2012	-9.87137
▁öyrənilməsi	-9.87152
▁Mal	-9.87165
▁davamlı	-9.87169
▁Pri	-9.87227
▁sənəd	-9.87244
▁divarları	-9.8727
▁bacısı	-9.87308
▁mənasını	-9.87315
▁Çe	-9.87364
▁ehtiyat	-9.87405
▁М	-9.87488
▁düşən	-9.87539
▁olsun	-9.87581
ven	-9.87603
29	-9.87615
▁təqribən	-9.87627
▁mühafizə	-9.87649
▁qəzasında	-9.87666
ndəki	-9.87677
▁uşaqlar	-9.87708
qları	-9.8776
Ç	-9.87807
▁Şahzadə	-9.87823
▁oğlan	-9.87843
▁Vo	-9.87917
▁ala	-9.87932
ğın	-9.87939
▁universitetin	-9.87943
8-	-9.87973
▁atom	-9.87979
▁etdirmişdir	-9.88121
▁Erməni	-9.88122
ilər	-9.88142
▁memar	-9.88144
▁futbolçu	-9.88157
gu	-9.88158
▁fərqlənir	-9.88198
▁Min	-9.88245
▁poz	-9.88262
sü	-9.88294
kü	-9.8833
▁əri	-9.88476
ens	-9.88486
▁xalqın	-9.8851
ırdı	-9.88529
üs	-9.88582
▁məhdud	-9.88651
onu	-9.88732
▁edilə	-9.88809
▁millət	-9.88849
▁dir	-9.88933
▁çevir	-9.88937
şünas	-9.89015
▁Qazaxıstan	-9.89052
▁fil	-9.89067
▁mütləq	-9.8909
▁vi	-9.89131
▁gəlin	-9.89147
▁1930-	-9.89229
▁çoxsaylı	-9.89238
▁Ata	-9.89269
▁Kara	-9.89281
▁imperator	-9.89385
sal	-9.89473
▁yazmışdır	-9.89473
▁Əbdül	-9.8962
▁to	-9.8964
yat	-9.89659
▁Əsasən	-9.8967
▁heyətində	-9.89775
▁oxşar	-9.89814
▁tənqid	-9.8984
net	-9.89892
▁oynayır	-9.89901
г	-9.8993
▁deyildi	-9.89959
▁İranda	-9.9
▁Baba	-9.90036
▁Ədəbiyyat	-9.90079
▁rəsm	-9.90115
▁qüvvə	-9.90135
▁müəssisəsi	-9.90165
▁İndi	-9.90225
▁doğma	-9.90251
▁çalışan	-9.90328
▁erkən	-9.90383
▁kom	-9.9044
95	-9.90459
07	-9.90479
mər	-9.90502
laşması	-9.90517
▁Biz	-9.90589
▁bitir	-9.90617
dədir	-9.90618
▁sakinləri	-9.90626
af	-9.90679
ılma	-9.90721
lilər	-9.90731
▁alaraq	-9.90742
▁Ad	-9.90746
yı	-9.90753
siyasi	-9.90763
▁fakültəsini	-9.9078
▁и	-9.90849
ox	-9.90913
▁proses	-9.9092
03	-9.91023
▁Dağıstan	-9.91029
▁coğrafi	-9.91043
▁Qasım	-9.91074
▁1950-	-9.91156
▁Mon	-9.91168
ılan	-9.91179
▁çat	-9.91189
manın	-9.91198
▁Həm	-9.91214
▁foto	-9.91235
▁islam	-9.91248
▁Moskvada	-9.91284
zı	-9.91346
▁verib	-9.91347
▁Mari	-9.91381
▁yaratdığı	-9.91498
▁vətəndaş	-9.91514
▁söhbət	-9.9152
yir	-9.91545
▁mənbəyi	-9.91569
kləri	-9.91597
▁kütləsi	-9.91597
▁məsələləri	-9.9165
▁mirzə	-9.91682
▁məsafədə	-9.91689
▁mərhələ	-9.91706
▁dərhal	-9.91783
▁düzgün	-9.91792
▁90	-9.91859
eti	-9.91872
▁istəyir	-9.91905
ləşir	-9.91918
▁siyasəti	-9.91933
▁əhəmiyyət	-9.91945
▁mükafat	-9.91952
▁məktəbinin	-9.91981
▁xırda	-9.91986
▁boz	-9.92022
▁addım	-9.92046
▁ın	-9.92063
▁Hətta	-9.92188
▁Ge	-9.9224
şir	-9.92242
▁Sarı	-9.92242
ogen	-9.92247
mü	-9.92251
▁adından	-9.92285
▁bə	-9.92292
▁nəzəriyyə	-9.92303
oloq	-9.92321
linin	-9.92331
▁1945-	-9.92341
▁güllə	-9.92345
▁qalası	-9.92388
▁Qor	-9.9242
▁Məktəbi	-9.92422
70	-9.92469
▁dəfələrlə	-9.92481
▁1975-	-9.92495
▁İbn	-9.92512
24	-9.92512
37	-9.92537
▁2011	-9.92577
▁mövzu	-9.92613
▁izlə	-9.9263
▁sənətkar	-9.9265
▁dövrlərdə	-9.92652
liklə	-9.92697
gün	-9.92726
▁maddələr	-9.92726
▁bunlar	-9.9276
▁yolla	-9.92835
▁arxeoloji	-9.9285
▁jurnal	-9.92896
▁əy	-9.92918
▁bio	-9.92922
▁ölçü	-9.92954
▁məsafə	-9.92991
masına	-9.9301
▁temperaturu	-9.93034
▁Dan	-9.93039
iyanın	-9.93042
▁lövhə	-9.93054
▁qrupunun	-9.93065
▁olarkən	-9.9309
▁yarısında	-9.9313
nün	-9.93197
təpə	-9.93205
▁Sar	-9.93213
▁bəri	-9.93228
▁ehtiyac	-9.93233
▁ov	-9.93236
▁Tri	-9.93274
▁ti	-9.93308
▁1987-	-9.93312
xe	-9.93334
▁şairi	-9.93335
▁Van	-9.93342
▁ab	-9.93351
▁yerləşdiyi	-9.93371
▁Nazirlər	-9.93414
mən	-9.93568
▁Ur	-9.93599
go	-9.93653
▁təzyiq	-9.93685
sir	-9.93689
▁yürüş	-9.93692
▁Krım	-9.9374
laşır	-9.93742
▁kilsəsi	-9.93799
laş	-9.938
▁dur	-9.93828
▁nəqliyyat	-9.93844
▁Zo	-9.93845
▁Zə	-9.93898
▁hörmət	-9.93928
▁Dar	-9.93964
▁1986-	-9.93969
▁xidməti	-9.93972
▁yönəl	-9.93991
▁etsə	-9.93993
▁Rusiyada	-9.94021
▁Sonralar	-9.94027
▁qərarına	-9.94185
▁ölkələrin	-9.9422
▁maşın	-9.94236
▁əməkdaşlıq	-9.94239
şan	-9.94255
▁yayım	-9.94265
▁İr	-9.94292
▁Robert	-9.94298
▁müəllif	-9.94301
▁məscidi	-9.94316
məz	-9.94329
▁hərəkatı	-9.94352
▁həcmi	-9.94365
9	-9.94476
yib	-9.94493
xo	-9.94531
▁səh	-9.9454
yyət	-9.94563
▁zona	-9.94566
ophyllum	-9.94602
▁gəlmə	-9.94616
▁qov	-9.94618
▁ku	-9.94629
▁mənəvi	-9.94653
▁seçki	-9.94683
▁nəzdində	-9.94706
▁Kərim	-9.94712
▁kə	-9.94757
▁2010	-9.94782
▁pa	-9.94883
▁məqsəd	-9.94887
ian	-9.94939
▁yazırdı	-9.94959
üz	-9.94982
▁Qacar	-9.94999
▁в	-9.95021
49	-9.95055
yor	-9.95067
▁kütlə	-9.95095
▁etdirən	-9.95119
dim	-9.95123
▁Murad	-9.95134
▁almışdı	-9.95159
adi	-9.95173
▁36	-9.95286
▁1979-	-9.95306
til	-9.9531
▁Məhz	-9.95466
laşdırma	-9.95482
▁33	-9.95496
▁sərf	-9.95551
▁yaranmış	-9.95599
▁sabit	-9.95603
ulla	-9.95619
▁divar	-9.95621
08	-9.95637
▁əvvəllər	-9.95719
▁dilinə	-9.95727
▁yaşamışdır	-9.95756
▁versiyası	-9.95803
▁Mariya	-9.95806
▁2008	-9.95821
▁nöqtəsi	-9.95888
▁orqanları	-9.9592
.2	-9.95929
▁Nikolay	-9.95957
▁çempionu	-9.95962
▁Nobel	-9.95982
▁dördüncü	-9.96068
▁dövrə	-9.96069
04	-9.96075
sel	-9.96118
▁UEFA	-9.96121
▁qoyur	-9.96146
▁Tanrı	-9.96147
▁Mark	-9.96216
▁filmləri	-9.96228
▁əyalət	-9.9623
▁atasının	-9.9628
▁bürünc	-9.96307
▁Azərbaycana	-9.96336
▁Qüvvələri	-9.96408
▁qadağan	-9.96425
▁hekayə	-9.96446
▁xəlifə	-9.96491
▁sahillərində	-9.96555
▁000	-9.96566
▁edildiyi	-9.96574
▁doktorluq	-9.96605
▁İs	-9.96654
▁kompleks	-9.96721
▁planet	-9.96729
▁riyaziyyat	-9.96754
▁keçirdi	-9.96766
▁XVII	-9.96775
▁yaratmışdır	-9.96794
▁tap	-9.96824
▁məktəbin	-9.96831
▁Can	-9.96853
▁Mil	-9.96872
▁sonlarında	-9.96909
▁1982-	-9.9695
▁Osman	-9.96954
▁300	-9.96984
▁cənubunda	-9.97003
▁qonaq	-9.9713
▁hökmdar	-9.97201
bəy	-9.97204
▁özəl	-9.9722
şərqdə	-9.97257
▁Fətəli	-9.9729
▁əslində	-9.9732
▁Bil	-9.97334
mat	-9.97375
▁Bulb	-9.97416
▁sürəti	-9.97461
▁qətlə	-9.97469
▁Vəli	-9.97501
laşmış	-9.97542
▁48	-9.97554
rey	-9.97564
▁2009	-9.97595
▁1985-	-9.97662
▁köçür	-9.97669
iyyat	-9.97676
▁Ja	-9.97695
▁ayaq	-9.97701
ket	-9.97793
▁bura	-9.97813
▁imperiyası	-9.97822
▁xoş	-9.97839
ray	-9.97872
98	-9.97875
▁əvvəlində	-9.97896
▁məlumatın	-9.97905
▁so	-9.97971
▁Azərbaycanlı	-9.97972
▁1972-	-9.9798
▁rəqəm	-9.98034
rın	-9.98081
▁Hüquq	-9.98147
▁Prezident	-9.98191
▁Başqırdıstan	-9.98201
sh	-9.98241
niz	-9.98251
▁müxbir	-9.98255
▁Allahın	-9.98292
▁tərkib	-9.98297
▁uğur	-9.98347
▁dar	-9.98413
▁məqalə	-9.98467
▁orijinal	-9.98471
tro	-9.98482
rov	-9.98543
▁ikən	-9.9856
▁tanı	-9.98575
▁laureatı	-9.98615
şah	-9.98703
art	-9.98716
par	-9.98733
▁nöqtə	-9.98771
ativ	-9.98781
▁Ke	-9.98799
oid	-9.9882
▁yığ	-9.9883
▁sürət	-9.98847
▁tünd	-9.98915
▁musiqisi	-9.98928
▁səbəbindən	-9.98946
▁verilmiş	-9.99014
▁edər	-9.99024
▁am	-9.99049
▁olmur	-9.99077
▁Pedaqoji	-9.99122
▁Par	-9.99143
▁par	-9.99204
▁təhlükə	-9.99265
ləşdirilmiş	-9.99278
lığına	-9.99285
▁alın	-9.99286
▁Kə	-9.99298
-2	-9.99305
▁dövrünə	-9.99346
diyini	-9.99355
45	-9.99365
▁Əmək	-9.99379
.3	-9.99384
▁göstərdiyi	-9.99386
▁mənim	-9.99401
▁1983-	-9.99403
▁opera	-9.9941
▁Partiyası	-9.99434
▁səkkiz	-9.99447
▁6-	-9.99452
▁texnika	-9.99468
▁dedi	-9.99494
▁qəhrəman	-9.99529
▁Səlim	-9.99554
▁maye	-9.99589
90	-9.99611
▁zərər	-9.99618
▁məsələlər	-9.99629
qərbdə	-9.99656
▁birinin	-9.99659
▁Sey	-9.99663
▁fəsiləsin	-9.99674
▁şərh	-9.99769
▁İctimai	-9.99776
gil	-9.99877
▁orqanı	-9.99884
▁Abdulla	-9.9994
▁sürgün	-9.99945
▁daşıyan	-9.99946
▁38	-9.99996
qon	-10.0003
sit	-10.0004
rom	-10.0006
▁Şurası	-10.0007
qun	-10.0007
▁hektar	-10.0011
▁idarəetmə	-10.0012
ıldı	-10.0014
▁Əs	-10.0015
▁yaradıcılıq	-10.0021
▁kənar	-10.0023
▁rejissoru	-10.0024
ers	-10.0028
▁Birliyi	-10.0029
▁Çempionatında	-10.0035
21	-10.0036
əvi	-10.004
▁bərk	-10.004
▁şimalında	-10.0041
▁be	-10.0042
kimilər	-10.0049
bel	-10.005
malıdır	-10.005
▁fərmanı	-10.0051
▁Top	-10.0054
les	-10.0054
▁1974-	-10.0054
▁lə	-10.0056
iyası	-10.0056
ac	-10.0056
▁1978-	-10.0057
▁xanı	-10.0058
▁Füzuli	-10.006
▁xətt	-10.0061
▁Cümhuriyyəti	-10.0063
▁Bor	-10.007
▁məlumdur	-10.0071
▁Tom	-10.0071
▁nəhəng	-10.0071
▁saniyə	-10.0072
▁qı	-10.0074
▁komandasının	-10.0075
▁Bala	-10.0076
▁Fransanın	-10.0078
▁sütun	-10.0083
▁On	-10.0085
▁İdman	-10.0088
şəkilli	-10.0088
▁Ümumi	-10.0096
92	-10.0098
▁olunma	-10.0099
▁disk	-10.01
▁şəhristanının	-10.0111
▁dram	-10.0112
ril	-10.0116
▁olurdu	-10.0119
97	-10.0119
▁sayılan	-10.012
▁hissədə	-10.0126
▁1981-	-10.0128
iy	-10.0129
▁2013	-10.0131
xar	-10.0135
iyyəti	-10.0135
biri	-10.0136
▁göstərirdi	-10.0139
17	-10.0158
▁əsrə	-10.0159
▁oxu	-10.0163
▁Xəlil	-10.0163
34	-10.0164
▁sırasında	-10.0167
qda	-10.0168
liyinin	-10.0169
▁mənfi	-10.0169
kal	-10.017
▁Rey	-10.0171
lanıb	-10.0172
▁şirkət	-10.018
▁yerləri	-10.0183
bra	-10.0185
▁Zaqafqaziya	-10.0193
▁2016	-10.0196
▁çatdı	-10.0197
maqla	-10.0199
▁azadlıq	-10.0213
▁oyunu	-10.0216
▁fikrincə	-10.0216
▁Sovetinin	-10.0217
▁çəkir	-10.022
ləyən	-10.0222
▁Filmin	-10.0224
vr	-10.0226
▁buz	-10.0227
▁1941-	-10.0227
▁sonu	-10.0234
▁quruluş	-10.0237
▁görmə	-10.0237
▁Onu	-10.0238
layan	-10.0239
▁sonuna	-10.0242
22	-10.0243
▁mərasimi	-10.0247
erin	-10.0248
birinə	-10.0248
▁qul	-10.0251
▁səviyyədə	-10.0254
▁fi	-10.0258
▁quberniyasının	-10.0258
▁İsveçrə	-10.0258
▁dostu	-10.0265
▁kitabında	-10.0271
▁fəhlə	-10.0272
▁muğam	-10.0272
▁cəmiyyətin	-10.0283
▁internet	-10.0284
▁bölmə	-10.0289
▁Yo	-10.0293
▁güman	-10.031
▁Fransız	-10.0312
▁poli	-10.0316
▁küçəsi	-10.0317
▁məkan	-10.0323
▁namizədlik	-10.0324
of	-10.0326
▁1967-	-10.0334
▁Hu	-10.0335
▁əkin	-10.0335
▁bitkilər	-10.0337
▁önəmli	-10.034
▁Ga	-10.0345
yanı	-10.0346
п	-10.0346
▁1000	-10.0346
dıqdan	-10.035
▁Tra	-10.0352
▁alınan	-10.0359
har	-10.0361
çü	-10.0365
▁piyada	-10.037
▁formaları	-10.0372
▁kompleksi	-10.0372
bri	-10.0376
▁cins	-10.0376
▁cərəyan	-10.0383
izmin	-10.0386
atın	-10.0388
qı	-10.0389
tis	-10.0389
▁Şir	-10.0391
▁Əməkdar	-10.0393
▁keçmişdir	-10.0393
cik	-10.0397
▁yüngül	-10.0398
▁san	-10.04
▁Daxili	-10.0403
▁Gənclər	-10.0404
▁Sta	-10.0406
▁Ze	-10.0407
▁8-	-10.0408
başı	-10.0409
▁təşkilatı	-10.041
▁1971-	-10.0411
▁göndərdi	-10.0411
məsinə	-10.0417
▁Corc	-10.0421
▁1968-	-10.0421
çək	-10.0422
▁həyatını	-10.0425
tay	-10.0425
▁34	-10.0425
▁Almaniyanın	-10.0429
▁tər	-10.0438
▁İttifaqının	-10.0439
▁dilinin	-10.0441
▁muzeyi	-10.0446
▁37	-10.0447
▁şəhristanı	-10.0447
▁Dərbənd	-10.0449
▁biləcək	-10.045
era	-10.0452
▁həqiqət	-10.0455
89	-10.0456
▁üsul	-10.0456
▁Kuboku	-10.0457
▁Müdafiə	-10.046
laşdırılmış	-10.0463
▁səhv	-10.0465
fon	-10.0466
▁Ceyms	-10.0466
▁sənədli	-10.0471
▁döyüşü	-10.0473
▁altına	-10.0478
▁gəlmək	-10.0482
▁konfrans	-10.0483
▁çıxmışdır	-10.0488
▁bil	-10.0491
şünaslıq	-10.0491
▁rejimi	-10.0495
▁1965-	-10.0496
▁məbəd	-10.0502
▁Səfəvi	-10.0503
▁əsilli	-10.0505
14	-10.0507
▁şa	-10.0511
▁onlarla	-10.0512
▁Dram	-10.0514
▁art	-10.0514
▁mətn	-10.0515
▁sevgi	-10.0515
▁körpü	-10.052
▁olduğuna	-10.052
▁kök	-10.0522
69	-10.0522
▁yaradıcılığı	-10.0527
▁şəraitində	-10.0532
▁Kur	-10.0534
ıdır	-10.0536
▁Ci	-10.0546
▁nəticədə	-10.0548
▁ölkələrində	-10.0549
▁göstərdi	-10.055
▁mövsüm	-10.0554
▁Sibir	-10.0555
▁Fu	-10.0556
▁sim	-10.0562
▁xarakter	-10.0562
▁rə	-10.0565
▁1976-	-10.0567
▁Ter	-10.0571
▁1973-	-10.0577
▁yayılması	-10.0579
▁düşdü	-10.0583
▁toy	-10.0584
▁statusu	-10.0585
▁edərkən	-10.0585
▁42	-10.0589
▁dəstəyi	-10.0591
▁bayram	-10.0594
▁Ju	-10.0595
▁verirdi	-10.0598
lıların	-10.0599
▁adət	-10.0602
▁inkişafında	-10.0602
vər	-10.0604
23	-10.0605
dov	-10.0605
28	-10.0609
96	-10.0611
fo	-10.0614
▁Gün	-10.0615
▁65	-10.0616
ess	-10.0618
79	-10.0618
▁suyu	-10.0624
▁Albaniya	-10.0624
qor	-10.0627
▁birinə	-10.0627
yur	-10.063
▁Av	-10.0642
qur	-10.0643
▁asan	-10.0644
pp	-10.0645
▁Müxtəlif	-10.0646
ф	-10.0651
▁sürü	-10.0652
▁cu	-10.0653
▁aktrisa	-10.0653
▁7-	-10.0654
əd	-10.0656
▁bilməz	-10.0657
▁metrdir	-10.066
▁İmam	-10.0661
▁görmək	-10.0662
▁yaratdı	-10.0663
▁şəkil	-10.0667
bor	-10.0668
▁Rza	-10.0669
▁Bərdə	-10.0671
yanın	-10.0672
▁dalğa	-10.0674
lam	-10.0679
▁mükəmməl	-10.0681
▁sənəti	-10.0683
▁http	-10.0687
saq	-10.0692
▁xalqının	-10.0695
▁alimi	-10.0696
▁Oyunlarına	-10.0697
aj	-10.0698
ləşmiş	-10.0698
br	-10.0701
yıb	-10.0701
▁getdi	-10.0703
▁surətdə	-10.0705
▁müqayisə	-10.0706
gü	-10.0707
▁xalça	-10.0707
▁qərara	-10.0709
▁xalçaları	-10.0712
▁1937-	-10.0715
▁Pu	-10.0715
▁hücumu	-10.0715
▁mənbələrdə	-10.0716
▁dəyişdir	-10.0723
▁yüksəl	-10.0723
▁alban	-10.0725
landı	-10.0726
dra	-10.0727
-15	-10.0731
▁münasibətlər	-10.0733
▁məktəbini	-10.0734
▁400	-10.0736
▁İşlər	-10.0736
ərkən	-10.0737
▁qurtar	-10.0739
▁Tor	-10.0742
▁işləyən	-10.0742
▁imkanı	-10.0745
lığının	-10.0749
▁problem	-10.0757
▁inç	-10.0759
je	-10.076
anlı	-10.0763
▁uç	-10.0764
hu	-10.0764
▁qarışıq	-10.0769
▁edilərək	-10.0771
▁çatan	-10.0772
eh	-10.0772
▁1984-	-10.0773
ans	-10.0776
▁tezliklə	-10.0779
diya	-10.0781
▁Belçika	-10.0781
▁1969-	-10.0781
▁misal	-10.0784
▁Pan	-10.0785
xta	-10.0789
▁gənclər	-10.08
▁Bəy	-10.0804
▁çıxmış	-10.0807
▁çağırış	-10.0809
mit	-10.0811
▁başladılar	-10.0814
sil	-10.082
▁rəqibi	-10.0821
ation	-10.0824
▁səth	-10.0825
▁çalış	-10.0826
▁şam	-10.083
▁olmağa	-10.0833
▁dərman	-10.0837
▁edam	-10.0837
▁oyunçu	-10.0838
mp	-10.0838
let	-10.0838
▁vilayət	-10.0839
▁məhsulları	-10.084
▁irsi	-10.0842
müş	-10.0842
duğu	-10.0845
▁köç	-10.0845
▁idmançı	-10.0846
bul	-10.0854
▁şəhərləri	-10.0855
▁halında	-10.0859
▁sat	-10.0861
▁15-	-10.0863
liyində	-10.0866
▁bildirdi	-10.0872
sur	-10.0873
▁vəzifəsini	-10.0874
▁tu	-10.0877
▁rabitə	-10.0882
▁kafedrasının	-10.089
fin	-10.0892
qala	-10.0893
6	-10.0895
86	-10.0895
▁məlumata	-10.0898
▁75	-10.0899
▁Ankara	-10.09
ıx	-10.0902
▁Başqa	-10.0902
gel	-10.0902
▁1966-	-10.0906
32	-10.0908
▁Rüstəm	-10.0909
▁gə	-10.0913
▁Dağlıq	-10.0918
▁rəngi	-10.092
▁Harri	-10.0923
ر	-10.0924
▁gəz	-10.0925
▁etdikdən	-10.0927
▁Yaxın	-10.0931
lması	-10.0932
▁edilmə	-10.0933
▁saxla	-10.0933
▁aparılır	-10.0934
yun	-10.0935
▁soyu	-10.0937
▁keçirmək	-10.0941
▁aktyoru	-10.0941
▁mənbə	-10.0946
▁xa	-10.0951
▁ayı	-10.0952
▁Norveç	-10.0955
▁nəzəri	-10.0959
zer	-10.0961
▁ümumilikdə	-10.0969
qara	-10.0971
▁milyard	-10.0979
▁dağları	-10.0979
▁dilləri	-10.098
46	-10.0982
▁Fər	-10.0983
oqrafiya	-10.0984
▁material	-10.0988
▁Dəmir	-10.0988
iyalı	-10.099
▁qorxu	-10.0992
35	-10.1001
▁Ordu	-10.1001
ök	-10.1002
▁səthi	-10.1003
▁Nor	-10.1009
▁əlverişli	-10.1009
▁Komitəsi	-10.101
▁şəraitdə	-10.1012
▁Avropanın	-10.1012
▁Bre	-10.1013
▁bəziləri	-10.1016
ys	-10.1017
cıq	-10.1024
▁1959-	-10.1026
lm	-10.1032
▁hakimiyyətə	-10.1037
▁Şam	-10.1041
▁cənubda	-10.1044
▁le	-10.1045
▁boy	-10.1045
▁sarayı	-10.1045
üt	-10.1048
▁pəncərə	-10.1052
▁oluna	-10.1056
▁planı	-10.1057
▁tanrı	-10.1059
▁etdirmək	-10.1063
▁ziyalı	-10.1064
▁redaktor	-10.1067
▁Ərdəbil	-10.107
York	-10.1072
▁hamı	-10.1075
7-	-10.1075
▁1956-	-10.1077
▁tor	-10.1078
▁Bat	-10.1081
bur	-10.1087
▁gül	-10.1088
▁kəndindən	-10.1094
rəm	-10.1098
▁araşdırma	-10.11
ilə	-10.11
▁xalqı	-10.1104
▁paytaxt	-10.1107
▁2014	-10.1107
▁Ste	-10.1109
▁hüceyrə	-10.1111
▁Tarixi	-10.1112
▁yaradılan	-10.1112
▁əksini	-10.1119
sim	-10.112
▁nümunə	-10.1123
▁olunduğu	-10.1124
▁Bəzən	-10.1125
▁mədrəsə	-10.1131
▁arvadı	-10.1141
▁2004	-10.1141
▁günə	-10.1145
27	-10.1147
tun	-10.1148
▁hüquqi	-10.1148
for	-10.115
▁şə	-10.1155
▁Art	-10.1155
▁Sara	-10.1158
▁Bunlardan	-10.1166
▁kürə	-10.1166
▁ax	-10.1166
pan	-10.1169
▁po	-10.1169
▁körfəzi	-10.1172
oru	-10.1173
▁çıxması	-10.1175
del	-10.1177
ləşdirmə	-10.1179
▁Anna	-10.1179
76	-10.118
▁1917-	-10.1184
▁Yazıçılar	-10.119
▁sahələrində	-10.1194
▁cəm	-10.1194
▁Əsgər	-10.1198
▁Ömər	-10.12
▁Bel	-10.1201
▁başına	-10.1206
▁əlində	-10.1208
▁eyniadlı	-10.1211
ami	-10.1212
▁haqqı	-10.1213
▁VI	-10.1215
▁qismən	-10.1218
▁Məşədi	-10.1218
▁tikintisi	-10.122
▁şəraiti	-10.122
▁tarixinə	-10.122
▁alınır	-10.1228
▁keçirdiyi	-10.1228
ي	-10.123
▁yerləşmişdir	-10.1232
▁baxış	-10.1233
▁kağız	-10.1236
▁mərhələsi	-10.1237
▁yağıntı	-10.1242
▁aparan	-10.1244
▁or	-10.1244
82	-10.1247
▁səsi	-10.1251
▁qəzetinin	-10.1252
ori	-10.1257
▁döyüşdə	-10.1262
nt	-10.1264
ava	-10.1264
▁çevrilmişdir	-10.1265
▁yazıçısı	-10.127
▁apardığı	-10.127
əti	-10.1276
he	-10.1279
▁Fars	-10.128
▁səviyyəsindən	-10.1282
▁Federasiyasının	-10.1286
▁Sam	-10.1289
▁termin	-10.129
74	-10.1291
▁Onlardan	-10.1292
▁Zəngəzur	-10.1292
sto	-10.1295
▁1961-	-10.1297
▁Xosrov	-10.1299
▁er	-10.1301
▁şimalda	-10.1301
88	-10.1301
65	-10.1308
ql	-10.1309
▁don	-10.1312
▁Sankt	-10.1322
▁yarı	-10.1322
55	-10.1328
ах	-10.1329
▁Bolqarıstan	-10.133
42	-10.133
▁К	-10.1334
َ	-10.1336
cağı	-10.1338
dər	-10.1342
▁1977-	-10.1349
57	-10.1349
baba	-10.1351
▁daim	-10.1355
▁şəhərindən	-10.1356
Ba	-10.1368
ano	-10.1368
▁düşüncə	-10.1369
▁üzvi	-10.1371
▁ortalarında	-10.1372
▁Şə	-10.1376
0.000	-10.1384
▁2005	-10.1388
84	-10.1391
▁Pakistan	-10.1393
▁Qanun	-10.1393
▁Hələ	-10.1394
▁Sosial	-10.1395
▁Say	-10.1399
▁maarif	-10.1401
▁Macarıstan	-10.1402
▁şəhəridir	-10.1404
▁cı	-10.1406
▁yaradılıb	-10.1406
▁heyətinin	-10.1409
91	-10.1414
▁Kimya	-10.1418
yət	-10.1421
31	-10.1424
▁adlandırılır	-10.1424
▁boru	-10.1425
▁mövsümündə	-10.1425
▁mütəxəssis	-10.1427
▁Aralıq	-10.1427
▁fikri	-10.1427
▁Məlik	-10.1429
▁çəkilir	-10.1431
▁Əhalisi	-10.1433
pat	-10.1433
▁əleyhinə	-10.1433
▁fəlsəfi	-10.1437
udur	-10.1441
▁Sosialist	-10.1442
▁Anadolu	-10.1443
▁Bakının	-10.1444
mik	-10.1445
▁üzə	-10.1447
▁hadisələri	-10.1448
▁bala	-10.1451
▁Cəbrayıl	-10.1456
▁çevrildi	-10.1458
▁hesablama	-10.1459
▁tamaşa	-10.146
▁çıxıb	-10.1464
ral	-10.1467
▁Xüsusi	-10.1472
▁hissəsinin	-10.1473
▁kanalı	-10.1474
▁bin	-10.1475
68	-10.148
▁1948-	-10.148
▁hökm	-10.1481
▁qəzetində	-10.1485
may	-10.1486
▁görülüb	-10.1488
▁mühit	-10.1491
▁gedib	-10.1494
▁qorunması	-10.1497
baş	-10.1497
▁materiallar	-10.1498
▁Futbol	-10.15
▁üsyanı	-10.1501
▁nəzarəti	-10.1503
▁tarixə	-10.1503
▁uğurla	-10.1504
▁hidro	-10.1505
▁vahidi	-10.1506
66	-10.1506
undan	-10.1507
ılıb	-10.1515
▁heyvanlar	-10.1516
▁çoxdur	-10.1519
lk	-10.1521
▁Abdullayev	-10.1524
▁Bina	-10.1525
ken	-10.1527
▁boş	-10.153
▁dairə	-10.1531
▁etmir	-10.1531
▁tədqiqi	-10.1533
▁yarımadası	-10.1533
▁Gi	-10.154
ell	-10.154
▁fakültəsində	-10.1541
▁tarixdə	-10.1548
yl	-10.155
▁gerçək	-10.1552
▁yerləşirdi	-10.1553
▁Qrup	-10.1554
67	-10.1554
▁istiqamətdə	-10.1556
▁əz	-10.1556
ğun	-10.156
▁həyatında	-10.1562
irdi	-10.1564
▁peşə	-10.1564
▁Roman	-10.1565
▁şəkər	-10.1566
▁özünəməxsus	-10.1571
▁Kir	-10.1572
▁bilmə	-10.1574
▁alətləri	-10.1588
▁xaç	-10.1591
▁dissertasiya	-10.1595
▁Au	-10.1599
▁nüfuzlu	-10.16
▁Vladimir	-10.1603
▁1940-	-10.1604
▁kristal	-10.1621
ani	-10.1623
▁yağış	-10.1624
eş	-10.1625
likləri	-10.1625
ılmışdır	-10.1627
▁məs	-10.1629
landır	-10.1632
▁Şəhərin	-10.1635
▁təsəvvür	-10.1635
▁olmaması	-10.1636
▁münasibət	-10.1639
▁rəhbər	-10.164
▁səmərəli	-10.1644
▁zirvə	-10.1645
▁tibbi	-10.1646
▁pe	-10.1647
▁Müsəlman	-10.1648
▁sahələrdə	-10.165
ünə	-10.1651
ığı	-10.1651
▁yolları	-10.1652
▁qəhrəmanı	-10.166
▁filmdə	-10.1662
skaya	-10.1664
ret	-10.1665
▁kvadrat	-10.1668
bit	-10.1673
▁vulkan	-10.1677
▁Radio	-10.1678
▁xidmətləri	-10.1679
şt	-10.1681
▁ayrıca	-10.1681
▁ol	-10.1686
ıcı	-10.1687
▁limanı	-10.169
▁Sen	-10.1691
▁damar	-10.1694
▁əsrdən	-10.1698
▁Tan	-10.1701
▁aşıq	-10.1703
▁Qay	-10.1708
▁borc	-10.1709
▁xanlığı	-10.1711
▁səhra	-10.1712
▁Vol	-10.1713
▁mağara	-10.1715
▁dəyiş	-10.1721
▁kanal	-10.1721
▁Qal	-10.1721
▁keçmə	-10.1734
▁stansiyası	-10.1735
56	-10.1738
▁sual	-10.1741
▁Lenin	-10.1742
dd	-10.1744
▁ibtidai	-10.1746
▁qiyməti	-10.1748
▁turizm	-10.175
▁9-	-10.1751
▁ölçüsü	-10.1751
▁Sp	-10.1752
▁ke	-10.1752
▁səhifə	-10.1753
▁dayandır	-10.1754
qat	-10.1755
▁hadisələrin	-10.1756
▁Döyüş	-10.1759
▁qazanıb	-10.1761
▁bulaq	-10.1762
▁kəndləri	-10.1764
▁arzu	-10.1764
▁binanın	-10.1765
▁1938-	-10.1765
one	-10.1765
▁kənarda	-10.1767
▁başçılığı	-10.1767
▁vaxtda	-10.1782
▁adalar	-10.1789
▁öyrənir	-10.179
▁gəmisi	-10.1796
▁Əfəndi	-10.18
▁İvan	-10.1802
▁çə	-10.1802
ل	-10.1804
▁əhəmiyyəti	-10.1806
▁məsələsi	-10.1809
▁Fo	-10.1813
▁Universitet	-10.1813
▁qayıdır	-10.1814
▁relyef	-10.1815
▁anlayışı	-10.1817
▁Bey	-10.1818
▁tikilmiş	-10.1824
¬	-10.1824
▁Tofiq	-10.1825
▁qardaş	-10.1825
məli	-10.1825
▁Sakit	-10.1827
▁Berlin	-10.1827
▁1958-	-10.1827
▁Almaniyada	-10.183
▁qarış	-10.183
▁dayan	-10.1834
44	-10.1836
▁rayonlarında	-10.1836
▁janr	-10.1839
mun	-10.1839
▁araşdır	-10.184
л	-10.1849
▁ömrünün	-10.185
▁yerini	-10.1854
▁həlli	-10.1857
▁zəlzələ	-10.1864
▁za	-10.1868
▁normal	-10.1869
▁ayından	-10.1869
93	-10.1871
▁Adanın	-10.1875
▁Sən	-10.1876
▁olduqda	-10.1877
▁tik	-10.1879
trop	-10.1881
▁Kim	-10.1882
üstü	-10.1885
lardır	-10.1885
▁fə	-10.1886
ürü	-10.1886
▁komandiri	-10.1889
▁zonası	-10.189
▁pillə	-10.1892
▁şahzadə	-10.1898
▁qiymətləndiril	-10.1898
▁arası	-10.19
Ma	-10.1901
▁əlaqəsi	-10.1904
▁qabaq	-10.1905
▁xor	-10.1906
▁sür	-10.1906
▁Kaliforniya	-10.191
▁1957-	-10.1914
▁2007	-10.1915
▁istəyi	-10.1916
▁region	-10.1923
▁kafedra	-10.1924
▁problemi	-10.1927
ulu	-10.1931
lüyü	-10.1932
giya	-10.1935
▁sinir	-10.1936
əb	-10.1937
▁pedaqoji	-10.1938
▁Yalnız	-10.1944
▁Portuqaliya	-10.1946
tma	-10.1947
▁sədr	-10.1948
▁no	-10.1952
▁keçirib	-10.1952
▁burnu	-10.1953
д	-10.1953
▁1946-	-10.1953
birindən	-10.1954
▁ikisi	-10.1955
▁Şo	-10.1956
əri	-10.1957
▁orqan	-10.1959
▁Səməd	-10.196
rif	-10.196
▁Sir	-10.1961
▁qapısı	-10.1968
▁55	-10.1968
▁ailədən	-10.1971
▁dolu	-10.1972
altı	-10.1974
▁tri	-10.1975
▁Azad	-10.198
▁futbolçusu	-10.1982
▁kül	-10.1988
▁Zər	-10.1994
▁Sonradan	-10.1996
ili	-10.1997
▁biznes	-10.1998
▁əsgərləri	-10.2002
▁müqavimət	-10.2009
▁incə	-10.2011
▁əsərlərində	-10.2011
▁qrupun	-10.2012
▁XV	-10.2014
▁gətirən	-10.2015
▁ibadət	-10.2017
▁ümid	-10.2018
▁FK	-10.2018
▁adının	-10.2019
85	-10.2019
urdu	-10.2019
▁gündən	-10.2019
yd	-10.2019
▁mövzusu	-10.2022
▁Mer	-10.2022
▁adamları	-10.2029
▁39	-10.2033
eviç	-10.2033
▁Tele	-10.2044
kul	-10.2045
▁ox	-10.2046
▁coğrafiya	-10.2048
▁dosent	-10.2051
▁cizgi	-10.2051
▁şərti	-10.2055
▁uzanır	-10.2058
▁süni	-10.2059
▁1963-	-10.206
▁sürətli	-10.2071
▁Qəbələ	-10.2071
ls	-10.2072
▁Jan	-10.2073
▁50-	-10.2079
▁rədd	-10.2079
▁müvəqqəti	-10.2085
▁Partiyasının	-10.2085
▁nişan	-10.2085
▁Babək	-10.2093
▁Əb	-10.2093
▁Sol	-10.2094
.4	-10.2096
▁mənasında	-10.2096
▁ri	-10.2097
ow	-10.2097
▁Oğuz	-10.2098
▁alimlər	-10.2099
▁hazırlanır	-10.2101
▁zəruri	-10.2107
ədək	-10.2108
▁turnir	-10.211
▁aparıl	-10.2112
▁adamı	-10.2114
▁sistemləri	-10.2118
ن	-10.2118
▁Vaqif	-10.2118
▁Park	-10.212
▁evində	-10.2125
izasiya	-10.2128
▁toxuma	-10.2128
▁nəticələri	-10.2128
ovski	-10.2131
▁cə	-10.2134
şe	-10.2138
▁1962-	-10.2142
-17	-10.2142
▁Mart	-10.2146
▁Teatr	-10.2146
ğu	-10.2147
▁lo	-10.215
▁əlaqələri	-10.2152
▁Jo	-10.2152
▁VII	-10.2153
▁istənilən	-10.2153
▁rahat	-10.2153
dik	-10.2153
şar	-10.2154
▁Mehdi	-10.2155
▁peyğəmbər	-10.2157
▁istəyən	-10.2163
asiyası	-10.2163
▁içki	-10.2167
75	-10.2167
lığında	-10.2168
vey	-10.2172
▁Həsənov	-10.2173
▁professoru	-10.2178
▁qərbdə	-10.2183
rtıq	-10.2184
▁İnzibati	-10.2187
▁Alp	-10.2187
▁iqtisadiyyat	-10.2193
▁tədricən	-10.2194
▁qal	-10.2196
▁diplomu	-10.2202
▁örtüyü	-10.2203
▁tank	-10.2207
lamaq	-10.2208
rü	-10.2211
riya	-10.2212
▁hərəkəti	-10.2216
▁Bayram	-10.2218
▁fon	-10.2224
▁yo	-10.2228
▁XIII	-10.223
vat	-10.2234
alın	-10.2234
▁BMT	-10.2234
liklər	-10.2238
əş	-10.224
▁Quran	-10.2246
dor	-10.2248
▁sub	-10.2249
▁keyfiyyət	-10.225
pt	-10.2252
ap	-10.2254
▁qurulması	-10.2256
64	-10.2258
▁Hey	-10.2261
ан	-10.2263
əf	-10.2264
▁Fransada	-10.2272
▁Tehran	-10.2276
▁mayın	-10.2279
▁rəngdə	-10.228
▁sü	-10.228
Peterburq	-10.2281
ен	-10.2287
▁Yerli	-10.2288
▁adasında	-10.2288
▁şeirlər	-10.2289
▁italyan	-10.2289
▁Özbəkistan	-10.229
▁sev	-10.2291
▁yanvarın	-10.2291
▁yaxından	-10.2293
▁geyim	-10.2297
▁direktor	-10.2297
▁dərə	-10.2298
▁hazırlanan	-10.2305
▁vəzifə	-10.2308
dal	-10.2312
▁Yunan	-10.2312
▁ölkələri	-10.2314
lanmışdır	-10.2314
▁qardaşları	-10.2314
▁Şair	-10.2317
▁otur	-10.2319
olit	-10.232
qq	-10.2323
▁xüsusən	-10.2325
▁keçərək	-10.2326
▁müharibəsində	-10.2327
▁başlamışdı	-10.2328
▁qurum	-10.2331
▁populyar	-10.2331
lli	-10.2332
▁təqib	-10.2333
▁bildir	-10.2333
▁Ker	-10.2333
ətli	-10.2335
bulaq	-10.2341
▁çağır	-10.2344
▁faiz	-10.2344
▁Kommunist	-10.2345
qaz	-10.2347
▁rəy	-10.2349
▁şərqdə	-10.235
▁istilik	-10.2356
▁Xu	-10.2358
▁iştirakçısı	-10.2359
sor	-10.2359
▁Bro	-10.2359
kat	-10.2361
sis	-10.2363
▁Həyat	-10.2364
▁180	-10.2364
eli	-10.2367
ləşməsi	-10.2369
▁saxlamaq	-10.237
02	-10.2373
▁ispan	-10.2373
▁mahnıları	-10.2377
-10	-10.2379
illik	-10.2386
▁arxiv	-10.2387
▁torpaqları	-10.2389
anq	-10.2392
▁yaşayırdı	-10.2392
▁vermişdi	-10.2393
▁feodal	-10.2394
▁nəvəsi	-10.2394
▁qəbir	-10.2398
lıqlar	-10.2398
▁ardından	-10.2401
▁Qəhrəmanı	-10.2403
▁əzələ	-10.241
▁Tay	-10.2412
▁Bra	-10.2414
▁dis	-10.2414
▁versiya	-10.2418
▁atmosfer	-10.242
car	-10.2422
▁burax	-10.2423
port	-10.2426
▁standart	-10.2426
▁İcra	-10.2427
▁könüllü	-10.2428
loq	-10.2429
▁əksinə	-10.2433
▁vəsiqə	-10.2436
▁ittifaq	-10.2437
▁EA	-10.244
▁1939-	-10.244
▁Təsərrüfatı	-10.2442
▁Əhalinin	-10.2442
▁etdiyini	-10.2443
▁Nur	-10.2443
▁olmadığı	-10.2446
lıqda	-10.2448
ino	-10.245
▁raket	-10.245
▁hazırlanmışdır	-10.2452
▁rayonun	-10.2453
▁ge	-10.2454
itlər	-10.2456
▁jurnalı	-10.2456
pro	-10.2459
▁bildi	-10.2461
▁terrorçuları	-10.2462
▁İsgəndər	-10.247
▁Cavad	-10.2472
▁qoydu	-10.2473
▁qalın	-10.2474
▁Ala	-10.2474
▁Oyun	-10.2476
▁münasibəti	-10.2477
▁geo	-10.2479
▁şirkətinin	-10.2479
▁Əziz	-10.248
▁şurasının	-10.2483
ləndirilməsi	-10.2495
▁keçirən	-10.2496
38	-10.2498
▁təmir	-10.2499
▁mənzil	-10.25
▁oynamışdır	-10.2502
▁jurnalının	-10.2506
▁xəstəliyin	-10.2506
▁göstərmiş	-10.2508
ym	-10.2513
▁canlandır	-10.2515
▁lüğəti	-10.2519
▁Rejissor	-10.252
▁qrupa	-10.2521
▁Meksika	-10.2527
▁əməl	-10.2527
▁Maykl	-10.2528
▁ümumiyyətl	-10.2528
▁Nu	-10.253
▁aparılması	-10.254
▁olmaz	-10.2541
▁başlandı	-10.2546
▁Təbii	-10.2548
▁kitabın	-10.2548
▁səhər	-10.2553
▁işçisi	-10.2554
▁nazik	-10.2556
laşdır	-10.2557
ep	-10.2558
▁təhlükəsizlik	-10.256
43	-10.2562
▁Şərur	-10.2564
▁Quru	-10.2567
▁Han	-10.2569
▁düzənlik	-10.257
▁manqa	-10.2571
48	-10.2571
şin	-10.2573
etik	-10.2573
tom	-10.2573
▁götürür	-10.2575
▁ardınca	-10.2576
▁mərtəbə	-10.2578
47	-10.2579
▁abidəsi	-10.2581
▁Səid	-10.2581
▁Partiya	-10.2583
▁Tam	-10.2584
▁işini	-10.2586
▁XIV	-10.2587
tasiya	-10.2588
▁yekun	-10.2592
▁qaçır	-10.2595
dıqları	-10.2599
üzə	-10.26
72	-10.2606
▁Aydın	-10.2606
▁Axundov	-10.2609
▁qoyun	-10.2612
▁Lev	-10.2615
▁yaradıcı	-10.2615
▁olmalıdır	-10.2617
▁toxum	-10.2618
▁problemlər	-10.2618
▁bilərdi	-10.2624
matik	-10.2624
▁istisna	-10.2626
▁faydalı	-10.263
▁fakültəsinə	-10.2632
▁istəyirdi	-10.2635
▁xüsusiyyəti	-10.2635
▁paşa	-10.2637
▁çal	-10.2637
▁razı	-10.2638
▁imperiyasının	-10.264
▁monqol	-10.2641
▁fəaliyyətinin	-10.2641
▁türbə	-10.2645
▁ver	-10.2646
▁Alban	-10.2647
▁dünyasını	-10.2647
▁ölümü	-10.2648
▁Afina	-10.2649
com	-10.265
əliyev	-10.2652
▁19-	-10.2652
▁şüşə	-10.2655
lıqla	-10.2658
▁çıx	-10.2659
bol	-10.2659
▁ssenari	-10.266
lək	-10.2662
▁münaqişə	-10.2662
▁qitə	-10.2663
▁ermənilərin	-10.2664
▁tur	-10.2666
▁axar	-10.2667
▁xəstəxana	-10.2667
▁növbədə	-10.2668
▁yarışlarında	-10.2668
rən	-10.2674
▁müddəti	-10.2675
hal	-10.2675
▁gü	-10.2677
sul	-10.2678
▁Məz	-10.2682
▁Bağ	-10.2684
▁diametri	-10.2685
▁mln	-10.2685
▁tarixinin	-10.269
▁yarısı	-10.2691
▁tələbələr	-10.2691
▁diplomatik	-10.2694
zadənin	-10.2694
▁fakültə	-10.2697
▁Cavanşir	-10.2699
▁dönəmində	-10.2701
▁görü	-10.2704
tura	-10.2705
▁materialları	-10.271
▁döyüşlərdə	-10.2712
▁gələrək	-10.2714
dikdən	-10.2714
▁mikro	-10.2716
▁xəstəliyi	-10.2722
▁sənayesi	-10.2725
məklə	-10.2727
▁çəkdiyi	-10.2728
71	-10.2729
anlar	-10.2731
▁vasitə	-10.2732
tədqiqat	-10.2734
▁25-	-10.2734
▁qaynaq	-10.2735
▁əraziləri	-10.2737
▁xatirə	-10.2738
▁yazılı	-10.2739
▁keçirildi	-10.2739
▁vəsait	-10.274
imi	-10.2742
▁Lə	-10.2744
▁Kilsə	-10.2747
▁Danimarka	-10.2748
62	-10.2749
▁41	-10.2752
▁Uilyam	-10.2755
58	-10.2757
▁bölgədə	-10.2758
▁dəyişmə	-10.2759
▁Aq	-10.276
▁yuxu	-10.2761
▁iqtisadiyyatı	-10.2762
▁başqaları	-10.2765
▁filologiya	-10.2768
▁istifadəyə	-10.2785
▁yaradıldı	-10.2785
▁qəsəbəsi	-10.2785
▁verə	-10.2787
mus	-10.279
▁görüşdə	-10.279
▁nəfərdən	-10.2794
▁tar	-10.2795
▁danışıqlar	-10.2797
▁44	-10.2798
▁dənizinin	-10.28
mız	-10.2802
▁mətbuat	-10.2805
taq	-10.2806
▁anime	-10.2807
▁Kiyev	-10.2808
▁Azərbaycanı	-10.2809
▁tutmuş	-10.2812
▁dost	-10.2814
▁tikili	-10.2814
▁təsnifat	-10.2816
mak	-10.2824
▁məclis	-10.2827
▁təslim	-10.2828
▁cihaz	-10.2835
▁əməliyyatı	-10.2837
▁təməl	-10.2837
▁klubunda	-10.2843
▁Nar	-10.2847
▁Go	-10.2849
▁Çingiz	-10.285
▁qrupuna	-10.285
▁təşəbbüsü	-10.2851
▁1964-	-10.2862
▁tədbir	-10.2863
çilərin	-10.2864
▁hücuma	-10.2868
▁Men	-10.2871
7	-10.2872
▁MK	-10.2874
▁Qasımov	-10.2875
▁tutmuşdur	-10.2876
▁varlıq	-10.2877
tək	-10.2877
▁yurdu	-10.2879
8	-10.2883
▁sözünün	-10.2885
▁Çu	-10.2885
▁zirvəsi	-10.2886
▁dərinliyi	-10.289
▁lider	-10.2891
▁Arif	-10.2891
▁Sənaye	-10.2896
41	-10.2896
sidir	-10.2898
▁Car	-10.2899
ра	-10.29
▁Amerikada	-10.2903
▁obrazı	-10.2904
▁zabit	-10.2904
laşdırmaq	-10.2905
hid	-10.2908
▁Ordusu	-10.2908
▁işləməyə	-10.291
▁manat	-10.2912
▁52	-10.2915
otu	-10.2918
▁minlərlə	-10.2918
▁aləmi	-10.2921
▁İstanbulda	-10.2921
▁Parisdə	-10.2926
ktor	-10.2928
▁torpaqlar	-10.2934
▁dekabrın	-10.2935
▁törə	-10.294
▁Ştatları	-10.2947
ziya	-10.2948
▁vilayətində	-10.2948
▁cavan	-10.2949
▁lay	-10.2949
▁rəssamı	-10.295
▁yazılmışdır	-10.2952
▁ха	-10.2952
▁tapmışdır	-10.2955
▁Ailə	-10.2955
▁xə	-10.2956
.6	-10.2958
▁Asiyada	-10.2959
vil	-10.2962
▁telefon	-10.2968
▁fəth	-10.2969
əyə	-10.2973
▁mərasim	-10.2975
▁məişət	-10.2982
▁tamaşaçı	-10.2983
▁sin	-10.2984
▁1949-	-10.2985
▁sərəncamı	-10.2985
▁sentyabrın	-10.2988
spor	-10.2991
▁formalı	-10.2992
▁hind	-10.2995
▁fərqlənmə	-10.2995
▁edilməsinə	-10.2997
▁uca	-10.2999
▁yağı	-10.3
lərdir	-10.3001
▁Yol	-10.3002
▁Ulduz	-10.3004
▁əla	-10.3005
▁qurulan	-10.3007
▁İdarə	-10.3008
daşı	-10.3015
▁ifaçı	-10.3015
lya	-10.3018
▁seçmə	-10.3021
▁məhsul	-10.3023
▁sərhədləri	-10.3023
▁martın	-10.3024
▁elektro	-10.3024
bb	-10.3024
▁Kö	-10.3027
▁şöhrət	-10.303
▁sözündən	-10.3032
▁ştat	-10.3032
▁Dər	-10.3034
▁komediya	-10.3034
▁Med	-10.3034
▁zalı	-10.3035
▁lat	-10.3037
▁т	-10.3037
▁ruhu	-10.304
▁Akademik	-10.3041
▁Kənddə	-10.3042
▁süjet	-10.3049
W	-10.3051
▁get	-10.3054
xanlı	-10.3056
bey	-10.3058
▁hazırlıq	-10.3066
▁İm	-10.3069
▁vəzifəsi	-10.3074
▁aç	-10.3085
lənib	-10.3086
▁Yüksək	-10.3086
pen	-10.3087
▁olmadan	-10.309
▁yatır	-10.3095
ин	-10.3099
▁Fərhad	-10.3101
▁əyalətinin	-10.3102
▁kəşfiyyat	-10.3103
▁Bağdad	-10.3103
▁açılır	-10.3105
▁aprelin	-10.3108
▁verməsi	-10.3109
▁1942-	-10.3111
▁fe	-10.3117
▁silsiləsinin	-10.3122
etmə	-10.3124
▁2017	-10.3125
zər	-10.3126
usun	-10.3127
dərə	-10.3129
▁dəyişməsi	-10.3129
▁Bunu	-10.313
▁Qurban	-10.3132
▁dostları	-10.3136
▁döş	-10.3137
▁günbəz	-10.3139
▁kollec	-10.3139
▁Sim	-10.3141
▁birləşdirən	-10.3144
▁yerləşdirilmiş	-10.3144
▁fakültəsinin	-10.3145
▁1944-	-10.315
ləndirir	-10.3152
▁taleyi	-10.3153
ct	-10.3154
▁Çə	-10.3155
▁Mis	-10.3156
▁120	-10.3156
▁1922-	-10.3159
ilmiş	-10.3161
▁Bank	-10.3167
▁keçi	-10.3167
▁1926-	-10.3169
▁şirin	-10.317
ж	-10.3171
▁enerjisi	-10.3172
▁ağrı	-10.3173
ləndi	-10.3174
▁kamera	-10.3177
adək	-10.3177
▁Hacıyev	-10.3179
▁yeraltı	-10.3181
por	-10.3183
▁ayır	-10.3188
▁aparmaq	-10.3191
siyası	-10.3193
irlər	-10.3204
▁dolları	-10.3206
▁qılınc	-10.3207
▁qulaq	-10.321
▁1947-	-10.3211
▁yaşayırlar	-10.3211
▁mərhələdə	-10.3214
chi	-10.3215
▁vaxtlar	-10.3218
▁birini	-10.322
ros	-10.322
xu	-10.3221
▁şərqində	-10.3221
▁Belarus	-10.3222
uc	-10.3224
dikləri	-10.3226
▁şeirləri	-10.3226
müşdür	-10.3228
yr	-10.3228
▁prinsipi	-10.3229
▁keçib	-10.3229
▁Oktyabr	-10.3229
▁gedə	-10.3237
▁İnformasiya	-10.3237
▁baza	-10.3239
▁efir	-10.3239
▁çayın	-10.3243
▁monoqrafiya	-10.3243
▁TV	-10.3247
▁XII	-10.3248
▁Maq	-10.3251
layıb	-10.3253
▁deputatı	-10.3254
▁təchiz	-10.3258
▁Filmdə	-10.3259
▁ərazisinin	-10.3261
▁yun	-10.3261
rad	-10.3263
▁məhəbbət	-10.3264
▁keçməsi	-10.3264
▁bel	-10.3264
▁otağı	-10.327
▁1954-	-10.3272
kol	-10.3273
▁Çələbi	-10.3275
ağ	-10.3276
inski	-10.3277
▁gir	-10.328
▁şöbəsi	-10.3281
▁43	-10.3283
▁mülki	-10.3283
üş	-10.3283
▁laboratoriya	-10.3291
J	-10.3293
▁adlandırılan	-10.3294
elin	-10.3294
liz	-10.3294
▁Kü	-10.3297
▁orkestr	-10.3298
▁qələmə	-10.3298
tinin	-10.3301
▁qorumaq	-10.3303
▁iyunun	-10.3304
▁oyna	-10.3305
▁bilərlər	-10.3307
▁Saray	-10.3307
▁tra	-10.331
▁abidələri	-10.3311
met	-10.3311
▁gətirdi	-10.3312
▁xatırla	-10.3315
▁Ax	-10.3318
▁Muğan	-10.3323
▁co	-10.3324
▁XI	-10.3327
▁Talış	-10.333
▁now	-10.3331
▁itir	-10.3333
mis	-10.3334
▁Əm	-10.3337
▁emalı	-10.3339
▁Dü	-10.334
skinin	-10.3341
▁Bü	-10.3341
▁məqam	-10.3344
▁çıxarır	-10.3349
ial	-10.336
▁Kamal	-10.3362
▁xəstəlik	-10.3363
tır	-10.3364
ardı	-10.3364
▁hi	-10.3366
ktiv	-10.337
61	-10.3371
▁uçuş	-10.3372
▁modeli	-10.3374
▁ölkələr	-10.3375
metr	-10.3382
▁$	-10.3382
ilməsi	-10.3382
▁yandır	-10.3383
▁əlinə	-10.3387
rk	-10.3396
▁məzar	-10.3396
▁enli	-10.3397
oq	-10.3397
qay	-10.3402
▁qabığı	-10.3405
▁qoşunu	-10.3406
iti	-10.3406
ayı	-10.3407
▁bit	-10.3408
▁qüllə	-10.3408
ер	-10.3408
▁ziyan	-10.341
▁uc	-10.3412
▁şahın	-10.3413
▁şüa	-10.3414
tiv	-10.3416
çiləri	-10.3418
laşan	-10.3419
▁Televiziya	-10.3424
▁etdirdi	-10.3425
▁Х	-10.3433
oş	-10.3436
▁xas	-10.3442
▁mono	-10.3445
▁uzunsov	-10.3446
ps	-10.3447
▁Para	-10.3453
yeva	-10.3457
▁1.	-10.3459
26	-10.3459
▁sözlər	-10.346
▁gündəlik	-10.3464
oba	-10.3466
▁1953-	-10.3468
▁trans	-10.3469
düyü	-10.347
▁artması	-10.347
tak	-10.3472
▁Texniki	-10.3475
▁Kam	-10.3479
▁siyahısına	-10.3482
ırlar	-10.3484
▁Pyotr	-10.3484
▁bulağı	-10.3486
▁bədənin	-10.3487
dıqda	-10.3488
▁Xorasan	-10.349
▁müəssisələri	-10.3492
▁nəfərlik	-10.3492
87	-10.3492
istlər	-10.3495
▁12-	-10.3495
▁qərbində	-10.3497
▁Rostov	-10.3498
kər	-10.35
▁çəkən	-10.3502
▁mo	-10.3505
▁müstəmləkə	-10.3506
▁əbədi	-10.3506
39	-10.3512
▁bənd	-10.3513
▁Qab	-10.3515
▁Kazım	-10.3517
▁işlərinə	-10.3519
şərqində	-10.352
▁süvari	-10.3523
imiz	-10.3524
▁sülaləsi	-10.3529
▁yaşa	-10.3529
tim	-10.353
▁sir	-10.353
م	-10.3533
likdə	-10.3536
▁suları	-10.3538
36	-10.3539
elli	-10.3543
▁istinad	-10.3545
üstə	-10.3546
▁Göyçə	-10.3548
▁sahili	-10.3548
▁Səfi	-10.3549
▁kurs	-10.355
rab	-10.3552
▁Üçüncü	-10.3553
▁Torpaq	-10.3553
▁bat	-10.3558
▁inqilabı	-10.3559
81	-10.3559
▁1921-	-10.3559
▁Tər	-10.3562
him	-10.3564
▁şiə	-10.3566
mışlar	-10.3566
eni	-10.3566
qəsd	-10.3566
bl	-10.3567
ney	-10.3568
▁Ümumiyyətlə	-10.3568
▁sakit	-10.3569
▁verilib	-10.357
▁Aprel	-10.3576
▁1905-	-10.3576
▁Monqol	-10.3576
dirlər	-10.3579
tmaq	-10.3581
maqdadır	-10.3582
▁Təşkilatı	-10.3584
▁bomba	-10.3584
▁zolaq	-10.3585
▁olduqları	-10.3587
▁Kəlbəcər	-10.3592
▁qalıb	-10.3594
ь	-10.3596
▁müttəfiq	-10.3598
ц	-10.36
▁qüvvələr	-10.3603
▁Səfəvilər	-10.3604
▁olmuşlar	-10.3605
▁ərazilərində	-10.3605
▁duy	-10.3605
ləşdirir	-10.3606
▁Ken	-10.3607
▁qaydaları	-10.3607
▁&#124;	-10.3608
▁Yaponiyanın	-10.3608
▁mər	-10.3608
▁xassələri	-10.3611
▁1955-	-10.3613
▁Fəxri	-10.3615
▁poçt	-10.3615
▁46	-10.3622
▁diyarı	-10.3622
▁dəyər	-10.3622
▁düşərgə	-10.3622
▁Soveti	-10.3623
▁ocağı	-10.3623
▁Əhmədov	-10.3624
▁tələbələrin	-10.3626
▁rütbəsi	-10.3626
▁birləşdirir	-10.3628
▁kompozisiya	-10.3632
▁qo	-10.3634
▁uşağı	-10.3647
▁səviyyəsi	-10.3649
▁yaradan	-10.365
▁60-	-10.365
▁tutub	-10.365
▁oldular	-10.3651
lib	-10.3652
33	-10.3653
▁qur	-10.3657
▁etməli	-10.366
vaz	-10.3662
▁bilirdi	-10.3664
▁gündə	-10.3665
▁Bax	-10.3667
▁xidmətə	-10.3669
▁72	-10.3672
▁yığması	-10.3674
▁kəsi	-10.3675
▁elementlərin	-10.3676
▁Əfqanıstan	-10.3678
▁başı	-10.3679
▁İqtisadi	-10.3681
▁insanları	-10.3685
tes	-10.3687
▁elementləri	-10.3687
▁ruslar	-10.3689
nis	-10.3694
▁çatmışdır	-10.3697
▁seçildi	-10.37
▁zamanlar	-10.3701
▁həyatının	-10.3701
▁filminin	-10.3702
▁saxlayır	-10.3702
▁cəmiyyəti	-10.3703
▁ü	-10.3704
▁lideri	-10.3705
▁ә	-10.3706
▁suda	-10.3707
▁du	-10.3708
▁Ger	-10.3708
▁göstərilmişdir	-10.371
▁oktyabrın	-10.371
▁qazıntılar	-10.3714
▁hədiyyə	-10.3718
▁Qran	-10.3722
▁bəzək	-10.3724
▁siz	-10.3725
▁yanaşma	-10.3725
▁İsmayılov	-10.3729
tion	-10.3729
stin	-10.3732
▁Bak	-10.3735
ksiya	-10.3737
▁Federasiyası	-10.3738
baz	-10.3739
▁Göl	-10.3741
▁BDU	-10.3743
▁Nik	-10.3746
ğını	-10.3748
▁süd	-10.375
▁Cin	-10.3751
▁dön	-10.3755
▁sinfi	-10.3756
▁gi	-10.3757
sko	-10.3758
▁bilavasitə	-10.3758
▁Yaqub	-10.3758
▁noyabrın	-10.3768
▁xarakteri	-10.3769
pol	-10.3771
▁1943-	-10.3771
▁həbsxana	-10.3775
▁mahalı	-10.3781
▁pla	-10.3781
▁İrlandiya	-10.3782
▁analiz	-10.3782
▁şərt	-10.3786
▁qabiliyyəti	-10.3787
laraq	-10.3787
rid	-10.3788
▁yanğın	-10.3789
sm	-10.3789
kli	-10.3789
▁mənzərə	-10.379
▁arı	-10.3791
▁Yunanıstan	-10.3799
ort	-10.38
▁kəsb	-10.38
▁səfiri	-10.3801
sov	-10.3802
▁Din	-10.3802
▁tutulmuş	-10.3807
▁əvəzinə	-10.3809
▁heyət	-10.3809
lərarası	-10.381
▁Məh	-10.3811
inki	-10.3813
▁araşdırmalar	-10.3814
▁Niderland	-10.3814
▁ittiham	-10.3814
▁savaş	-10.3818
▁Yaponiyada	-10.3818
raf	-10.3818
▁Bas	-10.3821
▁çi	-10.3824
lun	-10.3829
asının	-10.3829
▁dilindən	-10.3831
▁axtarış	-10.3831
▁vəsaiti	-10.3836
▁1923-	-10.3838
.8	-10.3839
▁gen	-10.3842
-18	-10.3842
▁for	-10.3844
sıdır	-10.3844
▁icma	-10.3848
yü	-10.3849
▁Qan	-10.3853
ləşən	-10.3853
▁axtar	-10.3854
▁tük	-10.3857
▁tikilmişdir	-10.3859
▁metod	-10.3863
▁alındı	-10.3865
▁başında	-10.3865
che	-10.3866
Mə	-10.3866
▁məsuliyyət	-10.3869
para	-10.3871
▁Şü	-10.3874
▁St	-10.3875
▁İqtisadiyyat	-10.3876
▁man	-10.3877
é	-10.3879
▁ili	-10.3879
▁qələm	-10.388
▁ideya	-10.388
▁kv	-10.3882
▁karyerası	-10.3883
.7	-10.3884
▁2002	-10.3885
▁yarış	-10.3895
▁əkinçilik	-10.3897
▁almağa	-10.3899
▁təhlükəli	-10.3904
▁Tü	-10.3904
▁toz	-10.3907
▁Teatrında	-10.391
▁Şu	-10.3911
ene	-10.3912
▁qüvvəsi	-10.3914
AN	-10.3915
dri	-10.3916
▁ekoloji	-10.392
▁kosmik	-10.3921
▁ideal	-10.3923
ləşdi	-10.3923
▁uğursuz	-10.3931
varı	-10.3932
▁dişi	-10.3936
▁600	-10.3937
▁Ed	-10.3938
▁qanunları	-10.3941
▁arxasında	-10.3941
lub	-10.3943
-12	-10.3944
▁Konqres	-10.3944
▁Tahir	-10.3946
▁dam	-10.3946
▁MR	-10.3946
▁ərazisindən	-10.3949
▁ru	-10.395
▁məşqçi	-10.395
▁Sahil	-10.3951
▁Yaşayış	-10.3952
▁Livan	-10.3952
▁kitabə	-10.3956
▁1931-	-10.3956
▁qurğu	-10.3957
▁meydanı	-10.3958
▁kitabları	-10.3966
▁sar	-10.3967
▁işğalı	-10.3973
▁kart	-10.3973
ea	-10.3974
▁Cəmiyyətinin	-10.3979
▁şər	-10.398
▁Vyana	-10.3988
ius	-10.3989
▁təcrübəsi	-10.3991
▁istirahət	-10.4001
▁64	-10.4002
▁antik	-10.4006
▁dərk	-10.4008
▁bölgəsinin	-10.4008
▁xahiş	-10.4008
▁Un	-10.4009
▁1936-	-10.4011
▁mane	-10.4011
ladı	-10.4012
▁mənə	-10.4013
▁seç	-10.4015
▁Kolleci	-10.4016
ras	-10.4017
▁müddətində	-10.4019
▁hədəf	-10.4021
▁üzərindəki	-10.4024
▁ilində	-10.4029
▁satışa	-10.403
▁seçilmiş	-10.403
▁Aslan	-10.4033
uri	-10.4035
şu	-10.4035
und	-10.4039
▁əsrlərə	-10.4041
▁diqqəti	-10.4043
muşdur	-10.4044
▁dairəvi	-10.4047
▁balet	-10.4049
ayev	-10.405
ix	-10.4055
▁Qol	-10.4057
▁gəldiyi	-10.406
▁göndərir	-10.4062
▁Zaqatala	-10.4064
▁əsaslı	-10.4066
▁əsərlərinin	-10.4066
▁Rəşid	-10.4067
▁olmasa	-10.4068
▁texnikası	-10.4069
▁Litva	-10.407
▁maddələrin	-10.4071
▁Aş	-10.4075
▁hərbçi	-10.4077
▁1,5	-10.4077
▁Mükafatı	-10.4077
teri	-10.4079
▁yiyələn	-10.4079
▁yerləş	-10.408
▁anbarı	-10.4083
▁Nigeriya	-10.4083
▁danışır	-10.4084
▁sən	-10.4084
▁döyüşçü	-10.4089
▁Yaxşı	-10.4091
▁dəstələri	-10.4095
▁deputat	-10.4097
▁Boz	-10.4101
mil	-10.4102
▁geoloji	-10.4109
▁sahibdir	-10.4115
▁В	-10.4122
▁Parlament	-10.4122
▁ro	-10.4124
▁yaddaş	-10.4125
▁fəlsəfəsi	-10.4128
▁verməyə	-10.4129
▁avqustun	-10.4132
▁möhtəşəm	-10.4133
▁məhrum	-10.4133
▁edək	-10.4134
▁ailəsinin	-10.4134
aqlı	-10.414
▁çılpaq	-10.4141
▁Fizika	-10.4141
▁nəhayət	-10.4149
▁mədəniyyətinin	-10.415
▁ça	-10.4151
▁iyulun	-10.4153
▁bəstə	-10.4161
▁sərkərdə	-10.4162
▁simvolu	-10.4165
▁dəyəri	-10.4166
▁Şotlandiya	-10.4166
ündə	-10.417
▁məntəqələri	-10.4171
▁Dia	-10.4173
▁taxt	-10.4174
set	-10.4175
▁türkcə	-10.4175
zen	-10.4177
▁seriyası	-10.4177
məkdədir	-10.4178
mm	-10.4179
ore	-10.418
▁bəs	-10.4183
▁Gil	-10.4184
uru	-10.4184
umu	-10.4185
▁qazı	-10.4188
▁klubuna	-10.4189
▁üsulları	-10.4189
▁bayramı	-10.419
▁qurban	-10.4193
▁adlandırırlar	-10.4197
▁tərəfdarları	-10.4199
qərbində	-10.4201
▁şəhərlərində	-10.4202
ssi	-10.4202
▁VIII	-10.4203
▁idarəsi	-10.4207
▁Kino	-10.4209
▁tapır	-10.4212
▁tutulur	-10.4213
52	-10.4215
▁sarayında	-10.4215
ef	-10.4215
tmək	-10.4215
▁yarandı	-10.422
▁1952-	-10.4221
▁nəsli	-10.4223
▁Paşanın	-10.4226
78	-10.4227
▁bioloji	-10.4228
▁görünmə	-10.4228
▁bərabərdir	-10.4229
▁Kap	-10.423
ranın	-10.4231
▁Peyğəmbər	-10.4233
▁paralel	-10.4233
▁termini	-10.4237
atlar	-10.4238
▁yuxarıda	-10.4239
fu	-10.424
▁Sel	-10.4241
▁vurub	-10.4242
▁qəzası	-10.4243
-3	-10.4244
▁görən	-10.4244
▁Mel	-10.4245
▁zo	-10.4249
▁İlin	-10.425
▁mil	-10.4252
▁Dr	-10.4255
▁element	-10.4255
bas	-10.4255
olo	-10.4256
▁Yəni	-10.4259
▁magistr	-10.4262
▁nəşriyyatı	-10.4263
▁şəxsiyyət	-10.4268
▁Lü	-10.427
▁Cen	-10.427
▁bitkilərin	-10.4271
sizlik	-10.4274
▁bazası	-10.4274
▁Dünyanın	-10.4276
iye	-10.4277
▁usta	-10.428
54	-10.4287
▁təzə	-10.429
▁gələcəkdə	-10.429
▁Çempionatı	-10.4292
oxu	-10.4293
▁daşın	-10.4294
▁çı	-10.4294
▁Bri	-10.4296
▁2003	-10.4296
▁uşaqları	-10.4299
▁gö	-10.4304
AR	-10.4305
▁simvol	-10.4309
▁iqlimi	-10.431
yevin	-10.4311
▁ək	-10.4312
onq	-10.4312
▁azı	-10.4315
▁PKK	-10.4317
▁Ant	-10.4317
▁xalqların	-10.4323
▁Liqası	-10.4324
▁bütöv	-10.4324
▁Port	-10.4329
▁Vin	-10.4329
▁yolunun	-10.4329
й	-10.4331
ор	-10.4335
▁para	-10.4336
▁kal	-10.4337
▁məhəllə	-10.4341
bal	-10.4341
▁üslub	-10.4343
▁qazanır	-10.4346
▁haqq	-10.435
▁Nəhayət	-10.4351
cuq	-10.4354
əzə	-10.4355
▁istər	-10.4355
83	-10.4358
Ģ	-10.4359
▁spektr	-10.4361
hur	-10.4361
▁axını	-10.4364
▁Keçmiş	-10.4368
▁müşayiət	-10.4368
▁Tovuz	-10.4368
▁qaldır	-10.4368
▁tərbiyə	-10.4372
ine	-10.4373
iyada	-10.4374
▁Vil	-10.4374
▁polkovnik	-10.4374
▁avto	-10.4378
▁Məktəb	-10.4381
tus	-10.4384
▁mülayim	-10.4385
▁İsti	-10.4388
▁hündürlükdə	-10.4388
▁mənada	-10.4388
▁səviyyəsində	-10.439
▁bizə	-10.4392
duq	-10.4402
▁aparmışdır	-10.4408
ston	-10.4409
▁istifadəsi	-10.4409
▁alınma	-10.4412
▁yüksəklik	-10.4413
▁Qum	-10.4413
▁müsahibə	-10.4419
mızın	-10.442
▁pat	-10.442
▁hökumətinin	-10.442
▁49	-10.4423
masını	-10.4425
ləşdirilmişdir	-10.4427
▁Es	-10.4427
vel	-10.4431
▁müəssisə	-10.4432
top	-10.4436
▁imperatoru	-10.4436
▁dəyişən	-10.4436
▁dizayn	-10.4439
ddi	-10.444
ob	-10.4441
əlli	-10.4442
▁funksiya	-10.4442
▁Universitetin	-10.4444
▁narahat	-10.4446
▁jurnalında	-10.4448
▁Ərazi	-10.4449
▁tağ	-10.4452
▁Argentina	-10.4453
rp	-10.4455
ləşdirmək	-10.4459
▁qoca	-10.446
Ü	-10.4461
▁Heç	-10.4464
▁47	-10.4464
▁tayfasının	-10.4467
▁qurulmuşdur	-10.4467
▁faciə	-10.4468
د	-10.447
▁marağı	-10.4474
▁qəsəbəsində	-10.4476
و	-10.4479
▁mövqeyi	-10.4481
▁əməyi	-10.4482
▁gəlmişdi	-10.4483
▁yoldaşları	-10.4488
məlidir	-10.4489
▁11-	-10.4491
▁ştatının	-10.4491
▁Henri	-10.4491
▁IX	-10.4492
▁hissəsinə	-10.4496
say	-10.4497
▁yurd	-10.4498
▁məlumatı	-10.4498
▁Ağayev	-10.4499
▁övladları	-10.45
▁intensiv	-10.4502
dadır	-10.4502
▁Pat	-10.451
▁qazanan	-10.451
ه	-10.4513
▁Urmiya	-10.4513
▁fevralın	-10.4514
▁insanlara	-10.4515
▁Yanvar	-10.4517
▁öldürüldü	-10.4517
▁faktor	-10.4519
▁diqqətini	-10.4522
▁şəxslərin	-10.4525
▁Rio	-10.4525
▁komissiya	-10.4528
mba	-10.453
▁aparılmış	-10.453
▁bol	-10.4533
▁Fer	-10.4534
▁tərcüməçi	-10.4535
▁Uzunluğu	-10.4536
▁serial	-10.4537
▁Mixail	-10.4539
▁Gürcüstanın	-10.454
▁nəql	-10.4541
▁tayfaları	-10.4541
▁40-	-10.4542
▁Ce	-10.4545
▁tövsiyə	-10.4548
▁faza	-10.4554
▁söy	-10.4555
kimya	-10.4556
▁Den	-10.4557
pin	-10.4558
▁adada	-10.4561
daq	-10.4562
▁iti	-10.4568
▁təşkili	-10.4568
▁18-	-10.4572
▁250	-10.4574
▁stansiya	-10.4576
▁Sem	-10.4576
▁ayırır	-10.4578
▁boyun	-10.4581
▁vurğu	-10.4581
▁Professor	-10.4582
▁alçaq	-10.4583
▁teatrı	-10.4584
▁əmir	-10.4586
▁nömrə	-10.4586
▁yuva	-10.4587
eb	-10.4588
▁qəti	-10.4589
▁bölməsi	-10.4591
▁əşyaları	-10.4592
▁qaç	-10.4593
▁gördü	-10.4594
▁personaj	-10.4594
▁məqalələr	-10.4596
▁beyin	-10.4596
▁xərc	-10.4601
▁gərgin	-10.4602
▁hissəyə	-10.4603
▁Mur	-10.4606
▁yataqları	-10.4609
▁Yaşıl	-10.4609
▁Məs	-10.4611
süz	-10.4617
▁Rumıniya	-10.4617
▁heykəli	-10.4619
▁bağı	-10.4619
▁babası	-10.462
▁mədə	-10.4622
sər	-10.4624
lur	-10.4625
▁çıxardı	-10.4626
▁Qur	-10.4629
ph	-10.4634
▁çin	-10.4634
▁prosesində	-10.4637
▁Hü	-10.4639
▁cümlə	-10.4639
▁şir	-10.4642
▁torpağın	-10.4642
▁ustası	-10.4644
azı	-10.4646
ləmək	-10.4647
▁lent	-10.4647
lum	-10.4651
▁Məclisinin	-10.4651
enti	-10.4652
▁Ol	-10.4652
siniz	-10.4654
▁göstərici	-10.4656
▁bitkiləri	-10.466
▁türbəsi	-10.4664
▁dilini	-10.4668
51	-10.4669
▁pre	-10.4669
▁çəmən	-10.4674
▁vətəni	-10.4676
▁əlaqədardır	-10.4678
▁Siyasi	-10.4678
▁Hollandiya	-10.4679
▁Oskar	-10.4679
▁latın	-10.468
▁silsiləsi	-10.4682
▁müstəqilliyini	-10.4688
▁kü	-10.469
eo	-10.4691
▁Zaman	-10.4692
▁müstəqillik	-10.4692
▁azərbaycan	-10.4696
▁Mey	-10.4697
▁Hol	-10.4698
▁uşaqların	-10.4699
▁Şirvanşah	-10.4701
vənd	-10.4707
▁alması	-10.4714
▁öyrənmək	-10.4716
▁Gu	-10.4718
▁Üzeyir	-10.4722
ləndirmə	-10.4723
▁deyilən	-10.4725
med	-10.4725
▁tərif	-10.4726
▁sarayın	-10.4727
▁demişdir	-10.473
▁Orada	-10.4732
▁Ram	-10.4733
▁istədi	-10.4734
▁Poli	-10.4735
▁qovuş	-10.4736
▁tacir	-10.4739
▁Key	-10.4741
▁müharibəsinin	-10.4744
landığı	-10.4747
▁dənizində	-10.4749
▁donanması	-10.475
▁Demokratik	-10.4751
▁Far	-10.4751
▁şəhərə	-10.4756
▁Komanda	-10.476
çin	-10.4763
▁adamlar	-10.4763
izə	-10.4766
▁üzüm	-10.4771
▁Xocalı	-10.4774
▁növbəsində	-10.4777
▁58	-10.4779
▁tədqiqatçılar	-10.4779
▁texnologiyası	-10.478
▁olmadığını	-10.478
▁qayna	-10.478
▁işlərinin	-10.478
qaya	-10.4781
▁musiqiçi	-10.4781
▁özündən	-10.4782
▁sınaq	-10.4783
▁Türkmənistan	-10.4784
▁işləmiş	-10.4785
▁vuruş	-10.4786
▁klip	-10.4787
▁edildikdə	-10.4789
sunun	-10.4791
▁Babayev	-10.4793
▁göstərilən	-10.4799
▁reklam	-10.4802
▁istefa	-10.4802
▁Sk	-10.4802
▁vasitələri	-10.4803
▁qəzasının	-10.4804
usu	-10.4804
istik	-10.4805
▁Geologiya	-10.4806
▁1992	-10.4815
idlər	-10.4818
▁çəkmə	-10.4818
▁səy	-10.482
▁filosof	-10.4822
▁seçilən	-10.4823
▁kredit	-10.4824
ella	-10.4824
▁texnologiyaları	-10.4825
▁məsul	-10.4825
eyi	-10.4828
▁keç	-10.4829
kur	-10.4833
▁strukturu	-10.4834
▁şəhərini	-10.4841
▁Muzeyi	-10.4844
▁sona	-10.4845
▁amerikalı	-10.4846
▁heykəl	-10.4846
▁17-	-10.4848
▁alayı	-10.485
dilli	-10.4852
▁nəticələr	-10.4855
▁qoyulur	-10.4856
А	-10.4856
ora	-10.4857
▁w	-10.4858
lanaraq	-10.4859
▁ərazinin	-10.486
▁mühitin	-10.4863
kun	-10.4863
yt	-10.4864
▁örtülü	-10.4866
▁silsilə	-10.4867
ita	-10.4868
▁saziş	-10.487
▁tipi	-10.4871
▁salır	-10.4872
ülü	-10.4875
▁56	-10.4875
▁bunların	-10.4877
-16	-10.488
▁regional	-10.488
▁heyvandarlıq	-10.4882
▁Avqust	-10.4883
▁xalqlarının	-10.4886
▁rəqib	-10.4886
nunun	-10.4888
▁Sto	-10.4889
▁veril	-10.4893
rul	-10.4894
▁mühasirəyə	-10.4897
▁16-	-10.49
▁Yapon	-10.49
▁sərvət	-10.49
▁evdə	-10.4901
▁texnologiya	-10.4903
ero	-10.4905
▁Mərkəz	-10.4908
▁doqquz	-10.4909
▁məcburiyyətində	-10.4909
▁54	-10.491
59	-10.4912
▁bağışla	-10.4913
▁səp	-10.4913
madan	-10.4915
▁1932-	-10.4915
▁diş	-10.4917
▁ölü	-10.4918
▁seçilib	-10.4919
▁Məcnun	-10.4921
▁yarpaqları	-10.4922
▁cəbhə	-10.4926
▁xarakterizə	-10.4928
▁dəqiqləşdirmə	-10.4932
▁Ön	-10.4933
▁Layihə	-10.4936
iqtisadi	-10.4937
ola	-10.4939
eyn	-10.4939
▁We	-10.4941
▁Ziya	-10.4941
Azərbaycan	-10.4946
▁pan	-10.4948
anda	-10.4951
▁hərəkat	-10.4951
▁taxıl	-10.4956
▁Çində	-10.4959
▁imam	-10.496
▁yaradıcılığında	-10.496
▁Həmid	-10.4963
▁karbon	-10.4966
berq	-10.4967
▁Mustafayev	-10.497
yen	-10.4974
kom	-10.4974
▁təklifi	-10.4977
▁Alt	-10.4979
▁çağırıl	-10.498
▁imtahan	-10.4981
▁Adi	-10.4982
▁əziyyət	-10.4984
▁Anti	-10.4985
pur	-10.499
qre	-10.4992
▁ağacı	-10.4994
▁cərəyanı	-10.4994
ste	-10.4997
▁Nafta	-10.5
▁Gü	-10.5002
▁yatağı	-10.5005
▁Bol	-10.5007
▁mar	-10.5009
▁dostluq	-10.5011
▁adında	-10.5011
kas	-10.5015
dıq	-10.5018
▁göstərib	-10.5018
▁etmişdilər	-10.5021
▁cəza	-10.5028
▁yarışlarda	-10.5029
▁Əsər	-10.5031
▁mərkəzləri	-10.5032
▁əsgəri	-10.5034
▁fərman	-10.5034
▁Şəmkir	-10.5035
▁tökülür	-10.5041
▁Adı	-10.5042
▁1914-	-10.5046
▁Əslində	-10.5047
▁ağız	-10.505
ilmə	-10.5051
▁Tərtər	-10.5054
▁Bizim	-10.5057
▁şöbəsində	-10.5072
▁şeyi	-10.5073
▁sözlə	-10.5073
▁İbrahimov	-10.5076
▁əsaslanır	-10.5077
▁çalışmış	-10.5077
▁soy	-10.5078
lma	-10.5078
▁Stalin	-10.5079
▁Ham	-10.508
▁konkret	-10.508
53	-10.5081
▁sorğu	-10.5081
▁1924-	-10.5081
▁Kom	-10.5081
▁Vit	-10.5081
▁yazıb	-10.5082
▁mənbələri	-10.5083
▁ndə	-10.5085
▁For	-10.509
▁təq	-10.5093
yır	-10.5095
▁təminatı	-10.5095
▁qalx	-10.5097
▁qurulmuş	-10.5101
▁heyvanların	-10.5103
▁vurdu	-10.5104
▁riyazi	-10.5108
▁proqramları	-10.5108
▁çəkdi	-10.511
▁Kas	-10.5111
▁məktəbləri	-10.5113
▁saç	-10.5114
▁sümük	-10.5114
tın	-10.5116
▁üstə	-10.5116
73	-10.5117
Press	-10.512
Sa	-10.5121
▁Meşə	-10.5121
▁bilmişdir	-10.5124
dis	-10.5124
▁zavodu	-10.5125
▁şagird	-10.5125
▁məktəbinə	-10.5126
▁sərnişin	-10.5126
▁Finlandiya	-10.5126
▁Je	-10.5127
▁vurul	-10.5129
▁açır	-10.513
yın	-10.5133
▁53	-10.5134
▁ərzaq	-10.5135
▁Martin	-10.5141
ız	-10.5141
▁kitablar	-10.5141
▁fikirlər	-10.5142
▁yad	-10.5143
▁səma	-10.5143
▁Köhnə	-10.5144
▁xadimləri	-10.5145
▁qazana	-10.5146
-8	-10.5147
▁Ox	-10.5147
▁çəkmək	-10.515
▁160	-10.515
▁İz	-10.5156
▁Cavid	-10.5163
▁Abbasov	-10.5165
gan	-10.5167
ome	-10.5168
▁Kəl	-10.5173
▁əsərlərini	-10.5173
kimyəvi	-10.5175
▁yığma	-10.5176
▁İtaliyanın	-10.5177
məyən	-10.5181
▁sülaləsinin	-10.5182
▁yetirir	-10.5185
dun	-10.5187
▁Gədəbəy	-10.519
▁inam	-10.5192
▁meta	-10.5194
tov	-10.5194
əbə	-10.5194
▁adlandır	-10.5194
alma	-10.5195
▁İmperator	-10.5198
▁demokratik	-10.52
▁əli	-10.52
▁yerlərində	-10.5205
▁mübadiləsi	-10.5205
▁1933-	-10.5206
▁Cəmiyyəti	-10.5207
▁mahalının	-10.5209
▁çayları	-10.521
indəki	-10.521
▁şübhə	-10.5211
▁respublikanın	-10.5211
▁şəxsin	-10.5212
▁klubunun	-10.5214
▁işlədiyi	-10.5224
▁şirkətin	-10.5224
mor	-10.5224
▁Bitki	-10.5225
▁çəkisi	-10.5225
idi	-10.5226
▁Həmrəyliyi	-10.5227
yaz	-10.5228
▁gövdə	-10.523
cer	-10.5234
▁emal	-10.5237
▁məhkum	-10.5237
77	-10.5237
ilmişdir	-10.5238
▁Müsabiqəsində	-10.5241
▁okeanın	-10.5242
▁çıxma	-10.5243
▁debüt	-10.5245
▁səthində	-10.5246
▁materik	-10.5246
coğrafi	-10.5249
▁aktı	-10.5249
▁həssas	-10.5255
▁yastı	-10.5257
▁qoyulmuş	-10.5257
▁ətrafı	-10.5258
▁sintez	-10.5264
▁knyaz	-10.5264
▁birliyi	-10.5268
mişlər	-10.5268
avi	-10.527
▁Tomas	-10.5275
yinə	-10.5275
▁bölgələrində	-10.5276
zir	-10.5279
▁51	-10.5283
▁sahələr	-10.5283
linq	-10.5284
▁Kərimov	-10.5287
kr	-10.5287
▁inşası	-10.5287
▁kənarında	-10.5288
▁Dol	-10.5289
▁içəri	-10.529
▁qoşunlarının	-10.529
▁Ulu	-10.529
lah	-10.5293
▁buraya	-10.5295
▁Adil	-10.53
▁Papa	-10.53
▁Şe	-10.5301
▁filmlər	-10.5301
▁getdikcə	-10.5302
▁basqın	-10.5302
▁özlərini	-10.5305
▁tapılmışdır	-10.5305
▁epi	-10.5308
▁2001	-10.531
▁statistik	-10.5311
▁münasibətlərin	-10.5312
▁inşaat	-10.5312
▁Altay	-10.5313
▁bilik	-10.5315
bus	-10.5319
▁м	-10.532
▁oyunları	-10.5321
oma	-10.5325
▁nüsxə	-10.5325
▁1951-	-10.5327
▁ittifaqı	-10.5327
fik	-10.5329
▁ört	-10.5331
▁Bankı	-10.5336
▁Sabir	-10.5337
▁qüvvələrin	-10.5337
▁Aba	-10.5338
▁pi	-10.5338
arın	-10.5338
▁qayıtdı	-10.5339
▁Nəriman	-10.5339
laşdırır	-10.5342
▁yolda	-10.5342
▁siyahı	-10.5345
▁katolik	-10.5346
▁David	-10.5346
rdı	-10.5349
▁cəmiyyətinin	-10.535
▁oğulları	-10.5354
▁qalxan	-10.5354
▁toponim	-10.5354
▁toqquşma	-10.5357
▁şəbəkəsi	-10.5357
▁bakalavr	-10.5358
▁New	-10.5363
▁təbliğ	-10.5363
▁uşaqlıq	-10.5364
hr	-10.5366
▁sığorta	-10.5367
▁Torpağı	-10.5367
▁bayraq	-10.5368
▁süxurların	-10.5368
▁asılıdır	-10.5368
lek	-10.537
▁Rəsul	-10.5371
▁gözü	-10.5375
▁qoy	-10.5377
nom	-10.5382
▁məhsuldar	-10.5386
▁İndoneziya	-10.5386
▁Ruh	-10.5387
▁təşkilatının	-10.5387
▁100-	-10.539
▁Rəhim	-10.539
▁adlanırdı	-10.5394
▁nümunəsi	-10.5395
▁əlifbası	-10.5396
▁qüvvələrinin	-10.5398
▁yanacaq	-10.54
▁Leyli	-10.5402
▁Salyan	-10.5403
▁məşhurdur	-10.5403
▁Əkbər	-10.5405
▁mənşəyi	-10.5406
▁bilirlər	-10.5407
▁şiş	-10.5407
▁məqsədlə	-10.5407
▁Ap	-10.5413
▁Sur	-10.5416
▁yüksəklikdə	-10.5417
▁keçə	-10.542
▁İsfahan	-10.5424
▁sakini	-10.5425
iyev	-10.5425
▁təqaüd	-10.5429
▁Cümhuriyyətinin	-10.543
əcəyi	-10.5434
▁Qaz	-10.5434
▁düşməsi	-10.5437
▁tənzim	-10.5438
▁uzunluğunda	-10.5441
▁Növbəti	-10.5443
▁seçim	-10.5446
▁sər	-10.5447
▁hazırlanmasında	-10.5448
▁hissədən	-10.5451
ms	-10.5452
▁çəkildi	-10.5454
▁komandanı	-10.5456
▁aş	-10.5456
▁ərazini	-10.5458
▁Xi	-10.5458
▁proseslər	-10.5459
▁kollektiv	-10.546
▁Cəlil	-10.5462
▁xüsusiyyət	-10.5463
▁Nəzər	-10.5463
▁Polis	-10.5466
əv	-10.5467
▁bərpası	-10.5467
lerin	-10.5469
▁kuboku	-10.5471
▁hissi	-10.5472
▁hakimiyyətinin	-10.5479
▁əməkdaşları	-10.5481
▁inqilab	-10.5483
▁1929-	-10.5486
▁Culfa	-10.549
▁məscidin	-10.549
▁1934-	-10.549
▁anlayış	-10.5493
▁Pen	-10.5493
▁alət	-10.5494
▁Rod	-10.5495
▁bölgəsi	-10.5498
▁Wi	-10.5499
▁paltar	-10.5502
▁həyət	-10.5503
▁inanc	-10.5504
▁komp	-10.5508
▁ərazilər	-10.5509
▁əmisi	-10.5509
▁rekord	-10.551
▁Novruz	-10.5513
▁Sonrakı	-10.5515
▁zədə	-10.5516
▁Hindistanda	-10.5517
▁Tre	-10.5519
▁Amerikanın	-10.5519
▁Fri	-10.552
▁yazıları	-10.5522
▁gördüyü	-10.5526
▁13-	-10.5527
▁müdafiəsi	-10.5529
▁öl	-10.5531
▁olun	-10.5535
▁hazırlayır	-10.554
▁halına	-10.5541
▁uz	-10.5542
ləş	-10.5543
bert	-10.5543
▁amillər	-10.5544
▁cəhət	-10.5547
layaraq	-10.5548
▁hissələrində	-10.5549
▁tarixçi	-10.5549
çayın	-10.5551
▁məruzə	-10.5552
▁artırılması	-10.5553
.9	-10.5553
▁yolunda	-10.5553
▁katib	-10.5553
▁Qadın	-10.5555
kam	-10.5561
▁müqayisədə	-10.5564
ш	-10.5566
▁Xristian	-10.5567
63	-10.5567
▁arzusu	-10.5571
bon	-10.5572
▁kö	-10.5573
▁qalınlığı	-10.5573
▁mübahisə	-10.5579
▁Real	-10.558
▁fövqəladə	-10.5585
▁Daşkənd	-10.5587
▁çıxarılması	-10.5589
▁hamar	-10.559
▁fəsil	-10.5593
▁Ələkbər	-10.5595
▁mahnılar	-10.5596
ost	-10.5596
▁ayına	-10.5596
▁Ailəlidir	-10.5596
yaraq	-10.5598
leri	-10.5598
▁Tədqiqat	-10.5602
▁rayonları	-10.5603
▁elçi	-10.5607
▁qanunu	-10.561
qla	-10.5612
bala	-10.5613
▁effekt	-10.5616
▁Göz	-10.5619
▁Bru	-10.562
ləyə	-10.5621
▁ötür	-10.5622
▁ir	-10.5622
lyasiya	-10.5623
▁63	-10.5623
▁Sil	-10.5625
▁qurşağı	-10.563
▁70-	-10.5632
▁Kla	-10.5633
▁14-	-10.5633
▁Venesiya	-10.5634
raz	-10.5635
ham	-10.5638
▁Düz	-10.5638
▁sultanı	-10.5643
▁orbit	-10.5644
▁xəritə	-10.5645
▁universiteti	-10.5647
zon	-10.5648
▁tele	-10.5649
▁1996	-10.565
▁şəhərindəki	-10.5651
▁gələ	-10.5653
▁mətbəxi	-10.5655
tic	-10.5656
▁əsərini	-10.5657
▁yataq	-10.5659
luğa	-10.5659
▁aralarında	-10.5661
▁hekayəsi	-10.5661
▁varlı	-10.5662
mın	-10.5662
▁ixrac	-10.5662
wa	-10.5663
▁Kra	-10.5664
form	-10.5664
▁Los	-10.5665
▁verərək	-10.5667
▁xanlığının	-10.5667
yərək	-10.5667
▁kan	-10.5672
▁meyl	-10.5674
▁oradan	-10.5676
▁birləşməsi	-10.5679
▁doğum	-10.5679
▁Söz	-10.5681
▁vaxtında	-10.5682
▁türklər	-10.5685
▁dinc	-10.569
▁Af	-10.5692
▁Madrid	-10.5692
▁düzü	-10.5693
▁oyunun	-10.5693
▁üstünə	-10.5695
▁biologiya	-10.5696
▁Ley	-10.5699
eks	-10.5699
▁yarışma	-10.5701
likdən	-10.5706
▁hökumətin	-10.5707
▁Hay	-10.571
▁açılışı	-10.571
▁FİFA	-10.5711
▁www	-10.5721
ırdılar	-10.5723
▁məktəbə	-10.5726
-4	-10.5727
asında	-10.5727
▁mütəxəssislər	-10.5727
irə	-10.5731
iyasının	-10.5731
▁ehtiyatları	-10.5737
fil	-10.5737
▁Rəyasət	-10.574
▁1999	-10.5741
▁əməliyyatlar	-10.5742
rum	-10.5743
lend	-10.5746
▁nəfərə	-10.5747
▁məbədi	-10.5749
▁gey	-10.5749
▁bo	-10.5749
▁Parkı	-10.5751
▁doğur	-10.5753
▁XXXI	-10.5754
▁işinə	-10.5754
▁ayə	-10.5755
stra	-10.5756
adam	-10.5757
▁zəngindir	-10.576
▁dildə	-10.5761
▁buzlaq	-10.5761
▁liqa	-10.5763
▁yaradılır	-10.5764
▁Seylo	-10.5765
▁Britaniyanın	-10.5766
▁düşmüş	-10.5767
▁Ban	-10.5768
▁bildirmişdir	-10.5769
▁Bəhram	-10.577
▁məşqçisi	-10.5775
▁hesabla	-10.5776
▁təhlil	-10.5777
▁koloniya	-10.5777
▁naxış	-10.5781
▁York	-10.5781
▁zəng	-10.5783
▁bilmək	-10.5784
▁köməkçisi	-10.5787
▁burun	-10.5791
▁Kipr	-10.5795
▁1991	-10.5796
naya	-10.5798
▁görüb	-10.581
oto	-10.581
▁nəslindən	-10.5812
▁poema	-10.5815
işi	-10.5819
▁etməsinə	-10.5819
▁təşkilatın	-10.5823
▁ediblər	-10.5823
▁növün	-10.5828
▁sözlərindən	-10.583
▁Bura	-10.5836
▁Leninqrad	-10.5838
ight	-10.5838
▁vermir	-10.5839
▁nüfuz	-10.5842
▁prinsipləri	-10.5843
▁Mənim	-10.5843
kl	-10.5844
▁Yerin	-10.5845
▁nəfəs	-10.5845
▁dəyişiklik	-10.5849
▁Peterburq	-10.5851
ord	-10.5852
▁General	-10.5858
▁tutulan	-10.5858
▁fakt	-10.5858
tl	-10.5859
▁adanın	-10.5862
mamış	-10.5862
▁Muzey	-10.5863
▁olmağı	-10.5864
▁turşusu	-10.5865
press	-10.5865
▁ud	-10.5866
▁vitse	-10.5868
▁ey	-10.5872
▁məzun	-10.5875
▁beşinci	-10.5878
▁ho	-10.5879
▁qurdu	-10.5883
▁xoşbəxt	-10.5887
▁buradan	-10.5888
-14	-10.5888
lla	-10.5891
▁hüquqları	-10.5893
mizdə	-10.5894
▁getmək	-10.5897
▁Yəhya	-10.5897
▁studiya	-10.5911
▁Qazi	-10.5912
▁tapmaq	-10.5912
▁liman	-10.5913
▁ədəbiyyatının	-10.5915
şmə	-10.5916
rinin	-10.5919
▁Dur	-10.5919
tü	-10.5925
ulur	-10.5927
▁çağ	-10.5929
▁təbliğat	-10.5929
▁axşam	-10.5929
▁Tal	-10.5936
▁Qubadlı	-10.5937
pik	-10.5937
▁bilməyən	-10.5938
▁dia	-10.5938
▁sahəsinin	-10.5938
▁maqnit	-10.5939
▁getmiş	-10.5939
▁Albom	-10.5941
▁28-	-10.5941
▁məskunlaşmış	-10.5941
▁sıxlığı	-10.5945
▁Eldar	-10.5946
▁çarı	-10.5946
▁Fələstin	-10.5947
▁istiqaməti	-10.5949
▁müvəffəqiyyətlə	-10.5952
lır	-10.5955
Ha	-10.5964
▁şəxsə	-10.5966
▁Özü	-10.5967
▁gözlə	-10.5968
▁Yeddi	-10.5969
▁yə	-10.5971
▁1925-	-10.5975
mayan	-10.5977
▁Şərəf	-10.5978
sus	-10.598
500	-10.5982
▁ölçüləri	-10.5984
▁yaxınlığındakı	-10.5986
▁doğulmuşdur	-10.5987
▁Cahangir	-10.5987
▁vaxtlarda	-10.5987
▁bulud	-10.5988
▁gəldikdə	-10.5989
▁yaradıcısı	-10.5995
▁buraxılmışdır	-10.5996
▁vəhşi	-10.5997
▁Əmin	-10.5999
▁Qurbanov	-10.6003
▁çempionatı	-10.6004
jo	-10.6004
▁57	-10.6004
tiq	-10.6005
▁kommunist	-10.6007
▁tarixçisi	-10.6007
▁alimləri	-10.6008
-7	-10.6009
▁qruplar	-10.6012
▁Qars	-10.6015
▁barəsində	-10.6017
▁doğulub	-10.6017
▁Təbiət	-10.6019
▁Nəcəf	-10.6021
▁diplom	-10.6022
▁Kuba	-10.6022
riyaziyyat	-10.6024
▁800	-10.6024
▁62	-10.6025
▁peyk	-10.6026
▁Müəllif	-10.6027
▁1993	-10.6027
▁tərəfdə	-10.603
▁olanlar	-10.6033
▁dediyi	-10.6034
▁qəbilə	-10.6034
stro	-10.6035
▁tapa	-10.6036
▁beləliklə	-10.6045
▁lif	-10.6051
▁yem	-10.6052
▁Texnologiya	-10.6054
▁başlanğıc	-10.6055
▁Borçalı	-10.6057
▁ifadəsi	-10.6057
▁səviyyəli	-10.6057
fra	-10.6057
laşmışdır	-10.6061
▁üzvlərinin	-10.6061
▁gərək	-10.6061
▁Serbiya	-10.6063
▁bəstəkarı	-10.6064
▁dua	-10.6066
lor	-10.6066
▁Atlantik	-10.6067
onim	-10.6067
▁aləti	-10.6068
▁Ac	-10.6068
▁pərdə	-10.6072
▁Tbilisi	-10.6074
▁satıl	-10.6074
rasiya	-10.6077
▁yazılır	-10.6078
lak	-10.6079
▁məhsulu	-10.6079
▁təqvimi	-10.6081
yyə	-10.6082
kre	-10.6085
▁göstər	-10.6086
▁növüdür	-10.6087
▁Lin	-10.6093
▁şərab	-10.6093
▁ölən	-10.6095
▁çirk	-10.6097
▁dü	-10.6097
▁ömür	-10.61
xur	-10.61
layıcı	-10.6101
▁tutma	-10.6104
▁oxucu	-10.6105
▁birləşmə	-10.6107
▁Vahid	-10.6109
▁xidmətlərinə	-10.611
▁əsərlərin	-10.6113
▁mavi	-10.6113
tür	-10.6114
▁krallığı	-10.6117
məsini	-10.6118
▁adasının	-10.612
▁Gəncədə	-10.6124
▁variant	-10.6124
▁yayın	-10.6124
zil	-10.6128
▁stadion	-10.6129
▁Şərqdə	-10.6132
▁azalması	-10.6138
▁media	-10.614
▁zər	-10.6143
▁Del	-10.6148
▁Dey	-10.6151
▁Ənvər	-10.6151
▁kəndinə	-10.6151
▁qadınların	-10.6153
▁kafedrasında	-10.6154
▁Məhkəmə	-10.6154
▁pambıq	-10.6158
▁nitq	-10.6158
▁rəvayət	-10.616
▁xət	-10.616
▁Mənbə	-10.616
▁Cəfərov	-10.6162
▁yaxındır	-10.6163
lilərin	-10.6165
▁yön	-10.6168
▁Alma	-10.6168
▁qarın	-10.6169
▁Tiflisdə	-10.6172
▁Qısa	-10.6174
▁ayrıldı	-10.6177
▁Krallığı	-10.6178
▁Hündürlüyü	-10.6178
▁yarımfinal	-10.6178
▁Toponim	-10.6179
▁şəkli	-10.6179
▁şahmat	-10.618
▁xaqan	-10.6181
▁istifadəçi	-10.6182
▁məşq	-10.6182
▁sənətinin	-10.6183
▁istismar	-10.6183
▁Sent	-10.6188
▁ailənin	-10.6192
▁döyüşündə	-10.6193
▁əlaqəli	-10.6194
tum	-10.6196
▁təzyiqi	-10.6196
öyü	-10.6196
▁birləşir	-10.6196
Ka	-10.6198
up	-10.62
tonun	-10.62
▁köməkçi	-10.62
▁xəstəliklərin	-10.6204
▁aylıq	-10.6204
▁sisteminə	-10.6206
▁amil	-10.6207
▁1912-	-10.6207
gar	-10.6207
▁Məryəm	-10.6209
lamağa	-10.6211
▁molekul	-10.6213
▁dəyərli	-10.6215
▁ap	-10.6216
▁rok	-10.622
▁keçirilib	-10.6221
▁filiz	-10.6221
▁ip	-10.6222
▁tərəvəz	-10.6224
▁deyirdi	-10.6228
▁rejim	-10.6229
▁yumşaq	-10.6229
▁Adətən	-10.6229
▁1916-	-10.6229
▁Sahəsi	-10.6229
▁gözləri	-10.6233
▁bəzə	-10.6233
▁abidələr	-10.6235
▁sözlərinə	-10.6237
▁van	-10.6238
▁olmayaraq	-10.624
▁ing	-10.624
▁otel	-10.6241
▁Assosiasiyası	-10.6242
▁tayfası	-10.6247
▁Zey	-10.6248
mizə	-10.6248
tanın	-10.6249
▁sifariş	-10.6249
ose	-10.6252
▁uğr	-10.6253
▁Rusiyaya	-10.6256
ço	-10.6259
ua	-10.6259
▁1935-	-10.6261
▁elementlər	-10.6262
▁mədən	-10.6268
▁rəqabət	-10.627
▁Fre	-10.627
▁qıl	-10.6272
sional	-10.6272
▁toplusu	-10.6274
▁ixtira	-10.6274
cəyini	-10.6275
▁zal	-10.6275
▁çöküntüləri	-10.6277
▁Р	-10.6279
▁kod	-10.628
▁yüzil	-10.6281
lıqları	-10.6285
▁Liqa	-10.6286
▁yaranmasına	-10.6287
kay	-10.6293
lus	-10.6297
▁siyasətçi	-10.6299
▁Cü	-10.6299
▁Georgi	-10.6301
▁Göyçay	-10.6302
ovka	-10.6306
▁lisenziya	-10.6311
▁Əzim	-10.6312
▁Kolumbiya	-10.6314
▁nömrəsi	-10.6317
▁Əfəndiyev	-10.6319
▁Pas	-10.632
▁1998	-10.632
▁çempion	-10.6321
▁azadlığı	-10.6322
▁dekabrında	-10.6324
▁tikdir	-10.6325
▁salınmışdır	-10.6327
ох	-10.6328
şun	-10.6328
▁Star	-10.6329
▁mənbələrində	-10.6331
▁Təhlükəsizlik	-10.6332
▁ostanında	-10.6332
üyü	-10.6333
▁oğlunun	-10.6333
▁hadisəsi	-10.6335
ruz	-10.6336
▁izahlı	-10.6337
AM	-10.6341
▁qalması	-10.6343
▁əsaslanan	-10.6343
▁yaranma	-10.6344
▁Mus	-10.6345
▁zonasında	-10.6346
▁test	-10.6347
▁Marağa	-10.6348
▁Yazıçı	-10.6348
▁Ümumdüny	-10.6349
▁ölkəni	-10.635
▁Azadlıq	-10.6355
▁dan	-10.6357
▁Londonda	-10.636
▁Konstitusiya	-10.6361
ləşdirici	-10.6362
▁66	-10.6371
▁praktik	-10.6373
▁bitirmiş	-10.6374
▁п	-10.6374
▁Qarabağın	-10.6377
▁axın	-10.6377
arx	-10.6378
▁səciyyə	-10.638
ses	-10.6384
▁banisi	-10.6384
▁otaq	-10.6385
▁aləm	-10.6387
▁çalışırdı	-10.6391
▁xalqları	-10.6393
▁süxur	-10.6393
rm	-10.6395
▁pir	-10.6397
▁proseslərin	-10.64
▁prinsip	-10.64
▁Oyunlarının	-10.6402
▁Bağırov	-10.6402
▁geyin	-10.6402
▁Şəm	-10.6403
morf	-10.6404
▁İngiltərədə	-10.641
▁kateqoriya	-10.641
▁qayıdan	-10.6413
▁çəkilməsi	-10.6418
▁Qeyri	-10.6426
▁valideynləri	-10.6427
ena	-10.6427
ümü	-10.643
▁Turizm	-10.6433
▁Aktyor	-10.6436
▁psixologiya	-10.6436
▁dekorativ	-10.6436
▁birlik	-10.6439
▁yazılan	-10.6442
gir	-10.6442
▁qrupları	-10.6444
▁İskəndər	-10.6446
▁yetkin	-10.6446
▁səlahiyyətli	-10.6447
tologiya	-10.6449
▁68	-10.6449
▁Əvvəllər	-10.645
-20	-10.645
▁Anası	-10.646
▁1928-	-10.6466
▁dərinlik	-10.6466
▁Məşhur	-10.6468
▁sp	-10.6468
▁Balkan	-10.6471
▁vaxtdan	-10.6473
▁99	-10.6474
▁Çili	-10.6476
▁İri	-10.6476
▁Davud	-10.648
▁payız	-10.6482
▁ənənələri	-10.6483
▁mərkəzidir	-10.6485
▁Çiçək	-10.6486
▁iyirmi	-10.6488
ımı	-10.6489
▁sentyabrında	-10.649
▁nisbəti	-10.6492
▁Çinin	-10.6493
▁xadim	-10.6494
▁illəri	-10.6494
▁qiyam	-10.6495
▁filialı	-10.6499
▁igid	-10.6499
ön	-10.65
▁80-	-10.6501
▁qazanmış	-10.6503
▁festival	-10.6504
▁ال	-10.6504
▁tən	-10.6507
▁Əliyeva	-10.6511
▁Ölkədə	-10.6514
▁kateqoriyası	-10.6515
▁Viktor	-10.6517
▁Qadınlar	-10.6517
▁zərb	-10.6518
▁1897-	-10.652
▁adasından	-10.6522
▁İdarəsinin	-10.6525
▁psixoloji	-10.6527
▁yazılar	-10.6528
▁yeməyi	-10.6533
▁tədqiqatları	-10.6536
zim	-10.6536
▁Qəhrəman	-10.6538
▁Ermənistanın	-10.6541
▁bacarığı	-10.6541
▁kəmiyyət	-10.6541
tre	-10.6543
▁j	-10.6543
▁əsərinin	-10.6544
▁gətirdiyi	-10.6548
▁Binanın	-10.655
▁eli	-10.6552
▁1995	-10.6553
çıların	-10.6556
▁aşı	-10.6557
▁ünvan	-10.6561
▁partiyası	-10.6564
▁Əvvəlcə	-10.6564
▁Met	-10.6566
▁Teatrı	-10.6571
▁eks	-10.6573
klin	-10.6575
▁ətraflı	-10.6577
əsində	-10.6577
▁dən	-10.658
▁ter	-10.6581
▁hazırlamaq	-10.6581
▁müntəzəm	-10.6583
▁ulu	-10.6585
▁mey	-10.659
▁130	-10.6593
▁Sergey	-10.6595
▁verirlər	-10.6596
▁И	-10.6601
▁fənn	-10.6601
izmi	-10.6603
▁həyatın	-10.6603
▁macəra	-10.6604
▁xeyir	-10.6604
▁İnter	-10.6606
▁keçirmişdir	-10.6607
mini	-10.6611
luğun	-10.6612
▁qoymuşdur	-10.6615
▁pol	-10.6616
qr	-10.6617
▁sanki	-10.662
▁qablar	-10.6625
▁Vaşinqton	-10.6626
▁qurşaq	-10.6626
▁140	-10.6628
▁ölkəsi	-10.6628
▁Sərəncamı	-10.663
Əliyev	-10.6636
▁görünən	-10.6637
▁ictimaiyyət	-10.664
ford	-10.664
▁axan	-10.6641
,	-10.6643
▁kilsənin	-10.6644
▁sözün	-10.6645
▁Kamil	-10.6646
▁kolxoz	-10.6647
▁sına	-10.6651
riz	-10.6653
▁görünüşü	-10.6653
▁razılaşma	-10.6653
▁komiks	-10.6659
aç	-10.666
▁həlledici	-10.666
▁işlənib	-10.6661
▁Mah	-10.6661
ulmuş	-10.6664
▁Məclisi	-10.6665
▁Səfər	-10.6665
kür	-10.6667
▁zadəgan	-10.6668
▁Cey	-10.667
▁örtük	-10.667
▁ipək	-10.667
▁super	-10.6676
▁Şirkət	-10.6679
▁Konstantin	-10.6679
▁İtalyan	-10.6679
cəyi	-10.6682
▁Qarabağda	-10.6682
▁uzanan	-10.6685
▁yanvarında	-10.6687
vət	-10.6689
.3.1938	-10.669
▁Dörd	-10.6691
tif	-10.6692
▁özləri	-10.6693
▁bö	-10.6697
▁Sür	-10.6697
▁adlandırır	-10.6699
▁müvəffəqiyyət	-10.6701
▁Ukraynanın	-10.6704
hüseyn	-10.6706
▁vaxtilə	-10.6706
▁fikirləri	-10.6709
▁əlyazma	-10.671
▁yetiş	-10.6711
▁azalır	-10.6711
ли	-10.6715
▁Məscid	-10.6719
▁ətrafındakı	-10.6721
▁67	-10.6723
▁kömür	-10.6723
▁xidmətdə	-10.6724
▁Em	-10.6724
▁bay	-10.6724
▁turşu	-10.6724
▁Latın	-10.6728
▁imkanları	-10.673
▁xəstəliklər	-10.673
çan	-10.6737
logiya	-10.6741
mud	-10.6742
▁aparmış	-10.6742
▁qızları	-10.6743
▁landşaft	-10.6743
▁İnternet	-10.6744
hem	-10.6745
▁oktyabrında	-10.6749
▁bəyan	-10.6752
▁işlərini	-10.6752
▁Qüvvələrinin	-10.6752
▁zülal	-10.6754
▁çe	-10.6755
▁Т	-10.6756
▁yarpaq	-10.6756
▁ilahi	-10.6758
он	-10.6759
ydi	-10.6765
▁partlayış	-10.6765
▁sevimli	-10.6765
illi	-10.6767
▁zülm	-10.6767
fir	-10.6769
▁Tələbə	-10.677
ologiyası	-10.6772
▁diplomat	-10.6774
▁üslubunda	-10.6775
▁kasıb	-10.6776
▁keyfiyyəti	-10.6779
▁mənasındadır	-10.6781
▁Xo	-10.6782
▁mübarizəsi	-10.6784
▁Super	-10.6785
▁göllər	-10.6786
mid	-10.6789
▁Çer	-10.6789
ль	-10.6789
siyyət	-10.6791
▁sektor	-10.6792
▁marka	-10.6793
▁vətən	-10.6795
rar	-10.6796
▁Qobustan	-10.6798
▁ehtiva	-10.6798
▁Astara	-10.6801
▁mülkiyyət	-10.6803
▁hesabat	-10.6806
▁sel	-10.6807
▁Mərkəzinin	-10.6808
▁Fəlsəfə	-10.6808
▁im	-10.6809
▁şərtləri	-10.6809
▁dastan	-10.681
▁Pal	-10.6811
▁Təbrizi	-10.6812
▁verilmə	-10.6816
▁istedadlı	-10.6816
▁Çexiya	-10.6817
lot	-10.6817
▁yaratmış	-10.6819
▁Filmi	-10.6819
▁hədis	-10.6822
▁vokal	-10.6822
▁post	-10.6823
▁kolleksiya	-10.6823
acağını	-10.6823
▁д	-10.6824
▁qidalanır	-10.6825
▁Riyaziyyat	-10.683
nor	-10.683
▁açılış	-10.6832
ləndirdi	-10.6833
▁məktəblər	-10.6833
▁nailiyyətlər	-10.6834
▁Fil	-10.6834
▁Sc	-10.6837
▁fayl	-10.6838
▁komponent	-10.6838
▁portret	-10.6839
▁məni	-10.6841
▁qlobal	-10.6841
▁Sev	-10.6844
▁Çempionlar	-10.6845
▁dik	-10.6846
▁vəziyyətə	-10.6847
▁həyatda	-10.6849
▁Dal	-10.6849
▁Od	-10.6851
▁əsnasında	-10.6852
▁gəl	-10.6852
▁transfer	-10.6853
▁aşqar	-10.6853
▁sui	-10.686
▁Mol	-10.6861
▁Təbrizdə	-10.6861
ев	-10.6861
▁nikah	-10.6863
▁nəğmə	-10.6864
des	-10.6864
ч	-10.6869
▁üslubu	-10.6873
▁oksigen	-10.6874
▁Hökuməti	-10.6874
▁hərəkatının	-10.6874
▁Siz	-10.6881
▁Hökumət	-10.6884
▁naməlum	-10.6885
pon	-10.6885
▁itirmiş	-10.6886
▁əraziyə	-10.6886
▁iqtisadiyyatın	-10.6886
çen	-10.6895
▁1908-	-10.6896
▁Th	-10.6903
▁Çan	-10.6903
▁Misirdə	-10.6904
▁26-	-10.6904
rah	-10.6916
▁rolları	-10.6916
ия	-10.6917
rip	-10.6917
▁İnkişaf	-10.6917
▁mexaniki	-10.6918
mür	-10.6919
tiya	-10.6919
▁Albert	-10.692
▁çəkiliş	-10.6922
▁1990	-10.6927
▁Gö	-10.693
vet	-10.6937
▁Cam	-10.6939
▁Napoleon	-10.6939
▁qurur	-10.694
▁1989	-10.694
▁qoyub	-10.6941
▁Bon	-10.6942
▁göndərildi	-10.6943
▁ek	-10.6946
▁aşağıda	-10.6947
▁Abdullah	-10.6949
▁qoruyub	-10.695
▁85	-10.6952
▁göstərə	-10.6952
quş	-10.6952
▁kəndli	-10.6953
▁tədbirləri	-10.6957
▁sen	-10.696
▁yerin	-10.6961
▁orqanizm	-10.6961
▁fit	-10.6962
▁1994	-10.6962
▁İngiltərənin	-10.6963
▁əyaləti	-10.6963
▁qonur	-10.6963
▁əfsanə	-10.6969
▁maşını	-10.6972
▁Sonuncu	-10.6972
▁tektonik	-10.6973
ləyib	-10.6974
▁proqramlar	-10.6974
▁nar	-10.6975
▁məcburi	-10.6976
▁Xor	-10.6979
▁təhlükəsi	-10.698
▁oğul	-10.6982
zm	-10.6983
▁körpə	-10.6983
▁daşları	-10.6984
lədi	-10.6984
▁sor	-10.6986
▁məlumatları	-10.6986
▁gizlən	-10.6988
ləşdiril	-10.6991
▁Ok	-10.6992
▁satış	-10.6994
▁strateji	-10.6994
▁2.	-10.6995
▁Yas	-10.6995
bağ	-10.6995
oniya	-10.6996
▁Opera	-10.6999
rib	-10.7002
▁xarakterli	-10.7004
▁edil	-10.7004
isti	-10.7007
▁anda	-10.7014
▁dərəcəsində	-10.7015
nız	-10.702
ləndirilmiş	-10.7022
▁çevrilməsi	-10.7023
▁Ağsu	-10.7024
qram	-10.7026
▁2-3	-10.7027
▁Paul	-10.7027
▁etibarilə	-10.7028
▁səfəri	-10.7031
▁imperiya	-10.7031
ona	-10.7033
▁Sadıq	-10.7033
▁part	-10.7035
▁Mars	-10.7038
▁71	-10.7038
▁mağaza	-10.7039
▁komitəsinin	-10.7042
kut	-10.7042
ES	-10.7043
luğunu	-10.7046
▁müsabiqədə	-10.7048
▁Estoniya	-10.705
▁xərcləri	-10.705
▁komandanın	-10.7051
▁21-	-10.7053
tul	-10.7053
▁günah	-10.7054
▁Oyunları	-10.7054
▁quraq	-10.7055
▁əlamətləri	-10.7058
▁çök	-10.7059
▁əzab	-10.706
▁sadiq	-10.7061
▁Yarımada	-10.7062
▁zavod	-10.7068
▁problemlərin	-10.7069
▁salınmış	-10.7069
▁binalar	-10.7071
▁Monqolustan	-10.7072
masından	-10.7073
▁memarlığı	-10.7076
sent	-10.7078
▁acı	-10.7079
▁olunmasına	-10.7083
▁dənizin	-10.7083
▁1906-	-10.7083
mey	-10.7087
▁təşkilatlar	-10.709
▁kəsilmə	-10.7092
▁evinə	-10.7092
▁Azərbaycanfilm	-10.7092
▁şairin	-10.7094
▁Müstəqil	-10.7094
▁Bosniya	-10.7094
▁xanımı	-10.7095
▁köçüb	-10.7095
ux	-10.7098
▁dağlarının	-10.7099
▁rü	-10.71
▁xana	-10.7101
ere	-10.7101
▁Çoban	-10.7107
▁metrə	-10.7112
▁iştirakçıları	-10.7112
▁islahatlar	-10.7112
ullah	-10.7114
▁Bədən	-10.7114
▁sürən	-10.7114
▁boğaz	-10.7115
▁Plan	-10.7116
▁tropik	-10.7117
▁Açıq	-10.7117
▁səsvermə	-10.7118
pu	-10.7119
▁bəxş	-10.7121
▁Adam	-10.7122
ec	-10.7122
yuk	-10.7125
vis	-10.7125
boyu	-10.7126
▁Naxçıvanda	-10.7126
س	-10.7128
▁Kompleks	-10.7128
Şa	-10.7128
▁1500	-10.7129
▁qraf	-10.713
▁Kay	-10.7133
ск	-10.7139
▁tutumu	-10.7139
aniya	-10.7142
▁dövlətlərin	-10.7143
kil	-10.7146
▁tələbələri	-10.7147
▁Ümumrus	-10.7151
▁Ərazisi	-10.7151
sün	-10.7154
şen	-10.7155
▁müdaxilə	-10.7157
tit	-10.7158
▁Ray	-10.7158
▁istəmə	-10.716
▁lit	-10.7161
▁Maarif	-10.7161
▁duyğu	-10.7162
▁Nazim	-10.7166
hər	-10.7169
sonun	-10.717
▁П	-10.7171
ümüz	-10.7174
ар	-10.7174
▁hansısa	-10.7176
siy	-10.7178
▁döndü	-10.7179
▁qütb	-10.7179
▁parkı	-10.7182
kel	-10.7184
▁Lui	-10.7184
▁1910-	-10.7184
▁torpağı	-10.7186
▁ənənə	-10.7186
▁çökmə	-10.7187
ом	-10.7188
▁sair	-10.7191
▁Sənət	-10.7193
pl	-10.7194
▁Üstəli	-10.7195
▁Mikayıl	-10.7195
▁Hindistanın	-10.7195
▁zəncir	-10.7197
▁yerlər	-10.72
zal	-10.7202
▁poeması	-10.7203
▁bü	-10.7203
▁vəzifələri	-10.7205
▁qarışığı	-10.7207
▁müsəlmanlar	-10.7211
▁hala	-10.7213
ex	-10.7213
▁süxurlar	-10.7215
▁körpüsü	-10.7217
▁Boğaz	-10.7218
▁qoyul	-10.7218
▁personajı	-10.7218
▁ailədə	-10.722
öl	-10.7221
▁Qe	-10.7223
▁gölün	-10.7224
▁You	-10.7225
▁götürül	-10.7225
▁Bö	-10.7226
▁Ölüm	-10.7226
▁Adada	-10.7226
texniki	-10.7227
lının	-10.7228
▁tuturdu	-10.7232
ensis	-10.7233
▁asanlıqla	-10.7234
▁qənaət	-10.724
dinin	-10.7242
но	-10.7243
▁700	-10.7243
▁mükafatını	-10.7244
rgi	-10.7251
▁qəzəb	-10.7252
eziya	-10.7252
▁saldı	-10.7252
▁qabaqcıl	-10.7253
yana	-10.7255
▁hazırladığı	-10.7258
▁yollar	-10.726
▁İyun	-10.7261
▁etdirilməsi	-10.7263
▁Ayı	-10.7263
tab	-10.7266
▁xatırladır	-10.7266
▁təmsilçisi	-10.7269
▁qalanın	-10.7269
▁ib	-10.7273
evski	-10.7274
▁nəşri	-10.7275
rix	-10.7275
▁qabıq	-10.7277
▁port	-10.7277
çik	-10.7278
▁1927-	-10.7278
▁apardı	-10.7279
▁təsirini	-10.728
osfer	-10.728
▁ayrılan	-10.7281
▁2,5	-10.7281
▁dəqiqədə	-10.7282
▁nda	-10.7282
▁çıxışı	-10.7282
ektor	-10.7285
hra	-10.7285
▁klinik	-10.7286
▁ekspedisiya	-10.7287
▁г	-10.7288
▁yolunu	-10.7288
▁Kazan	-10.7289
▁Gör	-10.7289
▁komitə	-10.729
mas	-10.729
kovski	-10.7293
▁institutun	-10.7293
▁Nikol	-10.7297
▁töhfə	-10.7297
oks	-10.7298
▁61	-10.7298
fat	-10.7299
▁aparılmışdır	-10.73
-6	-10.73
▁arx	-10.7301
▁Bab	-10.7302
ğlu	-10.7303
▁torpaqların	-10.7307
▁etdirilir	-10.7309
▁Gen	-10.7309
▁görüntü	-10.7309
▁yadda	-10.7312
▁namaz	-10.7314
▁59	-10.7316
▁sənədlər	-10.7316
▁edilməsini	-10.7318
▁dillərini	-10.732
▁çəkilib	-10.7323
▁Qusar	-10.7323
▁qarşıdurma	-10.7323
▁sülalə	-10.7324
▁Yaz	-10.7327
▁Qaradağ	-10.7327
▁qohum	-10.7329
▁1915-	-10.7331
▁xüsusiyyətlər	-10.7333
▁rəmzi	-10.7335
▁illiyi	-10.7338
▁aspirantura	-10.7341
ю	-10.7343
▁istədiyi	-10.7344
▁Ek	-10.7345
uma	-10.7346
▁kökü	-10.7348
▁quşlar	-10.7353
▁həvəs	-10.7355
▁uzaqlaş	-10.7356
▁böyükdür	-10.7358
▁xaricdə	-10.7358
▁üzərindən	-10.7358
▁на	-10.7359
lüyün	-10.7359
▁zi	-10.7359
mes	-10.7359
▁bədəni	-10.7361
▁folklor	-10.7362
ds	-10.7363
▁balaca	-10.7364
▁Qərar	-10.7367
▁Lan	-10.7368
ləşərək	-10.7369
▁alov	-10.7373
▁turist	-10.7377
▁avqustunda	-10.7379
▁getmə	-10.738
▁Müharibəsi	-10.7383
oqrafik	-10.7385
ği	-10.7389
yak	-10.7389
▁Həkim	-10.739
▁göndərilir	-10.739
ləşdirdi	-10.7392
70-	-10.7393
▁Camal	-10.7393
▁təriqət	-10.7393
▁qadının	-10.7393
▁yürüşü	-10.7398
▁Təşkilat	-10.7399
▁1997	-10.7399
▁hazırlığı	-10.7399
▁Alı	-10.74
fət	-10.74
▁ideyası	-10.7402
▁Qax	-10.7403
yaşıl	-10.7404
▁üsyançılar	-10.7407
▁zamanında	-10.7407
▁Oykonim	-10.7412
▁məhlul	-10.7413
▁Okean	-10.7413
▁76	-10.7416
▁Xüsusilə	-10.7417
▁ehtiyacı	-10.7418
▁mifologiyasında	-10.742
xanov	-10.742
▁gətirmə	-10.7421
▁şəhərlərdə	-10.7424
▁yaşayıb	-10.7424
▁tatar	-10.7424
vay	-10.7425
qe	-10.7425
öy	-10.7426
türk	-10.7427
▁mühərrik	-10.7431
▁açılması	-10.7432
им	-10.7433
▁razılıq	-10.7434
▁Yar	-10.7435
▁elementi	-10.7436
▁sayının	-10.7436
▁sintezi	-10.7437
▁cənuba	-10.7441
▁Heyətini	-10.7443
▁öyrən	-10.7447
▁tapşır	-10.7448
▁keçmək	-10.7449
▁qırğın	-10.7451
▁ilan	-10.7455
▁ölkələrinin	-10.746
▁insanı	-10.7461
▁ziddiyyət	-10.7462
▁yoxsul	-10.7464
▁olduqdan	-10.7464
▁mübarizəyə	-10.7464
▁1970	-10.7467
▁Şura	-10.7469
şad	-10.7469
▁kitabxanası	-10.7469
rac	-10.747
▁per	-10.7471
▁Frank	-10.7472
▁Beş	-10.7474
▁əmin	-10.7476
liyindən	-10.7476
▁ərazilərin	-10.7477
▁SB	-10.7478
▁konsul	-10.7481
▁basketbol	-10.7481
▁konstitusiya	-10.7481
ürdü	-10.7481
▁Ul	-10.7483
laya	-10.7484
▁komandanlığı	-10.7484
polit	-10.7486
▁Volqa	-10.7488
▁ordunun	-10.749
▁döyüşə	-10.7491
▁sahibkar	-10.7491
▁zidd	-10.7492
▁Məkkə	-10.7492
▁Qəzet	-10.7493
ther	-10.7498
▁düşmüşdür	-10.7504
lənmişdi	-10.7504
▁qorunub	-10.7504
abi	-10.7506
▁əti	-10.7507
▁Rzayev	-10.7507
▁çəkil	-10.7508
▁bildirən	-10.7513
▁ölkəyə	-10.7514
▁bilin	-10.7516
▁etməkdə	-10.7518
▁göndərdiyi	-10.7521
▁Rayonun	-10.7522
▁fərqi	-10.7523
▁siyahıyaalınma	-10.7528
arlar	-10.7533
▁risk	-10.7533
lənərək	-10.7534
▁ədəbiyyatında	-10.7535
▁işlənən	-10.7535
▁tərkibindədir	-10.7538
▁Antarktida	-10.7539
▁məxsusdur	-10.7541
▁yavaş	-10.7544
▁ölkəsində	-10.7548
▁martında	-10.755
imizin	-10.755
▁Andre	-10.7554
▁ion	-10.7556
▁qrafik	-10.7556
▁muxtar	-10.7559
▁topası	-10.7562
▁yüzlərlə	-10.7562
▁mənimsə	-10.7563
verdi	-10.7568
tdi	-10.7569
▁id	-10.757
▁sistemin	-10.7572
▁maksimal	-10.7574
tən	-10.7576
▁fevralında	-10.7577
30-	-10.7578
çinin	-10.758
ele	-10.758
▁mübarizədə	-10.7581
▁tarixini	-10.7582
karlıq	-10.7585
▁üzündən	-10.7586
▁əyləncə	-10.7586
▁nun	-10.7586
▁ştatında	-10.7588
ağın	-10.7588
▁gəlirlər	-10.7593
▁Xaçmaz	-10.7593
▁Sab	-10.7593
▁blok	-10.7596
▁Ch	-10.7596
▁pedaqoq	-10.7597
▁Yarış	-10.7604
bek	-10.7604
hət	-10.7608
▁Cek	-10.7609
▁zəbt	-10.7609
▁parazit	-10.761
▁Cha	-10.7611
▁keçdiyi	-10.7615
▁biləcəyi	-10.7615
▁çempionatında	-10.7618
▁gücünü	-10.762
▁başçıları	-10.7622
▁köçəri	-10.7622
▁qoru	-10.7623
▁düzəldi	-10.7626
verici	-10.7627
▁yarışı	-10.7628
▁atı	-10.7628
▁qalmışdı	-10.7631
▁dərəsi	-10.7632
▁əski	-10.7633
▁suvarma	-10.7633
▁külək	-10.7634
▁qaranlıq	-10.7634
▁yarımada	-10.7635
▁axı	-10.7637
laşıb	-10.7638
▁yerləşməsi	-10.7638
OS	-10.7639
sunda	-10.7639
▁tr	-10.7643
▁çətinliklər	-10.7643
▁Şəhərdə	-10.7643
▁olmasıdır	-10.7646
▁Bunların	-10.7647
balı	-10.7649
▁Pre	-10.7651
▁əsərdə	-10.7652
▁Qriqori	-10.7655
▁qaçqın	-10.7656
▁götürüb	-10.7657
▁birləşmələr	-10.7657
▁örtülmüşdür	-10.7658
▁yazısı	-10.7662
▁qızlar	-10.7663
▁aktrisası	-10.7665
▁əxlaq	-10.7666
▁Məmmədova	-10.7667
▁Bölgə	-10.7668
▁oksid	-10.7668
▁Teatrının	-10.7671
▁Day	-10.7676
▁110	-10.7676
fri	-10.7676
kra	-10.7677
ide	-10.7678
▁Rum	-10.7678
▁İyul	-10.768
biya	-10.7681
mədən	-10.7683
▁sevir	-10.7683
▁yetirmə	-10.7683
▁çalışma	-10.7684
▁Boris	-10.7685
▁səfir	-10.7685
▁indiyə	-10.7686
▁Naziri	-10.7687
▁görmüşdür	-10.7688
laşdırılmışdır	-10.7689
ilib	-10.7691
▁Qaraqoyunlu	-10.7692
▁valyuta	-10.7692
▁Bər	-10.7692
dem	-10.7692
▁döyüşlər	-10.7693
▁birləşmiş	-10.7693
▁Yel	-10.7694
▁çıxmaq	-10.7694
▁not	-10.7694
▁Tağıyev	-10.7698
▁tədqiqatların	-10.7699
▁mədəniyyətin	-10.77
▁zövq	-10.7704
60-	-10.7704
▁Us	-10.7706
atur	-10.7709
▁dairəsində	-10.771
▁qəhvəyi	-10.7714
87-	-10.7716
abı	-10.7716
▁həyatına	-10.7717
▁Qazan	-10.7717
▁mindən	-10.7725
muz	-10.7726
▁Cəlal	-10.7727
kos	-10.7727
▁cəsarət	-10.7727
rl	-10.7728
yıl	-10.7729
▁oba	-10.7731
▁ortaq	-10.7733
50-	-10.7733
▁deyib	-10.7734
▁məzmunu	-10.7735
▁oxuyur	-10.7736
▁İtaliyada	-10.7737
▁Ümumilikd	-10.7738
▁aktual	-10.7739
▁Liviya	-10.774
▁Midiya	-10.7741
▁açar	-10.7743
▁inkar	-10.7745
hri	-10.7745
▁yarımadasında	-10.7752
▁mayında	-10.7753
▁olmamışdır	-10.7754
▁tələbəsi	-10.7755
▁1980	-10.7756
▁oranı	-10.776
▁aprelində	-10.776
▁çaylar	-10.7763
▁Ticarət	-10.7763
Janeyro	-10.7764
▁pilot	-10.7764
lıqdan	-10.777
▁yarada	-10.7771
▁müharibəsindən	-10.7771
göl	-10.7775
▁maksimum	-10.7775
▁Ədalət	-10.7775
▁vurur	-10.7777
qraf	-10.7779
▁ifaçısı	-10.7782
llah	-10.7783
▁Ermənistanda	-10.7784
▁barış	-10.7786
▁konqres	-10.7787
▁maneə	-10.7789
▁toplanması	-10.7791
▁siqnal	-10.7794
▁faktlar	-10.7795
göz	-10.7796
▁Vyetnam	-10.7799
▁İsmayıllı	-10.7802
▁siyahısında	-10.7804
▁Amerikan	-10.7807
▁İstanbula	-10.7808
▁Şamil	-10.7809
▁Meri	-10.7811
ی	-10.7811
▁xərçəng	-10.7813
nus	-10.7813
▁2018	-10.7816
▁dövlətlər	-10.7819
▁27-	-10.7819
▁partiyasının	-10.7821
log	-10.7822
▁miniatür	-10.7823
▁ərəfəsində	-10.7823
▁alətlər	-10.7824
▁yarandığı	-10.7824
▁virus	-10.7825
▁Üst	-10.7828
▁saxlanıl	-10.7831
üd	-10.7832
çıları	-10.7833
▁əşya	-10.7833
▁Mad	-10.7836
▁azdır	-10.7836
▁fakültəsi	-10.7836
▁Zü	-10.7836
▁nişanı	-10.7837
yini	-10.7838
▁uy	-10.7839
▁Yal	-10.784
▁tikililər	-10.7842
▁işində	-10.7843
▁qazıntı	-10.7843
▁qay	-10.7844
▁avtomat	-10.7845
▁Riçard	-10.7847
ağac	-10.7849
▁səhiyyə	-10.785
▁Hel	-10.7852
▁mərasimində	-10.7853
▁Rəssam	-10.7853
▁pal	-10.7855
▁pozulması	-10.7855
▁boşa	-10.7857
keş	-10.7857
▁nağıl	-10.7857
▁Neftçi	-10.7858
▁yaşlarından	-10.7859
▁teatrın	-10.7862
▁Maliyyə	-10.7862
▁padşah	-10.7862
▁Mun	-10.7863
▁formalaşması	-10.7864
iri	-10.7866
▁funksiyası	-10.7868
▁mahalında	-10.7873
▁sufi	-10.7873
ب	-10.7876
tizm	-10.7882
▁Alim	-10.7882
▁görülür	-10.7883
▁bildirilir	-10.7884
ben	-10.7884
▁Əsl	-10.7885
▁tay	-10.7886
▁hərf	-10.7887
mut	-10.7888
▁Müs	-10.789
▁Bio	-10.789
▁Boy	-10.7894
ənəvi	-10.7896
dent	-10.7897
▁avropa	-10.7897
▁sürfə	-10.7897
27-	-10.7898
tek	-10.7901
▁iclas	-10.7903
▁sədrəzəm	-10.7907
▁müğənnisi	-10.7907
▁Br	-10.7909
qli	-10.791
▁Bazar	-10.7911
▁iştirakçı	-10.7912
▁qaldığı	-10.7912
▁olunaraq	-10.7912
▁divan	-10.7914
▁başlanıl	-10.7914
▁aksiya	-10.7915
▁soyqırımı	-10.7916
▁nu	-10.7919
~	-10.7919
▁qəribə	-10.7919
▁eşq	-10.792
▁platforma	-10.7926
▁Coğrafiya	-10.7927
tmə	-10.7928
▁düzən	-10.7929
▁Lyu	-10.793
▁əlaqələrin	-10.7933
▁məlumatlara	-10.7935
▁dağlar	-10.7935
▁parçası	-10.7936
▁noyabrında	-10.7937
▁xarakterik	-10.7943
▁dahi	-10.7943
▁Ssenari	-10.7944
▁onurğa	-10.7944
▁zamanlarda	-10.7945
▁Г	-10.7947
çiliyi	-10.7947
▁fr	-10.7949
▁öyrənən	-10.795
▁Şan	-10.7951
▁təbiəti	-10.7951
▁Şərif	-10.7953
▁Gecə	-10.7954
▁orqanlarının	-10.7955
▁oynayan	-10.7955
▁Pavel	-10.7958
arktik	-10.796
▁ucu	-10.796
▁təbiətin	-10.7961
▁hidrogen	-10.7961
▁yaşına	-10.7963
▁istərsə	-10.7963
kanın	-10.7966
▁sap	-10.7966
▁vəzifələrdə	-10.7967
▁Bəyazid	-10.7968
▁bataqlıq	-10.7968
▁mərmər	-10.7969
dırlar	-10.7971
▁sırada	-10.7972
▁qərargahı	-10.7972
▁balıqlar	-10.7973
yarpaq	-10.7976
▁ayrılmış	-10.7979
▁gimnaziya	-10.798
▁professional	-10.798
▁kölgə	-10.798
▁lirik	-10.7983
▁çıxarılmışdır	-10.7984
▁dramaturq	-10.7985
▁Vəliyev	-10.7986
▁salmış	-10.7986
▁tabeliyində	-10.7988
▁binada	-10.7988
oka	-10.7993
▁Gürcüstanda	-10.7993
из	-10.7993
▁şimaldan	-10.7997
Mü	-10.7999
▁ora	-10.8
▁həqiqətən	-10.8003
▁Səlcuq	-10.8004
▁ortasında	-10.8004
ple	-10.8004
▁vəzifədə	-10.8006
▁tunc	-10.8006
▁Milan	-10.8007
▁Sağ	-10.801
▁məqalənin	-10.8011
▁23-	-10.8012
▁Gər	-10.8013
▁Sun	-10.8013
▁mövsümü	-10.8017
▁təşkilatları	-10.8018
▁kub	-10.8019
▁ordusunda	-10.802
▁Kre	-10.8024
▁Qre	-10.8024
▁Gəmi	-10.8025
▁növbə	-10.8025
▁torpağa	-10.8029
▁Sülh	-10.8029
▁matç	-10.8031
▁evə	-10.8032
▁başladığı	-10.8033
▁fikrini	-10.8034
▁Mik	-10.8034
▁prosesləri	-10.8036
▁tərəfinə	-10.8036
vor	-10.8037
▁İnqilab	-10.8042
▁adıyla	-10.8043
dım	-10.8047
▁əlindən	-10.8048
ig	-10.8053
ак	-10.8055
▁evləndi	-10.8056
▁hakimiyyətini	-10.8056
qra	-10.8056
yacaq	-10.8058
vid	-10.8058
▁diviziya	-10.8059
▁22-	-10.806
zel	-10.8061
▁səviyyə	-10.8062
▁AS	-10.8063
▁çalışdı	-10.8064
pir	-10.8066
▁95	-10.8067
▁finalda	-10.8067
▁keyfiyyətli	-10.8067
ləndirici	-10.8072
viz	-10.8073
▁dilə	-10.8079
▁hü	-10.8079
▁Müəllimlər	-10.8084
▁açılan	-10.8086
▁Ex	-10.8087
▁ayları	-10.8088
▁yarışları	-10.8091
▁alimlik	-10.8093
arası	-10.8096
sep	-10.8098
lməsi	-10.8103
▁Yəhudi	-10.8103
▁bənzəyir	-10.8103
▁Şar	-10.8107
▁vəzi	-10.8108
▁daşıyırdı	-10.8109
enko	-10.8111
▁ayağı	-10.8113
▁Məlum	-10.8113
▁kursu	-10.8114
▁Ço	-10.8114
▁çörək	-10.8115
▁etibarlı	-10.8115
▁gedərək	-10.8116
▁müharibənin	-10.8117
▁rif	-10.8117
▁sahəsinə	-10.8118
▁Lvov	-10.8119
▁Müh	-10.8121
▁bac	-10.8121
▁sırasına	-10.8122
▁norma	-10.8122
▁çatma	-10.8123
lararası	-10.8124
▁73	-10.8124
▁yerləşmiş	-10.8125
▁İnstitutuna	-10.8127
▁metro	-10.8128
▁həvəskar	-10.813
▁mahal	-10.8131
▁xəyal	-10.8131
▁bunlardan	-10.8132
▁mərkəzinə	-10.8133
rud	-10.8133
xal	-10.8133
▁nü	-10.8137
▁qulluqçu	-10.8138
▁aralıda	-10.8141
üzü	-10.8142
▁göstərməyə	-10.8143
ləşdirilir	-10.8147
▁cədvəl	-10.815
▁sı	-10.8153
▁sonda	-10.8156
▁stadionu	-10.8156
▁sxem	-10.8157
umun	-10.8157
▁İrana	-10.816
▁mühafizəsi	-10.816
▁fır	-10.8162
end	-10.8162
▁qanlı	-10.8163
▁Hun	-10.8163
▁qızdır	-10.8164
▁darmadağın	-10.8165
▁Tikinti	-10.8165
▁qiymətlər	-10.8166
▁şer	-10.8168
▁Ele	-10.8169
pel	-10.817
▁qulluq	-10.8172
lərindəndir	-10.8173
▁xammal	-10.8176
▁məskən	-10.8179
mırdı	-10.8182
▁Şıx	-10.8182
zır	-10.8183
▁effektiv	-10.8183
▁qatar	-10.8184
▁görünüş	-10.8184
ла	-10.8186
▁ehtiyatı	-10.8187
▁sığın	-10.8188
▁vəziyyətini	-10.8189
▁Zakir	-10.819
▁ünvanı	-10.8191
▁obraz	-10.8192
▁klubun	-10.8193
▁yaşamaq	-10.8193
▁düşün	-10.8198
▁kilsəsinin	-10.8199
▁Gözəl	-10.82
▁Tro	-10.8201
▁Mina	-10.8202
▁əməkdaşı	-10.8204
▁şeiri	-10.8204
vit	-10.8207
▁74	-10.8208
▁gətirildi	-10.8209
▁türkmən	-10.8209
▁olunmağa	-10.8209
▁xalqlar	-10.8214
▁gəlişi	-10.8215
▁maq	-10.8215
▁val	-10.8216
nl	-10.8217
▁göstəriciləri	-10.8218
▁Mani	-10.822
▁ümum	-10.8222
ical	-10.8224
▁deyirlər	-10.8226
▁xassə	-10.8227
▁lazımi	-10.8228
▁əşyalar	-10.8228
kor	-10.8232
▁mətbuatda	-10.8235
▁bağlanmış	-10.8241
▁Əsəd	-10.8241
▁örtülüdür	-10.8242
gahı	-10.8244
▁Mit	-10.8245
qol	-10.8245
▁fəsilə	-10.8248
▁Premyer	-10.8252
▁patent	-10.8252
▁şaxə	-10.8252
▁hit	-10.8255
▁bazarı	-10.8257
▁faizi	-10.8259
▁tökül	-10.8262
▁od	-10.8264
▁etdirdiyi	-10.8264
▁679	-10.8264
▁öldürülməsi	-10.8264
▁And	-10.8267
▁oyununda	-10.8269
▁səbəbiylə	-10.827
▁bilinən	-10.827
▁Yarpaqları	-10.827
▁saxlanılması	-10.8272
▁xaricində	-10.8272
▁sayına	-10.8273
▁qazandığı	-10.8273
▁Səudiyyə	-10.8277
▁janrında	-10.8277
qət	-10.8279
qul	-10.8283
lif	-10.8284
▁Məclisin	-10.8286
▁artırmaq	-10.8287
idae	-10.8292
▁avro	-10.8295
▁İqtisad	-10.8297
▁yaşlarında	-10.8298
▁suya	-10.8298
▁Akademiya	-10.8299
▁Ph	-10.8302
▁buxar	-10.8304
▁sizin	-10.8305
ləyərək	-10.8306
▁funksiyaları	-10.8309
▁ac	-10.8312
▁məntəqə	-10.8313
▁Həzrət	-10.8315
▁qısametrajl	-10.8315
▁əcnəbi	-10.8315
▁Qəzvin	-10.8315
▁Qorqud	-10.8315
abənzər	-10.8315
▁yaranıb	-10.8315
▁alimlərin	-10.8315
▁höküməti	-10.8316
▁başlanğıcı	-10.8318
▁artım	-10.8318
əhməd	-10.832
▁öldü	-10.8321
▁vilayətinə	-10.8323
▁adla	-10.8323
lad	-10.8326
▁qanad	-10.8327
▁Mingəçevir	-10.8327
▁1913-	-10.8327
▁salınması	-10.8328
▁dağının	-10.8328
▁buğda	-10.8329
▁kəndə	-10.833
▁ailələr	-10.8332
▁Həbib	-10.8334
▁qolları	-10.8336
▁sonsuz	-10.8336
▁quruluşunu	-10.8338
▁Klub	-10.8339
AS	-10.834
▁ödəniş	-10.834
iyaya	-10.834
ju	-10.8344
▁Devid	-10.8348
▁papa	-10.8349
ко	-10.8349
▁yaşan	-10.835
▁budaq	-10.8352
▁Məsafə	-10.8353
▁vəzir	-10.8353
ləməyə	-10.8353
far	-10.8359
▁edilməyə	-10.8362
▁yaratmağ	-10.8363
ат	-10.8365
▁deportasiya	-10.8365
▁doldur	-10.8369
▁yayılma	-10.8371
▁qələbəsi	-10.8373
emi	-10.8374
dey	-10.8377
▁dərəcəsini	-10.8377
▁Bəstəkar	-10.8378
zol	-10.8378
▁ayrılması	-10.8379
▁böhran	-10.8381
▁Mehr	-10.8382
tos	-10.8383
▁saytı	-10.8384
▁dəyişdi	-10.8386
▁pr	-10.8388
▁əsərlərindən	-10.839
▁tapma	-10.8392
mental	-10.8395
▁Salam	-10.8396
▁çökəkliyi	-10.8397
С	-10.8398
AT	-10.8402
▁Nizam	-10.8402
▁yana	-10.8402
▁möcüzə	-10.8403
▁ödəmə	-10.8412
35-	-10.8412
▁24-	-10.8412
▁Filippin	-10.8414
▁69	-10.8415
▁fəlakət	-10.8416
▁palçıq	-10.8416
▁Politexnik	-10.8416
▁ehtimalı	-10.8417
▁Metal	-10.8418
▁yerdən	-10.8419
▁çətinlik	-10.842
fen	-10.842
▁danışırlar	-10.8426
▁ritm	-10.8427
▁itirdi	-10.8428
▁qoyulan	-10.8428
▁xar	-10.8428
▁maddəsi	-10.8428
▁Yuli	-10.8429
▁oxuduğu	-10.8432
ıldığı	-10.8434
şaq	-10.8436
▁rəhbərləri	-10.8437
▁Ələsgər	-10.8437
pre	-10.8438
▁sağlam	-10.844
▁nəslin	-10.844
▁yazdı	-10.8442
▁yaradıl	-10.8445
▁universitetdə	-10.8446
▁Yara	-10.8448
▁albomun	-10.8448
▁Xoy	-10.8448
qov	-10.8448
▁tac	-10.845
▁qaydada	-10.8454
▁1886-	-10.8454
▁metodu	-10.8456
▁mərtəbəli	-10.8456
▁fəza	-10.846
ləndirmiş	-10.846
▁vali	-10.8462
▁des	-10.8463
▁sistemini	-10.8464
▁təşəbbüs	-10.8465
oya	-10.8466
▁Latviya	-10.8467
▁World	-10.8467
▁komandir	-10.847
▁yazmaq	-10.847
▁təmas	-10.847
▁Türkiyəyə	-10.8473
▁hərəkətləri	-10.8475
▁kitabda	-10.8477
▁heykəltəraş	-10.8481
▁çıxıntı	-10.8481
itsa	-10.8484
dövlət	-10.8486
▁200-	-10.8488
▁ideyaları	-10.8491
▁ünsiyyət	-10.8493
▁radiasiya	-10.8494
▁zəhər	-10.8498
▁qapalı	-10.8499
▁orqanizmin	-10.85
▁sayt	-10.8501
▁quyu	-10.8503
▁etiraf	-10.8506
▁seqment	-10.8506
▁dövründən	-10.851
▁stil	-10.8514
▁atır	-10.8515
▁Akademiyasında	-10.8515
▁düşüb	-10.852
▁polimer	-10.8521
oko	-10.8523
▁məhsullarının	-10.8523
▁Köç	-10.8528
boy	-10.8531
ty	-10.8531
▁Ətraf	-10.8532
▁Zu	-10.8532
▁kəsilmiş	-10.8533
▁Frans	-10.8533
▁atəşə	-10.8535
yet	-10.8536
qam	-10.8538
▁böyü	-10.8538
▁ləqəbi	-10.8538
▁xəstəlikləri	-10.8541
umlu	-10.8544
▁Məsih	-10.8545
rup	-10.8546
ре	-10.8547
▁77	-10.8552
▁fond	-10.8553
▁Asiyanın	-10.8553
▁janrı	-10.8555
▁kələ	-10.8556
▁İnstitutunu	-10.8557
▁növlər	-10.8559
▁təzahür	-10.8561
▁obyekt	-10.8561
▁davranış	-10.8563
ле	-10.8564
▁Əlizadə	-10.8564
slav	-10.8564
▁çəkilmə	-10.8565
▁ruhani	-10.8567
rir	-10.8568
▁optik	-10.8568
fan	-10.8568
▁Əyyub	-10.857
▁şura	-10.857
▁müharibəyə	-10.8572
▁vəkil	-10.8573
ciklər	-10.8573
▁atlet	-10.8574
▁şou	-10.8574
▁təs	-10.8574
▁Kitabxana	-10.8577
▁tanrısı	-10.8577
▁torpaqlarda	-10.8581
dilməsi	-10.8581
▁dövlətləri	-10.8581
▁Andrey	-10.8581
▁həcm	-10.8582
sam	-10.8582
▁hakimiyyətdə	-10.8583
▁Makedoniya	-10.8584
▁Altı	-10.8585
▁olmadı	-10.8588
▁hissələr	-10.8591
▁Salman	-10.8591
▁hissəsidir	-10.8592
▁tərcüməsi	-10.8593
▁bənzə	-10.8595
▁perspektiv	-10.8596
▁Masallı	-10.8596
sia	-10.8597
lamışdır	-10.8601
▁titulu	-10.8602
▁Həmədan	-10.8609
▁faktiki	-10.861
▁plastik	-10.861
▁Ramiz	-10.8611
▁özlərinə	-10.8612
▁olarsa	-10.8615
▁başlanmışdır	-10.8615
▁cəzası	-10.8616
▁görüşündə	-10.8619
▁quldur	-10.8619
▁müştəri	-10.8622
▁adlarını	-10.8623
lem	-10.8624
▁bildirib	-10.8626
▁tikilməsi	-10.8627
▁Н	-10.8628
▁mexanizmi	-10.8629
▁serialı	-10.8629
▁havada	-10.8635
▁xəzinə	-10.8636
ydı	-10.8636
▁sifət	-10.8636
▁təcavüz	-10.8637
36-	-10.8637
▁Səb	-10.8637
▁tutduğu	-10.8638
▁meşələr	-10.8639
▁müharibədə	-10.8643
▁Ale	-10.8645
xır	-10.8645
bək	-10.8646
dular	-10.8646
yc	-10.8652
▁genetik	-10.8652
ülmə	-10.8653
los	-10.8653
▁Baku	-10.8653
ota	-10.8655
▁qayğı	-10.8655
▁solo	-10.8656
▁ərəblər	-10.8656
▁rəngdədir	-10.8658
▁Е	-10.8659
▁təhsilin	-10.866
iyət	-10.8662
.00	-10.8662
▁quberniyası	-10.8663
▁ref	-10.8666
▁səciyyəvi	-10.8666
▁meydanında	-10.8667
▁dillər	-10.8668
əhər	-10.8669
▁işləmək	-10.8671
▁şaquli	-10.8674
40-	-10.8676
gül	-10.8679
aliya	-10.868
▁camaatı	-10.8681
▁institutu	-10.8681
▁düşmə	-10.8682
▁Kle	-10.8682
▁variantı	-10.8683
▁rəis	-10.8683
ت	-10.8687
▁Kəngərli	-10.8687
▁zolağı	-10.8687
▁gətirə	-10.8688
▁açdı	-10.8688
▁qurmaq	-10.8691
▁1907-	-10.8696
dikdə	-10.87
▁şikayət	-10.87
▁Rövşən	-10.87
ışı	-10.8708
▁səfirliyi	-10.8709
▁törəmə	-10.8711
▁Səhifələrin	-10.8713
▁institut	-10.8716
mel	-10.8718
▁qalasının	-10.872
▁diviziyası	-10.8721
▁ser	-10.8721
ləndiyi	-10.8721
▁əyalətində	-10.8723
▁razılaş	-10.8724
▁məqalələri	-10.8725
▁artırır	-10.8726
▁Ramazan	-10.8727
ол	-10.8727
▁Praqa	-10.8729
zad	-10.873
▁Is	-10.873
▁tənqidçi	-10.8733
▁av	-10.8733
kət	-10.8733
▁Kab	-10.8734
mizi	-10.8735
▁qülləsi	-10.8735
▁Çayın	-10.8739
rek	-10.8741
bet	-10.8742
▁həddi	-10.8742
ello	-10.8743
▁Gilan	-10.8743
▁qoruğu	-10.8746
▁Səh	-10.8746
müşdü	-10.8747
▁fondu	-10.8748
▁əyri	-10.8748
▁birləşməsindən	-10.8748
maya	-10.8748
▁basdır	-10.8749
ем	-10.8749
▁Əbül	-10.875
▁nəfərin	-10.875
▁təkan	-10.8754
▁konus	-10.8755
niş	-10.8756
▁meşələri	-10.8762
▁bilgi	-10.8764
▁Ağqoyunlu	-10.8766
▁nisbi	-10.8766
▁tərəfə	-10.8767
▁əsasları	-10.8768
▁Ağır	-10.877
▁rütbə	-10.8771
▁elminin	-10.8774
bucaqlı	-10.8774
▁etməsini	-10.8776
▁xalçalar	-10.8777
vad	-10.8777
▁Edvard	-10.8779
▁spirt	-10.8779
▁mövcudluğu	-10.8779
39-	-10.878
▁bölgüsü	-10.8781
▁Ağdaş	-10.8784
▁Rüstəmov	-10.8785
▁Mirzəyev	-10.8786
▁şüur	-10.8787
▁saxlayan	-10.8793
▁Rəng	-10.8794
▁Qoca	-10.8794
▁obyekti	-10.8798
▁Federasiyasında	-10.8801
▁bürc	-10.8805
▁həyəcan	-10.8805
▁iqtisadçı	-10.8806
▁götürülmüşdür	-10.8807
▁birləşmələrin	-10.881
▁şahid	-10.8811
eg	-10.8811
▁işlərində	-10.8813
▁ömrü	-10.8817
▁qoyan	-10.8818
▁Yekaterina	-10.8819
▁restoran	-10.8819
▁üstü	-10.882
▁təşkilatların	-10.8822
▁Kri	-10.8824
▁olardı	-10.8825
▁dönmə	-10.8826
▁oynadı	-10.8828
▁Ama	-10.883
▁Epi	-10.8832
osu	-10.8834
▁Afrikada	-10.8836
▁vur	-10.884
▁olmasının	-10.8842
▁təbəqəsi	-10.8843
▁edilməsində	-10.8844
▁Konservatoriya	-10.8845
▁poetik	-10.8846
▁İlyas	-10.8847
▁Qarayev	-10.8847
▁Cer	-10.8848
spi	-10.8849
▁Pul	-10.8849
▁Heyvan	-10.8849
▁yazmış	-10.8852
▁başda	-10.8854
▁materialların	-10.8855
▁havanın	-10.8856
etin	-10.8859
▁oyk	-10.8863
83-	-10.8867
▁oğludur	-10.8867
▁cəmiyyətdə	-10.8868
fiz	-10.8869
▁qorx	-10.887
▁quraşdırılmış	-10.8873
▁hərəkətə	-10.8873
ışıq	-10.8874
▁divarı	-10.8877
▁bolşeviklər	-10.8878
▁yaşamağa	-10.8878
hat	-10.8879
Pa	-10.888
▁gətirmişdir	-10.888
▁Jurnalistlər	-10.8881
ка	-10.8882
▁metodları	-10.8884
▁əmtəə	-10.8885
▁Sentyabr	-10.8885
▁maral	-10.8886
▁Cəmil	-10.8886
▁Bayramov	-10.8886
ırma	-10.8888
▁göstəriş	-10.8889
▁1987	-10.889
▁göstəricisi	-10.8891
▁qurultay	-10.8893
▁Gə	-10.8894
▁fasadı	-10.8896
▁fəaliyyətində	-10.8897
▁xanəndə	-10.8899
▁dərslik	-10.8902
şü	-10.8903
▁açılmışdır	-10.8903
▁açıldı	-10.8906
▁Bağır	-10.8906
Ö	-10.8908
▁təlimi	-10.891
▁Fevral	-10.8912
▁götürdü	-10.8912
▁Operator	-10.8913
ensiya	-10.8916
▁palıd	-10.8916
mos	-10.8918
▁məqaləsi	-10.8919
▁illərdən	-10.892
▁etməkdədir	-10.8922
▁zə	-10.8923
▁barmaq	-10.8924
▁istehsalat	-10.8925
▁qaytar	-10.8925
▁funksional	-10.8925
▁işğalçı	-10.8926
од	-10.8927
▁oynadığı	-10.8928
qut	-10.8929
▁Həmzə	-10.893
▁publisist	-10.8932
▁Vətəndaş	-10.8935
▁oxumuşdur	-10.8936
▁1911-	-10.8939
iylə	-10.894
mizin	-10.8941
▁terminlərini	-10.8946
▁bitirən	-10.8946
▁şahı	-10.8948
▁1988	-10.8949
▁firma	-10.8949
▁başlaması	-10.8949
osa	-10.8952
▁Windows	-10.8952
▁çıxdığı	-10.8953
▁kərpic	-10.8957
▁yazmağa	-10.8958
▁dərindən	-10.896
▁Dam	-10.8965
vest	-10.8965
▁Atatürk	-10.8966
▁yubileyi	-10.8967
▁Dədə	-10.8968
ope	-10.8968
▁Bob	-10.8969
▁Braziliyanın	-10.8972
▁romantik	-10.8975
▁dır	-10.8976
▁Final	-10.8977
fur	-10.8978
▁gitara	-10.8979
▁təhlükəsizliyi	-10.8981
▁adamların	-10.8984
luğunun	-10.899
▁izo	-10.8992
▁Ümumittifaq	-10.8992
▁imzalanmış	-10.8995
▁pu	-10.8998
bəyi	-10.9001
▁Trans	-10.9001
▁hündürlük	-10.9004
▁çöküntülər	-10.9006
▁yepiskop	-10.9006
▁bilsin	-10.9006
▁günündə	-10.9007
▁subyekt	-10.9008
▁boşluğu	-10.9008
▁All	-10.9011
▁korpusu	-10.9011
fı	-10.9011
▁Qulu	-10.9012
▁gec	-10.9013
▁Vay	-10.9014
▁Xaç	-10.9014
▁dayanır	-10.9016
▁Sava	-10.9017
▁Emin	-10.9018
18-	-10.9018
▁qismində	-10.9019
▁hövzəsi	-10.9019
▁anlamı	-10.9022
▁Bəs	-10.9023
linski	-10.9023
eya	-10.9024
Tə	-10.9026
▁hasil	-10.9027
▁doğ	-10.903
kot	-10.9031
▁kəməri	-10.9031
▁ı	-10.9031
▁Barselona	-10.9033
▁Tir	-10.9033
▁Bern	-10.9034
▁toplayaraq	-10.9035
▁çatmış	-10.9039
▁Nuru	-10.904
▁1985	-10.9041
▁oyan	-10.9042
М	-10.9044
▁ədalət	-10.9046
▁böyrək	-10.9047
▁yararlı	-10.9047
▁1900-	-10.9047
▁İspan	-10.9048
▁dağılması	-10.905
▁Aleksey	-10.9051
▁My	-10.9055
▁paket	-10.9057
▁tapılmış	-10.9059
▁dənə	-10.906
ulyasiya	-10.906
▁Universitetinə	-10.9061
▁fasilə	-10.9062
▁mübarizəni	-10.9062
▁Lerik	-10.9066
Se	-10.9067
▁hərfi	-10.9067
▁Ərəbistanı	-10.9068
▁voleybol	-10.9072
▁tab	-10.9075
▁qanuni	-10.9077
şev	-10.9078
▁3000	-10.9079
hum	-10.9081
▁çoxluğu	-10.9081
ity	-10.9082
▁tədqiqatçı	-10.9082
▁məş	-10.9083
▁Komissiyasının	-10.9086
▁şərtlər	-10.9086
ılaraq	-10.9088
▁rep	-10.9092
sevər	-10.9093
▁Birlik	-10.9094
▁məktəblərində	-10.9094
▁adamın	-10.9094
▁bolşevik	-10.9095
etta	-10.9095
▁1979	-10.9099
▁məzmun	-10.9101
▁Şirkətin	-10.9102
▁girdi	-10.9102
▁Nərimanov	-10.9106
▁gizlə	-10.9108
▁müddətinə	-10.9114
▁yaxa	-10.9116
▁yetişdi	-10.9118
▁saxlaya	-10.9122
▁sahibliyi	-10.9122
▁sirk	-10.9123
masının	-10.9124
▁orden	-10.9124
▁kimsə	-10.9125
▁cəngavər	-10.9128
▁halı	-10.9129
▁bilmirdi	-10.913
▁1986	-10.9135
▁Ast	-10.9135
▁qr	-10.9136
▁fo	-10.9136
▁formaya	-10.9138
Ko	-10.9139
▁yamacında	-10.9139
▁kəndlərində	-10.914
pal	-10.9144
▁AR	-10.9144
sat	-10.9149
▁sahilləri	-10.915
esi	-10.9152
▁Ji	-10.9152
▁Musayev	-10.9153
lmış	-10.9155
▁Hüs	-10.9156
▁məntiq	-10.916
ит	-10.9161
tam	-10.9163
og	-10.9163
▁kodu	-10.9167
▁evləri	-10.9168
▁açılmış	-10.9171
▁qanunvericilik	-10.9172
▁üzəri	-10.9175
▁qoyma	-10.9176
▁çəkmişdir	-10.9176
oyun	-10.9176
▁tələ	-10.9178
həm	-10.9181
▁həmdə	-10.9181
▁satışı	-10.9181
▁Dö	-10.9181
▁Müsavat	-10.9183
çuluq	-10.9183
▁günləri	-10.9185
▁Şər	-10.919
▁Smit	-10.9191
ofil	-10.9192
zz	-10.9196
▁bütövlükdə	-10.9197
Mar	-10.9197
▁çoxalır	-10.9198
vv	-10.9199
▁yapış	-10.9202
▁Ondan	-10.9202
▁döyüşçüləri	-10.9203
▁dərsləri	-10.9211
▁peyda	-10.9211
▁olmayıb	-10.9212
▁çempionatının	-10.9214
▁Zeynalov	-10.9215
Məmmədov	-10.9216
▁zəmin	-10.9216
▁künc	-10.9217
▁məqsədlər	-10.9221
▁Yazı	-10.9223
zdan	-10.9223
ой	-10.9224
▁Bəxtiyar	-10.9224
▁rahib	-10.9225
▁atlı	-10.9226
▁toponimdir	-10.9227
ekt	-10.9229
▁vətəndaşı	-10.923
▁qazax	-10.923
▁bəlli	-10.9231
minin	-10.9234
▁kitabının	-10.9234
▁əd	-10.9234
▁170	-10.9235
▁Eli	-10.9236
▁investisiya	-10.9238
▁Şahbuz	-10.9238
▁epizod	-10.9238
▁ədədi	-10.9238
▁söyləyir	-10.9239
▁akt	-10.9241
▁Babil	-10.9241
▁pri	-10.9241
▁Tokio	-10.9242
sial	-10.9245
▁ötürmə	-10.9247
▁qəsr	-10.9249
▁mənbələr	-10.925
▁saxlanması	-10.9253
▁Zeynal	-10.9254
▁qəbri	-10.9254
▁Red	-10.9256
▁qaldırılması	-10.9256
▁çarp	-10.9256
▁məzunu	-10.9257
▁komandasında	-10.9258
▁nəzər	-10.9259
org	-10.9259
▁qoyuldu	-10.9262
▁çıxaraq	-10.9264
э	-10.9266
▁tapıntı	-10.9266
▁dünyanı	-10.9266
▁Rəhimov	-10.9266
stri	-10.9272
▁digərləri	-10.9273
▁oxuyan	-10.9274
alizm	-10.9274
ati	-10.9275
▁Sənə	-10.9276
məsində	-10.9276
▁ölçüdə	-10.9277
film	-10.9277
▁Fin	-10.9278
▁operator	-10.9278
▁Yumurta	-10.928
▁ünsür	-10.928
▁işin	-10.9281
▁aşiq	-10.9281
▁Mineral	-10.9282
▁bazasında	-10.9285
▁yardımı	-10.9286
▁Gəncəvi	-10.9286
▁sistemlər	-10.9286
▁gəlirdi	-10.929
▁Yelizavetpol	-10.9294
▁Nəsrəddin	-10.9294
▁bildiyi	-10.9295
▁1960	-10.9296
▁yaradıcılığının	-10.93
▁kolleksiyası	-10.9303
▁Ural	-10.9305
▁olmalı	-10.9306
▁edəcəyi	-10.9307
hil	-10.9307
▁ekspert	-10.9308
▁oval	-10.9308
pərəst	-10.9308
-5	-10.9309
kcə	-10.931
▁Sultanov	-10.931
▁Kat	-10.9312
▁cism	-10.9313
▁etdirib	-10.9316
▁1984	-10.9316
▁birləşmələri	-10.9317
▁müstəqilliyi	-10.9317
▁motiv	-10.9318
▁etməlidir	-10.9319
▁obrazları	-10.9319
▁bilməsi	-10.9319
yeyən	-10.9321
▁seçilməsi	-10.9321
▁amerikan	-10.9323
▁dönəm	-10.9323
▁mahnısını	-10.9323
iyyatı	-10.9323
▁Qərib	-10.9323
▁evlərin	-10.9324
▁125	-10.9326
Mu	-10.9326
▁Türkmən	-10.9327
▁Qra	-10.9327
mayor	-10.9331
▁meydan	-10.9331
▁pər	-10.9333
▁1982	-10.9333
▁ulduzu	-10.9333
▁Sərdar	-10.9334
▁yayılan	-10.9335
▁ensiz	-10.9336
bro	-10.9339
▁əsgərlər	-10.9341
▁albomunu	-10.9341
spekt	-10.9341
liq	-10.9343
▁toplu	-10.9343
▁Gürcü	-10.9345
▁Pra	-10.9346
▁Goranboy	-10.9349
▁modern	-10.9349
▁yarımadasının	-10.935
▁olmasından	-10.9351
izmə	-10.9351
▁yayımlanan	-10.9351
54-	-10.9352
▁yuyul	-10.9352
yal	-10.9352
▁mərhələsinə	-10.9354
▁Şirvanşahlar	-10.9358
▁yayılır	-10.936
▁hüceyrələr	-10.9362
▁müayinə	-10.9363
▁idarəsində	-10.9364
▁Mas	-10.9365
▁hey	-10.9368
gəl	-10.9368
▁ailəsinə	-10.9372
▁günün	-10.9372
▁Fondunun	-10.9374
▁xaric	-10.9377
▁təhvil	-10.9378
▁Hitler	-10.9378
manı	-10.9378
▁öldürür	-10.9378
▁yaradıb	-10.9379
taş	-10.9379
▁yaralanıb	-10.938
▁Sak	-10.938
ER	-10.938
▁İdarəsi	-10.9381
sunu	-10.9382
▁adlandırılmış	-10.9383
ур	-10.9384
▁Qut	-10.9384
▁işlənməsi	-10.9386
▁işləmə	-10.9389
▁tutmaq	-10.939
▁ağıl	-10.9391
▁İstiqlal	-10.9391
▁1978	-10.9392
jan	-10.9398
▁vasitələr	-10.9399
▁cinayətkar	-10.9402
▁Sina	-10.9402
▁gətir	-10.9403
▁tələbat	-10.9404
Anceles	-10.9405
▁estetik	-10.9405
▁Toxum	-10.9406
▁qurğuları	-10.941
▁halqa	-10.9411
▁qayıda	-10.9412
▁atıcı	-10.9413
▁Hor	-10.9413
▁Bursa	-10.9416
▁məh	-10.9416
▁məntiqi	-10.9417
▁Wa	-10.9417
▁xəbəri	-10.9418
▁qərbdən	-10.9419
▁apar	-10.9419
▁qabarıq	-10.942
ald	-10.9422
▁seminar	-10.9422
çaq	-10.9422
tas	-10.9425
▁sayılırdı	-10.9425
▁tərəfdarı	-10.9426
▁kədər	-10.9428
▁surəsi	-10.9429
▁şi	-10.9433
rım	-10.9434
▁otaqları	-10.9437
▁1981	-10.9438
▁Qul	-10.9442
▁vəkili	-10.9447
▁protokol	-10.9448
▁İbtidai	-10.9448
▁bəylərbəyi	-10.9448
▁yataqlarının	-10.9451
lip	-10.9452
▁reytinq	-10.9453
▁Cabbar	-10.9456
▁pas	-10.9456
▁səhnəsində	-10.9457
ləmişdir	-10.9458
▁çağırır	-10.9459
▁oynamış	-10.946
▁Eri	-10.946
▁iy	-10.9464
▁icması	-10.9467
ust	-10.9468
▁Xar	-10.9468
▁yayında	-10.947
▁danışıq	-10.947
▁köçdü	-10.947
sarı	-10.9473
▁Azərbaycandakı	-10.9475
▁Pla	-10.9476
▁poeziya	-10.9477
▁Ross	-10.9478
eta	-10.9481
▁nəqliyyatı	-10.9482
▁redaksiya	-10.9482
▁həkk	-10.9482
laşdı	-10.9486
ımız	-10.9489
▁əlifba	-10.9489
▁Kateqoriya	-10.949
▁Vasili	-10.9491
pr	-10.9494
▁açıqlama	-10.9496
▁düşünür	-10.9497
▁dəyərlər	-10.9498
▁qayı	-10.9499
VI	-10.9504
▁görüşü	-10.9504
▁başlanır	-10.9505
SO	-10.9507
▁jurnalistika	-10.9507
▁yaxınlıq	-10.9509
▁bacı	-10.951
sızlıq	-10.951
yy	-10.9514
▁Millətlər	-10.9515
▁etsin	-10.9516
▁ixtiyar	-10.9519
▁Elektron	-10.9521
▁dünyası	-10.9524
▁küçəsində	-10.9525
▁yataqxana	-10.9528
▁yaşama	-10.9532
▁Moldova	-10.9533
▁dəyişdirilərək	-10.9533
lüyünü	-10.9534
▁Dünyada	-10.9535
▁rütubətli	-10.9536
təsi	-10.9536
▁adlar	-10.954
▁teatrında	-10.9543
ləşmişdir	-10.9543
▁sahibləri	-10.9543
▁şöbəsinə	-10.9544
▁Turan	-10.9545
▁bilmədiyi	-10.9546
▁fabrik	-10.9547
▁baha	-10.9547
▁yaradılmasında	-10.9548
▁Yarım	-10.9548
▁göndərilən	-10.9551
▁karyerasında	-10.9554
fər	-10.9555
▁olunmasını	-10.9555
hy	-10.9559
▁təxmin	-10.9561
▁satın	-10.9561
▁Xorvatiya	-10.9561
▁nifrət	-10.9561
▁laboratoriyası	-10.9561
▁şərqdən	-10.9566
▁İttifaq	-10.9566
▁bitirərək	-10.9567
▁çevrilə	-10.9568
▁böl	-10.9568
▁Elçin	-10.9569
▁yüksəkliyi	-10.957
▁Əh	-10.9574
▁Türküstan	-10.9576
▁buynuz	-10.9576
eksiya	-10.9576
▁Ədirnə	-10.9576
▁inqilabi	-10.9576
▁şəhərlərindən	-10.9577
▁partiyanın	-10.9577
▁Peru	-10.9578
▁gözləyir	-10.958
▁Sezar	-10.9582
▁Respublikanın	-10.9584
▁Samur	-10.9585
▁minə	-10.9587
▁ərə	-10.9589
İK	-10.959
▁kafedralı	-10.9593
ric	-10.9594
▁keşiş	-10.9596
kö	-10.9596
▁aparatı	-10.9603
▁aparırdı	-10.9604
▁konfransı	-10.9606
▁hindu	-10.9608
ahı	-10.9609
▁finala	-10.961
▁Rəssamlıq	-10.9614
▁ist	-10.9615
▁türklərin	-10.9618
▁inter	-10.9618
▁Öl	-10.9619
▁Bayrağı	-10.9619
▁yetirilməsi	-10.962
▁kəndlilər	-10.9623
▁formasını	-10.9623
▁tüstü	-10.9624
▁camaat	-10.9625
▁müalicəsi	-10.9625
▁köçmüş	-10.9629
▁Krist	-10.9632
▁Gülüstan	-10.9633
▁dövri	-10.9633
qua	-10.9635
▁tablo	-10.9638
bre	-10.9638
lağı	-10.964
▁qabiliyyət	-10.9641
▁məsələlərin	-10.9641
▁Sis	-10.9642
▁Allaha	-10.9643
con	-10.9645
▁pak	-10.9646
▁Qrupun	-10.9647
▁repressiya	-10.9647
qabağı	-10.9647
ık	-10.9648
▁gözəlliyi	-10.9648
▁ço	-10.9649
▁evlənmə	-10.965
▁01	-10.965
▁təb	-10.9652
▁bağlayır	-10.9654
▁təkamül	-10.9657
forma	-10.9658
▁formalaşmışdır	-10.966
▁qalaraq	-10.9661
öhrə	-10.9663
▁öldürülmüşdür	-10.9663
▁keramika	-10.9665
▁Fran	-10.9668
vik	-10.967
sındakı	-10.9671
▁məz	-10.9671
▁saxlanılan	-10.9674
▁Dmitri	-10.9676
▁dağətəyi	-10.9676
▁cazibə	-10.9676
▁Əsərin	-10.9677
TV	-10.9677
▁həkimi	-10.9677
▁Qaya	-10.9678
▁Təşkilatının	-10.9678
ew	-10.9682
▁keçirməyə	-10.9683
▁çıxa	-10.9683
▁doğul	-10.9685
lığından	-10.9687
▁tanınmışdır	-10.9689
▁Qırğızıstan	-10.9691
▁1909-	-10.9691
▁sahələrinin	-10.9691
▁təcili	-10.9692
▁Səhiyyə	-10.9692
illa	-10.9693
şın	-10.9695
sid	-10.9701
AD	-10.9704
▁Mühafizə	-10.9705
key	-10.9706
▁torpaqlarında	-10.9706
▁Hil	-10.9706
▁tikilib	-10.9709
▁qəhrəmanlıq	-10.9709
▁molla	-10.971
▁boşluq	-10.971
oksid	-10.9711
▁qoşuldu	-10.9712
▁itirmə	-10.9713
▁Müsabiqə	-10.9714
▁Dərə	-10.9715
▁gətirmək	-10.9718
их	-10.9721
▁vuran	-10.9723
▁ölmüş	-10.9723
ическ	-10.9726
▁yaşaya	-10.9726
▁Dini	-10.9729
▁Bit	-10.973
▁1918	-10.973
▁ayrılma	-10.9732
gent	-10.9734
▁Yəmən	-10.9734
▁tanıma	-10.9735
▁qər	-10.9735
▁sil	-10.9735
▁em	-10.9736
▁əyani	-10.9736
düz	-10.9738
▁alınıb	-10.9739
rim	-10.9741
▁keçirmiş	-10.9743
▁qabiliyyətinə	-10.9743
▁fan	-10.9744
▁xanımın	-10.9744
▁tədbirlərin	-10.9747
▁praktiki	-10.9747
▁həvalə	-10.9749
▁Çarlz	-10.9749
▁respublikada	-10.9754
▁körfəz	-10.9754
▁qrupunda	-10.9757
▁əhvalat	-10.9757
▁Vas	-10.9759
▁Yaş	-10.976
2010	-10.9761
▁Sb	-10.9763
▁öyrədi	-10.9763
▁müdrik	-10.9764
-13	-10.9766
▁uzan	-10.9767
▁cildi	-10.9768
▁yürü	-10.9768
▁xəritəsi	-10.9768
▁İndiki	-10.9772
▁burda	-10.9773
uşa	-10.9774
▁kosmos	-10.9776
▁sevdiyi	-10.9776
itin	-10.9777
▁Zəncan	-10.9778
▁dinamik	-10.9779
▁məğlubiyyət	-10.9781
▁bilərik	-10.9781
▁Elxan	-10.9787
▁işlərin	-10.9789
▁Məclis	-10.979
▁oyunlar	-10.9791
▁qayıq	-10.9792
məmməd	-10.9793
▁Şiraz	-10.9793
Н	-10.9793
yol	-10.9793
ləyici	-10.9794
▁qarşısına	-10.9795
▁1920	-10.9795
▁qayıtma	-10.9795
▁rubl	-10.9796
yub	-10.9796
▁agent	-10.9797
▁qoymaq	-10.9798
▁danışan	-10.98
etti	-10.9802
▁təntənəli	-10.9803
▁Şahin	-10.9803
▁qırx	-10.9804
▁Fondu	-10.9805
▁mövsümün	-10.9805
▁sümüyü	-10.9807
▁intihar	-10.9807
▁fərd	-10.9808
▁hekayələr	-10.981
▁lisey	-10.981
▁tənqidçilər	-10.9813
▁Kürd	-10.9813
▁gör	-10.9813
▁90-	-10.9813
▁sarayda	-10.9814
▁tənqidi	-10.9814
▁görüldü	-10.9815
▁bölgələrdə	-10.9817
▁Şin	-10.9817
▁idarəsinin	-10.9818
▁baba	-10.9819
▁məskunlaşması	-10.982
▁maldarlıq	-10.9823
▁göstərmə	-10.9824
pil	-10.9825
▁mühacirət	-10.9825
▁bunları	-10.9828
▁bər	-10.9831
kün	-10.9832
▁1983	-10.9833
ей	-10.9834
▁etiqad	-10.9836
▁Emil	-10.9837
▁qəzetin	-10.9837
osun	-10.984
▁açıb	-10.984
dl	-10.9841
▁Cabbarlı	-10.9842
▁Rəsmi	-10.9843
▁adalarında	-10.9846
▁nominasiya	-10.9846
▁narazı	-10.9847
▁imiş	-10.9851
▁işlədilir	-10.9851
▁Avrasiya	-10.9852
▁malikdirlər	-10.9855
▁etno	-10.9856
▁yazan	-10.9859
▁yəhudilər	-10.986
qır	-10.9863
▁sualtı	-10.9864
▁Sinqapur	-10.9866
▁millətçi	-10.9866
çar	-10.9867
▁əməkdaşlığı	-10.9868
▁sənayesinin	-10.9868
▁yayılıb	-10.9869
▁Tunc	-10.9871
▁komitəsi	-10.9871
▁vulkanı	-10.9874
▁Kro	-10.9874
▁təhlili	-10.9875
▁daşlar	-10.9875
▁xlor	-10.9879
▁gömrük	-10.988
kka	-10.9881
▁mənsəb	-10.9881
▁əməliyyatları	-10.9882
terin	-10.9883
▁inci	-10.9884
▁Hüseynqulu	-10.9885
▁çayına	-10.9887
▁imp	-10.989
▁SBb	-10.9891
▁Muzeyin	-10.9895
▁sam	-10.9897
yov	-10.9897
▁kapitan	-10.9897
▁minarə	-10.9898
▁dəvə	-10.9898
▁məclisi	-10.9898
▁çayların	-10.9901
ləşdiyi	-10.9901
tem	-10.9901
▁təxəllüsü	-10.9901
▁İt	-10.9903
▁mühazirələr	-10.9907
▁Pekin	-10.9907
▁illərə	-10.9908
▁ştatı	-10.9908
▁şəffaf	-10.9908
▁miqrasiya	-10.991
▁Uzaq	-10.991
▁mobil	-10.9911
▁təsirindən	-10.9914
▁əvvəlcədən	-10.9915
▁sahəni	-10.9915
▁Çö	-10.9915
tex	-10.9915
dilir	-10.9916
▁materialı	-10.9917
▁bak	-10.992
▁başlanğıcında	-10.9921
▁Tərəqqi	-10.9925
▁qət	-10.9925
▁təyyarəsi	-10.9932
darlıq	-10.9935
▁Səl	-10.9937
▁sosialist	-10.9939
▁Fakültə	-10.9939
ни	-10.9941
▁rənglər	-10.9941
▁məktəblərdə	-10.9947
▁çıxarılmış	-10.9949
▁dəhşətli	-10.9952
▁Burun	-10.9953
▁bağırsaq	-10.9954
▁İzmir	-10.9957
▁qanunlar	-10.9958
kle	-10.9958
▁komandasına	-10.9959
▁1974	-10.9959
▁Maksim	-10.996
Araz	-10.9961
▁oymağı	-10.9962
▁sıxışdır	-10.9969
dilmiş	-10.997
▁anlaşıl	-10.9972
▁gülü	-10.9972
▁tre	-10.9972
▁xidmətlər	-10.9972
▁veb	-10.9973
▁ərazisindəki	-10.998
▁Nəbi	-10.9982
▁del	-10.9983
▁potensial	-10.9985
▁evin	-10.9985
▁1904-	-10.9985
bad	-10.9987
▁buğum	-10.9987
▁Fuad	-10.999
▁Tat	-10.9991
şid	-10.9992
tsu	-10.9993
▁etməkdən	-10.9993
Ta	-10.9996
▁olunmasında	-10.9996
▁dizaynı	-10.9999
▁Hazır	-11
▁önündə	-11.0002
▁KP	-11.0005
▁Milad	-11.0006
90-	-11.0006
▁digəri	-11.0007
▁başlayırlar	-11.0011
75-	-11.0012
▁Sultanın	-11.0013
▁bəyi	-11.0013
▁Mala	-11.0014
▁Abidə	-11.0015
məmiş	-11.0016
▁mükafatları	-11.0017
omi	-11.0022
▁nəsr	-11.0022
▁qoşulma	-11.0025
▁delta	-11.0029
▁oynayıb	-11.003
▁etmədi	-11.0031
▁hüququnu	-11.0033
ladığı	-11.0037
▁istedadı	-11.0038
▁hüquqşünas	-11.0039
▁istehkam	-11.0044
▁tənəffüs	-11.0044
▁Körpü	-11.0044
▁ornament	-11.0044
▁hamam	-11.0045
▁sağlamlığı	-11.0047
▁düşərgəsi	-11.0048
ləndiril	-11.0048
kişi	-11.0048
▁iq	-11.0048
▁Kər	-11.005
▁vacibdir	-11.0052
diyindən	-11.0053
▁Məcid	-11.0053
▁şahzadəsi	-11.0055
▁Əhali	-11.0057
ting	-11.0057
mexanik	-11.0058
▁topladı	-11.0059
▁oxuyub	-11.0059
▁müharibələri	-11.006
▁fərqlənən	-11.0062
▁işinin	-11.0062
▁Leyla	-11.0066
▁öldürmək	-11.0067
▁formalaşmasında	-11.0069
▁çərçivə	-11.0069
▁məğlubiyyətə	-11.007
▁Yüz	-11.0072
▁3.	-11.0072
▁Bek	-11.0073
▁Bələdiyyə	-11.0074
▁Güney	-11.0079
Me	-11.0079
▁adalarının	-11.0079
▁по	-11.0081
▁qabar	-11.0087
▁Hacıbəyov	-11.0087
▁xətləri	-11.0088
▁Universitetini	-11.0088
▁Mövsüm	-11.0089
▁konstruksiya	-11.0089
▁cinah	-11.009
▁canavar	-11.009
▁1975	-11.0094
▁Deməli	-11.0095
▁miqyas	-11.0095
▁becərilir	-11.0096
▁uzunluqda	-11.0098
▁təsirli	-11.0099
▁qoymuş	-11.0099
▁Rad	-11.0103
▁Arslan	-11.0104
ет	-11.0105
▁sinfinə	-11.0108
daxili	-11.0108
▁çöküntü	-11.011
▁seçkilərində	-11.0112
ehr	-11.0116
▁tirə	-11.0118
▁AT	-11.0119
▁başlanması	-11.0121
▁Çal	-11.0121
▁ulduzlar	-11.0126
▁bəzədilmiş	-11.0127
▁Məscidin	-11.0129
fatından	-11.0129
▁gövdəsi	-11.0129
yam	-11.0134
▁verilmişdi	-11.0134
▁Cəlilabad	-11.0136
▁Xidməti	-11.0136
▁otlaq	-11.0137
que	-11.0141
▁obrazını	-11.0142
▁azot	-11.0143
▁tərkibli	-11.0144
▁baxır	-11.0145
ronun	-11.0147
hor	-11.0147
▁oyunlarında	-11.0151
▁obrazlar	-11.0151
ğru	-11.0152
▁Şer	-11.0157
▁Gir	-11.0158
▁proqramlaşdırma	-11.0158
Ya	-11.0159
▁iyununda	-11.016
▁tir	-11.0161
dy	-11.0161
mirdi	-11.0162
▁Taqanroq	-11.0164
▁avtobus	-11.0165
▁Kürdəmir	-11.0165
▁kənarları	-11.0165
▁sənədlərin	-11.017
▁ssenarist	-11.0172
liyyət	-11.0173
▁müsəlmanların	-11.0173
▁tök	-11.0174
birini	-11.0175
▁düşmənin	-11.0176
düyünü	-11.0176
▁Keçi	-11.0177
▁sikkələr	-11.0179
▁rəngarəng	-11.018
▁obyektiv	-11.018
▁okeanı	-11.0184
▁qaçdı	-11.0185
oza	-11.0186
▁şirəsi	-11.0191
▁təkmilləşdiril	-11.0191
▁hicri	-11.0195
▁böyüyü	-11.0196
▁soğan	-11.0198
▁Səhra	-11.0198
▁arxipelaqı	-11.02
▁Qır	-11.02
-25	-11.0204
▁doğulduğu	-11.0207
▁hökümət	-11.0208
▁ustad	-11.0209
▁Münhen	-11.021
▁Noyabr	-11.021
put	-11.021
▁ağzı	-11.021
▁Nəsib	-11.0211
▁artımı	-11.0211
▁edənlər	-11.0217
▁sərkərdəsi	-11.0218
▁Piter	-11.022
idin	-11.022
▁vərəq	-11.022
▁güləş	-11.0221
▁fərdlər	-11.0221
ти	-11.0223
▁tax	-11.0223
▁dilindəki	-11.0223
nel	-11.0224
▁Anime	-11.0226
▁povest	-11.0226
▁prosessor	-11.0227
vir	-11.0227
▁məzarı	-11.0229
lular	-11.0231
▁Heyəti	-11.0232
▁verilirdi	-11.0233
▁çıxarıl	-11.0235
▁Liqasının	-11.0239
lanmışdı	-11.024
▁xəyanət	-11.0241
▁preparat	-11.0241
▁təqdirdə	-11.0241
▁populyasiya	-11.0241
gh	-11.0242
▁binaları	-11.0243
▁balina	-11.0244
▁Ah	-11.0248
▁növlərinin	-11.0249
▁Sor	-11.0249
▁Leon	-11.0254
maş	-11.0254
▁karbohidrogen	-11.0256
▁İnşaat	-11.0256
.18	-11.0258
▁qışda	-11.0259
mızda	-11.0262
▁Nan	-11.0262
we	-11.0264
▁səhnəyə	-11.0265
▁müəllifləri	-11.0267
duz	-11.0268
▁divarın	-11.0269
▁Flor	-11.0269
▁Sarayın	-11.0269
▁ekspedisiyası	-11.027
▁olacağı	-11.0271
▁gözəllik	-11.0271
▁qoz	-11.0273
Qərb	-11.0274
▁qızılı	-11.0275
▁hara	-11.0275
▁Naxçıvanın	-11.0276
ва	-11.0276
▁fikirlərini	-11.0278
▁uğuru	-11.028
▁çevrilmiş	-11.0281
▁valisi	-11.0281
▁verilənlər	-11.0283
▁Hadisə	-11.0284
▁göstərişi	-11.0285
ных	-11.0285
▁İohann	-11.0286
▁vampir	-11.0286
▁şeylər	-11.0287
boz	-11.0287
▁1972	-11.0289
laması	-11.0291
▁firması	-11.0291
▁kitabların	-11.0291
▁davamı	-11.0291
78-	-11.0297
▁Ven	-11.0299
▁Əhalisinin	-11.03
▁İncil	-11.03
▁iman	-11.0301
▁şagirdlər	-11.0301
mato	-11.0302
▁qüsur	-11.0302
▁mühakimə	-11.0302
▁Divan	-11.0303
mbo	-11.0304
▁portreti	-11.0305
▁universitetləri	-11.0305
▁Serial	-11.0306
▁soyqırım	-11.0306
▁keçidi	-11.0307
▁özbək	-11.0314
▁düyü	-11.0314
valı	-11.0316
▁Məhəmmədəli	-11.0317
▁saxta	-11.0319
▁püskürmə	-11.0323
▁Memarlıq	-11.0325
▁Kata	-11.0326
▁mühasirə	-11.0327
▁filmidir	-11.0329
▁dənizə	-11.0329
▁məlumatlarına	-11.0329
assa	-11.0331
▁Yevlax	-11.0333
▁müstəvi	-11.0333
▁sədaqət	-11.0333
▁DVD	-11.0333
üsü	-11.0334
▁təsərrüfatının	-11.0336
▁dağlarında	-11.0337
▁atəşi	-11.0337
stansiya	-11.0339
▁uğradı	-11.0342
▁tarixləri	-11.0343
▁əhaliyə	-11.0346
▁kap	-11.0346
oğlunun	-11.0347
▁Hidro	-11.0347
▁Fərrux	-11.0348
▁ansamblı	-11.0348
▁hissənin	-11.0355
hab	-11.0361
▁Mont	-11.0363
▁eksponat	-11.0363
▁polyak	-11.0364
▁büdcə	-11.0364
▁bur	-11.0365
Axundov	-11.0367
▁dastanı	-11.0369
▁Şuşada	-11.0371
fal	-11.0372
▁sürücü	-11.0373
▁odur	-11.0376
▁məşğuldur	-11.0377
gən	-11.0377
▁Xəlifə	-11.0379
▁ifraz	-11.0379
▁qəddar	-11.0379
▁işığın	-11.038
▁bəxşində	-11.0383
▁birlikləri	-11.0385
▁Şəh	-11.0389
landırır	-11.0391
iyy	-11.0391
300	-11.0392
▁hökmü	-11.0392
ləndirən	-11.0393
▁Б	-11.0394
▁söykən	-11.0396
▁inkişafını	-11.0398
▁evlilik	-11.0399
▁əməli	-11.0401
▁istila	-11.0402
▁Britaniyada	-11.0406
▁donanma	-11.0407
▁görülmüş	-11.0407
▁unu	-11.0408
▁parkın	-11.0409
▁Qon	-11.041
▁duran	-11.041
▁dialekt	-11.0411
▁yalan	-11.0412
▁Koroğlu	-11.0416
▁durur	-11.0416
▁Ag	-11.0419
AL	-11.0421
▁alp	-11.0422
▁əsil	-11.0422
▁Romada	-11.0424
▁aparıcısı	-11.0426
▁itaət	-11.0426
▁qra	-11.0426
ies	-11.0428
▁vurmuşdur	-11.0429
▁olunacaq	-11.0429
tac	-11.0434
▁filmlərdə	-11.0436
▁doğulan	-11.0439
▁Orxan	-11.044
▁göndər	-11.0441
▁Mübariz	-11.0441
bənd	-11.0443
▁ben	-11.0445
ole	-11.0445
▁şüaları	-11.0447
▁çempionat	-11.0448
▁milyondan	-11.0449
roz	-11.0449
▁Tatar	-11.0452
NT	-11.0453
▁diri	-11.0453
▁paleo	-11.0454
▁Təhmasib	-11.0456
У	-11.0457
▁Eduard	-11.0457
▁qurucusu	-11.0457
▁Luis	-11.0457
▁kəmər	-11.0458
▁0,5	-11.0461
▁müxalifət	-11.0461
▁Ney	-11.0465
fey	-11.0467
vur	-11.0469
▁Orda	-11.047
▁Dadaşov	-11.0471
▁cərgə	-11.0472
▁NATO	-11.0472
▁qaraciyər	-11.0472
▁Zelandiya	-11.0473
▁fərziyyə	-11.0473
▁sarayının	-11.0474
▁təsvirləri	-11.0474
▁Dəstə	-11.0476
▁kadrların	-11.0479
▁mahiyyəti	-11.0479
▁məsuliyyəti	-11.0479
uşu	-11.0479
▁Əf	-11.048
but	-11.0481
▁öd	-11.0482
▁Ten	-11.0485
ِ	-11.0488
▁rektoru	-11.0488
▁turnirin	-11.0488
▁şeyx	-11.0491
17-	-11.0492
▁Bella	-11.0494
▁memarı	-11.0498
▁Ağac	-11.0498
▁rəssamlıq	-11.0499
▁keçdikdə	-11.05
▁büdcəsi	-11.0503
▁süfrə	-11.0504
▁Florensiya	-11.0504
▁tapşırığı	-11.0504
▁tapşırıq	-11.0505
▁əfsanəvi	-11.0508
▁həcmli	-11.0508
▁Kamp	-11.051
▁dağın	-11.0515
▁çəhrayı	-11.0519
▁İşçi	-11.0519
▁yumru	-11.0519
▁Universitetdə	-11.0519
▁yaratma	-11.0522
▁1973	-11.0523
▁yazar	-11.0525
▁mühəndisi	-11.0526
▁prosesinin	-11.0526
▁işlənmiş	-11.0527
▁soyadı	-11.0528
sli	-11.0528
təmsilçilərindən	-11.0529
olun	-11.0529
rici	-11.0531
▁Beyləqan	-11.0535
▁Tezliklə	-11.0536
▁debütünü	-11.0537
▁gənclərin	-11.0538
▁günlərdə	-11.054
▁bitkisidir	-11.0544
tron	-11.0545
▁sənin	-11.0545
▁ins	-11.0548
▁ur	-11.0548
▁istiqamətləri	-11.0548
▁1976	-11.0551
▁Mədəni	-11.0551
▁ilham	-11.0552
▁Baltik	-11.0553
▁festivalı	-11.0555
▁əlaməti	-11.0557
▁kurqan	-11.0557
iyalılar	-11.0558
▁Lit	-11.0559
▁Kişi	-11.056
burq	-11.0564
▁Agentliyi	-11.0567
▁marşrut	-11.0567
xov	-11.0568
▁29-	-11.0569
larımız	-11.057
▁münasibətilə	-11.0571
▁sərhədi	-11.0571
▁mövsümdə	-11.0573
▁ayrılmışdır	-11.0575
duksiya	-11.0576
▁Səs	-11.0578
▁anlam	-11.0581
daşıyıcı	-11.0583
sso	-11.0583
▁format	-11.0584
▁yaşadı	-11.0585
rand	-11.059
▁qayalıq	-11.0592
▁alış	-11.0596
▁müəssisələr	-11.0597
▁sənətçi	-11.0598
yum	-11.0598
▁qoruyucu	-11.0598
▁tərəflər	-11.0599
▁əhəmiyyətini	-11.06
▁inkişafının	-11.06
▁məhsulların	-11.0601
▁analizi	-11.0601
▁hamilə	-11.0605
▁Kül	-11.0605
▁aldıqdan	-11.0608
▁çəkmiş	-11.0609
▁proqnoz	-11.0614
▁çatışmazlığı	-11.0614
sək	-11.0614
mayıb	-11.0615
▁Əksər	-11.0616
neft	-11.0617
▁səlahiyyətləri	-11.0618
▁alırdı	-11.0618
▁verər	-11.0621
iss	-11.0621
▁Lar	-11.0622
məsindən	-11.0627
▁dünyəvi	-11.063
▁kadr	-11.0633
▁dərəcəsinə	-11.0633
▁xatirəsinə	-11.0634
▁nəf	-11.0635
▁fayda	-11.0636
ons	-11.0636
▁Media	-11.0638
▁səviyyəsinə	-11.0638
▁monastır	-11.0638
öh	-11.0638
MA	-11.0639
▁məhsulun	-11.0639
▁Mərkəzində	-11.064
▁poeziyası	-11.0646
▁subtropik	-11.0646
▁Rafael	-11.0646
▁mövqeyini	-11.0646
▁Mam	-11.0647
▁Kot	-11.0647
▁sığınacaq	-11.0647
bara	-11.0648
▁zərif	-11.0648
▁gölünün	-11.0648
▁pop	-11.0648
▁qaldırmaq	-11.0648
▁ovu	-11.0649
▁yazılıb	-11.065
▁İlkin	-11.065
▁çoban	-11.0652
▁go	-11.0653
şti	-11.0654
▁Aleks	-11.0655
▁çıxarılır	-11.0659
▁Dəli	-11.066
▁maarifçi	-11.066
▁bilmişdi	-11.0661
▁uşağın	-11.0661
▁Bülbül	-11.0662
▁Len	-11.0662
▁kəllə	-11.0662
▁yetişir	-11.0663
▁leytenant	-11.0666
▁Komitə	-11.0666
ped	-11.0668
▁toxun	-11.067
▁Toy	-11.0674
▁çıxarmaq	-11.0675
▁aparat	-11.0675
▁bölün	-11.0677
▁qüvvəsini	-11.0677
opol	-11.0677
rut	-11.0677
▁Pin	-11.0678
▁getdiyi	-11.0678
▁olunmur	-11.0679
▁mənşə	-11.068
▁kainat	-11.0682
▁82	-11.0682
▁qatil	-11.0683
▁yayla	-11.0685
▁üsulla	-11.0685
▁Soyuq	-11.0685
dığından	-11.0686
▁pen	-11.0687
oloqu	-11.0687
▁temp	-11.0687
▁orqanlarında	-11.0688
day	-11.0689
olma	-11.0692
▁rəsmən	-11.0694
▁Liverpul	-11.0694
▁animasiya	-11.0694
▁1902-	-11.0694
▁zabiti	-11.0696
▁1919	-11.0697
▁tutulmuşdur	-11.0697
нов	-11.0697
▁qadağa	-11.0698
▁profil	-11.0701
▁Xanlar	-11.0704
▁ənənəsi	-11.0706
▁şüalanma	-11.0706
▁Elizabet	-11.071
▁övlad	-11.071
▁qavra	-11.071
▁metodik	-11.0711
ləmiş	-11.0714
▁başqırdlar	-11.0718
dırır	-11.0719
▁ətəyində	-11.0719
▁varisi	-11.072
sch	-11.0721
rəng	-11.0722
▁Qı	-11.0724
-9	-11.0725
▁Yuqoslaviya	-11.0726
9.1937	-11.0726
▁pişik	-11.0726
▁təhrif	-11.0726
▁Rob	-11.0727
▁Fərəc	-11.0728
▁səbəblə	-11.0729
▁otuz	-11.0731
itlərin	-11.0731
▁ocaq	-11.0732
okrat	-11.0734
▁etdirmə	-11.0735
▁bölgələri	-11.0736
▁şiddət	-11.0737
▁Xanım	-11.0738
loji	-11.0738
▁Ağcabədi	-11.0742
▁Slovakiya	-11.0742
lyan	-11.0742
ая	-11.0743
▁saf	-11.0744
▁erkək	-11.0745
▁əhli	-11.0746
▁müəllifin	-11.0746
▁qiymətləndir	-11.075
▁ölkədən	-11.075
viç	-11.0754
▁Tanrının	-11.0755
▁edilmir	-11.0756
▁koordinat	-11.0757
▁etdikdə	-11.0758
▁yarımçıq	-11.0758
▁namazı	-11.0758
▁Məbəd	-11.0759
▁Rəfi	-11.0759
▁350	-11.076
▁qurğular	-11.076
▁Gölün	-11.0763
pərvər	-11.0763
▁Xəz	-11.0764
▁döy	-11.0765
▁buxtası	-11.0765
▁kommersiya	-11.0767
▁iyulunda	-11.0768
▁daşıma	-11.077
▁müddətli	-11.0771
lyu	-11.0773
▁Amerikalı	-11.0777
▁önəm	-11.0777
Tədqiqat	-11.0779
▁məhsullar	-11.0779
uta	-11.0785
ləşib	-11.0787
▁Vurğun	-11.0787
▁Müsabiqəsi	-11.0788
▁insana	-11.0789
▁çevrə	-11.079
▁uzunmüddətli	-11.079
▁Mədinə	-11.079
▁Doğu	-11.0792
▁binasının	-11.0792
▁oturaq	-11.0794
▁türkləri	-11.0794
▁etdirmiş	-11.0794
▁Xal	-11.0796
▁monastırı	-11.0798
tmiş	-11.08
▁günlük	-11.08
▁Tut	-11.0801
tok	-11.0801
▁surət	-11.0802
▁3-4	-11.0805
▁fl	-11.0806
▁Müəyyən	-11.0806
▁Qahirə	-11.0806
▁1898-	-11.0806
▁topu	-11.0807
▁ərəbcə	-11.0807
▁formasiya	-11.0808
ET	-11.0809
▁toponimi	-11.0811
off	-11.0811
▁yanaş	-11.0812
▁qızılbaş	-11.0813
▁Quş	-11.0815
▁yaşadıqları	-11.0816
▁Sasani	-11.0818
▁müxtəlifliyi	-11.0819
▁rəsmləri	-11.082
iyasında	-11.0821
▁Memar	-11.0821
▁Ehtimal	-11.0822
▁Zülfüqar	-11.0822
▁dəmiryol	-11.0824
▁qədərdir	-11.0825
idze	-11.0828
ğur	-11.0828
▁Dişi	-11.083
▁dayaq	-11.0835
▁irs	-11.0836
▁görmüş	-11.0836
▁Federal	-11.0839
▁oğuz	-11.0839
▁üzgüçü	-11.0839
▁düşməni	-11.0839
▁musiqisinin	-11.084
▁Doktor	-11.084
▁irq	-11.084
▁mon	-11.0841
▁Növ	-11.0842
▁öldürdü	-11.0844
▁müharibədən	-11.0845
▁götürmüşdür	-11.0846
▁müs	-11.0847
▁Sad	-11.0847
▁nəzərdən	-11.0852
▁Ayətullah	-11.0855
▁Diyarbəkir	-11.0855
▁ağciyər	-11.0855
▁qurğusu	-11.0855
▁Venera	-11.0856
▁çatdırıl	-11.0857
▁eynidir	-11.0858
▁Nil	-11.0858
▁içinə	-11.086
▁içi	-11.0863
▁prodüser	-11.0866
▁Kabinetinin	-11.0872
▁aşağıdakılardır	-11.0874
ulyar	-11.0877
▁Viktoriya	-11.0878
▁fakultəsin	-11.088
▁Əlcəzair	-11.0887
ий	-11.0888
▁atletika	-11.0888
▁verilişi	-11.0889
oloqlar	-11.0895
▁göndərilmişdir	-11.0901
▁funksiyasını	-11.0902
▁dəmiryolu	-11.0904
məhəmməd	-11.0904
▁Həmkarlar	-11.0904
▁parçalanması	-11.0904
▁radikal	-11.0904
▁şəkillər	-11.0904
çiçəyi	-11.0905
▁taxtın	-11.0907
İN	-11.0908
▁qabiliyyətini	-11.0909
И	-11.0909
▁girişi	-11.0912
▁nəşriyyat	-11.0914
▁78	-11.0917
▁vadi	-11.0917
-11	-11.0917
ense	-11.0919
▁qələvi	-11.092
▁qarət	-11.0924
▁bunlardır	-11.0926
▁masa	-11.0926
kum	-11.093
▁neo	-11.0933
tib	-11.0934
▁bitkidir	-11.0936
▁Mançester	-11.0936
▁alternativ	-11.0936
▁Erkək	-11.0936
▁abidələrin	-11.0937
▁tərs	-11.0937
▁idrak	-11.0937
▁qalmaq	-11.094
▁izləri	-11.0944
rok	-11.0944
▁İnstitut	-11.0947
▁tipik	-11.0949
▁konsertlər	-11.0953
▁ölkələrdən	-11.0954
▁Rafiq	-11.0954
▁indiyədək	-11.0955
▁Xaqan	-11.0955
▁istəmiş	-11.0955
▁qarşılaşma	-11.0957
▁cisim	-11.0959
▁Misirin	-11.0959
▁əh	-11.096
▁doktor	-11.0963
▁vəziyyətinə	-11.0967
от	-11.0967
▁Dra	-11.0967
ptik	-11.0967
strat	-11.0968
▁qoyulması	-11.0968
▁qutu	-11.0969
▁səmimi	-11.097
▁stabil	-11.097
▁vəzifədən	-11.097
▁olmaları	-11.0973
▁sənətkarlar	-11.0974
▁caz	-11.0975
▁dönüş	-11.0979
▁Cor	-11.0981
lmuşdur	-11.0981
▁hazırlamışdır	-11.0984
▁təşkilatçı	-11.0984
▁təcəssüm	-11.0986
▁iqtidar	-11.0986
▁aviasiya	-11.0987
▁kubok	-11.0989
▁tutulması	-11.099
▁Məhərrəm	-11.0993
▁sevgisi	-11.0996
▁donuz	-11.0998
▁daşnak	-11.0999
▁qurultayı	-11.0999
▁iqamətgahı	-11.1001
▁qolunu	-11.1001
▁International	-11.1002
▁yönəlmiş	-11.1002
▁sikkə	-11.1002
▁yaşaması	-11.1002
▁Məmlük	-11.1003
▁qadını	-11.1004
▁1971	-11.1004
▁edilər	-11.1004
▁elastik	-11.1004
orun	-11.1004
▁dağılmış	-11.1005
▁kənara	-11.1006
▁müvəffəq	-11.1006
andr	-11.1007
▁96	-11.1009
▁Ufa	-11.1009
▁Xəstə	-11.1012
▁fin	-11.1012
▁98	-11.1012
▁ölür	-11.1013
▁axtarışı	-11.1013
▁işləyirdi	-11.1017
▁yarımsəhra	-11.1019
▁Müqavilə	-11.1019
▁partlayıcı	-11.1019
▁zirehli	-11.1019
▁üstünlüyü	-11.102
▁Stansiya	-11.1021
▁Abbasqulu	-11.1022
▁qazanmaq	-11.1025
arsa	-11.1026
▁duman	-11.1026
▁Stra	-11.1027
ves	-11.1028
▁ədəbiyyatşünas	-11.1029
uza	-11.1032
otik	-11.1032
▁səciyyəvidir	-11.1034
▁diz	-11.1035
▁işlənmişdir	-11.1035
▁Xankəndi	-11.1036
▁istehlak	-11.1037
▁Д	-11.1038
▁itirir	-11.1039
▁təyinatlı	-11.1039
▁çəkin	-11.104
▁qaçış	-11.1041
▁istehsalında	-11.1042
▁çoxillik	-11.1043
▁məzhəb	-11.1043
▁obyektlərin	-11.1045
▁qərbə	-11.1045
▁farsca	-11.1045
▁sıldırım	-11.1052
▁xilafət	-11.1052
▁kobud	-11.1052
▁İldırım	-11.1052
▁keçdikcə	-11.1053
▁oxumaq	-11.1054
▁canlılar	-11.1054
▁tarixdən	-11.1059
▁incəsənəti	-11.106
▁evinin	-11.1061
▁Dev	-11.1063
▁gəmiləri	-11.1063
ovanın	-11.1064
▁xəttində	-11.1067
▁sabiq	-11.1068
▁Fərmanı	-11.1071
▁şiddətli	-11.1073
▁Zəngilan	-11.1073
▁vuruşma	-11.1073
▁gah	-11.1074
TA	-11.1074
▁Liqasında	-11.1075
▁Sevil	-11.1077
▁avar	-11.1077
▁akademiyası	-11.1079
▁rəğbət	-11.1079
▁Məktəbində	-11.108
▁oruc	-11.1081
▁naxışlar	-11.1083
▁Artur	-11.1083
▁maddələri	-11.1084
oksi	-11.1085
ق	-11.1085
▁Təxminən	-11.1085
▁təfsir	-11.1085
▁Hərəkatı	-11.1085
▁Yelena	-11.1085
▁cənubdan	-11.1088
▁məskəni	-11.109
▁bütünlüklə	-11.1092
▁dol	-11.1094
▁təqvim	-11.1095
▁doğulmuş	-11.1095
▁sizə	-11.1096
▁Dor	-11.1098
▁hissələrinin	-11.1098
▁ölümünə	-11.1098
▁Müş	-11.1099
▁qarışdır	-11.1101
▁Alyaska	-11.1102
▁Sahib	-11.1104
▁xəttinin	-11.1104
▁Şəxs	-11.1104
olin	-11.1104
▁tərbiyəsi	-11.1106
▁ərazisini	-11.1106
tiş	-11.1106
▁işçiləri	-11.1107
▁biliklər	-11.1107
▁təminat	-11.1108
▁mətbəx	-11.1114
▁kinoteatr	-11.1118
▁texnoloji	-11.1118
▁İntibah	-11.1118
▁günümüzə	-11.1118
▁Vəzir	-11.112
▁keçirilirdi	-11.112
▁Fatma	-11.1121
▁fotoqraf	-11.1121
▁Aya	-11.1122
ləşdirən	-11.1125
▁dənizinə	-11.1125
▁payı	-11.1126
▁polad	-11.1126
ito	-11.1129
▁etdirilmişdir	-11.1129
▁zorla	-11.1131
▁islahat	-11.1132
▁Pey	-11.1133
▁Vulkan	-11.1135
▁keçmişdə	-11.1135
▁Yuri	-11.1137
▁Sadə	-11.1137
▁vaxta	-11.1137
▁gəmilər	-11.1138
▁getməsi	-11.114
▁yaratmışdı	-11.1141
▁Ələkbərov	-11.1141
▁edilsə	-11.1142
▁adıdır	-11.1142
▁Vilayət	-11.1143
▁gedirdi	-11.1144
▁Tim	-11.1147
▁İç	-11.1148
uzun	-11.1148
▁Fon	-11.1149
▁gərginlik	-11.115
▁kafedrası	-11.115
▁hüdud	-11.1151
▁Fikrət	-11.1152
▁Küveyt	-11.1152
▁spesifik	-11.1152
▁Xəbər	-11.1152
▁Cinayət	-11.1152
▁Qüds	-11.1152
▁Xe	-11.1152
▁payına	-11.1154
▁Demokrat	-11.1155
▁şirkətləri	-11.1156
▁layihələr	-11.1156
ifikasiya	-11.1157
▁iynə	-11.1157
▁Keş	-11.1158
▁geologiya	-11.1161
▁1964	-11.1162
▁möv	-11.1164
▁Tel	-11.1166
lənməyə	-11.1167
▁bəd	-11.1169
▁zəfər	-11.1169
▁Buxara	-11.117
▁kürd	-11.1171
▁etik	-11.1171
▁olunmaq	-11.1171
▁sədrinin	-11.1171
▁edirəm	-11.1172
▁pulsuz	-11.1173
▁dövlətinə	-11.1174
▁vəziri	-11.1175
▁parad	-11.1178
▁kur	-11.118
▁sıralarında	-11.1181
▁tayfalar	-11.1182
▁kitabını	-11.1182
tdiyi	-11.1183
▁qurtul	-11.1187
▁Əsgərov	-11.1189
▁İst	-11.1191
аз	-11.1192
▁səhnələri	-11.1192
▁regionun	-11.1193
zur	-11.1193
▁kütlələri	-11.1195
▁adlandırmışdır	-11.1196
▁girmə	-11.1197
▁qazanmışdı	-11.1202
▁inteqrasiya	-11.1202
▁federal	-11.1202
formasiya	-11.1202
▁nı	-11.1203
ərsə	-11.1205
▁Ari	-11.1206
▁orduya	-11.1206
▁alay	-11.1206
▁Haram	-11.1209
ej	-11.121
▁götürülür	-11.121
та	-11.121
▁tamaşaya	-11.1211
▁sayında	-11.1211
kası	-11.1213
▁operası	-11.1214
uf	-11.1216
▁varlığı	-11.1216
щ	-11.1219
▁buradakı	-11.1219
▁Nəsimi	-11.1219
zik	-11.1222
▁başlanan	-11.1222
▁qurmuşdu	-11.1223
▁Cahan	-11.1225
skop	-11.1227
▁Şeir	-11.123
qubernator	-11.1232
▁sta	-11.1233
▁Günü	-11.1233
▁Vis	-11.1234
▁Bəhmən	-11.1236
▁görülən	-11.1236
▁cənab	-11.1236
▁gətiril	-11.1236
▁Erkən	-11.1236
▁prof	-11.1239
ал	-11.1239
▁məbləğ	-11.124
▁Əks	-11.1242
▁Nat	-11.1243
red	-11.1243
▁silahı	-11.1244
▁Körfəz	-11.1253
▁mövzular	-11.1253
▁tələbi	-11.1254
▁almanlar	-11.1254
▁xalçaçılıq	-11.1255
▁İnsanlar	-11.1255
▁yığmasının	-11.1256
▁Ayrıca	-11.1257
▁çoxunu	-11.1262
sak	-11.1267
▁Rəşad	-11.127
▁Ümum	-11.1271
▁qoyulub	-11.1271
▁Kel	-11.1272
▁aparma	-11.1273
▁kata	-11.1273
ldı	-11.1274
hey	-11.1275
▁sürür	-11.1276
▁inancı	-11.1276
▁her	-11.1276
sson	-11.1277
▁Aran	-11.1277
▁atdı	-11.1278
▁artist	-11.128
dib	-11.128
kart	-11.1282
▁verdilər	-11.1284
▁təqdimatı	-11.1285
▁mütəmadi	-11.1286
həd	-11.1287
▁Türbə	-11.1287
▁qoruyur	-11.1287
▁Proqram	-11.1288
▁ölçmə	-11.1289
▁ordusunu	-11.129
▁Mənsur	-11.129
▁1-2	-11.1292
▁qaçmağ	-11.1293
▁Tok	-11.1298
▁imzaladı	-11.1298
▁Naz	-11.13
adze	-11.1302
▁tərəqqi	-11.1303
▁canişin	-11.1304
▁düyün	-11.1304
▁sökül	-11.1305
▁Stefan	-11.1305
xor	-11.1307
▁başlama	-11.1309
▁Lay	-11.1311
lık	-11.1311
▁mərkəzlərindən	-11.1316
▁Fransaya	-11.1316
▁sahəyə	-11.1316
000-	-11.1318
▁potensialı	-11.132
▁minilliyin	-11.1321
lok	-11.1321
▁əhəmiyyətə	-11.1321
▁1968	-11.1322
tmişdir	-11.1323
▁hissəciklər	-11.1324
əndi	-11.1325
Al	-11.1326
▁tikilən	-11.1327
lyon	-11.1328
qaş	-11.1329
▁sinql	-11.1329
▁Com	-11.1333
▁amansız	-11.1338
▁buzlağı	-11.1338
▁Bad	-11.1339
şteyn	-11.1339
▁Anton	-11.1339
▁Məhəmmədin	-11.134
▁qanadları	-11.1341
▁saz	-11.1345
qanın	-11.1347
▁Kost	-11.1352
▁kazak	-11.1355
ence	-11.1356
▁Sov	-11.1356
▁sonlarına	-11.1356
▁Tap	-11.1357
▁himayə	-11.1358
▁oyuna	-11.1358
▁ağacları	-11.1361
▁sənətkarlıq	-11.1362
▁Cekson	-11.1363
▁müəllimlik	-11.1366
▁aero	-11.137
təb	-11.137
▁kompyuter	-11.1372
▁slavyan	-11.1372
▁Oqtay	-11.1372
▁Potter	-11.1372
▁məhbus	-11.1372
▁lokal	-11.1373
▁yamac	-11.1376
▁sayını	-11.1376
age	-11.1377
ləşdirmişdir	-11.1377
▁götür	-11.1378
▁Odur	-11.1381
▁uğurlar	-11.1383
▁mür	-11.1386
▁harada	-11.1387
▁Elektrik	-11.1389
▁həndəsi	-11.1389
▁şərqə	-11.1389
▁Arxiv	-11.1389
▁tapmış	-11.1389
▁dəyişdirilib	-11.1389
▁Nəşr	-11.1389
▁genişlənməsi	-11.1389
▁salmaq	-11.1398
▁filmlərində	-11.1398
ayət	-11.1399
▁qalırdı	-11.1401
▁karvan	-11.1401
▁qidalanma	-11.1403
▁üzünü	-11.1405
▁Varşava	-11.1406
▁infrastruktur	-11.1406
▁etnonimi	-11.1406
▁mühitdə	-11.1409
▁talan	-11.1409
▁bacarıq	-11.1409
▁Geo	-11.1409
▁razılığı	-11.141
▁tanınma	-11.1411
▁musiqili	-11.1412
dəyişmə	-11.1412
▁Şor	-11.1413
XVIII	-11.1416
▁resursları	-11.1419
▁rütubət	-11.1419
birinin	-11.142
▁istiqamətli	-11.142
▁düzənliyi	-11.1422
▁güzəşt	-11.1423
▁1828-	-11.1424
▁xaricə	-11.1424
▁şəkilli	-11.1424
▁ağıllı	-11.1433
▁alırlar	-11.1433
▁yeniyetmə	-11.1434
▁Vəzirov	-11.1434
rap	-11.1435
▁əsaslanaraq	-11.1436
▁araba	-11.1438
▁Mes	-11.1438
▁tədrisi	-11.1439
▁Ağstafa	-11.144
demokrat	-11.1441
400	-11.1441
ludur	-11.1447
▁Xatun	-11.1447
▁Cons	-11.1447
▁1870-	-11.1448
basar	-11.1448
▁rəqsi	-11.1451
▁çəkib	-11.1455
▁maska	-11.1457
▁İslandiya	-11.1458
▁Paleo	-11.1458
▁Liza	-11.146
▁Ağdərə	-11.1461
▁formalaşır	-11.1461
▁kadrlar	-11.1461
▁geriyə	-11.1462
▁Tədqiqatçılar	-11.1463
nıy	-11.1463
fizika	-11.1464
▁məmur	-11.1465
▁Şəkil	-11.1466
▁Rub	-11.1466
▁yığıl	-11.1467
▁yaralanmışdır	-11.1468
▁Kubokunun	-11.147
▁seriyasında	-11.1474
▁Komissiyası	-11.1475
▁çatdıqda	-11.1475
▁aparıb	-11.1477
▁təmizləmə	-11.1477
darı	-11.1478
▁işlədilən	-11.148
▁Ət	-11.1482
▁qoşulur	-11.1482
▁möh	-11.1484
▁Balet	-11.1487
0,0	-11.1488
▁ayaqları	-11.1489
xma	-11.149
ру	-11.149
▁Mehdiyev	-11.149
▁öldürmüşlər	-11.1492
▁bitkisi	-11.1493
▁studiyası	-11.1498
▁sulu	-11.1499
▁həddindən	-11.1499
▁ildəki	-11.1502
ure	-11.1502
▁rəssamlar	-11.1503
▁bilməmişdir	-11.1504
▁məbədin	-11.1508
▁bor	-11.1508
▁zəhmət	-11.1509
▁Təbrizə	-11.1509
▁iltihab	-11.1509
▁sak	-11.151
▁sənayesində	-11.1512
▁Kali	-11.1512
terapiya	-11.1513
▁mq	-11.1515
▁hamısını	-11.1518
▁Dis	-11.1519
▁Ordusunun	-11.1519
▁gətirilmiş	-11.1521
▁silin	-11.1521
59-	-11.1523
▁Л	-11.1523
mıza	-11.1524
tinq	-11.1524
çer	-11.1527
▁sevgilisi	-11.153
zor	-11.153
▁qətl	-11.153
▁Qəza	-11.1531
▁tapıb	-11.1533
▁Tağı	-11.1533
▁Balakən	-11.1536
nikov	-11.1539
да	-11.1539
▁balansı	-11.1542
▁ani	-11.1543
▁artilleriya	-11.1544
▁filmə	-11.1544
▁Kraliça	-11.1544
▁start	-11.1547
rta	-11.155
▁şeyin	-11.1551
▁gecəsi	-11.1553
▁təkmil	-11.1555
▁Dem	-11.1557
▁bilməzdi	-11.1558
▁Pənah	-11.156
eno	-11.156
lərimiz	-11.1561
▁Rəsulzadə	-11.1561
▁indeks	-11.1562
▁1880-	-11.1562
▁Rauf	-11.1564
yiş	-11.1564
▁Spe	-11.157
▁zəhərli	-11.157
▁form	-11.1571
▁medalını	-11.1572
▁Azərb	-11.1575
▁səbəbləri	-11.1578
▁unikal	-11.1579
▁krater	-11.1579
▁vətəndaşları	-11.1581
mmer	-11.1582
2009	-11.1582
▁gəldilər	-11.1583
▁Pop	-11.1583
▁qiymətləndirmə	-11.1587
▁Cal	-11.1589
▁155	-11.1591
▁toplam	-11.1593
▁Pres	-11.1596
ح	-11.1597
▁İsrafil	-11.1597
▁Şöhrət	-11.1597
▁Əşrəf	-11.1597
▁hovuz	-11.1597
▁mərhum	-11.1597
▁Kəs	-11.1597
▁daima	-11.1598
▁lüğət	-11.1598
▁peri	-11.16
▁icraçı	-11.16
texnika	-11.1601
▁ölkələrə	-11.1601
▁dəyişib	-11.1601
▁idarəçiliyi	-11.1601
▁str	-11.1602
▁şirkətlər	-11.1604
▁yaradılmasına	-11.1605
▁Fra	-11.1606
lərindəki	-11.1606
▁sevən	-11.1607
▁Of	-11.1607
▁qanadı	-11.1612
▁bölgəyə	-11.1613
▁buranı	-11.1614
▁fundamental	-11.1614
▁xəbərdar	-11.1618
▁Konstitusiyası	-11.1618
▁edin	-11.1619
▁yaylası	-11.1623
▁Günəşin	-11.1625
▁məmulatı	-11.1625
▁şəlalə	-11.1626
▁vadisi	-11.1628
hen	-11.1629
olunma	-11.1629
▁tütün	-11.1632
▁başını	-11.1634
▁qanın	-11.1635
▁1969	-11.1637
▁qarşılaşdı	-11.1637
▁Maraqlı	-11.1637
▁işləyə	-11.1638
əstə	-11.1641
▁mükafatlar	-11.1641
▁layihəsini	-11.1642
▁düzənliklər	-11.1644
alist	-11.1645
ets	-11.1645
▁göndərilməsi	-11.1647
▁iqtisad	-11.1648
▁həşərat	-11.1649
▁kükürd	-11.1649
▁anbar	-11.1653
▁elmə	-11.1653
ğından	-11.1654
konun	-11.1655
2008	-11.1655
jen	-11.1657
▁müəssisələrində	-11.1659
▁biləcəyini	-11.1659
▁seçil	-11.1661
▁Qam	-11.1663
▁işlənir	-11.1665
▁optimal	-11.1667
▁1903-	-11.1668
▁odun	-11.1669
ira	-11.1674
▁dənizdə	-11.1679
▁binaların	-11.1682
▁ürəyi	-11.1683
şər	-11.1684
▁Məş	-11.1684
▁humanitar	-11.1684
uğu	-11.1685
▁səyyah	-11.1685
kop	-11.1687
▁qaytarıl	-11.1687
▁boks	-11.1688
BA	-11.1689
luğunda	-11.1692
0000	-11.1698
▁cavabı	-11.1699
▁Xidmət	-11.17
2011	-11.17
ُ	-11.1702
▁Malayziya	-11.1702
▁Ob	-11.1703
ometr	-11.1703
▁bilinir	-11.1703
▁İcraiyyə	-11.1705
▁müharibələr	-11.1705
▁çəkilişləri	-11.1707
▁rolunda	-11.1709
▁formalaşdı	-11.1709
SA	-11.171
▁ölkəsinin	-11.171
▁həyatından	-11.171
▁bərkidil	-11.171
те	-11.1714
▁komponentlərin	-11.1714
lamışdı	-11.1715
oqraf	-11.172
▁1896-	-11.172
▁Şükür	-11.172
▁Saleh	-11.1722
▁unudul	-11.1723
▁mus	-11.1723
▁Oğlu	-11.1723
▁Nəsir	-11.1725
▁Avro	-11.1726
▁Les	-11.1726
▁məlumatların	-11.1728
▁dövrdən	-11.1728
▁hiper	-11.1728
vent	-11.1729
kim	-11.1729
▁keçirilmə	-11.173
▁Cümə	-11.1734
▁radi	-11.1735
▁hazırladı	-11.1736
▁yayda	-11.1736
ult	-11.1737
▁ötrü	-11.1739
▁Axı	-11.1741
Te	-11.1743
prezidenti	-11.1744
▁daşınması	-11.1745
▁İşıq	-11.1745
lamış	-11.1745
▁relyefi	-11.1746
DA	-11.1747
▁Anadoluda	-11.1752
▁bucaq	-11.1753
▁çaylarının	-11.1754
▁Vilhelm	-11.1755
▁tü	-11.1759
kova	-11.1761
▁qram	-11.1764
▁fantastik	-11.1764
▁his	-11.1765
▁külli	-11.1768
▁generalı	-11.1769
qir	-11.1771
▁iyulda	-11.1771
▁mif	-11.1772
▁partizan	-11.1773
▁Yevgeni	-11.1773
▁karvansara	-11.1773
▁Hücum	-11.1773
▁kvars	-11.1775
▁qayıtdıqdan	-11.1775
▁pulu	-11.1779
ок	-11.178
▁tənliklər	-11.1782
fun	-11.1783
▁layihələrin	-11.1784
▁qurbanı	-11.1788
▁Çap	-11.1789
▁MDB	-11.1791
▁XXI	-11.1792
▁çata	-11.1792
▁Bayat	-11.1797
ləndirmək	-11.18
▁olduqlarını	-11.18
önü	-11.18
▁mübahisələr	-11.1802
omo	-11.1803
▁bölmələri	-11.1803
▁cəhətləri	-11.1803
▁öyrənmiş	-11.1804
▁kompozisiyası	-11.1806
ис	-11.1806
▁Santa	-11.1807
▁inanır	-11.1808
▁Daşkəsən	-11.1809
▁Görkəmli	-11.1809
▁Kad	-11.181
▁dinləyici	-11.181
▁ucqar	-11.1811
lmə	-11.1813
▁yaddaşı	-11.1814
▁nəslinin	-11.1815
▁Miya	-11.1815
▁Firuz	-11.1816
▁vəzifəyə	-11.1817
vul	-11.1818
xay	-11.1818
▁xalqa	-11.1819
ote	-11.1819
▁getmişdir	-11.1821
bığ	-11.1822
▁yaralı	-11.1822
0,000	-11.1827
▁Mərakeş	-11.1827
▁bazilika	-11.1827
▁Maks	-11.1827
▁şor	-11.1828
▁İsrailin	-11.1829
▁1977	-11.1831
▁Qida	-11.1833
▁yüksəldi	-11.1838
▁dönə	-11.1841
kub	-11.1843
▁faşist	-11.1845
▁ürəyin	-11.1846
▁dəyişmişdir	-11.1847
▁dəf	-11.1848
▁bilərsiniz	-11.1851
▁Mühəndis	-11.1852
üst	-11.1853
▁aralıq	-11.1855
Qacar	-11.1855
▁Anar	-11.1858
▁sevinc	-11.186
III	-11.186
▁mer	-11.186
▁Monte	-11.1863
▁kəndistanında	-11.1863
biz	-11.1863
▁edilməlidir	-11.1866
▁qəlbi	-11.1866
▁Bahar	-11.1867
▁oxşa	-11.1867
▁Şahmat	-11.1869
▁qaydası	-11.1871
▁tanınması	-11.1871
▁qohumları	-11.1871
▁175	-11.1873
▁şübhəli	-11.1873
▁jurnalın	-11.1877
▁hekayələri	-11.1878
▁900	-11.1879
ont	-11.188
▁bəlkə	-11.1881
▁ferment	-11.1881
▁haşiyə	-11.1881
▁yanlış	-11.1881
▁Meydan	-11.1882
▁funt	-11.1883
▁yollarının	-11.1883
▁regionunda	-11.1885
▁oyunçusu	-11.1886
▁1966	-11.1887
▁1890-	-11.1887
▁sinə	-11.1887
ки	-11.1891
▁Ron	-11.1892
▁Boko	-11.1893
▁ediləcək	-11.1894
▁Pyer	-11.1895
▁Ziyad	-11.1895
▁fikrinə	-11.1895
oğulları	-11.1896
▁çıxarılan	-11.1896
▁Slavyan	-11.1899
▁Proqramı	-11.1899
▁imzalamışdır	-11.1899
▁köçürülmüşdür	-11.19
ellin	-11.1901
▁dedikdə	-11.1901
▁makro	-11.1902
▁çevrilmişdi	-11.1902
▁84	-11.1903
▁hövzəsində	-11.1906
▁işdə	-11.1909
▁astronomiya	-11.1909
▁sərəncam	-11.1909
ofit	-11.1911
▁karbonat	-11.1912
▁300-	-11.1915
▁gediş	-11.1915
max	-11.1915
▁əhəng	-11.1916
▁güzgü	-11.1917
▁bildirmişdi	-11.1918
▁siyasətinin	-11.1918
▁sistemlərinin	-11.1919
▁evli	-11.192
▁pyesi	-11.1922
▁olacağını	-11.1924
▁etibar	-11.1925
▁Qaraman	-11.1925
ди	-11.1926
▁örtüyünü	-11.1929
▁filosofu	-11.1929
part	-11.1932
▁1967	-11.1932
▁tarixçilər	-11.1936
▁heyran	-11.1937
▁müqaviməti	-11.1939
▁dünyasında	-11.1944
▁əlaqədə	-11.1944
▁səviyyəsinin	-11.1947
▁Tac	-11.1947
▁formasına	-11.1949
▁çalışdığı	-11.1949
▁minlik	-11.195
çiliyin	-11.1952
▁şifahi	-11.1953
▁Ərzurum	-11.1953
▁istəsə	-11.1953
▁çiçəkləyir	-11.1955
▁kvant	-11.1956
örü	-11.1956
get	-11.1956
▁Məsud	-11.1957
▁sakin	-11.1959
▁qurmuşdur	-11.1959
▁təsadüfi	-11.196
▁fiqur	-11.1963
dəniz	-11.1964
IN	-11.1965
▁Hüseynzadə	-11.1965
amerika	-11.1965
▁ailələrin	-11.1966
77-	-11.1967
▁Tacikistan	-11.1971
▁Ədəbi	-11.1971
▁miqyaslı	-11.1971
▁qayıtmış	-11.1972
▁oxudu	-11.1974
▁motivləri	-11.1976
Şərqi	-11.1976
▁Adalar	-11.1979
▁anlaşma	-11.1985
▁oyunlarını	-11.1987
ха	-11.1987
çülük	-11.1987
▁eroziya	-11.1989
▁Bədii	-11.199
▁idxal	-11.199
▁çevrilmə	-11.1991
▁əsaslandır	-11.1992
muşdu	-11.1992
33-	-11.1992
XVII	-11.1994
▁gətirilən	-11.1995
landırma	-11.1996
▁Hakimiyyətinin	-11.1999
ии	-11.1999
▁vulkanik	-11.2001
▁ödənil	-11.2002
▁məktubu	-11.2002
▁qalanı	-11.2006
▁yamaclarında	-11.2006
▁aspirant	-11.2007
▁bələd	-11.2007
▁müstəsna	-11.2007
▁premyerası	-11.2007
▁satirik	-11.2007
▁köçürülməsi	-11.2007
▁Atropatena	-11.2007
▁düzəldilmiş	-11.2008
▁getməyə	-11.201
▁yolun	-11.2014
eyr	-11.2015
▁tikintisinə	-11.2015
▁sürdü	-11.2016
ülmüş	-11.2017
▁göndərmişdi	-11.2018
▁Məc	-11.2019
▁terrorçu	-11.2022
əhrə	-11.2022
▁duzlu	-11.2022
▁çiçəkləri	-11.2022
▁Beh	-11.2023
▁ədəbiyyatda	-11.2025
▁predmet	-11.2026
▁neyro	-11.2026
▁heyrət	-11.2026
▁düzbucaqlı	-11.2027
▁Aero	-11.2027
▁yıxıl	-11.2028
ture	-11.2029
▁səbəbilə	-11.203
▁şöhrəti	-11.2032
▁dolayı	-11.2034
▁oxucular	-11.2036
▁Dost	-11.2037
▁adaya	-11.2038
▁etməkdir	-11.204
▁səthinə	-11.2041
▁bunlara	-11.2043
▁Microsoft	-11.2044
▁ötürülməsi	-11.2044
▁qorunur	-11.2045
▁fakultəsini	-11.2047
▁Messi	-11.2047
▁effekti	-11.205
▁nahiyəsi	-11.2052
▁Kişilər	-11.2055
▁tikil	-11.2061
▁xaraba	-11.2061
▁məsafəyə	-11.2062
▁təhqir	-11.2062
aşırı	-11.2063
▁maşınqayırma	-11.2063
▁hazırlanıb	-11.2065
▁avtomatik	-11.2068
▁karyerasını	-11.2068
▁əlamətlər	-11.2069
▁ağanın	-11.2071
▁yazılması	-11.2072
onal	-11.2075
▁medalla	-11.2076
▁göndərilmiş	-11.2076
▁Cəmiyyət	-11.2078
▁təh	-11.2078
şır	-11.2079
▁təəccüb	-11.2081
▁mütəfəkkir	-11.2081
▁minimum	-11.2081
▁qırışıq	-11.2081
cha	-11.2081
▁bölüşdür	-11.2082
▁Ayrı	-11.2083
▁səf	-11.2083
▁Sadıqov	-11.2084
▁sətir	-11.2085
▁Roz	-11.2085
▁ocaqları	-11.209
▁Arran	-11.2092
▁ətrafına	-11.2093
▁çala	-11.2093
atik	-11.2093
▁rəssamın	-11.2097
▁cəbhəsi	-11.2098
▁assistent	-11.2099
▁1901-	-11.21
▁səthinin	-11.21
aktiv	-11.2101
▁Tarixçi	-11.2101
▁Vey	-11.2104
▁misra	-11.2104
▁tamaşaçılar	-11.2104
▁dəyişdirilmiş	-11.2104
▁tələbələrə	-11.2105
▁mühiti	-11.2107
▁kasa	-11.2109
pet	-11.2109
▁Sand	-11.2111
▁88	-11.2112
▁Fir	-11.2112
▁hissəsindən	-11.2115
▁dayandırdı	-11.2119
▁məmulatları	-11.2119
▁Balina	-11.2119
▁Tab	-11.2121
▁oğlanları	-11.2122
▁törəmələri	-11.2124
ovo	-11.2124
▁titul	-11.2125
▁Qırx	-11.2125
pul	-11.2126
▁1961	-11.2127
▁məcmu	-11.2128
▁naib	-11.2131
▁gözləmə	-11.2131
▁mühacir	-11.2132
▁qurma	-11.2134
▁fər	-11.2135
▁Seçki	-11.2136
▁növündə	-11.2136
▁dərisi	-11.2137
▁xəzinəsi	-11.2138
▁dayaz	-11.2139
▁danışılır	-11.2139
lərdəndir	-11.2139
▁Mara	-11.2139
ction	-11.214
▁gücləndi	-11.214
▁kabel	-11.2141
▁üzvlərindən	-11.2142
▁gəmilərin	-11.2149
▁müəlliflər	-11.2152
üşü	-11.2154
▁energetik	-11.2154
▁faciəsi	-11.2155
▁qanı	-11.2157
▁hazırlayan	-11.2157
▁himni	-11.2158
▁girov	-11.216
▁gündüz	-11.216
▁Malta	-11.2162
▁Kul	-11.2163
▁92	-11.2166
▁korpus	-11.2166
həsən	-11.2167
▁81	-11.2167
▁Tədris	-11.2173
▁kartof	-11.2174
▁tutuldu	-11.2176
▁möhür	-11.2176
▁mərkəzinin	-11.2178
▁buraxılış	-11.2178
▁obyektləri	-11.2179
her	-11.2188
sınız	-11.2189
▁Der	-11.2189
▁Qarabağa	-11.2189
▁orda	-11.219
▁dövrümüzə	-11.2191
▁prospekti	-11.2192
▁dialoq	-11.2192
▁kontinental	-11.2192
▁au	-11.2193
▁vəziyyətində	-11.2194
▁Nov	-11.2196
▁ste	-11.2197
vol	-11.2197
▁Balıq	-11.2199
▁ze	-11.2199
▁qəsri	-11.2206
▁torpaqlarını	-11.2207
▁meteor	-11.221
▁öyrət	-11.221
▁Pəri	-11.2211
▁publisistik	-11.2212
▁bitən	-11.2212
duğunu	-11.2213
▁növlərindən	-11.2215
▁surəti	-11.2215
▁bəşəriyyət	-11.2216
▁Millət	-11.2217
dok	-11.2219
▁mexanika	-11.2219
çusu	-11.2221
▁qamış	-11.2221
zit	-11.2222
▁Gəray	-11.2225
zaman	-11.2226
▁mövzuları	-11.2226
▁1200	-11.2227
▁Tən	-11.2227
▁Sistem	-11.2228
▁Fövqəladə	-11.2229
▁tüfəng	-11.2229
▁intellektual	-11.2229
▁mövzuda	-11.2232
▁uğramış	-11.2233
▁kəsə	-11.2233
▁Cəbhəsi	-11.2233
kəs	-11.2234
▁Kaş	-11.2235
ema	-11.2235
▁Kru	-11.2235
▁günahlandır	-11.2235
▁nüsxəsi	-11.2237
▁hadisələrdən	-11.2238
▁quşu	-11.2238
▁baxan	-11.2241
▁yaradılmışdı	-11.2243
▁Çiçəkləri	-11.2245
▁təşviq	-11.2247
mark	-11.2248
▁qəfəs	-11.2248
▁Nüvə	-11.2248
▁seçkilərdə	-11.2249
▁Sədri	-11.225
▁dəstəkləyir	-11.2251
▁Braun	-11.226
▁Məm	-11.2261
▁Bəl	-11.2262
luğuna	-11.2263
▁plana	-11.2265
xanası	-11.2266
▁Avtomobil	-11.2266
▁Dördüncü	-11.2266
▁Səttar	-11.2266
▁oxuma	-11.2267
▁oksidləşmə	-11.2267
▁çalışırlar	-11.2268
▁işğalından	-11.2269
▁göstərilməsi	-11.2269
▁yağlı	-11.2269
▁fonunda	-11.227
▁ama	-11.2272
uzey	-11.2272
▁Serb	-11.2274
əkli	-11.2275
▁maili	-11.2277
▁parçaları	-11.2277
▁artmışdır	-11.2282
iana	-11.2283
▁simfonik	-11.2285
▁Stepan	-11.2286
▁xəstələr	-11.2288
▁rayonuna	-11.2291
▁hərtərəfli	-11.2291
▁ikiqat	-11.2292
lob	-11.2292
▁Ərazidə	-11.2293
▁kökündən	-11.2293
▁günlərində	-11.2296
α	-11.2298
▁hakimiyyətinə	-11.2302
▁tələffüz	-11.2303
▁yayımlanmışdır	-11.2305
▁çətindir	-11.2305
▁sezon	-11.2307
▁qruplaşma	-11.2307
▁Səfərov	-11.2309
▁peyğəmbərin	-11.2309
▁Yaşa	-11.2314
▁ga	-11.2316
▁qrupların	-11.2317
seksual	-11.2318
▁Təpə	-11.2321
▁kimyaçı	-11.2321
▁işdən	-11.2322
▁Fridrix	-11.2322
▁Xilafət	-11.2322
▁Gəl	-11.2323
▁Krallıq	-11.2324
▁şərqşünas	-11.2327
▁yamacları	-11.2327
▁bölünməsi	-11.233
▁bölməsinin	-11.2339
▁Gənclik	-11.2341
á	-11.2341
▁Dərviş	-11.2341
▁Xiyaban	-11.2341
▁İdarəetmə	-11.2342
▁Buradan	-11.2343
▁əmiri	-11.235
▁lu	-11.235
▁qişa	-11.2351
sio	-11.2351
▁Bell	-11.2352
▁birləşdirilməsi	-11.2352
▁şimala	-11.2353
▁Mükafat	-11.2355
▁haqqındakı	-11.2355
▁müəyyənləşdiril	-11.2359
▁turistlər	-11.2359
ğul	-11.2359
▁Texas	-11.236
▁saplaq	-11.2361
▁Sabirabad	-11.2362
▁sidik	-11.2365
▁sənədləri	-11.2366
▁qüvvət	-11.2366
▁Dövr	-11.2368
▁həmsərhəddir	-11.237
Yorkda	-11.237
▁qısaca	-11.237
▁yardımçı	-11.2372
▁salnamə	-11.2373
▁hadisənin	-11.2374
▁buraxılışı	-11.2374
▁seçkiləri	-11.2377
▁Bəhreyn	-11.2379
▁kənarı	-11.238
▁muzeyində	-11.2383
▁kam	-11.2383
▁yamaclarda	-11.2387
ound	-11.2388
▁Dav	-11.2388
qızı	-11.2389
CO	-11.239
▁Nev	-11.2391
▁məqsədləri	-11.2392
▁çıxarıldı	-11.2392
real	-11.2393
pri	-11.2393
Ro	-11.2393
burun	-11.2394
▁Minsk	-11.2395
▁mifologiya	-11.2397
▁Əlinin	-11.2398
eva	-11.24
▁matçı	-11.24
▁dağıdıl	-11.2401
▁işlədil	-11.2402
▁azaldı	-11.2402
▁zəka	-11.2404
çev	-11.2404
▁yaradıcılığına	-11.2409
MS	-11.2409
▁Nü	-11.2413
▁dirijor	-11.2417
▁düstur	-11.2417
▁diaspor	-11.2417
▁qanunauyğunluq	-11.2418
▁aşkarlanmışdır	-11.2421
skiy	-11.2421
▁Polad	-11.2422
▁parçalanma	-11.2423
▁Albaniyası	-11.2423
imov	-11.2426
▁1959	-11.2426
▁uzad	-11.2428
▁Nizaminin	-11.2429
▁formal	-11.243
▁şəkilləri	-11.243
▁vermədi	-11.243
▁coğrafiyası	-11.2432
▁çənə	-11.2433
▁dövlətə	-11.2434
laşdırdı	-11.2435
▁Şöbə	-11.2436
▁Kompüter	-11.2436
▁holland	-11.2436
▁Kun	-11.2437
▁Onlara	-11.2438
▁Geniş	-11.2439
▁dillərdə	-11.2439
darlığı	-11.244
ləriylə	-11.244
▁kəndlərdə	-11.244
▁səhm	-11.2442
▁Alan	-11.2443
▁rayonlarda	-11.2443
2014	-11.2444
▁icrası	-11.2445
tava	-11.2446
▁Ermənilər	-11.2449
▁qayıdıb	-11.2455
▁qəzəl	-11.2455
▁Bill	-11.2456
▁örtülmüş	-11.2457
▁bişir	-11.2458
▁Kaspi	-11.2459
▁176	-11.246
▁97	-11.2462
metrik	-11.2463
▁şəxsiyyətlər	-11.2465
▁dayandırıl	-11.2467
▁avqustda	-11.2468
qışlaq	-11.2469
ətrafı	-11.247
▁bağları	-11.2471
▁Por	-11.2471
▁Dik	-11.2472
▁qəbirlər	-11.2472
▁sertifikat	-11.2474
▁qüvvəyə	-11.2474
▁و	-11.2474
▁sularının	-11.2474
▁demokratiya	-11.2474
▁Hip	-11.2475
▁Muradov	-11.2478
▁macar	-11.2478
▁torpaqlarının	-11.2483
ilərək	-11.2485
itet	-11.2487
laşdığı	-11.2487
▁hökmdarları	-11.2489
▁Oliver	-11.249
▁xörək	-11.2493
▁Çikaqo	-11.2493
▁Leonardo	-11.2493
▁maddənin	-11.2496
▁seçkilər	-11.2498
▁Əvvəlki	-11.25
▁öyrənmişdir	-11.2501
pit	-11.2505
▁177	-11.2506
▁1954	-11.2506
▁Eks	-11.2507
▁yoxlama	-11.251
mızı	-11.2511
▁gimnast	-11.2511
▁həmkarlar	-11.2511
▁Mətbuat	-11.2512
əngi	-11.2512
ləşdirilən	-11.2513
▁gedişində	-11.2513
▁otaqlar	-11.2513
▁arxipelaqın	-11.2514
▁Baharlı	-11.2515
▁1800	-11.2516
▁Kanal	-11.2517
▁müzakirələr	-11.2517
▁Faiq	-11.2518
▁dövrünü	-11.2518
▁oxumağa	-11.252
▁mükafata	-11.2521
▁Hans	-11.2521
▁Koreyada	-11.2522
▁tapdı	-11.2525
leytenant	-11.2526
Г	-11.2527
▁yayıldığı	-11.2531
▁Siciliya	-11.2531
Tİ	-11.2532
▁açmışdır	-11.2536
▁Aslanov	-11.2538
▁sürmə	-11.2538
had	-11.2544
▁Kuk	-11.2548
▁demişdi	-11.2549
▁endemik	-11.2551
▁Toğrul	-11.2551
▁xaqanı	-11.2551
ان	-11.2552
▁vətənə	-11.2553
▁Səhər	-11.2557
▁kampusu	-11.2559
▁məsləhətçi	-11.256
▁tətil	-11.256
▁obyektlər	-11.2561
▁Gey	-11.2562
▁Çempionatının	-11.2563
▁Texnikumu	-11.2563
▁Op	-11.2564
▁azalma	-11.2565
▁itki	-11.2566
▁Peter	-11.2566
tip	-11.2567
тр	-11.2569
▁Aktrisa	-11.257
▁Rabitə	-11.257
▁Qardaş	-11.2571
▁qövs	-11.2571
▁sifarişi	-11.2571
AC	-11.2571
▁Liseyi	-11.2572
▁olunduqda	-11.2572
▁Quruluşca	-11.2572
▁pulcuq	-11.2573
▁tərcümədə	-11.2577
▁Samir	-11.2579
▁kompleksinin	-11.2579
dirsə	-11.2582
▁prokuror	-11.2583
▁padşahı	-11.2584
▁Parisə	-11.2587
▁Filip	-11.2588
▁Səmərqənd	-11.2589
▁azarkeş	-11.2589
▁edilməkdədir	-11.259
▁tayfalarının	-11.259
▁həzm	-11.2591
▁dəyişkən	-11.2591
▁tel	-11.2592
▁proqramların	-11.2593
▁təsnif	-11.2595
▁hasilatı	-11.2595
▁Rasim	-11.2595
axıl	-11.2595
▁ucuz	-11.2598
moto	-11.2599
▁çoxluq	-11.26
▁Ərəbistan	-11.26
▁dövlətlərinin	-11.2604
▁əvvəllərinə	-11.2605
▁xəzərlər	-11.2606
▁Zəngi	-11.2607
▁pilləsi	-11.2607
▁Əbdürrəhman	-11.2608
▁Vir	-11.2609
ам	-11.2609
▁artan	-11.2613
▁sümükləri	-11.2614
▁şərəf	-11.2616
▁məhkəməsi	-11.2616
▁siçan	-11.2616
▁rayonda	-11.262
▁Kil	-11.262
▁siması	-11.262
▁məhsuldarlığı	-11.2622
▁sərhəddi	-11.2623
▁performans	-11.2628
sinlər	-11.2628
▁nəzəriyyəsinin	-11.2628
▁eh	-11.2628
▁altıncı	-11.2629
▁multi	-11.2629
▁təchizatı	-11.263
ləşdirmiş	-11.263
▁görüşlər	-11.2631
▁Adəm	-11.2631
▁əmlakı	-11.2634
▁pik	-11.2634
sınd	-11.2634
▁ikitərəfli	-11.2636
▁görürdü	-11.2637
▁kökləri	-11.2638
▁ləqəb	-11.264
▁illərindən	-11.2641
qrafiya	-11.2645
Bir	-11.2646
▁Erik	-11.2647
▁dillərinə	-11.2648
▁çapdan	-11.2649
▁yerindən	-11.2649
▁sıradan	-11.2651
▁çəkə	-11.2651
▁partladı	-11.2653
▁İlan	-11.2656
▁Olimpiada	-11.2656
▁159	-11.2659
▁düşünü	-11.266
▁meyvələri	-11.2661
▁tullan	-11.2663
▁kamil	-11.2664
▁tarixlərində	-11.2664
▁86	-11.2666
▁liberal	-11.2667
▁düzəltmə	-11.2667
▁qranit	-11.2667
▁Konfransı	-11.2669
▁qoyduğu	-11.267
əslən	-11.267
▁özlərinin	-11.2671
▁etmələri	-11.2673
▁şagirdi	-11.2675
▁qalasını	-11.2676
▁Mö	-11.2677
şima	-11.2677
▁müdafiəçi	-11.2677
bax	-11.2678
▁şurası	-11.268
▁dənizçi	-11.2682
▁turşuları	-11.2683
▁olmadığından	-11.2684
▁göbələk	-11.2686
▁İbrahimxəlil	-11.2686
▁Hörümçək	-11.2686
▁Qütb	-11.2686
▁vəhdət	-11.2687
▁əhval	-11.2687
▁şaxta	-11.2688
▁Musiqili	-11.2688
▁yetirilir	-11.2689
ləşdirməyə	-11.2689
▁tutması	-11.269
çiçək	-11.2691
▁xeyriyyə	-11.2699
layırdı	-11.27
hib	-11.2701
▁1962	-11.2702
▁yaxınlaşdı	-11.2703
▁Herseqovina	-11.2706
▁tərənnüm	-11.2706
▁saxsı	-11.2706
▁edilməsindən	-11.2706
▁Kərbəlayı	-11.2706
▁Tibet	-11.2707
▁nümunələr	-11.2707
▁Şirvani	-11.2708
▁Xızı	-11.2709
▁Qoy	-11.2711
▁aldılar	-11.2713
▁öyrəndi	-11.2715
▁regionda	-11.2717
▁şərqi	-11.2717
▁sivilizasiya	-11.2718
▁qəhrəmanları	-11.2719
▁quraşdırıl	-11.272
▁1965	-11.2721
2006-	-11.2724
▁Peşə	-11.2725
▁antropogen	-11.2725
▁botanik	-11.2725
▁analitik	-11.2725
▁darvaza	-11.2725
▁Palatası	-11.2726
▁Qriqor	-11.2727
▁Arxa	-11.2728
AK	-11.2728
▁Turnir	-11.2728
▁oğlunu	-11.273
▁Mikro	-11.273
nosti	-11.2733
plan	-11.2734
▁Həyatı	-11.2734
▁balıqçılıq	-11.2735
▁Xoca	-11.2738
▁Kirov	-11.2738
▁dükan	-11.2738
▁Antoni	-11.2738
▁parlamentin	-11.2739
sizliyi	-11.2739
▁Vergi	-11.2741
▁olanda	-11.2742
▁işlədi	-11.2743
▁Pər	-11.2744
oqo	-11.2746
▁yetirmək	-11.275
zərb	-11.275
▁həddən	-11.275
2015	-11.2751
▁şeytan	-11.2753
▁verəcək	-11.2753
istlərin	-11.2755
▁con	-11.2758
▁filmlərin	-11.2759
leks	-11.2759
▁İq	-11.276
▁Zal	-11.276
▁Fərid	-11.2761
▁Süleymanov	-11.2761
▁proqramının	-11.2761
▁mətni	-11.2762
▁terras	-11.2766
▁yeddinci	-11.2766
▁tanınırdı	-11.2767
▁jurnallarda	-11.2768
▁ləkə	-11.2769
▁Regional	-11.2769
▁xatun	-11.2772
▁ağlı	-11.2773
▁dilli	-11.2774
▁Qədir	-11.2778
▁qalxır	-11.2779
▁1957	-11.2779
▁qurumları	-11.278
emiya	-11.278
▁Qafqaza	-11.278
▁daşdan	-11.2784
▁müəssisələrinin	-11.2784
▁tutulub	-11.2784
▁Alfred	-11.2784
trof	-11.2786
▁monarxiya	-11.2786
rbaycan	-11.2787
▁pilləkən	-11.2787
▁belədir	-11.2789
▁Sasanilər	-11.279
▁Yolu	-11.279
▁yəhudilərin	-11.2792
▁əmlak	-11.2798
▁adlandırıl	-11.2799
▁sülaləsindən	-11.2799
▁Sat	-11.2799
üntü	-11.28
▁götürülmüş	-11.2803
▁İordaniya	-11.2804
▁buraxılmış	-11.2806
▁bağladı	-11.2807
▁səlahiyyət	-11.281
▁savad	-11.2812
▁Stre	-11.2813
▁şəhidi	-11.2819
▁öldürülmüş	-11.2823
▁çəkilməyə	-11.2823
▁gər	-11.2824
▁simpozium	-11.2824
▁Hekayə	-11.2824
▁Hat	-11.2824
▁mahnının	-11.2825
▁tənzimlənməsi	-11.2825
▁qərargah	-11.2826
▁xəritəsində	-11.2827
▁Qətər	-11.2828
▁Əz	-11.2829
▁hövzəsinin	-11.283
ıstan	-11.283
▁kapital	-11.2831
▁Çempion	-11.2832
▁Luka	-11.2833
▁ödəmək	-11.2834
▁küt	-11.2836
▁Əməyi	-11.2836
▁aqro	-11.2836
▁Fit	-11.2839
▁müdir	-11.2839
▁ixtisaslaşmış	-11.284
▁Yunanıstanın	-11.2843
▁mətbəə	-11.2844
▁Əməliyyat	-11.2844
▁skelet	-11.2844
▁yenidənqurma	-11.2844
▁naminə	-11.2844
▁toplanmışdır	-11.2844
luk	-11.2846
ics	-11.2848
▁küp	-11.2848
▁quruluşlu	-11.2849
▁mor	-11.2849
▁bacardı	-11.285
▁Çex	-11.2851
▁Qoşa	-11.2851
▁çatması	-11.2854
▁nigah	-11.2859
▁sarımtıl	-11.2864
на	-11.2865
▁öküz	-11.2866
▁Fazil	-11.2866
▁məqalələrin	-11.2868
vill	-11.2868
▁mükafatlandırıl	-11.2869
▁katolikos	-11.2869
▁vurma	-11.287
▁sakinlərinin	-11.2876
▁buraxdı	-11.2877
▁paylanması	-11.2877
▁düşmənləri	-11.2877
▁qüdrətli	-11.2877
▁1958	-11.288
▁fasiləsiz	-11.2881
▁şar	-11.2882
▁toplantı	-11.2883
▁Rəcəb	-11.2883
▁Urartu	-11.2883
▁devril	-11.2884
▁parçalanmış	-11.2884
▁vurduqdan	-11.2885
▁Məhəmmədhəsən	-11.2886
eto	-11.2888
lanırdı	-11.2888
▁Əsərdə	-11.2888
▁məhəbbəti	-11.2892
riş	-11.2894
▁günahkar	-11.2894
▁təpəsi	-11.2894
tağı	-11.2898
▁gəldiyini	-11.2898
▁araşdırılması	-11.2899
▁kapitanı	-11.2901
▁Tehranda	-11.2902
▁salam	-11.2903
ْ	-11.2903
‘	-11.2903
▁Bibliya	-11.2903
▁istintaq	-11.2903
▁ünvanında	-11.2903
▁Sərhəd	-11.2904
▁87	-11.2906
▁artırdı	-11.2908
▁qumlu	-11.291
▁Nazirliyində	-11.2915
▁vəzifəli	-11.2916
▁çatmaq	-11.292
▁toplanmış	-11.2922
▁işgəncə	-11.2923
▁gerbi	-11.2924
▁köçmüşdür	-11.2927
▁keçirici	-11.2927
dinq	-11.2928
уч	-11.2928
▁reaksiyası	-11.2928
▁məhdudiyyət	-11.2929
▁Qraf	-11.2931
▁ölkələrinə	-11.2932
vud	-11.2935
▁yerləşdirilməsi	-11.2942
▁roluna	-11.2943
▁laborant	-11.2943
yeri	-11.2944
ие	-11.2944
▁Mau	-11.2945
tions	-11.2945
▁araşdırmaları	-11.2947
▁gəlməsinə	-11.2951
▁terrorçular	-11.2954
▁Maya	-11.2959
Т	-11.296
▁təhlükəsiz	-11.2961
▁bizi	-11.2961
▁seçimi	-11.2962
▁Xəlilov	-11.2963
▁oykonim	-11.2964
▁torpaqlarına	-11.2964
▁aralı	-11.2965
▁nəticələndi	-11.2966
▁departament	-11.2966
▁Manna	-11.2967
▁pyes	-11.2967
▁dövriyyə	-11.2969
▁Platon	-11.2971
▁Mexanika	-11.2971
▁qoxu	-11.2973
▁83	-11.2973
▁böyüdü	-11.2977
▁Avşar	-11.2982
▁araya	-11.2983
▁Bədənin	-11.2983
▁Zeynalabdin	-11.2983
▁xeyirxah	-11.2983
▁hündürlüyə	-11.2983
▁buraxma	-11.2983
▁ekologiya	-11.2984
▁dəyişdirilməsi	-11.2984
▁server	-11.2986
▁divarlar	-11.299
▁vena	-11.299
▁şoran	-11.2991
▁Ukraynada	-11.2991
▁gətirilir	-11.2991
▁Qori	-11.2994
▁şəkilçisi	-11.2996
▁adanı	-11.2996
▁hücumçu	-11.2997
▁qaldırıl	-11.2998
▁evlənir	-11.2999
▁plato	-11.2999
▁xaricdən	-11.3001
▁məkanı	-11.3003
▁kərtənkələ	-11.3003
▁Qapı	-11.3005
▁Cəfərqulu	-11.3006
▁adlandırılıb	-11.3006
▁Dom	-11.3006
▁Herat	-11.3008
▁ce	-11.3009
▁Vest	-11.301
ızı	-11.3011
▁akademiya	-11.3011
▁qoşulmuş	-11.3012
▁həcmində	-11.3012
▁konsepsiyası	-11.3012
gra	-11.3012
▁tat	-11.3015
qonur	-11.3017
▁psixo	-11.3023
▁Prussiya	-11.3024
▁Kosovo	-11.3024
▁seyrək	-11.3024
▁Qurultay	-11.3024
▁döşəmə	-11.3029
▁çatıb	-11.3032
▁toplanan	-11.3032
▁Yardımlı	-11.3032
▁sahillərinə	-11.3034
▁SBc	-11.3034
▁planetin	-11.3035
▁yaxınlaşma	-11.3035
▁Axund	-11.3037
▁düşünmə	-11.3038
▁meydança	-11.3038
qot	-11.3039
elektrik	-11.3041
▁qoruma	-11.3042
▁1963	-11.3043
▁Aristotel	-11.3044
▁məqbərə	-11.3044
▁Məşhəd	-11.3044
▁Lor	-11.3045
▁tapılan	-11.3046
▁tanrılar	-11.3047
▁xidmətini	-11.3047
quşu	-11.3057
▁ofisi	-11.3058
▁Foto	-11.3059
▁yayılmışdı	-11.3059
qey	-11.3062
▁bacarır	-11.3064
▁benzin	-11.3066
xanım	-11.3066
▁Rik	-11.3068
▁Nensi	-11.3069
▁işığı	-11.3072
▁əlamət	-11.3073
▁əvəzində	-11.3076
▁Tik	-11.3079
oku	-11.3082
▁siyasətini	-11.3082
▁kəlmə	-11.3083
▁çiy	-11.3084
ā	-11.3084
▁assosiasiya	-11.3084
▁çimərlik	-11.3084
▁Tatarıstan	-11.3084
▁yarar	-11.3087
▁vəsaitləri	-11.3088
▁nazirliyin	-11.3088
▁Göygöl	-11.3089
▁göstərirlər	-11.309
▁Batum	-11.3092
üzvi	-11.3095
ted	-11.3096
▁ب	-11.3096
fild	-11.3099
▁balığı	-11.3104
â	-11.3105
▁infeksiya	-11.3105
▁seçir	-11.3105
▁gözə	-11.3105
▁Cəmiyyətin	-11.3106
▁mexanizm	-11.3106
▁vətəndaşlığı	-11.3111
▁seriyasının	-11.3111
▁vadisində	-11.3112
qlarını	-11.3113
▁Məmmədəli	-11.3113
▁İnstitutun	-11.3115
▁səhnədə	-11.3116
dırıcı	-11.3117
▁ortalarına	-11.3118
kilsə	-11.3118
▁döv	-11.3119
▁94	-11.3121
▁suların	-11.3123
▁vizual	-11.3125
▁Yupiter	-11.3125
▁yazmışdı	-11.3127
48-	-11.3127
▁ötən	-11.3127
▁fəaliyyətlə	-11.3128
▁arealı	-11.3132
▁konfranslarda	-11.3133
▁Ştat	-11.3133
▁Əliqulu	-11.3138
▁axtarır	-11.3138
ander	-11.3138
▁Qas	-11.314
во	-11.3142
ept	-11.3143
▁yubiley	-11.3143
▁Maz	-11.3144
▁Post	-11.3144
▁Maddə	-11.3145
▁təcrid	-11.3145
▁Budapeşt	-11.3145
▁Xocavənd	-11.3146
▁vilayətləri	-11.3146
▁Plat	-11.3146
▁Kitabın	-11.3147
leş	-11.3148
▁Demək	-11.3149
İran	-11.3152
▁Türkcə	-11.3152
▁stansiyaları	-11.3153
▁oyunçular	-11.3156
▁dairələri	-11.316
batan	-11.3161
▁Əsərləri	-11.3161
▁dəhliz	-11.3166
▁Mağara	-11.3166
▁hövzə	-11.3168
▁daşqın	-11.3168
▁borusu	-11.3168
▁qurub	-11.3169
▁təş	-11.3172
▁çadır	-11.3173
tara	-11.3174
▁oxunu	-11.3175
▁öyrənməyə	-11.3175
▁hüceyrələrin	-11.3176
▁bilib	-11.3181
▁söylədi	-11.3183
▁mənbələrə	-11.3184
▁qəbiristanlığın	-11.319
ender	-11.319
▁lava	-11.3191
▁uduzdu	-11.3192
▁Petr	-11.3194
▁Bəziləri	-11.3194
▁Sənan	-11.3196
▁Fay	-11.3197
▁91	-11.3198
tut	-11.3199
▁yandırıl	-11.32
▁Almaniyaya	-11.3206
▁qartal	-11.3207
▁pravoslav	-11.3207
▁robot	-11.3207
▁rəqqas	-11.3207
▁ANS	-11.3207
▁irqi	-11.3207
▁Əkinçi	-11.3208
▁bacarıqlı	-11.3211
▁yeniliklər	-11.3211
▁şahidi	-11.3211
▁Sünik	-11.3213
▁Gümüş	-11.3213
▁kursları	-11.3216
▁sözünü	-11.3217
▁İllik	-11.3219
▁yerüstü	-11.3219
ross	-11.3222
metal	-11.3222
▁Arzu	-11.3224
▁endiril	-11.3226
ä	-11.3227
▁Xətai	-11.3227
roma	-11.3228
▁aşırım	-11.3229
▁Biznes	-11.323
▁ezam	-11.323
▁etibarı	-11.3232
ри	-11.3233
▁güləşçi	-11.3233
▁tamaşası	-11.3233
▁kosm	-11.3236
▁ayın	-11.3237
▁kompleksləri	-11.3239
▁ovçu	-11.3246
▁yayıl	-11.3246
▁salon	-11.3246
▁Nasir	-11.3247
▁qoşul	-11.3247
▁millətin	-11.3248
▁Dəməşq	-11.3248
▁yarımkeçirici	-11.3248
▁yırtıcı	-11.3248
▁Əjdaha	-11.3248
▁massiv	-11.3248
▁guşə	-11.3248
▁Əfşar	-11.3249
ная	-11.3249
▁verilişləri	-11.3249
▁Hələb	-11.3253
▁İspaniyada	-11.3253
▁dəyərləndir	-11.3254
▁allah	-11.3255
▁qışı	-11.3255
▁çatdırılması	-11.3257
▁Məlikov	-11.3257
▁nüfuzu	-11.3257
▁məhəlləsi	-11.3258
▁bölgəsinə	-11.3258
▁maşının	-11.3259
kərim	-11.3262
▁Qaraca	-11.3264
enberq	-11.3265
ləndirilir	-11.3266
bül	-11.3267
▁nəticəyə	-11.3268
▁Ayın	-11.3268
▁velosiped	-11.3269
▁vəliəhd	-11.3269
▁talış	-11.3269
▁çətir	-11.3271
▁əmirləri	-11.3271
▁kəsmə	-11.3272
yus	-11.3274
▁səhifələrində	-11.3277
xalq	-11.3277
▁imzalandı	-11.3277
banı	-11.3278
▁mətbuatı	-11.3281
▁ingiliscə	-11.3282
▁etmirdi	-11.3282
▁yerlərə	-11.3283
▁Vəkilov	-11.3284
▁Region	-11.3285
Kərim	-11.3288
▁qübbə	-11.3289
▁Klassik	-11.3289
▁Daniel	-11.329
▁vəzifələr	-11.3295
▁bağlanması	-11.3295
tmişdi	-11.3296
▁Angel	-11.3297
▁89	-11.33
▁Kast	-11.33
▁bahalı	-11.3302
▁Qulam	-11.3306
▁dibi	-11.3306
▁Təh	-11.3307
▁Hindistana	-11.3307
▁Dekabr	-11.331
▁Əbdülhəmid	-11.331
▁konsentr	-11.331
▁çuxur	-11.331
▁1895-	-11.3311
▁Yohan	-11.3314
▁məskunlaş	-11.3314
▁Talıb	-11.3315
▁Göytürk	-11.3315
▁1950	-11.3315
▁uzunluğa	-11.3316
▁tunel	-11.3316
▁təkər	-11.3318
▁ziyalıları	-11.3319
▁gecik	-11.3321
▁uğurları	-11.3322
▁Cavan	-11.3324
▁Gra	-11.3327
▁rusların	-11.3327
.11.1937	-11.3331
З	-11.3331
▁qurd	-11.3337
▁marş	-11.3339
▁dinlə	-11.334
▁iclasında	-11.334
ofor	-11.3342
▁üzünə	-11.3342
▁axırlarında	-11.3342
▁yarışda	-11.3348
▁Elektro	-11.3348
▁finalında	-11.3348
ν	-11.3352
▁xeyrinə	-11.3352
▁Adolf	-11.3352
▁portuqal	-11.3352
▁aqrar	-11.3352
▁Uels	-11.3353
▁simvolik	-11.3353
▁fiqurları	-11.3355
▁serialın	-11.3355
pər	-11.3356
▁ifası	-11.3356
▁Aygün	-11.3358
▁CH	-11.3358
▁elinin	-11.336
▁incəsənətin	-11.3364
kultur	-11.3365
▁3,5	-11.3365
▁müalicəsində	-11.3366
▁cərrah	-11.3368
▁təcrübəli	-11.3369
▁psixi	-11.3372
▁xanlıq	-11.3373
▁Tərcümə	-11.3373
▁qapıları	-11.3375
▁Albaniyanın	-11.3378
▁Kainat	-11.3378
▁payızında	-11.3378
▁çalğı	-11.3381
▁mübadilə	-11.3381
▁Evli	-11.3381
▁gətirilmişdir	-11.3382
▁klubları	-11.3384
laşdıran	-11.3393
▁göstərməsi	-11.3393
▁Fəxrəddin	-11.3394
▁Rəbb	-11.3394
mədəni	-11.3394
▁zərərli	-11.3395
şərqi	-11.3395
▁Əhmədin	-11.3395
▁qoşa	-11.3396
▁yarpağı	-11.3399
▁م	-11.3405
▁layihələri	-11.3408
▁keçirirlər	-11.3409
lop	-11.3409
▁vurmaq	-11.3411
▁Yaşar	-11.3412
▁dolan	-11.3412
mərtəbəli	-11.3413
2000	-11.3414
▁Sofiya	-11.3417
▁sürüşmə	-11.3417
▁təşəkkül	-11.3418
▁Festivalı	-11.3419
▁Novo	-11.342
▁girir	-11.342
▁göründüyü	-11.342
▁cismin	-11.3421
▁Yenə	-11.3421
▁limon	-11.3421
▁komponenti	-11.3427
▁serialının	-11.3428
ост	-11.3431
▁0,1	-11.3432
▁Avto	-11.3433
▁AZ	-11.3434
sulu	-11.3435
▁əqidə	-11.3436
▁teleskop	-11.3441
▁79	-11.3448
▁Qazı	-11.345
▁Katolik	-11.3452
▁budaqları	-11.3453
▁Parlamentin	-11.3453
▁Şəhidlər	-11.3456
▁mehmanxana	-11.3457
▁protestant	-11.3457
▁zeytun	-11.3457
▁miras	-11.3457
▁mübahisəli	-11.3457
stav	-11.3458
▁Kartli	-11.3458
▁daşlı	-11.3458
▁Səlcuqlu	-11.3459
▁1,2	-11.3459
▁binasında	-11.3459
▁arada	-11.346
▁sənə	-11.346
▁Mütə	-11.3461
oper	-11.3462
▁Marks	-11.3464
▁Gəncəyə	-11.3465
▁Love	-11.3465
▁ovalığı	-11.3465
▁Komitəsində	-11.3467
▁aləmində	-11.3469
▁nov	-11.3471
II	-11.3472
▁cümə	-11.3472
▁qaçan	-11.3474
▁ayaqqabı	-11.3478
▁bəhanə	-11.3478
▁yarad	-11.3479
▁1956	-11.3481
▁təmizlənməsi	-11.3481
▁əsəb	-11.3485
▁Air	-11.3486
Fransisko	-11.3486
our	-11.3486
▁məhlulu	-11.3487
▁Antik	-11.3488
ON	-11.3488
▁ulduzdur	-11.3491
▁1949	-11.3493
▁olunmamış	-11.3494
▁gilli	-11.3494
▁komissarı	-11.3495
▁Wo	-11.3497
rmiş	-11.3497
▁münasibətdə	-11.3498
▁Vüqar	-11.3499
▁hazırlama	-11.3508
▁nahiyəsində	-11.3509
▁Tədqiqatlar	-11.351
▁atma	-11.3511
▁şagirdlərin	-11.3515
əfər	-11.3516
▁turş	-11.3517
▁Hollivud	-11.352
▁universal	-11.352
▁tanıyır	-11.3523
▁bölməsində	-11.3525
▁birliyinin	-11.3529
▁yoluna	-11.3529
▁eniş	-11.3533
▁об	-11.3534
▁körfəzində	-11.3536
▁formalaşmış	-11.3537
▁etdiyimiz	-11.3539
▁Records	-11.3541
▁YUNESKO	-11.3541
▁narkotik	-11.3541
▁Halbuki	-11.3541
▁Düşmən	-11.3541
▁saxlama	-11.3542
▁Mona	-11.3542
▁mühəndisliyi	-11.3544
▁eşitdi	-11.3544
▁Senat	-11.3545
▁beyt	-11.3546
▁Məlumat	-11.3546
▁One	-11.3547
▁səhnələr	-11.3548
▁gəlməyə	-11.3549
▁vitamin	-11.3553
▁olurdular	-11.3555
▁Sav	-11.3558
▁kontr	-11.3559
omorf	-11.356
▁Masa	-11.356
dinamik	-11.3562
▁Nümayəndə	-11.3563
▁simptom	-11.3563
▁cənnət	-11.3563
▁MMC	-11.3563
▁eşidən	-11.3563
▁Neptun	-11.3563
qen	-11.3564
▁adlandırırdılar	-11.3565
▁müşavir	-11.3565
▁dəzgah	-11.3566
▁heyvanları	-11.3567
▁şü	-11.3568
▁komissiyasının	-11.3569
▁hazırlamış	-11.357
▁Jak	-11.357
▁qüvvələrini	-11.3572
▁institutunun	-11.3574
▁vətəndaşların	-11.3577
▁nəticələrinə	-11.3577
wi	-11.358
▁müşaviri	-11.3581
▁Konstantinopol	-11.3584
▁dağıntı	-11.3586
▁səciyyələnir	-11.3586
▁şəxslərə	-11.3586
▁sivri	-11.3586
▁kürü	-11.359
Qu	-11.3593
▁olmamış	-11.3596
▁ofis	-11.3599
▁sərgisi	-11.3603
keçi	-11.3603
▁əmələgəlmə	-11.3605
▁Ədliyyə	-11.3605
▁alqoritm	-11.3605
▁Neftçala	-11.3605
▁Fiziki	-11.3605
▁vaqon	-11.3609
aşvili	-11.3612
▁zədələnmə	-11.3613
▁Cümhuriyyət	-11.362
▁Dunay	-11.3621
▁ayırmaq	-11.3621
▁səslənir	-11.3622
▁görüşləri	-11.3625
▁ehtiras	-11.3627
▁Saf	-11.3627
▁mövqeyində	-11.3628
▁Nazir	-11.3629
▁Əmr	-11.363
▁səmt	-11.363
▁genişləndiril	-11.3632
OR	-11.3636
▁Komp	-11.3636
▁istədiyini	-11.3637
▁başqalarının	-11.3638
əcəkdir	-11.3638
▁yetirilmişdir	-11.3641
ус	-11.3642
ми	-11.3646
ров	-11.3646
▁dialekti	-11.3646
▁dəyirman	-11.3649
▁Hafiz	-11.3651
▁qırılma	-11.3652
▁çəkməyə	-11.3652
▁hüququna	-11.3652
▁ADU	-11.3653
▁Hot	-11.3656
▁artdı	-11.3658
▁müq	-11.366
▁varsa	-11.3662
▁5000	-11.3663
▁yaranmasında	-11.3664
▁yaradırdı	-11.3664
▁Məhkəməsi	-11.3664
▁Mehmet	-11.367
▁1899-	-11.367
▁cismidir	-11.3671
▁inqilabçı	-11.3671
▁xatırlayır	-11.3671
▁isbat	-11.3674
rpaq	-11.3675
▁Eti	-11.3676
▁mülk	-11.3676
▁CD	-11.3677
▁abad	-11.3678
qanadlılar	-11.3678
▁Şəfi	-11.3679
▁yazında	-11.3679
▁salonu	-11.368
▁fiquru	-11.3684
▁dövranı	-11.3687
▁Fərman	-11.3687
▁yüksəlmişdir	-11.3688
▁qəhvə	-11.3689
▁əməliyyatların	-11.3689
IV	-11.369
▁Məmmədquluzadə	-11.369
rinq	-11.3691
▁fəvvarə	-11.3691
▁müddəa	-11.3692
▁ardıcıllığı	-11.3693
▁sessiya	-11.3694
▁buraxılması	-11.3696
Donu	-11.3699
▁qalasına	-11.3701
▁silsiləsində	-11.3702
tala	-11.3703
ılmasında	-11.3703
▁çıxartdı	-11.3703
▁etməmiş	-11.3706
▁Dara	-11.3707
▁Cim	-11.371
▁93	-11.371
▁davran	-11.3712
▁etdirməyə	-11.3712
miqrant	-11.3713
▁Zirvə	-11.3713
▁Dərin	-11.3713
▁kurort	-11.3713
▁kataloq	-11.3713
▁rəsmlər	-11.3713
▁cəsur	-11.3714
▁çatdırır	-11.3717
▁Pala	-11.372
▁himayəsi	-11.3721
oph	-11.3721
▁beləcə	-11.3722
▁şirə	-11.3724
cıqları	-11.3725
opo	-11.3726
▁suallar	-11.3726
▁Yağ	-11.3729
▁Kubokunda	-11.3729
▁geyimi	-11.373
▁qazanması	-11.3732
▁Xuan	-11.3733
▁İnqilabı	-11.3733
▁Oruc	-11.3734
ərazi	-11.3734
▁xanımla	-11.3734
▁qvardiya	-11.3734
▁şənlik	-11.3736
▁salınır	-11.3736
▁Vel	-11.3739
▁qəsəbəsindən	-11.3743
▁Fred	-11.3743
▁Jurnal	-11.3744
▁endo	-11.3745
▁bağlandı	-11.3745
▁quruluşa	-11.3747
dilən	-11.3747
▁müş	-11.375
▁ustaları	-11.3752
▁monqollar	-11.3756
▁yarımmüdafiəçi	-11.3756
▁Şəmsəddin	-11.3756
▁zərurət	-11.3756
▁1831-	-11.3756
▁təhdid	-11.3757
▁Əvvəl	-11.3759
▁fikirləş	-11.376
▁şəxsiyyəti	-11.376
▁böhranı	-11.3772
▁qüvvətli	-11.3774
▁dəftəri	-11.3776
▁saraya	-11.3776
▁sultanın	-11.3777
▁Arxipelaq	-11.3778
▁dosenti	-11.378
▁itkin	-11.378
▁şübhəsiz	-11.3782
▁Limanı	-11.3783
▁quruldu	-11.3784
▁temperaturda	-11.3785
▁nisbət	-11.3785
▁tutar	-11.3793
▁qoruq	-11.3795
TE	-11.3799
▁kostyum	-11.38
1.1938	-11.38
▁nümayəndəliyi	-11.38
▁yaşam	-11.3803
▁kahin	-11.3803
▁hiylə	-11.3805
▁üfüqi	-11.3806
tərəfli	-11.3806
▁Akif	-11.3807
ütü	-11.3811
▁Meta	-11.3812
▁hüquqlarının	-11.3812
▁təsirinə	-11.3813
▁oynayırdı	-11.3813
▁girən	-11.3816
▁öyrənil	-11.3816
▁etdirə	-11.3818
▁florası	-11.3819
▁Məmmədovun	-11.3819
▁Trabzon	-11.3821
▁eşitmə	-11.3822
elektronika	-11.3823
▁1914	-11.3824
▁kolluqlar	-11.3825
▁qubernatoru	-11.3827
▁qərarlaşır	-11.3828
Bakı	-11.3828
köy	-11.3831
▁Kilsəsi	-11.3832
▁hədəfi	-11.3833
▁Mədə	-11.3834
▁məbləği	-11.3834
▁Romanın	-11.3836
▁Rü	-11.3836
▁Şuranın	-11.3839
▁Yox	-11.384
▁səfərlər	-11.3841
▁kəpənək	-11.3843
▁qrunt	-11.3843
▁Dəfn	-11.3845
▁105	-11.3846
diklərini	-11.3846
▁aclıq	-11.3847
▁törəmişdir	-11.3848
▁möhkəmləndiril	-11.3851
▁kanalında	-11.3851
▁1883-	-11.3851
gram	-11.3852
[...]
