<unk>	0
<s>	0
</s>	0
<pad>	0
▁	-2.81978
▁.	-2.92025
▁,	-3.27105
n	-3.6432
▁və	-3.93647
;	-4.01922
▁&	-4.03904
quot	-4.12451
(	-4.90016
▁)	-4.90605
a	-4.90835
-	-4.92878
ə	-4.95312
i	-5.06653
▁bir	-5.0885
r	-5.11068
▁ilə	-5.15392
▁ildə	-5.25806
ci	-5.26074
in	-5.38063
da	-5.40853
▁bu	-5.45001
▁Azərbaycan	-5.52339
nin	-5.54467
▁də	-5.59245
nın	-5.60114
də	-5.71861
▁olan	-5.75102
dir	-5.77916
▁Bu	-5.79588
na	-5.84955
▁üçün	-5.91816
▁sonra	-5.92033
▁kimi	-5.94669
▁ki	-5.95236
▁isə	-5.95774
b	-5.97652
▁da	-6.00905
▁:	-6.07625
lər	-6.08756
▁çox	-6.1096
lar	-6.13857
▁il	-6.15222
dən	-6.21033
nə	-6.21562
ya	-6.23457
li	-6.25481
▁görə	-6.28458
ın	-6.31339
▁edir	-6.31407
▁idi	-6.37803
▁onun	-6.40698
ən	-6.40743
▁həm	-6.41652
cü	-6.43007
dır	-6.43195
dan	-6.46182
▁o	-6.4862
▁tərəfində	-6.5301
▁əsas	-6.53772
▁ən	-6.56098
▁böyük	-6.562
▁ilk	-6.56212
▁O	-6.5722
lı	-6.58493
k	-6.59263
▁-	-6.60593
lə	-6.61285
▁öz	-6.62642
▁olmuşdur	-6.64676
▁olaraq	-6.65704
yə	-6.65991
cı	-6.67365
▁qədər	-6.6941
▁daha	-6.73125
la	-6.77258
cu	-6.78873
▁kənd	-6.81598
▁ya	-6.82544
▁adı	-6.82962
▁ilin	-6.83986
▁baş	-6.85857
q	-6.86466
▁iki	-6.88865
▁arasında	-6.90009
▁istifadə	-6.90512
▁A	-6.9231
▁biri	-6.94042
un	-6.9621
▁hər	-6.96424
▁edən	-6.97118
▁illərdə	-6.98458
▁olub	-6.98514
▁s	-6.98602
ı	-6.99452
▁bəy	-7.00566
▁Bakı	-7.01951
▁dəfə	-7.02096
▁bütün	-7.03567
▁olur	-7.04928
▁oğlu	-7.0929
▁etmişdir	-7.11896
▁etdi	-7.1258
dur	-7.14213
ki	-7.15394
lik	-7.16685
▁B	-7.17564
▁var	-7.18773
▁təşkil	-7.19821
▁digər	-7.22206
▁müxtəlif	-7.22447
▁ərazi	-7.22621
▁1	-7.23077
▁yeni	-7.23575
▁rayonunu	-7.23765
▁Dövlət	-7.2385
▁etmək	-7.24227
si	-7.24925
▁Respublikasını	-7.25043
m	-7.25197
▁daxil	-7.25799
▁haqqında	-7.26441
▁ildən	-7.26635
▁oldu	-7.28232
▁olunur	-7.29692
kı	-7.29957
▁belə	-7.30877
▁2	-7.30951
▁nəfər	-7.31033
▁adlı	-7.31575
▁M	-7.3305
▁başqa	-7.33428
▁inzibati	-7.33773
▁üzrə	-7.34141
▁olduğu	-7.34521
▁edilmişdir	-7.35925
an	-7.37724
▁qəbul	-7.39534
raq	-7.39818
▁edilir	-7.3995
z	-7.42562
▁qarşı	-7.42575
▁həyat	-7.43263
▁qeyd	-7.43474
▁yer	-7.44724
▁xan	-7.44805
▁elmi	-7.45391
▁onu	-7.45436
▁Azərbaycanın	-7.45985
di	-7.46172
▁orta	-7.46234
▁xüsusi	-7.46427
akin	-7.46694
▁fəaliyyət	-7.48124
▁dövlət	-7.48922
sı	-7.49885
s	-7.50301
▁Onun	-7.50651
▁qədim	-7.5082
cə	-7.51396
▁tarixi	-7.52041
▁edib	-7.53325
ərək	-7.5375
▁3	-7.53971
▁şəhərində	-7.55132
▁onların	-7.56971
t	-7.58337
▁Bir	-7.58822
▁Respublikası	-7.59236
▁etdiyi	-7.60361
▁aid	-7.60369
u	-7.6052
▁dünya	-7.60823
▁əsrin	-7.6154
▁yüksək	-7.61841
▁davam	-7.61871
▁iştirak	-7.62947
ik	-7.63082
lıq	-7.63149
▁geniş	-7.63707
▁neçə	-7.64743
▁vahidində	-7.64926
▁eyni	-7.65737
ndan	-7.65775
▁Azərbaycanda	-7.66225
xalq	-7.67023
▁zamanı	-7.67127
▁nəticəsində	-7.67441
▁olunmuşdu	-7.67462
▁etmiş	-7.67564
▁təhsil	-7.68075
▁gün	-7.6854
▁üzərində	-7.69171
▁heç	-7.69706
araq	-7.7031
▁burada	-7.71485
▁min	-7.71646
▁K	-7.71829
▁olar	-7.73707
▁onlar	-7.73836
▁ərazisində	-7.74017
▁vardır	-7.74042
çini	-7.74066
▁yerləşir	-7.74114
ları	-7.74149
ca	-7.75007
▁olmuş	-7.75283
▁zaman	-7.75485
▁Avropa	-7.75866
▁anadan	-7.76657
▁hərbi	-7.76778
▁olması	-7.76938
▁S	-7.77555
ona	-7.78228
▁Rusiya	-7.78655
l	-7.78934
▁müəyyən	-7.79313
▁inkişaf	-7.79895
▁I	-7.79924
▁göstərir	-7.80041
▁hesab	-7.80453
▁verir	-7.80596
▁yaxın	-7.80672
adına	-7.80755
▁Məhəmməd	-7.81508
▁şəhər	-7.81551
▁4	-7.81574
▁az	-7.81908
▁dövründə	-7.82104
▁artıq	-7.82657
▁ABŞ	-7.83695
▁Əli	-7.83696
▁yaxşı	-7.83952
▁Milli	-7.8406
▁olunmuş	-7.84292
▁olmaq	-7.84337
▁məşhur	-7.8447
▁ikinci	-7.84597
▁olunan	-7.8481
▁milli	-7.85498
▁su	-7.85705
▁bağlı	-7.86064
▁yalnız	-7.86346
▁km	-7.86387
dı	-7.86426
▁5	-7.86884
▁film	-7.86913
▁özünü	-7.87287
▁ibarət	-7.87289
▁Qarabağ	-7.87404
▁yerləşə	-7.87445
▁şəhəri	-7.87848
▁re	-7.87889
▁mövcud	-7.88042
▁kəndi	-7.89148
▁Y	-7.89247
▁türk	-7.89555
▁kiçik	-7.89788
▁üç	-7.89846
▁Böyük	-7.89867
likdə	-7.90073
inə	-7.9017
▁deyil	-7.90311
▁vaxt	-7.90818
▁altında	-7.91376
▁mərkəzi	-7.91585
▁edirdi	-7.92837
▁hissəsi	-7.9295
▁10	-7.93468
▁olduğunu	-7.93587
▁şəkildə	-7.94058
lu	-7.94338
▁m	-7.94695
▁edərək	-7.94877
▁üzvü	-7.94893
▁təyin	-7.95009
91	-7.9504
▁əvvəl	-7.95314
▁müddət	-7.95314
▁dilində	-7.95399
▁sıra	-7.95807
▁əsrdə	-7.95928
▁yenidən	-7.96032
▁musiqi	-7.96133
▁xalq	-7.96156
▁malik	-7.96516
▁insan	-7.97298
▁uzun	-7.98111
▁Ə	-7.98549
▁son	-7.98784
▁başladı	-7.9899
93;	-7.98991
ov	-8.00201
▁ümumi	-8.00411
▁sayı	-8.00515
▁edilmiş	-8.00619
▁edilən	-8.01108
▁dili	-8.01597
▁dövrdə	-8.024
ləri	-8.02491
ni	-8.0284
▁Belə	-8.03178
▁bilər	-8.03578
▁Burada	-8.04671
▁səbəb	-8.0478
▁Cənub	-8.04975
▁rus	-8.05
nı	-8.05371
▁Həmi	-8.06454
▁illər	-8.06479
▁SSRİ	-8.069
nda	-8.07565
apos	-8.08028
▁Qafqaz	-8.08489
▁bəzi	-8.08563
ndə	-8.0975
▁kəndində	-8.10633
▁Sonra	-8.10712
▁əhalisi	-8.10847
▁əldə	-8.11268
▁birinci	-8.11368
▁İran	-8.11921
▁adını	-8.11963
▁ölkə	-8.12115
▁zamanda	-8.12245
▁6	-8.12503
▁erməni	-8.12506
▁siyasi	-8.12718
▁gəlir	-8.13017
al	-8.13021
▁yaşayış	-8.1311
▁ibarətdir	-8.13691
▁II	-8.13745
nun	-8.13768
▁edə	-8.14215
▁Türkiyə	-8.14366
▁H	-8.14542
▁məşğul	-8.14907
▁Əliyev	-8.14912
▁əlavə	-8.15205
▁Mirzə	-8.15602
▁demək	-8.16239
▁tarixində	-8.16568
▁layiq	-8.16637
▁Bakıda	-8.16865
ilə	-8.17397
ərzində	-8.1796
▁məqsədi	-8.18285
▁Naxçıvan	-8.18295
o	-8.19469
▁C	-8.19667
▁20	-8.19991
▁xarici	-8.20103
▁Onlar	-8.20258
▁edilməsi	-8.20464
▁Sultan	-8.20483
▁nə	-8.20842
▁baxma	-8.21178
▁tə	-8.21385
▁edirlər	-8.21899
▁vəfat	-8.21987
▁başa	-8.22365
▁yanaşı	-8.23754
▁cənub	-8.24148
▁tam	-8.24246
▁may	-8.24601
▁etməyə	-8.24763
▁təmin	-8.25097
▁əhali	-8.25223
▁məlumat	-8.25396
▁Sovet	-8.25635
▁gələn	-8.25848
▁Xəzər	-8.25849
▁T	-8.26549
rkən	-8.26598
▁qızı	-8.27008
▁əsasında	-8.27363
▁15	-8.27822
ətta	-8.27901
▁rayonu	-8.27939
issor	-8.28189
▁Şah	-8.28191
▁edildi	-8.28355
▁yerli	-8.28534
▁iş	-8.28535
▁Osmanlı	-8.28563
▁şimal	-8.28758
▁hələ	-8.28784
▁almışdı	-8.29604
▁V	-8.29725
dür	-8.2975
▁tarix	-8.29836
▁P	-8.30011
▁yeri	-8.30167
▁əhatə	-8.30247
▁vasitəsi	-8.30507
▁Xalq	-8.30719
▁h	-8.30838
▁Kənd	-8.31056
▁8	-8.31243
▁mühüm	-8.31358
▁Həsən	-8.31462
▁Hüseyn	-8.31904
▁ayında	-8.32141
▁barədə	-8.32187
▁çıxış	-8.32446
▁keçmiş	-8.32485
vi	-8.32523
▁İ	-8.33033
▁verən	-8.33381
▁İlk	-8.33588
▁beynəl	-8.33654
▁keçirilə	-8.33707
əncə	-8.34044
▁Ermənistan	-8.34778
▁istehsal	-8.35357
▁meydan	-8.35383
▁müasir	-8.35429
▁12	-8.35515
▁Orta	-8.35622
▁xidmət	-8.35718
▁ola	-8.35964
▁7	-8.36103
▁Dünya	-8.36205
▁Bunda	-8.36768
▁yolu	-8.36798
▁Əhməd	-8.3684
▁yerinə	-8.37111
▁Şimal	-8.37168
▁nəşr	-8.372
▁idarə	-8.37246
▁müəllifi	-8.37269
▁Qara	-8.37924
▁milyon	-8.37945
▁yerdə	-8.38268
▁çap	-8.38697
▁kəndin	-8.38869
▁yol	-8.39117
▁XIX	-8.3927
qulu	-8.39647
▁Həm	-8.39908
▁başlayır	-8.40176
▁dini	-8.40298
▁Hacı	-8.40651
▁təsir	-8.40821
▁neft	-8.4094
▁edilib	-8.41116
▁müdafiə	-8.42251
▁hücum	-8.4236
▁qadın	-8.42452
▁etmişdi	-8.42514
▁geri	-8.4253
▁güclü	-8.42904
▁yaxınlığında	-8.42964
▁Hər	-8.43113
▁hakimiyyəti	-8.43336
▁uyğun	-8.43367
lt	-8.43401
▁əmələ	-8.43412
▁olunub	-8.44029
▁lak	-8.44831
▁tərkibində	-8.44975
▁sahəsində	-8.45084
▁Mərkəzi	-8.45297
▁ictimai	-8.45415
▁yaşayan	-8.45563
▁hərəkət	-8.45716
▁məktəbi	-8.45862
inin	-8.4603
ncaq	-8.46087
▁D	-8.46133
▁işğal	-8.46531
▁dəniz	-8.46703
▁30	-8.47031
çılıq	-8.47101
▁verdi	-8.47404
▁yanvar	-8.47457
▁elan	-8.48291
ndən	-8.48346
▁ali	-8.48896
▁əlaqədar	-8.4893
▁ətrafında	-8.48939
▁özü	-8.48944
▁halda	-8.49012
▁təsvir	-8.4902
▁mart	-8.49183
▁1992-	-8.49349
▁elə	-8.49495
e	-8.4954
▁malikdir	-8.49608
▁Türk	-8.49672
▁şəhərin	-8.50096
▁Şərq	-8.5011
▁rəsmi	-8.50844
▁Fransa	-8.5087
▁məlum	-8.51025
dək	-8.51293
gt	-8.5143
▁tək	-8.51475
▁doğru	-8.51776
▁əks	-8.52144
▁etibar	-8.52308
illik	-8.52519
▁17	-8.52593
▁F	-8.52767
y	-8.52815
▁əsr	-8.53512
▁dekabr	-8.53864
▁ələ	-8.5388
▁9	-8.53951
▁Ən	-8.5397
▁xanın	-8.54002
▁R	-8.54517
eynəl	-8.54779
▁bədii	-8.54834
▁Amerika	-8.54878
▁İsmayıl	-8.54893
ində	-8.54953
▁atası	-8.55064
▁təbii	-8.55223
▁sahəsi	-8.5549
▁mübarizə	-8.55521
▁hansı	-8.55786
▁müharibəsi	-8.56074
▁Yeni	-8.56118
▁ölkəni	-8.56139
▁sistemi	-8.56179
▁ailə	-8.56607
▁İslam	-8.5702
▁iyun	-8.5711
▁yazır	-8.57121
▁məktəb	-8.57397
▁işləri	-8.57852
▁orada	-8.57876
▁rol	-8.58052
▁gözəl	-8.58112
▁sahilində	-8.5825
▁dağ	-8.58369
▁gəlmiş	-8.58533
▁iqtisadi	-8.58596
▁e	-8.58632
▁ifa	-8.58862
▁təqdim	-8.59034
▁Hazır	-8.59168
▁günü	-8.59409
▁Şuşa	-8.59413
▁çayı	-8.59433
▁indiki	-8.59443
▁məxsus	-8.59513
▁Ş	-8.59608
▁25	-8.6006
▁Abbas	-8.60105
niversitetini	-8.60263
f	-8.60264
▁aprel	-8.60365
▁zəngin	-8.60601
▁dünyanın	-8.60856
▁olsa	-8.60992
▁qala	-8.61089
▁ayrı	-8.6141
▁yaşayır	-8.61921
▁gənc	-8.6197
▁onları	-8.62174
▁nəzərdə	-8.62187
▁sözü	-8.62285
▁Allah	-8.62299
▁SSR	-8.62449
▁ərazisi	-8.62453
▁aşağı	-8.62494
▁say	-8.62566
▁16	-8.62617
ğı	-8.62778
▁mədəniyyət	-8.62874
əddin	-8.62927
▁üzərin	-8.63055
▁təxminə	-8.63127
gər	-8.63171
▁həsr	-8.63251
▁bərabər	-8.63392
▁ay	-8.63601
▁avqust	-8.63791
sində	-8.64009
▁görkəm	-8.64408
▁cümlədə	-8.6443
▁oktyabr	-8.6452
▁məğlub	-8.64585
▁ağır	-8.64667
▁dörd	-8.65377
▁qısa	-8.6557
mma	-8.65598
gə	-8.65694
▁fərqli	-8.65707
▁fəaliyyəti	-8.65778
▁inkişafı	-8.65832
▁Ali	-8.65848
▁ancaq	-8.66048
▁insanlar	-8.66116
▁futbol	-8.66352
d	-8.66598
▁olmayan	-8.66627
xud	-8.66778
▁14	-8.66864
▁müharibə	-8.66952
▁olmuşdu	-8.67093
▁illərində	-8.67226
▁tamam	-8.67346
lərlə	-8.67548
▁yəni	-8.67625
ti	-8.67782
▁d	-8.6805
▁hazır	-8.68128
▁baxım	-8.68363
▁rast	-8.68475
▁nəfəri	-8.68603
▁ərəb	-8.68695
▁İbrahim	-8.68697
▁metr	-8.6873
▁ayını	-8.68858
▁fevral	-8.68859
ütün	-8.68884
▁yox	-8.69057
▁şah	-8.69104
▁iyul	-8.69126
▁iri	-8.69266
▁qrup	-8.69311
▁yanında	-8.69377
▁əhalini	-8.6946
▁rayonunda	-8.6973
▁tətbiq	-8.69753
▁tərəfdə	-8.69775
▁çoxlu	-8.69819
▁Roma	-8.70247
▁sədri	-8.70287
▁kömək	-8.70379
ir	-8.70712
▁vəzifəsində	-8.70808
▁Film	-8.70854
▁daş	-8.70898
▁daxili	-8.7118
▁məhz	-8.7122
▁növü	-8.7137
▁ifadə	-8.71453
▁İnstitutunu	-8.71497
ünəş	-8.71608
▁asılı	-8.71672
▁imkan	-8.71866
▁gəldi	-8.71911
▁təhsilini	-8.71946
▁yoxdur	-8.71973
▁qərar	-8.72084
▁Q	-8.72137
▁yaşında	-8.72272
▁elm	-8.72312
▁noyabr	-8.7246
▁18	-8.72532
▁sentyabr	-8.72603
▁inşa	-8.72666
▁sadə	-8.72773
▁Almaniya	-8.72868
▁başlamışdır	-8.73497
▁İkinci	-8.73719
▁aktyor	-8.73767
▁gəlib	-8.73916
▁tanınmış	-8.74166
▁ağa	-8.7424
▁filmi	-8.74376
▁əvvəllərində	-8.74763
▁aşkar	-8.75061
▁11	-8.75237
▁teatr	-8.75381
▁X	-8.75398
▁olunması	-8.75655
▁şair	-8.76018
▁azad	-8.76023
▁etməsi	-8.76062
▁almaq	-8.76137
▁xey	-8.76575
▁eləcə	-8.7702
su	-8.77021
▁şəklində	-8.77248
▁ciddi	-8.7736
▁cəlb	-8.7736
▁Moskva	-8.77365
▁Baş	-8.77388
▁söz	-8.77419
▁Beləliklə	-8.77438
▁cür	-8.77597
▁alır	-8.77768
▁sağ	-8.77858
▁13	-8.77978
▁tez	-8.78221
▁irəli	-8.7825
ından	-8.78358
▁dövləti	-8.78388
▁qara	-8.78418
▁müstəqil	-8.78424
▁ölkədə	-8.78456
▁həyatı	-8.78487
▁dünyada	-8.786
▁döyüş	-8.78837
▁qardaşı	-8.78839
▁hissəsində	-8.79016
▁əhəmiyyətli	-8.79137
▁xanım	-8.79169
▁dövrü	-8.79315
▁təsərrüfatı	-8.79459
▁qızıl	-8.79519
▁ədəbi	-8.79596
▁uşaq	-8.79752
▁alıb	-8.80367
▁adlana	-8.80671
▁Dah	-8.80712
mumi	-8.80846
▁rayon	-8.80932
▁müəllim	-8.81082
▁olundu	-8.81158
▁2009-	-8.81551
▁ev	-8.81603
▁mümkün	-8.81913
rək	-8.82022
ır	-8.8203
▁Yer	-8.82044
▁şəxs	-8.82278
▁XX	-8.8238
▁qalan	-8.82815
niversiteti	-8.82827
▁sonralar	-8.8351
saylı	-8.83513
ənkəran	-8.83972
▁dövrün	-8.84244
▁lazımdır	-8.84342
▁ingilis	-8.84396
▁hissəsini	-8.84451
▁bərpa	-8.84632
mağa	-8.84846
ürcüstan	-8.85359
▁çayını	-8.85581
▁əsrlərdə	-8.85586
▁kişi	-8.85613
▁verilir	-8.86007
▁E	-8.86173
▁tutur	-8.86346
▁biz	-8.86365
▁Birinci	-8.86504
▁ibn	-8.86515
▁keçir	-8.86523
▁məntəqəsi	-8.86577
▁deyilir	-8.86633
▁100	-8.87258
▁yazıçı	-8.8741
▁qeyri	-8.87412
▁kino	-8.87653
▁görülmüşdü	-8.87741
▁Ağ	-8.87756
▁Nizami	-8.87796
▁əsərləri	-8.88028
▁hakimiyyət	-8.88083
▁hava	-8.88088
▁təsiri	-8.88201
▁bilir	-8.88497
at	-8.88661
ət	-8.88887
sa	-8.88928
▁Qızıl	-8.89005
ma	-8.89064
▁artisti	-8.89173
▁cəhət	-8.89458
▁sənaye	-8.8946
▁qarşısında	-8.89544
▁vardı	-8.89563
▁şərq	-8.89573
▁ərazidə	-8.89614
▁bəhs	-8.89798
▁rəhbərliyi	-8.89945
▁Onları	-8.89974
▁Məsələn	-8.90046
▁növ	-8.90067
▁fars	-8.90214
▁Quba	-8.90246
ş	-8.90557
▁başlay	-8.90578
▁24	-8.90582
▁İrəvan	-8.90819
yi	-8.91303
▁III	-8.91451
▁lazım	-8.91494
▁Qədim	-8.91504
▁keçən	-8.91624
▁özündə	-8.91716
siz	-8.91806
▁alan	-8.91846
▁çay	-8.91854
▁açıq	-8.91868
▁işıq	-8.92036
▁Bəzi	-8.92119
▁mükafatı	-8.92235
▁təmsil	-8.92399
▁2-	-8.92474
▁sahib	-8.92508
▁paytaxtı	-8.92597
▁tərk	-8.92712
▁şey	-8.92865
▁1993-	-8.92894
▁Əsas	-8.92951
▁Bununla	-8.93015
▁əsəri	-8.93062
▁vermişdir	-8.93232
▁içərisində	-8.93291
zadə	-8.934
▁Şeyx	-8.93417
▁prezidenti	-8.93476
▁nisbət	-8.93529
▁torpaq	-8.93576
▁1-	-8.93775
▁ticarət	-8.93798
▁cavab	-8.93806
▁müsəlman	-8.94178
▁verilmişdi	-8.94249
▁Təbriz	-8.944
sında	-8.94427
▁fəxr	-8.94668
▁dəfn	-8.94786
▁əsrlər	-8.94815
▁işlər	-8.94819
▁Kür	-8.94981
ltif	-8.94998
▁nəticə	-8.95048
luq	-8.95118
▁qərarı	-8.9513
▁Prezidenti	-8.95239
▁ordusu	-8.9543
▁adlanır	-8.95565
▁Heydər	-8.95572
▁çıxan	-8.95579
▁göstərən	-8.95621
▁tərcümə	-8.95676
▁professor	-8.95705
▁mahnı	-8.95873
▁tələb	-8.96032
▁müşahidə	-8.96082
▁2005-	-8.96398
▁ener	-8.96438
▁özünə	-8.96441
▁mədəni	-8.96453
▁uğur	-8.96511
▁sosial	-8.96563
▁alman	-8.96616
▁həbs	-8.96698
▁yazdığı	-8.96739
▁Asiya	-8.96761
▁ağ	-8.96777
▁N	-8.9686
▁əvvəlki	-8.96955
▁Şirvan	-8.97008
▁kitab	-8.9707
▁vacib	-8.97095
▁dil	-8.97189
▁kütlə	-8.97222
▁on	-8.97394
▁yuxarı	-8.97395
▁mərkəzində	-8.97446
▁elmləri	-8.97449
▁boyu	-8.97495
▁26	-8.9755
▁dair	-8.97745
▁Re	-8.9802
▁işi	-8.98033
▁nəzərə	-8.98083
▁Yusif	-8.98104
▁Şəki	-8.98511
▁daim	-8.98563
▁bitki	-8.98621
▁bəzən	-8.98626
▁21	-8.9865
▁Britaniya	-8.98986
▁səs	-8.99078
▁1991-	-8.9919
▁müdiri	-8.99263
▁2008-	-8.99391
▁xəbər	-8.99628
▁Mədəniyyət	-8.997
▁2000-	-8.99771
▁23	-8.99792
▁2006-	-8.99849
▁adam	-9.00093
▁qol	-9.00095
▁mən	-9.00121
▁Nazirliyi	-9.00223
ç	-9.00264
▁saat	-9.00388
▁insanların	-9.00606
▁1990-	-9.00689
▁memarlıq	-9.0078
▁Eyni	-9.00841
▁adlandırılmışdı	-9.0086
▁edirdilər	-9.01007
▁br	-9.01055
▁aldı	-9.01074
▁bağlıdır	-9.01159
▁əl	-9.01497
▁verdiyi	-9.01536
▁Mən	-9.01542
▁Şurası	-9.01555
▁təsdiq	-9.01625
▁uğrunda	-9.01698
▁müavini	-9.01893
▁19	-9.01918
qca	-9.02381
▁əhalisini	-9.02434
▁dövlətin	-9.02479
▁təklif	-9.02518
▁bunun	-9.02535
▁aşağıdakı	-9.02719
▁azərbaycanlı	-9.02803
▁məhv	-9.02846
▁bunlar	-9.02955
▁28	-9.03256
▁yaradılması	-9.034
▁etdirir	-9.03407
▁Şamaxı	-9.0348
▁çalışır	-9.03524
▁Mahnı	-9.03564
▁respublika	-9.03821
▁onda	-9.03834
▁Teatrın	-9.04033
▁fəal	-9.04359
▁əsasını	-9.04784
▁Digər	-9.04822
▁içində	-9.04891
▁məlumatlar	-9.04928
▁tədris	-9.05132
▁adları	-9.05133
▁siyahısı	-9.05321
▁gedən	-9.05552
▁yaradılmış	-9.05571
▁Məmmədov	-9.05692
▁oyun	-9.05801
▁22	-9.05889
▁qərb	-9.05958
dakı	-9.06179
▁dəmir	-9.06193
▁2007-	-9.06213
▁qalası	-9.06253
h	-9.0632
▁həmişə	-9.06375
▁hal	-9.06423
▁növbə	-9.06609
▁50	-9.06664
▁naziri	-9.06706
▁daxildir	-9.06781
▁yaradır	-9.06861
▁Misir	-9.06881
▁Bunun	-9.06961
▁mənasında	-9.07061
▁beş	-9.0709
▁Süleyman	-9.0733
▁çalışmışdı	-9.07698
abad	-9.07853
▁dərs	-9.07879
▁qaz	-9.07932
▁İncəsənət	-9.07945
▁hissə	-9.07951
▁doktoru	-9.08137
▁tərəf	-9.08173
▁ermənilər	-9.08191
c	-9.0834
▁filmləri	-9.08418
▁fəaliyyətini	-9.08438
▁fikir	-9.08536
▁uzunluğu	-9.0862
▁İngiltərə	-9.08746
▁29	-9.08817
▁səbəbi	-9.08968
▁idman	-9.09068
ünk	-9.09107
▁1918-	-9.09138
▁yunan	-9.09172
▁istehsalı	-9.09176
▁əsərində	-9.094
▁təsadüf	-9.09491
▁Qərbi	-9.09521
▁sol	-9.09615
▁dənizi	-9.09729
içik	-9.10029
▁izah	-9.10155
▁Teymur	-9.10162
▁həll	-9.10232
▁Paşa	-9.10272
ar	-9.10463
əli	-9.10563
▁müraciət	-9.10607
▁sənət	-9.10614
▁məruz	-9.10795
▁sübut	-9.10837
▁olunurdu	-9.10841
▁Dram	-9.10979
▁fransız	-9.11095
▁kitabı	-9.11097
▁Və	-9.11117
▁Şərqi	-9.11145
▁Kəndi	-9.11261
▁yaradılmışdı	-9.11463
▁dərin	-9.11472
▁necə	-9.11583
▁düşür	-9.1167
▁kəs	-9.11715
▁fikrin	-9.11778
▁üzü	-9.11858
▁Məmməd	-9.12
▁sonunda	-9.12139
▁çıxır	-9.12204
▁əksəriyyəti	-9.12205
▁pul	-9.12366
▁rolu	-9.12485
▁diqqət	-9.12546
▁televiziya	-9.12664
▁Respublika	-9.12681
▁Elə	-9.12799
▁üçüncü	-9.12885
▁aydın	-9.12888
▁bunu	-9.12911
▁insanı	-9.12945
▁qan	-9.12951
yyətlə	-9.12956
▁çəkilmiş	-9.12971
▁alim	-9.12978
▁1980	-9.13035
▁əvəz	-9.13037
▁anası	-9.13155
ib	-9.13232
▁Son	-9.13291
▁ədəbiyyat	-9.13312
▁hakim	-9.13373
▁ətraf	-9.13396
▁Musiqi	-9.13614
▁1920-	-9.13631
▁üstün	-9.13671
▁Mustafa	-9.13705
▁vermiş	-9.13729
hazırd	-9.13764
▁üstündə	-9.13774
ü	-9.13786
▁dövr	-9.13827
▁de	-9.13838
kdən	-9.13885
▁klubu	-9.13925
▁27	-9.13937
3	-9.13993
▁sahibi	-9.14149
▁illərin	-9.14235
▁qələbə	-9.14247
▁40	-9.14273
▁Əmir	-9.14298
▁Rayon	-9.14404
▁indi	-9.14455
▁rəhbəri	-9.14538
▁Müqəddə	-9.14707
▁hadisə	-9.14764
▁Ay	-9.14764
▁İtaliya	-9.14806
▁yeg	-9.14922
▁qalır	-9.15016
▁ailəsi	-9.15281
▁qrupu	-9.15293
▁dəvət	-9.15327
▁sülh	-9.15344
▁məktəbində	-9.15348
▁hakimi	-9.15483
▁bitiri	-9.15622
▁əmək	-9.15957
▁sayılır	-9.16082
▁Avroviziya	-9.16218
əm	-9.16272
▁hə	-9.1632
▁tabe	-9.16328
▁şairi	-9.16548
▁Seyid	-9.16565
tez	-9.16593
▁şəxsi	-9.16682
▁qalib	-9.16816
▁Cəfər	-9.16874
▁məktəbini	-9.16893
v	-9.1695
▁Hal	-9.17217
▁Ağa	-9.17218
▁ha	-9.1741
▁aiddir	-9.17494
▁keçirilir	-9.17533
mişdir	-9.17722
▁2004-	-9.1782
▁azərbaycanlılar	-9.17892
▁əməkda	-9.17957
▁qoşunları	-9.18064
▁əvvəlcə	-9.18351
▁000	-9.18501
▁ölkələrdə	-9.18714
▁başçısı	-9.18951
▁hazırlanmış	-9.19037
▁bizim	-9.19128
▁Rus	-9.19203
▁məcbur	-9.19231
▁tanış	-9.19261
▁hesabı	-9.19262
▁ordu	-9.19411
▁ordusunu	-9.19515
▁köməyi	-9.19533
ayət	-9.1978
çi	-9.19803
▁incəsənət	-9.19816
▁bitirmişdi	-9.2017
▁tipli	-9.20354
▁üzv	-9.20406
▁maraqlı	-9.20406
▁yaşamış	-9.20458
▁Qüvvələri	-9.20552
▁isti	-9.20787
anə	-9.2107
▁İstanbul	-9.21087
▁sıx	-9.21363
▁sovet	-9.21373
▁ədəbiyyatı	-9.21403
▁aparıla	-9.21464
▁yazılmış	-9.21491
▁başlayıb	-9.21536
▁icra	-9.21659
▁ölümündə	-9.21785
film	-9.21814
▁birində	-9.21894
▁forması	-9.21956
▁qırmızı	-9.2197
▁ləğv	-9.22068
▁Ağdam	-9.22122
▁xadimi	-9.22124
▁Olimpi	-9.22145
▁yay	-9.22362
▁yenə	-9.22416
ox	-9.22467
▁dəqiq	-9.22472
▁Əhali	-9.22476
▁teatrın	-9.22583
▁ana	-9.22673
▁almış	-9.22674
▁yayılmışdı	-9.22724
qətlə	-9.22925
▁verilmiş	-9.23012
▁Muxtar	-9.23225
▁işləmişdi	-9.23228
▁elektrik	-9.23251
▁gəlmişdi	-9.23319
▁yaranmışdı	-9.23326
▁2002-	-9.23567
▁hallarda	-9.23653
ağa	-9.23655
▁v	-9.23686
▁0	-9.23728
▁məna	-9.23822
▁tibb	-9.23927
▁rəhbərli	-9.24078
▁çoxu	-9.24179
▁işçi	-9.24264
▁Şəhər	-9.24309
▁gecə	-9.24339
liyi	-9.24391
▁2003-	-9.24529
▁Molla	-9.24602
▁əsər	-9.2461
▁quru	-9.24764
▁XVIII	-9.2482
▁keçirilmiş	-9.24884
or	-9.24887
rc	-9.24991
zun	-9.2522
▁tərkibin	-9.25271
▁qız	-9.25314
▁2010-	-9.25315
▁nail	-9.25365
▁üz	-9.25555
▁Silah	-9.25572
▁yerində	-9.25603
▁vəziyyət	-9.25607
▁deyə	-9.25609
▁qalmış	-9.25632
▁informasiya	-9.25708
▁növləri	-9.25726
▁şəhərini	-9.26015
▁Akademiyasını	-9.26034
il	-9.26119
▁yaşlı	-9.26414
adlı	-9.26466
birinə	-9.26506
▁gətirir	-9.26508
▁sm	-9.26585
ün	-9.26673
▁tayfa	-9.26838
▁qayda	-9.26967
▁gedir	-9.26976
əgər	-9.27293
▁maddi	-9.27355
st	-9.27374
▁qəzeti	-9.27394
miş	-9.27397
▁nümayiş	-9.27484
▁müvafiq	-9.27486
▁alınmışdı	-9.27588
▁ad	-9.276
▁üstünlük	-9.27604
ayəsində	-9.27742
▁bildirir	-9.27871
▁Elmlər	-9.28109
▁amma	-9.28138
▁deyir	-9.28243
2	-9.28254
▁müalicə	-9.28307
▁göz	-9.28655
▁qazandı	-9.28934
▁mürəkkəb	-9.28975
▁başlayan	-9.2898
▁daşıyır	-9.29076
▁xanı	-9.29273
sə	-9.29312
▁Avropada	-9.29316
▁göstərmişdi	-9.29341
▁dillərində	-9.29388
▁öncə	-9.29703
▁hökmdarı	-9.30068
▁çıxdı	-9.30186
▁direktoru	-9.30197
▁coğrafi	-9.30377
▁çünk	-9.30725
lak	-9.30819
▁3-	-9.30897
▁İttifaqı	-9.30937
▁Mir	-9.31122
▁Soveti	-9.31187
▁rəngli	-9.31217
▁dövrünü	-9.31286
▁Məh	-9.31327
nunun	-9.31423
▁kənddə	-9.31499
▁komandası	-9.31554
▁məktəbin	-9.31566
▁Araz	-9.31574
er	-9.31782
▁fakültəsini	-9.31861
▁Fətəli	-9.31896
▁hüquq	-9.32019
▁əsl	-9.32227
▁dövlətini	-9.32237
▁olduğundan	-9.3226
qdan	-9.32264
ların	-9.32371
▁yoldaşı	-9.32516
▁qəsəbə	-9.32643
▁rəhbər	-9.32652
çilik	-9.32679
▁qolu	-9.32708
▁cəmi	-9.32741
▁yardım	-9.33208
▁etn	-9.33272
ayrı	-9.33301
▁qaldı	-9.33379
▁qabaq	-9.33386
▁nümayəndələri	-9.33402
▁maliyyə	-9.33464
▁sahədə	-9.33501
▁altı	-9.33513
▁istiqamətində	-9.33544
lan	-9.33663
▁səhnə	-9.33754
▁boyunca	-9.33825
▁əhəmiyyət	-9.34018
▁hüququ	-9.34105
▁yaradıcılığı	-9.34151
▁hadisələr	-9.34161
▁yaratmışdı	-9.34423
▁arxeolo	-9.34437
▁klassik	-9.34503
▁İki	-9.34635
▁komanda	-9.34636
▁ailəsində	-9.34745
▁avtomobil	-9.34769
▁fiziki	-9.34841
▁qüvvələri	-9.34913
▁Aşağı	-9.34957
▁ədəd	-9.34958
▁Ərəb	-9.35132
▁qalmışdı	-9.35185
▁mənşəli	-9.35242
▁köhnə	-9.35275
▁Moskvada	-9.35388
▁yeddi	-9.35522
▁mümkündür	-9.35573
▁Mahmud	-9.35672
mış	-9.35798
▁1999-	-9.3599
▁vaxtı	-9.35995
▁təqrib	-9.36017
▁qələm	-9.3602
▁dərəcə	-9.36174
▁yaranmış	-9.36176
▁daxilində	-9.36324
▁ortaya	-9.3633
▁hökuməti	-9.36347
▁oyunda	-9.36409
▁yerlərdə	-9.36511
▁məscid	-9.36551
▁şərait	-9.3659
▁Afrika	-9.366
▁üzvləri	-9.36633
▁Qırmızı	-9.36635
▁çətin	-9.36663
▁31	-9.36705
▁ala	-9.36808
▁mədəniyyəti	-9.36852
du	-9.36882
▁Bunlar	-9.37093
▁2001-	-9.37123
▁müddətdə	-9.37125
▁texniki	-9.37135
▁qəzet	-9.37217
▁Füzuli	-9.3751
▁ölüm	-9.37521
▁yazmışdı	-9.37694
▁Nadir	-9.3775
▁2013-	-9.37903
▁hiss	-9.38033
▁sahə	-9.38067
▁qarşısını	-9.38121
▁Tiflis	-9.38138
▁ordeni	-9.38164
▁Qərb	-9.38209
▁prezident	-9.38265
▁Cəlil	-9.38266
▁yanın	-9.38475
▁ardın	-9.38593
▁göstərmiş	-9.38668
▁verilən	-9.38799
▁quruluşu	-9.38908
▁2012-	-9.38976
▁olurdu	-9.39115
▁elmlər	-9.39148
▁sonuna	-9.39219
lkə	-9.39237
▁göstərmək	-9.39276
▁yaranması	-9.39345
iya	-9.39371
▁xalqın	-9.39374
▁təsis	-9.39414
▁İranda	-9.39425
▁heyvan	-9.39724
▁mm	-9.39753
▁yayılmış	-9.39819
▁dərəcədə	-9.39983
ur	-9.4009
belə	-9.40108
▁saray	-9.40246
▁vermək	-9.40272
▁şəxslər	-9.40386
▁yaşadığı	-9.40418
iyyə	-9.40448
▁tutan	-9.40516
▁İspaniya	-9.40541
▁Abşeron	-9.40559
▁din	-9.40829
▁sahələri	-9.40879
▁uzaq	-9.41171
sız	-9.41174
▁Qazax	-9.41225
1	-9.41281
▁yazırdı	-9.4131
▁quruluş	-9.41338
▁şəhərdə	-9.4135
▁Biz	-9.41365
▁kilsə	-9.41537
▁dilini	-9.4159
▁general	-9.41687
▁keçirdi	-9.4174
▁final	-9.41753
▁onlardan	-9.41789
▁2011-	-9.41825
▁etdirə	-9.41888
▁Neft	-9.4194
▁miqdar	-9.41955
▁ölkələrin	-9.42102
▁çalışıb	-9.42136
▁katibi	-9.42172
▁sürətlə	-9.42255
▁həyatını	-9.4239
el	-9.4254
▁keçdi	-9.42561
▁Erməni	-9.4261
▁y	-9.42663
niversitetində	-9.42748
▁tələbə	-9.42797
▁müğənni	-9.42852
▁qiymətli	-9.42897
▁Türkiyədə	-9.42938
▁dairəsi	-9.42956
▁qadınlar	-9.42992
▁edilirdi	-9.43082
maq	-9.43162
▁etdirmişdi	-9.43176
▁səviyyəsində	-9.43177
▁həyatında	-9.43189
▁Paris	-9.43431
▁Sumqayıt	-9.43459
▁tikinti	-9.43556
▁vaxtda	-9.43676
▁olsun	-9.43683
▁olmasını	-9.43703
aqafqaziya	-9.43726
▁sistemini	-9.43763
▁Cavanşir	-9.43823
▁aparılmış	-9.43838
▁etməklə	-9.43988
▁IV	-9.4399
▁Elmi	-9.44013
▁mənim	-9.44017
aşayış	-9.44022
▁zəif	-9.44083
im	-9.44094
▁vəziyyətdə	-9.44116
ini	-9.44217
▁bölünür	-9.44449
▁inkişafında	-9.44474
▁dağlıq	-9.44516
▁Hüseynov	-9.44567
▁Qafqazda	-9.44649
▁təkrar	-9.44702
▁sözünü	-9.44759
▁mənbələrdə	-9.44785
maz	-9.44787
▁müqayisə	-9.448
▁qida	-9.44849
▁at	-9.44934
▁düşmən	-9.44941
▁tikilmiş	-9.44942
▁20-	-9.44978
▁Vətən	-9.45081
▁1988-	-9.45134
8	-9.45176
▁redaktoru	-9.45185
▁tarixdə	-9.45196
▁Avstriya	-9.45206
▁Oykonim	-9.45206
▁meşə	-9.45529
▁yazı	-9.45552
▁dövrlərdə	-9.4562
▁iddia	-9.45639
▁göstərilir	-9.45703
▁mətbuat	-9.45758
▁səbəbdən	-9.45815
▁Birliyini	-9.45846
▁vəzifəsinə	-9.45979
▁kəşf	-9.46015
▁Əbu	-9.4604
▁fəlsəfə	-9.46048
lü	-9.46053
yev	-9.46075
▁Hərbi	-9.46088
▁sayıla	-9.46188
▁haqda	-9.463
▁bitirdi	-9.46385
▁1998-	-9.46386
▁sözləri	-9.46452
başa	-9.46505
▁İsgəndər	-9.46535
▁ölkələrində	-9.46616
▁Kənddə	-9.46639
▁yolunu	-9.46647
▁tədqiqat	-9.46849
▁İnstitutu	-9.46863
ad	-9.46936
▁Aşıq	-9.46985
▁keçirir	-9.47077
▁p	-9.47151
▁rayonun	-9.47184
▁60	-9.4719
ənc	-9.47263
▁hökumət	-9.47295
▁artır	-9.47316
▁qalıqları	-9.47403
▁əlində	-9.47445
ondan	-9.4766
▁müəllimi	-9.47761
▁1994-	-9.47802
lığı	-9.47819
▁yaratmaq	-9.47826
▁ortalarında	-9.47832
▁edilmişdi	-9.47908
▁əsrə	-9.47926
▁ulduz	-9.47935
▁Müasir	-9.48235
▁sonuncu	-9.48242
▁Bizans	-9.48375
▁tərtib	-9.48378
▁Az	-9.48418
▁kəndləri	-9.48458
▁1960-	-9.48516
▁müqavilə	-9.48551
7	-9.48609
▁çatır	-9.48637
▁gizli	-9.48656
▁vahid	-9.48735
▁imti	-9.48796
▁evi	-9.48816
▁ağac	-9.49006
▁adi	-9.49192
▁miqdarı	-9.49263
ənəvi	-9.49399
▁aktyoru	-9.49549
krayna	-9.49576
▁vəziyyəti	-9.49654
▁1970-	-9.49968
▁tamaşa	-9.50108
▁xətti	-9.50131
▁qar	-9.50157
▁Hindistan	-9.50216
▁No	-9.50238
▁Yazıçılar	-9.5027
▁Atası	-9.5033
▁kitabında	-9.50405
▁mərkəz	-9.50438
▁ehtimal	-9.5045
▁heyvandarlıq	-9.50498
▁nüfuz	-9.50639
▁qanun	-9.50656
▁sistem	-9.50703
▁qarşılıq	-9.50736
▁xalça	-9.50992
▁tanın	-9.51038
▁iqlim	-9.51216
▁müqəddəs	-9.51358
▁Axundov	-9.51365
öy	-9.51395
▁kəskin	-9.51448
▁görür	-9.51499
▁abidə	-9.5151
▁ölkələr	-9.51558
▁mis	-9.51655
▁çıxmış	-9.51682
▁şirkəti	-9.51698
▁maraq	-9.51866
▁partiya	-9.51878
▁mənası	-9.51911
▁Mehdi	-9.51931
▁1930	-9.51935
işə	-9.51946
tiv	-9.52014
▁dedi	-9.52048
▁işləyi	-9.52125
▁XVI	-9.52128
▁surət	-9.52189
▁əsası	-9.52206
EFA	-9.52227
x	-9.52389
▁2014-	-9.52496
▁mənsub	-9.52594
▁başlıca	-9.52666
▁əksər	-9.5269
▁bilmir	-9.52813
▁sərbəst	-9.52819
▁Qeyd	-9.5296
▁sənədl	-9.5297
▁elektron	-9.52981
▁yüz	-9.52991
irləşmiş	-9.53
▁aldığı	-9.53009
▁şərəfin	-9.53011
▁güm	-9.53211
▁gətiri	-9.53386
▁İnstitutunda	-9.53389
▁Hacıbəyov	-9.53408
▁nadir	-9.53689
▁Bərdə	-9.53692
▁Qəbələ	-9.53988
▁qismi	-9.53992
▁icazə	-9.54073
am	-9.54241
larında	-9.54254
mək	-9.54294
▁müharibəsində	-9.54362
▁əsərlərini	-9.54437
▁200	-9.54459
▁2015-	-9.5448
▁əsərlər	-9.54507
▁gəlinir	-9.54517
▁Tofiq	-9.54581
▁verib	-9.54593
▁Nəticə	-9.5473
▁adətə	-9.54744
▁Komitəsini	-9.54774
indən	-9.54869
▁deyildi	-9.54877
▁nəzdində	-9.5488
▁mövzusunda	-9.54913
▁Rza	-9.55029
imi	-9.55111
5	-9.55128
▁deyildir	-9.55145
▁silahlı	-9.55148
▁Məşə	-9.55179
▁aparıcı	-9.55204
um	-9.55228
▁yaradıcılıq	-9.55239
▁canlı	-9.55254
▁məktəbdə	-9.55261
▁tədqiqatlar	-9.55359
▁nəzarət	-9.55436
▁El	-9.55513
▁düz	-9.55515
▁kəndindən	-9.55546
it	-9.55677
▁Nobel	-9.55781
▁möhkəm	-9.55884
▁1919-	-9.55904
0	-9.55936
▁mühəndis	-9.56088
▁əsir	-9.5616
▁parlaq	-9.56165
▁qış	-9.562
▁seçilir	-9.56207
▁forma	-9.56304
▁əlaqə	-9.56366
▁adından	-9.56396
▁tanınır	-9.56412
ran	-9.56425
▁qüvvə	-9.56437
▁ömrünü	-9.56553
▁uşaqlar	-9.56571
▁sultan	-9.56612
▁4-	-9.56688
▁etdikdə	-9.56748
▁mənəvi	-9.56848
▁təbiət	-9.57066
▁apara	-9.57113
▁q	-9.57415
▁nəticəsi	-9.57518
▁kifayət	-9.57601
▁düşən	-9.57625
▁bura	-9.57664
▁rəisi	-9.57677
▁no	-9.57725
issoru	-9.57743
▁Kanada	-9.57766
▁xristian	-9.57845
▁İsa	-9.5785
▁söhbət	-9.57976
▁alban	-9.58089
▁olduqda	-9.58146
▁çəkilə	-9.58212
▁keçirilməsi	-9.5823
▁əmr	-9.58481
▁dəstə	-9.58518
▁nümayəndəsi	-9.58606
▁Albaniya	-9.58622
▁iştirakı	-9.58775
▁1989-	-9.58889
▁tədqiq	-9.589
is	-9.58923
▁hamısı	-9.58991
▁Yaponiya	-9.59025
▁Quliyev	-9.59152
▁məscidi	-9.59185
▁hissədə	-9.59225
▁Xaric	-9.59313
▁mahnısı	-9.5935
▁cəmiyyətin	-9.59359
▁məsələn	-9.59445
▁Əməkda	-9.59461
▁mirzə	-9.59611
▁olacaq	-9.59621
aradan	-9.59679
▁hazırlanması	-9.59709
▁etdikləri	-9.59725
iki	-9.59765
▁dəqiqə	-9.59894
▁bəstəkar	-9.59922
▁İsveç	-9.59929
▁Cəbrayıl	-9.59934
▁Səfəvilər	-9.59944
▁nümunələri	-9.59976
▁rolunu	-9.60167
▁kilometr	-9.60249
▁Cabbarlı	-9.60284
▁tətbiqi	-9.60363
▁Yuxarı	-9.60377
▁prosesi	-9.60399
▁Azad	-9.60497
▁səkkiz	-9.60565
▁doğma	-9.60569
▁rəng	-9.60654
▁seçilmişdi	-9.60738
▁Əvvəl	-9.60827
▁30-	-9.60841
▁1995-	-9.6085
▁göndərdi	-9.6089
▁çevrilir	-9.61042
▁gəlməsi	-9.61152
▁taxta	-9.61264
▁Musa	-9.61264
dilli	-9.61604
▁verirdi	-9.61656
▁Qala	-9.61692
▁internet	-9.61855
▁1997-	-9.6188
▁maddə	-9.61911
▁yaratdı	-9.61981
▁İnsan	-9.6203
▁birini	-9.62037
▁soyuq	-9.62069
▁Xan	-9.62136
ay	-9.62243
▁laureatı	-9.62328
▁etsə	-9.62353
ması	-9.62384
▁çar	-9.62416
▁klub	-9.62452
▁Alban	-9.62472
▁1945	-9.62489
▁bilən	-9.62513
▁təsviri	-9.6257
▁yarım	-9.62652
▁bəyi	-9.62679
lərindən	-9.62679
▁bil	-9.62711
▁həftə	-9.62815
▁proqram	-9.62849
▁sonlarında	-9.62878
▁İsrail	-9.62965
▁mənasını	-9.62988
▁yaratdığı	-9.62988
▁yaşı	-9.63076
▁övladı	-9.6313
▁Təhsil	-9.63298
▁ərazilərdə	-9.6334
açın	-9.63405
▁Su	-9.63438
▁İbn	-9.63439
▁görünür	-9.63449
▁akademik	-9.63452
▁formul	-9.63452
▁məsələ	-9.63468
▁1974	-9.63615
▁düzgün	-9.63618
▁gələcək	-9.63648
▁Nazir	-9.63648
▁təşkilat	-9.63772
▁İndi	-9.63884
▁namizəd	-9.63901
▁xarakteri	-9.63914
▁1972	-9.63943
▁yarısında	-9.6404
▁yaranan	-9.64095
▁əvvəllər	-9.64096
▁həkim	-9.64232
▁gürcü	-9.64288
▁Nyu	-9.64304
zə	-9.6451
ylə	-9.6451
et	-9.64512
▁səfər	-9.64622
6	-9.64632
▁asan	-9.64643
▁Dəniz	-9.64655
▁1981	-9.64676
▁xanlığı	-9.64798
▁xilas	-9.64853
▁binası	-9.64867
▁Onu	-9.64969
▁üst	-9.6502
▁Osman	-9.65121
aylarında	-9.65189
en	-9.65201
▁şöbə	-9.65246
▁ürək	-9.6526
▁əsərlərində	-9.65274
▁atəş	-9.65331
▁üsyan	-9.65344
▁xəlifə	-9.65424
▁tarixinə	-9.65425
▁sistemində	-9.65622
▁qazana	-9.65635
▁1996-	-9.65647
▁çalışan	-9.65812
▁əməliyyat	-9.65829
▁1967	-9.65923
▁Ədəbiyyat	-9.65941
▁bilmədi	-9.65987
on	-9.66016
▁adlandırır	-9.66055
▁metal	-9.661
▁saxlanılır	-9.66146
▁təcrübə	-9.66217
▁ixtisas	-9.66253
▁2016-	-9.66302
▁əkinçilik	-9.66314
▁məhkəmə	-9.66454
▁kitabxana	-9.66475
▁suyun	-9.66514
▁Rusiyada	-9.66571
▁tərkib	-9.66675
▁şeir	-9.66788
▁Allahı	-9.66824
▁alına	-9.66836
sinə	-9.66915
▁1968	-9.66929
▁göstərirdi	-9.66937
▁verilməsi	-9.67049
▁görülü	-9.67171
▁yaranır	-9.67224
siyasi	-9.67276
lərində	-9.67335
▁dilləri	-9.67341
▁sakin	-9.67353
▁XVII	-9.67405
kənd	-9.67411
▁İmam	-9.6744
▁dərəcəsi	-9.67448
▁Yaxın	-9.67452
▁dünyasını	-9.67504
▁qonşu	-9.67537
kən	-9.67587
▁hündürlüyü	-9.67613
▁işləyir	-9.67623
▁Cavad	-9.67727
▁gümüş	-9.67776
▁şahın	-9.67794
▁suyu	-9.67879
▁yerləşdiyi	-9.67883
▁verildi	-9.6789
man	-9.67894
▁həqiq	-9.68094
▁1978	-9.68116
▁məhsulları	-9.68218
▁edilə	-9.68312
▁5-	-9.68348
▁35	-9.68364
▁Teatr	-9.68399
▁1938	-9.68409
▁əmri	-9.68431
mışdır	-9.68505
▁çıxıb	-9.68629
▁çərçivəsində	-9.68634
▁Səfəvi	-9.68678
▁başqaları	-9.68712
▁tayfasını	-9.6874
▁Aleksandr	-9.68763
▁Tibb	-9.688
▁əvvəlində	-9.68913
▁bina	-9.68922
▁vergi	-9.6894
▁Respublikasında	-9.68961
▁Babək	-9.68985
▁çevrilmişdi	-9.69064
▁80	-9.69148
▁nüvə	-9.69185
▁kilsəsi	-9.69206
▁bunları	-9.69245
▁bölgəsində	-9.6926
▁2000	-9.69275
▁əsərin	-9.69351
▁aparılır	-9.69353
▁xüsusiyyətləri	-9.69359
▁Kərim	-9.69393
məsi	-9.69394
▁günəş	-9.69416
▁formada	-9.69437
▁şəkər	-9.69673
rhal	-9.69676
▁bazar	-9.69744
▁etmə	-9.69764
başına	-9.69899
▁qatı	-9.69986
▁etməyi	-9.69993
▁1965	-9.7001
▁silah	-9.70113
▁universitetin	-9.70194
▁hörmət	-9.70405
▁filmində	-9.70461
▁fərqlənir	-9.70543
▁Akademi	-9.70607
▁başlamış	-9.70668
▁tutdu	-9.70704
▁1976	-9.70706
▁ön	-9.70761
▁döyüşdə	-9.70796
▁milyard	-9.70882
▁çəkilmişdi	-9.70946
▁əlverişli	-9.71069
▁Hələ	-9.71317
▁Ya	-9.71479
▁Qacar	-9.7154
▁ölkələri	-9.71568
▁tarixə	-9.71683
▁1959	-9.71762
▁müəllif	-9.71775
▁siyasət	-9.71791
▁Şirin	-9.71796
▁Tarix	-9.71799
▁sənayesi	-9.71913
▁hissələri	-9.71935
▁şimalda	-9.71981
▁seçilmiş	-9.72116
▁cənubda	-9.72173
▁yaşayırdı	-9.72232
▁oynayır	-9.72237
▁Bunlarda	-9.7224
▁Federasiyası	-9.72294
▁ç	-9.72328
▁nəzəriyyəsi	-9.72339
▁erkə	-9.72375
▁Xocalı	-9.72376
▁təsərrüfat	-9.7239
▁oluna	-9.72446
▁əleyhi	-9.72472
▁sakinləri	-9.72532
▁sərhəd	-9.72598
▁orqanı	-9.72711
əslində	-9.72882
▁Rə	-9.72934
▁səsi	-9.72958
çı	-9.72964
▁sənəti	-9.72996
▁sərt	-9.73017
▁universitet	-9.73148
▁tikili	-9.73157
▁Vaqif	-9.73187
mər	-9.73295
▁Sabir	-9.73372
ğa	-9.73419
▁alınması	-9.73453
▁xidməti	-9.73505
▁rəssam	-9.73567
bəri	-9.73669
mə	-9.73677
▁1971	-9.73726
▁düşdü	-9.73729
▁namizədi	-9.73754
▁formasında	-9.73851
çay	-9.73859
▁The	-9.7391
▁Ordubad	-9.73982
▁dollar	-9.74041
▁Rəssam	-9.74087
▁qalibi	-9.74107
▁torpaqları	-9.74176
▁1969	-9.74269
▁Prezident	-9.74274
▁deputat	-9.74319
▁xidmətləri	-9.74348
▁rəqs	-9.74361
▁qismə	-9.74361
▁bilməz	-9.7446
▁Partiyası	-9.7449
p	-9.74541
▁Əmək	-9.74585
▁təhsili	-9.74595
▁real	-9.7472
▁İranı	-9.74724
▁qərbdə	-9.74839
▁kənarda	-9.7492
əksini	-9.74988
▁Ma	-9.75078
▁Con	-9.75079
▁500	-9.75102
▁özünəməxsus	-9.75179
▁nəhəng	-9.75201
▁fizika	-9.75367
▁Qubadlı	-9.75385
▁keç	-9.75409
▁kim	-9.75413
▁səviyyədə	-9.75466
▁Fəxr	-9.75546
▁taxıl	-9.75547
id	-9.75569
▁dəyişir	-9.75591
▁qəzasını	-9.75625
▁çoxsaylı	-9.75923
▁siyasəti	-9.75972
lərin	-9.76003
▁vilayəti	-9.76033
▁Tarixi	-9.7615
▁Rusiyanı	-9.7624
▁Kəlbəcər	-9.76283
▁yerləri	-9.76288
▁2009	-9.76309
▁meyvə	-9.76338
▁tarixçi	-9.76386
▁kənar	-9.7647
▁ver	-9.76531
▁tezliklə	-9.76569
▁günə	-9.76653
▁Başqa	-9.76656
9	-9.76743
▁islam	-9.76768
▁ara	-9.76778
ikən	-9.76807
▁dövrə	-9.76892
▁maddələr	-9.76901
▁alimlər	-9.76941
▁qəza	-9.77009
▁gedib	-9.77032
▁Səlim	-9.77111
▁məlumatın	-9.77165
▁mal	-9.77191
tik	-9.77236
▁fərdi	-9.77275
ül	-9.77305
▁müsbət	-9.774
▁Dağlı	-9.77416
▁çempionu	-9.7742
▁kimyəvi	-9.77521
▁məqalə	-9.77535
▁1917-	-9.77552
▁şərqdə	-9.77652
▁musiqisi	-9.77722
▁dərəcəli	-9.77893
▁problemləri	-9.77899
▁1946	-9.7797
zeyi	-9.77973
▁İttifaqını	-9.78085
▁ve	-9.7816
▁məqsəd	-9.78166
▁üsulu	-9.78202
▁daşıyan	-9.7823
▁1961	-9.78339
▁1940	-9.7834
▁alətləri	-9.78372
▁tibbi	-9.78507
▁mütləq	-9.78532
▁çevrildi	-9.78714
▁fakültəsində	-9.78766
▁Xüsusi	-9.79009
▁aparır	-9.79059
▁əsərini	-9.79075
alnız	-9.79105
▁çəkilir	-9.79129
▁gündən	-9.79222
▁ayı	-9.79389
▁mühasirə	-9.79483
eyli	-9.79712
▁yerini	-9.79756
▁Türkiyəni	-9.7979
▁göstərdiyi	-9.79876
▁bölgə	-9.79947
▁çəkir	-9.79957
▁vermişdi	-9.79983
▁qəzetində	-9.80062
▁yolla	-9.80313
▁çıxmışdı	-9.8037
▁1957	-9.80439
▁vəzifəsini	-9.80529
▁ton	-9.80647
▁önəmli	-9.80689
▁ruslar	-9.80791
▁VII	-9.80824
▁AMEA	-9.80825
▁alt	-9.80838
▁300	-9.80895
▁opera	-9.80934
▁qazanmışdır	-9.80985
▁Cekson	-9.8102
▁ətəyində	-9.81027
▁hazırlanır	-9.81049
lük	-9.81153
arası	-9.81162
▁ehtiyat	-9.81261
▁komandanı	-9.81376
▁1966	-9.81408
▁xalqı	-9.81416
▁keçirmək	-9.81524
▁tənqid	-9.81573
▁vəzifələrində	-9.81584
▁İlham	-9.81603
onlarla	-9.81709
▁müqaviləsi	-9.81773
▁yanvarın	-9.818
▁ayrılır	-9.81806
▁heyəti	-9.81925
▁yaradıldı	-9.81976
▁1963	-9.81994
▁çatdı	-9.82031
▁sənəd	-9.82138
▁hündür	-9.8216
▁sonu	-9.82285
sən	-9.8231
▁əlaqələr	-9.82354
▁tərkibi	-9.8238
▁işləyən	-9.82578
▁1958	-9.82583
▁xalqını	-9.82634
bəyli	-9.82678
▁xüsus	-9.82736
▁1956	-9.8278
▁şöhrət	-9.82798
▁Filmdə	-9.82823
▁Xaç	-9.8284
luğu	-9.82877
▁kompüter	-9.82899
▁şöbəsini	-9.82978
uş	-9.83014
▁müsabiqə	-9.83047
▁gil	-9.8305
rtıq	-9.83068
▁təşkilatı	-9.83127
▁muğam	-9.8317
▁olmur	-9.83176
▁tədbirlər	-9.83297
▁1937-	-9.83322
▁alimi	-9.83381
4	-9.83433
üxtəlif	-9.83479
ondon	-9.83563
▁Arif	-9.83573
▁XIII	-9.83604
▁yurdu	-9.83694
▁Komitəsi	-9.83926
▁sözlər	-9.83931
▁vuru	-9.83949
▁temperatur	-9.83969
▁əməkdaşlıq	-9.83986
▁Polşa	-9.83986
▁70	-9.84044
urnalist	-9.84068
▁Səməd	-9.84085
▁seçki	-9.84111
▁yəhudi	-9.84147
▁albomu	-9.84201
▁İraq	-9.84205
▁özlərini	-9.84208
▁daşı	-9.84227
▁kütləsi	-9.84271
▁balıq	-9.84303
▁tapmışdı	-9.84365
▁kosm	-9.84503
▁qoydu	-9.84575
▁danışır	-9.84578
▁qazıntılar	-9.84586
▁Muğan	-9.84591
▁keçirdiyi	-9.84605
▁top	-9.84728
▁edildiyi	-9.84758
▁1964	-9.84774
▁olmaz	-9.84793
▁Akademiyası	-9.84876
▁Ad	-9.84921
▁mənə	-9.84962
▁sahələrində	-9.84999
▁dəstəsi	-9.85052
▁poçt	-9.85131
qqəti	-9.85155
▁redaktor	-9.85211
▁məsələləri	-9.85224
▁ata	-9.8524
▁tayfaları	-9.85242
▁Kuboku	-9.8534
▁bədən	-9.85354
▁Qarabağda	-9.85371
▁Cümhuriyyəti	-9.85441
▁sahil	-9.85468
▁Birliyi	-9.85482
▁getdi	-9.85492
▁Şair	-9.85584
▁1944	-9.85589
▁ml	-9.85698
▁Məclisin	-9.85701
▁proqramı	-9.85706
▁Əhalisi	-9.85748
▁mərhələ	-9.85763
▁başçılığı	-9.85841
▁üzündə	-9.85885
▁sərkərdə	-9.85983
▁2018	-9.86014
▁qoyulmuşdu	-9.86024
▁altın	-9.86031
▁dəyişikliklər	-9.86055
▁Braziliya	-9.86069
▁Əl	-9.86157
▁göy	-9.86168
▁oynamışdı	-9.86196
▁orqanları	-9.86197
▁təbəqə	-9.86236
▁Mehmed	-9.86241
▁yaz	-9.86244
▁şöbəsin	-9.8628
▁divarları	-9.86342
▁Rüstəm	-9.86349
gah	-9.86356
▁filmlərini	-9.86364
▁edəcək	-9.86407
▁Almaniyada	-9.86434
▁ailələr	-9.86443
▁Mariya	-9.86451
▁yaradıla	-9.86498
▁Xəlil	-9.86546
▁ş	-9.86623
▁işləmiş	-9.86748
▁təqvimi	-9.86753
▁can	-9.86763
larını	-9.86819
birində	-9.86819
▁misal	-9.86856
▁çalışırdı	-9.86898
▁1921	-9.86979
▁latın	-9.87032
▁kimya	-9.87081
▁Murad	-9.87147
▁mükafat	-9.87333
▁yaşlarında	-9.87379
▁əvəzin	-9.87409
▁vaxtlar	-9.87448
▁parlament	-9.87492
▁inqilab	-9.87509
▁1950-	-9.87608
▁pis	-9.87646
▁Asiyada	-9.87696
▁dəyişdiril	-9.87756
▁bəziləri	-9.8782
▁ermənilərin	-9.87866
▁Bunu	-9.87883
▁Nəh	-9.87892
▁kompleksi	-9.8792
▁qalasını	-9.87946
▁əlaqələri	-9.88001
▁azadlıq	-9.88025
▁Anadolu	-9.88042
▁qoymuşdu	-9.88111
▁məsələlər	-9.88252
▁dekabrın	-9.88317
▁mərhələsində	-9.88385
▁Yay	-9.88423
▁XV	-9.88428
▁kon	-9.88479
▁giriş	-9.88486
▁Qaradağ	-9.88513
▁Bizi	-9.88535
▁münasibəti	-9.88586
▁adamlar	-9.88622
▁olmadığı	-9.88651
▁tədric	-9.88676
▁təmiz	-9.88689
▁indiyə	-9.88739
▁tip	-9.88799
▁dram	-9.88846
▁müxbir	-9.88906
▁yetirmiş	-9.88988
▁ərazisini	-9.89131
etra	-9.89141
▁Oğuz	-9.89145
lkəni	-9.89228
▁vahidi	-9.89323
▁bitir	-9.89334
▁məsləhət	-9.89345
▁fəlsəf	-9.89366
▁hüquqi	-9.89461
▁imza	-9.8947
▁olmağ	-9.89527
▁göstərdi	-9.89559
▁imkanı	-9.8958
▁döyüşlərdə	-9.89592
eynal	-9.89606
▁cəhd	-9.89615
▁Tovuz	-9.89729
▁ibtidai	-9.89752
▁tarixini	-9.89764
ını	-9.89955
▁yürüş	-9.89958
▁Televiziya	-9.90059
▁şöbəsi	-9.90079
▁aktrisa	-9.90098
▁mövsümündə	-9.90131
▁başlamışdı	-9.90235
▁yara	-9.90239
▁manat	-9.90368
▁terrorçuları	-9.90393
▁sırasında	-9.90495
▁abidəsi	-9.90529
▁ardıcıl	-9.90533
▁Rayonun	-9.90589
▁mayın	-9.90598
▁alınmış	-9.90616
▁İl	-9.90772
▁rayonlarında	-9.90807
▁əsaslana	-9.90926
▁apardığı	-9.91018
▁bənzər	-9.91076
larda	-9.91103
▁diqqəti	-9.91134
▁dağları	-9.91147
▁dinc	-9.91148
▁çatmışdı	-9.91274
▁əhəmiyyəti	-9.9136
▁evində	-9.91378
▁hakimiyyətini	-9.91385
▁köçüb	-9.91451
▁10-	-9.91543
yla	-9.91645
▁suda	-9.91708
▁olmalıdır	-9.91717
▁rəssamı	-9.91753
▁uğurla	-9.91772
▁qəsəbəsi	-9.91796
▁minlərlə	-9.91813
▁gəl	-9.91836
▁qaya	-9.91857
▁İcra	-9.91868
▁bulaq	-9.91884
▁tayfası	-9.91885
▁köməkçi	-9.91889
▁hektar	-9.91915
▁görmək	-9.91979
▁gəmi	-9.92048
▁Tiflisdə	-9.92087
▁işini	-9.92119
▁adamları	-9.92121
▁sözündən	-9.92131
▁xırda	-9.92134
▁imperiyası	-9.9215
▁halında	-9.92201
▁gəlmək	-9.92277
▁Təbrizdə	-9.92286
▁1954	-9.92302
▁Qazaxıstan	-9.92302
▁çəki	-9.92423
inal	-9.92479
▁1949	-9.92526
▁mənfi	-9.92529
▁edər	-9.92557
▁1962	-9.92737
▁vəzifə	-9.9275
▁başında	-9.92848
▁etdirmək	-9.92869
▁mineral	-9.92895
▁çıxardı	-9.92906
▁Pənah	-9.92959
▁1933	-9.92963
▁xal	-9.92972
▁6-	-9.92988
▁qoşun	-9.93009
▁2017-	-9.93126
▁1975-	-9.93169
▁bağ	-9.93208
▁silsiləsini	-9.93244
▁aprelin	-9.93459
▁ziyarət	-9.93474
şərq	-9.93492
▁qrupunu	-9.93508
▁Müharibə	-9.93592
▁quş	-9.93601
▁keçirildi	-9.93607
▁45	-9.9362
azil	-9.93626
▁15-	-9.93717
▁1943	-9.93719
▁edil	-9.93762
▁bilirdi	-9.93809
əncədə	-9.93813
▁təşəbbüsü	-9.93833
▁BMT	-9.93833
▁Suriya	-9.93913
▁məhəbbət	-9.93928
▁sürgün	-9.93945
▁qısam	-9.94029
▁şeirlər	-9.94033
▁Əsgər	-9.94196
▁istəyirdi	-9.9423
çu	-9.94261
▁qalıb	-9.94276
▁Qasım	-9.94291
▁Dərbənd	-9.94333
▁aktiv	-9.94349
▁atasını	-9.9443
enin	-9.94499
▁kinostudiyasın	-9.94524
▁Maykl	-9.94533
▁siyahıya	-9.94536
▁Pir	-9.94563
▁dənizin	-9.94601
tə	-9.94608
▁1987-	-9.94741
▁abidələri	-9.94895
▁başlandı	-9.94918
▁Midiya	-9.94947
▁çöl	-9.95159
▁vurdu	-9.95167
▁yemək	-9.95178
rmiya	-9.952
▁paşa	-9.95244
▁Ərdəbil	-9.95353
▁qoşunu	-9.95368
▁İmperiyası	-9.95376
▁32	-9.95476
▁hərəkatı	-9.95504
▁dərman	-9.95512
▁üzə	-9.9557
ədəbəy	-9.95613
▁ixtisası	-9.95686
▁biləcək	-9.9575
larla	-9.95806
▁Keçmiş	-9.95838
▁yaşıl	-9.95848
▁sözlərindən	-9.95889
▁xalqların	-9.95913
▁düşmüşdü	-9.96022
▁olunduğu	-9.96046
▁mühafizə	-9.9607
mum	-9.96137
▁pedaqo	-9.96162
▁İngilis	-9.96213
▁yazılı	-9.96222
şaq	-9.96255
▁XII	-9.96282
▁dilin	-9.96284
▁istəyir	-9.96359
▁sentyabrın	-9.9636
▁1979-	-9.96375
nunla	-9.96404
▁layihəsi	-9.96463
▁tələbələr	-9.96505
▁dördüncü	-9.96526
▁faydalı	-9.96541
▁adlandırıla	-9.96549
▁heyətində	-9.96582
ev	-9.96709
▁gücü	-9.96756
▁arxa	-9.96848
▁qoşunlarını	-9.96918
▁parça	-9.96928
▁bitkilər	-9.96975
▁Salyan	-9.96977
▁1939	-9.96978
▁istedad	-9.97012
▁sarı	-9.97179
▁yaradılı	-9.97181
▁müqavimət	-9.97183
▁Baba	-9.97185
▁piyada	-9.97198
▁köç	-9.9729
▁inkişafın	-9.97378
▁Abdulla	-9.97411
▁tutub	-9.97425
▁Qəhrəmanı	-9.97556
▁zərər	-9.97588
lərdə	-9.97644
▁yumurta	-9.97654
▁tərzi	-9.97695
▁7-	-9.97706
▁konsert	-9.97712
▁Neftçi	-9.97731
▁məsafədə	-9.97734
▁dillərini	-9.97849
▁2004	-9.97861
▁müharibədə	-9.9787
▁el	-9.97876
lərini	-9.98034
vənd	-9.98038
▁qoyur	-9.98109
▁heyətini	-9.98118
▁xəstəlik	-9.98167
▁XI	-9.98217
▁Mənim	-9.98219
▁peşəkar	-9.98237
▁keçib	-9.98248
▁gətirən	-9.98266
▁məğlubiyyət	-9.98278
▁Novruz	-9.98344
▁sü	-9.9837
▁təlim	-9.98372
▁vətəndaş	-9.98373
▁hökmdar	-9.98382
▁qadağan	-9.98382
▁sənətini	-9.98398
▁kişilər	-9.98401
▁8-	-9.98411
▁noyabrın	-9.98453
▁kəndini	-9.98571
▁olduqları	-9.98576
▁bildi	-9.98659
▁etiraz	-9.98674
▁oktyabrın	-9.98708
▁tutmuşdu	-9.98726
▁işğalı	-9.98732
▁ərazilər	-9.98741
▁Sən	-9.98765
▁Pedaqo	-9.98806
▁Davud	-9.98806
▁qazanıb	-9.98807
▁Şərqdə	-9.98845
▁Əsl	-9.9891
▁nəqliyyat	-9.98929
▁İstanbulda	-9.99002
▁mükəmməl	-9.99044
▁Krım	-9.99063
▁müəssisəsi	-9.99093
▁1986-	-9.99127
▁Tanrı	-9.99134
▁Fransada	-9.99152
▁deyilən	-9.99233
▁Demə	-9.99268
▁9-	-9.99438
▁xanlığını	-9.99594
▁ada	-9.99625
▁statusu	-9.99626
▁cinsi	-9.99692
▁2006	-9.99729
▁eramız	-9.99738
▁mülayim	-9.9974
▁Azərbaycanı	-9.99751
▁tərəfi	-9.99781
▁əsgər	-9.99906
▁1941-	-9.99913
larının	-9.99942
▁həyatın	-9.99957
▁Futbol	-9.99972
▁məktub	-9.99977
▁sərf	-10.0005
▁tutulur	-10.0006
▁fəaliyyətin	-10.0009
▁ori	-10.0013
▁sün	-10.0015
▁hadisələri	-10.0016
sına	-10.002
▁Stalin	-10.0021
▁birləşdirən	-10.0023
▁müddəti	-10.0024
▁1982-	-10.0028
▁sürətli	-10.0032
▁Onlarda	-10.0036
▁yaradıcılığında	-10.0045
▁Qriqori	-10.0053
▁quberniyası	-10.0054
▁tutulmuş	-10.0054
▁yerlər	-10.0059
▁cəmiyyəti	-10.0063
▁Səid	-10.0068
▁Ordu	-10.0076
▁Məcnun	-10.0079
raya	-10.009
▁Tərtər	-10.0091
▁cəmiyyət	-10.01
▁türklərin	-10.0107
▁çatan	-10.0113
▁dağı	-10.0114
urnalı	-10.0116
▁martın	-10.0119
▁1983-	-10.012
▁XIV	-10.014
▁həcm	-10.0145
▁həcmi	-10.0147
▁qurmuşdu	-10.0149
▁Daş	-10.0156
▁yağ	-10.0158
əni	-10.0163
▁oyunu	-10.0164
slim	-10.0165
▁işlənmiş	-10.0166
▁ta	-10.0168
▁qayıdır	-10.0168
üstü	-10.017
▁ərazini	-10.0171
atın	-10.0181
▁sığorta	-10.0188
kret	-10.02
▁filologiya	-10.0201
▁verə	-10.0201
▁qrupun	-10.0202
▁əkin	-10.0204
▁oğulları	-10.0205
▁çayları	-10.0205
▁xaric	-10.0207
▁keçirən	-10.0208
▁əksinə	-10.0209
aqatala	-10.021
▁möhtəşəm	-10.0211
▁Təşkilatı	-10.0216
▁məkan	-10.0232
▁növbədə	-10.0234
▁Daxil	-10.0234
▁olmaması	-10.0235
▁1936	-10.0235
▁münasibətləri	-10.0236
▁okean	-10.024
▁şəhid	-10.024
▁məişət	-10.0245
▁çalışmış	-10.0249
▁açılır	-10.0252
▁yüngül	-10.0259
▁gənclər	-10.026
▁Xosrov	-10.0261
xəli	-10.0262
▁paytaxt	-10.0276
▁məsafə	-10.0281
ında	-10.0282
▁mənbələr	-10.0286
▁Dağıstan	-10.0291
▁maldarlıq	-10.0293
▁səviyyəsi	-10.0298
▁Qafqazı	-10.03
▁emalı	-10.0306
▁2008	-10.0307
▁yuxarıda	-10.0309
▁hazırlana	-10.0314
▁yerlərində	-10.0319
▁artması	-10.0321
▁saxlamaq	-10.0333
▁medal	-10.0334
▁mövzu	-10.0336
▁problemlər	-10.0336
▁dəstələri	-10.034
▁olanlar	-10.034
▁futbolçu	-10.0362
▁Hava	-10.0364
us	-10.0365
▁of	-10.0366
▁gölü	-10.0368
▁bulağı	-10.0373
isi	-10.0377
▁Əfəndiyev	-10.038
▁çayın	-10.038
▁məskunlaşması	-10.0383
▁məni	-10.0383
▁İşlər	-10.0384
▁cəbhə	-10.039
inki	-10.0394
▁davamlı	-10.0397
▁evdə	-10.04
▁Ankara	-10.0404
dığı	-10.0405
▁1973-	-10.0412
S	-10.0414
▁heyvanlar	-10.042
nu	-10.042
ant	-10.0428
▁arvadı	-10.0428
▁1942	-10.043
▁demişdi	-10.0436
▁bilərdi	-10.044
mi	-10.0444
miz	-10.0446
▁işarə	-10.0449
▁oxşar	-10.0449
▁90	-10.0449
▁həlli	-10.0453
▁təzyiq	-10.0454
▁hamı	-10.0455
darma	-10.0458
lkədə	-10.0467
▁getdik	-10.0475
▁1947	-10.0478
▁Ana	-10.0482
ax	-10.0487
▁səthi	-10.049
▁mənbəyi	-10.0491
▁etmir	-10.0492
▁xalqlarının	-10.05
▁kral	-10.0506
▁məntəqəsini	-10.0506
vər	-10.0513
▁əraziləri	-10.0516
▁1985-	-10.0518
liklə	-10.0519
▁istisna	-10.0527
▁mane	-10.0531
▁Şahzadə	-10.0535
▁mü	-10.0544
aq	-10.0544
▁dəstək	-10.0549
▁torpaqlar	-10.0551
▁peyğəmbər	-10.0551
▁fasilə	-10.0552
əngəzur	-10.0552
▁istiqamətdə	-10.0555
▁işlərini	-10.0561
▁müzakirə	-10.0564
▁müstəqilliyini	-10.057
▁Məlik	-10.0572
▁satış	-10.0576
▁qardaşları	-10.0579
▁hərəkəti	-10.058
▁Tehran	-10.0582
▁ruh	-10.0582
▁EA	-10.0583
▁Kitab	-10.0585
qları	-10.0587
▁abidələr	-10.0593
▁həmsərhəd	-10.0601
▁şəraitində	-10.0602
▁materialları	-10.0603
▁proses	-10.0604
▁tutmuş	-10.0617
rədd	-10.0623
▁saxlaya	-10.0626
▁1923	-10.0627
▁mədəniyyətini	-10.0629
▁bitirmiş	-10.0634
▁oğlan	-10.0636
▁adamı	-10.0636
▁33	-10.0637
almağa	-10.0642
▁xarakter	-10.0646
▁zərbə	-10.0648
▁qoyun	-10.065
niversitetin	-10.0651
▁sürəti	-10.0657
▁romanı	-10.0661
▁eni	-10.0665
▁oğlunu	-10.0666
va	-10.0667
▁Demokrati	-10.0669
▁qiymət	-10.0678
▁150	-10.0679
▁Nərimanov	-10.0679
qərb	-10.0684
▁etdirdi	-10.0686
▁bildirdi	-10.0689
▁ölçü	-10.0691
▁Ələkbər	-10.0695
▁ümum	-10.0696
▁münasibətlər	-10.0696
▁dolu	-10.0704
▁şəhərləri	-10.0705
▁məskunlaşmış	-10.0709
▁VI	-10.0712
▁Şirvanşah	-10.0715
▁özləri	-10.072
▁mütəxəssis	-10.0722
▁İctimai	-10.0727
▁adaları	-10.074
▁verili	-10.074
▁yaş	-10.0748
▁yağış	-10.0749
▁1955	-10.0752
fi	-10.0755
▁mövzusu	-10.0758
▁zamanlarda	-10.0758
▁axır	-10.0761
▁19-	-10.0772
▁1953	-10.0773
▁öyrənilməsi	-10.0774
▁qəzetini	-10.0776
▁Müdafiə	-10.0777
▁nəzəri	-10.0777
▁fikri	-10.078
▁cənubunda	-10.0784
▁uşaqları	-10.0787
əlinə	-10.0789
▁salınmış	-10.0795
▁göstərib	-10.0803
▁tədqiqatçılar	-10.0808
▁sədr	-10.081
▁fakültəsin	-10.0811
oğlu	-10.0818
▁Şuşada	-10.082
adi	-10.082
ğu	-10.0826
▁yolunda	-10.0829
▁Qurbanov	-10.0835
▁olmadan	-10.0839
▁nazir	-10.0852
▁Abdullayev	-10.0854
▁müstəqillik	-10.0856
▁materiallar	-10.0861
▁Fondun	-10.0862
▁Şirvanşahlar	-10.0865
▁zamanlar	-10.0871
vasitə	-10.0872
▁tədqiqi	-10.0872
▁radio	-10.0877
▁səyahət	-10.0877
▁yadda	-10.0877
▁görüb	-10.0879
▁müvə	-10.0879
▁kv	-10.0883
▁çıxması	-10.0884
▁şərti	-10.0905
▁formalı	-10.0906
▁arası	-10.0906
urnal	-10.0918
▁sinif	-10.0918
▁bölgədə	-10.0925
▁kq	-10.0925
▁qüvvələr	-10.0927
▁iştirakçısı	-10.0936
▁atı	-10.0944
▁bölgələrində	-10.0944
▁alma	-10.0948
▁divar	-10.0951
▁bilərlər	-10.0954
▁tapılmış	-10.096
▁maarif	-10.0973
▁şahzadə	-10.0976
▁Kommunist	-10.0982
▁xarakterik	-10.0983
▁qalanın	-10.0985
perator	-10.0993
▁qəsəbəsində	-10.1003
▁Bəyazid	-10.1008
▁IX	-10.1008
▁Elm	-10.1016
▁Norveç	-10.1017
▁aralı	-10.1019
▁insanları	-10.1019
amp	-10.1022
▁sahillərində	-10.1028
▁Radio	-10.1033
▁Talış	-10.1034
▁Bağırov	-10.1036
▁etdiyini	-10.1041
▁bacısı	-10.1042
re	-10.1044
▁1922	-10.1051
▁Partiyasını	-10.1056
▁güc	-10.1059
▁iyunun	-10.1059
▁xaricdə	-10.1065
▁şimalında	-10.1068
▁telefon	-10.107
▁keçid	-10.1077
▁element	-10.1078
▁türklər	-10.108
▁VIII	-10.1082
▁idarəetmə	-10.1087
ingiz	-10.1093
▁qüvvəsi	-10.1094
▁rabitə	-10.1097
▁stansiyası	-10.1099
▁adası	-10.1106
▁dildə	-10.111
▁t	-10.1111
▁filmlər	-10.1117
▁təchiz	-10.1137
▁ikisi	-10.1138
▁mərasimi	-10.1141
▁Təbii	-10.1141
▁mahalını	-10.1151
▁sahələrdə	-10.1155
▁ölkəsi	-10.1162
▁istilik	-10.1163
▁Kamal	-10.1166
▁klubun	-10.1166
▁Həyat	-10.1172
▁yük	-10.1181
▁alınır	-10.1183
▁Bax	-10.1184
▁qoyulmuş	-10.1188
▁terror	-10.119
▁Sara	-10.1191
▁narahat	-10.1191
▁Messi	-10.1191
▁olmasa	-10.1192
▁fevralın	-10.1196
▁tikintisi	-10.1196
siya	-10.1197
▁türbəsi	-10.1198
▁müsabiqədə	-10.1203
▁Karl	-10.1208
▁təzə	-10.1211
▁dövlətlər	-10.1212
▁doğulmuşdu	-10.1214
▁İdman	-10.1218
▁fikirlər	-10.1218
▁axşam	-10.1218
▁nəsli	-10.1221
ala	-10.1221
▁dərk	-10.1226
▁filmin	-10.1226
▁boz	-10.1227
▁rütbəsi	-10.1228
▁1934	-10.1245
oran	-10.1252
▁sistemin	-10.1253
▁istəyən	-10.126
▁ehtiyac	-10.1261
▁məşqçi	-10.1265
▁Ağayev	-10.1273
▁yarandı	-10.1276
▁ölümü	-10.1276
▁olmasın	-10.1277
▁Osmanlılar	-10.1278
▁Qasımov	-10.1279
▁dəri	-10.1284
▁göstərilə	-10.1288
▁Aslan	-10.1291
▁teatrı	-10.1292
kü	-10.1293
▁mükafatın	-10.1296
▁bayram	-10.1296
▁nəsil	-10.1297
▁Əsər	-10.1297
▁Ssenari	-10.1297
▁ibadət	-10.1297
▁İli	-10.1299
▁şəhərlərində	-10.1308
▁keçə	-10.131
▁Yunan	-10.1314
▁yolları	-10.1315
▁sözlə	-10.1315
▁1948-	-10.1316
▁sözlərin	-10.1318
▁istənil	-10.1324
▁2005	-10.1334
▁adət	-10.1335
D	-10.1346
▁Azər	-10.1349
boy	-10.135
▁Sənaye	-10.1351
▁Babayev	-10.1352
▁Almaniyanı	-10.1353
▁üzüm	-10.1372
ənclər	-10.1372
▁xidmətlərin	-10.1377
dü	-10.1378
▁2010	-10.1387
▁rəngdə	-10.1388
▁Alman	-10.14
▁Kral	-10.1403
▁yaratmış	-10.1404
▁tipi	-10.1405
▁hadisələrin	-10.141
▁seçilə	-10.1411
te	-10.1413
▁namaz	-10.1421
▁gördü	-10.1427
▁Fransız	-10.1427
▁şəxslərin	-10.1432
▁tüstü	-10.1433
öyçay	-10.1433
▁vətən	-10.1437
▁medalı	-10.1444
▁ili	-10.1449
▁Qurban	-10.1452
▁adlandırılır	-10.1453
▁istər	-10.1464
▁12-	-10.1465
▁dostu	-10.1468
▁istədi	-10.1471
▁ilində	-10.1476
▁1977-	-10.148
dağ	-10.1482
▁Yəhya	-10.1486
▁aparmaq	-10.1486
▁Pakistan	-10.1486
▁temperaturu	-10.1489
▁gətirdi	-10.1493
▁qorunması	-10.1501
▁dövlətlərin	-10.1502
▁tələbələrin	-10.1511
▁Sosialist	-10.1513
▁avqustun	-10.1515
▁qabiliyyəti	-10.1516
▁mədəniyyətin	-10.1518
▁xəstə	-10.1519
▁qoruyu	-10.1523
▁Bala	-10.1527
▁qoyulur	-10.1532
▁qat	-10.1535
▁boş	-10.1541
▁səciyyəvi	-10.1541
▁Yaqub	-10.1545
▁xətt	-10.1551
▁adlanırdı	-10.1554
▁ədəbiyyatını	-10.1556
▁sən	-10.1566
▁şəraiti	-10.1566
▁zəruri	-10.1567
▁Nəsrəddin	-10.1568
▁düzəli	-10.1569
▁albom	-10.1577
▁tərcüməçi	-10.158
▁bölgəsi	-10.1589
▁Dağ	-10.1595
▁kvadrat	-10.1596
▁doğulu	-10.1596
▁nümayəndə	-10.1596
▁anlayışı	-10.1598
▁qapısı	-10.16
▁məzmun	-10.1601
▁ayrıla	-10.1602
▁işin	-10.1604
▁komandiri	-10.1605
▁nəzarəti	-10.1611
▁mərhələsi	-10.1621
▁FİFA	-10.1623
▁ərəfə	-10.1623
▁Cavid	-10.1623
▁istirahət	-10.1623
▁bitkilərin	-10.163
▁təmir	-10.1645
▁məlumatları	-10.1647
▁məsələsi	-10.1649
▁yeraltı	-10.1653
▁qablar	-10.1655
▁qəhrəman	-10.1656
▁məbədi	-10.1661
▁saxlayır	-10.1662
▁2007	-10.1663
▁1926	-10.1664
▁Vəli	-10.1678
▁Müəllif	-10.1678
▁Təhmasib	-10.1678
▁nömrəl	-10.1683
▁cərəyan	-10.1686
▁fəhlə	-10.1687
▁vaxtlarda	-10.1688
▁xəstəliyi	-10.1689
▁1925	-10.169
▁formaları	-10.1696
▁kompleks	-10.1696
caq	-10.1701
▁Teatrını	-10.1704
▁turizm	-10.1704
▁nəslin	-10.1705
▁Nə	-10.1707
▁keyfiyyət	-10.1711
▁layihə	-10.1712
▁1924	-10.172
▁1906	-10.1723
▁hesabın	-10.1723
▁vaxtında	-10.1728
əngi	-10.1729
▁Nəcəf	-10.1731
▁başı	-10.1733
▁alimləri	-10.1734
▁nəh	-10.1743
▁çəkili	-10.1745
▁yarada	-10.1754
▁Atropatena	-10.1762
▁1932	-10.1763
▁dairəvi	-10.1765
▁təyyarə	-10.1767
ot	-10.1772
▁dəstəyi	-10.1773
▁bərk	-10.1782
▁Hind	-10.1787
diyi	-10.1791
▁nümunə	-10.1796
▁bal	-10.1798
▁38	-10.1799
▁doktorlu	-10.1799
▁seçili	-10.1804
▁İsveçrə	-10.1806
▁şəbəkə	-10.1809
▁birlik	-10.1811
urnalistlər	-10.1814
▁Orada	-10.1815
▁nəslindən	-10.1816
▁Amerikada	-10.1817
▁yazılır	-10.1822
▁müəssisələri	-10.1822
▁direktor	-10.1831
▁demokrati	-10.1834
▁işçisi	-10.1839
iç	-10.1841
▁gərək	-10.1852
▁Ara	-10.1853
▁dağlar	-10.1855
▁deyirdi	-10.1856
lərinə	-10.1868
gen	-10.1873
▁nəvəsi	-10.1874
▁Bəhram	-10.1875
dünya	-10.1875
▁qəzası	-10.1878
▁keçirib	-10.188
124	-10.1881
▁kitabın	-10.1881
▁Hacıyev	-10.1887
▁məscidin	-10.1891
▁məqsədlə	-10.1892
▁and	-10.1895
▁imperiyasını	-10.1897
▁uşaqların	-10.19
▁al	-10.1906
▁filmdə	-10.1907
birini	-10.1907
▁türkləri	-10.1907
▁Parisdə	-10.1911
▁Məclisi	-10.1915
▁Bəzə	-10.1916
lanır	-10.192
▁kök	-10.1925
▁riyaziyyat	-10.1939
pol	-10.1941
▁olmay	-10.1942
▁sözün	-10.195
▁400	-10.1951
York	-10.1951
▁mövqeyi	-10.1954
,5	-10.1955
▁qoyub	-10.196
▁şəxsin	-10.1961
▁hüquqları	-10.1962
▁edildikdə	-10.1969
▁1984-	-10.1969
▁rayonları	-10.1971
▁kənarında	-10.1973
▁nəql	-10.1983
▁məqalələr	-10.1983
▁ərəblər	-10.1984
▁Ey	-10.1989
▁bəstəkarı	-10.1995
▁Naxçıvanda	-10.1998
▁şahı	-10.2001
▁yayılması	-10.2002
▁planet	-10.2018
▁xahiş	-10.202
▁1000	-10.2025
▁bilməyə	-10.2028
▁sənətkar	-10.204
▁elementlərin	-10.2041
▁tapılmışdı	-10.2042
▁öldürüldü	-10.2045
▁1952	-10.2046
▁səmərəli	-10.2048
▁rəqəm	-10.205
▁düşmüş	-10.2051
▁səhv	-10.2056
▁zalı	-10.2058
▁qüvvələrin	-10.2058
▁şəraitdə	-10.2059
▁aparılması	-10.206
▁fərmanı	-10.2063
▁bitkiləri	-10.2065
▁Nikolay	-10.207
▁təklifi	-10.2071
▁Avqust	-10.2074
▁Şərur	-10.2075
▁səh	-10.2079
▁müsəlmanlar	-10.2083
▁muzey	-10.2084
▁professoru	-10.2086
▁çəkdiyi	-10.2094
▁hökumətin	-10.2099
▁Fransanı	-10.2101
▁çəkən	-10.2102
▁36	-10.2105
▁qorumaq	-10.2106
▁toplaya	-10.2108
▁kanalı	-10.2112
▁şəxsə	-10.2117
▁seçildi	-10.2118
bulaq	-10.2119
▁Kərimov	-10.2119
▁məntəqələri	-10.2119
bəyov	-10.2123
▁sarayında	-10.2125
▁Cahangir	-10.2129
▁doqquz	-10.2132
▁Belçika	-10.2133
▁1929	-10.2134
▁oynaya	-10.2138
▁gündəlik	-10.2139
cıl	-10.2147
▁Qarabağı	-10.2148
tədqiqat	-10.215
▁Şəhəri	-10.216
▁şəhərə	-10.216
▁Corc	-10.2162
▁Ne	-10.2163
▁Mustafayev	-10.2164
▁MK	-10.2165
▁çəkildi	-10.2165
▁antik	-10.2166
▁yazıları	-10.2168
▁işlərində	-10.2168
▁edilməsində	-10.2169
▁olmadığını	-10.2171
▁havada	-10.2172
▁millət	-10.2173
▁şeirləri	-10.2173
▁adında	-10.2175
▁mahnıları	-10.2179
▁sarayı	-10.2184
▁Fars	-10.219
▁gəldiyi	-10.2194
▁Qandi	-10.2195
empionlar	-10.2198
▁xas	-10.2207
▁aşıq	-10.2211
▁çıxarır	-10.2215
▁Berlin	-10.2215
əşhur	-10.2216
▁1914	-10.222
▁Teatrı	-10.2224
▁TV	-10.223
▁nöqtəsi	-10.2235
ta	-10.2248
▁1931	-10.225
▁ustası	-10.2254
▁getmiş	-10.2256
▁mülki	-10.2261
▁ayaq	-10.2266
▁klubunu	-10.2267
▁50-	-10.2272
▁əməl	-10.2277
▁Qusar	-10.2279
▁istefa	-10.2279
▁əfsanə	-10.2279
▁ailələrin	-10.2289
▁42	-10.2297
▁işlərin	-10.2305
▁razı	-10.2307
▁Rami	-10.232
tay	-10.2328
▁təsəvvür	-10.2328
▁yüzil	-10.2329
▁idarəsi	-10.2336
▁Sakit	-10.2338
ak	-10.2342
▁istiqamət	-10.2346
▁dövri	-10.2346
▁kafedrasın	-10.2349
▁1905-	-10.2352
▁dövlətləri	-10.2354
əzəm	-10.2355
▁region	-10.2358
▁va	-10.2359
▁hökm	-10.236
erik	-10.236
▁vəzifədə	-10.2361
▁gələcəkdə	-10.2362
▁qəhrəmanı	-10.2363
▁şirkət	-10.2363
▁ittifaq	-10.2364
▁yazıb	-10.2364
▁Əfəndi	-10.2367
▁riyazi	-10.2367
▁edam	-10.2368
▁prinsipi	-10.2369
▁iqlimi	-10.2374
▁təpə	-10.238
▁mövqe	-10.2382
▁Xoca	-10.2383
▁Kaliforniya	-10.2397
▁işləməy	-10.2399
▁örtülü	-10.2401
▁mədrəsə	-10.2405
▁alimlərin	-10.2405
▁Komissiyası	-10.2405
az	-10.242
ttifaq	-10.2421
▁normal	-10.2421
▁xüsusiyyətlərin	-10.2423
▁Partiya	-10.2425
▁götürür	-10.2427
▁texnika	-10.2427
▁rəngi	-10.243
▁yağı	-10.2432
▁boya	-10.2432
▁Həsənov	-10.2439
▁nəzəriyyə	-10.245
▁Opera	-10.2456
▁Şəmkir	-10.2457
▁x	-10.246
▁ordunu	-10.2461
▁gəldikdə	-10.2461
▁torpaqların	-10.2464
▁yaradan	-10.2469
▁torpaqlarını	-10.247
▁kərpic	-10.2478
▁kralı	-10.2481
▁qəti	-10.2482
▁imperatoru	-10.2483
şad	-10.2502
▁1992	-10.2505
şərqdə	-10.2515
▁xəstəliyin	-10.2536
▁Yerin	-10.2536
▁vəzifəsi	-10.2539
▁İdarə	-10.254
▁inqilabı	-10.2541
▁məcburiyyətində	-10.2548
▁ağacı	-10.255
▁Dil	-10.2551
▁İsmayılov	-10.2552
▁alındı	-10.256
▁2002	-10.2568
dağın	-10.2573
▁polis	-10.2573
▁Bəstəkar	-10.2578
▁Kiyev	-10.2579
▁sultanı	-10.2579
▁sürə	-10.2581
▁verməyə	-10.2587
▁yaradıcı	-10.2589
▁diqqətini	-10.2593
▁iyulun	-10.2596
▁ö	-10.26
▁etməli	-10.2605
▁irsi	-10.2607
▁Bolqarıstan	-10.2608
▁banisi	-10.2608
▁babası	-10.2613
▁şeyi	-10.2618
▁şam	-10.262
▁aşağıdakılar	-10.2621
▁edənlər	-10.2621
dəmir	-10.2624
▁nəticələr	-10.2627
▁gəlin	-10.263
▁34	-10.2634
▁tunc	-10.2638
▁təbliğ	-10.264
▁g	-10.264
▁kodu	-10.2642
əvi	-10.2644
ard	-10.2648
▁Əbülfə	-10.2651
▁qapı	-10.2652
▁rolları	-10.2652
▁ətrafı	-10.2657
▁bildirmişdi	-10.2661
▁qarışıq	-10.2667
▁1951	-10.2669
lduz	-10.2672
▁əbədi	-10.2673
▁Müəllimlər	-10.2686
os	-10.2691
▁çoxunu	-10.2693
▁Əziz	-10.2695
▁ziyalı	-10.2699
ium	-10.2703
▁etdirmiş	-10.2707
▁işdə	-10.2715
▁araşdırmalar	-10.2717
es	-10.2717
▁1935	-10.2719
çisi	-10.2724
▁danışıl	-10.2724
▁Nəriman	-10.2727
▁şirin	-10.2729
▁deyirlər	-10.273
▁yaradılır	-10.2732
▁diplomu	-10.2734
▁bol	-10.2736
▁qadınların	-10.2736
do	-10.2738
▁qazanır	-10.274
▁əsna	-10.274
▁özəl	-10.2741
▁1928	-10.2741
▁düşü	-10.2742
▁May	-10.2744
▁gələ	-10.2747
▁ədəbiyyatında	-10.2752
▁İnformasiya	-10.2761
▁öyrənmək	-10.2764
▁qərarın	-10.2771
biri	-10.2777
şən	-10.2778
▁nizam	-10.2782
▁görmüşdü	-10.2784
▁İqtisadi	-10.2784
▁17-	-10.2784
▁heyvanların	-10.2786
▁münasibət	-10.2787
▁qəhvə	-10.2792
▁Vladimir	-10.2792
▁İskəndər	-10.2792
▁məktəbə	-10.2793
▁Eldar	-10.2793
▁maye	-10.2795
▁bayramı	-10.2795
▁xüsusiyyəti	-10.2799
▁nəfərə	-10.2805
▁azərbaycan	-10.2809
▁Avstraliya	-10.2813
▁varlı	-10.2815
▁barəsində	-10.2823
▁mövsüm	-10.2826
▁xalqlar	-10.2829
▁salmış	-10.2837
▁çal	-10.2842
▁əlaqəsi	-10.2843
▁institutun	-10.2846
▁şəkil	-10.2847
▁illəri	-10.2848
▁ərazilərində	-10.2849
▁mahnılar	-10.2852
▁məktəblər	-10.2853
▁düşməni	-10.2854
▁məhrum	-10.2854
▁italyan	-10.2854
eninqrad	-10.2855
▁san	-10.2856
▁təqib	-10.2865
▁Şura	-10.2871
urnalını	-10.2882
▁Hindistanda	-10.2884
▁sağlam	-10.2885
▁mühit	-10.2886
▁dillər	-10.2887
▁faciə	-10.2888
▁sahələr	-10.2892
▁məhsuldar	-10.2898
▁Təbrizi	-10.2899
▁yarısı	-10.2904
▁monqol	-10.2905
▁iç	-10.2914
▁yaradıcılığını	-10.2917
▁...	-10.2917
▁Sankt	-10.2917
▁rəmzi	-10.2917
▁Qaraqoyunlu	-10.2918
asiya	-10.2925
▁16-	-10.2927
ralıq	-10.2927
▁tut	-10.2936
▁mahalı	-10.2947
▁sabit	-10.295
▁ət	-10.295
▁sizin	-10.2951
▁kəndlərdə	-10.2953
iv	-10.2965
▁haqqı	-10.2965
▁birləşmələri	-10.2966
▁ailəsini	-10.2971
▁fəth	-10.2971
▁surəsi	-10.298
yasət	-10.298
▁1912	-10.2981
▁feodal	-10.2984
▁qurulması	-10.2984
▁yolda	-10.2985
▁anda	-10.2985
▁uşağı	-10.2988
ey	-10.2989
▁adamların	-10.2994
▁istifadəsi	-10.2994
▁könüllü	-10.3
▁azı	-10.3001
▁sinir	-10.3001
▁lat	-10.3002
▁yüksəklikdə	-10.3004
▁zamanında	-10.301
▁oynayı	-10.3015
▁tuturdu	-10.3015
▁mərhələdə	-10.3019
▁maşın	-10.3031
▁material	-10.3033
▁şəhərlərdə	-10.3037
lərə	-10.3038
▁hazırlıq	-10.304
▁Hüquq	-10.3043
▁Fələstin	-10.3043
▁göndərdiyi	-10.3046
▁sair	-10.3047
fa	-10.3052
▁çarı	-10.3058
▁açır	-10.3059
▁formalaşmasın	-10.306
▁mənbələrində	-10.3062
▁obrazı	-10.3062
▁Astara	-10.3063
▁yataqları	-10.3064
▁nömrə	-10.3069
▁çempionatın	-10.3072
▁müddətində	-10.3072
▁Vurğun	-10.3075
▁Madrid	-10.3075
▁Koroğlu	-10.3075
▁Türkmənistan	-10.3075
▁qüvvələrini	-10.3077
▁hekayə	-10.3082
▁əsilli	-10.3083
▁dəyərli	-10.3083
▁örtüyü	-10.3083
▁mərkəzləri	-10.3088
▁Bunları	-10.3089
▁Bayram	-10.3098
▁Yunanıstan	-10.3101
▁ölçülü	-10.3102
▁De	-10.3104
▁müşayiət	-10.3107
▁Qorqud	-10.3107
çüncü	-10.3107
▁Fərhad	-10.3107
▁Argentina	-10.3108
▁planı	-10.3109
▁getmək	-10.3116
adiq	-10.3117
▁ərazisin	-10.3122
▁vilayətində	-10.3122
▁şurası	-10.3122
▁qonaq	-10.3127
▁imkanları	-10.3129
▁xarakterli	-10.3132
▁qurulmuşdu	-10.3133
▁nümunəsi	-10.3137
▁sülaləsi	-10.314
▁yaxındır	-10.3144
▁keçirili	-10.3156
▁içki	-10.3157
▁problem	-10.3162
▁kitabları	-10.3163
▁daşlar	-10.317
kləri	-10.3171
▁götürüb	-10.3171
▁qoyuldu	-10.3172
▁əmisi	-10.3172
▁çiçək	-10.3174
▁hazırlamaq	-10.3174
▁salınmışdı	-10.3183
▁Misirdə	-10.3184
▁Əsli	-10.319
▁xoş	-10.3192
▁sahili	-10.3194
▁tayfalar	-10.3194
ürcüstanı	-10.32
▁uc	-10.32
▁roman	-10.3201
lıqla	-10.3202
▁Tədqiqatçılar	-10.3203
▁Yardım	-10.3204
▁qurulan	-10.3208
▁yazmış	-10.321
▁toy	-10.3218
▁sayını	-10.3219
laşdırılması	-10.3219
▁hücumu	-10.322
▁ispan	-10.3232
▁1927	-10.3234
▁Mars	-10.3235
▁bürünc	-10.3236
▁Aydın	-10.3236
▁pambıq	-10.3237
▁Bəy	-10.3237
sallı	-10.3241
▁dönəmində	-10.3243
▁Mo	-10.3245
▁cüt	-10.3248
▁cild	-10.3248
▁rəvayət	-10.3253
▁Müsabiqəsi	-10.3257
lığında	-10.3258
▁ssenari	-10.3259
▁vəhşi	-10.3268
▁Rəsulzadə	-10.327
▁hədiyyə	-10.3271
▁Ağqoyunlu	-10.3271
▁tərbiyə	-10.3283
▁28-	-10.3289
▁Koreya	-10.3294
▁Sarı	-10.3301
▁Vəzirov	-10.3303
▁yarandığı	-10.3304
▁qohum	-10.3308
▁göndərir	-10.3308
▁minilliy	-10.331
▁türbə	-10.3313
xan	-10.3315
▁coğrafiya	-10.3316
▁üslub	-10.332
▁çalış	-10.3322
▁İş	-10.3322
▁qəbir	-10.3326
▁iqtisadiyyatı	-10.3336
qar	-10.3337
▁mübarizədə	-10.3337
▁durur	-10.3337
▁Kilsə	-10.3338
▁Əhalisini	-10.3347
▁tamaşalar	-10.3348
▁tutula	-10.3352
▁təhlükəli	-10.3352
▁bəzək	-10.3353
▁xəstəxana	-10.336
▁mə	-10.3362
zbəkistan	-10.3367
▁ölçüsü	-10.3368
▁təmsilçisi	-10.3368
▁görünə	-10.3368
▁simvolu	-10.3372
▁yazılar	-10.3375
▁yaranı	-10.338
xa	-10.3381
▁problemi	-10.3382
▁Ağca	-10.3385
▁öyrənir	-10.3387
▁qəzasında	-10.3393
▁yurd	-10.3395
▁məcburi	-10.3399
axşı	-10.3399
▁Robert	-10.3399
▁the	-10.3399
▁Növbə	-10.34
▁yağıntı	-10.3401
▁mütəxəssislər	-10.3421
▁lideri	-10.3423
▁Yazıçı	-10.343
▁Rəşid	-10.3431
urnalında	-10.3438
ürcüstanda	-10.3446
▁bank	-10.3447
▁tapır	-10.3451
▁termini	-10.3453
▁qaça	-10.346
qara	-10.346
▁şübhə	-10.3464
▁tərəfdarları	-10.3466
▁dostluq	-10.3466
▁obrazlar	-10.3468
göl	-10.347
▁qərbində	-10.3473
▁37	-10.3474
▁keçməsi	-10.3476
▁xalqları	-10.3483
▁istərs	-10.3489
▁kompozisiya	-10.349
▁birliyi	-10.3497
▁dosent	-10.3503
▁çevrilmiş	-10.3504
▁dissertasiyası	-10.3504
▁fon	-10.3509
▁qazanmış	-10.3513
son	-10.352
▁sarayın	-10.3521
▁Afrikada	-10.3522
ter	-10.3522
▁2003	-10.3529
▁1915	-10.3532
▁arxasında	-10.3543
▁Xorasan	-10.3547
▁Van	-10.3549
▁populyar	-10.3554
▁Əkbər	-10.3566
▁üsyanı	-10.357
▁tökülü	-10.3578
▁vilayət	-10.3592
▁səbəblər	-10.3594
▁gündə	-10.3597
▁döyüşü	-10.3599
▁Cəlal	-10.3599
▁məhsul	-10.3603
▁ifaçısı	-10.3603
▁60-	-10.3607
▁döyüşündə	-10.3608
▁verməsi	-10.3615
▁vilayətini	-10.3629
ülüstan	-10.3633
▁1916	-10.3633
ıq	-10.3633
▁polkovnik	-10.3638
▁mənşəyi	-10.364
tərəfl	-10.3644
▁qaydaları	-10.3646
▁yığma	-10.3647
▁dağını	-10.3652
▁qruplar	-10.3653
▁vasitələri	-10.3655
▁təşkili	-10.3657
may	-10.3659
▁kəndlərin	-10.3659
▁Tək	-10.366
▁model	-10.3662
▁Barselona	-10.3667
▁işlədiyi	-10.3668
▁həqiqətən	-10.3674
bədi	-10.368
▁1907	-10.3681
▁Finlandiya	-10.3684
▁adlarını	-10.3685
▁Ayrı	-10.369
▁qəzetin	-10.3692
▁11-	-10.37
▁Makedoniya	-10.37
▁Oktyabr	-10.37
▁efir	-10.3701
▁ziyan	-10.3701
▁Atlantik	-10.3701
▁yerləşmiş	-10.3704
▁yaradıcısı	-10.3707
▁kitabını	-10.3709
▁məktəbləri	-10.371
▁kafedrası	-10.3711
▁baha	-10.3713
▁təxmin	-10.3718
▁səviyyə	-10.3724
▁tar	-10.3725
mız	-10.3726
▁zonasında	-10.3726
▁Yeddi	-10.3735
▁qayıtdı	-10.3735
▁imperator	-10.3736
▁haqq	-10.374
▁Sosial	-10.3743
▁təhlükə	-10.3744
▁təşkilatın	-10.3757
ək	-10.3766
▁Məlum	-10.3767
▁etsin	-10.3769
ah	-10.3771
▁zavodu	-10.3774
qərbdə	-10.3774
▁bütöv	-10.3774
▁olun	-10.3774
▁Qobustan	-10.3778
▁nəticələri	-10.3779
▁25-	-10.3789
▁Müsəlman	-10.3798
▁Dəmir	-10.3802
▁Borçalı	-10.3803
▁Məmmədquluzadə	-10.3803
▁emal	-10.3804
larından	-10.3806
rü	-10.3808
▁yerləşdirilmiş	-10.3808
▁çəkmək	-10.381
▁əlaqəli	-10.3812
▁ulduzu	-10.3814
▁işlə	-10.3814
▁Sasanilər	-10.3817
▁18-	-10.382
▁şagird	-10.3822
▁siz	-10.3823
▁tamaşaçı	-10.3824
▁əsaslanır	-10.3826
ul	-10.3829
▁Kazım	-10.3832
▁Abbasov	-10.3833
btidai	-10.3834
▁Peyğəmbər	-10.3834
▁məsul	-10.3837
▁Tağıyev	-10.3838
▁müvəffəqiyyətlə	-10.3839
g	-10.3839
gün	-10.384
▁aktrisası	-10.3846
▁Əvvəlcə	-10.3849
▁sərəncamı	-10.3855
▁Macarıstan	-10.3856
▁faktlar	-10.3857
▁istinad	-10.3861
qanlı	-10.3867
▁keçirmiş	-10.3869
▁Ərazi	-10.3872
▁istəyi	-10.3873
▁Siyas	-10.3877
▁Müsabiqə	-10.3878
▁peşə	-10.3883
▁ilahi	-10.3884
▁şərh	-10.3891
▁saldı	-10.3896
▁İnternet	-10.3898
▁institut	-10.3898
▁komponent	-10.39
▁vasitə	-10.3901
▁Kipr	-10.3906
▁Sezar	-10.3906
▁təntənə	-10.3906
▁sevgi	-10.3906
▁cavan	-10.3907
aman	-10.3907
▁zə	-10.3908
▁təqdir	-10.3909
▁səhər	-10.3912
▁Qarayev	-10.3912
▁keçirilmişdi	-10.3914
▁çağırış	-10.3919
▁açılışı	-10.3923
▁mün	-10.3925
▁Venesiya	-10.3941
öyçə	-10.3941
▁duz	-10.3953
▁məhdud	-10.3954
akir	-10.3955
▁daşları	-10.3959
▁səhnəsində	-10.396
▁Cəmil	-10.396
▁Məktəbin	-10.3962
▁ekran	-10.3965
▁uca	-10.3967
▁təzyiqi	-10.3967
▁Ordusu	-10.3968
▁inkişafını	-10.3971
▁diri	-10.3971
▁Napoleon	-10.3976
▁Millət	-10.3976
▁fövqəl	-10.3977
▁tərəvəz	-10.3977
▁əsərlərin	-10.3978
▁düzündə	-10.398
▁Əhmədov	-10.3982
▁Bakını	-10.3988
▁Mənbələr	-10.3989
▁şərab	-10.399
▁çempionatı	-10.3991
▁Manna	-10.3992
üksək	-10.3995
▁tapa	-10.3995
▁tayfaların	-10.3995
▁öldürmüş	-10.3999
▁olardı	-10.3999
ür	-10.4005
▁bütövlük	-10.4005
▁Siz	-10.4009
▁Mingəçevir	-10.4011
▁Danimarka	-10.4011
▁sona	-10.4017
suz	-10.4017
▁75	-10.4021
▁80-	-10.4023
▁bi	-10.4025
▁səthində	-10.4033
▁bilmişdir	-10.4039
▁oxumuşdu	-10.4039
sk	-10.4042
▁çıxara	-10.4051
▁1908	-10.4051
▁uzanır	-10.406
▁kitablar	-10.4063
▁sənətkarlıq	-10.407
▁övladları	-10.4081
▁beyin	-10.4081
▁Tahir	-10.4082
▁bölmə	-10.4082
▁şərqində	-10.4085
▁komandasını	-10.4086
▁Ev	-10.4086
▁qurdu	-10.4087
▁edilməsini	-10.4088
▁incə	-10.4092
▁dahi	-10.4094
▁diametri	-10.41
▁çatmış	-10.4105
▁Qız	-10.4109
üney	-10.4117
▁hərəkatını	-10.4123
▁keçirmişdi	-10.4126
▁Qum	-10.4128
▁sayılırdı	-10.413
▁görmə	-10.413
▁soyqırım	-10.4134
▁1910	-10.4136
▁Nazi	-10.414
▁dənizində	-10.4143
▁birləşdirir	-10.4147
nik	-10.4149
▁salır	-10.4149
▁soyqırımı	-10.415
▁maksim	-10.4152
▁əxlaq	-10.4152
▁nəfəs	-10.4153
▁Rzayev	-10.4154
▁Na	-10.4156
▁siyasətini	-10.4157
▁Müsabiqəsində	-10.4158
▁dostları	-10.4158
bt	-10.416
▁musiqisini	-10.4162
▁Qar	-10.4165
▁vəsaiti	-10.4165
▁bilik	-10.4166
▁əsərdə	-10.4169
▁məktəblərində	-10.4169
▁texnikası	-10.4179
▁memar	-10.4179
▁şəbəkəsi	-10.4179
▁44	-10.4179
▁başda	-10.418
▁San	-10.4192
▁sistemləri	-10.4194
▁bəzədilmiş	-10.4195
▁Sur	-10.4196
▁bax	-10.4198
▁kəsi	-10.42
▁vali	-10.4211
▁yollar	-10.4212
▁burda	-10.4214
▁süvari	-10.4219
▁Pyotr	-10.4223
▁Qars	-10.4224
ros	-10.4225
▁Altay	-10.4226
▁toponimi	-10.4226
▁günah	-10.4237
▁məhsulu	-10.424
▁eli	-10.4248
▁Albaniyası	-10.4252
▁buradan	-10.4252
▁süd	-10.4258
▁dağətəyi	-10.4259
▁gətirdiyi	-10.4261
▁muzeyi	-10.4265
▁məşqçisi	-10.4269
▁strate	-10.4271
▁yetirir	-10.4272
ləndirilməsi	-10.4273
▁14-	-10.4285
ük	-10.4289
▁sərhədləri	-10.429
▁Coğrafi	-10.4295
▁Aktyor	-10.4295
▁http	-10.4295
▁qoca	-10.4295
▁qatıldı	-10.4296
uq	-10.4298
▁fikrini	-10.43
▁texnologiyaları	-10.4301
vari	-10.4304
▁silsiləsi	-10.4306
▁1991	-10.4309
▁məbəd	-10.431
▁tərəfin	-10.431
para	-10.4318
▁qurulmuş	-10.4319
▁250	-10.4323
▁100-	-10.4324
▁psixolo	-10.4331
▁Meksika	-10.4331
▁tünd	-10.4331
▁əziyyət	-10.4331
▁camaat	-10.4335
▁məşğuldur	-10.4337
▁problemlərin	-10.4339
▁sənədlər	-10.4342
▁Adil	-10.4357
▁məlumatı	-10.4358
P	-10.4358
▁qışla	-10.4368
▁qorxu	-10.4371
▁gəmisi	-10.4372
▁birləşmiş	-10.4388
▁göl	-10.44
▁alətlər	-10.4401
▁reklam	-10.4404
▁mədə	-10.4405
▁Hollandiya	-10.4405
▁aralarında	-10.4405
▁yun	-10.4406
əsən	-10.4406
ğlu	-10.441
▁başlanmışdı	-10.4422
▁əsgərləri	-10.4424
▁bilmək	-10.4434
▁adlar	-10.4435
▁Kafka	-10.444
▁yaşayıb	-10.444
▁lirik	-10.4441
▁nöqtə	-10.4442
▁inşaat	-10.4448
▁Şahma	-10.4454
▁Alp	-10.4454
▁etməkdə	-10.4459
▁üsul	-10.4462
▁Rəhim	-10.4472
▁buğda	-10.4477
▁ixtira	-10.4486
▁yazılmışdı	-10.4491
▁maddələrin	-10.4491
▁alması	-10.4495
▁əməliyyatı	-10.4498
▁texnologiyası	-10.4505
▁həyatda	-10.4505
▁əşyalar	-10.4512
bir	-10.4513
▁Rumıniya	-10.4514
▁prosesində	-10.452
▁döyüşə	-10.4521
▁poetik	-10.4523
ondonda	-10.4524
unda	-10.4524
▁ulu	-10.4525
▁cəmiyyətdə	-10.4526
▁müvəffəqiyyət	-10.4527
ası	-10.4527
▁namazı	-10.4529
▁danışıqlar	-10.4532
namə	-10.4535
▁Kamil	-10.4535
▁Qadın	-10.454
▁Al	-10.454
▁Ham	-10.4543
▁orden	-10.4544
▁mexanik	-10.4548
▁hala	-10.4548
▁halın	-10.4549
▁Maraqlı	-10.4551
▁zabit	-10.4551
bə	-10.4551
iqası	-10.4552
▁Azərbaycanlı	-10.4556
▁əməkdaşları	-10.4559
▁Əfqanıstan	-10.456
▁600	-10.4561
ski	-10.4568
▁göndərilir	-10.4574
▁qardaş	-10.4581
▁xaç	-10.4583
▁1913	-10.4588
▁Şamil	-10.4589
▁işində	-10.4591
▁Təhlükəsizli	-10.4593
▁ittiham	-10.4593
▁Mirzəyev	-10.4595
▁Fi	-10.4597
▁fəaliyyətində	-10.4597
▁art	-10.46
ut	-10.4602
▁Daşkənd	-10.4605
▁faizi	-10.4608
▁mahnını	-10.461
▁arı	-10.4615
▁quruluşunu	-10.4615
▁düşüncə	-10.4624
▁Həbib	-10.4625
▁Müsavat	-10.4625
▁Balet	-10.4626
▁sənin	-10.4629
▁etdirilir	-10.4637
▁Ermənilər	-10.464
▁bilmə	-10.4641
▁hissi	-10.4642
▁Mü	-10.4649
▁təxəllüsü	-10.4651
▁qab	-10.4651
▁şəxsiyyət	-10.4653
▁İbrahimov	-10.4659
▁Ələsgər	-10.4659
▁Kubokunu	-10.4664
▁diplomati	-10.4665
▁Milad	-10.4666
▁Səfi	-10.4672
▁ri	-10.4677
▁əri	-10.4678
▁iqtisadiyyat	-10.468
▁basqın	-10.4681
▁mənbə	-10.4682
▁bərpası	-10.4689
▁Yun	-10.469
▁İdarəsi	-10.4692
▁yüzlər	-10.4694
▁biolo	-10.4698
▁payız	-10.4699
▁hazırlanmasında	-10.4699
▁universiteti	-10.47
▁addım	-10.4701
▁geyim	-10.4703
▁açılması	-10.471
▁müəssisə	-10.4714
▁çəkisi	-10.4724
▁Tbilisi	-10.4727
▁Quran	-10.473
▁alət	-10.4732
▁qoymuş	-10.4733
▁ordusunda	-10.4734
▁apardı	-10.4735
▁Şotlandiya	-10.4737
▁Şəms	-10.4737
▁nazik	-10.4738
▁obyekti	-10.4738
▁ipək	-10.474
▁tapmaq	-10.4741
▁səhiyyə	-10.4743
▁orqanizmin	-10.4744
▁hesabla	-10.4746
isey	-10.4751
▁Şirvani	-10.4753
▁satir	-10.4762
▁gərgin	-10.4766
▁ərzaq	-10.4767
▁bölgələrdə	-10.4769
▁aləti	-10.4775
mental	-10.4775
▁suları	-10.4779
▁köçmüş	-10.4783
▁binalar	-10.4787
▁işləni	-10.4789
▁partiyası	-10.4789
▁bayrağı	-10.4791
▁xanımın	-10.4792
▁Bağdad	-10.4797
▁video	-10.4813
▁Ağdaş	-10.4815
A	-10.4819
▁məskən	-10.4822
zü	-10.4822
▁qazıntı	-10.4825
▁xalçaları	-10.483
▁xadimləri	-10.483
▁düzənlik	-10.4841
▁olmamışdı	-10.4842
▁qum	-10.4842
▁filialı	-10.4848
▁yaradıb	-10.4851
▁Stad	-10.4851
▁120	-10.4855
tar	-10.4859
▁zirvəsi	-10.4864
▁inşası	-10.4865
▁ləqəbi	-10.4865
▁qüdrət	-10.4867
▁limanı	-10.4873
▁fəsiləsin	-10.4882
▁şahmat	-10.4885
▁İnstitutun	-10.4887
▁iyirmi	-10.4889
▁ənənələri	-10.4896
▁rəqib	-10.4902
▁Sibir	-10.4919
ahid	-10.4919
▁ölçüləri	-10.4922
▁39	-10.4925
▁arxiv	-10.4927
▁Vyana	-10.4928
▁sinfi	-10.4929
▁elementlər	-10.4931
▁adlanmış	-10.4933
▁araşdırma	-10.4934
▁təcrübəsi	-10.4935
▁Kərbəlay	-10.4939
▁daşıyırdı	-10.494
▁katib	-10.4943
▁Mükafatı	-10.4945
▁Məktəbi	-10.4946
▁başlanı	-10.4947
▁imperiya	-10.4947
▁bələdiyyə	-10.4948
▁13-	-10.4949
▁qızları	-10.495
▁Anadoluda	-10.4952
▁Marağa	-10.4957
▁rahat	-10.4958
▁müdafiəsi	-10.4962
▁varis	-10.4962
▁bilmirdi	-10.4965
▁Bakıxanov	-10.4966
▁Mikayıl	-10.4966
▁ixrac	-10.4971
▁konfrans	-10.4977
▁Hüseynzadə	-10.4977
▁xanəndə	-10.4984
▁məclis	-10.4989
ələbi	-10.4989
▁cinayət	-10.4991
▁mübadiləsi	-10.4991
▁beşin	-10.4995
uz	-10.4998
▁sürət	-10.5001
▁intellekt	-10.5004
▁Merkuri	-10.5004
▁Texnologiya	-10.5004
▁etməlidir	-10.5005
▁Babil	-10.5007
▁müttəfiq	-10.5011
▁kəndlərində	-10.5014
▁yollarını	-10.5016
▁körpü	-10.5019
▁bazası	-10.5021
▁ömür	-10.5024
▁ingilislər	-10.5024
▁işlənir	-10.503
▁sizə	-10.5032
▁ocağı	-10.5034
▁Şəhərdə	-10.5034
▁Heç	-10.5043
▁Serbiya	-10.5043
▁bilsin	-10.5044
ce	-10.5048
▁zonası	-10.5048
▁miqyas	-10.505
▁ehtiyatları	-10.5053
▁yerləşməsi	-10.5059
çısı	-10.506
▁70-	-10.5062
▁açı	-10.5062
▁Qış	-10.5062
dar	-10.5065
▁plan	-10.5067
▁Cüm	-10.5069
▁əlifbası	-10.5073
▁aparmışdı	-10.5081
▁becəril	-10.5082
▁Portuqaliya	-10.5082
▁bəlli	-10.5082
▁bilərsiniz	-10.5084
▁ayrılmış	-10.5086
▁1998	-10.5088
▁təh	-10.5093
▁Paşanı	-10.5094
▁ortasında	-10.511
▁şeylər	-10.512
▁Köhnə	-10.5121
▁Müstəqil	-10.5121
▁İldırım	-10.5121
▁dəhşətli	-10.5126
▁illiyi	-10.5128
▁Ələkbərov	-10.5131
▁Sultanov	-10.5135
▁əzələ	-10.5136
▁təsirini	-10.514
▁faiz	-10.5142
▁gəlirdi	-10.5144
▁65	-10.5145
▁kağız	-10.515
lənir	-10.5159
▁bölməsi	-10.5161
▁hazırlığı	-10.5161
▁2001	-10.5169
gey	-10.5169
▁c	-10.5175
▁birləşməsi	-10.5177
lanan	-10.518
▁ayına	-10.5181
▁dağlarını	-10.5182
▁sufi	-10.5183
ətən	-10.5184
▁keçmək	-10.5186
▁sual	-10.5187
▁yerin	-10.5188
qala	-10.5198
▁Yanvar	-10.52
▁aparıb	-10.52
▁İlyas	-10.5203
▁rəğbət	-10.5204
▁çempionatını	-10.5204
▁hakimiyyətdə	-10.521
lüm	-10.5211
axan	-10.5216
▁Səd	-10.5217
▁həddə	-10.5217
▁Yerl	-10.5218
▁fakt	-10.5224
lay	-10.5229
▁Dədə	-10.5233
▁kafedra	-10.5233
▁od	-10.5234
▁hündürlükdə	-10.5237
▁dayanır	-10.5237
▁mühitin	-10.5238
▁oxuduğu	-10.5239
urnalistika	-10.5239
▁uzanan	-10.5241
▁atom	-10.5243
▁qurğu	-10.5243
▁İsfahan	-10.5244
▁bildirə	-10.5244
▁qılınc	-10.5244
as	-10.5249
▁Məmmədova	-10.5254
▁sıxlığı	-10.5258
▁qa	-10.5259
▁Dünyada	-10.5262
▁şiə	-10.5267
▁poeziya	-10.5268
▁oyunçu	-10.5269
▁Quru	-10.5271
▁Həqiqət	-10.5279
▁Tesla	-10.5279
▁suvarma	-10.5279
▁quruldu	-10.5279
▁etdirdiyi	-10.5281
▁1989	-10.5286
▁formasını	-10.5289
▁məzmunu	-10.5299
▁azadlığı	-10.5305
▁qanunları	-10.5317
▁kitabxanası	-10.5318
▁təbabət	-10.5319
▁deyib	-10.532
▁nəşri	-10.5322
za	-10.5323
▁ölkəsində	-10.5323
▁görülə	-10.5332
▁komissiyası	-10.5336
▁Texnik	-10.5338
▁oranı	-10.5338
▁qrupları	-10.5339
▁dəyişən	-10.534
▁tanrısı	-10.5343
▁mövcudluğu	-10.5345
▁çətinliklər	-10.5347
▁praktik	-10.5348
▁1911	-10.5355
▁Bina	-10.5355
▁ulduzlar	-10.5356
▁Beş	-10.5358
▁möcüzə	-10.5359
▁Qəzet	-10.5361
▁gedə	-10.5363
▁molla	-10.5364
▁vəziyyətini	-10.5368
▁publisist	-10.5381
▁ora	-10.5382
▁Sasani	-10.5383
▁ştatı	-10.5384
▁cins	-10.5386
▁Təbiət	-10.5388
▁axını	-10.5398
▁Venera	-10.5399
▁oynamış	-10.54
▁taleyi	-10.54
▁vəsiqə	-10.5401
▁yad	-10.5402
▁1993	-10.5407
▁1999	-10.5408
▁Kar	-10.5411
▁çıxmaq	-10.5413
▁qadının	-10.5416
▁Muzeyin	-10.5416
▁filmlərin	-10.5417
▁qalın	-10.5418
▁səhra	-10.542
▁Cəmiyyəti	-10.5423
üstə	-10.5425
ulla	-10.5427
▁kəşfiyyat	-10.5428
▁vəsait	-10.5431
▁oymağı	-10.5433
▁Əliyeva	-10.5434
▁edirəm	-10.5435
▁Yevlax	-10.5439
▁gözəllik	-10.544
▁aparmış	-10.5441
▁Bədi	-10.5447
▁partiyasını	-10.5447
▁rəsm	-10.5449
▁fərqlənmə	-10.5451
▁Kürd	-10.5451
yar	-10.5454
▁günün	-10.5459
▁gətirmişdi	-10.5463
▁Qan	-10.5473
▁yaranma	-10.5475
▁əşyaları	-10.5475
▁şəkli	-10.5476
▁idarəsində	-10.5478
▁talış	-10.548
▁Abidə	-10.548
▁oxuya	-10.5483
▁məhsullarını	-10.549
müddətli	-10.5493
▁əla	-10.5496
ster	-10.5498
▁Memar	-10.5503
əncəvi	-10.5503
▁monoqrafiya	-10.5504
▁universitetləri	-10.551
▁məsələlərin	-10.551
▁mərkəzlərində	-10.5513
etik	-10.5514
▁sahibdir	-10.5516
▁sentyabrında	-10.552
▁qaranlıq	-10.5521
▁bilməmişdi	-10.5529
▁binanı	-10.5532
▁köçəri	-10.5532
▁xəbəri	-10.5537
▁dəyişiklik	-10.5537
▁şəhərlər	-10.5538
▁Cəfərov	-10.5539
▁800	-10.5539
▁şirkətini	-10.5545
▁başını	-10.5549
▁46	-10.5551
▁sırada	-10.5553
larına	-10.5554
▁uğursuz	-10.5554
▁sank	-10.5555
▁hamısını	-10.5557
▁Beyləqan	-10.5561
▁Kəngərli	-10.5561
çülü	-10.5561
▁Xətai	-10.5562
▁olmayıb	-10.5562
▁elementləri	-10.5563
▁Bank	-10.5564
▁Mark	-10.5567
▁rayonda	-10.5568
▁1990	-10.5571
▁sənətin	-10.5574
▁içmə	-10.5576
▁Papa	-10.5578
▁məskəni	-10.5583
▁hissələrində	-10.5583
▁görülür	-10.559
▁dü	-10.5601
▁Xınalıq	-10.5602
▁Nəsimi	-10.5602
▁Tunc	-10.5602
▁Dadaşov	-10.5604
▁göstərməyə	-10.5605
▁tanrı	-10.5606
▁dəyişdi	-10.5608
▁formalaşması	-10.5609
▁dövrümüzə	-10.562
buk	-10.5625
▁qiyməti	-10.563
▁fəlsəfəsi	-10.563
▁əsərlərindən	-10.563
xana	-10.5632
▁silsilə	-10.5639
▁it	-10.564
▁seçmə	-10.564
▁öt	-10.5641
▁uça	-10.5643
▁varlıq	-10.5644
▁dəqiqədə	-10.5646
▁əhəmiyyətini	-10.5646
▁Kabineti	-10.5647
▁qayıda	-10.5652
▁qalınlığı	-10.5655
▁ənənə	-10.5656
ıx	-10.5662
▁solo	-10.5663
▁səth	-10.5667
▁tutulmuşdu	-10.5668
bər	-10.5673
▁proqramlar	-10.5678
▁Ailə	-10.5679
şar	-10.5682
▁43	-10.5683
▁hicri	-10.5685
▁futbolçusu	-10.5687
▁otağı	-10.569
▁xadim	-10.5691
▁Rusiyası	-10.5693
▁göstərici	-10.5706
▁vuran	-10.5709
▁Sadıq	-10.5717
▁səfiri	-10.5719
▁tələbələri	-10.5722
▁olunmasında	-10.5722
▁istiqaməti	-10.5725
▁Cahan	-10.5726
▁bildirilir	-10.5727
▁Nuru	-10.5729
▁et	-10.573
▁balaca	-10.573
▁tapıla	-10.5731
▁ehtiyacı	-10.5735
▁hissələr	-10.574
▁edilməli	-10.5743
▁İngiltərədə	-10.5745
▁məlumatların	-10.5747
▁qələbəsi	-10.575
▁çıxarıla	-10.5753
lo	-10.5756
▁ömrü	-10.5757
▁martında	-10.5765
▁Qısa	-10.5768
▁orqan	-10.577
▁klubunda	-10.5771
▁olmağı	-10.5771
Peterburq	-10.5778
▁40-	-10.5778
▁yetirə	-10.5779
▁olma	-10.5782
▁Qazi	-10.5784
▁meşələr	-10.5787
▁ayırır	-10.579
▁ünvanı	-10.5792
▁aşağıda	-10.5793
▁ümid	-10.5794
▁bölgəni	-10.5797
le	-10.5798
▁oktyabrında	-10.5799
▁olmadı	-10.58
▁fərq	-10.581
▁bü	-10.5812
▁Rəsul	-10.5815
▁səy	-10.5819
▁pay	-10.5823
▁qul	-10.5827
▁qorunu	-10.5834
▁dolları	-10.5834
▁artırmaq	-10.5839
▁fərqi	-10.584
▁məsuliyyət	-10.5845
▁Cümhuriyyətini	-10.5847
▁məs	-10.5847
▁komponentlərin	-10.5848
▁fikirləri	-10.5851
▁yararlı	-10.5852
▁bağlanmış	-10.5852
▁qiymətləndiril	-10.5852
▁Demokrat	-10.5854
▁nəzər	-10.5859
▁rollar	-10.5863
ilyam	-10.5866
▁sahələrini	-10.5876
▁olunmaq	-10.5879
▁istədiyi	-10.5886
▁təbiətin	-10.5887
▁göndərildi	-10.5894
▁məmulatı	-10.5895
▁keçirməyə	-10.5897
▁görüş	-10.59
▁oyunları	-10.59
▁götürmüşdü	-10.59
▁həndəs	-10.5903
ari	-10.5905
▁məktəblərdə	-10.5911
▁mahalında	-10.5912
▁yazmaq	-10.5922
▁yaşına	-10.5927
▁küçə	-10.593
▁ayə	-10.5933
▁kapitan	-10.5936
▁Məktəb	-10.5936
▁Kuba	-10.5936
▁bəyan	-10.5938
▁işlədilir	-10.5938
▁Məhəmmədh	-10.5938
▁ifadəsi	-10.5939
▁yığması	-10.594
▁sülaləsini	-10.5944
▁yürüşü	-10.5946
▁sakit	-10.5953
▁mağara	-10.5954
▁diplomat	-10.5956
▁qoyula	-10.5963
▁gördüyü	-10.5969
▁səfəri	-10.5972
▁versiya	-10.598
ologiya	-10.5981
▁mavi	-10.5981
▁proqramları	-10.5991
▁çıxışı	-10.5991
▁vulkan	-10.5992
▁şirkətin	-10.5993
▁təbiəti	-10.5994
▁Milan	-10.6001
▁xəstəliklərin	-10.6002
▁münasibətlərin	-10.6006
▁məqalələri	-10.601
▁qolunu	-10.601
▁ərəbcə	-10.6016
▁sax	-10.6016
▁komitəsi	-10.6017
▁mahnısını	-10.6017
▁çıxa	-10.602
eneral	-10.6021
▁doğum	-10.6022
▁maqnit	-10.6022
▁Məryəm	-10.6022
▁gözü	-10.6023
▁düşərgə	-10.6027
▁üstü	-10.6035
▁pedaqoq	-10.6036
▁oyunun	-10.6042
▁etməkdədir	-10.6061
▁rəngarəng	-10.6064
▁Röv	-10.6064
▁mövqeyini	-10.6069
▁evləri	-10.607
▁əsgəri	-10.6075
▁bala	-10.6076
▁biləcəyi	-10.6077
▁Ata	-10.6082
▁vermə	-10.6087
▁ağacları	-10.6089
sün	-10.6094
▁Ondan	-10.6096
▁planetin	-10.6104
▁çaylar	-10.6104
▁şüşə	-10.6107
▁qlobal	-10.6108
▁bitirən	-10.6108
▁Vəliyev	-10.6109
▁oynadığı	-10.6109
▁lent	-10.611
▁alçaq	-10.611
▁gücünü	-10.6116
▁yana	-10.6117
▁1996	-10.6122
▁mükafatını	-10.6127
▁Əlizadə	-10.6129
▁ölü	-10.6129
▁xəstəliklər	-10.6131
▁26-	-10.6139
▁öldürülmüşdü	-10.614
▁Federa	-10.6143
▁bəxş	-10.6147
▁Şəfi	-10.615
▁hüceyrə	-10.615
▁Ağstafa	-10.6151
▁zəmin	-10.6151
▁dövrlər	-10.6154
▁versiyası	-10.6154
▁günlərdə	-10.6155
çıq	-10.616
▁səma	-10.6164
▁boru	-10.6167
▁etmədi	-10.6167
▁47	-10.6169
▁fərqlənə	-10.617
▁simfoni	-10.6174
▁respublikada	-10.6175
▁avtomat	-10.6177
▁dekabrında	-10.6177
▁təkan	-10.6178
▁arada	-10.6179
▁dediyi	-10.618
razılıq	-10.618
▁Ayı	-10.6185
▁günlərində	-10.6186
▁Fondu	-10.6188
▁1900	-10.6189
çuluq	-10.6196
▁ged	-10.6197
▁yanaşma	-10.6201
▁başlanması	-10.6201
▁modeli	-10.6205
▁xalçalar	-10.6208
▁xəbərdar	-10.6208
▁55	-10.6214
▁bilərik	-10.6217
urizm	-10.6217
▁On	-10.6223
▁xəttini	-10.6226
▁komandanlığı	-10.6228
▁təşkilatlar	-10.6229
▁müharibələri	-10.6229
▁təhsilin	-10.6229
▁Həzrət	-10.6232
▁bilmişdi	-10.6234
▁xidmətlər	-10.6235
▁təhlil	-10.6237
▁palçıq	-10.6238
▁Vahid	-10.6239
ləşdirilmiş	-10.624
▁Top	-10.624
▁göndərilə	-10.6249
ünü	-10.6253
▁respublikamız	-10.6255
▁buxar	-10.6259
▁məntiqi	-10.626
▁Bura	-10.6262
atlı	-10.6263
▁hind	-10.6263
▁qoyan	-10.6266
▁sahəni	-10.6268
▁işləmək	-10.6275
▁Əsəd	-10.6277
▁hazırlayır	-10.6277
▁torpağı	-10.6278
▁tədbirlərin	-10.6279
▁hadisəni	-10.6279
▁gövdə	-10.628
▁Nur	-10.6289
▁Yelizavet	-10.6291
▁başlanğıcı	-10.6293
▁proseslərin	-10.6305
▁tutmaq	-10.6306
▁borc	-10.6308
▁vətəni	-10.6308
▁seçkilərində	-10.6312
▁Anası	-10.6314
▁əyalət	-10.6315
▁Həmzə	-10.6315
▁ailədə	-10.6319
▁hökmdarları	-10.632
▁sümük	-10.6321
▁tapı	-10.6326
▁əzəmət	-10.6326
▁Təsərrüfatı	-10.6327
▁sevimli	-10.6328
▁yazılan	-10.633
▁institutu	-10.6331
▁artırır	-10.6331
▁Ermənistanda	-10.6332
▁torpaqlarında	-10.6335
▁Aya	-10.6338
eynalov	-10.6342
▁yığ	-10.6347
▁qalmaqda	-10.6349
▁başçıları	-10.6354
▁Torpaq	-10.6354
▁üstə	-10.6354
▁27-	-10.636
kar	-10.6362
▁yalan	-10.6365
▁Daşkə	-10.6371
▁Vəkilov	-10.6371
▁müsəlmanların	-10.6374
▁variantı	-10.6374
▁redaksiyasın	-10.6376
▁torpağın	-10.6377
▁əməyi	-10.6377
ton	-10.6378
▁oxuyur	-10.6382
▁bunlarda	-10.6385
▁dərə	-10.639
▁çətindir	-10.6392
▁fakültəsi	-10.6392
▁ekolo	-10.6395
▁dünyanı	-10.6399
▁parçası	-10.6401
▁təhrif	-10.6415
▁kəndlər	-10.6415
▁etdirib	-10.6415
▁tərcüməsi	-10.6417
▁Yaponiyada	-10.6422
▁Cəmiyyətini	-10.643
▁tamaşaların	-10.6435
▁saniyə	-10.6439
▁Don	-10.6443
▁tədqiqatçı	-10.6451
▁qurultayın	-10.6457
▁bacarıq	-10.6457
▁Əzim	-10.6458
▁Şahrux	-10.6459
▁qolları	-10.6461
▁azdır	-10.6465
▁Heyəti	-10.647
eyla	-10.6472
▁külək	-10.6473
▁ölkəsini	-10.6473
▁sahəsini	-10.6475
▁2011	-10.6477
▁vasitələr	-10.648
▁hək	-10.6481
▁1898	-10.6482
▁illərə	-10.6483
▁48	-10.6485
▁komediya	-10.6488
▁məharətl	-10.6491
▁digərləri	-10.6492
▁dünyası	-10.6495
üseyn	-10.6501
▁Atatürk	-10.6504
öhrət	-10.6504
▁meydanında	-10.6505
▁yaşa	-10.6511
▁çıxdığı	-10.6512
▁Elçin	-10.6514
▁meydanı	-10.6515
▁inkar	-10.6522
▁etməkdən	-10.6527
▁məşğuliyyət	-10.6528
▁Nazirliyin	-10.6536
▁kəsilmiş	-10.6539
▁Saray	-10.6541
▁Ramazan	-10.6541
▁kitabda	-10.6544
▁üslubu	-10.6546
niversitet	-10.6547
▁Culfa	-10.6549
▁qənaət	-10.6549
▁paralel	-10.6549
▁tutduğu	-10.6549
▁yayılır	-10.6551
▁ehtiyatı	-10.6551
həsə	-10.6553
urnalın	-10.6554
▁stadionun	-10.6555
▁köçür	-10.6556
▁dura	-10.6557
▁sim	-10.6563
▁öldü	-10.6574
▁alırdı	-10.6574
▁tənqidi	-10.6578
▁qazanmışdı	-10.6585
ərdabi	-10.6587
▁rəqsi	-10.6589
▁ünsiyyət	-10.6594
zaq	-10.6597
▁üzünü	-10.6603
ləşmiş	-10.6603
▁məskunlaşmışdı	-10.6604
▁prosesini	-10.6609
yanı	-10.6612
▁2012	-10.6615
▁sahibləri	-10.6616
▁uçuş	-10.662
▁etibarlı	-10.6621
▁tabeliyində	-10.6624
▁çempion	-10.6632
▁Təxmin	-10.664
▁yumşaq	-10.664
▁İtaliyada	-10.664
▁Artist	-10.6644
▁şa	-10.6649
▁yaratmağ	-10.6656
▁vermir	-10.6657
▁xatirə	-10.6661
▁1994	-10.6663
▁islahatlar	-10.6663
▁biznes	-10.6664
ka	-10.6665
▁Bay	-10.6666
▁Qa	-10.6667
▁məbədin	-10.6669
▁ayda	-10.6674
ıb	-10.6674
▁işlədil	-10.6674
▁Te	-10.6678
▁əməliyyatlar	-10.6682
▁Vəzir	-10.6682
▁Aristotel	-10.6685
▁Ceyms	-10.6685
▁artırılması	-10.6686
▁dəyişməsi	-10.6689
▁camaatı	-10.6695
▁tikililər	-10.6695
▁təşkilatını	-10.6706
▁evlər	-10.671
▁Xoy	-10.6713
ex	-10.6717
incə	-10.672
▁texnologiya	-10.6727
▁əzab	-10.6731
afiq	-10.6733
ivan	-10.6736
▁qazandığı	-10.6739
▁aparırdı	-10.6741
▁edilməyə	-10.6744
▁dairəsində	-10.6753
▁sarayda	-10.6754
öl	-10.6757
metr	-10.676
▁həqiqət	-10.6764
▁metrə	-10.6765
▁ideya	-10.6768
▁dağın	-10.6774
▁parçaları	-10.6776
▁bilinə	-10.6778
▁hazırladığı	-10.6778
▁Həmid	-10.678
▁qoruya	-10.6787
▁bədənin	-10.6792
ağac	-10.6795
▁düny	-10.6796
▁ağız	-10.6797
▁rəvayətlər	-10.6799
▁otaqları	-10.6811
▁qulaq	-10.6814
▁hüquqlarını	-10.6814
▁21-	-10.6814
▁Ədəbi	-10.6819
▁Hitler	-10.6824
▁rəqabət	-10.6824
▁dekorativ	-10.6824
▁göstərə	-10.6824
üzə	-10.6831
▁minə	-10.6834
▁Rüstəmov	-10.6835
▁göstərilmişdi	-10.6836
▁klip	-10.6839
▁etməsini	-10.684
▁tədqiqatların	-10.6841
▁noyabrında	-10.6845
▁okeanı	-10.6846
lamaq	-10.6847
▁avqustunda	-10.6851
vil	-10.6854
▁vəziyyətin	-10.6857
▁məhkum	-10.687
▁Şərəf	-10.687
▁Mixail	-10.687
▁Kino	-10.6871
▁qarışığı	-10.6871
▁oksigen	-10.6871
▁uğurlar	-10.6874
▁yaradılmasında	-10.6874
▁qurban	-10.6875
ko	-10.6878
▁kinostudiyası	-10.6885
▁klubları	-10.6891
▁22-	-10.69
▁əyan	-10.6901
▁xanımı	-10.6902
▁ifasında	-10.6906
▁xatırladır	-10.6913
▁örtülmüşdü	-10.6914
▁Sülh	-10.6917
▁hazırlaya	-10.6917
▁kamera	-10.6918
▁Rome	-10.692
▁buranı	-10.6921
▁düşməsi	-10.6925
▁vitamin	-10.6929
▁yayılan	-10.693
▁Afina	-10.693
▁paltar	-10.6932
▁analiz	-10.6936
▁halı	-10.6944
▁buz	-10.6944
▁yazısı	-10.6945
▁xüsusiyyətlər	-10.6945
de	-10.6948
▁olunmasını	-10.695
to	-10.695
▁Qor	-10.695
nra	-10.6951
▁oxuyu	-10.6951
▁Parlament	-10.6952
▁700	-10.6961
▁oyununda	-10.6964
▁qaldığı	-10.697
▁Alı	-10.6971
▁xaricində	-10.6973
▁tikilə	-10.6976
▁yamacında	-10.6976
▁1909	-10.6977
▁oxuyan	-10.6981
▁qoy	-10.6982
▁uzunluğunda	-10.6985
▁Di	-10.6991
▁istismar	-10.6993
empionatın	-10.7
ülüş	-10.7001
▁kollektiv	-10.7001
▁laboratoriya	-10.701
▁Av	-10.7012
▁tədbir	-10.7013
▁bilməsi	-10.7014
▁sahibliyi	-10.7017
▁Toma	-10.7018
▁struktur	-10.7029
▁Ermənistanı	-10.7031
▁nömrəsi	-10.7032
▁teatrda	-10.7032
▁hissələrini	-10.7035
▁Fu	-10.7036
▁dillərdə	-10.7039
▁varlığı	-10.704
▁önündə	-10.7041
▁Yan	-10.7043
▁payı	-10.7043
▁dalğa	-10.7044
▁nəzəriyyəsini	-10.7046
▁Yaşa	-10.7047
▁yuxu	-10.705
▁hərəkat	-10.7051
▁yapon	-10.7051
▁faktik	-10.7055
▁vokal	-10.7055
▁ideyası	-10.7056
▁gözləri	-10.7056
▁0,	-10.7057
▁Türbə	-10.7059
▁həva	-10.706
sna	-10.7063
▁azalı	-10.7067
▁qoymaq	-10.7068
▁Muzeyi	-10.7069
▁nəşriyyatı	-10.7069
▁başlanan	-10.707
▁Məhkəmə	-10.7077
▁əski	-10.708
coğrafi	-10.7082
iqtisadi	-10.7082
▁Oyunları	-10.7084
baba	-10.7085
▁mübahisə	-10.7088
▁elçi	-10.7089
▁Anna	-10.7092
▁girə	-10.7095
▁aprelində	-10.71
▁çıxarılması	-10.7102
▁katolik	-10.7103
▁Qanun	-10.7104
▁baza	-10.7105
▁Aprel	-10.7106
▁dənizdə	-10.7106
▁sayında	-10.7111
▁Maarif	-10.7114
▁kitabə	-10.7114
▁adasında	-10.7118
▁şirəsi	-10.7122
▁əyalətini	-10.7123
▁aparıcısı	-10.7124
▁edəcəyi	-10.7124
▁cavabı	-10.7126
lardan	-10.7129
▁çevrilməsi	-10.7132
▁Mart	-10.7145
▁yaşamağ	-10.7149
▁gəlirlər	-10.7149
ülfüqar	-10.7154
▁ot	-10.7155
▁götürülmüşdü	-10.7155
▁qurmaq	-10.7156
▁müstə	-10.7156
▁xatirəsin	-10.7157
▁musiqiçi	-10.7157
▁salmaq	-10.716
▁təşkilatçı	-10.7162
▁Məkkə	-10.7163
▁Var	-10.7166
▁BD	-10.7168
▁Rau	-10.717
▁çəkmiş	-10.7176
▁bizi	-10.7179
▁atmosfer	-10.7179
▁yanvarında	-10.7183
▁Romada	-10.7185
▁peyğəmbəri	-10.7186
▁İrlandiya	-10.7189
▁xanımla	-10.7198
▁qabarıq	-10.7202
▁artdı	-10.7205
▁zəlzələ	-10.7211
▁vilayətin	-10.7211
▁vəziri	-10.7213
zünü	-10.7214
▁aləmi	-10.7215
▁görüşü	-10.7216
▁kasıb	-10.7219
▁Min	-10.7224
▁göndər	-10.7225
edici	-10.7237
▁qızlar	-10.7237
▁döyüşlər	-10.7238
▁yaşamışdı	-10.7246
▁nağıl	-10.725
▁Şekspir	-10.725
rartu	-10.725
▁Ədirnə	-10.7251
▁açılan	-10.7252
▁məzunu	-10.7253
▁dərində	-10.7255
▁ərazilərin	-10.7256
▁müəllimlik	-10.7258
▁kəndli	-10.7258
▁gəlmə	-10.7261
▁Mar	-10.7263
▁Tələbə	-10.7266
▁dissertasiya	-10.7266
liyə	-10.7274
▁göstəricisi	-10.7276
▁göstərişi	-10.7277
▁dəyəri	-10.7291
▁dişi	-10.7292
şərqində	-10.7292
ləşdirilməsi	-10.7298
▁Alim	-10.7299
▁nifrət	-10.7299
▁vitse	-10.7299
▁Xankəndi	-10.7299
▁toplanması	-10.7299
▁Əyyub	-10.73
▁1904	-10.7302
▁MR	-10.7303
▁magistr	-10.7305
▁keçmişdə	-10.7305
qat	-10.7306
▁fikirlərini	-10.7306
▁yayı	-10.7311
▁əmin	-10.7312
▁aldıqda	-10.7314
▁ayrılması	-10.7315
▁əksəriyyətini	-10.7315
▁iz	-10.7317
▁vətəndaşı	-10.7318
liyyə	-10.7318
▁ruhu	-10.7319
▁binaları	-10.7324
▁vəzifələrdə	-10.7325
000	-10.7329
▁İnkişaf	-10.733
▁Tel	-10.7331
▁keçmişdi	-10.7332
▁göndərilmişdi	-10.7335
▁dağlarında	-10.7336
▁harada	-10.7337
▁səsvermə	-10.7338
▁yaşamaq	-10.7339
▁Saat	-10.7339
▁proseslər	-10.7344
▁200-	-10.7345
ist	-10.7346
örkəm	-10.7347
▁qəribə	-10.7348
▁qalxan	-10.7356
▁ədəbiyyatda	-10.7362
▁mühafizəsi	-10.7364
▁Tu	-10.7366
▁müəlliflər	-10.7369
▁1995	-10.7373
▁komissiya	-10.7375
▁bağlayır	-10.7376
▁Əkinçi	-10.7376
▁qayğı	-10.7377
▁artmışdı	-10.7377
▁Şamaxıda	-10.7385
▁Yen	-10.7396
▁marağı	-10.7396
▁vurur	-10.7398
▁Nəbi	-10.7398
▁əsasları	-10.74
▁edin	-10.7401
▁birləş	-10.7402
▁muzeyin	-10.7403
▁2014	-10.7406
texnik	-10.7406
▁salam	-10.7408
▁yavaş	-10.7415
▁olmasında	-10.7417
▁hesablama	-10.742
▁bazasında	-10.7421
▁1997	-10.7423
▁qalması	-10.7425
▁Kazımov	-10.7427
iman	-10.743
▁mərasimində	-10.7431
▁kilsəsini	-10.7431
▁Qadınlar	-10.7435
▁imkanlar	-10.7436
▁qanunlar	-10.7437
▁Axı	-10.7438
▁yaranmasında	-10.7439
▁çəkdi	-10.7442
▁sənətkarlar	-10.7443
▁müəllimlər	-10.7444
▁gətirmiş	-10.7444
▁Mədinə	-10.7446
▁ustaları	-10.7449
▁salınması	-10.7451
▁vəzifələri	-10.7454
▁caz	-10.7454
▁söyləyir	-10.7457
▁layihəsini	-10.746
▁dost	-10.746
ua	-10.7461
▁qiyam	-10.7471
▁1960	-10.7473
▁1988	-10.7473
▁Konstitusiya	-10.7473
▁tələbəsi	-10.7474
▁topu	-10.7475
▁yarı	-10.7476
▁edilmə	-10.7477
▁səyyah	-10.7477
▁keçi	-10.7483
▁Şərqin	-10.7485
lit	-10.7487
▁Nəsir	-10.7488
▁Tə	-10.7491
▁Arxeolo	-10.7492
▁Məclis	-10.7494
▁mübarizəsi	-10.7495
▁palıd	-10.7495
▁1,	-10.7497
▁usta	-10.7497
mı	-10.7501
▁görmüş	-10.7509
▁mayında	-10.7513
▁tamaşasın	-10.7514
▁başladığı	-10.7519
▁Frans	-10.752
▁Sir	-10.753
nü	-10.7534
K	-10.7537
▁hökumətini	-10.7537
▁filosof	-10.7543
▁NATO	-10.7545
▁bakalavr	-10.7545
▁Əfşar	-10.7546
▁Həmədan	-10.7547
siyahıyaalınması	-10.7548
▁meyl	-10.7549
▁qitə	-10.7552
▁Neftç	-10.7553
▁qanunvericilik	-10.7554
▁dilə	-10.7555
▁adlandırırdı	-10.7557
▁sırasın	-10.7558
texniki	-10.7558
▁folklor	-10.7559
▁Türkmən	-10.7559
▁qalırdı	-10.7564
olo	-10.7571
▁yayımlan	-10.7572
▁qadını	-10.7572
▁döndü	-10.7578
▁nəci	-10.7585
▁adamın	-10.7591
N	-10.7594
ərgüş	-10.7595
▁quraq	-10.7595
▁tropik	-10.7595
▁dairə	-10.7596
riyaziyyat	-10.7598
▁romantik	-10.76
▁sınaq	-10.7601
▁hadisəsi	-10.7601
▁boy	-10.7602
▁yazmağ	-10.7607
▁tədbirləri	-10.7609
▁qayıdı	-10.761
▁girdi	-10.7611
▁fevralında	-10.7611
▁idarəsini	-10.7617
tı	-10.7622
▁qır	-10.7623
▁1970	-10.7623
▁alını	-10.7626
▁Fai	-10.7626
▁xəzərlər	-10.7631
▁yarımadasında	-10.7633
▁bər	-10.7636
▁gu	-10.764
▁Kimya	-10.7644
▁İnzibat	-10.7645
▁qayıdan	-10.7645
▁batil	-10.7646
▁oynadı	-10.7646
▁orucu	-10.7646
▁mərhum	-10.7647
▁Sərəncamı	-10.7648
▁tamaşası	-10.7649
▁kəndlərini	-10.7649
▁dillərin	-10.7652
▁müalicəsi	-10.7656
▁təhlükəsi	-10.7671
▁adlandırmışdı	-10.7673
▁keçdikdə	-10.7675
00	-10.7677
▁hazırlanmışdı	-10.7677
▁Aslanov	-10.7679
▁publisistik	-10.7687
▁həkimi	-10.769
▁açılmışdı	-10.7692
▁sənə	-10.7695
▁professional	-10.7696
▁Sonuncu	-10.7696
▁mütə	-10.7697
▁İvan	-10.7698
▁naxışlar	-10.7699
sının	-10.7699
▁işlənməsi	-10.7701
▁bilməzdi	-10.7702
▁karyerasın	-10.7705
▁kəndlərindən	-10.7709
▁yaralanmışdı	-10.7713
▁səviyyəl	-10.7715
▁Yerdə	-10.7716
▁mənbələri	-10.7716
▁boyun	-10.7718
▁Mərkəz	-10.7719
KP	-10.772
▁universitetdə	-10.7721
▁keçdiyi	-10.7722
▁məzar	-10.7732
▁Fikr	-10.7732
▁evlərin	-10.7732
▁kökü	-10.7733
▁nəqliyyatı	-10.7734
▁Adı	-10.7737
▁Bill	-10.7738
▁titulu	-10.7739
▁Düz	-10.7743
▁açıldı	-10.7747
▁cəza	-10.7749
▁ol	-10.775
▁tərəfdarı	-10.775
▁torpağ	-10.7759
▁bacarığı	-10.7763
▁Boz	-10.7763
▁iqtisadiyyatın	-10.7767
▁Qaraman	-10.7768
▁keramika	-10.7768
▁artım	-10.7769
▁dərəsi	-10.7771
inski	-10.7773
▁oykonim	-10.7775
▁Səlcuq	-10.7785
▁Şab	-10.779
▁Nəsib	-10.7798
▁məqsədlər	-10.7798
▁icma	-10.7798
▁üsullar	-10.7799
▁tuta	-10.7803
▁günləri	-10.7804
▁Rasi	-10.7804
▁günündə	-10.781
▁üslubunda	-10.781
▁İnqilab	-10.7815
▁birləşdiril	-10.782
▁üzvlərini	-10.7823
▁23-	-10.7823
▁konstitusiya	-10.7831
▁Antoni	-10.7831
▁bin	-10.7836
▁dəyişi	-10.784
▁rəsmləri	-10.7844
▁olunmağ	-10.7845
▁Ağdərə	-10.7849
▁Təzə	-10.785
▁Balkan	-10.7851
▁desə	-10.7852
▁təsirli	-10.7852
▁işğalında	-10.7853
▁yazılıb	-10.7855
▁1902	-10.7857
▁üsulları	-10.786
▁gül	-10.7871
▁birləşməsində	-10.7873
quli	-10.7874
▁AD	-10.7875
▁solisti	-10.7875
▁41	-10.7876
▁karbon	-10.7877
▁qazı	-10.7877
Araz	-10.7878
▁qapa	-10.7883
▁Şirkətin	-10.7884
bat	-10.7888
▁Dörd	-10.7893
▁çevrilə	-10.7896
ilan	-10.7898
▁digəri	-10.79
▁federa	-10.79
▁imzaladı	-10.7903
▁İlisu	-10.7904
▁çıxarmaq	-10.7905
▁gətirilmiş	-10.791
▁Ştatları	-10.791
▁toplusu	-10.791
▁bitkisi	-10.7911
▁raket	-10.7915
▁Cavadov	-10.7915
▁göndərilmiş	-10.7921
▁xəstəlikləri	-10.7921
▁Rəsmi	-10.7923
▁oxu	-10.7925
▁keçdik	-10.7927
▁gedirdi	-10.7928
nur	-10.793
▁medallar	-10.793
▁müsabiqəsin	-10.7933
▁ayrılmışdı	-10.7937
▁birləşmə	-10.794
▁mübarizəni	-10.794
▁məruzə	-10.7941
▁əti	-10.7943
▁öyrənən	-10.7946
▁arzusu	-10.7947
▁filosofu	-10.7947
▁maddələri	-10.7949
▁çəkilməsi	-10.795
▁Türküstan	-10.7951
▁Par	-10.7952
▁aktual	-10.7952
▁sidik	-10.7952
▁Haqverdiyev	-10.7952
▁Avrasiya	-10.7952
▁naməlum	-10.7953
▁konfransın	-10.7957
▁bazarın	-10.7959
▁qabığı	-10.7966
▁qayna	-10.7968
▁etdirilməsi	-10.7972
▁bağı	-10.7977
▁körfəzi	-10.7984
▁danışa	-10.7985
▁geolo	-10.7986
▁Elxan	-10.7991
▁mənzil	-10.7993
▁yazan	-10.7995
▁fakültə	-10.7998
▁qayıtdıqda	-10.8004
▁pozulması	-10.8005
▁mühacirət	-10.8005
▁səslənir	-10.8006
▁şübhəsiz	-10.8007
▁açılmış	-10.8009
▁bölgəsini	-10.801
▁göndərmişdi	-10.8014
▁kürd	-10.8017
▁ruhani	-10.8017
▁Bülbül	-10.8022
▁Alf	-10.8029
▁təhlükəsiz	-10.8031
▁əvvəllərinə	-10.8035
▁Rəq	-10.8035
▁1979	-10.8037
▁zidd	-10.8038
▁zərb	-10.8038
▁turnirin	-10.8043
▁çətinlik	-10.8043
▁nəsr	-10.8043
▁yubileyi	-10.8047
▁yanacaq	-10.8048
▁vulkanları	-10.8048
▁yüksəkliyi	-10.8049
▁Elektron	-10.8052
▁həssas	-10.8056
▁çıxışları	-10.8057
▁ədəbiyyatşünas	-10.8058
▁tapmış	-10.8059
▁dərinliyi	-10.8059
üd	-10.8066
▁kubok	-10.8072
▁rəqibi	-10.8073
▁əlifba	-10.8075
▁56	-10.8077
▁1886	-10.8078
▁görüşdə	-10.8083
empionatı	-10.8085
▁hazırlamışdı	-10.8089
▁1986	-10.809
let	-10.8093
▁diplom	-10.8101
▁faizini	-10.8104
▁inam	-10.8105
tika	-10.8106
▁Şərif	-10.8106
laraq	-10.8107
▁hasil	-10.8109
remyer	-10.8109
▁Neptun	-10.8109
▁Arslan	-10.8109
▁mərmər	-10.8109
▁vətənpərvər	-10.811
▁bəylərbəyi	-10.811
▁dayana	-10.811
▁kub	-10.8125
▁1,5	-10.8126
▁sonda	-10.8129
▁ədalət	-10.8132
▁oyunlarında	-10.8132
ent	-10.8143
▁filmlərdə	-10.8145
və	-10.8147
▁Vaxt	-10.815
▁qanunu	-10.8151
▁Məscidi	-10.8155
cümə	-10.8155
▁kanal	-10.816
omediya	-10.8161
▁Mütər	-10.8162
▁maşınqayırma	-10.8164
▁qaldırmaq	-10.8164
▁şir	-10.8168
oft	-10.817
▁tutumu	-10.817
▁təminatı	-10.8171
▁almanlar	-10.8175
ğın	-10.8176
▁vaxta	-10.8181
▁səhifə	-10.8181
▁marka	-10.8186
▁maarifçi	-10.8188
▁əlaməti	-10.819
▁Məhkəməsi	-10.8195
▁padşah	-10.8201
▁böyüyü	-10.8208
▁dramaturq	-10.8211
▁for	-10.8213
çar	-10.8214
▁təməl	-10.8215
▁açdı	-10.8215
▁Herodot	-10.8215
▁Ko	-10.8216
▁xaqanlığı	-10.8217
▁Belarus	-10.8218
▁qoyulu	-10.8221
▁Ha	-10.8222
▁məclislərin	-10.8222
▁Niderland	-10.8229
bit	-10.823
kcə	-10.823
▁kəməri	-10.8234
▁partiyanı	-10.8237
▁qəbri	-10.8238
▁xaqan	-10.8239
▁bələdiyyəsi	-10.8241
▁tele	-10.8244
▁dağlarda	-10.8245
▁təsadüfi	-10.8246
▁rütbə	-10.8257
▁funksiyası	-10.8258
▁komitəsin	-10.8261
▁müəlliflərin	-10.8262
niz	-10.8262
▁hökmü	-10.827
▁1896	-10.8271
▁estetik	-10.8271
▁yunanlar	-10.8272
▁tütün	-10.8275
▁öhdəsin	-10.8278
▁vəfatı	-10.828
▁gecəsi	-10.8281
▁Tur	-10.8281
▁seçilməsi	-10.8282
▁həddində	-10.8282
▁Ərazidə	-10.8284
▁ştat	-10.8284
▁diviziya	-10.8288
▁Ər	-10.8292
▁heyət	-10.8294
▁qüvvəsini	-10.8295
▁insana	-10.8297
▁istehsalında	-10.8297
▁çörə	-10.8298
▁təsvirləri	-10.8298
▁saxlanması	-10.8302
▁quldur	-10.8302
▁məktubun	-10.8303
▁bütünlük	-10.8305
▁kadrların	-10.8308
▁ideal	-10.8309
▁tərbiyəsi	-10.8313
▁gürcülər	-10.8317
▁divarı	-10.8318
▁yolun	-10.832
▁Xəlifə	-10.8323
▁zərif	-10.8323
▁Sergey	-10.8323
▁otaq	-10.8324
▁həlledici	-10.8324
▁mahiyyəti	-10.8325
ze	-10.8329
▁1901	-10.8329
▁qət	-10.8331
▁nailiyyətlər	-10.8336
▁dəyişdirilmiş	-10.834
▁Qərbdə	-10.8347
▁toxum	-10.8347
▁qabiliyyətini	-10.8355
iz	-10.8362
▁gözlənilmə	-10.8368
▁tikilməsi	-10.8371
▁təqaüd	-10.8374
▁muxtar	-10.8374
▁olmalı	-10.8374
▁anasını	-10.8374
▁90-	-10.8375
▁Yuqoslaviya	-10.8377
▁sorğu	-10.8377
▁Dinam	-10.8377
▁qulluq	-10.8378
▁firması	-10.838
▁stadion	-10.8382
▁Şahbu	-10.8385
▁heykəl	-10.8385
▁tayfalarını	-10.8386
▁filmini	-10.8389
▁xor	-10.8389
▁gətirmək	-10.8389
▁oxumaq	-10.839
NS	-10.8392
▁Amerikan	-10.8392
▁memarlığı	-10.8395
▁motivləri	-10.8395
▁funksiyasını	-10.8398
▁birləşir	-10.8405
▁realist	-10.8405
▁mövsümü	-10.8411
▁ərə	-10.8412
▁tələffüz	-10.8416
▁taxt	-10.8418
▁Akademiyasın	-10.842
▁Sənət	-10.8425
▁yardımı	-10.8426
▁kol	-10.8429
▁əlaqələrini	-10.8429
▁götürdü	-10.843
▁Dini	-10.8431
▁cazibə	-10.8431
▁Qırğızıstan	-10.8431
▁Səud	-10.8431
▁türkcə	-10.8433
▁çıx	-10.8433
▁Tamaşaçılar	-10.8435
▁sərhədlərini	-10.8436
▁bilib	-10.8436
▁nişanı	-10.8437
▁sülalə	-10.844
▁yaşadıqları	-10.8442
▁olanda	-10.8443
mət	-10.8443
▁Tele	-10.8444
akt	-10.8448
▁dinini	-10.8449
▁döyüşçü	-10.8452
▁tatar	-10.8455
▁turist	-10.8456
▁təcil	-10.8456
▁şəhərlərindən	-10.8456
▁İnsanlar	-10.8458
mar	-10.8458
▁hekayələr	-10.8459
ö	-10.8463
▁ox	-10.8464
▁heykəli	-10.8465
▁adlandırıl	-10.8465
▁geriyə	-10.8466
▁1984	-10.8468
itva	-10.8468
▁uğuru	-10.8471
▁bənzəyir	-10.8477
▁şəhərlərin	-10.8484
▁çevrilib	-10.8486
▁epi	-10.8487
▁saxlanıla	-10.8488
kommunikasiya	-10.8489
▁axırlarında	-10.8491
▁sözlərini	-10.8493
▁Rəhimov	-10.8494
▁rəssamlıq	-10.8495
▁etdiyimiz	-10.8496
▁en	-10.85
▁turşusu	-10.8502
▁balıqlar	-10.8504
▁reaksiya	-10.8505
▁24-	-10.8506
▁51	-10.8508
▁məclisi	-10.8511
▁1903	-10.8515
▁müəssisələr	-10.8516
▁oğlanları	-10.8516
▁müəllimləri	-10.8517
▁nami	-10.8517
▁təşəkkül	-10.8518
8-	-10.852
▁komandir	-10.8523
▁1973	-10.8523
▁2015	-10.8523
üəyyən	-10.853
▁düzəldilmiş	-10.8531
▁Elektr	-10.8531
▁yayım	-10.8532
▁Assosiasiyası	-10.8541
mobil	-10.8541
▁Əzimzadə	-10.8542
▁bə	-10.8544
▁şeyləri	-10.8548
ban	-10.855
▁Sa	-10.8553
▁baxış	-10.8553
qərbində	-10.8557
▁tikilmişdi	-10.8559
▁donanması	-10.8559
▁mətn	-10.8564
▁quşlar	-10.8565
▁başlaması	-10.857
tən	-10.8572
▁avqustda	-10.8573
▁Əbül	-10.8573
▁İslamı	-10.8576
▁təşkilatları	-10.8577
▁orqanlarını	-10.8577
▁ölkələrini	-10.8578
▁1982	-10.8579
▁1975	-10.8579
▁münaqişə	-10.8579
▁yem	-10.8581
▁dua	-10.8581
▁Müharibəsi	-10.8581
▁toz	-10.8582
▁kredit	-10.8583
▁yaşaya	-10.8583
▁Bi	-10.8585
▁xeyri	-10.8586
▁Birlik	-10.8592
▁İsgəndəri	-10.8594
▁komp	-10.8596
▁kartof	-10.8596
▁şəhərlərini	-10.8597
▁hidrogen	-10.8597
▁qaçdı	-10.8597
▁imzalandı	-10.8598
▁Abdullah	-10.8599
▁axırın	-10.86
▁təhlükəsizli	-10.8602
sal	-10.861
▁sahələrin	-10.8611
▁Adi	-10.8617
▁məsələni	-10.8619
▁cəmiyyətini	-10.862
▁Dünyanı	-10.8623
▁igid	-10.8623
▁razılığı	-10.8624
▁sənayesini	-10.8626
tdi	-10.8633
▁1920	-10.8635
▁iti	-10.8636
▁ansamblı	-10.8637
▁çata	-10.8639
▁öyrənmişdi	-10.8639
▁törətdi	-10.8647
▁yerlərin	-10.8648
▁İrəvanda	-10.8649
▁müvəffəq	-10.865
▁qalxı	-10.865
▁yarımfinal	-10.8652
▁İstiqlal	-10.8652
▁dağıdı	-10.8652
▁Əzizbəyov	-10.8652
2-	-10.8654
▁ka	-10.8657
▁125	-10.8657
▁əsgərlər	-10.8658
▁nəticələrin	-10.866
▁böhran	-10.8667
▁şairlərin	-10.8667
▁bildiyi	-10.8671
▁kosmos	-10.8671
▁vəkil	-10.8681
▁Əbdül	-10.8682
▁1987	-10.8691
▁incəsənəti	-10.8693
▁Səmərqənd	-10.8707
▁kömür	-10.8708
▁uşaqlıq	-10.871
▁məktəblərin	-10.8721
▁xanla	-10.8722
▁meyvələri	-10.8723
▁Alma	-10.8723
▁Ordusunu	-10.8723
▁qəbulu	-10.8724
▁Əmirov	-10.8726
▁səni	-10.8727
▁itirdi	-10.8728
▁Tədri	-10.8728
▁Pa	-10.8731
▁məqaləsi	-10.8733
▁xüsusiyyət	-10.8733
▁mənşə	-10.8735
▁vermədi	-10.8738
▁tarixçilər	-10.8743
▁müsahibə	-10.8751
▁hara	-10.8752
▁pillə	-10.8755
▁özlərin	-10.8755
▁Me	-10.8756
▁sultanın	-10.8756
▁sel	-10.8758
▁intensiv	-10.8763
▁yazdı	-10.8763
▁Oskar	-10.8764
▁Kolumbiya	-10.8764
▁subtropik	-10.8765
ose	-10.8765
▁Boris	-10.8765
▁ayrıldı	-10.8765
▁çalışdı	-10.877
▁Sünik	-10.877
▁ideyaları	-10.8774
▁qaydalar	-10.8778
▁iqamətgahı	-10.8782
▁növlərində	-10.8788
▁simvoli	-10.8793
▁xəzinə	-10.8799
▁diviziyası	-10.88
▁Anar	-10.8801
▁məqam	-10.8801
▁gətirildi	-10.8801
▁naxış	-10.8803
▁Qərib	-10.8803
▁günümüzə	-10.8808
▁İnstitut	-10.8809
▁festivalın	-10.8816
▁qalasında	-10.8817
▁Henri	-10.8819
▁Tacikistan	-10.882
▁MDB	-10.882
▁çatışmazlığı	-10.882
▁düzbucaq	-10.8821
▁Sevil	-10.8821
▁Oyunlarında	-10.8823
▁zavod	-10.8824
▁Arran	-10.8827
▁çatdıqda	-10.8827
▁zabiti	-10.8828
▁yarımadası	-10.8828
▁parlamentin	-10.8834
▁heyətin	-10.8834
▁miniatür	-10.8838
▁divan	-10.8839
▁Şi	-10.8841
▁aləmində	-10.8842
▁yetirilmiş	-10.8843
▁səhnədə	-10.8844
▁Qəhrəman	-10.8844
▁başlanğıc	-10.8849
▁mühitdə	-10.8852
mayor	-10.8855
▁52	-10.8858
▁aləmin	-10.8859
▁hərfi	-10.886
▁iyununda	-10.8865
cək	-10.8866
▁xoşbəxt	-10.8868
▁debüt	-10.8876
▁Samu	-10.8878
▁Nensi	-10.8878
▁istəyirəm	-10.888
▁əməkdaşı	-10.8882
▁obrazını	-10.8886
▁seçkilərdə	-10.8889
▁relyef	-10.8889
▁get	-10.8893
üz	-10.8895
▁hey	-10.8898
▁yayın	-10.8899
▁Pas	-10.89
▁getmişdi	-10.8903
▁ustalıq	-10.8904
▁kitabların	-10.8905
▁54	-10.8907
▁Hə	-10.8908
▁qalanı	-10.8909
▁maşını	-10.891
▁sürür	-10.8911
▁filmlərində	-10.8912
▁sıralarında	-10.8914
▁çıxarılmış	-10.8917
▁ulduzun	-10.8917
▁müəssisələrində	-10.8918
▁səviyyəsini	-10.892
bdin	-10.8924
▁Salah	-10.8931
▁iqtisadiyyatını	-10.8932
▁David	-10.8934
▁Şəhriyar	-10.8934
▁həzm	-10.8935
▁xristianlığı	-10.8935
▁qoz	-10.8936
▁tövsiyə	-10.8938
▁şəkilli	-10.8942
T	-10.8942
▁çoxluğu	-10.8943
laşdırılmış	-10.8945
▁vəzir	-10.8945
▁Martin	-10.8946
▁başqalarını	-10.8946
▁məzarı	-10.8946
▁xanlığın	-10.8947
▁münasibətlərini	-10.8948
▁hüququnu	-10.8953
▁85	-10.8957
▁gətirə	-10.8965
▁Avropanı	-10.8965
▁otura	-10.8967
▁İmperiyasını	-10.8973
▁qışı	-10.8974
▁fərman	-10.8974
▁əyalətində	-10.8975
car	-10.8978
▁qülləsi	-10.8983
▁boğazı	-10.8984
▁təsirində	-10.8989
▁Deyilən	-10.8991
▁Vyetnam	-10.8991
▁Əksər	-10.8993
▁ittifaqı	-10.8993
▁ayrılma	-10.8997
▁əmir	-10.8997
▁doğulmuş	-10.9
▁bolşeviklər	-10.9001
öz	-10.9005
ual	-10.9006
▁qanın	-10.901
▁Balak	-10.9011
▁yanğın	-10.9012
▁etməsində	-10.9016
▁əyaləti	-10.9027
▁sosialist	-10.903
▁əməliyyatları	-10.903
▁Sadə	-10.9033
▁ehti	-10.9033
▁qəbilə	-10.9035
▁Tehranda	-10.9036
▁yarışların	-10.9045
icarət	-10.9049
▁məhsullar	-10.9049
▁tərənnüm	-10.9049
▁Əlbət	-10.905
▁yaşaması	-10.9054
xüsusiyyətlərini	-10.9054
▁dəmiryolu	-10.9056
▁tutulması	-10.9056
▁Məscid	-10.9057
▁səlahiyyətli	-10.9059
▁ehtimalı	-10.906
yı	-10.906
▁yarpaqları	-10.906
▁danışan	-10.9064
▁Cek	-10.9065
▁müstəqilliyi	-10.9065
▁generalı	-10.9074
▁vəkili	-10.9077
▁dramat	-10.9077
▁İndiki	-10.9078
▁sərgi	-10.9081
▁edilməkdə	-10.9089
▁amerikalı	-10.9093
▁Heyətin	-10.9094
▁mərhələsin	-10.9095
istan	-10.9099
▁Bəziləri	-10.9101
▁Babəki	-10.9103
▁İspan	-10.9105
olf	-10.9105
▁Ehtimal	-10.9107
▁plastik	-10.9107
▁nisbi	-10.9107
▁Harun	-10.9108
▁İtalyan	-10.9108
▁Camal	-10.9109
▁bildirib	-10.9109
▁ötə	-10.9112
▁mövzular	-10.9113
▁64	-10.9116
▁Final	-10.9119
▁Poli	-10.9119
▁görünüşü	-10.9122
▁Yuli	-10.9126
▁Muzey	-10.9132
▁qurultayı	-10.9136
yib	-10.9137
▁Binə	-10.9139
▁əlyazma	-10.9139
▁Bankı	-10.914
▁Tarixçi	-10.914
▁qüllə	-10.9144
tun	-10.9145
M	-10.9146
▁gölünü	-10.9147
▁gənclərin	-10.915
▁qatılı	-10.915
▁cəzası	-10.9155
evinə	-10.9155
▁məqaləsin	-10.9159
▁karyerasını	-10.9161
▁variantın	-10.9165
▁Əşrəf	-10.9166
▁yarımsəhra	-10.9166
▁Fatimə	-10.9166
▁Sərdar	-10.9166
▁siyasətçi	-10.9168
▁orbit	-10.9172
▁alayın	-10.9172
▁olmaları	-10.9173
▁Sadıqov	-10.9175
▁dünyasında	-10.9176
▁kommunist	-10.9179
▁kompozisiyası	-10.918
▁xidmətdə	-10.918
▁etnonimi	-10.9185
▁müdaxilə	-10.9187
▁Erkə	-10.9187
od	-10.9188
▁hərəkətləri	-10.9192
▁qurur	-10.9193
▁pyesi	-10.9202
▁gəlişi	-10.9203
▁yaddaş	-10.9204
olit	-10.9211
▁Vaşinqton	-10.9211
▁maddəsi	-10.9212
▁müharibələr	-10.9217
▁İm	-10.9218
▁Salman	-10.9218
rektoru	-10.9219
▁üzvlərin	-10.9219
▁orqanizm	-10.922
▁toxuma	-10.922
tərəqqi	-10.9223
▁Bəxtiyar	-10.9225
▁Yupiter	-10.9225
▁saxlanılması	-10.9225
▁Fər	-10.9228
▁evin	-10.9229
▁təhlili	-10.9231
▁qüvvətli	-10.9232
▁azalması	-10.9232
▁prosesləri	-10.9235
▁imtahan	-10.9237
▁erkək	-10.9238
▁sərnişin	-10.9239
▁şəri	-10.9241
▁albomunu	-10.9242
▁çıxarılmışdı	-10.9242
-10	-10.9247
ğ	-10.9247
qu	-10.9251
▁Dəli	-10.9253
▁öyrənilmiş	-10.9254
▁zəng	-10.9254
▁mahi	-10.9255
acaq	-10.9261
▁You	-10.9263
▁Fizika	-10.9268
▁bolşevik	-10.9271
▁mətbuatın	-10.9271
▁milad	-10.9278
▁adlandırmış	-10.9283
▁Bəhmən	-10.9284
▁Divan	-10.9292
▁Ruh	-10.9297
▁oyunlarını	-10.93
rd	-10.9306
▁edərdi	-10.9307
▁vəzifələr	-10.9307
▁orkestr	-10.9311
▁meşələri	-10.9312
▁nümayəndələrin	-10.9313
▁səhifələrində	-10.9319
▁təşkilatların	-10.932
▁məhəllə	-10.9324
iqasını	-10.9326
▁abidələrində	-10.9328
▁şirkətləri	-10.9334
▁Sina	-10.9334
▁məsuliyyəti	-10.9337
▁operator	-10.9339
▁formalaşmışdı	-10.9341
▁Mic	-10.9343
▁qarın	-10.9343
▁Bayrağı	-10.9343
▁Bosniya	-10.9343
▁assistent	-10.9343
▁Soyuq	-10.9343
▁Ədalət	-10.9343
▁amansız	-10.9344
▁qaraciyər	-10.9344
▁ulduzların	-10.9347
▁məqalələrin	-10.9347
▁icması	-10.935
▁divarlarını	-10.9351
▁qazanmaq	-10.9351
▁partlayış	-10.9354
ider	-10.9356
▁Fəlsəfə	-10.9358
▁Albert	-10.936
▁formalaş	-10.9363
▁torpaqlarda	-10.9363
▁nüfuzu	-10.9367
▁yerləşmişdi	-10.9368
ədək	-10.9373
▁ruhun	-10.9376
rəm	-10.9379
Konservatoriyası	-10.9379
▁adalar	-10.938
▁təsərrüfatında	-10.9386
▁görünüş	-10.9394
▁əlamətləri	-10.9395
səf	-10.9398
▁obyektləri	-10.9398
▁Əks	-10.9399
▁poeması	-10.94
▁Frank	-10.94
▁adla	-10.9403
▁Natəvan	-10.9403
▁görürdü	-10.9405
▁savaş	-10.9406
▁işləyirdi	-10.9407
▁Qulu	-10.9407
▁Cəbhəsi	-10.9407
▁Ərazisi	-10.941
▁Kaspi	-10.9411
▁orduda	-10.9413
▁məntiq	-10.9413
əzən	-10.9423
▁gəmiləri	-10.9425
▁elin	-10.9426
▁1897	-10.9426
▁alayı	-10.9429
▁gözəlliyi	-10.9433
▁hücumları	-10.9436
▁oruc	-10.9438
▁yarışlarda	-10.9439
▁Sovetlər	-10.944
▁işığı	-10.944
▁Qazan	-10.9444
▁çoxluq	-10.9454
▁olars	-10.9458
▁farslar	-10.9462
▁pak	-10.9463
▁Veriliş	-10.9464
▁istəsə	-10.9464
▁Nuxa	-10.9464
▁yayılıb	-10.9464
▁balet	-10.9466
dissertasiyasını	-10.9468
▁şəraitin	-10.947
▁Bol	-10.947
▁Şıxlı	-10.9471
▁Anti	-10.9473
qəsd	-10.9474
▁gəldiyin	-10.9474
iyalı	-10.9474
▁quruluşunda	-10.9477
▁yatağı	-10.9478
▁rəhbərləri	-10.9478
▁dərslik	-10.9482
▁tapılı	-10.9483
▁şairlər	-10.9484
▁tikilir	-10.9487
▁sita	-10.9487
▁həvəskar	-10.9488
▁persona	-10.9488
op	-10.9489
▁Ailəli	-10.9492
▁götürülür	-10.9492
▁And	-10.9493
▁ənənələrini	-10.9495
▁səbəbiy	-10.9499
▁qəhrəmanlıq	-10.9503
altı	-10.9506
▁yoldaşları	-10.9508
▁Asiyanı	-10.9511
▁Əsərləri	-10.9512
▁payın	-10.9512
pək	-10.9515
▁hakimiyyətin	-10.9516
▁istifadəçi	-10.9516
▁başlanğıcında	-10.9517
▁səbəbləri	-10.9522
▁toxucu	-10.9524
▁sui	-10.9525
▁rəsmə	-10.9526
▁süfrə	-10.9527
▁Bazar	-10.9528
▁toplanan	-10.9529
▁davamı	-10.9531
▁dizayn	-10.9532
▁Bəlkə	-10.9532
▁suyunu	-10.9533
ional	-10.9534
▁şəxsiyyətlər	-10.9542
▁hamam	-10.9543
▁düyü	-10.9545
▁Nil	-10.9548
▁gec	-10.9549
▁Hökumət	-10.9549
▁səfərdə	-10.9553
▁salmışdı	-10.9553
ləşdirmək	-10.956
▁plana	-10.956
▁məsləhətçi	-10.9564
▁istedadı	-10.9566
▁çatı	-10.9569
izm	-10.957
▁buynuz	-10.9571
▁ailəni	-10.9573
san	-10.9574
▁1983	-10.9574
▁1985	-10.9574
▁Quranda	-10.9576
▁təriqət	-10.9582
▁Kinolent	-10.9585
▁Qəsəbə	-10.9585
▁Assuriya	-10.9586
▁Fatma	-10.9586
▁düşmə	-10.9587
▁səviyyəsin	-10.9587
▁şərtlər	-10.9588
▁Co	-10.9588
▁konsertlər	-10.9588
▁kateqoriya	-10.9593
düyü	-10.9603
▁qaldırdı	-10.9604
oru	-10.9604
ürcü	-10.9609
▁Aran	-10.961
▁arzu	-10.9611
▁Tusi	-10.9613
▁hissəsidir	-10.9615
▁ictimaiyyət	-10.9617
ol	-10.9618
▁sub	-10.9618
▁qanunvericiliyi	-10.9627
▁olmadığın	-10.9631
▁olunmalı	-10.9632
▁köçmüşdü	-10.9633
▁Xristian	-10.9633
▁şeyin	-10.9634
▁məclisin	-10.964
▁Tom	-10.9641
▁şagirdi	-10.9642
▁İqtisadiyyat	-10.9646
▁işlənə	-10.9646
▁etiqad	-10.9646
▁fundamental	-10.9646
▁xeyirxah	-10.9647
▁okeanın	-10.9647
▁Vətəndaş	-10.9647
▁məmur	-10.9648
▁bağları	-10.965
▁Ştatların	-10.965
▁prinsipləri	-10.9652
▁Bayramov	-10.9656
▁Fərmanı	-10.9656
▁Berlində	-10.9657
▁Bitki	-10.966
▁yüksəli	-10.9661
▁gələnlər	-10.9661
▁Mil	-10.9663
▁silahlar	-10.9666
▁atdı	-10.9667
▁bayraq	-10.9669
▁etdirməy	-10.9677
▁Ben	-10.9677
▁alın	-10.9679
▁gətirilə	-10.9682
▁görüşlər	-10.9683
▁Hindistanın	-10.9683
▁görülmüş	-10.9689
▁Cabbar	-10.9694
▁finalın	-10.9695
▁1977	-10.9698
▁qaçmağ	-10.9701
rdı	-10.9702
▁hədiyyələr	-10.9703
▁95	-10.9705
▁gerçək	-10.9707
▁kilsəni	-10.9707
rofessor	-10.9707
örünür	-10.9708
▁epizod	-10.9708
▁genetik	-10.9708
▁buyurdu	-10.9708
ili	-10.9709
▁Şəhid	-10.9709
▁İyun	-10.971
▁payızında	-10.9717
▁günbəz	-10.9718
▁stansiya	-10.9721
▁atır	-10.9723
cam	-10.9726
▁mənzərə	-10.9728
▁üsulla	-10.9729
▁etmirdi	-10.9732
▁Nic	-10.9734
▁160	-10.9736
▁zona	-10.9736
▁çağırır	-10.9737
▁güləş	-10.9744
ezliklə	-10.9745
▁pəncərə	-10.9746
prezidenti	-10.9746
▁hissələrin	-10.9749
▁qoş	-10.9756
▁kadrlar	-10.9759
▁binaların	-10.9762
lanmış	-10.9763
▁ədədlər	-10.9764
▁şərtləri	-10.9765
▁Möh	-10.9768
▁şi	-10.9768
▁yeyi	-10.9769
▁sevdiyi	-10.977
▁nəticələndi	-10.977
▁Xızı	-10.977
▁yəqin	-10.9771
▁karvan	-10.9771
▁otuz	-10.9771
▁için	-10.9771
▁Bursa	-10.9772
▁götürülü	-10.9773
▁Qoca	-10.9773
▁Mehdiyev	-10.9774
▁Səh	-10.9774
▁sonsuz	-10.9776
▁aclıq	-10.9778
▁şəhristanı	-10.9778
▁nitq	-10.9779
▁ifası	-10.9779
▁ortalarına	-10.9779
şünaslı	-10.978
dib	-10.978
▁sevir	-10.978
▁Hadi	-10.9784
nternat	-10.9785
▁Məmmədovu	-10.9794
▁Ərəbistanı	-10.9795
▁Konservatoriya	-10.9795
rı	-10.9797
▁danışıq	-10.98
limo	-10.9802
əslən	-10.9803
▁mətni	-10.9808
ahi	-10.9808
▁şirkətlər	-10.9809
▁qanı	-10.9811
▁şiddətl	-10.9812
▁qaçı	-10.9813
▁süqut	-10.9815
mayıb	-10.9816
▁monqollar	-10.9821
▁edilər	-10.9823
▁fondu	-10.9824
▁metodu	-10.9825
▁obraz	-10.9826
▁hekayəsi	-10.9828
▁höküməti	-10.9829
lassik	-10.9832
▁Əhəməni	-10.9833
ersiya	-10.9834
▁hazırlayı	-10.9835
▁əsrlərin	-10.9835
▁oğul	-10.9836
▁nisbəti	-10.9841
▁köçürülməsi	-10.9842
▁etira	-10.9845
lət	-10.9845
▁Siy	-10.985
▁yarımadasını	-10.9851
▁strukturu	-10.9853
▁vurmaq	-10.9854
▁Komitəsin	-10.9855
▁faktı	-10.9861
▁rusları	-10.9862
▁İnter	-10.9865
▁Yu	-10.9871
▁57	-10.9878
▁Komanda	-10.988
▁Səfər	-10.9884
▁görüldü	-10.9886
▁Bəs	-10.9886
▁çıxarılır	-10.9888
künc	-10.9895
▁uzaqda	-10.9896
▁Şıxlinski	-10.9896
▁komissarı	-10.9898
▁həyət	-10.9899
məkdədir	-10.9899
▁səbəblə	-10.9901
▁rəqibin	-10.9903
▁məskunlaşdı	-10.9903
1-	-10.9907
▁Yur	-10.9909
▁qoruyur	-10.991
▁ustad	-10.9913
▁qaydası	-10.9921
▁Naziri	-10.9922
▁əli	-10.9927
▁Müs	-10.9931
▁şeiri	-10.9934
▁tələblər	-10.9935
▁Per	-10.9936
▁53	-10.9944
rtəsi	-10.995
iqasın	-10.9952
▁Məmlük	-10.9952
▁dəstələr	-10.9953
▁müharibəni	-10.9958
NESCO	-10.9959
▁Fərrux	-10.9959
▁zireh	-10.9959
▁Fərəc	-10.9959
▁varsa	-10.9959
çə	-10.9961
I	-10.9966
▁xalqımız	-10.9967
ləşir	-10.9969
▁taxtın	-10.9969
▁mahnılarını	-10.997
▁yəhudilər	-10.997
▁ağıllı	-10.9971
▁sintez	-10.9973
▁dəyiş	-10.9973
▁Krallığı	-10.9976
▁padşahı	-10.9976
▁Həsənəli	-10.9977
▁siyahısında	-10.9978
▁istehsalat	-10.9979
▁razılaşma	-10.9989
▁müəyyənləşdiril	-10.9994
▁şif	-10.9994
▁şəkilləri	-10.9994
▁buraxdı	-10.9995
▁tutma	-10.9995
itar	-11
▁iştirakçıları	-11.0002
▁xəbərlər	-11.0004
▁biləcəyini	-11.0004
niversitetdə	-11.0005
▁qohumları	-11.0008
▁ədəbiyyatın	-11.0009
▁otaqda	-11.001
▁Andrey	-11.0011
▁1918	-11.0015
▁molekul	-11.0022
dilər	-11.0022
sabiq	-11.0023
ərdüşt	-11.0023
▁Sührəvərdi	-11.0023
▁olunmur	-11.0023
▁tutuldu	-11.0023
▁fonunda	-11.0023
▁1870	-11.0023
▁hekayələri	-11.0024
▁tapdı	-11.0024
▁xəstəliyində	-11.0025
ekranlaşdırılmış	-11.0029
▁Hacıbəyli	-11.003
▁mükafatlar	-11.003
▁heykəltəraş	-11.0034
▁mifologiyasında	-11.0034
▁yetirilir	-11.0036
▁yaradıcılığ	-11.0036
TV	-11.0037
▁bugün	-11.0038
▁kor	-11.0038
▁doğurur	-11.0042
▁foto	-11.0047
cim	-11.0052
▁layihələr	-11.0053
▁kubokunu	-11.0054
▁etmələri	-11.0055
▁İri	-11.0056
▁izləri	-11.0059
şı	-11.0059
▁statistik	-11.0059
▁keçidi	-11.0059
▁əlaqələrin	-11.0061
▁cizgi	-11.0064
lanması	-11.0068
▁şagirdlərin	-11.0068
▁əməli	-11.0068
▁regionda	-11.0071
▁materialların	-11.0074
▁xətləri	-11.0074
özəl	-11.0074
▁xeyriyyə	-11.0075
▁döş	-11.0078
▁2013	-11.008
▁dinin	-11.008
▁Xa	-11.0082
▁Muğa	-11.0084
▁Ibrahim	-11.0087
▁səmimi	-11.0087
▁Quşçu	-11.0087
▁İslandiya	-11.0087
▁sanitariya	-11.0087
▁çıxarı	-11.0088
▁düşünür	-11.0088
▁dedikdə	-11.0088
▁qidalanır	-11.0089
▁bitən	-11.0089
▁saf	-11.009
▁soy	-11.0095
▁rütubətli	-11.0096
▁səthin	-11.0096
▁əlaqədə	-11.0097
▁sal	-11.0097
▁Meşə	-11.01
▁rayonlarda	-11.0105
▁rekord	-11.0118
▁təbəqəsi	-11.0118
▁Məktəbini	-11.0119
▁amillər	-11.0122
▁standart	-11.0124
▁memarı	-11.0131
▁işçiləri	-11.0131
▁olanların	-11.0132
▁yerləş	-11.0137
təhsil	-11.0137
▁qaldıra	-11.0141
▁qızılbaş	-11.0141
▁cəm	-11.0142
▁yardımçı	-11.0143
▁İr	-11.0144
yu	-11.0148
▁Can	-11.015
▁Moldova	-11.0151
▁Xədicə	-11.0151
▁edilmir	-11.0151
berq	-11.0151
▁düşdüyü	-11.0154
▁soğan	-11.0155
▁yuva	-11.0156
tmişdi	-11.0156
▁çıxarmışdı	-11.0157
▁studiya	-11.016
▁bölünmüşdü	-11.0162
▁ölümün	-11.0165
▁rok	-11.0165
▁Qalanı	-11.0166
▁avar	-11.0168
▁bişiril	-11.0171
▁Məlikov	-11.0172
▁müəllifin	-11.0177
▁ödəmək	-11.0184
uk	-11.0188
▁qoşunla	-11.0189
▁romanını	-11.02
▁eynidir	-11.02
lması	-11.02
▁Emin	-11.0202
artan	-11.0203
▁həzrət	-11.0203
▁itir	-11.0209
▁vahidləri	-11.0213
▁stansiyaları	-11.0213
▁Ra	-11.0215
ge	-11.0215
▁paleo	-11.0216
▁Məşhəd	-11.0216
▁Platon	-11.0216
▁Vidadi	-11.0216
▁Əlcəzair	-11.0216
▁Ərzurum	-11.0216
▁transfer	-11.0216
▁vurduğu	-11.0217
▁pulsuz	-11.0218
▁Şimalda	-11.0219
▁çalışdığı	-11.0219
▁Köçərli	-11.0223
▁gərginlik	-11.023
▁oynayırdı	-11.0231
▁tipləri	-11.0233
van	-11.0234
▁dərsləri	-11.0236
öytürk	-11.0236
▁bədəni	-11.0237
▁vətəndaşların	-11.0237
▁çatdırır	-11.0237
▁iştirakçı	-11.0242
▁oğuz	-11.0245
▁içi	-11.0245
▁kəndlilər	-11.0247
▁hədəf	-11.025
▁tamaşaçılar	-11.0259
▁qazan	-11.026
▁dəvə	-11.0262
▁Məkkədə	-11.027
▁olunduqda	-11.0272
▁abidələrin	-11.0276
▁Əmin	-11.0276
▁qoşuldu	-11.0282
▁Münhen	-11.0282
▁Qlazqo	-11.0282
▁Sentyabr	-11.0282
▁müqabili	-11.0282
▁tənəffüs	-11.0282
▁bağlaya	-11.0282
▁ağciyər	-11.0282
▁01	-11.0285
▁Baha	-11.0286
▁Ruslar	-11.0287
▁quyu	-11.0288
▁bəs	-11.029
▁ağanı	-11.0291
▁şeirlərini	-11.0295
▁dar	-11.03
▁çəkilməy	-11.0301
▁dərəcəsini	-11.0301
▁Alimlər	-11.0303
minlik	-11.0304
▁iyulda	-11.0305
▁köçdü	-11.0306
▁uğradı	-11.0308
▁Roman	-11.031
▁To	-11.0313
▁sifariş	-11.032
▁önəm	-11.0323
▁əsgərlərin	-11.0323
▁qarşısın	-11.0323
▁Dərə	-11.0325
▁anbarı	-11.0327
▁elmin	-11.0327
▁sinql	-11.0328
▁sakinlərin	-11.0341
▁Kim	-11.0345
▁Viktor	-11.0346
▁Sahil	-11.0348
▁Məsud	-11.0348
▁qoyulması	-11.0348
▁müəllimlərin	-11.0348
▁kəsmə	-11.0349
▁kuboku	-11.035
▁satı	-11.0351
▁Xanlar	-11.0354
▁evləndi	-11.0355
▁təbliğat	-11.0356
▁Sim	-11.0361
▁şərt	-11.0364
sulu	-11.0366
Yorkda	-11.0371
▁cismin	-11.0377
▁hərəkatın	-11.0377
▁tədqiqatları	-11.038
▁Peterburq	-11.038
▁Xuda	-11.0384
▁qaba	-11.0384
sını	-11.0385
▁bölmələri	-11.0388
▁analizi	-11.0391
▁Mis	-11.0392
▁Cəmiyyətin	-11.0392
▁klipi	-11.0392
▁mühərriki	-11.0393
▁yönəlmiş	-11.0395
▁vurmuşdu	-11.0396
▁Bilə	-11.0397
▁növünü	-11.0401
▁birləşmələr	-11.0402
▁qadınları	-11.0402
▁şahidi	-11.0404
▁qızılı	-11.0405
▁nümunələrindən	-11.0405
▁yüksələ	-11.0411
lməsi	-11.0411
yiş	-11.0411
▁Ye	-11.0413
▁əsərlərdə	-11.0413
ateqoriya	-11.0413
▁Toğrul	-11.0414
▁fındıq	-11.0414
▁yetişi	-11.0414
▁Presli	-11.0414
▁şikayət	-11.0414
▁canavar	-11.0414
▁Axundzadə	-11.0415
▁qiymətlər	-11.0416
▁tədqiqatçıların	-11.0418
▁Peyğəmbəri	-11.042
▁hakimləri	-11.0421
▁vəziyyətində	-11.0422
kan	-11.0422
anlı	-11.0423
▁konfranslar	-11.0425
▁hədis	-11.0428
▁obyekt	-11.0429
▁yarış	-11.0431
▁evlənir	-11.0435
▁astronom	-11.0441
▁mərasim	-11.0441
▁oykonimi	-11.0443
▁58	-11.045
▁mövzuda	-11.0451
▁yastı	-11.0455
▁seçim	-11.0455
▁lider	-11.0462
▁torpaqda	-11.0463
▁cinsin	-11.0472
▁Məhərrəm	-11.0476
▁Bələdiyyə	-11.048
▁Varşava	-11.048
▁kobud	-11.048
▁İzmir	-11.048
▁Xoyski	-11.0481
landı	-11.0482
▁1895	-11.0483
▁Döyüş	-11.0484
ler	-11.0485
▁nəslini	-11.0486
▁Da	-11.0488
▁sonların	-11.0489
12	-11.049
▁biologiya	-11.0492
▁artist	-11.0495
▁tayfasından	-11.0496
▁1500	-11.0496
ləyir	-11.0497
▁izlə	-11.0498
▁cır	-11.0501
▁məktubda	-11.0502
▁amil	-11.0503
▁cəbhədə	-11.0504
▁maral	-11.0504
▁Şam	-11.0506
▁Televiziyasın	-11.0508
▁abidəni	-11.0514
▁bilmədiyi	-11.0514
▁Firu	-11.0519
▁zirvə	-11.0519
▁Man	-11.052
▁rolunda	-11.0521
▁İşçi	-11.0523
bo	-11.0524
▁əmiri	-11.0528
▁İsanı	-11.053
ənd	-11.0533
▁kökləri	-11.0533
▁toponim	-11.0534
ve	-11.0537
▁xanlıq	-11.0544
▁hücumlar	-11.0544
▁öyrənməy	-11.0547
▁zəhmət	-11.0547
▁Kalankatlı	-11.0547
abul	-11.0548
▁Hüm	-11.0549
▁At	-11.0561
▁ideyalarını	-11.0562
▁aspiranturasın	-11.0562
▁külli	-11.0564
▁Birliyin	-11.0565
▁Muradov	-11.0566
▁incəsənətin	-11.0573
▁Müharibədə	-11.0573
▁toplayı	-11.0574
▁Adana	-11.0577
▁peyki	-11.0587
▁düzü	-11.0587
▁sahilləri	-11.0588
▁tərəfini	-11.0593
▁ziyalıları	-11.0597
ğurlu	-11.0598
▁bölgüsü	-11.0598
▁örtük	-11.0603
▁körpə	-11.0606
▁göstər	-11.0609
O	-11.061
▁Əd	-11.0611
▁şeirlərində	-11.0613
▁Afşin	-11.0615
▁Strabon	-11.0615
▁Yağləvənd	-11.0615
▁lisenziya	-11.0615
▁bilməyib	-11.0615
▁fərziyyə	-11.0615
▁Babur	-11.0616
▁Mədəni	-11.0617
▁üstünlüyü	-11.0621
▁komandaları	-11.0622
urnallar	-11.0622
▁dinamik	-11.0622
▁dövrlərində	-11.0624
▁obyektlər	-11.0628
▁Yuxarıda	-11.0629
▁sular	-11.063
▁Qacarlar	-11.0632
kif	-11.0633
▁maneə	-11.0636
▁ostanı	-11.0639
▁yerlərini	-11.064
▁1883	-11.0641
▁ucu	-11.0641
▁f	-11.0641
▁üzəri	-11.0647
▁siyasətin	-11.0648
▁potensial	-11.0648
ks	-11.0648
abitə	-11.0649
▁qabiliyyətin	-11.065
lap	-11.0656
▁əşya	-11.0657
▁Parlamentin	-11.0657
▁saxlan	-11.066
▁obrazları	-11.0662
▁uşağın	-11.0664
▁Dara	-11.0664
eynə	-11.0667
▁saytı	-11.0667
▁növlərini	-11.0668
▁Komissar	-11.0668
▁xörək	-11.0668
▁təkid	-11.0669
▁99	-11.0677
▁küçəsi	-11.0678
▁dəstəsini	-11.0679
▁öldürdü	-11.0682
▁Konstantin	-11.0683
▁Toponim	-11.0683
▁intihar	-11.0683
ova	-11.0683
▁AXC	-11.0683
▁əlaqələndirir	-11.0684
▁balığı	-11.0685
▁şərqşünas	-11.0685
▁müəllifləri	-11.0686
▁hamilə	-11.0688
sinin	-11.0694
▁çağda	-11.0696
▁Sahəsi	-11.0697
▁gələndə	-11.0699
▁müxtəlifliyi	-11.0706
▁əlini	-11.071
▁çarpa	-11.0711
▁minarə	-11.0711
▁təkamül	-11.0712
▁ailələri	-11.0714
nti	-11.0717
▁yəhudilərin	-11.0724
ız	-11.0725
▁nüfuzunu	-11.0725
▁Se	-11.0728
▁tənqidçi	-11.0729
şünas	-11.073
▁hökümət	-11.0731
▁yetirilmişdi	-11.0742
▁işləmə	-11.0748
▁iyulunda	-11.0749
▁verilməsini	-11.075
▁1892	-11.075
▁oxumağ	-11.075
▁Hikmət	-11.0752
▁kəmiyyət	-11.0752
▁müayinə	-11.0752
▁icarə	-11.0752
▁tərzd	-11.0752
▁Region	-11.0752
▁29-	-11.0752
iza	-11.0752
tmək	-11.0756
▁saldığı	-11.0756
▁gəmilər	-11.076
▁Ağalar	-11.076
▁əlamətlər	-11.076
▁Albom	-11.0762
▁köçürülmüş	-11.0762
▁konsul	-11.0762
▁Tam	-11.0763
▁Açıq	-11.0767
▁gətirilir	-11.0771
▁amerikan	-11.0772
▁soyu	-11.0776
▁xə	-11.0782
▁parçalanması	-11.0783
▁Şirvanda	-11.0783
▁to	-11.0783
▁proqramının	-11.0785
▁rollarda	-11.0786
▁Vasi	-11.0786
han	-11.0787
▁sülaləsin	-11.0789
▁binada	-11.079
anr	-11.0791
▁Komitə	-11.0792
▁1880	-11.0793
▁zavodun	-11.0797
▁2016	-11.0803
▁məntəqələrində	-11.0804
▁böyrək	-11.0812
▁ölən	-11.0815
▁qrupunda	-11.0818
▁İndoneziya	-11.082
▁Riyaziyyat	-11.082
▁Volqa	-11.0821
▁protokol	-11.0821
▁polad	-11.0821
▁qurucusu	-11.0821
▁təlimi	-11.0821
▁Eramız	-11.0824
▁inanır	-11.0824
▁çayında	-11.0824
▁axtarış	-11.0825
▁Samur	-11.0826
▁əcnəbi	-11.0827
▁faciəsi	-11.083
▁saysız	-11.083
▁öyrənmiş	-11.0836
lub	-11.0839
▁salınır	-11.0841
▁dəyişmiş	-11.0847
▁mərkəzdə	-11.0849
▁mühazirələr	-11.0861
▁qaçqın	-11.0864
▁şəklini	-11.0873
▁İndiyə	-11.0876
▁66	-11.0877
▁köçürülmüşdü	-11.0879
▁ideyasını	-11.088
▁49	-11.088
▁Mor	-11.0881
şun	-11.0882
▁qaçır	-11.0884
▁kar	-11.0885
▁Ceyh	-11.0885
▁62	-11.0886
▁mil	-11.0887
▁məmulatları	-11.0888
▁qərargahı	-11.0888
▁Motsart	-11.089
▁Puşkin	-11.089
▁hörülmüş	-11.089
▁canişin	-11.089
▁Ferr	-11.089
▁Minsk	-11.089
▁Prussiya	-11.0891
▁gir	-11.0892
▁xeyir	-11.0892
▁Səhər	-11.0893
zunluğu	-11.0893
▁Salam	-11.0894
▁itirmiş	-11.0894
▁həcmində	-11.0895
▁planetlər	-11.09
işli	-11.09
▁dağılması	-11.0905
▁Fərid	-11.0908
▁Dövlətin	-11.0908
▁İspaniyada	-11.0908
aliyyə	-11.0911
▁63	-11.0912
▁rəsmlər	-11.0914
▁qətl	-11.0914
lur	-11.0918
▁sifarişi	-11.0919
▁qaydalarını	-11.0921
giya	-11.0921
▁salı	-11.0922
▁sənədlərin	-11.0923
iqa	-11.0924
▁tamaşaçıları	-11.0936
▁çəkilmə	-11.0937
▁işığın	-11.0941
▁kolxoz	-11.0945
▁kursu	-11.0946
▁Sol	-11.0947
aşırı	-11.0953
▁qarşılaşdı	-11.0958
▁Osetiya	-11.096
▁yarımkürəsin	-11.096
▁bacardı	-11.096
▁cənab	-11.096
▁Bədəlbəyli	-11.096
▁boks	-11.096
▁artilleriya	-11.0961
▁qamış	-11.0961
▁Qədir	-11.0962
▁Təsadüfi	-11.0962
▁arxada	-11.0963
▁Xanım	-11.0965
▁orda	-11.0966
▁ötürülməsi	-11.0966
▁artımı	-11.0967
▁yekun	-11.0967
▁qurum	-11.097
▁astronomiya	-11.097
övhər	-11.0971
qor	-11.098
▁təqvim	-11.098
▁qaldırılması	-11.0989
▁etdirilmiş	-11.0994
▁donanma	-11.0995
▁termin	-11.0996
H	-11.0998
▁1899	-11.1
▁ənənələrin	-11.1001
▁Qrup	-11.1016
bi	-11.1017
▁Oyun	-11.1019
zey	-11.1024
▁des	-11.1025
lmuşdu	-11.1025
▁mərtəbəli	-11.1029
ərviş	-11.1029
▁silindr	-11.103
▁anlayış	-11.1031
▁Baltik	-11.1032
▁albomunda	-11.1034
▁nəfərin	-11.1035
▁Hələb	-11.1038
▁həllini	-11.1039
▁xürrəmilər	-11.1047
▁Herat	-11.1048
▁Turan	-11.105
▁edilsə	-11.1053
▁mənaların	-11.1058
▁parlamenti	-11.1062
▁iclasın	-11.1069
təpə	-11.1071
leytenant	-11.1071
▁dönə	-11.1078
▁Qüds	-11.1079
▁bildir	-11.108
▁etdirirdi	-11.1082
əlkə	-11.1083
▁Mada	-11.1086
▁qayıtmışdı	-11.1087
▁hit	-11.109
▁yarpaq	-11.1091
▁saç	-11.1092
▁bağlandı	-11.1092
▁Arş	-11.1098
▁tapşırığı	-11.1099
▁sərhədi	-11.11
▁humani	-11.11
iverpul	-11.1101
▁Maqomayev	-11.1101
▁Müqavilə	-11.1101
▁Qahirə	-11.1101
▁Topçubaşov	-11.1101
▁Keçi	-11.1101
▁Estoniya	-11.1101
▁səhih	-11.1101
▁Mübariz	-11.1101
▁bəyə	-11.1103
▁68	-11.1103
▁uğurları	-11.1104
▁1878	-11.1104
▁sənədləri	-11.1104
əri	-11.1114
▁media	-11.1115
▁yaradıcıları	-11.1117
▁metod	-11.112
▁Qəzvin	-11.1125
suvar	-11.113
▁yaradırdı	-11.1131
▁demiş	-11.1131
▁məktubu	-11.1133
▁dayaq	-11.1135
▁çıxma	-11.1136
▁bazarı	-11.1137
▁kamil	-11.1142
▁2,	-11.1143
alı	-11.1143
▁İdarəsin	-11.1145
▁etməmiş	-11.1146
▁regionun	-11.1146
▁sakinlər	-11.115
▁varlığın	-11.1151
▁taxtda	-11.1155
▁arxasın	-11.1156
▁qoşununu	-11.116
▁yetirmək	-11.1162
▁qrafik	-11.1163
▁terrorçu	-11.1165
▁liman	-11.1166
▁vəzifəni	-11.1167
▁kütlələri	-11.1167
▁millisi	-11.1169
▁xatirələrində	-11.1172
▁Humay	-11.1173
▁voleybol	-11.1173
▁Bağır	-11.1173
▁Yaşıl	-11.1173
▁Mansurov	-11.1173
▁birləşdiri	-11.1173
▁oyk	-11.1174
▁qoyduğu	-11.1174
▁məhkəməsi	-11.1176
▁ölmüş	-11.1178
▁rep	-11.1179
qrafik	-11.1179
əhiyyə	-11.118
▁işçilərin	-11.1181
▁hadisədə	-11.1186
▁sevən	-11.1186
▁qayıtmış	-11.1187
orl	-11.1189
▁idmançı	-11.1189
▁məhsulun	-11.1189
▁mühiti	-11.1192
▁3000	-11.1192
▁təbiətdə	-11.1193
▁camaatın	-11.1194
fiya	-11.1195
▁yetişdiril	-11.1198
▁sentyabrda	-11.1199
▁Sənan	-11.1202
▁sarayını	-11.1207
▁sərəncam	-11.1207
▁yaralanı	-11.1209
▁keyfiyyəti	-11.1215
▁göstəriş	-11.1216
▁keçirirdi	-11.1217
▁Kam	-11.1219
▁72	-11.1219
▁fəaliyyətlə	-11.122
▁1873	-11.1224
▁alınma	-11.1226
▁ingiliscə	-11.1226
▁şairə	-11.1231
▁respublikası	-11.1231
▁alov	-11.1232
.	-11.1233
▁Kilsəsi	-11.1235
▁sırası	-11.1235
▁İn	-11.1236
▁növündə	-11.1237
▁Kürü	-11.1238
İ	-11.1239
▁mexanizm	-11.124
əray	-11.1243
▁sinfin	-11.1243
▁orqanlarında	-11.1244
▁müdrik	-11.1244
▁Əbdürrəh	-11.1244
▁avro	-11.1245
▁Foqts	-11.1245
▁ləzgi	-11.1245
▁Bəhmənyar	-11.1245
▁ətəklərində	-11.1247
▁millətin	-11.1251
▁qayıtma	-11.1252
▁savadlı	-11.1254
ör	-11.1257
▁Peru	-11.1257
▁diqqətlə	-11.1258
▁etibarı	-11.1261
▁1828-	-11.1262
▁ərazilərini	-11.1263
▁çəkmişdi	-11.1263
tək	-11.1264
▁məhəbbəti	-11.1271
▁lüğət	-11.1273
▁ayırma	-11.1273
▁səsini	-11.1275
ğıda	-11.1276
▁daşın	-11.1282
▁cümlə	-11.1289
▁cəbhəsində	-11.129
▁zahir	-11.129
▁metallar	-11.1298
▁67	-11.1301
R	-11.1303
▁planetlərin	-11.1304
▁Quranı	-11.1305
ing	-11.1305
▁175	-11.1306
V	-11.1306
▁aparmağ	-11.1308
▁kürdlər	-11.1308
▁çıxartdı	-11.1308
▁adlandırma	-11.1309
▁hadisələrdə	-11.1311
▁sümükləri	-11.1315
▁şeydə	-11.1315
▁yığı	-11.1316
▁ideolo	-11.1317
▁Fevral	-11.1317
▁Pavel	-11.1317
▁Xalça	-11.1317
▁üfüq	-11.1317
▁Florensiya	-11.1317
▁1890	-11.1317
▁ödəniş	-11.1317
▁Rəvayət	-11.1317
▁Mənsur	-11.1318
▁öldürmək	-11.132
▁Yayım	-11.1321
▁Xaçın	-11.1324
▁tutulu	-11.1331
▁yaylası	-11.1332
ayın	-11.1332
▁qurub	-11.1338
▁qrupda	-11.1339
▁Akademiya	-11.1343
▁Plan	-11.1344
ış	-11.1347
rza	-11.1351
▁tamamlayı	-11.1351
▁xalçası	-11.1359
▁texnolo	-11.1365
lüyündə	-11.1368
▁soyadı	-11.1368
▁Naxçıvanı	-11.137
▁yataq	-11.1374
▁formalaşmış	-11.1375
▁orduları	-11.1378
▁Nuri	-11.138
▁zövq	-11.1388
▁qəbiristanlığın	-11.1388
▁əhəng	-11.139
▁Mətbuat	-11.139
▁Seçki	-11.139
▁mühakimə	-11.139
▁tənəzzül	-11.139
▁qəfil	-11.1391
▁təbəqəsində	-11.1393
▁itirir	-11.1394
▁baxan	-11.1394
▁sədrəzəm	-11.1395
▁versə	-11.1396
▁litr	-11.1396
▁məkanın	-11.1396
laq	-11.1398
▁dəf	-11.1399
▁vadisində	-11.14
▁çempionat	-11.1401
▁planını	-11.1405
▁sütun	-11.1406
orge	-11.1409
▁Yazı	-11.1411
▁birliyin	-11.1412
▁süqutun	-11.1414
▁Britaniyada	-11.1416
ux	-11.1421
▁Ta	-11.1421
▁ağıl	-11.1426
▁oyunlar	-11.1428
▁keçirə	-11.1429
▁seçkiləri	-11.1429
siniz	-11.143
▁xanları	-11.1432
▁düş	-11.1435
alter	-11.1436
▁ni	-11.1444
6-	-11.1449
▁elementin	-11.1454
▁Sam	-11.1457
▁Yunanıstanda	-11.1458
▁mövzularda	-11.1461
▁qurğular	-11.1463
atviya	-11.1464
▁uzunsov	-11.1464
▁Rəcəb	-11.1464
▁prodüser	-11.1464
▁doğulduğu	-11.1464
▁göründüyü	-11.1464
▁hamar	-11.1465
▁optik	-11.1468
▁kadr	-11.1473
▁sır	-11.1474
▁münasibətdə	-11.1476
▁fil	-11.1479
▁dağların	-11.148
▁pop	-11.148
▁Qrupun	-11.1481
▁tələblərin	-11.1481
▁sənətində	-11.1483
▁birləşdirilməsi	-11.1486
▁qoşulur	-11.1494
▁qurultay	-11.1496
▁yataqlarını	-11.1497
▁bel	-11.1498
▁140	-11.1499
eri	-11.1502
▁heykəlin	-11.1505
▁dəliyi	-11.1506
▁prosesin	-11.1508
▁qədə	-11.1511
▁Dövrün	-11.1511
▁Albaniyanı	-11.1511
▁axar	-11.1513
▁ağaclar	-11.1514
▁dövlətində	-11.1519
▁adəti	-11.1523
▁hüdudlarında	-11.1523
▁yazın	-11.1525
üman	-11.1526
▁Mükafatın	-11.1527
est	-11.1528
▁tələbləri	-11.1531
ester	-11.1531
▁Qaraca	-11.1533
▁oba	-11.1534
▁ing	-11.1535
▁Bədəl	-11.1538
▁sənayesin	-11.1538
▁Avesta	-11.1538
▁Moğol	-11.1538
▁1863	-11.1538
▁Kəbir	-11.1538
▁Nüvə	-11.1538
▁həcc	-11.1538
▁dağıldı	-11.1538
▁Qəznəvi	-11.1538
▁çağırdı	-11.154
▁başlayanda	-11.1542
▁olacağı	-11.1542
əki	-11.1543
▁çatmaq	-11.1545
▁Konstitusiyası	-11.1545
▁problemlərini	-11.1546
▁valideynləri	-11.1546
▁Əsəri	-11.1548
▁ip	-11.1549
▁evini	-11.155
▁Bayan	-11.1551
▁gəlməyə	-11.1558
▁Niyazi	-11.1559
▁günlər	-11.1565
▁avto	-11.1567
ens	-11.1567
▁xanlıqları	-11.1572
▁obyektlərin	-11.1573
▁formalaşır	-11.1574
▁sərin	-11.1577
▁şərəf	-11.1586
▁növlər	-11.1588
▁sənətkarı	-11.159
▁ailədən	-11.1591
▁məzunları	-11.1591
▁tank	-11.1592
▁çayların	-11.1593
▁Bədən	-11.1594
uğ	-11.1598
▁qalmaq	-11.1599
▁yonulm	-11.16
▁qram	-11.1605
girov	-11.1606
▁yazılarında	-11.1606
▁Təbrizin	-11.1606
arpa	-11.1609
▁təzahür	-11.1611
▁düşünülür	-11.1612
▁hüzurun	-11.1612
▁yanlış	-11.1612
▁şəffaf	-11.1612
▁Ərəblinski	-11.1612
▁Xeyr	-11.1612
▁Hidayət	-11.1613
▁basketbol	-11.1613
funksional	-11.1613
tta	-11.1616
lənməsi	-11.1618
▁zorla	-11.1619
zm	-11.1619
▁sənətçi	-11.162
▁öldürülü	-11.1624
▁130	-11.1624
▁məsafəni	-11.1624
▁qazanması	-11.1627
casına	-11.1629
▁quşu	-11.1629
▁həqiqəti	-11.1633
▁ixtisaslaşmış	-11.1634
▁eşidən	-11.1635
rat	-11.1636
▁yaşamaqda	-11.1636
▁heyvanları	-11.1636
▁müşaviri	-11.1637
▁varlığını	-11.1638
▁şərqi	-11.1638
▁yaşda	-11.1639
▁imkanlarını	-11.1639
ayihə	-11.1646
▁adada	-11.1649
▁maraqlıdır	-11.1652
▁Ağı	-11.1652
▁tələbi	-11.1655
▁buyuru	-11.1656
▁Ərəbistan	-11.1659
▁qarşısı	-11.1661
▁keyfiyyətl	-11.1662
▁yarışda	-11.1666
▁Mit	-11.1669
▁qurşağı	-11.167
mən	-11.1676
▁vəzifəli	-11.1679
▁Oruc	-11.168
▁sənədlərdə	-11.168
▁getdiyi	-11.168
ərəqqi	-11.1682
▁Hüs	-11.1682
▁bucaq	-11.1687
▁Allahverdi	-11.1687
▁Aktrisa	-11.1687
▁Diyarbəkir	-11.1687
▁Rəhman	-11.1687
▁təşviq	-11.1687
▁Məcid	-11.1687
▁vətəndaşları	-11.1688
▁qoxu	-11.1689
▁sürdü	-11.1689
▁İmperator	-11.1691
▁əqli	-11.1691
▁Sarayın	-11.1692
▁sualtı	-11.1693
mdar	-11.1694
eniş	-11.1694
monu	-11.1695
▁hərəkətin	-11.17
rom	-11.1701
▁qalaları	-11.1702
▁çoxları	-11.1702
▁fərqlənirdi	-11.1702
tira	-11.1704
▁televiziyasın	-11.1706
▁hərəkətlər	-11.1707
▁ifaçı	-11.1709
▁təhlükəsizliyi	-11.1714
rasiya	-11.1719
▁tamaşaları	-11.1722
▁adlandırılı	-11.1725
▁həbsxana	-11.1729
▁Paul	-11.1729
▁qəbirlər	-11.173
▁şöhrəti	-11.1734
▁Fakültə	-11.1736
▁komm	-11.1738
▁niyə	-11.1738
▁Yaponiyanı	-11.1739
▁Adam	-11.1748
▁aktı	-11.1749
▁pərdə	-11.175
▁Monqol	-11.1751
▁içəri	-11.1752
▁yetirilməsi	-11.1757
▁olacağın	-11.1761
mu	-11.1761
▁mətbu	-11.1761
▁İstehsal	-11.1763
▁itaət	-11.1763
▁Sağ	-11.1763
▁zəfər	-11.1764
▁nəticələni	-11.1764
▁Fəzl	-11.1764
▁hüquqşünas	-11.1764
▁Nyuton	-11.1764
▁qalxdı	-11.1764
▁Behbudov	-11.1765
▁Nami	-11.1765
exiya	-11.1765
▁müddətli	-11.1766
▁Saleh	-11.1767
▁Seyf	-11.1767
layır	-11.1771
▁söyləmə	-11.1772
▁tərəqqi	-11.1772
açmışdır	-11.1773
▁işlərdə	-11.1775
anu	-11.1777
▁materialı	-11.1778
▁Car	-11.1779
▁qalma	-11.1779
▁1894	-11.1783
▁qoşulma	-11.1784
oslav	-11.1784
▁monastır	-11.1786
▁Her	-11.1787
▁oxumuş	-11.179
▁görməyə	-11.1791
▁mübahisələr	-11.1794
iş	-11.1796
▁götür	-11.1798
▁kəsə	-11.1799
bət	-11.1802
▁kapital	-11.1803
▁olduqların	-11.1804
▁həyətin	-11.1806
▁tərəflər	-11.1807
▁mühərrikləri	-11.1809
▁müzakirələr	-11.181
▁turnir	-11.1811
▁mahal	-11.1811
▁ifraz	-11.1816
▁pey	-11.182
▁Yolu	-11.1823
▁memarlığın	-11.1824
▁110	-11.1826
▁vuruşma	-11.1826
▁ürəyi	-11.1827
▁mülahizələr	-11.1829
▁həftədə	-11.1834
▁köməy	-11.1836
eyb	-11.1839
▁effektiv	-11.1839
▁Həştərxan	-11.184
▁Mendeleyev	-11.184
▁eksperiment	-11.184
▁heyrət	-11.184
▁1881	-11.184
▁Bilal	-11.184
▁Konya	-11.184
▁ediləcək	-11.1841
▁saxladı	-11.1841
▁xatırlan	-11.1842
▁knyaz	-11.1842
▁enli	-11.1845
▁deməyə	-11.1846
övqəl	-11.1849
▁dövrlərin	-11.1851
kraynada	-11.1851
▁park	-11.1852
▁Qorki	-11.1853
▁memarlığını	-11.1853
▁Altı	-11.1856
▁toqquşma	-11.1859
rac	-11.1862
▁toplanmış	-11.1864
▁tərif	-11.1867
▁hövzəsi	-11.1868
▁Orda	-11.187
▁həbsdə	-11.1872
▁toxuna	-11.1873
▁saziş	-11.1874
ial	-11.1876
▁Ki	-11.1876
▁tala	-11.1879
▁hissəni	-11.1883
▁ço	-11.1886
▁rəssamlar	-11.1887
▁xidmətini	-11.1887
▁mənbədə	-11.1887
▁hərf	-11.1888
▁Xanı	-11.1888
▁orqanizmdə	-11.1889
,4	-11.1892
▁ünvan	-11.1895
▁aləm	-11.1897
ecə	-11.1899
▁qanunun	-11.1899
▁şüaları	-11.19
▁qızını	-11.1903
▁mötə	-11.1906
dadır	-11.1907
▁nümunələrini	-11.191
▁türbəni	-11.191
▁1888	-11.1911
▁çatması	-11.1916
▁Bismark	-11.1916
▁emosional	-11.1916
▁çıxarıldı	-11.1917
▁quruculuğu	-11.1917
▁Ronald	-11.1917
▁Adıgözəlov	-11.1918
▁ssenarist	-11.1919
994	-11.1919
▁1893	-11.1919
tan	-11.1919
▁Xəzinə	-11.1921
▁Əfqanıstanda	-11.1921
▁Səfərov	-11.1926
▁Baharlı	-11.193
▁miqyasın	-11.193
▁təbəqədə	-11.1931
▁bölməsini	-11.1934
▁qəhrəmanları	-11.1934
▁Ar	-11.1936
▁qurbanı	-11.1938
▁İraqda	-11.1939
▁karyerası	-11.194
▁ekspedisiya	-11.1942
▁Nov	-11.1944
▁mübahisəli	-11.1948
▁76	-11.1948
▁yürüşləri	-11.1951
▁nümunələr	-11.1951
▁kimsə	-11.1952
▁mütəxəssislərin	-11.1954
▁Park	-11.1954
▁qarşılaşmada	-11.1958
▁sürmüşdü	-11.1959
▁Kazan	-11.1961
▁hesabat	-11.1963
▁olmamış	-11.1963
3-4	-11.1963
▁nəticələrini	-11.1967
▁baxır	-11.1971
▁demokratiya	-11.1972
▁mexanika	-11.1973
▁əməliyyatların	-11.1976
▁poema	-11.198
▁elementi	-11.1982
▁İraqı	-11.1983
▁istiqamətini	-11.1984
▁fərqləndirmə	-11.1985
▁İsti	-11.1991
▁Pekin	-11.1994
ülqədər	-11.1994
▁Monteneqro	-11.1994
▁1867	-11.1994
▁dönüş	-11.1994
▁Səttar	-11.1994
▁Qalile	-11.1995
▁acı	-11.1995
▁ştatında	-11.1995
▁futbolun	-11.1995
▁sertifikat	-11.1996
ullah	-11.1996
▁katolikos	-11.1996
▁paşanı	-11.1996
▁kəşfi	-11.2005
▁ənənəsi	-11.201
rud	-11.2011
▁kölgə	-11.2011
ərdab	-11.2012
▁olunma	-11.2015
▁Nazirliyində	-11.2017
▁dəvəti	-11.2018
▁parkı	-11.2021
gin	-11.2025
▁96	-11.2025
▁göstərməsi	-11.2027
▁Klub	-11.2038
▁dastanı	-11.2043
▁Şirkət	-11.2043
▁imzalanmış	-11.2044
niş	-11.2046
çılar	-11.2047
▁başlanmış	-11.2048
,2	-11.2048
▁dinlər	-11.2051
▁aspirantura	-11.2055
▁tac	-11.2056
▁fransızlar	-11.2057
llah	-11.2059
▁silahı	-11.2061
▁İyul	-11.2061
qiymətləndirilir	-11.2062
▁dəyər	-11.2065
▁mövqedə	-11.2066
axanı	-11.2067
▁ku	-11.2069
▁Mehmandarov	-11.2072
▁təfsir	-11.2072
▁Palatası	-11.2072
▁Trabzon	-11.2072
▁İsrafil	-11.2072
▁tektonik	-11.2072
▁Vilhelm	-11.2072
▁şabalıd	-11.2072
▁fəaliyyətdə	-11.2076
▁adalarında	-11.208
▁Adəm	-11.208
▁dəyişdirilməsi	-11.2081
▁çiçəkləri	-11.2082
▁do	-11.2091
▁səhnələri	-11.2092
anrı	-11.2093
▁Teymurilər	-11.2096
▁istehsalın	-11.2097
▁sürətini	-11.2102
▁onlarda	-11.2104
kal	-11.2106
▁me	-11.2111
▁gedişində	-11.2115
boyu	-11.2119
▁təsnifat	-11.2119
ion	-11.2121
▁müqaviləsini	-11.2125
▁çiy	-11.2126
▁yeməyi	-11.2127
qədi	-11.2128
▁naha	-11.2132
▁mənbələrin	-11.2133
▁Edi	-11.2136
▁çıxar	-11.2141
▁31-	-11.2141
▁dəmiryol	-11.2142
▁spektr	-11.2144
▁təsnif	-11.2149
▁avadanlıqları	-11.215
▁Ayətullah	-11.2151
lqar	-11.2151
▁küp	-11.2151
▁məskunlaşıb	-11.2151
▁qastrol	-11.2151
▁vəliəhd	-11.2151
▁buraxılmışdı	-11.2152
▁oxşayır	-11.2152
▁qurduğu	-11.2152
▁bitişik	-11.2152
▁təmizləmə	-11.2152
▁ziyarətgah	-11.2153
▁Musayev	-11.2155
▁namizədliyi	-11.2156
▁qeydiyyat	-11.2156
▁pulu	-11.2156
▁mövqeyində	-11.2156
▁parçalar	-11.2158
▁zədə	-11.2159
▁təyinat	-11.2161
▁öyrənilməsin	-11.2162
üllü	-11.2162
▁layiqli	-11.2163
▁hərəkətini	-11.2168
▁ayrılı	-11.2173
▁mövsümünü	-11.2173
▁qəddar	-11.2174
▁işarəsi	-11.2174
▁miqrasiya	-11.2175
▁kilsələri	-11.2177
▁ziyalılar	-11.2178
▁Sal	-11.2179
▁oluns	-11.218
▁hazırlanı	-11.2182
▁diyarı	-11.2182
▁təhsilli	-11.2185
▁təriqətin	-11.2185
taş	-11.2185
rəsmi	-11.2189
▁lövhə	-11.2192
men	-11.2192
▁Şahin	-11.2195
▁hissələrdə	-11.2195
▁əlləri	-11.2196
▁quldurları	-11.2196
fahi	-11.2198
▁arılar	-11.2203
▁Qurani	-11.2204
▁dönən	-11.2205
ico	-11.2206
▁gəlməsini	-11.2206
▁qanunların	-11.2207
▁ədədi	-11.2213
▁uğramış	-11.2216
▁fəlakət	-11.2216
▁elədi	-11.2218
çox	-11.2219
piano	-11.2219
▁genişləndirmə	-11.2221
▁zülm	-11.2228
▁birliyini	-11.2228
▁bəhanə	-11.223
▁sığınacaq	-11.223
▁bostan	-11.223
şək	-11.2231
▁xarabalıq	-11.2232
▁keçiriləcək	-11.2233
▁çarlığı	-11.2236
▁ucuz	-11.2238
▁Od	-11.2239
▁örtüyünü	-11.2241
▁Polad	-11.2243
▁funksiyaları	-11.2249
▁xalçaların	-11.2252
▁şagirdləri	-11.2258
▁məşq	-11.2262
▁kənarı	-11.2267
▁girir	-11.2267
▁Qoy	-11.2267
▁Kitabi	-11.2271
▁qəzetlərində	-11.2272
▁dövlətlərini	-11.2272
Tədqiqat	-11.2272
▁ər	-11.2275
qərar	-11.2276
▁məscidlər	-11.2279
▁çoban	-11.2279
▁yayıl	-11.228
▁yetkin	-11.2281
vr	-11.2282
▁keçirilməsində	-11.2286
▁böhranı	-11.2288
▁ma	-11.2289
▁əyləncə	-11.2291
▁dağıdılmış	-11.2292
▁Bahar	-11.2292
▁ruhunu	-11.2292
▁xərcləri	-11.2293
▁qəzetləri	-11.2294
▁düzənliyi	-11.2297
▁Mona	-11.23
▁dairəsini	-11.2301
▁dəyişmişdi	-11.2301
▁dövriyyəsi	-11.2304
▁səhnələr	-11.2305
▁Ak	-11.2308
▁tanınması	-11.2309
▁Monqolustan	-11.231
▁düzəltmə	-11.231
▁İrakli	-11.231
▁Xurşid	-11.231
▁Cəm	-11.2311
eonardo	-11.2311
▁sizi	-11.2312
9-	-11.2313
▁düşürdü	-11.2314
▁düzənlikdə	-11.2314
▁mütəxəssisləri	-11.2315
▁xəttat	-11.2315
əncan	-11.2318
▁test	-11.2324
▁Hərəkatı	-11.2332
▁Xanlıq	-11.2336
▁kitablarında	-11.2337
▁cərəyanı	-11.2338
▁qanuna	-11.2339
▁pozul	-11.2339
▁İşıq	-11.2342
▁maraqla	-11.2344
▁şəkillər	-11.2345
▁inqilabında	-11.2345
▁planda	-11.2345
▁çıxdıqda	-11.2346
▁Proqramı	-11.2348
▁təsdiqləyi	-11.2354
▁Bo	-11.2355
▁bağlanır	-11.2359
▁qaldırır	-11.2359
▁Hakimiyyəti	-11.236
▁qiya	-11.236
▁divarında	-11.2364
▁güllə	-11.2368
▁rayonlarını	-11.2372
▁Şirvanı	-11.2378
▁bölgələri	-11.2381
hi	-11.2383
▁birləşmələrin	-11.2385
mid	-11.2389
▁gəncləri	-11.2389
▁900	-11.239
▁xəyanət	-11.2391
▁gəlmir	-11.2391
▁onurğa	-11.2391
▁xronik	-11.2391
▁aşiq	-11.2391
▁boğaz	-11.2391
▁dolğun	-11.2392
▁şairləri	-11.2392
▁adamlarını	-11.2392
▁Nigeriya	-11.2393
▁yayıldığı	-11.2393
▁səbəbini	-11.2396
▁hasilatı	-11.2396
▁getməyə	-11.2397
▁sintezi	-11.2398
▁Yel	-11.2401
▁məskənləri	-11.2403
▁ödənilməsi	-11.2404
▁liqa	-11.2406
▁gözlə	-11.2413
▁meyvələr	-11.2415
▁imzası	-11.2415
▁Mari	-11.2417
▁küləyi	-11.2422
▁kökündə	-11.2422
▁avtomobili	-11.2425
▁illərini	-11.2426
▁müəssisələrin	-11.2426
▁landşaft	-11.2426
▁qoşulmuş	-11.2428
▁Xüsus	-11.2429
▁Dəvə	-11.243
▁sala	-11.243
▁variant	-11.2433
▁əd	-11.2434
▁alətlərin	-11.2435
▁rənglər	-11.2437
▁sistemlərini	-11.2439
▁bitirir	-11.2439
▁pilot	-11.2439
▁əsaslarını	-11.2439
▁etdik	-11.2439
▁yarışın	-11.2442
▁daşınması	-11.2442
▁kursunu	-11.2447
▁almaya	-11.2453
▁kurs	-11.2459
F	-11.2462
hazır	-11.2464
zən	-11.2467
▁dibində	-11.2467
▁xatırlayır	-11.2468
ldu	-11.2469
▁körpüsü	-11.247
▁mühacir	-11.2471
▁gündüz	-11.2471
▁Saturn	-11.2472
▁Firdovsi	-11.2472
▁Balaxanı	-11.2473
▁İlahi	-11.2473
▁olunacaq	-11.2474
▁qanunlarını	-11.2475
▁Klubun	-11.2475
▁bilməsə	-11.2476
▁oyunçular	-11.248
▁Əsədov	-11.2482
▁saxlayırdı	-11.2484
▁qurğuları	-11.2485
▁zəhərli	-11.2485
▁küçəsində	-11.2485
▁Qay	-11.2485
▁vəzifələrini	-11.2487
▁düzənliyində	-11.2487
▁Şamlı	-11.2489
▁qorunur	-11.2489
▁oyununu	-11.2491
▁gətir	-11.2493
▁şəkilçisi	-11.2495
▁Amerikanı	-11.2497
▁Adams	-11.25
▁cəhətləri	-11.2501
eti	-11.2502
▁Hun	-11.2504
▁ölür	-11.2504
▁bağlana	-11.2505
▁bəyim	-11.2509
▁yetirdi	-11.2511
▁dediyin	-11.2512
▁məhsulların	-11.2512
▁yaşadı	-11.2516
▁Süleymanov	-11.2521
oy	-11.2521
▁məktublar	-11.2523
eyran	-11.2524
▁faktor	-11.2526
aktiv	-11.2529
▁kül	-11.2531
▁verməyi	-11.2531
▁İnşaat	-11.2531
▁göndəri	-11.2532
▁heykəlləri	-11.2532
▁şərtlərin	-11.2538
əmmü	-11.2538
bucaq	-11.2543
lavyan	-11.2544
▁sağlamlığı	-11.2551
▁əmirləri	-11.2552
▁yaranmasın	-11.2552
mrünü	-11.2554
▁Qeybulla	-11.2554
▁qurtarma	-11.2554
▁Xatun	-11.2554
▁dulus	-11.2554
▁kollektivi	-11.2555
▁istiqamətləri	-11.2555
▁yığmasını	-11.2555
▁açmaq	-11.2556
pesifik	-11.2557
▁dekan	-11.2557
▁Tədqiqat	-11.2558
▁kinosun	-11.2558
▁tacir	-11.2559
▁xəyal	-11.2561
▁Şiraz	-11.2562
▁milyonlarla	-11.2563
▁çin	-11.2564
▁təyinatl	-11.2565
▁itkilər	-11.2566
▁zülal	-11.2567
▁üçü	-11.257
▁xammal	-11.2571
▁Komissarlığı	-11.2572
▁yayla	-11.2574
▁açan	-11.2576
▁peyk	-11.2578
▁hamını	-11.258
▁Amerikası	-11.2581
nt	-11.2582
▁oynanıl	-11.2583
▁ayrıl	-11.2585
▁salan	-11.2589
▁verilənlər	-11.2589
▁yüksəlmişdi	-11.2591
5-	-11.2597
sü	-11.2598
▁divarlar	-11.26
▁Ni	-11.2602
▁qalibiyyət	-11.2608
▁sakinlərini	-11.2608
▁seçkilər	-11.2611
▁Vilayətin	-11.2611
▁lüğəti	-11.2611
▁Dan	-11.2618
▁əsil	-11.2618
ərazi	-11.2622
heç	-11.2622
▁çəkirdi	-11.2623
▁rəhbərliyində	-11.2629
hədsiz	-11.2632
▁York	-11.2634
▁poli	-11.2636
üksemburq	-11.2637
▁çarpır	-11.2637
▁Sarıcalı	-11.2637
▁Soltan	-11.2637
▁dağılmış	-11.2637
afiz	-11.2638
▁inteqrasiya	-11.264
▁Kirov	-11.264
▁1876	-11.264
▁fəza	-11.2642
▁sevinc	-11.2645
tmaq	-11.2645
▁toplamaq	-11.2647
▁Əla	-11.2648
▁1950	-11.2649
▁155	-11.2651
▁gözə	-11.2653
▁evlilik	-11.2657
▁İsgəndərov	-11.2657
▁göstərilməsi	-11.266
▁biliklər	-11.266
▁Konqres	-11.266
gedə	-11.266
▁Am	-11.2661
▁Xəlilov	-11.2661
çe	-11.2663
▁fabriki	-11.2665
▁tağ	-11.2666
▁köçürülü	-11.2669
sm	-11.2669
lığını	-11.2671
övq	-11.2673
▁məbləğ	-11.2686
▁təqdimatı	-11.2687
▁Key	-11.269
ed	-11.269
▁zənginliyi	-11.269
▁Qaz	-11.269
▁yüksəldi	-11.2694
ess	-11.2702
▁mahiyyətini	-11.2705
▁göllər	-11.2705
▁mövsümdə	-11.2707
işmiş	-11.271
alındığı	-11.2711
▁Bal	-11.2712
▁duyğu	-11.2718
qalan	-11.2718
▁qrafika	-11.272
▁Apollon	-11.272
▁qalmır	-11.272
▁soruşdu	-11.272
▁araşdırılması	-11.272
▁Bəhreyn	-11.272
eorgi	-11.272
▁Şükür	-11.2721
▁düşünürdü	-11.2721
▁Qaça	-11.2721
▁oxucu	-11.2721
▁gözlərini	-11.2722
▁aqrar	-11.2723
▁çək	-11.2724
▁zadəgan	-11.2724
▁fərqlidir	-11.2726
▁işləyə	-11.2726
had	-11.2727
▁ayın	-11.2728
▁hövzələrin	-11.2729
▁Texnikumun	-11.2734
▁qızılbaşlar	-11.2734
▁tanrılar	-11.2735
▁inandırı	-11.2736
▁Buxara	-11.2737
▁ornament	-11.2738
▁həvəs	-11.2738
▁Mas	-11.2743
▁bürc	-11.2743
▁gələcəyi	-11.2745
▁hövzəsini	-11.2748
▁qəsd	-11.275
▁ictimaiyyətin	-11.2751
▁Arazı	-11.2753
▁çıxışlar	-11.2753
▁Rey	-11.2755
▁zolaq	-11.2755
zal	-11.2762
▁şəxsləri	-11.2763
▁vəsaitləri	-11.2764
urnalların	-11.2769
▁silsiləsində	-11.2774
▁edilməmiş	-11.2774
▁tərzini	-11.2775
▁Qaya	-11.2776
▁vergilər	-11.2777
▁medalla	-11.2783
▁hissləri	-11.2786
▁mərtəbə	-11.279
▁evlənmə	-11.2791
▁informasiyanı	-11.2792
▁rəqsləri	-11.2793
▁bas	-11.2797
isinin	-11.2799
▁rəqəmlər	-11.2801
▁Kəpə	-11.2804
exoslovakiya	-11.2804
qay	-11.2804
▁əyalətin	-11.2804
▁əhli	-11.2804
▁bilinir	-11.2805
▁Tağı	-11.2809
▁futbolçular	-11.2809
▁Mak	-11.2815
▁birləşdirilmiş	-11.2817
▁səfərlər	-11.2818
▁filizi	-11.282
▁Klubu	-11.282
▁qatar	-11.2821
▁müşahidələr	-11.2822
▁adlandırdı	-11.2825
▁dəyişmə	-11.2825
▁münasibətini	-11.2825
▁yollanır	-11.283
▁gölün	-11.2831
▁keçmə	-11.2832
▁dəstəsin	-11.2833
▁şiddət	-11.2835
▁Cəmiyyət	-11.2836
▁98	-11.2841
▁şagirdlər	-11.2842
▁sədaqət	-11.2844
▁ürəyin	-11.2845
yon	-11.2849
▁açılış	-11.285
▁şad	-11.2852
▁bənd	-11.2855
▁nəğmələr	-11.2856
▁insanlarda	-11.2857
▁Mur	-11.286
dil	-11.2864
▁məmurları	-11.2865
▁Komissiya	-11.2865
▁toplanır	-11.2865
▁bulaqlar	-11.2868
▁dərslər	-11.2872
▁300-	-11.2873
▁Söz	-11.2873
▁səyləri	-11.2874
▁itki	-11.2876
▁baxı	-11.2879
▁titul	-11.288
▁məskunlaşa	-11.288
▁formal	-11.2885
▁Keçə	-11.2885
▁redaksiya	-11.2885
milli	-11.2886
▁Elçibəy	-11.2889
▁Kennedi	-11.2889
▁Tokio	-11.2889
▁Şaumyan	-11.2889
▁univers	-11.2889
▁qırx	-11.289
▁Flor	-11.289
▁nümayəndəliyi	-11.2892
▁narazı	-11.2892
▁Ford	-11.2893
▁xəmir	-11.2893
▁poem	-11.2896
▁məsələsini	-11.2896
▁səciyyə	-11.29
▁verdiyini	-11.2901
▁karvansara	-11.2901
ətif	-11.2902
▁Tərcümə	-11.2902
▁1200	-11.2905
▁dönəm	-11.2906
▁İqtisad	-11.2908
▁nominasiyasın	-11.291
▁hövzəsində	-11.2911
▁atları	-11.2918
▁sinfini	-11.2918
▁kürəsini	-11.2928
▁yayılma	-11.2933
▁zonada	-11.2938
▁buraxılır	-11.2939
14	-11.2948
▁otağın	-11.295
▁mülkiyyət	-11.295
▁Kərə	-11.2954
▁qabıq	-11.2955
▁meyvəsi	-11.2956
▁iy	-11.2957
▁bağçası	-11.2962
▁müqaviməti	-11.2962
▁səlahiyyətləri	-11.2966
ığa	-11.2966
▁yarışları	-11.2973
▁uçu	-11.2974
▁xatırlada	-11.2974
▁yetər	-11.2974
▁1885	-11.2974
▁təsəvvüf	-11.2974
▁qanunauyğunluq	-11.2975
▁Malta	-11.2975
▁qazın	-11.2975
▁oyunçusu	-11.2978
▁sevgisi	-11.2979
radio	-11.2981
▁döyüşçüləri	-11.2982
▁nüsxə	-11.2983
▁oynamaq	-11.2985
▁1919	-11.2988
▁mağarası	-11.2989
▁aparıldı	-11.2993
▁istədiyini	-11.2995
▁məhəbbətin	-11.2996
▁2,5	-11.2996
▁laboratoriyası	-11.2998
▁verməkdə	-11.3005
▁Səni	-11.3005
▁halları	-11.3009
▁toyu	-11.3013
▁Tat	-11.3014
▁səsləri	-11.3017
▁bölünməsi	-11.3019
▁Amerikalı	-11.302
▁qurmuş	-11.3024
▁mühərrik	-11.3026
▁Alt	-11.3029
▁futbolçuları	-11.3033
ləşmə	-11.3034
▁qazma	-11.3036
▁şüalanma	-11.3039
məyə	-11.3041
▁matçda	-11.3042
▁qapıları	-11.3044
▁standartları	-11.3044
▁satışı	-11.3045
▁çəkə	-11.3047
▁əllərində	-11.3053
▁kitablarını	-11.3056
▁fənn	-11.3058
▁miqdarını	-11.306
▁atomları	-11.306
▁unikal	-11.3061
▁DNT	-11.3062
▁məsləhəti	-11.3062
▁salındı	-11.3062
▁səslə	-11.3064
▁törəmələri	-11.3064
▁ye	-11.3065
▁Yol	-11.3067
▁otel	-11.3068
▁himayəsi	-11.3068
▁gününü	-11.3068
▁xoşu	-11.307
▁imperiyanı	-11.3071
▁Hadisə	-11.3072
▁yerləşdirilməsi	-11.3072
▁azot	-11.3073
Qacar	-11.3076
▁baxmaq	-11.308
sey	-11.3082
▁titulunu	-11.3083
anrında	-11.3084
3-	-11.3089
▁verdikdə	-11.3091
▁sənətkarların	-11.3095
▁duzlu	-11.3096
▁birincisi	-11.3099
els	-11.3103
▁itkin	-11.3104
▁ayları	-11.3105
▁Tez	-11.3106
▁qismini	-11.3108
▁Evli	-11.3108
▁hərbçi	-11.3108
▁oyunlarda	-11.3111
▁ocaqları	-11.3112
▁faşist	-11.3115
▁ideyalar	-11.3115
▁Pol	-11.3116
▁qitəsin	-11.3128
▁hektarı	-11.3128
▁razılığ	-11.3132
▁statusunu	-11.3132
▁coğrafiyası	-11.3133
▁dağında	-11.3134
▁bilməmiş	-11.3135
▁icrası	-11.3136
▁qaynağı	-11.3136
▁birisi	-11.3137
▁təklifini	-11.3145
▁bağladı	-11.3146
əl	-11.3146
▁istehlak	-11.3147
NESKO	-11.3147
▁cəngavər	-11.3147
▁Tikinti	-11.3148
▁səllə	-11.3148
▁buraxıldı	-11.3148
▁ətirli	-11.3148
▁əyri	-11.3148
▁valyuta	-11.3148
▁versin	-11.3149
▁1879	-11.3151
▁kəlmə	-11.3152
tıl	-11.3152
▁başçı	-11.3154
▁pilləsin	-11.3154
▁olacaqdı	-11.3154
▁Araşdırmalar	-11.3156
sta	-11.3156
▁XXI	-11.3159
▁azadlığ	-11.3159
▁vaxtını	-11.3161
▁Yapon	-11.3161
▁81	-11.3161
▁Həzrəti	-11.3162
▁bağlar	-11.3164
▁obrazın	-11.3168
▁düşmənləri	-11.317
▁kitabələr	-11.3175
▁strukturun	-11.3178
▁yoxlama	-11.318
əzəli	-11.3187
▁xristianlar	-11.3188
▁vergiləri	-11.3188
▁poeziyası	-11.319
▁güzəşt	-11.3193
yü	-11.3194
▁çətinliklə	-11.32
▁gəlməsində	-11.3201
▁yarışlar	-11.3203
▁Xilafət	-11.3208
▁qoya	-11.3209
▁350	-11.3214
▁Mehme	-11.3215
▁qarşıdurma	-11.322
▁hədəfi	-11.3224
rey	-11.3225
▁bələd	-11.3229
▁mükafatları	-11.3233
▁münasib	-11.3234
ted	-11.3235
▁Şaiq	-11.3235
▁Alfred	-11.3235
▁tirəsi	-11.3235
▁Ətraf	-11.3235
▁yenidənqurma	-11.3235
▁tülkü	-11.3235
əhməd	-11.3236
▁69	-11.3236
▁yollandı	-11.3239
▁sektorun	-11.3239
▁Məhərrəmov	-11.3242
▁atıla	-11.3242
▁götürmək	-11.3245
▁kəmər	-11.3247
▁papa	-11.3248
▁Necə	-11.3253
▁naib	-11.3256
▁gəmilərin	-11.3256
▁dəyişmək	-11.3262
▁ba	-11.3264
▁əməyin	-11.3266
▁Əsgərov	-11.3267
▁74	-11.3267
▁qabları	-11.3268
▁soyadını	-11.3268
▁konfransı	-11.3272
▁seçir	-11.3272
▁meydanda	-11.3274
▁Təşkilat	-11.3278
▁fəlsəfəsini	-11.328
▁Şarl	-11.328
eviç	-11.3281
▁öldürülməsi	-11.3281
▁Ber	-11.3287
▁saxlamışdı	-11.3293
ordan	-11.3297
▁komandasında	-11.3297
▁Bert	-11.3303
▁yaradıcılıqla	-11.3303
▁Suyun	-11.3304
▁düzən	-11.3305
▁proqramların	-11.3314
▁MS	-11.3315
zəl	-11.3315
▁yoxsul	-11.3319
▁cəhdi	-11.3322
▁komandan	-11.3322
radan	-11.3322
▁Fateh	-11.3324
▁Odessa	-11.3324
▁Tolstoy	-11.3324
▁qurtarı	-11.3324
▁Şəxs	-11.3324
▁çatdırılması	-11.3324
▁bağlanması	-11.3324
estra	-11.3325
▁Bünyadov	-11.3326
-5	-11.3326
▁masa	-11.3327
▁şahid	-11.3329
▁tənqidçilər	-11.333
▁danışmaq	-11.3331
▁cox	-11.3334
▁ilan	-11.3335
▁çevirmişdi	-11.3338
▁müxtəlifdir	-11.3338
▁çıxmağ	-11.3341
▁1917	-11.3341
İK	-11.3344
▁tarixçiləri	-11.3348
arl	-11.3349
▁yüzilliy	-11.335
▁bəyləri	-11.3352
ira	-11.3352
▁rütbəsinə	-11.3357
▁71	-11.3358
▁Samir	-11.3359
▁Ant	-11.3359
▁bilmiş	-11.3362
tdan	-11.3364
▁romanları	-11.3366
▁etdirilmişdi	-11.3366
▁metro	-11.3366
▁məscidini	-11.3367
▁müstəmləkə	-11.3369
▁eşq	-11.3369
▁tədrisi	-11.3373
▁yığılı	-11.3373
▁1882	-11.3377
▁1848	-11.3378
▁Po	-11.3378
▁po	-11.3379
▁bildirirdi	-11.338
▁toplayır	-11.3382
▁Art	-11.3382
▁səfirliyin	-11.3388
lmuşdur	-11.3389
▁Marks	-11.3391
▁Ensiklopediyası	-11.3395
▁fondunda	-11.3396
▁qəlbin	-11.3396
▁təchizatı	-11.3396
▁bölməsində	-11.3398
▁İsm	-11.34
▁əlyazmaları	-11.3402
▁Sev	-11.3404
▁cəhdləri	-11.3404
▁disk	-11.3407
▁otaqlar	-11.3408
▁məskunlaşma	-11.3408
▁AFFA	-11.3413
▁Mərdəkan	-11.3413
▁birləşə	-11.3413
▁partizan	-11.3413
▁münsif	-11.3413
▁Əmr	-11.3414
▁günahkar	-11.3415
▁pillədə	-11.3415
▁Xanlığı	-11.3417
▁keyfiyyətini	-11.3418
▁qarış	-11.3419
▁Naxçıvanski	-11.342
▁Xırda	-11.3423
▁Məs	-11.3424
▁prinsip	-11.343
▁məqsədləri	-11.3431
▁Təşkilatın	-11.3431
▁yağları	-11.3435
▁genişlənməsi	-11.3436
▁proqramın	-11.3437
▁Şur	-11.3438
▁kainatın	-11.3441
▁taleyini	-11.3441
▁cəhətlər	-11.3442
▁çəkməy	-11.3444
▁məbləğin	-11.3444
▁ötürmə	-11.3445
lizin	-11.3446
▁Okean	-11.3449
▁piano	-11.3451
▁92	-11.3451
▁Şöv	-11.3452
▁tamamlanı	-11.3455
▁qurumları	-11.3456
▁1827	-11.3457
▁Stadionun	-11.3461
▁qubernatoru	-11.3461
▁yaza	-11.3462
▁fırlanma	-11.3463
▁zavodları	-11.3466
▁tozu	-11.3467
▁adlarında	-11.3467
▁balıqların	-11.3468
▁türbəsini	-11.3474
▁xatun	-11.3474
▁ömürlü	-11.3474
▁adlandırılmış	-11.3474
qaz	-11.3477
▁alp	-11.3479
▁repressiya	-11.3482
▁Cümhuriyyət	-11.3486
▁işçilər	-11.3489
▁sıraların	-11.3489
▁61	-11.349
▁qr	-11.3493
▁xəstələr	-11.3494
X	-11.3496
▁oxucular	-11.3498
▁qəzəb	-11.3498
əhəbbət	-11.3499
▁Nig	-11.35
alırlar	-11.3502
▁eşitmə	-11.3503
▁sutka	-11.3503
▁Fəh	-11.3503
▁Dunay	-11.3503
▁Elxanilər	-11.3504
▁com	-11.3504
▁ayaqları	-11.3504
saq	-11.3504
▁əvvələrində	-11.3506
laşır	-11.3506
▁yazıçıları	-11.3509
▁Dif	-11.351
süz	-11.3511
▁toxunmuş	-11.3514
▁Bayatı	-11.3516
▁ölkəmizi	-11.3517
▁Almaz	-11.3518
▁Cü	-11.3518
▁Ro	-11.3522
▁göstəriciləri	-11.3524
▁qüsur	-11.3524
▁öldürülmüş	-11.3525
▁qrupların	-11.3531
▁yükü	-11.3535
▁çatanda	-11.3535
▁elmini	-11.3539
▁nikah	-11.3542
▁romalılar	-11.3544
▁səyahəti	-11.3546
▁Sab	-11.3548
▁saatda	-11.3548
▁kürə	-11.3549
▁alınmasında	-11.3551
▁ədalətl	-11.3553
cağı	-11.3554
▁Fond	-11.3556
həm	-11.3556
▁diş	-11.3557
▁1875	-11.3558
▁Qov	-11.3563
▁imam	-11.3568
▁59	-11.357
▁Noyabr	-11.3571
▁stadionu	-11.3573
əng	-11.3575
▁ağzı	-11.3575
▁göstərilmiş	-11.358
evs	-11.358
▁təcəssüm	-11.3581
▁xəbərin	-11.3587
▁Bayat	-11.3587
▁törəmə	-11.359
übhəsiz	-11.3593
▁Mesopotamiya	-11.3594
▁təxirə	-11.3594
▁Eduard	-11.3594
▁Motor	-11.3594
▁bayır	-11.3594
▁Xorvatiya	-11.3594
▁Xadim	-11.3594
▁təməli	-11.3595
▁Anatol	-11.3595
oqo	-11.3596
▁Dəmirçi	-11.3597
▁dik	-11.36
▁Paşayev	-11.3601
▁birləşdirmək	-11.3602
▁çatdığı	-11.3603
▁bazasını	-11.3604
▁Məmmədəli	-11.3605
▁bataqlıq	-11.3606
▁Qurultay	-11.3608
▁daşımış	-11.3609
▁keçməyə	-11.3609
▁fikr	-11.3609
▁təzyiqlər	-11.3611
lba	-11.3612
▁tapma	-11.3615
▁İnsanı	-11.3616
▁Ce	-11.3619
▁Qızılbaş	-11.3624
C	-11.3626
▁sərhəddi	-11.3632
arkən	-11.3637
▁millətlər	-11.3639
ilir	-11.364
sanlı	-11.3641
▁getməsi	-11.3646
▁Hir	-11.3647
▁yürüşlər	-11.3647
▁səltənəti	-11.3648
▁doktor	-11.3651
▁bəra	-11.3651
▁Ola	-11.3655
▁Kir	-11.3655
▁İnqilabı	-11.3655
▁qiymətləndir	-11.3657
▁Mə	-11.3661
▁78	-11.3665
▁musiqisində	-11.3665
▁kristal	-11.3672
▁Agentliyi	-11.3674
▁neftin	-11.3675
yd	-11.3678
▁çaylarını	-11.3678
▁komitə	-11.3681
▁qoru	-11.3683
▁götürülmüş	-11.3684
▁spirt	-11.3686
▁təəssüf	-11.3686
▁Bethoven	-11.3686
▁Rumeli	-11.3686
▁Aleksey	-11.3686
▁Qəmbər	-11.3686
▁yüzbaşı	-11.3686
ülməmməd	-11.3686
▁Tağızadə	-11.3687
▁maili	-11.3688
▁Pəri	-11.3689
▁xərçəng	-11.369
ehriban	-11.3695
▁adasını	-11.3696
anınmış	-11.3702
05	-11.3705
▁surəti	-11.3709
▁kubokun	-11.3709
▁dərinlikdə	-11.371
▁Yunanıstanı	-11.371
▁qəbulunda	-11.3712
▁qatıla	-11.3715
brik	-11.3715
▁toplanmışdı	-11.3716
▁Xidməti	-11.3718
▁Anadolunu	-11.3723
▁zolağı	-11.3724
▁yoxs	-11.3724
▁evlənmişdi	-11.3724
lülər	-11.3725
▁buraxır	-11.3726
▁göstərili	-11.3727
▁bağlayı	-11.3728
▁Tədqiqatlar	-11.3731
▁Yaradıcılığı	-11.3734
▁atıcı	-11.3737
▁rəis	-11.3739
▁mülkü	-11.374
▁simasın	-11.3743
▁dərisi	-11.3744
▁layihələrin	-11.3745
▁öldürür	-11.3746
▁oynamağ	-11.3748
▁Şirkəti	-11.375
▁evlərində	-11.3754
▁musiqiçilər	-11.3758
▁yarısını	-11.3761
əhəmməd	-11.3764
▁bildirmiş	-11.3764
▁haqqını	-11.3765
▁psixologiya	-11.377
▁Axund	-11.3772
qoyma	-11.3773
▁Mərakeş	-11.3778
▁Təəssüf	-11.3778
▁qəbiristanlıq	-11.3778
▁Kompüter	-11.3778
▁bacarır	-11.3778
▁doğulan	-11.3778
▁idxal	-11.3778
▁çatdırmaq	-11.3778
▁armud	-11.3778
▁Hülakü	-11.3779
▁serial	-11.3779
▁təmas	-11.378
▁dərviş	-11.3781
▁1871	-11.3783
▁örtülmüş	-11.3785
əsi	-11.3787
▁çevirdi	-11.3789
▁büdcə	-11.379
▁avadanlıqlar	-11.3791
▁birləşdi	-11.3794
▁portret	-11.3794
▁1805	-11.3795
▁Yeri	-11.3795
▁təmizlənməsi	-11.3797
▁planları	-11.38
məz	-11.3801
▁köçürül	-11.3801
▁növün	-11.3808
▁başlıq	-11.381
▁Oğlu	-11.3814
▁geologiya	-11.3815
▁fikrində	-11.3816
▁sər	-11.3817
▁televiziyası	-11.3817
▁canlılar	-11.3817
▁Day	-11.3822
▁kollec	-11.3822
▁metall	-11.3824
▁Kolleci	-11.3825
inematoqrafiya	-11.3826
▁Kitabın	-11.3826
▁cədvəl	-11.3828
▁ocaq	-11.3833
▁yaddaşın	-11.3834
tağı	-11.3837
▁kitablarda	-11.3839
▁gimnaziya	-11.3841
▁Burda	-11.3843
▁Mal	-11.3846
▁vadisi	-11.3847
▁niyyəti	-11.3848
▁Həc	-11.385
şel	-11.385
▁qüs	-11.3851
▁şura	-11.3853
▁Xaqani	-11.3854
▁kompleksin	-11.3855
▁dəqiqləşdirmə	-11.3855
▁məsələlərdə	-11.3855
▁Nü	-11.3857
▁İttifaqında	-11.3866
▁nöqtələri	-11.3867
▁orkestri	-11.3867
▁görüşləri	-11.3869
▁söyləmişdi	-11.3869
▁qəf	-11.3872
▁Dəməşq	-11.3872
▁Əbdülhəmid	-11.3872
ikaqo	-11.3872
▁kompyuter	-11.3872
▁yetişmiş	-11.3872
▁sürt	-11.3872
▁kontinental	-11.3872
▁Nağıyev	-11.3872
▁1884	-11.3872
▁Qulam	-11.3873
oçt	-11.3873
▁düzəldir	-11.3873
▁yayıldı	-11.3875
▁studiyasın	-11.3875
samal	-11.3875
▁axı	-11.3878
▁Aba	-11.3879
iviya	-11.3882
▁Qoll	-11.3883
▁Yəhudi	-11.3888
▁82	-11.3889
məna	-11.389
oxlu	-11.3891
▁araya	-11.3892
▁tikililəri	-11.3892
▁suallar	-11.3892
▁Mi	-11.3893
ap	-11.3895
▁məzun	-11.3897
▁Parkın	-11.3898
▁xəstəliklərində	-11.3898
ötəri	-11.39
▁balıqçılıq	-11.3901
▁yetişdir	-11.3905
▁Kan	-11.3909
▁qoruyucu	-11.3911
▁Assambleyası	-11.3913
▁şüur	-11.3915
▁içərisin	-11.392
▁görüşündə	-11.3922
▁fakultəsini	-11.393
▁sərfi	-11.3935
▁gözləyir	-11.3935
gül	-11.3936
▁1800	-11.3937
▁yuxuda	-11.3941
▁düşərgəsində	-11.3941
▁cəsarətl	-11.3944
▁qraf	-11.3945
▁toplam	-11.3945
▁fakultəsin	-11.3946
▁Kitabxana	-11.3947
▁dönür	-11.3955
▁institutunu	-11.3957
▁çərçivə	-11.3957
▁siyahı	-11.3958
▁açıqlama	-11.3963
▁Bavariya	-11.3966
▁deportasiya	-11.3966
▁Pişəvəri	-11.3966
▁Konqo	-11.3966
▁araşdıra	-11.3966
▁irəlilədi	-11.3967
▁Müvə	-11.3967
▁verəcək	-11.3967
urgiya	-11.3967
▁uran	-11.3967
▁başlama	-11.3968
▁Stepan	-11.3969
▁nailiyyətləri	-11.3969
▁heyran	-11.397
▁atlar	-11.3971
▁dəyərlər	-11.3971
▁qadir	-11.3974
▁Ələsgərov	-11.3975
▁modelləri	-11.3979
▁knyazı	-11.3979
▁Qu	-11.398
▁Elvi	-11.3983
▁mətbuatı	-11.3983
▁77	-11.3984
kət	-11.3989
▁kəsilir	-11.3989
papaq	-11.399
▁pir	-11.3991
▁ətrafın	-11.3995
▁etməmişdi	-11.3998
▁176	-11.4
▁nəğmə	-11.4003
▁çıxırdı	-11.4004
▁hallar	-11.4004
▁çıxaran	-11.4009
▁birlikləri	-11.4009
▁şeri	-11.401
▁Seyidov	-11.4013
▁orqanlar	-11.4014
▁ehtimalla	-11.4015
▁Səmən	-11.4016
▁mövcudluğunu	-11.4018
▁Dövləti	-11.402
▁obası	-11.4027
▁ayağı	-11.4028
▁çatmamış	-11.4029
▁1887	-11.4029
▁Maks	-11.4035
▁alətin	-11.4036
▁qon	-11.4039
▁salını	-11.4043
▁Tar	-11.4044
▁illiyin	-11.4046
▁təs	-11.4046
▁Kay	-11.4048
▁Din	-11.405
▁rəğbəti	-11.4051
▁Kompleksin	-11.4052
▁xahişi	-11.4052
▁oyna	-11.4054
▁ovalığı	-11.4057
tov	-11.4058
▁Filippin	-11.4058
▁addımlar	-11.4061
öründüyü	-11.4061
▁müttəfiqləri	-11.4061
▁Maqsud	-11.4061
▁gitara	-11.4061
▁qənimət	-11.4061
▁ehtiram	-11.4061
▁stəkan	-11.4061
▁Rafael	-11.4061
▁patent	-11.4061
▁1840	-11.4062
▁girmiş	-11.4063
▁bünövrəsi	-11.4063
▁daşıdığı	-11.4064
▁aşkarlanmış	-11.4064
▁Kütlə	-11.4065
▁Qali	-11.4066
▁ərazidədir	-11.4067
▁noyabrda	-11.4067
▁sinfində	-11.4069
▁mübarizəsini	-11.4071
▁Konqresin	-11.4075
analitik	-11.4077
▁qeydiyyatda	-11.4077
▁faza	-11.4081
▁relyefi	-11.4085
▁mətbəxi	-11.4086
▁simvol	-11.4087
▁yeniyetmə	-11.4087
▁2017	-11.4088
▁qızın	-11.4089
▁südü	-11.4091
▁tutmağ	-11.4092
▁operası	-11.4093
lyasiya	-11.4094
▁mövqelərini	-11.4099
▁nəsillər	-11.4099
▁narın	-11.41
▁əlaqəsini	-11.4106
▁mağaza	-11.4106
▁şaha	-11.4107
oks	-11.4108
▁çıxarmağ	-11.4109
▁qurulur	-11.411
▁Marsı	-11.4111
aur	-11.4115
qonu	-11.4118
▁məsələlərini	-11.4118
▁qoşulmuşdu	-11.4119
▁xassələri	-11.412
▁İttifaq	-11.412
▁Parkı	-11.412
▁təminat	-11.4121
▁uçuşu	-11.4121
▁dərnəyin	-11.4127
▁aləmdə	-11.4128
▁kişilərin	-11.4139
sevən	-11.4139
▁təy	-11.4142
▁səsin	-11.4146
zərb	-11.4148
▁Dağlar	-11.4148
▁Ağqoyunlular	-11.4149
▁tariximiz	-11.4153
▁İlan	-11.4155
▁limanında	-11.4156
▁83	-11.4157
▁Statistik	-11.4158
▁Vatikan	-11.4158
▁Düşmən	-11.4158
▁qoç	-11.4158
▁bacara	-11.4158
ihab	-11.4158
▁lokal	-11.4158
▁münbit	-11.4158
inq	-11.4158
▁vura	-11.4159
▁istintaq	-11.4159
▁ifadəsini	-11.4162
▁festival	-11.4166
▁boynun	-11.4166
▁vurula	-11.4168
▁kədər	-11.417
qo	-11.4174
▁hazırladı	-11.4175
▁Nasir	-11.4177
▁Abbaszadə	-11.418
▁saz	-11.4181
▁Suriyada	-11.4182
▁1941	-11.4182
▁binasını	-11.4184
▁gizlə	-11.4185
stol	-11.4189
▁seçdi	-11.419
▁dönü	-11.4191
▁bankın	-11.4194
▁müdir	-11.4194
▁ənənələr	-11.4194
▁ağacların	-11.42
▁verilişləri	-11.4202
məkdaşlıq	-11.4202
▁həvəsi	-11.4204
▁təbliği	-11.4207
▁dəlik	-11.4207
▁boşluğu	-11.4212
▁məhəlləsi	-11.4214
▁göndərili	-11.4217
▁Katolik	-11.4221
▁Qəzvini	-11.4222
▁pyesləri	-11.4222
assiv	-11.4223
▁qurmağ	-11.4227
▁binasında	-11.4229
▁divanı	-11.4231
▁ağırlıq	-11.4234
▁Ağam	-11.4234
aclı	-11.4241
▁içindəki	-11.4243
müsəlman	-11.4243
▁vilayətlərində	-11.4244
icad	-11.4245
▁dinlərin	-11.4247
▁minillikdə	-11.4248
▁dolayı	-11.4249
şaqlar	-11.4251
DM	-11.4252
örüş	-11.4254
-25	-11.4254
▁Bütöv	-11.4255
▁Nəvvab	-11.4255
▁Riçard	-11.4255
▁dairələri	-11.4255
▁yetişən	-11.4255
▁çəhrayı	-11.4255
▁Əlyazma	-11.4255
▁İshaq	-11.4255
▁şöbələri	-11.4255
▁sahibkar	-11.4255
▁Assur	-11.4257
▁quyusu	-11.4257
▁adlandırdığı	-11.4257
▁baxa	-11.4258
▁Sabit	-11.4258
▁standartlar	-11.426
▁bağlamaq	-11.426
▁havanı	-11.426
▁İvanov	-11.4262
▁dal	-11.4263
▁sistemdə	-11.4264
▁olunduğun	-11.4267
▁Misiri	-11.4268
▁amillərin	-11.4269
▁polyak	-11.427
▁quşların	-11.427
▁gəlinə	-11.4272
istik	-11.4273
▁meşələrin	-11.4274
▁festivalı	-11.4276
rus	-11.4285
▁ofisi	-11.4285
▁84	-11.4288
▁Dillər	-11.429
▁yaşama	-11.429
ts	-11.4291
▁leytenant	-11.4296
▁tutması	-11.4299
dirdi	-11.4302
▁sülhü	-11.4304
▁klubda	-11.4305
▁Bağdadda	-11.4306
▁tikintisində	-11.4306
▁Avar	-11.4314
tto	-11.4314
▁aviasiya	-11.4315
▁sikkə	-11.4315
▁Bölgə	-11.4316
▁Tanrını	-11.4317
▁tor	-11.4317
▁ekspert	-11.4319
▁tarixçilərin	-11.432
▁gələcəyin	-11.4324
▁tikililərin	-11.4325
▁müsəlmanları	-11.4326
▁icraçı	-11.4326
▁məhlulu	-11.4333
▁qadınlara	-11.4333
▁formalarını	-11.4337
▁Həz	-11.4341
▁səslər	-11.4343
1-2	-11.4345
▁Əf	-11.4346
▁ani	-11.4346
▁Xəz	-11.4348
neçə	-11.4348
▁əyanları	-11.4351
▁münaqişəsi	-11.4352
▁turistləri	-11.4352
▁Bürhanəddin	-11.4353
▁qurtardı	-11.4353
▁söylənil	-11.4353
▁cənnət	-11.4353
▁ATƏT	-11.4353
▁biçim	-11.4353
▁ziyafət	-11.4353
▁imzalamışdı	-11.4353
ərşən	-11.4354
▁Beat	-11.4354
▁daşıyıcısı	-11.4355
▁bölgələr	-11.4355
▁sularında	-11.4355
▁saxta	-11.4355
▁yaxınlıq	-11.4357
▁Qiyas	-11.4358
▁1859	-11.4358
▁osmanlılar	-11.4359
▁heyvanlarda	-11.436
▁Sü	-11.4365
▁səfərində	-11.4368
▁toplu	-11.4369
▁məhəlləsində	-11.4369
▁toxunur	-11.4369
▁93	-11.4373
▁qaldırı	-11.4374
▁Avstraliyada	-11.4375
▁niyyətində	-11.4377
▁1937	-11.4379
▁yayınd	-11.438
▁ərəbləri	-11.4382
karlar	-11.4383
▁potensialı	-11.4386
şəkk	-11.4387
▁Azərbaycanlılar	-11.4387
▁buraxılışı	-11.4393
▁bitdi	-11.4394
ral	-11.4395
mədəni	-11.4397
▁cisim	-11.4397
▁rollarını	-11.4402
▁fəsillər	-11.4406
▁edildiyin	-11.441
iyyəti	-11.4412
▁Xiyaban	-11.4412
▁qazıntıları	-11.4412
▁bomba	-11.4416
▁maşınlar	-11.4416
▁vurulmuş	-11.4417
urnalisti	-11.442
▁bədənini	-11.4422
▁Mat	-11.4423
▁fikirlərin	-11.4424
▁Hakimiyyət	-11.4424
▁istəmir	-11.4426
▁girişi	-11.4429
vəll	-11.4432
▁əlaqələndir	-11.4432
▁proqramlarını	-11.4437
▁çempionluğu	-11.444
▁quyuları	-11.444
▁yenilik	-11.4442
▁proqramında	-11.4448
▁şərəfl	-11.445
içi	-11.4452
▁Mütəxəssislər	-11.4452
▁ifşa	-11.4452
▁skripka	-11.4452
▁rəğ	-11.4452
▁kükürd	-11.4452
▁Qəmər	-11.4452
▁ADR	-11.4452
▁1869	-11.4452
▁Şahverdi	-11.4453
▁təhrik	-11.4453
▁Viktoriya	-11.4453
▁Bakuvi	-11.4454
▁Buradakı	-11.4456
▁futbolu	-11.4456
mido	-11.4457
yəz	-11.4457
▁sərhəddə	-11.4458
▁operatoru	-11.4461
▁hücumçu	-11.4462
atan	-11.4463
ördüncü	-11.4464
▁yaranmasını	-11.4465
▁yazılması	-11.4467
▁Kompleks	-11.4469
▁slavyan	-11.4469
▁əhvalat	-11.4476
▁xeyirli	-11.4479
▁səfirliyi	-11.4481
kraynanı	-11.4481
▁verilişin	-11.4482
▁maşınları	-11.4483
▁layihəni	-11.4484
▁metalları	-11.4486
▁vur	-11.4486
▁çevirmə	-11.4487
▁yerləşdirilir	-11.4489
▁qapısında	-11.4491
▁keş	-11.4503
▁Ağdamda	-11.4503
▁təsvirlər	-11.4504
▁qəbirləri	-11.4506
▁yoldaş	-11.4508
▁müalicəsin	-11.451
▁Mənə	-11.451
▁Ordubadi	-11.451
▁Səf	-11.451
▁idarəçiliyi	-11.4511
▁tim	-11.4512
▁Sudan	-11.4514
▁rəy	-11.4514
▁çəkmə	-11.4514
▁poemasını	-11.4516
▁Bankın	-11.4516
AR	-11.4517
▁Vilayət	-11.4518
▁şəxsiyyəti	-11.452
tgen	-11.452
rand	-11.4521
▁yaralı	-11.4522
əkəri	-11.4525
▁Aparıl	-11.4525
tmişdir	-11.453
▁nəsildən	-11.4532
▁çağırıl	-11.4532
▁mexanizmi	-11.4538
▁toxumları	-11.454
▁magistral	-11.454
▁arvad	-11.4546
məmməd	-11.4551
▁nöqteyi	-11.4552
▁Müğənni	-11.4552
▁Pəhləvi	-11.4552
▁Yevgeni	-11.4552
▁təqaüdçüsü	-11.4552
▁liberal	-11.4552
rəngiz	-11.4552
▁Yəmən	-11.4553
▁ərizə	-11.4554
▁əhatələnmiş	-11.4554
▁müəssisələrini	-11.4554
▁sünn	-11.4557
▁proqramlaşdırma	-11.456
▁mədəniyyətində	-11.4562
▁olimpi	-11.4562
▁gövdəsi	-11.4564
lamışlar	-11.4565
▁mahiyyət	-11.4566
▁problemin	-11.4567
▁düşə	-11.4568
dövlət	-11.4569
▁Hot	-11.4569
▁quraşdırılmış	-11.457
▁Xaqan	-11.4571
▁əcdadları	-11.4573
▁istehsalını	-11.4576
▁tapşırı	-11.4577
▁mayor	-11.4577
▁İzzə	-11.4579
▁təpəsi	-11.4582
▁deyən	-11.4583
▁başlanğıcını	-11.4585
▁əfsanələr	-11.4587
▁iştirakçıların	-11.459
▁binə	-11.4591
▁nəfərini	-11.4592
▁irqi	-11.4593
▁qoruğu	-11.4596
▁təbəqələr	-11.4597
▁180	-11.4599
▁götürən	-11.4602
▁universitetlər	-11.4602
▁Sözü	-11.4603
▁halqa	-11.4604
▁saxlamış	-11.4608
▁İbrahimi	-11.4609
▁orqanların	-11.4609
▁sikkələr	-11.4616
▁edəndə	-11.4618
▁Ho	-11.4619
▁so	-11.4621
▁öd	-11.4625
▁atəşi	-11.463
kmilləşdirilməsi	-11.463
▁əmirlərin	-11.4634
▁səthini	-11.4638
▁dosenti	-11.4641
vət	-11.4645
▁hündürlüy	-11.4645
▁dəstəsində	-11.4646
▁qalmamışdı	-11.465
▁qanunverici	-11.4652
▁Problem	-11.4653
▁kəllə	-11.4653
▁Vahabzadə	-11.4653
▁RSFSR	-11.4653
▁Smit	-11.4653
▁vulkanı	-11.4654
▁sıldırım	-11.4654
▁seyrək	-11.4654
▁AT	-11.4654
▁avtomobilləri	-11.4654
▁çatdırdı	-11.4655
▁cihaz	-11.4658
▁truppasın	-11.4658
▁daşların	-11.4661
▁xəritə	-11.4663
▁Türklər	-11.4663
▁mənz	-11.4663
▁parçalanmış	-11.4664
kütlə	-11.4667
▁Krallıq	-11.4671
▁yandırılmış	-11.4672
▁günlərin	-11.4672
▁romanında	-11.4673
▁itirmişdi	-11.4675
▁hökmranlığı	-11.4676
17	-11.4676
▁kəndlilərin	-11.4676
▁iddiası	-11.4677
▁qal	-11.4678
▁diz	-11.4678
▁sənədin	-11.4678
▁istehkam	-11.4679
▁aça	-11.4682
▁edəcəyini	-11.4683
▁təyyarəsi	-11.4684
▁qarşıya	-11.4684
▁dəyişikliy	-11.4685
▁qəbilələri	-11.4686
▁ifra	-11.4686
▁dəyirman	-11.4687
▁portreti	-11.4687
ilis	-11.4689
▁iclas	-11.4691
▁yamaclarında	-11.4692
▁Kişi	-11.4693
▁seyr	-11.4694
▁regionunda	-11.4695
▁mühasirədə	-11.4696
▁unudulm	-11.4698
▁axımı	-11.4698
▁düşünmə	-11.4702
▁qalaktika	-11.4703
▁kompleksini	-11.4704
▁imzalayı	-11.4706
ixi	-11.4707
▁cüz	-11.4709
qan	-11.4709
lükdə	-11.4709
▁özüm	-11.471
▁gəlinc	-11.4714
▁çat	-11.4718
▁nar	-11.4721
▁çəkilişi	-11.4722
motiv	-11.4726
▁qərarını	-11.4727
▁adda	-11.473
▁şəbəkəsini	-11.4733
rix	-11.4733
▁illərinə	-11.4734
▁piri	-11.4736
ıraq	-11.4738
▁1889	-11.4738
▁fizikası	-11.4741
▁itirmə	-11.4744
▁qayıdanda	-11.4744
▁dağıdıl	-11.4746
▁79	-11.4746
▁meydança	-11.475
▁fərqlər	-11.4751
ura	-11.4754
▁Avtomobil	-11.4755
▁Alazan	-11.4755
▁ödəyə	-11.4755
▁Talıb	-11.4755
▁Media	-11.4755
▁1826-	-11.4755
▁Məmmədəliyev	-11.4756
▁1830	-11.4756
▁əlbət	-11.4758
▁Qardaşı	-11.4759
▁Əlincə	-11.4761
zer	-11.4761
viasiya	-11.4762
▁hündürlük	-11.4764
▁Orx	-11.4765
▁metodları	-11.4766
▁Sofiya	-11.4767
▁gətirməyə	-11.4768
▁satıl	-11.4772
▁dişləri	-11.4774
▁verməli	-11.4774
▁qura	-11.4777
▁məsələdə	-11.4778
▁əlaqələndiril	-11.4779
▁vətənin	-11.478
▁çıxarmış	-11.4783
▁fənlər	-11.4784
▁edilmək	-11.4785
▁keyfiyyətləri	-11.4786
▁alimin	-11.4796
▁Respublikamız	-11.4796
fel	-11.4798
▁çöküntüləri	-11.4799
▁icazəsi	-11.4799
▁sənətkarları	-11.4804
▁fırlan	-11.4806
▁yeməklər	-11.4807
▁Para	-11.4807
▁yollarında	-11.4807
▁Abbasilər	-11.4807
▁tədbirlərdə	-11.4809
oze	-11.481
▁burnu	-11.4812
▁1891	-11.4815
▁millətçi	-11.4816
▁haqları	-11.4816
▁Onda	-11.4817
ım	-11.4819
▁ansamblın	-11.4819
▁vətəndaşlar	-11.4822
▁Hökuməti	-11.4822
▁dünyagörüşü	-11.4823
▁divarını	-11.4824
▁hamısında	-11.4825
lavə	-11.483
▁Say	-11.4831
▁Ərə	-11.4836
▁kompleksləri	-11.4838
▁gözün	-11.4841
mes	-11.4844
▁dastan	-11.4846
▁çağırılmış	-11.4848
yeni	-11.4849
ütfə	-11.4849
▁adalarını	-11.4853
▁dam	-11.4854
üclü	-11.4857
▁Hücum	-11.4858
güzar	-11.4858
▁Kleopatra	-11.4858
▁Qvineya	-11.4858
▁avadanlığı	-11.4858
▁marşrut	-11.4858
▁qravitasiya	-11.4858
Anceles	-11.4858
▁uzaqlıqda	-11.4858
▁Qapa	-11.4858
▁rubl	-11.4859
▁topladığı	-11.4859
kilsə	-11.486
▁donuz	-11.486
▁zal	-11.4861
▁ensiz	-11.4862
lanıldı	-11.4862
▁dərəcəsində	-11.4863
hesabsız	-11.4863
▁inanırdı	-11.4864
▁keçirildiyi	-11.4864
▁sağlamlığını	-11.4865
▁çoxalır	-11.4867
▁etdirilə	-11.4867
▁albanlar	-11.4868
▁Devi	-11.487
▁sahillərin	-11.487
▁mənzərəsi	-11.4871
▁Həmdulla	-11.4872
▁fraksiyası	-11.4874
▁sərhədində	-11.4875
▁deməli	-11.4877
▁Aş	-11.4881
birilə	-11.4882
eriya	-11.4884
mərtəbəli	-11.4884
▁gələr	-11.4884
▁ocaqlarında	-11.4885
Cavanşir	-11.4886
▁tutar	-11.4887
▁quran	-11.4888
▁komandada	-11.489
30	-11.4891
▁gəlsə	-11.4893
▁başlanılı	-11.4896
▁unu	-11.4898
şid	-11.4898
▁Ərəblər	-11.4901
▁Rud	-11.4901
▁Nuh	-11.4906
ye	-11.4906
bioqrafi	-11.491
▁musiqiləri	-11.491
irə	-11.4913
▁adanı	-11.4914
▁məsciddə	-11.4914
▁ekvator	-11.4916
ype	-11.4919
▁nüsxəsi	-11.4924
▁gəminin	-11.4928
▁İmperiya	-11.4931
▁Sant	-11.4936
▁sularda	-11.4938
▁fayl	-11.4945
▁prof	-11.4948
▁hərflər	-11.4949
▁ucaldılmış	-11.4952
▁çiçəklər	-11.4952
nün	-11.4952
▁qoşunun	-11.4953
baş	-11.4957
▁mərhələsini	-11.4957
24	-11.4957
ruzə	-11.4961
▁istiqlal	-11.4962
▁instru	-11.4962
▁Müzəffər	-11.4962
▁MMC	-11.4962
▁Kartli	-11.4962
▁isbat	-11.4962
▁təmsilçiləri	-11.4962
▁qatılmışdı	-11.4962
▁Eldəniz	-11.4963
▁mif	-11.4963
▁Macar	-11.4963
▁baba	-11.4964
▁müxalifət	-11.4964
02	-11.4964
▁ilahəsi	-11.4965
▁açdığı	-11.4966
▁iradəsi	-11.4968
▁İbrahimbəyov	-11.4968
▁çıxışında	-11.4969
▁edərsə	-11.4971
▁tikdirdi	-11.4972
▁inqilabçı	-11.4973
▁qovu	-11.4974
▁1860	-11.4975
prav	-11.4979
▁hövzə	-11.4979
▁sazişi	-11.4982
▁Xudada	-11.4985
▁ey	-11.4987
▁xaqanın	-11.4988
alp	-11.4989
Diza	-11.4991
▁del	-11.4992
▁gör	-11.4993
▁axtarışı	-11.4993
ançes	-11.4993
▁məğlubiyyəti	-11.4994
▁qərbi	-11.4994
▁köçmə	-11.4995
▁1948	-11.4995
▁görüşür	-11.4997
▁məntəqə	-11.4999
▁Ştatlar	-11.4999
▁materik	-11.4999
▁qeydlər	-11.5
▁Müəllim	-11.5007
▁Qəza	-11.501
▁saniyədə	-11.501
▁cism	-11.5015
dim	-11.5016
den	-11.502
▁Be	-11.502
▁iqlimin	-11.5021
▁qarşılaşması	-11.5022
▁dairələr	-11.5025
▁zülallar	-11.5027
▁həddi	-11.5031
▁atan	-11.5033
▁arxı	-11.5034
▁qayıq	-11.5035
▁Kal	-11.5036
▁açar	-11.5039
▁keçdilər	-11.5042
▁kimə	-11.5049
▁proqramını	-11.505
▁yarıda	-11.5052
▁kimyaçı	-11.5056
▁köçürmə	-11.5065
▁İqlimi	-11.5067
▁aspirant	-11.5067
▁elastik	-11.5067
▁İordaniya	-11.5067
▁redaktə	-11.5067
▁İçərişəhər	-11.5067
▁Bəşir	-11.5067
▁Hollivud	-11.5067
▁təcr	-11.5067
▁Baku	-11.5069
▁kifayətdir	-11.507
▁Polis	-11.5072
kəs	-11.5077
▁selik	-11.5077
▁Ver	-11.5077
▁İngilislər	-11.5077
▁yaxınlaşdı	-11.5078
▁qanda	-11.5079
BC	-11.5082
▁kompaniyası	-11.5083
▁Məni	-11.5085
▁ixtisaslar	-11.5087
▁kursları	-11.5087
▁nümayəndələrini	-11.509
▁əlifbasında	-11.509
▁davranış	-11.5091
▁fədakar	-11.5092
▁şerlər	-11.5093
▁Cu	-11.5094
▁kompüterlər	-11.5095
▁çeşidli	-11.5095
▁Oğlan	-11.5097
▁məsafəsi	-11.51
▁küləkləri	-11.51
▁Səhnə	-11.5102
▁maraqlan	-11.5103
Kərim	-11.5107
▁sirr	-11.511
87-	-11.5111
▁ritm	-11.5113
ləşdirilir	-11.5114
▁Paytaxt	-11.5114
▁çevrə	-11.5116
▁kitabədə	-11.5117
▁qalxmış	-11.5119
▁tikintisin	-11.5127
▁orkestrin	-11.5131
▁formalar	-11.5132
▁sistemlər	-11.5134
▁uşaqlıqda	-11.5135
▁döyüşlərində	-11.5137
▁olmaqda	-11.5138
▁atalar	-11.5139
issorluğu	-11.5142
▁abidələrini	-11.5143
ahı	-11.5143
▁açılı	-11.5145
▁övlad	-11.5145
▁müqaviləni	-11.5145
▁hazırlanma	-11.5151
▁baxışları	-11.5151
▁sualın	-11.5152
texnika	-11.5154
▁xəttin	-11.5156
▁maddəni	-11.5157
▁Fərman	-11.5158
▁cəsarət	-11.5159
▁ağacın	-11.5161
▁vaxtlarında	-11.5161
▁So	-11.5162
şərqi	-11.5164
▁qəzəl	-11.5167
▁Dağıstanda	-11.5171
▁söylədi	-11.5172
▁Mikelancelo	-11.5174
▁protestant	-11.5174
▁İşğal	-11.5174
▁çılpaq	-11.5174
▁İosif	-11.5174
▁məqsədyönlü	-11.5174
▁Harri	-11.5175
▁buraxılan	-11.5175
▁tənzimlənməsi	-11.5175
▁partladıl	-11.5176
▁hüceyrələr	-11.5177
▁yazıçılar	-11.5177
▁Pye	-11.5178
▁dayısı	-11.5179
▁məbləği	-11.518
atma	-11.5181
▁Muradı	-11.5187
▁97	-11.5189
▁təsisçisi	-11.5189
▁sayları	-11.5191
▁məruzələr	-11.5191
▁fantastik	-11.5191
▁mənaları	-11.5192
▁xassələrini	-11.5192
▁çevirə	-11.5192
▁praktika	-11.5195
▁göm	-11.5196
▁Kəl	-11.5196
▁türkcəsin	-11.5198
▁paylanması	-11.5198
▁tərcümələr	-11.5198
▁Şəkidə	-11.5199
▁axın	-11.5199
ava	-11.5202
▁şər	-11.5206
▁Xilafətin	-11.5206
▁Əsri	-11.5207
▁bölür	-11.5207
▁peyğəmbərlər	-11.5209
▁düzəldil	-11.5211
▁gətirmə	-11.5211
▁Nin	-11.5212
▁gücün	-11.5213
rik	-11.5213
▁meyvələrin	-11.5214
▁markası	-11.5215
▁Ani	-11.5215
▁faktları	-11.5218
▁saxlayı	-11.5221
▁göstəricilər	-11.5224
▁zirvəsində	-11.5227
▁xəbərləri	-11.5228
▁kolleksiyası	-11.5231
▁5000	-11.5231
▁satılır	-11.5235
▁divarlarında	-11.5235
▁tatarları	-11.5235
▁kollecin	-11.5236
▁kanalında	-11.5238
▁iyunda	-11.5241
▁dəlil	-11.5242
▁bilirik	-11.5243
▁yazıçıların	-11.5244
▁iqtisadçı	-11.5249
▁idrak	-11.525
▁xəzinəsi	-11.5251
▁nədir	-11.5255
▁verilmə	-11.526
▁bəşəriyyət	-11.5261
▁götürmüş	-11.5264
▁qütb	-11.5265
▁nəyə	-11.527
darəetmə	-11.5271
yam	-11.5273
aylı	-11.5274
təhlükəsizliyini	-11.5274
▁verilə	-11.5277
▁Müharibəsində	-11.5278
▁himayəsində	-11.528
▁Kosm	-11.5281
▁ildönümü	-11.5281
▁Nəqliyyat	-11.5281
▁Belqrad	-11.5281
▁Cahanşah	-11.5281
▁gözətçi	-11.5281
▁şərbət	-11.5281
▁Hacınski	-11.5281
▁dayandırdı	-11.5281
▁İçəri	-11.5282
▁ticarəti	-11.5282
▁insanlarla	-11.5284
zbək	-11.5286
▁Qida	-11.5286
▁albanları	-11.5287
▁anlayışını	-11.5287
▁çəkildiyi	-11.5287
▁qırı	-11.5289
▁edilməmişdi	-11.5289
▁Vol	-11.529
▁Arxiv	-11.5292
▁salına	-11.5295
▁şumer	-11.5298
▁hündürlüyündə	-11.53
▁turşuları	-11.5301
▁sərhəddində	-11.5303
▁investisiya	-11.5303
▁hunlar	-11.5305
▁uşaqlarını	-11.5307
▁vampir	-11.5309
▁mühitində	-11.5311
▁obrazların	-11.5312
▁qəhrəmanların	-11.5312
▁çevrilişi	-11.5316
sur	-11.5319
▁islamı	-11.5324
▁üçdə	-11.5325
▁İsveçrədə	-11.5325
▁resursları	-11.5328
▁məsələsin	-11.5329
▁aləmini	-11.533
▁Hamı	-11.5331
▁reallaş	-11.5332
duq	-11.5334
tatar	-11.5338
▁Kazımova	-11.5343
▁yarana	-11.5343
▁Kubokun	-11.5343
▁rayonların	-11.5349
üsət	-11.535
▁xərclərini	-11.5352
▁sinifdə	-11.5352
▁əlifbasını	-11.5356
▁formalarda	-11.5359
oban	-11.5361
▁fürsət	-11.5362
▁Qalan	-11.5364
▁repertuarın	-11.5365
▁Yaz	-11.5365
▁həbsxanada	-11.5366
▁zərbələr	-11.5366
▁kursunda	-11.5368
▁xanlığında	-11.5374
▁poeziyasını	-11.5376
▁yığıla	-11.5383
▁təcrüb	-11.5387
▁möhkəmləndirmə	-11.5389
▁mifolo	-11.539
▁Fridrix	-11.539
▁Ruzvelt	-11.539
▁darvaza	-11.539
▁parazit	-11.539
▁spiral	-11.539
▁ölçmə	-11.539
▁Əməyi	-11.539
▁Sarqon	-11.539
▁rahib	-11.539
▁Tərbiyə	-11.539
▁dənizçi	-11.539
▁Bəkr	-11.539
▁anlaya	-11.539
▁qatılmış	-11.539
▁əlamətdar	-11.539
▁sirk	-11.5391
▁Praqa	-11.5391
salında	-11.5391
▁gözlənilir	-11.5391
▁sistemlərin	-11.5393
noz	-11.5394
▁1850	-11.5395
kad	-11.5395
▁stansiyasında	-11.5395
▁yetirməsi	-11.5397
▁1872	-11.5397
▁fondunu	-11.5399
▁turnirdə	-11.5405
start	-11.5406
▁əlaqəni	-11.5407
▁həvəslə	-11.5407
▁hüquqlar	-11.541
yc	-11.5412
▁divarların	-11.5413
▁həkimlər	-11.5413
tion	-11.5415
▁Polşada	-11.5416
▁88	-11.5417
▁müqavilələri	-11.5418
▁qorunma	-11.5418
▁dəstələrini	-11.5421
▁itirən	-11.5422
▁məqaləni	-11.5423
▁hissəciklər	-11.5425
eyt	-11.5425
adam	-11.5426
▁qurğusu	-11.5427
▁etməz	-11.5429
▁damar	-11.5429
▁düşüncələri	-11.5429
▁iqtidar	-11.543
▁topa	-11.5432
▁zən	-11.5435
▁rolların	-11.5435
qabağı	-11.5437
eşəkar	-11.5437
▁qurulmasında	-11.5437
▁çevirir	-11.5439
▁pər	-11.544
▁ekologiya	-11.544
▁örnək	-11.5441
▁birləşi	-11.5443
▁axırına	-11.5445
▁Azərb	-11.5449
▁səciyyələn	-11.5451
▁nişan	-11.5451
▁departamenti	-11.5453
▁Konqresi	-11.5453
▁uğra	-11.5454
▁uzunu	-11.5454
▁müdaxiləsi	-11.5461
▁inf	-11.5463
▁dəstəyini	-11.5465
▁çəkilişləri	-11.5466
▁şirə	-11.5466
▁Balıq	-11.5466
▁daşnak	-11.5467
▁Mühafizə	-11.5469
▁Ed	-11.547
▁hamamı	-11.547
▁türkmən	-11.5471
etmə	-11.5472
▁təqdimat	-11.5472
▁vitaminlər	-11.5472
▁bölgələrin	-11.5473
▁mövzuları	-11.5474
▁220	-11.5476
Şərqi	-11.5476
▁əziz	-11.5477
▁hakimlər	-11.5478
▁göstərməkdə	-11.548
▁inanc	-11.5481
▁Firuz	-11.5482
▁ustadı	-11.5482
▁meşələrində	-11.5482
▁qabığında	-11.5483
▁Toy	-11.5486
udio	-11.5487
▁hücumun	-11.5487
▁səfərin	-11.5487
şir	-11.5489
▁Nat	-11.5491
▁operasını	-11.5492
▁Təhsilin	-11.5494
▁yata	-11.5497
▁meydanın	-11.5497
▁qalada	-11.5499
▁cərimə	-11.55
▁törədir	-11.55
▁şəlalə	-11.55
▁qətliam	-11.55
▁Kapita	-11.55
▁Xıdır	-11.55
▁kisəsi	-11.55
▁1865	-11.55
▁sürürdü	-11.5501
▁intiqam	-11.5501
▁Əcəm	-11.5501
▁hesablamalar	-11.5501
▁beyt	-11.5501
▁qartal	-11.5502
▁yığıncaq	-11.5503
▁ahəng	-11.5503
▁Ağaoğlu	-11.5504
şıqlı	-11.5505
▁müsa	-11.5506
▁nəzm	-11.5507
▁Dostlu	-11.5507
▁dəlillər	-11.5507
▁siyasətində	-11.5509
uncu	-11.5512
▁yaxınlığı	-11.5512
▁qurumun	-11.5513
▁sink	-11.5515
▁Kiş	-11.5517
▁Nati	-11.5517
▁Abbasi	-11.5518
▁1918-1920	-11.5519
▁dövlətlərdə	-11.5519
▁bəşəriyyəti	-11.552
▁tur	-11.5521
▁prinsiplərini	-11.5522
▁ilham	-11.5528
▁xatirələri	-11.5529
▁İohann	-11.553
▁irsin	-11.553
▁tərkibini	-11.5531
▁axtarır	-11.5534
▁xəttində	-11.5534
▁fiquru	-11.5535
batında	-11.5535
-15	-11.5537
▁yəhudiləri	-11.5538
▁edənləri	-11.5538
▁ölümünü	-11.5543
▁xristianlıq	-11.5546
▁mahnıların	-11.5547
▁yubiley	-11.5551
canını	-11.5552
▁Senat	-11.5555
▁3,	-11.5555
▁siniflər	-11.5562
▁ritmi	-11.5563
▁anti	-11.5567
▁Qasımlı	-11.5569
yavaş	-11.557
▁postun	-11.5575
▁çayda	-11.5575
▁şirkətlərin	-11.5579
bərabər	-11.5581
▁Sava	-11.5581
▁verilənlərin	-11.5583
▁statistika	-11.5584
▁türbələr	-11.5586
▁şərtlərini	-11.5586
▁rəngin	-11.5592
▁Qacarı	-11.5592
▁köçən	-11.5592
▁həndəsə	-11.5593
▁çıxıntı	-11.5593
▁qulluqçu	-11.5595
▁yarpağı	-11.5595
▁teleqra	-11.5597
▁rəssamları	-11.5597
▁Hann	-11.5601
▁fərqləndir	-11.5602
▁qayalar	-11.5602
▁qapısını	-11.5603
ef	-11.5603
▁xətlər	-11.5607
▁qadına	-11.5607
▁zalında	-11.5608
▁övladlarını	-11.5609
▁ocağın	-11.5609
▁Mu	-11.561
▁Aşqabad	-11.5611
▁Cenevrə	-11.5611
▁Sivas	-11.5611
▁separatçı	-11.5611
elandiya	-11.5611
▁xəncər	-11.5611
▁Məbədi	-11.5611
▁minimum	-11.5611
▁dovşan	-11.5612
▁tapıldı	-11.5612
▁adlandırılması	-11.5613
▁qiymətləndirir	-11.5613
▁çörəyi	-11.5614
▁studiyası	-11.5614
▁təsvirini	-11.5615
▁Hacıbaba	-11.5616
▁tapılması	-11.5617
▁muxtariyyət	-11.5617
▁kabineti	-11.5617
▁Fax	-11.5619
▁sərhədlərində	-11.562
▁obrazlarını	-11.562
▁araşdırmaları	-11.5621
übh	-11.5621
ger	-11.5624
▁tədqiqatçıları	-11.5624
▁Məmmədzadə	-11.5626
▁nasi	-11.563
▁gətirilməsi	-11.5631
▁dağıdılmışdı	-11.5631
▁yerlə	-11.5634
▁Sad	-11.5636
▁qaçma	-11.5637
erman	-11.5639
▁sürü	-11.5639
▁mövsümün	-11.564
▁qaynaqlarda	-11.5641
▁Klublar	-11.5642
▁vurulur	-11.5646
▁təsirləri	-11.5646
ciyər	-11.5648
▁Maksim	-11.5652
ame	-11.5652
▁qaldıqda	-11.5654
▁açmağ	-11.5654
▁çalışmaq	-11.5657
▁kəsilməsi	-11.5657
▁mono	-11.5661
▁fəsil	-11.5665
▁Kinematoqraf	-11.5665
▁dalğası	-11.5667
▁azaldır	-11.5667
▁gəliri	-11.5669
▁hücumunda	-11.567
▁çağı	-11.5673
▁insanda	-11.5675
▁gecələr	-11.5678
▁materikin	-11.5683
▁Aşağıda	-11.5684
▁öldürü	-11.5685
▁Emil	-11.5686
▁Tələbələr	-11.5689
▁yaxınlıqda	-11.5691
▁ziddiyyət	-11.5692
▁maraqlanır	-11.5692
tac	-11.5692
▁anlamında	-11.5694
▁muğamı	-11.5694
▁əmlak	-11.5695
etin	-11.5696
▁tökülə	-11.5697
▁fond	-11.5703
fər	-11.5704
▁Yüz	-11.5705
▁silsilələri	-11.5707
▁keşiş	-11.5711
▁nı	-11.5713
unçu	-11.5716
▁tanrıların	-11.5717
▁şirkətində	-11.5719
▁hökmranlı	-11.572
▁buraxılmış	-11.5722
▁Filip	-11.5723
▁Atletik	-11.5723
▁Məqsəd	-11.5723
▁Tətbiq	-11.5723
▁holland	-11.5723
▁qarışdırı	-11.5724
▁haqlı	-11.5724
▁əmtəə	-11.5724
▁podpo	-11.5724
▁tikildiyi	-11.5724
▁nəs	-11.5725
▁üçbucaq	-11.5728
▁nöqtədə	-11.5729
▁oval	-11.5729
▁Verdi	-11.573
▁cərgə	-11.5732
▁çalır	-11.5734
▁simaları	-11.5735
▁çəkiliş	-11.574
▁Murtuza	-11.5744
▁məntəqələrini	-11.5744
aşa	-11.5745
▁Kara	-11.5745
▁geyimləri	-11.5745
▁Sultanı	-11.5746
▁seriyası	-11.575
▁havası	-11.5753
▁evlərdə	-11.5753
▁almaz	-11.5755
anı	-11.5756
▁Hökumətin	-11.5757
▁aşı	-11.5757
▁modelini	-11.5759
▁hərəkətlərini	-11.5759
talya	-11.5762
eranın	-11.5763
SO	-11.5765
▁Qo	-11.5766
▁Festivalı	-11.5767
▁xəritəsi	-11.5767
▁zabitləri	-11.5767
80-	-11.5772
▁olmamalı	-11.5773
▁atla	-11.5775
▁ild	-11.5775
▁qurşaq	-11.5775
▁Bak	-11.578
lama	-11.5782
▁zəkat	-11.5783
sub	-11.5784
▁kompüterin	-11.5787
XVIII	-11.5788
▁meşəlik	-11.579
▁tacirləri	-11.5794
▁qaynaqlar	-11.5794
▁yığılma	-11.5794
▁ideologiyası	-11.5796
▁Tər	-11.5799
▁73	-11.58
▁pl	-11.5801
ınca	-11.5804
▁Sədri	-11.5806
▁göstərildi	-11.5809
▁hökmdarın	-11.581
▁əllərini	-11.5814
▁idmanın	-11.5815
▁Bad	-11.5818
▁axınları	-11.5821
talan	-11.5821
ündə	-11.5822
▁xalla	-11.5823
▁mərtəbədə	-11.5823
▁qurudulm	-11.5824
▁mədən	-11.5825
▁tələbat	-11.5827
▁liderləri	-11.5829
▁tipin	-11.5829
▁çəmən	-11.5831
▁kod	-11.5831
▁daşlarında	-11.5832
▁bəstələ	-11.5833
▁Astronomi	-11.5837
▁Herseqovina	-11.5837
▁Paraqvay	-11.5837
▁düzülmüş	-11.5837
▁tabeçiliyin	-11.5837
▁Dekabr	-11.5837
▁olsaydı	-11.5837
▁Qeyri	-11.5837
▁Əbdüləziz	-11.5838
▁mükafatçısı	-11.5838
▁apardıq	-11.5839
▁albomun	-11.584
▁Kosa	-11.584
▁500-	-11.5841
▁folklorun	-11.5843
əd	-11.5844
▁bəzilərini	-11.5844
▁450	-11.5849
rük	-11.5849
▁000-	-11.585
▁dramaturqu	-11.585
▁namazını	-11.585
▁format	-11.5851
▁ölmə	-11.5851
▁qurumu	-11.5852
▁saxlamağ	-11.5855
▁fabrik	-11.5855
▁atmosferin	-11.5859
▁kompozisiyaları	-11.5863
üst	-11.5865
▁qonaqları	-11.5865
laşmış	-11.5872
▁atmış	-11.5873
▁For	-11.5873
▁quruda	-11.5873
anni	-11.5874
▁Qey	-11.5877
▁tarixləri	-11.5878
▁rəsədxana	-11.5881
yun	-11.5881
▁Şuş	-11.5886
▁təkmil	-11.5888
slı	-11.5889
▁Diz	-11.5892
▁bağırsaq	-11.5895
▁Elma	-11.5895
XIII	-11.59
zik	-11.5907
▁Sonda	-11.5908
▁etməyin	-11.5908
▁monastırı	-11.591
08	-11.5913
▁otlaq	-11.5914
▁öldürə	-11.5915
məram	-11.5918
▁yetirmə	-11.592
▁öndə	-11.5921
▁tapıntılar	-11.5926
▁yaralanmış	-11.5928
▁Bitkilər	-11.5932
▁bar	-11.5938
▁tərs	-11.5938
▁tiki	-11.5941
önü	-11.5943
▁beynin	-11.5943
▁Mömin	-11.5947
rxis	-11.5948
▁məqsədə	-11.595
oğma	-11.595
▁Biləc	-11.595
▁Kolumb	-11.5951
mon	-11.5951
▁konserv	-11.5952
▁kolorit	-11.5952
▁radikal	-11.5952
▁törədə	-11.5952
▁tüfəng	-11.5952
▁vassal	-11.5952
▁verilmir	-11.5952
▁Əfsanə	-11.5952
▁1849	-11.5952
▁cəs	-11.5952
əqədər	-11.5952
▁Atlantida	-11.5952
▁Bəkir	-11.5952
▁Hesablama	-11.5952
ttesta	-11.5952
▁Şeytan	-11.5952
▁Mosul	-11.5952
▁əczaçı	-11.5952
▁yayımı	-11.5952
▁arena	-11.5953
▁yazdıqları	-11.5953
▁Texnikumunu	-11.5954
ərgin	-11.5955
▁Televiziyası	-11.5955
üqar	-11.5956
▁bənzəyə	-11.5956
▁səfir	-11.5957
xrom	-11.5957
▁tətil	-11.5957
▁yaylağı	-11.596
▁məkanı	-11.5961
▁İslamda	-11.5961
▁ostan	-11.5961
▁Havay	-11.5962
▁xidmətində	-11.5966
▁Səlcuqlu	-11.5967
▁vilayətləri	-11.5968
▁170	-11.597
▁yeniliklər	-11.5972
zat	-11.5973
▁albomda	-11.5973
▁divarın	-11.5974
xita	-11.5974
▁durma	-11.5975
▁qərarlar	-11.5975
▁rəqibləri	-11.5979
▁burun	-11.5983
▁işlətmə	-11.5985
▁qorxusu	-11.5989
▁Səs	-11.5993
▁yiyələni	-11.5993
▁həllin	-11.5995
▁aman	-11.5996
▁gedər	-11.5997
▁istismarı	-11.5997
sif	-11.6
▁müəllimin	-11.6007
▁Şıx	-11.6008
▁skiflər	-11.6009
▁Sənətkar	-11.6009
▁Cons	-11.601
▁qiymətləri	-11.6011
iyə	-11.6011
lümin	-11.6012
▁cisimlərin	-11.6013
▁ağırlığı	-11.6016
incan	-11.6019
▁göndərilməsi	-11.6019
▁qüvvədə	-11.602
▁qarşılanmışdı	-11.6021
▁özbək	-11.6023
▁başlığı	-11.6024
▁fotoqraf	-11.6025
▁fərd	-11.6026
▁fəaliyyətləri	-11.6029
▁qazanıl	-11.6029
▁Do	-11.6032
▁ref	-11.6033
▁verər	-11.6034
▁silahları	-11.6034
▁qalıqlarını	-11.6036
ök	-11.6036
▁gəmisini	-11.6037
▁briqadası	-11.6037
▁saxlanır	-11.6038
▁ixtisasları	-11.6039
▁tacirlər	-11.604
▁verilişi	-11.604
▁qrammatik	-11.6041
▁xammalı	-11.6044
▁təşəbbüs	-11.6047
ord	-11.6047
▁düşər	-11.6049
▁istiliyi	-11.605
▁hüceyrələri	-11.6057
▁xilafəti	-11.606
end	-11.606
▁müstəvi	-11.6061
▁malları	-11.6061
▁təkliflər	-11.6062
▁etmədiyi	-11.6062
▁Sis	-11.6062
aqqal	-11.6063
bel	-11.6068
▁Hesab	-11.6068
▁Skandinaviya	-11.6068
▁etnotoponim	-11.6068
▁şücaət	-11.6068
▁İtti	-11.6068
▁əfəndi	-11.6068
▁Biznes	-11.6068
▁Nelson	-11.6068
▁stabil	-11.6068
▁İbad	-11.6069
▁dəyişik	-11.6069
▁kampaniyası	-11.6072
▁Tərkibin	-11.6073
▁qovşağı	-11.6073
▁ovalığında	-11.6074
▁İsveçrəni	-11.6074
▁çağırırdı	-11.6076
▁Moza	-11.6076
▁islahatı	-11.6077
sınız	-11.6079
▁radiu	-11.608
gedən	-11.6082
▁tanıyır	-11.6082
▁Dəf	-11.6085
▁hazırlamış	-11.6085
▁nədən	-11.6085
▁genişləni	-11.6088
▁danışırdı	-11.6091
▁əlv	-11.6092
səmə	-11.6092
eon	-11.6094
▁müştərilər	-11.6095
▁təlimin	-11.6096
▁Hicri	-11.6097
▁seçimi	-11.6098
binəsi	-11.6099
▁enmə	-11.61
▁xəzər	-11.6103
▁saatı	-11.6103
▁İstanbulu	-11.6106
fon	-11.6107
▁mayda	-11.6108
imini	-11.611
5-6	-11.611
▁allahı	-11.6111
▁dizaynı	-11.6114
▁Şir	-11.6115
▁aparılı	-11.6117
▁halını	-11.6118
▁qalsa	-11.6122
▁Mahmudov	-11.6122
keçər	-11.6123
▁sahillərini	-11.6125
▁hərb	-11.6126
▁irsini	-11.6127
▁Mahal	-11.6129
▁qalxması	-11.6129
canlıların	-11.6132
▁təkamülü	-11.6132
▁ixtiyarın	-11.6136
▁dünyadakı	-11.6136
▁Qoşun	-11.6137
▁çağırı	-11.6142
▁əfsanəsi	-11.6142
▁Qoruğun	-11.6143
▁nüvəsi	-11.6145
dəfə	-11.6146
▁ulduzları	-11.6146
▁texnikasını	-11.6147
zib	-11.6147
hur	-11.6149
▁tanınmışdı	-11.6149
▁himayə	-11.6154
irid	-11.6155
▁Akademiyanı	-11.6158
oxunur	-11.6159
sirlərini	-11.6159
▁kürək	-11.6159
▁azalmışdı	-11.6172
▁savad	-11.6173
▁tabeli	-11.6174
▁yatağında	-11.6177
ağara	-11.618
Qazax	-11.6182
▁bağlılığı	-11.6182
▁Qrupu	-11.6182
▁müəyyənləşdiri	-11.6183
▁lövhələr	-11.6184
▁bölgü	-11.6185
▁Malayziya	-11.6186
▁Nüsrət	-11.6186
▁Vergi	-11.6186
▁Dostoyevski	-11.6186
▁yırtıcı	-11.6186
▁1864	-11.6186
▁Sidqi	-11.6186
▁elektromaqn	-11.6186
▁modern	-11.6187
▁optimal	-11.6187
▁hec	-11.6188
▁Söyüd	-11.6189
▁uğursuzluq	-11.6189
▁tökül	-11.619
▁Ardın	-11.6191
▁Qaraxanlı	-11.6194
▁millətləri	-11.6195
həmməd	-11.6195
qanun	-11.6196
▁dünyagörüşünü	-11.6198
▁suların	-11.6199
▁tamamladı	-11.6199
▁qiymətləndirmə	-11.62
▁şou	-11.6201
▁vətənində	-11.6203
▁did	-11.6208
▁oktyabrda	-11.6212
▁balansı	-11.6212
eist	-11.6217
▁ilanı	-11.6218
▁ayağ	-11.6218
▁bulud	-11.6221
daş	-11.6221
▁verməlidir	-11.6222
▁boyları	-11.6226
▁oyunların	-11.623
▁küləklər	-11.6232
▁Xiyabani	-11.6233
▁birliklər	-11.6235
▁Konfrans	-11.6236
▁güləşçi	-11.6236
▁gözündə	-11.6238
▁üslubunu	-11.624
▁basqınlar	-11.6243
▁Sədr	-11.6243
▁dedim	-11.6245
▁Direktor	-11.6246
▁niyyət	-11.6246
▁ticarətin	-11.6246
▁Os	-11.6248
▁konstruksiya	-11.6249
▁Paytaxtı	-11.6252
▁püskürmə	-11.6252
▁göndərə	-11.6252
▁Federasiya	-11.6255
oko	-11.6264
▁ekspedisiyası	-11.6266
▁nota	-11.6267
▁önə	-11.627
▁Dili	-11.627
▁Hey	-11.6272
▁məcmuəsi	-11.6272
▁azal	-11.6277
▁aralıq	-11.6284
▁qadağa	-11.6285
▁sənədlərində	-11.6286
▁nəşriyyat	-11.6286
▁Marin	-11.6288
▁Türklərin	-11.6294
▁öküz	-11.6295
əadət	-11.6295
▁qərarlaş	-11.6297
▁Dadaş	-11.6299
▁Sinqapur	-11.6305
intizam	-11.6305
▁Sparta	-11.6305
▁qübbə	-11.6305
▁əmanət	-11.6305
▁Adria	-11.6305
▁sürdüyü	-11.6305
▁pianoçu	-11.6305
▁AzTV	-11.6306
▁Henrix	-11.6306
vuz	-11.6308
qarşıya	-11.6309
▁güclənməsi	-11.6311
empionatını	-11.6312
▁Meydan	-11.6312
▁Yusifbəyli	-11.6312
▁qoşma	-11.6313
▁dəyərin	-11.6313
dəniz	-11.6313
▁məskənlərin	-11.6316
▁səhifəsi	-11.6316
▁Əski	-11.6316
hdi	-11.6316
əmsə	-11.6317
▁oxun	-11.6317
▁şer	-11.6319
▁istedadını	-11.632
▁Qüvvələrin	-11.632
▁gözünü	-11.6321
▁fitr	-11.6323
▁ağrı	-11.6323
▁fayda	-11.6325
▁müəyyənləşdirmə	-11.6326
▁sifət	-11.6326
▁1877-	-11.6327
▁yekunları	-11.6329
▁təmiri	-11.633
▁Dün	-11.6335
▁istəmirdi	-11.6335
▁aktları	-11.6337
▁qardaşını	-11.6338
▁yüksəlmiş	-11.6341
▁İncil	-11.6341
oniki	-11.6343
▁alay	-11.6344
▁Səhl	-11.6344
▁uzaqlaş	-11.6345
▁cisimlər	-11.6345
▁gözləyirdi	-11.6346
▁dayandırma	-11.6346
▁nəyi	-11.6347
elye	-11.6347
▁mədəniyyətlərin	-11.6348
▁qətiyyətl	-11.6348
▁effekti	-11.6352
▁əlamət	-11.6354
▁şəxsiyyətin	-11.6354
▁planın	-11.6356
▁qədimdə	-11.6358
▁göstəricilərin	-11.6358
▁düşüncəsi	-11.636
▁xəstələri	-11.6362
▁geyimi	-11.6363
▁öldürülməsin	-11.6363
▁kənarları	-11.6365
▁Dominika	-11.6367
▁ocağını	-11.637
rad	-11.6372
yor	-11.6374
▁akademiyası	-11.6374
▁aş	-11.6375
▁Adanı	-11.6376
rsız	-11.6377
▁rabitəsi	-11.6379
▁öyrəni	-11.6385
▁2500	-11.6386
▁keçirilməsini	-11.6387
▁qollar	-11.6389
▁məzmununu	-11.639
▁ödəmə	-11.639
▁müştəri	-11.6394
▁dayanı	-11.6395
▁rahatlıq	-11.6396
▁qəzetlərdə	-11.64
▁yaşayanlar	-11.64
▁radiosu	-11.64
▁Tarixdə	-11.6402
▁Oyunlarını	-11.6403
▁gəlini	-11.6403
xt	-11.6406
7-	-11.6408
▁Rəfi	-11.6418
▁klinik	-11.6418
▁əyalətlər	-11.642
▁Dmitri	-11.6421
▁fin	-11.6422
▁1806	-11.6425
▁Qayıbov	-11.6425
▁Anqola	-11.6425
▁Departamenti	-11.6425
▁Fernand	-11.6425
▁Xarkov	-11.6425
▁rəftar	-11.6425
▁Məktub	-11.6425
▁Qırx	-11.6425
▁1846	-11.6425
▁Kembric	-11.6425
▁natura	-11.6425
▁Arazbar	-11.6425
▁dəstəkləyə	-11.6425
▁Edvard	-11.6425
▁Məbəd	-11.6425
▁təhdid	-11.6425
▁Slovakiya	-11.6425
str	-11.6426
▁informa	-11.6426
▁Əbdürrəhman	-11.6426
▁Tere	-11.6426
▁Tatar	-11.6428
▁mükafatlandırıl	-11.6428
▁tikdiri	-11.6429
▁bilməyəcəyini	-11.6429
▁heyvanın	-11.643
▁qoyurdu	-11.643
▁ayıran	-11.643
▁təməlin	-11.643
▁fiqurları	-11.643
▁melodiya	-11.6432
▁166	-11.6433
▁Eynəl	-11.6433
▁Buğa	-11.6433
▁anlamaq	-11.6433
vayı	-11.6434
▁hazırlayırdı	-11.6436
▁sürücü	-11.6436
▁olanları	-11.6438
▁müdafiəçi	-11.6445
▁ucaldıl	-11.6445
▁pulun	-11.6445
ill	-11.6447
▁rə	-11.6448
▁işlədir	-11.6453
▁maddəsin	-11.6456
▁tələbatını	-11.6459
▁təxəllüs	-11.646
▁formalarında	-11.6461
▁İman	-11.6461
▁Kor	-11.6461
▁dəyişiklikləri	-11.6462
▁imperiyasında	-11.6464
▁Rəş	-11.6467
▁olursa	-11.6467
▁kadrları	-11.647
▁cərrah	-11.6473
▁Qre	-11.6474
▁seçilirdi	-11.6474
▁Nikola	-11.6474
▁yönəldilmiş	-11.648
▁sürmüş	-11.648
4-	-11.648
▁qaşı	-11.6482
▁istəmiş	-11.6484
▁ne	-11.6491
▁temperaturda	-11.6492
▁mahnılarda	-11.6493
Peterburqda	-11.6496
▁Proqram	-11.65
▁Aişə	-11.6504
▁funksiyalarını	-11.6507
▁görünmə	-11.6514
▁toxunma	-11.6514
▁məhsulunu	-11.6515
▁sap	-11.6517
▁yaradılmasını	-11.6519
▁iqtisad	-11.6521
▁toqquşmalar	-11.6521
▁ödəyir	-11.6524
ranın	-11.6531
▁avtobus	-11.6531
tərəf	-11.6535
▁Cəmi	-11.6535
▁povesti	-11.6537
▁sonları	-11.6539
▁bakteriyalar	-11.6539
▁nəşriyyatın	-11.654
▁diyarın	-11.6543
▁Qlobal	-11.6543
▁kütləsini	-11.6545
▁van	-11.6545
▁içir	-11.6546
▁Vəfa	-11.6546
▁Nümayəndə	-11.6547
▁NASA	-11.6547
▁yandırmış	-11.6547
▁sərdabə	-11.6547
▁uğrayı	-11.6547
▁Tunis	-11.6547
▁Xələf	-11.6548
▁yazıldığı	-11.6548
▁öldüyü	-11.655
▁gülüş	-11.655
▁Ped	-11.6551
▁xadimlərini	-11.6556
▁Sadıqcan	-11.6557
▁dastanları	-11.656
barmaq	-11.6562
▁Nəcəfov	-11.6562
▁sülhün	-11.6564
▁obyektin	-11.6567
▁Pərvi	-11.6568
▁üsulunu	-11.6569
cıq	-11.6574
▁perspektiv	-11.6575
▁qırğın	-11.6575
▁dişli	-11.6577
▁dilimiz	-11.6578
▁düzənliklər	-11.6579
▁aktyorlar	-11.6579
▁metodik	-11.6581
▁riyaziyyatçı	-11.6586
▁limanları	-11.6586
▁Karlo	-11.6586
▁evli	-11.6586
▁qanunla	-11.6587
▁olunmamış	-11.659
▁tökü	-11.6591
nisi	-11.6599
▁Musi	-11.66
▁təriqəti	-11.66
▁problemini	-11.6601
▁qurulu	-11.6606
▁quberniya	-11.6607
▁bürcün	-11.661
▁meydançası	-11.661
▁mərasimlər	-11.6613
▁çatma	-11.6614
▁bədənində	-11.6616
▁Babı	-11.6616
▁oğuzlar	-11.6617
▁Kubok	-11.6618
▁parçalanma	-11.6618
▁miras	-11.6619
▁büdcəsi	-11.6621
ılmaz	-11.6622
▁cildin	-11.6622
▁Kitabı	-11.6625
▁irəliləyə	-11.6626
▁palata	-11.6627
ayağı	-11.6628
▁Boy	-11.6628
▁küçələrində	-11.6629
▁norma	-11.6629
▁Dağıstanı	-11.6629
▁Varlı	-11.663
ılır	-11.663
▁baxışda	-11.6632
▁miniatürlər	-11.6633
▁Əsr	-11.6634
▁azarkeş	-11.6638
özünə	-11.6643
uşu	-11.6643
▁seriyasında	-11.6643
▁gücləndiri	-11.6644
▁səfərbər	-11.6646
▁hücumların	-11.6648
▁oxuna	-11.6648
▁Əminə	-11.665
▁korpusu	-11.6651
▁azaltma	-11.6653
▁həyəcan	-11.6653
▁adətləri	-11.6655
▁effekt	-11.6656
▁qaynaq	-11.6657
qır	-11.6661
▁şəhidi	-11.6663
▁mütəfəkkir	-11.6663
qrar	-11.6667
▁həcmini	-11.6669
▁Əsədulla	-11.6671
▁Krasno	-11.6671
▁Mərmər	-11.6671
▁sponsor	-11.6671
▁çevik	-11.6671
▁Şəkər	-11.6671
▁Əvəz	-11.6671
▁Müşfiq	-11.6671
▁təhqir	-11.6671
▁Klip	-11.6671
▁Eynşteyn	-11.6671
lümündə	-11.6671
▁yığılmış	-11.6671
▁gerbi	-11.6671
▁agentliyi	-11.6671
▁don	-11.6672
▁anlamın	-11.6672
▁söylədiyi	-11.6672
▁Abdal	-11.6675
üç	-11.6675
▁səpki	-11.6677
▁Müsəlmanlar	-11.6677
▁təqaüdü	-11.6678
▁hun	-11.6678
▁Şərifov	-11.6679
▁dola	-11.6679
▁İnsanları	-11.668
86-	-11.668
▁Müsəlmanları	-11.6681
▁Xalid	-11.6681
▁1747	-11.6682
yabanı	-11.6682
▁quberniyasında	-11.6683
▁milyonçu	-11.6684
▁Şamaxını	-11.6684
▁ikili	-11.6685
▁etimad	-11.6685
▁məqsədini	-11.6687
▁Qurt	-11.6687
▁vasitələrini	-11.6688
▁Alqışlar	-11.6689
▁qarışıqlıq	-11.6691
▁göndərmək	-11.6693
▁nəzarətində	-11.6693
lmiş	-11.6694
▁mətbəxin	-11.6695
▁zəiflədi	-11.6696
Dədə	-11.6698
▁Billi	-11.67
▁94	-11.6704
▁quruluşlu	-11.6705
▁çəkişmələr	-11.6705
▁turniri	-11.6706
▁aparat	-11.6706
▁təyyarəni	-11.6707
▁mənbəyini	-11.6709
▁səhnəsi	-11.6709
▁dövlətlərində	-11.671
▁yal	-11.6711
▁amillərdən	-11.6712
anrını	-11.6712
▁Nəzərə	-11.6713
▁minilliklər	-11.6718
▁öyrəndi	-11.6719
▁operasında	-11.6721
▁pullar	-11.6721
▁Sizin	-11.6724
▁bulaqları	-11.673
acıq	-11.673
▁tikilmə	-11.6738
▁şeytan	-11.6739
ənah	-11.6739
▁dialekti	-11.6744
▁günəşi	-11.6747
▁yaxınlaş	-11.6752
sis	-11.6754
▁bayrağını	-11.6755
▁nazirliyin	-11.6756
▁cədvəlin	-11.6757
▁mahalın	-11.6764
▁şərhi	-11.6765
▁cənubu	-11.6766
▁məbədlər	-11.6766
karlıq	-11.6766
▁paltarı	-11.6767
▁mür	-11.677
▁istəmə	-11.6773
▁məbədləri	-11.6775
▁qurumlar	-11.6777
içək	-11.6777
▁qalalar	-11.6777
▁Xosrovu	-11.6784
▁reytinq	-11.6786
▁dərsi	-11.6787
▁dediklərin	-11.6788
▁Təq	-11.6788
uluş	-11.6789
▁Qaraqoyunlular	-11.6791
▁tərəfləri	-11.6792
▁avadanlıq	-11.6794
rəvan	-11.6795
▁yüksəklik	-11.6795
taktik	-11.6795
aboratoriya	-11.6795
▁Dublin	-11.6796
▁Əylis	-11.6796
Əyri	-11.6796
▁Dehli	-11.6796
▁Şəfa	-11.6796
▁şok	-11.6796
▁Abxaziya	-11.6796
▁doğran	-11.6796
▁qrafikası	-11.6796
▁şüarı	-11.6797
▁kafir	-11.6797
▁məx	-11.6797
▁knyazlığı	-11.6797
▁dəyişkən	-11.6797
▁yarışı	-11.6799
▁Ceyran	-11.68
▁anatomiya	-11.6801
▁miqdarında	-11.6803
▁Elmir	-11.6805
▁ruhanilər	-11.6805
▁torpağında	-11.6806
▁strukturunu	-11.6807
▁Xet	-11.6808
▁günlərini	-11.6808
▁mədənlərin	-11.6809
▁Festivalın	-11.6812
▁cinah	-11.6814
▁87	-11.6814
▁üsyançılar	-11.6815
▁Qubad	-11.6815
▁kafedralı	-11.6816
ölün	-11.6819
▁ödəyirdi	-11.6819
▁zəhər	-11.6819
urt	-11.6819
▁yarpaqlar	-11.6821
▁Konstantinopol	-11.6821
▁ərzaqlar	-11.6821
▁partiyalar	-11.6823
▁çatdırılır	-11.683
▁taxtı	-11.6831
▁səhvlər	-11.6832
▁irəliləmə	-11.6833
▁sarım	-11.6834
▁fəaliyyətlərini	-11.6837
▁dəyərləri	-11.6837
▁gəmidə	-11.6841
▁ardıcılları	-11.6842
▁hidro	-11.6842
▁izi	-11.6844
▁truppası	-11.6847
▁vərəm	-11.6847
▁götürül	-11.6847
▁Səmədov	-11.6848
▁bitkilərdə	-11.6849
lənmiş	-11.6849
▁həl	-11.6854
▁qəlb	-11.6855
▁seçmişdi	-11.6856
▁yaşam	-11.6858
▁əmrin	-11.6859
▁vasitələrində	-11.6862
▁solist	-11.6863
▁1600	-11.6864
▁sistemlərində	-11.6865
neu	-11.6866
▁sərgisi	-11.6866
▁xristianları	-11.6872
▁Bab	-11.6875
▁fəlsəfəsində	-11.6875
imli	-11.6876
▁Sel	-11.6877
▁çıxarılı	-11.6878
▁məməli	-11.6878
▁əlavələr	-11.6881
▁173	-11.6881
▁türkcəsi	-11.6882
▁mərkəzini	-11.6883
▁gətirirdi	-11.6888
▁qurşağında	-11.6891
▁toponimlər	-11.6894
▁turda	-11.6895
▁qurumların	-11.6896
▁danışıqları	-11.6897
▁çəl	-11.6899
fis	-11.6899
▁medalları	-11.6902
▁Mara	-11.6903
mədən	-11.6903
▁çatdıra	-11.6906
▁erməniləri	-11.6911
▁ölmüşdü	-11.6912
▁ziyalıların	-11.6915
əhra	-11.6915
▁saatların	-11.6917
▁əvvələ	-11.6917
▁diski	-11.6919
▁qalxma	-11.6919
obasında	-11.6921
▁kütlələrini	-11.6921
otanik	-11.6921
▁Səlah	-11.6922
▁Mövcud	-11.6922
▁bədbəxt	-11.6922
ruqvay	-11.6922
▁Bayron	-11.6922
▁1868	-11.6922
▁Heykəl	-11.6922
▁İsmail	-11.6922
▁fosfor	-11.6923
▁Qazıyev	-11.6923
▁radioaktiv	-11.6923
▁izləmək	-11.6925
har	-11.6925
▁duet	-11.6926
rta	-11.6928
məli	-11.6928
eologiya	-11.6929
qil	-11.693
▁sultanlığı	-11.6931
▁keçirməsi	-11.6932
▁Sey	-11.6937
▁xam	-11.6938
▁müasirləri	-11.6939
▁küçələri	-11.6941
▁bərabərliyi	-11.6943
▁fərdlər	-11.6943
▁söyləyə	-11.6945
▁açmışdı	-11.6947
▁məntəqəsində	-11.6948
▁oxşarlıq	-11.6948
▁istədikləri	-11.6948
▁sortları	-11.6951
▁as	-11.6952
▁qrammatika	-11.6952
▁telekanalın	-11.6954
basar	-11.6954
▁adlandır	-11.6956
▁mülkiyyəti	-11.6957
▁almanları	-11.6958
çəmən	-11.6959
▁parad	-11.696
▁be	-11.6963
▁almışlar	-11.6967
▁dönmüşdü	-11.6968
▁Seminariyasını	-11.6972
▁axtar	-11.6973
▁yönəli	-11.6974
von	-11.6978
▁məscidində	-11.6982
▁gö	-11.6982
▁tanışlıq	-11.6983
▁avtomobillər	-11.6989
▁Əlini	-11.699
▁Həkim	-11.699
▁mənsubdur	-11.6993
▁inqilabını	-11.6996
▁elementlərini	-11.6996
▁təsirlər	-11.6999
▁etdirildi	-11.7
▁vermirdi	-11.7001
iqtisadiyyatında	-11.7003
▁aparatı	-11.7003
▁status	-11.7006
▁idmançıları	-11.7007
▁rənglərin	-11.7009
leq	-11.7009
▁Peterburqda	-11.701
övbə	-11.7014
▁əs	-11.7014
▁döyüşün	-11.7015
▁zamankı	-11.7015
▁düşərgəsi	-11.7015
▁boşluq	-11.7018
▁komandalar	-11.702
uxur	-11.7022
▁qüdrətini	-11.7023
▁atmaq	-11.7026
▁Val	-11.7027
▁qatları	-11.7032
rız	-11.7033
muş	-11.7034
▁canlandırı	-11.7042
▁nahiyəsində	-11.7043
▁qorxa	-11.7043
▁cərəyanın	-11.7045
▁Məktəbdə	-11.7047
ötürülür	-11.705
▁subyektlərin	-11.705
▁Pompey	-11.705
▁Qalaktika	-11.705
▁kurort	-11.705
▁kəlam	-11.705
▁tümən	-11.705
▁İntibah	-11.705
▁Sağlam	-11.705
▁tədarük	-11.705
▁1861	-11.705
▁Külək	-11.7051
▁qurtul	-11.7051
ensial	-11.7051
▁pendir	-11.7051
▁Mərv	-11.7051
▁Diplomati	-11.7052
▁neytron	-11.7053
▁oxuyurdu	-11.7053
▁sürülmüşdü	-11.7054
▁addımı	-11.7054
▁qapıçı	-11.7055
rxeologiya	-11.7056
əkəriyy	-11.7057
▁İKP	-11.7057
▁başlanılmışdı	-11.7057
▁1856	-11.7058
▁dul	-11.7059
▁atırdı	-11.706
▁məşhurlaş	-11.706
▁saxlanmışdı	-11.7063
▁Stiven	-11.7064
▁əlyazması	-11.7065
▁turşu	-11.7066
▁bəylə	-11.7066
▁Seyidzadə	-11.7067
▁tanıdı	-11.7069
▁izlər	-11.707
▁olmadıq	-11.7073
▁barmaq	-11.7078
ele	-11.7081
▁dönmə	-11.7086
ishi	-11.7089
▁Baz	-11.7089
uzey	-11.7091
▁əvvəli	-11.7092
▁formalaşdır	-11.7092
▁virtu	-11.7092
▁bilsə	-11.7093
emarlıq	-11.7094
bək	-11.7095
▁İstər	-11.7095
cəsin	-11.7096
▁əhvalatı	-11.7098
▁meşələrdə	-11.7103
▁banklar	-11.7104
▁tullantıları	-11.7104
maarif	-11.7105
▁bölgəsin	-11.7105
▁çağır	-11.7109
▁simfoniya	-11.711
lüyünü	-11.7113
abil	-11.7114
▁dəyərini	-11.7117
▁istəmişdi	-11.7117
▁araba	-11.7124
▁dərəsində	-11.7125
▁Sər	-11.7126
▁Quşlar	-11.7126
▁siyasətdə	-11.7128
əlli	-11.7132
▁təşkilatlarını	-11.7132
▁xəritələr	-11.7133
▁Yusifov	-11.7133
▁metodlar	-11.7134
▁cəbhəsi	-11.7136
▁məhsuldarlığı	-11.7139
▁Qızılbaşlar	-11.714
▁dastanın	-11.7141
▁Mav	-11.7144
▁poemasında	-11.7144
▁əlil	-11.7145
▁Nar	-11.7148
▁Şahtaxt	-11.7151
▁Tut	-11.7152
▁oxucuların	-11.7152
▁saklar	-11.7153
▁qəhrəmanın	-11.7154
▁Andre	-11.7161
ballı	-11.7162
▁kəsir	-11.7164
▁Əh	-11.7168
▁Kompleksi	-11.717
▁sayır	-11.7174
▁Rusla	-11.7175
▁Oyunu	-11.7179
▁ezam	-11.718
▁Pirsaat	-11.718
▁Qüdrət	-11.718
▁Space	-11.718
▁cavabdeh	-11.718
▁hikmət	-11.718
▁törədilən	-11.718
▁İblis	-11.718
▁Brüs	-11.718
▁iltihab	-11.718
▁1842	-11.718
▁meyit	-11.718
▁diqqətəlayiq	-11.7181
▁zərgər	-11.7181
▁Mende	-11.7181
▁üsullarını	-11.7181
▁Fətulla	-11.7181
üfət	-11.7181
▁magistratura	-11.7181
▁1813	-11.7181
▁təz	-11.7182
▁bildirmək	-11.7182
▁açıqlamışdı	-11.7182
▁Xəbər	-11.7184
▁ayələri	-11.7185
▁port	-11.7187
▁Rəşidəddin	-11.7187
▁qardaşlarını	-11.7188
▁İsgəndəriyyə	-11.7188
▁xidmətlərini	-11.7192
▁zavodunu	-11.7194
▁əf	-11.7194
▁4000	-11.7196
▁nailiyyətlərin	-11.7198
▁səfərləri	-11.7199
▁qonaqlar	-11.72
dlı	-11.7204
▁Rum	-11.7208
yğur	-11.7208
▁dəyişikliyi	-11.7209
▁qəs	-11.7211
▁şimalı	-11.7211
hem	-11.7214
▁Qurd	-11.7217
▁sevil	-11.7218
▁sata	-11.722
▁əsli	-11.722
▁simmetri	-11.7221
▁tat	-11.7221
▁mexanikası	-11.7226
▁medalını	-11.7228
▁Ala	-11.7231
▁camaatını	-11.7232
▁mətnləri	-11.7232
▁biliklərin	-11.7237
▁regionu	-11.7239
▁siması	-11.7241
ılmış	-11.7242
mədəniyyət	-11.7243
▁neçəsi	-11.7244
▁özbəklər	-11.7244
▁yüzillik	-11.7245
▁tatarlar	-11.7246
Macarıstan	-11.7248
yazı	-11.7249
▁düşərgəsini	-11.7254
▁Məmmədh	-11.7254
▁Yaradıcılı	-11.7258
▁gəz	-11.726
▁kilsələr	-11.726
tdı	-11.7261
▁saxlanılmışdı	-11.7263
▁Parlamenti	-11.7264
▁artmış	-11.7264
▁düşüncələr	-11.7264
▁kanallar	-11.7276
▁yerləşdi	-11.7277
▁canlandır	-11.7279
▁qırılma	-11.7279
oniya	-11.7281
▁misra	-11.7281
ita	-11.7282
eo	-11.7287
▁maraqlarını	-11.7288
▁iclası	-11.7289
▁elektro	-11.7291
▁töhfələr	-11.7292
▁mini	-11.7294
▁dindar	-11.7297
▁bürcü	-11.7297
iriş	-11.7301
▁sərgilən	-11.7302
▁genişlənmiş	-11.7303
▁açmış	-11.7305
əncəni	-11.7306
ürəkkəb	-11.7308
▁Yara	-11.7309
▁münasibətlə	-11.731
▁görüşmə	-11.731
kişi	-11.731
▁Venesuela	-11.7312
▁dəhliz	-11.7312
▁Fred	-11.7312
▁1832	-11.7312
▁Paskeviç	-11.7312
▁Kültəpə	-11.7312
▁Simfoni	-11.7312
▁xarakterini	-11.7312
▁Mərdan	-11.7312
▁dialoq	-11.7312
▁buraxılması	-11.7312
▁qisas	-11.7312
▁Fren	-11.7312
tal	-11.7313
▁olmayacaq	-11.7313
▁yetirib	-11.7313
▁qətnamə	-11.7313
▁qazılmış	-11.7313
▁Rast	-11.7314
▁toplanı	-11.7315
▁arx	-11.7315
▁Rumlu	-11.7315
şüd	-11.7316
▁təsdiqlə	-11.7316
pp	-11.7317
▁mirzəni	-11.732
▁müştər	-11.732
▁böyüyən	-11.732
▁Mülki	-11.7322
▁eşidi	-11.7323
▁povest	-11.7323
▁tikdirmişdi	-11.7324
▁beyni	-11.7325
▁cismləri	-11.7325
▁xəstəliy	-11.7326
▁döşəmə	-11.7329
▁siçanı	-11.7333
▁Monqollar	-11.7334
mund	-11.7335
▁şəklin	-11.7336
▁oyma	-11.7337
▁qazanc	-11.7337
▁müşahidəçi	-11.7339
▁guşə	-11.7341
▁Komandanı	-11.7346
▁portalı	-11.7347
▁Sənədl	-11.7348
▁radiosun	-11.7348
▁Fizik	-11.7348
▁yolların	-11.735
▁Səba	-11.7351
▁gücləndir	-11.7352
▁Dərbənddə	-11.7352
▁naxışları	-11.7353
▁Hüseyni	-11.7356
▁qidalanma	-11.7358
▁qaçqınlar	-11.7361
▁köçkün	-11.7362
▁yerləşdiyin	-11.7362
▁səslənə	-11.7368
▁Doğu	-11.7373
▁tapan	-11.7374
27-	-11.7375
▁şiələr	-11.7376
▁dalğaları	-11.7377
▁not	-11.7381
▁oturu	-11.7384
▁damarları	-11.7395
▁gəzə	-11.7396
▁atmosferi	-11.7397
▁təqiblər	-11.74
▁Nik	-11.7401
▁Hakimiyyətin	-11.7401
▁xalqlarda	-11.7402
amiz	-11.7403
▁rəqəmi	-11.7405
atolikos	-11.7405
▁gördükdə	-11.7409
▁şerləri	-11.741
▁dəstəkləyir	-11.7413
▁Bor	-11.7414
▁Filarmoniyasın	-11.7415
▁Meşələr	-11.7417
▁güclən	-11.7421
▁Qər	-11.7424
▁bəd	-11.7426
▁məqbərə	-11.7426
▁kurslar	-11.7428
▁texnologiyalar	-11.7428
▁ağacını	-11.7429
old	-11.7429
▁şeyxi	-11.7433
▁elmlərin	-11.7433
laşdırma	-11.7434
▁00	-11.7439
▁süqutu	-11.7439
▁yağıntıların	-11.744
▁Bünyad	-11.7442
▁müxalif	-11.7442
▁Pəhləvan	-11.7445
▁Studiya	-11.7445
▁Əməliyyat	-11.7445
▁Yekaterina	-11.7445
▁yarımdairə	-11.7445
▁Braun	-11.7445
▁Tamara	-11.7445
▁müfə	-11.7445
▁səliqə	-11.7445
atamam	-11.7445
▁Əmiraslan	-11.7446
▁uzunluq	-11.7446
ssəl	-11.7446
▁deyim	-11.7447
▁İmad	-11.7447
▁çatdırmışdı	-11.7448
▁düşül	-11.7448
▁gərginliyi	-11.7449
▁cənazəsi	-11.7449
▁köçürü	-11.745
hy	-11.745
▁Təpə	-11.7451
aştağ	-11.7452
umer	-11.7452
▁bənzərsiz	-11.7454
▁yaradıldığı	-11.7459
sək	-11.746
▁sursat	-11.7461
▁münaqişələr	-11.7462
▁şəbəkələri	-11.7463
▁buraxmışdı	-11.7464
▁Ru	-11.7465
▁donanmasını	-11.7468
qun	-11.7468
▁kainat	-11.7469
▁Bibliya	-11.7473
▁virus	-11.7473
▁anlayışları	-11.7478
▁dəyişə	-11.7479
▁Red	-11.7479
▁Bar	-11.748
les	-11.7482
▁vergisi	-11.7489
▁dayanma	-11.7491
▁planlı	-11.7493
▁yamacları	-11.7496
▁Stansiya	-11.7496
▁qaçış	-11.7501
▁cümləni	-11.7502
▁Evi	-11.7504
▁157	-11.7505
▁üzük	-11.7505
mança	-11.7506
▁cilddə	-11.751
▁qollarında	-11.7516
▁qoşul	-11.7517
▁ixtiyar	-11.7519
▁Xristianlığı	-11.7522
▁Ağac	-11.7523
▁gets	-11.7527
▁kameral	-11.7528
ımızın	-11.753
▁yaxınlaşır	-11.753
ust	-11.7531
▁Səfir	-11.7531
▁matç	-11.7532
▁sa	-11.7533
▁kanalları	-11.7536
▁Kərimova	-11.7536
▁rəssamların	-11.7537
▁dəyərlərin	-11.7538
inar	-11.7538
▁metodika	-11.7546
BM	-11.7547
▁suyunda	-11.7553
▁As	-11.7553
▁akk	-11.7555
▁azlıq	-11.7557
▁qanadları	-11.7559
▁kompleksində	-11.7562
▁platforma	-11.7564
▁yanaşır	-11.7567
▁Xorasanda	-11.7572
▁dəyişdirə	-11.7579
▁Qətər	-11.758
▁komsomol	-11.758
▁monarxiya	-11.758
▁məşgul	-11.758
▁patriarx	-11.758
▁soruşur	-11.758
▁yumru	-11.758
▁Harvard	-11.758
▁Rio	-11.7581
epidemiolo	-11.7581
▁Nemət	-11.7581
alxal	-11.7582
▁üstünü	-11.7582
▁etdir	-11.7583
▁Kəlbə	-11.7583
▁küçələrdə	-11.7583
▁piy	-11.7583
▁idarəçi	-11.7583
▁baniləri	-11.7585
▁çalın	-11.7585
▁1854	-11.7586
▁gur	-11.7586
▁Stra	-11.7586
yyət	-11.7588
▁pəhləvan	-11.759
▁115	-11.7592
▁gəldikləri	-11.7593
▁istəməyə	-11.7594
▁sərhədlər	-11.7596
▁Planet	-11.7596
▁nağıllar	-11.7597
bil	-11.7598
verici	-11.7599
▁anbar	-11.7603
▁Kola	-11.7603
▁istiqamətlərdə	-11.7603
▁səlahiyyəti	-11.7603
▁mövzunu	-11.7604
0-12	-11.7605
▁xeyriyyəçi	-11.7605
▁axtarışlar	-11.7608
▁post	-11.761
ove	-11.7613
▁məqamlar	-11.7617
▁gətirilmişdi	-11.7622
əyəm	-11.7623
▁fərmanları	-11.7624
▁kilsədə	-11.7624
▁çəkil	-11.7625
▁360	-11.7626
▁təcrübəsini	-11.7631
▁fasadı	-11.7633
▁bilərəm	-11.7633
▁mühazirə	-11.7638
allı	-11.7639
▁tanımaq	-11.7642
▁Haqqın	-11.7642
▁yazıda	-11.7646
cül	-11.7651
▁kişini	-11.7653
▁sosializm	-11.7656
dey	-11.7657
ayıl	-11.766
▁mətnin	-11.7661
meşə	-11.7668
▁Bell	-11.7671
bağırsaq	-11.7675
▁cəhətlərin	-11.7675
kənar	-11.7679
▁qı	-11.7681
▁əşyaların	-11.7681
bay	-11.7683
▁xassə	-11.7683
laşdırır	-11.7683
▁Nağı	-11.7685
▁vəhdət	-11.7687
▁yamaclar	-11.7689
rmu	-11.7691
▁görüşün	-11.7692
▁fı	-11.7694
▁işsiz	-11.7699
▁imzalan	-11.7699
stəlik	-11.7699
▁qə	-11.77
▁idarələrin	-11.7702
▁bəstəkarların	-11.7703
▁fr	-11.7705
ife	-11.7705
▁birinciliyi	-11.7708
▁ağzında	-11.7708
▁elektronlar	-11.7715
▁tələf	-11.7716
▁fizik	-11.7716
ümüş	-11.7717
▁Amsterdam	-11.7717
▁Oksford	-11.7717
▁Poema	-11.7717
oogle	-11.7717
▁Dəstə	-11.7717
▁Fişer	-11.7717
▁Haşım	-11.7717
▁Səfikürd	-11.7717
▁bilinmir	-11.7717
▁fiqh	-11.7717
▁kinoteatr	-11.7717
▁partlayıcı	-11.7717
▁vizual	-11.7717
▁çuğundur	-11.7717
▁Qazıntı	-11.7717
▁Texas	-11.7717
▁bəylərbəyliyi	-11.7717
▁1823	-11.7717
▁qonağı	-11.7717
epati	-11.7717
▁Səbəb	-11.7717
▁sürülü	-11.7719
▁Dairə	-11.7719
▁işlənilmiş	-11.7719
▁xitab	-11.7719
▁mülkiyyətin	-11.7719
əstəli	-11.7722
▁çənə	-11.7722
▁mehriban	-11.7723
ığ	-11.7724
▁qruplarını	-11.7725
ement	-11.7725
▁kölə	-11.7728
▁Xristianlıq	-11.7728
▁Mühəndis	-11.7728
AM	-11.7734
▁mülahizə	-11.7735
▁şən	-11.7736
len	-11.7736
▁məqbərəsi	-11.7737
▁Qızlar	-11.7737
▁Salma	-11.7738
▁əməlləri	-11.774
▁məktəblərini	-11.7741
▁nağılları	-11.7742
▁deyilsə	-11.7743
▁tavanı	-11.7745
▁Mehman	-11.7745
▁Fra	-11.7747
▁aşıqları	-11.7747
▁Ol	-11.7748
▁əmlakı	-11.7749
▁Dağı	-11.7751
▁sərgilər	-11.7754
▁qişa	-11.7759
▁boyunda	-11.7766
▁kənarlarında	-11.7767
▁köçürdü	-11.7768
kəndə	-11.7771
▁xala	-11.7772
▁Mah	-11.7772
▁gözləmə	-11.7773
▁rəhbərlərin	-11.7774
akov	-11.7775
▁arteri	-11.7776
▁Dərbəndi	-11.7778
▁Eri	-11.7779
▁Konfransın	-11.778
▁ideyaların	-11.7781
▁söykən	-11.7786
lmuş	-11.7787
▁muğamları	-11.7788
bağça	-11.7788
▁mərtəbəsin	-11.7788
▁tərtibatı	-11.7788
▁vuruş	-11.7789
▁qələbələr	-11.7789
▁qana	-11.7789
▁Albomu	-11.779
▁kilsəsində	-11.7792
▁inamı	-11.7795
bati	-11.7798
▁edirmiş	-11.7801
▁qalanları	-11.7801
fur	-11.7804
▁anbarları	-11.7808
▁Paleol	-11.7809
▁yetirirdi	-11.781
▁bacarığını	-11.7812
▁Atabəylər	-11.7812
▁şeyx	-11.7815
29	-11.7815
▁qırğınlar	-11.7816
▁əsirləri	-11.7817
eyid	-11.7818
▁otağında	-11.7819
▁Almanlar	-11.782
▁er	-11.7822
▁cümlələr	-11.7825
oymaq	-11.7828
▁əməliyyatlarda	-11.7829
▁okeanda	-11.783
daban	-11.783
▁blok	-11.783
çill	-11.7831
anrlarında	-11.7831
▁etnoqrafi	-11.7836
▁ayırd	-11.7836
▁elmində	-11.7839
laşdırmaq	-11.7839
▁FK	-11.7842
▁idim	-11.7842
▁dərsliklər	-11.7843
▁Krımda	-11.7843
▁quraşdırılı	-11.7846
▁hesablamaları	-11.7849
▁pyesini	-11.785
▁Xəy	-11.7853
▁uz	-11.7855
▁təlimini	-11.7855
▁qutu	-11.7856
▁Xarəzm	-11.7856
öhrab	-11.7856
▁yekdil	-11.7856
▁Filosof	-11.7856
▁Siciliya	-11.7856
▁inanılmaz	-11.7856
▁qəpik	-11.7856
▁törədilmiş	-11.7856
▁Cənnət	-11.7856
▁dubl	-11.7856
▁harmoni	-11.7856
▁keçmir	-11.7856
▁sulf	-11.7856
▁əmsalı	-11.7857
adanın	-11.7857
▁Şeyxzaman	-11.7857
▁təbiətini	-11.7858
▁bitkilərdən	-11.7858
▁1941-1945	-11.7858
ight	-11.7858
ündüz	-11.7858
▁20-30	-11.7859
▁gücləndirmək	-11.7859
SB	-11.786
▁günorta	-11.786
▁Sürə	-11.7861
▁plat	-11.7861
▁1857	-11.7862
▁konqres	-11.7862
▁baxırdı	-11.7864
▁faunası	-11.7864
▁Salahov	-11.7864
▁tərəfdaş	-11.7865
▁həmkarlar	-11.7866
eyi	-11.7868
▁ayırmışdı	-11.7869
▁qorxulu	-11.787
▁aşırım	-11.7871
▁nənəsi	-11.7874
▁tapşırılı	-11.7874
▁bağlanı	-11.7874
▁böyüyür	-11.7876
şur	-11.7877
▁Diza	-11.7878
▁tr	-11.7879
▁rəngləri	-11.788
▁qəbristanlı	-11.7881
▁döyüşçülər	-11.7883
▁mat	-11.7885
▁filosofları	-11.7887
▁prinsiplər	-11.7888
▁tanını	-11.79
vuş	-11.7901
▁seçmək	-11.7903
▁Təkə	-11.7905
▁müdafiəsini	-11.7905
▁kür	-11.7906
▁qaydaların	-11.7909
▁qəl	-11.791
▁qaynaqları	-11.791
▁əldən	-11.791
▁Sinan	-11.7912
▁məktubları	-11.7913
▁86	-11.7914
▁Piri	-11.7915
▁kapitalı	-11.7915
xanı	-11.7916
▁izahı	-11.7919
▁çıxanda	-11.792
▁Med	-11.7921
▁Qoşunları	-11.7923
▁soyad	-11.7923
▁Əlih	-11.7924
▁ərimə	-11.7927
▁sürgündə	-11.7928
▁yönəl	-11.7928
▁yuyu	-11.7928
▁alətlərində	-11.7932
▁strukturları	-11.7932
▁poemaları	-11.7936
▁gəzir	-11.7936
ment	-11.7936
▁diqqətə	-11.7938
▁öyrənili	-11.7939
▁giri	-11.7943
▁zonaları	-11.7944
▁orbiti	-11.7944
▁bilikləri	-11.7945
▁xəzinəsin	-11.7947
▁Titanik	-11.7948
olunma	-11.7949
▁olunar	-11.7953
▁Polşanı	-11.7954
qət	-11.7956
▁salonu	-11.7957
▁işlədi	-11.7958
▁klublar	-11.7959
▁filiz	-11.7964
bənzər	-11.7966
▁yaran	-11.7972
▁komponentləri	-11.7976
▁ensiklopedi	-11.7977
▁Qran	-11.7978
▁abidələrdə	-11.7978
▁bacarıqla	-11.7979
▁tutum	-11.798
▁ehtiyatlarını	-11.7982
▁Tac	-11.7986
▁fəsli	-11.7988
▁lisey	-11.7988
▁türkü	-11.7989
▁qəm	-11.799
ənbə	-11.7991
▁yubileyin	-11.7991
yid	-11.7994
▁bütövlüyü	-11.7994
▁Atropat	-11.7997
▁Körpü	-11.7997
▁Fəaliyyət	-11.7997
▁Qorbaçov	-11.7997
▁Stefan	-11.7997
▁rəqqas	-11.7997
▁xəsarət	-11.7997
▁yatırıldı	-11.7997
▁1795	-11.7997
▁Rəhbər	-11.7997
▁sədarət	-11.7997
[...]
