<unk>	0
<s>	0
</s>	0
<pad>	0
▁.	-2.89553
▁,	-3.24634
n	-3.60294
▁	-3.83033
▁və	-3.91175
;	-3.99451
▁&	-4.05556
quot	-4.09979
(	-4.87545
a	-4.87752
▁)	-4.88134
ə	-4.89216
-	-4.9401
▁bir	-5.06294
r	-5.07939
▁ilə	-5.12751
i	-5.18154
▁ildə	-5.23234
ci	-5.23761
in	-5.3961
da	-5.42131
▁bu	-5.4282
▁Azərbaycan	-5.49846
nin	-5.50907
▁də	-5.53032
nın	-5.58333
na	-5.72042
də	-5.72132
▁olan	-5.72629
dir	-5.75478
▁Bu	-5.77072
▁üçün	-5.89343
▁sonra	-5.89549
▁ki	-5.91698
▁da	-5.91754
▁kimi	-5.92196
▁isə	-5.93303
b	-5.99899
lər	-6.04568
▁:	-6.05153
lar	-6.0772
▁çox	-6.08477
▁il	-6.094
dən	-6.16415
li	-6.18425
nə	-6.24686
▁görə	-6.25985
ya	-6.2615
ın	-6.26615
▁edir	-6.28924
▁—	-6.30892
–	-6.32384
▁idi	-6.35321
▁o	-6.35947
▁onun	-6.38286
▁həm	-6.39164
▁-	-6.39426
dır	-6.39779
cü	-6.40892
ən	-6.42477
dan	-6.43597
▁ən	-6.48582
▁tərəfində	-6.50536
▁əsas	-6.51499
▁O	-6.53324
▁böyük	-6.53722
▁ilk	-6.54862
“	-6.57659
▁”	-6.57917
k	-6.58271
lə	-6.58664
lı	-6.5931
▁öz	-6.60157
▁olmuşdur	-6.62208
▁olaraq	-6.63231
yə	-6.63407
cı	-6.64886
▁qədər	-6.66939
▁daha	-6.70628
▁adı	-6.7076
▁ya	-6.73064
la	-6.73348
cu	-6.76405
▁kənd	-6.78962
▁ilin	-6.82018
▁baş	-6.83412
ı	-6.83535
▁iki	-6.85973
q	-6.8624
▁arasında	-6.87538
▁istifadə	-6.88166
▁biri	-6.89978
▁A	-6.90999
▁hər	-6.93951
▁edən	-6.94648
▁s	-6.95173
▁illərdə	-6.95988
▁olub	-6.96043
▁bəy	-6.98311
un	-6.98927
▁Bakı	-6.99536
▁dəfə	-6.99587
▁bütün	-7.01096
lik	-7.01671
▁olur	-7.02456
▁oğlu	-7.06628
▁etmişdir	-7.09434
▁etdi	-7.09998
dur	-7.12304
▁B	-7.15677
▁var	-7.16636
ki	-7.17037
▁təşkil	-7.17451
si	-7.18952
▁digər	-7.19419
▁müxtəlif	-7.19968
▁ərazi	-7.2029
▁yeni	-7.21028
▁rayonunu	-7.21264
▁Dövlət	-7.21495
▁etmək	-7.21744
▁1	-7.22117
▁Respublikasını	-7.22364
m	-7.2262
▁daxil	-7.23374
▁haqqında	-7.2397
▁ildən	-7.24994
▁oldu	-7.25768
kı	-7.27171
▁olunur	-7.27221
▁belə	-7.27927
▁2	-7.28138
▁adlı	-7.28554
▁nəfər	-7.28597
▁başqa	-7.30952
▁inzibati	-7.31302
▁olduğu	-7.31381
▁üzrə	-7.3167
▁M	-7.3197
▁La	-7.33143
▁edilmişdir	-7.3346
/	-7.36872
▁qəbul	-7.37064
▁edilir	-7.37479
an	-7.37649
raq	-7.3777
▁qarşı	-7.39577
kin	-7.40642
▁həyat	-7.40838
▁xan	-7.40847
▁qeyd	-7.40968
%	-7.41313
▁yer	-7.42219
▁elmi	-7.42818
▁onu	-7.42867
▁Azərbaycanın	-7.43589
▁orta	-7.43729
▁xüsusi	-7.43929
s	-7.4471
sı	-7.45694
▁fəaliyyət	-7.4571
ərək	-7.46198
▁dövlət	-7.46649
▁qədim	-7.4674
di	-7.46753
▁Onun	-7.48196
▁tarixi	-7.49405
cə	-7.50275
▁edib	-7.50854
▁3	-7.51239
▁şəhərində	-7.52654
u	-7.53024
t	-7.54119
▁onların	-7.54553
z	-7.55837
▁Bir	-7.56315
▁Respublikası	-7.57064
▁etdiyi	-7.57866
▁aid	-7.57887
▁dünya	-7.57992
ik	-7.59048
▁əsrin	-7.59062
▁yüksək	-7.59316
▁davam	-7.59375
lıq	-7.59912
▁iştirak	-7.60461
ndan	-7.6054
▁geniş	-7.61225
▁neçə	-7.62184
▁vahidində	-7.62454
araq	-7.62843
▁eyni	-7.63252
▁Azərbaycanda	-7.6368
▁zamanı	-7.64671
▁olunmuşdu	-7.64935
▁nəticəsində	-7.6497
▁etmiş	-7.65035
1	-7.651
▁min	-7.65474
▁təhsil	-7.65543
▁gün	-7.65765
▁üzərində	-7.667
ları	-7.66775
▁heç	-7.67125
­	-7.67371
▁onlar	-7.67982
xalq	-7.68525
▁burada	-7.68907
▁K	-7.7101
▁olar	-7.71213
çini	-7.71524
▁ərazisində	-7.71551
▁vardır	-7.71585
▁yerləşir	-7.71643
▁olmuş	-7.7281
▁zaman	-7.72908
▁Avropa	-7.7343
▁olması	-7.73828
▁anadan	-7.74189
▁hərbi	-7.74305
ca	-7.74953
▁S	-7.75189
▁Rusiya	-7.76314
▁I	-7.76658
▁müəyyən	-7.76969
«	-7.77258
▁inkişaf	-7.77401
▁göstərir	-7.77576
▁hesab	-7.77953
▁verir	-7.78132
▁yaxın	-7.78173
▁az	-7.79046
▁Məhəmməd	-7.79135
▁şəhər	-7.79231
▁4	-7.79382
▁dövründə	-7.79634
»	-7.79858
▁artıq	-7.80182
dı	-7.80323
▁su	-7.80518
ji	-7.80575
l	-7.80671
▁yaxşı	-7.81007
▁ABŞ	-7.81223
▁məşhur	-7.81354
▁Milli	-7.81588
▁olmaq	-7.81882
▁olunmuş	-7.81888
▁ikinci	-7.82128
▁olunan	-7.82355
▁milli	-7.82997
▁Əli	-7.83051
▁bağlı	-7.83554
▁film	-7.836
▁5	-7.8379
▁yalnız	-7.83875
▁km	-7.83914
▁ibarət	-7.8481
▁Qarabağ	-7.84914
▁yerləşə	-7.85038
inə	-7.85157
▁özünü	-7.85221
▁şəhəri	-7.85449
▁mövcud	-7.85569
▁kəndi	-7.86238
▁m	-7.86442
▁türk	-7.86987
likdə	-7.87237
▁kiçik	-7.87317
▁üç	-7.87336
▁Böyük	-7.87396
▁deyil	-7.87821
lu	-7.8815
▁vaxt	-7.88326
▁xalq	-7.88608
▁altında	-7.88898
▁mərkəzi	-7.89111
▁edirdi	-7.90381
▁hissəsi	-7.90449
▁olduğunu	-7.91116
▁10	-7.91147
▁şəkildə	-7.91587
ləri	-7.92117
▁edərək	-7.92403
▁üzvü	-7.92412
▁Y	-7.9248
▁təyin	-7.92648
▁əvvəl	-7.92828
▁müddət	-7.9288
▁dilində	-7.92928
▁sıra	-7.93141
▁əsrdə	-7.93459
▁yenidən	-7.9358
▁musiqi	-7.93769
▁malik	-7.94037
▁insan	-7.94682
▁uzun	-7.95654
▁son	-7.96053
▁nə	-7.96209
▁&#93;	-7.9652
▁başladı	-7.96522
ni	-7.96684
▁&#9	-7.96866
▁ümumi	-7.97929
▁sayı	-7.98046
▁edilmiş	-7.98141
▁edilən	-7.98628
▁dili	-7.98869
▁dövrdə	-7.99929
▁Ə	-8.00363
▁Cənub	-8.00592
▁Belə	-8.00709
▁bilər	-8.01125
▁Burada	-8.02196
▁rus	-8.023
▁Həmi	-8.02935
▁səbəb	-8.03099
▁illər	-8.04256
▁SSRİ	-8.04429
apos	-8.05557
▁iş	-8.05717
▁Qafqaz	-8.05919
ov	-8.06032
▁bəzi	-8.06085
▁kəndində	-8.08038
▁Sonra	-8.08241
nda	-8.08304
▁əhalisi	-8.08398
▁əldə	-8.0872
▁birinci	-8.08853
▁İran	-8.09321
▁siyasi	-8.09425
nı	-8.09443
▁6	-8.09607
nun	-8.09668
adına	-8.09708
▁ölkə	-8.09742
▁zamanda	-8.09764
▁adını	-8.09857
▁erməni	-8.10025
▁gəlir	-8.10628
▁yaşayış	-8.10639
▁II	-8.1119
▁ibarətdir	-8.1123
▁edə	-8.11772
▁?	-8.11801
▁Türkiyə	-8.11893
▁məşğul	-8.12413
▁Əliyev	-8.12417
ndə	-8.12698
▁əlavə	-8.12705
▁Mirzə	-8.13133
o	-8.13194
▁H	-8.13483
▁demək	-8.13768
al	-8.13906
▁tarixində	-8.14091
▁layiq	-8.14153
▁Bakıda	-8.14334
ərzində	-8.15493
▁məqsədi	-8.15728
▁Naxçıvan	-8.1579
▁20	-8.16286
ilə	-8.17459
▁tə	-8.17616
▁xarici	-8.17625
▁Onlar	-8.17756
▁edilməsi	-8.17982
▁Sultan	-8.17987
▁baxma	-8.18719
▁başa	-8.18871
y	-8.18879
▁C	-8.18908
▁edirlər	-8.19494
▁vəfat	-8.19559
▁may	-8.19819
▁məlumat	-8.20794
▁yanaşı	-8.21268
▁cənub	-8.21678
▁T	-8.22045
▁etməyə	-8.22208
▁təmin	-8.22643
▁əhali	-8.22866
а	-8.23029
▁Xəzər	-8.23281
▁gələn	-8.23343
▁tam	-8.23516
▁15	-8.23645
▁Sovet	-8.24025
▁qızı	-8.24443
▁İ	-8.24707
▁əsasında	-8.24893
▁rayonu	-8.2517
rkən	-8.25174
▁Şah	-8.25618
ətta	-8.2563
▁h	-8.25631
▁edildi	-8.25888
▁Osmanlı	-8.26009
▁şimal	-8.26296
▁yerli	-8.26302
▁hələ	-8.26309
▁Xalq	-8.27083
▁almışdı	-8.27265
▁yeri	-8.27385
▁8	-8.27701
▁tarix	-8.27745
▁əhatə	-8.27766
▁vasitəsi	-8.28035
▁Kənd	-8.2805
vi	-8.2871
▁mühüm	-8.28887
dür	-8.28953
▁Həsən	-8.29001
▁Hüseyn	-8.29576
▁V	-8.2959
▁Gəncə	-8.29659
▁ayında	-8.29668
▁barədə	-8.29715
▁çıxış	-8.29919
▁keçmiş	-8.30095
▁P	-8.3018
▁verən	-8.30892
▁beynəl	-8.3119
▁İlk	-8.31294
▁keçirilə	-8.31331
▁о	-8.31666
▁7	-8.32055
▁Ermənistan	-8.32228
▁12	-8.32774
▁istehsal	-8.32862
▁meydan	-8.32931
▁müasir	-8.32954
▁Orta	-8.33151
▁ola	-8.33347
▁xidmət	-8.33395
▁nəşr	-8.33795
▁Dünya	-8.33877
▁yolu	-8.34091
▁Əhməd	-8.34376
▁yerinə	-8.34647
▁müəllifi	-8.34684
▁Şimal	-8.34711
▁Bunda	-8.34719
▁idarə	-8.35052
▁Qara	-8.35167
▁milyon	-8.3547
▁yerdə	-8.35798
▁çap	-8.3652
▁XIX	-8.36672
▁yol	-8.36731
▁kəndin	-8.36925
qulu	-8.37199
▁başlayır	-8.37705
▁dini	-8.37855
▁Hacı	-8.38182
▁təsir	-8.38417
▁neft	-8.38504
▁qısa	-8.38642
▁edilib	-8.38645
▁Həm	-8.38925
▁hücum	-8.3986
▁qadın	-8.39899
▁Hər	-8.39948
▁etmişdi	-8.40013
▁geri	-8.4007
▁müdafiə	-8.40099
▁güclü	-8.40431
▁uyğun	-8.40471
▁yaxınlığında	-8.40493
▁hakimiyyəti	-8.40928
▁əmələ	-8.40948
▁olunub	-8.41558
▁tərkibində	-8.42503
▁sahəsində	-8.42612
▁lak	-8.42687
▁Mərkəzi	-8.42747
▁ictimai	-8.42912
▁yaşayan	-8.43087
lt	-8.43146
▁hərəkət	-8.43343
ndən	-8.43451
▁məktəbi	-8.43508
ncaq	-8.43692
▁D	-8.44045
▁işğal	-8.44058
▁dəniz	-8.44374
▁30	-8.44437
çılıq	-8.44645
▁verdi	-8.44893
▁yanvar	-8.44976
ona	-8.45018
▁elan	-8.4582
▁özü	-8.46071
▁ali	-8.46181
▁ətrafında	-8.46456
▁əlaqədar	-8.46458
▁halda	-8.46539
▁təsvir	-8.4659
▁mart	-8.46702
▁1992-	-8.46839
▁elə	-8.46992
▁malikdir	-8.47151
▁Türk	-8.47174
▁Şərq	-8.47749
▁on	-8.47889
▁rəsmi	-8.4791
▁şəhərin	-8.47954
dək	-8.48005
▁məlum	-8.48503
▁Fransa	-8.4862
▁e	-8.48799
gt	-8.48886
▁doğru	-8.49298
▁tək	-8.49382
▁əks	-8.4941
d	-8.49493
▁etibar	-8.49805
▁9	-8.50624
▁əsr	-8.50875
▁ələ	-8.51278
▁dekabr	-8.51351
▁Ən	-8.51477
▁xanın	-8.51594
▁bədii	-8.52228
eynəl	-8.52296
▁Amerika	-8.52406
▁İsmayıl	-8.52431
▁təbii	-8.52626
▁atası	-8.52732
▁sahəsi	-8.52991
▁mübarizə	-8.53244
▁hansı	-8.53314
▁Yeni	-8.53505
▁müharibəsi	-8.53524
▁ölkəni	-8.53573
▁sistemi	-8.53642
▁R	-8.53727
▁ailə	-8.5428
▁İslam	-8.54484
▁iyun	-8.54645
▁yazır	-8.54656
ğı	-8.54876
▁dağ	-8.55024
▁məktəb	-8.55095
▁!	-8.55103
▁orada	-8.55398
▁rol	-8.5553
▁gözəl	-8.55592
▁iqtisadi	-8.55659
▁işləri	-8.55709
▁say	-8.55719
▁sahilində	-8.55777
▁17	-8.55989
▁gəlmiş	-8.55995
▁ifa	-8.56366
▁təqdim	-8.56567
▁Hazır	-8.56697
▁çayı	-8.56853
▁günü	-8.56937
▁indiki	-8.56974
▁F	-8.56994
▁Şuşa	-8.56997
▁məxsus	-8.57041
f	-8.57221
▁rejissor	-8.57466
▁Universitetini	-8.57479
▁Abbas	-8.57707
▁25	-8.57767
▁aprel	-8.5788
▁qala	-8.57991
▁zəngin	-8.58129
▁dünyanın	-8.58421
▁16	-8.58456
▁ay	-8.58485
▁olsa	-8.58519
▁onda	-8.58618
gər	-8.58824
▁ayrı	-8.59031
▁yaşayır	-8.59447
▁gənc	-8.59483
▁nəzərdə	-8.59615
▁onları	-8.59668
▁Allah	-8.59741
▁sözü	-8.59853
▁SSR	-8.5989
▁aşağı	-8.60033
e	-8.60228
▁mədəniyyət	-8.60412
▁üzərin	-8.60427
▁ərazisi	-8.60541
▁təxminə	-8.60598
▁Ş	-8.60696
▁bərabər	-8.60717
▁həsr	-8.6078
▁avqust	-8.61249
gə	-8.61435
əddin	-8.61445
sində	-8.61559
▁inkişafı	-8.61929
▁cümlədə	-8.61959
▁görkəm	-8.61994
▁oktyabr	-8.62029
▁məğlub	-8.62114
▁ağır	-8.62174
▁tamam	-8.62236
▁dörd	-8.62846
▁hazır	-8.6289
▁fərqli	-8.63228
mma	-8.63233
▁Ali	-8.63479
▁ancaq	-8.63541
▁insanlar	-8.6366
▁14	-8.63734
▁futbol	-8.63871
▁fəaliyyəti	-8.63952
▁olmayan	-8.64156
xud	-8.64306
▁müharibə	-8.64571
▁olmuşdu	-8.64608
▁illərində	-8.64775
▁d	-8.64989
lərlə	-8.65065
▁yəni	-8.65141
▁nəfəri	-8.65771
▁baxım	-8.65892
▁rast	-8.65926
▁metr	-8.66024
▁ərəb	-8.66178
▁ayını	-8.6634
▁fevral	-8.66357
▁b	-8.66384
▁İbrahim	-8.66416
ütün	-8.66417
▁şah	-8.66463
▁yox	-8.66572
▁iyul	-8.66573
▁iri	-8.66588
ti	-8.66801
▁qrup	-8.66823
▁əhalini	-8.66875
▁yanında	-8.66879
▁rayonunda	-8.67234
▁tərəfdə	-8.67265
▁tətbiq	-8.67359
▁çoxlu	-8.67378
▁sədri	-8.67685
▁Roma	-8.67697
▁daş	-8.67856
ir	-8.68038
▁kömək	-8.68055
▁Film	-8.68323
▁vəzifəsində	-8.68337
▁daxili	-8.68406
▁alır	-8.68721
▁məhz	-8.68748
▁növü	-8.68898
▁İnstitutunu	-8.68981
▁ifadə	-8.69036
▁asılı	-8.69121
▁Günəş	-8.6914
▁qərar	-8.69257
▁imkan	-8.69422
▁təhsilini	-8.69436
▁gəldi	-8.69442
▁yoxdur	-8.69503
▁ağa	-8.69519
▁yaşında	-8.69802
▁elm	-8.69948
▁noyabr	-8.69986
▁sentyabr	-8.70092
▁inşa	-8.7011
▁18	-8.70177
▁sadə	-8.70297
▁Almaniya	-8.70583
▁teatr	-8.70617
▁başlamışdır	-8.71033
▁aktyor	-8.71241
▁İkinci	-8.71249
su	-8.71253
▁gəlib	-8.71444
▁11	-8.71596
▁filmi	-8.71607
▁tanınmış	-8.71658
▁əvvəllərində	-8.72292
▁aşkar	-8.72425
▁Baş	-8.73061
▁olunması	-8.73194
▁tez	-8.73296
▁xey	-8.73367
▁azad	-8.73547
▁almaq	-8.7367
▁şair	-8.73749
▁X	-8.74067
▁eləcə	-8.7455
▁şəklində	-8.74777
▁Yer	-8.7486
▁ciddi	-8.74889
▁cəlb	-8.74889
▁cür	-8.74891
▁söz	-8.74909
▁Moskva	-8.74914
▁Beləliklə	-8.74967
▁qara	-8.7522
inin	-8.75226
▁sağ	-8.75243
▁13	-8.75383
▁həyatı	-8.75605
ır	-8.75667
▁е	-8.7568
▁dövləti	-8.75697
▁irəli	-8.75776
▁müstəqil	-8.7588
▁ölkədə	-8.75982
▁dünyada	-8.76101
ından	-8.76121
▁ev	-8.7632
▁qardaşı	-8.76409
▁rayon	-8.76431
▁hissəsində	-8.76546
▁döyüş	-8.76619
▁xanım	-8.76664
▁əhəmiyyətli	-8.76674
▁təsərrüfatı	-8.77003
▁qızıl	-8.77028
illik	-8.771
▁ədəbi	-8.77124
▁uşaq	-8.77162
▁dövrü	-8.77366
▁alıb	-8.77894
▁adlana	-8.78204
▁Dah	-8.78312
▁Ümumi	-8.78339
▁müəllim	-8.78455
▁Q	-8.78507
▁olundu	-8.78692
▁2009-	-8.79042
▁mümkün	-8.79327
ində	-8.79411
▁biz	-8.79689
▁XX	-8.79743
▁şəxs	-8.80053
▁qalan	-8.80105
mağa	-8.80208
▁Universiteti	-8.80658
▁sonralar	-8.81282
▁dövrün	-8.81312
е	-8.81394
▁ingilis	-8.81817
▁lazımdır	-8.81877
▁hissəsini	-8.8195
▁bərpa	-8.82112
▁G	-8.8253
▁çayını	-8.8282
ma	-8.82828
▁kişi	-8.82925
▁etməsi	-8.82945
▁əsrlərdə	-8.83115
▁verilir	-8.83541
saylı	-8.83571
▁Gürcüstan	-8.83821
▁tutur	-8.83875
▁keçir	-8.8389
▁ibn	-8.83948
▁Birinci	-8.84031
▁məntəqəsi	-8.84115
▁deyilir	-8.84163
▁100	-8.84641
▁yazıçı	-8.84914
▁qeyri	-8.8494
▁i	-8.84941
▁Lənkəran	-8.85017
▁görülmüşdü	-8.85261
▁Nizami	-8.8531
▁Ağ	-8.85382
▁Çin	-8.85609
▁əsərləri	-8.85627
▁təsiri	-8.85642
▁hava	-8.85671
▁hakimiyyət	-8.85744
▁şərq	-8.85831
▁bilir	-8.85972
▁E	-8.86401
▁Qızıl	-8.86522
▁artisti	-8.86694
▁cəhət	-8.86854
▁sənaye	-8.86858
▁qarşısında	-8.87066
▁vardı	-8.87086
▁ərazidə	-8.87123
▁bəhs	-8.87327
yi	-8.87392
▁2-	-8.8742
▁rəhbərliyi	-8.87483
▁Məsələn	-8.87582
▁növ	-8.87635
▁fars	-8.87658
▁çay	-8.87661
▁Onları	-8.87676
▁24	-8.87695
▁Quba	-8.87802
sa	-8.8788
▁mükafatı	-8.88005
▁başlay	-8.88106
▁İrəvan	-8.88331
ş	-8.8846
at	-8.88734
sında	-8.88783
▁III	-8.88878
▁lazım	-8.88999
▁Qədim	-8.8907
▁keçən	-8.89077
▁özündə	-8.89247
▁açıq	-8.89298
▁sahib	-8.89304
▁işıq	-8.89494
▁Bəzi	-8.89651
ət	-8.89869
▁təmsil	-8.89928
▁N	-8.90107
▁paytaxtı	-8.90143
▁tərk	-8.90241
▁prezidenti	-8.90333
▁1993-	-8.90352
▁1-	-8.9036
▁əl	-8.90424
▁şey	-8.9046
▁Əsas	-8.90462
▁Bununla	-8.9055
▁əsəri	-8.90551
▁alan	-8.90579
▁daim	-8.90582
▁vermişdir	-8.90775
▁içərisində	-8.90821
zadə	-8.90922
▁qərarı	-8.90942
▁Şeyx	-8.9095
▁cavab	-8.90962
▁torpaq	-8.91101
▁nisbət	-8.9124
▁müsəlman	-8.91345
▁dərin	-8.91409
▁ticarət	-8.91621
▁verilmişdi	-8.9206
▁Təbriz	-8.92105
▁fəxr	-8.92196
▁dəfn	-8.92329
▁Prezidenti	-8.92392
▁əsrlər	-8.92514
ltif	-8.92528
▁nəticə	-8.92542
▁Kür	-8.92644
siz	-8.92796
▁işlər	-8.92808
▁tərcümə	-8.92953
▁ordusu	-8.92959
▁adlanır	-8.93093
▁Heydər	-8.93101
▁çıxan	-8.93145
▁göstərən	-8.93229
▁professor	-8.93234
luq	-8.93358
▁uğur	-8.93413
▁mahnı	-8.93437
▁tələb	-8.93458
▁saat	-8.93464
▁müşahidə	-8.93562
▁mədəni	-8.93638
▁özünə	-8.93706
▁ağ	-8.93752
▁2005-	-8.93964
▁sosial	-8.94092
▁alman	-8.94139
▁həbs	-8.94227
▁yazdığı	-8.94268
▁boyu	-8.94377
▁Asiya	-8.94481
▁əvvəlki	-8.94509
▁kitab	-8.94521
▁vacib	-8.94546
▁kütlə	-8.94562
▁elmləri	-8.94864
▁Şirvan	-8.94931
▁dil	-8.94946
▁yuxarı	-8.94954
▁mərkəzində	-8.94974
▁26	-8.95085
▁dair	-8.95231
▁nəzərə	-8.95614
▁Yusif	-8.9564
▁21	-8.95708
▁Çünk	-8.95778
▁işi	-8.95879
▁Şəki	-8.95985
▁bitki	-8.9613
▁bəzən	-8.96183
▁Britaniya	-8.96527
▁kino	-8.96559
▁1991-	-8.96592
▁Mən	-8.96672
▁2008-	-8.96775
▁müdiri	-8.96782
▁Nazirliyi	-8.96845
▁səs	-8.96878
▁xəbər	-8.97047
▁2000-	-8.97149
▁Mədəniyyət	-8.97229
▁adam	-8.97281
▁2006-	-8.97288
▁23	-8.97319
▁mən	-8.97399
▁qol	-8.97596
▁1990-	-8.98122
▁memarlıq	-8.98122
▁insanların	-8.9817
▁Eyni	-8.9837
▁adlandırılmışdı	-8.98424
▁edirdilər	-8.98564
▁aldı	-8.98609
▁19	-8.9866
▁bağlıdır	-8.98706
▁azərbaycanlı	-8.988
▁br	-8.98975
▁verdiyi	-8.99065
▁təsdiq	-8.99132
▁Şurası	-8.99137
▁uğrunda	-8.99227
▁müavini	-8.99419
▁əhalisini	-8.99817
h	-8.99852
▁bunun	-8.99874
▁təklif	-9.00002
qca	-9.00016
▁aşağıdakı	-9.00239
▁məhv	-9.00375
▁bunlar	-9.00523
▁28	-9.00836
▁dövlətin	-9.00923
▁etdirir	-9.00946
▁yaradılması	-9.00973
▁çalışır	-9.01051
▁Şamaxı	-9.01075
▁respublika	-9.01082
▁Mahnı	-9.01093
▁fəal	-9.014
▁Teatrın	-9.01661
▁qərb	-9.02163
▁əsasını	-9.0231
▁Digər	-9.02351
▁içində	-9.02419
▁məlumatlar	-9.02495
ur	-9.02628
▁dəmir	-9.02638
▁adları	-9.0271
▁gedən	-9.02773
▁yaradılmış	-9.02783
▁tədris	-9.02846
▁siyahısı	-9.02858
▁oyun	-9.03325
▁22	-9.03357
▁Məmmədov	-9.03392
▁hal	-9.03623
▁2007-	-9.03678
▁səbəbi	-9.03796
▁həmişə	-9.03833
▁50	-9.03848
▁dərs	-9.0389
▁qalası	-9.03996
▁naziri	-9.04112
▁növbə	-9.04125
▁daxildir	-9.04359
▁yaradır	-9.04397
▁Bunun	-9.04565
▁mənasında	-9.0459
▁beş	-9.04696
▁Misir	-9.04774
ә	-9.04822
▁Süleyman	-9.04867
▁çalışmışdı	-9.05339
▁İncəsənət	-9.05474
▁hissə	-9.05493
▁fəaliyyətini	-9.05535
▁doktoru	-9.05666
dakı	-9.05743
▁ermənilər	-9.05844
▁fikir	-9.05966
▁filmləri	-9.05968
▁29	-9.06007
rək	-9.06108
▁Kəndi	-9.06131
▁uzunluğu	-9.06155
▁İngiltərə	-9.06274
▁istehsalı	-9.06329
▁tərəf	-9.06402
▁idman	-9.06575
▁de	-9.06585
▁qan	-9.06596
▁dənizi	-9.06604
▁1918-	-9.0662
▁yunan	-9.06686
▁Qərbi	-9.06691
▁əsərində	-9.06921
▁təsadüf	-9.07089
▁sol	-9.07175
içik	-9.07617
▁izah	-9.07623
▁q	-9.0763
▁Ay	-9.07661
▁Teymur	-9.0776
▁Paşa	-9.07944
▁Şərqi	-9.08038
▁L	-9.08181
▁müraciət	-9.08234
▁həll	-9.08253
▁məruz	-9.08271
▁sübut	-9.08358
▁olunurdu	-9.08372
▁kitabı	-9.08423
▁sənət	-9.08439
▁Dram	-9.08508
▁fransız	-9.08605
▁Və	-9.08657
▁qələbə	-9.08685
▁necə	-9.09093
v	-9.09133
▁düşür	-9.09214
▁fikrin	-9.09297
▁yaradılmışdı	-9.09329
▁üzü	-9.09374
▁pul	-9.0944
▁kəs	-9.09479
▁Məmməd	-9.09609
▁Son	-9.09654
▁sonunda	-9.09669
▁əksəriyyəti	-9.09704
▁çıxır	-9.09731
▁Uzun	-9.09963
▁televiziya	-9.0999
yyətlə	-9.09991
▁rolu	-9.09998
▁çəkilmiş	-9.10146
▁Respublika	-9.10204
▁aydın	-9.10224
▁diqqət	-9.10226
▁bunu	-9.10329
▁Elə	-9.10352
▁üçüncü	-9.1039
▁alim	-9.10556
▁1980	-9.10564
▁insanı	-9.10699
▁ədəbiyyat	-9.1078
▁anası	-9.10809
▁klubu	-9.10824
▁azərbaycanlılar	-9.10879
▁qaz	-9.10896
ü	-9.10899
▁ətraf	-9.10922
▁hə	-9.1093
▁əvəz	-9.10957
▁40	-9.11007
▁hakim	-9.11047
▁1920-	-9.11102
▁Musiqi	-9.11143
▁üstün	-9.11149
▁Mustafa	-9.11234
▁vermiş	-9.11254
▁üstündə	-9.11304
▁dövr	-9.11372
3	-9.11456
▁27	-9.11513
kdən	-9.11547
▁sahibi	-9.11586
çi	-9.11658
▁Əmir	-9.11815
▁qrupu	-9.11835
▁indi	-9.11878
▁Rayon	-9.11935
▁illərin	-9.11952
▁rəhbəri	-9.12048
▁sülh	-9.12156
▁Müqəddə	-9.12236
▁İtaliya	-9.12352
▁hadisə	-9.1243
▁yeg	-9.12448
▁ailəsi	-9.12464
▁qalır	-9.12498
▁hakimi	-9.12848
▁məktəbində	-9.12866
▁dəvət	-9.1294
ib	-9.13003
mişdir	-9.13053
▁bitiri	-9.13085
▁əmək	-9.1345
▁ha	-9.13523
əm	-9.13594
▁şairi	-9.13606
▁sayılır	-9.13609
▁ana	-9.13661
▁Avroviziya	-9.13747
▁məktəbini	-9.13783
▁tabe	-9.13843
▁şəxsi	-9.14004
▁Seyid	-9.14098
▁Ağa	-9.14179
▁qalib	-9.14399
▁Cəfər	-9.14405
▁hesabı	-9.14446
hazırd	-9.14458
▁Hal	-9.1455
abad	-9.14857
▁aiddir	-9.15062
▁keçirilir	-9.15069
▁000	-9.15213
▁2004-	-9.15244
▁üz	-9.15295
▁əməkda	-9.15484
▁qoşunları	-9.15754
▁əvvəlcə	-9.15883
▁0	-9.16175
▁ölkələrdə	-9.16243
▁hazırlanmış	-9.16354
▁başçısı	-9.16484
▁Rus	-9.1659
▁bizim	-9.16656
▁tanış	-9.16788
▁məcbur	-9.16815
▁birində	-9.16929
▁ordusunu	-9.17039
▁köməyi	-9.17049
_	-9.17153
ayət	-9.17299
▁ordu	-9.17313
əli	-9.17579
▁incəsənət	-9.1775
▁yaşamış	-9.17807
▁bitirmişdi	-9.17867
▁tipli	-9.17891
▁maraqlı	-9.17928
▁Qüvvələri	-9.17934
▁isti	-9.17961
▁üzv	-9.18021
rc	-9.18061
tez	-9.18069
▁sovet	-9.18658
▁ədəbiyyatı	-9.18689
anə	-9.18706
▁İstanbul	-9.18783
▁yazılmış	-9.18791
▁rəhbər	-9.18819
▁sıx	-9.18828
▁icra	-9.18924
▁aparıla	-9.18988
▁başlayıb	-9.19066
lan	-9.19105
▁qırmızı	-9.19213
▁ölümündə	-9.19332
▁qız	-9.1935
▁forması	-9.19563
о	-9.19579
▁ləğv	-9.19597
▁xadimi	-9.19635
▁Olimpi	-9.19651
▁Ağdam	-9.1966
▁Çox	-9.19769
▁yay	-9.19838
▁yenə	-9.19944
▁almış	-9.19967
▁dəqiq	-9.19969
▁Əhali	-9.20005
▁teatrın	-9.2003
▁verilmiş	-9.20173
▁yayılmışdı	-9.20495
▁elektrik	-9.20643
▁məna	-9.2066
▁Muxtar	-9.20756
▁işləmişdi	-9.20943
▁2002-	-9.20992
▁gəlmişdi	-9.20994
▁yaranmışdı	-9.21131
▁hallarda	-9.21183
▁tibb	-9.21552
▁şəhərini	-9.21678
▁işçi	-9.21782
▁gecə	-9.21815
▁çoxu	-9.21905
▁2003-	-9.2194
▁XVIII	-9.21974
▁ad	-9.21993
▁tərkibin	-9.22025
▁Molla	-9.22132
▁keçirilmiş	-9.22182
▁quru	-9.22243
▁v	-9.22266
▁əsər	-9.22297
▁yaranması	-9.22606
▁Şəhər	-9.22757
▁2010-	-9.22841
▁nail	-9.22882
▁vəziyyət	-9.22943
▁deyə	-9.22948
▁qalmış	-9.22977
▁yerində	-9.23056
▁Silah	-9.231
film	-9.23283
▁informasiya	-9.23322
▁Akademiyasını	-9.23447
▁əsl	-9.23514
▁sm	-9.23547
°	-9.23659
▁yaşlı	-9.23735
▁gətirir	-9.24069
liyi	-9.24272
▁tayfa	-9.24303
▁qayda	-9.24345
▁gedir	-9.24501
▁maddi	-9.24747
▁qəzeti	-9.24907
əgər	-9.24957
▁nümayiş	-9.25013
▁müvafiq	-9.25015
▁üstünlük	-9.25133
▁alınmışdı	-9.25299
ayəsində	-9.25306
▁bildirir	-9.25406
2	-9.25554
▁amma	-9.25614
▁Elmlər	-9.25683
▁müalicə	-9.2576
▁deyir	-9.25777
ların	-9.25894
▁göz	-9.26104
▁Soveti	-9.26169
▁mürəkkəb	-9.26504
▁qazandı	-9.26505
▁xanı	-9.26522
▁başlayan	-9.26524
▁daşıyır	-9.26603
▁Avropada	-9.26773
▁dillərində	-9.26919
▁coğrafi	-9.26964
▁dövlətini	-9.27162
▁göstərmişdi	-9.27194
qətlə	-9.27228
▁öncə	-9.27232
▁3-	-9.27245
er	-9.27303
▁hökmdarı	-9.27468
sə	-9.27695
▁çıxdı	-9.27718
▁direktoru	-9.27724
adlı	-9.27986
▁Araz	-9.28153
▁çünk	-9.28245
▁altı	-9.28302
▁Məh	-9.28453
▁Mir	-9.28501
▁arada	-9.28528
▁rəngli	-9.28676
▁dövrünü	-9.28683
▁İttifaqı	-9.28736
nunun	-9.2894
▁kənddə	-9.29016
du	-9.29069
▁məktəbin	-9.29098
▁fakültəsini	-9.29226
▁komandası	-9.29357
▁Fətəli	-9.29424
lak	-9.29604
▁hüquq	-9.29615
▁olduğundan	-9.29812
qdan	-9.30028
▁yoldaşı	-9.30104
▁ala	-9.3012
▁cəmi	-9.30195
▁qolu	-9.30198
▁qəsəbə	-9.30257
▁etn	-9.3048
miş	-9.30685
▁yardım	-9.30709
çilik	-9.30719
▁qaldı	-9.30908
▁nümayəndələri	-9.30931
▁sahədə	-9.31029
▁istiqamətində	-9.31071
lığı	-9.31122
ağa	-9.31339
▁boyunca	-9.31354
▁səhnə	-9.31403
▁at	-9.31513
▁hüququ	-9.31598
c	-9.31651
▁əhəmiyyət	-9.31664
▁yaradıcılığı	-9.31822
▁hadisələr	-9.31881
x	-9.31904
▁klassik	-9.32026
▁yaratmışdı	-9.32059
▁komanda	-9.3207
▁arxeolo	-9.32125
▁İki	-9.32159
▁ailəsində	-9.32276
▁avtomobil	-9.32365
▁fiziki	-9.3237
▁ədəd	-9.32457
▁qüvvələri	-9.32464
▁mənşəli	-9.32504
▁Aşağı	-9.32511
▁Ərəb	-9.3255
▁31	-9.32674
▁köhnə	-9.32804
▁mümkündür	-9.32856
▁Moskvada	-9.32883
on	-9.32898
▁qalmışdı	-9.32925
▁yeddi	-9.33051
▁rəhbərli	-9.33059
▁maliyyə	-9.33222
▁növləri	-9.33277
0	-9.33322
▁Mahmud	-9.33389
▁yaranmış	-9.33394
mış	-9.3351
▁1999-	-9.33516
▁təqrib	-9.33545
▁qələm	-9.3355
▁vaxtı	-9.33654
▁texniki	-9.33692
▁daxilində	-9.33815
▁ortaya	-9.33824
id	-9.33843
▁oyunda	-9.33919
▁hökuməti	-9.33927
▁dərəcə	-9.34036
▁yerlərdə	-9.34043
▁çətin	-9.34105
▁Afrika	-9.34159
▁üzvləri	-9.34161
▁Qırmızı	-9.34164
▁məscid	-9.34262
▁şərait	-9.34292
▁2001-	-9.34482
▁mədəniyyəti	-9.34534
▁Bunlar	-9.34641
▁müddətdə	-9.34655
ayrı	-9.34753
▁qəzet	-9.35015
▁Füzuli	-9.35039
▁ölüm	-9.35042
▁qabaq	-9.35052
iyyə	-9.3516
▁Nadir	-9.35303
p	-9.35338
▁yazmışdı	-9.35359
▁2013-	-9.35431
▁ordeni	-9.35655
▁qarşısını	-9.35666
▁Tiflis	-9.35667
▁Qərb	-9.35679
▁hiss	-9.35697
▁sahə	-9.35751
▁prezident	-9.3579
▁Cəlil	-9.35795
▁göstərmiş	-9.35866
▁ardın	-9.3606
▁verilən	-9.36318
▁quruluşu	-9.36415
▁2012-	-9.36503
▁olurdu	-9.36652
▁y	-9.3667
▁sonuna	-9.36772
▁göstərmək	-9.36806
▁elmlər	-9.36839
▁İranda	-9.36886
▁təsis	-9.3694
▁yayılmış	-9.37064
▁sürətlə	-9.3718
▁xalqın	-9.37191
▁mm	-9.37284
▁saray	-9.37349
▁din	-9.37472
▁dərəcədə	-9.37507
+	-9.37711
il	-9.37726
ini	-9.37806
▁vermək	-9.37806
▁yaşadığı	-9.37951
sız	-9.38007
▁Abşeron	-9.38011
▁tutan	-9.38059
▁İspaniya	-9.38089
▁şəxslər	-9.38098
▁Qazax	-9.38328
▁hökumət	-9.3869
▁sahələri	-9.38712
▁dilini	-9.38718
▁uzaq	-9.3873
▁kilsə	-9.38744
▁keçdi	-9.38838
▁yazırdı	-9.38845
▁quruluş	-9.38856
▁şəhərdə	-9.3887
▁general	-9.39194
▁2011-	-9.39351
▁keçirdi	-9.39376
▁onlardan	-9.39396
▁Neft	-9.39471
▁miqdar	-9.39474
▁katibi	-9.39511
it	-9.39594
▁çalışıb	-9.39666
▁həyatını	-9.39783
▁Erməni	-9.4001
▁ölkələrin	-9.40124
▁final	-9.40248
▁evi	-9.40285
▁müğənni	-9.40351
▁tələbə	-9.40365
▁Universitetində	-9.40398
▁qiymətli	-9.40433
▁dairəsi	-9.4045
▁Türkiyədə	-9.40465
▁qadınlar	-9.40542
▁20-	-9.40562
▁edilirdi	-9.40603
▁həyatında	-9.40681
▁səviyyəsində	-9.40722
▁sistemini	-9.40743
▁Cavanşir	-9.40855
▁etdirmişdi	-9.40856
▁Paris	-9.40952
▁Sumqayıt	-9.40988
▁olsun	-9.41066
▁olmasını	-9.41077
▁vaxtda	-9.41088
maz	-9.41177
▁Zaqafqaziya	-9.41255
▁tikinti	-9.41284
▁IV	-9.41352
▁aparılmış	-9.41364
▁Elmi	-9.41462
maq	-9.41537
▁etməklə	-9.41551
▁zəif	-9.41553
▁Biz	-9.41566
aşayış	-9.41579
belə	-9.41589
▁vəziyyətdə	-9.41649
▁mənim	-9.41663
▁inkişafında	-9.41912
▁bölünür	-9.41982
▁yanın	-9.41983
▁dağlıq	-9.42049
▁Hüseynov	-9.42072
▁təkrar	-9.42074
▁Qafqazda	-9.42113
▁sözünü	-9.4228
▁mənbələrdə	-9.42313
▁tikilmiş	-9.42319
▁müqayisə	-9.42329
▁qida	-9.42392
▁tədqiqat	-9.42443
▁yazı	-9.42508
▁etdirə	-9.42514
um	-9.42601
▁Vətən	-9.42607
▁meşə	-9.42619
▁1988-	-9.42661
yev	-9.42687
▁düşmən	-9.42693
▁redaktoru	-9.42711
▁tarixdə	-9.42711
▁Avstriya	-9.42735
▁Oykonim	-9.42735
▁Birliyini	-9.43033
▁iddia	-9.43122
▁dövrlərdə	-9.4315
▁mətbuat	-9.43217
▁göstərilir	-9.43235
▁İnstitutu	-9.43358
▁səbəbdən	-9.43376
ənəvi	-9.43383
▁heyvan	-9.43385
▁kəşf	-9.43488
▁vəzifəsinə	-9.43505
▁Əbu	-9.43568
▁Hərbi	-9.43609
▁fəlsəfə	-9.43776
▁sayıla	-9.43809
▁haqda	-9.43827
▁1998-	-9.43841
▁bitirdi	-9.43927
=	-9.43963
▁adi	-9.44007
▁yolunu	-9.44118
▁ölkələrində	-9.44136
▁Kənddə	-9.44174
lü	-9.4435
▁Aşıq	-9.44514
▁sözləri	-9.44585
▁keçirir	-9.44617
▁artır	-9.4471
▁60	-9.44781
▁İsgəndər	-9.44925
▁müəllimi	-9.44938
▁qalıqları	-9.45006
▁1994-	-9.45119
▁əlində	-9.45141
man	-9.45216
▁qar	-9.45219
▁ağac	-9.45314
▁əsrə	-9.45338
▁ortalarında	-9.45351
▁yaratmaq	-9.45355
▁edilmişdi	-9.45415
▁No	-9.4551
▁ulduz	-9.45637
▁Müasir	-9.45763
▁sonuncu	-9.45771
▁Bizans	-9.45904
▁1960-	-9.45967
▁rayonun	-9.46042
▁tərtib	-9.46084
▁çatır	-9.46159
▁gizli	-9.46184
▁kəndləri	-9.4623
▁müqavilə	-9.46262
▁imti	-9.46324
▁vahid	-9.46376
larında	-9.46528
▁Gənc	-9.46822
▁miqdarı	-9.46847
▁aktyoru	-9.47031
birinə	-9.47042
▁Ukrayna	-9.472
▁tamaşa	-9.47264
▁1970-	-9.47415
▁vəziyyəti	-9.47491
▁mərkəz	-9.47569
▁xətti	-9.47595
▁qanun	-9.47651
▁Hindistan	-9.47743
▁Yazıçılar	-9.47765
▁Atası	-9.47866
▁kitabında	-9.47924
▁ehtimal	-9.47924
başa	-9.47975
▁heyvandarlıq	-9.48034
▁nüfuz	-9.48169
▁qarşılıq	-9.48283
▁tanın	-9.48364
8	-9.4845
▁xalça	-9.48493
▁iqlim	-9.48803
▁müqəddəs	-9.48887
▁Axundov	-9.48893
▁mis	-9.4893
▁çıxmış	-9.48977
▁görür	-9.49028
▁abidə	-9.49034
▁kəskin	-9.49069
▁sistem	-9.49214
▁şirkəti	-9.49252
▁1930	-9.49323
▁ölkələr	-9.49324
▁XVI	-9.49438
▁Mehdi	-9.49459
▁partiya	-9.49486
▁dedi	-9.49573
7	-9.49582
▁mənası	-9.49669
▁4-	-9.49676
▁işləyi	-9.497
▁UEFA	-9.49755
luğu	-9.49798
▁surət	-9.49841
el	-9.49872
▁maraq	-9.49878
▁güm	-9.49967
▁2014-	-9.49998
▁əsası	-9.50049
▁mənsub	-9.50101
▁başlıca	-9.50196
▁əksər	-9.50227
▁bilmir	-9.50298
▁sərbəst	-9.50348
▁Qeyd	-9.50488
▁elektron	-9.5051
▁aldığı	-9.50541
▁p	-9.50555
▁şərəfin	-9.50621
▁yüz	-9.50646
irləşmiş	-9.50723
▁nadir	-9.50786
▁gətiri	-9.50898
▁İnstitutunda	-9.50912
▁Hacıbəyov	-9.50938
tiv	-9.51213
▁Bərdə	-9.51221
▁qismi	-9.51427
▁icazə	-9.51443
▁Qəbələ	-9.51516
▁əsərlərini	-9.5165
▁200	-9.51677
mək	-9.51815
▁müharibəsində	-9.51904
▁Komitəsini	-9.51911
▁2015-	-9.52006
▁gəlinir	-9.52048
▁adətə	-9.52083
▁Tofiq	-9.5211
▁verib	-9.52121
▁əsərlər	-9.52196
▁Nəticə	-9.52259
▁deyildi	-9.5239
▁nəzdində	-9.52409
▁mövzusunda	-9.52442
▁forma	-9.52521
▁Rza	-9.52558
ad	-9.52591
▁düz	-9.52624
▁canlı	-9.52653
▁silahlı	-9.52676
▁aparıcı	-9.52678
▁məktəbdə	-9.52683
▁Məşə	-9.52708
▁deyildir	-9.52734
▁yaradıcılıq	-9.52764
▁tədqiqatlar	-9.52882
▁nəzarət	-9.53077
▁möhkəm	-9.53222
▁Nobel	-9.5331
▁1919-	-9.53335
▁Az	-9.53379
▁kəndindən	-9.53551
▁mühəndis	-9.53598
▁qış	-9.53607
▁əsir	-9.5365
▁bəstəkar	-9.53673
▁parlaq	-9.53686
▁seçilir	-9.53753
▁söhbət	-9.53879
▁əlaqə	-9.53929
▁tanınır	-9.53935
▁qüvvə	-9.5406
▁ömrünü	-9.54085
▁sultan	-9.54088
▁adından	-9.54092
▁uşaqlar	-9.54131
▁mənəvi	-9.54156
or	-9.54177
▁etdikdə	-9.54202
▁El	-9.54221
5	-9.54478
met	-9.54533
▁apara	-9.54627
ylə	-9.54648
lərindən	-9.54694
▁no	-9.54753
▁təbiət	-9.54783
▁Ölkə	-9.54865
▁nəticəsi	-9.55029
lərin	-9.55066
▁kifayət	-9.55122
▁düşən	-9.55143
▁rəisi	-9.55166
▁Kanada	-9.55288
▁xristian	-9.55352
▁alban	-9.55468
▁enerji	-9.55526
▁olduqda	-9.55652
▁keçirilməsi	-9.55746
▁əmr	-9.55796
▁Azad	-9.55828
▁birini	-9.55903
▁bəyi	-9.55973
▁namizəd	-9.56066
▁nümayəndəsi	-9.56129
▁Albaniya	-9.56162
▁dəstə	-9.56188
▁1989-	-9.56264
▁iştirakı	-9.56425
▁məscidi	-9.56487
▁tədqiq	-9.56516
▁hamısı	-9.56546
▁Quliyev	-9.56681
▁bura	-9.56736
▁hissədə	-9.56755
▁Yaponiya	-9.56798
▁Xaric	-9.56843
▁çəkilə	-9.56852
▁Əməkda	-9.56986
▁mahnısı	-9.56986
▁olacaq	-9.57079
▁mirzə	-9.57164
▁etdikləri	-9.57263
▁hazırlanması	-9.57265
▁Göy	-9.57329
▁məsələn	-9.57338
▁İsveç	-9.57457
▁Cəbrayıl	-9.57463
▁dəqiqə	-9.57483
▁nümunələri	-9.57494
▁sənədl	-9.57517
▁Səfəvilər	-9.5754
▁cəmiyyətin	-9.57677
▁rolunu	-9.57695
▁tətbiqi	-9.57705
▁kilometr	-9.57778
▁Cabbarlı	-9.57813
▁Yuxarı	-9.5793
▁1995-	-9.58034
▁prosesi	-9.58062
▁səkkiz	-9.58094
▁doğma	-9.58098
lərində	-9.58213
▁rəng	-9.5823
▁30-	-9.58342
▁Əvvəl	-9.58355
▁göndərdi	-9.58436
▁çar	-9.58567
▁çevrilir	-9.58571
▁seçilmişdi	-9.58588
▁gəlməsi	-9.58607
▁taxta	-9.588
▁Musa	-9.58802
▁məhkəmə	-9.59037
▁verirdi	-9.59136
▁Qala	-9.59259
▁1997-	-9.59324
▁internet	-9.59383
▁İnsan	-9.59457
▁yaratdı	-9.59508
▁maddə	-9.59557
▁soyuq	-9.59598
▁Xan	-9.59634
▁laureatı	-9.59858
im	-9.59868
▁etsə	-9.59879
▁klub	-9.59911
▁təsviri	-9.59985
▁1945	-9.60017
▁bilən	-9.60038
▁Alban	-9.60093
▁yarım	-9.60196
▁proqram	-9.60318
’	-9.60332
▁həftə	-9.60343
kən	-9.60373
▁sonlarında	-9.60397
▁İsrail	-9.60494
▁mənasını	-9.60508
▁yaratdığı	-9.6052
▁Təhsil	-9.60645
ması	-9.6066
▁övladı	-9.60665
▁yaşı	-9.60671
is	-9.60701
▁ərazilərdə	-9.60874
▁İndi	-9.60924
▁məsələ	-9.60927
▁görünür	-9.60977
▁akademik	-9.60981
▁formul	-9.60981
▁İbn	-9.60987
▁1974	-9.61144
▁düzgün	-9.61147
▁gələcək	-9.61177
▁təşkilat	-9.61239
▁xarakteri	-9.61337
dilli	-9.61396
▁1972	-9.61472
▁yarısında	-9.61573
▁Nazir	-9.61647
▁yaranan	-9.61648
▁gürcü	-9.61721
▁əvvəllər	-9.61757
▁Nyu	-9.61802
▁xanlığı	-9.61852
▁həkim	-9.61863
▁üst	-9.61891
▁səfər	-9.62043
▁Üz	-9.62103
▁Laçın	-9.62132
▁1981	-9.62154
▁asan	-9.62196
en	-9.6228
▁təcrübə	-9.62329
▁Dəniz	-9.62343
▁Onu	-9.62391
▁xilas	-9.62392
ün	-9.6246
▁Öz	-9.62492
iya	-9.62532
▁binası	-9.62565
▁Osman	-9.62651
▁üsyan	-9.62656
▁şöbə	-9.62677
▁əsərlərində	-9.62689
▁ürək	-9.62787
▁tarixinə	-9.62943
▁xəlifə	-9.62953
▁atəş	-9.62986
▁1996-	-9.631
▁sistemində	-9.63142
▁əməliyyat	-9.63201
▁bazar	-9.63221
▁çalışan	-9.63325
oloji	-9.63336
▁qazana	-9.63402
▁kitabxana	-9.63413
▁metal	-9.63413
▁ixtisas	-9.63425
▁1967	-9.63452
▁Ədəbiyyat	-9.63468
▁bilmədi	-9.6355
▁adlandırır	-9.63581
▁bil	-9.63591
aylarında	-9.63614
▁saxlanılır	-9.63674
▁2016-	-9.63813
▁əkinçilik	-9.63844
6	-9.63871
▁Rusiyada	-9.63987
▁sakin	-9.64007
▁Yaxın	-9.64122
▁İsa	-9.64183
▁tərkib	-9.64345
▁göstərirdi	-9.64424
▁şeir	-9.64448
▁Ya	-9.6445
▁1968	-9.64458
▁XVII	-9.64516
▁verilməsi	-9.64557
▁suyun	-9.64564
▁Allahı	-9.64601
▁görülü	-9.64682
▁35	-9.64739
▁yaranır	-9.64751
▁alına	-9.64754
▁qonşu	-9.64878
▁İmam	-9.64971
▁suyu	-9.65037
▁dünyasını	-9.65047
▁işləyir	-9.65166
▁hündürlüyü	-9.65177
▁Cavad	-9.65261
▁5-	-9.65274
mışdır	-9.65325
▁gümüş	-9.65336
▁yerləşdiyi	-9.65353
▁şahın	-9.65418
▁verildi	-9.65422
am	-9.65436
▁dilləri	-9.6545
▁əmri	-9.65545
▁həqiq	-9.6563
▁1978	-9.65644
▁U	-9.65657
▁məhsulları	-9.65662
▁etmə	-9.65831
▁Teatr	-9.65849
▁1938	-9.65866
▁ç	-9.65938
rajl	-9.65996
sına	-9.66032
▁Səfəvi	-9.66075
▁tayfasını	-9.66086
▁çıxıb	-9.66159
▁çərçivəsində	-9.66163
▁başqaları	-9.66238
▁al	-9.66272
▁Aleksandr	-9.66293
▁Kərim	-9.66293
▁Tibb	-9.66329
▁əvvəlində	-9.66377
▁vergi	-9.66434
▁bi	-9.66475
▁rejissoru	-9.66484
▁Respublikasında	-9.66502
məsi	-9.66542
▁kilsəsi	-9.66588
▁2000	-9.66626
▁nüvə	-9.66675
▁çevrilmişdi	-9.66694
▁80	-9.66728
ran	-9.66781
▁bina	-9.66786
▁bölgəsində	-9.66792
st	-9.66821
▁aparılır	-9.66876
▁bunları	-9.66907
▁formada	-9.66966
▁əsərin	-9.67196
▁şəkər	-9.67206
▁günəş	-9.67277
▁Babək	-9.67378
▁etməyi	-9.67427
▁1965	-9.67539
▁universitetin	-9.67539
▁silah	-9.67673
▁hörmət	-9.67702
▁filmində	-9.67948
▁fərqlənir	-9.68076
▁Akademi	-9.68139
▁başlamış	-9.68151
▁Qacar	-9.68202
▁tutdu	-9.68233
▁1976	-9.68235
▁ön	-9.68308
▁döyüşdə	-9.68329
▁Rejissor	-9.6841
▁milyard	-9.6841
▁xüsusiyyətləri	-9.68455
▁əlverişli	-9.68597
rhal	-9.68639
kənd	-9.68664
siyasi	-9.68765
▁qatı	-9.68909
▁Hələ	-9.68915
▁tarixə	-9.6907
▁ölkələri	-9.69093
▁çəkilmişdi	-9.69129
▁Su	-9.6922
▁1959	-9.6929
▁seçilmiş	-9.69292
▁Şirin	-9.69303
▁müəllif	-9.69331
▁şimalda	-9.69372
ğa	-9.69386
▁Rə	-9.69502
▁siyasət	-9.69536
▁cənubda	-9.69582
▁ara	-9.69607
▁hissələri	-9.6964
▁sənayesi	-9.69661
▁Bunlarda	-9.69672
▁təsərrüfat	-9.69716
▁nəzəriyyəsi	-9.69761
▁yaşayırdı	-9.69768
▁oynayır	-9.69773
▁Tarix	-9.69821
▁Federasiyası	-9.69839
▁erkə	-9.69855
▁Xocalı	-9.69904
zə	-9.69932
▁əleyhi	-9.7
▁sakinləri	-9.70015
▁səsi	-9.70194
▁orqanı	-9.70258
▁qərbdə	-9.70319
9	-9.70349
▁universitet	-9.7046
▁sərt	-9.70547
▁tikili	-9.7061
▁sənəti	-9.70704
▁Vaqif	-9.70715
▁xidməti	-9.70748
▁sənəd	-9.70828
▁torpaqları	-9.70834
▁Sabir	-9.70901
▁oluna	-9.71015
▁rəssam	-9.71045
▁alınması	-9.71055
▁keç	-9.71186
əslində	-9.71207
▁namizədi	-9.7124
▁1971	-9.71255
▁düşdü	-9.71262
▁ş	-9.71383
▁formasında	-9.71387
▁The	-9.71444
▁dollar	-9.71512
▁qalibi	-9.71514
▁Rəssam	-9.71616
▁ver	-9.71619
▁təhsili	-9.71624
4	-9.71708
▁1969	-9.71798
▁deputat	-9.71823
▁edilə	-9.71843
▁qismə	-9.71847
▁Ordubad	-9.71873
▁bilməz	-9.71974
▁sərhəd	-9.72143
▁rəqs	-9.72145
▁mühasirə	-9.72229
▁500	-9.72244
▁Partiyası	-9.72295
▁Əmək	-9.7235
▁Rusiyanı	-9.72418
▁kənarda	-9.72432
▁fizika	-9.72479
▁İranı	-9.72543
▁Prezident	-9.72636
▁xidmətləri	-9.72648
▁real	-9.72688
▁Con	-9.72707
▁nəhəng	-9.72711
▁özünəməxsus	-9.72712
▁şərqdə	-9.72793
▁Qubadlı	-9.72914
indən	-9.72927
▁Ma	-9.72963
▁qəzasını	-9.73011
▁səviyyədə	-9.73017
▁tarixçi	-9.73053
▁kim	-9.73065
▁Fəxr	-9.73075
▁taxıl	-9.73075
▁dəyişir	-9.73122
▁dərəcəsi	-9.73154
▁Tarixi	-9.73362
▁çoxsaylı	-9.73453
▁kənar	-9.73481
▁meyvə	-9.73769
▁vilayəti	-9.73769
▁Kəlbəcər	-9.73812
▁siyasəti	-9.73813
əksini	-9.73822
х	-9.7383
▁2009	-9.73846
başına	-9.73888
▁yerləri	-9.73944
▁Re	-9.74077
▁tezliklə	-9.74105
gah	-9.74172
▁Başqa	-9.74185
▁islam	-9.74259
▁ve	-9.74287
tik	-9.74311
▁qəza	-9.74333
▁Səlim	-9.74358
eyir	-9.74394
▁günə	-9.74488
▁dövrə	-9.74499
▁musiqisi	-9.74552
▁gedib	-9.74561
▁maddələr	-9.74571
▁kimyəvi	-9.74607
▁t	-9.74617
▁fərdi	-9.74786
▁alimlər	-9.74859
▁məqalə	-9.74874
▁müsbət	-9.74929
▁çempionu	-9.7495
▁1917-	-9.75079
▁İttifaqını	-9.7518
▁Dağlı	-9.75226
çay	-9.75321
▁alətləri	-9.75378
ikən	-9.75438
▁1946	-9.75499
▁dərəcəli	-9.75508
▁problemləri	-9.75584
▁üsulu	-9.75715
▁daşıyan	-9.7577
▁ton	-9.7577
▁1961	-9.75868
▁1940	-9.75869
▁tibbi	-9.75869
▁məqsəd	-9.75945
▁mütləq	-9.7606
▁əsərini	-9.76075
▁məlumatın	-9.76231
▁çevrildi	-9.76242
▁fakültəsində	-9.76295
▁Xüsusi	-9.76409
▁ayı	-9.76424
▁gündən	-9.76563
▁aparır	-9.76586
alnız	-9.76636
▁çəkilir	-9.76671
▁yaz	-9.7688
▁yerini	-9.76923
▁Türkiyəni	-9.77057
wiki	-9.77392
▁göstərdiyi	-9.77406
▁vermişdi	-9.77485
▁çəkir	-9.7752
çı	-9.77557
▁qəzetində	-9.77579
▁bölgə	-9.77742
▁yolla	-9.77829
▁1957	-9.77968
▁yara	-9.77994
▁vəzifəsini	-9.78054
▁hazırlanır	-9.78094
▁300	-9.78151
▁çıxmışdı	-9.78221
▁önəmli	-9.78222
▁VII	-9.7823
▁opera	-9.78327
▁ruslar	-9.78349
▁AMEA	-9.78354
▁qazanmışdır	-9.78525
▁Cekson	-9.78549
▁ətəyində	-9.78555
▁can	-9.78716
▁ehtiyat	-9.78741
▁komandanı	-9.78748
▁xalqı	-9.78804
larda	-9.78835
▁1966	-9.78936
bəri	-9.78949
▁keçirmək	-9.79053
▁vəzifələrində	-9.79111
▁İlham	-9.79132
▁tənqid	-9.7927
▁ayrılır	-9.79337
▁yanvarın	-9.79381
▁gil	-9.79408
larını	-9.79418
▁şöbəsini	-9.79488
▁yaradıldı	-9.79502
▁1963	-9.79523
▁çatdı	-9.79593
▁mal	-9.79622
▁hündür	-9.79692
▁müqaviləsi	-9.79739
ını	-9.79782
▁sonu	-9.79811
▁alt	-9.79842
▁heyəti	-9.79952
uş	-9.80006
▁xalqını	-9.80048
▁əlaqələr	-9.80088
▁1958	-9.80112
▁işləyən	-9.80114
▁Əl	-9.80194
▁Xaç	-9.80202
▁müsabiqə	-9.80204
▁1956	-9.80309
▁Filmdə	-9.80349
▁kompüter	-9.80372
▁şöhrət	-9.80424
▁Ad	-9.80433
▁XIII	-9.80469
▁təşkilatı	-9.80545
▁xüsus	-9.80545
▁alimi	-9.80612
rtıq	-9.80627
▁olmur	-9.80705
▁muğam	-9.80706
▁1937-	-9.8085
▁ruh	-9.80868
bəyli	-9.8096
üxtəlif	-9.81012
▁Arif	-9.81102
▁yurdu	-9.81207
▁tədbirlər	-9.81253
▁London	-9.81281
▁albomu	-9.81359
▁edildiyi	-9.81368
▁tərkibi	-9.81382
▁kütləsi	-9.81493
▁seçki	-9.81501
▁əməkdaşlıq	-9.81509
▁temperatur	-9.81533
▁özlərini	-9.81579
▁70	-9.81627
▁Səməd	-9.81628
▁yəhudi	-9.81665
▁sözlər	-9.8168
▁Polşa	-9.81706
▁İraq	-9.81706
▁Komitəsi	-9.81796
▁balıq	-9.818
▁kosm	-9.81814
▁keyfiyyət	-9.81832
▁getdi	-9.81885
▁Bizi	-9.81931
▁tapmışdı	-9.82009
▁Akademiyası	-9.82074
▁qazıntılar	-9.821
▁qoydu	-9.82105
▁danışır	-9.82106
▁keçirdiyi	-9.82135
▁Muğan	-9.82155
▁vuru	-9.8224
▁1964	-9.82303
▁olmaz	-9.82318
▁х	-9.82418
▁tayfaları	-9.82464
▁poçt	-9.8251
▁sahələrində	-9.82526
▁proqramı	-9.82562
▁mənə	-9.82585
▁Kuboku	-9.82618
▁top	-9.82633
qqəti	-9.82681
lük	-9.82694
▁redaktor	-9.82743
▁Ömər	-9.82788
▁Qarabağda	-9.8279
▁filmlərini	-9.82883
arası	-9.82892
▁dəstəsi	-9.82909
▁sahil	-9.82964
▁Cümhuriyyəti	-9.82977
▁məsələləri	-9.8301
▁ata	-9.83031
▁Şair	-9.83113
▁1944	-9.83118
▁bədən	-9.83119
▁Ölkəni	-9.83167
▁Birliyi	-9.83309
▁Əhalisi	-9.83356
▁orqanları	-9.83359
▁başçılığı	-9.83373
▁sərkərdə	-9.83425
▁üzündə	-9.83428
▁mərhələ	-9.83431
sən	-9.83433
▁qoyulmuşdu	-9.83503
▁göy	-9.83518
▁qaya	-9.83529
▁2018	-9.83549
▁Rüstəm	-9.83571
▁Braziliya	-9.836
▁edəcək	-9.83622
▁təmiz	-9.83732
▁divarları	-9.83748
▁dəyişikliklər	-9.83757
▁Mehmed	-9.83766
▁oynamışdı	-9.83879
▁təbəqə	-9.83888
▁Almaniyada	-9.83904
▁işləmiş	-9.83939
▁Mariya	-9.83978
▁ml	-9.84003
▁yaradıla	-9.84025
▁edil	-9.84039
▁Xəlil	-9.84083
▁əvəzin	-9.84102
▁təqvimi	-9.84132
ç	-9.84136
▁ailələr	-9.84235
▁Məclisin	-9.84303
▁şöbəsin	-9.84326
▁misal	-9.84384
▁kimya	-9.84404
▁çalışırdı	-9.84432
▁1921	-9.84509
▁olmadığı	-9.84545
▁inqilab	-9.84584
▁latın	-9.84587
▁Murad	-9.84599
▁mükafat	-9.84811
▁yaşlarında	-9.84904
▁vaxtlar	-9.85
▁1950-	-9.85135
▁Asiyada	-9.85163
▁pis	-9.85173
▁azadlıq	-9.85178
▁dəyişdiril	-9.8522
▁qalasını	-9.85225
▁etdirmək	-9.8524
▁Bunu	-9.85302
▁ermənilərin	-9.85369
▁bəziləri	-9.85393
▁etiraz	-9.85428
▁əlaqələri	-9.85474
▁parlament	-9.85498
▁kompleksi	-9.85515
▁qoymuşdu	-9.85606
▁Anadolu	-9.85613
lərini	-9.85644
▁XV	-9.85712
▁münasibəti	-9.85857
▁Yay	-9.85881
▁dekabrın	-9.85897
▁mərhələsində	-9.85921
▁məsələlər	-9.85926
▁çəki	-9.85936
▁Qaradağ	-9.86028
▁tip	-9.86091
▁gəl	-9.86134
▁tədric	-9.86205
▁adamlar	-9.86224
▁İl	-9.86249
▁ərazisini	-9.86269
▁indiyə	-9.86275
lərdə	-9.8628
larının	-9.86287
▁dram	-9.863
▁kon	-9.86372
▁müxbir	-9.86436
▁yetirmiş	-9.8653
mə	-9.86532
▁bulaq	-9.86559
▁giriş	-9.86583
▁Oğuz	-9.86654
▁vahidi	-9.86667
▁imza	-9.86729
▁fəlsəf	-9.86735
▁məsləhət	-9.86772
larla	-9.86791
▁hüquqi	-9.86802
▁bitir	-9.86932
▁tarixini	-9.87004
▁altın	-9.87012
▁olmağ	-9.8706
▁göstərdi	-9.87088
▁döyüşlərdə	-9.87122
▁imkanı	-9.87144
▁Tovuz	-9.87258
▁ibtidai	-9.87275
▁Televiziya	-9.87382
▁yürüş	-9.8743
▁sün	-9.87432
▁cəhd	-9.87473
▁Leyli	-9.87574
▁aktrisa	-9.87625
▁mövsümündə	-9.87659
▁başlamışdı	-9.8775
▁alınmış	-9.8781
▁manat	-9.87896
▁terrorçuları	-9.87924
▁gəmi	-9.87998
▁sırasında	-9.88016
▁bənzər	-9.88019
▁ardıcıl	-9.88064
▁abidəsi	-9.88099
▁təşəbbüsü	-9.8811
▁Rayonun	-9.88115
▁şöbəsi	-9.88163
▁mayın	-9.88199
▁diqqəti	-9.88219
birində	-9.88288
▁rayonlarında	-9.88329
▁arxa	-9.88472
▁ada	-9.88514
▁hakimiyyətini	-9.8853
▁10-	-9.88543
▁apardığı	-9.88547
▁xal	-9.88639
▁dağları	-9.8864
▁dinc	-9.88658
▁əsaslana	-9.8866
▁əhəmiyyəti	-9.88679
yla	-9.88701
▁Nəh	-9.88888
▁köməkçi	-9.88923
▁köçüb	-9.88979
▁çatmışdı	-9.88994
▁qəsəbəsi	-9.89125
▁evində	-9.89177
▁6-	-9.89189
▁olmalıdır	-9.89248
▁suda	-9.89248
▁adamları	-9.89256
▁uğurla	-9.89296
▁rəssamı	-9.89321
▁işini	-9.89336
▁xırda	-9.89347
▁minlərlə	-9.89352
▁hektar	-9.89355
▁İcra	-9.89397
▁görmək	-9.89509
▁halında	-9.8952
▁Tiflisdə	-9.89616
▁edər	-9.89653
▁sözündən	-9.89672
▁yaşıl	-9.89693
▁mineral	-9.89778
▁tayfası	-9.89807
▁gəlmək	-9.89809
▁Təbrizdə	-9.89812
▁1954	-9.8983
▁Qazaxıstan	-9.8983
▁başlandı	-9.89872
▁imperiyası	-9.89944
tə	-9.89949
▁1949	-9.90056
▁mənfi	-9.90057
▁vəzifə	-9.9025
▁Üç	-9.90265
▁1962	-9.90266
▁çıxardı	-9.90359
▁Ç	-9.90378
▁başında	-9.90383
▁qoşun	-9.90392
▁Pənah	-9.90488
▁1933	-9.90492
▁Gül	-9.90555
▁1975-	-9.906
▁2017-	-9.90647
▁silsiləsini	-9.90732
▁qrupunu	-9.90795
▁45	-9.9089
▁aprelin	-9.90952
▁kəndini	-9.91051
▁15-	-9.91091
▁quş	-9.91096
▁keçirildi	-9.91135
azil	-9.91152
▁Müharibə	-9.91188
▁1943	-9.91228
▁atasını	-9.91241
▁BMT	-9.91362
▁bilirdi	-9.91372
▁Gəncədə	-9.91391
▁ziyarət	-9.91392
▁sürgün	-9.91473
▁məhəbbət	-9.91481
▁Zeynal	-9.91529
▁Suriya	-9.91537
▁üzə	-9.91562
▁şeirlər	-9.917
▁bağ	-9.91711
▁Əsgər	-9.91738
▁istəyirdi	-9.91741
▁qalıb	-9.91805
▁Qasım	-9.91832
▁dilin	-9.91907
▁kinostudiyasın	-9.91923
▁el	-9.91939
▁Maykl	-9.92061
▁siyahıya	-9.92065
▁Dərbənd	-9.92071
▁1987-	-9.92152
▁çöl	-9.92183
▁Pir	-9.92303
▁abidələri	-9.92318
▁dənizin	-9.92335
▁hərəkatı	-9.92369
▁bildi	-9.92433
▁Midiya	-9.92475
▁qoşunu	-9.92518
va	-9.92593
▁paşa	-9.92634
▁Lenin	-9.92666
▁yemək	-9.92671
▁vurdu	-9.92696
▁Urmiya	-9.92723
▁daşı	-9.92877
çu	-9.92922
▁pedaqo	-9.92935
▁Ərdəbil	-9.93005
▁dərman	-9.93027
▁biləcək	-9.93106
▁İmperiyası	-9.93148
▁XII	-9.93231
▁32	-9.93233
▁ixtisası	-9.93272
▁Keçmiş	-9.93367
▁sözlərindən	-9.93419
▁mühafizə	-9.93429
gen	-9.93471
▁düşmüşdü	-9.93515
▁İngilis	-9.93618
raya	-9.93625
▁xalqların	-9.93659
▁olunduğu	-9.93723
▁yazılı	-9.93777
▁istəyir	-9.93893
▁1979-	-9.939
▁sentyabrın	-9.93937
▁adlandırıla	-9.94004
▁dördüncü	-9.94054
▁layihəsi	-9.94066
▁faydalı	-9.9407
▁qoşunlarını	-9.94085
▁heyətində	-9.94107
siya	-9.94181
▁tələbələr	-9.94295
nunla	-9.94323
▁parça	-9.94326
▁Salyan	-9.94508
▁1939	-9.94508
▁istedad	-9.94528
▁köç	-9.94569
us	-9.94576
▁sarı	-9.94614
▁7-	-9.9462
vənd	-9.94626
▁Baba	-9.94715
▁piyada	-9.94726
▁müqavimət	-9.94766
▁yaradılı	-9.94799
▁bitkilər	-9.94825
▁gücü	-9.94923
▁sənətini	-9.94926
▁heyətini	-9.94933
▁Abdulla	-9.94939
▁tutub	-9.94954
şərq	-9.95036
▁zərər	-9.95071
▁Qəhrəmanı	-9.95092
▁8-	-9.95141
▁fəaliyyətin	-9.95152
▁dillərini	-9.95187
▁Neftçi	-9.9523
▁tərzi	-9.95233
▁məsafədə	-9.95269
▁tərəfi	-9.95304
dığı	-9.95312
▁XI	-9.9538
▁müharibədə	-9.95397
▁2004	-9.95399
▁konsert	-9.95419
▁davamlı	-9.95486
▁qoyur	-9.9564
▁hökmdar	-9.9564
əni	-9.9566
▁xəstəlik	-9.95701
▁Mənim	-9.95741
▁peşəkar	-9.95773
▁keçib	-9.95778
▁vətəndaş	-9.95799
▁gətirən	-9.958
▁Novruz	-9.95873
▁qadağan	-9.95931
▁noyabrın	-9.96028
▁kişilər	-9.9603
▁9-	-9.96177
▁tutmuşdu	-9.96205
▁məğlubiyyət	-9.96267
▁jurnalist	-9.96286
▁oktyabrın	-9.96286
▁işğalı	-9.96305
▁təlim	-9.9633
▁Pedaqo	-9.96335
▁Davud	-9.96335
▁qazanıb	-9.96336
▁nəqliyyat	-9.96366
▁Şərqdə	-9.96368
▁ərazilər	-9.96429
▁İstanbulda	-9.96472
▁Sən	-9.96489
▁mükəmməl	-9.96572
▁Krım	-9.96605
▁Fransada	-9.96611
▁1986-	-9.96652
▁müəssisəsi	-9.96665
▁Demə	-9.96719
▁deyilən	-9.96752
▁dəri	-9.9679
▁Tanrı	-9.96854
▁xanlığını	-9.9688
mi	-9.96941
▁statusu	-9.97159
▁cəmiyyəti	-9.97231
▁2006	-9.97266
▁eramız	-9.97267
▁mülayim	-9.97269
▁cinsi	-9.97411
▁məktub	-9.97427
▁1941-	-9.9744
▁hadisələri	-9.97483
▁Futbol	-9.975
▁tutulur	-9.97561
▁Onlarda	-9.97577
▁əsgər	-9.97649
▁sərf	-9.97653
▁müddəti	-9.97661
▁Stalin	-9.97743
▁birləşdirən	-9.97747
▁1982-	-9.97804
▁sürətli	-9.97861
▁yaradıcılığında	-9.9799
▁Qriqori	-9.98045
▁xüsusiyyətlərin	-9.98075
▁quberniyası	-9.98091
▁tutulmuş	-9.98118
▁dağı	-9.98185
▁Səid	-9.98208
▁orijinal	-9.98218
ında	-9.98222
▁yağ	-9.98268
▁yerlər	-9.98295
▁XIV	-9.98306
▁Ordu	-9.98307
▁Tərtər	-9.98443
▁Məcnun	-9.98487
▁həcm	-9.98556
▁Azərbaycanı	-9.98599
▁oyunu	-9.98646
▁ха	-9.98712
▁1983-	-9.98721
▁martın	-9.98772
▁çatan	-9.9881
▁ta	-9.98855
▁olduqları	-9.98992
▁qurmuşdu	-9.99015
▁Gədəbəy	-9.99046
▁Daş	-9.99049
▁ərazini	-9.9911
▁həcmi	-9.9911
▁işlənmiş	-9.99195
slim	-9.99197
▁oğulları	-9.99207
▁qayıdır	-9.9922
▁türklərin	-9.99292
▁filologiya	-9.99338
▁Radio	-9.99394
▁sığorta	-9.99407
▁münasibətləri	-9.99442
▁həyatın	-9.9955
▁olmaması	-9.99565
▁cəmiyyət	-9.99606
▁Təşkilatı	-9.99627
▁əksinə	-9.99632
▁möhtəşəm	-9.99636
▁keçirən	-9.99636
▁xaric	-9.99655
▁çayları	-9.99671
kret	-9.99685
▁çalışmış	-9.99734
▁məkan	-9.99774
▁növbədə	-9.99872
▁Daxil	-9.99873
▁1936	-9.99882
▁okean	-9.99919
▁şəhid	-9.99997
▁açılır	-10.0005
▁məsafə	-10.0005
▁yüngül	-10.0011
xəli	-10.0012
▁əkin	-10.0027
▁paytaxt	-10.0027
▁Xosrov	-10.0032
▁keçid	-10.0032
▁gənclər	-10.0033
▁Dağıstan	-10.0036
▁maldarlıq	-10.0051
▁yuxarıda	-10.0054
▁mənbələr	-10.0057
▁2008	-10.0062
▁emalı	-10.0065
▁hazırlana	-10.0072
▁artması	-10.0074
▁medal	-10.0074
▁yerlərində	-10.0075
▁saxlamaq	-10.0087
▁mövzu	-10.0088
▁inkişafın	-10.0092
▁dəstələri	-10.0095
▁Gənclər	-10.0102
▁problemlər	-10.011
▁futbolçu	-10.0114
▁məni	-10.0116
▁Hava	-10.0116
▁eni	-10.0116
▁bulağı	-10.0117
▁cəbhə	-10.0118
▁Qafqazı	-10.0119
▁Ümum	-10.0125
▁gölü	-10.0132
▁of	-10.0132
▁Əfəndiyev	-10.0133
▁məskunlaşması	-10.0136
▁İşlər	-10.0146
▁səviyyəsi	-10.0149
▁arası	-10.0154
▁Ankara	-10.0157
▁evdə	-10.0162
ot	-10.0162
▁1973-	-10.0164
▁olanlar	-10.0172
▁heyvanlar	-10.0173
▁Çempion	-10.018
▁yumurta	-10.0181
▁1942	-10.0183
▁arvadı	-10.0186
▁bilərdi	-10.0191
▁jurnalı	-10.0196
▁işarə	-10.02
▁oxşar	-10.0201
▁qrupun	-10.0202
▁90	-10.0205
▁demişdi	-10.0207
▁təzyiq	-10.0209
ta	-10.021
vər	-10.0212
aq	-10.0218
▁hamı	-10.0218
▁1947	-10.0231
▁həlli	-10.0233
▁Ölkədə	-10.0235
▁mənbəyi	-10.0244
▁mədəniyyətini	-10.0244
▁etmir	-10.0246
▁mü	-10.0247
▁Ana	-10.0249
▁kral	-10.0252
▁məntəqəsini	-10.0253
▁xalqlarının	-10.0256
▁verə	-10.0262
▁1985-	-10.0263
▁işlərini	-10.0265
▁fəhlə	-10.0276
▁mane	-10.0277
▁istisna	-10.028
▁çayın	-10.0283
▁əraziləri	-10.0286
▁Şahzadə	-10.0288
▁aktiv	-10.0292
▁səthi	-10.0297
▁dəstək	-10.0303
▁Zəngəzur	-10.0304
▁fasilə	-10.0304
▁axır	-10.0311
▁istiqamətdə	-10.0311
▁torpaqlar	-10.0312
▁EA	-10.0316
▁hərəkəti	-10.0316
liklə	-10.0317
▁müstəqilliyini	-10.0319
▁oğlan	-10.032
darma	-10.0323
▁Məlik	-10.0327
üstü	-10.0328
▁satış	-10.033
▁müzakirə	-10.0336
▁Tehran	-10.0337
▁Kitab	-10.0342
▁qardaşları	-10.0348
▁bitirmiş	-10.0349
▁Nə	-10.0351
▁şəraitində	-10.0354
▁həmsərhəd	-10.0354
▁Zəngi	-10.0354
▁materialları	-10.0367
qları	-10.0367
▁proses	-10.0369
▁getdik	-10.0371
▁zərbə	-10.0371
▁abidələr	-10.0373
▁tutmuş	-10.0375
▁peyğəmbər	-10.0376
▁saxlaya	-10.0379
▁1923	-10.038
rədd	-10.0381
▁qəzetini	-10.0383
▁adamı	-10.0398
▁romanı	-10.0403
▁qoyun	-10.0405
▁VI	-10.041
▁oğlunu	-10.0412
▁xarakter	-10.0413
▁33	-10.0414
▁qiymət	-10.0428
▁ölçü	-10.0429
▁sürəti	-10.043
▁Nərimanov	-10.0432
▁gördü	-10.0436
kü	-10.0441
▁bildirdi	-10.0442
▁münasibətlər	-10.0442
▁150	-10.0443
▁Ələkbər	-10.0449
▁məskunlaşmış	-10.0449
▁etdirdi	-10.0451
▁ümum	-10.0455
▁dolu	-10.0457
▁Şirvanşah	-10.0466
▁məişət	-10.0467
▁mütəxəssis	-10.0473
▁İctimai	-10.0479
▁şəhərləri	-10.048
▁nəzəri	-10.0482
▁verili	-10.049
ant	-10.0493
▁yaş	-10.0494
▁fakültəsin	-10.0496
almağa	-10.0498
▁1955	-10.0505
▁zamanlarda	-10.0506
▁adaları	-10.0507
▁yağış	-10.0508
▁mövzusu	-10.0511
▁1953	-10.0512
▁Demokrati	-10.0515
▁radio	-10.0515
▁salınmış	-10.0518
▁19-	-10.052
▁Müdafiə	-10.053
▁cənubunda	-10.0537
▁fikri	-10.0539
▁uşaqları	-10.0547
▁Universitetin	-10.0553
▁göstərib	-10.0556
▁Əsl	-10.0558
▁tədqiqatçılar	-10.056
▁Şuşada	-10.0567
▁öyrənilməsi	-10.0578
▁yolunda	-10.0583
▁başı	-10.0585
▁sədr	-10.0586
▁Qurbanov	-10.0586
▁olmadan	-10.0592
▁səyahət	-10.0603
▁Abdullayev	-10.0607
▁müstəqillik	-10.0614
▁tədqiqi	-10.0614
▁materiallar	-10.0619
▁Şirvanşahlar	-10.062
▁yadda	-10.063
▁görüb	-10.0632
▁müvə	-10.0632
▁özləri	-10.0634
▁nazir	-10.0636
▁kv	-10.0637
▁zamanlar	-10.064
▁çıxması	-10.0641
▁şərti	-10.065
▁formalı	-10.0659
▁kq	-10.0674
▁alma	-10.0674
▁bölgədə	-10.0677
▁tapılmış	-10.0681
▁Universitet	-10.0681
▁Fondun	-10.0687
▁iştirakçısı	-10.0689
▁bölgələrində	-10.0697
▁divar	-10.0698
▁sinif	-10.0699
▁qüvvələr	-10.0703
▁IX	-10.0711
▁bilərlər	-10.0714
▁maarif	-10.0716
▁şahzadə	-10.0727
▁qalanın	-10.0734
▁Kommunist	-10.0735
▁xarakterik	-10.0736
ey	-10.074
▁güc	-10.074
perator	-10.0745
▁qəsəbəsində	-10.0756
▁Bəyazid	-10.0761
▁Norveç	-10.077
▁Partiyasını	-10.0773
▁sahillərində	-10.0781
amp	-10.0784
▁Talış	-10.0787
▁Bağırov	-10.0788
▁etdiyini	-10.0796
▁bacısı	-10.08
▁aralı	-10.08
▁insanları	-10.0803
▁VIII	-10.0804
▁1922	-10.0804
es	-10.0808
▁iyunun	-10.0812
▁telefon	-10.0818
▁xaricdə	-10.0818
▁şimalında	-10.082
▁qüvvəsi	-10.0822
▁stansiyası	-10.0824
▁Uşaq	-10.083
qərb	-10.0838
▁Çingiz	-10.0839
▁idarəetmə	-10.084
▁element	-10.0841
adi	-10.0841
▁ikisi	-10.0846
▁ili	-10.0848
▁rabitə	-10.0849
▁Elm	-10.0854
▁Çar	-10.0854
▁kök	-10.086
▁dildə	-10.0861
ür	-10.087
▁adası	-10.0883
▁mahalını	-10.0887
▁təchiz	-10.089
▁türklər	-10.089
▁yük	-10.0892
▁Təbii	-10.0894
əvi	-10.0895
▁mərasimi	-10.0899
nu	-10.0903
▁filmlər	-10.0906
▁Bax	-10.0906
▁sahələrdə	-10.0907
▁Kamal	-10.0919
▁istilik	-10.0919
▁Həyat	-10.0921
▁alınır	-10.0934
▁Sara	-10.0936
▁ölkəsi	-10.0942
▁terror	-10.0943
▁narahat	-10.0944
▁Messi	-10.0944
▁boz	-10.0944
▁olmasa	-10.0945
▁qoyulmuş	-10.0948
▁fevralın	-10.0954
▁müsabiqədə	-10.0956
▁rütbəsi	-10.0957
▁türbəsi	-10.0961
▁doğulmuşdu	-10.0964
▁təzə	-10.0965
oğlu	-10.0966
▁Zaqatala	-10.0967
▁sistemin	-10.0967
▁İdman	-10.097
▁axşam	-10.0971
▁sözlərin	-10.0974
▁dərk	-10.0979
▁fikirlər	-10.0988
▁tikintisi	-10.0996
▁1934	-10.0998
▁dövlətlər	-10.0998
▁nəsli	-10.1003
▁istəyən	-10.1007
▁məşqçi	-10.1011
▁ehtiyac	-10.1013
▁Almaniyanı	-10.1016
▁filmin	-10.1017
vasitə	-10.102
▁Ağayev	-10.1026
▁yarandı	-10.1029
▁bayram	-10.103
▁Qasımov	-10.1031
▁xidmətlərin	-10.1031
▁göstərilə	-10.1035
▁nəsil	-10.104
▁qat	-10.1041
▁Aslan	-10.1045
▁üzüm	-10.1046
▁Osmanlılar	-10.1046
▁şəhərlərində	-10.105
▁Ssenari	-10.105
▁ibadət	-10.105
▁2005	-10.1057
▁yolları	-10.1059
inki	-10.1063
▁atı	-10.1064
▁sözlə	-10.1068
▁1948-	-10.1068
▁istənil	-10.1077
▁teatrı	-10.1096
▁Azər	-10.1098
▁ölümü	-10.1104
▁Goran	-10.1104
▁Sənaye	-10.1104
▁Babayev	-10.1105
▁vətən	-10.1109
▁Yunan	-10.1113
▁klubun	-10.1115
▁yaratmış	-10.1116
▁sən	-10.1123
▁adət	-10.1125
▁2010	-10.114
▁rəngdə	-10.1141
caq	-10.1142
▁Kral	-10.1149
▁Əsər	-10.1154
▁ət	-10.1154
▁Alman	-10.1157
▁Karl	-10.116
▁yağı	-10.1171
▁istər	-10.1171
▁namaz	-10.1173
▁Fransız	-10.1178
▁şəxslərin	-10.1179
▁hadisələrin	-10.1185
▁tüstü	-10.1185
▁Göyçay	-10.1186
▁ayrıla	-10.1187
▁seçilə	-10.1193
▁medalı	-10.1199
▁ilində	-10.1199
▁tipi	-10.1201
▁adlandırılır	-10.1205
▁Qurban	-10.1206
▁Ara	-10.1211
▁ö	-10.1212
▁dostu	-10.1222
▁1977-	-10.1222
▁istədi	-10.1223
▁temperaturu	-10.1238
▁Yəhya	-10.1239
▁aparmaq	-10.1239
▁Pakistan	-10.1239
▁gətirdi	-10.1246
▁Bala	-10.1252
▁xəstə	-10.1256
▁qorunması	-10.1262
▁12-	-10.1264
▁ədəbiyyatını	-10.1265
▁Sosialist	-10.1266
▁avqustun	-10.1268
▁İli	-10.1269
▁qoruyu	-10.1274
▁tələbələrin	-10.1281
▁qoyulur	-10.1282
ğu	-10.1284
▁mədəniyyətin	-10.1285
▁şəraiti	-10.129
▁boş	-10.1294
▁səciyyəvi	-10.1294
onlarla	-10.1295
▁Yaqub	-10.1298
sinə	-10.13
▁adlanırdı	-10.1307
▁mərkəzləri	-10.1314
▁tərcüməçi	-10.1315
▁zəruri	-10.132
▁xətt	-10.132
▁Nəsrəddin	-10.1321
▁məlumatları	-10.1322
▁düzəli	-10.1322
▁dövlətlərin	-10.1333
▁nümayəndə	-10.1339
▁albom	-10.134
▁komandiri	-10.1348
▁kvadrat	-10.1348
▁doğulu	-10.1348
▁məbədi	-10.1354
▁məzmun	-10.1355
▁anlayışı	-10.1355
▁nəzarəti	-10.1359
dü	-10.1366
▁qapısı	-10.1366
▁FİFA	-10.1376
▁ərəfə	-10.1376
▁Cavid	-10.1376
▁istirahət	-10.1376
▁qabiliyyəti	-10.1377
▁О	-10.1377
▁Çay	-10.1381
▁təmir	-10.1401
▁alimləri	-10.1402
▁qablar	-10.1406
▁yeraltı	-10.1406
▁qəhrəman	-10.1409
▁saxlayır	-10.1416
▁bölgəsi	-10.1417
▁1926	-10.1417
▁2007	-10.1417
▁bitkilərin	-10.142
▁Müəllif	-10.1431
▁Təhmasib	-10.1431
▁Vəli	-10.1432
▁cərəyan	-10.1434
▁xəstəliyi	-10.1437
▁vaxtlarda	-10.1439
▁1925	-10.1443
▁layihə	-10.1457
▁formaları	-10.1459
▁məsələsi	-10.1461
▁1924	-10.1461
▁Teatrını	-10.1462
lərinə	-10.1467
D	-10.1467
▁riyaziyyat	-10.1471
▁kompleks	-10.1472
▁1906	-10.1477
▁vaxtında	-10.148
▁turizm	-10.1482
▁Məclisi	-10.1483
▁Nəcəf	-10.1484
▁mərhələsi	-10.1489
▁Dağ	-10.1493
▁nəh	-10.1499
▁yarada	-10.1501
▁x	-10.1502
▁çəkili	-10.1503
▁Atropatena	-10.1515
boy	-10.1516
▁38	-10.1516
▁1932	-10.1516
▁dairəvi	-10.1518
▁and	-10.1518
▁təyyarə	-10.1518
▁işin	-10.1519
▁dəstəyi	-10.1527
▁nəslin	-10.1529
▁Hind	-10.1541
▁Orada	-10.1541
▁nümunə	-10.1546
▁türkləri	-10.1551
▁bərk	-10.1555
▁seçili	-10.1555
▁Amerikada	-10.1561
▁İsveçrə	-10.1564
▁demokrati	-10.1565
▁şəbəkə	-10.1566
▁nəslindən	-10.1569
▁doktorlu	-10.1572
▁yazılır	-10.1572
▁direktor	-10.1584
▁müəssisələri	-10.1586
▁işçisi	-10.1593
▁istiqamət	-10.1603
▁gərək	-10.1604
▁deyirdi	-10.1608
▁imperiyasını	-10.1621
▁dağlar	-10.1623
lanır	-10.1626
▁nəvəsi	-10.1627
▁Bəhram	-10.1627
dağ	-10.1631
▁keçirib	-10.1632
▁Hacıyev	-10.1637
▁Şəhəri	-10.1642
▁məqsədlə	-10.1643
124	-10.1649
diyi	-10.1651
▁filmdə	-10.1658
▁Bəzə	-10.166
▁Parisdə	-10.1664
▁400	-10.1667
▁qəzası	-10.1667
▁mükafatın	-10.1668
xan	-10.168
▁rayonları	-10.1682
▁sözün	-10.1684
▁uşaqların	-10.1684
,5	-10.1684
▁olmay	-10.1687
▁məscidin	-10.1712
▁qoyub	-10.1713
▁edildikdə	-10.1719
▁1984-	-10.1721
▁hüquqları	-10.1723
▁kitabın	-10.1724
▁kənarında	-10.1726
▁şəxsin	-10.173
iç	-10.1731
▁Naxçıvanda	-10.1742
▁nəql	-10.1743
▁Fransanı	-10.1743
▁Ey	-10.1744
▁bitkiləri	-10.1746
▁şahı	-10.1749
kləri	-10.1751
▁nömrə	-10.1754
▁yayılması	-10.1763
▁bəstəkarı	-10.177
▁olmasın	-10.1774
▁məqalələr	-10.1775
▁mövqeyi	-10.1775
▁planet	-10.1776
▁ayaq	-10.1778
▁xahiş	-10.1779
▁1000	-10.1782
▁bilməyə	-10.1782
▁sənətkar	-10.1786
▁səhv	-10.1792
▁Əsli	-10.1796
▁öldürüldü	-10.1798
▁1952	-10.1799
▁səmərəli	-10.1801
▁təklifi	-10.1803
▁şəxsə	-10.1806
▁TV	-10.1807
▁düşmüş	-10.1808
▁çəkdiyi	-10.1811
▁şəraitdə	-10.1812
▁zalı	-10.1813
bəyov	-10.1816
▁aparılması	-10.1817
▁Nikolay	-10.1818
▁rəqəm	-10.1818
▁fərmanı	-10.1821
▁elementlərin	-10.1826
▁Avqust	-10.1827
▁Şərur	-10.1827
▁səh	-10.1829
▁tapılmışdı	-10.183
▁ərəblər	-10.183
▁professoru	-10.1839
▁müsəlmanlar	-10.1839
▁36	-10.1844
▁düşü	-10.1847
▁sarayı	-10.1847
▁çəkən	-10.1856
▁qorumaq	-10.1859
az	-10.1861
▁qüvvələrin	-10.1862
▁toplaya	-10.1864
▁Kərimov	-10.1869
▁seçildi	-10.187
▁gəldiyi	-10.1872
▁sarayında	-10.1875
▁məntəqələri	-10.1877
▁kanalı	-10.1882
▁Cahangir	-10.1882
▁doqquz	-10.1885
▁Belçika	-10.1886
▁1929	-10.1887
▁oynaya	-10.1891
pol	-10.1892
▁gündəlik	-10.1893
▁razı	-10.1899
▁muzey	-10.1902
cıl	-10.1903
▁mahnıları	-10.1904
asiya	-10.1906
▁Corc	-10.1915
▁Mustafayev	-10.1917
▁çəkildi	-10.1918
▁MK	-10.1918
▁antik	-10.1918
▁havada	-10.1919
▁edilməsində	-10.1925
▁olmadığını	-10.1925
▁yazıları	-10.1928
▁şeirləri	-10.193
▁işlərində	-10.193
▁Fars	-10.1941
▁hökumətin	-10.1943
▁adında	-10.1944
▁işlərin	-10.1946
▁Qandi	-10.1948
▁Teatrı	-10.1952
▁xas	-10.1957
▁millət	-10.1959
▁şəhərə	-10.1959
▁aşıq	-10.196
▁təpə	-10.1966
▁çıxarır	-10.1968
▁Berlin	-10.1968
əşhur	-10.1969
▁Qarabağı	-10.1972
▁nöqtəsi	-10.1973
▁1914	-10.1973
te	-10.1977
▁əfsanə	-10.198
▁klubunu	-10.1993
▁getmiş	-10.2
▁1931	-10.2003
▁ustası	-10.2008
▁kafedrasın	-10.201
▁mülki	-10.2012
dünya	-10.2022
▁50-	-10.2022
▁əməl	-10.203
▁Qusar	-10.2031
▁istefa	-10.2031
▁bal	-10.2032
▁siz	-10.2034
▁42	-10.2041
▁ailələrin	-10.2051
birini	-10.2055
▁yüzil	-10.206
▁şam	-10.2062
▁hökm	-10.2063
▁dövri	-10.2078
▁təsəvvür	-10.208
▁texnika	-10.208
▁idarəsi	-10.2082
▁birlik	-10.2084
▁Sakit	-10.2091
▁dövlətləri	-10.21
▁region	-10.2101
▁1905-	-10.2104
əzəm	-10.2107
▁ittifaq	-10.2109
York	-10.2111
▁vəzifədə	-10.2114
▁gələcəkdə	-10.2114
▁yazıb	-10.2116
▁prinsipi	-10.2118
▁Əfəndi	-10.2119
▁riyazi	-10.212
▁edam	-10.2121
▁iqlimi	-10.2125
▁qəhrəmanı	-10.2126
▁işləməy	-10.2132
▁örtülü	-10.2133
miz	-10.2133
▁mövqe	-10.2134
▁Xoca	-10.2136
▁şirkət	-10.214
▁mədrəsə	-10.214
▁Kaliforniya	-10.215
▁hesabın	-10.2158
▁normal	-10.2159
▁ətrafı	-10.2162
▁Komissiyası	-10.2165
▁Partiya	-10.2173
▁boya	-10.2174
ttifaq	-10.2175
▁götürür	-10.218
rü	-10.2183
▁rəngi	-10.2185
▁Həsənov	-10.2186
▁ərazisin	-10.2195
əlinə	-10.2196
▁alimlərin	-10.2201
▁tut	-10.2204
▁Opera	-10.2208
▁özəl	-10.2209
▁Şəmkir	-10.221
▁ordunu	-10.2212
▁gəldikdə	-10.2213
▁torpaqlarını	-10.2214
do	-10.2221
▁kralı	-10.2222
▁keçə	-10.2224
▁Na	-10.2225
▁kərpic	-10.2229
▁imperatoru	-10.2233
▁qəti	-10.2235
▁yaradan	-10.2235
▁nəzəriyyə	-10.2235
▁1992	-10.2259
▁34	-10.2263
▁Rami	-10.2263
van	-10.2267
bulaq	-10.227
▁san	-10.2276
ium	-10.2285
▁ağacı	-10.2287
▁xəstəliyin	-10.2288
▁vəzifəsi	-10.2294
tədqiqat	-10.2296
▁Yerin	-10.2299
▁İsmayılov	-10.23
▁məcburiyyətində	-10.23
ala	-10.2303
▁inqilabı	-10.2311
▁alındı	-10.2313
▁İdarə	-10.2314
▁2002	-10.2322
▁qapı	-10.2323
▁nömrəl	-10.2326
▁cüt	-10.2326
▁sultanı	-10.2328
▁anda	-10.233
▁Bəstəkar	-10.233
▁Kiyev	-10.2331
▁şeyi	-10.2332
▁verməyə	-10.2341
▁istifadəsi	-10.2346
▁diqqətini	-10.2347
▁iyulun	-10.2349
▁ssenari	-10.2351
▁May	-10.2354
▁k	-10.2356
▁polis	-10.2358
▁etməli	-10.2361
▁Bolqarıstan	-10.2361
▁banisi	-10.2361
▁babası	-10.2367
▁aşağıdakılar	-10.2374
▁irsi	-10.2375
▁torpaqların	-10.2376
▁yaradıcı	-10.2377
▁jurnalını	-10.2384
▁tunc	-10.2391
▁kodu	-10.2396
▁rolları	-10.2396
▁nəticələr	-10.24
▁&#	-10.2415
▁bildirmişdi	-10.2418
▁qarışıq	-10.242
▁1951	-10.2422
▁əbədi	-10.2423
▁Əbülfə	-10.2424
▁şəkil	-10.2429
▁etdirmiş	-10.2436
▁Müəllimlər	-10.2442
▁çoxunu	-10.2445
▁Əziz	-10.2448
▁ziyalı	-10.2451
▁təbliğ	-10.2451
▁gəlin	-10.2462
▁araşdırmalar	-10.2469
▁maye	-10.247
▁edənlər	-10.2471
▁1935	-10.2471
▁danışıl	-10.2476
▁Nəriman	-10.248
▁şirin	-10.2482
▁yaradılır	-10.2484
▁qadınların	-10.2485
▁deyirlər	-10.2486
▁bol	-10.2486
▁1928	-10.2486
▁diplomu	-10.2487
▁qazanır	-10.2492
▁əsna	-10.2493
▁а	-10.2502
▁ədəbiyyatında	-10.2504
▁varlı	-10.2507
▁17-	-10.2513
▁va	-10.2514
▁İnformasiya	-10.2514
ter	-10.2514
▁düşməni	-10.2516
▁öyrənmək	-10.2517
▁nizam	-10.2523
▁heyvanların	-10.2523
▁qəhvə	-10.2525
▁illəri	-10.2531
▁görmüşdü	-10.2534
▁İqtisadi	-10.2534
▁bayramı	-10.2536
▁sürə	-10.2541
fa	-10.2544
▁İskəndər	-10.2545
▁Vladimir	-10.2545
▁Eldar	-10.2546
▁mə	-10.2559
▁xüsusiyyəti	-10.2561
▁azərbaycan	-10.2562
▁münasibət	-10.2563
şad	-10.2567
▁məktəbə	-10.2568
▁Təbrizi	-10.2573
▁barəsində	-10.2576
▁mövsüm	-10.2578
▁salmış	-10.2581
▁əlaqəsi	-10.2586
▁Dil	-10.2589
▁Avstraliya	-10.259
▁c	-10.2596
▁xalqlar	-10.2603
▁ərazilərində	-10.2604
▁Şura	-10.2605
▁məhrum	-10.2607
▁italyan	-10.2607
▁Leninqrad	-10.2607
▁mahnılar	-10.2616
▁təqib	-10.2618
▁monqol	-10.2626
▁Hindistanda	-10.2632
▁məktəblər	-10.2633
▁yaradıcılığını	-10.2633
▁sağlam	-10.2638
▁nəfərə	-10.2639
▁institutun	-10.2646
▁dillər	-10.2649
▁məhsuldar	-10.2651
▁mahalı	-10.2652
▁mühit	-10.2655
▁faciə	-10.2656
▁sahələr	-10.2663
▁yarısı	-10.2664
şərqdə	-10.2664
▁səviyyə	-10.2668
▁Qaraqoyunlu	-10.2669
▁...	-10.267
▁Sankt	-10.267
▁rəmzi	-10.267
▁16-	-10.2682
▁birləşmələri	-10.2683
▁uşağı	-10.2685
▁açır	-10.2688
▁Mo	-10.2697
fi	-10.2699
▁sabit	-10.2701
▁sizin	-10.2706
▁kəndlərdə	-10.2707
▁haqqı	-10.2711
▁maşın	-10.2714
▁surəsi	-10.2714
▁ailəsini	-10.2718
dağın	-10.272
lığında	-10.2722
▁yolda	-10.2726
▁qurulması	-10.2727
▁könüllü	-10.273
yasət	-10.2733
▁feodal	-10.2733
▁1912	-10.2734
ul	-10.2741
▁qüvvələrini	-10.2745
▁ştatı	-10.2746
▁lat	-10.2749
▁sinir	-10.2752
▁yüksəklikdə	-10.2759
▁zamanında	-10.2765
▁oynayı	-10.2766
▁azı	-10.2767
▁tuturdu	-10.2768
▁mərhələdə	-10.2771
▁fəth	-10.2771
dəmir	-10.2772
▁planı	-10.2775
▁material	-10.2776
▁obrazı	-10.2787
▁şəhərlərdə	-10.279
▁işdə	-10.2791
▁hazırlıq	-10.2795
▁Fələstin	-10.2796
▁Hüquq	-10.2796
▁ölçülü	-10.2797
▁sair	-10.2798
▁durur	-10.2799
▁göndərdiyi	-10.2799
▁Astara	-10.2803
▁çarı	-10.2806
▁hekayə	-10.2808
▁model	-10.2809
▁adamların	-10.2809
▁mənbələrində	-10.2814
▁müddətində	-10.2818
▁çiçək	-10.2826
▁Vurğun	-10.2828
▁Madrid	-10.2828
▁Türkmənistan	-10.2828
▁Koroğlu	-10.2828
▁örtüyü	-10.2835
▁əsilli	-10.2836
▁dəyərli	-10.2837
▁çempionatın	-10.2838
▁yataqları	-10.2839
▁Bayram	-10.2847
▁Yunanıstan	-10.2848
▁formalaşmasın	-10.2851
▁müşayiət	-10.286
▁Qorqud	-10.286
▁Üçüncü	-10.286
▁Fərhad	-10.286
▁Argentina	-10.2861
▁imkanları	-10.2863
adiq	-10.2865
▁bölmə	-10.2865
▁Bunları	-10.2867
▁getmək	-10.2869
▁vilayətində	-10.2873
▁hücumu	-10.2876
▁qonaq	-10.2878
▁qurulmuşdu	-10.2881
çisi	-10.2883
et	-10.2883
▁xarakterli	-10.2887
▁nümunəsi	-10.289
▁kitabları	-10.2892
▁sülaləsi	-10.2894
▁şurası	-10.2902
biri	-10.2902
▁içki	-10.2903
▁yaxındır	-10.2904
▁keçirili	-10.2908
▁xoş	-10.2909
▁zə	-10.2916
▁uc	-10.2923
▁götürüb	-10.2924
▁sahili	-10.2924
▁qoyuldu	-10.2925
▁daşlar	-10.2925
▁əmisi	-10.2926
▁hazırlamaq	-10.2927
▁sayını	-10.2928
▁problem	-10.2929
▁Misirdə	-10.2935
▁yazmış	-10.2938
şən	-10.2944
ralıq	-10.2946
▁roman	-10.295
▁tayfalar	-10.295
▁toy	-10.2951
▁Tədqiqatçılar	-10.2957
▁Yardım	-10.2957
▁Gürcüstanı	-10.2959
▁qurulan	-10.2961
lıqla	-10.2964
sallı	-10.2964
▁37	-10.2973
▁salınmışdı	-10.2974
▁Mars	-10.2978
▁ispan	-10.2978
▁gələ	-10.2978
▁1927	-10.2988
uq	-10.2988
laşdırılması	-10.2989
▁bürünc	-10.2989
▁Aydın	-10.2989
▁pambıq	-10.299
▁rəvayət	-10.299
▁qərbində	-10.2993
▁28-	-10.2996
▁dönəmində	-10.2996
▁hədiyyə	-10.3002
▁tərbiyə	-10.3004
▁Müsabiqəsi	-10.3006
▁qohum	-10.3011
▁türbə	-10.3019
▁vəhşi	-10.3021
▁Ağqoyunlu	-10.3022
gün	-10.3022
▁Rəsulzadə	-10.3023
▁Sarı	-10.3039
▁iqtisadiyyatı	-10.304
▁əxlaq	-10.3041
▁Koreya	-10.3048
▁minilliy	-10.3054
▁coğrafiya	-10.3055
▁Vəzirov	-10.3056
▁yarandığı	-10.3057
▁bəzək	-10.306
▁göndərir	-10.3063
▁cild	-10.3065
▁üslub	-10.3073
▁çalış	-10.3073
▁qəbir	-10.3076
▁əsaslanır	-10.3079
▁İş	-10.3081
▁Əhalisini	-10.3087
g	-10.3088
▁mübarizədə	-10.3089
▁xəstəxana	-10.3094
əsən	-10.3094
▁dissertasiyası	-10.3099
ıb	-10.3103
▁Kilsə	-10.3105
▁təhlükəli	-10.3107
▁tamaşalar	-10.3109
▁tutula	-10.3113
▁Özbəkistan	-10.312
▁ölçüsü	-10.312
▁təmsilçisi	-10.3121
▁görünə	-10.3121
▁simvolu	-10.3125
▁məcburi	-10.313
▁yazılar	-10.3136
▁Ağca	-10.3138
▁arı	-10.3139
▁öyrənir	-10.3141
▁Bəy	-10.3141
▁problemi	-10.3144
▁qəzasında	-10.3146
▁yaranı	-10.3146
lərə	-10.315
▁yurd	-10.3151
axşı	-10.3152
▁the	-10.3152
▁Robert	-10.3152
▁yağıntı	-10.3153
▁Növbə	-10.3153
▁fon	-10.3155
▁tar	-10.3159
▁lideri	-10.317
▁vasitə	-10.3171
▁jurnalında	-10.3173
▁Rəşid	-10.3184
▁Gürcüstanda	-10.3185
▁termini	-10.3189
▁Yazıçı	-10.3191
▁bank	-10.3192
▁təşkili	-10.3199
▁mütəxəssislər	-10.32
▁tapır	-10.3203
▁eli	-10.3207
▁xalqları	-10.3209
▁qərarın	-10.3211
▁şübhə	-10.3217
▁obrazlar	-10.3219
▁dostluq	-10.3219
▁kompozisiya	-10.3227
▁tərəfdarları	-10.3229
▁istərs	-10.3238
▁çevrilmiş	-10.3239
▁birliyi	-10.3249
▁dosent	-10.3263
▁qazanmış	-10.3265
▁Afrikada	-10.3268
▁vilayətini	-10.3269
▁qaça	-10.327
▁qaydaları	-10.3277
▁60-	-10.3277
▁olun	-10.3279
▁2003	-10.3283
▁1915	-10.3285
▁Latın	-10.3286
may	-10.3289
▁populyar	-10.3291
▁arxasında	-10.3294
▁keçməsi	-10.3296
▁Xorasan	-10.3297
▁ittiham	-10.3318
▁Əkbər	-10.3319
▁üsyanı	-10.3332
▁tökülü	-10.3336
▁gündə	-10.3344
▁yerləşdirilmiş	-10.3351
▁Cəlal	-10.3352
▁Lerik	-10.3352
▁məhsul	-10.3353
▁ifaçısı	-10.3356
▁döyüşü	-10.3357
▁jurnal	-10.3358
▁verməsi	-10.3359
▁döyüşündə	-10.3361
▁11-	-10.3363
▁polkovnik	-10.3365
▁ri	-10.3368
▁vilayət	-10.3371
▁yığma	-10.3378
▁dağını	-10.3386
▁Şəfi	-10.3386
▁Gülüstan	-10.3386
▁1916	-10.3386
▁enerjisi	-10.3387
▁mənşəyi	-10.3394
▁sarayın	-10.3397
▁ni	-10.3399
▁25-	-10.3408
▁səbəblər	-10.3412
▁vasitələri	-10.3416
▁adlarını	-10.3417
▁qruplar	-10.3418
▁Barselona	-10.3419
▁kəndlərin	-10.342
▁işlədiyi	-10.3421
▁həqiqətən	-10.343
▁yerləşmiş	-10.343
bədi	-10.3432
▁1907	-10.3438
▁kitabını	-10.3439
▁çal	-10.3444
▁Ayrı	-10.3445
▁Finlandiya	-10.3453
▁Makedoniya	-10.3453
▁Oktyabr	-10.3453
▁efir	-10.3453
▁Atlantik	-10.3454
▁ziyan	-10.3455
tay	-10.3456
▁yaradıcısı	-10.346
▁məktəbləri	-10.3465
▁baha	-10.3466
j	-10.3473
▁Van	-10.3473
▁zonasında	-10.3479
ax	-10.3484
▁Sosial	-10.3487
▁Yeddi	-10.3488
▁qayıtdı	-10.3488
▁haqq	-10.3491
▁imperator	-10.3492
▁De	-10.3497
▁təhlükə	-10.3503
▁Macarıstan	-10.3504
▁təxmin	-10.3505
▁zavodu	-10.3506
▁incə	-10.3507
lanan	-10.351
▁18-	-10.3518
▁Məlum	-10.352
▁etsin	-10.3522
▁Qobustan	-10.3525
▁bütöv	-10.3526
▁ulduzu	-10.3534
S	-10.3535
qar	-10.3543
▁emal	-10.3549
▁Müsəlman	-10.3549
▁Dəmir	-10.3555
▁Borçalı	-10.3556
▁təşkilatın	-10.3556
▁Məmmədquluzadə	-10.3556
▁şərqində	-10.3557
▁44	-10.3557
▁çəkmək	-10.3563
▁g	-10.3565
▁əlaqəli	-10.3568
▁işlə	-10.3572
▁qəzetin	-10.3572
▁Sasanilər	-10.3577
▁tamaşaçı	-10.358
▁Abbasov	-10.3582
▁Kazım	-10.3585
btidai	-10.3587
▁şagird	-10.3588
▁kafedrası	-10.359
▁göl	-10.359
▁məsul	-10.359
▁Tağıyev	-10.359
qara	-10.3592
▁aktrisası	-10.3599
▁Əvvəlcə	-10.3602
▁müvəffəqiyyətlə	-10.3605
▁Tək	-10.3608
▁faktlar	-10.3608
▁sərəncamı	-10.3611
▁keçirmiş	-10.3612
▁75	-10.3613
▁nəticələri	-10.3615
göl	-10.3616
▁istinad	-10.3618
son	-10.3619
▁istəyi	-10.3626
▁Ərazi	-10.3626
▁peşə	-10.363
unda	-10.363
▁Siyas	-10.363
▁iç	-10.3632
▁Bakını	-10.3633
▁Müsabiqə	-10.3635
▁ilahi	-10.3637
▁komponent	-10.364
▁saldı	-10.3642
▁şərh	-10.3643
▁institut	-10.3645
▁İnternet	-10.3651
▁sona	-10.3651
▁80-	-10.3658
ıq	-10.3659
▁Kipr	-10.3659
▁təntənə	-10.3659
▁Sezar	-10.3659
▁cavan	-10.3659
▁təqdir	-10.366
▁sevgi	-10.3663
▁Qarayev	-10.3665
▁Peyğəmbər	-10.3669
▁çağırış	-10.3671
xa	-10.3677
sk	-10.3677
▁Məktəbin	-10.3681
▁açılışı	-10.3687
▁uca	-10.3689
▁salır	-10.3689
▁tərəvəz	-10.3691
▁Venesiya	-10.3694
▁Göyçə	-10.3694
▁duz	-10.3697
▁Azərbaycanlı	-10.3699
▁məhdud	-10.3704
▁inkişafını	-10.3707
▁ekran	-10.3707
▁Cəmil	-10.371
▁Güne	-10.3711
▁daşları	-10.3713
▁səhnəsində	-10.3714
▁təzyiqi	-10.3715
▁tapa	-10.3721
▁Ordusu	-10.3722
▁varis	-10.3728
▁Napoleon	-10.3729
▁Millət	-10.3729
▁Əhmədov	-10.3729
▁fövqəl	-10.3729
▁mün	-10.373
▁kəsi	-10.373
▁düzündə	-10.3733
▁şərab	-10.374
▁əsərlərin	-10.374
▁keçirilmişdi	-10.3742
▁Mənbələr	-10.3743
▁Manna	-10.3745
üksək	-10.3748
▁çempionatı	-10.3748
▁öldürmüş	-10.3754
▁evin	-10.3755
▁olardı	-10.3756
▁w	-10.3756
▁bütövlük	-10.3759
▁Siz	-10.3763
suz	-10.3764
▁Danimarka	-10.3764
▁Mingəçevir	-10.3764
ası	-10.3765
ək	-10.3774
▁səhər	-10.3778
▁komandasını	-10.3778
▁səthində	-10.3785
▁oxumuşdu	-10.3789
▁bilmişdir	-10.3794
▁1908	-10.3805
▁uzanır	-10.3812
▁ndə	-10.3813
tərəfl	-10.3813
▁tayfaların	-10.3814
▁sənətkarlıq	-10.3822
▁kitablar	-10.3825
▁Tahir	-10.3834
▁beyin	-10.3834
▁çatmış	-10.3835
▁edilməsini	-10.3836
▁qurdu	-10.384
▁diametri	-10.3845
▁övladları	-10.3845
▁dahi	-10.3847
▁dü	-10.3847
▁məlumatı	-10.3848
▁hərəkatını	-10.385
▁Qar	-10.3852
▁Qız	-10.3857
▁texnologiyası	-10.3859
▁Nazi	-10.3861
iv	-10.3862
▁siyasətini	-10.3866
▁vali	-10.3871
▁vəsaiti	-10.3881
▁Qum	-10.3882
▁sayılırdı	-10.3884
▁dənizində	-10.3887
▁soyqırım	-10.3887
▁1910	-10.3889
▁keçirmişdi	-10.3896
▁görmə	-10.3897
▁Qa	-10.3897
▁re	-10.3901
▁birləşdirir	-10.3901
▁maksim	-10.3905
▁nəfəs	-10.3905
▁Rzayev	-10.3907
bt	-10.3909
▁soyqırımı	-10.3909
▁başda	-10.3909
▁Müsabiqəsində	-10.3911
▁musiqisini	-10.3914
▁əsərdə	-10.3921
▁məktəblərində	-10.3921
▁memar	-10.3921
▁dostları	-10.3923
qərbdə	-10.3923
▁toponimi	-10.3928
▁bilik	-10.3929
▁San	-10.3929
▁çıxara	-10.3935
▁Ev	-10.3938
▁bəzədilmiş	-10.3941
▁texnikası	-10.3949
▁sistemləri	-10.3953
▁burda	-10.3968
▁günah	-10.3969
▁muzeyi	-10.397
▁süvari	-10.3971
▁Pyotr	-10.3976
▁Altay	-10.3976
▁şəbəkəsi	-10.3978
▁məhsulu	-10.3983
▁strate	-10.3994
▁yollar	-10.4002
▁fikrini	-10.4008
▁süd	-10.4009
ləndirilməsi	-10.4011
▁100-	-10.4011
▁dağətəyi	-10.4012
▁gətirdiyi	-10.4014
ster	-10.4014
▁tərəfin	-10.402
▁məşqçisi	-10.4022
▁yetirir	-10.4025
liyə	-10.4029
▁alması	-10.403
▁Qars	-10.4034
▁14-	-10.4036
▁Albaniyası	-10.4047
▁Coğrafi	-10.4048
▁Aktyor	-10.4048
▁http	-10.4048
▁qoca	-10.4048
▁təxəllüsü	-10.4048
▁1991	-10.4048
▁250	-10.4049
mız	-10.405
▁bax	-10.4053
▁silsiləsi	-10.4054
▁texnologiyaları	-10.4057
▁yun	-10.4072
▁problemlərin	-10.4073
▁qurulmuş	-10.4079
▁sərhədləri	-10.4082
▁la	-10.4083
▁Meksika	-10.4084
▁tünd	-10.4084
▁əziyyət	-10.4084
▁camaat	-10.4085
▁qışla	-10.4085
ük	-10.4086
▁psixolo	-10.4091
▁məşğuldur	-10.4092
▁məbəd	-10.4096
larından	-10.4097
lənir	-10.4103
nik	-10.4107
▁Adil	-10.4108
▁it	-10.4108
▁qorxu	-10.4112
▁gəmisi	-10.4115
P	-10.4116
sının	-10.4119
▁iqtisadiyyatın	-10.4121
▁sənədlər	-10.4128
▁qatıldı	-10.4134
▁Gör	-10.4142
▁mədə	-10.4144
▁birləşmiş	-10.4148
ski	-10.4152
▁reklam	-10.4157
▁Hollandiya	-10.4157
▁aralarında	-10.4158
▁buradan	-10.4159
ğlu	-10.4161
▁əsgərləri	-10.4174
▁un	-10.4185
▁alətlər	-10.4186
▁başlanmışdı	-10.4187
▁bilmək	-10.419
▁Kafka	-10.4193
▁yaşayıb	-10.4193
▁lirik	-10.4193
▁etməkdə	-10.4198
▁600	-10.4199
▁inşaat	-10.4201
▁adlar	-10.4203
▁əri	-10.4204
▁nöqtə	-10.4211
nü	-10.4214
▁üsul	-10.4215
▁Şahma	-10.4224
▁Rəhim	-10.4225
▁müvəffəqiyyət	-10.4227
▁buğda	-10.423
namə	-10.4231
▁Alp	-10.4233
para	-10.4234
▁həyatda	-10.4238
▁ixtira	-10.4241
▁maddələrin	-10.4263
▁əşyalar	-10.4265
▁əməliyyatı	-10.4266
▁Rumıniya	-10.4267
▁Ham	-10.4269
▁ulu	-10.4269
▁Londonda	-10.427
▁prosesində	-10.4272
ros	-10.4273
▁döyüşə	-10.4274
▁poetik	-10.4275
▁cəmiyyətdə	-10.4278
▁Kamil	-10.428
▁İdarəsi	-10.4283
▁danışıqlar	-10.4284
▁namazı	-10.4285
▁Qadın	-10.4286
▁mexanik	-10.4298
ətən	-10.4304
▁Maraqlı	-10.4304
▁Əfqanıstan	-10.4306
▁orden	-10.4308
▁zabit	-10.4311
▁əməkdaşları	-10.4312
▁fəaliyyətində	-10.4317
▁hala	-10.4319
▁Şirvani	-10.4319
za	-10.432
▁mahnını	-10.4323
▁yazılmışdı	-10.4323
▁qardaş	-10.4325
▁Mü	-10.4327
▁göndərilir	-10.4327
▁xaç	-10.4331
▁f	-10.4336
▁1913	-10.4341
▁Şamil	-10.4341
▁işində	-10.4342
▁Təhlükəsizli	-10.4346
▁Mirzəyev	-10.4349
▁faizi	-10.4351
▁Daşkənd	-10.4356
▁hissi	-10.4358
▁Liqası	-10.4359
▁obyekti	-10.4363
▁universiteti	-10.4365
▁quruluşunu	-10.4367
▁Həbib	-10.4378
▁Müsavat	-10.4378
▁Balet	-10.4378
▁sənin	-10.4382
▁bilmə	-10.4389
▁etdirilir	-10.4391
▁düşüncə	-10.4396
▁ümid	-10.4398
▁iqtisadiyyat	-10.4401
▁İbrahimov	-10.4407
▁Kubokunu	-10.441
▁Səfi	-10.4412
▁Ələsgər	-10.4412
▁addım	-10.4413
▁39	-10.4419
▁yüzlər	-10.4419
ologiya	-10.4419
▁Milad	-10.442
▁alət	-10.442
▁şəxsiyyət	-10.4421
▁Ermənilər	-10.4429
▁mənbə	-10.4433
▁Tbilisi	-10.4438
▁payız	-10.4451
▁hazırlanmasında	-10.4452
▁qab	-10.4454
çülü	-10.4458
▁müəssisə	-10.4458
▁basqın	-10.4461
▁açılması	-10.4462
qala	-10.4462
▁bərpası	-10.4465
▁orqanizmin	-10.4467
▁ayə	-10.4469
▁çəkisi	-10.4473
▁geyim	-10.4473
▁aləti	-10.4481
▁Rəsul	-10.4485
▁Quran	-10.4486
▁ordusunda	-10.4488
▁Şotlandiya	-10.449
▁nazik	-10.449
▁Şəms	-10.449
▁satir	-10.4491
▁ipək	-10.4492
▁qoymuş	-10.4492
▁tapmaq	-10.4494
▁səhiyyə	-10.4496
larına	-10.4501
▁hesabla	-10.4505
▁Se	-10.4507
▁Sur	-10.451
▁apardı	-10.4511
dar	-10.4513
▁gərgin	-10.4518
▁ərzaq	-10.4518
bir	-10.452
▁bölgələrdə	-10.4522
▁bayrağı	-10.4523
mental	-10.4528
▁Mükafatı	-10.453
▁işləni	-10.4538
▁suları	-10.454
▁köçmüş	-10.4541
▁binalar	-10.4545
ari	-10.4547
▁Bağdad	-10.4548
▁xanımın	-10.4554
▁Çində	-10.4561
▁zirvəsi	-10.4566
▁video	-10.4566
▁Ağdaş	-10.4566
▁düzənlik	-10.4575
▁qazıntı	-10.4576
▁partiyası	-10.4578
▁xalçaları	-10.4581
▁halın	-10.4582
▁xadimləri	-10.4585
şar	-10.4587
▁diplomati	-10.4588
▁məskən	-10.459
çısı	-10.4596
▁Al	-10.4598
▁filialı	-10.4603
▁yaradıb	-10.4604
▁ənənələri	-10.4604
▁Stad	-10.4604
▁120	-10.4605
▁qum	-10.4607
▁Le	-10.4609
▁olmamışdı	-10.461
▁qüdrət	-10.4613
▁limanı	-10.4628
▁ləqəbi	-10.4633
▁fəsiləsin	-10.4638
▁şahmat	-10.464
tar	-10.4641
•	-10.4642
▁iyirmi	-10.4642
▁rəqib	-10.4653
▁Ön	-10.466
▁inşası	-10.4668
▁Sibir	-10.4672
▁araşdırma	-10.4675
▁Vyana	-10.4681
▁adlanmış	-10.4685
▁xanəndə	-10.4686
▁hüceyrə	-10.4689
▁ölçüləri	-10.469
▁od	-10.469
▁Kərbəlay	-10.4691
▁daşıyırdı	-10.4694
▁təcrübəsi	-10.4694
▁13-	-10.4697
▁Anadoluda	-10.4698
▁Marağa	-10.4699
▁rahat	-10.47
▁münasibətlərin	-10.4709
▁katib	-10.4709
▁bələdiyyə	-10.471
▁elementlər	-10.4711
▁başlanı	-10.4714
▁imperiya	-10.4714
▁Ziya	-10.4715
▁ox	-10.4718
▁Bakıxanov	-10.4719
▁Mikayıl	-10.4719
▁Məktəbi	-10.4719
▁konfrans	-10.4719
▁ixrac	-10.4722
▁sim	-10.4724
▁qızları	-10.4728
▁bilmirdi	-10.4729
▁Hüseynzadə	-10.4731
▁ömür	-10.4736
▁cinayət	-10.4741
▁ocağı	-10.4747
▁mübadiləsi	-10.4747
▁beşin	-10.4749
▁Çələbi	-10.4749
▁miqyas	-10.4755
▁yollarını	-10.4756
▁sürət	-10.4757
▁Merkuri	-10.4757
▁intellekt	-10.4757
▁kəndlərində	-10.4758
▁ehtiyatları	-10.4759
▁etməlidir	-10.4759
▁körpü	-10.4759
▁Babil	-10.476
▁müttəfiq	-10.4761
▁Fi	-10.4774
▁sinfi	-10.4781
▁Şəhərdə	-10.4785
▁işlənir	-10.4785
▁Paşanı	-10.4789
▁məclis	-10.479
▁sizə	-10.479
▁bazası	-10.4794
▁Heç	-10.4796
▁Serbiya	-10.4796
▁bilsin	-10.4797
▁ayrılmış	-10.4807
▁Qış	-10.4811
▁70-	-10.4813
▁Cüm	-10.4814
▁zonası	-10.4818
▁açı	-10.482
▁65	-10.4821
▁ingilislər	-10.4833
▁plan	-10.4835
▁becəril	-10.4835
▁düşərgə	-10.4835
▁Portuqaliya	-10.4835
▁yerləşməsi	-10.4836
▁bilərsiniz	-10.4837
▁bəlli	-10.4839
▁əlifbası	-10.4841
▁1998	-10.4841
▁təh	-10.4847
▁aparmışdı	-10.4856
▁Dədə	-10.4863
▁ortasında	-10.4864
▁ged	-10.4866
▁təsirini	-10.4871
▁Köhnə	-10.4874
▁Müstəqil	-10.4874
▁İldırım	-10.4874
ce	-10.4876
▁dəhşətli	-10.4879
▁Sultanov	-10.4881
▁Ələkbərov	-10.4883
▁gəlirdi	-10.4889
▁əzələ	-10.489
▁kağız	-10.4901
▁dağlarını	-10.4902
yar	-10.4906
▁faiz	-10.4908
▁şeylər	-10.4913
▁birləşməsi	-10.4922
▁sufi	-10.4926
qanlı	-10.4927
▁sual	-10.4927
▁2001	-10.4933
▁hazırlığı	-10.4937
▁çempionatını	-10.4938
uz	-10.4938
▁rəğbət	-10.4939
buk	-10.4942
▁ayına	-10.4942
▁keçmək	-10.4943
kcə	-10.4943
▁Konservatoriya	-10.4946
▁Yanvar	-10.4953
▁aparıb	-10.4953
▁İlyas	-10.4956
▁İnstitutun	-10.4961
ent	-10.4962
▁hakimiyyətdə	-10.4962
▁bölməsi	-10.4964
▁kafedra	-10.4964
▁qılınc	-10.4967
▁həddə	-10.4967
▁illiyi	-10.4968
▁qanunları	-10.4968
▁Səd	-10.4973
▁Oyunları	-10.4984
▁hündürlükdə	-10.499
▁oxuduğu	-10.4992
▁qurğu	-10.4993
▁atom	-10.4994
▁uzanan	-10.4994
▁İsfahan	-10.4998
▁poeziya	-10.5002
▁dayanır	-10.5004
▁Dünyada	-10.5005
▁mühitin	-10.5005
▁şiə	-10.5009
▁Məmmədova	-10.5017
▁oyunçu	-10.5023
▁sıxlığı	-10.5025
axan	-10.5028
▁formasını	-10.5029
▁Həqiqət	-10.5032
▁Tesla	-10.5032
▁suvarma	-10.5032
▁quruldu	-10.5032
▁etdirdiyi	-10.5034
▁1989	-10.504
▁Quru	-10.504
▁yerin	-10.5044
▁nəşri	-10.5046
▁praktik	-10.5048
▁məzmunu	-10.5049
▁et	-10.5053
▁oranı	-10.5055
▁fakt	-10.5062
▁qrupları	-10.5063
▁bər	-10.5065
▁azadlığı	-10.5065
▁kitabxanası	-10.5065
▁təbabət	-10.5072
▁deyib	-10.5073
▁Texnik	-10.5077
▁ölkəsində	-10.508
▁vəziyyətini	-10.5082
▁vermə	-10.5085
▁dəyişən	-10.5093
▁tanrısı	-10.51
▁mövcudluğu	-10.5101
▁komissiyası	-10.5102
▁1911	-10.5108
▁43	-10.5111
▁möcüzə	-10.5112
▁ulduzlar	-10.5112
▁ehtiyacı	-10.5112
▁Qəzet	-10.5113
▁publisist	-10.5114
▁çətinliklər	-10.5115
▁görülə	-10.5115
▁molla	-10.5117
▁Beş	-10.5117
▁Bina	-10.5118
▁oynamış	-10.5123
▁Sasani	-10.5127
▁mərkəzlərində	-10.5134
▁kəşfiyyat	-10.5143
▁Venera	-10.5152
▁vəsiqə	-10.5152
▁yad	-10.5154
▁səhra	-10.5155
▁40-	-10.5158
▁1993	-10.5161
▁qalın	-10.5161
▁1999	-10.5161
▁axını	-10.5164
▁çıxmaq	-10.5166
▁Muzeyin	-10.5167
▁üstü	-10.5168
▁aparmış	-10.5171
▁Təbiət	-10.5171
▁bildirə	-10.5172
▁əla	-10.5175
▁qadının	-10.5178
▁şirkətini	-10.5179
▁taleyi	-10.5181
▁partiyasını	-10.5182
▁xəbəri	-10.5182
▁oymağı	-10.5184
▁Memar	-10.519
▁edirəm	-10.519
▁Cəmiyyəti	-10.5191
▁Yevlax	-10.5192
▁Kürd	-10.5192
▁gözəllik	-10.52
▁Mark	-10.5201
▁fərqlənmə	-10.5203
▁Bədi	-10.5204
▁yaranma	-10.5207
▁günün	-10.5209
▁məhsullarını	-10.5209
vari	-10.5213
▁Əliyeva	-10.5213
▁məsələlərin	-10.522
▁əşyaları	-10.5223
▁vəsait	-10.5225
▁oxuya	-10.5226
▁rəsm	-10.5229
▁köçəri	-10.5231
▁gətirmişdi	-10.5231
▁idarəsində	-10.5232
▁binanı	-10.5232
▁talış	-10.5233
▁Abidə	-10.5233
▁monoqrafiya	-10.5239
▁800	-10.5251
▁Gəncəvi	-10.5258
▁uğursuz	-10.5266
▁sentyabrında	-10.527
▁içmə	-10.5272
▁qaranlıq	-10.5274
▁sahibdir	-10.5275
qu	-10.5275
ulla	-10.5282
▁sırada	-10.5283
▁bilməmişdi	-10.5284
▁Cəfərov	-10.529
▁dəyişiklik	-10.529
▁46	-10.5292
▁şəkli	-10.5293
▁hamısını	-10.5293
▁elementləri	-10.5295
▁məskəni	-10.5306
▁göstərə	-10.5309
▁şəhərlər	-10.5311
▁Bank	-10.5314
▁Beyləqan	-10.5314
▁Kəngərli	-10.5314
▁Xətai	-10.5314
▁olmayıb	-10.5315
▁dəyişdi	-10.5316
▁formalaşması	-10.5316
ıx	-10.5321
▁1990	-10.5324
▁rayonda	-10.5325
▁filmlərin	-10.5326
▁başını	-10.5329
▁cins	-10.5333
▁Papa	-10.5334
▁hissələrində	-10.5337
▁fəlsəfəsi	-10.5337
▁ka	-10.5338
▁universitetləri	-10.5341
ka	-10.5345
▁görülür	-10.5348
▁tanrı	-10.5351
▁Nəsimi	-10.5355
▁Xınalıq	-10.5355
▁Tunc	-10.5355
▁Dadaşov	-10.5357
▁sənətin	-10.5357
▁göstərməyə	-10.5358
to	-10.5361
▁arta	-10.537
▁l	-10.5372
▁dövrümüzə	-10.5373
▁qiyməti	-10.5375
▁otağı	-10.5387
▁seçmə	-10.5393
▁Kabineti	-10.5393
imi	-10.5393
▁əhəmiyyətini	-10.5395
▁qayıda	-10.5395
▁ora	-10.5397
▁dəqiqədə	-10.5399
▁silsilə	-10.54
▁Demokrat	-10.5405
▁tələbələri	-10.5409
▁əsərlərindən	-10.5412
▁solo	-10.5412
▁tutulmuşdu	-10.5413
▁qalınlığı	-10.542
▁varlıq	-10.542
▁öt	-10.5421
▁Ailə	-10.5428
▁ömrü	-10.5432
▁proqramlar	-10.5436
▁səth	-10.5436
▁Qan	-10.5437
▁hicri	-10.5437
▁futbolçusu	-10.544
▁xadim	-10.5444
▁olma	-10.5445
▁ənənə	-10.5447
▁müdafiəsi	-10.5448
▁qa	-10.5454
▁vuran	-10.5463
▁çıxarıla	-10.5464
▁orqan	-10.5466
▁səfiri	-10.5467
▁olmadı	-10.5468
▁məs	-10.5469
▁göstərici	-10.5471
isey	-10.5471
▁Sadıq	-10.5472
▁Ulduz	-10.5478
▁Cahan	-10.5479
▁qələbəsi	-10.5479
▁bildirilir	-10.548
▁Nuru	-10.5482
▁olunmasında	-10.5482
▁balaca	-10.5483
▁edilməli	-10.5497
▁İngiltərədə	-10.5498
▁sank	-10.5499
▁tapıla	-10.5503
▁gedə	-10.5509
▁hissələr	-10.551
▁martında	-10.5516
▁diplomat	-10.552
▁Qısa	-10.5521
▁klubunda	-10.5521
▁ölü	-10.5525
▁Qazi	-10.5529
▁olmağı	-10.553
▁qiymətləndiril	-10.5533
▁Məhəmmədh	-10.5534
▁bölgəni	-10.5538
▁aşağıda	-10.5538
▁istiqaməti	-10.5541
▁ayırır	-10.5543
▁səy	-10.5545
▁oktyabrında	-10.555
▁pay	-10.5562
▁sahələrini	-10.5562
▁etmədi	-10.5562
▁meşələr	-10.5563
▁Rusiyası	-10.5569
üstə	-10.5572
▁Cümhuriyyətini	-10.5572
▁komitəsi	-10.5573
▁Adı	-10.5577
▁fərq	-10.5581
▁uça	-10.5583
▁qorunu	-10.5585
▁artırmaq	-10.5591
▁fərqi	-10.5594
▁məsuliyyət	-10.5595
▁dolları	-10.5597
bər	-10.5597
▁yararlı	-10.5605
▁bağlanmış	-10.5605
lay	-10.5609
▁sülaləsini	-10.561
▁fikirləri	-10.5612
▁oyunları	-10.5613
▁nəzər	-10.5614
▁görüş	-10.5621
▁rollar	-10.5624
▁ünvanı	-10.5626
▁ifadəsi	-10.5632
▁olunmaq	-10.5633
▁qul	-10.5637
▁yetirə	-10.5637
▁istədiyi	-10.5638
müddətli	-10.5641
▁təbiətin	-10.5642
əlkə	-10.5646
▁göndərildi	-10.5647
▁məmulatı	-10.5648
▁keçirməyə	-10.565
▁götürmüşdü	-10.5651
▁həndəs	-10.5652
▁mahalında	-10.5663
▁məktəblərdə	-10.5664
▁Kar	-10.5665
▁məlumatların	-10.5666
▁mağara	-10.5669
▁komponentlərin	-10.5676
▁yazmaq	-10.5676
▁48	-10.5676
▁üstə	-10.5677
▁kapitan	-10.5689
▁Kuba	-10.5689
▁yaşına	-10.569
▁küçə	-10.569
▁işlədilir	-10.5691
▁bəyan	-10.5698
▁bü	-10.57
▁sakit	-10.5704
▁məqalələri	-10.5714
▁versiya	-10.5718
▁proqramları	-10.5719
▁gördüyü	-10.5722
▁qoyula	-10.5723
▁səfəri	-10.5726
▁təbiəti	-10.5728
ğın	-10.5734
▁mavi	-10.5734
▁yürüşü	-10.5735
▁yığması	-10.5736
▁Məktəb	-10.5745
▁Milan	-10.5749
▁mahnısını	-10.5757
▁qolunu	-10.5762
▁çıxışı	-10.5763
▁ərəbcə	-10.5769
▁General	-10.5774
▁doğum	-10.5775
▁maqnit	-10.5775
▁Məryəm	-10.5775
▁dura	-10.5788
▁əsgəri	-10.5795
▁gözü	-10.5799
▁etməkdədir	-10.5815
▁çıxa	-10.5815
▁rəngarəng	-10.5817
▁Röv	-10.5817
▁xəstəliklərin	-10.5817
▁mövqeyini	-10.5818
▁Fondu	-10.582
▁bala	-10.5821
▁ağacları	-10.5822
▁biləcəyi	-10.5823
▁şirkətin	-10.5828
▁pedaqoq	-10.5828
ut	-10.583
▁Heyəti	-10.5831
▁26-	-10.5831
▁evləri	-10.5836
▁Ata	-10.5837
▁bəxş	-10.5846
▁planetin	-10.5851
le	-10.5851
▁şüşə	-10.586
▁qlobal	-10.586
▁bitirən	-10.5861
▁lent	-10.5861
▁Zaman	-10.5862
▁Vəliyev	-10.5862
▁oynadığı	-10.5862
▁alçaq	-10.5863
▁çaylar	-10.5865
▁gücünü	-10.5869
▁rejimi	-10.587
▁Ondan	-10.5872
▁mükafatını	-10.5873
▁1996	-10.5875
▁Əlizadə	-10.5882
▁öldürülmüşdü	-10.589
▁oyunun	-10.5899
▁Federa	-10.5899
▁Ağstafa	-10.5904
▁zəmin	-10.5904
▁günlərdə	-10.5909
▁xəstəliklər	-10.5913
▁boru	-10.5913
çıq	-10.5913
▁versiyası	-10.5915
▁səma	-10.5917
▁dövrlər	-10.592
▁55	-10.5922
▁respublikada	-10.5924
▁47	-10.5926
▁dekabrında	-10.5927
Peterburq	-10.5928
▁simfoni	-10.5928
▁avtomat	-10.5929
▁təkan	-10.5932
▁xəttini	-10.5933
▁1900	-10.5933
▁günlərində	-10.5943
çuluq	-10.5949
▁modeli	-10.5951
▁Bi	-10.5954
▁başlanması	-10.5955
▁təhsilin	-10.5957
▁yanaşma	-10.5957
▁xəbərdar	-10.596
▁xalçalar	-10.5963
▁müharibələri	-10.5969
▁bilərik	-10.5972
▁şa	-10.5975
▁təhlil	-10.598
▁sümük	-10.5982
urizm	-10.5983
▁komandanlığı	-10.5984
▁27-	-10.5984
▁bilmişdi	-10.5985
▁Vahid	-10.5991
▁palçıq	-10.5991
▁təşkilatlar	-10.5992
▁Top	-10.5994
▁torpağı	-10.6
▁göndərilə	-10.6002
▁tədbirlərin	-10.6003
▁respublikamız	-10.6005
▁dişi	-10.6005
▁Həzrət	-10.6006
▁sahəni	-10.6008
▁buxar	-10.6008
▁xidmətlər	-10.6011
▁hind	-10.6015
▁hadisəni	-10.6019
▁qoyan	-10.6023
▁gövdə	-10.6023
▁məntiqi	-10.6024
▁işləmək	-10.6027
▁Əsəd	-10.6031
▁hazırlayır	-10.6031
▁dağın	-10.6036
▁J	-10.6038
▁institutu	-10.6042
▁Yelizavet	-10.6042
▁dediyi	-10.6045
▁başlanğıcı	-10.6047
▁sax	-10.6053
▁fərqlənə	-10.6053
▁tutmaq	-10.6059
▁ailədə	-10.606
▁borc	-10.606
▁tapı	-10.6061
▁vətəni	-10.6064
▁seçkilərində	-10.6065
▁Həmzə	-10.6066
▁Ermənistanda	-10.6067
▁Bura	-10.6073
▁Anası	-10.6073
▁Ayı	-10.6075
▁Cəmiyyətini	-10.6078
▁əzəmət	-10.6079
▁Təsərrüfatı	-10.608
▁hökmdarları	-10.6081
▁torpaqlarında	-10.6083
▁yazılan	-10.6083
▁artırır	-10.6084
▁əyalət	-10.6089
▁Zeynalov	-10.6092
▁proseslərin	-10.6097
▁qalmaqda	-10.61
▁variantı	-10.6102
▁Torpaq	-10.6106
▁yana	-10.6108
▁bunlarda	-10.6108
▁başçıları	-10.6116
▁müsəlmanların	-10.6121
ləşdirilmiş	-10.6122
▁Vəkilov	-10.6124
▁redaksiyasın	-10.6124
▁yalan	-10.6126
▁Daşkə	-10.6127
▁sevimli	-10.6131
▁əməyi	-10.6131
▁Av	-10.6132
▁Za	-10.6133
▁oxuyur	-10.6136
▁vulkan	-10.6137
▁dünyanı	-10.6139
8-	-10.6143
▁Nur	-10.6144
▁dərə	-10.6145
▁çətindir	-10.6148
ard	-10.6151
▁yaşa	-10.6156
razılıq	-10.6159
▁parçası	-10.6163
▁təhrif	-10.6167
▁tərcüməsi	-10.6168
▁etdirib	-10.6168
▁torpağın	-10.6169
▁boy	-10.6169
▁Yaponiyada	-10.6169
▁Don	-10.6172
▁üslubu	-10.6181
▁saniyə	-10.6192
▁meydanı	-10.6193
▁tədqiqatçı	-10.6194
sün	-10.6204
▁sahəsini	-10.6204
▁ekolo	-10.6204
▁bacarıq	-10.6208
▁Di	-10.6209
▁Əzim	-10.6211
▁ölkəsini	-10.6212
▁kəndlər	-10.6212
▁Şahrux	-10.6212
▁Aya	-10.6218
▁qurultayın	-10.6219
▁qolları	-10.622
ld	-10.6221
▁komediya	-10.6222
▁külək	-10.6223
▁azdır	-10.6227
▁2011	-10.623
▁tənqidi	-10.6232
▁1898	-10.6235
▁hək	-10.6237
▁məharətl	-10.6248
▁meydanında	-10.6254
üseyn	-10.6254
ev	-10.6255
▁vasitələr	-10.6256
öhrət	-10.6257
▁Atatürk	-10.6257
▁tamaşaların	-10.6258
▁inkar	-10.6263
▁çıxdığı	-10.6266
▁Elçin	-10.6268
▁rəqsi	-10.6274
▁Saray	-10.6279
▁digərləri	-10.6285
▁kitabda	-10.6288
▁illərə	-10.6291
ləşmiş	-10.6291
▁kəsilmiş	-10.6294
▁yığ	-10.6294
▁Ramazan	-10.6296
▁tutduğu	-10.6302
▁Culfa	-10.6302
▁qənaət	-10.6302
▁paralel	-10.6302
▁fakültəsi	-10.6302
▁yayılır	-10.6303
▁məşğuliyyət	-10.6308
▁öldü	-10.6311
▁prosesini	-10.6312
mar	-10.6313
▁köçür	-10.6315
▁Zərdabi	-10.6316
▁ehtiyatı	-10.6317
▁etməkdən	-10.6321
▁stadionun	-10.6329
▁alırdı	-10.6331
▁iz	-10.6331
▁halı	-10.6332
▁Jurnalistlər	-10.6334
▁biznes	-10.6335
▁qazanmışdı	-10.6336
▁ayda	-10.6336
▁ünsiyyət	-10.6347
▁Te	-10.6348
▁çempion	-10.6358
▁üzünü	-10.6358
▁2012	-10.6369
▁uçuş	-10.637
▁texnologiya	-10.6371
▁etibarlı	-10.6373
▁Tə	-10.6376
▁tabeliyində	-10.6377
▁məskunlaşmışdı	-10.6377
▁İtaliyada	-10.6385
▁dünyası	-10.6389
▁Bay	-10.6389
▁Təxmin	-10.6393
▁yumşaq	-10.6393
▁sahibləri	-10.6395
▁Artist	-10.6398
▁yaratmağ	-10.6407
▁vermir	-10.641
▁islahatlar	-10.6414
▁1994	-10.6417
mət	-10.6417
▁təşkilatını	-10.6419
▁xatirə	-10.6421
▁işlədil	-10.6428
▁buz	-10.6429
▁camaatı	-10.6429
▁əməliyyatlar	-10.6434
▁Vəzir	-10.6435
▁Aristotel	-10.6438
▁Ceyms	-10.6438
▁artırılması	-10.6439
lo	-10.6447
▁Xoy	-10.646
▁21-	-10.6469
▁arxiv	-10.6471
▁məbədin	-10.6471
▁dəyişməsi	-10.6482
▁əzab	-10.6484
▁Usta	-10.6484
afiq	-10.6486
▁tikililər	-10.6487
▁evlər	-10.6488
kar	-10.649
▁əli	-10.649
▁buranı	-10.6492
▁qazandığı	-10.6492
▁aparırdı	-10.6494
▁Toma	-10.6496
▁edilməyə	-10.6497
▁sarayda	-10.6499
▁əyan	-10.65
▁dairəsində	-10.6507
▁vəziyyətin	-10.6515
▁ideya	-10.6519
▁Həmid	-10.652
▁parçaları	-10.6521
▁ot	-10.6529
▁hazırladığı	-10.6531
texnik	-10.6535
▁Ha	-10.6537
▁qoruya	-10.654
▁həqiqət	-10.6541
lamaq	-10.6542
▁metrə	-10.6545
▁payı	-10.6545
▁düny	-10.6547
▁qulaq	-10.6548
▁nda	-10.6548
▁hüquqlarını	-10.655
▁ağız	-10.6552
▁okeanı	-10.6564
▁22-	-10.6571
▁Ədəbi	-10.6572
▁otaqları	-10.6573
▁Qor	-10.6573
▁bilinə	-10.6575
▁rəvayətlər	-10.6575
▁Hitler	-10.6577
▁rəqabət	-10.6577
▁dekorativ	-10.6577
▁Rüstəmov	-10.6586
▁laboratoriya	-10.659
▁noyabrında	-10.6595
▁avqustunda	-10.6603
▁Par	-10.6609
▁göstərilmişdi	-10.6615
▁tədqiqatların	-10.6622
▁məhkum	-10.6623
▁Şərəf	-10.6623
▁Mixail	-10.6623
▁Kino	-10.6623
▁qarışığı	-10.6624
▁oksigen	-10.6624
▁bədənin	-10.6624
▁qurban	-10.6625
▁vitamin	-10.6628
▁yaradılmasında	-10.6629
▁uğurlar	-10.6636
▁kamera	-10.665
▁klip	-10.6653
vil	-10.6656
▁klubları	-10.6657
▁ifasında	-10.666
▁xanımı	-10.6661
▁örtülmüşdü	-10.6663
▁700	-10.6664
▁xatırladır	-10.6666
həsə	-10.6666
▁etməsini	-10.6669
▁Sülh	-10.667
▁kinostudiyası	-10.667
▁hazırlaya	-10.667
▁Rome	-10.6673
▁yayılan	-10.6678
▁dua	-10.6679
▁faktik	-10.6684
▁Afina	-10.6685
▁olunmasını	-10.6691
▁paltar	-10.6697
▁oxuyu	-10.6702
▁analiz	-10.6706
▁Alı	-10.6707
▁varlığı	-10.6713
▁struktur	-10.6714
▁oyununda	-10.6716
▁Livan	-10.6717
▁1909	-10.6722
▁düşməsi	-10.6722
▁qaldığı	-10.6724
▁xaricində	-10.6725
▁qoy	-10.6729
▁yamacında	-10.6729
▁Mar	-10.6732
▁hissələrini	-10.6734
▁minə	-10.6737
▁uzunluğunda	-10.6739
▁istismar	-10.6744
▁oxuyan	-10.6745
▁bilməsi	-10.6757
▁xüsusiyyətlər	-10.6757
▁yazısı	-10.6759
▁Muzeyi	-10.676
▁elçi	-10.6762
▁Parlament	-10.6763
▁Gülüş	-10.6764
▁Zakir	-10.6764
▁kitabə	-10.6766
▁sahibliyi	-10.677
▁əski	-10.677
▁peyğəmbəri	-10.6773
▁Nazirliyin	-10.6779
▁əyalətini	-10.6779
▁dalğa	-10.678
▁Yaşa	-10.6781
▁təhlükəsiz	-10.6787
▁Fu	-10.6791
▁dillərdə	-10.6792
▁teatrda	-10.6793
▁nəzəriyyəsini	-10.6793
▁önündə	-10.6794
▁kollektiv	-10.6795
▁hərəkat	-10.6801
▁yapon	-10.6802
▁Çempionatın	-10.6802
▁yuxu	-10.6804
▁vokal	-10.6808
▁azalı	-10.681
▁Türbə	-10.6811
▁tədbir	-10.6813
▁həva	-10.6813
K	-10.6815
▁gözləri	-10.6815
M	-10.6816
▁dissertasiya	-10.6818
▁ideyası	-10.6819
▁nömrəsi	-10.6823
▁qoymaq	-10.6823
▁nəşriyyatı	-10.6824
▁usta	-10.6825
▁başlanan	-10.6825
▁göndər	-10.6831
▁Məhkəmə	-10.6835
▁0,	-10.6837
▁mübahisə	-10.6838
▁baza	-10.6846
▁aprelində	-10.6846
▁katolik	-10.6848
▁tikilə	-10.6849
▁Anna	-10.685
▁dənizdə	-10.6855
▁Ermənistanı	-10.6857
▁xatirəsin	-10.6857
▁çıxarılması	-10.6857
▁Aprel	-10.6859
▁edəcəyi	-10.6867
▁Maarif	-10.687
▁adasında	-10.6872
▁sayında	-10.6874
▁çevrilməsi	-10.6877
▁şirəsi	-10.6877
▁aparıcısı	-10.6877
▁Qanun	-10.688
U	-10.688
▁pillə	-10.6882
▁qanunvericilik	-10.6885
ton	-10.6887
▁On	-10.6896
▁yaşamağ	-10.6899
▁bizi	-10.6903
▁götürülmüşdü	-10.6904
ağac	-10.6904
▁Lin	-10.6905
▁Zülfüqar	-10.6907
▁çəkmiş	-10.6908
▁qurmaq	-10.6908
▁müstə	-10.6909
▁musiqiçi	-10.691
▁Var	-10.6913
▁Mart	-10.6913
▁salmaq	-10.6913
▁Məkkə	-10.6916
lit	-10.6917
▁təşkilatçı	-10.6922
▁Romada	-10.6929
▁yanvarında	-10.6932
▁keçi	-10.6933
▁Rau	-10.6933
tun	-10.6946
▁vəziri	-10.6951
▁BDU	-10.6955
▁qabarıq	-10.6955
▁zəlzələ	-10.6955
▁artdı	-10.6957
▁İrlandiya	-10.6958
▁xanımla	-10.6959
▁birləş	-10.696
▁Özünü	-10.6963
▁gəlirlər	-10.6969
▁Ye	-10.697
▁kasıb	-10.697
▁gəlmə	-10.6974
▁nağıl	-10.698
▁Min	-10.6986
▁qızlar	-10.6988
▁atmosfer	-10.6994
üzə	-10.6995
▁yavaş	-10.6997
▁ərazilərin	-10.6998
▁Tələbə	-10.7003
▁Urartu	-10.7003
▁Şekspir	-10.7003
▁Ədirnə	-10.7004
▁açılan	-10.7005
▁görüşü	-10.7006
▁məzunu	-10.7006
▁göstəricisi	-10.7012
▁döyüşlər	-10.7012
▁müəllimlik	-10.7018
▁ruhu	-10.7022
▁harada	-10.7025
▁aləmi	-10.7028
▁göstərişi	-10.7033
▁vilayətin	-10.7038
ws	-10.7041
▁Alim	-10.7042
▁fikirlərini	-10.7048
▁nifrət	-10.7052
▁vitse	-10.7052
▁Xankəndi	-10.7052
▁toplanması	-10.7052
▁Əyyub	-10.7053
kəmli	-10.7054
▁qır	-10.7055
▁janr	-10.7056
▁1904	-10.7056
▁MR	-10.7056
▁keçmişdə	-10.7057
▁əksəriyyətini	-10.7061
▁magistr	-10.7064
▁aldıqda	-10.7064
▁ayrılması	-10.7065
liyyə	-10.7068
▁marağı	-10.707
▁muzeyin	-10.7073
▁cavabı	-10.7075
▁kəndli	-10.7075
▁vətəndaşı	-10.7076
▁vəzifələrdə	-10.7078
▁hökumətini	-10.7079
▁dəyəri	-10.708
▁tala	-10.708
▁mübarizəsi	-10.7081
▁İnkişaf	-10.7081
▁səsvermə	-10.7082
▁yaşamışdı	-10.7083
▁Lev	-10.7085
▁dağlarında	-10.7085
▁Tel	-10.7086
▁binaları	-10.7089
▁Saat	-10.7089
▁keçmişdi	-10.709
▁yaşamaq	-10.7093
▁salam	-10.7095
▁200-	-10.7096
▁göndərilmişdi	-10.7096
▁yaranmasında	-10.7096
▁qayğı	-10.7099
▁qəribə	-10.71
▁41	-10.7105
▁ədəbiyyatda	-10.7111
▁mühafizəsi	-10.7111
▁qalxan	-10.7112
▁komissiya	-10.7113
▁digəri	-10.7114
▁artmışdı	-10.7114
▁Əkinçi	-10.712
▁əmin	-10.712
▁Yan	-10.7123
▁1995	-10.7127
▁proseslər	-10.7128
▁Şamaxıda	-10.7129
▁bağlayır	-10.7129
▁Sa	-10.7138
▁Nəbi	-10.7151
▁edin	-10.7152
▁Tu	-10.7152
▁vurur	-10.7153
▁olmasında	-10.7164
▁əsasları	-10.7165
▁2014	-10.7168
▁girə	-10.717
▁kilsəsini	-10.7171
▁müəlliflər	-10.7173
▁bazasında	-10.7174
▁hesablama	-10.7174
▁Kazımov	-10.7176
▁1997	-10.7176
▁gətirmiş	-10.7182
▁mərasimində	-10.7183
▁qalması	-10.7186
▁Qadınlar	-10.7191
ləşdirilməsi	-10.7194
▁qanunlar	-10.7195
▁sənətkarlar	-10.7195
▁imkanlar	-10.7197
▁ol	-10.7198
▁Mədinə	-10.7199
▁salınması	-10.7199
▁caz	-10.7202
▁Axı	-10.7202
▁yayı	-10.7204
▁ustaları	-10.7205
▁Texnologiya	-10.7206
▁edilmə	-10.7206
▁layihəsini	-10.7206
▁çəkdi	-10.7206
▁dost	-10.7211
▁Konstitusiya	-10.7211
▁söyləyir	-10.7213
▁topu	-10.7218
ğ	-10.7223
▁ədalət	-10.7224
▁1,	-10.7226
▁1960	-10.7226
▁1988	-10.7226
▁Şərqin	-10.7227
▁yarı	-10.7228
▁tələbəsi	-10.7228
▁səyyah	-10.723
coğrafi	-10.723
iqtisadi	-10.723
▁vəzifələri	-10.7233
baba	-10.7235
▁Nəsir	-10.7242
▁qiyam	-10.7246
▁palıd	-10.7248
▁müəllimlər	-10.7256
▁Jan	-10.7258
bit	-10.7259
▁dillərin	-10.7261
▁mayında	-10.7264
▁görmüş	-10.7267
▁başladığı	-10.7274
▁Frans	-10.7277
▁Arxeolo	-10.7283
▁qitə	-10.7285
▁Sir	-10.7285
▁Türkmən	-10.7295
▁tədbirləri	-10.7296
▁filosof	-10.7298
▁NATO	-10.7298
▁bakalavr	-10.7298
▁Əfşar	-10.7298
▁Həmədan	-10.73
▁gu	-10.7303
▁hadisəsi	-10.7305
▁meyl	-10.7308
▁folklor	-10.7309
▁adlandırırdı	-10.731
▁kəndlərini	-10.731
▁Neftç	-10.7311
▁Məclis	-10.7313
▁dilə	-10.7313
▁gül	-10.7314
▁nəci	-10.7316
▁qalırdı	-10.7318
▁sınaq	-10.7332
▁dayana	-10.7334
▁adamın	-10.734
▁qadını	-10.734
▁Kimya	-10.7342
▁yayımlan	-10.7343
ah	-10.7347
ww	-10.7348
ərgüş	-10.7348
▁tropik	-10.7348
▁quraq	-10.735
▁romantik	-10.7353
▁Fai	-10.7353
▁publisistik	-10.7354
▁döndü	-10.7357
▁fevralında	-10.7361
▁idarəsini	-10.7362
▁girdi	-10.7363
▁dairə	-10.7367
▁tamaşasın	-10.7368
▁tamaşası	-10.7372
▁1970	-10.7377
▁qayıdı	-10.7377
▁orucu	-10.7383
▁Aslanov	-10.7383
▁yazmağ	-10.7386
▁yarımadasında	-10.7387
sna	-10.7389
▁Win	-10.739
▁xəzərlər	-10.739
▁Şab	-10.7391
nra	-10.7394
ose	-10.7398
▁İnzibat	-10.7398
▁batil	-10.7398
▁oynadı	-10.7398
▁keçdikdə	-10.7399
▁mərhum	-10.74
▁Sərəncamı	-10.7401
▁həkimi	-10.7401
▁müalicəsi	-10.7412
▁təhlükəsi	-10.7413
▁qayıdan	-10.7414
▁alını	-10.742
▁keçdiyi	-10.7423
▁adlandırmışdı	-10.7439
şərqində	-10.744
▁professional	-10.7449
▁Sonuncu	-10.7449
▁mütə	-10.745
▁kökü	-10.7451
▁İvan	-10.7454
▁Yun	-10.7456
▁işlənməsi	-10.7457
▁naxışlar	-10.7458
▁bilməzdi	-10.7458
qat	-10.7461
▁məzar	-10.7468
▁sənə	-10.747
▁açılmışdı	-10.7472
▁yaralanmışdı	-10.7474
▁universitetdə	-10.7474
▁kəndlərindən	-10.7481
▁mənbələri	-10.7481
▁Yen	-10.7486
▁Fikr	-10.7489
▁titulu	-10.7492
▁üzvlərini	-10.7493
▁Bill	-10.7496
▁nəqliyyatı	-10.7498
▁evlərin	-10.7498
▁açıldı	-10.75
▁tərəfdarı	-10.7503
▁Boz	-10.7507
lət	-10.7509
▁torpağ	-10.7509
▁qazı	-10.7511
▁dərəsi	-10.7513
▁bacarığı	-10.7518
▁artım	-10.752
▁keramika	-10.7521
▁qətl	-10.7521
▁Qaraman	-10.7523
▁hazırlanmışdı	-10.7533
▁Səlcuq	-10.7535
▁dəyişi	-10.7537
▁Düz	-10.7542
▁icma	-10.7545
▁qət	-10.7549
▁bayraq	-10.7551
▁Nəsib	-10.7551
▁Mərkəz	-10.7552
▁Yerdə	-10.7554
▁üsulları	-10.7557
▁Rasi	-10.7557
▁oykonim	-10.7559
atlı	-10.756
▁günləri	-10.7561
▁rəsmləri	-10.7561
▁üslubunda	-10.7562
▁üsullar	-10.7562
▁günündə	-10.7565
▁məqsədlər	-10.7566
▁bağı	-10.7566
etik	-10.7569
▁İnqilab	-10.757
▁23-	-10.7572
▁birləşdiril	-10.7572
▁konstitusiya	-10.7572
quli	-10.7578
▁Antoni	-10.7579
▁karyerasın	-10.7581
▁zərb	-10.7581
let	-10.7584
▁Uran	-10.7586
inski	-10.7591
▁Balkan	-10.7592
▁Ağdərə	-10.7602
▁işğalında	-10.7603
▁Təzə	-10.7603
▁yazılıb	-10.7607
▁olunmağ	-10.7607
▁1902	-10.7611
▁boyun	-10.7612
▁desə	-10.7615
lardan	-10.7619
▁solisti	-10.7625
▁birləşməsində	-10.7628
▁təsirli	-10.7631
▁karbon	-10.7637
▁qapa	-10.7639
▁maddələri	-10.7644
▁Dörd	-10.7648
▁gətirilmiş	-10.765
▁federa	-10.7653
▁imzaladı	-10.7656
▁İlisu	-10.7657
▁çıxarmaq	-10.7658
▁oxu	-10.7659
▁bitkisi	-10.7662
▁toplusu	-10.7663
▁raket	-10.7664
▁göndərilmiş	-10.7665
▁Cavadov	-10.7666
▁məntiq	-10.7666
▁Rəsmi	-10.7669
▁xəstəlikləri	-10.767
▁əti	-10.7672
▁Şirkətin	-10.7679
▁gedirdi	-10.7681
▁mübarizəni	-10.7684
▁çəkilməsi	-10.7687
▁cəza	-10.7689
▁şi	-10.7693
▁filosofu	-10.7695
▁Türküstan	-10.7698
ist	-10.7699
▁arzusu	-10.77
▁öyrənən	-10.7702
▁yanacaq	-10.7703
▁medallar	-10.7704
▁sidik	-10.7705
▁aktual	-10.7705
▁Haqverdiyev	-10.7705
▁naməlum	-10.7705
texniki	-10.7705
▁Avrasiya	-10.7705
üz	-10.7708
▁Ştatları	-10.771
▁zidd	-10.771
▁qayna	-10.7711
os	-10.7712
▁birləşmə	-10.7713
▁məruzə	-10.7713
▁bölgəsini	-10.7725
▁konfransın	-10.7727
▁sırasın	-10.7728
▁açılmış	-10.7734
▁qabığı	-10.7735
▁ruhani	-10.7742
▁Elxan	-10.7744
▁etdirilməsi	-10.7745
riyaziyyat	-10.7749
▁danışa	-10.7749
▁yazan	-10.7752
▁ayrılmışdı	-10.7754
▁qayıtdıqda	-10.7756
▁pozulması	-10.7758
▁fakültə	-10.7758
▁mühacirət	-10.7758
▁səslənir	-10.7759
▁şübhəsiz	-10.776
▁kürd	-10.7766
▁göndərmişdi	-10.7769
KP	-10.777
▁müsabiqəsin	-10.777
▁tapmış	-10.7782
▁turnirin	-10.7783
▁kubok	-10.7785
▁Alf	-10.7785
▁şir	-10.7787
▁Bülbül	-10.7787
▁əvvəllərinə	-10.7788
▁Rəq	-10.7789
▁1979	-10.779
▁Çempionatı	-10.7793
▁Əbdül	-10.7794
▁mənzil	-10.7794
▁bazarın	-10.7795
▁56	-10.7797
▁yüksəkliyi	-10.78
▁Elektron	-10.78
▁çətinlik	-10.7801
▁vulkanları	-10.7803
mı	-10.7803
000	-10.7806
işə	-10.7807
▁inam	-10.7808
ual	-10.7808
▁ədəbiyyatşünas	-10.7811
▁həssas	-10.7811
▁rəqibi	-10.7814
▁dərinliyi	-10.7815
▁körfəzi	-10.7819
▁Məscidi	-10.7822
▁əlifba	-10.7822
▁kub	-10.7824
▁1886	-10.7826
▁marka	-10.7831
▁qanunu	-10.7832
▁tuta	-10.7833
tika	-10.7835
▁tele	-10.7836
2-	-10.7836
▁görüşdə	-10.7836
▁maarifçi	-10.7839
tı	-10.7839
▁1986	-10.7843
▁çıxışları	-10.7846
▁diplom	-10.7848
▁hazırlamışdı	-10.7853
▁faizini	-10.7853
▁Şərif	-10.7859
▁nəsr	-10.7861
▁hasil	-10.7862
▁Neptun	-10.7862
▁mərmər	-10.7862
remyer	-10.7862
▁Arslan	-10.7862
▁geoloji	-10.7862
▁vətənpərvər	-10.7862
▁bəylərbəyi	-10.7863
▁sonda	-10.7874
▁1,5	-10.7879
▁yubileyi	-10.788
▁oyunlarında	-10.7883
▁filmlərdə	-10.7898
▁kanal	-10.7899
▁partiyanı	-10.79
▁Vaxt	-10.7901
incə	-10.7904
cümə	-10.7905
▁Özü	-10.7909
omediya	-10.7915
▁Mütər	-10.7915
▁maşınqayırma	-10.7917
▁qaldırmaq	-10.7917
▁çıx	-10.7922
▁tutumu	-10.7923
▁almanlar	-10.7926
▁təminatı	-10.7931
▁en	-10.7935
▁Tur	-10.7937
▁səhifə	-10.7939
▁əlaməti	-10.794
▁Məhkəməsi	-10.7942
▁padşah	-10.795
op	-10.795
▁ştat	-10.7953
▁tərbiyəsi	-10.7956
▁süjet	-10.7957
▁böyüyü	-10.796
▁təsadüfi	-10.796
▁məclislərin	-10.7961
▁for	-10.7965
▁dramaturq	-10.7966
▁çörə	-10.7967
▁açdı	-10.7968
▁çevrilə	-10.7968
▁Herodot	-10.7968
▁qoyulu	-10.797
▁xaqanlığı	-10.797
▁təməl	-10.7973
▁vəfatı	-10.7974
▁Niderland	-10.7974
▁vaxta	-10.7979
▁bələdiyyəsi	-10.798
▁kəməri	-10.7981
▁Li	-10.7982
▁döyüşçü	-10.7983
▁Yerl	-10.7983
▁Belarus	-10.7985
▁estetik	-10.7988
▁xaqan	-10.7989
▁dağlarda	-10.7992
▁qəbri	-10.7993
▁filmini	-10.7994
▁rütbə	-10.7996
▁İsgəndəri	-10.8007
▁xor	-10.801
▁tatar	-10.8013
ze	-10.8016
▁funksiyası	-10.8018
▁diviziya	-10.8019
Araz	-10.8022
▁hökmü	-10.8022
▁divarı	-10.8024
▁1896	-10.8024
▁yunanlar	-10.8024
▁tütün	-10.8028
▁öhdəsin	-10.8028
▁seçilməsi	-10.8034
▁həddində	-10.8037
▁Ərazidə	-10.8037
▁müəlliflərin	-10.804
▁kadrların	-10.8043
▁qüvvəsini	-10.8046
▁anasını	-10.8047
▁istehsalında	-10.8048
▁ölkələrini	-10.805
▁cəmiyyətini	-10.8052
yib	-10.8052
▁quldur	-10.8053
▁məktubun	-10.8054
▁saxlanması	-10.8056
▁qabiliyyətini	-10.8056
▁gecəsi	-10.8058
▁ideal	-10.806
▁təsvirləri	-10.806
▁bütünlük	-10.8067
▁heyət	-10.8071
▁otaq	-10.8072
▁komp	-10.8075
▁zərif	-10.8076
▁Xəlifə	-10.8076
▁Sergey	-10.8076
▁həlledici	-10.8077
iman	-10.8079
▁1901	-10.8083
▁mahiyyəti	-10.8092
▁insana	-10.8093
▁toxum	-10.8099
▁Qərbdə	-10.8099
▁gürcülər	-10.8101
▁tayfalarını	-10.8104
▁dəyişdirilmiş	-10.8109
▁əlaqələrini	-10.8114
▁nailiyyətlər	-10.8122
▁gözlənilmə	-10.8125
▁90-	-10.8126
▁olmalı	-10.8126
▁muxtar	-10.8126
▁təqaüd	-10.8127
▁Yuqoslaviya	-10.813
▁sorğu	-10.813
▁Dinam	-10.813
▁qulluq	-10.8131
▁stadion	-10.8131
▁memarlığı	-10.8134
▁olanda	-10.8134
▁Şahbu	-10.8135
▁müəllimləri	-10.8137
▁gətirmək	-10.8142
▁oxumaq	-10.8143
▁24-	-10.8144
▁funksiyasını	-10.8145
▁heykəl	-10.8147
de	-10.8149
▁tələffüz	-10.8149
iz	-10.8151
▁realist	-10.8158
NS	-10.8159
▁birləşir	-10.8161
▁sözlərini	-10.8161
▁tikilməsi	-10.8166
▁motivləri	-10.8167
▁Dini	-10.8168
▁dinini	-10.8168
▁ərə	-10.8168
▁taxt	-10.8169
▁mövsümü	-10.817
▁sərhədlərini	-10.8175
▁firması	-10.8176
▁götürdü	-10.8176
00	-10.8177
▁Sənət	-10.818
▁cazibə	-10.8183
▁Qırğızıstan	-10.8184
▁Səud	-10.8184
▁yardımı	-10.8185
▁türkcə	-10.8186
▁epi	-10.8186
▁Tamaşaçılar	-10.8189
▁bilib	-10.8189
▁nişanı	-10.8191
▁heykəli	-10.8192
▁Tele	-10.8194
▁məclisi	-10.8195
▁sülalə	-10.8196
▁yaşadıqları	-10.8196
▁adlandırıl	-10.8199
▁Çili	-10.8202
▁turist	-10.8205
▁İnsanlar	-10.8208
▁Dünyanı	-10.8214
▁keçdik	-10.8219
▁1984	-10.8222
▁geriyə	-10.8223
▁Amerikan	-10.8228
▁bənzəyir	-10.823
▁uğuru	-10.8231
▁şəhərlərin	-10.8232
▁şəhərlərindən	-10.8234
▁reaksiya	-10.8236
▁saxlanıla	-10.8239
▁çevrilib	-10.8239
▁axırlarında	-10.8244
▁Rəhimov	-10.8245
▁rəssamlıq	-10.8248
▁nami	-10.8251
▁təcil	-10.8253
▁turşusu	-10.8256
▁şeyləri	-10.8261
▁oğlanları	-10.8261
▁bin	-10.8262
▁balıqlar	-10.8262
niz	-10.8262
▁hekayələr	-10.8269
▁1903	-10.827
▁etdiyimiz	-10.827
▁təşəkkül	-10.8271
▁1973	-10.8277
▁2015	-10.8277
▁sənayesini	-10.828
üəyyən	-10.8282
ız	-10.8283
▁orqanlarını	-10.8283
▁düzəldilmiş	-10.8284
▁nəticələrin	-10.8287
▁Elektr	-10.8288
▁Əbül	-10.8289
▁komitəsin	-10.829
▁Assosiasiyası	-10.8294
▁Uzaq	-10.8294
▁məsələni	-10.8295
mobil	-10.8295
▁komandir	-10.8295
▁Əzimzadə	-10.8295
▁sahələrin	-10.8297
▁şəhərlərini	-10.8297
▁Şi	-10.8299
▁müəssisələr	-10.83
▁51	-10.8301
▁yayım	-10.8304
▁mətn	-10.8306
▁baxış	-10.8307
▁Müharibəsi	-10.8318
▁avqustda	-10.832
▁kredit	-10.8323
▁yaşaya	-10.8325
▁quşlar	-10.8325
▁başlaması	-10.8326
▁Samu	-10.8331
▁1982	-10.8333
▁1975	-10.8333
▁təşkilatları	-10.8333
▁vəkil	-10.8334
▁donanması	-10.8334
▁Akademiyasın	-10.8335
▁toz	-10.8336
▁kol	-10.8337
▁art	-10.8337
▁münaqişə	-10.8343
▁iti	-10.8345
▁xeyri	-10.8348
▁kartof	-10.8349
▁Adi	-10.835
▁hidrogen	-10.835
▁qaçdı	-10.8351
▁imzalandı	-10.8351
▁Me	-10.8352
▁Abdullah	-10.8352
çar	-10.8354
▁yem	-10.8355
▁axırın	-10.8361
▁dal	-10.8365
▁igid	-10.837
▁İslamı	-10.8373
▁tikilmişdi	-10.8374
-10	-10.8377
▁yolun	-10.8378
▁ansamblı	-10.8379
▁125	-10.8382
bat	-10.8383
▁Birlik	-10.8385
▁1920	-10.8389
▁İrəvanda	-10.8392
▁incəsənəti	-10.8393
▁Leyl	-10.8399
▁öyrənmişdi	-10.84
▁müvəffəq	-10.8402
▁yerlərin	-10.8403
▁yarımfinal	-10.8405
▁jurnalistika	-10.8405
▁Əzizbəyov	-10.8405
▁qalxı	-10.8408
▁törətdi	-10.8409
▁İstiqlal	-10.8413
▁razılığı	-10.8413
▁böhran	-10.8417
▁bildiyi	-10.8419
▁kosmos	-10.8425
▁meyvələri	-10.8428
▁dağıdı	-10.843
▁Uilyam	-10.8431
▁əsgərlər	-10.8436
tdi	-10.8441
rı	-10.8443
▁1987	-10.8445
▁səni	-10.8449
▁Səmərqənd	-10.846
▁kömür	-10.846
▁Alma	-10.8465
▁ideyaları	-10.8467
▁uşaqlıq	-10.8469
▁qəbulu	-10.8471
▁Uca	-10.8475
▁Ordusunu	-10.8475
▁Əmirov	-10.8478
▁çata	-10.848
▁itirdi	-10.8481
▁şairlərin	-10.8484
▁xüsusiyyət	-10.8486
▁Tədri	-10.8486
▁məqaləsi	-10.849
▁mənşə	-10.8491
▁vermədi	-10.8493
▁xanla	-10.8497
▁nı	-10.85
▁müsahibə	-10.8503
▁hara	-10.8505
▁intensiv	-10.8516
▁Litva	-10.8516
▁Oskar	-10.8517
▁Kolumbiya	-10.8517
▁subtropik	-10.8517
▁Boris	-10.8518
▁ayrıldı	-10.8519
▁yazdı	-10.8523
▁sultanın	-10.8525
▁özlərin	-10.8526
▁hey	-10.8528
▁məktəblərin	-10.8529
▁Pa	-10.8529
▁çalışdı	-10.8531
▁tarixçilər	-10.8535
▁iqamətgahı	-10.8537
▁Avropanı	-10.8539
▁qaydalar	-10.8539
rat	-10.854
ler	-10.8543
▁naxış	-10.8543
▁New	-10.8548
▁miniatür	-10.855
▁yetirilmiş	-10.8551
▁Qərib	-10.8552
▁Oyunlarında	-10.8552
▁festivalın	-10.8555
▁gətirildi	-10.8557
▁zavod	-10.8558
▁Anar	-10.8558
▁günümüzə	-10.8561
▁İnstitut	-10.8563
edici	-10.8565
▁zabiti	-10.8565
▁Sünik	-10.8566
▁parlamentin	-10.8566
▁mərhələsin	-10.8568
▁Babəki	-10.8569
▁Henri	-10.8572
▁MDB	-10.8573
▁Tacikistan	-10.8573
▁çatışmazlığı	-10.8573
▁düzbucaq	-10.8574
▁Sevil	-10.8574
▁qalasında	-10.8574
▁Arran	-10.8575
▁xəzinə	-10.8575
▁Pas	-10.8576
▁diviziyası	-10.8576
▁divan	-10.8578
▁Hə	-10.8578
▁çatdıqda	-10.8579
▁52	-10.8589
▁aləmində	-10.8594
laşdırılmış	-10.8594
▁heyətin	-10.8595
▁Qəhrəman	-10.8595
▁aləmin	-10.8596
▁səhnədə	-10.8597
▁Yu	-10.8602
▁başlanğıc	-10.8603
▁məqam	-10.8603
▁mühitdə	-10.8604
▁yarımadası	-10.8608
▁hərfi	-10.8608
▁kursu	-10.8608
▁simvoli	-10.8613
▁iyununda	-10.8616
▁Lu	-10.8618
▁səviyyəsini	-10.8618
▁xoşbəxt	-10.862
ahid	-10.8623
▁Nensi	-10.863
▁obrazını	-10.8632
▁maşını	-10.8633
▁istəyirəm	-10.8633
▁get	-10.8635
▁əməkdaşı	-10.8635
▁çıxarılmış	-10.8638
▁64	-10.864
kommunikasiya	-10.8641
▁seçkilərdə	-10.8642
▁şəkilli	-10.8642
cək	-10.865
▁çoxluğu	-10.8652
▁tövsiyə	-10.866
▁filmlərində	-10.8664
▁ustalıq	-10.8664
▁İmperiyasını	-10.8665
▁sıralarında	-10.8665
▁54	-10.8665
▁toxuma	-10.8667
▁başqalarını	-10.8667
▁müəssisələrində	-10.8669
▁relyef	-10.867
▁sürür	-10.8672
▁getmişdi	-10.8676
▁ittifaqı	-10.8677
bdin	-10.8682
▁85	-10.8683
sal	-10.8684
▁Salah	-10.8684
▁qalanı	-10.8686
▁David	-10.8687
▁Üst	-10.8687
▁Şəhriyar	-10.8687
▁Martin	-10.8688
▁həzm	-10.8688
▁qoz	-10.8689
▁xristianlığı	-10.869
▁Gilan	-10.8691
▁təsirində	-10.8692
rd	-10.87
▁orda	-10.87
▁hüququnu	-10.8705
qərbində	-10.8705
▁W	-10.8709
▁otura	-10.871
▁fərman	-10.8712
▁münasibətlərini	-10.8716
▁məzarı	-10.8717
▁vəzir	-10.8718
▁kitabların	-10.872
▁sümükləri	-10.8723
▁qışı	-10.8724
▁əyalətində	-10.8725
▁ulduzun	-10.8726
▁Əksər	-10.8728
▁birləşmələr	-10.8732
▁qülləsi	-10.8733
▁Balak	-10.8733
▁boğazı	-10.8742
▁Deyilən	-10.8744
▁Vyetnam	-10.8744
▁mahi	-10.8748
▁doğulmuş	-10.8759
▁sərgi	-10.8759
▁yanğın	-10.8764
▁əməliyyatları	-10.8764
▁atır	-10.8767
▁sosialist	-10.8768
▁əmir	-10.8784
▁Tehranda	-10.8784
▁ehti	-10.8786
▁ötə	-10.8789
▁qəbilə	-10.8789
▁lim	-10.879
▁Sadə	-10.879
▁qon	-10.8794
▁məhsullar	-10.8801
icarət	-10.8801
bo	-10.8802
▁tərənnüm	-10.8802
▁qaldırılması	-10.8803
▁Əlbət	-10.8803
xana	-10.8805
▁qanın	-10.8805
▁tutulması	-10.8809
▁dəmiryolu	-10.8809
▁səlahiyyətli	-10.8813
▁yarpaqları	-10.8819
▁ehtimalı	-10.882
▁vəkili	-10.8823
▁əyaləti	-10.8824
▁danışan	-10.8824
▁yarışların	-10.8825
▁bolşeviklər	-10.8827
▁dramat	-10.8829
▁İndiki	-10.8831
▁səviyyəl	-10.8835
▁generalı	-10.8836
▁yaşaması	-10.8839
▁Cek	-10.8841
▁amerikalı	-10.8843
▁Co	-10.8848
▁Bəziləri	-10.8849
▁əlyazma	-10.8855
▁Poli	-10.8856
▁azalması	-10.8857
▁edilməkdə	-10.8858
▁İspan	-10.8858
▁şəkilləri	-10.886
▁Ehtimal	-10.886
▁nisbi	-10.886
▁plastik	-10.886
▁Layihə	-10.886
▁Harun	-10.886
▁İtalyan	-10.8861
▁bildirib	-10.8862
▁Camal	-10.8864
▁Final	-10.8866
▁orbit	-10.8866
▁mövzular	-10.8871
▁müstəqilliyi	-10.8874
▁Tarixçi	-10.8876
▁iqtisadiyyatını	-10.8881
▁Yuli	-10.8882
▁qurultayı	-10.8884
▁Liqa	-10.8885
▁düyü	-10.8889
▁gölünü	-10.8895
▁qüllə	-10.8897
▁siyasətçi	-10.8897
▁Ər	-10.8898
▁Erkə	-10.8899
olit	-10.8902
▁Binə	-10.8905
▁etnonimi	-10.8905
▁Məscid	-10.8906
▁Bankı	-10.8913
▁karyerasını	-10.8914
▁gənclərin	-10.8917
▁Əşrəf	-10.8919
▁yarımsəhra	-10.8919
▁Fatimə	-10.8919
▁Sərdar	-10.8919
▁cəzası	-10.892
▁alayın	-10.8924
▁Sadıqov	-10.8927
▁kommunist	-10.8929
▁dünyasında	-10.8931
▁xidmətdə	-10.8932
ö	-10.8933
▁xanlığın	-10.8935
▁növlərində	-10.8938
mayor	-10.8939
▁müdaxilə	-10.8939
▁imtahan	-10.8945
▁məqaləsin	-10.8948
▁pyesi	-10.8951
▁olmaları	-10.8951
▁görünüşü	-10.8953
▁yaddaş	-10.8953
▁qurur	-10.8955
▁variantın	-10.896
▁qatılı	-10.8963
▁Muzey	-10.8963
▁kompozisiyası	-10.8964
▁hərəkətləri	-10.8966
rektoru	-10.8967
▁təhlili	-10.8972
▁160	-10.8973
▁gəlişi	-10.8974
▁prosesləri	-10.8974
▁Salman	-10.8976
$	-10.8978
▁Bəxtiyar	-10.8978
▁Yupiter	-10.8978
▁saxlanılması	-10.8978
▁yayın	-10.8984
▁şəri	-10.8985
▁Vaşinqton	-10.8985
▁qüvvətli	-10.8985
▁içi	-10.8986
▁sərnişin	-10.8986
▁zəng	-10.8989
▁albomunu	-10.899
▁erkək	-10.8991
▁maddəsi	-10.8993
▁Fər	-10.8994
▁Zə	-10.8999
▁Dəli	-10.9005
▁şirkətləri	-10.9005
rəm	-10.9005
▁öyrənilmiş	-10.9007
▁müharibələr	-10.9008
▁You	-10.9009
▁meşələri	-10.9012
T	-10.9014
▁orqanizm	-10.9018
izm	-10.9019
▁bolşevik	-10.902
▁adlandırmış	-10.902
▁Fizika	-10.9022
▁Liqasını	-10.9023
▁çıxarılmışdı	-10.9029
oft	-10.903
▁mətbuatın	-10.9031
▁milad	-10.9031
▁Bəhmən	-10.9036
▁Divan	-10.904
▁oyunlarını	-10.9045
▁Sina	-10.9053
ko	-10.906
▁divarlarını	-10.9062
istan	-10.9064
▁edərdi	-10.9067
▁vəzifələr	-10.9067
▁Ruh	-10.9069
▁Əks	-10.9069
▁səhifələrində	-10.9072
▁hücumları	-10.9073
məkdədir	-10.9074
▁abidələrində	-10.9075
olf	-10.9077
▁məhəllə	-10.9078
▁obyektləri	-10.9092
▁təşkilatların	-10.9092
▁üzvlərin	-10.9092
▁məsuliyyəti	-10.9092
▁operator	-10.9094
‐	-10.9096
▁Bayrağı	-10.9096
▁Bosniya	-10.9096
▁assistent	-10.9096
▁yetkin	-10.9096
▁Soyuq	-10.9096
▁Ədalət	-10.9096
▁qarın	-10.9097
▁qaraciyər	-10.9097
▁Mic	-10.9099
▁ulduzların	-10.91
▁amansız	-10.9101
▁olars	-10.9101
▁partlayış	-10.9104
▁qazanmaq	-10.9104
▁formalaş	-10.9108
▁torpaqlarda	-10.911
▁nümayəndələrin	-10.9111
▁Fəlsəfə	-10.9112
▁səviyyəsin	-10.9113
▁Albert	-10.9114
▁icması	-10.9115
▁gətirə	-10.9116
▁məqalələrin	-10.9117
▁nüfuzu	-10.9119
▁formalaşmışdı	-10.9119
ədək	-10.9122
ış	-10.9128
▁orkestr	-10.9136
▁sal	-10.9139
▁sui	-10.914
▁təsərrüfatında	-10.9141
▁ənənələrini	-10.9142
▁adla	-10.9143
▁orduda	-10.9145
▁adalar	-10.9145
▁Asiyanı	-10.9146
▁görünüş	-10.9147
▁Frank	-10.9153
▁Natəvan	-10.9156
▁Kaspi	-10.9158
▁görürdü	-10.9158
▁işləyirdi	-10.9159
▁Cəbhəsi	-10.916
▁Qulu	-10.916
▁Ərazisi	-10.9162
▁poeması	-10.9166
▁sel	-10.9168
▁yerləşmişdi	-10.9173
▁rəhbərləri	-10.9174
▁hit	-10.9176
▁işığı	-10.9176
▁Sal	-10.9176
▁əlamətləri	-10.9177
▁gəmiləri	-10.9178
▁1897	-10.918
▁pak	-10.9181
▁savaş	-10.9183
▁alayı	-10.9185
və	-10.9186
▁oruc	-10.9189
▁yarışlarda	-10.9191
▁Qazan	-10.9203
▁şəraitin	-10.9205
▁hakimiyyətin	-10.9206
▁çoxluq	-10.9209
▁bölgüsü	-10.9209
▁dərslik	-10.9214
▁Veriliş	-10.9216
▁Lider	-10.9216
▁istəsə	-10.9216
▁Nuxa	-10.9216
▁yayılıb	-10.9217
▁gözəlliyi	-10.9218
▁Şıxlı	-10.9224
▁rəsmə	-10.9225
▁farslar	-10.9229
▁satı	-10.9233
▁ruhun	-10.9234
▁quruluşunda	-10.9234
əzən	-10.9235
▁tapılı	-10.9235
▁həvəskar	-10.9237
▁ayrılma	-10.9237
▁sita	-10.924
▁suyunu	-10.9241
▁qəhrəmanlıq	-10.9244
▁tikilir	-10.9246
▁Ailəli	-10.9247
▁alın	-10.9248
▁yatağı	-10.925
▁götürülür	-10.925
▁so	-10.9251
pək	-10.9252
▁Sovetlər	-10.9252
▁səbəbləri	-10.9256
▁buynuz	-10.9258
ional	-10.9263
▁Mil	-10.9266
▁başlanğıcında	-10.927
▁yoldaşları	-10.927
▁balet	-10.9272
▁istifadəçi	-10.9272
▁günbəz	-10.9273
▁düşmə	-10.9275
▁debüt	-10.9276
▁toxucu	-10.9277
▁Bazar	-10.9278
▁toplanan	-10.9279
▁süfrə	-10.928
▁məsləhətçi	-10.9281
▁amil	-10.9283
ləşdirmək	-10.9284
▁Anti	-10.9284
▁dizayn	-10.9287
▁Bəlkə	-10.9288
▁Əsərləri	-10.929
▁hamam	-10.9291
▁ailəni	-10.9295
▁Nil	-10.9296
▁müəyyənləşdiril	-10.9299
▁gec	-10.93
▁şairlər	-10.93
▁səfərdə	-10.9306
▁plana	-10.9317
▁dar	-10.9318
▁Bol	-10.9321
▁dirijor	-10.9323
▁Hökumət	-10.9325
▁salmışdı	-10.9326
▁Quranda	-10.9326
▁istedadı	-10.9327
▁1983	-10.9328
▁1985	-10.9328
▁şəxsiyyətlər	-10.9328
▁Görünü	-10.9338
▁Kinolent	-10.9338
▁Qəsəbə	-10.9338
▁Gürcü	-10.9338
▁Assuriya	-10.9339
▁Fatma	-10.9339
▁qanunvericiliyi	-10.9341
L	-10.9344
▁arzu	-10.9345
▁Ştatların	-10.9353
▁davamı	-10.9356
▁qaldırdı	-10.9357
▁oğul	-10.9358
▁şərtlər	-10.9358
▁məclisin	-10.9359
▁Heyətin	-10.936
▁Zey	-10.9364
▁şagirdi	-10.9364
▁Tusi	-10.9365
▁stansiya	-10.9367
tərəqqi	-10.9371
▁çatı	-10.9372
▁kateqoriya	-10.9374
▁köçmüşdü	-10.9378
▁etməsində	-10.9378
▁ma	-10.9379
▁təriqət	-10.9384
▁Xristian	-10.9384
▁hissəsidir	-10.9385
▁olunmalı	-10.9385
▁gəldiyin	-10.9388
▁İqtisadiyyat	-10.9392
▁için	-10.9392
▁Bitki	-10.9394
▁işlənə	-10.9398
▁məmur	-10.9399
▁etiqad	-10.9399
▁fundamental	-10.9399
▁xeyirxah	-10.9399
▁Aran	-10.9399
▁ictimaiyyət	-10.94
▁Vətəndaş	-10.94
▁Ko	-10.9401
ve	-10.9404
▁mənzərə	-10.9404
▁şeyin	-10.9405
▁Bayramov	-10.9408
▁bağları	-10.9408
▁zona	-10.941
▁Fərmanı	-10.941
▁Berlində	-10.941
▁Məmmədovu	-10.9413
▁yüksəli	-10.9415
▁Səh	-10.9416
▁atdı	-10.942
▁etdirməy	-10.9425
▁silahlar	-10.9427
▁konsertlər	-10.9428
▁kilsəni	-10.9429
▁95	-10.9431
sü	-10.9443
▁Hindistanın	-10.9444
▁Cabbar	-10.9447
ban	-10.9448
▁qaçmağ	-10.9449
▁görülmüş	-10.9449
▁prinsipləri	-10.9451
▁1977	-10.9451
▁fondu	-10.9453
▁Lui	-10.9455
▁strukturu	-10.9459
▁gerçək	-10.946
rofessor	-10.946
▁epizod	-10.9461
▁genetik	-10.9461
▁buyurdu	-10.9461
▁Şəhid	-10.9462
▁İyun	-10.9463
▁okeanın	-10.9466
▁payızında	-10.947
▁xə	-10.9472
▁nisbəti	-10.9473
▁səbəbiy	-10.9474
▁elin	-10.9474
▁üsulla	-10.9481
▁etmirdi	-10.9483
▁Nic	-10.9484
▁yeyi	-10.9486
ezliklə	-10.9486
▁görüşlər	-10.9488
▁gələnlər	-10.9489
▁hissələrin	-10.949
▁çağırır	-10.949
▁pəncərə	-10.9495
▁hədiyyələr	-10.9498
▁Naziri	-10.9498
cam	-10.9504
▁ünvan	-10.9506
▁dəyiş	-10.9507
▁binaların	-10.9508
▁qoş	-10.9509
▁kadrlar	-10.951
▁güləş	-10.952
▁Möh	-10.9521
dissertasiyasını	-10.9523
▁sevdiyi	-10.9523
▁nəticələndi	-10.9523
▁Xızı	-10.9523
▁yəqin	-10.9523
▁Ulu	-10.9523
▁otuz	-10.9524
▁karvan	-10.9524
▁götürülü	-10.9524
▁Bursa	-10.9525
▁aclıq	-10.9525
▁Qoca	-10.9526
▁Mehdiyev	-10.9527
▁təhlükəsizli	-10.9529
▁əsrlərin	-10.9529
▁şəhristanı	-10.9529
▁sonsuz	-10.9529
▁ortalarına	-10.9533
▁sevir	-10.9536
▁Hadi	-10.9538
▁Bəs	-10.9538
▁Peterburq	-10.9539
▁edilər	-10.954
▁məskunlaşdı	-10.9541
▁qanı	-10.9542
▁danışıq	-10.9547
▁mətni	-10.9552
▁Ərəbistanı	-10.9557
nternat	-10.9558
▁ifası	-10.9564
ləşir	-10.9565
▁İm	-10.9567
▁süqut	-10.9567
▁obraz	-10.9571
▁hekayəsi	-10.9575
▁qaçı	-10.9577
▁yarımadasını	-10.9579
▁Per	-10.958
▁monqollar	-10.958
▁höküməti	-10.958
▁metodu	-10.9581
▁Xa	-10.9583
▁etira	-10.9584
lassik	-10.9585
▁Əhəməni	-10.9586
▁hazırlayı	-10.9586
mayıb	-10.9587
ersiya	-10.9587
▁köçürülməsi	-10.9593
▁payın	-10.9598
▁And	-10.9598
▁Siy	-10.9601
▁57	-10.9601
▁şərtləri	-10.9602
▁şirkətlər	-10.9603
▁Zi	-10.9604
▁yerləş	-10.9606
▁vurmaq	-10.9607
▁ədədlər	-10.9611
A	-10.9612
cim	-10.9615
▁İnter	-10.9617
itar	-10.962
▁58	-10.9623
▁görüldü	-10.9623
▁nitq	-10.9624
qəsd	-10.9626
acaq	-10.9631
▁Yur	-10.9633
▁Səfər	-10.9639
▁uzaqda	-10.9639
▁çıxarılır	-10.964
▁faktı	-10.9641
▁Komanda	-10.9643
künc	-10.9648
▁Şıxlinski	-10.9649
▁rusları	-10.965
▁ayrıl	-10.9651
▁avtomobilləri	-10.9651
▁komissarı	-10.9652
şünaslı	-10.9655
▁səbəblə	-10.9658
▁rəqibin	-10.9663
▁ustad	-10.9664
▁qoruyur	-10.9666
▁şeiri	-10.9669
▁Komitəsin	-10.967
▁xalqımız	-10.9672
▁etmələri	-10.9673
▁müharibəni	-10.9679
altı	-10.9682
▁sintez	-10.9685
▁ov	-10.969
rtəsi	-10.9691
▁53	-10.9692
▁Məmlük	-10.9692
▁tələblər	-10.9701
▁gətirilə	-10.9704
▁iştirakçıları	-10.9707
▁Fərrux	-10.9712
▁UNESCO	-10.9712
▁zireh	-10.9712
▁Fərəc	-10.9712
▁mahnılarını	-10.9712
▁varsa	-10.9712
lanması	-10.9713
▁ağıllı	-10.9724
▁dəstələr	-10.9727
▁buraxdı	-10.9728
▁Həsənəli	-10.9729
landı	-10.973
▁ölümün	-10.9732
▁istehsalat	-10.9732
▁qaydası	-10.9733
▁Krallığı	-10.9733
▁siyahısında	-10.9733
▁padşahı	-10.9734
▁Liqasın	-10.9734
dib	-10.9735
▁hekayələri	-10.974
▁həyət	-10.9741
▁razılaşma	-10.9742
▁Müs	-10.9751
▁sub	-10.9755
▁yəhudilər	-10.9755
▁Tom	-10.9758
▁otaqda	-10.9758
▁qohumları	-10.9759
▁biləcəyini	-10.9761
▁tutma	-10.9765
▁1918	-10.9768
▁səthin	-10.977
▁molekul	-10.9771
▁düşünür	-10.9775
▁Sührəvərdi	-10.9776
sabiq	-10.9776
▁olunmur	-10.9776
▁1870	-10.9776
▁tutuldu	-10.9776
▁fonunda	-10.9776
▁dinin	-10.9776
▁tapdı	-10.9777
▁xəstəliyində	-10.9777
▁göstər	-10.978
▁xəbərlər	-10.978
▁cizgi	-10.9781
▁Hacıbəyli	-10.9783
▁heykəltəraş	-10.9784
▁mifologiyasında	-10.9785
▁Ra	-10.9785
▁Ben	-10.9787
▁foto	-10.9787
▁Can	-10.9788
▁yaradıcılığ	-10.9788
▁yetirilir	-10.9789
▁mükafatlar	-10.979
▁doğurur	-10.979
ekranlaşdırılmış	-10.9792
▁kubokunu	-10.9797
▁İri	-10.9797
▁bugün	-10.9797
▁əməli	-10.9798
▁olmadığın	-10.9801
▁Məktəbini	-10.9803
▁materialların	-10.9804
▁Andrey	-10.981
▁statistik	-10.9813
▁xətləri	-10.9815
H	-10.9817
▁regionda	-10.9818
▁izləri	-10.9822
▁kor	-10.9822
▁to	-10.9823
iş	-10.9825
▁Muğa	-10.9825
▁çatması	-10.9827
▁təbəqəsi	-10.983
▁rok	-10.983
▁döş	-10.9831
▁keçidi	-10.9832
12	-10.9832
▁2013	-10.9832
▁Meşə	-10.9836
▁şagirdlərin	-10.9836
▁taxtın	-10.9838
▁Ibrahim	-10.984
▁səmimi	-10.984
▁Uğur	-10.984
▁ADU	-10.984
▁Quşçu	-10.984
▁sanitariya	-10.984
▁İslandiya	-10.984
▁Qalanı	-10.984
▁bitən	-10.984
▁dedikdə	-10.9841
▁rekord	-10.9841
▁qidalanır	-10.9842
▁saf	-10.9843
düyü	-10.9845
▁rütubətli	-10.9849
▁əlaqədə	-10.985
▁Da	-10.9855
lması	-10.9855
▁rayonlarda	-10.9858
▁əlaqələrin	-10.9859
▁toqquşma	-10.9862
▁xeyriyyə	-10.9863
▁metod	-10.987
O	-10.9872
▁standart	-10.9872
▁salı	-10.9874
▁işçiləri	-10.9881
▁memarı	-10.9889
▁qaldıra	-10.989
▁qızılbaş	-10.9892
▁layihələr	-10.9894
▁studiya	-10.9894
▁yardımçı	-10.9895
prezidenti	-10.9895
▁olanların	-10.9901
▁Moldova	-10.9904
▁Xədicə	-10.9904
▁edilmir	-10.9904
berq	-10.9904
▁düşdüyü	-10.9905
▁soğan	-10.9908
▁yuva	-10.9909
▁avar	-10.991
▁İsanı	-10.9911
▁bölünmüşdü	-10.9912
▁mərasim	-10.992
▁Məlikov	-10.9922
▁həzrət	-10.9922
▁soy	-10.9924
▁çıxarmışdı	-10.9925
▁romanını	-10.9933
▁ağanı	-10.9935
▁hədəf	-10.9936
▁ödəmək	-10.9937
▁amillər	-10.9937
▁bişiril	-10.9939
▁bədəni	-10.994
▁qoşunla	-10.9942
▁çıxarı	-10.9942
tmişdi	-10.9944
▁Şimalda	-10.9953
▁Ta	-10.9957
▁Emin	-10.9958
san	-10.9962
▁itir	-10.9962
▁paleo	-10.9969
▁Məşhəd	-10.9969
▁Platon	-10.9969
▁Vidadi	-10.9969
▁Əlcəzair	-10.9969
▁Ərzurum	-10.9969
▁transfer	-10.9969
▁vurduğu	-10.997
▁pulsuz	-10.9971
▁çalışdığı	-10.9972
▁vahidləri	-10.9973
▁Köçərli	-10.9976
▁eynidir	-10.9977
▁oynayırdı	-10.9985
▁gərginlik	-10.9985
▁nəslini	-10.9985
▁stansiyaları	-10.9986
▁qazan	-10.9988
▁vətəndaşların	-10.9989
▁çatdırır	-10.999
▁01	-10.999
▁Sim	-10.9993
▁finalın	-10.9993
▁iştirakçı	-10.9993
▁oğuz	-10.9994
yı	-10.9997
yanı	-11.0005
▁49	-11.0007
▁tamaşaçılar	-11.0009
▁astronom	-11.0009
▁dəvə	-11.0011
▁bəs	-11.0013
▁saxlan	-11.0014
▁çəkilməy	-11.0014
▁ədəbiyyatın	-11.0015
▁Peyğəmbəri	-11.0016
▁Göytürk	-11.0018
▁şeirlərini	-11.002
▁dərsləri	-11.002
▁olunduqda	-11.002
▁gir	-11.0021
▁Məkkədə	-11.0023
▁fil	-11.0027
▁Be	-11.0027
▁kəndlilər	-11.0027
▁Əmin	-11.0027
▁Ölü	-11.0028
▁tipləri	-11.0029
▁Dərə	-11.0034
▁Münhen	-11.0035
▁Qlazqo	-11.0035
▁Sentyabr	-11.0035
▁müqabili	-11.0035
▁qoşuldu	-11.0035
▁tənəffüs	-11.0035
▁bağlaya	-11.0035
▁ağciyər	-11.0035
▁kəsmə	-11.0036
▁Baha	-11.0037
▁quyu	-11.0037
▁önəm	-11.0041
▁adanı	-11.0042
vr	-11.0043
▁bölmələri	-11.0047
▁köçdü	-11.0051
▁iyulda	-11.0052
▁Ruslar	-11.0054
▁uğradı	-11.0055
▁kuboku	-11.0056
▁klipi	-11.0059
▁müəllifin	-11.0059
▁kar	-11.0063
▁sinql	-11.0069
▁Alimlər	-11.0072
▁sifariş	-11.0078
▁cinsin	-11.009
▁dərəcəsini	-11.0096
▁şərt	-11.0096
▁anbarı	-11.0096
▁abidələrin	-11.0098
▁təbliğat	-11.0098
▁Viktor	-11.01
▁cır	-11.01
est	-11.01
▁Sahil	-11.01
▁Məsud	-11.0101
▁qoyulması	-11.0101
rt	-11.0103
▁səlahiyyətləri	-11.0105
▁Kim	-11.011
▁evləndi	-11.0111
I	-11.0112
▁Xanlar	-11.0117
▁analizi	-11.012
▁şiddətl	-11.012
▁yönəlmiş	-11.0122
▁əsgərlərin	-11.0124
▁mühərriki	-11.0125
dilər	-11.0131
▁yastı	-11.0138
▁cismin	-11.0141
▁vurmuşdu	-11.0147
▁artist	-11.0148
▁şahidi	-11.0152
▁tədqiqatları	-11.0153
anlı	-11.0153
▁Roman	-11.0154
▁oykonimi	-11.0155
▁Xuda	-11.0158
▁üstünlüyü	-11.0159
▁qaba	-11.016
rdı	-11.0161
▁nümunələrindən	-11.0161
▁növünü	-11.0162
▁əsərlərdə	-11.0165
ateqoriya	-11.0166
▁Toğrul	-11.0167
▁fındıq	-11.0167
▁yetişi	-11.0167
▁şikayət	-11.0167
▁canavar	-11.0167
yiş	-11.0167
▁yarış	-11.0167
▁Axundzadə	-11.0167
▁vəziyyətində	-11.0168
▁Presli	-11.0171
lməsi	-11.0172
▁tədqiqatçıların	-11.0173
▁konfranslar	-11.0175
▁qızılı	-11.0176
▁hakimləri	-11.0178
▁ey	-11.0183
TV	-11.0186
▁bilmədiyi	-11.0187
▁evlənir	-11.0189
ləyir	-11.019
▁qadınları	-11.0195
▁torpaqda	-11.0199
▁mövzuda	-11.0202
▁Bilə	-11.0203
▁hədis	-11.0207
▁müəllimlərin	-11.021
▁lider	-11.0211
▁sakinlərin	-11.0212
▁qabiliyyətin	-11.0217
▁İr	-11.0225
▁1500	-11.0226
▁halları	-11.0229
▁Mis	-11.0229
▁Döyüş	-11.0229
▁Məhərrəm	-11.023
▁Bələdiyyə	-11.0233
▁Varşava	-11.0233
▁kobud	-11.0233
▁İzmir	-11.0233
▁Xoyski	-11.0234
▁1895	-11.0236
▁Cəmiyyətin	-11.024
fər	-11.0243
▁abidəni	-11.0247
▁maral	-11.0249
▁tayfasından	-11.025
▁məktubda	-11.0252
▁əmiri	-11.0252
▁seçim	-11.0254
▁biologiya	-11.0255
Yorkda	-11.0256
▁qiymətlər	-11.0258
▁düzü	-11.0259
▁Şam	-11.026
▁cəbhədə	-11.026
▁incəsənətin	-11.0263
▁İşçi	-11.0266
▁izlə	-11.0275
▁rolunda	-11.0277
▁öyrənməy	-11.0283
▁Firu	-11.0284
təhsil	-11.0285
▁Televiziyasın	-11.0287
▁Vasi	-11.0287
▁tərəfini	-11.0289
▁zəhmət	-11.03
▁Kalankatlı	-11.03
▁xanlıq	-11.0302
▁Hüm	-11.0303
▁zirvə	-11.0303
▁ideyalarını	-11.0308
▁toponim	-11.031
▁hücumlar	-11.0311
▁körpə	-11.0316
▁Muradov	-11.0316
▁siyasətin	-11.0318
▁külli	-11.0319
▁aspiranturasın	-11.0321
▁yerlərini	-11.0321
▁Müharibədə	-11.0325
▁Tam	-11.0325
çe	-11.0325
▁At	-11.0326
▁yüksələ	-11.0326
▁dinamik	-11.0326
▁enerjisini	-11.0328
▁jurnallar	-11.0329
▁toplayı	-11.0329
▁saç	-11.0333
▁Adana	-11.0333
▁kökləri	-11.0333
▁axar	-11.0333
▁peyki	-11.0339
▁ziyalıları	-11.0348
şünas	-11.0349
▁elmin	-11.0353
▁örtük	-11.0354
▁dəstəsini	-11.0358
▁maneə	-11.036
▁ucu	-11.0361
▁müəllifləri	-11.0361
▁şeirlərində	-11.0363
▁1883	-11.0368
▁Afşin	-11.0368
▁Yağləvənd	-11.0368
▁lisenziya	-11.0368
▁Strabon	-11.0368
▁bilməyib	-11.0368
▁fərziyyə	-11.0368
▁Babur	-11.0369
siniz	-11.037
▁Mədəni	-11.037
▁çağda	-11.0371
▁Yuxarıda	-11.0371
▁komandaları	-11.0374
abitə	-11.0376
▁dövrlərində	-11.0376
bi	-11.0377
▁Əd	-11.0381
▁hərəkatın	-11.0384
kif	-11.0387
▁Birliyin	-11.0389
▁Qacarlar	-11.0394
▁ailələri	-11.04
▁potensial	-11.04
▁99	-11.0404
▁Dara	-11.0412
▁Komissar	-11.0413
▁minarə	-11.0414
▁küçəsi	-11.0415
▁tənqidçi	-11.0415
▁obrazları	-11.0415
▁obyektlər	-11.0416
çə	-11.0418
▁xörək	-11.0419
▁saytı	-11.042
▁əşya	-11.0423
dim	-11.0423
▁təkid	-11.0426
▁obyekt	-11.0427
▁Parlamentin	-11.0428
▁öldürdü	-11.0436
▁Konstantin	-11.0436
▁Toponim	-11.0436
▁Gözəl	-11.0436
▁intihar	-11.0436
▁AXC	-11.0436
▁əlaqələndirir	-11.0437
▁uşağın	-11.0438
▁balığı	-11.0438
▁şərqşünas	-11.0438
ləşmə	-11.044
▁hamilə	-11.044
▁29-	-11.0443
▁sular	-11.0443
▁Günü	-11.0444
▁ostanı	-11.0444
▁konsul	-11.0446
▁Sahəsi	-11.0447
▁Key	-11.0447
▁gələndə	-11.0451
fahi	-11.0461
▁təkamül	-11.0468
▁çarpa	-11.0468
▁sonların	-11.0473
▁sahilləri	-11.0477
▁nüfuzunu	-11.0478
▁hökümət	-11.0481
▁reallaş	-11.0489
▁müxtəlifliyi	-11.0493
▁işləmə	-11.0497
▁iyulunda	-11.05
▁verilməsini	-11.05
▁1892	-11.0501
▁Hikmət	-11.0504
▁icarə	-11.0504
▁kəmiyyət	-11.0504
▁müayinə	-11.0504
▁qrafik	-11.0505
▁tərzd	-11.0505
▁Region	-11.0505
▁oxumağ	-11.0505
▁jurnalın	-11.0507
lap	-11.0507
▁saldığı	-11.0509
▁soyu	-11.0513
▁yəhudilərin	-11.0513
han	-11.0515
▁bildir	-11.0516
▁dağılması	-11.052
▁Açıq	-11.052
▁Dövlətin	-11.0521
▁köçürülmüş	-11.0521
▁mərtəbəli	-11.0522
▁Şirvanda	-11.0522
▁əlini	-11.0523
▁Ağalar	-11.0523
▁gətirilir	-11.0525
▁amerikan	-11.0528
▁əlamətlər	-11.0536
▁binada	-11.0536
▁rollarda	-11.0537
▁gəmilər	-11.0539
▁parçalanması	-11.054
▁Komitə	-11.054
nur	-11.0541
▁Albom	-11.0541
▁böyrək	-11.0544
▁etməsin	-11.0545
▁1880	-11.0546
▁proqramının	-11.0549
▁qərargahı	-11.0549
▁faciəsi	-11.0551
▁yetirilmişdi	-11.0551
▁şərəf	-11.0554
▁ölən	-11.0556
▁məntəqələrində	-11.0558
▁Ceyh	-11.0559
▁qrupunda	-11.0562
▁2016	-11.0563
▁Po	-11.0566
lub	-11.0567
▁əcnəbi	-11.0568
▁inanır	-11.0569
▁çayında	-11.0571
▁Zərdüşt	-11.0573
▁Riyaziyyat	-11.0573
▁İndoneziya	-11.0573
▁protokol	-11.0573
▁Volqa	-11.0573
▁dəyişmiş	-11.0574
▁polad	-11.0574
▁qurucusu	-11.0574
▁axtarış	-11.0575
▁Eramız	-11.0577
▁öyrənmiş	-11.0578
▁təlimi	-11.058
▁üzəri	-11.0581
▁saysız	-11.0584
▁Samur	-11.0584
▁salınır	-11.0592
▁62	-11.0602
▁66	-11.0607
▁mərkəzdə	-11.0608
▁cəm	-11.0611
üd	-11.0614
▁qaçqın	-11.0614
▁şəklini	-11.0616
▁zavodun	-11.0617
▁ideyasını	-11.0625
▁mənaların	-11.0626
▁köçürülmüşdü	-11.0626
▁İndiyə	-11.063
N	-11.0636
▁mühazirələr	-11.0636
tək	-11.0638
▁qaçır	-11.0638
▁itirmiş	-11.0642
▁məmulatları	-11.0643
▁Motsart	-11.0643
▁Puşkin	-11.0643
▁hörülmüş	-11.0643
▁canişin	-11.0643
▁Ferr	-11.0643
▁Minsk	-11.0643
▁Prussiya	-11.0644
▁həcmində	-11.0645
▁xeyir	-11.0645
▁Səhər	-11.0646
▁Salam	-11.0648
▁İspaniyada	-11.065
ül	-11.0651
▁sevən	-11.0654
▁Mor	-11.0655
▁63	-11.0656
▁Fərid	-11.0658
▁güllə	-11.0659
▁mil	-11.0659
▁olduqların	-11.0659
kal	-11.0665
▁sifarişi	-11.0666
▁qaydalarını	-11.0667
▁ənənələrin	-11.0672
▁sülaləsin	-11.0676
▁millisi	-11.0677
▁parlamenti	-11.0679
kan	-11.069
▁sənədlərin	-11.0691
▁tamaşaçıları	-11.0696
▁planetlər	-11.0698
▁etdirilmiş	-11.0702
▁kolxoz	-11.0703
▁bənd	-11.0703
şı	-11.071
▁qarşılaşdı	-11.0711
aşırı	-11.0711
▁Osetiya	-11.0713
▁kədər	-11.0713
▁yarımkürəsin	-11.0713
▁bacardı	-11.0713
▁cənab	-11.0713
▁artilleriya	-11.0713
▁boks	-11.0713
▁Bədəlbəyli	-11.0713
▁qamış	-11.0714
▁Təsadüfi	-11.0715
▁Qədir	-11.0715
▁növlərini	-11.0717
▁ötürülməsi	-11.0718
övhər	-11.0718
▁işığın	-11.0719
tmək	-11.0721
▁Xanım	-11.0722
▁astronomiya	-11.0722
▁qurum	-11.0724
▁artımı	-11.0731
▁donanma	-11.0735
ahi	-11.074
aliyyə	-11.0742
▁sırası	-11.0745
▁daşın	-11.0747
▁arxada	-11.0751
nti	-11.0753
▁1899	-11.0755
▁yekun	-11.0755
▁rəsmlər	-11.0756
▁Hələb	-11.0764
▁çəkilmə	-11.0765
▁həllini	-11.0765
▁media	-11.0767
▁Mə	-11.0768
▁Qrup	-11.0768
▁72	-11.0769
qor	-11.0772
lmuşdu	-11.0775
▁albomunda	-11.0781
şun	-11.0781
ərviş	-11.0782
▁silindr	-11.0783
▁təqvim	-11.0783
▁Baltik	-11.0784
▁bağlandı	-11.0784
▁anlayış	-11.0786
əri	-11.0786
▁Oyun	-11.0788
▁yaradıcıları	-11.0788
lanmış	-11.0795
▁zənginliyi	-11.0795
▁Herat	-11.0798
▁Turan	-11.08
▁termin	-11.0802
▁xürrəmilər	-11.0803
▁des	-11.0805
30	-11.0807
▁edilsə	-11.0807
▁1878	-11.0812
▁To	-11.0813
▁Mada	-11.0817
işli	-11.0819
▁Sol	-11.0823
▁bazarı	-11.0824
▁iclasın	-11.0824
▁etdirirdi	-11.0827
▁qarşısın	-11.0827
işmiş	-11.083
▁uğurları	-11.083
▁Qüds	-11.0839
▁yarpaq	-11.0842
▁68	-11.0844
▁itkilər	-11.0847
▁sinfin	-11.0848
▁sənədləri	-11.0849
▁Arş	-11.085
▁tapşırığı	-11.0852
▁humani	-11.0853
▁alınma	-11.0854
▁Liverpul	-11.0854
▁Maqomayev	-11.0854
▁Qahirə	-11.0854
▁Topçubaşov	-11.0854
▁kinorejissor	-11.0854
▁Keçi	-11.0854
▁Müqavilə	-11.0854
▁Estoniya	-11.0854
▁səhih	-11.0854
▁Mübariz	-11.0854
▁kamil	-11.0855
▁qayıtmışdı	-11.0856
▁müddətli	-11.0857
▁nəfərin	-11.087
▁demiş	-11.0873
▁2,	-11.0876
▁mühiti	-11.0883
fiya	-11.0885
▁yaradırdı	-11.0886
▁dayaq	-11.0886
ex	-11.0889
▁ing	-11.0889
▁etməmiş	-11.089
▁birləşdiri	-11.0895
▁məktubu	-11.0898
zey	-11.09
▁taxtda	-11.0901
▁qoşununu	-11.0903
▁ayırma	-11.0903
▁çıxma	-11.0906
▁Qəzvin	-11.0909
suvar	-11.091
▁Kürü	-11.0913
▁yetirmək	-11.0916
▁terrorçu	-11.0917
▁vəzifəni	-11.0918
▁Kam	-11.0921
▁liman	-11.0922
▁hadisədə	-11.0923
▁qayıtmış	-11.0923
▁3000	-11.0924
▁xatirələrində	-11.0924
▁Bağır	-11.0925
▁Humay	-11.0926
▁Yaşıl	-11.0926
▁voleybol	-11.0926
▁Mansurov	-11.0926
▁oyk	-11.0926
▁qoyduğu	-11.0927
▁kütlələri	-11.0935
▁idmançı	-11.0936
▁ölmüş	-11.0936
▁məhkəməsi	-11.0937
▁sarayını	-11.0937
▁zahir	-11.0937
▁göstəriş	-11.094
▁regionun	-11.0943
▁sentyabrda	-11.0945
▁məhəbbəti	-11.0945
▁təbiətdə	-11.0945
▁adlandırma	-11.0949
▁sakinlər	-11.0949
▁səsini	-11.0955
▁sərəncam	-11.0955
▁Sənan	-11.0956
▁Kilsəsi	-11.0957
▁yaralanı	-11.0957
iyalı	-11.0959
▁keçirirdi	-11.0964
▁1828-	-11.0966
▁ərazilərini	-11.097
▁1873	-11.0974
▁Nuri	-11.0975
▁ingiliscə	-11.0979
▁məhsulun	-11.098
▁fəaliyyətlə	-11.0987
lığını	-11.0987
laq	-11.099
▁baxan	-11.0991
▁Əsəri	-11.0992
▁orqanlarında	-11.0996
▁müdrik	-11.0997
▁Əbdürrəh	-11.0997
▁növündə	-11.0997
▁Foqts	-11.0997
▁avro	-11.0997
▁Gəray	-11.0997
▁ləzgi	-11.0998
▁Bəhmənyar	-11.0998
sinin	-11.0998
▁camaatın	-11.0999
▁ətəklərində	-11.1
▁yetişdiril	-11.1
▁mexanizm	-11.1002
▁Güm	-11.1003
▁ağıl	-11.1005
▁arxasın	-11.1007
▁savadlı	-11.1007
tta	-11.1009
▁Peru	-11.101
▁ip	-11.1012
▁cəbhəsində	-11.1014
▁diqqətlə	-11.1016
▁işçilərin	-11.1018
▁ər	-11.1025
uğ	-11.1026
▁qayıtma	-11.1027
▁varlığın	-11.1038
▁şərqi	-11.1038
▁Jurnalist	-11.1041
▁cümlə	-11.1046
▁metallar	-11.1047
▁şif	-11.105
ğıda	-11.1051
▁alov	-11.1051
▁Leon	-11.1052
▁şairə	-11.1053
▁çəkmişdi	-11.1053
▁şeydə	-11.1053
▁175	-11.1053
▁millətin	-11.1055
▁hadisələrdə	-11.1057
▁planetlərin	-11.1058
▁çıxartdı	-11.1059
▁aparmağ	-11.1059
▁etibarı	-11.1059
▁67	-11.1061
əhiyyə	-11.1063
▁respublikası	-11.1066
▁Quranı	-11.1066
▁Fevral	-11.107
▁Pavel	-11.107
▁Xalça	-11.107
▁üfüq	-11.107
▁Florensiya	-11.107
▁Mənsur	-11.107
▁1890	-11.107
▁ödəniş	-11.107
▁Rəvayət	-11.107
▁rep	-11.1072
▁lüğət	-11.1073
▁öldürmək	-11.1073
▁Xaçın	-11.1073
▁Yayım	-11.1074
▁bəyə	-11.1075
▁qrupda	-11.1076
▁tərəqqi	-11.1079
▁ideolo	-11.108
▁tutulu	-11.1082
▁texnolo	-11.1087
▁qurub	-11.1087
▁bucaq	-11.1088
▁Bal	-11.1096
▁formalaşmış	-11.1096
▁Akademiya	-11.1097
▁sütun	-11.1097
▁yanı	-11.1099
rza	-11.1101
▁qoruğu	-11.1101
▁Plan	-11.1102
▁Los	-11.1102
▁Bo	-11.1104
▁dönə	-11.1105
▁tamamlayı	-11.1108
lüyündə	-11.1109
▁yaylası	-11.1115
▁soyadı	-11.1123
nt	-11.1127
▁yataq	-11.1128
▁tələblərin	-11.113
▁çempionat	-11.1131
▁Konstitusiyası	-11.1132
▁xalçası	-11.1135
▁kürdlər	-11.1135
▁York	-11.1139
9-	-11.114
▁ayaqları	-11.1142
▁sır	-11.1142
▁Mətbuat	-11.1143
▁Seçki	-11.1143
▁mühakimə	-11.1143
▁tənəzzül	-11.1143
gin	-11.1143
▁orduları	-11.1143
▁qəfil	-11.1144
▁qəbiristanlığın	-11.1144
▁litr	-11.1145
▁itirir	-11.1145
▁təbəqəsində	-11.1147
▁Car	-11.1147
▁sədrəzəm	-11.1148
▁versə	-11.1149
▁planını	-11.1149
▁dəf	-11.115
▁vadisində	-11.1153
▁birliyin	-11.1154
▁çin	-11.1157
▁Britaniyada	-11.1158
▁olacağın	-11.116
▁seçkiləri	-11.1163
▁Yazı	-11.1166
▁keyfiyyəti	-11.117
▁Albaniyanı	-11.117
▁əhəng	-11.1172
▁məkanın	-11.1187
▁oyunlar	-11.1192
▁yataqlarını	-11.1197
ens	-11.1199
▁qarşısı	-11.12
▁Yunanıstanda	-11.1208
▁Naxçıvanı	-11.1209
▁mövzularda	-11.1212
·	-11.1216
▁Latviya	-11.1216
▁uzunsov	-11.1216
▁Rəcəb	-11.1217
▁prodüser	-11.1217
▁doğulduğu	-11.1217
▁göründüyü	-11.1217
▁problemlərini	-11.1217
▁hamar	-11.1218
▁qurğular	-11.1219
▁oba	-11.1219
▁kadr	-11.1221
təpə	-11.1221
leytenant	-11.1221
▁optik	-11.1222
▁İdarəsin	-11.1223
▁sənətində	-11.1225
▁pop	-11.1226
▁münasibətdə	-11.1227
▁elementin	-11.1229
▁qurultay	-11.1229
▁adəti	-11.1229
▁dəyişmə	-11.1232
▁dövlətində	-11.1237
▁prosesin	-11.1237
▁birləşdirilməsi	-11.124
▁yığı	-11.1242
bət	-11.1244
▁qoşulur	-11.1247
▁süqutun	-11.1251
▁xanları	-11.1256
▁dəliyi	-11.126
▁Wor	-11.1264
▁keçirə	-11.1265
▁topla	-11.127
▁komitə	-11.1272
▁Qrupun	-11.1274
▁qədə	-11.1274
▁hüdudlarında	-11.1276
▁ağaclar	-11.1281
▁140	-11.1282
▁Qaraca	-11.1286
▁başlayanda	-11.1286
▁irqi	-11.1287
▁1863	-11.1291
▁Avesta	-11.1291
▁Moğol	-11.1291
▁Niyazi	-11.1291
▁Kəbir	-11.1291
▁Nüvə	-11.1291
▁həcc	-11.1291
▁Bədəl	-11.1291
▁dağıldı	-11.1291
▁Qəznəvi	-11.1291
▁çağırdı	-11.1293
V	-11.1294
R	-11.1297
▁çatmaq	-11.1298
▁valideynləri	-11.1303
▁Bayan	-11.1305
▁bel	-11.1307
▁heykəlin	-11.1309
▁əlləri	-11.131
▁gəlməyə	-11.1312
▁yonulm	-11.1314
▁tank	-11.1319
▁avto	-11.1321
▁monastır	-11.1325
▁formalaşır	-11.1326
▁tələbi	-11.1327
▁sərin	-11.133
▁Zeynə	-11.133
▁dağların	-11.1334
▁di	-11.1334
▁həqiqəti	-11.1336
▁məzunları	-11.1339
▁xanlıqları	-11.134
▁quşu	-11.1346
▁sənətçi	-11.1347
▁qurşağı	-11.1347
▁Zəy	-11.1348
▁Gün	-11.1352
▁Ki	-11.1353
qrafik	-11.1354
▁günlər	-11.1354
▁qram	-11.1357
▁sənətkarı	-11.1357
▁yazılarında	-11.136
▁götür	-11.136
▁qalmaq	-11.1361
arpa	-11.1362
▁obyektlərin	-11.1363
▁təzahür	-11.1364
▁düşünülür	-11.1365
▁hüzurun	-11.1365
▁şəffaf	-11.1365
▁yanlış	-11.1365
▁Ərəblinski	-11.1365
▁mağaza	-11.1365
▁Hidayət	-11.1366
▁basketbol	-11.1366
funksional	-11.1367
▁yazın	-11.1372
▁zorla	-11.1372
▁portret	-11.1374
▁ailədən	-11.1374
.	-11.1375
▁məsafəni	-11.1376
sey	-11.1379
▁qazanması	-11.138
▁130	-11.1381
▁öldürülü	-11.1381
▁imkanlarını	-11.1382
▁Yaponiyanı	-11.1382
▁yaşda	-11.1385
casına	-11.1386
▁yaşamaqda	-11.1386
▁çayların	-11.1387
▁ixtisaslaşmış	-11.1387
▁müşaviri	-11.1387
▁Təbrizin	-11.1387
▁Xeyr	-11.1388
▁eşidən	-11.1388
▁varlığını	-11.139
nün	-11.1391
ks	-11.1398
▁Man	-11.14
▁tələbləri	-11.14
▁Ərəbistan	-11.1401
ilir	-11.1402
▁komm	-11.1406
▁hərəkətin	-11.1406
▁sənayesin	-11.1407
▁maraqlıdır	-11.1409
▁yarışda	-11.1418
▁Dövrün	-11.1419
▁heyvanları	-11.1419
▁Mit	-11.1424
▁buyuru	-11.1426
▁getdiyi	-11.1427
▁təhlükəsizliyi	-11.1429
lənməsi	-11.143
▁sənədlərdə	-11.1433
▁tamaşaları	-11.1433
▁Oruc	-11.1434
ərəqqi	-11.1434
▁pərdə	-11.1435
▁Hüs	-11.1436
▁vəzifəli	-11.1437
▁əqli	-11.1438
▁adada	-11.1439
▁Allahverdi	-11.144
¬	-11.144
▁Diyarbəkir	-11.144
▁Rəhman	-11.144
▁qoxu	-11.144
▁təşviq	-11.144
▁Aktrisa	-11.144
▁Məcid	-11.144
▁Paul	-11.1441
▁sürdü	-11.1443
mdar	-11.1444
▁rejim	-11.1446
▁sualtı	-11.1446
▁Sarayın	-11.1446
▁İmperator	-11.1447
▁qalaları	-11.1449
▁vətəndaşları	-11.1453
▁acı	-11.1453
▁fərqlənirdi	-11.1454
rom	-11.1454
▁ifaçı	-11.1456
rasiya	-11.1457
▁Bədən	-11.1458
▁şöhrəti	-11.1458
▁həbsxana	-11.1465
▁həyətin	-11.1468
girov	-11.1476
ullah	-11.1477
▁niyə	-11.1481
▁icrası	-11.1483
▁Fakültə	-11.1484
rac	-11.1494
▁hərəkətlər	-11.1495
▁110	-11.15
▁Adam	-11.15
▁Monqol	-11.1501
▁karyerası	-11.151
▁mətbu	-11.1515
▁mühərrikləri	-11.1515
▁İstehsal	-11.1516
▁itaət	-11.1516
▁Çexiya	-11.1516
▁Sağ	-11.1516
▁zəfər	-11.1516
▁tiraj	-11.1517
▁Fəzl	-11.1517
▁Nyuton	-11.1517
▁hüquqşünas	-11.1517
▁Behbudov	-11.1517
▁qalxdı	-11.1517
▁Nami	-11.1518
▁1894	-11.1518
▁Seyf	-11.152
▁Saleh	-11.152
▁yetirilməsi	-11.1523
▁materialı	-11.1525
▁işlərdə	-11.1526
▁çoxları	-11.1529
▁qəbirlər	-11.1529
layır	-11.1532
▁adlandırılı	-11.1533
▁pey	-11.1534
▁qoşulma	-11.1537
▁içəri	-11.1539
▁nəticələni	-11.1539
yu	-11.1542
oslav	-11.1544
▁görməyə	-11.1545
▁xidmətini	-11.1545
▁növlər	-11.1547
▁oxumuş	-11.1549
▁kəsə	-11.155
▁kapital	-11.1551
▁aktı	-11.1552
▁televiziyasın	-11.1556
monu	-11.1559
▁tac	-11.156
▁vuruşma	-11.1562
▁ştatında	-11.1563
▁söyləmə	-11.1567
▁ifraz	-11.1569
▁Yolu	-11.1574
▁mahal	-11.1578
▁tərəflər	-11.1578
▁memarlığını	-11.158
▁mübahisələr	-11.1582
▁toplanmış	-11.1586
▁həftədə	-11.1587
▁ürəyi	-11.1588
▁knyaz	-11.1589
▁qalma	-11.1589
▁effektiv	-11.1592
▁1881	-11.1592
▁Həştərxan	-11.1592
▁Mendeleyev	-11.1592
▁eksperiment	-11.1592
▁heyrət	-11.1592
▁park	-11.1593
▁ediləcək	-11.1593
▁mülahizələr	-11.1594
▁saxladı	-11.1594
▁dövrlərin	-11.1594
▁tərif	-11.1594
▁xatırlan	-11.1595
▁Bilal	-11.1595
▁turnir	-11.1595
▁Gecə	-11.1596
▁Ukraynada	-11.1598
▁köməy	-11.1598
▁deməyə	-11.16
▁müzakirələr	-11.1603
övqəl	-11.1603
niş	-11.1604
▁Konya	-11.1604
▁saziş	-11.1604
▁Altı	-11.1606
▁Qorki	-11.1607
▁şad	-11.1611
anu	-11.1614
▁Mükafatın	-11.1615
▁ço	-11.1615
▁hissəni	-11.1617
▁aləm	-11.1623
▁Orda	-11.1624
▁həbsdə	-11.1624
▁memarlığın	-11.1629
▁toxuna	-11.163
▁qızını	-11.163
▁rəssamlar	-11.1639
▁enli	-11.164
▁mənbədə	-11.1641
▁orqanizmdə	-11.1641
▁göllər	-11.1646
▁bölməsini	-11.165
▁olunma	-11.165
▁hərf	-11.1651
▁1888	-11.1651
▁təyinatl	-11.1652
▁Xanı	-11.1653
▁olacağı	-11.1653
▁к	-11.1654
▁nümunələrini	-11.166
▁mötə	-11.166
▁kəşfi	-11.1661
▁türbəni	-11.1662
▁Bismark	-11.1669
▁emosional	-11.1669
▁Zəncan	-11.1669
▁çıxarıldı	-11.167
▁quruculuğu	-11.167
▁Ronald	-11.167
▁Əfqanıstanda	-11.167
▁Adıgözəlov	-11.1671
▁ssenarist	-11.1671
▁1893	-11.1672
▁Sam	-11.1672
zm	-11.1672
▁şüaları	-11.1673
▁Xəzinə	-11.1674
▁elementi	-11.1676
▁76	-11.1676
▁paşanı	-11.1677
▁Səfərov	-11.1678
▁nəticələrini	-11.1678
▁qəhrəmanları	-11.1679
▁təbəqədə	-11.1682
▁Baharlı	-11.1683
▁İraqda	-11.1683
▁gətir	-11.1684
▁olmamış	-11.1685
▁ekspedisiya	-11.1686
1-	-11.1687
994	-11.1693
▁qurbanı	-11.1694
▁yürüşləri	-11.1695
ge	-11.1699
▁mübahisəli	-11.1703
▁əd	-11.1705
▁hesabat	-11.1705
▁Park	-11.1705
▁miqyasın	-11.1707
▁dəvəti	-11.1707
▁sürmüşdü	-11.1708
▁hövzəsi	-11.171
▁qarşılaşmada	-11.1711
▁Nov	-11.1712
▁Kazan	-11.1714
,4	-11.1717
▁nümunələr	-11.1718
daş	-11.1718
▁kimsə	-11.1721
▁demokratiya	-11.1723
▁Ağı	-11.1726
▁mexanika	-11.1726
▁baxır	-11.1726
▁istiqamətini	-11.1727
▁siyahıyaalınma	-11.173
▁çıxar	-11.1735
▁mütəxəssislərin	-11.1738
▁fərqləndirmə	-11.1739
dadır	-11.1742
mon	-11.1742
▁Monteneqro	-11.1747
▁1867	-11.1747
▁dönüş	-11.1747
▁psixologiya	-11.1747
▁Qalile	-11.1747
▁Səttar	-11.1747
▁poema	-11.1747
▁sertifikat	-11.1748
▁katolikos	-11.1749
▁naha	-11.1749
▁Pekin	-11.175
▁kölgə	-11.175
▁öyrənilməsin	-11.1756
▁İraqı	-11.1762
▁Nazirliyində	-11.1764
lqar	-11.1765
▁şəkillər	-11.1766
▁qanunun	-11.1766
▁dövlətlərini	-11.1767
▁imzalanmış	-11.177
▁başlanmış	-11.1772
▁göstərməsi	-11.1773
▁96	-11.1776
▁parkı	-11.1777
3-4	-11.1777
▁İsti	-11.1779
▁Klub	-11.1789
▁aspirantura	-11.1801
qay	-11.1802
▁çiçəkləri	-11.1803
▁dastanı	-11.1805
▁əməliyyatların	-11.1807
▁janrı	-11.1811
▁İyul	-11.1814
▁mövqedə	-11.1819
,2	-11.1821
axanı	-11.1822
▁sürətini	-11.1824
▁fəaliyyətdə	-11.1824
▁Mehmandarov	-11.1825
▁təfsir	-11.1825
▁Palatası	-11.1825
▁Trabzon	-11.1825
▁İsrafil	-11.1825
▁kristal	-11.1825
▁fransızlar	-11.1825
▁tektonik	-11.1825
▁Vilhelm	-11.1825
▁şabalıd	-11.1825
▁futbolun	-11.1828
▁landşaft	-11.1829
çılar	-11.1829
▁yayıl	-11.1832
▁Adəm	-11.1833
mən	-11.1834
▁dəyişdirilməsi	-11.1834
▁adalarında	-11.1835
▁silahı	-11.1836
▁müqaviləsini	-11.1838
▁səhnələri	-11.1844
▁pozul	-11.1845
▁ənənəsi	-11.1846
taş	-11.1851
▁Teymurilər	-11.1852
▁hərəkətini	-11.1852
▁miqrasiya	-11.1858
▁yeməyi	-11.1858
▁Çal	-11.1859
▁ədədi	-11.1862
▁gedişində	-11.1868
▁təsnifat	-11.1874
lur	-11.1874
▁çiy	-11.1878
▁mənbələrin	-11.1878
▁Şirkət	-11.1878
qədi	-11.188
▁onlarda	-11.1881
▁Edi	-11.1881
▁şiddət	-11.1883
▁sərhədi	-11.1885
▁birliyini	-11.1888
▁kilsələri	-11.1892
▁dəmiryol	-11.1895
▁Mak	-11.1897
▁31-	-11.1898
ol	-11.1901
▁təsnif	-11.1902
▁Ayətullah	-11.1904
▁qastrol	-11.1904
▁küp	-11.1904
▁məskunlaşıb	-11.1904
▁vəliəhd	-11.1904
▁cəs	-11.1904
▁oxşayır	-11.1905
▁qurduğu	-11.1905
▁evini	-11.1905
▁bitişik	-11.1905
▁təmizləmə	-11.1905
▁ziyarətgah	-11.1906
▁Musayev	-11.1908
▁namizədliyi	-11.1909
▁avadanlıqları	-11.1909
▁zədə	-11.191
▁kül	-11.191
▁diyarı	-11.1911
▁dəyər	-11.1912
▁qeydiyyat	-11.1913
▁mövqeyində	-11.1914
▁Tədqiqat	-11.1916
▁parçalar	-11.1919
▁spektr	-11.192
▁kənarı	-11.1921
▁mövsümünü	-11.1923
▁başlıq	-11.1924
▁ayın	-11.1926
▁buraxılmışdı	-11.1926
▁dinlər	-11.1927
▁işarəsi	-11.1928
▁pulu	-11.1929
▁qəddar	-11.1929
▁lövhə	-11.1931
▁Şahin	-11.1934
▁ziyalılar	-11.1935
▁hazırlanı	-11.1936
▁oluns	-11.1937
▁illərini	-11.1937
qiymətləndirilir	-11.1938
▁Qurani	-11.1943
▁layiqli	-11.1944
▁məşq	-11.1945
▁hissələrdə	-11.1949
▁quldurları	-11.1952
▁dönən	-11.1954
▁gəlməsini	-11.1955
▁birisi	-11.1958
▁Zərdab	-11.1958
▁fəlakət	-11.1959
▁şura	-11.196
▁Mona	-11.1965
▁şagirdləri	-11.1966
▁uğramış	-11.1967
▁zövq	-11.1969
▁genişləndirmə	-11.1976
▁mütəxəssisləri	-11.1977
▁təriqətin	-11.1978
▁zülm	-11.1981
▁bostan	-11.1983
▁bəhanə	-11.1983
▁sığınacaq	-11.1983
▁təhsilli	-11.1984
▁xarabalıq	-11.1985
▁keçiriləcək	-11.1986
▁Hakimiyyəti	-11.1989
▁ucuz	-11.199
▁çarlığı	-11.199
▁elədi	-11.1991
▁çat	-11.1994
▁örtüyünü	-11.1997
▁Polad	-11.1998
▁Kitabi	-11.2002
▁arılar	-11.2008
▁qəzetləri	-11.2009
▁funksiyaları	-11.2009
▁dağıdılmış	-11.2015
▁gündüz	-11.2015
▁girir	-11.2021
▁monastırı	-11.2025
▁qəzetlərində	-11.2026
▁şairləri	-11.2026
▁çoban	-11.2029
▁tanınması	-11.203
▁test	-11.2031
▁ruhunu	-11.2032
▁Od	-11.2032
▁sizi	-11.2033
▁xərcləri	-11.2037
▁ayrılı	-11.2039
▁dairəsini	-11.2039
▁düzənliyi	-11.204
▁keçirilməsində	-11.204
▁Qoy	-11.2041
▁əyləncə	-11.2042
▁böhranı	-11.2045
▁Bahar	-11.2047
▁dövriyyəsi	-11.2054
▁Dəvə	-11.2054
▁bağlanır	-11.2055
▁dediyin	-11.2056
▁xalçaların	-11.2061
▁Monqolustan	-11.2063
▁düzəltmə	-11.2063
▁İrakli	-11.2063
▁Xurşid	-11.2063
▁Geniş	-11.2063
▁Leonardo	-11.2064
▁məscidlər	-11.2065
▁düşürdü	-11.2066
▁düzənlikdə	-11.2067
▁xəttat	-11.2068
▁gəncləri	-11.207
▁cərəyanı	-11.2071
▁qiya	-11.2073
▁maraqla	-11.2075
▁Ar	-11.208
▁Hərəkatı	-11.2085
▁Cəm	-11.2085
▁kitablarında	-11.2087
▁rayonlarını	-11.2087
▁məskənləri	-11.2088
▁dəyişmişdi	-11.2089
inq	-11.2089
▁Xanlıq	-11.2089
llah	-11.2093
▁çıxdıqda	-11.2096
▁planda	-11.2096
▁Qay	-11.2099
▁Amerikanı	-11.2099
▁inqilabında	-11.2101
▁avtomobili	-11.2102
▁Proqramı	-11.2103
▁İşıq	-11.2104
▁qanuna	-11.2106
▁900	-11.2106
▁təsdiqləyi	-11.2107
▁sistemlərini	-11.2109
▁divarında	-11.211
▁variant	-11.2111
▁qaldırır	-11.2114
▁Mari	-11.2124
▁z	-11.2124
▁adamlarını	-11.2128
▁səbəbini	-11.2139
▁boğaz	-11.2143
▁xəyanət	-11.2144
▁gəlmir	-11.2144
▁aşiq	-11.2144
▁onurğa	-11.2144
▁dolğun	-11.2144
▁Nigeriya	-11.2145
▁xronik	-11.2145
▁yayıldığı	-11.2146
▁hasilatı	-11.2149
▁getməyə	-11.215
▁səhnələr	-11.2151
▁Ölüm	-11.2151
▁imzası	-11.2151
▁sintezi	-11.2154
▁dibində	-11.2163
▁kurs	-11.2164
▁liqa	-11.2164
▁Yel	-11.2166
▁küləyi	-11.2168
▁gözlə	-11.2168
▁Şirvanı	-11.217
▁kökündə	-11.2177
▁ilan	-11.2177
▁kollektivi	-11.218
▁ödənilməsi	-11.2181
▁çək	-11.2182
▁kursunu	-11.2183
▁şərtlərin	-11.2185
▁qoşulmuş	-11.2186
▁daşınması	-11.2186
▁77	-11.2187
▁qanunların	-11.2187
▁Mi	-11.2188
▁bölgələri	-11.219
▁sala	-11.2191
▁Sü	-11.2193
▁rənglər	-11.2194
▁vəzifələrini	-11.2195
▁pilot	-11.2198
▁əsaslarını	-11.2203
▁almaya	-11.2205
▁bitirir	-11.2206
▁sakinlərini	-11.2207
▁şəkilçisi	-11.2214
men	-11.2217
▁Ro	-11.2221
▁xatırlayır	-11.2221
▁körpüsü	-11.2222
▁qanunlarını	-11.2222
eyran	-11.2223
▁mühacir	-11.2224
▁Saturn	-11.2225
▁Firdovsi	-11.2225
▁Balaxanı	-11.2225
▁İlahi	-11.2226
▁olunacaq	-11.2227
▁bilməsə	-11.2229
▁qorunur	-11.223
▁meyvələr	-11.2231
▁oyunçular	-11.2231
▁oyununu	-11.2231
▁cəhətləri	-11.2233
▁Əsədov	-11.2234
alı	-11.2236
▁saxlayırdı	-11.2237
▁Xüsus	-11.2237
▁küçəsində	-11.2238
▁zəhərli	-11.2238
▁düzənliyində	-11.224
▁istiqamətləri	-11.224
▁do	-11.2241
▁Şamlı	-11.2242
▁bəyim	-11.2242
▁müəssisələrin	-11.2242
▁yarışın	-11.2243
▁birləşmələrin	-11.2243
▁qurğuları	-11.2245
▁Hun	-11.2247
▁Şiraz	-11.225
▁Adams	-11.2254
▁istehsalın	-11.226
▁bağlana	-11.2262
▁Rey	-11.2262
▁canlıları	-11.2262
▁ölür	-11.2265
▁yetirdi	-11.2266
▁Süleymanov	-11.2267
boyu	-11.2269
▁yığmasını	-11.227
▁keçmə	-11.2275
▁heykəlləri	-11.2277
▁göndəri	-11.2278
▁Klubun	-11.2278
▁məktublar	-11.2279
▁faktor	-11.2279
▁yaşadı	-11.2281
▁Ak	-11.2284
▁fabriki	-11.2285
▁verməyi	-11.2285
▁İnşaat	-11.2285
▁sədaqət	-11.2285
▁81	-11.2291
▁tağ	-11.2292
▁təyinat	-11.2292
▁əmirləri	-11.2295
▁hamını	-11.2296
lavyan	-11.2297
▁etdik	-11.2305
▁yayla	-11.2307
▁Qeybulla	-11.2307
▁Ömrünü	-11.2307
▁qurtarma	-11.2307
▁dulus	-11.2307
▁Xatun	-11.2307
▁açmaq	-11.2307
▁ba	-11.2308
▁dekan	-11.2309
pesifik	-11.2309
▁kinosun	-11.2311
▁üçü	-11.2312
▁zülal	-11.2312
▁bürc	-11.2313
▁xəyal	-11.2314
tmaq	-11.2316
▁milyonlarla	-11.2317
▁oynanıl	-11.2318
▁xammal	-11.232
▁sağlamlığı	-11.2322
▁Tar	-11.2325
▁tacir	-11.233
ldu	-11.2331
▁açan	-11.2332
▁birləşdirilmiş	-11.2333
▁qəs	-11.2334
▁Komissarlığı	-11.2335
rəsmi	-11.2338
çox	-11.234
hi	-11.2346
▁Çayı	-11.2346
▁155	-11.2347
▁lüğəti	-11.2348
▁ye	-11.235
▁salan	-11.2354
▁verilənlər	-11.2356
▁Vilayətin	-11.236
▁alətlərin	-11.2363
▁yüksəlmişdi	-11.2363
▁divarlar	-11.2367
▁qalibiyyət	-11.237
▁əsil	-11.237
▁peyk	-11.2371
piano	-11.2374
▁çəkirdi	-11.2375
▁dağılmış	-11.2376
▁baxı	-11.238
▁poli	-11.238
▁Am	-11.2382
▁rəhbərliyində	-11.2383
sını	-11.2384
hədsiz	-11.2385
▁məhsulların	-11.2385
▁seçkilər	-11.2388
▁Lüksemburq	-11.239
▁çarpır	-11.239
▁Sarıcalı	-11.239
▁Soltan	-11.239
▁inteqrasiya	-11.239
abul	-11.239
afiz	-11.2391
▁Amerikası	-11.2392
▁Kirov	-11.2393
▁1876	-11.2393
▁fəza	-11.2396
▁sevinc	-11.2401
▁1950	-11.2403
▁toplamaq	-11.2404
▁göstərilməsi	-11.2407
▁İsgəndərov	-11.2409
rud	-11.241
▁Xəlilov	-11.2411
▁evlilik	-11.2411
▁Dan	-11.2415
Tədqiqat	-11.2422
▁köçürülü	-11.2422
qərar	-11.2423
övq	-11.2427
▁yüksəldi	-11.2428
▁biliklər	-11.2428
▁duyğu	-11.2437
▁hövzəsini	-11.2438
▁şəxsləri	-11.244
▁təqdimatı	-11.244
▁ornament	-11.2442
▁jurnalların	-11.2448
▁Qaz	-11.2449
▁mahiyyətini	-11.2453
▁mərtəbə	-11.2454
ım	-11.2455
▁dəstəsin	-11.246
▁mövsümdə	-11.246
▁Pol	-11.2462
▁gələcəyi	-11.2464
▁qrafika	-11.2467
▁Əla	-11.2469
▁gözlərini	-11.2469
▁zadəgan	-11.2472
▁Apollon	-11.2473
▁araşdırılması	-11.2473
▁oxucu	-11.2473
▁qalmır	-11.2473
▁soruşdu	-11.2473
▁Bəhreyn	-11.2473
▁Qaça	-11.2473
▁düşünürdü	-11.2473
▁Şükür	-11.2474
▁Konqres	-11.2474
▁aqrar	-11.2474
▁informasiyanı	-11.2477
kət	-11.2478
had	-11.248
▁Öt	-11.248
▁Azərbaycanlılar	-11.2482
▁Qu	-11.2486
▁tanrılar	-11.2488
▁hövzələrin	-11.2489
▁fərqlidir	-11.249
▁inandırı	-11.249
▁qızılbaşlar	-11.2491
▁Buxara	-11.2491
▁ictimaiyyətin	-11.2495
▁edilməmiş	-11.25
ted	-11.2504
▁zolaq	-11.2505
▁evlənmə	-11.2507
▁Georgi	-11.2508
▁vəsaitləri	-11.2516
▁həvəs	-11.2518
▁Klubu	-11.2522
▁tərzini	-11.2524
▁məbləğ	-11.2525
▁hissləri	-11.2525
▁rəqsləri	-11.2525
▁silsiləsində	-11.2528
▁Texnikumun	-11.253
▁çıxışlar	-11.253
▁bas	-11.2535
▁medalla	-11.2536
akt	-11.2538
▁Qaya	-11.254
▁61	-11.255
▁gölün	-11.2554
▁98	-11.2554
5-	-11.2556
▁toplanır	-11.2556
▁filizi	-11.2556
▁Kəpə	-11.2557
▁Çexoslovakiya	-11.2557
▁əhli	-11.2557
▁futbolçular	-11.2557
▁Arazı	-11.2558
▁bilinir	-11.2558
▁itki	-11.2559
▁Tağı	-11.2563
▁güzəşt	-11.2565
6-	-11.2568
▁qatar	-11.2571
▁münasibətini	-11.2572
lüm	-11.2572
▁səciyyə	-11.2572
▁açılış	-11.2575
▁insanlarda	-11.2582
▁Mas	-11.2583
▁yollanır	-11.2584
▁rəqəmlər	-11.2591
▁vergilər	-11.2591
yon	-11.2595
▁salındı	-11.2596
pe	-11.2597
▁Səni	-11.2597
▁Komissiya	-11.2599
▁adlandırdı	-11.2601
▁ürəyin	-11.2606
səf	-11.2615
▁əyalətin	-11.2616
▁bulaqlar	-11.2616
▁redaksiya	-11.2616
▁məskunlaşa	-11.2617
▁300-	-11.2621
▁sinfini	-11.2621
▁standartları	-11.2627
▁məsələsini	-11.2627
▁kürəsini	-11.2628
▁Söz	-11.2629
▁müşahidələr	-11.263
▁1200	-11.2633
▁titul	-11.2633
▁məmurları	-11.2633
▁şagirdlər	-11.2633
▁71	-11.2634
▁Cəmiyyət	-11.2637
yü	-11.2638
▁Keçə	-11.2638
▁formal	-11.264
▁Elçibəy	-11.2642
▁Kennedi	-11.2642
▁Lətif	-11.2642
▁Tokio	-11.2642
▁univers	-11.2642
▁Şaumyan	-11.2642
▁Flor	-11.2643
rük	-11.2643
▁qırx	-11.2643
▁nümayəndəliyi	-11.2645
▁Ford	-11.2646
▁poem	-11.2646
▁narazı	-11.2646
▁verdiyini	-11.2654
▁Tərcümə	-11.2656
▁nominasiyasın	-11.2661
▁səyləri	-11.2662
▁hövzəsində	-11.2663
▁karvansara	-11.2666
▁İqtisad	-11.2668
əsi	-11.267
▁Liza	-11.2672
▁ayları	-11.2673
▁qapıları	-11.2677
ts	-11.2681
▁nəğmələr	-11.2681
▁atları	-11.2681
aktiv	-11.2682
▁dönəm	-11.2683
▁xəmir	-11.2685
▁yayılma	-11.269
▁zonada	-11.2691
▁buraxılır	-11.2691
▁is	-11.2693
▁səfərlər	-11.2697
▁qabıq	-11.27
▁dərslər	-11.2702
▁müqaviməti	-11.2707
▁satıl	-11.2709
▁meyvəsi	-11.2709
▁Kərə	-11.2709
▁yarışları	-11.271
ığa	-11.271
dil	-11.2711
▁bağçası	-11.2717
▁sevgisi	-11.2719
▁xatırlada	-11.2727
▁yetər	-11.2727
▁1885	-11.2727
▁təsəvvüf	-11.2727
▁qanunauyğunluq	-11.2728
▁Malta	-11.2728
BM	-11.2729
▁səsləri	-11.273
▁oyunçusu	-11.2731
▁aparıldı	-11.2731
▁qazın	-11.2732
▁nüsxə	-11.2735
▁döyüşçüləri	-11.2736
▁Mur	-11.2737
▁oynamaq	-11.2738
▁1919	-11.2742
▁faşist	-11.2745
▁istədiyini	-11.2749
▁2,5	-11.275
▁mülkiyyət	-11.275
▁verməkdə	-11.2765
24	-11.2767
3-	-11.2768
▁bölünməsi	-11.2768
ərazi	-11.2769
▁səslə	-11.2769
▁Amerikalı	-11.2771
▁Yol	-11.2771
sm	-11.2771
▁imperiyanı	-11.2772
▁Tat	-11.2772
▁ötürmə	-11.2774
▁qazma	-11.2777
▁piano	-11.2778
▁qurmuş	-11.2779
▁miqdarını	-11.278
bucaq	-11.2783
▁şüalanma	-11.2787
▁mühərrik	-11.2789
▁futbolçuları	-11.2792
heç	-11.2792
▁məsləhəti	-11.2794
▁matçda	-11.2795
▁kitablarını	-11.2797
▁mağarası	-11.2798
▁satışı	-11.28
▁papa	-11.2807
▁Çiçək	-11.2809
▁Hadisə	-11.2811
*	-11.2813
▁Zo	-11.2813
▁unikal	-11.2813
▁toyu	-11.2814
▁DNT	-11.2815
▁törəmələri	-11.2818
▁xoşu	-11.2821
▁otel	-11.2822
▁otağın	-11.2823
▁atomları	-11.2823
▁əllərində	-11.2824
▁dalğaları	-11.2825
▁yerləşdirilməsi	-11.2825
▁azot	-11.2829
▁məhəbbətin	-11.2834
▁baxmaq	-11.2834
▁titulunu	-11.2836
▁gününü	-11.2836
▁janrında	-11.2836
▁laboratoriyası	-11.2838
▁verdikdə	-11.2838
▁uçu	-11.2844
▁sənətkarların	-11.2844
▁mükafatları	-11.285
▁hərbçi	-11.2855
▁universitetlər	-11.2855
▁Araşdırmalar	-11.2856
▁qismini	-11.2856
gedə	-11.2856
▁razılığ	-11.286
▁oyunlarda	-11.286
▁birincisi	-11.2863
▁Evli	-11.2864
▁duzlu	-11.2865
▁ocaqları	-11.2868
▁ideyalar	-11.2873
▁Həzrəti	-11.2873
sulu	-11.2873
▁Tez	-11.2875
▁dağında	-11.2875
▁vaxtını	-11.2876
▁işləyə	-11.2877
▁atıla	-11.2878
mu	-11.2882
▁350	-11.2883
▁məscidini	-11.2884
▁bilməmiş	-11.2885
▁statusunu	-11.2885
▁itkin	-11.2886
▁92	-11.2887
▁qaynağı	-11.2888
▁təklifini	-11.2889
▁mayor	-11.2891
▁qitəsin	-11.2892
tıl	-11.2893
▁vergiləri	-11.2894
▁poeziyası	-11.2897
▁başçı	-11.2898
▁bağladı	-11.2899
▁istehlak	-11.29
▁Tikinti	-11.29
▁YUNESKO	-11.29
▁cəngavər	-11.29
▁səllə	-11.29
▁əyri	-11.29
▁buraxıldı	-11.29
▁ətirli	-11.2901
▁valyuta	-11.2901
▁versin	-11.2902
▁kəlmə	-11.2904
▁1879	-11.2904
▁alp	-11.2905
▁XXI	-11.2908
▁azadlığ	-11.291
▁MS	-11.2911
▁Yapon	-11.2912
▁hektarı	-11.2917
▁bağlar	-11.2927
▁cəhdi	-11.2927
▁coğrafiyası	-11.2931
▁gözə	-11.2933
▁po	-11.2933
▁düşmənləri	-11.2937
▁Çarl	-11.2941
▁xristianlar	-11.2943
▁84	-11.2945
▁tədrisi	-11.2945
▁olacaqdı	-11.2947
▁yarışlar	-11.2952
▁çətinliklə	-11.2952
▁himayəsi	-11.2954
▁fənn	-11.2955
qalan	-11.2955
▁gəlməsində	-11.2957
▁pilləsin	-11.296
▁yoxlama	-11.296
▁Mehme	-11.297
▁qarşıdurma	-11.2972
▁82	-11.2975
qan	-11.2985
▁mif	-11.2986
▁münasib	-11.2987
▁Alfred	-11.2988
▁Şaiq	-11.2988
▁Ətraf	-11.2988
▁yenidənqurma	-11.2988
▁tirəsi	-11.2988
▁tülkü	-11.2988
əhməd	-11.2989
▁yollandı	-11.2992
▁bələd	-11.2992
▁Necə	-11.2993
▁Məhərrəmov	-11.2994
ternati	-11.2996
▁naib	-11.2996
▁69	-11.2997
▁öldürülməsi	-11.2998
▁götürmək	-11.2998
▁Xilafət	-11.3
▁hədəfi	-11.3001
▁ko	-11.3003
▁meydanda	-11.301
▁Bert	-11.3012
▁konfransı	-11.3013
▁tarixçiləri	-11.3013
▁Əsgərov	-11.3014
▁obrazın	-11.3016
▁dəyişmək	-11.3018
▁soyadını	-11.3019
eviç	-11.3022
▁Şarl	-11.3023
▁74	-11.3026
▁seçir	-11.3026
▁Təşkilat	-11.3028
▁fəlsəfəsini	-11.303
əzəli	-11.303
▁kəmər	-11.3033
milli	-11.3034
radan	-11.3035
inematoqrafiya	-11.3036
▁gəmilərin	-11.3038
▁qabları	-11.3039
▁Ant	-11.3041
▁əməyin	-11.3046
▁düzən	-11.305
▁komandasında	-11.3052
▁yaradıcılıqla	-11.3059
▁rejimini	-11.3065
▁saxlamışdı	-11.3066
▁Suyun	-11.3069
▁yoxsul	-11.3074
▁qoya	-11.3076
məyə	-11.3076
▁Art	-11.3076
▁Odessa	-11.3077
▁Tolstoy	-11.3077
▁qurtarı	-11.3077
▁Şəxs	-11.3077
▁1848	-11.3077
▁1882	-11.3077
▁Fateh	-11.3077
▁ömürlü	-11.3077
▁çatdırılması	-11.3077
▁bağlanması	-11.3077
▁cox	-11.3078
▁Bünyadov	-11.3079
estra	-11.3079
▁masa	-11.3079
▁ku	-11.308
▁danışmaq	-11.3084
▁sektorun	-11.3087
▁çəkə	-11.3089
▁şahid	-11.3089
▁1917	-11.3095
▁çevirmişdi	-11.31
alındığı	-11.3101
▁yüzilliy	-11.3105
▁çıxmağ	-11.3106
▁rütbəsinə	-11.3109
▁Samir	-11.311
▁83	-11.3111
▁qəlbin	-11.3111
▁diri	-11.3111
▁məskunlaşma	-11.3114
▁bilmiş	-11.3115
▁məbləğin	-11.3115
▁kitabələr	-11.3117
▁tənqidçilər	-11.3123
▁yığılı	-11.3126
▁metro	-11.3126
▁qubernatoru	-11.3127
▁bildirirdi	-11.3128
radio	-11.3128
▁romanları	-11.313
▁toplayır	-11.3132
İK	-11.3133
▁yağları	-11.3137
▁com	-11.3139
▁Ce	-11.3141
▁müxtəlifdir	-11.3141
▁komandan	-11.3143
▁fondunda	-11.3145
▁Kal	-11.3146
lmuşdur	-11.3147
▁proqramların	-11.3151
▁eşq	-11.3151
▁bölməsində	-11.3152
▁təchizatı	-11.3154
▁strukturun	-11.3156
ico	-11.3157
▁keyfiyyətini	-11.3157
▁Ensiklopediyası	-11.3158
▁otaqlar	-11.3162
▁qarış	-11.3165
▁AFFA	-11.3166
▁Mərdəkan	-11.3166
▁Xırda	-11.3166
▁partizan	-11.3166
▁münsif	-11.3166
▁cəhdləri	-11.3167
▁Əmr	-11.3167
▁günahkar	-11.3168
▁ölkəmizi	-11.3171
▁Xanlığı	-11.3171
▁Naxçıvanski	-11.3173
▁Dövləti	-11.318
arkən	-11.318
▁etdirilmişdi	-11.3181
▁dayanı	-11.3182
▁taleyini	-11.3188
▁əlyazmaları	-11.3191
▁məqsədləri	-11.3191
▁çəkməy	-11.3191
▁Okean	-11.3191
▁adlandırılmış	-11.3192
▁Şur	-11.3194
▁Məs	-11.3194
lizin	-11.3196
▁kainatın	-11.3196
▁pillədə	-11.3196
▁prinsip	-11.3197
ing	-11.3198
▁Şöv	-11.3203
▁türbəsini	-11.3203
▁qurumları	-11.3208
▁Təşkilatın	-11.3209
▁1827	-11.3209
▁bəyləri	-11.321
▁fırlanma	-11.3213
▁tozu	-11.3214
▁Alt	-11.3215
▁balıqların	-11.3216
▁Stadionun	-11.3218
▁cəhətlər	-11.3219
Qacar	-11.3221
▁canlılar	-11.3222
▁zavodları	-11.3224
▁müstəmləkə	-11.3225
saq	-11.3225
▁səfirliyin	-11.3226
▁adlarında	-11.3229
▁tamamlanı	-11.3231
▁alətin	-11.3231
▁disk	-11.3231
▁neftin	-11.3232
▁daşımış	-11.3232
▁repressiya	-11.3233
▁elmini	-11.3237
▁qr	-11.3245
▁xatun	-11.3245
▁İsm	-11.3245
▁genişlənməsi	-11.3249
▁oxucular	-11.3249
▁təməli	-11.325
əhəbbət	-11.3252
▁Nig	-11.3254
▁Dunay	-11.3256
▁Zevs	-11.3256
▁eşitmə	-11.3256
▁sutka	-11.3256
▁Fəh	-11.3256
▁Elxanilər	-11.3257
▁qüsur	-11.3257
▁əvvələrində	-11.3258
▁qəzəb	-11.3261
tdan	-11.3262
süz	-11.3265
▁bataqlıq	-11.3267
▁toxunmuş	-11.3267
▁Dif	-11.3268
▁Almaz	-11.327
▁Bayatı	-11.3271
▁işçilər	-11.3277
▁yükü	-11.3277
▁mülkü	-11.3277
▁göstərilmiş	-11.3282
▁çatanda	-11.3283
▁öldürülmüş	-11.3284
▁qoru	-11.3286
▁stadionu	-11.3289
▁nikah	-11.3292
▁sıraların	-11.3293
▁Cümhuriyyət	-11.3296
▁romalılar	-11.3297
▁səyahəti	-11.3299
▁səltənəti	-11.3301
▁1875	-11.3305
▁alınmasında	-11.3307
▁yazıçıları	-11.3309
cağı	-11.331
▁Fond	-11.3314
▁xəstələr	-11.3315
▁kürə	-11.3315
▁Sab	-11.3317
▁imam	-11.3318
▁Qov	-11.3321
▁bazasını	-11.3322
▁Noyabr	-11.3323
▁59	-11.3328
▁ağzı	-11.3331
▁Şirkəti	-11.3331
▁doktor	-11.3338
▁Bayat	-11.3339
▁göstəriciləri	-11.334
▁törəmə	-11.3343
▁diş	-11.3344
▁dik	-11.3346
übhəsiz	-11.3346
▁Eduard	-11.3347
▁Mesopotamiya	-11.3347
▁təxirə	-11.3347
▁Motor	-11.3347
▁bayır	-11.3347
▁Xorvatiya	-11.3347
▁Xadim	-11.3347
▁Anatol	-11.3348
▁Dəmirçi	-11.335
▁düşül	-11.3353
oy	-11.3354
▁Paşayev	-11.3355
▁simasın	-11.3355
▁Qurultay	-11.3356
▁birləşdirmək	-11.3356
▁Məmmədəli	-11.3357
▁çatdığı	-11.3357
▁sa	-11.3358
▁sərhəddi	-11.3362
▁keçməyə	-11.3362
▁çaylarını	-11.3366
▁saatda	-11.3366
▁atıcı	-11.3366
▁Qızılbaş	-11.3374
ed	-11.3377
əslən	-11.3381
zən	-11.3385
▁sürü	-11.3387
▁tapma	-11.3387
▁surəti	-11.3389
sanlı	-11.3391
▁qəsd	-11.3398
▁qrupların	-11.3398
▁Hir	-11.3399
▁qiymətləndir	-11.34
ura	-11.3404
▁İnqilabı	-11.3404
▁78	-11.3405
▁adasını	-11.3406
▁İnsanı	-11.3415
▁əmlakı	-11.342
▁yoxs	-11.3421
▁musiqisində	-11.3421
ux	-11.3424
▁Xidməti	-11.3429
14	-11.3433
▁yürüşlər	-11.3433
oqo	-11.3434
▁təzyiqlər	-11.3435
▁Agentliyi	-11.3436
▁bəra	-11.3439
▁spirt	-11.3439
▁Bethoven	-11.3439
▁təəssüf	-11.3439
▁Rumeli	-11.3439
▁Aleksey	-11.3439
▁Qəmbər	-11.3439
▁yüzbaşı	-11.3439
▁Gülməmməd	-11.3439
▁maili	-11.3439
▁Tağızadə	-11.344
ehriban	-11.3442
▁Pəri	-11.3442
▁Kir	-11.3442
▁Say	-11.3443
▁götürülmüş	-11.3443
▁Marks	-11.3445
giya	-11.345
▁toplanmışdı	-11.345
anınmış	-11.3457
yun	-11.3459
▁getməsi	-11.3462
▁fikr	-11.3462
▁göstərili	-11.3467
▁qəbulunda	-11.347
▁dərinlikdə	-11.347
brik	-11.347
▁dərisi	-11.3471
▁Anadolunu	-11.3474
▁zolağı	-11.3476
▁millətlər	-11.3478
▁bağlayı	-11.3479
▁Sev	-11.3479
▁buraxır	-11.348
▁evlənmişdi	-11.3482
▁Tədqiqatlar	-11.3483
▁Yunanıstanı	-11.3485
▁ayağı	-11.3485
▁174	-11.3487
▁niyyəti	-11.349
▁Yeri	-11.3491
▁Ola	-11.3493
▁xərçəng	-11.3494
▁haqqını	-11.3497
▁Yaradıcılığı	-11.35
▁öldürür	-11.35
▁təmas	-11.3501
▁proqramın	-11.3502
▁oynamağ	-11.3502
▁yarısını	-11.3504
▁orkestri	-11.3506
▁bildirmiş	-11.3508
▁ren	-11.3508
▁evlərində	-11.3508
▁Uni	-11.3512
▁rəis	-11.3513
əhəmməd	-11.3518
açmışdır	-11.3521
▁Axund	-11.3526
▁leytenant	-11.3526
clı	-11.3529
hazır	-11.353
▁serial	-11.3531
▁Kompüter	-11.3531
▁Mərakeş	-11.3531
▁Təəssüf	-11.3531
▁Zorge	-11.3531
▁bacarır	-11.3531
▁doğulan	-11.3531
▁idxal	-11.3531
▁qəbiristanlıq	-11.3531
▁çatdırmaq	-11.3531
▁Hülakü	-11.3532
▁armud	-11.3532
▁geologiya	-11.3533
▁dərviş	-11.3534
gan	-11.3535
▁1871	-11.3536
▁burjua	-11.3536
▁çevirdi	-11.3542
▁yaza	-11.3542
▁layihələrin	-11.3543
▁musiqiçilər	-11.3544
▁örtülmüş	-11.3544
▁vurula	-11.3545
▁avadanlıqlar	-11.3545
▁birləşdi	-11.3545
▁növün	-11.3546
▁kubokun	-11.3547
▁içərisin	-11.3547
▁qraf	-11.3547
▁1805	-11.3548
▁birləşə	-11.3554
▁təmizlənməsi	-11.3555
▁planları	-11.3557
▁narın	-11.3558
rik	-11.3559
▁axı	-11.3562
▁Day	-11.3563
▁tikililəri	-11.3564
▁büdcə	-11.3564
▁Din	-11.3566
atan	-11.3568
▁Oğlu	-11.3568
▁sər	-11.3568
ial	-11.3569
▁fikrində	-11.357
05	-11.3574
▁gimnaziya	-11.3575
▁kollec	-11.3575
dirdi	-11.3577
▁Xaqani	-11.3579
▁vadisi	-11.3579
▁kitablarda	-11.3582
şel	-11.3584
▁Həc	-11.3586
▁Kolleci	-11.3587
▁ocaq	-11.3588
▁metall	-11.3592
▁illiyin	-11.3596
▁Burda	-11.36
▁uran	-11.3605
▁cədvəl	-11.3606
▁məsələlərdə	-11.3607
▁dəqiqləşdirmə	-11.3611
▁simvol	-11.3615
▁yetişdir	-11.3616
▁pir	-11.3619
▁nöqtələri	-11.3621
▁İttifaqında	-11.3621
▁yaddaşın	-11.3623
▁Parkın	-11.3623
▁qüs	-11.3624
oçt	-11.3625
▁Dəməşq	-11.3625
▁Çikaqo	-11.3625
▁Əbdülhəmid	-11.3625
▁kompyuter	-11.3625
▁qəf	-11.3625
▁yetişmiş	-11.3625
▁kontinental	-11.3625
▁1884	-11.3625
▁Nağıyev	-11.3625
-5	-11.3626
▁düzəldir	-11.3626
▁Yəhudi	-11.3626
▁Qulam	-11.3626
▁sürt	-11.3626
qaz	-11.3628
▁Aba	-11.3628
▁yayıldı	-11.3628
▁görüşləri	-11.3628
▁yayınd	-11.3632
samal	-11.3633
▁söyləmişdi	-11.3634
▁hallar	-11.3634
▁Qoll	-11.3637
▁Qo	-11.3639
▁araya	-11.364
X	-11.3641
▁televiziyası	-11.3644
▁Kitabın	-11.3644
▁Misiri	-11.3645
▁suallar	-11.3647
▁xəstəliklərində	-11.3648
▁məzun	-11.3652
▁fakultəsini	-11.3653
▁balıqçılıq	-11.3654
▁institutunu	-11.366
▁sərfi	-11.366
▁Ne	-11.366
▁şüur	-11.3663
▁qoruyucu	-11.3665
▁kompleksin	-11.3665
▁obası	-11.3666
ançes	-11.3671
▁1800	-11.3675
▁Assambleyası	-11.3675
▁vur	-11.3675
▁nəğmə	-11.3676
▁görüşündə	-11.3676
ötəri	-11.3679
▁köçürül	-11.3683
▁yuxuda	-11.3689
▁Zəh	-11.3689
▁xəbərin	-11.3689
▁gözləyir	-11.3689
▁studiyasın	-11.369
▁Nü	-11.3692
▁düşərgəsində	-11.3694
▁Kitabxana	-11.3696
tağı	-11.3697
həm	-11.3705
▁siyahı	-11.3707
▁çərçivə	-11.371
▁Kara	-11.3711
▁dönür	-11.3716
▁Bavariya	-11.3719
▁Pişəvəri	-11.3719
▁deportasiya	-11.3719
▁araşdıra	-11.3719
▁Konqo	-11.3719
▁irəlilədi	-11.372
▁Müvə	-11.372
urgiya	-11.372
▁verəcək	-11.372
▁Stepan	-11.3722
▁heyran	-11.3723
▁modelləri	-11.3724
▁qadir	-11.3724
▁fakultəsin	-11.3726
▁Ələsgərov	-11.3727
▁açıqlama	-11.3727
yd	-11.373
▁knyazı	-11.3735
▁gölləri	-11.3735
▁Elvi	-11.3736
▁dəyərlər	-11.3736
▁atlar	-11.3739
▁176	-11.374
▁kəsilir	-11.3743
C	-11.3746
▁kod	-11.375
▁bəstəkarların	-11.3752
▁şeri	-11.3753
▁nailiyyətləri	-11.3754
▁relyefi	-11.3758
▁çıxırdı	-11.3759
▁Seyidov	-11.376
▁orqanlar	-11.3768
▁birlikləri	-11.3769
▁təs	-11.3769
▁mövcudluğunu	-11.3771
▁Kay	-11.3773
▁mətbuatı	-11.3774
▁etməmişdi	-11.3774
▁Kan	-11.3774
▁addımlar	-11.3776
▁1887	-11.3779
▁Səmən	-11.378
▁çatmamış	-11.3782
▁çıxaran	-11.3783
▁xahişi	-11.3783
tov	-11.3784
▁nar	-11.3789
▁gizlə	-11.3789
▁müttəfiqləri	-11.3789
▁Maks	-11.3794
▁ehtimalla	-11.3796
▁məsələlərini	-11.3797
▁Filippin	-11.3799
▁faza	-11.3799
▁salını	-11.3801
▁oyna	-11.3805
▁kolleksiyası	-11.3807
▁Qali	-11.3809
▁ovalığı	-11.381
▁noyabrda	-11.3811
▁Kompleksin	-11.3811
▁başlama	-11.3813
öründüyü	-11.3814
▁1840	-11.3814
▁Maqsud	-11.3814
▁gitara	-11.3814
▁qənimət	-11.3814
▁ehtiram	-11.3814
▁stəkan	-11.3814
əmmü	-11.3814
▁patent	-11.3814
▁Rafael	-11.3814
▁bünövrəsi	-11.3816
▁Lah	-11.3816
▁daşıdığı	-11.3817
▁aşkarlanmış	-11.3817
▁Kütlə	-11.3818
▁qeydiyyatda	-11.3822
▁sinfində	-11.3822
▁mətbəxi	-11.3827
▁yeniyetmə	-11.3827
▁aman	-11.3828
▁ərazidədir	-11.383
▁mübarizəsini	-11.383
analitik	-11.383
ologiyası	-11.3832
▁təminat	-11.3832
▁as	-11.3833
▁südü	-11.3835
▁təy	-11.3835
məkdaşlıq	-11.3835
▁qatıla	-11.3839
▁səsin	-11.384
▁Mal	-11.384
▁2017	-11.3841
▁tutmağ	-11.3845
▁mövqelərini	-11.3847
▁rəğbəti	-11.3847
▁uzaqlaş	-11.3853
▁boşluğu	-11.3855
▁girmiş	-11.3856
▁əlaqəsini	-11.3856
▁çıxarmağ	-11.3856
▁binasını	-11.3859
▁operası	-11.3863
ova	-11.3863
▁qurulur	-11.3864
▁qoşulmuşdu	-11.3866
▁Konqresin	-11.387
▁qal	-11.3871
▁İttifaq	-11.3872
▁uçuşu	-11.3881
▁aləmdə	-11.3881
▁ərəbləri	-11.3887
▁dərnəyin	-11.3888
▁verilişləri	-11.3889
▁Uşaqlar	-11.3889
▁havanı	-11.3893
▁baba	-11.3894
▁Marsı	-11.3894
▁nəsillər	-11.3895
▁kişilərin	-11.3895
▁tutması	-11.3898
▁şaha	-11.3898
▁Parkı	-11.3909
▁Ağqoyunlular	-11.3909
\	-11.391
▁Statistik	-11.391
▁qoç	-11.391
▁limanında	-11.391
▁Vatikan	-11.391
▁Düşmən	-11.391
▁bacara	-11.3911
▁Nasir	-11.3911
ihab	-11.3911
▁lokal	-11.3911
▁münbit	-11.3911
▁istintaq	-11.3912
▁Dağlar	-11.3913
▁çəkmə	-11.3914
▁ifadəsini	-11.3915
▁gəlinə	-11.3918
▁dəyişikliy	-11.392
▁Suriyada	-11.3921
▁Meydan	-11.3923
▁həvəsi	-11.3926
▁İlan	-11.3928
▁Qəzvini	-11.3932
▁Abbaszadə	-11.3933
▁dibi	-11.3933
▁1941	-11.3937
▁bankın	-11.3938
▁dönü	-11.3939
▁festival	-11.394
▁xassələri	-11.3945
▁sülhü	-11.3947
▁saz	-11.3947
▁ofisi	-11.3948
lyasiya	-11.395
▁zal	-11.3951
▁məhəlləsi	-11.3952
▁seçdi	-11.3953
▁hazırladı	-11.3954
▁ənənələr	-11.3956
▁olunduğun	-11.3956
papaq	-11.3958
▁bədənini	-11.396
▁müdir	-11.3961
▁ra	-11.3965
▁pyesləri	-11.3969
▁göndərili	-11.397
tto	-11.3975
oniki	-11.3975
assiv	-11.3976
▁qurmağ	-11.3981
▁rəy	-11.3983
▁binasında	-11.3984
▁Tanrını	-11.3985
stol	-11.3987
▁Ağam	-11.3989
▁ağırlıq	-11.399
▁amillərin	-11.3993
▁həyəcan	-11.3994
▁içindəki	-11.3994
istik	-11.3994
▁For	-11.3995
▁vilayətlərində	-11.3997
▁dinlərin	-11.3999
▁divanı	-11.4
▁minillikdə	-11.4001
▁ağacların	-11.4001
▁sahibkar	-11.4001
▁dolayı	-11.4002
icad	-11.4006
-25	-11.4007
▁Bütöv	-11.4008
▁Nəvvab	-11.4008
▁Riçard	-11.4008
▁yetişən	-11.4008
▁ÜDM	-11.4008
▁Əlyazma	-11.4008
▁Liviya	-11.4008
▁İshaq	-11.4008
▁çəhrayı	-11.4008
▁çoxalır	-11.4008
▁Zənd	-11.4008
▁sistemdə	-11.4008
▁Zahi	-11.4009
▁Sabit	-11.4009
▁00	-11.4009
▁Assur	-11.401
mido	-11.401
▁quyusu	-11.401
▁adlandırdığı	-11.401
▁standartlar	-11.4012
▁bağlamaq	-11.4013
məna	-11.4013
▁təbliği	-11.4013
▁İvanov	-11.4014
▁yoldaş	-11.4014
▁düş	-11.4015
▁quşların	-11.4018
▁polyak	-11.402
▁dairələri	-11.4023
▁jurnalisti	-11.4032
▁tor	-11.4043
iyyəti	-11.4049
▁klubda	-11.405
▁yaşama	-11.405
▁Bağdadda	-11.4055
▁formalarını	-11.4055
▁aviasiya	-11.4056
▁turistləri	-11.4059
▁boynun	-11.406
▁festivalı	-11.4061
▁tikintisində	-11.4062
▁meşələrin	-11.4063
▁potensialı	-11.4064
▁Ordubadi	-11.4065
▁sikkə	-11.4065
▁baxa	-11.4065
▁Avar	-11.4065
▁Bölgə	-11.4069
▁cəsarətl	-11.4069
▁ekspert	-11.407
▁Fir	-11.407
▁şöbələri	-11.407
▁cəbhəsi	-11.4072
▁İbrahimi	-11.4074
4-	-11.4078
▁icraçı	-11.4078
gül	-11.4083
F	-11.4086
▁münaqişəsi	-11.4087
▁Həz	-11.4087
▁məhlulu	-11.4089
▁qarşıya	-11.409
▁keş	-11.4091
▁Dillər	-11.4093
nisi	-11.4094
▁Ge	-11.4096
▁Əf	-11.4096
▁toxunur	-11.4097
▁heyvanlarda	-11.4098
▁sularında	-11.41
▁Xəz	-11.4101
▁qaldırı	-11.4101
▁əlaqələndir	-11.4101
▁girişi	-11.4103
▁tikililərin	-11.4104
▁qadınlara	-11.4105
məz	-11.4105
▁Bürhanəddin	-11.4106
▁Zülqədər	-11.4106
▁cənnət	-11.4106
▁qurtardı	-11.4106
▁söylənil	-11.4106
▁ziyafət	-11.4106
▁ATƏT	-11.4106
▁biçim	-11.4106
▁imzalamışdı	-11.4106
ərşən	-11.4107
▁səfərində	-11.4107
▁daşıyıcısı	-11.4108
▁Beat	-11.4108
▁saxta	-11.4109
▁Qiyas	-11.4111
ох	-11.4111
▁1859	-11.4112
▁Ur	-11.4114
▁osmanlılar	-11.4114
▁gələcəyin	-11.4117
yəz	-11.412
▁tarixçilərin	-11.412
▁məhəlləsində	-11.4122
▁əyanları	-11.4122
▁toplu	-11.4123
▁futbolu	-11.4124
▁bölgələr	-11.4124
▁Avstraliyada	-11.4125
qo	-11.4127
▁müsəlmanları	-11.4128
▁niyyətində	-11.413
▁qızın	-11.413
▁1937	-11.4133
▁yaxınlıq	-11.4133
▁səfirliyi	-11.414
▁fikirlərin	-11.4141
▁93	-11.4142
karlar	-11.4143
▁səslər	-11.4143
▁cisim	-11.4146
▁etdir	-11.4146
▁rollarını	-11.4147
▁müəssisələrini	-11.415
▁ne	-11.4152
▁buraxılışı	-11.4154
▁dam	-11.4163
▁bomba	-11.4164
▁proqramlarını	-11.4168
▁vurulmuş	-11.4168
▁niyyət	-11.4172
▁maşınlar	-11.4177
▁Ukraynanı	-11.4177
lama	-11.4177
▁qazıntıları	-11.418
▁istəmir	-11.418
▁Mat	-11.4188
▁boşluq	-11.4191
▁binə	-11.4192
▁çempionluğu	-11.4196
▁quyuları	-11.4198
▁sərhəddə	-11.4198
▁proqramında	-11.4198
▁Mütəxəssislər	-11.4205
▁ifşa	-11.4205
▁skripka	-11.4205
▁ADR	-11.4205
▁rəğ	-11.4205
▁Qəmər	-11.4205
▁kükürd	-11.4205
▁təhrik	-11.4205
▁Çör	-11.4205
▁1869	-11.4205
▁Şahverdi	-11.4206
▁Viktoriya	-11.4206
▁Xiyaban	-11.4206
▁Bakuvi	-11.4207
▁qəbirləri	-11.4209
ördüncü	-11.4213
ilis	-11.4214
▁operatoru	-11.4214
▁Buradakı	-11.4215
▁hücumçu	-11.4215
▁slavyan	-11.422
▁layihəni	-11.4227
▁xeyirli	-11.4234
▁Hakimiyyət	-11.4235
▁yazılması	-11.4236
rand	-11.4238
▁şəxsiyyəti	-11.4242
▁yerləşdirilir	-11.4243
tgen	-11.4246
▁səthini	-11.4246
▁Ağdamda	-11.4247
▁çevirmə	-11.4248
▁poemasını	-11.4249
▁AT	-11.425
▁metalları	-11.4251
▁qapısında	-11.4252
mam	-11.4252
▁Sudan	-11.4254
▁arvad	-11.4257
▁Kompleks	-11.4264
▁yaranmasını	-11.4265
▁istehsalını	-11.4271
▁çağırıl	-11.4274
▁yenilik	-11.4274
▁tim	-11.4275
▁kompleksini	-11.4275
▁Bankın	-11.4277
▁magistral	-11.4279
▁bitdi	-11.428
▁yaralı	-11.428
▁vura	-11.4281
əkəri	-11.4281
▁maşınları	-11.4284
▁mexanizmi	-11.4287
▁quraşdırılmış	-11.4288
▁təsvirlər	-11.4288
sevən	-11.4288
▁nəsildən	-11.4288
kmilləşdirilməsi	-11.4289
▁Katolik	-11.4295
▁burnu	-11.4295
▁toxumları	-11.4296
▁mədəniyyətində	-11.4298
▁mahiyyət	-11.4299
▁təcəssüm	-11.4303
məmməd	-11.4304
▁nöqteyi	-11.4305
▁Müğənni	-11.4305
▁Pəhləvi	-11.4305
▁Yevgeni	-11.4305
▁liberal	-11.4305
▁təqaüdçüsü	-11.4305
▁problemin	-11.4305
▁Gəmi	-11.4305
▁Yəmən	-11.4305
▁ərizə	-11.4306
▁əhatələnmiş	-11.4307
rəngiz	-11.4308
▁Səf	-11.431
▁qırı	-11.4311
zərb	-11.4312
▁proqramlaşdırma	-11.4314
▁nəfərini	-11.4315
▁olimpi	-11.4316
▁əhvalat	-11.4318
▁tariximiz	-11.4321
▁Sözü	-11.4322
▁İzzə	-11.4323
▁idarəçiliyi	-11.4323
▁Hot	-11.4324
▁müalicəsin	-11.4324
▁dəyişikliyi	-11.4325
▁əcdadları	-11.4327
▁Aparıl	-11.433
▁növlərin	-11.4333
▁tapşırı	-11.4335
▁təpəsi	-11.4336
şəkk	-11.4336
▁saxlamış	-11.4337
▁başlanğıcını	-11.4338
▁Vilayət	-11.4339
▁180	-11.434
▁Mənə	-11.434
lamışlar	-11.4343
▁gövdəsi	-11.4343
▁götürən	-11.4353
▁halqa	-11.4354
▁Xaqan	-11.4355
▁süjeti	-11.4356
▁özüm	-11.4357
▁edəndə	-11.4361
▁düşə	-11.4362
▁gəlinc	-11.4365
▁xəritə	-11.4367
▁dosenti	-11.4372
▁hündürlüy	-11.4374
▁Üm	-11.4381
▁qanunverici	-11.4387
AR	-11.4387
müsəlman	-11.4391
▁meydança	-11.4398
▁dəlik	-11.4401
▁təbəqələr	-11.4401
▁vulkanı	-11.4403
▁dəstəsində	-11.4403
vət	-11.4403
▁rə	-11.4405
▁Problem	-11.4406
▁kəllə	-11.4406
▁Smit	-11.4406
▁deyən	-11.4406
▁Vahabzadə	-11.4406
▁RSFSR	-11.4406
▁seyrək	-11.4407
▁sıldırım	-11.4407
▁qalmamışdı	-11.4407
▁çatdırdı	-11.4407
▁sikkələr	-11.441
▁zən	-11.4411
▁mənz	-11.4411
▁toplam	-11.4415
▁dəyirman	-11.4415
▁parçalanmış	-11.4416
▁qəbilələri	-11.4417
▁iştirakçıların	-11.4418
▁çala	-11.442
▁verilişin	-11.4421
▁Kişi	-11.4423
tmişdir	-11.4423
▁cüz	-11.4424
▁Krallıq	-11.4424
▁diz	-11.4424
▁romanında	-11.4426
▁yandırılmış	-11.4426
▁sənədin	-11.4427
▁istehkam	-11.4427
▁atəşi	-11.4431
▁hökmranlığı	-11.4432
▁iclas	-11.4432
▁iddiası	-11.4432
▁Jor	-11.4433
lükdə	-11.4434
▁şəbəkəsini	-11.4435
▁itirmişdi	-11.4437
▁ifra	-11.4438
▁edəcəyini	-11.4439
▁cihaz	-11.4441
▁sahillərin	-11.4442
▁ətrafın	-11.4444
▁əmirlərin	-11.4445
▁yamaclarında	-11.4445
▁regionunda	-11.4447
▁daşların	-11.4447
▁unudulm	-11.4448
▁əlaqələndiril	-11.4449
▁təyyarəsi	-11.4449
▁seyr	-11.4451
1-2	-11.4451
▁axımı	-11.4451
▁iy	-11.4454
▁kəndlilərin	-11.4455
▁qərbi	-11.4455
▁metodları	-11.4457
ixi	-11.4459
▁imzalayı	-11.4459
metr	-11.446
▁düşünmə	-11.446
▁dağıdıl	-11.4461
▁günlərin	-11.4462
▁Hökuməti	-11.4464
▁portreti	-11.4465
▁piri	-11.4466
▁Türklər	-11.4466
▁adda	-11.4469
▁qalaktika	-11.4473
▁qərarını	-11.4479
rus	-11.448
▁açmışdı	-11.4483
yor	-11.4483
▁vətənin	-11.4487
▁1889	-11.449
▁qayıdanda	-11.4493
▁çəkilişi	-11.4494
▁millətçi	-11.4495
▁mühasirədə	-11.45
▁unu	-11.4504
▁Avtomobil	-11.4508
▁Alazan	-11.4508
▁ödəyə	-11.4508
▁Media	-11.4508
▁79	-11.4508
▁Talıb	-11.4508
▁1826-	-11.4508
▁Məmmədəliyev	-11.4509
▁cəsarət	-11.4509
▁1830	-11.451
▁əlbət	-11.4511
▁çıxarmış	-11.4513
▁Qardaşı	-11.4513
▁Əlincə	-11.4514
▁atan	-11.4515
▁hündürlük	-11.4517
rix	-11.4517
▁Sofiya	-11.4519
viasiya	-11.4519
lavə	-11.4522
▁gətirməyə	-11.4522
7-	-11.4524
▁dişləri	-11.4525
▁с	-11.4526
▁gözün	-11.4529
▁fərqlər	-11.4531
▁məsələdə	-11.4532
02	-11.4533
▁verməli	-11.4534
▁tikintisin	-11.4536
▁illərinə	-11.4536
17	-11.4538
mədəni	-11.454
▁fizikası	-11.4541
▁çöküntüləri	-11.4541
neçə	-11.4542
▁Respublikamız	-11.4543
▁edilmək	-11.4545
▁1891	-11.4546
▁keyfiyyətləri	-11.4547
▁divarını	-11.4549
▁yollarında	-11.4555
▁ədalətl	-11.4555
▁Onda	-11.4555
▁tədbirlərdə	-11.4559
▁fənlər	-11.456
▁əfsanələr	-11.456
▁truppasın	-11.4561
▁Lütfə	-11.4561
▁adalarını	-11.4562
▁fırlan	-11.4562
▁ekvator	-11.4564
▁jurnalistlər	-11.4565
▁dastan	-11.4567
▁Ərə	-11.4567
▁91	-11.4567
mizdə	-11.4567
▁Abbasilər	-11.4568
▁sənətkarları	-11.4569
▁vətəndaşlar	-11.4578
▁Para	-11.4578
▁Orx	-11.4579
▁hamısında	-11.4583
▁haqları	-11.4583
▁yeməklər	-11.4583
▁gələr	-11.4586
▁itirmə	-11.4587
ye	-11.459
▁ansamblın	-11.4595
▁sağlamlığını	-11.4596
▁Cu	-11.4596
▁kompleksləri	-11.4598
▁çağırılmış	-11.4601
▁alimin	-11.4603
güzar	-11.4611
▁Hücum	-11.4611
▁Kleopatra	-11.4611
▁Qvineya	-11.4611
▁avadanlığı	-11.4611
▁qravitasiya	-11.4611
▁marşrut	-11.4611
▁uzaqlıqda	-11.4611
▁Qapa	-11.4611
Anceles	-11.4611
▁rubl	-11.4612
▁topladığı	-11.4613
▁donuz	-11.4613
▁ensiz	-11.4614
lanıldı	-11.4615
▁ziddiyyət	-11.4615
▁inanırdı	-11.4617
▁keçirildiyi	-11.4618
▁Həmdulla	-11.4619
▁Kor	-11.462
▁qanda	-11.4624
▁albanlar	-11.4624
▁abad	-11.4624
▁mənzərəsi	-11.4624
hesabsız	-11.4625
▁Çağ	-11.4626
▁komandada	-11.4628
▁fraksiyası	-11.463
str	-11.463
▁deməli	-11.4632
birilə	-11.4638
▁ocaqlarında	-11.4639
▁əf	-11.4641
▁orqanların	-11.4641
▁edildiyin	-11.4646
▁mərhələsini	-11.4647
▁gəlsə	-11.4648
▁quran	-11.4648
▁başlanılı	-11.4648
▁qura	-11.4648
▁Rud	-11.465
şid	-11.4652
▁tutar	-11.4659
▁gücün	-11.4661
▁icazəsi	-11.4663
▁gör	-11.4663
ruzə	-11.4663
▁məsciddə	-11.4666
▁məğlubiyyəti	-11.4667
▁dünyagörüşü	-11.4669
▁ucaldılmış	-11.4672
▁Aş	-11.4677
▁İmperiya	-11.4678
▁nüsxəsi	-11.4679
▁sularda	-11.468
▁Xudada	-11.4681
▁Nuh	-11.4681
▁postun	-11.4682
▁iqlimin	-11.4683
▁sərhədində	-11.4684
▁musiqiləri	-11.4688
▁88	-11.4691
▁fayl	-11.4692
▁Sant	-11.4694
▁gəminin	-11.4694
▁iradəsi	-11.4704
dövlət	-11.4708
▁prof	-11.4709
▁istiqlal	-11.4715
▁instru	-11.4715
▁Müzəffər	-11.4715
▁MMC	-11.4715
▁Kartli	-11.4715
▁isbat	-11.4715
▁təmsilçiləri	-11.4715
▁Eldəniz	-11.4715
▁Macar	-11.4718
▁çıxışında	-11.4718
▁ilahəsi	-11.4719
▁açdığı	-11.4719
▁mərasimləri	-11.4719
▁plat	-11.472
▁köçmə	-11.4721
▁sazişi	-11.4721
▁İbrahimbəyov	-11.4721
▁vo	-11.4724
▁tikdirdi	-11.4724
▁inqilabçı	-11.4724
▁edərsə	-11.4724
ıc	-11.4732
▁xaqanın	-11.4735
ow	-11.474
▁qurşaq	-11.4742
▁1860	-11.4743
▁del	-11.4743
▁hövzə	-11.4744
▁hərflər	-11.4744
▁Ştatlar	-11.4747
▁axtarışı	-11.4747
▁Ərəblər	-11.4748
▁məntəqə	-11.4748
▁1948	-11.4748
▁abidələrini	-11.475
▁Müəllim	-11.4751
tan	-11.4752
▁nümayəndələrini	-11.4759
▁saniyədə	-11.4763
▁Qəza	-11.4765
▁görüşür	-11.4766
▁qatılmışdı	-11.4766
▁müxalifət	-11.4769
▁ritm	-11.4771
▁materik	-11.4772
▁Məni	-11.4775
▁cism	-11.4778
▁dərəcəsində	-11.4778
▁açar	-11.4781
fel	-11.4781
▁zülallar	-11.4784
▁rejissorluğu	-11.4785
ype	-11.4786
▁qayıq	-11.4788
▁baxışları	-11.4789
▁qaşı	-11.4789
▁arxı	-11.479
▁proqramını	-11.4794
▁yarıda	-11.4794
tion	-11.4798
▁çiçəklər	-11.4799
▁küləkləri	-11.48
▁kimyaçı	-11.4801
▁keçdilər	-11.4805
▁kursları	-11.4805
▁yaxınlaşdı	-11.4808
▁İqlimi	-11.4813
kütlə	-11.4815
▁kimə	-11.4818
▁aspirant	-11.482
▁elastik	-11.482
▁redaktə	-11.482
▁İordaniya	-11.482
▁İçərişəhər	-11.482
▁Bəşir	-11.482
▁davranış	-11.482
▁təcr	-11.482
▁Hollivud	-11.482
▁köçürmə	-11.4821
▁məsələsin	-11.4821
▁Göz	-11.4822
▁Baku	-11.4822
▁maraqlan	-11.4823
▁olmaqda	-11.4824
▁Nin	-11.4825
▁kifayətdir	-11.4829
▁selik	-11.4829
▁Ver	-11.483
▁aşı	-11.4831
▁qarşılaşması	-11.4833
▁So	-11.4838
▁kompaniyası	-11.4839
▁həllin	-11.4843
▁çevrə	-11.4845
▁əlifbasında	-11.4845
▁fədakar	-11.4845
▁ixtisaslar	-11.4847
▁çeşidli	-11.4848
▁Ho	-11.4848
▁Polis	-11.485
BC	-11.485
▁Oğlan	-11.4851
şir	-11.4851
▁Gü	-11.4855
▁Səhnə	-11.4855
▁dairələr	-11.4859
▁fantastik	-11.4864
▁Paytaxt	-11.4864
▁təsisçisi	-11.4864
▁qəzəl	-11.4866
▁qalxmış	-11.4873
▁övlad	-11.4873
▁etdirilə	-11.4873
▁kitabədə	-11.4874
▁Va	-11.4876
▁xəttin	-11.4878
▁müqaviləni	-11.4878
▁uşaqlıqda	-11.4878
▁məsafəsi	-11.488
▁şerlər	-11.4882
▁maddəni	-11.4885
▁87	-11.4885
▁orkestrin	-11.4886
▁həddi	-11.4886
▁İngilislər	-11.4888
▁damar	-11.4889
▁qeydlər	-11.4891
▁döyüşlərində	-11.4891
▁formalar	-11.4895
▁atalar	-11.4896
▁qoşunun	-11.49
▁hazırlanma	-11.4901
▁ticarəti	-11.4901
▁açılı	-11.4902
▁sirr	-11.4906
▁vaxtlarında	-11.491
▁Fərman	-11.491
▁Xilafətin	-11.4912
▁sistemlər	-11.4913
▁xassələrini	-11.4914
▁73	-11.4918
▁Dağıstanda	-11.4918
▁məbləği	-11.4921
▁söylədi	-11.4924
▁5000	-11.4925
▁gətirmə	-11.4926
▁Mikelancelo	-11.4927
▁protestant	-11.4927
▁İşğal	-11.4927
▁Harri	-11.4927
▁çılpaq	-11.4927
▁İosif	-11.4927
▁məqsədyönlü	-11.4927
▁səhhəti	-11.4927
▁partladıl	-11.4927
▁buraxılan	-11.4928
▁tənzimlənməsi	-11.4928
▁Pye	-11.4931
▁yetişdirilməsi	-11.4932
▁göm	-11.4932
▁dayısı	-11.4933
▁Bar	-11.4935
▁Əsri	-11.4936
▁satılır	-11.4936
▁yazıçılar	-11.4937
▁kompüterlər	-11.4937
▁türkcəsin	-11.4939
▁97	-11.4941
▁saatı	-11.4943
▁kollecin	-11.4944
yeni	-11.4945
▁Ani	-11.4949
▁aləmini	-11.495
▁Şəkidə	-11.4951
▁praktika	-11.4955
xüsusiyyətlərini	-11.4958
▁olmadıq	-11.4958
▁axtar	-11.4959
▁paylanması	-11.496
▁bölür	-11.4961
▁düzəldil	-11.4961
▁yazıçıların	-11.4962
▁xəbərləri	-11.4962
▁pər	-11.4963
▁məruzələr	-11.4963
▁hüceyrələr	-11.4967
▁sayları	-11.4971
▁saxlayı	-11.4972
▁axın	-11.4972
▁markası	-11.4975
▁şər	-11.4975
▁faktları	-11.4982
▁Muradı	-11.4983
▁iyunda	-11.4983
▁nədir	-11.4985
darəetmə	-11.4985
▁yığıla	-11.4986
▁divarlarında	-11.4986
▁anti	-11.4987
▁kanalında	-11.4993
▁tatarları	-11.4995
▁Je	-11.4995
▁bilirik	-11.4999
▁iqtisadçı	-11.5001
▁göstəricilər	-11.5001
▁idrak	-11.5002
▁sualın	-11.5002
▁çevrilişi	-11.5003
▁dənizçi	-11.501
▁be	-11.5013
▁nəyə	-11.5013
▁170	-11.5018
▁anlayışını	-11.5018
▁qütb	-11.5018
kilsə	-11.502
▁ağacın	-11.5021
den	-11.5023
▁götürmüş	-11.5024
▁normaları	-11.5025
▁er	-11.5026
▁zirvəsində	-11.5026
▁peyğəmbərlər	-11.5026
▁meyvələrin	-11.5029
▁Müharibəsində	-11.5033
mərtəbəli	-11.5033
▁şumer	-11.5033
Cavanşir	-11.5034
▁Nəqliyyat	-11.5034
▁ildönümü	-11.5034
▁Kosm	-11.5034
▁Belqrad	-11.5034
▁Cahanşah	-11.5034
▁gözətçi	-11.5034
▁şərbət	-11.5034
▁Hacınski	-11.5034
▁himayəsində	-11.5034
▁dayandırdı	-11.5034
▁Özbək	-11.5034
▁İçəri	-11.5035
▁sünn	-11.5035
▁Qida	-11.5038
cəsin	-11.504
▁çəkildiyi	-11.504
▁verilmə	-11.5041
▁Vol	-11.5042
▁uşaqlarını	-11.5043
▁insanlarla	-11.5046
▁Kəl	-11.5046
▁vampir	-11.5047
▁albanları	-11.505
ınca	-11.505
▁resursları	-11.5053
▁investisiya	-11.5053
▁hündürlüyündə	-11.5053
▁sərhəddində	-11.5056
▁post	-11.5056
▁nu	-11.5057
▁turşuları	-11.5059
▁hunlar	-11.5061
▁mühitində	-11.5061
▁aça	-11.5067
▁bə	-11.507
▁salına	-11.5071
▁əlifbasını	-11.5074
▁üçdə	-11.5074
▁İsveçrədə	-11.5078
▁Konqresi	-11.5078
▁obrazların	-11.5081
▁edilməmişdi	-11.5082
prav	-11.5082
▁qəhrəmanların	-11.5082
▁kursunda	-11.5085
ef	-11.5089
▁gəliri	-11.509
▁yarana	-11.5093
▁dəlil	-11.5095
üsət	-11.5098
duq	-11.5099
▁xərclərini	-11.5099
▁islamı	-11.5099
▁Kazımova	-11.5101
▁sinifdə	-11.5102
atma	-11.5104
▁daşnak	-11.5105
▁Hamı	-11.5105
▁xəzinəsi	-11.5108
baş	-11.5109
▁formalarda	-11.511
▁poeziyasını	-11.5111
▁bəşəriyyət	-11.5116
▁həbsxanada	-11.5116
▁Yaz	-11.5118
▁repertuarın	-11.5122
▁qatılmış	-11.5122
▁xanlığında	-11.5125
▁fürsət	-11.5126
▁fondunu	-11.5132
▁Abbasi	-11.5134
▁müqavilələri	-11.5136
▁firma	-11.5137
▁dəstələrini	-11.5138
▁birləşi	-11.5139
▁qorunma	-11.5142
▁Fridrix	-11.5143
▁Ruzvelt	-11.5143
▁parazit	-11.5143
▁spiral	-11.5143
▁Əməyi	-11.5143
▁əziz	-11.5143
▁Sarqon	-11.5143
▁darvaza	-11.5143
▁rahib	-11.5143
▁ölçmə	-11.5143
▁Tərbiyə	-11.5143
Diza	-11.5143
▁Çoban	-11.5143
▁anlaya	-11.5143
▁Bəkr	-11.5143
yc	-11.5143
▁əlamətdar	-11.5143
▁Lester	-11.5144
▁Praqa	-11.5144
salında	-11.5144
▁gözlənilir	-11.5144
▁tərkibini	-11.5145
▁ekologiya	-11.5146
▁uzunu	-11.5146
noz	-11.5147
▁maraqlanır	-11.5148
alp	-11.5148
▁1850	-11.5148
▁möhkəmləndirmə	-11.5148
▁iqtidar	-11.5149
▁yetirməsi	-11.515
▁1872	-11.5151
▁departamenti	-11.5152
▁stansiyasında	-11.5153
▁sirk	-11.5154
▁təcrüb	-11.5154
▁əlaqəni	-11.5155
▁turnirdə	-11.5158
start	-11.516
▁van	-11.516
▁məqaləni	-11.516
▁mənaları	-11.516
▁həvəslə	-11.5161
▁Polşada	-11.5163
▁Arxiv	-11.5169
▁inanc	-11.5169
▁inf	-11.517
▁bəşəriyyəti	-11.517
▁Qalan	-11.5172
▁itirən	-11.5174
▁hüquqlar	-11.5176
▁etməz	-11.5177
▁bölgələrin	-11.5179
▁topa	-11.5179
▁qurğusu	-11.518
▁şirə	-11.518
▁nişan	-11.5181
▁Tər	-11.5181
eşəkar	-11.5182
▁düşüncələri	-11.5183
▁yəhudiləri	-11.5183
▁Urm	-11.5187
▁çəmən	-11.519
▁irsin	-11.5192
▁qurulmasında	-11.5192
▁yata	-11.5193
▁çevirir	-11.5193
▁çəkilişləri	-11.5194
▁örnək	-11.5196
▁çevirə	-11.5196
▁220	-11.52
▁hissəciklər	-11.5201
▁səfərin	-11.5202
▁axırına	-11.5204
▁durma	-11.5208
fət	-11.5208
▁xatirələri	-11.5211
▁müdaxiləsi	-11.5215
▁təqdimat	-11.5215
▁dəstəyini	-11.5216
▁mövzuları	-11.5217
▁Ed	-11.5218
▁Balıq	-11.5219
▁uğra	-11.5219
-15	-11.522
▁sistemlərin	-11.522
▁türkmən	-11.5221
▁Azərb	-11.5221
▁qalada	-11.5223
▁Mühafizə	-11.5223
▁Mu	-11.5224
▁hamamı	-11.5229
▁həkimlər	-11.5229
▁Firuz	-11.5231
▁meşələrində	-11.5234
▁əmlak	-11.5234
▁operasını	-11.5234
▁Toy	-11.5235
▁qabığında	-11.5237
▁ustadı	-11.524
▁göstərməkdə	-11.5242
▁səp	-11.5246
▁prinsiplərini	-11.525
uncu	-11.5252
×	-11.5253
▁Kapita	-11.5253
▁cərimə	-11.5253
▁törədir	-11.5253
▁şəlalə	-11.5253
▁qətliam	-11.5253
▁Özəl	-11.5253
▁Xıdır	-11.5253
▁kisəsi	-11.5253
▁1865	-11.5253
▁intiqam	-11.5253
▁sürürdü	-11.5253
▁Əcəm	-11.5254
▁siyasətində	-11.5254
▁qartal	-11.5255
▁Ölümün	-11.5255
▁yığıncaq	-11.5256
▁zərbələr	-11.5256
▁Kubokun	-11.5257
Kərim	-11.5257
▁kabineti	-11.5257
▁Ağaoğlu	-11.5257
▁Məbədi	-11.5257
▁hesablamalar	-11.5257
▁nəzm	-11.5259
▁müsa	-11.5259
▁hakimlər	-11.5263
▁Nati	-11.5266
▁sink	-11.5268
▁dəlillər	-11.5268
batında	-11.527
▁ilham	-11.527
▁yaxınlığı	-11.5271
şıqlı	-11.5271
▁edənləri	-11.5271
▁1918-1920	-11.5272
87-	-11.5273
▁İohann	-11.5273
▁tur	-11.5273
▁dövlətlərdə	-11.5274
▁Görüş	-11.5275
▁mədən	-11.5275
▁ahəng	-11.5281
▁xəttində	-11.5281
▁Kiş	-11.5286
▁fiquru	-11.5286
▁axtarır	-11.5288
▁rəngin	-11.5289
şərqi	-11.5291
▁3,	-11.5291
▁qovu	-11.5292
▁ölümünü	-11.5292
▁şərəfl	-11.5293
▁Senat	-11.53
▁beyt	-11.5301
▁şərtlərini	-11.5303
▁qurumun	-11.5303
▁xristianlıq	-11.5304
▁çayda	-11.5305
▁rolların	-11.5307
▁nasi	-11.5307
▁səciyyələn	-11.5307
▁araşdırmaları	-11.5317
▁statistika	-11.5317
▁divarların	-11.5318
▁qapısını	-11.532
▁Qasımlı	-11.5321
▁övladlarını	-11.5325
▁Qran	-11.5325
ddin	-11.5325
texnika	-11.533
▁bağırsaq	-11.5331
▁fərqləndir	-11.5331
kəs	-11.5332
▁studiyası	-11.5334
▁Sava	-11.5337
▁verilənlərin	-11.5343
▁yubiley	-11.5344
▁köçən	-11.5345
▁rayonların	-11.5346
▁qulluqçu	-11.5347
▁təsvirini	-11.535
▁vitaminlər	-11.5352
▁həndəsə	-11.5357
▁verilə	-11.5357
übh	-11.5359
▁yarpağı	-11.5361
▁zalında	-11.5362
▁nəs	-11.5362
▁tərcümələr	-11.5363
▁Aşqabad	-11.5364
▁Cenevrə	-11.5364
▁Sivas	-11.5364
▁Zelandiya	-11.5364
▁separatçı	-11.5364
▁xəncər	-11.5364
▁minimum	-11.5364
▁Çıraq	-11.5364
▁dovşan	-11.5364
▁tapıldı	-11.5365
▁adlandırılması	-11.5366
▁qiymətləndirir	-11.5366
▁teleqra	-11.5366
▁obrazlarını	-11.5367
▁öd	-11.5367
▁çörəyi	-11.5367
▁Hacıbaba	-11.5369
▁Fax	-11.537
▁tapılması	-11.537
▁muxtariyyət	-11.537
▁Təhsilin	-11.5371
▁sərhədlərində	-11.5374
▁Hann	-11.5376
▁rəssamları	-11.5377
▁Nat	-11.5377
▁gətirilməsi	-11.5379
▁Məmmədzadə	-11.5379
▁Elma	-11.538
sif	-11.5384
▁tədqiqatçıları	-11.5385
▁mövsümün	-11.5386
▁Qacarı	-11.5387
▁qayalar	-11.5387
▁açmağ	-11.5388
siyahıyaalınması	-11.5389
▁qaynaqlarda	-11.5393
▁Maksim	-11.5396
▁Klublar	-11.5397
▁kəsilməsi	-11.5398
▁vurulur	-11.5399
▁xətlər	-11.54
▁qadına	-11.54
▁qaldıqda	-11.5402
ciyər	-11.5403
▁insanda	-11.5407
▁qaçma	-11.5409
laşdırma	-11.5409
▁çalışmaq	-11.5409
▁Aşağıda	-11.5411
canını	-11.5412
▁materikin	-11.5415
▁hücumunda	-11.5415
▁ritmi	-11.5416
qabağı	-11.5416
▁Dili	-11.5417
▁tiki	-11.5418
▁təsirləri	-11.5419
▁keşiş	-11.5419
▁azaldır	-11.542
▁öldürü	-11.5423
▁yaxınlıqda	-11.5423
▁Sad	-11.5424
▁dağıdılmışdı	-11.5426
▁ağrı	-11.5428
▁şirkətlərin	-11.5429
▁Sis	-11.5429
▁çəkiliş	-11.543
▁dalğası	-11.5431
▁çıxıntı	-11.5433
▁pulları	-11.5433
▁siniflər	-11.5436
▁quruda	-11.5439
tərəf	-11.5441
▁çağı	-11.5444
▁buraxılmış	-11.5445
unçu	-11.5446
ləşdirilir	-11.5446
▁anlamında	-11.5446
▁mahnıların	-11.5446
▁fond	-11.5447
▁gecələr	-11.5449
talya	-11.5454
▁tipin	-11.5457
▁Yüz	-11.5457
▁muğamı	-11.5459
▁tanrıların	-11.5461
▁zabitləri	-11.5462
▁modelini	-11.5463
▁şirkətində	-11.5466
▁havası	-11.5467
sub	-11.5468
▁silsilələri	-11.5468
yam	-11.5473
▁Filip	-11.5475
▁məntəqələrini	-11.5475
▁Atletik	-11.5476
▁Məqsəd	-11.5476
▁Tətbiq	-11.5476
▁holland	-11.5476
▁tacirləri	-11.5476
▁Emil	-11.5476
▁Jak	-11.5476
▁əmtəə	-11.5476
▁podpo	-11.5477
▁haqlı	-11.5477
▁tikildiyi	-11.5477
▁Tələbələr	-11.5479
▁hərəkətlərini	-11.5479
▁təhlükəsizliyin	-11.5479
laşmış	-11.5479
▁üçbucaq	-11.5481
▁nöqtədə	-11.5481
▁çalır	-11.5482
▁Verdi	-11.5483
▁oval	-11.5485
tatar	-11.5487
▁simaları	-11.5489
▁Dostlu	-11.5491
▁türbələr	-11.5491
▁cərgə	-11.5494
▁Ni	-11.5497
▁Murtuza	-11.5497
eranın	-11.5499
▁qarışdırı	-11.5503
▁yığılma	-11.5503
▁Sədri	-11.5505
▁klinik	-11.5505
▁tökülə	-11.5505
▁meydanın	-11.5505
▁almaz	-11.5506
▁evlərdə	-11.5507
▁ocağın	-11.5507
▁geyimləri	-11.5508
▁liderləri	-11.5512
▁rejimin	-11.5514
▁seriyası	-11.5518
▁verilişi	-11.5521
▁apardıq	-11.5521
▁olmamalı	-11.5525
▁450	-11.5526
▁zəkat	-11.5527
▁hökmranlı	-11.5528
▁Festivalı	-11.553
▁göstərildi	-11.5531
▁atla	-11.5533
▁kompüterin	-11.5535
▁atmosferin	-11.554
▁gedər	-11.5547
zer	-11.5548
▁qaynaqlar	-11.5549
▁meşəlik	-11.5553
zal	-11.5555
▁gey	-11.5558
adam	-11.5561
▁qurumu	-11.5562
▁idmanın	-11.5563
▁xəritəsi	-11.5564
▁Hökumətin	-11.5565
▁yerlə	-11.5566
▁format	-11.5567
▁Bad	-11.5568
▁ideologiyası	-11.557
▁daşlarında	-11.5575
▁xalla	-11.5577
▁tələbat	-11.5578
▁axınları	-11.5578
▁mərtəbədə	-11.5579
▁namazını	-11.5587
▁500-	-11.5588
‘	-11.559
▁Herseqovina	-11.559
▁Ürək	-11.559
▁Əbdüləziz	-11.559
▁Dekabr	-11.559
▁Paraqvay	-11.559
▁düzülmüş	-11.559
▁Astronomi	-11.559
▁tabeçiliyin	-11.559
▁olsaydı	-11.559
▁Qeyri	-11.559
▁mükafatçısı	-11.5591
▁Sultanı	-11.5592
▁Kosa	-11.5592
▁000-	-11.5593
▁Qey	-11.5594
▁bəzilərini	-11.5594
▁qurudulm	-11.5596
▁dramaturqu	-11.5597
▁əllərini	-11.5598
SO	-11.5598
▁mərasimlər	-11.56
▁atmış	-11.5603
▁rəsədxana	-11.5605
▁hücumun	-11.5605
▁saxlamağ	-11.5606
▁Qre	-11.5607
08	-11.5607
▁bəstələ	-11.5607
▁Bil	-11.5615
Şərqi	-11.5622
▁ild	-11.5622
▁ədalətsiz	-11.5624
▁kompozisiyaları	-11.5624
▁qonaqları	-11.5625
▁86	-11.5626
▁təkmil	-11.5628
▁allahı	-11.5631
▁düşər	-11.5633
▁Diz	-11.5634
▁yuyu	-11.5636
▁Şuş	-11.5637
sirlərini	-11.5641
▁Her	-11.5647
▁yaralanmış	-11.5649
▁təlimin	-11.565
▁Əjd	-11.5652
etmə	-11.5653
▁uduz	-11.5655
tal	-11.5659
▁Sonda	-11.566
▁otlaq	-11.5665
▁tərs	-11.5667
▁xidmətində	-11.5672
▁öndə	-11.5676
▁tapıntılar	-11.5676
▁Karlo	-11.5681
lümin	-11.5684
məram	-11.5687
▁qazanıl	-11.5688
▁məkanı	-11.569
▁İslamda	-11.569
▁fəsil	-11.5693
▁Texnikumunu	-11.5694
▁dərsi	-11.5698
▁Mömin	-11.5698
rxis	-11.5698
▁göndərilməsi	-11.57
▁Biləc	-11.5701
▁hökmdarın	-11.5703
oğma	-11.5704
▁Kolumb	-11.5704
▁konserv	-11.5705
▁kolorit	-11.5705
▁radikal	-11.5705
▁törədə	-11.5705
▁tüfəng	-11.5705
▁vassal	-11.5705
▁verilmir	-11.5705
▁1849	-11.5705
▁Əfsanə	-11.5705
əqədər	-11.5705
▁Bəkir	-11.5705
▁Atlantida	-11.5705
▁Hesablama	-11.5705
ttesta	-11.5705
▁Şeytan	-11.5705
▁əczaçı	-11.5705
▁Mosul	-11.5705
▁arena	-11.5705
▁İstanbulu	-11.5706
▁yazdıqları	-11.5706
üqar	-11.5708
▁saxlanır	-11.5709
▁bənzəyə	-11.5709
▁qiymətləri	-11.571
▁tətil	-11.5711
▁xilafəti	-11.5712
▁albomda	-11.5712
▁ref	-11.5712
ənd	-11.5713
▁ostan	-11.5713
▁Bitkilər	-11.5715
▁yetirmə	-11.5717
▁yayımı	-11.5717
▁Səlcuqlu	-11.5718
▁Havay	-11.5719
yavaş	-11.5719
▁Bara	-11.572
bərabər	-11.5721
▁Ley	-11.5722
▁yaylağı	-11.5723
▁səfir	-11.5723
▁qalıqlarını	-11.5725
▁məqsədə	-11.5726
▁konstruksiya	-11.5726
▁folklorun	-11.5728
▁etməyin	-11.5733
▁burun	-11.5736
▁fabrik	-11.5738
▁işlətmə	-11.5738
▁yiyələni	-11.5741
▁vilayətləri	-11.5745
▁qorxusu	-11.5747
▁öldürə	-11.5751
▁qərarlar	-11.5752
▁ayağ	-11.5752
▁verər	-11.5753
▁bar	-11.5753
▁fərd	-11.5753
▁istismarı	-11.5753
▁rəqibləri	-11.5754
xita	-11.5756
▁yeniliklər	-11.5757
▁kürək	-11.5758
▁Sənətkar	-11.5762
▁Şıx	-11.5764
▁özbək	-11.5767
▁Cons	-11.5768
▁qüvvədə	-11.5772
incan	-11.5772
▁skiflər	-11.5772
▁müstəvi	-11.5773
▁Televiziyası	-11.5775
▁gəmisini	-11.5777
▁tarixləri	-11.5779
▁qarşılanmışdı	-11.578
▁silahları	-11.5784
▁istiliyi	-11.5787
▁ölmə	-11.5788
▁qrammatik	-11.5791
▁irsini	-11.5797
▁beynin	-11.5798
▁başlığı	-11.5799
▁fotoqraf	-11.5801
▁Səs	-11.5802
▁xammalı	-11.5802
▁təşəbbüs	-11.5802
▁briqadası	-11.5803
▁seçimi	-11.5803
zat	-11.5804
▁Tərkibin	-11.5806
▁ixtisasları	-11.5806
▁İsveçrəni	-11.5806
▁enmə	-11.5808
▁As	-11.5809
▁me	-11.581
▁hazırlamış	-11.5811
▁etmədiyi	-11.5814
▁malları	-11.5815
▁hüceyrələri	-11.5816
▁dəyişik	-11.5818
th	-11.5819
▁cisimlərin	-11.582
▁Hesab	-11.5821
▁Skandinaviya	-11.5821
▁etnotoponim	-11.5821
▁təəssürat	-11.5821
▁şücaət	-11.5821
▁əfəndi	-11.5821
▁stabil	-11.5821
▁İtti	-11.5821
▁Nelson	-11.5821
▁Biznes	-11.5821
▁İbad	-11.5822
▁təkliflər	-11.5823
▁ovalığında	-11.5827
▁albomun	-11.5827
laşır	-11.5827
▁qovşağı	-11.5828
▁Moza	-11.5828
sınız	-11.5829
▁çağırırdı	-11.5829
▁islahatı	-11.5831
▁nədən	-11.5835
▁tanıyır	-11.5836
▁radiu	-11.584
▁xəzər	-11.5841
▁kampaniyası	-11.5841
▁sahillərini	-11.5843
▁danışırdı	-11.5845
övbə	-11.5845
▁Hicri	-11.5846
▁Dəf	-11.5846
▁ağırlığı	-11.5848
▁hərb	-11.5849
▁əfsanəsi	-11.5849
▁fəaliyyətləri	-11.5851
▁millətləri	-11.5853
▁müəllimin	-11.5853
▁qalsa	-11.5861
▁texnikasını	-11.5861
▁Do	-11.5863
▁tökül	-11.5866
▁mayda	-11.5867
▁Mahmudov	-11.5867
▁dəyərin	-11.5868
▁tacirlər	-11.5869
▁Qrupu	-11.5872
▁Akademiyanı	-11.5875
▁halını	-11.5876
▁müştərilər	-11.5878
▁çağırı	-11.5879
▁təkamülü	-11.5879
▁Mahal	-11.5881
▁dizaynı	-11.5882
▁divarın	-11.5883
▁Qoşun	-11.5886
dey	-11.5887
▁qalxması	-11.5888
▁ticarətin	-11.5889
▁Niy	-11.5889
▁əs	-11.589
▁dünyadakı	-11.5893
▁aparılı	-11.5896
▁Bak	-11.5897
▁ulduzları	-11.591
▁basqınlar	-11.5911
80-	-11.5921
▁azalmışdı	-11.5922
▁nüvəsi	-11.5922
▁savad	-11.5924
▁Qoruğun	-11.5926
▁hidro	-11.5931
▁yatağında	-11.5931
ağara	-11.5933
▁himayə	-11.5936
▁Zir	-11.5937
▁Xiyabani	-11.5937
yya	-11.5938
▁bölgü	-11.5938
▁Nüsrət	-11.5939
▁Dostoyevski	-11.5939
▁Malayziya	-11.5939
▁Vergi	-11.5939
▁yırtıcı	-11.5939
▁1864	-11.5939
▁Sidqi	-11.5939
▁elektromaqn	-11.5939
▁Liseyi	-11.5939
▁modern	-11.5939
▁optimal	-11.5941
▁hec	-11.5941
XVIII	-11.5941
▁Söyüd	-11.5942
▁uğursuzluq	-11.5942
▁Ural	-11.5943
▁tabeli	-11.5943
▁Ardın	-11.5944
▁güləşçi	-11.5946
▁Qaraxanlı	-11.5947
həmməd	-11.5947
cül	-11.5948
▁dünyagörüşünü	-11.5949
▁sonları	-11.5949
▁vətənində	-11.5952
▁tamamladı	-11.5952
▁oktyabrda	-11.5952
▁genişləni	-11.5952
▁şou	-11.5954
▁qiymətləndirmə	-11.5955
▁müəyyənləşdiri	-11.5959
eist	-11.5959
▁lövhələr	-11.5961
▁əlin	-11.5962
▁şiş	-11.5965
▁did	-11.5967
▁tanınmışdı	-11.5967
önü	-11.5973
▁verməlidir	-11.5976
▁üslubunu	-11.5982
▁Os	-11.5983
▁Konfrans	-11.5984
▁balansı	-11.5984
ündə	-11.5989
▁gözündə	-11.5994
▁boyları	-11.5995
▁Direktor	-11.5997
▁Federasiya	-11.5997
səmə	-11.5999
▁dedim	-11.6
5-6	-11.6
▁püskürmə	-11.6003
ic	-11.6003
▁nur	-11.6007
▁metodik	-11.6007
▁Paytaxtı	-11.6008
▁geyimi	-11.6009
▁suların	-11.6009
▁ixtiyarın	-11.6011
▁nota	-11.6013
elye	-11.6014
▁müştəri	-11.6016
▁birliklər	-11.6019
▁qərarlaş	-11.602
▁müdafiəçi	-11.6022
▁qadağa	-11.6027
▁bulud	-11.6029
▁nəşriyyat	-11.6029
▁aralıq	-11.6029
▁radiosu	-11.6032
▁qardaşını	-11.6032
▁Gil	-11.6033
▁ekspedisiyası	-11.6033
▁səhifəsi	-11.6034
fis	-11.6034
▁ilanı	-11.6034
▁sənədlərində	-11.6038
▁məcmuəsi	-11.6038
▁düşüncəsi	-11.6039
▁göstəricilərin	-11.6042
▁Devi	-11.6043
▁sifət	-11.6045
▁xəstələri	-11.6045
əadət	-11.6048
▁öküz	-11.6051
▁Çempionatını	-11.6051
▁küləklər	-11.6051
yyət	-11.6052
▁fayda	-11.6052
▁Dadaş	-11.6053
▁Sədr	-11.6055
▁gəlini	-11.6055
XIII	-11.6056
▁önə	-11.6056
▁Sinqapur	-11.6058
▁Sparta	-11.6058
▁qübbə	-11.6058
▁əmanət	-11.6058
▁kazak	-11.6058
▁Adria	-11.6058
▁sürdüyü	-11.6058
▁radiasiya	-11.6058
▁pianoçu	-11.6058
▁AzTV	-11.6059
▁Henrix	-11.606
vuz	-11.6061
▁istedadını	-11.6064
▁güclənməsi	-11.6064
▁Yusifbəyli	-11.6065
▁qoşma	-11.6067
▁kolleksiya	-11.6067
▁Hey	-11.6068
▁Əski	-11.6069
▁irq	-11.6069
▁Dün	-11.6069
▁yüksəlmiş	-11.607
əmsə	-11.607
▁təmiri	-11.6072
hdi	-11.6074
▁gözünü	-11.6075
▁maddəsin	-11.6076
▁fitr	-11.6076
▁bağlılığı	-11.6077
▁yekunları	-11.6078
kad	-11.6078
▁alay	-11.6079
▁1877-	-11.6079
▁Cü	-11.608
к	-11.6082
▁istəmirdi	-11.6087
▁nəyi	-11.6089
▁qətiyyətl	-11.6091
▁Türklərin	-11.6091
▁dayandırma	-11.6094
▁ocağını	-11.6095
▁Adanı	-11.6095
▁Marin	-11.6097
▁gözləyirdi	-11.6097
▁Səhl	-11.6097
▁effekti	-11.6097
▁İncil	-11.6098
▁2500	-11.61
tac	-11.6102
▁əlamət	-11.611
▁dəyişiklikləri	-11.611
▁Kinematoqraf	-11.6111
slı	-11.6116
▁kənarları	-11.6117
▁Dominika	-11.6119
▁şəxsiyyətin	-11.6121
▁Ulduzlar	-11.6121
▁öyrəni	-11.6122
▁şer	-11.6122
▁Xəstə	-11.6126
anni	-11.6126
▁oxun	-11.6128
▁oyunların	-11.6128
▁pullar	-11.613
▁xoru	-11.6131
▁rabitəsi	-11.6132
▁94	-11.6132
▁Buğa	-11.6133
▁keçirilməsini	-11.6135
▁Nikola	-11.6136
▁cisimlər	-11.6138
▁məhlul	-11.6141
▁məzmununu	-11.6142
▁Ege	-11.6144
▁rahatlıq	-11.6145
▁akademiyası	-11.6147
rsız	-11.6148
▁ödəmə	-11.6149
binəsi	-11.615
▁Tarixdə	-11.6151
▁qəzetlərdə	-11.6152
▁mükafatlandırıl	-11.6164
▁öldürülməsin	-11.6166
▁tikdiri	-11.6167
▁Rəfi	-11.617
▁Qlobal	-11.6171
bay	-11.6173
▁Dmitri	-11.6173
▁müəyyənləşdirmə	-11.6173
▁cildin	-11.6178
▁Qayıbov	-11.6178
▁Anqola	-11.6178
▁Departamenti	-11.6178
▁Fernand	-11.6178
▁Məktub	-11.6178
▁Xarkov	-11.6178
▁rəftar	-11.6178
▁Qırx	-11.6178
▁1846	-11.6178
▁Arazbar	-11.6178
▁natura	-11.6178
▁Kembric	-11.6178
▁Tere	-11.6178
▁Edvard	-11.6178
▁dəstəkləyə	-11.6178
▁informa	-11.6178
▁Slovakiya	-11.6178
▁təhdid	-11.6178
vayı	-11.6179
▁qollar	-11.6179
▁Tatar	-11.6179
▁Əbdürrəhman	-11.618
▁pulun	-11.618
▁bilməyəcəyini	-11.6182
▁ayıran	-11.6182
▁fiqurları	-11.6183
▁qoyurdu	-11.6183
▁melodiya	-11.6185
▁anlamaq	-11.6186
▁1806	-11.6186
▁mür	-11.6186
▁heyvanın	-11.6186
▁Eynəl	-11.6187
▁yaşayanlar	-11.6189
▁hazırlayırdı	-11.619
▁təriqəti	-11.619
▁sürücü	-11.6192
▁Proqram	-11.6193
▁166	-11.6197
▁ucaldıl	-11.6197
▁Aişə	-11.62
▁Gölü	-11.6201
▁Oyunlarını	-11.6204
bel	-11.6205
▁yaradılmasını	-11.6207
▁əyalətlər	-11.6208
▁səfərbər	-11.621
▁tələbatını	-11.621
▁məskənlərin	-11.621
uşu	-11.6212
▁mahnılarda	-11.6215
▁formalarında	-11.6217
▁mədəniyyətlərin	-11.6218
▁işlədir	-11.6218
fon	-11.6219
▁İman	-11.6219
▁seçilirdi	-11.622
▁olursa	-11.622
▁imperiyasında	-11.6221
▁povesti	-11.6221
▁Qüvvələrin	-11.6225
▁istəmiş	-11.6227
▁yönəldilmiş	-11.6233
▁inancın	-11.6236
▁temperaturda	-11.6237
▁məhsulunu	-11.6239
▁sürmüş	-11.6239
gedən	-11.6242
▁cərrah	-11.6243
▁xadimlərini	-11.6245
qun	-11.6248
▁funksiyalarını	-11.6251
▁perspektiv	-11.6251
▁günəşi	-11.6255
▁aktları	-11.626
▁toxunma	-11.6262
▁sap	-11.6268
▁qə	-11.6272
▁kadrları	-11.6272
▁ödəyir	-11.6278
▁problemini	-11.6281
▁çəkil	-11.6281
▁kütləsini	-11.6281
▁avtomobillər	-11.6282
▁iqtisad	-11.6282
▁olanları	-11.6282
▁Cəmi	-11.6283
▁avtobus	-11.6284
▁bakteriyalar	-11.6288
▁obyektin	-11.6292
laşma	-11.6295
▁Məbəd	-11.6296
dəfə	-11.6296
▁nəşriyyatın	-11.6296
rad	-11.6297
cıq	-11.6297
▁Vəfa	-11.6299
▁NASA	-11.63
▁sərdabə	-11.63
▁yandırmış	-11.63
▁Nümayəndə	-11.63
▁uğrayı	-11.63
▁Tunis	-11.63
▁Üzərin	-11.63
▁öldüyü	-11.6301
▁Xələf	-11.6301
▁yazıldığı	-11.6301
▁təməlin	-11.6302
▁gülüş	-11.6302
▁Kitabı	-11.6305
▁içir	-11.6307
▁görünmə	-11.6309
▁Sadıqcan	-11.631
▁olunmamış	-11.6314
▁Nəcəfov	-11.6314
▁Şir	-11.6319
▁üsulunu	-11.6321
▁toqquşmalar	-11.6321
amiz	-11.6323
▁Pərvi	-11.6323
▁vasitələrini	-11.6327
▁aktyorlar	-11.6329
Qazax	-11.633
▁dişli	-11.6332
▁limanları	-11.6334
▁Ped	-11.6335
▁Gəli	-11.6336
▁riyaziyyatçı	-11.6337
▁diyarın	-11.6337
▁anlamın	-11.634
▁dilimiz	-11.634
▁qanunla	-11.6342
▁tökü	-11.6344
▁palata	-11.6345
▁quberniya	-11.6347
qanun	-11.6347
▁yönəli	-11.6347
▁büdcəsi	-11.6348
▁Ərz	-11.6353
▁korpusu	-11.6354
▁Peterburqda	-11.6355
▁bədənində	-11.6356
▁evli	-11.6358
▁dastanları	-11.6358
▁gücləndiri	-11.6359
ılmaz	-11.6362
▁norma	-11.6362
▁parçalanma	-11.6363
▁göndərə	-11.6363
▁taxtı	-11.6367
▁Kubok	-11.6367
▁miras	-11.6367
▁barmaq	-11.6367
▁Şamaxını	-11.6368
▁şəhidi	-11.6369
▁Babı	-11.6373
▁həcmini	-11.6375
▁Təq	-11.6375
▁oğuzlar	-11.6375
▁baxışda	-11.6377
▁qırğın	-11.6377
zik	-11.6378
▁don	-11.6378
▁Mara	-11.6379
▁küçələrində	-11.6381
▁azarkeş	-11.6389
▁mətbəxin	-11.6393
▁qurulu	-11.6394
▁mono	-11.6394
▁Göl	-11.6396
▁çatma	-11.6397
▁seriyasında	-11.6398
▁zirvəsin	-11.6399
▁meydançası	-11.6399
▁turniri	-11.6399
▁Dar	-11.6403
▁oxuna	-11.6404
▁dialekti	-11.6406
▁məhəl	-11.641
▁Əminə	-11.6412
▁qaynaq	-11.6414
▁Əsr	-11.6415
▁Varlı	-11.6416
qrar	-11.6422
▁effekt	-11.6423
▁hun	-11.6423
▁Əsədulla	-11.6423
▁Mərmər	-11.6424
▁sponsor	-11.6424
▁çevik	-11.6424
▁Şəkər	-11.6424
▁Əvəz	-11.6424
▁Krasno	-11.6424
▁Müşfiq	-11.6424
▁təhqir	-11.6424
▁Klip	-11.6424
▁Eynşteyn	-11.6424
▁yığılmış	-11.6424
▁truppası	-11.6424
▁agentliyi	-11.6424
▁Kon	-11.6425
▁gerbi	-11.6425
▁söylədiyi	-11.6425
▁zi	-11.6426
▁Abdal	-11.6428
▁təqaüdü	-11.6429
▁düzənliklər	-11.643
▁cədvəlin	-11.643
▁Dağıstanı	-11.643
▁Müsəlmanlar	-11.6431
▁Şərifov	-11.6431
▁səpki	-11.6432
▁Xalid	-11.6434
▁janrını	-11.6435
▁nəzarətində	-11.6437
▁milyonçu	-11.6437
▁quberniyasında	-11.6437
▁yal	-11.6439
▁Nəzərə	-11.6439
▁məqsədini	-11.6439
▁Müsəlmanları	-11.644
▁Alqışlar	-11.6443
▁Xosrovu	-11.6444
▁1747	-11.6444
▁qarışıqlıq	-11.6445
▁göndərmək	-11.6445
▁Qurt	-11.6445
▁şərhi	-11.6446
▁etimad	-11.6446
lmiş	-11.6446
▁təyyarəni	-11.6447
▁zəiflədi	-11.645
▁Sər	-11.6452
▁mütəfəkkir	-11.6452
▁aparat	-11.6453
yabanı	-11.6455
▁İnsanları	-11.6455
qarşıya	-11.6456
▁Billi	-11.6457
▁məbədləri	-11.6458
ığ	-11.6459
▁quruluşlu	-11.646
▁Fo	-11.646
dəniz	-11.646
▁mənbəyini	-11.646
▁bölgəsin	-11.6462
▁çəkişmələr	-11.6466
▁amillərdən	-11.6467
▁planın	-11.6467
▁dövlətlərində	-11.6467
▁Rəş	-11.6467
▁Diza	-11.6469
ənah	-11.6469
▁yaxınlaş	-11.6471
▁Sizin	-11.6471
▁minilliklər	-11.6474
▁operasında	-11.6475
▁öyrəndi	-11.6476
▁miniatürlər	-11.6476
▁şeytan	-11.6485
▁adətləri	-11.6486
▁bayrağını	-11.6487
▁yüksəklik	-11.6488
▁yarışı	-11.649
▁bulaqları	-11.6491
▁dediklərin	-11.6493
üclü	-11.6495
▁uz	-11.6498
▁cənubu	-11.6498
▁ani	-11.6501
▁tikilmə	-11.6501
oxunur	-11.6504
▁landşaftı	-11.6505
▁günlərini	-11.6507
bək	-11.651
▁Elmir	-11.6513
karlıq	-11.6515
▁Qubad	-11.6524
▁173	-11.6527
▁səhnəsi	-11.6528
▁qurumlar	-11.6533
üllü	-11.6534
▁avadanlıq	-11.6536
▁strukturunu	-11.6541
▁açmış	-11.6542
uluş	-11.6542
▁pl	-11.6543
▁çı	-11.6543
eriya	-11.6548
▁Dublin	-11.6549
▁Laboratoriya	-11.6549
▁Əylis	-11.6549
▁Dehli	-11.6549
▁Şəfa	-11.6549
▁şok	-11.6549
Əyri	-11.6549
▁Bab	-11.6549
▁cinah	-11.6549
▁Abxaziya	-11.6549
▁valeh	-11.6549
▁doğran	-11.6549
▁şüarı	-11.655
▁kafir	-11.655
▁erməniləri	-11.655
▁dəyişkən	-11.655
▁knyazlığı	-11.6551
▁tərəfləri	-11.6551
▁məx	-11.6551
▁Ceyran	-11.6553
▁Qaraqoyunlular	-11.6553
▁anatomiya	-11.6554
▁Xet	-11.6555
▁torpağında	-11.6555
▁qalalar	-11.6556
▁Festivalın	-11.6558
▁qrafikası	-11.6559
▁üsyançılar	-11.6563
ənbə	-11.6563
▁miqdarında	-11.6564
▁ödəyirdi	-11.6571
▁partiyalar	-11.6571
▁kafedralı	-11.6571
▁zəhər	-11.6573
▁yarpaqlar	-11.6574
▁fəaliyyətlərini	-11.6576
keş	-11.6577
▁nazirliyin	-11.6577
acıq	-11.6578
▁ud	-11.6578
▁götürül	-11.658
▁ərzaqlar	-11.658
▁çatdırılır	-11.6582
▁sərgisi	-11.6582
▁Konstantinopol	-11.6587
▁sarım	-11.6589
▁Dağı	-11.659
▁bitkilərdə	-11.6591
▁Səmədov	-11.6592
▁danışıqları	-11.6593
əd	-11.6593
▁dəyərləri	-11.6595
▁ikili	-11.6595
▁fin	-11.6597
▁elementlərini	-11.6598
▁mədənlərin	-11.6601
▁1600	-11.6603
▁ardıcılları	-11.6605
▁Sel	-11.6605
▁məbədlər	-11.6607
▁Boy	-11.6608
▁vasitələrində	-11.6608
▁vərəm	-11.6611
▁gəmidə	-11.6612
▁seçmişdi	-11.6612
▁irəliləmə	-11.6613
▁mərkəzini	-11.6615
▁sistemlərində	-11.6616
▁yaşam	-11.6617
olo	-11.662
▁gətirirdi	-11.6621
▁solist	-11.6622
▁məməli	-11.6626
▁hücumların	-11.6628
▁fəlsəfəsində	-11.6629
▁bürcü	-11.6634
▁reytinq	-11.6634
▁paltarı	-11.6636
▁çıxarılı	-11.6636
▁xristianları	-11.6638
▁izi	-11.6639
▁qurşağında	-11.6642
Peterburqda	-11.6643
▁turda	-11.6646
▁əvvəli	-11.6649
neu	-11.6651
▁diski	-11.6651
▁ruhanilər	-11.6651
▁çatdıra	-11.6653
▁türkcəsi	-11.6654
▁ölmüşdü	-11.6656
▁Zü	-11.666
▁kütlələrini	-11.6661
▁qurumların	-11.6661
qil	-11.6665
▁guşə	-11.6668
▁ziyalıların	-11.6671
otanik	-11.6673
▁keçirməsi	-11.6673
▁medalları	-11.6674
rta	-11.6674
▁Səlah	-11.6675
▁Mövcud	-11.6675
▁Uruqvay	-11.6675
▁bədbəxt	-11.6675
▁Heykəl	-11.6675
▁Bayron	-11.6675
▁1868	-11.6675
▁duet	-11.6675
▁İsmail	-11.6675
▁fosfor	-11.6675
▁car	-11.6676
▁radioaktiv	-11.6676
▁Qazıyev	-11.6676
▁qalxma	-11.6677
▁çəl	-11.6677
▁adlandır	-11.6677
▁izləmək	-11.6677
▁inqilabını	-11.6679
▁Öm	-11.6681
üç	-11.6684
▁xam	-11.6684
▁Əlini	-11.6685
məli	-11.6685
▁sultanlığı	-11.6686
▁araba	-11.6687
od	-11.6687
atolikos	-11.6687
▁Uels	-11.6688
ılır	-11.6688
gey	-11.669
▁toponimlər	-11.6691
▁telekanalın	-11.6693
▁qəlb	-11.6694
▁sortları	-11.6695
▁küçələri	-11.6695
▁bərabərliyi	-11.6696
▁port	-11.6697
▁oxşarlıq	-11.6701
▁Həkim	-11.6704
▁müasirləri	-11.6704
▁məntəqəsində	-11.6705
▁mülkiyyəti	-11.6705
▁qrammatika	-11.6708
lənmiş	-11.6709
basar	-11.6709
rxeologiya	-11.6713
barmaq	-11.6713
muş	-11.6715
▁Hüseyni	-11.6715
▁dönmüşdü	-11.6718
▁İstər	-11.6721
▁istədikləri	-11.6722
▁gəz	-11.6724
▁Seminariyasını	-11.6724
▁məscidində	-11.6725
▁Sey	-11.6729
▁aparatı	-11.6729
▁xala	-11.6732
▁əlavələr	-11.6733
▁almanları	-11.6736
▁tanışlıq	-11.6737
▁fərdlər	-11.6738
▁almışlar	-11.6738
sis	-11.6741
▁mənsubdur	-11.6747
▁etdirildi	-11.6753
▁vermirdi	-11.6753
▁qüdrətini	-11.6756
▁status	-11.6757
▁döyüşün	-11.676
aştağ	-11.6762
▁idmançıları	-11.6763
▁Dər	-11.6767
▁toplanı	-11.6772
▁rənglərin	-11.6774
▁atmaq	-11.6775
▁komandalar	-11.6776
▁səhvlər	-11.6777
▁zamankı	-11.6777
özünə	-11.6778
▁məşhurlaş	-11.6791
▁qatları	-11.6792
bil	-11.6792
▁İmr	-11.6793
▁təsirlər	-11.6795
▁nahiyəsində	-11.6796
▁Sala	-11.6796
▁Məktəbdə	-11.6799
ötürülür	-11.6803
▁Pompey	-11.6803
▁Zəkəriyy	-11.6803
▁kurort	-11.6803
▁kəlam	-11.6803
▁tümən	-11.6803
▁Ülvi	-11.6803
▁İntibah	-11.6803
▁Qalaktika	-11.6803
▁1861	-11.6803
▁Sağlam	-11.6803
▁tədarük	-11.6803
▁Külək	-11.6803
▁qurtul	-11.6804
▁qapıçı	-11.6804
ensial	-11.6804
▁virtu	-11.6804
▁pendir	-11.6804
▁sürülmüşdü	-11.6804
ishi	-11.6804
▁mahalın	-11.6805
▁neytron	-11.6805
▁Diplomati	-11.6805
şək	-11.6805
qır	-11.6806
▁Mərv	-11.6806
▁oxuyurdu	-11.6806
▁İKP	-11.681
▁1856	-11.681
▁dul	-11.6811
▁turşu	-11.6811
rız	-11.6812
ayağı	-11.6813
▁Çanaq	-11.6813
▁atırdı	-11.6813
▁Stiven	-11.6817
▁çağır	-11.6819
ika	-11.6819
▁Seyidzadə	-11.6821
▁Parlamenti	-11.6821
▁izlər	-11.6822
▁canlandırı	-11.6822
▁tanıdı	-11.683
▁başlanılmışdı	-11.6831
▁subyektlərin	-11.6831
▁dəyərini	-11.6834
▁əsli	-11.6834
▁saatların	-11.6839
▁saxlanmışdı	-11.684
▁Baz	-11.6844
▁bilsə	-11.6844
Dədə	-11.6847
▁irəliləyə	-11.6851
leq	-11.6853
▁qardaşlarını	-11.6853
▁əhvalatı	-11.6854
▁addımı	-11.6854
▁meşələrdə	-11.6856
▁tullantıları	-11.6856
▁əvvələ	-11.6856
▁xidmətlərini	-11.6857
▁təşkilatlarını	-11.6858
▁banklar	-11.6859
▁nailiyyətlərin	-11.6859
▁Kompleksi	-11.6859
▁simfoniya	-11.6861
▁bəylə	-11.6861
▁cərəyanın	-11.6861
▁simmetri	-11.6863
▁şəklin	-11.6869
end	-11.6869
▁əlyazması	-11.6872
▁qəhrəmanın	-11.6873
▁Yusifov	-11.6875
▁düşərgəsi	-11.6876
▁siyasətdə	-11.6878
▁Quşlar	-11.6879
▁dərəsində	-11.6879
▁dönmə	-11.6879
▁istəmişdi	-11.6881
▁qorxa	-11.6881
▁mini	-11.6886
zib	-11.6887
▁dəlikləri	-11.6888
▁4000	-11.6894
▁Qızılbaşlar	-11.6896
▁məhsuldarlığı	-11.6898
▁poemasında	-11.6898
▁düşərgəsini	-11.6899
▁Şahtaxt	-11.69
▁mu	-11.69
▁Məmmədh	-11.6901
▁Oyunu	-11.6901
▁oyma	-11.6903
▁arx	-11.6903
▁əlil	-11.6903
▁təz	-11.6905
▁zavodunu	-11.6905
▁dastanın	-11.6906
mal	-11.6906
▁saklar	-11.6908
▁Xəbər	-11.6913
▁regionu	-11.6914
▁Andre	-11.6916
▁metodlar	-11.692
▁Ala	-11.6922
▁üsullarını	-11.6922
ılmış	-11.6922
▁ayələri	-11.6926
▁formalaşdır	-11.6927
▁kəsir	-11.6928
▁ezam	-11.6933
▁Pirsaat	-11.6933
▁Qüdrət	-11.6933
▁Space	-11.6933
▁cavabdeh	-11.6933
▁hikmət	-11.6933
▁törədilən	-11.6933
▁İblis	-11.6933
▁Brüs	-11.6933
▁iltihab	-11.6933
▁1842	-11.6933
▁zərgər	-11.6933
▁meyit	-11.6933
▁1813	-11.6933
▁diqqətəlayiq	-11.6933
▁Mende	-11.6934
▁Fətulla	-11.6934
▁magistratura	-11.6934
üfət	-11.6935
▁bildirmək	-11.6935
▁açıqlamışdı	-11.6935
▁Rəşidəddin	-11.694
▁İsgəndəriyyə	-11.6942
▁oxucuların	-11.6944
ballı	-11.6945
▁bəd	-11.6948
▁şən	-11.6949
▁qonaqlar	-11.6953
▁camaatını	-11.6954
▁Yara	-11.6956
▁beyni	-11.6959
▁Əh	-11.6963
▁Qurd	-11.6964
▁Cam	-11.6966
▁Uyğur	-11.6968
▁mətnləri	-11.697
▁Rusla	-11.6971
▁tat	-11.6973
qal	-11.6974
▁Nik	-11.6975
▁medalını	-11.6979
▁Rum	-11.698
▁idarəçi	-11.6982
▁gö	-11.6982
▁artmış	-11.6985
▁mexanikası	-11.6988
▁əmrin	-11.6991
▁tatarlar	-11.6993
▁sayır	-11.6993
dlı	-11.6994
▁sevil	-11.6995
▁xəritələr	-11.7003
▁səfərləri	-11.7006
▁özbəklər	-11.7008
▁neçəsi	-11.7009
▁Jurnalı	-11.7009
hem	-11.7014
▁canlandır	-11.702
▁elektro	-11.7026
▁kanallar	-11.7026
▁gördükdə	-11.7027
rəvan	-11.7027
▁düşüncələr	-11.7028
▁biliklərin	-11.7032
▁misra	-11.7032
▁şimalı	-11.7033
▁eşidi	-11.7034
▁qazanc	-11.7035
▁saxlanılmışdı	-11.7035
▁sata	-11.704
ele	-11.7041
▁maraqlarını	-11.7041
▁süqutu	-11.7042
▁Filarmoniyasın	-11.7043
▁bürcün	-11.7048
▁dindar	-11.7048
▁iclası	-11.7051
▁mirzəni	-11.7053
▁töhfələr	-11.7054
▁qırılma	-11.7056
fur	-11.7057
▁xarakterini	-11.7057
▁görüşmə	-11.7057
▁söyləyə	-11.7057
▁genişlənmiş	-11.7057
▁dayanma	-11.7058
emarlıq	-11.7059
▁Mülki	-11.7059
▁təsdiqlə	-11.7059
ürəkkəb	-11.7061
▁münasibətlə	-11.7062
▁Giriş	-11.7065
▁Venesuela	-11.7065
▁dialoq	-11.7065
▁dəhliz	-11.7065
▁1832	-11.7065
▁Paskeviç	-11.7065
▁Kültəpə	-11.7065
▁Simfoni	-11.7065
▁buraxılması	-11.7065
▁Mərdan	-11.7065
▁qisas	-11.7065
▁Geri	-11.7065
▁Çuxur	-11.7065
▁Fred	-11.7066
▁olmayacaq	-11.7066
▁atmosferi	-11.7066
▁yetirib	-11.7066
▁qazılmış	-11.7066
▁qətnamə	-11.7066
▁Rast	-11.7067
şüd	-11.7068
▁Rumlu	-11.7069
▁yüzillik	-11.707
▁qidalanma	-11.7071
▁böyüyən	-11.7073
▁Komandanı	-11.7076
▁ar	-11.7078
▁cismləri	-11.7079
▁rəqəmi	-11.708
▁əməkdaşlığı	-11.7081
▁döşəmə	-11.7082
▁tikdirmişdi	-11.7082
▁not	-11.7083
▁Tut	-11.7085
▁siçanı	-11.7087
▁akk	-11.7087
▁Monqollar	-11.7092
▁müşahidəçi	-11.7094
▁şerləri	-11.7094
▁yerləşdi	-11.7096
▁и	-11.7096
▁Fizik	-11.7098
▁Gəncəni	-11.7099
▁köçkün	-11.7099
▁Yaradıcılı	-11.7102
▁Dərbənddə	-11.7103
▁təcavüzü	-11.7103
▁Səba	-11.7104
▁portalı	-11.7107
oniya	-11.7109
çəmən	-11.7113
▁naxışları	-11.7114
mədən	-11.7116
▁sursat	-11.7117
▁kilsələr	-11.7119
▁qaçqınlar	-11.7119
▁ağacını	-11.7119
▁səslənə	-11.712
▁Evi	-11.7123
▁Doğu	-11.7124
▁gücləndir	-11.7127
▁oturu	-11.7135
▁xalqlarda	-11.7136
▁damarları	-11.7136
▁Si	-11.7136
▁xəstəliy	-11.714
uzey	-11.714
▁şəbəkələri	-11.7143
abil	-11.7144
yın	-11.7145
▁povest	-11.7151
▁Fren	-11.7151
▁təqiblər	-11.7151
▁şeyxi	-11.7158
▁sərgilən	-11.7159
▁yerləşdiyin	-11.7162
▁Bor	-11.7162
İ	-11.7162
mança	-11.7163
86-	-11.7164
obasında	-11.7167
▁dəstəkləyir	-11.7167
▁Fra	-11.7169
▁məqbərə	-11.718
▁texnologiyalar	-11.718
▁Qər	-11.718
▁kurslar	-11.7182
▁müştər	-11.7183
▁Musi	-11.7184
▁donanmasını	-11.7191
▁Fil	-11.7191
alxal	-11.7195
▁şiələr	-11.7195
▁Bünyad	-11.7195
▁siması	-11.7196
▁müxalif	-11.7197
▁yağıntıların	-11.7197
▁Pəhləvan	-11.7198
▁Studiya	-11.7198
▁Yekaterina	-11.7198
▁yarımdairə	-11.7198
▁Əməliyyat	-11.7198
▁Tamara	-11.7198
▁Braun	-11.7198
▁müfə	-11.7198
atamam	-11.7198
▁səliqə	-11.7198
LA	-11.7198
▁deyim	-11.7199
▁Əmiraslan	-11.7199
ssəl	-11.7199
▁İmad	-11.72
▁Təpə	-11.72
▁uzunluq	-11.72
▁çatdırmışdı	-11.7201
▁gərginliyi	-11.7202
▁cənazəsi	-11.7202
▁Meşələr	-11.7206
umer	-11.7207
▁bənzərsiz	-11.7207
▁157	-11.7209
lov	-11.7211
▁yaradıldığı	-11.7214
▁Red	-11.722
▁Stansiya	-11.7223
▁buraxmışdı	-11.7224
▁yolların	-11.7227
▁virus	-11.7228
▁köçürü	-11.7228
▁tapan	-11.723
▁Bibliya	-11.723
▁kainat	-11.7232
▁Alət	-11.7232
60-	-11.7233
▁radiosun	-11.7236
▁177	-11.7239
▁Nar	-11.7239
▁cümləni	-11.7239
▁anlayışları	-11.7241
hy	-11.7241
▁qaçış	-11.7243
▁planlı	-11.7246
▁matç	-11.7246
▁vergisi	-11.7248
▁məqamlar	-11.725
▁yamacları	-11.7251
maarif	-11.7252
sək	-11.7256
▁Val	-11.7258
▁təcrübələr	-11.7258
▁üzük	-11.7259
▁cilddə	-11.726
▁qollarında	-11.7265
▁məktəblərini	-11.7267
▁ixtiyar	-11.7267
▁qoşul	-11.7269
lüyünü	-11.727
▁rəssamların	-11.7271
les	-11.7273
▁Xristianlığı	-11.7276
▁elmlərin	-11.7277
▁Mav	-11.7279
▁Ağac	-11.7279
▁gets	-11.728
▁yaxınlaşır	-11.728
▁nəşrlər	-11.728
▁Hakimiyyətin	-11.7282
▁suyunda	-11.7284
▁xeyriyyəçi	-11.7285
▁Səfir	-11.7291
▁münaqişələr	-11.7296
▁metodika	-11.7299
▁platforma	-11.7299
▁Kərimova	-11.73
▁dəyərlərin	-11.7301
▁kanalları	-11.7306
▁rəyi	-11.7307
▁kompleksində	-11.7308
mund	-11.7314
▁azlıq	-11.7315
▁115	-11.7317
▁Xorasanda	-11.732
▁kameral	-11.7321
▁360	-11.733
▁anbar	-11.7332
▁üstünü	-11.7332
epidemiolo	-11.7333
▁məşgul	-11.7333
▁Qətər	-11.7333
▁komsomol	-11.7333
▁monarxiya	-11.7333
▁patriarx	-11.7333
▁soruşur	-11.7333
▁Harvard	-11.7333
▁yumru	-11.7333
▁Nemət	-11.7334
▁Rio	-11.7334
▁piy	-11.7334
▁Kəlbə	-11.7335
▁çalın	-11.7335
▁küçələrdə	-11.7336
▁baniləri	-11.7336
▁pəhləvan	-11.7337
▁mifolo	-11.7337
▁görüşün	-11.7339
▁1854	-11.734
▁Planet	-11.7342
▁qanadları	-11.7343
▁istəməyə	-11.7344
▁mühazirə	-11.7346
▁gəldikləri	-11.7347
▁fasadı	-11.7348
▁Zül	-11.735
▁sərhədlər	-11.7354
▁nağıllar	-11.7354
Konservatoriyası	-11.7355
▁güclən	-11.7355
▁mövzunu	-11.7356
▁istiqamətlərdə	-11.7357
▁birinciliyi	-11.7359
▁Stra	-11.736
▁axtarışlar	-11.7361
▁yanaşır	-11.7373
▁kilsədə	-11.7375
▁təcrübəsini	-11.7378
▁fərmanları	-11.7378
▁kişini	-11.738
verici	-11.7381
▁yazıda	-11.7384
▁Mühəndis	-11.7387
▁bilərəm	-11.7388
▁səlahiyyəti	-11.7388
mədəniyyət	-11.7391
Macarıstan	-11.7392
▁sülhün	-11.7392
yazı	-11.7393
▁tanımaq	-11.7394
▁Haqqın	-11.7399
▁xassə	-11.7401
▁mülkiyyətin	-11.7403
▁Dərbəndi	-11.7403
▁gətirilmişdi	-11.7416
▁tr	-11.7417
ayıl	-11.7418
▁qarşılanır	-11.7432
▁gəzə	-11.7433
▁dayandı	-11.7433
▁Ber	-11.7433
har	-11.7435
akov	-11.7438
▁mətnin	-11.7438
▁fr	-11.7441
▁vəhdət	-11.7442
▁qruplarını	-11.7443
▁yamaclar	-11.7447
▁kür	-11.7447
laşdırmaq	-11.745
▁Nağı	-11.7451
▁söykən	-11.7453
▁sosializm	-11.7458
▁Dairə	-11.7461
▁ağzında	-11.7463
▁mülahizə	-11.7468
▁tələf	-11.7468
▁təxəllüs	-11.7469
▁Amsterdam	-11.747
▁Dəstə	-11.747
▁Fişer	-11.747
▁Haşım	-11.747
▁Oksford	-11.747
▁Poema	-11.747
▁Səfikürd	-11.747
▁bilinmir	-11.747
▁bəylərbəyliyi	-11.747
▁fiqh	-11.747
▁kinoteatr	-11.747
▁partlayıcı	-11.747
▁vizual	-11.747
▁çuğundur	-11.747
▁1823	-11.747
▁Qazıntı	-11.747
▁Texas	-11.747
▁qonağı	-11.747
epati	-11.747
▁Səbəb	-11.747
▁xitab	-11.7471
▁sürülü	-11.7471
▁işlənilmiş	-11.7472
▁çənə	-11.7473
viç	-11.7474
▁fı	-11.7474
▁əşyaların	-11.7475
əstəli	-11.7476
▁mehriban	-11.7476
▁qişa	-11.748
▁Salma	-11.748
▁kölə	-11.7481
▁Xristianlıq	-11.7481
▁köçürdü	-11.7483
lmuş	-11.7483
▁elektronlar	-11.7486
▁fizik	-11.7486
▁deyilsə	-11.7486
▁məqbərəsi	-11.7489
▁Bell	-11.749
ess	-11.7494
▁Qızlar	-11.7496
▁təbiətini	-11.7496
▁Eri	-11.7497
laşdırır	-11.7499
kişi	-11.75
ement	-11.7501
▁Kola	-11.7505
▁Albomu	-11.7505
▁Yurd	-11.7506
▁dəyişdirə	-11.7507
▁tavanı	-11.7507
allı	-11.7508
▁Piri	-11.751
▁qırğınlar	-11.7512
▁əməlləri	-11.7515
▁aşıqları	-11.7515
▁tərəfdaş	-11.7516
▁FK	-11.7517
▁təlimini	-11.7518
▁Təkə	-11.7519
▁kənarlarında	-11.752
AM	-11.752
bati	-11.7521
▁gözləmə	-11.7523
▁qovuş	-11.7523
27-	-11.7523
▁boyunda	-11.7523
jan	-11.7529
▁nağılları	-11.7529
▁xəzinəsin	-11.7533
▁yubileyin	-11.7536
tele	-11.754
▁Paleol	-11.7543
▁əsirləri	-11.7545
▁Konfransın	-11.7546
▁edirmiş	-11.7547
▁kateqoriyası	-11.7548
▁kilsəsində	-11.7549
▁azaltma	-11.7556
▁mərtəbəsin	-11.7556
▁bacarığını	-11.7558
▁yetirirdi	-11.7559
mizi	-11.756
▁vəzi	-11.7567
rgi	-11.7568
▁otağında	-11.7569
▁sərgilər	-11.7569
▁arteri	-11.7571
▁okeanda	-11.7572
qaya	-11.7573
▁işsiz	-11.7573
▁elmində	-11.7574
▁əməliyyatlarda	-11.7576
zlu	-11.7577
▁anbarları	-11.7579
▁Polşanı	-11.758
▁blok	-11.7582
▁Almanlar	-11.7583
▁şeyx	-11.7583
▁qalanları	-11.7583
▁Atabəylər	-11.7585
▁janrlarında	-11.7585
▁Dost	-11.7587
▁ayırd	-11.7588
▁Krımda	-11.7589
▁pyesini	-11.7591
▁hesablamaları	-11.7595
▁Gəl	-11.7598
▁tərtibatı	-11.7602
▁Xəy	-11.7606
▁Mehman	-11.7606
▁qutu	-11.7608
▁Xarəzm	-11.7609
▁Cənnət	-11.7609
▁Filosof	-11.7609
▁Siciliya	-11.7609
▁harmoni	-11.7609
▁inanılmaz	-11.7609
▁qəpik	-11.7609
▁törədilmiş	-11.7609
▁yekdil	-11.7609
[...]
