<unk>	0
<s>	0
</s>	0
<pad>	0
▁.	-2.91317
▁,	-3.32411
n	-3.5899
▁	-3.93621
▁və	-3.94811
;	-4.09467
▁&	-4.13384
quot	-4.17169
ə	-4.84491
a	-4.84643
-	-4.8818
▁)	-4.96788
(	-4.96974
r	-5.06092
▁bir	-5.08367
▁ilə	-5.13041
ci	-5.16943
▁ildə	-5.18242
i	-5.18474
in	-5.35772
da	-5.37669
▁bu	-5.43401
▁Azərbaycan	-5.43948
nin	-5.48925
▁də	-5.52618
nın	-5.52854
na	-5.64235
də	-5.68126
dir	-5.71393
▁olan	-5.75171
▁Bu	-5.75191
▁sonra	-5.87327
▁üçün	-5.89975
▁ki	-5.92234
▁da	-5.92287
▁isə	-5.93649
▁kimi	-5.94618
b	-5.98733
▁il	-6.03065
▁çox	-6.06034
lər	-6.06615
lar	-6.0864
dən	-6.10967
▁—	-6.13609
▁:	-6.16358
li	-6.16402
ya	-6.21106
nə	-6.24818
ın	-6.25209
▁edir	-6.26798
▁görə	-6.26931
▁o	-6.27508
cü	-6.34028
–	-6.34253
▁idi	-6.35482
▁həm	-6.3685
dan	-6.37593
dır	-6.38007
▁onun	-6.38345
ən	-6.40685
▁-	-6.41861
▁O	-6.48725
▁ən	-6.49631
▁əsas	-6.50522
▁tərəfində	-6.51418
▁böyük	-6.53183
▁ilk	-6.54708
▁olmuşdur	-6.56374
k	-6.57045
lə	-6.57393
lı	-6.5851
cı	-6.59551
yə	-6.61435
▁öz	-6.62953
▁olaraq	-6.63844
▁qədər	-6.64195
▁”	-6.66326
“	-6.66654
cu	-6.68133
▁daha	-6.70697
▁adı	-6.71268
la	-6.71934
▁ilin	-6.75423
▁ya	-6.76035
▁kənd	-6.78947
ı	-6.80711
▁baş	-6.80877
▁iki	-6.84365
▁arasında	-6.85579
▁biri	-6.86658
▁olub	-6.89701
▁istifadə	-6.90419
▁A	-6.9068
q	-6.91005
▁hər	-6.9164
▁Bakı	-6.93007
▁edən	-6.94751
▁olur	-6.94891
▁illərdə	-6.97275
▁dəfə	-6.97469
lik	-6.98217
▁bütün	-6.99414
un	-7.00654
▁oğlu	-7.02709
▁s	-7.02894
▁bəy	-7.05022
▁etmişdir	-7.0507
▁Respublikasını	-7.09638
dur	-7.10096
▁etdi	-7.11746
▁təşkil	-7.139
▁B	-7.14616
▁var	-7.16082
▁rayonunu	-7.16572
▁1	-7.17106
▁müxtəlif	-7.17598
▁Dövlət	-7.17738
ki	-7.18733
▁digər	-7.18951
▁haqqında	-7.18985
▁ildən	-7.1927
▁etmək	-7.19302
si	-7.20427
▁yeni	-7.20462
▁daxil	-7.20704
▁ərazi	-7.21365
▁2	-7.22078
▁olunur	-7.24754
▁oldu	-7.25102
▁edilmişdir	-7.27344
kı	-7.27561
▁nəfər	-7.28598
▁La	-7.28776
▁üzrə	-7.30472
▁belə	-7.30938
▁qəbul	-7.3094
▁inzibati	-7.31282
▁M	-7.31287
▁olduğu	-7.31405
m	-7.32119
▁Azərbaycanın	-7.3285
▁edilir	-7.33655
▁başqa	-7.34977
kin	-7.34996
▁orta	-7.35865
▁elmi	-7.35904
raq	-7.36118
▁həyat	-7.37382
▁adlı	-7.37459
▁dövlət	-7.39437
▁fəaliyyət	-7.39465
▁qarşı	-7.4107
▁xüsusi	-7.42412
▁qeyd	-7.42774
▁yer	-7.42811
▁Onun	-7.43865
▁şəhərində	-7.45082
▁3	-7.45341
▁qədim	-7.45791
▁Respublikası	-7.46254
▁onu	-7.46466
sı	-7.46607
ərək	-7.47041
▁tarixi	-7.47153
▁xan	-7.4719
%	-7.47365
s	-7.47755
an	-7.48051
di	-7.48233
▁edib	-7.4866
▁aid	-7.49077
/	-7.50297
cə	-7.51621
▁əsrin	-7.5222
z	-7.5273
▁dünya	-7.53236
▁davam	-7.53789
▁onların	-7.54443
▁Rusiya	-7.5466
▁Bir	-7.55183
lıq	-7.55496
▁Azərbaycanda	-7.55874
u	-7.56288
▁iştirak	-7.57055
▁geniş	-7.57063
▁neçə	-7.57482
▁təhsil	-7.575
▁zamanı	-7.59848
▁etdiyi	-7.59974
▁olunmuşdu	-7.60351
▁yüksək	-7.61224
▁eyni	-7.6141
▁şəhər	-7.61556
▁anadan	-7.62108
ları	-7.62187
▁vahidində	-7.62359
▁min	-7.62682
▁gün	-7.62711
▁etmiş	-7.62807
▁nəticəsində	-7.63732
ndan	-7.63807
ik	-7.6438
▁burada	-7.64864
▁onlar	-7.66166
▁hərbi	-7.66319
▁üzərində	-7.67006
▁K	-7.67753
t	-7.6786
araq	-7.67981
▁heç	-7.68091
▁vardır	-7.68277
▁Avropa	-7.68371
▁ərazisində	-7.68408
▁inkişaf	-7.68919
▁olmuş	-7.69069
▁yerləşir	-7.70391
xalq	-7.7099
▁Milli	-7.71405
çini	-7.71609
▁yerləşə	-7.71815
▁hesab	-7.72822
▁olması	-7.73279
▁m	-7.73484
▁zaman	-7.735
▁olar	-7.73714
▁müəyyən	-7.73914
▁yaxın	-7.74664
▁4	-7.74865
ji	-7.74893
▁az	-7.7537
▁S	-7.75426
1	-7.75788
▁ABŞ	-7.76237
▁artıq	-7.76696
▁5	-7.76718
▁verir	-7.76766
▁göstərir	-7.76918
ca	-7.7697
▁su	-7.77543
▁dövründə	-7.77566
▁I	-7.7817
▁yalnız	-7.7905
inə	-7.79577
l	-7.81031
▁yaxşı	-7.81076
▁km	-7.81182
▁olunmuş	-7.81267
▁şəhəri	-7.81595
▁ikinci	-7.81611
▁olunan	-7.81638
dı	-7.81683
▁milli	-7.81727
▁Qarabağ	-7.82465
▁olmaq	-7.82486
▁mövcud	-7.82629
▁hissəsi	-7.82797
▁Böyük	-7.83746
▁üç	-7.83798
▁deyil	-7.8398
▁bağlı	-7.83994
▁film	-7.84245
▁türk	-7.85898
▁edirdi	-7.86159
▁Məhəmməd	-7.86222
▁məşhur	-7.86256
▁10	-7.86691
▁üzvü	-7.86766
▁özünü	-7.8689
▁sıra	-7.87171
▁xalq	-7.87213
▁insan	-7.87501
▁vaxt	-7.87507
▁əvvəl	-7.87822
▁Əli	-7.88286
▁ibarət	-7.88629
▁müddət	-7.8869
▁kiçik	-7.88738
▁Y	-7.88849
ləri	-7.8892
▁altında	-7.89256
▁mərkəzi	-7.8964
▁kəndi	-7.89757
«	-7.90518
▁şəkildə	-7.90842
▁əsrdə	-7.90899
lu	-7.90983
▁təyin	-7.9104
▁;	-7.91206
▁yenidən	-7.91255
»	-7.92574
likdə	-7.92679
▁olduğunu	-7.93332
▁uzun	-7.93786
▁edərək	-7.93927
▁başladı	-7.94031
▁edilmiş	-7.94255
▁Cənub	-7.94432
▁dilində	-7.94757
▁ümumi	-7.94763
▁malik	-7.94899
▁son	-7.95141
ni	-7.95527
▁dövrdə	-7.95628
­	-7.96416
▁nə	-7.97127
▁bilər	-7.97945
▁edilən	-7.98797
▁kəndində	-7.98885
▁gəlir	-7.99027
▁sayı	-7.99163
▁Həmi	-7.99303
▁Belə	-7.995
▁musiqi	-7.99762
▁əhalisi	-8.00359
▁rus	-8.00384
▁Burada	-8.0085
▁SSRİ	-8.00895
▁dili	-8.00916
▁Əliyev	-8.01151
▁siyasi	-8.02816
▁Qafqaz	-8.03064
▁illər	-8.03226
▁səbəb	-8.03904
▁iş	-8.04421
▁6	-8.04691
▁əldə	-8.05239
▁erməni	-8.05404
▁İran	-8.05533
▁bəzi	-8.05834
nda	-8.05974
▁birinci	-8.06476
▁zamanda	-8.06659
▁ölkə	-8.06708
▁layiq	-8.0749
ov	-8.07719
ərzində	-8.0797
▁edə	-8.08225
▁Ə	-8.08306
nı	-8.08389
o	-8.09165
▁Sonra	-8.09303
▁H	-8.09748
▁məşğul	-8.09938
▁tarixində	-8.10034
▁demək	-8.10047
▁II	-8.10434
▁Türkiyə	-8.10506
▁Naxçıvan	-8.10753
▁tə	-8.10853
▁20	-8.11066
▁adını	-8.11285
▁yaşayış	-8.11287
▁vəfat	-8.11646
adına	-8.11849
▁Bakıda	-8.12308
▁tarix	-8.12337
▁on	-8.12442
▁&#93;	-8.12764
▁başa	-8.13339
nun	-8.13406
▁&#9	-8.1342
▁xarici	-8.13815
▁məqsədi	-8.14317
al	-8.14779
▁etməyə	-8.14922
▁Onlar	-8.14984
▁edilməsi	-8.15598
▁məlumat	-8.15961
▁15	-8.1664
▁may	-8.16705
ilə	-8.16948
▁cənub	-8.17334
▁edirlər	-8.17678
▁baxma	-8.1769
▁Xəzər	-8.18238
▁əlavə	-8.1833
▁şimal	-8.18572
▁rayonu	-8.19728
▁Mirzə	-8.19754
▁Xalq	-8.20129
▁yanaşı	-8.20265
▁rayonunda	-8.20273
ndə	-8.20466
▁ibarətdir	-8.21035
▁ayında	-8.21052
dür	-8.21339
▁Sovet	-8.21802
▁C	-8.2183
▁hələ	-8.22037
▁8	-8.22504
▁T	-8.22657
▁əhatə	-8.22664
▁almışdı	-8.2277
▁edildi	-8.23163
▁Ermənistan	-8.23364
▁Kənd	-8.24094
▁əhali	-8.24579
▁Gəncə	-8.2461
▁barədə	-8.24667
▁tam	-8.24744
▁mühüm	-8.25406
▁?	-8.25571
▁12	-8.25601
▁yerli	-8.25671
▁Sultan	-8.25672
▁yeri	-8.25732
▁Orta	-8.25783
▁təmin	-8.25816
▁Şimal	-8.26072
▁əsasında	-8.26332
y	-8.26477
vi	-8.26494
▁İ	-8.26758
rkən	-8.27221
▁çıxış	-8.27429
▁Şah	-8.27507
▁vasitəsi	-8.27541
▁xidmət	-8.27595
▁milyon	-8.27651
▁7	-8.27889
▁verən	-8.28846
ətta	-8.29108
▁Osmanlı	-8.29285
▁gələn	-8.29311
▁çap	-8.29444
▁keçmiş	-8.29461
▁keçirilə	-8.29653
▁Bunda	-8.30001
▁İlk	-8.3017
▁istehsal	-8.30184
▁Hüseyn	-8.30258
▁nəşr	-8.30582
▁V	-8.30745
▁edilib	-8.31176
▁Dünya	-8.31228
▁ola	-8.31453
▁dini	-8.31534
▁XIX	-8.32031
apos	-8.32404
▁beynəl	-8.32464
▁1992-	-8.32596
▁P	-8.32835
▁meydan	-8.32884
▁hakimiyyəti	-8.32907
▁qızı	-8.32918
▁müdafiə	-8.33215
▁h	-8.33276
▁başlayır	-8.33487
▁Həsən	-8.33908
▁idarə	-8.34305
▁kəndin	-8.34408
▁sahəsində	-8.34476
▁müəllifi	-8.3455
▁yolu	-8.35112
▁olunub	-8.35138
▁müasir	-8.35265
▁say	-8.35692
▁qısa	-8.35958
▁məktəbi	-8.36365
▁lak	-8.36447
▁yanvar	-8.37189
▁yerdə	-8.3729
▁dəniz	-8.37309
▁rəsmi	-8.37329
▁30	-8.37377
▁Həm	-8.37386
▁Hər	-8.37472
▁neft	-8.37702
dək	-8.37825
çılıq	-8.37936
▁mart	-8.38022
▁təsir	-8.38087
▁əmələ	-8.38115
▁elan	-8.38164
▁ictimai	-8.38275
▁yol	-8.38588
▁işğal	-8.39205
▁ali	-8.39525
▁D	-8.39993
▁geri	-8.40129
▁Qara	-8.40197
▁güclü	-8.40312
▁əlaqədar	-8.40504
▁etmişdi	-8.41151
▁tərkibində	-8.41357
▁hücum	-8.41947
▁müharibəsi	-8.43205
▁yerinə	-8.4335
▁Yeni	-8.43465
▁uyğun	-8.43485
▁tək	-8.43743
▁yaşayan	-8.43812
▁Əhməd	-8.44219
▁Fransa	-8.44403
▁dekabr	-8.44498
▁iyun	-8.44626
▁halda	-8.44754
▁Mərkəzi	-8.45123
▁Hacı	-8.45385
ncaq	-8.45392
▁iqtisadi	-8.45556
▁elə	-8.45762
▁etibar	-8.45789
▁hərəkət	-8.45795
▁Şərq	-8.4583
▁özü	-8.45936
▁təsvir	-8.46032
▁qadın	-8.46081
▁yaxınlığında	-8.46288
▁məlum	-8.46575
▁malikdir	-8.47032
▁9	-8.47106
▁dağ	-8.47111
ğı	-8.47134
▁şəhərin	-8.47455
▁doğru	-8.47484
▁Universitetini	-8.47534
▁ətrafında	-8.47574
▁verdi	-8.48022
▁təbii	-8.48092
▁bitki	-8.48206
▁ölkəni	-8.4831
▁sahəsi	-8.49195
▁əks	-8.49269
qulu	-8.49621
▁aprel	-8.49665
▁sistemi	-8.49975
▁Amerika	-8.50133
▁məktəb	-8.50432
▁ailə	-8.50515
▁İsmayıl	-8.51063
d	-8.51328
▁oktyabr	-8.51724
▁F	-8.51895
▁bədii	-8.51925
▁avqust	-8.52099
▁25	-8.52155
▁orada	-8.5229
▁dünyanın	-8.52314
▁R	-8.52554
▁Türk	-8.52631
▁rol	-8.52764
▁mübarizə	-8.52782
▁təhsilini	-8.53113
▁atası	-8.5329
▁16	-8.53319
▁əsr	-8.53347
▁Ali	-8.53369
▁Hazır	-8.53374
▁xanın	-8.5352
ndən	-8.5389
▁hansı	-8.54031
▁zəngin	-8.54084
▁inkişafı	-8.54142
▁ələ	-8.5421
▁təqdim	-8.54289
▁sentyabr	-8.54359
▁növü	-8.54465
▁indiki	-8.54625
▁17	-8.55004
▁Çin	-8.55205
▁aşağı	-8.55387
▁gəlmiş	-8.55454
▁İslam	-8.55531
▁rast	-8.55611
▁işləri	-8.55661
eynəl	-8.55782
▁sahilində	-8.56019
▁təxminə	-8.56064
▁Ən	-8.56126
▁Şuşa	-8.56149
lərlə	-8.56223
▁qala	-8.56301
▁yaşayır	-8.56321
▁SSR	-8.56452
▁ay	-8.56893
▁gözəl	-8.56944
saylı	-8.57006
▁iyul	-8.57371
▁fəaliyyəti	-8.57449
▁о	-8.57832
▁ayrı	-8.57855
▁fevral	-8.57949
▁bərabər	-8.58174
▁yaşında	-8.58361
▁ayını	-8.58473
▁Yer	-8.58741
▁e	-8.58796
▁günü	-8.5898
▁nəzərdə	-8.59037
▁ərəb	-8.5922
▁gənc	-8.59422
▁hazır	-8.59474
▁elm	-8.59512
▁14	-8.59728
▁çayı	-8.59742
▁insanlar	-8.59815
▁Abbas	-8.59824
▁dörd	-8.59906
▁tərəfdə	-8.6004
▁ərazisi	-8.6059
▁çoxlu	-8.6088
▁mədəniyyət	-8.60887
sində	-8.60913
▁vəzifəsində	-8.60934
▁sözü	-8.61138
▁noyabr	-8.61142
▁olsa	-8.61177
▁müharibə	-8.61279
▁qrup	-8.61287
▁onda	-8.61341
▁Allah	-8.61399
▁tamam	-8.61431
lt	-8.61481
▁ağır	-8.61533
▁iri	-8.61804
▁ancaq	-8.61864
▁futbol	-8.61885
▁görkəm	-8.62002
▁cümlədə	-8.62126
▁sədri	-8.62288
▁Almaniya	-8.62533
▁həsr	-8.62593
▁rejissor	-8.62632
▁illərində	-8.6264
▁İnstitutunu	-8.62701
▁olmayan	-8.63357
▁başlamışdır	-8.63469
▁metr	-8.63518
▁11	-8.63776
▁inşa	-8.64508
▁məxsus	-8.64551
▁baxım	-8.648
▁məğlub	-8.65097
▁Moskva	-8.65223
ütün	-8.65315
gə	-8.6541
▁onları	-8.6547
▁əhalini	-8.65534
e	-8.65539
▁Baş	-8.65674
mma	-8.65942
▁aşkar	-8.66008
▁olmuşdu	-8.66111
▁alır	-8.66118
▁yox	-8.66171
▁18	-8.66179
▁əvvəllərində	-8.66196
▁qərar	-8.66316
▁yəni	-8.66344
▁almaq	-8.66468
▁eləcə	-8.66962
▁fərqli	-8.66967
ir	-8.67047
▁yoxdur	-8.67058
▁asılı	-8.67346
▁daxildir	-8.67574
▁ifa	-8.67665
ti	-8.67987
▁yazır	-8.6799
▁Lənkəran	-8.68027
▁nəfəri	-8.68073
▁daxili	-8.68134
▁imkan	-8.68245
▁üzərin	-8.68249
▁xey	-8.68298
▁tanınmış	-8.68747
gt	-8.68792
▁təsərrüfatı	-8.68981
▁Beləliklə	-8.69112
▁məhz	-8.69164
▁13	-8.69351
▁tətbiq	-8.69442
illik	-8.69823
▁ölkədə	-8.69834
ində	-8.70049
▁tez	-8.70074
▁filmi	-8.70088
▁daş	-8.7016
▁İkinci	-8.70203
ır	-8.70328
▁həyatı	-8.70465
▁hissəsində	-8.70564
▁kömək	-8.70655
▁dünyada	-8.71049
▁Dah	-8.71314
▁yanında	-8.71362
▁rayon	-8.71402
▁Ş	-8.71523
xud	-8.71538
▁sadə	-8.71542
▁olunması	-8.71855
▁gəlib	-8.72085
▁müstəqil	-8.72331
▁şah	-8.72415
▁cəlb	-8.72542
▁ifadə	-8.7255
▁dövrü	-8.72624
▁ciddi	-8.72674
▁müəllim	-8.727
▁azad	-8.72963
▁Q	-8.72963
▁Günəş	-8.73138
▁sm	-8.73202
▁Film	-8.73332
▁2009-	-8.73649
▁döyüş	-8.73748
▁gəldi	-8.73823
▁cür	-8.73941
▁dövləti	-8.7414
▁Ümumi	-8.7423
mağa	-8.74293
▁Roma	-8.74796
▁İbrahim	-8.74842
əddin	-8.74849
▁olundu	-8.74897
gər	-8.75282
▁görülmüşdü	-8.75424
▁XX	-8.7557
su	-8.75742
▁əhəmiyyətli	-8.75826
▁aktyor	-8.75849
▁irəli	-8.75957
ma	-8.76313
▁teatr	-8.76346
▁mümkün	-8.76443
f	-8.76521
▁ev	-8.76651
▁100	-8.76784
▁şəklində	-8.76813
▁Universiteti	-8.77153
▁alıb	-8.77416
▁sağ	-8.77453
▁uşaq	-8.77464
ından	-8.77506
▁bərpa	-8.77535
▁hava	-8.77687
▁dövrün	-8.77816
▁b	-8.77818
▁lazımdır	-8.77839
inin	-8.7804
at	-8.78543
▁!	-8.7895
▁tutur	-8.79084
▁qızıl	-8.79086
▁şair	-8.79711
▁Gürcüstan	-8.79753
▁dəfn	-8.79785
▁ingilis	-8.79898
▁24	-8.79947
▁hakimiyyət	-8.80315
▁1993-	-8.80318
▁şərq	-8.80354
▁qara	-8.80387
▁əsrlərdə	-8.80473
▁elmləri	-8.80476
▁ədəbi	-8.80517
▁Prezidenti	-8.80945
▁Ağ	-8.81048
▁Qədim	-8.81228
▁keçir	-8.8145
▁Birinci	-8.81589
▁açıq	-8.8168
▁xanım	-8.81831
▁uzunluğu	-8.81837
▁sosial	-8.81947
▁prezidenti	-8.82009
▁İrəvan	-8.82018
▁Qızıl	-8.82076
▁söz	-8.82121
▁ağa	-8.82413
ltif	-8.82686
▁III	-8.82739
▁etməsi	-8.82927
▁başlay	-8.83039
▁Onları	-8.8309
▁çayını	-8.83251
▁Misir	-8.83432
▁qərarı	-8.83454
▁şəxs	-8.83545
▁qardaşı	-8.83604
▁qeyri	-8.83708
▁növ	-8.8382
▁sonralar	-8.83881
▁kişi	-8.83927
▁Asiya	-8.83936
▁hissəsini	-8.83967
▁Bununla	-8.84065
▁rəhbərliyi	-8.84099
▁Əsas	-8.84188
▁bilir	-8.84553
▁X	-8.84633
▁ərazidə	-8.84753
▁Kür	-8.85277
▁1-	-8.853
▁təsiri	-8.85447
▁sənaye	-8.85567
▁Quba	-8.8566
▁G	-8.85703
▁kitab	-8.85742
▁tərk	-8.85863
▁çay	-8.85871
yi	-8.85996
▁verilmişdi	-8.86254
▁nisbət	-8.86259
▁Heydər	-8.86327
▁mədəni	-8.8634
▁özündə	-8.86422
▁həbs	-8.86484
▁tərcümə	-8.86514
▁tələb	-8.86516
▁qalan	-8.86734
▁fəxr	-8.86781
▁21	-8.86784
▁işlər	-8.86984
▁daim	-8.87011
▁adlana	-8.87093
▁bəzən	-8.87123
▁verilir	-8.87155
▁məntəqəsi	-8.874
▁Şəki	-8.87429
▁professor	-8.8744
▁ağ	-8.87454
▁26	-8.8748
▁şey	-8.87538
▁alan	-8.87605
▁işıq	-8.87725
▁ordusu	-8.87976
▁cəhət	-8.87996
▁yuxarı	-8.8802
▁2-	-8.88049
▁1991-	-8.88138
▁ticarət	-8.88142
▁müşahidə	-8.88173
▁yazıçı	-8.88216
▁paytaxtı	-8.88332
▁çıxan	-8.88422
▁Britaniya	-8.886
▁təmsil	-8.88621
▁N	-8.88684
▁torpaq	-8.8871
▁Bəzi	-8.88967
▁vermişdir	-8.89013
▁əsrlər	-8.89092
zadə	-8.89128
ət	-8.8919
▁əsəri	-8.89214
▁fars	-8.89258
▁mərkəzində	-8.8931
▁qarşısında	-8.89314
▁uğur	-8.8956
▁Şirvan	-8.89589
▁19	-8.89683
▁müsəlman	-8.89972
▁əsərləri	-8.90024
▁uğrunda	-8.90031
▁2006-	-8.90137
▁azərbaycanlı	-8.9014
▁kütlə	-8.9019
▁2005-	-8.902
luq	-8.90207
▁artisti	-8.90569
▁vardı	-8.90577
▁əl	-8.90889
▁mükafatı	-8.90955
▁məhv	-8.90979
▁Şamaxı	-8.91005
▁d	-8.91005
▁E	-8.91225
▁lazım	-8.91238
▁keçən	-8.9128
▁1990-	-8.91327
sa	-8.91329
▁hə	-8.91416
▁sahib	-8.91596
▁göstərən	-8.91617
▁əvvəlki	-8.91632
▁biz	-8.9165
▁boyu	-8.91698
▁məlumatlar	-8.91817
▁22	-8.91819
▁Nazirliyi	-8.91936
▁Şurası	-8.91968
▁23	-8.91978
▁müavini	-8.92034
sında	-8.92139
▁2008-	-8.92888
siz	-8.92942
▁2000-	-8.93003
▁cavab	-8.93113
▁Çünk	-8.93147
▁bunun	-8.93166
▁Təbriz	-8.93326
▁qərb	-8.93378
▁yayılmışdı	-8.93389
▁28	-8.93471
▁Nizami	-8.93535
▁nəzərə	-8.93696
▁saat	-8.93825
▁müdiri	-8.93859
▁beş	-8.94116
▁işi	-8.94405
▁insanların	-8.94424
▁deyilir	-8.94436
▁nəticə	-8.94525
▁çalışır	-8.94747
▁fəal	-8.9477
▁Məmmədov	-8.94804
▁Eyni	-8.9496
▁içərisində	-8.95115
▁dil	-8.95159
▁alman	-8.95303
▁memarlıq	-8.95553
▁özünə	-8.95554
▁dair	-8.95586
▁Məsələn	-8.95591
▁fəaliyyətini	-8.95928
▁50	-8.96151
▁edirdilər	-8.96174
▁kino	-8.96212
▁gedən	-8.96278
▁təsdiq	-8.96463
▁ədəd	-8.96749
▁ermənilər	-8.97103
▁bəhs	-8.97457
qca	-8.97465
▁siyahısı	-8.97624
▁insanı	-8.97705
▁doktoru	-8.97972
▁Qərbi	-8.9809
▁təklif	-8.98131
▁İngiltərə	-8.98142
▁təsadüf	-8.98437
▁aşağıdakı	-8.98444
▁tədris	-8.98478
▁hissə	-8.98488
▁növbə	-8.98565
▁qol	-8.98625
▁2010-	-8.9869
▁xəbər	-8.98771
▁2007-	-8.98898
▁dövlətin	-8.98964
▁yaradılması	-8.99153
▁verdiyi	-8.9918
▁çalışmışdı	-8.99228
▁Mədəniyyət	-8.99338
▁1918-	-8.994
▁etdirir	-8.99477
▁29	-8.99987
▁azərbaycanlılar	-9.00038
içik	-9.00057
▁bağlıdır	-9.00139
▁adam	-9.00184
▁ibn	-9.00264
▁bunlar	-9.00344
▁kitabı	-9.0039
▁əhalisini	-9.00532
▁Yusif	-9.00678
▁vacib	-9.00753
▁əsasını	-9.00791
▁adlanır	-9.00812
▁yaradılmış	-9.00852
▁naziri	-9.00852
▁aldı	-9.01033
▁yaradılmışdı	-9.01073
kdən	-9.01386
▁ətraf	-9.01895
▁yüz	-9.01962
▁respublika	-9.02002
▁məktəbini	-9.02161
▁adlandırılmışdı	-9.0251
▁mahnı	-9.02931
▁çıxır	-9.03084
▁oyun	-9.03112
▁Şərqi	-9.03169
▁alim	-9.03313
▁Ağdam	-9.03418
▁dərs	-9.03423
▁həll	-9.03521
▁dənizi	-9.03586
▁idman	-9.04004
▁fikir	-9.04057
▁mm	-9.04094
▁düşür	-9.04148
ş	-9.04328
▁kəs	-9.04406
▁Bunun	-9.04658
▁yazdığı	-9.04662
▁40	-9.04748
▁yaradır	-9.04875
▁bitirmişdi	-9.04879
▁bitiri	-9.04887
▁məktəbində	-9.05145
▁müraciət	-9.05156
▁Şeyx	-9.05262
▁İncəsənət	-9.05387
▁Son	-9.05467
▁həmişə	-9.05501
▁ölümündə	-9.05535
▁hal	-9.05606
▁Kəndi	-9.05648
▁istehsalı	-9.05692
▁hüquq	-9.05733
▁izah	-9.05743
▁içində	-9.05815
▁1920-	-9.06019
▁1980	-9.0615
rək	-9.06155
çi	-9.06203
▁hesabı	-9.06294
▁məruz	-9.06342
▁mənasında	-9.06451
▁27	-9.06458
▁sülh	-9.06755
▁Hal	-9.06951
▁Uzun	-9.06958
▁sübut	-9.06999
▁qalır	-9.07014
▁üçüncü	-9.0707
▁vermiş	-9.07188
ur	-9.07325
▁yunan	-9.07476
▁tərəf	-9.07646
▁səbəbi	-9.07657
▁filmləri	-9.07677
▁000	-9.07681
▁bunu	-9.07683
▁qrupu	-9.07726
▁Mahnı	-9.07805
▁əvəz	-9.07844
▁Qüvvələri	-9.07853
▁Və	-9.07864
▁fikrin	-9.07951
▁ölkələrdə	-9.07969
▁Teatrın	-9.07992
▁rəhbəri	-9.08083
dakı	-9.08256
▁olunurdu	-9.08329
▁klubu	-9.08412
▁üzü	-9.08587
▁səs	-9.08595
▁Digər	-9.08653
▁illərin	-9.08739
▁2004-	-9.08839
▁Elə	-9.09019
lak	-9.09045
▁qalası	-9.09082
▁dəmir	-9.09205
▁Respublika	-9.0933
▁şəxsi	-9.09334
▁sonunda	-9.09501
rc	-9.09724
▁əmək	-9.09799
▁yeg	-9.09903
▁Rayon	-9.09984
v	-9.10323
▁üzv	-9.10492
▁sıx	-9.10496
yyətlə	-9.10588
▁sovet	-9.10679
▁televiziya	-9.10749
▁ordu	-9.10822
▁fransız	-9.10922
▁hakim	-9.1105
▁Məmməd	-9.11065
▁qələbə	-9.11091
▁hadisə	-9.11184
▁Araz	-9.11217
▁məcbur	-9.11272
▁Dram	-9.11337
▁başlayıb	-9.11346
▁Süleyman	-9.11388
▁aydın	-9.11393
▁qaz	-9.11649
▁bələdiyyə	-9.11654
▁dövr	-9.11698
▁ədəbiyyat	-9.1176
▁qoşunları	-9.11796
▁rolu	-9.11848
▁İtaliya	-9.11997
▁diqqət	-9.12101
▁sayılır	-9.12182
▁adları	-9.12459
▁sənət	-9.1254
▁pul	-9.12555
▁dərin	-9.12585
▁Silah	-9.12611
▁Teymur	-9.12747
ü	-9.12813
▁sol	-9.12821
▁sahibi	-9.12945
▁rəhbər	-9.13028
▁maraqlı	-9.13234
hazırd	-9.13302
▁bələdiyyəsi	-9.1338
▁ana	-9.13444
▁almış	-9.13461
▁quru	-9.13625
▁keçirilir	-9.13916
▁mən	-9.13917
▁dəqiq	-9.13919
▁ordusunu	-9.13925
mişdir	-9.14087
▁anası	-9.14379
▁qırmızı	-9.14525
▁dəvət	-9.14553
▁isti	-9.1457
▁0	-9.14573
▁işləmişdi	-9.14598
▁çəkilmiş	-9.14733
▁Mən	-9.148
▁hallarda	-9.14872
▁yerlərdə	-9.14917
▁əksəriyyəti	-9.14997
▁Çox	-9.15114
qdan	-9.15273
▁dairəsi	-9.15304
▁indi	-9.15347
▁tərkibin	-9.15592
▁altı	-9.15607
▁tabe	-9.15705
▁Müqəddə	-9.15816
ayət	-9.15938
▁başçısı	-9.1598
°	-9.1602
▁qan	-9.16032
▁İki	-9.16087
▁е	-9.16109
▁aiddir	-9.16144
▁ailəsi	-9.16304
▁üstündə	-9.1641
▁Mustafa	-9.1642
▁Elmlər	-9.16456
▁2002-	-9.16516
▁nail	-9.16741
▁tanış	-9.16787
▁Ağa	-9.16927
▁XVIII	-9.17021
▁Akademiyasını	-9.17022
▁yay	-9.17065
▁2003-	-9.17093
▁əsər	-9.17141
əm	-9.17159
▁xadimi	-9.17172
lan	-9.17234
▁Rus	-9.17239
anə	-9.17372
2	-9.17417
tez	-9.1748
▁yaranması	-9.17576
▁aparıla	-9.17605
▁Cəfər	-9.17615
▁əməkda	-9.17769
▁fakültəsini	-9.17815
▁yaşamış	-9.17838
▁rəngli	-9.17852
▁Olimpi	-9.17905
▁qalib	-9.17919
▁daşıyır	-9.17966
▁necə	-9.17984
▁ha	-9.18056
h	-9.18089
▁verilmiş	-9.18125
▁vəziyyət	-9.1817
▁Şəhər	-9.18328
▁elmlər	-9.18484
▁Avroviziya	-9.18498
▁gedir	-9.18533
▁tibb	-9.18577
▁keçirilmiş	-9.18852
▁şairi	-9.19112
▁maddi	-9.19303
▁Musiqi	-9.19338
▁məna	-9.19379
▁əvvəlcə	-9.19647
▁əsl	-9.19676
▁icra	-9.19722
▁3-	-9.19899
▁İstanbul	-9.19983
▁incəsənət	-9.19993
▁Qazax	-9.20032
▁yaşlı	-9.20123
▁i	-9.20231
▁gəlmişdi	-9.20382
▁üz	-9.20498
▁hökuməti	-9.20565
▁Paşa	-9.2058
▁qalmış	-9.20652
▁forması	-9.20658
▁məktəbin	-9.20686
▁ədəbiyyatı	-9.20764
c	-9.2079
▁qazandı	-9.20934
▁qayda	-9.20942
▁şəhərini	-9.20993
▁ad	-9.21061
liyi	-9.21081
abad	-9.21226
▁Avropada	-9.21274
▁birində	-9.21349
▁Ay	-9.21435
▁Muxtar	-9.21438
▁əsərində	-9.21495
▁göstərmişdi	-9.21612
▁ləğv	-9.21744
▁bura	-9.21869
▁İttifaqı	-9.22061
▁gətirir	-9.22211
▁yeddi	-9.22227
▁müalicə	-9.22329
▁yaranmışdı	-9.22469
▁qız	-9.22555
▁hakimi	-9.22702
▁yerində	-9.22764
▁üstün	-9.22832
▁L	-9.22914
it	-9.22925
8	-9.23025
əli	-9.23066
3	-9.23228
▁yazılmış	-9.23296
▁Qırmızı	-9.23317
▁tipli	-9.23324
▁1988-	-9.23477
▁əhəmiyyət	-9.23672
▁Əhali	-9.23733
▁1999-	-9.23845
▁mürəkkəb	-9.23871
▁informasiya	-9.23914
▁komandası	-9.23966
▁işçi	-9.2414
▁qəzet	-9.24175
▁gecə	-9.24514
▁ailəsində	-9.24641
▁cəmi	-9.24659
▁çoxu	-9.2471
▁istiqamətində	-9.24963
▁sistemində	-9.25005
▁teatrın	-9.25154
il	-9.25267
▁Əmir	-9.25294
▁qəzeti	-9.25453
▁üstünlük	-9.25475
▁ordeni	-9.25524
▁din	-9.25584
▁dövlətini	-9.25735
▁üzvləri	-9.2576
▁ağac	-9.25817
▁olduğundan	-9.26013
▁bildirir	-9.26169
▁xalça	-9.26183
▁çıxdı	-9.26212
film	-9.26296
▁nümayəndələri	-9.26362
▁coğrafi	-9.26377
çilik	-9.2642
▁ala	-9.26471
▁arxeolo	-9.26475
▁prezident	-9.2661
▁hadisələr	-9.26677
▁yenə	-9.26685
adlı	-9.26765
▁fiziki	-9.26824
▁Bərdə	-9.26891
▁yayılmış	-9.26935
▁kənddə	-9.27093
▁2001-	-9.27193
▁müvafiq	-9.27235
▁Məh	-9.27308
▁br	-9.27367
mış	-9.27388
du	-9.27435
▁hazırlanmış	-9.2746
▁şərait	-9.27467
▁Seyid	-9.27522
▁köməyi	-9.27569
▁direktoru	-9.27751
▁fəlsəfə	-9.27875
▁Hərbi	-9.27968
sə	-9.2799
▁hökumət	-9.28135
▁Qafqazda	-9.28151
▁Universitetində	-9.28162
▁sahədə	-9.28281
▁gəlinir	-9.28557
▁qəsəbə	-9.28585
е	-9.28625
▁daxilində	-9.28766
▁texniki	-9.28815
▁qüvvələri	-9.28909
▁Molla	-9.2899
▁heyvan	-9.29024
ayrı	-9.29102
▁həyatında	-9.29103
▁səviyyəsində	-9.2915
▁qalmışdı	-9.29152
▁31	-9.29273
▁ölkələrində	-9.29326
▁mümkündür	-9.29347
ayəsində	-9.29496
▁bitirdi	-9.29558
▁başlayan	-9.29639
▁yaranmış	-9.29744
▁sahələri	-9.29856
▁dövrünü	-9.29865
▁q	-9.29924
▁yardım	-9.29928
▁tayfa	-9.29978
▁təqrib	-9.30011
ini	-9.30095
▁Afrika	-9.30392
▁təsis	-9.30477
▁quruluşu	-9.30502
iyyə	-9.30541
▁2011-	-9.30599
▁alınmışdı	-9.30616
▁yaradıcılığı	-9.30619
▁dillərində	-9.30698
▁çünk	-9.30716
▁bizim	-9.3074
▁müddətdə	-9.30964
▁oyunda	-9.31057
▁Soveti	-9.31126
▁Nadir	-9.31309
▁çatır	-9.3132
▁amma	-9.31339
ların	-9.31427
▁deyə	-9.31468
sız	-9.31495
▁nümayiş	-9.31888
▁Ərəb	-9.32251
▁qaldı	-9.32352
▁boyunca	-9.32395
▁sahə	-9.32416
▁vəzifəsinə	-9.32467
▁Mir	-9.32546
▁maliyyə	-9.32547
ağa	-9.32548
▁rəhbərli	-9.32642
▁kilsə	-9.32685
▁sonuna	-9.32725
▁İranda	-9.32951
▁xanı	-9.32951
▁göstərmiş	-9.33007
▁Abşeron	-9.33153
▁məscid	-9.33163
▁arada	-9.33179
▁2013-	-9.33251
▁de	-9.33275
▁2012-	-9.33435
▁yoldaşı	-9.33439
▁edilmişdi	-9.33441
ib	-9.33483
5	-9.33522
▁komanda	-9.33537
▁Zaqafqaziya	-9.33591
▁ortaya	-9.33698
▁deyir	-9.33845
yev	-9.33855
▁növləri	-9.33865
7	-9.33949
▁hökmdarı	-9.34065
▁Füzuli	-9.34201
▁final	-9.34231
▁1994-	-9.34362
▁olurdu	-9.34426
▁iqlim	-9.34426
▁ölüm	-9.34575
▁Aşağı	-9.34579
▁seçki	-9.34632
▁Hüseynov	-9.34699
▁Elmi	-9.34715
lığı	-9.34768
▁Moskvada	-9.34816
▁çətin	-9.34918
x	-9.34922
▁qida	-9.3497
▁edilirdi	-9.34971
▁vəziyyətdə	-9.35106
▁etdirmişdi	-9.35124
▁avtomobil	-9.35172
▁mənşəli	-9.35221
▁öncə	-9.3523
▁yaratmışdı	-9.35325
▁ölkələrin	-9.35746
▁onlardan	-9.35882
▁Tiflis	-9.35887
▁dəstə	-9.35995
▁mədəniyyəti	-9.36011
▁dərəcə	-9.36044
▁dövrlərdə	-9.36096
▁katibi	-9.36139
▁sürətlə	-9.36187
▁həyatını	-9.3629
▁keçirir	-9.3636
▁general	-9.36477
▁dilini	-9.36573
▁inkişafında	-9.36584
▁Fətəli	-9.36678
▁60	-9.36789
▁səbəbdən	-9.36819
▁vaxtda	-9.36856
▁Allahı	-9.37007
▁No	-9.37033
▁meşə	-9.37056
▁vaxtı	-9.37082
▁20-	-9.37107
▁yaşadığı	-9.3729
▁Qeyd	-9.37294
▁zəif	-9.37372
▁xalqın	-9.37445
▁tələbə	-9.37505
on	-9.37617
▁Türkiyədə	-9.37636
▁klassik	-9.37648
▁qələm	-9.37688
▁dərəcədə	-9.37693
▁Ukrayna	-9.37771
▁miqdar	-9.37859
▁hiss	-9.37919
▁qiymətli	-9.37949
▁şəxslər	-9.37974
▁elektrik	-9.38022
▁tədqiqat	-9.38105
▁dağlıq	-9.38203
▁etn	-9.3826
▁yazı	-9.38518
▁Paris	-9.3864
qətlə	-9.38748
а	-9.388
▁müqayisə	-9.38961
▁etdirə	-9.3897
▁olmasını	-9.39024
▁İspaniya	-9.39073
▁yazmışdı	-9.39223
▁çalışıb	-9.39348
id	-9.39351
▁4-	-9.39366
▁Qərb	-9.39376
▁1919-	-9.39439
▁Neft	-9.39536
▁məktəbdə	-9.3965
▁Hindistan	-9.39674
▁Sumqayıt	-9.39734
▁şəhərdə	-9.39769
▁göz	-9.39772
▁hüququ	-9.39797
▁Mahmud	-9.39976
um	-9.40062
▁qarşısını	-9.40087
▁tikinti	-9.40126
▁tutan	-9.40215
ması	-9.40428
▁müəllimi	-9.40484
▁evi	-9.4053
▁ortalarında	-9.40572
▁saray	-9.40578
▁verilən	-9.40591
▁göstərilir	-9.40595
▁adətə	-9.40659
▁qadınlar	-9.40693
▁əsrə	-9.40757
▁at	-9.40759
▁tərtib	-9.4077
miş	-9.40863
▁IV	-9.40882
▁gizli	-9.41036
ad	-9.41075
▁qar	-9.41118
lü	-9.41194
▁qanun	-9.41311
▁vermək	-9.41376
▁Birliyini	-9.41538
▁keçdi	-9.41578
▁etməklə	-9.41656
▁1970-	-9.41701
▁abidə	-9.41754
▁keçirdi	-9.41803
▁mətbuat	-9.41917
▁1960-	-9.42031
+	-9.42088
▁iddia	-9.42181
▁düşmən	-9.42186
▁Erməni	-9.42284
▁sistemini	-9.42316
▁Cəlil	-9.42354
▁yaratmaq	-9.42363
▁vahid	-9.42486
▁ölkələr	-9.42489
▁tarixdə	-9.42549
▁səhnə	-9.42661
▁mənbələrdə	-9.42712
▁sonuncu	-9.42759
▁uzaq	-9.42795
▁yazırdı	-9.4284
_	-9.42886
▁Müasir	-9.43019
▁köhnə	-9.43153
luğu	-9.43185
▁qalıqları	-9.43232
▁təbiət	-9.4325
▁heyvandarlıq	-9.43294
▁Vətən	-9.43404
lərin	-9.43407
▁İnstitutunda	-9.43423
▁aparılmış	-9.43547
▁artır	-9.43559
▁İnstitutu	-9.43577
▁nüfuz	-9.43668
▁1998-	-9.43731
▁redaktoru	-9.43803
▁Aşıq	-9.43824
▁haqda	-9.43826
▁partiya	-9.43871
▁səkkiz	-9.43959
▁1930	-9.44005
▁XVI	-9.44043
▁göstərmək	-9.44158
▁maraq	-9.4418
oloji	-9.44348
▁təkrar	-9.4449
▁xətti	-9.44534
maq	-9.44536
▁hissədə	-9.44626
▁miqdarı	-9.44667
▁bölünür	-9.44694
▁Bizans	-9.44771
▁müqavilə	-9.44867
▁övladı	-9.44887
▁nadir	-9.44921
▁quruluş	-9.44942
▁ardın	-9.4526
st	-9.45324
▁müğənni	-9.4534
▁Kənddə	-9.4537
▁1995-	-9.45423
▁tədqiqatlar	-9.45451
▁200	-9.4548
▁Bunlar	-9.45621
tiv	-9.45626
0	-9.4566
▁əlində	-9.45669
▁qabaq	-9.45775
başa	-9.45798
▁rayonun	-9.45914
▁mənası	-9.45921
▁silahlı	-9.45984
▁Yaponiya	-9.46049
əgər	-9.46114
▁qarşılıq	-9.46133
▁mühəndis	-9.46268
▁canlı	-9.46407
▁tikilmiş	-9.4651
maz	-9.46537
▁Respublikasında	-9.46645
▁müqəddəs	-9.46693
▁əsası	-9.46873
▁kəşf	-9.47168
▁mərkəz	-9.47254
ənəvi	-9.47382
▁nəzdində	-9.47389
▁yarım	-9.4741
belə	-9.47697
▁xilas	-9.47707
▁İsa	-9.47743
▁kəskin	-9.47763
aşayış	-9.47771
▁qış	-9.4783
▁adi	-9.4788
▁Laçın	-9.47953
▁nəzarət	-9.47978
▁1997-	-9.48059
▁sözünü	-9.48153
▁tədqiq	-9.48257
▁Qəhrəmanı	-9.48292
▁bilmir	-9.48338
▁sayıla	-9.48374
▁müharibəsində	-9.48383
▁ərazilərdə	-9.48508
▁imti	-9.48512
▁doğma	-9.48514
▁Axundov	-9.48518
▁2014-	-9.48534
▁deyildir	-9.48595
▁surət	-9.48781
▁yolunu	-9.48808
▁təşkilat	-9.48825
▁Komitəsini	-9.48827
▁işləyi	-9.48879
▁rəng	-9.48994
▁deyildi	-9.49043
or	-9.49048
▁ömrünü	-9.49095
▁aktyoru	-9.49114
▁Gənc	-9.49281
▁çıxmış	-9.49323
▁əksər	-9.49392
▁nümayəndəsi	-9.49416
▁Nəticə	-9.49504
▁Avstriya	-9.49647
irləşmiş	-9.49656
▁Yazıçılar	-9.49669
▁2015-	-9.49729
▁Cavanşir	-9.4973
▁Əbu	-9.49934
▁Xaric	-9.49939
▁sistem	-9.49962
▁cəmiyyətin	-9.50072
▁güm	-9.50215
▁sərbəst	-9.50228
=	-9.50363
▁aparıcı	-9.50483
▁qismi	-9.50613
▁əsərlər	-9.50711
▁1974	-9.5094
▁Quliyev	-9.5094
▁30-	-9.51062
▁ehtimal	-9.51072
▁seçilir	-9.51122
▁əlaqə	-9.51209
▁UEFA	-9.5123
▁bayrağı	-9.51315
▁namizəd	-9.51429
▁düz	-9.51478
man	-9.51519
▁bitir	-9.51582
▁ulduz	-9.5166
▁yarısında	-9.51769
▁başlıca	-9.51814
▁gümüş	-9.51979
▁olsun	-9.52026
larında	-9.52069
▁Az	-9.52079
▁tanınır	-9.52119
▁prosesi	-9.52158
▁aldığı	-9.52167
▁çar	-9.52172
▁seçilmişdi	-9.52204
▁həftə	-9.52213
▁verib	-9.52259
▁rəisi	-9.52301
▁etdikdə	-9.52319
▁keçirilməsi	-9.52343
mək	-9.52369
▁Atası	-9.52374
▁1945	-9.52553
▁1989-	-9.5261
▁qüvvə	-9.52626
▁nəticəsi	-9.52669
6	-9.52709
▁əkinçilik	-9.52735
lərində	-9.52789
▁Z	-9.5292
▁qolu	-9.52948
▁Cümhuriyyəti	-9.52957
▁xristian	-9.53041
▁İlham	-9.53135
▁Səfəvilər	-9.53207
▁Kanada	-9.53282
aylarında	-9.53323
birinə	-9.53433
▁1972	-9.53579
▁mövzusunda	-9.53758
▁əsir	-9.53769
▁tanın	-9.53787
▁nümunələri	-9.53931
▁tamaşa	-9.53991
▁1981	-9.54056
▁görür	-9.54319
▁sözləri	-9.54352
▁yanın	-9.5437
▁parlaq	-9.544
ğa	-9.54402
▁möhkəm	-9.54446
▁Oykonim	-9.54472
▁vəziyyəti	-9.54605
▁hündürlüyü	-9.54627
▁Biz	-9.54722
▁dərəcəsi	-9.54729
о	-9.5477
▁Albaniya	-9.54888
▁mənəvi	-9.54944
▁kifayət	-9.55042
▁Su	-9.55149
▁şirkəti	-9.55158
▁dünyasını	-9.55238
▁kilometr	-9.55375
▁5-	-9.5542
▁forma	-9.55425
▁icazə	-9.55428
▁şərəfin	-9.55648
▁adından	-9.55817
▁alban	-9.55902
▁mis	-9.55944
▁ön	-9.55947
▁akademik	-9.55982
▁Ma	-9.56071
▁Rusiyada	-9.56072
▁p	-9.56088
▁Mehdi	-9.56433
▁məhkəmə	-9.56526
▁səfər	-9.56545
▁İsgəndər	-9.56627
▁İnsan	-9.56635
▁dəqiqə	-9.56748
▁1996-	-9.56762
▁etsə	-9.56927
met	-9.57012
▁35	-9.57024
▁qazana	-9.57036
▁Ölkə	-9.57041
▁Təhsil	-9.57047
kənd	-9.57129
▁iştirakı	-9.57134
▁enerji	-9.57167
▁Göy	-9.57208
▁üst	-9.57226
▁sonlarında	-9.57322
▁kitabında	-9.57372
▁verirdi	-9.57393
▁başlamış	-9.57412
▁məscidi	-9.57471
▁olacaq	-9.575
▁Rza	-9.57516
▁uşaqlar	-9.57609
▁bi	-9.57634
▁görülü	-9.57656
▁deputat	-9.57758
▁mənsub	-9.57878
▁yaradıcılıq	-9.57886
▁apara	-9.57937
▁məsələ	-9.58007
▁təsərrüfat	-9.58036
▁gələcək	-9.58054
▁Xan	-9.58074
▁seçilmiş	-9.58083
▁Yuxarı	-9.58159
▁soyuq	-9.58206
▁Azad	-9.58218
▁Əməkda	-9.5835
▁U	-9.58355
▁tarixinə	-9.58393
▁Federasiyası	-9.58483
▁əsərlərini	-9.58559
4	-9.58584
▁olduqda	-9.58593
▁göstərirdi	-9.58778
▁maddə	-9.58844
▁İbn	-9.58903
▁1978	-9.58914
▁Məşə	-9.58914
▁Dəniz	-9.58972
▁ölkələri	-9.58985
▁əməliyyat	-9.58988
▁Tofiq	-9.59071
ün	-9.59091
▁vilayətin	-9.59161
▁çəkilə	-9.59212
▁Əvvəl	-9.59331
▁döyüşdə	-9.59355
▁namizədi	-9.5937
▁rolunu	-9.59443
▁kitabxana	-9.59626
▁sultan	-9.59742
▁etdikləri	-9.5978
▁Prezident	-9.5985
▁1968	-9.59859
p	-9.59999
▁suyun	-9.60007
▁gətiri	-9.60044
▁Nazir	-9.60129
▁XVII	-9.60241
▁mənasını	-9.60401
▁1965	-9.60493
▁Qəbələ	-9.60493
▁formada	-9.60639
▁Nobel	-9.60654
kən	-9.60673
▁gürcü	-9.60685
▁yerləşdiyi	-9.60752
▁çıxıb	-9.60813
▁xanlığı	-9.60815
▁Hacıbəyov	-9.60825
▁binası	-9.60828
▁silah	-9.60884
▁İsrail	-9.61131
▁yaratdığı	-9.61161
iya	-9.61226
▁yaranan	-9.61436
▁xarakteri	-9.61457
▁vergi	-9.61522
▁Partiyası	-9.61547
▁yaşı	-9.61549
▁təsviri	-9.6156
▁kəndindən	-9.61593
▁Yaxın	-9.61613
▁80	-9.61623
▁təcrübə	-9.61716
▁Qala	-9.61723
▁Onu	-9.61763
▁Cəbrayıl	-9.61774
▁saxlanılır	-9.61821
▁üsyan	-9.61863
▁əsərin	-9.61884
▁siyasət	-9.61902
▁bilən	-9.6197
▁Cabbarlı	-9.61979
▁hazırlanması	-9.61993
▁ixtisas	-9.62052
▁yaranır	-9.62059
▁bəstəkar	-9.62137
▁El	-9.62211
el	-9.62247
▁şeir	-9.62251
▁1967	-9.62259
▁atəş	-9.62304
▁bilmədi	-9.62305
▁2016-	-9.62341
▁taxta	-9.6236
▁İsveç	-9.62414
▁tətbiqi	-9.62424
en	-9.62519
▁sənədl	-9.62617
▁bina	-9.62621
▁dəqiqləşdirmə	-9.62642
▁çevrilmişdi	-9.62722
▁Nyu	-9.6275
▁maddələr	-9.62787
▁metal	-9.62792
siyasi	-9.62802
▁Kərim	-9.62887
▁Tibb	-9.62908
▁verildi	-9.62984
▁dəyişir	-9.62985
▁universitetin	-9.6301
lərindən	-9.63097
▁bazar	-9.63156
▁fizika	-9.63198
▁şöbə	-9.63215
▁çərçivəsində	-9.6324
▁klub	-9.63308
▁hamısı	-9.63332
▁dollar	-9.63462
▁1976	-9.63562
▁kilsəsi	-9.63572
dilli	-9.63676
▁verilməsi	-9.63699
məsi	-9.63758
▁dərəcəli	-9.63792
▁düzgün	-9.63895
▁etməyi	-9.63951
▁söhbət	-9.64031
▁yaratdı	-9.64036
▁həqiq	-9.6404
▁düşən	-9.64054
▁həkim	-9.64076
▁filmində	-9.64151
▁edilə	-9.64216
▁1959	-9.64221
▁Federasiyasında	-9.64272
▁hissələri	-9.64336
▁Hələ	-9.64347
▁1969	-9.64386
▁ürək	-9.64387
▁əmr	-9.644
▁bil	-9.6443
▁no	-9.64439
▁real	-9.64444
▁xəlifə	-9.64552
▁Məclisin	-9.64602
▁sakinləri	-9.6465
im	-9.64689
▁1971	-9.64718
▁milyard	-9.64718
mışdır	-9.6472
▁alına	-9.64785
▁aparılır	-9.65078
▁Öz	-9.65094
▁qonşu	-9.65126
▁əlverişli	-9.6523
▁1938	-9.65428
▁Musa	-9.65445
▁İranı	-9.65457
▁göndərdi	-9.65552
▁fərqlənir	-9.65593
▁çalışan	-9.65634
▁təhsili	-9.65643
▁birini	-9.65675
▁etmə	-9.65736
▁vilayəti	-9.65759
▁Xocalı	-9.65794
▁əvvəllər	-9.65923
▁asan	-9.65954
▁Səfəvi	-9.65971
▁bunları	-9.66012
▁dilləri	-9.66029
▁sərt	-9.66232
▁işləyir	-9.663
▁torpaqları	-9.66477
▁nəzəriyyəsi	-9.66524
▁hörmət	-9.66574
▁al	-9.66648
▁Kəlbəcər	-9.66729
▁xüsusiyyətləri	-9.66757
▁İndi	-9.66797
▁sənayesi	-9.66835
▁elektron	-9.66841
▁görünür	-9.66896
▁çevrilir	-9.66901
əksini	-9.66928
▁sənəd	-9.67111
▁şahın	-9.67148
▁məhsulları	-9.67204
▁çoxsaylı	-9.67264
▁dedi	-9.6728
▁Tarix	-9.67329
▁müqaviləsi	-9.67403
▁məqalə	-9.67599
▁qismə	-9.67617
▁əvvəlində	-9.67637
▁500	-9.67678
▁məsələn	-9.677
▁mənim	-9.67766
▁300	-9.67858
▁oluna	-9.68032
▁1961	-9.68094
▁universitet	-9.68167
▁oynayır	-9.68196
▁rayonlarında	-9.68225
▁adlandırır	-9.68228
▁kimya	-9.68233
▁2009	-9.68378
▁y	-9.68405
▁günə	-9.68524
▁heyəti	-9.68532
nunun	-9.68675
▁günəş	-9.68679
▁qatı	-9.68679
▁tikili	-9.68706
▁rəssam	-9.68773
▁Ya	-9.68787
▁tərkib	-9.68939
er	-9.68959
ylə	-9.69033
▁çəkilmişdi	-9.69044
lərdə	-9.69059
▁etdirmək	-9.69076
▁alınması	-9.69122
▁tutdu	-9.69127
▁kütləsi	-9.69137
▁tədbirlər	-9.6921
▁tarixə	-9.69226
▁mahnısı	-9.69283
▁proqram	-9.69295
▁Tanrı	-9.6931
▁Ədəbiyyat	-9.69312
▁İttifaqını	-9.69314
▁AMEA	-9.69476
▁müsbət	-9.69477
▁özünəməxsus	-9.69479
▁laureatı	-9.69486
▁sərhəd	-9.69543
▁qoyulmuşdu	-9.69587
▁Alban	-9.69644
▁sənəti	-9.6973
▁kəndləri	-9.69783
rhal	-9.69819
▁qəza	-9.69858
▁gəlməsi	-9.69912
▁erkə	-9.69976
▁səviyyədə	-9.69988
▁1956	-9.7
▁ç	-9.70087
▁dövrə	-9.70126
▁Cavad	-9.70135
zə	-9.70171
▁tezliklə	-9.70192
9	-9.70202
▁cinsi	-9.70251
▁Asiyada	-9.70331
▁əsərlərində	-9.70388
▁Ordubad	-9.70406
▁problemləri	-9.70539
▁kimyəvi	-9.70549
▁yolla	-9.70691
▁Sabir	-9.70709
▁döyüşlərdə	-9.70729
▁alt	-9.70755
▁siyasəti	-9.7079
rajl	-9.70836
▁alimlər	-9.70857
▁Əmək	-9.70935
indən	-9.71018
▁Teatr	-9.7102
▁formul	-9.71055
▁London	-9.71173
▁Rə	-9.71214
▁çevrildi	-9.71226
▁Qacar	-9.71354
▁dekabrın	-9.7138
▁tələbələr	-9.71387
▁2000	-9.71394
▁sakin	-9.71533
▁eni	-9.71604
ikən	-9.71624
sına	-9.71661
am	-9.71662
▁Akademi	-9.71669
▁ermənilərin	-9.71915
▁xidməti	-9.71917
▁kənarda	-9.71928
▁1957	-9.71943
▁ş	-9.71948
▁qalibi	-9.72003
▁nəhəng	-9.72124
▁qərbdə	-9.72247
▁meyvə	-9.72311
▁yanvarın	-9.72338
▁bölgəsində	-9.72418
▁şimalda	-9.7243
▁70	-9.72475
▁1921	-9.72616
▁şərqdə	-9.72775
▁1940	-9.7284
▁bilməz	-9.72847
▁1946	-9.72848
▁əmri	-9.72856
▁ruslar	-9.72858
▁İmam	-9.73024
▁Tarixi	-9.73038
▁top	-9.73111
▁sahələrində	-9.73195
▁cənubda	-9.73244
▁suyu	-9.73351
▁ayrılır	-9.73378
▁şəkər	-9.73393
▁Dağlı	-9.73548
▁vahidi	-9.7365
▁Üz	-9.73698
is	-9.73733
▁bəyi	-9.73744
▁Başqa	-9.73746
▁əlaqələr	-9.73807
▁albomu	-9.73818
▁yaşıl	-9.73837
▁fakültəsində	-9.73883
▁orqanı	-9.73911
▁1917-	-9.73964
▁vəzifəsini	-9.73983
▁mühasirə	-9.74025
▁fərdi	-9.74051
▁yaşayırdı	-9.74056
▁Fəxr	-9.74108
▁yerləri	-9.7419
üxtəlif	-9.74212
▁Mariya	-9.74338
▁Birliyi	-9.74422
▁1958	-9.74473
▁xüsusiyyətlərin	-9.74479
▁Xüsusi	-9.74506
▁mərhələ	-9.74519
▁yaz	-9.74609
▁fərmanı	-9.74664
▁çıxmışdı	-9.74712
▁Babək	-9.74789
▁1954	-9.74839
▁rejissoru	-9.74979
▁yaradıldı	-9.75001
▁ibtidai	-9.75036
▁şöbəsin	-9.75087
əslində	-9.75109
▁qəhrəman	-9.75152
ran	-9.75377
▁hakimiyyətini	-9.7541
▁İraq	-9.75443
▁sahil	-9.75521
▁qazanmışdır	-9.75573
▁çempionu	-9.75597
▁qəzasını	-9.75626
▁məsələləri	-9.7564
va	-9.75749
▁Komitəsi	-9.75754
▁BMT	-9.75762
▁taxıl	-9.75763
▁kompüter	-9.75816
▁1963	-9.75948
▁təşkilatı	-9.7598
▁xidmətləri	-9.75984
▁bitirmiş	-9.7604
▁vermişdi	-9.76068
▁xalqı	-9.76118
▁olmur	-9.76134
çay	-9.76156
▁çəkilir	-9.7618
▁VII	-9.76203
▁işləmiş	-9.76207
▁formasında	-9.76225
▁1966	-9.7632
▁əməkdaşlıq	-9.76328
▁Osman	-9.76368
▁Re	-9.76432
▁müəllif	-9.76433
▁gündən	-9.76462
▁kon	-9.76478
▁Pedaqo	-9.76506
▁Vaqif	-9.76506
▁keyfiyyət	-9.76527
▁tərkibi	-9.76636
▁yaşlarında	-9.7665
▁6-	-9.76659
alnız	-9.7669
▁Qasım	-9.7669
▁göstərdiyi	-9.76708
▁qəzetində	-9.7673
▁tibbi	-9.7674
▁etiraz	-9.76799
▁nüvə	-9.76808
▁məqsəd	-9.76829
▁azadlıq	-9.7686
▁göy	-9.76957
iç	-9.76974
▁ml	-9.77022
▁Rəssam	-9.77068
▁əleyhi	-9.77068
▁divarları	-9.77087
▁mayın	-9.77091
▁komandanı	-9.7716
▁ton	-9.77229
▁vəzifələrində	-9.77254
▁gedib	-9.77261
▁1975-	-9.77357
▁tarixini	-9.77403
▁1937-	-9.77426
▁statusu	-9.77523
▁yerini	-9.77573
▁t	-9.7766
▁xırda	-9.77737
▁mərhələsində	-9.77776
▁xüsus	-9.77792
qqəti	-9.77795
▁islam	-9.77838
▁daşıyan	-9.77921
▁mütləq	-9.78015
▁orqanları	-9.78068
▁internet	-9.78161
▁dəyişikliklər	-9.7822
▁Akademiyası	-9.78258
▁indiyə	-9.78265
▁edildiyi	-9.78305
▁Əl	-9.78308
ını	-9.78484
▁imperiyası	-9.785
▁məlumatın	-9.785
▁köç	-9.78543
▁Aleksandr	-9.78548
▁vaxtlar	-9.78587
▁kənar	-9.78603
▁vuru	-9.7873
▁Şirin	-9.7877
▁çatdı	-9.7878
▁Qubadlı	-9.78793
▁şöhrət	-9.78885
▁alətləri	-9.78895
▁temperatur	-9.78936
▁əlaqələri	-9.78996
▁ixtisası	-9.79049
▁çalışırdı	-9.79058
▁Yay	-9.79084
▁başqaları	-9.79103
▁The	-9.79162
sən	-9.79177
▁keç	-9.79179
▁1950-	-9.7918
▁təqvimi	-9.79211
▁pis	-9.79355
▁rəngdə	-9.79426
▁1964	-9.7954
▁sonu	-9.79631
▁olmağ	-9.79704
▁qazıntılar	-9.7971
▁düşdü	-9.79741
▁Almaniyada	-9.79768
▁xalqını	-9.79822
çı	-9.79835
▁Qaradağ	-9.79852
rtıq	-9.79853
▁aparır	-9.79885
▁fəlsəf	-9.79915
▁inqilab	-9.79929
▁ətəyində	-9.79932
▁tapmışdı	-9.79985
▁keçirmək	-9.8004
mə	-9.80126
▁1944	-9.80127
▁müxbir	-9.80137
▁şöbəsini	-9.80143
▁qoymuşdu	-9.80149
▁əhəmiyyəti	-9.80164
▁1987-	-9.80226
▁1941-	-9.80468
▁əsərini	-9.80481
▁Göyçə	-9.80509
▁üzündə	-9.80516
▁keçirdiyi	-9.80538
larını	-9.80552
▁10-	-9.80647
▁Xaç	-9.8084
▁mirzə	-9.80875
tik	-9.80914
▁alimi	-9.80918
▁hüquqi	-9.80924
▁tənqid	-9.81088
▁çəki	-9.81111
▁önəmli	-9.81159
▁cəhd	-9.81176
▁imkanı	-9.8119
▁düşü	-9.81213
▁ölçü	-9.81279
▁qalıb	-9.81288
lük	-9.8132
▁Muğan	-9.81385
▁sün	-9.8139
▁hündür	-9.81457
▁2018	-9.81524
▁üsulu	-9.81533
▁xalçaları	-9.81634
▁bölgə	-9.8174
▁təşəbbüsü	-9.81879
▁aprelin	-9.8195
▁oynamışdı	-9.8201
▁XIII	-9.82018
gah	-9.82036
bəyli	-9.82085
▁redaktor	-9.82105
▁bəziləri	-9.82113
▁rəqs	-9.82279
▁hadisələri	-9.82282
▁olmaz	-9.82285
▁kim	-9.82287
başına	-9.82365
▁Ad	-9.82422
▁Bunu	-9.82612
▁15-	-9.82613
▁filmlərini	-9.82634
▁keçirildi	-9.8266
▁tayfasını	-9.82678
▁başlandı	-9.82689
▁2008	-9.82689
▁ata	-9.82754
▁Con	-9.82761
▁təlim	-9.82777
▁ver	-9.82792
▁şəhid	-9.82818
▁1943	-9.8293
▁müsabiqə	-9.82931
▁ayı	-9.82944
▁dəstəsi	-9.82952
▁opera	-9.8297
▁təbəqə	-9.83011
▁minlərlə	-9.83046
▁qoydu	-9.83068
▁səsi	-9.83091
▁Səlim	-9.83189
▁tarixçi	-9.83211
▁Bunlarda	-9.83222
▁45	-9.83269
▁Rusiyanı	-9.83352
▁aktrisa	-9.83409
▁ardıcıl	-9.83436
▁yara	-9.83443
▁abidəsi	-9.83521
▁Kuboku	-9.83564
▁gəlmək	-9.83614
▁dinc	-9.83647
▁edil	-9.83739
▁fəaliyyətin	-9.83802
▁edəcək	-9.83868
▁Braziliya	-9.83905
▁pedaqo	-9.83911
▁sarı	-9.83915
▁parlament	-9.8395
wiki	-9.8407
▁Gəncədə	-9.84195
▁hektar	-9.8425
▁şeirlər	-9.84284
▁ruh	-9.84386
▁tip	-9.8439
▁kosm	-9.84405
▁İcra	-9.84472
▁çöl	-9.84492
▁ziyarət	-9.84519
▁1979-	-9.84579
▁gəmi	-9.8468
▁Türkiyəni	-9.84695
▁1983-	-9.84728
▁cəbhə	-9.84741
▁Tiflisdə	-9.84742
▁mükafat	-9.84758
▁proses	-9.8477
▁Səməd	-9.8481
▁doqquz	-9.84877
▁2006	-9.84944
▁heyətində	-9.84957
▁mineral	-9.84995
▁tərzi	-9.85001
▁ərazisini	-9.85003
▁gil	-9.8508
’	-9.8508
▁mülayim	-9.85084
▁olmadığı	-9.85085
▁1939	-9.85088
▁Dərbənd	-9.85139
▁ehtiyat	-9.85169
▁çatmışdı	-9.85291
▁1949	-9.85293
▁yaradılı	-9.85318
▁çəkir	-9.85349
▁sentyabrın	-9.8539
▁göstərdi	-9.85526
▁Dağıstan	-9.8558
▁Nəh	-9.85587
▁adamları	-9.85602
▁hazırlanır	-9.85617
▁proqramı	-9.85629
▁bədən	-9.85636
▁sərkərdə	-9.85659
▁işini	-9.85729
▁daşı	-9.85836
▁Anadolu	-9.85837
▁Qarabağda	-9.85857
▁sinir	-9.859
▁tərəfi	-9.8594
▁1942	-9.8612
eyir	-9.86189
▁uğurla	-9.86191
▁Ömər	-9.86193
▁yürüş	-9.86249
▁atasını	-9.86313
▁Maykl	-9.86347
▁qrupunu	-9.86362
▁qadağan	-9.86364
▁Ölkəni	-9.86402
▁qoşun	-9.86409
▁dəyişdiril	-9.86477
▁Qafqazı	-9.86535
çu	-9.86565
bəri	-9.86615
▁noyabrın	-9.86626
▁mahalını	-9.86674
▁Arif	-9.86722
▁siyahıya	-9.86762
▁başlamışdı	-9.86765
▁Suriya	-9.86774
▁münasibəti	-9.86879
▁Cekson	-9.86929
▁Ordu	-9.87016
▁1962	-9.87136
▁quberniyası	-9.87161
▁xəstəlik	-9.87248
▁getdi	-9.87288
▁Rejissor	-9.87344
▁mükəmməl	-9.87349
▁2017-	-9.87352
▁görmək	-9.87442
▁məsələlər	-9.87458
▁çatan	-9.87503
▁təmiz	-9.87569
▁martın	-9.87585
▁dağları	-9.87681
▁olunduğu	-9.87794
▁7-	-9.87892
birində	-9.87913
▁Səid	-9.87971
▁latın	-9.88029
▁dram	-9.88137
▁qəsəbəsi	-9.88169
▁apardığı	-9.88192
▁yaradıla	-9.88275
▁Şair	-9.8839
▁v	-9.88414
▁1982-	-9.88457
▁yəhudi	-9.88583
▁başçılığı	-9.88644
▁müəssisəsi	-9.88659
▁Lenin	-9.88727
▁dənizin	-9.8873
▁mövsümündə	-9.88812
▁diqqəti	-9.88832
▁İşlər	-9.88856
▁mal	-9.8899
▁əsaslana	-9.89003
▁danışır	-9.89028
▁olmalıdır	-9.89088
▁xaric	-9.89098
▁halında	-9.89117
▁vəzifə	-9.89129
▁özlərini	-9.8914
▁XI	-9.89207
▁Üç	-9.89234
▁Polşa	-9.89298
▁qayıdır	-9.89305
▁alınmış	-9.89431
▁Müdafiə	-9.89447
▁Tərtər	-9.89447
▁xalqların	-9.89511
larda	-9.8952
▁XV	-9.89591
▁filologiya	-9.8962
▁Daxil	-9.8966
▁tədric	-9.8966
▁sırasında	-9.89687
▁fakültəsin	-9.89758
▁boz	-9.89815
▁Ərdəbil	-9.89827
▁Tovuz	-9.89873
▁silsiləsini	-9.89876
▁Fransada	-9.89886
▁mənbəyi	-9.90015
▁imza	-9.90019
▁qoyur	-9.90082
▁oktyabrın	-9.90154
▁şəraitində	-9.90229
▁32	-9.90235
▁Murad	-9.90349
▁üzə	-9.9035
▁Hava	-9.90355
▁əkin	-9.90358
▁münasibətləri	-9.90373
▁sürgün	-9.90385
▁adamlar	-9.90407
▁ərazilər	-9.90419
▁rəssamı	-9.90445
▁əsgər	-9.90467
▁arxa	-9.90502
▁vurdu	-9.90518
▁mənfi	-9.90522
▁8-	-9.9053
▁1986-	-9.90593
▁abidələri	-9.9063
▁yazılı	-9.90651
▁yerlərində	-9.90765
▁dillərini	-9.90769
▁İl	-9.9078
▁gəl	-9.90835
▁Şərqdə	-9.90869
▁xaricdə	-9.90871
▁Təbrizdə	-9.90881
▁gənclər	-9.91032
▁giriş	-9.91129
▁kompleksi	-9.91143
larının	-9.91167
▁qalasını	-9.91305
▁Oğuz	-9.91367
▁Müharibə	-9.91369
▁Şəmkir	-9.91378
▁evində	-9.9139
▁medal	-9.91421
▁Kitab	-9.91538
▁Demə	-9.9157
▁Midiya	-9.916
▁1933	-9.91602
tə	-9.91617
▁faydalı	-9.91622
ta	-9.91653
▁Rüstəm	-9.91674
▁tutmuşdu	-9.91731
▁işğalı	-9.91745
▁dilin	-9.91784
▁Qazaxıstan	-9.91812
▁2004	-9.9194
▁paşa	-9.92002
▁düşmüşdü	-9.92014
▁xanlığını	-9.9203
▁Elm	-9.9206
▁sərf	-9.92071
▁ada	-9.92115
▁Ç	-9.92136
▁kral	-9.9224
▁Salyan	-9.92257
nunla	-9.9228
et	-9.92304
▁Zeynal	-9.92421
▁sahillərində	-9.92434
arası	-9.92436
▁Rayonun	-9.92472
▁köçüb	-9.92483
▁məsafədə	-9.92505
▁XII	-9.92519
larla	-9.92568
▁gücü	-9.92568
▁istəyirdi	-9.92615
▁problemlər	-9.9263
▁verili	-9.92684
▁işləyən	-9.92698
▁nəqliyyat	-9.92734
▁torpaqlar	-9.92758
▁dərman	-9.92766
▁etmir	-9.92779
▁tayfaları	-9.9278
▁layihəsi	-9.92785
▁2010	-9.92812
▁musiqisi	-9.92846
▁əvəzin	-9.92855
▁qazanıb	-9.92908
▁XIV	-9.92976
▁istəyir	-9.92985
siya	-9.92988
▁çıxardı	-9.93016
şərq	-9.93126
▁9-	-9.93175
▁1973-	-9.93202
▁el	-9.93231
▁İngilis	-9.9331
▁Filmdə	-9.93402
▁poçt	-9.93407
▁sahələrdə	-9.93544
▁istiqamətdə	-9.93553
▁məsləhət	-9.93553
▁bağ	-9.93672
▁xalqlarının	-9.93682
▁xal	-9.93769
▁qoşunlarını	-9.93819
▁Neftçi	-9.93863
▁keçib	-9.9392
▁çiçək	-9.93926
əni	-9.93945
▁mü	-9.93971
üstü	-9.93994
▁zərər	-9.93998
▁İstanbulda	-9.94041
▁şəraitdə	-9.94097
▁Çində	-9.94104
▁İmperiyası	-9.94121
▁cəmiyyət	-9.94184
▁Zaqatala	-9.94206
▁Abdulla	-9.94221
▁balıq	-9.94258
vənd	-9.94296
▁Universitetin	-9.9439
▁Bizi	-9.94443
▁Əhalisi	-9.94515
▁qüvvələr	-9.94533
▁məkan	-9.9463
▁Xəlil	-9.94636
▁Misirdə	-9.94638
▁manat	-9.94684
▁dördüncü	-9.94691
▁Televiziya	-9.94719
▁1985-	-9.94771
▁qaya	-9.94785
uş	-9.94882
▁mühafizə	-9.94904
▁bilirdi	-9.94938
▁can	-9.94957
▁tutulur	-9.94965
▁1922	-9.95052
▁heyətini	-9.95084
▁jurnalist	-9.95147
▁90	-9.95154
▁sözlər	-9.95224
▁qəzası	-9.95228
▁hərəkatı	-9.95249
▁Kral	-9.95291
▁Gənclər	-9.95321
▁biləcək	-9.95329
▁ö	-9.95349
▁suda	-9.95364
▁kinostudiyasın	-9.95378
▁Gədəbəy	-9.95521
▁1955	-9.95582
▁aktiv	-9.95601
lərini	-9.9562
▁bayram	-9.95635
▁həcmi	-9.95691
▁bitkilər	-9.95702
▁sədr	-9.95833
▁VI	-9.95851
vər	-9.95852
▁cəmiyyəti	-9.95867
▁müharibədə	-9.95935
▁müddəti	-9.95969
▁satış	-9.95972
▁vətəndaş	-9.95988
▁Pənah	-9.9604
▁terrorçuları	-9.96068
▁səviyyəsi	-9.9614
▁olmaması	-9.96192
▁türklərin	-9.96293
▁muğam	-9.96309
▁iyunun	-9.96328
ey	-9.96376
▁sürətli	-9.96378
▁yetirmiş	-9.9638
▁ailələr	-9.96448
▁müstəqilliyini	-9.96608
▁oyunu	-9.96635
▁Novruz	-9.96719
▁Əsər	-9.96744
▁qiymət	-9.96751
gen	-9.96776
▁inkişafın	-9.96793
▁quş	-9.96815
▁VIII	-9.96822
▁altın	-9.96832
▁hökmdar	-9.9684
▁nümayəndə	-9.96855
▁peşəkar	-9.96861
▁yerlər	-9.96874
▁bilərdi	-9.96938
▁Krım	-9.96939
▁istedad	-9.96977
▁müzakirə	-9.97037
▁kq	-9.97096
▁şöbəsi	-9.97122
▁Sənaye	-9.97177
▁1947	-9.97186
▁öyrənilməsi	-9.97217
▁Mehmed	-9.97222
▁Daş	-9.97356
▁orijinal	-9.97418
▁paytaxt	-9.97458
▁müqavimət	-9.97491
▁polis	-9.97496
miz	-9.97542
▁Azərbaycanı	-9.97553
▁verə	-9.97579
▁mənbələr	-9.97655
▁ərazini	-9.97663
▁sözündən	-9.97695
▁ara	-9.97713
▁1953	-9.97754
kret	-9.97819
▁məğlubiyyət	-9.97862
▁1936	-9.97878
▁Təbii	-9.97888
▁sözlərindən	-9.97916
▁dəstələri	-9.97961
▁eramız	-9.98102
mi	-9.98126
▁medalı	-9.98181
▁Əsgər	-9.98273
▁köməkçi	-9.983
▁möhtəşəm	-9.98335
▁hadisələrin	-9.98416
▁müstəqillik	-9.98424
▁okean	-9.98451
▁piyada	-9.98565
▁riyaziyyat	-9.98652
▁əraziləri	-9.98735
rədd	-9.98777
▁Zəngəzur	-9.98797
▁çayın	-9.98897
х	-9.98941
▁bildi	-9.99039
darma	-9.99041
▁komandiri	-9.99109
▁maldarlıq	-9.99167
▁adaları	-9.99204
▁Çempion	-9.99249
▁fasilə	-9.99265
▁Kommunist	-9.99265
▁dəstək	-9.99407
almağa	-9.99426
▁işlərini	-9.99466
▁İctimai	-9.995
▁yaradıcılığında	-9.99537
▁olanlar	-9.99586
▁sənətini	-9.99624
▁qoşunu	-9.99625
dığı	-9.99657
▁çalışmış	-9.99673
▁ili	-9.99707
▁bölgələrində	-9.99728
▁EA	-9.99821
▁növbədə	-9.9985
▁səthi	-9.9992
▁yağ	-9.99942
▁radio	-9.99968
▁davamlı	-10.0001
▁nazir	-10.0005
ax	-10.0009
▁Partiyasını	-10.0015
▁keçirən	-10.0015
▁kvadrat	-10.0021
▁Çar	-10.0031
▁1977-	-10.0031
▁olduqları	-10.0034
▁qrupun	-10.004
▁saxlamaq	-10.0041
▁açılır	-10.0041
▁Təşkilatı	-10.0041
▁Əfəndiyev	-10.0045
▁qərarın	-10.005
▁150	-10.0052
▁səh	-10.0055
▁həcm	-10.0058
▁rütbəsi	-10.0061
ç	-10.0064
▁romanı	-10.0071
▁məhəbbət	-10.0088
▁IX	-10.009
▁tələbələrin	-10.009
▁qüvvələrin	-10.0094
▁Ümum	-10.0108
▁oxşar	-10.0111
▁həyatın	-10.0112
▁Abdullayev	-10.0117
▁Nərimanov	-10.0119
▁temperaturu	-10.0119
▁fevralın	-10.012
▁birləşdirən	-10.012
es	-10.0125
▁məskunlaşmış	-10.0125
ında	-10.0128
▁xarakter	-10.0129
▁1926	-10.0129
▁jurnalı	-10.0131
▁güc	-10.0132
▁ümum	-10.0137
▁yumurta	-10.0139
▁Futbol	-10.014
▁kitabın	-10.0143
▁Gül	-10.0144
▁doktorlu	-10.0145
▁Leyli	-10.0145
▁materiallar	-10.0147
▁kişilər	-10.0149
▁1923	-10.0152
▁tutulmuş	-10.0153
▁muzey	-10.0154
▁münasibətlər	-10.0165
▁dərk	-10.0172
qərb	-10.0174
▁zamanlar	-10.0177
▁19-	-10.018
▁mövzu	-10.0181
▁fikirlər	-10.0182
▁misal	-10.0193
▁işarə	-10.0204
▁mütəxəssis	-10.0204
▁mənə	-10.0208
▁səyahət	-10.0208
▁33	-10.0215
▁qorunması	-10.0217
▁bitkilərin	-10.0218
▁formalı	-10.0238
▁iştirakçısı	-10.0242
▁zərbə	-10.0244
▁terror	-10.0247
▁həlli	-10.0255
▁müvə	-10.026
▁qəzetini	-10.0262
▁tədqiqatçılar	-10.0267
▁kəndini	-10.0273
▁gətirən	-10.0275
▁adlandırıla	-10.028
▁məsafə	-10.0288
▁zamanlarda	-10.0295
▁ölkəsi	-10.0295
▁şahzadə	-10.0299
▁kafedrasın	-10.03
▁2005	-10.031
▁parça	-10.0314
▁ədədlər	-10.0319
yla	-10.0325
▁Demokrati	-10.0328
▁Şirvanşah	-10.0329
▁yuxarıda	-10.0329
▁aralı	-10.033
▁adamı	-10.0331
▁tutub	-10.0333
▁İbrahimov	-10.0349
▁başında	-10.0349
▁maarif	-10.0351
▁yüngül	-10.0358
▁göstərib	-10.0358
▁məskunlaşması	-10.0362
▁oğlunu	-10.0368
▁bənzər	-10.0369
▁1948-	-10.0377
▁albom	-10.0385
▁Qriqori	-10.0389
▁seçili	-10.039
▁kök	-10.0393
▁heyvanlar	-10.0397
▁getdik	-10.0401
▁Pir	-10.0403
▁tayfası	-10.0408
qları	-10.042
▁edər	-10.0424
liklə	-10.0424
▁qəsəbəsində	-10.0425
▁Baba	-10.0431
▁Urmiya	-10.0434
▁element	-10.0438
▁mərasimi	-10.0441
▁artması	-10.0442
▁divar	-10.0452
▁nəsli	-10.0453
▁Zəngi	-10.0456
▁Göyçay	-10.0457
▁Ölkədə	-10.0463
▁konsert	-10.0464
▁xidmətlərin	-10.0464
▁saxlaya	-10.0481
▁dövlətlər	-10.0483
▁axır	-10.0485
▁ərəblər	-10.0485
▁dəri	-10.0487
▁məişət	-10.0495
▁tutmuş	-10.0497
▁türklər	-10.0503
▁yağış	-10.0506
▁əksinə	-10.0507
▁mədəniyyətini	-10.051
▁oğlan	-10.051
slim	-10.0518
▁sistemin	-10.0519
,5	-10.052
▁anlayışı	-10.0528
▁istisna	-10.0531
▁idarəetmə	-10.0532
▁mədəniyyətin	-10.0535
▁fikri	-10.0535
▁ehtiyac	-10.0541
▁Tehran	-10.0542
▁arası	-10.0549
▁tikintisi	-10.0551
▁dildə	-10.0553
▁yeraltı	-10.0558
▁yemək	-10.0558
▁edildikdə	-10.0559
▁ta	-10.0561
▁cənubunda	-10.0563
▁futbolçu	-10.0564
▁məktub	-10.0568
▁vaxtlarda	-10.0573
adi	-10.0576
▁tədqiqi	-10.0578
▁1952	-10.0581
▁nəzəri	-10.0589
▁Onlarda	-10.0593
▁qat	-10.0594
▁12-	-10.0595
▁Amerikada	-10.06
sk	-10.0602
▁fəhlə	-10.0603
▁abidələr	-10.0612
▁oğulları	-10.0621
▁könüllü	-10.0628
▁Ankara	-10.0631
▁Stalin	-10.0631
▁çıxması	-10.0631
▁təzyiq	-10.0643
▁İli	-10.0648
▁sinif	-10.0649
▁mane	-10.0651
▁nəsil	-10.0656
▁emalı	-10.0668
▁yayılması	-10.0673
▁qalanın	-10.0679
▁1934	-10.0682
azil	-10.0683
▁yaş	-10.0686
▁Qasımov	-10.0688
vasitə	-10.0688
▁alimləri	-10.07
▁salınmış	-10.0702
▁Talış	-10.0706
▁şəraiti	-10.0711
▁Ələkbər	-10.0727
▁həmsərhəd	-10.0732
▁özləri	-10.0737
▁evdə	-10.0737
▁gölü	-10.0739
▁1984-	-10.074
▁Şuşada	-10.0749
us	-10.0749
van	-10.0753
▁xarakterik	-10.0759
▁tipi	-10.0761
▁Sən	-10.0764
▁Parisdə	-10.0771
▁filmin	-10.0775
▁Universitet	-10.0776
▁1931	-10.0784
▁işlənmiş	-10.0787
▁Şahzadə	-10.0791
▁Dağ	-10.0794
▁sözlə	-10.0794
▁məntəqəsini	-10.0806
▁zəruri	-10.0807
▁Radio	-10.0808
▁Goran	-10.0808
▁Hüquq	-10.0808
▁Belçika	-10.0809
▁Babayev	-10.0809
▁Həsənov	-10.081
▁k	-10.0812
▁Şirvanşahlar	-10.0813
▁qurmuşdu	-10.0817
▁olmadan	-10.082
▁avqustun	-10.0822
▁şəhərlərində	-10.0822
▁yağıntı	-10.0833
▁yarandı	-10.0834
▁bölgədə	-10.0839
▁dolu	-10.084
▁Naxçıvanda	-10.0848
▁keçid	-10.0856
▁nəfərə	-10.0857
inki	-10.0858
▁istənil	-10.086
▁telefon	-10.086
▁1924	-10.0861
▁ərazisin	-10.0862
▁400	-10.0869
▁doğulmuşdu	-10.0871
▁vətən	-10.0876
▁peyğəmbər	-10.0885
▁qardaşları	-10.0885
▁Ağdaş	-10.0886
▁rabitə	-10.0895
▁hökumətin	-10.0897
▁Məcnun	-10.0897
▁adlandırılır	-10.0901
▁hamı	-10.0905
▁məktəbə	-10.0908
▁boş	-10.0914
▁Xosrov	-10.0914
▁məsələsi	-10.0925
▁Şərur	-10.0937
▁ikisi	-10.0938
▁yağı	-10.0944
▁mövzusu	-10.0947
▁qoyulmuş	-10.0948
▁alma	-10.0955
▁tünd	-10.0963
xəli	-10.0965
▁Koreya	-10.0967
fa	-10.0968
ant	-10.0969
▁texnika	-10.0974
▁başı	-10.0978
▁yadda	-10.0979
▁Sosialist	-10.0989
▁kv	-10.0994
▁etdirdi	-10.0996
▁bitkiləri	-10.0996
▁saxlayır	-10.0999
▁professoru	-10.0999
▁yolları	-10.1003
▁hesabın	-10.1009
▁Bəzə	-10.1013
▁sığorta	-10.1017
▁Bağırov	-10.1017
▁1925	-10.1017
▁rayonları	-10.1018
▁istəyən	-10.1021
▁ərazilərində	-10.1027
▁imperiyasını	-10.103
▁demişdi	-10.1032
▁insanları	-10.1035
▁Avstraliya	-10.1037
▁stansiyası	-10.1037
▁ibadət	-10.1042
▁Pakistan	-10.1042
▁1929	-10.1043
bəyov	-10.1045
▁Həyat	-10.1047
▁hazırlana	-10.1052
▁1000	-10.1056
▁işlərin	-10.1063
▁işləməy	-10.1066
▁aparmaq	-10.1068
▁işin	-10.107
▁təmir	-10.107
▁sarayı	-10.1072
▁Qurbanov	-10.1073
▁bildirdi	-10.1074
▁hərəkəti	-10.1085
▁mərhələsi	-10.109
▁Çay	-10.1094
▁məbədi	-10.1096
▁keçirib	-10.1098
▁materialları	-10.1104
aq	-10.1107
▁Sara	-10.1116
▁edilməsində	-10.1118
▁şeyi	-10.1118
▁50-	-10.112
▁Davud	-10.112
▁İdman	-10.112
▁öyrənmək	-10.1123
▁istər	-10.1126
▁yaratmış	-10.1128
▁deyilən	-10.1129
▁İdarə	-10.1129
▁şimalında	-10.113
▁bilərlər	-10.1132
▁nümunə	-10.1137
▁qoyun	-10.1137
▁formaları	-10.114
boy	-10.1141
▁Çingiz	-10.1147
▁nəzarəti	-10.1152
▁2007	-10.1153
▁getmiş	-10.1169
▁məqalələr	-10.1173
▁teatrı	-10.1176
▁Daşkənd	-10.1183
▁etdiyini	-10.1183
▁iqlimi	-10.1189
▁təyyarə	-10.1189
▁qəzasında	-10.1197
▁Təbiət	-10.12
▁1932	-10.1202
▁məlumatları	-10.1217
▁təzə	-10.1222
▁cüt	-10.1222
▁Ana	-10.1226
▁narahat	-10.1227
▁1914	-10.1227
▁səciyyəvi	-10.1228
▁çayları	-10.123
əvi	-10.1237
▁boya	-10.1242
▁Kərimov	-10.1256
▁mövqe	-10.126
▁adası	-10.1265
▁millət	-10.1267
▁Aslan	-10.1276
▁şəhərləri	-10.1276
▁dövlətlərin	-10.1277
▁xətt	-10.1279
▁Yəhya	-10.128
▁Mustafayev	-10.1283
▁Komissiyası	-10.1283
▁diplomu	-10.1283
▁yük	-10.1286
▁örtülü	-10.129
▁bulaq	-10.1292
▁yolunda	-10.1292
▁ve	-10.1307
▁adət	-10.1307
▁Əsl	-10.1308
lərinə	-10.131
▁sürəti	-10.1311
▁iyulun	-10.1315
▁lideri	-10.1316
▁Ağca	-10.1323
▁demokrati	-10.1325
▁Nə	-10.1326
▁roman	-10.1331
▁nəvəsi	-10.1334
▁Kiyev	-10.1334
▁olmasa	-10.1335
▁istilik	-10.1338
▁Astara	-10.1344
▁kanalı	-10.1344
▁inqilabı	-10.1356
▁Fondun	-10.1357
▁Liviya	-10.1361
▁Alman	-10.1361
▁Hind	-10.1365
▁nömrəl	-10.1369
▁məqsədlə	-10.1373
▁qabiliyyəti	-10.1374
▁bacısı	-10.1376
▁şirkət	-10.1381
▁şəxslərin	-10.1388
▁aşağıdakılar	-10.1395
▁uşaqları	-10.1396
▁bayramı	-10.1397
▁sülaləsi	-10.1403
▁istiqamət	-10.1416
▁əbədi	-10.1417
▁Fars	-10.1425
▁şərti	-10.1435
ter	-10.1436
▁FİFA	-10.1443
▁38	-10.1444
ralıq	-10.1445
▁antik	-10.1447
▁36	-10.1449
▁yaradan	-10.1449
▁kənarında	-10.1452
▁1935	-10.1458
▁alınır	-10.1458
▁öyrənir	-10.1459
▁Qurban	-10.1465
▁vəzifəsi	-10.1466
▁İsmayılov	-10.1467
çisi	-10.147
▁toplaya	-10.1474
▁kompleks	-10.1481
▁xas	-10.1483
▁arvadı	-10.1488
▁Partiya	-10.1488
▁atı	-10.1493
▁42	-10.1496
▁ölümü	-10.1496
▁axşam	-10.1498
▁mövqeyi	-10.1503
▁göstərilə	-10.1507
▁aşıq	-10.1511
▁nəticələr	-10.1511
▁diqqətini	-10.1512
▁doğulu	-10.1525
▁Orada	-10.1525
▁çəkdiyi	-10.1526
▁dağı	-10.1528
▁sözlərin	-10.1534
▁Vəli	-10.1538
▁ədəbiyyatını	-10.1538
▁müsabiqədə	-10.1549
▁filmlər	-10.155
▁becəril	-10.1552
▁ərəfə	-10.1552
▁səmərəli	-10.1555
▁filmdə	-10.1564
▁seçilə	-10.1564
▁mərkəzləri	-10.1565
▁Müsəlman	-10.1569
▁qüvvəsi	-10.157
▁34	-10.1571
▁üsyanı	-10.1581
▁Hacıyev	-10.1585
pol	-10.1592
▁direktor	-10.1593
▁1906	-10.1597
caq	-10.1599
▁dövlətləri	-10.1599
▁mərhələdə	-10.16
əlinə	-10.1604
oğlu	-10.1607
▁şam	-10.1608
▁Almaniyanı	-10.1614
▁normal	-10.1616
▁region	-10.1617
▁mülki	-10.162
▁cild	-10.1621
▁dəstəyi	-10.1623
▁ilində	-10.1623
▁qapısı	-10.1626
▁mükafatın	-10.1633
▁Məlik	-10.1634
kü	-10.1635
▁riyazi	-10.1635
▁Sakit	-10.1635
▁Teatrını	-10.164
▁gördü	-10.1641
▁verməyə	-10.1644
▁təsəvvür	-10.1648
▁fəsiləsin	-10.1657
▁işçisi	-10.1658
▁təchiz	-10.1662
▁http	-10.1663
▁Kamal	-10.1665
▁düşmüş	-10.1665
▁Şəhəri	-10.1666
▁əfsanə	-10.1672
▁1905-	-10.1679
▁sarayında	-10.1681
▁irsi	-10.1681
▁İqtisadi	-10.1683
▁istirahət	-10.1691
▁Uşaq	-10.1705
▁məscidin	-10.1713
▁Azər	-10.1714
▁suları	-10.1714
▁etməli	-10.1715
ologiya	-10.1718
▁görüb	-10.1719
▁Bəyazid	-10.1719
bədi	-10.172
▁х	-10.1728
▁qapı	-10.1728
▁nəh	-10.173
▁göl	-10.1734
▁turizm	-10.1737
bulaq	-10.1743
▁Nəriman	-10.1744
▁Keçmiş	-10.1747
▁Nəsrəddin	-10.1747
▁tapılmış	-10.1748
▁alimlərin	-10.1749
▁qorumaq	-10.1751
▁yazıları	-10.1755
▁aparılması	-10.1769
onlarla	-10.1775
▁şurası	-10.1775
▁Ssenari	-10.1776
▁edam	-10.1776
▁layihə	-10.1779
▁qoruyu	-10.1784
▁çəkili	-10.1791
▁birlik	-10.1796
▁Atropatena	-10.1804
▁Kaliforniya	-10.1804
▁1951	-10.1804
▁dağlar	-10.1805
▁Ağayev	-10.1806
tədqiqat	-10.1808
▁Bala	-10.1812
▁torpaqların	-10.182
▁şəxsə	-10.1824
▁istefa	-10.183
▁mahalı	-10.183
▁olmay	-10.1831
▁Sosial	-10.1832
▁ailələrin	-10.1841
▁Osmanlılar	-10.1845
▁etdirmiş	-10.1854
▁düzəli	-10.1862
▁xəstə	-10.1863
▁müəssisələri	-10.1872
za	-10.1873
▁səviyyə	-10.1877
▁işlərində	-10.1882
▁Berlin	-10.1882
▁klubunu	-10.1883
▁qablar	-10.1884
▁təklifi	-10.1893
▁vəzifədə	-10.1896
▁heyvanların	-10.19
▁Norveç	-10.1902
▁1928	-10.1902
▁institutun	-10.1905
▁Yunan	-10.1912
▁çəkən	-10.1915
▁Sankt	-10.1918
▁İnformasiya	-10.1918
▁nəslin	-10.192
▁tərcüməçi	-10.1929
ot	-10.1932
▁məhsuldar	-10.1932
▁nəzəriyyə	-10.1933
▁olmasın	-10.1934
▁məşqçi	-10.1935
▁üzüm	-10.1936
▁hücumu	-10.1936
▁bərk	-10.1938
▁dissertasiyası	-10.1952
▁ətrafı	-10.1958
▁nömrə	-10.1961
▁şəhərə	-10.1961
▁dostu	-10.1964
▁Fransanı	-10.1965
▁Ara	-10.1965
▁dövri	-10.1966
▁MK	-10.1978
may	-10.1981
▁keçə	-10.1984
▁qəhrəmanı	-10.1993
▁özəl	-10.2003
▁əlaqəsi	-10.2004
▁qoyub	-10.2004
▁gətirdi	-10.201
▁məzmun	-10.2012
▁klubun	-10.2013
▁Nikolay	-10.2015
▁araşdırmalar	-10.2022
▁sahələr	-10.2025
▁şeirləri	-10.2029
▁Cavid	-10.2033
▁Məktəbin	-10.2034
▁hüquqları	-10.2037
▁olmadığını	-10.2043
▁xəstəliyi	-10.2044
▁ordunu	-10.2046
▁məktəblər	-10.2055
▁feodal	-10.2057
▁kralı	-10.2057
▁Hindistanda	-10.2061
▁torpaqlarını	-10.2062
▁1912	-10.2063
▁Eldar	-10.2063
dağ	-10.2064
▁çalış	-10.2065
▁Məclisi	-10.2066
▁türbəsi	-10.2069
dünya	-10.2071
larından	-10.2076
▁Bolqarıstan	-10.2091
▁Messi	-10.2091
▁deyirdi	-10.2093
▁İsveçrə	-10.2093
▁diametri	-10.2096
▁elementlərin	-10.2097
▁coğrafiya	-10.2101
▁yüksəklikdə	-10.2115
▁türkləri	-10.2117
▁mütəxəssislər	-10.2119
cıl	-10.212
▁sevgi	-10.212
▁məcburiyyətində	-10.212
▁Azərbaycanlı	-10.2122
biri	-10.2122
▁bildirmişdi	-10.2126
▁Şura	-10.213
▁dillər	-10.214
▁səhv	-10.214
▁müsəlmanlar	-10.2147
▁məhsul	-10.2148
▁qarışıq	-10.2149
▁banisi	-10.2149
▁dairəvi	-10.2152
▁çəkildi	-10.2154
▁fəth	-10.2155
▁rəqəm	-10.2161
▁xahiş	-10.2167
ttifaq	-10.2174
▁Yaqub	-10.2182
▁uc	-10.2184
▁oynaya	-10.2184
▁ziyalı	-10.2192
▁Mənim	-10.2192
▁yaradılır	-10.2194
▁Sarı	-10.2196
▁qəzetin	-10.22
▁təpə	-10.2201
▁yarısı	-10.2204
▁uşaqların	-10.2206
dü	-10.2215
birini	-10.2218
▁bilməyə	-10.2219
▁gələcəkdə	-10.2223
▁ət	-10.2224
▁edənlər	-10.2237
amp	-10.2237
▁gəldiyi	-10.2237
▁barəsində	-10.2237
▁yarandığı	-10.224
▁ora	-10.2245
▁sərəncamı	-10.2246
▁ştatı	-10.2247
York	-10.2254
▁keçirili	-10.2254
▁tapılmışdı	-10.2266
▁hökm	-10.2266
yasət	-10.2267
▁Bunları	-10.2267
▁Karl	-10.2268
▁sürə	-10.2269
▁baha	-10.227
▁c	-10.2271
▁May	-10.2276
▁müddətində	-10.2282
▁cərəyan	-10.2285
▁Müəllimlər	-10.2287
▁Yerin	-10.2289
▁Teatrı	-10.2297
▁yazıb	-10.2297
▁efir	-10.2297
▁28-	-10.2298
▁ayrıla	-10.23
xan	-10.2302
▁kəndlərin	-10.2308
▁jurnalını	-10.231
▁yarada	-10.2326
▁nöqtəsi	-10.234
▁rəmzi	-10.2356
▁Bəhram	-10.2356
▁x	-10.2363
▁yazılır	-10.2364
▁peşə	-10.2365
▁sabit	-10.2365
▁Qaraqoyunlu	-10.2368
əzəm	-10.2368
▁gəldikdə	-10.2368
▁adlanırdı	-10.237
▁seçildi	-10.2373
▁monqol	-10.2374
▁yüzil	-10.2385
▁Atlantik	-10.2387
▁Qa	-10.2387
▁görmüşdü	-10.2387
▁bol	-10.2387
▁örtüyü	-10.2393
▁bölgəsi	-10.2411
▁sözün	-10.2414
▁təbliğ	-10.2416
▁Leninqrad	-10.2416
▁azərbaycan	-10.2418
▁tərəfdarları	-10.2421
▁gündəlik	-10.2425
▁sayını	-10.2425
▁yaradıcı	-10.243
▁san	-10.2431
▁17-	-10.2435
▁ağacı	-10.2435
▁adında	-10.2438
▁öldürüldü	-10.2446
▁Bəstəkar	-10.2446
▁Vurğun	-10.2446
▁16-	-10.2447
▁çağırış	-10.2451
▁şəhərlərdə	-10.2461
▁cinsin	-10.2473
▁Nəcəf	-10.2473
▁ölçülü	-10.2474
▁Əfəndi	-10.2476
▁bal	-10.2476
▁1916	-10.2477
▁Afrikada	-10.2478
şərqdə	-10.2481
▁ustası	-10.2482
▁jurnal	-10.2487
▁məni	-10.2488
▁Mü	-10.2494
▁mövsüm	-10.2495
▁maye	-10.2497
▁qoyulur	-10.25
▁yaxındır	-10.2502
▁formalaşmasın	-10.2506
▁qəti	-10.2507
▁kitabları	-10.2514
▁xalqları	-10.2515
ce	-10.2523
sallı	-10.2524
vari	-10.2524
▁planı	-10.2527
▁37	-10.2529
▁məbəd	-10.2529
▁Əfqanıstan	-10.253
▁sağlam	-10.2536
▁sahili	-10.2536
▁iyirmi	-10.2537
▁Qobustan	-10.2537
▁Siyas	-10.2542
▁rəngi	-10.2545
▁zalı	-10.2548
▁şəbəkə	-10.2551
▁vaxtında	-10.2552
▁kafedrası	-10.2554
▁sənətkar	-10.2554
dağın	-10.2563
▁planet	-10.2563
▁11-	-10.2567
▁of	-10.2568
▁Mingəçevir	-10.2568
▁Qusar	-10.2568
▁şirin	-10.2569
▁qurulan	-10.2573
▁çempionatın	-10.2576
lanır	-10.2581
▁Xoca	-10.2585
▁azı	-10.2586
▁varlı	-10.2587
▁mənbələrində	-10.259
▁götürür	-10.2598
▁Əsli	-10.2598
▁Fələstin	-10.2598
▁tunc	-10.2598
▁Memar	-10.2598
▁bütöv	-10.26
▁şəxsin	-10.2606
▁şahı	-10.261
▁bəzək	-10.2616
nu	-10.2617
▁istifadəsi	-10.2619
▁təhlükəli	-10.2619
▁Qarabağı	-10.262
▁TV	-10.262
▁yerləşmiş	-10.2623
▁idarəsi	-10.2623
▁Alp	-10.2624
▁obrazı	-10.2625
▁Avqust	-10.2629
▁Madrid	-10.2629
j	-10.2645
▁Fransız	-10.2649
▁kərpic	-10.2649
▁bitkisi	-10.2651
▁zonasında	-10.2656
▁mədrəsə	-10.2658
▁Türkmənistan	-10.266
▁bürünc	-10.266
▁tuturdu	-10.2664
▁qazanır	-10.2669
▁yazılar	-10.2674
▁mühit	-10.2675
▁inkişafını	-10.268
▁haqqı	-10.2685
▁münasibət	-10.2689
▁minilliy	-10.2691
▁vilayətində	-10.2692
▁əməliyyatı	-10.2695
▁nizam	-10.2697
▁anda	-10.2703
▁sultanı	-10.2705
▁tamaşaçı	-10.2708
▁əməl	-10.2711
▁iqtisadiyyatı	-10.2714
▁yığma	-10.2716
▁çıxarır	-10.2717
▁25-	-10.272
▁danışıqlar	-10.2721
▁Müəllif	-10.2722
▁Üçüncü	-10.2722
▁hazırlıq	-10.2725
▁qızları	-10.2726
▁qəbir	-10.2728
▁dəyərli	-10.273
▁qohum	-10.274
▁zavodu	-10.2742
▁tutula	-10.2743
▁Əhmədov	-10.2749
şad	-10.275
▁Beyləqan	-10.2753
▁təntənə	-10.2753
adiq	-10.2756
▁dosent	-10.2759
▁xalqlar	-10.2759
te	-10.2766
▁xəstəliyin	-10.2766
▁problem	-10.2771
btidai	-10.2782
▁1915	-10.2784
▁təhlükə	-10.2784
▁Millət	-10.2784
▁ədəbiyyatında	-10.2785
▁yazmış	-10.2791
▁istədi	-10.2799
▁nəticələri	-10.28
▁uşağı	-10.2806
▁xarakterli	-10.2812
▁qurulması	-10.2813
▁Məlum	-10.2813
▁məhrum	-10.2815
▁Corc	-10.2816
▁simvolu	-10.2819
▁alındı	-10.2824
▁yataqları	-10.2826
▁qonaq	-10.2832
▁ssenari	-10.2836
▁Əziz	-10.2842
▁kəndlərdə	-10.2845
▁Qorqud	-10.2846
▁Növbə	-10.2847
▁salınmışdı	-10.2854
▁1907	-10.2864
▁qüvvələrini	-10.2867
▁ittifaq	-10.2868
▁Sur	-10.287
ğu	-10.287
▁yaranı	-10.2872
▁adlar	-10.2875
▁18-	-10.288
▁babası	-10.2884
▁işdə	-10.2886
▁faktlar	-10.2895
▁çoxunu	-10.2895
ası	-10.2896
▁prinsipi	-10.2899
▁düşməni	-10.2904
▁Gürcüstanı	-10.2905
▁Bi	-10.2908
▁Mo	-10.2909
▁səthində	-10.2909
▁şəkil	-10.2915
▁əsilli	-10.2918
▁döyüşü	-10.2923
▁imperator	-10.2923
diyi	-10.2929
▁ayaq	-10.2934
▁Mar	-10.2937
▁Cahangir	-10.2938
▁hündürlükdə	-10.294
▁nəslindən	-10.294
▁Koroğlu	-10.2941
▁Lerik	-10.2941
▁birliyi	-10.2946
▁razı	-10.2947
▁material	-10.2947
▁44	-10.2948
▁getmək	-10.2949
▁açır	-10.2949
▁strate	-10.2956
laşdırılması	-10.2957
▁təqib	-10.2957
▁yaradıcılığını	-10.2958
▁Sibir	-10.2964
əşhur	-10.2968
▁Yeddi	-10.2973
▁Şotlandiya	-10.2973
▁gələ	-10.2973
▁taleyi	-10.2992
▁faciə	-10.2992
perator	-10.2994
▁təşkilatın	-10.2998
▁Yunanıstan	-10.2999
▁Tədqiqatçılar	-10.3
▁Bura	-10.3001
▁fövqəl	-10.3005
▁hekayə	-10.3006
▁w	-10.3006
▁Bayram	-10.302
▁durur	-10.3031
▁1927	-10.3035
▁ziyan	-10.3037
▁dostluq	-10.3037
▁1908	-10.3044
▁problemi	-10.3047
▁qazanmış	-10.3048
▁bölmə	-10.3055
ür	-10.3056
▁bilik	-10.3057
▁vəsaiti	-10.3063
▁qadınların	-10.3065
▁illəri	-10.3069
▁Dil	-10.3072
▁göndərir	-10.3081
lərə	-10.3082
▁80-	-10.3083
▁Kilsə	-10.3083
▁zə	-10.3084
▁re	-10.3088
▁Opera	-10.3093
▁Rami	-10.3094
▁Ələsgər	-10.3098
▁Kazım	-10.3098
▁Meksika	-10.3101
▁Rumıniya	-10.3101
▁danışıl	-10.3101
▁mahnıları	-10.3101
▁Argentina	-10.3101
▁qaydaları	-10.3108
▁mənşəyi	-10.3115
ıq	-10.3116
▁60-	-10.3118
▁məntəqələri	-10.3122
▁Ordusu	-10.3123
g	-10.3129
▁mübarizədə	-10.3131
▁600	-10.3133
▁beyin	-10.3133
▁Vəzirov	-10.3135
▁nümunəsi	-10.3144
▁cinayət	-10.3146
▁muzeyi	-10.3148
▁1992	-10.3154
fi	-10.316
▁75	-10.3164
▁səbəblər	-10.3165
▁təmsilçisi	-10.3167
▁Müsabiqəsi	-10.3174
ala	-10.3178
▁Oktyabr	-10.3198
▁italyan	-10.3198
▁əxlaq	-10.3198
▁qoyuldu	-10.3198
▁ot	-10.32
▁düzündə	-10.3202
▁iqtisadiyyat	-10.3204
▁tərəfin	-10.3205
nt	-10.3211
▁ailəsini	-10.3216
▁xüsusiyyəti	-10.3221
▁obyekti	-10.3222
▁müşayiət	-10.323
▁müvəffəqiyyətlə	-10.3232
▁Londonda	-10.3241
▁başlanmışdı	-10.3255
▁iqtisadiyyatın	-10.3261
▁təzyiqi	-10.3265
▁oxumuşdu	-10.3265
▁hazırlamaq	-10.3266
▁dənizində	-10.327
▁təşkili	-10.3271
▁f	-10.3273
▁bəstəkarı	-10.3274
▁əsərlərin	-10.3274
▁Parlamentin	-10.3275
▁daşlar	-10.329
▁məlumatı	-10.3292
▁keçirmiş	-10.3293
▁bilmişdir	-10.3293
▁şübhə	-10.3295
▁Gürcüstanda	-10.3296
▁Rəsulzadə	-10.3297
▁Rzayev	-10.3298
▁Təhlükəsizli	-10.3302
gün	-10.3304
▁üslub	-10.3315
▁Əbülfə	-10.3321
▁komandasını	-10.3325
▁orden	-10.3332
▁tut	-10.334
▁türbə	-10.3344
▁əri	-10.3346
▁xalçalar	-10.3348
▁siyasətini	-10.335
▁maşın	-10.3354
▁100-	-10.3356
▁havada	-10.3359
▁salmış	-10.3362
▁Özbəkistan	-10.3362
▁dağətəyi	-10.3362
▁ölçüsü	-10.3363
▁xəstəxana	-10.3364
▁Bax	-10.3366
▁arxasında	-10.3366
▁toy	-10.3371
▁məhsulu	-10.3372
▁250	-10.3372
▁ekran	-10.3379
▁əsərdə	-10.3385
▁gərgin	-10.3385
▁həqiqətən	-10.3386
▁2002	-10.3389
▁qayıtdı	-10.3391
▁məktəbləri	-10.3393
▁bütövlük	-10.3394
▁əmisi	-10.3397
kləri	-10.3397
▁mahnılar	-10.34
▁Muzeyin	-10.3416
▁jurnalında	-10.3417
▁məktəblərində	-10.342
▁Rəşid	-10.3427
▁Harri	-10.3428
▁nazik	-10.3428
▁Aydın	-10.3429
▁pambıq	-10.3429
nü	-10.3432
▁Yüz	-10.3434
▁vasitə	-10.3438
▁qəhvə	-10.3438
▁De	-10.3439
▁adamların	-10.344
▁istərs	-10.3445
▁hərəkatını	-10.3448
▁model	-10.3455
▁bank	-10.3461
▁Məmmədquluzadə	-10.3462
▁hədiyyə	-10.3462
▁inşaat	-10.347
▁ordusunda	-10.3472
▁qurulmuşdu	-10.3478
▁surəsi	-10.3479
▁açılışı	-10.3489
suz	-10.3491
lığında	-10.3493
▁1913	-10.3495
▁gündə	-10.3496
▁tapır	-10.3505
▁bəyan	-10.351
iv	-10.3511
▁keçirmişdi	-10.3514
▁kitabını	-10.3517
▁tərbiyə	-10.3522
▁qərbində	-10.3523
▁zamanında	-10.3523
▁maksim	-10.3528
▁Tağıyev	-10.3529
▁Qəzet	-10.353
▁800	-10.3532
▁Ayrı	-10.3532
▁texnologiyaları	-10.354
▁polkovnik	-10.3545
▁plan	-10.3549
▁bax	-10.3562
▁varis	-10.3562
▁Vladimir	-10.3562
▁sistemləri	-10.3564
▁kitablar	-10.3565
▁kəşfiyyat	-10.3569
▁gəmisi	-10.3575
ium	-10.3576
▁gəlin	-10.3576
▁edilməsini	-10.3581
▁Na	-10.3591
▁obrazlar	-10.3592
▁Müsavat	-10.3596
▁cavan	-10.3596
▁dönəmində	-10.3597
▁bölməsi	-10.3598
▁Ey	-10.3599
▁məhdud	-10.36
▁Yazıçı	-10.3603
qar	-10.3604
dəmir	-10.3606
▁Ham	-10.3606
▁prosesində	-10.3609
▁1910	-10.3618
▁tar	-10.3619
D	-10.3622
tərəfl	-10.3622
▁Məktəbi	-10.3624
▁vəhşi	-10.363
▁aktrisası	-10.3639
▁Əvvəlcə	-10.3642
▁fəlsəfəsi	-10.3643
▁tayfalar	-10.3643
▁hissələrində	-10.3644
▁sülaləsini	-10.3648
▁keçirilmişdi	-10.3656
▁şərh	-10.3659
▁çatmış	-10.3659
▁payız	-10.3663
▁işlədiyi	-10.3665
▁əsna	-10.3665
▁vasitələri	-10.3666
▁alması	-10.3676
▁nəql	-10.3676
qərbdə	-10.3677
▁ilahi	-10.3681
▁termini	-10.3688
lıqla	-10.3692
▁Fərhad	-10.3698
▁kompozisiya	-10.3701
▁Coğrafi	-10.3704
▁fərqlənmə	-10.3709
▁fəaliyyətində	-10.371
▁sarayın	-10.3713
▁çəkisi	-10.3717
▁soyqırımı	-10.3726
▁quruldu	-10.3732
▁Kipr	-10.3732
▁İskəndər	-10.3732
▁Əkbər	-10.3732
▁İş	-10.3734
▁şərqində	-10.3734
▁əlifbası	-10.3751
▁120	-10.3753
▁43	-10.3759
▁həyatda	-10.3763
▁dəyişdi	-10.3764
▁Latın	-10.3767
▁oynayı	-10.3772
▁birləşmələri	-10.3775
▁hesabla	-10.3776
▁əməkdaşları	-10.3776
▁tamaşalar	-10.3779
▁olmamışdı	-10.378
▁enerjisi	-10.3785
▁Sasanilər	-10.3786
▁səhnəsində	-10.3788
▁təxmin	-10.379
▁nəşri	-10.3798
▁vəziyyətini	-10.3799
dar	-10.38
▁Pyotr	-10.3801
▁Yevlax	-10.3801
▁Gülüstan	-10.3801
▁bilmək	-10.3804
▁14-	-10.3804
ətən	-10.3804
▁dəqiqədə	-10.3805
▁sənətkarlıq	-10.3818
▁rolları	-10.382
▁məcburi	-10.3826
▁Təhmasib	-10.3826
▁qruplar	-10.3831
▁zabit	-10.3835
▁birləşdirir	-10.3841
▁populyar	-10.3841
bt	-10.3847
şən	-10.3848
göl	-10.3848
▁bərpası	-10.385
▁qüdrət	-10.3853
▁Ermənilər	-10.3854
▁şagird	-10.3859
▁sən	-10.3863
▁keçməsi	-10.3865
▁Adil	-10.3866
▁hazırlanmasında	-10.3867
▁qiymətləndiril	-10.3867
▁çal	-10.387
▁Barselona	-10.387
▁Makedoniya	-10.387
▁qalın	-10.387
▁qatıldı	-10.3871
▁tüstü	-10.3871
▁Robert	-10.3872
▁xaç	-10.3875
▁Bağdad	-10.3875
▁Qum	-10.3884
▁partiyası	-10.3891
▁65	-10.3898
▁yaşayıb	-10.3905
▁istinad	-10.3908
▁Albaniyası	-10.391
▁Qarayev	-10.3912
▁yaradıcısı	-10.3912
▁faiz	-10.3921
▁görünə	-10.3924
▁yaşamışdı	-10.3926
▁yolda	-10.3934
▁binanı	-10.3936
▁düşüncə	-10.3937
▁Ziya	-10.3937
▁məsul	-10.394
▁mənbə	-10.3943
▁cəmiyyətdə	-10.3943
▁içki	-10.3944
▁Güne	-10.3946
▁Liqası	-10.3948
▁arı	-10.3949
▁Ağqoyunlu	-10.3951
▁orqanizmin	-10.3955
▁qurulmuş	-10.3958
▁Qar	-10.396
▁maddələrin	-10.3962
▁Tək	-10.3974
▁mahalında	-10.3975
▁Ərazi	-10.3977
əsən	-10.3978
▁şəxsiyyət	-10.3984
▁məşğuldur	-10.3988
▁vilayət	-10.3989
▁müəssisə	-10.3989
▁imperiya	-10.3991
▁ehtiyatları	-10.3991
▁tökülü	-10.3992
▁imperatoru	-10.3998
▁Şəhərdə	-10.4007
▁yerləşdirilmiş	-10.4008
▁Bakını	-10.4008
▁dəyişiklik	-10.4008
▁döyüşə	-10.401
axşı	-10.401
▁Federa	-10.401
▁əziyyət	-10.4011
▁günah	-10.4013
▁texnikası	-10.4013
▁elementlər	-10.4015
▁sənədlər	-10.4018
do	-10.4027
▁aparmışdı	-10.403
▁universiteti	-10.4037
▁miqyas	-10.4039
▁zonası	-10.404
▁ayına	-10.4041
▁süvari	-10.4041
▁deyirlər	-10.4043
▁Borçalı	-10.4046
▁Danimarka	-10.4046
▁suvarma	-10.4046
▁Altay	-10.4046
▁deyib	-10.4047
▁xəzərlər	-10.4047
▁yerin	-10.4049
▁Finlandiya	-10.4054
▁evin	-10.4059
▁sayılırdı	-10.406
▁tayfaların	-10.4062
▁döyüşündə	-10.4064
▁Ermənistanda	-10.4066
▁qanunları	-10.4074
▁çevrilmiş	-10.4076
▁Dünyada	-10.4079
▁əsgərləri	-10.408
▁yaradıb	-10.4081
▁bər	-10.4083
▁Müsabiqəsində	-10.4087
▁hakimiyyətdə	-10.4091
▁uzanır	-10.4093
mız	-10.4097
▁sərhədləri	-10.4097
▁oyunçu	-10.4099
P	-10.41
▁çempionatı	-10.4102
▁institut	-10.4103
▁çempionatını	-10.4104
▁günlərdə	-10.4107
▁konfrans	-10.4111
▁Qız	-10.4112
▁eli	-10.4119
▁Qandi	-10.4122
▁qurdu	-10.4125
▁buradan	-10.4125
▁Kubokunu	-10.4127
▁kitabxanası	-10.4127
▁haqq	-10.4128
▁əsaslanır	-10.4135
▁Abbasov	-10.4144
▁qalınlığı	-10.4145
▁problemlərin	-10.4149
▁işlə	-10.4151
▁gövdə	-10.4152
▁...	-10.4153
▁NATO	-10.4153
▁dağını	-10.4153
▁təqdir	-10.4153
çısı	-10.4156
▁tapmaq	-10.4157
▁xadimləri	-10.4163
▁olun	-10.4163
▁Van	-10.4167
▁Bəy	-10.4167
▁istəyi	-10.4173
▁ri	-10.4174
▁46	-10.4181
▁namaz	-10.4181
▁İngiltərədə	-10.4186
▁dostları	-10.4188
qara	-10.4188
▁Portuqaliya	-10.4189
▁ifaçısı	-10.4193
▁düzənlik	-10.4194
▁Qars	-10.4198
▁ispan	-10.42
▁təcrübəsi	-10.4201
▁qurğu	-10.4203
▁əlaqəli	-10.4205
▁rəqib	-10.4209
▁Təbrizi	-10.4212
▁sentyabrında	-10.4215
▁səth	-10.4219
▁oranı	-10.422
▁Texnik	-10.422
▁mexanik	-10.422
▁Ön	-10.4221
▁toponimi	-10.4223
▁2003	-10.4224
▁Tahir	-10.4224
▁Cəlal	-10.4225
▁övladları	-10.4227
▁fikrini	-10.4228
ük	-10.4231
unda	-10.4234
asiya	-10.4237
▁Bina	-10.4243
▁çarı	-10.4245
▁sona	-10.4248
▁qab	-10.425
▁Gör	-10.4258
▁tərəvəz	-10.4259
▁13-	-10.4259
ğın	-10.426
▁Maraqlı	-10.4261
▁limanı	-10.4261
▁Nazi	-10.4262
▁Təsərrüfatı	-10.4262
▁bəlli	-10.4264
▁təsirini	-10.4265
uq	-10.4266
tay	-10.4272
▁araşdırma	-10.4276
▁dağlarını	-10.428
▁xoş	-10.4284
▁quruluşunu	-10.4291
▁Dəmir	-10.4296
▁tropik	-10.4297
▁göndərdiyi	-10.43
▁diplomati	-10.4301
▁qaça	-10.4304
▁sahəni	-10.431
▁etdirilir	-10.4311
▁mərkəzlərində	-10.4312
▁Quru	-10.4315
qanlı	-10.4316
▁un	-10.4318
▁köçmüş	-10.4318
▁qorxu	-10.432
▁adlarını	-10.4325
▁ərzaq	-10.4331
▁qoymuş	-10.4333
▁yollar	-10.4335
ul	-10.4337
▁açı	-10.4339
▁etməlidir	-10.434
▁bilmirdi	-10.4342
▁memar	-10.435
kcə	-10.436
▁başlanı	-10.4366
▁siz	-10.4368
▁fon	-10.4369
▁Venesiya	-10.437
▁39	-10.4371
çülü	-10.4375
00	-10.4378
▁qazıntı	-10.438
▁ittiham	-10.4381
▁praktik	-10.4383
▁rəvayət	-10.4384
▁Nazirliyin	-10.4387
▁40-	-10.4388
▁göndərilmiş	-10.4394
▁dekabrında	-10.4398
▁etməkdə	-10.4399
▁axını	-10.4403
▁seçmə	-10.4405
▁Ağstafa	-10.4406
▁Yanvar	-10.4406
▁münasibətlərin	-10.441
▁tapa	-10.441
▁çəkmək	-10.4413
▁şirkətin	-10.4422
▁çıxara	-10.4426
▁Müsabiqə	-10.4427
▁inşası	-10.443
▁birləşmiş	-10.4434
▁göndərilir	-10.4434
▁zərb	-10.4434
▁kol	-10.4436
▁silsiləsi	-10.4438
▁Napoleon	-10.4443
▁mavi	-10.4445
▁70-	-10.4447
▁səhiyyə	-10.4449
▁aparmış	-10.4459
▁Mənbələr	-10.446
▁Mükafatı	-10.4467
▁olardı	-10.447
▁nömrəsi	-10.4471
▁iç	-10.4472
▁öldürmüş	-10.4473
▁süd	-10.4477
▁San	-10.4479
▁Sultanov	-10.4481
▁daşları	-10.4481
▁monoqrafiya	-10.4483
▁Səd	-10.4484
lənir	-10.4487
▁Peyğəmbər	-10.4497
▁va	-10.4497
▁İnstitutun	-10.4506
▁formalaşması	-10.4506
▁ndə	-10.4509
sının	-10.451
▁qayıda	-10.4511
▁səhra	-10.4512
▁məbədin	-10.4516
▁video	-10.4517
▁Vəliyev	-10.4519
▁Quran	-10.4521
▁işində	-10.4521
▁dolları	-10.4522
▁Cəmil	-10.4524
▁yazılmışdı	-10.4524
▁islahatlar	-10.4527
ster	-10.4529
▁dahi	-10.4531
lanan	-10.4534
▁yaranma	-10.4536
▁mədə	-10.4539
▁nəşriyyatı	-10.4541
az	-10.4543
▁ingilislər	-10.4548
▁hissi	-10.4552
▁körpü	-10.4552
▁rəsm	-10.4553
▁1911	-10.4553
▁filialı	-10.4554
▁Yardım	-10.4554
▁Şəfi	-10.4554
▁bilsin	-10.4555
▁burda	-10.4555
▁aralarında	-10.4555
▁gətirdiyi	-10.4556
▁gərək	-10.456
▁Mirzəyev	-10.4563
▁yetirir	-10.4571
▁küçə	-10.4572
▁səhər	-10.4573
▁oktyabrında	-10.4575
▁kağız	-10.4581
▁götürüb	-10.4591
▁buğda	-10.4592
▁etsin	-10.4592
▁bildirilir	-10.4592
▁illiyi	-10.4594
▁meydanında	-10.4598
▁duz	-10.4606
▁məskəni	-10.4607
▁məsələlərin	-10.4612
▁ortasında	-10.4621
ton	-10.4623
▁keçirməyə	-10.4632
▁Ev	-10.4633
▁sıxlığı	-10.4644
nik	-10.4665
▁Kəngərli	-10.4666
▁döyüşlər	-10.4669
▁İdarəsi	-10.4672
▁müvəffəqiyyət	-10.4673
▁sinfi	-10.4674
ard	-10.4677
▁şəbəkəsi	-10.4677
▁kafedra	-10.4679
texnik	-10.4681
▁ənənələri	-10.4685
▁dövrümüzə	-10.4688
▁mübadiləsi	-10.4693
S	-10.4695
▁ixrac	-10.4699
▁Bakıxanov	-10.4704
para	-10.4709
▁ni	-10.4709
▁addım	-10.471
bir	-10.471
▁vəsait	-10.4711
▁Xorasan	-10.4714
▁oynamış	-10.4714
▁bazası	-10.4716
▁Cüm	-10.4722
▁Konservatoriya	-10.4723
▁bilməmişdi	-10.4727
▁martında	-10.473
▁imkanları	-10.4737
▁Rəhim	-10.4738
▁intellekt	-10.4742
▁təbabət	-10.4742
▁Texnologiya	-10.4742
▁sair	-10.4744
▁ömür	-10.4746
▁ölçüləri	-10.475
▁təh	-10.4753
▁it	-10.4755
▁apardı	-10.4758
▁komitəsi	-10.4777
▁ulduzlar	-10.4778
▁2011	-10.478
▁əşyalar	-10.4781
▁ipək	-10.4782
▁etdirdiyi	-10.4782
▁publisist	-10.4782
▁rejimi	-10.4791
▁basqın	-10.4792
▁azadlığı	-10.4794
▁əli	-10.4795
▁poeziya	-10.4797
▁Macarıstan	-10.48
▁əhəmiyyətini	-10.4803
▁çətinliklər	-10.4805
▁Tbilisi	-10.4806
uz	-10.4806
▁qışla	-10.481
▁nöqtə	-10.4814
▁dekorativ	-10.4819
▁uca	-10.4824
▁1970	-10.4827
▁həddə	-10.4832
▁ölkəsində	-10.4837
▁səma	-10.4838
▁emal	-10.4839
üksək	-10.484
▁bölgələrdə	-10.4845
▁beşin	-10.4849
▁Qısa	-10.4857
▁aşağıda	-10.4858
▁atmosfer	-10.4858
ıb	-10.4861
▁çıxa	-10.4865
▁açılması	-10.4867
▁vulkan	-10.4873
ləşdirilmiş	-10.4876
▁üsul	-10.4879
▁qurultayın	-10.4881
▁Ailə	-10.4886
ski	-10.4889
▁komissiyası	-10.489
▁köçəri	-10.4893
▁fikirləri	-10.4893
▁fakt	-10.4893
▁Culfa	-10.4895
▁yararlı	-10.4895
ko	-10.4899
▁Oyunları	-10.4907
▁Rusiyası	-10.4916
▁göstərici	-10.4917
▁48	-10.492
▁mün	-10.4923
▁xanımın	-10.4923
▁Yelizavet	-10.4928
▁xəstəliklərin	-10.4928
▁hissələr	-10.4932
▁Heç	-10.4934
▁müttəfiq	-10.4936
çıq	-10.4939
▁buz	-10.4941
razılıq	-10.4945
▁cins	-10.4953
▁Cəmiyyəti	-10.4957
▁məlumatların	-10.4958
▁partiyasını	-10.4959
▁təkan	-10.496
xa	-10.4961
Q	-10.4964
▁əsgəri	-10.4968
▁Balet	-10.4973
▁adlanmış	-10.4973
▁Şamil	-10.4973
▁1991	-10.4974
▁yarpaqları	-10.4975
▁başda	-10.4981
▁orqan	-10.4981
▁institutu	-10.4982
▁soyqırım	-10.4983
▁şərab	-10.4986
▁məclis	-10.499
▁Əlizadə	-10.4991
▁bəzədilmiş	-10.4992
▁geyim	-10.4994
▁göstərə	-10.4996
▁təhlil	-10.4996
▁qiyməti	-10.4998
▁salır	-10.5
▁verməsi	-10.5005
▁Məhkəmə	-10.5005
▁Qış	-10.5009
ahid	-10.5009
▁lirik	-10.5012
▁təxəllüsü	-10.5012
▁Hollandiya	-10.5012
▁Ələkbərov	-10.5019
▁Səfi	-10.5029
▁mövcudluğu	-10.5036
▁tabeliyində	-10.5039
▁görmə	-10.5041
▁xanəndə	-10.5049
▁qardaş	-10.505
▁Müstəqil	-10.505
▁Kuba	-10.505
mental	-10.5051
▁rahat	-10.5053
▁komponent	-10.5055
▁düşərgə	-10.5055
▁birləşməsi	-10.5056
▁ulduzu	-10.5057
▁ayrılmış	-10.506
ləndirilməsi	-10.5064
▁yürüşü	-10.5065
▁xəbəri	-10.5068
▁bitirən	-10.5069
▁Şahma	-10.5072
▁görülə	-10.5072
▁26-	-10.5078
▁vətəni	-10.5081
▁Mart	-10.5085
▁Həbib	-10.509
▁rəqabət	-10.509
▁uzanan	-10.5091
▁təbiəti	-10.5091
ros	-10.5096
▁minə	-10.5101
▁Ondan	-10.5101
▁Hüseynzadə	-10.5102
▁Kamil	-10.5104
▁ixtira	-10.5104
▁Cəfərov	-10.5104
▁ged	-10.5107
▁Kərbəlay	-10.5109
▁qum	-10.5115
▁olmağı	-10.5119
▁sahələrini	-10.5124
▁kəsi	-10.5124
▁elementləri	-10.5128
▁Stad	-10.5129
▁kapitan	-10.5129
▁tanrı	-10.5129
▁satir	-10.513
▁göstərməyə	-10.5132
▁alçaq	-10.5132
▁tələbələri	-10.514
▁döyüşçü	-10.514
▁çıxmaq	-10.5142
▁diplomat	-10.5145
▁rayonda	-10.5145
▁Heyəti	-10.5149
▁binalar	-10.5153
▁çıxarıla	-10.5154
qala	-10.5154
▁and	-10.5158
▁yollarını	-10.5159
rü	-10.5163
▁dissertasiya	-10.5167
▁proqramlar	-10.5168
▁vəsiqə	-10.5169
▁nəfəs	-10.5169
▁qaranlıq	-10.5169
▁seçkilərində	-10.5169
▁məntiqi	-10.517
▁musiqisini	-10.5171
▁1989	-10.5172
▁faizi	-10.5173
▁şəkli	-10.5173
▁məskunlaşmışdı	-10.5175
▁Qadın	-10.5178
▁məşqçisi	-10.5179
▁yetirə	-10.5184
▁2001	-10.5184
▁tutulmuşdu	-10.5187
▁Torpaq	-10.5188
▁texnologiyası	-10.5197
▁İsfahan	-10.5198
▁katib	-10.52
▁sahəsini	-10.5207
▁Həqiqət	-10.5208
▁Venera	-10.5208
▁Nəsimi	-10.5208
▁Serbiya	-10.5208
▁ka	-10.5209
▁versiyası	-10.521
▁mə	-10.5211
▁dağlarında	-10.5214
▁yaşına	-10.5215
▁tədqiqatçı	-10.5216
▁saldı	-10.5218
▁oyunun	-10.522
▁proseslər	-10.5221
▁Əbdül	-10.523
▁1900	-10.5231
▁məqalələri	-10.5242
▁noyabrında	-10.5247
▁olmayıb	-10.5249
▁1998	-10.5249
▁balaca	-10.5252
▁laboratoriya	-10.5256
▁hökumətini	-10.526
ulla	-10.5261
▁bacarıq	-10.5261
▁Əliyeva	-10.5262
▁məsuliyyət	-10.5264
▁torpağı	-10.5265
▁27-	-10.527
▁fərq	-10.5274
ut	-10.5276
axan	-10.5288
▁bağlanmış	-10.5288
▁g	-10.5293
▁Bədi	-10.5294
▁Daşkə	-10.5294
▁Fəlsəfə	-10.5298
▁müdafiəsi	-10.5298
▁səfəri	-10.5303
▁əşyaları	-10.5305
▁işlənir	-10.5313
▁məzmunu	-10.5314
▁arta	-10.5314
▁Çələbi	-10.5317
▁əla	-10.5318
▁torpağın	-10.5319
▁ehtiyatı	-10.5322
▁İnternet	-10.5322
lo	-10.5324
▁Mikayıl	-10.5328
▁oxuduğu	-10.5328
▁Zakir	-10.5328
▁О	-10.5329
▁Vahid	-10.5329
▁yığ	-10.5334
▁görülür	-10.5337
▁gəlirdi	-10.5339
▁ehtiyacı	-10.534
▁olunmasında	-10.534
▁daşıyırdı	-10.5344
▁atom	-10.5344
▁təbiətin	-10.5347
▁ayə	-10.5349
▁Marağa	-10.5349
▁yerləşməsi	-10.535
▁olunmaq	-10.5355
▁dairəsində	-10.5358
▁muzeyin	-10.5361
▁uzunluğunda	-10.5365
▁ölü	-10.5368
▁BDU	-10.5369
▁Ağdərə	-10.5369
▁Anadoluda	-10.537
▁universitetləri	-10.5372
▁1996	-10.5373
▁incə	-10.5375
▁0,	-10.5375
▁yurdu	-10.5381
Peterburq	-10.5383
▁la	-10.5384
▁sax	-10.5389
▁mükafatını	-10.5403
▁Beş	-10.5407
▁reklam	-10.5409
▁bildirib	-10.541
▁varlıq	-10.5412
▁yanvarında	-10.5412
▁1993	-10.5414
namə	-10.5415
▁Min	-10.5416
▁ocağı	-10.5418
▁Mars	-10.5418
▁əməliyyatlar	-10.5421
▁qrupları	-10.5425
▁qalmaqda	-10.543
▁görüş	-10.5432
▁oxuya	-10.5438
▁şeylər	-10.5438
▁meşələr	-10.5438
▁Ulduz	-10.5443
▁hüceyrə	-10.5445
▁uğursuz	-10.5446
▁kəsilmiş	-10.5447
▁Al	-10.5449
▁qoca	-10.545
▁dəhşətli	-10.5455
▁qaldığı	-10.5456
▁hala	-10.5457
▁Za	-10.5458
▁məhsullarını	-10.5472
▁ənənə	-10.5472
▁yığması	-10.5478
▁Qor	-10.548
▁struktur	-10.548
▁Aktyor	-10.549
▁yun	-10.5495
▁formasını	-10.5499
▁yanaşma	-10.5506
▁evləri	-10.551
▁fakültəsi	-10.5514
▁Gəncəvi	-10.5518
▁fərqlənə	-10.5521
▁səfiri	-10.5521
▁proseslərin	-10.553
▁Şəhid	-10.5532
▁Xətai	-10.5532
▁Zaman	-10.5533
▁üstə	-10.5534
▁öyrənən	-10.5536
▁şiə	-10.5539
▁yaşa	-10.5551
▁oyunlarında	-10.5552
▁qaçqın	-10.5552
▁işləni	-10.5553
▁ox	-10.5558
▁bəxş	-10.5559
▁Cəmiyyətini	-10.556
▁hamısını	-10.5562
▁Demokrat	-10.5563
▁On	-10.5564
▁gətirmişdi	-10.5569
▁do	-10.557
▁edirəm	-10.5571
▁möcüzə	-10.5573
▁götürmüşdü	-10.5573
▁zəmin	-10.5573
▁sufi	-10.5573
▁Kürd	-10.5575
▁yayı	-10.5576
▁molla	-10.5577
▁dəyişməsi	-10.5578
▁sual	-10.5581
▁ədalət	-10.5582
▁komandanlığı	-10.5603
▁işləmək	-10.5604
▁sürət	-10.5604
▁Şamaxıda	-10.5606
▁əzələ	-10.5607
▁payı	-10.5611
▁Li	-10.5613
▁Ceyms	-10.5614
▁Şərəf	-10.5614
▁lent	-10.5614
▁sənətin	-10.5617
▁komissiya	-10.562
son	-10.562
▁qabığı	-10.5621
▁dayanır	-10.5622
müddətli	-10.5626
▁Saray	-10.5628
▁vuran	-10.5631
▁Ata	-10.5632
▁Məktəb	-10.5639
▁vasitələr	-10.5641
üstə	-10.5647
▁sırada	-10.5647
▁torpaqlarda	-10.5648
▁keçmək	-10.5648
▁olunmasını	-10.5648
▁bilmə	-10.5649
▁qa	-10.5653
▁psixolo	-10.5656
▁İlyas	-10.5658
▁köçür	-10.5658
▁Manna	-10.5659
le	-10.5662
▁məskən	-10.5669
▁poetik	-10.5669
▁sakit	-10.5673
ld	-10.5675
▁ideya	-10.5678
▁Ailəli	-10.5678
▁hazırlığı	-10.5684
▁dağın	-10.5686
▁Maarif	-10.5689
▁məktəblərdə	-10.5691
▁qələbəsi	-10.5691
▁mahnını	-10.5694
▁ünsiyyət	-10.5697
▁yumşaq	-10.5697
▁yayılır	-10.5699
▁rəğbət	-10.5701
▁inkar	-10.5702
▁qanunlar	-10.5702
▁başlanması	-10.5705
▁cəza	-10.5716
əlkə	-10.5719
124	-10.5724
▁sizin	-10.5726
▁günlərində	-10.5732
▁uşaqlıq	-10.5732
▁Dədə	-10.5735
▁dünyanı	-10.5739
▁əzəmət	-10.5739
▁Vyana	-10.574
▁respublikamız	-10.5742
▁şəhərlər	-10.5743
▁55	-10.5743
▁rütubətli	-10.5747
▁gücünü	-10.5747
▁Parlament	-10.575
buk	-10.5755
▁gedə	-10.576
▁torpaqlarında	-10.5764
▁qoyula	-10.5769
▁biznes	-10.577
▁ifadəsi	-10.5776
▁Yaponiyada	-10.5776
▁Məmmədova	-10.5777
▁xidmətlər	-10.578
▁dərində	-10.578
▁idarəsində	-10.5781
▁Dadaşov	-10.5783
▁oynadığı	-10.5783
▁Paşanı	-10.579
▁sülalə	-10.5791
▁Zeynalov	-10.5792
▁edilməyə	-10.5793
▁bulağı	-10.5794
▁göndərilmişdi	-10.5801
▁təşkilatlar	-10.5802
▁Şirvani	-10.5803
▁müəllimlik	-10.5805
▁bölgəni	-10.5809
▁icma	-10.5809
▁kəndlərində	-10.5809
op	-10.5812
▁Tu	-10.5812
▁olmadı	-10.5814
▁ömrü	-10.5818
▁təhlükəsiz	-10.5819
▁hək	-10.582
▁mayında	-10.582
larına	-10.5821
▁etdirib	-10.5824
▁imzaladı	-10.5825
▁tapıla	-10.5829
▁sahibdir	-10.5831
▁1999	-10.5833
▁Yu	-10.5834
▁yaşamağ	-10.5836
▁kitabda	-10.5836
▁Cümhuriyyətini	-10.5839
▁edilməli	-10.5841
▁sizə	-10.5841
▁Xa	-10.5843
ləşdirilməsi	-10.5852
▁öldürülmüşdü	-10.5852
▁ağacları	-10.5854
▁Sadıq	-10.5858
▁dünyası	-10.5861
•	-10.5866
▁İldırım	-10.5866
▁Röv	-10.5866
▁işlədilir	-10.5868
▁kodu	-10.5872
▁başlanğıcı	-10.5873
▁olma	-10.5873
▁yayımlan	-10.5876
▁avqustunda	-10.5876
▁vəziyyətin	-10.5879
▁silsilə	-10.5881
▁qoyan	-10.5883
▁çaylar	-10.589
▁texnologiya	-10.5893
▁hərəkat	-10.5894
ka	-10.5895
▁tərcüməsi	-10.5898
▁Kabineti	-10.59
▁proqramları	-10.5902
▁içmə	-10.5903
▁vali	-10.5904
▁Sezar	-10.5908
▁talış	-10.5908
▁doğum	-10.5908
▁Babil	-10.5909
▁subtropik	-10.5909
▁pedaqoq	-10.5911
▁respublikada	-10.5911
▁ərazilərin	-10.5912
▁Tələbə	-10.5914
▁Adı	-10.5917
▁1990	-10.5918
▁dövrlər	-10.5918
▁göndərilə	-10.5919
8-	-10.5927
▁ayırır	-10.5929
▁istədiyi	-10.5943
▁qılınc	-10.5944
▁toxum	-10.5945
▁saniyə	-10.5949
▁21-	-10.595
▁Merkuri	-10.5951
▁məmulatı	-10.5952
▁xəbərdar	-10.5955
▁lim	-10.5959
▁Abidə	-10.5961
▁mövqeyini	-10.5962
▁Zərdabi	-10.5969
▁Sasani	-10.597
▁47	-10.597
▁Poli	-10.5972
▁xəttini	-10.5973
▁bunlarda	-10.5977
tar	-10.5983
▁komponentlərin	-10.5987
▁vitamin	-10.5992
▁etməkdədir	-10.5993
ww	-10.5994
▁Təxmin	-10.5994
▁zirvəsi	-10.6002
▁klubunda	-10.6005
▁tədbirlərin	-10.6006
▁faktik	-10.6007
▁boru	-10.6009
tı	-10.601
Araz	-10.6014
▁Milan	-10.6014
▁şahmat	-10.6016
▁qorunu	-10.6018
▁tədbirləri	-10.6022
▁yazısı	-10.6024
▁dillərdə	-10.6033
▁Ədəbi	-10.6035
▁İr	-10.6035
▁müharibələri	-10.6036
▁Kafka	-10.6037
▁Tunc	-10.6037
▁Sonuncu	-10.6037
▁Nuru	-10.6041
ari	-10.6048
▁okeanı	-10.605
▁qətl	-10.6052
▁od	-10.6053
▁qadının	-10.6053
▁Fu	-10.6056
▁şa	-10.6057
▁katolik	-10.6058
▁dura	-10.6065
▁aprelində	-10.6067
▁Çempionatın	-10.6071
▁azdır	-10.6072
▁qul	-10.6072
▁oyununda	-10.6073
öhrət	-10.608
▁göndərildi	-10.608
▁əyan	-10.608
▁Nur	-10.6081
▁prosesini	-10.6083
▁İtaliyada	-10.6091
▁gözəllik	-10.6091
▁Yan	-10.6103
▁Alim	-10.6105
▁metrə	-10.6106
▁nda	-10.6107
▁xatirə	-10.6108
▁göstərilmişdi	-10.6109
▁yazmaq	-10.6111
▁Jurnalistlər	-10.6115
▁yad	-10.612
▁alətlər	-10.6123
▁ayda	-10.6123
▁ulu	-10.6126
▁çıxdığı	-10.6133
qu	-10.6134
▁sırasın	-10.6134
▁başçıları	-10.6134
▁halı	-10.6137
▁etmədi	-10.6138
▁Fondu	-10.6138
▁İnkişaf	-10.6145
▁istiqaməti	-10.6148
▁xüsusiyyətlər	-10.6149
▁qolunu	-10.615
▁tədqiqatların	-10.6152
▁Papa	-10.6156
▁ləqəbi	-10.6158
▁məhkum	-10.6167
▁qənaət	-10.6167
▁oksigen	-10.6168
▁qurban	-10.6169
▁oxuyur	-10.6183
▁1909	-10.6183
riyaziyyat	-10.6191
▁tanrısı	-10.6194
▁təhsilin	-10.6196
▁qazanmışdı	-10.6197
▁pay	-10.6198
▁Ermənistanı	-10.62
▁Don	-10.6205
▁Sülh	-10.6211
▁the	-10.6211
▁palçıq	-10.6211
▁ailədə	-10.6213
▁halın	-10.6215
▁həqiqət	-10.6215
▁yaratmağ	-10.6215
▁turnirin	-10.6217
liyə	-10.6218
ğlu	-10.622
▁qalxan	-10.6223
▁versiya	-10.6224
▁dənizdə	-10.6226
▁çıxışı	-10.6226
▁səy	-10.6227
▁götürülmüşdü	-10.6228
▁sarayda	-10.623
▁kollektiv	-10.6233
let	-10.6241
▁çətindir	-10.6241
▁Kimya	-10.625
▁Balkan	-10.625
▁titulu	-10.625
▁41	-10.6251
▁fevralında	-10.6252
▁Qan	-10.6253
ləşmiş	-10.6255
▁Cahan	-10.6255
‐	-10.6255
▁Atatürk	-10.6255
▁qlobal	-10.6255
▁Şəms	-10.6256
▁əməyi	-10.6259
▁üslubu	-10.6259
▁nəzəriyyəsini	-10.6267
ək	-10.6268
▁bü	-10.6268
▁müsəlmanların	-10.6269
▁vermir	-10.6275
lət	-10.6279
bər	-10.628
▁İrlandiya	-10.6286
▁əsərlərindən	-10.6287
▁təşkilatını	-10.6287
▁mühitin	-10.6291
▁sevimli	-10.6292
▁dəyişi	-10.6292
▁dəyəri	-10.6298
▁Bayrağı	-10.6299
▁artırılması	-10.63
▁qurmaq	-10.6301
▁bilərsiniz	-10.6302
▁Konstitusiya	-10.6302
-10	-10.6304
▁Milad	-10.6305
▁rollar	-10.6309
▁musiqiçi	-10.6309
▁2012	-10.6315
▁22-	-10.6316
▁xatirəsin	-10.6321
▁200-	-10.6327
▁məs	-10.6327
▁boy	-10.6332
▁xanımı	-10.6339
▁General	-10.6344
▁Köhnə	-10.6344
▁yaradılmasında	-10.6344
▁Bank	-10.6345
▁futbolçusu	-10.6347
▁Alı	-10.6348
▁buranı	-10.6349
▁yazılan	-10.6349
yar	-10.6351
▁camaat	-10.6352
▁1,	-10.6353
▁aparırdı	-10.6353
▁aləmi	-10.6356
▁xəstəliklər	-10.6356
▁gəlmə	-10.6357
▁vəzifələrdə	-10.6361
▁filmlərin	-10.6362
▁1898	-10.6363
▁səyyah	-10.6372
▁əyalət	-10.6384
▁etməkdən	-10.6388
▁rəngarəng	-10.6389
▁geoloji	-10.6389
▁Livan	-10.6389
afiq	-10.639
▁MR	-10.6393
▁1918	-10.6402
▁mağara	-10.6403
▁yamacında	-10.6404
▁klubları	-10.6406
▁vətəndaşı	-10.6407
▁mübahisə	-10.6408
▁digərləri	-10.6412
▁məşğuliyyət	-10.6413
▁Di	-10.6414
▁şirəsi	-10.642
▁düşməsi	-10.6424
▁komediya	-10.6424
▁hazırlayır	-10.6426
▁stadion	-10.6432
▁Aprel	-10.6433
▁Məryəm	-10.6434
▁məzunu	-10.6436
▁hadisəni	-10.6436
▁tövsiyə	-10.6439
▁qazandığı	-10.6442
▁bilməsi	-10.6447
▁dediyi	-10.6448
▁1,5	-10.6451
▁işlədil	-10.6451
▁keramika	-10.6451
▁maddələri	-10.6451
▁azalması	-10.6454
▁hind	-10.6457
▁nəzər	-10.646
▁uğurlar	-10.6472
▁illərə	-10.6473
▁bilmişdi	-10.6475
▁dü	-10.6475
▁hökmdarları	-10.6476
▁yaşaması	-10.6476
▁tutduğu	-10.6478
▁Xınalıq	-10.6478
▁otuz	-10.6479
çuluq	-10.6481
▁Bitki	-10.6484
▁oyunları	-10.6485
▁magistr	-10.6485
▁dərinliyi	-10.6491
▁dillərin	-10.6491
▁ideyası	-10.65
▁dərə	-10.6502
▁bildirə	-10.6504
▁alət	-10.6505
▁məqsədlər	-10.6505
▁dağlarda	-10.6507
▁səsvermə	-10.6508
▁etməsini	-10.6508
ıx	-10.6509
▁qoyulu	-10.651
▁planetin	-10.6513
▁zidd	-10.6513
▁ekolo	-10.6515
▁üstü	-10.6515
ә	-10.6524
▁bakalavr	-10.6524
▁hicri	-10.6524
▁İlisu	-10.6526
▁Neftç	-10.6533
▁biləcəyi	-10.6538
▁Ha	-10.6538
▁sank	-10.6539
▁700	-10.654
▁solo	-10.654
▁çəkmiş	-10.6546
▁meydanı	-10.6551
▁elçi	-10.6551
▁avtomat	-10.6552
▁alırdı	-10.6553
▁ədəbiyyatda	-10.6554
▁gözü	-10.6563
▁əksəriyyətini	-10.6563
▁öt	-10.6564
▁artmışdı	-10.6568
▁uzunsov	-10.6569
▁tədbir	-10.657
▁variantı	-10.6573
▁1904	-10.6574
▁Həzrət	-10.6575
▁olunmağ	-10.6577
▁Rüstəmov	-10.6578
▁parlamentin	-10.658
▁örtülmüşdü	-10.6595
▁oxuyu	-10.6597
▁Fi	-10.6599
▁qalması	-10.6604
▁xadim	-10.6604
▁yarımadasında	-10.6605
▁günün	-10.6606
▁Arxeolo	-10.6608
▁Əzim	-10.6613
▁aparıb	-10.6615
urizm	-10.6618
▁Top	-10.6618
▁görüşdə	-10.6619
▁Balak	-10.662
▁sahibliyi	-10.6621
▁marağı	-10.6622
U	-10.6624
▁sular	-10.6625
▁bacarığı	-10.663
▁dalğa	-10.6633
▁xidmətdə	-10.6635
▁dəyişən	-10.6638
▁tutmaq	-10.6639
▁tələbəsi	-10.6643
ö	-10.6645
▁çempion	-10.6646
▁etibarlı	-10.6649
▁Anası	-10.665
▁yazmağ	-10.6651
▁24-	-10.6651
▁otağı	-10.6654
▁Muzey	-10.6657
ündürlüyü	-10.6658
▁Tesla	-10.6661
▁yayılan	-10.6669
▁23-	-10.6669
▁adlandırırdı	-10.6671
vil	-10.6679
▁xəstəlikləri	-10.668
▁işğalında	-10.6693
▁aldıqda	-10.6696
▁aləti	-10.6699
▁Rəsul	-10.6702
▁paralel	-10.6707
▁Avrasiya	-10.6707
▁gəlirlər	-10.6707
▁mühacirət	-10.6708
▁salınması	-10.6708
▁kanal	-10.6713
▁məruzə	-10.6715
▁qızlar	-10.6718
▁qazı	-10.6727
▁şirkətini	-10.6729
▁Məclis	-10.6731
▁əvvəllərinə	-10.6735
ual	-10.674
▁Uzaq	-10.6753
▁şüşə	-10.6753
▁artdı	-10.6754
▁1896	-10.6755
▁günündə	-10.6761
▁Ayı	-10.6762
▁ruhu	-10.6763
▁relyef	-10.6763
üzə	-10.6772
▁göstəricisi	-10.6772
▁üzvlərini	-10.6777
üz	-10.6781
▁artırmaq	-10.6787
▁fakültə	-10.679
lamaq	-10.6795
▁et	-10.6797
▁Henri	-10.6799
▁vitse	-10.68
▁Aristotel	-10.68
▁ünvanı	-10.68
▁Sa	-10.6805
▁kinostudiyası	-10.6817
▁keçdikdə	-10.682
▁paltar	-10.6822
▁ümid	-10.6823
▁yaşamaq	-10.6824
▁iz	-10.6826
▁rəvayətlər	-10.6828
▁naxışlar	-10.683
▁sınaq	-10.683
▁komandir	-10.6831
▁evlər	-10.6833
▁gördüyü	-10.6837
iqtisadi	-10.6838
▁Anna	-10.6842
▁salam	-10.6843
▁anasını	-10.6846
▁Sərəncamı	-10.6851
▁mənbələri	-10.6851
▁tikililər	-10.6854
▁kitabə	-10.6861
▁bazasında	-10.6866
▁rəqsi	-10.6866
▁qanunvericilik	-10.6868
▁keçmişdi	-10.687
▁ideal	-10.6876
▁çəkdi	-10.6877
ləyir	-10.6877
▁nəci	-10.6877
▁gedirdi	-10.6881
▁təhlükəsi	-10.6882
▁Adi	-10.6886
▁müəllimlər	-10.6889
▁ruhani	-10.6889
şərqində	-10.6891
▁məktəblərin	-10.6892
▁təhrif	-10.6893
▁Təzə	-10.6894
▁tənqidi	-10.6896
▁Özünü	-10.6898
▁alını	-10.6901
▁çevrilməsi	-10.6902
▁lat	-10.6906
▁tapı	-10.6906
▁kasıb	-10.6908
▁düny	-10.6909
▁dişi	-10.6909
▁Akademiyasın	-10.6909
▁bilərik	-10.692
baba	-10.692
ağac	-10.6922
▁başladığı	-10.6922
▁vermə	-10.6924
▁Arran	-10.6924
▁medallar	-10.6926
▁Afina	-10.693
isey	-10.693
▁baza	-10.6934
▁arzusu	-10.6935
▁filosof	-10.6936
▁çıxarılması	-10.6936
▁Əhalisini	-10.6939
▁hüquqlarını	-10.694
▁oynadı	-10.694
▁Xankəndi	-10.6941
▁qayıdı	-10.6941
▁universitetdə	-10.6943
▁əski	-10.6943
▁vəzifələri	-10.6945
▁mənzil	-10.6949
▁stadionun	-10.6951
▁Qanun	-10.6953
▁zəlzələ	-10.6954
kəmli	-10.6957
▁konstitusiya	-10.6957
▁edəcəyi	-10.6962
▁qət	-10.6964
▁Səlcuq	-10.6978
▁modeli	-10.6986
▁Qahirə	-10.6988
▁Mixail	-10.6988
▁Nəbi	-10.6989
▁Məscidi	-10.6991
▁Rəhimov	-10.6993
▁qoruya	-10.6999
▁körfəzi	-10.7
▁əsasları	-10.7003
▁Co	-10.7007
▁konfransın	-10.7011
▁çatı	-10.7016
ahi	-10.7016
▁sahibləri	-10.7018
▁analiz	-10.7018
▁Romada	-10.7023
▁Salah	-10.7033
▁kökü	-10.7034
▁hissələrini	-10.7037
▁kamera	-10.7038
▁qitə	-10.7039
liyyə	-10.7043
▁üzvlərin	-10.7044
▁xaricində	-10.7045
▁həndəs	-10.7049
▁1920	-10.7056
▁azalı	-10.7058
▁açılmışdı	-10.7058
▁1994	-10.706
▁qulluq	-10.7062
▁qaydalar	-10.7062
▁istismar	-10.7063
▁&#	-10.7064
▁insana	-10.7071
▁öldü	-10.7076
▁keçi	-10.7078
▁İnqilab	-10.7078
▁toxuma	-10.7078
▁muxtar	-10.708
▁Vəzir	-10.708
▁otaq	-10.7081
▁hazırlaya	-10.7084
▁xaqanlığı	-10.7084
▁yalan	-10.7084
▁bala	-10.7085
▁tərəfdarı	-10.7088
▁İmperiyasını	-10.709
▁görüşü	-10.709
▁janr	-10.7091
▁Qazi	-10.7094
▁başlanan	-10.7097
▁cəmiyyətini	-10.71
▁igid	-10.7103
▁Əkinçi	-10.7103
▁kəndlər	-10.7104
▁Lev	-10.7106
▁tala	-10.7108
▁orduda	-10.711
▁döndü	-10.7112
▁tamaşaların	-10.7113
▁digəri	-10.7114
▁keçmişdə	-10.7118
mət	-10.7128
▁nəqliyyatı	-10.7128
▁ölkəsini	-10.7131
▁naməlum	-10.7131
▁Vəkilov	-10.7132
▁şübhəsiz	-10.7134
▁layihəsini	-10.7136
▁Artist	-10.7137
▁tutumu	-10.7139
▁gətirilmiş	-10.714
▁Elçin	-10.7141
▁Toma	-10.7143
▁Rəsmi	-10.7143
▁adasında	-10.7143
de	-10.7143
▁qoymaq	-10.7144
ev	-10.715
▁2015	-10.7152
▁qalırdı	-10.7152
▁keçdiyi	-10.7154
▁Muzeyi	-10.7155
quli	-10.7155
▁mahnısını	-10.7161
▁yuxu	-10.7163
▁günləri	-10.7166
▁56	-10.7169
▁yavaş	-10.7169
▁monqollar	-10.7174
ist	-10.7175
▁aləmin	-10.7179
▁Türkmən	-10.7181
▁Həmədan	-10.7182
şar	-10.7184
▁hüququnu	-10.7184
▁karyerasın	-10.7186
▁artırır	-10.7186
▁1901	-10.7187
▁yaranmasında	-10.7192
casına	-10.7193
▁olmasında	-10.7202
▁teatrda	-10.7205
▁uça	-10.7206
▁ustaları	-10.7214
▁Vaxt	-10.7214
▁oğlanları	-10.7214
▁J	-10.7217
▁komitəsin	-10.7217
▁Ar	-10.7218
▁partiyanı	-10.7219
▁ölkələrini	-10.7222
▁Zülfüqar	-10.7228
▁Ədirnə	-10.7229
▁çıxarmaq	-10.7233
▁bilməzdi	-10.7233
▁Məhkəməsi	-10.7236
▁1902	-10.7238
▁folklor	-10.7238
▁rəssamlıq	-10.7238
▁mübarizəsi	-10.7242
▁külək	-10.7242
▁üsullar	-10.7244
▁parçası	-10.725
▁1960	-10.725
▁Qəhrəman	-10.7255
▁başını	-10.7256
▁heykəli	-10.7257
▁borc	-10.7259
▁sənətkarlar	-10.7269
▁yanacaq	-10.727
▁2014	-10.7271
▁Əsəd	-10.7273
üseyn	-10.7274
▁dairə	-10.7275
laq	-10.7276
▁Gülüş	-10.7277
▁kömür	-10.7277
▁hazırladığı	-10.7278
▁rəqibi	-10.7279
▁Boz	-10.728
▁müstə	-10.728
▁həva	-10.728
▁torpağ	-10.7287
▁64	-10.729
▁Şərqin	-10.7291
▁aparıcısı	-10.7296
▁Xoy	-10.7296
▁zavod	-10.7297
▁axırın	-10.7302
qat	-10.7307
▁Həmid	-10.7308
sün	-10.7309
ent	-10.7311
▁gözləri	-10.7318
▁Dörd	-10.732
▁Te	-10.7321
▁Məscid	-10.7323
▁əzab	-10.7326
▁qabarıq	-10.7326
▁onurğa	-10.7326
▁yayılıb	-10.7326
▁Yen	-10.7327
▁uçuş	-10.7328
▁peyğəmbəri	-10.7328
▁Məhəmmədh	-10.7329
▁çıxarılmışdı	-10.7329
▁publisistik	-10.7332
▁qayıtdıqda	-10.7332
2-	-10.7334
yanı	-10.7334
▁Qadınlar	-10.7335
▁arxiv	-10.7335
▁gətirə	-10.7336
▁müsabiqəsin	-10.7342
▁hazırlamışdı	-10.7343
▁məqaləsi	-10.7347
▁topu	-10.7356
▁şir	-10.7359
▁idarəsini	-10.736
▁qüllə	-10.7365
▁Şab	-10.7368
▁qayğı	-10.737
▁xatırladır	-10.7371
▁göstərişi	-10.7371
▁ərəbcə	-10.7372
▁oturaq	-10.7376
▁memarlığı	-10.7377
▁sahələrin	-10.7377
▁edilmə	-10.7378
▁Mil	-10.7381
▁fərqi	-10.7387
▁enli	-10.7388
▁müəlliflərin	-10.739
▁xaqan	-10.7391
lit	-10.7392
▁Var	-10.7393
▁faizini	-10.7396
▁1997	-10.7398
▁nağıl	-10.7399
▁əmin	-10.7401
▁karbon	-10.7401
▁Par	-10.7404
▁gölünü	-10.7404
▁yarı	-10.7405
▁Oyunlarında	-10.7407
▁Elxan	-10.7412
▁Özü	-10.7413
▁Ramazan	-10.7419
▁münaqişə	-10.7426
▁Mübarək	-10.7426
▁Siz	-10.7426
▁hazırlanmışdı	-10.7427
▁Düz	-10.7428
▁axırlarında	-10.7429
▁raket	-10.7431
▁Ərazidə	-10.744
▁vurur	-10.744
▁qayıdan	-10.744
▁yayım	-10.7444
▁ağız	-10.7444
lay	-10.7444
▁otaqları	-10.7446
▁gətirmiş	-10.7446
▁çıxışları	-10.7447
▁dost	-10.7453
▁Bay	-10.7454
▁qapa	-10.7457
▁Həmzə	-10.7457
▁filosofu	-10.7458
▁Axı	-10.7459
▁Saat	-10.7459
▁hakimiyyətin	-10.7464
kar	-10.7468
▁yerləşmişdi	-10.7469
▁müəllimləri	-10.747
▁görmüş	-10.7473
▁intensiv	-10.7474
▁Şahrux	-10.7474
▁Abdullah	-10.7477
▁yana	-10.7478
▁salmaq	-10.7481
▁Türküstan	-10.7487
▁qanunu	-10.7488
▁sinfin	-10.75
▁açılmış	-10.75
▁kubok	-10.7501
▁Niderland	-10.7502
▁bağlayır	-10.7502
▁yetişi	-10.7505
▁üsulları	-10.7507
▁quraq	-10.7511
▁şəraitin	-10.7511
▁yüzlər	-10.7511
▁qayıtmış	-10.7515
▁oxu	-10.752
▁vokal	-10.7521
▁qiyam	-10.7523
▁federa	-10.7524
▁Hitler	-10.7525
▁Türbə	-10.7525
▁quşlar	-10.7526
▁bağı	-10.7533
12	-10.7535
▁mütə	-10.7537
▁mübarizəni	-10.7538
▁orqanizm	-10.754
▁taxt	-10.7545
▁1897	-10.7546
▁höküməti	-10.7547
▁dilə	-10.7558
▁səhifə	-10.7562
▁hərfi	-10.7563
▁fikirlərini	-10.7565
▁tikilə	-10.7565
▁vəziri	-10.7569
▁Şi	-10.757
▁şəxsiyyətlər	-10.7572
▁Səud	-10.7575
▁Usta	-10.7575
▁125	-10.7576
▁varlığı	-10.7576
▁qaldırmaq	-10.7576
▁yurd	-10.7576
▁böhran	-10.7579
▁qəribə	-10.7581
▁tamaşası	-10.7581
▁üzünü	-10.7586
▁İnter	-10.7587
▁52	-10.7591
▁müalicəsi	-10.7591
▁oxuyan	-10.7613
▁54	-10.7617
▁meyvələri	-10.7622
▁təqaüd	-10.7623
▁müvəffəq	-10.7623
▁maqnit	-10.7625
▁Mədinə	-10.7625
▁palıd	-10.7625
▁açıldı	-10.7625
▁Əyyub	-10.7626
▁həlledici	-10.7626
▁imkanlar	-10.7628
▁binaları	-10.7634
▁əyalətini	-10.7635
dissertasiyasını	-10.7636
▁Sir	-10.7637
▁nailiyyətlər	-10.7641
▁təşkilatçı	-10.7642
▁mühafizəsi	-10.7643
▁dəyişdirilmiş	-10.7644
▁seçkilərdə	-10.7646
▁1995	-10.7651
▁artım	-10.7653
▁çətinlik	-10.7654
izm	-10.7654
▁önündə	-10.7654
▁bütünlük	-10.7654
▁oymağı	-10.7658
▁həssas	-10.7658
▁təminatı	-10.7659
▁sürür	-10.7663
▁sıralarında	-10.7664
▁Le	-10.7665
▁bədənin	-10.7665
▁Ko	-10.7671
▁professional	-10.7676
▁şeyin	-10.7679
▁Kaspi	-10.768
▁yardımı	-10.7681
▁yubileyi	-10.7681
▁müstəqilliyi	-10.7683
coğrafi	-10.7684
▁Yerdə	-10.7687
▁etdirilməsi	-10.7689
▁çəkilməsi	-10.769
▁günbəz	-10.77
▁Asiyanı	-10.7701
▁Avropanı	-10.7703
▁avqustda	-10.7703
▁təsvirləri	-10.7708
▁oğul	-10.771
▁Cabbar	-10.7713
▁Mərkəz	-10.7718
▁Müharibəsi	-10.772
▁yem	-10.7723
▁bolşeviklər	-10.7724
▁funksiyası	-10.7726
▁Xızı	-10.7727
▁Kino	-10.7727
▁rəsmləri	-10.7728
▁ayrıldı	-10.7728
▁maşınqayırma	-10.7729
▁Camal	-10.773
▁qüvvəsini	-10.7738
▁sonda	-10.7738
▁əlifba	-10.774
▁kəndli	-10.7741
▁Məkkə	-10.7744
▁başlaması	-10.7757
▁Tel	-10.776
▁Vasi	-10.776
▁Çempionatı	-10.7768
▁boyun	-10.7769
▁sayında	-10.7771
▁Herodot	-10.7778
▁en	-10.7783
▁bayraq	-10.7783
▁ayrılması	-10.7786
mayor	-10.779
▁oxumaq	-10.7792
▁Uca	-10.7792
▁xeyri	-10.7795
▁yaralanmışdı	-10.78
▁kilsəsini	-10.78
▁kredit	-10.7802
▁bazarın	-10.7803
▁təsadüfi	-10.7803
▁keçdik	-10.7805
▁reaksiya	-10.7806
▁başlanğıc	-10.7807
▁51	-10.7809
▁redaksiyasın	-10.781
▁müəlliflər	-10.7814
▁Pa	-10.7817
▁Fizika	-10.7825
▁çıxarılmış	-10.7827
▁Aya	-10.7829
▁Xəlifə	-10.783
▁toplanması	-10.7831
▁açılan	-10.7832
▁toplusu	-10.784
▁funksiyasını	-10.7842
▁90-	-10.785
▁səhifələrində	-10.7858
▁mərasimində	-10.7861
▁iyununda	-10.7862
▁cavabı	-10.7864
▁dua	-10.7867
▁xoşbəxt	-10.7872
▁məsləhətçi	-10.7875
▁diplom	-10.7876
▁vaxta	-10.7876
▁qadını	-10.788
▁Urartu	-10.7882
▁zabiti	-10.7882
▁qırx	-10.7883
▁bildiyi	-10.7886
▁tütün	-10.7887
ler	-10.7888
▁incəsənəti	-10.7891
▁göndər	-10.7892
▁təşkilatları	-10.7892
▁İnsanlar	-10.7894
▁Açıq	-10.7895
KP	-10.7895
▁yapon	-10.7896
▁yüksəkliyi	-10.7899
▁adlandırıl	-10.7899
▁mahiyyəti	-10.7901
▁birləş	-10.7902
▁tuta	-10.7903
▁partlayış	-10.7903
▁desə	-10.7905
▁usta	-10.7907
▁maarifçi	-10.7912
sna	-10.7918
▁çiçəkləri	-10.7919
▁sənin	-10.7922
▁böyüyü	-10.7923
▁günümüzə	-10.7923
həsə	-10.7923
▁bölgəsini	-10.7926
▁Peterburq	-10.7931
remyer	-10.7934
▁Layihə	-10.7934
▁yayın	-10.7934
▁hamar	-10.7935
▁pak	-10.7935
▁oykonim	-10.7936
▁münasibətlərini	-10.794
000	-10.7941
▁diviziyası	-10.7942
▁Jan	-10.7942
▁Əksər	-10.7946
▁Fai	-10.795
əsi	-10.7951
▁sərgi	-10.7959
▁şəhərlərin	-10.7961
▁hadisəsi	-10.7962
▁heyət	-10.7963
▁1988	-10.7963
▁simfoni	-10.7966
▁almanlar	-10.7968
▁sub	-10.7968
texniki	-10.7971
▁çıx	-10.7974
▁diviziya	-10.7978
▁adlandırmışdı	-10.7978
▁Yaşıl	-10.798
▁tərbiyəsi	-10.7982
▁saxlanması	-10.7987
▁İqtisadiyyat	-10.7988
▁harada	-10.799
▁anbarı	-10.799
▁Yarpaqları	-10.7992
▁Rasi	-10.7992
olit	-10.7995
▁kommunist	-10.7998
▁seçilməsi	-10.7998
▁üslubunda	-10.7999
▁kub	-10.8001
▁Mark	-10.8003
▁qolları	-10.8003
▁yarımadası	-10.8007
▁məhsullar	-10.8012
rat	-10.8014
▁yazan	-10.8014
▁şəhərlərindən	-10.8015
▁Aslanov	-10.8016
▁naxış	-10.8016
▁iqamətgahı	-10.8019
▁vilayətini	-10.8022
▁rəsmə	-10.8024
ğ	-10.8031
▁qurultayı	-10.8033
▁müəssisələr	-10.8033
▁Şərif	-10.8036
▁Bill	-10.8036
▁hasil	-10.8038
▁toxucu	-10.8039
▁Əfşar	-10.8039
▁jurnalistika	-10.8039
▁öyrənmişdi	-10.8041
▁Rome	-10.8041
▁orqanlarını	-10.8047
▁xristianlığı	-10.8048
▁sərhədlərini	-10.8049
▁ideyaları	-10.8049
itar	-10.8052
▁filmlərdə	-10.8052
▁girdi	-10.8054
▁Komitəsin	-10.8057
▁ictimaiyyət	-10.8059
▁Şahbu	-10.8064
▁quldur	-10.8065
▁adamın	-10.8069
▁1986	-10.8073
▁qəbilə	-10.8083
▁Av	-10.8084
▁təlimi	-10.8089
▁şeyləri	-10.8089
▁Vyetnam	-10.8092
▁Quşçu	-10.8092
▁həzm	-10.8093
▁imzalandı	-10.8094
▁öhdəsin	-10.8098
▁qır	-10.8101
▁həkimi	-10.8101
▁ötə	-10.8103
▁donanması	-10.8104
incə	-10.811
▁icması	-10.8115
▁1919	-10.8122
▁elmin	-10.8124
▁Yaşa	-10.8124
▁tikilmişdi	-10.813
üəyyən	-10.8134
▁Dini	-10.8136
▁məharətl	-10.8139
▁Hindistanın	-10.814
altı	-10.8143
▁Ehtimal	-10.8145
▁zireh	-10.8145
▁Mütər	-10.8145
▁aktual	-10.8145
▁85	-10.8147
▁məzar	-10.8147
▁göndərmişdi	-10.8148
▁süjet	-10.8149
▁bilib	-10.8149
▁Heyətin	-10.8149
▁sim	-10.8152
▁yazılıb	-10.8154
▁cəzası	-10.8157
▁yunanlar	-10.8157
▁çatdıqda	-10.816
▁Prussiya	-10.8162
▁maddəsi	-10.8163
▁şif	-10.8165
▁məhəllə	-10.8166
bi	-10.817
▁etdiyimiz	-10.8171
▁öyrənməy	-10.8174
▁Kazımov	-10.8174
▁rütbə	-10.8175
▁Frans	-10.8177
▁meşələri	-10.8182
▁girə	-10.8186
▁Kir	-10.8189
▁ehti	-10.8191
▁Yuqoslaviya	-10.8198
▁sorğu	-10.8198
▁öyrənilmiş	-10.8198
▁vətənpərvər	-10.8198
▁Erkə	-10.8204
▁qalxı	-10.8205
▁təhlükəsizli	-10.8205
▁İvan	-10.8205
▁mövsümü	-10.8208
▁orbit	-10.821
▁klip	-10.8213
▁gu	-10.8214
▁ucu	-10.8217
▁alayın	-10.8217
M	-10.8217
▁solisti	-10.8222
▁nüfuzu	-10.8225
▁1903	-10.8228
▁İstiqlal	-10.8229
atlı	-10.823
▁incəsənətin	-10.8232
▁növlərində	-10.8232
▁Fikr	-10.8239
▁olunmalı	-10.8242
▁Elektron	-10.8245
▁döş	-10.8248
▁İslamı	-10.825
▁MDB	-10.8252
▁İnzibat	-10.8252
▁qidalanır	-10.8254
▁Ərazisi	-10.8255
▁nı	-10.8257
▁kitabların	-10.8257
▁siyasətçi	-10.8258
tun	-10.8258
mı	-10.8263
▁nami	-10.8264
▁Belarus	-10.8264
▁kompozisiyası	-10.827
▁vəkil	-10.8271
ws	-10.8272
▁Ordusunu	-10.8273
▁söyləyir	-10.8274
▁iqtisadiyyatını	-10.8274
▁danışa	-10.8276
▁ayrılmışdı	-10.8276
▁2016	-10.828
▁hekayələr	-10.8284
▁ifasında	-10.8286
▁1984	-10.8289
▁160	-10.8291
▁xə	-10.8295
▁sal	-10.8297
▁yerlərin	-10.8297
▁kosmos	-10.8299
niz	-10.8299
▁metodu	-10.83
▁pəncərə	-10.83
▁Şirkətin	-10.8301
▁vəfatı	-10.8304
▁qabiliyyətini	-10.8306
▁Assosiasiyası	-10.8306
$	-10.8306
▁Şekspir	-10.8306
▁genetik	-10.8306
▁Əzizbəyov	-10.8307
▁başlanğıcında	-10.8309
os	-10.831
▁xüsusiyyət	-10.831
▁Yun	-10.8311
▁şeiri	-10.8315
▁sosialist	-10.8319
▁müdaxilə	-10.832
▁heyətin	-10.8326
▁götürdü	-10.8326
▁birləşməsində	-10.8327
▁bilinə	-10.833
▁sümük	-10.833
▁sənayesini	-10.8331
▁məqalələrin	-10.8332
▁kəməri	-10.8341
▁nümayəndələrin	-10.8341
▁Bilə	-10.8343
▁təsərrüfatında	-10.8347
▁Ruh	-10.8356
▁hesablama	-10.8357
▁Ulu	-10.8358
▁meyl	-10.8359
▁Səmərqənd	-10.836
▁Oskar	-10.8361
ezliklə	-10.8364
▁səbəbləri	-10.8365
▁rayonlarda	-10.8367
▁səviyyəsini	-10.8368
▁dünyasında	-10.837
▁nişanı	-10.837
▁səlahiyyətli	-10.837
▁mənşə	-10.8372
▁Nic	-10.8372
▁Quranda	-10.8373
▁ünvan	-10.8373
▁Çili	-10.8375
▁Da	-10.8376
▁tele	-10.8392
▁abidələrində	-10.8393
▁məclislərin	-10.8394
NS	-10.8401
▁evlərin	-10.8409
▁Nəsir	-10.841
▁birləşdiril	-10.8411
▁açdı	-10.8414
▁heykəltəraş	-10.8415
▁zərif	-10.8415
▁saxlanıla	-10.8415
▁Kolumbiya	-10.8415
▁Əzimzadə	-10.8417
▁qurşağı	-10.8417
▁simvoli	-10.8418
▁xanımla	-10.8419
▁Me	-10.842
▁ortalarına	-10.8424
san	-10.8426
▁lider	-10.8426
▁aləmində	-10.8427
▁bel	-10.8436
▁Döyüş	-10.8447
▁generalı	-10.8449
▁karyerasını	-10.845
▁bolşevik	-10.8453
▁tapmış	-10.8453
▁qarın	-10.8458
▁dinini	-10.8459
▁mövzular	-10.846
▁istifadəçi	-10.8461
▁olmalı	-10.8465
cümə	-10.8466
▁itkin	-10.8466
▁Naziri	-10.8468
icarət	-10.8469
▁gözlənilmə	-10.847
▁Arslan	-10.847
▁Nuxa	-10.847
▁1870	-10.8471
▁psixologiya	-10.8473
▁çata	-10.8474
▁əməkdaşı	-10.8476
▁mərhələsin	-10.8476
bdin	-10.848
▁bizi	-10.8481
▁1886	-10.8481
▁təcil	-10.8483
etik	-10.8485
▁birləşir	-10.8489
▁tədqiqatları	-10.8489
▁turşusu	-10.849
▁İndiki	-10.8496
▁əməliyyatları	-10.8497
▁kəndlərini	-10.8498
▁yanğın	-10.8501
▁Bülbül	-10.8503
▁Birlik	-10.8504
▁kadrların	-10.8508
▁İnstitut	-10.8515
▁okeanın	-10.8517
▁əlaqələrini	-10.8522
▁Alma	-10.8522
▁mühitdə	-10.8523
ərgüş	-10.8525
▁Tacikistan	-10.8525
▁tərənnüm	-10.8525
▁çevrilib	-10.8526
▁yaşadıqları	-10.8526
▁dedikdə	-10.8526
▁hökmü	-10.8526
▁caz	-10.8528
▁olanda	-10.853
▁zəng	-10.8531
▁tutulması	-10.8531
▁sonsuz	-10.8531
▁tikilməsi	-10.8532
▁ayrılma	-10.8537
▁törətdi	-10.8538
▁mətbuatın	-10.854
▁məsələni	-10.854
▁biologiya	-10.8547
▁vermədi	-10.8551
▁nəticələrin	-10.8555
▁sırası	-10.8557
▁yaşaya	-10.8558
▁məntiq	-10.8558
▁marka	-10.8558
▁etməsində	-10.856
▁inam	-10.8563
▁təhlili	-10.8565
▁soy	-10.8568
▁gürcülər	-10.8569
▁namazı	-10.8571
▁prosesləri	-10.8571
▁nəsr	-10.8573
▁məqam	-10.8574
▁Lin	-10.8578
iş	-10.8579
▁Qırğızıstan	-10.8581
▁mərmər	-10.8581
▁saxlanılması	-10.8581
▁bəylərbəyi	-10.8581
▁Bankı	-10.8585
▁Fərmanı	-10.859
▁fil	-10.8591
▁qəhrəmanlıq	-10.8592
▁səviyyəsin	-10.8592
▁sənayesin	-10.8596
mar	-10.8597
▁Tə	-10.8597
▁estetik	-10.8599
▁həddində	-10.86
▁təsirli	-10.8603
▁köçmüşdü	-10.8604
▁tatar	-10.8611
▁Sənət	-10.8613
▁müəssisələrində	-10.8613
▁gənclərin	-10.8615
▁istehsalında	-10.862
▁təriqət	-10.8621
L	-10.8625
▁etdirməy	-10.8625
▁getmişdi	-10.8626
▁Dünyanı	-10.8629
▁balıqlar	-10.863
▁qalasında	-10.8631
▁qayna	-10.8632
▁orda	-10.8633
▁nifrət	-10.8637
▁yarımkürəsin	-10.8637
▁Nəsib	-10.8637
▁Günü	-10.8641
▁şəhidi	-10.8642
▁dayana	-10.8643
▁qışı	-10.865
▁farslar	-10.865
▁gec	-10.8651
▁əsrlərin	-10.8657
▁Samu	-10.8657
▁düşmə	-10.8658
▁ştat	-10.8659
▁Tədri	-10.8664
▁əlaməti	-10.8666
▁Qərib	-10.8668
▁Hökumət	-10.8672
▁təşkilatların	-10.8685
▁motivləri	-10.8685
▁obyektləri	-10.8686
▁adlarında	-10.8688
▁təməl	-10.8692
▁foto	-10.8692
▁Üst	-10.8693
▁Əlcəzair	-10.8693
▁xeyirxah	-10.8693
▁qalanı	-10.8695
▁komissarı	-10.8696
▁vulkanları	-10.8697
▁Bayramov	-10.87
oslav	-10.8712
▁hücumları	-10.8714
▁vəkili	-10.8714
▁itirdi	-10.8714
▁Ştatları	-10.8714
▁obyekt	-10.8714
▁əsgərlər	-10.8715
▁Qərbdə	-10.872
▁divarı	-10.8724
▁şəkilli	-10.8724
və	-10.8727
▁iti	-10.8727
▁toz	-10.8729
▁İrəvanda	-10.8737
▁rəhbərləri	-10.8741
▁görünüş	-10.8741
▁məktubun	-10.8747
▁yatağı	-10.875
▁dərəsi	-10.875
▁düzbucaq	-10.875
▁ədəbiyyatşünas	-10.8751
▁pulsuz	-10.8751
▁strukturu	-10.8754
yib	-10.8754
▁xeyriyyə	-10.8755
▁birləşdiri	-10.8757
▁Məmmədovu	-10.8759
▁yarışların	-10.8759
▁tarixçilər	-10.8759
ve	-10.8763
▁hissəsidir	-10.8767
▁ənənələrini	-10.8783
▁prinsipləri	-10.8784
alı	-10.8787
▁1973	-10.8787
▁seçim	-10.8788
▁49	-10.879
▁qəbulu	-10.8792
▁işlənməsi	-10.8793
▁qoy	-10.8793
▁yarpaq	-10.8793
▁fərman	-10.8798
▁ov	-10.8802
tək	-10.8802
omediya	-10.8806
sabiq	-10.8806
▁atır	-10.8806
▁olunmur	-10.8806
▁Əlbət	-10.8807
▁epi	-10.8808
lanması	-10.8815
▁şərtləri	-10.8817
-3	-10.8818
▁gətirmək	-10.8818
▁obrazını	-10.8822
▁iştirakçıları	-10.8823
▁Xanlar	-10.8825
▁şairlərin	-10.8826
▁məclisi	-10.884
▁realist	-10.8841
▁kəndlilər	-10.8841
▁Liqa	-10.8843
▁çoxluğu	-10.8844
▁edilməkdə	-10.8844
qərbində	-10.8845
▁səthin	-10.8847
▁türkcə	-10.885
▁Məktəbini	-10.8852
▁heykəl	-10.8853
▁Səfər	-10.8857
▁cazibə	-10.8863
▁dərslik	-10.8863
▁Bəhmən	-10.8863
▁nisbi	-10.8863
▁Əhəməni	-10.8863
ersiya	-10.8864
▁57	-10.8865
▁adla	-10.8869
▁müharibələr	-10.8869
▁Sovetlər	-10.8871
inski	-10.8872
▁kəndlərindən	-10.8875
▁Ərəbistanı	-10.8883
ləşdirmək	-10.8884
▁yaralanı	-10.8885
▁dəstələr	-10.889
▁regionda	-10.8895
▁filmini	-10.8897
▁1982	-10.8903
▁1979	-10.8903
edici	-10.8903
▁Salman	-10.8904
▁şərtlər	-10.8906
▁tamaşasın	-10.8914
▁Hə	-10.8917
▁çörə	-10.8919
▁görülmüş	-10.892
▁düşünür	-10.8921
▁Deyilən	-10.8921
▁edilmir	-10.8921
▁yarımsəhra	-10.8921
▁əlyazma	-10.8921
▁zona	-10.8923
▁qoz	-10.8924
▁cizgi	-10.8928
▁1500	-10.8931
▁53	-10.8932
▁Cavadov	-10.8934
▁yolun	-10.8938
▁əlaqədə	-10.8939
▁çağırılı	-10.8939
▁istehsalat	-10.8942
▁əyaləti	-10.8944
▁iyulunda	-10.8945
▁imtahan	-10.8947
▁məntəqələrində	-10.8948
▁95	-10.895
▁olars	-10.895
▁metod	-10.8954
▁Cəmiyyətin	-10.8955
▁yetirilmiş	-10.8957
tərəqqi	-10.896
sal	-10.8965
▁Qazan	-10.8965
▁uzaqda	-10.8967
▁Win	-10.8967
,4	-10.897
əzən	-10.8974
▁bilmədiyi	-10.8975
▁formalaşmışdı	-10.8975
▁qoş	-10.8976
▁humani	-10.8978
▁dramaturq	-10.8978
▁istəsə	-10.8979
▁Soyuq	-10.898
mobil	-10.898
▁Əks	-10.898
▁Se	-10.8982
▁Tamaşaçılar	-10.8983
▁edin	-10.8983
▁ansamblı	-10.8984
▁edərdi	-10.8986
▁birləşmə	-10.8988
▁xidmətini	-10.8988
▁Binə	-10.899
▁Meşə	-10.8996
▁ittifaqı	-10.8999
▁səfərdə	-10.9
▁xəbərlər	-10.9002
▁hərəkətləri	-10.9003
▁62	-10.9006
▁uğuru	-10.9007
▁turist	-10.9007
▁Tehranda	-10.901
▁gəlişi	-10.9012
▁Rəq	-10.9013
▁təbəqəsi	-10.9016
▁tayfalarını	-10.9018
▁gül	-10.9022
▁əcnəbi	-10.9024
ose	-10.9027
▁üstünlüyü	-10.9028
▁finalın	-10.903
▁gecəsi	-10.9034
▁debüt	-10.9035
ateqoriya	-10.9036
▁yarımadasını	-10.9037
▁çılpaq	-10.9037
▁yarımfinal	-10.9037
▁böyrək	-10.9037
▁kateqoriya	-10.9038
▁ailəni	-10.9039
▁istəyirəm	-10.904
▁art	-10.9041
▁Pas	-10.9041
▁astronomiya	-10.9045
▁amerikalı	-10.9046
▁Samur	-10.9046
▁Anti	-10.9046
▁küçəsi	-10.9049
▁üsulla	-10.905
▁Dərə	-10.905
rektoru	-10.905
▁iyulda	-10.9051
▁rusları	-10.9051
▁qon	-10.9052
▁çayların	-10.9057
▁görünüşü	-10.9059
ze	-10.9061
▁Kilsəsi	-10.9069
▁pillə	-10.9075
▁götürülür	-10.908
▁geriyə	-10.9085
▁növlər	-10.9085
▁3000	-10.9087
▁landşaft	-10.9088
▁mənzərə	-10.909
▁işlənə	-10.9094
▁Per	-10.9094
▁assistent	-10.9095
▁çatışmazlığı	-10.9095
▁Haqverdiyev	-10.9095
▁vurduğu	-10.9096
▁mərhum	-10.9097
▁romantik	-10.9101
▁müzakirələr	-10.9103
▁payızında	-10.9104
▁alayı	-10.9108
▁ruhun	-10.9115
▁Britaniyada	-10.9116
▁komandaları	-10.9118
▁çevrilə	-10.9123
▁qulaq	-10.9126
▁etmirdi	-10.9129
▁formalaş	-10.9131
▁Uilyam	-10.9133
han	-10.9134
▁xalçaların	-10.9134
▁Can	-10.9135
▁biləcəyini	-10.9135
▁uğradı	-10.9137
▁buynuz	-10.9137
▁məzarı	-10.9139
▁Qrup	-10.914
▁yüksəli	-10.9143
▁kilsəni	-10.9144
▁operator	-10.9146
▁58	-10.9147
▁ərə	-10.9149
nra	-10.9151
▁Tanrını	-10.9152
▁nəticələndi	-10.9154
iz	-10.9158
▁Final	-10.9159
▁padşah	-10.916
▁Sadıqov	-10.9161
▁175	-10.9162
▁sikkələr	-10.9167
tıl	-10.9168
▁siyasətin	-10.9169
▁Əmirov	-10.9171
ədək	-10.9172
▁Fər	-10.9176
▁Qaraman	-10.9178
▁kütlələri	-10.9182
▁buxar	-10.9183
xana	-10.9187
▁hekayəsi	-10.9191
▁köçdü	-10.9193
▁yönəlmiş	-10.9193
▁1975	-10.9197
suvar	-10.9201
▁Qalanı	-10.9204
▁ifraz	-10.9206
▁müsahibə	-10.9206
▁milad	-10.9209
▁Bosniya	-10.9213
▁qaldırılması	-10.9214
▁pozulması	-10.9214
▁şərqşünas	-10.9216
▁kubokunu	-10.922
▁Bol	-10.9222
▁görüldü	-10.9223
▁Müharibədə	-10.9227
▁konsertlər	-10.9229
▁Berlində	-10.9229
▁bədəni	-10.9234
▁siyahısında	-10.9238
▁xanlığın	-10.924
▁sümükləri	-10.9243
▁miniatür	-10.9244
▁müxtəlifliyi	-10.9244
▁sultanın	-10.9246
▁Sadə	-10.9249
▁qanunvericiliyi	-10.9252
▁1987	-10.9257
▁Uran	-10.9259
▁studiya	-10.9264
çə	-10.9266
▁New	-10.9269
▁etira	-10.927
▁çalışdı	-10.9271
▁hədiyyələr	-10.9271
▁Gürcü	-10.9273
▁Sergey	-10.9273
▁Vətəndaş	-10.9273
▁hidrogen	-10.9274
▁yetirilməsi	-10.9274
▁Liqasını	-10.9281
▁Ər	-10.9287
▁ölümün	-10.9289
▁Oyun	-10.929
▁hit	-10.9292
▁get	-10.9295
▁sel	-10.9302
▁təşəkkül	-10.9311
▁sui	-10.9313
şünaslı	-10.9313
▁1983	-10.9317
T	-10.9321
▁bənzəyir	-10.9323
▁bölgüsü	-10.9326
▁qülləsi	-10.9329
istan	-10.9331
▁gerçək	-10.9332
▁kəmiyyət	-10.9333
▁bilməyib	-10.9333
▁köçürülməsi	-10.9334
▁dərəcəsini	-10.9339
laşdırılmış	-10.9343
▁fəaliyyətlə	-10.9346
▁filmlərində	-10.9353
▁qurur	-10.9353
▁quruluşunda	-10.9357
▁tələblər	-10.9361
▁müəyyənləşdiril	-10.9372
▁zavodun	-10.9373
▁davamı	-10.9374
tika	-10.9375
▁komp	-10.9378
kommunikasiya	-10.9378
▁yazdı	-10.9379
▁yerləş	-10.938
▁camaatı	-10.9382
▁vurmuşdu	-10.9382
▁kuboku	-10.9383
▁qrupunda	-10.9388
▁Bəziləri	-10.9389
▁məmulatları	-10.9389
Yorkda	-10.939
▁qatılı	-10.939
▁Ştatların	-10.939
▁işləyirdi	-10.9392
▁Müqavilə	-10.9393
▁Ədalət	-10.9393
▁Mübariz	-10.9393
▁Dinam	-10.9393
▁1895	-10.9396
▁dəmiryolu	-10.9399
▁qüvvətli	-10.94
▁binada	-10.9401
şünas	-10.9401
▁statistik	-10.9402
▁qazanmaq	-10.9403
▁Tele	-10.9404
▁Volqa	-10.9404
▁kürd	-10.9408
▁festivalın	-10.9414
▁alın	-10.9417
▁yarışlarda	-10.943
▁adlandırmış	-10.9433
▁sakinlərin	-10.9434
▁liman	-10.9435
▁Od	-10.9435
▁çəkilməy	-10.9437
▁qəbri	-10.9446
▁ədəbiyyatın	-10.9449
▁Görünü	-10.9454
▁eşidən	-10.9454
▁fundamental	-10.9454
▁səviyyəl	-10.9454
▁Sahil	-10.9454
▁artilleriya	-10.9454
▁Sərdar	-10.9454
▁görürdü	-10.9455
▁Qoca	-10.9456
▁Cəbhəsi	-10.9459
▁torpaqda	-10.946
▁silahlar	-10.9461
▁era	-10.9461
▁Aran	-10.9461
▁bitən	-10.9462
▁respublikası	-10.9463
▁xanla	-10.9465
▁Leyl	-10.9469
▁çatdırır	-10.9471
▁hərəkatın	-10.9472
▁istedadı	-10.9474
▁bəs	-10.9475
▁pyesi	-10.9483
▁ziyalıları	-10.9484
▁şairlər	-10.9485
▁Vaşinqton	-10.9486
▁amansız	-10.9486
▁aspiranturasın	-10.9492
▁dəyişmiş	-10.9494
mayıb	-10.9495
▁olmadığın	-10.9496
▁1873	-10.9498
▁önəm	-10.9505
▁razılığı	-10.9508
▁qabiliyyətin	-10.9509
▁hücumlar	-10.9511
▁mükafatlar	-10.9511
▁görüşlər	-10.9513
▁David	-10.9514
▁Fərrux	-10.9514
▁Qəsəbə	-10.9514
▁epizod	-10.9514
▁kartof	-10.9515
▁yastı	-10.9515
▁karvan	-10.9515
▁İyun	-10.9516
▁səslənir	-10.9516
▁Gilan	-10.9518
▁məmur	-10.952
▁divan	-10.9523
▁sərnişin	-10.9523
▁minarə	-10.9526
▁yayılma	-10.9529
▁mətn	-10.9529
tta	-10.9531
▁yaşadı	-10.9533
▁yeyi	-10.9533
▁Müs	-10.9536
▁edilsə	-10.9536
▁payın	-10.9539
▁həvəskar	-10.9541
▁satı	-10.9543
▁ödəmək	-10.9548
▁danışıq	-10.9548
▁Komissar	-10.9551
▁sözlərini	-10.9555
▁olunduqda	-10.9562
▁kor	-10.9562
▁əyalətində	-10.9568
▁sevir	-10.957
▁Məhərrəm	-10.9573
▁məktubu	-10.9574
▁Siy	-10.9574
▁Moldova	-10.9576
▁eksperiment	-10.9576
▁qoşuldu	-10.9576
▁Məsud	-10.9576
▁çoxalır	-10.9576
▁qaraciyər	-10.9577
▁Qulu	-10.9581
▁binaların	-10.9584
ial	-10.9586
▁sita	-10.9587
rı	-10.9587
▁yaradıcılığ	-10.9587
▁yardımçı	-10.9588
▁arzu	-10.9591
▁çıxarmışdı	-10.9592
▁Əsərləri	-10.9596
dilər	-10.9602
▁qaydası	-10.9604
▁Orda	-10.9604
▁Cek	-10.9608
▁sıraların	-10.9612
▁idmançı	-10.962
▁kadrlar	-10.9624
▁sahilləri	-10.9625
lması	-10.9627
▁vəzifələr	-10.9628
▁itir	-10.9628
▁mərasim	-10.9632
▁cəbhədə	-10.9633
▁suyunu	-10.9637
rofessor	-10.9637
▁Veriliş	-10.9638
▁Bazar	-10.9638
▁saytı	-10.9639
▁varlığın	-10.9642
▁əlaqələrin	-10.9642
▁universitetlər	-10.9642
▁quyu	-10.9643
▁şəri	-10.9644
▁hərəkətlər	-10.9647
▁W	-10.9651
▁Əbül	-10.9653
▁tapılı	-10.9656
▁ehtimalı	-10.9662
▁birləşmələr	-10.9667
▁firması	-10.9668
▁ustalıq	-10.9678
▁rəqibin	-10.968
▁variantın	-10.9681
▁tanınması	-10.9681
▁düzəldilmiş	-10.9682
▁29-	-10.9683
▁amil	-10.9685
K	-10.9686
▁oyunlar	-10.9686
▁nəfərin	-10.9689
▁Komanda	-10.9693
▁termin	-10.9694
▁ərazilərini	-10.97
▁Bələdiyyə	-10.97
▁Mətbuat	-10.97
▁Seçki	-10.97
▁canavar	-10.97
▁obyektlər	-10.97
▁Mədəni	-10.9702
▁özlərin	-10.9704
▁plana	-10.9708
▁faktı	-10.9709
▁əlamətlər	-10.9711
▁etmələri	-10.9713
▁dəyiş	-10.9715
▁Firu	-10.972
ançes	-10.9725
▁doğulmuş	-10.9736
▁yoldaşları	-10.9736
▁izlə	-10.9744
▁xəstəliyində	-10.9745
▁süqut	-10.9745
▁müəllifin	-10.9746
olf	-10.9748
pək	-10.9749
▁1977	-10.9749
▁1917	-10.975
▁otaqda	-10.975
▁köçürülmüşdü	-10.9752
▁Frank	-10.9758
▁for	-10.9759
▁axtarış	-10.9761
▁amillər	-10.9762
▁Riyaziyyat	-10.9762
▁UNESCO	-10.9762
▁transfer	-10.9762
▁adalar	-10.9763
▁Minsk	-10.9763
▁qaçdı	-10.9765
▁çalışdığı	-10.9766
▁sentyabrda	-10.9768
▁əşya	-10.9771
▁Baharlı	-10.9773
▁doğurur	-10.9774
3-4	-10.9783
▁gəldiyin	-10.9787
to	-10.9789
▁razılaşma	-10.9791
kif	-10.9793
▁şəhərlərini	-10.9793
▁hesabat	-10.9795
▁ayaqları	-10.9797
▁medalla	-10.9797
▁oyunlarını	-10.9798
▁1880	-10.9803
▁nisbəti	-10.9808
düyü	-10.9809
▁Sina	-10.9811
▁1985	-10.9812
▁millisi	-10.9815
▁öyrənmiş	-10.9822
ımızın	-10.9824
▁Neptun	-10.9825
▁içi	-10.9828
▁Mehdiyev	-10.9829
▁vəzir	-10.9829
▁güləş	-10.9832
▁çoxluq	-10.9835
▁göstər	-10.9836
▁memarı	-10.9836
cim	-10.9841
▁qiymətlər	-10.9841
▁ideyalarını	-10.9841
rus	-10.9843
▁qərargahı	-10.9844
▁yekun	-10.9844
▁maşını	-10.9845
▁təkamül	-10.9848
▁aspirantura	-10.9849
▁anlayış	-10.9849
▁İdarəsin	-10.9851
▁hadisələrdə	-10.9852
▁parçaları	-10.9854
▁məkanın	-10.9859
▁çağırır	-10.9861
▁seçkilər	-10.9863
▁Anar	-10.9865
▁hədis	-10.987
▁mifologiyasında	-10.9871
▁taxtın	-10.9875
▁yazın	-10.9876
▁İsanı	-10.9877
▁2013	-10.9877
iman	-10.9877
▁Yuxarıda	-10.9878
▁olmaları	-10.9879
▁təsirində	-10.988
▁Dara	-10.9881
çar	-10.9884
▁təbliğat	-10.9884
▁konfranslar	-10.9886
▁ulduzların	-10.9887
▁Afşin	-10.9888
▁Litva	-10.9888
▁Monqolustan	-10.9888
▁Okean	-10.9888
▁plastik	-10.9888
▁Şıxlinski	-10.9888
▁itkilər	-10.9889
▁Sevil	-10.9889
▁məskunlaşdı	-10.9891
▁dizayn	-10.9893
▁xalçası	-10.9894
▁artımı	-10.9895
▁Ağı	-10.9895
▁Albert	-10.9895
rom	-10.9902
▁dəyişmə	-10.9904
▁qaldırdı	-10.9904
▁Antoni	-10.9905
▁park	-10.9911
keçər	-10.9918
▁etdirirdi	-10.9919
▁Zey	-10.9921
▁işığın	-10.9922
▁qaldıra	-10.9926
▁bağları	-10.9927
▁kökləri	-10.9936
▁bölmələri	-10.9938
▁ağıl	-10.9939
▁örtük	-10.994
▁çıxarılır	-10.9944
▁Elektr	-10.9946
▁poeması	-10.9946
▁mətni	-10.9947
▁Əmin	-10.9947
▁qurum	-10.9948
▁Toğrul	-10.9952
▁Əşrəf	-10.9952
▁sidik	-10.9952
▁voleybol	-10.9952
▁düşdüyü	-10.9953
qəsd	-10.9953
▁hüquqşünas	-10.9954
▁mülahizələr	-10.9955
▁vahidləri	-10.9958
▁mahi	-10.9958
▁vətəndaşların	-10.9962
▁qoruyur	-10.9968
▁2,5	-10.9972
▁sərhədi	-10.9973
▁parlamenti	-10.9975
▁şagirdlərin	-10.9978
cək	-10.998
▁stansiya	-10.9988
▁gətirildi	-10.9996
▁kolxoz	-11
▁hamam	-11.0005
▁müharibəni	-11.0006
▁vəzifəni	-11.0007
▁qaçmağ	-11.0008
▁sonların	-11.0009
▁orkestr	-11.0009
▁bənd	-11.001
▁fondu	-11.0012
▁İraqda	-11.0013
▁şirkətləri	-11.0015
H	-11.0015
▁şagirdi	-11.0015
▁Şəhriyar	-11.0016
▁Lider	-11.0016
▁İndoneziya	-11.0016
▁1883	-11.0016
▁tektonik	-11.0016
▁qoyulması	-11.0016
▁Səttar	-11.0017
▁fərziyyə	-11.0017
▁batil	-11.0017
▁Təsadüfi	-11.0018
▁yayıldığı	-11.0018
▁l	-11.0021
ləşmə	-11.0022
▁çəkilmə	-11.0023
▁adalarında	-11.0025
▁ustad	-11.0025
▁düzü	-11.0026
▁yerlərini	-11.0028
▁Kim	-11.0028
cam	-11.0031
▁oxumağ	-11.0033
▁abidələrin	-11.0036
▁Plan	-11.0044
▁Kam	-11.0049
▁olanların	-11.0049
▁ər	-11.0063
▁68	-11.0069
▁nitq	-11.007
▁lüğəti	-11.0072
▁Xristian	-11.0073
▁Çiçək	-11.0076
▁şahidi	-11.0076
▁Birliyin	-11.0077
▁Axundzadə	-11.0082
▁etməsin	-11.0084
▁toplanan	-11.0087
▁buraxdı	-11.0092
▁qayıtmışdı	-11.0093
▁əlamətləri	-11.0095
▁gəmilər	-11.0096
bo	-11.0096
▁Alf	-11.0099
▁Albom	-11.01
▁məsuliyyəti	-11.0101
▁vətəndaşları	-11.0102
▁orucu	-11.0107
▁Komitə	-11.0111
▁dramat	-11.0113
▁formalaşır	-11.0113
▁həyət	-11.0116
▁müəllimlərin	-11.0117
▁sinql	-11.0118
▁Dəli	-11.0119
▁76	-11.012
▁Sol	-11.012
▁Roman	-11.012
▁leytenant	-11.0121
▁rok	-11.0125
▁aktı	-11.0131
▁yetirmək	-11.0131
▁valideynləri	-11.0137
▁1892	-11.0138
▁For	-11.0139
▁həbsdə	-11.014
▁Mərkəzin	-11.0144
▁Bəxtiyar	-11.0146
▁prodüser	-11.0146
▁1890	-11.0146
▁dağıldı	-11.0146
▁Liqasın	-11.0148
▁xeyir	-11.0148
▁balet	-11.0148
▁Konstitusiyası	-11.0148
▁zahir	-11.0149
▁keçirə	-11.0149
▁yarış	-11.0153
▁gələnlər	-11.0154
▁ideolo	-11.0154
▁işçiləri	-11.0154
▁atıcı	-11.0156
▁130	-11.0158
▁Sünik	-11.016
▁gəmiləri	-11.0164
▁meşələrdə	-11.0165
▁jurnallar	-11.0165
▁Buxara	-11.0166
▁çayında	-11.0167
▁hara	-11.0167
▁Sim	-11.0168
▁bölünmüşdü	-11.0171
▁axar	-11.0172
▁ideyasını	-11.0172
▁ekspedisiya	-11.0174
▁Tusi	-11.018
▁səhnədə	-11.0182
▁Fakültə	-11.0183
▁qarşılaşmada	-11.0189
▁məclisin	-11.0195
▁qorunur	-11.0211
▁Vikipediya	-11.0211
▁yəqin	-11.0211
▁Pekin	-11.0214
▁götürülü	-11.0214
▁Kirov	-11.0215
lqar	-11.0215
V	-11.0215
▁oxumuş	-11.0216
▁molekul	-11.0217
▁ailələri	-11.0223
▁dinin	-11.0225
▁rayonlarını	-11.0226
▁oynayırdı	-11.0227
ekranlaşdırılmış	-11.023
▁99	-11.0231
▁orqanlarında	-11.0233
▁texnolo	-11.0234
▁çarpa	-11.0236
▁nikah	-11.0236
▁miqyasın	-11.0239
▁01	-11.0239
▁Yuli	-11.0244
▁parçalanması	-11.0248
▁gedişində	-11.0251
▁gözəlliyi	-11.0251
▁kar	-11.0252
▁Şam	-11.0254
▁mövzuda	-11.0254
▁Komissiya	-11.0269
sinin	-11.0271
▁dal	-11.0274
▁ADU	-11.0277
▁Mendeleyev	-11.0277
▁silindr	-11.0277
▁növünü	-11.0277
məkdədir	-11.0284
▁Şıxlı	-11.0285
▁hədəf	-11.0287
▁işığı	-11.0287
▁şəklini	-11.029
imi	-11.0291
▁keçidi	-11.0291
▁eynidir	-11.0291
məyə	-11.0295
▁etməmiş	-11.0298
▁63	-11.0303
▁İsgəndəri	-11.031
▁İşçi	-11.0311
▁izləri	-11.0311
BM	-11.0311
lap	-11.0314
▁Nazirliyində	-11.0316
▁media	-11.0318
▁Səh	-11.032
▁tələbi	-11.032
landı	-11.0329
▁İndiyə	-11.033
▁Alimlər	-11.033
▁Yunanıstanda	-11.0332
yiş	-11.0332
▁çin	-11.0334
▁rolunda	-11.0335
ah	-11.0337
oft	-11.0337
abitə	-11.0342
rtəsi	-11.0342
▁Məşhəd	-11.0343
▁Sentyabr	-11.0343
▁Varşava	-11.0343
▁Məcid	-11.0343
▁canişin	-11.0343
▁Natəvan	-11.0343
▁Fatimə	-11.0343
▁tutuldu	-11.0343
▁tapdı	-11.0344
▁obraz	-11.0346
▁Divan	-11.0346
təhsil	-11.0347
▁namizədliyi	-11.0348
▁nümunələrindən	-11.0349
▁Hacıbəyli	-11.035
▁ma	-11.0351
▁Nil	-11.0352
▁İspaniyada	-11.0353
▁məhsulun	-11.0356
▁Bəlkə	-11.0356
▁aləm	-11.0357
▁ol	-11.0357
▁Tarixçi	-11.0358
▁dinamik	-11.0362
▁şüaları	-11.0362
▁Park	-11.0364
▁bugün	-11.0365
▁vurmaq	-11.0367
▁jurnalın	-11.0369
▁1878	-11.0373
▁bitirir	-11.0377
▁süqutun	-11.0378
▁divarlarını	-11.0379
▁qoşunla	-11.0385
▁hekayələri	-11.0385
▁boks	-11.0386
▁hadisədə	-11.0387
▁növün	-11.0388
▁110	-11.039
kal	-11.0392
▁yaddaş	-11.0392
▁tamaşaçılar	-11.0393
▁cəbhəsində	-11.0394
▁ostanı	-11.0397
▁Emin	-11.0398
▁padşahı	-11.0402
▁dəvəti	-11.0404
ərəqqi	-11.0404
▁Oruc	-11.0405
▁mil	-11.0405
▁dirijor	-11.0406
▁kainatın	-11.0406
▁İspan	-11.0408
lassik	-11.0409
▁Toponim	-11.041
▁Topçubaşov	-11.041
▁etiqad	-11.041
▁fındıq	-11.041
▁İzmir	-11.041
▁intihar	-11.041
▁Harun	-11.041
▁Yəmən	-11.041
▁dekan	-11.0411
▁Musayev	-11.0413
▁xalqımız	-11.0414
▁Amerikan	-11.0414
▁Əsədov	-11.0415
▁çıxarı	-11.0418
▁şərt	-11.0424
▁mühazirələr	-11.0425
▁faciəsi	-11.0433
▁Altı	-11.0433
▁vəzi	-11.0434
▁prosesin	-11.0437
▁komm	-11.044
▁dəstəsini	-11.0442
▁Tom	-11.0448
▁növündə	-11.0452
▁dağların	-11.0459
▁qaçır	-11.0463
▁Yaponiyanı	-11.0463
▁ulduzun	-11.0464
▁Televiziyasın	-11.0469
▁Los	-11.0473
▁Mur	-11.0474
▁Mic	-11.0476
▁paleo	-11.0476
▁Xalça	-11.0477
▁səmimi	-11.0477
▁Hikmət	-11.0477
▁Platon	-11.0477
▁Rəhman	-11.0477
▁üfüq	-11.0477
▁İstehsal	-11.0477
▁gətirilə	-11.0477
▁sanitariya	-11.0477
▁Xoyski	-11.0477
▁toponim	-11.0482
▁Ne	-11.0487
▁inqilabında	-11.0487
▁iştirakçı	-11.0488
▁Fərid	-11.049
▁Tam	-11.0493
▁təbiətdə	-11.0494
5-	-11.0494
rəm	-11.0498
prezidenti	-11.0503
▁sifariş	-11.0503
▁əhəng	-11.0503
▁qabıq	-11.0505
▁yaradırdı	-11.0507
▁dövrlərində	-11.0508
▁mübahisəli	-11.0508
▁Qəzvin	-11.0514
▁bağlar	-11.0516
lüyündə	-11.0519
▁yaylası	-11.0522
▁tərəflər	-11.0522
▁maraqlıdır	-11.0525
▁kölgə	-11.0528
▁dəliyi	-11.0529
▁baxan	-11.0537
▁məktubda	-11.054
▁olduqların	-11.0542
▁Puşkin	-11.0544
▁Assuriya	-11.0545
▁Nensi	-11.0545
▁Fatma	-11.0546
▁2,	-11.0547
▁dərsləri	-11.0548
▁qədə	-11.0551
▁qayıtma	-11.0552
▁savadlı	-11.0553
▁bağlandı	-11.0555
▁örtüyünü	-11.0556
▁qohumları	-11.0558
▁şəhristanı	-11.0558
siniz	-11.0558
▁ağıllı	-11.0559
▁təyinatl	-11.056
▁turnir	-11.0561
▁Ra	-11.0566
▁gətirilir	-11.0567
▁xor	-11.0568
▁Əd	-11.0573
▁ayırma	-11.0574
▁Martin	-11.0577
ilir	-11.058
▁hüququn	-11.0583
▁1899	-11.0586
▁şeirlərini	-11.0587
▁Mis	-11.0595
▁yəhudilər	-11.0596
▁vəziyyətində	-11.0599
▁qarşısın	-11.0599
▁cəs	-11.0601
▁aparmağ	-11.0601
▁xətləri	-11.0602
▁tənəffüs	-11.0602
▁qanunların	-11.0606
▁məhkəməsi	-11.0606
▁sənə	-11.0607
▁soyu	-11.0607
▁Ruslar	-11.0609
anlı	-11.0609
▁avro	-11.0612
▁Buqro	-11.0612
▁Münhen	-11.0612
▁İslandiya	-11.0612
▁Geniş	-11.0613
▁AXC	-11.0613
▁baxış	-11.0613
▁Herat	-11.0617
▁xanlıq	-11.0617
▁maneə	-11.0619
▁dağılmış	-11.0622
▁regionun	-11.0628
▁Bədən	-11.0628
▁qanın	-11.0629
▁artist	-11.0633
▁hövzələrin	-11.0633
▁materialların	-11.0637
▁illərini	-11.0638
▁analizi	-11.0641
▁Yazı	-11.0646
▁siyahıyaalınma	-11.0647
çe	-11.0647
▁Göytürk	-11.0648
əhiyyə	-11.0649
▁İmperator	-11.0649
▁Tur	-11.0651
I	-11.0653
▁əsərlərdə	-11.0661
▁And	-11.0663
▁müqaviləsini	-11.0669
dadır	-11.067
▁Ölü	-11.0675
bat	-11.0675
▁inanır	-11.0677
▁olacağın	-11.0678
▁diyarı	-11.0679
▁Misiri	-11.068
tmək	-11.068
▁Liverpul	-11.0681
▁tənəzzül	-11.0681
▁yanlış	-11.0681
▁Fərəc	-11.0681
▁icarə	-11.0681
▁Eramız	-11.0681
▁Şükür	-11.0681
▁Baltik	-11.0681
▁qəfil	-11.0682
▁ziyarətgah	-11.0683
▁qrupda	-11.0687
▁pərdə	-11.0688
▁biliklər	-11.0693
▁yetirilir	-11.0696
▁şiddətl	-11.0696
▁başlayanda	-11.0704
▁Yur	-11.0704
▁planını	-11.0705
▁Komissarlığı	-11.0708
▁ölən	-11.071
▁66	-11.071
▁nüsxə	-11.0711
▁Lu	-11.0711
▁alınma	-11.0711
▁iclasın	-11.0712
▁romanını	-11.0712
▁Jurnalist	-11.0715
▁1828-	-11.0719
▁Evli	-11.072
▁mərkəzdə	-11.072
▁sürmüşdü	-11.0724
▁müəllifləri	-11.0724
▁məqaləsin	-11.0732
bət	-11.0732
▁Dövlətin	-11.0733
▁çıxma	-11.0737
▁oğuz	-11.074
▁problemlərini	-11.0743
▁ənənələrin	-11.0744
▁tələffüz	-11.0749
aşırı	-11.0749
▁dönüş	-11.075
▁sevdiyi	-11.075
▁Strabon	-11.075
▁yuva	-11.075
▁Region	-11.075
▁Qəznəvi	-11.075
▁tiraj	-11.0751
▁qamış	-11.0751
▁litr	-11.0752
▁aclıq	-11.0752
laraq	-11.0756
▁təsnifat	-11.0759
▁mərtəbəli	-11.0759
▁mahnılarını	-11.0762
▁elementi	-11.0762
▁qaydalarını	-11.0762
▁Turan	-11.0763
▁saysız	-11.0764
▁diqqətlə	-11.0765
▁Hərəkatı	-11.0766
▁Ağalar	-11.0767
,2	-11.0767
▁həftədə	-11.0767
▁imzalanmış	-11.0767
▁səbəblə	-11.077
▁müddətli	-11.0771
▁atdı	-11.0771
▁Zeynə	-11.0773
▁Ukraynada	-11.0773
▁evlənir	-11.0774
▁əməli	-11.0774
▁enerjisini	-11.0776
▁dayaq	-11.0778
▁Muğa	-11.0785
▁qanı	-11.0792
▁növlərin	-11.0792
▁göllər	-11.0794
əri	-11.08
lanmış	-11.0801
▁Proqramı	-11.0802
▁dəf	-11.0806
▁etibarı	-11.0807
▁öyrənilməsin	-11.0807
▁buraxılmışdı	-11.0809
▁nəslini	-11.0812
▁abidəni	-11.0813
▁saxlan	-11.0814
▁mətbu	-11.0818
¬	-11.0819
▁Kinolent	-11.0819
▁Qlazqo	-11.0819
▁Xubilay	-11.0819
▁lisenziya	-11.0819
▁Bəhreyn	-11.0819
▁Kəbir	-11.0819
▁ləzgi	-11.0819
▁İtalyan	-11.082
▁salmışdı	-11.0823
▁nəticələni	-11.0823
▁dağıdı	-11.0825
▁hamilə	-11.0825
▁funksiyaları	-11.0825
▁pey	-11.0826
▁Baha	-11.0827
▁yaradıcıları	-11.0828
▁səbəbiy	-11.0829
▁toxunmuş	-11.0831
▁qarşısı	-11.0831
▁Muradov	-11.0834
▁layihələr	-11.0835
▁Mada	-11.0835
▁dönəm	-11.0836
▁monastır	-11.084
▁toxumları	-11.0844
▁üzəri	-11.0845
▁Ro	-11.0848
▁albomunu	-11.0851
▁qurğular	-11.0852
sü	-11.0852
▁rejim	-11.0853
▁Qurani	-11.0855
▁Peyğəmbəri	-11.0857
▁gir	-11.086
▁rekord	-11.0861
▁hissələrin	-11.0863
▁münasibətdə	-11.0865
▁yetişdiril	-11.0867
▁hakimləri	-11.0868
▁Mükafatın	-11.0868
nti	-11.0869
▁məzunları	-11.0869
zm	-11.0876
▁mexanika	-11.0879
▁Şirvanda	-11.0884
▁qeydiyyat	-11.0885
▁qarşılaşdı	-11.0887
▁nümunələrini	-11.0888
▁Estoniya	-11.0889
▁Xorvatiya	-11.0889
▁birliyin	-11.0889
▁şairə	-11.089
▁tutma	-11.0892
mdar	-11.0897
▁İm	-11.0897
▁külli	-11.0904
▁insanlarda	-11.0904
qərar	-11.0905
▁dövlətində	-11.0906
▁öldürülü	-11.0906
▁tərəqqi	-11.0909
acaq	-11.091
▁Xeyr	-11.0911
vr	-11.0913
▁hövzəsi	-11.0917
mu	-11.0917
▁sistemlərini	-11.0921
▁140	-11.0921
▁tədqiqatçıların	-11.0925
▁təhlükəsizliyi	-11.0925
▁oynanıl	-11.0929
▁varlığını	-11.0931
▁karyerası	-11.0939
lməsi	-11.0939
▁sənədləri	-11.094
▁qr	-11.0942
▁adanı	-11.0944
▁hazırlayı	-11.0944
▁savaş	-11.0944
▁formalaşmış	-11.0947
▁təkid	-11.0951
▁At	-11.0952
arpa	-11.0952
▁Şimalda	-11.0954
▁qurşağın	-11.0954
▁Polis	-11.0955
▁həllini	-11.0955
fiya	-11.0956
▁Möh	-11.0957
▁İri	-11.0958
▁tapşırığı	-11.0958
▁fəaliyyətdə	-11.0958
▁gölün	-11.0959
▁Kalankatlı	-11.096
▁şəffaf	-11.096
▁kamil	-11.096
▁Boris	-11.0961
qrafik	-11.0962
▁ətəklərində	-11.0962
▁1894	-11.0962
▁çempionat	-11.0962
▁Hüm	-11.0962
▁1867	-11.0963
▁saldığı	-11.0964
▁zorla	-11.0967
▁mühiti	-11.0969
▁dağılması	-11.0971
▁etdirilmiş	-11.0972
yı	-11.0972
▁verilməsini	-11.0974
rd	-11.0974
▁qızılbaş	-11.0976
▁danışan	-11.0977
▁sintez	-11.0979
▁tələblərin	-11.0982
▁şeydə	-11.0987
▁Georgi	-11.0989
▁qoşulur	-11.099
▁suların	-11.099
▁şərəf	-11.0992
▁72	-11.0993
▁ifası	-11.0994
▁şirkətlər	-11.0995
R	-11.0995
▁seçkiləri	-11.0997
opol	-11.1002
▁Kazan	-11.1002
▁sərin	-11.1002
▁You	-11.1006
▁canlıları	-11.1009
▁adlandırma	-11.1011
▁Mak	-11.1016
▁67	-11.1016
▁silahı	-11.1017
▁Sarayın	-11.1018
▁dönə	-11.1019
işə	-11.1019
▁keçirirdi	-11.102
▁hüdudlarında	-11.1021
▁saziş	-11.1024
▁boğazı	-11.1027
▁Avesta	-11.1031
▁Osetiya	-11.1031
▁Maqomayev	-11.1031
▁Vilhelm	-11.1031
▁Yupiter	-11.1031
▁protokol	-11.1031
▁qanunauyğunluq	-11.1031
▁ödənilməsi	-11.1031
▁fonunda	-11.1031
▁qoyduğu	-11.1032
▁1863	-11.1033
▁süfrə	-11.1033
▁itirir	-11.1033
▁sürdü	-11.1034
▁başqalarını	-11.1036
▁rənglər	-11.1043
▁Məlikov	-11.1047
▁Əfqanıstanda	-11.1047
▁təqdimatı	-11.1048
▁Sam	-11.1049
▁təyinat	-11.1049
▁toplayı	-11.1052
▁səni	-11.1052
▁ixtisaslaşmış	-11.1056
sanlı	-11.1058
▁terrorçu	-11.106
▁ştatında	-11.1064
▁soyadı	-11.1065
▁birləşdirilməsi	-11.1065
axanı	-11.1069
▁maral	-11.107
▁Amerikanı	-11.107
▁sifarişi	-11.1074
▁nüfuzunu	-11.1078
▁İnşaat	-11.108
▁şöhrəti	-11.108
▁dağıdılmış	-11.1081
▁olunma	-11.1086
▁dərinlikdə	-11.1092
▁hökümət	-11.1093
▁demiş	-11.1093
kan	-11.1095
rdı	-11.1095
▁həcmində	-11.1101
▁olmamış	-11.1101
▁qəbirlər	-11.1102
▁zəhmət	-11.1102
·	-11.1102
▁kobud	-11.1102
▁sığınacaq	-11.1102
▁ATƏT	-11.1102
▁Rəvayət	-11.1102
▁doğulduğu	-11.1102
▁tədrisi	-11.1104
▁Salam	-11.1107
▁hasilatı	-11.1107
giya	-11.1111
▁Cəmiyyət	-11.1111
▁Qrupun	-11.1115
▁qazanması	-11.1116
▁materialı	-11.1116
▁tayfasından	-11.1117
▁qurultay	-11.1118
▁həzrət	-11.1123
▁dövlətlərini	-11.1132
▁yetirilmişdi	-11.1133
▁xanları	-11.1134
▁orduları	-11.1135
▁yataqlarını	-11.1135
▁tərəfini	-11.1137
▁Xuda	-11.1148
▁müxalifət	-11.1149
▁proqramının	-11.1151
ış	-11.1155
▁Qu	-11.1157
▁toxuna	-11.1158
▁sənətçi	-11.1159
▁bazarı	-11.1163
qabağı	-11.1163
lmuşdur	-11.1165
▁ovalığı	-11.117
▁yanı	-11.1171
▁məskunlaşıb	-11.1174
▁Babur	-11.1175
▁ssenarist	-11.1176
▁keyfiyyəti	-11.1176
▁tank	-11.1178
▁soğan	-11.1178
▁Xaçın	-11.1179
▁çatması	-11.118
▁lüğət	-11.1184
▁Naxçıvanı	-11.1184
▁köçürülmüş	-11.1186
▁məktublar	-11.1188
▁amerikan	-11.1188
▁yürüşləri	-11.1188
▁Xilafət	-11.1191
▁tələbləri	-11.1192
▁dastanı	-11.1193
▁Babəki	-11.1196
▁işçilərin	-11.1196
▁sütun	-11.1199
▁Bağır	-11.1204
▁pilləsin	-11.1206
▁istiqamətini	-11.1211
▁qurub	-11.1211
▁1888	-11.1223
▁şəkilləri	-11.1224
▁qrafik	-11.1225
▁dəvə	-11.1225
▁yüksələ	-11.1227
▁reallaş	-11.1229
▁hissələrdə	-11.1231
▁cismin	-11.1234
▁Ben	-11.1234
▁Albaniyanı	-11.1235
▁evləndi	-11.1239
▁böhranı	-11.124
▁naha	-11.124
▁oba	-11.1242
▁mübahisələr	-11.1243
▁Ərzurum	-11.1246
▁Elizabet	-11.1246
▁Xədicə	-11.1246
▁bəhanə	-11.1246
▁1881	-11.1246
▁cənab	-11.1246
▁buyurdu	-11.1247
▁qurucusu	-11.1247
▁ediləcək	-11.1247
▁Sahəsi	-11.1249
▁mənbələrin	-11.125
▁ətirli	-11.1252
▁hey	-11.1252
▁sualtı	-11.1253
övhər	-11.1253
▁çağda	-11.1255
▁Bəs	-11.1256
▁astronom	-11.1257
▁Bayan	-11.1258
▁zəhərli	-11.1261
▁müşaviri	-11.1264
▁Niyazi	-11.1264
▁ölmüş	-11.1266
▁900	-11.1268
▁görməyə	-11.1272
▁fəsiləsi	-11.1279
▁qəbiristanlığın	-11.128
▁qoşununu	-11.1282
boyu	-11.1284
▁hərbçi	-11.1284
▁həqiqəti	-11.1285
▁sənədlərdə	-11.1285
▁müxtəlifdir	-11.1288
▁kursu	-11.129
▁31-	-11.1291
▁zirvə	-11.1292
▁knyaz	-11.1294
▁Məkkədə	-11.1294
ens	-11.1296
▁quldurları	-11.1297
▁təqvim	-11.1298
▁toqquşma	-11.1302
TV	-11.1305
▁planetlərin	-11.1305
▁tacir	-11.1305
▁Cümhuriyyət	-11.1307
▁acı	-11.1313
▁oluns	-11.1315
▁oxucu	-11.1318
▁müayinə	-11.1319
berq	-11.1319
▁çıxarıldı	-11.132
▁əsgərlərin	-11.132
▁bağlaya	-11.132
▁Hidayət	-11.132
▁Leonardo	-11.132
▁vuruşma	-11.132
▁rep	-11.132
▁kadr	-11.1322
▁Zi	-11.1324
▁Öt	-11.1324
▁televiziyasın	-11.1324
▁əmir	-11.1324
▁göstərməsi	-11.1328
▁Səfərov	-11.1328
▁Köçərli	-11.1328
▁Mi	-11.133
▁sevən	-11.133
▁qoya	-11.133
övq	-11.1331
gin	-11.1332
▁zənginliyi	-11.1333
▁mahiyyətini	-11.1333
▁həbsxana	-11.1333
▁imkanlarını	-11.1334
▁Nuri	-11.1336
▁nəticələrini	-11.1337
▁Hadi	-11.1337
▁bəra	-11.1338
▁Quranı	-11.1339
▁salınır	-11.1339
▁kəsmə	-11.134
▁Qacarlar	-11.1343
▁şərtlərin	-11.1346
▁mexanizm	-11.1347
▁memarlığın	-11.135
▁Şirkət	-11.1354
▁York	-11.1356
çılar	-11.1356
▁350	-11.1359
▁tikilir	-11.1369
▁çağırılmış	-11.1374
▁155	-11.1376
▁ağanı	-11.1379
▁xammal	-11.138
▁qarşıdurma	-11.138
▁meyvələr	-11.139
▁Latviya	-11.1393
▁Sinqapur	-11.1393
▁Tetçer	-11.1393
▁araşdırılması	-11.1393
▁deportasiya	-11.1393
▁kinorejissor	-11.1393
▁mühakimə	-11.1393
▁Gözəl	-11.1393
▁qoxu	-11.1393
▁saf	-11.1396
▁Səhər	-11.1396
▁dövrlərin	-11.1399
▁qanuna	-11.1408
▁meşələrində	-11.1409
▁erkək	-11.141
▁mövsümünü	-11.141
▁evlilik	-11.1411
▁sakinlər	-11.1411
▁Əsgərov	-11.1411
▁yonulm	-11.1412
▁qoşulma	-11.1412
▁ideyalar	-11.1412
▁gərginlik	-11.1413
▁neftin	-11.1414
▁şi	-11.1416
▁Kar	-11.1417
▁adada	-11.1418
▁itirmiş	-11.1419
▁mütəxəssislərin	-11.1419
▁başlanmış	-11.1423
▁girir	-11.1428
▁fakultəsin	-11.1435
▁Hakimiyyəti	-11.1437
yəz	-11.1439
▁sərəncam	-11.1444
▁Monqol	-11.1446
▁demokratiya	-11.1449
▁ziyalılar	-11.145
inq	-11.145
▁yağları	-11.1451
▁şiddət	-11.1452
▁getdiyi	-11.1453
eh	-11.1454
▁Tədqiqat	-11.1454
▁rəsmlər	-11.1458
▁Xanım	-11.146
▁toplanmışdı	-11.146
▁etnonimi	-11.1461
▁çəkmişdi	-11.1461
▁şahid	-11.1462
▁poema	-11.1462
▁oykonimi	-11.1464
▁Arş	-11.1464
▁oyunlarda	-11.1465
▁Allahverdi	-11.1467
▁hörülmüş	-11.1467
▁Foqts	-11.1467
▁qastrol	-11.1467
▁Zərdüşt	-11.1467
▁zəfər	-11.1467
▁ağciyər	-11.1468
▁miqrasiya	-11.1468
▁olunacaq	-11.1469
▁Bursa	-11.1469
▁qalxdı	-11.147
▁Saleh	-11.1472
▁deməyə	-11.1475
▁yetkin	-11.1476
▁salan	-11.1478
▁Dəvə	-11.1478
▁şeirlərində	-11.1478
▁hissəni	-11.1483
▁stansiyaları	-11.1485
▁daşın	-11.1491
▁yaşda	-11.1492
təpə	-11.1495
leytenant	-11.1495
▁sikkə	-11.1496
▁Nov	-11.1501
▁arxada	-11.1502
▁donanma	-11.1503
▁halları	-11.1505
▁müşahidələr	-11.1506
▁planetlər	-11.1509
▁obyektlərin	-11.151
▁sarayını	-11.1514
▁mif	-11.1515
▁işlərdə	-11.1517
▁Adana	-11.152
▁standart	-11.1521
▁Yolu	-11.1523
▁xanlıqları	-11.1525
▁meyvəsi	-11.1526
men	-11.1526
▁toplanmış	-11.1528
▁potensial	-11.153
▁rejimini	-11.153
▁ayları	-11.1534
▁mənaların	-11.1535
▁birliyini	-11.1537
▁zadəgan	-11.1537
▁parçalar	-11.1539
▁təzahür	-11.1541
▁effektiv	-11.1542
▁müqabili	-11.1542
▁Pavel	-11.1542
▁İsrafil	-11.1542
▁Vidadi	-11.1542
▁Uğur	-11.1542
▁Mansurov	-11.1542
▁verəcək	-11.1542
funksional	-11.1544
▁1893	-11.1544
▁Gecə	-11.1545
▁getməyə	-11.1547
▁körpə	-11.155
▁günlər	-11.1551
▁dəyişdirilməsi	-11.1551
▁mövzularda	-11.1556
▁gövdəsi	-11.1557
▁elementin	-11.1558
▁təklifini	-11.1559
▁92	-11.156
▁qanunlarını	-11.1561
▁Həsənəli	-11.1561
▁Dövrün	-11.1561
▁fakultəsini	-11.1563
▁göstəriş	-11.1564
ləşir	-11.1564
▁qarışığı	-11.1567
▁zolağı	-11.1567
▁Andrey	-11.1568
▁qurbanı	-11.1569
.	-11.1573
işli	-11.1575
▁qaçı	-11.1577
▁ruhunu	-11.158
▁sülaləsin	-11.158
▁kürəsini	-11.1585
-5	-11.1587
▁oruc	-11.1587
aliyyə	-11.159
▁Ərəbistan	-11.1592
▁dəyər	-11.1595
▁klipi	-11.1596
▁kürdlər	-11.1597
▁uşağın	-11.1602
▁rollarda	-11.1604
▁spektr	-11.1608
▁Məmlük	-11.1608
▁şərqi	-11.1614
▁növlərini	-11.1616
▁ödəniş	-11.1617
▁Araşdırmalar	-11.1617
▁edilər	-11.1617
▁seyrək	-11.1618
▁Nyuton	-11.1618
▁təmizləmə	-11.1618
▁olacağı	-11.162
pesifik	-11.162
▁versə	-11.1622
▁milyonlarla	-11.1626
övqəl	-11.1628
▁tutulu	-11.163
▁Peru	-11.1631
▁Qorki	-11.1634
▁bilmiş	-11.164
▁vəzifələrini	-11.1642
hi	-11.1643
▁işləmə	-11.1654
▁Assambleyası	-11.1656
▁heyvanları	-11.1658
▁Kitabi	-11.1659
▁şairləri	-11.1659
▁çıxartdı	-11.1661
▁Təşkilatın	-11.1664
▁dik	-11.1666
▁ailədən	-11.1667
qədi	-11.1669
▁xörək	-11.167
▁Sab	-11.167
▁1200	-11.1672
▁ifaçı	-11.1673
▁evini	-11.1675
ex	-11.1675
▁uzunluqda	-11.1676
▁əməliyyatların	-11.1676
▁stadionu	-11.168
üsnü	-11.1681
▁cəm	-11.169
▁sənətində	-11.1692
▁vəzifəli	-11.1692
▁yayıl	-11.1692
▁Konstantin	-11.1692
▁Humay	-11.1693
▁şabalıd	-11.1693
▁vəliəhd	-11.1693
▁varsa	-11.1693
▁Behbudov	-11.1694
▁xarabalıq	-11.1694
▁əlaqələndirir	-11.1694
▁bildir	-11.1695
1-2	-11.1696
▁düşürdü	-11.1696
▁İlahi	-11.17
▁avar	-11.1701
▁layiqli	-11.1701
▁bölməsini	-11.1702
▁ərəbləri	-11.1702
laşmış	-11.1703
▁verdiyini	-11.1703
▁tanrılar	-11.1704
▁qiya	-11.1705
▁qəzəb	-11.1707
▁tərzini	-11.1713
nternat	-11.1716
▁ayın	-11.1716
▁şeri	-11.1719
▁mühərriki	-11.1722
▁diyarın	-11.1723
▁sənətkarı	-11.1723
▁1800	-11.1723
▁qazan	-11.1727
▁çoxları	-11.1727
işmiş	-11.1728
▁kəşfi	-11.173
▁səciyyə	-11.1739
▁dövriyyəsi	-11.174
▁fəlakət	-11.1742
▁əqli	-11.1743
▁memarlığını	-11.1747
▁Akademiya	-11.1747
▁tipləri	-11.1751
▁qızılı	-11.1752
▁kurs	-11.1753
▁götür	-11.1753
▁sa	-11.1755
▁peyki	-11.1759
▁Kürü	-11.1759
▁konsul	-11.1759
▁ey	-11.176
▁mənbədə	-11.1762
▁rəy	-11.1764
▁məsafəni	-11.1764
▁imzası	-11.1766
▁məbləğ	-11.1768
▁Mehmandarov	-11.1769
▁bostan	-11.1769
▁emosional	-11.1769
▁Ərəblinski	-11.1769
▁çəhrayı	-11.1769
▁Çexiya	-11.1769
▁düşünürdü	-11.1769
▁balığı	-11.1771
▁optik	-11.1775
▁metallar	-11.1776
▁ucuz	-11.1777
▁Edi	-11.1785
▁xəzinə	-11.179
▁Güm	-11.1795
▁Teymurilər	-11.1795
▁Sal	-11.1799
▁bölünməsi	-11.1799
▁ictimaiyyətin	-11.18
▁Wor	-11.1806
daş	-11.1816
▁kursunu	-11.1817
▁şad	-11.1819
▁İsti	-11.1824
▁məscidlər	-11.1828
▁sağlamlığı	-11.1829
▁yəhudilərin	-11.183
▁fərqləndirmə	-11.1831
▁İyul	-11.1835
▁hərəkətini	-11.1837
▁Texnikumun	-11.1837
▁sır	-11.1841
▁qrupların	-11.1841
ger	-11.1842
▁qalmaq	-11.1842
▁birləşmələrin	-11.1843
▁formal	-11.1844
▁bucaq	-11.1844
▁mühacir	-11.1844
▁istehlak	-11.1845
▁çarpır	-11.1846
▁bacardı	-11.1846
▁Rəcəb	-11.1846
▁Tunis	-11.1846
▁polad	-11.1846
▁Balaxanı	-11.1846
▁Bədəlbəyli	-11.1846
▁59	-11.185
▁qoşulmuş	-11.185
▁Çiçəkləri	-11.1851
▁çatmaq	-11.1851
had	-11.1852
▁oynamaq	-11.1854
▁toplamaq	-11.1855
▁vadisində	-11.1855
▁təbəqəsində	-11.1855
▁Bo	-11.1855
▁tamamlayı	-11.1856
▁saxlayırdı	-11.1858
nün	-11.186
▁futbolun	-11.1862
▁Ki	-11.1862
▁qəzetləri	-11.1862
▁Xəlilov	-11.1863
▁prinsip	-11.1864
kilsə	-11.1869
üd	-11.1871
▁xərcləri	-11.1872
▁mühərrik	-11.1872
▁Sənan	-11.1874
▁seriya	-11.1875
▁gələndə	-11.1877
▁obrazları	-11.1877
abul	-11.1877
▁zülal	-11.1877
ted	-11.1882
lub	-11.1883
▁qalaları	-11.1885
▁İraqı	-11.1889
▁mükafatları	-11.1889
6-	-11.1891
▁uğurları	-11.1899
▁çıxmağ	-11.19
▁tamaşaçıları	-11.1902
▁əsil	-11.1902
▁taxtda	-11.1905
▁baxır	-11.1906
▁millətin	-11.1909
▁yazılarında	-11.1911
▁variant	-11.1912
▁Ak	-11.1913
rza	-11.1913
▁xatirələrində	-11.1914
▁şagirdləri	-11.1914
▁çıxdıqda	-11.1914
▁genişləndirmə	-11.1915
▁Ceyh	-11.1919
▁həyətin	-11.1922
1-	-11.1923
anu	-11.1923
▁Əbdürrəh	-11.1923
▁Gəray	-11.1923
▁1848	-11.1923
▁Qaça	-11.1924
▁quruculuğu	-11.1924
▁Nigeriya	-11.1924
▁Nami	-11.1925
▁nümayəndəliyi	-11.1927
▁gözlə	-11.1927
▁vergilər	-11.1932
▁pop	-11.1935
▁adlandırılı	-11.1938
▁İqtisad	-11.1943
monu	-11.1945
9-	-11.1946
▁yamaclar	-11.1951
milli	-11.1957
▁söyləmə	-11.1965
▁nümunələr	-11.1974
▁əlini	-11.1975
▁Bab	-11.1975
▁doktor	-11.1979
▁61	-11.1981
▁qram	-11.1981
▁vura	-11.1986
▁Sudan	-11.199
▁Azərbaycanlılar	-11.1991
▁Babı	-11.1992
▁budaqları	-11.1995
▁əti	-11.1996
▁Din	-11.1997
▁imperiyanı	-11.1998
▁Elçibəy	-11.2001
▁kədər	-11.2001
▁yetər	-11.2001
▁İrakli	-11.2001
▁Ün	-11.2001
▁heyrət	-11.2001
▁kəsə	-11.2001
▁göründüyü	-11.2002
▁bağlanması	-11.2002
▁geologiya	-11.2002
▁aqrar	-11.2003
▁sertifikat	-11.2003
▁ədədi	-11.2003
▁saxladı	-11.2003
▁Tağı	-11.2006
▁albomunda	-11.2007
▁azadlığ	-11.2011
▁fərqlənirdi	-11.2011
▁sinfini	-11.2013
▁düzənliyində	-11.2015
▁gəncləri	-11.2016
▁yetişmiş	-11.2016
▁rəqəmlər	-11.2027
▁axı	-11.2028
▁strukturun	-11.203
▁portret	-11.2032
▁hərf	-11.2034
994	-11.2035
▁sənədlərin	-11.2035
ovsk	-11.2035
▁Məbədi	-11.2037
▁Süleymanov	-11.2039
▁istiqamətləri	-11.2045
▁razılığ	-11.2049
▁içəri	-11.205
▁kilsələri	-11.205
▁saç	-11.205
▁Xidməti	-11.2053
▁rəssamlar	-11.2058
▁hövzəsini	-11.206
▁təsdiqləyi	-11.206
▁evlənmə	-11.2061
▁ocaq	-11.2066
oks	-11.207
▁təriqətin	-11.2072
▁tənqidçi	-11.2073
ərviş	-11.208
▁Aktrisa	-11.208
▁Keçi	-11.208
▁Palatası	-11.208
▁Ömrünü	-11.208
▁Lətif	-11.208
▁Ətraf	-11.208
▁küp	-11.208
▁qaşı	-11.208
▁nominasiyasın	-11.2081
▁yataq	-11.2082
▁Yayım	-11.2084
▁Məhərrəmov	-11.2085
▁mahal	-11.2086
▁Ölüm	-11.2086
▁təmas	-11.2087
zey	-11.2089
▁köməy	-11.2092
▁Key	-11.2095
▁məşq	-11.2095
▁İsgəndərov	-11.2097
▁istədiyini	-11.2099
▁fəlsəfəsini	-11.2102
▁fərd	-11.2102
layır	-11.2104
▁qəbulunda	-11.2107
▁məskənləri	-11.2108
▁için	-11.2108
▁Alt	-11.2108
▁birləşdirilmiş	-11.2109
rasiya	-11.211
▁bildirirdi	-11.2112
▁Zəy	-11.2115
▁dönən	-11.2116
▁Konqres	-11.2126
▁məmurları	-11.2126
▁Zərdab	-11.2126
▁mülkiyyət	-11.2127
▁Lui	-11.2129
▁buyuru	-11.2136
▁pozul	-11.2138
▁mövqelərini	-11.214
▁dönür	-11.214
▁lövhə	-11.2146
▁Leon	-11.2146
▁güllə	-11.2147
▁gəlməsini	-11.2147
▁Tələbələr	-11.2149
▁titul	-11.2151
▁mövqedə	-11.2158
▁Trabzon	-11.216
▁düşünülür	-11.216
▁Xəldun	-11.216
▁1882	-11.216
▁polyak	-11.216
▁Çayı	-11.216
▁kontinental	-11.216
▁Ronald	-11.216
▁Viktoriya	-11.216
▁Qulam	-11.216
asar	-11.2161
▁ötürülməsi	-11.2161
▁öldürmək	-11.2163
▁baxı	-11.2171
▁bişiril	-11.2172
▁materik	-11.2174
▁parkı	-11.2175
▁onlarda	-11.2175
▁XXI	-11.2177
▁divarında	-11.2179
qiymətləndirilir	-11.2179
▁Tərcümə	-11.2182
▁əlyazmaları	-11.2182
▁sürətini	-11.2185
sey	-11.2187
▁Əsəri	-11.2187
▁ağaclar	-11.2188
▁sularda	-11.219
▁Klubu	-11.2193
▁tərif	-11.2197
▁qadınları	-11.2198
ərazi	-11.2204
▁döyüşçüləri	-11.2206
▁düzənliyi	-11.2208
▁bulaqlar	-11.2208
▁dəyişmişdi	-11.2212
▁planda	-11.2213
▁malları	-11.2214
▁açıqlama	-11.2215
▁mövcudluğunu	-11.2215
▁keçirilməsində	-11.222
▁Po	-11.222
▁əmiri	-11.2225
▁liqa	-11.2226
▁uçu	-11.2226
▁1950	-11.2231
▁komitə	-11.2234
▁atları	-11.2236
▁müdrik	-11.2239
▁Həştərxan	-11.224
▁Moğol	-11.224
▁qalmır	-11.224
▁şikayət	-11.224
▁elin	-11.2241
▁oyununu	-11.2242
▁ensiz	-11.2242
▁Seyf	-11.2243
▁zolaq	-11.2249
▁təhsilli	-11.225
▁dərslər	-11.2251
▁mövqeyində	-11.2252
▁Buradakı	-11.2253
▁açılış	-11.2254
▁şirə	-11.2256
▁Şamlı	-11.2257
▁nəğmələr	-11.2259
▁yüksəldi	-11.2261
▁to	-11.2262
▁məqsədləri	-11.2262
▁gəlməyə	-11.2265
▁Təşkilat	-11.2269
▁itki	-11.2269
▁avto	-11.227
▁Vilayət	-11.2274
▁avtomobili	-11.2275
▁cümlə	-11.2275
▁Bal	-11.2284
▁unu	-11.2284
▁daşımış	-11.2284
▁imzalamışdı	-11.2286
rəsmi	-11.2286
▁yaşamaqda	-11.2287
▁əsaslarını	-11.2287
▁salı	-11.2289
▁tağ	-11.2292
▁qal	-11.2294
▁qurmuş	-11.2294
▁qurğuları	-11.2296
▁repressiya	-11.2297
▁əyləncə	-11.2299
▁jurnalistlər	-11.2314
▁cır	-11.2315
▁yığmasını	-11.2317
▁poem	-11.2318
▁fənn	-11.232
▁Ayətullah	-11.232
▁Ibrahim	-11.232
▁doğulan	-11.232
▁protestant	-11.232
▁təşviq	-11.232
▁1840	-11.232
▁Nafta	-11.232
▁valyuta	-11.232
▁1884	-11.2321
▁bitişik	-11.2322
▁camaatın	-11.2322
mon	-11.2322
▁keçiriləcək	-11.2323
▁oyunçusu	-11.2324
▁1871	-11.2325
▁coğrafiyası	-11.2328
▁82	-11.2328
▁xristianlar	-11.2334
▁ornament	-11.2338
▁titulunu	-11.2338
▁məhsulların	-11.234
▁məntəqə	-11.234
▁Yel	-11.234
▁71	-11.2342
▁sularında	-11.2343
▁ötürmə	-11.2343
ğıda	-11.2345
▁Be	-11.2346
▁şəkillər	-11.2347
▁satışı	-11.2347
tov	-11.2349
-15	-11.2352
▁səhnələri	-11.2354
▁Çal	-11.2355
▁93	-11.2355
▁qrafika	-11.236
▁qəzetlərində	-11.2361
▁Bert	-11.2362
▁güzəşt	-11.2366
lənməsi	-11.2377
oqo	-11.2377
▁adəti	-11.2379
▁Xilafətin	-11.2383
▁Şiraz	-11.2388
lavyan	-11.2392
▁səyləri	-11.2395
rxis	-11.2398
▁statusunu	-11.2398
▁körpüsü	-11.2398
▁institutunu	-11.2399
▁canlılar	-11.2401
übhəsiz	-11.2401
▁Bismark	-11.2401
▁sutka	-11.2401
▁çatdırmaq	-11.2402
▁Florensiya	-11.2402
▁Nasir	-11.2402
▁basketbol	-11.2402
▁Mənsur	-11.2402
▁69	-11.2402
ürüldü	-11.2403
▁yayıldı	-11.2404
xsan	-11.2404
▁1876	-11.2405
▁çarlığı	-11.2408
▁qanunun	-11.2411
▁kapital	-11.2412
▁maddəni	-11.2415
▁83	-11.2417
▁istehsalın	-11.2417
▁Ant	-11.2419
▁xürrəmilər	-11.242
▁çıxar	-11.2423
▁qızını	-11.2429
▁Xanlıq	-11.2431
▁təzyiqlər	-11.2431
▁Ərəblər	-11.2432
▁mağaza	-11.2433
▁yollanır	-11.2436
▁qalma	-11.2437
▁kollektivi	-11.244
▁300-	-11.2441
▁cəhdi	-11.2442
▁Qaz	-11.2446
▁məsələsini	-11.2446
▁rütbəsinə	-11.2453
▁Çarl	-11.2453
▁qazma	-11.2459
▁şəxsləri	-11.2464
▁zövq	-11.2469
ional	-11.2471
dim	-11.2473
▁icrası	-11.2479
▁Viktor	-11.2483
▁mütəxəssisləri	-11.2483
▁Eduard	-11.2483
▁Sührəvərdi	-11.2483
▁Zəncan	-11.2483
▁buraxıldı	-11.2484
▁inteqrasiya	-11.2484
▁mayor	-11.2485
▁Qədir	-11.2487
▁birisi	-11.249
▁naib	-11.249
▁Presli	-11.249
me	-11.2491
▁Müəmm	-11.2491
▁ayrılı	-11.2492
▁qitəsin	-11.2496
▁To	-11.2496
▁kimsə	-11.2498
▁müəssisələrin	-11.2499
▁Marks	-11.2501
▁heykəlləri	-11.2506
▁proqramların	-11.2507
▁fransızlar	-11.2507
▁Xaqani	-11.2511
açmışdır	-11.2515
▁qurumları	-11.2518
▁çəkirdi	-11.252
▁avadanlıqları	-11.252
▁Sovetin	-11.252
▁00	-11.2523
▁Mari	-11.2526
▁ölür	-11.253
▁cəhdləri	-11.2532
▁Ensiklopediyası	-11.2537
▁münasibətini	-11.2544
▁Kərə	-11.2546
▁Klubun	-11.2551
▁ing	-11.2555
▁98	-11.2556
▁dəmiryol	-11.2557
▁Car	-11.2561
▁z	-11.2562
ilis	-11.2562
▁təsnif	-11.2564
▁Diyarbəkir	-11.2566
▁Monteneqro	-11.2566
▁elastik	-11.2566
▁univers	-11.2566
▁ziyafət	-11.2566
▁tülkü	-11.2566
▁Bədəl	-11.2566
▁açmaq	-11.2567
▁qurduğu	-11.2567
▁bünövrəsi	-11.2567
▁çağırdı	-11.2569
▁disk	-11.257
▁tamaşaları	-11.2571
metr	-11.2571
▁İttifaqında	-11.2573
▁janrı	-11.2578
▁Dillər	-11.2578
▁pulu	-11.2578
dib	-11.2582
▁kollec	-11.2583
▁şura	-11.2588
▁balıqçılıq	-11.2591
lığını	-11.2592
▁yüksəlmişdi	-11.2593
▁görüşündə	-11.2599
▁heyvanlarda	-11.26
▁yamaclarında	-11.2605
▁ənənəsi	-11.2605
▁Parkın	-11.261
akt	-11.2614
▁dinlər	-11.2614
▁daşınması	-11.2619
▁müstəmləkə	-11.2623
alp	-11.2623
▁qadağa	-11.2627
bucaq	-11.2628
▁yarışda	-11.263
▁boşluq	-11.2634
▁iqlimin	-11.2635
▁Adam	-11.2636
▁alov	-11.2636
▁xoşu	-11.2644
▁iqtisad	-11.2645
▁sədaqət	-11.2647
▁Tikinti	-11.2649
▁Şaumyan	-11.2649
▁gəlmir	-11.2649
▁unikal	-11.2649
▁həcc	-11.265
▁Bəhmənyar	-11.265
▁96	-11.2651
rud	-11.2652
▁səbəbini	-11.2656
▁Paşayev	-11.2656
▁Naxçıvanski	-11.2656
▁Adəm	-11.2658
▁təməli	-11.2662
▁səyahəti	-11.2664
▁Şirvanı	-11.2664
▁toxunur	-11.2665
▁gündüz	-11.2665
▁qatar	-11.2669
nur	-11.2672
▁işarəsi	-11.2675
▁əd	-11.2676
▁mövsümdə	-11.2678
lüm	-11.2678
▁səfərlər	-11.268
▁formalarını	-11.2683
▁Təbrizin	-11.2685
▁1875	-11.2688
▁Fevral	-11.2688
▁yarışlar	-11.2692
▁müsəlmanları	-11.2693
▁di	-11.2694
▁bəyə	-11.2694
▁qəddar	-11.2694
▁noyabrda	-11.2695
▁düzənlikdə	-11.27
▁uğramış	-11.27
▁Zo	-11.2702
▁qapıları	-11.2702
qay	-11.2703
▁sər	-11.2705
▁yazılması	-11.2706
▁narazı	-11.2707
▁edilməmiş	-11.271
▁verməyi	-11.2711
▁Bahar	-11.2713
▁Qüds	-11.2718
▁77	-11.2722
▁arxasın	-11.2726
▁ölkəmizi	-11.273
▁yetirdi	-11.273
▁üçdə	-11.273
▁cəngavər	-11.2733
▁Kompüter	-11.2733
▁hüzurun	-11.2733
▁1885	-11.2733
▁Soltan	-11.2734
▁Sağ	-11.2734
▁dolğun	-11.2734
▁faşist	-11.2739
▁üçü	-11.2742
▁1937	-11.2742
▁göndəri	-11.2743
▁kənarı	-11.2743
▁Qurultay	-11.2744
▁Konya	-11.2745
▁azot	-11.2747
▁hərəkətin	-11.2747
▁keçmə	-11.275
oy	-11.2757
▁cərəyanı	-11.2757
▁1860	-11.2757
rac	-11.2759
▁florası	-11.2764
▁getməsi	-11.2766
▁əyalətin	-11.2767
▁fikirlərin	-11.2772
▁zədə	-11.2772
▁göndərili	-11.2776
▁Do	-11.2777
▁bürc	-11.2778
▁narın	-11.2779
▁vilayətlərində	-11.2781
▁çətinliklə	-11.2781
▁Kolleci	-11.2784
▁rəis	-11.2789
Tədqiqat	-11.2792
bil	-11.2793
▁cəhətləri	-11.2796
▁layihələrin	-11.2797
▁etdirilmişdi	-11.2798
▁almaya	-11.2798
▁78	-11.2798
▁yaradıcılıqla	-11.28
▁relyefi	-11.2801
▁əlaqəsini	-11.2804
▁futbolçular	-11.281
▁Gün	-11.2812
▁Axund	-11.2813
▁kitablarında	-11.2814
▁xatırlayır	-11.2814
▁Avstraliyada	-11.2816
▁bas	-11.2816
▁Kəpə	-11.2818
▁söylənil	-11.2818
▁kəllə	-11.2818
▁qurtarma	-11.2818
▁Mərakeş	-11.2818
▁Qırx	-11.2818
▁münbit	-11.2818
▁dairəsini	-11.2818
▁partizan	-11.2818
▁Xadim	-11.2819
▁Müvə	-11.2819
▁Elxanilər	-11.2819
▁armud	-11.2819
▁Fəzl	-11.2819
▁1879	-11.2822
▁yayla	-11.2824
X	-11.2824
▁dağında	-11.2825
▁hallar	-11.2827
▁matçda	-11.2832
▁atomları	-11.2836
▁səfirliyi	-11.2836
▁otaqlar	-11.2837
bel	-11.2839
▁vur	-11.284
▁bilməmiş	-11.284
▁konfransı	-11.284
▁cəhətlər	-11.2843
▁Mona	-11.2848
▁atıla	-11.2849
▁kökündə	-11.2849
▁gimnaziya	-11.2852
▁sizi	-11.2854
tmaq	-11.2854
▁hazırlanı	-11.2855
▁örtülmüş	-11.2856
▁81	-11.2856
▁metodları	-11.2856
▁Ta	-11.2857
▁taleyini	-11.286
▁münaqişəsi	-11.2861
▁oynamağ	-11.2866
▁Klub	-11.2866
O	-11.2867
gedə	-11.2869
▁Hun	-11.287
▁ne	-11.287
▁çıxışlar	-11.2876
▁qura	-11.2882
▁Qaya	-11.2883
▁ingiliscə	-11.2884
▁Mə	-11.2885
A	-11.2886
▁ko	-11.2887
▁dediyin	-11.2887
▁Xiyaban	-11.2887
▁binasını	-11.2892
iyalı	-11.2894
heç	-11.2895
▁prof	-11.2898
▁oxucular	-11.2898
▁tikililəri	-11.2898
əmmü	-11.2899
▁redaksiya	-11.2903
▁Axsitan	-11.2904
▁Təəssüf	-11.2904
▁qurtarı	-11.2904
▁xəyanət	-11.2904
▁Çexoslovakiya	-11.2904
▁yenidənqurma	-11.2904
▁Ferr	-11.2904
▁qoşulmuşdu	-11.2904
▁patent	-11.2904
▁çatdırılması	-11.2904
▁maraqla	-11.2909
▁etməmişdi	-11.2912
▁dəyirman	-11.2913
▁qərarını	-11.2916
▁verməkdə	-11.2923
yabanı	-11.2924
▁əmlakı	-11.2926
▁hövzəsində	-11.2927
əzəli	-11.2927
▁Yapon	-11.293
▁yürüşlər	-11.2931
lur	-11.2934
▁vergiləri	-11.2944
▁pilot	-11.2944
▁gəmilərin	-11.2944
▁duzlu	-11.2945
▁səltənəti	-11.2946
girov	-11.2948
▁Vilayətin	-11.2953
▁1887	-11.2955
▁ayrıl	-11.2955
▁jurnalların	-11.2956
4-	-11.2957
▁peyk	-11.2957
▁birincisi	-11.2959
▁görüşləri	-11.2963
▁qaynağı	-11.297
lənmiş	-11.2974
uğ	-11.2978
▁qişa	-11.2978
▁duyğu	-11.2979
▁kompleksin	-11.2982
▁düyü	-11.2983
▁islamı	-11.2983
▁Ola	-11.2985
hədsiz	-11.2985
lama	-11.2987
öründüyü	-11.299
▁kristal	-11.299
▁Tolstoy	-11.299
▁təxirə	-11.299
▁ehtiram	-11.299
▁Qəmbər	-11.299
eviç	-11.299
▁RSFSR	-11.299
▁sətir	-11.2991
▁oxşayır	-11.2991
▁Flor	-11.2991
▁tapma	-11.2993
est	-11.2993
▁bataqlıq	-11.2994
▁fikrində	-11.2994
▁qəhrəmanları	-11.3005
▁1918-1920	-11.3005
▁Sözü	-11.3006
▁yarışın	-11.301
▁siyahı	-11.3016
▁çıxırdı	-11.3029
▁buraxır	-11.3031
▁müqaviməti	-11.3032
▁niyə	-11.3032
▁işləyə	-11.3033
▁bölgələri	-11.3033
etmiş	-11.3034
▁seçir	-11.3034
▁insanda	-11.3036
▁qeydiyyatda	-11.3039
▁kitablarını	-11.3039
▁ardıcılları	-11.3039
▁səsini	-11.3039
▁Katolik	-11.3043
▁verilişləri	-11.3043
30	-11.3044
▁Şirkəti	-11.3044
▁tac	-11.3047
▁divarın	-11.3048
▁qubernatoru	-11.305
if	-11.3051
▁Kitabın	-11.3053
▁saxlamışdı	-11.3053
▁səlahiyyətləri	-11.3055
▁Kitabxana	-11.3055
yü	-11.3055
▁buraxılır	-11.3056
uşağı	-11.3056
▁Dan	-11.3057
N	-11.3058
▁salını	-11.3062
▁bələd	-11.3064
▁əlləri	-11.3064
▁paşanı	-11.3065
həm	-11.3066
▁araya	-11.3067
▁rəhbərliyində	-11.3067
▁olunduğun	-11.3068
▁Bayat	-11.3068
▁gələcəyi	-11.307
▁sakinlərini	-11.3072
▁komandan	-11.3072
▁törəmə	-11.3072
▁qoru	-11.3074
▁Yağləvənd	-11.3077
▁düzəltmə	-11.3077
▁xatırlan	-11.3077
▁Zevs	-11.3077
▁spirt	-11.3077
▁Xurşid	-11.3077
▁əhli	-11.3077
▁Rafael	-11.3077
▁maili	-11.3077
▁qüsur	-11.3078
▁Mit	-11.3079
▁göstərilməsi	-11.3081
▁küləkləri	-11.3083
▁oval	-11.3084
▁Mas	-11.309
analitik	-11.3094
▁niyyətində	-11.3094
▁himayəsi	-11.3096
▁Krallıq	-11.3097
▁nişan	-11.3098
▁Kal	-11.31
▁yüzilliy	-11.3102
▁ofisi	-11.3104
▁dəyişmək	-11.3106
▁Amerikası	-11.311
▁iqtisadçı	-11.3111
▁Xanı	-11.3113
▁hökmranlığı	-11.3115
▁Qəza	-11.3116
▁nümayəndələrini	-11.3117
▁çiy	-11.3117
▁aləmdə	-11.3119
eyran	-11.3124
▁məskunlaşa	-11.3125
▁götürülmüş	-11.313
▁sintezi	-11.3131
▁tərzd	-11.3136
▁sənətkarların	-11.3137
▁yaralı	-11.3137
ux	-11.3139
▁elədi	-11.3139
▁əllərində	-11.3145
▁bağlanır	-11.3151
▁Hadisə	-11.3152
mən	-11.3153
▁bölməsində	-11.3154
▁elmini	-11.3154
▁sektorun	-11.3154
▁yoxsul	-11.3154
inematoqrafiya	-11.3155
▁divarlar	-11.3156
▁dibi	-11.3164
▁İnsanı	-11.3164
▁məbləğin	-11.3165
▁Xırda	-11.3165
▁televiziyası	-11.3165
▁masa	-11.3167
▁kinosun	-11.3169
▁mətbuatı	-11.3169
▁kitablarda	-11.3169
▁İvanov	-11.317
▁xəttat	-11.317
▁keçirildiyi	-11.3171
▁quşu	-11.3179
▁fraksiyası	-11.3181
hazır	-11.3193
▁sərhəddi	-11.3196
▁Seyidov	-11.3198
▁yığı	-11.3199
▁xiyabanı	-11.3201
ternati	-11.3201
▁təsvirlər	-11.3202
▁başlama	-11.3203
▁iştirakçıların	-11.3211
▁Tərkibin	-11.3211
▁orqanların	-11.3213
▁vurulmuş	-11.3213
▁Amerikalı	-11.322
▁Əsri	-11.3223
▁ba	-11.3223
▁təbəqədə	-11.3224
▁məhəbbəti	-11.3226
şun	-11.3228
▁zavodları	-11.3232
▁keyfiyyətini	-11.3233
▁başçı	-11.3234
▁1889	-11.3235
▁futbolçuları	-11.3236
▁Cəm	-11.3236
▁orqanizmdə	-11.3239
qaz	-11.324
24	-11.324
▁nəsillər	-11.3241
▁yoxlama	-11.3244
lyasiya	-11.3246
▁Nig	-11.3251
▁qazın	-11.3252
▁hündürlüy	-11.3252
▁öldürdü	-11.3253
▁Bütöv	-11.3253
▁Mütəxəssislər	-11.3253
▁Mərdəkan	-11.3253
▁Şəxs	-11.3253
▁əyri	-11.3253
▁Smit	-11.3253
▁metall	-11.3253
▁əmtəə	-11.3253
▁dulus	-11.3253
▁Gəmi	-11.3254
▁Zənd	-11.3254
▁1830	-11.3255
▁daşıdığı	-11.3255
▁Təhsilin	-11.3256
ığa	-11.3257
▁Respublikamız	-11.326
▁vəsaitləri	-11.3261
sulu	-11.3261
▁Uels	-11.3261
▁hektarı	-11.3262
▁Məmmədəli	-11.3263
▁götürmək	-11.3263
▁albanlar	-11.3264
▁toplam	-11.3264
oniki	-11.3265
▁birləşdirmək	-11.3266
▁fikr	-11.3267
▁ku	-11.3268
bay	-11.327
▁illiyin	-11.3275
▁Anadolunu	-11.3276
▁dam	-11.3276
▁qiymətləndir	-11.3277
▁tutmağ	-11.3278
▁dibində	-11.328
▁Samir	-11.3284
▁kənarları	-11.3284
▁Kompleks	-11.3285
▁Yol	-11.3286
▁Agentliyi	-11.3288
▁açan	-11.3288
▁seçdi	-11.3288
▁bağlana	-11.3289
▁əfsanələr	-11.3292
▁mərasimləri	-11.3293
▁orqanlar	-11.3294
▁Ada	-11.3295
▁yazıçıları	-11.3297
▁ar	-11.3297
▁təlimin	-11.3298
▁Həc	-11.3299
▁dairələri	-11.3303
▁ekvator	-11.3304
▁tədbirlərdə	-11.3306
▁millətlər	-11.3307
istik	-11.3308
▁salındı	-11.3311
▁toqquşmalar	-11.3311
qal	-11.3312
▁sevgisi	-11.3313
taş	-11.3314
▁meydanın	-11.3316
▁iradəsi	-11.3317
▁tikintisində	-11.3318
▁Suyun	-11.3319
▁məskunlaşma	-11.332
▁binasında	-11.3322
▁qalibiyyət	-11.3326
▁satıl	-11.3327
▁düzən	-11.3327
▁toplanır	-11.3327
çox	-11.333
▁mötə	-11.3331
▁Rey	-11.3331
▁poli	-11.3334
▁İşıq	-11.334
-25	-11.3342
▁mərhələsini	-11.3342
▁Qeybulla	-11.3342
▁Dunay	-11.3342
▁Firdovsi	-11.3342
▁fürsət	-11.3342
▁səhih	-11.3342
▁məqsədyönlü	-11.3342
▁Fəh	-11.3342
▁Motor	-11.3343
▁Xatun	-11.3343
urgiya	-11.3344
▁donuz	-11.3344
▁Adıgözəlov	-11.3344
səf	-11.3345
14	-11.3347
▁Polad	-11.3348
▁ürəyi	-11.3348
▁çəmən	-11.335
▁İnqilabı	-11.3352
▁yeniyetmə	-11.3355
▁küçəsində	-11.3356
▁ömürlü	-11.3359
▁janrında	-11.3366
▁Konqresin	-11.337
▁fərqlidir	-11.3371
▁meşələrin	-11.3371
▁layihəni	-11.3371
▁Oğlu	-11.3373
▁ilan	-11.3376
▁göstərilmiş	-11.3378
▁amillərin	-11.3378
▁alp	-11.3378
▁əməyin	-11.338
▁karvansara	-11.3381
▁com	-11.339
▁komandasında	-11.3392
▁soyadını	-11.3396
▁knyazı	-11.3396
▁atəşi	-11.3397
▁ocaqları	-11.3401
ban	-11.3403
▁inanc	-11.3403
▁tarixçiləri	-11.3403
▁uzunluq	-11.3405
▁həvəs	-11.3405
prav	-11.3408
▁vaxtını	-11.3412
▁qızılbaşlar	-11.3413
▁sahillərin	-11.3414
▁səfirliyin	-11.3415
▁Xüsus	-11.3416
▁imzalayı	-11.3419
bərabər	-11.3419
▁gözə	-11.342
▁verilişin	-11.3421
▁alimin	-11.3422
▁Qaraca	-11.3423
▁mühərrikləri	-11.3423
rük	-11.3424
▁adamlarını	-11.3425
▁qurmağ	-11.3426
▁münasib	-11.3431
▁yeməyi	-11.3432
▁YUNESKO	-11.3432
▁Saturn	-11.3432
▁Statistik	-11.3432
▁qənimət	-11.3432
▁təfsir	-11.3432
▁Əbdülhəmid	-11.3432
▁Kembric	-11.3432
▁Sarıcalı	-11.3432
▁Qalile	-11.3433
▁Nağıyev	-11.3433
▁Ur	-11.3434
▁bilinir	-11.3434
▁Bünyadov	-11.3435
▁öldürülməsi	-11.3435
▁qurşağında	-11.3436
▁rəqsləri	-11.3438
▁sülhü	-11.3441
▁atmosferin	-11.3454
▁gəlinə	-11.3459
▁mağarası	-11.346
▁gətir	-11.3461
alındığı	-11.3462
▁pir	-11.3465
▁Ərə	-11.3466
▁xəritə	-11.3467
▁xərçəng	-11.3469
▁düşmənləri	-11.347
▁heykəlin	-11.347
▁dayanı	-11.3471
▁mahiyyət	-11.3473
▁kompleksini	-11.3477
05	-11.3484
▁173	-11.3484
▁alınmasında	-11.3484
▁Nati	-11.3485
▁qaynaqlarda	-11.3486
▁yarışları	-11.3486
əksən	-11.3488
qan	-11.3488
▁Krallığı	-11.3488
▁səhnələr	-11.3494
▁vəziləri	-11.3495
▁şüalanma	-11.3499
▁Qov	-11.3503
▁Kan	-11.3506
sevən	-11.351
yaşıl	-11.351
Qacar	-11.3512
▁Hələb	-11.3516
ullah	-11.3518
▁88	-11.3518
▁Keçə	-11.352
▁Odessa	-11.3523
▁Zelandiya	-11.3523
▁nöqteyi	-11.3523
▁Şaiq	-11.3523
▁əfəndi	-11.3523
▁təhrik	-11.3524
▁Diana	-11.3524
▁Malta	-11.3524
▁proqramın	-11.3524
▁günahkar	-11.3525
▁pillədə	-11.3528
▁1865	-11.3528
▁Xəzinə	-11.3529
▁şagirdlər	-11.3529
▁köçürülü	-11.3531
▁Meyvəsi	-11.3531
▁zonada	-11.3532
▁Burda	-11.3533
▁hökmranlı	-11.3538
▁iclas	-11.3539
▁Tor	-11.354
▁təbəqələri	-11.3542
▁əyanları	-11.3543
▁məzun	-11.3544
tərəf	-11.3546
arkən	-11.3548
▁edəcəyini	-11.3551
▁Liza	-11.3553
▁bəşəriyyəti	-11.3553
▁Əla	-11.3556
▁yarpaqlar	-11.3556
kət	-11.3556
▁poeziyası	-11.3558
▁turnirdə	-11.356
▁şüur	-11.3564
▁şər	-11.3566
▁bin	-11.3566
▁cədvəl	-11.357
▁çəkə	-11.3571
▁İsm	-11.3572
▁sürü	-11.3574
▁məsləhəti	-11.3574
▁ağacların	-11.3576
▁bağırsaq	-11.3579
▁84	-11.3579
▁Şöv	-11.3585
▁Ağdamda	-11.3587
▁idarəçiliyi	-11.3587
▁hamını	-11.3594
▁dosenti	-11.3596
▁Söz	-11.36
▁qaba	-11.3603
aktiv	-11.3604
▁millətçi	-11.3607
▁Dif	-11.3608
▁Dəməşq	-11.3615
▁Tokio	-11.3615
▁araşdıra	-11.3615
▁bayır	-11.3615
▁təcr	-11.3615
ud	-11.3615
afiz	-11.3617
▁suallar	-11.3617
▁Paul	-11.3617
▁adlandırılmış	-11.3617
▁Kütlə	-11.3618
▁Tez	-11.3618
▁aşkarlanmış	-11.3618
Şərqi	-11.3619
▁aparıldı	-11.3619
▁1859	-11.3621
▁qaçma	-11.3622
▁zərbələr	-11.3622
▁danışmaq	-11.3623
▁74	-11.3623
▁qapısında	-11.3626
▁kolluqlar	-11.3631
▁çöküntüləri	-11.3632
▁surəti	-11.3636
məz	-11.3636
rt	-11.3636
▁baxmaq	-11.3637
▁uçuşu	-11.364
▁1827	-11.3643
▁əlaqələndir	-11.3646
▁qru	-11.3647
▁göstəriciləri	-11.3649
iyyəti	-11.3651
▁Yeri	-11.3652
▁otağın	-11.3653
▁tikintisin	-11.3656
▁çatmamış	-11.3657
▁tərcümələr	-11.366
▁verdikdə	-11.3661
▁problemin	-11.3662
▁addımlar	-11.3662
▁hövzə	-11.3664
▁test	-11.3665
▁toplayır	-11.3666
▁dənizçi	-11.3667
▁fondunda	-11.3667
unçu	-11.367
▁gəlməsində	-11.3676
▁Bankın	-11.3676
▁idrak	-11.3677
▁Uşaqlar	-11.368
▁Kompleksin	-11.368
▁mərtəbə	-11.3682
▁ziddiyyət	-11.3683
▁Kor	-11.3684
▁xaqanın	-11.3684
▁nəfərini	-11.3684
▁şəxsiyyəti	-11.3686
▁yetişdir	-11.3691
▁sərfi	-11.3692
17	-11.3693
▁həyəcan	-11.3694
▁dünyagörüşü	-11.3695
radio	-11.3698
▁mühasirədə	-11.3701
sını	-11.3703
▁bağladı	-11.3706
▁Kəl	-11.3706
▁AFFA	-11.3708
▁Əməyi	-11.3708
▁itaət	-11.3708
Anceles	-11.3708
▁əlamətdar	-11.3708
▁İbad	-11.3708
▁istintaq	-11.3709
▁törəmələri	-11.3712
▁ovalığında	-11.3714
süz	-11.3719
▁çatdığı	-11.372
cəsin	-11.3726
▁а	-11.3729
▁Dağlar	-11.3735
▁Şarl	-11.3736
▁yoldaş	-11.3736
▁beyni	-11.374
▁hədəfi	-11.374
▁ticarətin	-11.3742
▁başlanılı	-11.3743
▁xahişi	-11.3744
▁1891	-11.3745
▁oyunçular	-11.3746
ül	-11.3749
▁regionunda	-11.3751
ım	-11.3752
▁Hüs	-11.3753
▁Tat	-11.3756
▁Yaz	-11.3757
kmilləşdirilməsi	-11.3758
rik	-11.376
▁türbəni	-11.3761
lavə	-11.3766
▁açılı	-11.3769
▁xəbərin	-11.377
▁romanları	-11.3773
▁istəmir	-11.3777
▁başlıq	-11.3777
▁genişlənməsi	-11.3777
▁Fond	-11.3778
▁sinifdə	-11.378
ehriban	-11.3781
▁qadir	-11.3783
▁etdik	-11.3784
▁filizi	-11.3788
▁bağçası	-11.3791
▁Art	-11.3796
▁bitdi	-11.3796
▁sazişi	-11.3796
▁tur	-11.3797
▁evlərində	-11.3798
▁istehsalını	-11.3798
▁Nik	-11.3799
▁çatanda	-11.3801
güzar	-11.3801
▁restoran	-11.3801
▁sıldırım	-11.3801
▁yadigar	-11.3801
▁təəssüf	-11.3801
▁Bəhaullah	-11.3801
▁Potter	-11.3801
▁Nüvə	-11.3801
▁xronik	-11.3801
▁dinlərin	-11.3802
▁Eldəniz	-11.3802
▁dərnəyin	-11.3804
▁kəlmə	-11.3806
▁fəza	-11.3807
▁xəyal	-11.3812
▁minillikdə	-11.3812
▁dağıdıl	-11.3813
▁Dar	-11.3814
▁məsələlərini	-11.3814
▁məhəlləsi	-11.3814
▁işçilər	-11.3814
▁krallığı	-11.3815
▁yerləşdirilməsi	-11.3816
▁aşı	-11.3817
7-	-11.3818
tor	-11.383
▁öldürülmüş	-11.3831
▁qanunverici	-11.3833
▁quşların	-11.3838
▁festival	-11.3838
▁edilmək	-11.384
▁kəmər	-11.3841
▁silsiləsində	-11.3847
▁aviasiya	-11.3849
▁radiasiya	-11.3853
▁Dili	-11.3854
▁adasını	-11.3855
▁qaldırır	-11.3855
▁adda	-11.3855
▁qəbilələri	-11.3858
▁simasın	-11.3858
▁Nin	-11.3861
▁informasiyanı	-11.3864
▁gözləyir	-11.3865
▁Suriyada	-11.3866
▁kişilərin	-11.3873
▁bəyləri	-11.3874
▁obrazın	-11.3874
▁turistləri	-11.3877
qalan	-11.3878
▁sala	-11.3879
▁Filippin	-11.388
▁təlimini	-11.3881
▁verilə	-11.3883
▁kimə	-11.3887
▁qəsd	-11.389
nisi	-11.389
əhəbbət	-11.3891
▁soruşdu	-11.3895
▁Lüksemburq	-11.3895
▁Pişəvəri	-11.3895
▁xatırlada	-11.3895
▁dayısı	-11.3896
▁təsəvvüf	-11.3896
▁münsif	-11.3896
estra	-11.3896
▁Sabit	-11.3897
▁Tağızadə	-11.3897
▁ekologiya	-11.3898
▁Oyunlarını	-11.3899
▁selik	-11.3903
▁nu	-11.3905
▁73	-11.3905
▁çevirdi	-11.3905
▁boğaz	-11.391
▁turniri	-11.391
▁keçməyə	-11.3912
▁tipin	-11.3912
piano	-11.3915
▁1941	-11.3916
▁sərhəddə	-11.3916
▁yükü	-11.3917
▁maraqlan	-11.3921
▁kateqoriyası	-11.3924
▁Yunanıstanı	-11.3927
▁başlanğıcını	-11.3927
▁kod	-11.393
▁bar	-11.393
▁kürə	-11.3932
▁açmışdı	-11.3938
▁İttifaq	-11.3939
▁bankın	-11.394
▁aləmini	-11.3942
▁məhəbbətin	-11.3945
▁tökülə	-11.3947
▁meydança	-11.3948
▁Balıq	-11.3958
▁Ce	-11.3959
fahi	-11.3964
▁xəmir	-11.3968
▁qazıntıları	-11.3975
▁səfərində	-11.3979
▁dişləri	-11.3979
▁himayəsində	-11.3982
▁statistika	-11.3985
▁təminat	-11.3987
Kərim	-11.3987
▁qəbiristanlıq	-11.3991
▁idxal	-11.3991
▁qoç	-11.3991
▁Fateh	-11.3991
▁təsb	-11.3991
▁dərəcəsində	-11.3991
▁ərizə	-11.3993
▁cox	-11.3995
▁kursları	-11.3995
▁1869	-11.3996
▁çək	-11.3998
qonu	-11.4001
▁azalmışdı	-11.4002
▁verməli	-11.4004
▁etnoqrafiya	-11.4005
ts	-11.4006
▁olacaqdı	-11.4008
▁1805	-11.4011
▁qatılmışdı	-11.4012
▁Murtuza	-11.4012
anınmış	-11.4013
▁2017	-11.4014
▁anti	-11.402
▁180	-11.4023
▁elmlərin	-11.4024
▁buraxılışı	-11.4029
▁kitabələr	-11.4033
▁övlad	-11.4034
▁Mal	-11.4035
▁köçmə	-11.4038
▁çalışmaq	-11.4038
▁iyunda	-11.404
▁nüsxəsi	-11.4041
▁yayınd	-11.4043
▁klinik	-11.4044
▁gizlə	-11.4046
▁arılar	-11.4046
▁ədalətl	-11.4047
tal	-11.4053
▁aralıq	-11.4061
▁Noyabr	-11.4063
▁müdir	-11.4063
▁medalları	-11.4064
▁uzaqlaş	-11.4066
▁dəstəsin	-11.4068
▁məsələlərdə	-11.4068
▁ucaldılmış	-11.4072
▁edildiyin	-11.4073
▁jurnalisti	-11.4075
▁edilməmişdi	-11.4076
▁haqqını	-11.4076
▁güləşçi	-11.4077
▁kraliça	-11.408
▁nailiyyətləri	-11.4084
müsəlman	-11.4085
▁qəf	-11.4085
▁təcəssüm	-11.4085
▁fərqlər	-11.4086
▁Herseqovina	-11.4087
▁Mesopotamiya	-11.4087
▁Motsart	-11.4087
▁redaktə	-11.4087
▁Hakimiyyət	-11.4087
▁Anatol	-11.4088
▁1864	-11.4091
▁İsaxanlı	-11.4091
▁1850	-11.4092
▁sənətkarları	-11.4092
▁laboratoriyası	-11.4093
▁Ford	-11.4094
▁gələcəyin	-11.4095
fər	-11.4095
▁büstü	-11.4096
▁potensialı	-11.4098
▁Qoll	-11.41
▁gücün	-11.41
▁qismini	-11.4106
▁meydanda	-11.4107
▁mühitində	-11.4111
▁kənarlarında	-11.4111
▁Proqram	-11.4111
▁sularını	-11.4112
▁planları	-11.4113
▁müəssisələrini	-11.4113
▁Ştatlar	-11.4114
▁xəstələr	-11.4116
▁saz	-11.4118
▁çaylarını	-11.4121
▁köçürmə	-11.4122
neçə	-11.4122
▁departamenti	-11.4124
▁sevinc	-11.4124
▁matç	-11.4126
▁saxlamış	-11.4134
▁yığılı	-11.4138
▁nəşriyyat	-11.4138
▁stansiyasında	-11.4138
▁Qoy	-11.414
▁Qızılbaş	-11.4142
lükdə	-11.4144
ico	-11.4147
▁kanalında	-11.4148
məna	-11.415
auf	-11.4151
▁dalğaları	-11.4155
▁nar	-11.4159
▁5000	-11.416
▁truppasın	-11.4164
▁müqaviləni	-11.4165
▁gününü	-11.4167
▁Day	-11.4169
yu	-11.4171
▁Her	-11.4173
▁don	-11.4176
▁aparatı	-11.4176
▁görüşür	-11.4177
▁icraçı	-11.4178
▁dolayı	-11.4178
▁mexanizmi	-11.4179
▁Stadionun	-11.4179
▁məsələdə	-11.4179
▁xəzər	-11.4182
danış	-11.4182
▁ADR	-11.4184
▁Alazan	-11.4184
▁Kennedi	-11.4184
▁ölçmə	-11.4184
▁Krasno	-11.4184
▁Hülakü	-11.4184
əhməd	-11.4185
qor	-11.4185
▁Əmr	-11.4185
▁itirmişdi	-11.4186
▁daşıyıcısı	-11.4186
vəll	-11.4186
ova	-11.4186
▁adlandırdığı	-11.4186
▁əvvələrində	-11.4187
▁Pəri	-11.4187
▁yollandı	-11.4188
▁limanında	-11.4188
▁ənənələr	-11.4189
▁çempionluğu	-11.4189
▁Xanlığı	-11.419
▁Mor	-11.419
▁eşq	-11.419
▁Qiyas	-11.4191
▁Yəhudi	-11.4197
▁dairələr	-11.4199
lmuşdu	-11.42
▁Elvi	-11.42
▁bildirmiş	-11.4203
▁Qo	-11.4203
▁sərhəddində	-11.4204
▁kəndlilərin	-11.4205
▁böyüyür	-11.4205
▁hüceyrələri	-11.4205
▁1948	-11.4206
lba	-11.4207
▁inandırı	-11.421
▁Adams	-11.4216
▁turşuları	-11.4218
▁Tədqiqatlar	-11.4219
▁fabriki	-11.422
▁qabları	-11.4224
▁Qüvvələrin	-11.4229
▁ço	-11.4231
məkdaşlıq	-11.4232
▁apardıq	-11.4234
▁yarısını	-11.4237
▁əhvalat	-11.4242
▁vulkanı	-11.4242
C	-11.4243
▁təkamülü	-11.4243
▁176	-11.4244
▁Hir	-11.4244
▁çağırıl	-11.4246
▁79	-11.4247
▁tozu	-11.4248
▁çoban	-11.4251
▁xəritəsi	-11.4252
▁Devi	-11.4253
▁Kitabı	-11.4256
▁təşəbbüs	-11.4262
▁studiyasın	-11.4262
▁Cu	-11.4262
əd	-11.4264
▁Sədri	-11.4268
▁çərçivə	-11.4273
▁Ver	-11.4274
▁simvol	-11.4274
▁dəlillər	-11.4275
▁xəbərləri	-11.4281
▁ürəyin	-11.4282
▁Tətbiq	-11.4282
▁düzülmüş	-11.4282
▁Vatikan	-11.4282
▁Fridrix	-11.4282
▁aşiq	-11.4282
ttesta	-11.4282
▁Bilal	-11.4282
▁Media	-11.4282
▁tüklü	-11.4283
▁gözlərini	-11.4283
▁tənzimlənməsi	-11.4284
▁Məmmədəliyev	-11.4284
▁dəyərlər	-11.4284
▁ip	-11.4285
▁saxta	-11.4286
▁Ge	-11.4286
▁İsgəndəriyyə	-11.4288
▁müsa	-11.4288
▁Sve	-11.4289
▁otel	-11.4293
▁Am	-11.4293
▁çiçəklər	-11.4295
▁açmağ	-11.4298
▁Paytaxt	-11.4299
▁istehkam	-11.4301
▁Ed	-11.4302
▁müttəfiqləri	-11.4302
▁ixtisaslar	-11.4309
▁ye	-11.4311
▁kompleksləri	-11.4312
▁fənlər	-11.4313
▁damarları	-11.4316
▁Sər	-11.4317
▁er	-11.4321
▁cisim	-11.4324
▁kainat	-11.4326
▁qoruyucu	-11.4326
▁papa	-11.4328
dil	-11.4328
▁91	-11.433
▁çala	-11.4331
▁zal	-11.4331
▁axımı	-11.4336
üsət	-11.4337
▁fəsilə	-11.4338
▁postun	-11.4343
▁3,	-11.4343
▁Əjd	-11.4343
▁səsləri	-11.4343
▁Aparıl	-11.4344
▁məkanı	-11.4348
▁əmirləri	-11.4349
▁verilənlər	-11.4351
▁is	-11.4355
▁düşünmə	-11.4356
▁müdaxiləsi	-11.4356
▁miqdarını	-11.4362
▁məscidini	-11.4362
▁kubokun	-11.4364
▁qayıdanda	-11.4367
▁oktyabrda	-11.4367
▁axırına	-11.4367
▁qütb	-11.4368
▁xristianlıq	-11.4375
▁qəs	-11.4376
niş	-11.438
barmaq	-11.438
▁bəyim	-11.4381
▁Hesab	-11.4381
▁Kosm	-11.4381
▁Astiaq	-11.4381
▁Bavariya	-11.4381
▁Maqsud	-11.4381
▁törədir	-11.4381
▁Braun	-11.4381
▁biçim	-11.4381
▁tutması	-11.4381
▁Qeyri	-11.4381
▁Talıb	-11.4381
▁buraxılan	-11.4382
▁Əbdürrəhman	-11.4382
▁bağlayı	-11.4383
▁çıxışında	-11.4383
▁həvəsi	-11.4384
▁heyran	-11.4385
▁saniyədə	-11.4385
▁Hökuməti	-11.4386
yd	-11.4388
▁muxtariyyət	-11.4388
▁proqramlaşdırma	-11.4389
▁islahatı	-11.439
▁girmiş	-11.439
▁saxlamağ	-11.4396
▁000-	-11.4397
▁ocaqlarında	-11.4399
▁cüz	-11.4399
▁məhəlləsində	-11.44
▁balıqların	-11.4401
yeni	-11.4405
▁fədakar	-11.4405
▁gəliri	-11.4405
▁qarşıya	-11.4406
▁daşların	-11.4406
▁fəsillər	-11.4406
uk	-11.4407
▁təbəqələr	-11.4409
▁Monqollar	-11.4409
▁Hot	-11.4409
▁sahibkar	-11.441
▁obyektin	-11.4411
ser	-11.4414
▁obası	-11.4414
brik	-11.4414
▁komandada	-11.4415
▁uşaqlarını	-11.4416
▁hazırladı	-11.4416
▁diş	-11.4417
ska	-11.442
lizin	-11.4421
▁94	-11.4421
▁zən	-11.4423
▁istismarı	-11.4424
▁partiyalar	-11.4426
mədəni	-11.4436
▁olunmamışdı	-11.4441
▁təsirlər	-11.4445
▁Bibliya	-11.4448
▁me	-11.4449
▁texnikasını	-11.445
▁əlifbasında	-11.445
▁keçirilməsini	-11.4451
▁düşüncəsi	-11.4453
▁çəkilişləri	-11.4454
▁şərəfl	-11.4455
▁müalicəsin	-11.4457
▁göstərili	-11.4458
▁qaldıqda	-11.4459
▁rəssamları	-11.4463
▁süjeti	-11.4463
▁bomba	-11.4463
▁birlikləri	-11.4464
▁edənləri	-11.4465
▁resursları	-11.4467
▁cəsarətl	-11.4472
llah	-11.4475
▁hesablamalar	-11.4475
▁Müharibəsində	-11.4476
▁Pol	-11.4478
oçt	-11.4481
▁eşitmə	-11.4481
▁Çikaqo	-11.4481
▁ÜDM	-11.4481
▁Bəşir	-11.4481
▁İşğal	-11.4481
▁tennis	-11.4481
▁vadisi	-11.4481
▁təmsilçiləri	-11.4481
▁dovşan	-11.4482
▁vaxtlarında	-11.4482
ye	-11.4483
▁katolikos	-11.4483
▁dəyişiklikləri	-11.4484
tmişdi	-11.4485
duq	-11.4492
▁adlandırdı	-11.4493
▁yekunları	-11.4494
▁albanları	-11.4494
tağı	-11.4495
▁rejimin	-11.4496
▁klubda	-11.4502
▁hissəciklər	-11.4505
▁fizikası	-11.4506
▁yandırılmış	-11.4506
▁Həz	-11.4508
▁bəstəkarların	-11.4509
▁metro	-11.4509
▁abad	-11.4509
▁göstərməkdə	-11.4509
▁praktika	-11.451
▁qanunla	-11.4511
▁sarım	-11.4514
▁çağırı	-11.4515
şid	-11.4515
▁yaddaşın	-11.4516
▁davranış	-11.4519
▁düş	-11.4521
▁şer	-11.453
▁şəkilçisi	-11.4534
▁təchizatı	-11.4536
▁şirkətində	-11.4537
▁musiqiləri	-11.4537
5-6	-11.4538
▁öldürür	-11.4541
▁avadanlıqlar	-11.4542
▁götürən	-11.4548
▁niyyət	-11.4548
▁imam	-11.4552
▁daşnak	-11.4554
▁fərdlər	-11.4558
▁materikin	-11.4563
▁büdcə	-11.4569
▁tədqiqatçıları	-11.4571
▁musiqiçilər	-11.4572
▁saatda	-11.4572
▁turda	-11.4572
▁baba	-11.4574
ston	-11.4576
▁baxışları	-11.4581
▁tərkibini	-11.4581
▁Problem	-11.4582
▁Skandinaviya	-11.4582
▁liberal	-11.4582
▁Kartli	-11.4582
▁Tərbiyə	-11.4582
▁Düşmən	-11.4582
▁kükürd	-11.4582
▁Hollivud	-11.4582
▁Özbək	-11.4582
▁Gülməmməd	-11.4582
▁1826-	-11.4583
▁Çör	-11.4583
▁futbolu	-11.4583
▁çatdırdı	-11.4584
▁Ölümün	-11.4584
▁yenilik	-11.4586
▁kabineti	-11.4586
▁vitaminlər	-11.4587
▁çəkildiyi	-11.4588
▁damar	-11.459
▁Say	-11.459
dövlət	-11.459
▁qalaktika	-11.4591
▁slavyan	-11.4592
▁220	-11.4592
▁qərbi	-11.4596
icad	-11.4599
texnika	-11.46
▁təsvirini	-11.4603
▁ehtimalla	-11.4605
▁qurğusu	-11.4606
▁dişli	-11.4606
▁möhkəmləndirmə	-11.4606
▁siyasətində	-11.4608
▁meyvələrin	-11.4608
▁xeyirli	-11.4615
▁Müəllim	-11.4615
▁qoruğu	-11.4619
ruzə	-11.4621
▁Pye	-11.4622
▁İsveçrədə	-11.4623
▁tanınmışdı	-11.4627
▁Hökumətin	-11.4628
▁aça	-11.4632
▁araşdırmaları	-11.4632
▁Kay	-11.4632
▁500-	-11.4633
▁ərazidədir	-11.4635
▁quruda	-11.4636
▁portalı	-11.4639
▁tikililərin	-11.464
▁diri	-11.4642
▁qalmamışdı	-11.4645
laşdırma	-11.4646
▁yaranmasını	-11.465
▁bəşəriyyət	-11.4651
▁Üm	-11.4659
▁İohann	-11.4659
birilə	-11.4662
▁gətirmə	-11.4664
▁dəstələrini	-11.4666
▁rəğbəti	-11.4674
▁yamacları	-11.4675
▁Lah	-11.4675
▁Xəz	-11.4679
▁Departamenti	-11.468
▁osmanlılar	-11.4682
▁illərinə	-11.4682
▁xəttin	-11.4683
▁Dekabr	-11.4684
▁Avtomobil	-11.4684
▁Qvineya	-11.4684
▁qurtardı	-11.4684
▁Hücum	-11.4684
▁stəkan	-11.4684
▁İtti	-11.4684
▁standartlar	-11.4684
▁isbat	-11.4684
▁sirk	-11.4685
▁mədən	-11.4685
▁metodik	-11.4686
▁faktları	-11.4687
▁tapılması	-11.4689
▁formalar	-11.4689
▁bölgələrin	-11.4689
▁yağıntıların	-11.4689
▁burjua	-11.469
▁sultanlığı	-11.4692
▁anlayışını	-11.4692
viasiya	-11.4693
▁döyüşlərində	-11.4693
▁Fizik	-11.4693
mərtəbəli	-11.4694
ördüncü	-11.4694
▁xov	-11.4696
▁durma	-11.4697
rxeologiya	-11.4697
▁86	-11.4698
▁yuxuda	-11.4699
▁prinsiplərini	-11.47
hesabsız	-11.4701
▁xəstəliklərində	-11.4702
▁tacirlər	-11.4702
▁quran	-11.4705
▁mədəniyyətində	-11.4706
▁cihaz	-11.4707
▁yaradılmasını	-11.4709
▁briqadası	-11.4709
▁vətənin	-11.4711
BC	-11.4711
▁həkimlər	-11.4712
ele	-11.4712
▁kəsilir	-11.4712
▁birləşdir	-11.4717
▁ansamblın	-11.4717
▁axtarışı	-11.4719
▁çıxarmağ	-11.4719
▁faktor	-11.4719
▁qəlbin	-11.472
▁keyfiyyətləri	-11.4722
▁çevirmişdi	-11.4728
▁örnək	-11.4728
▁fantastik	-11.473
ife	-11.4732
▁Nü	-11.4734
▁Bağdadda	-11.4735
▁hökmdarın	-11.4735
▁təbliği	-11.4737
▁məğlubiyyəti	-11.4737
▁bədənində	-11.4737
▁qurulur	-11.4738
▁uran	-11.4741
▁Dağıstanda	-11.4741
▁sistemlər	-11.4741
▁Parkı	-11.4743
▁Elma	-11.4746
▁Sü	-11.475
▁tarixləri	-11.4753
▁Ber	-11.4756
▁yaxınlaşdı	-11.4757
assiv	-11.4759
▁divarlarında	-11.4759
▁450	-11.4759
▁nəğmə	-11.4763
▁içərisin	-11.4765
fel	-11.4768
▁axınları	-11.4769
şıqlı	-11.4772
▁düşər	-11.4772
▁dəyişikliy	-11.4774
▁divanı	-11.4774
▁çat	-11.4775
▁Buğa	-11.4778
▁öküz	-11.478
▁Qay	-11.4781
▁düşərgəsində	-11.4783
▁təcrüb	-11.4785
▁püskürmə	-11.4786
▁aspirant	-11.4787
▁bacarır	-11.4787
▁Belqrad	-11.4787
▁təqaüdçüsü	-11.4787
▁ödəyə	-11.4787
▁kisəsi	-11.4788
▁irəlilədi	-11.4788
▁quyusu	-11.479
etmə	-11.479
samal	-11.479
▁təyyarəsi	-11.479
▁bağlamaq	-11.4792
▁müstəvi	-11.4793
▁Əlincə	-11.4793
▁Yekaterina	-11.4796
▁keşiş	-11.4798
▁anlaya	-11.4799
▁şəbəkələri	-11.48
▁Məmmədzadə	-11.4802
▁mövzuları	-11.4804
▁Aba	-11.4806
▁keş	-11.4807
▁mülkü	-11.4807
▁inf	-11.4808
▁vurula	-11.4808
▁əf	-11.4811
▁hidro	-11.4814
▁itirən	-11.4819
▁qalada	-11.482
▁həllin	-11.4821
▁qurumun	-11.4821
▁bölgələr	-11.4825
▁Para	-11.4825
▁amillərdən	-11.4826
▁proqramlarını	-11.4826
▁qıpçaq	-11.4827
▁yaşama	-11.4832
▁xassələri	-11.4833
▁müqavilələri	-11.4836
▁məruzələr	-11.4838
▁axtar	-11.484
şərqi	-11.4841
▁dəyərin	-11.4841
▁nədən	-11.4841
▁mülkiyyəti	-11.4842
▁göstəricilər	-11.4842
▁norma	-11.4844
lamışlar	-11.4845
▁Dərbənddə	-11.4845
▁barmaq	-11.4847
▁hüceyrələr	-11.4851
▁sayları	-11.4852
▁standartları	-11.4853
▁Mühafizə	-11.4857
▁mübarizəsini	-11.4861
▁Şəkidə	-11.4863
ks	-11.4866
▁Qali	-11.4868
laşır	-11.4868
▁Mehme	-11.4873
▁Dövləti	-11.4873
▁İqlimi	-11.4873
▁həbsxanada	-11.4876
▁qırğınlar	-11.4879
▁qeydlər	-11.4881
▁məskənlərin	-11.4883
▁nəs	-11.4883
▁ticarəti	-11.4888
məmməd	-11.4891
ərşən	-11.4891
▁Alfred	-11.4891
▁Pəhləvi	-11.4891
▁gitara	-11.4891
▁radikal	-11.4891
▁əziz	-11.4891
▁1849	-11.4891
▁təəccüb	-11.4891
▁zərgər	-11.4891
▁Qəmər	-11.4892
▁yığılmış	-11.4892
▁adlandırılması	-11.4894
▁parçalanmış	-11.4894
▁Stepan	-11.4894
▁Mərv	-11.4894
▁sosiologiya	-11.4895
▁yetişən	-11.4895
▁inanırdı	-11.4897
darəetmə	-11.49
▁Əski	-11.49
▁Ələsgərov	-11.4902
▁zəhər	-11.4902
▁olimpi	-11.4903
▁tariximiz	-11.4904
sif	-11.4907
▁iy	-11.4908
yon	-11.491
▁Kari	-11.491
▁1877-	-11.4911
start	-11.4911
▁deməli	-11.4913
▁Bara	-11.4917
▁göstəricilərin	-11.4918
▁qazanıl	-11.4919
▁əlaqəni	-11.4919
karlar	-11.4922
▁əcdadları	-11.4923
▁qadınlara	-11.4924
mal	-11.4924
▁vilayətləri	-11.4926
▁bölür	-11.4928
▁2500	-11.4929
▁formalarda	-11.493
▁cərəyanın	-11.493
▁bazasını	-11.4932
▁alətlərin	-11.4933
▁məqaləni	-11.4937
▁kül	-11.4941
▁Bar	-11.4942
▁təsirləri	-11.4942
▁qardaşını	-11.4944
▁halqa	-11.4946
▁limanları	-11.4949
▁Məbəd	-11.4949
▁hərəkətlərini	-11.4949
▁şerlər	-11.4951
▁xəstəliy	-11.4952
▁məsələsin	-11.4953
▁cərgə	-11.4954
▁otlaq	-11.4957
▁söyləmişdi	-11.4958
▁İmperiya	-11.4958
mizdə	-11.4958
▁küləklər	-11.4959
▁çıxaran	-11.496
▁şəxsiyyətin	-11.4961
▁düşə	-11.4962
▁maşınlar	-11.4963
▁açar	-11.4969
▁abidələrini	-11.4971
▁topa	-11.4979
▁nəyə	-11.4984
▁quyuları	-11.4985
batında	-11.4986
▁Mühəndis	-11.4986
▁xeyriyyəçi	-11.4987
▁məsciddə	-11.4989
▁so	-11.4989
▁siniflər	-11.4991
▁edəndə	-11.4991
▁MS	-11.4991
▁fəsil	-11.4993
▁qəzetlərdə	-11.4993
▁dəlil	-11.4994
▁bölgü	-11.4996
*	-11.4997
▁Mikelancelo	-11.4997
▁İordaniya	-11.4997
▁şücaət	-11.4997
▁Əlyazma	-11.4997
▁Marşal	-11.4997
▁kompyuter	-11.4997
▁Aleksey	-11.4997
▁bacara	-11.4997
▁yumru	-11.4997
▁Səmən	-11.4997
▁Qapa	-11.4997
▁uğursuzluq	-11.5
▁havanı	-11.5001
▁tətil	-11.5003
▁operatoru	-11.5007
▁Sofiya	-11.5008
▁Kara	-11.5008
▁akademiyası	-11.501
▁mənz	-11.5013
Dədə	-11.5014
▁nəzarətində	-11.5018
▁romanında	-11.5021
▁Abbaszadə	-11.5022
▁çeşidli	-11.5022
▁Maksim	-11.5023
▁qulluqçu	-11.503
▁qüvvədə	-11.5031
▁ağzı	-11.5039
▁boşluğu	-11.5041
▁günlərin	-11.5043
▁Uşaqlıq	-11.5049
▁xəritələr	-11.5054
▁Polşada	-11.5057
▁dastan	-11.5061
▁Peterburqda	-11.5063
▁etdirilə	-11.5066
▁Ley	-11.5067
▁tələbatını	-11.507
▁göndərilməsi	-11.5082
▁Fərman	-11.5087
laşdırır	-11.5089
▁Çağ	-11.5091
AR	-11.5091
qır	-11.5094
▁etmədiyi	-11.5094
▁nəsildən	-11.5096
▁fırlanma	-11.5097
▁Aşağıda	-11.5097
▁serialı	-11.5098
▁xilafəti	-11.5098
▁1806	-11.5099
saq	-11.5102
▁zirvəsində	-11.5102
▁verilmir	-11.5103
▁Dostoyevski	-11.5103
▁Zorge	-11.5103
▁dubl	-11.5103
▁ildönümü	-11.5103
▁romalılar	-11.5103
▁İshaq	-11.5103
▁Rumeli	-11.5103
▁Konqo	-11.5103
▁piy	-11.5103
▁qətnamə	-11.5104
▁Praqa	-11.5104
▁tikildiyi	-11.5104
▁dərviş	-11.5105
▁havası	-11.5105
▁əlbət	-11.5106
▁Meyvələri	-11.5107
▁tamamlanı	-11.5108
lanıldı	-11.5108
▁Texnikumunu	-11.5108
▁maraqlanır	-11.5108
əng	-11.511
▁1872	-11.5111
▁Yaradıcılığı	-11.5114
ıc	-11.5115
▁mərtəbədə	-11.5115
ayağı	-11.5116
▁hündürlüyündə	-11.5116
▁qurumu	-11.5116
▁Xəstə	-11.5119
▁divarını	-11.5121
▁inqilabçı	-11.5123
▁əlamət	-11.5127
▁təhlükəsizliyin	-11.5128
▁ahəng	-11.513
▁qraf	-11.5132
▁möhkəmləndir	-11.5132
▁Təhmasibi	-11.5132
▁Türklər	-11.5132
▁təy	-11.5132
▁etməyin	-11.5135
▁sinfində	-11.5135
▁Səmədov	-11.5136
▁səhvlər	-11.5137
▁174	-11.5138
▁iddiası	-11.5139
▁yerləşdirilir	-11.5145
zib	-11.5147
▁Qoşunları	-11.515
▁anlam	-11.5152
▁sursat	-11.5153
▁yaxınlıq	-11.5153
▁Abbasilər	-11.5154
▁sahillərini	-11.5158
▁imperiyasında	-11.5159
▁quberniyasında	-11.516
▁qatıla	-11.5162
▁fondunu	-11.5163
▁Rəş	-11.5168
▁baxışda	-11.5169
▁icazəsi	-11.5174
▁nazirliyin	-11.5176
▁Ordubadi	-11.5176
▁gecələr	-11.5177
▁Meşələr	-11.5178
▁vətəndaşlar	-11.5178
▁xəttində	-11.518
▁çəkmə	-11.5182
▁ixtiyarın	-11.5182
▁poemasını	-11.5182
▁cəsarət	-11.5187
▁çatdıra	-11.5189
▁studiyası	-11.519
▁Mat	-11.5192
▁festivalı	-11.5192
▁xassələrini	-11.5193
▁sədrəzəm	-11.5195
tac	-11.5196
▁as	-11.5196
▁Maks	-11.5197
▁öd	-11.5199
ge	-11.52
▁nədir	-11.5209
▁bulaqları	-11.5209
▁yatağında	-11.521
▁ifşa	-11.5211
▁İyirmi	-11.5211
▁Sağlam	-11.5211
▁rahib	-11.5211
▁1846	-11.5211
▁Qəzzafi	-11.5211
▁Çoban	-11.5211
▁dayandırdı	-11.5211
▁İçəri	-11.5211
▁Baku	-11.5211
▁Vinçi	-11.5212
▁girişi	-11.5214
▁Orx	-11.5218
ing	-11.5218
▁Xristianlıq	-11.5219
▁tikdirdi	-11.522
▁repertuarın	-11.5221
▁sərhədində	-11.5222
▁səfir	-11.5222
▁birləşdi	-11.5222
▁Konqresi	-11.5223
▁tamamladı	-11.5223
▁So	-11.5224
▁buraxılmış	-11.5226
▁zalında	-11.5228
▁İzzə	-11.5229
▁Ho	-11.5229
▁97	-11.5229
▁oyna	-11.5231
tatar	-11.5233
▁hazırlamış	-11.5235
▁effekti	-11.5236
▁Dostlu	-11.5237
▁sistemlərin	-11.524
▁əfsanəsi	-11.524
▁AT	-11.524
xt	-11.524
▁Cə	-11.5248
▁səslə	-11.5248
▁şəbəkəsini	-11.525
▁rə	-11.5253
▁operası	-11.5254
▁ideologiyası	-11.5254
▁toyu	-11.5259
▁Kişi	-11.526
▁lövhələr	-11.5262
▁rahatlıq	-11.5264
▁Tarixdə	-11.5264
▁qərarlar	-11.5264
▁səsin	-11.5265
▁Toy	-11.5266
▁Rau	-11.5267
▁Hey	-11.5268
▁niyyəti	-11.5271
▁evlənmişdi	-11.5275
▁filosofları	-11.5278
▁status	-11.5279
▁zabitləri	-11.528
▁zavodunu	-11.528
▁sualın	-11.528
əhəmməd	-11.5281
▁aparılı	-11.5283
▁beynin	-11.5287
▁qurulmasında	-11.5288
▁proqramını	-11.5298
▁cəbhəsi	-11.5299
▁şaha	-11.5299
ura	-11.5299
▁magistral	-11.5303
3-	-11.5305
▁paylanması	-11.5307
səmə	-11.5307
▁mərasimlər	-11.531
▁təmizlənməsi	-11.531
▁səp	-11.5312
▁qəbirləri	-11.5313
▁məbədləri	-11.5313
ove	-11.5313
▁Bünyad	-11.5316
▁qorunma	-11.5319
▁Müğənni	-11.5319
▁Nəqliyyat	-11.5319
▁Stüart	-11.5319
▁marşrut	-11.5319
▁İçərişəhər	-11.5319
▁Bəkir	-11.5319
▁rəğ	-11.5319
▁pyesləri	-11.5319
▁Hacınski	-11.5319
▁Xələf	-11.532
▁87	-11.5322
▁Dəmirçi	-11.5323
▁plat	-11.5323
▁əhatələnmiş	-11.5323
▁açdığı	-11.5324
▁bilməsə	-11.5325
▁yetirməsi	-11.5326
▁hündürlük	-11.5326
rız	-11.5327
▁gəminin	-11.5329
▁Şıx	-11.5329
▁Xristianlığı	-11.5332
▁qişası	-11.5334
▁dövlətlərində	-11.5335
▁şərtlərini	-11.5335
▁tələbatı	-11.5336
▁göndərmək	-11.5336
▁dərisi	-11.5337
▁radiosu	-11.5338
▁Direktor	-11.534
yavaş	-11.5343
▁qaynaqlar	-11.5343
▁Klublar	-11.5348
▁sistemdə	-11.5351
▁qiymətləndirmə	-11.5352
▁mənaları	-11.5353
▁etməz	-11.5355
▁mədəniyyətlərin	-11.5359
▁mətbəxi	-11.536
▁Mənə	-11.5364
▁mahnıların	-11.5365
▁araba	-11.5367
▁Erkək	-11.537
▁parçalanma	-11.537
▁Federasiya	-11.537
▁xərclərini	-11.5373
▁Dəf	-11.5374
▁yaxınlıqda	-11.5378
▁itirmə	-11.538
▁dəstəyini	-11.5383
▁axın	-11.5383
kəs	-11.5383
▁tim	-11.5385
▁ayağı	-11.5388
▁həddi	-11.539
▁paltarı	-11.5391
övbə	-11.5391
▁Tar	-11.5392
▁177	-11.5392
▁fond	-11.5393
▁markası	-11.5396
▁Ağqoyunlular	-11.5396
▁İncil	-11.54
Qərb	-11.54
▁modelləri	-11.5401
▁qarşılaşması	-11.5401
əkəri	-11.5404
▁qatılmış	-11.5405
▁Ani	-11.5406
▁keçdilər	-11.5407
▁Görüş	-11.5409
▁ağırlıq	-11.5416
▁yarıda	-11.5421
▁düşərgəsi	-11.5421
▁qaldırı	-11.5421
▁məhsuldarlığı	-11.5422
▁mərkəzini	-11.5425
87-	-11.5425
▁istiqlal	-11.5429
▁Apollon	-11.5429
▁Bürhanəddin	-11.5429
▁Tatarıstan	-11.5429
▁qübbə	-11.5429
▁spiral	-11.5429
▁vassal	-11.5429
▁Şeybani	-11.5429
▁Nümayəndə	-11.5429
▁minimum	-11.5429
▁İsmail	-11.5429
▁buludlar	-11.543
▁rubl	-11.543
▁yüzbaşı	-11.543
▁haqlı	-11.543
▁Səhra	-11.543
▁Assur	-11.5431
▁topladığı	-11.5431
▁Beat	-11.5431
▁qartal	-11.5432
▁fəaliyyətlərini	-11.5432
▁Abdal	-11.5433
▁təqdimat	-11.5433
▁nöqtədə	-11.5434
▁1861	-11.5435
▁yata	-11.5436
▁fayda	-11.5436
damar	-11.5437
▁haqları	-11.5438
▁qovşağı	-11.5439
▁ucaldıl	-11.5442
▁yolların	-11.5443
clı	-11.5446
rix	-11.5447
▁yaxınlığı	-11.5449
▁kimyaçı	-11.5451
▁sənədin	-11.5451
▁aş	-11.5454
▁Gölü	-11.5454
▁ailəsin	-11.5455
▁yığıla	-11.5455
▁insanlarla	-11.5458
▁tacirləri	-11.546
▁qalx	-11.5461
▁yaza	-11.5464
▁yüksəlmiş	-11.5464
▁Mahmudov	-11.5473
▁aktları	-11.5473
▁virusu	-11.5474
▁yönəldilmiş	-11.5477
▁çəkilişi	-11.5477
▁yazıçıların	-11.5481
▁türbəsini	-11.5483
▁cərrah	-11.5483
▁məntəqələrini	-11.5484
▁türkcəsin	-11.5487
▁yazıçılar	-11.5488
▁danışıqları	-11.549
▁özbək	-11.549
▁nöqtələri	-11.5491
▁prinsiplər	-11.5495
▁folklorun	-11.5495
▁vuruşa	-11.5496
▁Səni	-11.55
tdan	-11.5502
▁Bölgə	-11.5502
▁bilirik	-11.5502
▁idmanın	-11.5503
▁türkmən	-11.5506
▁yoxs	-11.5507
▁qarış	-11.5508
▁davranışı	-11.5509
▁yubiley	-11.5511
▁Qasımlı	-11.5511
▁qərarlaş	-11.5513
▁ödəyir	-11.5513
▁cənubu	-11.5517
▁qatları	-11.5517
80-	-11.5519
▁çəkməy	-11.5526
▁İbrahimi	-11.5527
mədən	-11.5529
▁uşaqlıqda	-11.5529
▁düşüncələri	-11.5532
▁Dmitri	-11.5534
XVIII	-11.5535
▁ötürü	-11.5535
▁qarşılanmışdı	-11.5537
▁borusu	-11.5538
▁yaşayanlar	-11.5539
×	-11.554
▁Xarkov	-11.554
▁cənnət	-11.554
▁Qəddafi	-11.554
▁Astronomi	-11.554
▁dəstəkləyə	-11.554
▁İosif	-11.554
▁Edvard	-11.554
▁Slovakiya	-11.554
▁şərbət	-11.554
ку	-11.554
▁buraxılması	-11.554
▁Özəl	-11.554
▁köçən	-11.5541
▁Tatar	-11.5541
▁düzəldir	-11.5542
qun	-11.5543
▁Kosa	-11.5543
▁xristianları	-11.5544
▁əmlak	-11.5544
noz	-11.5545
▁Həmdulla	-11.5545
papaq	-11.5545
▁təqaüdü	-11.5546
▁anatomiya	-11.5546
tdi	-11.5546
▁Orucov	-11.5548
▁mühəndisliyi	-11.5548
▁tökül	-11.5549
ologiyası	-11.555
▁iclası	-11.5551
▁hunlar	-11.5558
▁tənqidçilər	-11.5558
▁Jor	-11.5561
▁maşınları	-11.5561
▁yayımı	-11.5565
▁büdcəsi	-11.5568
▁Muxtarov	-11.5573
▁aya	-11.5574
▁dövlətlərdə	-11.5574
▁Biləc	-11.5578
▁yeniliklər	-11.558
▁işğalçıları	-11.5584
▁Hakimiyyətin	-11.5585
ləs	-11.5586
▁ağacın	-11.5586
▁olursa	-11.559
▁saatı	-11.5591
▁qalxması	-11.5591
▁Senat	-11.5592
▁öndə	-11.5595
▁fəaliyyətləri	-11.5596
▁format	-11.5599
▁hüquqlar	-11.5605
▁yarpağı	-11.5605
▁kütlələrini	-11.5606
▁atmış	-11.5607
▁hissləri	-11.5607
▁cism	-11.5611
▁van	-11.5611
▁yarana	-11.5611
▁qoşunun	-11.5614
▁ren	-11.5616
▁azaltma	-11.5617
▁fəslin	-11.5618
yor	-11.5619
▁azarkeş	-11.562
ığ	-11.5622
▁uzunu	-11.5622
▁Mülki	-11.5624
▁turşu	-11.5625
▁tutar	-11.5626
▁şirkətlərin	-11.5628
▁Səf	-11.563
▁kursunda	-11.5631
▁səfərin	-11.5632
▁çıxıntı	-11.5632
▁mənbəyini	-11.5634
▁kollecin	-11.5635
uncu	-11.5636
▁öhdə	-11.5639
▁misra	-11.5646
▁serial	-11.5646
eşəkar	-11.5646
▁qabığında	-11.5649
▁Yuna	-11.5649
▁əməkdaşlığı	-11.565
▁biliklərin	-11.565
▁atan	-11.5652
▁Filip	-11.5652
▁Əsədulla	-11.5652
▁darvaza	-11.5653
▁parazit	-11.5653
▁Cenevrə	-11.5653
▁Nəvvab	-11.5653
▁holland	-11.5653
▁qravitasiya	-11.5653
▁separatçı	-11.5653
▁skripka	-11.5653
▁vegeta	-11.5653
▁təhqir	-11.5653
▁gerbi	-11.5653
▁öldüyü	-11.5653
▁qapısını	-11.5653
▁Liseyi	-11.5653
▁Macar	-11.5653
tavr	-11.5653
vayı	-11.5653
▁Məktəbdə	-11.5653
▁versin	-11.5654
▁anlamaq	-11.5654
▁gözlənilir	-11.5654
▁məbləği	-11.5655
▁20-30	-11.5656
zən	-11.5656
▁birləşə	-11.5656
▁sayır	-11.5656
▁qoyurdu	-11.5658
▁göm	-11.5658
▁səciyyələn	-11.5659
▁İbrahimbəyov	-11.5659
Peterburqda	-11.566
▁modelin	-11.566
▁qəhrəmanların	-11.5662
▁fərqləndir	-11.5662
▁1868	-11.5662
▁dünyagörüşünü	-11.5663
▁tərəfdar	-11.5665
▁qalıqlarını	-11.5667
▁səhifəsi	-11.5667
▁səthini	-11.5668
atma	-11.5668
▁hərb	-11.5668
▁mənzərəsi	-11.5668
▁gətirməyə	-11.567
▁qətiyyətl	-11.5672
▁Almaz	-11.5672
▁xəstələri	-11.5672
▁ocağını	-11.5676
▁oxşarlıq	-11.5677
▁cildin	-11.5678
▁poeziyasını	-11.5679
▁silsilələri	-11.5682
▁tarixçilərin	-11.5684
kütlə	-11.5684
▁kolları	-11.5684
▁Konfrans	-11.5695
▁evlərdə	-11.5696
tgen	-11.5698
▁170	-11.5699
▁məqsədə	-11.5701
▁komandalar	-11.5701
▁səfərbər	-11.5705
▁hərflər	-11.5706
siyahıyaalınması	-11.5708
▁Sənətkar	-11.5709
▁əlifbasını	-11.571
▁piri	-11.5711
əqədər	-11.5715
▁rejissorluğu	-11.5715
▁məməli	-11.5716
▁kafedralı	-11.5719
▁irsini	-11.572
ötəri	-11.5724
▁tapıntılar	-11.5726
▁kitabədə	-11.5728
▁po	-11.5729
▁çağı	-11.5729
▁Kubokun	-11.5729
▁qurşaq	-11.573
▁ocağın	-11.5731
▁Duması	-11.5735
▁satılır	-11.5736
▁Ağam	-11.5737
▁Əf	-11.5738
▁qayıtmağ	-11.5741
▁həndəsə	-11.5741
▁qolun	-11.5748
▁cihazlar	-11.5749
▁Şamaxını	-11.5751
XIII	-11.5752
▁Çempionatını	-11.5752
▁Həzrəti	-11.5753
▁şöbələri	-11.5754
▁Dadaş	-11.5762
▁çıxarmış	-11.5764
▁iqtidar	-11.5764
▁götürmüş	-11.5766
▁Kleopatra	-11.5766
▁MMC	-11.5766
▁Riçard	-11.5766
▁Sivas	-11.5766
▁Ürək	-11.5766
▁Şəkər	-11.5766
▁Əbdüləziz	-11.5766
▁kazak	-11.5766
▁Tibet	-11.5766
▁materiya	-11.5766
▁intiqam	-11.5767
▁proqramında	-11.5767
▁Şahverdi	-11.5767
▁mükafatçısı	-11.5768
▁Cavan	-11.5768
▁optimal	-11.5768
▁tatarları	-11.5769
üqar	-11.577
▁gətirilməsi	-11.577
▁atlar	-11.5775
▁dizaynı	-11.5775
▁Fax	-11.5775
▁edərsə	-11.5776
▁Sonda	-11.5779
▁Zəh	-11.5779
gey	-11.578
▁ostan	-11.5782
▁ağırlığı	-11.5782
canını	-11.5785
▁ifadəsini	-11.5793
▁xanlığında	-11.5794
▁kampaniyası	-11.5795
▁burun	-11.5796
▁seriyası	-11.5799
▁çayda	-11.5801
▁ölümünü	-11.5801
▁Olimpiadasın	-11.5803
▁divarların	-11.5804
▁Musi	-11.5805
▁quberniya	-11.5806
▁Parlamenti	-11.5808
▁təsisçisi	-11.5808
▁fizi	-11.5811
▁pulları	-11.5815
lür	-11.5816
▁Sədr	-11.5816
▁mübadiləsini	-11.5817
▁sonları	-11.5818
▁olmamalı	-11.582
▁ritmi	-11.5821
▁təşkilatlarını	-11.5822
20	-11.5822
▁Cons	-11.5825
ika	-11.5826
▁prezidentin	-11.5826
▁yəhudiləri	-11.5826
▁Zə	-11.5828
▁rəssamların	-11.5829
▁ekspedisiyası	-11.5831
▁yollarında	-11.5833
▁Azərb	-11.5834
▁gey	-11.5836
▁xatun	-11.5837
gedən	-11.584
▁mövsümün	-11.584
▁Xudada	-11.5841
▁alətin	-11.5845
▁Əh	-11.5845
▁qəhrəmanın	-11.5847
▁məktəblərini	-11.5848
▁avtomobilləri	-11.5851
▁təcrübələr	-11.5854
▁Bədənin	-11.5854
▁müştəri	-11.5854
▁nur	-11.5855
▁anbarları	-11.5858
▁rəngin	-11.5858
▁deyən	-11.5859
▁dərsi	-11.5859
▁zamankı	-11.5861
▁hazırlanma	-11.5861
▁seriyasında	-11.5869
▁göstərildi	-11.5871
▁İngilislər	-11.5872
▁qurumlar	-11.5873
▁dadı	-11.5873
▁enmə	-11.5876
▁ilham	-11.5878
qil	-11.588
netika	-11.5881
▁ezam	-11.5881
▁Oğlan	-11.5881
▁çevik	-11.5881
▁Dəstə	-11.5881
▁törədə	-11.5881
▁Əfsanə	-11.5881
▁qətliam	-11.5881
▁Çıraq	-11.5881
▁Rostov	-11.5881
▁Cahanşah	-11.5881
▁fosfor	-11.5881
▁öyrəndi	-11.5881
▁arena	-11.5882
▁agentliyi	-11.5882
▁olmayacaq	-11.5882
▁kafir	-11.5882
▁həmkarlar	-11.5884
▁Tər	-11.5884
▁qidalanma	-11.5885
▁Gil	-11.5885
▁partladıl	-11.5888
▁önə	-11.5888
▁yurdların	-11.5888
yyət	-11.5892
▁tərs	-11.59
▁vasitələrini	-11.5901
▁şou	-11.5901
▁bərabərliyi	-11.5902
▁did	-11.5902
▁fabrik	-11.5904
▁yiyələni	-11.5906
▁alay	-11.5907
▁ifra	-11.5909
rsız	-11.5911
▁istəmirdi	-11.5912
ənah	-11.5916
▁islahatları	-11.5917
zaman	-11.592
üç	-11.5921
▁təpəsi	-11.5922
▁təkmil	-11.5923
▁dağıdılmışdı	-11.5924
▁hakimlər	-11.5924
▁Rud	-11.5925
ılmaz	-11.5925
▁kanalları	-11.5925
ed	-11.5929
▁hücumçu	-11.5935
▁sirr	-11.5941
▁rütubət	-11.5941
▁Ordeni	-11.5943
▁küçələrdə	-11.5943
▁irsin	-11.5945
▁əməkdaşlığın	-11.5948
▁dövranı	-11.5953
▁orkestri	-11.5956
▁arvad	-11.5957
▁gözün	-11.596
▁dünyadakı	-11.5962
▁açmış	-11.5963
▁Fo	-11.5963
basar	-11.5964
▁günəşi	-11.5966
▁yaralanmış	-11.5967
▁birliklər	-11.5968
▁Firuz	-11.5968
▁qollar	-11.5971
▁orqanizmlər	-11.5972
▁Bad	-11.5972
▁nəşriyyatın	-11.5977
▁mayda	-11.5978
▁Sava	-11.5979
▁etdir	-11.598
amiz	-11.5984
▁Təq	-11.5988
▁Rəfi	-11.5989
▁rayonların	-11.5994
qrar	-11.5996
▁İntibah	-11.5997
▁Paraqvay	-11.5997
▁bilinmir	-11.5997
▁cavabdeh	-11.5997
▁Human	-11.5997
▁Otuz	-11.5997
▁şok	-11.5997
▁Bəkr	-11.5998
▁natura	-11.5998
▁sürürdü	-11.5998
▁bildirmək	-11.5999
▁yazdıqları	-11.5999
cıq	-11.6
▁xətlər	-11.6
▁Türklərin	-11.6001
▁ayıran	-11.6001
tto	-11.6004
sınız	-11.6004
▁Qardaşı	-11.6005
▁güclənməsi	-11.6005
▁1856	-11.6006
▁obrazların	-11.6006
▁çevrə	-11.6006
▁düzünü	-11.6007
▁məqamlar	-11.6007
▁çevirmə	-11.601
▁fırlan	-11.6012
▁dəlik	-11.6013
▁1747	-11.6013
▁Qoruğun	-11.6014
▁iradə	-11.6016
▁investisiya	-11.6018
▁zəiflədi	-11.6019
▁Hicri	-11.6023
▁sürülmüşdü	-11.6024
▁verilişi	-11.6024
▁baxa	-11.6024
▁Elmir	-11.6025
▁sağlamlığını	-11.6027
▁ekranlar	-11.6028
▁çəkişmələr	-11.6031
▁dönmə	-11.6032
ihab	-11.6033
▁boyları	-11.6038
▁verməlidir	-11.6038
▁qonaqları	-11.6039
▁sikkələri	-11.6043
▁üsyançılar	-11.6045
▁strukturunu	-11.6045
kut	-11.6046
▁müştərilər	-11.6047
▁157	-11.6047
▁Cami	-11.6049
▁qızın	-11.605
ilologiya	-11.6051
▁Şur	-11.6053
▁minilliklər	-11.6054
▁qalanları	-11.6055
▁uğra	-11.6056
▁Mu	-11.606
▁çevrilişi	-11.6068
▁sayt	-11.6069
▁rollarını	-11.6072
▁erməniləri	-11.6072
▁yazar	-11.6074
fur	-11.6077
▁dindar	-11.6078
▁vergisi	-11.6079
▁sərhədlərində	-11.608
▁be	-11.608
▁müəyyənləşdiri	-11.6082
▁ölmüşdü	-11.6083
▁binə	-11.6083
▁korpusu	-11.6086
şel	-11.6088
▁cədvəlin	-11.609
▁naxışları	-11.6091
08	-11.6092
▁maddəsin	-11.6097
▁fiqurları	-11.6099
▁car	-11.61
▁povesti	-11.61
neu	-11.61
▁xalla	-11.6101
▁nailiyyətlərin	-11.6102
▁radiosun	-11.6103
irid	-11.6103
▁xaqanı	-11.6105
▁görüşmə	-11.6105
▁Uni	-11.6109
▁mahalın	-11.6109
▁Televiziyası	-11.611
▁ideyaların	-11.6111
▁məqsədini	-11.6112
▁tələf	-11.6113
▁problemini	-11.6114
▁Cəmi	-11.6114
▁fı	-11.6114
▁metodlar	-11.6114
▁Kapita	-11.6115
▁Məqsəd	-11.6115
▁Paskeviç	-11.6115
▁cərimə	-11.6115
▁stabil	-11.6115
▁yırtıcı	-11.6115
▁Əvəz	-11.6115
▁Heykəl	-11.6115
▁labora	-11.6115
▁Şeytan	-11.6115
▁etnotoponim	-11.6115
▁Bakuvi	-11.6118
▁Söyüd	-11.6118
▁zonalar	-11.6119
▁xərc	-11.6121
▁Şərifov	-11.6122
▁seçimi	-11.6125
rta	-11.6126
▁zonalarında	-11.6128
▁yüksəklik	-11.6128
ow	-11.6128
▁atəşin	-11.6129
▁qazandırı	-11.6131
▁yeməyində	-11.6135
▁başlığı	-11.6136
▁danışırdı	-11.6138
▁zülm	-11.6138
▁faza	-11.6139
eriya	-11.614
fət	-11.6142
▁ziyalıların	-11.615
▁çinlilər	-11.6153
gül	-11.6155
▁əvvələ	-11.6155
▁qalsa	-11.6156
▁sünn	-11.6156
▁verilmə	-11.6159
▁kilsədə	-11.6159
▁vurulur	-11.616
▁köçürü	-11.6161
cül	-11.6163
▁genişləni	-11.6167
▁Qəzvini	-11.6168
▁medalını	-11.6168
▁dialoq	-11.6172
▁dayandırma	-11.6172
▁liderləri	-11.6172
▁oyunların	-11.6175
▁dalğası	-11.6178
▁piano	-11.6181
İK	-11.6182
▁musiqisində	-11.6186
▁İlan	-11.6189
▁Göl	-11.6189
sək	-11.619
▁Dairə	-11.6199
▁telekanalın	-11.62
sizlik	-11.6204
▁İstanbulu	-11.6207
▁görünmə	-11.6209
▁daşımaq	-11.6211
▁bəyliyi	-11.6213
▁Toxum	-11.6213
▁saxlanılmışdı	-11.6216
▁bəd	-11.6219
vət	-11.6221
▁zonaları	-11.6222
▁təmiri	-11.6226
orf	-11.6227
▁addımı	-11.6228
▁Çe	-11.6229
▁yeməklər	-11.623
▁ustadı	-11.6231
otanik	-11.6233
▁qutu	-11.6233
▁dörddə	-11.6233
▁peyğəmbərlər	-11.6234
▁Atletik	-11.6234
▁Efiopiya	-11.6234
▁Qazıntı	-11.6234
▁Qətər	-11.6234
▁Sparta	-11.6234
▁Yevgeni	-11.6234
▁avadanlığı	-11.6234
▁olsaydı	-11.6234
▁Harvard	-11.6234
▁lokal	-11.6234
▁monarxiya	-11.6234
▁Vahabzadə	-11.6234
▁xlor	-11.6234
▁Əmiraslan	-11.6234
▁mütəfəkkir	-11.6235
salında	-11.6236
▁yazıldığı	-11.6236
▁Lə	-11.6237
▁Ray	-11.6239
▁Hacıbaba	-11.624
▁çalır	-11.624
▁mini	-11.6241
▁kəsilməsi	-11.6241
▁nəzm	-11.6242
dey	-11.6242
▁Qrupu	-11.6242
▁tabeli	-11.6243
▁Nəcəfov	-11.6247
▁daşlarında	-11.6247
zov	-11.6247
ündə	-11.6249
▁tanıyır	-11.6254
▁pulun	-11.6255
▁irqi	-11.6256
▁ölmə	-11.6257
▁Cü	-11.6258
▁qanadları	-11.6258
▁Səlcuqlu	-11.6259
▁əmirlərin	-11.6264
▁məcmuəsi	-11.6267
▁məbədlər	-11.6268
▁vəhdət	-11.6268
▁çatdırılır	-11.627
▁xatirələri	-11.627
▁əməliyyatlarda	-11.6277
▁konstruksiya	-11.6277
▁tələbat	-11.6278
▁gəlsə	-11.6278
▁pər	-11.628
▁bölgəsin	-11.6281
▁1600	-11.6282
▁qovulmuş	-11.6283
▁simmetri	-11.6284
▁quşları	-11.6284
zal	-11.6287
▁orkestrin	-11.629
omon	-11.6292
rir	-11.6292
▁ətrafın	-11.6295
▁miras	-11.6297
▁həqiqətə	-11.6298
▁kütləsini	-11.6299
▁azaldır	-11.6302
▁platforma	-11.6303
▁nüvəsi	-11.631
▁hücumunda	-11.6311
▁işlədilmiş	-11.6311
obasında	-11.6312
▁qəzəl	-11.6313
▁hərbçiləri	-11.632
▁tanrıların	-11.6322
rand	-11.6323
▁İo	-11.6324
▁elmində	-11.6325
▁süqutu	-11.6326
▁modelini	-11.6326
sur	-11.6326
▁teleqra	-11.6328
▁keçirməsi	-11.633
▁regionu	-11.6334
▁kompüterlər	-11.6335
adam	-11.6339
▁küləyi	-11.6339
▁Bitkilər	-11.634
▁savad	-11.634
▁mülkiyyətin	-11.6342
▁təməlin	-11.6342
▁bayrağını	-11.6343
əadət	-11.6346
▁dayanma	-11.6347
▁Paleol	-11.6349
▁hamısında	-11.6351
▁tr	-11.6353
▁Məs	-11.6353
▁məhsulunu	-11.6354
▁instru	-11.6355
▁Nelson	-11.6355
▁Oksford	-11.6355
▁Venesuela	-11.6355
▁portuqal	-11.6355
▁təəssürat	-11.6355
▁şəlalə	-11.6355
▁elektromaqn	-11.6355
▁1842	-11.6355
▁əczaçı	-11.6355
▁uzaqlıqda	-11.6355
▁Üzərin	-11.6355
▁Sarqon	-11.6355
ilyam	-11.6355
▁1831	-11.6356
▁xassə	-11.6356
▁dəyişkən	-11.6356
▁Saxa	-11.6357
▁çatdırmışdı	-11.6358
akir	-11.636
▁qaydaların	-11.636
▁İKP	-11.6361
▁Yusifbəyli	-11.6362
▁atam	-11.6362
▁ərzaqlar	-11.6362
▁Necə	-11.6364
▁sərgilən	-11.6365
▁təriqəti	-11.6366
▁təkliflər	-11.6366
▁balansı	-11.6367
▁Qacarı	-11.6369
▁sürt	-11.6369
▁istifadəsin	-11.637
məram	-11.637
▁bağırsağın	-11.6371
fis	-11.6371
▁həvəslə	-11.6373
▁Bayatı	-11.6375
▁hamamı	-11.6376
▁südü	-11.6378
▁axtarışlar	-11.6379
▁istiqamətlərdə	-11.6383
▁Gü	-11.6385
▁Nuh	-11.6385
▁saatların	-11.6385
▁enində	-11.6388
▁Meydan	-11.6391
▁millətləri	-11.6393
verici	-11.6393
▁fiquru	-11.6396
Diza	-11.64
▁İstər	-11.6401
▁banklar	-11.6403
▁seçilirdi	-11.6403
▁maraqlarını	-11.6404
▁yarışı	-11.6405
▁düzəldil	-11.6406
▁yuyu	-11.6408
▁ikili	-11.6408
şı	-11.6409
▁qı	-11.641
▁atla	-11.6412
▁nasi	-11.6413
▁Albomu	-11.6413
▁dönü	-11.6413
▁Oyunu	-11.6414
▁İnsanları	-11.6415
▁Səba	-11.6416
▁Kərbəla	-11.6416
▁Sultanı	-11.6417
bək	-11.6417
atılır	-11.6419
ef	-11.642
dal	-11.6421
▁vermirdi	-11.6422
▁Kazımova	-11.6422
turunda	-11.6426
▁şimalı	-11.6428
▁evli	-11.6429
▁Muradı	-11.643
▁Avar	-11.6431
▁kralın	-11.6432
▁çıxarılı	-11.6432
▁qrafikası	-11.6437
▁Piri	-11.6438
▁məsafəsi	-11.6443
▁hücumun	-11.6443
ement	-11.6444
▁almanları	-11.6445
▁Onda	-11.6447
▁atalar	-11.6449
▁kapitalı	-11.6455
▁qərarları	-11.6459
▁cisimlərin	-11.6459
▁palata	-11.6459
▁xala	-11.646
▁Sala	-11.6461
▁lifləri	-11.6461
▁rəsədxana	-11.6465
sub	-11.6467
▁portreti	-11.6469
▁Kiş	-11.6472
▁qurudulm	-11.6472
sirlərini	-11.6473
▁vətənində	-11.6476
▁konserv	-11.6477
▁Mərmər	-11.6477
▁komsomol	-11.6477
▁törədilən	-11.6477
▁Ülvi	-11.6477
▁mikroskop	-11.6477
▁Müzəffər	-11.6477
▁təhdid	-11.6477
▁uğrayı	-11.6477
▁sürdüyü	-11.6477
▁tikdirmişdi	-11.6477
▁Səma	-11.6478
▁şüarı	-11.6478
▁Əcəm	-11.6478
mido	-11.6479
tmişdir	-11.648
vuz	-11.648
▁ха	-11.648
▁Ceyran	-11.6481
▁Qey	-11.6482
▁üçbucaq	-11.6482
▁icmaları	-11.6483
çilir	-11.6483
özünə	-11.6484
▁dəyişik	-11.6484
ixi	-11.6486
▁ref	-11.6487
end	-11.6489
▁metalları	-11.6495
▁kompaniyası	-11.6496
▁seçmişdi	-11.6497
▁öyrənili	-11.6497
▁gəlinc	-11.6498
▁xammalı	-11.6499
▁tu	-11.6499
▁istədikləri	-11.6501
▁aktyorlar	-11.6502
aştağ	-11.6505
▁özüm	-11.6505
▁yetirmə	-11.6505
▁Pen	-11.6507
▁aparat	-11.6509
yam	-11.6512
viç	-11.6512
▁monastırı	-11.6516
▁şeytan	-11.6518
▁seçi	-11.6518
künc	-11.652
▁axtarır	-11.6521
▁sürmüş	-11.6523
▁planın	-11.6524
▁bilin	-11.6524
▁gözləmə	-11.6525
▁töhfələr	-11.6526
▁çevirir	-11.6527
▁Akademiyanı	-11.6527
Cavanşir	-11.6528
qarşıya	-11.6528
▁Nikola	-11.6529
▁dəstəsində	-11.6529
▁Je	-11.6529
▁Hamı	-11.653
▁təbiətini	-11.6535
▁təqiblər	-11.6536
▁adalarını	-11.6537
▁tanıdı	-11.6539
▁Xəbər	-11.6541
▁qoşul	-11.6543
▁uduz	-11.6546
tion	-11.6547
▁Seminariyasını	-11.6547
▁Mahal	-11.6547
▁yönəli	-11.6548
02	-11.655
urq	-11.655
▁səfərləri	-11.6552
▁silahları	-11.6553
▁Qoşun	-11.6553
▁küçələri	-11.6554
▁Arxiv	-11.6559
▁poemasında	-11.656
▁Həkim	-11.6561
▁tərəfdarlarını	-11.6561
▁əlaqələndiril	-11.6563
zlu	-11.6566
▁qırı	-11.6571
▁saxlayı	-11.6575
qo	-11.6575
▁guşə	-11.6576
▁tiki	-11.6576
▁4000	-11.6577
▁keçmişi	-11.6577
▁olunmamış	-11.6579
▁içindəki	-11.6579
▁Pərvi	-11.6579
▁bilgi	-11.6579
▁sərgisi	-11.6583
sis	-11.6584
eli	-11.6585
▁vərəm	-11.6592
▁Kəş	-11.6592
▁qurumların	-11.6596
qrad	-11.6597
▁qiymətləri	-11.6598
▁söylədi	-11.6598
▁Atropat	-11.66
▁Abxaziya	-11.66
▁Ruzvelt	-11.66
▁dəhliz	-11.66
▁kolorit	-11.66
▁kurort	-11.66
▁madaylar	-11.66
▁tüfəng	-11.66
rəngiz	-11.66
▁Hesablama	-11.66
▁Cinayət	-11.66
▁Qalan	-11.66
▁salına	-11.66
▁magistratura	-11.6601
▁yerlə	-11.6602
▁qiymətləndirir	-11.6603
İ	-11.6603
▁bilməyəcəyini	-11.6605
▁arealı	-11.6605
▁Krımda	-11.6607
▁Billi	-11.6607
▁Qaraxanlı	-11.6611
▁sülhün	-11.6612
▁Seyidzadə	-11.6615
▁oğuzlar	-11.6617
▁olmadıq	-11.6618
▁tor	-11.6619
▁Alqışlar	-11.662
▁qayalar	-11.662
▁etimad	-11.6622
▁qarışıqlıq	-11.6623
miqyasl	-11.6625
üllü	-11.6629
▁meyilli	-11.663
▁qrammatik	-11.6632
▁almaz	-11.6633
▁rənglərin	-11.6639
▁birləşi	-11.6642
▁olanları	-11.6643
▁tikdiri	-11.6646
▁riyaziyyatçı	-11.6648
▁seçmək	-11.6648
▁redaksiyası	-11.665
▁Ailəsi	-11.6656
▁mətnləri	-11.6656
▁240	-11.6656
age	-11.6657
▁elektro	-11.6657
▁səhnəsi	-11.6657
▁edirmiş	-11.6657
▁Qoşa	-11.6661
▁reytinq	-11.6661
▁xüsusiyyətin	-11.6663
▁kadrları	-11.6664
▁müdafiəçi	-11.6668
▁İsveçrəni	-11.6669
▁rəhbərlərin	-11.6669
▁qurulu	-11.667
▁gəmisini	-11.6671
qanun	-11.6671
▁ləkə	-11.6673
▁nazirin	-11.6676
▁artmış	-11.6679
den	-11.668
▁rabitəsi	-11.6682
▁anlamın	-11.6687
▁fəlsəfəsində	-11.6691
▁əlyazması	-11.6694
▁küçələrində	-11.6697
ldu	-11.6697
▁bəzilərini	-11.6698
▁106	-11.6704
▁müəyyənləşdirmə	-11.6711
▁heyvanın	-11.6712
▁Urm	-11.6712
▁Lütfə	-11.6715
▁anbar	-11.6717
▁Kompleksi	-11.6718
▁irəliləmə	-11.6725
▁Aşqabad	-11.6725
▁NASA	-11.6725
▁burjuaziya	-11.6725
▁Vergi	-11.6725
▁əmanət	-11.6725
▁tədarük	-11.6725
▁Biznes	-11.6725
▁Səbəb	-11.6725
ventu	-11.6725
▁Qazıyev	-11.6726
▁doktorant	-11.6726
▁bitkilərdən	-11.6726
▁pullar	-11.6726
ləşdirilir	-11.6726
▁vasitələrində	-11.6726
▁DNT	-11.6726
▁knyazlığı	-11.6727
▁xalqlarında	-11.6727
▁Ural	-11.6729
▁sortları	-11.6729
▁Qida	-11.673
taj	-11.673
▁qüdrətini	-11.673
▁avadanlıq	-11.6733
▁sink	-11.6733
▁şumer	-11.6734
▁ilahiyyat	-11.6737
▁Çanaq	-11.6738
▁bədənini	-11.6738
▁yüzillik	-11.6739
▁rütbəsin	-11.6739
▁simaları	-11.6739
▁öyrəni	-11.674
▁Karp	-11.6742
▁toplu	-11.6742
XIX	-11.6743
▁oxun	-11.6748
▁xoşbəxtlik	-11.6749
▁Xiyabani	-11.6749
▁kifayətdir	-11.6751
▁166	-11.6751
▁dəyişikliyi	-11.6753
▁işsiz	-11.6753
▁ağrı	-11.6755
▁düşüncələr	-11.6755
▁ödəyirdi	-11.6756
əfəq	-11.6756
▁xalqlarda	-11.6757
▁quruluşlu	-11.6759
▁bağlılığı	-11.676
▁sey	-11.6762
▁evlərini	-11.6764
▁Aş	-11.6765
▁təcrübəsini	-11.6769
▁maraqları	-11.6771
▁çevirə	-11.6771
▁gücləndi	-11.6773
▁qorxusu	-11.6774
▁metodika	-11.6777
▁düzənliklər	-11.6779
LA	-11.678
▁ruhanilər	-11.6782
Qazax	-11.6783
▁yiyələnmişdi	-11.6784
▁ayələri	-11.6784
▁Emil	-11.6785
▁taxtı	-11.6785
▁künc	-11.6787
▁temperaturda	-11.6787
▁yaxınlaş	-11.6791
▁qabı	-11.6791
▁Yusifov	-11.6791
önü	-11.6792
▁Kubok	-11.6796
▁1000-	-11.6798
▁zülallar	-11.6799
▁miqdarında	-11.6799
▁idarəçi	-11.68
▁Xaqan	-11.681
▁deputatları	-11.6813
▁anlayışları	-11.6818
▁həcmini	-11.6819
▁163	-11.6824
▁anlamında	-11.6824
▁ayırd	-11.6826
▁öldürə	-11.6827
▁Şir	-11.683
üclü	-11.6832
▁istila	-11.6835
▁rəqəmi	-11.6835
▁qurd	-11.6836
▁kurslar	-11.6836
▁hun	-11.6838
▁olmaqda	-11.6838
sm	-11.684
▁Atabəylər	-11.684
üst	-11.6843
▁mükafatlandırıl	-11.6844
▁Məmmədh	-11.6847
▁övladlarını	-11.6848
▁öldürülməsin	-11.6849
▁Mömin	-11.6849
▁elmdə	-11.6849
▁müxalif	-11.685
▁qüs	-11.685
oğma	-11.6851
▁Fəaliyyət	-11.6852
▁Qayıbov	-11.6852
▁tabeçiliyin	-11.6852
▁Sidqi	-11.6852
▁Xıdır	-11.6852
▁yetirib	-11.6853
▁hərfləri	-11.6853
▁modern	-11.6853
eologiya	-11.6853
yun	-11.6853
▁1829	-11.6853
▁söylədiyi	-11.6853
▁Dişi	-11.6853
ozan	-11.6854
▁gərginliyi	-11.6855
▁sabitliyi	-11.6856
▁Ağaoğlu	-11.6856
▁irəliləyə	-11.6857
60-	-11.6859
atamam	-11.686
▁Salahov	-11.686
▁canlandırı	-11.686
▁məntəqəsində	-11.6867
▁kompozisiyaları	-11.6867
ype	-11.6868
innes	-11.687
dəfə	-11.6871
▁çirk	-11.6873
▁tapşırı	-11.6877
▁qarışdırıl	-11.6881
▁götürül	-11.6884
▁texnologiyalar	-11.6888
▁səslər	-11.6889
lov	-11.689
▁fayl	-11.6891
▁Rusla	-11.6897
ınca	-11.6901
▁formalarında	-11.6906
▁dastanın	-11.6907
▁birinciliyi	-11.6907
▁qaytarma	-11.6914
▁seyr	-11.6918
▁Boy	-11.6918
▁toplan	-11.692
▁Məni	-11.6923
▁gimnaziyasını	-11.6923
▁skiflər	-11.6924
incan	-11.6925
▁layihələri	-11.6925
▁xoru	-11.6925
lüyünü	-11.6925
giz	-11.6927
▁qoruma	-11.6929
▁gözündə	-11.6929
▁romanın	-11.6933
▁dönmüşdü	-11.6934
▁nota	-11.6935
▁fakültəni	-11.6935
▁bacarığını	-11.6936
▁çəkil	-11.6938
▁basqınlar	-11.6938
▁Müsəlmanları	-11.6945
▁öldürü	-11.6947
▁bloku	-11.695
▁dol	-11.6951
F	-11.6955
▁Aza	-11.6958
▁kanallar	-11.6959
▁xəzinəsi	-11.6959
▁Mövsüm	-11.6959
▁komediyası	-11.696
▁təz	-11.6962
▁buxarlanma	-11.6964
▁abidələrdə	-11.6964
▁mülk	-11.6966
▁Xorasanda	-11.6966
▁saxlanmışdı	-11.6969
▁istiliyi	-11.6969
▁Şü	-11.6971
▁Ru	-11.6972
▁Festivalın	-11.6976
▁cilddə	-11.6976
▁üsulunu	-11.6978
orod	-11.6978
▁şərhi	-11.6979
▁Kolumb	-11.6979
▁Amsterdam	-11.698
▁Anqola	-11.698
▁quyruq	-11.698
▁xəsarət	-11.698
▁keçmir	-11.698
▁gözətçi	-11.698
▁unudulm	-11.698
▁massivi	-11.698
▁alıcı	-11.6981
▁çəl	-11.6981
▁məx	-11.6982
▁elementlərini	-11.6982
▁1941-1945	-11.6982
▁Göz	-11.6982
▁Henrix	-11.6982
▁ilahəsi	-11.6985
▁personaj	-11.6985
▁Konfransın	-11.6988
▁tədbiri	-11.6989
hem	-11.6989
▁atırdı	-11.699
▁dəyişməz	-11.6991
▁Qlobal	-11.6992
▁Ege	-11.6993
▁tənzim	-11.6994
tra	-11.6995
▁gətirirdi	-11.6997
▁Hab	-11.6998
▁ödəmə	-11.7001
▁Mexanika	-11.7002
▁işlədir	-11.7002
▁bilgilər	-11.7002
▁toponimlər	-11.7002
▁cinayətkar	-11.7007
▁ölkəsin	-11.7007
▁məhlulu	-11.7007
▁dəyişməyə	-11.7008
▁müşahidəçi	-11.7011
bənövşəyi	-11.7014
▁küçələr	-11.7015
təhlükəsizliyini	-11.702
▁dialekti	-11.7021
▁tabeliyin	-11.7022
▁yaşam	-11.7024
▁dastanları	-11.7034
▁mexanikası	-11.7034
▁xidmətində	-11.7035
▁xadimlərini	-11.7035
▁Siyahısı	-11.7037
▁gəzir	-11.7037
fizika	-11.7037
▁quraşdırılmış	-11.7038
▁Ərz	-11.7038
▁okeanda	-11.7041
mədəniyyət	-11.7045
▁əlil	-11.7046
polkovnik	-11.7046
▁istedadını	-11.705
▁cisimlər	-11.705
▁tərəfdaş	-11.7052
xita	-11.7053
zer	-11.7056
▁solist	-11.7057
▁geyimləri	-11.7058
▁mədənlərin	-11.7059
▁məşhurlaş	-11.7061
▁idmançıları	-11.7063
▁oyma	-11.7066
▁obrazlarını	-11.7067
▁toplamış	-11.7068
▁başlanılmışdı	-11.7071
▁kilsəsində	-11.7072
▁Sini	-11.7072
▁göyü	-11.7073
slav	-11.7075
▁qrammatika	-11.7076
▁Ul	-11.7076
▁Sant	-11.7081
▁Lok	-11.7082
▁müdafiəsini	-11.7083
▁istəmiş	-11.7083
▁kəsir	-11.7084
▁müştər	-11.7088
▁kursda	-11.709
▁müəllimin	-11.7091
▁irq	-11.7093
▁Mehman	-11.71
▁Macarıstanda	-11.7101
▁meydançası	-11.7101
ağara	-11.7104
▁Diz	-11.7105
▁tədqiqatlarda	-11.7106
▁münasibətlə	-11.7106
▁inancın	-11.7108
▁Üsyan	-11.7109
▁yekdil	-11.711
▁Fişer	-11.711
▁Google	-11.711
▁Məktub	-11.711
▁Texas	-11.711
▁1796	-11.711
▁Dehli	-11.711
▁Şəfa	-11.711
▁firon	-11.711
▁qonağı	-11.711
▁Külək	-11.711
▁maaş	-11.711
▁Mosul	-11.711
▁radioaktiv	-11.711
▁AzTV	-11.7111
▁azlıq	-11.7112
▁oxuyurdu	-11.7112
▁bənzərsiz	-11.7117
kad	-11.7118
bata	-11.712
▁açıqladı	-11.712
▁başqası	-11.7122
▁Kinematoqraf	-11.7122
▁dəyərini	-11.7123
▁dayandırılması	-11.7123
▁sürülü	-11.7124
▁Pul	-11.7125
▁hücumların	-11.7126
▁Havay	-11.7126
▁Aişə	-11.7128
▁döyüşün	-11.7128
▁doğura	-11.7129
▁İslamda	-11.7131
▁muğamı	-11.7133
ləmə	-11.7134
▁inancı	-11.7135
ciyər	-11.7137
▁əvvəli	-11.714
▁parkın	-11.714
▁çökəkliklər	-11.7144
▁xəzinəsin	-11.7144
▁tədqiqatı	-11.7146
▁köçkün	-11.7147
▁allahı	-11.7147
▁donanmasını	-11.7147
▁dilimiz	-11.7149
▁ani	-11.715
▁qayıtması	-11.7151
▁lisey	-11.7152
▁115	-11.7153
▁bölümü	-11.7153
▁gözləyirdi	-11.7154
▁günlərini	-11.7155
▁Əsr	-11.7156
▁zəka	-11.7157
▁himayə	-11.7161
▁planlı	-11.7164
▁qələbəsini	-11.7164
▁Varlı	-11.7165
▁Filarmoniyasın	-11.7166
aşınqayırma	-11.7166
▁şerləri	-11.7166
▁des	-11.717
çəmən	-11.7174
и	-11.7177
▁tanışlıq	-11.7178
▁rolların	-11.7179
▁göndərə	-11.7179
▁matçın	-11.7182
▁Konstantinopol	-11.7183
▁yetirirdi	-11.7183
▁Gəli	-11.7185
▁qarşılanır	-11.7188
▁Tac	-11.719
▁təyyarələri	-11.7192
▁Fren	-11.7192
oxunur	-11.7194
▁səlahiyyətlərin	-11.7195
▁gəz	-11.7197
▁turnirlərin	-11.7203
▁yaradılış	-11.7207
uşu	-11.721
▁mühazirə	-11.7211
▁dəstəkləyir	-11.7214
▁orduy	-11.7216
▁İmr	-11.7218
aqqal	-11.7218
▁Süni	-11.7219
▁Əhə	-11.7219
▁xidmətlərini	-11.7225
▁fauna	-11.7225
▁öyrənə	-11.7225
▁polisi	-11.7226
▁izahı	-11.7234
ddin	-11.7236
▁190	-11.7238
▁şiələr	-11.724
▁ruhlar	-11.724
redit	-11.7241
▁Uruqvay	-11.7241
▁Əməliyyat	-11.7241
▁Atmosfer	-11.7241
▁Bethoven	-11.7241
▁Malayziya	-11.7241
▁Mövcud	-11.7241
▁məqsədəuyğun	-11.7241
▁partlayıcı	-11.7241
▁rəftar	-11.7241
▁təşəkkür	-11.7241
▁Nüsrət	-11.7241
▁Adria	-11.7241
▁Eynşteyn	-11.7241
▁duet	-11.7241
▁səliqə	-11.7241
▁səbət	-11.7241
▁qisas	-11.7242
▁Geri	-11.7242
▁doğran	-11.7242
▁tikildi	-11.7242
▁Əmircan	-11.7243
▁yanaşır	-11.7243
▁itirdiyi	-11.7246
▁gimnaziyasın	-11.7247
▁operasını	-11.7247
▁rəqibləri	-11.7247
▁Ardın	-11.7248
▁gəlirləri	-11.7248
▁riyaziyyatçısı	-11.7249
▁1857	-11.7249
▁çağırırdı	-11.725
▁görüşün	-11.725
▁orqanizmləri	-11.7253
▁qonaqlar	-11.7256
▁Ex	-11.7256
▁arxeoloq	-11.7258
ballı	-11.7259
▁firma	-11.726
▁Dərbəndi	-11.7262
▁1804	-11.7262
▁etdiyində	-11.7264
▁vampir	-11.7266
▁mübarizəsində	-11.7268
▁yazılarda	-11.727
▁Qurd	-11.7273
▁tamamlayan	-11.7275
▁şüa	-11.7279
▁etdirildi	-11.7279
▁Duma	-11.728
ılmış	-11.7281
▁İman	-11.7282
▁tapmağ	-11.7287
oylu	-11.7288
▁mərhələləri	-11.7288
slı	-11.7288
▁yarışa	-11.7289
▁Haqqın	-11.7292
▁yerləşdiyin	-11.7293
▁motiv	-11.7299
▁monoqrafiyası	-11.7301
▁Festivalı	-11.7302
▁Məsihi	-11.7302
▁bazarların	-11.7306
▁miniatürlər	-11.7308
▁ritm	-11.731
▁torpağında	-11.7311
▁qovuş	-11.7316
▁qadınlarda	-11.7318
▁Təh	-11.732
▁alça	-11.7322
▁Zül	-11.7324
▁dayandı	-11.7325
▁girmə	-11.733
▁kilsələr	-11.7331
oradi	-11.7331
lümin	-11.7332
▁landşaftı	-11.7332
▁Qubad	-11.7335
▁atılmış	-11.7338
▁neçəsi	-11.7339
ənbə	-11.7348
▁Gəncəni	-11.7348
▁sərgilər	-11.7348
▁perspektiv	-11.7349
▁uz	-11.7352
▁adlandır	-11.7353
▁çökmə	-11.7355
▁Dər	-11.7356
▁oxucuların	-11.7358
▁cərəyanları	-11.736
▁pod	-11.7365
▁hüceyrələrin	-11.7365
▁iştirakını	-11.7366
▁genişlənmiş	-11.7367
▁dəyişə	-11.7369
▁turşular	-11.737
▁tikilmə	-11.7371
▁çökəkliyi	-11.7371
▁Abbasi	-11.7371
▁işlətmə	-11.7373
▁gəlini	-11.7374
oleybol	-11.7374
▁Laboratoriya	-11.7375
▁sponsor	-11.7375
\	-11.7375
▁ASA	-11.7375
▁Award	-11.7375
▁Giriş	-11.7375
▁Super	-11.7375
▁kalsium	-11.7375
▁kinoteatr	-11.7375
▁çətir	-11.7375
▁səllə	-11.7375
▁1832	-11.7375
▁Zülqədər	-11.7375
▁Atlantida	-11.7375
▁dəzgah	-11.7375
▁antropo	-11.7375
▁Vəfa	-11.7376
▁Zir	-11.7376
osov	-11.7377
▁funt	-11.7377
CN	-11.7378
▁müta	-11.7379
▁saxlanır	-11.7379
▁Obama	-11.738
▁yayımlanır	-11.7381
▁xam	-11.7382
▁görünüşünü	-11.7382
▁Niy	-11.7383
▁təsdiqlə	-11.7385
▁Gövdəsi	-11.7387
▁avtomobillər	-11.739
▁nağıllar	-11.739
▁povest	-11.7392
▁avropalılar	-11.7393
▁verənlər	-11.7397
▁tapşırılı	-11.7397
▁göndərməy	-11.7398
▁İstis	-11.7398
▁Hann	-11.74
▁bağlanı	-11.74
▁Kitabxanası	-11.7402
▁360	-11.7403
▁türbələr	-11.7404
▁süxurların	-11.7406
▁tapşırılmışdı	-11.7406
▁yubileyin	-11.7406
▁tat	-11.741
▁qəzetlər	-11.741
▁nəşrlər	-11.741
▁formalaşdır	-11.7412
▁məhzulları	-11.7413
▁əsli	-11.7415
▁mallar	-11.7416
▁işləməsi	-11.7419
▁burnu	-11.7422
▁tətbiqini	-11.7425
məli	-11.7426
▁kürəsi	-11.7429
▁Əlih	-11.743
▁mat	-11.743
▁heykəllər	-11.7431
▁üslubunu	-11.7432
▁tərəfləri	-11.7433
▁döyüşlərin	-11.7439
▁yaxınlaşır	-11.7441
▁seçil	-11.7449
▁Ala	-11.745
▁detalları	-11.7451
eyi	-11.7451
▁susuz	-11.7456
▁tələblərini	-11.7457
dəniz	-11.7461
▁Elş	-11.7462
▁əməlləri	-11.7463
▁truppası	-11.7463
▁imzalan	-11.7463
▁sektorunda	-11.7463
▁Müsəlmanlar	-11.7465
▁dəyişdirili	-11.747
▁dayandırıl	-11.7471
▁islahatların	-11.7474
▁çəkiliş	-11.7474
▁xarakterini	-11.7474
oniya	-11.7478
▁soyad	-11.7478
▁Yara	-11.7481
▁kompüterin	-11.7482
▁qalxmış	-11.7485
oqrafiya	-11.7487
▁kursların	-11.7488
▁mübadilə	-11.7491
▁avtobus	-11.7493
▁qalmadı	-11.7495
▁məhəl	-11.7496
▁Adanı	-11.75
▁işçilərini	-11.7501
▁Ağac	-11.7502
baş	-11.7502
ürəkkəb	-11.7505
▁Nəzərə	-11.7506
▁kompleksində	-11.7508
▁bölünmə	-11.751
▁şeyxülislam	-11.751
▁Payız	-11.751
▁kəlam	-11.751
▁sərdabə	-11.751
▁öyrədir	-11.751
▁Prav	-11.751
▁iltihab	-11.751
▁Tere	-11.751
▁Arzu	-11.751
təsər	-11.751
▁virtu	-11.751
ensial	-11.751
▁gəmidə	-11.7511
▁Lester	-11.7511
▁fotoqraf	-11.7511
▁ovçuluq	-11.7512
imyəvi	-11.7512
▁hec	-11.7512
▁durumu	-11.7512
▁izləmək	-11.7512
▁debütü	-11.7513
▁dramaturqu	-11.7514
▁sosializm	-11.7515
▁mehriban	-11.7516
[...]
