<unk>	0
<s>	0
</s>	0
▁.	-3.18161
▁,	-3.43217
▁və	-4.09646
;	-4.36802
▁&	-4.37685
quot	-4.42993
▁	-4.72218
-	-4.75701
▁)	-4.90584
▁(	-4.91704
n	-4.9356
ci	-5.22609
▁ildə	-5.31273
▁ilə	-5.3276
i	-5.34034
a	-5.36008
.	-5.37131
▁bir	-5.4118
da	-5.45556
ə	-5.56347
lar	-5.59331
lər	-5.69187
də	-5.74532
in	-5.76589
nın	-5.7864
▁bu	-5.83192
nin	-5.8525
▁olan	-5.91429
▁də	-5.91961
▁Azərbaycan	-5.97285
na	-6.00171
▁üçün	-6.06835
▁Bu	-6.09643
▁isə	-6.12722
dən	-6.12936
dir	-6.14154
▁—	-6.15102
li	-6.16952
▁:	-6.18709
▁sonra	-6.19782
dan	-6.20552
ni	-6.21387
▁kimi	-6.21828
▁da	-6.23471
▁ki	-6.25772
▁-	-6.30116
а	-6.32444
▁il	-6.32725
▁”	-6.34161
ın	-6.35456
▁“	-6.35631
ları	-6.36854
nə	-6.37203
▁çox	-6.38246
cü	-6.39361
r	-6.40175
dır	-6.40988
s	-6.41203
ləri	-6.41833
ı	-6.4381
ya	-6.44559
lə	-6.46079
la	-6.46269
▁edir	-6.46706
▁tərəfindən	-6.49948
nı	-6.50774
m	-6.52929
l	-6.54737
▁görə	-6.56004
k	-6.56537
cı	-6.56744
lı	-6.57112
t	-6.58086
ların	-6.5862
▁–	-6.59644
u	-6.65011
▁O	-6.66305
▁idi	-6.66725
cu	-6.68561
▁o	-6.69194
d	-6.72099
lərin	-6.73075
si	-6.73674
▁olaraq	-6.74447
▁onun	-6.74618
▁ən	-6.7574
▁ya	-6.8256
▁olmuşdur	-6.83823
▁böyük	-6.8633
▁ilk	-6.87384
yə	-6.89276
un	-6.89441
▁baş	-6.89745
▁öz	-6.91488
di	-6.92813
▁qədər	-6.93015
y	-6.94336
q	-6.94739
▁daha	-6.96695
▁2	-6.97218
▁ilin	-6.99464
sı	-7.01198
▁s	-7.02004
z	-7.02696
▁iki	-7.03824
▁istifadə	-7.05136
▁;	-7.09482
▁A	-7.09594
▁edən	-7.10404
▁1	-7.11211
▁edilmişdir	-7.12071
▁arasında	-7.12719
▁illərdə	-7.12889
lik	-7.16741
ә	-7.17009
▁etmişdir	-7.17562
nda	-7.19067
b	-7.19158
▁hər	-7.19802
▁olur	-7.20205
▁S	-7.20535
ki	-7.21248
▁olub	-7.22329
▁oğlu	-7.23182
▁təşkil	-7.23232
▁/	-7.25439
▁adı	-7.26399
▁3	-7.26613
ma	-7.27759
▁üzrə	-7.28406
ov	-7.28406
▁yerləşir	-7.2926
an	-7.30393
dı	-7.30998
▁əsas	-7.31963
▁bütün	-7.32668
o	-7.32689
▁­	-7.33621
▁dəfə	-7.33872
▁Bakı	-7.34218
▁kənd	-7.34411
▁daxil	-7.34583
▁ildən	-7.35046
e	-7.3507
ş	-7.38591
inin	-7.40076
▁digər	-7.40189
larının	-7.40818
▁yeni	-7.41674
е	-7.42172
▁etdi	-7.42691
▁qarşı	-7.42698
▁biri	-7.42789
▁olunur	-7.44927
▁müxtəlif	-7.45038
▁var	-7.46029
lərə	-7.46297
lərinin	-7.46517
h	-7.46563
▁əsasən	-7.46881
▁elmi	-7.47236
▁edilir	-7.47967
▁etmək	-7.48621
▁Dövlət	-7.49901
▁4	-7.50317
ndan	-7.50757
▁M	-7.51785
c	-7.52429
lıq	-7.53607
▁m	-7.54481
▁adlı	-7.54643
▁«	-7.54793
▁»	-7.55034
lara	-7.56577
▁həm	-7.58152
lu	-7.58681
▁haqqında	-7.59103
▁bəy	-7.61237
▁5	-7.61853
sa	-7.62014
ndən	-7.62172
▁şəhərində	-7.63081
▁qəbul	-7.63925
▁C	-7.63978
x	-7.64016
▁başqa	-7.64162
v	-7.6431
▁km	-7.65001
ca	-7.65441
p	-7.65554
▁%	-7.66164
▁həmin	-7.66566
▁I	-7.66971
▁yerləşən	-7.67311
▁E	-7.68166
▁Respublikasının	-7.68229
f	-7.68529
ndə	-7.68596
▁orta	-7.68852
▁olduğu	-7.69048
larda	-7.70199
о	-7.70426
▁nəfər	-7.71983
▁iştirak	-7.72355
▁dövlət	-7.72377
dur	-7.72679
▁zamanı	-7.73031
▁onu	-7.73157
▁su	-7.73304
sə	-7.73521
lardan	-7.7368
▁oldu	-7.74372
▁18	-7.7491
NGC	-7.75391
ini	-7.76011
▁belə	-7.76598
ən	-7.76675
▁Onun	-7.7677
▁onların	-7.77127
cə	-7.77136
lərdən	-7.77492
▁geniş	-7.78129
▁təhsil	-7.78272
▁Yeni	-7.78701
ri	-7.78813
lərdə	-7.79032
lərini	-7.79114
▁B	-7.7934
▁aid	-7.79419
▁zaman	-7.79649
inə	-7.80254
▁Bir	-7.80489
▁10	-7.8057
al	-7.81244
▁etdiyi	-7.81793
19	-7.8235
▁anadan	-7.83099
▁Baş	-7.83224
▁Lakin	-7.83739
▁6	-7.83793
▁davam	-7.84246
▁17	-7.84596
▁şəhər	-7.84758
▁yüksək	-7.84827
▁qeyd	-7.8527
▁ABŞ	-7.85311
larını	-7.85325
▁hərbi	-7.86135
▁xan	-7.86165
▁yer	-7.8643
▁tarixi	-7.86879
nun	-7.87461
▁T	-7.87754
▁fəaliyyət	-7.88753
▁Respublikası	-7.89274
▁vardır	-7.89694
ində	-7.89962
▁milli	-7.90028
▁nəticəsində	-7.90254
▁olunmuşdur	-7.90475
S	-7.90516
▁ona	-7.90708
dakı	-7.91427
▁neçə	-7.91502
▁Böyük	-7.91587
ka	-7.91633
▁müəyyən	-7.92202
▁gün	-7.9232
▁Azərbaycanın	-7.92402
lərindən	-7.92481
ik	-7.93083
▁15	-7.9322
▁d	-7.93911
▁edib	-7.94085
▁yaxşı	-7.94487
apos	-7.9452
▁üzərində	-7.94732
A	-7.94836
man	-7.95204
▁Milli	-7.95213
▁İ	-7.95372
larında	-7.95399
▁U	-7.95646
▁xüsusi	-7.95807
▁nə	-7.95941
▁hesab	-7.96185
larından	-7.96809
▁vasitəsilə	-7.96893
▁olunan	-7.97143
▁Rusiya	-7.97361
▁eyni	-7.97369
▁P	-7.97993
▁az	-7.98026
▁üç	-7.98171
ta	-7.98183
çi	-7.98371
▁Avropa	-7.98449
yan	-7.98532
lərinə	-7.98713
▁inkişaf	-7.98876
lərində	-7.99729
▁kiçik	-8.0052
ar	-8.00793
▁verir	-8.0163
▁qədim	-8.02168
▁heç	-8.02322
▁əsrin	-8.02457
▁8	-8.02619
▁min	-8.0276
▁ibarət	-8.02856
mə	-8.03164
▁F	-8.03304
▁yaxın	-8.03372
▁ikinci	-8.03569
ti	-8.03924
lərlə	-8.04402
▁sm	-8.04545
at	-8.04659
▁rayonunun	-8.04915
▁burada	-8.05009
▁olar	-8.05311
▁7	-8.05782
▁Q	-8.05977
▁gəlir	-8.06416
▁K	-8.06667
▁bilər	-8.06675
▁V	-8.08323
▁16	-8.08653
▁adına	-8.0874
▁olunmuş	-8.08868
larla	-8.09303
▁bağlı	-8.09337
▁edilən	-8.09701
▁son	-8.09803
▁12	-8.09857
▁deyil	-8.10264
▁məşhur	-8.10312
▁həmçinin	-8.10331
▁artıq	-8.10399
▁olmuş	-8.1051
▁yalnız	-8.1052
▁kəşf	-8.1109
ü	-8.11521
▁birlikdə	-8.11575
▁təyin	-8.12106
▁Əli	-8.12218
▁&#93;	-8.1228
▁R	-8.12332
▁&#91;	-8.12357
▁altında	-8.12646
▁20	-8.12711
▁edilmiş	-8.13595
▁yenidən	-8.1506
çı	-8.15101
▁etmiş	-8.15195
▁b	-8.15415
larına	-8.15452
▁insan	-8.1546
▁şəkildə	-8.15833
▁film	-8.15864
▁birinci	-8.16582
▁dünya	-8.1681
▁tipli	-8.16933
M	-8.16944
▁edərək	-8.17228
▁əvvəl	-8.17474
liyi	-8.17487
▁9	-8.17526
araq	-8.17557
▁istiqamətində	-8.17613
lan	-8.1772
▁edirdi	-8.17793
▁ərazisində	-8.1791
▁N	-8.18024
▁müddət	-8.18074
▁Azərbaycanda	-8.18619
▁türk	-8.18667
▁sıra	-8.19461
▁qeydə	-8.19509
▁göstərir	-8.19583
ç	-8.19587
mi	-8.19689
▁de	-8.19878
▁ərazi	-8.20851
▁malik	-8.20981
B	-8.21353
▁II	-8.21495
▁olduğunu	-8.21707
▁D	-8.21766
il	-8.21903
iya	-8.21975
er	-8.22031
g	-8.22058
▁əl	-8.22246
▁şimal	-8.22256
▁səbəb	-8.22553
on	-8.22673
▁H	-8.23018
bi	-8.23191
▁Göy	-8.23219
▁e	-8.23371
▁həyata	-8.2351
vi	-8.24143
▁mərkəzi	-8.24277
▁tarixində	-8.24411
▁əldə	-8.2472
▁14	-8.24899
▁may	-8.25205
▁sayı	-8.25479
▁Məhəmməd	-8.25606
▁inzibati	-8.25801
▁olması	-8.26346
▁vaxt	-8.2638
▁əlavə	-8.26577
ra	-8.26611
▁hissəsi	-8.2672
▁11	-8.26952
▁bəzi	-8.2739
▁cənub	-8.27406
du	-8.27443
▁о	-8.27498
▁musiqi	-8.27556
▁Qara	-8.27638
▁alınmış	-8.27849
▁dövründə	-8.27916
▁Naxçıvan	-8.28307
ir	-8.28746
va	-8.29319
is	-8.29543
us	-8.29847
ğ	-8.29848
▁ərzində	-8.30216
lığı	-8.30348
▁üzvü	-8.30352
sının	-8.30377
▁SSRİ	-8.30783
▁Həmin	-8.30865
▁uzun	-8.31099
▁rus	-8.31356
▁ibarətdir	-8.31386
▁ölçülü	-8.31608
▁çıxış	-8.31725
sında	-8.31911
▁onlar	-8.31929
▁Burada	-8.32118
▁həyat	-8.32484
▁ümumi	-8.3311
İ	-8.33424
▁q	-8.33595
de	-8.33717
K	-8.33794
▁Belə	-8.33995
▁xalq	-8.3413
it	-8.34141
▁Ə	-8.34838
▁əsasında	-8.35107
D	-8.35306
▁illər	-8.3542
▁tam	-8.3553
maq	-8.3562
▁şəhəri	-8.35736
st	-8.35905
▁yeri	-8.36246
▁13	-8.36258
▁gələn	-8.36402
unun	-8.36585
ında	-8.36823
▁Dünya	-8.36905
ğa	-8.37776
le	-8.38172
▁idarə	-8.38324
P	-8.38358
lü	-8.38717
▁Su	-8.3876
▁X	-8.38864
▁əmələ	-8.39277
C	-8.39735
▁üzündə	-8.39848
▁zamanda	-8.4002
te	-8.40062
▁təsir	-8.40107
za	-8.4035
▁nəşr	-8.40479
▁dəniz	-8.40511
▁siyasi	-8.40588
▁dağ	-8.41357
ba	-8.41743
ını	-8.41837
▁başladı	-8.41911
luq	-8.42009
▁təsvir	-8.42114
▁etməyə	-8.4216
su	-8.42516
▁qızı	-8.426
ının	-8.42872
▁Bundan	-8.43044
▁lakin	-8.4322
▁rayonu	-8.43274
um	-8.43566
▁başa	-8.43749
▁keçirilən	-8.43942
▁bürcü	-8.43966
▁xarici	-8.44368
ro	-8.44421
▁dili	-8.44575
miş	-8.44973
▁vəfat	-8.45073
sində	-8.45438
▁kəndində	-8.45518
ır	-8.45559
▁Sultan	-8.4565
ter	-8.45717
▁istehsal	-8.45854
▁yanvar	-8.45892
▁in	-8.46429
▁Kataloq	-8.46441
▁beynəlxalq	-8.4656
▁edirlər	-8.46869
▁müdafiə	-8.46927
▁iş	-8.46937
▁Türkiyə	-8.46944
▁Cənubi	-8.47034
en	-8.47165
▁Osmanlı	-8.47249
lt	-8.47365
yi	-8.4747
▁rayonunda	-8.47836
▁Türk	-8.48059
▁iyun	-8.4822
ına	-8.48283
to	-8.48422
▁verən	-8.48506
▁30	-8.48509
▁baxmayaraq	-8.48589
▁dilində	-8.48611
▁ayında	-8.48724
qa	-8.48992
▁yanaşı	-8.49202
▁edildi	-8.49234
▁?	-8.49377
dəki	-8.49441
▁layiq	-8.49628
▁məşğul	-8.49648
ün	-8.4988
▁təmin	-8.49979
▁İran	-8.50124
▁dövrdə	-8.50255
▁əhatə	-8.50322
▁mart	-8.5044
▁Xalq	-8.50852
▁qadın	-8.50931
▁uyğun	-8.50948
▁k	-8.51299
sinin	-8.5136
▁La	-8.51806
F	-8.51842
▁Universitetinin	-8.5195
mış	-8.5198
▁təmsil	-8.51985
▁Onlar	-8.52095
▁Mirzə	-8.52271
əm	-8.52635
▁a	-8.53065
▁xidmət	-8.53066
zi	-8.53215
▁edilməsi	-8.53302
▁yerli	-8.53311
▁aprel	-8.53424
sına	-8.53672
▁No	-8.54347
▁oktyabr	-8.54456
▁ay	-8.54528
▁Ali	-8.54549
▁erməni	-8.54596
▁başlayır	-8.54812
▁müasir	-8.54946
▁Ən	-8.55345
▁dekabr	-8.55434
or	-8.55648
▁İlk	-8.55884
ərək	-8.56175
▁Qafqaz	-8.56585
▁açıq	-8.56786
▁Sovet	-8.568
N	-8.57033
sinə	-8.57147
zadə	-8.57155
ur	-8.57213
▁Orta	-8.5758
▁əhalisi	-8.57611
▁Mərkəzi	-8.57708
▁Al	-8.58033
▁aşağı	-8.58117
▁almışdır	-8.58244
siz	-8.58249
▁yerinə	-8.58419
rə	-8.58664
▁adını	-8.58741
ğı	-8.58788
▁Hər	-8.59147
▁ali	-8.59231
O	-8.59235
indən	-8.59252
ova	-8.59405
▁olmaqla	-8.59434
▁dini	-8.59498
▁avqust	-8.59536
▁neft	-8.59972
nu	-8.60164
▁Beynəlxalq	-8.60262
▁25	-8.60295
▁hərəkət	-8.60431
▁İslam	-8.60716
▁rast	-8.60782
▁Na	-8.60853
▁yaşayan	-8.61013
▁t	-8.6107
▁milyon	-8.61136
▁əsrdə	-8.61159
▁Ar	-8.61277
H	-8.61309
▁qeyri	-8.61343
▁ev	-8.61374
▁yaşayış	-8.61483
el	-8.6167
▁təqdim	-8.61887
▁hücum	-8.61918
▁Li	-8.61957
▁Qarabağ	-8.6209
▁keçmiş	-8.62228
▁rəsmi	-8.62256
▁doğru	-8.62372
Ə	-8.6249
fi	-8.6265
▁G	-8.6273
re	-8.62862
V	-8.63208
▁qalaktika	-8.63375
▁sentyabr	-8.63685
▁Sa	-8.63699
▁qrup	-8.6373
am	-8.63792
▁döyüş	-8.63857
▁noyabr	-8.63872
▁qara	-8.63973
▁kəndi	-8.63995
▁iyul	-8.64101
▁19	-8.64171
▁çap	-8.64223
sını	-8.64334
ha	-8.646
▁səs	-8.64609
▁əks	-8.64657
T	-8.64808
▁barədə	-8.64819
▁hələ	-8.65064
ko	-8.65105
Q	-8.65285
▁ola	-8.65344
lo	-8.65494
▁ailə	-8.65558
▁elan	-8.6559
ran	-8.66147
▁sahəsində	-8.66375
▁y	-8.66483
▁mövcud	-8.66547
▁inşa	-8.66642
kı	-8.66931
ul	-8.66975
dür	-8.66988
▁keçir	-8.67028
▁malikdir	-8.67318
▁ölkə	-8.67431
▁məlumat	-8.67447
▁rol	-8.67477
▁mühüm	-8.67779
izm	-8.67961
▁ağ	-8.67992
▁növ	-8.68034
▁fevral	-8.68379
▁olunub	-8.68434
▁Re	-8.68484
▁Ancaq	-8.68631
▁geri	-8.68791
▁yolu	-8.68892
anın	-8.68898
kar	-8.6894
▁ictimai	-8.69037
▁Şah	-8.69127
▁p	-8.69171
0	-8.69203
sini	-8.69232
ton	-8.6929
▁Ş	-8.69426
▁özünü	-8.6957
▁dörd	-8.6961
▁daxildir	-8.70036
▁Olimpiya	-8.70262
▁iri	-8.7028
ıb	-8.70321
ması	-8.70475
sk	-8.70477
▁Amerika	-8.70572
▁edə	-8.70918
▁sahəsi	-8.70923
es	-8.70991
▁Hacı	-8.71005
▁elə	-8.71175
mək	-8.71384
▁е	-8.71412
ül	-8.71462
▁Əhməd	-8.71504
▁müşahidə	-8.71608
ist	-8.71726
▁v	-8.71787
▁...	-8.71896
2	-8.71935
▁özü	-8.72132
▁mübarizə	-8.72142
mışdır	-8.72304
▁biridir	-8.72526
▁güclü	-8.72815
▁metr	-8.72864
▁2006-	-8.72963
▁tələb	-8.73027
▁Xəzər	-8.73325
▁uzunluğu	-8.73334
▁halda	-8.73536
▁ş	-8.73687
▁SSR	-8.73768
ib	-8.73833
▁Əliyev	-8.7402
▁_	-8.74159
▁edilib	-8.7424
▁qısa	-8.74267
▁yol	-8.74594
▁fərqli	-8.74818
▁iqtisadi	-8.74834
▁Həsən	-8.74855
▁ad	-8.74871
▁De	-8.75303
az	-8.75373
nd	-8.75467
son	-8.75777
▁vəzifəsində	-8.7588
▁təbii	-8.75919
tə	-8.76136
▁mü	-8.76165
▁ancaq	-8.76456
sin	-8.76537
▁çay	-8.76682
▁Gəncə	-8.76729
do	-8.7685
▁L	-8.77154
sız	-8.77354
yev	-8.77676
os	-8.77707
ər	-8.77963
ça	-8.78097
▁an	-8.78117
▁olmayan	-8.78133
▁gənc	-8.78401
▁!	-8.78515
▁Ba	-8.78519
▁ifadə	-8.787
▁yox	-8.78745
əli	-8.78805
▁yaş	-8.79988
х	-8.80108
aq	-8.80332
▁qala	-8.806
▁ələ	-8.80817
se	-8.8092
▁əhalinin	-8.81026
▁inkişafı	-8.81043
▁26	-8.81048
liyə	-8.81115
▁Y	-8.81227
▁Çin	-8.81254
▁Fransa	-8.8155
▁aşkar	-8.81696
▁21	-8.81717
▁mm	-8.81818
▁Ka	-8.81836
▁Şimali	-8.81953
▁100	-8.81993
▁Bakıda	-8.82008
▁ağır	-8.8204
▁məğlub	-8.82111
məsi	-8.82216
▁meydana	-8.82351
▁bitki	-8.82367
▁yaşayır	-8.82391
min	-8.82596
▁atası	-8.82717
ne	-8.82887
▁qızıl	-8.82943
▁çayı	-8.83003
▁hava	-8.83032
▁Ko	-8.83129
j	-8.83143
▁yerdə	-8.83235
▁Ha	-8.83316
▁hansı	-8.83512
tan	-8.83662
▁quru	-8.83673
ng	-8.83697
im	-8.83752
mağa	-8.83782
▁Se	-8.83843
▁Hüseyn	-8.83892
▁kitab	-8.84093
▁indiki	-8.84125
▁hal	-8.84217
▁Ermənistan	-8.84255
▁şair	-8.84511
ad	-8.84703
▁qərar	-8.84749
▁illik	-8.84878
▁məktəb	-8.85222
▁Ma	-8.8523
▁Buna	-8.85281
▁müəllim	-8.85345
as	-8.85371
▁elmləri	-8.85405
▁Daha	-8.85441
▁Ra	-8.85451
▁növü	-8.85596
xan	-8.85619
▁at	-8.86067
▁ayrı	-8.86131
▁irəli	-8.86263
▁qardaşı	-8.86334
▁yaşında	-8.865
▁24	-8.86567
ovun	-8.86609
▁əsr	-8.86646
▁tez	-8.86744
▁tətbiq	-8.86773
et	-8.86802
ge	-8.87034
▁qaz	-8.87073
▁Mir	-8.87141
▁Moskva	-8.87438
▁yoxdur	-8.8749
▁Kənd	-8.87586
▁XIX	-8.87593
▁birgə	-8.87603
ol	-8.87691
▁saat	-8.87727
▁Di	-8.87828
▁başlamışdır	-8.8807
▁ifa	-8.88213
R	-8.88244
▁al	-8.88542
▁yəni	-8.88689
▁tək	-8.88824
▁2010-	-8.88853
▁III	-8.88867
▁torpaq	-8.88975
▁2016-	-8.89005
▁imkan	-8.89069
ski	-8.89115
▁ölkənin	-8.89179
▁məqsədi	-8.89286
▁təklif	-8.89865
▁Universiteti	-8.89934
▁22	-8.9003
▁düymə	-8.90212
gt	-8.9022
▁on	-8.90379
ler	-8.90672
▁yaxınlığında	-8.90751
▁ingilis	-8.90769
▁İkinci	-8.9083
▁hakimiyyəti	-8.90863
▁h	-8.9091
ye	-8.90928
▁əlaqədar	-8.90972
▁hissəsində	-8.91144
▁of	-8.91193
▁məktəbi	-8.91211
▁23	-8.9122
L	-8.9123
▁i	-8.91295
fa	-8.91792
van	-8.91836
ası	-8.9185
▁onları	-8.91907
▁tərkibində	-8.91999
▁işləri	-8.92044
▁vahidində	-8.92195
▁2009-	-8.92226
▁1992-	-8.92245
▁azad	-8.92292
▁sistemi	-8.92317
▁təxminən	-8.92361
▁daxili	-8.92586
▁x	-8.92937
▁ayının	-8.93038
▁Ay	-8.93145
▁sağ	-8.93395
▁filmi	-8.93406
▁nəzərdə	-8.93454
▁sahib	-8.9353
▁müharibəsi	-8.93587
▁Si	-8.93614
▁yanında	-8.93666
▁gözəl	-8.93696
▁yaxud	-8.93868
dığı	-8.93911
▁etmişdi	-8.9396
qo	-8.9406
yu	-8.94149
▁ədəd	-8.94198
▁2012-	-8.9424
▁daş	-8.94306
▁rayon	-8.94333
▁pul	-8.94356
▁28	-8.94377
▁üzərinə	-8.94396
gi	-8.94442
▁Ağa	-8.94445
mir	-8.94456
▁yaradılmışdır	-8.94571
▁doktoru	-8.94625
E	-8.94922
▁27	-8.9495
bə	-8.94966
▁hətta	-8.95053
▁2015-	-8.95323
qan	-8.95452
▁re	-8.95463
▁olmaq	-8.95551
▁professor	-8.9561
▁dünyanın	-8.95725
▁Əl	-8.95796
▁cümlədən	-8.95816
▁üz	-8.95833
▁qalan	-8.95915
▁sosial	-8.96054
▁mədəniyyət	-8.96133
▁söz	-8.96169
▁futbol	-8.96228
▁Şərq	-8.96282
▁həsr	-8.96345
▁Qızıl	-8.96365
▁ticarət	-8.96369
▁di	-8.96369
iş	-8.96389
▁Yay	-8.96447
▁2011-	-8.96527
▁Roma	-8.96599
▁almaq	-8.96779
ak	-8.96898
hi	-8.97077
▁rəhbərliyi	-8.97079
▁idman	-8.97268
▁Ta	-8.97307
▁uşaq	-8.97423
▁Ağ	-8.97446
▁verdi	-8.9751
▁əhəmiyyətli	-8.9755
▁şəklində	-8.97616
▁alır	-8.97705
ət	-8.97718
▁Rus	-8.97836
▁bəzən	-8.97851
▁2013-	-8.97965
к	-8.9807
▁Ne	-8.98138
▁olsa	-8.98267
▁An	-8.98279
▁2014-	-8.98288
▁siyahısı	-8.98427
▁Le	-8.98755
ver	-8.98819
▁çoxlu	-8.99041
▁ibn	-8.99114
▁yuxarı	-8.9914
diyi	-8.99156
ür	-8.99183
▁50	-8.99313
▁şah	-8.99334
ey	-8.99744
▁olmuşdu	-8.99826
ru	-8.99919
▁ə	-8.99966
▁tə	-9.00017
G	-9.00183
no	-9.00344
unu	-9.00483
▁sözü	-9.00585
▁1990-	-9.00651
▁adası	-9.00705
▁elm	-9.00745
▁alman	-9.00794
▁İnstitutunun	-9.00989
▁bərabər	-9.00991
▁zəngin	-9.01105
▁bədii	-9.01193
▁Bar	-9.01367
▁verilmişdir	-9.01445
▁həbs	-9.0147
▁2008-	-9.01501
pa	-9.01504
▁təhsilini	-9.01523
çu	-9.01591
▁ətrafında	-9.02028
▁dünyaya	-9.02106
▁eləcə	-9.02273
▁işçi	-9.02321
asiya	-9.02622
▁oyun	-9.02652
▁mövcuddur	-9.02699
▁Hazırda	-9.02717
▁asılı	-9.0277
▁təsdiq	-9.02797
▁işğal	-9.02841
▁Kar	-9.03088
▁şəhərinin	-9.03097
▁azərbaycanlı	-9.03113
▁İranın	-9.032
▁Birinci	-9.03232
▁Onların	-9.03269
ot	-9.03281
▁sədri	-9.03343
▁Hal	-9.03356
▁Almaniya	-9.03365
▁olundu	-9.03421
▁Film	-9.03568
dar	-9.03572
▁Ya	-9.03588
oğlu	-9.03605
▁tərk	-9.03689
id	-9.03932
▁təltif	-9.0412
▁şəhərin	-9.04126
▁özünün	-9.04156
▁İbrahim	-9.04175
▁tanınmış	-9.04279
▁Mən	-9.04312
kin	-9.04433
▁buna	-9.04827
▁əvəz	-9.04947
▁ərəb	-9.05128
▁29	-9.05137
▁dərs	-9.05262
▁qol	-9.05354
▁Yer	-9.05383
▁paytaxtı	-9.05405
▁ciddi	-9.05438
▁müdiri	-9.05453
▁təsiri	-9.05489
X	-9.05528
▁İrəvan	-9.05533
▁1-	-9.05552
▁müavini	-9.05554
▁Qərbi	-9.05588
▁saylı	-9.05638
▁Bütün	-9.0565
tu	-9.05772
▁To	-9.05791
▁rəhbərlik	-9.05832
▁ma	-9.0586
▁fəaliyyəti	-9.05887
ll	-9.05908
vari	-9.05939
▁demək	-9.06184
▁kişi	-9.06208
▁The	-9.06449
▁məxsus	-9.06499
▁çayının	-9.06651
bu	-9.06661
▁bilir	-9.06782
▁etibarən	-9.07142
▁cəlb	-9.07159
▁Z	-9.07244
▁bərpa	-9.07246
▁=	-9.0749
mo	-9.07515
▁Da	-9.07554
▁mümkün	-9.07639
ay	-9.07796
ce	-9.07816
ev	-9.08037
şa	-9.08062
▁dil	-9.08243
▁tutan	-9.08248
▁aşağıdakı	-9.08305
▁XX	-9.08323
dilər	-9.08333
mişdir	-9.0847
▁əsəri	-9.08525
▁anası	-9.08604
▁gəldi	-9.0868
ed	-9.08778
▁Kiçik	-9.08805
▁2017-	-9.08934
▁işıq	-9.0908
▁adam	-9.09166
▁alıb	-9.09232
▁Britaniya	-9.09283
dü	-9.09294
yla	-9.09406
▁°	-9.095
▁Bo	-9.09551
▁ana	-9.09603
▁cür	-9.09617
▁yayılmışdır	-9.09635
siya	-9.09699
▁Şimal	-9.09758
dək	-9.09772
▁xüsusilə	-9.09817
▁kömək	-9.09842
▁Ni	-9.09881
və	-9.09925
▁ci	-9.10138
Ş	-9.10157
▁əhali	-9.10382
ış	-9.10457
▁mədəni	-9.10571
▁insanlar	-9.10697
▁teatr	-9.10719
▁Qa	-9.10749
▁2000-	-9.10798
▁məhv	-9.11045
▁məhz	-9.11147
▁qız	-9.11151
▁2005-	-9.11167
▁şəxs	-9.11386
▁2007-	-9.11409
▁Məsələn	-9.11613
▁Lo	-9.11664
unda	-9.11847
▁Gürcüstan	-9.11856
▁fəal	-9.11919
▁göstərən	-9.11935
▁beş	-9.11982
▁günü	-9.12332
▁onlara	-9.12379
▁cavab	-9.1241
▁El	-9.1269
▁qrupu	-9.12773
▁1999-	-9.12787
▁vermişdir	-9.1283
▁dövrü	-9.12858
▁şey	-9.12859
▁Paşa	-9.12925
▁orada	-9.12956
▁sahilində	-9.13041
▁ordusu	-9.13265
▁ö	-9.13366
▁sol	-9.13405
▁Amma	-9.13477
onun	-9.13497
▁işlər	-9.1351
sen	-9.13512
U	-9.13558
▁fransız	-9.13764
▁nümayiş	-9.13952
▁din	-9.13993
▁avtomobil	-9.14094
▁alan	-9.14266
▁dünyada	-9.14322
▁Yaponiya	-9.1441
▁nisbətən	-9.14596
▁xanım	-9.14643
▁Məmməd	-9.14683
▁sənaye	-9.14785
▁Ca	-9.14827
▁bi	-9.14849
▁müstəqil	-9.1488
▁*	-9.14924
▁tarix	-9.15016
▁xanın	-9.15067
▁hadisə	-9.15085
iyyə	-9.1526
▁f	-9.15357
▁Xan	-9.15374
▁tərəfdən	-9.15477
▁Bununla	-9.15636
▁tutur	-9.15685
▁40	-9.15688
▁hüquq	-9.15696
▁işləmişdir	-9.15772
▁dövr	-9.15895
▁sıx	-9.15908
▁gəlmişdir	-9.15997
▁tarixli	-9.16067
me	-9.16187
▁adlanır	-9.16239
▁0	-9.16248
▁qan	-9.1626
▁Şərqi	-9.16265
▁San	-9.16306
▁əlaqə	-9.16564
hazırda	-9.16595
▁naziri	-9.16622
▁gecə	-9.16685
▁çıxan	-9.16809
▁qazandı	-9.16851
▁2-	-9.16904
lığa	-9.16915
▁Tə	-9.17072
▁а	-9.17229
▁Bəzi	-9.17243
▁ondan	-9.17273
▁Elmi	-9.17301
▁2002-	-9.17303
▁So	-9.1736
▁müqavilə	-9.17399
▁gəlib	-9.17412
▁Qədim	-9.17461
ber	-9.17515
lük	-9.17518
▁Son	-9.17566
şi	-9.17766
▁yazır	-9.17778
▁müharibə	-9.18014
▁Asiya	-9.18067
▁olunması	-9.18121
ağa	-9.18144
▁ada	-9.18193
▁bitirmişdir	-9.18214
▁üçüncü	-9.18308
rı	-9.1837
▁İki	-9.18396
▁tədris	-9.18534
▁Mi	-9.18584
tı	-9.18664
▁rejissor	-9.1867
▁aiddir	-9.18931
▁məlum	-9.1901
▁br	-9.19125
▁ka	-9.19155
▁tamamilə	-9.19259
▁formula	-9.19405
▁etməsi	-9.1942
▁şərq	-9.19445
▁üstünlük	-9.19485
▁dəmir	-9.19505
▁hiss	-9.19566
▁Beləliklə	-9.1969
ologiya	-9.19694
▁Abbas	-9.19837
▁Allah	-9.19867
▁həyatı	-9.1988
▁kino	-9.1995
▁məruz	-9.2004
san	-9.20162
gen	-9.20189
▁iddia	-9.20245
▁meşə	-9.20259
▁Con	-9.20366
▁cəhətdən	-9.2037
▁bəhs	-9.20432
abad	-9.20547
▁müsəlman	-9.20714
▁Pa	-9.20851
ok	-9.20883
ss	-9.21089
▁tərcümə	-9.21195
▁dəfn	-9.21198
▁ha	-9.21226
▁istehsalı	-9.21257
▁yazıçı	-9.21276
▁kilsə	-9.21315
▁nəzərə	-9.21321
tar	-9.21331
▁pro	-9.2136
▁1993-	-9.2139
▁düşür	-9.21463
▁boyu	-9.21492
tez	-9.21588
▁ağa	-9.21734
▁illərində	-9.2186
var	-9.21862
ö	-9.21897
Y	-9.2197
▁Müqəddəs	-9.21971
▁İn	-9.21985
▁müəllifi	-9.22047
mışdı	-9.22067
den	-9.2208
I	-9.22205
▁Məmmədov	-9.2246
▁arasındakı	-9.22484
▁Me	-9.22529
▁əsərləri	-9.22562
▁yerə	-9.22649
ley	-9.22707
bir	-9.22775
▁Yu	-9.22878
xa	-9.22988
▁2004-	-9.23055
▁lazımdır	-9.23178
▁görkəmli	-9.232
▁aktyor	-9.23202
tin	-9.23267
▁qalib	-9.23318
▁sonunda	-9.23407
▁keçən	-9.23439
ant	-9.23506
▁Həmçinin	-9.23633
şə	-9.2365
▁uğrunda	-9.23656
ve	-9.23672
▁Heydər	-9.23709
oloji	-9.2371
əsi	-9.23777
ch	-9.2381
yar	-9.23815
▁şəxsi	-9.23934
▁hakim	-9.23993
▁Əgər	-9.24006
▁gedən	-9.24179
▁Co	-9.24237
▁18.7	-9.24269
▁1991-	-9.24385
▁47.5	-9.24386
▁mükafatı	-9.24403
▁yoldaşı	-9.24419
ıq	-9.24462
əddin	-9.24517
▁mərkəzində	-9.24549
▁dərin	-9.24598
3	-9.246
▁deyilir	-9.24605
▁yaşlı	-9.24618
ut	-9.24698
ab	-9.24722
çə	-9.24722
▁isti	-9.24739
▁Universitetində	-9.2475
▁+	-9.24804
▁Digər	-9.24811
▁metal	-9.24818
der	-9.24824
oz	-9.24964
▁r	-9.25023
▁aldı	-9.25117
▁məqsədilə	-9.25156
rd	-9.25157
▁qar	-9.2524
▁komanda	-9.2524
▁Kür	-9.25254
18	-9.25281
▁qərb	-9.25315
▁Te	-9.25342
▁özünə	-9.25367
00	-9.25389
▁təsərrüfatı	-9.25437
qu	-9.25447
▁rəhbəri	-9.25493
▁Bi	-9.25566
▁Bə	-9.25593
▁görülmüşdür	-9.25637
▁silah	-9.25673
▁xeyli	-9.25756
▁maliyyə	-9.25773
▁1918-	-9.25795
▁rəng	-9.25807
▁prezidenti	-9.25811
▁Və	-9.25816
▁Oyunlarında	-9.25908
iz	-9.25962
▁qarşısında	-9.2597
▁31	-9.26042
▁əvvəllərində	-9.26114
▁Mü	-9.26225
▁vermiş	-9.26309
▁mahnı	-9.26451
▁İtaliya	-9.26458
▁Nə	-9.26533
▁IV	-9.26575
▁mə	-9.26623
▁Muxtar	-9.26716
▁İsa	-9.26722
▁sadə	-9.26792
▁içərisində	-9.26798
əl	-9.27093
▁çalışmışdır	-9.27381
▁Hərbi	-9.2742
▁zəif	-9.2742
▁aydın	-9.27489
ke	-9.27608
▁top	-9.27658
öv	-9.2775
▁Or	-9.27769
▁içində	-9.27834
▁ordu	-9.2784
▁həll	-9.27877
▁sovet	-9.27934
▁ədəbi	-9.28062
▁sayda	-9.28147
▁na	-9.28165
uş	-9.28176
kan	-9.28192
▁hallarda	-9.28258
▁Yusif	-9.28269
▁etdilər	-9.2836
▁ç	-9.28378
▁Şəhər	-9.28422
ub	-9.28439
▁tanış	-9.28441
▁verilir	-9.2845
alı	-9.28477
▁Elmlər	-9.28502
▁göz	-9.28508
▁dair	-9.28528
▁yaradılması	-9.28543
▁fikir	-9.28551
▁əvvəlki	-9.28759
qar	-9.28804
çay	-9.28874
▁güc	-9.28875
men	-9.28943
▁ərazisi	-9.29001
▁vardı	-9.29016
▁Ak	-9.29193
▁Eyni	-9.29204
ks	-9.29346
▁fəlsəfə	-9.29357
▁Şirvan	-9.29377
▁edirdilər	-9.29416
lılar	-9.29527
▁xəbər	-9.29559
ron	-9.29576
ban	-9.29647
▁izah	-9.29757
▁А	-9.2976
▁çalışır	-9.29797
▁İsmayıl	-9.29887
▁öncə	-9.2992
▁bələdiyyəsi	-9.30209
▁qırmızı	-9.30284
ek	-9.30313
▁diqqət	-9.30427
▁adətən	-9.3052
▁informasiya	-9.30629
▁alim	-9.30653
▁nəticə	-9.30684
▁Za	-9.30715
lidir	-9.30718
▁Qırmızı	-9.30735
▁nümayəndələri	-9.30851
▁Az	-9.30866
▁Mo	-9.30879
▁ölkədə	-9.30934
▁verdiyi	-9.3094
mer	-9.30954
▁sonrakı	-9.31016
▁Şa	-9.31062
▁Ku	-9.31083
▁bax	-9.31269
▁adlanan	-9.31278
▁Fa	-9.31491
▁yaradır	-9.3158
▁Ye	-9.31701
▁Lu	-9.31709
▁ağac	-9.31763
▁Ərəb	-9.31933
maz	-9.31939
▁yazdığı	-9.3201
▁Rusiyanın	-9.32018
▁Man	-9.32083
ts	-9.32188
▁qalır	-9.32194
▁Akademiyasının	-9.32302
▁çıxır	-9.32545
▁başlayaraq	-9.32653
▁mürəkkəb	-9.32821
▁ərazidə	-9.32845
▁indi	-9.32863
em	-9.32902
▁bina	-9.32955
▁ve	-9.33087
▁Birləşmiş	-9.33123
▁Cənub	-9.33187
▁Əsas	-9.33195
▁işi	-9.33207
▁əmək	-9.33256
▁sənət	-9.33281
luğu	-9.33289
▁insanların	-9.33337
▁Misir	-9.33355
▁Aleksandr	-9.33384
▁Ri	-9.33404
▁as	-9.33467
▁mahnısı	-9.33495
▁yan	-9.33586
kənd	-9.33628
▁Şəki	-9.33752
▁sahibi	-9.33778
▁miqdarı	-9.33826
▁Kor	-9.33985
▁müraciət	-9.34024
▁Quba	-9.34025
▁Lənkəran	-9.34123
▁Tu	-9.34148
▁Mu	-9.3415
▁gəlmiş	-9.3436
▁gəlinir	-9.34449
▁nəfəri	-9.3459
▁dəqiq	-9.34602
1	-9.34623
▁3-	-9.34651
laşma	-9.34754
▁Şeyx	-9.34765
▁Mə	-9.34965
▁Əmir	-9.34968
▁lazım	-9.3507
▁İspaniya	-9.35158
qdan	-9.35236
▁təsis	-9.3526
▁real	-9.35261
▁nəzarət	-9.35297
▁Ç	-9.35362
▁necə	-9.35409
ster	-9.35447
məyə	-9.3545
pe	-9.35476
çilik	-9.35621
▁mərkəz	-9.35631
▁qələbə	-9.35634
▁kitabı	-9.35638
iyə	-9.35676
una	-9.35714
acaq	-9.35827
▁polis	-9.35838
▁yarım	-9.35846
▁Ər	-9.35864
▁2003-	-9.35963
▁ölümündən	-9.35967
mar	-9.3614
▁fiziki	-9.36223
▁ulduz	-9.36244
▁xal	-9.36246
▁ərazisinə	-9.36253
▁verilən	-9.36364
tik	-9.36394
▁Nyu	-9.36601
tor	-9.36775
▁gedir	-9.36788
▁əsər	-9.36856
▁Süleyman	-9.3699
ylə	-9.37104
▁etdirir	-9.37135
▁bundan	-9.37209
▁Sonra	-9.37249
▁ön	-9.37366
▁işə	-9.37389
2-	-9.37463
▁elmlər	-9.37487
lanma	-9.37501
dılar	-9.37558
▁yeganə	-9.37575
▁As	-9.37598
ner	-9.37671
▁deməkdir	-9.37842
▁qərarı	-9.37965
▁adaları	-9.3801
▁Kon	-9.38064
bar	-9.3813
▁Ü	-9.3814
▁dənizi	-9.38148
▁amma	-9.38174
▁Ki	-9.38286
▁qat	-9.38292
▁icra	-9.38311
ından	-9.38373
▁Mustafa	-9.38375
20	-9.38401
▁heyvan	-9.38412
▁Ev	-9.3842
▁Po	-9.38445
▁Şuşa	-9.38568
▁boyunca	-9.38704
▁müəllifidir	-9.38704
▁illərin	-9.38764
▁Va	-9.38769
▁artır	-9.38783
▁olunurdu	-9.38819
▁forma	-9.38833
▁əksəriyyəti	-9.3885
can	-9.38879
sən	-9.38906
▁yük	-9.38955
▁Ro	-9.38955
yer	-9.39046
▁g	-9.39169
▁Ana	-9.39307
▁fəxri	-9.39346
▁mal	-9.39481
▁Neft	-9.39514
▁bitirib	-9.39516
▁ətraf	-9.39519
▁ata	-9.39548
▁mən	-9.39645
▁qida	-9.39686
▁tutdu	-9.39719
▁partiya	-9.39743
▁etmə	-9.39893
▁cinsi	-9.39956
▁bağ	-9.40008
▁Be	-9.4018
dağ	-9.40183
▁Ho	-9.40244
▁təkrar	-9.40261
▁say	-9.40295
▁məcbur	-9.40295
▁direktoru	-9.40334
▁sonralar	-9.4037
han	-9.40389
▁əsrlərdə	-9.40403
▁Bunun	-9.40468
▁yaradılmış	-9.40585
▁ta	-9.40657
▁eni	-9.40679
▁arxa	-9.40694
▁kəndin	-9.40721
▁yara	-9.40766
▁roman	-9.40775
din	-9.4079
▁Pi	-9.40812
▁rəngli	-9.40884
op	-9.40931
▁başçısı	-9.4098
hə	-9.41219
▁medal	-9.41279
uz	-9.41335
▁göstərmişdir	-9.41501
cək	-9.41909
▁rolu	-9.41915
▁daxilində	-9.4194
▁gətirir	-9.41951
▁üzvləri	-9.4198
▁nail	-9.42113
▁dərc	-9.42158
▁hissəsini	-9.42309
bo	-9.42347
ndakı	-9.42369
▁Dəniz	-9.42383
▁proqram	-9.42441
amp	-9.42495
▁çətin	-9.42569
ing	-9.42588
▁and	-9.42627
▁sa	-9.4279
▁kon	-9.42906
▁1920-	-9.42951
▁yardım	-9.43022
ator	-9.43096
▁mövzusunda	-9.432
sta	-9.43224
▁üzv	-9.43272
▁qəzet	-9.43362
▁çar	-9.43383
▁olduqca	-9.43419
▁hazırda	-9.43438
ləşmə	-9.4351
▁elektrik	-9.43526
ent	-9.43581
▁memarlıq	-9.43616
▁maraq	-9.43632
▁müvafiq	-9.43675
lov	-9.43724
yin	-9.43768
▁incəsənət	-9.43787
bəyli	-9.43791
▁sərhəd	-9.43791
▁sonradan	-9.43799
▁çatır	-9.43848
▁ailəsində	-9.44022
▁yunan	-9.44083
lin	-9.44152
rin	-9.4423
ud	-9.44268
tal	-9.44339
▁general	-9.44347
▁vahid	-9.44352
▁May	-9.44367
▁nadir	-9.44372
▁2001-	-9.44442
▁Seyid	-9.44463
stan	-9.44495
▁cəmi	-9.44505
rkən	-9.44567
▁dəvət	-9.44575
▁Qo	-9.44623
mır	-9.44719
▁ölüm	-9.44762
▁hündürlüyü	-9.44864
▁Çünki	-9.44886
liyini	-9.44898
ser	-9.44902
▁düz	-9.44907
▁Respublika	-9.44926
▁Prezidenti	-9.44969
▁insanın	-9.45022
tur	-9.4515
▁ye	-9.45209
▁tədqiqat	-9.45234
ıl	-9.45331
▁Mahmud	-9.45343
▁keçirilir	-9.4542
oviç	-9.4543
▁mərhələsində	-9.45469
▁AMEA	-9.45499
▁ermənilər	-9.45506
▁əhalisinin	-9.4554
▁siyahıya	-9.4563
qi	-9.45746
▁hissə	-9.45815
▁rəssam	-9.45841
▁hazırlanmış	-9.45843
▁Qu	-9.45907
▁60	-9.46018
▁en	-9.46342
▁uzaq	-9.46396
у	-9.46463
▁Ölkə	-9.46518
▁Əbu	-9.46533
▁gizli	-9.46539
▁təlim	-9.46573
▁tut	-9.46658
lənir	-9.46663
▁bal	-9.46691
▁İngiltərə	-9.46697
▁Do	-9.46699
▁deyir	-9.46718
▁rəisi	-9.46756
ku	-9.46787
▁saray	-9.46804
▁Çox	-9.46835
▁dövləti	-9.46888
▁təsadüf	-9.46897
▁Ab	-9.46909
▁Ukrayna	-9.47009
od	-9.47082
▁pis	-9.47194
50	-9.47205
▁televiziya	-9.47248
1-	-9.4726
▁yazı	-9.47287
▁övladı	-9.47331
lama	-9.47379
▁qəzeti	-9.47394
▁İnstitutunda	-9.47449
▁En	-9.47473
▁dəstəsi	-9.47493
▁çünki	-9.47623
zə	-9.47668
▁hesabı	-9.47776
▁1994-	-9.47794
▁He	-9.47808
▁Avstriya	-9.47821
▁təyyarə	-9.47842
nik	-9.4786
be	-9.47865
ic	-9.47874
rik	-9.47883
▁respublika	-9.47898
▁sülh	-9.47984
▁sübut	-9.47988
▁Mədəniyyət	-9.48021
sindən	-9.48058
▁bunu	-9.48089
▁Ona	-9.48138
▁Vi	-9.48143
▁bunun	-9.48152
▁təşkilat	-9.48249
fə	-9.4825
▁fars	-9.48306
▁the	-9.48411
▁alt	-9.48458
▁məktəbində	-9.48508
ft	-9.48512
▁kifayət	-9.48552
lığın	-9.48579
▁dağı	-9.48762
▁Polşa	-9.48798
▁əsasını	-9.4881
▁əsir	-9.48993
▁üsyan	-9.49074
▁ədəbiyyat	-9.49098
▁sinif	-9.49101
▁xətti	-9.49129
▁almış	-9.49153
▁bölgə	-9.4917
▁sistem	-9.49193
▁1980-	-9.49229
▁məscid	-9.49248
▁tərkibinə	-9.49256
ga	-9.49401
▁se	-9.49481
▁üzü	-9.4954
▁Vətən	-9.4954
-1	-9.49688
th	-9.49713
per	-9.49787
▁ləğv	-9.49827
▁parça	-9.49836
▁Qə	-9.49885
3-	-9.49936
bəyov	-9.49941
ger	-9.50325
lənmiş	-9.50359
▁Qazax	-9.50369
kən	-9.50399
▁c	-9.50415
▁tələbə	-9.50496
▁ədəbiyyatı	-9.50598
▁kənddə	-9.50733
▁la	-9.50799
mur	-9.50866
с	-9.50878
▁əsl	-9.50893
▁kəs	-9.50916
▁həkim	-9.5096
▁nəfərdir	-9.51028
pi	-9.51071
▁gəmi	-9.51111
▁vaxtı	-9.51135
▁xristian	-9.51194
▁başlayan	-9.51199
▁Aşağı	-9.5129
▁1998-	-9.51314
▁vəzifəsinə	-9.51451
▁özündə	-9.51459
▁klubu	-9.51528
▁tabe	-9.51611
co	-9.51668
ment	-9.51675
▁tərtib	-9.51743
liyin	-9.51744
▁Per	-9.51755
Bu	-9.51762
▁xüsusiyyətləri	-9.5191
▁Gül	-9.5191
▁şərait	-9.51929
▁altı	-9.51958
liyinə	-9.52022
▁Günəş	-9.52073
▁sayılır	-9.5209
gə	-9.52124
▁dövlətinin	-9.52132
▁başlayıb	-9.52189
▁Ağdam	-9.52295
▁bağlıdır	-9.52324
▁temperatur	-9.52334
▁şərəfinə	-9.52365
я	-9.52431
▁üst	-9.52434
▁hökumət	-9.52456
▁Öz	-9.52471
▁kəskin	-9.52475
▁kimya	-9.52492
rat	-9.52503
▁Təhsil	-9.52547
▁ilkin	-9.52558
▁’	-9.526
▁Yan	-9.52601
▁qadınlar	-9.52609
namə	-9.52612
▁filmlərinin	-9.52617
▁ailəsi	-9.52628
lanır	-9.52755
ium	-9.52887
▁katibi	-9.52933
▁Molla	-9.53075
▁göstərmək	-9.53125
ılması	-9.53162
▁ət	-9.53183
▁mümkündür	-9.53254
▁şirkəti	-9.53264
▁xadimi	-9.53264
▁hakimi	-9.53311
▁Uzun	-9.53381
▁Tur	-9.53394
ker	-9.53396
▁sayəsində	-9.5344
▁daşıyır	-9.53536
yo	-9.53545
ff	-9.53566
▁təcrübə	-9.53603
▁Şamaxı	-9.53653
mon	-9.53654
▁Komitəsinin	-9.53717
▁Ve	-9.53738
▁həmişə	-9.53751
▁Hə	-9.53766
▁tibb	-9.53773
▁göy	-9.53789
▁yüz	-9.53919
▁İncəsənət	-9.53999
▁köhnə	-9.54068
iyyət	-9.54087
▁yazılmış	-9.54088
▁albom	-9.54136
▁Mar	-9.54239
▁dərəcə	-9.5427
▁hazır	-9.54375
xi	-9.54396
▁nümayəndəsi	-9.544
▁yenə	-9.54516
▁xilas	-9.54598
▁1988-	-9.54604
▁Şi	-9.54747
▁adları	-9.54792
sından	-9.54821
▁olmasına	-9.54846
▁qatıldı	-9.54855
xana	-9.54875
qə	-9.5493
▁edilirdi	-9.55041
adlandırılmışdır	-9.55115
▁texniki	-9.55214
çılar	-9.55259
▁Mahnı	-9.55338
▁Mak	-9.5535
▁Ada	-9.55416
çılıq	-9.55435
▁medalı	-9.5545
▁mineral	-9.55503
▁yay	-9.55688
▁canlı	-9.55717
▁səbəbi	-9.55806
▁iqlim	-9.55812
▁sahil	-9.55895
▁yumurta	-9.55903
б	-9.55927
iki	-9.56041
▁ehtimal	-9.56042
vin	-9.5612
и	-9.56123
▁me	-9.56182
▁deyə	-9.56263
▁baxımından	-9.56278
▁vacib	-9.56339
▁Avroviziya	-9.5635
▁Nazirliyinin	-9.56656
▁Ti	-9.56809
lənən	-9.56876
▁1996-	-9.56876
▁peşəkar	-9.56901
▁edilmişdi	-9.5695
▁1997-	-9.56985
ım	-9.57098
▁qüvvələri	-9.57136
▁sərbəst	-9.57182
▁nömrəli	-9.57248
▁bazar	-9.57303
▁Qar	-9.57355
▁Har	-9.57372
80	-9.57424
0-	-9.57448
▁əməliyyat	-9.57494
▁layihə	-9.57532
▁ar	-9.57551
▁At	-9.57561
▁yaşı	-9.57565
▁1995-	-9.57593
▁dəyişir	-9.57689
5	-9.57715
▁Teymur	-9.57728
▁si	-9.57779
▁enerji	-9.57822
▁növləri	-9.57838
kov	-9.57838
▁köməyi	-9.57867
▁ara	-9.57884
▁Nizami	-9.58005
▁Pir	-9.58052
▁Mor	-9.58136
▁1970-	-9.58239
▁ordeni	-9.58295
▁növbəti	-9.58325
▁qatı	-9.58336
▁taxta	-9.58364
▁hökuməti	-9.58455
▁aktiv	-9.58553
▁tikinti	-9.58554
▁prezident	-9.5872
▁şəhid	-9.58731
▁aparıcı	-9.58768
▁işlə	-9.58854
▁Er	-9.58978
▁həlak	-9.59018
▁möhkəm	-9.59088
▁fəaliyyətinə	-9.59212
▁gümüş	-9.59268
▁təbiət	-9.59283
▁yağ	-9.59635
▁təmiz	-9.59756
▁Araz	-9.59965
▁nəsil	-9.59976
▁vilayəti	-9.59978
▁Sin	-9.59997
ör	-9.60003
laq	-9.60042
▁müəllimi	-9.60064
▁bildirir	-9.60077
▁ixtisas	-9.60157
▁keçdi	-9.60224
▁Sə	-9.60231
bil	-9.60237
▁с	-9.60288
▁fəaliyyətini	-9.60398
▁sonuncu	-9.60472
▁35	-9.60482
▁yaşadığı	-9.60507
▁azərbaycanlılar	-9.60512
▁ba	-9.60526
▁səbəbdən	-9.60555
▁Tarix	-9.60596
▁Müasir	-9.60658
so	-9.60672
▁elektron	-9.6069
▁Afrika	-9.60691
4	-9.607
▁tərəf	-9.60733
uk	-9.60749
▁abidə	-9.60782
▁2006	-9.60787
mət	-9.60866
miz	-9.60877
len	-9.60904
▁binası	-9.61002
▁20-	-9.6105
▁Ver	-9.61086
▁aparılan	-9.61096
uq	-9.61104
ata	-9.61121
inq	-9.61151
ы	-9.61176
ia	-9.61195
ləmə	-9.61227
▁quruluşu	-9.61265
▁4-	-9.61287
▁etmişlər	-9.61352
mal	-9.61367
▁kompüter	-9.61372
11	-9.61406
▁Nadir	-9.61462
▁universitet	-9.61469
ayrı	-9.61606
▁çəkilmiş	-9.61673
▁məntəqəsi	-9.61745
▁Qala	-9.61769
▁məktəbdə	-9.61809
▁qaldı	-9.61896
▁onunla	-9.61908
▁oyunda	-9.61971
▁sahə	-9.61976
▁hüququ	-9.6198
▁məhkəmə	-9.62013
▁sahədə	-9.62032
fer	-9.62033
▁Sal	-9.62081
ji	-9.6209
kt	-9.62111
▁biz	-9.62208
▁İl	-9.62229
▁Rayon	-9.62304
▁bayrağı	-9.62404
▁məsələn	-9.62493
▁kitabxana	-9.62493
raq	-9.62496
ze	-9.62533
▁J	-9.6259
ılır	-9.62667
▁meyvə	-9.62707
▁çıxdı	-9.62813
▁sarı	-9.62898
▁aldığı	-9.62988
ada	-9.62994
lanmış	-9.63021
▁müqəddəs	-9.63096
▁çoxu	-9.63112
▁sə	-9.63143
sın	-9.63236
qərb	-9.63257
▁kol	-9.63311
▁dəstə	-9.63313
▁1960-	-9.6342
▁Pe	-9.63428
ten	-9.63469
▁bəstəkar	-9.63571
▁üzvüdür	-9.63665
▁qonşu	-9.63715
▁plan	-9.63759
▁Am	-9.63811
ard	-9.63822
▁klassik	-9.63909
▁qarşılıqlı	-9.6391
mı	-9.63918
▁əsərində	-9.63927
▁olduğundan	-9.63928
▁yaşıl	-9.63982
▁müddətdə	-9.63984
▁albomu	-9.63986
▁Qərb	-9.64017
▁Fe	-9.64018
▁dərəcəsi	-9.64092
▁Şurasının	-9.64217
▁dövrün	-9.64223
▁ixtisası	-9.64291
ana	-9.643
arkən	-9.64353
▁imtina	-9.64376
▁Aşıq	-9.64436
▁Üç	-9.64446
kə	-9.6446
▁filmin	-9.64467
▁İstanbul	-9.64494
▁rolunu	-9.64538
▁vasitəsi	-9.64552
▁Kral	-9.64598
▁qa	-9.64647
▁ayrılır	-9.64658
▁seçilmişdir	-9.64663
lanması	-9.64668
aya	-9.64724
▁dərəcədə	-9.64773
▁mənşəli	-9.6481
yon	-9.64818
▁həftə	-9.64832
▁səhnə	-9.64882
ləyir	-9.64949
▁düşmən	-9.64966
ax	-9.65019
▁Nazirliyi	-9.65033
▁adi	-9.6504
rək	-9.65106
.19	-9.65167
ika	-9.65176
▁klub	-9.65205
▁ortaya	-9.65271
lıdır	-9.65405
▁70	-9.65407
.1	-9.65446
▁hökmdarı	-9.65455
▁birində	-9.65465
iç	-9.65571
▁mənsub	-9.6559
▁etməklə	-9.65647
▁radio	-9.65739
▁qalmış	-9.65851
ək	-9.65881
tir	-9.65905
əyi	-9.65905
▁İnstitutu	-9.66005
▁maraqlı	-9.66033
▁kütləvi	-9.6605
▁Birliyinin	-9.66151
▁к	-9.66155
▁hündür	-9.66162
ah	-9.66169
land	-9.66217
▁qayda	-9.66221
▁təhsili	-9.66287
▁200	-9.66352
▁dəstək	-9.66389
▁maddi	-9.66436
▁Dağ	-9.66446
▁muzey	-9.66452
▁Hindistan	-9.66482
▁okean	-9.66498
▁əsası	-9.66521
▁Cəfər	-9.66527
▁bələdiyyə	-9.66706
▁is	-9.66723
▁idilər	-9.66866
▁sal	-9.66917
▁İsrail	-9.67011
▁iştirakı	-9.67021
lanan	-9.67044
▁qalıqları	-9.67077
▁Karl	-9.67089
mişdi	-9.67282
▁bilən	-9.67284
▁Türkiyənin	-9.67285
▁pay	-9.67323
▁Qafqazın	-9.67337
gin	-9.6743
▁etməyi	-9.6744
30	-9.67445
▁Fi	-9.67461
▁ilədək	-9.67479
kdən	-9.67513
▁Avstraliya	-9.67582
▁Paris	-9.67594
▁daşı	-9.67605
▁suyun	-9.67712
▁tədqiqatlar	-9.67728
`	-9.6774
▁təpə	-9.67768
▁kimyəvi	-9.67778
oy	-9.678
▁bəyin	-9.67838
▁can	-9.67876
▁32	-9.67887
isi	-9.67895
▁icazə	-9.67896
▁ölkələrdə	-9.67917
▁Ber	-9.67964
▁nəticəsi	-9.67987
çe	-9.67993
▁parlaq	-9.68041
▁şəhərinə	-9.6807
▁dağlıq	-9.68083
▁Pro	-9.68098
▁hakimiyyət	-9.68123
▁onlardan	-9.68144
ho	-9.68155
▁el	-9.68168
▁kəndinin	-9.68306
▁Təbriz	-9.68329
▁Hi	-9.68363
▁ruh	-9.68393
▁XVIII	-9.68409
kon	-9.68414
ja	-9.68473
▁1989-	-9.68494
▁Avropada	-9.6855
▁Çay	-9.68726
laşdırılması	-9.68775
70	-9.68818
▁Hava	-9.68822
▁çiçək	-9.68824
▁ton	-9.68836
▁dərəcəli	-9.68919
▁əvvəlcə	-9.69106
▁hadisələr	-9.69121
▁hə	-9.69151
▁kral	-9.69234
▁Sər	-9.69267
if	-9.69338
▁bölünür	-9.6937
▁təsərrüfat	-9.69488
▁qoşunları	-9.69676
▁dillərində	-9.69716
▁fəaliyyətə	-9.69835
▁final	-9.69898
sion	-9.69968
layır	-9.70027
▁boya	-9.7003
▁1919-	-9.70049
▁vəziyyət	-9.70053
▁dövlətin	-9.70087
rət	-9.70104
▁yayılmış	-9.70296
▁ərazilərdə	-9.70311
▁namizədi	-9.70478
▁ordusunun	-9.70514
▁komandası	-9.7065
▁keçirir	-9.7065
▁məlumatlar	-9.70712
▁Kanada	-9.7077
Z	-9.70826
▁maddə	-9.70879
▁tədqiq	-9.70932
▁kq	-9.70939
▁alınmışdır	-9.70948
▁imza	-9.71045
▁qolu	-9.71072
▁Daş	-9.71076
▁İttifaqı	-9.71206
▁göl	-9.71234
▁te	-9.71272
▁şəxslər	-9.7133
▁Alman	-9.71355
▁İş	-9.71362
val	-9.71492
▁akademik	-9.71498
mu	-9.71519
▁aradan	-9.71545
▁vermək	-9.71605
ren	-9.71613
▁işləyib	-9.71679
▁əsgər	-9.71702
▁Ey	-9.71707
▁hazırlanması	-9.71934
▁Hüseynov	-9.71939
▁qalmışdır	-9.71996
▁səyahət	-9.72044
ari	-9.72084
▁tətbiqi	-9.72124
▁günəş	-9.72176
▁bilmədi	-9.72182
▁Suriya	-9.72191
▁5-	-9.72255
▁qab	-9.72291
▁vəziyyətdə	-9.7235
▁qiymətli	-9.72361
▁qiymət	-9.72512
▁üstündə	-9.72552
▁şöbə	-9.72554
ris	-9.72591
▁Musa	-9.72629
▁С	-9.72635
ləşdirilməsi	-9.72689
10	-9.72909
iq	-9.72925
▁çəkilmişdir	-9.72968
▁Bur	-9.73012
▁ostanının	-9.73044
▁nin	-9.73059
▁London	-9.73096
▁•	-9.73104
sun	-9.73182
▁müalicə	-9.732
▁İngilis	-9.7336
▁alınmasına	-9.73366
▁çöl	-9.73472
▁ənənəvi	-9.73497
▁Tibb	-9.73554
▁prosesi	-9.73575
▁ardıcıl	-9.73623
▁əmr	-9.73641
▁çevrilir	-9.73657
tra	-9.73723
ağı	-9.73737
edici	-9.73793
▁şeir	-9.73834
▁bitirdikdən	-9.73878
▁mədəniyyəti	-9.73916
▁х	-9.73999
▁qanun	-9.74034
▁yaranmışdır	-9.74086
▁gürcü	-9.74089
bat	-9.74126
▁fizika	-9.74181
▁mühəndis	-9.74199
▁ürək	-9.74222
▁yerində	-9.74263
▁alınması	-9.7429
est	-9.74303
lis	-9.7431
▁siyasət	-9.7437
▁əsərlər	-9.74457
▁45	-9.74482
▁In	-9.74666
▁Kəndin	-9.74726
malı	-9.74756
▁cəmiyyət	-9.74854
anı	-9.74863
▁sahələri	-9.749
▁atəş	-9.74905
▁etnik	-9.74943
▁Abşeron	-9.74978
ian	-9.74982
▁Xa	-9.75084
▁mis	-9.75111
▁yeddi	-9.75259
▁Yuxarı	-9.75278
▁giriş	-9.75292
▁yerlərdə	-9.75308
▁olacaq	-9.75331
▁İnsan	-9.75376
muş	-9.75385
▁Elə	-9.75409
▁çəki	-9.75464
▁aylarında	-9.75495
▁Qız	-9.75594
▁problemləri	-9.75652
▁görüş	-9.75661
▁Sumqayıt	-9.75694
▁model	-9.75832
▁ca	-9.75892
▁nüvə	-9.75898
▁video	-9.75914
▁sürətlə	-9.75931
▁çərçivəsində	-9.7597
▁Xarici	-9.76002
ılmış	-9.76029
po	-9.76035
▁Bay	-9.76039
▁keçirilmiş	-9.76101
çilər	-9.76208
▁qarşısını	-9.7622
▁cüt	-9.76342
▁dairəsi	-9.76343
▁boğazı	-9.76355
▁W	-9.76455
çisi	-9.76503
▁forması	-9.76525
▁Her	-9.76538
▁üsulu	-9.76574
▁80	-9.76626
▁tədbirlər	-9.76636
▁əməkdar	-9.76681
ion	-9.76708
▁balıq	-9.7672
▁cild	-9.7674
▁tip	-9.76744
▁İlham	-9.76886
▁silahlı	-9.76967
▁onda	-9.7702
ck	-9.77042
▁500	-9.77126
▁konsert	-9.77134
▁Ordubad	-9.77159
w	-9.77248
▁şəbəkə	-9.77283
4-	-9.77297
▁yaratmaq	-9.77304
▁sisteminin	-9.77351
▁evi	-9.77355
▁Tək	-9.77402
▁yaranan	-9.77411
▁anti	-9.77417
▁heyəti	-9.77428
▁qaya	-9.77496
▁uğurlu	-9.77665
▁Silahlı	-9.77708
rak	-9.77732
▁qəsəbə	-9.77735
,4	-9.7774
▁şöbəsinin	-9.77742
▁bədən	-9.7776
▁xəstə	-9.77768
▁Musiqi	-9.77788
▁yaşamış	-9.7779
▁О	-9.77844
▁əmri	-9.77852
▁Çi	-9.77856
▁cinayət	-9.77867
▁Bəy	-9.7791
▁müsbət	-9.7804
zo	-9.78134
▁seçilir	-9.7819
▁do	-9.78191
ura	-9.78192
н	-9.78218
▁fərdi	-9.7826
▁Quliyev	-9.78299
▁qazanmışdır	-9.78303
▁kilometr	-9.78341
▁Ru	-9.78425
▁Kol	-9.78542
▁park	-9.78567
▁keçirilməsi	-9.78668
25	-9.78721
▁qismi	-9.78724
▁l	-9.78728
▁müğənni	-9.78782
▁etdikləri	-9.78803
▁qəza	-9.78834
▁əlaqələr	-9.78847
▁bizim	-9.78904
16	-9.78926
rus	-9.79012
▁başlamış	-9.79049
▁olurlar	-9.79114
av	-9.79114
▁vergi	-9.79166
▁ekran	-9.7919
▁bas	-9.79229
▁bununla	-9.79237
▁Zi	-9.79259
▁yanına	-9.79342
▁terror	-9.79442
▁təkcə	-9.79455
qal	-9.79478
atı	-9.79481
99	-9.79588
▁artisti	-9.79588
▁tərəfində	-9.7962
▁bank	-9.79678
▁Ben	-9.79717
▁Həm	-9.7972
▁görür	-9.79736
ram	-9.79787
▁dəqiqə	-9.79819
▁gölü	-9.79865
▁Du	-9.799
▁Kan	-9.79903
▁soyuq	-9.79915
94	-9.7992
▁habelə	-9.79984
▁2018-	-9.8007
▁işləyir	-9.8014
▁ziyarət	-9.80149
▁çalışıb	-9.80174
ly	-9.80188
lat	-9.80288
▁Bizans	-9.80308
▁layihəsi	-9.8032
▁iç	-9.80358
▁2000	-9.80395
▁Pol	-9.80451
▁sadəcə	-9.80514
▁etiraz	-9.80533
▁formada	-9.80558
▁məsləhət	-9.80699
▁cü	-9.80811
zı	-9.80867
96	-9.80868
▁qə	-9.80888
▁sərt	-9.80896
▁vilayətinin	-9.80897
▁dövrünün	-9.80929
▁redaktoru	-9.81017
lığını	-9.81029
▁əsərin	-9.81031
▁kar	-9.81065
▁2015	-9.81079
şərq	-9.81093
▁zərbə	-9.81102
▁hesabına	-9.81109
▁alma	-9.81194
▁keçid	-9.81207
▁yəhudi	-9.81284
▁küçə	-9.81284
▁sultan	-9.81352
▁verildi	-9.81353
▁Atası	-9.81356
▁Prezidentinin	-9.81377
▁səfər	-9.81411
▁gil	-9.81419
▁Bal	-9.81424
▁30-	-9.8152
▁bölgəsində	-9.81546
▁gələcək	-9.81548
lənmə	-9.81644
▁İsveç	-9.81657
40	-9.81675
▁kor	-9.81688
▁gətirib	-9.81692
lənməsi	-9.81777
▁nəzəriyyəsi	-9.81857
▁vəzifələrində	-9.81992
▁dəri	-9.82002
▁tanınır	-9.82012
▁işarə	-9.82067
▁Türkiyədə	-9.82072
məyi	-9.82197
▁z	-9.822
üm	-9.82225
▁nümunələri	-9.82269
▁kişilər	-9.82299
▁İmperiyası	-9.82306
lay	-9.82338
▁Don	-9.82358
▁baxımdan	-9.82386
xt	-9.82532
▁Mehmed	-9.82716
▁verilməsi	-9.82832
▁əsrlər	-9.82846
don	-9.82847
▁qoyulmuşdur	-9.82901
▁Bakıya	-9.82935
▁göstərilir	-9.83079
▁miqdarda	-9.83084
ry	-9.83096
▁sözləri	-9.83186
bin	-9.83205
ünü	-9.83214
mağı	-9.8323
▁tanınan	-9.83235
▁Əliyevin	-9.83268
▁edəcək	-9.83306
▁Koreya	-9.83311
▁tamam	-9.83326
▁Ara	-9.83404
▁Qeyd	-9.83422
▁keçirilmişdir	-9.83424
▁150	-9.8352
▁çəkilən	-9.83586
rit	-9.83589
▁deyildir	-9.83624
▁müsabiqə	-9.83686
▁sistemində	-9.83719
zar	-9.83822
lon	-9.83831
zin	-9.83831
▁nazir	-9.83857
▁həqiqi	-9.83894
▁mövqe	-9.83896
м	-9.83901
▁münasibətləri	-9.8392
▁gücü	-9.83931
▁qır	-9.84013
▁yaranması	-9.84042
▁mükafatına	-9.84084
lət	-9.84114
▁tayfa	-9.84138
▁Tar	-9.84155
▁birbaşa	-9.84179
▁Braziliya	-9.84201
▁yola	-9.84222
res	-9.84245
▁Şirin	-9.84249
.5	-9.84277
▁qalibi	-9.84322
▁müzakirə	-9.84341
▁yaranır	-9.84346
▁Qafqazda	-9.84364
▁Akademiyası	-9.84372
▁bənzər	-9.84396
▁çal	-9.84408
yn	-9.84411
▁əgər	-9.84528
▁aparır	-9.84557
▁başlıca	-9.84562
▁qapı	-9.84586
acağı	-9.84612
▁Gənc	-9.84621
▁Var	-9.84646
▁Laçın	-9.84665
▁bilmir	-9.84704
qları	-9.84723
nes	-9.8474
▁Çe	-9.84765
▁XVI	-9.84769
lim	-9.84838
▁Respublikasında	-9.84874
▁Azər	-9.84888
▁olunmuşdu	-9.84914
▁olmasını	-9.84953
▁cəhd	-9.8497
▁əri	-9.85007
▁çıxar	-9.85033
▁sərgi	-9.85096
▁daimi	-9.85125
vo	-9.85135
09	-9.85135
▁yapon	-9.85141
▁formasında	-9.85179
ilər	-9.85201
ğan	-9.85223
▁başçılıq	-9.85225
▁yu	-9.85365
▁jurnalist	-9.85402
▁Nəticədə	-9.85441
çısı	-9.85457
▁vəziyyəti	-9.85576
▁mənasını	-9.85576
22	-9.85604
▁Kal	-9.8564
gər	-9.85646
▁bacısı	-9.85652
▁haqda	-9.85723
29	-9.85797
▁parlament	-9.85798
▁məsələ	-9.85868
▁10-	-9.85914
▁düşən	-9.85919
▁2012	-9.85928
▁olsun	-9.85961
▁Elm	-9.85971
▁təqribən	-9.86007
▁М	-9.86031
▁qəzasında	-9.86034
▁Şahzadə	-9.86181
idir	-9.86192
zu	-9.86235
ven	-9.86301
▁bar	-9.86321
▁rəqs	-9.8633
▁ehtiyat	-9.8641
▁etdirmişdir	-9.86495
▁hamısı	-9.86499
▁oğlan	-9.86508
ez	-9.86551
ska	-9.86569
▁ala	-9.86575
▁Kara	-9.86581
▁Erməni	-9.86592
▁fərqlənir	-9.86605
▁memar	-9.8664
rt	-9.86653
daş	-9.86656
▁futbolçu	-9.86658
əcək	-9.86659
sar	-9.86741
▁edilə	-9.86857
str	-9.86884
▁Ata	-9.86902
▁и	-9.86931
▁araşdırma	-9.86996
qulu	-9.87001
▁şəhərdə	-9.87113
ا	-9.87125
▁un	-9.87133
▁sənəd	-9.87317
▁et	-9.87349
bər	-9.874
▁Qazaxıstan	-9.8744
▁millət	-9.87467
▁mütləq	-9.8747
п	-9.87486
▁ni	-9.87508
mü	-9.87546
mb	-9.87551
▁в	-9.87562
12	-9.87604
▁1930-	-9.87608
т	-9.87611
▁çoxsaylı	-9.87618
▁istiqamət	-9.87762
ld	-9.87824
ünün	-9.87824
▁yazmışdır	-9.87834
lit	-9.87952
▁bərk	-9.87976
▁Əsasən	-9.88042
▁heyətində	-9.88143
▁deyildi	-9.8821
▁fa	-9.88255
▁Baba	-9.88269
▁oynayır	-9.88291
▁müəssisəsi	-9.88369
▁İndi	-9.88372
▁İraq	-9.88391
▁İranda	-9.88459
▁Ədəbiyyat	-9.88459
▁təbəqə	-9.8852
▁doğma	-9.88607
▁çalışan	-9.88662
▁təsviri	-9.88684
▁Ser	-9.88701
▁rəsm	-9.88706
▁kralı	-9.88751
▁erkən	-9.88758
▁sakinləri	-9.88827
▁Biz	-9.88865
▁Cu	-9.88871
▁qüvvə	-9.88902
kdə	-9.88911
▁bitir	-9.88962
▁Min	-9.89015
▁Dil	-9.89074
ük	-9.891
▁alaraq	-9.89108
▁fakültəsini	-9.89155
nün	-9.89199
▁namizəd	-9.89203
ılan	-9.8927
▁Çar	-9.89293
▁foto	-9.89366
▁Qasım	-9.89454
▁1950-	-9.89532
▁islam	-9.89532
▁ko	-9.89549
▁məsafədə	-9.8956
▁Moskvada	-9.89668
▁coğrafi	-9.89673
▁məsələləri	-9.89688
▁fərq	-9.89697
▁verib	-9.89726
▁siyasəti	-9.89736
▁görünür	-9.89785
▁yaratdığı	-9.89867
▁tənqid	-9.89905
▁mənbəyi	-9.89935
▁söhbət	-9.89943
▁qış	-9.89949
net	-9.89976
fe	-9.90043
▁mirzə	-9.90062
▁ər	-9.90092
▁quş	-9.90146
▁düzənlik	-9.90159
▁termin	-9.9016
▁dərhal	-9.90163
▁düzgün	-9.9017
▁məktəbinin	-9.90304
▁li	-9.90326
▁xırda	-9.90367
▁istəyir	-9.9037
▁boz	-9.90505
ilir	-9.90527
▁Sarı	-9.90547
gu	-9.90553
▁yolla	-9.90563
▁Hətta	-9.9057
▁tərzi	-9.90592
32	-9.9061
▁qalası	-9.90637
▁adından	-9.90659
▁1945-	-9.90717
▁nın	-9.9073
şir	-9.90754
▁Van	-9.90762
▁mu	-9.90802
▁filmində	-9.90813
▁dəfələrlə	-9.90858
▁nəzəriyyə	-9.90876
istan	-9.90932
▁Vo	-9.90944
▁dövrlərdə	-9.9095
Ç	-9.90955
▁əksər	-9.90993
▁1975-	-9.91022
▁əhəmiyyət	-9.91022
▁90	-9.91038
lilər	-9.91083
▁maddələr	-9.91125
▁bunlar	-9.91128
▁mükafat	-9.91148
adi	-9.91204
ndəki	-9.91219
▁arxeoloji	-9.9123
laş	-9.91239
şı	-9.91284
təpə	-9.91375
▁2011	-9.91434
▁qrupunun	-9.91434
▁olma	-9.91442
▁jurnal	-9.91458
▁İbn	-9.91465
▁olarkən	-9.91468
▁əy	-9.91494
з	-9.91498
▁bəri	-9.91588
▁kim	-9.9159
▁ölçü	-9.91614
▁şairi	-9.91697
▁romanı	-9.91698
▁yerləşdiyi	-9.91757
▁Nazirlər	-9.91786
▁1987-	-9.91788
▁ehtiyac	-9.91813
▁Dar	-9.91834
ens	-9.91923
ns	-9.91937
8-	-9.91966
г	-9.91995
▁mənası	-9.92057
om	-9.92067
▁kilsəsi	-9.92087
▁Zo	-9.92102
▁Krım	-9.92114
▁Rusiyada	-9.92145
▁bio	-9.92183
io	-9.92191
▁proqramı	-9.92219
eri	-9.92226
▁qalma	-9.92239
▁Mal	-9.92277
▁yürüş	-9.92284
▁hörmət	-9.92312
sel	-9.92349
▁Sonralar	-9.92372
▁1986-	-9.92396
▁qum	-9.92434
▁proses	-9.92472
▁ölkələrin	-9.92502
▁həcmi	-9.92507
▁Də	-9.92511
▁nəqliyyat	-9.92511
▁qərarına	-9.92545
▁təzyiq	-9.92614
▁əməkdaşlıq	-9.92632
▁məscidi	-9.92664
gah	-9.92673
▁Robert	-9.92675
▁etsə	-9.92758
siyasi	-9.92888
şan	-9.92904
▁səh	-9.92962
ophyllum	-9.92982
▁mənəvi	-9.93029
▁nəzdində	-9.93086
в	-9.93178
▁Kərim	-9.93194
▁Ge	-9.93231
▁Qış	-9.93234
▁Sü	-9.93242
▁üstün	-9.93262
▁mi	-9.93277
▁yazırdı	-9.93308
▁seçki	-9.93343
▁2010	-9.93376
▁etdirən	-9.93489
▁Qacar	-9.93511
▁Murad	-9.93514
▁almışdı	-9.93612
dor	-9.93616
yor	-9.93627
laşdırma	-9.93635
▁məqsəd	-9.93685
▁struktur	-9.93759
bay	-9.93779
▁1979-	-9.93786
▁Ad	-9.93819
▁Məhz	-9.93823
ril	-9.93835
▁sərf	-9.9391
▁yaz	-9.9393
▁va	-9.93946
yanı	-9.93953
▁Mil	-9.9399
▁yaranmış	-9.93998
üb	-9.94014
▁əvvəllər	-9.94024
▁300	-9.94034
60	-9.94038
▁Mariya	-9.94042
▁dilinə	-9.94073
▁yaşamışdır	-9.9413
▁orqanları	-9.94138
▁nöqtəsi	-9.94192
▁çempionu	-9.94202
01	-9.9421
▁bürünc	-9.94254
▁saxlanılır	-9.94301
▁Azərbaycana	-9.94324
▁Nobel	-9.94363
▁filmləri	-9.94404
▁bura	-9.94415
▁divarları	-9.94447
▁dördüncü	-9.94448
▁2008	-9.94451
▁dövrə	-9.9448
ləşir	-9.94494
▁UEFA	-9.94501
▁gəlmə	-9.94512
▁Tanrı	-9.94521
suz	-9.94531
▁36	-9.94599
şərqdə	-9.94637
tri	-9.94659
6-	-9.94688
▁sahillərində	-9.94727
▁atasının	-9.94778
▁Qüvvələri	-9.94827
dil	-9.94835
▁qadağan	-9.94838
▁edildiyi	-9.94877
▁dollar	-9.94892
las	-9.94892
▁doktorluq	-9.94984
əz	-9.95001
niz	-9.95028
qon	-9.95035
▁məlumatın	-9.95057
til	-9.9508
▁sonlarında	-9.95091
▁məktəbin	-9.95142
▁yaratmışdır	-9.95166
▁hissələri	-9.9521
▁XVII	-9.95215
▁Can	-9.9526
▁hekayə	-9.95261
▁sürəti	-9.95261
▁cənubunda	-9.95342
▁riyaziyyat	-9.95354
məz	-9.95364
▁1982-	-9.95368
▁Osman	-9.95486
dığını	-9.95487
zan	-9.95488
▁kütlə	-9.95583
yib	-9.95614
▁Fətəli	-9.9567
▁əslində	-9.9569
▁Azərbaycanlı	-9.9575
▁Bulb	-9.95792
laşmış	-9.9583
▁qətlə	-9.95855
şah	-9.95892
▁000	-9.95944
-2	-9.95992
▁axır	-9.9605
▁1985-	-9.96099
▁2009	-9.961
▁əvvəlində	-9.96108
15	-9.96125
▁nümayəndə	-9.96132
▁buz	-9.96152
eti	-9.96162
▁hökmdar	-9.96192
▁Pri	-9.9625
▁1972-	-9.96315
▁ayaq	-9.96321
▁İs	-9.96326
▁ot	-9.96354
▁tərkibi	-9.96402
▁izlə	-9.96415
▁Hüquq	-9.96527
▁inan	-9.96575
▁Başqırdıstan	-9.96582
▁müxbir	-9.96635
▁Allahın	-9.96647
▁məhdud	-9.96656
▁Prezident	-9.96695
xo	-9.96702
▁33	-9.96725
▁Uşaq	-9.96756
▁qəhrəman	-9.96795
.2	-9.96813
▁orijinal	-9.96851
▁ikən	-9.96937
fon	-9.96958
▁laureatı	-9.96985
▁Ur	-9.96986
onu	-9.97046
▁uğur	-9.97048
▁danış	-9.97062
▁məqalə	-9.97086
yat	-9.97207
▁Sar	-9.97231
▁məsələlər	-9.97267
▁tünd	-9.97294
▁Hind	-9.97297
▁səbəbindən	-9.97311
▁Əbdül	-9.97326
ləşdirilmiş	-9.97406
▁verilmiş	-9.97409
▁dedi	-9.97409
bel	-9.97453
▁dəyişikliklər	-9.97467
▁nöqtə	-9.97467
▁olmur	-9.97479
▁Pedaqoji	-9.97502
▁məna	-9.97568
▁gəlin	-9.97649
▁edər	-9.97684
▁birinin	-9.97694
▁Partiyası	-9.977
▁dövrünə	-9.97711
ket	-9.97726
▁mənim	-9.97727
vr	-9.97731
▁göstərdiyi	-9.97752
▁Əmək	-9.97755
▁maye	-9.97774
▁səkkiz	-9.97826
caq	-9.97832
▁öyrənilməsi	-9.97852
▁1983-	-9.97885
▁Səlim	-9.97905
▁təhlükə	-9.9791
▁imperator	-9.97944
▁zərər	-9.98017
▁texnika	-9.9803
ox	-9.98035
▁orqanı	-9.98042
▁şərh	-9.98085
▁par	-9.98105
▁yerləri	-9.98125
imi	-9.98127
▁İctimai	-9.98157
98	-9.98192
▁öldür	-9.98211
▁fil	-9.98244
▁sürət	-9.98259
mit	-9.98274
manın	-9.98287
▁Abdulla	-9.98319
▁48	-9.98322
▁sürgün	-9.98323
▁daşıyan	-9.98324
▁Şurası	-9.98325
ray	-9.98338
yyət	-9.98369
▁xalqın	-9.98391
▁Bala	-9.98417
▁kənar	-9.98429
▁ov	-9.98474
▁hektar	-9.98486
▁idarəetmə	-9.98502
9	-9.98525
▁rejissoru	-9.98542
mat	-9.98552
▁Birliyi	-9.98575
eş	-9.98607
▁ak	-9.9861
▁xanı	-9.98656
▁gəlməsi	-9.98706
▁Çempionatında	-9.98749
▁şimalında	-9.9875
45	-9.98812
▁fərmanı	-9.98839
▁Ça	-9.98869
kimilər	-9.98918
َ	-9.98926
▁alın	-9.98958
▁Cümhuriyyəti	-9.98971
▁Füzuli	-9.98981
▁1974-	-9.99032
▁1978-	-9.99063
▁duz	-9.99065
▁to	-9.99078
▁məlumdur	-9.9908
▁nəhəng	-9.99092
▁saniyə	-9.991
▁disk	-9.99104
▁komandasının	-9.99117
▁mərasimi	-9.99135
sti	-9.99146
▁Fransanın	-9.99173
rın	-9.99205
▁sütun	-9.9921
▁İdman	-9.99259
▁əs	-9.9933
şəkilli	-9.99425
▁formaları	-9.99445
▁Ümumi	-9.99466
▁Tiflis	-9.99479
▁şəhristanının	-9.99493
▁dram	-9.99504
▁sayılan	-9.9954
▁olurdu	-9.99552
yir	-9.99556
▁göstərirdi	-9.99568
▁hissədə	-9.99619
▁38	-9.99649
▁1981-	-9.99656
▁Val	-9.99667
ğın	-9.9979
▁2013	-9.99795
br	-9.99818
ers	-9.9985
bəy	-9.99898
▁əsrə	-9.9994
▁Hu	-9.99999
▁sırasında	-10
▁Xəlil	-10.0001
▁Dan	-10.0003
▁məktub	-10.0005
▁mənfi	-10.0007
▁Mark	-10.0011
▁tərkib	-10.0014
90	-10.0014
rey	-10.0015
97	-10.0028
▁Zaqafqaziya	-10.0031
birinə	-10.0034
▁6-	-10.0036
▁oyunu	-10.0042
▁2016	-10.0043
▁Bil	-10.0051
▁Sovetinin	-10.0051
▁fikrincə	-10.0054
▁azadlıq	-10.0056
▁Filmin	-10.0057
▁u	-10.0058
▁1941-	-10.0065
▁Onu	-10.0068
dim	-10.0069
tr	-10.0069
▁çəkir	-10.007
▁divar	-10.0079
▁sonuna	-10.0079
▁cəmiyyətin	-10.0079
▁dostu	-10.008
gil	-10.0082
▁Mat	-10.0083
93	-10.0085
yıb	-10.0086
kü	-10.0089
▁səviyyədə	-10.0093
▁quruluş	-10.0094
▁quberniyasının	-10.0096
▁sonu	-10.0096
qor	-10.0101
13	-10.0102
▁Par	-10.0104
17	-10.0105
▁küçəsi	-10.0105
▁poli	-10.0109
▁fəhlə	-10.011
▁muğam	-10.011
▁kitabında	-10.0114
▁atom	-10.0117
▁musiqisi	-10.0119
▁çağır	-10.0119
tika	-10.0119
▁internet	-10.0122
▁Kur	-10.0128
▁kompleks	-10.0133
era	-10.0134
▁güllə	-10.0135
enin	-10.0137
▁art	-10.0137
▁xətt	-10.0145
▁güman	-10.0147
▁qul	-10.0149
▁Fransız	-10.015
çü	-10.0154
arı	-10.0155
▁namizədlik	-10.0159
▁uşaqlar	-10.0162
sey	-10.0169
ulla	-10.0171
▁1967-	-10.0172
▁önəmli	-10.0177
▁bitkilər	-10.0179
▁məkan	-10.0181
başı	-10.0182
▁görmə	-10.0186
▁ra	-10.0186
▁alınan	-10.0195
▁Bunlar	-10.0196
▁Şir	-10.02
▁şirkət	-10.02
▁qu	-10.0207
▁piyada	-10.0208
▁mühafizə	-10.021
▁döyüşü	-10.0215
▁muzeyi	-10.0215
▁Kitab	-10.022
gü	-10.0225
▁keçmişdir	-10.0228
rü	-10.0228
▁Əməkdar	-10.0231
▁təşkilatı	-10.0235
▁Gənclər	-10.0236
▁yüngül	-10.0236
▁Daxili	-10.0241
▁1971-	-10.0248
▁mərhələ	-10.0256
▁həyatını	-10.0257
▁1968-	-10.0259
▁körpü	-10.0261
▁Corc	-10.0263
▁iz	-10.0264
ara	-10.0265
▁göndərdi	-10.0267
▁Almaniyanın	-10.0268
lənmişdir	-10.027
▁İttifaqının	-10.0273
▁1000	-10.0273
▁dilinin	-10.0274
▁Tra	-10.0276
▁şəhristanı	-10.0283
▁Dərbənd	-10.0287
▁biləcək	-10.0288
şünaslıq	-10.0288
pt	-10.0289
▁Kuboku	-10.0292
ırdı	-10.0297
diyini	-10.0298
▁Müdafiə	-10.0298
▁yüksəl	-10.0299
lığına	-10.03
▁Ceyms	-10.0304
izmin	-10.0305
▁sənədli	-10.0305
bət	-10.0305
▁İr	-10.0309
▁cins	-10.0309
▁gəlmək	-10.0313
▁altına	-10.0315
▁çıxmışdır	-10.0325
je	-10.0327
▁keçirdi	-10.033
▁1965-	-10.033
▁əsilli	-10.0335
▁oxşar	-10.0337
▁Dram	-10.0342
▁onlarla	-10.0343
kal	-10.0343
of	-10.0346
▁olduğuna	-10.0351
▁opera	-10.0352
▁müəllif	-10.0353
▁mövsüm	-10.0354
▁şəraitində	-10.0355
lam	-10.0355
▁qov	-10.0358
▁Səfəvi	-10.0367
▁Bor	-10.0369
iv	-10.037
üs	-10.0376
▁nəticədə	-10.0377
▁üsul	-10.0379
28	-10.038
▁yayılması	-10.038
▁kök	-10.0383
üz	-10.0384
▁mətn	-10.0386
▁ölkələrində	-10.0387
6	-10.039
▁Sibir	-10.0391
14	-10.0392
.3	-10.0394
47	-10.0395
▁1976-	-10.0405
▁Xu	-10.0412
▁ku	-10.0414
▁1973-	-10.0414
▁statusu	-10.0415
dr	-10.0415
▁dəstəyi	-10.042
▁Ju	-10.0421
▁dissertasiyası	-10.0421
▁edərkən	-10.0423
▁dur	-10.043
▁birinə	-10.0436
▁inkişafında	-10.0438
▁nizam	-10.0454
▁Tom	-10.0455
▁suyu	-10.0455
▁bayram	-10.0456
▁Ci	-10.0457
▁imkanı	-10.0457
▁universitetin	-10.0463
▁xarakter	-10.0467
06	-10.0468
▁Müharibə	-10.0471
03	-10.0474
▁asan	-10.0479
▁34	-10.0479
linin	-10.048
▁Müxtəlif	-10.0484
▁çat	-10.0486
▁aktrisa	-10.0492
▁Tor	-10.0494
▁metrdir	-10.0495
▁bilməz	-10.0496
▁yaratdı	-10.0502
▁Rza	-10.0503
laşdırılmış	-10.0503
▁Bərdə	-10.0506
▁görmək	-10.0509
▁pa	-10.0516
▁xalçaları	-10.0516
▁mükəmməl	-10.0523
▁http	-10.0525
▁alimi	-10.0526
▁xalqının	-10.0527
▁dar	-10.0531
tər	-10.0532
▁Oyunlarına	-10.0535
▁qərara	-10.0538
rov	-10.0539
saq	-10.0542
▁surətdə	-10.0543
▁Pan	-10.0546
▁getdi	-10.0547
erin	-10.0552
▁1937-	-10.0553
▁şəkil	-10.0553
müş	-10.0555
▁mənbələrdə	-10.0557
xar	-10.0559
▁dalğa	-10.056
▁fi	-10.0562
▁alban	-10.0563
▁məktəbini	-10.0563
▁İşlər	-10.0565
▁rəqibi	-10.0565
▁işləyən	-10.0578
▁irsi	-10.0582
08	-10.0584
▁yayım	-10.0585
qda	-10.0585
▁inç	-10.0588
▁xalça	-10.0588
▁Ga	-10.0599
▁Nikolay	-10.0599
duğu	-10.0599
▁37	-10.06
24	-10.0604
▁qoşun	-10.0605
▁qarışıq	-10.0608
▁Qor	-10.0609
▁edilərək	-10.0609
▁1984-	-10.0609
▁çatan	-10.0612
mən	-10.0614
▁Dağıstan	-10.0617
▁hidro	-10.0618
▁Belçika	-10.0619
▁1969-	-10.0619
▁misal	-10.062
▁versiyası	-10.0624
76	-10.0626
▁başladılar	-10.0639
kli	-10.0639
▁rəngi	-10.064
▁çıxmış	-10.0644
qala	-10.0644
▁vətəndaş	-10.0647
▁çağırış	-10.0648
▁42	-10.0649
iyanın	-10.0649
▁8-	-10.0651
▁tərəfi	-10.0653
▁məhsulları	-10.0663
let	-10.067
rəm	-10.0671
▁olmağa	-10.0671
▁dərman	-10.0674
▁edam	-10.0675
▁səthi	-10.0679
gün	-10.069
36	-10.0693
▁halında	-10.0695
▁sabit	-10.0696
▁problem	-10.0698
▁ab	-10.0699
dədir	-10.0701
▁vəzifəsini	-10.0707
▁Vəli	-10.071
pp	-10.0713
▁15-	-10.0714
▁bildirdi	-10.0716
-15	-10.0716
▁po	-10.0722
▁kafedrasının	-10.0728
eh	-10.0728
▁məlumata	-10.0733
▁Art	-10.0733
▁Başqa	-10.0736
▁Ankara	-10.0738
▁ın	-10.0739
▁1966-	-10.0744
par	-10.0748
▁aktyoru	-10.0748
▁vilayət	-10.075
▁Rüstəm	-10.0752
▁münasibətlər	-10.0754
▁Dağlıq	-10.0755
▁Harri	-10.0759
▁etdikdən	-10.0763
liyinin	-10.0764
▁400	-10.0764
▁sənətkar	-10.0767
yanın	-10.0768
▁Yaxın	-10.0769
tt	-10.0769
▁aparılır	-10.0771
▁cərəyan	-10.0772
▁keçirmək	-10.0774
▁nəzəri	-10.078
▁Bel	-10.0783
tay	-10.0788
ilən	-10.079
07	-10.079
▁Norveç	-10.0793
▁dilləri	-10.0803
▁ümumilikdə	-10.0807
tel	-10.0807
▁tanı	-10.0809
▁bəziləri	-10.0817
▁milyard	-10.0817
▁7-	-10.0823
▁mənbə	-10.0824
nü	-10.0825
▁Dəmir	-10.083
▁Ordu	-10.0833
▁şəraitdə	-10.0843
▁əlverişli	-10.0847
▁Komitəsi	-10.0847
▁ayı	-10.085
▁cənubda	-10.0852
▁Avropanın	-10.0853
▁tap	-10.0854
▁ne	-10.0857
▁imperiyası	-10.086
▁1959-	-10.0863
▁sarayı	-10.0865
▁hakimiyyətə	-10.0868
35	-10.0869
landır	-10.087
York	-10.0871
mp	-10.0874
▁yığ	-10.0878
▁Sən	-10.0882
cik	-10.0883
▁so	-10.0884
▁Tri	-10.0886
pol	-10.0895
▁etdirmək	-10.0896
л	-10.09
masına	-10.0901
▁Ərdəbil	-10.0908
maqla	-10.0909
▁1956-	-10.0916
▁tanrı	-10.0916
▁cəm	-10.0917
▁hərəkatı	-10.0918
qara	-10.092
▁65	-10.092
▁xor	-10.0922
yı	-10.0923
▁tezliklə	-10.0923
▁köç	-10.0925
▁kəndindən	-10.0926
ogen	-10.0926
ac	-10.0942
▁Tarixi	-10.0943
▁Top	-10.0945
nt	-10.0945
▁vi	-10.0946
▁yaradılan	-10.0948
▁2004	-10.0951
▁əksini	-10.0952
▁paytaxt	-10.0953
ation	-10.0954
▁2014	-10.0956
▁kompleksi	-10.0959
▁olunduğu	-10.0961
ano	-10.0962
▁On	-10.0963
▁Bəzən	-10.0963
▁yönəl	-10.0965
▁mədrəsə	-10.0969
▁günə	-10.0971
▁çıxması	-10.0971
oloq	-10.0974
▁arvadı	-10.0975
▁kütləsi	-10.0975
▁Mər	-10.098
▁hüquqi	-10.098
▁Sta	-10.0981
▁redaktor	-10.0991
▁körfəzi	-10.0993
aş	-10.0996
▁sahələrində	-10.0998
▁Bunlardan	-10.0999
məsinə	-10.1001
▁Anna	-10.101
les	-10.1013
▁1917-	-10.1022
▁Yazıçılar	-10.1023
▁əlində	-10.1029
д	-10.1034
▁Ömər	-10.1037
▁haqqı	-10.1039
▁tikintisi	-10.104
▁başına	-10.104
23	-10.1041
ilə	-10.1049
▁eyniadlı	-10.1049
▁tri	-10.105
▁tarixinə	-10.1054
ləşdirmə	-10.1054
▁qismən	-10.1056
▁Məşədi	-10.1056
▁it	-10.1056
ql	-10.1058
▁alınır	-10.1059
▁VI	-10.1059
▁gül	-10.1063
iy	-10.1064
▁yerləşmişdir	-10.1069
5-	-10.1071
▁kağız	-10.1074
ken	-10.1078
bur	-10.1078
▁döyüşdə	-10.1079
▁aparan	-10.1081
▁planet	-10.1081
▁keçirdiyi	-10.1085
▁qəzetinin	-10.1088
▁yarı	-10.1092
▁yazıçısı	-10.1097
▁müttəfiq	-10.1099
▁baxış	-10.11
▁çevrilmişdir	-10.1102
▁apardığı	-10.1104
▁addım	-10.1109
▁Fars	-10.1116
▁səviyyəsindən	-10.1119
▁Say	-10.1122
▁Federasiyasının	-10.1124
▁şimalda	-10.1126
landı	-10.1127
ах	-10.1128
▁kanalı	-10.113
▁Zəngəzur	-10.113
▁Onlardan	-10.1131
▁mövzu	-10.1132
▁1961-	-10.1135
▁lövhə	-10.1136
▁be	-10.1136
▁özəl	-10.1141
ст	-10.115
şünas	-10.1153
▁2005	-10.1154
▁Sankt	-10.1158
▁hamı	-10.116
▁he	-10.1162
ativ	-10.1163
▁Av	-10.1167
▁üzə	-10.1169
▁daim	-10.1179
▁kə	-10.118
▁şəhərindən	-10.1181
▁К	-10.1183
▁edilmə	-10.1183
▁Mon	-10.1186
▁1977-	-10.1187
iyalı	-10.1187
lıların	-10.1192
▁tor	-10.1196
▁hüceyrə	-10.1201
▁xidməti	-10.1202
▁ortalarında	-10.1207
▁davamlı	-10.1208
82	-10.1215
0.000	-10.1216
66	-10.1223
▁üzvi	-10.1223
qərbdə	-10.1224
pan	-10.1229
▁düşüncə	-10.1233
▁Sosial	-10.1234
▁Hələ	-10.1234
▁şəhəridir	-10.1237
baş	-10.1241
84	-10.1242
lanıb	-10.1242
▁yaradılıb	-10.1244
▁temperaturu	-10.1244
▁xəlifə	-10.1245
▁heyətinin	-10.1246
▁Macarıstan	-10.1249
▁Anadolu	-10.1251
▁hadisələri	-10.1254
91	-10.1258
▁adlandırılır	-10.1258
lm	-10.126
sit	-10.126
▁oluna	-10.1261
▁maşın	-10.1262
▁Aralıq	-10.1263
ılma	-10.1263
▁mövsümündə	-10.1264
▁maarif	-10.1267
lığının	-10.1268
▁çəkilir	-10.1268
▁əleyhinə	-10.1269
▁fikri	-10.1269
▁Əhalisi	-10.127
▁məsafə	-10.127
▁nəzarəti	-10.1271
▁Sosialist	-10.128
▁Kimya	-10.1282
▁fəlsəfi	-10.1283
▁Məlik	-10.1284
▁mütəxəssis	-10.1288
▁çevrildi	-10.1288
▁Bakının	-10.1289
▁materiallar	-10.1289
▁tarixə	-10.1292
▁Cəbrayıl	-10.1294
▁göstərdi	-10.1296
bit	-10.1298
layan	-10.13
▁çıxıb	-10.1301
▁hissəsinin	-10.1306
▁vermə	-10.1307
▁vahidi	-10.1307
▁hesablama	-10.1308
▁Xüsusi	-10.1311
▁düş	-10.1314
▁1948-	-10.1318
▁Gi	-10.1319
▁qəzetində	-10.132
33	-10.132
▁tədqiqi	-10.1321
▁boru	-10.1323
▁hökm	-10.1325
▁görülüb	-10.1326
▁qorunması	-10.1331
▁gedib	-10.1332
bra	-10.1336
▁bin	-10.1338
▁Futbol	-10.1338
▁çoxdur	-10.1342
▁istiqamətdə	-10.1344
▁heyvanlar	-10.1347
▁mühit	-10.1349
▁uğurla	-10.1349
95	-10.1352
▁yarımadası	-10.1356
liklə	-10.136
▁Abdullayev	-10.1368
ləndi	-10.1369
▁yerləşirdi	-10.1371
▁müqaviləsi	-10.1373
▁fakültəsində	-10.1376
▁yolları	-10.1377
▁etmir	-10.1377
▁tarixdə	-10.1387
▁gerçək	-10.139
▁köçür	-10.139
▁bə	-10.1398
▁həyatında	-10.1402
laşması	-10.1403
▁yarısında	-10.1403
▁şəkər	-10.1404
▁xidmətləri	-10.1405
▁Bina	-10.1409
▁özünəməxsus	-10.1409
ərkən	-10.1409
▁Gün	-10.1412
▁dairə	-10.1416
▁xaç	-10.1424
04	-10.1426
▁peşə	-10.1428
cıq	-10.1436
▁nüfuzlu	-10.1438
▁Vladimir	-10.1441
▁qiyməti	-10.1445
▁1940-	-10.1447
▁yağış	-10.1456
▁İmam	-10.146
▁olmaması	-10.1461
xe	-10.1461
sal	-10.1461
▁Roman	-10.1463
▁kristal	-10.1465
▁Şəhərin	-10.1465
liyində	-10.1469
▁təsəvvür	-10.1473
▁tibbi	-10.1476
▁le	-10.148
▁seriya	-10.1482
▁yemək	-10.1482
▁səmərəli	-10.1482
art	-10.1483
▁Müsəlman	-10.1486
▁sahələrdə	-10.1488
▁Sen	-10.149
▁75	-10.1498
▁filmdə	-10.1501
▁zirvə	-10.1504
▁xanlığı	-10.1508
▁ayrıca	-10.1516
yun	-10.1522
▁limanı	-10.1524
▁Ter	-10.1531
▁əsrdən	-10.1533
▁aşıq	-10.1539
▁xalqı	-10.1542
▁çatdı	-10.1544
▁Ja	-10.1544
lıqla	-10.1547
▁anlayışı	-10.1548
▁Yo	-10.1551
▁hadisələrin	-10.1553
birindən	-10.1556
▁sual	-10.1556
▁yaradıcılıq	-10.1557
▁Kir	-10.1558
▁stansiyası	-10.1562
▁vulkan	-10.1567
▁səhra	-10.1571
skaya	-10.1572
▁mağara	-10.1573
▁Qay	-10.1576
▁məsələsi	-10.1576
▁ibtidai	-10.1584
▁adalar	-10.1584
atın	-10.1585
▁Lenin	-10.1587
▁turizm	-10.1588
iyası	-10.1595
▁Döyüş	-10.1597
▁qazanıb	-10.1598
▁zonası	-10.1599
▁əhəmiyyəti	-10.1599
▁1938-	-10.1601
▁binanın	-10.1604
▁başçılığı	-10.1605
▁ver	-10.1607
▁vaxtda	-10.1608
▁Radio	-10.1608
▁kənarda	-10.161
▁zona	-10.1613
▁xa	-10.1613
▁qəhrəmanı	-10.162
tis	-10.1625
▁9-	-10.1625
▁öyrənir	-10.1626
ami	-10.1626
▁xoş	-10.1629
yl	-10.1631
▁bulaq	-10.1633
del	-10.1637
▁Əfəndi	-10.1638
ل	-10.1642
▁İvan	-10.1644
▁qayıdır	-10.1648
▁tikilmiş	-10.1652
qun	-10.1652
yü	-10.1653
▁Universitet	-10.1656
▁Berlin	-10.1657
▁Kim	-10.1661
ığı	-10.1662
▁Tofiq	-10.1662
▁Sakit	-10.1664
▁Bey	-10.1665
▁1958-	-10.1665
▁fəsiləsin	-10.1667
▁material	-10.1667
üstü	-10.1672
21	-10.1673
▁Almaniyada	-10.1673
kul	-10.1678
▁gənclər	-10.168
tun	-10.168
▁ikisi	-10.168
▁ömrünün	-10.1688
▁Rey	-10.1697
▁problemi	-10.1698
sto	-10.17
83	-10.1701
▁ayından	-10.1702
▁zəlzələ	-10.1702
▁dissertasiya	-10.1703
▁əkin	-10.1704
üş	-10.1707
▁münasibət	-10.171
▁Adanın	-10.1713
▁olduqda	-10.1715
▁normal	-10.1717
▁Sol	-10.1717
▁komandiri	-10.1718
altı	-10.1721
▁san	-10.1722
▁janr	-10.1722
▁qonaq	-10.1726
▁Tan	-10.1726
▁rayonlarında	-10.1729
lması	-10.1734
▁for	-10.1736
▁düşdü	-10.174
▁şahzadə	-10.1742
▁arası	-10.1742
▁qardaş	-10.1742
▁qabaq	-10.1743
zer	-10.1746
▁Kaliforniya	-10.1748
▁istəyi	-10.1749
▁1957-	-10.1752
▁Azad	-10.1758
▁burnu	-10.176
məli	-10.1762
27	-10.1766
▁qapısı	-10.177
▁sinir	-10.1772
udur	-10.1772
▁2007	-10.1779
▁Yalnız	-10.1782
▁Portuqaliya	-10.1784
▁pedaqoji	-10.1784
bor	-10.1787
▁keçirib	-10.1789
▁1946-	-10.1792
▁dolu	-10.1792
ls	-10.1792
▁sənəti	-10.1802
aj	-10.1803
▁ailədən	-10.1805
▁sədr	-10.1806
▁Səməd	-10.1807
▁futbolçusu	-10.1814
▁arzu	-10.1817
-17	-10.1828
69	-10.1829
▁Sonradan	-10.1835
▁hərəkəti	-10.1836
▁qrupun	-10.1837
▁səhv	-10.1838
▁Zə	-10.1843
▁mövzusu	-10.1843
▁gündən	-10.1843
sim	-10.1844
▁əsərlərində	-10.1847
▁orqan	-10.1848
▁gətirən	-10.1851
▁XV	-10.1851
rdi	-10.1854
▁FK	-10.1854
▁ibadət	-10.1855
ğun	-10.1855
ret	-10.1857
▁oyunçu	-10.1857
▁adının	-10.1859
▁no	-10.1867
▁cu	-10.1867
▁bil	-10.1872
▁Jan	-10.1875
р	-10.1877
▁reaksiya	-10.1882
▁şərti	-10.1884
dra	-10.1886
▁cizgi	-10.1889
▁dosent	-10.1892
▁uzanır	-10.1894
▁süni	-10.1895
▁coğrafiya	-10.1897
▁müqavimət	-10.1897
▁1963-	-10.1898
one	-10.1899
▁sürətli	-10.1905
▁Mer	-10.1907
▁Qəbələ	-10.1909
▁səsi	-10.191
har	-10.1911
▁rədd	-10.1917
▁adamı	-10.1922
▁Qal	-10.1922
▁müvəqqəti	-10.1923
▁mənasında	-10.1923
▁Partiyasının	-10.1923
▁uç	-10.1928
▁Mart	-10.1929
▁Babək	-10.1931
▁nişan	-10.1933
▁Oğuz	-10.1936
▁evində	-10.1938
go	-10.1939
▁hazırlanır	-10.194
▁zəruri	-10.1944
ن	-10.1955
▁Vaqif	-10.1956
85	-10.1964
tma	-10.1966
▁poz	-10.1969
▁qazan	-10.1976
▁1962-	-10.198
64	-10.1987
.4	-10.1987
▁konfrans	-10.1989
▁Teatr	-10.199
▁istənilən	-10.1991
tro	-10.1992
79	-10.1995
▁VII	-10.1995
▁istəyən	-10.1998
ра	-10.2001
▁peyğəmbər	-10.2001
mər	-10.2002
▁içki	-10.2003
▁Mehdi	-10.2006
▁Həsənov	-10.2009
▁professoru	-10.2014
▁don	-10.2015
sü	-10.2018
af	-10.202
▁bölmə	-10.202
▁Ker	-10.2024
▁İnzibati	-10.2025
ıldı	-10.2025
▁diplomu	-10.2031
▁tədricən	-10.2032
he	-10.2034
▁qərbdə	-10.2035
▁örtüyü	-10.2038
75	-10.2039
▁iqtisadiyyat	-10.204
▁olunma	-10.2041
rab	-10.2045
qaz	-10.2046
▁lə	-10.2054
▁Bayram	-10.2055
bri	-10.2057
▁rə	-10.2057
▁bildi	-10.206
▁dağları	-10.2061
əri	-10.2061
▁İsveçrə	-10.2066
▁BMT	-10.2072
▁Şam	-10.2073
Peterburq	-10.2073
▁kül	-10.2074
▁tank	-10.2075
▁məbəd	-10.2075
▁XIII	-10.2075
▁fon	-10.2076
▁qardaşları	-10.2078
▁Alp	-10.208
▁toxuma	-10.2082
ləşmiş	-10.2092
▁Sp	-10.2099
əvi	-10.21
65	-10.2106
▁rəngdə	-10.211
▁Fransada	-10.2113
▁qorxu	-10.2113
▁Tehran	-10.2114
34	-10.2119
▁Yerli	-10.212
▁italyan	-10.2127
▁Özbəkistan	-10.2128
▁adasında	-10.2129
lüyü	-10.2129
▁qurulması	-10.2131
laşır	-10.2136
▁yaxından	-10.2136
malıdır	-10.2142
▁alimlər	-10.2144
▁saxla	-10.2145
▁hazırlanan	-10.2145
rtıq	-10.2145
▁ti	-10.2148
ziya	-10.2151
▁Şair	-10.2152
▁ölkələri	-10.2152
▁direktor	-10.2155
▁Yunan	-10.2157
lığında	-10.2157
▁müharibəsində	-10.2162
▁xüsusən	-10.2163
▁keçərək	-10.2164
ədək	-10.2164
▁başlamışdı	-10.2166
▁mayın	-10.2168
▁təqib	-10.217
▁saxlamaq	-10.2171
▁adamları	-10.2172
▁verirdi	-10.2173
▁Həyat	-10.2174
▁Ke	-10.2174
▁ox	-10.2174
lamaq	-10.2175
riya	-10.2177
car	-10.218
▁Kommunist	-10.2183
▁istilik	-10.2185
mız	-10.2188
▁geyim	-10.2189
▁vəzifə	-10.2189
▁adət	-10.219
sov	-10.2191
▁iştirakçısı	-10.2194
▁faiz	-10.2198
anq	-10.2205
▁proqramları	-10.2208
ləyən	-10.221
▁ispan	-10.2211
▁şam	-10.2213
▁yanvarın	-10.2216
sil	-10.2218
▁Nu	-10.222
▁arxiv	-10.2225
▁vermişdi	-10.2228
▁yaşayırdı	-10.2231
▁feodal	-10.2232
▁nəvəsi	-10.2232
▁keyfiyyət	-10.2234
▁Qəhrəmanı	-10.2238
▁ardından	-10.2239
▁şərqdə	-10.2245
▁münasibəti	-10.2249
▁Tay	-10.2252
▁bəs	-10.2253
74	-10.2255
▁55	-10.2257
▁qaç	-10.2261
▁yaradıcılığı	-10.2263
ys	-10.2263
▁qəbir	-10.2263
▁Bra	-10.2263
▁İcra	-10.2265
kol	-10.2266
▁könüllü	-10.2266
▁əksinə	-10.2267
ym	-10.2268
▁vəsiqə	-10.2274
lanmışdır	-10.2277
▁Təsərrüfatı	-10.2279
▁jurnalı	-10.2279
▁olmadığı	-10.228
▁Əhalinin	-10.228
▁terrorçuları	-10.2281
üt	-10.2282
▁etdiyini	-10.2284
sis	-10.2285
▁1939-	-10.2285
▁EA	-10.2285
▁atmosfer	-10.2287
▁raket	-10.2288
▁hazırlanmışdır	-10.2289
▁ax	-10.2291
▁mikro	-10.2292
sir	-10.2293
illik	-10.2293
▁yerini	-10.2296
▁Nur	-10.2298
▁pe	-10.2299
▁region	-10.23
met	-10.2302
▁Ö	-10.2305
▁qoydu	-10.2305
▁şirkətinin	-10.2308
▁qalın	-10.2308
▁Əziz	-10.2309
▁Cavad	-10.2309
▁İsgəndər	-10.231
▁Vol	-10.2314
▁şurasının	-10.2321
▁rayonun	-10.2322
▁Oyun	-10.2325
▁qrupa	-10.2332
▁keçirən	-10.2334
dov	-10.2335
▁mənzil	-10.2337
▁sevgi	-10.2338
ləşməsi	-10.2339
▁oynamışdır	-10.234
▁jurnalının	-10.2344
▁göstərmiş	-10.2346
▁lüğəti	-10.2351
▁təmir	-10.2355
▁abidəsi	-10.2356
▁Rejissor	-10.2358
▁Quru	-10.2359
irdi	-10.2359
▁ke	-10.2362
▁Meksika	-10.2365
▁ümumiyyətl	-10.2366
▁olmaz	-10.2371
▁rabitə	-10.2371
▁bildir	-10.2371
▁Təbii	-10.2372
▁ağacı	-10.2373
ani	-10.2378
kat	-10.2378
▁işçisi	-10.2379
▁boş	-10.2379
▁götürür	-10.2382
▁xüsusiyyəti	-10.2382
oid	-10.2387
▁səhər	-10.2391
▁kitabın	-10.2391
▁nazik	-10.2394
▁təhlükəsizlik	-10.2397
biri	-10.2398
▁Şərur	-10.2401
58	-10.2402
▁manqa	-10.2404
for	-10.2405
▁Şo	-10.2406
▁Səid	-10.2407
oqrafiya	-10.2411
▁Maykl	-10.2413
pro	-10.2414
▁ardınca	-10.2415
▁işini	-10.242
▁xəritə	-10.2428
▁yekun	-10.2429
▁Partiya	-10.2431
▁XIV	-10.2434
▁gəmisi	-10.2436
38	-10.2436
▁bilərdi	-10.2436
qat	-10.2436
▁rəhbər	-10.2439
▁Əb	-10.244
▁əməl	-10.2441
▁soyu	-10.2441
▁Aydın	-10.2444
▁dir	-10.2444
dıqdan	-10.2446
▁qaçır	-10.2448
şe	-10.245
▁müddəti	-10.2452
▁olmalıdır	-10.2454
▁məs	-10.2455
▁39	-10.2458
▁istisna	-10.2464
▁istəyirdi	-10.2467
port	-10.2467
▁aparılması	-10.2468
▁fakültəsinə	-10.2469
▁Axundov	-10.2469
▁fəaliyyətinin	-10.247
▁materialları	-10.2471
▁faydalı	-10.2472
yət	-10.2473
▁imperiyasının	-10.2474
ləndirilməsi	-10.2475
▁ölümü	-10.2477
▁19-	-10.2478
sm	-10.248
▁problemlər	-10.2482
▁şeirlər	-10.2482
▁ermənilərin	-10.2483
▁dünyasını	-10.2484
▁paşa	-10.2485
▁Afina	-10.2487
▁vasitə	-10.2487
▁şüşə	-10.2493
mak	-10.2496
bey	-10.2498
üzə	-10.2501
▁Alban	-10.2504
trop	-10.2504
▁növbədə	-10.2506
43	-10.2506
▁Ze	-10.2507
▁ssenari	-10.2507
▁qitə	-10.2508
▁türbə	-10.2515
▁Bre	-10.2519
▁diametri	-10.2521
▁tarixinin	-10.2522
▁mln	-10.2523
▁mətbuat	-10.2523
▁müqayisə	-10.2524
ovski	-10.2525
▁döyüşlərdə	-10.2526
tədqiqat	-10.2526
▁başlandı	-10.2527
▁diplomatik	-10.2531
▁Tam	-10.2532
▁tələbələr	-10.2534
▁yarışlarında	-10.2534
86	-10.2534
62	-10.2536
▁Pu	-10.2537
▁qanunu	-10.2537
▁münaqişə	-10.2538
▁dönəmində	-10.2538
▁iqtisadiyyatı	-10.254
otu	-10.2541
▁Cavanşir	-10.2545
▁pəncərə	-10.2552
▁gələrək	-10.2552
▁sənayesi	-10.2552
▁çəkdiyi	-10.2566
▁yaradıldı	-10.2568
▁25-	-10.257
▁səhifə	-10.257
▁Go	-10.2573
▁yazılı	-10.2577
▁keçirildi	-10.2579
▁qəsəbəsi	-10.2579
▁Kə	-10.258
eli	-10.258
▁başqaları	-10.2582
ulu	-10.2582
▁Fər	-10.2586
▁Danimarka	-10.2586
▁düzəl	-10.2589
lardır	-10.2593
▁Uilyam	-10.2593
▁yağı	-10.2599
ili	-10.26
com	-10.2601
▁Nar	-10.2601
spor	-10.2602
▁filologiya	-10.2604
▁bölgədə	-10.2608
71	-10.2609
▁xatirə	-10.261
ori	-10.2611
▁tur	-10.2614
▁əməliyyatı	-10.2618
▁şəraiti	-10.2619
▁Çu	-10.262
▁danışıqlar	-10.262
▁istifadəyə	-10.2622
▁Kilsə	-10.2622
▁məclis	-10.2629
▁dənizinin	-10.2633
▁nəfərdən	-10.2634
tək	-10.264
▁verə	-10.2643
▁Kiyev	-10.2644
▁anime	-10.2646
▁təşəbbüsü	-10.2646
▁görüşdə	-10.2649
▁vəsait	-10.265
ж	-10.265
▁tutmuş	-10.2651
▁Əsgər	-10.2653
▁or	-10.266
▁yarısı	-10.2665
▁təslim	-10.2666
baba	-10.2667
▁sü	-10.2667
▁yuxu	-10.2669
▁torpaqları	-10.267
▁toxum	-10.2672
siyası	-10.2674
▁hücuma	-10.2677
▁təsnifat	-10.2681
▁tikili	-10.2682
şar	-10.2683
▁əlaqələri	-10.2683
▁klubunda	-10.2684
▁qrupuna	-10.2684
▁Çingiz	-10.2688
▁Azərbaycanı	-10.269
▁yurdu	-10.2694
37	-10.2695
bul	-10.2697
▁1964-	-10.2699
qur	-10.2699
şt	-10.2701
▁şəhərləri	-10.2702
▁zirvəsi	-10.2706
▁Ordusu	-10.2708
▁Parisdə	-10.2709
▁kvadrat	-10.271
▁MK	-10.271
lya	-10.2712
▁Arif	-10.2712
▁Amerikada	-10.2712
▁tutmuşdur	-10.2713
▁obrazı	-10.2713
▁razı	-10.2713
sh	-10.2717
▁sözünün	-10.2722
▁Qasımov	-10.2722
▁dost	-10.2735
dd	-10.2736
▁torpaqlar	-10.2737
▁Sənaye	-10.2739
05	-10.2741
▁verməsi	-10.2743
▁manat	-10.2748
▁işləməyə	-10.2748
▁ruhu	-10.2752
dıqları	-10.2753
▁minlərlə	-10.2755
ort	-10.2758
mik	-10.2762
▁nümunə	-10.2762
▁İstanbulda	-10.2765
▁Car	-10.2774
▁Ştatları	-10.2776
▁zabit	-10.2778
nis	-10.278
▁vilayətində	-10.278
▁rəssamı	-10.2782
▁cavan	-10.2786
▁yazılmışdır	-10.2789
▁tapmışdır	-10.2793
88	-10.2794
▁əyalət	-10.2795
dal	-10.2795
üstə	-10.2796
▁dəyişməsi	-10.2797
mil	-10.2799
▁Asiyada	-10.2804
▁formalı	-10.2804
▁telefon	-10.2806
▁fəth	-10.2806
▁lider	-10.2811
vil	-10.2814
▁Ailə	-10.2815
▁Jo	-10.2818
hr	-10.282
.6	-10.282
▁1949-	-10.2823
▁ol	-10.2824
02	-10.2824
▁fərqlənmə	-10.2826
▁məişət	-10.2828
▁edilməsinə	-10.2828
▁hind	-10.2829
▁tamaşaçı	-10.283
▁ха	-10.2839
▁dekabrın	-10.2841
▁qurulan	-10.2842
▁Ulduz	-10.2842
W	-10.2844
▁Yol	-10.2854
laşdırmaq	-10.2856
▁məhsul	-10.286
ов	-10.2861
▁zalı	-10.2866
▁relyef	-10.2866
▁sözündən	-10.2869
▁idmançı	-10.2876
▁kəndləri	-10.2878
▁Akademik	-10.2879
▁Kənddə	-10.2883
▁Kö	-10.2888
▁ştat	-10.2888
▁modeli	-10.289
▁Dü	-10.2892
▁hazırlıq	-10.2893
▁lay	-10.2895
▁ifaçı	-10.2897
▁şöhrət	-10.29
giya	-10.2901
▁sentyabrın	-10.2905
▁gəz	-10.2909
lk	-10.291
▁həqiqət	-10.291
▁şa	-10.2911
▁Men	-10.2912
▁vəzifəsi	-10.2913
41	-10.2913
▁lat	-10.2914
▁kəşfiyyat	-10.2919
▁dostları	-10.2919
▁yatır	-10.292
92	-10.2921
▁aprelin	-10.2922
▁Yüksək	-10.2924
▁olmadan	-10.2924
dik	-10.2925
▁41	-10.2925
▁martın	-10.2933
▁52	-10.2935
▁əyalətinin	-10.2937
▁Fərhad	-10.2939
qəsd	-10.294
▁açılır	-10.2941
▁yaradıcı	-10.2945
ney	-10.2945
▁1942-	-10.2949
gel	-10.2954
▁Xosrov	-10.2954
▁silsiləsinin	-10.2959
ans	-10.2959
▁dolları	-10.2959
inski	-10.2962
▁Bunu	-10.2967
▁Sim	-10.2968
▁qiymətləndiril	-10.2969
▁Qurban	-10.2969
▁2017	-10.2976
▁günbəz	-10.2977
▁1922-	-10.2978
8	-10.298
▁fakültəsinin	-10.2981
▁birləşdirən	-10.2982
▁döş	-10.2982
▁yerləşdirilmiş	-10.2983
42	-10.2983
68	-10.2984
▁birini	-10.2986
hu	-10.2988
▁1944-	-10.2988
▁taleyi	-10.299
undan	-10.2996
dərə	-10.3
,0	-10.3
▁qoşunu	-10.3004
▁şirin	-10.3005
olit	-10.3005
▁keçməsi	-10.3006
▁1926-	-10.3006
lənib	-10.3011
▁120	-10.3014
▁kamera	-10.3015
▁aparmaq	-10.3016
▁mərhələdə	-10.3018
▁yeraltı	-10.3019
xta	-10.302
78	-10.302
▁Hacıyev	-10.302
▁ziyalı	-10.3021
ras	-10.3026
▁т	-10.303
ell	-10.3031
▁Bolqarıstan	-10.3032
▁ayır	-10.3032
▁keçi	-10.3033
▁vaxtlar	-10.3038
▁yaşayırlar	-10.3041
▁bel	-10.3044
▁qoyur	-10.3046
▁qulaq	-10.3046
▁1947-	-10.3049
▁Maq	-10.3051
hal	-10.3057
▁Belarus	-10.306
əliyev	-10.3064
▁Oktyabr	-10.3067
▁deputatı	-10.3075
▁İnformasiya	-10.3075
▁efir	-10.3077
iyyəti	-10.308
▁co	-10.3082
▁Bank	-10.3082
sul	-10.3083
J	-10.3085
mus	-10.3088
▁Au	-10.3089
▁yun	-10.3091
▁təchiz	-10.3094
▁ərazisinin	-10.3094
▁Albaniya	-10.3095
▁XII	-10.3097
oş	-10.3097
▁monoqrafiya	-10.3097
▁şərqində	-10.3098
▁Filmdə	-10.3099
▁baza	-10.3103
48	-10.3104
▁otağı	-10.3106
▁TV	-10.3107
chi	-10.3107
▁1954-	-10.311
fin	-10.311
▁Çələbi	-10.3113
▁şöbəsi	-10.3113
kləri	-10.3114
▁keçib	-10.3114
dirlər	-10.3117
▁mülki	-10.3119
ан	-10.3119
▁cə	-10.3124
▁planı	-10.3124
▁bilərlər	-10.3124
▁Məktəbi	-10.3126
▁adlandırılan	-10.3131
may	-10.3132
▁qorumaq	-10.3132
▁əraziləri	-10.3134
▁iyunun	-10.3134
▁qələmə	-10.3135
87	-10.3138
▁yanğın	-10.3139
ial	-10.314
▁Zər	-10.3144
▁məhəbbət	-10.3144
▁çıxarır	-10.3147
▁Tele	-10.3151
▁xatırla	-10.3152
▁laboratoriya	-10.3154
▁emalı	-10.3157
inki	-10.3158
▁Muğan	-10.3161
▁Talış	-10.3167
▁now	-10.3169
ıdır	-10.3169
▁keçmə	-10.317
▁Fu	-10.3175
tmaq	-10.3175
▁yağıntı	-10.3175
▁Ban	-10.3175
zadənin	-10.3176
▁XI	-10.3179
▁fə	-10.318
ılıb	-10.3183
▁çevir	-10.3185
ğu	-10.3186
▁gətirdi	-10.3186
▁çayın	-10.3187
oru	-10.3193
ros	-10.3196
▁Kamal	-10.3196
63	-10.3199
▁incə	-10.3203
▁əlinə	-10.3219
▁ölkələr	-10.3222
▁ri	-10.3228
lərdir	-10.3234
▁uçuş	-10.3234
anlı	-10.3238
▁ziyan	-10.3241
taq	-10.3243
▁şahın	-10.3249
▁alətləri	-10.3253
▁Bro	-10.3258
▁şüa	-10.3259
7	-10.3259
mis	-10.326
▁məzar	-10.3262
▁etdirdi	-10.3262
▁sub	-10.3265
oq	-10.3266
lək	-10.3268
▁mono	-10.3271
▁xas	-10.3271
▁öldürüldü	-10.3272
▁qaydaları	-10.3276
▁44	-10.3282
▁sat	-10.3284
▁uzunsov	-10.3284
▁get	-10.3286
ps	-10.3287
▁qüllə	-10.3288
▁gündəlik	-10.3292
▁rejimi	-10.3292
xur	-10.3293
şərqində	-10.3302
▁Kam	-10.3303
▁müəssisələri	-10.3307
▁Səfi	-10.331
lıqlar	-10.3311
▁1953-	-10.3312
▁artması	-10.3316
▁nəfərlik	-10.3317
▁siyahısına	-10.3317
▁Texniki	-10.3318
▁Pyotr	-10.3322
▁bulağı	-10.3323
▁suları	-10.3324
▁12-	-10.3324
▁Hey	-10.3326
▁üsyanı	-10.3328
▁Xorasan	-10.3328
▁Rostov	-10.3336
▁çəkən	-10.3339
uc	-10.3339
tmək	-10.3339
▁Din	-10.3339
▁Soveti	-10.3339
tır	-10.3342
26	-10.3344
▁əbədi	-10.3344
▁işlərinə	-10.3349
müşdür	-10.3351
▁bit	-10.3356
▁bənd	-10.3357
baz	-10.3357
▁Park	-10.3358
bulaq	-10.336
▁süvari	-10.3361
▁sülaləsi	-10.3361
▁Sir	-10.3363
▁yaşa	-10.3366
tom	-10.3366
▁mər	-10.3375
▁əz	-10.3376
▁şiə	-10.3377
▁Göyçə	-10.3378
hir	-10.338
▁uc	-10.3383
▁kom	-10.3386
▁qərbində	-10.3386
ləşdirir	-10.3387
▁istinad	-10.3387
▁Üçüncü	-10.3391
▁Torpaq	-10.3391
tes	-10.3392
▁inqilabı	-10.3397
▁sakit	-10.3397
▁biznes	-10.3399
▁1921-	-10.3399
lun	-10.3401
▁ərazilərində	-10.3403
yeva	-10.3406
▁Ümumiyyətlə	-10.3406
▁verilib	-10.3407
alın	-10.341
▁43	-10.3411
ep	-10.3412
▁Aprel	-10.3414
▁Monqol	-10.3414
zen	-10.3415
ksi	-10.3419
44	-10.342
▁mərhələsi	-10.342
▁olduqları	-10.3421
▁zolaq	-10.3422
▁olmuşlar	-10.3425
▁Səfəvilər	-10.3425
top	-10.3426
▁tələbələrin	-10.3428
▁ümid	-10.3429
▁Kəlbəcər	-10.343
▁qalıb	-10.3432
stin	-10.3439
ella	-10.3439
▁rütbəsi	-10.344
▁diyarı	-10.3445
▁&#124;	-10.3446
▁Yaponiyanın	-10.3447
39	-10.3449
▁uşağı	-10.3449
▁1955-	-10.3451
▁Bas	-10.3451
▁Sara	-10.3456
▁elementləri	-10.3457
▁Aş	-10.3458
▁qüvvələr	-10.3458
▁kurs	-10.3459
▁Əhmədov	-10.3461
▁poçt	-10.3462
▁Sam	-10.3462
▁oldular	-10.3464
▁suda	-10.3465
▁xassələri	-10.3466
▁birləşdirir	-10.3467
▁bilmə	-10.3472
▁xəstəlik	-10.3475
▁bat	-10.3478
▁Bak	-10.3481
ağ	-10.3483
▁xidmətə	-10.3483
▁yaradan	-10.3484
▁bilirdi	-10.3486
▁tutub	-10.3487
▁səviyyəsi	-10.349
▁ruslar	-10.3491
▁yığması	-10.3492
▁elementlərin	-10.3492
▁sözlər	-10.3494
▁kompozisiya	-10.3494
▁zamanlar	-10.3496
▁insanları	-10.35
▁düşərgə	-10.35
▁Pakistan	-10.3503
▁Qrup	-10.3504
▁Fəxri	-10.3508
▁am	-10.351
▁Nik	-10.3514
▁Əfqanıstan	-10.3515
▁İqtisadi	-10.352
▁xarakteri	-10.3522
ətli	-10.3524
▁Ger	-10.3525
▁lideri	-10.3528
▁60-	-10.3528
▁Cin	-10.3528
▁qazıntılar	-10.353
▁çatmışdır	-10.3533
diya	-10.3535
Ma	-10.3536
▁həyatının	-10.3537
▁bəzək	-10.3537
▁yanaşma	-10.354
▁saxlayır	-10.3542
▁filminin	-10.3544
▁göstərilmişdir	-10.3548
56	-10.3548
▁cəmiyyəti	-10.3554
▁seçildi	-10.3556
▁qabiliyyəti	-10.3557
▁başı	-10.3559
▁hədiyyə	-10.3561
▁ocağı	-10.3563
lərarası	-10.3564
▁İsmayılov	-10.3567
liz	-10.357
▁dəyişdi	-10.3571
▁Federasiyası	-10.3572
▁qurtar	-10.3574
sur	-10.3575
▁ili	-10.3577
▁səfiri	-10.3579
tit	-10.3581
▁BDU	-10.3581
▁bilik	-10.3582
▁süd	-10.3584
▁sürü	-10.3585
▁50-	-10.3588
▁Ala	-10.3589
qay	-10.3591
çək	-10.3591
end	-10.3591
▁Göl	-10.3593
▁sinfi	-10.3595
▁bilavasitə	-10.3596
▁Yaqub	-10.3596
▁mahalı	-10.3597
bol	-10.3598
▁1943-	-10.3609
▁Tər	-10.3612
▁İrlandiya	-10.362
vey	-10.3629
▁kəsb	-10.3633
▁oktyabrın	-10.3636
▁Yunanıstan	-10.3636
fo	-10.3637
ıcı	-10.3637
▁alındı	-10.3638
▁şərt	-10.3641
▁vəsaiti	-10.3643
▁xəstəliyin	-10.3643
▁əvəzinə	-10.3644
▁tutulmuş	-10.3646
▁arı	-10.3648
▁analiz	-10.3651
▁əla	-10.3652
▁Niderland	-10.3652
▁ittiham	-10.3652
▁2002	-10.3654
▁Məz	-10.3654
▁Yaponiyada	-10.3656
ava	-10.3657
▁dilindən	-10.3662
▁qı	-10.3662
▁tük	-10.3662
▁mo	-10.3666
▁nəticələri	-10.3666
tiv	-10.3668
▁Mari	-10.3671
qı	-10.3671
▁Saray	-10.3681
▁1923-	-10.3681
▁qoyun	-10.3683
▁noyabrın	-10.3683
▁başında	-10.3683
▁Şu	-10.3685
ılmışdır	-10.3686
▁ge	-10.3688
logiya	-10.3693
▁tikilmişdir	-10.3695
elli	-10.3697
▁karyerası	-10.3698
▁savaş	-10.3699
.8	-10.3701
raf	-10.3706
lub	-10.3708
▁Qanun	-10.3709
▁bala	-10.3712
▁İqtisadiyyat	-10.3713
ct	-10.3716
elin	-10.3717
▁qələm	-10.3719
▁qüvvəsi	-10.3728
.7	-10.3731
▁heyət	-10.3733
tim	-10.3733
▁Bat	-10.3735
▁almağa	-10.3735
▁təhlükəli	-10.3736
▁məsuliyyət	-10.3742
ин	-10.3744
▁əkinçilik	-10.3745
▁xəstəliyi	-10.3745
▁arxasında	-10.3745
▁Teatrında	-10.3747
▁kosmik	-10.3758
▁ekoloji	-10.3758
▁axtarış	-10.3758
oba	-10.376
▁uğursuz	-10.376
muşdur	-10.3767
▁ideal	-10.3768
▁ideya	-10.3768
▁meydanı	-10.3769
▁dişi	-10.3772
set	-10.3774
▁əzələ	-10.3774
▁Sahil	-10.3775
▁ərazisindən	-10.3782
▁təcrübəsi	-10.3782
▁kitabları	-10.3783
▁Tahir	-10.3783
▁məşqçi	-10.3783
▁er	-10.3787
▁Yaşayış	-10.379
kər	-10.3794
▁1931-	-10.3794
yr	-10.3797
▁yerləş	-10.3799
▁MR	-10.38
▁araşdırmalar	-10.3803
nc	-10.3807
▁Mükafatı	-10.3809
rom	-10.381
▁dəyəri	-10.3813
▁Cəmiyyətinin	-10.3816
ral	-10.3816
▁Nor	-10.3821
▁mahnıları	-10.3825
▁Vyana	-10.3826
sko	-10.3831
▁ilində	-10.3831
▁bəyan	-10.3835
▁Livan	-10.3839
▁istirahət	-10.3839
▁dərk	-10.384
▁etməli	-10.384
▁bölgəsinin	-10.3845
tasiya	-10.3845
▁mane	-10.3848
▁diqqəti	-10.3849
▁müddətində	-10.385
▁tər	-10.3853
▁texnikası	-10.3854
▁1936-	-10.3856
▁72	-10.3856
▁üzərindəki	-10.3859
▁Han	-10.3859
tus	-10.3862
▁xahiş	-10.3865
▁satışa	-10.3867
72	-10.3867
▁Aslan	-10.387
▁seçilmiş	-10.387
▁əsrlərə	-10.3877
pen	-10.3879
▁maddələrin	-10.3882
▁dairəvi	-10.3884
▁46	-10.3885
▁mil	-10.3885
▁əsaslı	-10.3885
tinin	-10.3889
▁seriyası	-10.3894
▁verməyə	-10.3895
pat	-10.3897
▁əsərlərinin	-10.3899
▁gəldiyi	-10.3899
▁kitabə	-10.39
▁göndərir	-10.39
▁Sel	-10.3902
▁hədəf	-10.3903
usun	-10.3903
▁Rəşid	-10.3905
▁olmasa	-10.3907
▁Litva	-10.3907
▁Zaqatala	-10.3908
▁Sey	-10.3909
▁anbarı	-10.391
urdu	-10.3913
▁Boz	-10.3914
▁hərbçi	-10.3915
89	-10.3915
▁1,5	-10.3917
▁dəstələri	-10.3921
▁Nigeriya	-10.3921
▁işğalı	-10.3923
əyə	-10.3928
▁Yaxşı	-10.3929
▁metod	-10.3931
əzə	-10.3937
▁rahat	-10.3937
▁siz	-10.3941
imiz	-10.3942
▁üsulları	-10.3945
laraq	-10.3947
▁geoloji	-10.3947
xanlı	-10.3951
▁sahibdir	-10.3954
▁edək	-10.3961
▁avqustun	-10.3961
▁əlaqəsi	-10.3963
▁məntəqələri	-10.3966
▁ailəsinin	-10.3968
bb	-10.3969
▁möhtəşəm	-10.3971
▁məhrum	-10.3971
▁Ax	-10.3973
eb	-10.3973
ен	-10.3974
▁sən	-10.3977
▁çılpaq	-10.3979
▁Fizika	-10.3979
▁iyulun	-10.3982
▁mədəniyyətinin	-10.3984
▁Parlament	-10.3985
qərbində	-10.3986
▁nəhayət	-10.3987
▁bayramı	-10.3994
▁simvolu	-10.3994
▁idarəsi	-10.3996
▁monqol	-10.3998
vər	-10.3998
etmə	-10.4001
▁Ste	-10.4003
▁Şotlandiya	-10.4004
kas	-10.4004
▁sərkərdə	-10.4005
▁yaddaş	-10.4008
▁canlandır	-10.401
81	-10.4015
sidir	-10.4017
▁pillə	-10.402
▁tərəfdarları	-10.402
▁klubuna	-10.4025
▁sistemləri	-10.4025
▁kv	-10.4028
▁tapır	-10.4029
▁görən	-10.403
▁gə	-10.4031
▁adlandırırlar	-10.4033
▁Kino	-10.4034
şu	-10.4037
▁boy	-10.4039
anlar	-10.404
▁Fo	-10.4041
bl	-10.4045
lli	-10.4047
sıdır	-10.4051
▁tutulur	-10.4052
▁populyar	-10.4053
▁qəzası	-10.4056
▁sarayında	-10.4056
▁VIII	-10.4057
ləşən	-10.4058
▁1952-	-10.4059
▁bərabərdir	-10.4059
▁şəhərlərində	-10.4063
▁Paşanın	-10.4066
▁nəsli	-10.4066
▁bioloji	-10.4066
▁Əs	-10.4066
▁bitkilərin	-10.4067
▁iqlimi	-10.4067
▁Vil	-10.4069
▁İlin	-10.4069
yd	-10.407
▁paralel	-10.4071
rp	-10.4071
▁uşaqları	-10.4072
▁2003	-10.4073
▁qurban	-10.4074
▁vurub	-10.408
▁bazası	-10.4081
▁yuxarıda	-10.4086
▁nəşriyyatı	-10.409
▁64	-10.409
▁simvol	-10.4095
▁Para	-10.4096
mm	-10.4097
▁Es	-10.4097
eo	-10.41
ıx	-10.4101
31	-10.4102
▁magistr	-10.4104
▁törə	-10.4105
ino	-10.4106
▁Yəni	-10.4106
▁hücumu	-10.4117
▁Dünyanın	-10.4118
itlər	-10.4121
ore	-10.4123
▁Qum	-10.4125
▁Çempionatı	-10.4127
▁təzə	-10.4127
▁azı	-10.4127
əf	-10.4128
▁gələcəkdə	-10.4131
AN	-10.4135
▁Port	-10.4137
▁Kap	-10.4139
hid	-10.414
▁xalqların	-10.4142
▁usta	-10.4145
ap	-10.4145
▁qazanır	-10.4149
▁Liqası	-10.4149
▁yüksəklik	-10.4151
-3	-10.4153
ləşdirilmişdir	-10.4153
▁PKK	-10.4155
▁istifadəsi	-10.4161
▁bütöv	-10.4163
atlar	-10.4163
▁axını	-10.4163
▁yolunun	-10.4167
▁şəxsiyyət	-10.4168
▁mənada	-10.4174
▁əsgərləri	-10.4174
▁uca	-10.4179
məkdədir	-10.4179
bal	-10.4182
▁termini	-10.4183
▁imperatoru	-10.4185
▁Den	-10.4188
▁Nəhayət	-10.4189
▁alınma	-10.4193
▁istər	-10.4194
form	-10.4195
▁ittifaq	-10.4197
▁Pat	-10.4204
▁müşayiət	-10.4206
▁Tovuz	-10.4206
▁dəyiş	-10.4211
▁ru	-10.4213
▁qazı	-10.4216
▁1905-	-10.4219
▁polkovnik	-10.4219
▁mülayim	-10.4223
▁bizə	-10.4223
▁Qri	-10.4224
▁gö	-10.4226
▁kö	-10.4227
▁səviyyəsində	-10.4228
▁hündürlükdə	-10.4228
▁İsti	-10.4228
52	-10.4228
ünə	-10.4234
▁Mis	-10.4236
▁tərbiyə	-10.4242
▁aparmışdır	-10.4246
▁hökumətinin	-10.4246
matik	-10.4248
şin	-10.425
▁haqq	-10.4255
▁mənə	-10.4262
ladı	-10.4264
ea	-10.4269
▁kafedra	-10.4269
▁1.	-10.4272
dikləri	-10.4273
55	-10.4278
▁çıxardı	-10.428
67	-10.4282
▁narahat	-10.4283
▁oxu	-10.4284
▁jurnalında	-10.4288
▁Argentina	-10.4291
▁18-	-10.4294
rən	-10.4294
▁qoca	-10.4296
▁şəxslərin	-10.4297
▁Heç	-10.4298
▁qurulmuşdur	-10.4304
▁tayfasının	-10.4305
▁dizayn	-10.4306
▁mövqeyi	-10.4309
Ba	-10.4311
▁marağı	-10.4312
▁qəsəbəsində	-10.4313
51	-10.4313
▁gəlmişdi	-10.4315
▁təşkili	-10.4315
▁Universitetin	-10.4315
▁aparılmış	-10.4318
▁məhəllə	-10.4318
▁toy	-10.4319
▁du	-10.4319
▁əməyi	-10.432
▁müəssisə	-10.4324
▁11-	-10.4324
▁Fer	-10.4324
▁elektro	-10.4326
▁ştatının	-10.4329
▁hissəsinə	-10.433
▁bölməsi	-10.4335
▁Ağayev	-10.4335
▁dərinliyi	-10.4338
▁IX	-10.4339
▁tayfaları	-10.434
▁qazanan	-10.4342
▁Rio	-10.4342
▁intensiv	-10.4345
▁faktor	-10.4348
▁övladları	-10.4348
irlər	-10.4349
▁insanlara	-10.4349
▁Urmiya	-10.4352
lif	-10.4353
▁Yanvar	-10.4354
▁diqqətini	-10.4357
▁Henri	-10.4358
▁tərcüməçi	-10.4361
aç	-10.4362
▁çə	-10.4366
▁məlumatı	-10.4366
▁nəql	-10.4367
varı	-10.4372
77	-10.4372
▁Uzunluğu	-10.4374
▁Gürcüstanın	-10.4375
▁gen	-10.4375
▁Mixail	-10.4377
-10	-10.438
▁tağ	-10.4381
▁serial	-10.4384
▁tövsiyə	-10.4386
▁yurd	-10.4389
▁ölçüsü	-10.439
▁faza	-10.4391
ero	-10.4393
▁əşyaları	-10.4393
ardı	-10.44
▁bol	-10.4402
▁adada	-10.4403
▁ayırır	-10.4409
▁Far	-10.441
ord	-10.441
▁yarandı	-10.4412
▁şir	-10.4413
▁heykəli	-10.4414
▁vurğu	-10.4417
asiyası	-10.4419
▁Professor	-10.442
▁alçaq	-10.4421
▁40-	-10.4425
▁kürə	-10.4426
▁mədə	-10.4429
▁boyun	-10.4433
▁xərc	-10.4433
▁yuva	-10.4434
▁beyin	-10.4436
▁hissəyə	-10.444
▁teatrı	-10.444
tür	-10.4442
▁47	-10.4444
▁Yaşıl	-10.4447
▁gərgin	-10.4448
▁məqalələr	-10.445
▁Şü	-10.445
▁babası	-10.4451
▁vətəni	-10.4452
▁Rumıniya	-10.4455
▁man	-10.4457
▁600	-10.4458
▁prosesində	-10.446
▁türbəsi	-10.4463
▁çı	-10.4465
ер	-10.4466
▁Dr	-10.4467
▁dəyişən	-10.4468
▁nömrə	-10.4469
ırlar	-10.4472
▁alması	-10.4473
▁qəti	-10.4473
▁ustası	-10.4478
▁gördü	-10.4482
▁bitkiləri	-10.4485
▁Məclisinin	-10.4487
tru	-10.4491
▁stansiya	-10.4493
▁dilini	-10.4495
▁fevralın	-10.4496
▁strukturu	-10.4496
▁Qur	-10.4496
siniz	-10.4502
▁Zaman	-10.4509
▁Bağ	-10.451
▁torpağın	-10.4512
▁keç	-10.4514
▁əlaqədardır	-10.4515
200	-10.4516
▁Hollandiya	-10.4516
▁Siyasi	-10.4516
▁Oskar	-10.4517
▁latın	-10.4518
▁silsiləsi	-10.4518
▁lent	-10.452
▁şəhərə	-10.4522
▁müstəqilliyini	-10.4523
▁yoldaşları	-10.4523
▁edildikdə	-10.4523
▁müstəqillik	-10.4524
vat	-10.4526
▁vasitələri	-10.4528
▁Key	-10.4531
▁uşaqların	-10.4533
73	-10.4533
▁azərbaycan	-10.4537
▁İm	-10.4538
▁damar	-10.4543
▁Şirvanşah	-10.4543
pur	-10.4545
▁öyrənmək	-10.4549
stra	-10.455
▁sarayın	-10.4553
▁Mel	-10.4555
▁Üzeyir	-10.456
▁deyilən	-10.4562
▁tərif	-10.4562
▁əmir	-10.4563
▁demişdir	-10.4566
▁Orada	-10.4567
▁göstərici	-10.457
▁Mey	-10.4571
▁qovuş	-10.4573
▁istədi	-10.4573
▁dənizində	-10.4574
qaya	-10.4579
▁müharibəsinin	-10.4579
▁vuruş	-10.4585
dilli	-10.4585
sər	-10.4587
▁Demokratik	-10.4589
▁sınaq	-10.4591
▁söy	-10.4591
ddi	-10.4592
▁adamlar	-10.4594
▁texnologiyası	-10.4595
▁Komanda	-10.4598
▁üzüm	-10.4602
▁qurğu	-10.4604
▁tədqiqatçılar	-10.4606
▁işlərinin	-10.4606
▁musiqiçi	-10.4609
ene	-10.461
▁texnologiyaları	-10.4611
▁salır	-10.4611
▁Xocalı	-10.4612
▁bədənin	-10.4613
▁səy	-10.4614
▁növbəsində	-10.4615
▁rəqəm	-10.4616
▁dayan	-10.4617
▁özündən	-10.4618
▁olmadığını	-10.4618
▁Türkmənistan	-10.4622
▁işləmiş	-10.4626
daşı	-10.4631
onim	-10.4636
▁göstərilən	-10.4637
49	-10.4639
▁reklam	-10.464
▁qoyulur	-10.4642
▁Quran	-10.4642
▁qəzasının	-10.4642
▁Babayev	-10.4643
▁Geologiya	-10.4644
▁za	-10.4645
▁şəhərini	-10.4645
▁həlli	-10.4647
▁İdarə	-10.4647
▁Muzeyi	-10.4648
ora	-10.4648
ilməsi	-10.4651
▁Məs	-10.4653
▁1992	-10.4655
▁məsul	-10.4656
bas	-10.4656
izə	-10.4659
▁seçilən	-10.466
▁hi	-10.4662
nunun	-10.4665
▁filosof	-10.4665
59	-10.4665
▁xə	-10.4666
▁Əm	-10.4669
▁Ed	-10.4675
▁fakültə	-10.4675
▁kredit	-10.4675
▁Çə	-10.4681
▁standart	-10.4682
▁mühitin	-10.4684
▁amerikalı	-10.4684
▁çəkmə	-10.4689
▁ərazinin	-10.4689
layıb	-10.4692
▁antik	-10.4692
▁Alt	-10.4694
▁Ön	-10.4695
▁ә	-10.4696
▁sona	-10.47
▁Kom	-10.4705
▁16-	-10.4708
▁bunların	-10.4713
▁toz	-10.4714
ök	-10.4715
▁regional	-10.4716
▁xalqlarının	-10.472
▁heyvandarlıq	-10.472
▁yarpaqları	-10.4722
Press	-10.4723
▁Avqust	-10.4725
avi	-10.4726
məyən	-10.4727
gan	-10.4728
▁1932-	-10.4729
▁Lev	-10.4729
▁ölü	-10.473
А	-10.473
iqtisadi	-10.473
lıqda	-10.4731
▁mühasirəyə	-10.4735
▁180	-10.4735
▁250	-10.4736
ləndirmə	-10.4737
▁Lü	-10.4737
ssi	-10.4738
▁Yapon	-10.4739
▁silsilə	-10.4739
yevin	-10.474
Azərbaycan	-10.474
▁prinsipi	-10.4744
▁doqquz	-10.4747
▁məcburiyyətində	-10.4747
▁Anti	-10.4749
▁heykəl	-10.475
▁17-	-10.475
ləşdirmək	-10.4753
metr	-10.4753
▁Məcnun	-10.4755
▁seçilib	-10.4757
▁yaradıcılığında	-10.4758
▁Adi	-10.4759
▁sar	-10.4763
▁Mərkəz	-10.4766
▁xarakterizə	-10.4766
▁təklifi	-10.4767
▁dəqiqləşdirmə	-10.4768
▁qarış	-10.4771
cuq	-10.4771
▁Layihə	-10.4774
ktiv	-10.4774
▁Ziya	-10.4778
dis	-10.4778
▁Adı	-10.478
53	-10.4783
▁Çində	-10.4785
zir	-10.4789
adək	-10.4796
▁əsgəri	-10.4797
▁taxıl	-10.4798
▁müstəmləkə	-10.48
▁Həmid	-10.48
▁cəbhə	-10.4802
▁Bol	-10.4802
dıqda	-10.4803
▁Mustafayev	-10.4804
▁karbon	-10.4804
▁qazana	-10.4807
tion	-10.4808
▁diş	-10.4809
Sa	-10.4812
▁cəza	-10.4816
▁Un	-10.4817
▁imtahan	-10.4819
▁Lə	-10.4821
çin	-10.4824
likdə	-10.4827
und	-10.4827
berq	-10.4828
▁texnologiya	-10.483
▁mənbələri	-10.4831
▁49	-10.4833
▁dərə	-10.4835
▁əziyyət	-10.4837
kil	-10.4838
say	-10.4838
▁yatağı	-10.4842
-16	-10.4843
iye	-10.4844
▁mərkəzləri	-10.4844
▁dostluq	-10.4848
▁etmişdilər	-10.4849
dri	-10.4849
▁qur	-10.4849
▁adında	-10.4852
▁göstərib	-10.4856
▁yarışlarda	-10.4857
ef	-10.4857
▁hərəkat	-10.4862
▁rəqib	-10.4865
▁tökülür	-10.4868
▁Şəmkir	-10.4873
▁şeirləri	-10.4875
▁Əsər	-10.4875
▁ağız	-10.4876
▁1914-	-10.4878
▁fərman	-10.4881
▁yandır	-10.4881
▁Əslində	-10.4885
öyü	-10.4885
kl	-10.4892
▁Tərtər	-10.4892
▁Bizim	-10.4895
▁cı	-10.4896
əş	-10.4898
▁şeyi	-10.49
istlər	-10.4903
ksiya	-10.4905
▁çalışmış	-10.4906
▁58	-10.4907
▁şöbəsində	-10.4908
▁Dər	-10.491
lur	-10.491
sus	-10.491
▁abidələri	-10.4911
▁sahili	-10.4913
▁yazıb	-10.4915
▁yad	-10.4916
▁sözlə	-10.4918
▁konkret	-10.4918
▁1924-	-10.4919
▁versiya	-10.4919
▁sorğu	-10.4919
▁əsaslanır	-10.4922
▁Ox	-10.4922
ix	-10.4922
▁iti	-10.4925
▁enli	-10.4926
▁İbrahimov	-10.493
▁xadimləri	-10.493
cer	-10.4931
▁açır	-10.4934
▁ro	-10.4937
arın	-10.4938
▁heyvanların	-10.4939
▁Ərazi	-10.4943
▁riyazi	-10.4946
▁seçmə	-10.4947
Ü	-10.4949
▁vurdu	-10.495
▁təminatı	-10.495
▁qurulmuş	-10.4951
▁zavodu	-10.4952
lum	-10.4953
▁məktəbinə	-10.4955
▁kal	-10.4957
▁Gil	-10.4957
▁Meşə	-10.4959
▁bilmişdir	-10.4961
▁çəkdi	-10.4962
▁yığma	-10.4964
▁sərnişin	-10.4964
▁Finlandiya	-10.4964
▁saç	-10.4964
kimyəvi	-10.4968
▁Martin	-10.4968
▁160	-10.4968
▁ərzaq	-10.4974
▁çıxma	-10.4976
əd	-10.498
ğını	-10.498
▁nəticələr	-10.4981
ф	-10.4982
▁Köhnə	-10.4983
▁sümük	-10.4984
▁çəkmək	-10.4984
▁səma	-10.4989
rk	-10.4991
dadır	-10.4991
fat	-10.4993
▁For	-10.4997
▁fikirlər	-10.4998
▁ittifaqı	-10.4999
▁Abbasov	-10.5002
▁54	-10.5003
▁əsərlərini	-10.5004
▁ətrafı	-10.5006
▁üstə	-10.5007
▁Cavid	-10.5008
▁İtaliyanın	-10.5016
▁inşası	-10.5018
▁sülaləsinin	-10.5019
▁1933-	-10.502
▁mübadiləsi	-10.5026
▁şəxsin	-10.5028
▁Gədəbəy	-10.5028
leri	-10.5031
▁səthində	-10.5032
ola	-10.5034
▁Ce	-10.5035
▁yerlərində	-10.5036
▁çəkisi	-10.5036
▁demokratik	-10.5038
coğrafi	-10.5042
▁qr	-10.5045
vaz	-10.5046
▁İmperator	-10.5047
▁mahalının	-10.5048
▁aktı	-10.5049
▁kitablar	-10.5051
▁respublikanın	-10.5051
▁şübhə	-10.5052
iti	-10.5052
▁şiş	-10.5052
▁klubunun	-10.5052
▁Cəmiyyəti	-10.5055
▁Bitki	-10.5061
▁çayları	-10.5063
▁Həmrəyliyi	-10.5065
▁qaynaq	-10.507
dun	-10.5071
▁birliyi	-10.5072
▁işlədiyi	-10.5074
▁məhkum	-10.5075
süz	-10.5075
▁Müsabiqəsində	-10.5078
▁Xi	-10.5078
bon	-10.5081
▁debüt	-10.5084
teri	-10.509
▁emal	-10.5091
▁oyunları	-10.5092
▁həssas	-10.5093
▁yastı	-10.5095
▁qoyulmuş	-10.5096
▁okeanın	-10.5097
▁bölgələrində	-10.5098
57	-10.5101
54	-10.5103
▁Bankı	-10.5106
▁hissi	-10.5107
▁Tomas	-10.5108
▁gövdə	-10.5114
▁knyaz	-10.5116
illi	-10.5117
məlidir	-10.5117
məklə	-10.5118
▁geo	-10.5119
▁turnir	-10.5121
▁filmlər	-10.5121
▁qüvvələrin	-10.5126
yın	-10.5127
▁içəri	-10.5129
▁Kərimov	-10.5129
▁kuboku	-10.5129
▁özlərini	-10.513
▁buraya	-10.5132
▁mar	-10.5132
▁Adil	-10.5133
▁kənarında	-10.5135
skinin	-10.5137
▁Polis	-10.5138
▁sintez	-10.5138
▁Je	-10.5138
çiləri	-10.514
▁getdikcə	-10.514
dikdən	-10.514
▁basqın	-10.5141
▁əli	-10.5141
vel	-10.5141
▁tapılmışdır	-10.5142
▁qoşunlarının	-10.5143
61	-10.5144
ilmişdir	-10.5147
▁2001	-10.5147
▁Papa	-10.5149
pin	-10.5149
etik	-10.515
▁şəbəkəsi	-10.5152
▁inşaat	-10.5153
▁Altay	-10.5154
▁Qab	-10.5155
▁nümunəsi	-10.5159
▁bağı	-10.5161
nal	-10.5163
▁1951-	-10.5163
zon	-10.5167
▁dis	-10.5167
▁tik	-10.5168
▁Nəriman	-10.5171
▁Sabir	-10.5171
▁fe	-10.5172
ham	-10.5173
▁qayıtdı	-10.5178
▁qalxan	-10.5179
▁süxurların	-10.518
mişlər	-10.5181
▁nüsxə	-10.5182
▁David	-10.5184
▁cəmiyyətinin	-10.5185
▁İz	-10.5187
▁gi	-10.5189
mba	-10.5189
▁uşaqlıq	-10.519
▁bakalavr	-10.5196
rid	-10.5198
46	-10.5199
ом	-10.5199
duq	-10.5201
▁Qaz	-10.5202
▁New	-10.5203
▁oğulları	-10.5204
▁asılıdır	-10.5205
▁sığorta	-10.5205
▁meyl	-10.5205
▁Torpağı	-10.5205
▁əlifbası	-10.5206
▁bayraq	-10.5206
əti	-10.5207
▁element	-10.5209
▁Rəsul	-10.5211
▁düşməsi	-10.5217
▁Ruh	-10.5219
fil	-10.5221
▁İndoneziya	-10.5224
▁Şe	-10.5225
▁Hol	-10.5226
▁Rəhim	-10.5227
▁təşkilatının	-10.5228
▁Leyli	-10.5228
▁məhsuldar	-10.5229
▁53	-10.5229
▁adlanırdı	-10.523
▁qüvvələrinin	-10.5232
▁məşhurdur	-10.5236
▁bilirlər	-10.5236
▁yanacaq	-10.5238
ine	-10.5239
vənd	-10.524
▁katolik	-10.524
mışlar	-10.524
▁Salyan	-10.5241
▁şə	-10.5241
▁mənşəyi	-10.5242
▁gözü	-10.5243
▁Əkbər	-10.5243
▁bərpası	-10.5244
▁sərəncamı	-10.5252
▁sakini	-10.5255
▁51	-10.5255
▁məqsədlə	-10.5256
▁yüksəklikdə	-10.5257
▁qal	-10.526
▁İsfahan	-10.5262
▁yazıları	-10.5262
▁keçə	-10.5264
▁Cümhuriyyətinin	-10.5268
▁komandanı	-10.5271
▁komediya	-10.5277
▁Gü	-10.5278
▁ərazini	-10.5279
▁Növbəti	-10.5281
▁Fri	-10.5281
olo	-10.5282
▁məscidin	-10.5284
▁hissədən	-10.5287
▁uzunluğunda	-10.5287
▁proseslər	-10.5288
▁hazırlanmasında	-10.5289
▁müdafiəsi	-10.529
▁çəkildi	-10.5291
▁təbliğ	-10.5297
▁Cəlil	-10.5299
ius	-10.53
▁Nəzər	-10.5301
bala	-10.5304
▁hakimiyyətinin	-10.5312
▁xəstəxana	-10.5318
▁seçim	-10.5318
▁hissələrində	-10.5324
▁sahələr	-10.5325
▁13-	-10.5326
▁tu	-10.5326
▁bölgəsi	-10.5328
▁tar	-10.5329
yur	-10.5329
▁Kazım	-10.5332
▁inqilab	-10.5333
▁1929-	-10.5333
ec	-10.5336
▁Bağdad	-10.5337
▁1934-	-10.5338
əbə	-10.5338
düyü	-10.5338
▁Culfa	-10.5339
▁kollektiv	-10.5339
▁56	-10.534
▁həyət	-10.5343
▁ağrı	-10.5344
▁bomba	-10.5344
mor	-10.5346
▁Amerikanın	-10.5349
▁Novruz	-10.5351
▁Sonrakı	-10.5353
çilərin	-10.5354
nmış	-10.5355
▁Hindistanda	-10.5362
▁hazırlayır	-10.5364
▁Wi	-10.5366
▁Sk	-10.5367
▁paltar	-10.5374
▁artırılması	-10.5378
▁halına	-10.538
kur	-10.538
layaraq	-10.5381
▁Real	-10.5382
işi	-10.5383
▁əmisi	-10.5384
▁aş	-10.5385
▁Qadın	-10.5388
▁Məh	-10.5388
▁müqayisədə	-10.5391
▁tarixçi	-10.5391
▁yolunda	-10.5397
laşan	-10.5399
masını	-10.5399
▁məktəbə	-10.5399
▁katib	-10.54
▁Sil	-10.54
▁yarış	-10.5404
▁çıxarılması	-10.5407
▁Ol	-10.5409
▁qalınlığı	-10.541
▁14-	-10.5414
▁rayonları	-10.5417
▁dəstəklə	-10.5417
▁Televiziya	-10.5419
▁fövqəladə	-10.5423
▁Daşkənd	-10.5426
▁hamar	-10.5427
ston	-10.543
▁Ələkbər	-10.5433
▁Ailəlidir	-10.5434
▁Məktəb	-10.5436
▁mübahisə	-10.5438
▁gü	-10.5439
▁hekayəsi	-10.5443
ena	-10.5445
▁Kra	-10.5448
▁səth	-10.545
▁70-	-10.5451
▁Cen	-10.5452
ləndirir	-10.5457
ülü	-10.5464
▁varlı	-10.5464
▁istiqaməti	-10.5466
▁sultanı	-10.5467
▁enerjisi	-10.5467
▁Venesiya	-10.5472
▁Göz	-10.5472
luğa	-10.5476
▁şəhərindəki	-10.5481
▁orbit	-10.5482
▁Los	-10.5483
▁1996	-10.5484
▁ərazilər	-10.5485
lyasiya	-10.5485
▁əsərini	-10.5485
▁ehtiyatları	-10.5486
asının	-10.5491
▁əməkdaşları	-10.5492
▁aralarında	-10.5495
▁Düz	-10.5495
▁Seylo	-10.5496
lus	-10.55
rdı	-10.5502
▁Qan	-10.5504
▁verərək	-10.5505
▁xanlığının	-10.5505
▁63	-10.5507
▁tele	-10.5508
qın	-10.5508
▁məbədi	-10.551
▁birləşməsi	-10.551
uri	-10.551
▁məruzə	-10.5511
▁vaxtında	-10.5512
▁türklər	-10.5512
▁Bax	-10.5512
▁oradan	-10.5513
▁doğum	-10.5515
▁Söz	-10.5519
▁dinc	-10.5522
▁üstünə	-10.5523
▁oyunun	-10.5525
▁Parkı	-10.5525
laşdırır	-10.5528
▁açılışı	-10.5528
▁Madrid	-10.553
▁zədə	-10.5534
▁Kolleci	-10.5534
sp	-10.5538
nar	-10.5542
▁sər	-10.5544
▁FİFA	-10.5549
▁mahnılar	-10.5551
▁kart	-10.5551
▁mütəxəssislər	-10.5553
▁1999	-10.5556
▁www	-10.5559
▁varlıq	-10.5559
▁nəfərə	-10.556
▁Bura	-10.5561
▁biologiya	-10.5561
yır	-10.5565
▁universiteti	-10.557
▁əməliyyatlar	-10.5571
ləmək	-10.5572
▁burun	-10.5577
ündə	-10.5578
▁Rəyasət	-10.5578
▁işinə	-10.5583
▁gey	-10.5584
▁yaradılır	-10.5585
-12	-10.5586
iyev	-10.5586
▁ndə	-10.5589
▁şəxsə	-10.5592
▁zəngindir	-10.5595
naya	-10.5598
▁XXXI	-10.5599
▁buzlaq	-10.5599
▁düşmüş	-10.5602
▁bildirmişdir	-10.5605
▁Hay	-10.5606
▁Britaniyanın	-10.5606
▁dərslik	-10.5607
▁Bəhram	-10.5608
qla	-10.5608
▁məşqçisi	-10.5609
▁dildə	-10.561
lib	-10.5613
▁bilmək	-10.5614
Ha	-10.5616
▁pi	-10.5616
▁Yerin	-10.5617
lerin	-10.5618
▁taxt	-10.5619
▁köməkçisi	-10.5621
▁zəng	-10.5627
▁Kipr	-10.5632
▁ediblər	-10.5636
▁1991	-10.5637
mizdə	-10.5643
▁görüb	-10.5644
▁tapa	-10.5645
▁liqa	-10.5646
▁п	-10.5647
▁bəstə	-10.5648
▁nəslindən	-10.565
▁Fil	-10.565
▁təhlil	-10.5652
▁etməsinə	-10.5655
ли	-10.5656
ight	-10.566
▁təşkilatın	-10.566
▁100-	-10.566
▁sözlərindən	-10.566
▁trans	-10.5661
▁süjet	-10.5665
▁turşusu	-10.5666
▁nəfəs	-10.5667
▁mərasim	-10.5668
▁Mur	-10.5669
▁məzun	-10.5672
▁fəsil	-10.5674
▁Leninqrad	-10.5676
▁danışır	-10.5677
▁dön	-10.5678
▁Mənim	-10.5679
▁olanlar	-10.5683
▁vermir	-10.5683
▁kanal	-10.5687
▁Əmin	-10.5688
ız	-10.5689
▁Qars	-10.5691
▁olmağı	-10.5693
up	-10.5694
▁General	-10.5696
che	-10.5698
ose	-10.5698
▁poema	-10.5699
▁adanın	-10.5699
▁nüfuz	-10.57
▁tutulan	-10.5701
ob	-10.5702
▁hüquqları	-10.5704
▁vitse	-10.5706
▁çağ	-10.5711
▁ayə	-10.5715
▁qurdu	-10.5716
▁qruplar	-10.5716
▁beşinci	-10.5716
▁buradan	-10.5717
▁hesabla	-10.5717
eyi	-10.5723
▁getmək	-10.5726
▁Muzey	-10.5727
ste	-10.5729
liş	-10.5731
▁pan	-10.5732
vet	-10.5735
▁Yəhya	-10.5735
▁tapmaq	-10.5737
▁zi	-10.5743
▁Af	-10.5745
▁tra	-10.5748
lla	-10.5749
▁çatdır	-10.5751
▁çarı	-10.5753
▁ədəbiyyatının	-10.5753
▁Peterburq	-10.5754
▁sıxlığı	-10.5758
▁prinsipləri	-10.5759
▁çi	-10.576
▁axşam	-10.5762
▁sərhədləri	-10.5762
▁ud	-10.5764
.9	-10.5765
ms	-10.5767
iyada	-10.5769
▁ölçüləri	-10.577
loq	-10.5771
▁sahəsinin	-10.5772
▁tamaşa	-10.5773
▁Qubadlı	-10.5775
▁bilməyən	-10.5775
▁28-	-10.5776
▁gündə	-10.5777
▁liman	-10.5778
▁Albom	-10.5779
▁gəldikdə	-10.5782
▁Eldar	-10.5783
ullah	-10.5783
▁ins	-10.5783
▁Fələstin	-10.5785
▁studiya	-10.5785
▁maqnit	-10.5789
usu	-10.5789
▁çempionatı	-10.579
▁müvəffəqiyyətlə	-10.5792
▁dəyər	-10.5796
▁ifadəsi	-10.5797
▁tərəfdə	-10.5798
▁Tü	-10.5799
adam	-10.58
▁Yeddi	-10.5806
▁800	-10.5808
▁Dur	-10.5812
▁1925-	-10.5813
▁Şərəf	-10.5815
riyaziyyat	-10.5816
▁vaxtlarda	-10.582
▁aləti	-10.5823
▁doğulmuşdur	-10.5824
▁yaxınlığındakı	-10.5824
▁yaradıcısı	-10.5825
▁Cahangir	-10.5825
▁bulud	-10.5825
▁yem	-10.5826
▁Ham	-10.5826
▁çalış	-10.5828
▁buraxılmışdır	-10.5834
xu	-10.5838
▁tarixçisi	-10.5841
ranın	-10.5843
lak	-10.5844
▁kommunist	-10.5845
rah	-10.5845
▁qılınc	-10.5846
▁Qurbanov	-10.5848
eviç	-10.5849
▁burax	-10.5849
▁dua	-10.585
nız	-10.5854
ия	-10.5855
▁doğulub	-10.5855
▁barəsində	-10.5855
▁Təbiət	-10.5855
▁Nəcəf	-10.5859
▁Müəllif	-10.5865
▁Lin	-10.5869
▁1993	-10.5871
▁im	-10.5871
▁tutma	-10.5872
▁bac	-10.5873
rinin	-10.5874
▁məhsulu	-10.5878
-4	-10.5881
▁beləliklə	-10.5882
▁diplom	-10.5884
ua	-10.5887
▁təqvimi	-10.5889
▁peyk	-10.5889
▁alət	-10.5892
▁səviyyəli	-10.5894
▁Borçalı	-10.5895
▁başlanğıc	-10.5897
▁Texnologiya	-10.5897
▁üzvlərinin	-10.5898
▁gözlə	-10.5898
▁Serbiya	-10.5898
▁gərək	-10.5898
▁Atlantik	-10.5905
▁bəstəkarı	-10.5905
muz	-10.5907
▁gör	-10.5907
▁pərdə	-10.5909
▁yazılır	-10.5911
ome	-10.5912
▁Tiflisdə	-10.5919
▁Tbilisi	-10.5919
▁Pen	-10.592
▁Ac	-10.5921
▁soy	-10.5921
kor	-10.5923
▁növüdür	-10.5926
morf	-10.5926
▁təzyiqi	-10.5926
▁şərab	-10.5927
layıcı	-10.5928
▁seç	-10.5931
▁evdə	-10.5931
▁əsərlərin	-10.5933
▁Özü	-10.5933
▁ölən	-10.5934
▁York	-10.5935
dər	-10.5939
rib	-10.5939
▁Dey	-10.594
cağı	-10.5941
▁xidmətlərinə	-10.5942
ев	-10.5944
▁Vahid	-10.5946
▁mavi	-10.5948
▁ömür	-10.5948
▁Şərqdə	-10.5956
▁Ulu	-10.5958
▁adasının	-10.5959
▁axar	-10.596
▁azalması	-10.5961
▁kəndinə	-10.5961
▁ək	-10.5961
lıqları	-10.5963
▁Kas	-10.5963
▁qıl	-10.5964
maqdadır	-10.5967
▁Gəncədə	-10.597
▁Sur	-10.5971
anda	-10.5971
▁qəbilə	-10.5972
Ka	-10.5972
ilmiş	-10.5973
▁para	-10.5981
▁media	-10.5981
▁gözləri	-10.5982
▁avto	-10.5984
▁variant	-10.5987
ovka	-10.5988
▁Ənvər	-10.5988
▁kafedrasında	-10.599
▁icma	-10.5991
▁stadion	-10.5994
▁ip	-10.5995
▁xət	-10.5995
▁pambıq	-10.5996
▁nitq	-10.5996
▁birləşmə	-10.5997
▁yaxındır	-10.5997
rif	-10.5998
▁qarın	-10.6001
▁rəvayət	-10.6004
▁görünmə	-10.6004
▁Alma	-10.6006
▁Cəfərov	-10.6007
▁Məhkəmə	-10.6008
tic	-10.6009
▁ayrıldı	-10.601
▁şəkli	-10.6012
▁Qısa	-10.6014
▁62	-10.6016
▁Hündürlüyü	-10.6016
▁xüsusiyyət	-10.6016
▁yarımfinal	-10.6016
▁Toponim	-10.6017
▁ailənin	-10.6018
▁əlaqəli	-10.6021
▁şahmat	-10.6025
▁köməkçi	-10.6028
▁döyüşündə	-10.6028
▁Kuba	-10.6029
▁birləşir	-10.6032
▁deputat	-10.6034
çayın	-10.6036
▁sisteminə	-10.6036
▁aylıq	-10.6037
▁dəyərli	-10.604
▁sənətinin	-10.6041
öh	-10.6043
▁istismar	-10.6044
▁toplusu	-10.6044
likləri	-10.6045
▁1912-	-10.6047
▁Məryəm	-10.6047
gar	-10.6047
▁elementlər	-10.6052
-14	-10.6052
▁tayfası	-10.6054
▁qalması	-10.6054
məsini	-10.6058
▁keçirilib	-10.6058
ow	-10.6065
para	-10.6065
▁məşq	-10.6065
▁yumşaq	-10.6067
▁Adətən	-10.6067
▁1916-	-10.6067
▁sözlərinə	-10.6067
▁Sahəsi	-10.6067
▁otel	-10.6068
▁filiz	-10.607
▁Tre	-10.6074
▁Assosiasiyası	-10.6074
▁balet	-10.6077
▁Rusiyaya	-10.6078
▁olmayaraq	-10.6078
▁rok	-10.6082
▁hadisəsi	-10.6083
▁daşın	-10.6083
▁zal	-10.609
▁axtar	-10.6095
▁1935-	-10.6099
▁sifariş	-10.6102
press	-10.6102
▁Pal	-10.6102
▁nömrəsi	-10.6104
▁rəqabət	-10.6108
▁lo	-10.611
▁müsahibə	-10.6112
likdən	-10.6113
▁dediyi	-10.6114
▁yön	-10.6114
ilmə	-10.6115
▁ixtira	-10.6115
▁otur	-10.6115
▁kod	-10.6118
▁yaranmasına	-10.6123
▁Star	-10.6123
gir	-10.6124
kay	-10.6124
▁Liqa	-10.6126
▁yataqları	-10.6127
▁siyasətçi	-10.6132
▁kollec	-10.6136
izmi	-10.6136
▁1998	-10.6137
▁çəkilməsi	-10.6137
▁Р	-10.6138
▁Göyçay	-10.6139
▁Georgi	-10.6139
▁azadlığı	-10.6139
▁qadınların	-10.6146
▁Londonda	-10.6147
▁Kolumbiya	-10.6149
▁lisenziya	-10.6149
▁tikdir	-10.6153
▁çıx	-10.6155
▁qi	-10.6158
por	-10.6158
▁mənbələrində	-10.6159
▁yayın	-10.616
▁dekabrında	-10.616
qre	-10.6161
AM	-10.6162
▁van	-10.6164
kimya	-10.6164
▁salınmışdır	-10.6165
yərək	-10.6167
▁Təhlükəsizlik	-10.617
▁ostanında	-10.6171
▁izahlı	-10.6172
▁Əfəndiyev	-10.6174
▁test	-10.6175
▁St	-10.6175
▁əsaslanan	-10.6177
▁zonasında	-10.6179
▁ölkəni	-10.618
▁proseslərin	-10.6182
▁Marağa	-10.6185
Mə	-10.6186
▁Ümumdüny	-10.6187
▁Azadlıq	-10.6192
▁Yazıçı	-10.6195
▁molekul	-10.6198
ləşdirici	-10.62
▁İngiltərədə	-10.6202
▁м	-10.6202
▁xalqları	-10.6207
▁Qarabağın	-10.6208
▁oğlunun	-10.6209
▁illəri	-10.6212
yt	-10.6213
▁bitirmiş	-10.6214
enti	-10.6219
▁tədbir	-10.622
▁banisi	-10.6222
▁ing	-10.6227
▁çalışırdı	-10.6229
▁geyin	-10.6233
əsində	-10.6233
7-	-10.6235
▁gedə	-10.6239
▁Oyunlarının	-10.624
▁valideynləri	-10.624
cəyi	-10.624
▁Anası	-10.6241
▁Ok	-10.6245
▁д	-10.6246
▁57	-10.6248
▁qayıdan	-10.6249
▁Gu	-10.625
▁Bağırov	-10.6251
▁Qol	-10.6252
▁Konstitusiya	-10.6252
▁dəyişiklik	-10.6253
yinə	-10.6254
▁yataq	-10.6254
ох	-10.6255
▁İri	-10.6257
▁otaq	-10.6257
▁Dia	-10.6258
▁Çili	-10.6259
▁sor	-10.626
▁Qeyri	-10.6264
▁proqramlar	-10.6264
tl	-10.6265
lır	-10.6272
əcəyi	-10.6272
▁Turizm	-10.6272
ktor	-10.6274
▁Aktyor	-10.6274
▁dekorativ	-10.6274
▁süxur	-10.6275
▁kateqoriya	-10.6275
tdi	-10.6276
▁yazılan	-10.6277
▁əyaləti	-10.6281
▁səp	-10.6283
▁səlahiyyətli	-10.6284
▁yo	-10.6284
▁İskəndər	-10.6284
▁axın	-10.6286
▁oyna	-10.6287
▁dərinlik	-10.6287
▁Əvvəllər	-10.6287
▁şər	-10.6287
▁Dal	-10.6288
▁Alı	-10.629
fik	-10.6294
▁Sent	-10.6295
-18	-10.6297
ırdılar	-10.63
▁nisbəti	-10.63
▁Çinin	-10.6301
aqlı	-10.6301
oto	-10.6303
▁Məşhur	-10.6305
▁Balkan	-10.6308
wa	-10.6309
▁payız	-10.631
▁tədqiqatları	-10.631
sor	-10.6313
▁1928-	-10.6313
▁yazılar	-10.6314
▁vaxtdan	-10.6314
▁mərkəzidir	-10.6315
tov	-10.6316
▁Davud	-10.6319
▁sentyabrında	-10.6321
▁görü	-10.6322
▁kateqoriyası	-10.6326
▁iyirmi	-10.6326
▁Əliyeva	-10.6333
üd	-10.6334
▁qazanmış	-10.6335
yıl	-10.6336
▁igid	-10.6337
▁filialı	-10.6337
indəki	-10.6338
▁partiyası	-10.6342
▁ça	-10.6342
▁mənzərə	-10.6349
▁zərb	-10.6354
▁Ölkədə	-10.6355
▁Viktor	-10.6357
▁1897-	-10.6358
▁adasından	-10.6358
▁həbsxana	-10.6359
▁ال	-10.6359
▁fəlsəfəsi	-10.636
▁Qadınlar	-10.6361
▁İdarəsinin	-10.6362
▁w	-10.6368
▁yeməyi	-10.6371
▁Ermənistanın	-10.6371
▁psixoloji	-10.6373
▁əsərinin	-10.6374
daq	-10.6374
▁1995	-10.6377
liklər	-10.6378
▁bacarığı	-10.6379
▁kəmiyyət	-10.6379
▁Qəhrəman	-10.638
▁festival	-10.6381
▁şirkətin	-10.6388
▁Binanın	-10.639
▁gətirdiyi	-10.6392
istik	-10.6397
formasiya	-10.6397
▁xadim	-10.6398
▁80-	-10.64
▁Teatrı	-10.64
▁razılaşma	-10.6401
▁Əvvəlcə	-10.6402
▁şagird	-10.6403
▁qablar	-10.6405
▁verirlər	-10.6406
▁ətraflı	-10.6408
▁Təşkilatı	-10.6408
mun	-10.6414
▁araşdır	-10.6416
▁ayına	-10.6417
▁hazırlamaq	-10.6418
▁abidələr	-10.642
pon	-10.6421
▁ötür	-10.6422
▁müntəzəm	-10.6427
▁komp	-10.6428
Əliyev	-10.6429
▁spektr	-10.6429
▁ünvan	-10.6431
▁Sergey	-10.6433
▁ölkəsi	-10.6433
ektor	-10.6434
▁İnter	-10.6436
▁fənn	-10.6436
yyə	-10.6436
▁keyfiyyəti	-10.6441
▁keçirmişdir	-10.6441
▁xeyir	-10.6442
▁həyatın	-10.6452
▁qoymuşdur	-10.6452
▁sanki	-10.6455
▁Kü	-10.6455
▁Məclisi	-10.6458
▁dam	-10.6462
▁Vaşinqton	-10.6464
▁Sərəncamı	-10.6466
▁göstərə	-10.6467
▁sözün	-10.6468
arx	-10.6469
▁axan	-10.6471
ço	-10.6473
▁fikirləri	-10.6474
▁görünən	-10.6475
▁mübarizəsi	-10.6476
▁kilsənin	-10.648
▁kolxoz	-10.6485
ford	-10.6486
▁görünüşü	-10.6486
▁Kamil	-10.6487
▁növün	-10.6489
nos	-10.649
▁Od	-10.649
▁özləri	-10.6491
eni	-10.6492
ruz	-10.6492
oma	-10.6495
▁həlledici	-10.6498
▁işlənib	-10.6499
▁Cey	-10.65
▁adlandırır	-10.6503
lilərin	-10.6505
▁zadəgan	-10.6506
▁ipək	-10.6508
▁örtük	-10.6508
▁xidmətdə	-10.651
▁super	-10.651
▁68	-10.6512
▁Səfər	-10.6512
onq	-10.6517
▁Konstantin	-10.6517
eyn	-10.6517
▁İtalyan	-10.6517
▁Qarabağda	-10.6518
▁səfəri	-10.652
▁uzanan	-10.6522
▁yanvarında	-10.6523
tonun	-10.6527
▁qızları	-10.6527
.3.1938	-10.6528
▁Dörd	-10.6528
▁ictimaiyyət	-10.6529
▁personaj	-10.6542
▁vaxtilə	-10.6544
▁Ukraynanın	-10.6544
▁sel	-10.6547
▁azalır	-10.6549
▁qabığı	-10.655
▁66	-10.6551
▁Ek	-10.6553
▁Şirkət	-10.6553
▁sev	-10.6558
▁ətrafındakı	-10.6559
▁kömür	-10.6561
▁Məscid	-10.6565
▁Latın	-10.6566
▁işlərini	-10.6575
▁qanunları	-10.6575
▁düzü	-10.6576
▁İnternet	-10.6582
▁oktyabrında	-10.6584
kom	-10.6585
▁aparmış	-10.6585
▁yiyələn	-10.6585
yaraq	-10.6586
qq	-10.6588
▁Qüvvələrinin	-10.6589
▁zülal	-10.6592
▁Tələbə	-10.6593
▁şərtləri	-10.6593
▁rolları	-10.6593
▁döyüşçü	-10.6594
▁ilahi	-10.6595
▁diplomat	-10.66
çıların	-10.6601
tın	-10.6601
▁partlayış	-10.6603
▁sevimli	-10.6603
▁sui	-10.6603
▁verilmə	-10.6604
▁turşu	-10.6609
▁çin	-10.6613
▁kasıb	-10.6614
▁üslubunda	-10.6614
▁mənasındadır	-10.6619
▁Super	-10.662
▁üslubu	-10.6621
▁bay	-10.6628
▁aç	-10.6635
▁Qobustan	-10.6636
▁ehtiva	-10.6636
▁dik	-10.6636
▁Astara	-10.6637
▁bo	-10.6641
▁Mərkəzinin	-10.6642
ita	-10.6643
▁landşaft	-10.6644
fu	-10.6645
▁Filmi	-10.6646
▁Fəlsəfə	-10.6646
▁məni	-10.6647
▁Sc	-10.6647
izasiya	-10.6648
▁99	-10.665
▁Təbrizdə	-10.6651
tak	-10.6652
▁gələ	-10.6652
▁Çexiya	-10.6652
▁Siz	-10.6653
▁istedadlı	-10.6654
▁mərtəbə	-10.6655
▁Vit	-10.6655
yaz	-10.6657
▁yaratmış	-10.6658
▁hədis	-10.6659
▁vokal	-10.6662
linq	-10.6663
▁qidalanır	-10.6665
tif	-10.6666
▁fayl	-10.6668
▁Riyaziyyat	-10.6668
▁bacarıq	-10.667
▁yarpaq	-10.6673
▁vəziyyətə	-10.6674
▁Bon	-10.6674
▁təq	-10.6676
▁əlyazma	-10.6678
pik	-10.6678
▁qlobal	-10.6679
▁Çempionlar	-10.6681
ləyə	-10.6682
▁həyatda	-10.6683
▁tədbirləri	-10.6689
▁transfer	-10.6691
▁aşqar	-10.6691
▁orkestr	-10.6691
▁Gö	-10.6692
▁açılış	-10.6692
▁vətən	-10.6692
▁əsnasında	-10.6693
▁daşları	-10.6696
▁olun	-10.6698
▁Poli	-10.6698
▁Ley	-10.6701
▁nikah	-10.6701
▁nəğmə	-10.6702
▁Em	-10.6702
▁hərəkatının	-10.6704
▁mülkiyyət	-10.6704
▁maşını	-10.6705
fra	-10.6707
▁Xo	-10.6707
▁portret	-10.6708
▁kolleksiya	-10.6711
▁oksigen	-10.6712
▁əraziyə	-10.6722
▁naməlum	-10.6723
rix	-10.6724
ümü	-10.6732
▁üslub	-10.6732
▁kəndli	-10.6732
rilən	-10.6734
▁26-	-10.6734
lah	-10.6737
▁qurur	-10.6749
tmə	-10.6752
luğun	-10.6752
▁Misirdə	-10.6754
▁mexaniki	-10.6756
▁komiks	-10.6756
▁məlumatları	-10.6756
▁Albert	-10.6757
▁uz	-10.6758
yuk	-10.676
▁1908-	-10.6764
▁İnkişaf	-10.6766
▁Mars	-10.6767
▁məcburi	-10.6768
rir	-10.6774
▁təhlükəsi	-10.6774
▁1990	-10.6775
▁1989	-10.6778
▁qoyub	-10.6778
far	-10.6781
▁aşağıda	-10.6782
▁anda	-10.6784
▁Abdullah	-10.6785
▁tipi	-10.6786
▁İngiltərənin	-10.6788
▁qoruyub	-10.6788
çan	-10.6788
но	-10.6791
▁gördüyü	-10.6791
mayan	-10.6793
▁1994	-10.6802
▁nar	-10.6802
▁iqtisadiyyatın	-10.6803
▁göndərildi	-10.6804
▁fit	-10.6804
ie	-10.6806
▁cümlə	-10.6806
▁Ray	-10.6808
▁amil	-10.681
▁Sonuncu	-10.681
▁acı	-10.6811
▁körpə	-10.6821
▁tektonik	-10.6823
▁qonur	-10.6826
oniya	-10.6829
▁Ağsu	-10.683
▁əlamətləri	-10.6831
▁strateji	-10.6832
lüyün	-10.6833
▁oğul	-10.6834
▁Şəm	-10.6834
ği	-10.6835
▁Opera	-10.6835
▁xarakterli	-10.6836
▁Qazi	-10.6836
▁orqanizm	-10.6839
▁çevrilməsi	-10.6839
tul	-10.6839
▁yolda	-10.684
▁dü	-10.6841
▁dərəcəsində	-10.6846
▁komandanın	-10.6852
▁problemlərin	-10.6854
▁günah	-10.6857
▁öl	-10.6859
▁Oyunları	-10.686
▁Sadıq	-10.6862
▁xəstəliklər	-10.6864
tura	-10.6864
▁etibarilə	-10.6866
▁satış	-10.6868
umu	-10.687
▁Paul	-10.6871
▁personajı	-10.6873
▁dənizin	-10.6874
▁komitəsinin	-10.6879
▁təşkilatlar	-10.688
▁xərcləri	-10.6886
▁Estoniya	-10.6888
▁binalar	-10.6889
-8	-10.689
▁quraq	-10.6892
▁əzab	-10.6893
▁müsabiqədə	-10.6893
▁Bru	-10.6894
▁fərqi	-10.6896
▁sadiq	-10.6899
▁Yarımada	-10.69
▁Sto	-10.69
▁xanımı	-10.6903
▁sim	-10.6903
▁dövlətlərin	-10.6905
▁salınmış	-10.6906
▁memarlığı	-10.6907
▁parkı	-10.6909
▁part	-10.6909
▁Monqolustan	-10.691
yen	-10.6913
▁müvəffəqiyyət	-10.6914
▁olunmasına	-10.6916
▁Kay	-10.6917
▁evinə	-10.6917
ologiyası	-10.6917
▁şairin	-10.6919
▁müsəlmanlar	-10.6922
▁əfsanə	-10.6922
▁islahatlar	-10.6923
▁ulu	-10.6923
jo	-10.6924
▁hala	-10.6927
▁iştirakçıları	-10.6928
▁Sənət	-10.6928
▁Azərbaycanfilm	-10.6931
▁Naxçıvanda	-10.6932
▁dağlarının	-10.6932
▁Bosniya	-10.6932
▁köçüb	-10.6933
▁borc	-10.6933
mey	-10.6936
▁21-	-10.6938
▁metrə	-10.694
yak	-10.6942
ux	-10.6942
tologiya	-10.6943
▁bağışla	-10.6945
▁Çoban	-10.6945
hər	-10.6947
uru	-10.6949
▁tropik	-10.6955
▁Açıq	-10.6955
▁səsvermə	-10.6956
▁1906-	-10.6956
▁tələbələri	-10.6956
▁Adam	-10.6956
▁nəşri	-10.6957
▁qraf	-10.6964
▁Bio	-10.6967
▁Bö	-10.6967
lanaraq	-10.697
rum	-10.6973
▁dəyişmə	-10.6974
▁bəxş	-10.6975
▁sürən	-10.6977
▁imam	-10.6978
▁vəzifələri	-10.6979
▁Bədən	-10.6979
▁poeması	-10.6981
▁zavod	-10.6982
▁Plan	-10.6982
▁torpağı	-10.6982
▁çıxışı	-10.6983
▁tutumu	-10.6985
▁boğaz	-10.6986
▁Ümumrus	-10.6989
göz	-10.6993
▁xana	-10.6995
▁alimləri	-10.6995
▁71	-10.6995
ləyib	-10.6998
kun	-10.6998
▁Maarif	-10.6999
▁çökmə	-10.7
▁Nazim	-10.7003
▁1500	-10.7005
▁2-3	-10.7006
luğunu	-10.7008
▁hansısa	-10.7009
▁sair	-10.7013
▁tən	-10.7013
▁müdaxilə	-10.7015
eziya	-10.702
▁Keçmiş	-10.702
▁You	-10.702
əlli	-10.7023
▁Hindistanın	-10.7028
ор	-10.7028
▁süxurlar	-10.7028
▁Üstəli	-10.7032
▁Mikayıl	-10.7033
▁700	-10.7034
▁zəncir	-10.7034
▁qütb	-10.7035
ağın	-10.7042
▁ailədə	-10.7044
balı	-10.7044
▁hökumətin	-10.7046
▁qo	-10.7054
▁Boğaz	-10.7056
şen	-10.7058
▁Adada	-10.7061
▁yerin	-10.7061
▁1910-	-10.7062
▁67	-10.7062
▁epi	-10.7062
▁tuturdu	-10.7067
▁asanlıqla	-10.7072
▁dəqiqədə	-10.7074
vət	-10.7075
him	-10.7075
bus	-10.7077
▁qənaət	-10.7078
▁apardı	-10.7079
▁illiyi	-10.7083
ensis	-10.7083
▁arx	-10.7084
▁qəzəb	-10.709
▁Müharibəsi	-10.709
▁qabaqcıl	-10.7091
▁təsirini	-10.7092
laşdır	-10.7092
▁İyun	-10.7095
▁hazırladığı	-10.7095
▁We	-10.7099
▁rəmzi	-10.7101
▁etdirilməsi	-10.7101
kre	-10.7101
▁mükafatını	-10.7102
▁Ölüm	-10.7104
▁xatırladır	-10.7104
▁qalanın	-10.7104
▁təmsilçisi	-10.7107
sia	-10.7109
▁по	-10.7111
ula	-10.7114
▁ayrılan	-10.7114
▁qabıq	-10.7115
▁Ayı	-10.7118
▁Aq	-10.7119
▁Yaz	-10.7123
▁2,5	-10.7125
▁1927-	-10.7127
▁Kazan	-10.7127
▁yolunu	-10.7128
ğlu	-10.7129
sizlik	-10.713
▁hazırlığı	-10.7131
▁xaqan	-10.7131
lma	-10.7134
ь	-10.7134
▁aparılmışdır	-10.7136
ар	-10.7137
▁mətbəxi	-10.7141
▁institutun	-10.7146
▁etdirilir	-10.7147
▁görüntü	-10.7147
▁fakt	-10.7147
▁ekspedisiya	-10.7148
▁pla	-10.715
ona	-10.7151
sunun	-10.7152
▁ilan	-10.7153
▁dillərini	-10.7154
▁komponent	-10.7155
▁yadda	-10.7158
▁münasibətlərin	-10.7159
▁Qusar	-10.716
▁komitə	-10.716
▁çəkilib	-10.716
tü	-10.7161
▁qarşıdurma	-10.7161
▁Lui	-10.7162
▁qalx	-10.7164
siy	-10.7164
▁Qaradağ	-10.7165
▁istifadəçi	-10.7167
▁rejim	-10.7168
▁kökü	-10.717
▁sülalə	-10.7172
▁eks	-10.7172
▁komissiya	-10.7175
▁istədiyi	-10.7177
▁üzərindən	-10.7183
eks	-10.7183
▁port	-10.7185
89-	-10.7186
▁Dol	-10.7186
mın	-10.7186
▁namaz	-10.719
▁Bab	-10.7191
tre	-10.7191
▁böyükdür	-10.7193
▁uzaqlaş	-10.7195
türk	-10.7198
▁xaricdə	-10.7198
▁balaca	-10.7199
lot	-10.7199
▁Ram	-10.72
▁1915-	-10.7202
laya	-10.7202
▁döyüşə	-10.7204
dinin	-10.7204
▁Andre	-10.7204
▁ehtiyacı	-10.7211
▁qadının	-10.7212
▁yürüşü	-10.7212
▁ideyası	-10.7212
nus	-10.7213
ləş	-10.7217
▁həvəs	-10.7217
▁avqustunda	-10.7217
▁faciə	-10.7217
▁1997	-10.7219
rar	-10.7222
▁qohum	-10.7223
▁Camal	-10.7224
pel	-10.7225
▁Həkim	-10.7227
▁göndərilir	-10.7227
▁imperiya	-10.7229
▁sintezi	-10.723
ele	-10.7235
ро	-10.7239
▁turist	-10.7244
▁zamanında	-10.7244
sonun	-10.7244
▁açılması	-10.7245
▁cənuba	-10.7247
xanov	-10.7247
▁körpüsü	-10.7249
▁Oykonim	-10.725
▁Okean	-10.7251
▁г	-10.7253
▁Xüsusilə	-10.7255
▁140	-10.7258
▁kitabxanası	-10.726
▁yaşayıb	-10.7262
ləşdirdi	-10.7262
▁Qax	-10.7263
ləşərək	-10.7265
▁Sab	-10.7265
iyyat	-10.7269
▁keçmək	-10.7271
▁razılıq	-10.7271
▁sayının	-10.7273
▁örtülü	-10.7273
tanın	-10.7275
▁əti	-10.7277
▁məhlul	-10.7281
▁qırğın	-10.7284
▁qurum	-10.7285
▁çöküntüləri	-10.7285
▁Heyətini	-10.7285
qe	-10.7285
laşdırılmışdır	-10.7287
▁Yar	-10.7289
▁ölkələrinin	-10.729
▁insanı	-10.729
▁təriqət	-10.7291
llah	-10.7294
ere	-10.7298
▁olduqdan	-10.73
▁mübarizəyə	-10.7302
▁85	-10.7302
▁yoxsul	-10.7303
▁folklor	-10.7303
▁1970	-10.7307
▁barış	-10.7308
tos	-10.7309
▁sp	-10.731
▁SB	-10.731
nor	-10.7312
▁Xor	-10.7314
▁sənədlər	-10.7314
▁tatar	-10.7317
▁gətirmə	-10.7317
▁mifologiyasında	-10.7318
▁konsul	-10.7318
mas	-10.7319
▁axı	-10.7319
▁basketbol	-10.7319
▁konstitusiya	-10.7319
▁adlandır	-10.732
▁komandanlığı	-10.7321
idi	-10.7325
▁mühərrik	-10.7325
▁Şura	-10.7326
▁bilin	-10.7328
▁Rayonun	-10.7329
sarı	-10.7329
▁Məkkə	-10.733
▁sin	-10.7332
▁Rum	-10.7335
▁düşmüşdür	-10.7341
▁qorunub	-10.7342
▁Rzayev	-10.7345
▁sahibkar	-10.7346
▁etməkdə	-10.7346
▁ordunun	-10.7348
ənəvi	-10.7349
▁yerlər	-10.735
▁Nafta	-10.7351
▁risk	-10.7351
▁bildirən	-10.7351
▁ölkəyə	-10.7352
▁Əsl	-10.7358
ide	-10.7361
▁göndərdiyi	-10.7363
▁per	-10.7365
▁ölkəsində	-10.7369
▁dərəsi	-10.7371
▁sistemin	-10.7371
idlər	-10.7371
▁tərkibindədir	-10.7372
▁işlənən	-10.7373
▁ədəbiyyatında	-10.7376
▁Antarktida	-10.7377
▁məxsusdur	-10.7377
30-	-10.7381
▁martında	-10.7385
▁61	-10.7386
-6	-10.7389
▁Bü	-10.7389
▁Pas	-10.739
hət	-10.739
▁gir	-10.7391
▁tarixini	-10.7393
hra	-10.7394
ayı	-10.7395
▁yazısı	-10.7395
▁muxtar	-10.7398
▁yavaş	-10.7398
▁istəmə	-10.7399
▁yüzlərlə	-10.74
▁Peyğəmbər	-10.74
▁gəlirlər	-10.7404
lamağa	-10.7406
▁qaldır	-10.7408
▁pal	-10.7409
▁fevralında	-10.7411
▁Hel	-10.7412
▁maksimal	-10.7412
▁üzündən	-10.7415
verici	-10.7415
ayev	-10.7417
raz	-10.742
ther	-10.7421
▁əyləncə	-10.7424
hur	-10.7424
▁kü	-10.7426
▁Cek	-10.7428
▁meta	-10.7429
▁gücünü	-10.7429
▁mübarizədə	-10.7429
▁əmin	-10.743
▁istefa	-10.7432
▁yetirir	-10.7435
▁pedaqoq	-10.7435
▁130	-10.7436
▁ştatında	-10.7436
▁Xaçmaz	-10.7437
lənərək	-10.744
acağını	-10.744
▁zəbt	-10.7447
▁parazit	-10.7447
▁qrafik	-10.7449
▁biləcəyi	-10.7451
imizin	-10.7452
▁əski	-10.7453
▁çətinliklər	-10.7453
▁mədəniyyətin	-10.7453
▁şəhərlərdə	-10.7456
tən	-10.7457
laşıb	-10.7458
▁çempionatında	-10.7458
▁keçdiyi	-10.7459
▁köçəri	-10.746
▁Th	-10.7461
▁başçıları	-10.7461
▁qızlar	-10.7464
▁yerləşməsi	-10.7465
▁çıxmaq	-10.7466
▁sevir	-10.7467
▁rəy	-10.7468
▁suvarma	-10.7471
niş	-10.7472
▁qaranlıq	-10.7472
▁qalmışdı	-10.7473
mel	-10.7474
▁Bunların	-10.7474
▁aspirantura	-10.7476
▁olmasıdır	-10.7481
▁topası	-10.7487
▁Xristian	-10.7488
▁Şəhərdə	-10.7489
▁yarımada	-10.749
ре	-10.7494
▁110	-10.7494
▁götürüb	-10.7495
▁külək	-10.7495
▁qaçqın	-10.7495
▁örtülmüşdür	-10.7496
lad	-10.7496
▁Məmmədova	-10.7496
▁əsərdə	-10.7498
▁aktrisası	-10.7501
illa	-10.7501
▁pir	-10.7502
▁Naziri	-10.7505
▁əxlaq	-10.7506
▁Bölgə	-10.7506
▁blok	-10.7507
lmış	-10.7509
▁Teatrının	-10.7509
▁birləşmələr	-10.751
abi	-10.751
▁ion	-10.7511
tab	-10.7512
ag	-10.7514
▁çəkil	-10.7516
▁İyul	-10.7518
▁Boris	-10.7521
▁qrupları	-10.7522
▁qoru	-10.7523
▁indiyə	-10.7524
▁vəzi	-10.7525
▁görmüşdür	-10.7525
▁Qaraqoyunlu	-10.753
▁valyuta	-10.753
▁çalışdı	-10.7531
▁oksid	-10.7533
▁dairəsində	-10.7534
▁tədqiqatların	-10.7536
enko	-10.7537
▁ey	-10.7541
▁zövq	-10.7542
▁inam	-10.7545
nas	-10.7545
▁qoy	-10.7545
▁Tağıyev	-10.7547
▁Ap	-10.7547
▁həyatına	-10.7548
▁mindən	-10.755
▁Qriqori	-10.755
▁məzmunu	-10.7552
▁ortaq	-10.7554
▁Qazan	-10.7555
vit	-10.7557
▁Çiçək	-10.7557
▁Ümumilikd	-10.7558
▁yarada	-10.7559
▁Meri	-10.7562
▁Cəlal	-10.7565
▁cəsarət	-10.7565
▁deyib	-10.7572
▁rekord	-10.7573
▁qəhvəyi	-10.7574
▁oxuyur	-10.7575
▁çaylar	-10.7576
▁inkar	-10.7576
▁İtaliyada	-10.7577
▁aktual	-10.7577
karlıq	-10.7578
▁Midiya	-10.7578
şun	-10.758
▁tələbəsi	-10.7582
▁1980	-10.7583
▁mayında	-10.7587
▁oranı	-10.7587
▁Stadion	-10.759
▁olmamışdır	-10.759
▁Sem	-10.759
▁Ken	-10.7591
▁59	-10.7594
▁tikililər	-10.7595
▁aprelində	-10.7595
▁Liviya	-10.7598
▁vəhşi	-10.7599
▁Pre	-10.76
▁yarımadasında	-10.76
▁saldı	-10.76
▁Ticarət	-10.7601
Janeyro	-10.7601
texniki	-10.7601
▁pilot	-10.7602
qol	-10.7605
evski	-10.7606
▁müharibəsindən	-10.7606
des	-10.7609
▁vurur	-10.761
▁Amerikan	-10.7612
▁maksimum	-10.7613
▁Ədalət	-10.7613
uda	-10.7613
mud	-10.7614
▁ifaçısı	-10.7615
quş	-10.7616
▁Mun	-10.7617
kür	-10.7619
▁Ermənistanda	-10.7621
▁Şə	-10.7622
▁76	-10.7623
▁dövlətlər	-10.7623
▁funksiyası	-10.7625
▁konqres	-10.7625
▁maneə	-10.7627
▁Alim	-10.7627
▁İsmayıllı	-10.7636
▁Vyetnam	-10.7637
nl	-10.7638
azı	-10.7639
▁siyahısında	-10.7643
▁İstanbula	-10.7644
▁Şamil	-10.7644
▁işində	-10.7655
▁toplanması	-10.7656
vu	-10.7657
▁nişanı	-10.7658
▁partiyasının	-10.7659
▁Üst	-10.766
▁miniatür	-10.7661
▁ərəfəsində	-10.7661
▁Bri	-10.7663
▁virus	-10.7663
▁azdır	-10.7663
▁27-	-10.7665
▁fakültəsi	-10.767
▁2018	-10.7671
▁xəstəliklərin	-10.7674
од	-10.7675
uma	-10.7676
▁mərasimində	-10.7677
▁təməl	-10.7678
mədən	-10.7678
▁avtomat	-10.768
▁qaldığı	-10.768
bert	-10.7683
▁Riçard	-10.7685
polit	-10.7686
▁Neftçi	-10.7686
▁xüsusiyyətlər	-10.7687
▁səhiyyə	-10.7687
çıları	-10.7689
▁yana	-10.7689
▁yaşlarından	-10.7694
▁Rəssam	-10.7696
▁xərçəng	-10.77
▁yarandığı	-10.7701
▁Maliyyə	-10.7702
▁pozulması	-10.7704
▁sufi	-10.7704
ses	-10.7705
▁kəsi	-10.7707
из	-10.771
▁qazıntı	-10.7714
▁təbiətin	-10.772
▁padşah	-10.772
göl	-10.772
▁mahalında	-10.7721
▁görülür	-10.7721
▁bildirilir	-10.7722
▁əşya	-10.7723
rud	-10.7726
▁teatrın	-10.7727
▁sirr	-10.7727
▁təşkilatları	-10.7729
▁yetkin	-10.773
▁parçası	-10.7732
sün	-10.7732
▁funksiya	-10.7732
▁sürfə	-10.7734
▁Kəl	-10.7736
keş	-10.7738
▁öyrən	-10.7738
▁müğənnisi	-10.7739
▁soyqırımı	-10.774
▁sədrəzəm	-10.7745
rgi	-10.7746
▁Bazar	-10.7746
▁Şan	-10.7749
▁olunaraq	-10.775
▁təbiəti	-10.7754
▁qayna	-10.7755
▁qəribə	-10.7757
▁iclas	-10.776
▁materik	-10.7761
▁kəsil	-10.7761
▁ucu	-10.7763
▁düzən	-10.7765
▁Coğrafiya	-10.7766
▁pre	-10.7766
▁zamanlarda	-10.7767
ц	-10.7767
▁məlumatlara	-10.777
▁məktəblər	-10.777
35-	-10.7771
▁noyabrında	-10.7772
mut	-10.7777
▁dahi	-10.7777
▁sap	-10.7779
▁xarakterik	-10.7779
▁sırada	-10.7781
▁yə	-10.7781
▁Ssenari	-10.7782
▁formalaşması	-10.7782
▁divan	-10.7782
▁qay	-10.7783
▁birləşmiş	-10.7785
▁öyrənən	-10.7788
▁Şərif	-10.779
▁ortasında	-10.7791
▁Gecə	-10.7792
▁qərargahı	-10.7792
▁orqanlarının	-10.7793
▁oynayan	-10.7794
▁Pavel	-10.7795
▁Sun	-10.7797
▁platforma	-10.78
▁istərsə	-10.7801
▁evə	-10.7803
sam	-10.7805
▁Bəyazid	-10.7806
▁Ço	-10.7806
▁mərmər	-10.7807
▁vəzifələrdə	-10.7807
▁iştirakçı	-10.781
duz	-10.7812
lend	-10.7812
mini	-10.7815
▁Təşkilat	-10.7815
▁amillər	-10.7816
▁ayrılmış	-10.7817
▁gimnaziya	-10.7818
▁professional	-10.7818
▁kölgə	-10.7818
▁bataqlıq	-10.7819
▁donanması	-10.7819
▁Vəliyev	-10.782
▁Çer	-10.782
▁lirik	-10.7821
▁çıxarılmışdır	-10.7822
▁Kre	-10.7824
▁hidrogen	-10.7825
▁aləmi	-10.7825
səl	-10.7826
▁dramaturq	-10.7828
▁oxucu	-10.7829
▁binada	-10.783
▁toplan	-10.7831
▁Qre	-10.7831
ləndirici	-10.7831
▁Gürcüstanda	-10.7831
▁Sağ	-10.7833
rm	-10.7835
▁başladığı	-10.7836
▁şeiri	-10.7836
▁ora	-10.7838
▁şimaldan	-10.7838
lının	-10.7838
▁həqiqətən	-10.7839
▁Milan	-10.7839
▁ayları	-10.7841
▁Səlcuq	-10.7842
▁vəzifədə	-10.7844
landığı	-10.7845
▁tunc	-10.7845
▁məqalənin	-10.7848
iri	-10.7848
ES	-10.7848
▁biliklər	-10.7854
qul	-10.7854
▁hərf	-10.7854
mizə	-10.7855
▁23-	-10.7859
▁Boy	-10.786
▁dağlar	-10.7861
▁Müs	-10.7862
▁Gəmi	-10.7864
▁torpağa	-10.7867
▁Sülh	-10.7867
▁kub	-10.7867
▁ordusunda	-10.7868
lıqdan	-10.7869
▁fikrini	-10.787
▁prosesləri	-10.7872
dıq	-10.7873
qaş	-10.7873
oqrafik	-10.7878
▁aparıl	-10.788
▁finalda	-10.788
▁adıyla	-10.7881
▁əlindən	-10.7883
▁mühafizəsi	-10.7883
▁hakimiyyətini	-10.7883
▁tərəfinə	-10.7886
▁çirk	-10.7886
▁tr	-10.7887
▁torpaqların	-10.7887
▁xüsusiyyətlərin	-10.7892
▁Br	-10.7893
▁22-	-10.7898
▁keyfiyyətli	-10.7901
▁sür	-10.7902
▁Öl	-10.7903
ləşdirilir	-10.7905
▁səviyyə	-10.7906
▁kursu	-10.7907
▁İnqilab	-10.7909
▁növbə	-10.7912
kanın	-10.7917
▁Mani	-10.7918
▁Müəllimlər	-10.7919
▁Yel	-10.792
▁açılan	-10.7923
▁Qran	-10.7925
▁alimlik	-10.7926
▁göstəriciləri	-10.793
rl	-10.7933
▁aşı	-10.7936
çiliyi	-10.7939
▁Yara	-10.7939
▁Yəhudi	-10.7941
▁Gər	-10.7941
▁bənzəyir	-10.7941
▁daşıyırdı	-10.7944
▁tabeliyində	-10.7944
▁mövsümü	-10.7944
▁ayağı	-10.795
▁yazdı	-10.7952
▁müharibənin	-10.7952
▁dağın	-10.7953
▁sahəsinə	-10.7953
▁çörək	-10.7954
▁Məlum	-10.7954
▁gedərək	-10.7954
50-	-10.7955
ч	-10.7955
öl	-10.7955
▁Lvov	-10.7956
▁sırasına	-10.7957
▁etibarlı	-10.7958
▁stadionu	-10.796
▁kəsilmə	-10.7961
▁İnstitutuna	-10.7962
▁çatma	-10.7962
▁mərkəzinə	-10.7963
▁sonda	-10.7964
▁metro	-10.7965
▁xəyal	-10.7968
▁həvəskar	-10.7968
▁bunlardan	-10.797
ağac	-10.7971
▁Hun	-10.7971
dey	-10.7971
lem	-10.7976
▁Çan	-10.7976
ка	-10.7977
▁göstərməyə	-10.7977
▁gətirildi	-10.7977
▁aralıda	-10.7978
▁ehtiyatı	-10.798
ju	-10.7981
▁cərəyanı	-10.7982
▁norma	-10.7988
▁ünvanı	-10.7989
zır	-10.799
▁İrana	-10.7991
▁mahal	-10.7991
▁qanlı	-10.7995
▁bazarı	-10.7996
▁xalqlar	-10.7999
▁funksiyaları	-10.8
▁ört	-10.8
▁yaratmağ	-10.8002
▁darmadağın	-10.8003
▁Tikinti	-10.8003
▁ixrac	-10.8005
fət	-10.8011
▁Ot	-10.8012
▁cədvəl	-10.8016
▁Tədqiqat	-10.8016
los	-10.8017
▁Tro	-10.8019
zim	-10.802
▁effektiv	-10.802
▁göllər	-10.8023
▁tacir	-10.8024
▁sığın	-10.8024
ск	-10.8026
▁qolları	-10.8027
nde	-10.8028
▁yaşamaq	-10.8028
▁görünüş	-10.8028
▁Zakir	-10.8029
▁bö	-10.8029
▁kilsəsinin	-10.8034
ple	-10.8036
▁dilə	-10.8036
▁cihaz	-10.8037
▁Gözəl	-10.8038
▁qatar	-10.804
▁AS	-10.8041
arlar	-10.8043
▁nü	-10.8046
▁olunmağa	-10.8046
▁hit	-10.8052
▁Mina	-10.8052
▁gəlişi	-10.8053
▁deyirlər	-10.8055
▁lazımi	-10.8056
▁bağlanmış	-10.8056
▁ek	-10.8059
-20	-10.8063
▁ümum	-10.8064
▁Sis	-10.8068
▁Əsəd	-10.8071
dım	-10.8072
▁əşyalar	-10.8072
vv	-10.8072
ello	-10.8073
▁klubun	-10.8073
▁mətbuatda	-10.8073
▁faizi	-10.8074
▁qazandığı	-10.8079
▁örtülüdür	-10.8079
▁pat	-10.8081
log	-10.8084
▁patent	-10.8085
▁на	-10.8087
▁diviziya	-10.8089
▁Premyer	-10.809
strat	-10.809
▁əməkdaşı	-10.809
▁şaxə	-10.809
▁kəndə	-10.8091
▁xaricində	-10.8097
▁Yarpaqları	-10.8097
▁suya	-10.8098
▁məskən	-10.8098
liyindən	-10.8099
▁679	-10.8099
▁etdirdiyi	-10.81
idae	-10.8101
zər	-10.8101
▁höküməti	-10.8103
▁sayına	-10.8105
ds	-10.8105
▁bilinən	-10.8108
▁səbəbiylə	-10.8108
▁oyununda	-10.8108
▁şer	-10.811
▁saxlanılması	-10.8111
▁maddəsi	-10.8111
▁itirdi	-10.8112
▁Səudiyyə	-10.8115
▁artırmaq	-10.8117
▁janrında	-10.8119
▁obraz	-10.8119
qin	-10.8126
▁öldü	-10.8131
▁avro	-10.8132
▁yerləşmiş	-10.8134
▁qulluq	-10.8135
▁yaşlarında	-10.8135
▁od	-10.8137
▁sizin	-10.814
▁Aba	-10.814
▁İqtisad	-10.8143
▁Məclisin	-10.8144
qr	-10.8146
▁başlanğıcı	-10.8147
pu	-10.815
▁Həzrət	-10.8153
▁qısametrajl	-10.8153
▁əcnəbi	-10.8153
▁Qorqud	-10.8153
abənzər	-10.8153
▁yaranıb	-10.8154
yacaq	-10.8154
▁imkanları	-10.8156
▁Akademiya	-10.8157
▁vilayətinə	-10.8158
▁dağının	-10.8162
▁saziş	-10.8164
▁Mingəçevir	-10.8165
▁salınması	-10.8166
▁buğda	-10.8167
▁buxar	-10.8169
xır	-10.817
▁Həbib	-10.8171
çik	-10.8171
▁sonsuz	-10.8173
▁qələbəsi	-10.8173
▁saytı	-10.8177
▁papa	-10.8177
▁ödəniş	-10.8178
dilmiş	-10.8181
▁atır	-10.8183
▁gələcəyi	-10.8184
▁Devid	-10.8184
▁təbliğat	-10.8185
▁ehtimalı	-10.8185
▁tapma	-10.8186
▁artım	-10.8186
▁edilməyə	-10.8188
▁Klub	-10.819
▁Məsafə	-10.8191
С	-10.8191
▁Mit	-10.8194
fir	-10.8195
▁ayrılması	-10.8197
ическ	-10.8199
Pa	-10.8199
ex	-10.82
▁deportasiya	-10.8203
▁dərəcəsini	-10.8203
▁vəzir	-10.8205
▁birlik	-10.8207
▁Stalin	-10.821
▁id	-10.8214
ph	-10.8214
▁alov	-10.8216
▁Bəstəkar	-10.8216
▁koloniya	-10.8217
▁quşlar	-10.8219
▁quruluşunu	-10.8221
▁24-	-10.8221
▁kan	-10.8221
▁1913-	-10.8221
▁əsərlərindən	-10.8224
rac	-10.8224
▁Mol	-10.8224
▁metodu	-10.8226
▁elçi	-10.8228
ty	-10.823
▁yerdən	-10.8232
▁çökəkliyi	-10.8235
▁böhran	-10.8235
▁nun	-10.8236
ат	-10.8237
▁yayılma	-10.8239
▁Salam	-10.824
▁Filippin	-10.824
▁təzahür	-10.824
▁klip	-10.8241
▁möcüzə	-10.8241
▁qaydada	-10.8247
▁oxuduğu	-10.8249
pl	-10.8249
▁fr	-10.8249
iyasının	-10.825
▁danışırlar	-10.8252
▁ter	-10.8254
▁fəlakət	-10.8254
▁palçıq	-10.8254
▁Politexnik	-10.8254
▁yazmaq	-10.8256
▁budaq	-10.8258
▁ödəmə	-10.8258
▁qoyulan	-10.826
▁çətinlik	-10.8262
▁doldur	-10.8263
ust	-10.8266
▁məş	-10.8267
▁ideyaları	-10.8269
▁edilməsini	-10.827
▁nəslin	-10.8272
▁j	-10.8272
▁vali	-10.8274
▁Sev	-10.8274
▁Ələsgər	-10.8274
▁Xoy	-10.8276
Me	-10.8278
dövlət	-10.8279
▁post	-10.8279
▁albomun	-10.828
▁sağlam	-10.828
▁quyu	-10.8281
▁universitetdə	-10.8282
▁mərtəbəli	-10.8282
▁qanad	-10.8291
lmə	-10.8291
▁sistemini	-10.8292
▁1886-	-10.8295
vor	-10.8295
▁fəza	-10.8297
▁orqanizmin	-10.8297
▁janrı	-10.83
irə	-10.8301
▁Latviya	-10.8305
▁World	-10.8305
▁Ch	-10.831
▁Türkiyəyə	-10.8311
▁sayt	-10.8315
▁tərəvəz	-10.8317
▁heykəltəraş	-10.8319
qut	-10.832
Mu	-10.8321
nəzər	-10.8322
ак	-10.8323
▁komandir	-10.8325
lek	-10.8327
▁radiasiya	-10.8328
39-	-10.8329
▁hərəkətləri	-10.833
▁ünsiyyət	-10.8331
rli	-10.8333
mizi	-10.8334
▁qapalı	-10.8337
▁dövründən	-10.8338
▁zəhər	-10.8338
▁boşa	-10.8342
▁etiraf	-10.8344
▁seqment	-10.8344
▁doğur	-10.8344
sional	-10.8346
▁yaşına	-10.8346
▁Kle	-10.8352
▁təmas	-10.8354
▁Akademiyasında	-10.8355
▁düşüb	-10.8357
▁tərcüməsi	-10.836
▁məhsullarının	-10.836
▁ləqəbi	-10.8363
▁atəşə	-10.8369
▁Ətraf	-10.8369
zel	-10.8373
ota	-10.8374
▁Frans	-10.8374
▁polimer	-10.8375
▁praktik	-10.8376
▁alətlər	-10.8378
▁Əlizadə	-10.8379
▁kitabda	-10.8382
ləyərək	-10.8385
▁dövlətləri	-10.8387
▁Asiyanın	-10.8393
▁İnstitutunu	-10.8394
stro	-10.8395
60-	-10.8396
mental	-10.8397
▁tanrısı	-10.8398
ол	-10.8399
ləndirdi	-10.84
▁toponim	-10.84
▁Day	-10.8402
▁olmadı	-10.8403
▁ruhani	-10.8404
▁optik	-10.8405
▁açdı	-10.8407
▁Əyyub	-10.8408
▁torpaqlarda	-10.8409
▁müharibəyə	-10.841
▁atlet	-10.841
▁təhsilin	-10.8413
▁mexanizmi	-10.842
▁hissəsidir	-10.8421
▁Makedoniya	-10.8423
▁Salman	-10.8425
▁cəzası	-10.8425
▁işlədi	-10.843
▁titulu	-10.8431
▁tikilməsi	-10.8432
▁perspektiv	-10.8434
▁fond	-10.8434
▁Masallı	-10.8434
▁özlərinə	-10.8434
▁düşün	-10.8435
▁Fre	-10.8435
▁davranış	-10.8437
▁bənzə	-10.8439
▁olarsa	-10.8441
▁Ramiz	-10.8445
▁şura	-10.8446
▁serialı	-10.8446
fri	-10.8447
▁Həmədan	-10.8447
▁Altı	-10.8448
▁faktiki	-10.8448
▁Kitabxana	-10.8448
▁plastik	-10.8448
qam	-10.8453
▁görüşündə	-10.8453
yet	-10.8454
▁tutduğu	-10.8455
▁73	-10.8455
gül	-10.8456
▁ap	-10.8457
▁Baku	-10.8458
▁ərəblər	-10.8459
▁başlanmışdır	-10.846
▁vəkil	-10.8462
▁bildirib	-10.8463
▁yaranma	-10.8464
▁obyekt	-10.8464
▁itir	-10.8464
▁oynadı	-10.8466
▁məktəbləri	-10.8466
▁xar	-10.8467
▁məskunlaşmış	-10.8471
▁təcavüz	-10.8474
▁sifət	-10.8474
▁havada	-10.8476
vay	-10.8476
▁səfirliyi	-10.8476
▁getmiş	-10.848
ati	-10.848
▁müharibədə	-10.8481
▁solo	-10.8481
▁quberniyası	-10.8482
laşmışdır	-10.8482
şmə	-10.8485
▁camaatı	-10.8485
▁əsasları	-10.8485
üyü	-10.8486
▁həcm	-10.8487
▁variantı	-10.8489
▁alayı	-10.8489
▁çıxıntı	-10.8492
▁quldur	-10.8492
eç	-10.8493
oya	-10.8495
▁rəngdədir	-10.8495
▁Pul	-10.8495
▁dillər	-10.8498
▁Beş	-10.8499
bucaqlı	-10.85
▁Səh	-10.85
▁qülləsi	-10.8502
▁səciyyəvi	-10.8502
▁Met	-10.8504
AR	-10.8505
▁Mus	-10.8506
▁institutu	-10.8506
▁bədəni	-10.8506
▁işləmək	-10.8506
▁genetik	-10.8507
▁Şər	-10.8508
▁şaquli	-10.8512
▁saxlanıl	-10.8513
▁kəsilmiş	-10.8513
▁xəzinə	-10.8513
▁meydanında	-10.8515
▁74	-10.8518
▁qurmaq	-10.8523
itsa	-10.8523
▁qayğı	-10.8524
▁Kəngərli	-10.8525
▁zolağı	-10.8525
▁fondu	-10.8525
▁69	-10.8529
mırdı	-10.8531
▁əyalətində	-10.8531
▁1907-	-10.8535
kut	-10.8538
▁Rövşən	-10.8538
▁şikayət	-10.8538
▁rəis	-10.8538
▁Pra	-10.854
▁ü	-10.8541
▁artırır	-10.8544
abı	-10.855
▁Səhifələrin	-10.8551
▁Hökumət	-10.8553
▁məqalələri	-10.8555
▁törəmə	-10.8555
▁dönmə	-10.8557
▁qalasının	-10.8557
▁Çayın	-10.8563
▁Ramazan	-10.8565
pre	-10.8566
▁Praqa	-10.8567
▁təkan	-10.8569
▁nda	-10.8569
▁Gilan	-10.857
▁tərəfə	-10.8572
▁həddi	-10.8575
▁gətirə	-10.8582
▁qoruğu	-10.8583
▁konus	-10.8584
▁birləşməsindən	-10.8586
▁val	-10.8588
▁institut	-10.8589
yc	-10.859
▁etməsini	-10.8591
▁inanc	-10.8594
▁təlimi	-10.8594
▁bilgi	-10.86
key	-10.86
▁Andrey	-10.86
▁Gə	-10.86
▁böyü	-10.8602
▁elminin	-10.8602
▁metodları	-10.8603
▁And	-10.8604
▁Ağqoyunlu	-10.8604
▁nisbi	-10.8604
▁türkcə	-10.8604
oko	-10.8604
▁Ağır	-10.8605
▁başda	-10.8607
▁mövcudluğu	-10.8611
▁xalçalar	-10.8615
▁Edvard	-10.8617
▁spirt	-10.8618
▁şüur	-10.8618
▁obyekti	-10.8618
hil	-10.862
▁Ağdaş	-10.8621
▁birləşmələrin	-10.8623
▁Rüstəmov	-10.8625
▁Qoca	-10.8626
▁əyri	-10.8628
▁saxlayan	-10.8631
,	-10.8631
▁siyahı	-10.8634
▁Rəng	-10.8635
▁işlərində	-10.8639
hat	-10.8639
▁təşkilatların	-10.864
▁Mirzəyev	-10.864
▁Federasiyasında	-10.864
▁iqtisadçı	-10.864
▁məntəqə	-10.8643
▁həyəcan	-10.8643
▁götürülmüşdür	-10.8645
bəyi	-10.8646
▁halı	-10.8647
▁77	-10.8648
▁Qarayev	-10.8649
Ko	-10.865
▁şahid	-10.8651
▁bürc	-10.8652
▁olardı	-10.8655
▁Napoleon	-10.8656
▁ömrü	-10.8656
▁hissələr	-10.8656
▁Yekaterina	-10.8657
▁restoran	-10.8657
▁materialların	-10.8659
mizin	-10.8659
zz	-10.8664
▁fəaliyyətində	-10.8664
Ta	-10.8666
▁yazmış	-10.8667
▁hərəkətə	-10.867
▁edilməsində	-10.867
▁95	-10.8673
▁Del	-10.8676
▁girdi	-10.8676
▁Afrikada	-10.8681
▁oxun	-10.8682
▁olmasının	-10.8682
▁Konservatoriya	-10.8683
▁poetik	-10.8684
▁Heyvan	-10.8686
▁bolşeviklər	-10.869
qli	-10.8691
▁oğludur	-10.8692
▁bölgüsü	-10.8693
▁yararlı	-10.8694
▁fasadı	-10.8695
▁maral	-10.8695
ity	-10.8695
▁havanın	-10.8697
▁qəbri	-10.8698
▁oyk	-10.8699
▁rep	-10.87
▁izo	-10.8701
Ö	-10.8702
▁göstəricisi	-10.8704
▁təb	-10.8705
▁gəl	-10.8705
▁Təbrizi	-10.8706
▁qət	-10.8708
bek	-10.871
▁illərdən	-10.8711
Mü	-10.8714
▁yaşamağa	-10.8715
▁Jurnalistlər	-10.8717
▁yollar	-10.8717
▁gətirmişdir	-10.8717
▁ərazilərin	-10.8717
▁cəmiyyətdə	-10.8719
vis	-10.8721
▁Bob	-10.8722
▁Epi	-10.8723
▁Sentyabr	-10.8723
▁əmtəə	-10.8723
▁effekt	-10.8727
▁açıldı	-10.8728
▁təs	-10.8729
▁çıxdığı	-10.873
▁1987	-10.873
▁Bayramov	-10.8732
▁yubileyi	-10.8734
▁məqaləsi	-10.8735
▁vur	-10.8736
hy	-10.8737
▁qoyan	-10.8739
aniya	-10.874
▁açılmışdır	-10.874
▁xanəndə	-10.8741
masından	-10.8741
▁Bağır	-10.8742
▁Dam	-10.8744
kr	-10.8744
▁oynadığı	-10.8744
▁publisist	-10.8745
▁pr	-10.8745
▁barmaq	-10.8746
xal	-10.8747
▁Fevral	-10.875
▁hesabat	-10.875
▁Operator	-10.8752
▁Vay	-10.8752
kos	-10.8752
kot	-10.8753
▁başlaması	-10.8753
▁palıd	-10.8754
▁göstəriş	-10.8754
▁İlyas	-10.8754
verdi	-10.8754
ləndirmiş	-10.8754
▁etməkdədir	-10.8757
▁Is	-10.8757
▁şahı	-10.876
iko	-10.8761
▁qaytar	-10.8762
▁götürdü	-10.8762
▁xoşbəxt	-10.8763
▁funksional	-10.8763
▁qurultay	-10.8765
▁korpusu	-10.8766
▁qiyam	-10.8766
▁Həmzə	-10.8768
▁adla	-10.877
▁faktlar	-10.8771
▁Ex	-10.8771
▁Vətəndaş	-10.8772
▁oxumuşdur	-10.8773
fan	-10.8774
tum	-10.8776
▁1911-	-10.8777
▁bitirən	-10.8786
▁dayanır	-10.8786
▁Tir	-10.8787
▁1988	-10.8788
ult	-10.879
▁Windows	-10.879
isti	-10.879
sik	-10.8791
ric	-10.8793
▁yazmağa	-10.8795
▁kərpic	-10.8795
▁romantik	-10.8795
▁dərindən	-10.8798
▁matç	-10.8799
▁istehsalat	-10.8799
▁təhlükəsizliyi	-10.8801
kel	-10.8803
▁Müh	-10.8804
▁boşluğu	-10.8809
▁Qulu	-10.8809
▁Braziliyanın	-10.8811
▁Xaç	-10.8816
▁gitara	-10.8817
▁kəməri	-10.8818
▁firma	-10.8819
▁Dədə	-10.8819
yini	-10.882
▁işğalçı	-10.8822
▁Sür	-10.8826
hor	-10.8828
ımı	-10.8828
▁Ümumittifaq	-10.883
▁Emin	-10.8832
▁gec	-10.8832
▁pri	-10.8833
▁günündə	-10.8835
vest	-10.8836
М	-10.8837
▁Bər	-10.8837
▁hündürlük	-10.8839
▁Birlik	-10.8842
▁bilsin	-10.8843
▁Ərazisi	-10.8844
lməsi	-10.8848
▁hövzəsi	-10.8848
18-	-10.8849
lədi	-10.8849
▁hərfi	-10.885
liq	-10.885
ləməyə	-10.8851
▁Nuru	-10.8851
▁anlayış	-10.8852
▁saxlaya	-10.8854
▁qismində	-10.8855
▁hasil	-10.8855
▁Trans	-10.8856
▁dağılması	-10.8857
▁Yarım	-10.8859
▁Tal	-10.8859
▁Sava	-10.8861
stri	-10.8861
öy	-10.8865
ой	-10.8866
dent	-10.8866
▁üstü	-10.887
▁Barselona	-10.8871
▁toplayaraq	-10.8873
▁qanuni	-10.8874
▁çatmış	-10.8874
▁ser	-10.8876
▁Ərəbistanı	-10.8877
▁gölün	-10.888
▁Vin	-10.8881
▁1985	-10.8881
▁böyrək	-10.8885
▁Ji	-10.8885
▁mübarizəni	-10.8886
▁divarı	-10.8886
sevər	-10.8887
▁1900-	-10.8887
▁Aleksey	-10.889
▁İspan	-10.8892
▁Universitetinə	-10.8893
▁Şirkətin	-10.8893
▁fasilə	-10.8894
▁ədalət	-10.8895
▁tapılmış	-10.8896
▁çoxluğu	-10.8897
zm	-10.8901
▁bilmirdi	-10.8901
qram	-10.8902
▁Lerik	-10.8903
▁voleybol	-10.8909
▁evləndi	-10.8911
hem	-10.8912
▁qorx	-10.8915
madan	-10.8916
▁qoyma	-10.8917
▁qoyuldu	-10.8917
ləşdi	-10.8917
▁tədqiqatçı	-10.8922
▁Komissiyasının	-10.8924
▁gizlə	-10.8925
▁adamın	-10.8929
▁evləri	-10.8934
▁1979	-10.8937
▁sahilləri	-10.8937
▁günləri	-10.8938
qraf	-10.894
▁müddətinə	-10.8941
▁Fin	-10.8944
▁naxış	-10.8945
▁məqam	-10.8945
▁çempion	-10.8947
▁yaxa	-10.8947
▁Kat	-10.8949
▁vətəndaşı	-10.895
▁formaya	-10.8956
org	-10.8957
▁məzmun	-10.8957
▁düşmə	-10.8962
▁Cha	-10.8963
▁sahibliyi	-10.8963
▁des	-10.8964
▁cəngavər	-10.8966
▁kimsə	-10.8967
▁şərtlər	-10.8967
▁doğ	-10.8967
▁bolşevik	-10.897
▁ədədi	-10.8972
▁kodu	-10.8972
44-	-10.8972
sat	-10.8973
▁satışı	-10.8973
▁Nərimanov	-10.8973
▁1986	-10.8977
▁3000	-10.8978
sid	-10.8978
bad	-10.8979
▁terminlərini	-10.898
▁yamacında	-10.8981
yana	-10.8984
▁Rod	-10.8986
▁Cü	-10.8988
▁açılmış	-10.8989
▁evlərin	-10.8991
▁uy	-10.8993
▁tələ	-10.8995
▁qanunvericilik	-10.9003
▁Zeynalov	-10.9003
▁My	-10.9004
▁Musayev	-10.9004
kö	-10.9005
▁atlı	-10.9005
▁həmdə	-10.9006
Məmmədov	-10.9008
▁çəkmişdir	-10.9013
▁Səd	-10.9014
▁üzəri	-10.9014
▁qurşaq	-10.9015
iyaya	-10.9016
▁məntiq	-10.9016
▁Ondan	-10.9017
▁orden	-10.9021
▁Müsavat	-10.9021
▁digərləri	-10.9023
izmə	-10.9025
▁Smit	-10.9029
qabağı	-10.9029
▁Zey	-10.9029
ей	-10.9029
film	-10.903
▁zər	-10.903
umun	-10.9031
fı	-10.9034
▁bütövlükdə	-10.9035
dilməsi	-10.9035
▁çoxalır	-10.9036
▁döyüşlər	-10.904
▁dərsləri	-10.9041
▁toponimdir	-10.9043
▁künc	-10.9045
▁döz	-10.9048
▁peyda	-10.9049
▁bilməsi	-10.9049
▁məktəblərində	-10.9049
▁2.	-10.905
▁olmayıb	-10.905
▁Yazı	-10.9051
▁çempionatının	-10.9053
▁zəmin	-10.9053
▁İt	-10.9056
hüseyn	-10.9057
▁ənənələri	-10.9059
▁Bəxtiyar	-10.9062
▁rahib	-10.9063
mamış	-10.9067
▁bəlli	-10.9067
▁yardımı	-10.9069
▁obrazları	-10.9071
▁kitabının	-10.9072
▁növlər	-10.9072
▁işin	-10.9072
▁burda	-10.9072
▁komandasında	-10.9074
▁Sina	-10.9075
▁qazax	-10.9075
▁investisiya	-10.9076
▁Şahbuz	-10.9076
▁epizod	-10.9076
▁zülm	-10.9077
▁söyləyir	-10.9077
▁kolleksiyası	-10.9077
▁Tokio	-10.908
▁məqsədlər	-10.9082
bro	-10.9083
▁qaldırılması	-10.9084
vid	-10.9084
▁ötürmə	-10.9086
▁qurşağı	-10.9088
▁gəlirdi	-10.9089
▁xəbəri	-10.9089
▁Hor	-10.909
▁saxlanması	-10.9091
▁Cəmil	-10.9092
yeyən	-10.9093
▁öldürür	-10.9094
İK	-10.9095
vik	-10.9095
▁məzunu	-10.9096
▁balıqlar	-10.9098
mayor	-10.9102
▁dünyanı	-10.9103
▁çıxaraq	-10.9104
▁icması	-10.9106
▁sektor	-10.911
▁ölçüdə	-10.9111
▁Rəhimov	-10.9112
▁tənzim	-10.9113
▁akt	-10.9113
zil	-10.9114
▁Yumurta	-10.9118
lərindəndir	-10.9118
▁aşiq	-10.9119
ırma	-10.912
▁ənənə	-10.9122
▁birləşmələri	-10.9124
▁bazasında	-10.9124
tdiyi	-10.9124
▁oxuyan	-10.9125
▁Mineral	-10.9126
çen	-10.9128
▁operator	-10.9131
▁Yelizavetpol	-10.9132
▁Nəsrəddin	-10.9132
▁1960	-10.9133
▁müstəqilliyi	-10.9134
▁Ural	-10.9134
▁qəsr	-10.9135
▁olmalı	-10.9138
tsu	-10.9142
▁seçilməsi	-10.9144
ole	-10.9144
▁edəcəyi	-10.9144
▁Sultanov	-10.9145
pərəst	-10.9146
▁ulduzu	-10.9146
▁ekspert	-10.9146
▁mənbələr	-10.9146
▁dönəm	-10.9147
▁dəyərləndir	-10.9151
▁albomunu	-10.9152
▁oval	-10.9152
dissertasiyasını	-10.9153
▁etdirib	-10.9154
ydı	-10.9155
▁etməlidir	-10.9155
▁Səb	-10.9155
▁1982	-10.9156
▁1984	-10.9159
▁Qərib	-10.9161
iylə	-10.9161
▁yaradıcılığının	-10.9161
▁İdarəsi	-10.9161
▁amerikan	-10.9162
▁Türkmən	-10.9164
▁Pla	-10.9167
▁sir	-10.9167
▁ensiz	-10.917
▁yayılan	-10.9171
▁Sərdar	-10.9172
▁psixologiya	-10.9172
▁cəhət	-10.9174
▁Bern	-10.9175
▁Zü	-10.9175
▁mahnısını	-10.9179
▁Mah	-10.9179
dl	-10.918
▁tutmaq	-10.9182
▁mərhələsinə	-10.9182
▁Gürcü	-10.9183
▁meydan	-10.9184
mos	-10.9184
▁Xar	-10.9185
▁cism	-10.9185
▁pər	-10.9186
▁qayıda	-10.9186
▁yayılır	-10.9187
▁Goranboy	-10.9187
▁modern	-10.9187
▁nəzər	-10.9188
▁Qra	-10.9188
▁olmasından	-10.9189
▁yayımlanan	-10.9189
▁Şirvanşahlar	-10.9189
▁yarımadasının	-10.9189
▁yuyul	-10.9189
▁idarəsində	-10.9191
▁motiv	-10.9193
asında	-10.9196
qət	-10.9198
▁otaqları	-10.92
▁müayinə	-10.9201
▁1978	-10.9204
▁ailəsinə	-10.9207
▁konfransı	-10.9207
▁Kla	-10.9212
▁Fondunun	-10.9213
▁Hitler	-10.9216
▁təhvil	-10.9216
▁yaradıb	-10.9216
ışı	-10.9217
▁yaralanıb	-10.9217
▁Əzim	-10.9218
▁günün	-10.9221
qlı	-10.9223
▁xaric	-10.9224
▁işlənməsi	-10.9224
laşdı	-10.9226
▁sına	-10.9227
ных	-10.9234
▁məntiqi	-10.9235
linski	-10.924
▁cinayətkar	-10.9242
▁halqa	-10.9243
▁Yas	-10.9243
Anceles	-10.9243
▁estetik	-10.9243
jan	-10.9244
▁atıcı	-10.9247
▁Sak	-10.9248
▁Meh	-10.925
▁Bursa	-10.925
▁Wa	-10.9251
▁nəqliyyatı	-10.9252
▁laboratoriyası	-10.9253
▁sahibləri	-10.9258
▁köçdü	-10.9258
▁qabarıq	-10.9258
▁döyüşçüləri	-10.9259
▁tərəfdarı	-10.9261
▁sayılırdı	-10.9261
▁ağıl	-10.9263
▁kədər	-10.9264
▁toplu	-10.9265
▁lit	-10.9269
▁tənqidçilər	-10.9269
▁vəkili	-10.9273
fal	-10.9275
▁av	-10.9276
▁köçmüş	-10.9279
▁yataqlarının	-10.9281
zol	-10.9281
▁çəmən	-10.9283
▁Ross	-10.9284
▁Volqa	-10.9285
▁İbtidai	-10.9286
▁bəylərbəyi	-10.9286
maya	-10.9286
▁deyirdi	-10.9287
▁qərbdən	-10.9288
▁səhnəsində	-10.9291
tas	-10.9291
AK	-10.9295
▁Azərbaycandakı	-10.9296
▁Cabbar	-10.9296
▁1981	-10.9296
▁təqaüd	-10.9298
▁seminar	-10.9299
yarpaq	-10.9302
▁gətir	-10.9305
40-	-10.9309
▁bildiyi	-10.9311
▁Red	-10.9312
▁çağırır	-10.9314
▁yayında	-10.9314
mul	-10.9316
ktik	-10.9317
▁həkk	-10.932
▁itirmə	-10.932
▁adlar	-10.9323
▁görüşü	-10.9327
▁zə	-10.9328
▁Kateqoriya	-10.9328
▁poeziya	-10.9335
▁danışıq	-10.9335
ıldığı	-10.9336
▁siyahıyaalınma	-10.9341
▁başlanır	-10.9344
▁yaşama	-10.9345
▁alimlərin	-10.9348
▁düşünür	-10.9348
▁küçəsində	-10.9348
ön	-10.9349
▁etsin	-10.9349
▁çök	-10.9351
▁Dünyada	-10.9351
ulmuş	-10.9351
▁redaksiya	-10.9352
▁Elektron	-10.9355
▁minə	-10.9356
ık	-10.9356
▁Turan	-10.936
▁açıqlama	-10.936
▁tanıma	-10.9363
tem	-10.9363
▁yataqxana	-10.9364
lararası	-10.9369
▁əlifba	-10.937
▁jurnalistika	-10.937
▁Moldova	-10.9371
▁dəyişdirilərək	-10.9371
ER	-10.9373
▁00	-10.9376
▁Millətlər	-10.9376
▁teatrında	-10.9378
ти	-10.9379
▁türklərin	-10.9381
▁şöbəsinə	-10.9382
▁rütubətli	-10.9382
▁satın	-10.9382
▁Peru	-10.9384
rul	-10.9384
▁bacı	-10.9385
hri	-10.9388
▁aparatı	-10.939
▁göndərilən	-10.9391
▁yaradılmasında	-10.9393
nom	-10.9393
ydi	-10.9394
▁şəhərlərindən	-10.9396
▁sil	-10.9396
▁karyerasında	-10.9398
▁Xorvatiya	-10.9399
▁nifrət	-10.9399
▁Kro	-10.9399
▁Elçin	-10.9401
▁şərqdən	-10.9404
▁işləmə	-10.9405
▁bitirərək	-10.9405
21-	-10.9405
▁olunmasını	-10.9405
▁təxmin	-10.9406
Se	-10.9407
mid	-10.9408
qra	-10.9409
▁Şin	-10.9409
pil	-10.9411
▁inqilabi	-10.9412
▁reytinq	-10.9412
▁Türküstan	-10.9414
▁Ədirnə	-10.9414
▁partiyanın	-10.9417
▁məsələlərin	-10.9417
▁Samur	-10.9417
▁Sezar	-10.9419
▁Metal	-10.9421
▁finala	-10.9421
minin	-10.9423
▁müalicəsi	-10.9423
▁Respublikanın	-10.9424
▁dövri	-10.9424
TV	-10.9429
▁iy	-10.9433
▁keşiş	-10.9434
bək	-10.9435
kət	-10.9435
▁aparırdı	-10.9435
-13	-10.9435
riz	-10.9436
▁fabrik	-10.9436
ped	-10.9437
kovski	-10.9437
eya	-10.9438
loji	-10.9438
▁gözəlliyi	-10.9439
▁meşələr	-10.944
▁hindu	-10.9441
▁kəndlilər	-10.9442
şad	-10.9449
▁Vasili	-10.9451
▁Rəssamlıq	-10.9451
▁formasını	-10.9453
▁hü	-10.9453
zal	-10.9455
▁Bayrağı	-10.9457
▁zidd	-10.9459
etta	-10.946
▁pu	-10.946
▁tüstü	-10.9461
▁Dini	-10.9463
▁bər	-10.9464
▁atı	-10.9465
▁tədbirlərin	-10.9466
ğə	-10.9468
▁Mad	-10.9468
▁Qaya	-10.9468
▁Gülüstan	-10.9471
▁bilmədiyi	-10.9472
öhrə	-10.9472
▁ailələr	-10.9474
▁pak	-10.9476
▁tablo	-10.9477
▁Allaha	-10.9478
▁həkimi	-10.9481
esi	-10.9482
▁repressiya	-10.9485
▁200-	-10.9487
-5	-10.9489
yov	-10.9491
▁bağlayır	-10.9491
ekt	-10.9493
▁Dərə	-10.9495
▁ərə	-10.9495
▁qalaraq	-10.9497
▁formalaşmışdır	-10.9497
▁qər	-10.9497
miya	-10.9498
▁keramika	-10.95
▁cildi	-10.9501
▁camaat	-10.9501
▁öldürülmüşdür	-10.9501
▁döndü	-10.9502
▁Hil	-10.9506
▁ölmüş	-10.9507
▁saxlanılan	-10.9509
▁Əsərin	-10.951
▁krallığı	-10.951
▁Təşkilatının	-10.9512
▁təkamül	-10.9512
▁Dmitri	-10.9514
▁dağətəyi	-10.9514
▁psixi	-10.9514
▁nəfərin	-10.9514
▁Əh	-10.9516
pr	-10.952
əhər	-10.9521
.00	-10.9522
▁keçirməyə	-10.9522
yum	-10.9525
▁tanınmışdır	-10.9525
▁əlaqələrin	-10.9527
▁Qırğızıstan	-10.9529
▁1909-	-10.9529
▁təcili	-10.953
▁Səhiyyə	-10.953
kcə	-10.9531
▁Sb	-10.9538
▁Cer	-10.9538
▁çöküntülər	-10.9539
▁yetirilməsi	-10.9542
ilərin	-10.9543
▁Mühafizə	-10.9543
▁tikilib	-10.9544
▁ço	-10.9545
▁boşluq	-10.9548
▁eli	-10.955
2010	-10.9552
▁sahələrinin	-10.9554
▁rəhbərləri	-10.9556
▁gətirmək	-10.9556
ast	-10.9557
▁qəhrəmanlıq	-10.9558
▁vuran	-10.956
▁molla	-10.956
▁1918	-10.9562
▁praktiki	-10.9569
▁Qut	-10.957
▁vasitələr	-10.9571
▁Şar	-10.9571
umlu	-10.9571
▁Yəmən	-10.9573
▁əyani	-10.9574
▁işlərin	-10.9574
▁qoşuldu	-10.9574
▁ir	-10.9575
▁alınıb	-10.9576
▁qabiliyyətinə	-10.9578
▁inci	-10.9583
▁Müsabiqə	-10.9584
are	-10.9585
yol	-10.9586
▁xanımın	-10.9587
▁həvalə	-10.9587
▁Çarlz	-10.9587
▁kosmos	-10.9587
▁qoymaq	-10.9587
▁surəsi	-10.9588
▁respublikada	-10.9588
oka	-10.9591
▁Şahin	-10.9592
▁Kürd	-10.9594
şid	-10.9594
tek	-10.9596
▁keçirmiş	-10.9597
▁qrupunda	-10.96
▁sevdiyi	-10.9601
▁tənqidi	-10.9601
▁müdrik	-10.9602
luğunun	-10.9604
▁qayıq	-10.9605
ğru	-10.9607
ни	-10.9607
məmməd	-10.9607
rad	-10.9608
▁İndiki	-10.9609
▁bilərik	-10.961
▁oyunlar	-10.9611
▁Elxan	-10.9611
▁ayrılma	-10.9613
▁yaşaya	-10.9613
▁Zəncan	-10.9616
▁mövsümün	-10.9617
▁gizlən	-10.9619
▁danışan	-10.9622
▁əməliyyatları	-10.9624
▁göstərmə	-10.9624
▁qarşısına	-10.9625
▁qarışığı	-10.9625
osun	-10.9626
▁xidmətlər	-10.9628
▁rubl	-10.9632
▁agent	-10.9637
▁Çal	-10.9639
▁təntənəli	-10.964
▁körfəz	-10.9644
▁görüldü	-10.9645
▁sümüyü	-10.9645
▁intihar	-10.9645
MA	-10.9645
▁qəzetin	-10.9646
▁Fondu	-10.9647
▁lisey	-10.9647
▁qırx	-10.9649
▁Şiraz	-10.9649
zad	-10.9649
▁məskunlaşması	-10.965
▁idarəsinin	-10.9651
▁dinamik	-10.9653
▁vulkanı	-10.9653
▁1920	-10.9654
▁yazan	-10.9655
▁təhlili	-10.9656
▁bunları	-10.9659
▁işlədilir	-10.966
▁evin	-10.9661
▁sarayda	-10.9662
▁hekayələr	-10.9663
ма	-10.9664
▁mühacirət	-10.9664
▁yəhudilər	-10.9665
▁Emil	-10.9667
▁Məclis	-10.9667
tərə	-10.9668
▁komitəsi	-10.9668
▁1983	-10.9672
kra	-10.9674
▁etiqad	-10.9674
▁malikdirlər	-10.9675
▁Rəsmi	-10.9675
▁açıb	-10.9677
sızlıq	-10.9678
▁Qrupun	-10.9678
▁Ul	-10.9681
con	-10.9682
▁Mam	-10.9683
▁narazı	-10.9683
▁məğlubiyyət	-10.9683
▁imiş	-10.9683
▁maldarlıq	-10.9687
▁bölgələrdə	-10.9689
▁Avrasiya	-10.9689
▁millətçi	-10.9692
▁sı	-10.9694
▁sahəni	-10.9696
osa	-10.9697
▁ştatı	-10.9698
kam	-10.9699
▁illərə	-10.97
▁sualtı	-10.9701
ləşmişdir	-10.9702
▁sənayesinin	-10.9703
▁Sinqapur	-10.9704
▁yayılıb	-10.9706
pal	-10.9706
ilib	-10.9708
▁Cabbarlı	-10.9708
▁Tunc	-10.971
müşdü	-10.971
90-	-10.9711
▁ist	-10.9712
▁əməkdaşlığı	-10.9715
▁çayların	-10.9715
▁gömrük	-10.9718
▁fərd	-10.9719
lığından	-10.972
gəl	-10.9721
▁Hüseynqulu	-10.9723
▁SBb	-10.9728
▁90-	-10.9729
▁mükafatları	-10.9729
məsində	-10.973
▁adalarında	-10.9731
▁Kri	-10.9733
qua	-10.9735
▁minarə	-10.9736
ла	-10.974
▁Pekin	-10.9744
▁baba	-10.9744
▁kapitan	-10.9744
çinin	-10.9744
▁Muzeyin	-10.9748
▁Uzaq	-10.9748
▁mobil	-10.9749
▁təsirindən	-10.975
▁mühazirələr	-10.9752
▁məktəblərdə	-10.9753
▁əvvəlcədən	-10.9754
Araz	-10.9754
sso	-10.9755
nel	-10.9758
Ya	-10.976
▁şəffaf	-10.976
▁başlanğıcında	-10.9762
▁Tərəqqi	-10.9763
dikdə	-10.9763
▁çıxarılmış	-10.9765
500	-10.9766
▁sosialist	-10.977
▁təxəllüsü	-10.9771
▁hu	-10.9771
▁Burun	-10.9775
sep	-10.9775
yam	-10.9777
▁miqrasiya	-10.9778
NT	-10.9787
▁dizaynı	-10.9788
▁uzan	-10.9789
▁komandasına	-10.9789
▁dəhşətli	-10.9789
put	-10.9792
mızın	-10.9793
yaşıl	-10.9794
▁İzmir	-10.9794
▁Şer	-10.9795
▁1974	-10.9797
▁oymağı	-10.9798
▁Maksim	-10.9799
▁Bek	-10.9804
▁Tat	-10.9804
▁veb	-10.9806
▁bağırsaq	-10.9807
▁sıxışdır	-10.9807
▁anlaşıl	-10.9808
AT	-10.981
▁çayına	-10.9812
▁məclisi	-10.9812
dular	-10.9813
▁təyyarəsi	-10.9813
▁ərazisindəki	-10.9813
tok	-10.9814
▁Nəbi	-10.9816
▁düşərgəsi	-10.9816
med	-10.9817
▁dəvə	-10.9817
kişi	-10.9821
▁etmədi	-10.9823
▁1904-	-10.9824
andr	-10.9825
▁buğum	-10.9825
izi	-10.9826
▁Hü	-10.9826
▁Fuad	-10.9827
▁başlayırlar	-10.9828
▁adlarını	-10.9831
mür	-10.9833
▁Mənbə	-10.9833
▁olunmasında	-10.9835
▁xəritəsi	-10.9835
▁etməkdən	-10.9838
▁Kot	-10.9839
▁önündə	-10.9839
▁Hazır	-10.984
skop	-10.984
▁Sultanın	-10.9841
▁müharibələri	-10.9841
▁Mala	-10.9842
▁Milad	-10.9842
fur	-10.9844
▁ac	-10.9851
▁istedadı	-10.9852
▁dastanı	-10.9853
▁Abidə	-10.9854
▁KP	-10.9855
▁nəsr	-10.9858
▁delta	-10.9865
▁potensial	-10.9866
▁oynayıb	-10.9867
ofil	-10.987
▁del	-10.9871
emi	-10.9874
▁şahzadəsi	-10.9877
▁sağlamlığı	-10.9879
etti	-10.9881
▁istehkam	-10.9882
▁tənəffüs	-10.9882
▁Körpü	-10.9882
▁ornament	-10.9882
ılaraq	-10.9883
mızda	-10.9885
▁işinin	-10.9886
taş	-10.9887
▁vacibdir	-10.9887
▁yetirmə	-10.9888
▁öldürmək	-10.9889
▁Sor	-10.989
▁Məcid	-10.989
▁hüququnu	-10.9892
▁gövdəsi	-10.9893
▁topladı	-10.9894
mexanik	-10.9895
▁tre	-10.9896
▁oxuyub	-10.9897
tta	-10.9897
▁Əhali	-10.9897
▁Yüz	-10.9898
▁fərqlənən	-10.9899
▁Leyla	-10.9899
fatından	-10.9901
daxili	-10.9901
▁hamam	-10.9903
▁təsirli	-10.9904
rut	-10.9904
▁məğlubiyyətə	-10.9906
terin	-10.9907
▁duy	-10.9907
▁çərçivə	-10.9908
▁xətləri	-10.9908
alma	-10.9909
▁baxır	-10.9911
▁Universitetini	-10.9911
▁Bələdiyyə	-10.9912
▁formalaşmasında	-10.9913
▁Lar	-10.9913
vir	-10.9913
▁adalarının	-10.9917
▁1975	-10.9917
rasiya	-10.9917
▁Güney	-10.9918
fey	-10.9921
▁apar	-10.9921
▁okeanı	-10.9924
▁istiqamətləri	-10.9925
▁Mövsüm	-10.9927
▁konstruksiya	-10.9927
▁cinah	-10.9928
▁canavar	-10.9928
çar	-10.9931
tam	-10.9932
fər	-10.9933
▁becərilir	-10.9934
▁uzunluqda	-10.9934
▁hüquqşünas	-10.9937
▁qoymuş	-10.9938
düyünü	-10.9938
▁Hacıbəyov	-10.994
▁Arslan	-10.9942
▁seçkilərində	-10.9944
▁sinfinə	-10.9945
▁elementi	-10.9945
▁Deməli	-10.9947
▁edənlər	-10.9947
▁başlanması	-10.9947
▁mağaza	-10.9948
▁ulduzlar	-10.9949
▁davamı	-10.9951
təmsilçilərindən	-10.9953
▁Frank	-10.9955
▁Məscidin	-10.9956
birini	-10.9958
▁müsəlmanların	-10.996
▁Sul	-10.9961
▁Fran	-10.9961
təsi	-10.9962
▁düşmənin	-10.9964
dy	-10.9964
▁maq	-10.9965
▁vəziyyətini	-10.9966
▁bəzədilmiş	-10.9966
▁qabar	-10.9966
burq	-10.9969
▁xəstəlikləri	-10.997
▁tərkibli	-10.9971
▁verilmişdi	-10.9971
▁kənarları	-10.9972
▁Ant	-10.9972
▁Cəlilabad	-10.9974
▁pas	-10.9974
▁otlaq	-10.9974
▁bürü	-10.9978
▁əsgərlər	-10.9978
▁xlor	-10.9978
▁hara	-10.9983
▁Qe	-10.9984
həd	-10.9988
▁arxipelaqı	-10.9991
▁atəşi	-10.9992
▁hüceyrələri	-10.9994
▁obrazını	-10.9995
▁azot	-10.9996
bre	-10.9996
▁oyunlarında	-10.9997
▁iyununda	-10.9997
liyyət	-10.9997
▁01	-10.9998
▁ssenarist	-10.9999
▁getmə	-10.9999
▁proqramlaşdırma	-10.9999
▁öd	-11
▁binaları	-11.0002
▁Taqanroq	-11.0002
ladığı	-11.0003
▁avtobus	-11.0003
▁Kürdəmir	-11.0003
▁qanunlar	-11.0004
▁Qır	-11.0005
▁universitetləri	-11.0008
▁məzarı	-11.001
▁duyğu	-11.0011
yal	-11.0012
▁artımı	-11.0016
▁obyektiv	-11.0016
▁rəngarəng	-11.0018
▁obrazlar	-11.002
▁şirəsi	-11.002
diyindən	-11.0021
▁güləş	-11.0025
▁qoz	-11.0028
fü	-11.0028
▁dialekt	-11.0028
etin	-11.0031
▁Səhra	-11.0032
▁doğulduğu	-11.0032
▁hicri	-11.0033
▁soğan	-11.0035
▁sikkələr	-11.0036
pir	-11.0038
atur	-11.004
▁Nan	-11.0044
▁sərkərdəsi	-11.0046
▁ağzı	-11.0048
▁Münhen	-11.0048
▁Noyabr	-11.0048
▁Nəsib	-11.0049
▁keçidi	-11.0049
hab	-11.005
ofit	-11.005
▁Gir	-11.005
medi	-11.0051
▁fərdlər	-11.0052
▁şeylər	-11.0052
▁veril	-11.0055
▁Zu	-11.0056
▁qızılı	-11.0056
▁dilindəki	-11.0057
▁Sarayın	-11.0058
slav	-11.0061
▁gözəllik	-11.0061
▁Piter	-11.0063
▁Heyəti	-11.0064
▁ustad	-11.0064
▁povest	-11.0064
▁prosessor	-11.0064
▁Anime	-11.0065
▁verilirdi	-11.0065
Qərb	-11.0067
yası	-11.0068
▁diri	-11.0069
▁sərhədi	-11.0072
▁qışda	-11.0075
-25	-11.0075
▁ekspedisiyası	-11.0076
▁uğuru	-11.0077
▁Liqasının	-11.0078
▁xəyanət	-11.0079
▁təqdirdə	-11.0079
▁populyasiya	-11.0079
▁növlərinin	-11.008
OS	-11.0081
▁balina	-11.0082
▁kafedralı	-11.0083
▁Mas	-11.0089
▁tərəflər	-11.0089
▁qaçdı	-11.009
▁göstərişi	-11.009
rek	-11.0093
▁firması	-11.0093
▁karbohidrogen	-11.0094
▁İnşaat	-11.0094
boz	-11.0094
▁Naxçıvanın	-11.0095
qov	-11.0095
17-	-11.0095
▁iman	-11.0098
▁portreti	-11.0099
▁neo	-11.01
▁fikirlərini	-11.0101
▁125	-11.0102
▁səhnəyə	-11.0103
▁Leon	-11.0104
▁Qon	-11.0105
bağ	-11.0107
mirdi	-11.0108
landırır	-11.0109
▁hökümət	-11.011
▁sürücü	-11.011
▁valisi	-11.0111
▁İncil	-11.0111
▁Flor	-11.0115
▁Ah	-11.0115
▁təbəqəsi	-11.0115
▁tax	-11.0116
amin	-11.0117
▁Mik	-11.0117
▁çevrilmiş	-11.0121
▁Yal	-11.0122
▁dayandırıl	-11.0123
▁İohann	-11.0124
▁vampir	-11.0124
lağı	-11.0125
он	-11.0128
▁1972	-11.0129
▁Divan	-11.0132
ciklər	-11.0133
▁təkmilləşdiril	-11.0135
▁toponimi	-11.0135
eta	-11.0135
▁AR	-11.0136
▁Hadisə	-11.014
▁mühakimə	-11.014
▁Tut	-11.0142
əsinin	-11.0143
iyy	-11.0147
ımız	-11.0147
▁yazar	-11.0147
bara	-11.0148
▁dənizə	-11.015
eyb	-11.015
▁Kül	-11.015
▁özbək	-11.0151
▁Məhəmmədəli	-11.0151
▁Əhalisinin	-11.0152
▁göndər	-11.0154
▁3.	-11.0154
▁filmidir	-11.0154
▁tarixləri	-11.0156
▁ansamblı	-11.0156
▁saxta	-11.0157
tib	-11.0159
lüyünü	-11.0159
sent	-11.0159
Axundov	-11.0159
.18	-11.0161
oza	-11.0161
▁soyqırım	-11.0162
oğlunun	-11.0162
▁Memarlıq	-11.0163
▁məlumatlarına	-11.0163
▁mədən	-11.0164
sas	-11.0169
▁Yevlax	-11.0171
▁müstəvi	-11.0171
▁sədaqət	-11.0171
▁DVD	-11.0171
▁Hidro	-11.0174
▁püskürmə	-11.0175
▁təsərrüfatının	-11.0176
rlər	-11.0177
▁əhaliyə	-11.0178
▁çıxarıl	-11.0181
▁uğradı	-11.0181
▁əməli	-11.0184
▁odur	-11.0184
yus	-11.0186
▁Fərrux	-11.0186
▁olacağı	-11.0187
▁hissənin	-11.0187
▁mühasirə	-11.0188
tac	-11.0191
▁Pin	-11.0194
▁format	-11.0195
▁satıl	-11.0199
▁tapşır	-11.0201
▁eksponat	-11.0201
▁polyak	-11.0202
qrafiya	-11.0203
▁Kab	-11.0203
▁Şuşada	-11.0206
▁məşğuldur	-11.021
▁sular	-11.0211
▁kitabların	-11.0212
şın	-11.0213
▁yalan	-11.0213
▁təsvirləri	-11.0214
нов	-11.0215
▁Xəlifə	-11.0217
▁ifraz	-11.0217
▁qəddar	-11.0217
▁bəxşində	-11.0221
▁düyü	-11.0223
▁Lan	-11.0223
▁istila	-11.0225
lyu	-11.0226
▁hökmü	-11.023
▁evlilik	-11.023
▁topu	-11.0231
▁Koroğlu	-11.0233
▁inkişafını	-11.0235
▁duran	-11.024
▁Britaniyada	-11.0241
▁görülmüş	-11.0244
ур	-11.0244
▁Səs	-11.0248
▁durur	-11.0252
▁büdcə	-11.0252
▁Romada	-11.0252
▁şüaları	-11.0253
▁işığın	-11.0255
▁Ney	-11.0256
▁məsuliyyəti	-11.0258
▁yetir	-11.0258
▁aparıcısı	-11.0259
▁keçdikdə	-11.026
fiz	-11.0261
▁itaət	-11.0264
▁doğulan	-11.0266
▁vurmuşdur	-11.0266
osu	-11.0273
▁Orxan	-11.0277
uy	-11.0279
▁Mübariz	-11.0279
ald	-11.028
▁Orda	-11.0281
▁edil	-11.0284
əndə	-11.0285
daşları	-11.0285
▁mahiyyəti	-11.0285
▁Tatar	-11.0287
▁Mədəni	-11.0287
▁nu	-11.0288
▁Luis	-11.0289
bənd	-11.029
▁büdcəsi	-11.0291
▁milyondan	-11.0291
▁Ağac	-11.0292
▁olunacaq	-11.0294
▁pen	-11.0295
▁Eduard	-11.0295
▁qurucusu	-11.0295
▁Təhmasib	-11.0297
▁Mont	-11.0298
▁şeyx	-11.0299
▁müxalifət	-11.03
▁Ven	-11.0301
▁filmlərdə	-11.0304
▁kadrların	-11.0307
▁memarı	-11.0309
▁Dadaşov	-11.031
▁NATO	-11.031
▁qaraciyər	-11.031
▁sarayının	-11.031
▁Zelandiya	-11.0311
▁cərgə	-11.0311
▁fərziyyə	-11.0311
▁Dəstə	-11.0313
▁Əf	-11.0315
nder	-11.0316
▁Keçi	-11.0317
▁yaşadı	-11.032
▁İşçi	-11.0324
▁macəra	-11.0324
▁ənənəsi	-11.0325
▁kos	-11.0325
▁Bella	-11.0328
▁Krallığı	-11.0329
kka	-11.0333
▁0,5	-11.0336
roz	-11.0337
▁rəssamlıq	-11.0339
▁süfrə	-11.0342
▁işlənmiş	-11.0342
▁Florensiya	-11.0342
▁tapşırığı	-11.0342
▁digəri	-11.0343
▁həcmli	-11.0343
▁əfsanəvi	-11.0345
▁prosesinin	-11.0348
▁mühəndisi	-11.035
AS	-11.0352
▁soyadı	-11.0353
▁festivalı	-11.0353
▁Qul	-11.0356
▁Konqresi	-11.0357
▁çəhrayı	-11.0357
▁yumru	-11.0357
▁parkın	-11.0358
▁Universitetdə	-11.036
▁külli	-11.036
▁sənin	-11.036
▁naxışlar	-11.0361
▁Müstəqil	-11.0361
tiya	-11.0362
larıdır	-11.0365
▁ilham	-11.0373
▁Beyləqan	-11.0373
▁Tezliklə	-11.0374
▁debütünü	-11.0375
▁analizi	-11.0379
▁itirmiş	-11.0379
▁əlaməti	-11.0379
▁Baltik	-11.0379
▁bitkisidir	-11.0381
▁1973	-11.0381
▁günlərdə	-11.0381
▁Ama	-11.0382
▁çıxa	-11.0387
▁sənətçi	-11.0389
▁kəmər	-11.039
▁1976	-11.0391
▁donanma	-11.0392
▁kurqan	-11.0395
▁veriliş	-11.0396
▁səlahiyyətləri	-11.0397
fen	-11.0398
▁29-	-11.0399
▁fo	-11.04
▁fayda	-11.0401
ürdü	-11.0403
maş	-11.0403
▁daşıma	-11.0404
▁Agentliyi	-11.0405
▁marşrut	-11.0405
neft	-11.0405
▁rektoru	-11.0406
▁qayalıq	-11.0406
kova	-11.0407
▁münasibətilə	-11.0408
▁prinsip	-11.0409
▁ayrılmışdır	-11.0412
Al	-11.0414
▁Ph	-11.0417
allı	-11.042
vad	-11.0421
▁mövsümdə	-11.0423
▁alış	-11.0425
▁dağlarında	-11.0427
▁Əsr	-11.0427
▁əhəmiyyətini	-11.0431
▁alırdı	-11.0431
▁inkişafının	-11.0435
▁qoruyucu	-11.0436
▁hamilə	-11.0438
65-	-11.0439
off	-11.044
▁qiymətləndir	-11.0444
▁adamların	-11.0444
▁aldıqdan	-11.0445
▁marka	-11.0445
▁maarifçi	-11.0445
▁Dəli	-11.0447
▁çəkmiş	-11.045
им	-11.0451
manı	-11.0451
▁proqnoz	-11.0452
▁çatışmazlığı	-11.0452
▁Əksər	-11.0453
▁tərs	-11.0455
▁müəssisələr	-11.046
▁poeziyası	-11.0461
oksid	-11.0461
▁yetiril	-11.0463
▁gənclərin	-11.0464
ies	-11.0466
▁dünyəvi	-11.0468
▁İlkin	-11.0469
▁Mərkəzində	-11.0469
▁dərəcəsinə	-11.047
▁xatirəsinə	-11.0472
▁evlər	-11.0473
▁səviyyəsinə	-11.0475
▁qaldırmaq	-11.0477
şti	-11.0478
▁çıxarmaq	-11.0479
▁tay	-11.0479
▁mövqeyini	-11.0482
▁gölünün	-11.0483
▁subtropik	-11.0484
▁Rafael	-11.0484
▁tök	-11.0484
▁zərif	-11.0485
▁sığınacaq	-11.0486
▁məhsulların	-11.0486
▁yazılıb	-11.0486
olma	-11.0486
▁Aleks	-11.0488
▁çıxarılır	-11.0489
▁170	-11.049
vur	-11.049
▁verər	-11.049
▁çoban	-11.0491
▁sima	-11.0491
▁qüvvəsini	-11.0492
▁yetişir	-11.0493
▁fır	-11.0493
▁kəndlərində	-11.0493
▁pop	-11.0495
▁kəllə	-11.0496
forma	-11.0498
dırır	-11.0499
▁Bülbül	-11.05
eg	-11.0501
▁Tok	-11.0503
▁Xanlar	-11.0503
▁kadr	-11.0504
▁qatil	-11.0505
▁Qı	-11.0506
▁öldürdü	-11.0506
▁zabiti	-11.0507
▁Komitə	-11.0511
iyalılar	-11.0513
▁bilmişdi	-11.0515
▁bölgələri	-11.0516
▁olunmur	-11.0517
bet	-11.0518
▁qurğusu	-11.0521
▁kainat	-11.0522
▁temp	-11.0522
▁mənşə	-11.0523
▁üsulla	-11.0524
▁getdiyi	-11.0525
▁orqanlarında	-11.0525
▁1919	-11.0526
▁qadağa	-11.0526
▁Nil	-11.0527
▁inancı	-11.0528
ləmişdir	-11.0529
▁məhsulun	-11.0529
▁izləri	-11.0529
▁rəsmən	-11.053
▁Media	-11.0532
▁Liverpul	-11.0532
▁animasiya	-11.0532
▁1902-	-11.0532
▁tutulmuşdur	-11.0533
▁Xal	-11.0533
▁monastır	-11.0534
▁övlad	-11.0534
▁şüalanma	-11.054
▁leytenant	-11.0542
▁namazı	-11.0542
▁Elizabet	-11.0548
▁başqırdlar	-11.0552
arsa	-11.0553
▁ref	-11.0557
▁ətəyində	-11.0558
şev	-11.0559
▁Lyu	-11.0561
▁yarışı	-11.0562
▁müəllifin	-11.0563
▁Yuqoslaviya	-11.0564
▁pişik	-11.0564
9.1937	-11.0564
▁təhrif	-11.0564
▁metodik	-11.0565
▁Fərəc	-11.0566
▁otuz	-11.0566
sək	-11.057
▁Amerikalı	-11.057
▁saf	-11.0571
▁taxtı	-11.0572
Tədqiqat	-11.0572
▁uşağın	-11.0572
▁müddətli	-11.0575
▁Xanım	-11.0575
▁Quş	-11.0576
▁səbəblə	-11.0577
▁şiddət	-11.0577
▁monastırı	-11.0578
▁Len	-11.0579
▁Ağcabədi	-11.058
▁Slovakiya	-11.058
▁əhli	-11.058
▁Doğu	-11.058
▁mol	-11.0582
▁aparat	-11.0585
lor	-11.0586
▁ölkədən	-11.0586
▁edilmir	-11.0587
darlıq	-11.0589
▁sevgisi	-11.0593
▁Müsabiqəsi	-11.0593
▁etdikdə	-11.0594
Tə	-11.0594
▁Tanrının	-11.0595
▁müxtəlifliyi	-11.0596
▁yarımçıq	-11.0596
▁Rəfi	-11.0596
▁türkləri	-11.0597
pərvər	-11.0598
▁Gölün	-11.0598
ense	-11.06
▁buxtası	-11.0601
məsindən	-11.0602
olun	-11.0603
▁erkək	-11.0604
▁rəsmləri	-11.0606
▁iyulunda	-11.0606
▁məhsullar	-11.0608
xma	-11.0613
▁insana	-11.0613
▁düşməni	-11.0613
ая	-11.0613
▁kommersiya	-11.0616
osfer	-11.0616
ben	-11.0617
▁qədərdir	-11.062
zur	-11.062
ons	-11.0623
moto	-11.0623
ET	-11.0627
▁çevrə	-11.0628
▁uzunmüddətli	-11.0628
▁Mədinə	-11.0628
tip	-11.0629
dırlar	-11.0629
▁oturaq	-11.063
ets	-11.0631
▁binasının	-11.0631
▁əh	-11.0636
▁ocaq	-11.0636
▁günlük	-11.0636
▁etdirmiş	-11.0636
▁olmaları	-11.0636
▁məz	-11.0637
▁irs	-11.0639
rup	-11.0639
▁Vurğun	-11.0639
▁birlikləri	-11.064
▁yönəlmiş	-11.064
que	-11.064
▁nailiyyətlər	-11.0643
▁ərəbcə	-11.0644
▁Müəyyən	-11.0644
▁Qahirə	-11.0644
▁1898-	-11.0644
▁çö	-11.0647
▁unu	-11.0648
og	-11.065
rəng	-11.0651
▁qızılbaş	-11.0652
▁yaşadıqları	-11.0654
▁girmə	-11.0656
ем	-11.0657
▁Memar	-11.0658
▁Ehtimal	-11.066
▁Dişi	-11.0664
▁musiqisinin	-11.0665
▁ovu	-11.0666
ğur	-11.0667
▁görmüş	-11.067
▁Sasani	-11.0671
▁yaran	-11.0671
▁dayaq	-11.0673
▁toxun	-11.0674
▁Federal	-11.0677
▁oğuz	-11.0677
▁Növ	-11.0678
▁Doktor	-11.0678
▁Hüs	-11.0679
idze	-11.0681
▁nəzərdən	-11.0683
▁götürmüşdür	-11.0683
fli	-11.0684
▁müharibədən	-11.0684
▁eynidir	-11.0684
▁Cor	-11.0686
▁Ayətullah	-11.0693
▁Diyarbəkir	-11.0693
▁ağciyər	-11.0693
▁Venera	-11.0694
▁çəkin	-11.0695
▁dəmiryol	-11.0695
alizm	-11.0696
▁böl	-11.0696
▁qabiliyyətini	-11.0699
▁dağılmış	-11.07
uf	-11.07
▁İst	-11.0705
▁arzusu	-11.0706
▁önəm	-11.0706
rok	-11.0707
▁dəmiryolu	-11.0708
lip	-11.0708
▁prodüser	-11.0708
▁Dor	-11.0709
Mar	-11.0709
▁Kabinetinin	-11.071
▁Viktoriya	-11.0711
▁içinə	-11.0711
▁aşağıdakılardır	-11.0712
▁bölün	-11.0714
▁İns	-11.0714
▁350	-11.0715
day	-11.0717
▁proqramın	-11.0718
▁parçalanması	-11.0719
их	-11.072
▁irq	-11.0721
▁qalmaq	-11.0721
▁Yarış	-11.0724
▁gəmilər	-11.0724
▁Əlcəzair	-11.0725
▁atletika	-11.0727
▁funksiyasını	-11.0734
▁3-4	-11.0737
▁göndərilmişdir	-11.0738
▁varisi	-11.0738
▁çöküntü	-11.0739
ej	-11.074
▁vadi	-11.0741
məhəmməd	-11.0742
▁Həmkarlar	-11.0742
çiçəyi	-11.0742
▁silahı	-11.0742
▁radikal	-11.0742
▁axtarışı	-11.0744
zik	-11.0745
▁açar	-11.0747
▁fin	-11.0749
BA	-11.0752
çer	-11.0754
▁kütlələri	-11.0757
▁qələvi	-11.0758
▁gəmiləri	-11.0761
▁masa	-11.0761
kart	-11.0762
zü	-11.0763
▁bunlardır	-11.0763
▁kafedrası	-11.0763
▁qarət	-11.0765
▁bitkidir	-11.0767
▁nəşriyyat	-11.0768
▁yanaş	-11.0769
rim	-11.077
▁Kel	-11.0771
▁Çö	-11.0772
▁surət	-11.0774
▁getməsi	-11.0774
▁şəkillər	-11.0774
▁Erkək	-11.0774
▁Mançester	-11.0774
▁alternativ	-11.0774
▁idrak	-11.0775
viç	-11.0776
▁tipik	-11.0777
boy	-11.078
▁ölkələrdən	-11.0786
▁Xaqan	-11.0786
▁İnstitut	-11.0786
▁ziddiyyət	-11.0786
▁caz	-11.0787
-7	-11.0788
▁Misirin	-11.0789
▁Rafiq	-11.0791
▁dönüş	-11.0791
▁indiyədək	-11.0792
▁qurultayı	-11.0793
yış	-11.0795
▁qadını	-11.0796
▁üsyançılar	-11.0796
▁konsertlər	-11.0796
▁doktor	-11.0796
▁Şıx	-11.0797
tex	-11.0802
▁meşələri	-11.0803
▁fakultəsin	-11.0804
▁yaşaması	-11.0805
▁ölür	-11.0805
▁səmimi	-11.0808
▁vəzifədən	-11.0808
▁stabil	-11.0808
rım	-11.081
▁tac	-11.0812
▁edilər	-11.0814
▁xəttində	-11.0815
rap	-11.0815
▁vəziyyətinə	-11.082
▁sikkə	-11.082
▁hazırlamışdır	-11.0821
▁iqtidar	-11.0824
▁Stra	-11.0824
▁aviasiya	-11.0826
▁iqamətgahı	-11.0829
▁Məhərrəm	-11.0832
от	-11.0832
▁Sad	-11.0833
▁oxumaq	-11.0834
87-	-11.0835
▁82	-11.0838
▁tutulması	-11.0838
▁cisim	-11.0838
▁Ufa	-11.0839
▁qolunu	-11.084
▁International	-11.084
▁Dra	-11.084
▁Məmlük	-11.0841
▁vurul	-11.0841
▁kənara	-11.0841
▁elastik	-11.0842
▁işləyirdi	-11.0844
ure	-11.0844
▁müvəffəq	-11.0845
▁1971	-11.0845
▁qərbə	-11.0846
ки	-11.0846
oks	-11.085
▁obyektlərin	-11.0851
▁daşnak	-11.0851
▁qulluqçu	-11.0851
▁diz	-11.0853
▁qazanmaq	-11.0853
▁zirehli	-11.0856
▁Müqavilə	-11.0857
▁yarımsəhra	-11.0857
▁istehsalında	-11.0857
▁partlayıcı	-11.0857
▁itirir	-11.0857
▁duman	-11.0859
▁qarışdır	-11.086
▁Abbasqulu	-11.086
▁qaçmağ	-11.0869
▁işlənmişdir	-11.0869
▁səciyyəvidir	-11.0871
▁tab	-11.0871
▁donuz	-11.0872
▁istehlak	-11.0873
▁bəd	-11.0874
▁Xankəndi	-11.0874
▁təyinatlı	-11.0876
▁Kişi	-11.0878
▁Naz	-11.0878
AL	-11.0879
▁qutu	-11.0879
▁evinin	-11.0879
▁üstünlüyü	-11.088
▁farsca	-11.088
▁çoxillik	-11.088
▁təşkilatçı	-11.0881
▁dastan	-11.0882
tmişdir	-11.0882
▁fəsiləsi	-11.0883
▁qaçış	-11.0884
▁məskəni	-11.0886
▁akademiyası	-11.0888
▁maddələri	-11.0889
▁canlılar	-11.0889
▁kobud	-11.089
▁İldırım	-11.089
▁keçdikcə	-11.0891
▁tarixdən	-11.0896
▁payı	-11.0897
▁Fərmanı	-11.0898
▁çempionat	-11.0898
▁avar	-11.0902
ləşdirən	-11.0903
▁Aran	-11.0904
▁sabiq	-11.0906
▁Sevil	-11.0907
▁qarşılaşma	-11.0908
▁şiddətli	-11.0909
▁Hərəkatı	-11.091
▁Zəngilan	-11.091
▁tərbiyəsi	-11.0911
▁Sadə	-11.0912
▁aksiya	-11.0913
▁cənubdan	-11.0914
▁Artur	-11.0915
▁Liqasında	-11.0915
▁hakimiyyətdə	-11.0917
▁Eri	-11.0918
▁Bad	-11.0918
▁rəğbət	-11.0919
▁hissələrinin	-11.0919
otik	-11.0923
▁Kər	-11.0923
▁Təxminən	-11.0923
▁təfsir	-11.0923
▁Yelena	-11.0923
hey	-11.0924
▁sizə	-11.0927
▁işçiləri	-11.0928
▁olunmaq	-11.093
▁bütünlüklə	-11.0931
▁vaxta	-11.0932
▁ərazisini	-11.0933
▁doğulmuş	-11.0933
▁əsaslandır	-11.0934
▁ölümünə	-11.0935
▁Təb	-11.0935
▁qoyulması	-11.0936
▁her	-11.0938
dilən	-11.0938
▁yüksəkliyi	-11.0939
▁Alyaska	-11.094
▁vuruşma	-11.094
▁səhnələri	-11.0941
▁Sahib	-11.0941
uza	-11.0942
▁Pey	-11.0942
▁şirkətləri	-11.0945
▁tələbi	-11.0946
dib	-11.0949
dığından	-11.0949
▁Yuri	-11.0949
▁götürülür	-11.095
▁dənizinə	-11.095
▁mövzular	-11.0951
xov	-11.0952
▁keçirilirdi	-11.0953
ləşdiyi	-11.0953
▁onurğa	-11.0955
▁Vəzir	-11.0955
▁polad	-11.0955
▁kinoteatr	-11.0956
▁İntibah	-11.0956
▁texnoloji	-11.0956
▁AT	-11.0956
▁günümüzə	-11.0956
▁Fatma	-11.0959
▁Geo	-11.0961
yy	-11.0962
sli	-11.0963
▁layihələr	-11.0963
▁adıdır	-11.0966
▁Kost	-11.0966
▁məzhəb	-11.0967
▁etdirilmişdir	-11.0967
▁gedirdi	-11.0967
▁dövlətinə	-11.0971
▁zorla	-11.0973
▁Vulkan	-11.0973
▁Günü	-11.0975
ле	-11.0975
▁keçmişdə	-11.0976
▁gərginlik	-11.0978
▁sıralarında	-11.0979
▁yaratmışdı	-11.0979
ifikasiya	-11.0981
ха	-11.0981
▁xəttinin	-11.0982
▁Keş	-11.0983
▁təqvim	-11.0983
▁fotoqraf	-11.0984
▁Ələkbərov	-11.0985
▁Əsgərov	-11.0985
▁edirəm	-11.0985
▁sədrinin	-11.0987
▁təminat	-11.0987
▁Fikrət	-11.099
▁Küveyt	-11.099
▁spesifik	-11.099
▁Cinayət	-11.099
▁Qüds	-11.099
▁Məktəbində	-11.099
▁Ani	-11.0991
▁payına	-11.0991
▁geologiya	-11.0991
▁İç	-11.0993
▁iynə	-11.0995
lmuşdur	-11.0995
▁ədəbiyyatşünas	-11.0995
▁vəziri	-11.0995
▁tayfalar	-11.0996
▁Demokrat	-11.1002
▁1964	-11.1002
▁hüdud	-11.1003
▁öldürülməsi	-11.1005
▁zəfər	-11.1007
▁Buxara	-11.1008
itin	-11.1009
▁pulsuz	-11.1011
▁Vilayət	-11.1014
56-	-11.1015
▁kitabını	-11.1018
▁orduya	-11.102
▁Rob	-11.1021
▁Lay	-11.1021
▁kur	-11.1023
▁islahat	-11.1024
▁qurtul	-11.1024
ting	-11.1025
uşa	-11.1026
▁qiymətlər	-11.1026
▁kürd	-11.1026
▁gah	-11.103
▁varlığı	-11.1031
▁adlandırmışdır	-11.1032
▁tamaşaya	-11.1034
▁sayında	-11.1035
▁silahlar	-11.1037
▁edilsə	-11.1037
▁inteqrasiya	-11.104
▁federal	-11.104
iyət	-11.1042
▁Haram	-11.1045
fel	-11.1045
▁qazanmışdı	-11.1047
▁Şor	-11.1047
əslən	-11.1047
arası	-11.1048
İN	-11.1049
▁haq	-11.1049
▁başlanan	-11.1049
▁alay	-11.105
▁prof	-11.1051
▁üzünü	-11.1051
üst	-11.1052
mble	-11.1053
▁saz	-11.1055
▁buradakı	-11.1056
▁Nəsimi	-11.1057
▁almanlar	-11.1059
▁kata	-11.1059
▁hücumları	-11.1061
▁qurmuşdu	-11.1063
▁Cahan	-11.1063
▁rəqsi	-11.1064
▁Şeir	-11.1064
▁çoxunu	-11.1065
qubernator	-11.1066
▁İnsanlar	-11.1066
▁Erkən	-11.107
ру	-11.1071
.10	-11.1072
▁cənab	-11.1074
59-	-11.1083
fun	-11.1084
▁verdilər	-11.1089
▁Körfəz	-11.1091
▁Dem	-11.1091
▁Konqres	-11.1091
▁xalçaçılıq	-11.1093
▁qaydalar	-11.1093
▁fan	-11.1094
▁Ümum	-11.1094
TA	-11.1095
▁Ayrıca	-11.1095
▁yığmasının	-11.1095
ert	-11.11
▁təkmil	-11.1103
▁sürür	-11.1105
▁go	-11.1106
▁təqdimatı	-11.1106
▁Rəşad	-11.1108
▁Tim	-11.1108
▁qoyulub	-11.1108
▁potensialı	-11.1109
▁Sov	-11.1111
▁artist	-11.1114
▁qanadları	-11.1115
ос	-11.1115
adze	-11.1118
nıy	-11.112
▁koordinat	-11.1121
lular	-11.1123
▁müəllimlik	-11.1124
▁mütəmadi	-11.1124
▁Türbə	-11.1125
▁qoruyur	-11.1125
▁Mənsur	-11.1127
▁ordusunu	-11.1128
▁görülən	-11.113
lq	-11.1132
darı	-11.1133
▁Gör	-11.1133
▁bitkisi	-11.1135
▁imzaladı	-11.1136
▁All	-11.1138
▁Rub	-11.1138
▁ben	-11.1141
▁tərəqqi	-11.1141
▁sökül	-11.1142
ləşib	-11.1142
▁Stefan	-11.1143
▁Məhəmmədin	-11.1144
▁xammal	-11.1145
▁dayandırdı	-11.1145
▁məbədin	-11.1146
▁kubok	-11.1147
▁qram	-11.1147
▁Xe	-11.1148
▁Fransaya	-11.1148
ləşdirmişdir	-11.115
oyun	-11.1151
▁mərkəzlərindən	-11.1151
▁sahəyə	-11.1153
▁elmin	-11.1154
▁dan	-11.1154
▁əhəmiyyətə	-11.1155
▁Proqram	-11.1158
▁minilliyin	-11.1159
sl	-11.1159
▁tikilən	-11.1162
▁resursları	-11.1166
▁ağacları	-11.1166
▁Odur	-11.1168
▁məbləğ	-11.117
-11	-11.117
▁amansız	-11.1176
▁buzlağı	-11.1176
▁Anton	-11.1177
şteyn	-11.1178
▁tədrisi	-11.1178
▁Tel	-11.1178
▁Əbül	-11.1181
şim	-11.1181
▁Hen	-11.1181
▁sinql	-11.1182
atura	-11.1184
▁uğurlar	-11.1187
▁filmlərində	-11.1189
▁oyuna	-11.1189
▁kazak	-11.1193
▁sənətkarlıq	-11.1193
▁sonlarına	-11.1194
mark	-11.1194
▁ani	-11.1194
▁1968	-11.1196
▁musiqili	-11.12
▁Cekson	-11.1202
MS	-11.1207
▁kompyuter	-11.121
▁Oqtay	-11.121
▁slavyan	-11.121
▁Potter	-11.121
▁sayını	-11.121
▁məhbus	-11.121
▁salmaq	-11.121
▁lokal	-11.1211
▁qızdır	-11.1211
▁töhfə	-11.1212
ical	-11.1212
▁başlama	-11.1214
▁talan	-11.1215
▁qidalanma	-11.1216
▁istiqamətli	-11.122
▁hissəciklər	-11.1222
▁Kompleks	-11.1222
▁ildəki	-11.1224
ал	-11.1224
▁Eli	-11.1226
▁genişlənməsi	-11.1226
▁Elektrik	-11.1227
▁dəyişdirilib	-11.1227
▁həndəsi	-11.1227
▁Arxiv	-11.1227
▁himayə	-11.1229
▁1-2	-11.123
▁qalırdı	-11.123
mıza	-11.1231
▁Toy	-11.1231
▁razılığı	-11.1232
▁karvan	-11.1234
▁harada	-11.1235
▁əd	-11.1237
▁Cons	-11.1239
oxu	-11.1242
▁Varşava	-11.1244
şır	-11.1245
masının	-11.1247
▁rütubət	-11.1247
▁çatdıqda	-11.125
▁komponentlərin	-11.1251
▁hüceyrələr	-11.1252
▁düzənliyi	-11.1255
▁rəssamlar	-11.1255
▁alırlar	-11.1255
▁Kul	-11.1256
▁mühitdə	-11.1258
laması	-11.1259
▁yaylası	-11.126
27-	-11.126
▁xaricə	-11.126
▁güzəşt	-11.1261
▁anlam	-11.1262
▁1828-	-11.1262
▁müəllifləri	-11.1262
▁turnirin	-11.1262
ий	-11.1262
çaq	-11.1263
▁mq	-11.1264
itar	-11.1265
▁ayaqları	-11.1268
▁kadrlar	-11.1269
▁ağıllı	-11.1269
▁şərqə	-11.1271
▁əsaslanaraq	-11.1271
birinin	-11.1272
▁araba	-11.1272
▁yamac	-11.1274
▁bölmələri	-11.1275
▁Şəkil	-11.1276
its	-11.1277
▁Ağstafa	-11.1278
▁1870-	-11.1279
part	-11.1281
demokrat	-11.1281
▁seriyasında	-11.1282
77-	-11.1282
▁Xatun	-11.1284
▁Vəzirov	-11.1285
▁Mos	-11.1285
▁yeniyetmə	-11.1288
▁Liza	-11.129
▁çəkib	-11.129
ко	-11.1292
▁maska	-11.1292
▁geriyə	-11.1292
▁İslandiya	-11.1296
▁şəhərlər	-11.1297
▁formalaşır	-11.1298
▁Ağdərə	-11.1299
▁Komissiyası	-11.13
DA	-11.13
▁studiyası	-11.1301
▁Roz	-11.1302
▁hamısını	-11.1302
▁düyün	-11.1303
▁yaralanmışdır	-11.1306
▁seçil	-11.1306
▁Kubokunun	-11.1309
▁qurğular	-11.131
▁sak	-11.1312
▁qoşulur	-11.1312
▁işlədilən	-11.1314
▁aparıb	-11.1315
▁qaydası	-11.1316
ləyici	-11.1317
cəyini	-11.1319
▁int	-11.1319
▁təmizləmə	-11.132
▁Balet	-11.1322
ope	-11.1324
▁Təbrizə	-11.1325
ет	-11.1325
▁gətirilmiş	-11.1326
▁səbəbləri	-11.1328
▁gecəsi	-11.1328
uta	-11.1328
bak	-11.133
ovanın	-11.133
▁öldürmüşlər	-11.133
400	-11.1333
▁Ət	-11.1334
▁Mehdiyev	-11.1335
mmer	-11.1335
▁həddindən	-11.1337
▁komandaları	-11.1337
▁dünyası	-11.1338
ildi	-11.1339
й	-11.134
▁bilməmişdir	-11.134
▁sulu	-11.134
▁AB	-11.1341
we	-11.1342
▁78	-11.1342
▁qanadı	-11.1343
▁sənayesində	-11.1343
▁zəhmət	-11.1347
▁iltihab	-11.1347
terapiya	-11.1349
▁filmə	-11.1349
▁dənə	-11.1351
▁Med	-11.1352
▁silin	-11.1353
▁End	-11.1354
biya	-11.1355
▁Ordusunun	-11.1358
olin	-11.1359
mmun	-11.1361
▁Qəza	-11.1362
▁Spe	-11.1364
▁çata	-11.1365
▁Konstitusiyası	-11.1366
▁bəyi	-11.1367
▁Tağı	-11.1367
sch	-11.1369
▁tapıb	-11.1369
▁məmur	-11.137
ometr	-11.1372
▁şeyin	-11.1374
▁bəyə	-11.1374
əstə	-11.1375
ulyasiya	-11.1379
salar	-11.138
▁artilleriya	-11.1382
▁Kraliça	-11.1382
▁bilməzdi	-11.1384
▁start	-11.1385
ləndiyi	-11.1385
▁Yə	-11.1386
▁vətəndaşları	-11.1387
ence	-11.1388
kim	-11.139
lob	-11.1391
spi	-11.1391
▁Mes	-11.1393
▁gəldilər	-11.1395
▁Balakən	-11.1397
▁Pənah	-11.1398
▁indeks	-11.14
▁1880-	-11.14
▁Rauf	-11.1401
anov	-11.1402
▁zəhərli	-11.1403
ira	-11.1404
▁98	-11.1408
▁medalını	-11.1409
nikov	-11.141
▁Çap	-11.1411
▁götür	-11.1411
▁çəkiliş	-11.1413
▁icraçı	-11.1413
▁cavabı	-11.1415
▁unikal	-11.1417
▁krater	-11.1418
lənmişdi	-11.1419
▁dönə	-11.1419
▁xəbərdar	-11.1419
▁işləyə	-11.142
▁buranı	-11.142
valı	-11.1421
cha	-11.1421
▁Rəsulzadə	-11.1421
▁başını	-11.1421
▁şirkətlər	-11.1424
mayıb	-11.1424
əngi	-11.1425
▁Ron	-11.1426
ronun	-11.1427
▁qətl	-11.1431
Ro	-11.1431
▁daima	-11.1433
▁ölkələrə	-11.1434
▁Cal	-11.1434
▁İsrafil	-11.1435
▁Şöhrət	-11.1435
▁Əşrəf	-11.1435
▁vadisi	-11.1435
▁hovuz	-11.1435
78-	-11.1435
▁mərhum	-11.1435
▁Çəki	-11.1437
▁dəyişib	-11.1438
▁yaradılmasına	-11.1439
▁idarəçiliyi	-11.144
lık	-11.144
hm	-11.1443
▁mon	-11.1443
▁layihəsini	-11.1447
▁bölgəyə	-11.1451
▁Qam	-11.1451
▁lüğət	-11.1452
lamışdır	-11.1452
▁fundamental	-11.1452
▁məktubu	-11.1454
▁Günəşin	-11.1457
▁fl	-11.1458
qir	-11.1462
▁mükafatlar	-11.1463
psi	-11.1464
▁məmulatı	-11.1464
▁tütün	-11.147
▁şəlalə	-11.147
▁Pop	-11.1472
▁atdı	-11.1474
▁Maraqlı	-11.1475
▁müəssisələrində	-11.1476
▁elmə	-11.1476
▁Les	-11.1476
▁layihələrin	-11.1476
▁mini	-11.1477
▁sevən	-11.1478
xı	-11.1485
çev	-11.1486
▁göndərilməsi	-11.1486
▁kükürd	-11.1487
▁dəf	-11.1491
▁qanın	-11.1492
▁his	-11.1498
▁iqtisad	-11.1499
▁biləcəyini	-11.15
▁işlənir	-11.15
▁odun	-11.1504
▁yağları	-11.1505
▁optimal	-11.1505
▁1903-	-11.1505
▁qəbulu	-11.1506
▁yayda	-11.1506
▁Santa	-11.1507
▁daşlar	-11.151
▁1969	-11.1511
▁binaların	-11.1512
▁ib	-11.1519
▁tanınması	-11.152
▁96	-11.1522
▁humanitar	-11.1522
▁boks	-11.1523
95-	-11.1524
▁səyyah	-11.1528
▁tü	-11.1528
▁mif	-11.1531
▁edin	-11.1534
▁pulu	-11.1534
▁razılaş	-11.1534
▁müharibələr	-11.1534
oloqlar	-11.1534
prezidenti	-11.1535
▁detal	-11.1535
▁sevgilisi	-11.1537
▁bilinir	-11.1539
▁Malayziya	-11.154
▁ölkəsinin	-11.1542
▁İcraiyyə	-11.1543
▁dövrdən	-11.1545
▁dənizdə	-11.1545
▁həyatından	-11.1545
lyon	-11.1546
▁rolunda	-11.1546
omo	-11.1547
уч	-11.1549
▁yaddaşı	-11.1552
gən	-11.1552
▁ürəyi	-11.1556
▁basdır	-11.1558
▁1896-	-11.1558
▁Şükür	-11.1558
▁Avro	-11.1559
▁Saleh	-11.156
▁Vey	-11.156
▁Oğlu	-11.1561
▁unudul	-11.1561
▁Nəsir	-11.1561
sial	-11.1564
▁hiper	-11.1566
▁effekti	-11.1566
▁anbar	-11.1567
▁Cümə	-11.1568
▁hazırladı	-11.1568
▁keçirilmə	-11.1574
jen	-11.1574
▁şəkilli	-11.1576
▁Bill	-11.1577
biz	-11.1577
▁qiymətləndirmə	-11.1578
çuluq	-11.1579
hop	-11.158
▁daşınması	-11.158
▁ötrü	-11.158
▁İşıq	-11.1583
kub	-11.1584
та	-11.1584
▁evli	-11.1585
idin	-11.1587
▁çaylarının	-11.1587
▁iyulda	-11.159
▁generalı	-11.159
▁kompozisiyası	-11.159
tinq	-11.1591
viz	-11.1593
▁qaytarıl	-11.1593
▁Vilhelm	-11.1593
▁məlumatların	-11.1597
▁Anadoluda	-11.1599
▁Miya	-11.16
▁Monte	-11.1601
▁qurbanı	-11.1604
zor	-11.1609
▁mübahisələr	-11.161
tiq	-11.1611
▁partizan	-11.1611
▁Yevgeni	-11.1611
▁karvansara	-11.1611
▁Hücum	-11.1611
▁tənliklər	-11.1611
▁fantastik	-11.1612
▁kvars	-11.1612
▁qayıtdıqdan	-11.1613
▁qarşılaşdı	-11.1614
▁Maks	-11.1623
lanmışdı	-11.1623
vul	-11.1624
▁ama	-11.1626
lərimiz	-11.1628
▁yaralı	-11.1629
▁mövzuları	-11.1629
▁inanır	-11.1629
▁MDB	-11.1629
▁radi	-11.1631
▁müəllimlər	-11.1633
▁eşq	-11.1634
▁xalqa	-11.1634
▁qəlbi	-11.1634
▁siqnal	-11.1635
▁Vaxt	-11.1635
▁öyrənmiş	-11.1639
ümüz	-11.164
▁olduqlarını	-11.164
▁qohumları	-11.1641
▁müqaviməti	-11.1643
0,000	-11.1645
▁səfir	-11.1646
▁Daşkəsən	-11.1647
▁Görkəmli	-11.1647
Qacar	-11.1648
▁ürəyin	-11.1649
▁ucqar	-11.1649
▁nəslinin	-11.165
46-	-11.165
▁türkmən	-11.1652
▁Os	-11.1653
▁regionunda	-11.1654
▁hekayələri	-11.1654
33-	-11.1654
▁Firuz	-11.1654
▁getmişdir	-11.1655
▁vəzifəyə	-11.1655
▁sön	-11.1656
şər	-11.1657
▁Komi	-11.1658
▁Üz	-11.1659
▁İsrailin	-11.166
konun	-11.1662
▁etnonimi	-11.1662
▁cəhətləri	-11.1663
ırıq	-11.1664
laşdırdı	-11.1665
▁Mərakeş	-11.1665
▁qızın	-11.1667
pul	-11.1668
▁1977	-11.1669
▁Qida	-11.167
luğunda	-11.1672
ont	-11.1676
▁oyunçusu	-11.1682
▁dəyişmişdir	-11.1682
72-	-11.1682
▁faşist	-11.1683
mato	-11.1685
▁aralıq	-11.1687
▁hərəkətlər	-11.1689
oğulları	-11.1689
▁bilərsiniz	-11.1689
▁Mühəndis	-11.1691
▁şor	-11.1691
▁faciəsi	-11.1693
▁Anar	-11.1694
▁kimidir	-11.1696
▁kəsə	-11.17
▁oxşa	-11.17
▁kəndistanında	-11.1701
▁Proqramı	-11.1702
qot	-11.1702
but	-11.1702
▁edilməlidir	-11.1704
▁Kru	-11.1705
▁şübhəli	-11.1706
▁Şahmat	-11.1707
▁uzaqlaşdır	-11.1709
ellin	-11.1709
▁pyesi	-11.1711
ətə	-11.1712
max	-11.1713
▁Ziyad	-11.1713
▁yollarının	-11.1714
▁sürdü	-11.1718
▁bəlkə	-11.1719
▁haşiyə	-11.1719
▁ferment	-11.1719
▁işdə	-11.1719
▁yanlış	-11.1719
lərdəki	-11.172
▁Meydan	-11.172
▁gəmilərin	-11.1721
▁900	-11.1721
▁əlaqədə	-11.1722
▁çalışdığı	-11.1722
▁funt	-11.1723
▁təməli	-11.1723
▁Bahar	-11.1723
▁jurnalın	-11.1723
▁1966	-11.1724
▁1890-	-11.1724
ahı	-11.1726
▁dünyasında	-11.1727
▁ediləcək	-11.1729
▁dedikdə	-11.1731
▁çıxarılan	-11.1732
▁fikrinə	-11.1732
uzun	-11.1734
▁çəkilişləri	-11.1738
▁Slavyan	-11.1738
▁köçürülmüşdür	-11.1738
muşdu	-11.1738
Yorkda	-11.1739
▁Qaraman	-11.1739
▁çevrilmişdi	-11.1741
▁hövzəsində	-11.1742
▁astronomiya	-11.1742
▁Boko	-11.1742
▁imzalamışdır	-11.1742
92-	-11.1746
▁bucaq	-11.1747
alist	-11.1748
sson	-11.1748
▁tarixçilər	-11.1749
sman	-11.1751
▁siyasətinin	-11.1752
qır	-11.1753
▁güzgü	-11.1755
▁əhəng	-11.1755
▁möhür	-11.1756
▁filosofu	-11.1756
▁Pyer	-11.1757
▁sistemlərinin	-11.1758
▁minlik	-11.1759
red	-11.1761
▁anlamı	-11.1761
▁qurma	-11.1764
▁olacağını	-11.1764
▁motivləri	-11.1767
▁bildirmişdi	-11.1768
Şərqi	-11.1768
▁karbonat	-11.1768
▁etibar	-11.1769
▁örtüyünü	-11.1772
▁1967	-11.1774
▁heyran	-11.1774
▁Adalar	-11.1775
▁Pres	-11.1776
▁Hüseynzadə	-11.1776
▁Zülfüqar	-11.1777
iana	-11.1777
▁fakultəsini	-11.1778
▁formasına	-11.178
▁səviyyəsinin	-11.1783
▁Cam	-11.1784
▁təsadüfi	-11.1786
▁yazılması	-11.1786
▁Kil	-11.1786
▁şifahi	-11.1791
▁Ərzurum	-11.1791
▁Kub	-11.1791
▁istəsə	-11.1791
▁Beh	-11.1793
sunda	-11.1793
▁çiçəkləyir	-11.1794
▁qurmuşdur	-11.1794
aşırı	-11.1795
▁kvant	-11.1795
▁Məsud	-11.1797
▁şöhrəti	-11.1798
▁Tac	-11.1801
▁dərisi	-11.1801
vol	-11.1802
▁sürmə	-11.1802
▁oyunlarını	-11.1808
▁Tacikistan	-11.1809
▁Ədəbi	-11.1809
▁qalanı	-11.181
▁çiçəkləri	-11.181
▁au	-11.1811
▁qayıtmış	-11.1811
rta	-11.1816
▁Albaniyası	-11.1817
▁dol	-11.1818
▁getməyə	-11.1819
ture	-11.182
çülük	-11.1821
vill	-11.1822
▁yolun	-11.1824
rand	-11.1825
hol	-11.1827
▁eroziya	-11.1827
▁Bədii	-11.1827
▁idxal	-11.1828
▁gediş	-11.1829
əhrə	-11.1831
▁gətirilən	-11.1832
▁balansı	-11.1834
▁duzlu	-11.1834
▁Hakimiyyətinin	-11.1836
▁vulkanik	-11.1837
▁sakin	-11.1844
▁ocaqları	-11.1844
▁bələd	-11.1845
▁aspirant	-11.1845
▁müstəsna	-11.1845
▁premyerası	-11.1845
▁satirik	-11.1845
▁Atropatena	-11.1845
▁düzəldilmiş	-11.1846
▁girişi	-11.1847
▁Kun	-11.1847
▁qüdrət	-11.1847
▁qurumları	-11.1848
▁yamaclarında	-11.1848
▁etməkdir	-11.1849
▁XXI	-11.1849
▁verilənlər	-11.185
▁tikintisinə	-11.1852
▁cəbhəsi	-11.1854
▁kam	-11.1855
▁Messi	-11.1856
▁Arran	-11.1857
▁çevrilmə	-11.1857
▁Kişilər	-11.1857
▁miqyaslı	-11.1857
▁səbəbilə	-11.1861
▁Aero	-11.1862
ross	-11.1863
▁nahiyəsi	-11.1863
▁neyro	-11.1864
▁heyrət	-11.1864
▁səf	-11.1864
▁düzbucaqlı	-11.1865
▁ədəbiyyatda	-11.1866
Te	-11.1866
ulur	-11.1867
▁Dost	-11.1868
▁adaya	-11.1868
▁səthinə	-11.1871
▁dolayı	-11.1872
▁terrorçu	-11.1873
▁anlaşma	-11.1874
▁bunlara	-11.1878
ction	-11.188
▁Microsoft	-11.1882
▁qorunur	-11.1883
▁çatdırıl	-11.1885
▁oğlanları	-11.1887
▁Ayrı	-11.1888
▁tamaşaçılar	-11.1888
▁fiqur	-11.1889
▁məsafəyə	-11.1893
▁düşünü	-11.1895
▁klinik	-11.1895
▁qanı	-11.1899
▁xaraba	-11.1899
▁təhqir	-11.19
▁maşınqayırma	-11.1901
▁Tarixçi	-11.1903
▁hazırlanıb	-11.1904
▁sərəncam	-11.1904
lərindəki	-11.1905
atik	-11.1907
▁makro	-11.1909
▁avtomatik	-11.191
▁mühiti	-11.191
şəhər	-11.1911
▁ağanın	-11.1912
▁təh	-11.1916
dəniz	-11.1916
▁Səl	-11.1916
▁göndərilmiş	-11.1917
ок	-11.1918
▁Hip	-11.1919
▁mütəfəkkir	-11.1919
▁minimum	-11.1919
▁medalla	-11.1919
▁qırışıq	-11.1919
▁xəzinəsi	-11.1919
▁bölüşdür	-11.192
▁dal	-11.1921
▁məmulatları	-11.1921
▁törəmələri	-11.1921
▁sətir	-11.1922
▁Sadıqov	-11.1923
oloqu	-11.1926
▁rəssamın	-11.1929
▁Der	-11.1929
▁səthinin	-11.1929
▁Fir	-11.193
otip	-11.1931
▁karyerasını	-11.1932
▁ətrafına	-11.1933
▁köçürülməsi	-11.1935
▁surəti	-11.1936
yyat	-11.1936
▁assistent	-11.1937
▁quşu	-11.1937
▁1901-	-11.1938
▁Ob	-11.1938
▁Bür	-11.1939
▁tələbələrə	-11.1939
▁misra	-11.1939
▁hissəsindən	-11.1942
dem	-11.1942
qanın	-11.1943
ae	-11.1943
▁Lit	-11.1943
▁orda	-11.1944
yeviç	-11.1944
eksiya	-11.1945
▁çarp	-11.1945
▁kasa	-11.1945
▁inter	-11.1946
▁tamaşalar	-11.195
▁sənədlərin	-11.195
ovo	-11.1951
▁Cəmiyyət	-11.1954
▁öt	-11.1955
▁Balina	-11.1957
lok	-11.1958
ləndirən	-11.1959
▁naib	-11.1962
tava	-11.1963
▁Qırx	-11.1964
▁şou	-11.1965
▁əlamətlər	-11.1965
-9	-11.1965
▁mühacir	-11.1968
▁ötürülməsi	-11.197
▁titul	-11.1971
həsən	-11.1971
gent	-11.1972
▁dayaz	-11.1972
▁Seçki	-11.1974
▁fər	-11.1975
▁danışılır	-11.1976
uşu	-11.1977
▁kabel	-11.1978
▁üzvlərindən	-11.1979
ди	-11.198
ии	-11.1983
▁obyektləri	-11.1984
▁girov	-11.1989
▁Malta	-11.1992
▁ildir	-11.1994
▁hazırlayan	-11.1995
▁mövzuda	-11.1995
37-	-11.1996
zaman	-11.1998
▁1961	-11.2001
sınız	-11.2003
▁mərkəzinin	-11.2006
▁ingilislər	-11.2008
▁Rik	-11.201
▁Tədris	-11.2011
▁kartof	-11.2012
▁qəsri	-11.2016
▁göstər	-11.2017
▁Pəri	-11.2017
▁ritm	-11.2018
tmiş	-11.2018
▁Qarabağa	-11.2018
akan	-11.202
▁gözləmə	-11.2023
hen	-11.2024
▁Millət	-11.2025
▁gündüz	-11.2026
▁ailələrin	-11.2029
▁kontinental	-11.2029
▁dövrümüzə	-11.2029
▁vermədi	-11.2029
▁prospekti	-11.203
▁dialoq	-11.203
▁Axı	-11.2031
▁yarışları	-11.2031
▁Balıq	-11.2033
▁not	-11.2034
▁torpaqlarını	-11.2037
▁buraxılış	-11.2039
▁nüsxəsi	-11.2039
çiliyin	-11.204
▁parçaları	-11.2041
▁sta	-11.2043
▁bağları	-11.2045
meri	-11.2045
▁buraxma	-11.2046
▁sxem	-11.2049
ayət	-11.2049
▁Çiçəkləri	-11.2049
▁Cəbhəsi	-11.2051
▁qamış	-11.2053
▁bitən	-11.2053
▁baxan	-11.2054
▁növlərindən	-11.2058
▁Gəray	-11.2061
▁Qəzet	-11.2061
lıb	-11.2061
▁Dav	-11.2062
▁plana	-11.2063
▁Gen	-11.2064
▁bəşəriyyət	-11.2065
▁Fövqəladə	-11.2067
▁tüfəng	-11.2067
▁intellektual	-11.2067
▁uğramış	-11.2071
▁yağlı	-11.2073
▁hadisələrdən	-11.2076
▁yaradılmışdı	-11.208
▁günlərində	-11.2082
▁mexanika	-11.2082
mızı	-11.2085
pit	-11.2085
▁təşviq	-11.2085
ves	-11.2086
▁qəfəs	-11.2086
ldı	-11.2086
▁Nüvə	-11.2086
▁müəllimləri	-11.2087
▁Babil	-11.2089
▁dəstəkləyir	-11.2089
▁göstərilməsi	-11.209
▁1200	-11.209
▁seçkilərdə	-11.209
▁Braun	-11.2091
▁Yaşa	-11.2093
▁çalışırlar	-11.2094
had	-11.2094
▁məqsədləri	-11.2095
▁Avtomobil	-11.2104
▁Dördüncü	-11.2104
▁Səttar	-11.2104
tron	-11.2105
▁işğalından	-11.2106
▁fonunda	-11.2108
▁Serb	-11.2109
▁Por	-11.2109
▁Ərazidə	-11.2111
▁rayonuna	-11.2114
▁maili	-11.2114
▁kimyaçı	-11.2115
▁oksidləşmə	-11.2115
▁publisistik	-11.2115
▁baha	-11.2116
▁artmışdır	-11.2118
▁Sistem	-11.2119
▁korpus	-11.212
▁Nü	-11.212
qrad	-11.2121
▁Kuk	-11.2122
▁simfonik	-11.2123
▁seçkiləri	-11.2123
▁Stepan	-11.2124
▁yamacları	-11.2126
▁sinə	-11.2128
▁ikiqat	-11.2128
kum	-11.2129
laşdığı	-11.213
▁hərtərəfli	-11.213
▁peyğəmbərin	-11.2131
▁turistlər	-11.2131
▁qruplaşma	-11.2131
▁kökündən	-11.2131
▁hakimiyyətinə	-11.2132
▁məhkəməsi	-11.2133
▁əmiri	-11.2134
pid	-11.2135
▁varis	-11.2137
ptik	-11.2138
▁İstiqlal	-11.2139
▁pilləsi	-11.214
▁çətindir	-11.214
▁Krallıq	-11.2141
▁tələffüz	-11.2141
▁hökmdarları	-11.2143
▁sezon	-11.2144
▁Səfərov	-11.2146
ров	-11.2146
▁işdən	-11.2148
▁bölünməsi	-11.2149
▁yayımlanmışdır	-11.2149
▁mətbəx	-11.2151
seksual	-11.2153
▁tir	-11.2153
▁icrası	-11.2155
▁avropa	-11.2156
larımız	-11.2157
kle	-11.2158
arktik	-11.2158
▁Fridrix	-11.216
▁Xilafət	-11.216
▁Təpə	-11.216
▁Mara	-11.2161
onal	-11.2161
krat	-11.2165
mes	-11.2166
▁Buradan	-11.2167
our	-11.217
ğul	-11.2171
▁bölməsinin	-11.2174
▁Gənclik	-11.2175
▁şimala	-11.2178
▁Dərviş	-11.2179
▁Xiyaban	-11.2179
▁İdarəetmə	-11.218
▁çəkilmə	-11.218
▁Bell	-11.218
kəs	-11.2181
▁çıxarıldı	-11.2183
▁şəkilləri	-11.2188
▁buraxılışı	-11.2189
▁Kaş	-11.219
▁fəsilə	-11.2191
▁haqqındakı	-11.2191
▁Atatürk	-11.2191
burun	-11.2192
▁Alan	-11.2193
▁qrupda	-11.2193
▁birləşdirilməsi	-11.2194
▁sidik	-11.2194
▁Texas	-11.2198
▁yardımçı	-11.2199
▁saplaq	-11.2199
▁Sabirabad	-11.22
▁qısaca	-11.22
67-	-11.2204
▁Nov	-11.2205
▁salnamə	-11.2207
▁həmsərhəddir	-11.2207
▁hadisənin	-11.2208
2014	-11.2209
▁xəbərlər	-11.2211
▁muzeyində	-11.2214
▁kənarı	-11.2215
üdür	-11.2216
▁Bəhreyn	-11.2217
▁Əlinin	-11.2217
▁Uol	-11.222
▁zəka	-11.222
▁şərqşünas	-11.2221
▁81	-11.2222
qrafik	-11.2223
▁dövlətə	-11.2223
▁meyvələri	-11.2224
▁Nev	-11.2224
duğunu	-11.2224
▁yamaclarda	-11.2225
▁qüvvət	-11.2226
▁qişa	-11.2226
▁Minsk	-11.2228
▁azaldı	-11.223
▁qəbirlər	-11.223
▁yapış	-11.223
▁yaradıcılığına	-11.2231
▁çalışma	-11.2235
▁coğrafiyası	-11.2237
oksi	-11.2237
▁Dövr	-11.2238
▁himni	-11.2238
dülər	-11.2238
ри	-11.2242
▁etmələri	-11.2244
▁Sat	-11.2245
dok	-11.2246
▁Sand	-11.2247
▁imp	-11.2249
▁Ermənilər	-11.2253
▁1800	-11.2253
▁dirijor	-11.2255
▁dağıdıl	-11.2255
▁diaspor	-11.2255
▁səhm	-11.2255
▁qanunauyğunluq	-11.2256
▁şəxsiyyətlər	-11.2256
0,0	-11.2258
▁aşkarlanmışdır	-11.2259
▁Polad	-11.2259
▁çənə	-11.2259
IN	-11.2261
▁təşəbbüs	-11.2261
qışlaq	-11.2261
▁Nizaminin	-11.2262
▁Gəl	-11.2263
▁Onlara	-11.2264
ezi	-11.2265
▁1959	-11.2267
▁Of	-11.2267
▁rayonlarda	-11.2273
▁Kompüter	-11.2274
▁holland	-11.2274
▁Şöbə	-11.2274
tini	-11.2275
▁Geniş	-11.2276
▁olanda	-11.2276
dirsə	-11.2277
XVIII	-11.2278
000-	-11.2279
▁tapdı	-11.228
mışdılar	-11.2282
▁parçalanma	-11.2283
▁avqustda	-11.2283
AP	-11.2285
▁sularının	-11.2288
omi	-11.2288
▁örtülmüş	-11.2291
▁qayıdıb	-11.2293
▁dillərdə	-11.2294
▁Kaspi	-11.2296
▁Kanal	-11.2297
qızı	-11.2297
▁Op	-11.2299
skiy	-11.2302
▁uzad	-11.2304
▁qəzəl	-11.2306
kəm	-11.2308
▁torpaqlarının	-11.2309
sak	-11.2311
▁Xidmət	-11.2311
▁sertifikat	-11.2312
▁qüvvəyə	-11.2312
▁demokratiya	-11.2313
▁Muradov	-11.2315
▁macar	-11.2315
▁reaksiyası	-11.2319
leytenant	-11.2319
pet	-11.2319
▁gimnast	-11.232
▁neftin	-11.2323
▁müzakirələr	-11.2324
2001	-11.2324
▁Oliver	-11.2328
ит	-11.233
▁maddənin	-11.233
▁xörək	-11.2331
▁Çikaqo	-11.2331
▁Leonardo	-11.2331
▁nağıl	-11.2331
▁Nizam	-11.2331
▁84	-11.2334
sio	-11.2334
▁vəziyyətində	-11.2336
▁öyrənmişdir	-11.2337
▁Əvvəlki	-11.2338
▁sərvət	-11.2338
▁1954	-11.2344
luk	-11.2348
▁Aya	-11.2348
▁dövrünü	-11.2349
▁gedişində	-11.2349
▁Mətbuat	-11.235
▁Baharlı	-11.235
▁müəlliflər	-11.2351
▁otaqlar	-11.2352
▁Zal	-11.2353
▁seçkilər	-11.2353
▁Faiq	-11.2354
▁oxumağa	-11.2355
▁mükafata	-11.2356
▁yayıldığı	-11.2357
▁Koreyada	-11.2358
▁kampusu	-11.236
ema	-11.236
▁kəndlərdə	-11.236
▁oynamış	-11.2369
AC	-11.2369
▁Siciliya	-11.2369
▁Məm	-11.2373
▁şagirdi	-11.2375
▁Fit	-11.2377
▁həmkarlar	-11.2378
▁sifarişi	-11.2381
gra	-11.2382
▁dənizçi	-11.2382
▁açmışdır	-11.2384
mbo	-11.2384
sınd	-11.2386
▁sümükləri	-11.2386
▁Texnikumu	-11.2387
▁vətənə	-11.2387
▁Aslanov	-11.2388
▁endemik	-11.2389
▁Toğrul	-11.2389
▁formal	-11.239
▁məsləhətçi	-11.239
▁padşahı	-11.239
▁Parisə	-11.2392
ان	-11.2392
▁arxipelaqın	-11.2393
▁Samir	-11.2393
▁Səhər	-11.2394
▁nümunələr	-11.2395
▁tətil	-11.2397
▁yetirmək	-11.2397
▁tel	-11.2397
▁İlan	-11.2397
hib	-11.2398
▁tutması	-11.24
▁İq	-11.24
eva	-11.24
şov	-11.2401
▁Çempionatının	-11.2402
▁düşmənləri	-11.2404
▁Peter	-11.2404
ew	-11.2404
▁kompleksinin	-11.2406
▁Qəzvin	-11.2408
▁Dik	-11.2408
▁Aktrisa	-11.2408
▁Rabitə	-11.2408
▁qövs	-11.2409
▁Liseyi	-11.2409
▁Quruluşca	-11.241
▁aləm	-11.241
▁olunduqda	-11.2411
▁pulcuq	-11.2411
▁çoxluq	-11.2412
ləndirmək	-11.2412
▁kökləri	-11.2413
▁tərcümədə	-11.2414
▁Gey	-11.2415
▁torpaqlarında	-11.2417
məmiş	-11.2418
▁obyektlər	-11.2421
▁dövlətlərinin	-11.2421
▁itki	-11.2422
аз	-11.2424
▁Qua	-11.2424
▁əmlakı	-11.2425
▁Səmərqənd	-11.2427
▁azarkeş	-11.2427
▁tayfalarının	-11.2427
▁edilməkdədir	-11.2427
▁həzm	-11.2429
▁dəyişkən	-11.2429
▁illərindən	-11.243
▁əvvəllərinə	-11.2431
▁Nikola	-11.2431
▁təsnif	-11.2432
▁Eks	-11.2432
▁parlamentin	-11.2432
▁ucuz	-11.2432
▁Vir	-11.2433
▁Rasim	-11.2434
▁demişdi	-11.2435
▁sərhəddi	-11.2436
▁Erik	-11.2438
▁müdafiəçi	-11.2441
▁turşuları	-11.2441
▁hasilatı	-11.2441
▁alp	-11.2443
luğuna	-11.2443
▁artan	-11.2445
▁Zəngi	-11.2445
▁Əbdürrəhman	-11.2446
▁Filip	-11.2447
▁adlandırılmış	-11.2447
lənməyə	-11.2447
▁profil	-11.2448
▁məhsuldarlığı	-11.2449
▁rayonda	-11.2449
57-	-11.245
▁siçan	-11.2453
▁təchizatı	-11.2455
▁şərəf	-11.2457
▁Adəm	-11.2461
▁şurası	-11.2461
▁Konfransı	-11.2462
▁nəzəriyyəsinin	-11.2463
▁prokuror	-11.2466
▁altıncı	-11.2467
rmiş	-11.2471
▁özlərinin	-11.2472
▁yerindən	-11.2472
▁Qriqor	-11.2473
▁Şirvani	-11.2474
▁ikitərəfli	-11.2475
tağı	-11.2478
ote	-11.2478
oda	-11.2478
çiçək	-11.2478
▁bişir	-11.2479
tut	-11.2479
▁Ərəbistan	-11.2481
▁dillərinə	-11.2482
düz	-11.2482
▁ga	-11.2484
▁götürülmüş	-11.2486
▁xəzərlər	-11.2487
▁dia	-11.2488
▁partladı	-11.2489
▁azalma	-11.249
▁sıradan	-11.2491
▁çapdan	-11.2492
▁yıxıl	-11.2492
▁qoyduğu	-11.2492
▁Olimpiada	-11.2494
▁yüksəldi	-11.2495
dilir	-11.2497
▁çəkə	-11.2499
▁Kata	-11.25
▁tarixlərində	-11.25
▁kamil	-11.2501
▁st	-11.2501
▁ləqəb	-11.2502
▁qranit	-11.2505
▁buynuz	-11.2505
▁liberal	-11.2505
üsü	-11.2505
▁yoxlama	-11.251
▁300-	-11.2512
zərb	-11.2512
masında	-11.2513
▁qalasını	-11.2514
ləriylə	-11.2514
▁Qardaş	-11.2514
2006-	-11.2515
▁görürdü	-11.2516
▁ste	-11.2516
▁Musiqili	-11.2517
▁olmadığından	-11.2522
▁filmlərin	-11.2523
▁İbrahimxəlil	-11.2524
▁Hörümçək	-11.2524
▁Qütb	-11.2524
▁üzləş	-11.2525
▁vəhdət	-11.2525
▁şaxta	-11.2525
▁sənətkarlar	-11.2525
ləşdirməyə	-11.2526
▁şərqi	-11.2527
▁toqquşma	-11.2529
▁Arxa	-11.2531
tol	-11.2534
▁Ag	-11.2535
▁regionda	-11.2535
▁yaradıl	-11.2535
2015	-11.2535
▁aldılar	-11.2536
bax	-11.2536
▁edilməsindən	-11.2537
▁peri	-11.2539
▁1962	-11.254
esin	-11.2542
▁Herseqovina	-11.2544
▁tərənnüm	-11.2544
▁saxsı	-11.2544
▁Kərbəlayı	-11.2544
▁Xızı	-11.2545
▁Tibet	-11.2545
dırıcı	-11.2545
▁qəhrəmanları	-11.2547
▁vəsiyyət	-11.2551
▁rü	-11.2553
▁xeyriyyə	-11.2555
▁Antoni	-11.2559
▁Ale	-11.256
ğından	-11.256
▁1965	-11.256
▁Yolu	-11.2561
▁Peşə	-11.2563
əhməd	-11.2563
▁antropogen	-11.2563
▁botanik	-11.2563
▁analitik	-11.2563
▁darvaza	-11.2563
▁çatması	-11.2564
▁Palatası	-11.2564
▁Hat	-11.2564
▁pik	-11.2566
▁Turnir	-11.2566
▁təpəsi	-11.2568
▁oğlunu	-11.2569
plan	-11.2571
▁Kirov	-11.2571
▁Qədir	-11.2572
▁balıqçılıq	-11.2575
▁dükan	-11.2576
▁öyrəndi	-11.2576
▁Vergi	-11.2577
▁böyüdü	-11.2579
▁proqramının	-11.258
▁şeytan	-11.2581
layırdı	-11.2582
▁mətni	-11.2582
ous	-11.2585
▁Fərid	-11.2586
əngə	-11.2586
▁qalxır	-11.2587
▁yetirilir	-11.2587
▁həddən	-11.2588
ensiya	-11.2588
▁Sədri	-11.2589
▁yəhudilərin	-11.259
▁qaldırıl	-11.259
▁verəcək	-11.2594
▁sivilizasiya	-11.2594
▁sevinc	-11.2595
▁tənqidçi	-11.2595
yeri	-11.2596
▁Süleymanov	-11.2596
▁tat	-11.2598
▁jurnallarda	-11.2603
▁tanınırdı	-11.2603
▁terras	-11.2604
▁yeddinci	-11.2604
▁Regional	-11.2606
ander	-11.2606
▁Qafqaza	-11.2607
▁xatun	-11.2609
▁Sasanilər	-11.261
▁incəsənəti	-11.261
▁Foto	-11.2611
▁görüşlər	-11.2613
▁belədir	-11.2613
▁vurma	-11.2615
ləşdirmiş	-11.2615
▁Stre	-11.2616
▁monarxiya	-11.2617
▁1957	-11.2617
▁daşdan	-11.2618
▁müəssisələrinin	-11.2619
▁buraxılmış	-11.2619
▁məhəbbəti	-11.2619
▁ləkə	-11.2619
▁şəhidi	-11.2622
▁Alfred	-11.2622
▁mükafatlandırıl	-11.2623
▁tutulub	-11.2623
▁pilləkən	-11.2624
quru	-11.2625
▁planetin	-11.2625
▁əhval	-11.2626
iyyətin	-11.2628
▁Xoca	-11.2628
▁97	-11.263
ted	-11.263
▁məqalələrin	-11.2631
şima	-11.2632
lev	-11.2633
▁sülaləsindən	-11.2637
▁Yuli	-11.2638
▁küt	-11.2641
▁səciyyə	-11.2642
▁İordaniya	-11.2642
▁çəkilməyə	-11.2644
wi	-11.2644
▁bağladı	-11.2646
▁176	-11.2646
▁Həyatı	-11.2652
▁con	-11.2654
▁ixtisaslaşmış	-11.2654
▁ödəmək	-11.2657
▁mahnının	-11.2657
▁Dö	-11.266
▁simpozium	-11.2662
▁Hekayə	-11.2662
▁nigah	-11.2665
▁xəritəsində	-11.2666
▁müdir	-11.2666
▁hövzəsinin	-11.2667
▁paket	-11.2667
▁Qətər	-11.2672
▁Əməyi	-11.2673
eno	-11.2673
amerika	-11.2675
▁Çempion	-11.2675
▁Yunanıstanın	-11.2678
▁küp	-11.268
quşu	-11.268
▁Əməliyyat	-11.2682
▁mətbəə	-11.2682
▁skelet	-11.2682
▁yenidənqurma	-11.2682
▁naminə	-11.2682
▁toplanmışdır	-11.2683
▁quruluşlu	-11.2683
▁əmlak	-11.2684
▁Qoşa	-11.2685
▁Pər	-11.2688
▁Krist	-11.2689
keçi	-11.269
▁bacardı	-11.269
▁dilli	-11.2693
▁Çex	-11.2695
çusu	-11.2698
▁sarımtıl	-11.2702
▁öküz	-11.2703
▁Fazil	-11.2703
▁salmış	-11.2706
▁Tab	-11.2706
▁Luka	-11.2708
▁qərargah	-11.2708
▁oyunçular	-11.2709
▁paylanması	-11.2711
▁sakinlərinin	-11.2712
▁kapital	-11.2713
▁1958	-11.2717
yiş	-11.2718
▁fasiləsiz	-11.2719
▁Rəcəb	-11.2721
▁Urartu	-11.2721
▁devril	-11.2723
▁Mikro	-11.2723
48-	-11.2723
▁toplantı	-11.2723
▁vurduqdan	-11.2723
▁Məhəmmədhəsən	-11.2724
▁kapitanı	-11.2726
▁seçimi	-11.2727
▁statistik	-11.2727
▁artırdı	-11.2728
▁Əsərdə	-11.2729
▁yaşan	-11.2729
▁parçalanmış	-11.2732
▁araşdırılması	-11.2733
▁salam	-11.2733
▁günahkar	-11.2734
▁gəldiyini	-11.2734
▁qumlu	-11.2734
xanası	-11.2736
▁borusu	-11.2736
▁Tədqiqatçılar	-11.2738
▁qüdrətli	-11.2739
▁Mau	-11.2739
▁yürü	-11.274
▁Tehranda	-11.2741
▁Bibliya	-11.2741
▁istintaq	-11.2741
▁Sərhəd	-11.2742
▁çatmaq	-11.2742
▁Maz	-11.2744
gh	-11.2744
▁ünvanında	-11.2746
Tİ	-11.2747
▁Qərar	-11.2748
▁Nazirliyində	-11.2748
▁vəzifəli	-11.2748
▁budur	-11.2749
▁müəyyənləşdiril	-11.2751
▁Qori	-11.2752
▁yarışma	-11.2756
▁ofisi	-11.2758
▁ölkələrinə	-11.2759
▁məhdudiyyət	-11.2759
▁subyekt	-11.2761
▁işgəncə	-11.2761
qlarını	-11.2762
ми	-11.2763
▁köçmüşdür	-11.2765
▁məkanı	-11.2767
▁şar	-11.2769
▁Com	-11.2771
sinlər	-11.2772
▁imkanlar	-11.2773
▁Qraf	-11.2773
▁gəlməsinə	-11.2774
▁Herat	-11.2774
▁gər	-11.2775
▁roluna	-11.2775
▁qrupların	-11.2775
▁Bədənin	-11.2779
İran	-11.2779
▁bizi	-11.2779
▁yerləşdirilməsi	-11.278
▁Mexanika	-11.2781
▁laborant	-11.2781
▁tamaşası	-11.2785
▁torpaqlarına	-11.2786
▁yaxınlaşdı	-11.2788
▁aralı	-11.2792
▁Bəs	-11.2792
▁ı	-11.2793
▁Manna	-11.2794
axıl	-11.2794
▁Platon	-11.2795
▁şəkilçisi	-11.2797
▁88	-11.2798
tərəfli	-11.28
▁vəsaitləri	-11.28
▁oykonim	-11.2802
▁hücumçu	-11.2803
▁Məmmədəli	-11.2803
▁təhlükəsiz	-11.2803
▁gətirilir	-11.2805
▁terrorçular	-11.2807
▁qoxu	-11.2807
qonur	-11.2808
tara	-11.2811
▁83	-11.2811
▁Xəlilov	-11.2812
▁toplam	-11.2812
▁araya	-11.2813
▁ekologiya	-11.2816
▁axtarır	-11.2818
▁növlərin	-11.2819
▁konsepsiyası	-11.2819
▁vena	-11.282
▁Zeynalabdin	-11.2821
▁xeyirxah	-11.2821
▁dəyişdirilməsi	-11.2821
▁hündürlüyə	-11.2821
▁server	-11.2823
▁Ukraynada	-11.2824
▁92	-11.2825
▁səlahiyyət	-11.2826
▁dinlə	-11.2829
roma	-11.283
▁evlənir	-11.2832
▁adanı	-11.2833
elektrik	-11.2834
tions	-11.2836
▁Avşar	-11.2838
▁xaricdən	-11.2838
ilərək	-11.2838
▁həcmində	-11.2841
▁kərtənkələ	-11.2841
▁Qapı	-11.2842
▁verməli	-11.2843
▁vilayətləri	-11.2844
▁adlandırılıb	-11.2844
▁Cəfərqulu	-11.2844
▁tökül	-11.2844
gö	-11.2844
▁yetişdi	-11.2845
▁nəticələndi	-11.2845
▁dövriyyə	-11.2848
həm	-11.2848
▁müştəri	-11.2848
▁vətəndaşlığı	-11.2851
▁tanrılar	-11.2851
▁sistemlər	-11.2852
iyyatı	-11.2853
▁bor	-11.2855
▁qoruma	-11.2855
▁qoşulmuş	-11.2857
▁şoran	-11.2859
şü	-11.286
▁işığı	-11.2861
▁psixo	-11.2861
▁Prussiya	-11.2862
▁Kosovo	-11.2862
▁seyrək	-11.2862
▁Vest	-11.2865
qas	-11.2866
▁yeniliklər	-11.2867
▁döşəmə	-11.2867
▁çatıb	-11.2867
▁sahillərinə	-11.2868
▁qışı	-11.2869
leş	-11.287
▁Yardımlı	-11.287
▁SBc	-11.2871
▁kompleksləri	-11.2872
xanım	-11.2872
▁çiy	-11.2873
▁Axund	-11.2874
çular	-11.2877
▁tari	-11.2878
ludur	-11.2879
▁stansiyaları	-11.2882
▁Aristotel	-11.2882
▁Məşhəd	-11.2882
▁Cəmiyyətin	-11.2882
▁tapılan	-11.2883
▁akademiya	-11.2884
dinq	-11.2884
üzvi	-11.2885
▁pyes	-11.2885
▁1963	-11.2885
▁toplanan	-11.2887
▁göstərirlər	-11.2887
▁qavra	-11.2887
▁Fay	-11.2889
▁suların	-11.2891
▁yayılmışdı	-11.2898
▁əmirləri	-11.29
▁Kitabın	-11.29
age	-11.2901
▁yepiskop	-11.2901
▁Nensi	-11.2902
▁bacarır	-11.2902
dus	-11.2903
sizliyi	-11.2903
▁balığı	-11.2904
▁mer	-11.2905
▁benzin	-11.2905
▁seçir	-11.2907
▁meydança	-11.2909
▁əvəzində	-11.2909
▁yandırıl	-11.2909
▁nazirliyin	-11.291
▁kursları	-11.2911
baq	-11.2913
▁siyasətini	-11.2913
▁dairələri	-11.2918
▁Batum	-11.2919
əndi	-11.2921
ulan	-11.2922
▁assosiasiya	-11.2922
▁çimərlik	-11.2922
▁Tatarıstan	-11.2922
▁fu	-11.2925
lanırdı	-11.2926
▁Göygöl	-11.2927
▁gözə	-11.2928
ная	-11.293
▁adlandırıl	-11.2931
fild	-11.2935
▁şəhərlərin	-11.2936
▁öldürülmüş	-11.2938
▁toplanmış	-11.294
uzu	-11.2942
▁infeksiya	-11.2943
▁döv	-11.2944
▁vadisində	-11.2947
▁seriyasının	-11.2947
▁arealı	-11.2948
▁olunurlar	-11.2948
▁fəaliyyətlə	-11.2948
▁ur	-11.2949
rio	-11.295
▁İnstitutun	-11.2951
▁oba	-11.2959
▁səhnədə	-11.296
▁Kad	-11.2962
▁konfranslarda	-11.2963
▁vizual	-11.2963
▁Yupiter	-11.2963
▁ortalarına	-11.2963
emiya	-11.2965
tmişdi	-11.2966
▁Əz	-11.2967
▁Ştat	-11.2969
▁yazmışdı	-11.297
▁ötən	-11.297
▁Maddə	-11.2971
▁irqi	-11.2971
▁hakimləri	-11.2973
▁Əliqulu	-11.2976
uğra	-11.2977
itlərin	-11.298
lop	-11.298
▁Əsərləri	-11.2981
▁Budapeşt	-11.2983
▁təcrid	-11.2983
▁Xocavənd	-11.2984
▁Demək	-11.2985
▁Türkcə	-11.2987
▁əlamət	-11.2988
▁87	-11.2991
▁Post	-11.2992
▁divarlar	-11.2992
▁düşünmə	-11.2993
SS	-11.2996
▁millətin	-11.3003
▁çadır	-11.3004
▁dəhliz	-11.3004
▁Mağara	-11.3004
xay	-11.3005
▁Bəziləri	-11.3006
▁daşqın	-11.3009
▁qurub	-11.3011
▁hazırlama	-11.3011
▁öyrənməyə	-11.3013
▁bilib	-11.3016
ləşdirildi	-11.3018
▁lava	-11.3018
məd	-11.3019
▁mənbələrə	-11.3019
banı	-11.302
metal	-11.3022
vent	-11.3022
▁Plat	-11.3023
▁söylədi	-11.3026
▁Qurultay	-11.3027
▁Sənan	-11.3028
uç	-11.3028
sten	-11.3033
▁şahidi	-11.3035
▁dibi	-11.3035
▁məhəlləsi	-11.3037
▁Almaniyaya	-11.3038
▁sözünü	-11.3039
eyin	-11.304
▁Sav	-11.304
▁uduzdu	-11.3041
▁imzalanmış	-11.3042
▁qartal	-11.3042
alılar	-11.3044
▁pravoslav	-11.3045
▁robot	-11.3045
▁rəqqas	-11.3045
▁İllik	-11.3046
▁ANS	-11.3046
▁nüfuzu	-11.305
▁Gümüş	-11.3051
▁Petro	-11.3051
▁maşının	-11.3055
▁Arzu	-11.3056
▁etibarı	-11.3056
▁yerüstü	-11.3057
▁araşdırmaları	-11.3057
▁Dev	-11.3058
▁döyü	-11.306
▁bacarıqlı	-11.3061
▁salon	-11.3064
▁Bit	-11.3065
▁qəbiristanlığın	-11.3065
▁Xətai	-11.3065
xalq	-11.3066
▁Biznes	-11.3068
əkli	-11.3073
mum	-11.3073
▁Hələb	-11.3073
▁verilişi	-11.3074
şərqi	-11.3075
▁mexanizm	-11.3075
▁güləşçi	-11.3076
▁saxlama	-11.3081
Kərim	-11.3081
▁Nasir	-11.3081
▁Ayın	-11.3082
▁31-	-11.3085
▁Dəməşq	-11.3086
▁yarımkeçirici	-11.3086
▁yırtıcı	-11.3086
▁Əjdaha	-11.3086
▁səhifələrində	-11.3086
▁Əfşar	-11.3087
▁Məlikov	-11.3087
▁yubiley	-11.309
▁Sənəd	-11.3095
▁bölgəsinə	-11.3095
▁yarışda	-11.3095
▁İspaniyada	-11.3095
▁yerlərə	-11.3098
▁ovçu	-11.3099
▁nəticəyə	-11.3099
▁çıxışları	-11.3101
▁etmirdi	-11.3101
▁təş	-11.3102
vud	-11.3104
▁qapıları	-11.3104
▁ifası	-11.3107
▁çatdırılması	-11.3107
▁velosiped	-11.3107
▁vəliəhd	-11.3107
▁talış	-11.3107
▁Jak	-11.3107
▁hövzə	-11.3107
▁çətir	-11.3109
▁klubları	-11.311
▁uğurları	-11.311
▁ingiliscə	-11.3112
lərdəndir	-11.3114
▁imzalandı	-11.3116
▁sənədləri	-11.3117
▁bahalı	-11.3118
▁endiril	-11.3118
▁allah	-11.3119
▁halları	-11.312
ulus	-11.3121
▁Vəkilov	-11.3123
▁Region	-11.3124
▁Sünik	-11.3126
▁Qaraca	-11.3126
▁Klassik	-11.3127
▁qübbə	-11.3127
▁Daniel	-11.3128
▁bağlanması	-11.313
▁Komp	-11.313
▁Wo	-11.313
▁Angel	-11.3133
▁massiv	-11.3134
sulu	-11.3136
▁fiqurları	-11.3138
▁sevin	-11.3138
enberq	-11.3139
ütü	-11.314
▁Hindistana	-11.3141
▁Qulam	-11.3145
▁ziyalıları	-11.3145
▁axırlarında	-11.3145
pər	-11.3146
▁Dekabr	-11.3148
▁Əbdülhəmid	-11.3148
▁çuxur	-11.3149
▁təkər	-11.3149
▁Yohan	-11.3151
▁rusların	-11.3151
kinostudiyasında	-11.3151
2000	-11.3152
▁Talıb	-11.3153
▁səfərlər	-11.3153
▁Göytürk	-11.3153
▁tunel	-11.3153
▁1895-	-11.3153
▁uzunluğa	-11.3154
▁bak	-11.3154
▁Məş	-11.3154
▁göstərməsi	-11.3155
vers	-11.3155
Fransisko	-11.3155
▁komponenti	-11.3156
▁gecik	-11.3158
▁Məktəbin	-11.3159
▁kəsmə	-11.316
▁İv	-11.316
▁Antik	-11.3162
İS	-11.3162
▁1950	-11.3162
▁Cavan	-11.3165
SO	-11.3172
▁vəzifələr	-11.3172
▁qurd	-11.3172
▁içi	-11.3173
▁kələ	-11.3175
▁elinin	-11.3175
▁üzünə	-11.3177
▁Təh	-11.3178
mədəni	-11.3179
▁iclasında	-11.3179
▁cazibə	-11.318
▁finalında	-11.3181
▁qanunların	-11.3181
▁Mö	-11.3183
basar	-11.3183
ett	-11.3184
▁minerallar	-11.3188
54-	-11.3189
▁portuqal	-11.319
▁Adolf	-11.319
▁aqrar	-11.319
▁formalaşdı	-11.3191
▁Uels	-11.3191
▁xeyrinə	-11.3192
▁Elektro	-11.3193
▁Albaniyanın	-11.3193
▁təcrübəli	-11.3194
▁nov	-11.3194
▁Aygün	-11.3195
▁qabiliyyət	-11.3195
avan	-11.3198
▁layihələri	-11.3198
▁müalicəsində	-11.3199
▁xanlıq	-11.3201
▁serialın	-11.3201
hum	-11.3203
▁mor	-11.3203
▁91	-11.3204
mərtəbəli	-11.3206
şl	-11.3207
▁Mona	-11.3211
▁Əhmədin	-11.3211
▁Tərcümə	-11.3211
▁3,5	-11.3212
▁tikan	-11.3213
▁iq	-11.3215
▁payızında	-11.3215
edo	-11.3216
▁Kainat	-11.3216
▁gətirilmişdir	-11.3218
▁çalğı	-11.3222
▁zərərli	-11.3222
▁budaqları	-11.3224
▁Əmr	-11.3228
▁qoşa	-11.323
▁cismin	-11.323
əcəyini	-11.3231
▁Rəbb	-11.3232
▁Fəxrəddin	-11.3232
▁Parlamentin	-11.3232
▁girir	-11.3233
▁cərrah	-11.3234
▁Marks	-11.3234
▁Yenə	-11.3235
şəhr	-11.3235
riq	-11.3236
▁endi	-11.3236
▁keçirirlər	-11.3237
▁yarpağı	-11.3237
да	-11.3238
ound	-11.3239
▁Festivalı	-11.3239
▁Novo	-11.3239
▁diviziyası	-11.324
▁Yaşar	-11.3241
tməyə	-11.3241
▁vurmaq	-11.3242
85-	-11.3249
yub	-11.325
▁məhlulu	-11.3254
▁Sofiya	-11.3255
▁göründüyü	-11.3257
▁mübadilə	-11.3257
▁daşlı	-11.3259
▁qurğuları	-11.3261
▁limon	-11.3261
▁sürüşmə	-11.3265
▁serialının	-11.3265
▁hazırlamış	-11.3265
▁sənə	-11.3269
CO	-11.327
lamış	-11.3272
▁təşəkkül	-11.3272
▁əqidə	-11.3274
▁teleskop	-11.3274
▁arada	-11.3275
▁Saf	-11.3276
oqraf	-11.3277
▁mübahisəli	-11.3284
▁Tədqiqatlar	-11.3285
▁Müş	-11.3287
▁Avto	-11.3287
▁0,1	-11.3287
▁marş	-11.3289
▁af	-11.329
▁One	-11.3291
▁Katolik	-11.3291
▁Şəhidlər	-11.3292
▁mehmanxana	-11.3295
▁protestant	-11.3295
▁zeytun	-11.3295
▁Səlcuqlu	-11.3295
▁operası	-11.3299
▁binasında	-11.3299
▁miras	-11.33
▁Air	-11.3301
▁Komitəsində	-11.3302
nra	-11.3302
▁Gəncəyə	-11.3302
▁ovalığı	-11.3304
▁AZ	-11.3304
▁cümə	-11.3306
▁simvolik	-11.3308
uba	-11.3308
▁Ov	-11.3312
▁mənimsə	-11.3312
▁1949	-11.3314
stansiya	-11.3314
▁ayaqqabı	-11.3316
▁bü	-11.3316
▁bəhanə	-11.3316
▁vətəndaşların	-11.3316
▁qaçan	-11.3316
▁1956	-11.3318
▁olmamış	-11.3318
▁Qazı	-11.3318
▁təmizlənməsi	-11.3319
▁1,2	-11.332
▁əsəb	-11.332
▁mənsəb	-11.3321
▁komissarı	-11.3322
▁Tən	-11.3322
▁gilli	-11.3323
ire	-11.3325
▁ulduzdur	-11.3326
▁münasibətdə	-11.333
▁Masa	-11.3331
ikası	-11.3333
▁Vüqar	-11.3337
▁cənubi	-11.3338
ной	-11.3338
▁nahiyəsində	-11.3344
▁heyvanları	-11.3348
▁formalaşmış	-11.3349
▁bölməsində	-11.3352
ərdi	-11.3353
▁eniş	-11.3355
▁birliyinin	-11.3355
▁ayın	-11.3355
dinamik	-11.3355
▁yoluna	-11.3355
▁Kartli	-11.3355
▁turş	-11.3356
▁Hollivud	-11.3358
▁universal	-11.3358
▁qoyul	-11.3358
▁körfəzində	-11.3359
▁tanıyır	-11.336
dol	-11.3361
▁yayla	-11.3362
▁vergilər	-11.3363
▁temperaturun	-11.3368
Ar	-11.3369
▁stil	-11.3373
▁etdiyimiz	-11.3374
rav	-11.3374
▁gəlməyə	-11.3375
Ra	-11.3378
▁mühəndisliyi	-11.3379
▁Records	-11.3379
▁narkotik	-11.3379
▁YUNESKO	-11.3379
▁Halbuki	-11.3379
▁Düşmən	-11.3379
▁Məlumat	-11.338
▁olurdular	-11.3384
▁beyt	-11.3385
▁kürü	-11.3386
laşdıran	-11.3389
▁eşitdi	-11.3389
▁Love	-11.3394
▁şəxslərə	-11.3394
▁səhnələr	-11.3395
▁qoşul	-11.3397
▁nəticələrinə	-11.3398
▁simptom	-11.3401
▁cənnət	-11.3401
▁MMC	-11.3401
▁eşidən	-11.3401
▁Neptun	-11.3401
▁dəzgah	-11.3402
▁adlandırırdılar	-11.3403
▁toxu	-11.3405
▁qüvvələrini	-11.3406
▁86	-11.3408
▁Toxum	-11.3408
▁müşavir	-11.3408
TS	-11.3409
▁institutunun	-11.3411
▁vitamin	-11.3413
▁müşaviri	-11.3414
▁Azərb	-11.3414
Donu	-11.3419
▁qayıtma	-11.3421
▁Konstantinopol	-11.3422
▁Eti	-11.3423
▁səciyyələnir	-11.3423
qen	-11.3423
▁dağıntı	-11.3424
▁komissiyasının	-11.3424
▁dəyişil	-11.3424
▁Şərqin	-11.3426
▁Dara	-11.3429
▁Vel	-11.3434
▁sivri	-11.3435
1,6	-11.3439
▁Ədliyyə	-11.3443
▁alqoritm	-11.3443
▁Neftçala	-11.3443
▁Fiziki	-11.3443
▁vaqon	-11.3446
▁aləmində	-11.3453
▁səslənir	-11.3455
▁uzaqda	-11.3456
▁ayırmaq	-11.3456
▁Dunay	-11.3457
▁mövqeyində	-11.3459
▁artdı	-11.3462
▁başqalarının	-11.3462
trof	-11.3463
▁əmələgəlmə	-11.3464
2003-	-11.3464
▁ehtiras	-11.3465
▁gülü	-11.3465
▁geyimi	-11.3465
на	-11.3466
▁səmt	-11.3468
II	-11.3468
▁Məhkəməsi	-11.3469
▁varsa	-11.3469
▁Dərin	-11.3469
▁fiquru	-11.3471
▁Dom	-11.3471
tav	-11.3472
▁multi	-11.3473
▁yetiş	-11.3475
▁mətbuatı	-11.3475
▁salonu	-11.3476
▁Cümhuriyyət	-11.3477
▁kap	-11.3479
75-	-11.3479
▁yetirilmişdir	-11.3479
▁istədiyini	-11.3481
lmışdır	-11.3483
get	-11.3483
▁hüququna	-11.3486
▁dəyirman	-11.3487
▁çəkməyə	-11.3487
▁Hafiz	-11.3488
atının	-11.3489
▁Hökuməti	-11.349
▁ADU	-11.3492
▁yaradırdı	-11.3493
▁görüşləri	-11.3493
ərsə	-11.3494
qanadlılar	-11.3498
49-	-11.3498
▁yazında	-11.35
ON	-11.3501
▁yaranmasında	-11.3502
buk	-11.3506
▁1899-	-11.3508
▁inqilabçı	-11.3508
▁Mehmet	-11.3508
▁cismidir	-11.3509
▁xatırlayır	-11.3509
▁Nazir	-11.351
▁Yağ	-11.3511
▁Şəfi	-11.3511
▁isbat	-11.3511
▁əməliyyatların	-11.3513
▁Fred	-11.3513
▁dövranı	-11.3514
tala	-11.3515
▁sistemlərin	-11.3518
лов	-11.3519
▁Senat	-11.3519
▁buraxılması	-11.3519
▁silsiləsində	-11.3519
▁İnqilabı	-11.352
▁Meta	-11.3521
▁Cim	-11.3522
▁suallar	-11.3523
▁yüksəlmişdir	-11.3524
▁Ras	-11.3525
▁qəhvə	-11.3527
▁fəvvarə	-11.3529
▁müddəa	-11.353
▁tələbat	-11.353
▁sessiya	-11.3532
▁qalasına	-11.3532
▁Fərman	-11.3534
▁etdirməyə	-11.3535
▁çıxartdı	-11.3536
Qu	-11.3537
▁nümayəndəliyi	-11.354
0000	-11.3543
▁ustaları	-11.3544
▁qaldırdı	-11.3545
sev	-11.3547
stav	-11.3549
rpaq	-11.3549
▁Məmmədquluzadə	-11.3549
▁himayəsi	-11.355
▁davran	-11.355
▁toplaş	-11.355
▁Zirvə	-11.3551
miqrant	-11.3551
▁kataloq	-11.3551
▁kurort	-11.3551
▁cəsur	-11.3552
▁beləcə	-11.3552
▁Arktik	-11.3554
som	-11.3556
▁məbləği	-11.3556
▁Kilsəsi	-11.3559
▁ardıcıllığı	-11.3562
▁şü	-11.3565
▁şəxsiyyəti	-11.3568
▁Vasil	-11.3569
ərazi	-11.357
▁xanımla	-11.357
▁Oruc	-11.3571
▁rəsmlər	-11.3571
▁qvardiya	-11.3572
▁ofis	-11.3573
▁salınır	-11.3574
lamışdı	-11.3576
▁Kubokunda	-11.3577
▁Kala	-11.3577
▁qəsəbəsindən	-11.3578
▁quruluşa	-11.3582
▁böhranı	-11.3584
ения	-11.3587
▁Jurnal	-11.3587
▁hədəfi	-11.3588
▁Xuan	-11.3589
▁paleo	-11.3589
▁sirk	-11.3591
▁şirə	-11.3591
▁Rusiyası	-11.3591
▁gerbi	-11.3591
▁yarımmüdafiəçi	-11.3594
▁Şəmsəddin	-11.3594
▁zərurət	-11.3594
▁təhdid	-11.3595
▁CD	-11.3595
şıq	-11.3595
▁Soyuq	-11.3595
▁temperaturda	-11.3596
▁nominasiya	-11.3598
▁1831-	-11.3598
▁79	-11.3599
▁Əvvəl	-11.3599
▁Kali	-11.36
▁Bin	-11.3601
▁dəftəri	-11.3602
▁dalğaları	-11.3603
▁Sub	-11.3604
▁Limanı	-11.3605
▁florası	-11.3605
▁şənlik	-11.3607
▁dosenti	-11.3607
▁xəstəxanası	-11.3608
▁qüvvətli	-11.3609
▁saraya	-11.3609
▁Rü	-11.3609
dərək	-11.361
IV	-11.361
▁doğul	-11.361
▁mülk	-11.3611
▁materialı	-11.3612
▁əsgərlərin	-11.3615
uğu	-11.3615
▁sultanın	-11.3616
▁yaşam	-11.3616
▁itkin	-11.3617
Bakı	-11.3619
▁sağa	-11.362
▁şübhəsiz	-11.362
▁mərtəbədə	-11.362
те	-11.3621
▁quruldu	-11.3624
▁Bos	-11.3626
daraq	-11.3627
▁qoruq	-11.363
▁yüzillik	-11.3631
▁bağlandı	-11.3631
▁möhkəmləndiril	-11.3631
▁düşdüyü	-11.3632
▁təsirinə	-11.3634
▁kostyum	-11.3638
ləşdiril	-11.3638
1.1938	-11.3638
▁etdirə	-11.3639
tau	-11.3639
▁kahin	-11.364
▁qırılma	-11.3641
qos	-11.3642
▁üfüqi	-11.3643
▁Akif	-11.3643
▁kralın	-11.3644
▁Bet	-11.3645
▁oynayırdı	-11.3646
▁hüquqlarının	-11.3647
▁Məmmədovun	-11.3651
▁mağarası	-11.3653
gram	-11.3654
OR	-11.3656
▁nur	-11.3657
▁Fra	-11.3657
Cabbarlı	-11.3659
▁mür	-11.3659
▁Trabzon	-11.3659
▁eşitmə	-11.366
▁Fey	-11.366
▁kolluqlar	-11.3663
▁qərarlaşır	-11.3664
▁şəhərdən	-11.3666
▁qəbiləsi	-11.3666
▁Yox	-11.3667
▁kimyası	-11.3667
▁qubernatoru	-11.3669
▁enində	-11.3669
▁xaqanlığı	-11.367
▁aclıq	-11.3674
▁Romanın	-11.3675
▁romanında	-11.3676
▁1914	-11.3676
TE	-11.3677
▁Şuranın	-11.3677
ləndirilmiş	-11.3678
ışıq	-11.3679
rinq	-11.3679
▁kanalında	-11.368
▁kəpənək	-11.3681
▁qrunt	-11.3681
▁1883-	-11.3682
▁Klubu	-11.3683
▁Dəfn	-11.3683
▁tutar	-11.3684
▁törəmişdir	-11.3684
▁Nas	-11.3685
▁rütbə	-11.3686
▁nisbət	-11.3687
▁Məsih	-11.3687
əcəkdir	-11.3688
▁quraşdırılmış	-11.369
dos	-11.369
üzü	-11.3692
▁tezliyi	-11.3692
86-	-11.3693
▁dəlil	-11.3696
▁Kanadada	-11.3696
▁Pala	-11.3696
▁salındı	-11.3697
▁tənzimlənməsi	-11.37
▁zoo	-11.3703
▁qüsur	-11.3703
2,5	-11.3703
▁Xırda	-11.3703
▁etdirərək	-11.3704
ofor	-11.3705
▁fəaliyyətdə	-11.3705
▁qoşma	-11.3705
▁tipinin	-11.3705
▁Stiven	-11.3706
▁evlənmə	-11.3706
▁təsərrüfatında	-11.3707
▁təbiətdə	-11.3708
▁İlqar	-11.3709
zam	-11.3709
▁amillərin	-11.3709
▁ərizə	-11.3709
▁Euro	-11.371
▁zabitləri	-11.371
▁artmasına	-11.371
▁təbliği	-11.3711
▁savadlı	-11.3711
▁rayonlarının	-11.3713
her	-11.3713
▁status	-11.3716
zit	-11.3716
oku	-11.3717
kaya	-11.3719
▁Has	-11.3722
▁Sovetlər	-11.3723
▁qarşısının	-11.3725
▁qiyabi	-11.3725
▁tülkü	-11.3725
▁vəzifəni	-11.3725
▁ünsür	-11.3726
▁mitinq	-11.3726
▁təəccüb	-11.3729
▁sıralarına	-11.373
▁4-5	-11.373
▁Üsyan	-11.3731
▁öldürülür	-11.3733
▁ağaclar	-11.3733
▁çalışmışdı	-11.3734
▁Xalid	-11.3735
▁ortalarından	-11.3739
▁Medal	-11.3743
▁Mid	-11.3744
▁buraxılır	-11.3745
▁Simon	-11.3745
▁Qərbdə	-11.3746
▁Vas	-11.3747
▁Nəqliyyat	-11.3747
▁Puşkin	-11.3747
▁magistratura	-11.3748
▁mühərriki	-11.3748
▁bloku	-11.3749
▁qətliam	-11.3749
▁ədalətli	-11.375
▁kraliça	-11.3751
▁aparmağa	-11.3751
▁etməmiş	-11.3752
▁hadisəni	-11.3752
▁ölkələrindən	-11.3755
gahı	-11.3757
▁avadanlıq	-11.3757
▁üçbucaq	-11.3758
▁Klo	-11.3762
▁tatarlar	-11.3763
▁Divar	-11.3763
▁sakinlər	-11.3764
▁yayı	-11.3766
▁Mac	-11.3766
▁Col	-11.3766
▁Parkın	-11.3767
▁Uruqvay	-11.3769
▁Cozef	-11.3769
[...]
