<unk>	0
<s>	0
</s>	0
<pad>	0
▁.	-3.09793
▁,	-3.30593
▁bir	-3.91703
t	-3.9803
;	-3.98287
▁&	-3.99683
▁ve	-4.25574
quo	-4.55965
▁bu	-4.67034
▁	-4.77568
n	-4.82462
apos	-4.84131
k	-4.99855
a	-5.01111
lar	-5.17343
e	-5.24653
▁Bu	-5.25139
▁için	-5.29127
m	-5.30147
▁da	-5.30172
i	-5.48294
▁de	-5.48685
ler	-5.49117
▁Ve	-5.54075
▁çok	-5.55965
▁?	-5.58952
▁daha	-5.66239
ları	-5.84191
▁ki	-5.85185
▁)	-5.90399
(	-5.90488
▁var	-5.91188
la	-5.95902
▁:	-5.96374
leri	-5.97274
da	-5.98325
de	-5.98843
▁gibi	-6.00756
▁olarak	-6.05292
▁şey	-6.06694
ya	-6.07255
le	-6.10147
r	-6.1115
si	-6.12854
▁o	-6.14
li	-6.14236
▁ne	-6.16427
▁...	-6.1647
▁olan	-6.16515
▁—	-6.1672
ı	-6.19301
in	-6.21978
z	-6.24528
▁kadar	-6.27645
l	-6.31219
▁ya	-6.32941
▁en	-6.34131
ye	-6.3519
den	-6.35839
y	-6.36074
▁her	-6.36587
ü	-6.37092
s	-6.37485
er	-6.41369
▁ile	-6.45398
▁değil	-6.45706
dan	-6.47556
nin	-6.4912
nın	-6.53635
na	-6.55592
▁iyi	-6.55629
▁zaman	-6.55815
sı	-6.56049
▁olduğunu	-6.56781
lı	-6.57856
p	-6.58569
ki	-6.59549
▁ama	-6.59873
▁Bir	-6.6001
ların	-6.62009
▁sonra	-6.6266
u	-6.63004
▁büyük	-6.63589
▁Ama	-6.64489
an	-6.64501
ma	-6.64528
▁bunu	-6.64551
di	-6.66349
▁nasıl	-6.68536
en	-6.69
ce	-6.69191
ne	-6.69711
ın	-6.70743
dir	-6.7077
ş	-6.72743
lerin	-6.73473
yi	-6.74351
▁sadece	-6.75175
-	-6.78928
▁O	-6.79838
▁çünkü	-6.82574
dır	-6.83303
.	-6.83651
lik	-6.84027
▁önce	-6.84493
▁şu	-6.85835
larını	-6.86114
▁şekilde	-6.86632
ni	-6.88846
lerini	-6.89079
▁yıl	-6.8967
▁iki	-6.89933
▁fazla	-6.91684
ca	-6.93247
yı	-6.95622
▁yeni	-6.97735
me	-6.98219
▁aynı	-6.99352
▁insan	-7.02188
▁gerçekten	-7.02969
▁Şimdi	-7.07168
▁Yani	-7.07392
ti	-7.0805
▁olduğu	-7.0839
lık	-7.1036
▁ben	-7.11329
▁benim	-7.11794
▁mi	-7.13483
▁ilk	-7.13861
▁tüm	-7.14028
▁hakkında	-7.14885
▁Ben	-7.15921
▁;	-7.16349
lara	-7.17768
▁başka	-7.17914
▁farklı	-7.18249
sa	-7.1903
▁A	-7.19514
▁insanlar	-7.19962
▁diğer	-7.2012
▁ilgili	-7.21757
▁içinde	-7.22257
lere	-7.22419
d	-7.22819
▁kendi	-7.23159
q	-7.24262
▁in	-7.24691
▁sahip	-7.2483
im	-7.24983
▁yok	-7.25141
um	-7.25773
h	-7.26041
dı	-7.26668
▁bunun	-7.26736
▁bile	-7.26894
▁doğru	-7.27416
▁aslında	-7.27513
▁küçük	-7.2934
▁biz	-7.2942
uz	-7.29471
▁Gülüşmeler	-7.30263
o	-7.30397
re	-7.30845
ə	-7.30973
▁veya	-7.31685
▁S	-7.31947
mak	-7.321
▁i	-7.33511
ini	-7.33571
▁burada	-7.33922
▁a	-7.34047
▁gün	-7.34362
▁♫	-7.34518
du	-7.34657
ri	-7.35521
▁biri	-7.36645
▁ise	-7.37354
lu	-7.37492
un	-7.37731
▁yer	-7.38675
mi	-7.3954
▁son	-7.39756
▁önemli	-7.40114
f	-7.40199
▁eğer	-7.4026
▁bizim	-7.40535
▁bana	-7.41574
▁tek	-7.41664
▁an	-7.41712
▁e	-7.42756
tı	-7.42807
▁iş	-7.4298
▁Faka	-7.43385
▁şeyler	-7.43476
▁oldu	-7.44268
▁bütün	-7.44631
ar	-7.44849
tan	-7.45744
mış	-7.46133
▁Eğ	-7.47167
▁size	-7.47354
miş	-7.47361
ken	-7.47493
b	-7.4762
miz	-7.47962
▁geri	-7.47974
ci	-7.48271
g	-7.48452
se	-7.49093
▁biraz	-7.4921
▁insanların	-7.51036
yla	-7.51537
nda	-7.52649
▁-	-7.52914
▁az	-7.53559
ir	-7.54118
ydi	-7.5443
▁hiç	-7.54626
▁göre	-7.55091
▁gerçek	-7.55241
▁karşı	-7.56752
▁Bunu	-7.57974
sel	-7.58816
▁diye	-7.59274
yle	-7.59745
▁vardı	-7.59947
▁neden	-7.60031
▁onu	-7.60247
larının	-7.60686
sini	-7.61078
daki	-7.62129
▁yüzden	-7.62521
lardan	-7.62691
▁su	-7.62979
ç	-7.63162
ndan	-7.63173
▁zamanda	-7.63556
▁böyle	-7.63835
nı	-7.63884
▁Çünk	-7.64048
mek	-7.64688
ra	-7.64927
larda	-7.6608
larına	-7.6647
▁üç	-7.67039
▁bazı	-7.67062
sine	-7.67086
iz	-7.67225
▁tam	-7.67566
▁Kahkaha	-7.68036
▁üzerinde	-7.68484
ır	-7.68626
▁tarafından	-7.69039
ını	-7.6977
▁dünya	-7.69909
▁bilgi	-7.69918
niz	-7.70449
il	-7.70911
lerden	-7.71015
▁E	-7.71031
ım	-7.71077
▁hareket	-7.71096
▁şimdi	-7.71571
▁mı	-7.72073
tir	-7.7277
▁yapmak	-7.72919
acak	-7.73038
▁olacak	-7.73474
ydı	-7.73619
lan	-7.73716
▁olmak	-7.74017
▁tür	-7.74664
▁İşte	-7.7478
▁istiyorum	-7.75089
dim	-7.75112
ten	-7.75311
▁nın	-7.75648
▁soru	-7.76106
siniz	-7.76628
▁Çok	-7.77569
cı	-7.78376
▁al	-7.78494
lama	-7.7856
▁zor	-7.78856
c	-7.78878
ik	-7.79138
al	-7.79737
▁oluyor	-7.79798
▁ortaya	-7.79835
lerine	-7.79854
▁Ne	-7.80027
sını	-7.80057
lerinin	-7.81798
v	-7.81883
▁və	-7.82053
▁Dünya	-7.82391
▁kişi	-7.825
▁şeyi	-7.82625
▁Bunun	-7.82628
▁C	-7.82649
maya	-7.82742
▁bize	-7.82997
▁oldukça	-7.83451
▁karar	-7.83576
▁birkaç	-7.83647
▁fakat	-7.8404
ine	-7.84417
▁etmek	-7.84499
▁Peki	-7.84831
nız	-7.84943
mız	-7.84962
▁yol	-7.85023
larında	-7.85333
arak	-7.85567
▁güzel	-7.85651
▁uzun	-7.85682
▁onları	-7.85778
lerde	-7.85833
▁fark	-7.85886
▁para	-7.86101
ip	-7.8625
▁10	-7.86319
▁Burada	-7.86409
▁olabilir	-7.86681
▁Her	-7.86998
ecek	-7.87237
lerle	-7.8733
lo	-7.87351
▁ta	-7.87477
▁beni	-7.87569
▁te	-7.87683
▁tekrar	-7.877
▁yani	-7.87739
▁açık	-7.87825
ıyor	-7.87864
ün	-7.88412
▁anda	-7.88449
ba	-7.88454
▁onun	-7.89365
▁olması	-7.89492
▁bunlar	-7.89559
▁Aslında	-7.89949
▁Alkış	-7.90441
nde	-7.90554
▁ın	-7.90573
▁boyunca	-7.90597
▁olur	-7.90816
▁kötü	-7.90932
larla	-7.91093
inde	-7.91317
sanız	-7.9149
deki	-7.91805
▁K	-7.91926
dur	-7.92051
▁hayal	-7.92828
▁devam	-7.9301
▁çıkar	-7.935
▁Alkışlar	-7.93676
ına	-7.94607
▁geliyor	-7.95139
▁milyon	-7.9557
▁Anca	-7.96318
tır	-7.96343
siz	-7.96914
▁ay	-7.97717
▁Daha	-7.97751
▁yüzde	-7.98287
sına	-7.98722
▁arasında	-7.98754
▁birçok	-7.98908
su	-7.99477
▁!	-7.99496
▁Biz	-7.99542
▁yüksek	-8.00555
sin	-8.00988
▁Siz	-8.01088
▁Ya	-8.01722
lü	-8.01755
ıp	-8.01886
▁olma	-8.02621
▁B	-8.02753
lığı	-8.02883
▁belki	-8.03032
▁onlar	-8.03121
abilir	-8.03677
▁dedi	-8.03908
▁Evet	-8.03991
sız	-8.04031
tik	-8.04289
▁orada	-8.04318
▁siz	-8.0433
el	-8.04851
▁at	-8.05041
liği	-8.05049
▁ev	-8.05925
erek	-8.06201
▁aile	-8.06328
▁kaç	-8.06337
x	-8.06525
sal	-8.07054
▁Bunlar	-8.07487
▁tamamen	-8.07609
▁göz	-8.0775
▁ülke	-8.07818
▁20	-8.0786
▁birlikte	-8.08094
iyor	-8.08382
▁nokta	-8.0842
▁çocuk	-8.08578
▁kat	-8.08715
▁bugün	-8.08718
lardı	-8.09074
▁enerji	-8.09875
▁buna	-8.09963
▁Afrika	-8.10295
▁3	-8.10552
be	-8.10728
▁harika	-8.10943
▁öyle	-8.1095
▁araba	-8.10972
▁dünyanın	-8.11165
▁gelen	-8.11282
▁G	-8.1132
▁süre	-8.11515
▁basit	-8.11521
▁yerine	-8.11622
▁konuşma	-8.11693
▁kadın	-8.11911
▁yapma	-8.11948
▁yakın	-8.11974
▁mu	-8.1212
▁gereken	-8.12152
▁ye	-8.12493
▁fikir	-8.12603
▁konu	-8.12688
yu	-8.12772
▁pek	-8.12923
ması	-8.12975
inin	-8.13063
dım	-8.13266
on	-8.1356
▁şöyle	-8.13776
▁çalışma	-8.1385
▁yardım	-8.14104
ro	-8.14425
va	-8.14493
dü	-8.14843
▁bilgisayar	-8.15012
▁alan	-8.15106
▁işte	-8.15137
bi	-8.15165
▁yapı	-8.15262
ında	-8.15713
▁hikaye	-8.16131
▁artık	-8.16391
▁üzerine	-8.16475
sinin	-8.16567
kı	-8.16707
▁teknoloji	-8.17076
dik	-8.17207
lerinden	-8.17218
▁etme	-8.17243
▁daki	-8.17363
▁hiçbir	-8.17684
▁geldi	-8.17783
▁durum	-8.17928
ur	-8.18034
lerinde	-8.18053
▁Ma	-8.18563
lər	-8.18674
▁T	-8.1937
▁Amerika	-8.19442
▁nin	-8.19767
▁eden	-8.20267
də	-8.20335
▁onların	-8.2059
larından	-8.21084
▁Ka	-8.2111
mı	-8.21144
▁Böylece	-8.21925
▁sene	-8.22006
▁temel	-8.22217
min	-8.22388
▁zorunda	-8.22463
▁adam	-8.22464
▁H	-8.22605
▁Sonra	-8.22626
▁yüz	-8.22857
▁hayat	-8.23005
sun	-8.23192
▁ediyor	-8.23394
▁hava	-8.23465
ha	-8.23486
▁konusunda	-8.23535
▁ederim	-8.23747
çi	-8.23976
▁sorun	-8.24234
▁çoğu	-8.24473
meye	-8.24869
▁saat	-8.25216
▁vardır	-8.25409
▁parça	-8.25865
▁veri	-8.25939
▁araştırma	-8.26007
▁bizi	-8.26469
▁hızlı	-8.26479
1	-8.2678
sunuz	-8.26893
▁gelir	-8.27285
▁Ha	-8.27384
▁genç	-8.28518
▁söz	-8.28548
▁yaşam	-8.28888
▁proje	-8.28939
▁sizin	-8.28971
za	-8.2898
▁sonunda	-8.29185
▁ancak	-8.29212
▁den	-8.29294
▁bilim	-8.29347
sinde	-8.2935
▁tane	-8.2935
▁Sade	-8.29514
dum	-8.29584
▁ilginç	-8.29817
▁Tamam	-8.29913
▁sosyal	-8.30105
ebilir	-8.30129
▁işe	-8.30233
▁sağ	-8.30513
ıl	-8.30582
▁ona	-8.30789
▁yerde	-8.30892
▁yeniden	-8.31104
▁onlara	-8.31562
sınız	-8.31598
▁Şu	-8.31666
ğ	-8.3168
▁yaklaşık	-8.31704
▁çevre	-8.31835
or	-8.31941
▁Onlar	-8.32547
▁bak	-8.32683
▁dört	-8.32882
▁olmayan	-8.32956
▁beyin	-8.3321
▁örnek	-8.33249
▁göster	-8.33742
%	-8.34264
man	-8.344
sak	-8.34704
▁hale	-8.34755
▁ha	-8.34812
▁savaş	-8.34978
▁istediğim	-8.35028
▁eski	-8.35599
▁dan	-8.3574
▁elde	-8.35765
sının	-8.35964
▁eğitim	-8.36367
S	-8.36437
mizi	-8.36459
▁çalışan	-8.36535
▁milyar	-8.367
hi	-8.36775
▁dolar	-8.36866
▁baş	-8.36881
▁kontrol	-8.37104
▁hem	-8.37124
▁P	-8.37125
▁herhangi	-8.37374
▁ma	-8.37605
▁D	-8.37633
▁inanılmaz	-8.3795
nden	-8.38073
▁hemen	-8.38083
▁altında	-8.38112
▁sürü	-8.38234
▁Benim	-8.383
▁kız	-8.38499
▁U	-8.387
▁yolu	-8.38971
▁özel	-8.39018
▁En	-8.39096
ıcı	-8.39112
▁di	-8.39199
tu	-8.39507
▁birşey	-8.39535
▁durumda	-8.39955
▁I	-8.39974
▁F	-8.40011
▁insanları	-8.40115
▁dünyada	-8.40296
▁demek	-8.40307
▁ara	-8.40483
▁Sa	-8.40533
ça	-8.40629
dığı	-8.40716
▁böylece	-8.40754
▁də	-8.40852
▁gerek	-8.41146
▁şeyleri	-8.41266
ve	-8.41329
▁hala	-8.41352
▁hasta	-8.41515
▁mü	-8.41582
▁’	-8.41678
▁kal	-8.41737
▁güçlü	-8.42157
▁güç	-8.42448
▁Teşekkürler	-8.42457
▁ses	-8.4261
▁geç	-8.42635
gi	-8.42761
leme	-8.42782
to	-8.42832
lə	-8.42973
zi	-8.43565
▁ağ	-8.438
▁cevap	-8.44106
▁benzer	-8.44117
▁parçası	-8.44326
▁hafta	-8.44455
▁izin	-8.44715
▁yalnız	-8.44826
ge	-8.44962
▁mümkün	-8.45032
▁Bugün	-8.45168
▁etti	-8.45397
▁İ	-8.45457
▁başladı	-8.45613
ch	-8.45735
sın	-8.45877
▁dair	-8.46179
larımız	-8.46286
▁2	-8.46688
w	-8.4671
us	-8.47042
nu	-8.47155
seniz	-8.47442
2	-8.47492
rken	-8.47731
muş	-8.47946
▁el	-8.48157
▁beş	-8.48215
▁inşa	-8.48307
▁herkes	-8.48574
▁ka	-8.4858
▁değer	-8.4894
ğa	-8.48993
▁iç	-8.49092
▁doğa	-8.49281
▁kolay	-8.494
unu	-8.49413
▁yine	-8.4985
▁edin	-8.49859
▁yan	-8.50143
▁kimse	-8.50393
ının	-8.50534
ga	-8.50774
▁4	-8.50843
▁hatta	-8.5144
▁görme	-8.51574
▁şunu	-8.5168
▁inan	-8.51764
▁kullan	-8.51983
▁hazır	-8.51986
çe	-8.52026
▁un	-8.52041
▁düşünce	-8.52482
nun	-8.52484
▁bunları	-8.52898
▁Neden	-8.53021
▁New	-8.53033
▁toplum	-8.53154
▁bağlı	-8.53163
▁aşağı	-8.53329
▁anlama	-8.53391
▁tahmin	-8.53438
ız	-8.53685
ru	-8.53699
▁ön	-8.53701
▁deney	-8.53878
▁grup	-8.53918
cu	-8.54095
imiz	-8.5423
▁olsa	-8.54267
no	-8.54464
abiliriz	-8.54668
ür	-8.54964
▁k	-8.55154
ul	-8.55217
▁yaptığı	-8.5538
A	-8.55427
▁30	-8.55737
▁gösteriyor	-8.56005
▁yap	-8.56008
fe	-8.56089
yan	-8.56218
▁İlk	-8.56309
st	-8.56378
▁5	-8.56382
ck	-8.56471
▁hepsi	-8.56515
▁araya	-8.56604
▁dedim	-8.56696
ey	-8.568
▁oda	-8.57038
▁verme	-8.57107
▁insanlara	-8.57276
es	-8.57346
▁sayı	-8.57421
▁gördüğünüz	-8.57454
▁film	-8.57581
sek	-8.57708
▁idi	-8.57922
▁bence	-8.57996
iş	-8.58023
▁kabul	-8.58043
luk	-8.58309
▁yanlış	-8.58393
sında	-8.58605
dık	-8.58667
▁Hindistan	-8.58748
▁video	-8.59
▁ilişki	-8.59058
▁ek	-8.59089
▁geniş	-8.59092
ze	-8.59174
dığını	-8.5918
▁kısa	-8.59594
▁Son	-8.59603
B	-8.59628
▁De	-8.59634
▁gir	-8.59669
▁50	-8.60462
▁sizi	-8.60502
▁ver	-8.60533
▁kez	-8.60642
▁değildir	-8.60718
nizi	-8.60739
iyoruz	-8.60972
▁güven	-8.6099
▁Çin	-8.61012
ünü	-8.61232
▁neredeyse	-8.61412
▁özellikle	-8.6186
▁alma	-8.61937
bo	-8.61984
▁yaz	-8.61992
mızı	-8.62004
▁Ş	-8.62085
çı	-8.62094
imi	-8.62187
tim	-8.62317
▁tedavi	-8.62369
mə	-8.62381
▁dakika	-8.6242
▁aç	-8.62655
vi	-8.62693
▁tanı	-8.63073
▁gece	-8.63124
diğini	-8.63128
▁Ba	-8.63159
▁Kendi	-8.6331
▁olduğuna	-8.63556
▁ana	-8.63671
▁f	-8.637
▁yapmaya	-8.63711
▁u	-8.63767
▁çıktı	-8.64083
▁birisi	-8.64418
▁derin	-8.64573
▁yarat	-8.64699
▁büyü	-8.64753
▁kap	-8.64755
▁derece	-8.64815
▁gelecek	-8.64898
▁değildi	-8.64903
şi	-8.64938
mayı	-8.6502
▁genel	-8.65153
▁yapan	-8.65178
▁g	-8.6526
▁kelime	-8.6539
▁destek	-8.65454
▁olay	-8.65544
▁üzere	-8.65618
▁haber	-8.65652
▁problem	-8.65688
▁yapıyor	-8.65804
▁sistem	-8.65944
0	-8.66279
bil	-8.6631
▁ı	-8.66474
▁s	-8.66535
▁ışık	-8.66786
▁gerekiyor	-8.66829
▁ifade	-8.66895
▁Ç	-8.66899
▁va	-8.66903
lerimiz	-8.66989
▁yere	-8.67094
ən	-8.67106
nızı	-8.67171
▁yara	-8.67203
▁öğren	-8.67323
müş	-8.67366
ran	-8.67529
ay	-8.67619
abilirsiniz	-8.67686
▁iletişim	-8.678
▁ölüm	-8.67816
▁TED	-8.6793
▁dikkat	-8.68149
▁doğal	-8.68173
ış	-8.68723
▁deneyim	-8.68953
leşme	-8.69178
▁getir	-8.69217
▁altı	-8.6925
▁ele	-8.69286
▁kim	-8.69298
▁neler	-8.69336
▁başladım	-8.69501
▁ikinci	-8.69504
▁olmadığı	-8.69579
▁olmadığını	-8.69751
▁beraber	-8.69766
▁çalış	-8.6978
▁düşünün	-8.69819
ebiliriz	-8.69842
mesi	-8.69869
▁kan	-8.69929
▁oyun	-8.69932
▁yaptığımız	-8.69948
â	-8.7002
C	-8.70024
▁bundan	-8.70071
D	-8.70115
diğimiz	-8.7027
▁değiştir	-8.70379
▁kafa	-8.70448
▁on	-8.70636
▁etki	-8.70654
ılmış	-8.70695
▁verici	-8.70956
mo	-8.71109
▁1	-8.71182
mda	-8.71275
▁şeyin	-8.71309
▁100	-8.71385
▁bil	-8.71608
▁p	-8.71758
▁kullanarak	-8.71818
lanma	-8.71875
▁15	-8.72119
▁deniz	-8.7215
▁Al	-8.72157
▁geçen	-8.72215
yız	-8.72458
▁çek	-8.72462
dən	-8.72542
▁sanat	-8.72658
▁ak	-8.72718
▁Mo	-8.73211
▁fikri	-8.73346
▁bağ	-8.73416
▁Aynı	-8.73437
▁bakın	-8.73519
▁karmaşık	-8.73546
▁sistemi	-8.73759
▁bunların	-8.73784
▁me	-8.73996
▁tasarım	-8.74032
▁bırak	-8.74128
fi	-8.74137
▁Te	-8.74231
ol	-8.7437
▁Tüm	-8.74397
▁çox	-8.74653
▁kar	-8.74782
▁ortak	-8.74903
▁bağlantı	-8.75085
▁arasındaki	-8.75124
▁yoktu	-8.7524
.000	-8.75287
▁sebep	-8.75364
dığımız	-8.7539
kar	-8.75392
▁çeşit	-8.75429
is	-8.75519
▁olduğumuz	-8.75599
▁biliyor	-8.75614
▁okul	-8.75685
▁anne	-8.75698
▁sonraki	-8.75706
M	-8.7584
▁bin	-8.75907
▁İnsanlar	-8.75964
acağız	-8.75998
▁seç	-8.76133
▁anlat	-8.76145
▁canlı	-8.76191
▁uzay	-8.76334
▁plan	-8.76348
ö	-8.7648
ımız	-8.7666
▁M	-8.77055
▁sağlık	-8.77142
▁ihtiyacımız	-8.77175
▁ulaş	-8.77226
3	-8.77302
▁erkek	-8.77345
▁Di	-8.77494
▁işi	-8.77551
▁ku	-8.77919
▁rağmen	-8.78041
diği	-8.78259
lamak	-8.78262
▁Ban	-8.78358
▁biliyoruz	-8.78419
alım	-8.78597
ydu	-8.78737
▁alıp	-8.78853
▁insanın	-8.79124
▁sebebi	-8.79198
▁çocuklar	-8.79347
fa	-8.79352
▁Belki	-8.79385
5	-8.79437
4	-8.79465
▁hücre	-8.79479
▁üçün	-8.79558
▁yaptık	-8.79691
▁dolayı	-8.79776
▁Me	-8.79903
▁yapılan	-8.79976
6	-8.80074
sinden	-8.80077
cə	-8.80239
▁yılda	-8.80373
▁bölge	-8.80462
00	-8.80606
mişti	-8.80607
▁tamam	-8.80642
▁gitme	-8.80744
ho	-8.80819
▁bina	-8.80931
▁yı	-8.80975
▁düşünüyorum	-8.81005
inden	-8.8111
▁York	-8.81257
▁görüyorsunuz	-8.81418
▁orta	-8.81555
▁Büyük	-8.81621
▁eder	-8.81709
asyon	-8.81821
▁uygulama	-8.81826
▁telefon	-8.81928
▁dolu	-8.82032
lığın	-8.82047
▁sa	-8.8208
▁internet	-8.82185
▁olsun	-8.8232
▁dil	-8.82348
T	-8.82357
8	-8.82453
▁gel	-8.82498
▁et	-8.82828
üyor	-8.82927
▁Bo	-8.82991
ləri	-8.83036
muz	-8.83088
▁madde	-8.83204
▁görebilirsiniz	-8.83218
▁as	-8.83254
ici	-8.83402
▁sıra	-8.83449
▁din	-8.83532
▁bakış	-8.83774
üm	-8.83849
▁içine	-8.83963
▁teşekkür	-8.83976
ği	-8.83994
▁la	-8.84101
▁asla	-8.84392
▁se	-8.84472
▁yardımcı	-8.84516
go	-8.8469
▁güneş	-8.84738
▁mutlu	-8.84751
sə	-8.84834
▁adım	-8.85121
▁Ayrıca	-8.85192
▁adı	-8.85265
▁model	-8.85296
▁yanı	-8.85297
▁J	-8.85303
▁düşündüm	-8.85437
▁muhtemelen	-8.85521
▁ettim	-8.85594
ll	-8.85624
ley	-8.85768
acağım	-8.85947
▁etmeye	-8.86024
iyet	-8.86042
▁nedir	-8.86081
san	-8.86186
▁yaşayan	-8.86191
▁robot	-8.86212
▁bazen	-8.86473
op	-8.865
▁koy	-8.86528
▁Avrupa	-8.86592
▁Bütün	-8.86592
▁hep	-8.86592
▁çizgi	-8.86605
yim	-8.86715
▁olup	-8.86759
▁hayvan	-8.86798
▁ilgi	-8.86818
▁sen	-8.86907
▁dur	-8.86993
▁görmek	-8.87094
▁kur	-8.87134
▁ileri	-8.8721
▁çık	-8.87243
▁b	-8.8732
yken	-8.87325
▁eş	-8.87485
leriyle	-8.87666
▁başına	-8.87799
▁değişim	-8.87925
dür	-8.88034
▁dışında	-8.88147
▁şehir	-8.88165
▁tut	-8.88298
▁ba	-8.88301
▁hangi	-8.8833
▁merak	-8.88342
▁kazan	-8.88618
▁küresel	-8.88644
▁arka	-8.8884
▁test	-8.8886
meyi	-8.88882
▁Ta	-8.88983
▁yazı	-8.88984
▁hoş	-8.8902
▁yılında	-8.89026
▁Diğer	-8.8913
▁duy	-8.89243
▁yapar	-8.89291
▁ister	-8.89336
▁dünyayı	-8.89446
son	-8.89452
▁kendini	-8.89505
▁ayrıca	-8.89539
▁düşünme	-8.89594
▁gezegen	-8.89691
▁orman	-8.8982
yım	-8.89854
yə	-8.90166
▁yaş	-8.90193
miyor	-8.90456
mıştı	-8.90493
▁İki	-8.90666
▁An	-8.90714
yum	-8.90742
▁Su	-8.90761
ık	-8.90852
▁hepimiz	-8.90862
▁Bizim	-8.90894
▁ciddi	-8.90912
▁fotoğraf	-8.90912
tur	-8.90923
lanmış	-8.90988
ebilirsiniz	-8.91198
ilmiş	-8.91365
ist	-8.91441
▁Buna	-8.91528
ton	-8.91539
▁kısmı	-8.91734
▁içerisinde	-8.91891
▁yaşında	-8.92005
▁ekonomi	-8.92042
▁do	-8.92165
▁si	-8.92192
po	-8.92245
▁L	-8.92275
▁Yeni	-8.923
liğin	-8.92313
j	-8.92372
▁sürekli	-8.92401
▁Re	-8.9242
bu	-8.92602
▁ekonomik	-8.92611
▁hayatta	-8.92741
▁beri	-8.92802
ed	-8.92804
▁takip	-8.92989
şa	-8.93107
▁kalma	-8.9343
▁kesinlikle	-8.93595
▁konuda	-8.93646
▁olurdu	-8.93692
▁defa	-8.9377
▁almak	-8.93814
▁devlet	-8.93904
▁tak	-8.93982
▁binlerce	-8.93992
▁6	-8.94036
ku	-8.94094
▁görüyoruz	-8.94112
P	-8.94388
▁ko	-8.94422
▁başarılı	-8.9448
ing	-8.94668
larıyla	-8.94704
▁vermek	-8.94706
mu	-8.94782
der	-8.94832
▁sık	-8.94968
▁gerektiğini	-8.9508
▁El	-8.95127
layan	-8.9514
ımı	-8.95165
ver	-8.95418
▁resmi	-8.956
▁uygun	-8.95601
▁düşün	-8.95636
▁acı	-8.95652
▁tabi	-8.95687
▁40	-8.95688
▁yatırım	-8.95773
▁resim	-8.9581
ebilecek	-8.95815
▁ihtiyaç	-8.95915
▁arada	-8.96012
7	-8.96077
▁gerekli	-8.96184
▁başarı	-8.96395
▁sonuç	-8.96509
pi	-8.96632
▁açı	-8.96689
uyor	-8.96749
▁ait	-8.96853
▁art	-8.96963
▁hedef	-8.9698
▁geçir	-8.97086
unun	-8.97147
▁verir	-8.97158
▁bulunan	-8.97433
▁iz	-8.97501
▁yaptı	-8.97544
▁yaptığım	-8.97559
iyorlar	-8.97644
▁üst	-8.97838
▁anlamın	-8.97851
ıldı	-8.97874
▁uzak	-8.97908
▁kuş	-8.97946
▁konuş	-8.9796
▁gönder	-8.97963
kan	-8.9804
9	-8.98194
lük	-8.98226
▁Ro	-8.98259
▁çözüm	-8.98302
▁kır	-8.98366
▁verdi	-8.98431
▁ders	-8.98513
▁Se	-8.98625
▁kök	-8.98822
abiliyor	-8.98835
▁sor	-8.9888
▁Gerçekten	-8.98881
larımızı	-8.98933
▁nedenle	-8.98953
▁gidiyor	-8.98973
▁gen	-8.98997
▁alır	-8.99021
▁asıl	-8.99322
▁haline	-8.99355
▁bilme	-8.99384
▁Mi	-8.99602
▁dünyadaki	-8.99619
▁korku	-8.99621
dığım	-8.99652
▁yemek	-8.99668
ktan	-8.99721
▁makine	-8.99726
ıyoruz	-8.9973
▁kalan	-8.99781
▁Teşekkür	-8.99842
ko	-8.99907
▁söyledi	-8.99938
▁engel	-8.99967
pe	-8.99979
▁ettik	-9.00027
▁Co	-9.00102
▁risk	-9.00234
▁program	-9.00292
diğim	-9.0032
▁yaptım	-9.00391
▁yapabilir	-9.00499
▁ayrı	-9.00555
ste	-9.00594
up	-9.00603
▁görüntü	-9.00844
▁işaret	-9.00878
▁gidip	-9.00905
▁evet	-9.01037
▁mükemmel	-9.01058
▁Hayır	-9.01059
▁edecek	-9.01077
▁Be	-9.01083
▁başladık	-9.01111
mde	-9.01191
elim	-9.01216
▁çal	-9.0128
masını	-9.01449
▁varsa	-9.01449
▁der	-9.01461
ör	-9.01476
yo	-9.01567
▁olmalı	-9.01627
▁söylüyor	-9.01713
▁aşı	-9.01721
rə	-9.01742
duk	-9.01994
▁giy	-9.02019
▁kadınlar	-9.02116
ah	-9.02238
E	-9.02462
▁ediyorum	-9.02491
▁zengin	-9.02517
▁deki	-9.0253
▁müzik	-9.02702
ğı	-9.02779
▁San	-9.02805
▁be	-9.02818
▁top	-9.02845
▁Ra	-9.03047
iyle	-9.03079
▁yavaş	-9.03095
▁metre	-9.03211
▁ilaç	-9.0324
▁şarkı	-9.03254
▁lazım	-9.03254
▁tabii	-9.03335
▁Ku	-9.03415
▁öz	-9.03416
▁Ko	-9.03462
▁sayesinde	-9.03635
ər	-9.03722
▁kitap	-9.03808
▁DNA	-9.03811
▁silah	-9.03815
▁ayır	-9.03831
▁sesi	-9.03833
▁8	-9.03883
▁elektrik	-9.03997
lerimizi	-9.04043
▁olmadan	-9.04061
▁düşük	-9.04185
▁sev	-9.04573
liğe	-9.04745
▁gücü	-9.04747
ab	-9.04814
▁oluştur	-9.0488
▁yöntem	-9.04929
▁18	-9.04954
▁evrim	-9.05006
▁araç	-9.05026
sam	-9.05029
▁re	-9.05044
▁İş	-9.05292
▁tıp	-9.05361
G	-9.05468
abilecek	-9.05526
eceğim	-9.05533
ilen	-9.05586
sem	-9.05639
▁geliştir	-9.05644
▁kara	-9.05728
▁zamanlar	-9.05801
▁bas	-9.0581
▁normal	-9.06248
▁Si	-9.06298
▁dahil	-9.06356
▁gerekir	-9.06534
▁çöz	-9.06562
▁nə	-9.06648
▁Orta	-9.06667
▁bul	-9.06805
▁nerede	-9.06954
▁Ga	-9.07065
▁Da	-9.07124
▁düzen	-9.07213
yor	-9.07306
lıyor	-9.07459
▁yıldır	-9.07592
,000	-9.07603
▁mevcut	-9.07603
▁çift	-9.07617
▁hata	-9.07664
▁veren	-9.07665
ebiliyor	-9.07668
▁musunuz	-9.07697
ger	-9.08128
▁ABD	-9.08184
▁olduğum	-9.08268
▁dış	-9.08311
ıyorlar	-9.08344
▁iste	-9.08352
▁şeye	-9.08353
▁veriyor	-9.08397
▁gördük	-9.08469
▁Do	-9.08515
ağı	-9.08541
▁7	-9.08558
▁muhteşem	-9.08574
▁sinir	-9.08791
▁yukarı	-9.08933
kları	-9.09048
▁kas	-9.09121
▁bilirsiniz	-9.09189
▁aldı	-9.09196
▁biliyorum	-9.09277
yiz	-9.09363
▁öğret	-9.09393
▁heyecan	-9.09517
▁Bil	-9.09526
bir	-9.09538
▁kapı	-9.09652
▁il	-9.09781
▁12	-9.09896
landı	-9.09926
iyorum	-9.09951
▁La	-9.10054
gu	-9.10063
lemek	-9.10585
▁büyüme	-9.10647
▁başlıyor	-9.10788
▁kol	-9.10799
suz	-9.10924
▁sahibi	-9.10948
▁yayın	-9.10983
men	-9.10993
▁paylaş	-9.11011
▁ayak	-9.11028
▁yedi	-9.11032
▁9	-9.11129
▁olacağını	-9.11189
▁başlar	-9.11207
▁bi	-9.11222
▁algı	-9.11301
▁çocukların	-9.11347
▁görünüyor	-9.11475
yen	-9.11509
▁kullanma	-9.11522
▁kişisel	-9.11528
▁sayfa	-9.11555
▁alanı	-9.11561
▁dizi	-9.11619
▁anlamak	-9.11625
L	-9.11707
▁tepki	-9.11746
▁çıkan	-9.1175
▁sınır	-9.11757
▁götür	-9.11773
▁edil	-9.12108
▁Ge	-9.12177
yü	-9.12275
▁hâl	-9.12335
▁na	-9.12514
mın	-9.12564
lerdi	-9.129
▁diyor	-9.13057
▁yu	-9.13351
▁arkadaş	-9.1336
▁kimi	-9.13374
sü	-9.13409
nd	-9.1349
kten	-9.1358
▁yanında	-9.13593
▁mesaj	-9.1364
co	-9.13717
▁kendimi	-9.14186
▁kaynak	-9.14553
▁beyaz	-9.14607
▁şirket	-9.14623
▁göstermek	-9.14627
mıza	-9.14645
I	-9.14668
▁ortalama	-9.14705
▁oldukları	-9.14714
▁N	-9.14776
malıyız	-9.14835
▁emin	-9.149
▁yarı	-9.14913
▁aracı	-9.14945
▁seçim	-9.14952
▁is	-9.15054
▁birinin	-9.15322
cü	-9.15509
▁öğrenme	-9.15572
▁çalışıyor	-9.1565
▁kanıt	-9.15672
tım	-9.15991
▁ol	-9.15994
▁nedeni	-9.16124
▁tanım	-9.16275
▁söyle	-9.16393
▁şekli	-9.16408
ılan	-9.16417
▁sol	-9.1654
tık	-9.16556
tar	-9.1664
▁Müzik	-9.167
▁fırsat	-9.16945
▁Bi	-9.16962
▁He	-9.17019
▁kamera	-9.17125
▁fiziksel	-9.17149
▁mavi	-9.17167
▁tarafta	-9.17187
▁Başka	-9.17198
▁oluşan	-9.17223
▁bulmak	-9.17264
▁Amerikan	-9.1744
▁başla	-9.17534
▁nun	-9.17777
▁sınıf	-9.17902
▁zamanı	-9.18064
▁dönüş	-9.18088
▁kitabı	-9.18092
▁Ni	-9.18154
▁herkesin	-9.18159
▁buraya	-9.18202
ıyordu	-9.18221
▁olsaydı	-9.18398
▁sağlıyor	-9.18463
▁görün	-9.18474
as	-9.18613
▁medya	-9.18623
▁yerlerde	-9.18632
▁kurtar	-9.18636
▁Onun	-9.18712
una	-9.18898
▁60	-9.18904
diğiniz	-9.18941
▁zaten	-9.19057
▁Artık	-9.19066
▁hastalık	-9.19095
ren	-9.19101
▁olursa	-9.19113
▁masa	-9.19221
▁uç	-9.19244
▁aldım	-9.19296
▁alın	-9.19345
▁tartışma	-9.19391
▁koruma	-9.19421
▁Li	-9.19427
▁işin	-9.19468
▁Na	-9.19485
▁yaşama	-9.19526
bilme	-9.1954
laşma	-9.19547
rak	-9.19651
▁söylemek	-9.19776
ıyorum	-9.19791
▁anlamı	-9.199
▁&#9	-9.19926
▁Örneğin	-9.19926
dılar	-9.1993
▁ç	-9.19959
sından	-9.19967
▁olmaya	-9.19979
▁R	-9.19979
▁harita	-9.2007
mamız	-9.20137
eri	-9.20224
▁görüş	-9.20254
ladı	-9.20343
▁Le	-9.20353
▁W	-9.20382
▁görev	-9.20492
sıyla	-9.20576
▁fakir	-9.20585
▁gider	-9.2083
▁günde	-9.20867
▁gözü	-9.20916
sta	-9.20921
▁kanser	-9.21019
▁tip	-9.21082
▁verdim	-9.21082
▁kendisi	-9.21123
▁mücadele	-9.21246
▁belli	-9.21249
▁henüz	-9.2125
▁üniversite	-9.21468
▁Ev	-9.21505
▁yeterli	-9.21564
şe	-9.21592
mizin	-9.21646
▁&#93;	-9.2169
tor	-9.21763
▁yasa	-9.21822
lardır	-9.21834
▁dünyaya	-9.2186
▁duygu	-9.2202
▁gelişme	-9.22067
▁Herkes	-9.22138
▁pazar	-9.22164
▁kaldır	-9.22172
acağı	-9.22334
▁Mars	-9.22404
▁bakar	-9.22411
ber	-9.2243
▁temiz	-9.22537
▁gelme	-9.22558
▁sal	-9.2256
▁200	-9.22606
dikleri	-9.22658
▁Ar	-9.22662
▁baskı	-9.22674
▁suç	-9.22797
▁bakalım	-9.22847
▁gelip	-9.22867
▁şeylerden	-9.22922
▁cihaz	-9.22956
ysa	-9.23123
▁gördüm	-9.23193
▁ufak	-9.2326
▁mən	-9.23285
▁bulma	-9.23336
mez	-9.23416
▁Birleşi	-9.23485
▁düz	-9.23496
▁uzman	-9.23557
▁birini	-9.23594
▁sayıda	-9.23643
▁dağ	-9.23911
▁temsil	-9.2394
unda	-9.23998
▁bazıları	-9.24153
▁yapacak	-9.24167
▁üstünde	-9.24172
▁görsel	-9.24206
▁meydana	-9.24218
▁Bazı	-9.24297
▁Güney	-9.24407
▁Və	-9.24432
▁gerektiği	-9.24482
▁düşünüyor	-9.24539
▁söyleme	-9.24563
lenme	-9.24608
▁11	-9.24669
▁geçti	-9.24722
▁ısı	-9.24791
▁Google	-9.24854
meyen	-9.2494
lenmiş	-9.24978
▁İnsan	-9.25107
▁CA	-9.25112
▁ihtiyacı	-9.25155
tör	-9.25222
lanan	-9.25267
▁yıllık	-9.25271
▁politika	-9.25279
▁takım	-9.25282
▁alt	-9.25425
▁Mesel	-9.2543
▁noktada	-9.25562
▁alıyor	-9.25596
ildi	-9.25705
▁ince	-9.25708
▁hal	-9.25792
▁yaşıyor	-9.25803
▁açıklama	-9.25836
N	-9.25861
▁ö	-9.25882
▁okyanus	-9.25997
▁Kuzey	-9.26009
▁mesele	-9.26014
▁sar	-9.2612
▁kon	-9.26132
▁kutu	-9.26149
▁bitki	-9.26154
os	-9.26215
▁yiyecek	-9.263
▁kalp	-9.26331
▁söyley	-9.26335
▁konusu	-9.26347
▁etkileşim	-9.26348
▁petrol	-9.26475
▁içeri	-9.26482
iniz	-9.26554
▁derecede	-9.26559
▁deneme	-9.26585
▁ilgilen	-9.26604
▁pe	-9.26641
▁biçimde	-9.26651
mıyor	-9.26653
▁beynin	-9.26948
manın	-9.26994
▁örneğin	-9.27035
raya	-9.27057
th	-9.27057
▁sanırım	-9.27196
▁çıkıyor	-9.27202
▁bulun	-9.2723
▁dışarı	-9.27287
▁yön	-9.27422
▁boş	-9.27428
▁Orada	-9.27466
▁kültür	-9.27472
▁iklim	-9.27649
▁Ke	-9.2768
▁c	-9.27737
▁halde	-9.27798
▁pa	-9.27803
nızda	-9.27852
▁şekil	-9.27882
sh	-9.27928
▁hatırla	-9.27944
do	-9.28034
▁yerinde	-9.28071
▁gizli	-9.2836
▁sun	-9.28474
ana	-9.28498
▁dijital	-9.28597
▁duvar	-9.28609
▁buradaki	-9.28651
O	-9.28667
anırım	-9.28675
▁çocukları	-9.28697
ından	-9.28776
▁gittim	-9.28779
▁azından	-9.28893
▁icin	-9.28923
▁tanesi	-9.28953
ğünü	-9.29042
▁yeşil	-9.29317
K	-9.29433
▁şiddet	-9.29463
▁hizmet	-9.29468
▁seviye	-9.2947
▁yerel	-9.29512
mək	-9.29537
▁Nasıl	-9.29556
▁aşırı	-9.29591
▁hayatı	-9.29653
▁dönü	-9.29704
▁sü	-9.29732
▁farkında	-9.29843
▁ürün	-9.29883
▁Tanrı	-9.29944
siyle	-9.29959
▁ediyoruz	-9.29997
▁katı	-9.30077
▁olduklarını	-9.30122
ışı	-9.30178
▁yapıyoruz	-9.30222
▁kay	-9.30331
▁sabah	-9.30523
▁sahne	-9.30769
▁gerçekleştir	-9.31
▁altın	-9.31079
▁işler	-9.31081
▁kişinin	-9.31206
yse	-9.31253
▁numara	-9.31254
▁yaşlı	-9.31357
▁zarar	-9.31362
▁kişiler	-9.31605
▁çeşitli	-9.31671
ad	-9.31758
▁etkili	-9.31788
▁gözlem	-9.31837
iği	-9.31901
▁amacı	-9.3191
▁şeylerin	-9.3193
▁yaratmak	-9.31965
▁gü	-9.32028
▁yapılmış	-9.32051
id	-9.32155
▁25	-9.32239
▁zamanlarda	-9.3225
▁milyonlarca	-9.32265
▁80	-9.32295
▁istedim	-9.32323
sen	-9.32417
▁saniye	-9.32453
luğu	-9.32455
▁dinle	-9.32489
▁can	-9.32498
▁fa	-9.32532
▁hayır	-9.32735
▁gördüğümüz	-9.32743
▁Hatta	-9.32747
▁edebilir	-9.3278
R	-9.32984
▁olacaktır	-9.33021
▁gösteren	-9.3308
per	-9.33393
▁şaşırtıcı	-9.33483
▁kaynağı	-9.33484
▁biliyorsunuz	-9.33542
▁erkekler	-9.33584
▁gid	-9.33654
▁edilmiş	-9.33683
▁bar	-9.33757
▁tə	-9.33909
▁eşit	-9.33986
▁Yap	-9.34002
▁Ho	-9.34063
▁balık	-9.34127
▁bit	-9.34158
mize	-9.34295
makta	-9.34312
nuz	-9.34346
▁Jo	-9.34373
▁durumu	-9.34387
▁olmuş	-9.34416
▁arkadaşım	-9.34464
larımızın	-9.34525
▁kendine	-9.34534
oloji	-9.34591
▁verdik	-9.34649
▁sağlayan	-9.34779
diniz	-9.34792
▁etkisi	-9.34814
▁adında	-9.34839
ama	-9.34849
▁Böyle	-9.34861
ıyla	-9.3514
leyen	-9.35199
▁sat	-9.35247
▁cep	-9.35268
yoruz	-9.35314
▁bununla	-9.35337
maz	-9.35416
▁düş	-9.35425
kçe	-9.35428
▁Mar	-9.35456
▁sonucu	-9.35492
▁Birkaç	-9.35505
▁Baş	-9.35528
▁Va	-9.35534
▁istiyor	-9.35598
▁yıllar	-9.35638
▁sanki	-9.35647
▁karbon	-9.35763
▁yüzünden	-9.35783
▁açısından	-9.35804
▁işle	-9.3585
▁bekle	-9.35919
▁yaklaş	-9.36015
▁hikâye	-9.36017
▁insanlarla	-9.36088
kleri	-9.36128
▁yük	-9.36198
abilmek	-9.36223
▁ilham	-9.3628
▁öğrenci	-9.36395
▁li	-9.36414
▁site	-9.36571
▁dışı	-9.36645
▁söylen	-9.36647
ram	-9.36681
ndaki	-9.36728
▁davran	-9.36798
▁çalışmak	-9.36837
▁san	-9.37035
▁önünde	-9.37057
▁ar	-9.37174
▁yaratıcı	-9.3725
▁merkez	-9.37296
▁Pa	-9.37345
▁adlandır	-9.37499
▁ortada	-9.37601
əm	-9.37696
▁yüzey	-9.37788
▁par	-9.37803
▁teşekkürler	-9.3781
▁hayatın	-9.37864
▁belir	-9.37885
▁yaptıkları	-9.37972
▁başında	-9.38017
▁laboratuvar	-9.38093
▁kırmızı	-9.3812
yon	-9.38251
miştim	-9.38262
acağını	-9.38325
▁mesela	-9.38356
eceğiz	-9.38467
▁dolaş	-9.38552
▁Onu	-9.38583
taki	-9.38612
▁duyu	-9.38722
▁ateş	-9.38752
ası	-9.38843
▁molekül	-9.38859
nüz	-9.38896
▁liste	-9.38903
▁hak	-9.39034
lığ	-9.3909
▁İyi	-9.39172
▁ge	-9.39275
▁ülkeler	-9.39307
▁olun	-9.39363
▁hükümet	-9.39448
▁davranış	-9.39766
▁aldık	-9.39789
▁okuma	-9.39821
eyim	-9.39902
▁kendilerini	-9.39959
▁işlem	-9.40084
lerdir	-9.40189
▁teknik	-9.40225
▁merkezi	-9.40276
leyici	-9.40352
▁dalga	-9.40376
▁kullanıl	-9.40447
yorum	-9.40479
▁tercih	-9.4048
▁biyo	-9.40515
▁ekran	-9.40544
▁Bunları	-9.40615
▁ni	-9.40625
tif	-9.40629
dıkları	-9.40633
▁Y	-9.40634
▁ke	-9.40647
H	-9.40719
▁esas	-9.40731
▁beceri	-9.40845
▁akıllı	-9.40906
ğimiz	-9.40914
ster	-9.40995
▁amaç	-9.4101
▁çaba	-9.4102
▁oran	-9.41085
ğım	-9.41114
▁ci	-9.41146
▁yüksel	-9.4117
▁yıldız	-9.4118
ğu	-9.41355
▁istiyoruz	-9.41367
imizi	-9.41426
▁köy	-9.41459
▁anlamda	-9.41492
ral	-9.41602
▁değilim	-9.41606
▁nde	-9.41632
▁ölçü	-9.41668
▁ettiği	-9.41686
▁Batı	-9.41726
▁yazma	-9.4173
▁dayan	-9.41735
bə	-9.41769
▁İkinci	-9.41786
▁sayısı	-9.41854
▁göstereceğim	-9.419
raf	-9.41995
▁yoksa	-9.422
qu	-9.4233
▁bilmiyor	-9.42342
▁anlam	-9.42416
▁Ara	-9.42425
▁inanıyorum	-9.4243
▁senin	-9.4246
madı	-9.42513
▁hesap	-9.42642
▁ucuz	-9.42673
mü	-9.42756
imizin	-9.42761
▁içindeki	-9.42978
üz	-9.43006
▁satın	-9.4308
▁Hiç	-9.43146
▁x	-9.43205
▁dev	-9.43284
▁umut	-9.43306
▁akıl	-9.43376
mızda	-9.43467
▁üçüncü	-9.43499
▁rol	-9.43571
▁çiz	-9.43601
▁bulduk	-9.43763
ebileceği	-9.4381
▁arama	-9.43887
▁bo	-9.43927
ığı	-9.44001
▁av	-9.44112
▁yaşan	-9.44138
▁dön	-9.44207
▁organ	-9.44261
kta	-9.44275
he	-9.44279
▁Gi	-9.44382
▁kere	-9.44484
▁gerçekte	-9.44531
▁bakarsa	-9.44578
▁öğretmen	-9.44588
ünün	-9.44615
▁yapabiliriz	-9.44714
▁tutku	-9.4475
meliyiz	-9.4485
▁garip	-9.4487
▁kesin	-9.44871
▁eylem	-9.44896
cılar	-9.45012
▁tarz	-9.45026
▁bilimsel	-9.45032
▁olmasını	-9.45047
▁üzerinden	-9.45107
▁denge	-9.45263
▁harca	-9.45306
▁arı	-9.45336
▁söyler	-9.45348
gen	-9.45452
▁önceki	-9.45467
▁süreç	-9.45476
▁edə	-9.45493
▁Ca	-9.45517
▁buz	-9.45596
▁olduğundan	-9.45631
malı	-9.45675
▁kullanmak	-9.45686
▁Tek	-9.45709
▁kod	-9.45867
sunu	-9.45868
▁yayıl	-9.45903
amaz	-9.45938
F	-9.46007
▁geçmiş	-9.46037
mizde	-9.46053
▁so	-9.46063
mesini	-9.46094
▁günlük	-9.46106
▁rahat	-9.46233
▁yüzlerce	-9.46284
▁Kar	-9.46324
▁Kim	-9.46396
▁kendimizi	-9.46423
▁görüyor	-9.46447
▁mo	-9.46473
▁tepe	-9.46529
▁Dolayısıyla	-9.46568
▁demokrasi	-9.46568
▁sanatçı	-9.46607
▁hayvanlar	-9.46661
▁yüzü	-9.46678
▁Hepimiz	-9.46838
▁sevgi	-9.46891
▁Tabii	-9.46895
▁70	-9.46904
lerim	-9.4695
▁mal	-9.47013
▁korkunç	-9.47141
▁anlay	-9.47147
lin	-9.47282
▁anlaşıl	-9.47319
▁gösterdi	-9.4735
▁zeki	-9.4743
▁sağlıklı	-9.47491
▁kıl	-9.47585
▁söylediği	-9.47623
eceğini	-9.47741
▁duruyor	-9.47747
▁gelecekte	-9.47764
kül	-9.47823
▁konuşmak	-9.47876
▁baba	-9.47904
▁olduğunda	-9.47927
lanıyor	-9.47956
▁getirmek	-9.47989
▁Gülüş	-9.48004
▁İnternet	-9.48004
▁çıkma	-9.48012
▁değişik	-9.48043
diler	-9.48091
ucu	-9.48139
▁dönem	-9.4822
lendir	-9.48222
iliyor	-9.48225
▁seviyorum	-9.48345
▁karanlık	-9.4836
▁budur	-9.48438
▁sorunu	-9.48579
▁Biraz	-9.48608
▁teori	-9.48668
▁bilmiyorum	-9.48677
mektedir	-9.48732
ıyorsunuz	-9.48755
▁şa	-9.48796
▁Sen	-9.48816
▁elbette	-9.48876
▁oldum	-9.48893
▁sırada	-9.48897
▁Ak	-9.48936
meyecek	-9.48968
cık	-9.49106
▁tarafı	-9.4912
▁endüstri	-9.49168
▁Çoğu	-9.49169
▁eve	-9.4917
▁güvenli	-9.49236
▁türlü	-9.49238
▁uyan	-9.49293
▁em	-9.49395
▁gitti	-9.49412
▁olanlar	-9.49417
▁Video	-9.49462
▁yaratma	-9.4951
mekte	-9.49658
stik	-9.49662
▁nesil	-9.49675
▁Gerçek	-9.49701
duğu	-9.4971
▁kural	-9.49719
▁motor	-9.49768
▁aşama	-9.49818
▁isteme	-9.49864
▁nerey	-9.49882
▁uçak	-9.49888
nce	-9.49998
▁gördü	-9.5016
▁giden	-9.50214
▁bilir	-9.50306
▁buluş	-9.50309
▁açıdan	-9.50319
▁alakalı	-9.50347
▁yapıyorlar	-9.50395
▁gitmek	-9.5043
▁Ki	-9.50465
▁hücreleri	-9.50531
maktadır	-9.50539
▁oluş	-9.50547
liğini	-9.50552
▁üzerindeki	-9.50621
▁Onları	-9.50636
ji	-9.50657
▁konuşuyor	-9.50677
▁tarih	-9.50721
layıcı	-9.50739
dığınız	-9.50759
▁indir	-9.50765
▁edilen	-9.50842
▁bunlardan	-9.50883
▁etrafında	-9.50941
▁yoktur	-9.50952
▁sinyal	-9.50976
▁olmayacak	-9.50999
▁miyiz	-9.51066
imin	-9.51088
▁belirli	-9.51089
▁çevir	-9.51106
▁sefer	-9.51213
▁genetik	-9.5124
▁geldiği	-9.51253
▁gerçeği	-9.51323
▁bitir	-9.51395
▁kes	-9.51408
ılır	-9.51479
▁üret	-9.5148
mızın	-9.5149
▁yi	-9.5155
teki	-9.5158
▁ada	-9.51601
▁dönüştür	-9.51701
▁köpek	-9.51839
▁doku	-9.51862
▁buldum	-9.51968
iyorsunuz	-9.52016
▁hissed	-9.52033
▁öte	-9.52048
lüğü	-9.52058
▁16	-9.52069
ğin	-9.52092
ınız	-9.52157
ğü	-9.52163
▁mil	-9.52198
▁döndü	-9.52253
▁girdi	-9.52332
▁fikirler	-9.52362
▁90	-9.52368
▁geleneksel	-9.52461
▁deyil	-9.5251
▁ü	-9.52516
▁öde	-9.52532
nün	-9.52545
▁herşey	-9.52548
▁say	-9.52582
tro	-9.52717
▁rakam	-9.52746
▁tarihi	-9.52762
met	-9.52965
▁cevabı	-9.5305
▁piyasa	-9.5305
landır	-9.53063
dığında	-9.53068
▁Çocuk	-9.53128
▁oray	-9.53234
▁çocuğu	-9.533
▁istediğimiz	-9.53335
▁süper	-9.53367
▁kilo	-9.53389
▁insanı	-9.53407
▁hər	-9.5349
▁başlama	-9.53579
▁gör	-9.53626
▁boyut	-9.53656
▁icat	-9.5368
▁belirt	-9.53751
▁geldiğini	-9.53794
▁bilgiyi	-9.53795
ğini	-9.53864
inizi	-9.53939
▁kayıt	-9.5398
▁yaşadı	-9.54001
miyorum	-9.54099
▁hakkı	-9.54123
▁oranı	-9.54185
▁sağladı	-9.54195
ss	-9.54202
▁önemlisi	-9.54216
ite	-9.54273
▁ziyaret	-9.54275
▁genellik	-9.543
ümüz	-9.54352
lma	-9.54472
▁çalışır	-9.54516
▁endişe	-9.54528
maq	-9.54543
medi	-9.54556
▁başar	-9.54591
▁aktar	-9.54613
▁düşünmeye	-9.54621
▁anı	-9.54622
▁Ja	-9.54655
▁olmaz	-9.54714
▁yetiştir	-9.54843
yordu	-9.54928
▁bebek	-9.54956
larınız	-9.54961
liyor	-9.54998
▁sırasında	-9.55055
▁kısım	-9.55083
▁ruh	-9.55204
▁Mən	-9.55246
ılması	-9.55282
▁ten	-9.55292
▁Pe	-9.5532
sti	-9.55321
▁sok	-9.55516
▁sekiz	-9.55519
▁değiştirmek	-9.55545
▁ilerleme	-9.55571
▁duyma	-9.55572
ində	-9.55574
▁keşfed	-9.55594
eceği	-9.5561
▁Gör	-9.55703
muyor	-9.55713
umuz	-9.55723
▁yönet	-9.5577
▁ülkede	-9.55781
▁yapmayı	-9.55798
▁ortam	-9.55843
memiz	-9.55851
ydim	-9.55874
adlı	-9.55937
▁Tam	-9.5606
▁sonsuz	-9.56106
▁Birçok	-9.56141
▁renk	-9.5616
▁sağlamak	-9.56169
▁kaya	-9.56315
▁bölüm	-9.56415
▁dahi	-9.56425
▁İnsanların	-9.56477
▁anlamaya	-9.56532
▁ettiğimiz	-9.56563
ans	-9.56569
ğim	-9.56649
ron	-9.56718
madan	-9.56754
▁teşvik	-9.56771
▁modeli	-9.5683
lamaya	-9.56883
▁gösteri	-9.56889
▁hız	-9.56906
▁topluluk	-9.56966
larım	-9.57034
▁odaklan	-9.57043
▁modern	-9.57088
▁Pekala	-9.57089
▁Burası	-9.57117
▁hastalığı	-9.57148
▁ila	-9.57149
▁yaparken	-9.57202
▁po	-9.57286
▁hayatını	-9.57288
leştirme	-9.57298
▁ediyorlar	-9.57303
▁sorular	-9.57306
▁siyah	-9.57332
▁vücut	-9.57405
▁olağanüstü	-9.57406
▁verimli	-9.57423
▁yağ	-9.57442
▁ayrıl	-9.57459
▁günü	-9.57519
▁bizler	-9.5763
tür	-9.57697
▁park	-9.57698
▁politik	-9.57728
▁yetişkin	-9.57735
▁Go	-9.57749
▁çalışıyoruz	-9.57858
▁yüzyıl	-9.57969
▁polis	-9.5807
▁şehrin	-9.58113
▁parmak	-9.58129
▁geçme	-9.58135
▁halinde	-9.58201
▁dile	-9.58222
▁örneği	-9.58237
▁fi	-9.58248
sidir	-9.58275
▁gösterme	-9.5834
▁Ri	-9.58361
▁yaşay	-9.58425
▁taşı	-9.58473
likle	-9.58503
▁karakter	-9.58521
▁sıcak	-9.58624
mle	-9.58651
▁Geçen	-9.58686
▁ikna	-9.58703
▁yönlendir	-9.58762
▁virüs	-9.58763
▁doğu	-9.58795
▁yaparak	-9.58803
▁otur	-9.5885
▁sessiz	-9.58856
▁gıda	-9.59009
▁Beni	-9.59066
▁annem	-9.591
mayan	-9.59122
▁Ye	-9.59149
nizde	-9.59166
▁yapmamız	-9.59187
▁hastane	-9.59228
▁git	-9.59268
lığını	-9.59311
▁sahibiz	-9.59322
▁şaşır	-9.59332
leriniz	-9.5937
emez	-9.59403
▁pi	-9.59404
▁mə	-9.59492
nize	-9.59553
▁koru	-9.59597
▁verin	-9.59599
▁ortasında	-9.59614
hu	-9.59644
▁tecrübe	-9.59656
▁değiş	-9.59659
▁So	-9.59813
▁oy	-9.59873
▁taraf	-9.59904
▁ter	-9.5993
seydi	-9.59935
▁John	-9.59983
rı	-9.59984
▁davet	-9.60037
ırken	-9.60054
▁yazar	-9.60079
▁yarısı	-9.60136
▁düşündük	-9.60163
▁kadınların	-9.60183
▁ışığı	-9.6019
ydım	-9.60214
▁ton	-9.60262
▁”	-9.60309
▁erken	-9.60519
▁yoğun	-9.60582
▁toprak	-9.6066
▁çekici	-9.60673
▁benziyor	-9.60683
▁bulunma	-9.60703
▁aş	-9.60772
▁geriye	-9.60798
▁ikisi	-9.60835
▁edildi	-9.60946
▁zeka	-9.60967
▁olmasına	-9.60977
▁yorum	-9.61033
▁doktor	-9.61041
▁sür	-9.61086
ndeki	-9.61103
▁kurtul	-9.61106
ılıyor	-9.61157
▁getirdi	-9.61189
▁ağır	-9.6122
▁Doğru	-9.61296
▁televizyon	-9.61296
▁Po	-9.61316
▁beden	-9.61323
▁üretim	-9.61339
rke	-9.61349
▁geleceği	-9.61375
cek	-9.61472
▁Fa	-9.61499
▁şirketler	-9.61536
▁arkadaşları	-9.61572
▁kü	-9.61579
▁yeterin	-9.61606
▁böcek	-9.6163
▁çalışıyorum	-9.61765
▁besle	-9.61796
▁yana	-9.61802
▁fazlası	-9.61892
▁kavram	-9.61902
▁görür	-9.61919
“	-9.61959
▁sonuçlar	-9.61998
for	-9.6204
▁yabancı	-9.62043
▁alet	-9.62062
▁tur	-9.62084
düğü	-9.6213
abileceği	-9.62164
leşmiş	-9.62212
▁düşündü	-9.6225
▁yaygın	-9.62292
▁yağmur	-9.62298
▁14	-9.6233
▁olmayı	-9.62343
lardaki	-9.6236
▁fare	-9.62391
▁taş	-9.62453
▁Ay	-9.62525
▁uydu	-9.62546
▁Ü	-9.62716
▁Demek	-9.62763
▁demektir	-9.62783
▁sonrasında	-9.62795
▁taşın	-9.62846
▁mikro	-9.62873
▁/	-9.62962
▁kimyasal	-9.62983
▁isim	-9.63006
▁19	-9.6311
▁kenar	-9.63181
▁programı	-9.63438
▁saldırı	-9.63483
lıkla	-9.63556
▁kendime	-9.63558
▁Z	-9.63577
▁strateji	-9.63637
▁tan	-9.63683
▁ülkelerde	-9.63766
▁toplam	-9.63789
▁edir	-9.63839
▁başa	-9.63889
▁problemi	-9.63891
▁yeri	-9.63975
▁görürsünüz	-9.63978
mıştım	-9.64068
▁Kız	-9.64089
kte	-9.64251
▁olduğumu	-9.64276
▁Öyle	-9.64343
▁Mu	-9.64383
▁adını	-9.64398
▁nefes	-9.64401
▁gemi	-9.64425
nə	-9.6451
iyordu	-9.64638
▁As	-9.6464
▁hakkındaki	-9.64659
▁bağlan	-9.64666
▁adına	-9.64672
▁sergi	-9.64676
▁verdiği	-9.64708
ımın	-9.64727
▁kom	-9.64822
▁burda	-9.64978
▁Üç	-9.65078
▁sey	-9.65078
▁dava	-9.65113
▁cam	-9.65177
▁parti	-9.65274
▁kullanıyor	-9.65292
ırlar	-9.65372
▁benze	-9.65522
▁nöron	-9.65627
▁oyna	-9.65671
▁olmamız	-9.65711
▁süreci	-9.65716
tığımız	-9.65726
lim	-9.6573
▁boyutlu	-9.65761
▁hissetme	-9.65808
lerimizin	-9.65875
je	-9.65926
ebilirim	-9.66082
▁Vi	-9.66113
▁malzeme	-9.66149
mayın	-9.6627
▁işçi	-9.66287
▁telefonu	-9.66327
▁çalışmaya	-9.66334
leşti	-9.6637
ınca	-9.6638
▁tehdit	-9.66381
▁sıfır	-9.66381
▁17	-9.66415
▁Fi	-9.66587
▁ayar	-9.66661
▁Ona	-9.66685
▁Doğu	-9.66749
▁onunla	-9.66861
▁şans	-9.6702
ld	-9.67021
▁mühendis	-9.67044
▁araçlar	-9.67102
▁dokun	-9.67104
gun	-9.67116
▁adet	-9.67156
▁getiriyor	-9.67204
ebileceğimiz	-9.6723
▁Yüz	-9.67231
diğinde	-9.67234
rat	-9.67245
▁Bilim	-9.67252
▁miktarda	-9.67348
▁kaldı	-9.67434
▁analiz	-9.67438
acaktır	-9.67485
dy	-9.67491
▁arazi	-9.67529
▁gaye	-9.67571
▁bulunduğu	-9.67584
kal	-9.67619
▁kare	-9.67662
▁alanda	-9.67673
▁dans	-9.6774
▁düşür	-9.67812
▁gaz	-9.6789
▁katıl	-9.67959
▁deri	-9.67999
▁kuru	-9.68022
ğe	-9.68034
mer	-9.6805
üs	-9.68052
birine	-9.68088
▁tehlikeli	-9.68113
▁devre	-9.68117
▁seyahat	-9.68136
▁çapında	-9.68152
▁çalıştığım	-9.6821
rek	-9.68297
▁yaşındaki	-9.68478
▁Chris	-9.68491
▁izle	-9.68519
▁makale	-9.68548
▁eğlenceli	-9.68564
miştir	-9.6862
▁eriş	-9.68632
lərin	-9.68677
▁bakma	-9.68688
evi	-9.68756
▁girme	-9.68797
▁imkansız	-9.68919
rik	-9.68922
▁hızla	-9.68977
nızın	-9.68979
▁Buradaki	-9.69009
▁fiyat	-9.69147
▁199	-9.69199
▁edici	-9.69205
▁getirme	-9.69221
▁öldür	-9.69241
▁olduğunuz	-9.69294
▁Pi	-9.69344
▁önem	-9.69386
▁başta	-9.69387
▁noktası	-9.69392
örü	-9.69499
yacağım	-9.69528
▁organizasyon	-9.69562
▁pahalı	-9.69562
▁sektör	-9.69563
▁saygı	-9.69566
▁güvenlik	-9.69593
ayım	-9.69666
▁seks	-9.69699
▁kalbi	-9.69731
▁gücünü	-9.69865
▁vatandaş	-9.69922
▁akşam	-9.69922
▁Bazen	-9.69923
▁Öyleyse	-9.69931
mıştır	-9.70001
▁Sizin	-9.70068
▁kapat	-9.70076
▁olduk	-9.70114
larca	-9.70147
▁babam	-9.70149
▁dö	-9.70186
landırma	-9.70194
▁geçerli	-9.7027
▁fabrika	-9.70283
▁bağımlı	-9.70285
▁hücreler	-9.70288
▁şart	-9.7029
▁ederek	-9.70293
ow	-9.70321
▁kaybol	-9.70345
▁ağaç	-9.7035
▁anlatmak	-9.70433
tığını	-9.70439
▁bildiğimiz	-9.70486
▁yaklaşım	-9.70487
▁kör	-9.70645
▁performans	-9.70645
land	-9.70649
▁sana	-9.70686
▁13	-9.70706
▁kalk	-9.70831
izm	-9.70848
if	-9.70914
▁suyu	-9.70932
▁Sonuç	-9.70947
▁adamı	-9.70952
▁Tabi	-9.71025
indeki	-9.71087
hal	-9.71189
▁ardından	-9.71218
arı	-9.71295
▁azalt	-9.71338
▁muazzam	-9.71374
▁Adam	-9.71405
▁Hasta	-9.71426
▁birşeyler	-9.71454
▁sorunları	-9.71547
▁vi	-9.7161
▁man	-9.71818
▁Mü	-9.71849
▁imkan	-9.71882
▁beyni	-9.71886
▁görə	-9.71908
▁bilər	-9.71917
▁oku	-9.71923
▁öğrendim	-9.72016
▁gerekiyordu	-9.72067
▁özü	-9.72099
▁rüzgar	-9.72107
▁sağlayacak	-9.7213
syon	-9.72173
▁ayı	-9.72222
▁isteyen	-9.72236
▁dal	-9.72238
layabilir	-9.72243
▁okula	-9.72259
▁bakteri	-9.72345
▁büyüdü	-9.72388
▁ata	-9.72458
▁sanal	-9.72483
▁Yine	-9.72533
▁kamu	-9.72548
▁ilə	-9.72563
▁etmiş	-9.72603
▁herşeyi	-9.72733
lerimi	-9.72748
▁gö	-9.72835
▁bahçe	-9.72847
▁tasarruf	-9.72847
▁işbirliği	-9.72848
▁düşünmek	-9.72875
▁tarım	-9.72877
süz	-9.72994
ledi	-9.73029
▁Kur	-9.73113
lerinizi	-9.73152
▁Yo	-9.73175
▁bisiklet	-9.73219
▁mahalle	-9.73265
▁sap	-9.73271
hane	-9.73272
▁kurma	-9.7328
▁yapmış	-9.73282
▁Du	-9.73301
▁kısmını	-9.73323
▁pat	-9.73375
▁halk	-9.73379
▁uğra	-9.73447
▁Amerikalı	-9.73453
▁elimizde	-9.73457
▁sistemleri	-9.73488
▁kopya	-9.73594
▁bulunuyor	-9.73618
▁etkin	-9.73689
▁tüket	-9.73801
▁In	-9.73835
▁lider	-9.73944
▁uğraş	-9.73951
ımızı	-9.73955
▁onlarla	-9.73994
▁sonu	-9.7404
▁olduğumuzu	-9.74074
▁gor	-9.74097
▁Lo	-9.74188
▁dik	-9.74212
▁biyolojik	-9.74232
▁almaya	-9.74318
▁qədər	-9.74342
▁yeteneği	-9.74342
▁bağımsız	-9.74343
▁bomba	-9.74344
▁azal	-9.74345
▁ürünü	-9.74399
▁yazılım	-9.74411
▁cok	-9.74415
luyor	-9.74444
▁dönme	-9.74462
▁sokak	-9.74468
▁olmaları	-9.74502
abileceğimiz	-9.74558
▁etrafı	-9.74612
▁Güneş	-9.74721
▁ceza	-9.74725
▁yollar	-9.74731
▁boya	-9.74735
▁çalıştık	-9.74938
▁neyse	-9.75052
ğinde	-9.75052
▁müthiş	-9.75098
▁organizma	-9.751
▁aklı	-9.75217
larındaki	-9.7527
▁taşıma	-9.75275
▁rahatsız	-9.75405
▁saç	-9.75467
▁İngiltere	-9.75479
nizin	-9.75482
▁tehlike	-9.75504
ev	-9.75548
▁verileri	-9.75602
larınızı	-9.7564
▁dili	-9.75708
▁uçuş	-9.75758
▁kaçır	-9.75798
saydı	-9.75831
▁standart	-9.7586
▁web	-9.75861
▁spor	-9.75861
▁reklam	-9.75864
▁burası	-9.75955
▁hissi	-9.76031
▁barış	-9.76046
▁değişikliği	-9.76119
ks	-9.76122
nıza	-9.76155
▁çarp	-9.76182
▁Devletler	-9.76199
▁sağlığı	-9.76231
▁ettiler	-9.76242
▁fil	-9.76243
▁bü	-9.76246
▁sıkı	-9.76271
▁gördüğüm	-9.76286
▁belə	-9.76291
▁çoğunu	-9.76344
▁hepimizin	-9.76354
▁kuvvet	-9.76382
▁mimari	-9.76404
▁evren	-9.76473
▁benzeri	-9.76529
▁iddia	-9.76628
▁sürdür	-9.76633
▁birleştir	-9.76657
▁firma	-9.76661
▁kullanıcı	-9.76707
▁soğuk	-9.7675
▁verilen	-9.76791
▁başarısız	-9.76792
▁ofis	-9.76825
▁öğrenmek	-9.76865
▁uyum	-9.76955
▁ölç	-9.76957
▁arkadaşlarım	-9.76994
▁zayıf	-9.77014
▁obje	-9.77014
▁vur	-9.77045
▁parçaları	-9.7707
▁The	-9.7707
,	-9.77072
▁eli	-9.77088
▁hayatımı	-9.77142
muştu	-9.77248
▁birine	-9.77266
mayacak	-9.7729
əl	-9.77291
▁ettiğim	-9.77296
▁bakıyor	-9.77307
▁şüphe	-9.77366
▁çekti	-9.77389
▁bakım	-9.77392
▁mesafe	-9.77402
▁buçuk	-9.77409
▁Dr	-9.77475
ladık	-9.77487
laştı	-9.77562
▁hali	-9.77601
▁veriler	-9.77643
umu	-9.77712
▁karşılaştır	-9.77749
▁Küçük	-9.77791
▁biçim	-9.77866
▁sordu	-9.77882
▁olacağı	-9.7789
▁çocuğun	-9.77897
liler	-9.779
var	-9.77937
▁Q	-9.78005
abilirim	-9.78098
▁salgın	-9.78117
rin	-9.78145
▁kağıt	-9.78184
ic	-9.78197
▁kanseri	-9.78197
▁24	-9.78238
▁buldu	-9.78354
▁unut	-9.78405
ırsınız	-9.78436
▁istediğiniz	-9.78446
▁şansı	-9.78514
▁not	-9.78541
əs	-9.78564
▁tuhaf	-9.78574
▁nefret	-9.78574
▁tablo	-9.78574
▁kilometre	-9.78576
▁göreceksiniz	-9.78578
▁yakıt	-9.78615
▁hə	-9.78686
▁boyu	-9.78701
▁öldü	-9.78817
▁le	-9.78821
▁alış	-9.78827
larımı	-9.78906
▁uyar	-9.78943
▁suyun	-9.78944
▁teknolojinin	-9.78959
▁dergi	-9.79023
▁sorumlu	-9.79076
▁ölü	-9.79119
▁yemeği	-9.79125
▁görmeye	-9.79144
masına	-9.79174
▁görünen	-9.79222
ft	-9.7923
ly	-9.79248
gin	-9.79268
ebilmek	-9.79272
▁Hem	-9.79286
▁seçenek	-9.79363
▁çatışma	-9.79366
▁uzan	-9.7938
ımda	-9.79388
gel	-9.79411
▁Par	-9.79415
▁olmadı	-9.79421
▁ünlü	-9.79471
lanır	-9.79479
▁benimle	-9.79528
▁alanlar	-9.79607
▁diş	-9.79633
birimiz	-9.79642
▁çöp	-9.7976
▁Hiçbir	-9.7984
ot	-9.79851
▁kullandığı	-9.79891
▁sordum	-9.79928
▁değiştirme	-9.79951
▁yerleştir	-9.79978
ib	-9.79988
▁arası	-9.80027
▁devrim	-9.80046
▁anahtar	-9.80158
▁İngilizce	-9.80268
▁geliştirme	-9.80288
▁kullanılan	-9.80406
▁özgür	-9.80421
▁kart	-9.80442
▁doğum	-9.80446
▁ağı	-9.80474
▁geçiyor	-9.80494
▁çalıştım	-9.80532
▁geçiş	-9.80643
▁kaybed	-9.80739
lanması	-9.8074
▁giriş	-9.80748
▁şeklinde	-9.80777
▁dediler	-9.80791
▁farklılık	-9.80856
hir	-9.80882
▁sevdiğim	-9.80888
▁Sta	-9.80911
▁makina	-9.80961
cak	-9.81018
▁Gel	-9.8107
▁biyoloji	-9.81077
meli	-9.81154
▁tü	-9.81185
▁başlat	-9.81205
▁Elbette	-9.81363
▁protein	-9.81363
▁buydu	-9.8159
▁banka	-9.81617
▁km	-9.81636
▁dönüşüm	-9.81648
▁üz	-9.81664
▁fayda	-9.81696
▁yolculuk	-9.81775
▁düştü	-9.8178
▁olabileceği	-9.81786
▁duygusal	-9.81825
▁tasarla	-9.81938
▁sıradan	-9.81957
▁yada	-9.8196
▁boz	-9.82022
lerdeki	-9.82071
▁grafik	-9.82174
▁Şöyle	-9.82174
▁hesaplama	-9.82187
rma	-9.82212
▁boy	-9.82287
▁gez	-9.82333
▁kesi	-9.8238
▁alanında	-9.82501
▁anladı	-9.82525
ize	-9.82543
layıp	-9.82554
▁HIV	-9.82582
▁Zaman	-9.82635
bar	-9.82639
▁sağlama	-9.82665
▁his	-9.82747
▁araştır	-9.82817
▁yönetim	-9.82983
▁Harika	-9.82992
likte	-9.83017
▁sesleri	-9.83089
▁sonuçları	-9.83116
▁yapabilirsiniz	-9.8315
▁oynama	-9.83172
▁ödül	-9.83183
▁sizinle	-9.8323
▁denedi	-9.83285
acaksınız	-9.83322
sizlik	-9.83327
▁to	-9.83366
▁plastik	-9.83404
▁değiştirdi	-9.83405
▁kaza	-9.83413
▁kamp	-9.8343
▁çıkart	-9.83458
layacak	-9.83471
▁Ses	-9.83531
▁olanı	-9.83602
▁hikayeler	-9.83671
▁gazete	-9.837
▁nesne	-9.83714
olog	-9.83736
▁matematik	-9.83739
▁niye	-9.83784
▁keşif	-9.83817
▁hafif	-9.83817
leyecek	-9.83821
▁komşu	-9.83839
▁uygulan	-9.83867
▁oyuncu	-9.83884
▁miktar	-9.83947
▁yenilik	-9.83964
▁bıraktı	-9.83975
▁Asya	-9.84105
manız	-9.84122
maları	-9.84156
menin	-9.84204
W	-9.84219
▁cesaret	-9.84232
▁tutar	-9.84239
▁üstüne	-9.84338
▁gelişmiş	-9.84356
▁çıkardı	-9.84456
▁Car	-9.84461
▁okuy	-9.84485
▁istediği	-9.84527
▁yolunu	-9.84542
▁don	-9.84645
▁sürdürülebilir	-9.84648
▁zorundayız	-9.84732
▁şirketi	-9.84756
▁oluşturuyor	-9.8479
▁Hadi	-9.84854
▁terk	-9.8491
▁İç	-9.84911
▁oyunu	-9.84914
duğunu	-9.85017
▁Ti	-9.85064
▁hissettiği	-9.85123
ara	-9.85137
▁Wi	-9.85141
▁gittiği	-9.85167
▁etiket	-9.85208
uru	-9.85273
▁değiller	-9.85274
layarak	-9.85318
liğinde	-9.85363
▁ödeme	-9.85486
▁aktivite	-9.85489
▁edip	-9.8549
▁Ə	-9.8549
▁cinsel	-9.85501
▁giderek	-9.85546
har	-9.85567
▁patlama	-9.85576
▁bulut	-9.85614
▁asker	-9.85629
▁maliyet	-9.85751
▁bakmak	-9.85756
▁köşe	-9.85794
▁yapıyorum	-9.85807
▁isə	-9.85814
▁anlaşma	-9.85853
▁sağlar	-9.85868
lılar	-9.85881
▁kum	-9.85884
▁müşteri	-9.85909
▁eyalet	-9.85909
▁bekliyor	-9.85909
▁türü	-9.85924
▁toplantı	-9.86012
▁yaptığını	-9.86053
ard	-9.86073
ilebilir	-9.86087
▁şeyden	-9.86089
lıyoruz	-9.86109
▁yapay	-9.86126
▁etkilen	-9.86166
▁değerli	-9.86167
▁balığı	-9.86183
▁öğrendik	-9.8624
▁geçer	-9.86313
▁sabit	-9.86335
▁Davi	-9.86385
amıyor	-9.86408
ğın	-9.86424
▁önemlidir	-9.86505
▁olabileceğini	-9.86513
▁Sonun	-9.86588
▁evrenin	-9.86622
ladım	-9.86652
▁Ah	-9.86724
▁taki	-9.86726
▁hü	-9.86737
aşı	-9.86737
▁ameliyat	-9.86758
▁kahraman	-9.86758
▁şifre	-9.86758
▁birinci	-9.86819
diyi	-9.86835
ac	-9.86845
larsa	-9.86851
▁sorunlar	-9.86878
▁etmeyi	-9.86878
▁yapıldı	-9.86918
mıyorum	-9.8696
▁saf	-9.86967
▁besin	-9.86981
▁X	-9.86989
isi	-9.87141
▁ün	-9.87161
▁keşfetti	-9.87164
▁maymun	-9.87186
▁şiir	-9.87187
mdan	-9.87256
▁yapacağı	-9.87299
▁değiliz	-9.87364
▁batı	-9.87364
▁detay	-9.87378
lıyım	-9.87394
▁toplumun	-9.87396
▁onlardan	-9.87495
▁işleri	-9.87559
▁mekanizma	-9.87617
▁sığ	-9.87689
ong	-9.87813
ırdı	-9.8783
▁inanç	-9.87854
▁geldiğinde	-9.87956
diklerini	-9.87959
▁kanun	-9.87964
▁Man	-9.88004
▁hassas	-9.88046
▁Afganistan	-9.88047
▁karınca	-9.88066
▁Hayatı	-9.88091
▁Okul	-9.88098
▁koş	-9.8811
dıklarını	-9.88133
▁seçme	-9.8815
▁kullanır	-9.88164
gün	-9.8817
▁hepiniz	-9.88312
▁vücudu	-9.88349
▁geldik	-9.8839
▁yaptığınız	-9.88441
▁yaşadığı	-9.88442
▁Anne	-9.88454
▁uluslararası	-9.88479
▁belge	-9.88479
▁kemik	-9.88482
▁servis	-9.88482
▁filmi	-9.88494
▁arzu	-9.88499
amp	-9.8853
▁Üniversitesi	-9.88549
▁yürü	-9.88625
▁bağış	-9.88696
▁yansıt	-9.8878
▁delik	-9.88908
kat	-9.8898
▁dediği	-9.89011
▁500	-9.89043
▁edilme	-9.89174
vu	-9.89221
▁önümüzde	-9.89356
▁adalet	-9.89364
▁dağıt	-9.89459
▁Onların	-9.89488
▁bulundu	-9.89488
▁açtı	-9.89496
▁kor	-9.89604
▁fizik	-9.89715
▁yarım	-9.89745
▁galaksi	-9.89789
▁karşılaş	-9.89812
▁Bize	-9.89818
▁radyo	-9.89844
▁evde	-9.89874
▁şeydir	-9.89929
▁adamın	-9.90004
▁yerler	-9.90047
▁olmuştu	-9.90167
gan	-9.90195
▁karış	-9.90198
▁sarı	-9.90215
▁nda	-9.90222
▁gözleri	-9.90251
▁tık	-9.90376
▁hepsini	-9.90402
▁keç	-9.90494
nca	-9.9051
▁anlattı	-9.90531
▁nevi	-9.90565
▁kitle	-9.90625
▁paylaşmak	-9.90639
▁oluşturmak	-9.90658
▁Gördüğünüz	-9.90672
▁altyapı	-9.90672
▁Bilirsiniz	-9.90672
▁ettir	-9.90736
▁Eski	-9.90743
▁bax	-9.90761
▁yönel	-9.90798
▁araçları	-9.90847
▁kaynakları	-9.90864
▁inanma	-9.90889
▁çoğunlukla	-9.90906
▁mantıklı	-9.90939
ff	-9.90969
▁verecek	-9.91044
▁zihni	-9.91107
▁Birincisi	-9.9111
▁ayakkabı	-9.91116
▁siyasi	-9.91118
▁bilmek	-9.91134
ırız	-9.9118
▁birbirin	-9.91195
▁bilinen	-9.91223
▁yarış	-9.91255
▁fikirleri	-9.91272
▁öğrenciler	-9.91285
uğu	-9.91341
▁meme	-9.91352
▁olabilecek	-9.9148
▁düşünür	-9.915
▁Gün	-9.91545
▁düşündüğümüz	-9.91575
▁hi	-9.91576
▁karıştır	-9.91612
▁kıyı	-9.91621
▁değişti	-9.91623
▁içer	-9.91651
▁yola	-9.91669
lendi	-9.9185
▁olanak	-9.91873
▁zi	-9.91915
▁Göz	-9.91985
▁böyük	-9.92011
▁hatırlıyorum	-9.92038
▁görünür	-9.92054
▁istiyorlar	-9.92088
▁dost	-9.92155
▁koku	-9.92196
lıq	-9.92201
▁Hu	-9.92242
acağımız	-9.92258
▁Br	-9.92269
▁yolla	-9.92306
▁İngiliz	-9.92337
bur	-9.92385
leyebilir	-9.92452
liydi	-9.92474
▁salon	-9.92533
▁pro	-9.92541
ilmesi	-9.9257
▁neyin	-9.92574
▁Önce	-9.92579
▁korumak	-9.92695
▁aşk	-9.92745
▁ötesinde	-9.92796
leniyor	-9.92814
▁yeti	-9.92818
▁ölçüde	-9.92839
▁kurum	-9.92843
▁kalıyor	-9.92881
▁gurur	-9.92914
▁ediyordu	-9.92943
▁olasılık	-9.92962
▁sizlere	-9.92962
▁dedik	-9.92971
▁kullandık	-9.92975
▁Bak	-9.93043
▁insanlardan	-9.93054
hr	-9.93148
▁Aile	-9.93249
lıyız	-9.93254
▁fotoğrafı	-9.93337
yseniz	-9.93355
▁Londra	-9.93368
▁kapalı	-9.93381
▁alacak	-9.93382
▁tasarımcı	-9.93437
▁ad	-9.93479
▁gerekirse	-9.93504
meden	-9.93551
▁artış	-9.93591
dınız	-9.93628
liğine	-9.93691
▁öner	-9.93741
aj	-9.93767
▁şeker	-9.93827
▁cinsiyet	-9.93831
amazsınız	-9.93832
▁durma	-9.93842
▁nüfus	-9.93881
▁doldur	-9.93911
▁gittik	-9.9397
▁fazlasını	-9.93998
▁yılın	-9.94058
▁Gö	-9.94141
▁uzakta	-9.94245
leyerek	-9.94249
▁Kan	-9.94269
▁tespit	-9.94284
▁yargı	-9.94284
▁parlak	-9.94287
▁tap	-9.94297
▁yılı	-9.9432
ilir	-9.94435
ebilen	-9.94471
▁diyorum	-9.94488
▁dök	-9.94502
▁kanal	-9.94526
▁form	-9.94546
▁yüzyılda	-9.94596
od	-9.94622
▁Ek	-9.94624
▁mimar	-9.94648
▁yaşamak	-9.94693
uldu	-9.94695
▁cümle	-9.94745
▁Hal	-9.94748
▁toplama	-9.94749
▁öykü	-9.94768
▁dediğimiz	-9.9482
▁edebilirsiniz	-9.94825
▁çalıştığımız	-9.9485
▁potansiyel	-9.94874
▁sır	-9.94884
▁gerçeklik	-9.95062
mis	-9.95179
ulmuş	-9.95191
▁kurtarma	-9.95217
▁aktif	-9.95237
▁veril	-9.95252
▁bölümü	-9.95283
▁oto	-9.953
▁düşündüğüm	-9.95307
▁günün	-9.9532
▁Hepsi	-9.95338
▁depo	-9.95459
▁nükleer	-9.95673
▁bozu	-9.95711
▁ham	-9.95733
▁görevi	-9.95804
▁Pro	-9.95817
▁çılgın	-9.96042
fer	-9.96124
abilen	-9.96128
▁açısı	-9.96134
▁geliş	-9.9614
▁dizayn	-9.96141
▁taban	-9.96174
▁duyar	-9.9619
tra	-9.96223
▁dikkatli	-9.96294
▁gül	-9.96348
▁tutul	-9.96376
dışı	-9.96385
▁açma	-9.964
▁Der	-9.96452
▁ən	-9.96525
▁Bar	-9.96535
▁ölme	-9.96545
▁dokuz	-9.96574
▁önüne	-9.96611
▁olabilirsiniz	-9.96611
▁tırman	-9.96613
▁işletme	-9.96651
▁mutluluk	-9.96669
▁yürüt	-9.96676
▁aklım	-9.96689
▁araştırmacı	-9.96692
▁güney	-9.96753
▁ölçek	-9.9684
▁arkasında	-9.96845
▁başladılar	-9.96854
▁sevme	-9.96889
▁kok	-9.97006
▁seni	-9.97029
▁Güzel	-9.97081
▁gelişmekte	-9.97119
▁yay	-9.9716
▁1.	-9.97283
▁değişimi	-9.97402
▁ismi	-9.97535
▁ger	-9.97536
▁epey	-9.97556
▁kuzey	-9.97558
▁Ö	-9.97624
▁girişimci	-9.97626
▁eşi	-9.97629
iyyə	-9.97632
lıydı	-9.97702
▁eğitimi	-9.97726
▁sürece	-9.97777
▁ters	-9.97808
asyonu	-9.97831
▁çıkarmak	-9.97841
▁artır	-9.97907
gar	-9.97909
▁halka	-9.98049
▁saye	-9.98057
mden	-9.98077
▁istedi	-9.98136
▁Or	-9.98179
▁şekillendir	-9.98181
▁koyar	-9.98196
lendirme	-9.98228
▁Top	-9.98255
▁girişim	-9.98295
ja	-9.98308
▁yanıt	-9.98391
▁Za	-9.98394
▁teknolojiyi	-9.98407
▁inceleme	-9.98413
▁bol	-9.98443
▁dol	-9.98464
▁kriz	-9.98477
▁lütfen	-9.9851
▁Söyle	-9.9851
▁hayata	-9.98537
▁üstün	-9.98614
onu	-9.98622
▁kullanıyoruz	-9.98659
ladığı	-9.98679
▁isterim	-9.98728
▁istey	-9.98748
▁yaptılar	-9.98894
▁ulus	-9.98946
▁doğrudan	-9.98947
▁özellikleri	-9.98989
▁konferans	-9.9899
▁sembol	-9.99007
▁adamları	-9.99017
▁vaka	-9.9906
ciler	-9.99066
▁buluyor	-9.99081
ince	-9.99093
▁nereden	-9.99097
▁düzenleme	-9.99119
▁Mil	-9.9918
▁toplan	-9.99223
▁olabil	-9.99281
han	-9.99297
▁olmaktan	-9.9934
▁karşısında	-9.99345
▁deli	-9.99375
lıyorum	-9.99441
mızdaki	-9.99466
▁Teknoloji	-9.99474
▁uça	-9.99497
▁ülkelerin	-9.99512
▁atom	-9.99515
▁komik	-9.9954
▁bağlam	-9.99565
▁Bel	-9.99611
▁düzey	-9.99615
▁yaka	-9.99657
▁daire	-9.99674
▁çalışmaları	-9.997
▁koyu	-9.99762
▁değişme	-9.99839
likten	-9.99885
▁ip	-9.99904
▁olayı	-9.99915
▁ani	-9.99939
▁göze	-9.99942
▁müziği	-9.99961
▁Geri	-10.0005
irdi	-10.0008
▁kaba	-10.001
▁kullandığımız	-10.0022
▁çekme	-10.0024
lerse	-10.0032
ımızın	-10.0038
▁böl	-10.0044
▁çiçek	-10.0045
▁marka	-10.0045
▁Düşün	-10.0052
miyoruz	-10.0057
▁tarafında	-10.0057
▁ediliyor	-10.0059
mur	-10.0061
▁Bakın	-10.0062
▁isti	-10.0066
▁bulur	-10.007
▁konum	-10.0071
▁şimdiye	-10.0071
▁300	-10.0081
we	-10.0088
▁bahsetmek	-10.009
▁ez	-10.01
▁toplu	-10.0102
nuzu	-10.0113
▁diyoruz	-10.0115
▁bakarak	-10.0116
▁yarar	-10.0122
▁kaybetti	-10.0126
▁edebil	-10.0132
▁Sol	-10.0132
▁alanları	-10.0133
bel	-10.0136
abileceğiniz	-10.0141
▁istemiyor	-10.0143
▁arttır	-10.0144
▁çalıştır	-10.0145
▁karışık	-10.0145
▁yönetici	-10.0145
▁suçlu	-10.0149
▁açıkça	-10.0149
▁gelmiş	-10.0153
▁istedik	-10.0155
▁kullanan	-10.0156
▁bulmaya	-10.0157
lduğu	-10.0158
▁gelişim	-10.0159
▁Hava	-10.016
▁bakıp	-10.0161
▁yaşıyoruz	-10.0162
▁Sağ	-10.0167
yacak	-10.0168
▁kıs	-10.018
rü	-10.0184
▁kullanımı	-10.0185
▁yolda	-10.0191
▁taklit	-10.0194
▁yaxşı	-10.0197
▁yaşamın	-10.0213
acağınız	-10.022
▁dışarıda	-10.0221
dunuz	-10.0221
▁vermeye	-10.0222
▁Arap	-10.0223
▁he	-10.0227
▁grubu	-10.023
▁Bazıları	-10.0232
▁harf	-10.0234
lenmesi	-10.0239
▁kablo	-10.0241
malısınız	-10.0245
▁edebiliriz	-10.0252
▁anlamıyla	-10.0256
▁ulaşma	-10.0257
▁musun	-10.0268
▁yapacağım	-10.027
▁eğilim	-10.0278
▁kullandı	-10.028
▁Afrikalı	-10.0285
ğında	-10.0288
▁harcama	-10.0288
▁çağ	-10.0291
▁hareketi	-10.0292
▁çök	-10.0292
▁cerrah	-10.0292
▁sandalye	-10.0292
▁insana	-10.0293
▁bitkiler	-10.0294
▁kulak	-10.0294
▁To	-10.0295
▁sorma	-10.03
▁tıbbi	-10.0304
▁ihtiyacınız	-10.031
altı	-10.0315
▁işim	-10.0316
uşu	-10.0318
▁çalıştığı	-10.0326
▁Bilgisayar	-10.0342
▁Uzun	-10.0343
▁balina	-10.0343
▁ağacı	-10.0343
▁yönde	-10.0354
▁2000	-10.0357
▁robotlar	-10.0364
▁oluşturdu	-10.0364
▁seri	-10.0366
▁ihtimalle	-10.0368
▁karşılık	-10.0369
▁hakları	-10.037
▁değeri	-10.037
▁savunma	-10.0376
▁şehirler	-10.0378
▁atık	-10.0383
▁yaratıyor	-10.039
▁rapor	-10.0393
▁şeydi	-10.0398
▁yapılması	-10.0402
▁kişiye	-10.0402
▁kardeş	-10.0406
▁yapabileceği	-10.0408
lərdə	-10.041
ildiği	-10.0411
▁tanıma	-10.0417
▁tasarımı	-10.0434
▁özelliği	-10.0435
▁dolarlık	-10.0438
▁ücret	-10.044
▁bahsed	-10.0441
▁Fe	-10.0442
▁dürüst	-10.0444
▁mağara	-10.0444
▁olaraq	-10.0444
▁ekibi	-10.0444
gü	-10.0445
kti	-10.0451
▁sı	-10.0451
▁tuvalet	-10.046
mıyoruz	-10.0469
ecektir	-10.0478
▁görüşme	-10.0484
▁haklı	-10.0492
▁zorla	-10.0513
larımızda	-10.0515
▁necə	-10.0518
50	-10.053
ladığımız	-10.0533
▁içi	-10.054
▁yerden	-10.0543
▁serbest	-10.0546
unuz	-10.0547
▁yetki	-10.0548
yecek	-10.0554
▁baktığı	-10.056
▁sorunun	-10.0561
▁bayan	-10.0563
▁yakında	-10.0565
▁soy	-10.0567
▁əl	-10.0567
▁kendilerine	-10.0577
▁lise	-10.0579
▁ulaşmak	-10.0592
lerindeki	-10.0594
▁düşünül	-10.0595
▁ürünleri	-10.0596
▁sermaye	-10.0598
▁Tekrar	-10.0598
▁roman	-10.0599
▁Irak	-10.0603
lenen	-10.0607
▁görüyorum	-10.0611
diğinizde	-10.0616
▁çizim	-10.0621
▁misin	-10.0628
▁şehri	-10.0639
▁Sanat	-10.064
lidir	-10.0641
▁şe	-10.0642
abilirler	-10.0645
▁gösterir	-10.0647
yalım	-10.0648
▁pencere	-10.0649
▁gönüllü	-10.0649
▁kıta	-10.065
imde	-10.0656
▁yerlere	-10.0666
V	-10.0666
▁duyuyor	-10.0672
▁hisse	-10.0673
▁kelimeler	-10.0679
▁olmaması	-10.0679
▁kimin	-10.0685
▁Çocuklar	-10.069
eğe	-10.0692
▁uyu	-10.0697
▁denen	-10.0698
▁Facebook	-10.0701
▁gittikç	-10.0704
▁etmək	-10.0707
▁V	-10.071
▁ulusal	-10.071
tta	-10.071
▁kayıp	-10.071
▁balon	-10.0713
▁başı	-10.0716
▁oluşturma	-10.0716
▁edersiniz	-10.0717
▁düşünüyoruz	-10.0717
▁yerini	-10.0723
▁sert	-10.0738
▁gruplar	-10.074
▁üretme	-10.0743
▁kurmak	-10.0747
▁Araştırma	-10.0754
▁198	-10.0754
▁boşluk	-10.076
amayacağı	-10.0762
iyordum	-10.0769
İ	-10.0774
▁maliyeti	-10.0779
▁ola	-10.079
▁zorluk	-10.0795
düm	-10.0797
▁farkı	-10.0802
ografi	-10.0806
▁mercan	-10.0806
▁tavsiye	-10.0807
▁ordu	-10.0808
▁tanrı	-10.0809
▁kıyasla	-10.081
▁dişi	-10.0811
sindeki	-10.0812
▁katman	-10.0812
▁bahsettiğim	-10.0817
▁çağır	-10.0818
▁Hayat	-10.0822
▁gördüğü	-10.0831
▁hissediyor	-10.0834
▁kazandı	-10.0842
▁yalan	-10.0849
▁başlangıcı	-10.0859
▁berbat	-10.0859
▁İsrail	-10.0859
▁Yaklaşı	-10.086
▁yox	-10.0862
inə	-10.0863
▁kulağ	-10.0865
▁başladığı	-10.0872
▁fikrini	-10.0874
▁söylediğim	-10.0875
▁sistemler	-10.0891
▁kendinizi	-10.0894
▁askeri	-10.0895
▁olamaz	-10.0902
▁bilgileri	-10.0903
▁yetenek	-10.0905
▁kullanım	-10.0912
▁oksijen	-10.0913
▁ticari	-10.0913
▁Üçüncü	-10.0913
▁zevk	-10.0913
▁hukuk	-10.0913
▁alkış	-10.0913
▁atmosfer	-10.0913
▁Sana	-10.0914
▁yeme	-10.0915
▁ihtiyaçları	-10.0921
▁tanımlama	-10.0925
▁dünyasında	-10.0936
▁olursak	-10.0941
▁kurallar	-10.0941
▁görüşü	-10.0941
ang	-10.0951
▁bireyler	-10.0952
▁bildiği	-10.0955
▁günümüzde	-10.0955
▁kimya	-10.0959
▁kedi	-10.0959
▁koyma	-10.096
▁ihtiyacım	-10.0961
▁değişiklik	-10.0963
▁elinde	-10.0963
▁kapsa	-10.0966
▁kampanya	-10.0966
▁sivil	-10.0966
▁yavru	-10.0966
▁krizi	-10.097
▁Biliyorsunuz	-10.097
▁deneyimi	-10.0971
▁endişelen	-10.0976
hri	-10.0976
▁düşman	-10.0978
▁kuruluş	-10.0979
▁başlayan	-10.098
▁başlangıç	-10.0982
▁engelli	-10.0985
ysanız	-10.0991
▁görü	-10.0994
▁olacaktı	-10.1012
▁tanış	-10.1013
duğumuz	-10.1018
▁Brezilya	-10.102
▁görünüş	-10.102
▁degil	-10.1025
▁parçalar	-10.1036
▁bahsediyor	-10.1038
▁deniyor	-10.1038
▁arkadaşı	-10.104
▁benden	-10.1042
▁karşıya	-10.1044
▁durdur	-10.1047
▁baz	-10.1051
▁ettiğini	-10.1053
▁uygula	-10.106
▁yapabil	-10.106
▁hikayesi	-10.1063
▁itibar	-10.1073
▁rekabet	-10.1074
▁iskele	-10.1074
▁yumurta	-10.1074
▁gözüküyor	-10.1074
▁um	-10.1074
▁şefkat	-10.1074
▁talep	-10.1074
▁beklenti	-10.1074
▁evrensel	-10.1081
▁dayalı	-10.1083
▁İkincisi	-10.1083
▁çalıştığını	-10.1084
▁diğeri	-10.1085
▁gibiydi	-10.1093
▁es	-10.1093
▁şanslı	-10.1095
▁ser	-10.1098
▁ah	-10.112
▁gəl	-10.1123
▁sıvı	-10.1129
▁yöntemi	-10.113
lmaz	-10.113
▁Kal	-10.1131
▁alabilir	-10.1135
▁çalışması	-10.1137
▁hissettir	-10.1138
▁yapılma	-10.1148
▁paylaşma	-10.1149
▁evin	-10.1155
▁aldığı	-10.1158
▁olduğunuzu	-10.1161
öv	-10.1168
▁meydan	-10.1171
▁merkezinde	-10.1173
yorsunuz	-10.1173
▁gürültü	-10.1183
▁hafıza	-10.1183
▁memnun	-10.1183
sən	-10.1189
irken	-10.119
amayacak	-10.119
▁eminim	-10.1202
▁döner	-10.1205
meleri	-10.1208
leştirmek	-10.1209
▁miydi	-10.1214
sıdır	-10.1217
▁yaptır	-10.1218
▁nadir	-10.1221
dığınızda	-10.1227
landığı	-10.1228
▁oluşturan	-10.123
mamış	-10.123
▁Şunu	-10.1231
▁Ana	-10.1234
▁herkese	-10.1234
▁çək	-10.1238
▁acil	-10.1242
▁bekleme	-10.1243
▁çalışmalar	-10.1245
▁istiyorsanız	-10.1246
▁ilacı	-10.1246
▁kurul	-10.1248
▁kesim	-10.1249
umun	-10.1252
ınızı	-10.1261
▁tartış	-10.1263
▁Hey	-10.1264
əcək	-10.1267
▁Ju	-10.1275
▁sürdü	-10.1278
inizde	-10.1281
▁kahve	-10.1293
▁Yalnız	-10.1293
lla	-10.1293
▁dek	-10.13
▁müze	-10.1304
▁Kimse	-10.1306
▁atı	-10.1311
▁yaratı	-10.1312
▁yazık	-10.1312
▁aksine	-10.1313
abileceğini	-10.1317
▁sağlam	-10.1319
▁Sağlık	-10.1322
▁yoluyla	-10.1325
▁alarak	-10.1335
▁bölgede	-10.1339
▁öğrencileri	-10.1342
ris	-10.1351
▁bileşen	-10.1351
▁elektronik	-10.1352
▁mekan	-10.1352
▁heç	-10.1354
▁anlatıyor	-10.1354
▁etmemiz	-10.1356
▁domuz	-10.1364
▁kadının	-10.1368
▁hastalıklar	-10.137
▁tarzı	-10.1374
ümüzü	-10.1386
▁edilebilir	-10.1386
cılık	-10.1392
▁hap	-10.1394
▁özgü	-10.1399
▁etmesi	-10.1404
▁AIDS	-10.1404
▁faktör	-10.1405
▁ibaret	-10.1405
▁kredi	-10.1405
▁vücudun	-10.1405
▁eser	-10.1407
▁mantar	-10.1407
▁isterseniz	-10.1415
ücü	-10.1416
yacağını	-10.1418
▁yetiş	-10.1419
▁toplumsal	-10.142
▁sö	-10.1426
lemeye	-10.1429
▁Yer	-10.1429
▁uzaklaş	-10.1432
▁olmanız	-10.1435
▁bırakma	-10.1436
posta	-10.1437
▁Pat	-10.1444
▁çocuklara	-10.1444
gram	-10.1446
▁dönüştü	-10.1453
▁yürüy	-10.1459
▁doğdu	-10.1459
▁paket	-10.1461
▁fonksiyon	-10.1461
▁edebilme	-10.1462
▁kütle	-10.1462
ksiyon	-10.1462
▁Sorun	-10.1463
▁anlayabil	-10.1467
▁çoğunluğu	-10.1467
▁katkı	-10.1471
▁attı	-10.1471
▁kuralları	-10.1473
▁Tıp	-10.1484
▁türden	-10.1486
▁durumunda	-10.1487
▁sakla	-10.1495
▁baktı	-10.1498
▁sahiptir	-10.1503
▁lerde	-10.1505
▁çıkış	-10.151
▁bilin	-10.1511
▁anlatı	-10.1512
leyin	-10.1515
▁istatistik	-10.1517
▁kıyafet	-10.1517
▁müdahale	-10.1517
▁manzara	-10.1517
melisiniz	-10.1519
▁gökyüzü	-10.152
▁Konuşma	-10.1524
▁peki	-10.1529
mizden	-10.1533
▁Almanya	-10.1536
▁Kenya	-10.1538
▁ebeveyn	-10.1543
▁Gu	-10.1549
▁izleme	-10.155
▁kendisini	-10.1556
▁çağrı	-10.1556
▁kendileri	-10.1558
▁Altı	-10.1558
▁olmasının	-10.1558
▁takdir	-10.156
▁etmiyor	-10.1565
▁tutma	-10.1568
▁af	-10.1571
▁trilyon	-10.1574
▁bebeği	-10.1574
▁imza	-10.1575
▁gelebilir	-10.158
▁tasarlama	-10.158
▁Dedi	-10.1582
▁bilinç	-10.1583
▁edebiliyor	-10.1586
▁eğit	-10.1591
▁yazdı	-10.1592
▁yo	-10.1594
nuzda	-10.1596
▁yarattığı	-10.16
ime	-10.1602
▁400	-10.1608
▁yaradı	-10.1614
istan	-10.1617
▁sistemin	-10.1623
▁Annem	-10.1625
▁yapabiliyor	-10.1627
▁alternatif	-10.1631
▁materyal	-10.1631
▁bütçe	-10.1631
▁çöl	-10.1632
▁düzgün	-10.1632
▁fikrim	-10.165
▁anladım	-10.1653
▁kişiyi	-10.166
ras	-10.1669
▁sonrası	-10.167
lerimizde	-10.167
▁tren	-10.1674
▁Sizi	-10.1677
▁Dan	-10.1681
▁Yaşam	-10.1682
▁ekosistem	-10.1689
▁algoritma	-10.1689
▁dönemde	-10.169
▁oluşuyor	-10.1691
▁tümör	-10.1694
▁tesis	-10.1697
larımıza	-10.1697
▁olası	-10.1703
▁Japonya	-10.1705
▁ahlaki	-10.1706
▁Bay	-10.1707
▁Pek	-10.1713
kür	-10.1713
ham	-10.1714
oz	-10.1715
▁nedeniyle	-10.1718
layın	-10.1722
▁Har	-10.1725
▁Fo	-10.1727
▁götürdü	-10.1728
▁koyuyor	-10.1733
mar	-10.1737
▁fırsatı	-10.1737
ğını	-10.1741
▁zamanlı	-10.1745
▁yapabilecek	-10.1745
▁olmama	-10.1745
▁Mısır	-10.1746
▁platform	-10.1746
▁İran	-10.1757
▁tel	-10.1763
▁ederken	-10.1769
▁söylüyorum	-10.1769
▁takıl	-10.1771
inizin	-10.1771
▁okulda	-10.1773
so	-10.1783
zo	-10.179
▁örnekler	-10.1791
▁üzeri	-10.1792
mızdan	-10.1794
▁değerlendir	-10.1798
eceksiniz	-10.18
▁anlatma	-10.1802
▁Fransız	-10.1805
▁popüler	-10.1805
▁yörünge	-10.1805
▁getiren	-10.1806
▁deyişle	-10.1807
▁Özellikle	-10.1807
kâr	-10.1809
▁edilmesi	-10.1814
▁Deniz	-10.1816
▁farkın	-10.1818
▁ilaçlar	-10.1821
▁konuyu	-10.1828
▁imkanı	-10.1829
▁öğretti	-10.1829
▁hikayeyi	-10.1836
jen	-10.1839
▁kültüre	-10.1846
ebileceğiniz	-10.1847
▁yaptıklarını	-10.1848
▁terim	-10.185
▁durumun	-10.1853
▁başlattı	-10.1856
▁hâle	-10.1856
▁finans	-10.1859
▁teşhis	-10.1863
▁calis	-10.1863
▁beğen	-10.1863
▁vakit	-10.1864
▁devasa	-10.1866
▁mezun	-10.1869
▁Ulusa	-10.187
▁tas	-10.1874
mesine	-10.188
▁diz	-10.1885
▁Kadın	-10.1891
▁bende	-10.1896
mekten	-10.1901
▁bal	-10.1905
▁katılma	-10.1907
▁yaşamı	-10.1918
ıldığı	-10.192
▁Küresel	-10.1922
▁profesyonel	-10.1922
▁psikoloji	-10.1922
▁radikal	-10.1922
▁zemin	-10.1922
▁baktığınızda	-10.1924
▁tüketici	-10.1924
▁almış	-10.1927
▁tutmak	-10.1929
▁yapmıyor	-10.1932
▁oranda	-10.1936
▁çalıştı	-10.1938
▁basın	-10.194
▁toplay	-10.1945
▁anlamlı	-10.1948
▁ihtimali	-10.1951
▁Dünyada	-10.1956
▁koruy	-10.1961
▁dolara	-10.1961
▁ulaştı	-10.197
çu	-10.1973
abiliyoruz	-10.1976
▁bilimin	-10.1977
▁kalite	-10.1978
▁Amma	-10.1983
▁varlığı	-10.1985
▁Soru	-10.1988
▁uy	-10.1994
▁qal	-10.1994
▁getirir	-10.1996
▁konuşmaya	-10.1997
▁alalım	-10.1998
▁köle	-10.2005
▁mantık	-10.2007
▁zorundaydı	-10.202
▁çiftçi	-10.2028
▁dönüyor	-10.2035
▁hayran	-10.2041
▁Genç	-10.2041
▁Kanada	-10.2041
▁koloni	-10.2041
▁finansal	-10.2045
▁şehirde	-10.2047
▁verdiler	-10.2047
▁dünyası	-10.2055
▁yönelik	-10.2056
▁bakan	-10.2058
▁sözü	-10.2059
▁bilgisayarlar	-10.2067
ırsanız	-10.207
▁akım	-10.2082
▁kızı	-10.2091
▁Biri	-10.2091
▁eksik	-10.2096
▁rastgele	-10.21
▁heykel	-10.2101
▁baktığımızda	-10.2101
▁zihinsel	-10.2105
▁oluşturur	-10.2106
▁sıtma	-10.2117
▁gazeteci	-10.2117
▁isimli	-10.2127
▁bizimle	-10.2139
str	-10.2139
▁sonucunda	-10.2153
▁tav	-10.2155
▁saçma	-10.2156
▁çözümler	-10.2157
ımızda	-10.2161
▁çerçeve	-10.2161
▁klinik	-10.2161
▁vahşi	-10.2161
▁tarif	-10.2161
▁oturuyor	-10.2164
▁kendimize	-10.2165
▁bilimi	-10.2172
▁bahsetti	-10.2173
▁tamamı	-10.2189
▁verdiğimiz	-10.2189
▁gönderme	-10.2191
▁Ön	-10.2194
▁Ze	-10.2197
▁çözül	-10.2201
lıkta	-10.2202
▁sorar	-10.2203
▁yaşadığımız	-10.2203
▁internette	-10.2207
▁savun	-10.2208
▁sınırlı	-10.2213
▁adamlar	-10.2215
bra	-10.2216
maktır	-10.2218
▁faaliyet	-10.2221
▁stres	-10.2221
0.000	-10.2229
▁vergi	-10.2235
ınızda	-10.2238
lıyorlar	-10.2239
▁içeren	-10.224
▁bildiğiniz	-10.2242
▁resimler	-10.2259
▁tuz	-10.2259
30	-10.2264
▁üçte	-10.2275
▁Öncelikle	-10.228
▁əvvəl	-10.2282
▁tabaka	-10.2282
▁milyarlarca	-10.2287
▁Neyse	-10.2293
▁ekip	-10.2293
▁döngü	-10.2295
bilirsin	-10.2303
▁yarattı	-10.2303
sünü	-10.2305
▁bizden	-10.2307
▁Genel	-10.2311
▁Bizler	-10.2317
▁kalmış	-10.232
ebileceğini	-10.232
Y	-10.2321
▁toz	-10.2321
▁yapabileceğimiz	-10.2323
▁problemleri	-10.233
rah	-10.2334
muzun	-10.2335
▁olmasa	-10.234
▁karikatür	-10.2344
▁seyirci	-10.2344
▁göstər	-10.2344
▁fosil	-10.2344
▁vaxt	-10.2344
her	-10.2345
▁güvenilir	-10.2346
▁bilmə	-10.2347
▁gerekti	-10.2347
▁tatlı	-10.235
▁hissediyorum	-10.2354
▁diyelim	-10.2354
▁parayı	-10.2355
▁Yakın	-10.2356
▁çekmek	-10.2359
▁yapması	-10.2361
▁biliyordu	-10.2361
▁çözmek	-10.2361
ebildiği	-10.2373
▁Tu	-10.2398
▁sim	-10.2401
▁fon	-10.2403
▁maruz	-10.2406
▁metal	-10.2406
▁Eğitim	-10.2406
▁teknolojiler	-10.2406
▁onay	-10.2407
▁biçimi	-10.2409
▁konuya	-10.2412
▁eğri	-10.2413
▁yatak	-10.2414
▁dediğim	-10.2416
▁insanlık	-10.2425
▁ederiz	-10.2425
ədə	-10.2428
▁konuştuğu	-10.2431
lediği	-10.2431
les	-10.2433
▁kilit	-10.2438
▁çağı	-10.2439
▁ağrı	-10.2439
▁sürücü	-10.2445
▁sürede	-10.2446
▁başlamak	-10.2446
▁Para	-10.2449
▁boyutu	-10.2451
▁görebiliyor	-10.2454
▁karşılaştı	-10.2458
▁seviyor	-10.2467
▁öfke	-10.2467
▁İslam	-10.2467
lerimize	-10.2468
▁maden	-10.2471
▁yenilikçi	-10.2472
▁birbirlerine	-10.2474
liyi	-10.2476
▁uyku	-10.2477
▁bilimci	-10.2487
▁yıllarda	-10.2488
▁bağır	-10.2489
▁yaşı	-10.2489
▁Öz	-10.2496
▁önemi	-10.2499
▁saha	-10.25
▁takımı	-10.2502
▁çözümü	-10.2504
▁seviyede	-10.2507
▁Ol	-10.2508
▁görmüş	-10.2512
ldukça	-10.2513
▁fo	-10.2516
wi	-10.2518
▁öğretmenler	-10.2522
▁anlıyor	-10.2528
▁blog	-10.253
▁Allah	-10.253
▁rengi	-10.253
▁başqa	-10.253
▁çekiyor	-10.2532
▁vakti	-10.2536
▁Paul	-10.2538
▁civarında	-10.2539
▁küme	-10.2539
▁Kol	-10.2544
ınıza	-10.2544
▁çalışırken	-10.2545
▁zar	-10.2546
▁odada	-10.2547
▁şişe	-10.255
▁olgu	-10.2551
▁Doğa	-10.2553
▁yığın	-10.2555
▁istedikleri	-10.2557
abı	-10.256
ılabilir	-10.256
▁bunlara	-10.2565
▁yönetme	-10.2566
miyordu	-10.2566
▁giriyor	-10.2573
▁Ağ	-10.2574
▁bakıma	-10.2576
yıp	-10.2578
▁fikrin	-10.2581
▁ısınma	-10.2587
▁içerik	-10.2588
▁zamandır	-10.2589
▁Twitter	-10.2593
ıb	-10.2593
▁Proje	-10.2594
▁kurban	-10.2594
▁özgürlük	-10.2595
uantum	-10.2598
▁diyorlar	-10.2605
iriz	-10.2606
▁geliyordu	-10.2608
▁olaylar	-10.2611
▁kazandır	-10.2617
▁uçur	-10.2617
▁kavra	-10.2619
▁Is	-10.2621
▁koca	-10.2627
▁söyleyen	-10.2632
▁bölün	-10.2635
▁sınırları	-10.2647
▁Oyun	-10.2648
▁heyecanlı	-10.2649
▁Adı	-10.2649
▁teknolojileri	-10.2654
▁Meksika	-10.2656
▁uyuşturucu	-10.2656
▁Değil	-10.2656
▁Uzay	-10.2656
▁düşündüğünüz	-10.2657
▁Steve	-10.2658
mezsiniz	-10.2659
▁35	-10.2659
▁yolculuğu	-10.2661
▁birinde	-10.2662
▁hükümeti	-10.2662
ıldığında	-10.2664
▁Beş	-10.2666
▁hayatlarını	-10.2669
▁Ter	-10.267
▁kendiniz	-10.2676
▁çatı	-10.2682
▁alıcı	-10.2684
▁edeceği	-10.2694
▁diğerleri	-10.2695
▁sistemimiz	-10.2704
▁zamanla	-10.2708
▁küre	-10.2709
▁kurdu	-10.2711
▁satış	-10.2711
▁olabilirdi	-10.2716
▁Kesinlikle	-10.272
▁Müslüman	-10.272
▁depresyon	-10.272
▁mülteci	-10.272
▁cesur	-10.272
▁sıkıntı	-10.272
▁teklif	-10.2721
▁həyat	-10.2722
▁45	-10.2724
▁belirsiz	-10.2724
suzluk	-10.2727
▁yürüme	-10.2728
▁yapılıyor	-10.2736
▁çoğunuz	-10.274
▁çektiği	-10.2742
▁kapasite	-10.2749
▁soruyor	-10.2754
▁değiştirebilir	-10.2756
leyip	-10.2757
▁üretimi	-10.278
kça	-10.2781
▁avantaj	-10.2784
▁felaket	-10.2784
▁grubun	-10.2788
▁yaşındayken	-10.2789
dra	-10.2792
▁havada	-10.2796
▁çıkarma	-10.2798
▁bilmiyoruz	-10.2802
ılacak	-10.2819
▁No	-10.2834
▁Babam	-10.2835
20	-10.2835
▁hastalığın	-10.2838
▁oynay	-10.284
▁birçoğu	-10.2844
meyeceğim	-10.2845
▁Rus	-10.2847
▁Geliş	-10.2852
▁denilen	-10.2859
ğümüz	-10.2862
▁Biliyor	-10.2868
▁sıklıkla	-10.287
▁Kara	-10.2877
ore	-10.2882
▁Konu	-10.2886
▁yüzyılın	-10.2889
▁etdi	-10.2891
▁elektro	-10.29
▁sever	-10.29
▁kontrolü	-10.2902
▁sebeple	-10.2905
▁olmasıdır	-10.2906
▁etmekte	-10.2912
▁çeken	-10.2912
▁tahta	-10.2913
▁öğle	-10.2913
▁yapama	-10.2915
▁olmuyor	-10.2916
▁sorumluluk	-10.2917
▁ölçüm	-10.2919
▁makinesi	-10.292
lendiği	-10.2926
▁kurumlar	-10.2927
▁kişilik	-10.293
▁basitçe	-10.2931
▁Hə	-10.2931
▁hayvanların	-10.2932
ebilirler	-10.2941
▁kullanmaya	-10.2944
▁istek	-10.2947
▁olmuştur	-10.295
▁150	-10.2951
▁vuru	-10.2958
▁alıyoruz	-10.2959
▁sağlayabilir	-10.2964
▁Cha	-10.2966
▁haberler	-10.297
▁etmə	-10.2971
▁çıkarıyor	-10.2972
▁buradan	-10.2973
ğiniz	-10.2973
▁çıkmış	-10.2974
▁zihin	-10.2974
etti	-10.2978
▁olumlu	-10.2979
▁idare	-10.2979
▁Basit	-10.2982
▁bey	-10.2983
▁duyduk	-10.2984
▁Yu	-10.2987
lüyor	-10.2991
▁gelince	-10.2992
▁sıkıcı	-10.2996
▁anlayış	-10.2998
mizdeki	-10.3003
▁keşfetme	-10.3019
▁olmam	-10.3026
▁inceledi	-10.3031
▁öngörü	-10.3036
▁kapan	-10.3037
▁duran	-10.3041
▁geliştirmek	-10.3044
▁Muhtemel	-10.3044
▁Nijerya	-10.3044
▁Kaliforniya	-10.3045
▁İsveç	-10.3045
▁kritik	-10.3045
▁ziyade	-10.3045
▁tohum	-10.3045
▁Umarı	-10.3045
▁etkileyici	-10.3049
▁beslenme	-10.3052
▁genişlet	-10.3058
▁etraf	-10.3062
▁Farklı	-10.3063
▁arttı	-10.3071
▁Kendisi	-10.3074
▁ürünler	-10.308
və	-10.3081
▁çevresinde	-10.3087
▁kaydı	-10.3092
▁elleri	-10.3094
▁hip	-10.3094
▁istifadə	-10.3111
▁nihayet	-10.3111
▁sahte	-10.3111
▁Ülke	-10.3111
▁aracılığıyla	-10.3111
▁köprü	-10.3111
▁düşüş	-10.3111
▁kutsal	-10.3111
▁otomatik	-10.3111
▁bitti	-10.3113
▁mobil	-10.3115
▁seçil	-10.3115
▁kolu	-10.3118
▁versiyonu	-10.312
▁sakin	-10.3121
▁saatte	-10.3123
▁arıyor	-10.3127
şü	-10.3129
▁ettikleri	-10.3131
▁buzul	-10.3132
▁başlıyoruz	-10.3137
lilik	-10.3153
▁soyut	-10.3155
▁zordur	-10.3156
▁zamana	-10.3159
▁miktarı	-10.3161
▁sunum	-10.3164
▁oluşturu	-10.3167
▁Alqış	-10.3177
▁esnek	-10.3178
▁Toplum	-10.3178
▁kocaman	-10.318
▁yolunda	-10.3183
▁anlatacağım	-10.3189
sındaki	-10.3189
▁yapmanız	-10.319
muzda	-10.319
▁bazılarını	-10.3194
▁Mc	-10.3197
▁zinciri	-10.3202
▁hadi	-10.3203
▁Lu	-10.3212
▁öğretme	-10.3213
▁nehir	-10.3214
▁ahlak	-10.3226
▁merhamet	-10.3245
▁bireysel	-10.3245
▁biliyordum	-10.3246
▁oyuncak	-10.3248
▁yazdım	-10.3253
▁kö	-10.3263
▁isteği	-10.3264
▁falan	-10.3265
▁inancı	-10.3276
▁yoksul	-10.3284
▁çözme	-10.3287
mizle	-10.329
▁düzenli	-10.329
▁hastalar	-10.3291
▁zamanında	-10.3297
▁Başkan	-10.3298
▁zorlu	-10.3298
▁şirketlerin	-10.33
▁canlandır	-10.3301
▁dini	-10.3309
▁işlev	-10.331
▁geçmişte	-10.331
▁pozisyon	-10.3312
▁şok	-10.3312
▁baktım	-10.3313
▁başlayalım	-10.3313
▁ideal	-10.3314
▁yöne	-10.3314
▁patent	-10.3314
▁ilgisi	-10.3314
.5	-10.3316
▁yapıp	-10.3319
▁söyleyebilirim	-10.3321
-1	-10.3332
▁ayında	-10.334
▁çıkı	-10.3342
▁ederler	-10.3349
▁genom	-10.3351
▁yaşar	-10.3359
▁babası	-10.3359
▁yapıyordu	-10.3363
▁kaldırı	-10.3369
acağımızı	-10.3372
▁kayded	-10.3372
▁Şehir	-10.338
▁kaybetme	-10.338
▁hasar	-10.3381
▁arayüz	-10.3382
▁nesli	-10.3386
▁parçacıklar	-10.3386
▁bahsedeceğim	-10.3387
▁Yol	-10.3388
▁tutuyor	-10.3388
▁göçmen	-10.339
▁tək	-10.339
▁duydum	-10.3391
▁Savaş	-10.34
▁Jam	-10.3406
▁gök	-10.3407
▁tersine	-10.3408
▁mənim	-10.3409
▁çıktığı	-10.3418
▁öldürme	-10.3419
▁çalışıyorlar	-10.3419
▁ırk	-10.342
▁vereceğim	-10.3424
▁Savaşı	-10.3429
▁altındaki	-10.3434
▁yarışma	-10.3434
▁problemler	-10.3435
▁değişiklikler	-10.3435
▁Kat	-10.3445
▁dinleme	-10.3447
biriyle	-10.3447
▁demokratik	-10.3449
▁blok	-10.3449
▁içeriği	-10.3453
▁uzat	-10.3454
▁çat	-10.3455
▁yiy	-10.3456
▁Bill	-10.3458
don	-10.3461
▁Ken	-10.3464
▁yerleri	-10.3473
▁bakteriler	-10.3473
▁hissettim	-10.3475
▁ağzı	-10.3481
▁kitapları	-10.3481
▁görebil	-10.3486
▁olacağız	-10.3488
▁Üst	-10.3492
▁neyi	-10.3492
▁göç	-10.3493
▁biriydi	-10.3495
▁durdu	-10.3496
▁geçirdim	-10.3501
▁damar	-10.3501
▁Eş	-10.3503
▁inanıyor	-10.3503
▁konuştu	-10.3509
▁öne	-10.3512
lıyordu	-10.3514
▁Açık	-10.3515
▁eğlence	-10.3515
▁hapishane	-10.3518
▁zirve	-10.3518
▁trafik	-10.3518
▁George	-10.3518
▁meslek	-10.3518
▁Yunan	-10.3518
▁resme	-10.352
▁sormak	-10.352
lərini	-10.3521
▁örgüt	-10.3522
cilik	-10.3527
▁Araba	-10.3528
▁Sev	-10.3531
▁sırt	-10.3532
▁Sal	-10.3536
▁hızı	-10.3538
dığımızda	-10.3553
▁sanatı	-10.3553
▁yasal	-10.3556
▁etrafta	-10.3558
ebildi	-10.356
▁düşme	-10.3561
▁aylık	-10.3562
layabiliriz	-10.3562
▁gezegende	-10.3566
nizle	-10.3566
▁konuşmayı	-10.3569
▁dönüştürme	-10.3572
▁yükselt	-10.3578
▁geçirme	-10.3579
▁kolayca	-10.3581
▁moda	-10.3581
▁kariyer	-10.3583
▁Einstein	-10.3587
▁avukat	-10.3587
▁çoğal	-10.3587
▁başvur	-10.3587
▁taşıyor	-10.3588
şık	-10.3592
▁bilinci	-10.3596
▁değişken	-10.3599
▁hikayesini	-10.3603
gra	-10.3605
▁etkileri	-10.3606
amayız	-10.3607
▁oranında	-10.3607
▁işleme	-10.3619
▁liderlik	-10.3621
▁ucu	-10.3626
▁yuva	-10.3627
▁alanın	-10.3628
▁dilim	-10.3628
▁başkanı	-10.3635
eceğiniz	-10.364
▁edebileceği	-10.3645
▁teknolojisi	-10.3651
▁varsayım	-10.3655
▁Herhangi	-10.3657
▁iyimser	-10.3657
▁organize	-10.3658
▁Kore	-10.3659
▁üretmek	-10.3664
▁gelişimi	-10.3665
larımın	-10.3666
▁organik	-10.3668
eceğimiz	-10.3672
▁Kral	-10.3673
düşünebilirsiniz	-10.3677
▁co	-10.3686
▁aldığımız	-10.3686
▁indi	-10.3689
org	-10.369
▁ulaşım	-10.3694
▁planlama	-10.3704
▁azaltma	-10.3709
U	-10.3714
▁75	-10.3714
▁kitaplar	-10.3716
of	-10.3719
▁görünmez	-10.372
kop	-10.3726
imize	-10.3727
▁iğne	-10.3727
▁kasaba	-10.3728
▁dosya	-10.3728
▁hareketleri	-10.3729
▁duygusu	-10.373
▁koşullar	-10.3731
▁Evren	-10.3735
▁getirdiği	-10.3737
▁istemiyorum	-10.374
▁kanat	-10.374
▁İşin	-10.3746
▁eğlen	-10.3753
▁gelin	-10.3755
▁tutun	-10.3756
▁erkeklerin	-10.3759
məyə	-10.3762
▁kaynaklar	-10.3763
▁ailem	-10.3769
▁sahipler	-10.3774
,5	-10.3775
▁Los	-10.3794
▁Avustralya	-10.3798
▁Eylül	-10.3798
▁Sosyal	-10.3798
▁çevril	-10.3798
▁İnanılmaz	-10.3798
▁konser	-10.3799
▁sıradışı	-10.38
▁bugünkü	-10.3804
▁nano	-10.3807
▁sevdiği	-10.381
▁hakim	-10.3811
▁izliyor	-10.3813
▁cihazı	-10.3823
▁Ber	-10.3826
▁yapılar	-10.3829
▁utan	-10.383
▁alıntı	-10.3833
mir	-10.384
emeyeceği	-10.3842
▁kullanıyorlar	-10.3845
rap	-10.3852
▁dakikada	-10.3852
▁kalın	-10.3855
▁hisseder	-10.3857
▁çeşitliliği	-10.3859
▁Alman	-10.3861
▁aldığım	-10.3865
▁meşgul	-10.387
▁NASA	-10.387
▁otobüs	-10.387
▁borç	-10.387
▁slayt	-10.387
▁197	-10.3871
▁alanlarda	-10.3875
▁özet	-10.3878
▁bağlantılı	-10.3884
▁Öl	-10.389
▁sinek	-10.3892
▁gezegenin	-10.3892
irsek	-10.3894
▁artıyor	-10.3897
liyim	-10.3901
▁gay	-10.3901
▁Hala	-10.3905
▁üstesinde	-10.3908
▁ikisini	-10.391
▁değerlendirme	-10.3911
▁çocuklarımız	-10.3911
▁oradaki	-10.3913
▁rastla	-10.3914
emiyor	-10.3914
▁gerçekliği	-10.3917
ıyorlardı	-10.3922
▁kardeşim	-10.3927
imizde	-10.3932
▁dinamik	-10.3942
▁kategori	-10.3942
▁umarım	-10.3942
▁görülen	-10.3942
▁Neredeyse	-10.3942
▁lisans	-10.3942
▁simetri	-10.3943
▁öldürül	-10.3943
▁Times	-10.3943
▁koymak	-10.3943
▁yapmam	-10.3943
▁21	-10.3949
▁müdür	-10.3952
▁Bilgi	-10.3953
▁görevli	-10.3955
▁soruları	-10.3956
▁siyahi	-10.3958
▁günlerde	-10.3972
▁kızlar	-10.3975
▁yasak	-10.3976
▁topladı	-10.3978
▁20.	-10.3979
▁bahse	-10.3983
▁Uç	-10.3987
▁geldim	-10.3989
▁renkli	-10.3993
▁olursanız	-10.3999
▁hesab	-10.4013
▁taşıy	-10.4014
▁sohbet	-10.4014
▁sezgi	-10.4014
▁korkutucu	-10.4014
▁yürüyüş	-10.4014
▁söyledim	-10.4015
▁oturup	-10.4017
▁Beyin	-10.4018
▁hamile	-10.4018
▁etdiyi	-10.4018
▁kuram	-10.4019
▁söyleyebilir	-10.4027
▁kullanabiliriz	-10.4031
▁testi	-10.4031
ov	-10.4036
▁okulu	-10.404
▁yüzleş	-10.4045
▁gidecek	-10.4048
▁mor	-10.4057
▁tarihinde	-10.4057
▁üretil	-10.4067
▁ekmek	-10.4069
▁Darwin	-10.4087
▁çanta	-10.4087
▁barındır	-10.4087
▁donanım	-10.4087
▁bulduğumuz	-10.4096
dığımda	-10.4099
▁oğlum	-10.4105
▁uygulay	-10.4112
▁söylediler	-10.4113
▁yaşın	-10.4113
▁alabil	-10.4116
▁hizmeti	-10.4117
▁tarama	-10.4118
▁faydalı	-10.4118
▁varsay	-10.4124
▁karakteri	-10.4125
▁düşen	-10.4128
leştirilmiş	-10.4128
▁vazgeç	-10.4131
▁yolları	-10.4133
▁Ru	-10.4133
▁gelmişti	-10.4136
▁söyledikleri	-10.4138
com	-10.4138
▁soğu	-10.414
▁gec	-10.4144
emeyiz	-10.4148
▁girer	-10.4148
▁tuttu	-10.4154
▁düzeyde	-10.4156
▁Tasarım	-10.4161
▁hayret	-10.4161
▁hediye	-10.4161
▁operasyon	-10.4161
▁Per	-10.4162
▁kaybı	-10.4163
▁polen	-10.4165
▁projesi	-10.4174
▁düzelt	-10.4178
▁ağırlığı	-10.4179
▁başladığımız	-10.4194
▁2.	-10.4195
lanabilir	-10.4195
▁gelmek	-10.4195
▁miras	-10.4201
▁farkettim	-10.4202
lamaz	-10.4202
▁çeker	-10.4202
luğun	-10.4203
▁avcı	-10.4205
▁erişim	-10.4209
▁şiş	-10.4213
emedi	-10.4217
PS	-10.4219
▁ayakta	-10.4219
laştırma	-10.4219
▁sesini	-10.4222
▁mektup	-10.4235
▁profesör	-10.4235
▁vizyon	-10.4235
▁meyve	-10.4235
▁Arkadaş	-10.4235
▁kullanılıyor	-10.4236
▁değiştiren	-10.4237
▁benzeyen	-10.4237
▁mühendislik	-10.424
▁tasarlanmış	-10.424
▁Gene	-10.4251
▁kalem	-10.4255
▁makineler	-10.4258
abilirdi	-10.4259
▁sistemini	-10.4265
▁həm	-10.4266
▁oturma	-10.4272
yüz	-10.4274
▁düşünüyordum	-10.4277
▁yaratan	-10.4279
▁Az	-10.4289
kinden	-10.429
▁ortamda	-10.4292
lması	-10.4293
▁saklan	-10.4297
▁eseri	-10.4305
▁öğrendiğim	-10.4307
▁Ekonomi	-10.4309
▁səbəb	-10.4309
▁İtalya	-10.4309
▁mahkum	-10.4309
▁kainat	-10.4309
▁haqda	-10.4309
▁peşinde	-10.431
▁üreme	-10.4311
▁prensip	-10.4311
▁kişilerin	-10.4312
▁halkın	-10.4314
▁dolayısıyla	-10.4315
▁görebiliriz	-10.4318
▁dusun	-10.4319
üstü	-10.432
▁21.	-10.4321
▁edildiği	-10.4321
▁sunuyor	-10.4321
▁evrende	-10.4322
▁ışığın	-10.4326
▁ortamı	-10.4334
▁hızlandır	-10.4345
▁gri	-10.4345
▁ölçekte	-10.4348
▁süreçte	-10.4357
▁tersi	-10.4366
▁ilişkiler	-10.4368
larımdan	-10.4369
▁Yıl	-10.4372
ləş	-10.4375
▁seçimler	-10.4377
▁aydın	-10.4378
▁geçiriyor	-10.4378
▁hayatım	-10.4381
▁alışveriş	-10.4385
▁kabile	-10.4385
▁rüya	-10.4385
▁harcıyor	-10.4385
▁sil	-10.4385
▁usta	-10.4391
▁Veri	-10.4392
▁Sonuçta	-10.4397
▁çalışıyordu	-10.4406
araya	-10.441
▁ucunda	-10.4422
▁yakalama	-10.4423
▁kutup	-10.443
▁Hepiniz	-10.4433
▁temelde	-10.4435
raq	-10.4451
▁durumlarda	-10.4452
▁süren	-10.4452
▁güvenliği	-10.4456
▁yerin	-10.4457
▁mucize	-10.446
▁kamyon	-10.446
▁sorgu	-10.446
▁ihtimal	-10.4461
hur	-10.4462
▁şaka	-10.4462
▁unutma	-10.4478
tigi	-10.448
▁ediyorsunuz	-10.4484
▁arta	-10.4485
▁ettiğiniz	-10.4494
▁maaş	-10.4495
rayı	-10.4497
▁çıx	-10.4497
▁duruma	-10.4499
▁binalar	-10.4504
▁küçül	-10.4505
▁enerjisi	-10.4506
▁teknolojik	-10.4511
▁Merkezi	-10.4518
▁ardı	-10.4519
ırdım	-10.452
▁ağaçlar	-10.4522
▁kalmak	-10.4529
▁bilinçli	-10.4531
▁ölüyor	-10.4534
▁malzemeler	-10.4536
▁dayanıklı	-10.4537
▁Günümüzde	-10.4537
▁edelim	-10.4537
▁topluluğu	-10.4539
▁denklem	-10.4539
▁Kişi	-10.4542
lərə	-10.4544
▁kullanılma	-10.4545
▁şeylerle	-10.4547
▁yapalım	-10.4547
▁isterse	-10.4558
▁hiçbiri	-10.4559
▁gelmesi	-10.456
▁kral	-10.4562
▁geçmek	-10.4566
▁üste	-10.4574
əcəyi	-10.4575
▁ayağı	-10.4576
▁Baba	-10.4578
▁çabuk	-10.4579
baba	-10.458
▁mesajı	-10.4589
▁bölgesinde	-10.4595
▁çay	-10.4596
▁sahipti	-10.4597
▁görmez	-10.4599
▁derdi	-10.4601
▁Oh	-10.4605
▁zorluklar	-10.4607
▁Mer	-10.4613
▁Richard	-10.4614
▁enfeksiyon	-10.4614
▁koydu	-10.4619
▁mekanik	-10.462
▁Ed	-10.4628
▁çekildi	-10.4633
▁çalışarak	-10.4636
▁daim	-10.4637
▁Yaşa	-10.4642
mışlardı	-10.4649
▁çoktan	-10.4655
▁şirketleri	-10.4674
▁beyniniz	-10.4679
▁aptal	-10.4681
▁kısmında	-10.4683
▁Fark	-10.4687
▁22	-10.4689
ttığı	-10.4689
▁masraf	-10.4691
▁Hangi	-10.4691
▁oynuyor	-10.4691
▁gölge	-10.4693
▁adapt	-10.4693
▁Sistem	-10.4693
▁Anders	-10.4694
▁yuvarla	-10.4698
▁büyüklüğünde	-10.4701
▁ticaret	-10.4701
▁verebilir	-10.4703
▁dün	-10.4706
▁elle	-10.4706
leşir	-10.4716
luğ	-10.4718
▁mikrop	-10.4723
▁yaratıklar	-10.4725
▁istemez	-10.4727
▁bacak	-10.4728
▁fikirlerin	-10.4732
▁diğerine	-10.4739
▁anlayışı	-10.4742
dığımı	-10.4748
▁düşünen	-10.4751
▁koşu	-10.4756
▁MIT	-10.4769
▁dükkan	-10.4769
▁prototip	-10.4769
▁gövde	-10.4769
manyetik	-10.477
▁düşüyor	-10.4775
▁değiştiriyor	-10.4778
▁aydınlat	-10.4778
▁direkt	-10.4781
▁getiril	-10.4784
▁kırsal	-10.4784
▁kafe	-10.4784
▁yetersiz	-10.4788
▁Roma	-10.4791
▁sürüyor	-10.4797
▁katkıda	-10.4805
▁Var	-10.4807
▁özellik	-10.4818
▁kültürü	-10.4819
▁döndüm	-10.4822
▁hiss	-10.4823
▁etmeniz	-10.4824
▁balıkları	-10.4825
▁çalışmayı	-10.4825
▁Bra	-10.483
umuzu	-10.483
▁İlki	-10.4835
▁fırlat	-10.4845
▁favori	-10.4848
▁kütüphane	-10.4848
▁pozitif	-10.4848
▁şeffaf	-10.4848
▁bedava	-10.4848
▁puan	-10.4848
▁nöro	-10.4848
▁sensör	-10.4848
▁macera	-10.4848
▁ağaçları	-10.4848
▁biten	-10.485
▁tanıştım	-10.485
▁birbirleriyle	-10.4851
▁TV	-10.4852
▁oluşur	-10.4856
▁konuşur	-10.4858
▁Yoks	-10.486
▁Wal	-10.4862
▁kalanı	-10.4862
▁kirli	-10.4865
▁gösterdiği	-10.4867
▁anlattığı	-10.4868
▁şurada	-10.4871
▁sonuçta	-10.4872
▁sanayi	-10.4876
▁kendimiz	-10.4882
▁haz	-10.4883
▁sera	-10.4884
▁geçtiği	-10.4888
kalı	-10.4893
▁hücresi	-10.4894
▁Kendimi	-10.4901
▁Japon	-10.4904
▁potansiyeli	-10.4905
▁uyarı	-10.4911
▁hı	-10.4919
▁özellikler	-10.4924
▁yapımı	-10.4925
▁Washington	-10.4927
▁Yüksek	-10.4927
▁Fransa	-10.4927
▁Doktor	-10.4927
▁mutlak	-10.4927
▁sigara	-10.4927
▁kullanabilir	-10.4929
▁sorusu	-10.4936
▁edilir	-10.4936
▁tipik	-10.4944
▁eşsiz	-10.4945
iğe	-10.4946
▁algılama	-10.4948
ligi	-10.4954
▁kalıp	-10.4954
▁bekley	-10.4955
▁aday	-10.4959
▁yürüdü	-10.4974
▁sizden	-10.4974
▁yıka	-10.4974
▁doktora	-10.4981
▁şekilleri	-10.4981
▁bırakmak	-10.4992
▁gezi	-10.4992
▁konuşacağım	-10.4992
▁işini	-10.4993
rey	-10.4999
▁yaratır	-10.4999
▁Çocukları	-10.5005
▁dehşet	-10.5007
▁restoran	-10.5007
▁senaryo	-10.5007
▁cadde	-10.5007
▁düğme	-10.5007
▁yunus	-10.5008
▁başardı	-10.5011
▁kilise	-10.5012
▁2008	-10.5013
▁ruhu	-10.5013
▁ekoloji	-10.5013
▁bilərsiniz	-10.5017
▁beynimiz	-10.5019
▁bahsediyorum	-10.502
▁anında	-10.502
öz	-10.502
▁yaban	-10.5021
▁varlıklar	-10.5021
▁kahkahalar	-10.5022
▁tatil	-10.5023
▁oynat	-10.5025
lıktan	-10.5029
▁dolan	-10.5029
▁edeceğim	-10.5036
▁ayna	-10.5037
▁bildir	-10.504
▁1000	-10.5042
▁odaklanma	-10.5046
▁Park	-10.5048
▁yaşamış	-10.5061
▁olasılığı	-10.5062
▁faydalan	-10.5068
▁hu	-10.5069
▁kültürün	-10.5071
▁yeteri	-10.5075
▁diyordu	-10.5078
▁iyidir	-10.5081
▁satıl	-10.5084
▁sorduk	-10.5085
▁Harvard	-10.5088
▁fırtına	-10.5088
▁kömür	-10.5088
▁yapıştır	-10.5088
▁qarşı	-10.5088
▁doğduğu	-10.509
laşmış	-10.5092
▁bilmiyordum	-10.5095
▁konuşan	-10.5097
ğımız	-10.5103
▁bat	-10.5106
▁bırakıyor	-10.511
▁elimde	-10.5111
▁zorundasınız	-10.5112
▁doktorlar	-10.5115
▁yapısı	-10.5119
▁bulabil	-10.512
▁türün	-10.5121
▁izledi	-10.5121
▁Sonrasında	-10.5122
▁belirleme	-10.5126
▁yakalan	-10.5128
▁yazdığı	-10.513
▁resimde	-10.5132
▁gezin	-10.5132
▁geçmişi	-10.5134
▁riski	-10.5137
▁değişiyor	-10.5139
▁topu	-10.5143
▁kısaca	-10.5146
▁Bağ	-10.5161
▁bölgesi	-10.5163
▁İlginç	-10.5169
▁emekli	-10.5171
▁Gar	-10.5171
▁birbirimize	-10.5171
▁yararlı	-10.5173
▁duyarlı	-10.5174
▁çekim	-10.518
▁üretken	-10.5185
▁planı	-10.5193
▁Dur	-10.5196
▁iyisini	-10.5196
sızlık	-10.5202
▁oluyordu	-10.5202
▁çevirme	-10.5204
▁benimse	-10.521
▁Biliyoru	-10.5211
▁tamir	-10.5214
▁kendim	-10.5217
▁yazıyor	-10.5217
▁Bizi	-10.5224
▁aklınız	-10.5228
üsü	-10.5231
▁bakacak	-10.5233
▁oluşturduğu	-10.5241
▁yardımı	-10.5241
▁olabiliriz	-10.5246
▁bulduğum	-10.5248
▁Öğren	-10.5249
▁biridir	-10.525
▁savaşı	-10.5251
▁deneyler	-10.5251
▁Angeles	-10.5251
▁Hikaye	-10.5251
▁Değiş	-10.5251
▁refah	-10.5251
▁Tarih	-10.5252
▁sahil	-10.5252
▁terörist	-10.5252
▁etmenin	-10.5253
▁görürüz	-10.5253
▁izleyici	-10.5255
▁bahsetme	-10.5258
▁büyüyen	-10.526
▁halkı	-10.5271
▁bölgelerde	-10.5273
▁devrimi	-10.5275
▁Tom	-10.5278
▁yararlan	-10.5281
▁foto	-10.5293
▁miyim	-10.5296
▁hazırladı	-10.5308
▁özgürlüğü	-10.531
▁sisteminin	-10.5318
▁sesler	-10.5319
matik	-10.532
▁pil	-10.5321
▁gittiğini	-10.5321
▁kalır	-10.5323
gre	-10.5328
▁ayağa	-10.5334
▁Amazon	-10.5335
▁amma	-10.5336
▁unsur	-10.5336
dığımızı	-10.5339
▁normalde	-10.5339
▁Kom	-10.5341
▁ekledi	-10.5342
▁matematiksel	-10.5344
eceğimizi	-10.5347
▁oyunları	-10.5348
▁yüzeyi	-10.5353
▁gösterdiğim	-10.5354
▁korunma	-10.5358
▁inşaat	-10.5358
▁Temel	-10.536
▁demir	-10.5363
▁çıkmak	-10.5371
▁kimlik	-10.5371
▁oğlu	-10.5375
▁sual	-10.5379
▁açar	-10.538
▁veriyorlar	-10.5384
▁istiyordum	-10.5385
▁değerleri	-10.5392
▁pis	-10.5398
▁yakalay	-10.5401
▁fotoğraflar	-10.5406
▁hizmetleri	-10.5414
▁girdiği	-10.5415
▁Apple	-10.5417
▁Seyirci	-10.5417
▁akciğer	-10.5417
▁fərq	-10.5417
▁pratik	-10.5417
▁Normal	-10.5417
▁umudu	-10.542
▁üretici	-10.5422
▁99	-10.5422
▁27	-10.5428
▁geçirmek	-10.5433
▁gideceği	-10.5436
▁Birisi	-10.5439
▁kadınlara	-10.5441
leşiyor	-10.5442
▁yapın	-10.5442
▁etkiler	-10.5446
abilecekleri	-10.5449
▁Amerikalılar	-10.5449
▁baktık	-10.545
▁üreten	-10.5453
▁milli	-10.5456
▁kurduk	-10.5457
▁şə	-10.5459
▁herkesi	-10.5464
▁aletler	-10.5465
▁Hayal	-10.547
için	-10.5476
▁teorisi	-10.5479
▁bulabilir	-10.548
▁kavramı	-10.5481
▁güçlendir	-10.5484
▁duyduğum	-10.5487
▁çünk	-10.549
▁görüntüler	-10.549
▁şeklini	-10.5493
▁23	-10.5495
▁gitmeye	-10.5497
▁tüy	-10.5497
▁savaşın	-10.5499
▁Merhaba	-10.5501
▁akademi	-10.5501
▁toprağı	-10.5501
▁Wo	-10.5503
▁ölen	-10.5504
▁düşünürseniz	-10.5505
▁lif	-10.5509
▁yaprak	-10.5509
mıştık	-10.5509
▁dua	-10.5519
▁tarihte	-10.5528
▁Tanrım	-10.5534
▁ölümün	-10.5536
▁sağladığı	-10.554
▁oyunun	-10.5542
▁harcadı	-10.5563
▁virüsü	-10.5565
▁hapse	-10.5567
▁çiftlik	-10.5568
▁Mac	-10.5568
▁üstü	-10.557
▁açığ	-10.558
▁liderler	-10.558
▁korkuyor	-10.558
▁kaldım	-10.5585
▁egzersiz	-10.5586
▁empati	-10.5586
▁hekayə	-10.5586
▁mahkeme	-10.5586
▁ötürü	-10.5586
▁havuz	-10.5586
▁görülüyor	-10.5587
▁millet	-10.5588
▁ajan	-10.5589
▁yoksulluk	-10.5589
▁kullanılabilir	-10.5597
▁saniyede	-10.5598
▁içe	-10.56
▁bilmediği	-10.5601
▁kalıcı	-10.5606
▁oturdu	-10.5608
lanmıştı	-10.5617
▁görüntüsü	-10.562
▁yaşındaydı	-10.5621
▁gizem	-10.5622
▁içeriyor	-10.5625
▁kesil	-10.563
▁güzellik	-10.5631
▁Büyü	-10.5632
▁Mal	-10.5634
▁toplumda	-10.5638
unuzu	-10.5638
▁resimleri	-10.5639
▁Tak	-10.5657
▁katılım	-10.5658
lərində	-10.5659
▁öğrencisi	-10.566
▁hücrelerin	-10.5662
▁annesi	-10.5664
▁dördüncü	-10.5671
▁Çevre	-10.5671
▁elbise	-10.5671
▁mağaza	-10.5671
▁seçeneği	-10.5671
▁teslim	-10.5671
▁Dört	-10.5672
▁Web	-10.5672
▁İz	-10.5673
▁196	-10.5674
▁yazılmış	-10.5676
▁etkileyen	-10.5677
▁buyuk	-10.5679
▁uzaktan	-10.5681
▁tutan	-10.5682
▁İndi	-10.5683
▁anket	-10.5683
▁bant	-10.5685
▁yapmalıyız	-10.5685
görebiliyorsunuz	-10.5691
▁yetiştirme	-10.5693
▁gelişen	-10.5695
▁günümüz	-10.5698
▁kova	-10.5699
▁Sha	-10.57
▁Deney	-10.5705
▁yarıyor	-10.5707
▁öncelikle	-10.5709
▁ekleme	-10.5712
▁tamamıyl	-10.5713
▁genleri	-10.5715
▁oturan	-10.5716
▁forma	-10.5718
▁vermiş	-10.572
▁ilgilenme	-10.5723
▁Kadınlar	-10.5725
▁kazanma	-10.5726
▁düzeltme	-10.5738
▁kalacak	-10.5743
▁danış	-10.5745
lerimden	-10.5753
▁Charles	-10.5758
▁Hareket	-10.5758
▁2010	-10.5758
▁Tahmin	-10.5758
▁Obama	-10.5758
▁büyüleyici	-10.5763
▁başlayacak	-10.5767
▁çarpıcı	-10.5768
▁bö	-10.5772
▁Şey	-10.5775
▁yıldızlar	-10.5788
▁edemez	-10.5788
ydü	-10.5789
▁nüfusun	-10.579
▁İnsanları	-10.5795
▁karşılıklı	-10.5795
▁sıcaklık	-10.5799
▁öneri	-10.5801
▁gezegenler	-10.5801
▁değilse	-10.5803
▁hile	-10.5804
▁yaparlar	-10.5804
▁tüp	-10.5806
▁mənə	-10.5807
mıyordu	-10.581
▁vücudunuz	-10.581
▁bakmaya	-10.5815
▁kaz	-10.5816
▁İste	-10.5817
▁yapabilmek	-10.5823
▁üretiyor	-10.5826
ebiliyoruz	-10.5835
▁parçasını	-10.5836
▁kimliği	-10.5841
▁damla	-10.5842
▁olağan	-10.5844
▁klasik	-10.5845
▁limit	-10.5845
▁Film	-10.5848
rerek	-10.5853
▁azalma	-10.5855
▁Yarı	-10.5856
▁gelenek	-10.5856
▁sisteme	-10.5858
▁CO	-10.5859
by	-10.5871
▁elə	-10.5871
▁duyduğumuz	-10.5874
▁yapmaz	-10.5876
▁görebilir	-10.5877
▁anti	-10.5883
▁gömül	-10.5884
bay	-10.5899
▁görünme	-10.5899
▁gitmiş	-10.5901
▁hastaların	-10.591
▁doktoru	-10.5912
▁iniş	-10.5917
▁haritası	-10.592
▁katlan	-10.5923
▁dersi	-10.5923
▁yapacağını	-10.5925
▁har	-10.5926
▁iPhone	-10.5932
▁teleskop	-10.5932
▁titre	-10.5932
▁pilot	-10.5934
▁oranları	-10.5935
▁boşluğu	-10.5937
▁fizikçi	-10.5938
▁tarafa	-10.5938
▁problemin	-10.5942
▁düşünüyorsunuz	-10.5942
▁yukarıda	-10.5946
▁yaşımda	-10.5955
▁işlerini	-10.5958
▁açan	-10.5961
▁hepsinin	-10.5964
▁olursunuz	-10.5971
▁yapamaz	-10.5978
▁sunu	-10.5982
▁gönderdi	-10.599
ğına	-10.5998
▁hey	-10.5999
▁öğreniyor	-10.6
muzu	-10.6002
▁koyun	-10.6003
▁kent	-10.6003
abileceğim	-10.601
▁Dev	-10.6014
▁bulmuş	-10.6017
▁pazarlama	-10.6019
▁gücün	-10.602
▁Internet	-10.6021
▁futbol	-10.6021
▁kaçınılmaz	-10.6021
▁olabiliyor	-10.6021
▁tavan	-10.6022
▁gördünüz	-10.6023
▁çeşitlilik	-10.6025
▁bulgu	-10.6028
▁katıldı	-10.6029
▁kurgu	-10.6029
▁seferinde	-10.6032
acaba	-10.6033
▁yapısını	-10.6043
▁duyur	-10.6045
▁okur	-10.6045
▁ço	-10.6045
landırıl	-10.6047
ğr	-10.6048
▁gelişti	-10.6051
çü	-10.6063
▁geleceğin	-10.6072
inize	-10.6075
▁alınan	-10.6077
▁onar	-10.6077
▁istediğini	-10.6079
▁özgün	-10.6088
lediğimiz	-10.609
▁tanıyor	-10.6094
▁Kaç	-10.6101
▁boğ	-10.611
▁Cevap	-10.611
▁siyaset	-10.611
▁tekerlek	-10.611
▁market	-10.611
▁hidrojen	-10.611
▁gülüşmeler	-10.6111
▁tarla	-10.6112
▁kiçik	-10.6112
▁yapılacak	-10.6113
▁194	-10.6114
▁1990	-10.6114
J	-10.6115
▁kozm	-10.6117
▁Lak	-10.6117
▁geliştiril	-10.6122
▁üyesi	-10.6125
▁Sırada	-10.6125
▁BM	-10.6131
▁sorduğu	-10.6132
leştiği	-10.6141
▁Rusya	-10.6143
ünüzü	-10.6143
▁farketti	-10.6144
▁orda	-10.6144
▁Burda	-10.6145
▁renkler	-10.6153
▁çarpı	-10.6154
amadığı	-10.6158
▁Av	-10.6162
▁görülme	-10.6181
▁şimdiki	-10.6188
▁tanıdık	-10.6189
▁görüntüleri	-10.6193
▁sınıfta	-10.6194
▁direnç	-10.62
▁şahit	-10.62
▁yirmi	-10.62
▁ayrıntı	-10.62
▁terapi	-10.6201
▁otizm	-10.6202
▁Ardında	-10.6202
▁vs	-10.6203
▁1980	-10.6203
emezsiniz	-10.6205
▁fotoğrafları	-10.6206
▁istiyorsunuz	-10.621
▁adil	-10.6212
▁politikacılar	-10.6213
▁insanlığın	-10.6215
sün	-10.6216
▁giderken	-10.6224
▁nerde	-10.6228
▁Es	-10.623
▁bildiğim	-10.6231
▁olunca	-10.6234
▁bulunmakta	-10.6234
diğine	-10.6238
▁Bayan	-10.6241
▁tekne	-10.6246
▁eti	-10.6246
▁yapmakta	-10.6248
▁mıydı	-10.625
ğınız	-10.6262
▁hatırlay	-10.6267
▁bebekler	-10.6273
liyiz	-10.6282
▁atmosferi	-10.629
▁imkân	-10.6291
▁kompleks	-10.6291
▁akraba	-10.6291
▁uşaq	-10.6291
▁heves	-10.6292
▁Görü	-10.6292
▁tatmin	-10.6292
▁modeller	-10.6293
▁1960	-10.6293
▁Böylelikle	-10.6294
▁Açıkça	-10.6294
ladığını	-10.6295
ylə	-10.6295
▁vadede	-10.6296
▁ücretsiz	-10.6297
▁kendisinin	-10.6299
▁Paris	-10.6299
▁elektron	-10.6304
ılıp	-10.6312
▁Tə	-10.6318
▁aldılar	-10.6322
▁Senin	-10.6327
▁keşfetmek	-10.6334
▁kutusu	-10.6335
▁Bas	-10.6337
▁kitab	-10.634
▁konuştuk	-10.6344
▁haftada	-10.6346
▁ilkel	-10.6359
▁otel	-10.6373
▁inek	-10.6375
▁hastalıkları	-10.6382
▁merdiven	-10.6383
▁penguen	-10.6383
▁kalabalık	-10.6383
▁redded	-10.6383
▁göğüs	-10.6383
▁keyif	-10.6383
▁entegr	-10.6383
▁tutuk	-10.6383
▁nitelik	-10.6384
▁büyükanne	-10.6384
▁kızın	-10.6384
▁2009	-10.6388
▁balıkçı	-10.639
▁solu	-10.6394
▁kendisine	-10.6395
▁bulunur	-10.6395
▁sistemine	-10.6399
▁etkisini	-10.6402
▁kelimesini	-10.6406
▁devamlı	-10.6409
ettiği	-10.641
▁söyleyecek	-10.642
sünüz	-10.642
▁temas	-10.6422
▁tasarımcılar	-10.6428
▁inceley	-10.6441
▁tanımlay	-10.6442
▁yayım	-10.6442
emem	-10.6447
▁uzmanı	-10.6449
▁Pan	-10.6453
▁çocukken	-10.6458
▁sorumluluğu	-10.6465
▁üretti	-10.6468
▁yönetimi	-10.6469
▁dokunma	-10.6473
▁sahnede	-10.6474
▁Kötü	-10.6475
▁garanti	-10.6475
▁öyrən	-10.6475
▁ispat	-10.6475
▁neçə	-10.6476
▁Mutlu	-10.6476
▁metafor	-10.6476
▁Çalışma	-10.6477
▁yaxın	-10.6478
ceği	-10.648
▁çim	-10.6481
▁düşünelim	-10.6482
▁atar	-10.6482
▁uzağ	-10.6485
▁istekli	-10.6487
▁modelleri	-10.649
▁başlamıştı	-10.6493
▁taşıyan	-10.6503
▁çiftçiler	-10.6508
▁dersiniz	-10.6521
▁yetenekleri	-10.6528
▁geçtiğimiz	-10.653
▁bitirmek	-10.6545
mediği	-10.6552
▁yürüyor	-10.6553
▁kuruyor	-10.6555
▁düşündüğü	-10.6556
▁kaynaklı	-10.6569
▁muhafaza	-10.6569
▁Pakistan	-10.6569
▁gülümse	-10.6569
▁hemşire	-10.6569
▁sivrisinek	-10.6569
▁otorite	-10.6569
▁lamba	-10.6569
▁olumsuz	-10.657
▁nü	-10.657
▁etkiledi	-10.6573
▁kızım	-10.6573
▁ötesin	-10.6578
▁geçici	-10.6583
▁abart	-10.6585
▁alıyorlar	-10.6592
▁teknolojiye	-10.6593
▁yazarı	-10.6599
▁danışman	-10.6601
▁yoğunlaş	-10.6602
▁sürecin	-10.6603
▁yapabilme	-10.6603
▁aklımız	-10.6609
▁durdurma	-10.6613
▁durur	-10.6616
mişlerdi	-10.6619
ılmıştı	-10.6622
▁liderleri	-10.6626
▁Can	-10.6631
lebilir	-10.6634
oksi	-10.6637
tiğim	-10.6642
▁Yıllar	-10.6655
▁rolü	-10.6656
▁zararlı	-10.6657
▁uğraşma	-10.6663
▁koyduğu	-10.6663
ollywood	-10.6663
▁Higg	-10.6663
▁fenomen	-10.6663
▁uzunluğunda	-10.6664
▁Frank	-10.6664
▁koltuk	-10.6664
▁digər	-10.6665
▁gerçekleşen	-10.6667
▁65	-10.6669
▁Nerede	-10.6669
▁panel	-10.667
▁ömrü	-10.6671
▁keşfettik	-10.6672
▁boru	-10.6672
▁sürme	-10.6674
▁görebileceğiniz	-10.6675
▁eksen	-10.6676
▁doğrusu	-10.6677
lenebilir	-10.6679
▁diyecek	-10.6689
▁geleceğ	-10.6696
▁yoldan	-10.6701
▁toplumu	-10.6709
▁posta	-10.6715
▁iyileştirme	-10.6715
▁döndüğü	-10.6718
▁deyə	-10.6721
▁yüzünü	-10.6731
▁üye	-10.6738
▁bacakları	-10.675
ıvı	-10.6751
▁döneminde	-10.6751
▁çıkacak	-10.6752
▁programları	-10.6754
▁kazanmak	-10.6758
▁Gezegen	-10.6758
▁Michael	-10.6758
▁tecavüz	-10.6758
▁Beyaz	-10.6759
ight	-10.676
▁birbirlerini	-10.6762
▁çalışmanın	-10.6763
▁Zor	-10.6766
▁dinlemek	-10.6766
lenir	-10.6772
▁dokusu	-10.6773
▁ilişkileri	-10.6776
▁tanesini	-10.6777
▁amacıyla	-10.678
▁Devlet	-10.678
▁açıyor	-10.6782
▁3.	-10.679
▁etmez	-10.679
riyi	-10.6796
▁yerleştirdi	-10.6798
▁çap	-10.6798
▁duyguları	-10.6801
▁derler	-10.6807
▁kaldığı	-10.6809
▁Arka	-10.6814
▁Ste	-10.6815
▁kılan	-10.6816
▁Tur	-10.682
▁projenin	-10.6832
▁elma	-10.6839
▁felsefe	-10.6855
▁karbondioksit	-10.6855
▁tesadüf	-10.6855
▁sigorta	-10.6855
▁ölümcül	-10.6855
▁medeniyet	-10.6855
▁huzur	-10.6855
▁istiyordu	-10.6855
▁Birinci	-10.6857
▁söylemeye	-10.6859
dəki	-10.686
▁koyduk	-10.6864
▁yazıcı	-10.6864
▁sonun	-10.6865
▁evlilik	-10.6866
▁gidebilir	-10.6866
▁yurt	-10.6867
▁öngör	-10.6867
▁sars	-10.6868
▁direk	-10.6869
▁Titan	-10.687
▁uyumlu	-10.6871
▁Mary	-10.6874
▁büyüklüğü	-10.6876
▁Sır	-10.6877
sızın	-10.6879
▁artışı	-10.6879
▁çip	-10.688
▁ulaştır	-10.6886
▁ölçme	-10.6891
▁yönü	-10.6897
▁uydur	-10.69
▁temin	-10.6913
▁yoğunluğu	-10.6925
▁duymak	-10.6928
▁nüfusu	-10.6934
▁Devletleri	-10.6942
▁hayatımda	-10.6943
mağa	-10.6947
▁Francisco	-10.6952
▁Thomas	-10.6952
▁protesto	-10.6952
▁çocuğa	-10.6952
▁Hayvan	-10.6952
▁keşfi	-10.6952
▁ilerliyor	-10.6953
▁tavuk	-10.6953
▁animasyon	-10.6953
▁belirgin	-10.6954
▁memur	-10.6959
▁raf	-10.6967
▁Dış	-10.6972
▁tez	-10.6978
▁ağırlık	-10.6981
▁çizme	-10.6986
▁yaratıcılık	-10.6986
▁nota	-10.6986
▁küçü	-10.6986
amam	-10.6988
lanacak	-10.699
RI	-10.6993
▁Esas	-10.6999
▁başlayabilir	-10.7002
▁kapasitesi	-10.7005
▁olmalıdır	-10.701
▁öncü	-10.7011
▁hatırlama	-10.7013
▁nüfusunu	-10.7018
▁ürettiği	-10.702
▁çalışıyordum	-10.7029
lüğ	-10.703
▁getirdik	-10.7036
▁travma	-10.705
▁korteks	-10.705
▁kablosuz	-10.7052
▁2007	-10.7055
▁hayvanları	-10.7057
▁göründüğü	-10.7058
▁Latin	-10.7059
▁verdiğim	-10.7069
▁olmalıyız	-10.7071
lus	-10.7072
▁öğrenir	-10.7076
▁Che	-10.7079
▁ayırma	-10.708
▁geldiğimiz	-10.7082
▁sayısını	-10.7083
▁geçirdi	-10.7083
ilecek	-10.7085
▁yaşlarında	-10.7094
▁evlen	-10.7095
▁sav	-10.7095
▁geçirdiği	-10.7098
sha	-10.7103
▁anlatmaya	-10.7106
▁düşer	-10.7114
▁değin	-10.7118
▁davranışı	-10.7122
▁For	-10.7124
▁üyeleri	-10.7124
▁bekler	-10.7127
zaman	-10.7128
omi	-10.7128
▁Yapma	-10.7147
▁matematiğ	-10.7149
▁rehber	-10.7149
▁stüdyo	-10.7149
▁koleksiyon	-10.7149
▁Dikkat	-10.7149
▁Herşey	-10.715
▁Robot	-10.7152
▁dönemi	-10.7152
▁eleman	-10.7152
▁umuyorum	-10.7155
▁iyileşme	-10.7157
▁ekonomisi	-10.7158
▁gelmiyor	-10.7159
emediği	-10.716
▁Korku	-10.7161
▁eşim	-10.7168
▁yaklaşımı	-10.717
▁hazırlama	-10.7176
▁seviyesinde	-10.7189
▁yaşadığım	-10.7191
▁nesneler	-10.7191
▁aradı	-10.7194
▁atmak	-10.7196
▁onlarca	-10.7199
lərlə	-10.7204
▁şekillerde	-10.7204
▁Gece	-10.7217
▁izlemek	-10.7218
lamıyor	-10.7224
▁kullanmayı	-10.7226
▁muhtemel	-10.7236
▁evim	-10.7237
▁ekonomist	-10.724
▁saldır	-10.7244
▁sevin	-10.7245
▁dâhil	-10.7249
▁röportaj	-10.7249
▁tiyatro	-10.7249
▁sıçra	-10.7249
▁Kanser	-10.7249
▁psiko	-10.725
▁desteği	-10.7252
lduğunu	-10.7255
▁konuşurken	-10.7256
▁istiyorsak	-10.7258
▁Kuru	-10.7258
▁düşünmemiz	-10.726
▁yönünde	-10.7262
MA	-10.7263
gər	-10.7264
ebilmesi	-10.7265
▁düşünerek	-10.7267
▁Kafa	-10.7269
▁etmesini	-10.7269
▁hayatımızı	-10.7279
▁olacağım	-10.728
▁yaşlanma	-10.7282
▁değişen	-10.7289
▁olmazdı	-10.7293
▁sınıfı	-10.7297
▁oldugu	-10.7298
luğunu	-10.7302
▁terör	-10.7305
▁kodu	-10.7318
▁sokakta	-10.7318
abilmesi	-10.7321
▁Sch	-10.7322
▁mutluluğu	-10.7325
stil	-10.7331
▁öğrencilerin	-10.7339
▁ellerinde	-10.7347
▁perspektif	-10.735
▁bağışıklık	-10.735
▁pompa	-10.735
▁roket	-10.735
▁felci	-10.735
▁canavar	-10.735
▁Karşı	-10.7352
▁olmalıydı	-10.7352
▁poster	-10.7353
▁vurgu	-10.7353
▁çelişki	-10.7354
▁yükle	-10.7356
▁görünüm	-10.7359
▁etmişti	-10.7363
▁gelmez	-10.7365
▁oturur	-10.7366
▁okyanusun	-10.7367
▁pul	-10.737
▁bırakır	-10.7371
▁600	-10.7373
▁ilerledi	-10.7373
▁edilemez	-10.7376
▁düşünceleri	-10.7377
▁ilgileniyor	-10.7382
▁arayı	-10.7388
▁topluluklar	-10.7394
ıldığını	-10.7411
▁değiştirecek	-10.7415
▁odadaki	-10.7417
▁çoğumuz	-10.7422
▁yapacağımız	-10.7428
▁karşılaştığı	-10.7432
▁antik	-10.7436
alesef	-10.7451
▁Hükümet	-10.7452
▁efsane	-10.7452
▁çamaşır	-10.7452
▁çirkin	-10.7452
▁nasil	-10.7452
▁söylemeliyim	-10.7454
▁Ölüm	-10.7454
berg	-10.7459
▁içme	-10.746
▁görüntüleme	-10.7461
▁noktasında	-10.7468
▁yaratıcılığı	-10.747
▁Wa	-10.7471
▁yarattık	-10.7472
▁bekleyen	-10.7474
▁denir	-10.7475
▁kurulu	-10.7476
▁topluluğun	-10.7478
▁yarısını	-10.748
▁şirketin	-10.7486
▁kazanan	-10.7489
▁okumak	-10.7492
▁edebileceğiniz	-10.7501
▁çeviri	-10.7506
▁bez	-10.7507
▁gerçekleşti	-10.7507
▁ilerleye	-10.7512
▁sonuc	-10.7518
▁meta	-10.7519
▁bölgeleri	-10.7522
▁Seni	-10.7527
▁detaylı	-10.7527
▁farketme	-10.7528
eceğine	-10.7536
▁Yaptığı	-10.7538
▁söyleyeceğim	-10.7538
▁tanışma	-10.7545
▁paylaştı	-10.755
▁elini	-10.7555
▁Enstitüsü	-10.7555
▁global	-10.7555
▁Çox	-10.7555
▁bayağı	-10.7555
▁dunya	-10.7555
▁gücümüz	-10.7555
▁Ödül	-10.7556
▁zorunlu	-10.7556
▁aktör	-10.7564
▁yaparız	-10.7568
▁ettirme	-10.7572
▁grip	-10.7574
▁inanıyoruz	-10.7577
▁yollarını	-10.7577
ette	-10.7587
▁Düş	-10.7596
▁okudum	-10.7601
▁ışın	-10.7601
▁Col	-10.7602
▁kesme	-10.7609
▁bahsettiği	-10.7622
▁yarasa	-10.7622
▁Dağ	-10.7624
▁işlemi	-10.7631
▁aralarında	-10.7647
▁söylemişti	-10.7648
▁öğrenmeye	-10.7649
▁tamamını	-10.7656
▁meslektaşları	-10.7659
▁müzisyen	-10.7659
▁kavga	-10.7659
▁Lütf	-10.7659
▁Süper	-10.7659
▁görmüyor	-10.7659
▁parmağı	-10.7661
▁yatağı	-10.7663
▁Mus	-10.7664
▁kayda	-10.7664
▁yıldızı	-10.7666
▁durup	-10.7668
▁Söz	-10.7668
▁toplumumuz	-10.7668
▁edersek	-10.7673
▁tasarladı	-10.7673
▁Martin	-10.7675
▁kış	-10.7676
▁ağın	-10.7681
▁tüketimi	-10.7681
▁Nor	-10.7683
▁pay	-10.7697
▁por	-10.7704
▁eğitme	-10.7716
▁MR	-10.7719
▁Tanı	-10.772
▁veriyorum	-10.772
▁bilgisayarın	-10.7721
▁Kor	-10.7721
▁bölgeler	-10.773
▁atış	-10.7736
laşıyor	-10.7737
▁kullanabileceği	-10.7751
▁dışındaki	-10.7756
▁sağlayabil	-10.776
▁erişimi	-10.7762
▁Fotoğraf	-10.7764
▁frekans	-10.7764
▁protez	-10.7764
▁felç	-10.7764
▁köpeği	-10.7764
▁pembe	-10.7764
▁ancaq	-10.7765
▁filtre	-10.7765
▁kaydetti	-10.7765
▁eyni	-10.7766
▁mühendisliği	-10.7768
▁dönelim	-10.7769
▁gittiğimde	-10.777
▁gerçekleşiyor	-10.7771
▁vereyim	-10.7774
▁bahseder	-10.7776
leşik	-10.7777
▁bölümünü	-10.7781
doğu	-10.779
▁kızların	-10.779
▁ülkedeki	-10.7793
▁gücüne	-10.7794
▁heyecanlandır	-10.7796
▁bakıyoruz	-10.7798
▁verildi	-10.7799
liğimiz	-10.7805
▁yaşta	-10.7817
tığınızda	-10.7819
lüğünü	-10.7836
▁kullanacağı	-10.7853
▁kurduğu	-10.7857
▁ayrıldı	-10.7858
▁Fu	-10.7867
▁Alzheimer	-10.7871
▁Önemli	-10.7871
▁şikayet	-10.7871
▁Boston	-10.7871
▁sıkıştır	-10.7871
▁Aşağı	-10.7871
▁hariç	-10.7871
▁kaybetmiş	-10.7871
▁Fikir	-10.7871
▁başardık	-10.7871
▁ümit	-10.7871
▁Dışarı	-10.7871
▁Peter	-10.7872
▁koruyucu	-10.7872
▁kafatası	-10.7872
▁mülk	-10.7875
▁Yazı	-10.7884
▁çelik	-10.7885
▁kaldık	-10.7887
▁ekipman	-10.7889
▁bariz	-10.7892
▁arkasındaki	-10.7906
öl	-10.7912
▁ismini	-10.7914
▁unutu	-10.7915
▁yapabileceğiniz	-10.7919
▁dönen	-10.7923
▁etrafındaki	-10.7924
▁gizemli	-10.7933
▁getirecek	-10.7946
▁19.	-10.7949
▁yapılabil	-10.7955
ışını	-10.7957
▁yiyor	-10.7957
▁Nə	-10.7961
▁şəkil	-10.7961
▁Pazar	-10.7966
▁cins	-10.7969
▁önyargı	-10.7978
▁kılavuz	-10.7978
▁çıplak	-10.7978
▁somut	-10.7978
▁anımsa	-10.7979
▁şarap	-10.7979
▁1970	-10.7981
▁metod	-10.7981
▁biriktir	-10.7982
▁kucak	-10.7983
meyeceğini	-10.7988
▁fotoğrafçı	-10.7991
▁düşünüyordu	-10.7995
▁deyir	-10.7997
▁korkusu	-10.7998
▁yararı	-10.8001
laşdı	-10.8003
▁Mavi	-10.8003
▁oluşumu	-10.8004
▁akışı	-10.8009
▁Gelecek	-10.8011
▁bulunduğumuz	-10.8011
▁cebi	-10.8013
tion	-10.8016
▁savaşta	-10.8018
▁She	-10.8018
▁gəlir	-10.8018
▁evinde	-10.8026
▁olabildiğin	-10.8027
▁gidiyoruz	-10.8028
▁sevdi	-10.8031
▁dalış	-10.8034
▁şiddetli	-10.8034
▁değişimin	-10.804
▁genelinde	-10.8043
▁gerçekçi	-10.8047
▁ildə	-10.8051
▁edebilecek	-10.8057
▁kazı	-10.8059
▁bulundur	-10.8064
meliyim	-10.8064
▁Üniversite	-10.8069
▁kurtulma	-10.8075
▁boşal	-10.8077
▁etkiliyor	-10.8081
▁duvarı	-10.8082
▁formu	-10.8083
▁yumuşak	-10.8087
▁alışkanlık	-10.8087
▁lezzet	-10.8087
▁Suriye	-10.8087
▁kağıdı	-10.8087
▁element	-10.8087
▁pasif	-10.8088
▁keskin	-10.8088
▁əsas	-10.8088
▁neşe	-10.8089
▁göreceğiz	-10.809
▁göl	-10.8093
▁çekilmiş	-10.8099
▁yaparsınız	-10.8104
▁duyuyorum	-10.8106
▁bilmir	-10.8106
▁the	-10.8111
▁şef	-10.8111
▁32	-10.8117
▁umur	-10.8117
▁açlık	-10.8117
▁bölgelerinde	-10.8121
▁Görüyorsun	-10.8122
▁kötüsü	-10.8136
bilirsek	-10.8138
▁anlamamız	-10.8153
▁korkma	-10.8156
▁vo	-10.8162
▁gelmeye	-10.8168
▁varlığını	-10.8175
▁duyduğu	-10.8182
▁harcay	-10.8189
▁geleceğini	-10.8191
▁kabullen	-10.8193
▁Pasifik	-10.8197
▁gübre	-10.8197
▁Yeşil	-10.8197
▁itiraf	-10.8197
▁diyebiliriz	-10.8197
▁ömür	-10.8197
▁Milletler	-10.8197
▁İklim	-10.8197
▁güzelliği	-10.8198
▁Başarı	-10.82
▁gözlü	-10.8202
▁başım	-10.8206
▁mutasyon	-10.8206
▁benzin	-10.8219
▁tara	-10.822
▁aşkın	-10.8231
▁etik	-10.8238
▁dağıtım	-10.8246
▁güncel	-10.8248
keresinde	-10.827
▁şehirlerde	-10.8273
▁Tim	-10.8285
▁etkileme	-10.8286
▁koydum	-10.8287
▁nesneleri	-10.8291
▁yavaşlat	-10.8293
▁koştu	-10.8296
▁istediler	-10.8298
▁kolaylaştır	-10.8303
▁Filistin	-10.8308
▁astronom	-10.8308
▁cazibe	-10.8308
▁sürpriz	-10.8308
▁Kongre	-10.8308
▁ölmüş	-10.8308
▁istisna	-10.8308
▁deprem	-10.8308
▁grafiğ	-10.8308
▁endüstriyel	-10.8308
▁istəyirəm	-10.8309
▁baylar	-10.8309
▁amaçlı	-10.8311
▁sınav	-10.8314
▁ulaşabil	-10.8314
▁kurumları	-10.8315
▁utanç	-10.8316
▁Alan	-10.8318
▁kəs	-10.8322
▁gösterilen	-10.8323
▁görebiliyoruz	-10.8324
▁seçimi	-10.8326
▁çalışmıyor	-10.8326
▁geliştirdik	-10.8326
▁MS	-10.8327
▁250	-10.8329
▁Cas	-10.8329
▁orası	-10.833
▁hâline	-10.8331
▁Yaptığımız	-10.8332
etmek	-10.8335
▁değiştirir	-10.8336
▁hücrelerini	-10.8345
▁görünüyordu	-10.8354
ska	-10.8356
amadım	-10.836
dıkça	-10.836
▁uçağı	-10.8361
metre	-10.8367
▁zincir	-10.8379
▁kuvvetli	-10.838
▁yil	-10.8389
▁değiştirmeye	-10.839
▁oluştu	-10.8396
▁kalmıyor	-10.84
▁dönüştürül	-10.8407
▁izni	-10.8408
▁akış	-10.841
▁Kısa	-10.8413
▁kıy	-10.8413
▁okulun	-10.8417
▁beklenmedik	-10.842
▁konsept	-10.842
▁motivasyon	-10.842
▁orijinal	-10.842
▁örümcek	-10.842
▁Kitap	-10.842
▁kavuş	-10.842
▁biyolog	-10.842
▁fotograf	-10.8421
▁gökada	-10.8421
▁resif	-10.8421
▁olmasından	-10.8421
▁mısır	-10.8422
▁sanmıyorum	-10.8423
▁Siyah	-10.8423
digim	-10.8423
▁soyu	-10.8423
▁öncesinde	-10.8424
dıklarında	-10.8425
▁açıp	-10.8428
▁yerlerinde	-10.8429
▁simge	-10.843
▁eksikliği	-10.8431
▁bulup	-10.8433
▁beyninin	-10.8434
▁kapak	-10.8437
▁almayı	-10.8442
▁istersiniz	-10.845
▁açtığı	-10.8451
▁sevdikleri	-10.8453
▁edeceğiz	-10.8455
sch	-10.8455
▁babamın	-10.8464
erry	-10.8472
▁yapıldığını	-10.8479
▁kullanabil	-10.8485
ling	-10.8487
stro	-10.8504
▁geçirir	-10.8516
▁görebilme	-10.8519
▁Telefon	-10.8534
▁YouTube	-10.8534
▁disiplin	-10.8534
▁meşhur	-10.8534
▁intihar	-10.8534
▁orkestra	-10.8534
▁tarayıcı	-10.8534
▁radyasyon	-10.8534
▁tedarik	-10.8534
▁kullanışlı	-10.8534
▁qoy	-10.8534
denbire	-10.8535
▁gereği	-10.8535
▁alkol	-10.8539
leştirdi	-10.8541
▁Kısaca	-10.8544
▁izleyen	-10.8544
▁Hint	-10.8548
▁oldugunu	-10.8553
▁sadə	-10.8556
landığını	-10.8557
▁çılgınca	-10.8558
▁önemsiz	-10.8561
▁öğrendiğimiz	-10.8564
▁yapılabilir	-10.8564
▁açıkçası	-10.8567
▁giderse	-10.8569
▁işliyor	-10.8569
▁metin	-10.857
▁yapıyorsunuz	-10.8571
▁yerleştirme	-10.8574
▁yazan	-10.8582
▁buradayım	-10.8582
▁yayınladı	-10.8585
▁İster	-10.8587
▁genomu	-10.8588
▁hara	-10.8591
▁başlamış	-10.8593
▁şehirlerin	-10.8596
▁yıkıl	-10.8597
▁zehir	-10.8598
▁değişir	-10.8602
▁Hep	-10.8609
▁başlangıçta	-10.8614
▁çözmeye	-10.862
▁yanındaki	-10.8622
larımla	-10.8623
▁yazılı	-10.8623
▁kusur	-10.8629
▁konularda	-10.8638
▁düşünmüyor	-10.8642
▁boyutta	-10.8648
▁cömert	-10.8649
▁sihirli	-10.8649
▁golf	-10.8649
▁nəzər	-10.8649
▁lazer	-10.865
▁nakli	-10.865
▁samimi	-10.865
▁bilinmeyen	-10.8651
▁Öğrenciler	-10.8652
▁öldürdü	-10.8652
▁aramızda	-10.8652
▁Vadisi	-10.8654
▁sorgulama	-10.8657
▁başladığımda	-10.8662
▁İçinde	-10.8672
▁umuyor	-10.8678
teknoloji	-10.868
▁ulaştığı	-10.868
▁yolculuğ	-10.8687
▁olacağına	-10.8693
▁gösterecek	-10.8698
▁Yara	-10.8699
▁iyileştir	-10.8701
▁olmayabilir	-10.8706
▁çıkarıp	-10.8711
▁alındı	-10.8712
▁yetenekli	-10.8717
▁bacağı	-10.8718
▁konuştuğumuz	-10.872
nizdeki	-10.8722
▁geliştirdi	-10.8723
▁üretebil	-10.8726
▁büyüyor	-10.8731
▁sıcaklığı	-10.8734
▁duyduğunuz	-10.8735
▁oturduğu	-10.8741
▁verilme	-10.8756
▁başarma	-10.8757
▁hatırlıyor	-10.8758
▁haberleri	-10.8761
▁jenerasyon	-10.8765
▁Öğretmen	-10.8765
▁Eminim	-10.8765
▁reform	-10.8765
▁Fizik	-10.8765
▁rejim	-10.8765
▁online	-10.8766
▁korktu	-10.8766
▁aktivist	-10.8766
▁sekil	-10.8767
laştığı	-10.877
▁seyred	-10.877
▁kalitesi	-10.8772
▁matematikçi	-10.8773
▁2005	-10.8773
▁verebil	-10.879
▁çalma	-10.8791
metri	-10.8791
asiya	-10.8792
▁Doğal	-10.8798
▁çekip	-10.8799
▁çocukluk	-10.8803
▁kaybettiği	-10.8806
▁etken	-10.8814
▁katılımcı	-10.8814
▁tanımı	-10.8817
▁hastalıkların	-10.8819
▁İnan	-10.882
▁aldığınız	-10.8821
▁yakaladı	-10.8828
▁Tor	-10.8835
dor	-10.8845
▁özür	-10.8849
▁kalmadı	-10.8854
▁ayrılma	-10.8868
▁kardeşi	-10.8876
▁ətraf	-10.8883
▁Geçtiğimiz	-10.8883
▁sebze	-10.8883
▁mikroskop	-10.8883
▁maddi	-10.8883
▁portre	-10.8883
▁erkeği	-10.8883
▁mikrofon	-10.8883
▁yapıldığı	-10.8884
▁opera	-10.8884
▁içgüdü	-10.8884
▁edirəm	-10.8886
▁ölkə	-10.8886
▁hattı	-10.8892
▁DH	-10.8893
ləşdir	-10.8903
▁Jim	-10.8911
▁kalktı	-10.8916
▁Birlikte	-10.8922
▁cun	-10.8923
▁davranışları	-10.8924
▁kabiliyeti	-10.8949
▁bildikleri	-10.8949
▁yayılan	-10.895
▁altta	-10.8952
ılmasını	-10.8952
bilimci	-10.8953
▁mutsuz	-10.8957
▁işimiz	-10.8963
rtesi	-10.8966
▁maç	-10.8991
▁örtü	-10.8991
▁Çalış	-10.9
▁kromozom	-10.9002
▁yepyeni	-10.9002
▁çözünürlük	-10.9002
▁cennet	-10.9002
▁düşünmüştü	-10.9002
▁vesaire	-10.9002
▁bəzi	-10.9002
▁sevimli	-10.9002
▁kemiği	-10.9002
▁Hedef	-10.9002
▁yangın	-10.9003
▁1950	-10.9005
▁Günü	-10.9005
▁istemedi	-10.9012
▁birbirini	-10.9012
▁dizilim	-10.9013
▁ödülü	-10.9024
▁yaşıyordu	-10.9028
▁alırsınız	-10.9031
▁karşılaşma	-10.9036
▁kazanç	-10.9038
▁Ocak	-10.904
▁sıkışı	-10.9043
▁zehirli	-10.9055
▁alabilirsiniz	-10.9057
▁yanımda	-10.9058
▁çıkması	-10.9058
▁boğul	-10.9062
▁dayanıyor	-10.9066
▁çarpma	-10.9067
▁ebeveynleri	-10.9068
▁kalırsa	-10.9074
▁elinizde	-10.9083
▁oradaydı	-10.9084
▁Asla	-10.9089
▁çağında	-10.9091
▁paylaşım	-10.9093
▁okuyor	-10.9101
▁Uluslararas	-10.9122
▁antibiyotik	-10.9122
▁figür	-10.9122
▁alakası	-10.9122
▁ekstra	-10.9122
▁kabuk	-10.9123
▁nazik	-10.9124
▁kısme	-10.9129
▁minik	-10.913
▁temizleme	-10.9132
▁kaldırma	-10.9133
▁etmeliyiz	-10.9133
▁yapmasını	-10.9135
▁başlık	-10.9135
▁gidin	-10.9136
▁öğrendi	-10.9137
▁düşünürken	-10.9138
▁dibin	-10.9138
ildiğinde	-10.9145
▁Kalp	-10.9154
▁Gerçekte	-10.9165
▁topluyor	-10.9173
▁Lin	-10.9175
▁Yə	-10.9181
laşır	-10.919
▁hatırlayın	-10.919
▁yatıyor	-10.9192
▁bazılarınız	-10.9199
▁Okyanus	-10.92
▁katil	-10.9201
▁Mor	-10.9212
▁hüküm	-10.9216
mezdi	-10.922
▁düzenlen	-10.9224
▁bölümünde	-10.9225
▁taşındı	-10.9226
▁maliyetli	-10.9237
▁karmaşıklığı	-10.9241
▁yolcu	-10.9241
labilirsiniz	-10.9243
▁Laboratuvar	-10.9244
▁şebeke	-10.9244
▁2011	-10.9244
▁Jeff	-10.9244
▁maddə	-10.9244
▁istədi	-10.9244
▁Güç	-10.9244
▁gerektirir	-10.9244
▁torba	-10.9244
▁optik	-10.9245
▁kaygı	-10.9246
▁gerektiren	-10.9247
▁rica	-10.9247
▁ulaşılabilir	-10.9247
▁baktığımda	-10.9251
▁2004	-10.9253
▁dikey	-10.9253
▁kartı	-10.9255
▁sonuçlarını	-10.9262
ustu	-10.9262
▁yapılır	-10.9263
BI	-10.927
▁yapmıştı	-10.9278
leştiriyor	-10.9279
▁ölür	-10.9281
▁Rio	-10.9292
▁uğraştı	-10.9298
▁duymuş	-10.9303
▁yaşanan	-10.9306
▁inanan	-10.9311
▁izlediği	-10.932
▁paylaştığı	-10.9321
▁mantığı	-10.9325
arry	-10.9325
▁sorduğum	-10.9334
▁kullanıldı	-10.934
▁basar	-10.9349
▁programlama	-10.9351
▁Pri	-10.9354
▁yapamayacağı	-10.9358
▁çember	-10.9368
▁çeşidi	-10.9368
▁ısrar	-10.9368
▁belediye	-10.9368
▁Enerji	-10.9368
▁olacaq	-10.9368
▁bozukluk	-10.9368
▁hakikat	-10.9368
▁Modern	-10.9368
▁torunları	-10.9368
▁kapsamlı	-10.9368
▁Kutbu	-10.9368
▁kendiliğinden	-10.9368
▁Önümüzde	-10.9368
▁oğlan	-10.9369
▁Robert	-10.9369
▁mezar	-10.9369
▁perde	-10.9369
ürekli	-10.9372
▁tekniği	-10.9373
▁kuyruklu	-10.9373
▁kentsel	-10.9375
▁destekleyen	-10.9376
▁siber	-10.9376
▁kurumsal	-10.9376
▁ölçeği	-10.9378
▁götürüyor	-10.938
abiliyordu	-10.9382
▁aptalca	-10.9383
▁olmalısınız	-10.9388
▁yazılımı	-10.9392
▁isteyeceği	-10.9393
stan	-10.9395
▁edemedi	-10.9409
▁koşul	-10.941
▁yerleştiril	-10.9411
▁Okyanusu	-10.9413
▁Bob	-10.9415
▁kurar	-10.9422
▁yaratabilir	-10.9422
▁kenarında	-10.9431
▁gerekecek	-10.9437
▁bulaş	-10.9448
▁çalışacak	-10.9454
layabileceği	-10.9459
▁geçirdik	-10.9473
▁Erkek	-10.9476
▁yapabildiği	-10.948
▁besleme	-10.9482
▁Californi	-10.9493
▁otomobil	-10.9493
▁həqiqətən	-10.9493
▁Problem	-10.9493
▁inovasyon	-10.9493
▁Haiti	-10.9493
▁Nobel	-10.9494
▁bittiğini	-10.9494
▁195	-10.9497
▁gidiş	-10.9504
▁sag	-10.9509
▁28	-10.9511
▁getirebilir	-10.9512
▁fiyatı	-10.9515
▁kaydetme	-10.9516
▁şair	-10.9521
▁bastır	-10.9522
▁geçecek	-10.9527
▁kullanıyorum	-10.953
▁fikr	-10.9532
▁ödüllendir	-10.9537
riyoruz	-10.9551
▁baca	-10.957
▁evreni	-10.9571
▁evrimin	-10.9575
▁hatırlar	-10.9593
▁tutum	-10.9598
▁haklarını	-10.9598
▁uyuş	-10.9599
▁çekimi	-10.9614
▁bilge	-10.9615
▁CEO	-10.9619
▁Street	-10.9619
▁enstrüman	-10.9619
▁qadın	-10.9619
▁diyebilirsiniz	-10.9619
▁Yahudi	-10.9619
▁teşkil	-10.9619
▁ideoloji	-10.9619
▁şerit	-10.962
▁hoca	-10.962
▁tören	-10.962
▁Program	-10.962
▁yetecek	-10.9621
▁Kullan	-10.9621
▁hidro	-10.9624
▁düşünürsek	-10.9625
▁enstitü	-10.9626
▁paylaşıyor	-10.9629
▁beton	-10.9631
▁eğil	-10.9632
▁kurucu	-10.9633
▁kutlama	-10.9633
▁götürür	-10.9633
▁tanıştır	-10.9633
▁yayma	-10.9649
▁örtüsü	-10.9649
▁bakıyorum	-10.9657
▁Anlat	-10.966
▁Derek	-10.967
▁yerleşim	-10.967
▁kapatma	-10.967
▁pas	-10.9685
▁aleti	-10.9688
▁umutsuz	-10.9705
▁konuşul	-10.9705
▁kesti	-10.9708
▁kalmıştı	-10.9714
▁gazı	-10.9726
▁ticareti	-10.9731
▁açıkladı	-10.9733
▁oynar	-10.9734
▁taşır	-10.9743
▁istəyir	-10.9747
▁Kültür	-10.9748
▁Muhteşem	-10.9748
▁haqqında	-10.9748
▁hərəkət	-10.9748
▁kapitalizm	-10.9748
▁maske	-10.9748
▁dəfə	-10.9748
▁tümüyle	-10.9748
▁santral	-10.9748
▁Devam	-10.9749
▁Hâl	-10.9749
▁atalarımız	-10.9754
▁gözlerini	-10.9757
▁ödev	-10.9764
▁soyle	-10.9767
▁şəkildə	-10.9768
▁hissetti	-10.9768
▁kusursuz	-10.9771
▁bırakıp	-10.9778
▁anlıyorum	-10.9779
▁bıraktığı	-10.9783
abildik	-10.9784
▁başlığı	-10.9784
▁War	-10.9798
▁ilişkilendir	-10.9802
▁ekliyor	-10.9806
▁silin	-10.9813
▁hayl	-10.9821
bilim	-10.9835
▁malzemeleri	-10.9836
▁alınma	-10.9836
luyoruz	-10.984
▁benzediğini	-10.984
▁durumunu	-10.9847
başı	-10.9856
▁inanır	-10.9867
▁büyüdüğü	-10.9872
▁kısıt	-10.9873
▁kırılgan	-10.9877
▁Manhattan	-10.9877
▁hipotez	-10.9877
▁liberal	-10.9877
▁hacker	-10.9877
▁anatomi	-10.9877
▁Etrafı	-10.9877
▁doğmuş	-10.9878
▁büyüklükte	-10.9878
▁tərəfində	-10.9878
▁çarpışma	-10.9878
AR	-10.988
▁tuttuğu	-10.988
▁Orman	-10.9881
▁təsir	-10.9882
▁başladığını	-10.9889
▁kazanıyor	-10.9891
abildiğim	-10.9894
▁oluşmuş	-10.9894
▁bakıyorsunuz	-10.9897
▁sözlük	-10.99
▁salgı	-10.9901
▁şempanzeler	-10.9904
▁gönderiyor	-10.9905
▁kısıtlama	-10.991
▁çare	-10.9914
▁sınırı	-10.9917
▁yayıldı	-10.9923
mayacağı	-10.9924
▁yapardı	-10.9925
60	-10.993
▁karşılaştırma	-10.9935
leşen	-10.9936
▁Rob	-10.9938
▁eleştiri	-10.9947
▁vermiyor	-10.9951
▁hastanede	-10.9956
irəm	-10.9959
▁İst	-10.9969
▁okyanusta	-10.9994
▁Vücudu	-11.0009
▁bilişsel	-11.0009
▁Kırmızı	-11.0009
▁Uganda	-11.0009
▁Çift	-11.0009
▁zıt	-11.0009
▁döngüsü	-11.0009
▁birbirleri	-11.0011
▁amca	-11.0011
▁patron	-11.0013
▁formül	-11.0014
▁metro	-11.0017
▁düşünmüyorum	-11.0017
▁yaramaz	-11.0018
▁molekülleri	-11.0021
▁bireylerin	-11.003
▁PM	-11.0031
▁Mimar	-11.0036
▁üretilen	-11.0038
▁sürecinde	-11.0048
eşke	-11.0055
üydü	-11.0072
▁değerini	-11.0092
▁yosun	-11.0098
▁okudu	-11.0099
▁Mah	-11.0101
▁Umu	-11.0109
əsində	-11.0122
▁şiddetin	-11.0125
▁Hintli	-11.0136
▁yansıma	-11.0138
▁düzenledi	-11.0139
▁Hristiyan	-11.0142
▁dinozor	-11.0142
▁Hollanda	-11.0142
▁geometri	-11.0142
▁koridor	-11.0142
▁mürekkep	-11.0142
▁karmaşa	-11.0142
▁esnasında	-11.0142
▁sentez	-11.0142
▁uğraşıyor	-11.0142
▁fiziği	-11.0142
▁sabır	-11.0142
▁istasyonu	-11.0142
▁şov	-11.0143
▁ulduz	-11.0143
▁Whit	-11.0143
▁dizüstü	-11.0143
▁vadeli	-11.0143
▁vb	-11.0143
▁gergin	-11.0144
▁tünel	-11.0145
▁düğüm	-11.0149
▁Noel	-11.0149
▁İçeri	-11.015
▁rota	-11.0151
▁yayılması	-11.0152
▁dönüşüyor	-11.0153
▁yenilenebilir	-11.0156
▁Elimizde	-11.0156
▁yarısında	-11.0159
▁göremedi	-11.016
▁Erkekler	-11.016
▁dayanarak	-11.0162
▁100.000	-11.0167
▁oynayan	-11.0179
mazsınız	-11.0188
▁edemiyor	-11.0189
▁olmasaydı	-11.0191
▁gidiyordu	-11.0195
▁canlandırma	-11.0212
▁itti	-11.0219
digini	-11.022
▁içlerinde	-11.0221
▁bildirim	-11.0226
▁bilinir	-11.0228
▁bağlaya	-11.0231
▁muydu	-11.0239
▁davranışlarını	-11.0252
▁satır	-11.0257
▁fotoğrafını	-11.0258
▁danışma	-11.0261
▁Olay	-11.0273
▁məktəb	-11.0277
▁simülasyon	-11.0277
▁çubuk	-11.0277
▁mutfak	-11.0278
▁Dön	-11.0278
▁birikim	-11.0284
▁değiştiğini	-11.0286
▁tarihsel	-11.0301
▁istediklerini	-11.0318
▁çıkarak	-11.0321
▁rahatsızlık	-11.0321
▁sisteminde	-11.0327
▁26	-11.0331
▁vazgeçme	-11.0332
▁dilini	-11.0339
▁çıktığını	-11.0346
▁burnu	-11.0348
▁aşamasında	-11.0357
▁yüzeyinde	-11.0363
▁başarısızlık	-11.0384
▁Doku	-11.0388
▁anlamsız	-11.0389
▁yerleş	-11.0397
▁çıktığında	-11.04
▁pişir	-11.0407
▁kuyruk	-11.0408
▁hükumet	-11.0414
▁istikrar	-11.0414
▁referans	-11.0414
▁motive	-11.0414
▁ressam	-11.0414
▁Bakanlığı	-11.0415
▁trans	-11.0415
▁cisim	-11.0416
▁eşitsizlik	-11.0418
▁dünyamızı	-11.0418
▁taşıyıcı	-11.0419
▁Beynin	-11.042
▁Yerel	-11.0423
▁adres	-11.0424
▁tepesinde	-11.0425
▁satıcı	-11.0427
▁qar	-11.0428
▁duman	-11.043
▁aranızda	-11.0433
▁miktarını	-11.0438
▁kaos	-11.0438
▁yitir	-11.0442
▁dördü	-11.0451
▁Durum	-11.0454
▁köşesinde	-11.0454
▁edinme	-11.0457
▁uçurum	-11.0457
▁bag	-11.0463
▁Öte	-11.0464
▁trend	-11.0468
▁120	-11.0477
▁becer	-11.0505
▁yakalanma	-11.0533
▁sokağ	-11.0536
▁uçma	-11.0549
▁Wall	-11.0551
▁GSY	-11.0553
▁enteresan	-11.0553
▁uğultu	-11.0553
▁dramatik	-11.0553
▁çukur	-11.0553
▁şehre	-11.0553
▁piyano	-11.0553
▁emisyon	-11.0553
▁partner	-11.0553
▁cidden	-11.0553
RNA	-11.0553
▁Kongo	-11.0553
▁Ebola	-11.0553
▁Yardım	-11.0553
▁Bankası	-11.0554
▁böceği	-11.0554
▁transfer	-11.0554
▁qız	-11.0554
▁Müzesi	-11.0554
▁sezon	-11.0555
▁sopa	-11.0555
▁basma	-11.0555
▁fırın	-11.0556
▁işgal	-11.0558
▁sorunumuz	-11.0558
▁söyleyeyim	-11.0558
▁Merak	-11.0565
▁severim	-11.0569
▁Haber	-11.057
▁sırrı	-11.0571
▁saklı	-11.0579
▁eğiliminde	-11.0585
▁verdiğiniz	-11.0586
▁hic	-11.0598
▁tanıştığım	-11.0607
▁seçtiği	-11.0612
leştiren	-11.0613
▁hayatınızı	-11.062
▁haritasını	-11.0621
▁sinema	-11.0622
▁çevirdi	-11.0623
▁düşünecek	-11.0628
▁tasarlay	-11.0632
▁değişiklikleri	-11.0635
▁açılma	-11.0655
▁çaresiz	-11.0656
▁kuruluşları	-11.0663
▁kısıtlı	-11.0664
▁Güven	-11.067
ırıq	-11.0672
▁yaşayacak	-11.0673
▁Aslın	-11.0685
▁çətin	-11.0694
▁Geleneksel	-11.0694
▁nöroloji	-11.0694
▁reçete	-11.0694
▁reaksiyon	-11.0694
▁Smith	-11.0694
▁şapka	-11.0694
▁süresince	-11.0694
▁ödün	-11.0695
▁profil	-11.0695
▁bozukluğu	-11.0695
▁göreceğiniz	-11.0696
▁Özel	-11.0696
▁aşina	-11.0697
▁aygıt	-11.0697
▁akışını	-11.0697
▁bakımından	-11.0698
▁ırkçı	-11.0698
▁başlayıp	-11.0705
▁yoğunluk	-11.0706
▁kalıntı	-11.0707
▁Port	-11.0708
▁öyleyse	-11.0712
▁basamak	-11.0717
▁Güvenlik	-11.0718
▁grub	-11.072
▁inceliyor	-11.0721
▁uçtu	-11.0726
▁isterdi	-11.0728
▁vurma	-11.0729
▁düşünmeniz	-11.0741
▁vermişti	-11.0741
▁bozulma	-11.0746
▁cür	-11.0749
▁çıxar	-11.0768
▁çalışacağım	-11.0772
▁kaybediyor	-11.0778
▁davranma	-11.0794
▁evlenme	-11.0797
▁gerçeğ	-11.0797
▁içimizde	-11.0799
▁gerekmiyor	-11.0806
▁alıyordu	-11.0822
▁gecekondu	-11.0837
▁2012	-11.0837
▁Akademi	-11.0837
▁Britanya	-11.0837
▁Chicago	-11.0837
▁Matematik	-11.0837
▁helikopter	-11.0837
▁şablon	-11.0837
▁Biyoloji	-11.0837
▁hitap	-11.0837
▁negatif	-11.0837
▁Politik	-11.0837
▁tahrip	-11.0837
▁acımasız	-11.0837
▁paralel	-11.0838
▁terörizm	-11.0838
▁kumanda	-11.0839
▁umursama	-11.0841
▁esinlen	-11.0843
▁Krallık	-11.0843
▁tükenme	-11.0843
▁tuş	-11.0851
▁verirseniz	-11.0855
▁okuduğum	-11.0856
▁Saat	-11.0862
▁kirliliği	-11.0868
▁bitirdi	-11.0869
▁etməyə	-11.0872
▁Düşündü	-11.0904
▁vereceği	-11.0908
əgər	-11.0914
▁öldüğü	-11.0932
▁sundu	-11.0935
▁kitapta	-11.0939
ayet	-11.0944
▁değiştirebil	-11.0945
▁yiyeceği	-11.0947
▁Birçoğu	-11.0954
▁Gand	-11.0958
▁sunduğu	-11.0964
ərkə	-11.0967
▁Körfez	-11.0982
▁William	-11.0982
▁kahverengi	-11.0982
▁üzərində	-11.0982
▁diyalog	-11.0982
▁mevsim	-11.0982
▁pirinç	-11.0982
▁Beləliklə	-11.0982
▁Silikon	-11.0982
▁Stanford	-11.0982
▁meclis	-11.0982
▁koltuğu	-11.0982
▁Sahip	-11.0982
▁görünmüyor	-11.0982
▁yıkıcı	-11.0982
▁edemeyeceği	-11.0983
▁növ	-11.0984
▁Evrim	-11.0984
▁papa	-11.0984
▁apar	-11.0985
▁Işık	-11.0987
▁kariyerim	-11.099
▁beste	-11.0992
▁şahs	-11.0992
▁işlevsel	-11.0993
▁halini	-11.1
▁Belə	-11.102
▁kapağı	-11.1021
▁dinliyor	-11.1022
▁öncülü	-11.1034
▁Vo	-11.1037
▁oranını	-11.1038
▁koşulları	-11.1042
▁bardak	-11.1045
▁önemini	-11.1049
▁üretir	-11.1062
▁190	-11.1067
▁sanıyor	-11.1068
▁anlatır	-11.1092
▁yükselme	-11.1093
▁gəldi	-11.1094
▁alanlarında	-11.1105
▁karşılaştığımız	-11.1108
▁versiyon	-11.1109
▁çocuğunu	-11.1115
▁uzaklaştır	-11.1116
▁İnanıyoru	-11.1117
▁karaciğer	-11.1129
▁Scott	-11.1129
▁emniyet	-11.1129
▁çamur	-11.1129
▁kalori	-11.113
▁gerektiriyor	-11.113
▁Makine	-11.113
▁maalesef	-11.1133
▁kaynaklanıyor	-11.1135
▁pişirme	-11.1137
▁basınç	-11.1141
▁kalkıp	-11.1143
▁küreselleşme	-11.1145
▁2001	-11.1146
▁Hepsini	-11.115
▁fotoğrafta	-11.1154
▁önlem	-11.1167
▁pound	-11.1171
▁anlayama	-11.118
▁görmüştü	-11.118
▁olmayacağı	-11.1186
▁Gülme	-11.119
▁çekilme	-11.1221
▁Bazılarınız	-11.1223
BC	-11.1233
▁isimlendir	-11.1235
leştirilmesi	-11.1244
▁şempanze	-11.1248
▁bulamadı	-11.1251
▁yapmadı	-11.1259
▁dolduru	-11.1262
▁dağılımı	-11.1275
▁bıçak	-11.1278
▁cavab	-11.1278
▁hormon	-11.1278
▁kosmos	-11.1278
▁məlumat	-11.1278
▁trajedi	-11.1278
▁çikolata	-11.1278
▁prensibi	-11.1278
▁titreşim	-11.1278
▁retina	-11.1279
▁çöküş	-11.1279
▁rekor	-11.1279
▁ergen	-11.1279
▁bencil	-11.1279
▁dağınık	-11.1279
▁İzleyici	-11.128
▁Genellikle	-11.128
▁ünite	-11.1281
▁Benzer	-11.1282
▁tadını	-11.1285
▁degis	-11.1288
▁sayılır	-11.1289
▁191	-11.129
▁kabin	-11.1291
▁bitiş	-11.1292
▁sanıyorum	-11.1292
▁yuzde	-11.1292
▁ederseniz	-11.13
▁yarayan	-11.1304
▁doğma	-11.1329
▁galeri	-11.1331
▁gerçekleştiği	-11.1358
▁elinizi	-11.1381
▁hoşlanma	-11.1382
▁donmuş	-11.1412
İH	-11.1413
▁adlandırıla	-11.1427
▁dinazor	-11.143
▁paradigma	-11.143
▁tropik	-11.143
▁İsviçre	-11.143
▁şaşkın	-11.143
▁direnci	-11.143
▁kurbağa	-11.143
▁çevrimiçi	-11.143
▁sömür	-11.143
▁Sabah	-11.143
▁akıntı	-11.143
▁əslin	-11.143
▁karşılığında	-11.143
▁hakkinda	-11.143
▁dövr	-11.143
▁imaj	-11.1431
▁varoluş	-11.1431
▁mizah	-11.1431
▁nəticə	-11.1431
▁95	-11.1438
▁2003	-11.144
▁Ford	-11.1441
▁uçuyor	-11.1442
▁şüphesiz	-11.1444
▁davranışsal	-11.1448
▁hızını	-11.1453
▁kurulmuş	-11.1457
▁Big	-11.1457
▁Kapı	-11.1457
▁yardımıyla	-11.1458
▁kopar	-11.1464
▁benzetme	-11.147
▁Yemek	-11.1474
▁seviyesini	-11.1477
▁kabiliyet	-11.1497
Q	-11.1499
▁Gitti	-11.1502
▁mega	-11.1512
leştiril	-11.1513
▁gideli	-11.1527
▁telefonunuz	-11.1528
layabilecek	-11.153
▁Hayatta	-11.1533
awa	-11.1538
▁istemediği	-11.1545
▁başladığında	-11.1552
leştirir	-11.1555
▁belirleye	-11.156
▁kullanılır	-11.158
▁Bölge	-11.1584
▁Demokrasi	-11.1584
▁eşcinsel	-11.1584
▁güvercin	-11.1584
▁rüşvet	-11.1584
▁sentetik	-11.1584
▁vasitə	-11.1584
▁zekâ	-11.1584
▁Haziran	-11.1584
▁aykırı	-11.1584
▁öbür	-11.1584
▁cinayet	-11.1584
▁Hızlı	-11.1584
▁batarya	-11.1584
▁takıntı	-11.1584
əlkə	-11.1584
▁zarif	-11.1585
▁telif	-11.1586
▁darbe	-11.1586
▁ironi	-11.1586
▁keyfi	-11.1586
▁solucan	-11.1586
▁kalkınma	-11.1587
▁parazit	-11.1587
▁Eric	-11.1589
▁denizaltı	-11.1589
▁korsan	-11.1591
▁kemer	-11.1592
▁sürecini	-11.1595
▁kaçak	-11.1595
▁gözəl	-11.1596
▁maşın	-11.1598
▁derinliklerin	-11.16
▁örnekte	-11.1617
▁üstte	-11.1618
▁kaynaklarını	-11.1618
▁uzaklıkta	-11.1625
▁durak	-11.1641
▁eğitil	-11.1647
▁şansımız	-11.1652
X	-11.1655
binlerce	-11.1655
▁arttırma	-11.1664
▁anlaş	-11.1666
▁yeter	-11.1678
▁korkar	-11.1697
▁fiil	-11.1738
▁Antarktika	-11.174
▁Oxford	-11.174
▁qalaktika	-11.174
▁Şehri	-11.174
▁kırıklığın	-11.174
▁onemli	-11.174
▁Yavaş	-11.174
▁banyo	-11.174
▁hiçbirşey	-11.174
▁çürü	-11.1741
▁irade	-11.1741
▁Yaşlı	-11.1741
▁ölecek	-11.1743
▁mekaniği	-11.1744
▁hansı	-11.1747
▁bahar	-11.1748
▁sunucu	-11.1749
▁Polis	-11.1751
▁kalitesini	-11.1751
▁ilave	-11.1752
▁oxu	-11.1754
▁görmə	-11.177
▁azalıyor	-11.177
▁yeryüzünde	-11.1785
▁ardında	-11.181
▁çapta	-11.1828
laşan	-11.1834
▁kumaş	-11.1855
▁durduru	-11.1869
▁görülmemiş	-11.1898
▁Afgan	-11.1898
▁Atlantik	-11.1899
▁Florida	-11.1899
▁Gazete	-11.1899
▁Mükemmel	-11.1899
▁asteroid	-11.1899
▁Örnek	-11.1899
▁Şirketler	-11.1899
▁çekirdek	-11.1899
▁Yukarı	-11.1899
▁psikolog	-11.1899
▁ultra	-11.1899
▁Petrol	-11.1899
▁paraşüt	-11.1899
▁əlaqə	-11.1899
▁kızgın	-11.1899
▁aldatma	-11.1899
▁dövme	-11.1899
▁gercekte	-11.1899
seksüel	-11.1899
▁hesabı	-11.1902
▁ertesi	-11.1907
▁Etki	-11.1909
▁Lider	-11.191
▁belirlen	-11.1911
▁lüks	-11.1916
▁kaçınma	-11.1917
▁biliniyor	-11.192
▁gittiğimiz	-11.1924
▁yapamıyor	-11.1931
▁karışımı	-11.1931
▁teknolojisini	-11.1934
▁geldiğimde	-11.1935
Ş	-11.1975
▁ihtiyac	-11.1975
▁çalıyor	-11.2001
leyelim	-11.2008
▁özünü	-11.2011
BG	-11.2015
▁güldü	-11.2043
▁almıştı	-11.2049
▁Vietnam	-11.206
î	-11.206
▁Yanlış	-11.206
▁acayip	-11.206
▁coğrafi	-11.206
▁feminist	-11.206
▁kombinasyon	-11.206
▁mıknatıs	-11.206
▁rezerv	-11.206
▁sipariş	-11.206
▁İspanya	-11.206
▁mağdur	-11.206
▁ihlal	-11.206
▁başlıca	-11.206
▁klip	-11.2061
▁farz	-11.2061
▁netice	-11.2062
▁sürət	-11.2062
▁Hazır	-11.2064
▁Bilmiyorum	-11.2066
▁kullanımını	-11.2066
▁dansçı	-11.2069
▁olamayacağı	-11.2086
ER	-11.2095
agos	-11.2107
▁hatırlatıyor	-11.2112
▁bulunduğunu	-11.2118
▁Mikro	-11.2121
▁çabu	-11.2134
▁vücud	-11.2172
▁Bekle	-11.2181
ville	-11.2222
▁Arjantin	-11.2224
▁Dijital	-11.2224
▁Kontrol	-11.2224
▁Microsoft	-11.2224
▁interaktif	-11.2224
▁popülasyon	-11.2224
▁təhsil	-11.2224
▁İspanyol	-11.2224
▁enfekte	-11.2224
▁haricinde	-11.2224
▁gitgide	-11.2224
▁alıkoy	-11.2224
▁imalat	-11.2224
▁Green	-11.2224
▁ogren	-11.2224
▁husus	-11.2225
▁saldırgan	-11.2225
▁üzücü	-11.2225
▁Asker	-11.2226
▁kirlet	-11.2227
▁düşünürdü	-11.2229
▁hələ	-11.2233
▁alem	-11.2241
▁başarama	-11.2242
▁dürtü	-11.2248
BA	-11.225
▁baska	-11.2252
▁gösterebilir	-11.2277
▁Hatırla	-11.2285
▁dalgalanma	-11.2299
▁kuşak	-11.231
▁atlet	-11.232
▁eşitliği	-11.2337
layayım	-11.2367
▁evcil	-11.2376
▁gülüş	-11.239
▁Cambridge	-11.239
▁Wikipedia	-11.239
▁klavye	-11.239
▁sandviç	-11.239
▁estetik	-11.2391
▁kastediyor	-11.2391
▁masum	-11.2391
▁tükenmiş	-11.2392
▁bütünüy	-11.2393
▁gereksinim	-11.2394
▁bulaşıcı	-11.2394
▁zıpla	-11.2401
▁evlat	-11.2402
▁penis	-11.2406
▁nehrin	-11.2407
▁səs	-11.2411
▁Model	-11.2412
▁modül	-11.2415
▁döndürü	-11.2424
▁yağış	-11.2428
▁destekliyor	-11.243
▁fiber	-11.2454
▁içimde	-11.2465
▁eklem	-11.249
▁tarihini	-11.2493
▁rad	-11.2529
digimiz	-11.2537
▁renkte	-11.2539
iyyat	-11.2541
▁kullanmıyor	-11.2543
▁evimiz	-11.2554
▁verilmiş	-11.2556
▁Sovyet	-11.256
▁kristal	-11.256
▁spektrum	-11.256
▁Binlerce	-11.256
▁patates	-11.256
▁peynir	-11.256
▁musiqi	-11.256
▁Virgin	-11.256
▁Aristo	-11.256
▁arşiv	-11.256
▁Sahra	-11.256
▁Ruanda	-11.256
▁halihazırda	-11.256
▁çiğ	-11.2561
▁niteliği	-11.2561
▁yüce	-11.2561
▁Koruma	-11.2561
▁enjekt	-11.2561
▁cihad	-11.2561
▁imge	-11.2562
▁kömək	-11.2562
▁duymuşsunuz	-11.2564
▁kalmayıp	-11.2564
City	-11.2564
▁öğe	-11.2565
▁goz	-11.2569
▁oluştuğunu	-11.257
▁edeceğimiz	-11.257
▁düşünmeliyiz	-11.2571
ərək	-11.2605
▁sattı	-11.2627
▁artırma	-11.2629
▁yoksulluğu	-11.263
abilmemiz	-11.263
▁görüldüğü	-11.2632
▁bank	-11.2666
laştırıyor	-11.2695
▁jeo	-11.2698
▁dəqiq	-11.2732
▁hemfikir	-11.2732
▁muayene	-11.2732
▁vasıtası	-11.2732
▁volkan	-11.2732
▁süpür	-11.2732
▁tweet	-11.2732
▁yozlaşma	-11.2732
▁editör	-11.2733
▁çağdaş	-11.2733
▁Brown	-11.2733
▁Bebek	-11.2733
▁küçümse	-11.2733
▁sistematik	-11.2733
▁işkence	-11.2733
▁evvel	-11.2733
▁olub	-11.2733
▁düşünürsünüz	-11.2733
▁ödüyor	-11.2733
▁günəş	-11.2734
▁aktiv	-11.2734
▁göğsü	-11.2736
▁hekim	-11.2737
▁Organ	-11.2738
▁sakat	-11.2739
▁bahsetmiyoru	-11.274
▁beklenen	-11.2743
▁gütmeye	-11.2748
▁lens	-11.2762
▁ikon	-11.277
▁kaydedil	-11.2779
▁işitme	-11.282
▁göründüğünü	-11.2829
RB	-11.2832
▁kültürümüz	-11.284
▁gözükme	-11.2847
▁tıbb	-11.2866
▁kurabil	-11.2874
▁statü	-11.2875
termal	-11.289
▁örgü	-11.2897
▁oluşması	-11.2905
▁tərəf	-11.2907
▁Etiyopya	-11.2908
▁bambaşka	-11.2908
▁istihbarat	-11.2908
▁mövzu	-11.2908
▁spesifik	-11.2908
▁minnettar	-11.2908
▁şükür	-11.2908
▁Vakfı	-11.2908
▁fırça	-11.2908
▁Şarkı	-11.2908
▁Kitabı	-11.2908
▁ampul	-11.2908
▁goster	-11.2908
▁zafer	-11.2908
▁Medya	-11.2908
▁Gates	-11.2908
▁Əsl	-11.2909
▁öldürücü	-11.291
▁denetim	-11.2911
abildiğini	-11.2913
▁rahatlat	-11.2917
▁Gül	-11.2922
▁yıkım	-11.2923
▁Henr	-11.2928
▁hissettikleri	-11.2946
▁Merkez	-11.2951
▁bahsedil	-11.3027
▁katılıyor	-11.3084
▁LED	-11.3086
▁Taliban	-11.3086
▁coğrafya	-11.3086
▁qaranlıq	-11.3086
▁yırtıcı	-11.3086
▁dogru	-11.3086
▁razı	-11.3086
▁nötr	-11.3086
▁xüsusi	-11.3086
▁Pekâl	-11.3087
▁işıq	-11.3087
▁Seçim	-11.3087
▁görülebilir	-11.3088
▁yetmez	-11.3088
▁Cuma	-11.3089
▁Bitki	-11.3089
▁yükselişi	-11.309
▁şahane	-11.309
▁başımıza	-11.3091
▁yatkın	-11.3093
▁evliliği	-11.3095
▁Tony	-11.3098
laştırıl	-11.3134
▁ışığ	-11.3135
▁Str	-11.3136
▁çoğunluk	-11.3172
▁basladi	-11.3181
▁belirtileri	-11.3182
▁Görev	-11.32
▁Hücre	-11.3268
▁astronot	-11.3268
▁eşdeğer	-11.3268
▁hükûmet	-11.3268
▁istihdam	-11.3268
▁istismar	-11.3268
▁mecbur	-11.3268
▁meslektaşım	-11.3268
▁müddət	-11.3268
▁muhabir	-11.3268
▁numune	-11.3268
▁əhəmiyyət	-11.3268
▁doğuştan	-11.3268
▁Yıldız	-11.3268
▁Nelson	-11.3268
▁tahıl	-11.3268
▁Yaratıcı	-11.3268
▁tasvir	-11.3268
▁Değer	-11.3268
▁rakip	-11.3269
▁talebi	-11.3269
▁Sokak	-11.3269
NSA	-11.3269
▁Simdi	-11.3269
▁etnik	-11.327
▁çene	-11.3271
▁okuyucu	-11.3272
▁düşünürüz	-11.3272
▁Kelime	-11.3273
▁gələn	-11.3274
▁arayışı	-11.3275
▁idam	-11.3292
▁Jenn	-11.3292
▁oğlunu	-11.3318
mişsinizdir	-11.3325
▁kahkaha	-11.3419
▁Adaları	-11.3429
▁Charlie	-11.3453
▁filozof	-11.3453
▁illüzyon	-11.3453
▁laboratuar	-11.3453
▁personel	-11.3453
▁Kütüphane	-11.3453
▁primat	-11.3453
▁püskür	-11.3453
▁timsah	-11.3453
▁Özgür	-11.3453
▁örüntü	-11.3453
▁şarj	-11.3453
▁məsələ	-11.3453
▁cocuk	-11.3453
▁çırp	-11.3453
▁dəyişdi	-11.3453
▁çorba	-11.3453
▁Delhi	-11.3453
▁efekt	-11.3454
▁İsmi	-11.3454
▁açılış	-11.3456
▁kurşun	-11.3456
▁patern	-11.3456
▁itibariyle	-11.3458
▁zihniyet	-11.3458
▁hasat	-11.3459
▁yatay	-11.346
▁ipek	-11.3461
▁sürüklen	-11.3501
▁tamamiyl	-11.3559
▁görüldü	-11.3562
▁görebileceği	-11.3602
▁yeryüzü	-11.3605
dönük	-11.362
xşı	-11.3625
▁izleyebil	-11.3632
▁oluştuğu	-11.3633
▁Alex	-11.3642
▁National	-11.3642
▁Nihayet	-11.3642
▁kuyruğu	-11.3642
▁ritüel	-11.3642
▁semptom	-11.3642
▁sponsor	-11.3642
▁hayırsever	-11.3642
▁omurga	-11.3642
▁Devrimi	-11.3642
▁süzül	-11.3642
▁görülür	-11.3642
▁qaz	-11.3642
▁Black	-11.3642
▁Görünüş	-11.3642
▁salınımı	-11.3642
▁düşünüp	-11.3642
▁otoyol	-11.3642
▁eşitsizliği	-11.3642
▁Şiir	-11.3642
▁Brian	-11.3643
▁makul	-11.3644
▁solunum	-11.3644
▁taciz	-11.3644
▁Berlin	-11.3645
▁Duvar	-11.3645
▁ivme	-11.3646
▁ilerlet	-11.3659
▁buralarda	-11.3702
▁uyuyor	-11.372
▁yenme	-11.3749
▁çocukluğum	-11.3773
▁dörd	-11.3797
maktansa	-11.3799
▁görebildiği	-11.3825
▁oynadığı	-11.3833
▁Norveç	-11.3834
▁beyefendi	-11.3834
▁inkişaf	-11.3834
▁oksitosin	-11.3834
▁Çocuğu	-11.3834
▁fakülte	-11.3834
▁genetiği	-11.3834
▁misafir	-11.3834
▁mövcud	-11.3834
▁Duygu	-11.3834
▁Parkinson	-11.3834
▁garaj	-11.3834
▁mineral	-11.3835
▁fatura	-11.3835
▁meyilli	-11.3835
▁avuç	-11.3835
▁izole	-11.3835
▁manşet	-11.3835
▁Saturn	-11.3837
▁Kaçınız	-11.3837
▁Şubat	-11.3837
▁üzül	-11.3837
▁maka	-11.384
▁bandı	-11.3849
▁Aşk	-11.386
▁enzim	-11.3877
▁geleneği	-11.3877
▁tanımladığı	-11.3916
hazırda	-11.3917
▁Aklım	-11.3933
▁istenme	-11.3943
▁görüştü	-11.3947
▁keşfe	-11.3982
▁keşfedilme	-11.4007
▁yaklaştığı	-11.4009
▁origami	-11.403
▁süpermarket	-11.403
▁ufacık	-11.403
▁zanned	-11.403
▁çizelge	-11.403
▁ürkütücü	-11.403
▁üzgünüm	-11.403
▁GSM	-11.403
▁argüman	-11.403
▁Anlaşıl	-11.4031
▁bayrak	-11.4031
▁talimat	-11.4031
▁İlgi	-11.4031
▁sansür	-11.4031
▁hapiste	-11.4031
▁pamuk	-11.4031
▁servet	-11.4031
▁Silah	-11.4031
▁ipucu	-11.4034
▁Gördüğüm	-11.4035
▁Julia	-11.4035
▁sindir	-11.4035
▁lanet	-11.4038
▁azınlık	-11.404
▁şekl	-11.4117
ograf	-11.4123
ound	-11.414
roskop	-11.4156
meyeceğiz	-11.4156
Kaide	-11.4167
▁Gelecekte	-11.4189
▁etkileş	-11.4203
▁insanoğlunu	-11.4214
▁Detroit	-11.423
▁Grön	-11.423
▁Profesör	-11.423
▁Singapur	-11.423
▁federal	-11.423
▁pantolon	-11.423
▁2015	-11.423
▁Demokrat	-11.423
▁ehtiyac	-11.423
▁kulübe	-11.423
▁levha	-11.423
▁konsantr	-11.423
▁omurilik	-11.423
▁doğaçlama	-11.4231
▁kliniğ	-11.4231
▁vacib	-11.4231
▁Sekiz	-11.4231
▁Köy	-11.4232
▁Şili	-11.4232
▁ölçtü	-11.4237
▁kademe	-11.4245
▁bilgeliğ	-11.4272
▁rast	-11.4323
▁başarabil	-11.4329
▁sahə	-11.4404
▁senkroniz	-11.4435
`	-11.4435
▁Dördüncü	-11.4435
▁festival	-11.4435
▁iPod	-11.4435
▁imparator	-11.4435
▁nöqtə	-11.4435
▁obezite	-11.4435
▁qəbul	-11.4435
▁qərar	-11.4435
▁tsunami	-11.4435
▁Örgütü	-11.4435
▁İskoç	-11.4435
▁şampiyon	-11.4435
▁Bronx	-11.4435
▁halüsinasyon	-11.4435
▁kabuğu	-11.4435
▁maraqlı	-11.4435
▁klişe	-11.4435
▁sızıntı	-11.4435
▁Somali	-11.4435
▁ritmi	-11.4435
▁mühim	-11.4435
▁piksel	-11.4435
▁Mühendis	-11.4435
▁gayret	-11.4435
▁İncil	-11.4436
▁Albert	-11.4436
▁eşleş	-11.444
▁proses	-11.4442
ləyir	-11.4463
▁Kapa	-11.4468
▁Çağ	-11.4524
ebilseydi	-11.4603
▁değme	-11.4618
▁Endüstri	-11.4643
é	-11.4643
▁Elektrik	-11.4643
▁Olimpiyat	-11.4643
▁Ticaret	-11.4643
▁Türkiye	-11.4643
▁fevkalade	-11.4643
▁qeyri	-11.4643
▁xəbər	-11.4643
▁çekirdeği	-11.4643
▁Bangladeş	-11.4643
▁uyğun	-11.4643
▁çiçeğ	-11.4643
▁Sekoya	-11.4643
▁uyguluyor	-11.4643
▁Soğuk	-11.4643
▁Watson	-11.4643
▁tercüme	-11.4643
▁öğüt	-11.4643
▁hatıra	-11.4644
▁Mayıs	-11.4645
▁seçkin	-11.4651
▁yapılacağın	-11.466
▁Şurada	-11.4662
mişimdir	-11.4785
lendirilme	-11.4808
▁Apollo	-11.4856
▁Stephen	-11.4856
▁hoparlör	-11.4856
▁iğrenç	-11.4856
▁reaktör	-11.4856
▁İrlanda	-11.4856
▁hiyerarşi	-11.4856
▁santimetre	-11.4856
▁tansiyon	-11.4856
▁tişört	-11.4856
▁coşku	-11.4856
▁Endişe	-11.4856
▁Diyelim	-11.4856
▁Kulağa	-11.4856
▁rəng	-11.4856
▁Zelanda	-11.4856
▁Bilinç	-11.4856
▁Ağaç	-11.4856
▁çete	-11.4856
▁baloncuk	-11.4856
▁Görünen	-11.4857
▁panik	-11.4857
▁tələb	-11.4857
▁Nefes	-11.4858
▁görmekte	-11.4962
labildiği	-11.4965
çoğumuzun	-11.5005
▁getireceği	-11.5073
eographic	-11.5073
▁Leonardo	-11.5073
▁Muhammed	-11.5073
▁kıvrıl	-11.5073
▁kəşf	-11.5073
▁mektubu	-11.5073
▁montaj	-11.5073
▁psikiyatri	-11.5073
▁röntgen	-11.5073
▁trajik	-11.5073
▁Univers	-11.5073
▁ipuçları	-11.5073
▁müslüman	-11.5073
▁proqram	-11.5073
▁rəqəm	-11.5073
▁soykırım	-11.5073
▁entropi	-11.5073
Z	-11.521
Ç	-11.5908
#	-11.5993
=	-11.7277
‘	-11.7555
+	-11.8438
Ö	-12.0393
Ü	-12.0778
*	-12.2114
û	-12.2114
^	-12.5215
~	-12.5215
@	-12.584
í	-12.6507
ó	-12.6507
á	-12.8824
ã	-13.0733
è	-13.1844
ñ	-13.3094
ä	-13.4523
£	-13.6189
ú	-13.6189
ō	-14.0689
©	-14.4023
à	-14.4023
́	-14.4023
Ə	-14.8939
Á	-14.9022
ô	-14.9023
¥	-14.9023
­	-14.9023
É	-14.9023
ø	-14.9023
ī	-14.9023
ย	-14.9023
ร	-14.9023
่	-14.9023
€	-14.9023
ï	-15.9002
ê	-15.9003
อ	-15.9004
°	-15.9005
Ğ	-15.9006
⁄	-15.9007
Â	-15.9008
_	-15.9009
̈	-15.901
$	-15.9011
–	-15.9012
♪	-15.9013
/	-15.9014
”	-15.9015
’	-15.9016
!	-15.9017
♫	-15.9018
—	-15.9019
:	-15.902
)	-15.9021
?	-15.9022
&	-15.9023
\	-15.9023
®	-15.9023
æ	-15.9023
ë	-15.9023
ì	-15.9023
ć	-15.9023
Č	-15.9023
ē	-15.9023
Ō	-15.9023
š	-15.9023
τ	-15.9023
•	-15.9023
∇	-15.9023
