<unk>	0
<s>	0
</s>	0
<pad>	0
▁.	-3.20286
▁,	-3.44914
▁və	-4.23049
;	-4.3575
▁&	-4.36154
quot	-4.47383
-	-4.8651
n	-4.9296
▁)	-5.00184
▁(	-5.01264
▁bir	-5.13359
i	-5.229
ci	-5.33543
a	-5.38985
da	-5.42187
lar	-5.43966
▁ildə	-5.4454
▁ilə	-5.46325
.	-5.47691
▁	-5.50648
ə	-5.6042
▁bu	-5.65213
lər	-5.70068
in	-5.75702
də	-5.8266
nın	-5.89948
nin	-5.91521
▁olan	-5.95851
k	-5.98204
▁Bu	-5.99722
▁də	-6.02891
li	-6.04858
na	-6.05598
▁da	-6.08936
▁Azərbaycan	-6.10498
dir	-6.11172
m	-6.1184
ları	-6.14529
ni	-6.15813
▁—	-6.18084
▁:	-6.19273
r	-6.19302
▁üçün	-6.20356
▁ki	-6.22736
dan	-6.24979
▁sonra	-6.2596
▁isə	-6.26289
s	-6.2723
ya	-6.27345
dən	-6.27501
ın	-6.31319
t	-6.33109
l	-6.33374
▁kimi	-6.3434
ı	-6.37425
▁-	-6.3851
la	-6.38611
ləri	-6.40013
lı	-6.43851
а	-6.44458
▁il	-6.44539
dır	-6.44589
▁”	-6.47348
▁ve	-6.47698
▁“	-6.48819
si	-6.50061
ların	-6.50394
cü	-6.51465
▁çox	-6.51626
lə	-6.52959
nə	-6.53279
y	-6.58777
▁edir	-6.59503
d	-6.59946
▁O	-6.60738
u	-6.62365
cı	-6.62376
▁o	-6.62588
nı	-6.63443
▁tərəfindən	-6.63512
▁görə	-6.69643
lərin	-6.71088
di	-6.72279
▁–	-6.73008
q	-6.75716
▁daha	-6.75769
▁ya	-6.76423
z	-6.77078
e	-6.77421
▁idi	-6.79439
cu	-6.79859
apos	-6.81555
sı	-6.8473
▁onun	-6.84738
▁olaraq	-6.88008
▁ən	-6.88851
un	-6.89924
▁baş	-6.92005
▁ilk	-6.92832
lik	-6.93028
ki	-6.94484
▁olmuşdur	-6.97393
an	-6.97962
▁böyük	-6.999
ma	-7.00963
yə	-7.01189
▁öz	-7.01564
▁iki	-7.04877
▁qədər	-7.04977
▁;	-7.05659
▁s	-7.06277
▁2	-7.07253
▁A	-7.10309
b	-7.11038
nda	-7.11187
ş	-7.11536
▁S	-7.11989
▁ilin	-7.13066
▁de	-7.13641
▁var	-7.16296
▁1	-7.17056
▁istifadə	-7.18454
dı	-7.21047
▁edən	-7.21946
▁arasında	-7.21995
h	-7.24869
ler	-7.25358
▁edilmişdir	-7.25645
o	-7.2573
▁illərdə	-7.26369
ov	-7.2802
▁olur	-7.28608
f	-7.29525
larının	-7.30299
inin	-7.30698
ә	-7.31049
▁etmişdir	-7.31138
▁hər	-7.32877
▁3	-7.34571
▁oğlu	-7.35817
▁adı	-7.35824
▁olub	-7.35894
sa	-7.36024
▁təşkil	-7.36418
▁bütün	-7.37171
p	-7.37731
▁/	-7.37967
▁yeni	-7.38424
lu	-7.38904
le	-7.39
▁üzrə	-7.41967
x	-7.42263
ca	-7.42388
lara	-7.42394
lərinin	-7.42434
▁yerləşir	-7.42802
c	-7.43927
▁kənd	-7.44792
▁əsas	-7.4506
de	-7.45077
▁biri	-7.45351
▁Bakı	-7.46911
▁­	-7.47178
ini	-7.47185
▁dəfə	-7.47433
ta	-7.47673
▁daxil	-7.47948
▁ildən	-7.48602
▁digər	-7.49637
lərə	-7.49778
v	-7.50907
▁?	-7.52513
larını	-7.53913
▁için	-7.54409
lıq	-7.54518
▁etdi	-7.55071
е	-7.55413
▁qarşı	-7.55773
▁olunur	-7.56337
▁zaman	-7.58534
▁elmi	-7.58545
▁müxtəlif	-7.58569
▁Bir	-7.59057
▁Ve	-7.59331
▁M	-7.59517
▁olduğu	-7.59532
ən	-7.59601
▁etmək	-7.59809
▁4	-7.60141
larda	-7.60181
▁əsasən	-7.60455
al	-7.61007
▁edilir	-7.61039
ü	-7.61499
inə	-7.6167
▁C	-7.61857
ti	-7.61944
ndan	-7.61971
ri	-7.62023
▁su	-7.62349
▁Dövlət	-7.63465
▁bəy	-7.65714
lardan	-7.65879
▁E	-7.66539
▁adlı	-7.66724
▁m	-7.67248
▁B	-7.67429
▁I	-7.67873
▁«	-7.68357
▁»	-7.68598
dur	-7.69156
▁yer	-7.70132
▁həm	-7.70665
▁18	-7.70975
▁oldu	-7.71158
ndə	-7.71299
▁5	-7.71706
▁haqqında	-7.72664
▁orta	-7.73112
▁qəbul	-7.741
▁%	-7.74242
▁onu	-7.74864
▁başqa	-7.75724
lərini	-7.76214
▁İ	-7.76339
▁şəhərində	-7.76613
cə	-7.77029
man	-7.77294
▁km	-7.77378
te	-7.7763
ka	-7.78209
sə	-7.78278
en	-7.78389
▁K	-7.78977
о	-7.79216
S	-7.79979
lərdə	-7.8006
▁həmin	-7.80136
▁geniş	-7.8086
▁yerləşən	-7.80877
ndən	-7.81472
▁10	-7.81565
▁Respublikasının	-7.81766
larında	-7.81813
lərdən	-7.81866
▁dövlət	-7.81878
▁gün	-7.82575
▁zamanı	-7.82927
▁T	-7.8326
▁onların	-7.83908
ç	-7.84481
▁çok	-7.84537
▁nəfər	-7.84542
ində	-7.85015
ik	-7.85123
19	-7.85385
▁iştirak	-7.85512
▁olduğunu	-7.86852
er	-7.86978
▁belə	-7.8719
larından	-7.87264
▁Yeni	-7.87325
lan	-7.87326
mə	-7.87408
▁Onun	-7.87682
lərindən	-7.87981
▁şəhər	-7.88038
il	-7.88205
NGC	-7.88955
çi	-7.89346
leri	-7.90004
at	-7.90419
ir	-7.90923
A	-7.90937
ar	-7.91224
▁təhsil	-7.91559
▁U	-7.91712
▁Q	-7.9275
▁şey	-7.9276
▁aid	-7.92871
▁üç	-7.93015
▁6	-7.93034
▁davam	-7.93834
▁Baş	-7.94011
lərinə	-7.94029
ra	-7.94072
yi	-7.94551
▁yüksək	-7.94747
▁burada	-7.95036
▁...	-7.9517
▁qeyd	-7.95237
▁etdiyi	-7.95315
mi	-7.95395
▁ona	-7.95616
▁vardır	-7.95622
▁d	-7.95805
▁P	-7.95869
▁fəaliyyət	-7.95882
ye	-7.9648
▁xan	-7.96533
▁D	-7.96656
▁anadan	-7.96681
▁Lakin	-7.97146
▁insan	-7.98335
larla	-7.98428
lərində	-7.98431
g	-7.98583
▁ABŞ	-7.98866
larına	-7.99014
re	-7.99156
▁hərbi	-7.99712
▁in	-8.00529
▁tarixi	-8.00694
▁17	-8.01068
▁nə	-8.01517
bi	-8.01732
▁az	-8.01756
dakı	-8.02115
▁milli	-8.02466
▁Respublikası	-8.02945
yan	-8.0314
▁nəticəsində	-8.03819
M	-8.04009
▁olunmuşdur	-8.04046
den	-8.0447
▁son	-8.04502
▁ne	-8.04767
du	-8.04949
▁neçə	-8.05058
▁Böyük	-8.05151
▁müəyyən	-8.05748
▁15	-8.05975
▁Azərbaycanın	-8.06087
ğ	-8.06394
nun	-8.06539
▁hesab	-8.06625
vi	-8.07165
▁Rusiya	-8.07605
▁edib	-8.07651
▁b	-8.08085
▁üzərində	-8.08265
it	-8.08363
▁ikinci	-8.08527
▁Milli	-8.08545
▁en	-8.08941
▁xüsusi	-8.09409
us	-8.09935
▁yaxşı	-8.10059
um	-8.10086
▁iş	-8.10119
▁verir	-8.10235
va	-8.104
▁vasitəsilə	-8.10455
▁olunan	-8.10663
▁eyni	-8.10958
ne	-8.11311
za	-8.11377
lərlə	-8.11591
▁inkişaf	-8.11607
me	-8.11615
araq	-8.11814
miş	-8.11957
▁Avropa	-8.12054
▁min	-8.12144
▁yaxın	-8.12381
on	-8.12666
sinin	-8.12723
▁dünya	-8.13219
▁8	-8.13394
▁7	-8.13431
ba	-8.13992
ır	-8.14061
▁kiçik	-8.14086
▁bağlı	-8.14153
P	-8.14197
ında	-8.14713
▁H	-8.14779
▁film	-8.15356
▁12	-8.15399
▁20	-8.15602
▁qədim	-8.15734
▁heç	-8.15872
ını	-8.15965
▁əsrin	-8.1605
▁e	-8.16133
lığı	-8.16259
▁ibarət	-8.1642
▁altında	-8.1669
st	-8.17142
▁yalnız	-8.17192
çı	-8.17335
B	-8.17382
ının	-8.17491
▁sm	-8.1755
▁olmuş	-8.18095
▁rayonunun	-8.18476
▁a	-8.1872
sında	-8.19023
▁bilər	-8.19265
▁olar	-8.19558
İ	-8.19938
▁adına	-8.19945
▁gəlir	-8.19985
D	-8.1999
▁Əli	-8.20164
▁16	-8.20202
▁Burada	-8.2037
sının	-8.2058
liyi	-8.21395
zi	-8.21408
▁məşhur	-8.2144
▁sıra	-8.21459
ına	-8.21573
▁N	-8.21838
▁V	-8.21914
▁&#93;	-8.22125
▁&#91;	-8.22133
▁əl	-8.22346
▁olunmuş	-8.22422
▁F	-8.22912
▁təyin	-8.23067
▁uzun	-8.23189
▁edilən	-8.23255
▁edilmiş	-8.23749
▁deyil	-8.23854
▁həmçinin	-8.23896
▁artıq	-8.23965
ur	-8.24031
lü	-8.24085
▁sayı	-8.24452
▁kəşf	-8.24661
▁birinci	-8.24682
▁olması	-8.24904
▁birlikdə	-8.2518
▁etmiş	-8.25577
▁R	-8.26246
unun	-8.27019
▁onlar	-8.27643
▁əvvəl	-8.27771
maq	-8.27792
▁gibi	-8.28134
se	-8.28213
im	-8.28265
C	-8.28304
▁tam	-8.28432
▁yenidən	-8.28636
▁göstərir	-8.28643
▁Su	-8.28882
su	-8.29242
R	-8.29363
▁şəkildə	-8.29479
▁9	-8.29859
▁i	-8.29925
to	-8.30064
sini	-8.30217
▁tipli	-8.30511
▁ev	-8.30548
▁Qara	-8.30704
▁edərək	-8.30795
is	-8.30878
▁şimal	-8.30898
▁Na	-8.31048
iya	-8.31055
▁Azərbaycanda	-8.31156
▁istiqamətində	-8.31184
▁ərazisində	-8.31446
▁q	-8.31543
▁edirdi	-8.31566
▁müddət	-8.31574
K	-8.31969
▁zamanda	-8.31989
▁türk	-8.32139
▁14	-8.32476
▁olarak	-8.32631
mış	-8.32635
ter	-8.32879
▁qeydə	-8.33068
▁mərkəzi	-8.33586
▁ərazi	-8.33666
ün	-8.33777
ce	-8.34072
▁səbəb	-8.34294
▁malik	-8.3454
▁II	-8.34608
sində	-8.34966
et	-8.35126
▁11	-8.35171
▁ay	-8.35247
ro	-8.35351
▁Dünya	-8.35703
sına	-8.35819
▁rus	-8.36356
▁cənub	-8.36361
ğa	-8.36546
qa	-8.36646
▁Göy	-8.36801
▁musiqi	-8.36829
▁19	-8.37028
▁həyata	-8.37058
▁Məhəmməd	-8.37157
▁Ə	-8.37185
el	-8.37272
▁çıxış	-8.37636
▁doğru	-8.3766
▁tarixində	-8.3779
siz	-8.37961
▁о	-8.37962
▁əldə	-8.38295
▁mü	-8.38839
rə	-8.39061
▁vaxt	-8.39191
▁Ar	-8.39235
▁Naxçıvan	-8.39267
▁inzibati	-8.39365
T	-8.39395
▁may	-8.39797
▁hissəsi	-8.39947
▁əlavə	-8.40141
▁Sa	-8.40353
▁dağ	-8.40461
▁13	-8.40495
▁xalq	-8.40586
▁alınmış	-8.4062
▁bəzi	-8.40813
ul	-8.40832
tan	-8.41033
tı	-8.41061
▁dövründə	-8.41424
sını	-8.41652
lo	-8.41802
luq	-8.41985
fi	-8.42686
▁geri	-8.42895
O	-8.43276
ması	-8.43649
ran	-8.43661
▁ərzində	-8.43779
sin	-8.43964
▁başladı	-8.43977
▁üzvü	-8.44017
▁La	-8.44078
əm	-8.44079
▁SSRİ	-8.44349
▁al	-8.44425
▁Həmin	-8.44432
▁ibarətdir	-8.4495
▁ölçülü	-8.44965
▁k	-8.45007
▁yeri	-8.45128
mışdır	-8.4549
▁L	-8.45703
▁həyat	-8.46069
▁qızı	-8.46526
▁ümumi	-8.46708
▁an	-8.4751
▁dəniz	-8.47538
▁Belə	-8.47555
kar	-8.47801
▁idarə	-8.47868
or	-8.4828
▁əsasında	-8.48689
▁illər	-8.48931
kı	-8.48984
ge	-8.49245
▁şəhəri	-8.49539
N	-8.49714
▁gələn	-8.49977
ha	-8.50346
▁başa	-8.51003
▁Ha	-8.51522
▁siyasi	-8.51636
▁xidmət	-8.51774
▁milyon	-8.52083
0	-8.52238
▁Li	-8.52476
00	-8.52616
▁30	-8.52674
▁əmələ	-8.5284
ıb	-8.52857
▁Bundan	-8.53148
▁təsvir	-8.53354
▁üzündə	-8.53397
▁t	-8.53435
▁nəşr	-8.5356
▁təsir	-8.53689
▁De	-8.53841
▁dili	-8.53906
▁Ma	-8.53929
sinə	-8.54454
H	-8.54874
tə	-8.54934
indən	-8.55
▁bunu	-8.55185
zadə	-8.55233
lt	-8.55255
▁Ş	-8.55379
▁Re	-8.55612
Ə	-8.55862
▁etməyə	-8.55873
▁X	-8.56343
sız	-8.56544
▁lakin	-8.56671
▁kadar	-8.56804
▁Onlar	-8.57203
▁rayonu	-8.57232
dığı	-8.57523
▁keçirilən	-8.57535
▁bürcü	-8.57561
▁İlk	-8.57588
Q	-8.57663
▁uyğun	-8.57691
▁dövrdə	-8.57816
▁xarici	-8.58115
▁istehsal	-8.58199
▁di	-8.5829
▁Al	-8.5832
▁əhatə	-8.58337
E	-8.58406
▁vəfat	-8.58435
▁edildi	-8.58595
▁Ko	-8.58645
L	-8.58857
▁müdafiə	-8.58859
▁her	-8.5887
▁kəndində	-8.58919
F	-8.58932
▁yolu	-8.59022
▁məşğul	-8.59062
▁Sultan	-8.59118
dəki	-8.59283
os	-8.5943
▁yanvar	-8.59552
j	-8.59589
min	-8.59708
ib	-8.59757
▁Kataloq	-8.60005
▁qadın	-8.60015
▁yol	-8.60056
▁beynəlxalq	-8.60125
▁edirlər	-8.60455
▁ayında	-8.60537
▁Cənubi	-8.60624
▁Türk	-8.60642
▁Osmanlı	-8.60752
▁səs	-8.60812
do	-8.60858
▁Türkiyə	-8.60934
▁G	-8.60952
▁rayonunda	-8.60955
▁Ra	-8.61097
▁qrup	-8.61129
▁at	-8.61643
▁İran	-8.61704
▁iyun	-8.61759
van	-8.61795
▁aşağı	-8.61855
▁p	-8.61896
tu	-8.6206
▁verən	-8.62088
▁baxmayaraq	-8.62153
▁dilində	-8.62156
gi	-8.62177
▁edilməsi	-8.62624
ova	-8.62635
▁Amerika	-8.62755
▁yanaşı	-8.62934
▁hərəkət	-8.63034
▁yerli	-8.63044
nu	-8.63073
am	-8.63131
yu	-8.63164
▁layiq	-8.6319
▁Ali	-8.63223
az	-8.634
▁təmin	-8.63554
▁Di	-8.63587
▁Qafqaz	-8.63601
ası	-8.63637
ər	-8.63816
iş	-8.63846
▁re	-8.63903
ist	-8.63916
▁mart	-8.64018
dür	-8.6403
▁Sovet	-8.64077
▁Xalq	-8.64414
▁Orta	-8.64481
▁ta	-8.64659
iz	-8.64778
ış	-8.64816
anın	-8.64823
▁ad	-8.64956
ko	-8.65187
mişdir	-8.65213
es	-8.65216
▁No	-8.65331
▁Ne	-8.6537
▁mi	-8.65382
▁növ	-8.65474
▁Universitetinin	-8.65502
▁təmsil	-8.65544
▁hücum	-8.65552
▁Mirzə	-8.65844
▁sağ	-8.65883
məsi	-8.65912
▁Şah	-8.65926
▁əhalisi	-8.65944
▁avqust	-8.66095
▁ola	-8.66143
▁yaşayan	-8.66158
ton	-8.66307
mağa	-8.6634
as	-8.66474
▁inşa	-8.66512
▁neft	-8.66512
fa	-8.66866
▁aprel	-8.66925
▁İslam	-8.67014
▁hal	-8.67121
▁Ən	-8.67198
▁Y	-8.67601
▁değil	-8.67858
▁ailə	-8.67946
▁oktyabr	-8.68092
▁erməni	-8.68171
▁Qarabağ	-8.68282
▁başlayır	-8.68302
▁müasir	-8.6851
▁adını	-8.68511
▁dini	-8.6877
▁rast	-8.68787
▁25	-8.68994
▁dekabr	-8.69022
▁Si	-8.69432
unu	-8.69436
əli	-8.69488
▁rol	-8.69617
▁keçir	-8.69781
▁!	-8.70211
▁açıq	-8.70287
ol	-8.70296
▁keçmiş	-8.70519
no	-8.71068
▁ş	-8.71124
▁çap	-8.71193
▁sentyabr	-8.71361
▁Mərkəzi	-8.71371
V	-8.71439
▁almışdır	-8.71834
son	-8.71866
▁yerinə	-8.72017
▁Ama	-8.72035
ad	-8.72047
▁ile	-8.7222
▁tələb	-8.72235
▁döyüş	-8.72472
▁ali	-8.7253
nd	-8.72572
▁yaş	-8.72581
▁Hər	-8.72726
pa	-8.72851
▁olmaqla	-8.73012
ot	-8.73229
lık	-8.73255
▁insanlar	-8.73391
hi	-8.73473
▁hələ	-8.73781
▁Beynəlxalq	-8.73826
ça	-8.74063
▁qara	-8.74067
▁Se	-8.74107
ak	-8.7432
mir	-8.74588
▁əsrdə	-8.74656
uz	-8.74883
▁qeyri	-8.74907
▁alan	-8.74944
▁ağ	-8.74983
▁yaşayış	-8.75047
▁Daha	-8.75206
mək	-8.75212
ıl	-8.75279
ver	-8.75429
▁təqdim	-8.75461
▁iyi	-8.7558
▁olmayan	-8.75807
▁rəsmi	-8.75881
lerin	-8.76055
▁saat	-8.76058
▁bitki	-8.7637
▁Z	-8.76516
ür	-8.76736
ərək	-8.7687
▁qalaktika	-8.76921
▁v	-8.77291
▁y	-8.77305
▁noyabr	-8.77512
yı	-8.77578
▁iyul	-8.77602
▁Əhməd	-8.77866
▁ə	-8.77902
▁əks	-8.77978
▁onları	-8.77985
▁kəndi	-8.78093
▁Ba	-8.78135
ül	-8.78228
▁barədə	-8.78383
▁hava	-8.78612
▁on	-8.78857
▁məlumat	-8.78933
yev	-8.79096
▁elan	-8.79236
▁f	-8.79254
▁sahəsində	-8.79755
sk	-8.79766
ğı	-8.79796
20	-8.79847
▁elə	-8.79865
▁kişi	-8.79928
▁mövcud	-8.801
▁ama	-8.80253
▁ölkə	-8.80268
▁müəllim	-8.80393
▁Ta	-8.80437
▁malikdir	-8.80883
tar	-8.80968
ley	-8.81038
tik	-8.81072
▁Hacı	-8.81102
▁müşahidə	-8.81147
▁yaşında	-8.81179
▁mühüm	-8.81341
▁dörd	-8.81788
▁metr	-8.81789
▁An	-8.81841
▁olunub	-8.81999
▁fevral	-8.82135
▁özü	-8.8215
▁Ancaq	-8.82196
dü	-8.82361
▁Ay	-8.82407
▁Çin	-8.82452
▁fərqli	-8.82491
▁ictimai	-8.82607
▁özünü	-8.82949
▁söz	-8.83029
▁Olimpiya	-8.83097
ey	-8.83153
▁büyük	-8.83202
▁е	-8.83332
▁ha	-8.83457
▁daxildir	-8.83612
ski	-8.83743
▁100	-8.8375
ovun	-8.83791
▁Həsən	-8.83876
▁daş	-8.83949
miz	-8.84033
▁biridir	-8.84563
▁na	-8.84563
▁Ya	-8.84667
ev	-8.84732
▁sahəsi	-8.84835
▁edə	-8.84896
▁mübarizə	-8.84896
qo	-8.85066
▁iri	-8.85195
mak	-8.85227
I	-8.85284
▁göz	-8.85698
▁qısa	-8.85811
▁2006-	-8.85917
▁qaz	-8.86199
▁dünyanın	-8.86361
▁uzunluğu	-8.86373
▁güclü	-8.86398
dar	-8.86535
▁tə	-8.86655
▁Xəzər	-8.86874
id	-8.86914
izm	-8.87073
▁imkan	-8.87135
2	-8.87259
▁SSR	-8.87273
▁halda	-8.87316
▁_	-8.8736
▁Əliyev	-8.87454
X	-8.87751
▁din	-8.87763
▁edilib	-8.8781
х	-8.87976
▁Ro	-8.88095
▁iqtisadi	-8.88349
▁çay	-8.88424
▁Ni	-8.88603
▁üz	-8.88678
▁gənc	-8.88854
▁ağır	-8.88899
▁ci	-8.88929
▁vəzifəsində	-8.89414
▁Buna	-8.89468
▁təbii	-8.89495
▁meydana	-8.89597
▁Mü	-8.89644
▁Hüseyn	-8.89861
▁ancaq	-8.90023
▁26	-8.90088
▁21	-8.90103
▁Tə	-8.90166
ət	-8.90471
▁Gəncə	-8.90529
▁Mi	-8.9053
▁Ka	-8.9063
▁h	-8.90867
▁sistemi	-8.9095
▁atası	-8.91014
▁bunun	-8.91019
ru	-8.91124
▁yox	-8.91137
liyə	-8.91252
▁ifadə	-8.91378
▁qala	-8.91492
▁dil	-8.91543
▁ana	-8.91754
ng	-8.9188
diyi	-8.91881
▁Qa	-8.92153
▁24	-8.92249
▁tez	-8.92383
xan	-8.92478
▁yanında	-8.92888
▁məktəb	-8.92939
G	-8.93073
▁Fransa	-8.93076
▁Bo	-8.93099
▁Son	-8.93256
▁Pa	-8.93442
▁oyun	-8.93597
▁qərar	-8.93636
▁ifa	-8.93642
▁biz	-8.93669
yla	-8.93726
▁buna	-8.93798
▁quru	-8.93814
▁inkişafı	-8.93848
▁tək	-8.93951
▁Əl	-8.94072
sel	-8.94079
bu	-8.94223
▁vardı	-8.9431
▁ələ	-8.94476
▁insanların	-8.94526
▁əhalinin	-8.94546
▁İn	-8.94649
▁ingilis	-8.94703
▁İkinci	-8.948
▁x	-8.95169
▁aşkar	-8.95232
▁Bakıda	-8.95319
▁mm	-8.95329
▁yaşayır	-8.95376
▁Kar	-8.95553
▁Şimali	-8.95561
▁məğlub	-8.95687
▁hissəsində	-8.95712
▁çayı	-8.96247
▁olsa	-8.9635
▁orada	-8.96396
▁irəli	-8.96496
▁adam	-8.966
aq	-8.96658
▁növü	-8.96737
▁qızıl	-8.96751
▁sistem	-8.96936
▁şair	-8.9694
▁fikir	-8.96969
▁yerdə	-8.97021
▁hansı	-8.97064
▁yıl	-8.97135
▁rayon	-8.97221
▁mə	-8.97516
▁ayrı	-8.97644
▁indiki	-8.97707
▁To	-8.97716
▁Ermənistan	-8.97787
lama	-8.97829
▁tərkibində	-8.98025
▁Ç	-8.98108
ten	-8.98141
▁məqsədi	-8.98272
▁22	-8.98424
ay	-8.98482
▁Mir	-8.98555
▁nasıl	-8.98575
yar	-8.98614
▁illik	-8.98675
▁ma	-8.98703
▁mümkün	-8.98772
▁50	-8.98858
san	-8.98916
▁Da	-8.99229
▁elmləri	-8.99272
lük	-8.99464
▁tətbiq	-8.99537
oloji	-8.99658
dilər	-8.99752
ek	-8.99795
▁Rus	-8.99955
▁müharibəsi	-9.00029
U	-9.00083
▁qardaşı	-9.00111
▁əsr	-9.00303
▁alır	-9.00343
▁torpaq	-9.00343
be	-9.00724
məyə	-9.00759
▁verdi	-9.00762
len	-9.00818
▁ön	-9.00949
▁yoxdur	-9.01056
ed	-9.01101
▁XIX	-9.01125
▁Moskva	-9.01131
▁ö	-9.01189
▁birgə	-9.01281
▁Kənd	-9.01292
siya	-9.01441
▁Roma	-9.01445
▁filmi	-9.01479
▁başlamışdır	-9.01651
▁23	-9.01665
ağa	-9.01808
ım	-9.01832
kin	-9.01841
vari	-9.01863
▁alman	-9.02029
▁kitab	-9.02161
▁yəni	-9.02257
▁III	-9.02329
▁0	-9.02336
var	-9.02403
▁2010-	-9.02526
▁ka	-9.02546
▁El	-9.02592
▁2016-	-9.02597
mışdı	-9.02631
▁uşaq	-9.0268
▁ölkənin	-9.02722
şa	-9.02799
▁önce	-9.02985
qan	-9.03024
▁təklif	-9.03209
çu	-9.03258
bə	-9.03408
▁onlara	-9.03557
▁Universiteti	-9.03623
▁of	-9.03659
bir	-9.03696
▁düymə	-9.03776
▁əhəmiyyətli	-9.03979
gt	-9.04084
▁Ağa	-9.04097
▁top	-9.0415
ut	-9.04259
▁Ağ	-9.04285
▁yaxınlığında	-9.04293
▁əlaqədar	-9.04544
▁Le	-9.04681
▁hakimiyyəti	-9.04721
tır	-9.04725
▁işləri	-9.04851
ken	-9.04907
▁27	-9.04955
▁məktəbi	-9.04962
unda	-9.05098
▁sahib	-9.05117
▁sadece	-9.0518
kan	-9.05183
к	-9.05258
▁Ku	-9.05319
▁28	-9.05331
▁doktoru	-9.05488
▁azad	-9.05549
▁1992-	-9.05707
▁vahidində	-9.05758
▁həsr	-9.05771
▁2009-	-9.05833
▁təxminən	-9.0593
tin	-9.05938
sal	-9.05983
mek	-9.06011
▁ayının	-9.06186
▁adası	-9.06373
▁silah	-9.06542
▁Ben	-9.06581
tal	-9.06691
sen	-9.06748
▁Şərq	-9.06748
▁ciddi	-9.06819
▁gözəl	-9.06874
▁beş	-9.0692
▁Bar	-9.06997
▁nəzərdə	-9.07009
▁şah	-9.07109
▁pul	-9.07123
▁dünyada	-9.07157
alı	-9.0716
▁daxili	-9.07179
▁dünyaya	-9.07261
▁Bütün	-9.07297
▁mədəniyyət	-9.07316
▁ədəd	-9.07399
▁yaxud	-9.07432
ke	-9.07471
▁işçi	-9.0753
▁etmişdi	-9.07583
▁Me	-9.07603
▁futbol	-9.07712
asiya	-9.07768
▁te	-9.07797
▁2012-	-9.07819
lerini	-9.07877
▁üzərinə	-9.07956
▁yaradılmışdır	-9.08139
▁sol	-9.0816
mo	-9.08345
▁şu	-9.08528
xa	-9.08537
▁hətta	-9.08618
▁bərabər	-9.08651
men	-9.08761
▁komanda	-9.08783
▁olmaq	-9.08838
▁2015-	-9.08853
▁professor	-9.08998
ch	-9.09068
▁sədri	-9.09098
ss	-9.09155
Ş	-9.09213
▁Yay	-9.09368
▁cümlədən	-9.09384
▁qalan	-9.09412
▁sosial	-9.09663
▁Qızıl	-9.09781
▁yara	-9.09802
ron	-9.09864
▁ticarət	-9.09933
od	-9.10063
▁He	-9.10073
▁2011-	-9.10214
▁fazla	-9.1029
▁idman	-9.10303
əl	-9.10344
▁Bi	-9.10352
acaq	-9.10358
ve	-9.10371
▁İrəvan	-9.10512
▁Birinci	-9.10555
▁rəng	-9.10653
▁Bə	-9.10671
der	-9.1074
gen	-9.10883
▁me	-9.10887
▁almaq	-9.10939
▁Mo	-9.10957
▁elm	-9.1107
▁ak	-9.11115
▁Sə	-9.11141
▁şəklində	-9.11172
▁bizim	-9.11255
▁bəzən	-9.11348
▁2013-	-9.11423
▁En	-9.1147
▁sonunda	-9.11501
▁se	-9.11517
▁Ri	-9.11723
▁sözü	-9.11775
una	-9.11775
▁San	-9.118
▁2014-	-9.11832
▁qol	-9.11901
dim	-9.11939
və	-9.1201
▁siyahısı	-9.12126
▁boyunca	-9.12189
▁çünkü	-9.12214
▁Qu	-9.124
▁Onların	-9.12428
▁Hal	-9.12492
▁ada	-9.1251
▁dövr	-9.12641
ts	-9.12693
▁çoxlu	-9.12706
▁ibn	-9.12785
▁yuxarı	-9.12844
əsi	-9.13027
▁olmuşdu	-9.13401
▁cavab	-9.13457
▁ərəb	-9.13498
▁hiss	-9.13981
oz	-9.14091
▁Yer	-9.14116
▁Mən	-9.14119
▁1990-	-9.14157
▁Fa	-9.14175
qi	-9.14369
▁İnstitutunun	-9.14538
▁zəngin	-9.14601
▁Yu	-9.14641
▁Məmməd	-9.14664
▁The	-9.14679
▁Bunun	-9.14719
▁bədii	-9.14723
▁əhali	-9.148
▁hadisə	-9.14816
ga	-9.14851
▁kar	-9.14864
▁işıq	-9.15011
▁verilmişdir	-9.15025
▁həbs	-9.15031
ll	-9.15092
▁dair	-9.15171
▁asılı	-9.15173
▁təhsilini	-9.15191
▁say	-9.1523
▁2008-	-9.15253
lığa	-9.15395
çilik	-9.15453
▁Film	-9.15466
əddin	-9.15551
▁azərbaycanlı	-9.15588
▁ətrafında	-9.15595
ber	-9.1561
▁bilir	-9.15666
onun	-9.15729
▁eləcə	-9.1584
▁ben	-9.15881
▁29	-9.15888
▁İki	-9.16099
oğlu	-9.16142
▁işğal	-9.1618
çə	-9.16206
▁mövcuddur	-9.16265
▁Hazırda	-9.16289
iyyət	-9.16321
▁təsdiq	-9.16362
▁əvəz	-9.16381
iyyə	-9.16408
▁forma	-9.16487
mı	-9.16491
▁şekilde	-9.16527
▁kömək	-9.1662
▁şəhərinin	-9.16675
▁İranın	-9.16805
▁rəhbərliyi	-9.16812
▁la	-9.16836
▁Ye	-9.16867
▁güc	-9.16878
▁bağ	-9.16981
mer	-9.16982
▁Almaniya	-9.1706
▁olundu	-9.17151
▁tərk	-9.17335
ub	-9.17342
▁İbrahim	-9.17346
▁tanınmış	-9.17445
▁Lo	-9.17473
▁özünün	-9.17574
▁təltif	-9.17684
▁kon	-9.17755
lere	-9.17774
▁40	-9.17783
▁Ca	-9.17805
▁şəhərin	-9.17835
▁Ho	-9.17851
▁boyu	-9.17881
▁iddia	-9.17942
▁gəldi	-9.18018
▁So	-9.1802
▁as	-9.18024
▁kendi	-9.18232
▁müdiri	-9.18345
▁Nə	-9.18363
▁Tu	-9.18456
▁Sonra	-9.18526
▁dərs	-9.18532
▁üçüncü	-9.18554
▁aldı	-9.18554
▁tədris	-9.18565
ək	-9.18596
▁xəbər	-9.1866
ö	-9.1869
▁tut	-9.18724
▁fəal	-9.18968
çe	-9.1899
▁təsiri	-9.19018
şi	-9.19018
▁paytaxtı	-9.19099
▁müavini	-9.19127
▁plan	-9.19134
▁günü	-9.19161
▁saylı	-9.19278
▁tutan	-9.19398
▁rəhbərlik	-9.19408
▁1-	-9.19436
lanma	-9.19439
▁Qərbi	-9.19483
rı	-9.19634
ologiya	-9.19644
▁Afrika	-9.19879
▁demək	-9.20041
▁məxsus	-9.20062
▁sahilində	-9.20129
▁çayının	-9.20186
▁bərpa	-9.20206
▁fəaliyyəti	-9.20244
▁=	-9.20261
mar	-9.2035
▁XX	-9.20425
laşma	-9.20565
▁а	-9.20604
maz	-9.20607
▁etibarən	-9.20708
▁cəlb	-9.20723
sta	-9.20761
ından	-9.20775
lılar	-9.2093
▁şərq	-9.20935
▁Xan	-9.21004
ent	-9.2105
dılar	-9.21181
▁meşə	-9.21495
▁nın	-9.21589
▁yardım	-9.21615
luğu	-9.21643
▁ordu	-9.21783
ılmış	-9.21803
▁şəxs	-9.21814
▁aşağıdakı	-9.21868
▁qız	-9.21918
dək	-9.21963
ku	-9.22003
ok	-9.22003
▁si	-9.22051
▁hakim	-9.22056
▁Za	-9.22058
▁işlər	-9.22201
öv	-9.22229
▁bi	-9.22249
▁Kiçik	-9.22369
▁əsəri	-9.22507
▁2017-	-9.22512
▁cür	-9.22556
▁Te	-9.22642
▁alıb	-9.22816
▁Şərqi	-9.22835
▁ara	-9.22847
▁Britaniya	-9.22879
▁°	-9.22952
rik	-9.23015
▁yük	-9.2307
tir	-9.23109
▁yayılmışdır	-9.23206
▁Və	-9.23283
▁Şimal	-9.23287
▁xüsusilə	-9.23327
▁r	-9.23444
▁sa	-9.23487
▁teatr	-9.23525
▁mahnı	-9.23565
▁mu	-9.23662
▁As	-9.23666
ılır	-9.23783
▁anası	-9.23799
▁Abbas	-9.23849
▁tamam	-9.23903
с	-9.23926
▁Elmi	-9.24006
▁pro	-9.24114
▁2000-	-9.2421
▁sıx	-9.24306
▁əlaqə	-9.24335
▁maraq	-9.24341
▁Bununla	-9.2438
▁mədəni	-9.24401
▁isti	-9.24411
▁2005-	-9.24452
ylə	-9.24599
▁işi	-9.24615
▁məhv	-9.24615
dik	-9.24663
▁Şa	-9.2467
▁çalış	-9.24681
▁tarix	-9.2478
▁ortaya	-9.24902
▁Hi	-9.24923
ze	-9.24935
▁ondan	-9.24952
tez	-9.24996
▁2007-	-9.2508
▁Məsələn	-9.25173
mu	-9.25316
bo	-9.2532
▁qrupu	-9.2536
▁g	-9.25401
▁Gürcüstan	-9.25445
▁yazıçı	-9.25475
▁göstərən	-9.2549
▁Her	-9.25677
▁iç	-9.25717
▁br	-9.258
▁31	-9.26076
ab	-9.2613
▁1999-	-9.26268
▁ordusu	-9.26353
▁dövrü	-9.26387
▁vermişdir	-9.26431
▁Paşa	-9.26512
rd	-9.26552
uş	-9.26554
niz	-9.26572
pe	-9.26703
▁yüz	-9.2678
▁qazandı	-9.26807
Y	-9.26877
▁Amma	-9.26943
▁İsa	-9.27051
▁el	-9.27202
▁fransız	-9.27234
pi	-9.27301
▁kal	-9.27364
▁istehsalı	-9.27465
▁Ti	-9.27501
▁nümayiş	-9.27516
▁Kür	-9.27577
rin	-9.27583
▁avtomobil	-9.27658
▁Kon	-9.27671
▁qərb	-9.27748
▁yan	-9.2777
▁müqavilə	-9.27857
▁xanım	-9.27972
▁tanış	-9.28026
▁sənaye	-9.28028
▁Yaponiya	-9.28029
▁*	-9.28036
▁nisbətən	-9.28165
▁müstəqil	-9.28317
üm	-9.28337
▁yaşlı	-9.28361
hazırda	-9.28393
ant	-9.28429
çay	-9.28497
▁sahibi	-9.28519
▁hüquq	-9.28552
zə	-9.28574
▁müsəlman	-9.28597
▁xanın	-9.28761
▁aynı	-9.28806
▁Yusif	-9.28843
▁Mu	-9.29013
▁həll	-9.29041
▁tərəfdən	-9.29059
▁tutur	-9.29202
▁ver	-9.29226
▁işləmişdir	-9.29342
▁qan	-9.29385
▁düşür	-9.29422
▁etmə	-9.29433
▁Co	-9.29485
ban	-9.29509
▁gəlmişdir	-9.29576
▁Con	-9.29581
▁Or	-9.29618
▁Şirvan	-9.29646
▁tarixli	-9.29672
▁adlanır	-9.29815
▁rəhbəri	-9.29874
▁məhz	-9.29878
▁gecə	-9.29935
▁prezidenti	-9.3014
3	-9.30174
▁nin	-9.30233
▁əvvəllərində	-9.30246
▁c	-9.30268
qu	-9.30269
▁müharibə	-9.30345
▁çıxan	-9.30394
▁Allah	-9.30439
▁enerji	-9.30441
qə	-9.3046
▁Man	-9.30492
şə	-9.30517
yo	-9.30567
▁Kor	-9.30577
▁naziri	-9.30595
▁sərhəd	-9.30662
▁tüm	-9.30671
▁2002-	-9.30702
▁Bəzi	-9.30763
▁yazı	-9.30917
▁gəlib	-9.30978
▁aktyor	-9.31004
▁Qədim	-9.31021
▁2-	-9.3105
▁bundan	-9.31087
▁ye	-9.31203
ks	-9.3127
bar	-9.31418
▁Va	-9.31439
▁kino	-9.31525
▁yazır	-9.3157
▁ç	-9.31572
▁medal	-9.31627
▁benim	-9.31688
▁Qo	-9.31737
▁nəzərə	-9.31771
▁Əmir	-9.31774
▁bitirmişdir	-9.31789
▁çalışır	-9.31822
▁Asiya	-9.31835
▁Pi	-9.31906
▁olunması	-9.31981
▁kullan	-9.32032
▁rejissor	-9.32071
ör	-9.32085
tur	-9.32149
▁Elmlər	-9.32209
▁xal	-9.32336
▁aiddir	-9.32497
▁üstünlük	-9.3253
▁qarşısında	-9.32532
▁məlum	-9.32569
lin	-9.32603
▁hazır	-9.32746
▁tamamilə	-9.32826
▁ba	-9.32848
▁formula	-9.3297
▁Ü	-9.33058
▁dəmir	-9.3306
▁diqqət	-9.33098
▁həyatı	-9.33108
▁gerçekten	-9.33172
▁Beləliklə	-9.33255
lənir	-9.33338
yer	-9.33449
▁ağac	-9.33633
▁məruz	-9.33747
lov	-9.33929
▁Vi	-9.33938
▁cəhətdən	-9.33965
▁verdiyi	-9.33966
▁bəhs	-9.33996
▁ağa	-9.34026
▁etməsi	-9.34109
▁tərcümə	-9.34244
can	-9.34278
▁dəfn	-9.34373
▁kilsə	-9.34464
ser	-9.34519
▁Ak	-9.34521
sın	-9.34525
▁metal	-9.34536
ine	-9.34605
lidir	-9.34694
▁Aleksandr	-9.34906
▁ata	-9.34916
▁aydın	-9.34934
▁1993-	-9.3495
▁Qar	-9.35021
ydi	-9.35039
▁parça	-9.35071
▁vermiş	-9.351
▁ərazidə	-9.35169
▁Be	-9.35185
▁illərində	-9.35201
stan	-9.35347
han	-9.3538
▁bina	-9.35408
▁sal	-9.35494
▁Müqəddəs	-9.35518
▁ulduz	-9.35524
▁İspaniya	-9.35525
▁sənət	-9.35732
abad	-9.35786
▁müəllifi	-9.35815
▁Məmmədov	-9.35944
▁arasındakı	-9.36033
▁alim	-9.36224
▁dəqiq	-9.36252
▁Biz	-9.36255
lanmış	-9.36264
ator	-9.36294
▁’	-9.36364
▁hakkında	-9.36374
▁2004-	-9.36456
▁Yani	-9.36574
▁diğer	-9.36597
▁lazım	-9.366
▁əsərləri	-9.3667
▁lazımdır	-9.36678
▁kitabı	-9.36702
▁düş	-9.36703
▁yerə	-9.3671
ster	-9.36715
▁olma	-9.36721
▁qalib	-9.36721
▁görkəmli	-9.36752
▁dərin	-9.37013
▁uğrunda	-9.37115
▁keçən	-9.37141
▁Həmçinin	-9.37168
▁mal	-9.37179
▁mərkəzində	-9.37183
xana	-9.37189
▁Şimdi	-9.37219
▁Heydər	-9.37274
▁sovet	-9.37299
po	-9.37346
▁ar	-9.37506
▁+	-9.37531
oy	-9.37549
▁Əgər	-9.37577
▁çıxır	-9.37582
ah	-9.37597
▁şəxsi	-9.37623
▁Az	-9.37674
▁Ev	-9.37714
suz	-9.37752
▁yoldaşı	-9.37776
lığın	-9.37777
▁üst	-9.37817
▁18.7	-9.37835
▁sadə	-9.37886
▁1991-	-9.37889
▁təlim	-9.37891
▁gedən	-9.37895
▁47.5	-9.37951
ing	-9.37992
▁Xa	-9.38033
▁Universitetində	-9.38131
▁deyilir	-9.38183
sindən	-9.38295
▁mükafatı	-9.38339
▁Digər	-9.38384
▁ölüm	-9.38396
1	-9.38412
▁incəsənət	-9.38419
▁Ana	-9.38553
xi	-9.38692
▁məqsədilə	-9.38715
▁özünə	-9.38841
if	-9.38885
▁səfər	-9.39035
th	-9.39121
▁görülmüşdür	-9.39207
▁Əsas	-9.39216
▁insanın	-9.39231
lat	-9.3926
▁təsərrüfatı	-9.39312
▁xeyli	-9.3932
▁1918-	-9.39326
▁maliyyə	-9.39339
▁Oyunlarında	-9.39442
so	-9.3946
vin	-9.39464
▁kol	-9.39551
lanan	-9.39627
▁Hindistan	-9.39754
▁IV	-9.39756
▁ni	-9.39872
co	-9.3993
▁əksəriyyəti	-9.39962
▁Çox	-9.40045
▁İtaliya	-9.40124
▁Mə	-9.40277
▁Muxtar	-9.4028
▁içərisində	-9.40366
▁sahip	-9.4039
▁qa	-9.40405
▁düz	-9.40444
din	-9.40607
▁fəlsəfə	-9.4068
nik	-9.40688
▁Po	-9.40769
▁altı	-9.40827
qar	-9.40865
ana	-9.40868
▁farklı	-9.40873
▁indi	-9.40876
▁verilir	-9.40947
▁çalışmışdır	-9.40971
▁Hərbi	-9.40997
▁zəif	-9.41046
▁Ki	-9.41095
siniz	-9.41194
▁əmək	-9.41196
▁sayda	-9.4125
▁polis	-9.41307
▁va	-9.41336
▁içinde	-9.41418
▁yazdığı	-9.41507
▁ədəbi	-9.41521
▁elektrik	-9.41521
▁təşkilat	-9.41526
▁А	-9.41615
▁et	-9.41727
fe	-9.41757
▁rəssam	-9.4177
fə	-9.41781
▁Pro	-9.41813
▁hallarda	-9.4191
10	-9.41939
▁60	-9.41946
▁etdilər	-9.41957
▁ın	-9.42107
▁yaradılması	-9.42145
▁real	-9.42164
▁Şəhər	-9.42253
▁gəmi	-9.42345
▁əvvəlki	-9.42411
ы	-9.4255
kən	-9.42632
▁qar	-9.42715
▁izah	-9.42772
▁Eyni	-9.42798
▁Bil	-9.42804
▁ərazisi	-9.42805
▁yay	-9.42899
▁içində	-9.42975
▁edirdilər	-9.42993
nız	-9.43015
op	-9.43198
▁iz	-9.43356
sun	-9.43375
▁roman	-9.43464
▁İsmayıl	-9.43499
▁öncə	-9.4351
▁başçısı	-9.43541
▁yarım	-9.43558
▁ətraf	-9.43601
▁un	-9.43647
▁Lu	-9.43654
rt	-9.43699
▁başka	-9.43714
▁ölkədə	-9.43748
▁bunlar	-9.43762
▁qırmızı	-9.43792
▁möhkəm	-9.43913
mağı	-9.43941
▁verilən	-9.4397
▁model	-9.43975
▁adətən	-9.44092
▁Gül	-9.44134
▁bələdiyyəsi	-9.44172
▁yunan	-9.44186
▁informasiya	-9.44193
▁gətirir	-9.44223
▁do	-9.44273
▁Qırmızı	-9.443
▁Bunu	-9.44313
em	-9.44344
.19	-9.44353
▁Ber	-9.44407
▁Pe	-9.44457
▁kəs	-9.44598
▁layihə	-9.44676
▁sonrakı	-9.44699
▁xüsusiyyətləri	-9.44743
▁tek	-9.44746
▁Ukrayna	-9.44749
▁adlanan	-9.44868
▁rəngli	-9.44888
▁saray	-9.45046
ndakı	-9.45064
uq	-9.45077
liyini	-9.45082
▁qat	-9.45089
ner	-9.4509
▁nəfəri	-9.45156
▁yaradır	-9.45198
▁bax	-9.45241
gü	-9.45415
▁Ərəb	-9.45471
▁Rusiyanın	-9.45489
inq	-9.4557
▁dəvət	-9.45578
▁yaz	-9.45608
▁artır	-9.45621
▁nəticə	-9.45709
▁tədqiqat	-9.45712
tra	-9.45715
▁qalır	-9.45767
▁Akademiyasının	-9.45846
bil	-9.45875
zu	-9.45951
▁başlayaraq	-9.46217
▁mineral	-9.46236
▁mürəkkəb	-9.46385
▁uzaq	-9.46391
ıyor	-9.46447
ünü	-9.46489
mır	-9.46549
▁Cənub	-9.46659
▁Birləşmiş	-9.46695
▁heyvan	-9.46877
▁mərkəz	-9.46994
▁nümayəndələri	-9.47011
▁temperatur	-9.47075
▁alt	-9.47089
▁Ge	-9.47141
ada	-9.47162
namə	-9.47179
yon	-9.47182
anı	-9.47286
н	-9.47324
▁Misir	-9.47343
▁Şəki	-9.47346
ip	-9.47356
ılması	-9.47521
▁miqdarı	-9.4755
▁müraciət	-9.47589
▁qəzet	-9.47606
lənmiş	-9.47623
▁Quba	-9.47646
▁Lənkəran	-9.47665
▁gizli	-9.47675
11	-9.47835
▁gəlmiş	-9.47862
▁nəzarət	-9.47871
gin	-9.48011
▁gəlinir	-9.48026
▁Nyu	-9.48038
▁mahnısı	-9.48066
vr	-9.48207
kənd	-9.48213
▁qələbə	-9.48246
▁Şeyx	-9.48342
▁Bunlar	-9.48389
▁Mor	-9.48448
mət	-9.48482
3-	-9.48484
50	-9.48515
▁Fi	-9.48549
▁ilgili	-9.48672
ika	-9.48739
▁yağ	-9.48786
▁təsis	-9.48827
mur	-9.48884
ıq	-9.48915
▁gör	-9.48963
inde	-9.49053
▁necə	-9.49133
▁fiziki	-9.49145
▁May	-9.49178
▁2003-	-9.49186
▁hissə	-9.49196
▁sə	-9.49226
▁dedi	-9.49258
у	-9.49276
▁3-	-9.49323
▁fərq	-9.49379
▁u	-9.4939
▁tərəf	-9.49413
▁ko	-9.49438
lay	-9.49459
sından	-9.49477
ləşmə	-9.49526
oviç	-9.49527
▁ölümündən	-9.4953
▁çar	-9.49637
ker	-9.49659
lis	-9.49698
▁İngiltərə	-9.49757
▁ərazisinə	-9.49792
▁icra	-9.49983
▁əsər	-9.50207
▁gedir	-9.50239
▁Öz	-9.50304
▁canlı	-9.50325
liyinə	-9.50381
▁Süleyman	-9.50479
▁görüş	-9.50575
▁Ada	-9.50591
▁etdirir	-9.50643
▁təkrar	-9.50687
gər	-9.50709
bəyli	-9.5074
lanır	-9.50745
ecek	-9.50796
▁Do	-9.50798
▁li	-9.50815
▁elmlər	-9.50863
▁imza	-9.50883
▁dağı	-9.5091
▁Mar	-9.50962
▁önemli	-9.51037
lənmə	-9.51055
▁cinsi	-9.5107
▁Seyid	-9.51086
▁yeganə	-9.51139
▁çıxar	-9.51153
iyə	-9.51167
gu	-9.51298
ns	-9.51389
▁Hə	-9.51411
▁deməkdir	-9.51413
▁proqram	-9.51416
malı	-9.51432
▁işə	-9.51542
▁Er	-9.51556
▁Sü	-9.51659
▁amma	-9.51741
sən	-9.51772
▁Mustafa	-9.51854
muş	-9.51976
ger	-9.52049
▁bile	-9.52091
laq	-9.52165
▁klub	-9.52175
▁Şuşa	-9.52179
▁Ər	-9.52263
▁müəllifidir	-9.52275
▁giriş	-9.52281
▁televiziya	-9.52348
▁olunurdu	-9.52451
lanması	-9.52521
▁dənizi	-9.52563
▁albom	-9.52567
▁bilgi	-9.52608
▁partiya	-9.52616
▁nadir	-9.52656
▁xətti	-9.52674
acak	-9.52691
▁məntəqəsi	-9.52716
▁ol	-9.52733
yin	-9.52834
▁illərin	-9.52845
ff	-9.52846
▁növləri	-9.52881
▁fəxri	-9.52918
▁qərarı	-9.52966
▁bas	-9.53019
▁mən	-9.53041
▁Ab	-9.5305
▁Neft	-9.53071
ck	-9.53072
▁bitirib	-9.53084
▁tutdu	-9.53118
▁tip	-9.53156
▁adaları	-9.53218
let	-9.53252
▁qida	-9.53255
и	-9.53325
▁yok	-9.53362
fer	-9.53412
1-	-9.53415
▁art	-9.53427
▁Har	-9.53436
mişdi	-9.53455
ünün	-9.53477
▁məcbur	-9.53582
▁Ona	-9.53627
▁əsrlərdə	-9.53748
б	-9.53749
▁and	-9.53817
▁Şamaxı	-9.53865
deki	-9.53986
▁bar	-9.5402
ydı	-9.54068
▁yaradılmış	-9.54152
▁At	-9.54156
▁direktoru	-9.5416
atı	-9.54187
▁sonradan	-9.54328
ft	-9.5437
▁Yan	-9.54377
laş	-9.54399
▁deyə	-9.54418
▁arxa	-9.54491
▁Mak	-9.54561
ren	-9.54603
▁gir	-9.54784
ebilir	-9.54824
▁kəndin	-9.54825
gə	-9.54863
▁kor	-9.54913
▁sahil	-9.5495
daki	-9.54954
▁be	-9.54954
▁Per	-9.54986
▁Şi	-9.55044
▁göstərmişdir	-9.55079
▁şəhid	-9.5512
mon	-9.55153
▁daxilində	-9.55262
▁Mahnı	-9.55296
▁almış	-9.55304
nt	-9.55375
▁çətin	-9.55388
,5	-9.55482
▁inan	-9.55539
▁təbiət	-9.55559
amp	-9.55587
▁nail	-9.55594
▁hazırda	-9.55613
ic	-9.5564
▁üzvləri	-9.55666
▁dərc	-9.55724
▁qanun	-9.55737
▁rolu	-9.55758
▁Təhsil	-9.55882
▁hissəsini	-9.55918
▁Dəniz	-9.55944
▁dəstək	-9.55982
▁Du	-9.5601
tor	-9.56027
dağ	-9.56098
▁İl	-9.56116
▁bal	-9.56117
▁universitet	-9.56138
▁vergi	-9.56262
sine	-9.56379
▁sonralar	-9.56379
▁1920-	-9.56437
2-	-9.56465
▁ailəsi	-9.56544
▁mövzusunda	-9.56737
▁dəstə	-9.56982
▁olduqca	-9.56983
▁general	-9.57039
▁para	-9.57111
▁memarlıq	-9.57152
▁müvafiq	-9.57239
▁hə	-9.57249
lənməsi	-9.57388
▁vahid	-9.57425
▁ca	-9.57451
18	-9.57482
dr	-9.57485
▁çatır	-9.5749
aya	-9.57507
▁Rə	-9.5755
▁ailəsində	-9.57578
▁aslında	-9.57618
▁pis	-9.57634
▁həftə	-9.57714
▁üsyan	-9.57735
yor	-9.57846
bəyov	-9.57907
▁2001-	-9.57907
▁Ara	-9.57958
zı	-9.58012
0-	-9.58075
qdan	-9.58138
ment	-9.58216
▁cəmi	-9.58237
▁üzü	-9.58256
▁küçük	-9.58322
rat	-9.58349
▁olmasına	-9.58364
▁dövləti	-9.58389
▁dəstəsi	-9.58412
əcək	-9.5849
▁Respublika	-9.58494
▁köməyi	-9.58549
▁hündürlüyü	-9.58596
▁hazırlanmış	-9.58619
▁tabe	-9.58622
vo	-9.58642
▁Prezidenti	-9.5868
abilir	-9.58736
▁yaşadığı	-9.58745
▁Çünki	-9.58794
▁the	-9.588
▁video	-9.58837
▁ruh	-9.58876
-1	-9.58882
▁Mahmud	-9.58889
▁ermənilər	-9.58919
▁sürü	-9.58959
▁keçirilir	-9.58964
▁əhalisinin	-9.59
bat	-9.59043
12	-9.59049
▁mərhələsində	-9.59059
▁AMEA	-9.59063
bər	-9.59165
▁kim	-9.59189
▁siyahıya	-9.5922
▁başlayan	-9.59256
▁deyir	-9.59286
ud	-9.59292
▁aldığı	-9.59353
▁ət	-9.59817
▁Ça	-9.59919
▁Əbu	-9.60084
▁gücü	-9.6019
ji	-9.60234
eri	-9.60278
▁veya	-9.6032
▁səhnə	-9.60341
▁Ölkə	-9.60359
▁təyyarə	-9.60362
▁təsadüf	-9.60392
arkən	-9.6044
▁rəisi	-9.60461
hə	-9.60469
▁Gülüşmeler	-9.60496
▁Uzun	-9.60572
▁həmişə	-9.60595
▁kimya	-9.60712
▁Qərb	-9.60752
▁əsl	-9.60753
▁yaşı	-9.60775
▁respublika	-9.60785
▁bildirir	-9.60808
▁çalışan	-9.60811
09	-9.60839
▁İnstitutunda	-9.6084
▁Ey	-9.60905
iyor	-9.60948
▁hesabı	-9.60956
▁çünki	-9.60989
▁övladı	-9.61014
▁şərait	-9.61218
▁Kanada	-9.61266
▁gümüş	-9.61308
▁abidə	-9.6132
▁qatıldı	-9.61342
▁İnsan	-9.61353
▁göstərmək	-9.61355
▁Avstriya	-9.61385
▁1994-	-9.61402
▁adları	-9.61412
▁J	-9.61473
▁yetir	-9.61526
▁sübut	-9.61552
▁kral	-9.61569
▁Mədəniyyət	-9.61585
daş	-9.61595
▁Qala	-9.61673
▁bölgə	-9.61682
▁qəzeti	-9.61688
▁şeyler	-9.61704
land	-9.61719
▁Aşağı	-9.6174
▁məktəbində	-9.6193
▁fars	-9.61938
▁şirkəti	-9.61973
▁Rayon	-9.62009
▁kifayət	-9.62116
▁karşı	-9.62117
▁sinif	-9.62137
▁məscid	-9.62287
şərq	-9.62294
▁Polşa	-9.62362
▁İnstitutu	-9.6248
▁əsasını	-9.62499
▁Dağ	-9.62519
▁ədəbiyyat	-9.62541
▁əsir	-9.62568
iq	-9.62697
▁prosesi	-9.62712
▁1980-	-9.62717
▁kompüter	-9.62785
▁tərkibinə	-9.62826
▁z	-9.62833
▁35	-9.62943
zar	-9.62975
▁köhnə	-9.62987
▁məktub	-9.62999
▁cəhd	-9.63022
ax	-9.6305
▁üzv	-9.63098
▁Vətən	-9.63103
▁Üç	-9.63173
▁bağlıdır	-9.63232
▁fa	-9.63363
▁ləğv	-9.63391
sü	-9.63484
▁soru	-9.635
▁Kal	-9.63542
▁səbəbi	-9.63543
▁kənddə	-9.6356
▁məhkəmə	-9.63562
▁sayılır	-9.63603
13	-9.63664
w	-9.63678
▁Teymur	-9.63696
▁problem	-9.637
sti	-9.63718
▁Kitab	-9.63725
▁tələbə	-9.63728
▁yazılmış	-9.63825
liyin	-9.6383
▁Qazax	-9.63877
isi	-9.63889
ıldı	-9.63903
iki	-9.63923
▁hökumət	-9.63925
▁İstanbul	-9.63929
▁İş	-9.63969
▁qadınlar	-9.64011
▁ise	-9.64012
▁Paris	-9.64073
dığını	-9.6408
▁yumurta	-9.64087
ıcı	-9.6411
Bu	-9.64134
`	-9.64205
▁həkim	-9.64216
çılar	-9.64349
▁ədəbiyyatı	-9.64439
▁neden	-9.6456
▁eni	-9.64606
▁Kan	-9.64617
▁nəfərdir	-9.64641
ıp	-9.64743
▁seç	-9.64749
▁♫	-9.64751
▁1998-	-9.64762
▁xilas	-9.6482
maya	-9.64824
mat	-9.64842
▁meyvə	-9.64895
▁radio	-9.64941
per	-9.64996
▁vəzifəsinə	-9.65004
▁tərtib	-9.65013
▁özündə	-9.65013
▁olduğundan	-9.65017
▁san	-9.65079
▁mümkündür	-9.65232
▁Hava	-9.65248
mız	-9.65286
▁saxla	-9.65327
▁istiqamət	-9.65355
▁çevir	-9.65357
mal	-9.65367
▁so	-9.65378
kt	-9.65408
▁onunla	-9.65472
▁məsələn	-9.65575
çılıq	-9.65578
▁W	-9.65641
▁Günəş	-9.65652
▁dövlətinin	-9.65667
▁sülh	-9.65678
▁elektron	-9.65717
▁başlayıb	-9.65762
▁təcrübə	-9.65798
▁klubu	-9.65811
▁Araz	-9.65816
▁dön	-9.65836
imi	-9.65861
▁Ağdam	-9.65863
▁boz	-9.65915
▁şərəfinə	-9.65941
▁Tur	-9.65977
▁Dil	-9.66013
▁kəskin	-9.66043
▁Avstraliya	-9.66095
▁bana	-9.66131
▁70	-9.66147
▁to	-9.66165
ho	-9.66166
▁filmlərinin	-9.6618
▁düşmən	-9.66196
▁ilkin	-9.66282
▁qatı	-9.66483
▁sev	-9.66534
▁Molla	-9.66558
▁katibi	-9.66589
▁hökuməti	-9.66623
▁ed	-9.66627
▁göl	-9.66702
▁vaxtı	-9.6678
şı	-9.66831
▁filmin	-9.6686
▁aktiv	-9.66883
▁xadimi	-9.6689
▁sayəsində	-9.67006
laşdırılması	-9.67092
▁daşıyır	-9.67094
kdən	-9.67139
▁icazə	-9.67141
▁tibb	-9.67268
▁Komitəsinin	-9.67272
▁с	-9.67293
▁maraqlı	-9.67362
▁hakimi	-9.67516
▁İncəsənət	-9.67563
▁görün	-9.67578
manın	-9.67597
▁xristian	-9.67635
▁Bay	-9.67656
sar	-9.67659
▁can	-9.6783
▁dərəcə	-9.67891
▁olurdu	-9.68008
▁çıkar	-9.68012
▁200	-9.68024
▁1988-	-9.68104
▁yenə	-9.68132
ld	-9.68137
ayrı	-9.68181
▁şeyi	-9.68197
▁yayım	-9.68216
▁nümayəndəsi	-9.68245
▁ehtimal	-9.6825
ram	-9.68259
▁iqlim	-9.6826
▁çəki	-9.68297
▁nəticəsi	-9.68379
▁çalışma	-9.68384
▁əməliyyat	-9.68391
kon	-9.68531
▁mənsub	-9.68553
▁hadisələr	-9.68587
val	-9.68587
▁texniki	-9.68622
▁Şu	-9.68655
▁ölçü	-9.68673
▁edilirdi	-9.68685
rit	-9.68764
▁is	-9.68939
▁sarı	-9.68964
▁məsələ	-9.69059
▁qə	-9.69082
▁Ke	-9.69136
▁bazar	-9.69254
▁üzerinde	-9.69303
ris	-9.69529
▁In	-9.69708
▁l	-9.69835
▁baxımından	-9.69843
liği	-9.69858
▁vacib	-9.6991
▁Avroviziya	-9.69914
lığını	-9.70008
▁təbəqə	-9.70009
go	-9.7001
▁prezident	-9.70035
ız	-9.70073
ap	-9.70082
▁məna	-9.70199
▁Nazirliyinin	-9.70203
aş	-9.70303
60	-9.70338
т	-9.70346
▁Mər	-9.70348
▁1997-	-9.70408
▁medalı	-9.70429
▁eğer	-9.70456
▁1996-	-9.70469
▁peşəkar	-9.70477
ırdı	-9.70529
ry	-9.70633
str	-9.70638
▁edilmişdi	-9.70644
▁kitabxana	-9.70702
▁Kral	-9.7072
▁sərbəst	-9.70746
я	-9.70785
▁nömrəli	-9.708
▁öldür	-9.7085
▁təmiz	-9.70984
▁yap	-9.70992
▁ton	-9.70997
▁1995-	-9.71037
mü	-9.71057
lim	-9.71069
▁Yuxarı	-9.7111
imiz	-9.71166
▁Sin	-9.71169
cək	-9.71178
▁Çi	-9.71237
▁Sal	-9.71262
▁dəyişir	-9.71283
▁qüvvələri	-9.71306
layır	-9.71453
bin	-9.71491
▁tikinti	-9.71493
▁man	-9.71549
▁Pir	-9.71572
▁çiçək	-9.71622
sey	-9.71709
▁1970-	-9.71764
▁Nizami	-9.71802
nes	-9.71821
▁dayan	-9.71871
▁növbəti	-9.71894
▁küçə	-9.71929
▁suyun	-9.72003
▁daşı	-9.72059
24	-9.72061
ari	-9.72072
rət	-9.72103
▁taxta	-9.72105
ağı	-9.72135
▁sonuncu	-9.72175
▁Ö	-9.72245
▁aparıcı	-9.72283
sion	-9.72331
▁olsun	-9.72369
5-	-9.72396
ləmə	-9.72443
▁bit	-9.72479
▁Tibb	-9.72514
▁kilometr	-9.72543
▁həlak	-9.72586
ly	-9.72624
▁ixtisas	-9.72632
▁Alman	-9.72648
▁çağır	-9.72709
▁final	-9.72712
▁vermək	-9.72735
▁yu	-9.72737
.1	-9.72788
▁fəaliyyətinə	-9.72795
arı	-9.72862
в	-9.72868
▁ordeni	-9.72913
lam	-9.7294
zo	-9.72987
▁Fakat	-9.72995
kov	-9.73018
çilər	-9.73026
▁2006	-9.73101
▁alma	-9.73122
▁onlardan	-9.73145
▁İsveç	-9.73149
hir	-9.7316
tri	-9.73212
mb	-9.73258
▁İsrail	-9.73328
sınız	-9.73383
çisi	-9.73386
▁göy	-9.73497
▁nəsil	-9.73571
▁к	-9.736
▁keçdi	-9.73629
qərb	-9.73721
▁qaldı	-9.73739
▁qoşunları	-9.73776
▁cild	-9.73804
▁boya	-9.73829
ğın	-9.73836
▁Təbriz	-9.73876
lıdır	-9.73934
▁vilayəti	-9.73968
▁Tarix	-9.74011
▁səbəbdən	-9.74018
▁binası	-9.74069
▁fəaliyyətini	-9.74113
▁20-	-9.74126
idir	-9.74137
zin	-9.74194
▁Müasir	-9.74222
▁şəxslər	-9.74285
▁London	-9.74286
▁sat	-9.74298
▁80	-9.74336
▁bölünür	-9.74361
.5	-9.74419
▁anti	-9.74429
▁bayrağı	-9.74448
▁sahə	-9.74481
▁oyunda	-9.74485
tü	-9.74503
▁layihəsi	-9.74604
▁mövqe	-9.74618
ılan	-9.74627
▁Nadir	-9.7466
▁yapı	-9.74682
▁bank	-9.74696
▁aparılan	-9.74705
▁fə	-9.74753
▁cü	-9.74793
▁Am	-9.74869
om	-9.74907
▁hakimiyyət	-9.7491
arak	-9.74944
▁etmişlər	-9.74967
▁Çay	-9.7499
▁çəkilmiş	-9.75023
▁məktəbdə	-9.75069
▁proqramı	-9.75081
▁sahədə	-9.75131
▁4-	-9.7524
lənən	-9.75271
▁müəllimi	-9.75325
▁Mil	-9.75424
▁etki	-9.75425
▁məs	-9.75635
▁İttifaqı	-9.75642
▁quruluşu	-9.75665
▁qaya	-9.75708
4	-9.75722
lit	-9.75732
▁qayda	-9.75749
əz	-9.75782
▁dairəsi	-9.75858
▁adi	-9.75906
laşır	-9.75949
▁qarşısını	-9.75962
▁Elə	-9.76009
lerde	-9.76012
▁azərbaycanlılar	-9.76037
▁hüququ	-9.76049
ard	-9.7607
▁biraz	-9.76145
▁anda	-9.76363
▁siz	-9.7642
▁Fo	-9.76545
ara	-9.766
▁32	-9.76619
▁müddətdə	-9.76628
▁kap	-9.76643
▁müqəddəs	-9.7666
▁bununla	-9.76673
dım	-9.7676
▁size	-9.768
▁vəziyyət	-9.76812
▁Fe	-9.7683
▁çıxdı	-9.7683
▁çoxu	-9.76872
▁göre	-9.76876
▁əsərində	-9.7694
▁maddi	-9.76956
▁1960-	-9.76989
▁internet	-9.7701
▁ayrılır	-9.77014
▁bəstəkar	-9.77021
▁dövlətin	-9.77121
▁üzvüdür	-9.7723
av	-9.77252
▁Erməni	-9.77275
▁qonşu	-9.77279
▁Qız	-9.77279
▁ekran	-9.77412
▁quş	-9.77415
▁sözləri	-9.77465
▁çal	-9.77471
▁klassik	-9.77473
▁qarşılıqlı	-9.77474
30	-9.77519
▁yaşıl	-9.77562
adlandırılmışdır	-9.77612
rak	-9.7766
▁Azər	-9.77678
əzə	-9.77683
▁Şurasının	-9.77758
ket	-9.77796
▁bak	-9.77818
▁qiymət	-9.77836
▁sahələri	-9.77881
▁yerlərdə	-9.77903
▁dövrün	-9.77909
▁imtina	-9.77941
▁vasitəsi	-9.77959
▁Aşıq	-9.78
▁işlə	-9.78032
lənmişdir	-9.78033
▁dərəcəsi	-9.78035
▁500	-9.78089
▁rolunu	-9.78152
ləyir	-9.78174
▁dərəcədə	-9.78176
▁albomu	-9.78195
▁seçilmişdir	-9.78245
Z	-9.78297
luk	-9.78346
▁mənşəli	-9.78377
xt	-9.78428
lerine	-9.78472
tika	-9.78491
res	-9.78505
▁Don	-9.78523
40	-9.78575
▁seçilir	-9.78585
meye	-9.786
ata	-9.78613
▁Nazirliyi	-9.78721
▁ot	-9.78812
▁Bur	-9.78865
▁45	-9.7891
▁ixtisası	-9.78922
▁ke	-9.78957
▁çöl	-9.78968
masına	-9.78976
▁vəziyyəti	-9.79036
▁muzey	-9.79118
▁etməklə	-9.79158
▁mis	-9.79162
las	-9.79201
▁okean	-9.79232
▁gerçek	-9.79239
▁Zi	-9.79246
ja	-9.79267
dum	-9.79335
▁pe	-9.79357
5	-9.79364
▁hökmdarı	-9.79379
▁qalmış	-9.79427
▁evi	-9.79464
▁Daş	-9.79475
▁zor	-9.79496
dıqdan	-9.7954
▁kütləvi	-9.79575
ia	-9.79579
onu	-9.79651
▁balıq	-9.79661
05	-9.79668
▁bələdiyyə	-9.79698
est	-9.79709
▁Birliyinin	-9.79713
▁hündür	-9.79724
▁tik	-9.7986
▁ça	-9.79903
▁Eğe	-9.79922
▁teknoloji	-9.79992
,4	-9.80015
enin	-9.80042
▁Cəfər	-9.80048
▁təpə	-9.80091
tel	-9.80143
▁uç	-9.80198
çısı	-9.80293
▁olduğuna	-9.80329
şir	-9.80481
▁əsgər	-9.80549
▁idilər	-9.8055
▁kan	-9.80618
ium	-9.80644
▁ü	-9.80747
▁Türkiyənin	-9.80781
▁üstün	-9.80801
▁bilən	-9.80875
▁qır	-9.80876
▁nəzəriyyəsi	-9.80891
▁Qafqazın	-9.80966
▁ilədək	-9.8097
▁ra	-9.80993
▁əsası	-9.81048
anlı	-9.81055
▁dalğa	-9.81087
▁park	-9.81102
▁etməyi	-9.81121
▁kimyəvi	-9.8113
▁təhsili	-9.81136
▁ölkələrdə	-9.81177
▁sərgi	-9.81186
▁İs	-9.81216
▁birində	-9.8123
acağı	-9.81284
м	-9.81303
üb	-9.81368
▁yayılmış	-9.8138
▁ala	-9.81403
▁diye	-9.81416
▁bəyin	-9.81543
▁görür	-9.81543
▁sin	-9.81593
▁parlaq	-9.81607
▁savaş	-9.81608
▁şəhərinə	-9.81626
iç	-9.81643
▁dağlıq	-9.81709
ا	-9.81715
▁göstərilir	-9.81724
▁tədqiqatlar	-9.81731
▁siyasət	-9.81784
he	-9.81857
▁qazan	-9.81859
▁XVIII	-9.81881
▁kəndinin	-9.81919
▁bilmir	-9.81962
▁х	-9.8198
▁Avropada	-9.82024
▁dur	-9.82056
▁dəqiqə	-9.82061
▁verilməsi	-9.82078
▁1989-	-9.82093
▁şeir	-9.82103
▁den	-9.82152
▁par	-9.8223
▁akademik	-9.82332
▁Ver	-9.82373
▁dərəcəli	-9.82388
▁Çe	-9.82409
▁maddə	-9.82443
▁Sam	-9.82495
edici	-9.82578
▁qalıqları	-9.82619
▁təsərrüfat	-9.82649
▁Ru	-9.82656
uk	-9.8267
▁əvvəlcə	-9.82708
▁Karl	-9.82745
▁yarış	-9.82796
▁Hu	-9.82892
▁çek	-9.82903
▁olmasını	-9.82924
tro	-9.82931
▁redaktoru	-9.82994
▁İraq	-9.83102
▁tədqiq	-9.83152
16	-9.83229
▁kök	-9.83232
▁jurnalist	-9.83272
▁xəstə	-9.8333
▁dillərində	-9.83406
▁mədəniyyəti	-9.83414
▁ərazilərdə	-9.8345
▁iştirakı	-9.83451
▁fəaliyyətə	-9.83453
▁zərbə	-9.83456
▁1919-	-9.83607
▁ordusunun	-9.83615
▁mərhələ	-9.83681
,6	-9.83729
6-	-9.83814
▁qolu	-9.83873
▁fərqlənir	-9.83948
kü	-9.83984
▁hiç	-9.83991
raq	-9.8402
ret	-9.84028
▁5-	-9.84042
▁Tanrı	-9.84069
▁rəqs	-9.84085
▁vətəndaş	-9.84146
▁keçirir	-9.84159
▁tanı	-9.84219
▁2000	-9.8423
▁namizədi	-9.84343
je	-9.8437
▁başlamış	-9.84426
▁30-	-9.84451
▁qab	-9.84491
▁alınmışdır	-9.84502
▁lider	-9.8452
▁le	-9.84521
▁yemək	-9.84583
▁Mon	-9.84599
▁məlumatlar	-9.84622
▁bitir	-9.84662
▁kq	-9.84666
▁Dar	-9.84689
ril	-9.84722
▁aradan	-9.84865
▁Ga	-9.84999
müş	-9.85025
▁it	-9.85055
lon	-9.85086
üs	-9.85125
▁hareket	-9.85146
▁mı	-9.8522
▁hazırlanması	-9.85244
▁işləyib	-9.85244
şe	-9.85277
yir	-9.85316
▁bə	-9.85396
▁komandası	-9.85442
▁kralı	-9.8546
▁bilmədi	-9.85468
▁Musa	-9.85477
▁düşün	-9.85484
layan	-9.8549
▁şöbə	-9.85536
▁qalmışdır	-9.8557
rkən	-9.856
▁səyahət	-9.85609
▁vəziyyətdə	-9.85624
90	-9.85668
▁futbolçu	-9.85693
▁Hüseynov	-9.85732
▁günəş	-9.85773
▁Suriya	-9.85822
▁kə	-9.85835
▁Tar	-9.8589
▁dir	-9.85937
п	-9.85951
▁qiymətli	-9.85955
▁dissertasiyası	-9.85956
▁hissələri	-9.8596
▁sisteminin	-9.85988
qor	-9.86001
7-	-9.86003
▁Kol	-9.86032
bay	-9.86033
▁С	-9.86039
▁etnik	-9.86045
01	-9.86048
▁görünür	-9.86087
▁əmr	-9.86145
▁sen	-9.86182
▁müalicə	-9.86194
▁tür	-9.86196
▁axır	-9.86201
qları	-9.86265
▁üstündə	-9.86272
70	-9.86287
▁yaşamış	-9.86309
sur	-9.86357
gah	-9.8645
erek	-9.86478
▁struktur	-9.86525
▁çəkilmişdir	-9.86537
▁Çar	-9.86571
▁alınması	-9.86574
▁ostanının	-9.86583
▁•	-9.86626
net	-9.86661
▁mühafizə	-9.86686
tim	-9.86694
▁Var	-9.86724
▁məqsəd	-9.86738
04	-9.86754
▁şimdi	-9.86754
▁Tək	-9.86824
▁alınmasına	-9.86882
▁İngilis	-9.86924
▁gö	-9.86989
▁Ja	-9.86998
▁yanına	-9.87039
▁yürüş	-9.87043
▁atəş	-9.87047
▁çevrilir	-9.87053
▁ənənəvi	-9.87062
▁Fə	-9.87083
▁qum	-9.87318
▁yarı	-9.87341
ilir	-9.87372
▁silahlı	-9.87375
▁alın	-9.87376
▁bitirdikdən	-9.87443
istan	-9.87444
▁ər	-9.8745
bət	-9.87505
▁fizika	-9.87526
ımı	-9.87531
qulu	-9.87535
▁tətbiqi	-9.87557
▁mühəndis	-9.87578
ven	-9.87579
▁yaranmışdır	-9.87648
eti	-9.87651
▁gürcü	-9.87654
▁əsərlər	-9.87745
▁150	-9.87755
▁ürək	-9.87788
yle	-9.87827
▁yola	-9.87843
4-	-9.87877
▁Kə	-9.87906
▁yerində	-9.87906
▁bil	-9.87926
ez	-9.87966
▁vi	-9.88059
▁bədən	-9.88098
▁geç	-9.88125
▁onda	-9.88125
▁pa	-9.88184
ləndi	-9.8833
▁Kəndin	-9.88335
mun	-9.88391
▁əlaqələr	-9.88392
▁olurlar	-9.88396
▁cəmiyyət	-9.88404
▁foto	-9.88404
▁şəbəkə	-9.8844
▁qu	-9.88446
▁buz	-9.88449
▁nüvə	-9.88449
▁Abşeron	-9.88505
lerden	-9.88512
▁tak	-9.88567
▁etme	-9.8858
▁aylarında	-9.88637
▁sultan	-9.88684
yen	-9.88716
ləşdirilməsi	-9.88746
▁tu	-9.88766
▁qəhrəman	-9.88778
▁məsafə	-9.88793
▁yeddi	-9.88821
▁olacaq	-9.88913
tt	-9.88924
22	-9.88948
rus	-9.88975
laşmış	-9.88975
▁sürətlə	-9.89028
07	-9.89117
▁namizəd	-9.89117
məsinə	-9.89144
▁soyuq	-9.89153
▁Baba	-9.89161
▁kay	-9.89188
▁yarat	-9.89218
▁Sumqayıt	-9.89259
▁er	-9.89359
▁aç	-9.89491
▁nümayəndə	-9.89499
lığına	-9.89511
▁boğazı	-9.89529
▁çərçivəsində	-9.89535
▁90	-9.89566
▁Xarici	-9.89567
nün	-9.89604
▁keçirilmiş	-9.89663
▁İlham	-9.89745
zan	-9.89766
▁Murad	-9.89775
▁edildiyi	-9.89854
▁Kara	-9.89867
ktik	-9.89889
▁zona	-9.89891
▁Ser	-9.89896
80	-9.89921
▁qəsəbə	-9.89977
,8	-9.90114
▁cüt	-9.9014
▁bin	-9.90152
▁münasibətləri	-9.90152
▁dan	-9.9016
▁qarış	-9.90215
▁yön	-9.90238
▁əməkdar	-9.9025
▁Elm	-9.90261
▁n	-9.90387
▁tədbirlər	-9.90399
▁bazı	-9.90466
▁məhdud	-9.90498
laşması	-9.90582
06	-9.90638
▁Məktəbi	-9.90669
▁Ordubad	-9.90694
▁insanları	-9.907
▁birinin	-9.90708
▁bio	-9.90713
▁Sar	-9.90718
landı	-9.90844
▁dollar	-9.90871
fon	-9.90926
▁yaranan	-9.9095
▁Silahlı	-9.90966
▁konsert	-9.91015
▁ter	-9.91046
mp	-9.91057
▁keçirdi	-9.91093
▁üsulu	-9.91159
▁forması	-9.91207
▁uğurlu	-9.91209
▁tərzi	-9.91299
▁şöbəsinin	-9.91304
▁О	-9.9132
▁Musiqi	-9.91322
,7	-9.91329
▁verildi	-9.91362
▁atom	-9.91366
▁gölü	-9.91376
▁veri	-9.91399
▁yaratmaq	-9.91412
▁cinayət	-9.91435
▁başına	-9.91439
▁kişilər	-9.91514
▁mənası	-9.91551
par	-9.91575
▁reaksiya	-9.91592
▁müsbət	-9.91604
▁Mal	-9.91621
99	-9.91624
▁şa	-9.9165
▁hamısı	-9.91662
▁Mark	-9.91692
iyyəti	-9.91742
▁Quliyev	-9.91796
▁qəza	-9.91802
don	-9.91842
▁qazanmışdır	-9.91884
▁romanı	-9.91884
▁Rey	-9.91972
tay	-9.92017
ов	-9.92037
▁ayır	-9.92085
▁fərdi	-9.92173
▁ab	-9.92174
▁Mat	-9.92187
▁beyin	-9.92206
▁müğənni	-9.92272
▁problemləri	-9.92286
▁heyəti	-9.92305
▁yolla	-9.92308
▁qismi	-9.92319
▁Bal	-9.92351
ion	-9.92353
▁2015	-9.92399
▁etdikləri	-9.92421
▁olmak	-9.92434
▁Qor	-9.92486
▁Uşaq	-9.92496
▁tarafından	-9.92518
25	-9.92518
▁əmri	-9.9253
▁yüzden	-9.92539
▁Cu	-9.92595
▁keçirilməsi	-9.92649
▁şəhərdə	-9.92658
▁Gün	-9.92664
з	-9.9271
▁tərəfində	-9.92751
▁artisti	-9.92817
▁bura	-9.92871
liyinin	-9.92878
▁tərəfi	-9.92961
lerle	-9.92983
▁qış	-9.93003
▁təkcə	-9.93025
▁terror	-9.9303
şəkilli	-9.93046
nde	-9.93088
sak	-9.93165
▁üsul	-9.9326
▁Həm	-9.93355
▁Pol	-9.93532
▁Par	-9.93535
▁habelə	-9.93548
▁2018-	-9.93598
15	-9.93637
▁işləyir	-9.93637
▁Fu	-9.93656
▁ziyarət	-9.93675
▁keçid	-9.93688
▁böyle	-9.93709
▁əksər	-9.93737
rey	-9.93767
▁çalışıb	-9.9377
▁tərkibi	-9.93774
məyi	-9.93785
til	-9.93828
▁Bizans	-9.93834
lət	-9.93835
məli	-9.93863
▁qoşun	-9.93881
▁Çünk	-9.9389
▁Hind	-9.93917
▁cins	-9.93919
▁əs	-9.9395
tun	-9.93973
▁apar	-9.93988
sanız	-9.93996
▁Bəy	-9.94004
▁dəyişikliklər	-9.94037
sto	-9.94038
▁hesabına	-9.94061
▁Türkiyədə	-9.94069
▁sadəcə	-9.9408
▁etiraz	-9.94097
ian	-9.94138
▁olacak	-9.94151
▁gil	-9.94159
▁məsləhət	-9.9422
▁şəhristanı	-9.94279
37	-9.94281
▁Dan	-9.94343
▁Val	-9.94377
duğu	-9.94432
▁vilayətinin	-9.94443
▁sərt	-9.94462
▁dövrünün	-9.94506
▁dəri	-9.94541
▁oyunçu	-9.94546
yat	-9.94582
▁Top	-9.94596
▁fi	-9.94633
▁Əbdül	-9.94652
г	-9.94675
▁formada	-9.94726
▁gəlməsi	-9.94768
▁əsərin	-9.94783
yn	-9.94915
▁Prezidentinin	-9.94919
▁fil	-9.94931
8-	-9.9494
▁bölgəsində	-9.94972
ladı	-9.94986
▁ayrıca	-9.94993
ğun	-9.95016
▁danış	-9.95059
ura	-9.95118
▁filmində	-9.95149
▁ku	-9.95156
▁yəhudi	-9.95164
▁Atası	-9.95169
▁в	-9.95198
▁işarə	-9.95253
▁başlıca	-9.95253
▁gətirib	-9.95259
▁tanınır	-9.9529
▁Tiflis	-9.95302
▁dolu	-9.95369
▁gələcək	-9.95387
io	-9.95396
▁saxlanılır	-9.95513
▁qapı	-9.95517
▁nizam	-9.95533
▁vəzifələrində	-9.95534
▁olabilir	-9.95572
▁ayı	-9.95577
lardır	-9.95606
▁10-	-9.9566
▁Onu	-9.95663
pan	-9.95708
▁tayfa	-9.9582
▁canlandır	-9.95851
▁tanınan	-9.95862
▁duz	-9.9587
ow	-9.95922
▁normal	-9.95924
▁ir	-9.95947
▁olmadığı	-9.95963
▁baxımdan	-9.95984
▁2012	-9.95991
▁Vo	-9.96003
08	-9.96026
▁İmperiyası	-9.96047
▁divar	-9.96047
▁sabit	-9.96052
▁Sarı	-9.96119
л	-9.9613
▁kat	-9.96203
▁təsviri	-9.96218
▁düzgün	-9.96239
▁Mehmed	-9.96278
lilər	-9.96389
▁nazir	-9.96395
▁müsabiqə	-9.96457
▁qoyulmuşdur	-9.96472
▁seriya	-9.96494
▁Pri	-9.9652
▁əsrlər	-9.9654
kun	-9.96541
▁boş	-9.96616
▁miqdarda	-9.96618
▁soyu	-9.9664
▁oğlan	-9.96679
▁fark	-9.96735
▁sırasında	-9.96771
▁ehtiyat	-9.9679
laşdırma	-9.96804
▁Əliyevin	-9.96839
▁edəcək	-9.96871
▁Bakıya	-9.9688
▁Koreya	-9.96893
əyi	-9.96918
nc	-9.96939
▁keçirilmişdir	-9.96995
▁çəkilən	-9.97138
▁nümunələri	-9.97179
▁deyildir	-9.97199
ılmışdır	-9.97269
▁Qeyd	-9.97271
▁Qış	-9.97293
ləşir	-9.97364
▁300	-9.97406
▁həqiqi	-9.97458
▁sizin	-9.975
▁yapmak	-9.97553
▁fikri	-9.97563
malıdır	-9.97567
▁sistemində	-9.97625
▁mükafatına	-9.97631
rdi	-9.97659
▁parlament	-9.97671
bul	-9.9768
▁müzakirə	-9.97708
▁daimi	-9.97738
ilən	-9.97745
kal	-9.97775
▁birbaşa	-9.97779
▁Braziliya	-9.97798
▁yaranır	-9.97804
▁Qafqazda	-9.9784
hr	-9.97951
▁Respublikasında	-9.97962
▁filmləri	-9.97972
▁bənzər	-9.98001
▁Müharibə	-9.98015
▁siyasəti	-9.9804
ers	-9.9807
▁əgər	-9.98104
45	-9.98106
▁qalibi	-9.9814
▁Gənc	-9.98151
▁Ata	-9.98152
▁rə	-9.98165
▁öyrənilməsi	-9.98214
▁XVI	-9.98214
▁Laçın	-9.98231
▁yaranması	-9.98232
▁Kahkaha	-9.98268
03	-9.98279
ləyən	-9.98288
▁aparır	-9.98294
▁müqaviləsi	-9.98296
▁ardıcıl	-9.98316
▁Akademiyası	-9.98347
▁Şirin	-9.98362
▁mikro	-9.98373
qal	-9.98463
▁proses	-9.98496
▁olunmuşdu	-9.98497
tər	-9.985
ünə	-9.98524
▁bilin	-9.9855
▁Yo	-9.98551
dil	-9.98625
Ç	-9.98635
▁formasında	-9.98639
▁Kö	-9.98663
caq	-9.9873
lerinin	-9.98756
▁edil	-9.98756
▁başçılıq	-9.9879
▁yapon	-9.98855
ərkən	-9.98857
▁Bra	-9.98923
▁haqda	-9.98924
▁dar	-9.98944
▁Nəticədə	-9.99
▁jurnal	-9.99085
▁Mari	-9.99091
▁davamlı	-9.99164
▁mənasını	-9.99196
▁sənəd	-9.9921
▁po	-9.99258
д	-9.99276
dor	-9.9928
şah	-9.99319
sh	-9.99323
udur	-9.99355
▁bacısı	-9.99383
mik	-9.99388
▁М	-9.99423
▁qəzasında	-9.99425
ğan	-9.9945
▁kötü	-9.99507
▁doğma	-9.99509
▁düşən	-9.99534
▁təqribən	-9.99571
▁kənar	-9.99604
biri	-9.99637
▁he	-9.99641
xu	-9.99666
dd	-9.99707
▁sevgi	-9.99732
gil	-9.9978
▁Şahzadə	-9.99786
▁Kur	-9.99807
▁memar	-9.99957
masını	-9.99974
▁qalma	-9.99993
▁coğrafi	-10.0006
▁etdirmişdir	-10.0007
▁millət	-10.0009
▁əri	-10.0015
▁yapma	-10.0015
ildi	-10.002
▁adət	-10.0025
xo	-10.0027
larımız	-10.0028
▁pay	-10.0032
▁Min	-10.0036
dra	-10.0043
▁2011	-10.0046
linin	-10.0048
▁uşaqlar	-10.0049
▁altına	-10.0049
▁2010	-10.0063
▁sənəti	-10.0063
ь	-10.0064
▁mövzu	-10.0066
▁qüvvə	-10.0067
ulla	-10.0068
lığının	-10.0071
▁şəkil	-10.0078
▁universitetin	-10.0081
sinde	-10.0083
27	-10.0097
tma	-10.0097
▁Qazaxıstan	-10.0099
▁ölkələrində	-10.0099
▁yarısında	-10.0102
maqla	-10.0103
▁sür	-10.0103
▁mütləq	-10.0103
▁gəlin	-10.0111
ans	-10.0113
▁2008	-10.0116
▁imperator	-10.0118
▁1930-	-10.0118
▁səkkiz	-10.0118
▁çoxsaylı	-10.0118
▁xalqın	-10.0124
▁izlə	-10.0135
▁mükafat	-10.0138
▁Şam	-10.0142
▁yazmışdır	-10.0143
▁toplum	-10.0149
▁otur	-10.0154
▁mənim	-10.0159
▁Əsasən	-10.0163
▁heyətində	-10.0166
▁am	-10.0166
▁deyildi	-10.017
▁İranda	-10.0175
▁oxşar	-10.0176
ska	-10.018
▁rəsm	-10.0181
▁İndi	-10.0182
▁Çok	-10.0184
▁tənqid	-10.0188
▁oynayır	-10.0189
▁düzəl	-10.02
▁Van	-10.0201
▁Ədəbiyyat	-10.0202
rü	-10.0202
▁sinir	-10.0204
▁divarları	-10.0207
▁əkin	-10.0209
ativ	-10.021
mayı	-10.0212
▁çat	-10.0217
▁ölkələrin	-10.0221
▁dördüncü	-10.0222
rov	-10.0225
▁Robert	-10.0228
86	-10.023
▁erkən	-10.0232
.2	-10.0236
▁islam	-10.0239
▁oluyor	-10.024
üz	-10.0241
▁ov	-10.0245
▁oyunu	-10.0249
▁müəssisəsi	-10.0255
▁Tri	-10.0257
ılıb	-10.0258
▁nəzəriyyə	-10.0258
ч	-10.0262
oid	-10.0262
▁anlamı	-10.0262
▁opera	-10.0266
▁insanlara	-10.0267
▁kompleks	-10.0268
▁sənətkar	-10.0268
siyasi	-10.0272
▁alaraq	-10.0272
▁fakültəsini	-10.0273
▁xa	-10.0284
▁gə	-10.0284
▁Moskvada	-10.0287
yanın	-10.0288
▁Dağıstan	-10.0292
əng	-10.0297
▁Qasım	-10.0302
xe	-10.0309
▁1950-	-10.0312
▁Ju	-10.0312
▁əhəmiyyət	-10.0318
liyində	-10.032
▁onlarla	-10.0321
▁Ci	-10.0322
▁araşdırma	-10.0326
şan	-10.0328
▁qarışıq	-10.0329
▁kəsi	-10.0332
▁33	-10.0334
illik	-10.0335
▁körfəzi	-10.034
▁verib	-10.0345
▁söhbət	-10.0346
▁mənbəyi	-10.0347
▁standart	-10.0351
▁ti	-10.0352
bur	-10.0356
▁sakinləri	-10.0361
▁mirzə	-10.0363
▁co	-10.0364
▁dərhal	-10.0373
▁istəyir	-10.0374
▁məsafədə	-10.0376
▁suyu	-10.0376
▁düzənlik	-10.0377
▁sim	-10.038
▁Mer	-10.0381
14	-10.0381
▁Nobel	-10.0385
▁məktəbinin	-10.0385
▁2009	-10.0388
ök	-10.0389
▁yüksəl	-10.0389
▁qaldır	-10.039
▁ehtiyac	-10.0391
▁36	-10.0392
▁xırda	-10.0393
ilər	-10.0393
▁yaratdığı	-10.0394
▁Gü	-10.0396
ox	-10.0399
▁kur	-10.04
▁seçki	-10.0401
▁addım	-10.0402
▁Şir	-10.0403
iye	-10.0407
▁güzel	-10.0408
▁maşın	-10.0411
▁güllə	-10.0413
▁Hətta	-10.0414
▁konuşma	-10.0416
▁adından	-10.0418
▁qorxu	-10.0418
0.000	-10.0425
har	-10.0425
▁qurtar	-10.0425
diyini	-10.0426
▁kom	-10.0426
▁1945-	-10.0427
pp	-10.0428
▁Ze	-10.0429
bra	-10.043
▁durum	-10.0435
▁Pan	-10.0437
▁qalası	-10.0437
▁dəfələrlə	-10.0439
lma	-10.044
▁1975-	-10.0443
31	-10.0443
▁Kim	-10.0445
▁İbn	-10.0446
▁idmançı	-10.0454
▁kütləsi	-10.0457
▁İşte	-10.0457
▁qı	-10.0457
▁kaç	-10.0458
xar	-10.0462
▁maddələr	-10.0466
▁dövrlərdə	-10.0466
▁təzyiq	-10.0471
bəy	-10.0474
mın	-10.0478
▁məsələləri	-10.0479
▁arxeoloji	-10.0479
▁Can	-10.0486
raf	-10.0487
▁qrupunun	-10.0488
sit	-10.0491
▁lövhə	-10.05
▁olarkən	-10.0503
▁Av	-10.0504
▁edilə	-10.0509
▁İr	-10.0515
▁nəqliyyat	-10.0515
▁görül	-10.0517
▁1987-	-10.0524
▁bəri	-10.0527
▁Ur	-10.0529
▁şairi	-10.0531
▁istiyorum	-10.0533
▁New	-10.0534
▁Nazirlər	-10.0535
▁Tom	-10.0539
təpə	-10.0539
▁yerləşdiyi	-10.0539
▁и	-10.0545
br	-10.055
sil	-10.0553
▁kürə	-10.0554
bri	-10.0561
21	-10.0562
▁Sər	-10.0563
▁müəllif	-10.0564
▁gəlmə	-10.0565
02	-10.0566
▁araba	-10.0566
▁İmam	-10.0568
▁Krım	-10.0569
▁aparılır	-10.057
era	-10.0571
95	-10.0577
▁yönəl	-10.0579
▁orijinal	-10.0582
▁1986-	-10.0583
əyə	-10.0584
▁hörmət	-10.0587
▁Fransız	-10.0588
▁kütlə	-10.0589
▁48	-10.0593
met	-10.0593
▁Rusiyada	-10.0593
▁etsə	-10.0595
▁bildir	-10.06
ıdır	-10.0607
▁qərarına	-10.0611
▁Sey	-10.0614
▁əməkdaşlıq	-10.0618
▁Bey	-10.0619
▁pla	-10.0623
▁Sonralar	-10.0624
▁söylə	-10.0628
▁əy	-10.063
▁sonu	-10.063
▁bulaq	-10.0634
ucu	-10.0636
▁alimi	-10.0637
▁səh	-10.0639
▁etmek	-10.064
▁Bor	-10.0649
məz	-10.0652
ophyllum	-10.0655
▁000	-10.0657
▁mənəvi	-10.0659
adi	-10.0661
rın	-10.0662
▁nəzdində	-10.0665
▁qov	-10.0667
▁sonuna	-10.0671
▁hərəkatı	-10.0673
uyor	-10.0673
34	-10.0674
▁Kərim	-10.0675
▁məscidi	-10.0675
▁əyalət	-10.0676
17	-10.0682
▁temperaturu	-10.0685
▁kilsəsi	-10.0686
bel	-10.0687
28	-10.0687
▁sonlarında	-10.0688
▁yazırdı	-10.0692
▁Qacar	-10.0694
▁Gi	-10.0696
aj	-10.0697
qq	-10.0703
▁etdirən	-10.0705
fin	-10.0705
▁Sen	-10.0708
sis	-10.071
▁almışdı	-10.0714
▁telefon	-10.0714
les	-10.0715
oloq	-10.0716
▁hekayə	-10.0717
▁1979-	-10.0722
▁əvvəllər	-10.0726
▁həcmi	-10.0729
▁hökmdar	-10.073
lak	-10.0733
▁Nikolay	-10.0735
▁Azərbaycana	-10.0736
▁ortalarında	-10.0741
▁Məhz	-10.0741
▁epi	-10.0747
▁verilmiş	-10.075
-2	-10.0752
▁səhifə	-10.0753
▁yaranmış	-10.0756
▁dilinə	-10.0761
▁sərf	-10.077
▁yaşamışdır	-10.077
▁Ad	-10.0772
▁Jo	-10.0774
.3	-10.078
▁bürünc	-10.0781
▁Mariya	-10.0783
up	-10.0785
lerinde	-10.0788
▁lo	-10.0793
tık	-10.0795
▁uğur	-10.0799
▁çempionu	-10.0802
▁atasının	-10.0803
▁qoyur	-10.0806
▁UEFA	-10.0807
irdi	-10.0807
▁1000	-10.0808
zer	-10.081
▁süre	-10.0812
▁ayaq	-10.0812
▁planet	-10.0813
▁gəz	-10.0819
qon	-10.0821
▁Üz	-10.0823
▁sahillərində	-10.083
▁qadağan	-10.083
▁versiyası	-10.0839
müşdür	-10.0841
▁zi	-10.0841
▁tor	-10.0841
▁xəlifə	-10.0844
▁Qüvvələri	-10.0845
gün	-10.0847
▁dövrə	-10.0849
▁başladılar	-10.0851
iyanın	-10.0852
▁doktorluq	-10.0855
▁pat	-10.0862
tiği	-10.0864
▁aş	-10.0867
▁riyaziyyat	-10.087
▁XVII	-10.0871
sir	-10.0872
kdə	-10.0875
▁yaratmışdır	-10.0877
▁1982-	-10.0877
▁nöqtəsi	-10.0878
yib	-10.0879
▁hala	-10.0881
laşdırılmış	-10.0884
▁Osman	-10.0887
▁Şe	-10.0887
▁orqanları	-10.0889
▁parçası	-10.0892
iv	-10.0892
▁məktəbin	-10.0893
▁cənubunda	-10.0893
▁olmadığını	-10.0897
kli	-10.0906
ore	-10.0907
▁qonaq	-10.0908
erin	-10.0915
üt	-10.092
▁xidməti	-10.0922
▁Fətəli	-10.0924
▁əslində	-10.0926
▁tərkib	-10.0932
▁görüntü	-10.0934
şərqdə	-10.0937
▁Bulb	-10.0937
ktiv	-10.0945
ğu	-10.0945
▁qətlə	-10.0945
▁bul	-10.0948
▁tap	-10.0951
39	-10.0951
▁alınan	-10.0952
▁nöqtə	-10.0953
▁Vəli	-10.0958
▁1985-	-10.0958
▁konu	-10.0961
▁disk	-10.0964
▁tank	-10.0965
▁sütun	-10.0973
▁region	-10.0977
▁əvvəlində	-10.0979
▁cu	-10.0983
▁1972-	-10.0986
▁monqol	-10.0988
▁məqalə	-10.0989
▁xoş	-10.0997
▁rəqəm	-10.0997
▁köçür	-10.0997
▁imperiyası	-10.0998
▁Azərbaycanlı	-10.0999
▁Qay	-10.1
▁Prezident	-10.1004
▁tər	-10.1005
oru	-10.1006
▁çi	-10.1006
▁Hüquq	-10.1009
▁texnika	-10.1011
ogen	-10.1012
▁Başqırdıstan	-10.1015
▁400	-10.1016
▁jurnalı	-10.1019
▁hektar	-10.102
▁müxbir	-10.102
undan	-10.1021
▁olmadan	-10.1023
▁Allahın	-10.1024
sim	-10.1025
şünas	-10.1028
yet	-10.103
▁açık	-10.1035
▁sürət	-10.1035
▁Tra	-10.1037
▁təhlükə	-10.1038
ral	-10.1049
▁ikən	-10.1053
▁yığ	-10.1054
▁laureatı	-10.1057
rəm	-10.1059
tif	-10.1062
▁Peki	-10.1063
▁sürgün	-10.1064
▁edər	-10.1067
bor	-10.1072
lıların	-10.1073
▁sürəti	-10.1074
▁kı	-10.1075
▁38	-10.1078
▁inkişafında	-10.1079
tım	-10.1083
▁tünd	-10.1087
▁səbəbindən	-10.1087
▁yaşayırdı	-10.1093
nü	-10.1094
ndəki	-10.1096
qərbdə	-10.11
29	-10.1101
ste	-10.1101
▁olmur	-10.1103
▁Quran	-10.1105
▁Pedaqoji	-10.1107
96	-10.1108
▁İsgəndər	-10.1109
▁poli	-10.1109
▁sü	-10.1113
▁65	-10.1119
▁xə	-10.112
liklə	-10.1121
leme	-10.1124
▁dövrünə	-10.1125
▁dostu	-10.1127
ava	-10.1129
hu	-10.1132
▁Əmək	-10.1133
▁1983-	-10.1138
▁göstərdiyi	-10.1139
49	-10.114
▁6-	-10.1145
▁Səlim	-10.1155
▁2013	-10.1156
yanı	-10.1157
▁zərər	-10.1157
atın	-10.1161
art	-10.1162
qı	-10.1172
▁İctimai	-10.1172
▁şərh	-10.1173
▁gül	-10.1175
qun	-10.1176
▁Partiyası	-10.1176
anlar	-10.1179
▁maye	-10.1182
olit	-10.1182
85	-10.1182
▁dram	-10.1183
▁bunların	-10.1184
▁Abdulla	-10.1188
▁daşıyan	-10.1189
▁olmaz	-10.1192
▁75	-10.1193
▁xətt	-10.1195
▁fəsiləsin	-10.1196
iyası	-10.1206
▁idarəetmə	-10.1207
▁37	-10.1211
▁yaradıcılıq	-10.1212
dədir	-10.1212
▁bize	-10.1213
▁kitabında	-10.1214
▁tanrı	-10.1215
▁Şurası	-10.1217
▁boy	-10.1222
▁imkanı	-10.1224
▁Çempionatında	-10.1226
mər	-10.1228
▁rejissoru	-10.1229
▁peşə	-10.1231
▁34	-10.1237
ens	-10.1238
▁rahat	-10.1238
▁orqanı	-10.1239
▁şimalında	-10.124
▁yazılı	-10.1247
ük	-10.1247
▁1974-	-10.1247
▁1978-	-10.1249
▁tur	-10.1252
ləşdirilmiş	-10.1252
▁sayılan	-10.1254
▁2016	-10.1254
▁Füzuli	-10.1255
▁Pu	-10.1257
kimilər	-10.1257
▁eks	-10.1258
▁ediyor	-10.1259
sek	-10.1263
▁Fransanın	-10.1265
▁məlumdur	-10.1265
▁nəhəng	-10.1266
▁komandasının	-10.1266
▁saniyə	-10.1267
▁günə	-10.127
▁bərk	-10.127
▁Cümhuriyyəti	-10.1271
▁Bala	-10.1271
▁fərmanı	-10.1276
▁bilmə	-10.1277
65	-10.1282
▁İdman	-10.1282
▁karar	-10.1283
▁sorun	-10.1283
▁oldukça	-10.1283
▁şirkət	-10.1285
ama	-10.1286
▁dişi	-10.1287
▁qurum	-10.1287
▁xanı	-10.1288
▁Ümumi	-10.1294
▁yaratdı	-10.1295
▁oluştur	-10.1299
▁birkaç	-10.1302
▁paşa	-10.1303
▁şəhristanının	-10.1305
▁məlumatın	-10.1306
▁hissədə	-10.1306
▁ikisi	-10.1309
başı	-10.131
▁bölmə	-10.131
▁məsələlər	-10.1315
▁1981-	-10.132
ac	-10.132
▁fakat	-10.1327
ədək	-10.1334
▁musiqisi	-10.1335
▁yayılması	-10.1337
▁Filmin	-10.1339
▁vermə	-10.134
lamaq	-10.1341
▁Yol	-10.1341
▁Qanun	-10.1343
▁xor	-10.135
▁göstərirdi	-10.1358
yun	-10.1359
diya	-10.1361
▁Bunlardan	-10.1361
▁mənfi	-10.1364
pt	-10.1367
▁Xəlil	-10.1369
▁əsrə	-10.137
▁fon	-10.1378
ina	-10.138
94	-10.1382
▁saç	-10.1388
▁Zaqafqaziya	-10.1388
gel	-10.1388
dıqları	-10.1397
▁Bel	-10.1397
▁azadlıq	-10.1401
▁zamanlar	-10.1408
▁Sovetinin	-10.141
▁fikrincə	-10.1412
mda	-10.1412
▁quruluş	-10.1413
sul	-10.1418
▁1941-	-10.1419
▁təmir	-10.1422
▁metod	-10.1426
mit	-10.1427
▁çəkir	-10.1432
▁problemi	-10.1434
ilə	-10.1435
▁məkan	-10.1439
▁42	-10.1443
birinə	-10.1448
▁hazırlanır	-10.145
▁quberniyasının	-10.1451
▁İsveçrə	-10.1453
▁bay	-10.1455
▁səviyyədə	-10.1461
▁kamera	-10.1461
▁fəhlə	-10.1467
▁muğam	-10.1467
▁cəmiyyətin	-10.1474
▁azal	-10.1484
rək	-10.1485
ра	-10.1493
tasiya	-10.1496
əvi	-10.1502
▁8-	-10.1505
▁güman	-10.1506
eh	-10.1508
▁lə	-10.1514
▁törə	-10.1515
▁cərəyan	-10.152
▁namizədlik	-10.152
98	-10.152
▁1967-	-10.1526
ziya	-10.1527
▁önəmli	-10.1534
baba	-10.1539
▁ağrı	-10.1541
32	-10.1541
▁Hü	-10.1544
lması	-10.1547
▁Birliyi	-10.1547
cik	-10.1554
tiv	-10.1555
ray	-10.1558
▁zədə	-10.1558
▁dilləri	-10.1559
əb	-10.156
▁konfrans	-10.1563
▁piyada	-10.1564
▁dilinin	-10.1571
▁Tor	-10.1573
kil	-10.1573
▁qul	-10.1575
▁yarısı	-10.158
▁güven	-10.158
▁xəstəxana	-10.1581
▁keçmişdir	-10.1586
▁Əməkdar	-10.1587
▁Gənclər	-10.1588
mil	-10.159
▁kadın	-10.1593
▁körpü	-10.1593
▁asan	-10.1594
▁bilim	-10.1596
yur	-10.1596
▁rejimi	-10.1596
▁Ter	-10.1597
▁Daxili	-10.1597
▁mərasimi	-10.16
▁yüngül	-10.1601
xta	-10.1601
▁1971-	-10.1602
for	-10.1606
▁1968-	-10.1613
▁Almaniyanın	-10.1615
say	-10.1617
▁Corc	-10.1619
▁Sibir	-10.162
▁xarakter	-10.1621
▁məbəd	-10.1621
79	-10.1622
▁Şə	-10.1624
▁kompleksi	-10.1624
▁İttifaqının	-10.1629
-15	-10.163
dikləri	-10.1631
▁devam	-10.1632
▁değiştir	-10.1636
▁Dərbənd	-10.1643
▁olunma	-10.1643
▁bel	-10.1644
▁biləcək	-10.1644
▁verirdi	-10.1644
▁birini	-10.1644
▁İm	-10.1648
▁həqiqət	-10.1649
▁tekrar	-10.1649
yü	-10.1654
▁Müdafiə	-10.1654
▁hidro	-10.1656
tr	-10.1658
sidir	-10.1659
üstü	-10.1659
▁bayram	-10.1659
▁Kuboku	-10.1659
▁səhv	-10.166
▁Ceyms	-10.166
▁geliyor	-10.1664
▁küçəsi	-10.1666
▁sənədli	-10.1666
▁adamı	-10.167
▁Nor	-10.1675
▁yaşa	-10.1676
ırlar	-10.1678
▁1965-	-10.1679
▁çıxmışdır	-10.1683
▁şöhrət	-10.1685
▁təşkilatı	-10.1694
▁həyatını	-10.1695
▁əsilli	-10.1699
▁muzeyi	-10.1702
▁Səfəvi	-10.1703
▁gəlmək	-10.1711
Ba	-10.1713
▁şəraitində	-10.1713
of	-10.1714
lli	-10.1717
şünaslıq	-10.1718
▁olmaması	-10.1719
▁oxu	-10.1721
▁nəticədə	-10.1722
▁mağara	-10.1724
▁Albaniya	-10.1725
▁paylaş	-10.1725
▁göndərdi	-10.1726
48	-10.1727
▁inç	-10.1728
▁Au	-10.1736
muz	-10.1738
▁On	-10.1739
iyalı	-10.1749
ləşmiş	-10.1751
ləşdirmə	-10.1752
izmin	-10.1756
▁xalça	-10.1758
▁1976-	-10.1759
▁döyüşü	-10.1762
▁1973-	-10.1769
▁şam	-10.177
▁yaradıcılığı	-10.1777
▁edərkən	-10.1779
baz	-10.1781
▁ro	-10.1783
▁düşdü	-10.1784
▁bitkilər	-10.1785
▁dəstəyi	-10.1786
qda	-10.1787
▁Cavad	-10.1788
▁mövsüm	-10.179
▁arzu	-10.1792
▁statusu	-10.1795
23	-10.1798
kul	-10.1799
▁məclis	-10.1802
▁dəyişmə	-10.1804
▁yerləri	-10.1805
▁Dram	-10.1808
▁sar	-10.1821
▁beni	-10.1824
lığında	-10.1828
▁test	-10.1831
▁Müxtəlif	-10.184
▁bilməz	-10.184
▁aktrisa	-10.1842
▁getdi	-10.1843
▁bomba	-10.1846
▁gözü	-10.185
▁Norveç	-10.1852
▁arası	-10.1853
▁ardından	-10.1854
97	-10.1856
▁metrdir	-10.1857
▁toy	-10.186
vər	-10.1861
▁2004	-10.1863
▁münasibətlər	-10.1864
▁mənbələrdə	-10.1864
▁Rza	-10.1865
▁yerini	-10.1871
▁Bərdə	-10.1873
▁görmə	-10.1874
▁anlama	-10.1875
▁http	-10.1875
9	-10.1877
▁Han	-10.1877
▁mükəmməl	-10.1878
əri	-10.1878
▁7-	-10.1881
▁mövzusu	-10.1883
▁Dər	-10.1883
▁York	-10.1887
cıq	-10.1889
▁xalqının	-10.1891
▁Oyunlarına	-10.1891
▁qərara	-10.1896
▁surətdə	-10.1899
▁tri	-10.1899
iyoruz	-10.19
▁gənclər	-10.1901
▁çocuk	-10.1902
▁müqayisə	-10.1904
▁kanal	-10.1905
▁1937-	-10.1907
▁göstərdi	-10.1909
▁Belçika	-10.1922
▁Sol	-10.1923
▁alban	-10.1923
▁seçim	-10.1923
▁misal	-10.1924
▁görmək	-10.1925
iy	-10.1927
▁Pakistan	-10.1934
▁işləyən	-10.1935
35	-10.1936
▁məktəbini	-10.1937
▁Hay	-10.1946
mən	-10.1951
▁Mur	-10.1959
▁edilərək	-10.1967
▁Go	-10.1969
▁tezliklə	-10.197
▁1984-	-10.1971
▁çatan	-10.1972
▁1969-	-10.1974
▁İşlər	-10.1974
▁poz	-10.1977
fo	-10.1977
▁heyvanlar	-10.1985
▁Harri	-10.1986
▁səth	-10.1989
▁material	-10.199
kləri	-10.1991
▁soy	-10.1992
▁bildirdi	-10.1992
altı	-10.1994
şt	-10.1997
▁ax	-10.1998
▁qaynaq	-10.2001
iyyat	-10.2001
▁aparıl	-10.2002
▁çıxmış	-10.2002
▁Sənaye	-10.2005
▁15-	-10.2006
ımız	-10.2007
▁Aslında	-10.2011
▁xalçaları	-10.2014
sov	-10.2016
▁çağırış	-10.2022
▁olmağa	-10.2026
▁hayat	-10.2028
92	-10.2029
▁dərman	-10.2034
▁vilayət	-10.2036
▁edam	-10.204
▁xatırla	-10.204
▁qrupun	-10.2041
▁personaj	-10.2044
▁atmosfer	-10.2046
yıb	-10.2046
qala	-10.2047
mızda	-10.2051
▁kitabın	-10.2055
▁2014	-10.2055
landır	-10.2056
▁Ordu	-10.2057
▁vəzifəsini	-10.2057
▁2005	-10.2058
▁halında	-10.2058
▁hikaye	-10.2059
▁köç	-10.2059
▁hücumu	-10.2061
▁Bre	-10.2063
▁ziyalı	-10.2064
▁olun	-10.2064
▁boru	-10.2065
▁şəhərləri	-10.207
▁Ön	-10.2076
▁rabitə	-10.2077
▁Jan	-10.2077
oba	-10.2079
▁kafedrasının	-10.2083
▁Alkış	-10.2084
▁məlumata	-10.2088
▁Ankara	-10.2089
▁Yalnız	-10.2089
▁Bizim	-10.209
▁birinə	-10.2091
ətli	-10.2093
▁Başqa	-10.2094
▁Rüstəm	-10.2094
▁ri	-10.2095
▁iste	-10.2095
▁1966-	-10.2099
şar	-10.2107
82	-10.2108
ktor	-10.211
▁Dağlıq	-10.2111
ر	-10.2119
▁etdikdən	-10.212
ep	-10.2121
▁Yaxın	-10.2125
maqdadır	-10.2128
lk	-10.2128
baş	-10.213
▁Roman	-10.2138
yorum	-10.2139
▁sər	-10.2142
▁keçirmək	-10.2143
asyon	-10.2146
▁abidələri	-10.2147
▁milyard	-10.2153
▁Onlardan	-10.2154
▁yolları	-10.2155
▁çı	-10.2156
▁180	-10.2156
▁getir	-10.2156
▁Kaliforniya	-10.2161
▁məsələsi	-10.2162
▁ümumilikdə	-10.2163
▁bugün	-10.2167
▁məhsulları	-10.2172
▁aktyoru	-10.2172
ql	-10.2173
▁şəraitdə	-10.2173
▁Say	-10.2176
▁formaları	-10.2178
mamış	-10.2181
▁Avropanın	-10.2182
▁Dəmir	-10.2184
ulu	-10.2189
▁nəzəri	-10.2189
▁Anna	-10.2201
▁əlverişli	-10.2204
ləndirilməsi	-10.2205
▁nümunə	-10.2206
▁no	-10.2206
oqrafiya	-10.2206
▁sən	-10.2207
▁cənubda	-10.2214
▁1959-	-10.2218
▁termin	-10.2223
▁binanın	-10.2224
af	-10.2224
▁Komitəsi	-10.2225
▁hakimiyyətə	-10.2226
▁redaktor	-10.2227
▁pir	-10.223
69	-10.2234
▁cı	-10.2238
sko	-10.2238
mızı	-10.2241
▁hi	-10.2243
▁pəncərə	-10.2247
inski	-10.2247
ation	-10.2248
▁qaç	-10.2248
▁hem	-10.2249
▁Tan	-10.225
▁Car	-10.2253
▁za	-10.2258
▁tra	-10.2261
▁bəziləri	-10.2262
▁etdirmək	-10.2264
para	-10.2264
▁Ərdəbil	-10.2264
ен	-10.2266
▁pek	-10.2266
▁hayal	-10.2267
qara	-10.2269
▁1956-	-10.227
▁Bina	-10.2272
▁paytaxt	-10.2272
York	-10.2275
riya	-10.2276
▁monoqrafiya	-10.2277
▁baxış	-10.2278
çü	-10.2278
▁kəndindən	-10.2278
ığ	-10.2282
▁alınır	-10.2283
▁yani	-10.2283
▁səthi	-10.2287
▁planı	-10.2294
▁olunduğu	-10.2298
▁gen	-10.2303
88	-10.2304
▁yaradılan	-10.2309
seniz	-10.2313
usun	-10.2314
▁əksini	-10.2316
▁geldi	-10.2316
▁Tarixi	-10.2317
▁yakın	-10.2319
▁adlandır	-10.2319
▁Əfqanıstan	-10.232
▁Bəzən	-10.232
▁Key	-10.2323
▁Park	-10.2323
▁ideya	-10.2325
▁mədrəsə	-10.2326
▁dayandır	-10.2329
məyən	-10.233
▁dağları	-10.2333
▁edilmə	-10.2334
▁arı	-10.2336
▁sahələrində	-10.2338
şin	-10.2338
ан	-10.2338
▁Xu	-10.2341
▁naxış	-10.2344
▁Hey	-10.2345
▁adamları	-10.2347
▁hüquqi	-10.2353
▁Zo	-10.2354
▁düşüncə	-10.2356
▁arvadı	-10.2363
skaya	-10.2364
▁sarayı	-10.2368
▁Ste	-10.2372
▁bizi	-10.2373
▁VI	-10.2374
▁Alkışlar	-10.2374
▁1917-	-10.2377
▁döyüşdə	-10.2377
öl	-10.2388
▁əlində	-10.2388
▁duy	-10.2388
▁tarixinə	-10.239
▁Kir	-10.2392
▁Aş	-10.2393
▁Ömər	-10.2394
▁Kimya	-10.2395
▁otağı	-10.2396
▁adlandırılır	-10.2396
▁hərəkəti	-10.2398
72	-10.2398
▁Yazıçılar	-10.2398
▁Əsgər	-10.2398
▁aparan	-10.2401
▁eyniadlı	-10.2406
▁qismən	-10.2412
▁Məşədi	-10.2412
▁irsi	-10.2415
▁əlaqələri	-10.242
▁mühit	-10.2422
gan	-10.2423
▁hüceyrə	-10.2424
ي	-10.2424
▁Bro	-10.2426
▁yerləşmişdir	-10.2427
mizi	-10.2431
▁kağız	-10.2431
▁qabığı	-10.2431
▁təchiz	-10.2433
▁keçirdiyi	-10.2434
▁yağıntı	-10.2437
▁don	-10.2438
loq	-10.2439
▁qəzetinin	-10.2443
▁aile	-10.2448
▁kristal	-10.245
▁şəxsiyyət	-10.2454
ах	-10.2455
▁2007	-10.2456
▁hamı	-10.2458
▁çıxması	-10.2461
▁çevrilmişdir	-10.2461
▁Məktəb	-10.2462
▁Art	-10.2464
▁ce	-10.2467
ж	-10.2468
rab	-10.2469
▁anlayışı	-10.247
▁dairə	-10.2474
▁yazıçısı	-10.2475
▁səviyyəsindən	-10.2476
▁Federasiyasının	-10.2478
▁başında	-10.248
▁qəsəbəsində	-10.2484
▁xalqı	-10.2485
▁Zəngəzur	-10.2487
▁seçilmiş	-10.2487
▁Ed	-10.2488
▁1961-	-10.2489
dıqda	-10.249
▁cəm	-10.2492
▁Xosrov	-10.2493
▁özəl	-10.2494
▁Sahil	-10.2495
▁Fars	-10.2495
▁şimalda	-10.2496
▁kanalı	-10.2497
▁itir	-10.2498
vaz	-10.2502
▁daim	-10.2502
▁zalı	-10.2504
▁tikintisi	-10.2506
▁haqqı	-10.251
bit	-10.2518
▁Sankt	-10.2519
▁Bolqarıstan	-10.2524
▁element	-10.2527
▁К	-10.2528
00-	-10.253
َ	-10.253
mus	-10.2533
▁1977-	-10.2534
▁şəhərindən	-10.2535
▁Qal	-10.2536
▁öğren	-10.2539
▁bilgisayar	-10.2543
port	-10.2544
▁Quru	-10.2544
▁apardığı	-10.2545
▁mar	-10.2548
ləşdirmək	-10.255
tis	-10.2551
▁bala	-10.2551
▁Aq	-10.2554
▁səviyyəsi	-10.2565
stin	-10.2569
▁üzvi	-10.2574
▁Yunan	-10.2576
▁dissertasiya	-10.2579
▁gü	-10.2581
▁şəraiti	-10.2586
▁çirk	-10.2588
▁Hələ	-10.2588
▁Sosial	-10.2591
pat	-10.2593
66	-10.2595
▁Macarıstan	-10.2595
▁Bakının	-10.2596
▁şəhəridir	-10.2598
▁Futbol	-10.26
▁heyətinin	-10.26
▁yaradılıb	-10.2601
vat	-10.2601
▁55	-10.2602
▁şe	-10.2603
▁mövsümündə	-10.2603
▁çəkilir	-10.2607
rp	-10.2607
▁yağış	-10.2609
yım	-10.2611
rom	-10.2613
▁həlli	-10.2613
▁maarif	-10.2614
▁zorunda	-10.2614
▁rəngi	-10.2618
▁burax	-10.2618
▁Oyun	-10.2619
▁Aralıq	-10.2623
hri	-10.2624
▁əleyhinə	-10.2625
ilməsi	-10.2629
süz	-10.2629
▁Zər	-10.2629
▁fəlsəfi	-10.2631
set	-10.2635
▁Əhalisi	-10.2635
▁Sosialist	-10.2636
▁hökm	-10.2637
kər	-10.2641
lek	-10.2642
vey	-10.2644
▁Pat	-10.2645
▁Məlik	-10.2646
▁mərhələsi	-10.2647
▁Cəbrayıl	-10.265
▁Ancak	-10.2651
▁mütəxəssis	-10.2653
▁hissəsinin	-10.2654
▁ser	-10.2654
ani	-10.2656
▁değer	-10.2657
qat	-10.2658
▁ı	-10.2659
▁çıxıb	-10.2659
▁qəzetində	-10.2662
mis	-10.2662
▁xahiş	-10.2663
▁uğurla	-10.2663
əliyev	-10.2665
▁üslub	-10.2666
▁Xüsusi	-10.2668
▁or	-10.2668
▁1948-	-10.2673
▁borc	-10.2674
▁hesablama	-10.2674
▁görülüb	-10.2683
layıcı	-10.2685
▁materiallar	-10.2688
▁gedib	-10.2689
▁dərə	-10.2689
▁Anadolu	-10.2692
26	-10.2694
▁Meksika	-10.2695
68	-10.2696
lanıb	-10.2697
▁oluna	-10.27
oma	-10.27
▁rəhbər	-10.2701
-10	-10.2703
▁üzə	-10.2704
▁çoxdur	-10.2706
ənd	-10.2706
▁Ken	-10.2706
▁Qrup	-10.2707
▁tarixdə	-10.2707
▁Abdullayev	-10.2717
▁burnu	-10.2719
▁Berlin	-10.272
▁bunları	-10.2721
▁qiymətləndiril	-10.2721
▁etmir	-10.2722
▁etti	-10.2723
▁vulkan	-10.2728
hid	-10.2729
▁həyatında	-10.273
hal	-10.2731
▁fakültəsində	-10.2731
▁fe	-10.2738
▁münasibət	-10.2738
him	-10.274
▁Sara	-10.274
▁axtarış	-10.2744
acağını	-10.2745
▁Televiziya	-10.2746
▁birçok	-10.2746
▁gerçək	-10.2746
▁gel	-10.2747
44	-10.2747
▁çə	-10.275
▁dönüş	-10.275
▁tarixə	-10.2758
▁ölümü	-10.2759
▁ru	-10.276
▁zirvə	-10.276
▁istiqamətdə	-10.276
▁şəkər	-10.2761
▁anlayış	-10.2763
▁vahidi	-10.2764
W	-10.2764
▁özünəməxsus	-10.2765
▁Vladimir	-10.2765
▁modeli	-10.2766
saq	-10.2767
stra	-10.2769
▁yerləşirdi	-10.277
sizlik	-10.277
ф	-10.277
▁yarımadası	-10.277
▁yayın	-10.2771
▁nüfuzlu	-10.2774
urdu	-10.2776
▁Orada	-10.2788
▁1940-	-10.2791
▁yatır	-10.2796
▁turizm	-10.2797
▁qorunması	-10.2798
▁hadisələri	-10.2799
▁çatdır	-10.28
▁gelen	-10.2801
▁qardaş	-10.2803
vet	-10.2807
67	-10.2809
dığımız	-10.281
▁ek	-10.2814
▁xaç	-10.2815
▁keçmə	-10.2819
▁sahələrdə	-10.282
▁filmdə	-10.2821
▁səsi	-10.2822
rli	-10.2822
▁Radio	-10.2822
▁çevrildi	-10.2824
pen	-10.2826
ləşməsi	-10.2828
▁təsəvvür	-10.283
▁9-	-10.283
▁sual	-10.2831
▁Şəhərin	-10.2833
▁səmərəli	-10.2835
▁Kam	-10.2836
.4	-10.2837
▁taşı	-10.2838
▁yuva	-10.2838
▁tibbi	-10.2839
▁tədqiqi	-10.2842
▁Müsəlman	-10.2843
▁rəy	-10.2844
ksi	-10.2852
əbə	-10.2853
▁taxt	-10.2854
▁yüzde	-10.2855
▁alətləri	-10.2855
▁yaşam	-10.2857
▁xidmətləri	-10.286
▁nəzarəti	-10.2861
▁kvadrat	-10.2862
▁işini	-10.2863
▁janr	-10.2867
▁səhra	-10.2868
56	-10.287
▁yüksek	-10.287
▁üsyanı	-10.288
▁əsrdən	-10.2882
▁And	-10.2882
▁mər	-10.2888
cağı	-10.2895
▁buraya	-10.2897
ys	-10.2899
▁acı	-10.2902
dro	-10.2904
kat	-10.2906
▁aşıq	-10.2907
▁öl	-10.2909
▁39	-10.2913
▁Bağ	-10.2917
▁Lenin	-10.2924
▁ölçüsü	-10.293
sli	-10.2938
▁orqan	-10.2938
▁ibtidai	-10.294
ğur	-10.2941
▁dəyişdi	-10.2942
▁risk	-10.2942
▁Bak	-10.2945
lur	-10.2952
▁Döyüş	-10.2953
▁dəyiş	-10.2954
▁faydalı	-10.2956
▁qazanıb	-10.2956
yr	-10.2957
pol	-10.2958
▁1938-	-10.2959
▁ömrünün	-10.296
▁başçılığı	-10.2962
▁geçir	-10.2964
ışı	-10.2966
-17	-10.2968
▁Ce	-10.297
▁sor	-10.2971
▁anlat	-10.2971
▁eder	-10.2972
▁çatdı	-10.2973
▁Sonradan	-10.298
▁vaxtda	-10.298
▁kazan	-10.2982
▁öyrənir	-10.2984
▁kənarda	-10.2986
▁bildi	-10.2987
▁ox	-10.2989
▁pillə	-10.2989
▁tikilmiş	-10.2991
▁Almaniyada	-10.2991
▁relyef	-10.2991
▁turnir	-10.2991
▁Əfəndi	-10.2998
ل	-10.2999
lerinden	-10.2999
▁xanlığı	-10.3
▁stansiyası	-10.3001
▁veril	-10.3002
▁limanı	-10.3002
▁Universitet	-10.3005
▁axtar	-10.3006
▁qayıdır	-10.3007
▁geo	-10.3011
J	-10.3011
200	-10.3014
matik	-10.3016
▁texnologiya	-10.3017
91	-10.3018
¬	-10.3019
▁ayından	-10.3019
▁Tofiq	-10.3019
▁1958-	-10.3019
▁kəndləri	-10.302
lya	-10.302
▁Sakit	-10.3021
əd	-10.3021
öz	-10.3023
▁edin	-10.3026
üş	-10.3028
▁adalar	-10.3029
ер	-10.3029
▁İvan	-10.3031
dər	-10.3031
ləndirmək	-10.3034
likdə	-10.3038
▁ümid	-10.3039
bol	-10.3041
lüyü	-10.3041
▁külək	-10.3042
▁rayonlarında	-10.3042
▁qəhrəmanı	-10.3048
pro	-10.3048
abil	-10.305
▁cə	-10.305
lıqda	-10.305
▁sinfi	-10.305
dov	-10.3054
rken	-10.3055
ləndirir	-10.3055
р	-10.3058
liklər	-10.3058
▁zəlzələ	-10.3058
▁Mart	-10.3059
▁kafedra	-10.3059
▁Adanın	-10.3061
ano	-10.3062
sam	-10.3063
▁basit	-10.3067
ümüz	-10.3069
▁qurban	-10.307
▁olduqda	-10.3072
berq	-10.3072
dri	-10.3072
kol	-10.3074
▁şahzadə	-10.3075
▁içki	-10.3077
▁nişan	-10.3082
əyin	-10.3082
▁xaqan	-10.3084
▁Fər	-10.3085
▁müqavimət	-10.3088
com	-10.3088
▁hadisələrin	-10.3089
▁adının	-10.309
▁büyü	-10.3091
▁dost	-10.3093
▁qabaq	-10.3099
▁Çu	-10.31
▁komandiri	-10.3103
may	-10.3103
▁əhəmiyyəti	-10.3103
▁elektro	-10.3106
▁1957-	-10.3106
▁istəyi	-10.3107
asiyası	-10.311
▁uzanır	-10.3116
▁adında	-10.3119
▁Azad	-10.312
bb	-10.3126
▁Far	-10.3127
▁sədr	-10.3129
▁çıx	-10.313
▁pedaqoji	-10.3132
▁uçuş	-10.3138
▁Portuqaliya	-10.314
6	-10.314
▁1946-	-10.314
likləri	-10.3144
▁keçirib	-10.3148
üstə	-10.315
75	-10.3151
▁əsərlərində	-10.3153
del	-10.3157
▁eski	-10.3158
▁landşaft	-10.3158
▁başı	-10.3158
▁ailədən	-10.3159
yət	-10.3164
▁Səməd	-10.3171
rgi	-10.3171
▁Qan	-10.3173
yyət	-10.3174
▁nazik	-10.3178
▁qiyməti	-10.3179
▁süd	-10.3181
▁futbolçusu	-10.3182
▁Adam	-10.3183
madan	-10.3185
▁kart	-10.3188
mayan	-10.319
▁yaradıldı	-10.319
▁cizgi	-10.3192
lanmışdır	-10.3193
▁Sir	-10.3195
▁biznes	-10.3195
▁FK	-10.3198
▁coğrafiya	-10.32
38	-10.3201
▁gətirən	-10.3202
▁olmalıdır	-10.3203
▁XV	-10.3206
birindən	-10.3207
Ma	-10.3209
▁ibadət	-10.3212
▁istisna	-10.3212
itlər	-10.3214
▁kül	-10.3216
▁incə	-10.3216
▁bat	-10.3217
rtıq	-10.3219
▁gündə	-10.322
iti	-10.3223
por	-10.3223
▁50-	-10.3224
diğimiz	-10.3227
▁dosent	-10.3237
sıdır	-10.3239
fik	-10.3239
▁şərti	-10.3243
▁Nur	-10.3244
▁gündən	-10.3245
▁rütbəsi	-10.3248
mesi	-10.325
47	-10.325
tür	-10.3251
▁1963-	-10.3252
▁trans	-10.3253
one	-10.3253
▁hiçbir	-10.3254
▁oyna	-10.3254
▁əsgərləri	-10.3254
asında	-10.3256
ğını	-10.3257
▁süni	-10.326
▁sürətli	-10.3265
▁Qəbələ	-10.3266
.8	-10.3266
istlər	-10.327
▁mil	-10.327
-18	-10.3272
▁Teatr	-10.3273
▁rədd	-10.3274
▁es	-10.3274
▁Partiyasının	-10.3276
▁çin	-10.3276
▁keyfiyyət	-10.3277
▁iqtisadiyyat	-10.3277
▁müvəqqəti	-10.3279
▁mənasında	-10.3279
▁Babək	-10.3288
car	-10.3288
zadənin	-10.3289
istik	-10.329
ct	-10.329
▁Oğuz	-10.3293
ovski	-10.3295
▁qapısı	-10.3295
▁alimlər	-10.3295
▁Alp	-10.33
▁zəruri	-10.3302
▁nəticələri	-10.3302
əti	-10.3303
▁analiz	-10.3304
ıyoruz	-10.3304
▁Br	-10.3305
▁çarp	-10.3307
▁yavaş	-10.3308
▁mayın	-10.3309
▁qal	-10.3311
▁Tay	-10.3311
▁Bayram	-10.3312
ن	-10.3312
rid	-10.3313
▁Vaqif	-10.3313
▁Den	-10.3314
▁zonası	-10.3315
▁gəmisi	-10.3316
lm	-10.3316
▁Nu	-10.3318
▁qərbdə	-10.332
▁karbon	-10.332
aba	-10.3321
▁çe	-10.3324
▁olmalı	-10.3326
▁Vil	-10.3328
▁qalx	-10.3329
▁belki	-10.3331
77	-10.3332
▁1962-	-10.3335
▁cəhət	-10.3339
▁kollektiv	-10.334
▁toxuma	-10.3341
▁peyğəmbər	-10.3345
▁VII	-10.3346
▁istənilən	-10.3347
▁Mehdi	-10.335
▁Tam	-10.3352
metr	-10.3353
▁örtüyü	-10.3353
ст	-10.3354
▁istəyən	-10.3356
rma	-10.3356
▁Yerli	-10.3356
eviç	-10.3357
▁Bank	-10.3364
▁başqaları	-10.3364
▁kö	-10.3364
top	-10.3365
▁evində	-10.3366
▁əlaqəsi	-10.3367
▁Bas	-10.3369
▁Həyat	-10.3372
▁şə	-10.3373
izasiya	-10.3373
▁toxun	-10.3373
▁Üçüncü	-10.3374
▁BMT	-10.3374
▁adasında	-10.3377
▁götürür	-10.3379
▁faiz	-10.3379
64	-10.338
▁İnzibati	-10.3381
▁geyim	-10.3382
▁Həsənov	-10.3384
irlər	-10.3387
▁tədricən	-10.3388
ls	-10.3388
ym	-10.3394
ord	-10.3395
▁ap	-10.3398
▁daşın	-10.3403
▁aşı	-10.3407
▁şeirlər	-10.3409
▁suları	-10.341
ell	-10.3417
▁XIII	-10.3417
41	-10.3418
▁Evet	-10.342
▁hazırlanan	-10.342
▁professoru	-10.3425
▁vasitə	-10.3426
▁Ala	-10.3426
asının	-10.3428
▁Avqust	-10.3429
▁ölkələri	-10.3436
vel	-10.3441
▁Fransada	-10.3441
tes	-10.3443
▁direktor	-10.3446
▁Şair	-10.3449
▁narahat	-10.3449
lərdir	-10.345
▁ölü	-10.3455
▁yiyələn	-10.346
▁qurulması	-10.3463
▁vəzifə	-10.3465
▁em	-10.3465
Peterburq	-10.3478
▁diplomu	-10.3478
▁Tehran	-10.3481
▁italyan	-10.3484
▁Özbəkistan	-10.3484
▁Dünyanın	-10.3488
məkdədir	-10.3491
▁yaxından	-10.3493
▁Para	-10.3496
▁müharibəsində	-10.3497
▁üret	-10.3498
▁orqanizm	-10.3505
ami	-10.3505
▁nağıl	-10.3506
▁şərqdə	-10.3507
▁Ker	-10.3508
▁birlikte	-10.3509
tinin	-10.351
▁Sim	-10.3511
▁rəngdə	-10.3511
▁ittifaq	-10.3511
▁yapıyor	-10.3512
▁yanvarın	-10.3512
çək	-10.3516
▁xüsusən	-10.3519
▁keçərək	-10.352
yl	-10.3521
tre	-10.3522
▁mavi	-10.3523
▁du	-10.3523
▁başlamışdı	-10.3525
▁populyar	-10.3525
▁xəstəliyin	-10.3526
▁təqib	-10.3527
▁versiya	-10.3532
mür	-10.3533
▁ispan	-10.3533
bulaq	-10.3538
düyü	-10.3538
▁yet	-10.3538
▁sistemləri	-10.3538
▁Kommunist	-10.3539
▁yanı	-10.3542
▁latın	-10.3549
▁feodal	-10.3553
▁mühitin	-10.3555
▁TV	-10.3556
▁istilik	-10.3558
▁oxun	-10.3558
▁iştirakçısı	-10.3559
▁Vol	-10.3561
chi	-10.3561
dirlər	-10.3563
wa	-10.3567
▁yun	-10.3567
dık	-10.3568
▁araştırma	-10.3568
qaz	-10.3571
mızın	-10.3576
▁öyle	-10.3576
▁başlandı	-10.3581
▁arxiv	-10.3582
▁peyk	-10.3582
▁vasitələri	-10.3583
▁Kom	-10.3583
▁dünyasını	-10.3583
▁hayatı	-10.3586
▁nəvəsi	-10.3588
▁əməl	-10.3598
▁Qəhrəmanı	-10.3599
.6	-10.36
▁44	-10.3602
▁mono	-10.3602
▁vermişdi	-10.3603
▁raket	-10.3603
▁əzələ	-10.3605
▁İcra	-10.3608
▁Lev	-10.361
93	-10.361
mışlar	-10.3611
▁çoğu	-10.3622
▁EA	-10.3622
▁könüllü	-10.3622
▁Danimarka	-10.3623
▁xəritə	-10.3624
▁Lü	-10.3624
▁əksinə	-10.3626
▁vəsiqə	-10.3631
▁1939-	-10.3632
kor	-10.3632
bon	-10.3632
▁Əhalinin	-10.3636
▁Təsərrüfatı	-10.3638
▁proje	-10.3639
▁Sur	-10.3644
▁işçisi	-10.3644
▁Aydın	-10.3646
▁hazırlanmışdır	-10.3646
▁qoydu	-10.3646
ori	-10.3653
▁qəbir	-10.3655
▁okul	-10.3658
▁yaradıcı	-10.3665
lıqla	-10.3666
▁Əziz	-10.3666
dal	-10.3666
▁nokta	-10.3666
▁qardaşları	-10.3667
▁Tal	-10.3668
▁şirkətinin	-10.3669
▁qalın	-10.3672
ündə	-10.3675
▁şurasının	-10.3677
▁yarışma	-10.3682
▁ruhu	-10.3694
▁mənzil	-10.3695
▁keçirən	-10.3695
▁oynamışdır	-10.3696
▁Sağ	-10.3698
▁jurnalının	-10.3698
▁göstərmiş	-10.3705
8	-10.3706
▁döndü	-10.3706
▁terrorçuları	-10.3709
▁52	-10.3711
▁enerjisi	-10.3712
▁Rejissor	-10.3714
▁saxlamaq	-10.3718
alın	-10.3718
▁qrupa	-10.3721
▁ümumiyyətl	-10.3722
▁Maykl	-10.3723
eli	-10.3729
▁Partiya	-10.3732
▁lüğəti	-10.3732
▁münaqişə	-10.3735
▁türbə	-10.3735
▁Təbii	-10.3738
▁ssenari	-10.3739
▁etdiyini	-10.3739
84	-10.374
▁mətn	-10.3743
▁kız	-10.3745
▁səhər	-10.3748
▁liman	-10.3749
▁toxum	-10.3749
siyası	-10.375
▁Sto	-10.3752
▁təhlükəsizlik	-10.3755
▁tamamen	-10.3756
yeva	-10.3757
▁Şərur	-10.3758
▁araşdırmalar	-10.3759
nizi	-10.376
üzə	-10.3761
▁aparılması	-10.3768
▁Səid	-10.3768
▁ardınca	-10.3771
▁diplomatik	-10.3774
AR	-10.3775
▁fabrik	-10.3778
▁münasibəti	-10.3779
▁XIV	-10.3781
▁sub	-10.3781
duk	-10.3786
lor	-10.3787
▁yekun	-10.3787
43	-10.3789
▁Sav	-10.3796
▁razı	-10.3797
▁41	-10.3801
▁manqa	-10.3801
▁Je	-10.3802
▁əz	-10.3802
▁Dr	-10.3804
▁Axundov	-10.3804
73	-10.3804
▁bölgədə	-10.3805
▁vəsait	-10.3805
yt	-10.3813
▁Siz	-10.3824
▁fakültəsinə	-10.3824
▁der	-10.3827
▁imperiyasının	-10.3831
▁fəaliyyətinin	-10.3832
▁rayonun	-10.3835
▁yanlış	-10.3835
▁qaçır	-10.3836
▁qoyun	-10.3837
laşan	-10.3841
▁orkestr	-10.3842
▁Kilsə	-10.3842
58	-10.3843
▁Afina	-10.3843
▁tikili	-10.3843
▁Alban	-10.3844
▁Bər	-10.3846
62	-10.3848
ranın	-10.3849
▁şüşə	-10.3849
▁istəyirdi	-10.3851
pon	-10.3852
▁usta	-10.3853
ınca	-10.3856
▁yarışlarında	-10.3857
▁qitə	-10.3857
▁tələbələr	-10.386
▁növbədə	-10.386
▁tarixinin	-10.3861
▁xət	-10.3863
▁120	-10.3863
▁bü	-10.3866
▁ermənilərin	-10.3867
▁25-	-10.3868
▁tutmuş	-10.3869
▁ga	-10.3869
hur	-10.3873
▁Əs	-10.3874
layıb	-10.3876
▁mln	-10.388
71	-10.3882
▁döyüşlərdə	-10.3883
▁uğra	-10.3883
ин	-10.3884
▁bilərdi	-10.3884
▁şüa	-10.3885
▁fakültə	-10.3886
▁məzun	-10.3888
▁yuxu	-10.3889
▁Cavanşir	-10.3892
bey	-10.3895
▁Ax	-10.3895
▁diametri	-10.3896
▁mərasim	-10.3896
▁təsnifat	-10.3898
▁bəs	-10.3899
▁dönəmində	-10.39
▁abidəsi	-10.3901
und	-10.3901
▁xatirə	-10.3904
daşı	-10.3904
▁yerləş	-10.3906
▁gələrək	-10.3908
▁yağı	-10.391
tic	-10.3917
▁yarpaqları	-10.3919
▁Amerikada	-10.3919
eği	-10.3922
ıx	-10.3923
▁mətbuat	-10.3925
▁yeraltı	-10.3927
məklə	-10.3929
▁axar	-10.393
tədqiqat	-10.3931
▁reklam	-10.3936
▁davranış	-10.3936
dikdən	-10.3936
▁keçirildi	-10.3936
▁çəkdiyi	-10.3937
▁məhsul	-10.3942
▁sakit	-10.3945
rar	-10.3949
▁Uilyam	-10.395
▁istifadəyə	-10.3951
▁Men	-10.3952
42	-10.3953
che	-10.3955
▁döş	-10.3955
▁nəfərdən	-10.3956
▁qazı	-10.3957
▁filologiya	-10.3958
▁19-	-10.3962
▁doğ	-10.3964
▁xüsusiyyəti	-10.3967
mba	-10.397
ino	-10.397
▁qəsəbəsi	-10.3972
▁MK	-10.3976
▁torpaqları	-10.398
▁adlandırılan	-10.3984
verdi	-10.3984
▁anime	-10.3988
▁Kap	-10.3989
▁şəbəkəsi	-10.3992
▁dənizinin	-10.3992
▁Ek	-10.3998
tək	-10.3998
anda	-10.3999
▁Zaman	-10.4003
▁Kiyev	-10.4003
▁sənayesi	-10.4003
▁tədbir	-10.401
▁ideal	-10.4014
▁yandır	-10.4016
▁müddəti	-10.4019
▁Parisdə	-10.4019
logiya	-10.4021
▁meyl	-10.4021
▁klubunda	-10.4022
▁təslim	-10.4023
▁zabit	-10.4024
▁şiş	-10.4029
▁oldular	-10.403
▁gördü	-10.4033
▁Azərbaycanı	-10.4033
▁Ordusu	-10.4034
▁1.	-10.4036
▁hücuma	-10.4036
▁$	-10.4037
▁tutma	-10.4039
ləndirmə	-10.4042
▁olmasa	-10.4043
▁Çingiz	-10.4044
▁qrupuna	-10.4045
▁paltar	-10.4045
ık	-10.4051
▁tamaşaçı	-10.4052
▁sözünün	-10.4054
▁1964-	-10.4054
▁materialları	-10.4054
▁hind	-10.4055
▁açılır	-10.4062
▁kü	-10.4064
▁Arif	-10.4065
▁Qasımov	-10.4068
▁pre	-10.4068
▁təməl	-10.4069
nis	-10.407
▁tutmuşdur	-10.4071
▁filiz	-10.4071
▁yerine	-10.4074
▁Tü	-10.4075
▁çalışırdı	-10.408
uru	-10.4082
▁sultanı	-10.4083
▁təşəbbüsü	-10.4084
liş	-10.4085
▁yurdu	-10.4086
▁əraziləri	-10.4086
▁çık	-10.4087
▁görüşdə	-10.4087
▁Fer	-10.4087
▁Ailə	-10.4089
▁vilayətində	-10.4089
▁dolayı	-10.409
ilmiş	-10.409
▁uca	-10.4091
umu	-10.4095
▁öğret	-10.4096
▁harika	-10.4096
▁şirin	-10.4097
▁göstər	-10.4099
▁Bol	-10.41
▁əli	-10.4101
▁işləməyə	-10.4105
▁minlərlə	-10.411
55	-10.4113
ağ	-10.4114
▁xəstəliyi	-10.4118
etti	-10.4121
▁Asiyada	-10.4123
▁güç	-10.4123
▁olay	-10.4124
skinin	-10.413
▁dərinliyi	-10.4133
▁İstanbulda	-10.4133
▁çək	-10.4137
çilərin	-10.4138
▁temel	-10.414
▁manat	-10.4141
teri	-10.4141
▁araya	-10.4142
▁cavan	-10.4144
▁Bura	-10.4146
▁yazılmışdır	-10.4146
â	-10.4147
▁Təbiət	-10.4147
▁tapmışdır	-10.4149
▁Akademik	-10.4154
▁sonuç	-10.4155
▁varlıq	-10.4155
▁43	-10.4159
▁ekoloji	-10.4163
▁fəth	-10.4164
▁rəssamı	-10.4164
▁İdarə	-10.4166
▁dekabrın	-10.4172
▁ştat	-10.4173
▁edilməsinə	-10.4174
▁bol	-10.4176
▁məişət	-10.4177
▁1949-	-10.4177
▁Kənddə	-10.418
▁Məs	-10.4182
▁obrazı	-10.4182
▁iqtisadiyyatı	-10.4185
▁fərqlənmə	-10.4192
usu	-10.4192
yd	-10.4192
imizin	-10.4193
▁Ulduz	-10.4199
▁oranı	-10.4201
▁ха	-10.4203
▁qurulan	-10.4203
adam	-10.4204
▁formalı	-10.4207
83	-10.4208
▁sentyabrın	-10.421
▁Mars	-10.4211
▁əməliyyatı	-10.4211
▁sərəncamı	-10.4211
▁gereken	-10.4212
▁av	-10.4213
▁ifaçı	-10.4213
▁mülki	-10.4216
▁dizayn	-10.422
▁sözündən	-10.4221
▁zirvəsi	-10.4224
.7	-10.4228
▁komediya	-10.4228
▁lay	-10.4229
xanlı	-10.4231
▁uc	-10.4232
▁martın	-10.4233
▁Ştatları	-10.4236
▁MR	-10.4241
kur	-10.4242
▁süjet	-10.4243
▁kontrol	-10.4244
▁keçi	-10.4245
▁yaptığı	-10.4247
▁Din	-10.4249
▁Sta	-10.425
▁əla	-10.4251
qur	-10.4253
▁mahnıları	-10.4253
▁hazırlıq	-10.4257
▁torpaqlar	-10.4257
▁kəşfiyyat	-10.4261
63	-10.4262
▁problemlər	-10.4262
bas	-10.4262
▁Mel	-10.4271
lerimiz	-10.4277
▁nun	-10.4277
adək	-10.428
▁təqaüd	-10.4281
▁Yüksək	-10.4281
81	-10.4281
53	-10.4282
▁baza	-10.429
▁əyalətinin	-10.4294
▁örnek	-10.4296
gar	-10.4296
▁Fərhad	-10.4296
▁2017	-10.4296
rilən	-10.4296
▁Bağdad	-10.4298
eş	-10.4302
▁1942-	-10.4303
▁aləmi	-10.4305
▁hü	-10.4307
▁toz	-10.4309
▁ayrıl	-10.4309
▁keçə	-10.4311
▁diş	-10.4311
▁ziyan	-10.4313
işi	-10.4314
▁silsiləsinin	-10.4314
▁600	-10.4323
trop	-10.4323
▁suda	-10.4323
▁vəzifəsi	-10.4325
ksiya	-10.4325
▁Qurban	-10.4326
vu	-10.433
▁şöyle	-10.4333
▁1922-	-10.4333
▁günbəz	-10.4333
▁kollec	-10.4335
▁aprelin	-10.4335
▁məhəbbət	-10.4337
▁fakültəsinin	-10.4338
▁1944-	-10.4342
▁birləşdirən	-10.4345
ps	-10.4352
▁Kü	-10.4355
▁taleyi	-10.4356
▁başladığı	-10.4359
▁1926-	-10.4361
▁çəkiliş	-10.4364
▁artması	-10.4366
▁qanunu	-10.4367
▁Hacıyev	-10.437
▁ülke	-10.4372
eme	-10.4374
lənib	-10.4378
▁Sən	-10.4379
▁özel	-10.4382
▁Filmdə	-10.4382
▁üzerine	-10.4386
▁şərqində	-10.4389
▁laboratoriya	-10.439
▁ele	-10.439
▁gedə	-10.4391
▁lat	-10.4396
▁1947-	-10.4397
ığı	-10.4397
▁ixrac	-10.4401
▁qılınc	-10.4402
▁Belarus	-10.4402
▁qulaq	-10.4403
dərə	-10.4404
ب	-10.4408
▁dostları	-10.4411
▁pan	-10.4414
▁Sil	-10.4414
çiləri	-10.4416
ras	-10.4417
fan	-10.4417
78	-10.4421
57	-10.4423
▁Oktyabr	-10.4424
▁qorumaq	-10.4426
otu	-10.4427
▁yaşayırlar	-10.4428
▁Nar	-10.4428
▁mərhələdə	-10.443
▁İnformasiya	-10.4432
▁efir	-10.4434
▁aparmaq	-10.4442
▁yerləşdirilmiş	-10.4442
▁XII	-10.4444
▁ip	-10.4445
▁ister	-10.4446
vil	-10.4447
61	-10.445
liya	-10.445
lıqlar	-10.4451
sor	-10.4452
▁ərazisinin	-10.4453
▁deputatı	-10.4453
▁Ruh	-10.4458
▁çayın	-10.4459
▁sanki	-10.4461
liz	-10.4463
▁1954-	-10.4465
▁72	-10.4465
qay	-10.4466
▁Kamal	-10.4468
▁Çələbi	-10.4469
87	-10.447
▁qur	-10.4471
▁keçib	-10.4472
▁Albom	-10.4477
▁babası	-10.448
lum	-10.4481
▁Cin	-10.4481
▁bilərlər	-10.4484
▁kurs	-10.4486
▁vaxtlar	-10.4486
▁dü	-10.4487
▁verməsi	-10.4488
lib	-10.4488
▁yanğın	-10.4488
▁qələmə	-10.449
▁diyarı	-10.4493
▁məzar	-10.4495
▁qüllə	-10.4505
▁iyunun	-10.4506
▁dis	-10.451
▁güçlü	-10.4513
varı	-10.4513
▁seçmə	-10.4515
▁Muğan	-10.4517
▁XI	-10.4522
▁kod	-10.4522
oza	-10.4523
▁eden	-10.4524
▁ölkələr	-10.4524
▁Talış	-10.4525
aç	-10.4526
▁now	-10.4527
▁yerlərində	-10.453
▁açı	-10.4531
▁məqam	-10.4539
▁dolar	-10.4541
▁xəstəlik	-10.4541
▁şeirləri	-10.4544
▁Şü	-10.4547
mde	-10.4547
▁daki	-10.4549
▁çevre	-10.4553
laşdırmaq	-10.4555
▁artık	-10.4555
▁dəyişməsi	-10.4558
▁prinsipi	-10.4559
▁qidalanır	-10.4567
mm	-10.4572
əsində	-10.4573
▁Ol	-10.4575
aqlı	-10.4575
▁bədənin	-10.4576
ney	-10.4576
▁düşünür	-10.4577
▁Med	-10.4577
▁emalı	-10.4577
▁öldürüldü	-10.458
▁şöbəsi	-10.4582
rdı	-10.4583
landığı	-10.4583
▁fotoğraf	-10.4584
▁dolları	-10.4584
▁Amerikan	-10.4585
▁12-	-10.4585
▁ruslar	-10.4587
36	-10.4589
etmə	-10.4589
▁əlinə	-10.459
▁işte	-10.459
sunun	-10.4591
▁İmperator	-10.4592
ləşdirir	-10.46
məlidir	-10.4602
▁Əm	-10.4603
▁lideri	-10.461
▁Tamam	-10.4614
76	-10.4616
▁For	-10.462
▁çəkən	-10.4622
▁çıxarır	-10.4622
▁etdirdi	-10.4624
▁Yar	-10.4626
▁Х	-10.4627
▁keçməsi	-10.4628
▁şahın	-10.4629
▁Stalin	-10.4631
▁Fil	-10.4634
▁gətirdi	-10.4635
▁alındı	-10.4639
▁т	-10.4639
▁sərhədləri	-10.4641
▁uzunsov	-10.4642
▁Göl	-10.4645
▁robot	-10.4646
▁Maq	-10.4646
▁molekul	-10.4652
▁1953-	-10.4655
üyor	-10.4656
▁46	-10.4656
▁pu	-10.4656
▁xas	-10.4657
laşdırır	-10.4659
▁gündəlik	-10.4664
taq	-10.4667
fu	-10.4669
▁Texniki	-10.4669
▁siyahısına	-10.4669
▁İz	-10.4671
▁olmuşlar	-10.4674
▁Ram	-10.4675
▁qərbində	-10.4677
▁düşərgə	-10.4679
▁Pyotr	-10.4679
-3	-10.468
▁Xorasan	-10.4685
é	-10.4692
▁Rostov	-10.4692
▁bulağı	-10.4695
şərqində	-10.4699
▁müstəmləkə	-10.47
▁əbədi	-10.4701
▁süvari	-10.4702
▁nəfərlik	-10.4704
▁Kazım	-10.4711
▁Göyçə	-10.4711
▁get	-10.4714
▁işlərinə	-10.4715
▁istinad	-10.4715
▁ərazilərində	-10.4715
▁ocağı	-10.4717
▁araşdır	-10.4723
ou	-10.4723
▁tre	-10.4725
▁bənd	-10.4725
jo	-10.4725
▁hasta	-10.4725
33	-10.4726
▁sir	-10.4727
▁yolda	-10.4729
▁şeyin	-10.4729
م	-10.473
▁müttəfiq	-10.4733
maları	-10.4733
▁şiə	-10.4733
▁2002	-10.4733
▁Gu	-10.4734
▁eğitim	-10.4735
▁əlyazma	-10.474
ros	-10.4742
▁blok	-10.4743
▁Cen	-10.4745
▁Torpaq	-10.4748
▁Wi	-10.4748
▁doğum	-10.4749
ene	-10.4751
▁ulu	-10.4751
ləş	-10.4752
▁1921-	-10.4753
eceğim	-10.4754
▁David	-10.4758
▁sülaləsi	-10.4758
▁60-	-10.4758
▁kompozisiya	-10.4761
ıldığı	-10.4761
▁bağı	-10.4761
▁Ümumiyyətlə	-10.4763
▁verə	-10.4764
▁verilib	-10.4766
oş	-10.4766
▁bilirdi	-10.4768
▁müəssisələri	-10.4768
qəsd	-10.4768
▁Port	-10.477
▁1905-	-10.4771
▁Aprel	-10.4771
▁Monqol	-10.4771
▁ənənə	-10.4776
▁filminin	-10.4777
▁zolaq	-10.4778
▁Bax	-10.4782
▁&#124;	-10.4786
▁Kəlbəcər	-10.4786
▁nailiyyətlər	-10.4788
▁qalıb	-10.4789
▁Səfəvilər	-10.479
▁memarlığı	-10.4791
▁adamlar	-10.4792
▁Yaponiyanın	-10.4792
▁olduqları	-10.4792
▁qüvvələr	-10.4792
▁değiş	-10.4793
▁İnternet	-10.4795
▁sözlər	-10.4795
▁seçildi	-10.4796
▁tar	-10.4801
▁1955-	-10.4805
▁Fəxri	-10.481
▁poçt	-10.481
▁Ban	-10.4811
▁Tədqiqat	-10.4812
▁Təşkilatı	-10.4815
dun	-10.4822
▁64	-10.4826
▁tələbələrin	-10.4829
▁inqilabı	-10.4834
▁Es	-10.4836
▁birləşdirir	-10.4839
ağın	-10.4841
▁ә	-10.4841
▁yaradan	-10.4842
▁mane	-10.4842
▁Əhmədov	-10.4844
▁tutub	-10.4845
▁hayvan	-10.4851
sər	-10.4852
mez	-10.4857
medi	-10.4857
▁Saray	-10.4858
▁ho	-10.4862
▁olanlar	-10.4862
▁paralel	-10.4866
▁heyət	-10.4866
▁şərt	-10.4867
▁xidmətə	-10.4868
linq	-10.487
dem	-10.4873
▁bəzək	-10.4873
▁uşağı	-10.4881
məsini	-10.4881
▁İqtisadi	-10.4882
▁qoşunu	-10.4887
▁həyatının	-10.4888
▁azı	-10.4889
anq	-10.4891
▁tutulmuş	-10.4891
▁belir	-10.4891
etik	-10.4891
▁çatmışdır	-10.4892
▁for	-10.4892
▁çevril	-10.4895
▁eşit	-10.4897
▁saxlayır	-10.4898
idlər	-10.4901
▁sahili	-10.4902
▁Göz	-10.4904
▁əfsanə	-10.4904
▁göstərilmişdir	-10.4904
▁tasarım	-10.4905
▁İsmayılov	-10.4909
▁yanaşma	-10.4912
elli	-10.4912
▁mənbə	-10.4913
ləşən	-10.4914
-8	-10.4915
▁sona	-10.4917
▁elementlərin	-10.4918
nar	-10.4924
▁damar	-10.4924
▁zavodu	-10.4925
▁Dia	-10.4926
▁oktyabrın	-10.493
▁BDU	-10.4937
▁hədiyyə	-10.4941
▁Federasiyası	-10.4942
kel	-10.4944
▁ilişki	-10.4945
▁Soveti	-10.4945
indəki	-10.4946
▁icma	-10.4952
▁Qran	-10.4952
▁qurğu	-10.4953
▁bilavasitə	-10.4953
▁Yaqub	-10.4953
▁ac	-10.4953
nızı	-10.4953
▁yığması	-10.4958
▁1943-	-10.4964
lem	-10.4966
tion	-10.4967
▁məsuliyyət	-10.4972
▁1,5	-10.4974
▁cəmiyyəti	-10.4974
▁həbsxana	-10.4975
▁İrlandiya	-10.4977
▁qazıntılar	-10.498
▁matç	-10.4981
▁noyabrın	-10.4984
▁mənzərə	-10.4985
oq	-10.4986
pik	-10.499
▁fakt	-10.4992
▁2003	-10.4992
▁meta	-10.4996
▁arxasında	-10.4998
▁kəsb	-10.4998
▁Yaponiyada	-10.5003
▁Tele	-10.5003
▁əvəzinə	-10.5004
▁Yunanıstan	-10.5004
▁Niderland	-10.5009
▁ittiham	-10.5009
şik	-10.501
ex	-10.5011
▁keç	-10.5014
▁bölge	-10.5015
▁yaşama	-10.5015
eyi	-10.5017
▁səfiri	-10.5018
▁uğursuz	-10.5019
▁təq	-10.5019
lərarası	-10.502
▁dilindən	-10.502
▁götür	-10.5021
-12	-10.5022
▁yarpaq	-10.5025
▁1923-	-10.503
▁tapıl	-10.503
▁satışa	-10.5032
▁herkes	-10.5033
▁bütöv	-10.5035
tığı	-10.5037
▁Rio	-10.504
▁Məh	-10.504
▁divarı	-10.5043
▁Adı	-10.5047
ləyici	-10.5048
▁tikilmişdir	-10.5052
AN	-10.5053
▁elementləri	-10.5054
▁hissi	-10.5056
▁sene	-10.5058
ümü	-10.506
▁qabiliyyəti	-10.5062
▁institutun	-10.5062
luğa	-10.5065
nal	-10.5068
▁İqtisadiyyat	-10.5069
▁alış	-10.5074
▁250	-10.5074
▁Ayrıca	-10.5076
▁şer	-10.5077
▁qələm	-10.5077
▁47	-10.508
▁Məz	-10.5081
▁əkinçilik	-10.5091
▁təhlükəli	-10.5093
▁iti	-10.5096
mişlər	-10.5096
▁almağa	-10.51
bal	-10.5102
▁Teatrında	-10.5104
▁Boz	-10.5106
▁Xə	-10.511
▁zamanlarda	-10.5113
ullah	-10.5114
▁kosmik	-10.5114
▁konusunda	-10.5115
7	-10.5118
▁vəsaiti	-10.5119
▁inanılmaz	-10.5122
▁ilində	-10.5125
▁məşqçi	-10.5126
▁Aslan	-10.5126
mor	-10.5129
▁1931-	-10.513
▁benzer	-10.5134
ort	-10.5135
▁Yaşayış	-10.5138
▁Tahir	-10.5142
▁ərazisindən	-10.5142
uc	-10.5144
▁mahalı	-10.5145
▁xarakteri	-10.5145
▁İnsanlar	-10.5146
▁İnkişaf	-10.5146
tura	-10.5147
▁hədəf	-10.5148
ardı	-10.5149
▁Livan	-10.515
şu	-10.5153
▁böyü	-10.5153
▁yerde	-10.5154
▁Poli	-10.5156
▁karyerası	-10.5158
diğim	-10.5159
▁döyüşçü	-10.516
▁yaddaş	-10.5167
▁kitabə	-10.5168
▁demokratik	-10.5171
▁Cəmiyyətinin	-10.5171
▁olacağı	-10.5171
▁dərk	-10.5172
yum	-10.5174
▁hazırlan	-10.5175
▁Gil	-10.5176
▁varsa	-10.5179
esi	-10.5181
▁Vyana	-10.5182
▁yolunun	-10.5183
diği	-10.5184
▁tutulur	-10.5186
▁istirahət	-10.5195
▁Böylece	-10.5196
▁süxurlar	-10.5199
▁bölgəsinin	-10.5201
▁mənə	-10.5203
▁1936-	-10.5204
▁müddətində	-10.5205
▁dik	-10.5211
▁etməli	-10.5214
▁Parlament	-10.5217
▁balet	-10.5224
▁əsrlərə	-10.5233
▁mo	-10.5233
▁qaydaları	-10.5237
muşdur	-10.5241
▁dairəvi	-10.5242
▁üzərindəki	-10.5242
▁boyun	-10.5243
▁sır	-10.5245
▁Litva	-10.5248
▁qüvvəsi	-10.525
▁əsərlərinin	-10.5251
▁qrafik	-10.5255
▁bəyan	-10.5257
▁Zaqatala	-10.5258
▁Rəşid	-10.5261
sm	-10.5263
▁gəldiyi	-10.5263
▁49	-10.5264
▁meydanı	-10.5265
▁qanad	-10.5267
▁hərbçi	-10.5271
▁maddələrin	-10.5274
▁Nigeriya	-10.5277
▁göndərir	-10.528
▁qo	-10.528
▁funksiya	-10.5285
▁Yaxşı	-10.5286
▁əsaslı	-10.5286
▁deputat	-10.5287
▁Kolleci	-10.529
▁yolunda	-10.5293
tum	-10.5294
▁per	-10.5296
▁tele	-10.5299
▁geoloji	-10.5304
▁Qab	-10.5304
▁danışır	-10.5305
▁Qaradağ	-10.5306
mizin	-10.5307
▁kul	-10.5308
▁istiqaməti	-10.531
▁ailəsinin	-10.5311
52	-10.5311
▁sahibdir	-10.5312
▁mühərrik	-10.5314
▁В	-10.5316
▁şəhərlərində	-10.5323
▁mədəniyyətinin	-10.5324
mıza	-10.5324
▁kara	-10.5324
▁möhtəşəm	-10.5327
▁məhrum	-10.5327
▁hu	-10.5329
▁Un	-10.533
▁18-	-10.533
Mə	-10.5334
▁Fizika	-10.5335
▁çılpaq	-10.5335
pu	-10.5336
ssi	-10.5336
▁kv	-10.5338
▁dəyəri	-10.5338
54	-10.5339
▁sərkərdə	-10.5339
zir	-10.5343
▁avqustun	-10.5343
▁antik	-10.5344
▁nəhayət	-10.5344
▁dilini	-10.5344
▁yem	-10.5346
▁Mükafatı	-10.5347
▁anbarı	-10.5348
▁Nik	-10.5349
▁bəstə	-10.5351
▁qiyam	-10.5354
alım	-10.5355
▁iyulun	-10.5358
▁verməyə	-10.5359
▁strateji	-10.536
▁Şotlandiya	-10.536
ktan	-10.5362
▁enli	-10.5367
▁türkcə	-10.5367
spekt	-10.5371
pin	-10.5371
▁VIII	-10.5372
▁İsti	-10.5373
▁klubuna	-10.5377
▁sarayında	-10.5381
▁ili	-10.5382
▁edək	-10.5382
kimya	-10.5385
▁yuxarıda	-10.5385
▁adlandırırlar	-10.5387
▁ederim	-10.5389
▁bioloji	-10.5391
▁şeyleri	-10.5391
▁Mö	-10.5391
qərbində	-10.5391
▁gerek	-10.5393
▁başlama	-10.5397
▁texnikası	-10.5403
meyi	-10.5403
▁haqq	-10.5406
▁bərabərdir	-10.5409
▁işğalı	-10.541
▁Paşanın	-10.541
▁1952-	-10.5413
inden	-10.5416
▁Qol	-10.5421
rib	-10.5426
▁Tər	-10.5427
▁Peyğəmbər	-10.5427
▁göster	-10.5427
taş	-10.5428
şen	-10.543
▁şər	-10.5431
▁simvolu	-10.5433
▁qütb	-10.5436
▁vurub	-10.5436
▁tapır	-10.5437
Ü	-10.5437
▁gələcəkdə	-10.5437
▁oda	-10.5438
▁yarandı	-10.5445
log	-10.5445
▁məntəqələri	-10.5447
▁Dur	-10.5447
▁özellikle	-10.5447
▁klip	-10.5448
▁magistr	-10.5449
▁diqqəti	-10.5453
▁Yəni	-10.5453
▁simvol	-10.5454
▁vuruş	-10.5455
▁təcrübəsi	-10.5457
▁həvəs	-10.5459
▁Vin	-10.5462
▁tərəfdarları	-10.5464
▁komp	-10.5464
madı	-10.5465
▁görən	-10.5466
▁İlin	-10.5471
çin	-10.5475
▁bo	-10.5477
▁qohum	-10.5481
▁eş	-10.5484
▁seriyası	-10.5487
▁təzə	-10.5487
▁nəşriyyatı	-10.5487
▁nəsli	-10.5489
▁insanı	-10.5492
▁Çempionatı	-10.5495
mini	-10.5498
lub	-10.5502
▁dəstələri	-10.5504
rasiya	-10.5504
▁bayramı	-10.5505
▁alması	-10.5506
▁müəssisə	-10.5508
▁tərbiyə	-10.5509
▁gid	-10.551
▁PKK	-10.5511
▁hepsi	-10.5513
▁konuş	-10.5515
▁Əsl	-10.5516
▁faciə	-10.5517
yın	-10.5517
▁kitabları	-10.5518
▁göndər	-10.5521
▁sı	-10.5521
▁ağacı	-10.5524
▁qəzası	-10.5525
çıları	-10.5526
▁formalaşması	-10.5532
▁gelir	-10.5532
▁jurnalında	-10.5536
▁günah	-10.5537
▁məskən	-10.5538
▁yurd	-10.5541
▁Nəhayət	-10.5545
ili	-10.5549
▁ağız	-10.555
89	-10.5552
▁58	-10.5553
74	-10.5553
Ģ	-10.5554
yevin	-10.5554
▁hündürlükdə	-10.5555
▁Liqası	-10.5555
▁Ulu	-10.5556
▁Keçmiş	-10.5562
▁müşayiət	-10.5562
▁Tovuz	-10.5563
▁Ərazi	-10.5566
lip	-10.5567
▁ayırır	-10.5568
▁polkovnik	-10.5568
▁bitkilərin	-10.5569
▁yatağı	-10.5571
▁ancak	-10.5572
▁qazanır	-10.5575
▁bazası	-10.5579
▁Martin	-10.5579
▁mülayim	-10.5579
▁kolay	-10.558
ea	-10.5581
▁mənada	-10.5581
▁səviyyəsində	-10.5582
▁kateqoriyası	-10.5584
▁məhəllə	-10.5585
ürdü	-10.5586
▁kaynak	-10.5588
▁Pen	-10.559
▁görme	-10.5592
ği	-10.5593
▁avto	-10.5594
▁istər	-10.5598
▁termini	-10.5599
▁sel	-10.5602
▁aparmışdır	-10.5604
▁Eri	-10.5605
▁11-	-10.5605
fər	-10.5608
▁hökumətinin	-10.5609
elim	-10.5611
▁müsahibə	-10.5613
▁götürül	-10.5615
▁stansiya	-10.5616
▁fəlsəfəsi	-10.5623
yuk	-10.5624
▁Henri	-10.5625
giya	-10.5625
▁əmir	-10.5629
abiliriz	-10.563
▁dəyişən	-10.5631
▁axını	-10.5633
▁alınma	-10.5641
▁anne	-10.5642
inki	-10.5642
▁üzüm	-10.5643
▁danışıqlar	-10.5644
▁çalışmış	-10.5644
nızda	-10.5647
▁Argentina	-10.5647
▁Los	-10.5651
▁17-	-10.5651
ləşdirilmişdir	-10.5654
▁qoca	-10.5655
onq	-10.5657
▁imperatoru	-10.5657
rinin	-10.5658
▁tayfasının	-10.5659
▁xalqların	-10.566
▁qurulmuşdur	-10.5661
▁yüksəklik	-10.5662
د	-10.5665
▁hissəsinə	-10.5666
▁oradan	-10.5666
▁yoldaşları	-10.5668
▁Heç	-10.5669
▁marağı	-10.5671
▁hızlı	-10.5672
▁40-	-10.5672
loji	-10.5673
▁göstərici	-10.5673
▁Siyasi	-10.5673
و	-10.5676
▁çök	-10.5676
▁IX	-10.5676
▁əməyi	-10.5677
▁iqlimi	-10.5677
laşdı	-10.5678
illi	-10.568
ola	-10.5681
lad	-10.5683
▁gəlmişdi	-10.5684
▁ştatının	-10.5684
▁tağ	-10.5686
▁Uzunluğu	-10.5688
▁bizə	-10.5688
▁intensiv	-10.5689
▁inşaat	-10.569
▁işe	-10.569
-7	-10.569
▁izin	-10.569
▁ustası	-10.5692
▁tərcüməçi	-10.5692
▁Ağayev	-10.5692
▁uzunluğunda	-10.5693
ırdılar	-10.5693
▁yüzil	-10.5694
iyle	-10.5695
▁milyar	-10.5696
▁56	-10.5698
▁serial	-10.57
yərək	-10.5701
▁qazanan	-10.5704
▁nömrə	-10.5706
▁buradan	-10.5706
ه	-10.5708
▁Səfər	-10.5708
▁Urmiya	-10.5708
vət	-10.5709
▁adada	-10.5709
▁Universitetin	-10.5709
▁Yanvar	-10.5712
▁nəql	-10.5717
▁yeniden	-10.5717
▁Mis	-10.5722
▁komissiya	-10.5722
▁nda	-10.5722
▁faktor	-10.5722
masından	-10.5724
▁sosyal	-10.5725
▁post	-10.5731
▁diqqətini	-10.5732
▁faza	-10.5732
▁Alt	-10.5732
zz	-10.5733
▁Mixail	-10.5733
▁fevralın	-10.5735
▁Anti	-10.5736
▁Gürcüstanın	-10.5736
▁aparılmış	-10.5736
ston	-10.5741
tus	-10.5741
▁tövsiyə	-10.5742
▁tane	-10.5742
▁mövqeyi	-10.5745
▁Professor	-10.5751
▁torpağın	-10.5751
▁şir	-10.5752
isti	-10.5753
laya	-10.5758
▁xərc	-10.5759
▁məqalələr	-10.5762
▁Demokratik	-10.5762
▁sırada	-10.5764
▁növün	-10.5765
▁şəxslərin	-10.5767
zen	-10.5768
▁Ox	-10.5768
qır	-10.5769
stro	-10.5769
riz	-10.5771
▁Qur	-10.5772
▁genç	-10.5774
▁tacir	-10.5777
▁alçaq	-10.5778
ham	-10.5784
ladığı	-10.5787
ial	-10.5789
▁gərgin	-10.5796
▁hissəyə	-10.5797
mut	-10.5802
▁ortasında	-10.5803
▁Yaşıl	-10.5805
▁vurğu	-10.5806
press	-10.5809
▁tamaşa	-10.5809
▁Rumıniya	-10.5812
▁uşaqları	-10.5815
▁ger	-10.5819
▁prosesində	-10.5821
▁idarəsi	-10.5823
▁Mey	-10.5827
51	-10.5827
▁lent	-10.583
▁Qri	-10.5832
▁cümlə	-10.5836
▁grup	-10.5838
▁dənizində	-10.5843
▁Məclisinin	-10.5843
▁qəti	-10.5843
▁müstəqilliyini	-10.5847
▁mədə	-10.5849
▁cədvəl	-10.5855
▁Oskar	-10.5857
▁54	-10.5858
▁heykəli	-10.5859
▁istifadəsi	-10.5859
avi	-10.5861
▁1992	-10.5864
ius	-10.5865
▁övladları	-10.5868
▁əlaqədardır	-10.5868
▁Şirvanşah	-10.587
▁ses	-10.5874
ora	-10.5875
▁tayfaları	-10.5875
▁vurdu	-10.5876
▁Hollandiya	-10.5876
▁nəticələr	-10.5878
▁Hol	-10.5879
sıyla	-10.5883
tanın	-10.5888
▁oyunları	-10.589
▁2001	-10.589
▁müstəqillik	-10.5891
▁Qum	-10.5893
▁azərbaycan	-10.5899
▁yataqları	-10.59
enti	-10.5902
▁uz	-10.5902
▁sak	-10.5907
▁aralarında	-10.5908
nmış	-10.5909
▁şəhərə	-10.5911
zon	-10.5911
▁musiqiçi	-10.5912
▁öyrənmək	-10.5912
▁bunlardan	-10.5913
form	-10.5914
▁durumda	-10.5914
▁Kas	-10.5915
örü	-10.5915
▁oluş	-10.5915
▁Üzeyir	-10.5917
iyada	-10.5917
▁vurul	-10.5917
oto	-10.5918
▁tərif	-10.592
▁deyilən	-10.592
vənd	-10.5924
ella	-10.5927
▁yazıları	-10.5927
tın	-10.5928
▁qovuş	-10.5928
▁istədi	-10.5929
ju	-10.5931
daq	-10.5932
▁məlumatı	-10.5932
▁üsulları	-10.5933
59	-10.5934
▁əşyaları	-10.5934
▁16-	-10.5934
▁dört	-10.5934
▁bitkiləri	-10.5936
dıq	-10.5938
▁doktor	-10.5939
▁müharibəsinin	-10.594
▁bölməsi	-10.5941
cuq	-10.5943
umuz	-10.5945
▁səviyyə	-10.5946
pur	-10.5953
▁Sel	-10.5953
dis	-10.5954
▁Komanda	-10.5954
▁Bitki	-10.596
▁təşkili	-10.596
nunun	-10.5962
▁edildikdə	-10.5962
ləmək	-10.5963
▁demişdir	-10.5964
▁işin	-10.5965
▁Xocalı	-10.5968
adece	-10.5969
▁donanması	-10.5969
▁özündən	-10.597
▁spektr	-10.5971
▁sınaq	-10.5971
▁növbəsində	-10.5971
▁heykəl	-10.5972
▁sarayın	-10.5974
▁silsilə	-10.5975
tmək	-10.5978
▁Türkmənistan	-10.5979
▁işləmiş	-10.5981
▁çıxardı	-10.5983
▁şərəf	-10.5983
liyor	-10.5984
▁ilginç	-10.5987
▁qayna	-10.5989
▁Babayev	-10.599
▁türbəsi	-10.5991
▁işlərinin	-10.5991
▁göstərilən	-10.5992
▁AD	-10.5992
qaya	-10.5993
▁qəzasının	-10.5995
▁imam	-10.5997
▁istefa	-10.5999
▁örtülü	-10.5999
▁söyle	-10.5999
idi	-10.6
ose	-10.6001
▁Geologiya	-10.6002
-20	-10.6003
▁çətinlik	-10.6007
▁birisi	-10.6007
▁yetiş	-10.6008
▁Bugün	-10.6016
▁filosof	-10.6017
▁kredit	-10.6017
▁seçilən	-10.6019
▁Papa	-10.6019
▁silsiləsi	-10.602
ка	-10.6021
▁Kino	-10.6021
dilli	-10.6027
▁məsul	-10.6028
atlar	-10.6028
▁doğa	-10.603
▁səy	-10.603
▁ərazinin	-10.6031
▁amerikalı	-10.6032
▁ist	-10.6036
▁qoyulur	-10.6037
▁uşaqların	-10.6037
lla	-10.6039
▁alayı	-10.6041
▁tədqiqatçılar	-10.6042
morf	-10.6042
qre	-10.6044
▁gitme	-10.6045
tmaq	-10.6047
▁cəbhə	-10.6055
▁Ziya	-10.6056
▁vətəni	-10.6059
▁Söz	-10.606
▁saziş	-10.6065
▁şəhərini	-10.6066
-16	-10.6066
▁pi	-10.6067
▁St	-10.6068
▁53	-10.6068
▁Fri	-10.6072
▁Polis	-10.6074
▁hərəkat	-10.6075
▁w	-10.6075
▁heyvandarlıq	-10.6077
▁eli	-10.6077
▁regional	-10.6077
▁istiyor	-10.6079
▁Düz	-10.6081
▁Mərkəz	-10.6082
▁xalqlarının	-10.6084
▁Bat	-10.6086
▁dahi	-10.6088
ight	-10.6091
▁tab	-10.6091
▁mühasirəyə	-10.6093
▁qrupları	-10.6093
▁mahal	-10.6094
▁strukturu	-10.6094
bert	-10.6094
▁sərvət	-10.6095
▁Yapon	-10.6102
▁160	-10.6102
▁Kendi	-10.6102
▁doqquz	-10.6103
▁məcburiyyətində	-10.6103
▁gücünü	-10.6106
▁1932-	-10.6108
▁Finlandiya	-10.6112
▁Məcnun	-10.6112
▁seçilib	-10.6114
▁görüşü	-10.6116
▁dəqiqləşdirmə	-10.6118
▁çağ	-10.6121
▁xarakterizə	-10.6122
▁salır	-10.6126
▁Ap	-10.6126
▁yaradıcılığında	-10.6128
dikleri	-10.6129
▁Layihə	-10.613
▁Makedoniya	-10.613
▁filmlər	-10.6132
А	-10.6135
iqtisadi	-10.6135
arın	-10.6138
▁yaklaşık	-10.6139
▁Çində	-10.6139
sent	-10.6139
▁cəza	-10.6141
▁sonsuz	-10.6142
▁heyvanların	-10.6142
Azərbaycan	-10.6144
▁birliyi	-10.6145
▁sistemin	-10.6147
▁Muzeyi	-10.6147
ope	-10.6153
▁rəqibi	-10.6155
iyev	-10.6155
▁Həmid	-10.6156
▁lif	-10.6157
▁marka	-10.6158
▁qoy	-10.616
▁hak	-10.6162
▁Mustafayev	-10.6162
▁bırak	-10.6162
▁Adi	-10.6165
luğun	-10.6165
▁yarışlarda	-10.6167
sunu	-10.6167
▁iclas	-10.6169
▁sağlam	-10.617
▁taxıl	-10.6173
▁toplan	-10.6173
▁dua	-10.6174
▁imtahan	-10.6175
▁əziyyət	-10.6178
tta	-10.618
▁fərman	-10.6181
▁oyunun	-10.6182
▁olmadı	-10.6184
▁ndə	-10.6186
ıs	-10.6188
▁sap	-10.6189
▁texnologiyası	-10.619
▁Nafta	-10.6194
▁yastı	-10.6195
▁yazdı	-10.6195
▁tipi	-10.6195
▁doğur	-10.6195
▁teatrı	-10.6196
göz	-10.6197
▁Xi	-10.6198
▁divan	-10.6205
▁dostluq	-10.6205
▁etmişdilər	-10.6206
rum	-10.6207
acağım	-10.6209
ita	-10.6211
▁göstərib	-10.6214
dadır	-10.6214
▁əsaslanır	-10.6214
▁Güney	-10.6215
▁təklifi	-10.6216
▁səp	-10.6218
▁sümük	-10.6225
▁Əsər	-10.6225
▁Dü	-10.6226
duq	-10.6227
▁Şəmkir	-10.6229
ob	-10.6234
▁mənbələri	-10.6237
▁tökülür	-10.6237
▁Bunların	-10.6238
▁qurulmuş	-10.6239
▁Əslində	-10.6243
▁1914-	-10.6247
▁j	-10.6247
ill	-10.6247
▁1924-	-10.6248
▁Tərtər	-10.6248
▁51	-10.6253
▁xüsusiyyət	-10.6257
lardı	-10.6257
▁oxuyur	-10.6258
▁şöbəsində	-10.626
▁kelime	-10.6267
ləşdi	-10.6267
▁sözlə	-10.627
ulmuş	-10.6271
▁sizi	-10.6272
▁texnologiyaları	-10.6273
uri	-10.6273
▁konkret	-10.6275
▁münasibətlərin	-10.6275
▁durumu	-10.628
▁sorğu	-10.628
▁cərəyanı	-10.628
▁studiya	-10.6282
▁yazıb	-10.6284
şad	-10.6285
laşdırıl	-10.6286
ms	-10.6287
▁99	-10.6287
sunuz	-10.6287
üyü	-10.629
▁İbrahimov	-10.629
▁yığma	-10.6293
▁Et	-10.6295
elin	-10.6297
▁gövdə	-10.6299
izə	-10.6299
▁düşmüş	-10.6301
▁məktəbinə	-10.6302
▁riyazi	-10.6302
▁Ger	-10.6306
▁Aba	-10.6308
ebiliriz	-10.6308
▁şirkətin	-10.631
▁əsgəri	-10.6311
ləşdirdi	-10.6313
bet	-10.6316
▁Meşə	-10.6316
▁yolunu	-10.6316
▁Səh	-10.6318
▁genetik	-10.632
▁Tre	-10.632
▁sərnişin	-10.6321
▁qoşul	-10.6322
▁evdə	-10.6322
▁barış	-10.6322
stri	-10.6324
layaraq	-10.6326
▁tanım	-10.6327
▁ərzaq	-10.633
▁bilmişdir	-10.633
çinin	-10.633
lah	-10.6332
leş	-10.6337
▁toponim	-10.6337
▁800	-10.6337
▁Ac	-10.6337
▁Köhnə	-10.6339
▁üstə	-10.6342
▁gördük	-10.6343
▁sintez	-10.6343
▁ulaş	-10.6347
▁yürü	-10.6349
▁Cavid	-10.6352
eo	-10.6353
larıyla	-10.6358
▁İtaliyanın	-10.6361
▁səthində	-10.6362
▁çəkildi	-10.6366
abilecek	-10.6366
▁hafta	-10.6367
▁inanc	-10.6367
▁təminatı	-10.6368
46	-10.6369
kimyəvi	-10.6372
▁burun	-10.6373
▁sülaləsinin	-10.6374
▁əsərlərini	-10.6376
yim	-10.6382
miyor	-10.6385
▁Gədəbəy	-10.6385
lus	-10.6387
tonun	-10.6388
▁1933-	-10.639
▁emal	-10.6391
.9	-10.6393
abı	-10.6396
▁okeanın	-10.6396
▁respublikanın	-10.6398
▁Abbasov	-10.6399
▁sahələr	-10.64
Press	-10.6401
düğü	-10.6401
▁mahalının	-10.6401
▁şəxsin	-10.6403
▁məktəbləri	-10.6405
▁şübhə	-10.6405
▁sınır	-10.6407
▁klubunun	-10.6409
▁Müsabiqəsində	-10.6412
tologiya	-10.6413
▁mərkəzləri	-10.6413
otik	-10.6414
▁yat	-10.6418
▁П	-10.642
▁Həmrəyliyi	-10.6422
-5	-10.6424
▁inam	-10.6424
▁knyaz	-10.6425
▁Adil	-10.6425
coğrafi	-10.6431
▁Ələsgər	-10.6431
▁məhkum	-10.6431
▁işlədiyi	-10.6432
▁təbliğ	-10.6434
▁varlı	-10.6434
▁bölgələrində	-10.6434
▁çəkmək	-10.6437
ическ	-10.6438
▁yetirir	-10.6439
▁debüt	-10.644
▁materik	-10.644
▁kitablar	-10.6441
nom	-10.6441
▁nüsxə	-10.6444
▁quyu	-10.6444
▁olduğumuz	-10.6449
▁həssas	-10.645
tom	-10.645
▁mübadiləsi	-10.6451
▁qoyulmuş	-10.6452
▁gətirmə	-10.6453
▁diplom	-10.6454
▁katolik	-10.6455
▁hücre	-10.6455
▁ayına	-10.6455
▁kənarında	-10.6456
▁qazana	-10.6457
▁Cəmiyyəti	-10.646
sional	-10.646
▁buxar	-10.646
▁xadimləri	-10.6462
▁Fre	-10.6462
abilirsiniz	-10.6464
▁Kərimov	-10.6467
▁Tomas	-10.647
▁Pal	-10.6471
▁ömür	-10.6472
▁dağlar	-10.6474
▁qoşunlarının	-10.6477
▁otel	-10.6478
▁abidələr	-10.648
▁qüvvələrin	-10.6484
▁içəri	-10.6485
▁Altay	-10.6486
tak	-10.6487
▁elde	-10.649
▁səma	-10.649
ор	-10.6492
▁aktı	-10.6495
▁getdikcə	-10.6496
▁basqın	-10.6497
▁özlərini	-10.6498
fat	-10.6499
bl	-10.6499
▁Amerikanın	-10.65
▁tapılmışdır	-10.6501
kta	-10.6504
dey	-10.6504
▁çəkmə	-10.6505
▁statistik	-10.6505
▁bö	-10.6507
▁Dol	-10.6509
▁1951-	-10.6509
▁dillərini	-10.6513
▁çayları	-10.6515
▁gey	-10.6515
▁siyahı	-10.6515
▁şagird	-10.6516
▁saxlanıl	-10.6517
əcəyi	-10.6517
▁Nəriman	-10.6518
▁yad	-10.652
▁istediğim	-10.6521
▁Pas	-10.6524
kür	-10.6529
▁variant	-10.653
▁tük	-10.653
naya	-10.6531
▁bağışla	-10.6531
▁alət	-10.6532
▁1999	-10.6533
▁asılıdır	-10.654
▁cəmiyyətinin	-10.654
▁Sabir	-10.654
▁qayıtdı	-10.6541
▁açır	-10.6542
ом	-10.6542
rən	-10.6547
▁bakalavr	-10.6552
▁siqnal	-10.6552
▁yüksəklikdə	-10.6553
▁təxmin	-10.6556
▁toqquşma	-10.6557
▁Ham	-10.6558
▁Salyan	-10.6561
▁sığorta	-10.6562
▁Torpağı	-10.6562
▁bayraq	-10.6563
▁məhsuldar	-10.6565
yaraq	-10.6566
▁63	-10.6566
▁uşaqlıq	-10.6566
tov	-10.6569
▁vəzi	-10.657
▁yo	-10.6573
▁çəkisi	-10.6574
▁qalxan	-10.6576
▁Rəsul	-10.6577
▁1996	-10.6578
▁inqilab	-10.6578
▁proqramları	-10.6578
▁təşkilatının	-10.6579
▁İndoneziya	-10.658
nden	-10.6584
likdən	-10.6584
▁qüvvələrinin	-10.6585
▁Rəhim	-10.6586
▁oğulları	-10.6587
▁adlanırdı	-10.6589
▁duyu	-10.6589
▁yanacaq	-10.6595
▁məşhurdur	-10.6596
▁Leyli	-10.6596
▁tü	-10.6597
▁məqsədlə	-10.6599
▁Əkbər	-10.6599
▁mənşəyi	-10.66
▁bilirlər	-10.66
▁Benim	-10.6603
▁Hindistanda	-10.6604
▁orden	-10.6605
▁zal	-10.6611
çiliyi	-10.6612
cer	-10.6615
▁Star	-10.6616
bek	-10.6616
▁İsfahan	-10.6618
▁sına	-10.662
▁Kri	-10.6621
▁Cümhuriyyətinin	-10.6621
▁hazırlanmasında	-10.6622
й	-10.6623
▁arzusu	-10.6624
▁Fondu	-10.6624
çayın	-10.6625
▁düzen	-10.6625
▁əlifbası	-10.6627
▁satın	-10.6634
sus	-10.6635
▁sakini	-10.6637
▁Növbəti	-10.6637
rist	-10.6638
▁bilik	-10.6639
umun	-10.6639
▁qatar	-10.664
▁hissədən	-10.6642
▁100-	-10.6644
▁Paul	-10.6644
▁Atlantik	-10.6646
▁amillər	-10.6648
▁1929-	-10.6648
▁ərazini	-10.6648
siy	-10.6653
▁Əb	-10.6654
▁dönəm	-10.6654
▁araç	-10.6655
▁Cəlil	-10.6656
luğunu	-10.6657
▁Nəzər	-10.6658
▁rəqib	-10.666
▁ətrafı	-10.6661
▁hakimiyyətinin	-10.6662
kas	-10.6663
▁tənzim	-10.6664
▁komandanı	-10.6665
▁kömür	-10.6667
▁Parkı	-10.6668
▁nümunəsi	-10.6672
▁fır	-10.6674
çıların	-10.6674
▁əməkdaşları	-10.6676
▁kullanıl	-10.6676
▁dən	-10.6679
arx	-10.6679
▁proseslər	-10.668
▁1934-	-10.6683
▁bekle	-10.6683
▁Culfa	-10.6684
▁ittifaqı	-10.6685
▁rekord	-10.6685
▁ərazilər	-10.6685
▁57	-10.6686
▁vur	-10.6687
qe	-10.6689
▁13-	-10.6691
▁General	-10.6694
▁beşinci	-10.6695
▁Kra	-10.6696
▁artırılması	-10.6697
▁məscidin	-10.6697
▁Bankı	-10.6698
▁həyət	-10.6702
dilməsi	-10.6702
ilmə	-10.6703
▁təzahür	-10.6703
▁əmisi	-10.6704
▁Novruz	-10.6704
jan	-10.6705
xanov	-10.6706
lif	-10.6709
▁Kla	-10.671
arlar	-10.6711
▁hissələrində	-10.6713
▁Sonrakı	-10.6713
▁effekt	-10.6715
▁kas	-10.6716
ele	-10.672
▁tarixçi	-10.6722
▁fo	-10.6722
▁hemen	-10.6724
bala	-10.6725
▁olacağını	-10.6726
-4	-10.6727
▁ilham	-10.6727
▁elçi	-10.6727
▁hazırlayır	-10.6731
▁rok	-10.6732
▁14-	-10.6732
▁katib	-10.6734
▁1991	-10.6735
▁dəyər	-10.674
▁halına	-10.6741
▁Sent	-10.6749
▁yataq	-10.6749
▁süxurların	-10.6751
▁herhangi	-10.6751
▁klinik	-10.6751
▁demek	-10.6752
▁müqayisədə	-10.6752
▁Qadın	-10.6754
▁mey	-10.6756
▁dal	-10.6759
▁Del	-10.6759
ш	-10.6761
▁Xristian	-10.6763
▁məruzə	-10.6765
▁70-	-10.6766
▁qalınlığı	-10.6767
əv	-10.6769
▁arada	-10.6769
zim	-10.6774
▁hamar	-10.6779
▁inşası	-10.678
▁fövqəladə	-10.678
▁rejim	-10.6781
▁Daşkənd	-10.6782
▁nüfuz	-10.6783
hra	-10.6784
▁hale	-10.6785
▁çıxarılması	-10.6785
▁hökumətin	-10.6785
▁haber	-10.6787
▁orbit	-10.679
▁Ailəlidir	-10.6791
▁yə	-10.6796
ço	-10.6796
▁Real	-10.6796
▁Sür	-10.6798
▁Ələkbər	-10.6799
▁Gö	-10.6799
▁Boy	-10.6799
▁Qaz	-10.68
▁д	-10.6802
▁fikirlər	-10.6808
▁www	-10.6809
▁mübahisə	-10.6813
▁fəsil	-10.6813
▁açılışı	-10.6816
▁çıxma	-10.6825
▁п	-10.6827
▁Venesiya	-10.6828
▁62	-10.6829
manı	-10.6831
.00	-10.6831
▁mədəniyyətin	-10.6832
▁mütəxəssislər	-10.6833
▁düşünme	-10.6842
▁qurşağı	-10.6845
mıştı	-10.6846
▁ürün	-10.6854
▁xanlığının	-10.6857
▁vaxtında	-10.6862
▁ze	-10.6863
ləyə	-10.6863
▁bərpası	-10.6863
▁satış	-10.6864
▁verərək	-10.6865
ıyorlar	-10.6865
▁kısmı	-10.6867
▁Madrid	-10.6867
▁əsərini	-10.6869
▁fər	-10.6871
▁istismar	-10.6875
▁təhlil	-10.6876
▁Vit	-10.6876
▁gerekiyor	-10.6877
lyasiya	-10.6879
ат	-10.688
▁şəhərindəki	-10.6881
ag	-10.6883
▁biologiya	-10.6885
▁Jurnal	-10.6885
▁türklər	-10.6885
▁mesaj	-10.6886
▁girdi	-10.6889
▁XXXI	-10.6891
▁Kre	-10.6895
dular	-10.6896
▁modern	-10.6896
▁qaytar	-10.6896
▁Bri	-10.6897
▁Af	-10.6897
▁operator	-10.6897
▁üstünə	-10.6899
▁Is	-10.69
▁rü	-10.6901
Ha	-10.6902
▁birləşməsi	-10.6905
▁FİFA	-10.6905
▁məktəbə	-10.6906
▁nəfərə	-10.6911
lend	-10.6911
▁kitabxanası	-10.6913
▁doldur	-10.6913
raz	-10.6914
Sa	-10.692
▁bölgəsi	-10.6924
▁poema	-10.6925
▁öldü	-10.6929
opol	-10.6932
▁dinc	-10.6932
▁Tab	-10.6933
▁Rəyasət	-10.6935
▁Abidə	-10.6936
sarı	-10.6937
▁tutulan	-10.6937
▁adanın	-10.6941
enko	-10.6942
-14	-10.6943
▁Britaniyanın	-10.6948
rip	-10.6954
▁Məhkəmə	-10.6954
▁zəngindir	-10.6954
ləşdirici	-10.6955
▁buzlaq	-10.6956
▁bildirmişdir	-10.6959
▁liqa	-10.696
▁qəbilə	-10.6961
▁zavod	-10.6963
▁Bəhram	-10.6964
ев	-10.6965
pre	-10.6966
▁düşməsi	-10.6966
▁kateqoriya	-10.6968
▁mahnılar	-10.697
▁yoktu	-10.697
▁Mah	-10.6972
▁kuboku	-10.6972
▁yaradılır	-10.6972
▁düşmə	-10.6975
▁Yüz	-10.6975
▁zəng	-10.6975
▁Yerin	-10.6976
▁1993	-10.6976
▁koloniya	-10.6984
▁məşqçisi	-10.6984
▁görüb	-10.6985
tiya	-10.6985
▁Muzey	-10.6987
▁Kipr	-10.6988
▁işinə	-10.699
▁pozul	-10.6993
▁ediblər	-10.6993
▁köməkçisi	-10.6993
zil	-10.6996
▁gülü	-10.6998
▁Kay	-10.7
▁əməliyyatlar	-10.7001
▁hesabla	-10.7003
▁gezegen	-10.7003
▁nəslindən	-10.7003
▁binalar	-10.7003
▁etməsinə	-10.7003
▁Sp	-10.7004
▁1990	-10.7004
▁dərslik	-10.7005
qət	-10.7008
▁mətbəxi	-10.7011
▁azalması	-10.7012
▁Seylo	-10.7013
▁port	-10.7019
▁nəfəs	-10.7024
ph	-10.7028
▁Leninqrad	-10.7033
▁satıl	-10.7035
▁məskunlaşmış	-10.7036
lilərin	-10.7037
▁Peterburq	-10.7041
▁Mənim	-10.7042
▁sözlərindən	-10.7042
▁Sor	-10.7045
▁hekayəsi	-10.7046
▁yerin	-10.7047
▁zamanında	-10.7051
spor	-10.7052
▁məbədi	-10.7053
rif	-10.7055
▁biliyor	-10.7057
osfer	-10.7057
▁ey	-10.7058
▁dildə	-10.7059
▁vitse	-10.7062
▁plastik	-10.7063
▁qruplar	-10.7063
▁böylece	-10.7067
iyet	-10.7068
▁qurdu	-10.7069
▁olmağı	-10.707
hüseyn	-10.7072
▁turşusu	-10.7075
▁Ley	-10.7078
▁1998	-10.7081
▁xoşbəxt	-10.7082
▁mağaza	-10.7082
rim	-10.7082
▁dərəsi	-10.7084
▁28-	-10.7084
▁bağlantı	-10.7086
oyun	-10.7087
ıyordu	-10.7088
▁Özü	-10.7091
▁oxucu	-10.7092
▁Yəhya	-10.7092
▁м	-10.7094
▁getmiş	-10.7098
▁ədəbiyyatının	-10.7102
yoruz	-10.7102
▁masa	-10.7103
▁axşam	-10.7104
▁fondu	-10.7104
kom	-10.7105
▁vermir	-10.7105
▁təşkilatın	-10.7106
▁festival	-10.7107
▁getmək	-10.7109
▁Kəl	-10.7111
▁bilmək	-10.7112
eyn	-10.7113
▁universiteti	-10.7114
▁dəyişiklik	-10.7114
▁sürücü	-10.7115
▁müvəffəqiyyətlə	-10.7115
ilmişdir	-10.7115
▁sahəsinin	-10.7118
▁tapmaq	-10.7118
▁tərəfdə	-10.7119
rah	-10.7121
▁sevimli	-10.7121
▁deney	-10.7121
▁oğlunun	-10.7122
Ka	-10.7123
▁yaptı	-10.7123
▁Qubadlı	-10.7131
▁bilməyən	-10.7132
▁maqnit	-10.7132
▁Qazi	-10.7133
masının	-10.7138
▁Fələstin	-10.7141
▁Eldar	-10.7143
▁mer	-10.7143
▁təbliğat	-10.7145
▁düşünce	-10.7147
rir	-10.7147
fil	-10.7149
oxu	-10.7151
▁kültür	-10.7152
yyə	-10.7152
▁sp	-10.7154
▁gəldikdə	-10.7156
▁təkamül	-10.7161
▁ayə	-10.7162
▁sıxlığı	-10.7166
▁1925-	-10.7167
▁Н	-10.7169
▁ud	-10.7169
▁Gəncədə	-10.7171
▁bulud	-10.7171
▁Şərəf	-10.7172
▁Yeddi	-10.7174
ıyorum	-10.7178
uma	-10.718
▁Cahangir	-10.7181
▁doğulmuşdur	-10.7182
▁yaxınlığındakı	-10.7182
▁Şərqdə	-10.7183
▁We	-10.7185
▁Dal	-10.7188
▁aşağıda	-10.7188
▁vaxtlarda	-10.7188
▁Mus	-10.719
▁buraxılmışdır	-10.7191
▁vəhşi	-10.7191
▁Qurbanov	-10.7198
ovka	-10.7199
▁qorx	-10.72
hət	-10.7201
▁kommunist	-10.7201
▁66	-10.7202
▁yaradıcısı	-10.7204
lır	-10.7204
▁bölün	-10.7208
▁tarixçisi	-10.721
▁başlanğıc	-10.7211
▁doğulub	-10.7211
▁barəsində	-10.7212
ef	-10.7213
▁Nəcəf	-10.7214
▁prinsipləri	-10.7215
sunda	-10.722
▁hüquqları	-10.7221
riyaziyyat	-10.7221
▁prodüser	-10.7221
▁Müəllif	-10.7221
▁yapar	-10.7221
▁ora	-10.7222
▁müdafiəsi	-10.7222
▁kısa	-10.7225
▁Teşekkürler	-10.7229
▁yar	-10.7229
▁prinsip	-10.723
▁Təhmasib	-10.7231
▁yazılır	-10.7233
▁kam	-10.7236
▁beləliklə	-10.7238
mədən	-10.7239
liğin	-10.7239
▁Texnologiya	-10.724
▁axın	-10.724
▁Tiflisdə	-10.724
▁olmasıdır	-10.7241
▁İtalyan	-10.7241
ия	-10.7242
▁fikrini	-10.7243
yır	-10.7245
▁gələ	-10.7246
məmiş	-10.7246
▁üzvlərinin	-10.7247
▁gördüyü	-10.7249
▁gərək	-10.7249
▁Borçalı	-10.7251
▁Əmin	-10.7253
▁krallığı	-10.7254
▁rayonları	-10.7255
▁yana	-10.7256
▁Serbiya	-10.7256
▁Lin	-10.7257
▁səviyyəli	-10.7261
▁dikkat	-10.7262
▁Krallığı	-10.7263
▁pərdə	-10.7264
▁xəstəliklərin	-10.7264
▁И	-10.7266
▁resim	-10.7268
▁Tbilisi	-10.7268
▁stadion	-10.7268
▁inter	-10.7269
▁uzanan	-10.727
▁ince	-10.7274
hat	-10.7274
▁adasının	-10.7275
▁Rod	-10.7276
▁verdik	-10.7276
▁çempionatı	-10.7278
öyü	-10.728
▁növüdür	-10.7282
▁əsərlərin	-10.7283
mey	-10.7284
▁çarı	-10.7287
▁şərab	-10.729
▁Mənbə	-10.7291
▁transfer	-10.7293
▁yazılan	-10.7293
▁yetkin	-10.7294
▁ölən	-10.7294
▁kabul	-10.7294
▁ehtiyatları	-10.7295
▁bəstəkarı	-10.7295
▁xidmətlərinə	-10.7297
▁fin	-10.7298
▁süxur	-10.7298
▁del	-10.73
yinə	-10.7302
ро	-10.7302
▁Vahid	-10.7303
▁qarşılaşma	-10.7303
▁sey	-10.7306
▁dedim	-10.7307
▁85	-10.7309
▁Georgi	-10.7312
▁nö	-10.7313
▁şəxsə	-10.7319
▁birləşmə	-10.7321
▁döyüşündə	-10.7321
▁kəndinə	-10.7323
▁Beş	-10.7324
▁alimləri	-10.7327
tos	-10.7329
▁media	-10.733
▁yazılar	-10.7333
▁yaxındır	-10.7336
▁zər	-10.7336
umlu	-10.7336
▁Ənvər	-10.7345
▁birşey	-10.7346
▁kafedrasında	-10.7347
şmə	-10.7347
▁pol	-10.735
▁pambıq	-10.7352
▁nitq	-10.7353
▁məhsulu	-10.7354
▁bitirmiş	-10.7354
▁Qars	-10.7355
rek	-10.7355
qov	-10.7356
▁Alma	-10.7357
▁Amerikalı	-10.736
▁yazar	-10.736
▁aləti	-10.736
▁1912-	-10.7363
ydu	-10.7363
▁təqvimi	-10.7363
▁Cəfərov	-10.7364
▁1995	-10.7365
ləndirdi	-10.7367
▁Qısa	-10.7368
▁eşi	-10.7371
▁yarımfinal	-10.7373
▁Hündürlüyü	-10.7373
▁Toponim	-10.7373
▁məşq	-10.7375
▁aləm	-10.7376
▁rəvayət	-10.7379
oniya	-10.7383
▁köməkçi	-10.7383
▁Met	-10.7384
▁ailənin	-10.7384
▁şəkli	-10.7387
▁sənətinin	-10.7387
▁ing	-10.7391
ayev	-10.7391
ülü	-10.7393
▁Bö	-10.7395
▁gözlə	-10.7396
▁əlaqəli	-10.7396
▁van	-10.7396
▁Ölüm	-10.7397
▁dəyərli	-10.7398
▁verme	-10.7399
ли	-10.7399
▁qarın	-10.74
ilen	-10.7402
▁cevap	-10.7403
▁Məryəm	-10.7404
tizm	-10.7405
▁burda	-10.7406
▁şahmat	-10.7406
▁görünüşü	-10.7411
▁aylıq	-10.7413
▁sifariş	-10.7414
▁keçirilib	-10.7415
▁sisteminə	-10.7416
▁tərəvəz	-10.7418
vv	-10.7422
abiliyor	-10.7423
▁yumşaq	-10.7424
▁Adətən	-10.7424
▁1916-	-10.7424
▁Sahəsi	-10.7424
▁68	-10.7426
▁oyunlar	-10.7426
▁Yas	-10.7428
▁birləşir	-10.7429
▁deyirdi	-10.7432
▁Kolumbiya	-10.7433
▁sözlərinə	-10.7433
ES	-10.7433
▁olmayaraq	-10.7435
yız	-10.7436
laşmışdır	-10.7438
▁quşlar	-10.744
▁yı	-10.7445
▁amil	-10.7448
▁mədən	-10.745
▁tapa	-10.7451
TV	-10.7451
▁Assosiasiyası	-10.7451
▁Konstitusiya	-10.7452
▁1935-	-10.7453
▁Liqa	-10.7455
▁çempion	-10.7456
dy	-10.7459
lenme	-10.7459
▁hey	-10.7462
▁Gör	-10.7462
▁siyasətçi	-10.7463
▁mənbələrində	-10.7464
▁rəqabət	-10.7465
▁ünvan	-10.7471
▁redaksiya	-10.7472
▁Cam	-10.7472
▁Р	-10.7472
fir	-10.7474
▁otaq	-10.7475
▁mutlu	-10.7475
texniki	-10.7476
▁Viktor	-10.7476
▁yaranmasına	-10.7477
▁aşırı	-10.7479
▁variantı	-10.748
xur	-10.7481
▁Rusiyaya	-10.7486
▁tələbat	-10.7488
▁fiqur	-10.7489
▁Göyçay	-10.7492
▁İç	-10.7493
▁Xo	-10.7494
▁düşünüyor	-10.7495
▁tac	-10.7496
▁ixtira	-10.7499
▁Londonda	-10.7499
▁Sev	-10.7499
▁Kuba	-10.7499
ix	-10.7502
aniya	-10.7503
▁Üst	-10.7503
▁lisenziya	-10.7506
▁Ço	-10.7506
▁Əzim	-10.7507
▁İngiltərədə	-10.7508
▁zonasında	-10.7509
▁Əfəndiyev	-10.7511
▁tayfası	-10.7514
▁Mol	-10.7515
▁ostanında	-10.7516
▁yaranma	-10.7517
▁günlük	-10.7519
▁Yazıçı	-10.7521
▁salınmışdır	-10.7522
▁dekabrında	-10.7522
mizdə	-10.7523
▁Təhlükəsizlik	-10.7527
▁baba	-10.7527
▁istifadəçi	-10.7529
из	-10.7532
▁yaratmış	-10.7534
▁Dey	-10.7536
▁izahlı	-10.7536
▁Ümumdüny	-10.7537
▁qadınların	-10.7538
▁əsaslanan	-10.7539
▁xadim	-10.754
▁Marağa	-10.7543
▁tikdir	-10.7544
▁toplusu	-10.7546
pl	-10.7548
▁Azadlıq	-10.7548
ох	-10.755
▁dediyi	-10.7555
▁praktik	-10.7555
▁ölkəni	-10.7557
▁Xe	-10.7558
yordu	-10.756
▁açılış	-10.7562
▁Balkan	-10.7571
▁Turizm	-10.7573
▁təzyiqi	-10.7575
▁2.	-10.7575
▁Yara	-10.7576
mid	-10.7577
▁banisi	-10.7579
▁Oyunlarının	-10.7584
▁Mala	-10.7586
▁Qarabağın	-10.759
tiq	-10.7592
gı	-10.7594
▁geyin	-10.7595
▁turşu	-10.7598
▁Cü	-10.7599
▁ettiği	-10.7603
▁Bağırov	-10.7604
▁ilahi	-10.7604
▁proseslərin	-10.7605
▁qayıdan	-10.7605
▁nömrəsi	-10.7606
▁Dev	-10.7609
▁700	-10.7611
▁Albert	-10.7612
▁azadlığı	-10.7613
▁Şan	-10.7613
səl	-10.7613
▁form	-10.7614
lıqları	-10.7614
▁Tek	-10.762
▁tropik	-10.762
▁Ölkədə	-10.7622
▁Qeyri	-10.7624
▁Çinin	-10.7624
▁mühasirə	-10.7629
▁dekorativ	-10.763
▁Aktyor	-10.763
▁psixologiya	-10.7631
▁duygu	-10.7632
nuz	-10.7632
▁Sistem	-10.7634
▁sözün	-10.7635
▁elementlər	-10.7636
▁adamın	-10.7638
▁Şəm	-10.7638
▁İskəndər	-10.7641
▁Əvvəllər	-10.7643
ric	-10.7645
▁67	-10.7653
▁beynin	-10.7654
ses	-10.7655
▁Binanın	-10.7658
▁1928-	-10.7658
▁səlahiyyətli	-10.7658
▁qıl	-10.766
▁yollar	-10.766
▁Məşhur	-10.7662
▁Sergey	-10.7663
▁vaxtdan	-10.7663
▁çöküntüləri	-10.7663
▁zərb	-10.7668
▁Super	-10.7668
mıyor	-10.7671
▁dakika	-10.7672
▁Çiçək	-10.7672
▁Stra	-10.7672
▁ifadəsi	-10.7673
▁valideynləri	-10.7674
▁payız	-10.7674
▁Çili	-10.7675
▁Davud	-10.7675
fra	-10.7676
▁Plan	-10.7678
▁1970	-10.768
▁varlığı	-10.768
▁80-	-10.7682
▁deneyim	-10.7683
▁iyirmi	-10.7683
arası	-10.7684
ıyla	-10.7685
▁mərkəzidir	-10.7685
▁Səfi	-10.7686
dib	-10.7687
▁ulduzu	-10.7689
▁sentyabrında	-10.7689
▁kəmər	-10.769
oks	-10.7692
▁çəkilməsi	-10.7693
▁filialı	-10.7693
▁igid	-10.7693
▁dərinlik	-10.7695
▁adasından	-10.7695
▁ال	-10.7698
▁öldürül	-10.7699
▁ənənələri	-10.77
mizde	-10.7701
▁qazanmış	-10.7702
vis	-10.7707
▁tablo	-10.7709
▁Qadınlar	-10.7709
lot	-10.7709
ılmaz	-10.7712
▁1897-	-10.7714
▁Zey	-10.7715
kay	-10.7717
▁Hadisə	-10.7717
▁İdarəsinin	-10.7718
ləndirilmiş	-10.7719
▁bağlan	-10.772
▁hız	-10.7721
▁psixoloji	-10.7721
▁azalır	-10.7722
lıyor	-10.7723
▁gönder	-10.7725
▁əsərinin	-10.7725
▁Əliyeva	-10.7727
▁Qəhrəman	-10.7729
▁super	-10.773
▁You	-10.773
▁yeməyi	-10.7734
▁bacarığı	-10.7735
▁kəmiyyət	-10.7735
▁vətən	-10.7737
▁çöz	-10.7738
rac	-10.7738
rilmiş	-10.7739
uşu	-10.7747
ost	-10.7748
▁Ermənistanın	-10.7748
evski	-10.7748
▁İnter	-10.7749
▁pilot	-10.7749
▁gətirdiyi	-10.775
vor	-10.775
hər	-10.7751
▁ictimaiyyət	-10.7752
▁fit	-10.7754
▁kre	-10.7756
▁1980	-10.7757
▁Əvvəlcə	-10.7759
ther	-10.7761
▁firma	-10.7761
▁diplomat	-10.7767
▁Şirkət	-10.7767
uda	-10.7768
▁qalması	-10.7771
▁məmur	-10.7772
▁patent	-10.7773
▁xalqları	-10.7774
▁boşa	-10.7774
gir	-10.7776
▁ətraflı	-10.7777
▁hazırlamaq	-10.7777
▁ölçüləri	-10.7777
▁müntəzəm	-10.7778
▁toplu	-10.7778
▁müvəffəqiyyət	-10.7778
▁Şura	-10.7779
dinin	-10.7782
▁komponent	-10.7783
-6	-10.7783
▁Frank	-10.7786
▁oğul	-10.7787
▁verirlər	-10.7788
▁Anası	-10.779
▁illəri	-10.7791
sinden	-10.7792
▁zə	-10.7793
sonun	-10.7799
▁xeyir	-10.7799
▁macəra	-10.7799
▁Dörd	-10.7799
▁əlaqələrin	-10.7801
▁keçirmişdir	-10.7804
▁fənn	-10.7805
▁qoymuşdur	-10.7811
▁kri	-10.7815
laşdırılmışdır	-10.7817
▁İri	-10.7819
▁Vaşinqton	-10.782
▁qurşaq	-10.782
▁Ph	-10.7823
▁ucu	-10.7826
ebilme	-10.7827
▁Kat	-10.7827
▁Altı	-10.7829
▁fu	-10.783
▁kilsənin	-10.783
des	-10.7831
▁по	-10.7831
▁Sərəncamı	-10.7833
Əliyev	-10.7833
▁turnirin	-10.7834
ben	-10.7835
duğunu	-10.7836
▁axan	-10.7841
▁ge	-10.7841
▁kolxoz	-10.7842
▁kitap	-10.7842
▁Os	-10.7843
buk	-10.7843
▁Cey	-10.7845
▁1989	-10.7847
▁görünən	-10.7847
▁Kamil	-10.7851
laması	-10.7852
▁həlledici	-10.7855
▁işlənib	-10.7857
▁Ray	-10.7859
▁yapış	-10.7862
▁Konstantin	-10.7863
▁həyatın	-10.7863
▁zadəgan	-10.7863
▁ipək	-10.7865
▁1994	-10.7866
tek	-10.7868
▁dastan	-10.7872
▁Çer	-10.7872
▁Teatrı	-10.7874
oko	-10.7877
▁örtük	-10.7881
iyordu	-10.7881
▁gu	-10.7883
.3.1938	-10.7884
onim	-10.7886
▁yanvarında	-10.7888
▁çözüm	-10.789
▁tat	-10.7891
▁mülkiyyət	-10.7893
▁bes	-10.7894
▁ilan	-10.7894
▁havada	-10.7895
▁adlandırır	-10.7897
▁xidmətdə	-10.7898
▁xəstəliklər	-10.7899
▁özləri	-10.7899
▁değişim	-10.79
▁vaxtilə	-10.79
▁nar	-10.7904
▁Məscid	-10.7904
▁Ukraynanın	-10.7905
▁Qarabağda	-10.7906
▁ayağı	-10.7909
▁çəkdi	-10.7909
▁lit	-10.791
▁portret	-10.7915
▁suya	-10.7916
▁Sonuncu	-10.7917
siyyət	-10.7917
▁ətrafındakı	-10.7917
▁iqtisadiyyatın	-10.7918
▁tutul	-10.7919
▁Bon	-10.7919
▁2-3	-10.792
emi	-10.7921
mizə	-10.7922
▁Təbrizdə	-10.7922
▁Kazan	-10.7925
▁Latın	-10.7926
▁Filmi	-10.7927
müşdü	-10.7929
▁yaşına	-10.7932
▁Yaz	-10.7932
▁açar	-10.7935
▁kolleksiya	-10.7937
▁qolunu	-10.7939
▁Xor	-10.794
▁Qüvvələrinin	-10.7942
▁Misirdə	-10.7943
izmi	-10.7945
ula	-10.7946
▁Th	-10.7946
▁oktyabrında	-10.7946
lamak	-10.7948
▁zülal	-10.7949
▁Т	-10.7949
▁zülm	-10.7949
▁Size	-10.795
▁kimse	-10.7952
▁anlam	-10.7956
▁üslubunda	-10.7957
əlli	-10.7957
▁partlayış	-10.7959
▁içi	-10.796
▁Məclisi	-10.7961
▁keçirmiş	-10.7961
diğini	-10.7962
▁vokal	-10.7963
▁partiyası	-10.7963
▁olmasının	-10.7963
▁şən	-10.7964
▁hesabat	-10.7964
▁ailələr	-10.7964
▁Opera	-10.7969
▁140	-10.7969
yana	-10.7969
▁yine	-10.797
▁çift	-10.7972
▁kasıb	-10.7973
▁mənasındadır	-10.7974
▁hadisəsi	-10.7975
▁erkək	-10.7981
▁Mərkəzinin	-10.7984
▁ayrılan	-10.7986
ologiyası	-10.799
▁işlərini	-10.7992
▁Qobustan	-10.7992
▁ehtiva	-10.7992
▁birlik	-10.7994
mbo	-10.7994
▁şura	-10.7996
▁məktəblər	-10.7996
bli	-10.7996
▁Astara	-10.7997
▁Eş	-10.7998
▁Sı	-10.7999
▁Tələbə	-10.7999
▁parkı	-10.8
▁tədqiqatları	-10.8001
▁26-	-10.8001
▁Fəlsəfə	-10.8003
▁Hökuməti	-10.8004
▁hatta	-10.8005
▁gölün	-10.8005
üd	-10.8006
▁Çexiya	-10.8008
▁Təbrizi	-10.8009
▁1500	-10.8011
▁istedadlı	-10.8011
▁mərtəbə	-10.8011
▁çıxışı	-10.8012
▁nikah	-10.8014
▁hədis	-10.8017
▁işlərində	-10.8023
▁Riyaziyyat	-10.8024
lıqdan	-10.8025
▁tutumu	-10.8029
xır	-10.8029
▁həyatda	-10.8029
▁vəziyyətə	-10.8032
vay	-10.8033
▁qlobal	-10.8035
▁130	-10.8038
▁Frans	-10.804
▁sektor	-10.8045
▁razılaşma	-10.8045
▁tektonik	-10.8046
▁Çempionlar	-10.8046
▁əsnasında	-10.8046
▁fayl	-10.8047
▁qablar	-10.8047
olog	-10.8048
▁Bab	-10.8048
▁aşqar	-10.8049
kum	-10.8049
▁г	-10.8055
▁Vilayət	-10.8057
▁nəğmə	-10.8058
▁korku	-10.8061
quş	-10.8063
▁format	-10.8063
▁hərəkatının	-10.8064
▁verici	-10.8065
▁əraziyə	-10.8066
▁oksigen	-10.8068
▁məni	-10.8068
▁subyekt	-10.8069
▁Balıq	-10.8071
qla	-10.8075
yak	-10.8078
▁naməlum	-10.8079
▁71	-10.808
▁parazit	-10.808
we	-10.808
▁pal	-10.8087
banı	-10.8087
bara	-10.8088
fət	-10.8088
▁1908-	-10.809
▁göndərildi	-10.8091
▁sistemini	-10.8098
ebil	-10.8099
▁seçil	-10.8101
biya	-10.8107
▁paket	-10.8111
▁evləri	-10.8112
▁mexaniki	-10.8112
▁Abdullah	-10.8113
▁göllər	-10.8116
çik	-10.8116
▁59	-10.812
▁boğaz	-10.812
▁Napoleon	-10.8123
▁bər	-10.8123
əhər	-10.8125
▁Pre	-10.8128
▁Andre	-10.8129
▁21-	-10.813
▁qoyub	-10.8135
ds	-10.8137
mud	-10.8138
▁sanat	-10.814
▁davran	-10.8143
boyu	-10.8143
▁Hökumət	-10.8144
▁qurur	-10.8144
tul	-10.8144
▁qoruyub	-10.8145
▁hazırladığı	-10.8145
▁günün	-10.8148
▁İngiltərənin	-10.8148
▁yaradıl	-10.8149
▁gizlən	-10.8153
▁qonur	-10.8156
▁Ah	-10.8162
▁gece	-10.8163
▁ölkəsi	-10.8165
▁Alı	-10.8166
▁dərəcəsində	-10.8167
▁Dünyada	-10.817
iyorlar	-10.8172
cak	-10.8173
▁şairin	-10.8174
▁açılması	-10.8174
▁müsabiqədə	-10.8174
maş	-10.8174
▁götürdü	-10.8177
▁körpə	-10.8178
tl	-10.8178
gül	-10.8183
▁Nəbi	-10.8183
ön	-10.8185
▁keyfiyyəti	-10.8188
▁Ul	-10.819
▁imperiya	-10.819
▁imkanları	-10.8197
▁sayının	-10.8197
leşme	-10.8197
▁xarakterli	-10.8198
▁2,5	-10.82
▁hissəciklər	-10.8201
burq	-10.8202
zel	-10.8203
▁turist	-10.8203
▁üslubu	-10.8204
liyindən	-10.8208
▁ərəblər	-10.8209
▁Doğu	-10.821
▁Bio	-10.821
ləndiyi	-10.8211
▁pas	-10.8213
▁proqramlar	-10.8214
▁komandanın	-10.8219
▁qızları	-10.8222
▁etibarilə	-10.8222
▁məcburi	-10.8225
lamağa	-10.8229
▁inkar	-10.823
yol	-10.8231
▁dağlarının	-10.8231
▁itirmiş	-10.8232
▁id	-10.8232
▁Yarımada	-10.8234
▁komitəsinin	-10.8234
▁sair	-10.8236
bad	-10.8238
▁Sadıq	-10.824
▁Heyətini	-10.8242
▁76	-10.8243
▁verilmə	-10.8243
▁1997	-10.8243
▁Estoniya	-10.8244
▁gi	-10.8244
▁Ağsu	-10.8245
но	-10.8245
leyici	-10.8248
▁quraq	-10.8249
▁kəndli	-10.8252
▁tədbirləri	-10.8254
▁getmə	-10.8255
▁tahmin	-10.8255
▁sadiq	-10.8255
▁olunmasına	-10.8258
▁Çoban	-10.8258
▁əzab	-10.8259
▁Kad	-10.8261
▁bəxş	-10.8261
▁kəsilmə	-10.8262
rix	-10.8266
ford	-10.8266
α	-10.8266
▁basketbol	-10.8266
▁Monqolustan	-10.8266
▁oynayan	-10.8268
▁sui	-10.8277
▁folklor	-10.8277
▁müdaxilə	-10.8277
▁1906-	-10.8278
▁şunu	-10.8278
▁meydan	-10.8281
▁görünüş	-10.8283
şər	-10.8283
▁xana	-10.8283
▁Azərbaycanfilm	-10.8285
oka	-10.8286
▁Bədən	-10.8288
▁aparmış	-10.8288
▁Bosniya	-10.8289
▁Müstəqil	-10.8289
▁Boğaz	-10.8289
▁köçüb	-10.829
▁Neden	-10.8295
▁sığın	-10.8296
▁qraf	-10.8298
▁evren	-10.8299
▁nisbəti	-10.8301
▁95	-10.8302
▁Naxçıvanda	-10.8303
ар	-10.8305
▁evinə	-10.8306
ero	-10.8306
OS	-10.8309
▁Açıq	-10.8311
▁səsvermə	-10.8311
▁sürən	-10.8313
ск	-10.8313
▁xüsusiyyətlər	-10.8314
yse	-10.8314
▁61	-10.8314
▁bilme	-10.8315
verici	-10.8317
uzun	-10.8319
▁yaşlarında	-10.832
▁Mad	-10.832
س	-10.8322
▁Hindistanın	-10.8325
▁Sc	-10.8326
▁koy	-10.8327
▁səfəri	-10.833
▁Yap	-10.8331
▁Cha	-10.8332
▁zəncir	-10.8333
▁Ayı	-10.8334
çen	-10.8334
▁məlumatları	-10.8335
ity	-10.8335
psi	-10.8337
▁gözləri	-10.8337
▁maşını	-10.8339
end	-10.8342
▁tən	-10.8344
▁problemlərin	-10.8345
▁şərtləri	-10.8345
▁Ümumrus	-10.8345
kop	-10.8346
▁mükafatını	-10.8349
▁şəlalə	-10.8349
▁təhlükəsi	-10.835
abileceği	-10.8351
tru	-10.8352
▁Maarif	-10.8356
▁metrə	-10.8357
▁şar	-10.8359
▁çevrilməsi	-10.836
▁Oyunları	-10.836
▁itirdi	-10.836
▁istəmə	-10.8361
larıdır	-10.8361
▁xərcləri	-10.8361
▁Nazim	-10.8362
▁namaz	-10.8363
▁ümum	-10.8365
▁Od	-10.8366
▁dənizin	-10.8367
▁motiv	-10.837
etin	-10.837
▁duyğu	-10.837
▁hansısa	-10.8375
▁ayrıldı	-10.8378
▁1910-	-10.8378
▁dövlətlərin	-10.8379
▁Lui	-10.838
▁xanımı	-10.8382
▁Üstəli	-10.8385
▁aspirantura	-10.8387
ğlu	-10.8388
▁Mikayıl	-10.839
karlıq	-10.839
▁zorla	-10.8391
▁Us	-10.8393
▁ailədə	-10.8397
qram	-10.8397
▁komitə	-10.8399
▁qarışığı	-10.8402
▁Çan	-10.8402
▁Sənət	-10.8404
▁asıl	-10.8406
ləşərək	-10.8407
▁nu	-10.8409
▁yeniyetmə	-10.8412
▁Şar	-10.8414
▁komiks	-10.8414
▁dəqiqədə	-10.842
▁səlahiyyət	-10.842
▁tələbələri	-10.8421
▁uzaqlaş	-10.8425
▁Day	-10.8425
▁ekspedisiya	-10.8428
▁asanlıqla	-10.8428
ona	-10.8429
▁tuturdu	-10.8433
▁edilməsini	-10.8434
▁qənaət	-10.8435
lənmişdi	-10.8435
▁qiymətləndir	-10.8436
▁Lan	-10.8437
şun	-10.8438
kovski	-10.8438
▁baca	-10.8443
▁Qre	-10.8444
▁gətir	-10.8445
▁qabaqcıl	-10.8447
öh	-10.8449
▁Nikol	-10.8451
▁təsirini	-10.8452
▁ərazilərin	-10.8452
tab	-10.8453
▁xassələri	-10.8455
▁arx	-10.8457
▁rəmzi	-10.8457
▁etdirilməsi	-10.8458
vid	-10.8459
▁Ele	-10.8461
▁Com	-10.8461
▁SB	-10.8462
▁üstü	-10.8463
▁təmsilçisi	-10.8464
▁xatırladır	-10.8465
▁İyun	-10.8466
▁qalanın	-10.8466
▁1927-	-10.8469
olo	-10.847
▁salınmış	-10.8471
▁qabıq	-10.8471
▁kökü	-10.8472
▁təriqət	-10.8472
▁qoyul	-10.8473
▁Gəl	-10.8474
▁çökmə	-10.8477
rul	-10.8479
▁sülalə	-10.8479
▁Adada	-10.8483
▁fikirləri	-10.8484
iniz	-10.8487
qra	-10.8489
▁torpağı	-10.8491
dilir	-10.8491
▁departament	-10.8491
▁töhfə	-10.8491
▁restoran	-10.8491
düyünü	-10.8492
▁ço	-10.8493
▁əyaləti	-10.8493
▁aparılmışdır	-10.8495
lüyün	-10.8496
▁bölüm	-10.8497
▁Ərazisi	-10.8498
▁yadda	-10.85
▁hit	-10.8501
▁etdirilir	-10.8503
▁poeması	-10.8504
ensis	-10.8504
leriyle	-10.8507
▁çatdırıl	-10.8511
▁xaricdə	-10.8512
▁yaşan	-10.8512
məsindən	-10.8512
▁çəkilib	-10.8516
alist	-10.8516
▁vəzifələri	-10.8517
▁Qusar	-10.8518
▁qarşıdurma	-10.8518
▁beyni	-10.8519
▁məhlul	-10.852
▁istədiyi	-10.852
▁Ex	-10.852
▁tatar	-10.8521
▁pri	-10.8521
landırma	-10.8522
▁sənədlər	-10.8523
bus	-10.8523
▁program	-10.8525
▁sebep	-10.8526
▁1915-	-10.8526
ем	-10.8529
iyasının	-10.853
minin	-10.8531
şev	-10.8532
hil	-10.8533
▁islahatlar	-10.8535
ю	-10.8537
▁hepimiz	-10.8543
▁Təşkilat	-10.8544
▁mübarizəsi	-10.8545
▁rolları	-10.8549
▁üzərindən	-10.855
llah	-10.8552
▁böyükdür	-10.8552
▁torpaqların	-10.8554
▁yaşadı	-10.8554
▁yararlı	-10.8557
▁gəl	-10.8559
▁balaca	-10.856
▁fayda	-10.8566
▁iştirakçıları	-10.8569
▁avqustunda	-10.8573
▁ordunun	-10.8578
▁gelme	-10.858
▁şəhərlərdə	-10.8581
hum	-10.8581
türk	-10.8582
▁Həkim	-10.8584
▁göndərilir	-10.8585
▁ucuz	-10.8586
▁mifologiyasında	-10.8587
▁içeri	-10.8587
▁maq	-10.8588
▁yazısı	-10.8589
▁Camal	-10.8591
▁Okean	-10.8596
▁Yarış	-10.8599
▁Eli	-10.8599
▁nisbət	-10.86
mayıb	-10.8601
▁Emin	-10.8602
yaşıl	-10.8602
▁Pra	-10.8604
nen	-10.8604
▁Oykonim	-10.8606
▁yaşaya	-10.8606
▁əlamətləri	-10.8608
▁Xüsusilə	-10.8609
▁qadının	-10.861
▁cənuba	-10.8612
▁üsyançılar	-10.8612
▁tapşır	-10.8613
▁Qax	-10.8615
▁Xəstə	-10.8615
▁illiyi	-10.8615
▁Uç	-10.8617
▁hazırlığı	-10.8618
▁Ale	-10.8618
▁yaşayıb	-10.8618
▁söyledi	-10.8623
▁razılıq	-10.8625
▁gösteriyor	-10.8625
oya	-10.8636
▁müsəlmanlar	-10.864
▁qanunları	-10.8643
▁işlədi	-10.8645
▁körpüsü	-10.8646
▁mübarizəyə	-10.8651
▁ölkələrinin	-10.8651
▁qırğın	-10.8653
▁ziddiyyət	-10.8656
▁olduqdan	-10.8657
▁yoxsul	-10.8659
▁etməkdə	-10.8663
dö	-10.8663
rl	-10.8664
▁görülür	-10.8669
▁konsul	-10.867
▁yerlər	-10.8672
eb	-10.8674
▁çiy	-10.8675
▁konstitusiya	-10.8675
▁əmin	-10.8676
▁Volqa	-10.8677
▁derin	-10.8678
dilmiş	-10.8679
▁komandanlığı	-10.8679
▁kır	-10.868
▁Bence	-10.8682
▁mübarizədə	-10.8685
▁zidd	-10.8685
▁maksimum	-10.8687
▁Qəzet	-10.8687
▁Məkkə	-10.8688
▁sahibkar	-10.8688
laşıb	-10.8688
▁gəlirlər	-10.8691
▁genel	-10.8693
▁olmaları	-10.8693
▁pyes	-10.8696
şü	-10.8696
leyen	-10.8696
▁İspan	-10.8696
▁hatırla	-10.8698
▁qorunub	-10.8698
▁düşmüşdür	-10.87
▁vurur	-10.87
▁ölkəyə	-10.8701
▁Rzayev	-10.8701
▁Rum	-10.8701
balı	-10.8701
▁ölkəsində	-10.8705
▁ədəbiyyatında	-10.8706
▁deniz	-10.8711
▁bildirən	-10.8711
▁daşları	-10.8712
▁ayrılmış	-10.8712
▁Şəhərdə	-10.8715
lok	-10.8715
▁keçmək	-10.8716
▁iştirakçı	-10.8718
▁döyüşlər	-10.8719
▁Google	-10.8722
▁siyahıyaalınma	-10.8722
▁göndərdiyi	-10.8724
▁əsərdə	-10.8731
▁işlənən	-10.8732
kanın	-10.8733
▁Antarktida	-10.8733
▁yardımı	-10.8734
▁məxsusdur	-10.8735
şaq	-10.8736
osu	-10.8737
▁yayılma	-10.8739
▁öd	-10.8739
jen	-10.874
▁Rayonun	-10.8742
▁tərkibindədir	-10.8743
lüğü	-10.8743
▁təşkilatlar	-10.8744
▁adıyla	-10.8746
▁papa	-10.8747
▁tay	-10.8748
▁paleo	-10.8749
▁martında	-10.875
▁ştatında	-10.875
▁uy	-10.875
fizi	-10.875
▁muxtar	-10.8753
naq	-10.8754
▁sonda	-10.8754
▁ölmə	-10.8754
leşti	-10.8757
oqrafik	-10.8757
▁optik	-10.8758
▁xassə	-10.8758
omatik	-10.8758
▁yüzlərlə	-10.8761
▁topası	-10.8762
0,000	-10.8762
▁gördüğünüz	-10.8768
30-	-10.8769
▁maksimal	-10.877
▁yarımada	-10.8771
▁Vey	-10.8772
▁Boris	-10.8775
Me	-10.8775
▁üzündən	-10.8775
eziya	-10.8775
▁fevralında	-10.8776
zər	-10.8776
78-	-10.8777
▁ideyası	-10.8778
▁sintezi	-10.8778
▁tarixini	-10.8779
▁əyləncə	-10.878
▁ib	-10.8781
▁Xaçmaz	-10.8781
▁bence	-10.8784
▁açılan	-10.8786
▁biləcəyi	-10.879
▁Müharibəsi	-10.8791
zır	-10.8791
▁pedaqoq	-10.8792
▁saf	-10.8794
AS	-10.8795
▁oksid	-10.8796
▁cihaz	-10.8797
iyorum	-10.8801
▁toplanması	-10.8801
▁nəşri	-10.8804
▁zəbt	-10.8804
▁kendini	-10.8805
▁çempionatında	-10.8807
▁hastalık	-10.8808
▁yürüşü	-10.881
▁neler	-10.8811
▁çəkilmə	-10.8813
▁ion	-10.8813
▁səfir	-10.8814
▁döyüşə	-10.8815
▁köçəri	-10.8816
▁birləşmələr	-10.8817
▁azdır	-10.8819
▁keçdiyi	-10.8822
▁qalmışdı	-10.8823
▁əşya	-10.8828
▁suvarma	-10.8828
▁makine	-10.8828
▁qaranlıq	-10.8828
▁balina	-10.8832
▁Qriqori	-10.8832
▁başçıları	-10.8832
▁AS	-10.8833
им	-10.8834
▁yarımadasında	-10.8837
▁ilgi	-10.8837
▁əski	-10.8838
▁ləkə	-10.884
▁binada	-10.8841
▁dairəsində	-10.8842
▁kafa	-10.8844
şim	-10.8844
▁saldı	-10.8849
▁apardı	-10.8849
▁ustad	-10.885
▁qaçqın	-10.8851
▁götürüb	-10.8852
▁örtülmüşdür	-10.8852
▁Məmmədova	-10.8853
▁əxlaq	-10.8856
sün	-10.8857
▁alov	-10.8857
▁Bölgə	-10.8863
▁ritm	-10.8863
▁Teatrının	-10.8863
▁katıl	-10.8864
▁xərçəng	-10.8867
lərindəndir	-10.8867
həm	-10.8869
▁aktrisası	-10.8869
fen	-10.887
▁boşluğu	-10.8873
mas	-10.8873
▁İyul	-10.8875
ре	-10.8876
▁indiyə	-10.8878
ımın	-10.8882
▁görmüşdür	-10.8885
▁Qaraqoyunlu	-10.8886
▁valyuta	-10.8886
▁yoğun	-10.8887
▁görev	-10.8887
▁akt	-10.8893
▁zövq	-10.8898
▁tikililər	-10.8899
▁Tağıyev	-10.8899
ınız	-10.8899
▁qəbri	-10.89
▁Yarım	-10.89
▁ehtiyacı	-10.8902
▁İtaliyada	-10.8903
▁mindən	-10.8903
▁personajı	-10.8904
lanaraq	-10.8904
▁həyatına	-10.8904
▁şirket	-10.8904
▁Cek	-10.8905
▁qəhvəyi	-10.8908
▁göstərə	-10.891
▁oraya	-10.8911
diğiniz	-10.8914
▁qor	-10.8914
▁bədəni	-10.8914
▁uzan	-10.8915
▁Vay	-10.8916
▁Qazan	-10.8916
ıt	-10.8916
▁geliştir	-10.8917
▁yerləşməsi	-10.8919
▁Naziri	-10.892
▁Cəlal	-10.8921
▁aprelində	-10.8921
▁part	-10.8921
▁cəsarət	-10.8922
▁mah	-10.8925
▁çıxmaq	-10.8927
lığından	-10.8928
▁qazıntı	-10.8928
▁qəsr	-10.893
▁teatrın	-10.893
▁Midiya	-10.8931
▁qızlar	-10.8932
▁stil	-10.8932
▁xəbəri	-10.8932
▁elementi	-10.8932
▁kub	-10.8934
▁aktual	-10.8934
▁Liviya	-10.8934
▁Sab	-10.8934
tmə	-10.8936
▁virus	-10.8936
▁deyib	-10.894
▁27-	-10.894
▁ortalama	-10.894
alma	-10.8941
spi	-10.8942
▁evin	-10.8942
▁dünyası	-10.8942
▁fasilə	-10.8944
▁Stadion	-10.8946
tığımız	-10.8949
zur	-10.895
▁olmamışdır	-10.8953
▁Ümumilikd	-10.8956
~	-10.8957
▁Ticarət	-10.8957
▁2018	-10.8958
,	-10.8958
Janeyro	-10.8958
▁məzmunu	-10.8958
▁Ermənistanda	-10.8959
▁mayında	-10.8959
▁müharibəsindən	-10.896
AM	-10.896
sat	-10.8961
▁ortaq	-10.8962
dığım	-10.8964
illa	-10.8964
▁çəkin	-10.8966
▁görmüş	-10.8968
▁Ədalət	-10.8969
▁kata	-10.897
од	-10.897
▁hərf	-10.897
dikdə	-10.8971
▁platforma	-10.8973
bre	-10.8973
kra	-10.8975
▁Lyu	-10.8975
lənərək	-10.8975
▁alətlər	-10.8977
▁siyahısında	-10.8979
▁yazmış	-10.898
üsü	-10.8982
▁konqres	-10.8982
▁23-	-10.8985
▁im	-10.8986
▁maneə	-10.8987
▁Yal	-10.8991
▁ifaçısı	-10.8993
▁Vyetnam	-10.8993
▁buğda	-10.8996
▁pozulması	-10.8997
▁İsmayıllı	-10.8998
luğunun	-10.8999
▁tələbəsi	-10.9003
keş	-10.9005
▁yaratma	-10.9005
ی	-10.9005
▁qiymətlər	-10.9008
▁sevir	-10.9008
▁Şamil	-10.9009
0,0	-10.9011
▁partiyasının	-10.9011
məsində	-10.9013
ruz	-10.9013
▁Hel	-10.9014
▁mərasimində	-10.9014
ти	-10.9014
▁İstanbula	-10.9017
▁miniatür	-10.9017
▁ərəfəsində	-10.9017
▁yarandığı	-10.9019
▁yaşlarından	-10.9021
mel	-10.9021
▁Spi	-10.9022
▁Wa	-10.9024
▁məcmu	-10.9026
▁110	-10.9028
▁22-	-10.9031
▁çocuklar	-10.9031
sem	-10.9036
▁Rəssam	-10.9037
▁mahalında	-10.9037
qraf	-10.9038
▁avtomat	-10.9038
▁kez	-10.9039
▁ordusunda	-10.904
▁Möv	-10.904
▁Riçard	-10.9041
▁norma	-10.9042
▁səhiyyə	-10.9044
▁Sun	-10.9044
87-	-10.9046
Ya	-10.9048
▁Neftçi	-10.9049
▁atlet	-10.905
▁fakültəsi	-10.9051
50-	-10.9052
malıyız	-10.9056
▁nü	-10.9056
▁Maliyyə	-10.9056
▁Bazar	-10.906
▁maya	-10.9061
▁söyley	-10.9065
gh	-10.9066
▁obraz	-10.9068
ebileceği	-10.907
▁dövlətlər	-10.9073
▁dönü	-10.9073
▁padşah	-10.9073
▁birləşmiş	-10.9073
cəyi	-10.9077
▁bildirilir	-10.9079
meli	-10.9087
gö	-10.9088
▁geldiği	-10.9088
▁Tağı	-10.909
▁avropa	-10.9092
▁sürfə	-10.9092
▁tədqiqatların	-10.9092
▁Müh	-10.9093
▁ihtiyacı	-10.9097
▁nişanı	-10.9098
▁qətl	-10.9098
▁Ag	-10.91
▁göndərilmiş	-10.91
▁World	-10.9102
▁sədrəzəm	-10.9102
lun	-10.9102
zdan	-10.9106
çuluq	-10.9107
▁düzən	-10.9108
▁olunaraq	-10.9109
▁çaylar	-10.9111
▁çıktı	-10.9112
nor	-10.9112
▁qəribə	-10.9114
▁bor	-10.9115
▁müğənnisi	-10.9115
▁yapmaya	-10.9119
ebiliyor	-10.9119
▁Coğrafiya	-10.9123
▁Yaş	-10.9123
▁1960	-10.9127
▁salmış	-10.9128
ağac	-10.9129
▁məlumatlara	-10.9129
▁Bana	-10.913
▁lirik	-10.9131
ləndirici	-10.9131
▁noyabrında	-10.9134
▁kodu	-10.9136
zol	-10.9137
▁İnqilab	-10.9137
▁çalışıyor	-10.9138
▁Ssenari	-10.9138
▁onurğa	-10.9138
▁neredeyse	-10.9138
▁Г	-10.9139
▁Ji	-10.9141
▁qaldığı	-10.9141
▁vəzifələrdə	-10.9142
▁orqanlarının	-10.9143
▁atı	-10.9144
▁öyrənən	-10.9144
▁insana	-10.9144
▁Milan	-10.9146
▁Şərif	-10.9147
▁hidrogen	-10.9148
▁73	-10.915
▁xarakterik	-10.9151
▁mobil	-10.9151
▁Pavel	-10.9153
▁77	-10.9155
▁Gecə	-10.9156
▁yalan	-10.9156
▁istərsə	-10.9157
▁Stu	-10.9158
▁değildir	-10.9159
▁qay	-10.9159
▁Gürcüstanda	-10.9161
▁Bəyazid	-10.9162
▁bataqlıq	-10.9162
▁Meri	-10.9162
▁massiv	-10.9163
▁mərmər	-10.9163
▁dinamik	-10.9165
▁funksiyası	-10.9166
▁olursa	-10.9172
▁Kab	-10.9172
▁gimnaziya	-10.9174
▁professional	-10.9174
▁dramaturq	-10.9174
▁kölgə	-10.9174
▁tanıma	-10.9177
bro	-10.9179
▁Vəliyev	-10.9179
▁çıxarılmışdır	-10.9179
▁Yaşa	-10.9179
▁tabeliyində	-10.9182
sburq	-10.9185
yarpaq	-10.9186
▁darmadağın	-10.9187
▁duman	-10.9187
dığından	-10.9187
klin	-10.9187
▁yarışı	-10.9188
▁Xar	-10.9189
▁tunc	-10.919
▁vəzifədə	-10.9192
▁eşq	-10.9195
▁şimaldan	-10.9196
▁həqiqətən	-10.9198
▁əti	-10.9199
▁aksiya	-10.92
▁Tro	-10.92
▁Mun	-10.92
▁məqalənin	-10.92
lendi	-10.9201
▁soyqırımı	-10.9204
▁Səlcuq	-10.9205
ц	-10.9206
▁çətinliklər	-10.9207
lerim	-10.9208
hem	-10.9209
▁növbə	-10.9209
▁diviziya	-10.9209
▁sırasına	-10.921
ebilirsiniz	-10.9211
▁oynadı	-10.9211
▁yazma	-10.9215
Mü	-10.9217
ılaraq	-10.9217
göl	-10.9219
▁rütbə	-10.922
▁Gəmi	-10.9222
▁ömrü	-10.9222
bəyi	-10.9222
▁torpağa	-10.9223
▁Sülh	-10.9224
ле	-10.9224
▁tərəfinə	-10.9225
▁bağlanmış	-10.9226
xal	-10.9237
▁Bob	-10.9237
▁isim	-10.9238
▁Gen	-10.9238
▁yor	-10.9242
ere	-10.9243
xanası	-10.9244
▁əlindən	-10.9245
▁sam	-10.9246
▁qızdır	-10.9247
▁tedavi	-10.9248
▁qərargahı	-10.9248
▁pen	-10.925
▁hakimiyyətini	-10.9255
▁Müəllimlər	-10.9259
▁Ondan	-10.926
▁finalda	-10.9261
▁işində	-10.9261
▁keyfiyyətli	-10.9262
Ko	-10.9263
▁Gər	-10.9263
▁ekonomi	-10.9263
▁ur	-10.9264
▁Hun	-10.9265
▁yapan	-10.9272
▁vali	-10.9273
ust	-10.9275
▁fərqi	-10.9277
▁xaricində	-10.9279
▁74	-10.928
▁sık	-10.9281
▁alimlik	-10.9284
▁oynadığı	-10.9284
▁açdı	-10.9286
alizm	-10.9286
eksiya	-10.9287
▁sahəsinə	-10.9288
▁həmkarlar	-10.9293
▁ani	-10.9293
▁salın	-10.9296
▁Yəhudi	-10.9297
tən	-10.9297
▁bənzəyir	-10.9298
▁mərkəzinə	-10.9298
▁İnstitutuna	-10.93
▁müharibənin	-10.9301
▁prosesləri	-10.9301
▁daşıyırdı	-10.9302
▁qulluqçu	-10.9303
▁oyununda	-10.9305
▁karmaşık	-10.9309
▁çörək	-10.9309
▁gedərək	-10.931
▁Məlum	-10.9313
üzü	-10.9314
▁Lvov	-10.9315
sia	-10.9319
xay	-10.932
▁mövsümü	-10.932
▁hep	-10.932
▁Araşdırma	-10.9322
▁etibarlı	-10.9322
çan	-10.9324
▁həvəskar	-10.9326
yus	-10.9326
▁arasındaki	-10.9328
▁məntəqə	-10.9328
▁xəyal	-10.9329
▁kursu	-10.9329
▁yerləşmiş	-10.9329
▁aralıda	-10.933
▁vəziyyətini	-10.9333
▁açıl	-10.9334
▁evə	-10.9334
▁fəsilə	-10.9334
▁xammal	-10.9335
▁İrana	-10.9339
▁göstərməyə	-10.9341
▁dağının	-10.9343
▁Tüm	-10.9343
ств	-10.9345
▁üzere	-10.9348
ак	-10.9351
duz	-10.9352
▁imp	-10.9353
▁Yazı	-10.9353
▁Tikinti	-10.9359
▁çeşid	-10.9359
▁gider	-10.9361
ənəvi	-10.9363
▁ruhani	-10.9365
▁qəsri	-10.9366
▁qanlı	-10.9366
▁gətirildi	-10.9366
▁artım	-10.9366
▁avadanlıq	-10.9368
▁sufi	-10.9368
qrad	-10.9372
▁polimer	-10.9374
▁değildi	-10.9375
▁69	-10.9376
▁effektiv	-10.9376
▁tökül	-10.9378
▁Şıx	-10.9381
▁Zakir	-10.9384
▁dır	-10.9386
▁на	-10.9387
▁mexanizm	-10.9388
▁Alim	-10.9389
▁kilsəsinin	-10.939
▁olmasından	-10.939
▁od	-10.9391
▁təbiətin	-10.9391
ilib	-10.9393
▁bakteri	-10.9394
▁yere	-10.9394
▁avro	-10.9395
▁qulluq	-10.9396
▁Gözəl	-10.9396
▁əşyalar	-10.9397
▁əməkdaşı	-10.9398
▁izo	-10.9398
far	-10.9399
▁razılaş	-10.9402
▁türkmən	-10.9402
▁Mina	-10.9403
▁Yel	-10.9405
▁olunmağa	-10.9405
boy	-10.9408
▁sxem	-10.9409
▁gəlişi	-10.941
▁deyirlər	-10.9413
▁öyrən	-10.9416
ux	-10.9416
▁derece	-10.9419
▁yaşamaq	-10.942
▁Məclisin	-10.9421
▁stadionu	-10.9421
▁TED	-10.9421
yken	-10.9423
▁mətbuatda	-10.9424
▁Mani	-10.9424
▁Akademiya	-10.9425
▁Müs	-10.9425
▁budur	-10.943
▁öğrenme	-10.943
▁Əsəd	-10.943
kot	-10.9431
▁Sem	-10.9433
▁engel	-10.9434
▁örtülüdür	-10.9436
ulur	-10.9441
▁təbiəti	-10.9443
▁Klub	-10.9443
▁Premyer	-10.9446
▁şaxə	-10.9447
▁dağıdıl	-10.945
▁ağzı	-10.9454
▁balıqlar	-10.9455
imin	-10.9455
fri	-10.9456
▁Birlik	-10.9457
▁kəndə	-10.9458
▁679	-10.9458
ksiyon	-10.9459
▁janrında	-10.9459
▁etdirdiyi	-10.946
daşları	-10.946
▁səbəbiylə	-10.9463
uç	-10.9465
▁budaq	-10.9466
basar	-10.9466
▁kes	-10.9466
lemek	-10.9467
▁lazımi	-10.9468
▁yayılan	-10.9468
▁Smit	-10.947
▁Səudiyyə	-10.9471
▁val	-10.9472
▁bilinən	-10.9474
▁havanın	-10.9475
▁quruluşunu	-10.9475
▁İqtisad	-10.9483
▁çıxıntı	-10.9484
▁ayrılması	-10.9484
▁his	-10.9486
▁Yarpaqları	-10.9491
▁böhran	-10.9495
iyət	-10.9495
▁sayına	-10.9495
▁artırmaq	-10.9498
▁saxlanılması	-10.9503
▁dəlil	-10.9506
▁vilayətinə	-10.9507
▁Həzrət	-10.9509
▁Qəzvin	-10.9509
▁qısametrajl	-10.9509
▁əcnəbi	-10.9509
▁prokuror	-10.9509
▁Qorqud	-10.9509
abənzər	-10.9509
▁duran	-10.9509
▁yaranıb	-10.9509
gəl	-10.951
▁arka	-10.9512
▁romantik	-10.9514
▁dilə	-10.9514
▁institutu	-10.9515
əhməd	-10.9518
▁Metal	-10.9519
▁faktlar	-10.952
▁faizi	-10.952
▁Mingəçevir	-10.9522
▁1913-	-10.9522
▁qazandığı	-10.9522
omo	-10.9526
▁Həbib	-10.9528
▁ödəniş	-10.9534
▁Məhkəməsi	-10.9535
▁Mit	-10.9536
▁gələcəyi	-10.9537
▁nəslin	-10.9537
▁Mik	-10.9537
▁görünmə	-10.954
▁klubun	-10.954
▁Devid	-10.9543
tron	-10.9544
▁Məsafə	-10.9547
▁dərəcəsini	-10.9549
▁24-	-10.9551
▁Kro	-10.9552
▁vəzir	-10.9554
▁hakimiyyətdə	-10.9555
▁asla	-10.9558
▁alimlərin	-10.9558
▁deportasiya	-10.956
▁fond	-10.9563
▁ifade	-10.957
▁Bəstəkar	-10.9572
▁parçaları	-10.9573
35-	-10.9573
▁mühafizəsi	-10.9574
▁əsərlərindən	-10.9574
▁edilməyə	-10.9582
▁başlanğıcı	-10.9583
▁salınması	-10.9584
▁Ağır	-10.9586
▁ünvanı	-10.9586
larımızın	-10.9586
▁Nizam	-10.9586
ləyib	-10.9586
▁çatma	-10.9587
▁başladım	-10.9591
med	-10.9591
▁dönem	-10.9591
▁təşəbbüs	-10.9592
vad	-10.9592
▁həcm	-10.9594
▁gec	-10.9595
С	-10.9595
▁ehtiyatı	-10.9596
▁möcüzə	-10.9598
▁anlaşma	-10.96
ləyərək	-10.9601
ləşdirilir	-10.9603
qli	-10.9603
▁mərtəbəli	-10.9605
▁Mehr	-10.9608
▁çökəkliyi	-10.9608
▁cisim	-10.961
▁fəlakət	-10.961
▁palçıq	-10.961
▁Politexnik	-10.9611
▁qaydada	-10.9612
▁adamların	-10.9615
▁Filippin	-10.9616
▁höküməti	-10.9617
▁açıldı	-10.962
▁təs	-10.9621
▁Salam	-10.9621
▁qoyulan	-10.9625
▁komandir	-10.9627
▁danışırlar	-10.9628
dıkları	-10.9629
▁ödəmə	-10.963
▁Onlara	-10.9632
▁yetirmə	-10.9633
iyorsunuz	-10.9633
▁sil	-10.9634
▁ötürü	-10.9636
▁Fin	-10.9636
▁ışık	-10.9637
rud	-10.9639
▁əlamət	-10.9644
▁xəzinə	-10.9644
AT	-10.9645
▁1886-	-10.9649
viç	-10.965
▁gelecek	-10.965
amaz	-10.9651
▁öldürülməsi	-10.9654
36-	-10.9654
▁Türkiyəyə	-10.9655
▁peri	-10.9655
▁fəza	-10.9661
▁Latviya	-10.9661
▁radikal	-10.9662
▁universitetdə	-10.9663
▁motor	-10.9663
qol	-10.9664
▁obyekt	-10.9665
▁Nəsir	-10.9666
▁artırır	-10.9666
▁My	-10.9668
▁yerdən	-10.9669
rup	-10.9672
itsa	-10.9673
yini	-10.9674
▁qapalı	-10.9674
▁hissələr	-10.9675
dük	-10.9675
▁heykəltəraş	-10.9676
▁Xoy	-10.9678
▁Salman	-10.9683
▁kitabda	-10.9684
dövlət	-10.9684
▁radiasiya	-10.9684
▁oxuduğu	-10.9684
▁ünsiyyət	-10.9687
▁ləqəbi	-10.9687
▁dövründən	-10.9689
▁sayt	-10.9689
mize	-10.969
kət	-10.9692
▁topladı	-10.9693
▁zəhər	-10.9695
▁adlarını	-10.9695
ел	-10.9696
▁institut	-10.9696
▁quldur	-10.9698
▁göstəriciləri	-10.97
▁saytı	-10.97
▁etiraf	-10.97
▁seqment	-10.97
▁Akademiyasında	-10.9701
▁düşüb	-10.9703
▁düşünün	-10.9704
▁atıl	-10.9705
qul	-10.9708
▁meydanında	-10.9709
▁xalqlar	-10.9709
▁tanrısı	-10.971
▁məhsullarının	-10.9711
mirdi	-10.9714
ışıq	-10.9717
yacaq	-10.9718
əsəd	-10.972
darlıq	-10.9721
▁atəşə	-10.9723
▁3000	-10.9724
▁kəsilmiş	-10.9725
▁sivilizasiya	-10.9726
▁Ətraf	-10.9726
▁Cer	-10.9726
fı	-10.9727
▁ölç	-10.9729
▁qayğı	-10.9729
lağı	-10.973
nəzər	-10.973
▁layihələr	-10.9732
▁Asiyanın	-10.9733
yc	-10.9737
diler	-10.9738
▁Epi	-10.9739
▁Məsih	-10.974
▁təmas	-10.9741
▁İnstitutunu	-10.9744
idae	-10.9746
lamışdır	-10.9748
▁görüşündə	-10.9751
▁ihtiyaç	-10.9751
ER	-10.9758
▁albomun	-10.9759
▁Kitabxana	-10.9761
▁müharibəyə	-10.9761
Ö	-10.9763
ciklər	-10.9764
▁Əyyub	-10.9764
▁ref	-10.9765
▁solo	-10.9765
oksid	-10.9765
▁təşkilatları	-10.9766
▁Əlizadə	-10.9767
▁sirk	-10.9767
▁Ney	-10.9769
▁şeiri	-10.9769
▁not	-10.9771
▁biçim	-10.9771
▁kələ	-10.9771
vill	-10.9772
▁yazmaq	-10.9772
▁Andrey	-10.9774
▁tənqidçi	-10.9774
▁doğal	-10.9776
▁şou	-10.9776
▁metodu	-10.978
▁torpaqlarda	-10.978
▁ölmüş	-10.9781
▁bənzə	-10.9784
lüyünü	-10.9785
▁hissəsidir	-10.9786
ləşdirildi	-10.9787
▁iletişim	-10.979
▁perspektiv	-10.979
▁intihar	-10.979
▁estetik	-10.979
▁Masallı	-10.979
▁tasarla	-10.9792
▁Köç	-10.9793
▁dayanır	-10.9796
▁müharibədə	-10.9798
org	-10.9801
eç	-10.9801
▁200-	-10.9803
▁Həmədan	-10.9804
iyy	-10.9804
▁Onları	-10.9804
▁özlərinə	-10.9804
▁faktiki	-10.9804
▁başlanmışdır	-10.9809
17-	-10.981
▁Öl	-10.9812
▁müştəri	-10.9816
▁titulu	-10.9818
▁Ramiz	-10.9819
▁dövlətləri	-10.9821
▁bildirib	-10.9822
▁başlaması	-10.9826
atçı	-10.9826
29-	-10.9826
▁harca	-10.983
▁olarsa	-10.983
▁sifət	-10.9831
▁tikilməsi	-10.9837
los	-10.984
▁rəis	-10.9841
▁Trans	-10.9842
▁rəngdədir	-10.9851
▁hərəkətləri	-10.9851
▁Е	-10.9853
▁quberniyası	-10.9854
▁Zu	-10.9855
▁1907-	-10.9855
▁Ramazan	-10.9855
nizde	-10.9859
▁səciyyəvi	-10.9861
▁tullan	-10.9863
▁şüur	-10.9864
ello	-10.9866
▁kadınlar	-10.9867
▁təhsilin	-10.9867
▁beraber	-10.9868
▁şaquli	-10.9868
iyaya	-10.987
▁studiyası	-10.9871
▁Baku	-10.9871
vit	-10.9872
▁hay	-10.9872
▁şahı	-10.9872
▁sonraki	-10.9874
ت	-10.9881
▁Windows	-10.9881
▁Kəngərli	-10.9881
▁zolağı	-10.9881
▁kraliça	-10.9882
▁əyalətində	-10.9882
▁Yağ	-10.9883
▁cəmiyyətdə	-10.9883
▁Rob	-10.9883
▁serialı	-10.9883
38-	-10.9884
▁qurmaq	-10.9885
ilərək	-10.9893
▁Rövşən	-10.9895
▁şikayət	-10.9895
▁Video	-10.9895
▁canavar	-10.9895
▁ayları	-10.9896
▁Red	-10.9898
con	-10.9899
▁işləmək	-10.99
▁azalt	-10.9901
46-	-10.9903
▁1987	-10.9904
▁elminin	-10.9905
▁rəhbərləri	-10.9905
qua	-10.9906
▁Bağır	-10.9907
▁əyri	-10.9908
▁Səhifələrin	-10.9908
▁heyecan	-10.9908
▁qalasının	-10.9908
▁Jurnalistlər	-10.9908
sünü	-10.9909
▁yazan	-10.9911
darı	-10.9911
▁Kişi	-10.9914
▁qr	-10.9915
mos	-10.9916
Pa	-10.9917
▁nəfərin	-10.9918
▁qra	-10.9919
▁Mas	-10.9919
▁pop	-10.9919
▁yarada	-10.992
▁vəkil	-10.9921
▁öyrənil	-10.9922
40-	-10.9923
▁Yuli	-10.9923
▁atır	-10.9924
▁Praqa	-10.9924
▁Əbül	-10.9931
▁qoruğu	-10.9934
▁etməsini	-10.9934
şən	-10.9935
▁sıradan	-10.9936
▁Çayın	-10.9937
▁1988	-10.9938
▁həddi	-10.994
▁səfirliyi	-10.994
▁birləşməsindən	-10.9941
▁şehir	-10.9942
▁düzü	-10.9942
▁yaptığımız	-10.9943
▁camaatı	-10.9946
▁nisbi	-10.9947
▁Gilan	-10.995
▁qələbəsi	-10.9951
tsu	-10.9952
▁fəaliyyətində	-10.9952
▁Afrikada	-10.9953
▁Ağqoyunlu	-10.996
▁Edvard	-10.996
▁miktar	-10.996
çar	-10.9961
▁Ten	-10.9962
▁diviziyası	-10.9963
diyindən	-10.9963
▁tərəfə	-10.9964
eyim	-10.9965
▁təkan	-10.9967
▁cəzası	-10.9967
▁Rəng	-10.9967
▁tapma	-10.9968
▁kalma	-10.9969
▁xəstəlikləri	-10.9969
mber	-10.997
▁qurultay	-10.9971
▁maddəsi	-10.9971
▁kişinin	-10.9972
▁birləşmələrin	-10.9973
▁törəmə	-10.9974
▁spirt	-10.9974
▁1985	-10.9974
▁bürc	-10.9974
▁şahid	-10.9975
kam	-10.9977
▁bazarı	-10.9978
▁Ağdaş	-10.9979
ua	-10.9979
▁Şəh	-10.998
▁saxlayan	-10.9981
▁Mirzəyev	-10.9981
▁məqalələri	-10.9983
▁dünyasında	-10.9983
▁ideyaları	-10.9985
18-	-10.9985
▁AR	-10.9986
▁iqtisadçı	-10.9987
▁mövcudluğu	-10.9987
ع	-10.9987
▁qolları	-10.9987
bucaqlı	-10.9988
▁meşələr	-10.9988
▁Federasiyasında	-10.9989
▁Rüstəmov	-10.9989
Mar	-10.9992
▁funksiyaları	-10.9992
▁xalçalar	-10.9993
ни	-10.9994
▁oyk	-10.9994
▁Qoca	-10.9996
▁həyəcan	-11
hab	-11.0001
▁götürülmüşdür	-11.0002
pel	-11.0002
▁edilməsində	-11.0006
mırdı	-11.001
▁basdır	-11.0012
▁bolşeviklər	-11.0012
▁Yekaterina	-11.0013
▁qoyan	-11.0018
▁məş	-11.002
▁dışında	-11.0029
▁oğludur	-11.003
▁içine	-11.0031
rayı	-11.0031
▁ehtimalı	-11.0034
▁Qarayev	-11.0037
▁Pul	-11.0039
▁Konservatoriya	-11.004
▁göstəriş	-11.004
▁rahib	-11.004
▁tərcüməsi	-11.004
▁poetik	-11.004
▁İlyas	-11.0042
▁1986	-11.0042
mişti	-11.0043
▁Heyvan	-11.0044
ebilecek	-11.0044
slav	-11.0045
forma	-11.0045
ла	-11.0046
tığım	-11.0048
▁sürür	-11.0052
▁Büyük	-11.0053
▁hərəkətə	-11.0055
▁olardı	-11.0057
qam	-11.0061
▁ötürmə	-11.0062
sep	-11.0062
▁Dədə	-11.0069
▁bölgüsü	-11.0069
▁şərtlər	-11.0072
▁sordu	-11.0073
▁gətirmişdir	-11.0077
▁yaşamağa	-11.0077
▁1984	-11.0079
▁əmtəə	-11.008
▁Cəmil	-11.008
▁Sentyabr	-11.008
▁suç	-11.008
▁materialların	-11.0081
▁obyekti	-11.0081
İK	-11.0082
▁Bayramov	-11.0085
stu	-11.0086
▁Bit	-11.0088
▁açılmış	-11.0092
▁xanəndə	-11.0094
▁Operator	-11.0094
▁illərdən	-11.0095
▁janrı	-11.0097
▁gitti	-11.0097
▁böl	-11.0097
▁qülləsi	-11.0097
▁açılmışdır	-11.0099
▁yarışları	-11.0102
▁protokol	-11.0106
▁Fevral	-11.0106
keçirici	-11.0106
▁Atatürk	-11.0107
▁seviye	-11.0108
▁istehsalat	-11.0109
▁meşələri	-11.011
▁palıd	-11.0112
▁işğalçı	-11.0113
▁Final	-11.0113
▁tutduğu	-11.0113
larımızı	-11.0114
▁etməkdədir	-11.0114
▁Pla	-11.0116
▁boynu	-11.0116
▁yayılır	-11.0118
▁gerekir	-11.0119
ical	-11.0119
▁Texnikumu	-11.012
▁funksional	-11.012
▁dağılması	-11.012
▁publisist	-11.0123
▁AT	-11.0124
▁inci	-11.0124
▁Qaf	-11.0124
▁Həmzə	-11.0124
▁1979	-11.0125
▁hüceyrələr	-11.0126
TA	-11.0128
▁Vətəndaş	-11.013
çuk	-11.013
▁oxumuşdur	-11.0131
▁tədqiqatçı	-11.0131
▁Ch	-11.0132
▁Barselona	-11.0133
▁1911-	-11.0133
ulyasiya	-11.0135
ddin	-11.0136
▁öldürür	-11.0137
▁barmaq	-11.0137
▁dərindən	-11.0138
▁geçen	-11.0141
▁Qey	-11.0142
▁bitirən	-11.0144
▁Bek	-11.0148
miya	-11.0149
▁çöküntülər	-11.0149
▁fasadı	-11.015
▁kərpic	-11.0154
linski	-11.0155
▁vasitələr	-11.0156
▁xo	-11.0157
▁yi	-11.0157
▁yazmağa	-11.0157
▁Braziliyanın	-11.0158
▁1900-	-11.0165
▁bilsin	-11.0167
▁dillər	-11.0172
▁125	-11.0173
▁hasil	-11.0174
▁göstəricisi	-11.0176
▁kullanarak	-11.0177
▁gitara	-11.0177
▁günündə	-11.0179
tör	-11.0181
ofil	-11.0181
ronun	-11.0185
▁Geo	-11.0186
▁Ümumittifaq	-11.0187
▁evlilik	-11.0193
▁qaş	-11.0195
▁kəndlərində	-11.0195
▁Kər	-11.0197
▁maral	-11.0199
▁Yumurta	-11.02
▁yepiskop	-11.02
▁kitabının	-11.02
▁qismində	-11.0202
▁oxuyan	-11.0202
▁mübarizəni	-11.0202
lmə	-11.0206
siv	-11.021
terin	-11.0212
ema	-11.0214
▁Ross	-11.0215
▁orqanizmin	-11.0216
▁kanser	-11.0218
▁toplantı	-11.0218
▁əd	-11.0218
▁dəyişil	-11.022
▁Doktor	-11.0224
▁çıxdığı	-11.0225
▁məqaləsi	-11.0226
▁Universitetinə	-11.0229
▁toplayaraq	-11.0229
▁Krist	-11.0232
▁Qulu	-11.0232
▁Qra	-11.0232
nel	-11.0233
▁ədalət	-11.0234
▁imzalanmış	-11.0234
▁quraşdırıl	-11.0236
▁Kül	-11.0237
▁çatmış	-11.0239
▁böyrək	-11.0241
М	-11.0241
▁hündürlük	-11.0244
▁çalışdı	-11.0244
▁tərəflər	-11.0247
▁voleybol	-11.0247
▁Tut	-11.0248
▁rep	-11.0248
▁bölümü	-11.0249
▁Aleksey	-11.025
▁məktəblərində	-11.0251
▁topu	-11.0252
▁anlaşıl	-11.0255
▁xar	-11.0256
ovu	-11.0256
▁Lerik	-11.0262
▁oyan	-11.0264
ensiya	-11.0265
kim	-11.0265
ол	-11.0265
▁Sənə	-11.0266
qut	-11.0266
▁əsasları	-11.0267
düz	-11.027
fü	-11.027
▁terminlərini	-11.027
▁atlı	-11.0272
▁caz	-11.0272
▁Komissiyasının	-11.0278
▁Elektron	-11.0278
▁Xaç	-11.0279
birini	-11.0279
▁mas	-11.0281
▁1982	-11.0281
▁Nuru	-11.0283
▁məzmun	-11.0284
▁Aynı	-11.0286
zad	-11.0287
▁mənbələr	-11.0287
▁yubileyi	-11.0296
▁hövzəsi	-11.0298
▁dol	-11.0299
▁tipik	-11.03
▁qanuni	-11.0301
▁cism	-11.0301
▁Vir	-11.0302
▁fənlər	-11.0303
▁Babil	-11.0305
▁müddətinə	-11.0305
▁organ	-11.0306
▁yamacında	-11.0307
▁ettik	-11.0307
▁durur	-11.0308
▁satışı	-11.0308
▁həmdə	-11.031
▁oval	-11.0311
ных	-11.0314
54-	-11.0315
▁yapılan	-11.0316
ünde	-11.0321
▁Nərimanov	-11.0321
▁Hazır	-11.0321
rım	-11.0323
▁cəngavər	-11.0323
▁əhəng	-11.0323
▁diyor	-11.0324
▁baha	-11.0325
▁məntiq	-11.0325
▁kimsə	-11.0327
tol	-11.0329
▁Saat	-11.0329
▁ardı	-11.0329
▁təşkilatların	-11.0333
▁Ərəbistanı	-11.0335
▁nerede	-11.0337
▁yaxa	-11.0337
▁Hitler	-11.0339
80-	-11.0345
▁çoxluğu	-11.0345
▁adlandırılmış	-11.0346
▁Musayev	-11.0346
▁təşəkkül	-11.035
он	-11.035
▁bolşevik	-11.0351
▁Peru	-11.0353
kos	-11.0354
▁sahibliyi	-11.0357
▁seçilməsi	-11.0359
▁hərfi	-11.036
▁şans	-11.0363
▁evləndi	-11.0363
▁amerikan	-11.0365
▁qanunvericilik	-11.0366
▁formaya	-11.0366
film	-11.0368
arsa	-11.0369
▁Fran	-11.037
▁nəzər	-11.0371
▁çəkmişdir	-11.0373
▁qoyuldu	-11.0374
▁üzəri	-11.0374
▁dünyanı	-11.0374
lerimizi	-11.0375
▁quraşdırılmış	-11.0376
▁Müsavat	-11.0377
▁yüzyıl	-11.0378
▁bilmirdi	-11.0385
▁komandasında	-11.0387
▁işləmə	-11.0387
▁bütövlükdə	-11.0391
dırır	-11.0392
osa	-11.0392
▁çoxalır	-11.0393
▁Şey	-11.0399
▁künc	-11.04
faq	-11.04
▁gizlə	-11.0401
▁Col	-11.0404
▁çempionatının	-11.0404
sikl	-11.0404
▁Zeynalov	-11.0405
▁peyda	-11.0405
lamış	-11.0406
▁yayımlanan	-11.0408
▁1978	-11.0409
▁olmayıb	-11.0412
▁zəmin	-11.0412
Məmmədov	-11.0412
▁mexanizmi	-11.0415
▁ört	-11.0418
▁mahnısını	-11.0418
▁Bəxtiyar	-11.0419
▁başda	-11.0419
▁balığı	-11.0422
▁toponimdir	-11.0423
▁korpusu	-11.0424
▁dizi	-11.0424
zor	-11.0424
▁tələ	-11.0424
▁bəlli	-11.0425
▁qazax	-11.0425
▁sahilləri	-11.0428
▁təhlükəsizliyi	-11.0428
▁müdafiəçi	-11.043
bək	-11.0431
▁investisiya	-11.0433
▁Yaradıcı	-11.0433
▁Şahbuz	-11.0433
▁epizod	-11.0433
▁John	-11.0433
▁Şirkətin	-11.0433
▁söyləyir	-11.0435
ğru	-11.0437
▁Tokio	-11.0438
▁yaptık	-11.0441
▁Sak	-11.0442
▁bahset	-11.0444
▁etsin	-11.0445
▁Mineral	-11.0446
▁söylüyor	-11.0447
▁Zeynal	-11.0448
▁saxlanması	-11.0448
▁Bern	-11.0449
▁himayə	-11.0449
▁bakın	-11.045
▁Rəhimov	-11.0453
▁Bazı	-11.0453
▁atıcı	-11.0456
▁Meyvə	-11.0456
osun	-11.0457
▁qaldırılması	-11.0458
▁əsgərlər	-11.0459
▁çıxaraq	-11.0459
э	-11.046
▁tapıntı	-11.046
vir	-11.0461
▁All	-11.0462
▁Dam	-11.0464
▁tapılmış	-11.0467
▁Kul	-11.0467
▁ağıl	-11.0467
▁kesi	-11.0469
▁bazasında	-11.0471
▁1981	-11.0471
▁sana	-11.0471
▁Səl	-11.0471
xov	-11.0472
▁ünsür	-11.0474
suna	-11.0476
▁aşiq	-11.0477
▁qət	-11.0478
▁af	-11.0479
▁albomunu	-11.0481
▁çeşit	-11.0483
▁Gəncəvi	-11.0483
ənbə	-11.0484
▁döyüşçüləri	-11.0484
okrat	-11.0485
▁Sultanov	-11.0486
▁tarih	-11.0486
▁yaradıcılığının	-11.0487
▁Ural	-11.0488
que	-11.0488
▁Nəsrəddin	-11.0488
▁Yelizavetpol	-11.0488
▁sıfır	-11.0488
▁edəcəyi	-11.0489
▁reytinq	-11.0489
▁Fra	-11.049
ləşmişdir	-11.0491
▁idarəsində	-11.0493
sızlıq	-11.0494
▁sakin	-11.0496
▁körfəz	-11.0501
▁ekspert	-11.0502
▁yöntem	-11.0502
pərəst	-11.0502
kut	-11.0506
▁küt	-11.0511
▁etdirib	-11.0511
▁etməlidir	-11.0511
▁yayında	-11.0511
ей	-11.0515
▁vuran	-11.0517
▁Qərib	-11.0518
▁ölçüdə	-11.0519
▁gəlirdi	-11.052
▁dərsləri	-11.052
▁Türkmən	-11.052
▁pər	-11.0521
lədi	-11.0521
▁Sərdar	-11.0525
pra	-11.0533
çiliyin	-11.0533
▁oynamış	-11.0534
yeyən	-11.0537
▁yarımadasının	-11.0538
▁Gürcü	-11.0538
▁dağın	-11.054
ves	-11.054
▁mərhələsinə	-11.0543
▁Goranboy	-11.0544
▁yuyul	-11.0547
▁ulduzlar	-11.0549
▁təkmilləşdiril	-11.0551
▁sayılırdı	-11.0551
▁keşiş	-11.0553
▁Avto	-11.0553
eğin	-11.0554
▁dolaş	-11.0555
▁bildiyi	-11.0556
▁işlərin	-11.0558
▁müayinə	-11.0558
madığı	-11.0561
▁sualtı	-11.0561
▁ailəsinə	-11.0562
▁bacı	-11.0562
mayor	-11.0562
▁Fondunun	-11.0563
▁digərləri	-11.0566
▁ensiz	-11.0569
▁təhvil	-11.0572
▁yaradıb	-11.0573
▁yaralanıb	-11.0574
▁lisey	-11.0576
▁halı	-11.0584
bənd	-11.0585
▁İstiqlal	-11.0586
▁işlənməsi	-11.0588
▁ədədi	-11.0589
şağı	-11.0589
▁Emil	-11.0589
▁diz	-11.0589
wi	-11.0592
▁Şirvanşahlar	-11.0593
▁yılında	-11.0595
▁Sina	-11.0595
▁çəmən	-11.0596
▁cinayətkar	-11.0597
▁qərbdən	-11.0597
tmiş	-11.0598
да	-11.0599
▁əkil	-11.0599
Anceles	-11.06
▁Toxum	-11.06
▁müstəqilliyi	-11.0601
▁kolleksiyası	-11.0601
▁sıkı	-11.0603
▁küçəsində	-11.0605
▁Azərbaycandakı	-11.0609
▁qayı	-11.061
III	-11.0611
▁məzunu	-11.0611
▁qabarıq	-11.0615
▁halqa	-11.0615
▁xaric	-11.0615
▁Bursa	-11.0617
▁ilaç	-11.0618
▁Mes	-11.0618
▁Gə	-11.0618
▁təbəqəsi	-11.0619
▁birləşmələri	-11.062
▁kədər	-11.0624
▁koruma	-11.0625
▁Nov	-11.0627
▁tərəfdarı	-11.0628
▁surəsi	-11.0629
▁əlifba	-11.0629
▁Hor	-11.0632
▁olunmasını	-11.0633
▁kabin	-11.0638
sevər	-11.0638
▁poeziya	-11.0639
▁firması	-11.0639
▁köçdü	-11.064
▁yataqlarının	-11.064
▁məntiqi	-11.0641
▁İbtidai	-11.0642
▁bəylərbəyi	-11.0642
▁səhnəsində	-11.0646
ит	-11.0647
meyen	-11.0648
▁Cabbar	-11.0654
▁İdarəsi	-11.0654
▁rütubətli	-11.0655
oğlunun	-11.0656
▁gətirə	-11.0656
▁məqsədlər	-11.0657
▁bilməsi	-11.0658
▁vətəndaşı	-11.0659
▁inancı	-11.0659
▁bunlara	-11.066
▁Səb	-11.0661
▁vəkili	-11.0662
▁qayıda	-11.0665
▁rağmen	-11.067
▁Vasili	-11.0671
▁başlanır	-11.0673
▁seminar	-11.0675
▁həkk	-11.0678
VI	-11.068
▁Kateqoriya	-11.0685
▁Moldova	-11.0685
▁İttifaq	-11.0685
MA	-11.0685
▁uzay	-11.0687
▁Millətlər	-11.0687
▁tutmaq	-11.0688
▁1918	-11.0694
▁girmə	-11.0696
▁sağlık	-11.0698
▁yaxınlıq	-11.0698
vik	-11.07
▁jurnalistika	-11.0702
▁yaradılmasında	-11.0707
▁far	-11.0709
uğu	-11.0711
put	-11.0712
▁kəndlilər	-11.0713
▁ixtiyar	-11.0713
▁Tir	-11.0717
▁evlənmə	-11.0719
▁Zəngi	-11.0723
▁karyerasında	-11.0724
zey	-11.0726
ting	-11.0727
▁dəyişdirilərək	-11.0727
▁yataqxana	-11.0729
▁1920	-11.0729
▁qoyma	-11.0729
▁ihtiyacımız	-11.0733
▁şöbəsinə	-11.0733
▁teatrında	-11.0736
▁milyondan	-11.0738
▁kural	-11.0738
▁Bür	-11.074
▁açıqlama	-11.074
▁Bayrağı	-11.0742
▁camaat	-11.0743
sch	-11.0745
▁hara	-11.0746
▁günləri	-11.0747
ektor	-11.0747
▁göndərilən	-11.0747
▁Sezar	-11.075
▁çağırır	-11.0751
▁qabiliyyət	-11.0751
kö	-11.0753
▁işçiləri	-11.0753
▁hindu	-11.0755
▁Turan	-11.0755
▁Xorvatiya	-11.0756
▁nifrət	-11.0756
▁şərqdən	-11.0758
▁partiyanın	-11.0759
▁kafedralı	-11.0759
▁sort	-11.076
▁bitirərək	-11.0761
▁məğlubiyyət	-11.0762
▁Leon	-11.0763
▁şəhərlərindən	-11.0763
çaq	-11.0764
▁Respublikanın	-11.0766
▁Türküstan	-11.077
▁Ədirnə	-11.077
▁köçmüş	-11.0771
▁Doğru	-11.0771
▁pak	-11.0771
▁formasını	-11.0772
▁İncil	-11.0773
▁Samur	-11.0776
▁gözləyir	-11.0776
▁inqilabi	-11.0777
▁Elçin	-11.0777
yub	-11.0782
▁Əh	-11.0784
▁daima	-11.0784
▁Qut	-11.0785
▁metodları	-11.0785
▁buynuz	-11.0792
▁oynanıl	-11.0797
▁gətirmiş	-11.0797
liyyət	-11.0797
-25	-11.0797
mekte	-11.0798
▁bilmədiyi	-11.0799
▁finala	-11.0799
▁oran	-11.0799
▁veriliş	-11.08
▁qəzəb	-11.0801
▁men	-11.0801
▁1983	-11.0801
▁yaratmağ	-11.0802
▁sınıf	-11.0802
▁Allaha	-11.0803
▁kəməri	-11.0805
▁Mont	-11.0805
▁otaqları	-11.0805
▁Rəssamlıq	-11.0807
olun	-11.0809
▁Şər	-11.081
▁tutar	-11.0811
▁icması	-11.0811
öhrə	-11.0812
▁keramika	-11.0813
▁yetirilməsi	-11.0815
▁Müsabiqə	-11.0815
mam	-11.0818
▁tüstü	-11.0819
sial	-11.082
▁obrazları	-11.082
og	-11.0821
dent	-11.0821
▁Gülüstan	-11.0827
Se	-11.0827
▁yapabil	-11.083
▁aparırdı	-11.083
▁ərə	-11.0832
▁nı	-11.0833
▁hoş	-11.0835
ма	-11.0837
▁torpaqlarında	-11.084
▁konus	-11.0841
▁küresel	-11.0842
▁sebebi	-11.0842
▁repressiya	-11.0842
lmış	-11.0843
▁hamam	-11.0847
▁qurğuları	-11.0848
▁kuş	-11.0849
▁ilgilen	-11.0849
▁kurtar	-11.0851
▁alıp	-11.0851
▁nəqliyyatı	-11.0852
▁qalaraq	-11.0853
▁Belki	-11.0853
▁formalaşmışdır	-11.0854
▁ovçu	-11.0854
imizi	-11.0855
▁gidiyor	-11.0856
▁aparatı	-11.0857
▁öldürülmüşdür	-11.0858
ıltı	-11.0859
▁bağlayır	-11.086
те	-11.086
▁biliyoruz	-11.086
▁yəhudilər	-11.0862
▁gözəlliyi	-11.0863
▁1975	-11.0865
ome	-11.0866
▁Təşkilatının	-11.0867
▁dağətəyi	-11.0871
▁Dmitri	-11.0871
▁cazibə	-11.0871
lduğu	-11.0872
▁Əsərin	-11.0872
▁saxlanılan	-11.0874
▁Tap	-11.0876
▁binaları	-11.0876
▁sahələrinin	-11.0877
▁tanınmışdır	-11.0878
▁molla	-11.0879
▁geliş	-11.0881
▁Dərə	-11.0883
▁keçirməyə	-11.0883
▁Qırğızıstan	-11.0885
▁1909-	-11.0885
▁təcili	-11.0886
▁mövsümün	-11.0887
▁Səhiyyə	-11.0887
▁göndərmə	-11.0893
▁tel	-11.0894
▁Hüs	-11.0897
▁yardımcı	-11.0899
▁Mühafizə	-11.0899
▁türklərin	-11.09
ET	-11.09
▁kalan	-11.0901
▁tikilib	-11.0902
▁01	-11.0904
Tə	-11.0906
▁boşluq	-11.0906
▁qayıtma	-11.0907
▁sahibləri	-11.0907
▁bürü	-11.0907
▁yüksəkliyi	-11.0909
▁Özünü	-11.0909
▁minə	-11.091
▁dövri	-11.0911
▁veriyor	-11.0912
▁qəhrəmanlıq	-11.0914
▁sahəni	-11.0919
▁öldürdü	-11.0919
▁məsələlərin	-11.092
▁Məclis	-11.092
▁Kle	-11.0924
▁Yəmən	-11.0929
▁kosmos	-11.0929
▁əyani	-11.0931
▁qabiliyyətinə	-11.0932
▁adalarında	-11.0932
▁Dini	-11.0934
▁Qrupun	-11.0935
▁alınıb	-11.0935
▁insanlarla	-11.0938
sizliyi	-11.094
▁hizmet	-11.0943
▁həvalə	-11.0943
▁Çarlz	-11.0943
▁respublikada	-11.0943
▁əhvalat	-11.0945
lararası	-11.0945
▁laboratoriyası	-11.0947
▁praktiki	-11.0947
▁Kamp	-11.0948
▁hekayələr	-11.0949
▁Kürd	-11.095
▁çöküntü	-11.0952
2010	-11.0954
rut	-11.0954
▁xanımın	-11.0955
▁potensial	-11.0955
▁sonucu	-11.0957
▁müdrik	-11.0958
ofit	-11.0958
▁məz	-11.0959
AL	-11.0963
▁Bəs	-11.0966
▁agent	-11.0967
▁həkimi	-11.0968
▁işinin	-11.0968
▁önem	-11.0969
▁mon	-11.0969
▁Zəncan	-11.0972
▁İndiki	-11.0972
▁madde	-11.0972
▁bilərik	-11.0974
▁müalicəsi	-11.0975
▁qər	-11.0977
▁90-	-11.0978
məmməd	-11.0978
▁qayıq	-11.0981
▁Şiraz	-11.0982
▁qrupunda	-11.0983
ena	-11.0985
▁bulunan	-11.0986
▁Burun	-11.0988
▁gətirmək	-11.0988
▁imiş	-11.0988
▁rubl	-11.0989
Н	-11.099
▁Elxan	-11.0991
▁çeşitli	-11.0992
их	-11.0995
▁qarşısına	-11.0996
key	-11.0996
▁təntənəli	-11.0996
▁1974	-11.0998
▁İst	-11.0999
▁etno	-11.1
▁sümüyü	-11.1001
▁Şahin	-11.1006
▁bölgələrdə	-11.1007
▁danışan	-11.101
▁Çö	-11.101
▁fel	-11.1014
landırır	-11.1016
▁idarəsinin	-11.1016
▁istəmir	-11.1016
▁Cabbarlı	-11.1017
▁işlədilir	-11.1017
▁maldarlıq	-11.1017
▁mühacirət	-11.1019
▁qırx	-11.1019
▁qoymaq	-11.1021
▁artan	-11.1022
▁istila	-11.1023
▁məskunlaşması	-11.1025
▁Hidro	-11.1026
vuz	-11.1028
▁Şer	-11.1031
▁DVD	-11.1031
▁etiqad	-11.1031
▁süqut	-11.1031
▁hersoq	-11.1031
▁ortak	-11.1031
▁malikdirlər	-11.1031
▁qəzetin	-11.1033
▁sevdiyi	-11.1037
▁Rəsmi	-11.1038
▁Muzeyin	-11.1038
▁Sb	-11.1039
▁analizi	-11.104
▁nominasiya	-11.104
▁Qul	-11.1041
▁dizaynı	-11.1042
izmə	-11.1042
hen	-11.1043
NT	-11.1044
▁şagirdlər	-11.1044
▁tədbirlərin	-11.1045
▁Avrasiya	-11.1046
▁narazı	-11.1049
▁Kras	-11.105
▁mühazirələr	-11.105
▁açıb	-11.1052
▁illərə	-11.1054
▁dəvə	-11.1055
▁çayına	-11.1058
▁Sinqapur	-11.106
ted	-11.106
▁tir	-11.1061
▁sənayesinin	-11.1061
▁şifr	-11.1061
laştı	-11.1062
▁fizik	-11.1063
▁çiz	-11.1064
▁yayılıb	-11.1064
▁olsaydı	-11.1068
▁kaldır	-11.1069
▁Tunc	-11.107
▁əməkdaşlığı	-11.1071
qabağı	-11.1071
▁gömrük	-11.1075
▁Spe	-11.1075
▁kapitan	-11.1075
▁mənsəb	-11.1075
▁Hüseynqulu	-11.1079
▁saxlaya	-11.108
▁parad	-11.1081
▁tənqidi	-11.1081
▁tənqidçilər	-11.1082
ет	-11.1084
▁görmek	-11.1085
▁SBb	-11.1085
▁yumru	-11.109
▁azot	-11.1091
▁Bü	-11.1091
▁minarə	-11.1092
şır	-11.1093
▁məktəblərdə	-11.1096
▁başlanğıcında	-11.1098
▁Qaya	-11.1098
sper	-11.1098
▁fərd	-11.1099
▁qəhrəmanları	-11.1099
▁əvvəlcədən	-11.11
▁təsirindən	-11.1101
▁ölür	-11.1102
▁şəffaf	-11.1102
▁sosialist	-11.1104
▁miqrasiya	-11.1104
▁Uzaq	-11.1105
▁konfransı	-11.1105
▁sarayda	-11.1108
▁96	-11.111
▁olunmasında	-11.1111
▁millətçi	-11.1112
▁xətləri	-11.1112
▁etməkdən	-11.1117
▁göstərmə	-11.1118
▁Tərəqqi	-11.1119
▁1904-	-11.1119
▁düşünüyorum	-11.1124
▁170	-11.1127
▁oymağı	-11.1129
▁Tat	-11.1131
▁Fakültə	-11.1134
▁çevrilmiş	-11.1136
▁olup	-11.1136
▁çıxarılmış	-11.1137
▁canlılar	-11.1137
▁parkın	-11.1141
ülmüş	-11.1141
▁qoşuldu	-11.1144
taki	-11.1146
▁dəhşətli	-11.1147
▁komandasına	-11.1147
▁bağırsaq	-11.1147
▁dönmə	-11.115
pal	-11.115
▁İzmir	-11.1152
▁soğan	-11.1153
▁KP	-11.1156
▁sənədlərin	-11.1158
▁Maksim	-11.1158
Araz	-11.1158
▁kendisi	-11.116
▁sıxışdır	-11.1164
çak	-11.1164
▁görüyorsunuz	-11.1164
▁ör	-11.1175
▁komitəsi	-11.118
▁Dəli	-11.1183
▁Mara	-11.1185
▁Fuad	-11.1186
▁ders	-11.1187
▁Şin	-11.1188
▁çayların	-11.1189
▁görüldü	-11.1194
▁sabah	-11.1194
▁adalarının	-11.1194
▁önündə	-11.1197
ence	-11.1198
▁Gir	-11.1199
ləşdiyi	-11.12
▁vadi	-11.1202
▁Flor	-11.1203
▁vulkanı	-11.1207
▁ərazisindəki	-11.1208
▁Rad	-11.1208
▁buğum	-11.1211
cığı	-11.1213
▁Sultanın	-11.1213
sevən	-11.1214
eceğiz	-11.1215
▁təhlili	-11.1215
▁oyunlarında	-11.1216
▁nəsr	-11.1217
▁xlor	-11.1221
▁hüququnu	-11.1222
▁Vas	-11.1224
sso	-11.1224
▁oynayıb	-11.1226
▁gur	-11.1226
▁otuz	-11.1233
▁Milad	-11.1235
▁görülmüş	-11.1237
▁tənəffüs	-11.1238
▁istehkam	-11.1238
▁ornament	-11.1238
▁Körpü	-11.1239
▁üsulla	-11.1239
▁Sof	-11.1239
▁Əhali	-11.1239
▁vacibdir	-11.1241
▁Leyla	-11.1242
▁beri	-11.1242
▁Məcid	-11.1246
▁etmədi	-11.1246
▁Keçi	-11.1247
▁çıxarıl	-11.1251
kişi	-11.1251
▁doku	-11.1254
mexanik	-11.1254
▁oxuyub	-11.1254
▁ştatı	-11.1255
▁ayak	-11.1255
▁materialı	-11.1256
▁fərqlənən	-11.1256
▁Pin	-11.1257
▁Der	-11.1258
▁erkek	-11.1258
ross	-11.1258
▁başlayırlar	-11.1258
▁hüquqşünas	-11.1258
▁təxəllüsü	-11.126
▁alay	-11.1261
▁məğlubiyyətə	-11.1262
▁1972	-11.1263
▁çərçivə	-11.1263
▁obrazını	-11.1266
▁Keş	-11.1266
▁uygulama	-11.1268
▁Avrupa	-11.1268
▁Bələdiyyə	-11.1268
▁hazırladı	-11.1269
yov	-11.127
▁təsirli	-11.127
▁öldürmək	-11.1273
▁Media	-11.1275
▁hökümət	-11.1276
▁Hacıbəyov	-11.1279
▁formalaşmasında	-11.128
SA	-11.1281
▁başlanması	-11.1283
▁uzunluqda	-11.1283
▁becərilir	-11.1283
▁Mövsüm	-11.1283
▁qabar	-11.1283
▁konstruksiya	-11.1284
▁cinah	-11.1284
kül	-11.1286
▁kadr	-11.1286
▁350	-11.1286
▁miqyas	-11.1287
▁tale	-11.129
▁Universitetini	-11.1292
▁qoymuş	-11.1292
▁unut	-11.1294
▁şahzadəsi	-11.1295
▁kasa	-11.1295
▁temp	-11.1295
▁seçkilərində	-11.1298
▁İnşaat	-11.1298
▁Arslan	-11.1299
ruk	-11.13
▁çizgi	-11.13
▁sinfinə	-11.1303
▁döv	-11.1303
▁tirə	-11.1304
kten	-11.1304
▁sağlamlığı	-11.1305
▁Deməli	-11.1305
daxili	-11.1305
▁alırdı	-11.1308
▁obrazlar	-11.1309
▁Günü	-11.1312
▁ten	-11.1312
▁sikkələr	-11.1313
▁emin	-11.1315
▁əməliyyatları	-11.1315
▁düşündüm	-11.1317
▁itirmə	-11.132
▁bəzədilmiş	-11.1321
▁Çocuk	-11.1329
▁müzik	-11.1329
▁Gel	-11.133
▁Cəlilabad	-11.133
▁otlaq	-11.1332
▁verilmişdi	-11.1333
ələk	-11.1334
leriniz	-11.1337
▁Məscidin	-11.1338
75-	-11.1338
▁tərkibli	-11.1338
▁go	-11.134
▁İşçi	-11.1343
▁görebilirsiniz	-11.1345
▁çempionat	-11.1347
▁ileri	-11.1348
rılma	-11.1349
▁proqramlaşdırma	-11.135
▁iyununda	-11.1352
▁karşılaş	-11.1355
▁98	-11.1357
▁yayıl	-11.1359
▁Elizabet	-11.1359
▁Taqanroq	-11.1359
▁Kürdəmir	-11.1359
▁çocuğu	-11.1359
▁avtobus	-11.1359
▁fırsat	-11.136
▁valisi	-11.1362
▁bakış	-11.1362
▁1973	-11.1365
▁adlan	-11.1368
etta	-11.1368
▁baxır	-11.1368
▁istedadı	-11.1371
▁fərdlər	-11.1372
▁doğulduğu	-11.1372
▁rəngarəng	-11.1374
▁Eduard	-11.1374
▁verilirdi	-11.1375
▁obyektiv	-11.1375
▁ssenarist	-11.1375
vest	-11.1377
▁müharibələri	-11.1378
▁Dra	-11.1381
▁Kata	-11.1382
▁Chris	-11.1382
▁büdcə	-11.1383
▁soyqırım	-11.1383
▁güneş	-11.1384
-13	-11.1384
▁çoban	-11.1385
▁verilənlər	-11.1388
▁arxitektur	-11.1389
▁hicri	-11.1389
▁vampir	-11.1389
▁donanma	-11.139
▁düşmənin	-11.1391
boz	-11.1393
▁böyüyü	-11.1397
▁Xidməti	-11.1401
-9	-11.1403
▁Münhen	-11.1404
▁Noyabr	-11.1404
▁Anime	-11.1405
▁Nəsib	-11.1405
ırıq	-11.1411
oksi	-11.1413
▁tax	-11.1415
▁balık	-11.1417
▁vərəq	-11.1418
▁Səhra	-11.1418
▁Divan	-11.1419
▁Piter	-11.142
▁povest	-11.142
▁prosessor	-11.1421
lənməyə	-11.1421
▁Tem	-11.1421
▁dağlarında	-11.1422
▁orman	-11.1425
▁payı	-11.1427
▁kok	-11.1427
▁Liqasının	-11.1428
▁mor	-11.143
▁oyma	-11.1431
rok	-11.1433
▁növlərinin	-11.1433
çülük	-11.1435
▁xəyanət	-11.1435
▁təqdirdə	-11.1435
▁preparat	-11.1435
▁populyasiya	-11.1435
▁palata	-11.1437
▁teşekkür	-11.1443
▁dilindəki	-11.1443
▁sərkərdəsi	-11.1443
▁NATO	-11.145
▁karbohidrogen	-11.145
▁güləş	-11.145
▁kainat	-11.1452
▁qışda	-11.1454
▁Cor	-11.1457
▁arxipelaqı	-11.1459
▁şekil	-11.146
▁1976	-11.146
her	-11.1461
▁koordinat	-11.1461
▁səhnəyə	-11.1462
▁şirəsi	-11.1463
▁82	-11.1465
▁olunmaq	-11.1466
▁cildi	-11.1466
▁müsəlmanların	-11.1467
▁gözəllik	-11.1468
▁Orda	-11.1471
▁Naxçıvanın	-11.1471
Qərb	-11.1472
hor	-11.1472
Bakı	-11.1477
▁odur	-11.1479
▁Ağac	-11.1479
▁səciyyə	-11.148
▁İohann	-11.1481
▁anı	-11.1482
ой	-11.1482
▁bilmiyor	-11.1487
fatından	-11.1493
stansiya	-11.1495
▁Əhalisinin	-11.1496
▁spesifik	-11.1496
▁qüsur	-11.1496
▁mühakimə	-11.1496
▁evli	-11.1496
▁çıxa	-11.1498
▁Serial	-11.15
▁gösteri	-11.1503
▁uzak	-11.1505
dağı	-11.1506
▁özbək	-11.1507
▁176	-11.1507
▁yılda	-11.1508
▁qızılı	-11.1512
▁Məhəmmədəli	-11.1512
74-	-11.1513
▁silin	-11.1514
▁Lar	-11.1514
▁saxta	-11.1514
▁təsərrüfatının	-11.1515
▁yanaş	-11.1516
▁Memarlıq	-11.1519
▁etmeye	-11.152
▁yapacağı	-11.152
Ta	-11.1521
▁dənizə	-11.1521
▁məlumatlarına	-11.1523
▁müstəvi	-11.1527
▁Yevlax	-11.1527
▁sədaqət	-11.1527
▁159	-11.1527
▁işığın	-11.1529
▁muhtemelen	-11.1529
▁filmidir	-11.1529
▁göstərişi	-11.1531
▁ettim	-11.1532
▁olmaya	-11.1532
▁əhaliyə	-11.1533
▁gövdəsi	-11.1533
▁kənarları	-11.1533
.18	-11.1535
▁fikirlərini	-11.1536
fel	-11.1536
▁ekspedisiyası	-11.1537
▁iman	-11.1539
▁övlad	-11.1539
▁Şuşada	-11.1541
▁Sarayın	-11.1542
▁Fərrux	-11.1542
▁harita	-11.1543
▁düyü	-11.1543
▁xəritəsi	-11.1544
▁düşərgəsi	-11.1549
▁hissənin	-11.155
▁Şor	-11.1553
▁titr	-11.1556
▁eksponat	-11.1558
▁polyak	-11.1558
▁püskürmə	-11.1558
iyalılar	-11.1559
▁tarixləri	-11.156
▁artımı	-11.156
▁təh	-11.1561
Axundov	-11.1564
▁metro	-11.1568
ие	-11.1569
нов	-11.1569
▁müəllifləri	-11.157
▁yatırım	-11.157
▁uğuru	-11.1571
▁məşğuldur	-11.1571
▁ocaq	-11.1572
▁bəxşində	-11.1572
▁Xəlifə	-11.1573
▁ifraz	-11.1573
▁qəddar	-11.1574
▁Ayrı	-11.1576
▁kitabların	-11.1577
spe	-11.1581
▁Sov	-11.1586
▁Britaniyada	-11.1587
▁Б	-11.1588
▁Federal	-11.1589
▁söykən	-11.159
▁alırlar	-11.159
▁inkişafını	-11.159
təmsilçilərindən	-11.1595
AK	-11.1596
▁Luis	-11.1602
▁federal	-11.1604
▁doğulan	-11.1609
▁dialekt	-11.1618
▁məzarı	-11.1619
▁qoz	-11.162
qas	-11.162
▁itaət	-11.162
▁əsil	-11.1621
▁ülkeler	-11.1622
bağ	-11.1622
▁Dişi	-11.1623
▁vurmuşdur	-11.1623
▁olunacaq	-11.1624
▁ansamblı	-11.1627
▁görüşlər	-11.1627
▁filmlərdə	-11.1629
▁prosesinin	-11.1631
tho	-11.1631
▁Orxan	-11.1632
▁başarı	-11.1632
▁uzaqlaşdır	-11.1634
▁Mübariz	-11.1636
▁geçmiş	-11.1637
▁kutu	-11.1638
▁aparıcısı	-11.1638
▁0,5	-11.1642
▁Əf	-11.1643
▁Mədəni	-11.1644
atur	-11.1644
▁sarayının	-11.1648
▁davamı	-11.1649
▁təsvirləri	-11.1651
У	-11.1651
▁qurucusu	-11.1651
▁Tatar	-11.1652
▁keçdikdə	-11.1652
▁təyyarəsi	-11.1653
gahı	-11.1654
▁müxalifət	-11.1655
▁Dadaşov	-11.1657
▁kitabını	-11.1664
▁toplam	-11.1664
▁Kast	-11.1666
▁fərziyyə	-11.1667
but	-11.1667
▁qaraciyər	-11.1667
▁Zelandiya	-11.1667
▁cərgə	-11.1667
▁idrak	-11.1668
▁bazen	-11.1669
▁portreti	-11.1669
▁Romada	-11.1669
▁Dəstə	-11.167
▁kubok	-11.1673
sson	-11.1675
▁mövsümdə	-11.1678
emiya	-11.1678
▁aparat	-11.1682
▁Universitetdə	-11.1682
ِ	-11.1682
▁Koroğlu	-11.1683
▁rektoru	-11.1684
üşü	-11.1688
▁Bella	-11.1692
plan	-11.1695
▁yeyil	-11.1696
▁okeanı	-11.1697
▁serb	-11.1698
▁süfrə	-11.1698
▁Florensiya	-11.1698
▁tapşırığı	-11.1699
▁tapşırıq	-11.1699
▁rəssamlıq	-11.1701
▁həcmli	-11.1702
▁əfsanəvi	-11.1704
▁yetişir	-11.1705
▁monastır	-11.1709
▁gerçekleş	-11.1709
▁dayandırıl	-11.171
▁çəhrayı	-11.1714
▁düşünül	-11.1715
▁edebilir	-11.1716
▁ofis	-11.1717
▁bitkisidir	-11.1718
▁soyadı	-11.1719
▁memarı	-11.1719
fey	-11.1719
▁diri	-11.172
▁qaçdı	-11.1722
▁orda	-11.1726
▁sənin	-11.1727
▁Beyləqan	-11.173
▁Tezliklə	-11.173
▁debütünü	-11.1732
valı	-11.1733
▁hökmü	-11.1734
mamız	-11.1735
▁hiper	-11.1737
▁Tanrının	-11.1741
▁mühəndisi	-11.1743
ий	-11.1744
▁Baltik	-11.1745
lanmışdı	-11.1745
▁işlənmiş	-11.1748
▁Bill	-11.175
▁29-	-11.1752
▁İlkin	-11.1754
▁Lit	-11.1754
lerdi	-11.1756
▁gənclərin	-11.1756
▁kadrların	-11.1756
oku	-11.1757
▁Agentliyi	-11.1761
▁qayalıq	-11.1761
▁marşrut	-11.1761
▁Ufa	-11.1761
▁dışarı	-11.1762
▁münasibətilə	-11.1762
▁kurqan	-11.1764
▁müəssisələr	-11.1764
▁78	-11.1766
▁keçidi	-11.1766
▁renk	-11.1771
▁ayrılmışdır	-11.1771
zit	-11.1773
▁ekonomik	-11.1773
ənənə	-11.1774
▁mahiyyəti	-11.1775
▁sənətçi	-11.1776
▁Konqresi	-11.1776
▁Rafael	-11.1777
zaman	-11.1777
▁rəqibin	-11.1778
▁inkişafının	-11.1778
▁uşağın	-11.1778
daşıyıcı	-11.1778
▁mükafatları	-11.1779
ture	-11.178
▁məhsulların	-11.178
▁əhəmiyyətini	-11.1786
▁birləşdi	-11.1787
▁yandırıl	-11.1788
sək	-11.179
▁bilinir	-11.179
▁qoruyucu	-11.1793
▁dastanı	-11.1793
▁dünyayı	-11.1795
lmuşdur	-11.1796
▁ilahə	-11.1797
▁Mərkəzində	-11.1798
▁3-4	-11.1802
▁binasının	-11.1802
▁telekanalı	-11.1802
ləşib	-11.1803
şığı	-11.1805
▁maarifçi	-11.1805
cha	-11.1806
▁başlaya	-11.1806
▁aldıqdan	-11.1807
▁qanunlar	-11.1807
▁əməli	-11.1808
щ	-11.1809
▁Elektrik	-11.1809
▁proqnoz	-11.1809
▁çatışmazlığı	-11.1809
▁stabil	-11.1809
▁1919	-11.1809
▁hangi	-11.1809
▁nedir	-11.1809
▁Əksər	-11.181
▁elastik	-11.1811
▁mövqeyini	-11.1813
▁algı	-11.1814
▁Kirman	-11.1815
▁birlikləri	-11.1815
▁qüvvəsini	-11.1815
▁dərəcəsinə	-11.1816
▁hamilə	-11.182
▁universitetləri	-11.1824
▁dünyəvi	-11.1824
▁uygun	-11.1825
konun	-11.1827
▁Komitə	-11.1827
▁gölünün	-11.1828
▁xatirəsinə	-11.1829
neft	-11.183
▁formalaşdı	-11.1834
▁səviyyəsinə	-11.1836
▁günlərdə	-11.1836
tığını	-11.1838
▁atma	-11.1838
duksiya	-11.1838
▁Bülbül	-11.184
▁subtropik	-11.184
▁yukarı	-11.184
▁Diğer	-11.184
▁sığınacaq	-11.1842
▁zərif	-11.1842
▁Qı	-11.1842
▁çu	-11.1843
▁qaldırmaq	-11.1844
▁Aleks	-11.1845
▁Kot	-11.1848
▁merak	-11.1848
▁Angel	-11.1849
İN	-11.185
▁yazılıb	-11.185
▁tutulması	-11.1852
▁islahat	-11.1852
▁məsuliyyəti	-11.1852
▁Kel	-11.1854
▁binaların	-11.1854
▁leytenant	-11.1858
▁kəllə	-11.1858
▁atəşi	-11.1862
▁anladı	-11.1864
▁çıxarılır	-11.1865
▁qatil	-11.1866
▁sidik	-11.1867
▁orqanlarında	-11.1868
ktoru	-11.1868
▁Soyuq	-11.1872
▁səbəblə	-11.1873
▁olunmur	-11.1875
▁getdiyi	-11.1876
▁gördüm	-11.1876
▁poeziyası	-11.1877
▁mənşə	-11.1877
metrik	-11.1877
▁büdcəsi	-11.1879
▁Liverpul	-11.1888
▁1902-	-11.1888
▁animasiya	-11.1888
▁rəsmən	-11.1889
▁tutulmuşdur	-11.1892
▁festivalı	-11.1894
▁irq	-11.1895
▁orduya	-11.1896
▁alp	-11.1896
▁Gölün	-11.1898
▁Dik	-11.1899
▁Demokrat	-11.19
▁kendimi	-11.1901
▁mus	-11.1903
▁çıxarmaq	-11.1904
▁salon	-11.1906
▁əlaməti	-11.1909
▁müəllifin	-11.1909
▁başını	-11.1909
▁regionun	-11.191
▁şüalanma	-11.1912
▁Müş	-11.1912
▁qadağa	-11.1912
▁İnstitut	-11.1913
▁evinin	-11.1914
▁ətəyində	-11.1914
▁ayrılma	-11.1914
▁bilmişdi	-11.1914
▁Yuqoslaviya	-11.192
9.1937	-11.192
▁ölkədən	-11.192
▁təhrif	-11.192
▁Fərəc	-11.1922
▁məhsulun	-11.1923
▁pişik	-11.1923
▁Rub	-11.1926
▁hun	-11.1927
eceği	-11.1927
▁başqırdlar	-11.1929
kəs	-11.193
▁yayla	-11.1931
▁Qır	-11.1932
▁şiddət	-11.1933
▁inanır	-11.1935
▁Slovakiya	-11.1936
▁Ağcabədi	-11.1936
▁Dav	-11.1939
▁metodik	-11.194
▁əhli	-11.194
▁dəmiryol	-11.1943
ая	-11.1944
▁başarılı	-11.1945
▁Xanlar	-11.1946
ərsə	-11.1947
▁etdikdə	-11.1948
▁müddətli	-11.195
▁oyuna	-11.1951
▁International	-11.1952
▁yarımçıq	-11.1952
▁Məbəd	-11.1953
▁dönüştür	-11.1953
▁etdirmə	-11.1954
▁dağıdılmış	-11.1954
▁Oğlu	-11.1956
pərvər	-11.1957
▁iyulunda	-11.1957
kova	-11.1959
▁almak	-11.1959
▁kommersiya	-11.1961
▁buxtası	-11.1962
▁arkadaş	-11.1963
▁Tok	-11.1963
nüz	-11.1968
▁zabiti	-11.1969
mayacağı	-11.1971
▁takip	-11.1972
▁seks	-11.1973
▁Petro	-11.1974
▁Heyəti	-11.1974
Tədqiqat	-11.1976
▁Tel	-11.1979
fur	-11.198
▁önəm	-11.1981
▁Vurğun	-11.1981
▁Əsr	-11.1981
▁Səs	-11.1981
▁etdirmiş	-11.1983
▁çevrə	-11.1985
▁uzunmüddətli	-11.1985
▁Mədinə	-11.1985
▁edilmir	-11.1987
▁Bell	-11.1988
BA	-11.1988
▁oturaq	-11.1989
▁Qon	-11.199
▁Len	-11.1991
▁je	-11.1991
▁Wal	-11.1993
▁məhsullar	-11.1994
▁baktığı	-11.1994
▁Gra	-11.1995
▁eynidir	-11.1995
▁dağılmış	-11.1996
yiz	-11.2
▁Müəyyən	-11.2001
▁Qahirə	-11.2001
▁1898-	-11.2001
▁veb	-11.2001
▁ərəbcə	-11.2002
▁Sahib	-11.2003
▁yaşadıqları	-11.2004
▁formasiya	-11.2007
▁qızılbaş	-11.2007
▁Sasani	-11.2008
▁Toy	-11.2008
şid	-11.2009
▁Xanım	-11.2012
▁sürdü	-11.2012
▁surət	-11.2015
▁Ehtimal	-11.2017
▁Zülfüqar	-11.2017
▁ilahiyyat	-11.2017
▁Memar	-11.2018
birinin	-11.2019
▁aldılar	-11.202
▁funksiyasını	-11.2021
▁ovu	-11.2023
▁müharibədən	-11.2024
▁dayaq	-11.2028
ous	-11.2029
▁qurğular	-11.2031
▁lu	-11.2033
▁təfəkkür	-11.2033
▁devlet	-11.2033
▁oğuz	-11.2033
▁üzgüçü	-11.2033
▁Venera	-11.2034
▁götürmüşdür	-11.2035
▁musiqisinin	-11.2035
▁konsertlər	-11.2036
▁mətbəx	-11.2037
▁Növ	-11.2037
▁mələk	-11.2039
▁qabiliyyətini	-11.2041
▁nəzərdən	-11.2042
▁kullanma	-11.2042
gra	-11.2044
ction	-11.2047
▁nəşriyyat	-11.2048
▁Ayətullah	-11.2049
▁Diyarbəkir	-11.2049
▁ağciyər	-11.2049
▁türkləri	-11.205
yorsunuz	-11.2051
strat	-11.2053
biz	-11.2056
▁biliklər	-11.206
▁müxtəlifliyi	-11.2064
idze	-11.2065
▁Kabinetinin	-11.2065
▁aşağıdakılardır	-11.207
▁Viktoriya	-11.2071
▁ait	-11.2071
qanın	-11.2072
qro	-11.2072
▁yığıl	-11.2072
▁bunlardır	-11.2079
▁Xal	-11.2079
▁varisi	-11.2079
▁Əlcəzair	-11.2082
▁atletika	-11.2083
▁məzhəb	-11.2084
▁yedi	-11.2085
▁Naz	-11.2086
▁rəsmləri	-11.2088
▁cam	-11.2088
▁evrim	-11.2088
▁arkadaşları	-11.2089
▁defa	-11.2089
▁1971	-11.2093
▁qalmaq	-11.2093
▁göndərilmişdir	-11.2097
ис	-11.2098
məhəmməd	-11.2098
▁emalatxana	-11.2098
▁Həmkarlar	-11.2099
▁xəttində	-11.21
▁düşməni	-11.21
off	-11.21
çiçəyi	-11.2102
▁Quş	-11.2103
▁değiştirme	-11.2103
luğunda	-11.2103
▁doğu	-11.2106
И	-11.2107
▁çəkmiş	-11.2108
▁ekle	-11.2108
▁Pey	-11.211
▁aero	-11.2112
▁fakultəsin	-11.2113
▁duru	-11.2113
▁qələvi	-11.2114
▁parçalanması	-11.2116
▁içerisinde	-11.2116
▁qarət	-11.2117
▁monastırı	-11.212
▁antropo	-11.212
▁edilər	-11.2121
▁sonlarına	-11.2122
gg	-11.2124
▁Dom	-11.2127
▁qutu	-11.2129
tmişdir	-11.2129
▁Müsabiqəsi	-11.213
▁Mançester	-11.2131
▁alternativ	-11.2131
▁Erkək	-11.2131
▁ölkələrdən	-11.2138
▁qurğusu	-11.2139
toriya	-11.214
▁bitkidir	-11.214
▁bakma	-11.2143
tdiyi	-11.2145
▁təqvim	-11.2147
▁Misirin	-11.2147
▁Xəz	-11.2147
▁indiyədək	-11.2149
▁Rafiq	-11.2149
▁vəziyyətinə	-11.215
▁istəmiş	-11.2151
▁Peter	-11.2154
▁dibi	-11.2154
▁CA	-11.2158
▁Prof	-11.2158
▁vəzifədən	-11.2159
▁yaşaması	-11.2159
▁Xaqan	-11.216
▁verər	-11.216
▁vermek	-11.216
▁Bayan	-11.2165
▁səmimi	-11.2165
▁namazı	-11.2167
▁Sevil	-11.2167
▁Cons	-11.2167
▁dəmiryolu	-11.2175
onal	-11.2176
▁şəkilli	-11.2177
▁Başka	-11.2177
▁hazırlamışdır	-11.2178
▁imzaladı	-11.2178
▁aviasiya	-11.2179
dığınız	-11.218
▁iqtidar	-11.218
▁təcəssüm	-11.218
▁daşnak	-11.2181
▁Dor	-11.2181
▁axı	-11.2182
▁Cal	-11.2186
▁sivri	-11.2186
mmer	-11.2186
▁hayatta	-11.219
▁bulun	-11.2192
▁odun	-11.2193
▁Məhərrəm	-11.2193
▁bacarıq	-11.2194
от	-11.2196
▁Microsoft	-11.2197
▁Paytaxt	-11.2197
▁Məmlük	-11.2198
▁qoyulması	-11.22
▁müvəffəq	-11.22
▁Monte	-11.2201
▁Komi	-11.2201
ру	-11.2201
▁1968	-11.2205
▁Pop	-11.221
▁Pres	-11.2211
▁artist	-11.2211
▁Meydan	-11.2213
▁Foto	-11.2213
▁Müqavilə	-11.2213
▁yarımsəhra	-11.2213
▁okyanus	-11.2213
▁obyektlərin	-11.2213
▁kənara	-11.2213
▁təyinatlı	-11.2213
▁partlayıcı	-11.2214
ərdi	-11.2214
▁zirehli	-11.2214
▁Stansiya	-11.2215
▁Abbasqulu	-11.2217
tac	-11.2218
▁qərbə	-11.2219
▁məclisi	-11.2222
▁səciyyəvidir	-11.2225
▁iqamətgahı	-11.2228
▁təminat	-11.2228
▁işləyirdi	-11.2229
▁filmlərində	-11.223
▁1964	-11.223
▁Xankəndi	-11.223
▁Д	-11.2231
▁istehsalında	-11.2231
oloqlar	-11.2232
▁işlənmişdir	-11.2233
sha	-11.2233
▁sezon	-11.2234
▁şüaları	-11.2234
▁adıdır	-11.2235
▁istehlak	-11.2237
▁oxumaq	-11.2239
▁tarixdən	-11.224
laşdırdı	-11.224
▁farsca	-11.2243
▁çoxillik	-11.2246
▁sıldırım	-11.2246
▁kobud	-11.2246
▁keçdikcə	-11.2246
▁İldırım	-11.2246
▁qazanmaq	-11.2247
▁Liqasında	-11.2247
▁sürekli	-11.2248
▁lokal	-11.2248
▁donuz	-11.2248
▁hissələrinin	-11.2249
ха	-11.2249
eğe	-11.225
▁itirir	-11.2252
ləməyə	-11.2255
iği	-11.2258
▁Nuri	-11.2259
▁bazıları	-11.2261
dilən	-11.2262
▁sabiq	-11.2263
▁nüfus	-11.2263
atura	-11.2263
▁krater	-11.2263
▁sikkə	-11.2264
▁yönəlmiş	-11.2264
▁keçmişdə	-11.2264
gun	-11.2265
▁şiddətli	-11.2266
▁Artur	-11.2266
▁qaçış	-11.2268
▁şansı	-11.2269
▁Nü	-11.2269
▁Zəngilan	-11.227
▁səhnələri	-11.2271
▁rəğbət	-11.2272
▁cənubdan	-11.2273
▁atış	-11.2276
▁Tim	-11.2277
▁Məktəbində	-11.2277
▁sulu	-11.2278
▁savaşı	-11.2278
vol	-11.2279
ق	-11.2279
▁Təxminən	-11.2279
▁təfsir	-11.2279
▁Yelena	-11.228
▁silahı	-11.228
▁şekli	-11.2281
▁Nil	-11.2281
▁herşey	-11.2281
▁Wo	-11.2282
▁saz	-11.2282
▁gah	-11.2283
▁tərs	-11.2286
▁bütünlüklə	-11.2287
▁xəttinin	-11.2287
▁doğulmuş	-11.2288
▁1-2	-11.2289
▁ölümünə	-11.2291
oslav	-11.2294
▁əh	-11.2296
▁Alyaska	-11.2296
▁Stre	-11.2297
▁miras	-11.2298
▁Şəxs	-11.2299
▁Potter	-11.2301
▁Vəzir	-11.2302
▁avar	-11.2303
▁Fərmanı	-11.2304
▁Fal	-11.2304
▁geologiya	-11.2304
▁qadını	-11.2305
▁tabi	-11.2305
ğü	-11.2305
▁alıcı	-11.2308
oloqu	-11.231
▁dənizinə	-11.2311
ğul	-11.2312
▁ərazisini	-11.2312
▁takım	-11.2313
▁kinoteatr	-11.2313
▁texnoloji	-11.2313
▁İntibah	-11.2313
▁etdirilmişdir	-11.2313
▁günümüzə	-11.2313
▁Ələkbərov	-11.2313
▁keş	-11.2314
▁Hərəkatı	-11.2315
▁Alan	-11.2317
▁ədəbiyyatşünas	-11.2318
▁Mütə	-11.2318
▁tanınma	-11.2319
▁keçirilirdi	-11.232
▁Fatma	-11.2323
nikov	-11.2326
▁akademiyası	-11.2328
həd	-11.2329
▁hüdud	-11.2329
▁Vulkan	-11.2329
▁Sparta	-11.233
▁yıldız	-11.233
▁yamac	-11.233
▁indeks	-11.233
əhrə	-11.2331
▁Kost	-11.2331
▁Yuri	-11.2332
▁payına	-11.2332
▁vaxta	-11.2332
ütü	-11.2332
▁fotoqraf	-11.2337
▁irs	-11.2338
▁Haram	-11.2341
▁yaratmışdı	-11.2342
▁başlanan	-11.2342
▁iynə	-11.2344
▁edilsə	-11.2344
▁maddələri	-11.2345
▁gərginlik	-11.2345
▁kürd	-11.2346
▁Fikrət	-11.2346
▁Küveyt	-11.2346
▁Cinayət	-11.2346
▁Qüds	-11.2346
▁sədrinin	-11.2347
▁polad	-11.2347
▁Xəbər	-11.2348
demokrat	-11.2348
▁Sadə	-11.2349
▁qurultayı	-11.2349
▁dövlətinə	-11.2352
▁istiqamətləri	-11.2352
▁daşıma	-11.2354
▁fantastik	-11.2354
▁şəkillər	-11.2355
▁konuda	-11.2356
ləşdirən	-11.2358
▁Gene	-11.2359
▁möv	-11.236
▁edirəm	-11.2361
ifikasiya	-11.2362
▁Ör	-11.2362
▁kesinlikle	-11.2363
▁zəfər	-11.2363
▁sökül	-11.2364
vul	-11.2364
▁Buxara	-11.2364
▁Görü	-11.2365
▁Anton	-11.2365
▁Les	-11.2365
▁sizə	-11.2367
▁Əsgərov	-11.2368
▁gedirdi	-11.2369
dəyişmə	-11.2369
▁Pekin	-11.237
▁pulsuz	-11.237
▁toponimi	-11.2378
▁məbləğ	-11.238
▁Lay	-11.238
▁Konqres	-11.238
▁qurtul	-11.2381
▁Stefan	-11.2382
▁üstünlüyü	-11.2382
formasiya	-11.2383
▁vəziri	-11.2385
▁adlandırmışdır	-11.2385
▁Cahan	-11.2387
▁sıralarında	-11.2392
▁qazanmışdı	-11.2396
▁inteqrasiya	-11.2396
▁istiqlal	-11.2397
▁görüyoruz	-11.2398
▁tamaşaya	-11.2399
▁ordusunu	-11.24
та	-11.2401
ulyar	-11.2402
▁seyr	-11.2406
▁Proqram	-11.2407
▁900	-11.2408
qaş	-11.241
▁tərbiyəsi	-11.2411
Te	-11.2412
▁binlerce	-11.2413
▁resmi	-11.2413
▁Nəsimi	-11.2414
▁gəmiləri	-11.2416
▁qurmuşdu	-11.2416
▁XXI	-11.2418
▁gündüz	-11.2419
▁Erkən	-11.242
▁layihələrin	-11.2425
qubernator	-11.2425
tük	-11.2425
▁Ümum	-11.2428
çer	-11.243
▁Bəhmən	-11.243
▁ısı	-11.2431
▁cənab	-11.2431
▁amansız	-11.2431
▁buradakı	-11.2432
▁sevgisi	-11.2435
▁kütlələri	-11.2436
▁mür	-11.2441
▁Şeir	-11.2443
▁yığmasının	-11.2444
▁götürülür	-11.2445
▁Körfəz	-11.2447
▁görülən	-11.2448
▁xalçaçılıq	-11.2449
▁azaldı	-11.2451
▁kür	-11.2454
▁uygula	-11.2455
tyabr	-11.2457
▁oruc	-11.2457
▁qaydalar	-11.2457
▁düyün	-11.2459
luğuna	-11.2461
▁kazak	-11.2464
▁talan	-11.2465
▁Rəşad	-11.2465
▁qoyulub	-11.2465
▁sevgilisi	-11.2468
ии	-11.2469
▁sinql	-11.2472
▁tayfalar	-11.2475
▁Kaz	-11.2477
pet	-11.2478
▁mütəmadi	-11.2481
▁qoruyur	-11.2481
gram	-11.2481
▁liberal	-11.2481
▁Türbə	-11.2481
▁bölgələri	-11.2482
ander	-11.2483
▁görünüyor	-11.2483
▁Əks	-11.2483
▁verdilər	-11.2483
Al	-11.2484
▁şirkətləri	-11.2484
ahı	-11.2485
qey	-11.2485
▁Mənsur	-11.2486
▁sayında	-11.249
rpaq	-11.2492
▁tök	-11.2496
▁tərəqqi	-11.2498
▁şiddet	-11.2498
▁canişin	-11.2499
xor	-11.2502
▁benze	-11.2503
ал	-11.2504
▁sahəyə	-11.2505
▁əhəmiyyətə	-11.2507
▁qidalanma	-11.2508
▁mərkəzlərindən	-11.2508
ctor	-11.251
▁döy	-11.2511
ləndirən	-11.2512
uta	-11.2513
▁minilliyin	-11.2515
▁hedef	-11.2515
obi	-11.2517
▁tikilən	-11.2517
▁Məhəmmədin	-11.2518
vizi	-11.2518
▁gəmilər	-11.2522
▁təmizləmə	-11.2523
▁177	-11.2524
▁mühitdə	-11.2526
▁vuruşma	-11.2532
▁buzlağı	-11.2533
şteyn	-11.2533
▁kafedrası	-11.2534
▁84	-11.2534
▁yaratıcı	-11.2535
ometr	-11.2537
▁Fransaya	-11.2539
əsr	-11.254
▁anbar	-11.2544
rand	-11.2545
▁gerektiğini	-11.2546
▁bakarsa	-11.2546
▁sənətkarlıq	-11.2548
▁təqdimatı	-11.2548
▁iltihab	-11.2549
▁Santa	-11.255
▁Sha	-11.2554
▁bəd	-11.2558
▁Cekson	-11.2558
▁bulma	-11.2559
▁prof	-11.256
▁Paleo	-11.256
öyrə	-11.2561
▁gerekli	-11.2562
▁müəllimlik	-11.2566
▁kompyuter	-11.2566
▁seriyasında	-11.2566
▁slavyan	-11.2566
▁Oqtay	-11.2566
▁məhbus	-11.2566
▁işlem	-11.2569
▁profil	-11.2573
▁sayını	-11.2577
▁benzin	-11.2577
pri	-11.2579
▁alıyor	-11.2582
▁İnsanların	-11.2582
▁dəyişdirilib	-11.2583
▁Dördüncü	-11.2583
▁həndəsi	-11.2583
▁Arxiv	-11.2583
▁çoxunu	-11.2584
ayət	-11.2585
adze	-11.2587
▁buraxıl	-11.2587
▁getməsi	-11.2589
▁genişlənməsi	-11.259
▁Hem	-11.2591
▁Təh	-11.2591
dol	-11.2594
əslən	-11.2594
▁tapmış	-11.2595
▁şərqə	-11.2597
▁qalırdı	-11.2599
▁Varşava	-11.26
▁infrastruktur	-11.26
▁etnonimi	-11.26
▁ənənəsi	-11.2601
▁start	-11.2602
▁karvan	-11.2603
▁Sad	-11.2604
olin	-11.2604
▁97	-11.2605
▁hamısını	-11.2605
▁Odur	-11.2606
▁salmaq	-11.2607
▁qaçmağ	-11.2607
emez	-11.2609
▁1969	-11.261
XVIII	-11.2613
▁xaricə	-11.2615
▁harada	-11.2616
▁güzəşt	-11.2618
▁ultra	-11.2618
▁tütün	-11.2618
▁1828-	-11.2619
▁sav	-11.2623
▁155	-11.2624
▁Por	-11.2625
ləşdirmişdir	-11.2625
▁əsaslanaraq	-11.2626
▁musiqili	-11.2627
▁ağıllı	-11.2627
▁kut	-11.2628
▁ofisi	-11.263
şti	-11.2631
▁nedenle	-11.2632
▁Ağstafa	-11.2635
▁1870-	-11.2635
▁danışıq	-11.2636
▁düzənliyi	-11.2638
▁yaralı	-11.2638
▁tamaşalar	-11.2638
▁razılığı	-11.264
▁Vəzirov	-11.264
▁müəyyənləşdiril	-11.2642
▁çatdıqda	-11.2642
part	-11.2644
▁Xatun	-11.2646
▁istiqamətli	-11.2646
▁Bahar	-11.2648
▁maska	-11.2648
▁üzünü	-11.2648
▁metre	-11.2649
▁Liza	-11.265
▁İslandiya	-11.2652
▁Ağdərə	-11.2655
ies	-11.2655
▁Şəkil	-11.2656
▁formalaşır	-11.2657
▁yaptığım	-11.2658
▁çəkib	-11.2662
fizika	-11.2662
▁yaralanmışdır	-11.2663
▁Kubokunun	-11.2663
▁pik	-11.2663
▁erkekler	-11.2664
▁qoşulma	-11.2666
▁makro	-11.2667
▁işlədilən	-11.267
▁gətiril	-11.2672
▁Tədqiqatçılar	-11.2676
ound	-11.2676
▁aparıb	-11.2677
▁Mehdiyev	-11.2677
▁səlahiyyətləri	-11.2679
▁Çəki	-11.2681
üst	-11.2683
▁Kərbəla	-11.2685
▁sənayesində	-11.2685
▁Times	-11.2686
▁öldürmüşlər	-11.2687
▁bilməmişdir	-11.2687
▁geriyə	-11.2688
▁Təbrizə	-11.2688
▁uğurlar	-11.269
▁Komissiyası	-11.269
▁Balet	-11.2692
▁həddindən	-11.2692
▁operası	-11.2693
59-	-11.2694
▁Ordusunun	-11.2695
pil	-11.2699
▁yemek	-11.2704
▁zəhmət	-11.2704
▁xiyaban	-11.2704
▁taxtın	-11.2704
▁Şükür	-11.2704
▁Qəza	-11.2705
▁xəbərdar	-11.2705
▁gətirilmiş	-11.2705
▁rütubət	-11.2706
önü	-11.2706
▁teleskop	-11.2707
terapiya	-11.2709
▁qatılma	-11.2711
▁mq	-11.2712
▁kolon	-11.2713
▁ham	-11.2716
▁qoşulur	-11.2716
▁icraçı	-11.2717
▁Л	-11.2717
▁Batı	-11.272
▁Kit	-11.272
texnika	-11.2725
▁Mos	-11.2726
tori	-11.2727
▁tapıb	-11.2728
▁Balakən	-11.2728
▁daşınması	-11.2728
▁məbədin	-11.2733
ıyorsunuz	-11.2735
inizi	-11.2738
▁mövzular	-11.2738
▁balansı	-11.2738
▁artilleriya	-11.2739
▁optimal	-11.2739
▁Kraliça	-11.2739
▁Rauf	-11.2739
▁məskəni	-11.2739
▁hazırlama	-11.2739
▁Hücum	-11.2739
yvə	-11.274
▁yüzey	-11.2744
▁medalını	-11.2744
▁lüğət	-11.2746
▁Azərb	-11.2748
▁oyunlarını	-11.2749
▁Aran	-11.2749
▁dəyərlər	-11.275
IN	-11.2752
▁Mikro	-11.2754
▁Pənah	-11.2754
▁Rəsulzadə	-11.2755
▁dolan	-11.276
▁çalışırlar	-11.276
▁zəhərli	-11.2761
▁1880-	-11.2762
▁gəldilər	-11.2764
▁rəqsi	-11.2764
▁şirkətlər	-11.2768
▁unikal	-11.2774
▁potensialı	-11.2776
▁ölkələrə	-11.2785
▁92	-11.2787
▁Kru	-11.2787
▁yaradılmasına	-11.2787
imov	-11.2789
▁politika	-11.279
2008	-11.2791
ح	-11.2791
▁İsrafil	-11.2791
▁Əşrəf	-11.2791
▁Şöhrət	-11.2791
▁yapabilir	-11.2791
▁hovuz	-11.2791
▁mərhum	-11.2792
▁tanıt	-11.2792
▁au	-11.2793
▁karbonat	-11.2794
▁isteme	-11.2795
уч	-11.2795
▁müəssisələrində	-11.2796
▁dəyişib	-11.2796
▁bilməzdi	-11.2796
▁idarəçiliyi	-11.2801
▁bölgəyə	-11.2804
▁haline	-11.2804
▁Günəşin	-11.2805
olunma	-11.2807
▁fundamental	-11.2808
liğe	-11.281
▁Xidmət	-11.2813
▁tarz	-11.2816
▁kadrlar	-11.2816
▁çocukları	-11.2817
▁kurum	-11.2819
▁vadisi	-11.2821
▁deki	-11.2822
▁sənətkarlar	-11.2822
▁səbəbləri	-11.2825
▁iqtisad	-11.2829
▁ağaç	-11.283
▁Maraqlı	-11.2832
DA	-11.2833
▁Avro	-11.2834
▁dış	-11.2834
▁uzman	-11.2836
▁ağacları	-11.2837
lob	-11.2837
▁sesi	-11.2839
▁175	-11.2839
▁sevən	-11.284
▁yararlan	-11.284
▁elmə	-11.2843
▁resursları	-11.2843
▁həşərat	-11.2844
▁kükürd	-11.2844
▁çatışma	-11.2844
▁Leonardo	-11.2844
▁boks	-11.2844
▁partizan	-11.2844
▁göndərilməsi	-11.2854
▁adla	-11.2855
300	-11.2858
▁zengin	-11.2861
▁1903-	-11.2861
▁Gerçekten	-11.2862
▁pazar	-11.2864
▁şor	-11.2866
▁işlənir	-11.2867
▁dava	-11.2868
▁cisimlər	-11.2868
▁şirketler	-11.2871
▁küp	-11.2872
▁səyyah	-11.2874
▁məmulatı	-11.2875
▁humanitar	-11.2879
▁rolunda	-11.2881
▁yollarının	-11.2882
▁biləcəyini	-11.2884
ник	-11.2884
oqraf	-11.289
▁möh	-11.2891
ğır	-11.2891
▁1967	-11.2894
▁adlandırıl	-11.2894
ُ	-11.2897
▁Malayziya	-11.2897
▁faşist	-11.2897
▁Məş	-11.2898
▁İcraiyyə	-11.2899
▁88	-11.29
▁həyatından	-11.29
▁dünyadaki	-11.2901
▁qaldırıl	-11.2902
▁kullanıyor	-11.2902
▁bərkidil	-11.2904
▁ölkəsinin	-11.2906
▁yaylası	-11.2909
▁atdı	-11.2909
▁1977	-11.291
▁gecəsi	-11.2911
▁DNA	-11.2914
▁minimum	-11.2914
▁1896-	-11.2914
▁unudul	-11.2915
▁keçirilmə	-11.2917
▁Saleh	-11.2917
▁gediş	-11.2918
▁Anadoluda	-11.2921
təb	-11.2925
▁Cümə	-11.2929
▁Çap	-11.2929
▁müharibələr	-11.293
acağız	-11.2933
▁ötrü	-11.2934
▁mübahisələr	-11.2934
▁1950	-11.2934
▁buranı	-11.2937
▁yayda	-11.2937
▁ürəyi	-11.2938
▁Dost	-11.2938
▁bucaq	-11.2939
▁İşıq	-11.294
ко	-11.294
prezidenti	-11.2944
▁1966	-11.2945
▁Qulam	-11.2946
▁çaylarının	-11.2948
ffe	-11.2949
▁Vilhelm	-11.295
▁öyrənmiş	-11.295
lamışdı	-11.2952
▁Balina	-11.2953
▁qorunma	-11.2953
pul	-11.296
▁iyulda	-11.2962
▁qarşılaşdı	-11.2965
▁Yevgeni	-11.2968
▁karvansara	-11.2968
▁işaret	-11.2968
▁külli	-11.2968
▁qayıtdıqdan	-11.2969
▁kvars	-11.2969
▁düşük	-11.297
▁tənliklər	-11.2971
▁radi	-11.2973
▁axtarışı	-11.2978
▁ürəyin	-11.2979
▁olduqlarını	-11.2981
▁pulu	-11.2981
▁izləri	-11.2983
▁MDB	-11.2985
▁Texas	-11.2985
tomi	-11.2986
▁yağlı	-11.2987
▁Geniş	-11.2988
▁relyefi	-11.2989
▁Konstitusiyası	-11.299
layacağı	-11.2994
▁Vaxt	-11.2994
▁etibar	-11.2995
▁Fir	-11.2995
nize	-11.2998
▁Maks	-11.3
▁nəslinin	-11.3003
▁Daşkəsən	-11.3003
▁Görkəmli	-11.3003
▁gidip	-11.3005
▁ucqar	-11.3005
▁mükafatlar	-11.3005
▁Teşekkür	-11.3007
▁vəzifəyə	-11.3009
ense	-11.3009
▁çata	-11.301
kart	-11.301
▁res	-11.3013
▁Firuz	-11.3013
mark	-11.3013
diniz	-11.3014
▁getmişdir	-11.3014
▁yayıldığı	-11.3014
▁Mərakeş	-11.3021
▁bazilika	-11.3021
▁ferment	-11.3021
▁kalk	-11.3022
▁generalı	-11.3026
▁sərəncam	-11.3027
▁tapdı	-11.3027
▁qiymətləndirmə	-11.3028
▁hücreleri	-11.3029
▁giy	-11.3029
▁Qida	-11.3029
▁İsrailin	-11.303
▁Serb	-11.3031
▁plana	-11.3031
▁regionunda	-11.3032
tina	-11.3033
▁Hayır	-11.3034
▁işləyə	-11.3035
▁uçan	-11.3039
▁86	-11.304
▁dəyişmişdir	-11.3042
▁seçimi	-11.3043
▁Mühəndis	-11.3045
▁bilirsiniz	-11.3046
qiq	-11.3047
lop	-11.305
▁yaptım	-11.305
▁Bayat	-11.3051
lməz	-11.3052
Qacar	-11.3053
▁adaya	-11.3054
▁ağırlığı	-11.3054
▁qanın	-11.3056
▁kəndistanında	-11.3057
▁bilərsiniz	-11.3058
▁edilməlidir	-11.3061
▁muha	-11.3061
▁bey	-11.3061
▁tarixçilər	-11.3062
▁oxşa	-11.3066
▁uğraş	-11.3066
33-	-11.3066
▁şübhəli	-11.3066
▁Şahmat	-11.3067
▁korpus	-11.3069
▁əlaqədə	-11.3069
opo	-11.3069
amerika	-11.3069
▁şeytan	-11.307
▁Rü	-11.3072
▁hövzəsində	-11.3073
▁bəlkə	-11.3075
▁haşiyə	-11.3075
▁meteor	-11.3075
▁bildirmişdi	-11.3075
▁1890-	-11.3075
▁növündə	-11.3077
oğulları	-11.3078
▁terrorçu	-11.3078
▁şeye	-11.3078
▁şarkı	-11.3079
▁ediləcək	-11.308
▁funt	-11.3082
▁aralıq	-11.3084
▁Pyer	-11.3086
▁Boko	-11.3088
▁məlumatların	-11.309
▁görürdü	-11.3092
▁Aero	-11.3093
▁Slavyan	-11.3093
▁mükemmel	-11.3093
▁Ziyad	-11.3093
▁imzalamışdır	-11.3094
▁çıxarılan	-11.3094
▁köçürülmüşdür	-11.3094
dok	-11.3095
▁evet	-11.31
▁çevrilmişdi	-11.31
▁astronomiya	-11.3101
▁panel	-11.3103
▁tanınması	-11.3105
▁yel	-11.3106
▁səviyyəsinin	-11.3106
▁Anar	-11.3107
meliyiz	-11.3109
▁güzgü	-11.3111
▁Müslüm	-11.3111
▁siyasətinin	-11.3112
▁görüyor	-11.3113
▁möhür	-11.3113
iyyatı	-11.3113
▁Beh	-11.3114
▁sistemlərinin	-11.312
muşdu	-11.312
▁Kəs	-11.312
▁filosofu	-11.3123
teki	-11.3127
▁Tacikistan	-11.3129
▁Ət	-11.313
▁dəyişdirilmiş	-11.313
▁örtüyünü	-11.3131
▁yazılması	-11.3132
▁fikrinə	-11.3132
layabilir	-11.3133
omi	-11.3133
▁heyran	-11.3133
▁Malta	-11.3134
▁Qaraman	-11.3139
▁formasına	-11.3139
▁174	-11.314
▁dedikdə	-11.314
▁81	-11.3141
▁oyunçusu	-11.3143
▁qaydası	-11.3145
▁karyerasını	-11.3146
▁şifahi	-11.3147
▁Ərzurum	-11.3147
▁istəsə	-11.3147
▁ölçmə	-11.3149
▁verdiği	-11.3149
xət	-11.3149
▁kvant	-11.315
▁çiçəkləyir	-11.315
▁hazırlayan	-11.3151
▁kompozisiyası	-11.3152
▁qurbanı	-11.3154
▁Məsud	-11.3154
▁qurmuşdur	-11.3155
▁Çağ	-11.3156
▁orqanizmlər	-11.3162
▁qram	-11.3162
▁söy	-11.3162
▁Filip	-11.3162
▁Hüseynzadə	-11.3164
▁Ədəbi	-11.3166
▁sah	-11.3167
▁ödənil	-11.3168
▁qayıtmış	-11.3168
▁spor	-11.3169
▁uğramış	-11.3171
ləriylə	-11.3173
▁oxudu	-11.3173
▁Proqramı	-11.3173
▁Hadi	-11.3174
▁təsadüfi	-11.3176
▁minlik	-11.3176
▁ayaqları	-11.3178
Şərqi	-11.3178
▁Kut	-11.3179
▁duzlu	-11.318
▁yamaclarında	-11.3181
▁tehlike	-11.3184
▁eroziya	-11.3184
▁idxal	-11.3184
XVII	-11.3184
▁Bədii	-11.3184
▁Kaş	-11.3188
▁gətirilən	-11.319
▁Hakimiyyətinin	-11.3191
pər	-11.3194
▁vulkanik	-11.3195
▁destek	-11.3195
ülür	-11.3195
▁miqyaslı	-11.3196
▁Tədqiqatlar	-11.3197
ри	-11.3197
▁komponentlərin	-11.3198
▁tikintisinə	-11.3201
▁1961	-11.3201
▁aspirant	-11.3201
▁bələd	-11.3201
▁premyerası	-11.3202
▁müstəsna	-11.3202
▁köçürülməsi	-11.3202
▁satirik	-11.3202
▁Atropatena	-11.3202
▁qüdrət	-11.3202
▁düzəldilmiş	-11.3203
▁kapella	-11.3203
▁quruldu	-11.3205
kub	-11.3206
▁nano	-11.3206
▁hekayələri	-11.3206
▁Duma	-11.3208
▁tabii	-11.321
▁Sand	-11.3213
▁səbəbilə	-11.3217
cıqları	-11.3217
▁söylediği	-11.3218
▁ədəbiyyatda	-11.3219
▁predmet	-11.322
▁düzbucaqlı	-11.3221
▁heyrət	-11.3221
▁yıxıl	-11.3222
▁Cəmiyyət	-11.3222
▁olmadığından	-11.3223
▁neyro	-11.3224
▁fakultəsini	-11.3225
▁səthinə	-11.3226
▁buraxılış	-11.3227
▁dünyagörüşü	-11.3227
mesini	-11.3227
▁mühiti	-11.3229
▁Che	-11.3229
▁amacı	-11.323
▁getməyə	-11.3231
▁ediyorum	-11.3231
▁1200	-11.3233
▁qorunur	-11.3238
▁ötürülməsi	-11.3238
▁salonu	-11.3239
▁edici	-11.3239
▁Tibet	-11.324
▁Maya	-11.3247
▁bölmələri	-11.3247
▁ağanın	-11.3247
▁qalanı	-11.325
öy	-11.3253
-11	-11.3253
bax	-11.3253
▁xaraba	-11.3256
▁təhqir	-11.3257
▁Seçki	-11.3257
▁maşınqayırma	-11.3257
▁sorumlu	-11.3258
▁məsafəyə	-11.3258
▁yarad	-11.3259
▁vəziyyətində	-11.3261
▁hazırlanıb	-11.3263
▁avtomatik	-11.3264
▁parçalanma	-11.3264
yonun	-11.3266
lərdəndir	-11.3267
stat	-11.3268
▁vol	-11.3271
▁yerleştir	-11.3271
▁yüksəldi	-11.3272
▁Yük	-11.3273
▁fra	-11.3273
▁Sadıqov	-11.3274
▁mütəfəkkir	-11.3275
▁təəccüb	-11.3275
▁qırışıq	-11.3276
▁bölüşdür	-11.3276
▁Hans	-11.3277
▁Tarixçi	-11.3279
ajı	-11.328
▁Messi	-11.3282
▁sətir	-11.3282
▁gözləmə	-11.3284
▁ətrafına	-11.3285
▁səthinin	-11.3287
▁misra	-11.3287
▁dahil	-11.3288
▁tro	-11.3289
▁tələbələrə	-11.329
▁fikrin	-11.3291
▁xəstələr	-11.3293
▁titul	-11.3293
▁assistent	-11.3293
▁1901-	-11.3294
▁medalla	-11.3297
▁dayaz	-11.3299
kilsə	-11.3307
▁edecek	-11.3308
fek	-11.331
▁vermədi	-11.3311
▁rəssamın	-11.3312
á	-11.3312
şəhər	-11.3316
▁Qırx	-11.3321
▁planlaşdırıl	-11.3323
▁səf	-11.3324
tuğ	-11.3326
▁mühacir	-11.3327
▁üzvlərindən	-11.333
▁sayesinde	-11.333
▁analitik	-11.333
▁ucaldılmış	-11.3332
memiz	-11.3333
▁multi	-11.3333
ew	-11.3333
▁danışılır	-11.3334
▁kabel	-11.3335
▁maili	-11.3339
▁hükümet	-11.334
▁Bad	-11.3343
▁yaddaşı	-11.3343
▁qanadları	-11.3344
▁Novo	-11.3345
▁motivləri	-11.3345
▁Gövdə	-11.3349
▁83	-11.335
▁anlatma	-11.3352
▁Arran	-11.3352
▁himni	-11.3354
▁tamaşaları	-11.3356
▁mexanika	-11.3357
▁təcavüz	-11.336
▁aralı	-11.3362
Tİ	-11.3363
həsən	-11.3365
▁açan	-11.3366
▁Tədris	-11.3367
▁sevin	-11.3368
▁nahiyəsi	-11.3368
▁kartof	-11.3368
▁əsaslandır	-11.3369
▁faydalan	-11.337
▁87	-11.3373
▁müəlliflər	-11.3373
▁effekti	-11.3375
89-	-11.3376
▁Mükafat	-11.3378
▁vurma	-11.3382
▁Oliver	-11.3384
▁Çal	-11.3384
▁qəlbi	-11.3385
▁yırtıcı	-11.3386
▁dialoq	-11.3386
▁dövrümüzə	-11.3386
▁prospekti	-11.3386
ми	-11.3386
▁kontinental	-11.3387
▁vətəndaşları	-11.339
▁uğradı	-11.3393
bağı	-11.3393
▁Kub	-11.3393
▁Kişilər	-11.3394
▁surəti	-11.3395
▁kimyaçı	-11.3397
▁söyleme	-11.3398
▁girov	-11.3401
▁Pəri	-11.3401
▁Kanal	-11.3403
▁mülk	-11.3403
▁Ərazidə	-11.3404
‘	-11.3404
▁ABD	-11.3404
▁öyrəndi	-11.3405
▁əlamətlər	-11.3405
▁öyrət	-11.3407
▁bahsed	-11.3408
▁törəmələri	-11.3409
▁növlərindən	-11.3409
▁publisistik	-11.3409
▁bəşəriyyət	-11.341
▁Hill	-11.3411
▁Qam	-11.3413
▁Gəray	-11.3415
▁seçkilərdə	-11.342
▁tamamlanmış	-11.3422
▁Fövqəladə	-11.3423
▁tüfəng	-11.3423
▁intellektual	-11.3423
▁başladık	-11.3424
▁bitən	-11.3425
▁torpaqlarını	-11.3426
▁300-	-11.3432
▁mövzuda	-11.3432
eceğini	-11.3432
▁qamış	-11.3433
IS	-11.3436
▁hadisələrdən	-11.3436
▁tıp	-11.3437
▁çalışdığı	-11.3437
mayacak	-11.3438
▁yaradılmışdı	-11.3438
▁çiçəkləri	-11.344
AC	-11.344
▁varis	-11.344
▁Millət	-11.3441
▁təşviq	-11.3442
▁altıncı	-11.3442
▁qəfəs	-11.3443
▁Nüvə	-11.3443
▁oksidləşmə	-11.3443
▁turistlər	-11.3444
▁qişa	-11.3444
liğini	-11.3444
▁dəstəkləyir	-11.3445
▁uzad	-11.3445
▁günahlandır	-11.3446
▁Sədri	-11.3446
▁fonunda	-11.3447
▁rayonuna	-11.3449
ərəf	-11.3449
▁məmulatları	-11.3449
▁müqaviməti	-11.3452
▁Çiçəkləri	-11.3453
tinq	-11.3456
ydım	-11.3456
▁baxan	-11.3457
▁Avtomobil	-11.346
▁Səttar	-11.346
▁git	-11.3461
▁Anne	-11.3462
▁Stepan	-11.3462
▁işğalından	-11.3463
▁gəmilərin	-11.3463
▁Kil	-11.3466
▁CD	-11.3466
▁hakimiyyətinə	-11.3468
▁verdim	-11.3473
əcəyini	-11.3473
▁artmışdır	-11.3473
▁simfonik	-11.3479
▁Adalar	-11.3479
▁dayandırdı	-11.3479
▁söylədi	-11.3481
▁çətindir	-11.3481
▁Cəbhəsi	-11.3484
▁qoruma	-11.3484
▁temiz	-11.3484
▁hərtərəfli	-11.3485
▁kökündən	-11.3486
▁ikiqat	-11.3487
▁məhzul	-11.3491
▁sent	-11.3493
▁qəbirlər	-11.3497
▁qruplaşma	-11.3497
▁1959	-11.3497
▁tələffüz	-11.3498
▁düstur	-11.3498
▁1954	-11.3499
▁incəsənətin	-11.3499
▁yayımlanmışdır	-11.35
▁gecik	-11.3506
▁Dövr	-11.3507
▁Minsk	-11.3509
▁təchizatı	-11.3509
makta	-11.351
▁gene	-11.3511
▁obyektləri	-11.3513
əstə	-11.3513
▁Masa	-11.3513
layırdı	-11.3516
▁Fridrix	-11.3517
▁Xilafət	-11.3517
seksual	-11.3518
▁hadisənin	-11.3519
▁Kitabın	-11.352
▁Braun	-11.3521
▁peyğəmbərin	-11.3521
▁Krallıq	-11.3523
▁tüket	-11.3524
CO	-11.3528
▁bölməsinin	-11.3529
▁Təpə	-11.3531
▁Dərviş	-11.3535
▁Xiyaban	-11.3536
▁İdarəetmə	-11.3536
▁Gənclik	-11.354
▁sularının	-11.3541
▁Kök	-11.3542
▁muzeyində	-11.3551
▁çevrilmə	-11.3552
▁kəndlərdə	-11.3553
▁Sabirabad	-11.3556
▁saplaq	-11.3556
▁Tac	-11.3556
▁oğlanları	-11.3557
▁haqqındakı	-11.3561
burun	-11.3563
▁şərqşünas	-11.3564
▁həmsərhəddir	-11.3564
qızı	-11.3564
▁Eh	-11.3567
▁veren	-11.3567
ки	-11.3568
▁salnamə	-11.3569
▁göstərilməsi	-11.357
▁uydu	-11.3572
▁Bəhreyn	-11.3573
▁diaspor	-11.3573
▁çəkilişləri	-11.3573
▁işdən	-11.3575
▁zəka	-11.3575
▁gittiği	-11.3575
ек	-11.3578
▁Səfərov	-11.3578
▁koş	-11.358
▁qısaca	-11.3582
▁süreci	-11.3584
▁nüsxəsi	-11.3584
▁yamaclarda	-11.3584
▁sözünü	-11.3585
▁mifologiya	-11.3585
▁Hip	-11.3586
▁günlərində	-11.3589
▁tamaşaçılar	-11.3591
laşaraq	-11.3592
▁Uol	-11.3592
cəyini	-11.3593
▁olmamış	-11.3594
▁yaradıcılığına	-11.3597
▁xəzinəsi	-11.3599
▁əmiri	-11.3599
dəniz	-11.36
▁sevinc	-11.36
▁örtülmüş	-11.3602
▁kəsə	-11.3604
▁birləşdirilməsi	-11.3606
▁yardımçı	-11.3607
▁yoluna	-11.3607
fet	-11.3607
▁Hat	-11.3608
▁taraf	-11.3609
▁olunduqda	-11.361
▁osmanlı	-11.3611
▁dirijor	-11.3611
▁oynay	-11.3612
▁Nizaminin	-11.3612
▁qanunauyğunluq	-11.3612
▁oxucular	-11.3614
▁çadır	-11.3615
▁aşkarlanmışdır	-11.3615
fiq	-11.3616
▁göndərmişdi	-11.3616
▁Eks	-11.3617
▁cəbhəsi	-11.3619
▁çənə	-11.3621
▁Polad	-11.3622
▁dinlə	-11.3624
▁AM	-11.3624
▁utan	-11.3629
▁Kompüter	-11.363
▁Şöbə	-11.363
▁holland	-11.363
▁quşu	-11.3631
▁məktubu	-11.3631
▁qüvvət	-11.3632
▁1965	-11.3632
▁yaptıkları	-11.3633
▁qaytarıl	-11.3635
▁tarafı	-11.3637
▁Vergi	-11.3639
▁bölünməsi	-11.3641
▁Mac	-11.3648
phi	-11.3649
▁endemik	-11.3649
▁qayıdıb	-11.3649
▁Müzik	-11.3649
▁başlıyor	-11.3649
▁qəzəl	-11.365
▁1962	-11.365
▁planlaşdır	-11.3652
▁sahne	-11.3654
▁Kaspi	-11.3654
2014	-11.3655
▁itki	-11.3657
▁ağlı	-11.3657
▁Vis	-11.3658
▁formal	-11.366
▁macar	-11.3662
▁و	-11.3663
▁qüvvəyə	-11.3665
▁çıkma	-11.3665
qışlaq	-11.3666
ətrafı	-11.3667
▁sertifikat	-11.3668
▁demokratiya	-11.3669
▁zarar	-11.367
▁torpaqlarının	-11.3671
▁saniye	-11.3671
▁faciəsi	-11.3672
▁Düş	-11.3672
▁Post	-11.3675
▁yamacları	-11.3677
ovsk	-11.3681
▁aldım	-11.3682
▁maddənin	-11.3682
ок	-11.3683
▁seçkilər	-11.3684
▁xörək	-11.3687
▁Çikaqo	-11.3687
▁Liseyi	-11.369
▁arxipelaqın	-11.3691
▁Ərəbistan	-11.3693
▁bağladı	-11.3693
▁devril	-11.3695
▁səhm	-11.3695
▁öyrənmişdir	-11.3696
▁Əvvəlki	-11.3696
gən	-11.3697
▁gedişində	-11.3698
▁seçkiləri	-11.3698
lastik	-11.37
▁Baharlı	-11.37
▁obyektlər	-11.37
▁rayonlarda	-11.3701
çusu	-11.3701
moto	-11.3702
▁geleceği	-11.3704
▁duvar	-11.3705
▁gimnast	-11.3706
qrafiya	-11.3706
▁Mətbuat	-11.3707
▁ensiklopediya	-11.3707
▁Koreyada	-11.3707
▁ocaqları	-11.3707
▁oğlunu	-11.3707
▁1957	-11.3708
Bir	-11.371
sulu	-11.3712
▁dillərdə	-11.3712
▁mükafata	-11.3712
▁yaxınlaşdı	-11.3712
axıl	-11.3713
▁Faiq	-11.3713
▁94	-11.3714
▁oxumağa	-11.3715
▁mak	-11.3715
▁çağı	-11.3715
▁otaqlar	-11.3717
▁axım	-11.3718
▁uçur	-11.372
▁buraxılışı	-11.3721
▁dövrünü	-11.3722
leytenant	-11.3724
Г	-11.3724
▁toplama	-11.3725
▁Siciliya	-11.3726
▁Roz	-11.3726
▁yoxlama	-11.3728
▁Erik	-11.3733
▁çıkan	-11.3734
▁Aslanov	-11.3735
▁Muradov	-11.3736
ля	-11.3737
▁parçalanmış	-11.3739
əngi	-11.374
▁kontr	-11.3742
▁yetişdi	-11.3742
▁qanı	-11.3742
▁vətənə	-11.3742
▁çoxluq	-11.3743
▁tərcümədə	-11.3744
▁Toğrul	-11.3745
▁Daniel	-11.3745
▁açmışdır	-11.3746
ان	-11.3747
▁öküz	-11.3747
▁toplanan	-11.3748
▁Samir	-11.3749
▁kompleksinin	-11.3749
▁Yolu	-11.375
aşırı	-11.375
▁Çempionatının	-11.3751
▁padşahı	-11.3752
▁məsləhətçi	-11.3752
▁kum	-11.3753
▁tanıdı	-11.3755
ləşdirilən	-11.3757
▁atla	-11.3757
▁Chi	-11.3758
▁tətil	-11.3758
▁müzakirələr	-11.3759
▁Səhər	-11.376
abilmek	-11.3762
▁coğrafiyası	-11.3763
▁Aktrisa	-11.3764
▁Alfred	-11.3764
▁mevcut	-11.3764
▁mühendis	-11.3764
▁Rabitə	-11.3764
▁botanik	-11.3764
▁qövs	-11.3765
▁oldukları	-11.3766
▁Quruluşca	-11.3767
▁pulcuq	-11.3767
▁duyma	-11.3769
▁Air	-11.377
▁nəzəriyyəsinin	-11.3773
▁öğrenciler	-11.3774
▁Parisə	-11.3775
▁demişdi	-11.3776
rəng	-11.3776
[...]
