<unk>	0
<s>	0
</s>	0
<pad>	0
▁.	-2.99359
▁,	-3.20163
▁bir	-3.82808
;	-3.8804
▁&	-3.89254
t	-4.11549
▁ve	-4.15234
quo	-4.45534
▁bu	-4.57447
apos	-4.73702
n	-4.74657
▁	-5.01013
a	-5.1154
▁Bu	-5.16202
▁için	-5.19124
▁da	-5.21165
e	-5.24437
▁Ve	-5.45255
▁de	-5.45864
▁çok	-5.46125
lar	-5.4681
m	-5.48223
▁?	-5.48524
k	-5.48907
▁daha	-5.55788
▁ki	-5.76763
▁)	-5.7997
(	-5.80059
i	-5.81962
ler	-5.83371
▁var	-5.84266
▁:	-5.85945
▁gibi	-5.91454
▁olarak	-5.94863
▁şey	-5.99932
▁—	-6.06291
▁...	-6.06976
▁ne	-6.08893
▁olan	-6.09601
▁kadar	-6.17734
▁o	-6.17789
▁en	-6.24375
den	-6.27716
▁her	-6.2858
ya	-6.31278
▁ya	-6.3244
da	-6.33246
ları	-6.33359
nın	-6.33561
la	-6.33769
de	-6.36403
▁değil	-6.37104
▁ile	-6.37167
nin	-6.37327
leri	-6.39127
le	-6.40863
dan	-6.41997
▁olduğunu	-6.48144
▁ama	-6.50123
▁iyi	-6.51423
▁zaman	-6.52006
▁sonra	-6.52306
▁bunu	-6.53938
ye	-6.53943
▁Bir	-6.54248
▁Ama	-6.55012
▁büyük	-6.55769
in	-6.56442
na	-6.57033
▁nasıl	-6.58107
▁sadece	-6.64747
er	-6.65525
z	-6.6729
ki	-6.67486
li	-6.69919
-	-6.71819
▁çünkü	-6.72144
▁şekilde	-6.76189
si	-6.7649
dir	-6.77708
▁şu	-6.78802
▁önce	-6.79214
ü	-6.79678
ı	-6.79961
.	-6.8042
yi	-6.80616
ce	-6.82319
▁fazla	-6.82705
p	-6.84203
▁iki	-6.84376
▁yıl	-6.86227
▁yeni	-6.88916
▁O	-6.89857
▁aynı	-6.92323
▁gerçekten	-6.9254
r	-6.93723
ne	-6.93762
▁Yani	-6.96946
▁Şimdi	-7.00254
▁olduğu	-7.01601
▁;	-7.01655
▁benim	-7.01669
dır	-7.03555
▁hakkında	-7.04465
en	-7.05564
s	-7.05682
▁ben	-7.05922
di	-7.06037
yı	-7.06179
lı	-7.06529
▁insan	-7.06954
▁ilk	-7.07351
▁tüm	-7.07709
▁Ben	-7.07884
l	-7.08179
ların	-7.09152
larını	-7.0961
▁farklı	-7.10295
▁insanlar	-7.11347
lerin	-7.12605
▁içinde	-7.14011
▁kendi	-7.15677
▁mi	-7.16365
▁bunun	-7.1649
▁ilgili	-7.16667
▁diğer	-7.16911
▁aslında	-7.17087
uz	-7.18045
▁sahip	-7.18125
▁yok	-7.18676
▁küçük	-7.189
sı	-7.1976
▁Gülüşmeler	-7.1984
▁başka	-7.20474
▁veya	-7.20782
▁doğru	-7.22743
y	-7.22928
▁burada	-7.23417
▁♫	-7.2409
▁bile	-7.25343
▁biz	-7.25676
ni	-7.26259
lerini	-7.26311
▁ise	-7.2652
ca	-7.27151
ın	-7.2763
▁in	-7.2787
u	-7.29294
▁önemli	-7.29765
▁eğer	-7.29848
▁bana	-7.31118
▁bizim	-7.32122
▁biri	-7.32271
yla	-7.32352
lik	-7.32703
▁Faka	-7.32929
▁şeyler	-7.33149
lara	-7.34747
▁bütün	-7.35132
▁gün	-7.36458
▁size	-7.36832
ma	-7.37995
▁Eğ	-7.38283
▁tek	-7.38585
▁biraz	-7.39823
yle	-7.40079
▁insanların	-7.40571
▁son	-7.41953
▁oldu	-7.4205
▁-	-7.42175
ken	-7.42829
lere	-7.43992
▁hiç	-7.45168
▁geri	-7.4556
▁Bunu	-7.47314
▁az	-7.47714
▁iş	-7.50051
▁diye	-7.51247
▁yüzden	-7.52125
▁neden	-7.52445
▁zamanda	-7.52632
um	-7.52833
▁vardı	-7.53685
▁Çünk	-7.53686
▁onu	-7.54978
▁böyle	-7.54997
▁yer	-7.55754
sa	-7.55794
dı	-7.56047
▁tam	-7.56978
iz	-7.57178
▁Kahkaha	-7.57607
▁üzerinde	-7.57979
▁bazı	-7.58577
▁tarafından	-7.58602
▁an	-7.59464
▁göre	-7.59551
▁karşı	-7.5981
siniz	-7.61929
▁üç	-7.622
an	-7.62354
▁gerçek	-7.62702
▁şimdi	-7.63045
▁a	-7.63547
▁yapmak	-7.63993
▁İşte	-7.64345
▁istiyorum	-7.64652
▁nın	-7.64874
ş	-7.65013
ti	-7.65421
ndan	-7.65634
▁olmak	-7.6615
▁mı	-7.66155
▁su	-7.67298
▁Çok	-7.67351
▁ortaya	-7.69368
▁S	-7.70577
tan	-7.70858
▁dünya	-7.71083
▁şeyi	-7.71095
▁olacak	-7.72036
▁Bunun	-7.7224
▁bize	-7.72521
▁və	-7.72891
▁oldukça	-7.7302
niz	-7.73341
▁fakat	-7.7361
me	-7.7406
miz	-7.74187
▁Peki	-7.74354
ə	-7.74681
▁onları	-7.75113
▁Burada	-7.75986
▁10	-7.76058
▁Her	-7.76399
▁oluyor	-7.76532
▁yani	-7.7687
▁beni	-7.76911
▁Dünya	-7.76956
▁birkaç	-7.77673
▁e	-7.77838
▁güzel	-7.77842
sine	-7.78025
▁kişi	-7.78035
▁ın	-7.78379
▁onun	-7.78986
▁soru	-7.79068
▁uzun	-7.79282
▁bunlar	-7.79392
▁anda	-7.79495
▁Aslında	-7.79517
▁Alkış	-7.80129
▁boyunca	-7.8017
nda	-7.80235
lardan	-7.80332
▁hareket	-7.80361
▁tekrar	-7.80488
d	-7.80517
larına	-7.80725
▁bilgi	-7.80881
nız	-7.81499
im	-7.81848
lık	-7.81857
▁etmek	-7.8198
▁i	-7.82475
▁devam	-7.82634
▁Alkışlar	-7.83126
mi	-7.83424
du	-7.83914
ydi	-7.84076
▁A	-7.8447
▁olabilir	-7.85002
daki	-7.85091
▁zor	-7.85564
▁kötü	-7.8557
▁Anca	-7.8572
▁fark	-7.86198
lerden	-7.86315
▁olması	-7.86789
▁milyon	-7.87003
tir	-7.87266
ten	-7.87413
▁yüzde	-7.87647
lerine	-7.88096
▁birçok	-7.885
▁!	-7.89067
▁Biz	-7.89347
▁Siz	-7.89693
mız	-7.9047
▁Daha	-7.90649
sel	-7.90762
sanız	-7.90791
▁Ne	-7.91013
o	-7.91248
▁yol	-7.93445
▁arasında	-7.93499
▁Evet	-7.93667
▁orada	-7.93881
▁açık	-7.94078
q	-7.9428
tır	-7.94439
arak	-7.94742
lu	-7.94851
▁dedi	-7.95108
larının	-7.95296
nı	-7.95449
▁geliyor	-7.95453
▁belki	-7.95973
▁karar	-7.96028
▁onlar	-7.96138
ini	-7.96164
▁tamamen	-7.97147
▁birlikte	-7.97498
lerle	-7.97511
tı	-7.97692
se	-7.98477
sini	-7.98557
▁yüksek	-7.99066
b	-7.99287
ydı	-7.99343
mış	-7.9938
▁olur	-7.99765
▁tür	-7.99808
▁hayal	-8.00094
▁para	-8.00103
▁buna	-8.00389
▁dünyanın	-8.00776
▁yerine	-8.01138
larla	-8.01265
un	-8.01301
▁gereken	-8.01679
▁basit	-8.02463
▁öyle	-8.02876
▁Afrika	-8.0294
dur	-8.03043
▁20	-8.03116
▁Bunlar	-8.04006
▁harika	-8.04301
▁işte	-8.04483
▁gelen	-8.04757
▁pek	-8.05637
▁yardım	-8.05681
▁bugün	-8.05697
▁şöyle	-8.05716
▁artık	-8.05983
▁üzerine	-8.06034
▁daki	-8.06188
larda	-8.07235
▁nin	-8.08171
▁yakın	-8.08498
▁Amerika	-8.08561
lerde	-8.08741
f	-8.08799
▁hiçbir	-8.09049
sını	-8.09233
▁eden	-8.0971
▁enerji	-8.09934
▁onların	-8.10166
deki	-8.10347
▁Böylece	-8.11491
lardı	-8.11508
dim	-8.12486
▁ederim	-8.13295
▁çocuk	-8.13726
▁vardır	-8.14512
lerinin	-8.14905
sına	-8.15084
erek	-8.15093
▁fikir	-8.15933
▁hızlı	-8.16013
▁geldi	-8.16574
ip	-8.17457
▁bizi	-8.1795
larında	-8.18173
▁Sonra	-8.1828
▁kaç	-8.18489
▁sizin	-8.18506
▁ediyor	-8.18686
▁sonunda	-8.18702
▁ancak	-8.1878
ım	-8.18869
▁Sade	-8.18917
▁konusunda	-8.18928
▁çoğu	-8.19375
▁Tamam	-8.19481
▁ta	-8.19486
▁işe	-8.1959
▁alan	-8.19652
▁sosyal	-8.19671
▁yeniden	-8.20719
▁ona	-8.20784
▁onlara	-8.21009
ci	-8.21226
▁yaklaşık	-8.2127
miş	-8.21381
▁teknoloji	-8.22236
▁tane	-8.22374
▁nokta	-8.225
▁olmayan	-8.22604
▁Onlar	-8.22754
yu	-8.22968
▁yerde	-8.23204
▁Şu	-8.23413
▁hale	-8.23758
%	-8.23835
▁bilim	-8.24163
▁süre	-8.24591
▁kadın	-8.24819
h	-8.24954
g	-8.25035
▁elde	-8.25046
▁sene	-8.25076
▁E	-8.25098
▁ay	-8.25312
▁hem	-8.26654
▁dört	-8.26911
▁herhangi	-8.26945
▁ilginç	-8.27141
▁temel	-8.2728
▁altında	-8.27583
▁hemen	-8.27613
▁Benim	-8.27727
▁çalışma	-8.27809
▁zorunda	-8.28054
▁insanları	-8.28302
▁yaşam	-8.28426
▁eski	-8.28504
▁durum	-8.28824
ik	-8.28851
▁kat	-8.28918
▁Ya	-8.28962
▁konu	-8.2897
▁dan	-8.28992
▁özel	-8.29077
▁şeyleri	-8.29392
▁bilgisayar	-8.29498
▁hikaye	-8.29941
▁siz	-8.29984
ını	-8.30149
sınız	-8.3016
▁sorun	-8.30171
▁böylece	-8.30287
▁hala	-8.30596
▁inanılmaz	-8.30905
▁3	-8.31021
▁göz	-8.31048
▁’	-8.31249
lerinden	-8.31335
▁den	-8.31589
▁durumda	-8.31896
▁Teşekkürler	-8.31964
▁adam	-8.32232
▁parça	-8.32334
sin	-8.32435
▁istediğim	-8.32572
▁demek	-8.32638
▁saat	-8.32753
larından	-8.33003
sunuz	-8.33245
▁milyar	-8.33554
▁kontrol	-8.33949
▁güçlü	-8.33994
▁yalnız	-8.34397
ine	-8.34632
▁dolar	-8.34638
▁dair	-8.34887
mı	-8.34934
▁dünyada	-8.35384
▁başladı	-8.35822
al	-8.35889
▁En	-8.36593
1	-8.36806
▁örnek	-8.37435
▁B	-8.3776
nde	-8.37823
▁beyin	-8.37911
▁etti	-8.38043
▁izin	-8.38062
▁olma	-8.38443
lerinde	-8.39292
▁yine	-8.39408
ri	-8.39558
▁un	-8.39591
▁birşey	-8.39631
▁veri	-8.40007
inde	-8.40142
▁genç	-8.40498
▁te	-8.40792
▁Bugün	-8.40831
▁mümkün	-8.40994
▁hatta	-8.41009
▁şunu	-8.41018
▁hava	-8.41627
▁parçası	-8.4172
▁hafta	-8.41833
▁bunları	-8.42172
▁Neden	-8.42545
▁gelir	-8.42562
▁ye	-8.43144
▁inşa	-8.43236
▁edin	-8.43578
▁eğitim	-8.43929
ıp	-8.44387
▁çıkar	-8.4454
lər	-8.44651
▁kimse	-8.44798
▁30	-8.44818
▁mu	-8.4514
▁sürü	-8.45455
▁yolu	-8.45507
ız	-8.45756
▁dedim	-8.45763
▁benzer	-8.46075
▁ülke	-8.46093
də	-8.46325
▁insanlara	-8.46563
▁beş	-8.46977
dik	-8.46985
▁İlk	-8.47111
c	-8.47129
▁K	-8.47224
▁bence	-8.4747
▁herkes	-8.47878
▁kabul	-8.48088
▁2	-8.48558
▁kolay	-8.4891
▁hepsi	-8.49141
▁sizi	-8.49562
▁çalışan	-8.49611
siz	-8.49722
ına	-8.49783
▁New	-8.49831
▁yapma	-8.49868
▁kez	-8.50127
▁değildir	-8.50218
▁proje	-8.50443
▁yanlış	-8.50569
▁güç	-8.50938
▁neredeyse	-8.50981
▁tahmin	-8.51149
▁araba	-8.51383
ç	-8.51576
acak	-8.51843
▁idi	-8.51995
▁gösteriyor	-8.52442
▁yapmaya	-8.52472
▁araya	-8.52545
▁hayat	-8.5257
▁yüz	-8.52768
▁kız	-8.52932
▁də	-8.53018
▁olduğuna	-8.53038
▁çevre	-8.53199
▁özellikle	-8.53385
ba	-8.53588
cı	-8.53832
il	-8.5444
▁Hindistan	-8.54449
on	-8.54563
▁yapan	-8.54595
lığı	-8.55035
▁yaptığı	-8.55181
mizi	-8.5546
▁gerek	-8.5591
▁kısa	-8.56095
▁birisi	-8.56241
▁yere	-8.56252
▁gördüğünüz	-8.56273
▁gerekiyor	-8.56376
▁G	-8.56486
▁değildi	-8.56801
▁neler	-8.56873
dım	-8.57154
mek	-8.57226
▁50	-8.57254
nden	-8.57316
▁doğal	-8.57557
▁genel	-8.5787
▁C	-8.58114
▁altı	-8.58118
sal	-8.58229
▁H	-8.58544
▁ı	-8.58597
▁üzere	-8.58667
▁başladım	-8.58946
▁aşağı	-8.59001
▁düşünün	-8.59351
▁Son	-8.59593
▁bundan	-8.59638
▁cevap	-8.5981
▁araştırma	-8.59911
▁gelecek	-8.59928
sinin	-8.60015
▁şeyin	-8.60032
▁aile	-8.60385
▁verici	-8.60482
▁ses	-8.60684
▁anlama	-8.61056
▁kullanarak	-8.61358
▁geçen	-8.61678
▁grup	-8.61822
mak	-8.61926
▁bakın	-8.61987
el	-8.62227
ir	-8.62243
▁söz	-8.62299
▁kim	-8.62362
▁bağlı	-8.6265
▁ana	-8.62774
▁olmadığını	-8.62839
▁Aynı	-8.63007
▁konuşma	-8.63254
▁bunların	-8.63312
▁savaş	-8.63421
▁olsa	-8.63439
liği	-8.63533
mızı	-8.63597
▁sistemi	-8.6368
▁Tüm	-8.63947
▁çox	-8.6422
▁bin	-8.64452
▁arasındaki	-8.64659
nızı	-8.64749
▁T	-8.64834
▁yoktu	-8.64882
▁dakika	-8.64893
▁TED	-8.64903
▁çeşit	-8.65094
▁İnsanlar	-8.65159
▁sonraki	-8.65256
nizi	-8.65556
▁ifade	-8.6598
▁100	-8.66551
▁sağlık	-8.66593
yız	-8.66714
▁Çin	-8.66778
▁ihtiyacımız	-8.66811
su	-8.66948
▁tedavi	-8.67211
▁yapıyor	-8.67302
re	-8.67348
▁gece	-8.67473
▁D	-8.67591
▁rağmen	-8.67612
▁derece	-8.67887
▁biliyoruz	-8.67994
▁15	-8.68077
▁yapı	-8.68214
▁insanın	-8.68307
▁alıp	-8.68353
▁yılda	-8.68365
▁değer	-8.68631
▁beraber	-8.68866
▁ikinci	-8.68922
▁Belki	-8.68926
▁iletişim	-8.69041
sız	-8.69215
▁dolayı	-8.69346
sın	-8.69644
seniz	-8.69796
ra	-8.69818
kı	-8.69926
▁hasta	-8.7005
▁Ban	-8.70432
▁düşünüyorum	-8.70548
ır	-8.70618
▁olduğumuz	-8.70753
▁York	-8.70826
▁görüyorsunuz	-8.70997
▁ev	-8.71237
▁üçün	-8.71672
▁olsun	-8.71877
▁ele	-8.71921
larımız	-8.72082
▁erkek	-8.72138
sun	-8.72489
▁görebilirsiniz	-8.72788
inin	-8.73196
▁asla	-8.73216
▁bak	-8.73338
▁baş	-8.7359
▁teşekkür	-8.73649
▁içine	-8.73927
▁tasarım	-8.74147
▁yardımcı	-8.74169
▁yaptık	-8.74389
▁etmeye	-8.74425
▁al	-8.74499
▁Ayrıca	-8.74766
▁ışık	-8.74819
▁işi	-8.74832
▁düşündüm	-8.74896
▁etme	-8.74901
▁yaptığımız	-8.74914
▁ettim	-8.74997
▁muhtemelen	-8.75086
▁video	-8.75087
▁görmek	-8.75335
▁nedir	-8.75483
▁adı	-8.75496
▁yaşayan	-8.75709
▁karmaşık	-8.75961
▁bazen	-8.7602
▁hücre	-8.76068
▁Bütün	-8.76163
sinde	-8.76201
es	-8.76282
▁olup	-8.76335
ça	-8.76416
▁sistem	-8.76462
▁on	-8.76637
▁el	-8.76962
▁problem	-8.77016
▁derin	-8.77166
▁düşünce	-8.77176
▁başına	-8.7732
nun	-8.77646
▁dışında	-8.7767
sek	-8.77781
lan	-8.77787
luk	-8.77975
▁küresel	-8.78162
▁yılında	-8.78465
▁kelime	-8.78531
▁at	-8.78621
▁hep	-8.78846
tik	-8.78921
▁dünyayı	-8.78954
â	-8.79319
▁olmadığı	-8.79443
▁sebep	-8.79558
us	-8.79612
▁çocuklar	-8.79757
▁sanat	-8.79878
▁I	-8.8009
▁kendini	-8.80181
▁ortak	-8.8028
ar	-8.80286
▁geniş	-8.80335
▁Bizim	-8.80365
▁bakış	-8.80421
▁u	-8.80497
lə	-8.80573
▁Buna	-8.81084
▁yapılan	-8.8129
sak	-8.8158
▁fikri	-8.81707
ro	-8.81766
▁ekonomik	-8.81772
▁Yeni	-8.8182
▁sağ	-8.81863
▁dolu	-8.81913
▁sürekli	-8.81969
▁vermek	-8.82129
▁konuda	-8.82224
▁beri	-8.82308
lama	-8.82314
▁Büyük	-8.82338
▁olurdu	-8.83261
▁kesinlikle	-8.83413
▁binlerce	-8.83509
▁görüyoruz	-8.83671
min	-8.83744
or	-8.83872
▁arada	-8.84023
▁almak	-8.84036
▁5	-8.84052
▁çıktı	-8.84408
▁gerektiğini	-8.84641
▁M	-8.8478
▁Avrupa	-8.84784
ecek	-8.84873
▁takip	-8.85384
▁hazır	-8.85724
S	-8.85894
ında	-8.85977
▁defa	-8.86382
▁içerisinde	-8.86475
▁sebebi	-8.86481
▁dikkat	-8.86609
▁oyun	-8.86863
dum	-8.86916
▁bulunan	-8.86919
▁yaşında	-8.87241
▁başarılı	-8.87685
▁deniz	-8.87762
▁güneş	-8.88143
▁yemek	-8.88385
imiz	-8.88419
▁Gerçekten	-8.88461
ur	-8.88516
▁nedenle	-8.88626
▁biliyor	-8.88657
▁4	-8.88778
▁varsa	-8.88809
▁haline	-8.88889
maya	-8.88993
▁dünyadaki	-8.8913
▁hayatta	-8.89379
▁canlı	-8.89394
▁iç	-8.89399
▁uygun	-8.89403
▁Teşekkür	-8.89531
▁yaptım	-8.89815
▁ölüm	-8.89948
▁İki	-8.90049
▁verdi	-8.90099
▁deki	-8.90386
▁evet	-8.90426
▁gidip	-8.90453
▁film	-8.90463
x	-8.90507
.000	-8.90524
▁ait	-8.90612
▁mükemmel	-8.90629
▁Hayır	-8.90641
alım	-8.90822
lo	-8.91038
▁mutlu	-8.91046
▁ileri	-8.91062
▁merak	-8.91065
▁1	-8.91217
▁adım	-8.91846
▁ediyorum	-8.92018
▁acı	-8.92068
ün	-8.92081
▁hepimiz	-8.9215
▁başarı	-8.92172
▁geç	-8.9219
lerimiz	-8.92411
muş	-8.92508
sının	-8.92574
▁tabii	-8.927
▁40	-8.92791
▁ihtiyaç	-8.93009
dən	-8.93067
▁sık	-8.93113
▁sonuç	-8.93157
▁sayesinde	-8.93202
lü	-8.93266
▁DNA	-8.93382
▁olmadan	-8.93476
▁Diğer	-8.93486
yim	-8.9349
▁elektrik	-8.93568
va	-8.93824
▁bina	-8.94007
iyor	-8.94261
▁ek	-8.94323
▁yaptı	-8.94354
▁hangi	-8.94441
▁sen	-8.94456
▁değişim	-8.94489
ydu	-8.94688
▁toplum	-8.94739
B	-8.94743
▁zamanlar	-8.94791
▁fotoğraf	-8.94848
▁kadınlar	-8.94982
man	-8.95017
▁doğa	-8.95147
▁haber	-8.9518
▁ayrıca	-8.95283
▁ön	-8.95458
▁ciddi	-8.95493
▁başladık	-8.95494
dığı	-8.9561
▁gerekir	-8.95636
▁resim	-8.95684
▁anne	-8.95783
▁6	-8.9605
▁Kendi	-8.96074
▁normal	-8.96233
yken	-8.96257
▁şehir	-8.96264
▁veren	-8.96321
▁nerede	-8.96441
▁kısmı	-8.96523
▁internet	-8.96602
▁gücü	-8.9672
▁madde	-8.96843
▁yıldır	-8.96937
▁musunuz	-8.97246
▁yaz	-8.97376
▁düşük	-8.97482
▁müzik	-8.97529
leriyle	-8.9769
▁ABD	-8.97756
▁şeye	-8.97782
çi	-8.97901
▁eder	-8.97923
tu	-8.98032
▁görme	-8.98138
▁muhteşem	-8.98145
▁sıra	-8.98361
▁ilişki	-8.98463
sinden	-8.98486
D	-8.98522
2	-8.98638
▁üst	-8.98659
▁biliyorum	-8.98796
▁bilirsiniz	-8.9881
▁ilgi	-8.98952
▁yavaş	-8.98995
▁Al	-8.99297
ləri	-8.99319
▁model	-8.99334
bi	-8.99398
▁dil	-8.99417
▁gerekli	-8.99454
▁söyledi	-8.99509
▁olmalı	-8.99556
▁U	-8.99639
▁yaptığım	-8.99932
gi	-9.00006
▁yanı	-9.00134
▁anlamak	-9.0029
▁asıl	-9.00659
▁kişisel	-9.01041
▁olay	-9.0108
inden	-9.01089
▁olacağını	-9.01098
▁çıkan	-9.01137
▁lazım	-9.01227
▁okul	-9.01359
▁test	-9.01362
ıyor	-9.0149
▁bağlantı	-9.01795
▁yan	-9.01822
▁kimi	-9.01941
▁alma	-9.01988
▁F	-9.0222
cə	-9.02331
ch	-9.02337
▁birinin	-9.02368
▁aldı	-9.02425
▁yanında	-9.02566
▁ister	-9.02721
ha	-9.02813
▁sinir	-9.02894
▁kendimi	-9.03096
▁dahil	-9.03194
▁göstermek	-9.03223
yım	-9.03276
▁ara	-9.03294
▁12	-9.03303
çe	-9.03365
ğa	-9.03664
▁uzak	-9.03779
▁kan	-9.0391
▁yı	-9.03945
▁k	-9.04086
▁emin	-9.04086
▁etki	-9.04127
ması	-9.04128
unu	-9.04188
▁beyaz	-9.04196
▁sesi	-9.04351
▁deney	-9.04527
▁çözüm	-9.04716
▁El	-9.0482
leme	-9.04967
▁ettik	-9.05055
▁sayı	-9.05186
▁makine	-9.0552
▁yukarı	-9.06013
▁De	-9.06191
▁göster	-9.06259
▁Müzik	-9.06271
meye	-9.06356
v	-9.06361
▁metre	-9.06464
▁birini	-9.06622
▁mavi	-9.067
▁oluşan	-9.06708
▁fiziksel	-9.06708
▁nun	-9.06737
▁anlamın	-9.06761
▁olduğum	-9.06808
▁mevcut	-9.06885
▁öğrenme	-9.07147
is	-9.07154
ge	-9.07308
▁veriyor	-9.07342
▁olmaya	-9.07474
yan	-9.0754
▁orta	-9.0758
▁herkesin	-9.07607
▁buraya	-9.07624
▁tamam	-9.07627
▁alanı	-9.0765
▁yedi	-9.07823
▁kitap	-9.07922
▁oda	-9.07943
▁hayvan	-9.0795
imi	-9.07961
▁tıp	-9.07996
▁Amerikan	-9.08178
▁Onun	-9.08274
▁tepki	-9.08561
▁Artık	-9.0863
▁zaten	-9.08631
▁olursa	-9.08644
▁aldım	-9.08667
▁nedeni	-9.08805
▁bulmak	-9.08869
▁heyecan	-9.08884
▁görünüyor	-9.09102
▁kendisi	-9.09309
▁&#9	-9.09497
▁Örneğin	-9.09497
dığını	-9.09573
▁San	-9.09618
vi	-9.09768
▁der	-9.10093
▁ortalama	-9.1012
mda	-9.10193
▁verdim	-9.10472
sında	-9.10479
▁yatırım	-9.10642
▁bakar	-9.10664
▁korku	-9.10682
▁kalan	-9.10798
▁henüz	-9.10819
▁belli	-9.10854
abilir	-9.10959
▁telefon	-9.11064
▁söylemek	-9.11111
▁dünyaya	-9.11112
▁yeterli	-9.11113
be	-9.11132
▁mü	-9.11174
▁Başka	-9.1125
▁&#93;	-9.11261
▁sahibi	-9.11321
▁düşünme	-9.11428
cu	-9.11537
dür	-9.11605
▁Herkes	-9.11708
▁s	-9.11743
▁çocukların	-9.11877
▁60	-9.11946
▁Birleşi	-9.11968
▁devlet	-9.12014
ktan	-9.12016
▁araç	-9.12259
▁kapı	-9.1237
▁gelip	-9.12397
▁bakalım	-9.12399
▁şeylerden	-9.12458
▁gördüm	-9.12564
lerdi	-9.12584
▁ufak	-9.12851
▁arka	-9.13044
▁çalışıyor	-9.13342
▁L	-9.13394
▁destek	-9.13661
▁işin	-9.13684
▁meydana	-9.13765
▁Güney	-9.13969
▁Və	-9.14137
▁18	-9.14265
▁ağ	-9.14335
▁Bazı	-9.14356
▁yıllık	-9.14363
▁Google	-9.14425
▁resmi	-9.14475
▁diyor	-9.14513
ebilir	-9.14546
▁kaynak	-9.14585
▁CA	-9.14634
▁hastalık	-9.15009
abiliriz	-9.15182
▁Mars	-9.15261
yə	-9.15307
▁alt	-9.15396
larımızı	-9.15547
▁Kuzey	-9.1558
▁kalp	-9.15669
▁derecede	-9.15686
▁tabi	-9.15825
▁Ma	-9.15867
▁edecek	-9.15931
▁kafa	-9.1603
▁çizgi	-9.16032
▁biçimde	-9.16111
▁tarafta	-9.16202
▁katı	-9.16478
ının	-9.16718
▁sanırım	-9.16761
liğe	-9.16865
▁yerlerde	-9.17002
▁şirket	-9.17262
▁halde	-9.17302
,000	-9.17403
▁sayıda	-9.17407
▁ilaç	-9.17857
▁güven	-9.17941
▁nə	-9.17984
▁kullanma	-9.1801
▁görüntü	-9.18035
▁Bunları	-9.18142
▁buradaki	-9.18149
▁dijital	-9.18168
▁gittim	-9.18204
▁zengin	-9.18284
▁yazı	-9.18315
▁azından	-9.18445
▁mücadele	-9.1847
mizin	-9.18484
▁oldukları	-9.1861
▁yerel	-9.18757
T	-9.18857
▁medya	-9.18861
▁yeşil	-9.18886
sam	-9.18905
▁aşırı	-9.18981
▁Nasıl	-9.19128
▁bazıları	-9.19138
▁gidiyor	-9.19314
▁uzay	-9.19335
▁11	-9.19537
zi	-9.19567
▁Tanrı	-9.19569
▁ediyoruz	-9.19581
to	-9.19614
▁et	-9.19635
▁olduklarını	-9.19694
▁yapıyoruz	-9.19753
▁J	-9.19795
▁tanesi	-9.20097
▁şeylerin	-9.20124
▁dışı	-9.2014
▁yaşlı	-9.20323
▁takım	-9.20373
▁ihtiyacı	-9.20502
▁zamanlarda	-9.20671
▁seçim	-9.20764
▁kişinin	-9.20814
▁şekli	-9.20835
▁etkili	-9.20841
▁İ	-9.2097
▁hoş	-9.21012
mesi	-9.21474
▁kanser	-9.21535
▁günde	-9.21536
dık	-9.21735
▁sağlıyor	-9.21798
▁istedim	-9.21806
▁milyonlarca	-9.21834
anırım	-9.21858
dü	-9.22006
▁saniye	-9.22122
▁anlamı	-9.22198
▁hayır	-9.22304
▁Hatta	-9.22309
▁yaratmak	-9.22357
▁gösteren	-9.22409
lerimizi	-9.22468
▁25	-9.22468
▁olacaktır	-9.22517
▁200	-9.22546
▁nde	-9.22905
▁şaşırtıcı	-9.23053
larıyla	-9.23279
▁üstünde	-9.23416
▁büyüme	-9.23527
▁biliyorsunuz	-9.23663
▁kendine	-9.23854
▁olmuş	-9.24013
▁konusu	-9.24064
▁adında	-9.24083
ılmış	-9.24106
▁fakir	-9.24139
▁ekonomi	-9.24155
▁bununla	-9.24237
▁noktada	-9.24281
yiz	-9.24353
▁çift	-9.24387
diğini	-9.24421
▁Böyle	-9.24433
▁Sa	-9.24493
▁sağlayan	-9.24504
▁7	-9.2477
▁plan	-9.24815
▁insanlarla	-9.24831
▁yerinde	-9.25018
▁merkezi	-9.25032
▁Birkaç	-9.25084
▁çalışmak	-9.25105
▁sanki	-9.25146
▁Mesel	-9.25343
▁açısından	-9.25362
▁yüzünden	-9.25452
▁sahne	-9.25478
▁yapar	-9.25581
▁zamanı	-9.25646
▁durumu	-9.25835
▁ilham	-9.25847
▁kamera	-9.25855
bo	-9.25906
▁işler	-9.26058
▁Su	-9.26242
C	-9.26673
▁yıllar	-9.26837
▁başında	-9.26991
▁Ha	-9.27038
▁verme	-9.27194
▁teşekkürler	-9.27207
▁yap	-9.27244
▁yaratıcı	-9.27371
lığın	-9.27451
▁görsel	-9.27496
▁iklim	-9.27563
▁kırmızı	-9.27672
▁şarkı	-9.27819
▁mesela	-9.27927
▁gizli	-9.27939
lanmış	-9.27984
▁Onu	-9.28003
▁örneğin	-9.28058
mın	-9.28062
00	-9.2846
▁ortada	-9.2851
▁deneyim	-9.28672
▁alır	-9.28703
son	-9.2884
▁altın	-9.29
▁çeşitli	-9.29041
▁bölge	-9.29068
▁koruma	-9.29142
▁hâl	-9.29386
▁eş	-9.29542
▁kal	-9.29681
ve	-9.29785
▁sonucu	-9.29876
▁İş	-9.29914
▁80	-9.29946
▁tercih	-9.30051
▁sayısı	-9.30065
▁robot	-9.30089
A	-9.3011
diği	-9.30286
▁etkisi	-9.30401
▁tip	-9.30403
▁yara	-9.30459
▁alıyor	-9.30471
▁değilim	-9.30563
ran	-9.30781
▁olsaydı	-9.30837
▁istiyoruz	-9.30917
▁çıkıyor	-9.30917
▁anlamda	-9.30921
▁koy	-9.30938
6	-9.30942
▁üniversite	-9.31037
ımız	-9.311
▁ayrı	-9.31137
▁göstereceğim	-9.31396
▁İkinci	-9.31493
▁yoksa	-9.31538
ru	-9.3156
▁uygulama	-9.31666
▁bas	-9.31765
▁Ç	-9.31867
▁inanıyorum	-9.31965
▁içindeki	-9.32019
▁ucuz	-9.32027
▁İyi	-9.32073
▁Orada	-9.32096
▁Ta	-9.324
▁satın	-9.32531
sə	-9.32819
▁Hiç	-9.32963
▁hedef	-9.33114
▁edilmiş	-9.33258
ku	-9.33284
▁bitki	-9.33353
ici	-9.33695
abilirsiniz	-9.33751
▁N	-9.33906
▁gerçekte	-9.3393
▁anlat	-9.34011
▁icin	-9.34087
▁verir	-9.34149
▁la	-9.34161
▁dış	-9.34202
▁yapabiliriz	-9.34251
▁olmasını	-9.34397
mıştı	-9.34406
▁garip	-9.34441
▁konuşmak	-9.34521
st	-9.34533
▁bilimsel	-9.34552
▁P	-9.34643
lardır	-9.34701
▁temsil	-9.34762
▁oray	-9.34783
▁petrol	-9.34838
▁söylüyor	-9.34855
▁umut	-9.35003
▁yaptıkları	-9.35035
▁ürün	-9.3511
▁önceki	-9.35146
▁üzerinden	-9.35169
5	-9.35231
▁olduğundan	-9.35258
▁ders	-9.35624
▁günlük	-9.35626
▁kendimizi	-9.35693
▁gördük	-9.3571
▁yüzlerce	-9.35855
ysa	-9.35974
▁demokrasi	-9.36139
▁Dolayısıyla	-9.36141
layan	-9.36189
▁gelecekte	-9.36281
▁önünde	-9.36289
▁risk	-9.36331
▁Tabii	-9.36351
ing	-9.36515
▁sağlıklı	-9.36696
▁korkunç	-9.36711
▁gerektiği	-9.36728
▁ince	-9.3673
▁gider	-9.36807
▁cep	-9.37004
▁kullan	-9.37053
▁dizi	-9.37229
ğı	-9.37245
▁olduğunda	-9.37259
acağız	-9.37337
bu	-9.37342
▁aşı	-9.37399
▁eve	-9.37449
▁budur	-9.37509
▁oldum	-9.37565
▁zarar	-9.37659
tur	-9.37685
▁suç	-9.37807
▁seviyorum	-9.37892
▁yi	-9.37956
▁olanlar	-9.37968
▁beynin	-9.37981
▁mesaj	-9.38021
▁sınıf	-9.38044
▁Biraz	-9.38169
▁bilmiyorum	-9.38189
▁esas	-9.38255
▁bakarsa	-9.38259
▁kullanmak	-9.38291
▁yaş	-9.38349
▁yapılmış	-9.38384
▁elbette	-9.38448
▁türlü	-9.38504
▁işaret	-9.38516
▁gördüğümüz	-9.38527
▁kalma	-9.38687
▁nerey	-9.38923
▁Video	-9.39033
adlı	-9.39056
▁getirmek	-9.39085
▁numara	-9.3911
K	-9.39117
▁sorunu	-9.39119
▁8	-9.39238
▁Gerçek	-9.39279
▁sabah	-9.39294
▁dur	-9.39306
▁dışarı	-9.39409
tim	-9.39423
os	-9.39515
▁başlıyor	-9.39586
▁açıdan	-9.39684
▁akıl	-9.39702
▁güvenli	-9.39722
▁inan	-9.39772
▁Onları	-9.39799
▁giden	-9.39899
▁sayfa	-9.39957
▁R	-9.40056
▁üzerindeki	-9.40123
▁kaynağı	-9.40148
▁yoktur	-9.40203
▁etrafında	-9.40252
▁edilen	-9.40332
▁din	-9.40389
yse	-9.40425
▁bunlardan	-9.40492
raya	-9.40551
▁miyiz	-9.40605
▁uç	-9.40742
za	-9.40756
▁insanı	-9.40805
▁İnsan	-9.4081
▁genetik	-9.40815
▁ülkeler	-9.40849
▁kendilerini	-9.40914
▁kişiler	-9.41268
çı	-9.41393
▁buldum	-9.41425
▁mən	-9.41475
▁pazar	-9.41541
▁çalış	-9.41556
▁görev	-9.41574
▁kara	-9.41615
mıza	-9.41851
4	-9.41998
▁geleneksel	-9.42027
▁baskı	-9.42135
▁kere	-9.42163
▁gitmek	-9.42167
▁hücreleri	-9.42204
▁fikirler	-9.4238
▁üçüncü	-9.42395
▁yiyecek	-9.42429
ko	-9.42449
sem	-9.42546
▁erkekler	-9.42615
▁piyasa	-9.42621
liğin	-9.42658
▁hata	-9.42829
▁önemlisi	-9.42893
ğ	-9.42975
mızın	-9.4314
▁bilgiyi	-9.43185
▁icat	-9.43238
sıyla	-9.43253
yor	-9.43365
▁başlar	-9.43795
▁düşünmeye	-9.4381
▁ziyaret	-9.43846
▁geldiğini	-9.43967
larımızın	-9.44191
▁hayatın	-9.44219
▁değiştirmek	-9.44266
▁değişik	-9.4427
▁Sen	-9.44325
▁olun	-9.44338
▁ettiği	-9.44347
▁sonsuz	-9.44358
▁mil	-9.44375
san	-9.444
▁Tam	-9.44499
▁sırasında	-9.44545
▁verdik	-9.44583
▁ayak	-9.44621
ed	-9.44698
▁dahi	-9.44751
▁yapıyorlar	-9.44838
▁karbon	-9.44955
▁yapmayı	-9.44959
▁arkadaşım	-9.45041
go	-9.4506
▁Batı	-9.4514
▁Orta	-9.45145
▁aç	-9.45172
mu	-9.45221
▁hastalığı	-9.45291
iniz	-9.45292
▁program	-9.45311
▁70	-9.45345
▁bağ	-9.45349
ga	-9.45449
elim	-9.45451
▁genellik	-9.4546
dığımız	-9.45483
▁yoğun	-9.45512
ton	-9.45529
▁anlamaya	-9.45543
▁evrim	-9.45691
▁Birçok	-9.45719
▁temiz	-9.45766
9	-9.45794
▁İnsanların	-9.45825
▁fazlası	-9.45848
ley	-9.45897
▁yarı	-9.46116
▁hal	-9.46163
▁balık	-9.46188
▁si	-9.46324
▁şekil	-9.4634
▁teşvik	-9.46342
▁öğrenci	-9.46383
▁Va	-9.46456
ən	-9.4651
▁Tek	-9.46541
▁90	-9.46582
lığ	-9.46588
▁gelişme	-9.46607
▁çaba	-9.46625
▁Pekala	-9.4666
▁yaparken	-9.46734
▁aracı	-9.46754
▁Burası	-9.46783
▁belirli	-9.46922
▁olağanüstü	-9.46977
▁Beni	-9.47007
▁siyah	-9.47048
▁rol	-9.47161
▁senin	-9.47167
▁verin	-9.47198
▁b	-9.47292
▁çalışıyoruz	-9.47409
H	-9.47411
▁halinde	-9.47412
lerdir	-9.47488
▁yarısı	-9.47674
▁modern	-9.47764
▁politik	-9.47791
▁9	-9.47863
ul	-9.47882
▁anlam	-9.47903
▁fırsat	-9.47904
▁bulduk	-9.47951
▁yapacak	-9.48011
ilmiş	-9.48027
▁bizler	-9.48045
▁sıcak	-9.4807
▁alakalı	-9.48191
▁ikna	-9.48263
▁Geçen	-9.48268
▁herşey	-9.48278
▁kesin	-9.48286
▁yaparak	-9.48303
▁amacı	-9.48312
▁kar	-9.48314
▁deneme	-9.4845
▁hizmet	-9.48466
▁Me	-9.48566
▁gıda	-9.48579
lük	-9.48624
▁algı	-9.48646
▁sahibiz	-9.48774
▁il	-9.48789
3	-9.48814
lanan	-9.48993
P	-9.49116
▁İnternet	-9.49121
▁ortasında	-9.49186
▁hayatı	-9.49281
▁masa	-9.49295
▁Ev	-9.49367
ö	-9.49408
▁sağlamak	-9.49493
nu	-9.4954
▁davet	-9.49571
▁kadınların	-9.49724
▁boş	-9.49752
▁harita	-9.49754
▁öz	-9.4978
▁”	-9.4988
▁erken	-9.49928
▁na	-9.49962
▁geriye	-9.50022
▁Kim	-9.501
▁yeterin	-9.50104
▁mal	-9.50136
▁çekici	-9.50215
▁sorular	-9.50352
▁hesap	-9.50404
▁olmasına	-9.50516
▁sekiz	-9.50538
der	-9.50543
▁ver	-9.50593
▁sırada	-9.5073
▁kök	-9.50807
▁şirketler	-9.51028
▁oranı	-9.51089
▁yasa	-9.5112
▁çalışıyorum	-9.5128
▁başa	-9.51468
“	-9.5153
▁aldık	-9.51541
▁akıllı	-9.51543
▁Ba	-9.51576
hi	-9.5158
eyim	-9.51692
ür	-9.51698
▁ağır	-9.51753
▁ediyorlar	-9.518
▁şiddet	-9.51821
▁sonuçlar	-9.51829
▁yaygın	-9.51863
▁yağmur	-9.51865
▁sonrasında	-9.51899
mde	-9.51926
▁ten	-9.51955
▁yapabilir	-9.52025
▁çocukları	-9.52134
▁kutu	-9.52223
▁Demek	-9.52226
▁başta	-9.52254
▁hər	-9.52271
▁mesele	-9.52336
▁demektir	-9.52342
▁ikisi	-9.52387
▁/	-9.52533
▁kendime	-9.52568
▁gezegen	-9.53029
ebilirsiniz	-9.53089
mize	-9.53131
M	-9.53154
▁süper	-9.53156
▁yeri	-9.53186
unun	-9.53248
landı	-9.5334
▁kültür	-9.53395
▁görürsünüz	-9.53548
ıcı	-9.53579
▁bi	-9.53582
▁olduğumu	-9.53637
▁bebek	-9.5369
▁burda	-9.53771
ebiliriz	-9.53833
▁sol	-9.53851
▁yaşıyor	-9.53887
▁Öyle	-9.53898
▁nefes	-9.53918
abilecek	-9.54014
▁hakkındaki	-9.54093
▁karanlık	-9.54176
▁adına	-9.54219
duk	-9.54245
kar	-9.54284
▁istediğimiz	-9.54315
▁adını	-9.54377
kten	-9.54403
▁ilerleme	-9.5445
▁kurma	-9.5447
▁Hepimiz	-9.54549
w	-9.54566
▁Üç	-9.54579
▁nesil	-9.54768
▁ha	-9.5496
▁edildi	-9.54977
▁çalışmaya	-9.55032
▁boyutlu	-9.55292
rken	-9.55295
▁süreç	-9.55352
ıl	-9.55408
lenmiş	-9.55428
ıyla	-9.5551
▁duruyor	-9.55543
▁süreci	-9.55646
▁yana	-9.55766
▁kas	-9.55782
▁programı	-9.55935
▁onunla	-9.55951
▁sıfır	-9.55952
▁tehdit	-9.55952
cık	-9.56108
▁Ona	-9.56184
▁hayvanlar	-9.56298
birine	-9.56303
ış	-9.56304
N	-9.56314
▁Doğu	-9.56324
▁Mo	-9.56363
▁alın	-9.56471
▁ısı	-9.56486
▁geldiği	-9.5653
▁yöntem	-9.56574
▁Se	-9.5662
▁miktarda	-9.5667
▁hayatını	-9.56744
▁ışığı	-9.56752
▁zeki	-9.56893
▁gaye	-9.56893
iş	-9.569
▁vücut	-9.56904
▁16	-9.56916
▁görüş	-9.57071
▁di	-9.57083
▁telefonu	-9.5713
▁yapmamız	-9.57171
▁gir	-9.57195
▁görə	-9.57262
▁tehlikeli	-9.57323
▁devre	-9.57447
▁bil	-9.57471
ol	-9.57488
▁denge	-9.57518
masını	-9.57549
▁Gülüş	-9.57662
▁seyahat	-9.57707
▁noktası	-9.57715
▁ülkede	-9.57771
▁çapında	-9.5781
▁çalıştığım	-9.57963
▁yaşındaki	-9.57998
▁makale	-9.58107
▁tut	-9.58338
▁güvenlik	-9.58388
▁Buradaki	-9.58507
▁babam	-9.58593
▁oy	-9.58669
▁teori	-9.58753
▁edici	-9.58839
▁anlatmak	-9.59
▁günü	-9.59163
▁pahalı	-9.59172
dikleri	-9.59184
▁sonu	-9.59229
▁tartışma	-9.59258
▁kod	-9.59311
▁Sizin	-9.59348
▁olmayı	-9.5944
▁akşam	-9.59493
▁Bazen	-9.59495
▁Öyleyse	-9.59501
▁ederek	-9.59859
▁getiriyor	-9.59873
meyi	-9.59953
▁W	-9.59977
▁sana	-9.60003
▁olmayacak	-9.60041
▁bildiğimiz	-9.60041
▁buz	-9.60056
▁duygu	-9.60085
leşmiş	-9.60128
mişti	-9.60223
▁rahat	-9.60268
▁birine	-9.6037
siyle	-9.60423
▁Sonuç	-9.60535
acağım	-9.60547
▁gel	-9.60657
▁kenar	-9.60703
▁ardından	-9.60808
▁hücreler	-9.6085
▁anı	-9.60863
▁tecrübe	-9.60901
▁muazzam	-9.60945
▁okula	-9.6095
7	-9.61077
malıyız	-9.61083
▁sevgi	-9.61087
▁okuma	-9.61133
▁eşit	-9.61171
▁konuş	-9.61197
▁bulma	-9.61232
likle	-9.61262
▁f	-9.61376
▁ton	-9.61393
fi	-9.61428
▁öğrendim	-9.61464
ği	-9.61481
▁olmaz	-9.61515
▁örneği	-9.61516
as	-9.61526
▁gerekiyordu	-9.61614
sından	-9.61631
▁Chris	-9.61678
▁Bilim	-9.61679
▁sağlayacak	-9.61692
▁gen	-9.61692
▁isteyen	-9.61719
mayı	-9.61725
eceğini	-9.61733
▁sanal	-9.6179
▁almaya	-9.61895
▁gitti	-9.6193
▁kap	-9.61956
▁ilə	-9.62012
ist	-9.62015
▁tarz	-9.62054
▁teknik	-9.62059
▁Yine	-9.62065
▁getirdi	-9.6211
▁Çocuk	-9.62136
pe	-9.62208
▁yapmış	-9.62255
▁problemi	-9.62358
▁yaşama	-9.62405
▁işbirliği	-9.62418
▁Dr	-9.62478
▁dans	-9.62502
▁düz	-9.6251
▁tarihi	-9.6253
▁can	-9.62542
▁alanda	-9.62566
ayım	-9.62649
▁olduğumuzu	-9.62675
▁silah	-9.628
iyoruz	-9.62996
▁onlarla	-9.6306
▁arası	-9.63156
▁çoğunu	-9.63271
ıldı	-9.63397
iyorum	-9.63433
▁kaya	-9.63547
▁olmaları	-9.63554
▁edebilir	-9.63567
▁biyolojik	-9.63579
▁ateş	-9.63594
▁Ra	-9.63672
▁me	-9.63691
▁cok	-9.63816
▁istiyor	-9.63883
▁qədər	-9.63913
▁getir	-9.63918
▁annem	-9.63933
▁17	-9.63951
▁hızla	-9.64076
▁sağladı	-9.64087
▁Çoğu	-9.64108
acağını	-9.64158
▁toprak	-9.64201
▁Güneş	-9.64291
▁yabancı	-9.64292
mə	-9.64356
ımı	-9.64392
▁edil	-9.6444
▁hikâye	-9.64457
▁benziyor	-9.6446
▁köpek	-9.64501
▁çalışır	-9.64509
▁kazan	-9.64523
▁deyil	-9.64601
▁müthiş	-9.64669
▁neyse	-9.64682
diğim	-9.64684
▁gücünü	-9.64729
▁benzeri	-9.64783
▁14	-9.64805
▁birşeyler	-9.64903
▁Re	-9.65012
diniz	-9.65025
▁İngiltere	-9.6505
▁tarih	-9.65058
▁ettiler	-9.65326
▁okyanus	-9.65372
▁halk	-9.6541
bil	-9.65517
▁burası	-9.65701
mızda	-9.65763
▁yazılım	-9.65779
▁ka	-9.65826
▁öğrenmek	-9.65852
ndaki	-9.6589
mo	-9.65898
diğimiz	-9.65935
▁hepimizin	-9.65977
▁söylediği	-9.66012
▁endişe	-9.66024
▁bırak	-9.66068
▁düşünmek	-9.66096
▁geçti	-9.66144
▁verilen	-9.66245
▁üretim	-9.66352
▁görmeye	-9.66398
▁kilo	-9.66434
G	-9.66463
▁dağ	-9.66471
lanma	-9.66523
▁eğlenceli	-9.66525
▁duyu	-9.66538
▁sefer	-9.66561
▁zayıf	-9.66585
▁The	-9.66605
ər	-9.66679
▁yaklaşım	-9.66691
▁kare	-9.66728
▁içeri	-9.66765
suz	-9.66823
▁Devletler	-9.66876
▁politika	-9.66892
▁buçuk	-9.66976
▁Di	-9.66989
ebilecek	-9.66998
▁Do	-9.67162
▁Küçük	-9.67376
gu	-9.67437
▁Hem	-9.67476
yo	-9.67724
lanır	-9.67762
▁cihaz	-9.67828
▁modeli	-9.67841
▁araçlar	-9.67852
muz	-9.67858
▁La	-9.67917
▁sordu	-9.67923
▁olmamız	-9.67955
▁tuhaf	-9.68145
▁nefret	-9.68158
▁göreceksiniz	-9.6816
▁benimle	-9.68194
▁sonuçları	-9.68375
lıyor	-9.68468
▁kitabı	-9.68493
▁teknolojinin	-9.68495
▁olduğunuz	-9.68515
▁yada	-9.68521
▁dönü	-9.68614
▁görünen	-9.68631
ize	-9.68723
▁Ka	-9.68781
▁li	-9.68792
▁belə	-9.68821
▁ünlü	-9.68947
▁va	-9.68977
▁parti	-9.68991
ey	-9.68992
ünü	-9.69008
▁çek	-9.69142
▁tepe	-9.69167
miyor	-9.69193
▁paylaş	-9.69242
▁soğuk	-9.69253
▁arazi	-9.69282
▁suyu	-9.69302
▁mikro	-9.69306
▁saygı	-9.69309
▁sordum	-9.69371
▁dediler	-9.69416
▁arama	-9.69488
▁hak	-9.69545
▁24	-9.69597
▁kullanılan	-9.69779
əm	-9.69813
▁İngilizce	-9.69825
▁Adam	-9.69841
▁km	-9.69924
▁çalıştım	-9.69946
▁yaratma	-9.70092
▁top	-9.70107
▁kon	-9.70121
imizin	-9.70161
▁kullanıyor	-9.7056
nize	-9.70587
maq	-9.70642
▁buydu	-9.70744
▁renk	-9.70852
po	-9.70861
▁biyoloji	-9.7089
▁strateji	-9.70915
▁Tabi	-9.70928
▁Elbette	-9.70934
ver	-9.71024
▁malzeme	-9.71048
laşma	-9.71074
ay	-9.7122
ze	-9.7128
▁duygusal	-9.7136
▁bulunuyor	-9.7145
▁sıradan	-9.71452
▁alanlar	-9.7147
▁Şöyle	-9.71745
▁geleceği	-9.71754
▁ölü	-9.71797
▁değiştir	-9.71839
▁buldu	-9.71856
▁yıldız	-9.71907
▁yüzyıl	-9.71921
▁geçir	-9.71931
▁doktor	-9.7209
▁HIV	-9.72153
▁13	-9.72516
▁sizinle	-9.72519
▁ettiğimiz	-9.72522
▁Harika	-9.72566
▁baba	-9.72581
▁alet	-9.72615
▁sağlar	-9.72619
▁yapabilirsiniz	-9.72645
nca	-9.72723
imizi	-9.72788
▁rüzgar	-9.72809
▁sev	-9.72846
▁ak	-9.72873
▁yu	-9.72942
▁öğren	-9.72957
▁tarım	-9.72963
▁plastik	-9.72975
▁mimari	-9.73007
▁sınır	-9.73014
▁geçerli	-9.73017
▁çocuğun	-9.73069
▁farkında	-9.73173
▁ol	-9.73225
yü	-9.73264
▁bölüm	-9.73354
ber	-9.73359
▁hafif	-9.73388
▁bulunduğu	-9.73456
▁Asya	-9.73489
▁adamı	-9.73505
▁gelişmiş	-9.73533
▁kaldır	-9.73594
dılar	-9.73622
▁seç	-9.73686
lanıyor	-9.73711
▁olanı	-9.73748
▁üstüne	-9.73779
▁kilometre	-9.73827
ör	-9.73922
eceğiz	-9.73923
▁Hadi	-9.73935
layıp	-9.73972
▁liste	-9.74044
bir	-9.74193
▁spor	-9.74209
▁balığı	-9.74215
▁sürdürülebilir	-9.74219
ah	-9.74297
▁zorundayız	-9.74314
▁rahatsız	-9.7439
▁Doğru	-9.74393
▁çocuğu	-9.74438
▁virüs	-9.74479
diler	-9.74517
▁geçme	-9.74585
▁fare	-9.74589
larca	-9.74593
▁etmiş	-9.74724
▁zeka	-9.74801
lərin	-9.74811
▁kağıt	-9.74891
lenme	-9.74912
▁değerli	-9.74919
▁şehrin	-9.74992
▁olduk	-9.75022
nıza	-9.75038
▁edip	-9.75059
▁cinsel	-9.75062
▁giderek	-9.75073
▁isə	-9.75165
▁yapıyorum	-9.75238
▁He	-9.75282
▁Ki	-9.75371
▁ağaç	-9.75437
▁sorunları	-9.75518
▁bisiklet	-9.75583
▁yaptığını	-9.75628
▁duyma	-9.75703
▁miktar	-9.75707
▁evrenin	-9.75731
▁sesleri	-9.75853
▁is	-9.75856
co	-9.75893
▁sabit	-9.75905
▁kamu	-9.75912
▁kuru	-9.7595
inizi	-9.75952
▁olmadı	-9.75972
▁gerçeği	-9.76076
▁önemlidir	-9.7611
▁şeyden	-9.76166
▁oyunu	-9.76167
kan	-9.76184
fe	-9.76214
▁tanı	-9.7622
▁seviye	-9.76267
▁sevdiğim	-9.76308
▁davranış	-9.76341
▁şans	-9.76429
▁kısmını	-9.76513
▁gelme	-9.76562
I	-9.76579
eceğim	-9.76676
▁cevabı	-9.76714
ilen	-9.76797
▁beyni	-9.7683
▁Amerikalı	-9.77056
yen	-9.77085
▁etkileşim	-9.77092
▁değiliz	-9.77112
▁imkansız	-9.7712
▁türü	-9.77176
▁onlardan	-9.77232
up	-9.77239
▁sal	-9.7738
▁geldiğinde	-9.77386
▁açıklama	-9.77388
▁Mən	-9.77425
▁fotoğrafı	-9.77444
lüğü	-9.77532
▁amaç	-9.77535
▁polis	-9.77559
▁hakkı	-9.77586
▁John	-9.77605
▁verdiği	-9.77608
▁Afganistan	-9.77617
ab	-9.77669
▁söyleme	-9.77673
▁Ro	-9.77684
▁hükümet	-9.77703
▁bakteri	-9.77728
▁ülkelerde	-9.77773
▁bakmak	-9.77831
▁düşünüyor	-9.7789
▁yapıldı	-9.77917
müş	-9.77934
▁engel	-9.7796
▁uluslararası	-9.7805
▁doku	-9.78164
▁bağımsız	-9.78241
▁oluşturmak	-9.78257
nizin	-9.78336
▁cam	-9.78375
▁bilmek	-9.78385
▁verimli	-9.78444
▁evde	-9.78462
▁değiller	-9.78489
ho	-9.78539
▁görüyor	-9.78548
▁Da	-9.78576
▁Bo	-9.78584
▁giriş	-9.78632
ıyoruz	-9.78655
cak	-9.7878
▁şeydir	-9.78833
lıyız	-9.78848
▁çöp	-9.78912
▁önümüzde	-9.78923
▁iddia	-9.78982
▁Onların	-9.78986
▁merkez	-9.78994
▁yapay	-9.79146
▁ila	-9.79253
▁park	-9.79285
▁gözlem	-9.79333
▁parmak	-9.79356
▁şirketi	-9.79437
▁Bize	-9.7944
▁geçmiş	-9.79448
▁adamın	-9.79456
▁paylaşmak	-9.79537
▁hepsini	-9.79705
▁yola	-9.79791
▁bitir	-9.798
▁olmuştu	-9.79813
▁nevi	-9.79825
▁yayın	-9.79847
no	-9.79955
▁Sonun	-9.80034
ndeki	-9.80035
▁değiştirme	-9.80134
▁kimyasal	-9.80207
rə	-9.8022
asyon	-9.80226
▁Gördüğünüz	-9.80243
▁altyapı	-9.80243
▁Bilirsiniz	-9.80249
▁Eski	-9.80285
▁edir	-9.80327
▁mantıklı	-9.8033
▁yüzü	-9.80345
▁yağ	-9.80405
fa	-9.8045
▁görün	-9.80479
▁çoğunlukla	-9.80515
▁kol	-9.80538
F	-9.80569
▁Birincisi	-9.80608
▁siyasi	-9.80688
▁bilinen	-9.80741
▁şeklinde	-9.80835
▁Davi	-9.80874
▁aşama	-9.80889
▁olabilecek	-9.80937
▁tan	-9.80962
▁gösterdi	-9.80965
▁parçaları	-9.80987
▁çıkı	-9.80999
▁korumak	-9.81131
▁web	-9.81134
▁devrim	-9.81163
iyle	-9.81198
▁dönem	-9.81248
▁ettiğim	-9.813
▁verileri	-9.81451
▁böyük	-9.81582
▁hatırlıyorum	-9.81603
▁hissi	-9.81632
▁hayatımı	-9.81659
▁analiz	-9.81671
▁hali	-9.81733
▁Na	-9.81823
▁yılı	-9.81858
▁gazete	-9.81872
▁ölçüde	-9.81914
▁İngiliz	-9.81924
▁öldü	-9.82021
▁nda	-9.82031
▁Baş	-9.82034
▁Hiçbir	-9.82079
▁toplumun	-9.82113
lığını	-9.82124
ck	-9.82143
▁neyin	-9.82144
▁ötesinde	-9.82153
▁suyun	-9.82177
▁fazlasını	-9.82185
▁Ko	-9.82229
▁500	-9.82267
▁sergi	-9.82363
▁sey	-9.82371
kçe	-9.82379
▁gösterme	-9.8238
▁ayı	-9.82444
▁boya	-9.82493
▁açısı	-9.82538
th	-9.82557
ildi	-9.82618
taki	-9.82619
▁arkadaş	-9.82657
▁sizlere	-9.82675
▁alanında	-9.82683
▁bilme	-9.82689
▁yüzyılda	-9.82728
▁düşündük	-9.82731
▁insanlardan	-9.82741
▁yerler	-9.82742
abiliyor	-9.82798
ılan	-9.82833
▁yönetim	-9.82869
▁alacak	-9.82909
▁Londra	-9.8294
▁gitme	-9.82966
▁gerekirse	-9.83022
▁kapalı	-9.83029
▁dediği	-9.83048
▁tarafı	-9.83137
▁saldırı	-9.83161
ebiliyor	-9.83392
▁şeker	-9.83396
▁cinsiyet	-9.83405
▁dönüş	-9.83437
▁kısım	-9.83457
▁olabileceğini	-9.83489
▁taş	-9.8354
▁kural	-9.83598
▁motor	-9.836
▁sorumlu	-9.83677
▁bölümü	-9.83701
▁rakam	-9.83815
▁Ca	-9.83828
▁tespit	-9.83855
▁parlak	-9.83945
▁diyorum	-9.83974
▁değişimi	-9.84032
▁fikirleri	-9.84106
ger	-9.84254
▁sanatçı	-9.84263
▁sır	-9.84288
▁işlem	-9.84296
▁gittik	-9.84307
▁cümle	-9.84316
L	-9.84333
▁Ş	-9.84366
▁edebilirsiniz	-9.84379
▁batı	-9.84398
▁tasarruf	-9.84422
▁molekül	-9.84438
▁verecek	-9.84447
▁önem	-9.8449
kte	-9.8455
▁çalıştığımız	-9.84618
▁gaz	-9.84676
eri	-9.84686
▁yılın	-9.84698
▁Hepsi	-9.84768
▁matematik	-9.84784
▁san	-9.84903
▁aktif	-9.84918
luğu	-9.84929
▁kaldı	-9.84955
men	-9.84978
▁başarısız	-9.84983
▁olacağı	-9.85065
▁geçiyor	-9.85148
▁evren	-9.85153
▁kanseri	-9.85233
▁nükleer	-9.85254
▁dediğimiz	-9.85257
▁orman	-9.85258
sh	-9.85296
▁yolculuk	-9.8542
▁çıkarmak	-9.85505
▁dikkatli	-9.85514
▁değiştirebilir	-9.85524
▁Le	-9.85589
▁seni	-9.85659
▁başladılar	-9.85725
▁düşün	-9.85757
yorum	-9.85916
meliyiz	-9.85982
mıştım	-9.85991
▁doğum	-9.86025
ından	-9.86077
▁Bak	-9.86111
▁önüne	-9.86181
▁olabilirsiniz	-9.86193
leşme	-9.86213
▁mutluluk	-9.86221
▁ruh	-9.86244
nün	-9.86257
▁g	-9.86378
dığım	-9.86412
▁standart	-9.86413
▁herşeyi	-9.86446
tor	-9.86497
E	-9.86499
▁nüfus	-9.86552
▁iz	-9.86583
▁hayata	-9.86599
▁Güzel	-9.86654
▁gelişmekte	-9.86668
▁uçuş	-9.86674
▁ün	-9.86718
▁dava	-9.86745
▁saye	-9.86822
▁arkasında	-9.86945
▁gerçeklik	-9.87074
▁epey	-9.87126
lerimizin	-9.87137
▁toplam	-9.87173
land	-9.87319
▁yarım	-9.87354
▁değiştirdi	-9.87471
▁halka	-9.87497
mektedir	-9.87539
▁sistemleri	-9.87565
▁yapacağı	-9.87589
layacak	-9.87589
▁gelmiş	-9.87604
R	-9.87606
maktadır	-9.87611
▁birbirin	-9.87702
▁tanım	-9.87729
▁çıkma	-9.87751
▁hesaplama	-9.87785
▁sessiz	-9.87795
▁teknolojiyi	-9.87842
▁besin	-9.87867
gen	-9.87877
▁başlama	-9.87878
▁televizyon	-9.87896
▁yaptılar	-9.88026
ində	-9.88031
▁koyu	-9.88045
▁lütfen	-9.88081
▁geliştirme	-9.88127
▁yük	-9.88137
▁işleri	-9.88146
▁ödeme	-9.88159
▁isterim	-9.88179
▁kullanıyoruz	-9.88182
▁karşısında	-9.88219
▁çiz	-9.88232
▁ediliyor	-9.8826
liğini	-9.88276
▁girdi	-9.88315
ydim	-9.88393
▁doğrudan	-9.88513
▁elimizde	-9.88534
▁istedi	-9.88558
unda	-9.88577
▁bakma	-9.88673
▁olmaktan	-9.8884
dy	-9.88841
▁hakları	-9.88863
▁nereden	-9.88876
▁p	-9.89043
▁Teknoloji	-9.89045
▁komik	-9.8906
mü	-9.89087
▁dışarıda	-9.89099
▁hikayeler	-9.89194
teki	-9.89392
▁farkın	-9.89392
▁dal	-9.89413
▁Yap	-9.89417
▁öğretmen	-9.89428
8	-9.89455
▁site	-9.89457
▁kullandığımız	-9.8946
▁Bil	-9.89478
▁yollar	-9.8952
▁geçiş	-9.89532
▁insana	-9.89634
▁ani	-9.89636
▁X	-9.89666
▁görünür	-9.89693
▁Bazıları	-9.89745
ji	-9.89791
▁suçlu	-9.89831
▁say	-9.89833
▁kanıt	-9.89928
mıyor	-9.89944
▁şimdiye	-9.89961
▁ç	-9.89983
▁yolunu	-9.89985
▁Geri	-9.8999
üm	-9.90011
▁kayıt	-9.90025
▁bahsetmek	-9.9009
▁Bakın	-9.90113
▁Üniversitesi	-9.90138
bilme	-9.90246
▁yetiştir	-9.9039
▁vermeye	-9.90407
▁istiyorlar	-9.90423
▁yaşamak	-9.90447
▁yakında	-9.90579
▁kullanan	-9.90603
▁bakarak	-9.90625
▁görüşme	-9.90634
▁nesne	-9.90648
▁gemi	-9.90654
▁diyoruz	-9.90685
▁dek	-9.90764
▁bulmaya	-9.90813
▁sağlığı	-9.90837
▁ürünü	-9.90901
▁isim	-9.90929
▁toplantı	-9.90937
▁sor	-9.90942
▁yarar	-9.90948
▁Du	-9.90957
▁Yüz	-9.91021
▁açıkça	-9.91042
mizde	-9.91055
▁bakıp	-9.91066
▁tur	-9.91096
▁yaşıyoruz	-9.91125
▁şeydi	-9.91181
abilmek	-9.91203
▁yarat	-9.91285
ste	-9.91303
▁gösteri	-9.91352
▁tutku	-9.9137
▁etmeyi	-9.91489
▁taklit	-9.91497
▁artış	-9.91531
▁yaxşı	-9.91543
▁dev	-9.91552
▁ekran	-9.91553
▁deri	-9.91761
una	-9.9181
▁Z	-9.91816
▁veriler	-9.91902
▁radyo	-9.91953
▁Ah	-9.91961
▁istedik	-9.92031
▁edebiliriz	-9.92067
▁musun	-9.92085
▁300	-9.9212
▁anlamıyla	-9.92138
▁dokuz	-9.92207
▁hız	-9.92256
iyorlar	-9.92331
▁Y	-9.92376
▁adet	-9.92429
▁gönder	-9.92429
▁terk	-9.92455
▁sandalye	-9.92508
▁tıbbi	-9.9253
lanması	-9.92537
yum	-9.92662
▁ihtiyacınız	-9.92733
▁seks	-9.92748
pi	-9.92795
▁karşılık	-9.92832
▁Uzun	-9.93001
▁duvar	-9.93011
ık	-9.93012
▁ada	-9.93036
▁atom	-9.9304
▁2000	-9.93069
▁gösterir	-9.93104
▁yazar	-9.93135
▁kişiye	-9.93238
▁tehlike	-9.9325
▁gittikç	-9.93293
lerim	-9.9341
▁farkı	-9.93415
▁ən	-9.93458
▁değeri	-9.93466
▁yolda	-9.93471
▁kitle	-9.9355
▁ters	-9.93638
▁Mi	-9.93648
lardaki	-9.93652
▁dolarlık	-9.937
▁kuş	-9.93709
▁Önce	-9.93821
▁dişi	-9.9385
▁ulaşmak	-9.93857
▁olmaması	-9.9394
mesini	-9.93985
▁bilir	-9.93985
ren	-9.93989
▁mağara	-9.94009
▁olaraq	-9.94012
▁mesafe	-9.94072
▁ü	-9.94094
▁ma	-9.9416
▁büyüdü	-9.94184
▁olanak	-9.94227
do	-9.94236
▁duy	-9.9425
▁taki	-9.94294
▁edə	-9.94387
▁düşündü	-9.94391
▁V	-9.94402
miştim	-9.94423
▁necə	-9.94581
▁evin	-9.94654
▁bölgede	-9.94869
▁Ku	-9.94882
şi	-9.94888
▁yerden	-9.94897
▁sorunlar	-9.94929
▁gördü	-9.94933
▁misin	-9.94982
▁uçak	-9.95011
▁serbest	-9.95031
▁kalıyor	-9.95093
▁hissetme	-9.95098
şe	-9.95134
▁arzu	-9.95147
▁sıkı	-9.95201
▁reklam	-9.95208
▁kendilerine	-9.95234
▁birleştir	-9.95267
▁kimin	-9.95285
▁potansiyel	-9.95363
▁kurmak	-9.95398
▁Li	-9.95506
lıq	-9.95526
▁Tekrar	-9.95547
▁sermaye	-9.95547
▁Irak	-9.95558
▁yerini	-9.95571
▁uzakta	-9.95602
▁tablo	-9.95607
tık	-9.95614
▁görüyorum	-9.95615
▁dalga	-9.9564
▁yerlere	-9.9578
▁ülkelerin	-9.95786
▁bakım	-9.95804
▁kullanımı	-9.95813
▁özgür	-9.95912
▁yetişkin	-9.95971
▁Kar	-9.96049
leniyor	-9.96088
▁gönüllü	-9.96108
▁şehri	-9.96109
▁Anne	-9.96123
▁kıta	-9.96145
▁sert	-9.96162
▁denen	-9.96183
▁uyum	-9.96193
▁dili	-9.96207
if	-9.96212
dıkları	-9.96214
▁etmək	-9.96237
larsa	-9.96295
W	-9.96402
▁bahçe	-9.96446
▁içi	-9.96479
▁topluluk	-9.96526
▁Facebook	-9.96586
▁sarı	-9.96597
yoruz	-9.96606
▁kayıp	-9.96629
▁ulusal	-9.96635
▁getirme	-9.96649
▁düşünüyoruz	-9.9668
▁gurur	-9.9668
▁açtı	-9.96715
▁edersiniz	-9.9673
▁ata	-9.96743
▁bilgileri	-9.9675
▁askeri	-9.96755
ster	-9.96768
▁adamları	-9.96825
▁yazma	-9.96918
▁arı	-9.96959
▁hikayesi	-9.97044
lenmesi	-9.97046
▁yakıt	-9.97069
▁re	-9.97071
cek	-9.97083
▁parçalar	-9.97174
ılır	-9.97182
▁Ses	-9.97291
▁olabileceği	-9.97301
ımızı	-9.97325
▁bulun	-9.97329
▁bit	-9.97424
▁şiir	-9.97479
acağı	-9.97501
▁değişikliği	-9.97601
▁tavsiye	-9.97636
▁performans	-9.97725
▁karakter	-9.97745
lamak	-9.9777
▁kendinizi	-9.97774
▁robotlar	-9.97866
▁çılgın	-9.97987
imin	-9.98027
▁ihtimalle	-9.98068
▁çekme	-9.98077
abileceği	-9.98095
▁berbat	-9.98165
▁İsrail	-9.98165
▁etmesi	-9.98206
▁olursak	-9.98229
▁Yaklaşı	-9.98261
▁istediğiniz	-9.98356
▁kriz	-9.98366
▁olacaktı	-9.98373
▁elinde	-9.98397
▁kedi	-9.98398
▁biyo	-9.98419
▁imkan	-9.98445
▁anahtar	-9.98575
▁dizayn	-9.98647
iyet	-9.98666
▁oksijen	-9.98697
▁ticari	-9.98697
▁zevk	-9.98697
▁Üçüncü	-9.98697
nə	-9.98814
lendi	-9.98818
sidir	-9.98826
▁ihtiyacım	-9.9893
▁lerde	-9.98966
ılması	-9.99056
lerdeki	-9.99076
▁karşıya	-9.99085
▁bilmiyor	-9.99224
▁sivil	-9.99234
▁Biliyorsunuz	-9.99283
▁yorum	-9.99373
▁endüstri	-9.99379
▁bol	-9.99526
▁uydu	-9.9955
amaz	-9.99762
O	-9.99769
▁Brezilya	-9.99769
▁degil	-9.99792
▁başlangıç	-9.99818
▁dile	-9.99955
▁düş	-9.99984
larımı	-10.0002
▁inanç	-10.0008
▁benden	-10.0008
▁İkincisi	-10.0013
▁ba	-10.0015
malısınız	-10.0016
▁ettiğini	-10.0017
▁mahalle	-10.0026
▁değişiklik	-10.0027
▁araçları	-10.003
▁talep	-10.0031
▁yaratıyor	-10.0034
▁dayalı	-10.0035
▁evrensel	-10.0035
▁Ay	-10.0036
abilen	-10.0038
▁yumurta	-10.004
▁Dedi	-10.0043
▁So	-10.0049
▁bulunma	-10.0049
▁çalıştığı	-10.0052
▁başlayan	-10.0059
▁ihtiyaçları	-10.0071
▁durma	-10.0075
▁hastalıklar	-10.0078
▁sıvı	-10.0086
▁kültüre	-10.0094
▁gelebilir	-10.0097
sen	-10.0098
▁girme	-10.0102
▁olduğunuzu	-10.0108
▁yapılması	-10.0111
▁gibiydi	-10.0125
▁yazık	-10.0126
▁daire	-10.0129
▁hassas	-10.0131
▁meydan	-10.0136
▁Şunu	-10.0137
▁Sağ	-10.014
▁hafıza	-10.014
j	-10.0143
▁oluşturan	-10.0146
▁koyar	-10.0147
▁eminim	-10.0151
▁yolla	-10.0158
makta	-10.0158
ışı	-10.0162
▁nadir	-10.0162
▁kaynakları	-10.0162
▁güney	-10.0166
▁marka	-10.0169
layarak	-10.0171
▁herkese	-10.0172
▁ağı	-10.0177
▁kurtar	-10.0178
tım	-10.0191
▁miydi	-10.0195
▁istiyorsanız	-10.0201
▁edilmesi	-10.0208
yseniz	-10.0215
▁imkanı	-10.0217
▁ameliyat	-10.0229
nızın	-10.0231
▁kır	-10.0233
▁bar	-10.0239
▁kullanım	-10.0239
▁çalıştık	-10.0241
▁kahve	-10.025
▁Yalnız	-10.025
▁bağış	-10.0251
▁fiyat	-10.0254
▁filmi	-10.0255
▁Kimse	-10.0258
▁aksine	-10.026
▁alarak	-10.0265
▁yemeği	-10.0265
▁giriyor	-10.0266
▁servis	-10.0268
▁eylem	-10.0276
▁yoluyla	-10.0282
▁yapabiliyor	-10.0283
▁kurallar	-10.0283
▁çalışmalar	-10.0292
▁deniyor	-10.0292
▁alabilir	-10.0293
▁dön	-10.0303
▁heç	-10.0307
▁elektronik	-10.0307
▁uyar	-10.0312
lma	-10.0313
▁kadının	-10.0314
▁edilebilir	-10.0318
leyen	-10.0325
▁ismi	-10.0329
▁çocuklara	-10.0336
▁Vi	-10.0336
▁hareketi	-10.0342
▁karşılaştır	-10.0342
▁ortam	-10.0343
▁diğeri	-10.0354
▁arkadaşları	-10.0356
▁keşif	-10.036
▁AIDS	-10.0362
▁kredi	-10.0362
▁çatışma	-10.0362
▁çıkardı	-10.0365
▁toplumsal	-10.0367
▁isterseniz	-10.037
cü	-10.0379
rek	-10.0381
▁Co	-10.0381
mdan	-10.0385
▁dedik	-10.0393
▁Hava	-10.0394
▁arkadaşlarım	-10.0402
▁sonrası	-10.0405
▁özelliği	-10.041
▁Biri	-10.041
▁öğrendik	-10.0418
mekte	-10.0419
▁fikrini	-10.042
▁gruplar	-10.0421
▁grubu	-10.0428
▁durumunda	-10.0431
▁hastane	-10.0435
▁eğitimi	-10.0437
▁sahiptir	-10.0439
▁dönemde	-10.0445
▁değişti	-10.0447
▁türden	-10.0448
▁Ga	-10.0448
▁kes	-10.0453
ydım	-10.0462
▁laboratuvar	-10.0462
▁kendisini	-10.0464
▁öte	-10.0471
▁müdahale	-10.0474
▁gerçekleştir	-10.0479
▁zamanlı	-10.048
▁Kenya	-10.0482
▁beden	-10.0484
▁Almanya	-10.0489
▁kopya	-10.0492
▁kemik	-10.0498
▁almış	-10.0504
▁sorunun	-10.0509
▁patlama	-10.0512
▁kendileri	-10.0516
▁Sizi	-10.0519
▁sistemler	-10.0522
▁Çocuklar	-10.0523
▁yaşamın	-10.0524
▁olmasının	-10.054
▁birinde	-10.0541
▁giy	-10.055
▁oluşturuyor	-10.0557
▁ödül	-10.0559
▁işim	-10.0559
▁anladım	-10.0562
▁Pek	-10.0566
▁bırakma	-10.0576
▁barış	-10.058
▁Yaşam	-10.0583
▁koyuyor	-10.0586
▁alternatif	-10.0588
▁bütçe	-10.0588
▁düzgün	-10.0589
lin	-10.0605
▁çık	-10.0616
mer	-10.0617
▁kişiyi	-10.0622
qu	-10.0624
▁arta	-10.0631
▁ahlaki	-10.0642
▁bende	-10.0647
▁aktivite	-10.0647
▁tutmak	-10.0654
▁Japonya	-10.0656
ore	-10.0663
▁Dünyada	-10.0665
▁hâle	-10.0668
▁nedeniyle	-10.0669
▁bahsediyor	-10.067
lerimi	-10.0674
kları	-10.0676
▁yapması	-10.0677
▁bomba	-10.0689
sta	-10.0693
▁durumun	-10.0696
▁getirir	-10.07
▁mercan	-10.0713
▁söylüyorum	-10.0715
▁getiren	-10.0718
▁peki	-10.072
▁ederken	-10.0722
yon	-10.0722
kça	-10.0729
ebileceği	-10.0732
diğiniz	-10.0732
▁oluşturma	-10.0733
▁oluşturur	-10.0733
▁engelli	-10.074
▁gelişim	-10.074
▁konuşmaya	-10.0753
▁hukuk	-10.0761
▁anlatma	-10.0761
▁popüler	-10.0762
▁uzman	-10.0763
umuz	-10.0765
▁hikayeyi	-10.0769
▁Özellikle	-10.0772
▁yaptıklarını	-10.0775
▁Kız	-10.0777
▁pencere	-10.0777
▁konuyu	-10.0778
▁yanıt	-10.0785
▁tarafında	-10.0787
▁döndü	-10.0788
▁davran	-10.0788
▁organ	-10.0789
isi	-10.0792
▁av	-10.0794
▁vakit	-10.082
▁devasa	-10.0822
▁Ulusa	-10.0823
▁dolara	-10.0824
ad	-10.0827
▁tak	-10.0838
▁sistemin	-10.0838
▁sürece	-10.0839
op	-10.084
▁oranda	-10.0844
▁atmosfer	-10.0848
şa	-10.0857
▁An	-10.0858
▁seri	-10.0859
▁anlamlı	-10.086
▁istediği	-10.0865
▁söyler	-10.0867
▁deyişle	-10.0868
▁müze	-10.087
sü	-10.0872
▁ni	-10.0878
▁profesyonel	-10.0879
▁psikoloji	-10.0879
▁♪	-10.0879
▁radikal	-10.0879
▁kalmış	-10.0882
▁baktığınızda	-10.0886
▁olası	-10.0887
▁dünyasında	-10.0896
▁Ə	-10.0908
▁dik	-10.0918
▁şansı	-10.0923
▁çalışması	-10.0924
olog	-10.0927
▁tə	-10.0931
▁düzen	-10.0932
▁alanları	-10.0937
▁fizik	-10.0937
▁Amma	-10.0938
▁arkadaşı	-10.0944
▁alalım	-10.0945
▁sınırlı	-10.095
▁kurdu	-10.0953
▁verdiler	-10.0955
▁Yer	-10.0961
▁haklı	-10.0966
▁gezegende	-10.0966
▁yenilik	-10.0968
▁söyle	-10.0968
ilebilir	-10.0978
▁bizimle	-10.0984
▁kulağ	-10.0988
▁ulus	-10.0993
▁oluştur	-10.0993
▁Genç	-10.0998
▁finansal	-10.0999
▁denedi	-10.1001
▁kullanıl	-10.1003
▁yönelik	-10.1005
▁kum	-10.1007
▁koyma	-10.101
▁birinci	-10.1013
▁bildiği	-10.1013
▁Yo	-10.1016
▁fikrim	-10.1017
▁ölçü	-10.1017
layıcı	-10.1023
▁sağlama	-10.1028
▁Hayat	-10.1038
ime	-10.105
▁iste	-10.1052
▁boyu	-10.1055
▁rastgele	-10.1058
▁isimli	-10.1058
▁sıtma	-10.106
▁zihinsel	-10.1061
▁baktığımızda	-10.1064
▁saf	-10.109
▁şehirler	-10.1096
▁hepiniz	-10.1097
▁sonucunda	-10.11
▁banka	-10.1105
▁sürdü	-10.1107
ut	-10.111
▁kendiniz	-10.1112
▁kendimize	-10.1115
▁yapacağım	-10.1116
▁klinik	-10.1118
▁vahşi	-10.1118
▁koloni	-10.112
▁adamlar	-10.1128
▁verdiğimiz	-10.113
▁Bizler	-10.113
▁etmiyor	-10.1135
▁köy	-10.1147
izm	-10.1148
▁his	-10.1151
▁seçme	-10.1152
▁kaçır	-10.1153
▁çevir	-10.1154
▁çekmek	-10.1154
▁le	-10.1154
▁Be	-10.1158
▁yapabileceğimiz	-10.1167
▁çözmek	-10.1172
▁vergi	-10.1181
▁olmasa	-10.1183
▁içeren	-10.1185
▁bildiğiniz	-10.1187
▁odada	-10.119
▁Para	-10.1194
▁yaşadığımız	-10.1196
▁seviyede	-10.1196
▁yön	-10.12
▁insanlık	-10.1201
▁Bay	-10.1203
ama	-10.1211
▁üçte	-10.1214
▁metal	-10.1217
ırsınız	-10.122
iği	-10.1224
▁önemi	-10.1225
▁ku	-10.1227
▁başlamak	-10.123
▁ekip	-10.1233
▁paylaşma	-10.1234
lıyoruz	-10.1234
▁yalan	-10.1235
▁əvvəl	-10.1239
▁milyarlarca	-10.1243
▁olayı	-10.1245
▁Genel	-10.1246
▁Neyse	-10.1247
▁kuvvet	-10.1255
▁Öncelikle	-10.1257
lerse	-10.1257
▁düştü	-10.1267
lerindeki	-10.1272
ite	-10.1272
▁parayı	-10.1275
▁çalıştığını	-10.1278
▁bilimi	-10.1278
▁yıllarda	-10.128
▁bilgisayarlar	-10.1285
▁sürede	-10.1286
▁konuya	-10.1293
▁okulda	-10.1293
▁ci	-10.1294
▁fosil	-10.1301
▁vaxt	-10.1301
▁çağrı	-10.1301
▁hissediyorum	-10.1304
▁bizden	-10.1304
▁Yakın	-10.1304
▁hayatlarını	-10.1305
▁diyelim	-10.1306
▁itibar	-10.1307
▁diş	-10.1307
liyiz	-10.1307
▁tatlı	-10.131
lerinizi	-10.1311
▁günümüzde	-10.1318
▁yazdı	-10.1319
mamız	-10.132
▁Ar	-10.1321
▁gördüğüm	-10.1328
▁tanıma	-10.1328
▁Za	-10.133
▁yaşamı	-10.1338
▁tamamı	-10.134
▁gözüküyor	-10.1346
larım	-10.1351
▁düşündüğümüz	-10.1353
▁Eğitim	-10.1362
▁maruz	-10.1365
▁kilit	-10.1378
▁aşk	-10.1378
▁maliyeti	-10.1379
▁ederiz	-10.138
▁dönüşüm	-10.1384
▁toplu	-10.1384
▁eğri	-10.1389
▁havada	-10.1393
larınızı	-10.1394
▁ayar	-10.1395
▁Kendisi	-10.1401
▁organizasyon	-10.1413
ümüz	-10.1415
▁makinesi	-10.1419
▁şişe	-10.1424
▁uyku	-10.1427
▁birbirlerine	-10.1439
▁yenilikçi	-10.1441
▁etmemiz	-10.1443
▁kelimeler	-10.1444
▁zamandır	-10.1444
▁olabilirdi	-10.1447
▁sözü	-10.1448
nızda	-10.1448
ıyorlar	-10.1448
diklerini	-10.1449
▁bunlara	-10.1456
▁bahsettiğim	-10.1472
▁yaptığınız	-10.1476
▁resimler	-10.1476
▁Doğa	-10.1481
▁acil	-10.1483
▁zamanla	-10.1486
▁blog	-10.1487
▁başqa	-10.1487
▁Paul	-10.1488
▁Allah	-10.1488
▁civarında	-10.1495
▁Araştırma	-10.1495
iliyor	-10.1496
▁bakıma	-10.1498
▁çalışırken	-10.1498
▁etkin	-10.1506
▁kimya	-10.1513
▁görevi	-10.1516
uyor	-10.1518
gun	-10.1519
▁ısınma	-10.1531
▁geliyordu	-10.1537
▁kullandığı	-10.1539
▁yaşadığı	-10.1546
▁as	-10.1548
▁Twitter	-10.155
▁diz	-10.1552
▁sağlayabilir	-10.1553
mək	-10.1557
▁hissed	-10.1559
▁söyleyen	-10.156
▁fırsatı	-10.1562
▁yapılıyor	-10.1568
ldukça	-10.1568
▁400	-10.157
larındaki	-10.157
▁düşme	-10.1571
yordu	-10.1571
▁aklım	-10.1581
▁olmanız	-10.1583
▁Kadın	-10.1586
▁adalet	-10.1586
malı	-10.159
▁söyley	-10.1594
▁kur	-10.1598
ic	-10.16
▁Bilgisayar	-10.1606
Y	-10.1609
▁öğrenciler	-10.1612
▁uyuşturucu	-10.1613
▁Değil	-10.1613
▁Uzay	-10.1613
▁alıcı	-10.1617
▁Sorun	-10.1622
abileceğimiz	-10.1623
lenen	-10.1631
▁bakıyor	-10.1644
aj	-10.1645
▁takımı	-10.1655
▁vaka	-10.1657
▁merkezinde	-10.166
mis	-10.1662
0	-10.1665
▁Annem	-10.1667
nce	-10.1668
▁grafik	-10.167
▁dürüst	-10.1675
▁Kesinlikle	-10.1677
▁teklif	-10.1677
▁karışık	-10.1678
ınız	-10.1681
▁Sağlık	-10.1689
▁taşıyor	-10.1691
▁sağlam	-10.1691
▁yeteneği	-10.1692
▁zamana	-10.1695
▁örnekler	-10.1695
▁kart	-10.1702
▁nöron	-10.1716
▁dönme	-10.1734
▁yöntemi	-10.1735
▁not	-10.174
▁felaket	-10.1741
larımızda	-10.1745
▁yaşındayken	-10.1746
▁salgın	-10.1746
▁bilmiyoruz	-10.1751
▁kaba	-10.1753
leşti	-10.1758
maz	-10.1762
▁toplama	-10.1765
▁rapor	-10.1783
▁birer	-10.1787
▁geliştirmek	-10.1794
cılar	-10.1796
▁Bi	-10.1798
▁kullanmaya	-10.1801
▁miktarı	-10.1803
▁yüzyılın	-10.1805
▁denilen	-10.181
▁içerik	-10.181
▁kıyı	-10.1816
▁domuz	-10.182
▁çeken	-10.1821
▁hayvanların	-10.1826
▁olmasıdır	-10.1832
▁manzara	-10.1835
▁makina	-10.1836
▁ibaret	-10.1847
▁geliştir	-10.1853
eceği	-10.1855
ebileceğimiz	-10.1855
tta	-10.1861
▁rekabet	-10.1862
▁sıklıkla	-10.1864
▁isteme	-10.1865
▁üstün	-10.1867
İ	-10.1868
posta	-10.187
▁öğle	-10.187
▁olmuyor	-10.1878
lemek	-10.1881
▁basitçe	-10.1881
▁olmuştur	-10.189
▁saatte	-10.1892
▁kızı	-10.1893
▁çiftçi	-10.1894
▁alıyoruz	-10.1897
id	-10.1904
▁Lo	-10.1908
▁düşman	-10.1923
▁bireyler	-10.1925
▁oluşuyor	-10.1925
▁dergi	-10.1926
laştı	-10.1927
▁sat	-10.1929
▁çoğunuz	-10.1932
▁sebeple	-10.1933
▁trilyon	-10.1935
▁olumlu	-10.1936
▁idare	-10.1936
▁Basit	-10.1937
▁be	-10.194
▁sıkıcı	-10.1942
▁bekleme	-10.1944
▁gelince	-10.1946
▁duran	-10.1949
▁değerlendir	-10.1956
▁katman	-10.1961
▁Ön	-10.1967
ft	-10.197
▁ko	-10.1975
▁ücret	-10.1982
▁ö	-10.1988
▁aldığı	-10.1989
met	-10.1995
ılıyor	-10.1997
▁hastalar	-10.1997
üyor	-10.1998
▁kritik	-10.2002
▁ziyade	-10.2002
▁Umarı	-10.2002
▁Kaliforniya	-10.2002
▁etkileyici	-10.2003
▁saç	-10.2006
▁Farklı	-10.2011
▁doğu	-10.2017
▁Muhtemel	-10.2021
▁çözümler	-10.2028
▁değiş	-10.2029
▁Man	-10.2032
▁Hey	-10.2033
▁sizler	-10.2036
▁dayan	-10.2036
▁yaşay	-10.2049
▁planı	-10.2053
▁üret	-10.2056
▁galaksi	-10.2058
▁ayır	-10.2062
▁lider	-10.2062
▁köprü	-10.2068
▁Ülke	-10.2068
▁kutsal	-10.2068
▁nihayet	-10.2068
▁şirketlerin	-10.2068
▁otomatik	-10.2068
▁istifadə	-10.2068
▁aracılığıyla	-10.207
▁sakin	-10.207
▁taşı	-10.2074
▁fabrika	-10.2075
ünün	-10.208
emez	-10.208
▁değiştiriyor	-10.2085
ib	-10.2085
▁başlıyoruz	-10.2087
▁beslenme	-10.209
▁kişilik	-10.2095
▁anlatacağım	-10.2099
▁buradan	-10.21
▁geçmişte	-10.2106
▁zordur	-10.2107
▁yapmıyor	-10.2115
▁kuzey	-10.2118
▁seçenek	-10.2119
▁Savaşı	-10.212
leriniz	-10.2124
▁tuvalet	-10.2124
▁anlaşma	-10.2125
madan	-10.2126
▁oran	-10.2126
▁başı	-10.213
▁şifre	-10.2135
▁müşteri	-10.2136
▁kocaman	-10.2136
▁günün	-10.2137
▁kazandı	-10.2146
ğu	-10.2152
▁konferans	-10.2152
sunu	-10.2154
▁fa	-10.2157
▁falan	-10.2164
▁şüphe	-10.2165
▁biliyordum	-10.2165
▁tutar	-10.2167
▁indir	-10.217
▁yolunda	-10.2171
▁Po	-10.2179
▁çalışmaları	-10.218
▁yazdım	-10.2187
▁yapıp	-10.219
seydi	-10.2194
▁Küresel	-10.2197
ram	-10.2198
▁izleme	-10.22
▁merhamet	-10.2202
▁oyuncak	-10.2204
▁bireysel	-10.2204
▁güvenilir	-10.2205
▁ahlak	-10.2207
ası	-10.2209
nüz	-10.2212
▁savunma	-10.2214
▁vereceğim	-10.2222
▁özgü	-10.2224
▁beceri	-10.223
▁geçer	-10.2232
▁fayda	-10.2237
▁tren	-10.2239
▁tasarımı	-10.224
▁kuralları	-10.2241
▁teknolojisi	-10.2242
▁baktım	-10.2244
oz	-10.2246
▁istedikleri	-10.2248
▁olaylar	-10.2252
▁düzenleme	-10.2252
▁bitkiler	-10.2253
dınız	-10.2255
▁öne	-10.2257
dığında	-10.2264
▁ederler	-10.2268
▁kör	-10.2268
▁şok	-10.2269
▁patent	-10.2269
▁başlayalım	-10.227
luyor	-10.2272
▁söyleyebilirim	-10.2273
▁Zaman	-10.2276
▁ürünleri	-10.2277
hu	-10.2277
ysanız	-10.2279
▁ayında	-10.228
▁tarzı	-10.2288
▁sormak	-10.229
▁diyorlar	-10.229
▁olamaz	-10.2291
▁yönde	-10.2293
▁ideal	-10.2294
▁cesaret	-10.2295
ss	-10.2295
▁c	-10.2296
▁hastalığın	-10.2299
▁eseri	-10.23
▁zemin	-10.2301
ğe	-10.2303
▁zamanında	-10.2304
▁yapılar	-10.2309
▁dönüştü	-10.231
ladı	-10.2311
▁dünyası	-10.2312
▁şefkat	-10.2312
▁kullanıcı	-10.2319
ilir	-10.2323
▁anlatıyor	-10.2327
▁daim	-10.2328
bə	-10.2328
▁şehirde	-10.2328
hr	-10.2331
mden	-10.2338
▁bahsedeceğim	-10.234
mle	-10.2342
ağı	-10.2342
▁çoğunluğu	-10.2342
▁göçmen	-10.2342
▁ırk	-10.2346
miyorum	-10.2347
▁böcek	-10.235
▁duydum	-10.2352
▁tersine	-10.2353
▁işletme	-10.2355
▁söylediğim	-10.2355
▁Ke	-10.2357
mıştır	-10.2359
▁mənim	-10.2361
▁kontrolü	-10.2363
▁yolları	-10.2368
▁Gör	-10.2372
▁Sal	-10.2376
▁neyi	-10.238
▁altındaki	-10.2387
▁özellikleri	-10.2391
tür	-10.2393
yacağım	-10.2393
▁bulundu	-10.2393
▁hikayesini	-10.2393
▁bağımlı	-10.2405
▁blok	-10.2406
▁otur	-10.2406
▁şa	-10.2412
▁hissettim	-10.242
▁eksik	-10.2422
▁olacağız	-10.243
▁katkı	-10.2437
▁geçirdim	-10.2441
▁ailem	-10.2442
▁kalır	-10.2444
▁etrafta	-10.245
▁biriydi	-10.2452
▁aylık	-10.2452
düşünebilirsiniz	-10.2459
▁yaka	-10.2459
▁konuşmayı	-10.2464
▁üretmek	-10.2464
▁tü	-10.2466
he	-10.2467
▁hareketleri	-10.2471
▁George	-10.2475
▁Araba	-10.2476
▁bulur	-10.2477
▁İşin	-10.2479
▁Arap	-10.2482
▁tutma	-10.2482
dışı	-10.2486
▁döngü	-10.2486
ğin	-10.2486
▁diğerleri	-10.2494
▁sahipler	-10.2495
▁aldığımız	-10.2496
▁moda	-10.2503
▁yasal	-10.2503
▁değişiklikler	-10.2508
mıyoruz	-10.251
▁kolayca	-10.2516
▁ilaçlar	-10.2517
dığınız	-10.252
▁kapasite	-10.2527
▁eriş	-10.2529
▁liderlik	-10.253
lılar	-10.2533
▁oranında	-10.2538
▁Einstein	-10.2544
▁özgürlük	-10.2545
▁alanlarda	-10.2547
▁eğlence	-10.2548
▁düşündüğüm	-10.2554
▁benze	-10.2562
lendir	-10.2563
leyici	-10.2563
▁değerlendirme	-10.2566
▁Ni	-10.2575
nizde	-10.2577
▁duyar	-10.2584
▁fil	-10.2596
▁çatı	-10.2601
▁harcama	-10.2606
ll	-10.2611
V	-10.2613
▁yuva	-10.2613
▁Herhangi	-10.2614
▁organize	-10.2615
diğinde	-10.2616
▁organik	-10.2617
▁İslam	-10.2622
ırlar	-10.2629
▁Hala	-10.2629
▁görünmez	-10.2635
mayan	-10.2636
▁başkanı	-10.2647
▁gezegenin	-10.2656
▁deli	-10.2666
▁yaratır	-10.2667
▁həyat	-10.2673
▁dakikada	-10.2675
▁dokun	-10.2676
▁artıyor	-10.2676
▁iğne	-10.2684
▁Sanat	-10.2686
▁istemiyorum	-10.2688
▁bilər	-10.2691
▁krizi	-10.2693
▁199	-10.2695
tığını	-10.2695
▁başlangıcı	-10.2696
miyoruz	-10.2697
▁Sol	-10.2697
▁erkeklerin	-10.2697
▁dinle	-10.2697
▁yasak	-10.2703
▁Los	-10.2707
▁çıkarıyor	-10.2711
ıyordu	-10.2713
▁Ho	-10.2713
▁kariyer	-10.2714
▁taraf	-10.2715
▁he	-10.2721
▁oyuncu	-10.2723
▁kullanıyorlar	-10.2725
▁Pa	-10.2728
▁bağlantılı	-10.273
▁kulak	-10.273
▁koymak	-10.2734
▁açma	-10.2735
▁ürünler	-10.2737
abileceğini	-10.2738
ebilmek	-10.2738
▁baktı	-10.274
▁45	-10.274
▁kaynaklar	-10.2741
▁yarış	-10.2741
▁sokak	-10.2744
▁Göz	-10.2745
com	-10.2749
▁sar	-10.2753
▁sorma	-10.2753
▁Avustralya	-10.2755
▁Eylül	-10.2755
▁Sosyal	-10.2755
▁İnanılmaz	-10.2755
▁sıradışı	-10.2757
▁lise	-10.2763
▁Dan	-10.2764
▁alıntı	-10.2767
▁bugünkü	-10.2771
▁karınca	-10.2772
▁çal	-10.2779
dunuz	-10.278
▁koku	-10.2782
ince	-10.2783
▁eşi	-10.2786
▁hisseder	-10.2788
▁üstesinde	-10.2788
▁dini	-10.2791
▁indi	-10.2804
▁Az	-10.2808
▁çöz	-10.281
rak	-10.2813
▁Alman	-10.2814
▁teknolojiler	-10.282
▁seviyor	-10.2822
▁geldim	-10.2823
▁problemleri	-10.2824
▁ad	-10.2826
▁kalite	-10.2827
▁NASA	-10.2827
▁meşgul	-10.2827
▁otobüs	-10.2827
▁Mu	-10.283
▁sa	-10.2839
▁Kanada	-10.2848
▁ofis	-10.2851
▁19	-10.2857
▁gidecek	-10.2859
▁çağı	-10.286
▁izliyor	-10.286
▁As	-10.286
▁İç	-10.2862
▁oradaki	-10.2863
▁ola	-10.2865
▁günlerde	-10.2865
▁fon	-10.287
▁gösterdiği	-10.2877
▁siyahi	-10.2883
leyerek	-10.2889
▁köşe	-10.2895
▁ortamda	-10.2896
▁dinamik	-10.2899
▁kategori	-10.2899
▁görülen	-10.2899
▁umarım	-10.2899
▁Neredeyse	-10.2899
▁meslek	-10.2899
▁Times	-10.2901
▁Bilgi	-10.2907
▁söyledim	-10.2912
▁ekmek	-10.2915
▁renkli	-10.2916
▁maliyet	-10.292
▁20.	-10.292
▁Fi	-10.2926
▁bulut	-10.2927
▁düşünür	-10.2928
▁ölç	-10.293
▁Babam	-10.2932
ımda	-10.2932
▁kızlar	-10.2937
▁satış	-10.2946
▁düzeyde	-10.2947
▁olursanız	-10.295
▁zihin	-10.2963
▁kapat	-10.2968
▁istemez	-10.2968
▁Konuşma	-10.2968
▁sohbet	-10.2971
▁korkutucu	-10.2971
▁oturup	-10.2974
liğine	-10.2977
▁kullanabiliriz	-10.2979
▁kullanır	-10.2981
larınız	-10.2982
▁hızı	-10.2992
ıldığında	-10.2997
nuzu	-10.3005
rma	-10.3005
▁söylediler	-10.3006
▁haberler	-10.3007
▁tanıyor	-10.3011
tro	-10.3011
acaktır	-10.3015
▁Ja	-10.3016
▁yöne	-10.3018
▁150	-10.3023
▁Deniz	-10.3031
▁35	-10.3032
50	-10.3032
▁75	-10.3034
▁memnun	-10.3034
▁21	-10.3035
▁soy	-10.3041
▁Darwin	-10.3044
▁Afrikalı	-10.3048
▁Beyin	-10.3052
▁mühendislik	-10.3053
▁faydalı	-10.3057
▁uyan	-10.3058
▁tarif	-10.3058
▁düşen	-10.3058
▁yaşa	-10.3065
▁organizma	-10.3067
kinden	-10.3067
▁demokratik	-10.307
▁çeker	-10.3071
▁faaliyet	-10.3072
▁kampanya	-10.3072
▁olmam	-10.308
▁Pi	-10.3081
▁çerçeve	-10.3085
ot	-10.3086
▁sesini	-10.3087
lendirme	-10.309
▁onda	-10.3093
▁etkileri	-10.3093
▁bulduğumuz	-10.3094
PS	-10.31
▁Har	-10.3106
▁cesur	-10.3111
▁öğret	-10.3112
leştirme	-10.3113
rü	-10.3113
▁yox	-10.3115
▁görmüş	-10.3117
biriyle	-10.3118
▁hayret	-10.3118
▁yörünge	-10.3118
▁kaybı	-10.3118
▁polen	-10.3119
▁çalışıyorlar	-10.3119
▁testi	-10.3122
kta	-10.3123
▁ölme	-10.3123
▁taşıma	-10.3129
▁Beş	-10.3131
▁sunuyor	-10.3132
▁ilişkiler	-10.3133
▁farkettim	-10.3135
▁değiştiren	-10.3137
▁yaratan	-10.3139
▁görü	-10.314
▁ayakta	-10.3141
sən	-10.3146
▁işleme	-10.3146
▁tarihinde	-10.3149
▁basın	-10.315
▁imza	-10.3152
nd	-10.3154
▁yarattı	-10.3162
ciler	-10.3169
mizle	-10.3173
▁üz	-10.3173
▁yüzey	-10.3175
▁toz	-10.3179
▁teknolojik	-10.318
▁deneyimi	-10.3182
▁kamp	-10.3186
▁projesi	-10.3188
▁anlıyor	-10.3189
▁meyve	-10.3192
▁benzeyen	-10.3193
▁tasarlanmış	-10.3193
▁yerleri	-10.3194
▁bakan	-10.32
▁Bill	-10.3201
▁açıyor	-10.3201
mızdan	-10.3204
▁Biliyor	-10.3207
inizin	-10.321
kal	-10.3215
▁yay	-10.3216
▁kişilerin	-10.3216
▁azalt	-10.322
▁giri	-10.3221
▁zorlu	-10.3222
▁düşünüyordum	-10.3223
▁çiçek	-10.3236
▁temelde	-10.3236
▁ölçekte	-10.3238
▁Meksika	-10.3239
▁düşür	-10.324
▁şirketleri	-10.324
▁yerleştir	-10.3246
▁süreçte	-10.326
▁gezi	-10.326
har	-10.3261
▁Biliyoru	-10.3264
▁haqda	-10.3266
▁dolayısıyla	-10.327
▁görebiliriz	-10.3273
layın	-10.3273
▁21.	-10.3274
▁çıkarma	-10.3274
▁gelmişti	-10.3274
▁zorluk	-10.3276
▁mezun	-10.328
▁hizmeti	-10.3284
▁duruma	-10.3285
▁peşinde	-10.3288
▁sistemini	-10.3293
rı	-10.3298
▁babası	-10.3299
▁süren	-10.3304
▁öğrendiğim	-10.331
ana	-10.3313
▁düzenli	-10.3315
▁kullandık	-10.332
▁anlayış	-10.3321
ğında	-10.3323
▁bölgesinde	-10.3328
▁savaşı	-10.3334
▁durumlarda	-10.3336
▁şeylerle	-10.3337
likten	-10.3338
▁çekiyor	-10.3338
▁geçmek	-10.3338
▁geçiriyor	-10.3339
▁görmez	-10.3339
▁depresyon	-10.334
▁edilme	-10.3341
▁alışveriş	-10.3342
▁rüya	-10.3342
▁oyna	-10.3342
▁ettir	-10.3344
▁çöl	-10.3345
▁ter	-10.335
▁Sonuçta	-10.3351
▁geldik	-10.3357
▁üreme	-10.3358
▁ettikleri	-10.3362
▁dönüyor	-10.3363
manın	-10.3366
▁aktar	-10.3371
▁se	-10.3379
▁isterse	-10.3382
ac	-10.3387
▁gelmek	-10.3387
▁x	-10.3387
▁kok	-10.3389
ard	-10.3392
▁gidebilir	-10.3397
▁yaşın	-10.3397
lərini	-10.34
miştir	-10.3407
araya	-10.3407
▁Fransız	-10.3407
lim	-10.3407
ğü	-10.3408
▁ordu	-10.3408
landığı	-10.3409
▁çoktan	-10.3409
▁teknolojileri	-10.3411
▁hayatım	-10.3412
▁erişim	-10.3417
▁işle	-10.3417
▁mucize	-10.3417
▁şaka	-10.3418
▁Merkezi	-10.3423
▁ailesi	-10.3424
U	-10.3426
▁tanış	-10.3429
▁girişimci	-10.3436
▁bo	-10.3436
ımın	-10.3439
lerimizde	-10.3441
▁soruları	-10.3446
▁Fa	-10.345
▁ucunda	-10.3451
▁hücresi	-10.3458
▁bilinçli	-10.3458
▁protein	-10.3459
▁Rus	-10.3459
▁İran	-10.3461
▁kısmında	-10.3465
▁mesajı	-10.3465
▁biçim	-10.3466
▁yargı	-10.3476
▁ediyordu	-10.348
▁kolu	-10.3484
▁ardı	-10.3484
▁konum	-10.3485
için	-10.3488
▁sür	-10.3489
▁sahte	-10.3493
▁edelim	-10.3494
liyor	-10.3498
▁yapalım	-10.3498
larımıza	-10.3503
▁başlat	-10.3503
▁ölüyor	-10.3507
▁işçi	-10.351
▁tasarımcı	-10.3511
▁es	-10.3513
▁hiçbiri	-10.3521
▁Savaş	-10.3522
▁stres	-10.3522
▁noktalar	-10.3524
▁mekanizma	-10.3526
▁Gi	-10.3529
▁Günümüzde	-10.353
▁çabuk	-10.353
▁Si	-10.3534
▁teşhis	-10.3537
▁artır	-10.3537
▁do	-10.3539
▁Jam	-10.3539
▁projeler	-10.3545
▁To	-10.355
▁kıl	-10.355
▁öfke	-10.3554
han	-10.3556
▁tanımlama	-10.3557
▁görür	-10.3557
▁evi	-10.357
▁Richard	-10.3571
▁balon	-10.3573
▁mekanik	-10.3573
▁dediğim	-10.3579
▁çalışarak	-10.3579
▁kendim	-10.3581
▁sürüyor	-10.3581
▁kıyasla	-10.3588
▁üretiyor	-10.3589
▁açı	-10.3593
▁arttı	-10.3603
▁oluyorlar	-10.3606
▁İlki	-10.3609
oloji	-10.3617
▁elle	-10.362
▁Aile	-10.3621
ımızın	-10.3629
ğını	-10.3631
▁Ze	-10.3632
▁Soru	-10.3639
▁aptal	-10.3641
▁diğerine	-10.3643
▁ağrı	-10.3647
▁gölge	-10.3649
▁Anders	-10.3651
▁yapın	-10.3651
▁göç	-10.3653
▁bıraktı	-10.3654
▁tahta	-10.3658
▁düşünen	-10.3663
▁arabalar	-10.3665
▁bilin	-10.3668
▁keşfed	-10.3669
▁harca	-10.3678
▁getirdiği	-10.3679
yecek	-10.3685
▁kalmak	-10.3686
▁Açık	-10.3691
▁sınırları	-10.3692
▁yarattığı	-10.3696
▁Cha	-10.3698
▁delik	-10.3698
▁toplumda	-10.3703
▁döndüm	-10.3705
▁götürdü	-10.3717
▁detay	-10.3718
ırken	-10.3725
▁ediyorsunuz	-10.3725
▁karikatür	-10.3726
▁MIT	-10.3726
▁prototip	-10.3726
▁kırsal	-10.3729
▁firma	-10.373
ınca	-10.3734
▁çalışmayı	-10.3736
▁tümör	-10.3738
▁um	-10.3739
yalım	-10.3739
▁platform	-10.3743
▁yardımı	-10.3745
▁katkıda	-10.3747
nuz	-10.3749
▁sonuçta	-10.375
▁Toplum	-10.3752
ılabilir	-10.3753
tör	-10.3754
▁kendimiz	-10.3755
▁ser	-10.3757
▁edeceğim	-10.3764
▁oynat	-10.3767
▁balina	-10.377
▁takdir	-10.3773
▁yoksul	-10.3776
▁Jo	-10.3782
▁depo	-10.3786
▁gelin	-10.3787
▁Nijerya	-10.3788
▁edilir	-10.3789
▁düşüyor	-10.379
▁komşu	-10.3793
▁kullanabilir	-10.3794
▁kahraman	-10.3796
▁heykel	-10.38
uantum	-10.3804
▁paket	-10.3804
likte	-10.3804
▁kütüphane	-10.3805
▁pozitif	-10.3805
▁bedava	-10.3805
▁macera	-10.3805
▁tanıştım	-10.3806
▁TV	-10.3807
▁birbirleriyle	-10.3807
fer	-10.3808
▁ağaçlar	-10.3817
▁Te	-10.3818
▁yarışma	-10.3823
dıklarını	-10.3824
▁Okul	-10.3829
▁sanayi	-10.383
▁atık	-10.3832
▁kurumlar	-10.3833
▁oluşur	-10.3835
od	-10.3836
ıldığı	-10.3837
▁oyunları	-10.3838
▁cihazı	-10.3838
▁bilgiler	-10.3843
▁üretme	-10.3844
▁algılama	-10.3847
ov	-10.3849
▁sorumluluk	-10.385
▁bırakmak	-10.3854
memiz	-10.3855
▁oturuyor	-10.3862
▁yaklaş	-10.3867
ks	-10.3867
▁Ana	-10.3869
dığınızda	-10.387
▁kalacak	-10.3871
▁söyleyebilir	-10.3871
▁uğraş	-10.3873
▁Hasta	-10.3874
▁konuşacağım	-10.3876
▁ceza	-10.3877
▁doktora	-10.388
▁gibidir	-10.3881
▁Mısır	-10.3883
▁Washington	-10.3884
▁Yüksek	-10.3884
▁mutlak	-10.3884
▁sigara	-10.3884
▁Fransa	-10.3885
amayacak	-10.3891
▁eşsiz	-10.3891
▁dün	-10.3892
▁okur	-10.3892
▁değişiyor	-10.3894
▁edebiliyor	-10.3905
▁anında	-10.391
▁sizden	-10.3914
mez	-10.3915
▁ihtimali	-10.392
▁Ri	-10.392
▁tipik	-10.3923
▁mekan	-10.393
▁hə	-10.3931
▁gösterdiğim	-10.3932
▁anlattı	-10.3933
▁gördüğü	-10.3934
▁bölgelerde	-10.3943
ara	-10.3944
▁yapmanız	-10.3947
▁Hu	-10.3949
▁bırakıyor	-10.3953
▁kablo	-10.3956
▁gitmeye	-10.3956
▁ulaşma	-10.3958
▁çalıştı	-10.3961
▁Ak	-10.3961
▁dehşet	-10.3964
▁restoran	-10.3964
▁cadde	-10.3964
▁2008	-10.3966
▁kilise	-10.3967
▁okulu	-10.397
▁bilərsiniz	-10.397
▁çözme	-10.3971
arı	-10.3971
▁bahsediyorum	-10.3973
▁tatil	-10.3977
▁diyordu	-10.398
▁kahkahalar	-10.3982
ff	-10.3983
▁soyut	-10.3994
▁Müslüman	-10.3995
▁larda	-10.3996
▁konuşan	-10.3997
▁ayna	-10.3998
▁sorduk	-10.4
riyi	-10.4003
▁saçma	-10.4005
syon	-10.4007
▁insani	-10.4008
▁malzemeler	-10.4012
▁onay	-10.4014
▁bakacak	-10.4016
ğım	-10.4021
madı	-10.4022
▁canlandır	-10.4023
▁ekoloji	-10.4023
▁oluyordu	-10.4027
▁deneyler	-10.4029
▁Adı	-10.4031
▁topluluğu	-10.4031
▁Bizi	-10.4035
▁içe	-10.4042
▁Harvard	-10.4045
▁kömür	-10.4045
▁iyisini	-10.4047
▁çıkış	-10.405
▁inanma	-10.4052
▁biçimi	-10.4052
▁şeyle	-10.4057
▁trafik	-10.4057
▁iyidir	-10.4062
▁bilmiyordum	-10.4065
▁Sonrasında	-10.4065
▁22	-10.4067
▁çekti	-10.4073
▁duyarlı	-10.4074
▁bilinç	-10.4082
▁1000	-10.409
▁vermiş	-10.4092
▁Tıp	-10.4098
▁tamir	-10.4099
▁özellikler	-10.4103
▁çıkmış	-10.4104
▁kısaca	-10.4117
▁İlginç	-10.4126
▁tutuyor	-10.4127
▁Oh	-10.4129
▁etmenin	-10.4136
lamaya	-10.4138
▁sistemimiz	-10.4146
ris	-10.4151
▁ulaşım	-10.4154
▁savaşın	-10.4157
▁unutma	-10.4159
▁uça	-10.416
▁birbirimize	-10.4162
▁büyü	-10.4164
▁asker	-10.417
▁biridir	-10.4173
▁başar	-10.4178
▁zorundasınız	-10.4181
▁kütle	-10.4184
▁durdur	-10.4184
▁Tom	-10.419
▁değişken	-10.4206
amazsınız	-10.4208
▁Hikaye	-10.4208
▁Angeles	-10.4209
▁olabiliriz	-10.421
▁büyüyen	-10.4211
▁görürüz	-10.4213
▁kültürü	-10.4213
▁geçirmek	-10.4217
meyecek	-10.4217
sizlik	-10.4218
▁öykü	-10.4224
▁internette	-10.4224
▁riski	-10.4227
▁bakteriler	-10.4229
▁bilimin	-10.4233
▁hasar	-10.4234
▁gittiğini	-10.4235
ırdı	-10.4236
▁zamanın	-10.4239
mesine	-10.424
▁sona	-10.424
▁miyim	-10.4244
tif	-10.4249
▁yararlı	-10.425
▁maymun	-10.4251
▁art	-10.4251
▁bazılarını	-10.4252
▁Go	-10.4252
▁lı	-10.4254
▁normalde	-10.4255
▁yeteri	-10.426
lanabilir	-10.4261
▁yerin	-10.4262
▁demiş	-10.4262
raf	-10.4264
▁Birisi	-10.4268
▁sisteminin	-10.4274
▁oldular	-10.4277
▁aldığım	-10.4278
umu	-10.4279
▁bulduğum	-10.4283
▁tarihte	-10.4284
▁yatak	-10.4285
meyeceğim	-10.4288
▁gönderme	-10.4288
▁veriyorlar	-10.4291
▁tersi	-10.4291
▁amma	-10.4291
▁Amazon	-10.4292
▁ayağa	-10.4292
▁hücrelerin	-10.4293
▁Temel	-10.4294
▁matematiksel	-10.4298
▁kullanılıyor	-10.4298
▁kesim	-10.4299
▁girişim	-10.4305
▁herkesi	-10.4305
▁yaşı	-10.4317
▁kadınlara	-10.432
▁işini	-10.432
▁konular	-10.432
▁uzaklaş	-10.4321
gin	-10.4324
▁kardeşim	-10.4325
▁hükümeti	-10.4327
▁istiyordum	-10.433
▁değerleri	-10.4337
lması	-10.4338
▁sesler	-10.4345
sıdır	-10.4354
irken	-10.4357
▁öğretti	-10.4357
▁şekilleri	-10.4357
▁oranları	-10.4359
▁üstü	-10.4362
▁haritası	-10.4363
mayacak	-10.4367
▁elimde	-10.4367
▁baktık	-10.437
▁Wi	-10.4371
▁Ekonomi	-10.4374
▁akciğer	-10.4374
▁Apple	-10.4374
ırız	-10.4377
▁kazanma	-10.4378
▁hapishane	-10.438
▁uzmanı	-10.438
▁mimar	-10.4381
▁Roma	-10.4382
▁akım	-10.4382
▁üreten	-10.4387
▁belge	-10.4387
▁pa	-10.4396
▁kurduk	-10.4398
▁etkiler	-10.4404
▁resme	-10.4404
▁Hayal	-10.4406
▁olmama	-10.4406
▁problemler	-10.4421
ja	-10.4427
▁öğrencisi	-10.4427
▁dokunma	-10.443
▁lik	-10.4436
▁rengi	-10.4439
▁anladı	-10.4439
▁açar	-10.444
▁Altı	-10.4445
▁uygulan	-10.4445
▁odaklan	-10.4445
▁çünk	-10.4448
▁teki	-10.4454
▁çıkmak	-10.4454
▁konuşuyor	-10.4458
▁yaşamış	-10.4458
▁borç	-10.4458
▁Merhaba	-10.4458
▁düşünürseniz	-10.446
▁şeklini	-10.4461
▁ölen	-10.4463
▁kurtarma	-10.4465
hane	-10.4467
▁Tanrım	-10.4472
▁kaldım	-10.4473
▁öğretmenler	-10.4475
▁çalıştır	-10.4476
▁hadi	-10.4478
lidir	-10.4483
▁kullanılabilir	-10.4485
▁getirebilir	-10.4486
▁sahipti	-10.4487
ev	-10.4487
▁duygusu	-10.4488
leşiyor	-10.4489
▁kimlik	-10.449
▁halkı	-10.449
▁inşaat	-10.4493
mizden	-10.4493
▁yaşındaydı	-10.4496
▁olabiliyor	-10.4498
amp	-10.4498
▁değilse	-10.4501
iv	-10.4501
▁gürültü	-10.4505
nizle	-10.4514
▁dua	-10.4518
▁çıktığı	-10.452
▁saniyede	-10.4521
yacak	-10.4524
▁yapısını	-10.4525
▁27	-10.4529
▁23	-10.4532
▁öngörü	-10.4532
▁yaparlar	-10.4533
▁Kore	-10.4534
▁gerekti	-10.4539
▁egzersiz	-10.4543
▁mahkeme	-10.4543
▁empati	-10.4543
▁ayda	-10.4543
▁görülüyor	-10.4543
▁ötürü	-10.4545
▁kalıcı	-10.4545
ıyorum	-10.4547
▁gören	-10.4552
▁yarıyor	-10.4553
▁tutan	-10.4562
▁ticaret	-10.457
▁yükselt	-10.457
▁alanın	-10.4574
▁boz	-10.4577
▁inancı	-10.459
uru	-10.459
▁uğra	-10.4594
▁gizem	-10.4597
▁İsveç	-10.4598
▁İnsanları	-10.4598
▁yazılmış	-10.4601
▁yapabilmek	-10.4617
iyordu	-10.4618
▁Tasarım	-10.4618
▁avcı	-10.4624
▁yığın	-10.4624
▁uzaktan	-10.4625
▁dördüncü	-10.4629
▁elbise	-10.4629
▁teslim	-10.4629
▁Çevre	-10.4629
▁mağaza	-10.4629
▁Dört	-10.4629
▁avukat	-10.4629
▁etkileyen	-10.463
▁hamile	-10.4631
▁anket	-10.4632
▁sap	-10.4632
▁Web	-10.4632
▁bant	-10.4632
▁buyuk	-10.4633
▁gelişen	-10.4635
▁yapmalıyız	-10.4638
▁oturan	-10.4638
▁fotoğraflar	-10.4641
▁yapabilecek	-10.4641
▁Kral	-10.4653
▁sok	-10.4659
▁araştırmalar	-10.4662
▁görüntüler	-10.4666
▁döner	-10.4668
▁pis	-10.467
ow	-10.4677
▁Konu	-10.4677
▁Kur	-10.4683
▁man	-10.469
▁gelmesi	-10.4693
▁işlerini	-10.4696
▁parçasını	-10.4698
▁bakmaya	-10.47
▁kurum	-10.4702
▁bayan	-10.4704
▁halkın	-10.4704
▁çekim	-10.471
▁yapısı	-10.4711
▁Charles	-10.4715
▁Obama	-10.4715
▁büyüleyici	-10.4715
▁bekler	-10.4716
▁lerin	-10.4717
▁Şey	-10.4717
▁çarpıcı	-10.4717
▁Fe	-10.4719
▁sıcaklık	-10.4721
▁güzellik	-10.4721
▁oğlu	-10.4725
▁İndi	-10.4726
▁küme	-10.473
▁hile	-10.473
▁ilacı	-10.4732
leştirilmiş	-10.4733
▁karşılıklı	-10.4736
▁kanun	-10.4737
▁Başkan	-10.4741
▁mənə	-10.4742
▁tamamıyl	-10.4742
▁Gel	-10.4745
mar	-10.4747
ilmesi	-10.4749
diğinizde	-10.4752
▁nehir	-10.4754
per	-10.4758
▁çağ	-10.4759
▁sınıfta	-10.4764
▁resimleri	-10.4764
▁Mü	-10.4766
▁başlayacak	-10.4774
lerimize	-10.4779
meli	-10.4785
▁sisteme	-10.4785
tra	-10.4788
▁tarafa	-10.4788
▁geleceğin	-10.4793
▁Lak	-10.4795
▁değerler	-10.4798
▁2010	-10.4802
▁limit	-10.4802
▁enerjisi	-10.4802
▁yönet	-10.4803
▁arttır	-10.4803
▁CO	-10.4805
▁gelenek	-10.4812
▁klasik	-10.4817
▁kitaplar	-10.4817
▁kullanabileceği	-10.4818
▁açan	-10.482
▁topu	-10.4821
▁düzelt	-10.4824
▁duyduğumuz	-10.4829
▁liderler	-10.483
kleri	-10.483
▁elə	-10.4832
▁çevresinde	-10.4843
▁ilgisi	-10.4844
▁Bar	-10.4845
▁fikirlerin	-10.4846
▁hastaların	-10.4847
▁şart	-10.4849
▁qarşı	-10.4849
▁gözleri	-10.485
▁sanatı	-10.4854
▁yapmam	-10.4858
▁annesi	-10.4861
▁yönel	-10.4861
▁söylen	-10.4862
▁dost	-10.4862
▁Sana	-10.4874
▁ölümün	-10.4877
duğunu	-10.4879
▁tarama	-10.4884
▁sinyal	-10.4887
▁iPhone	-10.489
▁doktorlar	-10.4892
görebiliyorsunuz	-10.4895
▁hastalıkları	-10.4901
▁gazeteci	-10.4905
inə	-10.4906
▁obje	-10.4909
▁ca	-10.4912
▁danış	-10.4912
▁versiyonu	-10.4916
lərə	-10.4917
▁söyleyecek	-10.4919
▁olursunuz	-10.4919
▁Gu	-10.492
▁deme	-10.4921
▁açığ	-10.4921
▁hakim	-10.4922
▁tap	-10.4925
▁maden	-10.4926
▁ayakkabı	-10.4928
▁türleri	-10.4936
▁geride	-10.4938
▁koyun	-10.4939
▁pazarlama	-10.494
▁kitapları	-10.494
▁hepsinin	-10.4942
▁soruyor	-10.4943
▁buluş	-10.4948
ral	-10.4949
▁kasaba	-10.4952
▁Evren	-10.4954
▁geçirme	-10.4957
▁görüşü	-10.4959
▁içer	-10.4961
▁düşünüyorsunuz	-10.4961
▁girer	-10.4965
acağımız	-10.4974
▁yazarı	-10.4974
▁futbol	-10.4978
▁kaçınılmaz	-10.4978
▁dinleme	-10.4978
▁Internet	-10.4978
▁gördünüz	-10.4979
▁seferinde	-10.4983
▁Film	-10.4985
ğini	-10.4988
▁oluş	-10.4988
▁kurgu	-10.499
▁alınan	-10.4991
▁güvenliği	-10.4993
unuz	-10.4996
lanacak	-10.5
▁iniş	-10.5004
▁Ek	-10.5006
larımdan	-10.5006
▁küre	-10.5007
▁ruhu	-10.5021
sindeki	-10.5024
▁üyesi	-10.5025
▁özgün	-10.5025
▁tabaka	-10.5028
indeki	-10.5029
▁orda	-10.5029
▁Veya	-10.5032
▁bax	-10.5034
▁gör	-10.5035
amayız	-10.5041
ong	-10.5052
▁noktaları	-10.5053
▁hediye	-10.5054
▁tanıdık	-10.5055
▁müziği	-10.5055
▁olurlar	-10.5055
▁taşın	-10.5058
▁həm	-10.5058
▁nüfusun	-10.5059
▁yeti	-10.5063
▁lisans	-10.5065
▁fi	-10.5066
▁Cevap	-10.5067
▁market	-10.5067
▁gülüşmeler	-10.5068
▁1990	-10.5068
▁kiçik	-10.5068
▁yapılacak	-10.5069
▁bırakır	-10.5071
▁dosya	-10.5072
▁duyuyor	-10.5079
▁direkt	-10.5082
▁ikisini	-10.5083
▁ar	-10.5087
▁Kan	-10.5088
▁Rusya	-10.5089
▁istediğini	-10.51
▁Q	-10.5105
▁çalışanları	-10.5108
kti	-10.5113
ınızı	-10.5117
▁tekne	-10.512
▁tanrı	-10.5124
▁anlar	-10.5126
▁ötesin	-10.5126
▁git	-10.5128
▁çoğal	-10.513
abilirim	-10.5131
▁bildiğim	-10.5131
▁BM	-10.5135
▁etkisini	-10.5136
▁kalın	-10.5138
▁etiket	-10.514
▁modeller	-10.5142
leyecek	-10.5144
▁keşfetmek	-10.5144
cilik	-10.5147
▁fotoğrafları	-10.5157
▁şahit	-10.5157
▁yirmi	-10.5157
▁ayrıntı	-10.5157
▁1980	-10.5158
▁Ardında	-10.5158
▁otizm	-10.5158
▁aileler	-10.5159
▁vs	-10.5164
▁kızın	-10.5164
▁karşılaş	-10.5164
▁konuştuk	-10.5165
▁istiyorsunuz	-10.5167
▁düzey	-10.5167
▁kaza	-10.5169
▁haftada	-10.5169
▁em	-10.5169
▁adil	-10.5174
▁şimdiki	-10.5175
▁etdi	-10.5175
▁Çalışma	-10.5175
▁giderken	-10.5177
▁olunca	-10.5178
▁nesli	-10.5179
▁kuruyor	-10.5181
ılacak	-10.5183
▁düğme	-10.5186
rik	-10.5186
▁düşüncesi	-10.519
ledi	-10.519
▁çiftlik	-10.5191
▁ayn	-10.5192
▁aldılar	-10.5193
▁çekildi	-10.52
▁insanlığın	-10.5202
▁Kat	-10.5203
ebilen	-10.5204
▁mıydı	-10.5204
▁yen	-10.5205
▁kamyon	-10.5213
▁sorusu	-10.5217
▁yavru	-10.5222
▁sız	-10.523
ğümüz	-10.523
▁çıkacak	-10.5231
▁haberi	-10.5231
ceği	-10.5231
ladık	-10.5232
▁Senin	-10.5234
▁öğrenir	-10.5236
▁ah	-10.5239
▁sera	-10.5239
▁197	-10.524
▁tüketici	-10.524
▁olanları	-10.5241
▁yeme	-10.5242
▁oynuyor	-10.5243
▁görüntüsü	-10.5244
▁kızım	-10.5244
▁kendisinin	-10.5245
ktir	-10.5246
▁1960	-10.5249
▁kompleks	-10.5249
▁vadede	-10.5249
▁Paris	-10.525
▁tatmin	-10.525
▁Açıkça	-10.525
▁ücretsiz	-10.5251
▁buluyor	-10.5254
▁Böylelikle	-10.5257
▁göze	-10.526
▁kom	-10.5273
▁resimde	-10.5275
▁belir	-10.5275
məyə	-10.5276
▁farklılık	-10.5277
▁kadınları	-10.5277
▁çək	-10.5278
▁araştır	-10.5279
mla	-10.5281
▁Kadınlar	-10.5283
je	-10.5288
▁kapan	-10.5292
▁durdu	-10.5295
muştu	-10.5296
▁Car	-10.5297
▁otel	-10.5303
▁keşfettik	-10.5304
ucu	-10.5305
▁varlığı	-10.5308
▁öncesi	-10.5308
▁birey	-10.5308
▁Ed	-10.5309
çu	-10.5316
▁Burda	-10.5317
▁kendisine	-10.5321
layabiliriz	-10.5322
▁sistemine	-10.5322
▁uy	-10.5322
▁anti	-10.5331
▁ettiğiniz	-10.5332
▁yetersiz	-10.5332
▁özü	-10.5334
▁doğdu	-10.5334
▁harf	-10.5338
▁göğüs	-10.534
▁kalabalık	-10.534
▁merdiven	-10.534
▁hidrojen	-10.534
▁sıkıntı	-10.5342
▁başlayabilir	-10.5343
▁2009	-10.5343
▁başlamıştı	-10.5346
▁vakti	-10.5351
▁anlatı	-10.5353
▁aday	-10.5354
▁başım	-10.5355
▁modelleri	-10.5355
▁bulunur	-10.5359
▁Pro	-10.536
▁ların	-10.5361
▁kararlar	-10.5364
▁görünüş	-10.5365
▁bulabilir	-10.5367
▁pi	-10.5367
▁deneyi	-10.5376
▁hatırla	-10.5382
▁hi	-10.5387
▁sahnede	-10.5387
▁istekli	-10.5388
▁sun	-10.539
ladığı	-10.539
▁mahkum	-10.5393
▁zinciri	-10.5394
▁etmez	-10.5404
▁çocukken	-10.5407
▁Kendimi	-10.5408
▁nüfusunu	-10.5409
▁kalem	-10.5409
▁yapmaları	-10.5409
▁alıyorlar	-10.541
lıyım	-10.541
▁geçtik	-10.5411
▁oyunun	-10.5415
▁yaptır	-10.5427
▁denklem	-10.5427
muyor	-10.543
▁sı	-10.543
rerek	-10.5431
layabilir	-10.5431
▁Kötü	-10.5433
▁garanti	-10.5433
▁neçə	-10.5433
▁düşünelim	-10.5434
▁99	-10.5435
ney	-10.5438
▁taşıyan	-10.5439
▁kutup	-10.5439
▁karıştır	-10.544
▁katıl	-10.544
▁bitirmek	-10.5444
▁sektör	-10.5447
ğına	-10.5448
▁gençler	-10.5448
gan	-10.545
▁dağıt	-10.5456
▁Art	-10.5457
▁Yıllar	-10.5465
▁Kaç	-10.5465
▁geçtiğimiz	-10.5467
liler	-10.5469
▁yüzünü	-10.5469
▁dersiniz	-10.5475
▁kaynaklı	-10.5482
▁teknolojiye	-10.5488
▁öğrencilerin	-10.5491
▁ayağı	-10.55
▁ölçek	-10.5507
duğu	-10.5509
▁oynay	-10.5512
ydü	-10.5512
▁söylemeye	-10.5512
▁kurulu	-10.5514
meden	-10.5518
▁çözümü	-10.5523
▁Pakistan	-10.5526
▁olumsuz	-10.5526
▁genom	-10.5528
▁Ber	-10.5528
▁makineler	-10.553
▁Steve	-10.553
▁geçici	-10.5531
▁kavram	-10.5535
▁ilkel	-10.5537
▁duymak	-10.5538
▁potansiyeli	-10.5541
acaba	-10.5542
▁tanesini	-10.5545
▁Amerikalılar	-10.5547
▁dinlemek	-10.5548
meyen	-10.555
ebilirim	-10.5552
▁yürüyüş	-10.5553
▁geldiler	-10.5562
▁zararlı	-10.5572
▁Sta	-10.5572
▁olacaklar	-10.5574
we	-10.5575
ildiği	-10.5578
gra	-10.5582
▁doğrusu	-10.5585
▁üretimi	-10.5589
▁sorar	-10.5595
müz	-10.5601
▁Devletleri	-10.5603
▁operasyon	-10.5603
▁görebilir	-10.5608
▁binalar	-10.561
▁Ge	-10.5615
▁bal	-10.5619
▁başla	-10.5619
▁Higg	-10.562
ollywood	-10.562
▁digər	-10.5621
▁boru	-10.5622
▁zirve	-10.5622
▁Ara	-10.5624
▁gerçekleşen	-10.5624
▁kazanmak	-10.5624
▁öğreniyor	-10.5626
▁ellerinde	-10.5628
▁ilgilen	-10.5629
▁sürecin	-10.563
▁görebileceğiniz	-10.5631
lıkla	-10.5632
▁hayvanları	-10.5634
▁yoldan	-10.5636
▁seçimler	-10.5639
▁Sır	-10.5642
▁posta	-10.5648
▁kaybetme	-10.5649
▁senaryo	-10.565
diyi	-10.5651
▁gü	-10.5653
▁önde	-10.5653
▁zihni	-10.5654
▁uzunluğunda	-10.5656
▁hizmetleri	-10.5661
▁atma	-10.5662
▁içeriyor	-10.5666
▁öneri	-10.5671
▁olduğunun	-10.5674
▁bekle	-10.5677
▁durur	-10.5678
▁uzağ	-10.5679
▁milli	-10.569
▁uyarı	-10.5694
▁par	-10.5699
▁köle	-10.5702
yorsunuz	-10.5703
▁çalışmanın	-10.5704
▁rolü	-10.5705
▁On	-10.571
▁Michael	-10.5716
▁tecavüz	-10.5716
▁Beyaz	-10.5716
▁oturma	-10.5717
▁kılan	-10.5725
▁savaşta	-10.5725
▁getirdik	-10.5726
▁çizim	-10.5729
▁zorundaydı	-10.5729
▁meme	-10.573
▁çanta	-10.5734
▁amacıyla	-10.5736
▁çeşitlilik	-10.5737
▁birbirlerini	-10.5741
▁enfeksiyon	-10.5744
rayı	-10.5745
▁birileri	-10.5746
▁Mary	-10.5747
▁koyduk	-10.5748
▁döneminde	-10.575
,	-10.5753
▁mektup	-10.5755
▁öncelikle	-10.5756
▁iyisi	-10.5756
▁projenin	-10.5756
▁Devlet	-10.5757
▁özgürlüğü	-10.5758
▁telefonları	-10.5758
▁yerli	-10.5759
▁dir	-10.576
▁Or	-10.5769
▁yönü	-10.577
▁balıkları	-10.5772
▁istiyordu	-10.5777
▁saatler	-10.5778
▁derler	-10.5788
emedi	-10.5792
▁kaybetti	-10.5792
▁Ye	-10.58
▁yazıcı	-10.58
▁dayanıklı	-10.5802
▁büyüklüğünde	-10.5807
▁felsefe	-10.5812
▁karbondioksit	-10.5812
▁ölümcül	-10.5812
▁hayatımda	-10.5816
▁uyumlu	-10.5818
▁çip	-10.5819
▁nota	-10.5827
▁hikayeleri	-10.5829
▁temin	-10.5829
▁Birinci	-10.5829
ebileceğini	-10.5835
▁edebil	-10.5849
▁uzat	-10.585
▁puan	-10.5851
▁mantık	-10.5855
▁başladığı	-10.5857
▁verdiğim	-10.5859
▁sayısını	-10.586
▁qal	-10.5864
ebileceğiniz	-10.5868
▁duyguları	-10.5869
▁kay	-10.5874
▁tık	-10.5874
▁ağzı	-10.5891
▁evlilik	-10.5891
▁derdi	-10.5893
▁Baba	-10.5896
▁gözle	-10.5896
▁buzul	-10.5896
▁Nerede	-10.5901
▁heyecanlı	-10.5901
▁türde	-10.5904
▁toplumu	-10.5906
▁genişlet	-10.5907
▁Thomas	-10.5909
▁protesto	-10.5909
▁çocuğa	-10.5909
▁Wa	-10.5909
▁Francisco	-10.5909
▁tavuk	-10.5909
▁belirgin	-10.5909
▁animasyon	-10.591
▁maaş	-10.5911
dakı	-10.5912
▁yaratıcılık	-10.5915
▁ilerliyor	-10.5916
▁isteği	-10.5917
▁kazı	-10.592
▁seviyesi	-10.5923
▁gelmiyor	-10.5927
▁avantaj	-10.5929
▁değiştirecek	-10.5931
▁Esas	-10.5932
0.000	-10.594
abı	-10.5949
▁geçirdi	-10.5951
▁çalışıyordum	-10.5956
▁beğen	-10.5957
▁kavramı	-10.5962
▁olmalıdır	-10.5963
▁teorisi	-10.5964
bilir	-10.5964
▁ilgilidir	-10.5972
▁bölgesi	-10.5977
▁işlerin	-10.5981
▁uzan	-10.5984
▁söyledikleri	-10.5985
rat	-10.5986
▁üste	-10.5992
likleri	-10.5992
▁yetenek	-10.5992
▁Hepiniz	-10.5998
manyetik	-10.6007
▁kablosuz	-10.6008
▁edən	-10.6008
▁izlemek	-10.6009
▁2007	-10.6009
▁Latin	-10.601
liyim	-10.6014
▁inceleme	-10.6015
▁ilerleye	-10.6017
süz	-10.6021
sızın	-10.6022
▁sunum	-10.6024
▁simetri	-10.6034
▁olmalıyız	-10.6035
▁ekibi	-10.6037
▁etmesini	-10.6038
▁istey	-10.6038
▁Per	-10.6041
▁kalanı	-10.6043
▁yaşan	-10.6047
▁ilişkileri	-10.6051
▁sayıları	-10.6057
▁Gece	-10.6057
▁anlatmaya	-10.6058
▁sevme	-10.6062
▁düşer	-10.6065
▁Japon	-10.608
▁diyecek	-10.6085
▁fırtına	-10.6086
▁arıyor	-10.6093
lıkta	-10.6097
wi	-10.6097
▁ülkeleri	-10.6097
▁yaşadığım	-10.6098
▁düşünmemiz	-10.6104
▁Dikkat	-10.6106
▁umuyorum	-10.6111
▁atmak	-10.6112
siydi	-10.6115
▁etmişti	-10.6122
▁göründüğü	-10.6126
▁kaydı	-10.6136
▁Robot	-10.6145
for	-10.6145
▁kullanmayı	-10.6145
▁kaldık	-10.6146
▁araştırmacı	-10.6147
▁katılma	-10.615
əl	-10.6151
▁dersi	-10.6153
▁açıklamak	-10.6161
▁bilen	-10.6162
▁onlarca	-10.6163
▁Kara	-10.6169
və	-10.6172
▁olmazdı	-10.6173
▁şekillerde	-10.6176
landır	-10.6181
▁gelmez	-10.6187
tar	-10.6189
▁problemin	-10.6191
▁ulaş	-10.6192
▁üretken	-10.6193
▁muhtemel	-10.6197
▁yönünde	-10.6197
▁karşılaştı	-10.6199
▁yapımı	-10.62
▁röportaj	-10.6206
▁tiyatro	-10.6206
▁tutun	-10.6206
▁desteği	-10.6207
▁millet	-10.6207
▁algoritma	-10.621
▁gri	-10.621
▁konuşurken	-10.6212
▁düşünerek	-10.6212
luğun	-10.6213
▁dâhil	-10.6213
▁hap	-10.6215
▁terör	-10.6219
▁Kafa	-10.6219
▁değişen	-10.622
▁istiyorsak	-10.6222
ğünü	-10.6224
▁kabile	-10.6224
▁bü	-10.6224
▁çıkart	-10.6228
ıpkı	-10.6232
▁okumak	-10.6233
▁seviyesinde	-10.6241
▁Hangi	-10.6242
▁denir	-10.6244
▁denk	-10.6245
▁kalıp	-10.6248
berg	-10.626
lamaz	-10.626
▁tüket	-10.6263
düğü	-10.6264
▁don	-10.6268
▁yapılma	-10.627
▁kitabın	-10.6272
▁Ab	-10.6272
ymiş	-10.6272
▁oynama	-10.6277
▁noktasında	-10.6278
▁istatistik	-10.6279
▁hayatımızı	-10.6281
▁yolun	-10.6281
ry	-10.6281
▁anlayışı	-10.6282
▁sahil	-10.6282
▁antik	-10.6288
▁yaşta	-10.6289
▁yollarını	-10.6295
▁mantar	-10.6296
manız	-10.6302
▁çalışıyordu	-10.6303
▁gövde	-10.6304
▁yaşlanma	-10.6306
▁siyaset	-10.6306
▁perspektif	-10.6307
▁pompa	-10.6307
▁roket	-10.6307
▁bağışıklık	-10.6307
▁geleceğ	-10.6307
▁grubun	-10.6308
▁çelişki	-10.6311
▁ge	-10.6315
▁vazgeç	-10.6317
▁Gün	-10.6318
▁edilemez	-10.6318
▁olmalıydı	-10.6318
abiliyoruz	-10.6318
▁seyirci	-10.6319
-1	-10.6327
gar	-10.6328
▁yönetme	-10.6331
▁doldur	-10.6331
▁sent	-10.6335
▁çalışmıyor	-10.6336
▁erişimi	-10.6336
▁öğrencileri	-10.6337
ıb	-10.6337
▁niye	-10.6339
▁topluma	-10.6339
▁kardeşi	-10.6339
▁gelmeye	-10.634
▁yürüy	-10.6341
▁yarattık	-10.6342
ğimiz	-10.6345
▁odadaki	-10.6348
▁kazanan	-10.635
▁görüntüleme	-10.6359
▁konuşmalar	-10.6361
▁tuttu	-10.6368
▁okyanusun	-10.6369
mir	-10.6371
▁yarısını	-10.6375
▁Seni	-10.6376
▁işlemi	-10.6384
▁savaşa	-10.6384
▁yapıyordu	-10.6387
öv	-10.639
▁gücün	-10.6393
▁eli	-10.6396
ğiniz	-10.6398
▁demişti	-10.64
ang	-10.6401
▁bebekler	-10.6403
zo	-10.6407
▁efsane	-10.6409
▁çirkin	-10.6409
▁nasil	-10.6409
▁çamaşır	-10.6409
▁söylemeliyim	-10.641
yıp	-10.6412
▁biten	-10.6413
ymış	-10.6413
▁olabilirler	-10.6413
▁bekleyen	-10.6416
▁boşluk	-10.6418
lanmıştı	-10.6423
▁geliyorlar	-10.6424
▁benimse	-10.6427
klerini	-10.6428
▁yaşar	-10.6429
imize	-10.6429
▁saldır	-10.643
▁detaylı	-10.6432
▁Oyun	-10.6433
▁suda	-10.6435
▁sürücü	-10.644
▁fikrin	-10.644
▁oturur	-10.6444
▁65	-10.6444
▁ş	-10.6446
▁mühendisliği	-10.6447
▁şaşır	-10.6452
▁götür	-10.6452
▁açlık	-10.6454
▁seçimi	-10.6455
▁edebileceğiniz	-10.6455
▁farketme	-10.6463
lme	-10.6464
▁bahsed	-10.6466
▁yaklaşımı	-10.6467
▁odaklanma	-10.6469
▁atıyor	-10.6478
larımın	-10.648
▁artışı	-10.6481
dar	-10.6486
▁ilişkin	-10.6488
▁olasılığı	-10.6492
▁sonuc	-10.6493
▁Ölüm	-10.6494
lisiniz	-10.6497
▁davranışı	-10.6501
▁ekosistem	-10.6502
▁global	-10.6512
▁dunya	-10.6512
▁Çox	-10.6512
▁bayağı	-10.6512
▁doğan	-10.6513
▁yaparız	-10.6521
▁inanıyoruz	-10.6521
▁kurtul	-10.6522
▁grip	-10.6524
▁faydalan	-10.6524
▁kayda	-10.6529
▁kü	-10.6531
▁Enstitüsü	-10.6532
▁evrende	-10.6534
maları	-10.6534
▁pul	-10.6538
▁koca	-10.6541
▁atar	-10.6543
ğın	-10.6543
▁sü	-10.6545
▁okudum	-10.6546
▁Park	-10.6547
▁görülme	-10.6549
▁söyleyeceğim	-10.6555
▁öğrenmeye	-10.6561
▁istemedi	-10.6563
▁bildir	-10.6575
▁bakabilir	-10.6579
▁söylüyorlar	-10.6584
▁ez	-10.6587
▁elektron	-10.6596
rin	-10.6605
▁üye	-10.6607
▁Doktor	-10.6611
▁Wal	-10.6613
▁utan	-10.6615
▁Lütf	-10.6616
▁kavga	-10.6616
▁durup	-10.6622
▁kuşlar	-10.6624
ladım	-10.6628
▁demir	-10.6628
▁Tahmin	-10.6634
▁değişimin	-10.6634
▁çocuklarımız	-10.6634
lenir	-10.6635
▁getirecek	-10.6635
stik	-10.6638
altı	-10.6638
▁programları	-10.664
▁özellik	-10.6648
riyoruz	-10.6649
▁veriyorum	-10.6651
▁edersek	-10.6651
şü	-10.6652
▁çarpma	-10.6656
▁eğilim	-10.6657
▁arabanın	-10.6665
▁taşındı	-10.6669
larıdır	-10.6671
▁bahseder	-10.6672
▁genelinde	-10.6673
▁evinde	-10.6673
asyonu	-10.6675
ğinde	-10.6675
▁pratik	-10.6678
▁başardık	-10.6684
iyorsunuz	-10.6684
▁bilgisayarın	-10.6686
▁hu	-10.6693
▁Martin	-10.6698
▁belirsiz	-10.6699
lemeye	-10.6699
▁Dur	-10.67
▁yıldızlar	-10.6701
▁tanımı	-10.6702
▁ebeveyn	-10.6704
▁dışındaki	-10.6705
▁günler	-10.671
▁gittiği	-10.6711
les	-10.6712
▁oturdu	-10.6713
▁oynar	-10.6715
▁baz	-10.6715
▁ülkedeki	-10.672
▁ağın	-10.6721
▁pembe	-10.6721
▁frekans	-10.6721
▁protez	-10.6722
▁eyni	-10.6722
▁Pazar	-10.6722
▁görüntüleri	-10.6723
▁dönelim	-10.6723
▁vereyim	-10.6724
▁ancaq	-10.6725
▁gücüne	-10.6727
▁gerçekleşiyor	-10.6728
▁gerçekliği	-10.6728
▁öldür	-10.673
▁değiştirir	-10.6732
liydi	-10.6732
▁kızların	-10.6732
▁saha	-10.6736
▁haberleri	-10.6738
▁bakıyoruz	-10.6738
dəki	-10.6741
▁gittiğimde	-10.6742
▁edebileceği	-10.6743
▁tohum	-10.6751
▁düşündüğü	-10.6752
ylə	-10.6754
leyip	-10.6754
▁aletler	-10.6754
▁biliyorlar	-10.6755
müyor	-10.6755
ığı	-10.6755
▁açmak	-10.6761
▁of	-10.6768
▁gerçekleşti	-10.677
▁değiştirmeye	-10.6776
▁oynamak	-10.6777
▁gor	-10.6788
▁Ö	-10.6789
nizden	-10.6792
▁yaradı	-10.6792
▁çim	-10.6796
▁600	-10.6799
▁soyu	-10.6807
▁mobil	-10.681
gel	-10.6811
▁düşünceleri	-10.6812
▁Fark	-10.6812
▁arayüz	-10.6813
▁çiftçiler	-10.6815
▁öncesinde	-10.6817
▁yapabilme	-10.682
▁şikayet	-10.6828
▁Alzheimer	-10.6828
▁Boston	-10.6828
▁hariç	-10.6828
▁Önemli	-10.6828
▁Fikir	-10.6828
▁koruyucu	-10.6828
▁alkış	-10.683
▁büyüklüğü	-10.6832
▁Peter	-10.6833
▁çelik	-10.6833
▁iyileşme	-10.6837
▁bariz	-10.6839
▁aşağıda	-10.6841
▁şiddetli	-10.6843
▁yapabileceğiniz	-10.6844
▁dönen	-10.6846
▁mə	-10.6848
▁köpeği	-10.6853
▁ekonomisi	-10.6854
mayın	-10.6856
▁etkileme	-10.6859
▁düşünüyordu	-10.686
▁arkasındaki	-10.6861
▁19.	-10.6864
▁Eve	-10.6866
▁gizemli	-10.6868
▁gəlir	-10.6871
▁tavan	-10.6872
▁ismini	-10.6874
▁etrafındaki	-10.6876
av	-10.6879
▁zar	-10.6881
▁kayded	-10.6883
keresinde	-10.6883
▁verebilir	-10.6883
cük	-10.6886
▁Ham	-10.6887
▁nesneler	-10.6888
▁oğlum	-10.6888
▁oku	-10.6889
▁sorum	-10.689
▁örgüt	-10.6892
üstü	-10.6893
▁Birliği	-10.69
sıl	-10.6903
ıyorsunuz	-10.6906
▁düşüş	-10.6913
▁tırman	-10.6914
▁ildə	-10.6915
▁gönderiyor	-10.6916
▁varsayım	-10.6918
▁tara	-10.6918
▁Ju	-10.6918
▁türler	-10.6923
▁Con	-10.6923
ly	-10.6926
ligi	-10.6928
▁büyür	-10.6928
▁hey	-10.6929
▁korkma	-10.6931
▁Bildiğin	-10.6931
▁kılavuz	-10.6935
▁çıplak	-10.6935
▁şarap	-10.6936
▁1970	-10.6936
▁nano	-10.6937
masına	-10.6939
▁katlan	-10.6939
▁Mavi	-10.694
▁dalış	-10.694
▁bahsetme	-10.6944
▁planlama	-10.6945
▁olabildiğin	-10.6946
▁güvende	-10.6951
▁gid	-10.6952
▁şirketin	-10.6955
işi	-10.6959
acağınız	-10.6962
▁kalmıyor	-10.6963
▁edebilecek	-10.6964
▁olayın	-10.6965
▁mülteci	-10.6965
▁nüfusu	-10.697
▁çeşitliliği	-10.697
▁gidiyoruz	-10.6971
▁bulunduğumuz	-10.6972
▁kalk	-10.6973
▁yaşıyorlar	-10.6974
mun	-10.6975
▁bölgelerinde	-10.6977
▁kent	-10.6979
▁yazıyor	-10.698
▁şehirlerde	-10.6981
▁kullandı	-10.6982
▁hatırlama	-10.6983
▁azalma	-10.6984
▁Alan	-10.6987
▁neşe	-10.6987
▁kaybetmiş	-10.6988
▁çoğumuz	-10.6988
▁aşık	-10.6989
▁engeller	-10.6997
▁havaya	-10.7006
▁Gelecek	-10.7007
lilik	-10.7008
▁yoksulluk	-10.7009
▁amaçlı	-10.7012
▁hayali	-10.7015
▁eşim	-10.7023
▁co	-10.7024
landırma	-10.7026
▁azaltma	-10.7027
▁deyə	-10.7027
▁direk	-10.7027
▁meselesi	-10.7031
▁varmış	-10.7032
▁yiy	-10.7032
▁varlığını	-10.7033
▁elini	-10.7034
▁yapabileceği	-10.7037
▁Hal	-10.7039
▁Mark	-10.7042
▁görebiliyor	-10.7042
▁yumuşak	-10.7044
▁keskin	-10.7044
▁əsas	-10.7044
▁pasif	-10.7045
▁göreceğiz	-10.7045
medi	-10.7045
▁sola	-10.7051
▁tək	-10.7052
▁pilot	-10.7052
▁duyuyorum	-10.7052
▁geleceğini	-10.7054
▁geliştirdik	-10.7055
▁yaparsınız	-10.7055
▁içme	-10.7056
▁fotoğrafçı	-10.7057
▁kötüsü	-10.7058
labilirsiniz	-10.7061
▁Kal	-10.7061
▁ihtimal	-10.7062
▁başkalarının	-10.7063
▁ağlar	-10.7065
▁oyunlar	-10.707
▁tasarımcılar	-10.707
▁gerçekçi	-10.7073
▁gösterecek	-10.7076
▁eyalet	-10.7077
▁Tur	-10.7079
▁kazandır	-10.7081
▁etkiliyor	-10.7085
▁sual	-10.71
▁the	-10.7102
▁Veri	-10.7103
▁üretici	-10.7105
▁foto	-10.7111
▁etik	-10.7116
▁kral	-10.7122
▁koştu	-10.7135
▁ağacı	-10.7138
▁yazmak	-10.7141
▁zamanki	-10.7143
▁keşfetme	-10.7147
▁belirt	-10.7147
▁çat	-10.7149
▁Pasifik	-10.7154
▁Yeşil	-10.7154
▁gübre	-10.7154
▁İklim	-10.7154
▁itiraf	-10.7154
▁kartı	-10.7154
▁bot	-10.7158
▁mutasyon	-10.7159
▁boyutu	-10.7159
▁diyebiliriz	-10.716
▁Bende	-10.716
▁Yapma	-10.7164
▁dönüştür	-10.7164
▁benzin	-10.7165
▁yil	-10.7166
▁veril	-10.7168
çiler	-10.7169
▁tez	-10.7169
▁almayı	-10.7173
▁davranma	-10.7177
▁Ondan	-10.7178
▁ülkeye	-10.718
▁tüp	-10.7181
ulmuş	-10.7184
▁başlamış	-10.7185
▁muz	-10.7186
lla	-10.7192
▁ndan	-10.7194
▁biriyle	-10.7194
▁yayıl	-10.7194
▁işareti	-10.7195
▁Pe	-10.7195
▁koydum	-10.7199
▁Şimdiye	-10.7199
▁sağladığı	-10.7204
▁Fo	-10.7204
▁derken	-10.7205
▁devamlı	-10.7213
▁gelişimi	-10.7214
▁çekilmiş	-10.7214
▁kitab	-10.7216
▁istediler	-10.7222
by	-10.7223
▁organizmalar	-10.7227
▁izni	-10.7229
▁kuvvetli	-10.7236
▁sırt	-10.7237
meleri	-10.7239
▁karşılaşma	-10.7239
▁güzelliği	-10.724
▁dönmek	-10.7243
dırlar	-10.7243
▁ucu	-10.7244
▁etmeniz	-10.725
▁sembol	-10.7253
▁görünüyordu	-10.7254
▁yönetimi	-10.726
▁çözmeye	-10.7262
▁sürpriz	-10.7265
▁deprem	-10.7265
▁istisna	-10.7265
▁endüstriyel	-10.7265
▁istəyirəm	-10.7265
▁baylar	-10.7265
▁cazibe	-10.7265
▁Kongre	-10.7266
▁utanç	-10.7267
▁gösterilen	-10.7268
▁kəs	-10.7268
saydı	-10.727
acağımızı	-10.7271
▁ispat	-10.7273
▁görebiliyoruz	-10.7275
▁öğretme	-10.7278
▁hâline	-10.7279
▁Yaptığımız	-10.7283
▁biliyordu	-10.7285
▁orası	-10.7285
imde	-10.7286
▁açıp	-10.7288
▁yavaşlat	-10.729
▁Milletler	-10.7293
▁Kısa	-10.7297
▁sevdikleri	-10.7297
▁vur	-10.7299
▁lif	-10.7303
▁çıktık	-10.7303
▁Gö	-10.7307
▁Col	-10.7308
▁MS	-10.7309
▁kâr	-10.7309
▁edebilme	-10.7309
▁yaşadı	-10.7314
▁arar	-10.7321
▁3.	-10.7324
▁geçirir	-10.7324
▁kurtarmak	-10.7326
▁eti	-10.7327
▁kalmadı	-10.7328
▁beyninin	-10.733
▁boyutta	-10.7335
▁terörist	-10.7335
▁hücrelerini	-10.7338
▁dönüm	-10.7338
▁oluştu	-10.7341
▁aşkın	-10.7341
▁taşımak	-10.7345
▁hisse	-10.7348
▁şanslı	-10.7349
▁Günü	-10.7351
▁çoklu	-10.7356
▁yazılı	-10.7357
▁kazanıyor	-10.7359
rey	-10.7363
str	-10.7366
▁sil	-10.7369
▁üyeleri	-10.7369
▁olmasından	-10.7371
▁inanıyor	-10.7377
▁motivasyon	-10.7377
▁örümcek	-10.7377
▁beklenmedik	-10.7377
▁orijinal	-10.7377
▁fotograf	-10.7377
▁sanmıyorum	-10.7378
▁mısır	-10.7378
▁kalktı	-10.738
▁şehirlerin	-10.7381
▁edeceğiz	-10.7384
▁büyüyor	-10.7385
▁32	-10.7385
▁başlattı	-10.7386
▁ilan	-10.7387
▁oluşturduk	-10.7388
▁konularda	-10.739
▁oluruz	-10.739
dığımızda	-10.7392
əs	-10.7392
menin	-10.7395
▁verildi	-10.7398
şık	-10.74
▁eksikliği	-10.7402
▁babamın	-10.7402
▁koşullar	-10.7402
yip	-10.7405
▁istersiniz	-10.7406
▁h	-10.7406
ınızda	-10.7408
▁konuşur	-10.741
lıyorlar	-10.7415
▁yazan	-10.7418
▁esnek	-10.7419
imizde	-10.7423
▁bulup	-10.7425
▁okuyor	-10.7425
▁yönlendir	-10.7428
▁yapıldığını	-10.7429
▁Görüyorsun	-10.7433
▁....	-10.7435
tığımız	-10.7437
▁görebil	-10.7437
hur	-10.7438
▁Eş	-10.7439
▁sö	-10.7441
▁değişir	-10.7443
▁anlatır	-10.7445
▁zorla	-10.7458
▁ekranda	-10.746
▁Mar	-10.7461
▁durumlar	-10.7462
▁geliştirdi	-10.7464
▁oluşturdu	-10.7465
▁etraf	-10.7465
laştırma	-10.7468
▁zi	-10.7468
▁roman	-10.7474
▁kurban	-10.7474
▁Mc	-10.7478
▁oldugunu	-10.7479
▁başlangıçta	-10.7481
▁kalitesi	-10.7482
▁onur	-10.7484
▁YouTube	-10.7491
▁intihar	-10.7491
▁orkestra	-10.7491
▁radyasyon	-10.7491
▁tedarik	-10.7491
▁tarayıcı	-10.7491
▁meşhur	-10.7491
▁gereği	-10.7491
▁alkol	-10.7492
▁izleyen	-10.7493
▁kullanışlı	-10.7493
▁Arka	-10.7493
▁uçağı	-10.7494
▁sadə	-10.7495
▁slayt	-10.7495
▁Av	-10.7496
▁yapılabilir	-10.7499
▁metin	-10.75
▁olgu	-10.75
sha	-10.7504
▁inanmak	-10.7504
▁pat	-10.7507
▁önemsiz	-10.7508
▁açıkçası	-10.7508
digim	-10.751
▁çılgınca	-10.7512
ron	-10.7518
▁yapıyorsunuz	-10.7519
▁refah	-10.752
▁Hint	-10.7521
▁tümü	-10.7524
lüyor	-10.7527
▁gelişti	-10.7532
▁izledi	-10.7533
▁buradayım	-10.7533
▁mühendis	-10.7538
▁yürüme	-10.754
▁yetenekleri	-10.7544
▁Yıl	-10.7545
▁sunmak	-10.7548
▁yapacağını	-10.7551
▁devrimi	-10.7556
▁to	-10.756
muzu	-10.7561
▁ışığın	-10.7562
▁zehir	-10.7563
▁bulmuş	-10.7567
▁tartış	-10.7572
var	-10.7573
▁Kısaca	-10.7574
▁öğrendiğimiz	-10.7574
leyebilir	-10.7575
▁duyduğum	-10.7576
▁yanındaki	-10.7577
▁Yunan	-10.7579
▁Sam	-10.758
iyordum	-10.7586
▁yetenekli	-10.759
▁ham	-10.7592
▁adlandır	-10.7593
▁ip	-10.7594
▁yaşıyordu	-10.7597
▁ilişkili	-10.7605
▁hayatları	-10.7605
▁nı	-10.7606
▁golf	-10.7606
▁lazer	-10.7606
▁alması	-10.7606
▁bilinmeyen	-10.7606
▁Vadisi	-10.7608
▁yazdığı	-10.761
▁umuyor	-10.7613
▁vizyon	-10.7613
▁sihirli	-10.7616
▁saati	-10.7617
lərdən	-10.7623
üz	-10.7625
▁çıkarıp	-10.7626
▁işlev	-10.7628
▁İçinde	-10.7629
▁İster	-10.7632
▁yarın	-10.7637
▁derinden	-10.7642
acaksınız	-10.7643
▁olacağına	-10.7643
▁du	-10.7645
▁yatan	-10.7651
▁örnekleri	-10.7651
▁Hep	-10.7662
▁Ter	-10.7663
amıyor	-10.7664
▁doğası	-10.767
emezsiniz	-10.7674
▁aileleri	-10.7676
▁ke	-10.7677
▁insansız	-10.7679
▁çıkması	-10.7685
▁küçü	-10.7685
mekten	-10.7686
▁duyduğunuz	-10.7687
▁yanda	-10.7687
▁yapmakta	-10.7687
▁masraf	-10.7689
▁başladığımda	-10.7695
▁ini	-10.7703
▁gidin	-10.7705
▁elleri	-10.7706
▁teleskop	-10.7706
▁duygular	-10.7709
▁benlik	-10.7713
▁ortamı	-10.7713
▁yapabiliri	-10.7713
▁hatırlıyor	-10.7717
▁jenerasyon	-10.7722
▁Fizik	-10.7722
▁dayanıyor	-10.7722
▁online	-10.7722
▁sekil	-10.7722
iriz	-10.7723
▁aktivist	-10.7723
▁yapış	-10.7724
▁Eminim	-10.7724
▁Zor	-10.7724
▁2005	-10.7726
▁doğada	-10.7729
▁inanır	-10.773
▁çekip	-10.773
sti	-10.7732
▁davranışlar	-10.7732
▁izle	-10.7732
▁koşu	-10.7733
▁anki	-10.7736
▁Doğal	-10.7737
ğımız	-10.7738
▁yazılımı	-10.774
▁istediğimi	-10.7741
▁özür	-10.7741
▁topluyor	-10.7744
▁adeta	-10.7748
▁tasarımın	-10.7749
▁Lin	-10.7749
▁alındı	-10.7751
▁kısme	-10.7752
▁tasarlamak	-10.7753
▁etken	-10.7754
irler	-10.7754
▁matematikçi	-10.7758
ayet	-10.776
▁metafor	-10.7762
ndə	-10.7767
▁sürme	-10.7768
▁atmosferi	-10.7768
J	-10.7771
▁250	-10.7773
▁sizə	-10.7774
▁kullandım	-10.7776
▁hastalıkların	-10.7776
▁Üniversite	-10.7779
▁öğrenebilir	-10.778
▁sıcaklığı	-10.7783
▁olasılık	-10.7783
▁Asla	-10.7786
▁dönemi	-10.7787
▁yaratıklar	-10.7789
▁mo	-10.7789
▁kimliği	-10.7791
▁vermiyor	-10.7792
▁akraba	-10.7793
mışlardı	-10.7793
▁yapıları	-10.78
ers	-10.7803
ımıza	-10.7806
▁tedavisi	-10.7806
▁Jim	-10.781
▁ciddiye	-10.7813
▁insandan	-10.7814
▁raf	-10.7815
▁kararı	-10.7816
▁korkusu	-10.7821
▁şurada	-10.7827
▁Bin	-10.7828
▁eğit	-10.7839
▁sebze	-10.784
▁Geçtiğimiz	-10.784
▁akademi	-10.784
▁mikroskop	-10.784
▁Süper	-10.784
▁maddi	-10.784
▁portre	-10.784
▁çözül	-10.7841
▁edirəm	-10.7842
▁oldugu	-10.7844
ilecek	-10.7845
▁işliyor	-10.7846
▁DH	-10.7846
▁yayılan	-10.7847
▁cun	-10.7849
▁yapmıştı	-10.7852
▁kaybediyor	-10.7854
▁mutsuz	-10.7855
▁2.	-10.7858
▁sinek	-10.786
▁korunma	-10.7861
▁Birlikte	-10.7862
▁boyut	-10.7864
▁hattı	-10.7865
▁entegr	-10.7865
▁yetki	-10.7867
▁taşır	-10.7873
▁isterdi	-10.7877
mizdeki	-10.7877
▁elma	-10.7879
▁yapmasını	-10.788
▁çıx	-10.7881
▁dönüştürme	-10.7882
▁yaptığımı	-10.7885
▁kalbi	-10.7885
▁ajan	-10.7886
▁yürüyor	-10.7889
▁olmayabilir	-10.7892
▁d	-10.7892
▁ağaçları	-10.7892
▁cihazlar	-10.7893
bur	-10.7904
▁boşluğu	-10.7904
▁ulaştır	-10.7906
mıştık	-10.7907
▁danışman	-10.7908
▁içeriği	-10.7909
▁yatır	-10.7916
▁İnan	-10.7919
▁umudu	-10.7922
mdeki	-10.7926
▁liderleri	-10.7927
▁sorgulama	-10.7933
▁Mal	-10.7938
▁damla	-10.7938
▁ödülü	-10.7941
▁hedefi	-10.7945
▁sunu	-10.7947
▁yaşlarında	-10.7949
sındaki	-10.7952
▁sezgi	-10.7956
▁yepyeni	-10.7959
▁sevimli	-10.7959
▁kemiği	-10.7959
▁vesaire	-10.7959
▁yangın	-10.7959
▁öncü	-10.796
▁1950	-10.796
▁ölçüm	-10.7964
▁kazanç	-10.7965
▁güçlendir	-10.7968
▁kuruluşları	-10.7968
▁verip	-10.7971
cılık	-10.7971
ari	-10.7972
▁alırsınız	-10.7973
▁bekliyor	-10.7975
ebildi	-10.7977
▁hastası	-10.7977
▁düşünmüştü	-10.7977
▁enerjinin	-10.7978
nızdan	-10.798
▁koydu	-10.7982
▁alabilirsiniz	-10.7982
▁çevirme	-10.7983
▁böcekler	-10.7985
▁Dünyayı	-10.7986
▁kalırsa	-10.7987
▁yanımda	-10.7988
▁Ocak	-10.799
əcək	-10.7995
düm	-10.7997
▁çalışacak	-10.8
▁aramaya	-10.8001
▁zehirli	-10.8004
▁çeviri	-10.8007
▁gazı	-10.8009
▁Frank	-10.8009
▁gözü	-10.801
▁kanı	-10.801
▁davam	-10.801
▁yansıt	-10.8011
▁0	-10.8018
▁öner	-10.8019
▁ayırt	-10.8019
▁aramak	-10.8021
▁anlaşıl	-10.8022
▁bat	-10.8023
ire	-10.8028
▁stüdyo	-10.8028
▁kira	-10.803
▁kaplı	-10.8037
▁uygulay	-10.8041
▁yatıyor	-10.8046
▁verdikleri	-10.8047
▁Cas	-10.8048
▁bağlıdır	-10.8048
▁keyif	-10.8053
▁Hayd	-10.8058
▁oradaydı	-10.8058
▁profesör	-10.806
▁geçecek	-10.8062
▁uşaq	-10.8063
▁beyinde	-10.8064
▁Bur	-10.8067
▁yayıldı	-10.8068
▁başlık	-10.8069
▁Tu	-10.807
mus	-10.8071
▁hissediyor	-10.8074
▁tarihin	-10.8074
▁Wo	-10.8074
▁Şehir	-10.8076
▁Uluslararas	-10.8079
▁antibiyotik	-10.8079
▁ekstra	-10.8079
▁figür	-10.8079
▁kabuk	-10.8079
▁nazik	-10.808
dığımda	-10.8085
▁etmeliyiz	-10.8086
▁Hareket	-10.8089
▁düşünürken	-10.809
▁cihazları	-10.809
▁Kalp	-10.8092
▁once	-10.8094
lərlə	-10.8095
▁Yə	-10.8097
▁hatırlayın	-10.81
tmak	-10.81
▁hekayə	-10.8102
▁mantığı	-10.8102
ğim	-10.8103
▁birisini	-10.8108
▁istek	-10.8111
▁Gerçekte	-10.8113
▁temas	-10.8115
▁katil	-10.8115
▁lu	-10.8117
▁sonuçlarını	-10.8117
▁minik	-10.8118
▁inanan	-10.8119
▁maliyetli	-10.8122
▁gönderdi	-10.8137
▁yaşamaya	-10.8137
▁Tanı	-10.8138
▁öğrendi	-10.814
▁inek	-10.8143
▁oluşturduğu	-10.8147
▁bölümünde	-10.8147
▁geçmişi	-10.8149
▁alanını	-10.8154
emeyiz	-10.8155
▁çay	-10.8156
rsa	-10.8159
▁harcay	-10.8162
BI	-10.8163
▁artı	-10.8163
▁şarkısı	-10.8164
sıydı	-10.8164
▁elinizde	-10.8169
▁Pan	-10.8169
▁geçirdik	-10.817
▁aydınlat	-10.8172
▁bebeğin	-10.8179
gün	-10.8184
▁At	-10.8189
gər	-10.819
▁yolcu	-10.8196
▁Mutlu	-10.82
▁hüküm	-10.82
▁maddə	-10.8201
▁şebeke	-10.8201
▁2011	-10.8201
▁torba	-10.8201
▁gerektirir	-10.8201
▁optik	-10.8202
▁rica	-10.8202
▁ulaşılabilir	-10.8202
▁kaygı	-10.8202
▁gerektiren	-10.8202
▁baktığımda	-10.8203
▁yararlan	-10.8203
▁sevdiği	-10.8203
▁dikey	-10.8204
▁trans	-10.8204
▁MR	-10.8205
▁yapılır	-10.8205
▁2004	-10.8205
▁yaşanan	-10.8208
▁geliş	-10.8218
▁programlama	-10.8219
▁Rio	-10.8223
▁ölür	-10.8223
▁hızlandır	-10.8225
▁vücudun	-10.8225
▁anlamamız	-10.8227
zun	-10.823
▁havalı	-10.8232
▁alış	-10.8234
▁çağında	-10.8236
sch	-10.824
▁etmekte	-10.8244
▁güçleri	-10.8246
▁yaşadım	-10.8251
▁tel	-10.8254
▁Ol	-10.8254
▁çıkaran	-10.8271
▁dolan	-10.8275
laşmış	-10.8277
▁yaratmaya	-10.8277
▁Öğrenciler	-10.828
▁edebilmek	-10.8282
▁ekonominin	-10.8286
▁bölgeleri	-10.8295
▁Halk	-10.8297
▁fizikçi	-10.8299
▁listesi	-10.8299
ili	-10.8301
dirler	-10.8303
▁farklılıklar	-10.8303
▁No	-10.8307
▁Gar	-10.8309
▁türlerin	-10.8309
▁insanla	-10.831
▁harcıyor	-10.8317
▁Hə	-10.8321
▁girmek	-10.8323
▁travma	-10.8323
▁karşılaştırma	-10.8323
▁gerekecek	-10.8324
▁konser	-10.8325
▁belediye	-10.8325
▁çeşidi	-10.8325
▁ısrar	-10.8325
▁Enerji	-10.8325
▁Modern	-10.8325
▁kapsamlı	-10.8325
▁Kutbu	-10.8325
▁Önümüzde	-10.8325
▁oğlan	-10.8325
▁Robert	-10.8325
▁olacaq	-10.8326
▁devletin	-10.8326
▁destekleyen	-10.8327
▁kurumsal	-10.8328
▁kentsel	-10.8329
▁hakikat	-10.8329
▁tekniği	-10.833
▁kendiliğinden	-10.8332
kən	-10.8332
▁birçoğu	-10.8334
▁Bob	-10.8335
▁aptalca	-10.8336
▁perde	-10.8337
▁yetiş	-10.8339
▁duyan	-10.8343
▁olmalısınız	-10.8343
▁arkadaşlar	-10.8345
▁sag	-10.8346
▁bahsetti	-10.8349
▁duyduğu	-10.8351
▁hiss	-10.8351
▁okyanusta	-10.8353
▁istemiyor	-10.8356
▁Alqışlar	-10.8361
▁girdim	-10.8363
▁bacak	-10.8365
▁kurar	-10.8367
▁doz	-10.8369
▁Üste	-10.8369
▁ağırlık	-10.837
bel	-10.8371
▁hat	-10.8375
▁olacağım	-10.8375
▁yukarıda	-10.8376
▁bozuk	-10.838
▁hatırlar	-10.8385
▁vermesi	-10.8388
▁Can	-10.8388
sızlık	-10.8389
▁türün	-10.839
gram	-10.839
ırsanız	-10.8391
▁iskelet	-10.8391
▁çıkardık	-10.8392
▁temeli	-10.8393
▁dışarıya	-10.8403
labilir	-10.8407
▁miras	-10.8411
▁aş	-10.8418
▁çap	-10.8418
▁sevin	-10.8419
örü	-10.842
ürekli	-10.8422
▁bildikleri	-10.8423
larımızla	-10.8423
▁haklarını	-10.8426
ps	-10.8427
▁hayati	-10.8427
▁Kanser	-10.8428
lıyorum	-10.8429
▁büyüt	-10.8431
▁birbirini	-10.844
▁adapt	-10.8443
▁Sev	-10.8445
▁gitmiş	-10.8447
▁gezegenler	-10.8447
▁endişelen	-10.8449
▁Californi	-10.845
▁otomobil	-10.845
▁Problem	-10.845
▁inovasyon	-10.845
▁Haiti	-10.845
▁həqiqətən	-10.845
▁Nobel	-10.845
▁hayatımız	-10.845
▁sokakta	-10.8456
▁şekiller	-10.8459
▁kapak	-10.8459
▁aşamada	-10.8461
▁şair	-10.8463
▁götürüyor	-10.8464
▁gördüğümde	-10.8465
▁195	-10.8467
▁kullanıyorum	-10.8468
▁Sha	-10.847
▁sade	-10.8473
▁baktığı	-10.8475
▁hastanede	-10.8475
▁Okyanus	-10.8483
lendiği	-10.8483
▁deneyimleri	-10.8485
▁Fu	-10.8486
ədə	-10.8487
▁bittiğini	-10.8488
sün	-10.8488
▁seçeneği	-10.8491
▁kainat	-10.8495
▁bul	-10.8495
▁yaparsak	-10.8496
▁araştırmaya	-10.8497
▁anladık	-10.8497
30	-10.8499
ans	-10.8501
▁harcadı	-10.8502
▁Bas	-10.8506
▁pozisyon	-10.8506
▁biriktir	-10.8509
▁içlerinde	-10.851
▁yollarla	-10.8511
▁çıktım	-10.8511
yorlar	-10.8513
▁Erkek	-10.8515
▁donanım	-10.8523
▁izleyici	-10.8533
caba	-10.8533
rdi	-10.8535
▁açtığı	-10.8537
▁gök	-10.8537
▁gay	-10.8539
▁Mor	-10.8541
▁kapasitesi	-10.8541
▁çocuklarını	-10.8543
ınıza	-10.8545
▁hayatında	-10.8545
lərdə	-10.8547
▁filtre	-10.8548
▁başladığım	-10.8551
klarını	-10.8553
▁yüzme	-10.8555
▁kafatası	-10.8564
emeyecek	-10.8568
▁basar	-10.857
▁hayl	-10.857
▁yoksun	-10.8573
▁konuşmaları	-10.8574
▁ağacın	-10.8576
▁Street	-10.8576
▁enstrüman	-10.8576
▁qadın	-10.8576
▁Yahudi	-10.8576
▁tören	-10.8577
▁yetecek	-10.8577
▁CEO	-10.8577
▁kutlama	-10.8578
▁düşünürsek	-10.8579
▁Er	-10.8579
▁beton	-10.858
▁diyebilirsiniz	-10.8583
▁arasından	-10.8586
▁uzayda	-10.8588
▁bakıyorum	-10.859
▁bastır	-10.859
▁Bey	-10.859
▁kalmıştı	-10.8591
▁besle	-10.8594
▁fikrine	-10.8596
▁Derek	-10.8606
▁uygulamalar	-10.8608
▁bağlaya	-10.8608
▁yerleşim	-10.8609
▁edildiği	-10.8614
▁yüzeyi	-10.8622
▁dakikalık	-10.8624
▁anlatan	-10.8626
▁ağız	-10.863
lerimden	-10.8634
▁attı	-10.8635
▁durumunu	-10.8638
▁yerdir	-10.8641
ydık	-10.8644
▁Rob	-10.8646
▁olayları	-10.8648
mamış	-10.8651
▁kuralı	-10.8654
▁grupları	-10.8656
mızla	-10.8657
▁demək	-10.8664
▁yöntemleri	-10.8664
▁canlılar	-10.8667
ırdım	-10.8667
▁akışı	-10.8668
▁sayılar	-10.8668
▁birbirimiz	-10.8677
kat	-10.8679
▁kolaylaştır	-10.8681
lıktan	-10.8682
▁ölümü	-10.8682
▁düşünmeyi	-10.8684
▁poster	-10.8684
▁başlığı	-10.8684
▁nü	-10.8684
▁yaprak	-10.8686
▁kısıt	-10.8686
▁dilim	-10.8687
▁gidiyordu	-10.8688
▁gez	-10.8696
lediği	-10.8699
▁Kültür	-10.8705
▁Muhteşem	-10.8705
▁hərəkət	-10.8705
▁dəfə	-10.8705
▁maske	-10.8705
▁Devam	-10.8705
▁Hâl	-10.8705
▁haqqında	-10.8705
▁Söz	-10.8706
▁yaxın	-10.8708
▁cerrahi	-10.8709
▁neydi	-10.871
▁kusursuz	-10.8711
▁bırakıp	-10.8712
▁tümüyle	-10.8712
▁şəkildə	-10.8714
▁anlıyorum	-10.8719
▁sitesi	-10.8724
▁so	-10.8725
▁dönüştürmek	-10.8725
▁resmini	-10.8726
▁yakaladı	-10.8726
▁sigorta	-10.873
▁penguen	-10.8731
▁giysi	-10.8731
▁rakamlar	-10.8737
▁katılım	-10.8737
▁ülkeyi	-10.8742
▁vatandaş	-10.8744
ladığımız	-10.8744
▁keşfettim	-10.8744
yer	-10.8745
▁nedenini	-10.8747
▁belirleme	-10.8752
▁finanse	-10.8752
▁fiyatı	-10.8757
▁yarısında	-10.8759
istan	-10.8761
▁herşeyin	-10.8764
▁zorluklar	-10.8764
▁Orman	-10.8768
▁isti	-10.8769
▁bel	-10.877
▁tas	-10.8772
▁varsay	-10.8774
▁toplumlar	-10.8775
▁v	-10.8782
▁meraklı	-10.8784
▁okudu	-10.8785
▁bazılarınız	-10.8787
▁kullanıldı	-10.8789
evi	-10.8791
▁yolculuğ	-10.8791
▁hayran	-10.8794
▁ediyordum	-10.8797
▁Proje	-10.8797
lıyordu	-10.8798
▁süresi	-10.8798
▁koşul	-10.8799
▁hastaları	-10.8804
umun	-10.8804
▁çarpı	-10.8806
▁yapmadı	-10.8809
eceğimiz	-10.881
▁değerini	-10.8811
▁genomu	-10.8812
▁sinyalleri	-10.8816
▁ağları	-10.8824
▁alınmış	-10.8831
▁liberal	-10.8834
▁Manhattan	-10.8835
▁kırılgan	-10.8835
zen	-10.8835
eceksiniz	-10.8835
▁təsir	-10.8835
▁göstermeye	-10.8837
▁başladığını	-10.8837
lus	-10.8838
▁kutusu	-10.884
▁bakıyorsunuz	-10.8841
bin	-10.8842
▁ışıkları	-10.8842
▁ayrıl	-10.8843
▁tərəfində	-10.8844
▁anlattığı	-10.8844
▁yılan	-10.8847
▁ilgileniyor	-10.8851
▁ülkeden	-10.8852
▁endüstrisi	-10.8855
▁düzeltme	-10.8856
dil	-10.8858
▁yetiştirme	-10.8858
▁bitkilerin	-10.8859
▁büyüklükte	-10.8861
▁koşulları	-10.8863
▁sınıfı	-10.8871
▁anatomi	-10.8877
▁gelişmeler	-10.8879
▁olmaq	-10.8879
org	-10.8881
laşıyor	-10.8882
▁ağırlığı	-10.8882
▁internetin	-10.8883
▁has	-10.8885
ografi	-10.8891
▁bulan	-10.8893
▁etmə	-10.8895
▁redded	-10.8902
▁giz	-10.8903
▁mısın	-10.8904
lemiş	-10.8908
cik	-10.8909
eceğine	-10.891
▁teknolojilerin	-10.8911
▁boy	-10.8912
▁molekülleri	-10.8913
▁Mon	-10.8914
▁günümüz	-10.8916
▁yönden	-10.8916
▁əla	-10.8917
▁lideri	-10.8919
▁sürecinde	-10.892
▁uğraşma	-10.892
▁sevgili	-10.8921
▁düşünecek	-10.8923
▁oluşturu	-10.8923
▁alanların	-10.8924
▁tanışma	-10.8925
▁öğretiyor	-10.8926
▁deyir	-10.8929
ydik	-10.8929
▁ileride	-10.893
▁çektiği	-10.8931
sinda	-10.8932
▁Yaşa	-10.8935
leştirmek	-10.8941
▁nöronlar	-10.8941
▁yüzeye	-10.8942
mur	-10.8943
▁çarpışma	-10.8947
▁çıkarır	-10.8951
abilecekleri	-10.8952
▁Sistem	-10.8952
vu	-10.8952
▁çıkardığı	-10.8957
▁mali	-10.896
▁yakalanma	-10.896
▁görmüyor	-10.8964
▁vermeyi	-10.8965
▁metro	-10.8965
▁hapse	-10.8966
▁Uganda	-10.8966
▁Çift	-10.8966
▁bilişsel	-10.8966
▁patron	-10.8966
▁emekli	-10.8967
sunuzdur	-10.8967
▁Kırmızı	-10.8968
▁PM	-10.897
▁düşünmüyorum	-10.8971
▁öldürme	-10.8971
▁üretilen	-10.8974
▁formül	-10.8975
▁duyduk	-10.8982
▁geliyoruz	-10.8984
ld	-10.8987
▁elektro	-10.8989
uşu	-10.899
▁duvara	-10.8993
▁yapıcı	-10.9
▁konuşmanın	-10.9005
▁iyimser	-10.9006
▁usta	-10.9008
▁motoru	-10.9012
▁büyükanne	-10.9014
▁bitti	-10.9014
▁dol	-10.9017
▁yayım	-10.9018
▁Tim	-10.902
▁benzediğini	-10.9022
▁silahlı	-10.9023
▁Ken	-10.9026
▁ekleme	-10.9031
▁Erkekler	-10.9031
▁etmeden	-10.9037
▁iyiydi	-10.9037
▁şeffaf	-10.9039
▁şiddetin	-10.9039
▁birliği	-10.904
▁yaramaz	-10.9042
▁davranışlarını	-10.9044
üs	-10.9044
▁kelimesini	-10.9045
▁w	-10.9046
▁kule	-10.9052
▁hesabı	-10.9053
▁Fotoğraf	-10.9058
▁topluluğun	-10.9058
▁tanık	-10.9059
▁ayrılma	-10.9059
▁şekillendir	-10.9061
ix	-10.9063
▁yo	-10.9066
▁dikkatini	-10.9067
▁bacağı	-10.9067
▁bez	-10.9067
▁İz	-10.9068
▁kısıtlama	-10.9068
▁bilinci	-10.9068
▁Hintli	-10.9068
▁değişiklikleri	-10.9069
▁gözlerini	-10.9069
unuzu	-10.9071
▁sözlük	-10.9071
▁tasarlama	-10.9077
▁kelimesi	-10.9078
▁sorgu	-10.9079
▁kalması	-10.9082
▁materyal	-10.9082
▁atış	-10.9084
▁adımı	-10.9085
▁başlarında	-10.9088
▁vi	-10.9088
ılmıştı	-10.9089
▁eğil	-10.9094
alesef	-10.9097
▁sıkıştır	-10.9098
▁kadını	-10.9099
▁koridor	-10.9099
▁dinozor	-10.9099
▁vadeli	-10.91
▁Whit	-10.91
▁karmaşa	-10.91
▁dizüstü	-10.91
▁sentez	-10.9101
▁düğüm	-10.9101
▁inanı	-10.9101
▁Noel	-10.9101
▁Korku	-10.9102
▁səbəb	-10.9102
▁rota	-10.9102
▁yaratabilir	-10.9102
▁İçeri	-10.9102
▁vb	-10.9103
▁esnasında	-10.9104
▁dayanarak	-10.9106
▁yapamayacağı	-10.9108
▁yenilenebilir	-10.9108
▁oynayan	-10.9109
▁şehrinde	-10.9109
▁başladığımız	-10.9112
▁ilaçların	-10.9117
▁100.000	-10.9118
▁yerlerinde	-10.912
▁tamamını	-10.912
▁Titan	-10.9123
ımızda	-10.9124
▁bulamadı	-10.9125
▁fikr	-10.9125
▁satır	-10.9126
ıldığını	-10.9127
▁Br	-10.9128
▁sonun	-10.913
▁tüketimi	-10.9132
▁hastaneye	-10.9134
▁Yu	-10.9135
▁yetişkinler	-10.9136
▁po	-10.9137
liyi	-10.9139
▁dokusu	-10.914
▁bilinir	-10.914
▁götürür	-10.9146
lıkları	-10.9147
▁trend	-10.9156
▁yöntemler	-10.9161
▁koruy	-10.9163
▁genleri	-10.9163
▁diğerlerinin	-10.9165
▁yaratacak	-10.9166
▁Öl	-10.9167
▁ulaştı	-10.9168
▁öğrencilerim	-10.9168
▁yükle	-10.9169
▁yıldızların	-10.917
▁iyice	-10.9171
▁cerrah	-10.9172
irsiniz	-10.9174
▁öğretmek	-10.9176
▁dönüşüyor	-10.9179
▁pil	-10.918
▁okumaya	-10.9181
▁düşünüyorlar	-10.9181
melisiniz	-10.9182
▁fırsatlar	-10.9184
▁dünyadan	-10.9185
▁olmasaydı	-10.9193
▁uygulamaya	-10.9194
▁bireylerin	-10.9197
▁denedik	-10.9197
▁sınırı	-10.92
onu	-10.9204
abileceğim	-10.9205
▁yaşadıkları	-10.9205
▁dilini	-10.9209
▁terim	-10.9212
▁Nə	-10.9212
▁yapabilirler	-10.9214
▁Deney	-10.9216
▁Öte	-10.922
▁bildirim	-10.9222
yüz	-10.9223
▁otorite	-10.9225
▁köşesinde	-10.9228
▁Che	-10.923
▁konuştu	-10.923
▁gö	-10.9231
▁kuram	-10.9231
▁Olay	-10.9231
▁fotoğrafını	-10.9234
▁məktəb	-10.9235
▁çubuk	-10.9235
cıları	-10.9235
▁anımsa	-10.9237
▁çocuklarının	-10.924
▁kabiliyeti	-10.9241
▁çıkarak	-10.9245
▁almaz	-10.9247
▁yaşayacak	-10.9248
▁tarihsel	-10.9248
▁geceleri	-10.9248
▁kanal	-10.9251
▁kitapta	-10.9251
▁yaparsa	-10.9253
▁milyard	-10.9254
▁əl	-10.9255
▁aralarında	-10.9255
▁kanıtı	-10.9257
▁çevreye	-10.9257
▁seslerini	-10.9258
ladığını	-10.9262
▁ayakları	-10.9264
ras	-10.9269
▁giren	-10.9269
lduğu	-10.9274
▁hesaba	-10.9277
leyin	-10.9282
▁virüsü	-10.9285
▁çalışmasını	-10.9286
▁başarısızlık	-10.9287
oo	-10.9288
▁kesi	-10.9291
▁aşamasında	-10.9294
▁güce	-10.9295
BG	-10.9303
▁sunduğu	-10.9304
▁tekerlek	-10.9305
acaklar	-10.9305
▁koş	-10.9306
▁inceley	-10.9308
▁yarışı	-10.931
▁zordu	-10.9312
▁somut	-10.9313
▁sürdür	-10.9316
▁yüzleş	-10.9321
▁çıktığında	-10.9322
▁kor	-10.9325
▁prensip	-10.9328
▁çözümün	-10.9333
▁söyleyin	-10.9334
▁adama	-10.9335
▁yüzeyinde	-10.9336
tığınızda	-10.9339
▁davranışları	-10.934
▁Ad	-10.9341
▁hissettir	-10.9342
▁çıktığını	-10.9345
▁getirmeye	-10.9347
▁renkler	-10.9347
▁unut	-10.9348
▁becer	-10.9351
▁cevaplar	-10.9354
▁sığ	-10.9356
mişlerdi	-10.9356
▁insanlarda	-10.9356
so	-10.9357
▁26	-10.9358
▁anlamsız	-10.9359
▁yaşımda	-10.9359
▁Wall	-10.9363
miyordu	-10.9366
▁favori	-10.9366
▁sinyali	-10.9367
▁geçtiği	-10.9368
▁kuyruk	-10.9368
▁kullandıkları	-10.937
▁hükumet	-10.9372
▁motive	-10.9372
▁referans	-10.9372
▁ressam	-10.9372
▁Bakanlığı	-10.9372
▁felci	-10.9372
▁çekimi	-10.9372
▁taşıyıcı	-10.9372
▁cisim	-10.9372
▁eşitsizlik	-10.9373
▁kuyruklu	-10.9375
▁Yerel	-10.9376
mediği	-10.9376
ünüzü	-10.9378
▁odası	-10.9378
▁karmaşıklığı	-10.9382
▁istediklerini	-10.9383
▁keşfetti	-10.9388
rsak	-10.9389
▁ilgiliydi	-10.939
başı	-10.9393
ds	-10.9397
▁gideli	-10.9399
▁dünyamızı	-10.9402
▁dönük	-10.9403
▁geçmişe	-10.9404
▁sebepten	-10.9405
▁duman	-10.9407
▁yaşadık	-10.941
▁yapmaktan	-10.9414
▁sormaya	-10.9414
▁parçalarını	-10.9415
▁aranızda	-10.9415
▁Öz	-10.9418
muzda	-10.9418
▁gidiyorlar	-10.9419
yl	-10.9419
luğ	-10.942
▁göl	-10.942
▁önyargı	-10.9421
▁Oysa	-10.9424
▁ger	-10.9425
▁bağlantıları	-10.9428
▁etmem	-10.9428
▁biliyorduk	-10.9428
▁sorduğum	-10.9429
etti	-10.9432
▁In	-10.9432
▁miktarını	-10.9433
▁vermişti	-10.9433
▁çarp	-10.9435
▁Tə	-10.9437
▁desteklemek	-10.9441
▁kültürün	-10.9443
▁yazmaya	-10.9446
▁uğraşıyor	-10.9446
▁Masa	-10.9446
▁yürüt	-10.9447
▁kardeş	-10.945
▁Söyle	-10.9456
▁eleştiri	-10.9458
▁pro	-10.9458
▁hızda	-10.9462
▁ilaçları	-10.9462
▁Tak	-10.9463
▁müdür	-10.9463
▁eşya	-10.9466
▁çıkmaya	-10.9468
▁Yoks	-10.9468
▁takma	-10.9471
yacağını	-10.9478
▁verilerin	-10.948
▁Min	-10.9481
▁İtalya	-10.9482
emiyor	-10.9483
▁karşıtı	-10.9483
▁dar	-10.9484
▁giderse	-10.9485
▁Ti	-10.9487
▁şiddeti	-10.9489
▁Tarih	-10.949
▁riskli	-10.949
▁topluluklar	-10.9494
gü	-10.9495
▁değiştiğini	-10.9495
▁Lu	-10.9496
▁projede	-10.9497
▁ilgimi	-10.95
▁birbirimizi	-10.95
▁Don	-10.9501
▁haritasını	-10.9508
▁tepesinde	-10.9508
▁başlaya	-10.9509
▁olağan	-10.951
▁uzaya	-10.951
▁dramatik	-10.951
▁enteresan	-10.951
▁şehre	-10.951
▁partner	-10.951
▁uğultu	-10.951
▁çukur	-10.951
▁GSY	-10.951
▁cidden	-10.951
▁piyano	-10.951
▁Ebola	-10.951
▁sopa	-10.9511
▁qız	-10.9511
▁transfer	-10.9511
▁söyleyeyim	-10.9512
▁Yardım	-10.9512
▁Merak	-10.9512
▁böceği	-10.9513
▁severim	-10.9514
▁işgal	-10.9516
▁yenilikler	-10.9516
▁fonksiyon	-10.952
▁Durum	-10.952
▁yuvarlak	-10.9523
▁dağıtım	-10.9526
▁söylenen	-10.953
▁asit	-10.9531
inizde	-10.9532
▁Ci	-10.9532
▁sinema	-10.9532
▁gereksiz	-10.9533
▁aynısını	-10.9533
▁çocukluk	-10.9534
etik	-10.9539
▁incelemek	-10.954
▁kirli	-10.9542
▁Kongo	-10.9543
muzun	-10.9545
▁kül	-10.9547
abilirler	-10.9547
▁İsa	-10.9547
leşen	-10.9548
▁alıyordu	-10.9548
▁korkuyor	-10.9561
▁kısıtlı	-10.9563
▁diyen	-10.9565
▁etmedi	-10.9566
▁beyniniz	-10.9567
▁düşünmeniz	-10.9568
▁yoğunluğu	-10.9572
▁pe	-10.9575
ser	-10.9576
▁buzun	-10.9577
▁şartları	-10.9578
▁çaresiz	-10.9582
▁Sonraki	-10.9582
▁ekipman	-10.9582
▁çare	-10.9582
▁1.	-10.9585
▁120	-10.9594
▁aradı	-10.9594
▁dönüştürül	-10.9595
ebilmesi	-10.9596
▁ümit	-10.9597
▁üretir	-10.9599
▁fırlat	-10.9601
▁mühendisler	-10.9601
▁Es	-10.9605
▁balıkçı	-10.9606
▁küçül	-10.9606
▁28	-10.9609
▁arabayı	-10.961
▁verilere	-10.9612
▁böcekleri	-10.9613
▁ilgilenme	-10.9614
▁bölgeler	-10.9618
▁kısmına	-10.9618
▁baca	-10.962
▁göndermek	-10.962
▁çalışacağım	-10.9621
▁fotoğraflarını	-10.9625
▁kaldırı	-10.9625
▁ürettiği	-10.9625
▁sorunumuz	-10.9626
▁Özel	-10.9629
▁Güven	-10.9631
▁hükümetin	-10.9632
abileceğiniz	-10.9633
▁Aslın	-10.9637
▁fırın	-10.9638
▁azı	-10.9639
▁yapıldığı	-10.964
nuzda	-10.9642
öz	-10.9644
▁ikincisi	-10.9645
▁reaksiyon	-10.9651
▁reçete	-10.9651
▁çətin	-10.9651
▁Smith	-10.9651
▁şapka	-10.9651
▁ödün	-10.9651
▁Geleneksel	-10.9652
▁aşina	-10.9652
▁süresince	-10.9652
▁Karşı	-10.9652
▁Kişi	-10.9653
▁gerekmiyor	-10.9653
▁göreceğiniz	-10.9654
▁omuz	-10.9654
▁nöroloji	-10.9656
▁bakımından	-10.9657
▁başlayıp	-10.9657
▁basamak	-10.9659
▁mor	-10.9659
▁akışını	-10.9662
▁öyleyse	-10.9667
▁sanatın	-10.9668
ılıp	-10.9669
▁okulun	-10.9669
▁okuduğum	-10.967
▁içimizde	-10.9672
▁Güvenlik	-10.9672
▁etdiyi	-10.9674
▁tat	-10.9679
▁kış	-10.9679
▁akıllıca	-10.9681
▁Bankası	-10.9682
mışlar	-10.9683
▁eşitlik	-10.9685
▁güncel	-10.9686
▁yapmama	-10.9687
▁bozulma	-10.969
yordum	-10.9691
▁parmağı	-10.9691
▁çıxar	-10.9692
▁eğitimli	-10.9692
▁bıraktığı	-10.9695
▁konuştum	-10.9696
▁gerçekleştirmek	-10.9697
əgər	-10.9698
▁bizleri	-10.97
▁vardım	-10.9705
▁Der	-10.9706
▁bekley	-10.9707
▁şartlar	-10.971
▁giyin	-10.971
▁Niye	-10.9712
▁düşünceler	-10.9716
▁konuşmamı	-10.9717
▁adlandırıla	-10.9721
▁Var	-10.9723
▁element	-10.9724
▁fotoğrafta	-10.9724
▁düşünmüyor	-10.9726
▁kayıtları	-10.9727
▁yatağı	-10.9727
▁ağaçların	-10.973
▁yüze	-10.9734
▁olasılıkla	-10.9739
▁resmin	-10.9739
▁durduru	-10.9742
▁Pu	-10.9744
▁Normal	-10.9744
▁etkilerini	-10.9744
▁tasarla	-10.9745
▁fikrimiz	-10.9747
yarak	-10.9747
eşke	-10.9751
mazlar	-10.9751
▁keşfi	-10.9752
▁götürü	-10.9753
▁Müzesi	-10.9755
▁geçin	-10.9756
▁evrimin	-10.9758
▁Krallık	-10.9759
▁Uç	-10.976
▁bozukluğu	-10.9762
▁azaltmak	-10.9762
▁Mart	-10.9763
▁pay	-10.9763
gı	-10.9763
▁eğitimin	-10.9769
▁inandı	-10.9773
luğunu	-10.9773
▁hayatınızı	-10.9774
▁ikisinin	-10.9774
ill	-10.9774
▁duvarı	-10.9776
▁birşeyi	-10.978
uldu	-10.9783
▁ilişkisi	-10.9785
liydim	-10.9787
▁Mer	-10.979
▁Matematik	-10.9794
▁helikopter	-10.9794
▁Britanya	-10.9794
▁Chicago	-10.9794
▁gecekondu	-10.9794
▁hitap	-10.9794
▁negatif	-10.9794
▁tahrip	-10.9794
▁şablon	-10.9794
▁acımasız	-10.9794
▁Biyoloji	-10.9794
▁paralel	-10.9794
▁kumanda	-10.9795
▁terörizm	-10.9795
▁2012	-10.9796
▁okullar	-10.9797
▁esinlen	-10.9798
▁umursama	-10.9799
▁buluşma	-10.98
▁Saat	-10.9802
▁Mac	-10.9803
▁uğraşan	-10.9803
▁araştırmacılar	-10.9805
▁verirseniz	-10.9805
▁yakalama	-10.9808
leridir	-10.9808
▁fo	-10.981
▁ilgilenen	-10.981
▁oranını	-10.981
▁okun	-10.9811
▁içeride	-10.9812
▁kanserin	-10.9815
malıdır	-10.982
dığımı	-10.982
▁takılı	-10.9821
çü	-10.9822
▁laboratuvarda	-10.9825
▁Gand	-10.9825
▁araştırmaları	-10.9825
▁tarla	-10.9826
▁For	-10.9827
▁doları	-10.9827
▁varken	-10.9827
▁dilin	-10.9828
▁geçiren	-10.9829
are	-10.9829
▁yunus	-10.983
▁kavrama	-10.983
▁alıyorum	-10.9832
▁kanat	-10.9834
▁durmak	-10.9835
▁kirliliği	-10.9836
▁kolaylık	-10.9841
▁kullanılması	-10.9844
▁işimiz	-10.9848
▁dersleri	-10.9854
▁korumaya	-10.9856
larınızın	-10.9856
▁evim	-10.9857
▁annemin	-10.986
▁Mil	-10.9863
jen	-10.9863
▁zorlama	-10.9864
▁aralık	-10.9865
▁konusundaki	-10.9866
▁kelimeleri	-10.9869
▁bağlantısı	-10.9871
▁dükkan	-10.9871
lalım	-10.9877
▁sorunların	-10.9877
▁odak	-10.9881
▁kova	-10.9882
▁halini	-10.9883
▁faydası	-10.9884
▁Üzerinde	-10.9884
amayacağı	-10.9885
lıydı	-10.9888
▁İnanıyoru	-10.9889
▁örtü	-10.9894
▁Alqış	-10.9897
▁bahsettiği	-10.99
▁sunma	-10.9902
▁Big	-10.9907
iydi	-10.9909
▁hepimizi	-10.991
▁geliri	-10.9914
▁Dış	-10.9915
▁politikacılar	-10.9916
ian	-10.9918
▁birimi	-10.9919
▁karıncalar	-10.9921
▁ömrü	-10.9923
▁keç	-10.9926
▁alanlarında	-10.9927
▁Düşün	-10.9928
likler	-10.9929
▁sistemlerin	-10.9934
▁sağa	-10.9936
▁olayların	-10.9937
▁diyalog	-10.9939
▁kahverengi	-10.9939
▁mevsim	-10.9939
▁pirinç	-10.9939
▁Silikon	-10.9939
▁Stanford	-10.9939
▁Sahip	-10.9939
uğu	-10.9939
▁yıkıcı	-10.9939
▁Beləliklə	-10.9939
▁Evrim	-10.9939
▁müziğin	-10.994
▁görünmüyor	-10.994
▁apar	-10.994
▁Işık	-10.9941
▁işlevsel	-10.9944
leşir	-10.9946
▁Belə	-10.9947
▁genlerin	-10.9947
▁keçi	-10.9948
▁bağlan	-10.9949
▁etməyə	-10.9951
▁robotik	-10.9954
▁üzərində	-10.9956
▁olanların	-10.9956
▁uzmanları	-10.9956
▁önemini	-10.9962
▁sesle	-10.9963
▁düşündüğünüzde	-10.9963
irdi	-10.9966
▁öncülü	-10.9967
▁istemem	-10.9968
▁kaz	-10.9969
liğinden	-10.9972
▁etkinlik	-10.9972
▁hükümetler	-10.9973
▁verdiğini	-10.9973
▁pişirme	-10.9974
▁bardak	-10.9978
▁sınav	-10.9979
▁Yedi	-10.998
biliyor	-10.9981
▁Gana	-10.9982
▁konuşmacı	-10.9982
▁vücudunu	-10.9984
▁bacakları	-10.9985
▁başardı	-10.9986
inize	-10.9987
▁beraberinde	-10.9987
▁zorundadır	-10.999
▁sebebiyle	-10.9992
▁inci	-11.0001
mağa	-11.0002
▁seçer	-11.0006
rmak	-11.0008
▁finans	-11.0008
▁elin	-11.001
meme	-11.0011
likdə	-11.0014
▁karşılaştığımız	-11.0015
▁sim	-11.0016
▁olmasıydı	-11.002
▁olmalarını	-11.0021
▁bazılarının	-11.0023
▁sesin	-11.0024
▁yaşamını	-11.0027
▁aldığını	-11.0032
ebiliyoruz	-11.0033
▁Aşağı	-11.0036
▁süt	-11.0036
leştiren	-11.0038
dor	-11.0038
▁yönetici	-11.0038
▁hara	-11.0038
▁çalışanlar	-11.0041
zel	-11.0044
cısı	-11.0045
rah	-11.0049
▁inceliyor	-11.005
of	-11.0053
▁gezin	-11.0053
▁gezegeni	-11.0055
▁akla	-11.0069
▁sınırlar	-11.0073
▁aletleri	-11.0075
▁karakteri	-11.0075
▁deneyimler	-11.0077
▁Hepsini	-11.0078
▁kurul	-11.0079
▁kozm	-11.0079
maktan	-11.0079
▁şiş	-11.0082
▁Scott	-11.0086
▁emniyet	-11.0086
▁karaciğer	-11.0086
▁kalori	-11.0086
▁gerektiriyor	-11.0086
▁maalesef	-11.0087
lanıp	-11.0087
çılar	-11.0088
▁Makine	-11.0088
▁kalkıp	-11.0089
▁fit	-11.009
▁basınç	-11.009
▁siber	-11.0091
▁pound	-11.0092
▁Ortalama	-11.0093
▁çamur	-11.0095
▁çalışıp	-11.0096
▁tutkulu	-11.0097
▁2001	-11.01
▁bela	-11.0103
▁etmeli	-11.0104
▁hepinizi	-11.0104
▁farkındalık	-11.0108
art	-11.011
▁bilgisayarı	-11.0112
▁götürme	-11.0116
▁isterler	-11.0118
▁içten	-11.0119
▁yönlendirme	-11.012
▁toplamak	-11.0123
▁vuru	-11.0126
▁bağlamda	-11.0132
▁döndük	-11.0134
▁oto	-11.0135
▁Herşey	-11.0136
▁dök	-11.0137
▁donmuş	-11.0138
▁formu	-11.0143
▁dedikleri	-11.0145
▁küreselleşme	-11.0146
▁doğma	-11.0148
▁seçimleri	-11.0149
▁yıka	-11.0149
▁33	-11.0151
kür	-11.0152
▁kullanmıyor	-11.0155
▁arabası	-11.0156
▁fikirlerini	-11.0157
▁Yara	-11.0158
ebileceğimizi	-11.0158
▁zorundaydım	-11.0159
▁Kol	-11.016
▁koltuğu	-11.0161
ıdır	-11.0164
▁teknolojisini	-11.017
▁yansı	-11.0176
▁tarafına	-11.0177
▁hazırlama	-11.0177
▁denemek	-11.0177
▁firması	-11.0178
▁faktör	-11.0179
meyeceğini	-11.0181
▁tüketim	-11.0186
▁Hükümet	-11.0188
▁organları	-11.019
▁evre	-11.0197
▁söylemişti	-11.0197
▁Sayı	-11.0199
▁fiil	-11.0201
▁kul	-11.0205
▁kaynaklanıyor	-11.0206
▁aleti	-11.0207
▁çizgiler	-11.0209
indən	-11.0209
▁koru	-11.0209
▁şe	-11.021
riye	-11.0211
▁özelliklerini	-11.0213
▁aynısı	-11.0218
▁çıkmaz	-11.0219
▁bayanlar	-11.0221
▁kuruluş	-11.0221
▁öldürdü	-11.0221
▁özet	-11.0222
▁dinliyor	-11.0222
▁kaldılar	-11.0226
ray	-11.0226
▁rehber	-11.0227
▁şeytan	-11.023
chi	-11.0234
▁bıçak	-11.0235
▁məlumat	-11.0235
▁trajedi	-11.0235
▁çikolata	-11.0235
▁cavab	-11.0235
▁prensibi	-11.0235
▁çöküş	-11.0235
▁retina	-11.0235
▁hormon	-11.0235
▁bencil	-11.0236
▁kosmos	-11.0236
▁İzleyici	-11.0236
▁yurt	-11.0236
▁dağınık	-11.0236
▁ünite	-11.0237
▁Benzer	-11.0237
▁Genellikle	-11.0237
▁destekleme	-11.0238
▁sayılır	-11.0238
▁eğilimi	-11.0239
▁durdurma	-11.0241
▁sanıyorum	-11.0241
▁hastalığ	-11.0242
▁çevrede	-11.0243
▁yarayan	-11.0243
▁buluyorum	-11.0245
▁galeri	-11.0246
BC	-11.025
▁bağlantılar	-11.025
▁örnekte	-11.0251
▁işleyen	-11.0251
▁ederseniz	-11.0253
▁ndaki	-11.0256
▁titreşim	-11.0258
landığını	-11.026
uel	-11.026
▁başlıyorlar	-11.026
▁görmeyi	-11.0261
▁deneysel	-11.0262
▁aksi	-11.0266
▁and	-11.0268
don	-11.0274
▁arayı	-11.0275
abilmesi	-11.0279
▁birbiri	-11.0283
▁Yemek	-11.0283
▁ürünün	-11.0285
▁çağır	-11.0285
▁Yazı	-11.0288
▁diken	-11.029
▁forma	-11.0291
▁elektriği	-11.0293
▁yapmalı	-11.0297
▁sürecini	-11.0301
▁etmekten	-11.0301
▁vadi	-11.0301
▁nöro	-11.0305
İH	-11.0307
amazdı	-11.0307
▁almıştı	-11.0309
▁derim	-11.031
luq	-11.0311
▁aslı	-11.0312
▁bö	-11.0316
▁cömert	-11.0318
▁asılı	-11.0319
ındaki	-11.0321
▁gezegenlerin	-11.0328
miyorlar	-11.0328
▁getiril	-11.0329
▁devletler	-11.033
▁konuştuğum	-11.0331
▁hareketin	-11.0334
▁yüksel	-11.0339
▁elinizi	-11.0339
▁sel	-11.034
mam	-11.0342
▁kullanılır	-11.0346
▁robotun	-11.0348
▁belirleye	-11.0349
▁gittiğimiz	-11.0351
▁hızını	-11.0352
▁kullanılma	-11.0352
▁kadına	-11.0353
▁makineleri	-11.0356
▁seti	-11.0358
▁kişilere	-11.0359
▁ilacın	-11.0363
▁rast	-11.0367
▁bağlar	-11.0371
▁nerde	-11.0373
▁köyde	-11.0378
▁gelmedi	-11.0386
▁nəticə	-11.0387
▁paradigma	-11.0387
▁dinazor	-11.0387
▁kurbağa	-11.0387
▁tropik	-11.0387
▁İsviçre	-11.0387
▁çevrimiçi	-11.0387
▁hakkinda	-11.0387
▁Sabah	-11.0387
▁mizah	-11.0387
▁varoluş	-11.0387
▁rejim	-11.0389
▁direnci	-11.039
▁akıntı	-11.039
▁eşyaları	-11.039
▁Kapı	-11.039
▁alırsa	-11.0391
▁katılıyor	-11.0391
▁Ford	-11.0391
▁2003	-11.0392
▁şüphesiz	-11.0392
▁karşılığında	-11.0393
▁davranışsal	-11.0394
▁Ru	-11.0398
▁taze	-11.0398
▁benzetme	-11.0398
▁fenomen	-11.04
▁geçerken	-11.0401
▁Hayatta	-11.0403
▁kopar	-11.0404
▁iskeleti	-11.0405
▁rastla	-11.0408
▁uydur	-11.0409
▁parası	-11.041
▁kağıdı	-11.0411
▁ölçekli	-11.0413
▁sisteminde	-11.0413
▁yardımıyla	-11.0414
▁tutarlı	-11.0415
leştirilmesi	-11.0415
▁değişme	-11.0417
▁alabiliyor	-11.042
▁bölümünü	-11.0426
▁açıkladı	-11.0428
erry	-11.0428
lamıyor	-11.0432
▁yararı	-11.0432
▁ailenin	-11.0432
▁sessizlik	-11.0433
▁beynimiz	-11.0434
▁bitirme	-11.0434
ıq	-11.0442
▁memeli	-11.0444
▁söylerdi	-11.0444
▁dersler	-11.0445
▁azalıyor	-11.0445
▁Top	-11.0448
▁başladığında	-11.0449
ıydı	-11.0451
▁anlay	-11.0453
▁programlar	-11.0454
▁Ata	-11.0454
▁öde	-11.0456
▁yapacağımız	-11.046
▁95	-11.0462
▁bizde	-11.0465
▁yolculuğun	-11.0467
▁hoşlanma	-11.0471
Q	-11.0473
▁kaybeder	-11.0474
▁kazandığı	-11.0478
lərində	-11.0479
▁bəzi	-11.0479
▁duruş	-11.048
▁arkadaşlarınız	-11.0481
▁yaptığımızı	-11.0482
▁ulaşı	-11.0485
▁anlattım	-11.0487
olu	-11.0491
▁özüm	-11.0492
▁tadını	-11.0492
▁konuşması	-11.0494
▁sıradaki	-11.0496
▁tesis	-11.0498
▁katıldı	-11.0501
▁alabil	-11.0502
▁kaldırma	-11.0508
▁yoğunlaş	-11.0511
▁diğerlerinden	-11.0512
eceğimizi	-11.0514
▁kabin	-11.0516
▁gerçekleşme	-11.0517
▁ısır	-11.0519
▁Bazılarınız	-11.0519
sində	-11.0522
▁dövr	-11.0525
▁ormanın	-11.0527
▁pop	-11.0528
▁kesil	-11.0529
▁aktör	-11.0529
▁İste	-11.0531
laşır	-11.0534
▁196	-11.054
▁Bölge	-11.0541
▁Demokrasi	-11.0541
▁Haziran	-11.0541
▁aykırı	-11.0541
▁eşcinsel	-11.0541
▁güvercin	-11.0541
▁rüşvet	-11.0541
▁zekâ	-11.0541
▁öbür	-11.0541
▁cinayet	-11.0541
▁sentetik	-11.0541
▁zarif	-11.0541
▁parazit	-11.0542
▁darbe	-11.0542
▁korsan	-11.0543
▁solucan	-11.0543
▁telif	-11.0543
▁denizaltı	-11.0543
▁hikayem	-11.0543
▁Hızlı	-11.0544
▁gözəl	-11.0544
▁batarya	-11.0545
▁Eric	-11.0546
▁kaçak	-11.0546
▁başladığımızda	-11.0547
▁formları	-11.0549
▁uygulamaları	-11.055
▁düzine	-11.0551
▁yaratıcılığı	-11.0551
▁olabil	-11.0551
▁görecek	-11.0552
▁yolculuğu	-11.0553
▁Çocukların	-11.0553
▁çalışmamız	-11.0554
▁alırlar	-11.0554
ecekler	-11.0558
▁açıklıyor	-11.0563
▁tasarlay	-11.0565
▁yerleştiril	-11.0566
▁iyileştir	-11.0567
▁açıldı	-11.0569
▁sesli	-11.057
▁bulunmakta	-11.0571
▁kurtulma	-11.0573
▁inkar	-11.0575
▁sara	-11.0576
▁çekilme	-11.0579
▁alırken	-11.058
▁küp	-11.058
▁eser	-11.0582
▁kapsa	-11.0583
▁genişleme	-11.0583
▁Pat	-11.0584
▁performansı	-11.0586
▁gözler	-11.0591
▁yaya	-11.0592
lenebilir	-11.0593
▁Bağ	-11.0594
▁ayni	-11.0594
▁soyle	-11.0595
▁uçuyor	-11.0597
cisi	-11.0601
▁yakalamak	-11.0605
▁odaklı	-11.0607
lur	-11.0607
▁direnç	-11.0609
rdı	-11.0612
▁ölmüş	-11.0613
▁renkleri	-11.0614
▁damar	-11.0616
▁aldıkları	-11.0616
▁devri	-11.0618
▁bağımlılık	-11.0618
▁Gene	-11.0622
▁canavar	-11.0628
▁biliniyor	-11.0631
ləş	-11.0631
▁görünme	-11.0631
▁bilgisayarların	-11.0637
▁Suriye	-11.0637
▁fena	-11.0639
▁gül	-11.0642
▁işimi	-11.0643
▁kalitesini	-11.0644
meniz	-11.0646
▁bölgenin	-11.0646
▁She	-11.0646
▁gemisi	-11.0647
▁bio	-11.0649
▁uzaklıkta	-11.0649
▁kalkınma	-11.0651
▁ala	-11.0658
▁Bali	-11.0659
▁özünü	-11.0662
hri	-11.0662
▁yürüdü	-11.0662
▁azaldı	-11.0664
▁olacaksınız	-11.0665
▁ayrılmış	-11.0665
ny	-11.0668
▁yılını	-11.0669
▁etkiledi	-11.0672
irəm	-11.0672
▁akış	-11.0673
▁şansımız	-11.0675
▁hikayelerini	-11.0675
▁döngüsü	-11.068
mıyordu	-11.0687
▁Kır	-11.0691
▁konuştuğumuz	-11.0692
bilirsin	-11.0694
▁davranıyor	-11.0694
▁Antarktika	-11.0697
▁Oxford	-11.0697
▁Şehri	-11.0697
▁Yavaş	-11.0697
▁qalaktika	-11.0697
▁banyo	-11.0697
▁onemli	-11.0697
▁çürü	-11.0697
▁irade	-11.0697
▁Yaşlı	-11.0697
▁evlen	-11.0698
▁hansı	-11.0698
bay	-11.0698
▁hiçbirşey	-11.0699
▁sunucu	-11.0699
▁nu	-11.0699
▁programcı	-11.07
▁ilave	-11.07
▁varlık	-11.0701
▁Şehirler	-11.0701
▁varlıklar	-11.0702
ebildiği	-11.0708
▁ardında	-11.0708
▁Ekim	-11.0709
▁Polis	-11.071
▁dağın	-11.0711
▁gitmesi	-11.0713
▁uzmanlar	-11.0714
▁kaderi	-11.0714
▁dışkı	-11.0715
▁mekaniği	-11.0716
▁duymuş	-11.0718
▁muyu	-11.0721
▁fiyatları	-11.0721
emediği	-11.0722
ışını	-11.0724
▁halı	-11.0726
▁tartışmalar	-11.073
▁yeter	-11.0734
▁arz	-11.0734
▁Ailem	-11.0734
▁kendilerinin	-11.0736
▁kumaş	-11.0738
▁af	-11.0741
▁oluşum	-11.0742
▁Umu	-11.0742
diğimi	-11.0744
▁çapta	-11.0744
▁iyileştirme	-11.0746
▁Yanı	-11.0746
▁görülmemiş	-11.0748
▁yuzde	-11.0753
▁yiyor	-11.0755
▁grub	-11.0756
▁dalgaları	-11.076
▁arkada	-11.0761
▁tamamiyl	-11.0763
rke	-11.0765
▁filmler	-11.0767
▁ölecek	-11.0767
▁binaların	-11.0768
▁etmeleri	-11.0768
▁lo	-11.0772
▁Bina	-11.0774
▁görevli	-11.0778
▁eylemi	-11.0782
▁alkışlar	-11.0784
▁King	-11.0787
▁görebilme	-11.0787
▁Doğrusu	-11.079
irsek	-11.0794
ven	-11.08
mızdaki	-11.08
mıyorlar	-11.0803
dığımızı	-11.0804
▁dönüşür	-11.0806
▁Mənim	-11.0807
▁kuramı	-11.081
▁calisma	-11.0817
▁tipi	-11.0819
▁verilmiş	-11.082
halde	-11.0825
▁gelmesini	-11.0826
dilər	-11.0827
▁bilgisi	-11.0829
▁kesme	-11.0832
▁atan	-11.0834
ecektir	-11.0836
dıkça	-11.0836
▁İst	-11.0845
▁Gülüşme	-11.0847
▁məni	-11.0848
▁araçların	-11.0848
▁seyred	-11.0849
lacak	-11.0851
umuzun	-11.0851
liğinin	-11.0854
▁balıklar	-11.0854
▁Afgan	-11.0856
▁Florida	-11.0856
▁Mükemmel	-11.0856
▁asteroid	-11.0856
▁Örnek	-11.0856
▁çekirdek	-11.0856
▁nəzər	-11.0856
▁psikolog	-11.0856
▁kızgın	-11.0856
▁paraşüt	-11.0856
▁Petrol	-11.0856
▁cennet	-11.0857
▁Lider	-11.0858
▁ertesi	-11.0859
▁reform	-11.086
▁kurt	-11.0861
▁olmasın	-11.0862
eğe	-11.0863
▁lüks	-11.0864
▁Pal	-11.0865
▁üzeri	-11.0865
leştiriyor	-11.0866
▁vurma	-11.0866
▁getirip	-11.0867
▁istemiyoruz	-11.0867
▁isyan	-11.0867
▁etiketi	-11.0868
▁geliştirmeye	-11.087
▁maymunlar	-11.0876
▁yankı	-11.0878
▁yöneten	-11.0881
▁Atlantik	-11.0883
▁giyme	-11.0883
▁yabani	-11.0886
▁fərqli	-11.089
▁Kay	-11.089
▁aramızda	-11.0892
▁anahtarı	-11.0892
▁hani	-11.0894
▁götürmek	-11.0894
▁Belli	-11.0896
▁Projesi	-11.0902
luyoruz	-11.0903
▁zekice	-11.0906
▁medeniyet	-11.0906
▁kafasını	-11.0911
▁noktadan	-11.0912
▁toprağı	-11.0913
▁Okulu	-11.0913
lediğimiz	-11.0914
ildiğinde	-11.0917
▁planla	-11.0918
ilə	-11.0922
▁hareketli	-11.0925
▁tutum	-11.0928
▁öldürmek	-11.093
▁bulunduğunu	-11.093
▁aldatma	-11.0932
▁yıldızı	-11.0932
▁söylemem	-11.0936
▁süreli	-11.0936
▁Bel	-11.0938
▁ötesi	-11.094
▁oluşmuş	-11.094
▁doların	-11.094
▁güneşin	-11.094
▁felç	-11.0941
▁çektim	-11.0943
▁konuları	-11.0944
▁tabiki	-11.0945
▁bıraktım	-11.0946
ebilirler	-11.0948
▁hemşire	-11.0954
▁kolunu	-11.0954
▁kafe	-11.0954
▁uyuma	-11.0955
sınızdır	-11.0955
▁müzisyen	-11.096
BA	-11.096
▁üniversitede	-11.096
▁mezar	-11.0961
▁yayılmış	-11.0963
▁arılar	-11.0965
hop	-11.0966
▁kanalı	-11.0966
▁bahsettiğimiz	-11.0967
▁haz	-11.097
▁çektik	-11.0971
▁Tri	-11.0971
▁uğraştı	-11.0976
▁filmini	-11.0976
▁yaban	-11.0978
▁geldiğimde	-11.0979
▁moleküller	-11.098
▁anlamında	-11.0985
▁analizi	-11.0985
▁dövme	-11.0988
▁anten	-11.099
▁eşitliği	-11.099
▁kucak	-11.099
▁bilmeniz	-11.0993
üsü	-11.0995
▁sözleri	-11.0996
▁ormanları	-11.0998
▁geçtim	-11.1001
▁seçtik	-11.1002
labilecek	-11.1003
▁ilgisini	-11.1008
▁filmleri	-11.1011
▁başlattık	-11.1011
lüğ	-11.1013
▁Tor	-11.1015
▁AM	-11.1016
î	-11.1017
▁Vietnam	-11.1017
▁Yanlış	-11.1017
▁coğrafi	-11.1017
▁feminist	-11.1017
▁mıknatıs	-11.1017
▁sipariş	-11.1017
▁İspanya	-11.1017
▁acayip	-11.1017
▁ihlal	-11.1017
▁Hazır	-11.1017
▁netice	-11.1018
▁izi	-11.102
▁Bilmiyorum	-11.102
▁inin	-11.1023
▁alakası	-11.1023
▁Iste	-11.1023
▁başlıca	-11.1023
▁gözüken	-11.1025
▁yeraltı	-11.1025
▁kodu	-11.1026
▁görebiliyorum	-11.1026
▁yükselen	-11.1027
▁değiştirerek	-11.1028
▁patlaması	-11.1031
▁Newton	-11.1031
▁Telefon	-11.1034
▁kullanımını	-11.1034
▁hoca	-11.1035
▁okuy	-11.1042
▁gercekte	-11.1046
▁becerileri	-11.1046
▁Yol	-11.1049
▁Büyü	-11.105
▁çalar	-11.105
▁İtalyan	-11.105
▁desen	-11.1051
▁anlamını	-11.1053
▁teması	-11.1056
▁yapıya	-11.1058
▁düşündüğümüzde	-11.1058
▁evimiz	-11.1062
▁ayırma	-11.1065
▁disiplin	-11.1067
▁metrelik	-11.1068
▁büyümeye	-11.107
▁yapamıyor	-11.1076
▁söylüyordu	-11.1076
leyelim	-11.1078
▁bağlanma	-11.108
▁səs	-11.1081
▁bag	-11.1081
▁dansçı	-11.1082
nizdeki	-11.1084
amadı	-11.1087
▁sanıyor	-11.1088
▁sorumluluğu	-11.1093
▁sizleri	-11.1094
umuzu	-11.1094
ınızın	-11.1095
mezsiniz	-11.1096
▁ayırdı	-11.1098
▁bulmaca	-11.11
▁onar	-11.11
▁izler	-11.1101
▁kaybettik	-11.1103
▁çabu	-11.1103
▁tanımlamak	-11.1105
larak	-11.1107
▁Din	-11.1112
lmüş	-11.1112
▁kayna	-11.1112
▁edildiğini	-11.1116
▁mar	-11.1117
ıyorlardı	-11.1119
▁eğim	-11.1121
▁elit	-11.1124
▁odasında	-11.1127
▁değin	-11.113
▁Fil	-11.1131
MA	-11.1134
▁korteks	-11.1137
▁mühendisi	-11.114
▁oranla	-11.1142
lerimin	-11.1143
▁tarihini	-11.1147
▁aydın	-11.1149
▁Par	-11.115
▁düşündüğünüz	-11.115
▁hatırlatıyor	-11.1151
rum	-11.1152
kop	-11.1153
▁seviyesini	-11.1154
▁olsalar	-11.1154
bet	-11.1156
▁hatırlay	-11.1156
▁mesafede	-11.116
rip	-11.1161
ğr	-11.1167
▁evlerin	-11.1169
▁kusur	-11.1169
▁filmin	-11.1173
▁Eh	-11.1175
▁kaybettiği	-11.1176
▁aylar	-11.1178
▁bilmir	-11.1178
▁tanıştığım	-11.1179
rası	-11.1179
ırım	-11.118
▁700	-11.118
▁açıklaması	-11.118
▁Zamanı	-11.118
▁mürekkep	-11.1181
▁Arjantin	-11.1181
▁Dijital	-11.1181
▁Microsoft	-11.1181
▁enfekte	-11.1181
▁gitgide	-11.1181
▁interaktif	-11.1181
▁təhsil	-11.1181
▁alıkoy	-11.1181
▁parçaların	-11.1181
▁üzücü	-11.1181
▁Kontrol	-11.1181
▁saldırgan	-11.1182
▁ulaşır	-11.1183
▁kirlet	-11.1183
▁imalat	-11.1183
▁hələ	-11.1184
▁yürürken	-11.1185
▁vücudu	-11.1185
▁mutluyum	-11.1185
▁artıq	-11.1186
▁eksi	-11.1186
▁baska	-11.1189
▁kurumların	-11.119
▁uzanan	-11.119
ling	-11.1191
▁aldığınız	-11.1191
▁düşünüyorsanız	-11.1195
▁oluşumu	-11.1197
▁göstergesi	-11.1197
▁haricinde	-11.1198
▁şempanzeler	-11.1199
qo	-11.12
▁filmde	-11.12
▁alıyorsunuz	-11.1202
▁üçgen	-11.1203
▁ayrım	-11.1206
▁Bush	-11.1213
▁çevrili	-11.1215
▁sahi	-11.1219
▁bilmiyorduk	-11.1219
▁36	-11.122
▁uygulaması	-11.1222
▁Ray	-11.1222
▁kazanır	-11.1222
▁çalıyor	-11.1223
▁gelirse	-11.1223
▁sahib	-11.1223
▁uğramış	-11.1226
▁satmak	-11.1227
▁hareketler	-11.1229
▁elimizdeki	-11.1229
▁hangisi	-11.1229
▁öden	-11.123
memiş	-11.123
▁göstər	-11.123
▁üretmeye	-11.1231
▁icinde	-11.1233
▁koltuk	-11.1236
arlar	-11.1239
ladığım	-11.1242
emem	-11.1243
▁uçma	-11.1247
▁değilsiniz	-11.1251
▁Ger	-11.1252
laşması	-11.1255
▁renkte	-11.1255
▁kast	-11.1255
▁vo	-11.1258
leştiği	-11.1258
her	-11.1261
▁bilmez	-11.1261
▁işlemci	-11.1262
ğunu	-11.1263
▁sars	-11.1263
▁Balık	-11.1267
▁yapıyordum	-11.1269
▁ülkelerdeki	-11.127
▁tuz	-11.1271
▁Qu	-11.1274
▁kalmaya	-11.1275
▁evcil	-11.1282
▁gerçeğ	-11.1288
▁grafiği	-11.1289
▁savaşçı	-11.1291
▁fen	-11.1292
▁evreni	-11.1293
ight	-11.1297
▁boyun	-11.1298
▁ettirme	-11.13
▁malzemeleri	-11.1301
▁şuan	-11.1307
RB	-11.1318
▁yağış	-11.1319
▁ederse	-11.132
▁Oda	-11.1321
▁kabiliyet	-11.1324
▁nitelik	-11.1327
▁aklımız	-11.1328
▁ulaştık	-11.1331
▁Seyirci	-11.1331
▁kalanını	-11.1331
▁adamların	-11.1332
lduğunu	-11.1332
sünü	-11.1332
▁Kural	-11.1334
▁havuz	-11.1336
▁güldü	-11.1339
▁ilki	-11.134
▁huzur	-11.1341
the	-11.1342
▁beklenti	-11.1345
▁yayılması	-11.1347
▁Cambridge	-11.1348
▁Wikipedia	-11.1348
▁klavye	-11.1348
▁sandviç	-11.1348
▁estetik	-11.1348
▁bulaşıcı	-11.1348
▁tükenmiş	-11.1348
▁gereksinim	-11.1349
▁masum	-11.135
▁Nick	-11.135
▁düzenlen	-11.135
▁evlat	-11.1351
▁Model	-11.1352
▁Kişisel	-11.1352
▁pişmanlık	-11.1352
▁zıpla	-11.1353
▁konusunu	-11.1353
▁solu	-11.1354
▁nehrin	-11.1355
▁bulabil	-11.1355
▁vermez	-11.1355
▁komşuları	-11.1356
▁gülüş	-11.1357
larımla	-11.136
▁modül	-11.1362
▁girdik	-11.1363
▁bütünüy	-11.1364
▁Seyirciler	-11.1364
▁mümkündür	-11.1365
▁ailelerin	-11.1368
▁çit	-11.1371
▁Jane	-11.1372
▁dinleyici	-11.1376
▁enstitü	-11.1376
▁sensör	-11.1377
▁yaşıyorum	-11.1377
eceğiniz	-11.1379
▁karışımı	-11.1381
▁yükselme	-11.1381
▁seçmek	-11.1383
▁Res	-11.1384
▁soğu	-11.1387
abildik	-11.1389
▁biç	-11.1391
▁çalan	-11.1395
▁düşünebilir	-11.1396
▁doğmuş	-11.1397
▁arabaları	-11.1398
▁alanlarını	-11.1399
▁fiber	-11.1401
▁hayvanlarda	-11.1402
▁bulunabilir	-11.1402
▁cevabını	-11.1404
▁pas	-11.1407
▁gününde	-11.1407
▁öngör	-11.141
▁gidiş	-11.1413
▁bakıyorlar	-11.1415
▁bağı	-11.1415
rdu	-11.1417
▁farklılıkları	-11.1421
laştırıyor	-11.1421
car	-11.1422
▁bugünün	-11.1425
▁dusun	-11.1426
▁interneti	-11.1428
▁Oradaki	-11.1429
bon	-11.1429
▁atalarımız	-11.1431
▁gun	-11.1432
▁dördü	-11.1433
▁dizisi	-11.1434
▁konuştuğu	-11.1437
dr	-11.1439
ebilecekleri	-11.1441
▁sahipsiniz	-11.1444
▁getireceği	-11.1444
ücü	-11.1444
▁parçacıklar	-11.1446
▁çözdü	-11.1447
amadığı	-11.1448
▁pişir	-11.145
▁taşıy	-11.1451
arası	-11.1452
▁dönüştürdü	-11.1456
▁görüldüğü	-11.1457
▁torunları	-11.146
▁durduğu	-11.1462
▁teknolojiyle	-11.1463
▁baskın	-11.1464
▁anlayabilir	-11.1465
▁yazısı	-11.1475
▁unu	-11.1477
▁örtüsü	-11.148
▁genler	-11.148
▁meslektaşlarım	-11.148
▁sure	-11.1484
▁Siyah	-11.1486
▁kenarında	-11.1487
▁oh	-11.1488
▁geldiğimiz	-11.1495
▁Şirketler	-11.1498
▁gec	-11.15
▁mide	-11.1502
▁emek	-11.1502
▁Ayn	-11.1502
▁etrafı	-11.1504
▁deyin	-11.1505
▁ettiklerini	-11.1505
▁per	-11.1505
ırıq	-11.1505
▁yaratı	-11.1506
▁yazın	-11.1511
▁terapi	-11.1511
▁muhafaza	-11.1516
▁tünel	-11.1517
▁kristal	-11.1517
▁arşiv	-11.1517
▁musiqi	-11.1517
▁Sahra	-11.1517
▁patates	-11.1517
▁Ruanda	-11.1517
▁Binlerce	-11.1517
▁peynir	-11.1517
▁Virgin	-11.1517
▁halihazırda	-11.1517
▁cihad	-11.1517
▁enjekt	-11.1517
▁kömək	-11.1517
▁imge	-11.1517
▁Kullan	-11.1518
▁öğe	-11.1518
▁dünyasının	-11.1519
▁goz	-11.1519
▁asi	-11.152
▁atlama	-11.1521
▁düşünmeliyiz	-11.1522
▁mega	-11.1522
▁maddeler	-11.1523
▁oluştuğunu	-11.1524
▁Brun	-11.1524
▁öğrencilere	-11.1525
▁düşünebiliriz	-11.1525
▁niyet	-11.1526
▁kalmayıp	-11.1526
▁yerlerden	-11.1528
bilimci	-11.1528
▁geçirdiğim	-11.153
▁dayanan	-11.1531
▁çıkabilir	-11.1532
City	-11.1535
▁ölüme	-11.1536
▁yapmalarını	-11.1537
▁suçlama	-11.1538
▁0.	-11.1539
geçip	-11.1541
▁ihtiyac	-11.1542
amam	-11.1542
▁gözükme	-11.1543
▁Is	-11.1544
▁düşünül	-11.1544
▁ellerini	-11.1544
▁bahsedil	-11.1548
▁diyebilir	-11.1549
▁Koruma	-11.1551
▁boyle	-11.1552
▁içsel	-11.1553
▁yitir	-11.1553
▁burun	-11.1555
▁tanıştır	-11.1557
▁gidiyorum	-11.1557
▁modelin	-11.1559
▁Gore	-11.156
▁parmakları	-11.156
▁Bol	-11.1562
▁gösterebilir	-11.1563
▁kapa	-11.1565
▁üretil	-11.1572
▁hayvanı	-11.1577
▁ebeveynleri	-11.1578
▁artması	-11.1579
▁sos	-11.1581
gal	-11.1585
laması	-11.1587
▁ticareti	-11.1588
▁saklan	-11.1589
▁yapıştır	-11.1592
▁yayılma	-11.1592
▁çocuğum	-11.1596
▁modelini	-11.1598
bildim	-11.1599
▁belirlen	-11.1601
▁ima	-11.1602
▁vücudunuz	-11.1602
cal	-11.1602
▁aracın	-11.1603
▁etmeme	-11.1605
rika	-11.1605
▁çaldı	-11.1608
▁masada	-11.1609
▁şempanze	-11.1613
▁salgını	-11.1614
bes	-11.1615
▁duydukları	-11.1615
maktır	-11.1616
▁Hepimizi	-11.1618
▁Altın	-11.1618
▁disk	-11.1618
▁bahar	-11.1618
▁özünde	-11.1621
▁görünüşü	-11.1623
kâr	-11.1624
tesi	-11.1624
sinizdir	-11.1624
▁Ödülü	-11.1625
▁kalbim	-11.1625
▁nesneleri	-11.1625
▁uçaklar	-11.163
▁ortamında	-11.1631
▁əslin	-11.1633
▁hayatlarında	-11.1635
▁söylemiş	-11.1636
▁bebeği	-11.1636
▁Hayvan	-11.1637
▁Yapı	-11.1638
▁edilecek	-11.1639
▁başlaması	-11.1642
▁verilme	-11.1642
▁kararlı	-11.1642
▁inceler	-11.1644
▁gene	-11.1648
▁Met	-11.1649
▁gelirler	-11.1649
▁alarm	-11.1649
▁içində	-11.165
▁Carl	-11.165
▁Gezegen	-11.1651
▁ülkesi	-11.1653
▁bulgu	-11.1653
▁yapamaz	-11.1657
▁başkası	-11.1661
▁sanatçılar	-11.1662
▁sever	-11.1663
▁uyu	-11.1664
▁Ağ	-11.1664
▁doktoru	-11.1666
▁metod	-11.1669
▁ömür	-11.1672
▁yerlerin	-11.1672
▁söylendi	-11.1672
▁nakli	-11.1675
▁yaşlarda	-11.1675
▁ler	-11.1677
▁yaratık	-11.1678
▁Sir	-11.1682
dayken	-11.1682
▁yapardı	-11.1685
▁yağı	-11.1687
▁Joe	-11.1688
▁aktiv	-11.1689
▁vasıtası	-11.1689
▁muayene	-11.169
▁tweet	-11.169
▁yozlaşma	-11.169
▁hemfikir	-11.169
▁editör	-11.169
▁evvel	-11.169
▁Brown	-11.169
▁ödüyor	-11.169
▁sistematik	-11.169
▁anneler	-11.169
▁göğsü	-11.169
▁olub	-11.169
▁işkence	-11.169
▁günəş	-11.169
▁düşünürsünüz	-11.169
▁sakat	-11.169
▁Hristiyan	-11.169
▁gütmeye	-11.169
▁köken	-11.1691
▁hekim	-11.1691
▁beklenen	-11.1692
▁diren	-11.1692
▁çağdaş	-11.1695
▁beyne	-11.1696
▁kavramını	-11.1697
▁belgesel	-11.1697
▁biliyorsun	-11.17
▁29	-11.1701
▁havuzu	-11.1701
▁bulunmaktadır	-11.1703
▁yapıyorsun	-11.1703
▁Sıradaki	-11.1704
▁lens	-11.1704
iyyət	-11.1704
▁ikon	-11.1705
▁akımı	-11.1706
▁hatırladı	-11.1706
▁duyuyoruz	-11.1707
▁evlenme	-11.1707
▁tadı	-11.171
▁sanatsal	-11.171
▁sağladık	-11.1713
caq	-11.1713
mezler	-11.1717
amadım	-11.1718
▁Boş	-11.1718
ydiler	-11.172
lmaz	-11.1721
▁erkeklere	-11.1722
▁Matt	-11.1726
▁bakıyordu	-11.1727
▁alev	-11.1729
leşmesi	-11.1729
▁gülme	-11.1731
▁oluşturabilir	-11.1732
,5	-11.1733
▁insa	-11.1737
▁oluşu	-11.1741
▁maç	-11.1741
▁bağlam	-11.1744
▁güdü	-11.1744
▁askerler	-11.1744
sünüz	-11.1745
▁paylaştı	-11.1745
▁gerektiğin	-11.1747
▁ortaklık	-11.1757
▁geni	-11.1757
▁Star	-11.1764
▁destekliyor	-11.1765
▁dönüşü	-11.1766
▁kılıyor	-11.1769
▁şehirleri	-11.1769
layabilirsiniz	-11.177
▁CD	-11.177
▁hissetmek	-11.1771
▁statü	-11.1772
▁eğitme	-11.1773
▁olduğuydu	-11.1774
▁kaçınma	-11.1776
▁Kendini	-11.1777
▁önerme	-11.1777
▁bunda	-11.1777
▁başkasının	-11.1778
▁hoşum	-11.1778
▁unutmayı	-11.1779
▁hic	-11.178
▁bankacı	-11.1781
▁senede	-11.1781
▁toplar	-11.1787
▁adamla	-11.1787
acaq	-11.1797
▁yaklaştığı	-11.1798
▁har	-11.18
rebiliriz	-11.18
▁kaplan	-11.1803
▁birleştirme	-11.1806
▁ormanda	-11.1806
-2	-11.181
▁bağlılık	-11.181
▁tabanı	-11.1811
▁800	-11.1817
▁çocuklarım	-11.1817
▁göremiyor	-11.1824
▁fərq	-11.1827
ümüzü	-11.1828
▁alabilme	-11.1834
▁yakalay	-11.1837
▁gerçekliğin	-11.1837
ham	-11.1838
▁evli	-11.184
▁çektiğim	-11.184
▁yapabilecekleri	-11.1842
▁duruyordu	-11.1845
▁Okyanusu	-11.1856
▁gösterge	-11.1857
▁atı	-11.1864
▁Vakfı	-11.1865
▁bambaşka	-11.1865
▁istihbarat	-11.1865
▁spesifik	-11.1865
▁Şarkı	-11.1865
▁şükür	-11.1865
▁Etiyopya	-11.1865
▁Jeff	-11.1865
▁ampul	-11.1865
▁goster	-11.1865
▁Gates	-11.1865
▁Medya	-11.1865
▁Əsl	-11.1865
▁öldürücü	-11.1865
▁zafer	-11.1865
▁fırça	-11.1866
▁denetim	-11.1866
▁Nano	-11.1867
▁Arapça	-11.1869
▁yıkım	-11.1871
▁bilərik	-11.1872
▁kaybeden	-11.1873
▁yıldızın	-11.1873
▁diyebilirim	-11.1873
▁bakıcı	-11.1875
▁kalça	-11.1875
▁baktığımız	-11.1875
▁gəldi	-11.1875
▁1.000	-11.1879
ska	-11.188
▁yaparım	-11.1884
▁ayıran	-11.1885
▁edebilirim	-11.1885
▁böl	-11.189
▁Henr	-11.1891
▁toplumların	-11.1891
▁gittiler	-11.1892
▁olsaydınız	-11.1892
▁Pen	-11.1893
▁mobilya	-11.1896
üç	-11.1896
▁Fl	-11.1897
▁kibar	-11.1898
▁Hayatı	-11.1898
▁silahlar	-11.19
▁işitme	-11.1904
▁Kev	-11.1905
▁gerçekler	-11.1906
▁göründüğünü	-11.1907
▁hayatımızda	-11.1909
▁hayvanın	-11.1911
iyeti	-11.1912
▁toplumlarda	-11.1913
▁almamız	-11.1916
mıyorum	-11.1919
▁Sor	-11.192
▁paylaştığı	-11.1921
sinə	-11.1923
▁arkadaşlarımız	-11.1924
▁yüzen	-11.1926
▁çalma	-11.1927
▁kitabını	-11.1929
▁ormanı	-11.1931
ksiyon	-11.1933
▁gördüğünde	-11.1939
▁sən	-11.194
▁çalışabilir	-11.1941
▁olsam	-11.1955
▁farketti	-11.1956
▁başkan	-11.1956
▁boşa	-11.196
▁Kon	-11.1964
▁mirası	-11.1967
▁payı	-11.1968
▁çözümleri	-11.1969
yorsun	-11.197
fel	-11.197
▁yayılıyor	-11.197
laşan	-11.1975
▁Mat	-11.1975
▁sağlayabil	-11.1976
ick	-11.1978
▁toprağın	-11.198
▁oğlunu	-11.1985
▁canlandırma	-11.1988
▁İleri	-11.1989
acakları	-11.1992
▁temizlik	-11.1993
lebilir	-11.1994
▁metan	-11.1996
▁sala	-11.1998
malısın	-11.1999
▁girişimciler	-11.2002
▁sistemde	-11.2002
▁açısını	-11.2003
▁çizme	-11.2006
▁elli	-11.2007
▁azal	-11.2008
▁gideceği	-11.201
▁gide	-11.2011
▁gitmeyi	-11.2012
▁Acı	-11.2012
▁Eg	-11.2017
▁hareketini	-11.2017
▁Oray	-11.2018
▁Sch	-11.202
▁ölçmek	-11.2021
▁Hedef	-11.2021
▁yaşandı	-11.2022
▁ekonomist	-11.2024
diğine	-11.2026
▁ulaştığı	-11.2027
▁deneyleri	-11.2028
▁ölçer	-11.2029
▁Merkez	-11.2031
▁durumları	-11.2033
▁bilgisayarda	-11.2034
▁kılı	-11.2036
▁eserleri	-11.2037
▁gençlerin	-11.2037
▁zorunlu	-11.2042
▁LED	-11.2044
▁dogru	-11.2044
▁qaranlıq	-11.2044
▁razı	-11.2044
▁coğrafya	-11.2044
▁xüsusi	-11.2044
▁Taliban	-11.2044
▁Pekâl	-11.2044
▁Seçim	-11.2044
▁dinler	-11.2044
▁görülebilir	-11.2044
▁yırtıcı	-11.2044
▁Bitki	-11.2044
▁şahane	-11.2044
▁Jack	-11.2045
▁yatkın	-11.2045
▁yolsuzluk	-11.2046
▁bıraktık	-11.2047
▁Nehri	-11.2048
▁qar	-11.2048
▁başımıza	-11.2048
▁resif	-11.205
▁cür	-11.205
▁işıq	-11.205
▁Tony	-11.205
▁evlerinde	-11.2053
▁konuşuyorum	-11.2056
aşı	-11.2056
▁edeceğiniz	-11.2057
ment	-11.2057
▁söyleyebiliriz	-11.2058
▁kayma	-11.2059
▁kullanılmış	-11.2059
▁olmayacaktı	-11.2061
▁Hər	-11.2063
▁Cam	-11.2063
▁aslin	-11.2064
▁Görev	-11.2066
▁yapısal	-11.2067
ttiği	-11.2069
▁başlı	-11.2071
▁kg	-11.2071
▁haliyle	-11.2072
▁uza	-11.2072
▁videoda	-11.2072
▁yükseldi	-11.2075
▁Kendimizi	-11.2076
▁Ali	-11.2076
▁aklımda	-11.2076
▁kaos	-11.2077
batı	-11.2077
▁evrendeki	-11.2079
▁Pri	-11.208
▁yosun	-11.2082
▁bilerek	-11.2082
▁anlattığım	-11.2083
▁etkileşime	-11.209
▁dü	-11.2091
▁iletişimi	-11.2092
▁yerleş	-11.2094
▁uçurum	-11.2094
▁yapabildiği	-11.2095
▁hedefler	-11.2096
▁sevdim	-11.2097
▁katılımcı	-11.2098
▁karakterler	-11.2099
▁Kitap	-11.2101
▁gerçeğini	-11.2101
▁rahatlık	-11.2103
arry	-11.2105
▁başarma	-11.2105
▁tıka	-11.2106
▁tutuk	-11.2107
▁za	-11.2107
▁bölün	-11.211
▁arkadaşımı	-11.2111
▁ayarlama	-11.2115
▁besleme	-11.2116
▁hevesli	-11.2117
▁Geçmiş	-11.2119
▁çoğunluk	-11.2119
▁çalışmalarını	-11.212
bar	-11.212
▁geçirmiş	-11.2121
▁Bayanlar	-11.2121
▁seksi	-11.2121
▁gore	-11.2127
▁kameralar	-11.213
▁yapmaz	-11.213
liğinde	-11.2134
▁kirlilik	-11.2136
▁hatalar	-11.2136
▁yoğunluk	-11.2138
▁gerçekleştirdi	-11.2146
▁idam	-11.2146
▁Kitabı	-11.2151
▁duymuşsunuz	-11.2151
▁yetenekler	-11.2156
▁harcadık	-11.2157
▁Boy	-11.2159
▁gömülü	-11.2161
ex	-11.2161
▁örneğini	-11.2162
▁Pra	-11.2164
▁bulunmak	-11.2164
▁aya	-11.2164
▁duyur	-11.2166
▁aklınızda	-11.2166
▁tasarladı	-11.2167
abiliyorlar	-11.2171
▁birdenbire	-11.2172
▁evliliği	-11.2178
▁dolaşma	-11.2184
▁Bayan	-11.2184
▁uzaylı	-11.2184
▁Hel	-11.2185
▁sırrı	-11.2188
▁sattı	-11.219
digimiz	-11.2191
zaman	-11.2198
▁baktığınız	-11.2199
▁psiko	-11.2199
▁evrimi	-11.2199
▁bizimki	-11.2199
▁vazgeçme	-11.2204
▁maya	-11.2205
▁salon	-11.2205
▁Aklım	-11.221
▁gökada	-11.2212
▁yüzeyde	-11.2215
mişler	-11.2216
▁Dar	-11.2218
▁kuşu	-11.2218
▁Yok	-11.2221
▁savaşmak	-11.2225
▁Hücre	-11.2225
▁astronot	-11.2225
▁hükûmet	-11.2225
▁istihdam	-11.2225
▁istismar	-11.2225
▁mecbur	-11.2225
▁meslektaşım	-11.2225
▁muhabir	-11.2225
▁müddət	-11.2225
▁doğuştan	-11.2225
▁numune	-11.2225
▁tahıl	-11.2225
▁Nelson	-11.2225
▁tasvir	-11.2225
▁rakip	-11.2225
▁Yaratıcı	-11.2225
▁talebi	-11.2225
NSA	-11.2225
▁Simdi	-11.2226
▁eşdeğer	-11.2226
▁Kelime	-11.2226
▁düşünürüz	-11.2226
▁Değer	-11.2226
▁Yıldız	-11.2226
▁çene	-11.2226
▁okuyucu	-11.2227
▁zira	-11.2228
▁etnik	-11.2229
▁2020	-11.2229
▁kavramsal	-11.2229
▁sistemlerini	-11.223
▁hergün	-11.2231
▁değillerdi	-11.2232
▁kanıtlar	-11.2232
▁Hastane	-11.2234
▁Fare	-11.2234
▁tanımlayan	-11.2234
▁yoksulluğu	-11.2236
▁çalışmış	-11.2237
▁telefonlar	-11.2242
▁mikrofon	-11.2242
▁konuşuyoruz	-11.2243
▁yürüyen	-11.2245
▁ayırmak	-11.2248
▁oluşturmaya	-11.2249
▁etmenizi	-11.2249
▁edinme	-11.225
▁Lise	-11.2252
AR	-11.2254
▁Dev	-11.2259
▁gelişiyor	-11.2262
▁sayfası	-11.2267
▁tanımlıyor	-11.2268
▁görünmeyen	-11.2269
▁yerleştirme	-11.227
məyi	-11.227
▁odasına	-11.227
▁riskleri	-11.2271
iki	-11.2272
▁savunmasız	-11.2273
▁sunumu	-11.2273
▁yıla	-11.2274
▁göremedi	-11.2275
▁Nere	-11.2275
▁akan	-11.2275
list	-11.2277
▁oluşturacak	-11.2278
▁Adaları	-11.2278
▁gələn	-11.2279
▁kaynakların	-11.228
▁toplay	-11.2282
▁çoğunda	-11.2284
▁bakımı	-11.2289
▁başarmak	-11.2293
▁haftalık	-11.2293
▁dediğini	-11.2294
13	-11.2295
▁alınma	-11.2295
▁çevirmek	-11.2295
saydık	-11.2299
lendiğini	-11.23
▁mikroplar	-11.2301
▁4.	-11.2301
▁kullandığım	-11.2309
▁uzayın	-11.231
▁çember	-11.2311
▁olmadıkları	-11.2317
▁çevril	-11.2322
▁kullandığınız	-11.2322
▁yetiştirmek	-11.2322
▁uyuyor	-11.2323
▁hikâyeler	-11.2323
anne	-11.2323
▁kızları	-11.2324
▁Öğretmen	-11.2325
▁amaçlar	-11.2326
20	-11.2329
▁yerleştirdik	-11.2331
▁Hay	-11.2332
▁taşıdı	-11.2333
▁araştırması	-11.2333
▁yerdeki	-11.2333
▁kemikleri	-11.2334
▁karmaşıklık	-11.2335
▁heves	-11.2336
▁Ü	-11.2337
▁artar	-11.2339
▁ürünlerin	-11.234
▁aktarıl	-11.2341
▁araştırmak	-11.2342
▁sürer	-11.2343
▁kainatın	-11.2344
▁butun	-11.2347
ləşdir	-11.2347
▁etmektir	-11.2353
▁kültürünü	-11.2357
▁Han	-11.2357
▁merkezleri	-11.2358
▁simge	-11.2358
layacağız	-11.236
▁ileti	-11.236
duğumuz	-11.2363
▁Yan	-11.2364
▁kıyafet	-11.2365
▁kahkaha	-11.2369
▁sorunlarını	-11.2373
▁kurulmuş	-11.2375
▁Olan	-11.2379
▁askerleri	-11.2379
▁olurken	-11.238
▁hayatınız	-11.2381
▁özen	-11.2383
ju	-11.2383
▁hatırlat	-11.2384
▁kafası	-11.2386
▁çalışmaların	-11.2387
▁olduq	-11.2388
▁yayınladı	-11.2389
▁öl	-11.2392
▁Eşim	-11.2394
▁internetten	-11.2397
▁Marc	-11.2398
▁oxu	-11.2399
▁bilmə	-11.2399
lanmamış	-11.2401
ville	-11.2402
labiliriz	-11.2403
▁katılmak	-11.2403
▁seçenekler	-11.2405
▁tükenme	-11.2405
▁pu	-11.2408
▁Sırada	-11.2409
▁Charlie	-11.2411
▁filozof	-11.2411
▁illüzyon	-11.2411
▁laboratuar	-11.2411
▁məsələ	-11.2411
▁timsah	-11.2411
▁örüntü	-11.2411
▁şarj	-11.2411
▁çorba	-11.2411
▁efekt	-11.2411
▁İsmi	-11.2411
▁kurşun	-11.2411
▁Delhi	-11.2411
▁patern	-11.2411
▁primat	-11.2411
▁zihniyet	-11.2412
▁Michel	-11.2412
▁itibariyle	-11.2412
▁bulmamız	-11.2412
▁Düşünün	-11.2413
▁yatay	-11.2413
▁romantik	-11.2413
▁izah	-11.2413
▁hasat	-11.2414
▁sezgisel	-11.2416
▁erkeğin	-11.2417
▁sorabilirsiniz	-11.2417
▁videosu	-11.2418
▁bölümleri	-11.242
▁öğretmenleri	-11.242
lenecek	-11.2425
▁konsept	-11.2428
▁tutul	-11.243
▁kapatma	-11.2431
▁görmedi	-11.2431
▁anlaşılması	-11.2432
▁uçur	-11.2432
▁durak	-11.2432
abiliyordu	-11.2434
▁ulaşıyor	-11.2434
▁yaşları	-11.2434
▁organı	-11.2438
▁okulları	-11.2443
▁keçir	-11.2445
▁mutluluğu	-11.2449
▁hü	-11.245
▁tuş	-11.2453
mazsınız	-11.2454
▁sürüklen	-11.2458
▁içinizde	-11.2459
▁tabu	-11.246
▁emisyon	-11.2463
▁sütun	-11.2466
▁Inc	-11.2467
▁lisede	-11.2469
▁kurumları	-11.2469
▁çıkarım	-11.247
▁Bra	-11.247
▁başvuru	-11.2471
▁Nik	-11.2472
▁değiştirebil	-11.2474
▁yazdığım	-11.2476
▁tanımlar	-11.2476
▁olanlardan	-11.2477
▁ameliyatı	-11.2482
▁nesnelerin	-11.2485
gre	-11.2485
▁istenme	-11.2486
▁Gelin	-11.2493
▁gitmiyor	-11.2494
▁bağlıyor	-11.2494
▁şef	-11.2495
▁denemeye	-11.2495
▁tema	-11.2495
▁bakterilerin	-11.2497
▁kişileri	-11.2501
▁şeylər	-11.2502
atif	-11.2503
▁evsiz	-11.2504
▁düzeni	-11.2505
▁Mola	-11.2509
▁yarasa	-11.2511
▁yıkıl	-11.2512
▁eklem	-11.2514
▁ilgilenmeye	-11.2515
▁öteki	-11.2516
▁Bell	-11.2517
ardı	-11.2519
▁bağlama	-11.2519
▁doğdum	-11.2523
▁açılış	-11.2524
▁belirtmek	-11.2525
ebiliyorlar	-11.2525
▁Green	-11.2525
▁Mus	-11.2529
▁etmediği	-11.253
▁gerçeğin	-11.253
▁köşede	-11.2531
▁yarıya	-11.2532
▁gücümüz	-11.2534
liklerini	-11.2536
▁kafamda	-11.2538
▁Str	-11.2538
▁denizin	-11.2539
▁bahsetmiyoru	-11.254
▁arkadaşlarını	-11.254
▁bozu	-11.2542
▁ödev	-11.2542
▁dayanır	-11.2544
▁eğ	-11.2548
▁duymaya	-11.255
▁zenginlik	-11.255
▁çıkarın	-11.2551
ladılar	-11.2553
▁katlı	-11.2555
▁tasarrufu	-11.2555
▁kesti	-11.256
▁avantajı	-11.256
▁kromozom	-11.2561
▁buluştu	-11.2563
▁Başkanı	-11.2563
dikçe	-11.2568
▁bırakın	-11.2568
▁hissini	-11.2569
▁işlediğini	-11.2569
▁salgının	-11.2569
▁iyileştirmek	-11.257
acağına	-11.2574
▁sivrisinek	-11.2575
xşı	-11.2581
▁unutu	-11.2582
▁dinleyiciler	-11.2585
▁kalmaz	-11.2586
▁enerjisini	-11.2589
▁mülk	-11.2589
▁zamanımız	-11.2591
▁geçirdiği	-11.2592
▁oluştuğu	-11.2593
▁Güç	-11.2595
▁saklı	-11.2596
▁uçakları	-11.2597
▁Arkadaş	-11.2598
▁teşkil	-11.2599
▁Mikro	-11.2599
▁ritüel	-11.2599
▁National	-11.2599
▁Nihayet	-11.2599
▁omurga	-11.2599
▁semptom	-11.2599
▁sponsor	-11.2599
▁Görünüş	-11.2599
▁ilerledi	-11.2599
▁düşünüp	-11.2599
▁otoyol	-11.2599
▁görülür	-11.2599
▁makul	-11.2599
▁Brian	-11.26
▁taciz	-11.26
▁növ	-11.26
▁solunum	-11.26
▁Duvar	-11.26
▁Alex	-11.26
▁Berlin	-11.26
▁sahə	-11.2601
▁193	-11.2601
▁maliyetini	-11.2602
▁fren	-11.2602
▁balonu	-11.2604
▁konuşmasını	-11.2604
lduğunda	-11.2605
▁Seat	-11.2605
▁müdürü	-11.2605
▁bozukluk	-11.2605
▁gündüz	-11.2605
▁Aralık	-11.2605
▁Şiir	-11.2606
▁lamba	-11.2606
▁mekanizması	-11.2607
▁yoxdur	-11.2608
▁olmayacağı	-11.2609
▁alışkanlık	-11.261
▁yapabil	-11.2611
ləmə	-11.2613
▁uyuş	-11.2613
▁teknikleri	-11.2616
▁eğlen	-11.2618
▁Sistemi	-11.262
▁hayranı	-11.262
▁donat	-11.2623
▁edebileceğimiz	-11.2623
▁bulacak	-11.2625
▁karşılaştığı	-11.2625
▁bölgesel	-11.2626
▁arayüzü	-11.2628
▁detayları	-11.263
laştığı	-11.2631
▁ağlama	-11.2633
▁benzersiz	-11.2633
▁satıcı	-11.2633
▁attığı	-11.2634
▁Bunlara	-11.2634
▁lezzetli	-11.2635
▁şerit	-11.2635
▁hayatınızda	-11.2639
▁Kas	-11.2639
▁iyilik	-11.2639
▁Derin	-11.2643
mada	-11.2644
▁idim	-11.2646
layalım	-11.2646
▁Birden	-11.2648
▁yapama	-11.2648
▁kanunları	-11.2648
▁amca	-11.2649
▁işçiler	-11.2649
▁büyülü	-11.2649
▁anlayan	-11.265
▁biyolog	-11.2652
▁ışığ	-11.2653
▁Dün	-11.2653
▁altta	-11.2655
▁versiyon	-11.2656
▁West	-11.2657
▁Avrupalı	-11.2657
▁bilincin	-11.2659
▁müşterileri	-11.2659
▁olmazsa	-11.2672
imizden	-11.2675
▁gitmişti	-11.2675
▁değişmesi	-11.2676
▁değerinde	-11.2676
▁aklınız	-11.2677
▁versiyonunu	-11.2677
▁aklı	-11.2682
▁gittiğinde	-11.2683
▁yetkili	-11.269
▁sorusunu	-11.2691
▁geleni	-11.2691
▁bölü	-11.2692
▁dır	-11.2693
▁kullanacağı	-11.2694
▁bölme	-11.2696
▁yaralanma	-11.2698
▁dolaş	-11.2699
▁seninle	-11.2701
▁savun	-11.2702
▁beyninde	-11.2703
▁Yapa	-11.2704
▁bağlanmış	-11.2707
▁Bekle	-11.2707
▁istekleri	-11.2713
▁cezası	-11.2713
▁baya	-11.2714
tis	-11.2717
▁çalıştıkları	-11.2717
▁solda	-11.2719
▁Dışarı	-11.272
▁sevdi	-11.272
oh	-11.2721
yy	-11.2722
▁cm	-11.2723
▁onlarda	-11.2724
▁sonlarında	-11.2725
▁cevapları	-11.2726
▁Düş	-11.2728
▁araştırdı	-11.2729
▁çiftleşme	-11.273
▁öncelik	-11.2734
▁umutsuz	-11.2735
▁kaybolma	-11.2739
▁karın	-11.274
▁barındır	-11.2747
▁kaçın	-11.2747
▁temizle	-11.2748
▁bilmiyordu	-11.2751
▁tesadüf	-11.2752
▁Hayatımı	-11.2754
▁birsey	-11.2755
▁önceydi	-11.2757
▁kümesi	-11.2758
mekle	-11.276
▁topladık	-11.276
▁okullarda	-11.2764
▁Hollanda	-11.2764
▁silahları	-11.2767
▁yakınında	-11.277
▁deneyin	-11.2773
▁kader	-11.2775
▁bakmayı	-11.278
▁zıt	-11.278
▁koleksiyon	-11.2783
▁Dağı	-11.2784
▁kö	-11.2785
▁uçuşu	-11.2789
▁çalı	-11.2789
▁samimi	-11.2791
▁Norveç	-11.2792
▁Parkinson	-11.2792
▁beyefendi	-11.2792
▁inkişaf	-11.2792
▁mövcud	-11.2792
▁oksitosin	-11.2792
▁avuç	-11.2792
▁garaj	-11.2792
▁fatura	-11.2792
▁genetiği	-11.2792
▁izole	-11.2792
▁manşet	-11.2792
▁meyilli	-11.2792
▁Saturn	-11.2792
▁194	-11.2793
▁Şubat	-11.2793
▁niha	-11.2796
▁Aşk	-11.2797
▁kırıklığın	-11.2798
▁hesab	-11.2798
▁II	-11.2798
▁planet	-11.28
▁Tar	-11.2801
▁kolları	-11.2802
▁olanağı	-11.2803
▁harcıyoruz	-11.2804
▁anlayabiliyor	-11.281
▁teknolojimiz	-11.281
▁hareketlerini	-11.2811
▁yerdi	-11.2811
▁lobi	-11.2814
▁ilerler	-11.2815
▁geleneği	-11.2817
▁kaldırıp	-11.2817
▁sınıfın	-11.2819
▁girmiş	-11.2821
▁bileşen	-11.2821
▁karanlıkta	-11.2822
məsi	-11.2822
araq	-11.2823
▁profesörü	-11.2823
▁tele	-11.2826
▁yaşamayı	-11.2827
▁Kaçınız	-11.2828
▁şəkil	-11.2828
▁çalışmakta	-11.2831
▁işaretleri	-11.2835
▁belirtileri	-11.284
▁Jona	-11.284
▁yüzeyin	-11.2841
▁isteriz	-11.2844
▁Nor	-11.2846
▁iplik	-11.2846
▁yayınlama	-11.2847
▁bulunması	-11.2847
▁durdurmak	-11.2849
▁öğreti	-11.2849
▁niyetli	-11.2849
▁sağdaki	-11.2854
▁dikil	-11.2857
▁anlayabilmek	-11.286
▁kalkış	-11.2861
▁kaldırım	-11.2863
▁verdiğiniz	-11.2863
▁barışı	-11.2864
▁güveni	-11.2864
▁ırkçı	-11.2864
▁kıza	-11.2866
▁engellemek	-11.2868
▁koro	-11.2871
▁bölgeyi	-11.2874
▁Devrimi	-11.2874
▁saçı	-11.2875
▁şeffaflık	-11.2879
▁sağlığını	-11.2879
▁amacım	-11.288
emeyeceği	-11.288
▁bilmediğimiz	-11.2884
▁inceledik	-11.2884
▁goru	-11.2885
▁sıçrama	-11.2886
▁gösteriyorum	-11.2886
digini	-11.2889
▁tamamlama	-11.2892
▁tartışmaya	-11.2893
▁temelinde	-11.2896
▁önlemek	-11.2903
madığını	-11.2903
▁gündem	-11.2907
▁sözünü	-11.2913
▁bilimci	-11.2914
irim	-11.2917
▁boğul	-11.2922
▁kaynaklarını	-11.2923
▁görüldü	-11.2923
doğu	-11.2923
▁birleşme	-11.2923
▁gereklidir	-11.2924
▁sıralama	-11.2925
arsanız	-11.2926
▁inşaa	-11.2927
▁edeceğini	-11.2934
ook	-11.2934
▁gülümseme	-11.2936
deydim	-11.2936
▁olmamalı	-11.2937
yabilirsiniz	-11.2939
▁Filistin	-11.294
▁molekülü	-11.294
and	-11.2941
▁Şi	-11.2944
▁ideoloji	-11.2945
▁sokaklarda	-11.2948
▁açılma	-11.2949
▁avlanma	-11.2951
▁iyiye	-11.2952
▁teker	-11.2952
▁satıyor	-11.2953
▁Ste	-11.2956
▁etkilen	-11.2957
.5	-11.2966
larinda	-11.2968
▁mana	-11.2968
▁sihir	-11.297
▁dersin	-11.2971
▁arttırma	-11.2977
irseniz	-11.2978
▁Steven	-11.2979
▁görmüştü	-11.298
▁aygıt	-11.2982
▁içindeydi	-11.2984
▁seferde	-11.2986
diklerinde	-11.2987
▁opera	-11.2987
▁argüman	-11.2988
▁bayrak	-11.2988
▁origami	-11.2988
▁talimat	-11.2988
▁ürkütücü	-11.2988
▁pamuk	-11.2988
▁servet	-11.2988
▁ufacık	-11.2988
▁sansür	-11.2988
▁Silah	-11.2988
▁çalın	-11.2988
▁GSM	-11.2988
▁Julia	-11.2988
▁ipucu	-11.2988
▁üzgünüm	-11.2988
▁eğiliminde	-11.2989
▁öldürüyor	-11.2989
▁istiyorsun	-11.2989
▁Yemen	-11.2989
▁Parça	-11.299
▁Josh	-11.299
▁lanet	-11.299
▁Rock	-11.299
▁paketi	-11.2991
▁haberdar	-11.2991
▁boyutları	-11.2992
lakin	-11.2992
▁düşündüğünü	-11.2992
▁gayri	-11.2992
▁kodlama	-11.2992
▁Etki	-11.2993
▁azınlık	-11.2994
▁salgı	-11.2995
▁İlgi	-11.2996
▁ölçüsü	-11.2996
▁Kazan	-11.2997
▁seçilmiş	-11.3001
▁ayaklanma	-11.3003
▁Dahası	-11.3004
▁vatandaşlar	-11.3005
Kaide	-11.3005
cağı	-11.3005
▁Beynin	-11.3005
▁görelim	-11.3006
▁giderseniz	-11.3006
▁belirsizlik	-11.3006
▁boyutunda	-11.3007
▁görüştü	-11.3008
▁arayan	-11.3009
▁umur	-11.3009
▁verirler	-11.3011
▁yayma	-11.3012
▁sınırlarını	-11.3013
▁okyanuslar	-11.3014
▁ulaşması	-11.3017
lamayı	-11.3017
▁astronomi	-11.3017
▁açıklamaya	-11.3019
▁dikkatinizi	-11.302
▁Gen	-11.3023
▁yaramıyor	-11.3023
▁arkasın	-11.3024
▁konuşu	-11.3024
▁oynamaya	-11.3028
▁karış	-11.3029
▁seven	-11.3031
▁buralarda	-11.3033
ettiği	-11.3035
▁hastaya	-11.3035
▁koruyor	-11.3037
▁dörd	-11.3039
▁kaçırma	-11.304
▁eğitil	-11.3043
▁kaplama	-11.3044
▁çekin	-11.3044
▁ilgilenir	-11.3046
▁sinyaller	-11.3046
▁Hav	-11.3047
▁hissettiğim	-11.3047
burg	-11.3047
yacaksınız	-11.3048
asiya	-11.3048
mezdi	-11.3048
▁AB	-11.305
▁uçtu	-11.3051
▁edeceksiniz	-11.3051
▁peri	-11.3051
▁yayınlandı	-11.3052
▁politikacı	-11.3053
sey	-11.3053
Bu	-11.3055
▁beklemek	-11.3056
ərək	-11.3059
▁seçti	-11.3059
▁Gelecekte	-11.3061
▁edemiyor	-11.3063
▁gördükleri	-11.3063
▁ifadesi	-11.3064
▁kafes	-11.3067
mazdı	-11.3072
▁Bilme	-11.3072
▁ayrıla	-11.3074
▁durumla	-11.3076
▁harikaydı	-11.3077
▁kullanacağım	-11.3081
▁güne	-11.3083
meliyim	-11.3093
▁düşünmenin	-11.3093
▁vardık	-11.3094
▁yolladı	-11.3094
▁değiştiği	-11.3098
▁hapiste	-11.3099
▁polisi	-11.31
▁gram	-11.31
▁depolama	-11.31
oksi	-11.3102
▁bağları	-11.3107
▁sözcük	-11.3108
▁günleri	-11.3108
▁kampanyası	-11.311
▁buldukları	-11.3111
▁yapsa	-11.3111
▁köpekler	-11.3112
▁sayma	-11.3113
▁oyuncuları	-11.3114
▁insanoğlunu	-11.3116
▁eleman	-11.3117
▁kırı	-11.3118
star	-11.3119
▁çıkartma	-11.3119
▁olacağımız	-11.3119
▁servisi	-11.3121
layayım	-11.3122
▁duyulma	-11.3125
ıvı	-11.3126
▁yasalar	-11.3129
ttığı	-11.3131
▁başarmış	-11.3131
▁gəlmə	-11.3134
▁yiyecekleri	-11.3136
▁birimiz	-11.3137
▁sav	-11.3137
▁Ani	-11.3139
▁kaynaş	-11.3139
▁Gol	-11.3139
▁yükselişi	-11.314
baba	-11.3143
▁paylaşım	-11.3147
▁istədi	-11.3147
▁hayalim	-11.3148
▁içerir	-11.3149
▁gergin	-11.3153
▁Hindistanda	-11.3156
▁kontrolünü	-11.3156
▁kavuştu	-11.3157
erseniz	-11.3161
▁kavra	-11.3162
▁no	-11.3162
▁çeviriyor	-11.3163
▁rahatsızlık	-11.3163
▁Pas	-11.3164
▁teknikler	-11.3169
▁olardı	-11.3172
▁gitmedi	-11.3175
tez	-11.3175
▁Bor	-11.318
▁beklediği	-11.3181
▁hakkını	-11.3182
▁Çinli	-11.3182
▁198	-11.3184
▁Yarı	-11.3186
▁Grön	-11.3188
▁Detroit	-11.3188
▁Profesör	-11.3188
▁Singapur	-11.3188
▁federal	-11.3188
▁kulübe	-11.3188
▁pantolon	-11.3188
▁doğaçlama	-11.3188
▁levha	-11.3188
▁omurilik	-11.3188
▁vacib	-11.3188
▁şov	-11.3188
▁Sekiz	-11.3188
▁Köy	-11.3188
▁manevi	-11.3188
▁şüpheci	-11.3188
▁logo	-11.3189
▁kademe	-11.3189
▁2015	-11.3189
▁bozucu	-11.3189
▁dindar	-11.319
▁Kızıl	-11.319
▁kartları	-11.319
▁Life	-11.319
▁yiyecekler	-11.319
▁etkileyecek	-11.319
▁Port	-11.3191
▁dilerim	-11.3191
▁dansı	-11.3194
▁televizyonda	-11.3194
▁almıyor	-11.3195
landığında	-11.3195
▁duyulan	-11.3196
▁toplulukları	-11.3196
lis	-11.3197
▁yaradığını	-11.3197
▁85	-11.3197
▁modelleme	-11.32
▁dağılımı	-11.3202
▁Şili	-11.3202
▁çiçekler	-11.3202
▁robotu	-11.3202
ğınız	-11.3204
▁sıralarda	-11.3204
▁çevirdi	-11.3205
▁bireyin	-11.3207
▁kabullen	-11.3211
▁olmamızı	-11.3211
▁Plan	-11.3211
▁tanımlay	-11.3213
ria	-11.3216
▁çocuğunu	-11.3216
▁hissetti	-11.3222
ilmişti	-11.3224
masından	-11.3225
▁yapmadığı	-11.3225
▁Yaptığım	-11.3226
▁tabiat	-11.323
▁yeteneklerini	-11.323
▁ulaşan	-11.323
▁hipotez	-11.3231
▁başkaları	-11.3233
▁olmamış	-11.3236
▁My	-11.3236
▁kapsaya	-11.3236
▁bandı	-11.3237
gras	-11.3239
▁destekçi	-11.324
▁yanınızda	-11.324
▁konuşul	-11.3242
▁kazandık	-11.3245
▁kurtulmak	-11.3246
▁ettiğinde	-11.3246
▁genişliğinde	-11.3248
▁ebeveynler	-11.3251
▁Değiş	-11.3253
▁birlik	-11.3255
▁isimlendir	-11.3257
▁fırsatları	-11.3257
stro	-11.3258
▁Normalde	-11.3259
▁ormanlar	-11.3263
▁kaldığı	-11.3265
▁temizleme	-11.3266
larıydı	-11.3266
▁aradım	-11.3267
▁söyledik	-11.3267
▁projeleri	-11.327
▁gönderir	-11.3271
yacaktır	-11.3273
▁sektörü	-11.3274
leşmeye	-11.3274
maktansa	-11.3278
▁ilginçtir	-11.3278
▁anıt	-11.328
▁katıldığı	-11.328
▁sonda	-11.3287
▁maka	-11.3287
▁paraya	-11.3293
▁objeler	-11.3295
▁sembolü	-11.3297
▁Brad	-11.3299
▁silahı	-11.3303
my	-11.3306
▁tuttur	-11.3309
▁takdirde	-11.3309
▁bilgisayarları	-11.3311
etmek	-11.3311
digi	-11.3312
▁yerindeki	-11.3314
düz	-11.3315
▁görüyorlar	-11.3317
▁Körfezi	-11.3318
▁hazırladı	-11.3319
▁araştırmayı	-11.332
gat	-11.3321
▁Kura	-11.3322
▁kayı	-11.3323
layacağım	-11.3325
▁açıl	-11.3327
▁yaptığımızda	-11.3327
▁dönecek	-11.3328
▁Dil	-11.333
▁endişelenme	-11.3332
▁dönüştürüyor	-11.3333
▁nesiller	-11.3338
▁koyuldu	-11.3339
▁ağla	-11.3341
▁varmak	-11.3342
▁zorlukları	-11.3345
▁anlamayı	-11.3345
landırıyor	-11.3346
▁diyorsunuz	-11.3348
dikten	-11.3349
▁cins	-11.3352
▁hataları	-11.3355
▁engelleri	-11.3358
▁kapitalizm	-11.3359
▁koşullarda	-11.3361
kül	-11.3363
▁sağda	-11.3364
shi	-11.3366
▁düzensiz	-11.337
▁organizasyonlar	-11.3371
▁edilmişti	-11.3372
▁eh	-11.3373
▁duydun	-11.3373
▁çekmeye	-11.3376
▁belirlemek	-11.338
▁uzerinde	-11.3381
▁istikrar	-11.3383
▁kuvvetleri	-11.3383
▁matematiğin	-11.3385
▁olaya	-11.3391
▁anlatacak	-11.3391
▁əlaqə	-11.3392
▁festival	-11.3392
▁senkroniz	-11.3392
`	-11.3392
▁Bronx	-11.3392
▁Dördüncü	-11.3392
▁halüsinasyon	-11.3392
▁iPod	-11.3392
▁klişe	-11.3392
▁nöqtə	-11.3392
▁qəbul	-11.3392
▁qərar	-11.3392
▁tsunami	-11.3392
▁şampiyon	-11.3392
▁Somali	-11.3392
▁mühim	-11.3392
▁piksel	-11.3392
▁gayret	-11.3392
▁obezite	-11.3392
▁İncil	-11.3392
▁Albert	-11.3392
▁Örgütü	-11.3392
▁borsa	-11.3392
▁mucit	-11.3392
▁israf	-11.3393
▁Hayatın	-11.3393
▁ivme	-11.3394
▁madenci	-11.3395
▁maraqlı	-11.3395
▁yönlü	-11.3396
▁bilmeyen	-11.3397
▁bilge	-11.3397
▁gerçekleşir	-11.3399
▁geçebilir	-11.3399
▁Hill	-11.3399
▁Kolay	-11.3399
▁gittiğim	-11.34
▁Git	-11.34
▁koleksiyonu	-11.3401
▁görüyordu	-11.3403
▁Çek	-11.3404
▁adaptasyon	-11.3405
▁Cal	-11.3405
ğımda	-11.3405
▁yüzün	-11.3406
▁adlandırdığımız	-11.3406
▁hayattaki	-11.3407
▁kaybol	-11.3408
▁gösterdim	-11.341
▁Üz	-11.341
▁sundu	-11.3415
▁uzaklaştır	-11.3415
▁taban	-11.3416
▁görevlisi	-11.342
▁vaad	-11.342
leşik	-11.3424
▁hazırlık	-11.3424
▁42	-11.3425
bilim	-11.3426
▁hassasiyet	-11.3427
▁işinde	-11.343
▁gökyüzün	-11.3432
▁oynadığı	-11.3434
▁bilmediği	-11.3434
▁Dinle	-11.3435
▁duvarlar	-11.3436
▁sualtı	-11.3437
▁becerisi	-11.3438
▁yansıtma	-11.344
lacağını	-11.3442
▁vurgu	-11.3442
emeyen	-11.3444
▁bulmayı	-11.3444
▁Cun	-11.3444
▁seçenekleri	-11.3445
▁SS	-11.3446
▁üzül	-11.345
▁bileşeni	-11.345
▁istemediği	-11.3451
▁taraflı	-11.3451
▁geldiklerinde	-11.3456
▁belkide	-11.3456
▁taşları	-11.3459
▁bilgilerini	-11.3459
kalı	-11.346
▁arkamda	-11.3462
▁evler	-11.3463
hal	-11.3463
▁Gözleri	-11.3466
▁kullanacak	-11.3466
▁arayışı	-11.3467
▁proteinler	-11.3467
▁Aç	-11.347
▁itme	-11.3471
ille	-11.3477
▁Au	-11.3481
▁sarf	-11.3482
▁maddeleri	-11.3484
▁hapis	-11.3487
▁elimi	-11.3488
▁vuruş	-11.3489
▁silin	-11.3492
▁tarzda	-11.3499
▁robotların	-11.3499
▁asal	-11.3505
▁ailesini	-11.3505
▁War	-11.3506
▁maliyetleri	-11.3507
▁delil	-11.3507
leştirmeye	-11.3508
▁makinası	-11.3511
▁Kor	-11.3512
▁düşü	-11.3516
▁Anlaşıl	-11.3519
▁yerleştirmek	-11.3523
▁taraftaki	-11.3524
labildiği	-11.3525
▁olduklarından	-11.3529
layabilecek	-11.353
▁düşündükleri	-11.3531
fil	-11.3533
▁görünebilir	-11.3535
▁üretti	-11.3536
▁bük	-11.3537
▁amaçları	-11.3538
▁oynadı	-11.3539
▁fikirle	-11.3539
▁taksi	-11.354
leştirir	-11.3545
▁öğretmenlerin	-11.3545
▁evleri	-11.3546
▁yaptığında	-11.3552
▁Çince	-11.3554
▁yem	-11.3555
yuz	-11.3558
▁bitirdi	-11.3558
stan	-11.3559
▁çıkarabilir	-11.3562
▁paylaşacağım	-11.3562
▁panel	-11.3564
▁sektörün	-11.3568
▁sorduğu	-11.3569
▁çağda	-11.3572
▁açabilir	-11.3573
▁bağlamak	-11.3574
▁şanslıydı	-11.3574
▁erkekleri	-11.3576
▁rezerv	-11.3576
▁beklentisi	-11.3577
▁sizlerin	-11.3578
▁parayla	-11.3583
▁Diğeri	-11.3583
▁kurtardı	-11.3584
▁demo	-11.3586
▁vizyonu	-11.3587
▁sözleşme	-11.3592
▁Ap	-11.3593
▁sizde	-11.3594
▁imkân	-11.3594
▁duvarın	-11.3596
▁sahibim	-11.3597
▁Aristo	-11.36
▁Politik	-11.36
é	-11.36
▁Bangladeş	-11.36
▁Elektrik	-11.36
▁fevkalade	-11.36
▁xəbər	-11.36
▁çekirdeği	-11.36
▁Sekoya	-11.36
▁uyguluyor	-11.36
▁Soğuk	-11.36
▁qeyri	-11.36
▁tercüme	-11.36
▁Watson	-11.36
▁Türkiye	-11.36
▁üzgün	-11.36
▁öğüt	-11.36
▁Olimpiyat	-11.36
▁uyğun	-11.36
▁Ticaret	-11.36
yorduk	-11.3601
▁Mayıs	-11.3601
▁muhafazakar	-11.3601
▁hatıra	-11.3601
▁komedi	-11.3601
▁yedek	-11.3602
▁seçkin	-11.3602
▁Lester	-11.3602
▁uygulanabilir	-11.3603
▁1900	-11.3603
▁parçasıdır	-11.3604
▁bayılıyorum	-11.3604
▁alacağım	-11.3604
▁Motor	-11.3605
▁unsur	-11.3606
▁bakılır	-11.3606
▁yapıda	-11.3606
▁Akıllı	-11.3608
▁cikar	-11.361
▁okuyan	-11.3612
▁yollarda	-11.3614
▁getirerek	-11.3615
▁Tre	-11.3615
▁dolaşım	-11.3616
▁Ten	-11.3616
▁olgun	-11.3617
▁götüren	-11.3618
▁SW	-11.3619
fu	-11.3621
▁çayır	-11.3622
rtesi	-11.3628
▁dürtü	-11.3628
▁ilişkilendir	-11.3631
▁yenme	-11.3631
▁satan	-11.3632
lığından	-11.3633
▁dağlar	-11.3634
▁ekledik	-11.3635
og	-11.3636
bilirsek	-11.3639
lığımız	-11.3639
▁gitmemiz	-11.3639
▁Sanal	-11.3644
▁kayak	-11.3648
▁gözünde	-11.3648
▁bırakan	-11.365
▁Batılı	-11.365
▁kuyu	-11.365
▁dostum	-11.3652
▁vurdu	-11.3658
▁mesajlar	-11.3659
▁almadı	-11.366
▁hissediyorsunuz	-11.3662
ydılar	-11.3662
▁mutluluğun	-11.3666
▁eyaletler	-11.3667
▁Bre	-11.3669
▁parla	-11.3669
▁yazmış	-11.3671
▁politikası	-11.3671
▁soldaki	-11.3673
▁aklın	-11.3675
ih	-11.3678
▁Amerikalıları	-11.368
▁güzeldi	-11.368
▁dilde	-11.3683
▁sayısal	-11.3686
▁format	-11.3687
uri	-11.3687
▁Bat	-11.369
▁birbirleri	-11.3691
▁geçmeye	-11.3694
▁şarkıcı	-11.3694
▁kurumu	-11.3698
ring	-11.3702
▁cesareti	-11.3713
▁anları	-11.3714
▁dörtte	-11.3716
▁inançları	-11.3717
▁döndüğüm	-11.3719
▁doğrusal	-11.3719
▁arkadaşlık	-11.3719
▁üstündeki	-11.3721
▁bilimciler	-11.3726
▁eğitmek	-11.3727
▁filan	-11.3727
▁arabaların	-11.3731
iğe	-11.3737
▁olanın	-11.3738
▁hatırlattı	-11.3738
▁Yaptığı	-11.3741
meyeceğiz	-11.3742
▁cebi	-11.3746
▁bulundukları	-11.3747
ılmasını	-11.3749
▁şekillendirme	-11.3751
▁gerçekleri	-11.3751
▁Görme	-11.3751
▁binaları	-11.3755
▁hacker	-11.3755
▁Dediğim	-11.3759
▁klip	-11.3761
▁yıldızları	-11.3762
▁içki	-11.3762
▁kaçma	-11.377
▁çıktılar	-11.3771
▁gelişimin	-11.3772
metri	-11.3774
hol	-11.3775
▁örnekle	-11.3777
▁sarma	-11.3778
▁kablolar	-11.3779
▁başlangıcında	-11.3779
▁kuşların	-11.378
yacağız	-11.3781
▁Mas	-11.3781
▁ikili	-11.3783
▁üçü	-11.3785
▁toplan	-11.3785
▁Taş	-11.3786
5.000	-11.3786
▁ışın	-11.3787
miyorsunuz	-11.3788
▁sorunlara	-11.3788
▁söylemedi	-11.3791
▁anlaş	-11.3793
▁bakışı	-11.3794
▁göm	-11.3796
▁kası	-11.3799
▁giyiyor	-11.3803
▁verebil	-11.3806
▁atın	-11.3809
▁aşkı	-11.3809
▁husus	-11.3813
▁Apollo	-11.3813
▁Diyelim	-11.3813
▁Stephen	-11.3813
▁coşku	-11.3813
▁hiyerarşi	-11.3813
▁reaktör	-11.3813
▁tansiyon	-11.3813
▁İrlanda	-11.3813
▁Bilinç	-11.3813
▁Kulağa	-11.3813
▁hoparlör	-11.3813
▁santimetre	-11.3813
▁tişört	-11.3813
▁Ağaç	-11.3813
▁rəng	-11.3813
▁Zelanda	-11.3813
▁panik	-11.3813
▁çete	-11.3813
▁baloncuk	-11.3813
▁Nefes	-11.3813
▁Görünen	-11.3813
▁iğrenç	-11.3813
▁ezber	-11.3814
▁sayılmaz	-11.3815
▁gittiğinizde	-11.3815
▁Mısırlı	-11.3816
mişimdir	-11.3816
▁başlamalıyız	-11.3817
▁söylemiyorum	-11.3818
▁fonksiyonu	-11.3822
▁kuvveti	-11.3822
▁etrafımızdaki	-11.3823
▁tabir	-11.3824
▁Düzen	-11.3825
▁zincir	-11.3828
▁tavır	-11.3828
liğimiz	-11.383
▁Patlama	-11.383
▁duş	-11.3831
▁eklemek	-11.3834
▁detaylar	-11.3835
▁medyada	-11.3835
▁sizce	-11.3837
▁kapattı	-11.3837
ğum	-11.3838
▁doğasını	-11.3844
▁yönünü	-11.3846
▁yaratıyoruz	-11.3847
▁dilinde	-11.385
amıyorum	-11.385
▁gökyüzünde	-11.3852
▁katılan	-11.3853
ons	-11.3854
▁Mah	-11.3861
▁48	-11.3862
▁seçtim	-11.3864
all	-11.3864
▁yakalan	-11.3864
▁santral	-11.3866
▁Hans	-11.3868
lərindən	-11.3868
▁hayalini	-11.3875
▁anlayama	-11.3876
▁şekl	-11.3877
▁katıldım	-11.3877
▁tamamladı	-11.3878
larıma	-11.3881
▁büyüdük	-11.3881
▁kavramlar	-11.3883
▁Bang	-11.3883
▁emeklilik	-11.3884
▁ettirmek	-11.3886
▁seyler	-11.3886
▁kültürler	-11.3889
▁koyabilir	-11.3895
▁odaklanmak	-11.3896
▁merkezli	-11.3898
▁engelleye	-11.3904
larini	-11.3907
▁olmadığımız	-11.3909
▁bilirsin	-11.3911
▁gezegenimizi	-11.3911
▁Günde	-11.3912
▁soracak	-11.3912
▁tanıdığım	-11.3912
▁William	-11.3914
▁seçtiği	-11.3914
▁konuşmuyor	-11.3915
tion	-11.3918
▁kuruldu	-11.3918
▁Ortak	-11.392
▁gezegenimiz	-11.3925
▁laboratuvarı	-11.3926
▁isimleri	-11.3927
▁değişimler	-11.3927
▁parçacık	-11.3928
▁almaları	-11.393
▁kısmının	-11.3937
▁bulundur	-11.3937
▁dirençli	-11.3937
▁yarattığımız	-11.3942
▁bedeli	-11.3944
▁organlar	-11.3949
yabilir	-11.3949
▁oğlumu	-11.3951
▁konumu	-11.3954
▁ritmi	-11.3954
▁gəl	-11.3955
▁buhar	-11.3955
▁ekliyor	-11.3956
▁sıkışı	-11.3957
cası	-11.396
▁kuşak	-11.3962
▁kaldığını	-11.3966
ıyordum	-11.3968
▁yapabileceğim	-11.397
▁odaklanmış	-11.3972
▁sakla	-11.3973
rın	-11.3973
▁paylaşıyor	-11.3974
▁yöneticisi	-11.3975
▁55	-11.3975
▁yaşayabilir	-11.3976
oid	-11.3977
▁andan	-11.3978
▁350	-11.398
leyeceğim	-11.3981
▁çök	-11.3983
▁boyutlar	-11.3983
▁ayakkabıları	-11.3985
▁harfi	-11.3988
dra	-11.3989
bit	-11.399
▁çizgisi	-11.3992
▁kadınla	-11.3993
▁dalgalar	-11.3995
▁düşmüş	-11.3996
▁kürek	-11.3996
▁virüsün	-11.3998
▁düşünmüş	-11.4
▁Anlat	-11.4001
▁başını	-11.4001
▁olsak	-11.4005
▁olar	-11.4013
▁uğraşmak	-11.4014
▁makinalar	-11.4019
DR	-11.4019
▁sokağ	-11.402
▁mağdur	-11.4021
▁ölçtü	-11.4021
▁kararları	-11.4023
▁Sonsuz	-11.4024
▁doğrudur	-11.4026
▁neresi	-11.4026
▁çiğ	-11.403
eographic	-11.403
▁Muhammed	-11.403
▁entropi	-11.403
▁ipuçları	-11.403
▁kıvrıl	-11.403
▁kəşf	-11.403
▁montaj	-11.403
▁rəqəm	-11.403
▁soykırım	-11.403
▁trajik	-11.403
▁mahrum	-11.403
▁mektubu	-11.403
▁müslüman	-11.403
▁röntgen	-11.403
▁təşkil	-11.403
▁Teksas	-11.403
▁karides	-11.403
▁Sıcak	-11.403
▁İlaç	-11.403
▁Fazla	-11.403
▁Leonardo	-11.403
▁enkaz	-11.403
▁şirin	-11.403
▁meta	-11.403
▁sıçan	-11.4031
▁Yaptıkları	-11.4031
▁Sınır	-11.4031
▁izleyin	-11.4031
▁hırsız	-11.4031
▁ipek	-11.4032
▁Mike	-11.4032
▁alıştırma	-11.4032
▁yaşlandık	-11.4033
▁kurucu	-11.4034
▁Karanlık	-11.4035
▁verelim	-11.4036
▁anlarsınız	-11.4037
▁hiper	-11.4037
▁göremezsiniz	-11.4037
▁bükül	-11.4038
▁ateşi	-11.404
▁yapacaklarını	-11.404
▁öğretir	-11.404
▁istemek	-11.404
▁başlayacağım	-11.4041
▁birleşimi	-11.4044
▁1.5	-11.4047
▁okyanusları	-11.4049
▁kırıklığı	-11.405
▁sevmiyor	-11.4055
▁görmediği	-11.4055
▁otuz	-11.4055
▁yorumlama	-11.4055
▁set	-11.4056
▁memnuniyet	-11.4059
▁virüsler	-11.406
▁inandığım	-11.4062
▁sağlamaya	-11.4066
▁görürdü	-11.4066
▁birkaçı	-11.4066
▁çevresindeki	-11.4068
▁yapılandır	-11.4068
25	-11.4068
▁RNA	-11.4069
▁görmekte	-11.4069
enüz	-11.4069
▁kaydetme	-11.4069
▁alabiliriz	-11.4073
▁açım	-11.4073
▁Çocukları	-11.4073
▁eylemleri	-11.4075
▁tutmaya	-11.4076
▁tart	-11.4078
▁Bal	-11.4083
▁isimlerini	-11.4083
laştırmak	-11.4084
▁atla	-11.4086
▁sistemimizi	-11.4087
▁rolünü	-11.4089
▁yaşamlarını	-11.4089
▁ihtiyaçlarını	-11.4091
▁yöntemle	-11.4092
▁telefonunuz	-11.4092
▁Tez	-11.4099
▁öğrendikleri	-11.4102
▁sınırların	-11.4103
▁Test	-11.4104
▁Ortada	-11.4104
olo	-11.4107
▁istemişti	-11.4108
▁değiştiri	-11.4109
onun	-11.411
▁yazıyordu	-11.4111
▁öldürüldü	-11.4111
▁İnsanlık	-11.4113
▁aydınlatma	-11.4114
▁Chi	-11.4115
▁kolon	-11.4119
▁baxı	-11.4125
▁endişeli	-11.4126
hir	-11.4126
▁amacımız	-11.4127
▁44	-11.4127
▁çalışmada	-11.4132
▁uzunluğu	-11.4133
▁çıkarmaya	-11.4133
▁sağlaya	-11.4138
▁edemez	-11.4143
▁kullanmış	-11.4149
kine	-11.4152
▁keşfediyor	-11.4157
▁sini	-11.4158
▁gördüğünüzde	-11.4161
▁ölmek	-11.4162
▁pal	-11.4164
▁por	-11.4165
▁Pop	-11.4167
▁problemini	-11.4168
▁ikimiz	-11.4168
▁kaldırmak	-11.417
▁dönemin	-11.4172
MS	-11.4172
▁dolaşıyor	-11.4173
ustu	-11.4176
▁kendinden	-11.4178
▁geliştirir	-11.4178
▁ayrıldı	-11.4179
▁qoy	-11.4179
▁düzeyinde	-11.418
▁olabilirim	-11.418
imden	-11.4182
çıları	-11.4185
Z	-11.4186
▁karşılaşır	-11.4187
▁derse	-11.4187
▁yaklaşıyor	-11.419
şer	-11.419
▁gerçekleştirme	-11.4192
liyordu	-11.4193
▁beceriler	-11.4196
lıyorsunuz	-11.4196
▁resimlerini	-11.4201
▁temsili	-11.4205
▁platformu	-11.4205
rdım	-11.4206
▁değiştirmemiz	-11.4208
▁uyumsuz	-11.421
▁birincisi	-11.421
▁şansınız	-11.4211
▁kabullenme	-11.4215
▁beste	-11.4216
▁harcar	-11.4221
lmak	-11.4223
▁kaldırdı	-11.4223
▁mikrop	-11.4227
▁kapağı	-11.4229
▁verilerini	-11.4232
▁çarptı	-11.4232
▁Homo	-11.4237
▁ailemi	-11.4238
▁Anti	-11.4238
▁dilimi	-11.4239
leyebiliriz	-11.4241
▁denetle	-11.4245
▁isteyecek	-11.4246
▁aktarma	-11.4249
▁yürü	-11.4249
▁midir	-11.4251
▁Danimarka	-11.4252
▁Disney	-11.4252
▁Hawaii	-11.4252
▁beyzbol	-11.4252
▁buzdolabı	-11.4252
▁böbrek	-11.4252
▁fizyoloji	-11.4252
▁implant	-11.4252
▁misafir	-11.4252
▁müfredat	-11.4252
▁randevu	-11.4252
▁texnologiya	-11.4252
▁turuncu	-11.4252
▁yelpaze	-11.4252
▁çeyrek	-11.4252
▁Şaşırtıcı	-11.4252
▁asansör	-11.4252
▁həmişə	-11.4252
▁kraliçe	-11.4252
▁pizza	-11.4252
▁Görüntü	-11.4252
▁Tunus	-11.4252
▁icra	-11.4252
▁rutin	-11.4252
▁yelken	-11.4252
▁Hukuk	-11.4253
▁Fakir	-11.4253
▁edebiyat	-11.4253
▁yorucu	-11.4253
▁bizzat	-11.4254
▁nerdeyse	-11.4254
▁düşünürüm	-11.4254
▁damga	-11.4254
ER	-11.4254
▁cephe	-11.4255
▁Long	-11.4256
▁diger	-11.4256
▁kayboluyor	-11.4257
▁Cent	-11.4257
▁safha	-11.4257
DI	-11.4258
▁turist	-11.4258
▁Lab	-11.426
▁dolaşan	-11.426
▁Rose	-11.4261
▁işleyişi	-11.4263
▁2002	-11.4264
▁sığır	-11.4264
▁sakın	-11.4265
▁Parti	-11.4266
▁Tesl	-11.4266
▁Birbirimiz	-11.4266
▁surat	-11.4267
▁görüşlü	-11.4268
▁karıştırma	-11.4268
▁Başlangıçta	-11.4268
▁Etrafı	-11.4268
▁US	-11.4269
▁EM	-11.427
▁tüy	-11.427
▁başlarsınız	-11.4271
▁gerekçe	-11.4274
▁tav	-11.4275
▁şizofreni	-11.4275
▁ölçeği	-11.4276
▁Ordu	-11.4276
▁bölgelerin	-11.4277
▁değiştirilmiş	-11.4279
▁geldiğimizde	-11.4279
▁savaştı	-11.4281
▁Milli	-11.4282
▁Saray	-11.4284
▁Tel	-11.4285
▁arkadaşlarımın	-11.4286
▁jeo	-11.4286
eger	-11.4288
▁dökül	-11.429
▁dinin	-11.4295
▁mesajları	-11.4298
▁yakma	-11.43
▁bitkileri	-11.4302
▁anlaşılır	-11.4302
▁biçimleri	-11.4303
lmalıyız	-11.4303
masıdır	-11.4307
▁bedenim	-11.4307
▁tasarlandı	-11.4307
▁edəcək	-11.4309
▁körü	-11.431
▁emir	-11.4311
▁ücreti	-11.4311
▁yığını	-11.4313
▁belirler	-11.4314
▁özetle	-11.4315
▁ediyorlardı	-11.4319
▁Hayvanlar	-11.4321
▁ağa	-11.4322
▁inceledi	-11.4322
▁Mimar	-11.4324
▁döndürü	-11.4324
▁ruhunu	-11.4325
▁delikler	-11.4325
▁istatistikler	-11.4326
right	-11.4327
leyebilirsiniz	-11.4329
▁sağır	-11.4332
▁koydular	-11.4333
▁Kuş	-11.4334
▁saklay	-11.4334
▁edebilirdi	-11.4339
▁hemşireler	-11.434
▁ettiğimizde	-11.4342
ımızdan	-11.4344
▁biriyim	-11.4346
▁verebilecek	-11.4347
▁politikaları	-11.4349
▁çıkardığımız	-11.4349
▁gününü	-11.4353
▁şunlar	-11.4354
▁güvence	-11.4355
▁uçakta	-11.4356
▁191	-11.4358
▁yürütme	-11.4358
ono	-11.4363
▁duydu	-11.4363
▁kaynaklana	-11.4365
▁icadı	-11.4366
▁duvarları	-11.4367
iğimiz	-11.4371
▁ekonomistler	-11.4372
▁çalıştılar	-11.4372
işini	-11.4376
▁tank	-11.4377
fik	-11.4378
▁planları	-11.438
ceğini	-11.4382
▁ayrımı	-11.4383
▁öğretim	-11.4384
▁çocuklarımızın	-11.4384
▁Geçmişte	-11.4387
matik	-11.4392
▁mutfak	-11.4392
▁izlemeye	-11.4394
▁yükseliyor	-11.4398
▁oluşması	-11.4402
▁türe	-11.4403
rsek	-11.4405
▁Kendinizi	-11.4407
▁korun	-11.4408
▁sorununu	-11.441
hücre	-11.4412
X	-11.4413
aktif	-11.4414
▁petrolün	-11.4414
▁kuruluşlar	-11.4415
lamazsınız	-11.4423
▁sevdiğiniz	-11.4424
kap	-11.4427
80	-11.443
▁riskini	-11.4434
▁Kong	-11.4435
yüm	-11.4436
▁giderler	-11.4437
▁geometri	-11.4438
▁yazmıştı	-11.4438
▁Gü	-11.4441
▁Laboratuvarı	-11.4444
▁benzemiyor	-11.4446
▁olduklarında	-11.4446
▁yaptığınızı	-11.4447
▁31	-11.4447
▁ölümleri	-11.4448
▁kuşa	-11.4451
▁ekranın	-11.4452
▁kelimelerin	-11.4452
▁kahramanı	-11.4454
ləyir	-11.4455
▁sezon	-11.4457
diğimizi	-11.446
bra	-11.4461
▁Leon	-11.4467
▁fazladır	-11.4468
▁başlayara	-11.4469
▁vermedi	-11.4471
▁ətraf	-11.4472
▁iniyor	-11.4473
▁satıl	-11.4474
▁yemin	-11.4475
▁veritabanı	-11.448
▁Köpek	-11.448
▁Rüzgar	-11.448
▁kriter	-11.448
▁mahremiyet	-11.448
▁məşğul	-11.448
▁qüvvə	-11.448
▁zahmet	-11.448
▁domates	-11.448
▁milimetre	-11.448
▁Ciddi	-11.448
▁apartman	-11.448
▁tasarlıyor	-11.448
▁Milyonlar	-11.448
▁Yüzlerce	-11.448
▁kucuk	-11.448
▁dileğim	-11.4481
▁gümüş	-11.4481
▁1998	-11.4481
▁Şirketi	-11.4483
▁yapılabilecek	-11.4483
▁gürültülü	-11.4484
▁dönersek	-11.4484
▁selam	-11.4485
▁korktu	-11.4485
▁zenginliği	-11.4486
▁moral	-11.4486
▁döl	-11.4487
▁dünyamız	-11.4489
▁balta	-11.4489
▁ruhsal	-11.4489
▁sorarsanız	-11.4489
▁çarpan	-11.4489
▁edemeyi	-11.449
▁yapmazsa	-11.4492
▁daral	-11.4493
▁simdi	-11.4494
▁ofisim	-11.4495
▁robotları	-11.4496
omi	-11.4497
▁alabilecek	-11.4497
▁açılan	-11.4498
▁hissettiği	-11.4498
▁doluydu	-11.4498
▁arıyoruz	-11.4501
▁bağır	-11.4502
▁yaşadığınız	-11.4504
▁izledik	-11.4505
▁haklar	-11.4506
▁kadarını	-11.4506
▁Coca	-11.4508
yoloji	-11.451
▁karşılaştığım	-11.4511
▁IM	-11.4512
▁ulaşabilir	-11.4514
▁bulduğu	-11.4514
▁büyükbabam	-11.4515
▁Bugünkü	-11.4517
cilerin	-11.4519
▁gökyüzü	-11.452
▁ritim	-11.4523
▁amatör	-11.4527
▁okuyu	-11.4529
liyoruz	-11.4534
▁lob	-11.4535
▁koyan	-11.454
▁Mad	-11.4541
▁bla	-11.4541
▁bitiyor	-11.4541
▁edeceği	-11.4543
▁tırmanma	-11.4545
▁yarasalar	-11.4547
ebileceğim	-11.4547
▁Cok	-11.4548
,3	-11.455
▁harcadığı	-11.455
▁dalgası	-11.455
lanmaya	-11.4552
▁yla	-11.4553
amıyorlar	-11.4555
▁şiiri	-11.4555
▁herkesten	-11.4558
▁televizyonu	-11.4561
▁anladığım	-11.4561
▁Başta	-11.4563
▁taşınabilir	-11.4564
▁yorumlar	-11.4565
jo	-11.4565
▁ortama	-11.4565
▁toplayı	-11.4565
▁beslemek	-11.4566
▁heyecanlandır	-11.4566
▁gücümüzü	-11.4567
▁konunu	-11.4567
▁yapacağımızı	-11.457
▁Oy	-11.4571
▁anlayabil	-11.4573
▁ortağı	-11.4574
▁yönleri	-11.4576
▁çalışırlar	-11.4576
sinler	-11.458
▁lazımdır	-11.4582
▁hareketsiz	-11.4583
▁problemlerin	-11.4583
▁değişikliğini	-11.4587
▁mülteciler	-11.4591
▁vali	-11.4592
saydım	-11.4592
▁tuttuğu	-11.4593
abildiğini	-11.4593
▁başarama	-11.4595
▁gu	-11.4598
▁etkileşimi	-11.46
▁suçu	-11.4601
▁yapmanızı	-11.4602
▁soya	-11.4611
▁geçişi	-11.4614
ligin	-11.4614
▁öğrenecek	-11.4614
▁yaptığınızda	-11.4615
▁kimseyi	-11.4616
▁72	-11.4619
▁köyün	-11.462
▁meclis	-11.4621
▁dinleyi	-11.4622
▁kullanıldığını	-11.4625
olly	-11.4628
▁burnu	-11.463
▁gerekmez	-11.4632
▁Sudan	-11.4633
▁çalmak	-11.4633
▁Gri	-11.4633
▁şaşkın	-11.4635
▁kitabında	-11.4637
lıların	-11.464
▁yüzeyini	-11.4641
▁verimliliği	-11.4644
▁okumayı	-11.4645
ranın	-11.4646
▁And	-11.4646
▁sis	-11.4648
▁sağlıyorlar	-11.4649
▁deha	-11.4651
OL	-11.4652
▁grupların	-11.4653
▁ulaşama	-11.4661
▁Kendimiz	-11.4661
▁görürü	-11.4663
▁parçacıkları	-11.4667
▁Afrikalılar	-11.4669
▁atıldı	-11.4669
tıyor	-11.4672
▁duyacak	-11.4673
▁bilime	-11.4677
▁kesimi	-11.4677
▁aklında	-11.4682
▁eksen	-11.4684
▁yapabileceğini	-11.4684
▁Diyor	-11.469
▁atlet	-11.4691
▁algoritmalar	-11.4693
▁atlat	-11.4696
▁kurallarını	-11.4696
lmasını	-11.47
▁Ted	-11.4701
abiliyorum	-11.4702
▁dilek	-11.4703
▁paylaştığımız	-11.4705
takım	-11.4707
▁sevdiğimiz	-11.4707
çilik	-11.4709
▁Elimizde	-11.471
▁geçtiğini	-11.4711
▁dəyişdi	-11.4712
▁mövzu	-11.4712
▁təxmin	-11.4712
▁diyabet	-11.4712
▁işgücü	-11.4712
▁kaplumbağa	-11.4712
▁qayda	-11.4712
▁sadakat	-11.4712
▁Çoğunlukla	-11.4712
▁sağduyu	-11.4712
▁ihmal	-11.4712
▁Brooklyn	-11.4712
▁buğday	-11.4712
▁sperm	-11.4712
▁kütlə	-11.4712
▁feet	-11.4712
▁teyze	-11.4712
▁Ürün	-11.4712
▁çıkıntı	-11.4712
▁varolan	-11.4713
▁Alexand	-11.4713
▁olağandışı	-11.4713
▁objeleri	-11.4713
▁1930	-11.4713
▁nazar	-11.4713
▁alçak	-11.4714
▁degis	-11.4714
▁tutup	-11.4716
▁Johnson	-11.4717
▁JF	-11.4718
▁Mich	-11.4718
▁tersini	-11.472
▁olayda	-11.472
▁başlayacağız	-11.4721
▁konuşalım	-11.4721
▁tarafinda	-11.4724
▁düzeltmek	-11.4725
▁konuşuyorlar	-11.4725
▁məh	-11.4726
▁bilmem	-11.4727
▁tutkum	-11.4728
▁uzmanlık	-11.4729
▁anayasa	-11.4731
▁kariyerim	-11.4731
llah	-11.4732
▁görüntüsünü	-11.4733
▁kuran	-11.4735
▁öldüren	-11.4735
▁edebiliyoruz	-11.4737
▁eşittir	-11.4738
▁paylaşır	-11.4741
▁bitiş	-11.4742
▁anlaşıldı	-11.4744
▁çatışmalar	-11.4744
▁işiniz	-11.4744
▁qala	-11.4745
▁yaşayacağı	-11.4746
▁Biyo	-11.4746
▁işlevi	-11.4747
▁üstel	-11.4747
▁Mesele	-11.475
▁hatası	-11.4751
▁Yaz	-11.4752
▁Deneyim	-11.4753
▁çocuğunuz	-11.4753
▁koymaya	-11.4755
▁eyaleti	-11.476
▁kurduğumuz	-11.4761
amadık	-11.4763
▁alay	-11.4763
▁erime	-11.4764
▁oturmak	-11.4764
▁edemedi	-11.4764
abileceğimizi	-11.4765
▁çıkışı	-11.4766
ildiğini	-11.4767
▁doğduğum	-11.4768
tiğim	-11.4768
▁götürecek	-11.4772
▁öğretmenin	-11.4772
stil	-11.4773
baş	-11.4775
▁br	-11.4776
▁kapatmak	-11.4778
▁düşüşü	-11.4778
▁masrafları	-11.4779
▁çizer	-11.4779
▁çevreleye	-11.478
▁sürecek	-11.4783
▁diyeceğim	-11.4786
▁yapacağınız	-11.4787
▁rahatlat	-11.4792
▁mantıksız	-11.4793
▁seyirciler	-11.4793
▁atıp	-11.4794
▁izleyiciler	-11.4794
▁Air	-11.4796
▁heyecanlıyı	-11.4796
▁yönetiyor	-11.4797
▁değişimleri	-11.4798
▁açıklık	-11.4798
sis	-11.4799
▁Okulda	-11.4801
▁dolaştı	-11.4801
▁Görü	-11.4802
mezsek	-11.4803
▁geleceğimiz	-11.4803
▁tablosu	-11.4805
kav	-11.4806
lenmeye	-11.4807
▁Oğlum	-11.4807
▁söylerse	-11.4808
▁gelirli	-11.481
▁zamanım	-11.4811
cuk	-11.4813
▁olabilmek	-11.4814
ddin	-11.4815
▁keşfettiğimiz	-11.4816
▁Vo	-11.4816
▁ederdi	-11.4817
ung	-11.4818
▁boyunda	-11.482
▁saldırısı	-11.4823
▁anladığımız	-11.4823
▁yapılacağın	-11.4828
▁doğduğu	-11.4832
bileceği	-11.4832
larınızda	-11.4834
▁ölçme	-11.4838
▁açacak	-11.4839
▁katılımı	-11.4839
▁Çocuğu	-11.4839
▁bahsettim	-11.484
▁öğrendiği	-11.4841
▁kaydetti	-11.4844
▁etdik	-11.4844
▁cik	-11.4845
▁ulduz	-11.4847
lenmişti	-11.4849
▁dibinde	-11.485
▁simülasyon	-11.485
▁şiddetle	-11.4851
▁Akademi	-11.4854
▁yaşını	-11.4856
▁üstte	-11.4864
▁görmesi	-11.4864
▁kesit	-11.4865
▁örgü	-11.4865
▁kimler	-11.4867
▁aktarmak	-11.4869
▁adamdı	-11.4872
▁kurs	-11.4873
▁okyanusu	-11.4874
▁içeriğin	-11.4874
▁yansıma	-11.4875
▁gösterdiler	-11.4875
▁hip	-11.4875
lmaya	-11.4876
▁gösterdik	-11.4879
▁görüntülerin	-11.4881
▁arayış	-11.4881
▁atıkları	-11.4881
▁ordusu	-11.4882
▁şehirdeki	-11.4882
▁yaklaşma	-11.4882
▁çözer	-11.4885
ğımı	-11.4886
▁İşim	-11.4886
▁sandığı	-11.4887
▁getmə	-11.4887
▁sektöründe	-11.4887
▁türlerinin	-11.4887
▁hissettiğimiz	-11.4888
▁verilir	-11.4889
BM	-11.4892
▁toplulukta	-11.4898
▁Hastalık	-11.49
▁oranlarını	-11.49
▁alandaki	-11.4902
▁dostu	-11.4903
▁yerle	-11.4905
▁getirdiler	-11.4905
▁maşın	-11.4906
▁getirebil	-11.4907
▁dergisinde	-11.4909
▁SP	-11.4911
▁keşfetmeye	-11.4911
▁memur	-11.4911
▁zorladı	-11.4913
▁yolunun	-11.4915
▁Yukarı	-11.4916
▁senenin	-11.4919
▁temelini	-11.4919
▁karışım	-11.4921
▁gördükleriniz	-11.4922
raq	-11.4927
▁kelimesinin	-11.4932
▁Buz	-11.4932
▁Şimdilerde	-11.4932
▁yemeğin	-11.4933
▁çocuklarımızı	-11.4936
▁teorik	-11.4937
▁Shi	-11.4942
▁Akıl	-11.4944
▁zamanını	-11.4944
▁korktuğu	-11.4944
▁gönderildi	-11.4946
▁Gid	-11.4946
▁süpür	-11.4949
#	-11.495
▁Android	-11.495
▁Atlanta	-11.495
▁Ağustos	-11.495
▁CRISPR	-11.495
▁Clinton	-11.495
▁Davranış	-11.495
▁Karmaşık	-11.495
▁Nüfus	-11.495
▁Tanzanya	-11.495
▁Yabancı	-11.495
▁embriyo	-11.495
▁nispet	-11.495
▁rüzgâr	-11.495
▁toprağa	-11.495
▁transistör	-11.495
▁tuğla	-11.495
▁zavallı	-11.495
▁Şüphe	-11.495
▁isabet	-11.495
▁ulke	-11.495
▁Yunus	-11.495
▁Temmuz	-11.495
▁Yağmur	-11.495
▁Aşama	-11.495
▁stok	-11.495
▁jeoloji	-11.4951
▁ayrımcılık	-11.4951
▁metabolizma	-11.4951
▁Dön	-11.4951
▁maksim	-11.4951
▁bulanık	-11.4951
▁zorundalar	-11.4951
▁Sky	-11.4952
▁leke	-11.4952
▁tutucu	-11.4952
▁dışarda	-11.4952
▁Büyükanne	-11.4952
▁1999	-11.4953
▁ölümsüz	-11.4954
▁tümünü	-11.4954
termal	-11.4954
▁açıklayacağım	-11.4955
▁söylenir	-11.4955
▁havalandırma	-11.4955
▁güçsüz	-11.4956
▁alışkın	-11.4956
▁LG	-11.4957
▁sənə	-11.4957
▁birşeyleri	-11.4958
▁yapamazsınız	-11.4958
▁Düz	-11.4958
▁basıncı	-11.4958
▁aksiyon	-11.4958
arth	-11.4959
▁basma	-11.4959
▁süreliğine	-11.4959
▁deneyelim	-11.4959
▁yüklü	-11.496
▁izlerken	-11.4961
▁ziyan	-11.4961
▁Bildiğimiz	-11.4961
▁üzüm	-11.4961
▁Heç	-11.4962
▁çekilen	-11.4962
▁öğrenmiş	-11.4962
▁açıq	-11.4963
▁CR	-11.4963
▁yılları	-11.4964
▁geçmesi	-11.4964
▁faktörler	-11.4964
▁birikim	-11.4967
▁mahallede	-11.4968
▁yapabilirse	-11.4969
▁dağıtma	-11.4971
▁ço	-11.4973
lüğünü	-11.4977
▁alttaki	-11.4977
▁görevler	-11.4977
▁şuradaki	-11.4979
▁planlıyor	-11.4979
▁uydular	-11.4982
lisin	-11.4983
landırılmış	-11.4983
▁atmosferin	-11.4983
▁neresinde	-11.4984
▁sürücüsü	-11.4984
▁Çoğunuz	-11.4985
▁doktorların	-11.4986
▁edecekler	-11.4987
▁saçmalık	-11.4988
▁özümüz	-11.4988
▁pili	-11.4989
▁kanunu	-11.4989
▁odun	-11.4991
▁Isa	-11.4991
▁Ateş	-11.4992
▁önemseme	-11.4993
▁dışa	-11.4994
▁işsiz	-11.4994
▁memeliler	-11.4995
▁Asli	-11.4996
▁potansiyelini	-11.4997
▁tesisi	-11.4998
▁testler	-11.4998
▁Yüzey	-11.5
▁artırma	-11.5001
▁Rand	-11.5002
▁gözün	-11.5006
▁yazmayı	-11.5006
▁ulaşacak	-11.5008
▁çalışanı	-11.5008
▁öğrenen	-11.501
▁Yapmak	-11.5011
▁bölgesine	-11.5014
▁düzlem	-11.5014
dıklarında	-11.5014
▁burs	-11.5016
▁sebebini	-11.5017
▁hissettiğiniz	-11.5019
▁algılaya	-11.5021
▁deneyimleme	-11.5021
liyorlar	-11.5022
▁sorgula	-11.5022
▁bulunduğum	-11.5022
▁gelecektir	-11.5023
▁geliştirdiği	-11.5025
▁Barış	-11.5027
▁davranışını	-11.5029
▁girmeye	-11.503
▁değişmeye	-11.5033
▁vermeme	-11.5034
larınızla	-11.5034
▁insanoğlu	-11.5036
▁Resmi	-11.5037
▁girişimi	-11.5039
▁Dışarıda	-11.5041
▁iklimi	-11.5043
▁190	-11.5044
▁keser	-11.5045
eceğimi	-11.5046
▁isteyeceğim	-11.5046
▁verimlilik	-11.5047
▁kitapların	-11.5048
▁bahse	-11.5048
▁vücud	-11.5048
▁kullanabiliyor	-11.5049
▁Sar	-11.5053
▁karbonu	-11.5054
▁bağımlılığı	-11.5059
▁oluşturduğumuz	-11.506
▁İranlı	-11.5062
▁duygusunu	-11.5063
▁bah	-11.5063
abilirdi	-11.5064
▁olduğuyla	-11.5065
leştirici	-11.5065
▁mes	-11.507
▁kıyısında	-11.5073
▁söylediğini	-11.5078
▁geliştirilmiş	-11.5079
▁şaş	-11.5081
▁kalabilir	-11.5082
▁yaymak	-11.5083
▁kola	-11.5084
▁hatalı	-11.5086
▁çıkarsa	-11.5087
▁görevleri	-11.5087
▁şeyde	-11.5088
▁açtık	-11.509
▁yanılma	-11.509
▁vatandaşları	-11.5091
▁İkisi	-11.5092
▁karalama	-11.5094
▁hedefleri	-11.5094
▁olduğunuzda	-11.5097
▁uzlaşma	-11.5098
▁paylaşımı	-11.5098
umuza	-11.5101
▁yetisi	-11.5101
▁Cin	-11.5102
▁toplandı	-11.5102
▁Hakları	-11.5103
▁denizde	-11.5104
▁ayırıyor	-11.5108
▁fok	-11.5108
gini	-11.5108
▁yaşım	-11.5109
▁medeniyeti	-11.5117
▁bilgimiz	-11.5124
▁sınırlama	-11.5124
▁aşma	-11.5125
Amerikalı	-11.5127
▁fakirlik	-11.5128
▁beynimizi	-11.5129
▁şəkillər	-11.513
▁yiyeceği	-11.5134
▁Mur	-11.5136
▁adresi	-11.5136
▁etkilendi	-11.5136
▁gözlerinizi	-11.5141
▁konuşmada	-11.5142
▁yatırımlar	-11.5144
▁soruların	-11.5144
▁ayın	-11.5144
▁dollar	-11.5145
▁Gitti	-11.5147
▁seçiyor	-11.5147
▁gerçekleşmesi	-11.5149
ilmis	-11.5151
▁hissettiriyor	-11.5152
▁basladi	-11.5153
seler	-11.5158
▁soluk	-11.5158
▁barın	-11.5158
▁Doku	-11.5168
▁bakmamız	-11.5169
▁paha	-11.5171
▁izleri	-11.5172
▁uçağ	-11.5172
▁katmanı	-11.5173
▁bilgeliği	-11.5175
▁gördüler	-11.5176
▁ekibin	-11.5178
▁bugünlerde	-11.5179
▁hack	-11.518
▁yolumuz	-11.5181
▁beslen	-11.5182
▁ödemek	-11.5183
▁şeylerde	-11.5187
▁yapamadığı	-11.5188
▁kaçış	-11.5192
▁bayrağı	-11.5194
▁cenaze	-11.5194
▁demografik	-11.5194
▁dolaylı	-11.5194
▁füzyon	-11.5194
▁kıvrım	-11.5194
▁orjinal	-11.5194
▁proqram	-11.5194
▁sarhoş	-11.5194
▁2014	-11.5194
▁sörf	-11.5194
▁Vatandaş	-11.5194
▁yorgun	-11.5194
▁Kilise	-11.5194
▁metrekare	-11.5194
▁Carolina	-11.5194
▁Snow	-11.5194
▁köpekbalığı	-11.5194
▁Mandela	-11.5194
▁Sınıf	-11.5194
▁erdem	-11.5194
▁albüm	-11.5194
▁kukla	-11.5195
▁ıslık	-11.5195
▁hacim	-11.5195
▁Bakanı	-11.5195
▁bölünmüş	-11.5195
▁Dunya	-11.5195
▁yemeğe	-11.5195
▁yığ	-11.5196
▁masaüstü	-11.5196
▁ağac	-11.5196
▁penis	-11.5198
▁işletim	-11.5198
▁doğuşu	-11.5198
▁yayınlanan	-11.5198
▁ilahi	-11.5199
▁Aksi	-11.5199
▁planda	-11.5199
▁devrimin	-11.52
▁Hous	-11.52
▁herbiri	-11.52
▁sağlayıcı	-11.52
▁gözetim	-11.5201
▁ifa	-11.5201
▁tuna	-11.5201
▁ətrafında	-11.5202
▁istediğinizi	-11.5202
▁uret	-11.5203
▁ortalıkta	-11.5203
▁dinleyen	-11.5203
▁karışma	-11.5203
▁doyur	-11.5206
▁edirlər	-11.5206
▁bulutu	-11.5207
▁Görsel	-11.5207
▁canına	-11.5208
▁biziz	-11.5209
▁mülkiyet	-11.521
▁Suud	-11.5212
▁100,000	-11.5212
▁yatakta	-11.5213
▁altını	-11.5214
gor	-11.5214
▁Haber	-11.5214
▁gezdir	-11.5217
▁yapılmıştı	-11.5217
▁olabilme	-11.5219
▁ekledi	-11.5219
▁Bilgisayarlar	-11.5222
▁Brit	-11.5222
▁dünyasını	-11.5223
▁sonunu	-11.5224
▁Neler	-11.5226
▁paylaşan	-11.5226
▁Ebeveynler	-11.5229
▁â	-11.523
unuzun	-11.5232
▁kökeni	-11.5232
▁pekço	-11.5233
▁kopyalama	-11.5233
▁söylediğimde	-11.5234
▁yaprakları	-11.5234
▁həll	-11.5234
▁döndüğünü	-11.5235
▁esna	-11.5235
▁keşfedildi	-11.5235
12	-11.5236
▁diğerinin	-11.5238
▁günah	-11.5238
opia	-11.524
▁inanmaya	-11.5241
▁kurula	-11.5241
▁etmektedir	-11.5244
▁başlıyorum	-11.5244
▁çoğumuzun	-11.5244
▁tapir	-11.5245
▁Nöro	-11.5246
ette	-11.5248
▁deneyimle	-11.5251
▁varlıkları	-11.5253
▁imaj	-11.5256
▁dergisi	-11.5258
▁Vücudu	-11.526
▁çalıştığınız	-11.5261
way	-11.5261
▁patlat	-11.5262
▁deneyde	-11.5266
▁verirken	-11.5267
mızdır	-11.5269
▁gelse	-11.5274
▁atladı	-11.5279
▁elim	-11.5281
▁balinalar	-11.5285
▁herkesle	-11.5285
lərimiz	-11.5286
▁düşündüklerini	-11.5288
▁karşılığı	-11.5288
mazsa	-11.5288
▁yerleştiriyor	-11.5289
▁yükseliş	-11.529
▁yapacağımı	-11.5291
▁açıları	-11.5291
▁proto	-11.5292
sky	-11.5293
▁cami	-11.5294
▁tanımladı	-11.5296
▁parkı	-11.5299
lanmak	-11.5299
birimiz	-11.5299
HC	-11.5301
▁bekliyordu	-11.5301
▁teşhisi	-11.5302
▁Yüzü	-11.5308
▁kazanmış	-11.5309
▁istemiyordu	-11.531
▁kıs	-11.5311
▁param	-11.5313
▁dönmeye	-11.5313
▁azalması	-11.5317
▁elmi	-11.5319
malıyım	-11.532
▁fiziki	-11.532
▁çocuklardan	-11.5324
▁kabus	-11.5326
▁eşiğinde	-11.5326
▁engelle	-11.5327
▁birleşi	-11.5327
▁fabrikası	-11.5328
▁yürümek	-11.5328
suzluk	-11.5329
▁dökme	-11.533
▁öğrencinin	-11.533
▁ölçebil	-11.5331
▁hissəsi	-11.5335
▁benziyordu	-11.5335
▁aracını	-11.5336
▁söylemeyi	-11.5336
▁çekecek	-11.5337
▁inç	-11.5337
▁takıl	-11.5339
▁etkisiz	-11.5341
▁anlattıkları	-11.5344
▁borcu	-11.5349
rap	-11.535
cılığı	-11.5351
▁bebeklerin	-11.5352
▁Hayatımda	-11.5352
▁farkli	-11.5352
▁kütlesi	-11.5353
▁şefi	-11.5355
▁istasyonu	-11.5355
▁96	-11.5355
▁gerçekleştiği	-11.5359
▁hikâyesi	-11.5362
▁karşılaşıyor	-11.5363
▁Geç	-11.5364
▁veriliyor	-11.5365
▁karma	-11.5365
▁profil	-11.5367
▁Başarı	-11.5367
▁grubunu	-11.537
▁etkiye	-11.5371
▁bilmiyorlar	-11.5371
▁izini	-11.5373
▁korkar	-11.5373
▁hatırlamak	-11.5374
▁çözmemiz	-11.5376
▁sesimi	-11.5378
well	-11.5378
▁göründü	-11.5378
▁hazırlamak	-11.5378
▁hizmetler	-11.5382
▁meseleler	-11.5383
▁büyümüş	-11.5385
▁anlatıcı	-11.5386
▁Gülme	-11.539
▁Yarın	-11.5395
sever	-11.5395
▁sahası	-11.5397
▁kültürümüz	-11.5398
▁döneme	-11.5399
▁buluşu	-11.54
▁üretilmiş	-11.54
▁kalıntı	-11.5401
▁kalmayı	-11.5403
▁endüstrisini	-11.5403
▁salonda	-11.5404
▁Hayatım	-11.5404
▁kalkma	-11.5404
▁sözde	-11.5405
▁kaydedil	-11.5412
▁şüpheli	-11.5414
▁oluşturuyorlar	-11.5418
▁işletmeler	-11.5419
▁derinliklerin	-11.542
rio	-11.5421
▁İspanyol	-11.5423
▁fenomeni	-11.5423
▁sokmak	-11.5426
▁yaptigi	-11.5428
▁heyecanlıydı	-11.5432
▁gördüğünü	-11.5433
▁küçümse	-11.5434
▁Yü	-11.5436
▁evrimleşme	-11.5438
▁kilolu	-11.5439
▁alınması	-11.5439
▁etmelerini	-11.5444
▁obez	-11.5444
▁Edward	-11.5444
▁Portekiz	-11.5444
▁Təşəkkür	-11.5444
▁dublör	-11.5444
▁harikulade	-11.5444
▁Mahkeme	-11.5444
▁habitat	-11.5444
▁kopuk	-11.5444
▁Şiddet	-11.5444
▁şeridi	-11.5444
▁Konseyi	-11.5444
▁kostüm	-11.5444
lışılmadık	-11.5444
▁Hafta	-11.5444
▁berber	-11.5444
▁ehtimal	-11.5444
▁Libya	-11.5444
▁Harita	-11.5444
▁esrar	-11.5444
▁edib	-11.5444
▁kaşif	-11.5445
▁Sinir	-11.5445
▁Kamera	-11.5445
▁Maymun	-11.5445
▁vaaz	-11.5445
▁acele	-11.5445
▁yapışkan	-11.5446
▁çadır	-11.5446
▁tanıştık	-11.5446
▁Selam	-11.5446
▁Buzul	-11.5447
▁kastediyorum	-11.5447
▁Lego	-11.5448
▁edemezsiniz	-11.545
▁bağlamında	-11.5451
▁sürət	-11.5451
▁grupta	-11.5451
▁uluslar	-11.5452
▁sağlayarak	-11.5452
▁çöktü	-11.5452
▁bulursunuz	-11.5453
▁ekin	-11.5453
▁əhəmiyyətli	-11.5453
▁belirleyici	-11.5454
▁sınırsız	-11.5454
▁Uçak	-11.5454
▁etrafımda	-11.5457
▁oluşturabiliriz	-11.5457
▁Soldaki	-11.5458
▁kardiy	-11.5459
▁yerçekimi	-11.546
ümüzün	-11.5462
▁kullanıp	-11.5462
uther	-11.5462
▁Ram	-11.5463
▁bilmemiz	-11.5464
▁yırt	-11.5467
▁demeye	-11.5467
▁alışık	-11.5468
▁başlıyorsunuz	-11.5468
seksüel	-11.5468
▁dünyamızda	-11.5469
▁Adası	-11.5471
▁beynine	-11.5471
▁koruyan	-11.5472
▁yerleştirilmiş	-11.5472
▁ekonomide	-11.5473
neyse	-11.5474
▁yazarken	-11.5475
▁kökten	-11.5476
öl	-11.5478
▁Fransızca	-11.548
▁paylaşmaya	-11.5481
▁babaları	-11.5482
okyo	-11.5483
▁haksız	-11.5483
▁bahçesinde	-11.5486
▁oluşturulmuş	-11.5487
▁kökenli	-11.5489
▁incelemeye	-11.5489
▁koyduğumuz	-11.5489
▁Nata	-11.5489
▁hissettiğini	-11.5495
▁Yolu	-11.5495
▁aradığımız	-11.5497
▁nice	-11.5497
▁Düşündü	-11.55
▁Meydanı	-11.5501
▁proteini	-11.5503
▁zorluyor	-11.5505
▁bulunmuyor	-11.5506
▁toprakta	-11.5506
▁notlar	-11.5507
▁Şans	-11.5508
▁başlatma	-11.5509
▁Sokak	-11.551
▁kuralların	-11.5511
▁kaşı	-11.5512
▁uydurma	-11.5512
▁saklama	-11.5513
▁ayakkabılar	-11.5517
▁Öğren	-11.5517
▁geçirecek	-11.5518
▁girdiğim	-11.5518
▁plaka	-11.5518
▁tanrım	-11.5519
▁gezegenleri	-11.5519
▁görevini	-11.5523
ümün	-11.5525
tigi	-11.5527
▁bölünme	-11.5528
▁ES	-11.5529
▁sokaklar	-11.5533
▁etdiyimiz	-11.5536
▁arttırıyor	-11.5537
gie	-11.5539
▁oyuncağı	-11.5542
▁başlarlar	-11.5546
▁Kür	-11.5548
▁Tra	-11.5548
▁NA	-11.5549
▁gözlerim	-11.5551
▁çevreci	-11.5551
▁yaratabil	-11.5554
▁gizlilik	-11.5555
taşı	-11.5555
▁Post	-11.5556
▁yükü	-11.5557
ound	-11.5557
▁karakterleri	-11.5561
▁düşünürler	-11.5562
▁şansını	-11.5562
▁18.	-11.5562
▁trafiği	-11.5562
▁çağın	-11.5562
▁doğruluk	-11.5565
acaklarını	-11.5565
▁oranına	-11.5565
▁aktiviteler	-11.5568
▁raporu	-11.5568
diğimizde	-11.5569
ımızdaki	-11.5569
▁Ders	-11.557
LA	-11.557
▁birçoğunuz	-11.5572
▁dizileri	-11.5574
▁alem	-11.5576
▁gösterim	-11.5576
▁Koca	-11.5581
uyorlar	-11.5582
▁farklıydı	-11.5586
▁çizmek	-11.5587
▁poz	-11.5588
▁tərəf	-11.5589
▁pazarı	-11.559
▁hamısı	-11.5592
▁bittiği	-11.5594
▁kodun	-11.5595
▁tahmini	-11.5596
▁inanıyorlar	-11.5597
▁kasları	-11.5602
▁etkinliği	-11.5602
▁şahs	-11.5603
▁Üst	-11.5603
▁yuz	-11.5603
▁ülkesinde	-11.5604
diyseniz	-11.5606
▁deyildi	-11.5606
▁geçim	-11.5607
▁öğreniyorlar	-11.5615
▁Ladin	-11.5619
▁genin	-11.5621
▁girecek	-11.5621
▁eylemci	-11.5624
▁görebilecek	-11.5625
▁Tür	-11.5625
lah	-11.5627
ront	-11.563
▁farkettik	-11.563
▁yaptın	-11.563
▁anlayacak	-11.5632
▁ekonomisini	-11.5633
▁maçı	-11.5635
▁ağların	-11.5637
▁Ağı	-11.5637
▁64	-11.5637
▁tüketiyor	-11.5638
daydım	-11.5645
▁kısımları	-11.5646
▁organizasyonu	-11.5648
row	-11.5651
içi	-11.5652
▁lezzet	-11.5652
▁dokusunu	-11.5652
amıyordum	-11.5653
▁tasarladık	-11.5656
▁kalanlar	-11.566
▁takıyor	-11.566
▁soruyorlar	-11.5661
▁astronom	-11.5662
▁peş	-11.5665
▁uyarlama	-11.5665
▁bırakıldı	-11.5667
▁başlamamız	-11.5668
▁balıkların	-11.567
▁olmadığınız	-11.5674
▁yargılama	-11.5674
▁yapil	-11.5679
▁oyunda	-11.5683
▁43	-11.5683
▁titreş	-11.5684
▁söylese	-11.5685
▁verilmesi	-11.5686
▁insanlığı	-11.5686
▁alışkanlıkları	-11.5686
▁veriyordu	-11.5688
▁dibin	-11.5689
▁ağını	-11.5692
larınıza	-11.5696
▁gözlə	-11.5697
▁oturuyordu	-11.5698
əlkə	-11.5698
▁tüketiciler	-11.57
▁atölye	-11.5701
▁Craig	-11.5701
▁Everest	-11.5701
▁STK	-11.5701
▁alfabe	-11.5701
▁floresan	-11.5701
▁kahvaltı	-11.5701
▁müəyyən	-11.5701
▁sofistike	-11.5701
▁təsəvvür	-11.5701
▁çığlık	-11.5701
▁Kolombiya	-11.5701
▁kasırga	-11.5701
▁paradoks	-11.5701
▁tasarim	-11.5701
▁əsər	-11.5701
▁ayrıştır	-11.5701
▁monte	-11.5701
▁protokol	-11.5701
▁Düşük	-11.5701
angelo	-11.5701
▁Prens	-11.5701
▁melodi	-11.5701
▁şəkli	-11.5701
▁ihtiyar	-11.5701
▁espri	-11.5701
▁prostat	-11.5701
▁şəxs	-11.5701
▁beşinci	-11.5701
▁Yunanistan	-11.5701
▁ilgilendiren	-11.5701
▁imha	-11.5701
▁bloğu	-11.5701
▁Cuma	-11.5701
▁mesleğ	-11.5701
▁motif	-11.5701
▁Şef	-11.5701
▁karadelik	-11.5702
▁partikül	-11.5702
▁tutabilir	-11.5702
▁nakit	-11.5703
▁1,5	-11.5703
▁ped	-11.5704
▁önemsiyor	-11.5707
▁Bhu	-11.571
▁sirk	-11.5712
▁karım	-11.5713
▁sürüş	-11.5714
olojik	-11.5714
▁suyunu	-11.5715
▁zararsız	-11.5716
▁donu	-11.5716
▁istese	-11.5716
▁yaratabiliriz	-11.5717
▁Düşünce	-11.572
▁sarmal	-11.5721
▁Peru	-11.5721
▁Seks	-11.5724
▁toplulukların	-11.5727
▁Kapa	-11.5728
▁ettikçe	-11.5729
▁Temiz	-11.573
▁yeryüzünde	-11.5731
▁kılar	-11.5733
ğer	-11.5734
▁aydınlanma	-11.5735
▁istila	-11.5737
▁kurbanları	-11.5738
▁parçacıkların	-11.5738
▁düşürdü	-11.574
▁kavuş	-11.5741
▁stil	-11.5742
▁Tru	-11.5744
üldüğü	-11.5746
▁kırp	-11.5749
▁aracılığı	-11.5753
▁geçiyoruz	-11.5753
mily	-11.5757
▁eleştirme	-11.5759
▁açıklar	-11.5761
▁olduğumdan	-11.5762
▁Filistinli	-11.5763
▁kırık	-11.5763
▁geldiğim	-11.5763
▁adımlar	-11.5765
▁düğün	-11.5765
▁fırla	-11.5766
▁Emin	-11.5766
▁sahipliği	-11.5768
▁gülümse	-11.5768
▁derdim	-11.5769
▁biter	-11.5771
▁tutacak	-11.5774
▁gençlik	-11.5777
▁sorulan	-11.5777
▁attık	-11.578
▁zanned	-11.578
▁ötede	-11.5782
▁ürünlerini	-11.5783
▁imkanlar	-11.5784
▁ulaştım	-11.5785
▁çekil	-11.5789
▁belirttiği	-11.579
▁ekranı	-11.579
▁fiziğin	-11.579
▁iskele	-11.5791
▁etse	-11.5791
▁Kop	-11.5791
dukları	-11.5791
▁çizimler	-11.5792
▁içimde	-11.5793
▁sabahı	-11.5794
▁düzene	-11.5796
▁aklına	-11.5796
▁Ödül	-11.5798
▁göstərir	-11.5799
▁kıyafeti	-11.5801
▁koşar	-11.5803
▁yetkin	-11.5805
▁geçmişin	-11.5805
▁kullandılar	-11.5809
ox	-11.5809
▁konferansta	-11.5809
▁kullanıyordu	-11.5811
▁aşağıdaki	-11.5811
ington	-11.5813
▁matematiği	-11.5813
▁bazi	-11.5816
▁sevil	-11.5816
▁Afrikada	-11.5819
▁kimyasallar	-11.5822
bilirsiniz	-11.5824
▁yılların	-11.5824
▁olmamıştı	-11.5824
▁tekerlekl	-11.5828
▁güçlerini	-11.5828
▁acıyı	-11.5829
▁titre	-11.583
▁yerlerini	-11.5832
lacağı	-11.5832
▁Red	-11.5833
▁çiftliği	-11.5833
▁zorundayı	-11.5833
▁olmamı	-11.5834
▁bağlanıyor	-11.5834
əsində	-11.5835
▁yukarıdan	-11.5836
ülü	-11.5836
▁oturmuş	-11.5838
▁öldüğü	-11.5839
▁geliştirdiğimiz	-11.5841
▁şirkette	-11.5842
▁Geliş	-11.5843
ebiliyorsunuz	-11.5845
▁eğilimli	-11.5846
▁harcamaları	-11.5846
▁teorisini	-11.5847
▁öleceği	-11.5847
▁ağırlığında	-11.5847
▁olsaydık	-11.5848
▁uçu	-11.5851
lup	-11.5854
▁çocuklarınız	-11.5859
▁ailede	-11.5859
▁uzaq	-11.586
▁öyrənmə	-11.5862
▁kökleri	-11.5862
▁hazırladık	-11.5865
▁bulundum	-11.587
▁keşifler	-11.5871
▁gönderdik	-11.5873
▁uygular	-11.5879
uke	-11.5883
▁formda	-11.5889
▁Parkı	-11.589
▁soku	-11.5891
▁programını	-11.5892
▁endüstrisinde	-11.5893
▁zihnin	-11.5894
▁2.5	-11.5894
▁öyrən	-11.5901
▁ettiğimde	-11.5902
▁görmemişti	-11.5904
▁kullanırlar	-11.5904
▁edemediği	-11.5908
▁kaçırıyor	-11.591
▁söyleyemez	-11.5911
▁topar	-11.5911
▁İl	-11.5913
▁makinelerin	-11.5914
▁Tit	-11.5915
▁bank	-11.5915
▁Öğrenme	-11.5915
amayacağını	-11.5916
▁ünü	-11.5916
▁asır	-11.5918
şey	-11.5918
▁liman	-11.5924
▁evlendi	-11.5925
Cola	-11.5925
▁hamur	-11.5928
▁kullanmamız	-11.5929
▁aklını	-11.5931
▁buralar	-11.5931
▁benzediği	-11.5932
▁diğerini	-11.5934
▁ogren	-11.5935
eceklerini	-11.5936
lduğumuz	-11.5939
▁görünüyorlar	-11.5941
▁hikayemi	-11.5942
▁Radyo	-11.5943
▁fikirde	-11.5947
▁Ekranda	-11.5951
▁MT	-11.5952
▁oluşma	-11.5952
▁bilgisini	-11.5954
▁ova	-11.5954
▁parasını	-11.5955
acağımı	-11.5958
▁yakı	-11.5963
▁Organ	-11.5963
▁istifa	-11.5963
▁nötr	-11.5964
▁Avusturya	-11.5964
▁Enceladus	-11.5964
▁Endonezya	-11.5964
▁Müşteri	-11.5964
▁dezavantaj	-11.5964
▁dopamin	-11.5964
▁entellektüel	-11.5964
▁kolektif	-11.5964
▁müttefik	-11.5964
▁patojen	-11.5964
▁üzüntü	-11.5964
▁Yiyecek	-11.5964
▁Zengin	-11.5964
▁huylu	-11.5964
▁Alaska	-11.5964
▁Sierra	-11.5964
▁İzlanda	-11.5964
▁dayanışma	-11.5964
▁İnşa	-11.5964
▁plaj	-11.5964
▁havaalanı	-11.5964
▁anonim	-11.5964
▁Wolf	-11.5964
▁Tıbb	-11.5964
▁kuzeni	-11.5964
▁fantastik	-11.5964
▁hasıla	-11.5964
▁sihirbaz	-11.5964
▁Mesaj	-11.5964
▁klon	-11.5964
▁kondom	-11.5964
▁taslak	-11.5964
▁Nokta	-11.5965
▁parçacığı	-11.5965
▁Monter	-11.5965
▁Cep	-11.5965
▁ormanların	-11.5965
▁Genom	-11.5966
▁ifadə	-11.5966
▁içgüdüsel	-11.5966
▁yaşımdayken	-11.5966
▁tablet	-11.5967
▁Sanıyorum	-11.5967
▁başlayınca	-11.5968
▁pekala	-11.5968
▁Emma	-11.5969
▁metropol	-11.5969
landırıl	-11.5969
▁itici	-11.597
▁mitoloji	-11.597
▁Adem	-11.597
▁vaat	-11.5971
▁göstermiş	-11.5971
▁rengini	-11.5971
▁süregel	-11.5971
▁Kutup	-11.5972
▁papaz	-11.5977
▁hastayı	-11.5977
▁dükkanı	-11.5978
▁çıkacağı	-11.5979
▁ülkelerden	-11.5982
▁yürüttü	-11.5983
bileceğiz	-11.5985
▁öldüğünü	-11.5987
ivil	-11.5987
▁edebilen	-11.5988
▁gelebilecek	-11.5988
▁tartışmalı	-11.5988
bilecek	-11.5988
▁yazılan	-11.5989
▁anlatıyorum	-11.599
▁hane	-11.599
▁dərs	-11.599
▁AG	-11.5991
▁tabanlı	-11.5991
▁bahçesi	-11.5993
▁kuşku	-11.5994
▁gitar	-11.5996
▁olduğumuzdan	-11.5998
▁bittiğinde	-11.5998
▁geliştiriyor	-11.5999
▁dolaşır	-11.5999
▁Sanayi	-11.5999
lığında	-11.6
▁yiyen	-11.6001
▁karakterin	-11.6001
▁Elektron	-11.6001
▁ailə	-11.6002
▁başlattığı	-11.6005
▁Laboratuvar	-11.6005
▁kaldığımız	-11.6006
▁Hy	-11.6006
▁düşündüğümü	-11.6008
viral	-11.601
▁materyaller	-11.6011
▁konuşuyordu	-11.6015
leştiriyoruz	-11.6016
▁hayranlık	-11.6017
▁kalmayacak	-11.6018
bilirdi	-11.6019
▁Söylediğim	-11.6019
▁getirmiş	-11.6021
▁riskler	-11.6022
▁seyretti	-11.6023
▁üretimin	-11.6023
yacağımız	-11.6024
▁numarası	-11.6025
▁babalar	-11.6026
giz	-11.6027
▁Maria	-11.6029
▁büyüktür	-11.6029
▁hepsinden	-11.6032
▁yapabildiğimiz	-11.6032
▁başlatmak	-11.6036
▁varlığın	-11.6037
▁kutunu	-11.6039
▁öğrettiği	-11.604
▁hidro	-11.6045
▁yapacaklar	-11.6045
▁çevirir	-11.6045
▁sensörler	-11.6046
ılmıyor	-11.6046
▁sevk	-11.6048
▁topluluğ	-11.6049
▁hissetmeye	-11.605
▁şimdilik	-11.605
▁uzanıyor	-11.6051
▁İnternette	-11.6051
▁paralarını	-11.6052
lemiyor	-11.6052
▁pazarlık	-11.6054
▁gidişatı	-11.6055
▁Gelişim	-11.6055
eceğinizi	-11.6056
▁malzemelerin	-11.606
▁mat	-11.606
▁şefkatli	-11.6061
▁tasarımcıları	-11.6063
▁türünün	-11.6067
▁yuvarlan	-11.6069
maktı	-11.607
▁esneklik	-11.6071
▁etməyi	-11.6072
▁canlıları	-11.6077
sol	-11.6077
▁alırdı	-11.6077
▁boyutların	-11.6078
▁probleme	-11.608
▁zamanlarında	-11.6082
miyordum	-11.6084
▁kurabilir	-11.6085
▁istediğin	-11.6086
▁muydu	-11.6086
▁yönlendiril	-11.6088
▁We	-11.6089
▁içecek	-11.6091
▁edinmek	-11.6092
▁almanız	-11.6093
▁gözlü	-11.6094
▁boyama	-11.6097
ilmemiş	-11.6098
▁soktu	-11.6099
▁sıçra	-11.6102
▁Diğerleri	-11.6104
▁keşfettiği	-11.6106
▁gökyüzünü	-11.6106
▁balıkçılık	-11.6108
▁bedenin	-11.6108
▁Gor	-11.6108
▁Tip	-11.6112
▁tarafın	-11.6113
layabilmek	-11.6114
likli	-11.6115
▁olmamak	-11.6116
▁kullanıldığı	-11.6119
▁oturum	-11.612
▁Cor	-11.6125
▁uygulamak	-11.6127
▁ayrıcalık	-11.6127
abildiğimiz	-11.6128
▁yasası	-11.6129
▁istasyonları	-11.6129
▁deyim	-11.6133
▁andı	-11.6136
▁ışığında	-11.6143
▁bilgilere	-11.6144
col	-11.6148
▁muydun	-11.6149
▁çıkmıştı	-11.6152
▁bey	-11.6153
▁konuşabilir	-11.6156
▁üretebilir	-11.6159
▁simetrik	-11.616
▁kapatı	-11.6161
▁dolaşı	-11.6161
▁tanımak	-11.6163
▁inanıyordu	-11.6164
Ş	-11.6166
▁işaretler	-11.6167
▁yürümeye	-11.6169
▁Arı	-11.6169
▁karnı	-11.617
▁bulutlar	-11.617
▁vatandaşı	-11.6173
▁gecede	-11.6178
▁karşılaştık	-11.6181
▁mail	-11.6182
▁Konuşmamı	-11.6183
▁taşınma	-11.6183
üydü	-11.6185
▁seçil	-11.6188
▁dönüşme	-11.6189
▁birleştirmek	-11.6193
▁başarabil	-11.6196
▁kuruluşu	-11.6197
▁mimarlık	-11.6197
▁olmakta	-11.6198
▁dönmüş	-11.62
▁yaklaşır	-11.6205
▁oysa	-11.6206
▁deneyimini	-11.6208
lemez	-11.621
▁kaçtı	-11.6211
▁dus	-11.6215
▁ilişkilerini	-11.6216
▁yazdıkları	-11.6217
▁yapabilirdi	-11.6218
▁koruna	-11.6218
əndə	-11.6219
▁Saf	-11.6222
zem	-11.6223
▁yükseltme	-11.6225
▁jet	-11.6226
▁yolculuğum	-11.6227
▁takıntılı	-11.6231
▁volkan	-11.6231
[...]
