<unk>	0
<s>	0
</s>	0
<pad>	0
▁.	-2.9647
▁,	-3.31403
n	-3.81705
;	-4.05392
▁&	-4.08254
▁	-4.27547
quot	-4.27968
▁və	-4.3285
▁bir	-4.54484
a	-5.09701
i	-5.126
r	-5.15221
▁bu	-5.15281
▁)	-5.18179
(	-5.18349
-	-5.23976
ə	-5.33751
▁ve	-5.34167
ci	-5.48062
▁ilə	-5.51
in	-5.52316
▁ildə	-5.56813
nin	-5.57766
▁Bu	-5.58633
▁da	-5.63512
lar	-5.64862
nın	-5.67565
da	-5.68937
k	-5.76647
▁Azərbaycan	-5.82062
▁olan	-5.86433
apos	-5.88781
▁də	-5.88929
▁ki	-5.90467
dir	-5.96653
na	-5.97461
▁sonra	-6.05627
nə	-6.06338
də	-6.07998
li	-6.08989
▁:	-6.09102
lər	-6.0996
▁—	-6.13502
b	-6.14942
m	-6.16094
ya	-6.19937
▁daha	-6.23583
▁üçün	-6.2814
▁kimi	-6.31548
▁isə	-6.31782
e	-6.33011
▁o	-6.37342
▁il	-6.38787
▁için	-6.39797
▁çox	-6.43093
ı	-6.43232
q	-6.4445
dan	-6.4489
lı	-6.45704
la	-6.49044
ları	-6.49634
dən	-6.49781
dır	-6.50873
▁de	-6.55507
▁ya	-6.55624
▁var	-6.57681
▁?	-6.59148
▁O	-6.59657
▁Ve	-6.6097
lə	-6.63397
ın	-6.63482
▁edir	-6.63949
si	-6.64427
▁görə	-6.64764
▁-	-6.64776
▁çok	-6.66377
t	-6.66816
ən	-6.68203
cü	-6.69122
▁idi	-6.70582
▁onun	-6.71238
▁–	-6.71725
▁həm	-6.74066
▁ilk	-6.74293
cı	-6.75981
ler	-6.76722
▁iki	-6.85136
ki	-6.86516
▁ən	-6.8711
▁əsas	-6.87174
▁tərəfində	-6.89396
ni	-6.89738
▁böyük	-6.91477
yə	-6.92152
▁olmuşdur	-6.9449
lik	-6.95511
z	-6.95906
▁öz	-6.96389
cu	-6.97097
di	-7.00512
s	-7.00562
l	-7.01439
▁olaraq	-7.01974
▁”	-7.0227
▁qədər	-7.02318
“	-7.02632
sı	-7.04494
▁baş	-7.07265
u	-7.07568
▁şey	-7.08537
▁Bir	-7.08872
un	-7.08891
▁arasında	-7.09725
▁gibi	-7.11254
▁bütün	-7.11843
▁yeni	-7.12269
▁ilin	-7.12716
▁olarak	-7.15606
▁kənd	-7.16335
▁biri	-7.20345
▁zaman	-7.20375
▁adı	-7.21201
▁s	-7.22427
▁olur	-7.23179
leri	-7.23532
▁...	-7.245
▁olduğunu	-7.26936
▁olub	-7.27831
ların	-7.27905
▁istifadə	-7.28087
le	-7.28419
▁hər	-7.28742
▁Bakı	-7.28788
▁ne	-7.29912
▁olduğu	-7.30157
▁edən	-7.31348
nda	-7.33616
dur	-7.34098
kı	-7.34768
▁en	-7.35342
▁illərdə	-7.35361
▁dəfə	-7.35588
de	-7.35824
▁oldu	-7.37636
▁oğlu	-7.37791
ləri	-7.38001
▁kadar	-7.38085
▁bəy	-7.39502
ü	-7.39857
▁yer	-7.4066
y	-7.42564
▁etmişdir	-7.43156
▁1	-7.43427
nı	-7.43435
▁S	-7.45912
▁2	-7.45977
▁her	-7.46504
▁etdi	-7.47544
ye	-7.47933
▁Respublikasını	-7.48568
▁onu	-7.50653
▁Dövlət	-7.52052
▁təşkil	-7.5256
p	-7.52606
▁burada	-7.53118
▁;	-7.5324
▁ildən	-7.53626
raq	-7.54603
▁rayonunu	-7.5487
ca	-7.55104
▁müxtəlif	-7.55791
o	-7.55885
▁gün	-7.56058
▁insan	-7.56221
▁digər	-7.56797
▁ile	-7.56834
▁değil	-7.57057
▁haqqında	-7.57115
▁etmək	-7.57636
▁ərazi	-7.58467
yi	-7.58528
▁daxil	-7.58999
▁bunu	-7.59428
dı	-7.60283
ndə	-7.62441
▁olunur	-7.6275
▁orta	-7.6305
▁M	-7.63199
▁iyi	-7.63758
▁3	-7.63847
er	-7.63973
an	-7.65361
▁edilmişdir	-7.65445
▁qarşı	-7.67036
▁nəfər	-7.67127
%	-7.67436
▁su	-7.67586
▁A	-7.68045
▁az	-7.68166
lu	-7.68419
▁qəbul	-7.68513
▁üzrə	-7.68594
▁belə	-7.68855
▁ama	-7.68867
▁inzibati	-7.6941
▁başqa	-7.69825
▁edilir	-7.70073
▁adlı	-7.7027
▁Azərbaycanın	-7.70668
▁elmi	-7.71382
d	-7.71404
▁onların	-7.71413
▁Ama	-7.71719
den	-7.71844
ma	-7.72321
▁həyat	-7.72426
▁son	-7.7264
ndan	-7.72871
ti	-7.73359
▁büyük	-7.73777
▁Onun	-7.74078
▁K	-7.74818
▁fəaliyyət	-7.7554
larını	-7.75693
▁Lak	-7.76224
▁dövlət	-7.76294
▁üç	-7.7647
▁B	-7.7729
▁ona	-7.77293
▁qeyd	-7.78265
▁geniş	-7.78305
▁nasıl	-7.78987
ş	-7.79705
▁xüsusi	-7.80223
▁xan	-7.82105
▁Rusiya	-7.82356
▁vardır	-7.8248
▁/	-7.82921
1	-7.82923
▁şəhərində	-7.83142
ndən	-7.83163
▁10	-7.83226
▁Respublikası	-7.83352
▁dünya	-7.83594
▁qədim	-7.83921
▁tarixi	-7.84646
▁iş	-7.84655
▁zamanı	-7.84814
en	-7.85341
▁sadece	-7.85642
.	-7.85654
▁edib	-7.86786
▁aid	-7.86918
▁zamanda	-7.8882
▁uzun	-7.88959
lıq	-7.90241
cə	-7.90295
▁əsrin	-7.90324
▁davam	-7.91786
▁doğru	-7.92438
▁Azərbaycanda	-7.92441
ini	-7.92868
▁çünkü	-7.93032
▁təhsil	-7.93089
▁neçə	-7.93097
▁iştirak	-7.93296
▁etmiş	-7.93327
al	-7.93398
f	-7.94389
yı	-7.9444
sa	-7.94451
ne	-7.94803
▁etdiyi	-7.94837
▁olması	-7.9527
▁Burada	-7.95528
▁4	-7.95625
▁I	-7.95873
▁şu	-7.96106
▁adına	-7.96844
▁olunmuşdu	-7.97031
▁şekilde	-7.97058
ta	-7.97069
▁yüksək	-7.97083
▁yalnız	-7.97242
▁5	-7.99143
▁eyni	-7.99613
▁şəhər	-7.99626
▁önce	-7.99639
▁anadan	-8.00259
▁bağlı	-8.00482
▁vahidində	-8.0049
▁min	-8.01029
▁insanlar	-8.01287
▁verir	-8.01328
▁Avropa	-8.01391
▁nəticəsində	-8.01864
▁tam	-8.01934
▁h	-8.02454
▁C	-8.02861
ir	-8.02992
▁fazla	-8.03028
▁geri	-8.03165
▁film	-8.03612
▁hərbi	-8.0367
lara	-8.0384
ov	-8.04435
▁sıra	-8.04538
▁inkişaf	-8.04897
▁hesab	-8.05005
▁üzərində	-8.05061
▁altında	-8.05669
▁yıl	-8.05777
▁ikinci	-8.05812
▁yaxın	-8.06041
▁heç	-8.06205
▁ərazisində	-8.06477
▁sayı	-8.06776
▁Milli	-8.08114
▁Dünya	-8.0812
▁yerləşir	-8.08521
xalq	-8.09712
▁yerləşə	-8.09716
▁aynı	-8.09787
▁olmuş	-8.09869
inə	-8.09931
▁20	-8.11292
▁onlar	-8.11635
▁m	-8.12202
▁milyon	-8.12947
▁müəyyən	-8.1306
▁km	-8.13377
▁dili	-8.13511
▁gerçekten	-8.13531
▁e	-8.13866
▁şəhəri	-8.14036
▁milli	-8.14123
▁P	-8.14332
▁ABŞ	-8.14366
lerini	-8.14435
▁artıq	-8.14826
▁biz	-8.15111
▁göstərir	-8.15136
▁bunun	-8.15154
▁olar	-8.15286
▁dövründə	-8.15622
um	-8.16548
larının	-8.16585
▁deyil	-8.16685
▁Əli	-8.16754
nun	-8.16759
at	-8.17462
▁Şimdi	-8.17619
lerin	-8.17739
▁Yani	-8.17908
▁tə	-8.18217
çini	-8.184
▁olmaq	-8.18576
h	-8.18755
▁yaxşı	-8.19284
▁kəndi	-8.19726
▁olunan	-8.19745
▁in	-8.2028
▁türk	-8.20337
▁hissəsi	-8.20529
▁15	-8.20585
▁mövcud	-8.20756
▁əvvəl	-8.20892
▁edilmiş	-8.21135
▁ben	-8.2115
▁Qarabağ	-8.21208
▁olunmuş	-8.21223
ik	-8.2155
▁xalq	-8.21584
lərin	-8.21802
▁Böyük	-8.21874
▁benim	-8.22296
▁məşhur	-8.22562
▁tüm	-8.22689
▁vaxt	-8.22693
▁başladı	-8.23342
▁insanların	-8.23787
du	-8.2405
▁üzvü	-8.24084
▁Məhəmməd	-8.24341
▁özünü	-8.24383
▁edirdi	-8.246
▁mi	-8.2464
likdə	-8.24698
▁mərkəzi	-8.24796
vi	-8.25308
▁nə	-8.2535
▁hakkında	-8.2537
▁H	-8.25605
▁vardı	-8.25832
im	-8.26279
▁ibarət	-8.2683
▁kiçik	-8.26866
▁Onlar	-8.2732
▁müddət	-8.27407
▁6	-8.27512
ğa	-8.27568
▁təyin	-8.27674
▁Anca	-8.28207
▁bizim	-8.28333
ce	-8.28417
«	-8.28647
▁farklı	-8.28699
▁əsrdə	-8.28834
me	-8.28902
▁şəkildə	-8.28964
▁yenidən	-8.29412
ərək	-8.29733
larda	-8.29983
▁içinde	-8.3001
»	-8.30703
▁Çünk	-8.3109
▁başka	-8.31149
▁ay	-8.31181
te	-8.31362
▁ilgili	-8.31642
larında	-8.31803
▁Ə	-8.31871
▁edərək	-8.32067
▁gəlir	-8.32073
▁onları	-8.32163
▁ümumi	-8.3226
▁Cənub	-8.3256
▁diğer	-8.32635
▁dilində	-8.32856
▁malik	-8.33029
▁bilər	-8.33226
▁orada	-8.3347
▁dövrdə	-8.33698
▁siyasi	-8.33976
­	-8.34483
▁rus	-8.34633
▁Həmi	-8.35077
▁kendi	-8.35323
▁bile	-8.35402
▁musiqi	-8.3545
▁Sonra	-8.35534
▁&#93;	-8.35943
mi	-8.36009
▁İ	-8.3602
▁sahip	-8.36122
▁&#9	-8.36256
▁dünyanın	-8.36822
rək	-8.371
▁edilən	-8.37105
▁əhalisi	-8.37123
▁E	-8.37215
▁başa	-8.37262
▁kəndində	-8.37454
▁Belə	-8.37662
x	-8.37802
▁aslında	-8.37967
tı	-8.38019
▁İlk	-8.38112
▁yolu	-8.3814
▁yok	-8.38151
▁birinci	-8.38216
lere	-8.38471
▁SSRİ	-8.39025
▁adını	-8.39083
çi	-8.39441
dür	-8.39468
▁Əliyev	-8.39477
▁yol	-8.39726
▁küçük	-8.39794
▁T	-8.39836
▁İran	-8.40105
▁ölkə	-8.40139
▁Ben	-8.40348
▁Gülüşmeler	-8.40717
yla	-8.4097
ğı	-8.40994
▁Daha	-8.41012
▁illər	-8.41104
lık	-8.41454
▁V	-8.4208
▁12	-8.42118
▁kişi	-8.42195
▁veya	-8.42204
miz	-8.4247
▁bəzi	-8.4255
larına	-8.42861
▁erməni	-8.42878
▁30	-8.43104
▁əldə	-8.43321
ır	-8.43918
▁Qafqaz	-8.44074
lığı	-8.4442
▁edə	-8.4473
▁♫	-8.4497
▁məlumat	-8.45069
▁8	-8.45359
ərzində	-8.45404
▁Y	-8.45529
▁layiq	-8.45602
uz	-8.45658
▁!	-8.45794
▁an	-8.46467
▁II	-8.46909
miş	-8.46994
ar	-8.47286
▁ise	-8.47525
▁tarix	-8.47613
▁Türkiyə	-8.47658
▁Orta	-8.47664
ını	-8.47947
▁məşğul	-8.48089
▁demək	-8.48209
lardan	-8.4823
▁tarixində	-8.4833
▁G	-8.48383
▁səbəb	-8.48541
▁məqsədi	-8.48606
inin	-8.48679
▁Bakıda	-8.48942
▁Naxçıvan	-8.49189
▁vəfat	-8.49269
▁yaşayış	-8.49416
sına	-8.49593
▁edildi	-8.49597
▁buna	-8.49623
▁Bunu	-8.49693
sında	-8.499
su	-8.50084
▁bana	-8.50379
▁önemli	-8.5053
▁D	-8.50576
▁Amerika	-8.5061
▁may	-8.50675
▁eğer	-8.50712
▁7	-8.50865
▁yaşayan	-8.51362
▁etməyə	-8.51424
lan	-8.51612
▁baxma	-8.51799
▁xarici	-8.51907
▁ev	-8.52061
▁cənub	-8.52207
▁saat	-8.52344
▁şeyler	-8.52509
▁Çin	-8.52512
▁a	-8.52856
▁olmayan	-8.53116
▁Yeni	-8.53185
▁edilməsi	-8.53196
▁ola	-8.53319
▁tek	-8.53499
▁Mirzə	-8.53649
▁ayında	-8.53701
▁yanaşı	-8.53729
▁şimal	-8.53769
▁əlavə	-8.53804
▁Faka	-8.53812
rkən	-8.54047
▁Xəzər	-8.54253
siz	-8.54594
▁dini	-8.5483
▁ortaya	-8.54988
▁Bunun	-8.55484
▁inşa	-8.55532
▁edirlər	-8.55775
▁dünyada	-8.56055
▁yeri	-8.56514
▁Xalq	-8.5684
▁çıxış	-8.57107
▁16	-8.57479
▁size	-8.57602
▁hava	-8.57795
mış	-8.57914
▁rayonu	-8.57923
▁rayonunda	-8.58178
▁Şimal	-8.58477
▁Eğ	-8.58909
▁aşağı	-8.58964
▁ibarətdir	-8.59063
▁biraz	-8.59278
▁əhatə	-8.59413
▁yerli	-8.59442
▁çap	-8.59497
▁sistemi	-8.59661
▁Gəncə	-8.59803
▁hakimiyyəti	-8.59835
il	-8.59869
▁Sovet	-8.59942
▁hələ	-8.60092
▁Sultan	-8.60097
▁Buna	-8.60198
▁əhali	-8.60519
▁bunlar	-8.60894
▁idarə	-8.61508
ken	-8.61832
▁boyunca	-8.61986
▁Osmanlı	-8.61988
▁verən	-8.6229
▁xidmət	-8.6246
▁almışdı	-8.62785
▁barədə	-8.62795
ətta	-8.63129
▁yüz	-8.63273
▁istehsal	-8.63279
▁Ermənistan	-8.63478
▁mühüm	-8.63535
▁meydana	-8.63659
▁Kənd	-8.64025
▁təmin	-8.64429
▁i	-8.64495
▁əsasında	-8.64529
▁alan	-8.64558
▁keçmiş	-8.64806
▁onlara	-8.64821
ç	-8.64835
▁olsa	-8.64907
▁fikir	-8.65089
▁sağ	-8.65126
lt	-8.65127
▁hiç	-8.6524
▁nəşr	-8.65292
▁göre	-8.65474
▁dağ	-8.65611
▁vasitəsi	-8.65679
tan	-8.65769
ur	-8.66133
ət	-8.6632
▁Q	-8.66343
▁Qara	-8.66411
▁yaşında	-8.66538
▁karşı	-8.66637
▁rol	-8.66654
▁gələn	-8.66758
▁söz	-8.66788
▁verdi	-8.66821
▁Şah	-8.66836
▁keçirilə	-8.66848
▁mümkün	-8.66909
▁qızı	-8.67253
mak	-8.6732
sində	-8.67582
v	-8.67583
▁Hüseyn	-8.68254
sini	-8.68263
▁dəniz	-8.68498
▁kəndin	-8.68521
ydi	-8.68838
▁məktəbi	-8.68952
▁edilib	-8.69306
▁9	-8.69612
▁ağ	-8.69759
▁XIX	-8.70142
▁diye	-8.70146
▁müasir	-8.70223
▁beynəl	-8.70588
▁nın	-8.70612
se	-8.70657
▁1992-	-8.70691
c	-8.70767
larla	-8.70837
▁18	-8.70869
ına	-8.709
larından	-8.70931
▁müdafiə	-8.7097
▁17	-8.71047
▁neft	-8.71096
▁təsir	-8.71222
▁fəaliyyəti	-8.71249
ində	-8.71451
▁bitki	-8.71463
▁qadın	-8.71486
▁başlayır	-8.71609
lakin	-8.71721
▁Həsən	-8.71989
▁F	-8.7215
ında	-8.72229
et	-8.72338
▁X	-8.72451
▁25	-8.72575
▁sahəsində	-8.72644
yle	-8.72793
▁rəsmi	-8.72814
▁hücum	-8.72917
▁müəllifi	-8.72941
▁neden	-8.72973
▁Hər	-8.73228
▁olunub	-8.73265
▁yüzden	-8.73942
▁Bütün	-8.73949
▁11	-8.73953
▁qala	-8.73959
▁100	-8.74056
▁qısa	-8.74086
▁Bunda	-8.74201
liyi	-8.74344
▁böyle	-8.74384
▁özü	-8.74696
▁əmələ	-8.74818
▁inkişafı	-8.75005
▁sonunda	-8.75126
▁yardım	-8.75139
▁Afrika	-8.75214
▁işğal	-8.75327
▁yanvar	-8.75337
ji	-8.75343
▁beş	-8.75343
▁Fransa	-8.75383
▁ali	-8.75684
▁Mərkəzi	-8.75855
▁yerdə	-8.75858
▁mart	-8.7595
▁şeyi	-8.75966
el	-8.76019
çılıq	-8.76084
▁dair	-8.7612
▁işləri	-8.76337
▁uyğun	-8.76352
▁elan	-8.76353
▁ictimai	-8.76596
▁hərəkət	-8.76598
iz	-8.76933
▁ciddi	-8.77487
▁üzerinde	-8.77524
ydı	-8.7756
▁iyun	-8.77642
▁adam	-8.77749
▁yanında	-8.77866
▁ın	-8.77872
sel	-8.78265
▁gerçek	-8.7829
▁ərazisi	-8.7841
▁14	-8.7844
▁güclü	-8.78444
▁Kahkaha	-8.78487
▁əlaqədar	-8.78631
mız	-8.78926
▁ailə	-8.79156
▁etmişdi	-8.79195
▁Ne	-8.79213
▁Həm	-8.79231
▁tərkibində	-8.79345
▁bazı	-8.79421
▁tarafından	-8.79635
▁günü	-8.80142
g	-8.80307
▁elə	-8.80428
sız	-8.80524
dək	-8.80556
▁Baş	-8.80987
sını	-8.81173
▁biridir	-8.8133
▁yerinə	-8.81547
▁əks	-8.81579
▁müharibəsi	-8.81609
it	-8.81818
▁İslam	-8.82097
▁Türk	-8.82103
▁şimdi	-8.82188
▁təsvir	-8.8225
▁Əhməd	-8.82312
▁dekabr	-8.82457
ım	-8.82461
lərlə	-8.82544
▁anda	-8.82588
▁soru	-8.82773
▁halda	-8.82919
▁dedi	-8.82979
▁rast	-8.83042
or	-8.8307
▁ağır	-8.83211
▁olmak	-8.8324
▁göz	-8.83269
▁Hacı	-8.83492
▁iqtisadi	-8.83636
▁Biz	-8.83695
▁etibar	-8.83752
▁hareket	-8.84125
tir	-8.84191
▁aprel	-8.84223
▁Şərq	-8.84245
▁qərar	-8.84267
▁Her	-8.8438
▁alır	-8.84396
▁yaxınlığında	-8.84414
▁növü	-8.84479
▁oktyabr	-8.84573
▁məlum	-8.84669
▁yapmak	-8.84677
▁bilgi	-8.84753
niz	-8.84757
▁elm	-8.84878
▁işi	-8.85021
▁malikdir	-8.85039
mek	-8.85136
▁onda	-8.85216
▁İşte	-8.85231
siniz	-8.85354
▁ətrafında	-8.8553
▁istiyorum	-8.85533
▁məktəb	-8.85553
sine	-8.85713
nız	-8.85745
qulu	-8.85981
▁təbii	-8.86202
lerden	-8.86253
▁50	-8.86305
▁Universitetini	-8.86657
▁sahəsi	-8.86689
ten	-8.86854
▁müharibə	-8.87005
▁Ali	-8.87045
▁Peki	-8.87187
2	-8.87874
▁dil	-8.87919
▁Çok	-8.88023
▁bundan	-8.88337
▁tək	-8.88346
▁ayrı	-8.8837
▁ta	-8.88438
gə	-8.88574
lü	-8.88795
▁daş	-8.89009
▁ölkəni	-8.89364
▁dünyaya	-8.89559
▁Son	-8.89596
▁para	-8.89826
▁altı	-8.89843
▁p	-8.8995
ması	-8.89964
▁bədii	-8.8999
▁atası	-8.90228
▁olacak	-8.90312
▁avqust	-8.90316
dim	-8.90484
ından	-8.90614
▁İkinci	-8.90731
lerine	-8.90784
▁mübarizə	-8.90789
▁əsr	-8.91019
▁sözü	-8.91113
▁Şuşa	-8.91269
▁təhsilini	-8.91379
▁dörd	-8.91578
▁13	-8.91849
▁xanın	-8.91874
ün	-8.91916
▁imkan	-8.91943
▁mı	-8.92088
▁ələ	-8.92105
▁hansı	-8.92161
▁zəngin	-8.92231
▁təqdim	-8.92404
▁sentyabr	-8.92588
▁Ş	-8.92667
▁enerji	-8.9268
▁zor	-8.92701
▁indiki	-8.92778
▁futbol	-8.92819
▁lazım	-8.9289
▁bize	-8.9294
▁Ən	-8.93003
▁çayı	-8.93019
▁tez	-8.93765
▁qrup	-8.9384
▁oldukça	-8.939
▁mədəniyyət	-8.93959
eynəl	-8.93976
▁karar	-8.94021
▁təxminə	-8.94049
▁gənc	-8.94077
▁birkaç	-8.94098
▁yox	-8.94133
▁sahilində	-8.94136
▁yaşayır	-8.94192
▁şah	-8.94261
▁SSR	-8.94456
▁Allah	-8.94472
▁fakat	-8.9449
sə	-8.94536
▁gözəl	-8.94585
▁U	-8.95145
ö	-8.95157
saylı	-8.95238
lama	-8.95272
▁Bunlar	-8.95309
▁rejissor	-8.95494
▁iyul	-8.95548
▁on	-8.95684
▁о	-8.95757
▁insanın	-8.95906
▁etmek	-8.95961
mı	-8.95976
▁fevral	-8.96074
man	-8.96128
on	-8.96219
lərdə	-8.96248
▁bərabər	-8.96261
▁oyun	-8.96285
▁Almaniya	-8.96467
▁ərəb	-8.96486
ran	-8.96548
▁güzel	-8.96817
sının	-8.96973
▁gəlmiş	-8.97073
▁şəhərin	-8.97091
▁nəzərdə	-8.97112
▁iri	-8.97189
▁qərarı	-8.97549
lerde	-8.97572
▁ana	-8.9758
▁tərəfdə	-8.97738
daki	-8.97738
lərə	-8.9785
sanız	-8.98115
▁tekrar	-8.98151
▁İsmayıl	-8.98369
▁yani	-8.98481
▁asılı	-8.98541
▁ayını	-8.98569
▁beni	-8.98697
▁həsr	-8.98739
tik	-8.98989
va	-8.99013
▁çoxlu	-8.99078
▁vəzifəsində	-8.99088
▁oluyor	-8.99165
▁fark	-8.99192
▁noyabr	-8.99432
▁tanınmış	-8.99448
▁ancaq	-8.99984
▁kötü	-9.0018
▁görkəm	-9.00205
▁sədri	-9.00362
▁Aslında	-9.00404
▁İnstitutunu	-9.00614
▁ye	-9.00791
▁cümlədə	-9.00801
▁illərində	-9.0106
▁Alkış	-9.01086
▁metr	-9.01194
▁dövrü	-9.01197
sal	-9.01371
▁k	-9.01417
ip	-9.01545
▁başlamışdır	-9.01581
st	-9.01681
▁aktyor	-9.01931
▁ifadə	-9.02073
▁filmi	-9.02083
▁24	-9.02084
▁məhz	-9.02375
▁Abbas	-9.02391
▁Ya	-9.02426
▁məxsus	-9.02679
▁40	-9.02722
▁fərqli	-9.02832
▁baxım	-9.02952
▁açık	-9.03018
▁məğlub	-9.03224
▁Onların	-9.03281
▁hayal	-9.03289
yu	-9.03348
▁devam	-9.03442
▁Roma	-9.03502
▁olabilir	-9.0378
ine	-9.03796
▁Moskva	-9.0386
▁Alkışlar	-9.03927
▁Siz	-9.04053
▁aşkar	-9.04082
▁ifa	-9.04132
▁ağa	-9.04226
▁olmuşdu	-9.04361
▁əvvəllərində	-9.04376
▁mükafatı	-9.04403
▁yəni	-9.04478
▁sistem	-9.04497
▁almaq	-9.04683
▁rayon	-9.04893
▁eləcə	-9.0507
▁yoxdur	-9.05158
lerle	-9.05174
▁Amma	-9.05279
acak	-9.05385
▁daxildir	-9.05388
▁ar	-9.05661
▁tür	-9.05802
▁daxili	-9.05847
▁İbrahim	-9.0595
▁R	-9.06016
▁Lənkəran	-9.06136
▁nəfəri	-9.06245
▁əhalini	-9.06412
▁tətbiq	-9.06451
gt	-9.06485
▁xey	-9.06494
▁İki	-9.06555
▁yazır	-9.06584
▁hal	-9.071
▁yüzde	-9.0719
▁Beləliklə	-9.07239
▁teatr	-9.0733
▁b	-9.07349
▁Hindistan	-9.07437
▁təsərrüfatı	-9.07488
▁ölkədə	-9.07548
▁Bununla	-9.0788
luq	-9.0788
is	-9.07926
▁parça	-9.08014
xud	-9.08031
▁uşaq	-9.08243
▁müstəqil	-9.08403
▁Universiteti	-9.08416
lərində	-9.08496
▁nin	-9.08496
▁aldı	-9.08531
▁çay	-9.0856
▁müəllim	-9.08575
▁Asiya	-9.08595
▁dövləti	-9.08642
▁din	-9.08686
tu	-9.08783
▁hissəsində	-9.08936
▁döyüş	-9.09138
▁birçok	-9.09359
▁çalışan	-9.09385
▁olunması	-9.09385
▁elmləri	-9.09404
▁şərq	-9.09568
▁sadə	-9.09652
▁həyatı	-9.09898
▁cür	-9.09917
▁geliyor	-9.09918
gi	-9.10072
▁bilir	-9.10091
▁gəlib	-9.10212
▁etməsi	-9.10272
▁azad	-9.10303
▁Nazirliyi	-9.10352
▁yazı	-9.10401
▁N	-9.10431
əddin	-9.10658
▁cəlb	-9.10671
▁ölüm	-9.1068
▁kömək	-9.10842
▁irəli	-9.10927
▁yüksek	-9.11005
▁at	-9.11071
▁sm	-9.11137
▁Günəş	-9.11267
▁üzərin	-9.11372
▁süre	-9.11402
▁sahibi	-9.11446
▁Misir	-9.11493
▁2009-	-9.11709
gər	-9.11855
sin	-9.11909
▁gəldi	-9.11991
▁’	-9.12201
▁Ümumi	-9.12372
▁qol	-9.12412
▁açıq	-9.12434
▁qara	-9.12604
sinin	-9.12683
inde	-9.12693
▁19	-9.12735
▁XX	-9.12762
çı	-9.12799
▁olundu	-9.12998
▁qardaşı	-9.13055
arak	-9.13168
▁şair	-9.13213
▁kitab	-9.13247
▁te	-9.13258
▁el	-9.13337
▁belki	-9.13511
▁görülmüşdü	-9.1357
▁Ona	-9.13761
ter	-9.13872
▁21	-9.13895
▁bərpa	-9.13945
▁əhəmiyyətli	-9.13961
▁Evet	-9.14458
▁prezidenti	-9.14464
▁ərazidə	-9.14836
▁növ	-9.14928
▁şəklində	-9.14931
▁Hazırd	-9.14937
▁Ç	-9.14979
▁uzunluğu	-9.15047
▁azərbaycanlı	-9.1511
▁qalan	-9.15434
▁say	-9.15489
▁alıb	-9.15548
▁Ağ	-9.15608
os	-9.15754
▁lazımdır	-9.15799
▁tərcümə	-9.15863
▁Əsas	-9.16031
tır	-9.16244
▁Kür	-9.16252
▁işıq	-9.16284
▁keçir	-9.1638
▁yazıçı	-9.164
▁İrəvan	-9.1643
lo	-9.16431
▁kaç	-9.16783
▁tutur	-9.17062
▁rəhbərliyi	-9.17244
▁1-	-9.17246
▁ingilis	-9.17415
▁əl	-9.17541
▁qızıl	-9.17571
▁kitabı	-9.17593
▁boyu	-9.17656
▁uğur	-9.17775
▁Birinci	-9.1778
▁ara	-9.17814
mişdir	-9.17823
▁bugün	-9.17914
▁gelen	-9.17936
▁dəfn	-9.17997
▁tamamen	-9.18026
▁üçüncü	-9.18059
▁hesabı	-9.18174
▁26	-9.18238
▁Quba	-9.18283
▁birlikte	-9.18315
▁hakimiyyət	-9.18361
▁1993-	-9.18407
▁əsrlərdə	-9.18421
▁insanları	-9.18553
ilə	-9.18581
▁ədəbi	-9.18639
▁Prezidenti	-9.18841
əli	-9.18958
▁yaşlı	-9.18994
▁ticarət	-9.19019
▁olurdu	-9.19305
▁ala	-9.19329
▁Qədim	-9.19357
▁nisbət	-9.1937
▁təsdiq	-9.19382
▁arada	-9.19558
zadə	-9.19719
▁mü	-9.19765
nde	-9.19832
▁23	-9.19894
liği	-9.20002
▁xanım	-9.20007
lərindən	-9.2001
▁sosial	-9.20068
▁Qızıl	-9.20153
▁hissə	-9.20212
▁Gürcüstan	-9.20293
yor	-9.20324
ib	-9.20388
▁22	-9.20471
ol	-9.20474
▁tələb	-9.20502
▁III	-9.20505
▁sənaye	-9.20511
▁Film	-9.20554
▁pek	-9.20714
▁al	-9.20854
▁olduğuna	-9.20949
ecek	-9.20981
hi	-9.21024
▁pul	-9.21094
▁De	-9.21095
ltif	-9.21129
▁sürü	-9.21245
▁harika	-9.21394
▁yaşamış	-9.21425
▁təsiri	-9.21525
illik	-9.21532
▁şəxs	-9.21731
▁Su	-9.21747
▁El	-9.2175
▁qeyri	-9.21836
▁verilir	-9.21847
▁verilmişdi	-9.2193
▁basit	-9.21991
3	-9.22112
▁yerine	-9.22117
▁sol	-9.22255
▁Şamaxı	-9.2229
▁təklif	-9.2234
▁dərs	-9.22342
▁gereken	-9.22531
▁torpaq	-9.22868
▁çayını	-9.22885
▁nəticə	-9.22905
▁kat	-9.22933
lərini	-9.23118
▁hissəsini	-9.23289
▁düşür	-9.23328
▁cəhət	-9.23448
▁fars	-9.23485
▁ordusu	-9.23512
erek	-9.23655
maya	-9.23752
▁olsun	-9.23777
▁müsəlman	-9.23818
▁0	-9.2383
▁qərb	-9.23966
▁canlı	-9.23973
ey	-9.23986
▁tərk	-9.23994
▁paytaxtı	-9.24037
▁Şu	-9.24106
▁çalışma	-9.2413
▁şöyle	-9.24227
▁ön	-9.2432
▁mədəni	-9.24435
▁Heydər	-9.24454
▁alman	-9.24508
dik	-9.24536
▁müşahidə	-9.24561
▁doktoru	-9.2458
ha	-9.24614
▁Hal	-9.24662
▁elektrik	-9.24725
▁məntəqəsi	-9.24754
lerinin	-9.24826
▁fəxr	-9.2491
▁öyle	-9.24965
▁özündə	-9.25066
▁həbs	-9.25095
▁işte	-9.25169
▁bəzən	-9.25217
▁adlana	-9.25245
▁əsərləri	-9.25451
▁professor	-9.25454
▁əsəri	-9.25505
▁Şəki	-9.25712
▁bizi	-9.25737
▁məna	-9.25821
▁yapı	-9.25847
▁sonralar	-9.25898
ad	-9.26073
▁d	-9.26161
▁1991-	-9.26209
▁çalışır	-9.26297
▁sizin	-9.26303
▁işlər	-9.26399
ul	-9.26495
▁respublika	-9.26537
▁yazılmış	-9.26544
▁almış	-9.26626
▁təmsil	-9.26751
▁yuxarı	-9.26764
▁Britaniya	-9.26773
▁çıxan	-9.26798
▁yakın	-9.2685
▁artık	-9.26871
▁mu	-9.26895
▁üzerine	-9.26914
▁tamami	-9.26922
▁dövrün	-9.26923
▁kütlə	-9.26955
▁vermişdir	-9.27086
▁Bəzi	-9.27094
▁f	-9.27167
▁qarşısında	-9.27245
fa	-9.27319
▁28	-9.27322
▁səbəbi	-9.27353
▁durum	-9.27371
▁En	-9.27394
▁Ay	-9.27498
luğu	-9.27517
▁beyin	-9.2752
▁siz	-9.2757
▁uğrunda	-9.27845
▁artisti	-9.28034
▁fəal	-9.28078
▁2006-	-9.28174
▁kim	-9.28184
▁Təbriz	-9.28217
▁2005-	-9.28268
▁mərkəzində	-9.28447
▁hiçbir	-9.28512
▁üz	-9.28519
▁Uzun	-9.28554
to	-9.28585
▁əsrlər	-9.28615
▁istehsalı	-9.28687
▁daim	-9.28718
▁bilgisayar	-9.2891
▁çıkar	-9.28927
▁idman	-9.28965
▁daki	-9.29085
▁yaradılması	-9.29105
▁məhv	-9.29108
▁rəhbərli	-9.29189
sunuz	-9.29245
▁Şirvan	-9.29263
▁ordu	-9.29346
▁1990-	-9.29365
▁eden	-9.29442
▁ad	-9.2948
▁hala	-9.29521
▁cavab	-9.29638
▁çocuk	-9.2979
▁əvvəlki	-9.29823
▁keçirilmiş	-9.29912
▁yazdığı	-9.29922
▁göstərən	-9.29923
▁sahib	-9.30004
▁müavini	-9.30163
▁ermənilər	-9.30166
▁ata	-9.30231
▁səs	-9.3037
▁Şurası	-9.30422
▁keçən	-9.30521
▁kadın	-9.30662
▁aşağıdakı	-9.30749
▁2008-	-9.30871
▁Ha	-9.30965
▁üzü	-9.30974
▁q	-9.31009
▁gedən	-9.31055
▁siyahısı	-9.31296
▁başlayara	-9.31358
▁gücü	-9.31536
8	-9.31588
lerinde	-9.31611
▁Nizami	-9.31661
▁zorunda	-9.31666
▁hakim	-9.31725
▁bağlıdır	-9.3175
▁nəzərə	-9.31758
▁olmasına	-9.31772
▁2000-	-9.3193
▁insanlara	-9.31956
▁müdiri	-9.31993
deki	-9.32135
▁29	-9.32184
4	-9.32222
▁olduğundan	-9.3224
▁internet	-9.32288
▁Rus	-9.32339
▁Böylece	-9.32345
▁üst	-9.32412
▁sene	-9.32415
▁yayılmışdı	-9.32425
▁hazır	-9.32507
▁illərin	-9.32572
▁deyilir	-9.32612
▁qaz	-9.3262
▁olma	-9.32644
▁ətraf	-9.32696
▁Məmmədov	-9.32729
▁naziri	-9.32859
▁Mən	-9.32895
▁veri	-9.32935
▁mahnı	-9.33019
▁teknoloji	-9.331
▁Eyni	-9.33107
▁Ma	-9.3313
▁hüquq	-9.33179
▁içərisində	-9.33228
▁izah	-9.33329
▁quru	-9.33462
▁temel	-9.33508
iya	-9.33544
▁bilim	-9.33549
lerinden	-9.33604
▁yara	-9.33613
▁27	-9.33624
▁memarlıq	-9.33653
▁Məsələn	-9.33695
▁60	-9.33715
▁özünə	-9.33776
ıyor	-9.33901
▁konusunda	-9.33905
▁La	-9.3396
▁məlumatlar	-9.33966
za	-9.3411
id	-9.34124
▁ederim	-9.3417
▁edirdilər	-9.34249
▁kino	-9.34287
qca	-9.34416
▁ədəd	-9.34543
▁fəaliyyətini	-9.34607
maq	-9.34801
meye	-9.34875
▁1980	-9.34939
▁xəbər	-9.34973
7	-9.34974
▁tərəf	-9.35054
▁vermiş	-9.35063
▁konu	-9.35577
▁bəhs	-9.35585
▁vacib	-9.35586
▁çoğu	-9.35586
▁evi	-9.35652
ge	-9.35842
▁000	-9.35936
us	-9.35937
▁Qərbi	-9.35986
▁qan	-9.3603
▁parçası	-9.36091
dım	-9.36128
▁dənizi	-9.36241
▁nümayəndələri	-9.36373
▁tanış	-9.36414
▁İngiltərə	-9.36486
▁təsadüf	-9.36524
▁gizli	-9.36608
▁2-	-9.36656
▁2010-	-9.3678
▁Qüvvələri	-9.3679
▁işçi	-9.36828
▁növbə	-9.36843
▁hızlı	-9.36911
▁indi	-9.36934
▁Yer	-9.36934
▁ediyor	-9.3695
▁2007-	-9.36997
▁isti	-9.37052
nu	-9.37125
ko	-9.37188
▁geldi	-9.37196
▁tədris	-9.37294
▁yaşam	-9.37312
▁verdiyi	-9.37336
▁müraciət	-9.37467
▁Mədəniyyət	-9.37467
▁fransız	-9.37553
00	-9.37715
▁etdirir	-9.37723
▁Tanrı	-9.37736
es	-9.37848
içik	-9.38047
▁un	-9.38048
ça	-9.38145
▁Tamam	-9.38169
▁ibn	-9.384
ğ	-9.38407
əm	-9.38504
▁etti	-9.38511
▁çalışmışdı	-9.38514
▁yaradılmışdı	-9.38749
▁Yusif	-9.38768
D	-9.3879
▁1918-	-9.38791
▁olmadığı	-9.38817
▁adlanır	-9.38865
▁iddia	-9.39192
6	-9.39313
▁əsasını	-9.39317
▁sıx	-9.3932
▁yaradılmış	-9.39405
▁yunan	-9.39413
▁edin	-9.39458
▁işe	-9.395
fi	-9.39543
▁ancak	-9.39566
▁aydın	-9.39576
▁qələbə	-9.39691
▁əvəz	-9.39709
▁hazırda	-9.40006
▁bunları	-9.4004
adece	-9.4013
▁Kəndi	-9.40248
▁ilginç	-9.40268
▁bitirmişdi	-9.40268
▁tane	-9.40375
▁kəs	-9.40381
muş	-9.40467
▁yerde	-9.40485
▁sayda	-9.40511
▁adlandırılmışdı	-9.40531
▁sübut	-9.40534
▁Və	-9.40566
▁sosyal	-9.4057
▁həll	-9.40621
▁yapma	-9.40704
▁yeniden	-9.40718
▁savaş	-9.40719
▁çıxır	-9.41023
▁Şərqi	-9.41084
▁bitiri	-9.41092
▁ədəbiyyatı	-9.41117
imi	-9.41121
▁fikri	-9.41131
▁Respublika	-9.41199
▁ülke	-9.41578
▁məktəbini	-9.41582
▁Ağdam	-9.41633
iş	-9.41634
▁hazırlanmış	-9.41635
▁Al	-9.41873
▁mm	-9.41922
▁dairəsi	-9.41937
▁bunların	-9.41943
abilir	-9.42045
lərinə	-9.42067
▁bununla	-9.42084
▁yaklaşık	-9.4215
hazırda	-9.42206
▁dövlətin	-9.42507
tez	-9.42616
▁Məmməd	-9.42874
▁dəmir	-9.4289
▁yanı	-9.43003
▁yaradır	-9.43025
▁sülh	-9.43127
▁ölümündə	-9.43134
▁gelir	-9.4315
kar	-9.4316
ası	-9.43168
▁məktəbində	-9.4317
▁ayrıca	-9.43241
▁dört	-9.43332
▁əhalisini	-9.43393
▁tabe	-9.43419
▁üzv	-9.43421
▁vəziyyət	-9.43425
▁Şeyx	-9.43453
unu	-9.43499
▁İncəsənət	-9.43516
▁həmişə	-9.43608
rc	-9.43915
▁filmləri	-9.43994
▁olmadığını	-9.44002
▁inanılmaz	-9.44068
9	-9.44116
▁qız	-9.44247
▁növləri	-9.44334
▁üzvləri	-9.44367
▁sayılır	-9.44526
▁etme	-9.44535
▁araba	-9.44544
ız	-9.44582
▁mənasında	-9.44611
▁diqqət	-9.44617
▁hale	-9.44757
▁dövr	-9.44758
▁qrupu	-9.44764
▁Ağa	-9.44956
▁məruz	-9.44975
▁qalır	-9.45001
▁məcbur	-9.45057
▁televiziya	-9.45109
▁iç	-9.45143
▁dolar	-9.45144
▁ailəsi	-9.45157
▁istediğim	-9.45238
▁içində	-9.45443
▁L	-9.45484
dü	-9.45561
▁1920-	-9.45663
▁elde	-9.45681
sınız	-9.45786
▁ölkələrdə	-9.45804
▁Teymur	-9.45825
▁Silah	-9.45835
▁rəhbəri	-9.45858
A	-9.4594
▁informasiya	-9.45952
▁Mahnı	-9.45954
▁qoşunları	-9.45981
▁İnsan	-9.46045
▁onunla	-9.46074
▁kontrol	-9.46119
▁klubu	-9.46154
▁konuşma	-9.46187
▁200	-9.46224
▁başına	-9.46233
▁sorun	-9.46257
▁Bizim	-9.46394
▁model	-9.46398
▁durumda	-9.46401
▁dərin	-9.46437
zi	-9.46463
sun	-9.46466
araq	-9.4663
▁olunurdu	-9.46632
▁alt	-9.46671
▁2004-	-9.46764
▁yegan	-9.46786
▁Digər	-9.46788
▁ədəbiyyat	-9.46793
▁partiya	-9.46801
▁nokta	-9.46912
▁yaranması	-9.46931
▁dəqiq	-9.46958
abad	-9.47077
▁hem	-9.47082
▁Ta	-9.47122
sinde	-9.47136
▁sahələri	-9.47213
▁kon	-9.47327
▁bina	-9.47432
▁hikaye	-9.47538
▁Elə	-9.47594
nden	-9.47602
xeoloji	-9.47643
▁birinin	-9.4773
▁komanda	-9.47734
▁hadisə	-9.47776
ağa	-9.47809
▁herhangi	-9.47825
▁şəxsi	-9.47864
▁Dram	-9.47948
▁Rayon	-9.47965
▁eğitim	-9.48184
▁dolu	-9.48246
▁əmək	-9.4829
▁işləmişdi	-9.48393
▁hemen	-9.48446
▁alma	-9.48495
▁Benim	-9.48509
az	-9.48514
məsi	-9.48631
▁u	-9.48761
▁sovet	-9.48773
▁sənət	-9.48826
▁şeyleri	-9.4883
▁araştırma	-9.48842
▁ka	-9.48897
▁izin	-9.48952
▁qalası	-9.48962
san	-9.48974
yyətlə	-9.49045
ayət	-9.4942
▁başlayıb	-9.49466
▁maddi	-9.49467
▁bələdiyyə	-9.49618
▁onlardan	-9.49702
▁demek	-9.49727
▁heyvan	-9.49754
▁başlayan	-9.49924
▁əsl	-9.50089
mizi	-9.50114
çu	-9.50183
ist	-9.50264
▁rolu	-9.5027
ür	-9.50302
seniz	-9.50479
▁İtaliya	-9.50484
▁problem	-9.50491
lardı	-9.50631
▁özel	-9.50646
▁ordusunu	-9.50678
ak	-9.507
▁adları	-9.50864
▁böylece	-9.50992
qdan	-9.50996
▁üstün	-9.51065
▁qayda	-9.5111
▁anası	-9.51166
▁Cəfər	-9.51176
əlak	-9.51272
▁Sa	-9.51288
▁əməkda	-9.51348
▁İnstitutu	-9.51391
▁mən	-9.51414
▁maraqlı	-9.51434
▁3-	-9.51518
▁bələdiyyəsi	-9.51676
▁icra	-9.51733
▁örnek	-9.51766
▁güçlü	-9.51889
ebilir	-9.51924
▁Çox	-9.5193
▁çevre	-9.51937
pe	-9.51966
▁keçirilir	-9.52028
▁gəlmişdi	-9.52039
▁br	-9.52118
ah	-9.52167
▁gətirir	-9.52236
▁göster	-9.52237
▁video	-9.52349
▁sinir	-9.52355
▁qalib	-9.52454
▁deyə	-9.5252
▁əksəriyyəti	-9.5255
▁80	-9.5257
▁qırmızı	-9.52616
▁Teşekkürler	-9.5274
iyor	-9.5283
▁yerlərdə	-9.52907
▁dəvət	-9.52919
▁verilmiş	-9.52971
▁kız	-9.5302
▁hallarda	-9.53032
▁sözləri	-9.53104
▁birşey	-9.53157
▁ağac	-9.53252
▁yanlış	-9.53261
▁Onu	-9.53374
▁New	-9.53443
▁hökuməti	-9.53453
▁göstərmişdi	-9.53489
▁düz	-9.53534
▁ö	-9.53627
▁°	-9.5364
bir	-9.53659
▁е	-9.53736
▁Şəhər	-9.53752
▁Li	-9.53839
▁aiddir	-9.53894
iyyə	-9.53895
▁qazandı	-9.53927
▁Müqəddə	-9.53945
▁genç	-9.53953
▁araya	-9.53987
▁maraq	-9.54104
▁başçısı	-9.54199
lay	-9.54205
▁Mustafa	-9.54244
▁Teatrın	-9.54254
▁nail	-9.54355
▁üstündə	-9.54445
▁ləğv	-9.54455
adlı	-9.54508
▁2002-	-9.54545
▁cevap	-9.54557
▁anlama	-9.546
▁hayat	-9.54605
▁qəzet	-9.54616
▁Elmlər	-9.54732
▁benzer	-9.54753
▁hakimi	-9.54772
▁avtomobil	-9.54867
▁Olimpiya	-9.54968
▁Soveti	-9.55076
▁sonuna	-9.55091
▁XVIII	-9.55104
▁azərbaycanlılar	-9.55112
ek	-9.55127
▁eski	-9.55142
▁2003-	-9.55152
▁olmasını	-9.55245
▁xadimi	-9.55332
▁hafta	-9.55373
▁əsər	-9.55433
▁elmlər	-9.5562
▁aparıla	-9.55663
▁top	-9.55665
▁daşıyır	-9.55921
▁Akademiyasını	-9.55983
▁rəngli	-9.55991
▁fakültəsini	-9.56068
▁milyar	-9.56079
ləşmiş	-9.56124
▁gecə	-9.56253
▁forma	-9.56345
unun	-9.56455
▁necə	-9.56463
▁Me	-9.56598
▁Avroviziya	-9.56627
▁tibb	-9.56656
▁gedir	-9.56703
▁şairi	-9.56718
do	-9.56857
ch	-9.56967
tar	-9.5699
dığı	-9.57049
▁yayılmış	-9.57065
▁kilsə	-9.57118
▁silah	-9.57133
▁bitir	-9.57181
▁alim	-9.57211
▁İstanbul	-9.57355
leme	-9.57425
▁Musiqi	-9.57467
▁zəif	-9.57543
▁üstünlük	-9.57685
▁əvvəlcə	-9.57717
▁meşə	-9.57741
▁incəsənət	-9.57834
tü	-9.57845
▁çəkilmiş	-9.57864
▁Avropada	-9.57937
▁zamanlar	-9.5805
▁tayfa	-9.58051
▁mal	-9.58074
▁coğrafi	-9.58082
▁Paşa	-9.58084
▁fəlsəfə	-9.58085
▁Qazax	-9.58112
mu	-9.58158
▁tədqiqat	-9.58199
▁Əmir	-9.58276
▁tamam	-9.58332
▁hüququ	-9.58447
▁prezident	-9.58609
▁Süleyman	-9.58742
▁Araz	-9.58842
▁müalicə	-9.58861
▁İttifaqı	-9.58925
▁çar	-9.58965
▁herkes	-9.58994
▁sizi	-9.59002
▁qalmış	-9.59188
▁xalça	-9.59265
▁şəhərini	-9.59459
▁əsərində	-9.59558
▁Muxtar	-9.59566
▁aile	-9.59729
▁forması	-9.59787
▁birisi	-9.59891
kan	-9.59963
lanmış	-9.60013
çilik	-9.60026
▁yaranmışdı	-9.60077
▁yarım	-9.60161
▁yine	-9.60277
▁yeddi	-9.60367
▁nümayiş	-9.60462
tim	-9.60498
▁birində	-9.60637
▁ha	-9.60765
▁kimse	-9.6082
▁Di	-9.60861
yev	-9.60933
▁Mir	-9.60939
▁final	-9.61077
▁müqavilə	-9.61189
▁qəzeti	-9.61218
▁yerində	-9.61245
▁qəsəbə	-9.61313
▁tipli	-9.61332
▁hökumət	-9.61364
▁Əhali	-9.61397
▁Qırmızı	-9.61446
▁tikilmiş	-9.61446
▁Məh	-9.61448
▁hökmdarı	-9.61461
▁Az	-9.61488
▁1988-	-9.61566
▁nadir	-9.61591
▁Bugün	-9.61773
çe	-9.61799
▁şunu	-9.61841
▁olmadan	-9.61883
▁hatta	-9.61893
▁1999-	-9.61938
▁mürəkkəb	-9.61998
▁birini	-9.62009
▁cinsi	-9.6208
▁mümkündür	-9.62165
▁dedim	-9.62206
▁hepsi	-9.62244
▁San	-9.62323
ot	-9.62331
▁qüvvələri	-9.62361
▁31	-9.62432
▁hiss	-9.6244
▁komandası	-9.62476
▁500	-9.6249
▁kənddə	-9.62598
▁bak	-9.62654
▁dövlətini	-9.62662
▁fiziki	-9.62712
▁şərait	-9.62757
▁ailəsində	-9.62764
▁cəmi	-9.62822
▁istiqamətində	-9.63052
▁Elmi	-9.63061
am	-9.63085
lük	-9.63143
imiz	-9.63181
▁Neden	-9.63212
▁ordeni	-9.63295
▁sistemində	-9.63329
▁çıxdı	-9.63354
sk	-9.63566
▁x	-9.63585
film	-9.63734
▁yaşı	-9.63742
▁yaşadığı	-9.63751
▁toplum	-9.638
▁suyun	-9.63811
▁tahmin	-9.63889
▁əhəmiyyət	-9.63948
а	-9.63999
▁oyunda	-9.64105
▁yoldaşı	-9.64231
son	-9.6426
▁Paris	-9.64271
▁çoxu	-9.64288
▁bildirir	-9.64372
▁den	-9.64441
▁Qafqazda	-9.64485
▁bin	-9.6463
▁mədəniyyəti	-9.64666
▁70	-9.64719
▁güç	-9.64785
ton	-9.64875
mağa	-9.65001
▁tutan	-9.65008
▁Bərdə	-9.6502
▁qida	-9.65048
▁Rə	-9.65153
▁2001-	-9.65165
▁köməyi	-9.65215
▁yenə	-9.65279
▁etdirə	-9.65306
▁müvafiq	-9.65363
▁uzaq	-9.65366
▁şeyin	-9.65374
ayrı	-9.65508
▁çətin	-9.65573
▁qadınlar	-9.65584
▁gerek	-9.65615
▁Seyid	-9.65621
▁vəziyyəti	-9.6575
▁yaz	-9.65756
▁hadisələr	-9.65809
▁saray	-9.65878
mızı	-9.65898
▁gösteriyor	-9.65945
▁sürətlə	-9.65983
van	-9.66
▁Hərbi	-9.66051
▁seçki	-9.66126
▁keçdi	-9.66145
▁direktoru	-9.66146
▁Universitetində	-9.66226
▁sahədə	-9.66245
▁qaldı	-9.66252
▁bayrağı	-9.66393
▁İnsanlar	-9.66549
▁ton	-9.6656
▁Co	-9.66562
▁səviyyəsində	-9.66566
▁tip	-9.6663
▁gəlinir	-9.66641
▁Aşağı	-9.66704
▁va	-9.66728
▁Molla	-9.66774
▁texniki	-9.66817
▁telefon	-9.66819
▁yük	-9.66842
▁qalmışdı	-9.66858
▁normal	-9.6686
▁ilkin	-9.66877
▁daxilində	-9.66905
S	-9.66966
▁görüş	-9.66999
▁tərtib	-9.67084
▁etnik	-9.67094
▁yap	-9.67119
▁ölçü	-9.67133
▁həyatında	-9.67208
▁ölkələrində	-9.67247
▁Nadir	-9.6732
е	-9.67325
ayəsində	-9.67399
▁aldığı	-9.6746
min	-9.67586
▁ak	-9.67852
▁müddətdə	-9.67867
▁gördüğünüz	-9.67911
▁plan	-9.67946
▁kolay	-9.67989
▁bence	-9.68012
▁qar	-9.6804
▁çünk	-9.68078
▁Ra	-9.68099
▁təqrib	-9.6814
▁yaradıcılığı	-9.68163
▁onlarla	-9.68194
▁yaranmış	-9.68352
▁klassik	-9.68375
▁kabul	-9.68376
▁vaxtı	-9.68392
luk	-9.68591
▁təsis	-9.68614
▁kısa	-9.68648
as	-9.68662
▁dillərində	-9.68662
▁No	-9.68678
▁sahə	-9.68705
▁sarı	-9.68717
▁buraya	-9.68723
▁Ko	-9.68776
▁Ərəb	-9.68834
▁quruluşu	-9.68842
▁dövrünü	-9.68877
▁məscid	-9.68971
▁neler	-9.69007
▁2012-	-9.69146
▁sisteminin	-9.69269
caq	-9.69285
▁amma	-9.69331
▁dilini	-9.69334
▁2011-	-9.69533
▁2013-	-9.69676
▁etdirmişdi	-9.69758
▁kap	-9.69833
▁yaptığı	-9.69839
▁məktəbdə	-9.69853
▁Mi	-9.69868
▁İranda	-9.69938
▁qalıqları	-9.70034
▁ayı	-9.70036
lanan	-9.70051
▁xətti	-9.70136
nızı	-9.70141
▁rəng	-9.70151
5	-9.70298
▁prosesi	-9.70447
▁suyu	-9.70487
▁iqlim	-9.70516
▁vəzifəsinə	-9.7062
▁20-	-9.70622
0	-9.70634
ıp	-9.70685
▁Allahı	-9.70794
▁yay	-9.70955
▁kez	-9.70994
▁məktəbin	-9.71082
▁ses	-9.71089
ının	-9.71128
▁tərkibin	-9.71178
▁bağ	-9.71231
▁xanı	-9.71232
▁Abşeron	-9.71268
ga	-9.71299
▁35	-9.71322
▁müəllimi	-9.71332
▁İş	-9.71336
▁maliyyə	-9.71369
▁ş	-9.71405
▁artır	-9.71414
mışdır	-9.71465
▁səhnə	-9.71477
▁alınmışdı	-9.71508
▁görme	-9.71534
▁kar	-9.71635
▁dəstə	-9.71694
▁edilmişdi	-9.71698
▁Zaqafqaziya	-9.7172
▁general	-9.71824
▁neredeyse	-9.71859
▁geç	-9.71922
▁Moskvada	-9.71931
▁yapmaya	-9.72081
▁müğənni	-9.72085
▁olmaya	-9.72087
▁Sonralar	-9.72087
▁Vətən	-9.72094
▁İsa	-9.72109
▁vergi	-9.72142
▁Ar	-9.72208
▁deyir	-9.72306
▁Füzuli	-9.7233
▁miqdarı	-9.72349
▁1994-	-9.72424
▁başladılar	-9.72429
lanma	-9.72468
▁yaratmışdı	-9.72507
j	-9.72539
▁düşmən	-9.72541
▁edilirdi	-9.72607
▁Ye	-9.72639
▁değildir	-9.72681
sak	-9.7276
▁tedavi	-9.7282
▁ilişki	-9.72841
ve	-9.7285
▁metal	-9.72872
▁Hüseynov	-9.72944
▁inkişafında	-9.72961
yız	-9.72974
▁vəziyyətdə	-9.73054
rken	-9.73069
▁nəzarət	-9.73084
▁York	-9.73096
▁Ukrayna	-9.73187
▁İsrail	-9.7319
▁dərəcə	-9.73204
▁miqdar	-9.73236
▁kök	-9.73276
▁dolayı	-9.73313
▁mənşəli	-9.73322
ologiya	-9.73323
▁mərkəz	-9.73339
▁qanun	-9.7337
▁öncə	-9.73376
▁ı	-9.73425
▁yolla	-9.73435
▁değildi	-9.7346
▁can	-9.73492
▁xanlığı	-9.73495
▁gece	-9.73711
▁edilə	-9.73807
mda	-9.74038
ze	-9.74042
▁üsyan	-9.74077
▁dövrlərdə	-9.74178
▁açı	-9.74187
▁Qeyd	-9.74205
▁katibi	-9.74209
▁silahlı	-9.74245
▁Tiflis	-9.74261
▁tələbə	-9.74275
▁çıktı	-9.74372
▁qismi	-9.74431
▁Do	-9.74481
P	-9.74607
▁səbəbdən	-9.74608
▁keçirir	-9.74746
▁tədqiqatlar	-9.74769
▁daşı	-9.74799
▁Fətəli	-9.74807
ıb	-9.74835
▁özellikle	-9.74867
▁Türkiyədə	-9.74904
▁dilləri	-9.74936
▁Ba	-9.75028
▁verilən	-9.75251
▁əlaqə	-9.75377
▁sırasında	-9.75395
▁varsa	-9.75456
▁Kendi	-9.75468
▁teatrın	-9.75515
▁yapan	-9.75521
▁vahid	-9.75615
▁dərəcədə	-9.75627
sek	-9.7566
▁vaxtda	-9.75747
▁qələm	-9.75914
▁bitirdik	-9.75921
▁qiymətli	-9.76067
▁genel	-9.76068
+	-9.76068
▁üzere	-9.76069
▁gelecek	-9.76166
▁başında	-9.76191
▁şəhərdə	-9.76251
▁sənəti	-9.7626
▁dağlıq	-9.76308
▁derece	-9.76414
▁həyatını	-9.76423
▁tərkibi	-9.76463
▁ortalarında	-9.76486
▁qolu	-9.76549
▁kal	-9.7655
▁1930	-9.76583
ünü	-9.7663
▁Ayrıca	-9.76718
mayı	-9.76729
▁keçirilməsi	-9.76748
▁4-	-9.7676
suz	-9.76818
ış	-9.7683
▁Ge	-9.76839
▁Orada	-9.76935
▁kitabxana	-9.76985
▁müqayisə	-9.7709
▁ışık	-9.77253
▁gerekiyor	-9.77296
qətlə	-9.77318
▁tikinti	-9.77331
▁IV	-9.77369
▁İspaniya	-9.77378
dum	-9.7739
dakı	-9.77422
▁həkim	-9.77462
▁çalış	-9.77474
▁Neft	-9.77477
▁ifade	-9.77481
▁çalışıb	-9.77481
▁Qala	-9.77489
▁Na	-9.77505
▁yere	-9.77517
▁real	-9.77532
▁300	-9.77533
▁quruluş	-9.77582
▁abidə	-9.77583
▁değer	-9.77587
mək	-9.776
▁doğma	-9.77616
▁proje	-9.77625
▁J	-9.77634
▁təcrübə	-9.77647
▁öldü	-9.777
▁Mahmud	-9.77731
▁Sumqayıt	-9.77862
▁təkrar	-9.77863
▁mətbuat	-9.7788
▁yola	-9.77906
▁_	-9.77992
▁The	-9.78005
▁nüfuz	-9.78013
▁Qərb	-9.78063
▁Z	-9.78106
▁tut	-9.78116
▁yarısında	-9.78165
▁Mü	-9.78204
▁əsrə	-9.78205
▁qış	-9.78226
▁başladım	-9.78232
▁iletişim	-9.78251
lma	-9.78265
▁qarşısını	-9.78266
▁verici	-9.78288
▁qabaq	-9.78314
▁TED	-9.78381
▁əsir	-9.78392
zə	-9.78411
▁verme	-9.78417
▁göstərmiş	-9.78423
▁işin	-9.78463
▁doğal	-9.78468
▁deniz	-9.7862
▁Erməni	-9.7866
▁adətə	-9.78667
▁kəşf	-9.78715
▁göstərilir	-9.78719
▁xalqın	-9.78725
▁Re	-9.78826
▁mənsub	-9.78832
▁təşkilat	-9.78876
▁Bunları	-9.789
▁kullan	-9.78907
▁ruh	-9.7901
▁tamaşa	-9.79129
▁kifayət	-9.79163
▁1919-	-9.79296
ılmış	-9.79312
bu	-9.79318
▁vilayəti	-9.79346
▁sakinləri	-9.79349
▁grup	-9.79381
▁yazmışdı	-9.79398
oloji	-9.794
▁tarixdə	-9.79403
▁düzgün	-9.79431
ay	-9.79492
▁oluna	-9.79494
▁ixtisas	-9.79564
ıl	-9.79574
▁təbiət	-9.79578
▁yaptığımız	-9.79672
▁t	-9.79689
▁etməklə	-9.79717
▁məhsulları	-9.7972
▁Se	-9.79732
▁heyəti	-9.79732
▁ulduz	-9.79738
▁1970-	-9.79795
▁təlim	-9.79798
▁görünür	-9.79816
▁surət	-9.79839
B	-9.79889
▁çatır	-9.79932
▁kol	-9.80083
▁qonşu	-9.80085
▁Üç	-9.80102
▁2000	-9.80158
▁vermək	-9.80171
▁İsveç	-9.80213
▁deputat	-9.80217
▁Mars	-9.80223
▁düşünün	-9.80243
▁ölkələrin	-9.80254
▁yapıyor	-9.80318
▁imti	-9.80353
▁Birliyini	-9.80449
â	-9.80457
şa	-9.8047
▁Cəlil	-9.80482
▁təsərrüfat	-9.80528
başa	-9.80555
▁sözünü	-9.80634
▁olacaq	-9.80637
▁yaratmaq	-9.80643
▁mənbələrdə	-9.80661
▁90	-9.80726
güman	-9.8104
▁An	-9.81106
▁yazırdı	-9.81128
▁Müasir	-9.81148
▁bölünür	-9.8115
▁sahil	-9.81189
unda	-9.81194
▁köhnə	-9.81281
▁İnstitutunda	-9.81409
▁başlıca	-9.81418
▁heyvandarlıq	-9.81426
▁Ka	-9.81519
▁di	-9.81561
▁yaşa	-9.81569
▁yaş	-9.81624
bə	-9.81634
▁xilas	-9.81684
▁aparılmış	-9.81731
▁məhkəmə	-9.81754
▁edildiyi	-9.81766
▁Tüm	-9.8179
rak	-9.81923
▁Aşıq	-9.81953
▁haqda	-9.81953
gen	-9.81987
▁test	-9.81999
▁səkkiz	-9.82087
▁XVI	-9.82088
nizi	-9.82166
▁et	-9.82167
▁qüvvə	-9.8217
▁1960-	-9.82177
▁möhkəm	-9.8222
ilmiş	-9.82233
▁kullanarak	-9.82233
▁redaktoru	-9.82239
▁ömrünü	-9.82292
▁hissələri	-9.82292
▁1998-	-9.82296
▁olduğumuz	-9.82306
▁hissədə	-9.82451
▁geçen	-9.8254
diyi	-9.82544
▁göstərmək	-9.82547
▁v	-9.82701
▁yavaş	-9.82767
▁Bizans	-9.82771
▁hasta	-9.82835
▁çöl	-9.82844
▁Kənddə	-9.82845
▁başlamış	-9.82852
▁bakın	-9.82863
▁içine	-9.82943
▁səfər	-9.82987
▁görür	-9.8301
larımız	-9.83043
▁boya	-9.83096
▁ehtimal	-9.83118
▁ölkələr	-9.83148
▁yılda	-9.83151
▁övladı	-9.83165
▁deyildi	-9.83188
ing	-9.83239
▁gir	-9.83242
▁düşünce	-9.83248
▁keçirdi	-9.8327
▁sonuncu	-9.83343
▁tərəfi	-9.83356
=	-9.83445
▁bazar	-9.83483
ley	-9.83577
▁sonu	-9.83597
▁la	-9.83679
▁Yaponiya	-9.83745
▁sanat	-9.83766
▁anlamı	-9.83805
▁rayonun	-9.83816
siya	-9.8382
▁əlində	-9.83833
▁dakika	-9.83865
əgər	-9.83906
▁öğren	-9.8396
w	-9.8397
▁Aynı	-9.83993
▁gümüş	-9.83995
ydu	-9.84026
yorum	-9.84088
üz	-9.84122
▁mavi	-9.84157
▁qarşılıq	-9.8418
C	-9.8423
▁olmalı	-9.84333
▁arasındaki	-9.84371
▁sənayesi	-9.84381
▁xristian	-9.84388
▁mühəndis	-9.84391
landı	-9.84399
▁siyasəti	-9.845
▁karmaşık	-9.84507
▁verildi	-9.84531
▁akademik	-9.84545
▁söyle	-9.84631
▁güven	-9.84672
▁Komitəsi	-9.84698
▁Kanada	-9.84703
abiliriz	-9.84738
▁müqəddəs	-9.84822
▁Öz	-9.84826
▁Respublikasında	-9.84915
yorsunuz	-9.84953
tur	-9.85012
▁atəş	-9.85073
▁1995-	-9.8512
▁edil	-9.85187
▁yoktu	-9.85275
▁xal	-9.85473
▁adi	-9.85499
▁nəzdində	-9.85517
▁kamera	-9.85517
aşayış	-9.85527
▁haber	-9.85533
▁sat	-9.85544
▁elektron	-9.85563
▁yı	-9.85611
ver	-9.8564
▁derin	-9.8566
▁məscidi	-9.85759
▁kəskin	-9.85786
▁adında	-9.858
▁Güney	-9.85805
▁çeşit	-9.85867
▁mənası	-9.85875
▁şəxslər	-9.85922
▁Laçın	-9.86079
▁klub	-9.86126
▁vuru	-9.86271
▁ek	-9.86318
▁bilmir	-9.86318
▁parlaq	-9.86358
▁nəticəsi	-9.8636
▁deyildir	-9.86394
▁2014-	-9.86399
▁Qəhrəmanı	-9.86428
▁y	-9.86429
▁ərazilərdə	-9.86431
▁altın	-9.86497
M	-9.86498
▁ç	-9.86532
▁Axundov	-9.86651
▁acı	-9.86664
▁sonraki	-9.86688
▁uzay	-9.86784
▁xüsusiyyətləri	-9.86816
▁Komitəsini	-9.86907
▁Nobel	-9.86925
▁Birliyi	-9.86934
▁etdikdə	-9.86998
▁etdikləri	-9.87018
▁Bil	-9.87024
▁işləyi	-9.87038
▁Gənc	-9.87198
yir	-9.87239
▁no	-9.87258
▁tətbiqi	-9.87279
▁gətiri	-9.87282
▁əsası	-9.87297
R	-9.8744
▁məqalə	-9.87483
▁1974	-9.8749
▁yerləşdiyi	-9.875
▁nümunələri	-9.87506
▁atı	-9.87526
▁müharibəsində	-9.87529
▁aktyoru	-9.87537
▁əksər	-9.87547
▁ihtiyacımız	-9.87548
▁sağlık	-9.87609
▁Nəticə	-9.87633
▁nüvə	-9.87633
▁1945	-9.87634
▁Avstriya	-9.87775
▁Yalnız	-9.87776
▁etməyi	-9.87791
▁Cavanşir	-9.87793
op	-9.87859
▁30-	-9.87869
▁çıxmış	-9.87901
▁nümayəndəsi	-9.87908
▁Albaniya	-9.87915
▁atom	-9.8792
▁ortak	-9.87927
▁İl	-9.87933
▁kitabında	-9.87994
▁Ölkə	-9.88036
▁siyasət	-9.88038
▁Xaric	-9.88062
▁Əbu	-9.8809
▁müqaviləsi	-9.88124
qu	-9.88153
▁adamı	-9.88173
▁əmr	-9.88237
▁sonlarında	-9.88272
▁Yazıçılar	-9.88289
▁sərbəst	-9.88355
▁rağmen	-9.88492
diğimiz	-9.8851
▁tasarım	-9.88521
▁1997-	-9.88526
▁2015-	-9.88528
▁aparıcı	-9.88548
▁boz	-9.88579
ənəvi	-9.88598
▁olmaz	-9.88598
▁seçilir	-9.88649
sın	-9.88653
muz	-9.88691
▁Dəniz	-9.88782
▁biliyoruz	-9.888
▁tədqiq	-9.8883
▁İlham	-9.88925
▁seçilmişdi	-9.8894
▁keçə	-9.88947
▁san	-9.88976
▁aylarında	-9.89049
▁Quliyev	-9.89069
▁xarakteri	-9.89069
▁kan	-9.89097
laşma	-9.89151
▁giriş	-9.89163
▁alıp	-9.89226
▁imkanı	-9.89247
ax	-9.89317
▁UEFA	-9.89358
▁tanınır	-9.89378
▁Cümhuriyyəti	-9.894
asiya	-9.8949
▁1972	-9.89503
▁kur	-9.8954
▁150	-9.89543
▁əməliyyat	-9.89589
▁aşı	-9.89597
▁Göy	-9.89638
▁müsabiqə	-9.89658
▁əsərlər	-9.8969
▁ölümü	-9.89711
▁yerləri	-9.89735
▁çəkilə	-9.89757
▁beraber	-9.89762
▁Belki	-9.89823
▁ikisi	-9.89913
▁şirkəti	-9.89928
▁2009	-9.90008
iyoruz	-9.90013
▁seçilmiş	-9.90089
▁verirdi	-9.90148
▁polis	-9.90175
▁Ana	-9.90182
lerimiz	-9.90221
▁kafa	-9.9029
▁ekonomi	-9.90307
▁ver	-9.90336
▁1981	-9.90379
ktan	-9.9038
▁rəisi	-9.90429
▁yapılan	-9.90432
▁okul	-9.90443
▁kütləsi	-9.90522
▁verib	-9.90645
▁1989-	-9.90651
▁sənəd	-9.90655
▁göy	-9.90683
▁həftə	-9.90698
▁alban	-9.90705
▁erkek	-9.90771
▁asla	-9.90793
▁oranı	-9.90808
▁əkinçilik	-9.90825
▁mərhələ	-9.90852
▁adamları	-9.90895
▁sultan	-9.90958
о	-9.91048
▁Atası	-9.91095
▁rəssam	-9.91119
▁uşaqlar	-9.91354
▁Ro	-9.9138
▁görmek	-9.91392
▁söhbət	-9.91414
▁düşünüyorum	-9.91421
▁ölkələri	-9.91477
▁oyunu	-9.91482
▁Xan	-9.91513
▁ele	-9.91694
▁mə	-9.9172
bil	-9.91753
xan	-9.91765
▁alınması	-9.91792
po	-9.91853
▁görüyorsunuz	-9.9186
▁mövzusunda	-9.91899
▁Yüz	-9.92027
gah	-9.92077
▁Təhsil	-9.92162
▁cəmiyyətin	-9.92171
▁qazana	-9.92172
▁yağ	-9.9219
▁bas	-9.92191
▁Səfəvilər	-9.92274
yü	-9.92319
▁dərəcəsi	-9.925
▁hücre	-9.92505
▁qaya	-9.92526
▁Oykonim	-9.92601
▁as	-9.92681
▁hündürlüyü	-9.92727
▁çocuklar	-9.92815
asyon	-9.92829
▁günəş	-9.92938
mesi	-9.92943
▁5-	-9.92977
▁kimya	-9.92979
▁kilometr	-9.9309
▁mənəvi	-9.93108
▁gitme	-9.93111
▁Te	-9.93169
▁boş	-9.93263
▁g	-9.93308
▁məsələ	-9.93336
▁Ordubad	-9.93353
▁hazırlanması	-9.93565
▁güc	-9.93605
▁yumurta	-9.93652
▁icazə	-9.93657
▁görebilirsiniz	-9.93662
▁yaptık	-9.93686
▁Rusiyada	-9.93734
▁oda	-9.93906
ac	-9.93952
▁mineral	-9.93958
▁bakış	-9.93975
▁buz	-9.93975
▁bəstəkar	-9.93981
▁xidmətləri	-9.94035
▁şərəfin	-9.94052
▁habe	-9.94149
▁şeir	-9.94243
▁görülü	-9.94395
▁adından	-9.94403
▁təsviri	-9.9449
▁qəza	-9.94491
▁yarı	-9.94528
▁proqram	-9.9455
▁Mehdi	-9.94561
▁iştirakı	-9.94562
▁binası	-9.94605
▁değişim	-9.94672
▁dəqiqə	-9.94713
▁teşekkür	-9.94763
▁yaratdığı	-9.94792
▁Tarix	-9.94818
xa	-9.94935
▁yaptı	-9.94944
▁gözü	-9.94959
▁etmeye	-9.9496
sam	-9.94977
▁olurlar	-9.94977
▁sərhəd	-9.94985
▁1968	-9.95027
▁maddə	-9.95031
▁etsə	-9.95043
▁verilməsi	-9.95059
ban	-9.95108
▁asan	-9.95138
▁hamısı	-9.95167
▁1978	-9.95181
▁güneş	-9.95183
▁hep	-9.95197
meyi	-9.95205
▁yardımcı	-9.95259
▁45	-9.95264
▁Yerli	-9.95294
▁Dağlı	-9.95324
▁imza	-9.95331
I	-9.95338
yım	-9.95369
▁İranı	-9.95404
▁mis	-9.95494
▁korku	-9.95526
▁Rza	-9.95659
▁ettim	-9.95671
acağım	-9.95695
▁düşündüm	-9.95727
▁fikrinc	-9.9573
mıştı	-9.95759
▁seç	-9.95776
▁İsgəndər	-9.95807
▁olanlar	-9.95837
▁deney	-9.9585
▁Əməkda	-9.95869
▁iz	-9.95874
▁arası	-9.95913
▁apara	-9.95936
▁Hava	-9.95937
E	-9.95947
▁muhtemelen	-9.95967
▁yaradıcılıq	-9.95982
▁orqanları	-9.95988
▁bırak	-9.96198
▁nəzəriyyəsi	-9.9627
▁göstərirdi	-9.96352
▁gələcək	-9.96353
▁sanki	-9.96382
▁əmri	-9.96399
▁soyuq	-9.96402
oz	-9.9647
▁sen	-9.96493
▁Ara	-9.96558
▁do	-9.96616
▁ada	-9.96699
▁İnternet	-9.9673
▁Ni	-9.96755
▁İbn	-9.96765
layan	-9.96785
▁ulaş	-9.96804
▁1996-	-9.96805
▁Federasiyası	-9.9684
▁dikkat	-9.96863
▁arı	-9.96883
▁bazen	-9.96898
▁döyüşdə	-9.969
▁olduqda	-9.96922
▁tarixinə	-9.96923
▁kəndindən	-9.96956
qları	-9.97009
▁Avrupa	-9.97043
▁Məşə	-9.97043
▁olup	-9.97046
▁kelime	-9.97059
▁Büyük	-9.971
▁adamlar	-9.97109
dık	-9.97148
▁Yuxarı	-9.97175
kənd	-9.97185
▁Tofiq	-9.97199
▁zamanlarda	-9.97327
▁namizədi	-9.97367
T	-9.97416
▁seçim	-9.97429
▁qəhrəman	-9.97475
▁Əvvəl	-9.97477
▁gürcü	-9.97477
maz	-9.97478
▁sevgi	-9.9749
▁rolunu	-9.97598
▁yarısı	-9.97602
▁etiraz	-9.97671
▁rahat	-9.97698
▁yaşlarında	-9.97709
▁işləyir	-9.97826
▁durumu	-9.97827
ör	-9.97851
▁kompüter	-9.97914
▁dağları	-9.9796
▁gəlməsi	-9.98005
▁əsərlərini	-9.9805
▁qatı	-9.98083
▁Əl	-9.98146
bo	-9.98221
▁götür	-9.98226
▁yerini	-9.9823
▁1967	-9.98304
▁XVII	-9.98308
▁Tə	-9.98335
▁deneyim	-9.98342
▁əvvəllər	-9.98344
malıyız	-9.98364
▁Akademi	-9.98413
▁Nazir	-9.9843
▁1976	-9.98462
▁nedir	-9.98472
▁sebep	-9.98479
▁Prezident	-9.98491
▁dışında	-9.98503
▁yılında	-9.98548
▁Qəbələ	-9.98621
▁mənasını	-9.98641
▁çek	-9.98734
▁hörmət	-9.9878
▁hangi	-9.98781
▁olmaması	-9.98782
▁merak	-9.98785
▁çəkilmişdi	-9.98819
▁çıxıb	-9.98942
▁Hacıbəyov	-9.98949
▁yaranan	-9.98963
▁formada	-9.98977
▁milyard	-9.98983
▁küresel	-9.99099
▁sayılan	-9.99105
▁sak	-9.99126
▁Partiyası	-9.99127
▁olacağını	-9.99244
▁tutdu	-9.99296
▁Mo	-9.99341
▁2008	-9.99389
▁temperatur	-9.99392
▁şöbə	-9.99508
▁çevrilmişdi	-9.99533
▁Diğer	-9.9958
▁büyü	-9.99729
▁Yaxın	-9.99741
▁ince	-9.99849
pi	-9.99882
▁dünyayı	-9.99891
▁Cəbrayıl	-9.99902
▁saxlanılır	-9.99903
▁bilmədi	-9.99968
▁bilən	-10.0002
ku	-10.0003
▁Cabbarlı	-10.0011
▁kilsəsi	-10.0015
▁dollar	-10.0019
▁Musa	-10.0021
▁sebebi	-10.0021
▁kendini	-10.0023
▁divarları	-10.0027
▁başarı	-10.0031
▁yaranır	-10.0033
yon	-10.0034
▁insanı	-10.0038
▁1969	-10.0039
.000	-10.0041
▁Başka	-10.0043
yoruz	-10.0046
leriyle	-10.0046
▁gələ	-10.0047
▁pis	-10.0049
▁taxta	-10.0049
▁məqsəd	-10.0056
▁hərəkatı	-10.0063
▁bunlardan	-10.0063
tiv	-10.007
▁2016-	-10.0072
▁maddələr	-10.0072
▁dəqiqləşdirmə	-10.0073
▁fizika	-10.0075
ala	-10.0075
▁400	-10.0077
dığımız	-10.008
▁Qar	-10.0081
▁Kərim	-10.0085
▁mənim	-10.0088
▁Nyu	-10.0091
▁hepimiz	-10.0092
▁sev	-10.0098
▁səviyyəsi	-10.0102
▁karbon	-10.0104
▁Tibb	-10.0104
▁destek	-10.0105
yum	-10.0111
▁nazir	-10.0113
▁1959	-10.012
▁dəyişir	-10.0121
▁gölü	-10.0123
▁bi	-10.0135
▁çərçivəsində	-10.0137
▁etki	-10.0137
ut	-10.0137
▁strateji	-10.0142
▁keyfiyyət	-10.0144
▁alətləri	-10.0145
tə	-10.0156
▁yolları	-10.0156
çay	-10.016
siyasi	-10.0161
ru	-10.0161
▁risk	-10.0164
▁1971	-10.0169
ren	-10.017
▁dərəcəli	-10.0171
▁adım	-10.0178
▁hayatta	-10.0185
▁1938	-10.0186
▁problemləri	-10.0186
▁Amerikan	-10.0203
▁almak	-10.0204
▁roman	-10.0208
▁işini	-10.0214
▁çevrildi	-10.0214
sü	-10.0215
lanır	-10.0216
▁həqiq	-10.0217
▁təhsili	-10.0217
▁dəstəsi	-10.0217
▁içerisinde	-10.0222
ev	-10.0224
▁konuda	-10.0224
▁filmində	-10.0227
lığın	-10.0229
▁Kral	-10.023
▁alimi	-10.0232
▁Hələ	-10.0233
▁bekle	-10.0233
▁kəndləri	-10.0243
▁Federasiyasında	-10.0243
rhal	-10.0245
▁eder	-10.0246
▁ürək	-10.0253
▁ister	-10.0255
▁Za	-10.0255
▁Akademiyası	-10.0258
diği	-10.0262
▁xəlifə	-10.0268
▁ekonomik	-10.0275
K	-10.0275
▁əsərin	-10.0276
▁sürekli	-10.0286
▁görüntü	-10.0287
▁düşən	-10.0294
▁zə	-10.0296
▁Səfəvi	-10.0304
▁Ü	-10.0306
▁bəziləri	-10.0311
▁abidələri	-10.0316
▁beri	-10.0319
▁problemi	-10.0321
▁vermek	-10.0327
▁nun	-10.0329
▁torpaqları	-10.033
▁kral	-10.033
▁göndərdi	-10.0332
▁aparılır	-10.0334
▁əlverişli	-10.0335
▁takip	-10.0338
rilib	-10.034
▁kısmı	-10.0341
birinə	-10.0361
pol	-10.0364
▁1000	-10.0377
▁fərqlənir	-10.0378
▁yürüş	-10.0386
▁mahnısı	-10.0388
▁eş	-10.0391
▁Xocalı	-10.0393
▁universitetin	-10.0396
rdı	-10.0396
▁defa	-10.04
▁çevrilir	-10.0402
▁kesinlikle	-10.0403
▁2006	-10.0418
▁Bunlarda	-10.0425
▁uygulama	-10.0425
▁universitet	-10.0425
eği	-10.0436
▁sərt	-10.0438
sinden	-10.0438
▁gördük	-10.044
▁faydalı	-10.0442
▁ma	-10.0444
▁binlerce	-10.045
▁məsələləri	-10.0451
▁uygun	-10.0452
▁görüyoruz	-10.0453
▁başarılı	-10.0454
▁Con	-10.0455
▁gil	-10.0462
▁balıq	-10.0472
▁satış	-10.048
▁rəhbər	-10.0481
▁Kəlbəcər	-10.0486
▁edəcək	-10.0488
▁İndi	-10.0488
▁1961	-10.0503
▁tikili	-10.0506
▁qat	-10.051
▁mutlu	-10.0513
▁Fi	-10.0514
▁Le	-10.0515
▁çoxsaylı	-10.0518
▁koy	-10.0519
▁planı	-10.0523
▁bank	-10.0525
▁bölge	-10.0528
if	-10.0535
▁proqramı	-10.0536
▁qismə	-10.0537
▁ayrılır	-10.0541
▁tarixə	-10.0546
▁məsələn	-10.0547
ck	-10.0548
▁gerektiğini	-10.055
▁əvvəlində	-10.0551
▁mükafat	-10.0552
▁səsi	-10.0554
▁şahın	-10.056
▁Sen	-10.056
▁bədən	-10.0561
▁oldular	-10.0562
▁gəmi	-10.0563
▁çəki	-10.0563
▁Kuboku	-10.0565
G	-10.0569
▁gerekli	-10.0573
▁konsert	-10.0578
▁doğa	-10.058
▁opera	-10.0583
▁kompleksi	-10.0594
▁Teatr	-10.0598
▁sənədl	-10.0599
▁medal	-10.0603
▁resmi	-10.0605
mın	-10.0611
▁dram	-10.0612
▁oynayır	-10.0614
▁yazılı	-10.0618
▁ardın	-10.0623
▁bitkilər	-10.0627
▁tərkib	-10.0634
▁uzak	-10.0642
▁rayonlarında	-10.0642
▁okean	-10.0642
▁bulunan	-10.0644
ıldı	-10.065
▁səthi	-10.0651
▁si	-10.0653
▁sün	-10.0655
▁qoyulmuşdu	-10.0658
inden	-10.0662
mar	-10.0665
▁etdirmək	-10.0666
bar	-10.0669
alım	-10.0671
▁öyrənilməsi	-10.0674
▁Bo	-10.0674
metraj	-10.0675
▁arka	-10.0676
▁yaşıl	-10.0678
▁ders	-10.068
nunun	-10.0682
▁meyvə	-10.0686
▁madde	-10.0689
▁1956	-10.0691
▁xidməti	-10.0697
▁Qacar	-10.0698
▁c	-10.072
▁tədbirlər	-10.0724
▁ait	-10.0736
▁dahi	-10.0739
yim	-10.0742
▁Be	-10.0743
▁Alban	-10.0743
▁hedef	-10.0743
▁Ədəbiyyat	-10.0743
▁nedenle	-10.0744
▁Nə	-10.0748
▁muzey	-10.075
▁yana	-10.0751
▁tabi	-10.0755
əslində	-10.0756
▁sık	-10.0759
▁AMEA	-10.076
▁müsbət	-10.076
▁1957	-10.076
▁özünəməxsus	-10.0761
▁laureatı	-10.0762
▁Alman	-10.0762
▁dövrə	-10.0774
üstü	-10.0776
▁alınmış	-10.0787
▁cəhd	-10.0792
▁mirzə	-10.0795
▁səviyyədə	-10.0806
ikən	-10.0811
▁üret	-10.0813
▁London	-10.0813
▁nəzəriyyə	-10.0815
▁Asiyada	-10.0816
▁Cavad	-10.0824
▁tezliklə	-10.0833
▁ni	-10.0835
▁gidiyor	-10.0839
▁döndü	-10.0842
leşme	-10.0843
▁nümayəndə	-10.0843
kən	-10.0846
▁etmə	-10.0848
▁kimyəvi	-10.0848
▁2010	-10.0849
▁jurnalı	-10.0851
▁günə	-10.0852
▁bağlantı	-10.0858
gu	-10.0866
▁ileri	-10.0879
▁Aleksandr	-10.0883
▁mühasirə	-10.0885
▁Sabir	-10.0885
▁Da	-10.0885
▁gedə	-10.0888
▁döyüşlərdə	-10.0892
▁yemek	-10.0893
▁olduqları	-10.0893
▁sabit	-10.0899
▁əsərlərində	-10.0899
L	-10.0904
üs	-10.091
▁şəraiti	-10.0912
▁Dərbənd	-10.0912
▁qərbdə	-10.0915
▁Yunan	-10.0919
▁olay	-10.092
▁ermənilərin	-10.0927
▁ortasında	-10.0929
abil	-10.0932
▁Ərdəbil	-10.0936
▁əkin	-10.0937
av	-10.0941
ylə	-10.0942
▁alimlər	-10.0943
▁Gerçekten	-10.0952
▁İttifaqını	-10.0955
ilen	-10.096
▁şimalda	-10.0962
▁şərqdə	-10.0967
▁anne	-10.0975
▁bura	-10.0975
▁Ban	-10.0976
▁haline	-10.0977
ilir	-10.0985
▁Ordu	-10.0987
▁hökmdar	-10.0989
▁kənarda	-10.099
▁ehtiyat	-10.0992
▁dünyasını	-10.0993
▁32	-10.0996
▁mayın	-10.1002
▁dekabrın	-10.1007
nün	-10.1007
▁olmalıdır	-10.1009
▁mərhələsi	-10.1024
▁qalibi	-10.1024
▁dördüncü	-10.1025
▁nəhəng	-10.1025
▁sürgün	-10.1025
▁hoş	-10.1026
▁tələbələr	-10.1028
▁bəyi	-10.1031
▁dünyadaki	-10.1035
▁məsafə	-10.1036
▁yanvarın	-10.1038
izm	-10.1044
▁bölgəsində	-10.1044
▁ihtiyaç	-10.1046
▁evet	-10.1055
▁yaptım	-10.1057
▁1921	-10.1058
▁Teşekkür	-10.1059
▁İmam	-10.1062
▁azadlıq	-10.1063
diğim	-10.1064
▁asıl	-10.1066
ger	-10.1066
lanması	-10.1066
▁girdi	-10.1068
▁albom	-10.1072
▁cənubda	-10.1076
lması	-10.1077
lamak	-10.1087
▁bilməz	-10.1093
▁Mar	-10.1094
▁1954	-10.1097
▁sahələrində	-10.1104
▁söyledi	-10.1105
▁Qafqazı	-10.1105
ebiliriz	-10.1107
▁vətəndaş	-10.1109
müş	-10.1112
▁Mə	-10.1115
go	-10.1117
▁Xüsusi	-10.1128
▁kazan	-10.1129
▁bayram	-10.1131
▁gidip	-10.1133
▁işaret	-10.1134
▁tarixçi	-10.1136
▁suda	-10.114
▁vahidi	-10.1141
▁sesi	-10.1143
▁Tarixi	-10.1144
▁mükemmel	-10.1151
▁1958	-10.1151
▁Hayır	-10.1151
▁şəkər	-10.1152
▁alanı	-10.1152
▁edecek	-10.1153
▁namizəd	-10.1156
lığını	-10.1165
▁çatdı	-10.1166
▁çiçək	-10.1172
▁rəqs	-10.1173
▁fakültəsində	-10.1184
▁yaradıldı	-10.1184
▁gönder	-10.1185
▁Başqa	-10.1188
▁konuş	-10.1192
sem	-10.1195
▁Təşkilatı	-10.1195
amp	-10.1201
▁əlaqələr	-10.1202
▁ixtisası	-10.1208
▁erkə	-10.1208
dığını	-10.1209
▁albomu	-10.121
▁çıxmışdı	-10.1214
mde	-10.1216
▁Yay	-10.1219
▁iste	-10.122
üxtəlif	-10.122
▁şeye	-10.1221
▁fərdi	-10.1222
▁Fəxr	-10.1224
▁1963	-10.1224
▁Ev	-10.1225
▁vəzifəsini	-10.123
▁çizgi	-10.1235
▁orqanı	-10.1237
▁BMT	-10.1242
abilirsiniz	-10.1243
elim	-10.1243
▁Əmək	-10.1247
▁xalqı	-10.1249
▁Mariya	-10.1251
▁ehtiyac	-10.1257
şərq	-10.1261
▁Bi	-10.1262
▁deki	-10.1263
əksini	-10.1264
▁şöbəsi	-10.1265
▁əlaqələri	-10.1265
aş	-10.127
▁kuru	-10.1281
▁So	-10.1281
▁ediyorum	-10.1285
▁dəyişikliklər	-10.1287
▁tənqid	-10.1288
▁zengin	-10.1297
▁1966	-10.1297
▁sonuç	-10.1299
▁şəhid	-10.1302
▁yaşayırdı	-10.1303
▁dəyişdiril	-10.1307
▁Məclisin	-10.1312
▁müzik	-10.1315
▁ibtidai	-10.1317
▁re	-10.1319
ımız	-10.1326
▁müəllif	-10.1332
▁rejissoru	-10.1335
▁Polşa	-10.1339
▁fərmanı	-10.1342
▁Osman	-10.1348
▁aktiv	-10.1349
▁tanına	-10.1356
▁təşkilatı	-10.1361
▁ölü	-10.1363
ed	-10.1363
▁üsulu	-10.1363
▁tərzi	-10.1364
▁qazanmışdır	-10.1367
▁kadınlar	-10.1367
▁biliyor	-10.1371
▁Fransız	-10.1371
▁zərbə	-10.1372
▁çempionu	-10.1374
▁işarə	-10.1376
ildi	-10.1384
▁1917-	-10.1386
▁taxıl	-10.1389
▁Üze	-10.139
▁düşün	-10.1391
▁Babək	-10.1393
▁proses	-10.1394
▁olduğum	-10.1396
▁tabii	-10.1397
▁qoşun	-10.1401
▁görev	-10.1402
der	-10.1403
▁Kar	-10.1404
▁sayesinde	-10.1408
▁vermişdi	-10.1409
▁kara	-10.1414
▁formul	-10.1418
▁kişinin	-10.1419
mo	-10.142
▁DNA	-10.1426
▁olmur	-10.1426
▁VII	-10.1426
▁çəkilir	-10.1428
yken	-10.1428
▁əhəmiyyəti	-10.1438
▁getir	-10.1444
▁əməkdaşlıq	-10.1445
▁ilgi	-10.1445
ğü	-10.1446
▁formasında	-10.1447
▁başladık	-10.1454
▁çalışırdı	-10.1459
məyə	-10.1459
▁islam	-10.146
▁Baba	-10.146
▁Pedaqo	-10.1463
▁Vaqif	-10.1463
▁düşük	-10.1464
▁yaratdı	-10.1465
▁eni	-10.1466
▁Artı	-10.1467
▁değiştir	-10.1471
▁ortalama	-10.1473
▁Qasım	-10.1474
▁tibbi	-10.1477
▁qəzetində	-10.148
▁2004	-10.1487
▁Şi	-10.1487
▁alınan	-10.1488
▁göstərdiyi	-10.1488
▁gündən	-10.1489
acağız	-10.1494
▁qabiliyyəti	-10.1496
sən	-10.15
▁resim	-10.1503
▁ettik	-10.1506
▁hadisələri	-10.1506
▁metre	-10.1509
▁gəlmək	-10.1513
▁qəzasını	-10.1516
▁Rəssam	-10.152
▁əleyhi	-10.152
▁gel	-10.152
▁kənar	-10.1522
rü	-10.1531
▁olursa	-10.1532
▁vəzifələrində	-10.1535
qqəti	-10.1538
▁ziyarət	-10.1538
▁gedib	-10.1538
▁təpə	-10.1542
ron	-10.1544
▁gördü	-10.1546
▁kapı	-10.1549
▁münasibəti	-10.155
▁hektar	-10.1562
▁mərhələsində	-10.1565
▁statusu	-10.1566
▁olsaydı	-10.157
▁yatırım	-10.1572
▁şehir	-10.1574
▁xırda	-10.1576
▁daşıyan	-10.1577
▁hakimiyyətini	-10.1577
▁tıp	-10.1578
▁İraq	-10.1586
▁6-	-10.1589
▁şəhərləri	-10.1589
▁Gör	-10.1592
▁nerede	-10.1597
▁bol	-10.1607
▁arta	-10.1609
▁imperiyası	-10.1609
▁düşünme	-10.161
▁Suriya	-10.161
▁kəsi	-10.1611
▁başlandı	-10.1613
▁1964	-10.1614
▁mütləq	-10.1614
diğini	-10.1615
gün	-10.1615
N	-10.1615
ud	-10.1622
▁riyaziyyat	-10.1623
▁qa	-10.1625
tor	-10.1631
▁Şirin	-10.1634
▁Ad	-10.1635
▁indiyə	-10.1637
▁gerekir	-10.1637
▁bal	-10.1637
▁kalma	-10.1638
bəyli	-10.1643
ebilecek	-10.1651
▁dəstək	-10.1663
▁çözüm	-10.1675
▁təqvimi	-10.1678
▁yapar	-10.1683
▁burda	-10.1683
▁bitirmiş	-10.1686
▁Qubadlı	-10.169
▁bölgə	-10.1691
▁təbəqə	-10.1694
▁şöhrət	-10.1694
▁Almaniyada	-10.1694
▁divar	-10.1704
ğu	-10.1707
tay	-10.1711
▁dahil	-10.1714
▁veren	-10.1715
▁xalqını	-10.1721
▁orijinal	-10.1728
▁1944	-10.1728
▁kosm	-10.173
▁axır	-10.1736
▁fon	-10.1739
▁1937-	-10.1741
▁rəngdə	-10.1745
▁masa	-10.1747
▁1975-	-10.1749
iç	-10.1755
▁qoymuşdu	-10.1756
lerimizi	-10.176
▁aparır	-10.1761
▁inqilab	-10.1763
kları	-10.1764
▁Qaradağ	-10.1768
kten	-10.1774
▁komandanı	-10.1775
▁günlük	-10.1776
▁müddəti	-10.1778
han	-10.1779
▁düşdü	-10.1779
▁kas	-10.178
▁tapmışdı	-10.1787
▁yolunda	-10.1787
▁bildi	-10.1787
▁tanım	-10.1787
▁1950-	-10.1788
▁gezegen	-10.1793
▁mevcut	-10.1805
▁ətəyində	-10.1806
▁Krım	-10.1807
▁musunuz	-10.1809
▁istəyir	-10.1812
▁keçirmək	-10.1813
▁olmasa	-10.1815
▁fəlsəf	-10.1818
ılması	-10.1822
▁arxa	-10.1823
▁1987-	-10.1824
rat	-10.1824
▁müxbir	-10.1825
▁Oğuz	-10.1825
▁it	-10.1828
▁parlament	-10.1832
▁hata	-10.1842
▁2018	-10.1846
▁yağış	-10.1847
▁təyyarə	-10.1849
▁1941-	-10.1855
ok	-10.1857
▁anlat	-10.1862
▁Müsəlman	-10.1864
▁ABD	-10.1864
▁Göyçə	-10.1864
▁dərman	-10.1864
▁şöbəsini	-10.1867
▁keçirdiyi	-10.1873
▁vaxtlar	-10.1875
▁məlumatın	-10.1877
ük	-10.1877
▁qazıntılar	-10.1879
▁büyüme	-10.1883
▁ardından	-10.1884
▁10-	-10.1886
▁yıldır	-10.1891
men	-10.1892
▁romanı	-10.1898
▁muhteşem	-10.1902
▁Ömər	-10.1902
▁sağlam	-10.1903
▁müzakirə	-10.1908
▁yayın	-10.1909
▁devlet	-10.1915
ho	-10.1915
▁mövqe	-10.1916
▁vurdu	-10.1922
▁demokratik	-10.1922
▁hüquqi	-10.1926
▁tarixini	-10.1926
▁önəmli	-10.193
▁xüsus	-10.1931
▁Üçüncü	-10.1942
▁qalıb	-10.1942
▁anlayışı	-10.1948
▁yağı	-10.1949
▁qoşunu	-10.1952
tal	-10.1955
▁fotoğraf	-10.1955
▁hündür	-10.196
H	-10.1961
▁genetik	-10.1962
▁birliyi	-10.197
▁mühafizə	-10.1971
▁təmiz	-10.1974
mıza	-10.1977
▁redaktor	-10.1978
▁sözlər	-10.1981
cək	-10.1982
iyet	-10.1985
▁olunduğu	-10.1985
larımızı	-10.1986
▁əsərini	-10.1989
sunu	-10.199
▁bilirsiniz	-10.1991
▁biliyorum	-10.1995
▁1943	-10.2001
▁dizi	-10.2002
▁mesaj	-10.2002
▁mənbəyi	-10.2003
▁ardıcıl	-10.2003
▁Muğan	-10.2004
▁yaptığım	-10.2004
▁XIII	-10.2006
▁orman	-10.2007
▁aprelin	-10.201
▁yarat	-10.2011
▁sərkərdə	-10.2012
mez	-10.2013
▁üzündə	-10.2015
▁arzu	-10.2017
▁oğlan	-10.202
wiki	-10.2024
▁ekran	-10.2031
lak	-10.2032
▁muğam	-10.2036
▁Murad	-10.2037
▁artması	-10.2044
▁çalışmış	-10.2046
dilli	-10.2051
▁xalçaları	-10.2054
▁Pir	-10.2055
▁reklam	-10.206
▁tak	-10.2064
▁oynamışdı	-10.2074
▁anlamak	-10.2075
▁keçirildi	-10.2075
▁məişət	-10.208
▁hazırlanır	-10.2085
▁məsləhət	-10.2087
liğin	-10.2087
▁təşəbbüsü	-10.2088
▁sülaləsi	-10.209
▁Səlim	-10.2091
▁1949	-10.21
▁Google	-10.21
▁Kaliforniya	-10.21
▁minlərlə	-10.2114
▁Nəh	-10.2117
▁tikintisi	-10.2118
▁1939	-10.2119
▁qoydu	-10.2121
▁kalan	-10.2122
kret	-10.2127
larıyla	-10.2127
▁İmperiyası	-10.213
▁yedi	-10.2134
▁tanı	-10.2137
▁səhv	-10.2137
liğe	-10.2141
▁me	-10.2142
▁Gəncədə	-10.2148
▁aktrisa	-10.2151
▁Ku	-10.2162
▁pedaqo	-10.2165
▁həlli	-10.2166
▁sor	-10.2168
▁şeirlər	-10.2168
▁park	-10.2169
▁gücünü	-10.2173
▁algı	-10.2179
▁təsəvvür	-10.2179
▁kişisel	-10.2189
▁sırada	-10.2192
▁cəbhə	-10.2195
▁Braziliya	-10.22
▁sayfa	-10.2202
▁görünüyor	-10.2204
▁çıkan	-10.2205
▁kitabın	-10.2206
V	-10.2207
▁öğret	-10.2217
▁Qarabağda	-10.2218
▁İcra	-10.222
▁tepki	-10.222
ımı	-10.2225
▁hayvan	-10.2237
▁tipi	-10.2242
▁gördüm	-10.2242
▁İngilis	-10.2243
▁Tiflisdə	-10.2247
▁filmlərini	-10.2247
▁paytaxt	-10.225
▁tayfasını	-10.2255
▁kafedrası	-10.2258
▁1962	-10.226
▁zərər	-10.226
▁bil	-10.2264
▁veriyor	-10.2267
▁başlıyor	-10.2267
▁dönüş	-10.2268
▁şa	-10.2268
arası	-10.227
▁Demokrati	-10.2271
nik	-10.2274
▁abidəsi	-10.2274
▁rütbəsi	-10.2278
dılar	-10.2282
▁Səməd	-10.2285
▁yaradılı	-10.2286
rt	-10.2286
▁kişilər	-10.2289
▁adlandırıla	-10.2289
▁dinc	-10.2291
▁aşıq	-10.2292
▁kullanma	-10.2293
▁çıxması	-10.2294
▁heyətində	-10.2295
up	-10.2297
▁doqquz	-10.2301
▁sonsuz	-10.2308
▁2005	-10.231
▁uc	-10.2317
▁1942	-10.2321
▁mülayim	-10.2321
▁işləmiş	-10.2323
▁çatmışdı	-10.2323
liklə	-10.2325
▁diqqəti	-10.2328
▁dur	-10.2328
▁yukarı	-10.233
▁Xəlil	-10.2332
▁şiddet	-10.2336
▁mədə	-10.2341
▁Dünyada	-10.2342
▁program	-10.2344
▁istiqamət	-10.2346
▁sentyabrın	-10.2348
▁cins	-10.2348
▁verə	-10.235
▁yəhudi	-10.2353
▁kendisi	-10.2354
▁göstərdi	-10.2356
▁7-	-10.2362
▁istisna	-10.2362
▁ilham	-10.2367
▁göstermek	-10.2368
▁aşırı	-10.2369
▁çəkir	-10.2371
▁Yu	-10.2372
▁Pakistan	-10.2382
▁kendimi	-10.2383
▁getdi	-10.2385
▁məkan	-10.2387
▁hâl	-10.2391
▁ölkəsi	-10.2391
▁münasibətləri	-10.2394
▁şirket	-10.2394
▁babası	-10.2398
▁doktor	-10.2401
▁siyahıya	-10.2406
▁məktub	-10.2412
▁bar	-10.2414
▁15-	-10.2418
▁ucuz	-10.2421
8-	-10.2421
▁poçt	-10.2423
▁uğurla	-10.2428
▁başı	-10.2429
▁As	-10.2435
▁alın	-10.2436
▁qadağan	-10.2436
▁bulmak	-10.2439
▁araç	-10.2441
▁ümum	-10.2443
▁Benc	-10.2443
tro	-10.2443
▁1979-	-10.2444
▁Maykl	-10.2444
tım	-10.2446
▁bü	-10.245
▁ruslar	-10.2451
▁Çar	-10.2452
ğın	-10.2452
▁günde	-10.2454
▁doğum	-10.2454
▁yolunun	-10.2455
▁noyabrın	-10.2456
▁1965-	-10.2461
▁feodal	-10.2464
▁mikro	-10.2464
▁Şair	-10.2464
▁Arif	-10.2465
▁Zaman	-10.2468
▁xəstəlik	-10.247
▁atmosfer	-10.2471
una	-10.2472
ebilirsiniz	-10.2473
▁olmağ	-10.2475
▁Anadolu	-10.2477
▁ağacı	-10.2478
▁yolunu	-10.2478
vari	-10.2482
▁1983-	-10.2485
▁ruhu	-10.2486
biri	-10.2492
▁keçid	-10.2495
▁texnika	-10.2498
raya	-10.2501
▁uçuş	-10.2505
▁satın	-10.2506
▁Cekson	-10.2506
▁beyaz	-10.2507
per	-10.2509
▁temperaturu	-10.2509
▁kitap	-10.2511
em	-10.2511
raf	-10.2511
ika	-10.2512
▁istəyirdi	-10.2512
▁aldım	-10.2514
ama	-10.2516
▁Universitet	-10.2516
▁əsgər	-10.252
nızda	-10.252
▁başlamışdı	-10.252
▁verdim	-10.2529
▁gen	-10.2529
▁martın	-10.2529
▁hərəkəti	-10.2532
▁2017-	-10.2538
▁olmuşlar	-10.2543
▁emin	-10.2546
▁Rejissor	-10.2547
▁mükəmməl	-10.2548
▁bit	-10.2548
almağa	-10.2551
▁Gül	-10.2554
▁Elm	-10.2554
▁materiallar	-10.256
vər	-10.256
▁quberniyası	-10.2564
▁iqlimi	-10.2567
▁biləcək	-10.2568
▁fikrini	-10.2569
▁görmək	-10.2572
▁Tam	-10.2575
▁aracı	-10.2576
▁Lenin	-10.2578
▁havada	-10.2586
▁eli	-10.2591
▁sinif	-10.2592
▁düzen	-10.2595
▁qrupunu	-10.2597
res	-10.2598
▁çatan	-10.2603
▁heyecan	-10.261
▁Səid	-10.261
▁peşəkar	-10.2611
▁element	-10.2612
▁antik	-10.2613
▁nömrə	-10.2614
▁özləri	-10.2615
▁yaradıla	-10.2616
▁yerlerde	-10.2618
ant	-10.2618
▁İn	-10.2619
▁nəticələri	-10.2621
▁tarafta	-10.2621
▁oxu	-10.2622
▁olmadı	-10.2623
ede	-10.2623
▁W	-10.2624
▁münasibətlər	-10.2627
▁çalışıyor	-10.2629
▁başlama	-10.263
▁çal	-10.2631
▁1982-	-10.2631
▁ayrıla	-10.2632
▁yaradıcı	-10.2638
▁apardığı	-10.2638
▁2007	-10.2643
▁yasa	-10.2644
şən	-10.2648
▁danışır	-10.2649
▁öğrenme	-10.2652
▁kanıt	-10.2654
▁vəzifə	-10.2662
▁radio	-10.2668
▁başçılığı	-10.2675
▁müəssisəsi	-10.2679
▁quş	-10.2682
▁mövsümündə	-10.2684
▁Fransada	-10.2686
eceğim	-10.2688
▁cərəyan	-10.2689
▁məsələlər	-10.2694
▁33	-10.2704
▁özlərini	-10.2706
ıyoruz	-10.2706
▁Müzik	-10.2715
▁halında	-10.272
▁mahalını	-10.2722
▁ərazisini	-10.2725
miyor	-10.2726
▁XI	-10.2734
▁insanlarla	-10.2736
▁üzə	-10.2736
▁məsələsi	-10.2736
vənd	-10.2737
▁tutulur	-10.2737
20	-10.2745
▁qayıdır	-10.2748
▁atasını	-10.2748
▁Kitab	-10.275
mişti	-10.2754
▁Müdafiə	-10.2758
▁Tərtər	-10.2758
▁fiziksel	-10.2758
▁XV	-10.2759
▁oluşan	-10.276
sen	-10.2762
▁filologiya	-10.2765
▁modeli	-10.277
▁yu	-10.2771
▁Daxil	-10.2779
▁tədric	-10.2779
▁qəsəbəsi	-10.2779
qərb	-10.278
birində	-10.2784
lılar	-10.2793
▁şəraitində	-10.2795
▁xaric	-10.2796
▁Çempion	-10.28
▁Tovuz	-10.28
▁Şərqdə	-10.28
▁36	-10.2801
▁saxlamaq	-10.2802
▁budur	-10.2814
▁hadisələrin	-10.2814
▁başladığı	-10.2814
▁qoyur	-10.2817
▁hissi	-10.2818
▁İşlər	-10.2822
▁oktyabrın	-10.2823
▁dəstələri	-10.2829
▁Təbrizdə	-10.2831
▁duz	-10.2833
▁xaricdə	-10.2836
▁katı	-10.2836
▁rəssamı	-10.2841
▁cəmiyyət	-10.2853
▁Ölkəni	-10.2855
▁mənfi	-10.2866
▁1986-	-10.2867
▁aralı	-10.2871
▁paşa	-10.2879
▁başqaları	-10.2882
▁müəssisələri	-10.2883
▁təmir	-10.2886
▁Kur	-10.2889
▁Televiziya	-10.2889
▁tartışma	-10.2893
▁söylemek	-10.2895
he	-10.29
ste	-10.2902
▁duy	-10.2903
şe	-10.2905
▁dillərini	-10.2905
▁maarif	-10.2907
▁Meksika	-10.2907
▁medya	-10.2907
▁dış	-10.2908
fer	-10.291
▁tutmuşdu	-10.2913
▁makine	-10.2914
▁geliştir	-10.2922
▁8-	-10.293
▁rəngi	-10.2932
bilme	-10.2934
▁köməkçi	-10.2938
▁herkesin	-10.2942
▁silsiləsini	-10.2948
▁Şəmkir	-10.2951
▁zaten	-10.2951
▁müqavimət	-10.2952
▁sinfi	-10.2953
▁Salyan	-10.2954
▁yeraltı	-10.2954
▁diyor	-10.2958
▁gənclər	-10.296
▁yerlərində	-10.2964
oğlu	-10.2965
▁layihəsi	-10.297
tri	-10.297
▁Midiya	-10.2972
▁Birleşi	-10.2974
▁komitəsi	-10.2979
▁bazıları	-10.2982
▁Onları	-10.2982
▁paylaş	-10.2985
▁ml	-10.2985
▁cəmiyyəti	-10.2987
▁Artık	-10.2988
▁Qazaxıstan	-10.2994
▁evində	-10.2998
▁sayıda	-10.2998
ysa	-10.2999
▁Türkiyəni	-10.3001
▁olmasının	-10.3001
▁musiqisi	-10.3002
▁çift	-10.3005
▁sağlıyor	-10.3006
▁səyahət	-10.3009
▁oxşar	-10.3012
▁əsaslana	-10.3015
▁uç	-10.3016
iyle	-10.3017
▁bilirdi	-10.302
▁koruma	-10.3021
▁düşmüşdü	-10.3033
▁Örneğin	-10.3038
▁sahillərində	-10.304
▁Müharibə	-10.3042
▁çıxara	-10.3043
▁Zeynal	-10.3048
yar	-10.3054
▁parçaları	-10.3054
▁işğalı	-10.3055
▁qoyun	-10.3056
▁nəqliyyat	-10.3057
▁XII	-10.3059
▁köçüb	-10.306
▁jurnalist	-10.3064
▁məsafədə	-10.3075
▁eşit	-10.3075
mizin	-10.3084
▁ot	-10.3084
▁işləyən	-10.3092
▁İstanbulda	-10.3093
▁mövzu	-10.3094
▁Rayonun	-10.3095
▁açılır	-10.3095
ris	-10.3098
▁xəstə	-10.3098
▁Demə	-10.3101
▁Mil	-10.3102
▁dostu	-10.3102
▁XIV	-10.3103
▁fakir	-10.3104
▁qazanıb	-10.3104
▁Əhalisi	-10.3108
▁Filmdə	-10.3109
▁fırsat	-10.3109
▁sərf	-10.3111
▁şarkı	-10.3113
▁etmir	-10.3113
▁tayfaları	-10.312
yet	-10.3123
▁həcmi	-10.3128
▁xalqların	-10.3131
ite	-10.3133
▁çocukların	-10.3134
▁dişi	-10.3134
▁aç	-10.3134
▁9-	-10.3136
▁nedeni	-10.3141
çə	-10.3143
▁məscidin	-10.3144
▁sahələrdə	-10.3146
▁könüllü	-10.3148
▁evin	-10.3148
▁göl	-10.3154
ard	-10.3156
▁qalasını	-10.3156
▁çıxardı	-10.3166
▁gider	-10.3167
▁mücadele	-10.317
▁henüz	-10.317
▁istiqamətdə	-10.3171
▁noktada	-10.3174
lerdi	-10.3178
▁qapı	-10.318
▁dik	-10.3183
co	-10.3184
▁şəraitdə	-10.3186
▁May	-10.3186
tık	-10.3187
▁xalqlarının	-10.3188
▁oğlunu	-10.3189
▁Aralı	-10.3189
▁şeylerden	-10.319
▁Norveç	-10.3192
▁yeterli	-10.3192
▁belli	-10.3197
▁Koreya	-10.32
▁Neftçi	-10.3203
▁kod	-10.3206
▁keçib	-10.3206
▁rayonları	-10.3208
cağı	-10.3213
sh	-10.3217
▁TV	-10.3217
▁şərh	-10.322
▁Rüstəm	-10.3224
▁bilme	-10.3226
əvi	-10.3227
▁1946-	-10.3228
▁Zaqatala	-10.3228
▁Misirdə	-10.323
▁Abdulla	-10.3233
▁1955	-10.3236
▁vilayətin	-10.3236
▁xahiş	-10.3236
▁əri	-10.3236
▁qəhrəmanı	-10.3238
F	-10.3239
eme	-10.324
▁kompleks	-10.3241
▁CA	-10.3244
liyə	-10.3246
▁bildirdi	-10.3249
▁payı	-10.3253
▁davamlı	-10.3254
▁harita	-10.3256
▁karakter	-10.3259
▁Herkes	-10.3259
▁azından	-10.3261
▁38	-10.3262
▁Uşaq	-10.3269
▁Qu	-10.3272
▁kralı	-10.3272
▁pazar	-10.3272
▁tarz	-10.3273
▁əvəzin	-10.3274
▁VI	-10.3274
▁xarakter	-10.3274
▁1922	-10.3281
▁Ri	-10.3284
▁manat	-10.3285
▁lideri	-10.3296
▁müharibədə	-10.3297
▁adaları	-10.3299
▁Çində	-10.3301
▁terror	-10.3303
▁köç	-10.3303
▁sabah	-10.3304
▁sürdü	-10.3306
▁belir	-10.331
▁yayılması	-10.331
▁təhlükə	-10.3313
▁türklər	-10.3314
▁baskı	-10.3314
▁fəhlə	-10.3318
▁zamanında	-10.3322
▁bakalım	-10.3327
▁gelip	-10.3327
▁kurtar	-10.3328
▁1953	-10.3334
▁kanser	-10.3337
▁teatrı	-10.3337
▁qüvvələr	-10.3338
lənmiş	-10.3341
▁Hazır	-10.3343
▁şahzadə	-10.3353
▁günah	-10.3354
▁mahalı	-10.3355
▁irsi	-10.3357
▁dəri	-10.3357
▁hastalık	-10.336
▁Gədəbəy	-10.336
mıyor	-10.3361
▁heyətini	-10.3366
▁ufak	-10.3371
▁Heyəti	-10.3371
▁turizm	-10.3371
yiz	-10.3373
▁sınır	-10.3374
▁yanın	-10.3384
▁yapacak	-10.339
▁xanlığını	-10.3392
▁Tək	-10.3399
ram	-10.3401
▁əraziləri	-10.3401
▁sədr	-10.3404
▁qəzası	-10.3408
▁nəsli	-10.3412
▁üzüm	-10.3414
▁Pənah	-10.3416
▁VIII	-10.3417
▁1973-	-10.3418
▁Gənclər	-10.3421
▁istedad	-10.3422
▁ışığı	-10.3424
ster	-10.3425
▁görüşü	-10.3427
▁problemlər	-10.3429
▁terrorçuları	-10.3433
▁To	-10.3437
▁temsil	-10.3439
▁Məcnun	-10.3439
▁yetirmiş	-10.3439
yer	-10.3442
yo	-10.3446
▁sürətli	-10.3452
▁iyunun	-10.3453
▁saç	-10.3455
▁bakar	-10.3457
İ	-10.3459
▁ətrafı	-10.3462
▁görsel	-10.3463
▁ol	-10.3469
rədd	-10.3474
namə	-10.3476
▁geçti	-10.3479
iv	-10.348
▁75	-10.3482
▁bilərdi	-10.3483
▁1936	-10.3485
▁Radio	-10.3485
▁Novruz	-10.3485
▁müstəqilliyini	-10.3486
▁derecede	-10.3491
▁istəyən	-10.3491
▁məğlubiyyət	-10.3498
▁Kərimov	-10.3499
▁Hind	-10.3502
ılan	-10.3503
nü	-10.3503
▁mərasimi	-10.3504
▁yıllık	-10.3507
lıyor	-10.3509
ic	-10.351
▁üstünde	-10.351
▁bağı	-10.3519
▁qoşunlarını	-10.3521
▁sakini	-10.3528
▁seçili	-10.353
▁Sənaye	-10.3531
▁beynin	-10.3533
▁istər	-10.3536
▁600	-10.3537
▁sınıf	-10.3539
▁gerektiği	-10.354
▁Mehmed	-10.3541
mızın	-10.3543
▁ihtiyacı	-10.3553
▁Çay	-10.3554
▁kaynak	-10.3556
▁dağı	-10.3559
▁hücreleri	-10.356
▁Şirvanşah	-10.3562
▁gəlin	-10.3567
▁mil	-10.3573
▁qiymət	-10.3575
▁nəzarəti	-10.3581
▁Mesel	-10.3581
▁ailələr	-10.3583
▁sözündən	-10.3583
▁Qanun	-10.3583
əni	-10.3584
▁politika	-10.3586
▁kq	-10.3587
zar	-10.3588
▁sözlərindən	-10.3592
th	-10.3594
▁1940-	-10.3594
▁1985-	-10.3599
▁Təbii	-10.36
▁Futbol	-10.36
bədi	-10.3608
▁ili	-10.3611
▁Amerikada	-10.3611
▁öldürüldü	-10.3612
▁mənbələr	-10.3617
▁eramız	-10.3624
▁sürəti	-10.3625
▁Əsgər	-10.3633
dikleri	-10.3639
var	-10.3642
▁möhtəşəm	-10.3646
▁Kuzey	-10.3647
ebiliyor	-10.365
▁rəqəm	-10.3654
▁nda	-10.3655
▁kalp	-10.3656
▁müstəqillik	-10.3657
▁Əsli	-10.3666
▁Əsər	-10.3669
▁piyada	-10.3669
▁Sü	-10.367
▁yerinde	-10.367
▁çıkıyor	-10.3672
▁etkileşim	-10.3676
▁obrazı	-10.3676
▁yiyecek	-10.3678
ldu	-10.3681
▁cild	-10.3682
ski	-10.3683
▁Zəngəzur	-10.3693
▁petrol	-10.3693
▁ərazilər	-10.3693
▁pay	-10.3693
▁biçimde	-10.3697
▁yapabilir	-10.3698
▁Top	-10.3702
▁yön	-10.3703
▁uça	-10.3704
mer	-10.3709
▁Bazı	-10.3713
▁hamı	-10.3715
▁sənətini	-10.3718
ladı	-10.3719
▁torpaqlar	-10.372
▁Azərbaycanlı	-10.372
▁komandiri	-10.3724
▁maldarlıq	-10.3726
▁düşmüş	-10.3732
▁Kommunist	-10.3739
▁fasilə	-10.3739
▁tutulmuş	-10.3743
▁növbədə	-10.3748
▁medalı	-10.3749
▁kanalı	-10.3749
▁analiz	-10.3749
▁məhəbbət	-10.3754
▁oldukları	-10.3757
▁İctimai	-10.3763
▁19-	-10.3763
▁misal	-10.3764
х	-10.3764
▁başlar	-10.3765
▁Ziya	-10.3767
▁Oyun	-10.3767
▁deneme	-10.3768
▁kutu	-10.3769
▁sanırım	-10.377
süz	-10.3777
▁xüsusiyyətlərin	-10.3779
▁yaradıcılığında	-10.3781
▁EA	-10.3782
▁Vəli	-10.3783
▁zəruri	-10.3786
str	-10.379
▁bölgələrində	-10.3792
▁örneğin	-10.3793
▁şöbəsin	-10.3799
▁nöqtəsi	-10.38
▁yıllar	-10.3802
▁iklim	-10.381
▁rejimi	-10.3812
▁keçirən	-10.3815
▁yaratma	-10.3819
▁işlərini	-10.3823
▁nəzəri	-10.3828
▁cinayət	-10.3829
▁ət	-10.383
▁tanesi	-10.3832
▁okyanus	-10.3832
▁kvadrat	-10.3834
▁1926	-10.3834
▁adlandırılır	-10.3835
▁yüksel	-10.3839
▁yolda	-10.3844
kləri	-10.3845
▁enerjisi	-10.3846
tür	-10.385
▁Sən	-10.3853
▁Əfəndiyev	-10.3858
▁diplomati	-10.3866
▁duygu	-10.387
▁cu	-10.3873
▁azı	-10.3873
▁Ak	-10.3881
▁Bar	-10.3882
▁Onlarda	-10.3883
▁mənə	-10.3883
▁IX	-10.3884
ll	-10.3893
ılır	-10.3893
▁şəxsiyyət	-10.3893
▁gittim	-10.3898
▁layihə	-10.3902
▁dönü	-10.3904
▁dijital	-10.3905
boy	-10.3915
▁Ümum	-10.3916
▁Daş	-10.3918
▁erkekler	-10.392
▁be	-10.3921
▁inşaat	-10.3925
duk	-10.3927
▁ərazini	-10.3928
▁fevralın	-10.3929
▁kərpic	-10.3929
▁birləşdirən	-10.3929
▁Abdullayev	-10.3929
▁dolaş	-10.393
▁Hacıyev	-10.3932
▁Nərimanov	-10.3932
▁çalışmak	-10.3934
▁fikirlər	-10.3935
▁yemək	-10.3936
▁taleyi	-10.3936
▁1923	-10.3946
▁məskunlaşmış	-10.3947
▁dışı	-10.3949
▁bölmə	-10.3949
▁yuxarıda	-10.395
▁Leyli	-10.395
▁icin	-10.3952
▁tutmuş	-10.3953
▁yazar	-10.3957
▁göstərə	-10.3958
▁bölgəsi	-10.3959
▁Dağıstan	-10.3959
slim	-10.3962
anırım	-10.3966
land	-10.3969
▁yeşil	-10.3977
▁of	-10.3982
▁yerel	-10.3986
▁Partiyasını	-10.3989
adi	-10.3991
▁dərk	-10.3993
▁halde	-10.3993
▁olun	-10.3995
6-	-10.3996
▁mütəxəssis	-10.3997
▁oyunları	-10.3999
▁anı	-10.3999
▁futbolçu	-10.4
▁buradaki	-10.4
▁Nasıl	-10.4001
bəri	-10.4003
▁düzəli	-10.4003
▁hökm	-10.4007
▁təzyiq	-10.4014
▁hücumu	-10.4015
acağı	-10.4021
▁inan	-10.4024
▁boru	-10.4026
▁bayramı	-10.4027
▁Stalin	-10.4028
▁ediyoruz	-10.4031
▁olduklarını	-10.4034
işi	-10.4035
▁düşüncə	-10.4041
▁insana	-10.4047
▁obyekti	-10.4051
▁olmaları	-10.4051
▁tanrı	-10.4052
▁Fars	-10.4052
▁yapıyoruz	-10.4055
▁Batı	-10.4055
▁Man	-10.4056
▁iştirakçısı	-10.4057
▁həcm	-10.4057
▁Ho	-10.4058
▁tədqiqi	-10.4059
▁ülkeler	-10.4061
▁yazmış	-10.4064
▁birləşmələri	-10.4064
▁materialları	-10.4064
▁sal	-10.4067
▁formalı	-10.4068
▁1977-	-10.4071
▁qorunması	-10.4072
yordu	-10.4072
▁səth	-10.4072
▁müvə	-10.4074
▁yaratmak	-10.4075
▁ilaç	-10.4083
▁gündə	-10.4088
▁Azərbaycanı	-10.4089
▁istifadəsi	-10.4092
▁Sibir	-10.4098
▁yaşama	-10.4101
▁Qız	-10.4101
▁məbəd	-10.4109
▁İli	-10.4112
▁Alp	-10.4114
▁çayın	-10.4115
▁institut	-10.4117
▁tələbələrin	-10.412
uş	-10.4125
▁filmin	-10.4128
mize	-10.4132
▁tədqiqatçılar	-10.4132
▁qəzetini	-10.4133
▁etkili	-10.4133
rik	-10.4136
▁dışarı	-10.4136
▁Tur	-10.414
▁bacısı	-10.4141
▁gətirən	-10.4143
▁nəfərə	-10.4144
▁tutub	-10.4146
▁adət	-10.4147
▁kor	-10.4148
▁konusu	-10.4151
▁döyüşü	-10.4153
▁sənətkar	-10.4155
abiliyor	-10.4155
O	-10.4156
▁buradan	-10.4157
▁mövqeyi	-10.4159
▁İdarəsi	-10.416
▁mağara	-10.416
▁şekli	-10.416
▁alimləri	-10.4165
▁bənzər	-10.4168
▁takım	-10.417
▁yüngül	-10.4171
▁göstərib	-10.4171
▁numara	-10.4171
▁xas	-10.4171
▁İbrahimov	-10.4175
▁qrupun	-10.4175
▁dön	-10.4177
▁zarar	-10.4178
▁araşdırma	-10.4181
▁1948-	-10.4185
▁məskunlaşması	-10.4186
▁qüvvəsi	-10.4187
meliyiz	-10.4191
▁adamın	-10.4198
▁dənizin	-10.4199
▁anlamda	-10.4206
▁12-	-10.4206
▁alındı	-10.4207
▁Qriqori	-10.4209
▁Ön	-10.4219
▁Çingiz	-10.4221
▁kişiler	-10.4228
▁marka	-10.4229
▁abidələr	-10.4243
▁1952	-10.4244
▁Urmiya	-10.4244
▁ədədlər	-10.4249
▁qəsəbəsində	-10.4249
▁sahne	-10.4251
▁oğulları	-10.4254
▁istedim	-10.4257
▁edildikdə	-10.4259
▁Ölkədə	-10.426
▁nəsil	-10.4261
▁əsgərləri	-10.4265
▁bomba	-10.4269
▁Zəngi	-10.4269
▁milyonlarca	-10.427
▁Göyçay	-10.427
▁aparılması	-10.4279
inki	-10.4281
▁fil	-10.4282
▁sistemin	-10.4282
çılar	-10.4283
▁mahnıları	-10.4284
▁der	-10.4284
▁ədalət	-10.429
▁Məclisi	-10.429
▁sap	-10.4296
▁Berlin	-10.4297
▁edebilir	-10.4301
▁saxlaya	-10.4301
▁ənənələri	-10.4303
▁çevir	-10.4309
▁tayfası	-10.4309
▁içi	-10.431
▁əksinə	-10.431
let	-10.4311
▁küçə	-10.4315
▁gördüğümüz	-10.4319
▁Hatta	-10.4319
▁hayır	-10.4319
ow	-10.4319
▁duvar	-10.4327
əri	-10.4327
şı	-10.4329
▁gösteren	-10.4329
▁xətt	-10.4332
lıqla	-10.4338
▁bər	-10.4339
▁idarəetmə	-10.4344
▁Sarı	-10.4347
▁amacı	-10.435
▁olacaktır	-10.4351
▁Gün	-10.4352
▁Sara	-10.4356
▁Qaraqoyunlu	-10.4368
▁plastik	-10.4368
▁cənubunda	-10.4373
▁kay	-10.4374
▁dəyişdi	-10.4375
▁təzyiqi	-10.4377
▁yaptıkları	-10.4377
▁doktorlu	-10.4384
▁sona	-10.4385
▁etkisi	-10.4387
▁xəstəxana	-10.4388
▁Belçika	-10.4393
▁şaşırtıcı	-10.4393
cıl	-10.4394
▁kaynağı	-10.4394
▁sahili	-10.4394
taki	-10.4394
▁biliyorsunuz	-10.4395
▁sonucu	-10.4403
▁araşdırmalar	-10.4403
▁getdik	-10.4405
▁kes	-10.4406
▁bitkilərin	-10.4408
▁saniye	-10.4415
▁Tehran	-10.4417
▁təchiz	-10.4418
▁Ankara	-10.4418
▁yazılar	-10.4419
▁jurnal	-10.4419
▁türklərin	-10.442
▁çeşitli	-10.4423
▁istefa	-10.4424
▁qonaq	-10.4424
▁kendine	-10.4425
▁dildə	-10.4426
▁Şuşada	-10.4427
▁evrim	-10.4428
▁lider	-10.4429
▁mədəniyyətini	-10.4433
▁əməl	-10.4433
▁kinostudiyasın	-10.4441
▁1931	-10.4444
▁1934	-10.4444
▁keçməsi	-10.4453
▁vilayət	-10.4457
▁vaxtlarda	-10.4458
▁latın	-10.4461
diler	-10.4464
lenme	-10.4468
▁Atlantik	-10.4469
▁təqib	-10.4469
▁fəth	-10.4469
▁Goran	-10.4469
▁Quru	-10.4473
▁heyvanlar	-10.4473
▁içki	-10.4474
iği	-10.4474
▁İnsanların	-10.4476
▁həyatın	-10.4477
▁Qarabağı	-10.4478
▁münasibət	-10.448
▁salınmış	-10.4484
▁şeylerin	-10.4487
▁Dil	-10.4491
▁sistemini	-10.4491
kleri	-10.4493
▁yarış	-10.4494
▁vətən	-10.4497
▁Naxçıvanda	-10.4498
▁hökumətin	-10.4502
sey	-10.4503
▁səh	-10.4506
▁Qasımov	-10.4509
▁peyğəmbər	-10.4519
▁özəl	-10.452
yorlar	-10.4521
▁34	-10.4525
▁Həyat	-10.4525
sıyla	-10.4531
gin	-10.4531
gü	-10.4533
▁Ələkbər	-10.4534
▁robot	-10.4535
▁emalı	-10.4536
nuz	-10.4536
▁Ki	-10.4541
▁Böyle	-10.4542
▁50-	-10.4542
▁yayı	-10.4543
▁modern	-10.4545
▁həmsərhəd	-10.4545
▁yağıntı	-10.4545
▁Talış	-10.4546
▁səviyyə	-10.4547
▁geçir	-10.4548
▁1984-	-10.4548
▁edər	-10.455
▁işler	-10.4552
▁kendilerini	-10.4554
▁yarandı	-10.4554
▁ərəblər	-10.4556
▁adası	-10.4557
▁mülki	-10.4558
vasitə	-10.4558
▁Parisdə	-10.4562
▁qalanın	-10.4563
▁ölçüsü	-10.4568
▁gelme	-10.4569
▁cep	-10.4571
▁nizam	-10.4571
▁məbədi	-10.4578
cık	-10.4578
▁hak	-10.4587
▁bulun	-10.4588
mızda	-10.4592
kdən	-10.4595
▁Birkaç	-10.4596
▁hekayə	-10.4596
dağ	-10.4596
▁Şahzadə	-10.4602
▁xarakterik	-10.4603
▁işlənmiş	-10.4605
▁diplomu	-10.4607
▁qurmuşdu	-10.461
▁bitkiləri	-10.4611
▁almaya	-10.4611
▁42	-10.4615
▁sağlayan	-10.4619
▁alınır	-10.4619
▁toplam	-10.4619
▁Hüquq	-10.4621
▁Video	-10.4621
▁dalga	-10.4621
▁yüzünden	-10.4622
▁Babayev	-10.4622
▁bölgədə	-10.4623
▁açısından	-10.4624
lemek	-10.4626
▁doğulmuşdu	-10.4634
▁dövlətlər	-10.4635
▁şeirləri	-10.4641
▁sözlə	-10.4642
▁avqustun	-10.4645
▁1924	-10.4647
laşır	-10.4648
▁sıradan	-10.4648
▁monqol	-10.4649
▁cüt	-10.4649
▁Həsənov	-10.465
▁rabitə	-10.4651
▁İdarə	-10.4652
▁olmasıdır	-10.4652
▁yazdı	-10.4657
▁yalan	-10.4659
▁çağırış	-10.4661
▁Azad	-10.4661
▁sarayı	-10.4661
daş	-10.4665
▁Hey	-10.4666
▁istənil	-10.4673
duğu	-10.4674
▁yollar	-10.4675
▁şəhərlərində	-10.4677
▁yerin	-10.4677
xəli	-10.4687
▁döyüşçü	-10.4689
▁Xosrov	-10.469
▁ora	-10.469
kcə	-10.4699
▁1925	-10.4699
▁Ağdaş	-10.4699
▁reaksiya	-10.4701
▁məktəbə	-10.4708
Q	-10.4716
▁Qor	-10.4718
▁Kim	-10.4719
▁cü	-10.472
▁şəbəkə	-10.4723
şad	-10.4724
▁Xorasan	-10.4724
▁hizmet	-10.4725
▁bulaq	-10.4731
▁gerçekleştir	-10.4732
▁şam	-10.4732
▁xəstəliyi	-10.4732
eceğiz	-10.4737
▁işlə	-10.4741
▁Aslan	-10.4743
▁standart	-10.4746
▁Şərur	-10.475
▁1932	-10.475
▁görün	-10.475
▁em	-10.4751
▁mövzusu	-10.4753
▁nümunə	-10.4753
▁yadda	-10.4754
▁soy	-10.4754
▁65	-10.4756
▁örtüyü	-10.4759
▁memar	-10.4762
▁qardaşları	-10.4766
▁teşekkürler	-10.4769
tra	-10.4774
▁tünd	-10.4776
▁ideal	-10.4776
▁önünde	-10.4778
▁Bəzə	-10.4779
lenmiş	-10.478
▁saxlayır	-10.478
▁Avstraliya	-10.4782
▁Bay	-10.4785
▁Nikolay	-10.4788
▁gəldiyi	-10.4788
iniz	-10.4795
mizde	-10.4798
kçe	-10.4801
▁götürür	-10.4802
▁nazik	-10.4802
▁Sosialist	-10.4803
▁məntəqəsini	-10.4806
▁yerlər	-10.4807
▁Aş	-10.4807
▁söylüyor	-10.4808
▁xüsusiyyəti	-10.4808
,000	-10.4809
▁1933-	-10.4813
▁Tek	-10.4813
▁qüvvələrin	-10.4814
▁etdiyini	-10.4823
▁professoru	-10.4826
▁razı	-10.4827
▁sığorta	-10.4829
▁Bağırov	-10.4831
▁mədrəsə	-10.4835
▁oldum	-10.4841
▁Jo	-10.4847
▁bərk	-10.4852
▁ibadət	-10.4854
▁bulma	-10.4855
▁kırmızı	-10.4855
▁prinsipi	-10.4856
▁Teatrını	-10.4862
▁Adam	-10.4863
▁idarəsi	-10.4867
ft	-10.4869
for	-10.4874
ğimiz	-10.4874
▁yaratıcı	-10.4874
mayan	-10.4876
ışı	-10.4879
▁Van	-10.4879
▁aparmaq	-10.4881
▁mesela	-10.4881
▁işçisi	-10.4881
▁yararlı	-10.4881
▁səmərəli	-10.4884
▁ərazilərində	-10.4885
▁mane	-10.4885
▁süreci	-10.4891
▁Qurbanov	-10.4892
▁gözlem	-10.4893
▁gəlmə	-10.4898
ətən	-10.4898
▁bila	-10.49
iliyor	-10.49
▁deyilən	-10.4902
siyle	-10.4902
▁stansiyası	-10.4903
eyim	-10.4907
▁örtülü	-10.4907
▁Teatrı	-10.4908
▁şirkət	-10.491
▁keçirib	-10.4911
▁yöntem	-10.492
▁Adı	-10.4921
▁illiyi	-10.4924
▁okuma	-10.4928
▁söyley	-10.4929
▁ısı	-10.4929
▁balık	-10.493
▁üniversite	-10.493
▁qoyulmuş	-10.4931
▁İdman	-10.4933
▁Davud	-10.4934
▁1914	-10.4934
▁evdə	-10.4937
▁öyrənmək	-10.4939
▁bilərlər	-10.4944
▁şimalında	-10.4944
▁ateş	-10.4944
▁olduğunda	-10.4945
▁uydu	-10.4947
▁oy	-10.495
▁sistemləri	-10.495
texnik	-10.4952
ıyorum	-10.4957
▁ürün	-10.4961
▁planet	-10.4964
▁yaşadı	-10.4976
▁merkezi	-10.4976
▁nde	-10.4976
▁coğrafiya	-10.4978
▁dünyasında	-10.4979
▁Ağqoyunlu	-10.4986
▁bəzək	-10.4986
▁millət	-10.4987
▁yazıları	-10.4987
▁biyo	-10.4996
▁danışıqlar	-10.5
▁oray	-10.5001
▁merkez	-10.5002
▁ittifaq	-10.5003
▁məqalələr	-10.5005
▁İyi	-10.5006
▁Daşkənd	-10.5007
▁götürdü	-10.5009
▁günün	-10.501
▁Macarıstan	-10.5012
▁Təbiət	-10.5013
▁qəzasında	-10.5016
▁yürüşü	-10.5017
▁peşə	-10.5018
▁şəkil	-10.5021
▁temiz	-10.5022
▁imperiyasını	-10.5022
▁ilində	-10.5023
masını	-10.5025
▁hayvanlar	-10.5027
bəyov	-10.503
▁çayları	-10.5033
▁Bayram	-10.5034
▁Kal	-10.5035
▁adlandırırlar	-10.5036
nıza	-10.5038
▁narahat	-10.504
▁beceri	-10.504
▁səciyyəvi	-10.504
▁er	-10.5046
ova	-10.5046
▁aşağıda	-10.5048
meyen	-10.505
imizin	-10.5053
▁qablar	-10.5064
▁teknik	-10.507
▁Hadi	-10.5072
▁üstü	-10.5076
▁qurban	-10.508
▁aralarında	-10.5085
▁seçilə	-10.5087
▁bel	-10.5087
▁37	-10.509
▁laboratuvar	-10.5091
▁Yəhya	-10.5093
▁tercih	-10.5093
▁Doğu	-10.5094
▁qəbir	-10.5095
▁Mustafayev	-10.5095
ef	-10.5097
▁saf	-10.5098
▁inqilabı	-10.51
▁etdirdi	-10.5103
lerim	-10.5106
iyorlar	-10.5106
gel	-10.5108
ünde	-10.511
▁Mu	-10.5111
▁aldık	-10.5112
▁gətirdi	-10.5114
▁değilim	-10.5117
▁balığı	-10.5118
▁esas	-10.5119
▁David	-10.512
▁işləməy	-10.5123
nize	-10.5127
▁iyulun	-10.5139
▁içindeki	-10.514
▁Ağca	-10.5141
▁üsyanı	-10.5142
▁təzə	-10.5142
▁nəvəsi	-10.5147
▁Astara	-10.5147
▁Kiyev	-10.5148
▁mənşəyi	-10.515
açmaz	-10.5153
▁çaba	-10.5154
yse	-10.5156
▁daşları	-10.5157
▁istilik	-10.5157
30	-10.5158
▁edilməsində	-10.5163
▁Komissiyası	-10.5165
▁dövlətləri	-10.5167
larımızın	-10.5167
▁250	-10.5171
▁ixrac	-10.5174
▁Liviya	-10.5174
▁istiyoruz	-10.5178
lanıyor	-10.5181
▁işlem	-10.5184
▁belirt	-10.5191
▁məqsədlə	-10.5192
▁amaç	-10.5196
▁çık	-10.5198
▁formaları	-10.52
▁1935	-10.5202
▁dal	-10.5209
▁Partiya	-10.521
▁bilmiyor	-10.5214
▁Hindistanda	-10.5219
memiz	-10.522
▁dünyası	-10.5221
▁yaradan	-10.5224
▁məqam	-10.5228
▁ümid	-10.5228
▁yoksa	-10.5229
▁əbədi	-10.5229
rek	-10.5231
▁göstereceğim	-10.5231
ydım	-10.5233
▁istədi	-10.5237
▁diametri	-10.5239
▁zorla	-10.5241
▁dəyiş	-10.5242
▁fikrin	-10.5245
nizde	-10.5245
mekte	-10.5247
▁vəzifəsi	-10.5247
▁Şəhəri	-10.525
▁fakültəsi	-10.5252
▁mərkəzləri	-10.5252
▁şərti	-10.5253
▁Poli	-10.5253
▁Yo	-10.5254
▁FİFA	-10.5255
▁şəxslərin	-10.5263
tif	-10.5264
▁maşın	-10.5264
▁kənarında	-10.5266
▁Qurban	-10.5271
▁Şirvanşahlar	-10.5272
lim	-10.5275
▁bakarsa	-10.5277
▁məhsuldar	-10.5278
▁alması	-10.5278
▁türkləri	-10.528
▁kullanmak	-10.5281
▁alıyor	-10.5281
▁qurulması	-10.5281
▁öyrənir	-10.5283
▁Robert	-10.5283
▁ziyalı	-10.5284
▁arvadı	-10.5285
▁inanıyorum	-10.5285
▁yardımı	-10.5287
ğını	-10.5292
▁münaqişə	-10.5292
▁Fondun	-10.5293
▁120	-10.5293
▁ortada	-10.5293
▁1906	-10.5294
▁doğulu	-10.5297
▁İsmayılov	-10.5299
▁yetiş	-10.5299
▁düşünür	-10.5301
▁bölüm	-10.5301
leyen	-10.5302
▁əfsanə	-10.5305
▁filmdə	-10.5305
▁iqtisadiyyat	-10.5308
▁axşam	-10.5311
▁direktor	-10.5315
▁tarafı	-10.5316
▁suç	-10.5318
▁qurğu	-10.5318
▁varlıq	-10.5319
mon	-10.532
▁getmiş	-10.532
▁yataqları	-10.5323
▁yoğun	-10.5324
▁nəticələr	-10.5325
▁öğrenci	-10.5331
▁bəyan	-10.5333
▁şirin	-10.5334
▁hesap	-10.5336
▁arkadaş	-10.5339
▁Car	-10.5339
▁Kamal	-10.5341
▁qazanır	-10.5341
▁çəkdiyi	-10.5342
▁şəhərə	-10.5343
▁çöz	-10.5344
▁gerçekte	-10.535
teki	-10.5351
▁alayı	-10.5353
▁par	-10.5356
▁döyüşlər	-10.5358
diğiniz	-10.5361
▁seçildi	-10.5361
▁Bəy	-10.5362
▁verməsi	-10.5365
▁becəril	-10.5365
▁ərəfə	-10.5365
▁müsabiqədə	-10.537
▁baba	-10.5374
və	-10.5374
▁verdik	-10.5375
▁oyna	-10.5375
▁göstərilə	-10.5377
▁dağlar	-10.5378
▁toxuma	-10.5378
▁məhsul	-10.538
▁Universitetin	-10.5381
▁qum	-10.5381
▁şəxsə	-10.5382
▁dağını	-10.5383
▁Hiç	-10.5384
iyorum	-10.5386
▁tar	-10.5388
▁istiyor	-10.5389
▁çatı	-10.5389
▁Karl	-10.539
▁akıl	-10.5391
▁bulduk	-10.5392
▁suları	-10.5401
▁gelişme	-10.5402
▁diqqətini	-10.5405
▁binalar	-10.5407
▁mərhələdə	-10.5408
▁göndərir	-10.5415
▁25-	-10.5415
▁Bina	-10.5417
▁anlayış	-10.5419
▁sey	-10.5419
▁hayatı	-10.5428
ber	-10.5429
▁dəstəyi	-10.5431
▁senin	-10.5432
▁kuş	-10.5434
▁qaydaları	-10.5435
▁geyim	-10.5436
▁pro	-10.5436
▁umut	-10.5438
▁sarayında	-10.5441
ndaki	-10.5444
▁ssenari	-10.5448
▁http	-10.5448
▁riyazi	-10.5448
▁Məlik	-10.5448
▁Sakit	-10.5449
▁mühit	-10.545
▁verməyə	-10.5455
▁MK	-10.5457
▁yaşına	-10.5462
▁Dan	-10.5463
▁varlı	-10.5464
qala	-10.5467
▁х	-10.5473
▁Yol	-10.5475
▁bacarıq	-10.5476
▁dissertasiyası	-10.5478
dünya	-10.5478
▁görmə	-10.5478
▁çəkili	-10.548
▁uşaqları	-10.548
▁məlumatları	-10.5481
▁çıxarır	-10.5481
abilecek	-10.5482
▁1905-	-10.5487
▁maye	-10.549
▁düş	-10.5495
lənir	-10.5498
▁saldı	-10.55
▁İqtisadi	-10.5502
▁vasitələri	-10.5504
▁Əziz	-10.5504
▁istirahət	-10.5504
▁ərzaq	-10.5504
▁1928	-10.5504
▁yapabiliriz	-10.5509
▁yazma	-10.5509
▁görüb	-10.5511
▁etməli	-10.5517
▁önceki	-10.5521
▁qapısı	-10.5521
▁istəyi	-10.5526
▁görmüş	-10.5527
▁Min	-10.5528
▁Döyüş	-10.5532
▁Bəyazid	-10.5532
▁garip	-10.5532
▁çiz	-10.5533
▁əməliyyatı	-10.5534
▁ülkede	-10.5535
▁17-	-10.5537
▁bilimsel	-10.5537
acağını	-10.5542
▁eylem	-10.5546
▁sorunu	-10.5547
bulaq	-10.5548
50	-10.5552
▁Gi	-10.5555
▁Nəriman	-10.5556
▁əyalət	-10.5556
▁aşağıdakılar	-10.5557
▁Keçmiş	-10.556
▁Nəsrəddin	-10.556
▁ettiği	-10.5563
▁nəh	-10.5563
▁Azər	-10.5564
▁qorumaq	-10.5564
▁denge	-10.5566
▁Yan	-10.5566
çısı	-10.5572
▁getirmek	-10.5577
▁Texnik	-10.5588
▁Ssenari	-10.5588
kül	-10.559
▁sıfır	-10.559
▁Yerin	-10.5591
▁edam	-10.5591
▁konuşmak	-10.5592
etik	-10.5594
▁dövlətlərin	-10.5595
▁tapılmış	-10.5595
▁geleceği	-10.5596
▁Ja	-10.5597
ği	-10.5602
imizi	-10.5603
ıyla	-10.5605
▁qoruyu	-10.5607
▁Təbrizi	-10.5612
▁gelecekte	-10.5615
▁gösterdi	-10.5616
▁tərcüməçi	-10.5616
▁Atropatena	-10.5617
▁1912	-10.5617
▁beyni	-10.5617
▁Ağayev	-10.5619
mam	-10.5623
▁kendimizi	-10.5625
▁800	-10.5626
▁vəzifədə	-10.5627
▁duran	-10.5627
▁taşı	-10.5637
▁şahı	-10.564
mesini	-10.5641
▁dizayn	-10.5643
▁təklifi	-10.5643
▁süreç	-10.5644
▁Sosial	-10.5644
▁xaç	-10.5649
qan	-10.5656
▁zabit	-10.5658
met	-10.5659
▁türbəsi	-10.5665
▁çocukları	-10.5671
▁Siyasi	-10.5673
▁ziyan	-10.5674
▁yüzlerce	-10.5674
tədqiqat	-10.5677
▁2011	-10.5679
abilmek	-10.5682
▁Afrikada	-10.5686
▁hazırlıq	-10.5686
▁işlərində	-10.5687
çisi	-10.5688
▁ölç	-10.569
▁kodu	-10.5694
▁demokrasi	-10.5702
▁Dolayısıyla	-10.5702
▁diş	-10.5706
▁giy	-10.5707
▁ordunu	-10.5708
▁1970	-10.5708
▁Hepimiz	-10.5709
▁Bax	-10.5716
▁ustası	-10.5716
▁ocağı	-10.5719
▁kesin	-10.5719
▁uşağı	-10.5723
▁ayak	-10.5727
▁söyler	-10.5727
▁İnformasiya	-10.5731
▁Sankt	-10.5731
▁kere	-10.5733
▁məzmun	-10.5733
▁durma	-10.5733
▁komediya	-10.5733
▁nəşriyyatı	-10.5741
▁məşqçi	-10.5742
▁nəql	-10.5742
▁material	-10.5742
▁yığma	-10.5742
▁söylediği	-10.5742
▁sağlıklı	-10.5746
ğım	-10.5748
▁Tabii	-10.5748
▁ölçülü	-10.5753
▁kitabını	-10.5753
▁Qo	-10.5753
qar	-10.5754
▁John	-10.5759
▁korkunç	-10.5759
▁çəkən	-10.5762
▁is	-10.5762
▁içeri	-10.5767
▁sanatçı	-10.5771
▁arkadaşım	-10.5773
▁Har	-10.5779
▁seçmə	-10.578
▁toponimi	-10.5785
▁geçmiş	-10.5787
baba	-10.5792
▁yapıyorlar	-10.5792
▁İsveçrə	-10.5793
▁Səd	-10.5794
▁Kan	-10.5794
▁əlaqəsi	-10.5797
▁görüyor	-10.5799
▁dövri	-10.5799
▁gitmek	-10.5813
▁Sol	-10.5814
▁farkında	-10.5817
▁qoyub	-10.5817
▁Opera	-10.5817
▁tapa	-10.5818
▁klubunu	-10.5821
▁əşyaları	-10.5822
▁uzunluğunda	-10.5823
nti	-10.5831
▁ağrı	-10.5831
▁fakültəsin	-10.5833
▁izle	-10.5834
▁Sal	-10.5835
▁bildirmişdi	-10.5835
▁ədəbiyyatını	-10.5836
▁Saray	-10.5842
▁mahnılar	-10.5843
▁imperatoru	-10.5844
▁sevimli	-10.5846
▁Cavid	-10.5846
▁Messi	-10.5846
▁nağıl	-10.5846
istan	-10.5848
ff	-10.5851
laşmış	-10.5851
▁ser	-10.5853
▁2002	-10.5855
▁marağı	-10.5857
▁Kir	-10.5858
▁üsul	-10.586
▁Var	-10.5861
▁deyirdi	-10.5861
▁şəbəkəsi	-10.5862
▁yapılmış	-10.5866
▁sahələr	-10.5867
▁Ulduz	-10.5875
▁ispan	-10.5875
▁Eldar	-10.5875
▁ekoloji	-10.5876
▁seviyorum	-10.5877
▁karanlık	-10.5877
▁usta	-10.5878
▁söyleme	-10.5879
▁fikirləri	-10.5881
leşti	-10.5881
▁komp	-10.5882
▁yüksəklikdə	-10.5883
▁44	-10.5884
▁Amerikanın	-10.5886
▁kaldır	-10.5886
▁çıkma	-10.5889
▁kır	-10.589
▁Amerikalı	-10.589
▁dua	-10.5892
seydi	-10.5896
▁se	-10.5897
▁qüdrət	-10.59
▁değişik	-10.5902
▁Ondan	-10.5903
▁institutun	-10.5903
▁Bolqarıstan	-10.5904
▁filmlər	-10.5905
leyici	-10.5905
▁klubun	-10.5907
▁bilmiyorum	-10.5907
▁Gürcüstanı	-10.5911
ıyorlar	-10.5912
▁zavodu	-10.5912
▁qorxu	-10.5913
▁1947-	-10.592
üm	-10.5921
▁Masall	-10.5922
▁uçak	-10.5927
▁isim	-10.5927
▁Biraz	-10.593
▁Bağdad	-10.5931
▁Almaniyanı	-10.5933
▁elbette	-10.5933
▁məcburiyyətində	-10.5933
▁açıklama	-10.5937
▁1990	-10.5938
▁Ata	-10.5947
▁vətəni	-10.595
▁türlü	-10.5951
▁yollarını	-10.5952
▁gö	-10.5952
terince	-10.5956
▁çəkildi	-10.5957
▁mütəxəssislər	-10.5957
▁qarışıq	-10.5958
▁belirli	-10.596
▁ailələrin	-10.5962
▁banisi	-10.5962
▁surəsi	-10.5962
▁dairəvi	-10.5966
▁Çoğu	-10.5966
▁nəşri	-10.5974
▁birləşdi	-10.5976
leştirme	-10.5977
▁nerey	-10.5981
▁heyvanların	-10.5981
▁güvenli	-10.5985
ttifaq	-10.5986
ünün	-10.5989
▁heykəli	-10.599
▁Yaqub	-10.5991
▁Yardım	-10.5991
▁basqın	-10.5992
▁alimlərin	-10.5999
▁parçalar	-10.5999
▁MR	-10.6001
▁nesil	-10.6003
▁sayısı	-10.6004
▁to	-10.6004
▁gələcəkdə	-10.6004
ket	-10.6007
▁fərman	-10.6008
▁konfrans	-10.6016
▁Gerçek	-10.6017
▁iqtisadiyyatı	-10.6017
▁eve	-10.6019
▁Mənim	-10.6019
▁binanı	-10.602
▁tropik	-10.6021
▁bunlara	-10.6021
▁28-	-10.6023
▁baha	-10.6026
▁ça	-10.6027
ize	-10.6028
▁bilməyə	-10.6031
▁aşama	-10.6034
▁tapılmışdı	-10.6044
▁gül	-10.6046
▁barəsində	-10.605
▁kağız	-10.605
▁torpaqlarını	-10.6052
▁xidmətlərin	-10.6053
▁yaradılır	-10.6054
▁Özü	-10.6056
▁ayaq	-10.6056
▁Tu	-10.6058
ləyə	-10.6059
▁biliklər	-10.6059
▁gerçeği	-10.6062
▁səy	-10.6067
▁xalçalar	-10.607
▁çarı	-10.6077
▁alakalı	-10.608
▁darmadağın	-10.608
▁rəğbət	-10.608
yasət	-10.608
▁Lo	-10.6081
▁gəmisi	-10.6081
▁geldiği	-10.6083
▁üzerindeki	-10.6088
▁Bala	-10.6089
▁açıdan	-10.609
▁2003	-10.6091
▁müddətində	-10.6091
▁Po	-10.6093
▁He	-10.6094
▁ayda	-10.6098
▁dediyi	-10.6105
▁fərq	-10.6106
▁Müəllimlər	-10.6108
▁tərəvəz	-10.611
▁efir	-10.611
▁Parlamentin	-10.6111
▁sorular	-10.6111
▁yazılır	-10.6114
▁gətirə	-10.6114
▁etrafında	-10.6117
▁edilen	-10.6119
▁doku	-10.6121
▁muzeyi	-10.6122
▁xatirə	-10.6125
▁yurdu	-10.6125
▁tamaşaçı	-10.613
▁uygula	-10.613
▁gəldikdə	-10.6133
▁sərəncamı	-10.6137
▁sərhədləri	-10.6139
▁uzakta	-10.6141
▁miyiz	-10.6143
▁yazıb	-10.6147
▁nöqtə	-10.6153
▁gösteri	-10.6153
▁rolları	-10.6156
▁giden	-10.6157
▁duruyor	-10.6159
▁anlam	-10.6162
▁Dağ	-10.6163
▁sefer	-10.6168
▁tur	-10.6169
▁alanda	-10.6169
▁rəmzi	-10.6169
▁1916	-10.6169
▁Bəhram	-10.6169
▁18-	-10.6171
▁keçirili	-10.6172
▁koyu	-10.6175
▁dü	-10.6175
▁yarandığı	-10.6175
▁hayatını	-10.6176
▁məktəblər	-10.6176
▁ku	-10.6176
▁səhra	-10.6179
York	-10.6179
▁ilgilen	-10.6179
▁telefonu	-10.6179
▁annem	-10.6179
▁varlığı	-10.6181
▁fazlası	-10.6185
landırma	-10.6189
▁anlamın	-10.6191
▁azərbaycan	-10.6194
▁mesele	-10.6197
▁versiyası	-10.6198
▁adlanırdı	-10.6198
▁maksim	-10.6199
▁and	-10.6203
▁mədəniyyətin	-10.6205
▁elementlərin	-10.6206
▁yoktur	-10.6209
▁ştatı	-10.6214
▁müəllimləri	-10.6215
▁buldum	-10.6216
▁tapı	-10.6217
har	-10.6218
▁Albaniyası	-10.6219
▁ştat	-10.6221
▁160	-10.6228
▁Leninqrad	-10.6229
▁qiyam	-10.6229
▁uşaqların	-10.6236
▁açır	-10.6238
▁torpaqların	-10.624
▁xadimləri	-10.6241
▁gündəlik	-10.6242
▁hastalığı	-10.6246
▁şəhərlərdə	-10.625
▁gitti	-10.6252
▁yarada	-10.6253
uyor	-10.6254
▁ayrılmış	-10.6257
▁Bəstəkar	-10.6259
▁Vurğun	-10.6259
▁bilik	-10.6273
▁Məktəbi	-10.6273
▁şəxsin	-10.6273
▁açılması	-10.6276
▁dəyişi	-10.6277
▁topu	-10.628
2-	-10.6282
▁Par	-10.6282
▁tərəfdarları	-10.6283
▁oluştur	-10.6285
▁Nəcəf	-10.6286
▁Əfəndi	-10.6289
▁geleneksel	-10.629
▁1915	-10.629
▁məni	-10.629
▁çe	-10.6294
▁ediyorlar	-10.6295
▁tərəflər	-10.6296
▁mövsüm	-10.6299
▁hüquqları	-10.6299
▁Ruh	-10.6301
▁bölməsi	-10.6301
▁qoyulur	-10.6303
təzə	-10.6304
▁yaxındır	-10.6304
▁fikirleri	-10.6306
▁qəti	-10.6307
▁meydan	-10.631
▁görmüşdü	-10.631
▁qohum	-10.6314
ğında	-10.6315
▁sok	-10.6317
▁fikirler	-10.6317
▁sonrasında	-10.6319
▁rakam	-10.632
▁faciə	-10.6324
miştim	-10.6324
▁ehtiyatları	-10.6324
▁nömrəl	-10.6325
▁orqanizm	-10.6326
▁tarihi	-10.6326
▁istediğimiz	-10.6332
▁60-	-10.6332
▁uzman	-10.6333
eceğini	-10.6336
▁tərbiyə	-10.6337
▁Ey	-10.6338
şərqdə	-10.6342
▁dillər	-10.6342
▁boy	-10.6343
▁təcrübəsi	-10.6347
▁programı	-10.6348
▁cevabı	-10.635
▁kömür	-10.635
▁zəlzələ	-10.635
▁piyasa	-10.635
▁Qobustan	-10.635
▁iyirmi	-10.6351
▁sür	-10.6354
▁kilo	-10.6365
▁verin	-10.6367
▁önemlisi	-10.6375
▁uca	-10.6375
▁43	-10.6377
▁çətinliklər	-10.6379
▁janr	-10.638
▁Danimarka	-10.6381
▁Mingəçevir	-10.6381
▁Madrid	-10.6381
▁tunc	-10.6381
▁Qusar	-10.6381
▁süper	-10.6381
▁qə	-10.6381
▁bilgiyi	-10.6381
▁yaratmış	-10.6383
▁Liqası	-10.6386
▁təbliğ	-10.6386
▁bitkisi	-10.6387
▁dağın	-10.6387
▁teori	-10.639
▁jurnalını	-10.6391
▁qurulan	-10.6391
▁yüzil	-10.6394
▁vilayətində	-10.6394
▁Xoca	-10.6395
▁endişe	-10.6396
▁bütöv	-10.6399
likle	-10.64
▁hazırlanan	-10.64
▁Əfqanıstan	-10.6401
▁mənbələrində	-10.6401
▁məhdud	-10.6404
▁geldiğini	-10.6409
▁Fələstin	-10.6411
▁icat	-10.6411
▁ilahi	-10.6412
▁Memar	-10.6413
▁vaxtında	-10.6419
▁tutma	-10.6422
▁oyunun	-10.6423
▁soyqırımı	-10.6425
▁dönem	-10.6434
▁illəri	-10.6441
▁Avqust	-10.6442
▁üzerinden	-10.6442
▁təhlükəli	-10.6442
▁sakit	-10.6445
▁herşey	-10.6447
▁hakkı	-10.6447
mle	-10.6447
əlinə	-10.645
▁1992	-10.645
▁Real	-10.645
▁1960	-10.6453
▁man	-10.6453
▁gec	-10.6454
▁1908	-10.6456
▁sağlamak	-10.6466
ebileceği	-10.6468
▁düşünmeye	-10.647
▁etdirmiş	-10.6471
▁bürünc	-10.6473
▁ziyaret	-10.6473
▁Türkmənistan	-10.6473
▁adamların	-10.6474
▁zonasında	-10.6475
▁noktası	-10.6476
▁Şura	-10.6476
▁köy	-10.6478
▁değiştirmek	-10.6481
▁səhər	-10.6484
▁sorunları	-10.6484
▁kitabları	-10.6484
▁tuturdu	-10.6485
▁Beş	-10.6485
▁haqqı	-10.6486
▁duyma	-10.6486
▁türü	-10.6487
▁minilliy	-10.6504
▁texnologiya	-10.6505
▁aktar	-10.6506
▁zalı	-10.6506
▁rənglər	-10.6507
▁firma	-10.6509
▁kaya	-10.6511
▁səma	-10.6514
▁miqyas	-10.6517
▁Beni	-10.6518
ndeki	-10.6519
▁Altı	-10.652
▁cihaz	-10.6521
▁nömrəsi	-10.6523
▁tarih	-10.6527
▁ulduzlar	-10.6527
▁səhifə	-10.653
▁imperator	-10.6531
▁Müəllif	-10.6534
▁kısım	-10.6534
▁Aydın	-10.6536
▁sultanı	-10.6538
▁Ordusu	-10.6538
▁dəyərli	-10.6545
▁cam	-10.6547
▁termin	-10.655
▁Harri	-10.6552
▁halı	-10.6552
▁sağladı	-10.6553
gar	-10.6554
▁koru	-10.6557
▁Mart	-10.6559
ğini	-10.6562
▁yapmayı	-10.6563
▁ədəbiyyatında	-10.6563
▁təntənə	-10.6565
▁Beyləqan	-10.6566
▁xalqları	-10.6567
▁dosent	-10.6568
▁kitabxanası	-10.6571
▁dedik	-10.6573
laşdırılması	-10.6574
▁geçme	-10.6577
▁zirvəsi	-10.6577
▁yaranı	-10.6582
▁evren	-10.6582
W	-10.6582
▁Əhmədov	-10.6583
▁Sizin	-10.6584
▁şirketi	-10.6584
▁genellik	-10.6584
lüğü	-10.6585
▁ilerleme	-10.6585
▁ülkelerde	-10.6586
yib	-10.659
btidai	-10.6594
adiq	-10.6595
▁əli	-10.6595
▁süvari	-10.6597
▁Millət	-10.6597
▁sekiz	-10.6597
▁kəşfiyyat	-10.6597
▁sürə	-10.6597
▁şiə	-10.6597
▁struktur	-10.6599
▁davran	-10.66
▁kırı	-10.6601
▁kəndlərdə	-10.6607
▁ter	-10.6611
▁Fransanı	-10.6613
▁öğretmen	-10.6613
▁qəzetin	-10.6614
▁səthində	-10.6619
▁sar	-10.662
▁Məlum	-10.6624
▁şekil	-10.6625
▁məhrum	-10.6628
▁xarakterli	-10.6628
▁yetiştir	-10.6629
▁Corc	-10.6632
▁öte	-10.6632
▁simvolu	-10.664
▁salınmışdı	-10.6641
▁qardaş	-10.6642
▁ayırma	-10.6648
▁edici	-10.665
▁sütun	-10.6653
▁yayılma	-10.6656
▁sayını	-10.6657
▁yüzü	-10.6659
▁Birçok	-10.6659
▁Qorqud	-10.6659
▁mobil	-10.6659
▁ettiğimiz	-10.6659
▁populyar	-10.6659
▁Növbə	-10.666
rəm	-10.6661
▁kamp	-10.6662
▁başlat	-10.6664
▁anlamaya	-10.6666
▁1907	-10.6667
▁Du	-10.667
▁yazısı	-10.6671
▁ten	-10.6672
▁48	-10.6675
▁sözün	-10.6677
▁davranış	-10.6679
▁2001	-10.6682
▁yönet	-10.6686
bel	-10.6687
▁körfəzi	-10.6687
▁16-	-10.6688
▁qul	-10.6688
▁yapmamız	-10.6694
▁dalğa	-10.6696
mü	-10.6701
▁səfəri	-10.6703
U	-10.6706
▁For	-10.6707
▁kafedra	-10.671
▁hüceyrə	-10.671
▁həqiqət	-10.6714
▁aş	-10.6715
▁Mark	-10.6719
▁teşvik	-10.6722
▁qayğı	-10.6722
▁öldürmüş	-10.6723
▁xanəndə	-10.6723
▁ömür	-10.6725
▁axını	-10.6731
▁ra	-10.6731
▁əsilli	-10.6731
akt	-10.6732
▁isteme	-10.6734
▁yi	-10.6738
▁yıldız	-10.6738
▁dinle	-10.674
▁nəslindən	-10.6744
▁bulundu	-10.6746
▁hündürlükdə	-10.6746
▁mübarizədə	-10.6748
▁Cahangir	-10.6751
▁toplantı	-10.6754
▁qılınc	-10.6754
▁Koroğlu	-10.6754
▁Pekala	-10.6754
▁Lerik	-10.6754
ğe	-10.6756
▁yaparken	-10.6757
maktadır	-10.6759
▁yarpaqları	-10.676
▁salmış	-10.6766
▁kültür	-10.6767
▁məktəbləri	-10.6769
▁the	-10.677
▁təşkili	-10.6773
▁ri	-10.6774
▁getmək	-10.6774
▁Burası	-10.6777
▁yaranma	-10.6779
▁inanc	-10.6779
əşhur	-10.6783
▁dəyəri	-10.6783
▁Yelizavet	-10.6786
▁vücut	-10.6786
▁Şotlandiya	-10.6786
▁olağanüstü	-10.6786
▁verimli	-10.6786
▁Tədqiqatçılar	-10.6786
▁Yeddi	-10.6787
▁1927	-10.6787
▁məntəqələri	-10.679
▁keşfed	-10.679
emez	-10.6792
▁danışıl	-10.6794
▁toy	-10.6796
▁Göz	-10.6798
▁politik	-10.6799
▁şəkli	-10.6807
▁örneği	-10.6809
▁sax	-10.6811
▁edənlər	-10.6816
▁qaçqın	-10.6817
▁düşüb	-10.6818
▁çatışma	-10.6818
▁fövqəl	-10.6818
▁açılışı	-10.6821
▁uzanan	-10.6821
▁çalışıyoruz	-10.6822
▁Hə	-10.6826
▁ağacları	-10.6828
▁diplom	-10.6829
▁İr	-10.6829
▁Kilsə	-10.6833
▁yaşıyor	-10.6834
▁11-	-10.6836
▁keçirmişdi	-10.6836
▁hissed	-10.6838
ğinde	-10.6838
▁dost	-10.6842
dığım	-10.6846
mamız	-10.6848
▁halinde	-10.6849
▁Söz	-10.6849
▁olacağı	-10.685
▁dostluq	-10.6851
▁parmak	-10.6852
▁monoqrafiya	-10.6853
▁qazanmış	-10.6853
▁Doğru	-10.6854
▁torpağın	-10.6854
▁orkestr	-10.6856
▁məlumatı	-10.6862
▁getirdi	-10.6866
ladığı	-10.6872
▁ayə	-10.6873
▁Lu	-10.6873
▁Gürcüstanda	-10.6875
▁inkişafını	-10.6879
▁ü	-10.688
▁tablo	-10.6882
▁meyl	-10.6883
▁dəyişməsi	-10.6883
▁qüvvələrini	-10.6885
▁çocuğun	-10.6885
▁ayrılma	-10.6886
▁şeri	-10.6886
▁çempionatı	-10.6888
X	-10.6889
▁birləşməsi	-10.689
▁nəslin	-10.6893
▁durur	-10.6899
▁imkanları	-10.6909
▁Ələsgər	-10.691
▁yem	-10.6914
▁vəsaiti	-10.6914
▁Argentina	-10.6914
▁Rumıniya	-10.6914
▁klinik	-10.6914
▁Londonda	-10.6914
▁Geçen	-10.6914
▁buğda	-10.6914
▁Konservatoriya	-10.6917
▁yaparak	-10.6918
▁ikna	-10.6919
▁müsəlmanlar	-10.6922
tərəfl	-10.6927
▁ucu	-10.694
▁Finlandiya	-10.6945
▁poz	-10.6945
▁gıda	-10.6946
▁Vəzirov	-10.6948
▁hikâye	-10.6949
▁biznes	-10.695
▁türbə	-10.6953
▁region	-10.6954
▁ordusunda	-10.6962
▁oynayı	-10.6964
▁odaklan	-10.6969
▁ittiham	-10.6978
sizlik	-10.6979
▁təmsilçisi	-10.6979
▁formalaşması	-10.6983
▁müdafiəsi	-10.6986
▁yubileyi	-10.6987
▁motor	-10.6987
▁fi	-10.6989
liğini	-10.6991
▁not	-10.6991
▁Yunanıstan	-10.6994
ser	-10.6995
▁Nazi	-10.6996
▁sonuçlar	-10.6996
▁Dr	-10.6999
şar	-10.6999
▁sahibiz	-10.6999
▁çıxa	-10.6999
▁düşməni	-10.7
▁yaradıcılığını	-10.7002
iyyət	-10.7005
▁Səfi	-10.7006
▁bilmə	-10.7006
▁bizler	-10.7009
▁Oktyabr	-10.7011
▁tecrübe	-10.7011
▁əxlaq	-10.7011
▁italyan	-10.7011
▁qoyuldu	-10.7011
▁bioloji	-10.7012
▁təşkilatçı	-10.7015
▁saldırı	-10.7015
▁nümunəsi	-10.7018
▁düzündə	-10.7021
▁Bura	-10.7021
▁Məktəbin	-10.7022
▁bəstəkarı	-10.7022
▁oxumuşdu	-10.7024
▁gör	-10.7024
▁Müsabiqəsi	-10.7025
▁düşündük	-10.7025
lur	-10.7026
perator	-10.7027
▁quruldu	-10.7028
▁bakma	-10.7031
▁dənizində	-10.7032
▁yerləşdirilmiş	-10.7034
▁müşayiət	-10.7043
▁üslub	-10.7045
▁vəsait	-10.7045
▁qaça	-10.7045
liyor	-10.7045
ləyir	-10.7048
▁texnikası	-10.7054
▁faktlar	-10.7056
▁sıcak	-10.7057
▁1929-	-10.7058
▁fəaliyyətində	-10.7059
▁geriye	-10.7061
▁başlanmışdı	-10.7065
▁ağız	-10.7066
▁davet	-10.7066
▁müvəffəqiyyətlə	-10.7068
▁kompozisiya	-10.7071
▁inancı	-10.7075
▁birşeyler	-10.7075
▁Chris	-10.7076
▁beşinci	-10.7077
▁təşkilatın	-10.7081
▁bulunma	-10.7082
▁hazırlamaq	-10.7083
▁hayatın	-10.7084
▁80-	-10.7085
▁Ti	-10.7087
▁Sir	-10.709
▁Əbülfə	-10.709
▁Kazım	-10.7092
▁qurdu	-10.7094
▁qızları	-10.7095
▁kadınların	-10.7098
▁bilmişdir	-10.7099
▁kv	-10.7102
▁çı	-10.7105
▁səbəblər	-10.7105
diniz	-10.7106
birine	-10.7106
▁şübhə	-10.7107
▁Təhlükəsizli	-10.7109
▁Balkan	-10.7109
▁çekici	-10.7109
▁Rəsulzadə	-10.711
▁Rzayev	-10.711
▁benziyor	-10.711
▁toprak	-10.7111
▁İç	-10.7115
▁oynadığı	-10.7116
▁doğur	-10.7119
▁sən	-10.7119
▁qurulmuşdu	-10.712
▁əsərdə	-10.712
▁quraq	-10.712
▁həqiqətən	-10.7123
uq	-10.7128
▁qadınların	-10.7135
▁hesabla	-10.7135
▁Çe	-10.7139
▁platform	-10.7142
▁zeka	-10.7142
▁qır	-10.7144
▁qab	-10.7146
,5	-10.7147
▁arxasında	-10.7147
▁beden	-10.7149
▁uzanır	-10.7151
▁gəl	-10.7154
▁erken	-10.7159
▁kullanıyor	-10.716
▁ayrıldı	-10.7168
▁addım	-10.717
▁fəsiləsin	-10.717
▁Parlament	-10.7173
▁televizyon	-10.7175
▁dağətəyi	-10.7175
▁Özbəkistan	-10.7175
▁virüs	-10.7182
▁olmamız	-10.7185
▁müttəfiq	-10.7189
▁Mor	-10.7193
▁değiş	-10.7195
▁arama	-10.7196
miyorum	-10.7196
▁gərgin	-10.7197
▁Ber	-10.7198
▁bağlanmış	-10.7198
▁yerləşmiş	-10.7199
▁azadlığı	-10.7199
▁qruplar	-10.72
ümüz	-10.7201
▁büyüdü	-10.7202
ril	-10.7202
▁jurnalında	-10.7208
▁1913	-10.7208
▁Vladimir	-10.7208
▁Əbdül	-10.7208
▁əmisi	-10.7208
▁qayıtdı	-10.7208
▁Qış	-10.7209
▁ünlü	-10.7212
▁çalışıyorum	-10.7213
▁sufi	-10.7217
▁qalın	-10.7217
▁bütövlük	-10.7221
▁uyan	-10.7222
▁inkar	-10.7225
▁məhsulu	-10.7225
▁siyasətini	-10.7229
▁imkansız	-10.723
▁100-	-10.7232
▁qaldığı	-10.7232
▁məktəblərində	-10.7236
▁olduğunuz	-10.7237
▁verileri	-10.7238
▁getiriyor	-10.7238
▁yaşaya	-10.724
▁Rəşid	-10.724
▁faiz	-10.724
▁akıllı	-10.7241
▁pambıq	-10.7241
▁qəhvə	-10.7241
▁yabancı	-10.7241
▁sual	-10.7241
▁1910	-10.7242
▁hepsini	-10.7247
▁siyah	-10.7248
▁görülür	-10.7248
▁hədiyyə	-10.7251
▁orden	-10.7253
▁obrazlar	-10.7259
▁40-	-10.7265
lerinizi	-10.7266
gı	-10.7267
▁zona	-10.7271
ləndirilməsi	-10.7272
▁Məmmədquluzadə	-10.7274
▁yaygın	-10.7274
▁yağmur	-10.7274
eğe	-10.7277
▁yada	-10.7281
leriniz	-10.7283
▁Ada	-10.7285
gun	-10.7285
▁alış	-10.7285
▁Çocuk	-10.7287
dıkları	-10.729
▁Coğrafi	-10.729
▁qərbində	-10.7297
▁olmayı	-10.7298
▁turnir	-10.73
▁taş	-10.73
▁Yazıçı	-10.7301
▁şirketler	-10.7305
layıcı	-10.7306
▁hız	-10.7307
▁orbit	-10.7308
▁Torpaq	-10.7308
▁kendime	-10.7309
▁yayılan	-10.7312
▁mün	-10.7316
abileceği	-10.7317
▁demektir	-10.7317
▁seks	-10.7323
▁tasarla	-10.7323
▁Demek	-10.7326
▁ömrü	-10.7326
▁vasitə	-10.7329
para	-10.7331
▁universiteti	-10.7332
mektedir	-10.7335
▁həyatda	-10.7336
▁fəlsəfəsi	-10.7338
▁çalışmaları	-10.734
▁İsfahan	-10.7341
▁həndəs	-10.7341
▁Tağıyev	-10.7342
▁Qəzet	-10.7342
▁metro	-10.7343
▁polkovnik	-10.7344
▁kimyasal	-10.7344
▁bulunduğu	-10.7346
çıq	-10.7346
▁qayna	-10.7348
▁Düz	-10.7348
▁proseslər	-10.7356
▁55	-10.7356
▁1998	-10.7357
▁salır	-10.7362
▁insanlardan	-10.7366
▁kenar	-10.7366
▁oyunçu	-10.7372
mət	-10.7373
▁tuta	-10.7373
▁Sağ	-10.7375
▁şərab	-10.7375
▁işdə	-10.7377
xana	-10.7379
▁1900	-10.7379
▁yorum	-10.738
▁besle	-10.738
▁barış	-10.7389
muyor	-10.7389
ans	-10.7392
▁çevrilmiş	-10.7394
▁qazı	-10.7395
▁Azadlı	-10.7396
▁sığ	-10.7398
▁prosesində	-10.7399
▁qiymətləndiril	-10.7399
▁gor	-10.7403
▁Fa	-10.7403
▁ailəsini	-10.7403
▁arzusu	-10.7407
▁Müsavat	-10.7409
▁cavan	-10.7409
▁dönəmində	-10.741
▁Gü	-10.7414
▁qapa	-10.7415
▁komponentlərin	-10.7417
▁Yap	-10.7423
▁kullanıl	-10.7423
▁Adil	-10.7424
▁Ərazi	-10.7426
▁hissələrində	-10.7428
▁tapır	-10.7432
▁xoş	-10.7434
▁verdiği	-10.7434
▁alınma	-10.7435
▁aləti	-10.7436
▁Gülüş	-10.744
▁vəhşi	-10.7442
▁Barselona	-10.7443
▁laboratoriya	-10.7443
▁görürsünüz	-10.7443
▁keçi	-10.7446
▁versiya	-10.7446
▁dans	-10.7449
▁Əvvəlcə	-10.7451
▁Mükafatı	-10.7452
▁Bak	-10.7452
▁aktrisası	-10.7458
▁termini	-10.7459
▁inşası	-10.7461
yordum	-10.7463
▁olduğumu	-10.7464
makta	-10.7467
əng	-10.7467
axan	-10.7468
▁hakkındaki	-10.747
▁Din	-10.747
▁cümlə	-10.7476
▁NATO	-10.7477
▁nefes	-10.7477
▁günbəz	-10.7477
▁gemi	-10.7477
▁raket	-10.7477
▁yerləşməsi	-10.7477
▁əsna	-10.7477
▁Öyle	-10.7478
dəmir	-10.7479
▁bulağı	-10.7479
▁duyu	-10.7479
▁işlədiyi	-10.748
▁azalt	-10.7485
▁oynayan	-10.7485
▁şərqində	-10.7486
▁payız	-10.7486
▁2012	-10.7492
▁biçim	-10.7493
▁seviye	-10.7499
▁istərs	-10.7503
▁şagird	-10.7504
▁dostları	-10.7507
▁keçmə	-10.7508
▁psixolo	-10.7511
▁Fərhad	-10.7511
▁Zə	-10.7512
▁sergi	-10.7512
▁Vahid	-10.7513
▁tutulan	-10.7514
▁adla	-10.7515
▁komandasını	-10.7516
▁fərqlənmə	-10.7517
qərbdə	-10.7521
▁məcburi	-10.7522
▁araçlar	-10.7524
▁harca	-10.7526
ial	-10.7536
▁çatmış	-10.7536
▁Rəsul	-10.7544
▁bölümü	-10.7545
▁İskəndər	-10.7545
▁Əkbər	-10.7545
▁Kipr	-10.7545
▁dəqiqədə	-10.7551
üp	-10.7553
▁imperiya	-10.7555
▁olmasından	-10.7556
ras	-10.7558
▁izlə	-10.7558
▁adlar	-10.7558
▁əlifbası	-10.756
▁döyüşə	-10.7562
▁Ö	-10.7563
▁yayım	-10.7566
▁üretim	-10.7566
▁sülaləsini	-10.7567
▁çoxunu	-10.7568
▁benze	-10.757
ja	-10.7574
▁texnologiyaları	-10.7574
▁çempionatın	-10.7574
▁Çələbi	-10.7579
▁Latın	-10.758
▁əməkdaşları	-10.758
▁hissetme	-10.7581
▁foto	-10.7584
▁soyu	-10.7591
▁Per	-10.7592
▁edilməsini	-10.7594
▁Mal	-10.7594
▁səhnəsində	-10.7595
▁çalışmaya	-10.7597
lerimi	-10.7597
▁41	-10.7599
▁tepe	-10.7606
▁bala	-10.761
▁hücreler	-10.761
▁Filmin	-10.761
▁namaz	-10.7611
▁Gülüstan	-10.7614
▁Pyotr	-10.7614
▁Yevlax	-10.7614
▁yanğın	-10.7616
▁boyutlu	-10.7616
▁tutku	-10.7617
▁bərpası	-10.7622
▁düzənlik	-10.7623
▁sənətkarlıq	-10.7625
▁girme	-10.7626
▁hızla	-10.763
▁vəziyyətini	-10.7633
▁keçirmiş	-10.7635
▁bebek	-10.7641
əsən	-10.7644
▁istinad	-10.7646
▁bilmək	-10.7648
▁14-	-10.765
▁birləşdirir	-10.765
▁başta	-10.765
▁Marağa	-10.765
▁əsgəri	-10.7652
▁oran	-10.7653
▁hazırlanmasında	-10.7657
▁mənbə	-10.7657
▁Ermənistanda	-10.766
▁hakimiyyətdə	-10.766
▁köçəri	-10.7662
▁formalaşmasın	-10.7662
▁kaldı	-10.7663
eceği	-10.7665
▁engel	-10.7665
▁limanı	-10.7667
▁1996	-10.7667
▁müəssisə	-10.7674
▁təxmin	-10.7679
▁qiyməti	-10.7681
▁Qan	-10.7682
▁Makedoniya	-10.7683
▁tehdit	-10.7683
▁tüstü	-10.7685
ınca	-10.7685
▁Sam	-10.7687
▁istiqaməti	-10.7688
▁Şam	-10.7688
▁değiller	-10.7689
▁sənədlər	-10.7689
▁çıxarılması	-10.769
▁çəkisi	-10.7692
▁dayanır	-10.7693
▁miktarda	-10.7696
▁axı	-10.7696
▁Bilim	-10.7697
▁organ	-10.77
▁Hem	-10.7702
▁Sasanilər	-10.7707
▁Şab	-10.771
▁ayına	-10.7711
▁tank	-10.7711
▁Av	-10.7712
▁xalqlar	-10.7713
göl	-10.7718
▁yaşayıb	-10.7718
▁cəmiyyətdə	-10.7721
larımı	-10.7722
▁sayılırdı	-10.7722
▁Qarayev	-10.7724
▁sistemleri	-10.7726
▁ənənə	-10.7728
▁təşkilatlar	-10.7731
▁yaradıcısı	-10.7733
▁orqanizmin	-10.7737
▁mətn	-10.7738
lamaya	-10.774
▁üslubu	-10.7744
▁inam	-10.7746
▁dev	-10.7747
▁kurma	-10.7747
▁mahalında	-10.7749
▁dinamik	-10.775
▁46	-10.7753
▁paralel	-10.7753
▁məsul	-10.7753
▁Şəhərdə	-10.7757
▁adet	-10.7764
▁rekord	-10.7765
▁toplama	-10.7766
▁kare	-10.7767
▁hərəkatını	-10.7772
▁dəyişiklik	-10.7772
▁hazırlığı	-10.7773
▁Cə	-10.7774
▁kitablar	-10.7774
▁bax	-10.7777
▁99	-10.7778
▁festival	-10.7782
▁məşğuldur	-10.7783
▁Təhmasib	-10.7784
▁Los	-10.7785
▁zeki	-10.7786
▁Altay	-10.779
▁kö	-10.7793
▁arazi	-10.7793
▁yüzyıl	-10.7793
▁aparmışdı	-10.7794
▁kəndlərin	-10.7794
imin	-10.7795
▁etsin	-10.7796
▁Bank	-10.7796
▁1991	-10.7806
▁rəqib	-10.7807
▁çalıştığım	-10.7809
▁Alı	-10.7813
▁çök	-10.7814
▁parti	-10.7816
▁Park	-10.782
▁əziyyət	-10.7823
▁net	-10.7824
axşı	-10.7825
stan	-10.783
gan	-10.783
▁39	-10.7835
▁tehlikeli	-10.7835
▁özgü	-10.7837
▁Tom	-10.7838
▁başda	-10.7839
▁tökülü	-10.784
▁məzmunu	-10.7844
▁kızı	-10.7848
▁ünvanı	-10.7853
▁deyirlər	-10.7853
▁ağı	-10.7855
▁Nic	-10.7855
ləmə	-10.7855
▁döyüşündə	-10.7857
▁katolik	-10.7857
▁qalınlığı	-10.7858
▁Borçalı	-10.7859
▁seyahat	-10.7859
▁səyyah	-10.7859
▁suvarma	-10.7859
▁Afina	-10.7859
▁devre	-10.7859
▁çempionatını	-10.786
▁günlərdə	-10.7862
▁oynadı	-10.7863
▁musiqiçi	-10.7867
▁dissertasiya	-10.7867
▁babam	-10.7874
▁Qum	-10.7874
▁qanunları	-10.7874
▁Bankı	-10.7875
▁deyib	-10.7876
▁site	-10.7877
▁çapında	-10.7879
▁haqq	-10.7884
▁don	-10.7886
▁meşələri	-10.7889
▁eğlenceli	-10.7894
▁makale	-10.7894
▁okuy	-10.7895
▁əyan	-10.7897
▁13-	-10.7897
▁Müsabiqəsində	-10.7902
▁iqtisadiyyatın	-10.7902
▁yaradıb	-10.7904
▁İngiltərədə	-10.7909
▁yerleştir	-10.791
▁elementlər	-10.791
▁proqramlar	-10.791
▁maddələrin	-10.7912
▁renk	-10.7914
▁Bitki	-10.7916
▁anlatmak	-10.7916
▁git	-10.7919
▁Fe	-10.792
madı	-10.7921
▁Kubokunu	-10.7921
mem	-10.7924
▁Muzeyin	-10.7928
▁Maarif	-10.793
▁işləni	-10.7933
▁zonası	-10.7933
▁gəlirlər	-10.7938
▁deri	-10.7939
▁Qandi	-10.7939
▁güvenlik	-10.7939
▁eriş	-10.7944
▁dairə	-10.7945
▁qurulmuş	-10.7945
▁xəzərlər	-10.795
▁yaşındaki	-10.7951
▁əsaslanır	-10.7952
▁kollektiv	-10.7957
▁açıldı	-10.796
▁yüzey	-10.7964
▁təqdir	-10.7966
▁değişimi	-10.7966
▁partiyası	-10.7966
▁təhlükəsizli	-10.7969
▁qatıldı	-10.7971
lduğu	-10.7973
▁tapmaq	-10.7975
▁əsərlərin	-10.7976
▁Abbasov	-10.7977
▁Don	-10.7979
▁burası	-10.798
ıyordu	-10.7981
▁bəxş	-10.7982
▁1989	-10.7984
dy	-10.7984
▁dəyərlər	-10.7984
▁körpü	-10.7988
▁silsiləsi	-10.7989
▁sarayın	-10.799
▁düşməsi	-10.7991
lməsi	-10.7992
▁gövdə	-10.7993
▁meydanında	-10.7994
▁etməkdə	-10.7996
▁meyvələri	-10.7998
▁Portuqaliya	-10.8001
▁pəncərə	-10.8001
▁kopya	-10.8002
▁gətirilmiş	-10.8002
▁saygı	-10.8003
▁pahalı	-10.8004
▁qazıntı	-10.8005
▁oku	-10.8005
▁geçerli	-10.8006
▁Zi	-10.8006
▁ifaçısı	-10.8009
▁kazandı	-10.8012
lığında	-10.8012
▁dokun	-10.8014
yorlardı	-10.8014
▁düşünmek	-10.8015
▁gaz	-10.8016
▁Cəmiyyəti	-10.8017
kop	-10.802
▁kalbi	-10.802
▁1999	-10.802
▁rəvayət	-10.8023
▁əlaqəli	-10.803
▁sentyabrında	-10.803
▁axtarış	-10.8031
oto	-10.8032
▁bey	-10.8034
▁sim	-10.8037
▁akşam	-10.8037
▁Tahir	-10.8037
▁Öyleyse	-10.8038
▁Cəlal	-10.8038
▁gəlişi	-10.8038
▁komik	-10.8039
▁gördüyü	-10.8041
▁orda	-10.8042
▁Buradaki	-10.8043
▁mexanik	-10.8046
▁Birincisi	-10.8047
ğun	-10.8048
▁adlarını	-10.8049
▁1951-	-10.8053
matik	-10.8056
▁Kazımov	-10.8056
qara	-10.8059
yanı	-10.806
▁bildiğimiz	-10.8061
▁700	-10.8065
▁sınaq	-10.8067
▁poetik	-10.8073
▁bəlli	-10.8073
▁Maraqlı	-10.8073
▁yuva	-10.8073
▁ederek	-10.8075
▁xəstəliyin	-10.8076
▁tanıma	-10.8076
▁Təsərrüfatı	-10.8076
▁kaybol	-10.8077
ehr	-10.8078
▁ölən	-10.8079
▁ba	-10.8081
çülü	-10.8085
▁yarışma	-10.8085
▁Bazen	-10.8087
▁toxum	-10.809
▁eğit	-10.8093
▁hind	-10.8094
▁bakteri	-10.8098
▁Aya	-10.8099
▁hərəkat	-10.8106
▁Dəmir	-10.8107
▁qlobal	-10.811
▁etdirilir	-10.811
▁islahatlar	-10.8112
▁başlaya	-10.8117
▁fakt	-10.812
▁məclis	-10.812
▁taraf	-10.8121
▁gaye	-10.8124
▁göndərdiyi	-10.8124
▁sordu	-10.8125
▁malzeme	-10.8127
▁orqan	-10.8132
▁toz	-10.8133
▁aldılar	-10.8136
▁oynamış	-10.8138
▁sülalə	-10.814
▁Ermənilər	-10.814
▁poeziya	-10.814
▁Qars	-10.8141
▁höküməti	-10.8141
▁herşeyi	-10.8141
▁Sonuç	-10.8142
▁etməlidir	-10.8143
▁Vaxt	-10.8146
kta	-10.815
▁ehtiyacı	-10.8151
▁ölçüləri	-10.8152
▁heyət	-10.8153
▁alanlar	-10.8155
▁köçmüş	-10.816
▁Ər	-10.8166
▁birine	-10.8169
▁praktik	-10.817
▁günləri	-10.8171
▁quruluşunu	-10.8172
▁tamaşalar	-10.8179
▁ürünü	-10.818
▁Venesiya	-10.8182
▁muazzam	-10.8183
▁yayılır	-10.8184
▁övladları	-10.8184
▁Məktəb	-10.8192
▁bilmirdi	-10.8193
▁Müsabiqə	-10.8196
▁sakin	-10.8196
▁uyum	-10.8201
▁Qadın	-10.8201
ıx	-10.8206
▁düşünüyor	-10.8207
▁dekabrında	-10.8208
▁metod	-10.821
▁Tabi	-10.8211
▁Nur	-10.8211
▁mövsümü	-10.8216
▁şans	-10.8219
əd	-10.8219
▁Ağstafa	-10.8219
▁Napoleon	-10.8219
▁çəkmək	-10.8219
▁Yanvar	-10.822
▁yetirə	-10.822
▁göllər	-10.822
▁sair	-10.8222
▁təsirini	-10.8223
▁Cüm	-10.8223
▁borc	-10.8226
▁öğrendim	-10.8229
▁yazan	-10.823
▁Saat	-10.8231
rey	-10.8231
▁Oyunları	-10.8231
▁şaşır	-10.8233
▁gerekiyordu	-10.8236
▁disk	-10.8237
▁qət	-10.8238
ebileceğimiz	-10.824
▁okula	-10.824
▁70-	-10.824
▁fabrika	-10.8243
▁göndərilir	-10.8245
qat	-10.825
▁fakültə	-10.825
▁Səlcuq	-10.8251
▁toplusu	-10.8253
laraq	-10.8255
▁molekul	-10.8256
▁rüzgar	-10.8256
▁Mənbələr	-10.8256
amaz	-10.8256
▁sağlayacak	-10.8258
▁isteyen	-10.826
▁səhiyyə	-10.8261
▁hesablama	-10.8262
▁sana	-10.8262
▁zərb	-10.8263
oş	-10.8267
▁yad	-10.8273
▁mərkəzlərində	-10.8275
▁süd	-10.8276
▁1993	-10.8277
▁Cəmil	-10.828
▁yığ	-10.8282
▁sanal	-10.8285
▁bə	-10.8285
▁qoymuş	-10.8286
▁sıkı	-10.8287
▁görünə	-10.8292
▁təriqət	-10.8292
▁şansı	-10.8293
▁görünmə	-10.8294
▁Ermənistanı	-10.8296
▁kamu	-10.8296
▁1911	-10.8296
▁kısmını	-10.8301
▁Yine	-10.8307
▁Ax	-10.8312
▁sessiz	-10.8317
liğinde	-10.8318
▁ilan	-10.8319
▁bilsin	-10.832
▁vuran	-10.8321
▁aparmış	-10.8324
▁Sultanov	-10.8324
laşdırma	-10.8327
▁bahçe	-10.833
▁tasarruf	-10.833
▁işbirliği	-10.833
▁Geri	-10.833
▁pilot	-10.833
▁Vəliyev	-10.8331
▁çocuğu	-10.8331
▁taxt	-10.8331
▁turist	-10.8332
▁atla	-10.8337
▁bağış	-10.8339
▁məhəllə	-10.834
▁çekti	-10.8343
▁geçiyor	-10.8347
▁ani	-10.8348
▁Peyğəmbər	-10.835
▁qayıda	-10.8352
▁tədqiqatçı	-10.8353
▁edilmə	-10.8355
leşmiş	-10.8356
▁olduğumuzu	-10.836
▁bisiklet	-10.8367
▁İnkişaf	-10.8367
▁Şəfi	-10.8367
▁spor	-10.8367
▁tarım	-10.8369
▁Əsl	-10.8373
▁Mirzəyev	-10.8374
▁gərək	-10.8374
▁sahəni	-10.8374
▁doğrudan	-10.8375
▁gətirdiyi	-10.8375
▁elimizde	-10.8377
▁filosof	-10.838
▁əyaləti	-10.8382
▁batı	-10.8383
ahid	-10.8384
▁müvəffəqiyyət	-10.8386
▁oktyabrında	-10.8387
▁yaka	-10.8387
▁mübadiləsi	-10.8388
▁bilməmişdi	-10.839
▁Bakını	-10.8392
▁görünüş	-10.8393
▁zavod	-10.8395
▁yetirir	-10.8395
▁kullanır	-10.8395
▁əşyalar	-10.8397
▁kesi	-10.8402
▁filialı	-10.8403
▁konstitusiya	-10.8404
▁götürüb	-10.8404
▁bildir	-10.8404
▁bildirilir	-10.8405
▁bulunuyor	-10.8405
▁ansamblı	-10.8406
▁otuz	-10.8408
larınız	-10.8411
▁Ah	-10.8412
▁folklor	-10.8415
▁ab	-10.8416
▁tərcüməsi	-10.8419
qal	-10.842
▁olardı	-10.842
▁məskəni	-10.8426
▁fiyat	-10.8433
▁biyolojik	-10.8433
▁hədis	-10.8442
landığı	-10.8442
▁xəbəri	-10.8443
▁Quran	-10.8444
▁keçirməyə	-10.8447
ime	-10.845
▁av	-10.8455
▁rəsm	-10.8457
lənməsi	-10.8459
▁iti	-10.8464
▁yapmış	-10.8466
▁ideyaları	-10.847
▁çıkart	-10.847
▁ger	-10.8473
▁axar	-10.8474
▁elektronik	-10.8476
▁bakım	-10.8477
▁Kəngərli	-10.8479
▁yeteneği	-10.8479
▁dövrümüzə	-10.8479
▁Paul	-10.8479
▁bağımsız	-10.848
▁olmamışdı	-10.848
▁variantı	-10.8481
▁təbiəti	-10.8483
▁Ed	-10.8483
▁Stad	-10.8483
▁cok	-10.8483
▁tikililər	-10.8485
▁sıxlığı	-10.8494
▁od	-10.8496
▁qayıdı	-10.8497
edici	-10.8499
▁xəstəliklər	-10.8499
▁çaylar	-10.8501
larım	-10.8502
▁köpek	-10.8505
▁he	-10.8506
▁içəri	-10.8508
altı	-10.8509
kça	-10.851
▁47	-10.8511
▁sahilləri	-10.8512
▁buldu	-10.8513
▁heykəl	-10.8513
▁olanı	-10.8514
lənmə	-10.8516
▁şeiri	-10.8516
▁Küçük	-10.8517
▁radikal	-10.8517
▁tövsiyə	-10.8517
▁Bakıxanov	-10.8517
▁səsvermə	-10.8517
▁Güneş	-10.8517
▁servis	-10.8518
▁alet	-10.8518
▁çoğunu	-10.8523
▁birləşə	-10.8523
▁fayda	-10.8523
▁birləşmiş	-10.8526
▁neyse	-10.8527
▁mahalle	-10.8527
▁banka	-10.8528
▁başını	-10.8528
▁düşmə	-10.8529
▁Hu	-10.8531
▁liste	-10.8533
▁şirəsi	-10.8534
▁kanseri	-10.8537
▁araçları	-10.8539
▁ayırır	-10.854
▁sonuçları	-10.8542
▁çalıştık	-10.8543
▁martında	-10.8544
▁Ser	-10.8545
▁sır	-10.8545
▁arkadaşlarım	-10.8546
▁məsələlərin	-10.8546
▁Rəhim	-10.8548
▁alətlər	-10.8548
bt	-10.855
▁Asya	-10.8553
▁intellekt	-10.8555
▁müthiş	-10.8555
▁Texnologiya	-10.8555
▁institutu	-10.8556
▁Günü	-10.8557
▁kür	-10.8559
▁Ailə	-10.8559
▁görünüşü	-10.856
▁lif	-10.856
▁mimari	-10.8561
mik	-10.8562
sur	-10.8562
▁baza	-10.8563
▁ettiler	-10.8567
▁rahatsız	-10.857
▁elementləri	-10.8573
▁yaklaşım	-10.8573
▁göstərici	-10.8574
▁soyqırım	-10.8576
▁publisist	-10.8578
▁emal	-10.8579
▁dağlarında	-10.8581
▁bazası	-10.8582
▁değişikliği	-10.8585
▁Kimya	-10.8585
▁İngiltere	-10.8593
▁patent	-10.8593
▁fərqlənə	-10.8593
▁həddə	-10.8593
▁ipək	-10.8595
▁hükümet	-10.8598
▁tele	-10.8599
ımızın	-10.8601
▁etdirdiyi	-10.8602
▁birden	-10.8608
▁Tbilisi	-10.8611
ğünü	-10.8617
bur	-10.8617
▁tehlike	-10.8618
ümü	-10.8619
▁təsvirləri	-10.8621
▁kuboku	-10.8622
ulla	-10.8622
▁ölkəsində	-10.8624
abilen	-10.8627
▁işində	-10.8628
▁mühitin	-10.8628
▁dolları	-10.8629
▁sorunlar	-10.8629
▁kaçır	-10.863
üksək	-10.8631
▁General	-10.8631
▁mağaza	-10.8631
est	-10.8631
▁parkı	-10.8631
▁dekorativ	-10.8631
▁yanaşma	-10.8632
▁kurs	-10.8632
▁Papa	-10.8632
▁azalması	-10.8634
▁2-3	-10.8635
▁sokak	-10.8636
▁təhlil	-10.8636
▁öğrenmek	-10.8637
▁işleri	-10.8641
▁bölgələrdə	-10.8644
▁incə	-10.8645
▁vitamin	-10.8645
lardaki	-10.8646
▁minə	-10.8647
▁düşərgə	-10.8648
▁universitetləri	-10.8649
▁göndərilmiş	-10.8649
▁qüllə	-10.8651
▁veriler	-10.8651
▁ismi	-10.8653
▁benzeri	-10.866
▁2015	-10.8662
▁əhəmiyyətini	-10.8663
▁kitabə	-10.8666
7-	-10.8667
▁qışla	-10.8668
▁soğuk	-10.8668
▁tələbələri	-10.8669
▁Abidə	-10.8669
▁Qısa	-10.867
▁lirik	-10.867
umuz	-10.8672
▁birleştir	-10.8672
▁Pro	-10.8673
▁təhlükəsi	-10.8674
▁ortam	-10.8674
▁həyət	-10.8676
▁gösterme	-10.8678
ğlu	-10.8678
▁adlanmış	-10.8682
▁torpağı	-10.8683
▁Kara	-10.8685
lerimizin	-10.8686
▁dövrlər	-10.8687
▁maddəsi	-10.8688
▁ettiğim	-10.8693
▁keçdiyi	-10.8693
▁tayfalar	-10.8694
▁26-	-10.8697
▁çəkilməsi	-10.8702
▁Culfa	-10.8708
▁canavar	-10.8708
▁kuvvet	-10.871
▁Devletler	-10.8712
layır	-10.8713
▁verilen	-10.8713
▁1,5	-10.8715
▁təlimi	-10.8717
▁kullanıcı	-10.8718
▁dava	-10.8719
▁anlaşma	-10.872
posta	-10.8726
▁hepimizin	-10.873
▁hey	-10.8732
inizi	-10.8735
▁sağlığı	-10.8736
▁hatırla	-10.8737
▁değiştirme	-10.8738
▁Val	-10.8738
diğinde	-10.8741
▁mərasim	-10.8743
▁ifadəsi	-10.8744
mıştım	-10.8744
▁xanımın	-10.8746
▁ox	-10.8746
▁zayıf	-10.8747
▁obje	-10.8747
▁simfoni	-10.8747
ayım	-10.8747
▁Heç	-10.8749
▁əməyi	-10.875
▁Er	-10.8756
▁oyunlarında	-10.8759
▁boşluğu	-10.8761
▁yazılan	-10.8761
▁təkan	-10.8762
▁kart	-10.8766
▁benimle	-10.8769
▁kinostudiyası	-10.877
▁fəsil	-10.8776
▁alanları	-10.8778
▁çəkdi	-10.8779
▁ər	-10.878
▁konuşu	-10.878
▁faizi	-10.878
saydı	-10.8781
▁hökmdarları	-10.8782
▁şüphe	-10.8783
▁bəzədilmiş	-10.8785
▁imtahan	-10.8785
▁spektr	-10.8785
▁zolaq	-10.8785
▁Tesla	-10.8785
▁Məhkəmə	-10.8786
▁buçuk	-10.8786
▁etiket	-10.8787
▁Balet	-10.8787
▁Şamil	-10.8788
▁evde	-10.8788
▁şirkətləri	-10.8788
▁aləmi	-10.879
▁Hökumət	-10.879
▁çağı	-10.8792
▁dağlarını	-10.8793
ts	-10.8795
▁toplu	-10.8795
▁tatar	-10.8795
▁Əlizadə	-10.8801
▁pat	-10.8803
örü	-10.8804
▁1500	-10.8805
▁vəzifələri	-10.8808
▁yarışı	-10.8809
▁görmeye	-10.8811
▁məskən	-10.8812
▁anlatı	-10.8813
▁imiş	-10.8814
▁paltar	-10.8816
▁məsuliyyət	-10.8818
▁məqalələri	-10.882
▁yun	-10.882
▁evləri	-10.8823
▁Hollandiya	-10.8824
▁qoru	-10.8828
▁istediğiniz	-10.8829
razılıq	-10.8831
▁meşələr	-10.8831
▁Əliyeva	-10.8833
▁Kuba	-10.8834
▁tutulmuşdu	-10.8834
▁xadim	-10.8836
▁Ələkbərov	-10.8841
rus	-10.8842
▁rayonda	-10.8842
▁qon	-10.8844
▁tabeliyində	-10.8845
▁dağıt	-10.8845
▁mövcudluğu	-10.8846
▁arx	-10.8852
▁kendisini	-10.8853
▁Müstəqil	-10.8863
▁kağıt	-10.8863
▁ideya	-10.8869
layacak	-10.8873
▁Jan	-10.8877
▁Yara	-10.8877
▁alanında	-10.8879
▁sorumlu	-10.888
▁es	-10.8881
▁kaza	-10.8883
▁Bol	-10.8884
▁Gö	-10.8887
▁bitirən	-10.8887
▁matç	-10.8888
▁ağzı	-10.8888
▁mərtəbə	-10.8891
▁uğursuz	-10.8892
▁gətirmişdi	-10.8893
▁1918	-10.8894
art	-10.8895
▁olmama	-10.8898
cek	-10.8898
▁yazılım	-10.8899
mayacak	-10.89
▁Həbib	-10.8902
▁nefret	-10.8902
▁rəqabət	-10.8902
▁tuhaf	-10.8902
▁göreceksiniz	-10.8903
▁başlaması	-10.8908
▁yakıt	-10.891
▁Sonuncu	-10.8911
▁Hüseynzadə	-10.8912
ulmuş	-10.8912
▁kainat	-10.8913
▁gözəlliyi	-10.8914
▁Kon	-10.8915
▁Kamil	-10.8916
▁dile	-10.8922
▁komissiyası	-10.8924
▁açar	-10.8924
▁yazmağ	-10.8925
▁ağırlığı	-10.8925
▁Cəfərov	-10.8926
▁yemeği	-10.8928
▁məbədin	-10.8929
▁dərində	-10.8932
▁bağlan	-10.8936
▁dediler	-10.8938
▁çalı	-10.8942
▁kapitan	-10.8942
▁şirkətin	-10.8942
▁dergi	-10.8944
▁göstərməyə	-10.8946
▁sel	-10.8948
ray	-10.8948
▁görünen	-10.8949
abileceğimiz	-10.8949
▁alçaq	-10.8951
▁məskunlaşmışdı	-10.8951
▁çıxmaq	-10.8952
▁sonda	-10.8957
▁digərləri	-10.8959
▁Ze	-10.8963
istik	-10.8968
60	-10.8969
▁seçkilərində	-10.8974
▁seçenek	-10.8981
▁nəfəs	-10.8981
▁şifa	-10.8981
▁vəsiqə	-10.8981
▁ziddiyyət	-10.8982
▁qaranlıq	-10.8982
▁kasıb	-10.8983
▁yakında	-10.8983
▁kum	-10.899
▁elçi	-10.8993
▁istismar	-10.8994
▁ulduzu	-10.8994
▁Venera	-10.8995
düğü	-10.8998
▁yönlendir	-10.8998
▁əzələ	-10.8999
▁məşqçisi	-10.9
▁27-	-10.9
▁Hiçbir	-10.9
▁Anadoluda	-10.9005
ləşmə	-10.9005
▁olmağı	-10.9005
▁ödeme	-10.9005
▁sordum	-10.9006
▁çıxarıla	-10.9006
▁məntiqi	-10.9011
▁kilometre	-10.9012
▁halk	-10.9012
▁geliştirme	-10.9015
▁boyun	-10.9016
▁əlyazma	-10.9016
▁katib	-10.9019
▁ticari	-10.9021
▁Həqiqət	-10.9021
▁vokal	-10.9021
▁çöp	-10.9021
▁nitq	-10.9021
▁Nəsimi	-10.9021
▁Serbiya	-10.9021
▁gəlirdi	-10.9022
▁gid	-10.9025
▁partiyasını	-10.9027
▁şeklinde	-10.9029
▁qətl	-10.9034
▁kanal	-10.9037
▁bolşeviklər	-10.9039
▁teknolojinin	-10.9047
▁ictimaiyyət	-10.9051
▁görülə	-10.9052
▁tipik	-10.9053
▁ixtira	-10.9055
▁noyabrında	-10.9056
▁tük	-10.9058
▁Bədi	-10.9058
▁vurur	-10.9058
▁anahtar	-10.9061
▁sahələrini	-10.9062
▁İngilizce	-10.9063
▁yaddaş	-10.9064
▁qeydiyyat	-10.9065
▁balaca	-10.9067
▁Gel	-10.9068
▁köçür	-10.9069
▁kullanılan	-10.907
▁dediği	-10.9071
▁damar	-10.9072
▁variant	-10.9073
▁münasibətlərin	-10.9075
▁müharibələri	-10.9075
▁texnologiyası	-10.9076
▁alırdı	-10.9076
▁çalıştım	-10.9076
▁mənbələri	-10.9077
yıp	-10.9077
▁bireyler	-10.9077
▁Hayatı	-10.9081
▁demiş	-10.9081
▁qoyulu	-10.9086
▁olmayıb	-10.9087
▁İste	-10.9091
▁bilin	-10.9094
▁sevdiğim	-10.9095
▁Daşkə	-10.91
dığınız	-10.9101
▁qr	-10.9101
▁gezi	-10.9104
▁um	-10.9106
▁yapon	-10.9107
▁Fəlsəfə	-10.9107
-19	-10.9108
▁qitə	-10.911
▁buydu	-10.9111
▁şeyden	-10.9111
▁pillə	-10.9113
▁üsulları	-10.9116
uru	-10.9117
rız	-10.9118
▁buranı	-10.9119
▁göndərilmişdi	-10.9122
▁dəyişən	-10.9123
▁geçiş	-10.9124
adə	-10.9124
▁Qaz	-10.9129
▁önem	-10.9131
▁işlənir	-10.9132
▁qalma	-10.9133
maları	-10.9133
▁toplumun	-10.9136
▁karşılaş	-10.9137
▁Kafka	-10.9141
▁Mikayıl	-10.9141
▁Zakir	-10.9141
▁makina	-10.9141
▁О	-10.9141
▁180	-10.9142
▁olmayacak	-10.9144
▁kaynakları	-10.9144
yacak	-10.9145
▁hissələr	-10.9152
▁oxuya	-10.9153
▁Bayan	-10.9155
▁olunmaq	-10.9158
▁ruhani	-10.9164
▁Göl	-10.9169
▁zal	-10.9174
▁64	-10.9177
▁Şahma	-10.9178
▁icma	-10.9179
▁Ağdərə	-10.9181
▁Elbette	-10.9181
▁kommunist	-10.9181
▁BDU	-10.9181
▁Ses	-10.9182
▁əlamətləri	-10.9184
▁kapat	-10.9185
▁biyoloji	-10.919
▁apardı	-10.9193
▁farkı	-10.9194
▁tikilməsi	-10.9198
▁komissiya	-10.92
▁bakmak	-10.9202
▁At	-10.9207
▁klip	-10.9212
▁anlaya	-10.9214
▁oxuduğu	-10.922
▁olunmasında	-10.9221
▁yolculuk	-10.9222
▁web	-10.9222
▁düştü	-10.9223
▁bildirib	-10.9223
▁duygusal	-10.9224
▁əla	-10.9224
▁kəsilmiş	-10.9225
▁nüsxə	-10.9225
▁hesaplama	-10.9225
▁yanvarında	-10.9228
▁daşıyırdı	-10.9231
layabilir	-10.9232
▁tayfaların	-10.9233
▁Həmid	-10.9238
▁vasitələr	-10.9238
şan	-10.9238
▁Ru	-10.924
▁azdır	-10.9242
▁Ulu	-10.9246
▁təxəllüsü	-10.9248
ly	-10.9249
üstə	-10.9252
▁metodu	-10.9253
▁1995	-10.9253
▁olabileceği	-10.9253
▁ağaç	-10.9254
▁konuşuyor	-10.9255
▁hadisəsi	-10.9258
▁1920	-10.9258
▁gez	-10.9261
▁qrupları	-10.9261
▁intensiv	-10.9263
▁Şöyle	-10.9263
▁qoca	-10.9263
▁debüt	-10.9263
▁grafik	-10.9263
▁qalmaqda	-10.9268
▁Anti	-10.9268
▁dəhşətli	-10.9268
▁olunma	-10.9268
▁müəyyənləşdir	-10.9269
▁kökü	-10.927
▁binaları	-10.9271
▁məzar	-10.9271
▁rəhbərləri	-10.9273
şünaslı	-10.9274
▁demişdi	-10.9279
nızın	-10.9286
▁tədbirləri	-10.9287
▁çempion	-10.929
▁şeydir	-10.9292
▁85	-10.9294
▁salgın	-10.9294
▁fərqi	-10.9298
▁sizinle	-10.9299
▁HIV	-10.9303
▁Aktyor	-10.9303
▁molla	-10.9303
mental	-10.9306
▁xəstəliklərin	-10.931
▁denedi	-10.9314
▁çat	-10.9315
▁yatağı	-10.9315
▁Milan	-10.9315
▁Babil	-10.9316
▁yığması	-10.9319
▁şərt	-10.9324
124	-10.9325
▁tutduğu	-10.9327
▁artdı	-10.9331
▁Gəncəvi	-10.9332
▁etmədi	-10.9332
▁sinyal	-10.9334
▁Parkı	-10.9334
▁qabığı	-10.9335
▁2014	-10.9335
▁kayıt	-10.9337
▁oyununda	-10.9338
▁üstə	-10.9339
▁öyrənən	-10.9339
▁hökumətini	-10.9342
▁azaltma	-10.9342
▁www	-10.9344
▁Xətai	-10.9344
▁Şəhid	-10.9345
▁Harika	-10.9345
▁lent	-10.9347
▁yapabilirsiniz	-10.9348
▁bıraktı	-10.9349
▁anlaşıl	-10.9351
Peterburq	-10.9351
▁cəza	-10.9352
▁güney	-10.9354
▁səfiri	-10.9356
▁Anna	-10.9361
▁dərə	-10.9364
▁yapacağı	-10.9364
▁dönüşüm	-10.9368
▁edirəm	-10.9372
▁çarpa	-10.9376
syonu	-10.9382
▁götürmüşdü	-10.9384
lerdir	-10.9385
▁etdirilməsi	-10.9385
▁möcüzə	-10.9385
▁zəmin	-10.9388
▁tamaşası	-10.9388
▁qərargahı	-10.9391
▁dairəsində	-10.9391
▁göstərilmişdi	-10.9391
ştır	-10.9394
▁formasını	-10.9396
▁mənzil	-10.9396
ual	-10.9396
▁komandanlığı	-10.9399
▁mükafatını	-10.94
▁rəy	-10.94
lardır	-10.9403
▁başlanması	-10.9406
▁bağları	-10.941
▁işləmək	-10.941
indeki	-10.9411
▁kör	-10.9414
▁hazırladı	-10.9417
▁matematik	-10.9418
▁Cəmiyyətini	-10.9419
▁sit	-10.9422
ebilmek	-10.9423
əlkə	-10.9424
ımda	-10.9425
▁gazete	-10.9426
▁hafif	-10.9427
▁Ceyms	-10.9427
▁Şərəf	-10.9427
▁qoyula	-10.9427
▁okeanı	-10.9427
▁keşif	-10.9427
▁arxiv	-10.9427
▁olayı	-10.9428
▁yayında	-10.9429
dadır	-10.9432
▁sürət	-10.9432
▁yılı	-10.9433
▁tel	-10.9435
▁yaptığınız	-10.9435
▁proqramları	-10.9437
▁hərəkətləri	-10.9439
fel	-10.9441
▁keçmək	-10.9446
▁gelişmiş	-10.945
▁ehtiyatı	-10.9453
▁Fo	-10.9456
medi	-10.9458
lerdeki	-10.9459
▁olunmasını	-10.9459
ləşdirilmiş	-10.9459
▁Şamaxıda	-10.9463
▁məktəblərdə	-10.9465
▁süjet	-10.9466
▁araştır	-10.9466
▁biləcəyi	-10.9466
▁İlyas	-10.9469
▁yaklaş	-10.9472
▁Eski	-10.9473
▁Arran	-10.9473
▁Kam	-10.9477
▁qələbəsi	-10.9477
▁Manna	-10.9477
▁devrim	-10.9479
qanlı	-10.9479
▁95	-10.948
▁52	-10.9482
▁Kərbəlay	-10.9483
▁Kız	-10.9488
cak	-10.9489
▁mətni	-10.9489
muştu	-10.949
▁təbiətin	-10.9491
▁Məmmədova	-10.9492
▁Ailəli	-10.9493
▁terk	-10.9495
▁oyuncu	-10.9495
müddətli	-10.9496
▁təminatı	-10.9499
▁değiştirdi	-10.95
▁uşaqlıq	-10.9506
▁bugünkü	-10.9508
▁Ramazan	-10.951
▁sürdürülebilir	-10.951
▁yumşaq	-10.951
▁ünsiyyət	-10.951
▁estetik	-10.951
▁üstüne	-10.951
▁çoxluğu	-10.9511
▁Şirvani	-10.9513
▁zorundayız	-10.9513
▁prinsipləri	-10.9517
▁müstəqilliyi	-10.9519
▁Yaponiyada	-10.952
▁cərəyanı	-10.952
▁qalması	-10.952
▁amerikalı	-10.9521
▁eşi	-10.9521
▁yolun	-10.9521
▁torpaqlarda	-10.9523
▁Dədə	-10.9524
▁İkincisi	-10.9524
▁buxar	-10.9525
▁axtar	-10.9527
▁əməliyyatlar	-10.9528
▁sesleri	-10.9529
▁hamısını	-10.9534
▁hək	-10.955
sün	-10.9551
▁əzəmət	-10.9552
▁fare	-10.9552
▁Vyana	-10.9552
▁xəbərdar	-10.9553
▁turnirin	-10.9554
▁xatırladır	-10.9556
▁yaşaması	-10.9557
▁Kol	-10.9559
▁depo	-10.9563
▁rütubətli	-10.9563
▁Tələbə	-10.9567
▁yaratmağ	-10.9568
qay	-10.9573
▁kateqoriya	-10.9583
▁değerli	-10.9585
▁sahəsini	-10.9585
▁ekle	-10.9585
▁idarəsində	-10.9587
▁bulut	-10.9587
▁yönetim	-10.959
▁dünyanı	-10.9594
▁intihar	-10.9594
▁edip	-10.9594
▁aktivite	-10.9595
▁Elxan	-10.9596
▁Balak	-10.9596
▁giderek	-10.9596
▁cinsel	-10.9597
▁Dadaşov	-10.9597
▁bayraq	-10.9598
▁bo	-10.9599
▁ceza	-10.9602
▁sahibdir	-10.9603
▁edilməyə	-10.9606
▁öne	-10.9606
▁yapıyorum	-10.9607
▁musiqisini	-10.9607
▁kalk	-10.9607
▁müəllimlik	-10.9608
▁öldürdü	-10.9609
▁problemlərin	-10.9611
▁21-	-10.9614
▁Zeynalov	-10.9619
▁tanrısı	-10.9623
▁yaptığını	-10.9623
▁olabileceğini	-10.9624
▁meydanı	-10.9625
▁digəri	-10.9628
▁qarış	-10.9629
üəyyən	-10.9633
leyerek	-10.9633
•	-10.9636
▁eyalet	-10.9636
▁bekliyor	-10.9636
▁müşteri	-10.9636
▁etdirib	-10.9636
ləşdirilməsi	-10.9636
▁Sezar	-10.9637
▁yapay	-10.9638
▁etkilen	-10.9641
▁Üniversitesi	-10.9644
▁besin	-10.9644
▁açılan	-10.9645
▁mayında	-10.9646
larınızı	-10.9646
▁Sasani	-10.9649
▁aklım	-10.9653
▁açılmış	-10.9654
▁silsilə	-10.9655
▁hissettiği	-10.9656
▁kapa	-10.9656
▁etmeyi	-10.9658
▁günlərində	-10.9661
▁edilməli	-10.9662
▁Sadıq	-10.9662
▁öldürülmüşdü	-10.9663
▁kanun	-10.9666
▁kalıyor	-10.9666
▁Rami	-10.9669
▁özgür	-10.967
▁1994	-10.9671
▁kəndlərində	-10.9674
▁çevrilməsi	-10.9675
lqar	-10.9676
▁torpaqlarında	-10.9676
▁Tel	-10.9676
▁döş	-10.9676
▁Röv	-10.9678
▁məzhəb	-10.9678
▁Kabineti	-10.9678
▁İldırım	-10.9678
▁proseslərin	-10.9679
▁çağrı	-10.9679
▁etrafı	-10.968
▁avqustunda	-10.9681
▁evrenin	-10.9682
▁işlədilir	-10.9682
▁əti	-10.9683
▁değiliz	-10.9685
▁baxış	-10.9687
casına	-10.9691
▁ödül	-10.9691
meden	-10.9694
▁Mah	-10.9695
▁metrə	-10.9695
etti	-10.9696
▁birlik	-10.9704
▁açısı	-10.9706
▁Konstitusiya	-10.9708
▁hepiniz	-10.9711
▁ham	-10.9713
▁kitabda	-10.9713
mden	-10.9715
▁Lev	-10.9717
▁Türküstan	-10.9721
▁ameliyat	-10.9721
▁kahraman	-10.9721
▁Şöhr	-10.9721
▁şifre	-10.9721
▁talış	-10.9721
▁subtropik	-10.9722
▁Turizm	-10.9722
▁adalar	-10.9726
▁respublikada	-10.9729
▁istediği	-10.9729
▁göndərilə	-10.973
▁düşə	-10.9732
▁öğrendik	-10.974
▁bağlayır	-10.9741
lıkla	-10.9743
▁ndə	-10.9745
▁İtaliyada	-10.9746
▁təyinatl	-10.9747
▁başlanğıcı	-10.9748
▁radyo	-10.9749
▁naxış	-10.9749
▁yeyi	-10.975
▁anlar	-10.9752
▁Anne	-10.9753
▁mənzərə	-10.9754
▁xatirəsin	-10.9754
Y	-10.9755
▁Martin	-10.9755
▁prosesini	-10.9756
▁qoyan	-10.9762
▁küçü	-10.9763
▁Merkuri	-10.9764
▁şiir	-10.9764
▁Fikr	-10.9764
▁anbarı	-10.9765
▁istədiyi	-10.9766
▁topluluk	-10.9769
▁hazırladığı	-10.9771
9-	-10.9772
▁dənizdə	-10.9774
▁dillərdə	-10.9775
metodik	-10.9777
▁diz	-10.9777
▁Zərdabi	-10.9778
▁şehrin	-10.9778
▁fotoğrafı	-10.9778
▁məmulatı	-10.9782
▁Nik	-10.9784
▁hakimləri	-10.9785
dil	-10.9786
▁sağlar	-10.9787
▁saniyə	-10.9788
▁yapıldı	-10.9788
▁pedaqoq	-10.979
▁oluşturuyor	-10.9791
▁başlanğıc	-10.9791
▁yenilik	-10.9792
▁1997	-10.9796
▁etməkdədir	-10.9797
▁mövqeyini	-10.9799
▁yaşamağ	-10.9801
▁Təxmin	-10.9807
▁həssas	-10.9807
▁Qəzvin	-10.9807
▁aprelində	-10.9809
▁get	-10.981
▁inanç	-10.9811
▁Paşanı	-10.9811
▁geldiğinde	-10.9813
▁Bize	-10.9814
▁oyunlar	-10.9819
▁hap	-10.982
▁faktik	-10.9822
▁Nuru	-10.9823
18	-10.9823
▁mahal	-10.9824
ımızı	-10.9826
▁sizə	-10.9826
▁klubunda	-10.9827
▁vulkan	-10.9828
▁çıxışı	-10.9831
▁mahnını	-10.9831
▁detay	-10.9835
▁qorunu	-10.9836
▁evlilik	-10.9837
bər	-10.9843
▁faciəsi	-10.9844
▁bölgüsü	-10.9847
▁alət	-10.9848
▁kıl	-10.985
▁Ədəbi	-10.985
▁zülal	-10.985
▁Afganistan	-10.985
▁azalır	-10.985
▁transfer	-10.985
▁Tunc	-10.9852
▁56	-10.9852
▁Rafi	-10.9853
▁miktar	-10.9853
▁Tar	-10.9854
layıp	-10.9854
lıkta	-10.9855
▁açtı	-10.9855
▁Okul	-10.9856
▁önemlidir	-10.9856
▁getirme	-10.9862
▁elini	-10.9862
isti	-10.9865
▁alını	-10.9868
▁kurtul	-10.9872
▁alıcı	-10.9872
lla	-10.9874
▁uygulan	-10.9874
▁kitle	-10.9878
▁taki	-10.9878
▁kullandığı	-10.9878
▁sarayda	-10.9878
Araz	-10.9884
meleri	-10.9884
▁varlığını	-10.9884
▁şəhərlər	-10.9886
▁qəbilə	-10.989
▁bölgəni	-10.989
▁restoran	-10.9893
▁Atatürk	-10.9893
▁Bayrağı	-10.9893
▁kemik	-10.9893
▁uluslararası	-10.9893
▁göndərildi	-10.9893
▁Boz	-10.9894
▁hasil	-10.9895
▁kosmos	-10.9896
▁ziyalıları	-10.9897
▁həvəskar	-10.9899
▁oluşturmak	-10.9899
▁aklı	-10.99
layarak	-10.9901
▁etməkdən	-10.9902
▁Ju	-10.9902
▁başlanır	-10.9902
▁1909	-10.9903
▁fənn	-10.9905
▁şəxsiyyətlər	-10.9907
▁gözəllik	-10.9909
ld	-10.9911
▁Para	-10.9915
birini	-10.9918
▁məhsullarını	-10.9918
▁okeanın	-10.992
▁yazmaq	-10.992
▁ənənəsi	-10.9921
yecek	-10.9922
▁qadının	-10.9923
miştir	-10.9924
▁anti	-10.9926
▁öt	-10.9927
▁illərə	-10.9928
▁bürc	-10.9931
▁tutumu	-10.9934
▁ayar	-10.9935
▁kafedrasın	-10.9936
▁xüsusiyyətlər	-10.9936
kommunikasiya	-10.9936
▁türkcə	-10.9937
▁artırılması	-10.9938
▁ittifaqı	-10.9939
▁Jurnalistlər	-10.9939
▁yuxu	-10.994
üne	-10.994
▁ülkelerin	-10.994
▁əmin	-10.9942
▁daşlar	-10.9943
tək	-10.9944
tıl	-10.995
,3	-10.995
▁ip	-10.9952
▁anlattı	-10.9952
▁mübahisə	-10.9952
▁şahmat	-10.9952
ester	-10.9952
log	-10.9953
▁sənədlərin	-10.9954
▁Fondu	-10.9954
▁seçme	-10.9955
▁çalışması	-10.9956
▁uyar	-10.9959
▁xəttini	-10.9959
▁layihələr	-10.996
▁doğrusu	-10.996
ilmesi	-10.9961
▁koku	-10.9965
▁bildirə	-10.9967
▁əsərlərindən	-10.9968
▁nesne	-10.9969
ilebilir	-10.9973
▁artırır	-10.9974
▁dağlarda	-10.9974
▁art	-10.9977
▁çata	-10.9978
▁Cahan	-10.998
▁məhkum	-10.998
▁oksigen	-10.998
▁qənaət	-10.998
▁önümüzde	-10.998
▁müstə	-10.9981
▁səfirliyi	-10.9981
▁adalet	-10.9981
▁bilmek	-10.9982
▁Boy	-10.9985
▁caz	-10.9987
▁təbliğat	-10.9987
▁istiyorlar	-10.9988
▁içmə	-10.9993
▁sümük	-10.9994
▁İrlandiya	-10.9994
▁gerçeklik	-10.9995
▁hastane	-10.9996
larındaki	-10.9998
▁kaldırı	-10.9998
▁otağı	-10.9998
▁22-	-11.0001
▁Kor	-11.0002
▁Ken	-11.0003
▁ailədə	-11.0003
▁oxuyur	-11.0003
mamış	-11.0011
▁məqaləsi	-11.0013
▁solo	-11.0013
▁Kürd	-11.0013
▁yurd	-11.0014
iqtisadi	-11.0017
ımın	-11.0023
▁Lütf	-11.0024
▁Sülh	-11.0024
▁palçıq	-11.0024
▁inanma	-11.0024
▁lat	-11.0024
▁Lin	-11.0025
▁xəstəlikləri	-11.0025
abilirim	-11.0026
▁şok	-11.0026
▁Yur	-11.0028
▁götürülmüşdü	-11.0029
▁qazanmışdı	-11.003
▁tapıla	-11.0033
sna	-11.0034
▁kaba	-11.0034
ire	-11.0034
▁taşın	-11.0035
▁qolunu	-11.0035
▁çətindir	-11.0036
▁am	-11.0039
▁təşkilatını	-11.0042
▁Sina	-11.0043
▁bağlaya	-11.0043
larsa	-11.0044
10	-11.0047
▁paylaşmak	-11.0048
▁boynu	-11.0049
▁saxlan	-11.0051
▁hərfi	-11.0054
▁gü	-11.0057
▁müharibələr	-11.006
▁məlumatların	-11.006
▁xidmətlər	-11.0061
▁keçmişdi	-11.0061
riyaziyyat	-11.0061
‐	-11.0068
▁müsahibə	-11.0068
▁İqtisadiyyat	-11.0068
▁məskunlaşdı	-11.0068
▁1898	-11.0068
▁Şəms	-11.0069
▁fevralında	-11.0069
liler	-11.007
▁Mari	-11.0071
▁Bor	-11.0072
madan	-11.0072
▁titulu	-11.0074
▁planetin	-11.0076
▁oymağı	-11.0077
▁Adi	-11.0078
▁kıyı	-11.0079
▁operator	-11.0083
▁relyef	-11.0084
▁Muzeyi	-11.0086
▁ölmüş	-11.009
▁rəqibi	-11.009
ion	-11.0091
▁qanunlar	-11.0091
▁unut	-11.0092
▁tasarımı	-11.0094
▁alacak	-11.0095
▁maliyet	-11.0096
▁olmamış	-11.0096
hur	-11.0096
▁vermir	-11.0097
▁blok	-11.0097
▁Kişi	-11.0097
▁quşlar	-11.0098
▁Eş	-11.0098
▁yüksəkliyi	-11.0101
▁Osmanlılar	-11.0105
▁şiş	-11.0109
nizin	-11.0111
▁Bilirsiniz	-11.0112
▁Niderland	-11.0112
▁altyapı	-11.0112
▁dramatik	-11.0112
▁dürüst	-11.0112
▁oğuz	-11.0112
▁Gördüğünüz	-11.0114
▁memarlığı	-11.0114
▁çin	-11.0116
▁hayatımı	-11.0116
▁Cümhuriyyətini	-11.0117
▁qurmaq	-11.0117
▁çoğunlukla	-11.0122
▁Milad	-11.0123
▁camaat	-11.0124
▁mantıklı	-11.0124
lıyoruz	-11.0124
▁qurultayın	-11.0126
mis	-11.0126
▁əmir	-11.0127
▁düşündü	-11.013
▁olduk	-11.0131
▁Sır	-11.0132
▁nevi	-11.0132
▁bilərsiniz	-11.0133
▁stadion	-11.0137
▁tık	-11.014
▁gözləri	-11.0142
lıyım	-11.0142
▁çıkı	-11.0142
▁müalicəsi	-11.0143
▁his	-11.0143
▁göndər	-11.0144
acaktır	-11.0146
▁fazlasını	-11.0146
▁topluluğu	-11.0149
▁vəzifələrdə	-11.0154
▁zihni	-11.0156
▁Köhnə	-11.0157
▁ayakkabı	-11.0157
▁Səh	-11.0157
▁Nəsir	-11.0158
▁maddələri	-11.016
▁karşılaştır	-11.016
▁futbolçusu	-11.0161
▁bilinen	-11.0162
▁eğitimi	-11.0162
▁verecek	-11.0163
▁məqsədlər	-11.0167
▁xidmətdə	-11.0168
nuzu	-11.0171
▁yerləşmişdi	-11.0172
▁hikayeler	-11.0172
▁konum	-11.0173
▁yamacında	-11.0175
▁birbirin	-11.0177
▁yerler	-11.0179
xt	-11.0179
▁başçıları	-11.018
▁yüzyılda	-11.0181
▁Peterburq	-11.0182
▁təhlükəsizliyi	-11.0183
diklerini	-11.0183
▁xanımı	-11.019
14	-11.0192
▁sırası	-11.0196
▁yeti	-11.0199
▁ləqəbi	-11.02
▁rəngarəng	-11.0201
▁geoloji	-11.0201
▁ulus	-11.0202
▁balina	-11.0203
▁olabilecek	-11.0203
▁yaradılmasında	-11.0207
▁Livan	-11.0207
▁təhsilin	-11.0207
▁hazırlayır	-11.0208
▁Bey	-11.0209
▁orduda	-11.021
malı	-11.021
▁Fər	-11.0213
▁ötesinde	-11.0219
▁məşğuliyyət	-11.0221
▁Hakimiyyəti	-11.0221
▁kredit	-11.0221
▁yaşamak	-11.0221
▁Han	-11.0223
▁Əmin	-11.0225
▁olmadığından	-11.0226
▁korumak	-11.0227
anlı	-11.0233
▁geldik	-11.0233
▁elektro	-11.0236
▁türleri	-11.0238
ince	-11.024
▁karıştır	-11.0244
▁yaratı	-11.0244
▁balıqlar	-11.0245
▁Aprel	-11.0246
▁Məryəm	-11.0246
▁dərinliyi	-11.0247
▁hatırlıyorum	-11.0247
▁düyü	-11.0248
▁vətəndaşı	-11.0249
▁açan	-11.025
▁məzunu	-11.0251
▁24-	-11.0254
▁1904	-11.0255
▁adlandır	-11.0256
▁Sonun	-11.0258
▁aparırdı	-11.0259
▁rapor	-11.0259
▁qazandığı	-11.0261
liyyə	-11.0264
▁keramika	-11.0264
▁ürünleri	-11.027
sis	-11.027
bili	-11.0272
▁sorma	-11.0274
▁kü	-11.0276
▁sərgi	-11.028
▁oğul	-11.0281
▁düny	-11.0281
▁58	-11.0283
▁bilmişdi	-11.0284
▁İnter	-11.0284
iyordu	-11.0285
tığımız	-11.0286
▁silahları	-11.0286
▁boğazı	-11.0288
▁yarımadasında	-11.0288
▁İngiliz	-11.0289
▁olasılık	-11.029
▁savaşı	-11.029
▁partlayış	-11.0291
▁Xınalıq	-11.0291
▁zidd	-11.0292
▁görüldü	-11.0293
leş	-11.0294
▁olmuştu	-11.0296
çuluq	-11.0296
▁qəhrəmanlıq	-11.0297
▁Tarixçi	-11.0298
▁yanıt	-11.0298
▁otaq	-11.0299
▁ölçüde	-11.0304
▁ulu	-11.0309
▁yönde	-11.0311
▁koyar	-11.0311
▁itir	-11.0312
▁sizlere	-11.0318
▁Şirkət	-11.0319
▁Önce	-11.0322
▁dağılmış	-11.0323
▁magistr	-11.0324
ağac	-11.0327
▁zamanla	-11.0331
▁Alim	-11.0331
▁nəzər	-11.0332
▁nı	-11.0332
▁çalışırlar	-11.0335
▁məruzə	-11.0335
ә	-11.0336
▁bakalavr	-11.0336
▁qurşaq	-11.0337
▁zadəgan	-11.0337
▁hicri	-11.0337
▁Qərib	-11.0337
▁Henri	-11.0339
▁romantik	-11.034
▁İlisu	-11.0341
▁ədəbiyyatda	-11.0342
▁gurur	-11.0343
▁kural	-11.0343
▁işlədil	-11.0347
▁Elektron	-11.035
yseniz	-11.035
▁fizik	-11.035
▁Xanlar	-11.0355
▁ofis	-11.0357
▁Aile	-11.036
▁qurğuları	-11.0361
▁bildiyi	-11.0366
▁Çempionatı	-11.0366
▁vermədi	-11.0372
les	-11.0373
layabiliriz	-11.0375
▁mühafizəsi	-11.0376
▁siyasətçi	-11.0376
▁ulaşma	-11.0377
şir	-11.0378
▁23-	-11.038
▁nəsr	-11.038
▁Həzrət	-11.0381
▁ideyası	-11.0381
▁Londra	-11.0382
▁sərnişin	-11.0382
▁uzunsov	-11.0382
▁vəkil	-11.0383
▁federal	-11.0383
▁Federal	-11.0386
▁müəllimlər	-11.0386
▁gerekirse	-11.0386
▁turşusu	-11.0387
▁örtülmüşdü	-11.0392
▁başarısız	-11.0392
▁Yerdə	-11.0393
▁bilməsi	-11.0393
▁olanak	-11.0394
▁Rüstəmov	-11.0396
liğine	-11.0396
▁kapalı	-11.0399
▁oxuyu	-11.04
▁süqut	-11.04
ırken	-11.0403
▁neyin	-11.0403
lmış	-11.0403
fər	-11.0404
▁Neftç	-11.0408
▁hali	-11.041
▁dediğimiz	-11.0413
▁Art	-11.0413
▁Muzey	-11.0413
▁keçdikdə	-11.0415
▁etməsini	-11.0417
▁adasında	-11.0418
▁qanunvericilik	-11.0421
▁xanlıq	-11.0422
▁kavram	-11.0424
▁Əzim	-11.0427
▁ötürü	-11.0427
▁Facebook	-11.0428
▁aparıb	-11.0428
▁şeker	-11.0428
▁gələcəyi	-11.0428
▁bacarığı	-11.0428
▁söyləyir	-11.0428
▁seçilməsi	-11.0428
▁Ayın	-11.0429
▁məbləğ	-11.043
▁cinsiyet	-11.043
üzə	-11.043
lerimizde	-11.0432
▁tədbir	-11.0433
▁ostanı	-11.0436
▁sahibliyi	-11.0437
▁Roman	-11.044
▁istiqamətləri	-11.0441
▁qurultayı	-11.0445
▁gittik	-11.0447
▁adlandırırdı	-11.0455
▁tutmaq	-11.0455
▁dek	-11.0456
qəsd	-11.0457
luyor	-11.0458
▁deli	-11.0463
▁landşaft	-11.0468
▁fondu	-11.0469
ündürlüyü	-11.047
▁kəndlilər	-11.0473
▁iştirakçı	-11.0473
▁tespit	-11.0473
▁cazibə	-11.0473
▁nazil	-11.0473
▁yargı	-11.0474
▁parlak	-11.0474
▁Lider	-11.0475
▁salınması	-11.0476
▁tələbəsi	-11.0476
▁komandaları	-11.0478
▁anlayabil	-11.0478
▁etibarlı	-11.0479
▁çıxdığı	-11.0479
▁binaların	-11.0481
▁Sər	-11.0483
▁görevi	-11.0483
▁diyorum	-11.0483
▁qalxan	-11.0488
▁respublikamız	-11.0495
▁çalıştığımız	-11.0496
▁düzü	-11.0496
▁Kay	-11.0498
▁yo	-11.0499
▁üzəri	-11.0499
ladığımız	-11.0501
▁nüfus	-11.0501
▁adlandırır	-11.0502
▁hadisəni	-11.0505
je	-11.0506
▁yoluyla	-11.0506
▁nəci	-11.0509
▁nəzəriyyəsini	-11.0513
▁1984	-11.0514
ebilirim	-11.0515
▁İşçi	-11.0515
▁buluş	-11.0519
▁Avrasiya	-11.052
▁Hitler	-11.052
▁cümle	-11.052
▁mühacirət	-11.0521
▁qışı	-11.0522
▁edebilirsiniz	-11.0522
leniyor	-11.0523
▁hareketi	-11.0526
▁müxtəlifliyi	-11.0526
▁bilgileri	-11.0529
▁tikilə	-11.053
of	-11.053
oslav	-11.0531
▁öykü	-11.0531
▁kompozisiyası	-11.0534
▁Məclis	-11.0534
hu	-11.0537
▁177	-11.0538
▁dışarıda	-11.0538
çəkmə	-11.0542
▁oluş	-11.0542
▁aldıqda	-11.0543
▁əvvəllərinə	-11.0545
▁Plan	-11.0547
▁avtomat	-11.0549
▁nişan	-11.0551
▁sevir	-11.0557
▁qoya	-11.0558
▁düşündüğüm	-11.0558
0.000	-11.0563
sma	-11.0564
▁bakıyor	-11.0566
▁öğrenciler	-11.0566
▁Aristotel	-11.0566
▁şüşə	-11.0566
▁əcnəbi	-11.0566
▁ideoloji	-11.0566
▁Uzaq	-11.0566
▁1896	-11.0566
▁Bülbül	-11.0567
▁aktif	-11.0567
▁şərtləri	-11.0567
▁toplanması	-11.0568
▁Cu	-11.0569
▁artırmaq	-11.0569
▁Yas	-11.0569
▁tədbirlərin	-11.0575
▁Bill	-11.0577
▁tənqidi	-11.0582
▁üzvlərini	-11.0583
▁Şirkətin	-11.0584
▁Veri	-11.0585
▁Tele	-11.0585
▁Rusiyası	-11.0586
▁cizgi	-11.0586
▁oluşturma	-11.0589
▁artmışdı	-11.0591
▁sular	-11.0592
▁göstəricisi	-11.0595
,4	-11.0596
▁dikkatli	-11.0598
▁hesabat	-11.0598
▁əksəriyyətini	-11.0598
▁qura	-11.0598
▁edəcəyi	-11.0599
▁125	-11.06
▁cəmiyyətini	-11.0606
ladık	-11.0607
▁işğalında	-11.0608
▁sağlama	-11.0609
▁nükleer	-11.0612
▁vitse	-11.0612
ladım	-11.0614
▁54	-11.0615
▁ərazilərin	-11.0621
▁namazı	-11.0621
▁Hepsi	-11.0622
▁çalışmalar	-11.0622
▁dərsləri	-11.0622
▁içer	-11.0623
▁Anası	-11.0628
lenmesi	-11.0629
▁şəri	-11.0633
▁co	-11.0633
▁duyar	-11.0636
▁dağılması	-11.0637
▁oxumağ	-11.064
▁komandir	-11.0643
▁seni	-11.0645
▁j	-11.0645
▁çılgın	-11.0646
▁kuralları	-11.0647
▁əmirləri	-11.0649
▁Ərazisi	-11.065
▁knyaz	-11.0652
▁səbəbləri	-11.0657
▁çıkarmak	-11.0658
▁mah	-11.0658
▁yaşamaq	-11.0659
▁mimar	-11.0659
▁metodları	-11.0659
hvil	-11.0662
▁olunmağ	-11.0662
▁sosialist	-11.0664
▁səslə	-11.0668
▁gedirdi	-11.0674
▁Go	-11.0679
▁dokuz	-11.068
▁olabilirsiniz	-11.068
▁elmin	-11.0681
▁amil	-11.0682
▁Kolleci	-11.0684
▁növlər	-11.0684
▁bazasında	-11.0685
▁Xristian	-11.0685
▁Sərəncamı	-11.0686
▁sürücü	-11.0687
▁gerekti	-11.0688
birinin	-11.0689
▁yetişkin	-11.0691
▁tədqiqatların	-11.0692
▁başlanan	-11.0692
▁kub	-11.0693
▁dastanı	-11.0695
▁diğerleri	-11.0696
▁universitetdə	-11.0698
▁şirkətini	-11.0699
▁Samu	-11.07
▁Alt	-11.07
▁atlı	-11.0701
▁ölme	-11.0702
▁bilərik	-11.0704
▁təhrif	-11.0706
▁sivil	-11.0706
▁tırman	-11.0706
▁arkasında	-11.0707
▁mutluluk	-11.0708
▁Təzə	-11.0708
▁görüşdə	-11.0709
▁satiri	-11.0709
▁rollar	-11.0709
▁filminin	-11.071
kəmli	-11.0711
▁şərtlər	-11.0712
▁önüne	-11.0713
▁siyahıyaalınma	-11.0715
▁muzeyin	-11.0716
▁Romada	-11.072
▁sahibləri	-11.0722
▁sərhədi	-11.0723
▁grubu	-11.0728
▁bəs	-11.073
▁performans	-11.0732
▁uğradı	-11.0733
▁bağımlı	-11.0736
▁1902	-11.0737
▁məmur	-11.0738
▁siyahı	-11.074
▁çekme	-11.0742
▁yığı	-11.0744
▁kok	-11.0744
▁məs	-11.0744
▁İspan	-11.0751
▁Dörd	-11.0753
▁Güzel	-11.0753
▁Xankəndi	-11.0753
▁optik	-11.0753
▁gelişmekte	-11.0754
▁vermə	-11.0754
▁əski	-11.0755
▁Burda	-11.0756
▁Albom	-11.0758
▁bay	-11.0759
▁adıdır	-11.076
şərqində	-11.076
▁salını	-11.0763
▁aktı	-11.0765
▁konsertlər	-11.0765
▁keçmişdə	-11.0768
imde	-11.0773
▁Mur	-11.0773
▁şerlər	-11.0774
▁ölçek	-11.0774
▁silahlar	-11.0775
▁bilmədiyi	-11.0776
▁yaşamı	-11.0776
▁Məscidi	-11.0779
▁yandırı	-11.078
▁rəqsi	-11.0783
ılmaz	-11.0784
▁doğu	-11.0786
▁müsabiqəsin	-11.0788
▁alırlar	-11.0793
▁ihtiyaçları	-11.0793
▁yansıt	-11.0795
▁1986	-11.0796
▁1973	-11.0797
▁Özünü	-11.0799
▁Mixail	-11.0801
▁Qahirə	-11.0801
▁epey	-11.0801
▁nüfusu	-11.0801
▁Belarus	-11.0801
▁Nəbi	-11.0801
▁kuzey	-11.0801
▁1901	-11.0802
▁Usta	-11.0803
▁hayata	-11.0803
▁ov	-11.0804
▁robotlar	-11.0806
▁edilme	-11.0806
▁yürüt	-11.0808
▁Rəhimov	-11.081
tta	-11.0812
▁&#	-11.0816
▁müsəlmanların	-11.0818
▁görebil	-11.0819
▁filmlərin	-11.0821
▁sürece	-11.0825
▁qoruya	-11.0826
önü	-11.0828
▁igid	-11.083
▁Ölüm	-11.0831
▁ölkələrini	-11.0831
▁cəzası	-11.0831
▁verilmə	-11.0836
▁teknolojiyi	-11.0838
▁şekillendir	-11.0839
▁məzarı	-11.0839
▁halka	-11.0843
rom	-11.0843
▁1950	-11.0846
▁Salah	-11.0846
▁2016	-11.0846
▁qalaktika	-11.0848
▁Əkinçi	-11.0848
▁kolxoz	-11.0848
▁trilyon	-11.0851
▁çəkmiş	-11.0852
▁çirk	-11.0855
▁Rey	-11.0856
▁Bazıları	-11.0857
▁məntiq	-11.086
▁tarafında	-11.0864
▁arkadaşı	-11.0865
ore	-11.0866
▁deneyimi	-11.0866
▁rəvayətlər	-11.0867
▁bölgede	-11.0867
▁xaqan	-11.0867
▁Fai	-11.0868
▁yapılması	-11.0868
▁İnqilab	-11.0872
▁faktor	-11.0875
▁zamana	-11.0876
ebilen	-11.0876
▁liman	-11.0878
▁organizasyon	-11.0879
larımızda	-11.088
▁komitə	-11.0881
▁xaricində	-11.0883
lub	-11.0884
▁anasını	-11.0885
▁inceleme	-11.0886
▁istey	-11.0887
▁atma	-11.0889
leştirmek	-11.089
▁karşısında	-11.0891
▁muxtar	-11.0893
▁Vəzir	-11.0893
▁1975	-11.0894
▁yaptılar	-11.0894
▁silahı	-11.0894
▁Xoy	-11.0896
▁Microsoft	-11.0896
▁lütfen	-11.0896
▁xor	-11.0897
▁əhvalat	-11.0897
▁maaş	-11.0898
▁Afrikalı	-11.0899
mıyorum	-11.0899
▁Söyle	-11.0899
▁51	-11.0899
▁xaqanlığı	-11.09
▁Times	-11.09
▁kullanıyoruz	-11.09
▁tərəfdarı	-11.0903
▁pop	-11.0904
▁isterim	-11.0904
▁artış	-11.0907
▁değişme	-11.0913
▁obrazları	-11.0915
▁hakları	-11.0917
▁olabil	-11.092
▁Is	-11.0925
▁olmaktan	-11.0928
70	-11.093
▁idmançı	-11.0933
▁ters	-11.0935
▁hücumları	-11.0938
▁işığın	-11.0938
▁günündə	-11.0938
▁koşu	-11.0941
▁misin	-11.0943
▁1919	-11.0944
▁konferans	-11.0944
▁naməlum	-11.0944
▁Rəsmi	-11.0944
▁avropa	-11.0944
▁katıl	-11.0945
▁qoymaq	-11.0945
▁maraqla	-11.0946
▁Vəkilov	-11.0946
▁sembol	-11.0947
▁vaka	-11.0947
▁şübhəsiz	-11.0947
▁vermeye	-11.0951
▁poema	-11.0954
▁kullanımı	-11.0955
▁ingilislər	-11.0956
▁hüceyrələri	-11.0958
▁ayağa	-11.0959
lenen	-11.0959
▁Elçin	-11.0959
▁Qazi	-11.0961
şık	-11.0962
▁hissələrini	-11.0962
▁potansiyel	-11.0965
▁seçimi	-11.0965
▁namizədli	-11.0966
▁istedi	-11.0966
luğunu	-11.0968
meyecek	-11.097
▁torpağ	-11.097
▁öd	-11.0971
▁uğuru	-11.0974
▁artist	-11.0975
▁analizi	-11.0975
▁hissediyor	-11.0976
▁kullandığımız	-11.0978
▁yaratıyor	-11.098
▁kültürü	-11.0984
ıldığı	-11.0985
▁incəsənəti	-11.0985
▁Demokrat	-11.0987
▁53	-11.0987
▁1988	-11.0988
▁yarpaq	-11.0988
▁yetkin	-11.0989
▁şehirler	-11.0992
▁Teknoloji	-11.0992
▁Türkmən	-11.0992
▁qolları	-11.0993
▁Həmədan	-11.0993
▁qulluq	-11.0993
▁ustaları	-11.0994
▁sirr	-11.0995
▁Kat	-11.0997
▁nəqliyyatı	-11.0997
▁işlənməsi	-11.0998
▁şimdiye	-11.1
▁qatar	-11.1001
ılıyor	-11.1002
▁aşk	-11.1003
▁işle	-11.1005
▁teatrda	-11.1008
▁dönüştürü	-11.1014
▁suçlu	-11.1014
ləşir	-11.102
▁girişim	-11.102
quli	-11.1021
▁ayrılması	-11.1024
▁200-	-11.1025
▁külək	-11.1026
▁mübarizəsi	-11.1027
▁Sizi	-11.1027
▁şir	-11.1027
▁harcama	-11.1027
▁məskənləri	-11.1028
red	-11.1034
həsə	-11.1035
▁hüququnu	-11.1036
▁tor	-11.1039
▁qanunu	-11.1039
▁Harvard	-11.1041
▁Zülfüqar	-11.1041
▁qalırdı	-11.1042
▁uzan	-11.1042
▁çıxarmaq	-11.1042
▁rəssamlıq	-11.1042
▁Ədirnə	-11.1042
▁taxtın	-11.1042
▁sinql	-11.1042
▁çiy	-11.1043
▁57	-11.1044
▁Çempionatın	-11.1044
▁atları	-11.1046
likten	-11.105
▁büyüt	-11.106
ong	-11.1063
▁yaranmasında	-11.1063
▁keç	-11.1063
▁ediliyor	-11.1064
▁Qəhrəman	-11.1065
▁bilməzdi	-11.1066
▁katılım	-11.1067
40	-11.107
▁yanacaq	-11.1071
▁veril	-11.1073
▁sümükləri	-11.1074
▁Frans	-11.1077
▁çalışdı	-11.1078
▁naxışlar	-11.1078
▁bahsetmek	-11.1078
▁Əsəd	-11.1082
▁yatır	-11.1083
▁təhlili	-11.1083
▁Can	-11.1086
▁pyesi	-11.1087
üseyn	-11.1088
▁endüstri	-11.1088
▁ehti	-11.1088
▁Məhkəməsi	-11.1088
▁həva	-11.109
▁tütün	-11.109
▁zövq	-11.109
▁şəhristanı	-11.109
▁Albert	-11.109
▁hastalıklar	-11.1091
▁kubok	-11.1091
▁çıxarılmışdı	-11.1092
▁hüquqlarını	-11.1095
▁peyğəmbəri	-11.1095
▁çağırı	-11.1096
▁yılın	-11.1097
▁görürdü	-11.11
▁bulmaya	-11.11
▁hekayəsi	-11.1102
.5	-11.1107
▁yekun	-11.1108
▁publisistik	-11.1109
▁değeri	-11.111
▁ofisi	-11.111
▁tat	-11.111
▁tərəqqi	-11.1111
▁artım	-11.1116
▁rejim	-11.1116
▁Tədqiqat	-11.1119
▁aparıcısı	-11.112
▁gölünü	-11.1123
▁parlamentin	-11.1124
▁mahnısını	-11.1125
▁Arş	-11.1127
▁inanır	-11.1128
▁Xa	-11.1129
▁Şərqin	-11.113
lend	-11.1131
▁azaldı	-11.1132
▁Ştatları	-11.1135
mba	-11.1136
▁qayıtdıqda	-11.1138
▁Met	-11.1138
▁NASA	-11.1139
▁qabarıq	-11.1139
▁subyekt	-11.1139
▁əzab	-11.1139
▁yayılıb	-11.1139
▁onurğa	-11.1139
▁moda	-11.114
▁qəhrəmanları	-11.1141
metr	-11.1142
▁göstərişi	-11.1143
▁Abdullah	-11.1145
▁bakarak	-11.1146
▁Pas	-11.1148
▁layihəsini	-11.1148
▁diyoruz	-11.1149
ydim	-11.1149
▁Məhəmmədh	-11.1158
▁dolduru	-11.1159
▁yapacağım	-11.116
▁Məscid	-11.1161
▁əyalətini	-11.1161
▁kaybetti	-11.1161
▁kullanan	-11.1162
yalım	-11.1164
▁keçidi	-11.1164
▁çözümler	-11.1166
▁valideynləri	-11.1167
tör	-11.1168
▁ərəbcə	-11.1171
▁bulud	-11.1173
▁qızlar	-11.1173
▁yöntemi	-11.1174
▁ayrılı	-11.1176
laşdırılmış	-11.1178
▁dünyasının	-11.1179
▁tala	-11.118
▁açılmışdı	-11.1183
▁qayıdan	-11.1183
▁haklı	-11.1184
▁3000	-11.1186
▁açıkça	-11.1187
lerce	-11.1188
▁evlər	-11.1188
▁karışık	-11.1188
▁1897	-11.1188
▁yəhudilər	-11.1188
▁oturaq	-11.1188
giz	-11.1188
▁qulaq	-11.1189
▁bakıp	-11.1191
▁vilayətini	-11.1193
▁birinde	-11.1193
abildiği	-11.1193
▁klubları	-11.1193
▁sala	-11.1195
▁düzey	-11.1195
▁yaşıyoruz	-11.1195
▁faizini	-11.1196
▁Oyunlarında	-11.1199
▁koyma	-11.12
▁özelliği	-11.1202
▁Wi	-11.1208
▁bulur	-11.1218
▁yarısını	-11.122
▁bağlar	-11.122
▁Ərazidə	-11.1222
▁biliy	-11.1224
▁zirvə	-11.1225
lıkları	-11.1227
▁çalıştır	-11.1231
▁zamanlardan	-11.1234
▁Mübarək	-11.1238
▁taklit	-11.1238
▁harf	-11.1239
▁vurduğu	-11.1239
▁şeydi	-11.1244
▁istedik	-11.1246
▁Həmzə	-11.1247
▁pərdə	-11.1247
▁öğretmenler	-11.1248
▁iclas	-11.125
▁mor	-11.1251
▁axırın	-11.1251
▁qırı	-11.1254
duğunu	-11.1259
ller	-11.126
sever	-11.1263
▁axırlarında	-11.1263
▁ucunda	-11.127
▁uğurlar	-11.127
▁yayıldı	-11.1271
▁maliyeti	-11.1272
▁müziği	-11.1275
4-	-11.1277
likte	-11.1279
▁imkanlar	-11.128
▁for	-11.1283
▁daire	-11.1284
▁St	-11.1285
▁təşkilatların	-11.1285
▁İslamı	-11.1287
▁hazırlamışdı	-11.1287
▁Şahrux	-11.1287
▁Nəzər	-11.1287
▁kablo	-11.1287
▁boks	-11.1289
▁oğlanları	-11.1289
▁salmaq	-11.1289
manız	-11.129
▁edebiliriz	-11.1291
▁Hindistanın	-11.1293
jen	-11.1295
▁anlamıyla	-11.1296
▁ünvan	-11.1296
lerse	-11.1298
▁sektorun	-11.1299
▁Əhalisini	-11.1299
▁pak	-11.13
▁olanların	-11.13
ırlar	-11.13
▁eğilim	-11.13
▁engelli	-11.1301
▁musun	-11.1302
▁çətinlik	-11.1303
xanı	-11.1303
lediği	-11.1304
▁məsləhətçi	-11.1305
▁döyüşçüləri	-11.1306
▁sevme	-11.1308
▁filosofu	-11.1309
▁böl	-11.1312
▁Komanda	-11.1316
ırsınız	-11.1318
▁nereden	-11.1326
▁Dedi	-11.1329
▁Hasta	-11.1332
▁kriz	-11.1332
▁bahsed	-11.1334
▁düzenleme	-11.1334
▁Twitter	-11.1337
▁cerrah	-11.1337
▁sandalye	-11.1337
▁tıbbi	-11.1337
▁Türbə	-11.1337
▁minarə	-11.1338
▁daşnak	-11.1339
▁kulak	-11.1339
▁təməl	-11.134
▁Leon	-11.1342
▁bat	-11.1342
▁ihtiyacınız	-11.1345
▁Nor	-11.1347
▁şurası	-11.1349
▁karşılık	-11.1354
▁stadionun	-11.1354
▁sıralarında	-11.1355
▁qovuş	-11.136
▁sənətkarlar	-11.1363
▁kəndli	-11.1363
▁yapabileceği	-11.1366
▁qayıtmış	-11.1368
▁qəs	-11.1368
▁fikirlərini	-11.1369
▁kişiye	-11.1373
▁vaxta	-11.1374
▁müzakirələr	-11.1375
▁diplomat	-11.1379
madi	-11.1386
▁vəziri	-11.1387
▁qəribə	-11.1388
▁Bilgisayar	-11.1388
▁qaldırmaq	-11.1388
▁Səud	-11.1388
▁Yaşıl	-11.1388
▁civarında	-11.1391
▁teknolojileri	-11.1391
▁düzenle	-11.1393
▁arkadaşları	-11.1394
▁getməsi	-11.1397
▁seçi	-11.1398
coğrafi	-11.14
▁böhran	-11.1401
▁Rome	-11.1404
▁otel	-11.1404
,	-11.1408
mıyoruz	-11.1408
▁etik	-11.1408
▁avqustda	-11.1411
▁İmperiyasını	-11.1413
▁bağlam	-11.1421
▁gerçekleş	-11.1424
▁təqaüd	-11.1431
▁görülmüş	-11.1432
▁atır	-11.1435
▁müvəffəq	-11.1436
▁Herat	-11.1437
▁Sanat	-11.1437
▁maqnit	-11.1438
▁palıd	-11.1438
▁Mədinə	-11.1438
▁xərçəng	-11.1438
▁Uilyam	-11.1439
▁Əyyub	-11.1439
▁cihazı	-11.1439
▁həlledici	-11.1439
inizde	-11.144
cim	-11.144
▁öncede	-11.1442
▁şüa	-11.1444
▁sənətkarları	-11.1445
▁işim	-11.1446
▁bilgisayarlar	-11.1447
▁seçkilərdə	-11.1447
ədək	-11.1449
▁dolarlık	-11.1451
▁qurşağı	-11.1451
▁əlifba	-11.1456
▁üzünü	-11.1457
▁göndərmişdi	-11.146
▁İstiqlal	-11.1463
▁önündə	-11.1464
▁varlığın	-11.1465
▁dibi	-11.1465
▁lap	-11.1466
▁gelmiş	-11.1467
▁öyrənmişdi	-11.1468
▁ölkəsini	-11.1471
▁şeylər	-11.1472
▁Cabbar	-11.1473
▁Mərkəz	-11.1476
▁dilə	-11.1476
▁ulaşmak	-11.1476
▁nailiyyətlər	-11.1477
▁ah	-11.1479
▁ün	-11.1481
▁Çiçək	-11.1481
▁binada	-11.1483
▁ücret	-11.1487
▁qəbirlər	-11.1488
▁gerçək	-11.1489
▁kritik	-11.1489
▁Xiyaban	-11.1489
▁professional	-11.1489
▁tuvalet	-11.1489
▁Sahil	-11.1489
▁Kaspi	-11.1489
▁çalıştığı	-11.1489
▁ekibi	-11.149
▁Kino	-11.149
▁maarifçi	-11.149
▁Am	-11.149
▁Pek	-11.1499
▁sınırları	-11.1499
▁şanslı	-11.15
▁diğeri	-11.1501
-15	-11.1508
▁birer	-11.1508
▁rəsmləri	-11.1514
ümüzü	-11.1516
▁desə	-11.1521
▁təşkilatları	-11.1526
▁atık	-11.1529
▁dəyişdirilmiş	-11.1529
▁mahiyyəti	-11.153
▁xətləri	-11.1533
▁tağ	-11.1533
▁1979	-11.154
▁Xızı	-11.154
▁amansız	-11.1541
▁maşınqayırma	-11.1541
▁ihtimalle	-11.1541
▁Camal	-11.1543
▁krizi	-11.1545
duğumuz	-11.1545
▁xeyri	-11.1546
▁vatandaş	-11.1547
malısınız	-11.155
▁sonrası	-11.1554
▁paylaşma	-11.1555
▁kursları	-11.1556
tmiş	-11.1557
▁simvoli	-11.1562
▁istifadəçi	-11.1565
▁kendilerine	-11.1566
▁yayıldığı	-11.1568
tum	-11.1574
▁mübarizəni	-11.1576
▁canlılar	-11.1579
▁çıkarma	-11.1579
▁oxuyan	-11.1581
▁xəritəsi	-11.1584
▁cesaret	-11.1584
▁Məkkə	-11.1585
əzən	-11.1588
▁90-	-11.1591
▁serbest	-11.1591
▁Herodot	-11.1591
▁yoxsul	-11.1591
▁məclisi	-11.1592
▁məktəblərin	-11.1593
▁oxumaq	-11.1593
▁güllə	-11.1596
▁funksiyası	-11.1597
▁çizim	-11.1597
▁vurma	-11.1598
▁arttır	-11.1601
▁veriliş	-11.1602
▁gösterir	-11.1604
▁cəm	-11.1607
▁plana	-11.1607
▁mükafatları	-11.1608
▁idarəsini	-11.161
▁Müharibəsi	-11.1614
▁otaqları	-11.1617
▁protein	-11.1619
▁Konqres	-11.1621
▁seri	-11.1622
▁tikililəri	-11.1622
▁yarımadası	-11.1622
▁bayan	-11.1625
▁ölür	-11.1626
▁kurmak	-11.1626
▁tutulması	-11.1626
▁dairələri	-11.1628
▁girə	-11.163
▁səhnələri	-11.1631
▁istila	-11.1633
▁fərqləndir	-11.1633
▁Uca	-11.164
▁hikayesi	-11.164
▁1982	-11.1642
▁təsadüfi	-11.1642
▁sert	-11.1642
▁tanıt	-11.1642
▁Xəlifə	-11.1643
▁sermaye	-11.1643
▁Tekrar	-11.1643
▁qaçır	-11.1643
▁alimlik	-11.1646
▁diviziya	-11.1647
▁görüyorum	-11.1648
▁Polis	-11.1649
▁tələbləri	-11.165
▁suyunu	-11.1655
▁Pat	-11.1655
▁Irak	-11.1656
▁gruplar	-11.1659
▁elinde	-11.1661
▁səhifələrində	-11.1661
▁yerlere	-11.1662
▁Fizika	-11.1663
▁iyununda	-11.1663
▁qurumları	-11.1664
▁hastalıkları	-11.1669
▁Ayrı	-11.167
▁yoldan	-11.1671
▁Dini	-11.1673
▁tərbiyəsi	-11.1673
▁sorunun	-11.1675
▁hövzəsi	-11.1679
▁hökmü	-11.168
▁denen	-11.168
viç	-11.1681
oru	-11.1681
▁rütbə	-11.1681
▁sənin	-11.1681
▁Cam	-11.1682
▁insani	-11.1683
▁xoşbəxt	-11.1684
▁portret	-11.1686
▁funksiyasını	-11.1687
▁tarzı	-11.1689
▁rəsmə	-11.1689
mlet	-11.169
▁xüsusiyyət	-11.1691
▁kürə	-11.1692
▁çıxarılmış	-11.1692
▁katman	-11.1693
▁Urartu	-11.1695
▁idarəçiliyi	-11.1695
piano	-11.1695
▁pencere	-11.1695
▁gönüllü	-11.1695
mal	-11.1695
▁donanması	-11.1695
▁1983	-11.1696
▁fəsiləsi	-11.1696
▁1903	-11.1696
▁1985	-11.1697
▁qırx	-11.1698
▁Əksər	-11.1698
▁balon	-11.1699
lerindeki	-11.1699
▁mərasimində	-11.17
▁hamar	-11.17
▁Açıq	-11.1702
▁kıta	-11.1702
▁gibiydi	-11.1703
▁kökləri	-11.1707
meniz	-11.1707
▁68	-11.1707
▁imzalandı	-11.1708
▁gelişim	-11.1711
▁çiçəkləri	-11.1711
mayor	-11.1711
▁keyfiyyəti	-11.1712
▁şəhərlərindən	-11.1712
▁qüvvəsini	-11.1714
▁quldur	-11.1715
▁gittikç	-11.1716
▁seçkiləri	-11.1719
ted	-11.1719
▁müəssisələr	-11.1721
▁otur	-11.1724
▁materialı	-11.1727
▁sui	-11.1728
▁deniyor	-11.1729
abildi	-11.173
▁kurallar	-11.173
kif	-11.1734
laştı	-11.1735
▁oluşturu	-11.1737
▁motiv	-11.1738
▁böyüyü	-11.1741
▁oykonim	-11.1741
▁İmperator	-11.1742
incə	-11.1743
acağımız	-11.1745
diğinizde	-11.1746
▁bənzəyir	-11.1747
▁Layihə	-11.1747
▁Window	-11.1747
▁məharətl	-11.1747
▁Doktor	-11.1747
▁kayıp	-11.1749
▁Nov	-11.1749
▁ifaçı	-11.1749
▁düşünüyoruz	-11.175
madığı	-11.175
▁edersiniz	-11.1751
▁ulusal	-11.1757
▁qazan	-11.1757
▁bölmələri	-11.1762
▁qurultay	-11.1764
▁yaralanmışdı	-11.1765
▁görüşme	-11.1768
dıklarını	-11.1772
▁toponimlər	-11.1775
▁müsa	-11.178
▁adlandırdığı	-11.1783
▁standartları	-11.1788
▁üslubunda	-11.179
▁şehri	-11.179
▁qaydalar	-11.1794
▁kom	-11.1797
▁amillər	-11.1798
▁2013	-11.1798
▁Göytürk	-11.1799
▁Araştırma	-11.1799
▁getmişdi	-11.1801
▁boşluk	-11.1802
▁üstünlüyü	-11.1803
▁askeri	-11.1803
▁məhsullar	-11.1804
▁stansiya	-11.1805
▁okulda	-11.1805
▁bildiği	-11.1806
▁səsləndir	-11.1808
▁yayda	-11.1808
▁günümüzə	-11.1811
▁bölün	-11.1811
▁lövhə	-11.1811
▁adlandırmışdı	-11.1811
▁gətirmiş	-11.1812
▁qoşuldu	-11.1812
▁harada	-11.1812
▁liderlik	-11.1814
▁Rau	-11.1814
▁Konstitusiyası	-11.1814
▁müəlliflər	-11.1815
▁Bra	-11.1816
▁Krallığı	-11.1817
▁oynama	-11.1818
▁Aslanov	-11.1818
▁yarattığı	-11.182
nur	-11.182
▁filmlərdə	-11.1821
▁qadını	-11.1823
▁küp	-11.1826
▁izləri	-11.1832
▁seyr	-11.1833
bdin	-11.1833
▁ötə	-11.1833
▁Yarpaqları	-11.1834
▁nüfuzu	-11.1834
▁fənlər	-11.1836
we	-11.1838
▁fırsatı	-11.1838
▁çevrilə	-11.1841
▁firması	-11.1843
laşdırır	-11.1845
▁xristianlığı	-11.1846
▁Şərif	-11.1848
▁saxlanması	-11.1851
▁tavsiye	-11.1852
▁toxucu	-11.1852
▁nikah	-11.1852
▁mercan	-11.1852
▁Əfşar	-11.1852
▁Kolumbiya	-11.1852
▁öldürülməsi	-11.1852
▁jurnalistika	-11.1853
▁Elektrik	-11.1853
▁kıyasla	-11.1853
▁kendinizi	-11.1854
▁strukturu	-11.1855
▁karyerasın	-11.1855
▁adlandırma	-11.1857
▁günümüzde	-11.1858
▁zabiti	-11.186
▁iqamətgahı	-11.1864
▁yetişir	-11.1866
▁Rasi	-11.1869
meli	-11.1872
▁bö	-11.1874
▁Toma	-11.1876
▁sürür	-11.1878
▁bırakma	-11.1879
texniki	-11.1882
▁oynanıl	-11.1884
▁bulabil	-11.1884
▁qoy	-11.1886
▁kollec	-11.1888
lıların	-11.189
▁Kompleks	-11.189
▁olacaktı	-11.1891
▁formalaşdı	-11.1895
▁Sin	-11.1898
▁öneri	-11.1898
▁müəlliflərin	-11.1898
▁canlandır	-11.1898
▁danışa	-11.1899
abileceğiniz	-11.1899
▁diviziyası	-11.19
▁söylediğim	-11.1901
-5	-11.1901
▁molekül	-11.1903
▁şehirde	-11.1904
▁Quşçu	-11.1904
▁Vyetnam	-11.1904
▁başlangıcı	-11.1904
▁berbat	-11.1904
▁öhdəsin	-11.1904
▁Şekspir	-11.1904
▁həzm	-11.1904
▁Yaklaşı	-11.1905
▁oyunlarını	-11.1906
▁müxalifət	-11.1906
▁münasibətlərini	-11.1907
▁Cəm	-11.1909
▁sayında	-11.191
▁mesafe	-11.1912
▁etkin	-11.1912
▁qalxı	-11.1913
▁bölgəsini	-11.1914
▁hekayələr	-11.1914
▁imzaladı	-11.1915
▁İvan	-11.1917
▁sərhədlərini	-11.1917
▁kedi	-11.1919
▁olursak	-11.1919
▁ihtiyacım	-11.192
▁yapabiliyor	-11.1924
▁üsullar	-11.1927
▁İtalyan	-11.1929
▁mənşə	-11.193
▁bədənin	-11.1931
gre	-11.1932
brik	-11.1942
ecekler	-11.1944
zaman	-11.1945
▁etmemiz	-11.1947
▁merkezinde	-11.1947
▁maneə	-11.195
▁yarışları	-11.1952
vet	-11.1953
eye	-11.1956
▁xəzinəsi	-11.1957
▁Əsərləri	-11.1957
▁Ehtimal	-11.1958
▁Mütər	-11.1958
▁hukuk	-11.1958
▁oksijen	-11.1958
▁zireh	-11.1958
▁aktual	-11.1958
▁zevk	-11.1958
▁körpə	-11.1958
▁alkış	-11.1958
▁etmekte	-11.1958
▁Prussiya	-11.1959
▁kulağ	-11.1959
▁imzalanmış	-11.196
▁Alma	-11.1961
▁bilib	-11.1961
▁toplayı	-11.1962
▁düşman	-11.1962
▁davranışı	-11.1964
▁çatdıqda	-11.1967
▁benden	-11.1968
▁Emin	-11.1969
▁yazılıb	-11.1972
▁olmanız	-11.1972
ysanız	-11.1973
▁kültüre	-11.1974
▁danışma	-11.1978
▁biçimi	-11.1978
▁farklılık	-11.1983
dığında	-11.1988
yuz	-11.1988
▁xəritə	-11.1989
▁abidələrində	-11.199
▁müstəmləkə	-11.1991
▁fikr	-11.1992
▁onlarda	-11.1993
▁İz	-11.1998
▁artırdı	-11.2002
▁obyektləri	-11.2002
▁tapşırığı	-11.2004
▁Siy	-11.2005
▁Kazan	-11.2009
▁yenilikçi	-11.201
▁Yuqoslaviya	-11.2011
▁təzahür	-11.2011
▁kampanya	-11.2011
▁yavru	-11.2011
▁Obama	-11.2011
▁öyrənilmiş	-11.2011
▁hasar	-11.2011
▁vətənpərvər	-11.2011
▁Biliyorsunuz	-11.2012
▁sorğu	-11.2012
▁1870	-11.2013
▁anlatıyor	-11.2016
▁qanın	-11.2017
▁bənd	-11.2018
▁Gilan	-11.202
miyoruz	-11.202
▁takımı	-11.2023
▁törətdi	-11.2023
▁kurdu	-11.2023
▁sənayesini	-11.2025
▁Qr	-11.2027
klerini	-11.2028
▁kəməri	-11.2028
▁səfərlər	-11.2029
▁tanımlama	-11.2031
▁nami	-11.2031
▁əməliyyatları	-11.2034
▁solisti	-11.2038
▁xaqanı	-11.2039
▁çalıştığını	-11.204
▁bolşevik	-11.2041
▁keçirə	-11.2042
▁yürüy	-11.2043
▁Çocuklar	-11.2044
▁tüket	-11.2045
▁Şahbu	-11.2052
▁karşıya	-11.2054
▁etdiyimiz	-11.2055
▁konfransın	-11.2061
▁edebiliyor	-11.2064
▁iqtisadiyyatını	-11.2064
▁Brezilya	-11.2065
▁MDB	-11.2065
▁batalyon	-11.2065
▁İnzibat	-11.2065
▁əyləncə	-11.2065
▁Oskar	-11.2065
▁degil	-11.2066
▁qidalanır	-11.2067
▁Ordusunu	-11.2068
▁etmesi	-11.207
▁miydi	-11.2073
▁kesim	-11.2073
▁prosesləri	-11.2074
▁həkimi	-11.2076
ınızı	-11.2077
▁tarixçiləri	-11.2078
▁Sudan	-11.2079
▁Xaç	-11.2081
▁verilişləri	-11.2083
▁boyutu	-11.209
▁ortalarına	-11.2092
▁olunmalı	-11.2092
▁hədəf	-11.2092
▁nöron	-11.2097
▁düşünül	-11.2097
▁And	-11.2099
▁ayağı	-11.2101
▁növlərində	-11.2101
▁herkese	-11.2102
▁döner	-11.2103
▁uyu	-11.2104
▁Ölü	-11.2107
▁yaşadığımız	-11.2108
tığını	-11.2108
▁ifasında	-11.2111
▁problemleri	-11.2111
▁130	-11.2112
▁materialların	-11.2113
▁çəkə	-11.2114
ecektir	-11.2114
▁Hun	-11.2115
▁müdaxilə	-11.2116
▁məclislərin	-11.2117
▁Assosiasiyası	-11.2119
▁ekosistem	-11.2119
▁gözüküyor	-11.2119
▁rekabet	-11.2119
▁şefkat	-11.2119
▁qarşılaşdı	-11.2119
▁talep	-11.2119
▁Fu	-11.2119
▁itibar	-11.2119
aj	-11.2119
▁Əzizbəyov	-11.212
▁beklenti	-11.2121
▁evrensel	-11.2122
▁Salman	-11.2122
▁olanda	-11.2125
olog	-11.2126
▁dayalı	-11.2128
▁boşa	-11.2128
psi	-11.2129
▁Ola	-11.2131
▁başlangıç	-11.2133
▁düşünürdü	-11.2133
▁başlanğıcında	-11.2134
karı	-11.2135
▁ettiğini	-11.214
▁ehtimalı	-11.214
▁unutma	-11.2141
▁görüşləri	-11.2143
▁nu	-11.2144
▁hit	-11.2149
▁tarixçilər	-11.2149
▁Yaşam	-11.2153
▁icması	-11.2155
dissertasiyasını	-11.2157
▁ailem	-11.216
▁72	-11.2161
▁yollarla	-11.2162
rsak	-11.217
▁Səmərqənd	-11.2173
▁spesifik	-11.2173
ANS	-11.2173
▁idrak	-11.2173
▁paket	-11.2175
▁Çili	-11.2176
▁kendileri	-11.2176
▁Quranda	-11.2176
▁sıvı	-11.2178
lyasiya	-11.2179
▁Bilə	-11.218
▁məşq	-11.2181
▁Bədən	-11.2181
▁əsgərlər	-11.2181
▁mat	-11.2182
▁olduğunuzu	-11.2185
▁funksiya	-11.2189
▁səlahiyyətli	-11.2189
leyecek	-11.2197
▁kilsəsini	-11.2198
▁Qadınlar	-11.22
▁qurumu	-11.2201
hat	-11.2201
▁endişelen	-11.2201
etme	-11.2204
▁aləmində	-11.2205
▁öyrənməy	-11.2205
▁təsərrüfatında	-11.2208
▁topladı	-11.221
▁uğramış	-11.2215
▁Üst	-11.222
▁hissetti	-11.222
▁tren	-11.2221
▁Naziri	-11.2222
▁problemin	-11.2225
dınız	-11.2227
▁Bal	-11.2227
dri	-11.2227
▁hassas	-11.2228
▁Tacikistan	-11.2228
▁aparmağ	-11.2228
▁gürültü	-11.2228
▁qəzəb	-11.2228
▁İnşaat	-11.2228
▁Leonardo	-11.2228
▁Vaşinqton	-11.2228
▁hafıza	-11.2228
▁zərif	-11.2228
▁Şiraz	-11.2228
▁memnun	-11.2228
▁Əzimzadə	-11.2229
▁eminim	-11.2235
▁İncil	-11.2236
▁generalı	-11.2236
yyət	-11.2236
▁tutar	-11.2238
▁İnstitut	-11.2238
▁Şunu	-11.2239
▁domuz	-11.2239
▁gördüğüm	-11.2239
▁oluşturan	-11.224
▁səviyyəsini	-11.2242
▁saxlanıla	-11.2243
▁itkin	-11.2245
▁Biri	-11.2247
▁nişanı	-11.2247
amadı	-11.2249
cümə	-11.2253
▁qabiliyyətini	-11.2253
▁Sev	-11.2256
▁oxucu	-11.2256
▁damarları	-11.2256
▁gəmilər	-11.2258
▁gözlənilmə	-11.2262
▁turşu	-11.2265
▁kitabların	-11.2265
▁karyerasını	-11.2267
▁1886	-11.2274
▁açdı	-11.2275
icarət	-11.2282
▁Fakültə	-11.2283
▁Nuxa	-11.2283
▁prototip	-11.2283
▁psixologiya	-11.2283
▁Arslan	-11.2283
▁tərif	-11.2283
▁Geniş	-11.2283
▁stres	-11.2283
▁1987	-11.2285
▁əməkdaşı	-11.2285
▁istiyorsanız	-11.2285
▁Hadisə	-11.2286
▁birlikləri	-11.2287
▁katılma	-11.2287
▁durumunda	-11.2287
may	-11.2289
▁Deniz	-11.2291
▁köçürül	-11.2291
▁değiştirebilir	-11.2291
▁örtük	-11.2291
▁rayonlarda	-11.2292
▁2,5	-11.2293
▁bilinir	-11.2295
▁medallar	-11.2296
▁ilacı	-11.2296
▁qazanması	-11.2296
▁təcil	-11.2297
▁dönüştü	-11.2297
▁kullanım	-11.2304
▁mühitdə	-11.2305
▁səlahiyyətləri	-11.2306
▁etmələri	-11.2307
atma	-11.2307
▁çevirdi	-11.231
▁komm	-11.2311
▁səsləri	-11.2315
▁dönemde	-11.2316
▁çıxışları	-11.2317
▁İndiki	-11.2318
▁Annem	-11.2318
▁birləşməsində	-11.2319
▁yastı	-11.2325
▁acil	-11.2326
▁xanımla	-11.2326
▁etməsində	-11.2327
▁Bel	-11.233
▁Liqa	-11.2333
▁kürdlər	-11.2336
▁kadının	-11.2336
▁təməli	-11.2337
▁tapmış	-11.2337
▁Fazil	-11.2338
▁kahve	-11.2338
▁tərənnüm	-11.2338
▁çevrilib	-11.2339
ərgüş	-11.2339
▁yaşadıqları	-11.2341
▁toplanan	-11.2341
▁Kimse	-11.2342
▁müze	-11.2343
səf	-11.2344
▁aksine	-11.2345
▁girişi	-11.2345
▁Sağlık	-11.2348
▁alarak	-11.2351
▁biologiya	-11.2351
▁kollektivi	-11.2351
▁mif	-11.2351
▁İrəvanda	-11.2352
▁tədqiqatları	-11.2355
▁zəng	-11.2355
▁müəssisələrində	-11.2356
▁birləşmə	-11.2357
▁şəkilləri	-11.2358
▁bende	-11.2359
▁Xuda	-11.2359
▁kəndlər	-11.2362
▁həddində	-11.2364
▁kursu	-11.2368
▁qarın	-11.2372
▁çayların	-11.2374
▁köçmüşdü	-11.2374
▁koloni	-11.2374
▁çıkış	-11.2376
▁yazık	-11.2378
▁birləşir	-11.2379
▁gezegenler	-11.2382
▁mütə	-11.2382
▁nota	-11.2384
▁təkamül	-11.2384
▁350	-11.2386
▁dedikdə	-11.2387
▁yerden	-11.2387
▁49	-11.239
▁yakala	-11.239
▁təsirli	-11.2392
▁doğdu	-11.2394
▁Qırğızıstan	-11.2394
▁mərmər	-11.2394
▁Sergey	-11.2394
▁protokol	-11.2394
▁bəylərbəyi	-11.2394
▁saxlanılması	-11.2394
▁bileşen	-11.2395
▁Tədri	-11.2395
▁artımı	-11.2396
▁mekan	-11.2396
▁Qərbdə	-11.2396
▁Mol	-11.2396
▁qoruğu	-11.2397
▁ekip	-11.2397
▁hamam	-11.2399
▁bakteriler	-11.2402
▁hərbçi	-11.2404
▁toqquşma	-11.2408
▁kül	-11.2409
▁değişiklik	-11.2413
ğru	-11.2413
▁edilmesi	-11.2418
▁getdiyi	-11.2419
▁maşını	-11.2421
▁Orda	-11.2424
▁edilebilir	-11.2424
▁çocuklara	-11.2425
lemeye	-11.2427
▁hissəsidir	-11.243
▁gənclərin	-11.2432
▁istehsalında	-11.2433
▁yapması	-11.2434
lendirme	-11.2435
▁Katolik	-11.2436
▁verilənlər	-11.2437
▁iştirakçıları	-11.2438
▁nisbəti	-11.244
tiraf	-11.2441
▁kitapları	-11.2443
▁Fərmanı	-11.2444
▁kəndlərini	-11.2444
▁gezegende	-11.2448
▁gelebilir	-11.2448
▁AIDS	-11.245
▁fəlakət	-11.245
▁nifrət	-11.245
▁yarımkürəsin	-11.245
▁ibaret	-11.245
▁Komedi	-11.245
▁Nəsib	-11.2451
▁mantar	-11.2451
▁isterseniz	-11.2453
▁alabilir	-11.2454
▁Sənət	-11.2454
▁keşiş	-11.2455
▁bitkiler	-11.2455
▁tacir	-11.2455
▁toplumsal	-11.2456
▁edebil	-11.2458
▁63	-11.2459
▁cəs	-11.246
▁yaza	-11.246
▁divarı	-11.246
▁mövzular	-11.2462
▁yapış	-11.2463
▁bazarı	-11.2463
▁Mada	-11.2465
▁varisi	-11.2467
▁çağırılı	-11.2468
old	-11.247
yüz	-11.247
▁bazarın	-11.2471
▁litr	-11.2473
▁pulu	-11.2474
,7	-11.2476
▁dərslik	-11.2478
unuz	-11.2478
▁Meşə	-11.2479
▁altındadır	-11.2479
▁dus	-11.248
▁əlaməti	-11.2482
▁Fizik	-11.2484
▁ruhunu	-11.2487
▁açma	-11.2488
▁şəhidi	-11.249
▁fayl	-11.2493
▁sulu	-11.2494
▁qalasında	-11.2497
▁əsasları	-11.2498
▁başlattı	-11.2498
▁ekranda	-11.2499
▁regionda	-11.2503
bet	-11.2503
▁etmiyor	-11.2504
▁bilinə	-11.2504
▁məsələni	-11.2505
▁konqres	-11.2506
▁kölgə	-11.2506
▁xeyirxah	-11.2506
▁Əlcəzair	-11.2506
▁ötürmə	-11.2506
▁fonksiyon	-11.2506
▁Mehr	-11.2506
▁limon	-11.2507
▁aparatı	-11.251
▁kredi	-11.2511
▁1977	-11.2512
▁faktör	-11.2514
▁türden	-11.2514
▁kütle	-11.2514
▁motivləri	-11.2515
▁komissarı	-11.2515
▁Yaz	-11.2516
▁şahid	-11.2516
▁Tıp	-11.2517
▁Bayramov	-11.2518
▁sahiptir	-11.2521
▁katkı	-11.2525
▁dinini	-11.2531
▁çoğunluğu	-11.2531
▁itirdi	-11.2535
gh	-11.2536
acaksınız	-11.2537
▁projeler	-11.2539
avuş	-11.254
▁tartış	-11.2544
▁gücləndir	-11.2544
▁əlaqələrin	-11.2546
▁vəkili	-11.2551
cılık	-11.2553
▁erkək	-11.2553
▁yunanlar	-11.2554
▁bekleme	-11.2561
▁şəkilli	-11.2562
▁müdahale	-11.2562
▁Məmlük	-11.2562
▁kıyafet	-11.2562
▁qarışığı	-11.2562
▁manzara	-11.2562
▁ornament	-11.2562
▁düzbucaq	-11.2563
▁tarif	-11.2563
▁ədəbiyyatşünas	-11.2564
▁uçur	-11.2565
▁Konuşma	-11.2566
▁pulsuz	-11.2567
ersiya	-11.257
▁danışan	-11.2571
▁ənənələrini	-11.2575
▁değişti	-11.2576
▁hükümeti	-11.2577
▁hareketleri	-11.258
▁çıkardı	-11.2584
15	-11.2587
▁Kenya	-11.2589
▁hâle	-11.2592
nra	-11.2592
▁tanınması	-11.2596
▁kaybed	-11.2598
▁relyefi	-11.2599
▁şəkillər	-11.2601
▁giri	-11.2601
▁birləşdiri	-11.2603
▁radiosu	-11.2604
▁dərəsi	-11.2605
▁cisim	-11.2608
▁olaylar	-11.2614
▁Əd	-11.2614
▁bişiril	-11.2615
mesine	-11.2616
▁bağladı	-11.2617
▁danışıq	-11.2617
▁üretme	-11.2618
▁Apple	-11.2619
▁bebeği	-11.2619
▁nisbi	-11.2619
▁yeniyetmə	-11.2619
▁Əlbət	-11.2619
sabiq	-11.2619
▁azarkeş	-11.2619
▁olunmur	-11.2619
▁Filip	-11.262
▁kəndlərindən	-11.2622
▁anlatma	-11.2624
▁papa	-11.2629
▁Almanya	-11.2629
▁istifadəçilər	-11.2631
▁tan	-11.2631
▁takdir	-11.2634
,6	-11.2635
▁qalanı	-11.2635
▁Uran	-11.2636
▁məktubu	-11.2637
atör	-11.2641
▁gətirmək	-11.2641
▁əlaqələrini	-11.2641
▁realist	-11.2642
▁anladım	-11.2643
aska	-11.2643
▁baktı	-11.2644
▁anladı	-11.2649
▁Düşün	-11.265
▁düşmənləri	-11.265
▁studiya	-11.2651
▁xeyriyyə	-11.2651
▁geçer	-11.2651
graf	-11.2652
▁təbəqəsi	-11.2653
▁Müharibədə	-11.2654
▁ikincisi	-11.2655
▁çağırır	-11.2657
▁173	-11.2657
▁mühərrik	-11.2657
▁büdcəsi	-11.2659
rasiya	-11.2661
▁ihtimali	-11.2661
▁orqanlarını	-11.2662
▁tümör	-11.2663
ənbə	-11.2666
▁əşya	-11.2667
▁Tez	-11.2667
ezliklə	-11.2671
▁Bəhmən	-11.2676
▁alternatif	-11.2676
▁liberal	-11.2676
▁Əhəməni	-11.2676
▁bütçe	-11.2676
▁materyal	-11.2676
iyordum	-11.2677
▁məməli	-11.2677
▁tələbi	-11.2677
▁Tehranda	-11.268
▁sanatı	-11.268
▁Final	-11.2682
▁gəmiləri	-11.2682
▁mübahisələr	-11.2683
▁oynaya	-11.2684
▁Qazan	-11.2685
▁Sorun	-11.2686
dra	-11.2687
▁truppası	-11.2687
▁sərvət	-11.2687
▁hatırlat	-11.2688
▁müəyyənləşdiril	-11.2689
▁çıkarıyor	-11.2693
▁bilinç	-11.2694
▁tesis	-11.2694
▁cavabı	-11.2696
▁bədəni	-11.2697
▁kişiyi	-11.27
ksiyon	-11.2702
▁edilməkdə	-11.2703
▁Qrup	-11.2705
▁izleme	-11.2705
▁formalaşmışdı	-11.2706
▁Dur	-11.2707
▁Təşkilat	-11.2708
▁süqutun	-11.2711
▁odada	-11.2712
▁əlaqədə	-11.2712
▁29-	-11.2713
▁yaptıklarını	-11.2714
qərbində	-11.2714
▁gecəsi	-11.2716
▁aləmin	-11.2718
25	-11.2719
▁şirkətlər	-11.2722
▁62	-11.2724
▁çekiyor	-11.2728
▁ürəyin	-11.2728
▁kadrların	-11.2728
▁Od	-11.2728
▁çörə	-11.2729
▁değerlendir	-11.2729
aret	-11.2729
▁humani	-11.2733
▁obrazını	-11.2733
▁çıx	-11.2733
▁yüksəldi	-11.2734
▁algoritma	-11.2734
▁kristal	-11.2734
▁Deyilən	-11.2734
▁yarımsəhra	-11.2734
▁edilmir	-11.2734
▁duyğu	-11.2735
▁Artisti	-11.2735
▁ikisini	-11.2737
▁cədvəl	-11.2738
▁qoz	-11.2738
mizden	-11.2738
▁Məktəbini	-11.2741
▁nedeniyle	-11.2742
üç	-11.2744
▁çəkilmə	-11.2744
▁çalar	-11.2746
rektoru	-11.2746
▁obyekt	-11.2748
▁Japonya	-11.2749
▁iyulunda	-11.2749
▁Binə	-11.275
melisiniz	-11.275
▁iyulda	-11.275
▁140	-11.2751
▁Bunlara	-11.2751
▁ahlaki	-11.2752
▁səfərdə	-11.2753
▁Dinam	-11.2754
▁gətirilə	-11.2755
▁Cavadov	-11.2755
▁məqalələrin	-11.2755
▁getirir	-11.2758
▁Evli	-11.2759
▁dönme	-11.2759
▁internette	-11.2767
▁Çal	-11.2767
gedə	-11.2769
▁Ərəbistanı	-11.277
▁vadi	-11.2774
▁kelimeler	-11.2775
▁istehsalat	-11.2777
▁birləşdiril	-11.2777
▁öğretti	-11.2778
▁dramaturq	-11.2779
▁doğurur	-11.278
▁vulkanları	-11.2781
▁baz	-11.2781
▁gündüz	-11.2786
▁bağlandı	-11.2787
▁götürülür	-11.2788
▁akım	-11.2788
▁ettikleri	-11.2789
▁istəmə	-11.279
ebileceğiniz	-11.279
▁Elizabet	-11.2792
▁Mısır	-11.2792
▁Soyuq	-11.2792
▁zolağı	-11.2792
▁istəsə	-11.2792
▁Dərə	-11.2792
▁Tamaşaçılar	-11.2792
▁Qızılbaş	-11.2792
abiliyoruz	-11.2793
▁köçdü	-11.2793
▁Əks	-11.2795
▁terim	-11.2795
▁belge	-11.2795
məkdədir	-11.2795
▁əməkdaşlığı	-11.2796
aktik	-11.2798
▁söylüyorum	-11.2798
▁ederken	-11.2798
▁qarşıdurma	-11.2798
▁yapılma	-11.2799
▁adlandırdı	-11.2799
▁1917	-11.28
▁məsuliyyəti	-11.2801
▁Birlik	-11.2802
▁sualtı	-11.2803
▁getiren	-11.2805
▁Bizler	-11.2807
▁sülhü	-11.2807
▁tutmak	-11.2808
▁olamaz	-11.2809
▁Mavi	-11.281
kte	-11.281
▁gönderme	-11.2814
▁qoş	-11.2815
▁dayanan	-11.2816
▁xəbərlər	-11.2817
▁qanunvericiliyi	-11.2817
▁özellikleri	-11.2819
▁tas	-11.282
▁peki	-11.282
▁çarpı	-11.2823
▁hikayeyi	-11.2823
▁əsrlərin	-11.2825
▁qal	-11.283
yorsun	-11.2831
▁məqsədləri	-11.2832
▁Səfər	-11.2833
▁yapmıyor	-11.2836
tərəqqi	-11.2836
iyyəti	-11.2839
kür	-11.2841
▁məntəqələrində	-11.2841
abul	-11.2841
▁tamaşaların	-11.2842
▁diyarı	-11.2843
▁şer	-11.2844
▁yüksəli	-11.2846
▁şura	-11.2846
▁çempionat	-11.2846
▁eşq	-11.2848
ateqoriya	-11.2848
▁oluşuyor	-11.2849
▁böyrək	-11.285
▁yarımfinal	-11.285
▁yörünge	-11.285
▁çılpaq	-11.285
▁Problem	-11.285
▁popüler	-11.285
▁deyişle	-11.285
▁mütəfəkkir	-11.285
▁üzeri	-11.2851
▁Özellikle	-11.2852
▁Məmmədovu	-11.2852
▁istəyirəm	-11.2853
▁konuşmaya	-11.2853
▁qohumları	-11.2854
▁keçdik	-11.2855
▁olmam	-11.2856
▁ayrılmışdı	-11.2857
▁millətçi	-11.2857
▁konuyu	-11.2858
▁işığı	-11.2858
kâr	-11.2859
abileceğini	-11.286
▁Port	-11.286
▁Soru	-11.2861
▁komponenti	-11.2862
▁gürcülər	-11.2863
▁fond	-11.2864
▁astronomiya	-11.2869
▁yayma	-11.2869
▁dəstələr	-11.2871
▁mülkiyyəti	-11.2872
▁format	-11.2874
▁Rəq	-11.2874
abilirler	-11.2874
▁Bell	-11.2879
▁edərdi	-11.2881
▁üsulla	-11.2881
şel	-11.2881
▁etmirdi	-11.2882
▁miniatür	-11.2883
bek	-11.2886
▁Bağır	-11.2894
▁Britaniyada	-11.2894
suvar	-11.2894
▁guy	-11.2895
▁Dar	-11.2895
▁adlarında	-11.2898
dışı	-11.2898
▁heyecanlı	-11.2899
▁quşları	-11.2899
▁parlamenti	-11.2903
▁900	-11.2903
▁ilgisi	-11.2907
▁Haqverdiyev	-11.2908
▁assistent	-11.2908
▁teşhis	-11.2908
▁çatışmazlığı	-11.2908
▁vakit	-11.2908
▁beğen	-11.2908
▁Normal	-11.2908
▁mərhum	-11.2909
▁devasa	-11.2909
▁uzaqda	-11.291
▁çəmən	-11.291
▁qalmaq	-11.2911
▁Doğa	-11.2911
▁Amazon	-11.2912
▁mezun	-11.2913
▁vəfatı	-11.2915
▁kütlələri	-11.2915
▁pozul	-11.2915
▁yaralanı	-11.2917
▁dağıldı	-11.2917
▁partiyanı	-11.2918
▁payızında	-11.2919
▁redaksiyasın	-11.2919
▁olmazdı	-11.292
▁ulaştı	-11.2921
▁işlənə	-11.2931
▁kürd	-11.2933
ğımız	-11.2933
▁küçəsi	-11.2937
▁Samur	-11.2938
▁anlamlı	-11.2939
▁sonucunda	-11.2941
lüyor	-11.2943
▁175	-11.2945
▁patlama	-11.2946
▁buynuz	-11.2947
▁divan	-11.2947
▁regiona	-11.295
▁arttı	-11.2952
▁düzənliklər	-11.2953
▁önəm	-11.2954
▁bizimle	-11.2955
yacağım	-11.2956
▁vəzi	-11.2958
▁fikrim	-11.2958
▁yaşamın	-11.2959
▁anında	-11.2959
▁saziş	-11.2959
▁bilimi	-11.2959
▁ərə	-11.2961
▁Hayat	-11.2963
ebildiği	-11.2964
▁duru	-11.2964
▁halları	-11.2965
▁profesyonel	-11.2967
▁psikoloji	-11.2967
▁qütb	-11.2967
▁qəddar	-11.2967
▁təcəssüm	-11.2967
▁yönəlmiş	-11.2967
▁nəticələndi	-11.2967
▁Küresel	-11.2967
▁zemin	-11.2967
▁büro	-11.2968
▁teknolojiler	-11.2969
bilirsin	-11.297
▁çalıştı	-11.297
▁yerləş	-11.297
▁ifraz	-11.2972
▁varmış	-11.2973
▁sorar	-11.2973
▁şeytan	-11.2974
▁yansı	-11.2975
▁makinesi	-11.2976
▁lerde	-11.2977
▁baktığınızda	-11.2979
▁dolara	-11.298
▁dağıdıl	-11.298
▁inanı	-11.2981
▁Sadıqov	-11.2982
▁Ford	-11.2983
▁Əmirov	-11.2985
▁Qaraman	-11.2988
▁nəfərin	-11.2988
▁oranda	-11.299
▁kubokunu	-11.299
▁geriyə	-11.2991
▁nəs	-11.2991
▁zədə	-11.2992
▁yapama	-11.2993
▁sınırlı	-11.2995
▁sultanın	-11.2996
▁yarımadasını	-11.2997
▁Kilsəsi	-11.2998
▁olası	-11.2998
▁sikkələr	-11.2999
3-4	-11.3001
▁çim	-11.3003
▁incəsənətin	-11.3007
danış	-11.3007
▁dolan	-11.3008
▁qaydası	-11.3011
▁Erkə	-11.3015
▁yarar	-11.3015
▁xidmətini	-11.302
PS	-11.3022
pək	-11.3022
-12	-11.3022
▁beyninin	-11.3023
▁müqaviməti	-11.3024
▁Berlində	-11.3024
▁Fevral	-11.3026
▁Bosniya	-11.3026
▁tələffüz	-11.3026
▁Görünür	-11.3026
▁İyul	-11.3026
▁sintezi	-11.3026
▁hidrogen	-11.3027
▁pozulması	-11.3028
▁hadisələrdə	-11.3028
▁şərqşünas	-11.3029
▁alalım	-11.3031
▁ayaqları	-11.3031
▁zorundaydı	-11.3034
▁yayımlana	-11.3034
▁biliyordu	-11.3035
▁köle	-11.3037
▁Evi	-11.3038
▁tayfalarını	-11.3039
▁bakan	-11.3041
▁layihələrin	-11.3042
▁padşah	-11.3042
▁qaldırılması	-11.3045
▁resimler	-11.3045
▁qabıq	-11.3046
▁yıllarda	-11.3047
▁Oğlu	-11.3047
▁girmə	-11.3049
▁çözü	-11.305
▁milad	-11.3053
▁millətin	-11.306
▁ço	-11.3062
▁seviyede	-11.3063
▁əlamətlər	-11.3068
▁Sovetlər	-11.3068
▁mantık	-11.3071
ium	-11.3081
▁düşürdü	-11.3084
▁Sana	-11.3084
▁Gürcü	-11.3086
▁sədaqət	-11.3086
▁Genç	-11.3086
▁otlaq	-11.3086
▁yetirilməsi	-11.3086
▁hayran	-11.3087
▁Vətəndaş	-11.3087
▁toplayara	-11.3087
▁finansal	-11.3088
▁kalite	-11.3088
▁biləcəyini	-11.3089
▁Naxçıvanı	-11.3089
▁hadisədə	-11.3089
▁almanlar	-11.3089
▁Mc	-11.309
▁yönelik	-11.3098
▁siyahısında	-11.3102
▁kalın	-11.3103
leyip	-11.3103
▁verdiler	-11.3108
▁Xəstə	-11.3113
▁yapabileceğimiz	-11.3113
▁gözlə	-11.3113
▁dayandırıl	-11.3118
▁Sadə	-11.3118
▁hekayələri	-11.3119
▁MS	-11.3121
vaz	-11.3121
▁üretimi	-11.3124
▁hədiyyələr	-11.3127
iyalı	-11.3127
▁bizden	-11.3134
mdar	-11.3136
▁təşəkkül	-11.3137
▁yapmam	-11.3142
▁planda	-11.3145
▁UNESCO	-11.3146
▁tektonik	-11.3146
▁George	-11.3146
▁kəmiyyət	-11.3146
▁rastgele	-11.3146
▁heykel	-11.3146
▁bilməyib	-11.3146
▁gazeteci	-11.3146
▁sıtma	-11.3146
▁1895	-11.3146
▁köçürülməsi	-11.3146
▁zihinsel	-11.3147
▁Motor	-11.3147
▁dindar	-11.3148
▁adlandırmış	-11.3149
▁cism	-11.3149
▁çağırdı	-11.315
▁dövrlərin	-11.3151
▁hissləri	-11.3152
▁hayatlarını	-11.3152
▁yiy	-11.3152
▁yarışlarda	-11.3157
▁baktığımızda	-11.3158
▁konfranslar	-11.3158
▁qoşunla	-11.3158
▁salonu	-11.316
▁fəaliyyətlə	-11.3161
▁öldürme	-11.3165
▁astronom	-11.3165
▁galaksi	-11.3166
▁KP	-11.3166
▁110	-11.3167
▁kendimize	-11.3167
▁bilimin	-11.3168
işmiş	-11.3172
▁insanlarda	-11.3173
▁müəllifin	-11.3176
▁gələnlər	-11.3176
▁camaatı	-11.3176
▁tasarımcı	-11.3178
▁Genel	-11.3179
▁Cek	-11.3181
▁quyu	-11.3183
▁yürü	-11.3185
▁çekmek	-11.3185
▁rəqəmlər	-11.3186
▁isimli	-11.3187
▁insanlık	-11.3189
▁verdiğimiz	-11.3189
▁yataq	-11.319
▁işləyirdi	-11.3192
▁sebeple	-11.3194
▁Qay	-11.3194
▁birləşmələr	-11.3194
▁qəbri	-11.3195
▁eksik	-11.3195
▁tutulu	-11.3195
baş	-11.3195
qədi	-11.3195
eceksiniz	-11.3199
▁zamanlı	-11.3199
▁yetenek	-11.32
▁kadr	-11.3204
▁qurur	-11.3204
▁yolculuğu	-11.3204
▁Bəziləri	-11.3204
▁dəf	-11.3205
▁saçma	-11.3205
▁dirijor	-11.3206
▁Moldova	-11.3206
▁Mübariz	-11.3206
▁Müqavilə	-11.3206
▁Volqa	-11.3206
▁tənəffüs	-11.3206
▁vahşi	-11.3206
▁çerçeve	-11.3206
▁Ədalət	-11.3206
▁qüvvətli	-11.3206
▁maral	-11.3207
▁qazanmaq	-11.3207
▁sürede	-11.3207
▁bazılarını	-11.3208
▁sənədləri	-11.321
▁itirmə	-11.3211
▁profil	-11.3211
▁vurmuşdu	-11.3211
▁qrupunda	-11.3214
▁etdirməy	-11.3215
▁valisi	-11.3216
▁çözmek	-11.3216
▁koruy	-11.3216
▁yürüşləri	-11.322
▁quruluşunda	-11.3222
▁kateqoriyası	-11.3222
▁qəbulu	-11.3223
▁yarattı	-11.3226
▁engelle	-11.3229
▁statistik	-11.3231
▁yaradıcılığ	-11.3232
▁Jam	-11.3233
▁uğraş	-11.3233
▁qülləsi	-11.3235
günkü	-11.3237
▁basın	-11.3239
şik	-11.3239
▁Liqasını	-11.3239
▁66	-11.3239
▁farkın	-11.3244
▁sistemler	-11.3245
▁oturdu	-11.3247
▁İsmayılı	-11.3247
▁krallığı	-11.3247
▁diyorlar	-11.3248
org	-11.3249
▁adalarında	-11.3253
▁Sta	-11.3254
▁cihazlar	-11.3256
▁dərəcəsini	-11.3258
▁oluşturur	-11.326
▁göstəriş	-11.3261
▁bildiğiniz	-11.3262
▁çatması	-11.3264
rofessor	-11.3265
▁faaliyet	-11.3266
▁fundamental	-11.3266
▁Seçki	-11.3266
▁kraliça	-11.3266
▁çatdırır	-11.3267
▁təfəkkür	-11.3267
▁Sərdar	-11.3267
▁artilleriya	-11.3267
amıyor	-11.3268
▁yoldaşları	-11.327
▁içeren	-11.3272
▁məmulatları	-11.3273
▁Alfa	-11.3273
▁gizlən	-11.3274
▁oturan	-11.3275
▁əyalətində	-11.3275
▁Qoca	-11.3277
ullah	-11.3278
▁aspirantura	-11.3279
▁filmlərində	-11.3282
▁tuz	-11.3285
▁Antoni	-11.3289
▁eşidən	-11.329
▁Cəbhəsi	-11.3294
▁mekanizma	-11.3295
▁çözümü	-11.3296
▁komponent	-11.33
▁Öncelikle	-11.3302
▁ey	-11.3305
▁sahipler	-11.3309
▁xilafəti	-11.3309
▁gəmilərin	-11.331
▁bitən	-11.3311
ker	-11.3313
▁balet	-11.332
BC	-11.3322
▁küme	-11.3323
▁türkmən	-11.3326
▁sözlərini	-11.3327
▁epizod	-11.3327
▁tabaka	-11.3327
▁Fərrux	-11.3327
▁Qəsəbə	-11.3327
▁faşist	-11.3327
▁xörək	-11.3327
▁milyarlarca	-11.3327
▁kartof	-11.3328
▁You	-11.3328
▁buraxdı	-11.3329
▁üçü	-11.3329
▁Minsk	-11.3329
▁səslənir	-11.333
▁xəstəliyində	-11.333
▁Neyse	-11.3331
▁karvan	-11.3331
▁atıcı	-11.3333
▁davamı	-11.3333
▁edilsə	-11.3333
▁İyun	-11.3334
▁parayı	-11.3334
▁qiymətlər	-11.3334
▁Savaşı	-11.3334
mizle	-11.3334
▁Yuxarıda	-11.3337
▁1873	-11.3337
▁üçte	-11.3338
▁olunduqda	-11.3339
▁içerik	-11.3339
▁Sevil	-11.3339
▁1880	-11.3339
uşağı	-11.334
▁başlamak	-11.334
▁evlərin	-11.3341
▁Bab	-11.3343
▁zamandır	-11.3343
▁görüşlər	-11.3344
▁Cha	-11.335
▁İsti	-11.3351
▁çıxarmışdı	-11.3352
▁Baha	-11.3354
▁Yolu	-11.3355
▁torpaqda	-11.3358
▁cəbhədə	-11.3358
▁soruları	-11.3359
▁ödəmək	-11.3365
▁tamamı	-11.3367
▁Fua	-11.3368
▁deneyler	-11.337
▁avtomobili	-11.3372
▁kainatın	-11.3373
irken	-11.3377
▁tutul	-11.3379
▁Kendisi	-11.3379
▁birey	-11.3381
▁Məhərrəm	-11.3382
▁gey	-11.3382
▁açılış	-11.3386
и	-11.3389
▁fosil	-11.3389
▁istehkam	-11.3389
▁karikatür	-11.3389
▁Steve	-11.3389
▁çoxalır	-11.3389
otik	-11.3389
mizdeki	-11.3389
▁adlandırıldı	-11.3389
▁eksperiment	-11.3389
▁qaraciyər	-11.339
▁Məsud	-11.339
▁effektiv	-11.339
▁güvenilir	-11.3391
aşırı	-11.3392
▁hissediyorum	-11.3393
▁diyelim	-11.3393
▁öngörü	-11.3395
▁Yakın	-11.3396
ğümüz	-11.3396
▁tutması	-11.3397
▁qanı	-11.3397
ktı	-11.3401
▁Zir	-11.3401
▁Qulu	-11.3401
ğiniz	-11.3401
liydi	-11.3402
aşqın	-11.3403
▁şairlər	-11.3404
▁Peru	-11.3409
▁tatlı	-11.341
▁maden	-11.341
ight	-11.3411
▁Zey	-11.3412
mızdan	-11.3413
▁konuya	-11.3414
mühendis	-11.3416
▁kanalları	-11.3416
▁giriyor	-11.3416
▁yetirilmiş	-11.3418
▁mətnləri	-11.342
▁Diz	-11.3422
▁dəmiryolu	-11.3434
▁verməyi	-11.3434
biriyle	-11.3435
▁qatılı	-11.3438
▁hastalar	-11.3438
▁meme	-11.344
▁qurum	-11.3441
▁fərdlər	-11.3444
▁riski	-11.3445
amayacağı	-11.3447
▁Komissar	-11.3447
▁fırtına	-11.345
▁öyrəndi	-11.345
▁1890	-11.345
▁Eğitim	-11.3451
▁maruz	-11.3451
▁eğri	-11.3451
▁çoban	-11.3451
▁şahidi	-11.3452
▁Bazar	-11.3452
▁Firu	-11.3455
▁xanla	-11.3456
▁sentyabrda	-11.3456
▁çağdaş	-11.3456
▁bahsetti	-11.3457
▁kilit	-11.3457
▁ederiz	-11.3458
▁yürüme	-11.3458
▁76	-11.3461
▁karşılaştı	-11.3462
▁kadrlar	-11.3465
▁musiqiçilər	-11.3465
▁Aran	-11.3467
▁kut	-11.3468
▁yatak	-11.3469
▁salı	-11.347
▁girmiş	-11.3471
▁qapıları	-11.3471
▁vəzifələr	-11.3472
▁şəhərlərini	-11.3473
▁yardımçı	-11.3473
etmek	-11.3476
▁ağıl	-11.3477
▁İnsanın	-11.3478
▁toplanmış	-11.3478
▁qurd	-11.3479
▁dediğim	-11.3482
▁eri	-11.3483
▁şurasını	-11.3483
▁tapılı	-11.3483
▁Bas	-11.3485
▁seviyor	-11.3487
▁önemi	-11.3488
▁hay	-11.3488
▁yönetme	-11.3489
▁himayəsi	-11.349
▁hərəkətlər	-11.349
▁ediyordu	-11.3494
▁sərhəddi	-11.3498
▁şairlərin	-11.3498
▁bitirir	-11.3501
laşıb	-11.3501
▁istedadı	-11.3501
▁satışı	-11.3506
▁əmlakı	-11.3508
sindeki	-11.351
▁ekspert	-11.3512
▁Bələdiyyə	-11.3513
▁Mətbuat	-11.3513
▁Qüds	-11.3513
▁Yəhudi	-11.3513
▁öfke	-11.3513
▁uyku	-11.3513
▁Neptun	-11.3513
▁Mədəni	-11.3513
▁Komitə	-11.3513
▁geliyordu	-11.3513
▁birbirlerine	-11.3514
▁saha	-11.3516
▁olabilirdi	-11.3516
▁İraqda	-11.3517
▁rə	-11.3518
▁işçiləri	-11.3519
▁adlandırılı	-11.3521
basar	-11.3522
▁yerinin	-11.3523
künc	-11.3524
▁olgu	-11.3524
▁qızılbaş	-11.3525
▁diren	-11.3526
ers	-11.3527
▁Nami	-11.3527
▁düzəldilmiş	-11.3528
▁obyektlər	-11.3529
▁yapmanız	-11.3534
avuz	-11.3535
▁koloniya	-11.3536
▁dəyişmə	-11.3537
▁köçürülmüşdü	-11.3537
▁müdafiəçi	-11.354
mədən	-11.3542
▁bahsettiğim	-11.3545
▁elementi	-11.3546
▁həbsdə	-11.3547
▁seçkilər	-11.3548
▁Əbül	-11.3549
▁razılığı	-11.3554
▁şeyləri	-11.3555
,2	-11.3558
▁Kadın	-11.356
▁kalmış	-11.3561
▁tapma	-11.3563
vant	-11.3564
▁kızlar	-11.3566
com	-11.3566
▁saytı	-11.3566
▁96	-11.3568
▁ustalıq	-11.3568
▁otağın	-11.3569
▁obraz	-11.3575
▁Riyaziyyat	-11.3575
▁Georgi	-11.3575
▁Litva	-11.3575
▁qaçdı	-11.3575
▁özbək	-11.3575
▁rengi	-11.3575
▁sifət	-11.3575
▁Çocukları	-11.3576
▁vakti	-11.3576
▁razılaşma	-11.3576
▁xəzinə	-11.3576
ldukça	-11.3577
▁blog	-11.3577
▁ayın	-11.358
AR	-11.358
▁atılmış	-11.3581
▁Far	-11.3583
▁savaşın	-11.3583
▁uçma	-11.3585
▁onlarca	-11.3585
▁anlıyor	-11.3585
▁1965	-11.3585
▁götürülü	-11.3585
▁rəssamları	-11.3585
▁ısınma	-11.3585
▁projesi	-11.3587
▁karyerası	-11.3589
▁Baharlı	-11.3589
▁orduları	-11.359
▁durdur	-11.359
▁çalışırken	-11.3591
▁müşahidələr	-11.3591
▁komşu	-11.3593
▁otaqda	-11.3595
▁Ağır	-11.3596
▁hazırlayı	-11.3596
▁istedikleri	-11.3597
Yorkda	-11.3603
▁yazılması	-11.3605
▁çalma	-11.3605
▁pey	-11.3608
leyebilir	-11.3609
▁liqa	-11.3609
eceğiniz	-11.3612
▁bakıma	-11.3615
ham	-11.3615
▁01	-11.3617
▁köşe	-11.3619
▁konuştu	-11.362
▁yararlan	-11.3621
▁şişe	-11.3621
▁Monqol	-11.3623
▁Dara	-11.3624
ləşdirmək	-11.3624
▁ərazilərini	-11.3629
▁belirsiz	-11.3631
▁reallaş	-11.3635
▁medalla	-11.3636
▁basketbol	-11.3638
▁mikroskop	-11.3638
▁market	-11.3638
▁Okean	-11.3638
▁Platon	-11.3638
▁ölümcül	-11.3638
▁qoşulma	-11.3638
▁gençler	-11.3638
▁voleybol	-11.3638
▁özgürlük	-11.3639
▁koca	-11.3639
▁kurban	-11.364
uantum	-11.364
▁Mehdiyev	-11.3641
▁etdirirdi	-11.3641
▁mifologiyasında	-11.3643
▁yetki	-11.3643
▁sidik	-11.3643
▁vəzir	-11.3647
▁söyleyen	-11.3649
▁kaydı	-11.365
ayiş	-11.3654
▁çevresinde	-11.3655
▁delik	-11.3655
▁Anar	-11.3655
▁tanrılar	-11.3655
▁kişilik	-11.366
▁zorlu	-11.3661
tmək	-11.3662
▁filmini	-11.3663
▁Ege	-11.3666
▁Əh	-11.3667
▁çoxluq	-11.3669
▁yöne	-11.3674
▁nümunələr	-11.3675
▁İsgəndəri	-11.3681
▁doğulmuş	-11.3686
taj	-11.3687
▁aspiranturasın	-11.3688
▁aday	-11.3691
▁memarı	-11.3693
▁Savaş	-11.3695
▁sizler	-11.3699
▁yetişdiril	-11.3699
▁Afşin	-11.3701
▁Monqolustan	-11.3701
▁repressiya	-11.3701
▁uyuşturucu	-11.3701
▁Şıxlinski	-11.3701
▁Değil	-11.3701
▁Şükür	-11.3701
▁Uzay	-11.3701
▁qrammatik	-11.3701
▁enerjinin	-11.3702
layın	-11.3703
▁vilayətləri	-11.3704
▁kurumlar	-11.3705
▁seçimler	-11.3705
▁durdu	-11.3706
▁Beyin	-11.3706
▁qayıtma	-11.3708
erken	-11.3713
▁utan	-11.3714
▁cəbhəsi	-11.3714
▁sunum	-11.3714
▁Yazı	-11.3717
▁lüğəti	-11.3718
▁yapılıyor	-11.3718
▁düşündüğümüz	-11.3719
▁formalaş	-11.372
▁alay	-11.3722
▁qaldırdı	-11.3723
emeyeceği	-11.3728
▁lisey	-11.3728
▁faktı	-11.373
▁qəlbin	-11.3731
nizle	-11.3731
▁olmuştur	-11.3733
▁yerlərini	-11.3733
▁planını	-11.3734
▁jurnalistlər	-11.3736
▁hızı	-11.3737
▁toponim	-11.3738
▁başlığı	-11.3739
▁uzat	-11.3739
▁çoğunuz	-11.3739
▁ortamı	-11.3741
▁yerleri	-11.3741
▁çektiği	-11.3743
▁örnekler	-11.375
▁iran	-11.375
▁açılı	-11.3754
▁yaxınlaşdı	-11.3754
▁ailələri	-11.3754
▁haberler	-11.3756
▁poeması	-11.3758
çar	-11.376
▁kendiniz	-11.3762
▁miras	-11.3762
▁yazıçıları	-11.3764
▁Tat	-11.3764
▁Kesinlikle	-11.3765
▁Toğrul	-11.3765
▁depresyon	-11.3765
▁fenomen	-11.3765
▁Əşrəf	-11.3765
▁yüksələ	-11.3765
▁cesur	-11.3765
▁sıkıntı	-11.3765
▁gətirildi	-11.3765
▁teklif	-11.3765
▁hüquqşünas	-11.3766
▁çıxma	-11.3768
▁qoruyur	-11.3768
▁batil	-11.3768
▁birincisi	-11.3768
▁qaldıra	-11.3772
▁Müslüman	-11.3772
▁genişlənməsi	-11.3773
▁ulduzların	-11.3778
▁miktarı	-11.378
▁başardı	-11.3782
▁seçdi	-11.3784
▁maymun	-11.3786
▁Mis	-11.3786
▁çıxarılır	-11.3786
▁çalışıyorlar	-11.3787
▁saatte	-11.3787
▁kaynaklar	-11.3789
▁simvol	-11.3789
▁itkilər	-11.3798
▁çözme	-11.3798
▁Nil	-11.3799
▁İsm	-11.3801
mezsiniz	-11.3805
▁ilaçlar	-11.3806
▁yığın	-11.3806
▁hazırlayan	-11.3808
▁iy	-11.3808
▁vahidləri	-11.3809
▁ardı	-11.3809
▁mülahizələr	-11.381
▁67	-11.3812
▁geliştirmek	-11.3812
▁bahsediyor	-11.3815
▁Mat	-11.3819
▁cəhətləri	-11.3819
▁ustad	-11.3824
▁hayvanların	-11.3825
▁mətbəxi	-11.3827
-10	-11.3829
▁avantaj	-11.3829
▁1883	-11.3829
▁Təsadüfi	-11.3829
▁felaket	-11.3829
▁İndoneziya	-11.3829
▁Şəhriyar	-11.3829
▁qoyulması	-11.3829
▁Möh	-11.3829
▁bataqlıq	-11.3829
▁fərziyyə	-11.3829
▁Səttar	-11.383
▁Senat	-11.383
▁yeməyi	-11.3831
24	-11.3833
▁bariz	-11.3834
▁uşağın	-11.3834
▁bilmiyoruz	-11.3835
▁yaşındayken	-11.3835
▁doğan	-11.3835
▁düşdüyü	-11.3837
▁adada	-11.3837
▁satılan	-11.3838
▁işləyə	-11.3838
gram	-11.3839
▁Qalanı	-11.3839
▁düzenli	-11.3841
▁ideyalarını	-11.3844
▁poli	-11.3846
▁şagirdi	-11.3847
▁göze	-11.3848
▁janrı	-11.3849
▁Arka	-11.3853
▁qayıtmışdı	-11.3854
▁finalın	-11.386
▁müəllifləri	-11.3864
▁almaz	-11.3867
▁enli	-11.387
▁səfir	-11.3873
▁Dev	-11.3876
▁bütünlükl	-11.3878
▁vəzifəni	-11.3881
▁sevinc	-11.3884
▁leytenant	-11.3884
▁eynidir	-11.3888
▁birçoğu	-11.3892
▁yazarı	-11.3892
▁çəkilməy	-11.3893
▁Michael	-11.3894
▁soğan	-11.3894
▁avro	-11.3894
▁1892	-11.3894
▁Meydan	-11.3894
▁olanları	-11.3894
▁Axundzadə	-11.3894
▁yüzyılın	-11.3896
▁zinciri	-11.3896
▁denilen	-11.3897
▁günümüz	-11.3897
▁formalaşır	-11.3898
▁İqtisad	-11.3899
▁benzin	-11.3899
əhiyyə	-11.39
▁ekspedisiya	-11.3903
▁evlənmə	-11.3904
▁təsnifat	-11.3904
▁faydalan	-11.3906
▁kullanmaya	-11.3908
▁düşərgəsi	-11.3909
▁alınara	-11.391
▁qaçmağ	-11.391
Peterburqda	-11.391
ildiği	-11.3911
▁vurara	-11.3913
▁Sünik	-11.3913
▁Komissiya	-11.3914
▁parçalanması	-11.3915
▁çeken	-11.3915
▁Dəli	-11.3915
▁malları	-11.3917
lendiği	-11.3918
▁testi	-11.3918
▁İlkin	-11.3918
▁98	-11.3919
▁61	-11.3923
▁səhnədə	-11.3923
▁neyi	-11.3924
▁soyut	-11.3925
▁şairə	-11.3925
▁səciyyələn	-11.3927
▁çalışdığı	-11.3928
▁mühiti	-11.3928
▁güləş	-11.3931
layabilirsiniz	-11.3931
▁yetirmək	-11.3932
▁cismin	-11.3935
▁variantın	-11.3936
▁şirketlerin	-11.3939
▁toplaya	-11.3941
▁zahir	-11.3942
imizde	-11.3945
▁sıklıkla	-11.3951
▁83	-11.3952
▁meşələrdə	-11.3955
▁Cəmiyyətin	-11.3955
uhtemelen	-11.3955
▁rok	-11.3956
▁Bəxtiyar	-11.3958
▁müdrik	-11.3958
▁öğle	-11.3958
▁tahta	-11.3959
▁bəzəy	-11.3959
▁qarşılaşmada	-11.3959
▁prodüser	-11.3959
▁qıpçaq	-11.3959
▁Buxara	-11.3959
▁olmuyor	-11.3959
▁sorumluluk	-11.396
▁yetirdi	-11.3961
▁Səy	-11.3962
▁Anders	-11.3962
▁basitçe	-11.3965
▁keyfiyyətləri	-11.3966
▁köklü	-11.3966
cam	-11.3971
▁alıyoruz	-11.3971
▁xeyir	-11.3972
▁koyuyor	-11.3974
▁avtomobilləri	-11.3975
rilişləri	-11.3976
▁sola	-11.3977
▁fərqlər	-11.3977
▁boğu	-11.3979
▁port	-11.3982
▁dönüyor	-11.3982
▁qorunur	-11.3983
oba	-11.3983
▁genişləndi	-11.3985
▁alov	-11.3988
▁yıldızlar	-11.3989
▁gelişimi	-11.3989
▁hikayeleri	-11.3991
▁iman	-11.3992
▁gerçekliği	-11.3994
▁uzaqlaş	-11.3994
▁Key	-11.3995
▁kitaplar	-11.3998
düyü	-11.3999
▁uyarı	-11.3999
▁78	-11.4
▁Pal	-11.4005
▁orqanlarında	-11.4009
meyeceğim	-11.401
▁aletler	-11.4013
▁əyanları	-11.4013
qrafik	-11.4015
Qərb	-11.4016
▁tələblər	-11.4016
▁məhsulun	-11.4017
▁tapdı	-11.4017
▁mesajı	-11.4017
▁Nazirliyində	-11.4019
▁vəsaitləri	-11.4021
▁zihin	-11.4022
▁duyur	-11.4023
▁Mendeleyev	-11.4024
▁sivilizasiya	-11.4024
▁olumlu	-11.4024
▁idare	-11.4024
▁yəqin	-11.4024
▁parazit	-11.4024
▁göndərilməsi	-11.4024
laşan	-11.4025
▁qanunun	-11.4025
▁Ter	-11.4026
▁media	-11.4026
▁gelince	-11.4027
▁Vikipediya	-11.4027
▁kafe	-11.4027
▁Divan	-11.4028
▁iradəsi	-11.4029
▁ideyasını	-11.4031
▁Kirov	-11.4031
▁inanıyor	-11.4032
▁alacağı	-11.4032
▁vətəndaşları	-11.4032
▁icad	-11.4032
▁xalçası	-11.4034
▁texnolo	-11.404
▁İs	-11.4041
▁gedişində	-11.4041
▁dəyər	-11.4041
boyu	-11.4042
▁dəyişmiş	-11.4042
▁edeceği	-11.4043
▁sıkıcı	-11.4045
▁mükafatlar	-11.4046
▁dəvəti	-11.4048
ropol	-11.405
▁islahatları	-11.4051
▁mövzuda	-11.4051
▁bölünmüşdü	-11.4051
▁suların	-11.4056
▁xərc	-11.4058
ekranlaşdırılmış	-11.406
▁sektör	-11.406
▁Babam	-11.406
▁baxışları	-11.4061
▁mətbuatın	-11.4064
▁təsirində	-11.4068
▁hara	-11.4068
ləşdiri	-11.407
▁isteği	-11.4071
uğu	-11.4071
▁Ac	-11.4076
▁İspaniyada	-11.4076
▁geçirme	-11.4078
▁birbirimiz	-11.4079
▁ağaçları	-11.4079
▁monqollar	-11.4084
▁ederler	-11.4084
▁canlıların	-11.4085
▁ADU	-11.409
▁Nijerya	-11.409
▁tohum	-11.409
▁ziyade	-11.409
▁Zavod	-11.409
▁Umarı	-11.409
▁Araba	-11.4091
▁silindr	-11.4091
▁etkileyici	-11.4091
▁təriqətin	-11.4091
▁Lui	-11.4091
▁Yuli	-11.4092
▁çıktığı	-11.4094
▁okulu	-11.4095
▁dönmə	-11.4096
▁taşıma	-11.4097
▁məktubun	-11.4098
▁Şıxlı	-11.4099
▁quşu	-11.41
ığ	-11.41
▁jurnallar	-11.41
▁çayında	-11.4101
▁Moise	-11.4102
▁ölçüm	-11.4103
▁Ərə	-11.4105
dunuz	-11.4106
▁Farklı	-11.4106
▁coğrafiyası	-11.4107
▁yayla	-11.4107
▁çıxmağ	-11.4109
▁beslenme	-11.411
▁nümunələrindən	-11.4112
▁şəklini	-11.4113
▁küre	-11.4114
mdaki	-11.4115
▁öyrənmiş	-11.4117
▁arılar	-11.4118
▁oynayırdı	-11.4118
▁kəşfi	-11.4118
lerimize	-11.4118
▁sevdiği	-11.4122
▁Məs	-11.4123
▁geçmişte	-11.4124
▁ürünler	-11.4126
▁Yunanıstanda	-11.4127
▁rep	-11.4127
▁keşfetti	-11.4128
▁İndiyə	-11.4129
▁şüaları	-11.413
▁oturuyor	-11.4131
▁halın	-11.4135
▁vəziyyətində	-11.4137
▁padşahı	-11.4138
▁geçiriyor	-11.4138
▁Pu	-11.4143
▁böcek	-11.4145
▁körpüsü	-11.4154
▁kolu	-11.4154
▁Şey	-11.4155
▁gözleri	-11.4155
▁nihayet	-11.4156
▁Natəvan	-11.4156
▁Sentyabr	-11.4156
▁Məşhəd	-11.4156
▁Varşava	-11.4156
▁aracılığıyla	-11.4156
▁personaj	-11.4156
▁sahte	-11.4156
▁Ülke	-11.4156
▁otomatik	-11.4156
▁Fatimə	-11.4156
▁Məcid	-11.4156
▁köprü	-11.4156
▁1878	-11.4156
abitə	-11.4156
▁sintez	-11.4156
▁canişin	-11.4156
▁kutsal	-11.4157
▁gök	-11.4159
▁Boris	-11.4159
▁Hacıbəyli	-11.4161
▁buzul	-11.4162
rtəsi	-11.4162
▁Bəlkə	-11.4163
▁tac	-11.4164
▁aileleri	-11.4165
▁böcekler	-11.4166
▁genleri	-11.4168
▁88	-11.4169
▁oyununu	-11.417
▁namizədliyi	-11.4171
▁kanat	-11.4171
▁oxumuş	-11.4172
▁grubun	-11.4173
▁mahi	-11.4174
▁keşfetme	-11.4175
▁başlıyoruz	-11.4176
▁vurmaq	-11.4177
▁həddi	-11.4177
▁77	-11.4177
▁astronomi	-11.4179
▁adama	-11.418
▁dol	-11.4183
▁alanlarda	-11.4189
▁cəbhəsində	-11.4189
▁İşin	-11.4195
▁yapmakta	-11.4195
▁nəyi	-11.4196
▁sistemimiz	-11.4197
▁oturma	-11.4197
▁təbiətdə	-11.4197
▁rolunda	-11.4197
▁onay	-11.4201
▁genişlet	-11.4204
▁oyunlarda	-11.4204
▁anlatacağım	-11.4205
▁getirdiği	-11.4206
ston	-11.4206
▁yetirilmişdi	-11.4207
▁yeme	-11.4208
▁çıxarı	-11.4209
ərəqqi	-11.4209
lıyorlar	-11.4213
▁Oruc	-11.4213
ılacak	-11.4213
▁Zeynə	-11.4214
düşünebilirsiniz	-11.4216
▁mühazirələr	-11.4216
▁Tusi	-11.4216
▁1800	-11.4217
təhsil	-11.4217
▁Sura	-11.422
▁düşüş	-11.422
▁düşme	-11.4221
lassik	-11.4221
▁cərrah	-11.4222
▁Topçubaşov	-11.4222
▁fındıq	-11.4222
▁çıxıntı	-11.4222
▁Toponim	-11.4223
▁İzmir	-11.4223
▁Yəmən	-11.4223
▁esnek	-11.4223
▁etiqad	-11.4223
▁Toplum	-11.4223
▁nehir	-11.4223
▁yapıyordu	-11.4224
▁dayana	-11.4224
▁amerikan	-11.4224
▁tamamlayı	-11.4224
▁kocaman	-11.4224
▁Musayev	-11.4225
▁inf	-11.4227
▁falan	-11.4227
▁sənə	-11.4228
▁Abbası	-11.4228
▁övlad	-11.4229
▁işlev	-11.4229
▁eti	-11.423
▁əsərlərdə	-11.4231
▁fen	-11.4232
▁Əsədov	-11.4233
▁Bağ	-11.4233
▁yapılar	-11.4234
▁atmosferi	-11.4234
▁zordur	-11.4235
▁havaya	-11.4238
arpa	-11.4239
▁kolları	-11.4242
▁bağlanması	-11.4243
▁uçuşu	-11.4243
▁Beat	-11.4247
▁biliyordum	-11.4248
▁fasadı	-11.4248
▁Şan	-11.425
▁proqramların	-11.425
▁yetişdir	-11.4254
muşdur	-11.4256
chi	-11.4259
▁qaba	-11.426
▁koş	-11.426
vey	-11.426
▁getmə	-11.4261
▁sı	-11.4261
▁bilgiler	-11.4261
▁yetişmiş	-11.4262
mıyorlar	-11.4262
▁saldığı	-11.4266
▁qovu	-11.4266
▁sağa	-11.4268
▁olayları	-11.4269
▁növünü	-11.4269
▁planları	-11.427
▁sifariş	-11.427
▁ahlak	-11.4271
▁içeriği	-11.4272
▁yapıp	-11.4272
▁fəaliyyətdə	-11.4276
▁döngü	-11.4278
▁biriydi	-11.428
▁mənbələrin	-11.4282
▁yazdım	-11.4283
irler	-11.4283
▁xassələri	-11.4286
▁əhəng	-11.429
▁Rəhman	-11.429
▁Agentliyi	-11.429
▁Hikmət	-11.429
▁merhamet	-11.429
▁sanitariya	-11.429
▁üfüq	-11.429
▁Enerji	-11.429
▁Xalça	-11.429
▁səmimi	-11.429
▁İstehsal	-11.429
▁Xoyski	-11.429
▁bireysel	-11.4291
▁oyuncak	-11.4293
▁istemiyor	-11.4293
▁Kas	-11.4303
▁attı	-11.4304
▁resursları	-11.4305
▁futbolu	-11.4307
▁1899	-11.4311
▁Fərid	-11.4311
▁savaşa	-11.4315
labilecek	-11.4317
▁baktım	-11.4317
▁teknolojisi	-11.4317
▁tanınma	-11.4321
▁bitirdi	-11.4322
▁teleskop	-11.4322
▁məğlubiyyəti	-11.4323
▁respublikası	-11.4324
▁mübahisəli	-11.4325
▁maraqlıdır	-11.4325
▁səbəbiy	-11.4329
▁monastır	-11.4329
▁dövrlərində	-11.4333
▁səviyyəl	-11.4335
▁yoksul	-11.4338
▁hikayesini	-11.4343
▁kilsəni	-11.4343
▁yönel	-11.4345
ill	-11.4346
▁işleme	-11.435
nom	-11.4352
▁dayanma	-11.4352
▁Festivalı	-11.4354
▁sırt	-11.4355
▁kontrolü	-11.4356
▁tədrisi	-11.4357
▁Puşkin	-11.4357
▁siqnal	-11.4357
▁başlayalım	-11.4357
▁pozisyon	-11.4357
▁Assuriya	-11.4358
▁gətirilir	-11.4358
▁bitişik	-11.4358
▁Ardında	-11.4358
analitik	-11.436
▁söyleyebilirim	-11.436
▁Fatma	-11.4361
▁Manç	-11.4367
▁savadlı	-11.437
▁araşdırmaları	-11.437
▁Biliyor	-11.4371
▁ağıllı	-11.4374
▁cəsarət	-11.4375
prezidenti	-11.4376
▁Alimlər	-11.4376
▁bulabilir	-11.4378
▁mühərriki	-11.4379
▁işletme	-11.4379
▁inqilabında	-11.4382
▁həmkarlar	-11.4385
▁romanları	-11.4385
▁değerleri	-11.4386
▁olsalar	-11.4387
vo	-11.4391
▁ömürlü	-11.4391
▁nəslini	-11.4393
▁konuştuğu	-11.4393
▁Nensi	-11.4396
imize	-11.4397
▁xalçaların	-11.4399
▁dinleme	-11.4399
atılan	-11.4401
▁Sarayın	-11.4402
▁örtüyünü	-11.4403
lükdə	-11.4405
▁maya	-11.4405
85	-11.4405
▁kariyer	-11.4406
▁vuruşma	-11.4406
ood	-11.4407
▁mərkəzdə	-11.4413
▁həftədə	-11.4413
▁Alan	-11.4413
amazsınız	-11.4414
▁tuttu	-11.4415
▁girişimci	-11.4415
▁şəxsiyyətin	-11.4416
▁qədə	-11.4417
▁çəkmişdi	-11.442
▁Muğa	-11.4421
▁balıkları	-11.4421
▁məktubda	-11.4422
▁yaradırdı	-11.4422
▁duruma	-11.4425
▁Dördüncü	-11.4425
▁Münhen	-11.4425
▁iqtidar	-11.4425
▁radiasiya	-11.4425
▁İslandiya	-11.4425
▁xatırlayır	-11.4425
▁İnanılmaz	-11.4425
▁AXC	-11.4425
▁Buqro	-11.4425
▁göçmen	-11.4426
▁Ukraynada	-11.4426
▁arayüz	-11.4426
▁ulduzun	-11.4427
▁duydum	-11.4427
Life	-11.4427
▁kaybetme	-11.4427
TV	-11.4427
▁insanlığın	-11.4427
▁Komissarlığı	-11.4429
▁tutuyor	-11.443
▁karınca	-11.443
▁bahsedeceğim	-11.4431
mus	-11.4432
▁tersine	-11.4434
▁norma	-11.4437
▁sormak	-11.4438
▁unu	-11.4441
▁kilsələri	-11.4443
▁Turan	-11.4445
▁Mas	-11.4446
▁yəhudilərin	-11.4453
▁düşüncəsi	-11.4454
▁vereceğim	-11.4455
▁növündə	-11.4455
▁kullanıyorlar	-11.4456
▁formu	-11.4458
▁renkler	-11.4459
▁kavra	-11.446
▁kullandık	-11.446
ettiği	-11.4462
adam	-11.4462
▁müddətli	-11.4462
▁çıxar	-11.4469
▁değişiklikler	-11.4471
03	-11.4471
▁peyk	-11.4471
▁uçu	-11.4474
▁romanını	-11.4475
▁59	-11.4475
mdeki	-11.4476
▁şagirdlərin	-11.448
▁dakikada	-11.4481
▁dövlətində	-11.4482
▁şeirlərini	-11.4483
▁savunma	-11.4484
▁vətəndaşların	-11.4487
▁tutara	-11.4487
▁Sistem	-11.4489
▁zülm	-11.449
▁Liverpul	-11.4494
▁icarə	-11.4494
▁tənəzzül	-11.4494
▁Fərəc	-11.4494
▁evləndi	-11.4494
▁Saturn	-11.4494
▁düşünülür	-11.4495
▁qəfil	-11.4495
lacak	-11.4495
▁Baltik	-11.4495
▁ziyarətgah	-11.4496
▁yetirilir	-11.4496
▁aviasiya	-11.4496
▁Eramız	-11.4496
▁otaqlar	-11.4496
▁Jurnalist	-11.4497
▁dəliyi	-11.4499
▁kurtarma	-11.45
meliyim	-11.4501
▁set	-11.4502
▁hökümət	-11.4503
▁ağaclar	-11.4504
maktır	-11.4504
▁1828-	-11.4505
▁gününü	-11.4506
▁iskelet	-11.4507
▁miqyasın	-11.4507
▁geçirdim	-11.4512
mes	-11.4513
▁kapasite	-11.4515
▁cəhdləri	-11.4515
▁olacağız	-11.4516
▁kaldığı	-11.4516
▁konuşmayı	-11.4517
▁hissettim	-11.452
▁Harun	-11.4521
▁külli	-11.4523
▁evrende	-11.4524
▁fan	-11.4526
▁Andre	-11.4527
▁hizmeti	-11.4529
▁gelmişti	-11.4531
▁obyektlərin	-11.4533
▁statistika	-11.4534
▁sahibkar	-11.4535
▁noktalar	-11.4536
▁oturu	-11.4537
▁çocuklarını	-11.4537
▁qrupda	-11.4538
▁yaylası	-11.4538
▁etrafta	-11.454
▁hazırlanı	-11.454
▁Pri	-11.454
▁əməlləri	-11.4542
▁çiftçi	-11.4543
▁vuruş	-11.4543
▁dəstəsini	-11.4543
▁örgüt	-11.4545
▁zavodları	-11.4547
▁üretmek	-11.4547
▁izledi	-11.4548
▁Konfransı	-11.455
▁aylık	-11.455
▁yüzillik	-11.4552
▁göç	-11.4553
▁səbəblə	-11.4554
keçər	-11.4554
▁sürmüşdü	-11.4555
▁mərtəbəli	-11.4558
▁örtü	-11.456
▁dərisi	-11.4561
▁Viktor	-11.4562
▁Açık	-11.4562
▁bələd	-11.4562
▁Bahar	-11.4562
▁burun	-11.4562
▁laboratoriyası	-11.4562
▁Hərəkatı	-11.4563
▁elastik	-11.4563
▁meslek	-11.4563
▁trafik	-11.4563
▁Region	-11.4563
▁dinləyici	-11.4563
▁hapishane	-11.4563
▁zirve	-11.4563
▁Qəznəvi	-11.4563
▁texnikumu	-11.4563
▁öküz	-11.4563
▁tapıntılar	-11.4563
▁Strabon	-11.4563
▁aclıq	-11.4563
▁Dairə	-11.4563
▁Yapon	-11.4564
▁hövzələrin	-11.4564
▁sevdiyi	-11.4565
▁eğlence	-11.4566
▁niyet	-11.4567
▁resme	-11.4569
▁qamış	-11.457
▁fizi	-11.457
▁aldığımız	-11.4572
▁dağıdı	-11.4572
▁ictimaiyyətin	-11.4572
▁şüur	-11.4573
▁saysız	-11.4577
▁mexanika	-11.4578
▁koşullar	-11.4579
▁hüceyrələr	-11.458
▁koydu	-11.458
▁diqqətlə	-11.4584
▁buraxılmışdı	-11.4585
▁Arap	-11.4585
▁Sey	-11.4585
▁çöküntüləri	-11.4585
▁məmurları	-11.4586
sanlı	-11.4586
▁evlənir	-11.4588
▁aləm	-11.4588
▁ırk	-11.459
▁dayaq	-11.459
▁verilişin	-11.4593
▁kolayca	-11.4594
▁Peyğəmbəri	-11.4594
▁məhkəməsi	-11.4595
▁kalır	-11.4597
▁atmosferin	-11.4597
ebileceğini	-11.46
laştırma	-11.4601
▁neftin	-11.4601
▁təşəbbüs	-11.4604
▁Yaponiyanı	-11.4604
▁yükselt	-11.4605
tah	-11.4608
▁inceledi	-11.4614
▁tələblərin	-11.4614
▁etməmiş	-11.4615
ğıda	-11.4615
▁92	-11.4615
▁Proqramı	-11.4617
leştirilmiş	-11.4617
▁Aba	-11.4618
▁Şirvanda	-11.4619
▁Babəki	-11.4619
mızdaki	-11.4619
▁dilimiz	-11.4621
▁bağırsaq	-11.4621
▁yasal	-11.4623
▁ulaşım	-11.4623
ıldığında	-11.4625
▁mətbu	-11.4629
▁parçasını	-11.4629
▁ilaçları	-11.4631
¬	-11.4632
▁Arxiv	-11.4632
▁Einstein	-11.4632
▁Kinolent	-11.4632
▁World	-11.4632
▁Xubilay	-11.4632
▁avukat	-11.4632
▁lisenziya	-11.4632
▁telekanalı	-11.4632
▁toxunmuş	-11.4632
▁xəmir	-11.4632
▁Qlazqo	-11.4632
▁ləzgi	-11.4632
▁Bəhreyn	-11.4632
▁Kəbir	-11.4632
▁çoğal	-11.4633
▁burnu	-11.4633
▁borusu	-11.4634
▁Nü	-11.4634
▁temelde	-11.4634
▁hamilə	-11.4634
▁varsayım	-11.4635
▁değişken	-11.4636
▁aksiya	-11.4639
bes	-11.464
▁tersi	-11.4642
▁zavodun	-11.4643
▁Amerikalılar	-11.4643
▁çalışanları	-11.4645
▁bebekler	-11.4648
▁çeviri	-11.465
▁1940	-11.4651
▁oranında	-11.4651
▁terrorçu	-11.4652
▁oranları	-11.4655
▁soyadı	-11.4656
ayede	-11.4657
ativ	-11.4658
▁münasibətdə	-11.4659
▁Muradov	-11.4662
▁hisseder	-11.4662
▁barmaq	-11.4663
▁şiddətl	-11.4665
▁işğalçıları	-11.4665
▁kəsmə	-11.4667
▁yapısı	-11.4667
▁başlayanda	-11.4668
▁mexanizm	-11.4673
▁sənətçi	-11.4673
▁Qurani	-11.4673
▁Sona	-11.4675
larımıza	-11.4678
▁İsanı	-11.4679
▁İri	-11.468
▁dönüşü	-11.468
▁post	-11.4681
▁ticarətin	-11.4682
tov	-11.4683
▁baxan	-11.4683
▁duygusu	-11.4684
▁çeşitliliği	-11.4685
mayıb	-11.4686
▁əməli	-11.4688
▁uğurları	-11.4688
syon	-11.4689
▁yüzeyi	-11.4689
▁Ağalar	-11.4691
▁çirkin	-11.4693
▁kardeşim	-11.4693
lanabilir	-11.4693
▁altındaki	-11.4693
35	-11.4696
▁yetirmə	-11.47
▁nəticələni	-11.4701
▁keçirirdi	-11.4701
▁1863	-11.4702
▁Estoniya	-11.4702
▁Herhangi	-11.4702
▁Noyabr	-11.4702
▁Xorvatiya	-11.4702
▁toxuna	-11.4702
▁iyimser	-11.4702
▁1867	-11.4702
▁Nuh	-11.4702
▁Qoruğu	-11.4702
▁organize	-11.4703
▁İstə	-11.4704
▁Gelecek	-11.4704
▁donanma	-11.4704
▁dönə	-11.4704
▁solda	-11.4705
▁funksiyaları	-11.4705
J	-11.4707
▁organik	-11.4708
▁bilinci	-11.4709
▁problemlərini	-11.4709
▁təhlükəsiz	-11.4713
▁Uşaqlıq	-11.4714
▁dönəm	-11.4715
▁organizma	-11.4718
radan	-11.472
▁nesli	-11.472
▁resimde	-11.4721
▁resimleri	-11.4723
ünüzü	-11.4724
▁regionun	-11.4725
▁Əfqanıstanda	-11.4726
▁uzağ	-11.4732
▁176	-11.4734
▁tarihinde	-11.4735
▁albomunu	-11.4735
▁müxtəlifdir	-11.4736
▁Xeyr	-11.4739
▁geldim	-11.474
▁görünmez	-11.4745
▁tərəfini	-11.4747
▁erkeklerin	-11.4749
▁şərəf	-11.4751
▁təsvirlər	-11.4751
▁bölgələri	-11.4752
eceğimiz	-11.4754
▁salmışdı	-11.4759
▁pas	-11.4763
▁orqanlar	-11.4764
▁başkanı	-11.4765
▁alça	-11.4766
▁anlamında	-11.4767
▁ifası	-11.4767
▁Kalankatlı	-11.4772
▁şəffaf	-11.4772
▁ətəklərində	-11.4772
▁1894	-11.4772
▁Ronald	-11.4772
▁dosya	-11.4773
▁çanta	-11.4773
▁Boston	-11.4773
▁kasaba	-11.4773
▁kurqan	-11.4774
qərar	-11.4774
▁fonunda	-11.4775
▁hüdudlarında	-11.4775
▁Evren	-11.4775
▁bağlantılı	-11.4775
▁kamil	-11.4775
▁formal	-11.4775
▁istemiyorum	-11.4776
▁boşluq	-11.4778
▁dün	-11.4779
▁eğlen	-11.478
▁stadionu	-11.478
▁sistemlərini	-11.4782
▁tamaşasın	-11.4783
▁tarama	-11.4785
▁Konu	-11.4786
▁bölgesi	-11.4787
▁Hüm	-11.4787
▁ayırı	-11.4788
▁eseri	-11.4788
▁üstesinde	-11.479
▁tipləri	-11.4791
▁Fil	-11.4792
▁koymak	-11.4793
▁şekilleri	-11.4793
▁dərinlikdə	-11.4794
▁planlama	-11.4795
▁qurğular	-11.4796
▁qoşulur	-11.4797
▁təkid	-11.4801
fis	-11.4805
▁artıyor	-11.4805
▁Pol	-11.4808
▁evli	-11.4808
▁mülk	-11.481
▁konserv	-11.481
▁sərin	-11.4812
şun	-11.4816
uşu	-11.4817
▁günlerde	-11.4817
▁problemler	-11.4818
▁Ray	-11.4818
▁önde	-11.482
qor	-11.4822
▁həllini	-11.4823
▁topladığı	-11.4824
▁etibarı	-11.4824
▁kira	-11.4824
▁həbsxana	-11.4826
▁işləmə	-11.4827
remyer	-11.4828
▁etmeniz	-11.483
▁gittiği	-11.4832
▁tamaşaçılar	-11.4836
▁formalaşmış	-11.4837
▁gezegenin	-11.4837
▁poeziyası	-11.4838
emeyiz	-11.4838
▁qurmağ	-11.4838
▁gelin	-11.4839
ümkün	-11.484
▁Apollo	-11.4843
▁Avesta	-11.4843
▁Avustralya	-11.4843
▁Eylül	-11.4843
▁Maqomayev	-11.4843
▁Osetiya	-11.4843
▁Richard	-11.4843
▁Sosyal	-11.4843
▁Vilhelm	-11.4843
▁Yupiter	-11.4843
▁ödənilməsi	-11.4843
▁Xəbər	-11.4843
▁1888	-11.4843
▁qanunauyğunluq	-11.4844
▁şəkilçisi	-11.4844
▁ixtisaslaşmış	-11.4845
▁süfrə	-11.4845
▁sıradışı	-11.4847
▁nano	-11.4847
▁82	-11.4848
▁maşınları	-11.4849
▁itirir	-11.4849
▁qaydalarını	-11.485
▁modelini	-11.4853
▁tutun	-11.4853
▁festivalın	-11.4853
▁dövlətlərini	-11.4855
▁nüfuzunu	-11.4855
▁robotu	-11.4855
▁bası	-11.4856
▁qoyduğu	-11.4857
lunduğunu	-11.4859
▁alıntı	-11.486
▁geliş	-11.4861
▁genom	-11.4862
▁halkı	-11.4863
▁izliyor	-11.4863
iriz	-11.4869
▁hücresi	-11.4869
▁divarlarını	-11.487
▁qrupların	-11.4871
▁Salam	-11.4871
▁atdı	-11.4873
kinden	-11.4873
▁hizmetleri	-11.4875
▁taşıyor	-11.4876
▁uzaklaş	-11.4877
▁güvenliği	-11.4877
▁Kore	-11.4878
▁mühendisler	-11.488
▁Məlikov	-11.4883
▁değiştiriyor	-11.4883
▁şüalanma	-11.4883
▁1200	-11.4887
▁şöhrəti	-11.4889
▁ekmek	-11.4891
inizin	-11.4892
▁annesi	-11.4893
▁tənqidçilər	-11.4895
▁bilmiş	-11.4895
0,000	-11.4895
kilsə	-11.4895
▁ştatında	-11.4898
▁Cəmiyyət	-11.4901
▁cüz	-11.4904
▁gördüğü	-11.4905
▁yaralı	-11.4906
▁hissələrdə	-11.4907
AM	-11.491
▁Frank	-11.4912
▁93	-11.4913
lmuşdu	-11.4914
▁zəhmət	-11.4915
▁Rəvayət	-11.4915
·	-11.4915
▁ATƏT	-11.4915
▁Bölgə	-11.4915
▁Eduard	-11.4915
▁favori	-11.4915
▁həzrət	-11.4915
▁kobud	-11.4915
▁meşgul	-11.4915
▁otobüs	-11.4915
▁sığınacaq	-11.4915
▁zeyt	-11.4915
▁borç	-11.4915
▁hasilatı	-11.4915
▁Proje	-11.4915
▁çağırılmış	-11.4915
▁Suyun	-11.4916
▁slayt	-11.4916
▁dolayısıyla	-11.4916
▁oruc	-11.4921
▁proqramının	-11.4923
▁aldığım	-11.4925
▁tamaşaları	-11.4927
▁tayfasından	-11.4929
▁səni	-11.493
▁təqdimatı	-11.4931
lıyordu	-11.4932
▁fakultəsin	-11.4932
▁Xaçın	-11.4933
üşü	-11.4934
▁söyledim	-11.4934
sif	-11.4935
▁yasak	-11.4935
▁sinek	-11.4935
▁dağıdılmış	-11.4935
▁sifarişi	-11.4935
▁bırakıyor	-11.4938
▁nar	-11.4939
▁Quranı	-11.4941
▁işlərdə	-11.4942
▁yükü	-11.4945
▁verilməsini	-11.4946
onik	-11.4949
▁həcmində	-11.4949
▁danışıqları	-11.4952
▁birləşdirilməsi	-11.4955
ılabilir	-11.4956
▁Görü	-11.4957
lmuşdur	-11.4958
▁düzeyde	-11.4959
▁yuvarla	-11.4959
miyordu	-11.496
▁doğulduğu	-11.4962
▁hiçbiri	-11.4964
▁163	-11.497
▁şairləri	-11.4973
▁31-	-11.4973
▁dastan	-11.4974
yuk	-11.4977
▁ovalığı	-11.4979
▁sesini	-11.4981
▁ritm	-11.4981
▁tanrıları	-11.4983
▁kullanılıyor	-11.4984
araya	-11.4986
▁kategori	-11.4987
▁umarım	-11.4987
▁yırtıcı	-11.4987
▁1881	-11.4987
▁Filarmoniyası	-11.4987
▁Moğol	-11.4987
▁köçkün	-11.4987
▁Keçə	-11.4987
▁məskunlaşıb	-11.4987
lternativ	-11.4987
▁Wal	-11.4987
▁Neredeyse	-11.4987
verdi	-11.4987
▁istək	-11.4987
▁simetri	-11.4987
▁lisans	-11.499
▁ssenarist	-11.499
▁görülen	-11.4991
▁başladığımız	-11.4992
▁Babur	-11.4992
▁siyahi	-11.4996
▁Səlcuqlu	-11.4996
▁Akademiyasın	-11.4999
▁tutuldu	-11.4999
▁toxumları	-11.5002
▁Bilgi	-11.5003
▁azalma	-11.5005
▁Xilafət	-11.5006
▁müqaviləsini	-11.5006
▁işsiz	-11.5011
▁imkanlarını	-11.5011
▁məskunlaşma	-11.5013
▁uğra	-11.5021
▁tədqiqatçıların	-11.5022
▁Rio	-11.5024
▁değerlendirme	-11.5024
▁gəldiyin	-11.5026
▁Oh	-11.5026
▁Gar	-11.5027
▁oba	-11.5029
▁cihazları	-11.5029
▁qurub	-11.5029
▁gidecek	-11.5029
▁20.	-11.503
▁köçürülmüş	-11.5031
▁nümunələrini	-11.5032
▁söylediler	-11.5035
▁sənədlərdə	-11.5035
▁renkli	-11.5038
▁böhranı	-11.504
▁adanı	-11.5041
▁istiqamətini	-11.5042
▁dəvə	-11.5046
▁dünyagörüşü	-11.5047
▁mahnılarını	-11.5047
▁şagirdləri	-11.5048
mayacağını	-11.5055
▁bağlanır	-11.5055
qabağı	-11.5056
▁başlanmış	-11.5059
▁Xədicə	-11.5059
▁bəhanə	-11.5059
▁sohbet	-11.5059
▁Ərzurum	-11.5059
▁Niyazi	-11.5059
▁korkutucu	-11.5059
▁qurucusu	-11.5059
▁cənab	-11.5059
▁ətirli	-11.5059
▁Dəf	-11.506
▁Media	-11.506
▁görürü	-11.506
▁ləkə	-11.506
▁mühendislik	-11.506
▁ediləcək	-11.5061
▁pilləsin	-11.5062
▁Sahəsi	-11.5063
▁kullanabiliriz	-11.5064
▁vazgeç	-11.5065
▁oturup	-11.5065
▁sərəncam	-11.5066
▁Yaşa	-11.5066
övhər	-11.5066
▁Məkkədə	-11.5068
▁durumlarda	-11.5068
rsek	-11.5069
▁etnonimi	-11.5069
▁hamile	-11.5074
▁şeylerle	-11.5075
▁məzun	-11.5076
▁Tak	-11.5076
▁Rob	-11.5077
▁çağında	-11.5077
▁Bob	-11.5078
▁verebilir	-11.5079
lduğunu	-11.5079
▁qrafik	-11.5079
[...]
