<unk>	0
<s>	0
</s>	0
<pad>	0
▁	-2.85881
▁.	-2.98189
▁,	-3.28986
n	-3.90621
;	-4.00045
▁&	-4.02848
quot	-4.25497
▁və	-4.32608
▁bir	-4.55949
i	-5.00597
a	-5.11349
(	-5.13513
▁)	-5.14005
▁bu	-5.17416
r	-5.19898
-	-5.28557
▁ve	-5.35808
ə	-5.42565
▁ilə	-5.54276
nin	-5.56793
ci	-5.58009
in	-5.58192
▁Bu	-5.62462
▁ildə	-5.65405
nın	-5.65419
lar	-5.69634
da	-5.70171
▁da	-5.70849
k	-5.77804
▁olan	-5.87554
apos	-5.88776
▁Azərbaycan	-5.91363
▁ki	-5.9456
▁də	-5.96565
nə	-6.02997
dir	-6.03369
na	-6.04464
▁:	-6.04688
▁sonra	-6.10622
də	-6.13251
m	-6.13475
lər	-6.13562
b	-6.16176
ya	-6.21806
li	-6.22253
▁daha	-6.25987
e	-6.28125
▁üçün	-6.30973
▁kimi	-6.32579
▁isə	-6.34884
q	-6.40116
▁için	-6.41352
ı	-6.42328
▁o	-6.44365
dan	-6.45868
la	-6.46379
▁çox	-6.49081
ın	-6.51253
▁il	-6.51521
lı	-6.55793
dır	-6.56604
▁de	-6.57416
ları	-6.58002
dən	-6.60529
▁var	-6.60538
t	-6.62254
▁Ve	-6.63363
▁ya	-6.67002
▁görə	-6.67271
ən	-6.67762
▁çok	-6.68033
lə	-6.68864
▁O	-6.69307
▁edir	-6.69593
si	-6.70496
▁idi	-6.73809
▁onun	-6.74576
cü	-6.7701
▁ilk	-6.77431
▁həm	-6.79933
ler	-6.82821
ki	-6.8293
cı	-6.83103
▁-	-6.84349
▁iki	-6.89564
z	-6.90091
ni	-6.90733
▁əsas	-6.91323
▁tərəfində	-6.91989
▁böyük	-6.94951
▁ən	-6.9525
yə	-6.96675
▁öz	-6.97615
s	-6.98645
di	-7.02272
▁olmuşdur	-7.0377
u	-7.04003
▁olaraq	-7.04808
cu	-7.06751
lik	-7.07322
▁qədər	-7.08515
▁Bir	-7.09907
▁şey	-7.1073
sı	-7.10757
un	-7.10817
▁baş	-7.11698
▁gibi	-7.12883
l	-7.13379
▁arasında	-7.14685
▁yeni	-7.15505
▁bütün	-7.16176
▁olarak	-7.17243
▁kənd	-7.19842
▁adı	-7.21858
▁ilin	-7.22803
▁zaman	-7.22876
▁...	-7.25784
le	-7.26443
▁biri	-7.26899
▁s	-7.26989
▁olduğunu	-7.28549
▁istifadə	-7.2985
leri	-7.31641
▁olduğu	-7.32702
dur	-7.32806
▁olur	-7.33029
ların	-7.33943
▁hər	-7.34059
▁edən	-7.34131
nda	-7.36353
nı	-7.36914
▁ne	-7.37508
▁illərdə	-7.37526
▁olub	-7.37621
de	-7.37762
▁Bakı	-7.38204
▁bəy	-7.38849
kı	-7.39125
▁kadar	-7.3971
▁en	-7.39734
▁oldu	-7.41126
▁dəfə	-7.41196
ləri	-7.41256
an	-7.45003
▁oğlu	-7.4522
▁S	-7.4561
▁yer	-7.45767
▁etdi	-7.48154
▁her	-7.48393
▁1	-7.50389
▁etmişdir	-7.50961
▁onu	-7.51257
p	-7.53073
raq	-7.54058
▁2	-7.54349
y	-7.54879
ye	-7.55929
▁M	-7.5647
ca	-7.58016
ndə	-7.58058
▁burada	-7.58494
▁değil	-7.58826
▁Dövlət	-7.58838
▁təşkil	-7.59483
▁ile	-7.59654
yi	-7.59848
▁müxtəlif	-7.59913
▁digər	-7.61009
▁ərazi	-7.61518
er	-7.6162
▁ildən	-7.61646
▁gün	-7.61829
▁bunu	-7.61972
▁insan	-7.62254
▁rayonunu	-7.63063
▁etmək	-7.63534
dı	-7.64703
▁daxil	-7.65073
▁haqqında	-7.65548
▁adlı	-7.65765
o	-7.66145
▁Respublikasını	-7.66779
▁iyi	-7.67261
den	-7.67629
▁olunur	-7.6866
▁belə	-7.69269
▁qarşı	-7.69557
ma	-7.6985
▁başqa	-7.70339
▁nəfər	-7.7054
▁ama	-7.70929
▁A	-7.71193
▁su	-7.71201
▁3	-7.72571
▁inzibati	-7.72879
▁üzrə	-7.7324
▁orta	-7.73442
▁Ama	-7.73594
d	-7.74296
▁az	-7.74316
▁onların	-7.74524
▁edilmişdir	-7.75005
▁büyük	-7.75398
lu	-7.7564
▁son	-7.76729
▁edilir	-7.77253
en	-7.7761
▁qəbul	-7.7792
ş	-7.77988
▁B	-7.78295
▁K	-7.78458
larını	-7.78853
▁elmi	-7.7892
ndan	-7.78991
▁həyat	-7.79126
▁ona	-7.79439
▁qeyd	-7.79966
▁nasıl	-7.80672
▁Onun	-7.81364
▁xan	-7.81722
▁üç	-7.82093
ndən	-7.82099
.	-7.8285
akin	-7.84633
▁geniş	-7.84742
▁Azərbaycanın	-7.84987
▁xüsusi	-7.8521
▁dövlət	-7.86703
▁sadece	-7.87326
yı	-7.87563
▁fəaliyyət	-7.87894
▁vardır	-7.88096
▁qədim	-7.88318
▁h	-7.89259
▁dünya	-7.89667
▁tarixi	-7.89984
▁10	-7.90006
ti	-7.90588
▁edib	-7.92433
▁zamanda	-7.93323
▁uzun	-7.93558
f	-7.94014
▁şəhərində	-7.94175
ik	-7.94658
▁çünkü	-7.94714
▁Respublikası	-7.94856
ini	-7.95239
▁zamanı	-7.95472
▁doğru	-7.95538
cə	-7.96147
▁etdiyi	-7.96215
sa	-7.9695
▁Burada	-7.97125
▁olması	-7.9738
▁şu	-7.97959
▁şekilde	-7.98742
▁yüksək	-7.989
▁etmiş	-7.98967
▁aid	-7.99142
▁əsrin	-7.99342
▁iştirak	-8.00218
ov	-8.00324
▁davam	-8.00828
▁neçə	-8.01183
lıq	-8.01531
▁I	-8.01533
▁iş	-8.02092
▁4	-8.02361
ü	-8.03399
▁adına	-8.0368
▁önce	-8.03719
▁eyni	-8.03851
▁Rusiya	-8.03898
▁tam	-8.03939
▁Azərbaycanda	-8.04015
▁insanlar	-8.04023
▁vahidində	-8.04033
▁yalnız	-8.04292
▁fazla	-8.04696
▁geri	-8.05186
▁bağlı	-8.05293
▁olunmuşdu	-8.05475
lara	-8.06273
xalq	-8.06351
▁nəticəsində	-8.0655
ta	-8.07007
▁film	-8.07168
▁təhsil	-8.07293
▁verir	-8.07371
▁yıl	-8.07428
▁altında	-8.08103
▁üzərində	-8.08197
▁heç	-8.08801
ir	-8.08987
al	-8.09513
▁re	-8.09562
▁ikinci	-8.0958
▁Avropa	-8.0973
um	-8.10395
▁sayı	-8.11107
▁aynı	-8.11448
inin	-8.11473
▁Dünya	-8.11885
▁min	-8.1194
▁5	-8.11952
ne	-8.11975
▁Əli	-8.12024
▁biz	-8.12294
lerini	-8.12603
▁hesab	-8.12972
▁ərazisində	-8.13088
▁yerləşir	-8.1322
▁sıra	-8.13453
nun	-8.13808
h	-8.14276
▁yaxın	-8.14997
▁hərbi	-8.15051
▁gerçekten	-8.15199
▁dili	-8.15284
▁anadan	-8.15795
▁onlar	-8.15974
▁inkişaf	-8.16629
▁olmuş	-8.17148
▁H	-8.17208
▁bunun	-8.18382
▁olar	-8.18526
91	-8.18837
▁kəndi	-8.19234
▁göstərir	-8.19241
▁km	-8.19312
▁20	-8.19352
im	-8.19532
▁müəyyən	-8.1956
▁Yani	-8.19596
▁milyon	-8.20153
▁şəhəri	-8.20156
lerin	-8.2035
▁milli	-8.2048
▁Məhəmməd	-8.20837
▁şəhər	-8.2087
▁olmaq	-8.20978
▁dövründə	-8.21146
▁P	-8.21252
▁Milli	-8.21484
▁artıq	-8.2176
▁Şimdi	-8.21781
at	-8.21893
▁məşhur	-8.22263
▁ben	-8.22799
▁ABŞ	-8.22801
likdə	-8.23133
▁yaxşı	-8.23156
çini	-8.23394
▁olunan	-8.23872
▁benim	-8.23908
▁türk	-8.24045
▁tüm	-8.24437
du	-8.24627
▁olunmuş	-8.24724
93;	-8.25037
▁deyil	-8.25284
▁Qarabağ	-8.25436
▁Ə	-8.25595
▁özünü	-8.25864
▁yerləşə	-8.26238
▁ibarət	-8.26463
▁vaxt	-8.26608
ar	-8.26741
▁vardı	-8.26765
▁bizim	-8.26853
ç	-8.26878
▁hakkında	-8.27051
▁mövcud	-8.27145
▁insanların	-8.27162
▁edilmiş	-8.2786
▁mərkəzi	-8.27971
lərin	-8.28247
larının	-8.2842
▁kiçik	-8.28894
▁Böyük	-8.28973
vi	-8.29151
▁əvvəl	-8.29321
inə	-8.29662
▁başladı	-8.29692
▁Anca	-8.29848
te	-8.30123
▁farklı	-8.30362
▁xalq	-8.30812
▁hissəsi	-8.3122
▁Onlar	-8.31361
▁içinde	-8.31825
▁onları	-8.32041
▁15	-8.32128
▁edirdi	-8.32261
▁musiqi	-8.32682
ərək	-8.32687
▁üzvü	-8.3283
▁başka	-8.32843
▁təyin	-8.33067
▁şəkildə	-8.33154
▁Y	-8.33876
▁müddət	-8.33975
▁edərək	-8.33992
▁diğer	-8.34113
▁mi	-8.34187
▁dilində	-8.3451
larında	-8.34616
▁əsrdə	-8.34858
▁yenidən	-8.35162
larda	-8.35332
▁ilgili	-8.35472
▁malik	-8.35609
me	-8.36015
▁Türkiyə	-8.36018
▁T	-8.36329
▁İ	-8.36373
rək	-8.36652
▁Ne	-8.36806
▁bile	-8.37178
ır	-8.37599
▁kendi	-8.37647
▁6	-8.37796
▁sahip	-8.37918
▁orada	-8.37947
▁Sonra	-8.38611
▁ay	-8.38627
▁ümumi	-8.38894
▁aslında	-8.39651
▁bilər	-8.39769
▁yok	-8.3982
▁yolu	-8.4028
▁edilən	-8.40355
ğı	-8.40632
▁rus	-8.40892
ənub	-8.41189
yla	-8.4127
▁dövrdə	-8.41447
▁küçük	-8.41471
▁İlk	-8.41599
on	-8.41806
▁adını	-8.41869
▁yol	-8.41896
▁Belə	-8.4231
▁Gülüşmeler	-8.42401
lere	-8.42514
▁dünyanın	-8.43087
▁Ben	-8.43121
ğa	-8.43444
ok	-8.43671
▁tə	-8.43723
▁veya	-8.43806
▁birinci	-8.43852
▁siyasi	-8.4428
▁kişi	-8.44349
▁Həmi	-8.44889
x	-8.45135
▁illər	-8.45222
ce	-8.45349
▁İran	-8.45434
çi	-8.45688
▁ölkə	-8.4599
▁SSRİ	-8.46007
uz	-8.46015
lık	-8.46062
tı	-8.46256
▁bəzi	-8.46374
miz	-8.46446
▁E	-8.46779
▁əhalisi	-8.46979
▁başa	-8.47025
▁Daha	-8.47033
▁gəlir	-8.47171
lığı	-8.47571
▁əldə	-8.47927
▁G	-8.4858
▁ise	-8.48633
larına	-8.48765
▁Qafqaz	-8.48875
▁D	-8.49955
▁kəndində	-8.50221
v	-8.50347
mış	-8.50394
▁erməni	-8.50978
▁Mirzə	-8.5113
▁edə	-8.51265
▁II	-8.51278
▁Naxçıvan	-8.51341
▁əlavə	-8.51422
dür	-8.51672
▁30	-8.51828
▁səbəb	-8.51828
▁bana	-8.52005
▁12	-8.52129
▁yaşayış	-8.52216
▁önemli	-8.5224
▁Bunu	-8.52357
▁eğer	-8.52398
▁ibarətdir	-8.52708
▁məqsədi	-8.53561
▁buna	-8.53663
▁şeyler	-8.53925
or	-8.53936
▁məşğul	-8.54037
▁yaşayan	-8.54053
rkən	-8.54141
▁Əliyev	-8.54174
su	-8.54293
lardan	-8.54313
▁Amerika	-8.54355
siz	-8.54493
▁Bakıda	-8.54652
sında	-8.5481
ət	-8.55287
▁demək	-8.55375
▁Faka	-8.55493
▁layiq	-8.55738
▁Sultan	-8.55849
miş	-8.55855
▁tarixində	-8.55865
▁e	-8.55904
▁edildi	-8.55905
▁məlumat	-8.55951
ərzində	-8.56302
▁olmayan	-8.56315
▁tek	-8.56465
il	-8.56616
▁ener	-8.56714
▁V	-8.56881
▁saat	-8.56948
▁Orta	-8.56988
▁8	-8.57259
▁ortaya	-8.57265
▁Bunun	-8.57668
▁yanaşı	-8.5791
▁ola	-8.57914
ını	-8.57945
▁F	-8.57976
lt	-8.5802
mi	-8.58362
▁may	-8.58423
▁edilməsi	-8.58832
▁xarici	-8.59171
▁size	-8.59295
sına	-8.59783
▁cənub	-8.59956
et	-8.60119
▁yeri	-8.60168
▁baxma	-8.60287
▁vəfat	-8.60592
▁Eğ	-8.606
▁əhali	-8.60706
▁etməyə	-8.60727
▁edirlər	-8.60954
▁biraz	-8.61077
▁ev	-8.61092
ində	-8.61691
▁qızı	-8.61781
iz	-8.61803
▁dünyada	-8.61915
▁teknolo	-8.61943
▁7	-8.61962
▁Osmanlı	-8.62082
▁inşa	-8.6214
▁an	-8.62301
▁çıxış	-8.62736
▁Xəzər	-8.62937
▁Yeni	-8.62981
▁yerli	-8.63164
▁dini	-8.63247
issor	-8.63395
▁bunlar	-8.63625
▁Q	-8.638
▁hava	-8.63913
▁boyunca	-8.63914
▁gələn	-8.64159
▁şimal	-8.64582
▁təmin	-8.64744
▁Şah	-8.64755
ətta	-8.64827
▁aşağı	-8.65098
tan	-8.65099
▁Sovet	-8.65114
▁ayında	-8.65188
ında	-8.65312
▁sistemi	-8.65337
▁çap	-8.65665
▁olsa	-8.65812
lan	-8.65949
▁söz	-8.66126
▁Qara	-8.66247
▁göre	-8.66425
g	-8.66519
▁əsasında	-8.66543
▁meydana	-8.66795
▁rayonu	-8.66918
▁hiç	-8.66919
▁sağ	-8.66921
ün	-8.6754
yle	-8.67546
▁Hüseyn	-8.6762
▁onlara	-8.67676
▁Fransa	-8.67714
▁əhatə	-8.67804
▁hələ	-8.67808
▁Buna	-8.67876
▁verən	-8.67998
▁Gəncə	-8.68052
▁alan	-8.6864
▁Xalq	-8.68656
▁m	-8.68696
▁fikir	-8.68992
▁verdi	-8.69242
▁istehsal	-8.69301
▁idarə	-8.69322
▁keçmiş	-8.69396
mak	-8.69545
▁vasitəsi	-8.69619
▁mümkün	-8.70207
▁mühüm	-8.70464
▁Kənd	-8.70473
▁Həsən	-8.70516
▁nəşr	-8.70622
▁almışdı	-8.70653
▁müasir	-8.7103
▁diye	-8.71185
▁barədə	-8.71293
▁qadın	-8.71497
▁hakimiyyəti	-8.71674
▁karşı	-8.71674
▁keçirilə	-8.71867
▁X	-8.72167
▁beynəl	-8.72758
▁17	-8.7287
▁neft	-8.72936
ken	-8.73302
▁yüz	-8.73465
▁hücum	-8.73724
ına	-8.73783
▁neden	-8.74498
▁Ermənistan	-8.7456
▁yüzden	-8.75486
▁kəndin	-8.75549
▁xidmət	-8.75801
▁təsir	-8.75887
▁Əhməd	-8.75908
▁gerçek	-8.7594
▁böyle	-8.76072
▁Şimal	-8.76203
▁rol	-8.76215
▁16	-8.76235
▁yerinə	-8.76285
sində	-8.76654
▁müəllifi	-8.76682
c	-8.76739
▁dağ	-8.76767
larından	-8.76853
qulu	-8.76997
sel	-8.77059
ünkü	-8.77165
sini	-8.77231
▁yardım	-8.77453
▁9	-8.7748
▁yanında	-8.77618
▁sonunda	-8.77738
▁yerdə	-8.77798
▁Bütün	-8.77853
▁hərəkət	-8.77856
▁adam	-8.77882
▁dair	-8.77937
▁yaşında	-8.77942
▁qala	-8.77947
▁uyğun	-8.78151
▁məktəbi	-8.78317
▁XIX	-8.78379
▁Həm	-8.78459
larla	-8.78551
▁dəniz	-8.78874
▁özü	-8.78973
▁Hər	-8.78977
it	-8.79077
▁Afrika	-8.79134
▁başlayır	-8.79278
▁dedi	-8.79284
▁üzerinde	-8.79397
▁işləri	-8.79422
▁Hacı	-8.7975
▁Türk	-8.80094
▁fəaliyyəti	-8.80153
mız	-8.80165
▁Kahkaha	-8.80171
▁edilib	-8.80222
el	-8.806
▁şeyi	-8.8064
▁göz	-8.80645
▁11	-8.8097
lü	-8.81
▁tarafından	-8.81009
se	-8.81024
▁bazı	-8.81136
lakin	-8.81182
▁25	-8.81214
▁günü	-8.81216
▁etmişdi	-8.81515
▁Biz	-8.81579
▁14	-8.81588
▁əmələ	-8.81609
▁ərazisi	-8.81794
▁müdafiə	-8.8192
▁100	-8.81941
▁güclü	-8.82013
▁yaxınlığında	-8.82067
▁R	-8.82289
▁Bunda	-8.82776
▁sahəsi	-8.83105
▁olunub	-8.83134
▁nə	-8.83185
▁İslam	-8.83273
ydi	-8.83533
▁işğal	-8.837
sız	-8.8371
man	-8.83752
▁bilgi	-8.83761
▁şimdi	-8.83878
▁tərkibində	-8.83938
▁beş	-8.83941
▁anda	-8.84041
▁sahəsində	-8.84242
▁Mərkəzi	-8.84276
▁18	-8.84504
ydı	-8.84538
daki	-8.846
▁ictimai	-8.84657
▁soru	-8.84657
▁elə	-8.84666
▁Ş	-8.8476
▁olmak	-8.85021
▁ağ	-8.85118
▁Her	-8.85406
▁hareket	-8.85468
▁rəsmi	-8.85519
sını	-8.85542
▁inkişafı	-8.85555
▁ali	-8.85739
▁ciddi	-8.86006
niz	-8.86118
çılıq	-8.86181
▁yapmak	-8.8633
▁təsvir	-8.86483
▁yanvar	-8.8655
sine	-8.86856
▁ailə	-8.86905
▁İşte	-8.86915
lerde	-8.87017
▁istiyorum	-8.87216
illik	-8.87293
▁əks	-8.87427
▁elan	-8.87457
▁ağır	-8.87548
▁Roma	-8.87634
▁ətrafında	-8.87833
tir	-8.87839
▁əlaqədar	-8.88034
▁mart	-8.88058
▁halda	-8.88173
▁1992-	-8.8842
▁malikdir	-8.88598
▁işi	-8.89068
▁dil	-8.89174
▁alır	-8.8919
lerden	-8.89267
▁Şərq	-8.89498
st	-8.89703
gt	-8.8992
▁məlum	-8.90034
▁Peki	-8.90181
siniz	-8.90201
gə	-8.90315
▁Baş	-8.90516
ten	-8.90874
▁iyun	-8.91113
▁etibar	-8.91262
▁atası	-8.91391
▁çayı	-8.91403
▁şah	-8.91414
lərlə	-8.91712
ur	-8.92129
▁Ən	-8.92136
▁əsr	-8.92144
▁Bunlar	-8.92193
▁para	-8.92221
mek	-8.92303
liyi	-8.9234
ından	-8.92411
▁bundan	-8.92508
▁ələ	-8.92802
os	-8.92845
▁dekabr	-8.92865
▁sözü	-8.93019
2	-8.93103
▁xanın	-8.93281
▁məktəb	-8.93481
▁qərar	-8.93521
▁bədii	-8.93741
lerine	-8.93777
eynəl	-8.9394
▁müharibə	-8.94052
dək	-8.94139
▁lazım	-8.94196
▁təbii	-8.94321
▁50	-8.9434
▁İkinci	-8.94449
▁zor	-8.94455
▁bize	-8.94662
▁daş	-8.94689
▁hansı	-8.94894
▁Allah	-8.94944
▁tək	-8.95025
▁mübarizə	-8.95064
▁müharibəsi	-8.95114
▁Şuşa	-8.95185
▁ayrı	-8.95222
▁olacak	-8.95474
▁rast	-8.9551
▁oldukça	-8.95582
▁ta	-8.95628
▁aprel	-8.95714
▁birkaç	-8.95782
▁fakat	-8.96174
▁yox	-8.96209
▁ifa	-8.96378
▁yazır	-8.96471
▁gözəl	-8.96562
▁dünyaya	-8.96644
▁imkan	-8.96789
▁mədəniyyət	-8.96884
▁Ya	-8.97119
sə	-8.97286
▁sahilində	-8.97344
▁elm	-8.97379
▁gənc	-8.97637
▁tarix	-8.97649
▁iqtisadi	-8.97731
▁ağa	-8.97862
ması	-8.97906
▁etmek	-8.97985
▁futbol	-8.98036
▁mı	-8.98122
▁təqdim	-8.98129
▁həsr	-8.98279
▁Son	-8.98324
▁pro	-8.98332
gər	-8.98384
▁güzel	-8.98523
▁dörd	-8.98569
▁indiki	-8.9858
▁oktyabr	-8.98582
▁məxsus	-8.98619
ım	-8.98625
ip	-8.98975
▁oyun	-8.99374
mı	-8.99423
lama	-8.99682
▁tez	-8.99692
▁zəngin	-8.99727
▁ana	-8.99825
▁tekrar	-8.99835
▁biridir	-8.99997
▁Ali	-9.00124
ine	-9.00223
▁ölkəni	-9.00444
▁altı	-9.00477
▁yani	-9.00488
▁beni	-9.00539
▁13	-9.00631
▁İbrahim	-9.00666
▁yaşayır	-9.00776
▁oluyor	-9.00807
▁şəhərin	-9.00924
▁gəlmiş	-9.00955
sanız	-9.01038
▁qrup	-9.01224
▁nəzərdə	-9.0125
nız	-9.01315
▁kötü	-9.01502
▁Abbas	-9.01582
▁SSR	-9.01615
▁ifadə	-9.01637
niversitetini	-9.01836
▁Siz	-9.01936
▁Aslında	-9.02088
▁təxminə	-9.02123
▁bərabər	-9.02486
▁İsmayıl	-9.02533
▁karar	-9.02654
▁fərqli	-9.02766
▁Alkış	-9.02816
▁fark	-9.02931
▁avqust	-9.02982
sal	-9.03057
tik	-9.03238
▁asılı	-9.03258
lərə	-9.0329
▁növü	-9.03426
əddin	-9.03588
▁görkəm	-9.03658
▁məğlub	-9.0369
▁sistem	-9.03714
▁cümlədə	-9.04099
ayının	-9.04128
xud	-9.04199
▁qısa	-9.04398
▁açık	-9.04626
lərdə	-9.04685
▁noyabr	-9.04928
▁hayal	-9.04966
▁ancaq	-9.0511
▁devam	-9.0514
▁iri	-9.05148
▁mükafatı	-9.05458
▁Alkışlar	-9.05564
▁olabilir	-9.05567
▁Almaniya	-9.05703
▁Amma	-9.05782
▁məhz	-9.06084
▁olmuşdu	-9.06317
▁tanınmış	-9.0634
ran	-9.06468
▁illərində	-9.06512
▁hal	-9.06519
▁metr	-9.06538
dim	-9.0669
▁yəni	-9.06762
nde	-9.06779
▁ərəb	-9.06885
▁aktyor	-9.06966
▁filmi	-9.07066
▁insanın	-9.07246
acak	-9.07289
▁Ha	-9.07401
tu	-9.07431
▁baxım	-9.07484
▁teatr	-9.07757
▁nəfəri	-9.07762
lerle	-9.07809
▁fevral	-9.0789
▁tətbiq	-9.07944
A	-9.07972
▁on	-9.08033
▁üzərin	-9.08125
▁iyul	-9.08176
▁dövrü	-9.08263
▁tərəfdə	-9.08366
▁rayonunda	-9.08387
▁din	-9.08408
▁tür	-9.08789
▁N	-9.08961
▁çoxlu	-9.08973
▁yüzde	-9.09053
▁sədri	-9.09292
▁aldı	-9.09683
yu	-9.09688
▁daxili	-9.09717
sin	-9.09832
▁vəzifəsində	-9.09943
əli	-9.10032
ey	-9.101
▁bitki	-9.10242
▁qardaşı	-9.10342
▁d	-9.10368
▁İnstitutunu	-9.10388
▁şair	-9.10607
▁Günəş	-9.10718
▁çalışan	-9.10721
▁kömək	-9.10874
iya	-9.11002
▁Onların	-9.11003
▁gəldi	-9.11041
▁birçok	-9.11043
▁yoxdur	-9.11054
▁40	-9.11102
▁təhsilini	-9.11242
▁geliyor	-9.11588
▁sentyabr	-9.11711
▁sadə	-9.11891
▁24	-9.1202
sının	-9.12078
▁dövləti	-9.12118
çı	-9.12385
▁uşaq	-9.12389
▁başlamışdır	-9.12588
▁parça	-9.1265
▁yüksek	-9.12689
▁gəlib	-9.1302
▁süre	-9.13043
▁ölüm	-9.13533
▁sahibi	-9.13548
▁Hindistan	-9.13752
▁etməsi	-9.13786
▁qərarı	-9.13786
▁əvvəllərində	-9.13899
▁olunması	-9.13928
▁müəllim	-9.13946
▁əhalini	-9.14092
▁aşkar	-9.14122
▁irəli	-9.14351
▁azad	-9.14352
▁cür	-9.14361
▁qara	-9.14422
ib	-9.14538
niversiteti	-9.14562
▁Re	-9.14715
▁döyüş	-9.15013
▁əl	-9.1507
▁yazı	-9.15121
1	-9.15128
▁belki	-9.15198
ul	-9.15215
▁rayon	-9.15279
▁almaq	-9.15341
▁çay	-9.15515
▁müstəqil	-9.15613
▁qalan	-9.16099
▁eləcə	-9.16102
▁Evet	-9.1614
▁xey	-9.16228
▁şəklində	-9.1634
ö	-9.16428
▁cəlb	-9.16466
▁qol	-9.16491
▁yazıçı	-9.16542
▁Beləliklə	-9.16542
▁Bununla	-9.16687
ter	-9.16772
▁Moskva	-9.16894
▁elektrik	-9.16903
▁ölkədə	-9.17185
ilə	-9.17465
▁kat	-9.17468
is	-9.17487
▁bilir	-9.17512
maya	-9.17594
imi	-9.17668
▁bugün	-9.17806
arak	-9.17952
▁həyatı	-9.18227
▁əhəmiyyətli	-9.18242
▁xanım	-9.18244
▁Film	-9.18248
va	-9.18306
mumi	-9.18308
▁hissəsində	-9.18415
▁kaç	-9.185
ol	-9.18519
▁El	-9.18649
▁ədəbi	-9.18692
▁qızıl	-9.18822
▁arada	-9.18908
▁İki	-9.18949
▁təsərrüfatı	-9.18981
▁Mən	-9.19057
▁sol	-9.19166
saylı	-9.19173
inde	-9.19286
luq	-9.19363
▁alıb	-9.19481
▁gelen	-9.19601
▁tamamen	-9.19712
▁adlana	-9.19751
▁birlikte	-9.19781
▁insanları	-9.20189
▁olundu	-9.20212
▁2009-	-9.20558
▁olsun	-9.20613
▁XX	-9.20678
ah	-9.20947
liği	-9.21036
▁De	-9.21108
▁şəxs	-9.21384
▁Ona	-9.21637
▁verilir	-9.21777
▁Nazirliyi	-9.21811
▁Şu	-9.21861
▁sizin	-9.21938
▁açıq	-9.21949
▁bərpa	-9.22088
▁mü	-9.22176
▁ala	-9.22211
▁növ	-9.22587
▁ingilis	-9.22748
▁Asiya	-9.22929
yor	-9.2297
ənkəran	-9.23078
▁harika	-9.23078
▁Ay	-9.23108
▁olurdu	-9.23229
▁lazımdır	-9.23268
▁Hazırd	-9.23291
▁Quba	-9.23301
▁əsərləri	-9.23499
▁Birinci	-9.23603
▁basit	-9.23671
▁üçüncü	-9.23672
▁kitab	-9.23677
▁rəhbərliyi	-9.23678
▁yerine	-9.23787
▁Ağ	-9.24039
▁pek	-9.24071
▁yazdığı	-9.24166
▁gereken	-9.24224
▁boyu	-9.24296
▁məntəqəsi	-9.24473
▁əsrlərdə	-9.24532
erek	-9.24792
▁br	-9.24837
ha	-9.24867
▁yaşlı	-9.24926
▁te	-9.24979
▁təsiri	-9.25019
▁işıq	-9.25115
▁ticarət	-9.25134
▁İrəvan	-9.25218
▁tutur	-9.25289
▁olduğuna	-9.25386
▁hissəsini	-9.2542
▁Kür	-9.25562
nu	-9.25637
▁ibn	-9.25661
▁bizi	-9.25693
zadə	-9.25731
▁21	-9.25735
▁deyilir	-9.25778
▁şöyle	-9.25911
▁alman	-9.26027
▁keçir	-9.26044
▁Əsas	-9.26065
▁fars	-9.26082
▁internet	-9.26115
▁sonralar	-9.26195
▁yazılmış	-9.26231
▁Gürcüstan	-9.26397
▁nəticə	-9.26405
▁1-	-9.26416
▁qeyri	-9.26518
▁cəhət	-9.2659
▁sənaye	-9.2663
▁tərcümə	-9.26676
▁işte	-9.2682
▁nisbət	-9.2683
▁görülmüşdü	-9.2685
▁19	-9.26868
▁Nizami	-9.26906
ek	-9.2706
▁təklif	-9.27091
▁kim	-9.27095
▁hakimiyyət	-9.27118
▁kitabı	-9.27233
ay	-9.27326
tır	-9.2733
ecek	-9.27435
▁23	-9.27605
▁artisti	-9.27639
lərini	-9.27727
▁səbəbi	-9.27788
▁ərazidə	-9.27874
▁at	-9.27881
▁öyle	-9.28009
▁uğur	-9.28028
▁Qızıl	-9.28052
mişdir	-9.28202
▁yakın	-9.28238
▁elmləri	-9.2829
lerinin	-9.28318
▁Qədim	-9.2836
dü	-9.28373
▁durum	-9.28392
▁26	-9.28415
▁qarşısında	-9.28456
▁sürü	-9.285
▁el	-9.28507
▁artık	-9.28552
▁üzerine	-9.28598
▁torpaq	-9.28756
əlil	-9.28833
▁bəhs	-9.28904
▁yapı	-9.29007
▁Məsələn	-9.29134
▁hala	-9.29146
▁paytaxtı	-9.29251
▁mahnı	-9.29254
▁çıxan	-9.29309
▁əsəri	-9.29331
▁səs	-9.29334
▁azərbaycanlı	-9.29356
▁hiçbir	-9.29476
▁müsəlman	-9.29487
▁tələb	-9.2951
▁hissə	-9.29617
zun	-9.29663
▁məna	-9.2974
▁şərq	-9.29752
▁III	-9.30014
ça	-9.30193
▁çayını	-9.30283
▁yaşamış	-9.30388
▁bilgisayar	-9.3041
▁çalışma	-9.30438
▁respublika	-9.3051
▁müşahidə	-9.30527
ad	-9.30633
▁eden	-9.30784
▁canlı	-9.3086
deki	-9.30865
▁cavab	-9.30899
▁verilmişdi	-9.30911
id	-9.30941
▁pul	-9.31022
▁sahib	-9.31057
▁hesabı	-9.31111
▁beyin	-9.31132
▁Bəzi	-9.31196
▁düşür	-9.31198
▁özündə	-9.31393
▁təmsil	-9.31505
▁ordusu	-9.317
▁tərk	-9.31821
▁keçən	-9.31845
▁1993-	-9.31962
sinin	-9.32013
▁En	-9.3214
▁kütlə	-9.32141
▁vermişdir	-9.32287
muş	-9.32289
▁çocuk	-9.32315
dik	-9.32333
▁içərisində	-9.32382
▁Şeyx	-9.32475
▁kadın	-9.32481
▁Şəki	-9.32506
▁üst	-9.32653
▁prezidenti	-9.32672
▁istehsalı	-9.32765
▁0	-9.32894
▁siz	-9.33022
▁vacib	-9.33203
▁tamami	-9.33228
▁ara	-9.33377
▁rəhbərli	-9.33493
isi	-9.33503
▁zorunda	-9.33633
▁bağlıdır	-9.33714
▁fəxr	-9.33774
▁Təbriz	-9.33789
ltif	-9.33812
▁dəfn	-9.33976
▁Böylece	-9.34028
us	-9.34075
▁hazır	-9.34174
lerinde	-9.34187
▁sene	-9.34264
▁Prezidenti	-9.34292
▁Hal	-9.34292
▁olma	-9.34336
▁tədris	-9.34512
▁adlanır	-9.34598
▁doktoru	-9.34654
▁Heydər	-9.34678
▁professor	-9.34684
▁almış	-9.34691
▁22	-9.34767
▁çalışır	-9.34788
▁hakim	-9.34794
▁Al	-9.34796
▁göstərən	-9.34917
▁Su	-9.34965
▁dövrün	-9.34969
▁Rus	-9.35111
▁temel	-9.35167
fi	-9.35228
za	-9.35248
▁indi	-9.35305
▁yara	-9.35323
▁konu	-9.35325
▁yaradılması	-9.35332
▁əsrlər	-9.3539
▁Şamaxı	-9.3539
▁işlər	-9.35413
▁2005-	-9.3546
▁mədəni	-9.35489
▁daim	-9.35552
▁konusunda	-9.35585
▁gücü	-9.35587
▁sosial	-9.35662
▁özünə	-9.35664
▁ederim	-9.35855
▁parçası	-9.3601
▁anası	-9.36021
▁keçirilmiş	-9.36097
▁mən	-9.3612
lerinden	-9.36133
▁əvvəlki	-9.3616
▁qaz	-9.36169
lərində	-9.36275
▁həbs	-9.36285
▁hazırlanmış	-9.36366
▁Şirvan	-9.36419
▁dərs	-9.36464
▁aşağıdakı	-9.36742
▁xəbər	-9.36767
▁təsdiq	-9.36802
▁qərb	-9.36929
▁çoğu	-9.36943
▁insanlara	-9.37052
▁Misir	-9.37068
▁yuxarı	-9.37069
▁əvəz	-9.37098
▁nəzərə	-9.37127
▁Yusif	-9.37174
▁daki	-9.37218
▁ye	-9.37402
▁yaşam	-9.37466
▁üzü	-9.37483
▁araba	-9.37589
▁al	-9.37674
▁bəzən	-9.37696
▁kino	-9.37712
▁mərkəzində	-9.37756
▁olduğundan	-9.37846
ro	-9.37932
▁28	-9.38026
▁Britaniya	-9.38044
▁işçi	-9.3818
▁fransız	-9.38206
▁1991-	-9.38249
fa	-9.38289
▁müdiri	-9.38377
▁2008-	-9.38383
▁izah	-9.38401
▁fəal	-9.38546
▁edin	-9.38579
3	-9.38591
▁hızlı	-9.38591
▁illərin	-9.38733
▁2006-	-9.38766
▁Mədəniyyət	-9.38806
▁olmasına	-9.38819
▁2000-	-9.38844
▁ətraf	-9.38891
unu	-9.38914
▁bilim	-9.39034
▁başlayara	-9.39089
araq	-9.39129
▁tərəf	-9.39234
ıyor	-9.39272
ak	-9.39411
▁geldi	-9.39532
▁tanış	-9.39544
▁gedən	-9.39585
▁1990-	-9.39704
lərindən	-9.39738
ox	-9.39777
▁adlandırılmışdı	-9.39856
▁memarlıq	-9.39871
▁siyahısı	-9.39898
▁Eyni	-9.39968
▁edirdilər	-9.4005
▁veri	-9.40074
▁Di	-9.40168
▁Tamam	-9.40201
sunuz	-9.40259
ğ	-9.40411
▁uğrunda	-9.40454
qca	-9.40535
▁verdiyi	-9.40669
4	-9.40706
dım	-9.40746
▁uzunluğu	-9.40862
▁Şurası	-9.40915
▁olmadığı	-9.40939
▁müavini	-9.41
▁ediyor	-9.41089
▁işe	-9.41176
▁ordu	-9.41179
▁dəmir	-9.41227
▁ancak	-9.41249
▁ön	-9.41259
▁29	-9.41294
▁27	-9.41692
adece	-9.41806
▁dənizi	-9.41826
▁məhv	-9.41952
▁ilginç	-9.41952
▁ermənilər	-9.42003
▁tane	-9.42026
▁vermiş	-9.42069
▁60	-9.42128
▁onda	-9.42193
▁1980	-9.42195
▁mu	-9.42233
▁qan	-9.42309
▁yerde	-9.42315
▁yeniden	-9.42321
▁bunları	-9.42331
▁sosyal	-9.42373
7	-9.42375
es	-9.42498
hazırda	-9.42559
▁etdirir	-9.42666
▁Mahnı	-9.42691
▁iddia	-9.42734
ağa	-9.42741
▁gizli	-9.42756
maq	-9.4278
▁yunan	-9.42812
▁idman	-9.42812
▁ədəbiyyatı	-9.4284
▁fikri	-9.42953
▁üz	-9.43034
sinde	-9.43044
▁ata	-9.43133
tez	-9.43266
nden	-9.43268
▁Bizim	-9.43351
▁aydın	-9.43401
▁filmləri	-9.4354
▁üzv	-9.43765
meye	-9.43785
▁qələbə	-9.43826
▁müraciət	-9.43834
▁yaklaşık	-9.43834
▁Məmməd	-9.43835
▁ülke	-9.43903
▁Digər	-9.43937
▁savaş	-9.43977
▁sıx	-9.43998
▁adları	-9.44123
▁əsasını	-9.44328
▁Teymur	-9.44366
▁başına	-9.44386
▁ad	-9.44474
▁bunların	-9.44529
▁üstün	-9.44605
▁Məmmədov	-9.44652
▁Və	-9.44727
▁ayrıca	-9.44737
▁gelir	-9.44845
▁tabe	-9.4492
abad	-9.44943
▁dört	-9.45016
▁çıkar	-9.45114
▁yaradılmış	-9.45174
▁quru	-9.45199
▁2007-	-9.4523
▁sübut	-9.45383
▁həmişə	-9.45459
▁daxildir	-9.45469
▁inanılmaz	-9.45475
▁nümayəndələri	-9.45517
▁kəs	-9.45616
▁olmadığını	-9.45822
▁Respublika	-9.45827
▁növbə	-9.45858
▁sözləri	-9.4586
▁qalası	-9.45907
▁yaradır	-9.45986
▁etme	-9.46086
▁dolar	-9.46112
əfər	-9.46113
▁mənasında	-9.46197
▁onunla	-9.4628
▁naziri	-9.46286
▁yapma	-9.46297
▁Kəndi	-9.46307
▁diqqət	-9.46335
ge	-9.4645
▁həll	-9.4647
▁hale	-9.46505
▁iç	-9.46569
9	-9.46613
▁Ağa	-9.46782
abilir	-9.46804
▁istediğim	-9.46896
mu	-9.46926
to	-9.46927
luğu	-9.47025
▁İncəsənət	-9.47051
▁informasiya	-9.47053
▁000	-9.47155
▁elde	-9.47358
▁dövlətin	-9.47446
▁birinin	-9.47612
▁məlumatlar	-9.47623
▁bununla	-9.47643
▁Paşa	-9.47643
▁konuşma	-9.47643
D	-9.47792
▁sənət	-9.47807
lkə	-9.47879
▁çalışmışdı	-9.47884
▁sorun	-9.47967
▁dərin	-9.48037
▁İngiltərə	-9.48055
ayət	-9.48058
▁Qərbi	-9.48151
▁1918-	-9.48181
▁hem	-9.48212
ko	-9.48304
▁Əmir	-9.4833
▁Dram	-9.48387
▁durumda	-9.48449
▁əsərində	-9.48463
▁kontrol	-9.48477
▁təsadüf	-9.48547
▁televiziya	-9.48626
▁nokta	-9.48646
▁mal	-9.4867
▁hakimi	-9.48678
▁v	-9.48772
bir	-9.4883
▁qız	-9.48863
am	-9.48967
içik	-9.48997
▁fəaliyyətini	-9.49039
▁dövr	-9.49151
▁eğitim	-9.49162
▁sayılır	-9.49216
▁dolu	-9.49219
sun	-9.49314
▁növləri	-9.49315
əm	-9.49448
▁Yer	-9.49455
▁herhangi	-9.49509
▁evi	-9.49643
▁Teatrın	-9.49745
▁sayda	-9.49759
▁hikaye	-9.49872
▁əhalisini	-9.49934
▁yaradılmışdı	-9.50017
▁olunurdu	-9.50118
▁hemen	-9.50132
▁Şərqi	-9.50137
hi	-9.50191
▁başlayan	-9.50276
▁məruz	-9.50318
▁komanda	-9.5035
▁Benim	-9.50353
▁izin	-9.50441
▁İnsan	-9.50465
▁əksəriyyəti	-9.5052
▁şeyleri	-9.50857
▁necə	-9.50969
▁bina	-9.51038
▁2-	-9.51054
▁çıxır	-9.51132
▁Qüvvələri	-9.51155
▁ailəsi	-9.51229
▁ədəbiyyat	-9.5155
▁deyə	-9.51759
▁bitiri	-9.51787
az	-9.51788
▁demek	-9.51796
yyətlə	-9.51815
▁rolu	-9.51899
▁qalib	-9.52083
▁alt	-9.52196
▁hadisə	-9.52223
▁Elə	-9.52305
▁klubu	-9.52326
▁içində	-9.52352
▁özel	-9.52391
▁qoşunları	-9.52446
▁Mustafa	-9.52516
▁sülh	-9.52545
▁vəziyyət	-9.52632
▁böylece	-9.52667
▁Musiqi	-9.5272
▁yegan	-9.52725
lardı	-9.52763
▁qrupu	-9.52774
▁üstündə	-9.52783
▁alma	-9.52955
8	-9.52997
▁əməkda	-9.53183
▁rəhbəri	-9.53336
▁Rayon	-9.53397
çe	-9.53445
▁örnek	-9.53468
▁güçlü	-9.53494
ız	-9.53557
▁problem	-9.5368
em	-9.53687
▁hazırda	-9.53803
▁Müqəddə	-9.53813
ası	-9.53884
ot	-9.53907
▁qalır	-9.5392
▁1920-	-9.54219
▁İtaliya	-9.54228
▁kız	-9.54286
▁Onu	-9.54324
▁məktəbində	-9.54359
▁Teşekkürler	-9.54418
▁200	-9.5443
▁yaranması	-9.54455
sınız	-9.54632
▁dəvət	-9.54645
▁icra	-9.54775
lo	-9.54813
▁avtomobil	-9.54881
▁video	-9.54915
▁birşey	-9.5501
▁şairi	-9.55118
▁hayat	-9.55149
▁isti	-9.55176
▁Muxtar	-9.55223
ondan	-9.55287
▁Avroviziya	-9.55324
rc	-9.55374
▁əmək	-9.55418
▁Ma	-9.5545
▁Süleyman	-9.55485
▁onlardan	-9.55501
▁Seyid	-9.5564
məsi	-9.55693
▁İnstitutu	-9.5579
▁genç	-9.55913
▁yanlış	-9.5614
▁şəxsi	-9.56156
mizi	-9.56165
▁cevap	-9.56242
▁gəlmişdi	-9.56272
▁aiddir	-9.56276
▁benzer	-9.56304
▁üzvləri	-9.56592
▁2004-	-9.56611
▁keçirilir	-9.56627
▁bin	-9.56631
▁bak	-9.56686
▁eski	-9.56754
▁tayfa	-9.56888
▁hafta	-9.57019
▁model	-9.57082
tar	-9.57112
▁Mir	-9.57114
▁araştırma	-9.57133
▁çəkilmiş	-9.57155
▁bitirmişdi	-9.57173
▁ordusunu	-9.57264
▁araya	-9.57341
▁əvvəlcə	-9.57396
▁ölkələrdə	-9.57546
▁tamam	-9.57547
▁gecə	-9.57644
▁kilsə	-9.57764
▁maddi	-9.57789
▁80	-9.58086
▁milyar	-9.58125
zi	-9.58126
▁başçısı	-9.5814
▁işləmişdi	-9.58163
▁yanı	-9.58164
▁köməyi	-9.58179
▁hüquq	-9.58187
▁məcbur	-9.58295
imiz	-9.58351
▁sahələri	-9.5837
▁qayda	-9.58462
▁verilmiş	-9.58531
▁incəsənət	-9.58651
▁anlama	-9.58756
seniz	-9.58882
▁məktəbini	-9.58932
pe	-9.59056
van	-9.5908
leme	-9.59103
adlı	-9.59206
▁etti	-9.5931
▁tipli	-9.59325
▁İstanbul	-9.59354
▁olmasını	-9.59382
▁maraqlı	-9.59547
5	-9.59573
▁düz	-9.59587
luk	-9.59592
▁3-	-9.5962
iyor	-9.59688
00	-9.59863
film	-9.59891
▁Tanrı	-9.59903
▁hökmdarı	-9.59924
▁Olimpiya	-9.60105
▁sizi	-9.60167
▁Bugün	-9.60182
▁kon	-9.60268
▁Şəhər	-9.60411
▁sovet	-9.60464
▁Sa	-9.60479
▁aparıla	-9.60516
▁herkes	-9.60615
▁başlayıb	-9.60638
ış	-9.60682
▁qırmızı	-9.61059
as	-9.61152
▁Əhali	-9.61165
▁ləğv	-9.61174
caq	-9.61201
▁xadimi	-9.61245
▁Ağdam	-9.61257
dığı	-9.616
▁ölümündə	-9.6161
qətlə	-9.61613
▁forması	-9.61663
6	-9.61686
▁zamanlar	-9.6171
▁sonuna	-9.6172
▁çevre	-9.61721
▁dəqiq	-9.61815
▁birini	-9.61816
▁yaranmışdı	-9.61841
▁yenə	-9.61918
▁yine	-9.61966
▁tikilmiş	-9.62039
▁göstərmişdi	-9.62087
▁hiss	-9.62126
▁qazandı	-9.62157
▁birində	-9.6221
▁çar	-9.62238
▁aile	-9.62457
▁2002-	-9.62465
▁dedim	-9.62467
▁kimse	-9.62504
▁y	-9.62571
▁qəzeti	-9.62659
0	-9.62721
▁hallarda	-9.62753
▁etnik	-9.62915
▁yayılmışdı	-9.62936
▁coğrafi	-9.62947
▁tibb	-9.6298
▁əsl	-9.63042
kar	-9.63069
▁2010-	-9.63109
▁saray	-9.63338
▁olmadan	-9.63348
▁Molla	-9.63377
çu	-9.634
▁2003-	-9.6344
▁hatta	-9.63571
ist	-9.63622
gi	-9.63671
▁hepsi	-9.63684
▁gedir	-9.63784
▁göster	-9.63932
▁XVIII	-9.63939
▁nail	-9.63969
▁Ni	-9.63972
▁əsər	-9.63989
▁arxeolo	-9.64049
▁vəziyyəti	-9.6405
▁şunu	-9.64171
▁daşı	-9.64182
ləşmiş	-9.64216
▁üstünlük	-9.64352
unun	-9.64357
ing	-9.64422
▁yoldaşı	-9.6446
▁forma	-9.64584
mağa	-9.64604
▁telefon	-9.64723
▁mədəniyyəti	-9.64764
tim	-9.64825
▁sm	-9.6483
▁alim	-9.64894
▁çoxu	-9.64896
sak	-9.64957
▁Neden	-9.64961
qdan	-9.64973
▁uzaq	-9.64987
ve	-9.65101
▁yerində	-9.65105
▁qalmış	-9.65177
▁səhnə	-9.65265
ıb	-9.65276
▁heyvan	-9.65396
▁xüsusiyyətləri	-9.65571
▁tahmin	-9.65573
▁yan	-9.65617
▁toplum	-9.65663
▁qadınlar	-9.65835
P	-9.65915
▁gətirir	-9.65953
▁silah	-9.65995
lük	-9.66069
əgər	-9.66095
▁müalicə	-9.66159
lanmış	-9.66308
ga	-9.66314
▁tutan	-9.66335
▁qəsəbə	-9.66336
▁dairəsi	-9.66378
▁güç	-9.66393
▁İttifaqı	-9.66487
▁nümayiş	-9.6659
▁müvafiq	-9.66591
ayəsində	-9.66679
▁birisi	-9.66746
▁gerek	-9.66747
▁yaşadığı	-9.66839
▁tədqiqat	-9.66951
▁qar	-9.66991
▁amma	-9.67049
▁təsis	-9.6705
▁bildirir	-9.67078
çilik	-9.67103
▁müqavilə	-9.67237
▁Avropada	-9.67312
▁yaşı	-9.67361
▁gösteriyor	-9.67377
▁Elmlər	-9.67425
▁ç	-9.67457
▁çətin	-9.67515
▁deyir	-9.67601
▁Akademiyasını	-9.67755
▁Aşağı	-9.6778
▁vaxtı	-9.67794
▁qüvvələri	-9.67948
▁daşıyır	-9.67988
▁Ye	-9.68079
▁mürəkkəb	-9.6808
▁kənddə	-9.68096
▁qəzet	-9.68134
▁sinir	-9.68168
▁çıxdı	-9.68169
▁Soveti	-9.68198
yev	-9.68264
mızı	-9.68354
▁dillərində	-9.68386
iyyə	-9.68469
▁hökuməti	-9.68535
▁Araz	-9.68566
▁qaldı	-9.68611
▁San	-9.6873
▁öncə	-9.68819
▁qolu	-9.68872
▁şərait	-9.68919
▁yap	-9.68925
▁komandası	-9.6906
▁İnsanlar	-9.69063
▁Me	-9.69082
▁çünk	-9.69103
▁mümkündür	-9.69168
bə	-9.69168
▁şəhərini	-9.69283
▁alınmışdı	-9.69287
▁500	-9.69292
▁suyu	-9.69329
san	-9.69475
▁direktoru	-9.69541
▁Paris	-9.6955
▁xanı	-9.69571
▁Az	-9.69578
▁aldığı	-9.69591
▁gördüğünüz	-9.69597
▁bence	-9.6968
▁kolay	-9.69709
krayna	-9.69782
▁hüququ	-9.69795
▁nadir	-9.6981
▁31	-9.69915
▁kabul	-9.6995
ap	-9.69961
sk	-9.69967
tü	-9.69991
▁azərbaycanlılar	-9.70019
▁görüş	-9.70044
▁yayılmış	-9.70061
▁Məh	-9.70088
nunun	-9.70107
ayrı	-9.70145
ılmış	-9.70195
▁şeyin	-9.70202
▁rəngli	-9.70231
▁neler	-9.70255
ebilir	-9.70265
▁qida	-9.70269
▁etdirə	-9.70269
▁buraya	-9.7037
mər	-9.70411
▁oyunda	-9.70449
dakı	-9.70482
sın	-9.70611
▁Sonralar	-9.70669
avanşir	-9.70765
▁normal	-9.70913
▁partiya	-9.70965
▁Fətəli	-9.71001
▁müğənni	-9.7112
▁Ta	-9.71178
▁fakültəsini	-9.71212
▁dövrünü	-9.71249
son	-9.71261
▁ilkin	-9.71265
lay	-9.71293
▁yaradıcılığı	-9.71387
ton	-9.71533
▁fiziki	-9.71545
▁ses	-9.71566
▁ton	-9.7159
▁yaptığı	-9.71611
▁meşə	-9.71634
▁başladılar	-9.71682
mışdır	-9.71683
▁No	-9.71716
▁başında	-9.71839
▁cəmi	-9.71887
yü	-9.72022
▁tip	-9.72067
▁onlarla	-9.72127
▁teatrın	-9.72152
▁qabaq	-9.72228
▁Mars	-9.72229
▁yaratmışdı	-9.72326
▁sahədə	-9.72458
▁maliyyə	-9.7257
▁istiqamətində	-9.7262
S	-9.7267
▁kez	-9.72678
▁prezident	-9.72791
▁Ərəb	-9.72842
▁yük	-9.72875
▁qanun	-9.72882
▁yarım	-9.72916
▁elektron	-9.72934
iş	-9.73211
▁ədəd	-9.73273
▁final	-9.7339
B	-9.73469
▁dövlətini	-9.73495
▁neredeyse	-9.73543
▁klassik	-9.73545
iki	-9.73577
▁f	-9.7358
▁qalmışdı	-9.7373
▁Moskvada	-9.73744
▁olmaya	-9.7375
▁Mü	-9.73845
▁sisteminin	-9.73848
▁məscid	-9.73865
▁ek	-9.73914
▁varsa	-9.73934
▁çıktı	-9.73945
▁geç	-9.73953
▁ailəsində	-9.7401
▁yapmaya	-9.74027
▁kısa	-9.7403
▁kök	-9.74104
▁değildir	-9.74192
▁plan	-9.74222
nızı	-9.743
▁mənşəli	-9.74335
▁köhnə	-9.74381
▁hadisələr	-9.74404
▁70	-9.74484
▁Mahmud	-9.74497
▁tedavi	-9.74504
▁Nadir	-9.74596
▁değildi	-9.74597
▁yeddi	-9.7465
▁dolayı	-9.74751
▁hökumət	-9.74756
əlak	-9.74795
▁sahə	-9.74815
lanma	-9.74821
▁yay	-9.74834
yız	-9.74881
▁Qala	-9.74894
▁tərtib	-9.74988
▁1999-	-9.75056
▁kar	-9.75084
▁təqrib	-9.75123
▁sürətlə	-9.75134
▁xanlığı	-9.75136
▁müddətdə	-9.75172
▁qələm	-9.75192
▁Ayrıca	-9.75255
▁qalıqları	-9.75302
▁yerlərdə	-9.75423
▁daxilində	-9.75434
ch	-9.75467
▁2013-	-9.75487
▁düşmən	-9.75488
▁sü	-9.75541
▁Elmi	-9.75576
▁dərəcə	-9.75585
▁top	-9.75607
diyi	-9.75651
▁The	-9.75663
ür	-9.75668
▁əhəmiyyət	-9.75719
▁xətti	-9.75726
▁Qırmızı	-9.75741
▁İsrail	-9.75741
▁yaz	-9.75752
▁quruluş	-9.75788
▁bağ	-9.75816
▁suyun	-9.75841
▁yaranmış	-9.75874
▁üsyan	-9.7588
birinə	-9.75961
▁2001-	-9.76073
▁verilən	-9.76093
▁texniki	-9.76185
zə	-9.76356
▁özellikle	-9.76578
▁Füzuli	-9.76616
▁zəif	-9.76702
▁tərkibi	-9.7673
▁metal	-9.76736
ıp	-9.76788
ünk	-9.76803
▁yola	-9.76922
▁ordeni	-9.76964
▁kompüter	-9.76993
▁mərkəz	-9.77085
▁tamaşa	-9.77093
▁Kendi	-9.77106
▁sırasında	-9.77167
▁yapan	-9.77214
▁dilini	-9.77237
▁qarşısını	-9.77275
▁say	-9.77291
▁elmlər	-9.77403
▁artır	-9.77405
ının	-9.77462
▁Tiflis	-9.77475
▁dilləri	-9.77548
▁York	-9.77597
▁general	-9.77747
▁üzere	-9.77753
▁gelecek	-9.77791
▁genel	-9.77982
▁İranda	-9.78059
▁2012-	-9.78065
▁derece	-9.78087
▁sənəti	-9.7819
▁fəlsəfə	-9.78197
▁Qərb	-9.78221
▁görünür	-9.78255
▁quruluşu	-9.78298
▁mm	-9.78395
▁İş	-9.78422
▁müəllimi	-9.78424
▁ağac	-9.78471
▁sözünü	-9.78496
▁göstərmək	-9.78594
▁ayı	-9.78633
▁vergi	-9.7864
▁yazmışdı	-9.78742
ley	-9.78825
sek	-9.78845
▁etdirmişdi	-9.7888
▁dərəcədə	-9.789
landı	-9.78915
▁gerekiyor	-9.78979
▁xalça	-9.79038
▁şəhərdə	-9.79072
▁ifade	-9.79175
▁prosesi	-9.79198
▁yere	-9.79257
▁verildi	-9.79273
▁İsveç	-9.79284
▁kəşf	-9.79329
▁keçdi	-9.79367
▁Orada	-9.7938
▁həkim	-9.79436
▁verici	-9.79463
▁başladım	-9.79506
▁2000	-9.79508
▁değer	-9.79515
▁Abşeron	-9.79546
▁mənim	-9.79702
▁İspaniya	-9.79769
▁ixtisas	-9.79772
▁Erməni	-9.79772
▁məhsulları	-9.79811
O	-9.79872
▁iletişim	-9.79935
▁vermək	-9.79982
▁kəndləri	-9.80064
▁təkrar	-9.80065
▁TED	-9.80068
▁20-	-9.80078
▁doğal	-9.80142
▁Qazax	-9.80305
▁maraq	-9.8031
▁düzgün	-9.80337
rken	-9.80358
▁xalqın	-9.80388
▁miqdar	-9.80437
▁can	-9.80525
▁yazırdı	-9.80571
▁tələbə	-9.80642
ud	-9.80689
▁Neft	-9.80795
olo	-9.80803
▁əmr	-9.81161
▁altın	-9.81165
▁nüvə	-9.81242
▁çalışıb	-9.81247
▁IV	-9.81259
▁katibi	-9.81289
▁grup	-9.81321
▁yaptığımız	-9.81327
niversitetində	-9.81351
▁kullan	-9.81364
▁edilə	-9.81509
▁Vətən	-9.81514
▁imti	-9.81516
▁nəzarət	-9.81521
▁edilirdi	-9.81609
▁inkişafında	-9.81631
▁səviyyəsində	-9.81682
▁alban	-9.81703
▁Rə	-9.81741
başa	-9.81754
▁Türkiyədə	-9.81765
▁tarixdə	-9.81797
ilmiş	-9.81819
▁gətiri	-9.81823
▁2011-	-9.81843
▁işin	-9.81857
▁bölünür	-9.81902
▁düşünün	-9.81927
▁əlaqə	-9.81934
▁əsir	-9.81952
▁qiymətli	-9.82005
▁olacaq	-9.8219
unda	-9.82296
▁qonşu	-9.823
▁Qafqazda	-9.82373
▁tikinti	-9.82382
▁x	-9.8242
▁görme	-9.82422
▁həyatında	-9.82444
▁mətbuat	-9.82531
ev	-9.8254
▁Sumqayıt	-9.82565
aşayış	-9.8257
▁kitabında	-9.82588
▁test	-9.82665
▁tut	-9.82715
bu	-9.82718
dum	-9.82739
▁vahid	-9.82782
aqafqaziya	-9.82832
▁ö	-9.82875
▁Ko	-9.82922
N	-9.8294
▁açı	-9.82944
▁aparılmış	-9.82986
▁rəng	-9.83009
▁etməklə	-9.83015
▁vəziyyətdə	-9.83051
▁surət	-9.83152
▁ulduz	-9.83158
lanan	-9.83229
▁başlıca	-9.83235
▁oluna	-9.83339
▁yolla	-9.83415
oz	-9.83464
▁silahlı	-9.83538
▁ver	-9.83541
ut	-9.83553
▁dağlıq	-9.83599
▁Nobel	-9.83638
▁təcrübə	-9.83708
▁deniz	-9.83736
▁vilayəti	-9.8374
▁görür	-9.83763
▁mənbələrdə	-9.83787
▁Hüseynov	-9.83814
tiv	-9.83833
▁müqayisə	-9.83906
▁kullanarak	-9.83917
işə	-9.84094
▁məktəbin	-9.84097
▁olduğumuz	-9.84109
▁keçirdi	-9.84122
▁1988-	-9.84192
▁geçen	-9.84235
▁ehtimal	-9.84261
▁Avstriya	-9.84312
▁Oykonim	-9.84312
▁mə	-9.84498
▁redaktoru	-9.84506
▁ortalarında	-9.84541
▁səbəbdən	-9.84569
▁dövrlərdə	-9.84681
▁vaxtda	-9.84734
▁İsa	-9.84792
▁göstərilir	-9.84804
larımız	-9.84821
▁Tüm	-9.84916
▁düşünce	-9.84916
▁içine	-9.84918
▁yavaş	-9.84977
▁hasta	-9.84992
▁1930	-9.84997
nizi	-9.85018
bo	-9.85063
▁bakın	-9.85075
▁vəzifəsinə	-9.85107
▁keçirilməsi	-9.85108
▁An	-9.85124
▁Hərbi	-9.85133
▁Kənddə	-9.8515
▁Əbu	-9.85161
▁göstərmiş	-9.85175
▁tədqiqatlar	-9.85184
▁maddə	-9.85258
▁həyatını	-9.85263
ydu	-9.85324
▁yılda	-9.85344
mayı	-9.85348
▁yaş	-9.85355
▁arasındaki	-9.85362
▁haqda	-9.85404
▁sanat	-9.85412
▁gece	-9.85439
▁ka	-9.85445
▁Bunları	-9.85454
▁olmalı	-9.85459
▁ölkələrində	-9.85489
▁dakika	-9.85499
▁məktəbdə	-9.85516
gah	-9.85662
▁söhbət	-9.85681
▁Aynı	-9.85689
▁nüfuz	-9.85785
T	-9.85805
▁bitir	-9.85947
▁adında	-9.8596
▁şirkəti	-9.8604
▁gir	-9.86047
▁Aşıq	-9.86091
▁ölçü	-9.86099
▁35	-9.86116
▁əlində	-9.86122
tur	-9.86127
▁hissələri	-9.86133
▁karmaşık	-9.86256
ver	-9.86262
▁ha	-9.86398
▁güven	-9.86422
▁ilişki	-9.86438
▁1998-	-9.86443
▁keçirir	-9.86449
▁kitabxana	-9.86456
▁real	-9.86494
▁kəskin	-9.86511
▁kal	-9.86614
▁Güney	-9.86668
▁əsrə	-9.86668
▁klub	-9.86724
▁rayonun	-9.86743
▁1994-	-9.86848
muz	-9.86872
▁İsgəndər	-9.86903
▁yoktu	-9.86988
▁keçə	-9.87007
▁yaratmaq	-9.87051
▁derin	-9.87079
yorum	-9.87105
▁edilmişdi	-9.87116
▁tətbiqi	-9.87129
▁Birliyini	-9.87161
▁ölkələrin	-9.87195
▁haber	-9.87214
▁qüvvə	-9.87225
▁no	-9.87239
▁sakinləri	-9.87243
▁Müasir	-9.87341
▁Bizans	-9.87349
▁abidə	-9.87421
▁Na	-9.87423
▁mirzə	-9.87481
▁sonraki	-9.87504
▁çeşit	-9.87513
ül	-9.87547
▁bəstəkar	-9.87558
ıl	-9.87689
▁sonu	-9.87703
ənəvi	-9.87719
▁90	-9.8772
▁4-	-9.87772
▁sarı	-9.87827
suz	-9.87833
▁qış	-9.87906
▁adi	-9.87918
▁çek	-9.87941
yorsunuz	-9.87997
po	-9.88041
▁sultan	-9.88136
▁ruh	-9.88169
▁mənsub	-9.88205
▁Gənc	-9.88205
▁dəstə	-9.88208
▁miqdarı	-9.88237
▁300	-9.88252
min	-9.88259
▁yaptı	-9.88598
▁yapıyor	-9.88603
▁iqlim	-9.88725
▁acı	-9.88808
▁etdikləri	-9.88834
▁aktyoru	-9.88887
▁parlaq	-9.8889
▁möhkəm	-9.88891
eb	-9.88918
▁giriş	-9.88967
▁proqram	-9.88988
▁məscidi	-9.89152
▁ihtiyacımız	-9.89227
▁sağlık	-9.89307
▁mesa	-9.89334
▁yerləri	-9.89363
ör	-9.89429
▁anlamı	-9.89454
▁deyildi	-9.89479
do	-9.89536
▁1960-	-9.89547
▁tərkibin	-9.8956
▁et	-9.89575
▁mühəndis	-9.89589
lanır	-9.896
▁heyvandarlıq	-9.89615
▁doğma	-9.89618
▁tasarım	-9.89663
▁qarşılıq	-9.89759
▁Yazıçılar	-9.89784
▁təsərrüfat	-9.89789
M	-9.89849
▁çöl	-9.89892
▁u	-9.89896
▁Atası	-9.89925
▁uşaqlar	-9.90066
▁yarısında	-9.90074
▁şəxslər	-9.90084
▁edildiyi	-9.90104
▁rağmen	-9.90176
▁atom	-9.90185
kan	-9.90239
lma	-9.90249
▁ışık	-9.90298
▁sonuncu	-9.90379
▁Kanada	-9.90383
▁ömrünü	-9.90404
▁olmaz	-9.90429
mək	-9.90454
▁müqəddəs	-9.90464
▁Axundov	-9.90476
▁xristian	-9.90476
▁biliyoruz	-9.90484
▁kan	-9.9051
▁1970-	-9.90536
▁heyəti	-9.90536
▁çəkilə	-9.90552
▁kompleksi	-9.90603
▁Qeyd	-9.90637
▁getir	-9.90686
▁atı	-9.90736
▁Yalnız	-9.90753
▁habe	-9.90774
▁XVI	-9.90898
güman	-9.90909
▁alıp	-9.90912
▁kamera	-9.90943
abiliriz	-9.91018
▁Mehdi	-9.91037
▁mavi	-9.91057
▁müsabiqə	-9.91058
▁atəş	-9.91091
▁yapılan	-9.91094
▁işləyi	-9.91109
▁Mi	-9.91159
▁2014-	-9.9122
maz	-9.91224
▁nəticəsi	-9.91294
▁çıxmış	-9.91294
EFA	-9.91333
ünü	-9.91337
▁siyasəti	-9.91403
▁beraber	-9.91448
▁göy	-9.91484
▁Belki	-9.91505
▁İl	-9.91514
tə	-9.91528
▁Albaniya	-9.9155
ktan	-9.91557
▁əmri	-9.91622
▁sənayesi	-9.91656
▁çalış	-9.91665
▁adamı	-9.91683
▁okul	-9.91717
▁xidmətləri	-9.91793
▁bilmir	-9.91821
▁əksər	-9.91831
▁asla	-9.91867
▁sahil	-9.91887
▁İnternet	-9.91917
▁sərbəst	-9.91923
▁kafa	-9.91985
▁hamısı	-9.9201
▁qismi	-9.92079
▁kəndindən	-9.92092
▁xarakteri	-9.92095
▁bazar	-9.92103
▁boz	-9.92186
▁şərəfin	-9.92222
▁ikisi	-9.92253
▁ekonomi	-9.92279
▁hərəkatı	-9.92284
ze	-9.9231
▁etdikdə	-9.92327
▁İnstitutunda	-9.9235
▁akademik	-9.92356
▁hazırlanması	-9.92402
▁Ge	-9.92467
▁Ana	-9.92468
ban	-9.92483
inal	-9.92497
▁Hacıbəyov	-9.92511
alı	-9.92669
▁va	-9.92683
▁görmek	-9.92721
▁Göy	-9.92778
▁Bərdə	-9.92798
▁məhkəmə	-9.9288
▁kur	-9.92918
▁sənədl	-9.92921
▁erkek	-9.92953
lerimiz	-9.9298
▁mənası	-9.93054
▁Ba	-9.93085
▁Qəbələ	-9.93093
▁düşünüyorum	-9.93106
gen	-9.93109
▁ölkələr	-9.93161
▁icazə	-9.93339
▁yağ	-9.93364
▁ortak	-9.93531
▁görüyorsunuz	-9.93544
▁mahnısı	-9.93554
▁gəlinir	-9.93626
▁gördük	-9.93629
▁asan	-9.93651
▁Tofiq	-9.93687
mo	-9.93748
▁Nəticə	-9.93836
▁adətə	-9.93884
▁kifayət	-9.93892
▁deyildir	-9.93926
▁verib	-9.93936
▁nəzdində	-9.93986
▁mövzusunda	-9.94031
▁bitirdik	-9.94057
▁təbiət	-9.9411
▁gələ	-9.94136
▁Komitəsi	-9.94157
▁Rza	-9.94158
▁ele	-9.94182
▁aparıcı	-9.94202
▁Məşə	-9.94285
▁tərəfi	-9.94299
▁yaradıcılıq	-9.94301
▁əsası	-9.94325
▁əsərlər	-9.94438
▁2015-	-9.9446
xa	-9.94471
▁sonlarında	-9.94507
▁çocuklar	-9.9455
▁müharibəsində	-9.94551
▁tanınır	-9.94605
op	-9.94617
▁nümunələri	-9.94633
▁seçilir	-9.94695
▁verme	-9.94704
▁yerləşdiyi	-9.94896
enin	-9.94903
▁verirdi	-9.9497
▁etməyi	-9.95026
▁səsi	-9.95221
sam	-9.95227
▁hep	-9.95292
▁təşkilat	-9.9532
▁Dəniz	-9.95341
▁görebilirsiniz	-9.95346
▁Nə	-9.95435
▁təsviri	-9.95452
▁ak	-9.95454
▁günəş	-9.95526
▁Yaponiya	-9.9559
▁olanlar	-9.9559
▁başlamış	-9.95591
▁oyunu	-9.95631
▁əməliyyat	-9.95636
▁yaptık	-9.95636
▁bakış	-9.95679
▁Komitəsini	-9.95695
▁mənəvi	-9.95779
rak	-9.95811
▁un	-9.95849
▁adından	-9.95873
▁Birliyi	-9.95921
▁Ar	-9.9594
▁değişim	-9.95969
▁ada	-9.96005
▁adamlar	-9.96089
▁əsərlərini	-9.96092
▁san	-9.96186
▁adamları	-9.96217
▁yarı	-9.96268
▁etmeye	-9.96296
▁hücre	-9.96313
▁sanki	-9.96372
▁alınması	-9.96399
▁teşekkür	-9.96486
yım	-9.96605
▁Xan	-9.96608
▁döndü	-9.96683
▁oranı	-9.96722
▁rəisi	-9.96795
▁Fi	-9.96818
▁Kar	-9.96849
▁güneş	-9.96906
▁yardımcı	-9.96914
iyoruz	-9.96957
▁1919-	-9.96966
▁imkanı	-9.96981
açın	-9.96985
▁öğren	-9.97069
▁iştirakı	-9.97107
issoru	-9.97128
▁kelime	-9.97152
▁Musa	-9.97159
▁zamanlarda	-9.97241
▁boş	-9.9726
▁ettim	-9.97293
▁düşündüm	-9.97414
▁düşən	-9.97433
▁rahat	-9.97464
▁Yerli	-9.97506
qları	-9.9751
▁olduqda	-9.97532
▁əvvəllər	-9.9759
▁sayılan	-9.97614
▁muhtemelen	-9.9765
▁məqalə	-9.9769
▁2009	-9.97762
▁korku	-9.97776
▁deputat	-9.97791
▁Bunlarda	-9.97889
▁1989-	-9.97921
he	-9.97922
▁Əməkda	-9.98018
dık	-9.98036
▁nümayəndəsi	-9.98052
layan	-9.9808
▁hissədə	-9.98108
▁yaratdığı	-9.98243
▁bəyi	-9.98246
▁Quliyev	-9.98258
▁1945	-9.98259
▁verilməsi	-9.98259
▁məsələn	-9.98294
▁alətləri	-9.983
▁Büyük	-9.98313
▁Amerikan	-9.98313
aman	-9.98389
▁dikkat	-9.98419
▁Xaric	-9.9842
mesi	-9.98469
▁binası	-9.98501
▁kilometr	-9.9852
▁Akademi	-9.98523
ant	-9.98523
▁olup	-9.98574
▁bazen	-9.98582
▁deney	-9.98664
mar	-9.98681
▁Avrupa	-9.98727
▁deneyim	-9.98728
▁yaşa	-9.98771
▁seçilmişdi	-9.98822
▁dəqiqə	-9.98866
▁30-	-9.98872
▁bırak	-9.98907
▁səfər	-9.98938
▁konsert	-9.98982
▁arası	-9.98989
▁Ara	-9.98989
əbrayıl	-9.9904
▁gəlməsi	-9.9907
diğimiz	-9.99079
çay	-9.99113
▁sərhəd	-9.99131
▁rəssam	-9.99148
▁çevrilir	-9.99203
▁rolunu	-9.99311
▁xal	-9.99364
▁söyle	-9.99389
abbarlı	-9.99392
▁Tə	-9.9941
dilli	-9.99571
▁imza	-9.99593
▁göndərdi	-9.99624
▁Təhsil	-9.99663
▁səkkiz	-9.99671
▁İmam	-9.99683
▁opera	-9.9976
▁nedir	-9.99771
malıyız	-9.99781
▁fikrinc	-9.9982
▁gümüş	-9.99829
▁güc	-9.99908
▁Əvvəl	-9.99953
▁işləyir	-9.99956
eti	-9.99957
▁yılında	-9.99959
▁edil	-9.99977
▁xilas	-9.99988
▁tədqiq	-10.0014
▁Səfəvilər	-10.0016
▁dışında	-10.0019
▁sebep	-10.0019
▁çatır	-10.0023
▁taxta	-10.0039
▁Yuxarı	-10.0045
▁hangi	-10.0047
▁merak	-10.0047
yum	-10.0047
pol	-10.0048
▁1972	-10.0063
▁olurlar	-10.0068
ylə	-10.0069
▁məsələ	-10.007
▁durumu	-10.0071
▁küresel	-10.0075
▁uzay	-10.008
▁kol	-10.008
▁tarixl	-10.009
▁universitet	-10.009
▁1974	-10.0094
▁mərhələsi	-10.01
▁yerini	-10.0107
▁vuru	-10.011
▁Aleksandr	-10.011
▁soyuq	-10.0124
▁Alban	-10.0126
▁Diğer	-10.0126
▁müqaviləsi	-10.0127
ac	-10.0128
▁çəkilmişdi	-10.0129
▁qazana	-10.0129
▁laureatı	-10.0144
▁etsə	-10.0144
▁dağları	-10.0148
▁dəstəsi	-10.015
▁bilən	-10.0154
▁özləri	-10.0157
▁dünyayı	-10.0159
▁qəza	-10.0163
▁Dağlı	-10.0163
▁1995-	-10.0166
sən	-10.017
xan	-10.0171
▁dram	-10.0173
▁1981	-10.0175
▁götür	-10.0177
▁Əl	-10.0182
▁gürcü	-10.0185
E	-10.0185
▁sebebi	-10.0189
▁Tarix	-10.0195
▁gözü	-10.0207
▁etki	-10.0209
▁həftə	-10.0221
▁biyolo	-10.0222
▁yarısı	-10.0223
▁ərazilərdə	-10.0224
▁mənasını	-10.0226
▁kendini	-10.0226
▁tutdu	-10.0227
▁İbn	-10.0227
▁başarı	-10.0232
kənd	-10.0233
▁İndi	-10.0236
▁Başka	-10.0239
▁adım	-10.0242
▁parlament	-10.0244
▁övladı	-10.0246
▁olacağını	-10.025
dığımız	-10.0251
▁Ban	-10.0251
▁yumurta	-10.0256
▁yaranan	-10.0258
▁hepimiz	-10.0263
▁nəzəriyyəsi	-10.0264
▁Nazir	-10.0276
▁şöbəsi	-10.0282
▁aylarında	-10.0285
sem	-10.0285
▁1967	-10.0288
▁1968	-10.0288
▁gələcək	-10.0291
▁1997-	-10.0292
▁bunlardan	-10.0294
▁Ro	-10.0297
leriyle	-10.03
▁şöbə	-10.0303
▁c	-10.0305
▁risk	-10.0307
▁ölkələri	-10.031
ede	-10.0317
▁qatı	-10.0322
gü	-10.0325
▁mərhələ	-10.0328
▁Osman	-10.0332
amp	-10.0334
▁hörmət	-10.0337
▁Nyu	-10.0341
▁destek	-10.0342
▁Federasiyası	-10.0344
nü	-10.0348
▁hayatta	-10.0351
▁bi	-10.0355
▁cəmiyyətin	-10.0355
▁şeir	-10.0356
tay	-10.0363
▁almak	-10.0371
▁seçilmiş	-10.0375
▁rəqs	-10.0377
ic	-10.038
▁kütləsi	-10.0382
zü	-10.0387
▁içerisinde	-10.0388
I	-10.039
▁boya	-10.0391
▁pis	-10.0395
▁olmaması	-10.0396
▁alanı	-10.0397
▁məqsəd	-10.0402
▁konuda	-10.0405
▁Teatr	-10.0406
ax	-10.041
▁temperatur	-10.041
▁eder	-10.0411
rhal	-10.0418
▁Allahı	-10.0421
esi	-10.0422
▁den	-10.0423
▁Ka	-10.0435
▁sat	-10.0436
▁ürək	-10.0437
▁arı	-10.0438
▁orqanları	-10.0438
▁qat	-10.0448
▁xəlifə	-10.0453
▁sürekli	-10.0454
▁ince	-10.0457
▁ekonomik	-10.0458
▁bilmədi	-10.0461
▁gölü	-10.0469
▁seçim	-10.0475
▁kilsəsi	-10.0481
▁oda	-10.0481
▁dərəcəsi	-10.0482
▁vermek	-10.0487
eği	-10.0489
▁beri	-10.0489
▁əsərlərində	-10.0491
▁tarixinə	-10.0496
▁kısmı	-10.0496
oğu	-10.0496
▁buz	-10.0502
▁Ədəbiyyat	-10.0504
ital	-10.0504
▁takip	-10.0506
▁ardın	-10.0512
K	-10.0513
etik	-10.0516
▁hayvan	-10.0517
▁1978	-10.052
▁saxlanılır	-10.052
▁sak	-10.0523
▁sistemində	-10.0524
▁milyard	-10.0533
▁əkinçilik	-10.0537
▁göstərirdi	-10.0543
▁mis	-10.0548
lığın	-10.0553
▁strate	-10.0553
▁Səlim	-10.0553
▁tərkib	-10.0558
▁defa	-10.0566
▁görülü	-10.0567
▁2016-	-10.0567
▁1938	-10.057
▁Yaxın	-10.057
avad	-10.0571
▁kesinlikle	-10.0571
▁insanı	-10.0588
▁bəziləri	-10.059
▁Fransız	-10.0604
▁150	-10.0604
▁aşı	-10.0614
▁cinsi	-10.062
▁başarılı	-10.062
▁uygun	-10.062
una	-10.0621
▁görüyoruz	-10.0622
▁45	-10.0622
▁Rusiyada	-10.0628
▁yolları	-10.0633
▁1976	-10.0637
şı	-10.0639
▁yaranır	-10.0646
▁XVII	-10.065
▁mineral	-10.0652
▁problemi	-10.0653
▁Səfəvi	-10.0653
▁Hava	-10.0655
▁5-	-10.0659
▁çevrilmişdi	-10.0661
▁as	-10.0663
▁hündürlüyü	-10.0664
▁proqramı	-10.0665
▁Qacar	-10.0666
▁binlerce	-10.0669
siyasi	-10.0669
▁dahi	-10.0675
▁1996-	-10.0677
▁mutlu	-10.0686
▁edəcək	-10.069
sinden	-10.0698
▁bölge	-10.07
asiya	-10.0701
ard	-10.0702
▁Ra	-10.0703
▁bulunan	-10.0709
▁tarixçi	-10.071
inden	-10.0714
▁muğam	-10.0717
▁şahın	-10.0719
▁həqiq	-10.072
▁gerektiğini	-10.0721
ger	-10.0722
meyi	-10.0726
▁g	-10.0727
▁alimi	-10.073
▁divarları	-10.0732
▁gil	-10.0734
▁tarixə	-10.0737
▁formul	-10.074
▁gerekli	-10.0746
▁Akademiyası	-10.0749
▁Kuboku	-10.0753
yon	-10.0756
əslində	-10.0759
▁abidələri	-10.0761
han	-10.0762
G	-10.0763
▁bədən	-10.0768
▁uzak	-10.0769
▁əvvəlində	-10.0771
alım	-10.0773
▁çıxıb	-10.0774
▁resmi	-10.0774
▁çərçivəsində	-10.0774
▁yaşlarında	-10.0777
▁təmiz	-10.0784
▁ehtiyat	-10.0787
▁Tibb	-10.0791
▁ders	-10.0795
▁yurdu	-10.08
▁doğa	-10.0813
▁Mo	-10.0816
▁quş	-10.0817
▁koy	-10.0819
▁polis	-10.0819
up	-10.0823
▁Respublikasında	-10.0824
▁do	-10.0827
▁Yunan	-10.0828
▁bölgəsində	-10.083
▁gedə	-10.0834
▁Kərim	-10.0836
gu	-10.0837
▁albomu	-10.0842
▁tanına	-10.0844
▁madde	-10.0844
▁gen	-10.0844
▁gitme	-10.0848
▁səviyyəsi	-10.0857
▁aparılır	-10.0857
▁xidməti	-10.0859
▁yürüş	-10.0869
▁Alman	-10.0872
▁tabi	-10.0874
uk	-10.0875
▁formada	-10.0875
▁çevrildi	-10.0877
▁şəkər	-10.0878
rdı	-10.0881
▁Kral	-10.0881
▁ş	-10.0883
▁mükafat	-10.0886
▁kap	-10.0887
▁bank	-10.089
▁Bo	-10.0903
▁ait	-10.0908
▁sözlər	-10.0909
▁nedenle	-10.0911
▁hedef	-10.0911
▁problemləri	-10.0914
▁Babək	-10.0916
▁balıq	-10.0917
▁sənəd	-10.0918
▁oldular	-10.092
iyi	-10.0923
▁döyüşdə	-10.0932
▁faydalı	-10.0936
▁işini	-10.0945
▁modeli	-10.0948
▁filmində	-10.0957
▁eş	-10.0959
per	-10.096
▁görüntü	-10.0961
▁1959	-10.0964
R	-10.0966
▁sık	-10.0968
▁Polşa	-10.0972
▁fərqlənir	-10.0974
▁Te	-10.0974
üz	-10.0975
▁müəllif	-10.0986
elim	-10.099
ımız	-10.0993
rt	-10.0994
▁etiraz	-10.0999
▁planı	-10.0999
▁gidiyor	-10.1005
▁alınmış	-10.1007
▁kimya	-10.1011
▁əlverişli	-10.1017
▁bağlantı	-10.1031
▁Hələ	-10.1032
▁400	-10.1039
▁tikili	-10.1043
▁şəhərləri	-10.1045
▁olay	-10.1046
izm	-10.1051
▁Ev	-10.1051
▁taşı	-10.1056
▁Baba	-10.1058
▁girdi	-10.107
iye	-10.1072
mer	-10.1074
▁siyasət	-10.1078
▁yemek	-10.108
▁yazılı	-10.1081
▁asıl	-10.1081
bəri	-10.1083
▁Partiyası	-10.1087
▁Şirin	-10.1088
ilen	-10.1094
▁ekran	-10.1101
▁seç	-10.1102
▁1969	-10.1104
▁mühasirə	-10.1108
yim	-10.1111
▁İranı	-10.1114
▁suda	-10.1116
▁oynayır	-10.1117
▁Gerçekten	-10.1118
yo	-10.1125
▁Benc	-10.1139
mde	-10.114
▁şimalda	-10.1141
▁tayfasını	-10.1143
▁haline	-10.1145
▁Xocalı	-10.1148
▁əleyhi	-10.1158
▁1971	-10.1158
▁cənubda	-10.1159
▁üsulu	-10.1166
▁olduqları	-10.1167
▁təhsili	-10.1178
▁nazir	-10.1179
yar	-10.118
ologiya	-10.1195
▁musiqisi	-10.1196
▁dünyadaki	-10.1203
▁dollar	-10.1209
▁yaşayırdı	-10.121
▁sen	-10.1211
▁Be	-10.1212
▁sərt	-10.1215
▁orqanı	-10.1221
▁evet	-10.1225
zeyi	-10.1227
▁Teşekkür	-10.1229
▁Vaqif	-10.1229
▁yaptım	-10.1229
▁ihtiyaç	-10.1238
▁torpaqları	-10.1238
▁meyvə	-10.1241
lanması	-10.1244
▁əsərin	-10.1248
▁Sabir	-10.1249
▁Gör	-10.1253
▁bal	-10.1261
▁fon	-10.1264
▁bas	-10.1267
bar	-10.127
▁namizədi	-10.1271
▁anne	-10.1274
▁düşdü	-10.1278
nün	-10.1279
▁dördüncü	-10.1283
▁ortasında	-10.1286
▁yana	-10.1286
▁vətəndaş	-10.1296
▁səthi	-10.1299
▁qismə	-10.1301
▁gidip	-10.1302
▁Ordubad	-10.1302
▁işaret	-10.1302
▁söyledi	-10.1305
▁formasında	-10.1307
▁qərbdə	-10.1307
▁Rəssam	-10.1319
▁mükemmel	-10.1319
▁Hayır	-10.132
▁bü	-10.1322
▁kazan	-10.1326
▁edecek	-10.1328
▁məsələləri	-10.1328
▁qalibi	-10.1335
▁olmalıdır	-10.1338
▁1000	-10.1338
▁ardından	-10.1339
▁üret	-10.1344
▁Prezident	-10.135
▁bilməz	-10.1354
▁satış	-10.1354
▁universitetin	-10.1357
ıldı	-10.1366
▁gönder	-10.1369
▁sabit	-10.1374
▁Ərdəbil	-10.1374
▁kənar	-10.1381
▁olduğum	-10.1383
dığını	-10.1384
▁yaratdı	-10.1385
har	-10.1385
▁islam	-10.1396
▁ayrıla	-10.14
▁kənarda	-10.14
▁So	-10.1407
▁şeye	-10.1408
▁sürgün	-10.1411
▁ileri	-10.1415
▁32	-10.1416
asyon	-10.142
şərq	-10.1421
▁hökmdar	-10.1426
▁özünəməxsus	-10.1429
▁fizika	-10.1429
▁nəzəriyyə	-10.1429
▁nəhəng	-10.1429
iyle	-10.1432
▁ayrılır	-10.1437
▁çizgi	-10.1439
▁kral	-10.1445
▁Qubadlı	-10.1447
▁səviyyədə	-10.145
▁ediyorum	-10.1453
nik	-10.1456
siya	-10.1462
▁Fəxr	-10.1465
▁zengin	-10.1465
▁taxıl	-10.1465
ikən	-10.1472
▁dəyişir	-10.1473
▁sonuç	-10.148
▁ori	-10.1481
▁müzik	-10.1484
▁çoxsaylı	-10.1486
arası	-10.1496
▁kadınlar	-10.1508
▁ortalama	-10.1508
▁sesi	-10.151
lamak	-10.1512
▁gördü	-10.1513
şaq	-10.1514
▁karbon	-10.1515
eyli	-10.1516
▁təpə	-10.1525
▁kuru	-10.1528
▁çəki	-10.1529
▁çatdı	-10.153
üs	-10.1531
▁kişinin	-10.1531
▁Tarixi	-10.1533
ala	-10.1534
▁biliyor	-10.1534
▁Kəlbəcər	-10.1539
▁şərqdə	-10.1539
▁ettik	-10.1544
▁görev	-10.1544
▁düşün	-10.1544
▁tənqid	-10.1546
▁dövrə	-10.155
▁erkə	-10.155
▁tezliklə	-10.156
.000	-10.1561
▁qaya	-10.1572
▁sayesinde	-10.1576
▁Başqa	-10.1576
▁yolunda	-10.1577
əksini	-10.1577
▁qoşunu	-10.1579
▁tabii	-10.1579
▁seçki	-10.1581
▁yanın	-10.1581
▁Pir	-10.1584
▁başladık	-10.1592
▁DNA	-10.1595
▁kimyəvi	-10.1595
atın	-10.1602
▁maddələr	-10.1604
abilirsiniz	-10.161
ed	-10.161
▁ölü	-10.1612
▁1961	-10.1613
▁gedib	-10.1613
▁poçt	-10.1632
▁düşük	-10.1632
▁kapı	-10.1633
▁fərdi	-10.164
▁hoş	-10.164
▁Xüsusi	-10.1645
▁bölgə	-10.1649
▁burda	-10.165
▁müsbət	-10.1651
▁şəhid	-10.1651
▁alimlər	-10.1653
▁çempionu	-10.1655
▁Əmək	-10.1657
▁2008	-10.1658
▁cəhd	-10.1663
▁kəsi	-10.1665
▁dərəcəli	-10.1666
eş	-10.1666
▁roman	-10.167
biri	-10.167
ama	-10.1678
ılması	-10.1685
▁resim	-10.1687
▁hazırlanır	-10.1688
▁1957	-10.1688
▁reklam	-10.1688
ebiliriz	-10.1689
yken	-10.1694
▁etmə	-10.1697
▁Ad	-10.1698
▁xalqı	-10.17
▁başqaları	-10.1701
▁daşıyan	-10.1708
▁1917-	-10.172
▁değiştir	-10.1723
diği	-10.1725
▁münasibəti	-10.1725
▁məsləhət	-10.1726
▁alınan	-10.1732
▁qəzasını	-10.1735
laşma	-10.1737
▁təlim	-10.1737
yoruz	-10.1738
▁ilgi	-10.174
▁yatırım	-10.174
▁Oğuz	-10.1745
▁tıp	-10.1747
▁tibbi	-10.1752
▁metre	-10.1754
▁mütləq	-10.1764
▁İlham	-10.1764
▁azadlıq	-10.1766
▁sar	-10.177
▁fakültəsində	-10.1771
▁ister	-10.1772
▁kalma	-10.1774
▁kara	-10.1778
▁aparır	-10.1781
▁nerede	-10.1784
▁bura	-10.1788
▁bekle	-10.1791
▁Do	-10.1794
▁Xəlil	-10.1794
bəyli	-10.1799
▁günə	-10.1802
▁sor	-10.1807
▁gerekir	-10.1807
▁olursa	-10.1807
▁şehir	-10.181
▁çəkilir	-10.1821
▁gündən	-10.1822
▁Təşkilatı	-10.1824
▁olmasa	-10.1834
▁rəhbər	-10.1837
▁kosm	-10.1838
mın	-10.185
ildi	-10.1853
▁adlandırıla	-10.1859
▁veren	-10.1863
ho	-10.1865
▁dahil	-10.1866
▁Dərbənd	-10.1867
▁çıxmışdı	-10.1872
▁masa	-10.1882
▁günlük	-10.1886
▁yayın	-10.1891
▁1966	-10.1897
▁öyrənilməsi	-10.1897
▁vermişdi	-10.1901
▁göstərdiyi	-10.1902
ük	-10.1903
▁büyüme	-10.1903
▁bol	-10.1908
▁Gül	-10.1911
▁qəzetində	-10.1912
▁Se	-10.1915
▁1963	-10.1916
▁sevgi	-10.1916
▁çözüm	-10.1939
▁çəkir	-10.1939
▁təşkilatı	-10.1941
acağım	-10.1946
▁arxa	-10.1947
yet	-10.1948
ebilecek	-10.1948
ğu	-10.1959
rik	-10.1963
lerimizi	-10.1971
▁düşünme	-10.1972
▁mevcut	-10.1974
▁VII	-10.1974
▁havada	-10.1975
▁tanım	-10.1976
H	-10.1976
▁musunuz	-10.1977
▁önəmli	-10.198
▁yaradıldı	-10.1981
liğin	-10.1985
▁hata	-10.1988
▁vəzifəsini	-10.1989
▁çal	-10.199
▁qabiliyyəti	-10.1993
▁gezegen	-10.1993
▁AMEA	-10.1993
▁qazanmışdır	-10.2006
▁ətəyində	-10.2014
ekson	-10.2014
▁hərəkəti	-10.2019
lığını	-10.2023
▁zərbə	-10.2029
▁ABD	-10.2032
▁gördüm	-10.2035
aş	-10.2041
▁axır	-10.2041
▁konuş	-10.2041
tri	-10.2046
▁yəhudi	-10.2048
▁1956	-10.2051
▁1958	-10.2051
▁yıldır	-10.2052
▁divar	-10.2054
▁əsərini	-10.2058
▁keçirmək	-10.2059
sü	-10.2064
▁vəzifələrində	-10.2066
▁muhteşem	-10.2071
▁Da	-10.2076
▁yanvarın	-10.2083
ümhuriyyəti	-10.2085
▁anlat	-10.209
▁Artı	-10.2094
▁2004	-10.2101
▁əlaqələri	-10.2101
▁devlet	-10.2103
ondon	-10.2103
▁uygulama	-10.2106
▁Sən	-10.2107
▁məktub	-10.2111
şən	-10.2127
▁hündür	-10.2128
▁fotoğraf	-10.213
tık	-10.2132
▁Əhalisi	-10.2134
▁əlaqələr	-10.2135
▁kişilər	-10.2141
liğe	-10.2143
▁Filmdə	-10.2153
▁ehtiyac	-10.2154
▁yedi	-10.2156
▁sərkərdə	-10.2158
▁yaptığım	-10.2158
▁dəyişikliklər	-10.2164
▁aktiv	-10.2167
rilib	-10.2168
ilir	-10.217
▁işləyən	-10.2173
▁orman	-10.2176
▁şöhrət	-10.2179
▁Yay	-10.218
▁təbəqə	-10.2203
şad	-10.2214
urnalist	-10.2217
men	-10.2221
▁tak	-10.2221
▁yarat	-10.2221
▁şəraiti	-10.2225
▁tədbirlər	-10.2225
▁1964	-10.2228
▁olmur	-10.2228
etra	-10.223
▁ilham	-10.2239
▁anlamak	-10.224
▁getdi	-10.2241
▁sırada	-10.2241
▁təyyarə	-10.2244
üxtəlif	-10.2245
▁Ordu	-10.2247
▁gücünü	-10.2248
▁Arif	-10.2249
▁qoşun	-10.2251
▁oğlan	-10.2253
▁gel	-10.2257
▁kalan	-10.2259
▁bilirsiniz	-10.2261
▁yolunun	-10.2263
▁İmperiyası	-10.2267
▁Krım	-10.227
▁biliyorum	-10.227
▁XIII	-10.2274
abil	-10.2278
▁dizi	-10.2278
▁Şair	-10.2288
▁iste	-10.2289
oğlu	-10.2295
▁mənə	-10.2298
larımızı	-10.23
▁danışır	-10.2304
▁əməkdaşlıq	-10.2308
▁çalışırdı	-10.2309
▁Səməd	-10.2309
▁ölümü	-10.2316
▁dünyasını	-10.2317
▁tapmışdı	-10.2318
▁İttifaqını	-10.2324
▁babası	-10.2328
▁müddəti	-10.2339
▁okean	-10.2346
lması	-10.2352
mum	-10.2356
▁kişisel	-10.2357
▁istəyir	-10.2358
▁Qarabağda	-10.2361
▁yasa	-10.2362
▁Suriya	-10.2365
▁1944	-10.2368
▁dərman	-10.2369
▁qoydu	-10.2369
▁sayfa	-10.2369
▁görünüyor	-10.2373
▁çıkan	-10.2374
▁keçirdiyi	-10.2378
▁səhv	-10.2379
▁hektar	-10.2383
▁tayfaları	-10.2384
▁şöbəsini	-10.2386
▁misal	-10.2387
▁tepki	-10.2388
▁demokratik	-10.2388
▁sağlam	-10.2388
▁2018	-10.2389
▁sahələrində	-10.2389
larıyla	-10.2391
▁May	-10.2394
▁dış	-10.2396
▁2006	-10.24
▁redaktor	-10.24
üstü	-10.2401
▁artması	-10.2405
▁Google	-10.2408
▁sev	-10.2417
▁qoyulmuşdu	-10.2418
▁veriyor	-10.242
▁gəlmək	-10.242
▁mayın	-10.2422
▁Muğan	-10.2423
qqəti	-10.2423
müş	-10.2426
▁muzey	-10.2426
▁kullanma	-10.2428
▁qazıntılar	-10.2429
▁başlıyor	-10.2429
20	-10.2432
▁çalışmış	-10.2434
▁İraq	-10.2439
▁komandanı	-10.2447
▁dağı	-10.2448
ğü	-10.2456
bilme	-10.246
▁1937-	-10.246
▁vurdu	-10.2469
▁istisna	-10.2469
▁yukarı	-10.2472
▁Qar	-10.2475
▁bar	-10.2476
▁aşırı	-10.2482
▁özlərini	-10.2483
▁birliyi	-10.2486
nce	-10.2488
▁şirket	-10.249
▁başçılığı	-10.2492
▁kendisi	-10.2499
▁şiddet	-10.2504
▁Almaniyada	-10.251
bil	-10.251
▁deki	-10.2512
▁Braziliya	-10.2514
ski	-10.2521
▁təqvimi	-10.2524
▁Silahl	-10.2525
▁ziyarət	-10.2529
▁yaradıla	-10.2531
▁göstermek	-10.2533
▁xüsus	-10.2533
kret	-10.2538
▁Mehmed	-10.254
▁of	-10.254
▁xalqını	-10.2544
▁yolunu	-10.2544
▁bə	-10.2545
▁nümayəndə	-10.2547
aka	-10.2547
sen	-10.2547
▁duz	-10.2547
if	-10.2547
ste	-10.2549
▁həlli	-10.2551
▁program	-10.2554
▁verdim	-10.2555
uş	-10.2556
▁kendimi	-10.2556
▁Mariya	-10.2557
▁İngilis	-10.2558
diğini	-10.2568
diğim	-10.2569
▁əhəmiyyəti	-10.257
▁satın	-10.2579
▁etdirmək	-10.2581
▁inqilab	-10.2583
▁Televiziya	-10.2583
▁oynamışdı	-10.2586
▁tanı	-10.2588
▁Ho	-10.2589
▁1921	-10.2589
sunu	-10.2591
▁genetik	-10.2592
▁2010	-10.2604
▁yağı	-10.2604
▁bulmak	-10.2609
▁bildi	-10.2627
▁ermənilərin	-10.2628
▁diqqəti	-10.263
▁Norveç	-10.2633
▁Kaliforniya	-10.2633
mıyor	-10.2634
▁romanı	-10.2637
kən	-10.2638
▁günde	-10.2643
▁köməkçi	-10.2645
▁araç	-10.2648
▁bit	-10.2649
▁Murad	-10.2657
▁ailələr	-10.2657
ək	-10.2657
▁doğum	-10.2662
▁qoymuşdu	-10.2669
liklə	-10.2674
▁üzündə	-10.2674
▁beyaz	-10.2675
▁emin	-10.2679
▁xalqların	-10.2681
▁Asiyada	-10.2681
▁aldım	-10.2684
▁uc	-10.2685
▁cəmiyyət	-10.2687
▁ucuz	-10.2691
▁tərzi	-10.2693
▁bil	-10.2696
▁başı	-10.2696
▁bayram	-10.2701
▁yağış	-10.2701
▁məsafə	-10.2704
▁öğrenme	-10.271
▁budur	-10.2714
leşme	-10.2715
▁biləcək	-10.2716
▁monqol	-10.2716
▁Nəh	-10.2716
▁XV	-10.2717
▁kitap	-10.272
▁sonsuz	-10.2722
▁Tam	-10.2724
▁qapı	-10.2728
▁mərhələsində	-10.2729
▁namizəd	-10.2731
▁rəngi	-10.2735
▁aracı	-10.2736
▁istəyirdi	-10.2737
▁Qaradağ	-10.2738
▁olmadı	-10.275
▁dönüş	-10.275
▁dekabrın	-10.2755
▁fikrini	-10.2762
▁sinif	-10.2766
▁düzen	-10.2768
▁Rüstəm	-10.2772
▁müzakirə	-10.2772
▁Demokrati	-10.2773
ebilirsiniz	-10.2773
birində	-10.2774
▁Anadolu	-10.2778
▁tədric	-10.2778
▁çıxara	-10.2779
▁çıxması	-10.278
▁məkan	-10.278
▁mühafizə	-10.2781
▁indiyə	-10.2782
▁yerlerde	-10.2786
▁tarafta	-10.279
▁olsaydı	-10.2793
▁bulaq	-10.2794
▁çalışıyor	-10.2795
▁müxbir	-10.2799
▁yetirmiş	-10.2799
tım	-10.2803
▁olmuşlar	-10.2804
urnal	-10.2806
▁heyecan	-10.2809
▁peşəkar	-10.2809
▁vahidi	-10.281
▁müəssisələri	-10.2815
▁kanıt	-10.2819
▁əvəzin	-10.2821
▁başlandı	-10.2826
sey	-10.2833
▁vaxtlar	-10.2835
▁arvadı	-10.2836
▁Pakistan	-10.2841
▁fəlsəf	-10.2845
▁müəssisəsi	-10.2849
raf	-10.2851
▁göstərdi	-10.2859
▁imperiyası	-10.2859
▁dəyişdiril	-10.286
▁ardıcıl	-10.286
▁məsələlər	-10.2861
▁insanlarla	-10.2861
▁1950-	-10.2864
▁hüquqi	-10.2871
eynal	-10.2871
▁dostu	-10.2875
▁döyüşlərdə	-10.2879
▁Müzik	-10.2884
▁Tovuz	-10.2884
əri	-10.2884
▁ibtidai	-10.2886
▁anlayışı	-10.2886
▁xəstə	-10.2894
▁kas	-10.2901
▁1949	-10.2905
▁1954	-10.2905
▁1962	-10.2905
▁məişət	-10.2905
▁tayfası	-10.2907
ılır	-10.2909
▁mövsümündə	-10.2915
▁paytaxt	-10.2917
▁aktrisa	-10.2918
▁fiziksel	-10.2927
▁oluşan	-10.2928
▁tikintisi	-10.2931
▁dəstək	-10.2933
▁yaradıcı	-10.2934
▁medal	-10.2945
▁sürəti	-10.2946
▁yemək	-10.2948
▁manat	-10.2948
▁Sen	-10.2954
eceğim	-10.2956
mıza	-10.2957
▁terrorçuları	-10.296
▁başlamışdı	-10.2963
▁Elm	-10.2973
▁iz	-10.2975
▁qoyun	-10.2975
acağız	-10.2985
▁ixtisası	-10.2987
▁bulağı	-10.2991
▁rayonlarında	-10.2995
▁Rayonun	-10.2997
▁əkin	-10.3003
▁başlama	-10.3007
ürü	-10.3009
▁ssenari	-10.301
▁bənzər	-10.301
▁çatmışdı	-10.3013
F	-10.3013
▁məlumatın	-10.3015
▁nəticələri	-10.3015
▁apardığı	-10.3018
▁aşıq	-10.3019
mişti	-10.3019
kları	-10.3035
met	-10.3035
▁hissi	-10.3036
▁As	-10.304
▁yapar	-10.3045
▁gəmi	-10.3049
▁təşəbbüsü	-10.3052
▁İcra	-10.3054
▁köçüb	-10.3054
▁abidəsi	-10.3056
▁keçid	-10.3057
▁sayıda	-10.3057
▁Təbrizdə	-10.306
▁uça	-10.306
for	-10.306
▁qəhrəman	-10.3061
▁tartışma	-10.3061
▁əri	-10.3063
▁olunduğu	-10.3064
▁uçuş	-10.3066
▁TV	-10.3069
rneğin	-10.3075
▁medya	-10.3076
▁tarz	-10.3078
▁Tiflisdə	-10.308
▁söylemek	-10.3081
▁uğurla	-10.3083
▁diyor	-10.3085
▁minlərlə	-10.3089
▁paşa	-10.3091
▁hamı	-10.3091
▁10-	-10.3095
▁ruslar	-10.3097
▁33	-10.3097
▁evində	-10.3098
▁herkesin	-10.31
vənd	-10.3101
▁halında	-10.3108
▁ölkəsi	-10.3109
▁filmlərini	-10.311
üt	-10.311
▁makine	-10.3112
▁bazıları	-10.3113
▁ümum	-10.3114
▁siyahıya	-10.3114
▁36	-10.3117
▁zamanında	-10.3119
▁BMT	-10.3119
▁zaten	-10.3119
▁Həyat	-10.312
est	-10.3121
▁görmək	-10.3124
▁sözündən	-10.3125
▁rəssamı	-10.3125
mıştı	-10.3127
▁dinc	-10.3128
▁verə	-10.313
▁bildirdi	-10.3134
▁qalasını	-10.3135
▁koruma	-10.3138
▁Qazaxıstan	-10.3141
▁katı	-10.3141
▁Birleşi	-10.3143
▁Onları	-10.3143
vari	-10.3144
▁vəzifə	-10.3154
▁sülaləsi	-10.3154
▁Artık	-10.3155
cək	-10.3157
▁2007	-10.3158
▁qəsəbəsi	-10.3159
▁Ku	-10.3162
▁alın	-10.3163
▁mənfi	-10.3165
▁sakini	-10.3166
▁xırda	-10.3166
▁sağlıyor	-10.3169
▁yaşıl	-10.3169
▁çift	-10.317
liyə	-10.3172
▁1943	-10.3177
▁qa	-10.3179
var	-10.3184
▁parçaları	-10.3184
▁məhəbbət	-10.3186
ysa	-10.3189
▁Silah	-10.3189
av	-10.3192
almağa	-10.3201
▁istiqamət	-10.3203
▁çıxardı	-10.3203
▁Pənah	-10.3206
▁Gəncədə	-10.3217
▁2017-	-10.3218
od	-10.3219
▁algı	-10.3221
▁şeirlər	-10.323
▁münasibətlər	-10.324
▁Dünyada	-10.325
▁aprelin	-10.325
▁7-	-10.3258
▁kanalı	-10.3264
▁2005	-10.3267
▁keçirildi	-10.3268
▁müqavimət	-10.3268
▁element	-10.3271
İ	-10.3271
▁fakir	-10.3273
▁saxlamaq	-10.3274
▁fırsat	-10.3276
▁antik	-10.328
raya	-10.3288
▁yolda	-10.3288
▁6-	-10.3289
▁əsaslana	-10.3291
▁Mar	-10.3292
▁feodal	-10.3294
▁xahiş	-10.3294
▁doktor	-10.3295
▁şarkı	-10.3295
▁hadisələri	-10.3297
▁çocukların	-10.3301
▁cəmiyyəti	-10.3303
▁mövzu	-10.3306
▁aç	-10.3308
▁dəstələri	-10.3311
▁tipi	-10.3316
▁tutulur	-10.3317
▁Əsgər	-10.3321
▁layihəsi	-10.3324
▁Qasım	-10.3333
▁materiallar	-10.3334
nızda	-10.3336
▁qalıb	-10.3338
▁henüz	-10.3339
▁mücadele	-10.3339
▁park	-10.3341
ova	-10.3343
▁bilirdi	-10.3348
▁üzüm	-10.335
▁gider	-10.335
▁şeylerden	-10.3358
▁noktada	-10.3359
▁1987-	-10.336
▁Maykl	-10.336
▁belli	-10.3366
▁arzu	-10.3366
▁bölgəsi	-10.3367
▁yeterli	-10.3368
▁məsələsi	-10.3369
▁Müharibə	-10.3378
▁nedeni	-10.3379
▁1939	-10.3383
▁üzə	-10.3385
▁nun	-10.3388
▁açılır	-10.3391
▁bakar	-10.3398
əvi	-10.34
▁kompleks	-10.3401
▁oxşar	-10.3402
▁Midiya	-10.3405
▁uç	-10.3405
▁sürdü	-10.3413
▁qısam	-10.3414
▁məktəbləri	-10.3417
▁arka	-10.3421
▁qrupunu	-10.3423
▁öldürüldü	-10.3424
▁harita	-10.3426
▁karakter	-10.3427
▁Herkes	-10.3427
▁azından	-10.3428
rmiya	-10.3428
qərb	-10.3429
▁1975-	-10.3429
co	-10.3429
go	-10.343
▁bitkilər	-10.3433
▁işləmiş	-10.3434
fer	-10.3435
lerdi	-10.3439
▁pazar	-10.344
▁temiz	-10.3442
▁kod	-10.3444
▁olmağ	-10.3447
▁Hazır	-10.3452
▁Man	-10.3457
▁kanser	-10.3463
land	-10.3464
▁təmir	-10.3472
▁turizm	-10.3472
ber	-10.3478
▁baskı	-10.348
▁hakimiyyətini	-10.3482
▁sözlərindən	-10.3488
▁kodu	-10.3491
▁albom	-10.3492
▁kurtar	-10.3493
▁Keçmiş	-10.3494
▁bakalım	-10.3495
▁gelip	-10.3496
▁aralı	-10.35
▁olmasının	-10.3501
rat	-10.3502
▁cərəyan	-10.3504
▁sınır	-10.3506
▁silsiləsini	-10.3508
▁bağı	-10.3511
▁istedad	-10.3516
▁tarixini	-10.3516
▁sabah	-10.3517
▁Salyan	-10.3519
anlı	-10.3522
▁düşmüşdü	-10.3523
▁mənbəyi	-10.3527
gün	-10.3532
▁XII	-10.3535
▁edər	-10.3535
▁əsgər	-10.3538
▁ufak	-10.354
▁sentyabrın	-10.3541
▁Stalin	-10.3542
▁sınıf	-10.3547
▁nəzəri	-10.3548
▁ərazisini	-10.3555
▁heyətində	-10.3555
▁maarif	-10.356
▁Futbol	-10.3562
▁hastalık	-10.3563
▁yapacak	-10.3567
▁Qafqazı	-10.3568
▁Bil	-10.3577
▁pedaqo	-10.3582
ımı	-10.3582
▁yaradılı	-10.359
▁ışığı	-10.3597
▁oğlunu	-10.3604
▁müharibədə	-10.3606
▁ısı	-10.3606
▁mikro	-10.3607
▁temsil	-10.3608
▁şərh	-10.3612
▁Tək	-10.3612
▁Bay	-10.3624
▁məğlubiyyət	-10.3624
th	-10.3629
▁piyada	-10.363
▁görsel	-10.3632
▁Top	-10.3639
▁münasibətləri	-10.3641
iyet	-10.3645
▁Abdulla	-10.365
▁tutub	-10.3653
▁derecede	-10.3662
▁tələbələr	-10.3664
▁Qəhrəmanı	-10.3669
▁gerektiği	-10.3671
▁məsafədə	-10.3673
▁yıllık	-10.3675
▁rütbəsi	-10.3675
çüncü	-10.3676
▁görüşü	-10.3677
▁ətrafı	-10.3679
▁15-	-10.3679
duk	-10.368
miyor	-10.3682
▁xəstəlik	-10.3682
▁zərər	-10.3685
▁Neftçi	-10.3687
▁mənbələr	-10.3691
▁öğret	-10.3692
▁kitabın	-10.3695
▁Şərqdə	-10.3695
▁tutulmuş	-10.3705
▁səyahət	-10.3706
▁İstanbulda	-10.3712
mizin	-10.3714
▁üstünde	-10.3717
▁qoyur	-10.3717
▁başlar	-10.3719
▁ihtiyacı	-10.372
▁1979-	-10.3723
▁Pro	-10.3731
▁keçib	-10.3737
▁oyunları	-10.3737
▁qadağan	-10.3738
▁and	-10.3738
▁riyaziyyat	-10.3743
▁nəqliyyat	-10.3743
▁noyabrın	-10.3743
▁Mənim	-10.3745
▁Novruz	-10.3745
▁birləşmələri	-10.3747
▁kaynak	-10.3748
▁olun	-10.3749
▁tutmuşdu	-10.3749
▁Mesel	-10.3749
▁XI	-10.3753
▁politika	-10.3756
▁pay	-10.3758
▁xarakter	-10.376
urnalı	-10.3764
▁həcmi	-10.3768
tro	-10.3778
▁oktyabrın	-10.3779
▁sün	-10.3783
▁Məclisi	-10.3784
▁dillərini	-10.3787
tal	-10.3788
▁rəqəm	-10.3788
▁Pedaqo	-10.3791
▁Davud	-10.3791
▁qazanıb	-10.3792
ndeki	-10.3793
məyə	-10.3795
namə	-10.3798
▁deyilən	-10.3801
▁gətirən	-10.3801
çisi	-10.3803
▁yapabilir	-10.3808
▁kərpic	-10.3814
▁mükəmməl	-10.3815
▁Kuzey	-10.3815
▁mil	-10.382
▁kalp	-10.3823
vər	-10.3828
▁Fransada	-10.3828
▁deneme	-10.3829
▁əraziləri	-10.3832
▁it	-10.3832
▁rayonları	-10.3834
▁çıkıyor	-10.3835
▁Meksika	-10.3838
▁texnika	-10.3838
▁istəyən	-10.3843
▁etkileşim	-10.3844
▁duy	-10.3845
▁beynin	-10.3846
▁yiyecek	-10.3847
▁teatrı	-10.3847
▁yerinde	-10.3849
▁analiz	-10.3849
▁nöqtəsi	-10.3849
▁1946-	-10.3851
▁Məlik	-10.3852
▁keyfiyyət	-10.3856
lıyor	-10.3856
▁biçimde	-10.3866
▁işğalı	-10.3866
▁statusu	-10.3875
▁1965-	-10.388
▁mülayim	-10.3884
▁eramız	-10.3885
tür	-10.3889
▁Bazı	-10.3891
▁Bax	-10.3894
dılar	-10.3895
▁art	-10.3896
▁1941-	-10.3898
▁oğulları	-10.3898
▁8-	-10.3899
ebiliyor	-10.39
▁dəri	-10.3901
▁bacısı	-10.3908
▁1982-	-10.3908
▁nömrə	-10.3909
▁radio	-10.391
inki	-10.391
▁sərf	-10.3912
▁birləşdirən	-10.3914
▁oldukları	-10.392
▁temperaturu	-10.3922
▁obrazı	-10.3926
▁örneğin	-10.3927
▁Gün	-10.3928
▁Radio	-10.3931
▁1986-	-10.3934
▁içki	-10.3938
▁sanırım	-10.3939
▁ml	-10.3939
▁çayları	-10.394
▁sənətkar	-10.3943
▁sürətli	-10.3943
▁sənətini	-10.3948
▁davamlı	-10.3949
▁istər	-10.395
▁Hind	-10.3951
adi	-10.3952
▁kutu	-10.3954
▁proses	-10.3957
▁Əsli	-10.3958
▁der	-10.3959
▁şəbəkə	-10.396
▁Məcnun	-10.3961
▁yazar	-10.3966
▁yaradıcılığında	-10.3972
▁atmosfer	-10.3973
▁38	-10.3974
▁Qriqori	-10.3974
▁təzyiq	-10.3974
ldu	-10.3975
▁Səid	-10.3979
▁iklim	-10.3979
▁futbolçu	-10.3986
▁martın	-10.3986
▁Demə	-10.3987
▁çevir	-10.3993
▁tanesi	-10.3995
▁quberniyası	-10.3995
▁olmaları	-10.3996
▁9-	-10.3997
▁Tərtər	-10.4002
ıyoruz	-10.4004
▁düzəli	-10.4005
▁Onlarda	-10.4005
▁okyanus	-10.4005
▁yeraltı	-10.4005
▁kafedrası	-10.4006
▁erkekler	-10.4008
▁heyətini	-10.4019
▁nəsli	-10.4021
▁1936	-10.4026
▁içi	-10.4028
▁Qız	-10.4029
▁iqlimi	-10.403
kten	-10.4039
▁ülkeler	-10.404
▁bilme	-10.4042
▁Qanun	-10.4047
▁XIV	-10.4049
▁qurmuşdu	-10.405
▁istədi	-10.4053
dağ	-10.4054
▁irsi	-10.4057
▁yuxarıda	-10.4058
▁gittim	-10.4067
▁çatan	-10.4068
▁Şirvanşah	-10.4072
▁adamın	-10.4077
▁filologiya	-10.4079
▁işlənmiş	-10.408
▁qayıdır	-10.4082
▁adaları	-10.4083
▁Gədəbəy	-10.4085
▁Kərimov	-10.4092
lenme	-10.4094
▁sığorta	-10.4098
▁növbədə	-10.4099
▁işarə	-10.41
▁keçirən	-10.4104
▁kaldır	-10.4109
▁alındı	-10.4109
▁əksinə	-10.411
▁mağara	-10.4111
▁ol	-10.4117
▁gündə	-10.4117
▁dolaş	-10.4119
▁Xorasan	-10.4121
aqatala	-10.4121
▁möhtəşəm	-10.4121
kləri	-10.4121
▁tutmuş	-10.4122
▁kralı	-10.4123
▁şahzadə	-10.4125
▁Mil	-10.4128
▁dişi	-10.4141
▁Xosrov	-10.4141
▁günah	-10.4141
ışı	-10.4142
▁Daxil	-10.4145
▁yeşil	-10.4145
▁icin	-10.4149
anırım	-10.4149
▁yerel	-10.415
▁payı	-10.4153
▁marka	-10.4154
▁köç	-10.4155
▁türklər	-10.4159
▁əməl	-10.4161
V	-10.4164
▁yaşama	-10.4164
▁öldü	-10.4165
▁buradaki	-10.4168
▁yüngül	-10.4169
▁Nasıl	-10.4172
▁düşmüş	-10.4174
▁mahnıları	-10.418
ğın	-10.4188
▁xaric	-10.419
▁buradan	-10.4191
▁terror	-10.4192
▁əsgərləri	-10.4193
▁plastik	-10.4193
▁ediyoruz	-10.4199
▁komitəsi	-10.4202
▁adət	-10.4202
▁maldarlıq	-10.4203
▁olduklarını	-10.4203
lənmiş	-10.4204
▁1940-	-10.421
▁gənclər	-10.4212
▁Aralı	-10.4212
▁1983-	-10.4216
▁Kitab	-10.4217
▁1942	-10.4217
▁75	-10.422
▁yapıyoruz	-10.4223
▁həcm	-10.4224
▁yaratmak	-10.423
ingiz	-10.4235
▁təchiz	-10.4241
boy	-10.4244
▁sona	-10.4244
▁Dağıstan	-10.4246
▁qoşunlarını	-10.4246
▁halde	-10.4246
▁hökm	-10.4247
lduz	-10.4255
▁kişiler	-10.426
▁çiçək	-10.4262
▁Bar	-10.4264
▁boru	-10.4266
▁Ağqoyunlu	-10.4266
▁konusu	-10.4269
▁mərasimi	-10.4269
▁nəql	-10.4273
mızda	-10.4275
▁Bill	-10.428
▁Dan	-10.4281
▁Məclisin	-10.4281
▁xəstəliyi	-10.4281
▁standart	-10.4282
▁bayramı	-10.4283
▁peyğəmbər	-10.4285
▁cəbhə	-10.4288
▁mahalı	-10.4289
▁Ankara	-10.429
▁Əfəndiyev	-10.4291
▁məni	-10.4291
▁ilaç	-10.4293
▁takım	-10.4295
▁abidələr	-10.4299
▁atasını	-10.4301
▁Vəli	-10.4302
▁məskunlaşması	-10.4302
▁emalı	-10.4304
▁dön	-10.4304
▁yerlərində	-10.4305
▁razı	-10.4309
▁Mə	-10.4312
▁saldı	-10.4316
▁etkili	-10.432
mize	-10.4321
▁şekli	-10.4324
nuz	-10.4328
▁bilərdi	-10.4328
▁kinostudiyasın	-10.433
eyi	-10.4334
▁Gənclər	-10.4336
▁yazdı	-10.4337
▁numara	-10.4339
▁Hacıyev	-10.4342
▁zarar	-10.4348
rədd	-10.4349
▁vilayət	-10.4356
▁materialları	-10.4367
▁Batı	-10.4368
▁hadisələrin	-10.4371
lkədə	-10.4371
▁yalan	-10.4381
▁qəhrəmanı	-10.4386
▁dışı	-10.4395
ğe	-10.44
ili	-10.4405
▁xalqlarının	-10.4407
▁1953	-10.4407
▁günün	-10.4408
▁Kim	-10.4409
▁sahne	-10.4415
şe	-10.4417
lıqla	-10.4418
▁adası	-10.4419
əlinə	-10.4419
▁təhlükə	-10.4421
▁istedim	-10.4426
▁etmir	-10.4426
▁duvar	-10.4427
▁İşlər	-10.4429
▁fəhlə	-10.4429
çılar	-10.4431
▁19-	-10.4432
▁diplomati	-10.4433
▁Karl	-10.4437
▁milyonlarca	-10.4438
▁qardaşları	-10.4441
▁adlandırılır	-10.4441
▁Şahzadə	-10.4443
abiliyor	-10.4447
▁inan	-10.4447
▁azı	-10.4451
lim	-10.4455
lkəni	-10.4455
▁EA	-10.4459
yordu	-10.446
▁fasilə	-10.4462
əngəzur	-10.4462
yiz	-10.4464
ahangir	-10.4467
▁engel	-10.4467
▁istiqamətdə	-10.4469
cağı	-10.447
cıl	-10.4473
▁anlamda	-10.4474
▁şəraitində	-10.4478
▁edebilir	-10.4484
imin	-10.4487
▁gördüğümüz	-10.4487
▁Hatta	-10.4488
▁hayır	-10.4488
▁tanrı	-10.4492
▁heyvanlar	-10.4494
▁gösteren	-10.4498
▁yazmış	-10.4501
▁müstəqilliyini	-10.4505
▁amacı	-10.4506
▁yaptıkları	-10.4507
şan	-10.4508
▁1923	-10.4512
▁həmsərhəd	-10.4512
▁1955	-10.4512
▁tədqiqi	-10.4515
▁həyatın	-10.4516
▁olacaktır	-10.4517
▁sonucu	-10.452
▁yayılması	-10.452
və	-10.4521
▁yollar	-10.4524
▁işler	-10.4525
▁ənənələri	-10.4531
imizin	-10.4535
▁filmin	-10.4536
▁etkisi	-10.4537
▁planet	-10.4537
▁Tehran	-10.454
▁saxlaya	-10.4544
▁qrupun	-10.4545
▁sistemini	-10.4545
▁gətirdi	-10.4556
▁yıllar	-10.4557
▁sinfi	-10.456
▁modern	-10.4562
▁şaşırtıcı	-10.4562
▁kaynağı	-10.4562
▁Azərbaycanı	-10.4563
▁hak	-10.4566
▁maşın	-10.4567
ris	-10.457
▁çayın	-10.4571
▁şeylerin	-10.4579
▁saniye	-10.4582
▁VI	-10.4583
▁Bi	-10.4585
▁kay	-10.4585
çə	-10.4586
▁üstü	-10.4586
▁Qaraqoyunlu	-10.4587
▁kendine	-10.4589
▁1973-	-10.4589
▁Daş	-10.459
▁Nərimanov	-10.4591
ğimiz	-10.4597
▁Ələkbər	-10.4599
▁çeşitli	-10.4599
▁ərazini	-10.46
▁məscidin	-10.4606
▁İdarəsi	-10.4612
▁Heyəti	-10.4612
▁mütəxəssis	-10.4614
mızın	-10.4618
yorlar	-10.462
▁evrim	-10.4622
▁bitirmiş	-10.4623
▁Hadi	-10.4625
▁məskunlaşmış	-10.4625
▁xanlığını	-10.4628
▁istifadəsi	-10.4629
▁Şuşada	-10.463
teki	-10.4632
▁problemlər	-10.4635
▁evdə	-10.4636
▁zəruri	-10.4637
▁İctimai	-10.4637
▁ora	-10.4637
▁hik	-10.4638
▁qablar	-10.4642
▁ruhu	-10.4644
▁ərazilər	-10.4648
▁Macarıstan	-10.4648
▁getdik	-10.4652
▁Teatrı	-10.4659
▁mövzusu	-10.4659
▁təqib	-10.4662
▁ümid	-10.4663
▁Sü	-10.4669
süz	-10.467
▁bel	-10.4681
▁almaya	-10.4682
▁hekayə	-10.4684
▁salınmış	-10.4685
şar	-10.4687
▁xətt	-10.4687
▁Müdafiə	-10.4688
▁şeirləri	-10.469
▁göl	-10.4691
▁cənubunda	-10.4692
▁sistemin	-10.4693
▁Berlin	-10.4693
▁nəzarəti	-10.4695
▁qiymət	-10.4698
dikleri	-10.4699
əni	-10.4699
▁döyüşü	-10.4705
edi	-10.4709
▁idarəsi	-10.4709
▁Böyle	-10.4711
▁Adam	-10.4712
▁göstərib	-10.4713
▁sədr	-10.4716
ster	-10.4721
▁qorunması	-10.4727
▁mədrəsə	-10.4727
▁tur	-10.473
▁prinsipi	-10.4732
▁məntəqəsini	-10.4736
▁kendilerini	-10.4736
▁1985-	-10.4738
▁Video	-10.4739
▁robot	-10.474
sıyla	-10.474
▁cep	-10.4741
▁the	-10.4742
▁türbəsi	-10.4743
▁işlərini	-10.4744
▁inşaat	-10.4744
▁biliyorsunuz	-10.4744
X	-10.4744
▁saf	-10.4749
▁geliştir	-10.4749
▁istəyi	-10.4749
▁qonaq	-10.475
▁Qurbanov	-10.4752
▁şa	-10.4753
▁ittifaq	-10.4754
▁gəlmə	-10.4759
▁adlandırırlar	-10.4759
▁etdiyini	-10.476
▁yadda	-10.4761
▁götürür	-10.4764
▁Birkaç	-10.4764
▁Abdullayev	-10.4765
▁institut	-10.4766
▁tədqiqatçılar	-10.4767
▁müstəqillik	-10.477
▁İnsanların	-10.4771
▁sağlayan	-10.4778
rəm	-10.4779
▁xəstəxana	-10.478
▁qüvvəsi	-10.4781
▁geçir	-10.4783
▁yüzünden	-10.479
▁müvə	-10.4791
▁açısından	-10.4792
▁görüb	-10.4795
▁bölgədə	-10.4806
▁şərti	-10.4807
▁600	-10.4809
əmiyyəti	-10.481
vasitə	-10.481
▁xüsusiyyəti	-10.4817
▁götürdü	-10.482
▁aparılması	-10.4822
▁insana	-10.4827
▁torpaqlar	-10.4827
▁formalı	-10.4828
▁Yüz	-10.4836
▁IX	-10.4844
▁hizmet	-10.4847
▁iştirakçısı	-10.4849
▁Aslan	-10.4857
▁bilərlər	-10.4862
▁layihə	-10.4862
▁bölgələrində	-10.4863
▁VIII	-10.4867
▁balığı	-10.4868
▁tar	-10.4875
▁kor	-10.4875
▁düşüncə	-10.4875
▁qüvvələr	-10.4875
▁addım	-10.4878
▁sahili	-10.4878
▁təzyiqi	-10.4879
▁mövqeyi	-10.4881
perator	-10.4882
▁saç	-10.4886
▁Kommunist	-10.4893
▁fəth	-10.4893
▁bulma	-10.4901
▁Amerikada	-10.4906
▁gelme	-10.4908
▁türkləri	-10.4908
▁rolları	-10.491
▁xaricdə	-10.491
▁tapılmış	-10.4911
▁çalışmak	-10.4917
▁Bəyazid	-10.4918
▁gəldiyi	-10.492
▁özəl	-10.492
▁kq	-10.4921
▁sahillərində	-10.4922
▁uşaqları	-10.4924
əslim	-10.4924
▁xarakterik	-10.4925
mayan	-10.4927
▁qəsəbəsində	-10.4929
▁teşekkürler	-10.4931
▁etdirdi	-10.4932
kleri	-10.4934
▁1922	-10.4937
▁Ey	-10.4939
▁oldum	-10.4941
▁Bağırov	-10.4948
▁Fars	-10.4948
▁Kamal	-10.4949
▁önünde	-10.495
açmaz	-10.4955
▁Van	-10.4962
▁rabitə	-10.4963
▁oray	-10.4967
▁iyunun	-10.4968
▁Kur	-10.4969
▁mədəniyyətini	-10.4969
▁geyim	-10.497
,000	-10.4971
▁latın	-10.4975
▁söylüyor	-10.4976
▁qalanın	-10.4977
▁Talış	-10.4979
▁Adı	-10.4981
▁şimalında	-10.4982
▁gəlin	-10.4983
▁toplam	-10.4986
▁ilində	-10.4986
▁nəsil	-10.4989
laşır	-10.4994
▁Sara	-10.4996
▁Fondun	-10.4997
▁memar	-10.4998
▁idarəetmə	-10.4998
▁Tek	-10.4999
▁David	-10.4999
gar	-10.5006
▁gözlem	-10.5008
▁mane	-10.5009
▁biyo	-10.5012
▁Yardım	-10.5023
▁laboratuvar	-10.5023
▁Robert	-10.5023
▁kırmızı	-10.5023
▁ulaş	-10.5025
▁söyley	-10.503
xana	-10.503
▁süreci	-10.503
▁merkez	-10.503
işi	-10.5031
▁stansiyası	-10.5032
▁başladığı	-10.5032
▁ateş	-10.5032
▁Nikolay	-10.5034
▁seçili	-10.5037
▁göstərə	-10.504
▁sahələrdə	-10.5043
▁ayaq	-10.5046
▁çöz	-10.5046
metr	-10.5047
▁yaratıcı	-10.5048
eyim	-10.5048
▁Təbii	-10.5049
▁mesela	-10.5049
▁Messi	-10.5049
imizi	-10.505
▁araşdırmalar	-10.5053
▁hücumu	-10.5059
▁okuma	-10.5067
▁əməyi	-10.5075
▁Finlandiya	-10.5075
▁ispan	-10.5075
▁Bəy	-10.5077
▁istilik	-10.5078
iniz	-10.508
▁eli	-10.5082
iliyor	-10.5082
▁aralarında	-10.5082
▁Avstraliya	-10.5083
lanıyor	-10.5084
▁görmə	-10.5085
▁üniversite	-10.5089
▁gül	-10.509
▁doğulmuşdu	-10.5091
▁Dil	-10.5095
▁dildə	-10.5095
▁səth	-10.5097
taki	-10.5097
▁Sol	-10.5097
▁yarandı	-10.5098
▁cins	-10.5101
▁1934	-10.5102
▁narahat	-10.5102
▁göstərilə	-10.5102
▁surəsi	-10.5102
▁Goran	-10.5103
▁xas	-10.5103
▁görün	-10.5104
▁fevralın	-10.5109
▁təsəvvür	-10.5111
▁balık	-10.5116
▁müsabiqədə	-10.5122
▁mövqe	-10.5122
▁olmasıdır	-10.5122
▁fikirlər	-10.5123
▁paylaş	-10.5126
acağı	-10.5127
▁İdman	-10.5128
▁axşam	-10.5128
qal	-10.513
▁Po	-10.5133
▁vətən	-10.5143
▁dərk	-10.5145
▁Quru	-10.5148
mizde	-10.5149
▁qəzetini	-10.5149
▁lideri	-10.5151
▁olduğunda	-10.5153
▁sal	-10.5155
ımda	-10.516
▁işçisi	-10.516
▁məbədi	-10.5165
▁1933-	-10.5166
▁məşqçi	-10.5166
▁yöntem	-10.5167
siyle	-10.5169
▁araşdırma	-10.517
▁sıradan	-10.517
▁alimləri	-10.517
▁İyi	-10.5172
▁mülki	-10.5178
▁uydu	-10.5178
ep	-10.518
▁Ağayev	-10.5183
sta	-10.5187
meyen	-10.5192
▁ürün	-10.5194
avid	-10.5195
▁türklərin	-10.5196
▁Qasımov	-10.5197
▁seçildi	-10.5201
▁yön	-10.5202
▁sap	-10.5203
▁Müsəlman	-10.5204
▁şahı	-10.5207
▁Ssenari	-10.5208
▁ibadət	-10.5208
▁binalar	-10.5212
▁yazılar	-10.5214
▁klubun	-10.5215
▁seçilə	-10.5217
▁qoyulmuş	-10.5222
masını	-10.523
▁sistemləri	-10.5233
▁istənil	-10.5235
▁teknik	-10.5239
▁Doğu	-10.5239
▁2002	-10.5241
bədi	-10.5253
▁beceri	-10.5253
▁Bayram	-10.5254
▁şam	-10.5258
▁sözlə	-10.5259
▁tercih	-10.5262
▁Sənaye	-10.5262
▁Babayev	-10.5262
▁şəhərlərində	-10.5263
▁işlem	-10.5266
▁mərkəzləri	-10.5268
diler	-10.527
▁esas	-10.5273
▁aldık	-10.5273
▁merkezi	-10.5278
▁yarış	-10.5285
▁anı	-10.5285
▁rəngdə	-10.5287
duğu	-10.5287
▁yerlər	-10.5288
▁değilim	-10.5289
▁Kal	-10.5289
▁Azər	-10.529
▁verdik	-10.5303
▁daşları	-10.5303
lenmiş	-10.5304
aba	-10.5312
▁içindeki	-10.5313
▁çıxarır	-10.5314
üm	-10.5314
▁Əziz	-10.5315
▁dağlar	-10.5317
▁çaba	-10.5319
▁Sarı	-10.532
▁ağacı	-10.5322
▁peşə	-10.533
▁namaz	-10.5332
mez	-10.5337
dünya	-10.5339
▁yayım	-10.5341
▁Göyçay	-10.5343
▁tüstü	-10.5343
▁oyna	-10.5345
▁istiyoruz	-10.5345
▁diş	-10.5345
eceğiz	-10.5351
▁Qurban	-10.5355
▁belir	-10.5363
8-	-10.537
▁Şirvanşahlar	-10.5371
▁42	-10.5377
▁amaç	-10.5377
▁körpü	-10.5378
▁dağını	-10.5379
▁bilmiyor	-10.5381
▁dövlətlər	-10.5381
▁şəxslərin	-10.539
▁cinayət	-10.5391
▁uca	-10.5392
▁yoksa	-10.5397
▁1932	-10.5397
▁aparmaq	-10.5397
▁Yəhya	-10.5397
▁durma	-10.5397
▁Əsər	-10.5398
▁göstereceğim	-10.5399
▁Azad	-10.54
▁dənizin	-10.5403
6-	-10.5405
▁Mark	-10.5408
▁tərcüməçi	-10.5408
▁Yol	-10.5408
ılan	-10.5416
▁mədə	-10.5422
▁məzmun	-10.5423
▁Qu	-10.5423
▁Sosialist	-10.5424
▁ocağı	-10.5425
▁yazıları	-10.5425
▁avqustun	-10.5425
▁dəyiş	-10.5427
▁qoyulur	-10.543
▁Oyun	-10.5435
▁cild	-10.5438
▁qoruyu	-10.5443
▁Qarabağı	-10.5443
▁Partiyasını	-10.5446
▁1926	-10.5451
▁1925	-10.5452
▁səciyyəvi	-10.5452
▁könüllü	-10.5452
▁tapa	-10.5453
▁inanıyorum	-10.5453
larımızın	-10.5453
▁səmərəli	-10.5454
▁Yaqub	-10.5455
▁kullanmak	-10.5457
▁suç	-10.5458
▁düş	-10.5458
nizde	-10.546
▁alıyor	-10.5461
▁Alp	-10.5462
▁34	-10.5463
▁yurd	-10.5466
▁fakültəsi	-10.5469
ham	-10.5469
▁1977-	-10.5475
▁medalı	-10.5478
▁Nəsrəddin	-10.5479
▁ixrac	-10.5479
▁adlanırdı	-10.5479
▁İsveçrə	-10.548
▁bölmə	-10.5481
▁aləti	-10.5484
▁doğulu	-10.5489
▁dünyasında	-10.5492
▁usta	-10.5493
qala	-10.5501
▁hesap	-10.5502
▁çəkili	-10.5504
▁sür	-10.5506
▁bəzək	-10.5506
▁kvadrat	-10.5506
ohn	-10.5509
lemek	-10.5513
▁1906	-10.5514
▁yerin	-10.5517
▁komandiri	-10.552
▁qapısı	-10.5521
▁filmlər	-10.5522
ydım	-10.5524
yer	-10.5524
erik	-10.5527
▁Ər	-10.5529
▁öğrenci	-10.553
▁ortada	-10.5531
▁İn	-10.5534
▁FİFA	-10.5534
▁istirahət	-10.5534
▁ərəfə	-10.5534
▁gerçekte	-10.5538
▁çarı	-10.554
▁incə	-10.5541
▁saxlayır	-10.5542
▁şəbəkəsi	-10.5546
▁oxu	-10.5549
▁Hiç	-10.5552
▁sual	-10.5553
▁Hayat	-10.5554
▁Va	-10.5555
▁Opera	-10.5557
▁ettiği	-10.5557
▁bulduk	-10.5558
▁akıl	-10.556
▁senin	-10.5564
▁qurulması	-10.5565
▁ideal	-10.5566
▁yoğun	-10.557
▁nümunə	-10.5575
▁çık	-10.5576
▁dizayn	-10.5576
▁mahalını	-10.5579
▁şirin	-10.5583
▁grubu	-10.5586
▁par	-10.5588
▁Müəllif	-10.5589
▁reaksiya	-10.5589
▁1924	-10.5589
▁Ki	-10.5593
▁çəkdiyi	-10.5593
▁Bura	-10.5596
▁örtüyü	-10.5598
▁ustası	-10.5601
▁cüt	-10.5602
124	-10.5602
▁be	-10.5602
▁1948-	-10.5605
▁illiyi	-10.561
tərəqqi	-10.5622
▁2003	-10.5625
sur	-10.563
nize	-10.563
▁12-	-10.5631
▁hazırlanan	-10.5631
▁yataqları	-10.5632
memiz	-10.5633
▁obyekti	-10.5633
eh	-10.5636
▁bila	-10.5638
ğını	-10.564
▁Nəcəf	-10.5641
▁yararlı	-10.5645
▁rəğbət	-10.5645
▁gelişme	-10.5648
▁tarafı	-10.5648
▁təzə	-10.565
▁bayrağı	-10.5651
▁bitkiləri	-10.5651
▁çiz	-10.5652
▁yazılır	-10.5654
▁direktor	-10.5657
▁sarayı	-10.5659
▁məlumatları	-10.566
▁dəstəyi	-10.5668
▁Atlantik	-10.5673
▁Atropatena	-10.5673
ral	-10.5673
▁dünyası	-10.5674
acağını	-10.5676
▁nəh	-10.5676
▁dairəvi	-10.5676
▁petrol	-10.5677
▁yapabiliriz	-10.5678
▁vaxtlarda	-10.5679
▁qəzası	-10.5681
▁önceki	-10.5683
▁lider	-10.5683
▁qum	-10.5684
▁dəyişdi	-10.5687
▁kuş	-10.5687
▁sən	-10.5689
▁məbəd	-10.5692
▁vaxtında	-10.5692
▁Bəzə	-10.5693
ast	-10.5698
▁garip	-10.5701
▁bilimsel	-10.5706
▁eylem	-10.5707
▁gör	-10.571
▁deyirdi	-10.5714
▁Teatrını	-10.5715
▁nəslindən	-10.5718
▁ülkede	-10.5719
▁küçə	-10.5719
▁ba	-10.5722
▁yüksel	-10.5724
▁eni	-10.5724
▁bakarsa	-10.5728
▁qılınc	-10.5729
çısı	-10.5729
▁qazanır	-10.5732
▁denge	-10.5734
▁bərk	-10.5737
▁Koreya	-10.5737
▁MK	-10.5737
▁sorunu	-10.5741
▁formaları	-10.5742
▁filmdə	-10.5749
▁şəhərə	-10.5749
▁gösterdi	-10.575
▁tələbələrin	-10.5751
▁şəxsin	-10.5752
▁getirmek	-10.5753
▁Du	-10.5754
▁məntəqələri	-10.5758
▁konuşmak	-10.5759
▁umut	-10.5761
▁gərək	-10.5763
▁edildikdə	-10.5764
▁vasitələri	-10.5764
iç	-10.5766
ex	-10.5767
▁üsul	-10.5775
▁göndərir	-10.5778
▁gö	-10.5782
▁Belçika	-10.5785
▁nəvəsi	-10.5785
▁məqam	-10.5785
▁Bəhram	-10.5785
▁yarada	-10.5786
▁dövlətləri	-10.5787
▁nağıl	-10.5788
▁geleceği	-10.5788
▁keçirib	-10.5789
▁isim	-10.5791
▁zorla	-10.5794
▁gelecekte	-10.5795
▁İli	-10.5795
▁ayə	-10.5799
▁Parisdə	-10.58
▁kendimizi	-10.5804
▁1952	-10.5806
▁məqsədlə	-10.5808
▁geçmiş	-10.5811
▁əşyaları	-10.5811
▁Şəhəri	-10.5813
▁keçməsi	-10.5814
▁süreç	-10.5815
▁Naxçıvanda	-10.5817
▁1990	-10.5819
▁şəxsə	-10.5824
▁Stad	-10.5825
urnalistlər	-10.5829
▁suları	-10.583
▁qəbir	-10.5831
lur	-10.5831
art	-10.5834
▁basqın	-10.5842
▁yüzlerce	-10.5843
▁söylediği	-10.5843
▁sıfır	-10.5844
ill	-10.5845
▁ekolo	-10.5846
▁aşağıda	-10.5848
▁dövlətlərin	-10.585
▁50-	-10.5857
pat	-10.5865
ğında	-10.5867
▁ağrı	-10.5867
▁kesin	-10.587
▁Dolayısıyla	-10.587
▁demokrasi	-10.587
▁qoyub	-10.587
▁baha	-10.5877
▁Hepimiz	-10.5879
▁arkadaşım	-10.5879
▁bölüm	-10.588
▁qorxu	-10.5882
malı	-10.5885
▁kənarında	-10.5885
akir	-10.5886
▁maye	-10.5887
▁250	-10.5889
lılar	-10.5897
▁dediyi	-10.5897
oru	-10.5898
▁baba	-10.5898
▁hayatı	-10.59
▁ili	-10.5901
▁məqalələr	-10.5904
▁təklifi	-10.5906
▁tapılmışdı	-10.5907
▁Bala	-10.5908
▁büyüdü	-10.5909
▁sağlıklı	-10.5911
▁gitmek	-10.5919
yse	-10.5921
▁Or	-10.5921
kçe	-10.5922
▁Tabii	-10.5924
leyici	-10.5924
▁ziyalı	-10.5924
▁tərəvəz	-10.5928
▁korkunç	-10.5928
▁nazik	-10.5928
təzə	-10.593
▁1992	-10.5934
▁şəraitdə	-10.5935
▁bilməyə	-10.5936
lənir	-10.5936
▁duran	-10.5939
▁alet	-10.594
▁sanatçı	-10.5942
▁kere	-10.5942
▁yapıyorlar	-10.5945
▁soy	-10.5945
▁millət	-10.5947
▁şöbəsin	-10.5948
▁hökumətin	-10.5954
York	-10.5957
▁bəstəkarı	-10.5958
▁bitkilərin	-10.596
abilecek	-10.5962
▁varlığı	-10.5963
iyorlar	-10.5966
▁Yerin	-10.5967
▁anlamın	-10.5968
▁görüyor	-10.5969
▁termini	-10.5973
▁1931	-10.5985
▁Avqust	-10.5985
▁Şərur	-10.5985
▁farkında	-10.5986
▁uşaqların	-10.5989
▁adamların	-10.5994
▁ayak	-10.5996
▁bunlara	-10.6
▁zalı	-10.6
▁sarayında	-10.6001
▁şirkət	-10.6004
▁fikrin	-10.6005
bulaq	-10.6005
mesini	-10.6007
baba	-10.6008
▁professoru	-10.6012
▁sevimli	-10.6014
▁toponimi	-10.6014
▁1914	-10.6014
▁qorumaq	-10.6018
▁fikirler	-10.602
▁çəkən	-10.602
▁nizam	-10.602
▁səhər	-10.6021
müddətli	-10.6023
▁mənbələri	-10.6024
▁yetiş	-10.6032
▁qüvvələrin	-10.6035
▁Et	-10.6036
▁yapılmış	-10.6038
▁material	-10.6042
▁doqquz	-10.6043
▁ərzaq	-10.6043
▁kateqoriya	-10.6044
▁seviyorum	-10.6045
▁karanlık	-10.6045
▁1984-	-10.6046
▁gündəlik	-10.6054
▁dönü	-10.6055
▁əfsanə	-10.606
▁gətirə	-10.606
cek	-10.6061
▁yayı	-10.6065
▁çəkildi	-10.6067
30	-10.6067
▁Sizin	-10.6068
▁evin	-10.607
▁Sibir	-10.6072
▁değişik	-10.6073
▁örtülü	-10.6073
▁Mustafayev	-10.6074
▁yollarını	-10.6075
▁bilmiyorum	-10.6076
▁tutma	-10.6076
orc	-10.6078
aparan	-10.6079
tədqiqat	-10.608
▁yaşına	-10.6081
▁verməsi	-10.6081
▁fərmanı	-10.6083
▁yaratma	-10.6084
▁hazırlıq	-10.6084
▁uşağı	-10.6085
▁17-	-10.6085
▁işlərində	-10.6093
ft	-10.6094
▁zirvəsi	-10.6095
▁belirli	-10.6096
▁telefonu	-10.6096
▁ölçüsü	-10.6098
▁Biraz	-10.6098
▁Səd	-10.6101
▁elbette	-10.6101
▁içeri	-10.6101
ıx	-10.6108
▁Qandi	-10.611
▁sayısı	-10.6111
▁uçak	-10.6111
▁türlü	-10.6121
▁yardımı	-10.6121
ıyla	-10.6122
▁Hindistanda	-10.6122
▁doktorlu	-10.6122
▁işlə	-10.6126
empionlar	-10.6126
əşhur	-10.6128
▁anlam	-10.6131
ami	-10.6133
ren	-10.6136
▁orqanizm	-10.6137
▁kır	-10.6138
▁hüquqları	-10.6138
▁ot	-10.6138
▁diplomu	-10.614
▁Hey	-10.6144
ari	-10.6145
▁hücreleri	-10.6148
▁Səfi	-10.6149
▁nöqtə	-10.6149
▁coğrafiya	-10.6152
▁üsyanı	-10.6155
▁nerey	-10.6158
▁qaydaları	-10.6158
▁nəfərə	-10.6158
▁güvenli	-10.6161
mü	-10.6166
▁nesil	-10.617
▁nömrəl	-10.6174
▁anlayış	-10.6176
▁sorular	-10.6177
ndaki	-10.618
emi	-10.6181
gin	-10.6182
▁sey	-10.6182
▁söyleme	-10.6183
▁Gerçek	-10.6185
▁Qusar	-10.6189
▁istefa	-10.619
▁eve	-10.6191
▁ərəblər	-10.6192
▁Azərbaycanlı	-10.6193
▁vəzifədə	-10.6193
abilmek	-10.6195
▁Kan	-10.62
▁çağırış	-10.6204
▁aşama	-10.6207
▁tapı	-10.6209
▁Amerikalı	-10.6214
leyen	-10.6215
▁geldiği	-10.6219
▁ordunu	-10.6227
▁zabit	-10.6227
▁varlı	-10.6233
▁gerçeği	-10.624
tra	-10.6241
▁gerçekleştir	-10.6241
▁gələcəkdə	-10.6244
▁alınır	-10.6248
▁illəri	-10.6248
▁alakalı	-10.6248
▁Sakit	-10.6249
bəyov	-10.6251
▁kamp	-10.6251
▁Partiya	-10.6253
▁açıdan	-10.6255
▁üzerindeki	-10.6258
▁1905-	-10.6258
▁annem	-10.6262
▁öldürmüş	-10.6263
▁Ak	-10.6264
▁dal	-10.6264
▁elementlərin	-10.6266
▁uygula	-10.6269
▁imperiyasını	-10.6272
▁inqilabı	-10.6273
▁riyazi	-10.6276
▁İdarə	-10.6277
▁qul	-10.6277
▁Əfəndi	-10.6277
▁dövri	-10.6279
▁edam	-10.6281
para	-10.6283
▁etrafında	-10.6284
▁fi	-10.6285
▁tamaşaçı	-10.6285
▁Qan	-10.6286
▁kitabını	-10.6289
▁Göz	-10.6291
▁varlıq	-10.6292
▁edilen	-10.6292
▁Xoca	-10.6293
kcə	-10.6307
▁miyiz	-10.6311
▁uzakta	-10.6311
▁yazıb	-10.6312
ıyorum	-10.6315
eceğini	-10.6315
istan	-10.6319
▁giden	-10.6319
▁klubunu	-10.6323
▁yaradan	-10.6326
▁gəldikdə	-10.6328
▁120	-10.6328
▁Av	-10.6328
ttifaq	-10.6331
▁sefer	-10.6337
▁alanda	-10.6338
▁xoş	-10.634
cık	-10.6341
▁məhsuldar	-10.6345
▁sözün	-10.6345
▁verin	-10.6346
▁ku	-10.6348
▁65	-10.6351
▁tərəflər	-10.6351
▁cümlə	-10.6352
▁oynayı	-10.6354
niversitetin	-10.6356
▁tərbiyə	-10.6359
▁Komissiyası	-10.6364
▁edilməsində	-10.6365
▁fazlası	-10.6366
▁Şəmkir	-10.6367
▁şərab	-10.6368
▁geçti	-10.6368
▁qurğu	-10.6369
▁ziyan	-10.6369
▁yoktur	-10.6371
▁37	-10.6372
▁görmüş	-10.6374
▁mesele	-10.6375
mektedir	-10.6378
▁Bina	-10.6378
▁açılması	-10.6379
▁xaç	-10.6379
ester	-10.6381
▁salmış	-10.6382
▁ayrılmış	-10.6384
▁buldum	-10.6385
▁qəti	-10.6386
▁Həsənov	-10.6387
ion	-10.639
▁to	-10.6393
▁koyu	-10.6402
▁vəzifəsi	-10.6404
▁açır	-10.642
▁dedik	-10.642
▁ədəbiyyatını	-10.6423
▁yüzil	-10.6423
larım	-10.6423
▁1928	-10.6428
▁bildirmişdi	-10.643
▁şəkil	-10.6432
▁ştat	-10.6438
ünün	-10.6439
şərqdə	-10.6439
▁sərhədləri	-10.644
▁şeri	-10.644
▁topu	-10.6444
miştim	-10.6448
▁ediyorlar	-10.6452
▁ölçülü	-10.6453
▁Danimarka	-10.6458
▁məcburiyyətində	-10.6458
▁geleneksel	-10.6458
▁danışıl	-10.6459
▁Aydın	-10.6459
▁hastalığı	-10.646
▁ailələrin	-10.6463
▁hayatını	-10.6467
▁alayı	-10.6468
▁dönem	-10.6468
▁Real	-10.6472
▁yı	-10.6474
▁ulduzlar	-10.6476
▁ağız	-10.6477
▁salır	-10.6481
let	-10.6486
▁üzerinden	-10.6487
▁Bəstəkar	-10.6488
▁Kiyev	-10.6489
▁İsmayılov	-10.649
▁Ata	-10.6491
▁gitti	-10.6493
▁verməyə	-10.6496
ans	-10.6496
▁bomba	-10.6497
▁istediğimiz	-10.6498
▁etməli	-10.65
▁getmiş	-10.65
▁iyulun	-10.6506
▁uzman	-10.6509
▁tarih	-10.6509
▁programı	-10.651
▁Bolqarıstan	-10.6519
▁bacarıq	-10.6519
▁piyasa	-10.6519
▁tunc	-10.6519
▁cevabı	-10.6519
▁banisi	-10.6519
▁şiə	-10.6519
▁sonrasında	-10.6525
▁ser	-10.6526
▁sultanı	-10.6526
▁imperatoru	-10.6527
▁dışarı	-10.653
▁önemlisi	-10.6537
▁25-	-10.6537
▁Əbülfə	-10.6538
▁qayna	-10.6539
▁faciə	-10.6539
▁Par	-10.654
▁Vladimir	-10.6549
▁mobil	-10.6549
▁bilgiyi	-10.655
▁süper	-10.655
▁məktəbə	-10.6551
▁fil	-10.6552
▁dua	-10.6557
▁herşey	-10.656
▁parçalar	-10.6562
▁nəticələr	-10.6563
dəmir	-10.6565
▁endişe	-10.6566
▁edənlər	-10.657
▁duyma	-10.6571
▁məktəblər	-10.6571
▁qarışıq	-10.6576
▁geldiğini	-10.6579
▁Texnik	-10.658
▁darmadağın	-10.658
▁populyar	-10.658
▁icat	-10.658
▁əbədi	-10.6582
▁1935	-10.6583
▁türü	-10.6583
▁işləməy	-10.6587
▁teori	-10.6588
▁Masall	-10.6588
▁Almaniyanı	-10.6588
▁diqqətini	-10.6598
▁gösteri	-10.6598
▁evren	-10.6602
▁başlat	-10.6603
▁çocukları	-10.6603
▁Müəllimlər	-10.6605
diğiniz	-10.6609
▁anlaya	-10.6609
▁genellik	-10.661
▁1912	-10.661
▁tarihi	-10.6611
▁yu	-10.6612
▁doku	-10.6612
▁səh	-10.6615
▁kilo	-10.6616
▁Yan	-10.6622
▁hakkı	-10.6623
▁sorunları	-10.6626
eye	-10.663
▁ədəbiyyatında	-10.6635
▁meydan	-10.6636
▁Nəriman	-10.6636
▁deyirlər	-10.6638
▁sağlamak	-10.664
▁ziyaret	-10.6641
▁çatışma	-10.6642
▁değiştirmek	-10.6643
▁əsna	-10.6643
iyorum	-10.6651
▁cihaz	-10.6652
▁səy	-10.6654
▁gəl	-10.6657
▁ayda	-10.6657
▁şəxsiyyət	-10.6658
kdən	-10.666
▁noktası	-10.666
▁əlaqəsi	-10.666
▁şəkli	-10.6664
▁qəhvə	-10.6672
▁günbəz	-10.6672
▁İnformasiya	-10.6672
▁süvari	-10.6673
▁xanəndə	-10.6673
▁qaça	-10.6674
▁aktar	-10.6674
▁sair	-10.6675
▁düşünmeye	-10.6676
▁çempionatı	-10.6676
▁yaradılır	-10.6676
▁44	-10.6678
▁öyrənmək	-10.6679
▁kültür	-10.668
▁dağın	-10.668
▁dalğa	-10.668
▁beyni	-10.6681
▁öte	-10.6683
meliyiz	-10.6687
▁belirt	-10.6693
ite	-10.6699
▁İqtisadi	-10.67
▁Beni	-10.67
▁kaya	-10.6701
▁İskəndər	-10.6703
▁kısım	-10.6703
▁azərbaycan	-10.6703
▁ilahi	-10.6704
▁Eldar	-10.6704
▁Mor	-10.6704
▁Var	-10.6711
▁sağladı	-10.6712
▁nəşri	-10.6714
▁mühit	-10.6719
seydi	-10.6722
▁xatirə	-10.6723
▁mövsüm	-10.6726
▁yapmayı	-10.6727
▁Ondan	-10.6728
▁torpaqlarını	-10.673
▁sufi	-10.6734
▁barəsində	-10.6734
▁qayğı	-10.6734
▁davran	-10.6742
dığım	-10.6746
▁1960	-10.6747
▁yığma	-10.675
▁Albaniyası	-10.6753
▁yetiştir	-10.6755
▁lat	-10.6756
▁ülkelerde	-10.6758
▁mahnılar	-10.6759
▁fərq	-10.676
kür	-10.6762
yib	-10.6764
▁məhrum	-10.6765
▁italyan	-10.6765
eninqrad	-10.6765
▁sekiz	-10.6766
ıyorlar	-10.6767
▁danışıqlar	-10.6768
▁Tur	-10.6771
▁görmüşdü	-10.6775
▁Gü	-10.6776
▁ilerleme	-10.6778
▁toy	-10.6779
▁2001	-10.678
▁Amerikanın	-10.6783
▁aşağıdakılar	-10.6784
▁kv	-10.6785
▁Mu	-10.6787
lüğü	-10.6788
▁alətlər	-10.6791
▁müsəlmanlar	-10.6793
▁ərazilərində	-10.6793
▁şekil	-10.6796
▁duygu	-10.68
▁haqqı	-10.681
mam	-10.6811
▁kəndlərdə	-10.6816
▁iqtisadiyyat	-10.6817
▁versiyası	-10.6817
▁ettiğimiz	-10.6824
▁yapmamız	-10.6827
▁Birçok	-10.6828
▁rəmzi	-10.6828
▁Sankt	-10.6828
▁Dr	-10.6832
▁sahələr	-10.6833
▁Afrikada	-10.6835
▁Təbrizi	-10.6837
▁əzələ	-10.6839
▁anlamaya	-10.6841
▁təbliğ	-10.6842
▁qüdrət	-10.6846
▁toxuma	-10.6849
layır	-10.685
ileri	-10.6851
▁davranış	-10.6852
▁oluştur	-10.6853
▁bulun	-10.6854
▁Gürcüstanı	-10.6858
birine	-10.6859
▁maksim	-10.686
▁Min	-10.6861
▁ünlü	-10.6862
ef	-10.6863
▁qır	-10.6865
▁iqtisadiyyatı	-10.6865
▁yüksəklikdə	-10.6869
▁texnikası	-10.6869
▁alimlərin	-10.6873
▁dinle	-10.6882
▁nəslin	-10.6883
▁kırı	-10.6886
▁Əsl	-10.6887
▁döyüşçü	-10.6888
▁qurban	-10.6888
▁öğretmen	-10.6891
▁teşvik	-10.6891
yasət	-10.6896
▁fikirleri	-10.6896
▁türbə	-10.6897
▁şirketi	-10.6898
▁Qor	-10.6899
▁alması	-10.6901
▁fikirləri	-10.6903
əsən	-10.6903
▁Kon	-10.6904
hu	-10.6904
▁təcrübəsi	-10.6905
▁Sal	-10.6911
▁məhsul	-10.6912
hris	-10.6914
▁qardaş	-10.6917
▁institutun	-10.6918
▁cam	-10.692
▁şəhərlərdə	-10.6922
▁yada	-10.6922
▁Madrid	-10.6922
▁Pekala	-10.6923
▁buğda	-10.6923
▁qalma	-10.6923
▁yaparken	-10.6925
▁mərhələdə	-10.6927
▁qurulmuşdu	-10.6929
ğünü	-10.6929
▁çatı	-10.693
are	-10.6931
▁tuturdu	-10.6934
▁keşfed	-10.6935
▁mənbələrində	-10.6935
▁qurdu	-10.6939
▁Doğru	-10.694
▁Nazi	-10.694
▁Şi	-10.6942
▁xidmətlərin	-10.6944
▁heyvanların	-10.6946
▁Burası	-10.6946
▁60-	-10.6947
▁qohum	-10.6949
▁Fələstin	-10.6954
▁Hüquq	-10.6954
▁vücut	-10.6954
▁Astara	-10.6954
▁olağanüstü	-10.6954
▁verimli	-10.6954
▁eşit	-10.6958
▁vilayətində	-10.6965
▁politik	-10.6967
▁göndərdiyi	-10.6967
▁torpaqların	-10.6973
▁meyl	-10.6974
▁müddətində	-10.6975
▁zavodu	-10.6976
▁çevrilmiş	-10.6979
iği	-10.698
▁rəvayət	-10.6983
▁marağı	-10.6984
▁Rəsul	-10.6985
▁vətəni	-10.6985
▁Vurğun	-10.6986
▁yüzü	-10.6986
▁Türkmənistan	-10.6986
▁Koroğlu	-10.6986
▁diri	-10.6987
▁çalışıyoruz	-10.699
▁imkanları	-10.6991
▁Dağ	-10.6991
▁Saray	-10.6991
▁əsilli	-10.6994
▁dəyərli	-10.6995
▁doğu	-10.6995
▁oyunçu	-10.6998
▁tuta	-10.7003
▁1947-	-10.7004
▁Beş	-10.7005
▁hissed	-10.7006
▁soyqırımı	-10.7008
oto	-10.701
▁geçme	-10.7012
▁kompozisiya	-10.7016
▁halinde	-10.7017
▁Qorqud	-10.7018
▁müşayiət	-10.7018
▁Argentina	-10.7018
▁kağız	-10.7018
▁toplantı	-10.7018
▁Fərhad	-10.7018
▁Siyasi	-10.7018
mamız	-10.702
▁Memar	-10.702
▁dalga	-10.702
▁parmak	-10.702
▁örneği	-10.7024
▁ömür	-10.7026
▁2011	-10.7033
▁Misirdə	-10.7034
▁rənglər	-10.7034
rek	-10.7035
▁getmək	-10.7038
▁yaxındır	-10.704
▁Yunanıstan	-10.7041
▁olduğunuz	-10.7042
▁münasibət	-10.7044
▁xarakterli	-10.7045
▁apara	-10.7046
▁isteme	-10.705
▁təşkilatçı	-10.705
▁müəllimləri	-10.7051
▁salınmışdı	-10.7055
▁uzanan	-10.7055
ize	-10.7057
adiq	-10.7057
▁uzunluğunda	-10.7063
▁mübarizədə	-10.7067
▁yıldız	-10.707
▁halı	-10.7071
▁ştatı	-10.7073
▁Bağdad	-10.7076
▁nümunəsi	-10.7079
▁götürüb	-10.7082
▁Geçen	-10.7082
▁Tədqiqatçılar	-10.7082
▁gec	-10.7083
▁qoyuldu	-10.7083
▁1927	-10.7083
▁gördüyü	-10.7084
▁əmisi	-10.7085
▁düşməni	-10.7086
▁yaparak	-10.7086
uq	-10.7087
▁28-	-10.7088
▁xadimləri	-10.7088
▁Şura	-10.7089
▁hazırlamaq	-10.7089
▁getirdi	-10.7093
liyor	-10.7095
▁gəmisi	-10.7097
▁seçmə	-10.7097
▁səfəri	-10.7102
,	-10.7103
ara	-10.7105
ava	-10.7105
▁ikna	-10.7106
▁sütun	-10.7107
▁mün	-10.7109
laşdırılması	-10.7112
▁dost	-10.7112
iqası	-10.7114
▁1915	-10.7115
▁konfrans	-10.7115
▁Ruh	-10.7115
▁Qış	-10.7116
▁Sağ	-10.7116
▁gıda	-10.7116
▁bulunma	-10.7117
▁ehtiyatları	-10.7119
▁etsin	-10.7121
▁16-	-10.7121
▁qurulan	-10.7122
▁sonuçlar	-10.7123
▁18-	-10.7123
▁bizler	-10.7124
▁not	-10.7127
▁keçirili	-10.7127
▁hey	-10.7128
ləyir	-10.7128
▁yuxu	-10.7129
ell	-10.7129
gun	-10.7131
▁üslub	-10.7131
▁To	-10.7131
▁olacağı	-10.7133
▁düşündük	-10.7134
niversitet	-10.7134
ord	-10.7136
▁durur	-10.7137
▁qadınların	-10.7143
▁bürünc	-10.7147
▁pambıq	-10.7147
▁poetik	-10.7147
▁dönəmində	-10.7148
▁odaklan	-10.7148
▁çətinliklər	-10.7148
▁şaşır	-10.7149
▁ağacları	-10.7149
▁hədiyyə	-10.715
▁Ailə	-10.715
▁hayatın	-10.7152
▁hayvanlar	-10.7154
▁ilan	-10.7156
▁qə	-10.7156
▁kitabları	-10.7158
▁ayırma	-10.7161
▁değiş	-10.7164
▁Gürcüstanda	-10.7167
qar	-10.717
▁sahibiz	-10.7171
▁obrazlar	-10.7175
▁vəhşi	-10.7179
▁yaratmış	-10.7179
▁Təbiət	-10.7179
▁tecrübe	-10.7179
▁Rəsulzadə	-10.718
▁saldırı	-10.7185
▁oyunun	-10.7185
▁Müsabiqəsi	-10.7188
dıkları	-10.7188
▁birşeyler	-10.7189
▁muzeyi	-10.7189
urnalını	-10.7192
▁1998	-10.7194
▁motor	-10.7196
▁qruplar	-10.72
▁İr	-10.7201
▁bakma	-10.7203
axan	-10.7203
tərəfl	-10.7209
▁minilliy	-10.7212
ğlu	-10.7212
▁davet	-10.7212
▁yağıntı	-10.7213
▁səviyyə	-10.7213
▁Vəzirov	-10.7214
▁işləni	-10.7214
▁arama	-10.7221
▁geriye	-10.7223
▁uzanır	-10.7223
▁giy	-10.7226
▁komponentlərin	-10.7231
liğini	-10.7233
ebileceği	-10.7233
▁əxlaq	-10.7234
▁sıcak	-10.7234
▁əsaslanır	-10.7234
texnik	-10.7239
▁zəlzələ	-10.7244
▁qiyam	-10.7245
▁Bank	-10.7245
▁Əfqanıstan	-10.7246
▁Yazıçı	-10.7252
▁yaranı	-10.7252
▁Kilsə	-10.7253
▁kadınların	-10.7254
▁Hə	-10.7255
▁dillər	-10.7256
▁qızları	-10.7257
▁Sir	-10.7258
emez	-10.7271
▁təhlükəli	-10.7271
zbəkistan	-10.7277
▁çekici	-10.7278
▁Azadlı	-10.7278
▁toprak	-10.7278
▁təmsilçisi	-10.7278
▁benziyor	-10.7279
▁edici	-10.7283
ətən	-10.7284
▁başda	-10.7284
▁İç	-10.7286
akt	-10.7287
▁səhifə	-10.7288
▁mətn	-10.7289
maktadır	-10.7291
▁müttəfiq	-10.7296
▁Ağca	-10.73
▁simvolu	-10.7301
▁1991	-10.7304
▁ayrılma	-10.7308
▁Sosial	-10.7309
▁qəzasında	-10.731
▁öyrənir	-10.731
▁Növbə	-10.7311
▁Marağa	-10.7311
axşı	-10.7312
▁təşkili	-10.7313
▁beden	-10.7317
ua	-10.7319
▁bildiği	-10.732
▁kullanıyor	-10.7322
▁texnologiya	-10.7322
▁Bak	-10.7324
▁məcburi	-10.7325
▁diplom	-10.7326
▁ömrü	-10.7326
▁taş	-10.7329
▁olmamız	-10.7333
▁yarandığı	-10.7335
makta	-10.7335
▁açılışı	-10.7335
▁mütəxəssislər	-10.7336
▁zeka	-10.7339
▁For	-10.7341
▁dissertasiyası	-10.7341
▁Rəşid	-10.7342
▁Barselona	-10.7343
▁kömür	-10.7343
▁televizyon	-10.7343
▁beşinci	-10.7344
▁hazırlığı	-10.7346
▁Altı	-10.7346
▁tərəfdarları	-10.7349
eme	-10.7351
▁800	-10.7352
urnalında	-10.7352
▁düşünür	-10.7354
▁yaşaya	-10.7357
▁qərbində	-10.7364
▁Gülüş	-10.7373
▁şübhə	-10.7374
▁dostluq	-10.7377
▁xalqları	-10.738
▁çalışıyorum	-10.7382
landırma	-10.7382
▁şirketler	-10.7387
qara	-10.7388
▁yazısı	-10.7388
▁sürə	-10.7388
▁versiya	-10.739
▁siyah	-10.7391
nti	-10.7391
▁harca	-10.7397
▁imkansız	-10.7397
▁inam	-10.7399
▁işdə	-10.74
▁etdirmiş	-10.7401
göl	-10.7406
▁yaradıcılığını	-10.7406
▁akıllı	-10.7408
▁dosent	-10.7408
ələbi	-10.7409
▁yabancı	-10.7409
▁1916	-10.741
▁çoxunu	-10.741
tika	-10.7411
▁qazanmış	-10.7415
▁bilmə	-10.7415
▁Ada	-10.7423
▁dostları	-10.7424
əlal	-10.7424
▁yazma	-10.7426
▁arxasında	-10.7426
▁Ərazi	-10.7427
▁verileri	-10.7431
▁hız	-10.7432
▁yad	-10.7434
▁biçim	-10.7435
▁bəyan	-10.7436
▁Mal	-10.744
leriniz	-10.7442
▁Ordusu	-10.7442
▁yaygın	-10.7443
▁yağmur	-10.7443
▁55	-10.7445
ğinde	-10.7446
▁olmasından	-10.7448
▁maşını	-10.745
▁tapır	-10.7457
▁boy	-10.7458
▁1970	-10.746
▁olmayı	-10.7464
▁bulunduğu	-10.7471
▁qüvvələrini	-10.7472
▁ittiham	-10.7476
▁İsfahan	-10.7476
▁Əkbər	-10.7476
▁kendime	-10.7476
▁getiriyor	-10.7481
ümüz	-10.7481
▁demektir	-10.7486
▁dayanır	-10.7486
▁oynadığı	-10.7488
▁ünvanı	-10.749
▁Demek	-10.7494
▁Ber	-10.7495
▁imperator	-10.7496
▁mənşəyi	-10.7497
▁yem	-10.7501
▁bilik	-10.7502
gel	-10.7502
▁hepsini	-10.7503
▁əməliyyatı	-10.7503
▁döyüşündə	-10.7505
▁keçirmişdi	-10.7509
▁pəncərə	-10.751
▁körfəzi	-10.7512
▁kimyasal	-10.7512
▁tökülü	-10.7513
▁ifaçısı	-10.7517
▁qapa	-10.7518
▁1908	-10.7519
▁müdafiəsi	-10.7523
▁həqiqətən	-10.7523
eler	-10.7526
laşmış	-10.7531
likle	-10.7532
▁oynayan	-10.7534
layıcı	-10.7535
adə	-10.7537
lerinizi	-10.754
Tədqiqat	-10.7541
▁mədəniyyətin	-10.7542
▁kenar	-10.7543
▁Gülüstan	-10.7543
▁Şəfi	-10.7543
mekte	-10.7549
▁erken	-10.7553
ck	-10.7557
qanlı	-10.7559
▁döyüşlər	-10.7559
▁buxar	-10.756
▁kes	-10.7562
▁miqyas	-10.7565
gı	-10.7567
▁görülür	-10.7567
▁yerləşməsi	-10.7569
▁Sh	-10.7572
uru	-10.7576
▁biliklər	-10.7577
▁psixolo	-10.7577
▁1907	-10.7578
▁işlədiyi	-10.758
▁şagird	-10.7581
▁birləşə	-10.7583
▁haqq	-10.7586
▁Yap	-10.7589
▁emal	-10.7596
▁çıxa	-10.7603
yordum	-10.7603
▁Hem	-10.7603
▁Makedoniya	-10.7611
▁Oktyabr	-10.7611
▁barış	-10.7611
▁görürsünüz	-10.7611
▁efir	-10.7611
▁yürüşü	-10.7612
▁At	-10.7612
▁seviye	-10.7613
lduğu	-10.7613
▁seks	-10.7615
▁yayılan	-10.7615
▁Aya	-10.7617
▁Tom	-10.7624
▁araçlar	-10.7624
▁yaradıcısı	-10.7624
ləndirilməsi	-10.7625
▁Məktəbi	-10.7631
▁olduğumu	-10.7636
▁gor	-10.7637
▁hakkındaki	-10.7643
▁yubileyi	-10.7643
▁MR	-10.7645
leştirme	-10.7645
▁adlarını	-10.7645
▁nefes	-10.7645
▁gemi	-10.7647
▁Yeddi	-10.7647
▁həqiqət	-10.7647
▁zonasında	-10.7647
▁qayıtdı	-10.7648
▁istiqaməti	-10.765
▁istərs	-10.7654
▁alınma	-10.7655
▁region	-10.7658
▁zonası	-10.7665
▁bütöv	-10.7671
▁polkovnik	-10.7676
▁Məlum	-10.7676
▁duyu	-10.7676
▁Kazım	-10.7677
▁çalışmaları	-10.7679
▁Qobustan	-10.7679
▁raket	-10.768
▁sergi	-10.768
▁üretim	-10.7685
▁təxmin	-10.7685
▁azalt	-10.7686
▁ailəsini	-10.7687
qərbdə	-10.769
▁kafedra	-10.7691
▁Ed	-10.7694
▁istinad	-10.7699
▁ayrıldı	-10.77
▁azadlığı	-10.7708
▁sığ	-10.7711
▁Dəmir	-10.7711
▁Borçalı	-10.7713
▁Məmmədquluzadə	-10.7713
▁Tesla	-10.7714
▁çəkmək	-10.7715
▁qab	-10.7718
▁yerləşdirilmiş	-10.7718
▁kitabxanası	-10.7723
▁Qadın	-10.7724
▁hüceyrə	-10.7724
▁silsiləsi	-10.7726
car	-10.7726
▁əlaqəli	-10.773
▁xalqlar	-10.773
ınca	-10.7731
▁inşası	-10.7735
▁bölümü	-10.7737
▁keçi	-10.7737
btidai	-10.7744
▁Kafka	-10.7748
▁klinik	-10.7748
▁paralel	-10.7748
▁Tağıyev	-10.7748
▁Sezar	-10.7748
▁məsul	-10.7748
yleyse	-10.7749
▁sax	-10.775
lüm	-10.7753
▁Əvvəlcə	-10.7755
▁çalışmaya	-10.7756
▁disk	-10.7758
▁vəsait	-10.7759
▁aktrisası	-10.7761
▁Abbasov	-10.7763
▁bölməsi	-10.7763
▁hissetme	-10.7766
▁Müsabiqə	-10.7766
▁1999	-10.7766
▁tamaşalar	-10.7771
▁insanlardan	-10.7772
▁səma	-10.7773
▁adla	-10.7774
▁bağlanmış	-10.7779
▁160	-10.7781
ahan	-10.7782
▁müvəffəqiyyətlə	-10.7782
▁Paul	-10.7782
▁tutku	-10.7784
▁büyü	-10.7784
▁boyutlu	-10.7786
▁üslubu	-10.7791
▁hind	-10.7792
sizlik	-10.7795
▁yaranma	-10.7798
▁yuva	-10.7798
▁Peyğəmbər	-10.7799
▁məlumatı	-10.7808
▁ulduzu	-10.7814
▁təntənə	-10.7817
▁Kipr	-10.7817
▁təqdir	-10.7817
▁cavan	-10.7818
▁taleyi	-10.7819
▁Qarayev	-10.7822
▁vilayətini	-10.7823
▁hızla	-10.7823
lamaya	-10.7825
▁soyqırım	-10.7827
▁He	-10.7829
lerim	-10.7834
▁2012	-10.7836
rad	-10.7837
▁değiller	-10.7845
▁sarayın	-10.7849
▁tehdit	-10.7852
▁Napoleon	-10.7852
▁Venesiya	-10.7852
▁Göyçə	-10.7852
▁1910	-10.7852
▁kaldı	-10.7853
▁Sasanilər	-10.7855
all	-10.7857
əng	-10.7857
▁dans	-10.7859
ladığı	-10.786
▁əyalət	-10.7861
▁festival	-10.7862
▁səhra	-10.7866
▁səthində	-10.7867
▁səhnəsində	-10.7867
▁təşkilatın	-10.7869
▁miktarda	-10.7869
▁görünə	-10.7873
▁11-	-10.7873
com	-10.7878
▁oy	-10.7881
▁kurma	-10.7882
▁başta	-10.7884
▁sərəncamı	-10.7885
üksək	-10.7886
▁Yelizavet	-10.7887
▁Millət	-10.7887
▁Mənbələr	-10.7887
▁fövqəl	-10.7887
▁bebek	-10.7887
▁organ	-10.7887
▁sayılırdı	-10.7892
▁yeyi	-10.7892
▁nəşriyyatı	-10.7893
▁Manna	-10.7893
▁düzündə	-10.7897
▁Bilim	-10.7899
▁söyler	-10.7899
▁nömrəsi	-10.7902
leşmiş	-10.791
▁texnologiyası	-10.7912
▁Filmin	-10.7913
▁yun	-10.7914
isinin	-10.7916
▁oxumuşdu	-10.7919
▁Əhmədov	-10.7921
▁Mingəçevir	-10.7921
▁laboratoriya	-10.7922
▁inanc	-10.7924
▁bütövlük	-10.793
▁sistemleri	-10.7932
▁doğur	-10.7933
▁adet	-10.7939
▁komp	-10.7942
▁bilmişdir	-10.7942
▁oran	-10.7955
▁dəyəri	-10.7957
▁məhdud	-10.7957
mental	-10.7958
▁ilgilen	-10.7959
▁imiş	-10.7959
▁başını	-10.7959
▁arazi	-10.7962
sün	-10.7962
▁turist	-10.7964
▁inkar	-10.7965
istik	-10.7965
▁oku	-10.7967
▁sənətkarlıq	-10.7967
▁48	-10.7967
diniz	-10.7968
larımı	-10.7969
▁sayını	-10.7969
▁şərqində	-10.797
▁çalıştığım	-10.7972
▁zeki	-10.7973
▁monoqrafiya	-10.7976
rey	-10.7985
▁yüzyıl	-10.7985
▁parti	-10.7985
▁Əhalisini	-10.7987
▁dinamik	-10.7988
▁vasitə	-10.7989
▁Tahir	-10.7992
▁poz	-10.7993
▁qoru	-10.7994
▁diametri	-10.7995
▁Adil	-10.7997
▁çıxarılması	-10.7999
▁dənizində	-10.8
edici	-10.8001
▁tehlikeli	-10.8003
iv	-10.8004
zaq	-10.8004
ola	-10.8008
tör	-10.8009
▁tanıma	-10.8012
yorlardı	-10.8015
▁devre	-10.8016
▁əsərdə	-10.8017
▁veril	-10.8018
▁məktəblərində	-10.8018
▁Dar	-10.8019
▁alət	-10.8023
▁Mükafatı	-10.8025
▁duruyor	-10.8026
▁seyahat	-10.8027
▁olardı	-10.8029
mət	-10.8034
▁Gi	-10.8036
▁səbəblər	-10.8044
▁ağı	-10.8044
▁binanı	-10.8045
▁əyaləti	-10.8045
ünde	-10.8045
▁faktlar	-10.8047
▁babam	-10.8047
meyecek	-10.8048
▁çapında	-10.8048
▁ucu	-10.8051
▁universiteti	-10.8055
▁birləşdirir	-10.8057
▁koru	-10.8058
▁övladları	-10.8058
lığında	-10.8059
▁yarışma	-10.8059
▁nəfəs	-10.8063
▁makale	-10.8063
▁Rzayev	-10.8064
▁adlar	-10.8067
▁eğlenceli	-10.8068
▁Altay	-10.8068
▁çempionatın	-10.807
▁Müsabiqəsində	-10.807
▁Don	-10.8071
▁fəaliyyətində	-10.8075
eceği	-10.808
▁taraf	-10.8081
▁dəyişən	-10.8082
▁çatmış	-10.8087
▁güvenlik	-10.8087
▁anlatmak	-10.8089
ladı	-10.8092
▁özgü	-10.8097
▁bəzədilmiş	-10.8098
▁gəlişi	-10.8099
▁kullanıl	-10.8099
▁Poli	-10.81
▁Sam	-10.8101
▁hücreler	-10.8106
▁yaşındaki	-10.8113
▁yaşadı	-10.8118
▁bakteri	-10.8118
▁bala	-10.8122
▁eriş	-10.8123
▁düşməsi	-10.8124
▁tədbir	-10.8125
▁Pyotr	-10.8134
▁kopya	-10.8135
▁vəsaiti	-10.8138
▁biznes	-10.8138
▁oymağı	-10.814
▁çök	-10.814
▁tayfalar	-10.8144
▁kurtul	-10.8149
▁şirkətləri	-10.8149
▁açıldı	-10.8151
▁site	-10.8154
▁alanlar	-10.8159
▁məzmunu	-10.8163
zəb	-10.8163
▁kazandı	-10.8164
▁80-	-10.8167
▁süd	-10.8167
ğun	-10.8168
▁http	-10.817
▁dağətəyi	-10.817
▁Qum	-10.817
▁saygı	-10.817
▁etməkdə	-10.8171
▁əşyalar	-10.8172
▁pahalı	-10.8172
▁keçmə	-10.8172
▁toz	-10.8173
▁düşünmek	-10.8174
▁gətirdiyi	-10.8178
▁gaz	-10.8178
▁formalaşması	-10.8181
▁əla	-10.8182
▁kare	-10.8184
▁məşqçisi	-10.8187
▁məhsulu	-10.8188
▁1989	-10.8191
▁geçerli	-10.8192
▁yetirir	-10.8197
oba	-10.8197
▁camaat	-10.8198
▁yaddaş	-10.8201
üp	-10.8202
▁fərqi	-10.8203
▁kesi	-10.8204
▁akşam	-10.8206
▁Aktyor	-10.8206
▁qoca	-10.8206
ümü	-10.8206
▁Birincisi	-10.8207
▁lirik	-10.8208
▁xəstəliyin	-10.8209
▁kalbi	-10.8209
▁okuy	-10.821
▁hesabla	-10.8211
▁günləri	-10.8213
▁yaşıyor	-10.8214
zal	-10.8217
▁döyüşə	-10.8218
▁Buradaki	-10.8218
dirdi	-10.822
▁tük	-10.8223
▁əməliyyatlar	-10.8226
▁Parlament	-10.8226
rus	-10.8228
▁çıkma	-10.823
ira	-10.8233
ince	-10.8233
▁məşğuldur	-10.8234
▁Qars	-10.8235
▁sakin	-10.8236
▁bildiğimiz	-10.8237
▁qiymətləndiril	-10.8237
▁formalaşmasın	-10.8237
▁sümük	-10.8238
madı	-10.8241
▁əziyyət	-10.8242
▁tünd	-10.8242
▁Afina	-10.8242
▁məskən	-10.8242
▁Papa	-10.8244
▁ederek	-10.8244
▁Mart	-10.8245
▁tutulan	-10.8246
▁Bazen	-10.8249
▁sənədlər	-10.8254
çıq	-10.8254
▁değişimi	-10.8258
▁arkadaş	-10.8259
▁məhəllə	-10.827
▁açıklama	-10.8271
▁Tu	-10.8272
▁kart	-10.8272
▁siyasətini	-10.8275
▁kızı	-10.8275
▁orkestr	-10.8276
▁klip	-10.8276
▁ordusunda	-10.8279
anr	-10.828
▁1900	-10.8281
▁dik	-10.8285
▁qəzetin	-10.8285
▁Saat	-10.8286
▁şərtləri	-10.8289
▁köçəri	-10.8292
▁həyatda	-10.8293
▁1929-	-10.8293
▁gəlirlər	-10.8295
ondonda	-10.8296
▁ənənə	-10.8296
▁məclis	-10.8297
▁keçirmiş	-10.8298
▁Ah	-10.8302
▁edilməsini	-10.8304
▁içəri	-10.8306
▁dəyişməsi	-10.8308
▁təşkilatlar	-10.831
▁Sonuç	-10.8311
▁ansamblı	-10.8312
▁ürünü	-10.8312
▁fəsil	-10.8313
▁qiyməti	-10.8313
▁Hollandiya	-10.8314
▁fəsiləsin	-10.8315
▁komik	-10.8317
▁variantı	-10.8317
▁malzeme	-10.8319
▁14-	-10.8322
▁Aş	-10.8322
▁Per	-10.8324
▁kitablar	-10.8324
▁yerləşmiş	-10.8325
▁başlanmışdı	-10.8326
terince	-10.8331
▁99	-10.8332
▁eğit	-10.8334
▁faizi	-10.8334
▁bərpası	-10.8334
▁öldürdü	-10.8336
▁ehtiyacı	-10.8343
▁yazan	-10.8345
▁quşlar	-10.8346
▁limanı	-10.8348
▁yaşayıb	-10.8351
▁muazzam	-10.8351
▁toplama	-10.8352
▁qurulmuş	-10.8355
▁qarış	-10.8356
▁struktur	-10.8364
▁Tabi	-10.8367
▁yayılma	-10.8367
▁düşünüyor	-10.8372
▁1993	-10.8373
▁namazı	-10.8374
▁herşeyi	-10.8375
▁bildirə	-10.8376
▁Rəhim	-10.8379
▁bilmək	-10.8382
ocuk	-10.8384
▁gaye	-10.8385
▁hidro	-10.8387
▁1913	-10.8387
▁mövsümü	-10.8389
▁müvəffəqiyyət	-10.8391
▁burası	-10.8393
ənd	-10.8394
posta	-10.8396
▁gözəlliyi	-10.8396
▁öğrendim	-10.8397
▁biolo	-10.8398
▁dev	-10.8398
▁43	-10.84
▁aldılar	-10.8405
▁gerekiyordu	-10.8405
▁qışla	-10.8405
▁demişdi	-10.8406
▁okula	-10.8407
▁Təhmasib	-10.8408
bur	-10.8408
▁boşluğu	-10.841
▁1996	-10.8411
▁fabrika	-10.8411
ahid	-10.8412
▁prosesində	-10.8412
▁Oyunları	-10.8415
▁proqramlar	-10.8416
▁cəmiyyətdə	-10.8419
▁texnologiyaları	-10.8419
▁Rumıniya	-10.8424
▁imperiya	-10.8425
▁rüzgar	-10.8425
▁Vahid	-10.8426
▁sağlayacak	-10.8427
▁700	-10.8428
▁isteyen	-10.8429
▁batı	-10.8431
▁blok	-10.8433
▁Kamil	-10.8438
▁ani	-10.8441
▁çoğunu	-10.8442
▁düzənlik	-10.8445
▁sanal	-10.8449
▁yaka	-10.845
▁Alı	-10.8453
▁doğrudan	-10.8461
▁Maraqlı	-10.8461
▁General	-10.8461
▁kamu	-10.8464
▁sakit	-10.8465
etti	-10.8467
▁yapon	-10.847
▁geçiyor	-10.847
▁mexanik	-10.8473
▁fərman	-10.8473
▁faiz	-10.8474
▁Yine	-10.8478
çəmən	-10.848
▁əməkdaşları	-10.8481
▁göndərilir	-10.8482
▁Geri	-10.8482
▁paltar	-10.8484
▁şansı	-10.8488
▁mənbə	-10.8489
▁sənin	-10.849
▁Məktəb	-10.8491
▁vuran	-10.8493
liğinde	-10.8493
▁şans	-10.8497
▁sana	-10.8498
▁bahçe	-10.8498
▁tasarruf	-10.8498
▁işbirliği	-10.8498
▁Şamil	-10.85
▁kısmını	-10.8502
▁banka	-10.8504
▁Təhlükəsizli	-10.8504
▁Mirzəyev	-10.8505
ebileceğimiz	-10.8505
▁qatıldı	-10.8507
▁ixtira	-10.851
▁təxəllüsü	-10.8514
▁inkişafını	-10.8521
▁ayırır	-10.8522
▁Bankı	-10.8523
▁39	-10.8523
▁oynadı	-10.8525
əmil	-10.8527
▁görünmə	-10.8527
▁Asya	-10.8532
▁Daşkənd	-10.8534
▁Həbib	-10.8535
▁Müsavat	-10.8535
▁bisiklet	-10.8535
▁etdirilir	-10.8535
▁elimizde	-10.8536
▁Balet	-10.8538
▁olduğumuzu	-10.8538
▁tarım	-10.8539
▁sır	-10.8544
▁çıkart	-10.8545
▁Babil	-10.8545
▁sıkı	-10.8548
▁orden	-10.855
▁birləşmiş	-10.8553
▁tel	-10.8555
oş	-10.8556
▁Kubokunu	-10.856
▁qazıntı	-10.8561
tum	-10.8563
▁çekti	-10.8565
▁100-	-10.8567
▁Ələsgər	-10.8569
▁Küçük	-10.8573
▁Torpaq	-10.8573
▁servis	-10.8573
▁gətirilmiş	-10.8573
▁foto	-10.8574
▁maddələrin	-10.8574
▁kəşfiyyat	-10.8575
▁sim	-10.8575
▁Şab	-10.8581
▁Milad	-10.8581
▁müəssisə	-10.8582
▁xalçaları	-10.8584
▁hazırlanmasında	-10.8585
▁universitetləri	-10.8587
▁kullanır	-10.8589
▁ət	-10.8589
▁bulunuyor	-10.8591
ld	-10.8593
▁fakt	-10.8596
ğım	-10.8596
▁ten	-10.8596
▁Şam	-10.8597
▁tikililər	-10.8597
▁xəstəliklər	-10.86
▁İbrahimov	-10.86
▁bağış	-10.8602
▁Yo	-10.8603
▁nde	-10.8604
▁veriler	-10.8604
ıyordu	-10.8605
▁sok	-10.8607
ulla	-10.8607
▁quruluşunu	-10.8608
▁Gö	-10.8609
▁dava	-10.861
▁ismi	-10.8613
▁həyət	-10.8613
▁payız	-10.862
▁cok	-10.8621
ust	-10.8622
▁bulundu	-10.8623
▁ortam	-10.8626
▁hükümet	-10.8631
▁Quran	-10.8634
▁iti	-10.8634
qo	-10.8634
▁Park	-10.8634
▁istiyor	-10.8635
▁Tbilisi	-10.8635
▁ri	-10.8638
▁yapmış	-10.8639
▁sınaq	-10.8641
▁bəxş	-10.8642
▁Qaz	-10.8644
▁arzusu	-10.8645
çülü	-10.8646
▁Şotlandiya	-10.8648
▁bağımsız	-10.8648
▁Şəms	-10.8648
▁git	-10.8649
▁rəqib	-10.8649
▁ipək	-10.8651
inizi	-10.8652
▁quruldu	-10.8652
▁səhiyyə	-10.8653
▁bax	-10.8654
▁Din	-10.8656
▁tapmaq	-10.8657
▁46	-10.8658
▁lif	-10.8658
lerimi	-10.8661
▁tasarla	-10.8664
▁bölgələrdə	-10.8666
▁Düz	-10.8667
▁divarı	-10.8668
▁gərgin	-10.8676
▁partiyası	-10.8677
▁Şirvani	-10.8682
▁sorunlar	-10.8682
▁katolik	-10.8683
mayor	-10.8684
stan	-10.8686
▁əmir	-10.8686
▁Güneş	-10.8686
▁yorum	-10.8688
▁musiqiçi	-10.869
amaz	-10.8693
▁Şahma	-10.8694
▁neyse	-10.8694
rız	-10.8695
▁əsgəri	-10.8696
▁əyan	-10.8696
▁mahalle	-10.8698
▁arkadaşlarım	-10.8701
▁çalıştık	-10.8702
▁ulu	-10.8702
▁bireyler	-10.8703
▁od	-10.8705
▁otura	-10.8708
▁kelimeler	-10.8709
mik	-10.871
▁hadisəsi	-10.8711
▁tərcüməsi	-10.8712
▁tele	-10.8712
▁araçları	-10.8714
les	-10.8715
▁Anadoluda	-10.8715
▁yığ	-10.8715
rom	-10.8718
▁işleri	-10.8719
▁ifadəsi	-10.872
▁13-	-10.8722
▁müthiş	-10.8723
▁tropik	-10.8723
▁spor	-10.8724
▁sonuçları	-10.8724
▁xanımın	-10.8724
▁Ağdaş	-10.8724
▁ettiler	-10.8725
▁izle	-10.8726
▁mübadiləsi	-10.8726
▁köçmüş	-10.8731
isini	-10.8733
▁rekord	-10.8734
▁adlanmış	-10.8734
▁rahatsız	-10.8736
▁yaklaşım	-10.8738
▁poeziya	-10.8738
▁kollektiv	-10.8741
▁tatar	-10.8742
▁Go	-10.8743
▁qoymuş	-10.8743
▁köpek	-10.8746
▁hökmdarları	-10.8756
▁değişikliği	-10.8756
▁molekul	-10.8761
▁İngiltere	-10.8761
▁orqanizmin	-10.8764
uyor	-10.8764
▁dağıt	-10.877
ore	-10.8771
▁yaradıb	-10.8771
▁kanseri	-10.8777
tən	-10.8779
▁ölçüləri	-10.8779
▁tehlike	-10.8787
▁çəkisi	-10.8789
qan	-10.8795
▁öğrenmek	-10.8798
▁soğuk	-10.88
▁Balkan	-10.88
▁iyirmi	-10.88
▁filialı	-10.8801
▁heyət	-10.8805
▁kaçır	-10.8806
▁Nur	-10.8806
▁ölən	-10.8806
▁çəkilməsi	-10.8808
▁sokak	-10.8809
▁baza	-10.8809
▁elektronik	-10.8812
▁folklor	-10.8812
ayım	-10.8813
kça	-10.8816
▁kəndlərin	-10.8819
▁Martin	-10.882
mür	-10.8826
▁köy	-10.8828
▁işində	-10.8833
▁arxiv	-10.8838
▁Vyana	-10.8838
▁ettiğim	-10.8839
▁hatırla	-10.8841
saydı	-10.8842
ği	-10.8843
▁bazası	-10.8845
▁yazılan	-10.885
▁40-	-10.8852
▁birine	-10.8853
dığınız	-10.8853
▁tayfaların	-10.8854
▁ədalət	-10.8854
▁katib	-10.8854
lardaki	-10.8858
evre	-10.8859
▁birden	-10.8859
▁kuvvet	-10.8865
mıştım	-10.8866
▁bələdiyyə	-10.8869
▁benzeri	-10.8869
▁gətirmişdi	-10.8869
▁birləşməsi	-10.887
▁xalçalar	-10.8874
▁qalın	-10.8876
▁Mikayıl	-10.8876
▁Ramazan	-10.8876
▁Bakıxanov	-10.8876
▁Əbdül	-10.8876
▁böyüyü	-10.8877
▁Devletler	-10.8877
▁hakimiyyətdə	-10.8878
▁əlifbası	-10.888
fet	-10.8881
▁Şəhərdə	-10.8881
▁verilen	-10.8884
▁otağı	-10.8884
▁Hüseynzadə	-10.8885
▁kullanıcı	-10.8888
▁net	-10.8892
▁hepimizin	-10.8892
▁şahmat	-10.8896
▁liste	-10.89
▁bilmirdi	-10.8902
▁buldu	-10.8903
medi	-10.8903
▁tanrısı	-10.8903
▁daşıyırdı	-10.8906
▁etməlidir	-10.8907
▁musiqisini	-10.891
ood	-10.8911
▁düşərgə	-10.8913
▁bilsin	-10.8914
▁Merkuri	-10.8915
▁intellekt	-10.8915
▁zayıf	-10.8915
▁Texnologiya	-10.8915
▁şirəsi	-10.8915
ilyam	-10.8915
▁vurur	-10.8915
▁yetirə	-10.8919
ly	-10.8923
▁oynamış	-10.8925
▁bağları	-10.8928
▁yeteneği	-10.893
▁tablo	-10.8931
lerimizin	-10.8932
▁mimari	-10.8933
▁atla	-10.8934
▁ayına	-10.8934
▁təsvirləri	-10.8936
▁çağı	-10.8936
▁elementlər	-10.8937
▁gəlirdi	-10.8938
kta	-10.8938
▁aparmışdı	-10.8939
▁benimle	-10.894
▁işlənir	-10.8947
▁olmama	-10.8948
sna	-10.8949
▁taxt	-10.8949
▁Səlcuq	-10.8949
▁sürət	-10.8949
▁şüphe	-10.8952
▁Serbiya	-10.8954
▁buçuk	-10.8955
▁Heç	-10.8957
▁70-	-10.8958
▁evde	-10.896
▁değiştirme	-10.8962
▁təriqət	-10.8963
▁başlaya	-10.8964
▁Nic	-10.8965
▁meyvələri	-10.8967
▁əlamətləri	-10.897
▁görünüş	-10.8975
▁əsərlərin	-10.8976
▁kəndlərində	-10.8978
▁görmeye	-10.8981
mayacak	-10.8981
▁fayda	-10.8981
▁kitabə	-10.8987
oo	-10.8988
▁Döyüş	-10.8989
▁istediğiniz	-10.899
▁Portuqaliya	-10.8993
▁becəril	-10.8993
▁bəlli	-10.8993
▁elementləri	-10.8994
▁gösterme	-10.8995
▁arta	-10.8996
▁turnir	-10.8999
▁komandasını	-10.9002
▁quraq	-10.9006
▁anlatı	-10.9009
▁bilərsiniz	-10.901
▁yazılım	-10.901
▁saxlan	-10.9014
▁pillə	-10.9018
▁nişan	-10.9019
▁kum	-10.9019
▁əti	-10.902
ider	-10.9021
▁sordu	-10.9023
▁hazırladı	-10.9024
▁Bol	-10.9026
▁fakültəsin	-10.9028
▁toplu	-10.9031
▁Köhnə	-10.9032
▁Müstəqil	-10.9032
▁radikal	-10.9032
▁kağıt	-10.9032
▁İldırım	-10.9032
▁Vaxt	-10.9032
▁yayılır	-10.9033
▁istismar	-10.9037
▁dəhşətli	-10.9037
▁besle	-10.9041
▁kaza	-10.9041
▁xəbəri	-10.9043
9-	-10.9046
▁inancı	-10.9046
▁meşələri	-10.9047
▁proseslər	-10.9048
mem	-10.9048
▁uğursuz	-10.905
▁Ələkbərov	-10.9052
▁hərəkat	-10.9053
▁And	-10.9055
▁Rami	-10.9055
▁alanında	-10.9057
▁tipik	-10.906
abilen	-10.9063
▁görünüşü	-10.9067
▁Gel	-10.9069
▁nefret	-10.9071
▁tuhaf	-10.9071
▁həddə	-10.9071
▁yemeği	-10.9071
▁göreceksiniz	-10.9071
▁öldür	-10.9076
▁orqan	-10.9077
▁yakıt	-10.9077
▁keçmək	-10.9078
▁sizə	-10.9081
▁olanı	-10.9083
▁kendisini	-10.9083
▁Sultanov	-10.9084
▁ləqəbi	-10.9084
▁sorumlu	-10.9085
ras	-10.9086
▁1951-	-10.9086
▁qrupları	-10.9087
fel	-10.9089
▁edilmə	-10.9092
▁keçdiyi	-10.9092
▁kinostudiyası	-10.9092
▁mahnını	-10.9093
▁boyun	-10.9095
▁diz	-10.9096
▁Məmmədova	-10.9099
▁dediler	-10.9105
üstə	-10.911
▁aparıb	-10.911
▁imtahan	-10.911
▁ticari	-10.911
▁səyyah	-10.911
▁İlyas	-10.9111
▁Yanvar	-10.9111
▁deri	-10.9112
▁çocuğu	-10.9113
▁etiket	-10.9114
▁Ermənilər	-10.912
▁dergi	-10.912
▁dövrlər	-10.912
ilmesi	-10.9121
▁görünen	-10.9122
▁qüllə	-10.9123
▁parkı	-10.9128
▁qanunları	-10.913
▁sevdiğim	-10.9132
▁yolun	-10.9133
▁önem	-10.9134
▁Dədə	-10.9135
▁biləcəyi	-10.9138
▁halk	-10.9138
▁hündürlükdə	-10.914
daş	-10.9144
▁binaları	-10.9146
▁Sasani	-10.9147
lke	-10.9148
▁dü	-10.9149
▁Maarif	-10.915
▁seçenek	-10.915
▁yönlendir	-10.915
urnalistika	-10.915
▁1911	-10.915
▁çaylar	-10.915
niversitesi	-10.9153
▁xatırladır	-10.9154
▁birleştir	-10.9155
▁fəlsəfəsi	-10.9155
▁açar	-10.9157
lənməsi	-10.9159
layacak	-10.916
▁hərəkətləri	-10.9162
▁Hiçbir	-10.9167
ff	-10.9168
▁məzar	-10.9171
▁praktik	-10.9172
▁sordum	-10.9173
▁Əliyeva	-10.9174
▁1995	-10.9179
▁ödeme	-10.9179
▁renk	-10.9185
▁alırdı	-10.9185
▁anlaşma	-10.9186
▁hərəkatını	-10.9187
▁Məktəbin	-10.9187
▁İnkişaf	-10.9189
▁spektr	-10.9189
▁Həqiqət	-10.9189
▁nazil	-10.9189
▁molla	-10.919
▁suvarma	-10.919
▁nitq	-10.919
▁qulaq	-10.919
▁çöp	-10.919
▁demiş	-10.9192
altı	-10.9195
▁müharibələri	-10.9196
▁termin	-10.9197
▁etdirdiyi	-10.9199
▁tələbələri	-10.92
▁şeklinde	-10.9207
▁sıxlığı	-10.9208
▁şeydir	-10.9211
▁oxuduğu	-10.9217
tif	-10.9222
▁ölkəsində	-10.9224
umuz	-10.9225
▁anahtar	-10.9229
▁patent	-10.9229
iler	-10.9231
▁İngilizce	-10.9231
▁anlaşıl	-10.9233
ök	-10.9235
▁kullanılan	-10.9239
ləşmə	-10.9244
lend	-10.9244
▁çalıştım	-10.9245
▁caz	-10.9249
▁deyib	-10.9249
▁meşələr	-10.9252
▁mövcudluğu	-10.9254
▁mahal	-10.9256
▁Bakını	-10.9257
mis	-10.9257
▁heykəl	-10.9263
▁vuruş	-10.9263
▁Həmid	-10.9265
▁publisist	-10.9265
▁fakültə	-10.9268
▁filosof	-10.9269
▁möcüzə	-10.9269
qat	-10.9269
landığı	-10.927
▁Qəzet	-10.9271
öl	-10.9273
▁canavar	-10.9274
▁bıraktı	-10.9274
▁romantik	-10.9274
▁bilməmişdi	-10.9275
▁açılan	-10.9276
▁buydu	-10.9276
▁evləri	-10.9276
▁hesablama	-10.928
▁Venera	-10.9282
▁solo	-10.9282
▁kilometre	-10.9282
▁denedi	-10.9284
▁şeyden	-10.9285
▁boğazı	-10.9287
larınız	-10.9287
▁geçiş	-10.9287
miyorum	-10.9289
▁konuşu	-10.9291
▁toplumun	-10.9291
▁düşmə	-10.9291
▁Kərbəlay	-10.9295
▁Pek	-10.9295
▁Ses	-10.9297
▁aləmi	-10.9298
nıza	-10.93
▁yakında	-10.93
▁axını	-10.9302
▁soyu	-10.9303
▁artırır	-10.9303
▁sahilləri	-10.9304
▁təsirini	-10.9305
▁oxuya	-10.9305
▁kapat	-10.9305
▁bağlan	-10.9307
▁kaynakları	-10.9309
▁Bədi	-10.9309
▁düşüb	-10.9309
▁vəsiqə	-10.931
▁axtarış	-10.931
▁makina	-10.9311
▁tepe	-10.9311
▁apardı	-10.9313
▁uzan	-10.9314
▁çıxmaq	-10.9321
▁olmayacak	-10.9321
▁çempion	-10.9322
▁edirəm	-10.9328
iza	-10.9337
▁Kol	-10.9339
▁1997	-10.934
▁bilin	-10.934
▁Mah	-10.9342
▁Sina	-10.9343
▁qadının	-10.9344
▁is	-10.9344
▁Elbette	-10.935
▁Yevlax	-10.935
▁estetik	-10.935
▁yanaşma	-10.935
▁kasıb	-10.9351
▁gözəllik	-10.9355
▁fərqlənmə	-10.9357
▁dol	-10.9359
▁bugünkü	-10.937
▁formasını	-10.9371
▁üsulları	-10.9373
▁metro	-10.9382
▁dile	-10.9383
▁axar	-10.9384
▁idarəsində	-10.9385
▁gid	-10.9385
▁so	-10.939
▁Abidə	-10.939
▁yolculuk	-10.939
▁talış	-10.9391
▁ob	-10.9391
▁sahibdir	-10.9392
▁duygusal	-10.9392
▁rayonda	-10.9392
▁təbiəti	-10.9393
▁hesaplama	-10.9396
▁Milan	-10.9398
▁mətni	-10.9399
▁dəyişiklik	-10.9399
▁təhlükəsizli	-10.9399
cak	-10.94
▁əsərlərindən	-10.9401
▁variant	-10.9401
▁bakmak	-10.9401
hat	-10.9404
▁sonda	-10.9405
eğe	-10.9405
▁aparmış	-10.9406
▁vəzifələri	-10.9408
▁Gəncəvi	-10.9416
▁benze	-10.942
▁komissiyası	-10.9421
▁olabileceği	-10.9421
ebilmek	-10.9423
▁vəziyyətini	-10.9423
▁1994	-10.9424
▁təhlükəsi	-10.9426
▁rəsm	-10.9429
▁hazırladığı	-10.943
▁Şöyle	-10.9431
▁grafik	-10.9431
▁qaranlıq	-10.9431
▁Turizm	-10.9431
Y	-10.9432
▁geolo	-10.9432
▁salgın	-10.9433
▁qalınlığı	-10.9433
▁tikilməsi	-10.9435
▁okeanı	-10.9442
▁hissələrində	-10.9444
▁çıkarı	-10.9446
▁Bayan	-10.9447
▁ideyaları	-10.9453
▁sentyabrında	-10.9453
▁mərkəzlərində	-10.9454
mden	-10.9456
əfərov	-10.9456
▁Tel	-10.9457
▁qayıdı	-10.9458
▁bağlaya	-10.9463
▁görülə	-10.9465
▁Osmanlılar	-10.9466
res	-10.9466
▁elçi	-10.9467
▁sizinle	-10.9471
abileceği	-10.9471
▁tutulmuşdu	-10.9472
▁Beyləqan	-10.9472
▁HIV	-10.9472
▁Kəngərli	-10.9472
▁konstitusiya	-10.9472
▁Xətai	-10.9472
▁hədis	-10.9472
▁ağaç	-10.9473
▁mühitin	-10.9474
▁anti	-10.9475
▁tutduğu	-10.9476
leşti	-10.9478
▁yapacağı	-10.9479
▁dəqiqədə	-10.9482
▁tamaşası	-10.9486
▁ölç	-10.9491
▁azalması	-10.9493
▁etmədi	-10.9495
▁Məhəmmədh	-10.9497
▁olmayıb	-10.9498
▁sinyal	-10.9499
▁kurs	-10.9502
artan	-10.9503
▁çempionatını	-10.9505
▁çocuğun	-10.9505
▁məsuliyyət	-10.9507
ack	-10.9508
▁qələbəsi	-10.9509
▁kalk	-10.951
▁xadim	-10.9512
leytenant	-10.9513
▁Kabineti	-10.9513
▁Xınalıq	-10.9513
▁səsvermə	-10.9513
▁Nəsimi	-10.9513
▁dramatik	-10.9513
▁Harika	-10.9513
▁şifa	-10.9513
▁dövrümüzə	-10.9513
▁Nəsir	-10.9513
▁mağaza	-10.9513
▁Tunc	-10.9514
▁məskəni	-10.9514
▁Dadaşov	-10.9516
▁yapabilirsiniz	-10.9516
▁göstərməyə	-10.9517
▁proqramları	-10.9518
▁terk	-10.9524
▁kayıt	-10.9525
▁iştirakçıları	-10.9527
abileceğimiz	-10.9533
▁kaba	-10.9546
▁mərasim	-10.9547
▁kör	-10.955
▁fərqlənə	-10.9554
ts	-10.9564
▁silsilə	-10.9566
▁İngiltərədə	-10.9567
ımızı	-10.9567
▁farkı	-10.9568
ulmuş	-10.9568
▁maddəsi	-10.9573
▁xor	-10.9573
▁izlə	-10.9575
▁göstərici	-10.9582
▁düşə	-10.9583
▁matematik	-10.9586
▁2014	-10.9586
▁47	-10.959
▁yaptığınız	-10.9592
▁devrim	-10.9592
▁hicri	-10.9595
▁keşif	-10.9595
▁hafif	-10.9595
▁qayıda	-10.9596
▁çevrilməsi	-10.9596
▁futbolçusu	-10.9599
ınız	-10.9599
▁gazete	-10.9599
▁Eski	-10.96
▁məsələlərin	-10.96
lerdir	-10.9608
diğinde	-10.961
▁zona	-10.961
▁birlik	-10.9612
▁dönüşüm	-10.9617
▁çıxışı	-10.9618
▁redaksiyasın	-10.9618
▁dərə	-10.9619
▁Sadıq	-10.9621
▁əhəmiyyətini	-10.9621
▁məqalələri	-10.9622
▁gelişmiş	-10.9623
▁araştır	-10.9624
eo	-10.9624
▁üzəri	-10.9626
▁dastanı	-10.9634
▁başlaması	-10.9635
▁52	-10.9636
piano	-10.9637
▁qoyula	-10.9637
▁Fikr	-10.9637
▁bildirilir	-10.9638
▁Bədən	-10.9639
▁Nuru	-10.964
▁vitamin	-10.9642
▁balaca	-10.9643
▁komediya	-10.9646
▁içmə	-10.9647
▁şərt	-10.9647
▁Ayın	-10.965
▁çıxarıla	-10.9652
▁Kız	-10.9655
▁səfiri	-10.9655
▁oyuncu	-10.9657
▁edilməli	-10.9658
▁olmamışdı	-10.9659
▁yılı	-10.966
▁verdiği	-10.9661
▁firma	-10.9662
▁yaklaş	-10.9663
▁gözləri	-10.9663
▁göllər	-10.9667
▁açısı	-10.9669
▁gez	-10.967
▁yığması	-10.9672
▁dediği	-10.9677
▁etdirilməsi	-10.9678
▁sürdürülebilir	-10.9678
▁Qısa	-10.9678
bər	-10.968
▁zorundayız	-10.9681
lardır	-10.9682
▁olayı	-10.9684
▁Anna	-10.9687
▁güney	-10.9688
▁üstüne	-10.9689
▁nəzər	-10.9689
▁şəhərlər	-10.969
50	-10.9692
▁martında	-10.9694
▁sesleri	-10.9696
▁zavod	-10.9697
▁kalıyor	-10.9699
▁borc	-10.97
▁klubunda	-10.9702
▁olunmasında	-10.9703
▁azdır	-10.9706
▁Paşanı	-10.9706
leyerek	-10.9709
asp	-10.9712
▁artırmaq	-10.9723
▁yönetim	-10.9725
▁Tarixçi	-10.9726
▁meydanı	-10.9726
▁değiştirdi	-10.9728
▁oktyabrında	-10.9728
▁qeydiyyat	-10.9731
▁alanları	-10.9733
▁sit	-10.9735
▁mənzil	-10.9738
▁tədqiqatçı	-10.9738
yacak	-10.9741
▁St	-10.9741
▁Anne	-10.9742
▁değerli	-10.9742
▁hakimləri	-10.9742
layabilir	-10.9747
▁qorunu	-10.975
▁bulut	-10.9753
▁Val	-10.9753
▁hamısını	-10.9753
▁av	-10.9757
▁Parkı	-10.9759
▁ötürü	-10.9762
kommunikasiya	-10.9762
▁aktivite	-10.9763
▁edip	-10.9763
▁çarpa	-10.9765
▁cinsel	-10.9765
▁giderek	-10.9765
▁Qazi	-10.9766
▁əlyazma	-10.977
▁höküməti	-10.9771
▁fare	-10.9771
▁ceza	-10.9772
▁yapıyorum	-10.9775
▁olunmaq	-10.9776
▁Anti	-10.9777
▁çoxluğu	-10.9778
▁metod	-10.978
▁açtı	-10.9781
▁aklım	-10.9786
▁partiyasını	-10.9789
▁mahalında	-10.9791
▁ger	-10.9791
▁qitə	-10.9793
▁ittifaqı	-10.9793
▁26-	-10.9794
▁olabileceğini	-10.9795
▁qr	-10.9796
▁məktəblərdə	-10.9796
▁ənənəsi	-10.9797
▁Xa	-10.9798
▁2015	-10.9799
▁digərləri	-10.9802
▁götürmüşdü	-10.9804
▁besin	-10.9804
▁eyalet	-10.9804
▁göndərildi	-10.9805
▁bekliyor	-10.9805
indeki	-10.9806
▁istədiyi	-10.9808
Peterburq	-10.9809
▁keçirməyə	-10.981
▁çəkdi	-10.9811
▁problemlərin	-10.9812
▁etkilen	-10.9813
▁planetin	-10.9813
lerdeki	-10.9814
▁Kuba	-10.9814
▁amerikalı	-10.9815
▁yaptığını	-10.9816
▁etmeyi	-10.982
▁Yu	-10.982
▁məmulatı	-10.9822
miştir	-10.9825
laşdırma	-10.9827
▁yazmaq	-10.9828
▁bər	-10.9828
birini	-10.9833
▁yapay	-10.9834
▁qiymətlər	-10.9834
▁pedaqoq	-10.9836
▁Kimya	-10.9839
▁kanun	-10.9841
▁evrenin	-10.9842
▁həndəs	-10.9843
üəyyən	-10.9844
▁kapitan	-10.9847
zel	-10.9848
▁istediği	-10.9849
▁işlədilir	-10.985
zer	-10.9852
▁değiliz	-10.9861
dil	-10.9861
▁öğrendik	-10.9862
▁Bor	-10.9862
▁yazmağ	-10.9863
matik	-10.987
▁Muzeyi	-10.9872
▁yaratmağ	-10.9873
▁olmağı	-10.9873
ləşdirilmiş	-10.9874
▁baxış	-10.9875
▁hepiniz	-10.988
▁bənd	-10.9889
▁ameliyat	-10.9889
▁intihar	-10.9889
▁kahraman	-10.9889
▁şifre	-10.9889
▁söyləyir	-10.9889
▁radyo	-10.989
▁oğuz	-10.9891
nur	-10.9891
▁Art	-10.9897
maları	-10.9897
rü	-10.9898
▁yerleştir	-10.9905
▁şehrin	-10.991
▁Eş	-10.9911
▁bağlayır	-10.9911
▁Əmin	-10.9912
▁ərəbcə	-10.9913
▁kapa	-10.9915
▁Fondu	-10.9915
▁məs	-10.9922
▁meydanında	-10.9922
▁ödül	-10.9924
kop	-10.9926
▁İspan	-10.993
▁kökü	-10.993
▁Məryəm	-10.9932
▁maqnit	-10.9932
▁şiir	-10.9932
▁müstə	-10.9933
▁xəbərdar	-10.9933
▁anlattı	-10.9935
▁İkincisi	-10.9936
▁yayında	-10.9936
▁yatağı	-10.9939
▁mənzərə	-10.9945
▁lent	-10.9947
▁sağlar	-10.9954
▁yapıldı	-10.9955
lməsi	-10.9957
▁fizik	-10.996
▁etməkdədir	-10.9963
▁bürc	-10.9965
▁anlar	-10.9968
▁dissertasiya	-10.9969
▁hissələr	-10.9973
▁Röv	-10.9975
▁rəngarəng	-10.9975
▁Hitler	-10.9976
▁günlərdə	-10.9976
▁Elxan	-10.9977
▁virüs	-10.9978
▁rakam	-10.9978
▁təminatı	-10.9979
▁inanç	-10.998
▁don	-10.9981
▁geldiğinde	-10.9982
▁miktar	-10.9982
▁Ser	-10.9984
▁fotoğrafı	-10.9987
▁oluşturuyor	-10.9988
▁axtar	-10.9993
▁başlanması	-10.9996
▁şirkətini	-10.9997
▁Bize	-10.9997
▁ulaşma	-10.9998
▁obrazları	-10.9998
▁rəhbərləri	-11.0003
▁önemlidir	-11.0004
▁topluluk	-11.0006
▁təhlil	-11.0008
▁açan	-11.001
▁qlobal	-11.0014
▁uygulan	-11.0016
▁sülaləsini	-11.0016
▁detay	-11.0017
▁başlanır	-11.0017
▁şüşə	-11.0018
▁Afganistan	-11.0018
▁Vəliyev	-11.0019
▁kaybol	-11.0023
▁Günü	-11.0023
▁institutu	-11.0024
▁həvəskar	-11.0026
ocuklar	-11.0027
▁alçaq	-11.0028
▁bitirən	-11.0029
▁mövqeyini	-11.0031
▁orda	-11.0034
▁Əlizadə	-11.0035
▁özgür	-11.0037
▁Sonun	-11.0037
▁buranı	-11.004
▁öldürülmüşdü	-11.0043
▁eşi	-11.0044
▁Erkə	-11.0045
luyor	-11.0048
lıkla	-11.0049
▁filmlərin	-11.0049
▁faktor	-11.005
▁kitle	-11.0056
▁ideya	-11.0057
üzə	-11.0058
▁qolunu	-11.0059
meme	-11.0059
▁qolları	-11.006
▁Ağstafa	-11.0061
▁restoran	-11.0061
▁Türkmən	-11.0061
▁kemik	-11.0061
▁istiyorlar	-11.0061
▁zəmin	-11.0062
▁uluslararası	-11.0062
çuluq	-11.0065
▁sahibləri	-11.0066
dadır	-11.0067
▁turşusu	-11.0067
▁Bas	-11.0072
▁oluşturmak	-11.0072
▁qəhrəmanları	-11.0074
razılıq	-11.0076
▁1500	-11.0077
▁təkan	-11.0079
▁geldik	-11.0081
▁illərə	-11.0082
▁uyar	-11.0083
▁mühafizəsi	-11.0083
▁simfoni	-11.0084
▁torpağı	-11.0085
▁bildiyi	-11.0087
▁çata	-11.0087
▁Kişi	-11.0098
▁41	-11.0099
▁dolları	-11.0099
ımızın	-11.0104
larınızı	-11.0104
▁həssas	-11.0105
▁dekabrında	-11.0106
▁toplusu	-11.0107
-19	-11.0107
▁respublikada	-11.011
▁liqa	-11.0112
yanı	-11.0112
▁bilərik	-11.0113
▁katıl	-11.0117
▁kullandığı	-11.0117
incə	-11.0121
▁seçme	-11.0121
▁komandanlığı	-11.0121
▁oğul	-11.0122
▁ülkelerin	-11.0122
▁koku	-11.0125
▁aklı	-11.0125
,3	-11.0128
▁cərəyanı	-11.013
qay	-11.0134
▁prinsipləri	-11.0134
▁gerçeklik	-11.0136
▁Həzrət	-11.0136
▁göstərilmişdi	-11.0138
▁digəri	-11.0138
▁məlumatların	-11.0139
ime	-11.0139
diklerini	-11.014
▁bilmişdi	-11.0142
▁95	-11.0142
▁ayar	-11.0142
şünaslı	-11.0143
▁bölgüsü	-11.0144
ivan	-11.0147
▁hazırlayır	-11.0147
▁Göl	-11.0148
▁Türküstan	-11.0149
▁sərnişin	-11.0149
▁debüt	-11.0149
▁palçıq	-11.0149
▁dürüst	-11.0149
▁adalet	-11.015
▁hasil	-11.015
▁bilmek	-11.0152
▁etməkdən	-11.0154
▁təbiətin	-11.0157
▁göndərilə	-11.0157
▁şəxsiyyətlər	-11.0158
▁nesne	-11.0158
▁rollar	-11.0161
layıp	-11.0162
lənmə	-11.0163
örü	-11.0169
▁Pas	-11.0169
▁gövdə	-11.0173
▁dağlarını	-11.0174
▁ölmüş	-11.0174
▁düny	-11.0174
ştır	-11.0175
nizin	-11.0176
▁işləmək	-11.0177
liler	-11.0178
tdi	-11.0178
▁dərində	-11.0179
▁kanal	-11.0181
▁Əsəd	-11.0183
▁getirme	-11.0185
▁çıkı	-11.0186
syonu	-11.0188
▁günlərində	-11.0188
▁Boy	-11.0188
▁dəyişi	-11.0189
▁inanma	-11.0192
▁Microsoft	-11.0192
▁məharətl	-11.0192
▁açılmış	-11.0193
▁sahələrini	-11.0193
▁Ermənistanda	-11.0194
▁toplanması	-11.0194
▁27-	-11.0196
▁mahnısını	-11.0199
▁bölgəni	-11.0199
▁məntiqi	-11.0199
amal	-11.0199
▁Həmzə	-11.0202
▁avtomat	-11.0207
leniyor	-11.0209
▁işle	-11.021
▁operator	-11.0211
həsə	-11.0212
yıp	-11.0212
▁paylaşmak	-11.0212
▁ailədə	-11.0213
▁seçkilərində	-11.0215
▁müalicəsi	-11.0218
▁ettir	-11.0218
▁azaltma	-11.0219
▁tutmaq	-11.022
▁vasitələr	-11.0221
▁Kay	-11.0222
▁maliyet	-11.0223
ulfa	-11.0224
larındaki	-11.0227
▁zamanla	-11.023
▁hikayeler	-11.0231
▁nəsr	-11.0232
▁birbirin	-11.0235
▁Atatürk	-11.0236
▁əzəmət	-11.0236
▁Qərib	-11.0237
iqtisadi	-11.0237
▁Şöhr	-11.0238
▁Təsərrüfatı	-11.0239
▁artdı	-11.0241
▁bolşeviklər	-11.0241
▁Kürd	-11.0242
▁təhsilin	-11.0243
azar	-11.0243
▁dərsləri	-11.0244
▁qoyan	-11.0245
▁valideynləri	-11.0246
▁düşündü	-11.0247
▁hesabat	-11.0247
əmiyyətini	-11.025
▁ruhani	-11.0251
▁əmin	-11.0255
▁olduk	-11.0256
▁adıdır	-11.0257
▁alacak	-11.0258
bucaq	-11.0262
▁savaşı	-11.0263
▁Daşkə	-11.0268
lıkta	-11.0269
▁Am	-11.0269
eynalov	-11.0271
▁64	-11.0271
▁damar	-11.0272
▁islahatlar	-11.0275
▁başlanğıcı	-11.0276
▁yerler	-11.0276
▁kıyı	-11.0279
Q	-11.0279
ağac	-11.028
▁şəri	-11.028
▁altyapı	-11.0281
▁Bilirsiniz	-11.0281
▁1898	-11.0281
▁transfer	-11.0281
▁Gördüğünüz	-11.0282
▁Vəkilov	-11.0283
▁Rafi	-11.0283
▁yaşaması	-11.0283
▁çətindir	-11.0286
▁oxuyur	-11.0288
▁qalmaqda	-11.029
▁tikilə	-11.029
ray	-11.029
▁çoğunlukla	-11.029
▁mantıklı	-11.0291
▁önümüzde	-11.0297
▁yığı	-11.0297
▁Elektron	-11.0298
▁oyununda	-11.0299
▁Yaponiyada	-11.0299
▁nevi	-11.0301
▁Ermənistanı	-11.0303
▁çiy	-11.0304
▁yenilik	-11.0308
▁topluluğu	-11.0309
▁1,5	-11.0313
trü	-11.0318
▁Veri	-11.032
▁torpağın	-11.0321
ual	-11.0322
▁zihni	-11.0325
▁ayakkabı	-11.0325
▁intensiv	-11.0325
▁kommunist	-11.0325
▁təhrif	-11.0325
▁etdirib	-11.0325
▁fazlasını	-11.0328
▁hayatımı	-11.0328
▁köçür	-11.0329
▁karşılaştır	-11.0329
▁bilinen	-11.0331
▁hək	-11.0332
▁üstə	-11.0336
▁unut	-11.0337
lıyım	-11.0337
▁Konservatoriya	-11.0342
▁qərargahı	-11.0349
▁dünyanı	-11.035
▁külək	-11.0354
iyordu	-11.0356
of	-11.0357
kül	-11.0357
▁keç	-11.0357
▁verecek	-11.0359
▁Anası	-11.0359
▁uyum	-11.036
acaktır	-11.0363
▁yüzyılda	-11.0363
▁torpaqlarında	-11.0365
▁Əzim	-11.0369
▁Şahrux	-11.037
▁saniyə	-11.0371
▁olabilecek	-11.0373
▁mükafatını	-11.0375
▁tənqidi	-11.0376
▁ötesinde	-11.0376
nızın	-11.0379
▁yaşamak	-11.0381
▁ayağa	-11.0382
▁doğrusu	-11.0383
▁şiş	-11.0384
▁məhsullarını	-11.0385
▁toxum	-11.0387
▁başçıları	-11.0389
meden	-11.0391
▁korumak	-11.0394
▁adlandır	-11.0395
ırken	-11.04
▁yanıt	-11.0402
ümə	-11.0402
▁qalması	-11.0402
▁karıştır	-11.0407
▁İtaliyada	-11.0408
▁ictimaiyyət	-11.0408
üseyn	-11.0412
▁koyar	-11.0412
▁örtü	-11.0415
▁hatırlıyorum	-11.0416
▁artırılması	-11.0416
▁rapor	-11.0416
▁türleri	-11.0417
▁kəsilmiş	-11.0418
▁satiri	-11.0418
▁ulus	-11.0419
layarak	-11.042
lıyoruz	-11.0421
iyyət	-11.0422
▁pərdə	-11.0424
birinin	-11.0424
▁Tar	-11.0426
▁məşğuliyyət	-11.0426
▁fondu	-11.0426
▁Şirkətin	-11.0428
▁Rome	-11.0429
▁Elçin	-11.0429
ril	-11.043
▁daşlar	-11.043
lub	-11.043
▁tasarımı	-11.0433
lenmesi	-11.0442
▁Muzeyin	-11.0445
▁vulkan	-11.0446
▁deli	-11.0449
▁qurğuları	-11.045
▁camaatı	-11.0453
▁olasılık	-11.0458
▁İngiliz	-11.0458
▁sorma	-11.0458
▁Kam	-11.0458
▁qənaət	-11.046
▁məskunlaşdı	-11.046
▁gələcəyi	-11.046
▁sivil	-11.046
▁his	-11.046
▁Bülbül	-11.046
▁Xoy	-11.0461
ondra	-11.0463
▁ölçüde	-11.0464
▁dek	-11.0466
neye	-11.0466
ong	-11.0467
önü	-11.0468
▁şok	-11.0469
▁yönde	-11.0475
▁metrə	-11.0477
▁post	-11.0477
▁məskunlaşmışdı	-11.0481
▁Fai	-11.0481
▁Bitki	-11.0482
▁alış	-11.0483
▁varlığını	-11.0486
▁sizlere	-11.0487
yseniz	-11.0488
▁yüksəkliyi	-11.0488
▁ürünleri	-11.0489
liğine	-11.049
▁yoluyla	-11.0491
▁ofis	-11.0491
▁adasında	-11.0495
▁Yazı	-11.0497
▁1984	-11.05
0.000	-11.0503
▁zövq	-11.0505
▁ünsiyyət	-11.0505
ərdabi	-11.0505
▁çalışmalar	-11.0506
▁yanğın	-11.0507
▁Ştatları	-11.0509
▁çat	-11.051
▁gurur	-11.0512
▁Sonuncu	-11.0515
▁qazanmışdı	-11.0515
urnalın	-11.0516
▁çı	-11.0516
▁xəstəliklərin	-11.0517
▁diyarı	-11.0518
▁olmuştu	-11.0521
▁tabeliyində	-11.0528
▁Xristian	-11.0528
▁dolduru	-11.053
▁çağrı	-11.0532
▁yanacaq	-11.0532
▁Aile	-11.0534
▁etibarlı	-11.0535
▁sarayda	-11.054
▁naxış	-11.0545
▁qoyulu	-11.0545
giya	-11.0545
▁minə	-11.0545
▁1975	-11.0546
▁verilmə	-11.0546
▁yəhudilər	-11.0547
▁xəttini	-11.0547
▁gittik	-11.0548
▁qaçqın	-11.055
▁Aristotel	-11.055
▁Təxmin	-11.055
▁yumşaq	-11.055
ilebilir	-11.0551
▁kosmos	-11.0554
▁gerekirse	-11.0554
▁neyin	-11.0555
▁büyüt	-11.0557
▁xatirəsin	-11.0557
leyecek	-11.0557
▁kavram	-11.0558
▁İşçi	-11.0558
tığımız	-11.056
▁üzünü	-11.056
iqa	-11.0562
▁prosesini	-11.0567
▁kapalı	-11.0567
▁kural	-11.0572
60	-11.0573
▁atlı	-11.0575
▁dediğimiz	-11.0575
▁vermə	-11.0575
▁keçmişdi	-11.0575
▁olanak	-11.0576
▁Frans	-11.0578
▁öğrenciler	-11.058
▁vermir	-11.0581
and	-11.0581
sever	-11.0582
ümhuriyyətini	-11.0585
▁yeti	-11.0588
▁çalışması	-11.059
▁başarısız	-11.0593
▁Vəzir	-11.0593
▁21-	-11.0595
▁şeker	-11.0596
eyms	-11.0596
▁cinsiyet	-11.0598
▁işlədil	-11.0601
▁proseslərin	-11.0601
▁tapıla	-11.0602
▁təbliğat	-11.0604
▁pyesi	-11.0607
▁sağlığı	-11.0608
▁mimar	-11.0609
▁yaza	-11.0609
▁Yara	-11.0612
▁değişiklikler	-11.0617
▁AD	-11.062
▁xidmətlər	-11.0623
▁hadisəni	-11.0624
▁şerlər	-11.0626
ens	-11.0628
▁yaratı	-11.0629
▁binaların	-11.0632
meleri	-11.0633
▁1988	-11.0637
▁yüzey	-11.0637
▁içer	-11.0638
▁Boz	-11.0641
▁dışarıda	-11.0641
▁tespit	-11.0642
▁tövsiyə	-11.0642
▁parlak	-11.0642
▁əzab	-11.0642
▁yargı	-11.0642
▁ideolo	-11.0642
▁sirr	-11.0644
▁2-3	-11.0646
▁kitabda	-11.0647
▁yürüt	-11.0648
▁silahları	-11.0648
▁rəqsi	-11.065
▁diyorum	-11.0652
▁edilməyə	-11.0654
▁öd	-11.0655
▁Kor	-11.0655
duğunu	-11.0656
▁qazandığı	-11.0656
▁iştirakçı	-11.0657
▁boyut	-11.0661
▁çalıştığımız	-11.0664
▁tədqiqatların	-11.0667
empionatı	-11.0669
abilirim	-11.067
▁eğitimi	-11.067
▁evlilik	-11.0673
▁56	-11.0674
indo	-11.0677
▁mah	-11.0678
▁adlandırır	-11.068
▁ayrılması	-11.0682
▁istey	-11.0682
▁1986	-11.0684
▁şəhristanı	-11.0688
▁cümle	-11.0688
▁sala	-11.0689
▁optik	-11.0689
layabiliriz	-11.069
▁öykü	-11.069
▁edebilirsiniz	-11.0691
▁buluş	-11.0698
▁metodu	-11.0698
▁Əh	-11.07
▁müharibələr	-11.07
▁mübarizəsi	-11.0703
▁böl	-11.0703
▁dağlarında	-11.071
▁başlanğıc	-11.0713
▁xanlıq	-11.0714
▁qoruya	-11.0715
▁İtalyan	-11.0718
▁22-	-11.0727
▁vokal	-11.0728
▁görevi	-11.0729
▁mübahisə	-11.073
▁konsertlər	-11.073
▁sahəni	-11.0731
▁Ədəbi	-11.0732
▁1920	-11.0734
▁Niderland	-11.0734
▁rəqabət	-11.0734
▁dekorativ	-11.0734
▁Belarus	-11.0735
10	-11.0735
▁seçilməsi	-11.0735
▁aktif	-11.0735
▁Kino	-11.0736
▁aparırdı	-11.0738
▁bakıyor	-11.0741
▁oluşturma	-11.0742
▁silahlar	-11.0746
▁pop	-11.0747
üne	-11.0749
▁ağzı	-11.0751
▁kürə	-11.0751
▁Qo	-11.0751
eli	-11.0752
▁Rüstəmov	-11.0752
lerimizde	-11.0754
▁Hepsi	-11.0756
▁düşündüğüm	-11.0759
▁Arş	-11.0759
▁başlanan	-11.0763
▁avqustunda	-11.0764
▁Is	-11.0765
vaz	-11.0766
larımızda	-11.0766
▁nüfus	-11.0767
▁bilgileri	-11.0772
▁noyabrında	-11.0773
▁dənizdə	-11.0773
▁okeanın	-11.0774
▁kuralları	-11.0776
▁1973	-11.0777
▁Yerdə	-11.078
▁Mixail	-11.0781
▁NATO	-11.0781
▁məhkum	-11.0781
▁nükleer	-11.0781
▁Şərəf	-11.0781
▁qarışığı	-11.0781
▁Albert	-11.0781
▁oksigen	-11.0781
▁filminin	-11.0784
ladık	-11.0786
▁misin	-11.0786
▁Kara	-11.0787
▁1909	-11.079
eleri	-11.0794
▁duyar	-11.0794
▁taki	-11.0797
▁sağlama	-11.0797
▁sülalə	-11.08
▁çalışdı	-11.0801
▁BD	-11.0802
▁örtülmüşdü	-11.0804
▁olmadığından	-11.0805
▁dikkatli	-11.0806
ğini	-11.0811
▁edəcəyi	-11.0812
▁şirkətin	-11.0813
şik	-11.0814
▁çılgın	-11.0816
▁çıkarmak	-11.0822
▁təməl	-11.0826
▁seni	-11.0826
▁Facebook	-11.0828
▁bənzəyir	-11.0828
▁Sülh	-11.0828
▁ifasında	-11.0828
▁federal	-11.0829
▁uğradı	-11.0833
▁alını	-11.0833
nra	-11.0834
▁yaradılmasında	-11.0835
▁robotlar	-11.0839
▁yamacında	-11.084
▁Samu	-11.084
▁ehtiyatı	-11.0845
▁diğerleri	-11.0845
▁süqut	-11.0846
▁artist	-11.0846
dy	-11.0847
▁olabilirsiniz	-11.0847
sis	-11.0849
▁kub	-11.0858
▁qaldığı	-11.0858
▁məbləğ	-11.0859
▁oxuyu	-11.0862
ladım	-11.0862
▁dokuz	-11.0863
▁sevir	-11.0863
▁85	-11.0864
▁Ti	-11.0864
▁zamana	-11.0866
▁görüldü	-11.0866
coğrafi	-11.0866
olarsa	-11.0866
ene	-11.0868
▁İrlandiya	-11.087
hvil	-11.087
▁göndərilmişdi	-11.0871
gilan	-11.0871
ll	-11.0873
▁dairəsində	-11.0874
▁tırman	-11.0875
▁səfirliyi	-11.0875
▁balina	-11.0876
▁mutluluk	-11.0876
▁xanımı	-11.0877
▁dillərdə	-11.0877
▁arkasında	-11.0878
▁layihələr	-11.0878
liyyə	-11.0879
▁tor	-11.0879
arl	-11.088
▁tədbirləri	-11.0881
▁yetişkin	-11.0882
▁önüne	-11.0882
▁rəqibi	-11.0885
BM	-11.089
▁dağılması	-11.0893
▁yansıt	-11.0897
▁performans	-11.0898
▁ihtiyaçları	-11.0899
▁analizi	-11.0902
▁bağımlı	-11.0904
▁otel	-11.0905
▁qura	-11.0906
▁xaricində	-11.0907
▁girə	-11.0908
hil	-11.0909
▁münasibətlərin	-11.0911
▁1979	-11.0919
▁kredit	-11.092
▁kəndli	-11.092
▁1950	-11.092
siyahıyaalınması	-11.0922
▁tələffüz	-11.0922
▁qalaktika	-11.0922
▁gelişmekte	-11.0922
▁Elektrik	-11.0923
▁xüsusiyyətlər	-11.0924
▁sümükləri	-11.0927
▁Güzel	-11.0927
▁əski	-11.0928
▁müsəlmanların	-11.0929
▁respublikamız	-11.0929
▁sahibliyi	-11.093
▁Tələbə	-11.093
▁aprelində	-11.093
▁pilot	-11.0933
karı	-11.0935
▁olmamış	-11.0939
▁Fər	-11.094
▁çalışırlar	-11.0941
▁simvol	-11.0943
▁hareketi	-11.0943
▁memarlığı	-11.0943
▁müstəqilliyi	-11.0943
▁vəkil	-11.0944
▁təyinatl	-11.0947
▁Afrikalı	-11.0947
▁önündə	-11.0948
▁faktik	-11.0949
▁girme	-11.095
▁ters	-11.0951
▁müəllimlər	-11.0957
▁ölçek	-11.0958
▁stadionun	-11.0958
▁olunmasını	-11.0959
oy	-11.0968
▁həva	-11.0969
▁Şekspir	-11.0969
▁epey	-11.0969
▁Türbə	-11.0969
▁qırğın	-11.097
▁hayata	-11.097
▁qoymaq	-11.0971
▁kuzey	-11.0971
əngi	-11.0973
▁rəvayətlər	-11.0973
▁şərtlər	-11.0974
net	-11.0977
▁tutumu	-11.0978
▁teatrda	-11.098
imde	-11.0981
▁seyr	-11.0983
▁tədbirlərin	-11.0984
▁bəs	-11.0985
▁Kir	-11.0986
▁etrafı	-11.0986
lıkları	-11.0993
▁ideyası	-11.0993
▁orbit	-11.0994
▁kül	-11.0994
▁ostanı	-11.0994
▁çevrilə	-11.1001
▁oxumağ	-11.1001
aur	-11.1006
▁yapılması	-11.1006
▁etməsini	-11.1008
▁peyğəmbəri	-11.101
▁halka	-11.101
▁xəzinəsi	-11.1011
▁Bazıları	-11.1011
▁şehirler	-11.1012
▁Məhkəmə	-11.1013
▁oxuyan	-11.1015
▁şekillendir	-11.1016
▁Aprel	-11.1017
▁Teknolo	-11.1017
▁çözü	-11.1019
▁çıxdığı	-11.1019
▁Nor	-11.102
▁potansiyel	-11.1021
▁aşk	-11.1021
▁hekayəsi	-11.1022
▁matç	-11.1023
▁Bal	-11.1024
▁məmur	-11.1025
▁oyunlar	-11.1026
▁bilməsi	-11.103
▁keçidi	-11.1032
▁otaqları	-11.1033
▁aparıcısı	-11.1043
▁bölgede	-11.1043
▁standartları	-11.1044
▁tarafında	-11.1045
▁aş	-11.1046
▁götürülmüşdü	-11.1047
▁karşısında	-11.1051
▁ziyalıları	-11.1052
▁Konstitusiya	-11.1055
▁təlimi	-11.1056
▁istedi	-11.1056
▁yaratıyor	-11.106
▁Burda	-11.1062
▁keçmişdə	-11.1063
ülfüqar	-11.1064
▁Katolik	-11.1064
▁lütfen	-11.1065
▁qəbilə	-11.1066
▁salmaq	-11.1067
▁hakları	-11.1067
▁Söyle	-11.1068
▁yaptılar	-11.1068
lenen	-11.1069
▁kullanıyoruz	-11.1069
▁qurmaq	-11.107
▁isterim	-11.1072
▁1904	-11.1072
▁organizasyon	-11.1073
▁ölkəsini	-11.1075
▁komissiya	-11.1077
▁kok	-11.1083
▁olmaktan	-11.1097
▁Şirkət	-11.1099
▁Məkkə	-11.1099
ımın	-11.11
▁imkanlar	-11.11
▁artış	-11.1103
▁kullanımı	-11.1105
▁inceleme	-11.1105
▁Pal	-11.1105
▁kültürü	-11.1107
mıyorum	-11.111
▁danışan	-11.1111
yalım	-11.1112
▁konferans	-11.1113
▁müsahibə	-11.1113
▁qabarıq	-11.1113
▁sembol	-11.1113
▁azalır	-11.1113
▁sürece	-11.1117
▁vaka	-11.1117
▁inanır	-11.1118
▁məclisi	-11.1121
ladığımız	-11.1121
▁Ol	-11.1123
▁Ken	-11.1123
▁Romada	-11.1127
▁yanvarında	-11.1127
▁hüquqlarını	-11.1129
▁vəziri	-11.1129
▁ayrılı	-11.113
▁vermədi	-11.1133
▁bilinə	-11.1135
▁əyalətini	-11.1135
▁gerekti	-11.1137
▁göstəricisi	-11.1139
manız	-11.114
▁komm	-11.1142
kəmli	-11.1142
▁bədənin	-11.1142
▁alıcı	-11.1144
▁kullandığımız	-11.1145
ebilirim	-11.1148
▁göstərişi	-11.115
▁düyü	-11.1153
▁hastalıklar	-11.1157
▁evlər	-11.1157
▁Rau	-11.1159
▁Demokrat	-11.116
▁Məmlük	-11.1161
▁çekme	-11.1162
▁Ədirnə	-11.1162
rartu	-11.1163
▁şimdiye	-11.1164
çəkmə	-11.1164
▁otuz	-11.1166
▁müəllimlik	-11.1166
▁məzunu	-11.1166
▁trilyon	-11.1168
ps	-11.1171
▁Dedi	-11.1171
▁görürdü	-11.1171
▁hissediyor	-11.1174
▁kainat	-11.1175
▁çözümler	-11.118
▁Rusiyası	-11.1181
▁xəstəlikləri	-11.1182
ılıyor	-11.1183
▁vermeye	-11.1184
▁suçlu	-11.1186
▁yarısını	-11.1187
▁firması	-11.1189
▁qışı	-11.1191
▁koşu	-11.1192
▁58	-11.1194
▁səviyyəl	-11.1195
▁harada	-11.1197
▁uğuru	-11.1198
▁tat	-11.1198
▁girişim	-11.1201
▁harcama	-11.1203
▁ediliyor	-11.1204
▁magistr	-11.1204
▁sessiz	-11.1206
▁döş	-11.1208
▁Fazil	-11.1209
▁NASA	-11.1209
▁nifrət	-11.1209
▁vitse	-11.1209
▁Xankəndi	-11.121
▁Əkinçi	-11.121
▁Əyyub	-11.121
muyor	-11.1213
▁vəzifələrdə	-11.1213
▁Arran	-11.1214
▁xanımla	-11.1217
▁dairə	-11.1222
▁yılın	-11.1225
şərqində	-11.1225
▁koyma	-11.1228
▁katılım	-11.1234
▁hissələrini	-11.1236
▁fikirlərini	-11.1238
▁bahsetmek	-11.124
ləşdirilməsi	-11.124
▁təşkilatını	-11.1241
▁yaşamağ	-11.1247
▁öğretmenler	-11.1249
▁oyunlarında	-11.1249
ebilen	-11.1254
▁edilme	-11.1258
▁değeri	-11.1258
▁qəribə	-11.1258
▁sosialist	-11.1262
▁gücləndir	-11.1263
▁moda	-11.1265
▁yaşamaq	-11.1267
▁aldıqda	-11.1269
▁nəci	-11.1269
▁uyan	-11.1272
xanı	-11.1274
▁ədəbiyyatda	-11.1274
.5	-11.1276
madan	-11.128
▁anlayabil	-11.1286
▁danışa	-11.1288
mut	-11.1289
▁yarışı	-11.1289
▁sayında	-11.1292
▁bulmaya	-11.1293
▁parlamentin	-11.1293
▁Arxeolo	-11.1294
▁qırı	-11.1295
▁kıl	-11.1298
▁siyahı	-11.1299
▁Rey	-11.13
▁kəndlilər	-11.1301
▁zadəgan	-11.1307
▁körpə	-11.1307
▁yaranmasında	-11.1308
ıq	-11.1308
▁Nəbi	-11.1308
▁değişme	-11.1308
▁müsabiqəsin	-11.1313
▁vətəndaşı	-11.1313
▁məqaləsi	-11.1314
▁bakarak	-11.1314
▁diyoruz	-11.1318
▁cizgi	-11.1318
▁siyasətçi	-11.1321
▁yapacağım	-11.1325
▁kaybetti	-11.1325
▁ucunda	-11.1325
▁itir	-11.1326
▁bilgisayarlar	-11.133
▁qəhrəmanlıq	-11.1331
▁kullanan	-11.1333
▁icma	-11.1336
tək	-11.1336
▁bazasında	-11.1338
▁Məclis	-11.1342
▁yaşamı	-11.1346
▁ustaları	-11.1347
zay	-11.1347
▁haklı	-11.1347
▁şəkilləri	-11.1349
▁Kazımov	-11.1349
porta	-11.1356
▁açıkça	-11.1356
▁karışık	-11.1356
▁Mədinə	-11.1357
▁bakıp	-11.1359
▁artım	-11.136
▁yaşıyoruz	-11.1362
▁salınması	-11.1363
içək	-11.1363
▁hərfi	-11.1363
ləyə	-11.1363
▁çıkarma	-11.1364
▁keçdikdə	-11.1366
ırsınız	-11.1367
ser	-11.1368
▁mərasimində	-11.137
▁şeylər	-11.1371
▁özelliği	-11.1374
▁endüstri	-11.1379
▁çalıştır	-11.1383
▁istedik	-11.1386
▁Şərqin	-11.1386
likten	-11.1387
▁qazan	-11.1388
▁yoldaşları	-11.1389
▁bulur	-11.1391
▁hökmü	-11.1394
▁Tele	-11.1395
▁Antoni	-11.1396
▁işim	-11.1396
▁sənə	-11.1398
▁yarımadasında	-11.1402
▁şeydi	-11.1403
▁tələbəsi	-11.1403
▁deneyimi	-11.1405
▁Dörd	-11.1406
▁taklit	-11.1406
▁palıd	-11.1406
▁sonrası	-11.141
▁harf	-11.141
▁Hay	-11.1412
▁ölümün	-11.1413
▁gülü	-11.1414
▁Bey	-11.1417
▁kriz	-11.1418
▁düzey	-11.1419
▁seçimi	-11.1419
▁oksi	-11.1421
▁birinde	-11.1425
▁Şamaxıda	-11.1426
▁tağ	-11.1426
▁adlandırırdı	-11.1427
▁1902	-11.1429
▁olanların	-11.1431
▁sel	-11.1437
▁izləri	-11.1441
▁yarışları	-11.1441
▁qalxan	-11.1442
şık	-11.1442
▁nereden	-11.1443
ang	-11.1444
▁desə	-11.1445
▁cəza	-11.1447
▁ağırlığı	-11.1448
ınızı	-11.1448
▁oluşturu	-11.1449
▁Sizi	-11.145
▁qayıdan	-11.1452
▁ər	-11.1453
abildiği	-11.1455
▁1982	-11.1455
▁qurşağı	-11.1455
▁bakalavr	-11.1456
▁Əfşar	-11.1456
▁kablo	-11.1456
▁Həmədan	-11.1457
▁edebiliriz	-11.146
▁Alfa	-11.1461
▁anlamıyla	-11.1464
▁müziği	-11.1464
▁mayında	-11.1465
▁qovuş	-11.1466
▁Albom	-11.1467
▁alırlar	-11.1468
▁musun	-11.1469
▁bakım	-11.1472
▁Alt	-11.1472
▁Ax	-11.1472
▁sevme	-11.1472
▁eğilim	-11.1473
▁Hasta	-11.1474
mamış	-11.1475
erya	-11.1477
larsa	-11.1479
▁yöntemi	-11.148
▁müəlliflər	-11.1481
cim	-11.1485
▁məbədin	-11.1486
▁ardı	-11.1489
▁qanunvericilik	-11.1489
▁maliyeti	-11.1489
▁tra	-11.1495
▁geliştirme	-11.1495
▁kürd	-11.1504
▁tıbbi	-11.1506
▁cerrah	-11.1506
▁sandalye	-11.1506
▁kulak	-11.1507
ərgüş	-11.1507
▁kompozisiyası	-11.1508
▁sinql	-11.1508
▁batil	-11.1509
▁işlənməsi	-11.151
▁ingilislər	-11.151
▁ihtiyacınız	-11.1513
▁fənn	-11.1516
inizde	-11.1516
▁İvan	-11.1516
▁taxtın	-11.1519
▁karşılık	-11.1522
▁ölme	-11.1523
▁suyunu	-11.1524
▁bildir	-11.1525
▁bilmədiyi	-11.1529
texniki	-11.153
▁nəzəriyyəsini	-11.1531
▁amil	-11.1533
▁kişiye	-11.1535
riyaziyyat	-11.1536
▁ünvan	-11.1536
▁artmışdı	-11.1536
▁dilə	-11.1538
▁düzenleme	-11.1539
▁səhnələri	-11.1544
▁konuşuyor	-11.1545
▁kəndlərindən	-11.1547
▁cəm	-11.1549
▁fevralında	-11.1549
▁arkadaşları	-11.1549
▁ürəyin	-11.1552
hit	-11.1553
▁türkcə	-11.1553
▁qalırdı	-11.1553
▁Neftç	-11.1555
▁İnzibat	-11.1556
▁Bilgisayar	-11.1556
▁tütün	-11.1556
▁tərif	-11.1556
▁mərhum	-11.1557
▁maaş	-11.1558
▁paylaşma	-11.1559
▁mühərrik	-11.1559
▁Times	-11.156
▁Gilan	-11.1563
▁düzenle	-11.1566
▁yapabileceği	-11.1567
▁tarixçiləri	-11.1568
▁plana	-11.1569
▁şeiri	-11.157
▁hücumları	-11.1573
▁51	-11.1575
▁Sərəncamı	-11.1576
▁Plan	-11.1576
▁qızlar	-11.1583
▁stansiya	-11.1584
▁uğurlar	-11.1586
▁əksəriyyətini	-11.1586
▁yetkin	-11.1589
▁publisistik	-11.159
likte	-11.1594
▁protein	-11.1594
▁ayağı	-11.1595
▁universitetdə	-11.1596
▁turnirin	-11.1598
▁adlandırmışdı	-11.1598
▁Aslanov	-11.1599
▁sınırları	-11.16
70	-11.1604
▁Sergey	-11.1606
▁partlayış	-11.1606
▁professional	-11.1607
▁Frank	-11.1607
▁kafedrasın	-11.1608
▁İqtisadiyyat	-11.1609
▁civarında	-11.161
▁engelli	-11.1616
▁qoya	-11.1617
▁kəndlər	-11.1618
▁dolarlık	-11.1618
▁çirk	-11.1618
mıyoruz	-11.1619
▁Hakimiyyəti	-11.162
▁şəxsiyyəti	-11.1621
▁torpağ	-11.1624
▁bilməzdi	-11.1627
▁işığın	-11.1627
▁Toma	-11.1634
▁ulaşmak	-11.1635
▁gelmiş	-11.1636
▁23-	-11.1637
▁bacarığı	-11.164
▁qabığı	-11.164
▁namizədli	-11.1645
▁paket	-11.1645
▁Ərazisi	-11.1645
▁qadını	-11.1646
▁sürücü	-11.1647
▁Ru	-11.165
▁Sanat	-11.1652
▁müxtəlifliyi	-11.1654
malısınız	-11.1654
▁ücret	-11.1655
▁öldürülməsi	-11.1658
▁125	-11.1658
▁amansız	-11.1658
▁1985	-11.1659
▁xəzərlər	-11.1659
▁çəkmiş	-11.166
▁nüsxə	-11.166
▁tuvalet	-11.1661
40	-11.1662
▁Pol	-11.1662
▁şanslı	-11.1663
▁görebil	-11.1663
▁tərəfdarı	-11.1663
▁məruzə	-11.1663
▁titulu	-11.1664
avanta	-11.1664
▁otaq	-11.1665
▁ekibi	-11.1666
▁knyaz	-11.1666
lendirme	-11.1668
▁Alim	-11.1668
▁dərəsi	-11.167
▁bitkisi	-11.1674
▁Qaraman	-11.1679
▁hikayesi	-11.168
▁keramika	-11.168
▁oykonim	-11.1681
▁oyunlarını	-11.1685
▁sərgi	-11.1686
▁məqsədlər	-11.1689
▁birləşmə	-11.1689
▁İnqilab	-11.169
▁çalıştığı	-11.1691
▁atık	-11.1692
▁tanıt	-11.1693
▁ihtimalle	-11.1695
▁rəsmləri	-11.1698
▁üslubunda	-11.1698
▁təsirli	-11.1699
▁layihəsini	-11.1701
ləmə	-11.1702
▁düzü	-11.1704
▁qanın	-11.1705
biriyle	-11.1707
▁Harvard	-11.1708
▁zolaq	-11.1708
▁Nəsib	-11.1709
ədək	-11.1712
▁maddələri	-11.1712
▁keyfiyyəti	-11.1712
▁bayraq	-11.1713
zellikle	-11.1714
▁döyüşçüləri	-11.1715
▁valisi	-11.1718
▁klubları	-11.1724
▁ifaçı	-11.1726
zar	-11.1727
laşması	-11.1729
iyalı	-11.1729
▁Sin	-11.1731
▁kendilerine	-11.1733
▁ölür	-11.1733
▁vatandaş	-11.1734
▁xaqan	-11.1734
▁gruplar	-11.1737
▁yarpaqları	-11.1739
▁gösterir	-11.174
▁təhlükəsizliyi	-11.1746
▁formalaş	-11.1746
▁birlikləri	-11.1746
▁fiyat	-11.175
luğunu	-11.1751
▁cesaret	-11.1751
▁atları	-11.1751
▁54	-11.1753
▁qurultayı	-11.1755
▁Rasi	-11.1756
▁yenilikçi	-11.1757
▁məskənləri	-11.1757
▁arttır	-11.1758
▁həkimi	-11.1758
▁Mərkəz	-11.1759
bağırsaq	-11.176
▁Ağdərə	-11.176
▁kritik	-11.176
▁serbest	-11.176
▁Doktor	-11.176
▁Təzə	-11.1762
▁səsləndir	-11.1762
xüsusiyyətlərini	-11.1763
▁nəqliyyatı	-11.1763
▁sidik	-11.1764
▁cəzası	-11.1766
▁yaralanmışdı	-11.1767
▁yazılıb	-11.1771
▁silahı	-11.1771
▁yoldan	-11.1772
bet	-11.1774
▁birer	-11.1776
▁heykəli	-11.1781
▁dağlarda	-11.1782
▁solisti	-11.1789
▁bayan	-11.1789
▁göndərmişdi	-11.1795
▁birləşdir	-11.1797
▁krizi	-11.1799
▁kurmak	-11.1802
ide	-11.1802
▁bırakma	-11.1803
hur	-11.1803
▁məntiq	-11.1804
▁çağ	-11.1805
Araz	-11.1806
itter	-11.1808
▁sert	-11.1808
▁istiqamətləri	-11.1809
▁You	-11.181
▁persona	-11.1811
▁sermaye	-11.1811
▁Rəsmi	-11.1811
▁Tekrar	-11.1811
▁uğramış	-11.1811
eyla	-11.1811
▁kolxoz	-11.1811
▁cəsəd	-11.1812
▁çıxarmaq	-11.1812
▁çoban	-11.1812
▁zidd	-11.1813
▁təşkilatların	-11.1814
▁İlisu	-11.1815
▁çətinlik	-11.1815
▁görüyorum	-11.1817
▁qurultayın	-11.1817
▁elinde	-11.1818
18	-11.1819
▁gedirdi	-11.1822
▁gibiydi	-11.1823
▁Irak	-11.1823
▁gelişim	-11.1823
▁Para	-11.1823
▁təhlili	-11.1824
▁yerlere	-11.1825
▁Hun	-11.1828
qor	-11.1829
▁Xuda	-11.1829
▁yürüy	-11.183
bel	-11.1831
quli	-11.1833
▁sorunun	-11.1833
bas	-11.1833
avadov	-11.1835
▁maarifçi	-11.1836
lerse	-11.184
nuzu	-11.1842
▁öyrənən	-11.1845
▁saytı	-11.1846
▁Adi	-11.1846
▁maneə	-11.1847
şun	-11.185
▁denen	-11.185
▁qanunu	-11.1851
▁gittikç	-11.1854
▁vaxta	-11.1859
▁qurultay	-11.1862
▁dairələri	-11.1862
▁Haqverdiyev	-11.1863
▁Avrasiya	-11.1863
▁naməlum	-11.1863
▁pencere	-11.1863
▁aktual	-11.1863
▁gönüllü	-11.1863
▁hastalıkları	-11.1864
▁1987	-11.1864
▁deniyor	-11.1867
▁katman	-11.1869
ıldığı	-11.1871
▁kıta	-11.1872
▁olabil	-11.1872
▁ehtimalı	-11.1874
▁yekun	-11.1879
▁Söz	-11.1879
▁balon	-11.1882
▁bahsed	-11.1883
ecekler	-11.1884
▁kurallar	-11.1885
▁Konqres	-11.1886
▁Dinam	-11.1887
▁komandaları	-11.1891
▁karşılaş	-11.1891
▁münaqişə	-11.1891
▁Komanda	-11.1894
▁işğalında	-11.1894
ümüzü	-11.1896
▁əlifba	-11.1896
▁filosofu	-11.1897
lemeye	-11.1898
▁kubok	-11.1901
▁ərazilərin	-11.1911
▁olunmağ	-11.1911
▁qayıtdıqda	-11.1911
▁dərinliyi	-11.1912
▁gerçək	-11.1915
▁Göytürk	-11.1915
▁Neptun	-11.1915
▁hissəciklər	-11.1915
▁Komedi	-11.1916
▁pozulması	-11.1916
▁mühacirət	-11.1916
▁Balak	-11.1917
▁kayıp	-11.1917
▁səslənir	-11.1917
▁ehti	-11.1917
▁düşünüyoruz	-11.1918
▁şübhəsiz	-11.1918
▁edersiniz	-11.1919
▁kəməri	-11.1922
▁görüşme	-11.1922
▁Emin	-11.1923
▁birləşməsində	-11.1923
▁tərbiyəsi	-11.1924
▁gətirmiş	-11.1925
her	-11.1925
▁ulusal	-11.1926
▁əvvəllərinə	-11.1927
ullah	-11.1928
▁açılmışdı	-11.193
▁incəsənəti	-11.1934
▁dünyasının	-11.1934
duğumuz	-11.1936
▁sintezi	-11.1938
▁qoy	-11.194
▁mərtəbə	-11.1944
▁qət	-11.1945
mus	-11.1948
▁atır	-11.1948
▁Fo	-11.1951
▁lap	-11.1953
▁zərb	-11.1954
madığı	-11.1957
▁rütbə	-11.1957
▁toplayı	-11.1958
▁məclislərin	-11.1959
▁Sev	-11.1959
▁1886	-11.1959
▁oynama	-11.1966
▁Araştırma	-11.1967
aşa	-11.1968
▁duyğu	-11.1968
▁ədəbiyyatşünas	-11.1969
▁küp	-11.197
▁boşluk	-11.197
▁toplanan	-11.197
▁adlandırdığı	-11.1975
lediği	-11.1977
▁Xanlar	-11.1979
▁Rəq	-11.1982
▁kökləri	-11.1983
məkdədir	-11.1985
▁gəmiləri	-11.1985
laştı	-11.1985
▁çalı	-11.1985
diğinizde	-11.199
▁şehri	-11.1992
▁tarzı	-11.1994
atma	-11.1995
▁komponenti	-11.1996
▁naxışlar	-11.1998
▁sənətkarlar	-11.1999
▁57	-11.1999
▁ailem	-11.2001
▁Əsərləri	-11.2001
▁söylediğim	-11.2005
▁cihazı	-11.2009
▁filmlərdə	-11.201
▁fırsatı	-11.2011
▁yarattığı	-11.2012
▁İsgəndəri	-11.2012
▁qanunlar	-11.2012
▁gecəsi	-11.2013
▁komponent	-11.2013
▁Şərif	-11.2017
▁tavsiye	-11.202
▁törətdi	-11.202
▁Arslan	-11.202
▁vətənpərvər	-11.202
▁mərmər	-11.202
▁mercan	-11.202
▁bəylərbəyi	-11.202
▁1901	-11.202
▁askeri	-11.2022
▁Məscidi	-11.2025
▁tamaşaların	-11.2025
▁kıyasla	-11.2025
▁faizini	-11.2026
▁hədəf	-11.2028
▁günümüzde	-11.2028
tığını	-11.2029
▁bilinir	-11.2031
▁mahiyyəti	-11.2032
lerindeki	-11.2033
▁etkin	-11.2034
empionatın	-11.2037
▁qəbri	-11.2037
▁okulda	-11.2038
cümə	-11.204
ayın	-11.2042
▁diğeri	-11.2045
▁kendinizi	-11.2045
▁tapmış	-11.2047
▁yapabiliyor	-11.205
▁olacaktı	-11.2054
ğurlu	-11.2056
amb	-11.2057
▁öncede	-11.2058
▁bat	-11.2059
dıklarını	-11.2059
▁kürdlər	-11.206
▁ofisi	-11.206
▁ötə	-11.206
tta	-11.2062
▁ox	-11.2063
▁hamam	-11.2065
▁151	-11.207
▁başlangıcı	-11.2073
▁berbat	-11.2073
▁Mütər	-11.2073
▁qaldırmaq	-11.2073
▁Yaklaşı	-11.2073
▁boks	-11.2073
▁limon	-11.2073
▁sifət	-11.2073
▁hali	-11.2074
▁mesafe	-11.2074
▁maşınqayırma	-11.2074
▁1903	-11.2074
▁şehirde	-11.2074
▁sektorun	-11.2075
▁2013	-11.2075
ayiş	-11.2076
▁Məhkəməsi	-11.2077
▁diviziya	-11.2079
▁qəbirlər	-11.2081
▁kəndlərini	-11.2084
▁olursak	-11.2085
isti	-11.2086
4-	-11.2087
▁ihtiyacım	-11.2089
▁müzakirələr	-11.2089
▁etmemiz	-11.2089
▁diplomat	-11.2093
▁canlandır	-11.2094
▁kedi	-11.2096
▁quldur	-11.2097
onik	-11.2098
▁anlatıyor	-11.21
▁daire	-11.21
▁səsləri	-11.2101
▁idarəsini	-11.2102
səf	-11.2103
▁24-	-11.2103
▁əlaməti	-11.2103
▁işığı	-11.2107
▁yerləşmişdi	-11.211
▁dramaturq	-11.2111
▁qaçır	-11.2112
▁padşah	-11.2113
▁benden	-11.2115
▁mor	-11.2118
▁çörə	-11.2121
▁olmanız	-11.2124
▁Dini	-11.2125
▁Herodot	-11.2126
▁hukuk	-11.2126
▁zevk	-11.2126
▁Qüds	-11.2126
▁alkış	-11.2126
▁zənci	-11.2126
▁halın	-11.2128
▁şir	-11.2129
▁1983	-11.2129
▁xaqanlığı	-11.2129
▁ço	-11.213
▁düşman	-11.2131
▁kulağ	-11.2131
▁merkezinde	-11.2131
▁Qərbdə	-11.2132
ysanız	-11.2133
▁təşkilatları	-11.2134
▁bələdiyyəsi	-11.2137
▁donanması	-11.2137
▁hazırlamışdı	-11.2138
▁Yur	-11.214
çar	-11.214
tmiş	-11.215
əzən	-11.2152
▁günündə	-11.2153
▁materialı	-11.2154
▁Yun	-11.2155
▁İstiqlal	-11.2155
▁onlarda	-11.2156
▁canlılar	-11.2156
▁prinsip	-11.2157
▁tarixçilər	-11.2158
▁vulkanları	-11.2159
▁sənədlərin	-11.216
▁əsgərlər	-11.2162
▁Ərazidə	-11.2164
▁açdı	-11.2164
▁etmekte	-11.2164
▁birləşdiril	-11.2165
▁nöron	-11.2166
▁funksiyası	-11.2168
▁həddində	-11.2173
▁Kat	-11.2174
▁çalıştığını	-11.2176
▁tikililəri	-11.2179
▁Oruc	-11.218
▁prototip	-11.218
▁əcnəbi	-11.218
▁əyləncə	-11.218
▁təzahür	-11.218
▁1896	-11.218
▁qarşılaşdı	-11.218
▁kampanya	-11.218
▁yavru	-11.218
▁Biliyorsunuz	-11.2181
▁Artisti	-11.2181
▁Boris	-11.2182
▁stadion	-11.2185
▁təsadüfi	-11.2185
▁liderlik	-11.2185
▁düşmənləri	-11.2186
abileceğiniz	-11.2189
▁öyrənmişdi	-11.2189
▁qoşuldu	-11.2192
▁öhdəsin	-11.2193
ğru	-11.2194
▁Vol	-11.2195
▁kurdu	-11.2197
▁idmançı	-11.2198
avuş	-11.2198
▁getmişdi	-11.2203
▁get	-11.2204
▁tanımlama	-11.2205
▁kursu	-11.2205
▁mübarizəni	-11.2205
rektoru	-11.2205
▁döner	-11.2208
▁karşıya	-11.2209
▁dönüştür	-11.221
▁istehsalında	-11.2211
▁Bunlara	-11.2212
▁90-	-11.2213
▁cavabı	-11.2214
▁miydi	-11.2215
▁hekayələr	-11.2215
▁tutulması	-11.2217
▁değişiklik	-11.2222
▁nota	-11.2223
▁görülmüş	-11.2223
▁metodları	-11.2224
▁depo	-11.2225
▁Şiraz	-11.2227
▁uyu	-11.2228
▁faciəsi	-11.2229
▁edebiliyor	-11.2232
▁kesim	-11.2232
▁dokun	-11.2232
▁Brezilya	-11.2233
▁Vaşinqton	-11.2233
▁Xəlifə	-11.2233
▁kristal	-11.2233
▁zərif	-11.2233
▁değiştirebilir	-11.2233
▁degil	-11.2234
▁həlledici	-11.2235
▁vurduğu	-11.2235
▁saxlanması	-11.2235
don	-11.2237
▁göndərilmiş	-11.2238
▁şəhərlərindən	-11.2242
▁məsuliyyəti	-11.2242
qədi	-11.2246
▁vurma	-11.2246
itva	-11.2258
▁tutar	-11.226
▁kendileri	-11.2262
▁mənşə	-11.2262
▁gözlənilmə	-11.2263
▁yaşadığımız	-11.2266
▁hökumətini	-11.2266
▁fərqləndir	-11.2266
▁balıqlar	-11.2267
▁astronom	-11.2268
▁dəyişdirilmiş	-11.227
▁Pat	-11.2271
▁müəssisələr	-11.2271
▁bulabil	-11.2273
▁herkese	-11.2275
▁yayıldı	-11.2275
▁görüşdə	-11.2275
▁Yaşam	-11.2277
▁simvoli	-11.2279
▁xüsusiyyət	-11.2281
▁dis	-11.2282
▁təqaüd	-11.2283
▁iqtisadiyyatın	-11.2284
▁kilsəsini	-11.2284
▁muxtar	-11.2285
▁dəyərləri	-11.2286
▁Yuqoslaviya	-11.2287
▁ekosistem	-11.2287
▁gözüküyor	-11.2287
▁rekabet	-11.2287
▁şefkat	-11.2287
ANS	-11.2287
▁yoxsul	-11.2287
▁talep	-11.2287
▁Əksər	-11.2288
▁itibar	-11.2288
▁Kolumbiya	-11.2288
▁qulluq	-11.2289
▁sorğu	-11.2289
▁oxumaq	-11.2289
▁beklenti	-11.2289
▁evrensel	-11.229
▁getməsi	-11.2291
▁anbarı	-11.2293
▁dayalı	-11.2295
▁adlandırma	-11.2295
şir	-11.2296
▁etmesi	-11.2297
▁imzalandı	-11.2301
▁realist	-11.2303
▁başlangıç	-11.2303
▁sui	-11.2306
▁bölmələri	-11.2307
▁dayanan	-11.2307
▁gətirmək	-11.2307
▁dibi	-11.2308
▁relyef	-11.231
▁motivləri	-11.231
▁bağladı	-11.2312
▁liman	-11.2312
▁problemleri	-11.2314
▁Şir	-11.2316
miyoruz	-11.2318
▁ettiğini	-11.2318
▁ərə	-11.2319
▁İnter	-11.232
▁yatır	-11.2322
▁Sənət	-11.2323
bek	-11.2323
▁şəkillər	-11.2324
▁üzvlərini	-11.2326
dınız	-11.2326
▁çevirdi	-11.2326
▁bölgəsini	-11.2328
▁olanda	-11.2328
▁çıx	-11.2329
▁177	-11.233
▁nailiyyətlər	-11.2333
▁təcil	-11.2334
▁yarımadası	-11.2336
▁kültüre	-11.2336
ırlar	-11.2338
▁İmperator	-11.2338
▁Herat	-11.234
▁200-	-11.234
▁etmələri	-11.2341
▁cazibə	-11.2342
▁Qırğızıstan	-11.2342
▁protokol	-11.2342
▁Səud	-11.2342
▁Tamaşaçılar	-11.2342
▁hasar	-11.2342
▁Alma	-11.2342
▁minarə	-11.2343
ləşir	-11.2343
▁Sahil	-11.2343
▁yaşadıqları	-11.2343
▁Federal	-11.2346
▁sıvı	-11.2346
▁bilib	-11.2346
▁Abdullah	-11.2349
▁divan	-11.2349
▁Kolleci	-11.2351
ydim	-11.2352
▁insani	-11.2353
▁Ford	-11.2358
gre	-11.236
▁lövhə	-11.2363
▁Ter	-11.2364
▁qaçı	-11.2364
▁endişelen	-11.2365
▁Ram	-11.2367
▁birləşir	-11.2369
verdi	-11.2371
▁Nov	-11.2373
bdin	-11.2373
▁hövzəsi	-11.2375
▁Qadınlar	-11.238
▁hissetti	-11.2382
▁artırdı	-11.2383
▁şurası	-11.2383
▁Henri	-11.2384
▁fikr	-11.2385
▁funksiyasını	-11.2388
▁rəssamlıq	-11.239
▁olduğunuzu	-11.2392
▁Deniz	-11.2392
▁tələbləri	-11.2394
▁hüceyrələri	-11.2395
▁hassas	-11.2396
▁gürültü	-11.2396
▁hafıza	-11.2396
▁çevrilib	-11.2397
▁kursları	-11.2397
▁avqustda	-11.2398
▁pulu	-11.2399
ram	-11.24
▁qazı	-11.2403
▁eminim	-11.2404
▁Sevil	-11.2405
▁İslamı	-11.2406
▁oluşturan	-11.2409
▁Rəhimov	-11.241
▁domuz	-11.2412
▁saxlanıla	-11.2413
▁Şunu	-11.2416
▁gətirilə	-11.2418
▁üsullar	-11.2419
▁nişanı	-11.2419
▁açma	-11.2421
▁qabiliyyətini	-11.2423
▁komandir	-11.2424
▁orduda	-11.2426
▁takımı	-11.2426
▁axırlarında	-11.2426
▁katılma	-11.2427
▁istifadəçilər	-11.2427
▁evlərin	-11.2429
▁qurumları	-11.2434
▁Şahbu	-11.2434
▁yerden	-11.2436
▁gördüğüm	-11.2437
▁düştü	-11.2438
lmuşdu	-11.2438
▁papa	-11.2439
▁xeyri	-11.244
▁düzəldilmiş	-11.2444
▁nami	-11.2444
▁təşəkkül	-11.2445
▁kullanım	-11.2447
AR	-11.2448
▁biçimi	-11.2448
▁mətbəxi	-11.245
▁Assosiasiyası	-11.2451
▁Əzimzadə	-11.2452
▁eşq	-11.2453
▁hidrogen	-11.2453
▁durumunda	-11.2453
▁istiyorsanız	-11.2454
▁orkestri	-11.2454
▁Annem	-11.2454
tıl	-11.2456
▁MS	-11.2458
▁karyerasın	-11.2461
▁ilacı	-11.2462
▁geriyə	-11.2462
▁adlandırdı	-11.2463
▁İrəvanda	-11.2463
tiraf	-11.2465
yuz	-11.2468
▁igid	-11.2468
üç	-11.2468
▁seri	-11.2469
▁sərhədlərini	-11.247
▁gezegenler	-11.247
lme	-11.2474
▁acil	-11.2474
▁elektro	-11.2476
▁tren	-11.2476
▁Kazan	-11.2477
▁72	-11.2478
meniz	-11.2482
▁komitə	-11.2487
▁etdiyimiz	-11.249
qərbində	-11.249
▁kadrların	-11.2491
▁oxun	-11.2493
▁68	-11.2493
▁dönemde	-11.2494
▁Müharibəsi	-11.2497
▁cəmiyyətini	-11.2499
▁kahve	-11.2507
▁qalxı	-11.2507
▁qaçdı	-11.2507
▁kartof	-11.2507
▁daşnak	-11.2508
▁sözlərini	-11.2508
▁kadının	-11.2509
▁çağırdı	-11.2509
▁hap	-11.2509
▁Kimse	-11.2511
▁məşq	-11.2513
▁bölün	-11.2513
▁seçkiləri	-11.2513
▁xəzinə	-11.2514
▁aksine	-11.2516
▁Port	-11.2516
▁Sağlık	-11.2517
▁alarak	-11.2518
▁uşaqlıq	-11.2521
▁bakteriler	-11.2526
▁Əbül	-11.2527
nemli	-11.2528
▁boğ	-11.2531
▁getdiyi	-11.2531
dığında	-11.2533
▁alov	-11.2534
▁yazık	-11.2535
▁əməliyyatları	-11.2536
▁kollektivi	-11.2536
iyordum	-11.2537
▁yunanlar	-11.2539
ttiği	-11.254
yacağım	-11.2542
▁bende	-11.2543
▁müəyyənləşdiril	-11.255
▁biliy	-11.255
▁adalar	-11.2553
▁yapması	-11.2553
▁alabilir	-11.2555
▁böhran	-11.2558
ecektir	-11.2558
▁müvəffəq	-11.256
▁aktı	-11.2562
▁qüvvəsini	-11.2562
▁çıkış	-11.2562
▁yarımfinal	-11.2562
▁Oskar	-11.2562
▁Tədri	-11.2562
▁Əzizbəyov	-11.2563
▁bileşen	-11.2563
▁ölkələrini	-11.2563
▁tarif	-11.2566
▁yayda	-11.2568
▁edilmesi	-11.2571
▁yapış	-11.2571
▁miniatür	-11.2576
▁mekan	-11.2576
▁ikincisi	-11.2577
▁birləşmələr	-11.2582
ug	-11.2586
▁girişi	-11.2586
mlet	-11.2586
▁Siy	-11.2587
▁ayrılmışdı	-11.2588
▁çocuklara	-11.2588
▁gelebilir	-11.2589
▁qohumları	-11.2589
▁çağırıl	-11.259
▁Salman	-11.2591
▁sultanın	-11.2593
▁dağıdı	-11.2595
▁şəhərlərini	-11.2596
▁edilebilir	-11.2597
▁format	-11.2597
anrı	-11.2605
▁gezegende	-11.261
dışı	-11.2611
▁yakala	-11.2613
▁yürüme	-11.2615
▁İnstitut	-11.2616
atıcı	-11.2618
▁AIDS	-11.2618
▁Səmərqənd	-11.2618
▁Tacikistan	-11.2618
▁konqres	-11.2618
▁seçi	-11.2618
▁xərçəng	-11.2618
▁stres	-11.2618
▁ibaret	-11.2618
▁mantar	-11.2618
▁anlatma	-11.262
▁boyutu	-11.262
▁Hadisə	-11.2621
▁isterseniz	-11.2621
▁ekip	-11.2623
▁cədvəl	-11.2623
▁toplumsal	-11.2624
graf	-11.2628
▁Ordusunu	-11.2629
▁dolan	-11.263
fu	-11.263
laşdırılmış	-11.2631
▁çağırır	-11.2632
▁Moise	-11.2633
▁millətin	-11.2637
▁Əmirov	-11.2638
▁dönüştü	-11.2639
▁itirdi	-11.2641
▁bəyə	-11.2642
▁boşa	-11.2645
▁Ste	-11.2645
unuz	-11.2647
end	-11.2649
▁Mur	-11.265
▁çıkardı	-11.265
▁gələnlər	-11.2654
▁oynaya	-11.2656
▁etmiyor	-11.2657
▁psikolo	-11.2658
▁Babəki	-11.2659
▁konum	-11.266
▁müze	-11.2661
▁balet	-11.2662
▁guy	-11.2663
▁yiy	-11.2664
▁Dur	-11.2665
▁yollarla	-11.2665
▁bulud	-11.2665
▁yandırı	-11.2667
▁kitapları	-11.2669
▁türden	-11.2672
▁doğdu	-11.2673
▁fonksiyon	-11.2674
▁iqamətgahı	-11.2674
▁kütle	-11.2674
▁gətirildi	-11.2674
▁subtropik	-11.2675
▁Sünik	-11.2675
▁Filip	-11.2676
▁imzalanmış	-11.2677
▁xidmətdə	-11.2677
gedə	-11.2678
▁geçer	-11.2678
▁Anar	-11.2679
▁yataq	-11.268
cılık	-11.2683
▁səhnədə	-11.2684
abul	-11.2684
▁uçur	-11.2684
▁Tıp	-11.2685
▁Oyunlarında	-11.2686
▁sahiptir	-11.2687
▁başlattı	-11.2688
▁kredi	-11.2689
▁sırası	-11.2691
▁razılığı	-11.2692
▁çoğunluğu	-11.2694
▁katkı	-11.2696
▁bağlar	-11.2698
▁prosesləri	-11.2699
ğin	-11.27
ğımız	-11.2701
til	-11.2702
▁çalar	-11.2704
▁səni	-11.2705
▁izleme	-11.271
▁verilişi	-11.2711
▁tartış	-11.2712
dib	-11.2713
▁mühitdə	-11.2716
▁sıralarında	-11.2716
▁bekleme	-11.2717
▁mükafatları	-11.2717
▁Qay	-11.2719
▁faktör	-11.272
▁aləmində	-11.2724
▁nisbəti	-11.2725
▁dərisi	-11.2726
ames	-11.2728
▁məzarı	-11.2729
▁qəlbin	-11.2729
▁türkmən	-11.2729
▁məsələni	-11.273
▁müdahale	-11.2731
▁MDB	-11.2731
▁çatışmazlığı	-11.2731
▁manzara	-11.2731
▁Amazon	-11.2731
▁böyrək	-11.2731
▁ulaştı	-11.2731
▁düzbucaq	-11.2732
▁aksi	-11.2732
bilirsin	-11.2732
▁fənlər	-11.2733
▁Konuşma	-11.2735
▁çatdıqda	-11.2737
▁Final	-11.2743
▁pak	-11.2743
▁Qəhrəman	-11.2748
▁yeteri	-11.2749
▁gürcülər	-11.2751
▁formalaşdı	-11.2752
▁Kenya	-11.2754
▁kəsilmə	-11.2754
ller	-11.2756
▁oğlanları	-11.2756
anım	-11.2757
▁Axı	-11.2758
▁əsasları	-11.276
mizden	-11.2761
nüz	-11.2762
▁müəssisələrində	-11.2763
▁landşaft	-11.2765
▁ip	-11.2765
▁küçü	-11.2768
▁müsa	-11.2769
▁Bro	-11.2769
▁varlığın	-11.277
▁axırın	-11.2775
▁tapşırığı	-11.2777
▁xoşbəxt	-11.2778
▁Hökuməti	-11.2778
▁iyununda	-11.2779
▁istifadəçi	-11.278
▁gündüz	-11.278
fər	-11.2782
▁qalasında	-11.2785
▁problemin	-11.2786
▁liberal	-11.2788
▁seçkilərdə	-11.2788
▁bilinç	-11.2788
▁əməkdaşı	-11.279
▁istəyirəm	-11.2791
▁materialların	-11.2796
▁Almanya	-11.2797
▁günümüzə	-11.2798
▁takdir	-11.2799
▁maral	-11.28
▁əyalətində	-11.2801
▁Bra	-11.2802
aponya	-11.2803
▁binada	-11.2805
▁obyektləri	-11.2807
▁koloniya	-11.2808
▁anladım	-11.2808
▁hatırlat	-11.2815
▁dinini	-11.2816
▁Bell	-11.282
▁xanla	-11.2822
▁sevinc	-11.2823
muşdur	-11.2823
▁Kompleks	-11.2824
▁Nensi	-11.2825
▁koloni	-11.2826
▁değişti	-11.2828
▁oruc	-11.2828
▁hareketleri	-11.2831
▁baktı	-11.2832
▁vəzir	-11.2833
▁cisim	-11.2836
▁xristianlığı	-11.2837
▁diviziyası	-11.2838
▁Tehranda	-11.2838
madi	-11.2838
▁əlaqələrini	-11.2839
▁kişiyi	-11.2843
▁olunma	-11.2843
▁Salah	-11.2843
▁Viktor	-11.2843
▁Möh	-11.2845
▁alternatif	-11.2845
▁bütçe	-11.2845
▁Şəhriyar	-11.2845
▁həzm	-11.2845
▁materyal	-11.2845
▁değerlendir	-11.2847
▁Sorun	-11.2848
▁qoruğu	-11.2848
ight	-11.2848
▁qoz	-11.285
▁şəkilli	-11.2853
▁Ac	-11.2855
▁olmam	-11.2855
▁ustalıq	-11.2856
▁Hökumət	-11.2857
▁Hindistanın	-11.2861
▁tesis	-11.2861
rsak	-11.2863
▁salı	-11.2865
meli	-11.2865
zaman	-11.2867
▁hazırlayı	-11.2867
▁yeməyi	-11.2867
▁medallar	-11.2872
▁sonucunda	-11.2876
▁istila	-11.2878
▁məhsullar	-11.2879
▁sulu	-11.2879
▁akım	-11.288
▁strukturu	-11.2884
laşdırır	-11.2885
▁ettikleri	-11.2886
▁çıxarılmış	-11.2887
işmiş	-11.2888
▁zamanlardan	-11.2889
may	-11.2891
▁anında	-11.2893
▁ihtimali	-11.2894
▁vəfatı	-11.2898
▁Od	-11.2899
▁iclas	-11.29
▁1918	-11.2901
bahar	-11.2901
▁Vyetnam	-11.2902
▁xörək	-11.2902
▁algoritma	-11.2902
▁keşiş	-11.2902
▁Deyilən	-11.2902
▁siqnal	-11.2902
▁kom	-11.2902
▁George	-11.2902
▁filmlərində	-11.2906
▁toplayara	-11.2906
▁yaptıklarını	-11.2908
▁1977	-11.2909
▁nedeniyle	-11.2912
▁çıxışları	-11.2912
▁Harun	-11.2913
▁düşünürdü	-11.2916
▁etnonimi	-11.2918
▁qalmaq	-11.292
▁Key	-11.292
▁terim	-11.2923
▁şüa	-11.2924
▁giri	-11.2924
▁zabiti	-11.2924
▁hekayələri	-11.2925
▁ahlaki	-11.2928
▁tac	-11.2933
liydi	-11.2935
gram	-11.2935
▁gəmilər	-11.2938
melisiniz	-11.2939
▁qülləsi	-11.2942
ift	-11.2944
▁gölünü	-11.2945
lqar	-11.2946
▁Muzey	-11.2949
▁olaylar	-11.2949
▁müstəmləkə	-11.2949
▁Bizler	-11.2952
▁bolşevik	-11.2954
▁qızılbaş	-11.2955
▁İste	-11.2958
▁olamaz	-11.2959
▁çekiyor	-11.2959
icarət	-11.2959
▁yüksəldi	-11.296
▁Bayrağı	-11.296
▁Mısır	-11.296
▁nisbi	-11.296
▁spesifik	-11.296
▁tərənnüm	-11.296
▁Əlbət	-11.296
▁ikisini	-11.296
▁belge	-11.2963
▁getirir	-11.2964
▁Krallığı	-11.2964
▁ederken	-11.2966
▁söylüyorum	-11.2967
ted	-11.2969
▁53	-11.297
▁Birlik	-11.2971
▁ekranda	-11.2971
▁yapmıyor	-11.2972
▁Sadə	-11.2973
▁obrazını	-11.2973
▁göstəriş	-11.2973
▁keçdik	-11.2975
▁səlahiyyətli	-11.2975
▁ilgisi	-11.2976
▁internette	-11.2978
▁qalanı	-11.2981
▁pey	-11.2981
sma	-11.2981
▁Ola	-11.2982
▁qaldırılması	-11.2984
▁ulduzun	-11.2985
▁yapılma	-11.2985
▁dayandırıl	-11.2986
▁müəlliflərin	-11.2988
▁odada	-11.2989
▁qurumu	-11.2989
▁danışıq	-11.299
▁hikayeyi	-11.2991
▁getiren	-11.2991
▁zülal	-11.2992
▁pozul	-11.2992
▁əlaqələrin	-11.2993
▁tutmak	-11.2993
▁Binə	-11.2996
▁hüququnu	-11.2997
▁cəhətləri	-11.2998
▁mübahisələr	-11.2999
▁İndiki	-11.3
▁doğulmuş	-11.3002
ddin	-11.3003
▁örtük	-11.3003
▁3000	-11.3006
ənbə	-11.3008
▁abidələrində	-11.3011
▁tank	-11.3011
▁öğretti	-11.3011
▁Baha	-11.3012
▁Məscid	-11.3013
▁Bəziləri	-11.3013
▁vəkili	-11.3013
▁özellikleri	-11.3015
▁oluşuyor	-11.3015
ayihə	-11.3018
▁Ehtimal	-11.3018
▁yörünge	-11.3018
▁popüler	-11.3018
▁yüksələ	-11.3018
▁Problem	-11.3018
▁deyişle	-11.3018
▁tutulu	-11.3019
▁üzeri	-11.3019
▁bildirib	-11.3019
▁generalı	-11.3021
▁hükümeti	-11.3024
▁edebil	-11.3025
▁konuyu	-11.3026
▁qazanması	-11.3032
▁kitabların	-11.3032
▁kollec	-11.3032
▁dönme	-11.3034
▁varisi	-11.3037
▁büdcəsi	-11.304
▁Soru	-11.3041
▁sanatı	-11.3043
▁edilməkdə	-11.305
▁Bağır	-11.305
▁Yuli	-11.305
▁tüket	-11.3055
▁quşu	-11.3057
▁ruhunu	-11.306
▁heyecanlı	-11.306
ney	-11.3062
▁nüfuzu	-11.3062
▁fikrim	-11.3062
▁konuşmaya	-11.3063
▁gönderme	-11.3063
▁Əd	-11.3069
▁uşağın	-11.3069
▁hit	-11.3069
▁səviyyəsini	-11.307
▁pi	-11.3071
▁görüşləri	-11.3072
▁Doğa	-11.3075
▁Fatimə	-11.3077
▁idarəçiliyi	-11.3077
▁teşhis	-11.3077
▁yarımsəhra	-11.3077
▁Əşrəf	-11.3077
eonardo	-11.3077
▁beğen	-11.3077
▁vakit	-11.3077
▁Sərdar	-11.3077
▁soğan	-11.3077
▁litr	-11.3077
▁devasa	-11.3078
▁farkın	-11.308
orld	-11.308
▁Əks	-11.3081
▁63	-11.3083
▁çağdaş	-11.3083
▁Divan	-11.3084
▁patlama	-11.3086
▁kut	-11.3086
▁tamaşasın	-11.3087
▁qarın	-11.3088
▁İsm	-11.3088
ium	-11.309
▁Mavi	-11.3092
▁yaşamın	-11.3092
set	-11.3092
▁çıxarılmışdı	-11.3092
▁mezun	-11.3093
▁müdaxilə	-11.3093
▁obraz	-11.3094
▁sənayesini	-11.3095
▁Peru	-11.3095
▁Sadıqov	-11.3095
▁resimler	-11.3099
▁makinesi	-11.3103
▁anlamlı	-11.3105
▁pas	-11.3106
▁yarar	-11.3106
▁İz	-11.3106
ebileceğiniz	-11.3107
leyip	-11.3107
▁sərhədi	-11.3108
▁yapama	-11.311
▁sintez	-11.311
▁adlandırmış	-11.3113
ose	-11.312
acaksınız	-11.3121
▁gənclərin	-11.3121
ial	-11.3122
▁səbəbləri	-11.3123
▁mövzular	-11.3125
▁66	-11.3127
▁sorar	-11.3128
line	-11.313
▁münasibətlərini	-11.3133
▁bizimle	-11.3134
▁doğurur	-11.3135
▁Yupiter	-11.3135
▁Bəxtiyar	-11.3135
▁basketbol	-11.3135
▁profesyonel	-11.3135
▁qəddar	-11.3135
▁Normal	-11.3135
▁1897	-11.3135
▁Küresel	-11.3135
▁meslek	-11.3135
▁qüvvətli	-11.3135
▁öyrənilmiş	-11.3135
▁qəzəb	-11.3136
▁saxlanılması	-11.3136
▁zemin	-11.3136
▁qurur	-11.3136
▁onlarca	-11.3138
▁İncil	-11.314
▁2016	-11.3145
▁dolara	-11.3146
▁baktığınızda	-11.3147
▁baz	-11.3147
▁hastane	-11.3147
▁konfransın	-11.3148
▁koruy	-11.3148
▁köle	-11.3148
▁musiqiçilər	-11.3149
▁Nil	-11.3154
▁oranda	-11.3155
▁şəkilçisi	-11.3156
▁Dəli	-11.3157
▁dəmiryolu	-11.3161
▁otağın	-11.3161
▁mühərriki	-11.3161
▁albomunu	-11.3164
▁sınırlı	-11.3164
▁karyerasını	-11.3167
▁çalıştı	-11.3167
▁məsləhətçi	-11.3169
▁arttı	-11.3169
▁bilimi	-11.3169
▁olası	-11.317
▁zəng	-11.3173
▁zorundaydı	-11.3175
▁qaydası	-11.3176
▁tayfalarını	-11.3176
▁hissləri	-11.3179
▁yapmam	-11.318
▁erkək	-11.3181
bilir	-11.3182
▁formalaşmışdı	-11.3183
▁Bəhmən	-11.3194
▁fəlakət	-11.3195
NES	-11.3195
▁küme	-11.3196
▁girmə	-11.3196
▁poeması	-11.3197
▁alalım	-11.32
mesine	-11.32
▁dərslik	-11.3201
▁effektiv	-11.3203
ers	-11.3205
▁cism	-11.3205
▁milad	-11.3207
▁yıllarda	-11.3208
▁qatılı	-11.3208
▁Okul	-11.321
▁topladı	-11.321
▁almanlar	-11.3211
▁biliyordu	-11.3215
▁səhifələrində	-11.3215
▁üçü	-11.3215
▁qoşunla	-11.3219
▁Fizika	-11.3222
abiliyoruz	-11.3225
arda	-11.3227
uxur	-11.323
▁bağlandı	-11.3231
▁seviyede	-11.3234
viç	-11.3236
▁şeytan	-11.3237
▁topla	-11.3237
▁səbəbiy	-11.3237
lusal	-11.3239
▁mantık	-11.324
▁Sana	-11.3241
▁iqtisadiyyatını	-11.3242
▁sürür	-11.3244
▁hara	-11.3246
▁qəbulu	-11.3248
,4	-11.325
▁düzənliklər	-11.325
▁Tat	-11.3251
▁Bosniya	-11.3254
▁aparmağ	-11.3254
▁assistent	-11.3254
▁Ədalət	-11.3254
▁Görünür	-11.3254
▁Genç	-11.3254
▁Qurultay	-11.3255
▁qaraciyər	-11.3255
▁qazanmaq	-11.3255
ncelikle	-11.3255
▁hayran	-11.3256
▁finansal	-11.3256
▁Soyuq	-11.3256
▁götürülü	-11.3261
▁Fəlsəfə	-11.3263
▁Hüm	-11.3263
▁verdiler	-11.3264
▁təsirində	-11.3264
▁nəs	-11.3265
▁Qazan	-11.3265
▁kalın	-11.3265
▁yönelik	-11.3266
▁sualtı	-11.3266
amadı	-11.3268
▁funksiya	-11.327
▁vəzifələr	-11.3272
▁zamandır	-11.3272
▁zamanlı	-11.3274
▁yarışlarda	-11.3274
▁hay	-11.3275
▁düşünül	-11.3279
▁bakan	-11.3279
▁Parlamentin	-11.328
▁qanunvericiliyi	-11.328
▁kalite	-11.3282
▁mahi	-11.3282
ktor	-11.3284
▁yastı	-11.329
▁edərdi	-11.3292
nom	-11.3293
TV	-11.3294
▁peki	-11.3295
▁yansı	-11.3296
▁qətl	-11.3296
PS	-11.3297
▁arkadaşı	-11.3298
▁işləyirdi	-11.3298
evi	-11.3298
üd	-11.3303
one	-11.3303
▁sahipler	-11.3304
▁sistemler	-11.3305
▁gazeteci	-11.3309
▁götürülür	-11.331
▁rəsmə	-11.3311
▁bizden	-11.3312
▁Natəvan	-11.3314
▁rastgele	-11.3314
▁Kaspi	-11.3314
▁Nuh	-11.3314
▁heykel	-11.3314
▁sıtma	-11.3315
▁zihinsel	-11.3315
▁Konstitusiyası	-11.3317
▁təməli	-11.3318
▁çarpı	-11.3319
▁genişlənməsi	-11.3321
▁Qulu	-11.3324
▁savaşın	-11.3324
▁baktığımızda	-11.3326
▁şirkətlər	-11.3326
▁etdirməy	-11.3328
▁deneyler	-11.3331
▁axı	-11.3332
əbhəsi	-11.3332
,6	-11.3333
▁kendimize	-11.3337
▁verdiğimiz	-11.3337
▁Düşün	-11.3338
▁insanlık	-11.3338
▁basın	-11.3338
▁hayatlarını	-11.334
iqasını	-11.3343
▁oynanıl	-11.3344
▁varmış	-11.3347
▁karşılaştı	-11.3348
▁toqquşma	-11.3349
▁çalma	-11.3349
▁təsərrüfatında	-11.335
▁növlərində	-11.3351
▁sebeple	-11.3352
▁isimli	-11.3354
▁qəsd	-11.3354
▁barmaq	-11.3356
▁yarattı	-11.3359
▁çözümü	-11.3359
▁keçirə	-11.336
▁eksik	-11.3363
▁öner	-11.3364
▁galaksi	-11.3366
▁muzeyin	-11.3368
▁cismin	-11.3368
▁Fe	-11.3369
▁davranışı	-11.337
▁saçma	-11.3371
▁ebeveyn	-11.3372
▁çıkarıyor	-11.3373
▁çerçeve	-11.3374
▁Nuxa	-11.3374
▁vahşi	-11.3374
▁istəsə	-11.3374
▁yayılıb	-11.3375
▁çoxluq	-11.3375
▁Steve	-11.3375
▁buraxdı	-11.3375
▁sürede	-11.3378
▁səfərdə	-11.3379
▁planda	-11.3379
▁çekmek	-11.338
abileceğini	-11.3381
▁Şıxlı	-11.3381
▁Mc	-11.3382
▁üretimi	-11.3382
▁tikilir	-11.3383
▁çözmek	-11.3383
▁bay	-11.3387
oğrafiya	-11.3388
▁hissəsidir	-11.3388
▁düşürdü	-11.339
▁yolculuğu	-11.3391
▁konfranslar	-11.3391
▁avtomobili	-11.3397
▁KP	-11.3397
▁köçürül	-11.3398
▁diyorlar	-11.34
▁tapılı	-11.3404
▁ənənələrini	-11.3405
▁yönetme	-11.3406
▁içerik	-11.3406
▁62	-11.3406
qəsd	-11.3406
▁tasarımcı	-11.3408
,7	-11.3409
▁Ailəli	-11.3411
▁iy	-11.3412
▁filmini	-11.3412
▁sərvət	-11.3412
▁verilişləri	-11.3415
▁verməyi	-11.3419
▁sülhü	-11.3421
gal	-11.3422
aşırı	-11.3422
▁heykəlin	-11.3424
▁yetenek	-11.3426
▁130	-11.3427
▁bağlam	-11.3428
▁işçiləri	-11.3429
▁yüksəli	-11.3431
dra	-11.3433
rofessor	-11.3434
▁faaliyet	-11.3435
▁kölgə	-11.3435
▁toxucu	-11.3435
▁qrammatik	-11.3435
▁idrak	-11.3435
▁Bəlkə	-11.3435
Dəvə	-11.3435
▁Heyvan	-11.3436
▁süfrə	-11.3437
▁Far	-11.3438
▁yetirilmiş	-11.3439
▁quruluşunda	-11.3439
▁başlanğıcında	-11.344
lendiği	-11.3441
▁oxucu	-11.3441
▁içeren	-11.3441
▁Bazar	-11.3441
ımızda	-11.3442
▁bildiğiniz	-11.3444
▁oluşturur	-11.3444
▁iman	-11.3449
▁seçimler	-11.3452
▁icması	-11.3452
▁eşidən	-11.3456
▁Oğlu	-11.3458
▁hastalar	-11.3458
▁torpaqlarda	-11.3458
▁burnu	-11.3458
▁uğraş	-11.3458
▁Ayrı	-11.346
eceksiniz	-11.3462
▁seviyor	-11.3463
▁Savaşı	-11.3463
ğümüz	-11.3465
▁bazılarını	-11.3465
▁platform	-11.3467
▁girmiş	-11.3467
▁yamac	-11.3469
▁faydalan	-11.3473
▁tədqiqatları	-11.3475
▁artımı	-11.3475
▁tuz	-11.3478
▁məktubun	-11.3481
abbar	-11.3482
▁soruları	-11.3482
▁köçmüşdü	-11.3485
irken	-11.3487
▁xəritəsi	-11.3488
▁kadr	-11.3489
▁təkamül	-11.349
▁yığın	-11.3491
▁yayımlana	-11.3493
mühendis	-11.3494
▁gəmilərin	-11.3494
▁şairlər	-11.3495
▁mekanizma	-11.3495
▁Gürcü	-11.3496
▁birçoğu	-11.3496
▁Yəhudi	-11.3496
▁Qəsəbə	-11.3496
▁yeniyetmə	-11.3496
▁Kinolent	-11.3496
▁tabaka	-11.3496
▁Platon	-11.3496
vo	-11.3496
▁İyul	-11.3496
▁milyarlarca	-11.3496
▁İnşaat	-11.3496
▁Assuriya	-11.3497
əmi	-11.3497
▁evləndi	-11.3498
▁yetirdi	-11.3499
▁Fatma	-11.3499
ife	-11.3499
▁Neyse	-11.3501
▁Genel	-11.3501
▁Quranda	-11.3502
▁doğan	-11.3503
▁sənətçi	-11.3504
▁parayı	-11.3504
▁üçte	-11.3505
▁görüşlər	-11.3505
▁çempionat	-11.3505
▁1965	-11.3506
▁başlamak	-11.3507
▁ulduzların	-11.3508
▁adlandırılı	-11.3508
▁Nami	-11.351
▁Sər	-11.351
▁almaz	-11.3512
▁şüaları	-11.3513
▁ortalarına	-11.3514
▁oturdu	-11.3514
▁qaldırdı	-11.3516
lüyor	-11.3516
org	-11.3517
ğra	-11.3519
-15	-11.3521
▁buynuz	-11.3524
ktı	-11.3524
▁yayıldığı	-11.3525
▁giriyor	-11.3527
▁himayəsi	-11.3529
▁ifası	-11.3529
▁Kendisi	-11.353
▁əşya	-11.3533
▁tamamı	-11.3539
▁yayma	-11.354
▁tutul	-11.3542
▁vadi	-11.3547
▁məzhəbi	-11.355
▁Berlində	-11.3551
▁oturan	-11.3553
▁Evi	-11.3554
▁ekspert	-11.3557
▁faşist	-11.3557
▁xeyirxah	-11.3557
▁fosil	-11.3557
▁fundamental	-11.3557
▁karikatür	-11.3557
▁etiqad	-11.3557
▁Vətəndaş	-11.3558
▁güvenilir	-11.3559
mıştır	-11.3559
▁tanınması	-11.356
▁hissediyorum	-11.3561
▁diyelim	-11.3562
▁fond	-11.3562
▁qanı	-11.3563
▁dayana	-11.3564
▁Yakın	-11.3564
▁təbəqəsi	-11.3565
casına	-11.3565
▁salmışdı	-11.3567
dissertasiyasını	-11.3568
▁şagirdi	-11.3569
▁maden	-11.3569
▁işlənə	-11.3571
yd	-11.3572
▁olmazdı	-11.3573
ersiya	-11.3574
▁Bayramov	-11.3575
mid	-11.3576
mizdeki	-11.3576
▁tatlı	-11.3576
▁romanları	-11.3576
▁çıxma	-11.3577
▁kendiniz	-11.3579
avuz	-11.358
▁olunmalı	-11.3582
▁konuya	-11.3582
▁oyunçular	-11.3582
▁yöne	-11.3583
▁etmirdi	-11.3587
əslən	-11.359
▁Bel	-11.3592
▁oluş	-11.3597
▁variantın	-11.3599
▁Yaz	-11.36
▁riski	-11.3605
▁gözlə	-11.3609
▁üstünlüyü	-11.3615
▁etməsində	-11.3616
▁avtomobilləri	-11.3619
▁epizod	-11.3619
▁müdrik	-11.3619
▁eğri	-11.3619
▁Eğitim	-11.3619
▁mütəfəkkir	-11.3619
▁yetirilməsi	-11.3619
▁Şəhid	-11.3619
▁maruz	-11.3619
▁şairlərin	-11.362
▁140	-11.362
▁salonu	-11.3621
▁Fərmanı	-11.3621
▁1870	-11.3621
imize	-11.3622
▁zamanın	-11.3623
ılmaz	-11.3623
▁İyun	-11.3625
▁kilit	-11.3625
▁olabilirdi	-11.3625
▁Festivalı	-11.3626
▁altındadır	-11.3627
▁ederiz	-11.3627
▁tacir	-11.3627
▁payızında	-11.3631
▁yatak	-11.3635
▁çevresinde	-11.3637
▁müəllifin	-11.3638
▁kəsmə	-11.3639
▁dövrlərin	-11.3639
▁bahsetti	-11.364
mızdan	-11.364
▁dediğim	-11.3641
▁gençler	-11.3641
▁mütə	-11.3645
ayede	-11.3647
▁redaksiya	-11.3647
▁qurd	-11.3648
▁nöqtələri	-11.3653
▁davamı	-11.3657
▁uzaqlaş	-11.3658
▁bazarın	-11.3658
▁üsulla	-11.366
▁yapmanız	-11.3664
▁Tusi	-11.3664
▁oturu	-11.3666
▁ediyordu	-11.3666
▁dağıdıl	-11.3673
▁itirmə	-11.3673
▁hədiyyələr	-11.3675
▁istedadı	-11.3677
▁kişilik	-11.3677
▁şiddətl	-11.3677
ock	-11.3677
▁kızlar	-11.3677
▁Tez	-11.3678
▁geliyordu	-11.3679
▁Meşə	-11.3679
▁Aran	-11.368
▁kuboku	-11.3681
▁istehkam	-11.3681
▁uyku	-11.3681
▁öfke	-11.3681
▁nəticələndi	-11.3681
▁Xızı	-11.3681
▁yəqin	-11.3681
▁aclıq	-11.3682
▁birbirlerine	-11.3683
▁sevdiyi	-11.3683
▁Anders	-11.3683
mədən	-11.3683
▁Mehdiyev	-11.3684
▁sər	-11.3685
▁karvan	-11.3685
▁bədəni	-11.3685
prezidenti	-11.3685
▁Bursa	-11.3687
▁Qoca	-11.3688
mdar	-11.369
▁olgu	-11.3694
▁testi	-11.3696
,8	-11.3696
▁yəhudilərin	-11.3697
▁saha	-11.3701
▁qaydalar	-11.3701
▁kadrlar	-11.3703
▁studiya	-11.3704
▁önemi	-11.3705
▁olmuştur	-11.3708
▁durdur	-11.3708
▁Ege	-11.371
▁bahsettiğim	-11.3711
▁Savaş	-11.3715
▁Sona	-11.3716
▁nümunələr	-11.3718
▁Peterburq	-11.372
▁Yolu	-11.372
▁kalmış	-11.3722
avr	-11.3722
mekten	-11.3722
lyasiya	-11.3726
▁orduları	-11.3726
▁durdu	-11.3727
▁Mada	-11.3731
▁qaçmağ	-11.3733
▁öngörü	-11.3734
aqqal	-11.3738
▁başlığı	-11.3739
mezsiniz	-11.374
lassik	-11.3742
▁yıldızlar	-11.3742
▁azarkeş	-11.3743
▁Əhəməni	-11.3743
▁Geniş	-11.3744
▁xatun	-11.3744
▁önəm	-11.3744
▁köçürülməsi	-11.3744
▁blog	-11.3745
▁vakti	-11.3745
▁rengi	-11.3745
rtəsi	-11.3747
▁səciyyələn	-11.3748
▁Xaç	-11.3749
▁ısınma	-11.3754
▁xəstəliyində	-11.3754
▁Hans	-11.3756
▁çalışırken	-11.3757
▁bakıma	-11.3757
elinin	-11.3759
▁delik	-11.3761
▁qovu	-11.3761
▁kaydı	-11.3762
▁otur	-11.3762
▁vurmaq	-11.3763
lıların	-11.3763
▁yaradıcılığ	-11.3763
▁96	-11.3765
▁xətləri	-11.3768
11	-11.377
▁regionda	-11.3771
etme	-11.3771
▁gey	-11.3773
▁eri	-11.3774
▁damarları	-11.3774
▁belirsiz	-11.3774
imle	-11.3776
lov	-11.3777
eceğiniz	-11.3778
▁350	-11.3778
▁istedikleri	-11.3779
▁səbəblə	-11.378
▁saziş	-11.3781
▁müəllifləri	-11.3781
▁ustad	-11.3789
▁Hüs	-11.379
▁çəkilmə	-11.3791
▁kurumlar	-11.3795
lerce	-11.3796
▁uzat	-11.3797
▁olanları	-11.3798
▁malları	-11.3801
ınıza	-11.3805
künc	-11.3805
oslav	-11.3805
▁Fakültə	-11.3806
▁Ibrahim	-11.3806
▁Şıxlinski	-11.3806
▁batalyon	-11.3806
▁Obama	-11.3806
▁orucu	-11.3806
▁adlandırıldı	-11.3807
▁özgürlük	-11.3807
▁qoruyur	-11.3808
▁kurban	-11.3809
uantum	-11.3809
▁İsti	-11.3811
▁benzin	-11.3812
aret	-11.3812
▁koca	-11.3813
▁zədə	-11.3813
▁iran	-11.3814
▁Ərəbistanı	-11.3814
bilirler	-11.3815
▁tapdı	-11.3816
▁01	-11.3816
▁komissarı	-11.3817
▁buyurdu	-11.3818
▁söyleyen	-11.3819
▁Arka	-11.3819
▁çıxarılır	-11.3821
▁qanunun	-11.3821
▁yerinin	-11.3822
rilişləri	-11.3823
5-	-11.3823
▁Muğa	-11.3828
▁atdı	-11.3829
▁xəritə	-11.3829
▁ağaclar	-11.383
▁yetki	-11.3831
▁türkcəsi	-11.3832
▁çıxar	-11.3833
▁Naziri	-11.3833
ğim	-11.3836
▁komşu	-11.3838
▁radiosu	-11.3842
▁şer	-11.3842
▁zorlu	-11.3843
▁köşe	-11.3844
▁süqutun	-11.3845
düyü	-11.3845
▁Kadın	-11.3845
▁900	-11.3851
▁satma	-11.3855
ldukça	-11.3856
▁Təşkilat	-11.3859
▁sizler	-11.386
▁toplanmış	-11.386
▁kaynaklar	-11.386
▁gününü	-11.3862
▁29-	-11.3863
▁əsrlərin	-11.3863
▁güləş	-11.3863
tmək	-11.3865
▁yazarı	-11.3865
▁şahidi	-11.3865
erken	-11.3867
▁Fərrux	-11.387
▁Moldova	-11.387
▁zireh	-11.387
▁Fərəc	-11.387
▁fırtına	-11.387
▁Değil	-11.387
▁uyuşturucu	-11.387
▁otlaq	-11.387
▁Saturn	-11.387
▁inanı	-11.3871
nizle	-11.3871
▁fonunda	-11.3872
▁başardı	-11.3873
▁mifologiyasında	-11.3874
▁ilaçlar	-11.3876
▁alacağı	-11.3878
▁güllə	-11.3879
▁örnekler	-11.3879
▁yürüşləri	-11.3879
▁düşündüğümüz	-11.3882
▁ağıllı	-11.3883
▁yapılıyor	-11.3883
▁növlər	-11.3884
▁yazıçıları	-11.3885
▁padşahı	-11.3886
▁işləyə	-11.3886
▁ritm	-11.3886
▁Həsənəli	-11.3887
▁orqanlarını	-11.3888
▁gizlən	-11.3892
▁yetirilmişdi	-11.3892
▁soyut	-11.3897
▁küre	-11.3899
imizde	-11.3899
məli	-11.39
▁dönüyor	-11.3901
▁Sovetlər	-11.3901
▁yetirmə	-11.3902
▁etraf	-11.3904
▁zirvə	-11.3908
▁geliş	-11.391
niversitetdə	-11.3912
▁yerleri	-11.3912
▁istehsalat	-11.3912
▁şişe	-11.3913
ezliklə	-11.3913
▁Məmmədovu	-11.3914
▁xəbərlər	-11.3915
▁fayl	-11.3918
▁İri	-11.392
▁turşu	-11.392
eynə	-11.3921
▁hızı	-11.3921
▁geliştirmek	-11.3922
▁eynidir	-11.3923
▁haberler	-11.3923
ocukları	-11.3926
▁sunum	-11.393
▁qapıları	-11.3933
▁Sührəvərdi	-11.3933
sabiq	-11.3933
ərdüşt	-11.3933
▁Kesinlikle	-11.3933
▁depresyon	-11.3933
▁fenomen	-11.3933
▁təcəssüm	-11.3933
▁ölümcül	-11.3933
▁sıkıntı	-11.3933
▁olunmur	-11.3934
▁cesur	-11.3934
▁teklif	-11.3934
▁yetirilir	-11.3935
ğıda	-11.3935
▁amerikan	-11.3937
▁Hacıbəyli	-11.3938
▁dəf	-11.394
▁siyahısında	-11.3941
ekranlaşdırılmış	-11.3941
▁hərəkətlər	-11.3944
▁quyu	-11.3946
▁icad	-11.3946
▁Andrey	-11.3946
▁həddi	-11.3948
▁köçdü	-11.3948
▁analo	-11.3949
▁Müslüman	-11.395
▁açılış	-11.3953
brik	-11.3954
▁Səfər	-11.3955
▁uçma	-11.3956
▁faktı	-11.3956
▁çalışıyorlar	-11.3957
▁anlıyor	-11.3957
▁saatte	-11.3959
▁Nü	-11.396
▁çektiği	-11.396
pək	-11.3964
▁birincisi	-11.3964
▁razılaşma	-11.3965
vant	-11.3967
▁əlaqədə	-11.3968
▁Fizik	-11.3968
▁atmosferi	-11.3968
▁gelmek	-11.3974
▁statistik	-11.3975
▁Fu	-11.3976
▁tamamlayı	-11.3978
▁miktarı	-11.3981
▁kitaplar	-11.3981
əhiyyə	-11.3985
▁məqalələrin	-11.3985
baş	-11.3986
▁hayvanların	-11.3986
▁xassələri	-11.3988
ğiniz	-11.3992
▁otaqda	-11.3993
▁yararlan	-11.3995
▁məqsədləri	-11.3997
▁vampir	-11.3997
▁Quşçu	-11.3997
▁felaket	-11.3997
▁sanitariya	-11.3997
▁İslandiya	-11.3997
▁qütb	-11.3997
▁səmimi	-11.3997
▁bəzəy	-11.3997
▁parazit	-11.3998
▁ödənilməsi	-11.3998
▁istək	-11.3998
▁Rio	-11.3999
▁trans	-11.3999
▁qidalanır	-11.4
▁çıxarmışdı	-11.4002
▁yaşındayken	-11.4003
▁bilmiyoruz	-11.4003
▁körpüsü	-11.4004
▁düzenli	-11.4004
▁kubokunu	-11.4008
▁kimsə	-11.401
▁rütubətli	-11.401
▁bişiril	-11.4012
▁uzaqda	-11.4013
▁arabalar	-11.4014
sevə	-11.4021
▁edilər	-11.4023
▁layihələrin	-11.4023
▁bazarı	-11.4024
▁Bəs	-11.4024
▁bey	-11.4024
▁alınara	-11.4025
▁yönet	-11.4025
▁Sur	-11.4029
▁miras	-11.4031
▁vəsaitləri	-11.4035
▁İnsanın	-11.4035
ons	-11.4036
▁dəstələr	-11.4036
▁yayla	-11.404
▁Beyin	-11.4041
▁İmperiyasını	-11.4042
▁Fua	-11.4043
▁regiona	-11.4045
▁bitən	-11.4046
▁dedikdə	-11.4051
▁adama	-11.4052
▁zinciri	-11.4052
▁tamaşaları	-11.4053
▁partiyanı	-11.4056
▁işləmə	-11.4058
▁hissettiği	-11.4059
▁alay	-11.4061
▁Xədicə	-11.4062
▁həzrət	-11.4062
▁Arxiv	-11.4062
▁edilmir	-11.4062
▁duyur	-11.4062
mes	-11.4063
▁kurqan	-11.4063
▁şirketlerin	-11.4064
▁denilen	-11.4066
▁yüzyılın	-11.4066
▁teleskop	-11.4068
▁günümüz	-11.4068
▁qaldıra	-11.407
▁görürü	-11.4071
təhsil	-11.4072
▁öneri	-11.4072
▁rok	-11.4075
▁peyk	-11.4076
▁qəzəl	-11.4076
▁ortamı	-11.4078
▁əməli	-11.4079
Peterburqda	-11.408
▁maymun	-11.408
▁mətnləri	-11.408
▁biləcəyini	-11.4082
▁bahsediyor	-11.4083
▁robotu	-11.4085
▁çeken	-11.4087
▁hadisədə	-11.4088
lduğunu	-11.4091
▁kullanmaya	-11.4092
▁Müharibədə	-11.4093
▁Şey	-11.4096
▁xeyriyyə	-11.4097
▁yetişdiril	-11.41
▁ödəmək	-11.41
basar	-11.41
▁əmlakı	-11.4102
marım	-11.4103
mıyorlar	-11.4107
tmişdi	-11.4108
▁sevdiği	-11.4108
▁Məlikov	-11.411
▁hökümət	-11.4114
▁ədədlər	-11.4115
▁əsərlərdə	-11.4118
▁sıklıkla	-11.412
▁hazırlanı	-11.4121
▁iyulda	-11.4121
uhtemelen	-11.4124
▁qon	-11.4124
▁laboratoriyası	-11.4126
ico	-11.4127
▁market	-11.4127
▁öğle	-11.4127
▁Apple	-11.4127
▁Məşhəd	-11.4127
▁Vidadi	-11.4127
▁Əlcəzair	-11.4127
▁Ərzurum	-11.4127
▁çatdırır	-11.4127
▁Meydan	-11.4127
▁tahta	-11.4127
▁düşünülür	-11.4128
▁sorumluluk	-11.4128
▁yeməklər	-11.4129
leyebilir	-11.4129
▁Dərə	-11.413
▁bölünmüşdü	-11.413
▁düşdüyü	-11.413
▁Yuxarıda	-11.4131
▁pulsuz	-11.4131
▁toponim	-11.4132
▁basitçe	-11.4133
▁Köçərli	-11.4134
▁mat	-11.4135
▁qarşıdurma	-11.4135
▁vəziyyətində	-11.4135
▁səlahiyyətləri	-11.4135
▁Mol	-11.4136
▁yarımadasını	-11.4137
▁tutması	-11.4139
▁alıyoruz	-11.414
▁çıxarı	-11.414
▁olmuyor	-11.4141
▁gərginlik	-11.4142
▁utan	-11.4145
▁Məkkədə	-11.4145
▁şahid	-11.4145
▁memarı	-11.4146
▁rayonlarda	-11.4146
layın	-11.4148
▁uğurları	-11.4149
▁bölgələri	-11.4155
▁yeme	-11.4156
▁yardımçı	-11.4156
▁vahidləri	-11.4157
▁sifariş	-11.4159
▁planları	-11.416
▁inanıyor	-11.4165
▁neyi	-11.4165
▁olunduqda	-11.4166
▁satışı	-11.4166
▁sikkələr	-11.4167
▁tənqidçi	-11.4168
▁geçirme	-11.417
▁qaba	-11.4171
▁saldığı	-11.4174
atılan	-11.4175
▁gerçekliği	-11.4175
▁İşin	-11.4179
▁kontrolü	-11.4182
▁dəvə	-11.4182
▁böcekler	-11.4184
▁Məktəbini	-11.4185
meyeceğim	-11.4186
acağımız	-11.4187
▁attı	-11.4189
▁tələblərin	-11.419
▁çəkə	-11.4191
▁zihin	-11.4191
▁Sentyabr	-11.4192
▁Michael	-11.4192
▁Qlazqo	-11.4192
▁müqabili	-11.4192
▁tənəffüs	-11.4192
▁xəmir	-11.4192
▁Münhen	-11.4192
▁olumlu	-11.4192
▁zeyt	-11.4192
▁idare	-11.4192
▁Senat	-11.4192
▁ağciyər	-11.4193
▁ürünler	-11.4194
24	-11.4194
▁gelince	-11.4195
▁klipi	-11.4195
▁şeyləri	-11.4195
▁Dev	-11.4196
▁festivalın	-11.42
▁kafe	-11.4201
▁rəqəmlər	-11.4201
▁əhvalat	-11.4203
mıyordu	-11.4204
▁sənədləri	-11.4204
▁koyuyor	-11.4207
▁dağıldı	-11.4208
▁amillər	-11.4209
▁oynayırdı	-11.4209
▁oturma	-11.421
▁çözme	-11.421
▁lüğəti	-11.421
▁sıkıcı	-11.4212
▁98	-11.4212
▁sola	-11.4212
▁müşteri	-11.4215
▁yarpaq	-11.4215
layabilirsiniz	-11.4216
▁əlamətlər	-11.4216
leştirmek	-11.4216
▁Babam	-11.422
▁maşınları	-11.4221
▁Mas	-11.4222
▁Andre	-11.4225
▁isteği	-11.4226
▁Peyğəmbəri	-11.4226
▁Alan	-11.4228
▁keyfiyyətləri	-11.4228
▁romanını	-11.423
▁relyefi	-11.4231
▁dönmə	-11.4231
▁Şimalda	-11.4236
▁gelişimi	-11.4236
▁aday	-11.4242
▁sistemimiz	-11.4244
▁geçiriyor	-11.4245
ator	-11.4246
▁birbirimiz	-11.4247
▁şura	-11.4249
▁onay	-11.4253
▁ederler	-11.4253
▁poeziyası	-11.4256
▁adada	-11.4256
▁anlamında	-11.4257
▁hikayeleri	-11.4257
▁yönəlmiş	-11.4258
▁tohum	-11.4258
▁qoyulması	-11.4258
▁ziyade	-11.4258
▁xatırlayır	-11.4258
▁etkileyici	-11.4259
▁Məsud	-11.4259
▁konsul	-11.426
▁dindar	-11.426
▁Araba	-11.426
aska	-11.4261
▁tipləri	-11.4262
aşqın	-11.4264
▁çatması	-11.4268
▁nəfərin	-11.4268
▁ayaqları	-11.4269
▁dönəm	-11.4269
▁keşfetti	-11.4271
Yorkda	-11.4272
▁Farklı	-11.4274
▁Amerikalılar	-11.4274
▁bitkiler	-11.4274
▁Yaşar	-11.4275
▁ailələri	-11.4276
ınızda	-11.4277
▁potensial	-11.4278
▁nümunələrindən	-11.4279
▁tapma	-11.4279
▁ağaçları	-11.4281
▁edeceği	-11.4286
▁xaqanı	-11.4287
düşünebilirsiniz	-11.4287
▁külli	-11.4291
tah	-11.4297
▁yapılar	-11.4298
▁sağa	-11.43
▁geçmişte	-11.43
▁bilgiler	-11.4301
▁tutara	-11.4302
üsü	-11.4304
▁uyarı	-11.4304
▁atan	-11.4305
▁hazırlayan	-11.4308
▁çirkin	-11.4309
▁əmirləri	-11.4312
▁ima	-11.4315
▁Bilə	-11.4317
▁sərhəddi	-11.4317
▁yapıyordu	-11.4317
▁alimlik	-11.4319
labilecek	-11.4319
ateqoriya	-11.4322
▁Bahar	-11.4324
▁Presli	-11.4324
▁Toğrul	-11.4324
▁aracılığıyla	-11.4324
▁fındıq	-11.4324
▁öyrəndi	-11.4324
▁nihayet	-11.4324
▁otomatik	-11.4324
▁sahte	-11.4324
▁şikayət	-11.4324
▁qoşulma	-11.4324
▁1895	-11.4325
▁Axundzadə	-11.4325
▁Ardında	-11.4325
▁bitişik	-11.4326
▁kutsal	-11.4326
▁ölçüm	-11.4326
▁astronomi	-11.4327
ston	-11.4328
▁Sudan	-11.4329
▁buzul	-11.433
▁beslenme	-11.4331
▁bariz	-11.4331
▁tələbi	-11.4331
▁donanma	-11.4335
▁divarlarını	-11.4335
▁izledi	-11.4337
iyyəti	-11.4337
sif	-11.4337
▁müqaviməti	-11.4338
▁kanat	-11.4339
▁cəbhədə	-11.434
▁hərbçi	-11.4342
▁ört	-11.4343
▁başlıyoruz	-11.4343
▁1880	-11.4344
▁genişlet	-11.4344
▁evlənir	-11.4347
▁vurmuşdu	-11.4351
▁köprü	-11.4352
▁məktubu	-11.4353
▁biriydi	-11.4354
▁renkler	-11.4354
▁mövzuda	-11.4354
urdu	-11.4355
▁döngü	-11.4358
▁kolu	-11.4358
▁effekt	-11.4359
▁savaşa	-11.4359
▁oykonimi	-11.436
▁gələndə	-11.4361
▁koş	-11.4361
▁aletler	-11.4363
▁çəkmişdi	-11.4364
▁keşfetme	-11.4367
▁anlatacağım	-11.4368
▁çoğunuz	-11.4371
▁mahnılarını	-11.4371
▁alanlarda	-11.4374
▁təriqətin	-11.4375
▁şeirlərini	-11.4378
▁49	-11.4379
▁tanrıları	-11.4383
▁Məhərrəm	-11.4383
▁Mehr	-11.4383
▁ağlar	-11.4385
▁qızılı	-11.4386
lacak	-11.4389
▁içeriği	-11.439
▁Bölgə	-11.4391
▁Bələdiyyə	-11.4391
▁Dördüncü	-11.4391
▁kobud	-11.4391
▁Varşava	-11.4391
▁esnek	-11.4391
▁işlev	-11.4391
▁İzmir	-11.4391
▁Keçi	-11.4391
▁Toplum	-11.4391
▁nehir	-11.4391
▁Xoyski	-11.4391
▁kocaman	-11.4393
uşu	-11.4393
lerimize	-11.4394
▁76	-11.4398
▁dərəcəsini	-11.4399
▁oturuyor	-11.4399
ildiği	-11.4401
▁nəslini	-11.4401
▁biologiya	-11.4402
▁falan	-11.4403
▁zordur	-11.4404
▁tayfasından	-11.4405
▁xilafəti	-11.4407
▁zavodları	-11.4408
▁İsmayılı	-11.4408
▁yapmakta	-11.4409
▁yaxınlaş	-11.441
▁Firu	-11.4411
▁inceledi	-11.4413
▁məğlubiyyəti	-11.4414
▁maraqlan	-11.4415
▁futbolu	-11.4416
▁biliyordum	-11.4417
▁sektör	-11.4424
▁Komitə	-11.4425
▁aileleri	-11.4426
▁ahlak	-11.4429
▁düşüş	-11.4432
▁kəşfi	-11.4433
▁dilimiz	-11.4435
▁Xəstə	-11.4436
▁çalışdığı	-11.4439
▁yapıp	-11.444
▁Alimlər	-11.4443
▁tersi	-11.4444
▁istemiyor	-11.4446
▁ayın	-11.4449
▁Monqol	-11.445
▁bağlanır	-11.4453
-12	-11.4453
AX	-11.4454
▁yazdım	-11.4455
▁zülm	-11.4455
▁bəstələ	-11.4456
▁okulu	-11.4457
▁bulabilir	-11.4458
▁Kalankatlı	-11.4458
▁Moğol	-11.4458
▁merhamet	-11.4458
▁zəhmət	-11.4458
▁bireysel	-11.4458
▁oyuncak	-11.4461
zunluğu	-11.4464
iriz	-11.4465
▁böcek	-11.4466
▁mülkü	-11.447
▁şairə	-11.4471
lıyorlar	-11.4472
▁organizmalar	-11.4474
maktır	-11.4476
▁yükselt	-11.448
▁növünü	-11.448
▁Ağır	-11.448
▁rolunda	-11.448
▁halları	-11.4484
▁baktım	-11.4486
▁imzaladı	-11.4488
▁kilsələri	-11.4489
▁Muradov	-11.449
▁məktubda	-11.449
bildi	-11.4492
▁cihazlar	-11.4494
evs	-11.4495
▁sırt	-11.4495
▁getirdiği	-11.4499
▁oyununu	-11.4501
▁yoksul	-11.4506
▁Səh	-11.4507
▁salını	-11.4509
▁şeirlərində	-11.4511
▁serial	-11.4514
▁Adana	-11.4515
▁kanalları	-11.4515
mdeki	-11.4516
▁kaldığı	-11.4517
▁110	-11.4517
▁tədqiqatçıların	-11.4519
▁parçalanması	-11.4519
▁formu	-11.4522
▁hadisələrdə	-11.4525
▁Noyabr	-11.4526
▁istehlak	-11.4526
▁Afşin	-11.4526
▁Konstantin	-11.4526
▁Yağləvənd	-11.4526
▁iqtidar	-11.4526
▁lisenziya	-11.4526
▁Strabon	-11.4526
▁başlayalım	-11.4526
▁Qoruğu	-11.4526
▁pozisyon	-11.4526
▁fərziyyə	-11.4526
▁bilməyib	-11.4526
▁Minsk	-11.4527
amin	-11.4528
▁söyleyebilirim	-11.4528
OS	-11.4529
▁Babur	-11.4529
▁duygusu	-11.453
▁Mədəni	-11.4532
▁insanlarda	-11.4533
▁hikayesini	-11.4534
▁Məs	-11.4535
▁tərəfini	-11.4535
▁evlənmə	-11.4536
▁stansiyaları	-11.4538
▁yosun	-11.4539
▁dövrlərində	-11.4539
▁vereceğim	-11.4541
▁tanrılar	-11.4541
▁balıkları	-11.4545
▁karyerası	-11.4545
▁məktublar	-11.4548
▁olayları	-11.4549
abitə	-11.4549
▁Stra	-11.455
▁Tak	-11.4556
▁nüfuzunu	-11.4557
▁ürəyi	-11.456
▁hüceyrələr	-11.4561
▁Dara	-11.4564
▁planını	-11.4565
▁obyektlər	-11.4566
▁verilənlər	-11.4567
▁işletme	-11.4569
▁xərc	-11.4569
ake	-11.4569
▁düşme	-11.4571
ach	-11.4575
lanabilir	-11.4575
▁peyki	-11.4579
▁genleri	-11.458
▁1883	-11.4583
▁Polis	-11.4586
▁havaya	-11.4588
▁ömürlü	-11.459
▁əmiri	-11.4594
▁1892	-11.4594
▁Toponim	-11.4594
▁hamilə	-11.4594
▁uçuşu	-11.4594
▁Gözəl	-11.4594
▁göçmen	-11.4594
▁duydum	-11.4595
▁avro	-11.4595
▁nesli	-11.4596
▁əlaqələndirir	-11.4596
▁müşahidələr	-11.4596
▁şərqşünas	-11.4597
▁küçəsi	-11.4597
▁kaybetme	-11.4597
▁Sahəsi	-11.4598
▁bahsedeceğim	-11.4598
▁tersine	-11.46
▁qayıtma	-11.46
▁övlad	-11.4602
▁fen	-11.4605
▁titr	-11.4606
▁öne	-11.4606
▁torpaqda	-11.4607
▁oranları	-11.4607
▁noktalar	-11.461
▁savunma	-11.4611
▁təkid	-11.4614
▁sormak	-11.4616
▁albomunda	-11.4619
▁yaxınlaşdı	-11.4619
▁girişimci	-11.4621
▁tira	-11.4622
▁kullanıyorlar	-11.4625
▁verər	-11.4625
▁konserv	-11.4631
▁Ener	-11.4639
▁müdafiəçi	-11.464
▁mükafatlar	-11.4641
▁yönel	-11.4646
amazsınız	-11.4649
▁67	-11.465
▁məhəbbəti	-11.4654
▁duruma	-11.4654
▁mərkəzdə	-11.4656
minlik	-11.4657
▁tamaşaçılar	-11.4658
▁gəldiyin	-11.4658
▁mühiti	-11.466
▁kavra	-11.466
▁iskelet	-11.466
▁bebekler	-11.4661
▁78	-11.4662
▁müayinə	-11.4662
▁Hikmət	-11.4662
▁Region	-11.4662
▁1890	-11.4662
▁Ronald	-11.4662
▁Keçə	-11.4662
▁icarə	-11.4662
▁tərzd	-11.4663
▁gətirilir	-11.4663
▁qaşı	-11.4664
▁teleqra	-11.4664
▁göç	-11.4666
▁proqramının	-11.4666
▁Komissar	-11.4667
▁çevirir	-11.4668
almasına	-11.467
▁Açıq	-11.4671
▁Akademiya	-11.4673
▁iyulunda	-11.4673
▁dakikada	-11.4674
▁kurtarma	-11.4678
▁geçirdim	-11.4681
▁Orda	-11.4681
▁modelini	-11.4681
▁mexanizm	-11.4683
▁qatar	-11.4684
▁vətəndaşların	-11.4684
▁şüalanma	-11.4684
▁konuşmayı	-11.4684
▁olacağız	-11.4685
▁kullandık	-11.4686
▁tutuyor	-11.4688
▁Mat	-11.4689
▁hissettim	-11.4689
▁aparatı	-11.469
▁arılar	-11.4691
▁gözünü	-11.4693
▁dönüşü	-11.4695
▁gelmişti	-11.4696
amayacağı	-11.4698
▁evrende	-11.4701
muzun	-11.4702
▁salınır	-11.4703
▁çalışanları	-11.4704
▁şagirdlərin	-11.4706
larımıza	-11.4707
tiş	-11.4708
ılacak	-11.4708
▁Qrup	-11.4708
araya	-11.4708
▁atma	-11.4711
▁etrafta	-11.4711
▁Şirvanda	-11.4711
▁rö	-11.4711
▁getmə	-11.4712
▁elementi	-11.4713
▁kəmiyyət	-11.4713
▁üretmek	-11.4713
▁yasal	-11.4715
▁köçürülmüş	-11.4715
▁karınca	-11.4715
▁aylık	-11.4716
▁əlini	-11.4718
▁sevən	-11.4719
▁barı	-11.4721
▁dinleme	-11.4722
▁ulaşım	-11.4723
▁eğlence	-11.4723
▁Şahin	-11.4724
▁yapısı	-11.4726
▁İlkin	-11.4726
▁yüzeyi	-11.4727
▁taşıma	-11.4729
▁Açık	-11.473
▁Fil	-11.4731
oze	-11.4731
▁Internet	-11.4731
▁hapishane	-11.4731
▁zirve	-11.4731
▁İndoneziya	-11.4731
▁Riyaziyyat	-11.4731
▁qurucusu	-11.4731
▁trafik	-11.4731
▁Eramız	-11.4731
▁Volqa	-11.4731
▁polad	-11.4731
▁gözleri	-11.4732
▁Sistem	-11.4735
▁lisey	-11.4735
▁aldığımız	-11.4736
▁qurum	-11.4736
▁yerlərini	-11.4736
▁koşullar	-11.4736
▁işleme	-11.4738
▁61	-11.4739
▁saysız	-11.4739
▁öyrənməy	-11.4739
▁mühazirələr	-11.4741
▁resme	-11.4742
▁Salam	-11.4743
laştırma	-11.4743
▁niyet	-11.4743
▁kalır	-11.4744
nku	-11.4744
▁gəzi	-11.4744
▁ötürmə	-11.4745
leştirilmiş	-11.4745
▁əməkdaşlığı	-11.4747
▁köçürülmüşdü	-11.4747
ıldığında	-11.4748
▁bitirdi	-11.4748
▁yetişdir	-11.4753
▁yükü	-11.4753
▁İspaniyada	-11.4754
▁hisseder	-11.4754
▁Arap	-11.4757
▁genişlən	-11.4758
▁burun	-11.4759
▁kolayca	-11.4761
▁fərqlər	-11.4762
▁bac	-11.4763
▁dağılmış	-11.4763
▁kapasite	-11.4763
▁problemler	-11.4771
▁düşərgəsi	-11.4771
▁kariyer	-11.4772
ordan	-11.4772
▁İndiyə	-11.4773
▁Ağalar	-11.4776
evinə	-11.478
▁lüğət	-11.4781
▁pyesləri	-11.4782
▁önde	-11.4783
▁aspiranturasın	-11.4784
▁anladı	-11.4785
ego	-11.4786
▁topladığı	-11.4786
▁uzağ	-11.4791
▁ideyalarını	-11.4791
▁çiftçi	-11.4792
dönə	-11.4794
▁qrupunda	-11.4795
▁göze	-11.4796
▁oyk	-11.4798
▁fasadı	-11.48
▁Motsart	-11.4801
▁Einstein	-11.4801
▁Richard	-11.4801
▁avukat	-11.4801
▁hörülmüş	-11.4801
▁Puşkin	-11.4801
▁İnanılmaz	-11.4801
▁canişin	-11.4801
▁çoğal	-11.4801
▁Prussiya	-11.4802
▁ayırı	-11.4802
▁varsayım	-11.4804
▁değişken	-11.4804
log	-11.4805
▁Səhər	-11.4805
▁mülkiyyəti	-11.4805
▁Yapon	-11.4806
▁Samur	-11.4807
▁arxasın	-11.4807
▁adamlarını	-11.4809
▁media	-11.481
▁hizmeti	-11.481
▁tutuldu	-11.4812
▁1899	-11.4815
karlar	-11.4815
▁əyanları	-11.4815
▁xeyir	-11.4815
▁oranında	-11.4816
▁örgüt	-11.4816
▁şəklini	-11.4817
▁Biliyor	-11.4817
eceğimiz	-11.4818
▁kardeşim	-11.4818
▁temelde	-11.482
▁çeviri	-11.4821
▁parçasını	-11.4822
boyu	-11.4825
▁açılı	-11.4825
▁Evli	-11.4828
▁Fərid	-11.4828
▁tələblər	-11.4829
liyiz	-11.483
▁əkil	-11.4831
▁ilaçları	-11.4832
dunuz	-11.4832
▁hücresi	-11.4833
▁məntəqələrində	-11.4837
▁ölmə	-11.4838
▁boğaz	-11.4841
▁cəsarət	-11.4842
▁həcmində	-11.4844
▁çeşitliliği	-11.4845
▁yüzillik	-11.4846
▁dastan	-11.4849
▁bütünlükl	-11.485
lükdə	-11.485
ahı	-11.4853
suvar	-11.4855
alışma	-11.4855
organizma	-11.4855
,2	-11.4858
▁yağları	-11.4864
▁verilməsini	-11.4866
▁yürüdü	-11.4867
▁məmulatları	-11.4867
▁bələd	-11.487
övhər	-11.487
▁Ferrari	-11.487
▁Herhangi	-11.487
▁Osetiya	-11.487
▁Təsadüfi	-11.487
▁yarımkürəsin	-11.487
▁etdirirdi	-11.487
▁iyimser	-11.487
▁cənab	-11.4871
▁tapıntılar	-11.4871
▁bacardı	-11.4871
▁bilinci	-11.4871
▁ötürülməsi	-11.4871
▁Bədəlbəyli	-11.4871
▁organize	-11.4871
etmek	-11.4871
▁artilleriya	-11.4871
▁altındaki	-11.4871
▁kütlələri	-11.4872
▁Qədir	-11.4872
▁çəkilməy	-11.4873
▁sərəncam	-11.4874
irler	-11.4874
▁qamış	-11.4878
▁organik	-11.4878
▁rollarda	-11.4882
▁ağıl	-11.4882
▁mətbuatın	-11.4888
adar	-11.4889
▁araşdırmaları	-11.489
▁tuttu	-11.489
adam	-11.489
▁kira	-11.4892
▁resimde	-11.4892
▁Əsəri	-11.4893
▁ideyasını	-11.4893
▁astronomiya	-11.4893
▁cihazları	-11.4894
▁çayların	-11.4895
▁olsalar	-11.4896
3-4	-11.4898
▁Ərə	-11.4898
emeyiz	-11.4905
▁sifarişi	-11.4906
▁şərqi	-11.4911
▁geldim	-11.4911
▁lövhələr	-11.4913
▁görünmez	-11.4914
▁qrafik	-11.4915
▁miqyasın	-11.4917
▁erkeklerin	-11.492
urnallar	-11.4921
▁değerleri	-11.4925
mişli	-11.4925
▁Sta	-11.4925
▁günlerde	-11.4928
bot	-11.4928
▁dusu	-11.4929
▁sakinlər	-11.493
▁tarihinde	-11.4931
▁mərtəbəli	-11.4934
▁dayanma	-11.4934
▁bağlantılı	-11.4935
▁rəsmlər	-11.4936
inizin	-11.4938
ərviş	-11.4939
▁humani	-11.4941
▁Nuri	-11.4941
▁1878	-11.4941
▁iğne	-11.4941
▁dosya	-11.4941
▁silindr	-11.4941
▁voleybol	-11.4941
▁kasaba	-11.4943
▁irqi	-11.4943
▁Baltik	-11.4943
▁Evren	-11.4943
arpa	-11.4944
▁istemiyorum	-11.4945
▁məhsulun	-11.4946
▁edilsə	-11.4947
▁öldürür	-11.4949
▁solda	-11.4949
▁eğlen	-11.495
▁qayıtmışdı	-11.4951
▁portret	-11.4953
▁eleştir	-11.4953
▁aldığım	-11.4954
▁etmeniz	-11.4956
▁tarama	-11.4957
▁meydanda	-11.4957
▁zənginliyi	-11.4957
omon	-11.4958
▁gördüğü	-11.4958
und	-11.4958
öp	-11.4959
▁üstesinde	-11.496
▁əməlləri	-11.496
giz	-11.4963
▁planlama	-11.4963
▁başkanı	-11.4963
▁Turan	-11.4965
▁bırakıyor	-11.4967
bilecek	-11.4968
▁hayatımız	-11.4968
▁175	-11.4969
▁əd	-11.497
▁koymak	-11.4972
▁elini	-11.4977
bili	-11.4977
▁səfir	-11.4979
başı	-11.498
▁resimleri	-11.4982
▁planetlər	-11.4988
▁başqalarını	-11.4988
03	-11.4989
▁değiştiriyor	-11.4992
▁şekilleri	-11.4993
▁canlıların	-11.4993
▁sahibkar	-11.4996
▁gelin	-11.4998
▁gezegenin	-11.4999
▁gittiği	-11.5002
▁keçirirdi	-11.5002
▁tutun	-11.5005
çü	-11.5005
təpə	-11.5008
▁rəssamları	-11.5008
▁eseri	-11.501
eg	-11.501
0,000	-11.5012
iverpul	-11.5012
▁Maqomayev	-11.5012
▁Agentliyi	-11.5012
▁Avustralya	-11.5012
▁Estoniya	-11.5012
▁Eylül	-11.5012
▁Mübariz	-11.5012
▁Müqavilə	-11.5012
▁Qahirə	-11.5012
▁Sosyal	-11.5012
▁Topçubaşov	-11.5012
▁favori	-11.5012
▁Seçki	-11.5012
▁səhih	-11.5012
▁texnikumu	-11.5012
▁zolağı	-11.5012
▁çanta	-11.5012
▁göndərilməsi	-11.5012
▁xürrəmilər	-11.5012
harles	-11.5013
▁artıyor	-11.5013
▁təbiətdə	-11.5013
▁dolayısıyla	-11.5013
▁mikroskop	-11.5014
▁kamil	-11.5015
▁üsyançılar	-11.5015
▁sıradışı	-11.5016
▁İqtisad	-11.5016
▁Yıl	-11.5017
▁Tədqiqatlar	-11.5017
▁Hələb	-11.5019
cam	-11.502
▁bölgesi	-11.5021
▁sentyabrda	-11.5022
▁ocaq	-11.5023
▁Qəzvin	-11.5025
▁çağında	-11.5026
▁alıntı	-11.5027
▁izliyor	-11.5027
▁genom	-11.5028
▁dalğaları	-11.5028
fak	-11.5028
▁güvenliği	-11.5028
▁nano	-11.5029
kinden	-11.5031
▁uzaklaş	-11.5032
▁bürcü	-11.5032
▁öldürme	-11.5036
▁resursları	-11.504
cal	-11.5041
▁soyadı	-11.5042
▁dayaq	-11.5042
▁terrorçu	-11.5043
▁məhkəməsi	-11.5044
▁annesi	-11.5044
▁Sura	-11.5047
▁qadınları	-11.5047
▁2,5	-11.5047
qrafik	-11.5047
▁çayında	-11.5056
▁hizmetleri	-11.5056
▁yetirmək	-11.5057
▁ilişkiler	-11.5058
▁üzləş	-11.5062
▁ortamda	-11.5063
▁yıka	-11.5063
▁Kore	-11.5066
▁xatirələrində	-11.5069
▁təbabət	-11.507
▁bası	-11.508
ğren	-11.508
▁Konu	-11.508
▁göstəriciləri	-11.5081
▁cərrah	-11.5083
▁Humay	-11.5083
▁Mansurov	-11.5083
▁meşgul	-11.5083
▁repressiya	-11.5083
▁borç	-11.5083
▁otobüs	-11.5083
▁1828-	-11.5083
▁Yaşıl	-11.5084
▁obyekt	-11.5084
▁slayt	-11.5085
▁aviasiya	-11.5086
bes	-11.5088
▁qoşununu	-11.5089
▁itkilər	-11.509
▁millətçi	-11.5091
▁qoyduğu	-11.5096
▁kendim	-11.5096
▁Xanım	-11.5097
▁doğası	-11.5099
▁Hafi	-11.51
▁həllini	-11.5102
▁Tim	-11.5103
▁söyledim	-11.5103
ğımda	-11.5103
▁təqvim	-11.5104
▁Sel	-11.5107
mayacağını	-11.5108
85	-11.5109
ılabilir	-11.511
lamaz	-11.5112
▁bitkilərdə	-11.5114
▁ırk	-11.5116
▁Sənan	-11.5116
▁fəaliyyətlə	-11.5117
▁ingiliscə	-11.5117
▁yasak	-11.512
▁reallaş	-11.512
▁itirmiş	-11.512
▁endüstrisi	-11.5122
səmə	-11.5126
▁düzeyde	-11.5126
▁başladığımız	-11.5128
▁tozu	-11.5129
▁gözlü	-11.5129
▁orqanlarında	-11.513
▁sesini	-11.513
▁ekmek	-11.513
▁tarla	-11.5135
▁kullanılıyor	-11.5136
▁Kilsəsi	-11.5137
▁məmurları	-11.5144
▁yaradırdı	-11.5144
▁arxada	-11.5144
▁qayıtmış	-11.5145
▁mühendisler	-11.5146
▁niyyəti	-11.5151
▁hastalığın	-11.5153
▁Foqts	-11.5155
▁kategori	-11.5155
▁tektonik	-11.5155
▁yırtıcı	-11.5155
▁Gəray	-11.5155
▁Suyun	-11.5155
▁Okean	-11.5155
▁simetri	-11.5155
▁Neredeyse	-11.5155
▁ləzgi	-11.5155
▁bataqlıq	-11.5155
▁Əbdürrəh	-11.5156
▁çıxartdı	-11.5156
▁Bəhmənyar	-11.5156
▁lisans	-11.5156
▁umarım	-11.5156
▁kapital	-11.5157
▁1873	-11.5157
▁yöntemler	-11.5158
▁çağırı	-11.5159
▁ətəklərində	-11.516
▁görülen	-11.516
▁Mis	-11.5161
▁özgürlüğü	-11.5161
▁sənətində	-11.5162
▁vs	-11.5164
▁vilayətləri	-11.5167
▁salon	-11.5167
▁savadlı	-11.5168
▁Mona	-11.5168
▁camaatın	-11.5168
▁kəsə	-11.517
apon	-11.5173
▁diqqətlə	-11.5174
ebileceğini	-11.5178
▁Xaçın	-11.518
▁vəzifəni	-11.5181
▁dəstəsini	-11.5184
eyran	-11.5185
▁Yayım	-11.5185
▁düşüncələri	-11.5185
▁Kas	-11.5187
▁cəbhəsində	-11.5188
ığ	-11.5189
▁mədənləri	-11.5189
▁Sarayın	-11.5191
▁məskunlaşma	-11.5192
▁Quranı	-11.5192
fis	-11.5194
▁20.	-11.5195
▁vuruşma	-11.5196
▁gidecek	-11.5196
▁renkli	-11.5196
▁Bilgi	-11.5197
▁otaqlar	-11.5198
▁siyahi	-11.52
▁söylediler	-11.52
▁seçdi	-11.52
▁qaydalarını	-11.5202
lıyordu	-11.5202
▁dövlətində	-11.5205
▁verebilir	-11.5206
▁değerlendirme	-11.5207
▁dəyişmə	-11.5212
▁öyrənmiş	-11.5215
▁Yaşa	-11.5216
▁sevil	-11.5217
▁qədə	-11.5221
▁planetlərin	-11.5222
zəl	-11.5222
▁tamaşaçıları	-11.5222
▁halkı	-11.5223
▁Vilayət	-11.5223
remyer	-11.5224
▁texnolo	-11.5227
▁Florensiya	-11.5228
▁çıxıntı	-11.5228
▁Fevral	-11.5228
▁Filarmoniyası	-11.5228
▁Georgi	-11.5228
▁Pavel	-11.5228
▁Rəvayət	-11.5228
▁korkutucu	-11.5228
▁repertuarı	-11.5228
▁sivilizasiya	-11.5228
▁sohbet	-11.5228
▁üfüq	-11.5228
▁Xalça	-11.5228
▁ödəniş	-11.5228
▁təfəkkür	-11.5228
analitik	-11.5228
▁insanlığın	-11.5228
▁Mənsur	-11.5231
▁mühendislik	-11.5231
▁kullanabilir	-11.5231
▁kullanabiliriz	-11.5232
lus	-11.5232
▁tamamlaya	-11.5234
▁oturup	-11.5234
▁durumlarda	-11.5237
▁hamile	-11.5238
▁elədi	-11.5238
əmiyyət	-11.5239
▁olursanız	-11.5241
▁cəhdləri	-11.5241
▁dayanı	-11.5242
▁zahir	-11.5242
▁şeylerle	-11.5244
▁Rob	-11.5244
▁proqramların	-11.5246
▁öldürmək	-11.5247
▁oradaki	-11.5249
▁ağaçlar	-11.5249
▁qurub	-11.5251
▁yetişir	-11.5251
larımdan	-11.5257
▁vazgeç	-11.5258
▁konular	-11.5259
▁taban	-11.5261
▁misra	-11.5261
▁evli	-11.5262
▁çıxmağ	-11.5262
▁dəyər	-11.5262
▁boynun	-11.5263
▁kazanma	-11.5267
lunduğunu	-11.5268
▁çeker	-11.5268
▁nəyi	-11.5268
▁Bizi	-11.5269
▁yürüyüş	-11.527
▁damla	-11.5271
▁Dün	-11.5274
▁gösterdiği	-11.5275
▁aça	-11.5276
▁avto	-11.5277
▁birləşdiri	-11.5278
▁görül	-11.5279
yuk	-11.528
▁sağlaya	-11.5282
▁fəsli	-11.5283
▁adalarında	-11.5284
syon	-11.5285
▁180	-11.5287
▁programları	-11.5287
▁minik	-11.529
▁söyledikleri	-11.5291
▁yazılması	-11.5292
nore	-11.5294
▁adəti	-11.5294
▁səslə	-11.5298
▁əhəng	-11.5301
▁1863	-11.5301
▁Mətbuat	-11.5301
▁mühakimə	-11.5301
▁tənəzzül	-11.5301
▁memnun	-11.5301
▁görüntüsü	-11.5301
lternativ	-11.5301
▁donanım	-11.5301
▁Boston	-11.5301
▁limit	-11.5301
▁İstə	-11.5302
▁aləmin	-11.5302
▁qəfil	-11.5302
▁bulduğumuz	-11.5303
▁nikah	-11.5303
▁hamar	-11.5304
▁sədrəzəm	-11.5304
▁baxa	-11.5305
▁itirir	-11.5306
▁özellikler	-11.5307
▁silin	-11.5309
▁Səlcuqlu	-11.5309
▁şurasını	-11.531
▁köklü	-11.531
▁versə	-11.5311
▁düzelt	-11.5314
▁bağçası	-11.5314
▁düşen	-11.5317
▁söyləmə	-11.5318
▁bilimin	-11.5319
▁cüz	-11.5321
▁vadisində	-11.5321
▁derdi	-11.5322
▁yuvarla	-11.5323
▁işlərdə	-11.5324
rza	-11.5324
▁1940	-11.5325
▁divarlar	-11.5325
▁1919	-11.5326
▁çoktan	-11.5327
uğu	-11.5327
▁gezi	-11.5329
▁münasibətdə	-11.533
▁etkileri	-11.5332
▁ailədən	-11.5335
▁həbsxana	-11.5336
▁adil	-11.5338
dığınızda	-11.5341
▁toplanır	-11.5342
▁xanlıqları	-11.5342
▁monastır	-11.5347
▁həbsdə	-11.5348
▁sahipti	-11.535
▁muğamı	-11.5351
▁ailesi	-11.5353
ləşdirmək	-11.5355
tağı	-11.5356
▁teorisi	-11.5357
▁regionun	-11.5358
▁ayakta	-11.5359
▁Ani	-11.5365
▁bağlayı	-11.5366
▁şagirdləri	-11.5366
▁Britaniyada	-11.5367
▁Biliyoru	-11.537
VI	-11.5372
▁hüdudlarında	-11.5372
▁etibarı	-11.5373
▁Tasarım	-11.5374
▁Xəbər	-11.5374
▁Nelson	-11.5374
▁hediye	-11.5374
▁hayret	-11.5374
▁Rəcəb	-11.5374
▁panel	-11.5374
▁prodüser	-11.5374
▁karvansara	-11.5374
▁uzunsov	-11.5374
atviya	-11.5374
▁formalaşmış	-11.5374
▁göründüyü	-11.5375
▁poema	-11.5377
▁Yunanıstanda	-11.5377
▁kaybı	-11.5377
▁polen	-11.5378
▁kalmak	-11.5381
▁təbəqəsində	-11.5382
▁avcı	-11.5383
▁satılan	-11.5384
▁farkettim	-11.5393
▁həmkarlar	-11.5393
iminin	-11.5397
▁qoşulur	-11.5399
▁hazırlama	-11.54
▁sunuyor	-11.54
▁değiştiren	-11.5402
▁ağacın	-11.5403
yorsun	-11.5404
▁yerdir	-11.5405
▁qurğular	-11.5406
▁doktorlar	-11.5407
▁süreçte	-11.541
▁ərazilərini	-11.541
▁mühərrikləri	-11.5412
▁səsini	-11.5414
▁məclisin	-11.5417
▁yaratan	-11.5419
▁qrupda	-11.5423
▁yaylası	-11.5424
▁Həz	-11.5426
▁71	-11.5428
▁finalın	-11.5429
smanlı	-11.5435
▁taşıyor	-11.5437
▁şüur	-11.544
▁Ərəbistan	-11.5441
▁alça	-11.5442
▁toplayan	-11.5446
▁bölgesinde	-11.5447
▁meyve	-11.5448
▁Avesta	-11.5448
▁Niyazi	-11.5448
▁həcc	-11.5448
▁həşərat	-11.5448
▁mektup	-11.5448
▁Qəznəvi	-11.5448
▁köçkün	-11.5448
▁Bədəl	-11.5448
▁vizyon	-11.5448
▁öküz	-11.5448
▁Kəbir	-11.5448
▁benzeyen	-11.5448
▁mövzularda	-11.5449
▁Nüvə	-11.5449
▁uyğur	-11.5449
▁Yaş	-11.5449
▁lazer	-11.545
▁Şarl	-11.5451
▁qram	-11.5451
▁formalaşır	-11.5454
▁salındığı	-11.5454
▁oluşturduğu	-11.5455
▁Bili	-11.5455
▁slavyan	-11.5455
yıllardır	-11.5456
▁bağlanması	-11.5457
▁kalem	-11.5458
lmuş	-11.5459
▁tasarlanmış	-11.5459
▁poli	-11.546
▁birləşdirilməsi	-11.5461
▁rəqibin	-11.5461
▁üretme	-11.5463
▁çatmaq	-11.5464
▁profil	-11.5464
▁fəaliyyətdə	-11.5464
▁geçmek	-11.5465
▁düşünüyordum	-11.5465
▁Qaraca	-11.5466
▁Təbrizin	-11.5466
▁Kürü	-11.5469
▁tanımı	-11.547
▁buluyor	-11.547
▁kısmında	-11.5471
▁baxan	-11.5474
▁taxtda	-11.5475
▁növündə	-11.5476
▁bağlama	-11.5476
▁təsnifat	-11.5477
▁gəlməyə	-11.5477
▁oluyorlar	-11.5477
▁yaşar	-11.5479
▁şirketleri	-11.548
▁kişilerin	-11.5483
ect	-11.5486
▁heykəltəraş	-11.549
ish	-11.5491
▁etməmiş	-11.5491
▁dəyişmiş	-11.5493
▁elle	-11.5493
▁ölçekte	-11.5495
▁sərin	-11.5496
▁orqanlar	-11.55
▁şairləri	-11.55
▁qoş	-11.55
▁doğulduğu	-11.5501
▁hərf	-11.5501
▁operasyon	-11.5503
▁katıldı	-11.5504
▁girer	-11.5504
▁Tri	-11.5505
▁yaralanı	-11.5507
▁erişim	-11.5513
▁isterse	-11.552
▁dəliyi	-11.552
▁deyim	-11.5521
▁imkanlarını	-11.5522
funksional	-11.5523
▁Ekonomi	-11.5523
▁Hidayət	-11.5523
▁Mühəndis	-11.5523
▁hüzurun	-11.5523
▁sponsor	-11.5523
▁toxuna	-11.5523
▁şəffaf	-11.5523
▁Ərəblinski	-11.5523
▁peşinde	-11.5523
▁Xeyr	-11.5523
▁mahkum	-11.5523
▁Məsih	-11.5523
▁prensip	-11.5523
▁Media	-11.5523
▁əqli	-11.5524
▁ixtisaslaşmış	-11.5524
▁üreme	-11.5525
▁öğrendiğim	-11.5525
▁Qoş	-11.5525
▁görebiliriz	-11.5527
▁sənədlərdə	-11.5529
▁bitirir	-11.5529
had	-11.5529
▁düzən	-11.5531
▁Görü	-11.5538
tiğim	-11.554
yeni	-11.554
ğimde	-11.554
miyordu	-11.5541
▁Əf	-11.5543
▁gri	-11.5545
▁çıktığı	-11.5546
▁çiçek	-11.5546
▁maraqlıdır	-11.5549
▁təbəqədə	-11.5549
▁ettiğiniz	-11.555
▁abidəni	-11.5552
▁Gar	-11.5552
▁çalışıyordu	-11.5553
▁Hir	-11.5554
▁olmasaydı	-11.5554
▁yazılarında	-11.5556
oçt	-11.5557
▁süxurlar	-11.5558
▁incəsənətin	-11.556
▁uçu	-11.5561
▁duyguları	-11.5561
-5	-11.5562
▁21.	-11.5562
▁kendimiz	-11.5564
[...]
