<unk>	0
<s>	0
</s>	0
<pad>	0
▁.	-2.95213
▁,	-3.26041
n	-3.82653
;	-3.99912
▁&	-4.0302
▁	-4.22414
quot	-4.22556
▁və	-4.2965
▁bir	-4.53081
(	-5.10571
▁)	-5.11063
a	-5.11562
i	-5.14529
r	-5.14687
▁bu	-5.14825
-	-5.30439
▁ve	-5.32778
ə	-5.37318
▁ilə	-5.51234
ci	-5.54586
in	-5.55404
▁Bu	-5.59423
nin	-5.61059
▁ildə	-5.62293
▁da	-5.62416
lar	-5.64105
da	-5.70418
nın	-5.71597
k	-5.78279
▁olan	-5.84587
apos	-5.85834
▁Azərbaycan	-5.88441
▁də	-5.89294
▁ki	-5.90088
dir	-6.00559
na	-6.00654
▁:	-6.01746
▁sonra	-6.07659
nə	-6.08943
li	-6.09002
lər	-6.09279
də	-6.12317
m	-6.12939
b	-6.17444
ya	-6.20217
▁daha	-6.23046
▁—	-6.24837
▁üçün	-6.28026
▁kimi	-6.29642
▁isə	-6.31943
e	-6.32264
▁için	-6.38406
▁o	-6.38522
ı	-6.41002
q	-6.44226
▁il	-6.44356
lı	-6.45847
▁çox	-6.46017
dan	-6.48115
la	-6.4842
ları	-6.50559
▁de	-6.53199
▁ya	-6.53375
dır	-6.53586
▁?	-6.56254
▁var	-6.57633
dən	-6.58222
▁Ve	-6.60369
si	-6.6092
t	-6.62173
▁-	-6.62656
ın	-6.63692
▁O	-6.63892
▁görə	-6.6433
▁çok	-6.65155
lə	-6.65165
▁edir	-6.66644
ən	-6.6895
▁–	-6.70364
▁idi	-6.70854
▁onun	-6.71715
cü	-6.73572
▁ilk	-6.74545
▁həm	-6.76875
ler	-6.77407
cı	-6.79665
ki	-6.85269
▁iki	-6.86234
▁ən	-6.8643
ni	-6.87513
▁əsas	-6.88349
▁tərəfində	-6.89035
z	-6.90786
▁böyük	-6.92125
yə	-6.93809
▁öz	-6.94205
“	-6.94292
lik	-6.94341
▁”	-6.94507
s	-6.97109
▁olmuşdur	-7.00831
▁olaraq	-7.01869
sı	-7.02545
▁qədər	-7.05574
u	-7.05767
l	-7.05983
cu	-7.06486
di	-7.06494
▁şey	-7.0782
▁Bir	-7.08614
▁baş	-7.09196
un	-7.09518
▁gibi	-7.09935
▁arasında	-7.11745
▁yeni	-7.12486
▁bütün	-7.13233
▁s	-7.14256
▁olarak	-7.14304
▁kənd	-7.16762
▁adı	-7.19056
▁ilin	-7.19897
▁zaman	-7.19948
▁biri	-7.20608
leri	-7.22121
▁...	-7.22843
▁olduğunu	-7.25599
ların	-7.26523
▁istifadə	-7.26939
le	-7.27818
▁ne	-7.29425
▁olduğu	-7.29669
▁olur	-7.30053
▁hər	-7.31128
de	-7.3123
▁edən	-7.31725
ləri	-7.33734
kı	-7.33867
▁en	-7.3396
▁illərdə	-7.34582
▁olub	-7.3468
▁Bakı	-7.35617
▁bəy	-7.36184
dur	-7.36694
▁kadar	-7.36768
▁oldu	-7.38151
▁dəfə	-7.38211
nda	-7.39975
nı	-7.4072
ü	-7.41081
▁yer	-7.41839
y	-7.4199
▁oğlu	-7.42072
▁S	-7.42741
▁etdi	-7.45123
▁her	-7.453
ye	-7.46108
▁etmişdir	-7.48032
▁onu	-7.48151
▁1	-7.48465
▁2	-7.50137
ca	-7.50848
raq	-7.54418
yi	-7.54451
▁ile	-7.55362
▁burada	-7.55376
▁;	-7.55752
▁değil	-7.55812
▁Dövlət	-7.55896
p	-7.56442
▁təşkil	-7.56644
▁müxtəlif	-7.56968
▁gün	-7.57897
▁digər	-7.57932
er	-7.57949
▁ərazi	-7.58313
▁bunu	-7.5885
▁insan	-7.59359
▁M	-7.59697
▁ildən	-7.59981
▁rayonunu	-7.60032
dı	-7.60052
▁etmək	-7.60582
ndə	-7.61121
▁Respublikasını	-7.61782
▁daxil	-7.62181
▁adlı	-7.6222
an	-7.62388
%	-7.62586
▁A	-7.62593
▁haqqında	-7.62606
▁iyi	-7.62651
▁qarşı	-7.65185
▁su	-7.65428
▁olunur	-7.65718
o	-7.65852
▁belə	-7.6633
▁ama	-7.67109
▁başqa	-7.6735
▁nəfər	-7.67623
▁3	-7.68713
lu	-7.68971
▁az	-7.69553
ş	-7.69882
▁inzibati	-7.69937
ndan	-7.70292
▁üzrə	-7.70298
▁Ama	-7.70565
▁/	-7.70594
▁orta	-7.70616
den	-7.71222
▁onların	-7.7167
d	-7.71892
ma	-7.71925
▁edilmişdir	-7.72071
larını	-7.72406
▁büyük	-7.72478
▁son	-7.73087
▁edilir	-7.74315
▁qəbul	-7.74973
▁B	-7.7564
▁elmi	-7.75897
▁həyat	-7.76365
▁ona	-7.76549
ti	-7.76798
▁qeyd	-7.77024
▁xan	-7.77139
▁nasıl	-7.77729
▁Onun	-7.78445
1	-7.78835
▁üç	-7.79041
▁K	-7.79606
▁geniş	-7.80431
▁Azərbaycanın	-7.81978
▁xüsusi	-7.82255
▁fəaliyyət	-7.82305
▁Lak	-7.82946
ndən	-7.83102
▁dövlət	-7.8395
▁iş	-7.84155
.	-7.84324
▁sadece	-7.84386
en	-7.84593
▁vardır	-7.85187
▁qədim	-7.85376
▁10	-7.86198
▁dünya	-7.86411
yı	-7.87374
▁tarixi	-7.87463
▁edib	-7.8949
▁zamanda	-7.90311
▁uzun	-7.906
sa	-7.91054
▁şəhərində	-7.91214
▁çünkü	-7.91774
▁zamanı	-7.921
▁doğru	-7.92597
cə	-7.93248
▁etdiyi	-7.93269
ini	-7.93494
ne	-7.94034
▁Burada	-7.94169
▁olması	-7.94441
▁Respublikası	-7.94723
▁şu	-7.94838
▁etmiş	-7.95792
▁şekilde	-7.958
▁yüksək	-7.95952
▁aid	-7.96191
lıq	-7.96325
▁əsrin	-7.96391
▁I	-7.96655
▁C	-7.97101
▁iştirak	-7.97249
▁davam	-7.97862
▁neçə	-7.98146
▁önce	-7.98349
ta	-7.99485
▁4	-8.00004
▁adına	-8.0076
▁Azərbaycanda	-8.00793
▁eyni	-8.00906
▁Rusiya	-8.00928
▁tam	-8.00973
▁vahidində	-8.01091
▁insanlar	-8.01129
▁yalnız	-8.01351
▁fazla	-8.01768
▁olunmuşdu	-8.01829
lara	-8.02087
▁geri	-8.02212
▁bağlı	-8.02334
f	-8.02738
al	-8.02824
▁verir	-8.02861
▁film	-8.03245
ov	-8.03349
▁nəticəsində	-8.03609
▁təhsil	-8.04225
▁yıl	-8.04557
▁altında	-8.05147
▁min	-8.05241
▁üzərində	-8.0525
ir	-8.05667
▁heç	-8.05742
­	-8.05959
▁5	-8.06322
▁sayı	-8.06468
▁ikinci	-8.06627
▁Avropa	-8.0679
xalq	-8.07879
▁aynı	-8.08506
▁sıra	-8.0903
▁Dünya	-8.09055
▁biz	-8.09423
▁yaxın	-8.09861
▁ərazisində	-8.10137
▁hesab	-8.10184
▁yerləşir	-8.10279
▁Əli	-8.10606
h	-8.10742
▁e	-8.11273
▁hərbi	-8.12125
▁gerçekten	-8.12272
lerini	-8.12767
▁anadan	-8.12852
▁dili	-8.12886
ərək	-8.13048
▁onlar	-8.13069
um	-8.13525
▁inkişaf	-8.13802
▁olar	-8.13883
▁olmuş	-8.14225
inə	-8.15628
▁bunun	-8.15728
▁milli	-8.15753
▁20	-8.15838
«	-8.15894
▁kəndi	-8.16165
▁göstərir	-8.16302
▁km	-8.16348
▁Şimdi	-8.16361
▁məşhur	-8.16494
▁Yani	-8.16651
▁müəyyən	-8.16656
▁milyon	-8.17207
▁Məhəmməd	-8.17808
▁şəhər	-8.17843
▁olmaq	-8.18035
lerin	-8.18092
▁dövründə	-8.18194
»	-8.18493
▁Milli	-8.18546
larının	-8.18604
nun	-8.18648
▁artıq	-8.18818
▁şəhəri	-8.18823
çini	-8.19213
▁ABŞ	-8.19859
likdə	-8.20149
▁ben	-8.20149
▁mi	-8.20381
▁olunan	-8.20974
▁benim	-8.21038
▁tüm	-8.21068
▁in	-8.21126
▁xalq	-8.21347
▁yaxşı	-8.2163
▁türk	-8.21652
▁P	-8.22
▁&#93;	-8.22095
▁&#9	-8.22178
▁deyil	-8.22343
▁olunmuş	-8.22642
▁özünü	-8.2321
▁yerləşə	-8.23298
▁ibarət	-8.23514
▁Qarabağ	-8.23573
▁H	-8.23806
▁vaxt	-8.23869
▁bizim	-8.23911
▁Ə	-8.24023
▁vardı	-8.24065
▁hakkında	-8.24111
▁mövcud	-8.24202
du	-8.24221
at	-8.24325
▁insanların	-8.24329
▁nə	-8.24504
▁edilmiş	-8.24922
▁mərkəzi	-8.25084
ik	-8.25161
▁kiçik	-8.25951
▁Böyük	-8.26032
▁əvvəl	-8.26249
me	-8.26273
▁başladı	-8.26613
im	-8.26716
ce	-8.26894
▁Anca	-8.26912
▁m	-8.27328
▁farklı	-8.2744
vi	-8.2762
▁hissəsi	-8.28667
▁içinde	-8.28798
▁onları	-8.28936
▁Onlar	-8.29086
▁edirdi	-8.29314
▁h	-8.29389
lərin	-8.29397
te	-8.29454
▁başka	-8.29877
▁üzvü	-8.29897
▁təyin	-8.30128
▁musiqi	-8.30136
▁şəkildə	-8.30212
▁ilgili	-8.30275
larda	-8.30367
ğa	-8.30877
▁6	-8.30904
▁edərək	-8.31046
▁ay	-8.31147
▁diğer	-8.31358
▁Çünk	-8.31423
▁dilində	-8.31536
larında	-8.31571
▁E	-8.31811
▁əsrdə	-8.31885
▁müddət	-8.32036
▁yenidən	-8.32233
▁İ	-8.3224
▁15	-8.32537
▁malik	-8.32667
▁!	-8.33102
▁kendi	-8.33881
ır	-8.3412
▁bile	-8.34312
▁sahip	-8.34855
▁orada	-8.3498
▁tə	-8.35131
▁Sonra	-8.35648
▁ümumi	-8.35939
tı	-8.36006
mi	-8.36333
▁aslında	-8.36709
çi	-8.36717
▁bilər	-8.36855
▁yok	-8.36893
▁yolu	-8.37094
▁rus	-8.37319
▁edilən	-8.37379
yla	-8.37475
▁V	-8.37889
lere	-8.37949
▁adını	-8.38189
▁dövrdə	-8.38498
▁küçük	-8.38535
▁İlk	-8.38674
▁Həmi	-8.38906
▁yol	-8.39066
▁Cənub	-8.39227
▁Belə	-8.39369
▁Gülüşmeler	-8.39459
▁Ben	-8.39499
▁dünyanın	-8.40121
▁siyasi	-8.40487
▁T	-8.40854
▁birinci	-8.40899
▁veya	-8.40934
ğı	-8.40935
▁kişi	-8.41182
▁i	-8.41362
miz	-8.41434
larına	-8.41755
▁an	-8.42045
▁Y	-8.42353
lık	-8.42401
▁başa	-8.42603
▁illər	-8.42701
▁SSRİ	-8.43065
x	-8.43189
▁bəzi	-8.43603
▁♫	-8.43712
▁İran	-8.43819
▁gəlir	-8.44027
▁Daha	-8.44091
▁ölkə	-8.445
▁əldə	-8.44982
▁G	-8.45278
▁a	-8.45312
sında	-8.45387
▁ise	-8.45565
dür	-8.45757
▁əhalisi	-8.45904
lığı	-8.46412
▁Amerika	-8.47085
▁kəndində	-8.47099
▁Qafqaz	-8.47298
uz	-8.47467
▁erməni	-8.47916
lardan	-8.4798
inin	-8.48047
sına	-8.4809
▁II	-8.48148
▁Mirzə	-8.48188
▁edə	-8.48222
▁30	-8.48314
miş	-8.48418
▁əlavə	-8.48479
▁12	-8.48672
▁səbəb	-8.4886
▁bana	-8.49057
▁Bunu	-8.4923
▁yaşayış	-8.49274
▁önemli	-8.49278
▁eğer	-8.49454
mış	-8.49678
▁ibarətdir	-8.49776
▁Türkiyə	-8.49863
▁8	-8.50008
▁məqsədi	-8.50589
lt	-8.50697
▁buna	-8.50969
▁məşğul	-8.5097
rkən	-8.51037
▁yaşayan	-8.5113
▁Əliyev	-8.51234
▁şeyler	-8.51242
ını	-8.51323
▁Bakıda	-8.51459
▁ev	-8.51852
▁tek	-8.52222
▁edildi	-8.52349
▁demək	-8.52432
lan	-8.52532
▁Faka	-8.52555
▁məlumat	-8.52732
▁layiq	-8.52768
▁tarixində	-8.52893
siz	-8.52906
▁Sultan	-8.52912
ərzində	-8.53173
▁olmayan	-8.53431
▁saat	-8.54007
▁Orta	-8.5404
▁ola	-8.54145
▁ortaya	-8.5433
▁Naxçıvan	-8.54522
▁D	-8.54622
▁Bunun	-8.54895
▁yanaşı	-8.54969
▁7	-8.55597
▁edilməsi	-8.5609
▁xarici	-8.56221
▁size	-8.5635
▁may	-8.56358
▁yeri	-8.56768
▁cənub	-8.57204
▁baxma	-8.57279
▁Eğ	-8.57672
▁vəfat	-8.57723
▁etməyə	-8.57786
а	-8.58037
▁edirlər	-8.58076
▁biraz	-8.58155
▁Osmanlı	-8.58804
▁dünyada	-8.58849
▁qızı	-8.5887
▁inşa	-8.59015
g	-8.59182
ında	-8.59605
▁çıxış	-8.59703
▁əhali	-8.59797
▁Xəzər	-8.59995
▁Yeni	-8.60059
v	-8.60274
▁dini	-8.60353
▁yerli	-8.60523
▁bunlar	-8.60817
su	-8.60966
▁boyunca	-8.60973
▁hava	-8.60998
▁gələn	-8.6114
▁çap	-8.61203
rək	-8.61566
▁Şah	-8.61764
▁təmin	-8.61807
▁şimal	-8.61898
▁ayında	-8.62243
▁aşağı	-8.6226
▁söz	-8.62272
▁sistemi	-8.6242
ətta	-8.62523
ç	-8.62848
▁olsa	-8.62851
▁sağ	-8.62902
▁idarə	-8.63233
▁Sovet	-8.63384
▁əsasında	-8.63606
▁Qara	-8.63746
▁meydana	-8.63855
▁rayonu	-8.63877
▁hiç	-8.63975
ət	-8.63996
il	-8.64025
▁tarix	-8.64108
ur	-8.6444
▁Hüseyn	-8.64683
▁onlara	-8.64734
ken	-8.6484
▁əhatə	-8.64861
▁hələ	-8.65041
▁verən	-8.65053
▁Gəncə	-8.65127
ar	-8.65131
▁Buna	-8.65153
▁karşı	-8.65322
▁verdi	-8.65468
▁göre	-8.65564
▁alan	-8.65588
▁fikir	-8.65705
▁Xalq	-8.65714
▁istehsal	-8.66383
▁Q	-8.66526
▁keçmiş	-8.66582
sini	-8.66626
▁vasitəsi	-8.66679
▁müəllifi	-8.66787
▁X	-8.66841
tan	-8.66896
ak	-8.67224
▁almışdı	-8.67507
▁mühüm	-8.67522
▁Həsən	-8.67581
on	-8.67674
▁nəşr	-8.67719
iz	-8.6779
▁müasir	-8.68088
▁qadın	-8.68285
▁mümkün	-8.68287
▁barədə	-8.68351
▁Kənd	-8.68519
▁hücum	-8.68853
▁rol	-8.68866
▁diye	-8.68871
▁keçirilə	-8.68925
▁hakimiyyəti	-8.69186
sində	-8.69632
▁beynəl	-8.6982
▁о	-8.70009
liyi	-8.70152
c	-8.70445
mak	-8.70511
larla	-8.70552
▁kəndin	-8.70838
yle	-8.7132
▁nın	-8.71471
▁neden	-8.71737
▁gerçek	-8.71744
▁17	-8.72033
ına	-8.72351
▁9	-8.72576
larından	-8.72618
▁yüzden	-8.72665
ində	-8.72697
▁xidmət	-8.72717
▁Ermənistan	-8.72737
▁təsir	-8.7274
▁dağ	-8.72852
ydi	-8.72927
▁Əhməd	-8.72971
▁böyle	-8.73125
▁Çin	-8.73132
ydı	-8.73256
▁yerinə	-8.73346
▁Şimal	-8.73354
qulu	-8.74105
▁adam	-8.7431
▁hərəkət	-8.7441
▁qala	-8.74513
▁uyğun	-8.74543
▁yanında	-8.74623
▁yerdə	-8.74762
▁sonunda	-8.74797
▁yardım	-8.74831
▁Bütün	-8.74911
▁yaşında	-8.74957
▁16	-8.75099
▁özü	-8.75137
▁neft	-8.75165
▁XIX	-8.75288
se	-8.75559
▁Hər	-8.75645
▁dair	-8.75651
▁ın	-8.75663
el	-8.76104
▁Afrika	-8.76246
▁üzerinde	-8.76283
▁başlayır	-8.76336
▁dedi	-8.76561
▁yüz	-8.76582
▁11	-8.76662
▁dəniz	-8.76723
▁məktəbi	-8.76724
it	-8.76759
▁Hacı	-8.76798
▁şeyi	-8.76965
sel	-8.77041
▁18	-8.77152
▁Türk	-8.77157
▁Kahkaha	-8.77229
▁qısa	-8.77277
▁edilib	-8.77281
▁25	-8.77697
lü	-8.77717
mız	-8.77835
▁tarafından	-8.78086
▁bazı	-8.78139
lakin	-8.78228
▁işləri	-8.78242
▁ağ	-8.78246
▁günü	-8.78443
▁etmişdi	-8.7854
▁əmələ	-8.78673
▁Biz	-8.78733
▁göz	-8.78766
st	-8.78883
sını	-8.78996
▁ciddi	-8.79064
▁güclü	-8.79069
▁fəaliyyəti	-8.79087
▁yaxınlığında	-8.79125
▁F	-8.79391
▁100	-8.79444
▁Bunda	-8.79517
▁Fransa	-8.7975
▁müdafiə	-8.79794
▁ərazisi	-8.79876
sız	-8.79895
niz	-8.79964
ji	-8.80044
▁Həm	-8.80064
▁olunub	-8.80192
▁sahəsi	-8.80232
▁elə	-8.80711
▁işğal	-8.80786
▁İslam	-8.80916
▁şimdi	-8.80932
▁anda	-8.80981
▁tərkibində	-8.80995
▁beş	-8.81013
▁soru	-8.81217
▁Mərkəzi	-8.81275
▁sahəsində	-8.81295
▁ictimai	-8.81715
ım	-8.81927
▁olmak	-8.82074
▁rəsmi	-8.82274
▁əks	-8.82495
▁Her	-8.82538
▁14	-8.82577
▁ali	-8.82766
▁inkişafı	-8.82796
▁hareket	-8.82885
▁təsvir	-8.83269
çılıq	-8.83309
▁yapmak	-8.83411
▁ta	-8.83437
siniz	-8.83518
▁yanvar	-8.83626
▁ailə	-8.83723
sine	-8.83809
▁İşte	-8.83973
▁bilgi	-8.84069
▁istiyorum	-8.84275
▁elan	-8.8452
▁ağır	-8.8456
▁Roma	-8.84697
▁Ya	-8.84813
man	-8.84814
▁ətrafında	-8.84891
nız	-8.8496
▁əlaqədar	-8.85092
▁mart	-8.85124
▁halda	-8.8524
▁onda	-8.85333
▁1992-	-8.85434
▁şah	-8.85532
▁malikdir	-8.85669
mek	-8.85717
lerden	-8.85754
▁dil	-8.85834
▁işi	-8.85853
▁Ne	-8.85865
▁alır	-8.86184
lərlə	-8.86242
tir	-8.86552
▁Şərq	-8.86682
▁qərar	-8.86768
▁Çok	-8.86786
▁məlum	-8.87096
▁Peki	-8.87146
gt	-8.87194
gə	-8.87666
▁Baş	-8.87672
ten	-8.87968
▁iyun	-8.88169
▁etibar	-8.8829
▁daş	-8.88558
▁ayrı	-8.88664
▁para	-8.88668
▁əsr	-8.89006
▁olacak	-8.8906
▁Ən	-8.89438
▁mı	-8.89658
▁bundan	-8.89711
▁ələ	-8.89713
lerine	-8.89856
ından	-8.89911
▁dekabr	-8.89941
▁sözü	-8.90116
▁atası	-8.90172
▁xanın	-8.90487
▁b	-8.90568
▁məktəb	-8.90714
▁rejissor	-8.90714
▁çayı	-8.90741
▁müharibə	-8.90773
▁bədii	-8.90793
▁50	-8.90944
eynəl	-8.9099
▁Bunlar	-8.91078
▁təbii	-8.9122
▁lazım	-8.91249
▁enerji	-8.91334
▁zor	-8.91425
▁Son	-8.91453
▁İkinci	-8.91492
lama	-8.91657
▁bize	-8.91703
dim	-8.91871
▁hansı	-8.91951
▁U	-8.92014
▁ağa	-8.92098
dək	-8.92208
▁Şuşa	-8.92301
▁mübarizə	-8.92329
▁Ş	-8.92353
▁müharibəsi	-8.9237
▁rast	-8.92564
sə	-8.92568
▁oldukça	-8.92641
▁aprel	-8.92758
▁karar	-8.92802
▁birkaç	-8.9284
▁Allah	-8.9316
▁fakat	-8.93232
▁yox	-8.93268
▁ifa	-8.93362
▁tək	-8.93417
2	-8.93431
▁gözəl	-8.93609
▁yazır	-8.93659
▁dünyaya	-8.93712
▁imkan	-8.93757
▁tez	-8.93989
▁mədəniyyət	-8.93998
▁iqtisadi	-8.94228
▁sahilində	-8.944
▁ölkəni	-8.94567
▁gənc	-8.94672
▁etmek	-8.94714
▁elm	-8.94746
▁futbol	-8.95118
▁təqdim	-8.9519
▁həsr	-8.95335
gər	-8.95457
▁güzel	-8.95555
▁dörd	-8.956
▁indiki	-8.95635
▁oktyabr	-8.95658
▁məxsus	-8.95677
▁ana	-8.95815
▁altı	-8.9582
va	-8.95956
▁oyun	-8.96381
▁zəngin	-8.96779
et	-8.96787
▁Universitetini	-8.96878
▁tekrar	-8.96893
sanız	-8.96927
sının	-8.97023
or	-8.97064
▁13	-8.97079
▁biridir	-8.9713
▁yani	-8.97131
▁Ali	-8.97165
▁şəhərin	-8.97168
▁on	-8.97257
lerde	-8.97284
▁beni	-8.9742
daki	-8.97697
▁İbrahim	-8.9773
ması	-8.97745
▁yaşayır	-8.9783
▁oluyor	-8.97931
▁aktyor	-8.98004
əddin	-8.98064
▁qrup	-8.98085
▁fark	-8.98175
▁nəzərdə	-8.98188
▁gəlmiş	-8.9838
mı	-8.98405
▁SSR	-8.98433
lərə	-8.98447
lərdə	-8.98546
▁ifadə	-8.9864
▁kötü	-8.98704
ip	-8.98823
▁hal	-8.99018
▁təxminə	-8.99084
▁ye	-8.99085
▁Aslında	-8.99146
sal	-8.99206
▁bərabər	-8.99309
▁d	-8.99538
▁Siz	-8.99623
▁Abbas	-8.99637
▁fərqli	-8.99815
▁Alkış	-8.99826
tik	-8.99857
▁avqust	-8.9996
▁asılı	-9.00323
ün	-9.00529
▁növü	-9.00578
▁sistem	-9.00621
▁İsmayıl	-9.00651
▁görkəm	-9.00687
▁məğlub	-9.00747
▁cümlədə	-9.01076
xud	-9.01267
▁açık	-9.01728
▁noyabr	-9.02005
▁hayal	-9.02019
▁iri	-9.02083
▁ancaq	-9.02168
▁devam	-9.02184
▁metr	-9.02379
▁olabilir	-9.0256
▁Alkışlar	-9.02671
▁mükafatı	-9.02687
ine	-9.02692
▁’	-9.02771
▁Amma	-9.02834
▁məhz	-9.03143
▁olmuşdu	-9.03346
▁tanınmış	-9.03399
▁illərində	-9.03673
▁üzərin	-9.03735
▁yəni	-9.03782
lerle	-9.03788
▁filmi	-9.0391
▁parça	-9.03959
▁ərəb	-9.03982
ö	-9.04148
▁insanın	-9.04275
▁nəfəri	-9.04371
▁baxım	-9.04546
▁teatr	-9.04592
acak	-9.04708
▁R	-9.04726
▁tür	-9.04886
▁fevral	-9.04967
▁Almaniya	-9.05012
▁tətbiq	-9.0508
▁tərəfdə	-9.05138
▁nin	-9.0519
▁iyul	-9.05241
▁rayonunda	-9.05379
▁yüzde	-9.05937
▁din	-9.06001
▁çoxlu	-9.06077
▁sədri	-9.06266
▁daxili	-9.06547
yu	-9.066
▁bitki	-9.06613
▁dövrü	-9.06714
▁aldı	-9.06808
▁vəzifəsində	-9.06997
▁ayını	-9.07027
▁İnstitutunu	-9.07359
▁qardaşı	-9.07423
▁40	-9.07536
▁əhalini	-9.0767
▁çalışan	-9.07676
▁N	-9.07683
▁şair	-9.07752
▁Günəş	-9.07776
▁k	-9.07781
▁Onların	-9.08077
▁birçok	-9.08101
▁gəldi	-9.08102
▁yoxdur	-9.0811
▁təhsilini	-9.08201
ran	-9.08458
▁qara	-9.08541
▁geliyor	-9.08682
▁24	-9.0869
▁sentyabr	-9.08805
▁sadə	-9.0892
▁uşaq	-9.09233
▁kömək	-9.09324
is	-9.096
▁başlamışdır	-9.09657
▁yüksek	-9.09747
çı	-9.09777
▁əl	-9.09846
▁gəlib	-9.10079
luq	-9.10131
▁süre	-9.10185
nde	-9.10267
lo	-9.10271
▁ölüm	-9.1039
▁sahibi	-9.1045
▁Z	-9.10722
sinin	-9.10759
▁çay	-9.10809
▁qərarı	-9.10861
▁Hindistan	-9.10937
▁əvvəllərində	-9.10976
▁dövləti	-9.10985
▁müəllim	-9.10987
▁aşkar	-9.1099
▁etməsi	-9.1112
▁cür	-9.11171
▁kaç	-9.11223
▁olunması	-9.11237
▁azad	-9.11373
▁yazı	-9.11452
▁bilir	-9.11698
▁döyüş	-9.11937
ol	-9.11968
inde	-9.11979
▁xey	-9.12061
ib	-9.12121
▁belki	-9.12254
▁rayon	-9.12305
▁almaq	-9.12391
▁te	-9.12513
▁müstəqil	-9.12656
tu	-9.12683
▁ar	-9.13119
▁al	-9.13139
▁eləcə	-9.13162
▁Evet	-9.13199
▁yazıçı	-9.13362
▁qalan	-9.13386
▁şəklində	-9.13398
▁qol	-9.13413
▁cəlb	-9.13524
▁Beləliklə	-9.13601
▁е	-9.13663
▁irəli	-9.13685
▁Bununla	-9.13739
▁elektrik	-9.13839
▁at	-9.13879
▁Moskva	-9.14031
▁ölkədə	-9.14151
▁Universiteti	-9.14238
sin	-9.14249
▁mü	-9.15017
za	-9.15073
ilə	-9.15157
▁həyatı	-9.15253
▁Film	-9.15292
▁xanım	-9.15312
▁əhəmiyyətli	-9.15316
▁hissəsində	-9.15431
▁el	-9.15573
▁ədəbi	-9.1575
▁arada	-9.15761
▁Ma	-9.15874
▁İki	-9.15998
▁qızıl	-9.16033
▁təsərrüfatı	-9.16061
▁p	-9.16061
▁Mən	-9.16311
▁El	-9.16516
lərindən	-9.16528
▁alıb	-9.16528
▁gelen	-9.16679
▁bugün	-9.16723
▁tamamen	-9.16769
▁adlana	-9.16825
▁birlikte	-9.16848
▁Ümumi	-9.16987
▁insanları	-9.17147
▁olundu	-9.17283
arak	-9.17332
tır	-9.17499
▁2009-	-9.17613
▁olsun	-9.17671
▁XX	-9.17751
▁De	-9.17836
▁çalışma	-9.18025
▁kat	-9.18175
▁sol	-9.18641
yor	-9.1866
▁şəxs	-9.18726
▁verilir	-9.18836
▁Nazirliyi	-9.18885
liği	-9.18909
▁Şu	-9.18925
▁Ona	-9.18926
əli	-9.18971
▁bərpa	-9.18975
▁açıq	-9.18999
▁sizin	-9.19123
3	-9.19234
hi	-9.19429
е	-9.19548
▁növ	-9.1955
▁alman	-9.19578
mişdir	-9.19617
▁kim	-9.19664
▁ingilis	-9.19845
erek	-9.19955
ha	-9.19994
▁Ay	-9.20087
▁Asiya	-9.20128
▁harika	-9.20136
▁Hazırd	-9.20229
▁olurdu	-9.20308
▁boyu	-9.20328
▁lazımdır	-9.20331
▁Quba	-9.20358
▁ala	-9.20478
▁Birinci	-9.2065
▁basit	-9.20731
▁rəhbərliyi	-9.20755
▁yerine	-9.20853
▁21	-9.20937
▁yazdığı	-9.20992
▁üçüncü	-9.21013
saylı	-9.21152
▁siz	-9.21195
▁pek	-9.21236
▁gereken	-9.21274
▁kitab	-9.21276
▁əsərləri	-9.21485
▁yara	-9.21501
▁hissəsini	-9.21547
▁əsrlərdə	-9.21574
os	-9.21603
▁pul	-9.2186
lərini	-9.21918
▁yaşlı	-9.2199
▁məntəqəsi	-9.22084
▁işıq	-9.22143
▁nəticə	-9.22166
▁tutur	-9.2235
▁İrəvan	-9.22359
▁təsiri	-9.22366
▁Ağ	-9.22406
▁bizi	-9.22424
▁olduğuna	-9.22515
▁ibn	-9.22586
▁ticarət	-9.22689
▁keçir	-9.22723
▁mu	-9.22756
ecek	-9.22756
▁qan	-9.2281
zadə	-9.22811
▁deyilir	-9.22837
▁cəhət	-9.22856
▁çayını	-9.22938
▁fars	-9.22962
▁şöyle	-9.22969
▁uğur	-9.22996
▁sürü	-9.2308
▁Əsas	-9.23124
▁internet	-9.23194
▁sənaye	-9.23209
lerinin	-9.23244
▁yazılmış	-9.23291
▁Kür	-9.23308
▁azərbaycanlı	-9.23467
▁19	-9.23486
▁qeyri	-9.23576
▁Lənkəran	-9.23627
▁br	-9.23663
▁sonralar	-9.23708
▁tərcümə	-9.23721
▁öyle	-9.23783
▁işte	-9.23911
▁görülmüşdü	-9.23913
▁Nizami	-9.23944
▁kitabı	-9.24053
ter	-9.24057
▁nisbət	-9.24085
▁təklif	-9.24195
▁dərs	-9.24414
▁hakimiyyət	-9.24474
▁1-	-9.24534
▁yapı	-9.24589
▁səbəbi	-9.2459
▁artisti	-9.24678
▁Gürcüstan	-9.24752
ey	-9.24777
▁ərazidə	-9.24846
▁23	-9.25005
▁Qızıl	-9.2511
▁ara	-9.25151
▁şərq	-9.25174
▁elmləri	-9.25342
▁Qədim	-9.25419
▁tələb	-9.25443
▁0	-9.25487
▁26	-9.25513
▁qarşısında	-9.25526
▁artık	-9.25615
▁üzerine	-9.25657
▁yakın	-9.25668
▁durum	-9.25759
▁müsəlman	-9.2578
▁torpaq	-9.2582
▁bəhs	-9.25962
maya	-9.25964
lərində	-9.26142
▁Məsələn	-9.26197
▁hala	-9.26219
▁paytaxtı	-9.26331
▁hissə	-9.26387
▁məna	-9.26416
▁çıxan	-9.26431
▁mahnı	-9.26831
▁veri	-9.26917
▁respublika	-9.26939
▁əsəri	-9.27036
▁daki	-9.27072
▁III	-9.27073
▁səs	-9.27231
▁hiçbir	-9.27272
iya	-9.27288
▁verilmişdi	-9.2738
▁müşahidə	-9.27406
▁yaşamış	-9.27439
▁Təbriz	-9.27554
▁cavab	-9.27593
ul	-9.27677
▁hesabı	-9.27727
▁canlı	-9.27765
▁eden	-9.27789
▁bilgisayar	-9.27852
▁düşür	-9.27852
▁çıkar	-9.27855
▁sahib	-9.27969
id	-9.28185
▁Bəzi	-9.28249
▁beyin	-9.28287
illik	-9.28343
▁özündə	-9.2838
▁çocuk	-9.2855
▁təmsil	-9.28566
▁hazır	-9.28671
▁kütlə	-9.2868
▁keçən	-9.28764
▁tərk	-9.2888
▁ordusu	-9.28887
▁prezidenti	-9.28937
▁1993-	-9.28941
▁La	-9.29165
▁vermişdir	-9.29365
▁kadın	-9.2937
▁Ç	-9.29375
▁Ha	-9.29422
▁içərisində	-9.29439
▁Şəki	-9.29601
▁Şeyx	-9.29639
ge	-9.29722
▁En	-9.29781
▁istehsalı	-9.29782
to	-9.29943
▁tamami	-9.29988
▁vacib	-9.30261
luğu	-9.30269
sunuz	-9.30348
▁dövrün	-9.30461
ad	-9.3052
▁zorunda	-9.30665
lerinde	-9.30732
▁bağlıdır	-9.30787
▁Prezidenti	-9.30815
▁fəxr	-9.30832
dik	-9.30834
▁olma	-9.30951
▁dəfn	-9.31059
▁Böylece	-9.31087
▁Hal	-9.31129
▁sene	-9.31131
▁qaz	-9.31192
ltif	-9.31236
▁konu	-9.31266
▁Uzun	-9.31324
▁ön	-9.31415
▁üzü	-9.31419
▁t	-9.31459
▁22	-9.31493
▁idman	-9.31544
▁tədris	-9.31571
▁adlanır	-9.31654
▁daim	-9.31686
▁doktoru	-9.3169
deki	-9.31695
▁hakim	-9.31695
▁Heydər	-9.31736
▁professor	-9.31749
▁teknoloji	-9.318
▁çalışır	-9.31828
▁v	-9.31831
▁Rus	-9.31914
▁göstərən	-9.32021
▁bilim	-9.32178
▁almış	-9.32188
▁mədəni	-9.32194
▁temel	-9.32246
▁2005-	-9.32319
▁yaradılması	-9.32388
▁özünə	-9.32415
▁qərb	-9.32452
▁Şamaxı	-9.32562
lerinden	-9.32594
nu	-9.32611
us	-9.32614
▁konusunda	-9.32645
▁gücü	-9.32665
▁əsrlər	-9.32701
▁sosial	-9.32718
▁ederim	-9.32912
▁rəhbərli	-9.33071
▁ö	-9.33101
▁keçirilmiş	-9.33154
▁işlər	-9.33167
▁üz	-9.33197
▁əvvəlki	-9.33212
▁parçası	-9.33221
▁hazırlanmış	-9.33424
▁həbs	-9.33448
▁aşağıdakı	-9.33563
▁xəbər	-9.33575
▁təsdiq	-9.33928
▁mən	-9.34029
ıyor	-9.34097
▁insanlara	-9.34112
▁indi	-9.34135
▁Misir	-9.34171
▁nəzərə	-9.3418
▁Yusif	-9.34237
▁yuxarı	-9.34289
▁çoğu	-9.34334
es	-9.34383
▁quru	-9.34447
▁mərkəzində	-9.34622
▁28	-9.34748
▁bəzən	-9.34755
▁üst	-9.34843
▁olduğundan	-9.34989
▁işçi	-9.3502
▁Şirvan	-9.35035
▁kino	-9.35141
▁1991-	-9.35165
▁Britaniya	-9.35176
▁evi	-9.35208
▁fransız	-9.35264
▁2008-	-9.35286
▁müdiri	-9.35421
▁izah	-9.3544
gi	-9.3557
▁edin	-9.35581
▁fəal	-9.35602
▁hızlı	-9.35653
▁savaş	-9.35675
▁ediyor	-9.35693
▁2000-	-9.35732
▁2006-	-9.3582
▁Mədəniyyət	-9.35864
▁başlayara	-9.35876
▁olmasına	-9.35921
ğ	-9.35923
▁geldi	-9.35927
dım	-9.35946
▁un	-9.36057
iş	-9.36267
▁ətraf	-9.3634
▁ad	-9.36366
▁yaşam	-9.36456
▁tanış	-9.36648
▁1990-	-9.36654
▁gedən	-9.3668
▁memarlıq	-9.3672
▁q	-9.36773
▁adlandırılmışdı	-9.36841
imi	-9.36919
▁illərin	-9.36928
meye	-9.36993
▁siyahısı	-9.37007
▁Eyni	-9.37027
▁dəmir	-9.37046
▁edirdilər	-9.37136
▁Tamam	-9.37259
▁uğrunda	-9.37512
▁Su	-9.37553
4	-9.37582
qca	-9.37598
▁etti	-9.37644
▁verdiyi	-9.37735
▁Və	-9.37777
▁olmadığı	-9.3791
▁u	-9.37927
▁uzunluğu	-9.37954
▁müavini	-9.38056
əm	-9.38064
▁Şurası	-9.38119
▁işe	-9.38244
▁29	-9.38303
▁ancak	-9.38308
▁ordu	-9.38344
▁60	-9.38422
▁əvəz	-9.38553
▁27	-9.38573
▁aydın	-9.3876
adece	-9.38866
▁məhv	-9.3901
▁ilginç	-9.3901
▁tane	-9.39078
▁vermiş	-9.39119
araq	-9.3913
▁dənizi	-9.3915
▁tərəf	-9.39191
▁yerde	-9.39225
▁bunları	-9.39251
▁1980	-9.39292
▁sosyal	-9.39314
▁yeniden	-9.39367
▁ermənilər	-9.39445
▁iddia	-9.39463
▁ata	-9.39564
▁yunan	-9.39586
▁etdirir	-9.39727
▁Mahnı	-9.39749
▁gizli	-9.39813
▁yanı	-9.40004
00	-9.40071
▁yapma	-9.40135
muş	-9.40188
▁üzv	-9.4025
▁ülke	-9.40258
▁Bizim	-9.40348
▁fikri	-9.4063
▁Məmməd	-9.40826
▁qələbə	-9.40846
▁müraciət	-9.40892
▁yaklaşık	-9.40892
▁2-	-9.40925
fa	-9.40947
▁Digər	-9.40993
sun	-9.41116
▁Kəndi	-9.41314
▁əsasını	-9.41337
▁Teymur	-9.41426
▁başına	-9.41453
▁alt	-9.41488
▁ədəbiyyatı	-9.41569
▁adları	-9.41697
▁bunların	-9.4174
bi	-9.41777
▁ayrıca	-9.41803
dü	-9.41877
▁gelir	-9.41885
▁Məmmədov	-9.41936
▁tabe	-9.41977
abad	-9.42012
▁dört	-9.42075
kar	-9.42077
▁əhalisini	-9.42089
▁Ağa	-9.42125
▁üstün	-9.42263
▁2007-	-9.42286
▁iç	-9.42409
ça	-9.42435
▁araba	-9.42439
▁sübut	-9.42441
▁həmişə	-9.42442
▁birinin	-9.42513
▁Respublika	-9.42517
▁inanılmaz	-9.42534
▁Yer	-9.42567
▁daxildir	-9.42572
▁yaradılmış	-9.42821
▁kəs	-9.42837
▁olmadığını	-9.42906
▁növbə	-9.42925
▁nümayəndələri	-9.42979
▁yaradır	-9.42999
nden	-9.4301
▁filmləri	-9.43062
unu	-9.43103
▁naziri	-9.43104
▁mənasında	-9.43257
▁onunla	-9.43289
▁etme	-9.43308
ağa	-9.4335
▁diqqət	-9.43417
ә	-9.43457
▁f	-9.43491
▁hale	-9.43538
maq	-9.43869
▁model	-9.43884
▁L	-9.43928
D	-9.43932
▁istediğim	-9.43982
tez	-9.43986
hazırda	-9.44044
▁informasiya	-9.44109
▁İncəsənət	-9.44109
lərinə	-9.44138
▁000	-9.44213
▁dolar	-9.44253
▁qalası	-9.44391
▁elde	-9.44422
▁Me	-9.44468
sınız	-9.44488
▁konuşma	-9.44529
mu	-9.44551
ız	-9.44589
ko	-9.44622
▁fəaliyyətini	-9.44653
▁bununla	-9.44688
▁çalışmışdı	-9.4474
▁televiziya	-9.44751
fi	-9.44879
▁dövlətin	-9.44918
▁sorun	-9.44929
▁məlumatlar	-9.45015
▁Qərbi	-9.45071
▁İngiltərə	-9.45139
9	-9.45282
▁hem	-9.45339
▁Əmir	-9.45388
▁dövr	-9.45409
▁durumda	-9.4543
▁Dram	-9.45447
▁sözləri	-9.45453
▁sənət	-9.45469
▁əsərində	-9.45495
▁nokta	-9.45538
▁dərin	-9.45572
▁hakimi	-9.45672
▁Al	-9.4568
▁təsadüf	-9.45693
▁qız	-9.45855
▁kontrol	-9.45901
▁Paşa	-9.45996
içik	-9.46061
sinde	-9.46068
az	-9.46093
▁hazırda	-9.46133
▁hikaye	-9.46165
▁sayılır	-9.46272
▁dolu	-9.4636
▁Şərqi	-9.46435
▁yaradılmışdı	-9.4646
▁herhangi	-9.46568
ah	-9.46627
▁1918-	-9.4674
▁sıx	-9.46796
▁eğitim	-9.46803
abilir	-9.4683
▁sayda	-9.46853
▁həll	-9.46921
▁olunurdu	-9.4718
▁hemen	-9.47188
▁Benim	-9.47252
▁araştırma	-9.47282
▁məruz	-9.47351
▁Sa	-9.47395
▁başlayan	-9.47397
▁İnsan	-9.47432
mizi	-9.4747
▁şeyleri	-9.47563
▁izin	-9.47642
▁komanda	-9.47883
▁əksəriyyəti	-9.47905
ist	-9.47914
▁necə	-9.48045
▁çıxır	-9.48186
▁anası	-9.48187
▁Qüvvələri	-9.48197
▁Teatrın	-9.48218
▁ədəbiyyat	-9.4874
▁demek	-9.48861
yyətlə	-9.48985
▁rolu	-9.49009
seniz	-9.49082
▁klubu	-9.49098
▁bitiri	-9.4911
iyor	-9.49117
8	-9.49161
▁qalib	-9.49165
▁isti	-9.49201
▁Cəfər	-9.49218
▁Ta	-9.49296
çe	-9.49321
▁qrupu	-9.49344
pe	-9.49352
▁içində	-9.49361
▁özel	-9.49387
▁ailəsi	-9.49424
▁Elə	-9.49452
▁Mustafa	-9.49574
▁sülh	-9.49669
▁vəziyyət	-9.4968
▁böylece	-9.49735
▁Musiqi	-9.49778
▁yegan	-9.49787
▁üstündə	-9.4979
▁hadisə	-9.4988
lardı	-9.49925
▁bina	-9.50068
▁əməkda	-9.50246
▁rəhbəri	-9.5035
▁problem	-9.50351
▁Rayon	-9.5044
▁örnek	-9.50526
▁məcbur	-9.50601
▁çevre	-9.50674
▁güçlü	-9.50678
▁mal	-9.5068
▁Müqəddə	-9.50871
▁qalır	-9.50982
ayət	-9.51122
▁qoşunları	-9.51135
ay	-9.51185
▁Onu	-9.51251
▁1920-	-9.51266
▁New	-9.51279
▁200	-9.51366
ebilir	-9.51366
▁İtaliya	-9.51371
▁məktəbində	-9.51398
▁Teşekkürler	-9.51481
bir	-9.51488
ot	-9.515
▁y	-9.51603
▁göster	-9.51613
▁yaranması	-9.51642
▁şairi	-9.5167
▁icra	-9.51706
▁dəvət	-9.51811
▁birşey	-9.51859
tar	-9.51892
am	-9.51925
▁video	-9.5193
▁kon	-9.51941
▁Muxtar	-9.52281
▁dəqiq	-9.52294
▁avtomobil	-9.52331
▁Avroviziya	-9.52382
▁əmək	-9.52509
▁onlardan	-9.52585
▁genç	-9.52633
rc	-9.52637
7	-9.52698
▁Seyid	-9.52702
▁gəlmişdi	-9.5279
adlı	-9.52791
▁şəxsi	-9.52914
▁İnstitutu	-9.52982
▁tayfa	-9.53194
▁yanlış	-9.53225
xeoloji	-9.53275
▁cevap	-9.53299
▁aiddir	-9.5337
▁_	-9.53402
▁əsl	-9.53465
▁məktəbini	-9.53467
▁benzer	-9.53512
▁2004-	-9.53664
▁Süleyman	-9.53674
▁keçirilir	-9.53695
ek	-9.53732
▁alma	-9.53881
▁bitirmişdi	-9.53921
▁araya	-9.53979
▁ha	-9.53995
▁eski	-9.54064
▁hafta	-9.54133
▁ordusunu	-9.54157
▁Mir	-9.54162
▁kız	-9.54172
▁gecə	-9.54265
▁deyə	-9.54338
▁əvvəlcə	-9.54458
▁ölkələrdə	-9.5455
▁anlama	-9.5456
▁tamam	-9.54756
▁bin	-9.54797
▁çəkilmiş	-9.54825
▁maddi	-9.54848
▁işləmişdi	-9.54852
▁kilsə	-9.54967
▁qayda	-9.54992
▁milyar	-9.55093
▁hayat	-9.55123
▁80	-9.55144
▁başçısı	-9.55216
▁köməyi	-9.55254
▁hüquq	-9.55269
▁forma	-9.55288
▁düz	-9.5553
məsi	-9.55535
▁daşı	-9.55542
▁üzvləri	-9.55819
▁Silah	-9.56209
▁incəsənət	-9.56237
▁olmasını	-9.56256
▁tipli	-9.56409
▁verilmiş	-9.56409
▁birində	-9.56505
dığı	-9.56616
▁maraqlı	-9.56633
▁İstanbul	-9.56692
unun	-9.56781
▁sahələri	-9.56789
▁Tanrı	-9.56903
▁hökmdarı	-9.56912
▁sizi	-9.56922
ıl	-9.5694
leme	-9.57035
çu	-9.57097
▁Olimpiya	-9.57163
▁Çox	-9.57164
▁sovet	-9.5725
▁ölümündə	-9.57469
▁aparıla	-9.57515
▁kar	-9.5766
▁başlayıb	-9.57696
▁birini	-9.57704
▁herkes	-9.57759
▁qırmızı	-9.578
▁qar	-9.57894
▁birisi	-9.57913
▁Əhali	-9.58146
▁ləğv	-9.58232
▁xadimi	-9.58281
▁Şəhər	-9.58297
▁Di	-9.58308
▁Ağdam	-9.58358
▁3-	-9.58368
j	-9.58379
▁aile	-9.58392
▁yaranmışdı	-9.58393
▁göstərmişdi	-9.58495
▁çar	-9.58526
о	-9.58599
▁sonuna	-9.58789
▁coğrafi	-9.58998
▁yenə	-9.59009
▁yine	-9.59024
▁tikilmiş	-9.59097
ası	-9.59169
▁qazandı	-9.5922
▁forması	-9.59226
▁zamanlar	-9.59476
▁yayılmışdı	-9.59487
▁2002-	-9.59521
▁dedim	-9.59561
▁kimse	-9.59563
▁real	-9.59801
▁hallarda	-9.59815
▁etnik	-9.59976
▁şəhərini	-9.60001
6	-9.60067
▁tibb	-9.60151
▁2010-	-9.60159
▁say	-9.60159
tim	-9.60165
▁hiss	-9.60199
▁Bugün	-9.60261
▁olmadan	-9.604
▁Molla	-9.6041
▁2003-	-9.60494
▁saray	-9.60498
▁XVIII	-9.60554
▁hatta	-9.60635
▁növləri	-9.60646
▁şunu	-9.60729
lük	-9.60823
▁gedir	-9.60829
▁nail	-9.60908
lanmış	-9.61005
▁ka	-9.61037
▁əsər	-9.61049
▁hepsi	-9.61074
ləşmiş	-9.61247
zi	-9.61263
film	-9.61382
▁üstünlük	-9.6141
▁yoldaşı	-9.61517
▁vəziyyəti	-9.61673
▁qəzeti	-9.61696
▁°	-9.61736
▁mə	-9.61744
▁maraq	-9.61769
▁telefon	-9.61858
▁səhnə	-9.61887
qdan	-9.61903
▁alim	-9.6193
▁Neden	-9.61947
▁Soveti	-9.61952
▁uzaq	-9.61975
▁yerində	-9.62026
imiz	-9.62126
▁bak	-9.62173
▁heyvan	-9.62216
▁Ye	-9.62272
caq	-9.62377
▁sm	-9.62514
▁qalmış	-9.62627
▁tahmin	-9.62631
▁müalicə	-9.62803
▁silah	-9.62876
▁Akademiyasını	-9.62915
▁toplum	-9.62931
▁gətirir	-9.63039
▁qadınlar	-9.63169
əgər	-9.63254
ılmış	-9.63296
▁güç	-9.63338
▁tutan	-9.63422
luk	-9.6348
ının	-9.63526
▁dərəcə	-9.63641
▁nümayiş	-9.63648
▁müvafiq	-9.63649
▁yaşadığı	-9.63699
▁x	-9.63757
ayəsində	-9.63759
▁qəsəbə	-9.63762
mızı	-9.63827
▁mədəniyyəti	-9.63948
▁Avropada	-9.64059
▁dövlətini	-9.64075
▁amma	-9.64117
▁bildirir	-9.6414
▁müqavilə	-9.64176
▁çoxu	-9.64207
▁ton	-9.64218
▁gerek	-9.64367
▁Elmlər	-9.64543
▁çətin	-9.64554
▁gösteriyor	-9.64734
▁deyir	-9.64775
▁kənddə	-9.64807
çilik	-9.64812
▁Mü	-9.64853
▁vaxtı	-9.64908
▁Li	-9.6497
▁Aşağı	-9.65012
▁daşıyır	-9.65043
▁mürəkkəb	-9.65138
▁sinir	-9.65167
nunun	-9.65167
▁çıxdı	-9.6522
▁xanı	-9.65329
▁dillərində	-9.65436
▁San	-9.65477
iyyə	-9.6557
san	-9.65633
▁qəzet	-9.65707
▁Araz	-9.65722
▁qaldı	-9.65769
ch	-9.65783
▁öncə	-9.65883
▁alınmışdı	-9.65926
▁mümkündür	-9.6597
▁qolu	-9.65988
▁suyu	-9.66038
▁ak	-9.66103
▁çünk	-9.6612
▁şərait	-9.66141
A	-9.66215
▁aldığı	-9.66221
▁500	-9.66236
▁Az	-9.66248
▁İnsanlar	-9.66264
▁İttifaqı	-9.66302
▁qüvvələri	-9.66351
▁nadir	-9.66448
yev	-9.66468
▁ayı	-9.6658
▁Paris	-9.66609
▁direktoru	-9.66628
▁gördüğünüz	-9.66653
▁Ka	-9.66654
▁yük	-9.66675
▁görüş	-9.66716
▁kolay	-9.6672
▁bence	-9.66756
qətlə	-9.66819
▁31	-9.6686
▁hüququ	-9.66915
▁kabul	-9.67136
▁Məh	-9.67155
▁rəngli	-9.67316
▁den	-9.67328
▁oyunda	-9.67344
▁qida	-9.67349
▁hökuməti	-9.67351
▁kısa	-9.67401
▁buraya	-9.67431
▁Re	-9.67467
▁final	-9.67533
▁meşə	-9.67539
▁yayılmış	-9.67668
tü	-9.67691
min	-9.67715
lanan	-9.67717
▁Sonralar	-9.67807
▁neler	-9.67814
▁zəif	-9.67923
▁şeyin	-9.6794
▁fakültəsini	-9.67956
▁etdirə	-9.67957
▁Fətəli	-9.6806
▁azərbaycanlılar	-9.68123
▁dövrünü	-9.68148
▁müğənni	-9.68178
▁ş	-9.68197
▁normal	-9.68308
rken	-9.68481
▁ilkin	-9.68538
▁yaptığı	-9.6854
▁komandası	-9.68564
▁fiziki	-9.68593
▁tip	-9.68627
▁ı	-9.68703
▁başladılar	-9.68825
▁başında	-9.68844
▁cəmi	-9.6885
▁həl	-9.68913
▁ç	-9.69026
lay	-9.69075
▁onlarla	-9.69172
▁yaratmışdı	-9.69186
sak	-9.69227
▁qanun	-9.69235
▁qabaq	-9.69279
▁Mars	-9.69402
▁No	-9.69408
▁sahədə	-9.69502
▁kap	-9.69569
▁maliyyə	-9.69627
▁Ukrayna	-9.69659
▁istiqamətində	-9.69674
w	-9.69707
▁prezident	-9.69726
van	-9.69733
▁kez	-9.69797
▁görme	-9.69816
sk	-9.69828
▁yaradıcılığı	-9.69873
▁Ərəb	-9.69933
▁partiya	-9.69946
▁ses	-9.69962
▁yarım	-9.7002
▁yap	-9.70049
▁elektron	-9.70076
▁Mi	-9.70158
▁Elmi	-9.70174
▁70	-9.70245
▁ədəd	-9.70261
ban	-9.70283
▁Na	-9.70303
▁teatrın	-9.70333
▁olmaya	-9.70396
ış	-9.70453
▁qalmışdı	-9.70477
▁J	-9.70543
▁neredeyse	-9.70601
▁klassik	-9.70602
▁Moskvada	-9.70663
▁geç	-9.70689
▁yapmaya	-9.70743
▁kök	-9.70796
▁dilini	-9.7084
gah	-9.70872
▁bağ	-9.70919
▁sisteminin	-9.70935
▁varsa	-9.70963
ve	-9.71011
▁ailəsində	-9.71046
▁mənşəli	-9.71098
ıp	-9.71155
▁məscid	-9.71187
▁değildir	-9.71342
▁et	-9.71425
▁köhnə	-9.71439
▁yaz	-9.71492
▁tedavi	-9.71562
diyi	-9.71616
▁top	-9.7162
ayrı	-9.71647
yız	-9.71687
▁Nadir	-9.71691
▁ilişki	-9.71698
▁yeddi	-9.71704
▁Mahmud	-9.71768
mağa	-9.71804
▁dolayı	-9.71809
son	-9.71848
ze	-9.71852
▁York	-9.7187
▁değildi	-9.7199
▁müddətdə	-9.7201
▁tərtib	-9.72052
▁hökumət	-9.72055
▁sahə	-9.72089
▁1999-	-9.72111
nızı	-9.72151
▁texniki	-9.72157
▁düşmən	-9.72163
▁təqrib	-9.72181
▁sürətlə	-9.72205
▁plan	-9.72233
▁qələm	-9.72246
+	-9.72303
▁Ayrıca	-9.72314
▁qalıqları	-9.72366
mışdır	-9.72387
▁ağac	-9.72441
▁gece	-9.72443
▁yerlərdə	-9.72447
▁daxilində	-9.72466
▁hadisələr	-9.72541
▁2013-	-9.72543
mda	-9.72564
▁tamaşa	-9.72596
lanma	-9.72632
▁əhəmiyyət	-9.72645
▁The	-9.72689
▁yay	-9.72762
sek	-9.72799
▁Qırmızı	-9.72799
▁İsrail	-9.72799
▁quruluş	-9.72856
▁verilən	-9.72882
▁2001-	-9.72941
▁üsyan	-9.72943
▁mənsub	-9.72984
P	-9.73092
▁çıktı	-9.73127
▁artır	-9.73134
dakı	-9.73239
yir	-9.73454
▁yaranmış	-9.73522
▁metal	-9.73522
▁suyun	-9.73561
▁özellikle	-9.73606
▁Füzuli	-9.73674
▁xətti	-9.73676
▁Qala	-9.73709
▁edil	-9.7378
▁mərkəz	-9.73923
▁ordeni	-9.73979
▁Kendi	-9.74015
▁təcrübə	-9.74025
▁yaşı	-9.74026
▁kompüter	-9.74052
▁yola	-9.74058
▁sırasında	-9.7413
▁tədqiqat	-9.74133
▁yapan	-9.74261
▁xanlığı	-9.74291
▁va	-9.74326
▁genel	-9.74384
▁qarşısını	-9.74384
bə	-9.74412
▁Cəlil	-9.74431
landı	-9.74522
▁Co	-9.74525
▁Tiflis	-9.74565
▁İranda	-9.74576
▁elmlər	-9.74721
▁açı	-9.74722
▁üzere	-9.74811
▁atı	-9.74881
▁Qərb	-9.74914
▁general	-9.74914
▁gelecek	-9.74931
▁tut	-9.75022
▁müəllimi	-9.75029
▁can	-9.75086
▁2012-	-9.7512
▁derece	-9.75152
0	-9.75156
▁fəlsəfə	-9.75219
▁görünür	-9.75315
▁mm	-9.75387
▁quruluşu	-9.75427
▁sözünü	-9.75481
▁yazmışdı	-9.75539
▁proje	-9.75569
▁təsis	-9.75581
▁vergi	-9.75615
▁İş	-9.75619
▁etdirmişdi	-9.75656
▁göstərmək	-9.75673
▁xalça	-9.75736
▁şəhərdə	-9.75916
▁çalış	-9.75962
▁verildi	-9.75967
▁ışık	-9.75971
▁dərəcədə	-9.75995
▁gerekiyor	-9.7604
▁keçdi	-9.76162
▁yere	-9.76227
▁ifade	-9.76243
▁kəşf	-9.76336
▁ixtisas	-9.76342
▁İsveç	-9.76342
▁değer	-9.76562
▁başladım	-9.76572
▁Abşeron	-9.76604
▁verici	-9.76615
▁həkim	-9.76628
▁mənim	-9.76763
▁2000	-9.76763
▁kullan	-9.76827
▁Orada	-9.7683
B	-9.76838
▁Erməni	-9.76879
▁Qazax	-9.76888
▁Mo	-9.76893
▁dilləri	-9.76905
▁İspaniya	-9.76953
▁Ge	-9.76966
▁iletişim	-9.76993
ür	-9.77014
▁verme	-9.7702
▁20-	-9.77036
▁sənəti	-9.77118
▁TED	-9.77123
▁təkrar	-9.77124
unda	-9.77127
▁prosesi	-9.77144
▁vermək	-9.77176
▁doğal	-9.77187
▁Ar	-9.77221
▁san	-9.77332
▁düzgün	-9.77388
5	-9.77455
▁deniz	-9.77469
▁miqdar	-9.77516
▁tələbə	-9.7754
▁yazırdı	-9.77637
▁kamera	-9.77644
=	-9.77775
▁Neft	-9.77845
suz	-9.77961
▁dairəsi	-9.78042
▁grup	-9.78042
▁tərkibin	-9.7812
▁katibi	-9.78121
▁ruh	-9.78129
▁ver	-9.78163
▁Türkiyədə	-9.78186
▁35	-9.78209
▁məhsulları	-9.78246
▁əmr	-9.78282
▁nüvə	-9.78299
▁çalışıb	-9.783
▁IV	-9.78317
▁məsələləri	-9.78385
▁yaptığımız	-9.78432
▁Rə	-9.78539
▁imti	-9.78566
▁Vətən	-9.78571
▁nəzarət	-9.78612
▁əlaqə	-9.78627
▁edilirdi	-9.78649
▁səviyyəsində	-9.78658
bu	-9.78671
▁inkişafında	-9.78677
S	-9.78775
▁alban	-9.78776
▁gətiri	-9.78819
▁rəng	-9.78858
ünü	-9.78875
▁no	-9.78878
▁2011-	-9.78891
▁xalqın	-9.78918
▁bölünür	-9.7896
▁Universitetində	-9.78979
▁düşünün	-9.78986
▁Qafqazda	-9.79031
▁əsir	-9.79049
▁qiymətli	-9.79079
mayı	-9.79121
▁yapıyor	-9.79141
â	-9.79196
▁olacaq	-9.79248
▁həyatında	-9.79324
▁tikinti	-9.7933
▁mətbuat	-9.79346
▁qonşu	-9.79359
▁Cavanşir	-9.79403
▁kitabında	-9.79585
▁Sumqayıt	-9.79623
aşayış	-9.79632
lanır	-9.7968
yorsunuz	-9.79783
▁işin	-9.79875
▁Zaqafqaziya	-9.7989
▁test	-9.79908
nizi	-9.79912
mar	-9.79924
▁vahid	-9.7994
▁ulduz	-9.8003
▁aparılmış	-9.80037
▁oluna	-9.80041
▁vəziyyətdə	-9.80042
▁tarixdə	-9.80052
▁etməklə	-9.80117
▁məktəbin	-9.80172
▁di	-9.80212
▁yolla	-9.80276
▁başlıca	-9.80294
▁surət	-9.80455
▁Bunları	-9.80518
▁həyatını	-9.80523
▁Üç	-9.80578
▁silahlı	-9.80614
▁görür	-9.80637
ga	-9.80639
▁dağlıq	-9.80663
▁vaxtda	-9.80688
▁Nobel	-9.80696
▁altın	-9.80719
▁mənbələrdə	-9.8077
▁la	-9.80847
▁Hüseynov	-9.80854
▁kəndləri	-9.80863
▁müqayisə	-9.80964
▁kullanarak	-9.80975
▁keçirdi	-9.81058
sın	-9.81073
güman	-9.81187
▁olduğumuz	-9.81198
▁ehtimal	-9.81219
▁geçen	-9.81282
▁Avstriya	-9.8137
▁Oykonim	-9.8137
▁kitabxana	-9.81415
▁gir	-9.81426
▁yavaş	-9.81512
▁ortalarında	-9.81559
▁bakın	-9.81566
▁redaktoru	-9.81574
▁səbəbdən	-9.81641
▁dövrlərdə	-9.81715
▁içine	-9.81721
▁yılda	-9.81729
ut	-9.81815
▁göstərilir	-9.81868
▁hasta	-9.81878
▁Tüm	-9.81882
▁ölçü	-9.81915
▁maddə	-9.81975
▁tədqiqatlar	-9.82006
xa	-9.82007
▁düşünce	-9.82019
▁adi	-9.82022
▁1930	-9.82055
▁Birliyini	-9.82086
ver	-9.82133
zə	-9.82142
▁Kənddə	-9.82151
▁vəzifəsinə	-9.8216
▁tərkibi	-9.82164
yorum	-9.82202
▁Hərbi	-9.82213
▁Əbu	-9.82219
▁keçirilməsi	-9.82221
C	-9.82334
larımız	-9.82361
▁arasındaki	-9.82386
▁söyle	-9.8241
eği	-9.82441
▁haqda	-9.82462
▁ölkələrində	-9.82485
▁məktəbdə	-9.8249
▁bitir	-9.82498
ley	-9.82608
▁dakika	-9.82627
▁olmalı	-9.82677
ydu	-9.82726
▁söhbət	-9.8274
▁Aynı	-9.82746
lma	-9.82768
▁nüfuz	-9.82784
▁vilayəti	-9.82842
▁Öz	-9.82901
▁sanat	-9.82927
▁adında	-9.82944
▁göstərmiş	-9.82963
▁Aşıq	-9.8315
▁1988-	-9.8316
başa	-9.83255
yü	-9.83256
▁karmaşık	-9.83276
▁əsrə	-9.8331
▁öğren	-9.83328
▁əlində	-9.83394
▁klub	-9.83411
▁1998-	-9.83494
▁keçirir	-9.83509
▁güven	-9.83521
▁İsa	-9.83531
▁kəskin	-9.83569
▁1994-	-9.8367
▁Güney	-9.83711
▁kal	-9.83771
▁tətbiqi	-9.83891
▁anlamı	-9.83932
▁qüvvə	-9.83984
▁sarı	-9.84006
▁yoktu	-9.84013
▁yaş	-9.8402
abiliriz	-9.84121
▁edilmişdi	-9.84133
▁yaratmaq	-9.84135
muz	-9.84162
gen	-9.84171
▁haber	-9.84375
▁möhkəm	-9.84392
▁Müasir	-9.84399
▁Bizans	-9.84407
▁derin	-9.84411
▁sonu	-9.84428
▁sonraki	-9.84457
▁mirzə	-9.84539
▁bəstəkar	-9.84595
▁çeşit	-9.8461
▁hissələri	-9.84637
▁90	-9.84655
▁İsgəndər	-9.84688
▁dəstə	-9.84733
▁şirkəti	-9.84775
▁ölkələrin	-9.84816
ənəvi	-9.84855
▁qış	-9.85002
▁rayonun	-9.85118
şı	-9.8514
▁sultan	-9.85193
▁300	-9.85222
▁Gənc	-9.85266
▁An	-9.85328
▁abidə	-9.85474
▁uzay	-9.85526
do	-9.85677
▁acı	-9.85706
▁Ko	-9.85713
▁miqdarı	-9.8572
▁iqlim	-9.85822
▁etdikləri	-9.85904
▁parlaq	-9.85948
▁aktyoru	-9.85952
▁Te	-9.85961
▁proqram	-9.85977
▁sakinləri	-9.85988
▁Tarix	-9.86193
▁ihtiyacımız	-9.8629
▁4-	-9.86294
▁kan	-9.86316
▁sağlık	-9.86359
▁deyildi	-9.86486
diğimiz	-9.86525
▁1960-	-9.86596
▁mühəndis	-9.86644
xan	-9.86659
▁heyvandarlıq	-9.86672
▁doğma	-9.86677
▁giriş	-9.86705
tur	-9.86804
▁Bil	-9.86807
▁təsərrüfat	-9.86811
▁qarşılıq	-9.86837
▁qat	-9.86839
▁Yazıçılar	-9.86894
▁Ölkə	-9.87012
▁çöl	-9.87032
R	-9.87046
▁Atası	-9.87084
▁yarısında	-9.87128
▁edildiyi	-9.87178
▁tasarım	-9.87219
▁rağmen	-9.87234
▁atom	-9.87236
iyoruz	-9.87274
▁sahil	-9.87281
▁gözü	-9.8734
▁uşaqlar	-9.87411
▁Kanada	-9.8742
▁sonuncu	-9.87433
ton	-9.87434
as	-9.87441
▁ömrünü	-9.87462
ül	-9.87466
▁xristian	-9.87483
▁olmaz	-9.8749
▁müqəddəs	-9.87522
▁Axundov	-9.87533
▁biliyoruz	-9.87543
▁g	-9.87566
▁1970-	-9.87586
▁çəkilə	-9.87632
▁şəxslər	-9.87634
qu	-9.87668
▁Qeyd	-9.87698
▁müsabiqə	-9.87698
▁habe	-9.87809
▁Yalnız	-9.87811
▁Fi	-9.87909
▁atəş	-9.87953
▁XVI	-9.87956
▁alıp	-9.87969
▁do	-9.8798
▁Mehdi	-9.88095
▁mavi	-9.88125
▁işləyi	-9.88139
▁yapılan	-9.88222
▁2014-	-9.88275
▁UEFA	-9.88391
rdı	-9.88465
▁göy	-9.88474
▁adamı	-9.88494
▁ölümü	-9.88497
▁beraber	-9.88505
▁nəticəsi	-9.88517
▁Belki	-9.88564
▁əmri	-9.88571
▁Ana	-9.88633
▁ek	-9.88741
▁çıxmış	-9.88799
▁bilmir	-9.88829
▁bazar	-9.88839
▁əksər	-9.8888
▁asla	-9.88944
▁İnternet	-9.88975
▁sərbəst	-9.88982
ktan	-9.89022
▁kafa	-9.8903
▁ekonomi	-9.8903
▁xarakteri	-9.89138
▁aşı	-9.89154
▁okul	-9.89219
▁İl	-9.89246
▁səfər	-9.89298
▁siyasəti	-9.89328
▁qismi	-9.89377
M	-9.89384
▁İnstitutunda	-9.89405
▁akademik	-9.89414
dum	-9.89459
maz	-9.89482
▁erkek	-9.89499
▁hazırlanması	-9.89503
▁etdikdə	-9.89513
▁şərəfin	-9.89536
▁Hacıbəyov	-9.89569
▁xüsusiyyətləri	-9.89591
lerimiz	-9.89622
▁ikisi	-9.89626
▁hamısı	-9.89656
▁Ra	-9.89662
▁məhkəmə	-9.89685
▁bas	-9.89706
▁Göy	-9.89767
▁Albaniya	-9.89803
▁Bərdə	-9.89856
▁yerləri	-9.89859
▁heyəti	-9.89872
▁kəndindən	-9.89893
izm	-9.89993
▁görmek	-9.9015
▁Qəbələ	-9.90152
▁düşünüyorum	-9.90164
▁icazə	-9.9036
▁mənası	-9.90385
▁Ro	-9.90387
▁Komitəsini	-9.90413
asyon	-9.90501
▁ele	-9.90541
▁ortak	-9.90569
▁adətə	-9.90601
▁görüyorsunuz	-9.90603
▁gəlinir	-9.90621
▁ölkələr	-9.90676
▁asan	-9.90699
▁Tofiq	-9.90746
▁yağ	-9.90763
▁gördük	-9.90843
▁gitme	-9.90847
▁150	-9.90878
▁Nəticə	-9.90895
▁məscidi	-9.90921
▁kifayət	-9.90943
ilmiş	-9.90953
▁Le	-9.90986
▁verib	-9.91035
▁nəzdində	-9.91044
ok	-9.91048
▁deyildir	-9.91054
▁mövzusunda	-9.91087
▁bitirdik	-9.91191
▁Rza	-9.91214
▁aparıcı	-9.91254
▁sənayesi	-9.91287
▁hərəkatı	-9.91309
▁mahnısı	-9.91309
▁əsərlərini	-9.9134
▁Məşə	-9.91343
▁təbiət	-9.91349
▁yaradıcılıq	-9.91364
▁müharibəsində	-9.91446
▁bəyi	-9.91452
▁oda	-9.91464
▁2015-	-9.91499
▁əsası	-9.91507
▁sonlarında	-9.91543
sam	-9.91593
po	-9.91616
▁çocuklar	-9.91677
▁tanınır	-9.91703
kan	-9.91717
▁seçilir	-9.91772
mək	-9.91803
▁əsərlər	-9.91823
go	-9.91873
▁edilə	-9.91881
▁yerləşdiyi	-9.91955
I	-9.91956
▁verirdi	-9.92071
▁etməyi	-9.92088
▁təşkilat	-9.92109
▁xidmətləri	-9.92111
▁nümunələri	-9.92209
▁əməliyyat	-9.92278
▁hücre	-9.92344
▁səsi	-9.92355
▁Dəniz	-9.92399
▁hep	-9.92399
▁görebilirsiniz	-9.92404
mesi	-9.92472
▁təsviri	-9.9249
▁Nə	-9.9249
▁oyunu	-9.92558
▁günəş	-9.92587
▁yaptık	-9.92614
▁başlamış	-9.92642
▁Bunlarda	-9.92645
▁sənəd	-9.9271
▁bakış	-9.92723
▁tərəfi	-9.9274
▁arası	-9.92852
▁arı	-9.92859
▁mənəvi	-9.9291
layan	-9.93016
▁apara	-9.93135
▁adından	-9.93177
▁sanki	-9.93439
▁yarı	-9.93449
▁teşekkür	-9.93516
▁değişim	-9.93516
▁alınması	-9.93539
▁adamlar	-9.93629
▁yaptı	-9.93632
▁adamları	-9.93666
▁oranı	-9.93697
▁Komitəsi	-9.93741
▁rəisi	-9.93801
▁etmeye	-9.939
▁yı	-9.93915
T	-9.93936
▁imkanı	-9.93939
▁güneş	-9.93956
▁yardımcı	-9.93983
▁1919-	-9.9401
▁Xan	-9.94055
▁Ara	-9.94064
▁zamanlarda	-9.94128
yım	-9.94145
E	-9.94149
oloji	-9.94172
▁Musa	-9.94215
▁yaşa	-9.94322
▁iz	-9.94347
▁olanlar	-9.94378
▁iştirakı	-9.94391
▁korku	-9.94412
▁ettim	-9.94423
▁ada	-9.94457
▁düşən	-9.94469
▁düşündüm	-9.94472
▁olduqda	-9.94511
▁kəsi	-9.94534
▁rahat	-9.9454
▁boş	-9.94565
acağım	-9.94613
▁Yerli	-9.94625
▁as	-9.94678
▁sayılan	-9.94695
▁muhtemelen	-9.94708
▁1989-	-9.94754
▁Con	-9.94776
▁deney	-9.94806
üs	-9.94829
▁2009	-9.94829
▁deputat	-9.94849
▁hissədə	-9.94907
ör	-9.94978
▁bırak	-9.95038
▁Yaponiya	-9.95064
▁Əməkda	-9.95068
▁əvvəllər	-9.95151
▁nümayəndəsi	-9.95162
▁seçilmişdi	-9.95191
▁alətləri	-9.95215
▁sen	-9.95301
▁kelime	-9.95309
ologiya	-9.95311
▁Quliyev	-9.95316
▁1945	-9.95318
▁yaratdığı	-9.95331
▁Büyük	-9.95372
▁Birliyi	-9.95414
▁konsert	-9.95457
▁dikkat	-9.95458
▁Xaric	-9.95473
▁Ni	-9.95494
▁verilməsi	-9.95518
ing	-9.95544
▁Akademi	-9.95578
▁olup	-9.95633
▁bazen	-9.9564
▁sərhəd	-9.95706
▁30-	-9.95712
▁məsələn	-9.95713
op	-9.95738
▁xal	-9.95761
▁sak	-9.95765
▁Avrupa	-9.95785
ıldı	-9.95947
▁kilometr	-9.96017
▁dəqiqə	-9.96052
qları	-9.96065
▁məsələ	-9.96076
▁güc	-9.96087
▁bi	-9.96094
▁Cəbrayıl	-9.96099
▁seç	-9.96119
▁Təhsil	-9.96161
▁Ba	-9.96247
▁be	-9.96251
▁çevrilir	-9.96262
▁rəssam	-9.96283
▁rolunu	-9.96343
ren	-9.96375
▁Amerikan	-9.96443
▁Cabbarlı	-9.96454
▁gəlməsi	-9.96475
bar	-9.96515
▁imza	-9.96534
▁opera	-9.96648
▁universitet	-9.9665
▁göndərdi	-9.96687
▁götür	-9.96695
▁səkkiz	-9.96729
▁İmam	-9.96741
ylə	-9.96827
▁fikrinc	-9.96832
▁gümüş	-9.96889
▁binası	-9.96917
▁yılında	-9.96983
▁Se	-9.96994
▁Əvvəl	-9.9701
▁inan	-9.97015
▁işləyir	-9.9704
▁nedir	-9.97041
▁çek	-9.97044
▁xilas	-9.97046
malıyız	-9.97052
▁Səfəvilər	-9.97195
▁deneyim	-9.97229
▁sebep	-9.97232
▁dışında	-9.97245
▁tədqiq	-9.97266
▁çatır	-9.97309
▁durumu	-9.97339
▁vuru	-9.97387
▁çəkilmişdi	-9.974
▁taxta	-9.97447
▁hangi	-9.97523
▁merak	-9.97527
▁Yuxarı	-9.97592
▁nun	-9.97665
dık	-9.97671
▁1972	-9.97682
▁küresel	-9.97841
▁Allahı	-9.97894
▁yerini	-9.97923
una	-9.97982
▁1974	-9.98002
yoruz	-9.98024
▁olurlar	-9.9811
▁Aleksandr	-9.98162
dığımız	-9.98246
▁qazana	-9.98259
▁Ban	-9.98271
▁soyuq	-9.98297
▁1995-	-9.98321
▁Alban	-9.98322
▁Diğer	-9.98323
▁qəza	-9.98468
▁laureatı	-9.98498
▁etsə	-9.98502
▁bilən	-9.98603
▁keçə	-9.98621
▁dünyayı	-9.98643
▁dram	-9.98665
▁1981	-9.98806
▁gürcü	-9.98932
▁kendini	-9.98936
▁sebebi	-9.9895
.000	-9.99006
▁Başka	-9.99111
▁sərkərdə	-9.99129
leriyle	-9.99181
▁mənasını	-9.99255
▁ərazilərdə	-9.99272
▁həftə	-9.99323
▁tutdu	-9.99327
▁İbn	-9.99331
▁başarı	-9.99361
▁müqaviləsi	-9.99364
birinə	-9.99378
▁İndi	-9.99518
▁övladı	-9.99534
▁qatı	-9.99553
▁olacağını	-9.99609
▁yumurta	-9.99616
▁yaranan	-9.99642
▁şöbə	-9.99657
▁hepimiz	-9.99681
ck	-9.99767
yon	-9.99781
▁yarısı	-9.99815
diği	-9.99852
▁dəstəsi	-9.99862
▁aylarında	-9.99919
yim	-9.99927
▁etki	-9.99928
▁1967	-9.99942
▁1968	-9.99942
▁1997-	-9.99971
▁gələcək	-9.99977
▁bunlardan	-9.99996
▁məqsəd	-10.0017
▁tarixçi	-10.002
biri	-10.0025
çay	-10.0029
▁Osman	-10.0036
▁adım	-10.0036
oz	-10.0037
▁hörmət	-10.0043
▁dağları	-10.0045
▁risk	-10.0047
▁Nyu	-10.0047
rd	-10.0047
▁sev	-10.0047
ımız	-10.0048
▁Nazir	-10.0048
▁zə	-10.0049
▁şeir	-10.005
▁parlament	-10.0054
▁nəzəriyyəsi	-10.0056
siya	-10.0057
▁hayatta	-10.0058
rt	-10.006
▁Federasiyası	-10.006
▁cəmiyyətin	-10.0069
▁almak	-10.0074
▁Laçın	-10.0076
▁ni	-10.0077
▁Teatr	-10.0081
▁destek	-10.0086
K	-10.0088
▁olmaması	-10.0091
▁boya	-10.0095
▁içerisinde	-10.0097
▁Dağlı	-10.0098
▁konuda	-10.0101
▁temperatur	-10.0109
▁eder	-10.0111
▁bekle	-10.0112
▁rəqs	-10.0118
▁kütləsi	-10.0126
▁mərhələ	-10.0129
▁pis	-10.0135
▁seçim	-10.0138
▁ürək	-10.0143
▁ekonomik	-10.0148
sən	-10.0149
▁tak	-10.015
▁ister	-10.0151
yum	-10.0153
▁seçilmiş	-10.0155
▁xəlifə	-10.0159
▁büyü	-10.016
▁sürekli	-10.016
rhal	-10.0161
▁bilmədi	-10.0167
▁kol	-10.0167
▁kur	-10.017
▁gölü	-10.0174
▁əsərlərində	-10.0179
▁görülü	-10.0183
▁beri	-10.0193
▁tarixinə	-10.0195
▁boz	-10.0196
▁45	-10.0196
G	-10.0206
▁Ədəbiyyat	-10.0209
▁ardın	-10.0209
▁takip	-10.0212
▁dərəcəsi	-10.0214
meyi	-10.0216
▁sistemində	-10.0219
▁İranı	-10.0221
▁kısmı	-10.0221
▁vermek	-10.0221
▁1978	-10.0225
▁saxlanılır	-10.0226
▁Bo	-10.0229
х	-10.0229
▁Əl	-10.0231
▁tərkib	-10.0233
▁mineral	-10.0242
▁əkinçilik	-10.0243
▁re	-10.0244
▁ölkələri	-10.0244
▁sənədl	-10.0246
▁göstərirdi	-10.0247
▁milyard	-10.0253
▁Rusiyada	-10.0256
nızda	-10.0259
▁Səlim	-10.0259
metraj	-10.0261
▁sat	-10.0268
▁uygulama	-10.027
▁defa	-10.027
▁2016-	-10.0272
▁1938	-10.0276
▁Yaxın	-10.0276
▁kesinlikle	-10.0277
amp	-10.028
▁gələ	-10.0293
▁insanı	-10.0293
▁XVII	-10.0308
▁Fransız	-10.031
lması	-10.0312
▁kompleksi	-10.032
▁binlerce	-10.0325
▁uygun	-10.0326
▁görüyoruz	-10.0328
▁başarılı	-10.0328
sinden	-10.0328
▁5-	-10.0334
▁çevrilmişdi	-10.0336
▁1976	-10.0343
▁Gül	-10.0345
▁Qacar	-10.0346
▁proqramı	-10.035
▁eş	-10.0352
▁cinsi	-10.0352
▁problemi	-10.0353
▁kilsəsi	-10.0353
▁orqanları	-10.0353
▁Sen	-10.0354
▁yaranır	-10.0358
nü	-10.036
▁Üze	-10.0361
▁Səfəvi	-10.0361
▁Kar	-10.0369
▁Hava	-10.0369
▁hündürlüyü	-10.0372
▁quş	-10.0376
▁dahi	-10.0377
nün	-10.038
▁1996-	-10.0382
sü	-10.0384
▁bölge	-10.0386
▁Cavad	-10.0387
▁buz	-10.0388
▁mutlu	-10.039
▁edəcək	-10.0396
▁gedə	-10.0397
▁alimi	-10.0402
bo	-10.0402
rak	-10.0406
▁bulunan	-10.0415
▁yolları	-10.0418
▁gerektiğini	-10.0424
▁həqiq	-10.0426
mın	-10.0429
▁formul	-10.043
▁şahın	-10.0442
▁gil	-10.0445
▁gerekli	-10.0449
kənd	-10.045
▁muğam	-10.0451
▁uzak	-10.046
lığın	-10.0461
▁Kuboku	-10.0472
▁Kərim	-10.0472
▁doğa	-10.0474
▁əvvəlində	-10.0475
▁şöbəsi	-10.0479
▁çıxıb	-10.0479
▁resmi	-10.0479
▁çərçivəsində	-10.048
▁ehtiyat	-10.048
▁yaşlarında	-10.0481
▁Da	-10.0489
▁təmiz	-10.0491
▁bədən	-10.0496
▁Tibb	-10.0496
▁yurdu	-10.051
sem	-10.0515
▁işini	-10.0519
▁abidələri	-10.0524
▁Respublikasında	-10.0525
▁rejissoru	-10.0533
▁Yunan	-10.0534
▁bölgəsində	-10.0534
▁yürüş	-10.0534
▁müəllif	-10.0547
▁tanına	-10.0549
inden	-10.055
▁albomu	-10.0551
▁mükafat	-10.0551
▁taşı	-10.0554
əslində	-10.0558
▁madde	-10.0562
▁gel	-10.0563
▁sık	-10.0564
▁aparılır	-10.0568
▁polis	-10.057
alım	-10.0573
▁bank	-10.0578
▁ders	-10.0578
▁balıq	-10.0578
▁divarları	-10.0583
▁Alman	-10.0583
▁formada	-10.0583
▁çevrildi	-10.0583
▁Kral	-10.0584
▁şəkər	-10.0584
▁Ü	-10.0606
▁xidməti	-10.0608
ük	-10.0611
▁ait	-10.0612
▁tarixə	-10.0612
▁koy	-10.0614
▁hedef	-10.0617
▁nedenle	-10.0618
▁strateji	-10.0623
▁yayın	-10.0625
▁döyüşdə	-10.0627
▁tayfasını	-10.0629
▁sözlər	-10.0632
▁kimya	-10.0633
▁faydalı	-10.0642
tay	-10.0644
▁tabi	-10.0651
tə	-10.0653
▁oldular	-10.0655
▁filmində	-10.0658
▁səviyyəsi	-10.066
ac	-10.0663
▁görüntü	-10.0665
▁1959	-10.067
▁gidiyor	-10.0676
▁fərqlənir	-10.0679
▁planı	-10.0679
▁Tə	-10.0682
tiv	-10.069
▁Babək	-10.0695
▁modeli	-10.0703
▁Rejissor	-10.0705
▁etiraz	-10.0705
▁mis	-10.0706
▁400	-10.0709
mer	-10.0713
▁tikili	-10.0714
▁bağlantı	-10.0716
▁yana	-10.0717
▁əlverişli	-10.0722
▁girdi	-10.0729
▁Baba	-10.0729
▁suda	-10.0729
leşme	-10.0732
▁şimalda	-10.0736
▁Hələ	-10.074
▁keyfiyyət	-10.0742
av	-10.0749
▁ileri	-10.0762
▁qərbdə	-10.0766
▁problemləri	-10.0766
▁yazılı	-10.0768
ku	-10.0771
asiya	-10.0773
▁alınmış	-10.0774
▁olay	-10.0774
▁cənubda	-10.0776
▁Akademiyası	-10.0778
▁Şirin	-10.0788
▁asıl	-10.0794
▁yemek	-10.0796
▁mühasirə	-10.0803
▁ekran	-10.0807
▁1969	-10.081
siyasi	-10.0821
▁anne	-10.0824
▁oynayır	-10.0826
▁Gerçekten	-10.0826
mıyor	-10.0841
▁meyvə	-10.085
▁haline	-10.0851
▁təhsili	-10.0852
▁siyasət	-10.0853
▁Xocalı	-10.0855
pi	-10.0863
▁1971	-10.0864
▁əleyhi	-10.0864
lamak	-10.0865
▁iste	-10.0866
▁rəhbər	-10.0871
▁olduqları	-10.0875
▁üsulu	-10.088
▁dollar	-10.088
▁universitetin	-10.0884
▁hoş	-10.0896
▁dünyadaki	-10.0906
▁yaşayırdı	-10.0917
▁alanı	-10.0917
▁ihtiyaç	-10.0918
▁sərt	-10.0921
▁orqanı	-10.0927
▁evet	-10.0928
▁nazir	-10.0931
▁yaptım	-10.0932
▁Teşekkür	-10.0934
▁Vaqif	-10.0935
▁şərqdə	-10.0955
▁Sabir	-10.0955
▁əsərin	-10.0956
tro	-10.0962
▁fon	-10.0964
▁Ev	-10.0965
elim	-10.0966
lanması	-10.0967
▁Qar	-10.0968
▁namizədi	-10.0972
▁söyledi	-10.0979
▁torpaqları	-10.0982
▁düşdü	-10.0983
▁jurnalı	-10.0988
▁dördüncü	-10.0989
▁kazan	-10.099
▁ortasında	-10.0996
▁məqalə	-10.0996
▁seçki	-10.0998
▁gidip	-10.1007
▁qismə	-10.1007
▁sesi	-10.1008
▁işaret	-10.1008
▁formasında	-10.1012
▁kənar	-10.1015
▁gönder	-10.1023
ger	-10.1023
▁qalibi	-10.1024
▁Rəssam	-10.1025
▁mükemmel	-10.1025
▁Hayır	-10.1025
▁bal	-10.1026
▁edecek	-10.1028
▁si	-10.1034
abil	-10.1041
▁Partiyası	-10.1042
▁ardından	-10.1044
▁olmalıdır	-10.1045
▁ardıcıl	-10.1047
▁satış	-10.1048
▁fizika	-10.1053
dığını	-10.1054
laşma	-10.1055
▁səthi	-10.1056
▁musiqisi	-10.1057
▁şəhərləri	-10.1058
▁bilməz	-10.1059
▁Ordubad	-10.1062
üz	-10.1076
▁1000	-10.1077
▁sabit	-10.1078
▁Ərdəbil	-10.108
▁təpə	-10.109
▁kənarda	-10.1095
▁şeye	-10.1096
▁yaratdı	-10.11
▁konuş	-10.1101
▁çizgi	-10.1103
▁hökmdar	-10.1111
ebiliriz	-10.1111
▁kuru	-10.1115
▁sürgün	-10.1116
▁nəzəriyyə	-10.1118
▁ma	-10.112
▁çəki	-10.1121
ilen	-10.1129
mde	-10.1134
▁nəhəng	-10.1135
▁özünəməxsus	-10.1135
ax	-10.1143
▁ayrılır	-10.1147
ikən	-10.1147
▁qaya	-10.115
▁Qubadlı	-10.1153
▁islam	-10.1155
▁deki	-10.1159
▁ediyorum	-10.1159
▁səviyyədə	-10.116
▁32	-10.1165
abilirsiniz	-10.1166
▁sonuç	-10.1166
▁kral	-10.1169
▁Fəxr	-10.1171
▁zengin	-10.1171
▁taxıl	-10.1171
▁Prezident	-10.1175
▁dəyişir	-10.1178
▁müzik	-10.1189
▁çoxsaylı	-10.1192
up	-10.1196
▁çatdı	-10.1208
▁ortalama	-10.1214
▁karbon	-10.1223
▁Ho	-10.1226
▁olduğum	-10.1228
▁kişinin	-10.123
▁gördü	-10.1232
nik	-10.1236
ğu	-10.1241
if	-10.1241
▁Kəlbəcər	-10.1245
▁biliyor	-10.1245
▁Tarixi	-10.1247
▁kadınlar	-10.1251
▁dövrə	-10.1262
▁tezliklə	-10.1266
tri	-10.1267
▁erkə	-10.1269
▁etmə	-10.127
▁tabii	-10.127
▁təlim	-10.1272
▁yolunda	-10.1274
▁qəzasını	-10.1276
▁sayesinde	-10.1282
▁ilgi	-10.1282
▁Başqa	-10.1282
▁görev	-10.1287
▁ölü	-10.1288
▁qoşunu	-10.129
cək	-10.1291
▁Pir	-10.1293
▁DNA	-10.13
▁kimyəvi	-10.1301
▁düşün	-10.1307
▁başladık	-10.1307
ed	-10.1311
▁sün	-10.1319
▁1961	-10.1319
▁gedib	-10.1319
yken	-10.1322
han	-10.133
▁maddələr	-10.1332
▁mərhələsi	-10.1336
miyor	-10.1336
▁poçt	-10.1338
▁düşük	-10.1338
▁kara	-10.1341
▁fərdi	-10.1343
▁Xüsusi	-10.1347
▁roman	-10.1349
▁burda	-10.1349
▁tənqid	-10.1349
ılması	-10.135
▁Za	-10.1352
▁ettik	-10.1353
▁müsbət	-10.1356
▁şəhid	-10.1356
▁çempionu	-10.136
▁cəhd	-10.1361
▁Əmək	-10.1363
▁2008	-10.1365
▁olsaydı	-10.1368
▁metre	-10.1373
▁resim	-10.1377
diğini	-10.138
▁Gör	-10.1381
ək	-10.1388
▁dərəcəli	-10.1389
▁1957	-10.1394
▁reklam	-10.1394
acağız	-10.1397
▁getir	-10.14
▁hazırlanır	-10.14
lığını	-10.1402
▁alimlər	-10.1406
▁daşıyan	-10.1413
wiki	-10.1416
▁bölgə	-10.1424
▁me	-10.1431
ika	-10.1432
▁kapı	-10.1432
▁azadlıq	-10.1435
▁alınan	-10.1437
▁tibbi	-10.1438
▁şehir	-10.1442
▁yatırım	-10.1445
▁Oğuz	-10.145
▁tıp	-10.1453
diğim	-10.1455
▁işarə	-10.1456
▁kalma	-10.146
müş	-10.1469
▁İlham	-10.1469
▁mütləq	-10.1469
▁nerede	-10.1473
▁fakültəsində	-10.1478
▁Bi	-10.1481
▁aparır	-10.1486
▁medal	-10.1488
▁dur	-10.1496
▁Xəlil	-10.1497
▁it	-10.1503
▁münasibəti	-10.1507
▁değiştir	-10.1507
▁gerekir	-10.1511
▁çıxmışdı	-10.1518
▁olursa	-10.1521
▁çəkilir	-10.1529
▁Təşkilatı	-10.1529
gün	-10.1535
▁olmasa	-10.1536
ho	-10.1546
▁kosm	-10.1547
eceğim	-10.1547
▁gündən	-10.155
▁arta	-10.1551
▁məsləhət	-10.1551
▁arxa	-10.1551
bəyli	-10.1552
▁başqaları	-10.1556
▁düşünme	-10.1557
▁İttifaqını	-10.1563
▁Ömər	-10.1564
▁yapar	-10.1567
şərq	-10.1567
▁adlandırıla	-10.1571
mo	-10.1572
▁çözüm	-10.1572
▁əsərini	-10.1572
gu	-10.1578
▁günə	-10.158
▁xalqı	-10.1583
▁dahil	-10.1587
▁Dərbənd	-10.1588
ev	-10.1591
▁günlük	-10.1592
▁veren	-10.1593
▁1917-	-10.1594
▁sor	-10.1595
▁bura	-10.1598
▁tanım	-10.16
▁1966	-10.1603
▁öyrənilməsi	-10.1603
▁vermişdi	-10.1604
▁Ad	-10.1607
▁göstərdiyi	-10.1608
▁gen	-10.1611
▁qəzetində	-10.1616
▁sevgi	-10.162
lak	-10.162
arası	-10.1621
▁1963	-10.1622
▁ayrıla	-10.1625
▁Sən	-10.1632
▁havada	-10.1635
lerimizi	-10.1645
▁çəkir	-10.1645
şən	-10.165
▁bil	-10.1651
▁bol	-10.1656
▁gezegen	-10.1659
▁büyüme	-10.1666
▁yaradıldı	-10.1674
▁oxu	-10.1675
▁mevcut	-10.168
▁VII	-10.168
▁musunuz	-10.1683
▁axır	-10.1684
▁Do	-10.1684
▁vəzifəsini	-10.1685
▁önəmli	-10.1687
▁yəhudi	-10.1688
▁anlat	-10.1689
▁AMEA	-10.1699
▁zərbə	-10.1699
▁ince	-10.1699
▁bəziləri	-10.171
▁qazanmışdır	-10.1713
▁hata	-10.1715
▁ol	-10.1718
▁Cekson	-10.1719
▁ətəyində	-10.172
bil	-10.173
▁As	-10.173
▁ABD	-10.1738
▁gördüm	-10.1741
▁mesaj	-10.1746
▁divar	-10.1749
▁qabiliyyəti	-10.1752
▁hərəkəti	-10.1754
▁arzu	-10.1754
N	-10.1757
▁1956	-10.1757
▁1958	-10.1757
rilib	-10.1761
▁yıldır	-10.1762
▁keçirmək	-10.1765
▁vəzifələrində	-10.1772
ll	-10.1773
▁muhteşem	-10.1777
▁devlet	-10.1785
▁yanvarın	-10.1791
▁öldü	-10.1807
▁2004	-10.1807
▁Artı	-10.1807
▁məktub	-10.1808
liğin	-10.1811
▁orijinal	-10.1816
▁xalqını	-10.1821
▁dizi	-10.1821
▁şöbəsini	-10.1826
▁hündür	-10.1834
▁fotoğraf	-10.1838
▁ehtiyac	-10.1838
▁əkin	-10.1838
▁yarat	-10.1841
▁təşkilatı	-10.1847
▁London	-10.1858
▁Filmdə	-10.1859
▁yanın	-10.1868
▁bilirsiniz	-10.1868
▁biliyorum	-10.187
▁təbəqə	-10.1872
▁aktiv	-10.1872
▁orman	-10.1873
▁başı	-10.1874
dilli	-10.1878
▁yaptığım	-10.188
▁əlaqələr	-10.188
▁işləyən	-10.1884
▁bildi	-10.1889
▁sırada	-10.19
▁şöhrət	-10.19
▁XIII	-10.1901
L	-10.1905
▁c	-10.1907
▁əlaqələri	-10.1908
▁şəraiti	-10.1909
larımızı	-10.1909
▁dəyişikliklər	-10.1912
▁kişilər	-10.1914
▁yedi	-10.192
▁köməkçi	-10.1921
▁getdi	-10.1922
▁Yay	-10.1931
▁namizəd	-10.1931
▁1964	-10.1934
▁olmur	-10.1934
▁ilham	-10.1939
▁anlamak	-10.1948
▁qoşun	-10.1949
üxtəlif	-10.1951
▁Ordu	-10.1952
▁çal	-10.1952
▁Arif	-10.1955
▁eli	-10.1957
▁kalan	-10.1963
▁Krım	-10.1975
▁komandanı	-10.1977
▁oğlan	-10.1978
▁özlərini	-10.1983
▁yolunun	-10.1985
▁Polşa	-10.1986
▁tədbirlər	-10.1989
▁Qarabağda	-10.1993
▁Şair	-10.1994
larıyla	-10.2001
▁tapmışdı	-10.2001
▁Cümhuriyyəti	-10.2005
▁kas	-10.2006
▁dünyasını	-10.2006
liyə	-10.2013
▁Üçüncü	-10.2014
▁əməkdaşlıq	-10.2014
▁of	-10.2014
▁danışır	-10.2015
▁Səməd	-10.2016
▁çalışırdı	-10.2017
▁mənə	-10.2017
▁arka	-10.2028
əksini	-10.2032
▁okean	-10.2038
liğe	-10.204
▁aşırı	-10.2042
▁х	-10.2046
▁babası	-10.2047
▁algı	-10.2052
▁Türkiyəni	-10.2056
▁kişisel	-10.2063
▁qoyulmuşdu	-10.2063
▁yasa	-10.2063
▁Əhalisi	-10.2073
▁1944	-10.2074
▁dərman	-10.2074
▁qoydu	-10.2075
▁sayfa	-10.2075
▁müddəti	-10.2075
▁istəyir	-10.2076
ilir	-10.2079
▁çıkan	-10.2079
▁görünüyor	-10.208
▁hektar	-10.2082
▁keçirdiyi	-10.2084
▁səhv	-10.2086
▁sağlam	-10.2088
▁Suriya	-10.2089
▁sahələrində	-10.209
▁misal	-10.2093
▁demokratik	-10.2094
▁tepki	-10.2094
▁mayın	-10.2095
▁2018	-10.2095
▁hayvan	-10.21
▁redaktor	-10.2104
▁2006	-10.2106
H	-10.2111
▁Google	-10.2114
qqəti	-10.2129
▁başlıyor	-10.2138
mıza	-10.214
▁öğret	-10.2142
▁Muğan	-10.2142
ebilecek	-10.2146
▁vurdu	-10.2154
▁nümayəndə	-10.2156
▁məsələlər	-10.2162
▁1937-	-10.2165
▁Be	-10.2167
▁qazıntılar	-10.2167
▁istisna	-10.2175
▁bulaq	-10.2175
▁Almaniyada	-10.2178
▁gəlmək	-10.2181
sunu	-10.2184
▁kullanma	-10.2188
▁veriyor	-10.2191
rik	-10.2192
▁Televiziya	-10.2194
▁Ku	-10.2194
▁tayfaları	-10.2195
▁gücünü	-10.2196
▁Benc	-10.2197
▁başçılığı	-10.2198
liklə	-10.22
▁muzey	-10.2206
▁İmperiyası	-10.2208
▁çalışmış	-10.2208
▁yukarı	-10.2209
▁şiddet	-10.2209
▁filmlərini	-10.2215
▁yaradıla	-10.2216
▁Braziliya	-10.2219
▁tur	-10.2219
tal	-10.222
▁təqvimi	-10.2221
▁nömrə	-10.2223
kret	-10.2224
ildi	-10.2224
▁artması	-10.2227
▁həlli	-10.2229
▁ziyarət	-10.2235
▁duz	-10.2237
▁program	-10.2244
▁Mehmed	-10.2245
▁yolunu	-10.2246
▁göstermek	-10.2249
▁xüsus	-10.2252
▁kendimi	-10.2256
▁İraq	-10.2256
▁inqilab	-10.2258
▁oynamışdı	-10.226
▁verdim	-10.2262
▁hâl	-10.2265
▁Mariya	-10.2266
▁İngilis	-10.2268
▁satın	-10.2273
▁şirket	-10.2291
he	-10.2291
▁etdirmək	-10.2293
▁1921	-10.2295
▁əri	-10.2296
▁genetik	-10.2298
▁tanı	-10.2301
▁əhəmiyyəti	-10.2306
▁araç	-10.2306
▁ağacı	-10.2306
▁kendisi	-10.2307
▁2010	-10.2311
▁bulmak	-10.2313
▁ermənilərin	-10.2314
▁yağı	-10.2325
▁günde	-10.2326
▁diqqəti	-10.2327
▁dağı	-10.2334
▁Demokrati	-10.2336
kən	-10.2337
abiliyor	-10.2338
▁Kaliforniya	-10.2339
▁Norveç	-10.2339
▁qoymuşdu	-10.234
▁özləri	-10.234
▁Asiyada	-10.2349
▁mikro	-10.2359
▁üzündə	-10.2364
▁birliyi	-10.2366
▁doğum	-10.2371
▁kitap	-10.2373
əvi	-10.2375
▁beyaz	-10.2381
▁budur	-10.2383
▁bayram	-10.2386
▁aldım	-10.2391
▁romanı	-10.2391
▁ailələr	-10.2399
▁ucuz	-10.2399
aş	-10.2404
▁Tam	-10.2408
▁yağış	-10.2409
▁bit	-10.2414
▁rəngi	-10.2417
▁emin	-10.2418
▁biləcək	-10.2421
▁monqol	-10.2421
▁fikrini	-10.2422
▁XV	-10.2422
▁məsafə	-10.2424
▁May	-10.2426
▁mərhələsində	-10.2429
▁uc	-10.2433
▁heyecan	-10.2434
▁mühafizə	-10.2442
oğlu	-10.2444
▁Qaradağ	-10.2444
▁aracı	-10.2445
▁istəyirdi	-10.2446
▁öğrenme	-10.245
▁xalqların	-10.2454
▁olmadı	-10.2459
▁məkan	-10.246
▁dekabrın	-10.2461
▁müzakirə	-10.2462
▁Rüstəm	-10.2465
▁əvəzin	-10.2468
iyet	-10.247
▁bar	-10.2478
▁Murad	-10.2481
▁tədric	-10.2484
▁indiyə	-10.2488
▁yerlerde	-10.2489
▁vahidi	-10.2491
▁dönüş	-10.2491
▁Qafqazı	-10.2496
▁sal	-10.2496
▁tarafta	-10.2496
▁sinif	-10.2497
▁çalışıyor	-10.2502
▁çıxması	-10.2505
▁Ölkəni	-10.2505
▁müxbir	-10.2505
▁yetirmiş	-10.2505
▁parçaları	-10.2506
ste	-10.2507
məyə	-10.2511
▁Anadolu	-10.2514
▁peşəkar	-10.2514
▁çıxara	-10.2515
▁olmuşlar	-10.2527
raf	-10.253
▁kanıt	-10.2531
tım	-10.2541
ebilirsiniz	-10.2543
ski	-10.2545
▁fəlsəf	-10.2546
▁tərzi	-10.2547
▁Pakistan	-10.2547
▁başlandı	-10.2547
üstü	-10.2549
ıyoruz	-10.255
▁hüquqi	-10.2559
▁paylaş	-10.2562
▁göstərdi	-10.2563
▁insanlarla	-10.2565
▁dəyişdiril	-10.2566
▁vaxtlar	-10.2567
▁1950-	-10.2569
▁duy	-10.2574
▁müəssisəsi	-10.2574
▁qalasını	-10.2579
▁döyüşlərdə	-10.2582
20	-10.2583
▁dostu	-10.2587
let	-10.2588
▁Müzik	-10.2589
▁Tovuz	-10.2589
▁xəstə	-10.2591
▁ibtidai	-10.2591
▁düzen	-10.2592
▁Zaman	-10.2593
▁sonsuz	-10.2596
▁1949	-10.2611
▁məişət	-10.2611
▁1954	-10.2611
▁1962	-10.2611
▁anlayışı	-10.2611
▁Leyli	-10.2614
▁paytaxt	-10.2616
▁yemək	-10.2619
▁TV	-10.262
▁mövsümündə	-10.262
▁aktrisa	-10.2623
▁dəstək	-10.2631
▁fiziksel	-10.2632
▁oluşan	-10.2635
mızda	-10.2635
▁yaradıcı	-10.2636
▁alın	-10.2636
▁bənzər	-10.2651
yar	-10.2651
▁Universitet	-10.2655
▁tikintisi	-10.2655
▁manat	-10.2656
co	-10.2658
▁başlamışdı	-10.2666
▁terrorçuları	-10.2667
▁qoyun	-10.2683
▁çatmışdı	-10.2687
▁müəssisələri	-10.2688
▁başlama	-10.2689
▁hissi	-10.269
▁gəlin	-10.2696
▁bulağı	-10.2697
▁rayonlarında	-10.2699
▁döndü	-10.27
▁sürəti	-10.2701
▁istiqamət	-10.2701
▁gəmi	-10.2703
▁Rayonun	-10.2704
▁ixtisası	-10.2715
▁bilirdi	-10.2715
mişti	-10.2716
▁apardığı	-10.2724
▁aşıq	-10.2729
bilme	-10.2731
▁ml	-10.2738
▁mövqe	-10.274
▁So	-10.2741
▁ulaş	-10.2743
▁sayıda	-10.2751
▁təşəbbüsü	-10.276
▁İcra	-10.276
▁köçüb	-10.276
▁qəhrəman	-10.276
▁tartışma	-10.2763
▁Yüz	-10.2763
▁6-	-10.2763
▁keçid	-10.2764
▁Təbrizdə	-10.2764
▁Ri	-10.2766
▁dəri	-10.2767
▁katı	-10.2769
▁10-	-10.2775
▁uçuş	-10.2779
▁rəssamı	-10.278
▁Tiflisdə	-10.278
▁medya	-10.2782
▁xırda	-10.2782
ımı	-10.2782
▁makine	-10.2785
▁uğurla	-10.2787
▁abidəsi	-10.2788
▁minlərlə	-10.2796
▁uça	-10.2803
vənd	-10.2803
▁söylemek	-10.2805
▁olunduğu	-10.2807
▁dış	-10.2811
▁halında	-10.2812
▁herkesin	-10.2813
▁yaşıl	-10.2813
ysa	-10.2814
▁imperiyası	-10.2814
▁bildirdi	-10.2816
▁36	-10.2818
▁zamanında	-10.2819
▁evində	-10.2821
▁zaten	-10.2825
▁BMT	-10.2825
▁Mə	-10.2826
▁tarz	-10.2827
▁ümum	-10.2828
▁görmək	-10.283
▁33	-10.283
▁sözündən	-10.2831
▁Onları	-10.2833
▁vəzifə	-10.2834
kten	-10.2838
▁məlumatın	-10.2839
▁Həyat	-10.2843
▁dinc	-10.2846
▁Qazaxıstan	-10.2847
mizin	-10.2848
▁Birleşi	-10.2848
▁Dünyada	-10.2856
sen	-10.2857
▁Artık	-10.286
▁2007	-10.2864
▁bağı	-10.2865
▁sakini	-10.2866
▁1943	-10.2868
▁diyor	-10.2868
▁mənfi	-10.287
▁məhəbbət	-10.2871
▁masa	-10.2875
▁koruma	-10.2878
bəri	-10.2879
▁bazıları	-10.288
▁tarixini	-10.2883
vari	-10.2885
▁sağlıyor	-10.2889
▁ərazisini	-10.2894
▁çift	-10.2895
▁geliştir	-10.2897
əni	-10.2899
▁hakimiyyətini	-10.2905
▁üzə	-10.2906
▁saç	-10.2907
▁başladığı	-10.2907
▁Örneğin	-10.2912
▁Pənah	-10.2912
▁Gəncədə	-10.2915
▁çıxardı	-10.2921
▁2017-	-10.2923
▁tayfası	-10.2926
ic	-10.2927
ama	-10.2929
▁proses	-10.2932
▁münasibətlər	-10.2932
kları	-10.2937
birində	-10.2945
▁Mar	-10.2949
▁şeirlər	-10.2956
▁ölkəsi	-10.296
▁vətəndaş	-10.2961
▁element	-10.2962
O	-10.2962
lerdi	-10.2966
▁aprelin	-10.2967
▁2005	-10.2973
▁keçirildi	-10.2973
▁Uşaq	-10.2976
▁belir	-10.2976
▁fırsat	-10.2977
▁yolda	-10.2977
▁fakir	-10.2978
▁saxlamaq	-10.298
▁antik	-10.2982
▁müqavimət	-10.2982
▁ruslar	-10.2985
▁şarkı	-10.2987
▁mövzu	-10.2989
▁paşa	-10.2993
▁Lenin	-10.2994
iyle	-10.2997
▁feodal	-10.3
▁xahiş	-10.3
▁üzüm	-10.3
şe	-10.3
▁siyahıya	-10.3006
▁nedeni	-10.3007
▁Zeynal	-10.3008
▁tipi	-10.3008
▁hamı	-10.301
▁çocukların	-10.301
▁CA	-10.3014
▁tutulur	-10.3025
▁Əsgər	-10.3028
▁əsaslana	-10.3028
ris	-10.3033
▁Qasım	-10.3038
▁7-	-10.304
▁noktada	-10.3043
▁qalıb	-10.3044
▁mücadele	-10.3044
▁henüz	-10.3044
▁qa	-10.3045
mıştı	-10.3048
▁Nəh	-10.305
▁materiallar	-10.3051
▁park	-10.3053
▁şeylerden	-10.3064
▁yeterli	-10.3066
▁Maykl	-10.3066
▁sülaləsi	-10.3068
▁silsiləsini	-10.3068
▁gider	-10.307
▁qrupunu	-10.3071
▁belli	-10.3072
▁bilme	-10.3073
▁1939	-10.3088
▁aç	-10.3093
▁evin	-10.3095
raya	-10.3096
▁açılır	-10.3098
▁Müharibə	-10.3099
▁oxşar	-10.3107
ılan	-10.3108
▁Midiya	-10.3111
vər	-10.3118
▁layihəsi	-10.3123
▁harita	-10.3123
▁kod	-10.3124
▁pedaqo	-10.3126
▁nəticələri	-10.3132
▁Çempion	-10.3133
▁karakter	-10.3133
▁Herkes	-10.3133
▁Urmiya	-10.3133
▁1975-	-10.3134
▁azından	-10.3135
▁uç	-10.3136
per	-10.3139
▁sınır	-10.3144
▁pazar	-10.3146
▁məsələsi	-10.3152
▁nəzəri	-10.3165
etik	-10.3167
▁dəstələri	-10.317
F	-10.3173
▁To	-10.3175
▁XII	-10.3176
▁Çar	-10.3178
▁təmir	-10.3178
▁turizm	-10.3178
▁öldürüldü	-10.3179
almağa	-10.318
▁baskı	-10.3188
▁cəmiyyəti	-10.3193
▁sözlərindən	-10.3194
▁kodu	-10.3194
▁Hazır	-10.3194
▁oğlunu	-10.3196
▁Keçmiş	-10.32
▁bakalım	-10.3201
▁gelip	-10.3202
▁bölgəsi	-10.3204
▁bitkilər	-10.321
▁kurtar	-10.3211
▁hastalık	-10.3219
▁olmasının	-10.322
▁albom	-10.3221
▁işləmiş	-10.3222
▁sabah	-10.3223
▁kanser	-10.3224
▁jurnalist	-10.3224
▁istedad	-10.3224
▁Salyan	-10.3225
▁Onlarda	-10.3226
▁düşmüşdü	-10.323
▁cərəyan	-10.323
▁aralı	-10.3235
▁cild	-10.3239
▁maarif	-10.3241
▁mənbəyi	-10.3243
tra	-10.3244
▁ətrafı	-10.3244
▁cəmiyyət	-10.3245
▁ufak	-10.3245
▁Stalin	-10.3249
▁sentyabrın	-10.325
▁riyaziyyat	-10.3251
▁yapacak	-10.3258
▁heyətində	-10.326
▁sənətini	-10.3262
▁bü	-10.3263
▁Qu	-10.3265
▁müharibədə	-10.3266
▁Futbol	-10.3268
sh	-10.3269
▁yaradılı	-10.3271
▁edər	-10.3272
▁8-	-10.3274
▁Əsli	-10.3274
▁kompleks	-10.3275
▁olmağ	-10.3278
▁atasını	-10.3279
▁şa	-10.3284
▁Elm	-10.3288
▁1987-	-10.329
ber	-10.3291
▁Tək	-10.3298
▁ısı	-10.3301
▁ışığı	-10.3302
dılar	-10.3304
▁münasibətləri	-10.3304
▁əsgər	-10.3306
▁yu	-10.3306
▁temsil	-10.3313
ılır	-10.3317
▁şərh	-10.3319
▁Bay	-10.3324
▁Kur	-10.3332
▁piyada	-10.3336
▁görsel	-10.3337
▁görüşü	-10.334
▁and	-10.335
▁heyətini	-10.3351
▁üret	-10.3352
▁Abdulla	-10.3355
▁hadisələri	-10.3358
▁tutub	-10.3359
▁geçti	-10.336
▁məğlubiyyət	-10.3363
▁xəstəlik	-10.3363
▁Top	-10.3363
▁15-	-10.3366
▁derecede	-10.3366
▁məsafədə	-10.3373
▁Qəhrəmanı	-10.3373
▁bakar	-10.3379
▁yıllık	-10.3381
▁Bar	-10.3383
▁zərər	-10.3385
▁Şərqdə	-10.3387
▁Neftçi	-10.339
rat	-10.3391
▁İstanbulda	-10.3392
▁tutmuşdu	-10.3393
▁dillərini	-10.3394
▁olun	-10.3402
▁XI	-10.3402
▁səyahət	-10.3406
▁sınıf	-10.3407
▁rütbəsi	-10.3407
▁tələbələr	-10.3408
▁üstünde	-10.3409
▁gerektiği	-10.3411
▁sürdü	-10.3415
▁kaynak	-10.3419
8-	-10.3419
▁Fransada	-10.3419
▁ke	-10.342
▁qoyur	-10.3423
▁ihtiyacı	-10.3425
▁verə	-10.3426
▁1979-	-10.3428
▁davamlı	-10.3434
▁teatrı	-10.3438
▁keçib	-10.3443
▁birləşmələri	-10.3443
ldu	-10.3444
▁qadağan	-10.3447
▁noyabrın	-10.3449
ede	-10.3449
▁Mənim	-10.345
lıyor	-10.345
▁Novruz	-10.3451
▁politika	-10.3453
▁nəqliyyat	-10.3454
▁doktor	-10.3454
▁mədə	-10.3455
▁Mesel	-10.3456
uş	-10.346
yet	-10.346
▁9-	-10.3466
▁xarakter	-10.3466
▁rəqəm	-10.3469
namə	-10.3476
▁W	-10.3476
▁tutulmuş	-10.3476
▁Məclisin	-10.3482
▁başlar	-10.3482
▁oktyabrın	-10.3484
▁sənətkar	-10.3494
▁Pedaqo	-10.3497
▁radio	-10.3497
▁qazanıb	-10.3497
▁Davud	-10.3497
▁oyunları	-10.3497
▁deyilən	-10.3505
▁texnika	-10.3508
▁deneme	-10.3511
tık	-10.3514
▁gətirən	-10.352
▁kərpic	-10.352
▁mükəmməl	-10.3521
▁Kuzey	-10.3521
ram	-10.3525
▁kitabın	-10.3527
▁kalp	-10.3529
▁təzyiq	-10.353
▁yerinde	-10.3535
▁təyyarə	-10.3538
▁Meksika	-10.3543
▁həcmi	-10.3544
▁etkileşim	-10.355
▁istəyən	-10.355
▁yiyecek	-10.3553
▁1946-	-10.3556
▁Məlik	-10.3561
▁petrol	-10.3567
▁çıkıyor	-10.3567
▁yaratma	-10.3567
ebiliyor	-10.3569
▁biçimde	-10.3572
▁kafedrası	-10.3574
▁qoşunlarını	-10.3575
mize	-10.3577
▁Lo	-10.3579
▁işğalı	-10.358
▁nöqtəsi	-10.3581
▁analiz	-10.3581
lılar	-10.3582
▁statusu	-10.3583
kləri	-10.3584
▁Bazı	-10.3585
▁1965-	-10.3586
▁beynin	-10.3587
▁mülayim	-10.359
▁eramız	-10.3591
qərb	-10.3592
▁yapabilir	-10.3594
▁tar	-10.3594
▁Bax	-10.3599
▁enerjisi	-10.36
▁mil	-10.36
▁1941-	-10.3603
▁yazar	-10.3603
▁1982-	-10.3613
▁birləşdirən	-10.3614
▁bacısı	-10.3614
▁der	-10.3614
▁oğulları	-10.3618
▁içi	-10.3623
iv	-10.3624
▁şəbəkə	-10.3626
▁sərf	-10.3626
▁oldukları	-10.3633
▁Radio	-10.3637
▁temperaturu	-10.3637
▁1986-	-10.3639
▁içki	-10.3642
▁sanırım	-10.3645
▁sürətli	-10.3651
▁kutu	-10.3653
cağı	-10.3655
▁Hind	-10.3656
▁obrazı	-10.3658
▁istər	-10.3662
lənmiş	-10.3667
▁Man	-10.3668
▁örneğin	-10.3671
▁Demə	-10.3675
▁yaradıcılığında	-10.3676
▁Qriqori	-10.3676
▁futbolçu	-10.3678
▁Şirvanşah	-10.3683
▁XIV	-10.3684
▁iklim	-10.3684
▁Səid	-10.3684
▁Məcnun	-10.3686
▁martın	-10.3693
duk	-10.3696
▁yüksel	-10.37
iyorlar	-10.37
▁mağara	-10.3703
▁Gün	-10.3703
▁okyanus	-10.3706
▁Tərtər	-10.3708
▁quberniyası	-10.371
▁düzəli	-10.371
▁yeraltı	-10.3711
▁günah	-10.3716
▁yuxarıda	-10.3719
zar	-10.372
▁olmaları	-10.3722
▁38	-10.3722
▁tanesi	-10.3723
▁nda	-10.3727
▁iqlimi	-10.3729
▁1936	-10.3731
▁ха	-10.3734
▁Qız	-10.3735
▁yıllar	-10.3741
tür	-10.3744
▁rayonları	-10.3744
▁qurmuşdu	-10.3748
▁Qanun	-10.3754
▁pay	-10.3756
▁istədi	-10.3757
▁qapı	-10.376
▁Gədəbəy	-10.3764
▁yaşama	-10.3767
▁gittim	-10.3773
▁atmosfer	-10.3774
▁75	-10.3777
▁dijital	-10.3779
▁filologiya	-10.3786
▁işlənmiş	-10.3787
▁dişi	-10.3787
▁qayıdır	-10.3789
▁Mil	-10.3796
▁dışı	-10.3796
▁Kərimov	-10.3796
▁erkekler	-10.3798
▁çatan	-10.3799
▁növbədə	-10.38
ud	-10.3801
▁çevir	-10.3803
▁sığorta	-10.3804
▁kralı	-10.3805
▁əməl	-10.3805
▁gündə	-10.3813
▁keçirən	-10.3814
▁adamın	-10.3815
▁əksinə	-10.3818
▁razı	-10.3823
tor	-10.3823
▁çalışmak	-10.3824
▁çayları	-10.3824
▁payı	-10.3824
▁irsi	-10.3826
▁Xorasan	-10.3827
▁möhtəşəm	-10.3827
▁icin	-10.3829
▁əraziləri	-10.383
▁şahzadə	-10.3831
yo	-10.3839
▁marka	-10.3841
anırım	-10.3846
mızın	-10.3847
▁üstü	-10.3849
▁alındı	-10.3851
▁Daxil	-10.3851
▁yeşil	-10.3851
yordu	-10.3858
▁yerel	-10.3859
▁köç	-10.3863
▁cins	-10.3865
▁Xosrov	-10.3867
yiz	-10.3869
▁buradaki	-10.387
xəli	-10.3873
men	-10.3874
▁yüngül	-10.3875
▁Nasıl	-10.3878
▁həcm	-10.3879
▁halde	-10.3881
▁dolaş	-10.3886
▁ət	-10.389
▁düşmüş	-10.389
ster	-10.3895
▁terror	-10.3898
▁tutmuş	-10.3899
▁plastik	-10.3899
har	-10.3899
▁adət	-10.3903
▁ediyoruz	-10.3905
▁olduklarını	-10.3906
▁maldarlıq	-10.3909
işi	-10.3914
▁1940-	-10.3915
▁adaları	-10.3916
▁xaric	-10.3916
land	-10.3918
▁vilayət	-10.3918
▁1983-	-10.3921
▁xanlığını	-10.3921
▁1942	-10.3923
▁Çingiz	-10.3924
▁anı	-10.3924
▁yapıyoruz	-10.3929
▁sona	-10.3929
▁mahnıları	-10.3932
▁Məclisi	-10.3934
▁çiçək	-10.3935
▁komitəsi	-10.3938
▁standart	-10.3941
▁hökm	-10.3947
▁Dan	-10.3947
▁təchiz	-10.3947
▁ilaç	-10.3948
▁ülkeler	-10.3951
▁yaratmak	-10.3952
▁gənclər	-10.3956
▁mənbələr	-10.3957
▁Təbrizi	-10.396
▁türklər	-10.3963
so	-10.3965
▁boru	-10.3969
▁məni	-10.3971
▁Ağqoyunlu	-10.3972
▁gəl	-10.3973
▁konusu	-10.3977
▁cəbhə	-10.3978
▁nəql	-10.3981
▁Kitab	-10.3983
▁Ümum	-10.3985
▁diplomati	-10.3992
▁Ankara	-10.3996
▁Əfəndiyev	-10.3996
▁Van	-10.3998
▁məskunlaşması	-10.4009
▁bayramı	-10.4013
▁dışarı	-10.4015
▁etkili	-10.4015
▁Çay	-10.4016
laşır	-10.4017
▁Vəli	-10.4019
▁emalı	-10.4022
▁şekli	-10.4027
▁saldı	-10.4028
▁arvadı	-10.403
ova	-10.4031
▁nəsli	-10.4032
▁bilərdi	-10.4034
▁azı	-10.404
ft	-10.404
▁yerlərində	-10.4041
▁Gənclər	-10.4041
▁kinostudiyasın	-10.4041
▁takım	-10.4042
▁mərasimi	-10.4042
▁numara	-10.4045
▁materialları	-10.4048
▁Hacıyev	-10.4048
▁zarar	-10.4052
▁göl	-10.4055
İ	-10.4063
ala	-10.4063
rədd	-10.4063
fer	-10.4068
▁ərazini	-10.4068
▁qəhrəmanı	-10.4072
▁peyğəmbər	-10.4074
lıqla	-10.4075
▁Ölkədə	-10.4083
▁Batı	-10.4085
▁Sü	-10.4085
▁abidələr	-10.4086
▁İn	-10.4089
▁Dağıstan	-10.4091
▁1953	-10.4094
eş	-10.4102
▁təhlükə	-10.4102
▁yalan	-10.4107
▁xalqlarının	-10.4112
ğe	-10.4121
▁sahne	-10.4124
▁kişiler	-10.4131
▁etmir	-10.4131
▁istedim	-10.4132
▁fəhlə	-10.4135
▁19-	-10.4136
▁xüsusiyyətlərin	-10.4139
▁milyonlarca	-10.4144
▁VI	-10.4144
▁Şahzadə	-10.4149
ğın	-10.4149
▁günün	-10.415
▁adlandırılır	-10.4155
▁tanrı	-10.4156
▁xəstəliyi	-10.4162
▁EA	-10.4164
▁İşlər	-10.4167
em	-10.4167
▁Zəngəzur	-10.4168
▁fasilə	-10.4168
▁işlərini	-10.4173
▁istiqamətdə	-10.4175
▁edebilir	-10.4175
▁anlamda	-10.4178
▁Qarabağı	-10.418
▁yazdı	-10.418
▁şəraitində	-10.4181
▁mədəniyyətini	-10.4188
▁Aralı	-10.4188
▁müstəqilliyini	-10.4191
▁Hatta	-10.4193
▁hayır	-10.4194
▁gördüğümüz	-10.4196
çılar	-10.4199
▁buradan	-10.4201
▁gösteren	-10.4203
▁Ziya	-10.4207
▁qəsəbəsi	-10.4208
ow	-10.421
cıl	-10.4214
▁Cahangir	-10.4217
▁həmsərhəd	-10.4218
▁Zəngi	-10.4218
▁1923	-10.4218
▁1955	-10.4218
▁amacı	-10.4218
▁sonucu	-10.4224
▁olacaktır	-10.4225
▁duvar	-10.4226
▁yaptıkları	-10.4226
▁tədqiqi	-10.4228
▁sistemini	-10.4232
▁Kim	-10.4234
▁qəzetini	-10.4234
taki	-10.4236
▁maşın	-10.4236
dikleri	-10.4241
▁heyvanlar	-10.4245
▁yazmış	-10.4246
▁mahalı	-10.4247
▁planet	-10.4249
▁saxlaya	-10.425
kdən	-10.4256
▁Tehran	-10.4256
▁kanalı	-10.426
dağ	-10.426
▁Azərbaycanı	-10.4261
▁gətirdi	-10.4261
▁adası	-10.4263
▁etkisi	-10.4264
▁ora	-10.4265
▁qiymət	-10.4267
▁modern	-10.4268
▁şaşırtıcı	-10.4268
▁kaynağı	-10.4268
▁məntəqəsini	-10.4268
▁biliyorsunuz	-10.4269
▁Macarıstan	-10.4269
▁hücumu	-10.4277
▁Karl	-10.4281
▁evrim	-10.4283
▁yayılması	-10.4287
▁məscidin	-10.4288
▁saniye	-10.4289
▁ənənələri	-10.429
▁Qaraqoyunlu	-10.4293
▁1973-	-10.4294
süz	-10.4295
▁çeşitli	-10.4295
▁Nərimanov	-10.4296
▁kendine	-10.4299
▁kay	-10.43
▁qardaşları	-10.4301
▁filmin	-10.4301
▁pa	-10.4304
▁Ələkbər	-10.4305
▁Daş	-10.4306
çə	-10.4306
▁yollar	-10.4308
▁Şuşada	-10.4309
▁mütəxəssis	-10.4318
▁Heyəti	-10.4318
▁Hadi	-10.4321
V	-10.4324
▁bilməyə	-10.4326
▁sinfi	-10.4336
▁sistemin	-10.4339
yer	-10.4341
▁zəruri	-10.4343
▁İctimai	-10.4343
ğimiz	-10.4343
▁ruhu	-10.4344
▁evdə	-10.4344
▁hekayə	-10.4345
▁şeylerin	-10.4348
▁gelme	-10.4351
▁məskunlaşmış	-10.4357
▁problemlər	-10.4363
▁hak	-10.4366
▁təqib	-10.4368
▁ümid	-10.4368
▁mövzusu	-10.437
▁keç	-10.4372
▁İdarəsi	-10.4373
▁almaya	-10.4375
cık	-10.4384
▁bulun	-10.4385
▁getdik	-10.4391
▁Müdafiə	-10.4394
▁latın	-10.4397
▁nəzarəti	-10.4397
▁cənubunda	-10.4398
▁Berlin	-10.4399
▁münasibət	-10.4401
▁mədrəsə	-10.4401
boy	-10.4403
▁xəstəxana	-10.4403
▁gəlmə	-10.4404
▁həyatın	-10.4404
mez	-10.4405
▁döyüşü	-10.4405
▁ərazilər	-10.4409
yorlar	-10.4412
▁bitirmiş	-10.4412
▁gəldiyi	-10.4412
▁xətt	-10.4414
▁Böyle	-10.4416
mayan	-10.4417
▁Adam	-10.4417
▁göstərib	-10.4419
▁işler	-10.4423
▁qrupun	-10.4426
▁kendilerini	-10.4426
▁robot	-10.443
▁qablar	-10.4431
▁istəyi	-10.4435
▁istifadəsi	-10.4437
▁inşaat	-10.4439
kleri	-10.4439
▁prinsipi	-10.4441
▁1985-	-10.4443
▁Video	-10.4444
▁cep	-10.4445
▁salınmış	-10.4446
▁yadda	-10.4447
▁qorunması	-10.4448
ard	-10.4449
▁saf	-10.4449
▁qonaq	-10.4454
▁sədr	-10.4455
▁Qurbanov	-10.4457
sıyla	-10.4459
▁adlandırırlar	-10.4466
▁ittifaq	-10.4468
▁götürür	-10.447
▁Birkaç	-10.447
▁institut	-10.447
▁Abdullayev	-10.4471
▁geçir	-10.4471
mon	-10.4471
▁eşit	-10.4473
▁tədqiqatçılar	-10.4474
▁yön	-10.4475
▁Mükafatı	-10.4476
▁görüb	-10.4476
▁şeirləri	-10.4477
▁İnsanların	-10.4478
▁etdiyini	-10.4478
▁the	-10.4479
▁müstəqillik	-10.4481
▁kor	-10.4483
▁sağlayan	-10.4486
▁dalga	-10.4496
▁yüzünden	-10.4496
▁müvə	-10.4496
▁açısından	-10.4498
▁şərti	-10.4505
▁600	-10.4506
▁bölgədə	-10.4507
▁düşüncə	-10.4507
▁dik	-10.4508
pol	-10.4517
▁ili	-10.4525
▁aparılması	-10.4528
▁insana	-10.453
▁xüsusiyyəti	-10.4534
▁idarəsi	-10.454
▁formalı	-10.4541
▁IX	-10.455
▁Ki	-10.4555
kçe	-10.4555
▁iştirakçısı	-10.4555
▁Aslan	-10.4564
▁qüvvəsi	-10.4564
▁addım	-10.4565
▁bölgələrində	-10.4568
qala	-10.457
▁layihə	-10.4571
▁torpaqlar	-10.4571
inki	-10.4572
diler	-10.4572
▁çayın	-10.4573
▁VIII	-10.4573
lenme	-10.4574
▁bilərlər	-10.4575
▁balığı	-10.4576
▁təzyiqi	-10.4576
iği	-10.4577
▁sən	-10.4583
▁Amerikada	-10.4591
▁bel	-10.4592
▁Kommunist	-10.4598
▁fəth	-10.4599
▁xaricdə	-10.4601
əslim	-10.4602
▁kq	-10.4606
▁sahili	-10.4613
▁mövqeyi	-10.4616
▁hizmet	-10.4618
lenmiş	-10.462
açmaz	-10.4621
▁qüvvələr	-10.4622
▁Bəyazid	-10.4624
▁1922	-10.4624
▁özəl	-10.4625
▁sahillərində	-10.4627
▁Ön	-10.4628
▁türbəsi	-10.4629
▁qəsəbəsində	-10.4629
▁xarakterik	-10.463
▁Tek	-10.4634
▁etdirdi	-10.4634
adi	-10.4639
▁teşekkürler	-10.4641
▁oldum	-10.4651
▁göstərə	-10.4653
▁Kamal	-10.4653
▁rabitə	-10.4654
▁Bağırov	-10.4654
▁seçili	-10.4654
▁Fars	-10.4654
▁önünde	-10.4656
▁Fondun	-10.4656
,000	-10.4658
▁ilində	-10.4661
▁geyim	-10.4663
▁düşərgə	-10.4664
▁gerçekleştir	-10.4665
▁par	-10.4667
▁daşları	-10.4669
▁uşaqları	-10.4671
▁qalanın	-10.4675
▁nəsil	-10.4676
▁tapılmış	-10.468
▁iyunun	-10.468
▁Ey	-10.4681
▁em	-10.4681
▁rolları	-10.4681
▁söylüyor	-10.4685
ışı	-10.4686
▁şimalında	-10.4687
▁Talış	-10.4689
▁toplam	-10.4694
▁Adı	-10.47
▁David	-10.4703
▁idarəetmə	-10.4704
▁mane	-10.4704
▁oyna	-10.4704
▁Teatrını	-10.4705
▁Sara	-10.4706
▁Teatrı	-10.4716
▁ayaq	-10.4722
▁bulma	-10.4723
▁memar	-10.4728
lemek	-10.4728
▁Yardım	-10.4729
▁Robert	-10.4729
▁kırmızı	-10.4729
arı	-10.4737
sey	-10.4737
▁vətən	-10.4738
▁sahələrdə	-10.4745
mizde	-10.4748
▁yaratıcı	-10.4751
▁stansiyası	-10.4753
siyle	-10.4755
▁Təbii	-10.4755
▁mesela	-10.4755
▁Messi	-10.4755
▁sim	-10.4756
imizin	-10.4759
▁süreci	-10.4763
▁doğulmuşdu	-10.4768
▁gözlem	-10.4769
▁görmə	-10.4775
▁təsəvvür	-10.4778
▁Car	-10.478
▁ispan	-10.4781
▁türkləri	-10.4782
var	-10.4786
▁istilik	-10.4788
▁dildə	-10.4788
▁Partiyasını	-10.4788
▁araşdırmalar	-10.4789
▁okuma	-10.479
▁yöntem	-10.4793
▁aralarında	-10.4793
▁yarandı	-10.4795
▁balık	-10.4802
▁üniversite	-10.4803
▁dənizin	-10.4803
▁1934	-10.4808
▁narahat	-10.4808
▁xas	-10.4808
▁surəsi	-10.4808
▁Goran	-10.4808
▁sual	-10.4811
perator	-10.4814
▁Dil	-10.4814
▁fevralın	-10.4817
▁Nikolay	-10.4817
▁ateş	-10.4821
X	-10.4821
▁Zaqatala	-10.4823
▁müsabiqədə	-10.4823
▁araşdırma	-10.4833
▁olmasıdır	-10.4834
▁İdman	-10.4834
▁axşam	-10.4834
▁lideri	-10.4836
▁olduğunda	-10.4837
▁götürdü	-10.4844
▁oray	-10.4845
▁merkezi	-10.4845
▁dön	-10.4846
▁Bəy	-10.4847
▁hayatı	-10.4848
▁söyley	-10.4848
▁görün	-10.4849
▁dağını	-10.485
▁dərk	-10.4852
▁Quru	-10.4857
▁fikirlər	-10.4862
▁türklərin	-10.4865
▁məşqçi	-10.4866
▁işçisi	-10.4868
▁1933-	-10.4871
▁uydu	-10.4873
▁biyo	-10.4874
iniz	-10.4875
od	-10.488
▁merkez	-10.488
▁düş	-10.4884
şad	-10.4884
meyen	-10.4886
▁İyi	-10.4886
▁ot	-10.4888
▁Ağayev	-10.4889
▁sap	-10.4891
▁Du	-10.4891
▁şahı	-10.4891
▁Dağ	-10.4892
▁12-	-10.49
▁alimləri	-10.49
▁beceri	-10.49
▁ürün	-10.4902
▁Qasımov	-10.4902
▁sıradan	-10.4903
▁seçildi	-10.4903
nize	-10.4906
▁Müsəlman	-10.491
▁hayvanlar	-10.491
nuz	-10.4911
▁Tur	-10.4911
▁Azad	-10.4912
▁Ssenari	-10.4914
▁ibadət	-10.4914
6-	-10.4918
▁temiz	-10.4925
▁ortada	-10.4934
eceğiz	-10.4935
▁mülki	-10.4936
▁rejimi	-10.4936
▁istənil	-10.4941
▁Doğu	-10.4941
▁təzə	-10.4943
▁teknik	-10.4945
▁2002	-10.4948
ıyorum	-10.495
▁göstərilə	-10.4952
▁şəhərlərində	-10.4952
vasitə	-10.4956
▁seçilə	-10.4956
bədi	-10.496
▁binalar	-10.496
▁Bayram	-10.496
▁sözlə	-10.4966
▁tercih	-10.4967
▁Sənaye	-10.4967
▁Babayev	-10.4968
▁1948-	-10.4969
▁komediya	-10.497
▁laboratuvar	-10.4974
▁rəngdə	-10.499
▁değilim	-10.4991
▁esas	-10.4992
▁Azər	-10.4993
▁ssenari	-10.4999
▁mahalını	-10.4999
▁to	-10.5
▁nde	-10.5
masını	-10.5001
▁yayım	-10.5006
▁aldık	-10.5007
▁qoyulmuş	-10.5008
▁yarış	-10.5009
▁yazılar	-10.5013
▁içindeki	-10.5015
eyim	-10.5019
▁Əziz	-10.5021
▁çaba	-10.5023
▁Opera	-10.5025
▁çıxarır	-10.5026
▁verdik	-10.5027
▁Sarı	-10.5031
▁tərcüməçi	-10.5036
▁peşə	-10.5036
▁uca	-10.5042
▁Göyçay	-10.5049
▁namaz	-10.5049
▁tüstü	-10.505
▁mərkəzləri	-10.5051
▁istiyoruz	-10.5052
▁Gi	-10.5062
▁Qurban	-10.5062
yse	-10.5064
▁işlem	-10.5064
▁amaç	-10.5071
▁klubun	-10.5073
▁gül	-10.5083
ğını	-10.5086
▁Sol	-10.5087
▁usta	-10.5089
▁bilmiyor	-10.509
▁bakarsa	-10.5094
▁tarafı	-10.5096
▁cinayət	-10.5097
▁dəyiş	-10.5098
▁yerlər	-10.5099
▁Yəhya	-10.5102
▁aparmaq	-10.5102
▁1932	-10.5102
▁yoksa	-10.5104
▁göstereceğim	-10.5106
▁Yol	-10.5106
▁şəxslərin	-10.5106
▁bölmə	-10.5108
▁diş	-10.5116
▁Po	-10.5122
▁məzmun	-10.5126
▁çöz	-10.5127
▁Sosialist	-10.513
teki	-10.5132
▁baba	-10.5133
▁qoyulur	-10.5137
▁avqustun	-10.5138
nıza	-10.5141
▁komp	-10.5142
▁42	-10.5144
▁qoruyu	-10.5146
▁Oyun	-10.5147
lanıyor	-10.5147
larımızın	-10.5149
▁aləti	-10.515
▁dağlar	-10.5152
diğiniz	-10.5153
▁çık	-10.5154
▁kullanmak	-10.5157
▁Yaqub	-10.5157
▁1926	-10.5157
▁1925	-10.5157
▁könüllü	-10.5157
▁səciyyəvi	-10.5158
▁inanıyorum	-10.5159
▁səmərəli	-10.516
▁yazıları	-10.5164
▁fa	-10.5165
▁alıyor	-10.5165
▁yurd	-10.5166
▁dövlətlər	-10.5167
▁tapa	-10.5168
▁Azərbaycanlı	-10.5171
▁suç	-10.5173
▁Əsər	-10.5176
ydım	-10.5176
▁öğrenci	-10.5176
▁sistemləri	-10.5177
▁1977-	-10.518
▁Nəsrəddin	-10.5184
▁ixrac	-10.5184
▁Şirvanşahlar	-10.5185
▁adlanırdı	-10.5186
▁cüt	-10.5188
▁65	-10.519
▁körpü	-10.5194
▁medalı	-10.5195
▁Alp	-10.5198
▁struktur	-10.5198
▁durma	-10.5202
iliyor	-10.5203
▁jurnal	-10.5203
▁dünyasında	-10.5204
nizde	-10.5205
▁çarı	-10.5206
▁doğulu	-10.5207
▁istiyor	-10.5207
▁hesap	-10.5209
▁çəkili	-10.5211
▁komandiri	-10.5211
▁bəzək	-10.5212
▁kvadrat	-10.5212
▁1906	-10.5221
▁Mark	-10.5221
▁ocağı	-10.5227
▁gerçekte	-10.5227
▁şam	-10.5231
▁34	-10.5232
▁nümunə	-10.5236
▁FİFA	-10.5239
▁istirahət	-10.5239
▁ərəfə	-10.5239
▁Cavid	-10.524
▁О	-10.524
memiz	-10.5244
▁saxlayır	-10.5249
▁Hiç	-10.5254
▁şöbəsin	-10.5254
▁yoğun	-10.5255
▁səviyyə	-10.5258
▁kuş	-10.5262
▁bulduk	-10.5264
▁eni	-10.5265
▁akıl	-10.5265
▁dizayn	-10.5267
▁ideal	-10.5267
▁qurulması	-10.5276
aj	-10.5283
▁şirin	-10.5289
met	-10.5292
▁lider	-10.5293
▁Müəllif	-10.5295
▁reaksiya	-10.5295
▁1924	-10.5295
▁gelişme	-10.5296
▁Almaniyanı	-10.5297
▁senin	-10.5299
▁çəkdiyi	-10.5299
▁örtüyü	-10.5304
▁qapısı	-10.5306
▁Şəhəri	-10.5308
▁filmlər	-10.5309
▁ustası	-10.5309
▁umut	-10.5315
▁Aş	-10.5319
▁Jo	-10.5324
▁2003	-10.5332
▁sey	-10.5333
▁yürüşü	-10.5337
▁illiyi	-10.5338
▁hazırlanan	-10.534
▁İsveçrə	-10.5343
▁gö	-10.5344
124	-10.5346
▁Nəcəf	-10.5347
▁bila	-10.5348
▁rəğbət	-10.535
▁yararlı	-10.5351
▁məlumatları	-10.5351
▁direktor	-10.5356
▁çiz	-10.5364
iyorum	-10.5366
▁yaşadı	-10.5369
▁dəyişdi	-10.5374
▁vaxtlarda	-10.5377
▁Atlantik	-10.5378
▁Atropatena	-10.5378
▁küçə	-10.5379
▁mənşəyi	-10.5381
▁dairəvi	-10.5382
▁yapabiliriz	-10.5384
▁dəstəyi	-10.5384
▁nəh	-10.5384
▁yazılır	-10.5385
▁is	-10.5386
th	-10.5387
▁vaxtında	-10.5391
▁önceki	-10.5393
▁görmüş	-10.5394
▁qum	-10.5397
▁Bəzə	-10.5397
▁bitkiləri	-10.54
▁yerin	-10.5405
▁garip	-10.5406
▁bilimsel	-10.5412
▁bayrağı	-10.5412
▁ülkede	-10.5412
▁üsul	-10.5415
▁şəxsə	-10.5418
▁ettiği	-10.542
▁deyirdi	-10.5421
▁hadisələrin	-10.5421
▁tələbələrin	-10.5423
▁eylem	-10.5423
▁nəslindən	-10.5424
▁şəbəkəsi	-10.5425
▁ədalət	-10.5427
▁sorunu	-10.5428
imizi	-10.5429
▁er	-10.543
▁obyekti	-10.5432
▁John	-10.5435
▁qılınc	-10.5435
▁Naxçıvanda	-10.5436
▁belirt	-10.5437
▁qazanır	-10.5438
▁denge	-10.5439
▁maye	-10.5439
▁filmdə	-10.5442
▁MK	-10.5443
▁Koreya	-10.5443
▁alması	-10.5444
▁İli	-10.5447
▁getirmek	-10.5447
▁geleceği	-10.546
▁50-	-10.5461
▁doğu	-10.5461
▁gösterdi	-10.5464
▁konuşmak	-10.5467
tif	-10.5469
▁gərək	-10.5469
▁bər	-10.547
▁aşağıda	-10.5471
▁sarayı	-10.5474
▁edildikdə	-10.5477
mesini	-10.5481
▁şəhərə	-10.5481
▁isim	-10.5484
▁göndərir	-10.5486
▁yarada	-10.5487
çısı	-10.5487
dünya	-10.5487
▁ba	-10.549
▁Belçika	-10.5491
▁nəvəsi	-10.5491
▁1952	-10.5491
▁məqam	-10.5491
▁Bəhram	-10.5491
▁ça	-10.5491
▁gelecekte	-10.5491
▁nağıl	-10.5492
▁dünyası	-10.5493
və	-10.5494
▁keçirib	-10.5495
▁kendimizi	-10.5496
ladı	-10.5499
▁şəxsin	-10.5501
▁bərk	-10.5501
▁Parisdə	-10.5502
▁məbəd	-10.5505
▁Mu	-10.5508
ndaki	-10.551
▁məqsədlə	-10.5512
▁37	-10.5515
▁süreç	-10.5518
▁Hey	-10.5519
uq	-10.552
▁ayə	-10.552
▁məbədi	-10.5523
▁1990	-10.5526
▁zorla	-10.5532
▁qəbir	-10.5533
▁Stad	-10.5533
▁keçməsi	-10.554
▁Kal	-10.5541
▁tapılmışdı	-10.5544
▁ədəbiyyatını	-10.5544
nti	-10.5545
▁Ulduz	-10.5548
▁basqın	-10.5548
▁sıfır	-10.5548
▁yüzlerce	-10.5548
▁fikrin	-10.5561
▁250	-10.5564
▁çocukları	-10.5566
lerim	-10.5568
▁ağrı	-10.5572
▁bölüm	-10.5573
▁yataqları	-10.5574
▁demokrasi	-10.5576
▁Dolayısıyla	-10.5576
▁qoyub	-10.5576
▁bəstəkarı	-10.558
▁Hepimiz	-10.5584
▁formaları	-10.5585
▁qorxu	-10.5587
▁əşyaları	-10.5588
▁ziyalı	-10.5588
ıyla	-10.5588
▁kənarında	-10.5591
lənir	-10.5593
▁kesin	-10.5593
▁Məktəb	-10.5596
▁məntəqələri	-10.5598
▁məqalələr	-10.5599
▁Bala	-10.56
▁hökumətin	-10.5602
▁dediyi	-10.5608
▁təklifi	-10.5608
▁kere	-10.5609
▁Mor	-10.561
▁bitkilərin	-10.5613
▁söylediği	-10.5615
▁varlığı	-10.5617
▁sağlıklı	-10.562
▁Tabii	-10.5622
abilecek	-10.5626
▁suları	-10.5627
▁yardımı	-10.5632
▁nazik	-10.5633
▁korkunç	-10.5633
▁tərəvəz	-10.5633
▁vasitələri	-10.5634
▁tapı	-10.5634
▁şəraitdə	-10.5635
▁ölç	-10.5639
▁1992	-10.5641
▁içeri	-10.5641
▁fi	-10.5644
▁duran	-10.5644
▁sanatçı	-10.5645
▁arkadaşım	-10.5647
▁imperiyasını	-10.5652
▁termini	-10.5655
▁zi	-10.5658
▁yollarını	-10.566
▁düşünür	-10.5663
▁ekoloji	-10.5663
qo	-10.5665
▁görüyor	-10.5666
▁kır	-10.5669
▁yapıyorlar	-10.567
▁qəzası	-10.5676
▁geçmiş	-10.5679
▁toponimi	-10.5682
▁material	-10.5689
▁gitmek	-10.569
▁1931	-10.5691
▁Avqust	-10.5691
▁Şərur	-10.5691
▁farkında	-10.5691
▁əfsanə	-10.5693
kcə	-10.5693
▁Yerin	-10.5694
▁sarayında	-10.5697
▁şirkət	-10.5701
▁ayak	-10.5704
▁bunlara	-10.5706
▁izle	-10.5714
▁professoru	-10.5716
▁giy	-10.5719
▁1914	-10.572
▁sevimli	-10.572
▁millət	-10.572
▁nizam	-10.5721
▁qorumaq	-10.5723
▁səhər	-10.5727
▁kitabını	-10.5728
▁çəkən	-10.5729
▁dövlətlərin	-10.573
▁qüvvələrin	-10.573
▁yetiş	-10.5733
▁ku	-10.5734
▁telefonu	-10.5735
▁dövlətləri	-10.5736
▁yapılmış	-10.5741
▁çıkma	-10.5742
▁doqquz	-10.5749
▁ərzaq	-10.5749
▁vəhşi	-10.5749
▁soy	-10.5749
▁kateqoriya	-10.5749
▁gətirə	-10.5749
▁tutma	-10.575
▁seviyorum	-10.5751
▁1984-	-10.5751
▁kaldır	-10.5751
▁karanlık	-10.5751
leyen	-10.5755
▁yayı	-10.5759
▁gündəlik	-10.5761
▁nöqtə	-10.5761
istan	-10.5764
▁sür	-10.5766
▁Amerikalı	-10.5768
▁dönü	-10.5772
▁çəkildi	-10.5772
▁değişik	-10.5776
▁dedik	-10.5776
▁söyleme	-10.5776
▁uşaqların	-10.5778
▁Sibir	-10.5778
abilmek	-10.5778
▁örtülü	-10.5778
leyici	-10.5779
▁Mustafayev	-10.578
▁Hindistanda	-10.578
▁Corc	-10.5781
▁bilmiyorum	-10.5781
▁17-	-10.5781
▁fərman	-10.5782
▁yaşına	-10.5783
▁Kan	-10.5787
▁Sizin	-10.579
▁hazırlıq	-10.5791
▁hücreleri	-10.5796
▁verməsi	-10.5799
leşti	-10.5802
▁Biraz	-10.5805
▁Min	-10.5805
leştirme	-10.5805
▁elbette	-10.5807
▁ölçüsü	-10.5809
▁zirvəsi	-10.581
▁ten	-10.5811
▁alayı	-10.5814
▁açıklama	-10.5814
▁Səd	-10.5814
▁coğrafiya	-10.5814
▁türlü	-10.5814
▁işlərində	-10.5815
▁Qandi	-10.5816
▁uçak	-10.5817
▁zalı	-10.5824
▁qalma	-10.5828
terince	-10.5828
para	-10.583
▁fərmanı	-10.5832
əşhur	-10.5834
▁güvenli	-10.5837
▁belirli	-10.5838
▁diplomu	-10.5844
▁Səfi	-10.5845
50	-10.5855
▁nerey	-10.5855
▁üsyanı	-10.586
▁Çoğu	-10.5864
ize	-10.5866
▁Qan	-10.5871
▁nesil	-10.5877
▁işlə	-10.588
▁vəzifədə	-10.5882
▁anlayış	-10.5887
duğu	-10.5888
▁ordunu	-10.589
▁Gerçek	-10.5891
▁adamların	-10.5892
▁doktorlu	-10.5893
▁eve	-10.5893
▁а	-10.5894
▁Qusar	-10.5895
▁istefa	-10.5896
▁orqanizm	-10.5901
acağı	-10.5901
▁gösteri	-10.5903
▁Par	-10.5908
▁Göz	-10.591
▁aşama	-10.591
▁nəfərə	-10.5914
▁Lu	-10.5914
eme	-10.5916
▁çağırış	-10.5921
▁İdarə	-10.5924
bəyov	-10.5928
uru	-10.5929
▁qaydaları	-10.593
▁gerçeği	-10.5931
▁tərbiyə	-10.5941
ünün	-10.5948
▁gələcəkdə	-10.5948
▁Partiya	-10.5948
▁zabit	-10.5949
▁alakalı	-10.5954
▁Sakit	-10.5955
▁sayısı	-10.5956
ef	-10.5957
▁hüquqları	-10.5957
▁kamp	-10.5957
▁dövri	-10.5959
▁alınır	-10.5959
▁klubunu	-10.5959
▁qul	-10.596
▁açıdan	-10.5962
▁üzerindeki	-10.5962
lur	-10.5963
▁1905-	-10.5964
▁ərəblər	-10.5967
▁alanda	-10.5974
▁öldürmüş	-10.5975
▁tamaşaçı	-10.5979
▁koyu	-10.598
▁Əfəndi	-10.5983
▁riyazi	-10.5984
▁edam	-10.5987
▁Qor	-10.599
▁etrafında	-10.5992
▁edilen	-10.5994
▁illəri	-10.5996
▁elementlərin	-10.5998
▁Xoca	-10.5998
ıyorlar	-10.5998
▁sorular	-10.6
▁varlıq	-10.6005
▁geldiği	-10.6005
▁cu	-10.6012
▁qurğu	-10.6014
▁120	-10.6014
▁yazıb	-10.6016
▁uzakta	-10.6017
▁miyiz	-10.6017
▁xaç	-10.6018
▁doku	-10.6021
▁hayatını	-10.6022
▁duruyor	-10.6027
▁edilməsində	-10.6028
▁ilgilen	-10.603
▁uygula	-10.603
▁gəldikdə	-10.6036
ttifaq	-10.6038
▁məhsuldar	-10.6041
▁xoş	-10.6042
▁sefer	-10.6043
▁varlı	-10.6048
gar	-10.605
▁dal	-10.6053
▁oynayı	-10.6056
▁yaradan	-10.6056
▁annem	-10.6057
▁anlatı	-10.6061
▁Şi	-10.6062
▁Universitetin	-10.6063
▁fazlası	-10.6066
▁sözün	-10.6068
▁janr	-10.6068
ğü	-10.6069
▁mesele	-10.6071
şar	-10.6072
▁Şəmkir	-10.6073
▁şərab	-10.6074
▁kurs	-10.6074
ndeki	-10.6075
təzə	-10.6079
▁ziyan	-10.608
▁yoktur	-10.6083
▁verin	-10.6084
▁cam	-10.6084
▁Gürcüstanı	-10.6084
▁Həsənov	-10.6088
▁buldum	-10.6091
▁Komissiyası	-10.6091
▁qəti	-10.6092
▁Bina	-10.6096
rəm	-10.6097
▁ölçülü	-10.6098
▁şəkil	-10.6098
əlinə	-10.61
eceğini	-10.6101
▁açılması	-10.6101
▁sar	-10.6103
▁gitti	-10.6105
▁salmış	-10.6107
▁yüzil	-10.6109
iyyət	-10.611
▁ri	-10.6111
York	-10.6115
▁hastalığı	-10.6121
əri	-10.6122
▁bildirmişdi	-10.6123
▁topu	-10.6126
▁inqilabı	-10.6129
▁vəzifəsi	-10.613
▁1928	-10.6134
baba	-10.6137
▁fikirleri	-10.614
▁ştat	-10.6141
▁ayrılmış	-10.6144
lüğü	-10.6145
bal	-10.6151
▁şeri	-10.6154
bulaq	-10.6154
üm	-10.6155
▁fakültəsi	-10.6158
▁anlamın	-10.6159
▁açır	-10.616
▁Ata	-10.6162
▁öldür	-10.6162
▁Danimarka	-10.6164
▁məcburiyyətində	-10.6164
▁geleneksel	-10.6164
▁Ak	-10.6165
▁Aydın	-10.6165
▁giden	-10.6169
▁ediyorlar	-10.617
meliyiz	-10.6171
▁Real	-10.6172
▁fikirler	-10.6177
▁bomba	-10.6181
iç	-10.6184
▁ağız	-10.6185
▁anlam	-10.6187
▁so	-10.619
▁İsmayılov	-10.6191
▁Bəstəkar	-10.6194
▁rakam	-10.6194
▁Kiyev	-10.6195
▁uzman	-10.6198
▁türü	-10.6198
▁meydan	-10.6198
▁ailələrin	-10.6199
▁programı	-10.6199
mektedir	-10.62
▁verməyə	-10.6202
▁tarihi	-10.6204
▁salır	-10.6204
▁istediğimiz	-10.6207
30	-10.6208
▁etməli	-10.621
▁dua	-10.6211
for	-10.6211
▁sultanı	-10.6212
▁ulduzlar	-10.6215
anlı	-10.622
▁faciə	-10.6221
▁iyulun	-10.6221
miştim	-10.6221
▁cümlə	-10.6222
▁bacarıq	-10.6224
▁cevabı	-10.6224
▁Bolqarıstan	-10.6224
▁banisi	-10.6224
▁piyasa	-10.6224
▁tunc	-10.6224
▁şiə	-10.6225
tədqiqat	-10.623
▁imperatoru	-10.624
▁25-	-10.624
▁&#	-10.624
▁getmiş	-10.6241
▁torpaqlarını	-10.6244
▁Əbülfə	-10.6244
▁ayda	-10.6247
▁nəticələr	-10.6249
▁yüzü	-10.6252
▁önemlisi	-10.6253
▁sonrasında	-10.6254
▁Vladimir	-10.6255
▁mobil	-10.6255
▁süper	-10.6255
▁1935	-10.6255
▁bilgiyi	-10.6256
▁Var	-10.6257
▁teori	-10.6262
▁başda	-10.627
▁məktəbə	-10.627
▁endişe	-10.627
▁səy	-10.6277
▁qarışıq	-10.6282
▁işləməy	-10.6283
▁Texnik	-10.6285
▁darmadağın	-10.6285
▁populyar	-10.6285
▁icat	-10.6286
▁əbədi	-10.6286
▁geldiğini	-10.6287
▁Masall	-10.6288
▁Beni	-10.6296
▁baha	-10.6303
▁dönem	-10.6304
▁üzerinden	-10.6305
▁diqqətini	-10.6306
▁sərhədləri	-10.6307
▁başlat	-10.6308
▁parçalar	-10.6308
▁Kon	-10.6308
▁Müəllimlər	-10.6314
▁1912	-10.6316
▁kültür	-10.6317
▁səh	-10.6319
▁hakkı	-10.632
▁koru	-10.6326
likle	-10.6328
▁dalğa	-10.6329
▁xalqlar	-10.6332
▁herşey	-10.6333
▁ədəbiyyatında	-10.6336
lla	-10.6337
▁Nəriman	-10.6342
▁ser	-10.6343
▁beyni	-10.6344
▁meşələr	-10.6344
▁sağlamak	-10.6345
▁deyirlər	-10.6346
▁ziyaret	-10.6347
▁fil	-10.6347
▁çatışma	-10.6347
▁əsna	-10.6354
▁öte	-10.6356
▁değiştirmek	-10.6357
▁sorunları	-10.6364
▁kilo	-10.6366
▁Fransanı	-10.6368
▁şəxsiyyət	-10.6368
▁noktası	-10.6372
▁cihaz	-10.6374
▁qəhvə	-10.6378
▁süvari	-10.6378
▁günbəz	-10.6378
▁İnformasiya	-10.6378
▁xanəndə	-10.6379
▁qaça	-10.6379
▁sair	-10.638
▁aktar	-10.638
ürü	-10.638
▁xatirə	-10.6381
▁düşünmeye	-10.6382
▁yığma	-10.6384
▁öyrənmək	-10.6384
▁şəkli	-10.6389
▁nəşri	-10.6393
▁Avstraliya	-10.6396
▁yaradılır	-10.6397
▁duygu	-10.6398
▁davran	-10.6398
seydi	-10.6401
▁İqtisadi	-10.6403
▁əlaqəsi	-10.6404
▁azərbaycan	-10.6405
▁duyma	-10.6406
▁mərasim	-10.6406
▁meydanı	-10.6408
▁İskəndər	-10.6409
▁kısım	-10.6409
▁tarih	-10.6409
▁ilahi	-10.6409
▁Eldar	-10.641
▁iqtisadiyyat	-10.641
ğında	-10.6414
▁44	-10.6414
▁MR	-10.642
▁şirketi	-10.643
▁yapmayı	-10.6437
qan	-10.6438
▁barəsində	-10.644
▁mövsüm	-10.644
▁qayğı	-10.6441
▁lat	-10.6442
▁sağladı	-10.6444
▁Finlandiya	-10.6445
usu	-10.6446
▁sufi	-10.6446
▁mühit	-10.6449
▁geçme	-10.645
▁kaya	-10.6451
▁yerləşdirilmiş	-10.6453
▁genellik	-10.6454
▁1960	-10.6454
▁iqtisadiyyatı	-10.6455
▁evren	-10.6455
▁Ondan	-10.6459
▁ilerleme	-10.6461
▁yetiştir	-10.6461
▁ülkelerde	-10.6462
▁Dr	-10.6464
▁toy	-10.647
▁məhrum	-10.6471
▁italyan	-10.6471
▁Leninqrad	-10.6471
▁sekiz	-10.6471
▁Amerikanın	-10.6478
▁ter	-10.6481
▁Afrikada	-10.6482
▁oy	-10.6483
▁dinle	-10.6485
▁öğretmen	-10.6487
▁nəslin	-10.649
▁2001	-10.6496
▁bala	-10.6498
▁Fa	-10.6498
▁yi	-10.6499
▁şekil	-10.6499
▁danışıqlar	-10.6499
▁görmüşdü	-10.65
▁jurnalını	-10.6501
▁dağın	-10.6509
▁ərazilərində	-10.6509
larım	-10.6512
res	-10.6512
▁kəndlərdə	-10.6514
▁qohum	-10.6515
▁anlamaya	-10.6522
▁çatı	-10.6527
▁Hə	-10.6528
▁filosof	-10.6529
▁xidmətlərin	-10.6531
▁Birçok	-10.6533
▁rəmzi	-10.6533
▁Sankt	-10.6534
▁alimlərin	-10.6534
▁ettiğimiz	-10.6534
▁Gö	-10.6538
▁uşağı	-10.6543
mle	-10.6546
▁əzələ	-10.6547
▁təbliğ	-10.655
▁döyüşçü	-10.6554
▁toxuma	-10.6556
▁alətlər	-10.6556
▁müsəlmanlar	-10.6561
▁sahələr	-10.6563
▁kırı	-10.6563
layır	-10.6564
▁maksim	-10.6565
▁haqqı	-10.6566
▁meyl	-10.6566
ğini	-10.6566
▁qüdrət	-10.6566
▁yapmamız	-10.6567
▁qurulmuşdu	-10.6568
ıx	-10.6569
▁ünlü	-10.6569
ğım	-10.657
▁yeyi	-10.6571
▁gəz	-10.6575
▁yüksəklikdə	-10.6576
üp	-10.6576
▁aşağıdakılar	-10.6579
şərqdə	-10.658
▁mahnılar	-10.6582
maktadır	-10.6582
▁mətn	-10.6582
▁edici	-10.6585
▁Bak	-10.6586
▁halı	-10.6588
▁yıldız	-10.6591
▁Ö	-10.6591
▁davranış	-10.6592
▁qurban	-10.6594
▁məhsul	-10.6595
▁teşvik	-10.6596
yasət	-10.6597
▁versiyası	-10.6598
▁qardaş	-10.6603
▁se	-10.6604
▁Albaniyası	-10.6606
U	-10.6608
▁He	-10.661
▁şəhərlərdə	-10.6621
▁mərhələdə	-10.6622
▁Döyüş	-10.6628
▁Madrid	-10.6628
▁Pekala	-10.6628
▁buğda	-10.6629
▁Özü	-10.6629
▁danışıl	-10.6629
▁Yan	-10.6631
▁yaparken	-10.6631
dığım	-10.6633
ket	-10.6634
est	-10.6634
▁Doğru	-10.6636
▁tuturdu	-10.664
▁Nazi	-10.6645
▁qurdu	-10.6645
▁kompozisiya	-10.6646
▁60-	-10.6649
▁Burası	-10.665
▁ra	-10.6652
▁düşməni	-10.6653
▁keşfed	-10.6655
▁qır	-10.6657
▁institutun	-10.6659
▁Fələstin	-10.666
▁Hüquq	-10.666
▁vücut	-10.666
▁Astara	-10.666
▁olağanüstü	-10.666
▁verimli	-10.666
▁hissed	-10.6661
▁vilayətində	-10.6661
▁yaşıyor	-10.6662
▁rəvayət	-10.6665
▁dissertasiyası	-10.6667
2-	-10.6673
▁göndərdiyi	-10.6674
▁mənbələrində	-10.6675
▁müddətində	-10.6676
▁örneği	-10.6677
▁türbə	-10.6678
▁Saray	-10.668
▁konfrans	-10.6682
▁politik	-10.6683
▁çempionatı	-10.6689
▁Rəsul	-10.6691
▁heyvanların	-10.6691
▁salınmışdı	-10.6691
▁yada	-10.6692
▁Vurğun	-10.6692
▁Türkmənistan	-10.6692
▁Koroğlu	-10.6692
▁marağı	-10.6694
▁isteme	-10.6695
▁çalışıyoruz	-10.6696
▁vətəni	-10.67
▁əsilli	-10.67
▁dəyərli	-10.6701
▁1947-	-10.6709
dəmir	-10.671
▁Beş	-10.671
▁müəllimləri	-10.6713
9-	-10.6715
▁soyqırımı	-10.6717
▁təcrübəsi	-10.6717
▁ayırma	-10.6719
▁getirdi	-10.672
▁zavodu	-10.672
▁yaradıcılığını	-10.6723
▁Misirdə	-10.6723
▁Argentina	-10.6724
▁Qorqud	-10.6724
▁müşayiət	-10.6724
▁kağız	-10.6724
▁toplantı	-10.6724
▁Fərhad	-10.6724
▁Siyasi	-10.6724
▁ömür	-10.6725
▁Memar	-10.6726
▁parmak	-10.6726
▁texnikası	-10.6727
▁halinde	-10.6727
▁təşkilatçı	-10.6732
▁mübarizədə	-10.674
ətən	-10.674
▁2011	-10.6741
▁getmək	-10.6744
▁çevrilmiş	-10.6747
▁Çe	-10.6748
adiq	-10.675
▁imkanları	-10.6753
▁xarakterli	-10.6755
▁yaxındır	-10.6755
▁Chris	-10.6756
▁uzanan	-10.6761
▁not	-10.6766
▁uzunluğunda	-10.677
qar	-10.6778
▁ştatı	-10.6782
▁birləşməsi	-10.6783
əsən	-10.6784
▁Yo	-10.6787
▁Geçen	-10.6788
▁götürüb	-10.6788
▁əmisi	-10.6788
▁Tədqiqatçılar	-10.6788
▁qoyuldu	-10.6789
▁1927	-10.6789
▁ilan	-10.6789
▁oluştur	-10.6789
▁gördüyü	-10.679
▁büyüdü	-10.679
liğini	-10.679
▁Bağdad	-10.6791
▁28-	-10.6791
kül	-10.6791
▁təşkili	-10.6791
▁boy	-10.6792
ebileceği	-10.6792
▁ikna	-10.6793
▁yaparak	-10.6794
▁hazırlamaq	-10.6795
▁nümunəsi	-10.6802
▁Qış	-10.6805
▁dost	-10.6809
▁sütun	-10.681
▁gec	-10.681
▁qərbində	-10.6812
▁seçmə	-10.6814
▁16-	-10.6814
▁hikâye	-10.6816
▁hədiyyə	-10.6817
ünde	-10.6819
▁1915	-10.682
▁gıda	-10.6821
▁Ruh	-10.6823
▁qüvvələrini	-10.6824
▁olacağı	-10.6824
mam	-10.6826
▁etsin	-10.6827
▁Gürcüstanda	-10.6829
▁qurulan	-10.683
▁məktəblər	-10.6831
▁18-	-10.6838
▁üslub	-10.6839
▁keçirili	-10.684
▁fikirləri	-10.6845
▁lif	-10.685
▁pro	-10.6851
▁Sağ	-10.6852
▁pambıq	-10.6852
▁poetik	-10.6852
▁yuxu	-10.6853
▁bürünc	-10.6853
▁dönəmində	-10.6853
ril	-10.6854
▁Ailə	-10.6854
▁odaklan	-10.6855
▁olduğunuz	-10.6861
▁incə	-10.6866
▁torpaqların	-10.6869
laşmış	-10.687
▁160	-10.6873
▁bakma	-10.6873
▁Yunanıstan	-10.6874
mamız	-10.6875
▁məcburi	-10.6876
▁sahibiz	-10.6876
▁səhifə	-10.6879
▁sonuçlar	-10.6879
▁çətinliklər	-10.688
▁ağacları	-10.6881
▁Təbiət	-10.6885
▁tecrübe	-10.6885
▁əxlaq	-10.6885
▁simfoni	-10.6885
ladığı	-10.6886
▁Rəsulzadə	-10.6886
şan	-10.6887
liyor	-10.6888
▁düşündük	-10.6889
▁saldırı	-10.689
▁motor	-10.6896
▁Sir	-10.6898
ras	-10.6899
Peterburq	-10.6901
▁1998	-10.6901
▁yağıntı	-10.6902
▁Müsabiqəsi	-10.6905
▁zona	-10.6907
▁gör	-10.6908
▁kitabları	-10.6911
▁işləni	-10.6912
emez	-10.6912
▁məhdud	-10.6912
▁durur	-10.6913
▁səfəri	-10.6913
ləndirilməsi	-10.6914
▁yaranı	-10.6915
▁başını	-10.6916
▁arama	-10.6917
▁minilliy	-10.6918
ğlu	-10.6919
▁Vəzirov	-10.692
▁bulunma	-10.6928
▁uzanır	-10.6929
▁qadınların	-10.693
▁sıcak	-10.6933
▁Gü	-10.6935
▁obrazlar	-10.6936
▁geriye	-10.6936
▁məktəbləri	-10.6937
▁bizler	-10.6937
▁yaratmış	-10.694
▁davet	-10.6941
▁muzeyi	-10.6942
▁əsaslanır	-10.6943
▁Liqası	-10.6943
net	-10.6944
▁Kilsə	-10.6945
▁gəmisi	-10.6945
▁Yazıçı	-10.6946
stan	-10.6949
▁zəlzələ	-10.695
▁Söz	-10.695
▁qiyam	-10.695
birine	-10.6952
ğinde	-10.6955
texnik	-10.6956
▁Əfqanıstan	-10.6958
▁birşeyler	-10.6963
▁dillər	-10.6969
▁kadınların	-10.6971
▁texnologiya	-10.6974
▁qızları	-10.6975
▁oyunun	-10.6977
▁Konservatoriya	-10.6978
ly	-10.6978
▁İr	-10.6979
▁təhlükəli	-10.698
▁qruplar	-10.6983
▁təmsilçisi	-10.6983
▁Özbəkistan	-10.6983
▁çekici	-10.6983
▁toprak	-10.6984
▁benziyor	-10.6985
▁hayatın	-10.6985
▁ayrılma	-10.699
▁komponentlərin	-10.6991
▁Av	-10.6992
▁vilayətini	-10.6992
▁Şura	-10.6993
▁ehtiyatları	-10.6993
▁Altı	-10.6998
▁av	-10.6999
▁1991	-10.6999
▁Bank	-10.6999
▁Poli	-10.6999
▁binanı	-10.7
▁müttəfiq	-10.7004
▁simvolu	-10.7006
▁Ağca	-10.7007
▁xadimləri	-10.7007
▁qəzasında	-10.7015
▁Sosial	-10.7015
▁jurnalında	-10.7016
▁zeka	-10.7016
▁Növbə	-10.7016
▁versiya	-10.7017
▁Marağa	-10.7017
▁tuta	-10.7019
axşı	-10.7019
▁Sam	-10.702
▁mün	-10.7025
▁sürə	-10.7025
▁beden	-10.7027
ent	-10.703
▁ömrü	-10.7032
▁diplom	-10.7033
▁erken	-10.7035
▁öyrənir	-10.7035
▁külək	-10.7041
▁İç	-10.7042
▁Rəşid	-10.7048
▁ailəsini	-10.7049
▁Barselona	-10.7049
▁kömür	-10.7049
▁televizyon	-10.7049
▁beşinci	-10.705
▁yarandığı	-10.7056
miyorum	-10.706
landırma	-10.7061
▁olmamız	-10.7062
▁rənglər	-10.7063
▁yazma	-10.7072
▁açılışı	-10.7072
▁borc	-10.7076
▁hazırlığı	-10.7076
▁Gülüş	-10.7079
▁şübhə	-10.708
▁dostluq	-10.7083
yib	-10.7087
▁xalqları	-10.7087
▁çoxunu	-10.7087
▁çalışıyorum	-10.7087
▁taş	-10.7087
▁mütəxəssislər	-10.7088
▁Ərazi	-10.709
▁yaşaya	-10.709
▁ü	-10.7092
▁vasitə	-10.7093
▁hepsini	-10.7096
lerinizi	-10.7098
▁800	-10.71
▁bilmə	-10.71
▁siyah	-10.7102
▁edənlər	-10.7103
▁imkansız	-10.7104
▁mədəniyyətin	-10.7108
▁inam	-10.7111
▁sayını	-10.7113
▁akıllı	-10.7115
▁Çələbi	-10.7115
▁1916	-10.7115
▁yabancı	-10.7115
▁değiş	-10.7117
▁bəyan	-10.7118
▁hey	-10.7118
▁180	-10.7119
▁qazanmış	-10.712
▁dosent	-10.7123
▁arxasında	-10.7126
▁55	-10.7127
▁getiriyor	-10.7129
mü	-10.7132
▁tük	-10.7132
▁əli	-10.7135
▁Əsl	-10.7141
▁verileri	-10.7141
▁tərəfdarları	-10.7146
▁yaygın	-10.7149
▁yağmur	-10.7149
▁Latın	-10.7149
▁sel	-10.7151
▁bilik	-10.7152
▁aş	-10.7152
▁kullanıyor	-10.716
▁olmasından	-10.716
▁maşını	-10.7162
▁Ordusu	-10.7162
▁Ada	-10.7167
▁1970	-10.7168
▁miqyas	-10.7171
▁hız	-10.7171
rek	-10.7174
leriniz	-10.7174
▁Bura	-10.7175
▁olmayı	-10.7175
▁şirketler	-10.7175
▁çıxa	-10.7176
▁adlarını	-10.7177
▁ittiham	-10.7182
▁İsfahan	-10.7182
▁Əkbər	-10.7182
▁etdirmiş	-10.7182
▁keçirmişdi	-10.7184
▁kendime	-10.7184
▁bulunduğu	-10.7186
▁48	-10.7189
▁demektir	-10.7192
▁tapır	-10.7192
▁imperator	-10.7192
axan	-10.72
▁Demek	-10.7201
▁tasarla	-10.7202
▁dayanır	-10.7203
▁körfəzi	-10.7203
▁döyüşündə	-10.7206
▁Çocuk	-10.7206
▁oynadığı	-10.7207
akt	-10.7207
▁kullanıl	-10.7214
▁tökülü	-10.7214
▁pəncərə	-10.7216
▁Cəlal	-10.7216
▁qapa	-10.7216
▁Lerik	-10.7216
▁kimyasal	-10.7218
▁Ber	-10.7219
▁Azadlı	-10.7223
▁ifaçısı	-10.7223
▁əməliyyatı	-10.7224
▁dostları	-10.7225
▁besle	-10.7226
▁1908	-10.7227
▁həqiqətən	-10.7229
▁sax	-10.7232
▁ünvanı	-10.7232
▁kenar	-10.7244
gan	-10.7244
layıcı	-10.7246
▁harca	-10.7247
▁Gülüstan	-10.7249
▁Şəfi	-10.725
▁oynayan	-10.7254
▁polkovnik	-10.7256
ite	-10.7256
tərəfl	-10.7261
▁şagird	-10.7265
▁dile	-10.7266
lduğu	-10.7267
▁seks	-10.7268
▁buxar	-10.7269
▁yazısı	-10.7271
▁sığ	-10.7272
▁alış	-10.7272
▁yorum	-10.7274
▁yerləşməsi	-10.7277
▁görülür	-10.728
▁psixolo	-10.7283
▁işlədiyi	-10.7286
▁1907	-10.729
▁emal	-10.729
▁kafedra	-10.729
▁müdafiəsi	-10.7293
▁doğur	-10.7297
▁haqq	-10.73
makta	-10.7301
▁Kazımov	-10.7302
gı	-10.7304
▁işdə	-10.7307
▁biçim	-10.7309
sizlik	-10.731
▁saxlan	-10.7311
▁Əhalisini	-10.7311
▁Ju	-10.7312
▁mətni	-10.7315
▁Makedoniya	-10.7317
▁Oktyabr	-10.7317
▁efir	-10.7317
▁görürsünüz	-10.7317
▁verdiği	-10.7318
▁barış	-10.7319
▁qə	-10.732
▁yayılan	-10.7321
▁dans	-10.7322
▁gor	-10.7322
abileceği	-10.7327
▁Qadın	-10.7328
▁yaradıcısı	-10.7331
▁Hem	-10.7338
rey	-10.734
▁olduğumu	-10.734
▁biliklər	-10.7342
W	-10.7342
▁yubileyi	-10.7343
▁məlumatı	-10.7343
▁hakkındaki	-10.7346
▁zonasında	-10.7349
xana	-10.735
▁seviye	-10.735
▁istərs	-10.735
▁Düz	-10.7351
▁nefes	-10.7351
▁gemi	-10.7351
▁Yeddi	-10.7352
▁Öyle	-10.7352
▁qayıtdı	-10.7355
▁Yap	-10.7357
oto	-10.736
eti	-10.7361
▁şərqində	-10.7366
▁Kazım	-10.7366
▁region	-10.7369
▁hesablama	-10.7369
▁döyüşlər	-10.7374
▁bütöv	-10.7376
▁həqiqət	-10.7376
▁Tu	-10.7378
ınca	-10.7381
▁Məlum	-10.7382
▁hüceyrə	-10.7385
▁Qobustan	-10.7385
▁raket	-10.7385
▁sergi	-10.7386
ğun	-10.739
▁istinad	-10.7407
▁yad	-10.7407
▁araçlar	-10.7408
▁çalışmaları	-10.7409
▁torpağın	-10.7412
▁səth	-10.7416
▁Dəmir	-10.7417
▁azalt	-10.7417
▁Borçalı	-10.7419
▁Məmmədquluzadə	-10.7419
▁Tesla	-10.7419
▁yem	-10.7421
▁Har	-10.7428
▁kurma	-10.7428
▁istiqaməti	-10.743
muyor	-10.7436
▁azadlığı	-10.7437
dıkları	-10.7437
▁hissetme	-10.7439
▁43	-10.744
▁çəkmək	-10.7441
▁Aya	-10.7444
▁əlaqəli	-10.7444
▁bölümü	-10.7445
▁benze	-10.7446
▁təxmin	-10.7447
gin	-10.7447
▁dü	-10.7449
btidai	-10.7451
▁keçi	-10.7452
▁Kafka	-10.7454
▁klinik	-10.7454
▁paralel	-10.7454
▁məsul	-10.7454
▁Tağıyev	-10.7454
▁Sezar	-10.7454
▁üretim	-10.7455
▁Müsabiqə	-10.746
▁yaranma	-10.7461
▁Əvvəlcə	-10.7461
▁Abbasov	-10.7466
▁səma	-10.7466
▁aktrisası	-10.7468
▁əyalət	-10.7471
▁duyu	-10.7472
▁gide	-10.7472
▁1999	-10.7473
▁tepe	-10.7479
▁bağlanmış	-10.7483
▁çalışmaya	-10.7483
▁insanlardan	-10.7485
lamaya	-10.7486
▁Paul	-10.7488
▁adla	-10.7488
▁axını	-10.7489
▁disk	-10.7489
▁boyutlu	-10.749
▁tutku	-10.7491
▁müvəffəqiyyətlə	-10.7494
▁hind	-10.75
▁ər	-10.7501
▁üslubu	-10.7503
▁yuva	-10.7503
▁bebek	-10.7505
▁kaldı	-10.751
▁Cəmil	-10.7512
▁ulduzu	-10.7513
▁hızla	-10.7515
▁tamaşalar	-10.7516
▁görünə	-10.7517
▁vəsait	-10.7519
▁təntənə	-10.7523
▁Kipr	-10.7523
▁cavan	-10.7523
▁təqdir	-10.7523
yorlardı	-10.7524
▁festival	-10.7527
▁Qarayev	-10.7528
▁soyqırım	-10.753
▁laboratoriya	-10.7531
acağını	-10.7531
qara	-10.7534
▁od	-10.7535
uyor	-10.7536
▁Tom	-10.7537
▁Məktəbi	-10.7539
eceği	-10.7539
▁ağı	-10.7539
▁2012	-10.7542
▁taleyi	-10.7548
göl	-10.7549
eğe	-10.7557
▁Sasanilər	-10.7557
▁Napoleon	-10.7557
▁tehdit	-10.7557
▁Venesiya	-10.7557
▁1910	-10.7558
▁Göyçə	-10.7558
▁səthində	-10.7562
dirdi	-10.7568
▁səhra	-10.7569
▁miktarda	-10.7569
▁fakültəsin	-10.7572
▁organ	-10.7572
▁Bilim	-10.7572
▁səhnəsində	-10.7573
▁Peyğəmbər	-10.7577
▁qab	-10.7577
larımı	-10.7583
gel	-10.7586
▁başta	-10.7589
üksək	-10.7591
diniz	-10.7592
daş	-10.7592
▁Yelizavet	-10.7592
▁Mənbələr	-10.7593
▁Millət	-10.7593
▁sərəncamı	-10.7593
▁fövqəl	-10.7593
▁sayılırdı	-10.7598
▁Manna	-10.76
▁düzündə	-10.7602
▁oxumuşdu	-10.7602
▁kitabxanası	-10.7604
▁sistemleri	-10.7608
▁değiller	-10.7609
▁11-	-10.7613
▁monoqrafiya	-10.7614
▁inşası	-10.7616
▁oran	-10.7617
leşmiş	-10.7618
▁Əhmədov	-10.7623
▁nəşriyyatı	-10.7624
▁Filmin	-10.7626
▁Mingəçevir	-10.7627
▁yüzyıl	-10.7632
▁engel	-10.7635
▁Şam	-10.7635
▁bütövlük	-10.7637
▁adet	-10.764
▁inkar	-10.7641
▁kare	-10.7648
▁bilmişdir	-10.7651
▁bölməsi	-10.7652
▁yun	-10.7657
▁imiş	-10.7657
▁dəyəri	-10.7657
▁zeki	-10.766
▁Coğrafi	-10.7662
▁əsgərləri	-10.7664
▁arazi	-10.7666
ans	-10.7666
▁silsiləsi	-10.7675
▁söyler	-10.7676
▁sənətkarlıq	-10.7677
▁çalıştığım	-10.7683
ği	-10.7685
▁ayrıldı	-10.7687
▁dənizində	-10.7688
▁xəstəliyin	-10.7688
▁turist	-10.769
▁parti	-10.7691
▁dinamik	-10.7694
▁diametri	-10.7696
▁Tahir	-10.7698
▁Adil	-10.7702
düğü	-10.7704
▁çıxarılması	-10.7705
▁tehlikeli	-10.771
▁əsərdə	-10.7716
▁fəaliyyətində	-10.7719
▁At	-10.772
▁özgü	-10.772
▁qoru	-10.772
▁çı	-10.772
▁poz	-10.7721
▁yarışma	-10.7723
▁inanc	-10.7725
▁devre	-10.7731
▁seyahat	-10.7733
▁sarayın	-10.7734
▁təşkilatın	-10.7735
▁he	-10.774
▁əla	-10.7741
bili	-10.7741
▁sakin	-10.7742
▁olardı	-10.7745
▁site	-10.7746
▁ucu	-10.7749
▁80-	-10.7749
▁babam	-10.7752
▁çapında	-10.7755
▁musiqiçi	-10.7757
▁kızı	-10.776
▁nömrəl	-10.7761
▁birləşdirir	-10.7762
▁alət	-10.7767
▁texnologiyası	-10.7767
▁nəfəs	-10.7768
▁siyasətini	-10.7769
▁Rzayev	-10.777
▁Altay	-10.7771
▁eğlenceli	-10.7771
mət	-10.7772
▁makale	-10.7773
▁bakteri	-10.7774
▁Müsabiqəsində	-10.7776
▁renk	-10.7779
▁dəyişən	-10.7788
▁vəsaiti	-10.7788
▁məktəblərində	-10.7789
▁anlatmak	-10.7792
▁səbəblər	-10.7795
▁qiymətləndiril	-10.7797
▁nömrəsi	-10.7798
▁okuy	-10.7798
ff	-10.7799
▁bəzədilmiş	-10.7804
▁gəlişi	-10.7805
▁fərqi	-10.7809
▁tanıma	-10.7809
▁tədbir	-10.7809
▁Ah	-10.781
▁güvenlik	-10.7811
▁universiteti	-10.7812
▁değişimi	-10.7816
▁qazı	-10.7817
▁yaşındaki	-10.7817
▁faktlar	-10.7818
qərbdə	-10.7822
▁ənənə	-10.7822
▁deri	-10.7824
▁yerleştir	-10.7825
▁məskən	-10.7835
▁eriş	-10.7836
▁düşməsi	-10.7838
▁Pyotr	-10.784
▁kopya	-10.784
▁çatmış	-10.7842
▁yüzey	-10.7844
▁biznes	-10.7844
▁oymağı	-10.7846
▁şirkətləri	-10.7856
▁kesi	-10.7857
▁süd	-10.7859
▁Ja	-10.7861
▁etməkdə	-10.7863
▁veril	-10.7865
▁çalı	-10.7865
▁çempionatın	-10.7866
▁çök	-10.7866
▁oku	-10.7867
▁açıldı	-10.7873
imin	-10.7874
▁övladları	-10.7875
bur	-10.7875
▁http	-10.7876
▁pahalı	-10.7876
▁qlobal	-10.7876
▁dağətəyi	-10.7876
▁məzmunu	-10.7876
▁saygı	-10.7876
▁edilməsini	-10.7878
▁toz	-10.788
▁100-	-10.7881
▁geçerli	-10.7881
▁keçmə	-10.7882
▁gətirdiyi	-10.7884
▁kazandı	-10.7887
▁formalaşması	-10.7888
▁gaz	-10.7888
▁məhsulu	-10.7889
▁adlar	-10.789
▁məşqçisi	-10.7894
▁kalbi	-10.7894
ja	-10.7897
▁yaddaş	-10.7897
▁1989	-10.7898
▁yetirir	-10.7903
▁camaat	-10.7903
▁həyatda	-10.7904
▁hücreler	-10.7905
▁gaye	-10.7906
▁alınma	-10.7908
▁Per	-10.7911
▁akşam	-10.7911
▁Aktyor	-10.7911
▁qoca	-10.7912
▁Öyleyse	-10.7912
▁hesabla	-10.7912
▁lirik	-10.7912
▁dokun	-10.7912
▁alanlar	-10.7913
▁döyüşə	-10.7915
▁fəsil	-10.7919
▁Buradaki	-10.7919
▁Birincisi	-10.792
▁düşünmek	-10.7921
▁sümük	-10.7922
▁ox	-10.7926
▁Qum	-10.7926
▁inkişafını	-10.7931
ğünü	-10.7935
▁bildiğimiz	-10.7937
▁məşğuldur	-10.7938
▁tayfalar	-10.794
▁ab	-10.7942
▁Don	-10.7946
▁əziyyət	-10.7948
▁tünd	-10.7948
▁Afina	-10.7948
rom	-10.7948
▁Papa	-10.7949
▁ederek	-10.7949
▁tutulan	-10.7951
▁əşyalar	-10.7952
çıq	-10.7956
▁Saat	-10.7958
sün	-10.7959
▁köçəri	-10.796
▁əməliyyatlar	-10.7961
▁39	-10.7963
▁kes	-10.7964
▁məhəllə	-10.7965
▁formalaşmasın	-10.7966
▁Bazen	-10.7967
▁Alı	-10.7971
▁net	-10.7972
▁Mart	-10.7972
▁arkadaş	-10.7975
▁məclis	-10.7976
▁Londonda	-10.7979
▁Val	-10.798
▁Ti	-10.798
▁ürünü	-10.7981
▁99	-10.7982
▁pilot	-10.7984
▁ordusunda	-10.7984
▁1900	-10.7988
▁müvəffəqiyyət	-10.7988
▁komandasını	-10.7989
▁1929-	-10.7998
▁herşeyi	-10.8
▁sordu	-10.8002
▁malzeme	-10.8002
▁14-	-10.8004
▁başlanmışdı	-10.8006
▁içəri	-10.8011
ral	-10.8011
▁Ər	-10.8015
▁Sonuç	-10.8016
▁elini	-10.8016
lət	-10.8016
▁Hollandiya	-10.802
▁fəsiləsin	-10.8021
▁Qars	-10.8021
▁sənədlər	-10.8023
▁komik	-10.8023
▁uyum	-10.8023
▁klip	-10.8024
▁ansamblı	-10.8024
lığında	-10.8028
ld	-10.8043
kta	-10.8044
gun	-10.8047
▁qiyməti	-10.8048
▁limanı	-10.8051
▁Bakını	-10.8052
▁əmir	-10.8052
▁faizi	-10.8054
▁keçirmiş	-10.8056
▁yaşayıb	-10.8057
▁birine	-10.8057
▁muazzam	-10.8057
▁qəzetin	-10.8057
▁yazan	-10.8058
▁ani	-10.806
▁yayılma	-10.8061
▁Din	-10.8062
▁toplama	-10.8063
▁Parlament	-10.8065
▁dəyişməsi	-10.807
▁təşkilatlar	-10.8073
▁düşünüyor	-10.808
▁1993	-10.808
▁dev	-10.8083
▁Rəhim	-10.8085
▁orda	-10.8086
▁kitablar	-10.8087
▁ehtiyacı	-10.8088
▁mövsümü	-10.809
▁yerləşmiş	-10.8091
▁Los	-10.8093
▁Tabi	-10.8093
▁1913	-10.8093
▁qarış	-10.8094
▁bilmək	-10.8094
▁namazı	-10.8096
▁Şirvani	-10.8102
▁öğrendim	-10.8104
▁gözəlliyi	-10.8104
,5	-10.8104
▁düzənlik	-10.8105
▁blok	-10.8107
▁şaşır	-10.8108
▁qışla	-10.8109
▁orkestr	-10.811
▁mərtəbə	-10.811
▁gerekiyordu	-10.811
▁okula	-10.8111
▁cəmiyyətdə	-10.8111
▁burası	-10.8113
▁prosesində	-10.8114
▁fabrika	-10.8114
▁variantı	-10.8116
▁1996	-10.8119
▁aldılar	-10.8122
▁taraf	-10.8123
▁boşluğu	-10.8124
▁şansı	-10.8126
▁bərpası	-10.8127
▁Rumıniya	-10.813
▁rüzgar	-10.813
▁Vahid	-10.8132
▁sağlayacak	-10.8133
▁isteyen	-10.8134
liğinde	-10.8135
rus	-10.8137
▁qurulmuş	-10.8142
▁Kamil	-10.8142
▁proqramlar	-10.8149
▁icma	-10.8152
▁əyaləti	-10.8157
▁sanal	-10.8159
▁texnologiyaları	-10.816
▁demişdi	-10.816
▁doğrudan	-10.8161
▁kısmını	-10.8163
les	-10.8166
▁Go	-10.8166
▁General	-10.8167
▁Maraqlı	-10.8167
▁əməkdaşları	-10.8168
▁paltar	-10.8169
▁kamu	-10.817
▁sakit	-10.8171
▁sana	-10.8171
▁yapon	-10.8174
▁Geri	-10.8176
▁mexanik	-10.8179
▁çekti	-10.8181
▁Yine	-10.8181
▁sessiz	-10.8182
madı	-10.8182
▁700	-10.8188
▁göndərilir	-10.8189
▁faiz	-10.819
▁sıkı	-10.8192
▁batı	-10.8192
▁banka	-10.8197
▁mənbə	-10.8198
▁sənin	-10.8199
▁yaka	-10.8203
▁Təhmasib	-10.8203
▁Təhlükəsizli	-10.8204
▁bahçe	-10.8204
▁tasarruf	-10.8204
▁işbirliği	-10.8204
▁Şamil	-10.8206
▁Bankı	-10.8209
▁vuran	-10.821
▁Mirzəyev	-10.8211
▁tele	-10.8216
▁müəssisə	-10.8218
▁gəlirlər	-10.8221
gü	-10.8222
▁ixtira	-10.8225
lerimi	-10.8227
▁Jan	-10.8228
▁təxəllüsü	-10.8229
▁iti	-10.8233
▁olduğumuzu	-10.8235
▁ayırır	-10.8236
▁Daşkənd	-10.8237
larınız	-10.8238
▁Kubokunu	-10.824
▁Həbib	-10.8241
▁Müsavat	-10.8241
▁bisiklet	-10.8241
▁etdirilir	-10.8241
▁Asya	-10.8242
▁geçiyor	-10.8242
▁Balet	-10.8243
çülü	-10.8245
▁tarım	-10.8248
▁qazıntı	-10.825
▁kart	-10.825
▁Babil	-10.8252
▁elimizde	-10.8253
mem	-10.8254
ion	-10.8255
▁şans	-10.8256
▁rəqib	-10.8263
▁orden	-10.8265
landığı	-10.8271
▁sınaq	-10.8273
▁Ələsgər	-10.8275
▁kullanır	-10.8276
▁maddələrin	-10.8276
rad	-10.8277
▁Küçük	-10.8278
▁Tbilisi	-10.8278
▁Torpaq	-10.8278
▁kəşfiyyat	-10.8279
▁servis	-10.8279
▁gətirilmiş	-10.8279
▁foto	-10.8279
▁bulunuyor	-10.8279
▁tatar	-10.8281
▁gü	-10.8285
▁Milad	-10.8288
▁bə	-10.829
▁hazırlanmasında	-10.829
▁quruluşunu	-10.8291
▁bəxş	-10.8295
ğim	-10.8301
▁İbrahimov	-10.8302
▁oynadı	-10.8304
▁əyan	-10.8304
ahid	-10.8307
▁bağış	-10.8307
▁biyolojik	-10.8307
▁qatıldı	-10.831
▁fiyat	-10.831
▁Mal	-10.8312
▁günləri	-10.8313
▁çıkart	-10.8313
lənmə	-10.8316
▁birləşmiş	-10.8318
▁tikililər	-10.8323
▁dava	-10.8324
▁payız	-10.8327
▁əsgəri	-10.833
▁imperiya	-10.833
▁Kir	-10.8332
▁ismi	-10.8332
▁yapmış	-10.834
▁tel	-10.8341
▁bakım	-10.8344
ore	-10.8349
▁xəstəliklər	-10.835
▁arzusu	-10.8352
▁Oyunları	-10.8352
▁yeteneği	-10.8354
▁Şotlandiya	-10.8354
▁vokal	-10.8354
▁bağımsız	-10.8354
▁Şəms	-10.8355
▁ipək	-10.8356
▁Cüm	-10.8358
▁quşlar	-10.8358
▁səhiyyə	-10.8359
▁Fe	-10.836
▁fakt	-10.8361
▁cok	-10.8361
▁tapmaq	-10.8363
▁axırın	-10.8364
▁poeziya	-10.8364
▁bölgələrdə	-10.8369
▁Cəmiyyəti	-10.837
▁oyunçu	-10.8371
▁musiqisini	-10.8371
▁köpek	-10.8371
▁Park	-10.8373
▁Qaz	-10.8373
▁46	-10.8378
▁quruldu	-10.8379
▁hərəkatını	-10.838
▁gərgin	-10.838
-19	-10.8382
▁sır	-10.8384
▁Anadoluda	-10.8387
▁bildirə	-10.8388
▁buldu	-10.8389
▁katolik	-10.839
▁ortam	-10.839
▁kanseri	-10.839
▁Güneş	-10.8392
▁alet	-10.8392
ıyordu	-10.8393
ulla	-10.8395
▁çoğunu	-10.8395
▁bulundu	-10.8398
▁değiştirme	-10.8399
dy	-10.8399
▁neyse	-10.8401
▁mahalle	-10.8402
▁Şahma	-10.8404
▁orqanizmin	-10.8406
▁kaçır	-10.8406
▁ulu	-10.841
▁həyət	-10.841
▁fərq	-10.8411
▁çalıştık	-10.8416
▁arkadaşlarım	-10.8419
▁araçları	-10.8419
▁çağı	-10.842
▁liste	-10.8422
▁13-	-10.8423
▁sonuçları	-10.8426
▁müthiş	-10.8429
▁tropik	-10.8429
▁spor	-10.843
▁Ağdaş	-10.843
▁otura	-10.8431
▁köçmüş	-10.8434
▁mimari	-10.8436
▁adlanmış	-10.8441
▁ettiler	-10.8441
▁rekord	-10.8443
▁xalçaları	-10.8443
▁rahatsız	-10.8444
▁mahnını	-10.8446
▁xanımın	-10.8447
▁Quran	-10.8448
▁değişikliği	-10.8458
▁40-	-10.8463
amaz	-10.8466
•	-10.8467
▁molekul	-10.8467
▁İngiltere	-10.8467
▁yaradıb	-10.8467
▁əti	-10.8472
▁hükümet	-10.8479
▁sok	-10.8479
▁yaklaşım	-10.8483
log	-10.8484
▁ifadəsi	-10.8486
▁gösterme	-10.849
▁baza	-10.849
▁hadisəsi	-10.849
▁ger	-10.8491
▁tehlike	-10.8492
▁işleri	-10.8494
▁otağı	-10.8495
▁işində	-10.8499
▁folklor	-10.8499
▁divarı	-10.8505
▁birden	-10.8506
▁Balkan	-10.8506
▁iyirmi	-10.8506
▁mübadiləsi	-10.8507
mental	-10.8508
kça	-10.851
▁sokak	-10.851
▁Martin	-10.8512
▁filialı	-10.8513
▁çəkisi	-10.8514
▁ölən	-10.8514
▁öldürdü	-10.8515
▁qoymuş	-10.8516
▁öğrenmek	-10.8519
▁qayna	-10.8519
lardaki	-10.852
▁universitetləri	-10.8521
örü	-10.8524
iyyəti	-10.8525
cek	-10.8526
▁tərcüməsi	-10.8526
▁benzeri	-10.8529
▁heyət	-10.8529
▁çəkilməsi	-10.853
▁hakimiyyətdə	-10.853
▁hökmdarları	-10.8531
▁gətirmişdi	-10.8534
▁sorunlar	-10.8534
▁bələdiyyə	-10.8536
▁dağıt	-10.8536
ebileceğimiz	-10.854
mik	-10.8541
▁soğuk	-10.8543
▁kollektiv	-10.8543
▁arxiv	-10.8544
▁Vyana	-10.8544
lerimizin	-10.8545
▁elektronik	-10.8546
sur	-10.8546
ləyir	-10.8547
▁sağlığı	-10.8552
▁git	-10.8553
▁birleştir	-10.8557
▁soyu	-10.8558
▁yazılan	-10.8558
▁ettiğim	-10.8568
▁Nic	-10.857
▁xəbəri	-10.8575
umuz	-10.8575
dil	-10.8577
inizi	-10.8578
▁çocuğu	-10.8578
▁katib	-10.8579
▁Şəhərdə	-10.8579
▁Mikayıl	-10.8582
▁Ramazan	-10.8582
▁Bakıxanov	-10.8582
▁Əbdül	-10.8582
▁böyüyü	-10.8582
bt	-10.8583
▁kuvvet	-10.8583
▁qalın	-10.8586
▁verilen	-10.8589
▁Hüseynzadə	-10.8591
▁Devletler	-10.8592
▁kullanıcı	-10.8594
▁Çində	-10.8599
▁hepimizin	-10.8601
▁aparmışdı	-10.8601
▁Nur	-10.8603
▁kitabə	-10.8604
▁xalçalar	-10.8608
mıştım	-10.8611
▁şahmat	-10.8611
▁bilsin	-10.8611
▁daşıyırdı	-10.8613
diğinde	-10.8613
▁etməlidir	-10.8614
ayım	-10.8614
▁yığ	-10.8618
▁atla	-10.8619
▁intellekt	-10.8621
▁Merkuri	-10.8621
▁Texnologiya	-10.8621
▁zayıf	-10.8621
▁obje	-10.8621
▁bilmirdi	-10.8621
▁yetirə	-10.8623
▁axar	-10.8626
▁vurur	-10.8628
▁tanrısı	-10.8629
▁tablo	-10.863
▁şirəsi	-10.8631
saydı	-10.8634
▁partiyası	-10.8636
▁veriler	-10.8637
▁ölçüləri	-10.8638
▁gəlirdi	-10.864
▁bax	-10.8644
▁benimle	-10.8644
▁sürət	-10.8648
▁ayına	-10.8649
▁görünüş	-10.865
▁fayda	-10.8651
▁müəyyənləşdir	-10.8651
▁olmama	-10.8652
▁Səlcuq	-10.8655
▁Pro	-10.8655
▁işlənir	-10.8657
▁hatırla	-10.8657
▁şüphe	-10.8657
▁70-	-10.8659
▁orqan	-10.8659
▁Serbiya	-10.866
▁buçuk	-10.866
▁Heç	-10.8662
▁konuşu	-10.8662
▁evde	-10.8666
▁kəndlərində	-10.8669
▁Fo	-10.8669
▁elementlər	-10.8674
▁əsərlərin	-10.8682
▁toplu	-10.8686
▁pillə	-10.8688
abilen	-10.8689
▁əlamətləri	-10.8692
▁oynamış	-10.8692
rız	-10.8693
▁taxt	-10.8693
▁köy	-10.8698
▁Portuqaliya	-10.8698
▁becəril	-10.8698
▁bəlli	-10.8698
▁istediğiniz	-10.8701
lardır	-10.8702
▁olanı	-10.8702
▁kendisini	-10.8703
▁Dədə	-10.8704
▁əlifbası	-10.871
▁quraq	-10.8712
▁bazası	-10.8715
▁diz	-10.8716
▁bilərsiniz	-10.8716
5-	-10.8718
▁bağları	-10.872
▁inancı	-10.8723
▁nişan	-10.8723
▁görmeye	-10.8728
▁məzar	-10.8734
▁hazırladı	-10.8735
▁çempionatını	-10.8737
▁Köhnə	-10.8737
▁Müstəqil	-10.8737
▁radikal	-10.8737
▁kağıt	-10.8737
▁İldırım	-10.8738
▁Vaxt	-10.8738
▁yayılır	-10.8739
▁dəhşətli	-10.8743
▁alanları	-10.8745
▁istismar	-10.8747
▁əməyi	-10.8749
▁kaza	-10.8751
▁alanında	-10.8755
▁turnir	-10.8756
▁Ələkbərov	-10.8757
▁uğursuz	-10.8758
▁hərəkat	-10.8758
yıp	-10.8761
▁tipik	-10.8762
yacak	-10.8768
▁sorumlu	-10.8775
▁iqtisadiyyatın	-10.8776
▁yazılım	-10.8777
▁nefret	-10.8777
▁tuhaf	-10.8777
▁həddə	-10.8777
▁göreceksiniz	-10.8777
▁görünüşü	-10.8778
▁Hayatı	-10.8779
qal	-10.878
▁elementləri	-10.8781
▁yakıt	-10.8785
▁Sultanov	-10.8785
▁ləqəbi	-10.8786
▁1951-	-10.8792
▁açar	-10.8792
▁pat	-10.8797
▁təriqət	-10.8797
▁sizə	-10.8799
▁yemeği	-10.8799
▁keçdiyi	-10.88
▁Məmmədova	-10.8804
▁kinostudiyası	-10.8807
▁edilmə	-10.8809
▁Ermənilər	-10.8811
▁İste	-10.8811
▁qüllə	-10.8811
▁zonası	-10.8811
dığınız	-10.8813
▁meyvələri	-10.8814
layacak	-10.8816
▁aparıb	-10.8816
▁imtahan	-10.8816
▁ticari	-10.8816
▁səyyah	-10.8816
▁dediler	-10.8816
▁keçmək	-10.8816
▁İlyas	-10.8816
▁Yanvar	-10.8816
▁geliştirme	-10.8817
▁yakında	-10.8818
▁kv	-10.8818
▁görünen	-10.8823
▁təsvirləri	-10.8823
▁etiket	-10.8823
▁Məktəbin	-10.8829
▁dergi	-10.883
▁proseslər	-10.883
▁Bol	-10.8833
▁parkı	-10.8835
▁biləcəyi	-10.8839
fel	-10.884
▁hündürlükdə	-10.8844
▁binaları	-10.8845
▁qanunları	-10.8846
mayacak	-10.8849
fet	-10.885
▁Paşanı	-10.8855
▁Maarif	-10.8856
▁seçenek	-10.8856
▁Sasani	-10.8856
▁bioloji	-10.8857
▁xatırladır	-10.886
▁meşələri	-10.8872
maları	-10.8875
▁kilometre	-10.8877
▁Əliyeva	-10.8878
▁Hiçbir	-10.8878
▁təsirini	-10.888
▁sordum	-10.8881
▁ödeme	-10.8882
▁yönlendir	-10.8886
▁man	-10.8887
▁praktik	-10.8887
▁1995	-10.8887
▁alırdı	-10.8892
lənməsi	-10.8894
laşdırılması	-10.8895
▁İnkişaf	-10.8895
▁nazil	-10.8895
▁spektr	-10.8895
▁Həqiqət	-10.8895
▁çöp	-10.8895
▁suvarma	-10.8895
▁molla	-10.8895
▁nitq	-10.8895
▁qulaq	-10.8896
▁anlaşma	-10.8899
▁Kara	-10.8899
▁kum	-10.8899
▁çaylar	-10.8901
▁1911	-10.8901
▁şeklinde	-10.8904
▁etdirdiyi	-10.8905
▁boyun	-10.8907
▁ndə	-10.8908
▁kəndlərin	-10.8912
▁qrupları	-10.8914
▁demiş	-10.8915
▁teknolojinin	-10.8915
▁sıxlığı	-10.8917
▁ölkəsində	-10.8923
▁dövrlər	-10.8928
▁halk	-10.8935
▁anahtar	-10.8935
▁igid	-10.8935
▁patent	-10.8935
▁İngilizce	-10.8937
▁52	-10.8939
▁denedi	-10.8939
▁oxuduğu	-10.8939
▁caz	-10.8941
▁kullanılan	-10.8945
posta	-10.8947
▁axtarış	-10.8947
ləşmə	-10.8947
▁sevdiğim	-10.8947
▁tələbələri	-10.8948
▁anlaşıl	-10.8949
▁Gel	-10.895
▁çalıştım	-10.8951
▁tayfaların	-10.8951
▁şeydir	-10.8953
▁deyib	-10.8954
▁bireyler	-10.8956
▁publisist	-10.8958
▁əmirləri	-10.8959
▁solo	-10.8965
▁mövcudluğu	-10.8965
▁es	-10.8965
▁bilməmişdi	-10.8967
▁dediği	-10.8967
▁vəziyyətini	-10.8967
▁Həmid	-10.8968
▁formasını	-10.8973
▁bağlan	-10.8973
▁mahal	-10.8974
▁möcüzə	-10.8975
▁zülal	-10.8975
▁gezi	-10.8976
▁Qəzet	-10.8976
medi	-10.8976
▁romantik	-10.8978
▁canavar	-10.8978
▁çempion	-10.8982
▁açılan	-10.8983
▁boğazı	-10.8985
▁şeyden	-10.8985
▁buydu	-10.8986
▁bilin	-10.8988
▁heykəl	-10.899
▁Venera	-10.899
▁önem	-10.8992
▁Sina	-10.8995
▁fəlsəfəsi	-10.8995
▁termin	-10.8997
▁geçiş	-10.8999
▁kür	-10.9004
▁Yu	-10.9007
▁toplumun	-10.9007
▁artırır	-10.9008
▁uzan	-10.9015
▁oxuya	-10.9015
▁düşüb	-10.9015
▁vəsiqə	-10.9015
▁makina	-10.9015
▁Bədi	-10.9016
▁Ses	-10.9017
▁olmayacak	-10.902
▁vuruş	-10.9022
▁çıxmaq	-10.9026
▁Kərbəlay	-10.9028
edici	-10.903
abileceğimiz	-10.9031
▁kapat	-10.9031
▁apardı	-10.9032
▁kaynakları	-10.9034
▁fakültə	-10.9038
▁edirəm	-10.9041
ehr	-10.9045
▁1997	-10.9049
▁karşılaş	-10.9052
▁Elbette	-10.9056
▁Yevlax	-10.9056
▁estetik	-10.9056
▁kasıb	-10.9056
▁yanaşma	-10.9056
▁fərqlənmə	-10.9061
▁don	-10.9061
▁biyoloji	-10.9065
▁rayonda	-10.9067
▁ekle	-10.9067
▁qadının	-10.9067
▁variant	-10.9067
▁tutulmuşdu	-10.9069
▁müharibələri	-10.9069
▁gözəllik	-10.9069
layabilir	-10.907
▁göstərici	-10.9075
▁bugünkü	-10.9077
▁Ermənistanı	-10.9079
ümüz	-10.908
▁bakmak	-10.908
▁okeanı	-10.9087
▁farkı	-10.9091
▁idarəsində	-10.9091
▁yolculuk	-10.9096
▁Abidə	-10.9096
▁talış	-10.9096
▁sonda	-10.9096
▁duygusal	-10.9098
▁hesaplama	-10.91
▁sahibdir	-10.9101
▁dəyişiklik	-10.9104
adə	-10.9106
▁ip	-10.9106
▁Milan	-10.9108
▁üsulları	-10.9112
▁ağaç	-10.9118
▁azalması	-10.9121
▁Gəncəvi	-10.9122
▁olabileceği	-10.9124
▁çocuğun	-10.9128
▁1994	-10.9131
▁güney	-10.9132
▁Şöyle	-10.9137
▁grafik	-10.9137
▁qaranlıq	-10.9137
▁Turizm	-10.9137
▁gez	-10.9138
▁hazırladığı	-10.914
▁şirkətini	-10.914
cak	-10.9142
▁sentyabrında	-10.9142
▁qalınlığı	-10.9142
▁hissələrində	-10.9143
mekte	-10.9146
▁xadim	-10.9149
▁mühitin	-10.9149
▁əsərlərindən	-10.915
▁47	-10.915
▁yolun	-10.9151
▁Bayan	-10.9152
▁dərə	-10.9153
▁salgın	-10.9153
▁tikilməsi	-10.9153
▁mərkəzlərində	-10.9155
▁aparmış	-10.9157
▁təbiəti	-10.9158
▁etrafı	-10.916
▁qayıdı	-10.9161
▁elçi	-10.9161
ime	-10.9162
▁təhlükəsi	-10.9162
nızın	-10.9163
▁Cəfərov	-10.9164
▁Rami	-10.9166
▁bo	-10.9168
▁Şə	-10.9168
▁konuşuyor	-10.9168
▁daşlar	-10.9172
▁süjet	-10.9173
▁düşmə	-10.9173
▁komissiyası	-10.9174
▁dəqiqədə	-10.9175
▁məskəni	-10.9176
▁sizinle	-10.9176
lməsi	-10.9176
▁Mah	-10.9177
▁Beyləqan	-10.9178
▁HIV	-10.9178
▁Kəngərli	-10.9178
▁konstitusiya	-10.9178
▁Xətai	-10.9178
▁web	-10.9178
▁hədis	-10.9178
▁tutduğu	-10.9178
▁görülə	-10.9179
▁rəsm	-10.9182
▁liqa	-10.9185
▁anti	-10.9185
▁post	-10.9189
▁Peterburq	-10.9199
▁kör	-10.9199
▁Kol	-10.92
▁etmədi	-10.9201
▁zal	-10.9202
▁kayıt	-10.9202
▁yılı	-10.9203
▁olmayıb	-10.9203
tdi	-10.9207
▁sinyal	-10.9207
oş	-10.9208
▁məsuliyyət	-10.921
▁yapacağı	-10.9215
▁ideyaları	-10.9217
▁Kabineti	-10.9219
▁Xınalıq	-10.9219
▁Nəsimi	-10.9219
▁dramatik	-10.9219
▁səsvermə	-10.9219
▁şifa	-10.9219
▁mağaza	-10.9219
▁dövrümüzə	-10.9219
▁Nəsir	-10.9219
▁Harika	-10.9219
▁Tunc	-10.9219
▁Cahan	-10.922
▁bıraktı	-10.922
▁Ulu	-10.9221
▁Dadaşov	-10.9222
▁yapabilirsiniz	-10.9222
▁göstərməyə	-10.9223
▁tamaşası	-10.923
▁vəzifələri	-10.9232
ümü	-10.9236
qat	-10.9238
▁Tel	-10.9238
▁dönüşüm	-10.9239
7-	-10.9239
▁evləri	-10.9242
▁qələbəsi	-10.9242
▁silsilə	-10.9243
▁iştirakçıları	-10.9244
üstə	-10.9247
▁bağlaya	-10.9251
▁adalar	-10.9256
▁xor	-10.9256
▁partiyasını	-10.9258
▁fərqlənə	-10.926
▁İngiltərədə	-10.9261
oru	-10.9261
▁vitamin	-10.9263
▁kaba	-10.9268
▁Xa	-10.9279
▁qayıda	-10.9284
▁Nuru	-10.9287
▁məqalələri	-10.9288
▁gazete	-10.9289
▁2014	-10.9293
▁anlaya	-10.9295
▁matematik	-10.9297
▁hafif	-10.9301
▁hicri	-10.9301
▁keşif	-10.9301
▁əhəmiyyətini	-10.9301
▁hamısını	-10.9303
▁şərt	-10.9303
▁um	-10.9303
▁futbolçusu	-10.9304
▁olayı	-10.9307
▁çevrilməsi	-10.9311
▁Eski	-10.9312
▁Bor	-10.9313
▁olmamışdı	-10.9316
▁firma	-10.9322
▁proqramları	-10.9322
▁yaptığınız	-10.9322
▁gelişmiş	-10.9325
▁Sadıq	-10.9327
▁sülaləsini	-10.9332
lerdeki	-10.9334
lerdir	-10.9338
▁Məhəmmədh	-10.9338
▁tədqiqatçı	-10.9339
▁aləmi	-10.9341
▁içmə	-10.9341
▁xoşbəxt	-10.9342
▁əlyazma	-10.9343
▁qoyula	-10.9343
▁Fikr	-10.9343
▁bildirilir	-10.9344
▁çıxışı	-10.9344
▁hərəkətləri	-10.9344
▁Bədən	-10.9345
▁zavod	-10.9347
▁değiştirdi	-10.9348
▁Ayın	-10.9348
▁balaca	-10.935
▁səfiri	-10.935
▁maddəsi	-10.9354
▁am	-10.9356
▁Kız	-10.9361
▁oyuncu	-10.9363
▁başlaması	-10.9366
▁edilməli	-10.9367
altı	-10.937
▁dastanı	-10.9371
▁terk	-10.9371
▁devrim	-10.9375
▁yaklaş	-10.9379
▁etdirilməsi	-10.9384
▁sürdürülebilir	-10.9384
▁Qısa	-10.9384
▁araştır	-10.9385
▁martında	-10.9387
▁təhlükəsizli	-10.9387
▁zorundayız	-10.9387
▁izlə	-10.9391
▁üstüne	-10.9391
▁klubunda	-10.9394
▁redaksiyasın	-10.9394
▁Anna	-10.9395
bər	-10.9398
▁çıxarıla	-10.9398
▁sesleri	-10.94
▁dağlarını	-10.9402
▁olunmasında	-10.9404
▁Anne	-10.941
mıyorum	-10.941
▁torpağı	-10.9415
▁fare	-10.9418
▁Üniversitesi	-10.942
▁oktyabrında	-10.942
▁öne	-10.9422
əlkə	-10.9423
▁nəzər	-10.9423
▁azdır	-10.9426
▁artırmaq	-10.9429
▁Parkı	-10.9433
▁Tarixçi	-10.9433
mis	-10.9437
mden	-10.9438
▁mənzil	-10.9441
▁höküməti	-10.9445
▁Qazi	-10.9447
▁qitə	-10.9448
indeki	-10.9449
▁planetin	-10.9451
ımda	-10.9451
▁qorunu	-10.9453
muştu	-10.9453
▁Şab	-10.9458
▁değerli	-10.9459
▁bulut	-10.946
▁şəhərlər	-10.946
▁ötürü	-10.9467
▁göllər	-10.9468
kommunikasiya	-10.9468
▁toqquşma	-10.9468
▁edip	-10.9468
▁aktivite	-10.9469
▁giderek	-10.947
▁problemlərin	-10.9471
▁cinsel	-10.9471
▁yönetim	-10.9473
▁metod	-10.9475
ara	-10.9477
etti	-10.9477
▁hə	-10.9477
▁ceza	-10.9477
▁yapıyorum	-10.9481
laraq	-10.9481
▁olunmaq	-10.9485
▁məktəblərdə	-10.9488
▁Anti	-10.9488
▁sahilləri	-10.9489
▁yaptığını	-10.949
▁çəkdi	-10.949
▁mahalında	-10.9491
yecek	-10.9494
▁sahələrini	-10.9495
▁26-	-10.9496
▁münaqişə	-10.9497
▁qeydiyyat	-10.9498
je	-10.9504
▁münasibətlərin	-10.9504
hu	-10.9508
▁yapay	-10.9508
▁çoxluğu	-10.9509
▁2015	-10.951
▁olabileceğini	-10.951
▁eyalet	-10.951
▁müşteri	-10.951
▁bekliyor	-10.951
▁göndərildi	-10.951
▁götürmüşdü	-10.9511
▁etkilen	-10.9514
▁çarpa	-10.9514
▁keçirməyə	-10.9516
▁istədiyi	-10.9516
▁depo	-10.9517
▁Kuba	-10.9521
▁amerikalı	-10.9522
▁sit	-10.9526
▁Osmanlılar	-10.9526
▁co	-10.9527
▁olmağı	-10.9527
▁etmeyi	-10.953
▁məmulatı	-10.953
▁yazmaq	-10.9533
yordum	-10.9534
larınızı	-10.9539
▁aklım	-10.9539
▁bənd	-10.954
▁kanun	-10.9541
▁besin	-10.9545
▁Kimya	-10.9545
▁hissettiği	-10.9545
▁həndəs	-10.9547
üəyyən	-10.955
▁evrenin	-10.9552
▁kapitan	-10.9553
▁hakimləri	-10.9553
▁meydanında	-10.9555
▁eşi	-10.9555
▁işlədilir	-10.9556
▁başlaya	-10.9562
▁ənənəsi	-10.9563
▁değiliz	-10.9563
▁açısı	-10.9564
fər	-10.9565
▁buranı	-10.9571
ləşdirilmiş	-10.9572
müddətli	-10.9576
Y	-10.9577
▁art	-10.9578
▁istediği	-10.9579
▁baxış	-10.9581
▁hepiniz	-10.9586
▁dissertasiya	-10.959
▁öğrendik	-10.959
▁kapa	-10.9592
▁ameliyat	-10.9595
▁intihar	-10.9595
▁şifre	-10.9595
▁kahraman	-10.9595
▁oğuz	-10.9595
▁söyləyir	-10.9595
▁yazmağ	-10.9601
▁kökü	-10.9603
▁mənzərə	-10.9606
▁üstə	-10.9607
▁bölgəni	-10.9611
▁ərəbcə	-10.962
▁Əmin	-10.962
▁Ed	-10.9621
▁bağlayır	-10.9623
▁virüs	-10.9625
▁radyo	-10.9627
▁ödül	-10.9628
▁topluluk	-10.9629
meden	-10.9629
▁Ham	-10.9629
▁məhsullarını	-10.963
▁İspan	-10.9636
▁Məryəm	-10.9638
▁maqnit	-10.9638
▁şiir	-10.9638
▁müstə	-10.9638
▁xəbərdar	-10.9639
▁Eş	-10.9642
▁getirme	-10.9644
▁Kürd	-10.9645
▁lent	-10.9647
▁şehrin	-10.9647
▁digəri	-10.9647
▁gözləri	-10.9649
▁yayında	-10.9649
▁İkincisi	-10.9654
kop	-10.9655
▁yığması	-10.9659
▁birləş	-10.966
▁fotoğrafı	-10.9663
▁yapıldı	-10.9663
▁kalıyor	-10.9665
▁etməkdədir	-10.967
▁ittifaqı	-10.968
▁sağlar	-10.9681
▁Röv	-10.9681
▁rəngarəng	-10.9681
▁Hitler	-10.9681
▁Elxan	-10.9683
▁günlərdə	-10.9684
▁bürc	-10.9685
▁obrazları	-10.9687
▁geldiğinde	-10.9687
▁Kat	-10.9689
▁yatağı	-10.9689
▁kom	-10.9691
▁inanç	-10.9692
▁təhlil	-10.9693
▁85	-10.9694
laşdırma	-10.9694
▁Bize	-10.9696
▁hap	-10.9696
▁axtar	-10.9699
▁başlanması	-10.9702
▁mövqeyini	-10.9703
▁yarpaq	-10.9703
▁oluşturuyor	-10.9704
▁yığı	-10.9706
▁təminatı	-10.9707
▁Fondu	-10.9707
▁artdı	-10.9709
ştır	-10.971
▁miktar	-10.9711
lıkla	-10.9713
▁detay	-10.9713
▁Muzeyi	-10.9713
▁önemlidir	-10.9719
▁açan	-10.972
▁1988	-10.972
▁institutu	-10.9722
▁şüşə	-10.9724
▁Afganistan	-10.9724
▁dərində	-10.9724
▁Günü	-10.9725
▁Vəliyev	-10.9725
▁oğul	-10.9725
▁həvəskar	-10.9726
▁açtı	-10.9726
▁başlanır	-10.9726
▁qanunvericilik	-10.9728
▁ulaşma	-10.9728
▁kaybol	-10.9728
▁Göl	-10.9728
▁Okul	-10.9729
▁hissələr	-10.973
▁pedaqoq	-10.9732
▁alçaq	-10.9733
▁Lev	-10.9733
▁bitirən	-10.9735
▁qolunu	-10.9737
▁Cümhuriyyətini	-10.9737
▁kullandığı	-10.9739
▁Əlizadə	-10.9741
▁Ermənistanda	-10.9743
▁kurtul	-10.9744
▁41	-10.9744
▁koyar	-10.9745
həsə	-10.9747
▁Art	-10.9747
▁faktor	-10.9747
▁aklı	-10.9748
▁qiymətlər	-10.9748
▁öldürülmüşdü	-10.975
▁Bas	-10.9753
▁kitle	-10.9755
layıp	-10.9755
▁çata	-10.9756
▁özgür	-10.9757
▁düşə	-10.9758
▁27-	-10.976
lıkta	-10.9762
▁dolları	-10.9765
▁Türkmən	-10.9767
▁Ağstafa	-10.9767
▁restoran	-10.9767
▁uluslararası	-10.9767
▁kemik	-10.9768
ilebilir	-10.9769
▁zəmin	-10.977
▁fizik	-10.9771
▁qurum	-10.9772
çuluq	-10.9772
▁oluşturmak	-10.9772
▁uyar	-10.9773
▁mahnısını	-10.9774
▁ayar	-10.9776
ıldığı	-10.9776
dadır	-10.9778
▁təkan	-10.9778
▁yaratmağ	-10.9778
▁uygulan	-10.9778
▁kıl	-10.978
▁turşusu	-10.9782
▁ideya	-10.9786
malı	-10.9786
▁mənbələri	-10.9789
meleri	-10.979
▁Kişi	-10.979
▁bildiyi	-10.9795
▁cərəyanı	-10.9796
▁dekabrında	-10.9796
▁respublikada	-10.9797
▁taki	-10.9803
▁bilərik	-10.9806
sna	-10.9809
▁95	-10.9809
▁Erkə	-10.981
▁həssas	-10.9811
▁bölgüsü	-10.9811
▁Usta	-10.9811
▁kalk	-10.9812
▁ülkelerin	-10.9812
,3	-10.9816
layarak	-10.9817
▁olunma	-10.9818
▁toplusu	-10.9822
▁qəhrəmanları	-10.9824
▁mühafizəsi	-10.9827
▁komandanlığı	-10.9828
▁anlattı	-10.983
▁1500	-10.983
nizin	-10.9832
▁seçme	-10.9832
▁gövdə	-10.9834
▁Sonun	-10.9834
▁təbiətin	-10.9837
▁illərə	-10.9839
▁anlar	-10.9839
▁nesne	-10.9844
▁bilmişdi	-10.9844
▁istiyorlar	-10.985
▁xanlıq	-10.985
▁qolları	-10.9851
opol	-10.9853
▁Türküstan	-10.9854
▁sərnişin	-10.9854
▁dürüst	-10.9854
▁önümüzde	-10.9854
▁palçıq	-10.9854
▁debüt	-10.9855
▁adalet	-10.9856
▁hasil	-10.9856
larsa	-10.9858
▁əmin	-10.9861
▁küçü	-10.9862
▁Həzrət	-10.9863
▁göndərilə	-10.9864
▁hazırlayır	-10.9865
liyyə	-10.9868
▁hastane	-10.9869
▁göstərilmişdi	-10.9872
▁ölmüş	-10.9872
▁Kor	-10.9874
▁bilmek	-10.9875
▁For	-10.9878
birini	-10.9881
larındaki	-10.9882
▁işləmək	-10.9884
▁Əsəd	-10.9889
▁azaltma	-10.989
▁məntiqi	-10.9892
▁Boy	-10.9892
▁etməkdən	-10.9892
▁gerçeklik	-10.9898
▁Microsoft	-10.9898
▁məharətl	-10.9898
▁Lider	-10.9898
▁qərargahı	-10.9899
▁toplanması	-10.99
▁kanal	-10.9902
▁çiy	-10.9902
▁tapıla	-10.9902
▁bey	-10.9903
▁ailədə	-10.9904
▁Həmzə	-10.9907
tta	-10.9907
▁Ser	-10.9913
▁filmlərin	-10.9914
▁operator	-10.9918
▁olduk	-10.992
▁xəttini	-10.9921
▁hesabat	-10.9921
▁şəxsiyyətlər	-10.9922
▁seçkilərində	-10.9922
▁avtomat	-10.9922
▁kaldırı	-10.9922
ebilmek	-10.9922
▁paylaşmak	-10.9923
▁ruhani	-10.9923
▁mükafatını	-10.9925
▁günlərində	-10.9925
▁tutmaq	-10.9925
▁Muzeyin	-10.9927
▁zamanla	-10.9932
şünaslı	-10.994
▁nəsr	-10.994
abilirim	-10.994
▁damar	-10.9942
▁əzəmət	-10.9942
▁Atatürk	-10.9942
▁Şöhr	-10.9942
▁Qərib	-10.9943
şir	-10.9944
▁Təsərrüfatı	-10.9945
▁düşündü	-10.9945
▁şəri	-10.9946
ımızın	-10.9948
ire	-10.9948
▁1,5	-10.9949
▁açılmış	-10.9951
▁kıyı	-10.9954
▁Veri	-10.9954
▁rollar	-10.9955
▁Cəmiyyətini	-10.9956
▁prinsipləri	-10.9957
▁çıkı	-10.9957
▁bolşeviklər	-10.9958
mizle	-10.9959
▁düny	-10.996
lıyoruz	-10.9963
▁qoyan	-10.9965
ual	-10.9965
▁valideynləri	-10.9967
▁qon	-10.9971
ex	-10.9971
▁ham	-10.9971
▁Yaponiyada	-10.9971
▁vasitələr	-10.9972
▁Zeynalov	-10.9973
▁koku	-10.9975
▁Daşkə	-10.9976
ımızı	-10.9979
▁adıdır	-10.998
▁başlanğıcı	-10.998
▁maliyet	-10.9981
▁tənqidi	-10.9982
til	-10.9982
▁tasarımı	-10.9983
▁yenilik	-10.9983
▁hayatımı	-10.9985
trü	-10.9986
▁rəhbərləri	-10.9986
▁Bilirsiniz	-10.9986
▁altyapı	-10.9986
▁məzhəb	-10.9986
▁1898	-10.9987
▁transfer	-10.9987
▁Gördüğünüz	-10.9988
▁təhsilin	-10.9988
▁Vəkilov	-10.9988
▁Rafi	-10.9989
▁Şirkətin	-10.9992
▁prosesini	-10.9993
▁çətindir	-10.9994
▁oyununda	-10.9994
▁çoğunlukla	-10.9996
▁qalmaqda	-10.9997
▁tikilə	-10.9997
▁alacak	-10.9997
▁64	-10.9998
▁mantıklı	-10.9998
▁qətl	-11.0002
▁nevi	-11.0003
▁Elektron	-11.0003
▁oxuyur	-11.0003
▁köçür	-11.0011
▁müalicəsi	-11.0011
▁məlumatların	-11.0013
nur	-11.0014
▁tık	-11.0015
▁fazlasını	-11.0016
acaktır	-11.0017
▁topluluğu	-11.0018
▁savaşı	-11.0018
▁alını	-11.0021
miştir	-11.0027
lıyım	-11.003
▁birlik	-11.003
▁zihni	-11.0031
▁ayakkabı	-11.0031
▁intensiv	-11.0031
▁kommunist	-11.0031
▁təhrif	-11.0031
▁etdirib	-11.0031
▁bilinen	-11.0036
▁torpaqlarında	-11.0038
▁islahatlar	-11.0038
▁dünyanı	-11.0043
▁anbarı	-11.0045
lub	-11.0047
▁Bill	-11.0051
▁yerler	-11.0052
▁yüzyılda	-11.0053
▁karşılaştır	-11.0053
▁yaşaması	-11.0054
iyordu	-11.0055
▁hikayeler	-11.0057
Q	-11.0062
▁Para	-11.0062
▁his	-11.0065
▁verecek	-11.0068
▁hək	-11.0072
▁hadisəni	-11.0074
▁Əzim	-11.0075
▁Şahrux	-11.0076
▁İtaliyada	-11.0076
▁məs	-11.0077
▁olabilecek	-11.008
▁saniyə	-11.008
▁eğitimi	-11.0081
▁Mari	-11.0084
▁yaşamak	-11.0087
▁unut	-11.0088
▁ayağa	-11.0088
▁toxum	-11.0089
▁doğrusu	-11.0093
▁ötesinde	-11.0094
▁geldik	-11.0096
▁Anası	-11.0099
▁yeti	-11.0101
▁korumak	-11.0102
▁Kay	-11.0114
▁karıştır	-11.0116
razılıq	-11.0117
▁konum	-11.0118
üseyn	-11.0118
▁türleri	-11.0119
isti	-11.0119
▁ulus	-11.012
▁hatırlıyorum	-11.0122
▁artırılması	-11.0122
▁satiri	-11.0123
▁kəsilmiş	-11.0123
▁sahəni	-11.0125
▁Boz	-11.0127
▁kavram	-11.0127
▁ürünleri	-11.0127
▁pərdə	-11.013
madan	-11.0135
▁Rome	-11.0135
▁səslə	-11.0136
nuzu	-11.0136
▁Elçin	-11.0136
▁birbirin	-11.0137
▁Pas	-11.0139
▁məskunlaşmışdı	-11.014
▁varlığını	-11.0142
▁fondu	-11.0146
▁sırası	-11.0146
▁yanacaq	-11.015
par	-11.0151
▁adlandır	-11.0154
▁rapor	-11.0158
▁olmuştu	-11.016
▁İngiliz	-11.0163
▁Ştatları	-11.0163
▁olasılık	-11.0164
▁Xoy	-11.0165
▁Culfa	-11.0165
▁gələcəyi	-11.0165
▁məskunlaşdı	-11.0165
▁qənaət	-11.0165
▁sivil	-11.0165
▁Bülbül	-11.0166
yanı	-11.0167
▁şok	-11.0168
▁ictimaiyyət	-11.0168
▁ölçüde	-11.0172
▁Can	-11.0172
▁yönde	-11.0176
▁Zərdabi	-11.0176
tığımız	-11.0178
liğine	-11.0178
▁şiş	-11.0181
▁sahibləri	-11.0181
▁for	-11.0182
▁Tar	-11.0185
▁yanıt	-11.0187
▁Bitki	-11.0187
▁21-	-11.0189
▁qurğuları	-11.0189
▁qalması	-11.019
▁İşçi	-11.0191
▁naxış	-11.0192
▁sizlere	-11.0193
▁sarayda	-11.0194
▁kural	-11.0196
▁Önce	-11.0197
▁Yazı	-11.0198
▁yoluyla	-11.0198
hur	-11.02
▁adasında	-11.0201
▁yüksəkliyi	-11.0201
leyerek	-11.0202
▁metro	-11.0206
▁keçmişdi	-11.0206
▁Sal	-11.0207
▁1984	-11.0207
▁metrə	-11.0207
▁Jurnalistlər	-11.0209
▁zövq	-11.0211
▁ünsiyyət	-11.0211
▁yaşamı	-11.0211
▁qazanmışdı	-11.0218
ıq	-11.0219
▁gurur	-11.0219
▁başçıları	-11.022
▁Sonuncu	-11.0221
▁dərsləri	-11.0222
yseniz	-11.0225
▁digərləri	-11.0226
▁diyarı	-11.0228
▁sala	-11.023
▁Nik	-11.023
ince	-11.0231
▁tabeliyində	-11.0233
▁dolduru	-11.0233
▁Xristian	-11.0235
▁Aile	-11.0235
▁verilmə	-11.0239
▁təşkilatını	-11.0243
▁vermə	-11.0245
▁sorma	-11.0245
▁qoyulu	-11.0247
▁xəstəliklərin	-11.0247
▁etibarlı	-11.0253
▁1975	-11.0254
▁yumşaq	-11.0256
▁Aristotel	-11.0256
▁Londra	-11.0256
▁Təxmin	-11.0256
▁qaçqın	-11.0256
▁çağrı	-11.0256
▁yönel	-11.0258
▁yanğın	-11.0258
▁kosmos	-11.0259
▁rəqsi	-11.0259
lend	-11.0259
▁gerekirse	-11.026
▁başarısız	-11.0261
▁üzünü	-11.0266
▁gittik	-11.0267
▁kitabda	-11.0268
ts	-11.027
layabiliriz	-11.0271
▁camaatı	-11.0271
▁kapalı	-11.0273
▁neyin	-11.0275
syonu	-11.0276
luyor	-11.0278
▁atlı	-11.0283
▁dek	-11.0283
▁kül	-11.0287
▁vermir	-11.0287
▁xatirəsin	-11.0287
▁dediğimiz	-11.0288
▁məşğuliyyət	-11.0288
▁Frans	-11.0295
▁Vəzir	-11.0299
▁yaratı	-11.0301
▁Ceyms	-11.0302
▁şeker	-11.0302
▁cinsiyet	-11.0304
▁ofis	-11.0307
▁elektro	-11.0308
▁təbliğat	-11.0308
▁işlədil	-11.031
▁tac	-11.031
▁22-	-11.0312
▁pyesi	-11.0316
ırken	-11.0319
▁deli	-11.032
▁Qo	-11.0322
▁Rey	-11.0322
▁proseslərin	-11.0325
▁xidmətlər	-11.0327
▁Yara	-11.0327
▁Ken	-11.0328
▁çağırı	-11.0328
▁görevi	-11.033
▁Is	-11.0331
▁çalışması	-11.0333
lerimizde	-11.0333
▁iştirakçı	-11.034
▁tövsiyə	-11.0348
▁Window	-11.0348
▁tespit	-11.0348
▁əzab	-11.0348
▁yargı	-11.0348
▁parlak	-11.0349
▁üzəri	-11.0349
▁2-3	-11.0353
▁əyalətini	-11.0356
▁hali	-11.0358
▁diyorum	-11.0358
▁minə	-11.036
▁Wi	-11.036
▁edilməyə	-11.036
▁qazandığı	-11.0362
▁hareketi	-11.0363
▁yo	-11.0364
qəsd	-11.0365
▁Fai	-11.0369
▁silahları	-11.0369
▁Pat	-11.037
▁çalıştığımız	-11.0371
ımın	-11.0375
▁nüfus	-11.0378
▁oluşturma	-11.0379
▁adlandırır	-11.0383
▁anlayabil	-11.0386
iqtisadi	-11.0386
▁1986	-11.0391
▁evlilik	-11.0392
▁şəhristanı	-11.0394
▁optik	-11.0394
▁bilgileri	-11.0394
▁cümle	-11.0394
▁tədqiqatların	-11.0395
▁edebilirsiniz	-11.0397
▁dənizdə	-11.0402
▁mübahisə	-11.0402
▁öykü	-11.0403
▁dışarıda	-11.0404
▁dağlarında	-11.0406
▁mah	-11.0407
liler	-11.041
▁56	-11.041
▁buluş	-11.0411
leniyor	-11.0412
▁metodu	-11.0415
qanlı	-11.0417
▁qoruya	-11.0421
▁birləşdi	-11.0421
▁binaların	-11.0422
▁başlanğıc	-11.0422
▁oluş	-11.0427
▁ayrılması	-11.0428
▁düşündüğüm	-11.0429
▁olanak	-11.0432
ağac	-11.0439
▁öğrenciler	-11.044
▁Niderland	-11.044
▁rəqabət	-11.044
▁dekorativ	-11.044
▁Ədəbi	-11.044
▁Belarus	-11.0441
▁seçilməsi	-11.0441
▁Kino	-11.0441
▁aktif	-11.0441
▁aparırdı	-11.0445
▁1920	-11.0445
▁pop	-11.0447
ebilirim	-11.045
▁duyar	-11.045
▁bakıyor	-11.0451
▁İtalyan	-11.0456
▁Rüstəmov	-11.0457
▁sağlama	-11.0457
▁avqustunda	-11.0461
▁ağzı	-11.0461
lenmesi	-11.0462
▁noyabrında	-11.0465
▁inanma	-11.0467
▁sevir	-11.0467
▁Yerdə	-11.0471
▁başlanan	-11.0473
▁filminin	-11.0473
▁müharibələr	-11.0478
▁mübarizəsi	-11.0481
▁1973	-11.0485
▁Arş	-11.0486
▁Mixail	-11.0487
▁NATO	-11.0487
▁məhkum	-11.0487
▁nükleer	-11.0487
▁Şərəf	-11.0487
▁oksigen	-11.0487
▁qarışığı	-11.0487
▁Albert	-11.0487
üne	-11.0489
▁yəhudilər	-11.0493
▁sülalə	-11.0495
ladım	-11.0496
▁1909	-11.0498
▁Hepsi	-11.0506
▁içer	-11.0506
▁dairəsində	-11.0507
▁düyü	-11.0507
▁Pol	-11.051
▁örtülmüşdü	-11.0511
▁kuralları	-11.0512
▁olmadığından	-11.0513
ladık	-11.0514
▁edəcəyi	-11.0515
▁seni	-11.0516
▁dikkatli	-11.0518
▁çalışdı	-11.052
▁çılgın	-11.0522
▁şirkətin	-11.0527
▁kok	-11.0532
▁qoy	-11.0532
▁çat	-11.0533
▁Facebook	-11.0533
▁bənzəyir	-11.0533
▁Sülh	-11.0533
▁federal	-11.0535
▁ifasında	-11.0535
▁mimar	-11.0536
▁çıkarmak	-11.0536
▁vulkan	-11.0537
▁uğradı	-11.0539
▁məzarı	-11.0539
▁yaradılmasında	-11.0539
▁vəkil	-11.0539
▁göndərilmişdi	-11.054
▁olunmasını	-11.0542
▁şerlər	-11.0543
▁yamacında	-11.0545
▁ölkəsini	-11.0548
0.000	-11.0549
▁faktik	-11.055
▁süqut	-11.055
▁kredit	-11.0553
▁analizi	-11.0554
▁olabilirsiniz	-11.0554
▁dokuz	-11.0555
▁əşya	-11.0556
▁Cu	-11.0556
▁çekme	-11.0556
▁gerekti	-11.0557
▁Çempionatı	-11.0559
▁oxuyu	-11.0559
▁yetişkin	-11.0562
▁artist	-11.0562
▁qaldığı	-11.0563
▁xanımı	-11.0564
▁ehtiyatı	-11.0565
▁girme	-11.0566
▁zamana	-11.0567
▁kub	-11.0568
▁peyğəmbəri	-11.0569
▁dillərdə	-11.0569
laşması	-11.0571
hvil	-11.0575
▁arkadaşı	-11.0576
▁tədbirlərin	-11.0576
▁rəqibi	-11.0577
▁arkasında	-11.0579
▁okeanın	-11.058
▁tırman	-11.058
▁səfirliyi	-11.0581
▁balina	-11.0582
▁mutluluk	-11.0582
▁Livan	-11.0585
▁önüne	-11.0588
▁otel	-11.0589
▁ölme	-11.0592
ladığımız	-11.0594
▁təhlükəsizliyi	-11.0595
▁maraqla	-11.0595
▁bəs	-11.0597
▁görüldü	-11.0598
60	-11.0598
▁çalışmalar	-11.0602
birinin	-11.0603
▁dağılması	-11.0606
▁tədbirləri	-11.0606
▁diğerleri	-11.0609
▁bağımlı	-11.061
▁etməsini	-11.0611
▁xaricində	-11.0611
▁grubu	-11.0612
▁qura	-11.0613
▁Lin	-11.0617
▁konsertlər	-11.0617
larımızda	-11.0618
▁performans	-11.062
▁xüsusiyyətlər	-11.0622
▁Bey	-11.0622
▁misin	-11.0624
▁aprelində	-11.0625
▁1979	-11.0626
▁qalaktika	-11.0627
▁tələffüz	-11.0627
▁Güzel	-11.0627
▁Zakir	-11.0628
▁1950	-11.0628
▁gelişmekte	-11.0628
▁Elektrik	-11.0628
▁silahlar	-11.0629
▁olmamış	-11.0633
▁Samu	-11.0633
▁əski	-11.0634
▁məbləğ	-11.0637
▁sahibliyi	-11.0637
▁Fər	-11.0638
▁hissələrini	-11.0639
▁robotlar	-11.064
▁Tələbə	-11.0641
▁Konstitusiya	-11.0642
▁seyr	-11.0643
▁Cam	-11.0643
▁yansıt	-11.0646
üzə	-11.0646
▁nı	-11.0648
▁ölçek	-11.0648
▁teatrda	-11.0648
▁stadionun	-11.0649
▁təməl	-11.0651
▁önündə	-11.0654
▁təyinatl	-11.0654
▁yürüt	-11.0657
▁uyan	-11.0659
▁çalışırlar	-11.0659
▁yaza	-11.066
▁sümükləri	-11.0661
▁keçidi	-11.0662
▁hayata	-11.0667
▁büyüt	-11.0672
▁hüquqlarını	-11.0673
▁ihtiyaçları	-11.0674
▁nüfusu	-11.0674
▁www	-11.0675
▁Şekspir	-11.0675
▁epey	-11.0675
▁Türbə	-11.0675
▁sürece	-11.0675
▁kuzey	-11.0676
▁qoymaq	-11.0676
▁həva	-11.0676
▁qırğın	-11.0678
▁Məhkəmə	-11.0683
▁məmur	-11.0688
▁Afrikalı	-11.0688
▁müstəqilliyi	-11.0689
▁parlamentin	-11.0691
▁tutumu	-11.0693
▁kəndli	-11.0703
▁mor	-11.0704
▁qatar	-11.071
▁şekillendir	-11.0712
▁teknolojiyi	-11.0713
▁halka	-11.0714
▁rəvayətlər	-11.0714
▁değişme	-11.0716
▁51	-11.0716
▁deneyimi	-11.0717
▁inceleme	-11.0718
▁dağıdı	-11.0719
▁göstəriciləri	-11.0721
▁Aprel	-11.0722
▁katıl	-11.0725
leştirmek	-11.0726
▁Nor	-11.0727
▁komissiya	-11.0727
tör	-11.0727
▁oxuyan	-11.0732
▁ostanı	-11.0733
▁İrlandiya	-11.0733
▁Ru	-11.0734
▁ey	-11.0735
▁Bazıları	-11.0736
▁çıxdığı	-11.0739
▁xəzinəsi	-11.074
▁tarafında	-11.074
▁bölgede	-11.0743
▁Dedi	-11.0745
▁yapılması	-11.0746
▁qəbilə	-11.0748
▁layihələr	-11.0748
▁bilməsi	-11.0748
▁oxumağ	-11.0748
▁işle	-11.0748
▁otaqları	-11.0748
▁orbit	-11.075
▁aparıcısı	-11.0751
▁müsəlmanların	-11.0752
▁götürülmüşdü	-11.0754
▁ideyası	-11.0755
▁matç	-11.0756
▁organizasyon	-11.0757
▁keçmişdə	-11.0757
▁ziyalıları	-11.0761
qor	-11.0761
▁Burda	-11.0761
▁karşısında	-11.0765
▁istey	-11.0766
▁yaptılar	-11.077
▁Əh	-11.077
▁lütfen	-11.077
▁subyekt	-11.077
▁Zülfüqar	-11.077
▁salmaq	-11.0772
▁Söyle	-11.0773
▁Axı	-11.0775
▁kullanıyoruz	-11.0775
▁qurmaq	-11.0775
▁yarısını	-11.0777
▁ayrılı	-11.0778
▁isterim	-11.0778
▁1904	-11.0779
10	-11.0783
▁hekayəsi	-11.0784
▁standartları	-11.0785
▁artış	-11.0787
▁Romada	-11.0788
▁müəllimlər	-11.0791
4-	-11.0792
▁olmaktan	-11.0804
▁kültürü	-11.0805
bel	-11.0806
▁respublikamız	-11.0807
▁yanvarında	-11.0809
▁Məkkə	-11.0809
▁hakları	-11.0813
▁ters	-11.0814
▁bişiril	-11.0815
▁BDU	-11.0818
▁Monqol	-11.0818
▁konferans	-11.0818
▁müsahibə	-11.0818
▁qabarıq	-11.0818
▁azalır	-11.0818
▁vəziri	-11.0819
ılıyor	-11.0819
▁danışan	-11.0819
▁vaka	-11.0821
▁sembol	-11.0821
▁oluşturu	-11.0828
▁görebil	-11.0829
▁harcama	-11.0829
▁qırı	-11.0834
▁vermədi	-11.0838
istik	-11.0841
▁simvol	-11.0842
▁koşu	-11.0843
▁aşk	-11.0846
▁görünmə	-11.0847
▁potansiyel	-11.0848
▁Ölüm	-11.0848
▁göstəricisi	-11.0849
şık	-11.0849
ləşdirilməsi	-11.0849
▁alıcı	-11.0851
▁bilinə	-11.0852
▁Rau	-11.0853
▁kullandığımız	-11.0853
▁komm	-11.0858
▁bədənin	-11.0859
▁Sta	-11.086
▁oyunlar	-11.0861
▁istedi	-11.0863
▁kullanımı	-11.0863
▁göstərişi	-11.0863
▁Urartu	-11.0867
▁Məmlük	-11.0867
▁Teknoloji	-11.0867
▁Ədirnə	-11.0868
red	-11.0869
▁otuz	-11.0871
kəmli	-11.0872
▁məzunu	-11.0872
▁siyasətçi	-11.0873
laşdırılmış	-11.0873
▁şimdiye	-11.0875
▁görürdü	-11.0877
▁tor	-11.0879
▁yaratıyor	-11.088
▁müəllimlik	-11.0881
▁kainat	-11.0881
yalım	-11.0885
▁qışı	-11.0885
kte	-11.0886
imde	-11.0887
▁şehirler	-11.0888
▁imkanlar	-11.0888
▁suçlu	-11.0889
diklerini	-11.0891
▁trilyon	-11.0894
▁harada	-11.0895
vant	-11.0896
ilmesi	-11.0899
▁girişim	-11.0903
▁fikirlərini	-11.0904
▁bildir	-11.0906
▁döş	-11.0914
▁Özünü	-11.0914
▁uğuru	-11.0915
▁Fazil	-11.0915
▁NASA	-11.0915
▁nifrət	-11.0915
▁qəzəb	-11.0915
▁vitse	-11.0915
▁Xankəndi	-11.0915
▁Əkinçi	-11.0915
▁vəzifələrdə	-11.0915
▁Əyyub	-11.0916
▁endüstri	-11.0916
▁yoldaşları	-11.0917
▁Arran	-11.092
▁xanımla	-11.0921
▁hissediyor	-11.0921
▁58	-11.0926
▁girə	-11.0928
▁təlimi	-11.0931
meyecek	-11.0932
▁Cəm	-11.0935
▁şərtlər	-11.0936
▁değeri	-11.0937
▁dəyişi	-11.0938
▁katılım	-11.094
▁edilme	-11.0941
▁vətəndaşı	-11.0941
▁evlər	-11.0944
▁qət	-11.0945
▁tat	-11.0947
▁oyunlarında	-11.0948
▁magistr	-11.0952
▁bahsetmek	-11.0952
▁ədəbiyyatda	-11.0954
▁memarlığı	-11.0955
▁Şirkət	-11.0958
▁aldıqda	-11.0964
▁qəribə	-11.0964
▁ediliyor	-11.0964
▁yarışı	-11.0965
▁vermeye	-11.0965
▁moda	-11.0966
▁dəyişmə	-11.0967
▁sosialist	-11.0969
▁Leon	-11.0971
▁gücləndir	-11.0971
▁yaşamaq	-11.0972
▁bulmaya	-11.0974
▁rəy	-11.0975
▁177	-11.0977
▁hastalıklar	-11.0977
.5	-11.098
▁qazan	-11.0983
▁yılın	-11.0983
▁düzenle	-11.0986
▁siyahı	-11.0992
▁məclisi	-11.0993
nra	-11.0994
likten	-11.0994
jen	-11.0998
▁nəci	-11.1001
tum	-11.1001
▁seçimi	-11.1007
▁sayında	-11.1008
▁yaranmasında	-11.1012
▁zadəgan	-11.1013
▁körpə	-11.1013
coğrafi	-11.1014
▁cizgi	-11.1014
▁öd	-11.1016
▁koyma	-11.1016
▁Nəbi	-11.1016
▁nəzəriyyəsini	-11.1017
▁bakarak	-11.1022
▁dairə	-11.1023
▁diyoruz	-11.1024
▁itir	-11.1025
▁yöntemi	-11.1026
▁kaybetti	-11.1026
▁istiqamətləri	-11.1027
mıyoruz	-11.1027
▁şəkilləri	-11.103
▁Tər	-11.1031
▁ucunda	-11.1032
▁yapacağım	-11.1032
aşa	-11.1033
▁məqaləsi	-11.1034
lıkları	-11.1034
▁kullanan	-11.1037
▁qəhrəmanlıq	-11.1041
▁çevrilə	-11.1041
▁yaşamağ	-11.1043
▁bazasında	-11.1044
lenen	-11.1044
▁keçdikdə	-11.1046
▁hərfi	-11.1048
önü	-11.1052
▁tağ	-11.1052
▁artım	-11.1052
cim	-11.1053
▁ov	-11.1057
▁varlık	-11.1057
▁haklı	-11.1058
▁çözümler	-11.1058
▁göndərmişdi	-11.1058
▁Sizi	-11.106
▁açıkça	-11.1061
▁karışık	-11.1062
▁Mədinə	-11.1062
▁Nəzər	-11.1062
▁salınması	-11.1063
▁Şamaxıda	-11.1064
▁1987	-11.1064
▁bakıp	-11.1065
likte	-11.1066
ləyə	-11.1066
▁düzey	-11.1066
▁yaşıyoruz	-11.1069
▁mərasimində	-11.1072
▁Uran	-11.1076
lerce	-11.1077
▁özelliği	-11.1078
▁Tele	-11.1079
ydim	-11.1079
mamış	-11.1081
▁Toma	-11.1083
▁ayağı	-11.1084
▁şeydi	-11.1087
▁stansiya	-11.1088
ılmaz	-11.109
▁xəstəlikləri	-11.1093
▁Antoni	-11.1095
▁hökumətini	-11.1098
▁bulur	-11.11
▁çalıştır	-11.1101
▁And	-11.1102
▁birinde	-11.1103
▁Kam	-11.1103
▁inanır	-11.1104
▁yarımadasında	-11.1106
▁ustaları	-11.1107
▁əksəriyyətini	-11.1109
▁Bal	-11.1111
▁hökmü	-11.1111
▁cəza	-11.1112
▁taklit	-11.1112
▁Dörd	-11.1112
▁palıd	-11.1113
▁harf	-11.1113
▁tələbəsi	-11.1114
▁daire	-11.1126
manız	-11.1127
▁kəndlilər	-11.1131
▁öğretmenler	-11.1132
▁sənə	-11.1133
▁Şərqin	-11.1133
▁adlandırırdı	-11.1134
▁maliyeti	-11.1134
▁sərgi	-11.1136
▁amil	-11.1137
▁1902	-11.1139
▁istedik	-11.1139
▁Demokrat	-11.114
▁sonrası	-11.1142
məkdədir	-11.1143
▁müziği	-11.1145
▁çəkmə	-11.1148
▁qovuş	-11.1149
▁mayında	-11.1151
abildiği	-11.1152
▁olabil	-11.1153
▁türkcə	-11.1155
▁artmışdı	-11.1155
▁desə	-11.1155
sever	-11.1159
ədək	-11.116
▁qurşağı	-11.1161
▁bakalavr	-11.1162
▁kablo	-11.1162
▁Əfşar	-11.1162
▁1982	-11.1162
▁Uilyam	-11.1162
▁Həmədan	-11.1162
lerse	-11.1162
▁şeylər	-11.1163
▁qalxan	-11.1165
▁edebiliriz	-11.1165
▁Alfa	-11.1166
▁Ax	-11.1166
▁anlamıyla	-11.117
▁müsabiqəsin	-11.117
▁Məclis	-11.1172
▁Rusiyası	-11.1173
▁eğilim	-11.1175
▁firması	-11.1176
▁musun	-11.1176
▁zədə	-11.1181
▁yarışları	-11.1188
▁ünvan	-11.1188
▁ardı	-11.1189
▁tala	-11.1189
▁engelli	-11.1191
▁Albom	-11.1194
▁nereden	-11.1195
▁alırlar	-11.1197
▁düzenleme	-11.12
▁torpağ	-11.1202
▁ağırlığı	-11.1205
▁turnirin	-11.1205
▁Hasta	-11.1206
▁qayıdan	-11.1208
▁protein	-11.1211
▁sandalye	-11.1212
▁tıbbi	-11.1212
▁cerrah	-11.1212
▁ideoloji	-11.1212
ərgüş	-11.1212
▁sinql	-11.1213
▁batil	-11.1214
▁kulak	-11.1214
▁publisistik	-11.1215
▁işlənməsi	-11.1217
▁bahsed	-11.1217
ium	-11.1217
▁kriz	-11.1218
▁ihtiyacınız	-11.1219
▁İvan	-11.1222
▁fənn	-11.1222
▁karşılık	-11.1228
▁yapabileceği	-11.1229
▁suyunu	-11.1229
▁ürəyin	-11.1231
ırsınız	-11.1233
▁fevralında	-11.1236
▁bilmədiyi	-11.1236
▁müəlliflər	-11.1236
▁olanların	-11.1241
▁taxtın	-11.1246
▁layihəsini	-11.1247
▁tarixçiləri	-11.1247
▁kişiye	-11.1249
▁Aslanov	-11.1251
▁oyunlarını	-11.1253
▁birləşmə	-11.1253
▁salı	-11.1254
▁şəxsiyyəti	-11.1254
▁teknolojileri	-11.1256
▁dilə	-11.1256
▁Mis	-11.1258
▁toponimlər	-11.1258
▁plana	-11.1261
▁qalırdı	-11.1261
▁Bilgisayar	-11.1262
▁İnzibat	-11.1262
▁tərif	-11.1262
▁mərhum	-11.1263
▁Times	-11.1263
▁Alt	-11.1263
▁maaş	-11.1265
▁tütün	-11.1266
▁cəm	-11.127
▁Gilan	-11.127
▁Neftç	-11.1271
▁adlandırmışdı	-11.1274
▁çıkarma	-11.1275
▁Sərəncamı	-11.1281
▁Hakimiyyəti	-11.1281
▁Plan	-11.1283
▁sevme	-11.1284
▁kəndlərindən	-11.1286
▁səhnələri	-11.1291
▁qr	-11.1291
▁ingilislər	-11.1293
▁l	-11.1295
▁universitetdə	-11.1297
▁mühərrik	-11.1298
mizden	-11.13
▁kompozisiyası	-11.13
inizde	-11.1305
▁arkadaşları	-11.1306
▁kəndlərini	-11.1307
brik	-11.131
▁yetkin	-11.131
▁Sanat	-11.1311
▁Sergey	-11.1312
▁civarında	-11.1312
▁partlayış	-11.1312
▁İqtisadiyyat	-11.1312
▁professional	-11.1313
▁Frank	-11.1319
▁işim	-11.132
▁kürd	-11.1322
▁çirk	-11.1323
şik	-11.1324
▁dolarlık	-11.1325
▁tərəqqi	-11.1333
▁izləri	-11.1333
▁23-	-11.1335
▁bilməzdi	-11.1336
▁nüsxə	-11.1338
▁qadını	-11.1339
▁şeiri	-11.1339
madığı	-11.1341
▁ulaşmak	-11.1344
▁çalıştığı	-11.1345
▁qızlar	-11.135
▁gelmiş	-11.1353
▁məruzə	-11.1353
▁ücret	-11.1361
▁xəzərlər	-11.1362
▁öldürülməsi	-11.1363
▁tuvalet	-11.1364
▁ekibi	-11.1364
▁amansız	-11.1364
▁otaq	-11.1365
▁diğeri	-11.1365
▁şanslı	-11.1367
▁1985	-11.1367
▁bacarığı	-11.1368
▁işığın	-11.1368
▁tərəfdarı	-11.1369
▁müxtəlifliyi	-11.1371
▁titulu	-11.1372
▁rəsmləri	-11.1372
şərqində	-11.1374
▁Alim	-11.138
▁danışa	-11.1382
▁böl	-11.1383
▁Qaraman	-11.1383
▁knyaz	-11.1384
▁keramika	-11.1385
▁tanıt	-11.1386
▁öncede	-11.1387
▁siyahıyaalınma	-11.1388
▁üzvlərini	-11.1388
bildi	-11.139
▁uğurlar	-11.1391
▁St	-11.1392
▁qoya	-11.1393
▁maddələri	-11.1396
▁məqsədlər	-11.1396
▁125	-11.1397
▁dərəsi	-11.1397
▁bilgisayarlar	-11.1399
▁sınırları	-11.1401
▁ifaçı	-11.1403
▁sənətkarlar	-11.1403
▁üslubunda	-11.1404
▁toplayı	-11.1406
▁İnqilab	-11.1406
▁krizi	-11.1408
▁həkimi	-11.141
▁vatandaş	-11.1413
▁hücumları	-11.1414
▁Harvard	-11.1414
▁zolaq	-11.1414
▁Nəsib	-11.1414
▁atık	-11.1415
malısınız	-11.1416
▁oykonim	-11.1418
▁ihtimalle	-11.1418
▁bayraq	-11.1418
▁çəmən	-11.1419
▁çəkmiş	-11.1419
▁düzü	-11.142
▁sürücü	-11.142
▁Ərazisi	-11.1421
▁valisi	-11.1424
▁zərb	-11.1424
▁maarifçi	-11.1427
▁paket	-11.1433
xanı	-11.1433
▁kəndlər	-11.1437
lediği	-11.1437
ləmə	-11.144
▁kendilerine	-11.1441
▁yaralanmışdı	-11.1441
▁şərtləri	-11.1441
▁heykəli	-11.1446
▁dağlarda	-11.1446
▁qurultayı	-11.1447
▁İsgəndəri	-11.1448
▁silahı	-11.1454
▁təsirli	-11.1455
▁Tədqiqat	-11.1455
▁ölür	-11.1456
▁nəqliyyatı	-11.1458
▁cesaret	-11.1459
▁yenilikçi	-11.1459
▁Ağdərə	-11.1465
▁Doktor	-11.1465
▁kritik	-11.1465
▁serbest	-11.1465
▁Təzə	-11.1468
▁sidik	-11.147
sis	-11.1471
▁Rasi	-11.1471
▁çizim	-11.1473
▁54	-11.1474
▁şir	-11.1475
▁yazılıb	-11.1476
▁səsləndir	-11.1476
▁paylaşma	-11.1479
ser	-11.148
of	-11.1482
▁İslamı	-11.1484
▁döyüşçüləri	-11.1485
▁gösterir	-11.1486
rgi	-11.1487
▁çətinlik	-11.1487
▁arttır	-11.1489
▁sui	-11.1489
▁solisti	-11.1491
əzən	-11.1492
quli	-11.1492
▁canlandır	-11.1493
▁kurmak	-11.1495
▁bayan	-11.1495
▁seri	-11.1496
▁rejim	-11.1502
▁qabığı	-11.1507
▁birlikləri	-11.1507
▁İstiqlal	-11.151
▁xaqan	-11.1511
▁You	-11.1513
▁sert	-11.1515
▁bitkisi	-11.1515
▁yoldan	-11.1515
▁sermaye	-11.1517
▁Rəsmi	-11.1517
▁Tekrar	-11.1517
▁uğramış	-11.1517
▁kolxoz	-11.1517
▁çoban	-11.1518
▁çıxarmaq	-11.1518
▁cəsəd	-11.1518
▁Hun	-11.152
▁İlisu	-11.1521
▁cəzası	-11.1521
▁zidd	-11.1521
▁Adi	-11.1521
▁kilsəsini	-11.1521
▁cəmiyyətini	-11.1522
▁görüyorum	-11.1522
▁yarpaqları	-11.1523
▁məntiq	-11.1524
▁çin	-11.1525
▁Mərkəz	-11.1526
▁Irak	-11.1528
▁gedirdi	-11.1528
▁Balak	-11.1533
▁qanunu	-11.1534
▁yerlere	-11.1534
▁Xuda	-11.1535
▁elinde	-11.1535
ebilen	-11.1536
▁qurultay	-11.1537
▁Cavadov	-11.1539
▁yönet	-11.1543
▁gruplar	-11.1546
▁atları	-11.1548
▁qanın	-11.155
▁Sin	-11.1554
▁təhlili	-11.1554
▁denen	-11.1555
▁öyrənən	-11.1556
▁vaxta	-11.1558
▁maneə	-11.1558
▁yekun	-11.1563
▁işğalında	-11.1564
▁hastalıkları	-11.1564
▁dairələri	-11.1565
diğinizde	-11.1566
▁qurultayın	-11.1568
▁gibiydi	-11.1568
▁kubok	-11.1568
▁sorunun	-11.1568
▁hikayesi	-11.1568
▁Avrasiya	-11.1569
▁Haqverdiyev	-11.1569
▁naməlum	-11.1569
▁pencere	-11.1569
▁aktual	-11.1569
▁gönüllü	-11.1569
▁katman	-11.157
▁birer	-11.157
▁kıta	-11.1571
▁saytı	-11.1572
▁açılmışdı	-11.1574
▁balon	-11.1575
▁Dinam	-11.1587
▁əlifba	-11.1589
▁sintezi	-11.1595
▁tarzı	-11.1596
lerindeki	-11.16
luğunu	-11.16
▁klubları	-11.16
▁rütbə	-11.1604
tmək	-11.1605
▁Ölü	-11.1609
▁gelişim	-11.161
▁ofisi	-11.1611
▁qayıtdıqda	-11.1614
▁görüşme	-11.1618
▁ehtimalı	-11.1619
▁ehti	-11.1619
▁Çiçək	-11.162
▁Göytürk	-11.1621
▁gerçək	-11.1621
▁Neptun	-11.1621
▁hissəciklər	-11.1621
▁Pek	-11.1621
▁Komedi	-11.1622
▁Ros	-11.1622
▁mühacirət	-11.1622
▁pozulması	-11.1622
▁səslənir	-11.1623
▁kayıp	-11.1623
▁cihazı	-11.1623
▁düşünüyoruz	-11.1624
▁dərinliyi	-11.1624
▁şübhəsiz	-11.1624
▁edersiniz	-11.1625
▁kurallar	-11.1629
▁filosofu	-11.1629
▁bat	-11.1629
▁ulusal	-11.1631
▁ölkələrini	-11.1631
▁deniyor	-11.1631
▁Emin	-11.1632
ullah	-11.1633
▁53	-11.1633
▁oynama	-11.1634
acağımız	-11.1634
▁idarəsini	-11.1635
laştı	-11.1637
▁komponent	-11.1642
yyət	-11.1643
▁ço	-11.1645
▁gittikç	-11.1646
▁əvvəllərinə	-11.1648
▁Lui	-11.1649
▁evli	-11.1649
▁məclislərin	-11.1651
▁birləşməsində	-11.1653
▁Tim	-11.1654
▁tərbiyəsi	-11.1655
▁Məscidi	-11.1655
▁sənətkarları	-11.1662
▁okulda	-11.1667
▁1886	-11.1668
▁şehri	-11.1669
texniki	-11.1671
▁Araştırma	-11.1673
▁duyğu	-11.1674
▁ədəbiyyatşünas	-11.1674
▁askeri	-11.1675
▁adlandırdığı	-11.1675
▁boşluk	-11.1676
▁küp	-11.1676
▁toplanan	-11.1676
▁təşkilatların	-11.1677
▁məskənləri	-11.1683
riyaziyyat	-11.1684
▁dünyasının	-11.1685
▁Rəq	-11.1685
▁yarattığı	-11.1686
▁gətirmiş	-11.1687
▁atır	-11.1687
hat	-11.1688
▁Komanda	-11.1688
▁Xanlar	-11.1691
▁komponenti	-11.1691
▁papa	-11.1693
▁bildiği	-11.1693
ümüzü	-11.1698
▁Dini	-11.17
▁faizini	-11.17
dıklarını	-11.17
incə	-11.1705
▁filmlərdə	-11.1707
▁hədəf	-11.1708
▁bırakma	-11.171
▁ötə	-11.1711
▁diviziya	-11.1722
70	-11.1722
▁Şərif	-11.1723
▁kendinizi	-11.1723
ulmuş	-11.1723
▁Konqres	-11.1725
▁törətdi	-11.1726
▁mərmər	-11.1726
▁tavsiye	-11.1726
▁Arslan	-11.1726
▁geoloji	-11.1726
▁mercan	-11.1726
▁vətənpərvər	-11.1726
▁bəylərbəyi	-11.1726
▁kıyasla	-11.1727
meli	-11.1727
▁1901	-11.1727
▁fırsatı	-11.1729
▁Əsərləri	-11.1731
▁yerləşmişdi	-11.1733
▁mübarizəni	-11.1733
▁günümüzde	-11.1733
cümə	-11.1735
▁bilinir	-11.1737
▁olunmağ	-11.1737
▁komandaları	-11.1737
▁1918	-11.1738
▁bölgəsini	-11.174
▁insani	-11.1743
▁Sev	-11.1743
▁öyrəni	-11.1747
▁bulabil	-11.1751
vet	-11.1753
▁gəmiləri	-11.1756
▁çağ	-11.1757
▁söylediğim	-11.176
▁olacaktı	-11.1761
▁Üst	-11.1764
▁prinsip	-11.1766
şel	-11.1768
▁simvoli	-11.1768
▁səsləri	-11.1769
▁öneri	-11.1773
▁incəsənəti	-11.1773
▁yapabiliyor	-11.1774
▁Çempionatın	-11.1776
▁işığı	-11.1776
▁gecəsi	-11.1778
▁kürdlər	-11.1778
▁berbat	-11.1779
▁başlangıcı	-11.1779
▁Mütər	-11.1779
▁Yaklaşı	-11.1779
▁qaldırmaq	-11.1779
▁boks	-11.1779
▁sifət	-11.1779
▁limon	-11.1779
▁maşınqayırma	-11.178
▁kafedrasın	-11.178
▁1903	-11.178
ayiş	-11.178
▁şehirde	-11.1781
vuş	-11.1782
▁2013	-11.1782
▁etkin	-11.1782
▁quldur	-11.1784
▁mahiyyəti	-11.1784
laşdırır	-11.1784
▁mesafe	-11.1785
▁qanunlar	-11.1785
▁olursak	-11.179
▁sektorun	-11.1791
▁naxışlar	-11.1794
▁materialı	-11.1795
▁ihtiyacım	-11.1796
▁günündə	-11.1797
▁24-	-11.1802
▁əlaməti	-11.1805
▁qəbri	-11.1806
gre	-11.1806
▁düşünül	-11.1809
▁tapmış	-11.1813
▁hamam	-11.1814
▁Qərbdə	-11.1816
▁bölün	-11.1817
▁hazırlamışdı	-11.1818
18	-11.1819
▁dramaturq	-11.1821
▁Məhkəməsi	-11.1823
▁merkezinde	-11.1824
▁çörə	-11.1827
▁57	-11.1828
meniz	-11.1832
▁Herodot	-11.1832
▁Qüds	-11.1832
▁hukuk	-11.1832
▁oksijen	-11.1832
▁zevk	-11.1832
▁alkış	-11.1832
▁qəbirlər	-11.1833
▁kəməri	-11.1833
▁etmemiz	-11.1835
▁xaqanlığı	-11.1835
▁müzakirələr	-11.1835
▁düşman	-11.1837
▁onlarda	-11.1837
▁1983	-11.1837
▁qaçır	-11.1839
miyoruz	-11.184
▁benden	-11.184
▁birləşdiril	-11.184
▁təsadüfi	-11.1841
▁Yur	-11.1843
▁olmanız	-11.1844
▁sözlərini	-11.1845
abileceğiniz	-11.1845
tmiş	-11.1846
▁getmişdi	-11.1849
olog	-11.1849
ysanız	-11.185
▁mat	-11.185
▁kulağ	-11.1854
▁farklılık	-11.1855
▁etmekte	-11.1856
▁Şiraz	-11.1857
▁vilayətləri	-11.1858
▁öyrənmişdi	-11.1859
▁Yaşam	-11.1864
▁Ərazidə	-11.1865
40	-11.1866
▁həddində	-11.1866
▁açdı	-11.187
▁padşah	-11.1877
▁lap	-11.1878
mal	-11.1878
▁ün	-11.188
▁Herat	-11.1883
▁stadion	-11.1884
▁Oruc	-11.1885
▁prototip	-11.1885
▁təzahür	-11.1885
▁əcnəbi	-11.1885
▁əyləncə	-11.1885
▁1896	-11.1885
▁kampanya	-11.1885
▁qarşılaşdı	-11.1885
▁yavru	-11.1885
▁Biliyorsunuz	-11.1886
▁Qızılbaş	-11.1886
▁Artisti	-11.1887
▁Boris	-11.1888
▁vulkanları	-11.1889
▁biçimi	-11.189
▁get	-11.1895
▁liderlik	-11.1896
▁bələdiyyəsi	-11.1897
▁qoşuldu	-11.1898
▁öhdəsin	-11.19
▁kökləri	-11.19
▁keyfiyyəti	-11.1901
ğru	-11.1901
▁takımı	-11.1903
▁çalıştığını	-11.1905
▁yürüy	-11.1906
▁Bunlara	-11.1907
▁kedi	-11.1908
▁tutulması	-11.1912
▁tanımlama	-11.1912
▁istehsalında	-11.1914
duğunu	-11.1914
▁Şir	-11.1915
▁90-	-11.1915
▁dibi	-11.1916
▁idmançı	-11.1917
▁tutar	-11.1921
▁Çocuklar	-11.1924
▁nota	-11.1925
▁guy	-11.1926
▁görülmüş	-11.1927
▁karşıya	-11.1927
▁yandırı	-11.1928
▁Yun	-11.1929
we	-11.193
▁adlandırma	-11.193
qədi	-11.1931
▁funksiyası	-11.1932
▁olanda	-11.1932
▁tamaşaların	-11.1937
▁Brezilya	-11.1939
▁Vaşinqton	-11.1939
▁Xəlifə	-11.1939
▁kristal	-11.1939
▁zərif	-11.1939
▁həlledici	-11.194
▁degil	-11.194
▁tərəflər	-11.1944
▁kesim	-11.1944
▁miydi	-11.1947
▁döner	-11.1949
▁kursu	-11.1951
▁MS	-11.1951
▁72	-11.1951
▁məsuliyyəti	-11.1951
▁saxlanması	-11.1952
▁tikililəri	-11.1952
▁tarixçilər	-11.1953
▁açma	-11.1953
▁sənədlərin	-11.1954
Araz	-11.1955
▁Alma	-11.1957
▁vurma	-11.1958
▁edebiliyor	-11.196
▁boyutu	-11.196
▁problemleri	-11.1962
▁canlılar	-11.1963
▁mənşə	-11.1965
▁nöron	-11.1966
ınızı	-11.1966
▁fərqləndir	-11.1966
▁gözlənilmə	-11.1967
▁görüşdə	-11.1968
▁yayıldı	-11.1968
▁orkestri	-11.1969
▁metodları	-11.197
tıl	-11.1973
▁lövhə	-11.1977
▁herkese	-11.1977
▁xüsusiyyət	-11.1977
▁200-	-11.1978
▁dəyərləri	-11.198
üç	-11.1982
▁yaşadığımız	-11.1982
▁hekayələr	-11.1982
▁donanması	-11.1983
▁təqaüd	-11.1986
▁Jam	-11.1986
▁göndərilmiş	-11.1986
▁şəhərlərindən	-11.1986
▁tələbləri	-11.1987
▁muxtar	-11.1988
▁dəyişdirilmiş	-11.1993
▁Yuqoslaviya	-11.1993
▁ekosistem	-11.1993
▁gözüküyor	-11.1993
▁rekabet	-11.1993
▁şefkat	-11.1993
▁yoxsul	-11.1993
▁talep	-11.1993
ANS	-11.1993
▁ərazilərin	-11.1993
▁Əksər	-11.1993
▁itibar	-11.1994
▁Kolumbiya	-11.1994
▁qulluq	-11.1994
▁sorğu	-11.1995
▁vurduğu	-11.1995
▁beklenti	-11.1995
▁oxumaq	-11.1995
▁evrensel	-11.1996
nüz	-11.1999
▁unutma	-11.2002
▁dayalı	-11.2002
▁liman	-11.2005
▁başlangıç	-11.2007
▁orduda	-11.2007
▁İnter	-11.2007
▁imzalandı	-11.2008
▁gətirmək	-11.2013
▁təşkilatları	-11.2014
ecekler	-11.2014
▁ettiğini	-11.2014
▁getməsi	-11.2015
klerini	-11.2015
▁qaçı	-11.2015
iyordum	-11.2016
▁kültüre	-11.2017
▁Kolleci	-11.2019
▁etmesi	-11.2021
▁istifadəçi	-11.2021
▁dayanan	-11.2025
▁girişi	-11.2025
▁müəssisələr	-11.203
▁Sənət	-11.203
▁tüket	-11.203
▁motivləri	-11.2033
▁tərəfləri	-11.2034
▁nailiyyətlər	-11.2036
▁ailem	-11.2037
▁faciəsi	-11.2038
▁qabiliyyətini	-11.204
▁funksiyasını	-11.2043
▁İmperator	-11.2043
don	-11.2046
▁ərə	-11.2047
▁cazibə	-11.2047
▁protokol	-11.2048
▁Qırğızıstan	-11.2048
▁Səud	-11.2048
▁Tamaşaçılar	-11.2048
▁ornament	-11.2048
▁hasar	-11.2048
▁Sahil	-11.2048
▁minarə	-11.2048
▁balıqlar	-11.2049
▁Çili	-11.205
▁yaşadıqları	-11.205
▁Fu	-11.2051
▁şəhərlərini	-11.2051
▁qəsr	-11.2051
▁bilib	-11.2052
▁Federal	-11.2052
▁sıvı	-11.2052
▁divan	-11.2052
▁yatır	-11.2053
▁çevirdi	-11.2053
▁Abdullah	-11.2055
▁kendileri	-11.2055
▁uyu	-11.2055
▁realist	-11.2056
▁Ford	-11.2058
▁anlatıyor	-11.206
▁olduğunuzu	-11.206
▁değiştirebilir	-11.2064
▁düşmənləri	-11.2065
▁Henri	-11.2066
▁hit	-11.2068
▁nami	-11.2068
▁üretme	-11.2068
▁bağladı	-11.2074
▁endişelen	-11.2074
tığını	-11.2077
▁sərhədlərini	-11.2077
bdin	-11.2079
▁birləşir	-11.2081
▁hissetti	-11.2087
▁relyef	-11.2087
▁danışma	-11.209
▁artırdı	-11.2091
▁pulu	-11.2092
▁avqustda	-11.2095
giz	-11.2095
▁hüceyrələri	-11.2098
▁rəssamlıq	-11.2098
▁fikr	-11.2099
▁hassas	-11.2102
▁gürültü	-11.2102
▁hafıza	-11.2102
▁çevrilib	-11.2103
▁kollektivi	-11.2103
▁le	-11.2103
dri	-11.2104
▁anasını	-11.2105
▁təcil	-11.2105
▁İrəvanda	-11.2108
▁eminim	-11.2109
▁Sevil	-11.2111
▁mətbəxi	-11.2111
▁gördüğüm	-11.2112
▁oluşturan	-11.2114
▁Şunu	-11.2114
▁Rəhimov	-11.2115
▁Deniz	-11.2116
▁katılma	-11.2118
▁domuz	-11.2121
▁diplomat	-11.2122
▁şəkillər	-11.2122
▁qüvvəsini	-11.2122
▁Nov	-11.2122
▁nişanı	-11.2123
▁komitə	-11.2124
▁saxlanıla	-11.2124
dığında	-11.2127
▁Babəki	-11.2131
▁çıx	-11.2132
▁axırlarında	-11.2132
dınız	-11.2133
▁gətirilə	-11.2136
▁Şahbu	-11.214
lmuşdu	-11.214
▁Biri	-11.2144
verdi	-11.2145
ləşir	-11.2145
▁bölmələri	-11.2148
amadı	-11.2148
▁təşəkkül	-11.2149
▁tren	-11.2153
rsak	-11.2155
▁eşq	-11.2156
▁xeyri	-11.2157
▁dirijor	-11.2157
▁Assosiasiyası	-11.2157
▁Uzaq	-11.2157
▁etik	-11.2157
▁hidrogen	-11.2158
▁Əzimzadə	-11.2158
▁komandir	-11.2158
▁kullanım	-11.2159
▁istiyorsanız	-11.216
▁durumunda	-11.216
▁ilacı	-11.2168
▁sənayesini	-11.2168
▁adlandırdı	-11.217
▁cavabı	-11.2171
▁Tez	-11.2172
▁151	-11.2174
▁tayfalarını	-11.2175
▁geriyə	-11.2175
▁qurumları	-11.2179
▁Cha	-11.2181
▁düzəldilmiş	-11.2181
,	-11.2182
▁Kazan	-11.2183
otik	-11.2186
▁ah	-11.2189
▁xəzinə	-11.2192
▁dönemde	-11.2192
▁ayrılmışdı	-11.2194
metr	-11.2195
▁Annem	-11.2199
▁yakala	-11.2199
lendirme	-11.2202
▁acil	-11.2202
şun	-11.2202
▁etdiyimiz	-11.2205
bet	-11.2209
▁istifadəçilər	-11.2209
▁kahve	-11.2212
▁qaçdı	-11.2212
▁qalxı	-11.2212
▁kartof	-11.2213
▁etmələri	-11.2213
▁kadının	-11.2213
▁daşnak	-11.2214
▁miniatür	-11.2216
▁Kimse	-11.2217
▁müze	-11.2218
▁çağırdı	-11.2219
▁aksine	-11.222
▁68	-11.222
ecektir	-11.2221
▁Sağlık	-11.2223
▁alarak	-11.2225
▁məşq	-11.2229
▁düştü	-11.2232
▁Əbül	-11.2232
▁Port	-11.2233
▁Diz	-11.2234
ted	-11.2234
▁səfərlər	-11.2235
▁gi	-11.2236
çar	-11.2237
▁getdiyi	-11.2239
▁bende	-11.2239
▁aktı	-11.224
▁dönüştü	-11.224
▁alov	-11.2241
▁yazık	-11.2241
abul	-11.2242
▁millətin	-11.2245
▁Müharibəsi	-11.2246
▁formalaş	-11.2247
▁yerden	-11.2247
▁əlaqələrini	-11.2249
▁Qadınlar	-11.2251
yuz	-11.2252
▁karyerasın	-11.2257
▁boşa	-11.226
bas	-11.2262
▁müvəffəq	-11.2265
▁doğdu	-11.2268
▁yarımfinal	-11.2268
▁Litva	-11.2268
▁Oskar	-11.2268
▁Əzizbəyov	-11.2268
▁Tədri	-11.2269
▁bileşen	-11.2269
▁jurnalistika	-11.2269
▁tarif	-11.2269
▁mekan	-11.227
▁kadrların	-11.2271
▁halın	-11.2271
▁yayda	-11.2272
▁seçkiləri	-11.2273
▁yarımadası	-11.2274
▁çıkış	-11.2275
▁uşaqlıq	-11.228
▁gezegenler	-11.2283
▁məsələni	-11.2285
▁nisbəti	-11.2286
▁böhran	-11.2286
▁üsullar	-11.2287
▁astronom	-11.2287
▁dönüştürü	-11.2287
▁değişiklik	-11.2288
▁yapış	-11.2292
▁dinini	-11.2294
▁çocuklara	-11.2295
▁Çal	-11.2295
▁yapması	-11.2296
▁edilmesi	-11.2296
▁hövzəsi	-11.2298
▁edilebilir	-11.23
▁biliy	-11.23
▁Salman	-11.2303
▁bakteriler	-11.2309
▁Ordusunu	-11.2309
ırlar	-11.231
▁xidmətdə	-11.2313
▁ikincisi	-11.2315
▁bac	-11.2321
▁gezegende	-11.2323
▁AIDS	-11.2324
▁Səmərqənd	-11.2324
▁gündüz	-11.2324
▁Tacikistan	-11.2324
▁konqres	-11.2324
▁stres	-11.2324
▁ibaret	-11.2324
▁xərçəng	-11.2324
▁mantar	-11.2325
▁alabilir	-11.2327
▁İnstitut	-11.2327
▁Hadisə	-11.2327
▁ekip	-11.2327
▁isterseniz	-11.2328
▁toplumsal	-11.233
▁gelebilir	-11.2331
▁evlərin	-11.2331
▁kitapları	-11.2331
▁kursları	-11.2334
▁Moise	-11.2337
▁sultanın	-11.2337
atör	-11.2341
cılık	-11.2342
▁Əmirov	-11.2343
eye	-11.2344
▁əməliyyatları	-11.2345
yüz	-11.2345
▁itirdi	-11.2347
▁Ola	-11.2351
▁bəyə	-11.2352
▁birləşmələr	-11.2353
▁yataq	-11.2358
▁formalaşdı	-11.2365
▁çağırır	-11.2367
▁qohumları	-11.2371
▁yollarla	-11.2372
lemeye	-11.2373
▁səni	-11.2374
▁bulud	-11.2377
▁səhnədə	-11.2378
▁qəlbin	-11.238
▁iqamətgahı	-11.238
▁kütle	-11.238
▁Uca	-11.238
▁gətirildi	-11.238
▁fonksiyon	-11.238
▁subtropik	-11.2381
▁Filip	-11.2381
▁Sünik	-11.2381
▁imzalanmış	-11.2382
▁kredi	-11.2386
▁türden	-11.2387
▁başlattı	-11.2388
▁Oyunlarında	-11.239
▁Tıp	-11.2391
▁edebil	-11.2393
▁Hökuməti	-11.2395
▁sahiptir	-11.2395
▁əsgərlər	-11.2397
▁format	-11.2397
▁faktör	-11.2398
▁Anar	-11.2399
▁cədvəl	-11.2399
▁katkı	-11.2402
▁çoğunluğu	-11.2403
▁Liqa	-11.2407
▁Dur	-11.2409
▁mühitdə	-11.2413
▁tas	-11.2415
▁Cek	-11.242
▁sıralarında	-11.2421
▁yunanlar	-11.2422
▁uçur	-11.2423
▁yiy	-11.2426
▁aləmində	-11.2426
leyecek	-11.2427
▁rə	-11.2429
mesine	-11.2429
▁tartış	-11.243
▁hükümeti	-11.2432
▁binada	-11.2434
ust	-11.2435
▁türkmən	-11.2435
▁gələnlər	-11.2436
▁MDB	-11.2436
▁böyrək	-11.2436
▁kıyafet	-11.2436
▁müdahale	-11.2436
▁çatışmazlığı	-11.2436
▁manzara	-11.2437
▁düzbucaq	-11.2437
▁etmiyor	-11.2438
▁Met	-11.2438
▁Amazon	-11.2439
▁razılığı	-11.2439
▁çatdıqda	-11.244
▁Konuşma	-11.2441
▁çıkardı	-11.2441
▁Final	-11.2442
▁şurası	-11.2442
▁projeler	-11.2444
▁kaybed	-11.2446
matik	-11.2448
▁gürcülər	-11.2449
ənbə	-11.2451
▁almanlar	-11.2454
▁fənlər	-11.2454
▁değişti	-11.2456
▁cisim	-11.2457
▁bağlar	-11.2457
▁Qəhrəman	-11.2458
▁müəssisələrində	-11.246
▁Kenya	-11.2462
▁kəsilmə	-11.2462
acaksınız	-11.2462
▁Bra	-11.2466
▁hâle	-11.2466
ciler	-11.2467
unuz	-11.2469
▁bekleme	-11.247
səf	-11.247
▁oğlanları	-11.247
▁iyununda	-11.2472
muşdur	-11.2474
▁Qay	-11.2476
▁müsa	-11.2476
mes	-11.2478
▁tan	-11.2478
▁hareketleri	-11.248
▁Mur	-11.248
▁kəmər	-11.2481
▁qalasında	-11.2487
▁qızılbaş	-11.2488
▁tapşırığı	-11.2488
ial	-11.2489
▁Mada	-11.249
▁seçkilərdə	-11.2492
▁liberal	-11.2493
▁bilinç	-11.2495
▁maral	-11.2496
▁əməkdaşı	-11.2496
▁istəyirəm	-11.2497
▁əyalətində	-11.2497
▁vəfatı	-11.2498
▁giri	-11.25
▁şəkilli	-11.25
▁məsləhətçi	-11.25
▁Almanya	-11.2504
▁güllə	-11.2506
▁balet	-11.2507
▁günümüzə	-11.2509
madi	-11.2511
▁anlatma	-11.2512
graf	-11.2513
▁səviyyəsini	-11.2514
▁koloniya	-11.2514
▁anladım	-11.2514
▁baktı	-11.2515
▁mükafatları	-11.2517
▁dərisi	-11.2518
▁Tehranda	-11.252
▁ihtimali	-11.2522
▁takdir	-11.2522
▁prosesləri	-11.2522
▁xanla	-11.2523
▁Nensi	-11.2524
▁truppası	-11.2526
ller	-11.2528
▁hatırlat	-11.2529
▁hara	-11.253
▁koloni	-11.2531
▁seçi	-11.2531
▁geçer	-11.2532
▁landşaft	-11.2532
▁sevinc	-11.2535
▁Ram	-11.2537
▁xristianlığı	-11.254
▁problemin	-11.2543
▁qalmaq	-11.2549
▁Viktor	-11.2549
▁Salah	-11.255
▁alternatif	-11.255
▁bütçe	-11.255
▁materyal	-11.255
▁Şəhriyar	-11.255
▁Möh	-11.255
▁həzm	-11.2551
▁strukturu	-11.2551
▁Hindistanın	-11.2551
▁obyektləri	-11.2554
▁qoruğu	-11.2554
ight	-11.2555
▁qoz	-11.2555
▁üstünlüyü	-11.2557
▁Düşün	-11.2557
▁Sorun	-11.2557
▁vəzir	-11.2558
▁hazırlayı	-11.2563
ksiyon	-11.2564
▁tümör	-11.2568
▁varisi	-11.2568
▁tesis	-11.2569
▁iclas	-11.257
▁izleme	-11.2573
işmiş	-11.2574
▁kişiyi	-11.2579
yorsun	-11.258
▁yaptıklarını	-11.2581
▁sonucunda	-11.2581
▁oruc	-11.2581
▁Key	-11.2582
▁sanatı	-11.2582
▁istila	-11.2584
▁ustalıq	-11.2586
yacağım	-11.2586
▁şüa	-11.2586
▁dönme	-11.2587
▁yeməyi	-11.259
melisiniz	-11.2593
▁öğretti	-11.2594
▁Kompleks	-11.2595
▁sulu	-11.2597
▁hekayələri	-11.2599
▁müəyyənləşdiril	-11.26
▁zabiti	-11.2603
▁anında	-11.2604
▁obrazını	-11.2606
▁dolan	-11.2608
▁Vyetnam	-11.2608
▁xörək	-11.2608
▁George	-11.2608
▁algoritma	-11.2608
▁Deyilən	-11.2608
▁siqnal	-11.2608
▁filmlərində	-11.2608
▁əsasları	-11.2612
▁diviziyası	-11.2612
▁değerlendir	-11.2613
▁genişləndi	-11.2614
▁etnonimi	-11.2615
▁keşiş	-11.2616
▁nedeniyle	-11.2617
▁1977	-11.2617
▁Japonya	-11.2623
▁düşünürdü	-11.2623
▁ahlaki	-11.2625
▁məhsullar	-11.2627
▁getirir	-11.2632
▁vadi	-11.2638
qərbində	-11.2639
▁materialların	-11.2641
▁çekiyor	-11.2642
▁bolşevik	-11.2646
▁ekranda	-11.2646
▁varlığın	-11.2648
▁gölünü	-11.265
▁akım	-11.265
▁çıxarılmış	-11.2652
▁danışıq	-11.2653
▁Hökumət	-11.2654
▁ettikleri	-11.2656
bilirsin	-11.2658
▁sorar	-11.2658
▁kelimeler	-11.2664
icarət	-11.2665
▁zamanlardan	-11.2665
▁pak	-11.2665
▁məbədin	-11.2666
▁yüksəldi	-11.2666
▁Bayrağı	-11.2666
▁Mısır	-11.2666
▁spesifik	-11.2666
▁tərənnüm	-11.2666
▁nisbi	-11.2666
▁Əlbət	-11.2666
▁pozul	-11.2667
▁internette	-11.2667
onik	-11.2668
▁ikisini	-11.2668
▁belge	-11.2669
▁hüququnu	-11.267
▁terim	-11.267
▁özellikleri	-11.267
▁göstəriş	-11.2671
▁örtük	-11.2671
▁Krallığı	-11.2671
▁yapılma	-11.2671
▁ederken	-11.2672
▁söylüyorum	-11.2672
▁dus	-11.2673
▁qülləsi	-11.2673
▁partiyanı	-11.2676
▁generalı	-11.2676
▁qalanı	-11.2677
▁getiren	-11.2679
▁Baha	-11.268
▁səlahiyyətli	-11.2683
▁olamaz	-11.2683
ğımız	-11.2684
▁qaldırılması	-11.269
▁münasibətlərini	-11.269
▁Sadə	-11.2691
▁müstəmləkə	-11.2693
▁gəmilər	-11.2697
▁toplayara	-11.2698
▁tutmak	-11.2698
▁əlaqələrin	-11.2698
▁hikayeyi	-11.2698
▁odada	-11.2699
▁dönüştür	-11.27
▁olmam	-11.2701
▁abidələrində	-11.2703
▁İndiki	-11.2704
lqar	-11.2705
▁müəlliflərin	-11.2706
▁çarpı	-11.2709
▁vəkili	-11.271
▁Bizler	-11.2711
▁çıkarıyor	-11.2713
▁ulaştı	-11.2717
▁namizədli	-11.2718
▁ulduzun	-11.2719
▁Bəziləri	-11.2723
▁Konstitusiyası	-11.2723
tiraf	-11.2723
▁Ehtimal	-11.2724
▁Layihə	-11.2724
▁yörünge	-11.2724
▁Problem	-11.2724
▁yüksələ	-11.2724
▁popüler	-11.2724
▁deyişle	-11.2724
▁üzeri	-11.2725
▁bildirib	-11.2725
▁oluşuyor	-11.2726
▁Özellikle	-11.2726
▁qazanması	-11.2726
▁konuşmaya	-11.2727
▁Camal	-11.2728
▁Binə	-11.2729
▁tank	-11.273
▁3000	-11.2732
▁konuyu	-11.2732
rektoru	-11.2733
▁çıxışları	-11.2734
kâr	-11.2735
abileceğini	-11.2737
▁Soru	-11.2737
▁oturdu	-11.2738
▁çıxarılmışdı	-11.2738
▁duru	-11.2741
▁tutulu	-11.2742
▁mübahisələr	-11.2743
▁veriliş	-11.2744
▁Birlik	-11.2745
dra	-11.2752
▁iqtisadiyyatını	-11.2752
▁olaylar	-11.2755
▁Yuli	-11.2757
▁yapmıyor	-11.2758
▁Bağır	-11.276
dışı	-11.276
▁Muzey	-11.2762
▁nüfuzu	-11.2763
▁Pal	-11.2763
▁bilimi	-11.2767
▁muzeyin	-11.2768
▁Parlamentin	-11.2769
▁heyecanlı	-11.2772
▁doğulmuş	-11.2772
▁eğit	-11.2778
▁gənclərin	-11.2782
▁Doğa	-11.2782
▁karyerasını	-11.2782
▁Leonardo	-11.2782
▁teşhis	-11.2782
▁yarımsəhra	-11.2782
▁Əşrəf	-11.2782
▁Fatimə	-11.2782
▁idarəçiliyi	-11.2782
▁vakit	-11.2782
▁beğen	-11.2783
▁Sərdar	-11.2783
▁litr	-11.2783
▁soğan	-11.2783
▁devasa	-11.2784
▁quşu	-11.2784
▁Əks	-11.2786
▁Divan	-11.2786
▁mezun	-11.2787
▁ilgisi	-11.2787
▁çağdaş	-11.2789
▁arttı	-11.2789
▁müdaxilə	-11.2791
▁xanlıqları	-11.2791
▁oynaya	-11.2791
▁obraz	-11.2793
▁ruhunu	-11.2795
▁gönderme	-11.2796
▁İsm	-11.2796
fu	-11.2797
▁büdcəsi	-11.2797
▁63	-11.2799
▁Sadıqov	-11.2799
▁kollec	-11.2801
▁Bell	-11.2802
▁Məscid	-11.2803
▁Mavi	-11.2804
▁sərhədi	-11.2806
▁qarın	-11.2806
▁edilməkdə	-11.2809
▁mühərriki	-11.281
▁İz	-11.281
▁anlamlı	-11.2813
▁patlama	-11.2813
▁Nil	-11.2819
▁Əd	-11.2826
▁keçdik	-11.2832
dib	-11.2833
▁formalaşmışdı	-11.2833
▁Peru	-11.2834
▁bizimle	-11.2835
▁orqanlarını	-11.2835
▁Siy	-11.2838
▁fikrim	-11.2838
▁Bəxtiyar	-11.2841
▁Yupiter	-11.2841
▁basketbol	-11.2841
▁profesyonel	-11.2841
▁psikoloji	-11.2841
▁qəddar	-11.2841
▁Küresel	-11.2841
▁1897	-11.2841
▁qüvvətli	-11.2841
▁zemin	-11.2841
▁Normal	-11.2841
▁öyrənilmiş	-11.2841
▁saxlanılması	-11.2842
▁Evi	-11.2845
▁qurumu	-11.2847
▁doğurur	-11.2847
▁kitabların	-11.2848
▁kut	-11.2848
▁təsirində	-11.2849
▁çalıştı	-11.285
▁adlandırmış	-11.285
▁girmə	-11.2851
▁albomunu	-11.2851
▁İncil	-11.2851
▁barmaq	-11.2852
▁onlarca	-11.2852
▁yapama	-11.2853
▁baktığınızda	-11.2853
▁köle	-11.2854
▁66	-11.2854
▁2016	-11.2855
▁teknolojiler	-11.2857
▁dolara	-11.2859
▁oranda	-11.286
▁Dəli	-11.286
▁makinesi	-11.2862
▁zəng	-11.2862
▁Bel	-11.2864
▁yaşamın	-11.2865
▁şəkilçisi	-11.2865
▁baz	-11.2866
▁sınırlı	-11.287
▁sintez	-11.2871
abiliyoruz	-11.2871
ayede	-11.2873
▁təməli	-11.2873
▁yansı	-11.2877
▁olası	-11.2877
▁çalar	-11.2877
▁peki	-11.2881
▁görüşləri	-11.2881
▁avtomobili	-11.2882
▁dəmiryolu	-11.2884
▁dərslik	-11.2884
iyalı	-11.2885
▁erkək	-11.2887
▁uğraş	-11.2888
▁qurur	-11.2891
▁növlərində	-11.2895
▁yarar	-11.2895
▁cism	-11.2896
▁zorundaydı	-11.2899
▁Bəhmən	-11.29
▁fəlakət	-11.29
▁effektiv	-11.2902
aret	-11.2902
▁küme	-11.2902
▁alalım	-11.2906
▁engelle	-11.2908
▁biliyordu	-11.2908
▁mövzular	-11.291
▁yapmam	-11.2914
▁bakan	-11.2916
▁Harun	-11.2916
▁yıllarda	-11.2917
▁arılar	-11.2918
▁səhifələrində	-11.2921
▁Fizika	-11.2924
▁yastı	-11.2924
▁milad	-11.2925
▁qoşunla	-11.2928
▁resimler	-11.2929
▁konfransın	-11.2933
▁lerde	-11.2933
▁rəsmə	-11.2934
mayor	-11.2934
▁topladı	-11.2937
▁seviyede	-11.294
▁iman	-11.294
,4	-11.2941
▁Sana	-11.2942
abilirler	-11.2944
▁mantık	-11.2945
gedə	-11.2945
▁qatılı	-11.2953
▁üretimi	-11.2955
▁şeytan	-11.2956
▁mahi	-11.296
▁burnu	-11.296
‐	-11.296
▁Bosniya	-11.296
▁Qurultay	-11.296
▁assistent	-11.296
▁Soyuq	-11.296
▁Görünür	-11.296
▁Ədalət	-11.296
▁aparmağ	-11.296
zaman	-11.296
▁Genç	-11.296
▁funksiya	-11.296
▁ənənələrini	-11.2961
▁qaraciyər	-11.2961
▁qazanmaq	-11.2961
▁hayran	-11.2961
▁finansal	-11.2962
▁kalite	-11.2963
▁topla	-11.2964
▁götürülü	-11.2966
▁kalın	-11.2967
▁Fəlsəfə	-11.2969
▁Qazan	-11.2969
▁medallar	-11.297
▁Hüm	-11.2971
▁yarışlarda	-11.2971
▁yönelik	-11.2973
▁sualtı	-11.2973
▁qəbulu	-11.2974
▁qanunvericiliyi	-11.2976
▁səbəbiy	-11.2977
▁musiqiçilər	-11.298
▁sürür	-11.298
▁verdiler	-11.2982
▁vəzifələr	-11.2985
▁sənətçi	-11.2991
▁yapabileceğimiz	-11.2993
▁Liqasını	-11.2995
▁axı	-11.2996
▁otağın	-11.2997
▁bağlandı	-11.2998
etme	-11.2999
▁üçü	-11.3001
▁zamandır	-11.3003
▁işləyirdi	-11.3004
▁edərdi	-11.3004
▁İsmayılı	-11.3008
▁hayatlarını	-11.3012
▁poeması	-11.3013
▁bizden	-11.3014
▁səbəbləri	-11.3016
▁götürülür	-11.3019
▁Cəbhəsi	-11.302
▁Natəvan	-11.302
▁rastgele	-11.302
▁Nuh	-11.302
▁heykel	-11.302
▁sıtma	-11.302
▁Kaspi	-11.302
▁Sər	-11.3021
▁zihinsel	-11.3021
mayacağını	-11.3026
▁genişlənməsi	-11.3026
▁galaksi	-11.3027
▁baktığımızda	-11.3032
▁Qulu	-11.3032
▁nəs	-11.3032
,6	-11.3034
▁düzənliklər	-11.3034
▁etdirməy	-11.3035
▁çempionat	-11.3036
ug	-11.3036
▁gazeteci	-11.3036
▁kendimize	-11.3042
▁qəs	-11.3042
▁İmperiyasını	-11.3043
▁hissləri	-11.3045
mekten	-11.3046
▁140	-11.3046
lüyor	-11.3046
▁davranışı	-11.3047
▁müdafiəçi	-11.3048
▁bazılarını	-11.3049
▁Hüs	-11.3049
▁cismin	-11.3051
▁təsərrüfatında	-11.3052
▁insanlık	-11.3054
▁Genel	-11.3054
▁varmış	-11.3055
▁iy	-11.3057
▁rep	-11.3061
▁bağlam	-11.3061
▁planda	-11.3061
ğiniz	-11.3063
▁sebeple	-11.3064
▁isimli	-11.3064
▁verdiğimiz	-11.3065
▁zamanlı	-11.3067
▁sərvət	-11.3069
com	-11.3069
▁eksik	-11.307
mıyorlar	-11.3071
▁çözümü	-11.3072
▁qaydası	-11.3073
▁yolculuğu	-11.3074
mızdan	-11.3074
▁çalma	-11.3076
duğumuz	-11.3077
▁saçma	-11.308
▁Nuxa	-11.308
▁Twitter	-11.308
▁vahşi	-11.308
▁çerçeve	-11.308
▁Steve	-11.308
▁istəsə	-11.308
▁yayılıb	-11.308
▁büro	-11.3081
▁buraxdı	-11.3081
▁filmini	-11.3082
PS	-11.3083
▁sürede	-11.3084
▁çekmek	-11.3084
▁sülhü	-11.3086
▁çoxluq	-11.3086
▁Mc	-11.3087
▁Şıxlı	-11.3088
ğra	-11.3092
▁tasarımcı	-11.3093
▁yayma	-11.3094
▁səfərdə	-11.3094
▁çözmek	-11.3097
▁soruları	-11.3098
▁oxucu	-11.3098
▁KP	-11.31
▁tikilir	-11.3103
▁durdu	-11.3103
▁yarattı	-11.3104
▁Hayat	-11.3104
,7	-11.3105
ktı	-11.3107
▁köçürül	-11.3107
▁hissəsidir	-11.3108
▁kurdu	-11.3109
▁girmiş	-11.311
▁tapılı	-11.3114
bek	-11.3117
▁yönetme	-11.3117
▁nu	-11.3118
▁buynuz	-11.312
amayacağı	-11.312
▁farkın	-11.3122
▁Ailəli	-11.3122
▁verməyi	-11.3125
▁torpaqlarda	-11.3126
▁sistemler	-11.313
▁130	-11.3132
▁şirkətlər	-11.3132
▁diyorlar	-11.3133
▁tamaşasın	-11.3133
▁yüksəli	-11.3136
▁bildiğiniz	-11.3136
▁basın	-11.3137
▁məktubun	-11.3138
rofessor	-11.3139
▁UNESCO	-11.3141
▁faaliyet	-11.3141
▁kölgə	-11.3141
▁toxucu	-11.3141
▁idrak	-11.3141
▁qrammatik	-11.3141
▁Heyvan	-11.3142
▁Bazar	-11.3142
▁süfrə	-11.3143
▁savaşın	-11.3143
▁quruluşunda	-11.3143
▁başlanğıcında	-11.3145
▁heykəlin	-11.3145
▁içeren	-11.3147
▁Bəlkə	-11.3147
▁kadr	-11.3149
▁oynanıl	-11.3153
▁bay	-11.3157
▁Ayrı	-11.316
▁tədqiqatları	-11.3162
▁mekanizma	-11.3162
▁eşidən	-11.3163
▁Savaşı	-11.3164
▁çıxma	-11.3164
▁Oğlu	-11.3165
▁tuz	-11.3166
▁yamac	-11.3166
▁yetenek	-11.3168
▁Tat	-11.317
▁gəmilərin	-11.3175
▁Öncelikle	-11.3176
▁birləşə	-11.3177
▁oluşturur	-11.3185
▁173	-11.3187
▁Quranda	-11.3188
▁artımı	-11.319
may	-11.3192
▁səlahiyyətləri	-11.3193
▁köçmüşdü	-11.3194
▁adlandırılı	-11.3195
qrafik	-11.32
▁riski	-11.32
▁təkamül	-11.32
▁platform	-11.3201
▁Gürcü	-11.3201
▁Yəhudi	-11.3202
▁tabaka	-11.3202
▁yeniyetmə	-11.3202
▁Kinolent	-11.3202
▁Qəsəbə	-11.3202
▁İnşaat	-11.3202
▁Platon	-11.3202
▁İyul	-11.3202
▁milyarlarca	-11.3202
▁Assuriya	-11.3202
▁yayımlana	-11.3203
▁evləndi	-11.3204
▁verilişləri	-11.3204
eceksiniz	-11.3204
▁Fatma	-11.3204
▁yetirdi	-11.3205
▁Neyse	-11.3205
▁eri	-11.3206
▁içerik	-11.3206
▁variantın	-11.3207
▁faydalan	-11.3208
▁üçte	-11.3208
▁parayı	-11.3211
▁başlamak	-11.3212
▁sahipler	-11.3212
▁etməsində	-11.3213
▁1965	-11.3213
atma	-11.3214
▁deneyler	-11.3216
▁Nami	-11.3217
▁yetirilmiş	-11.3218
▁qaldırdı	-11.3224
▁ortalarına	-11.3225
org	-11.3226
▁salmışdı	-11.3231
▁himayəsi	-11.3238
▁almaz	-11.3238
▁tutul	-11.3238
▁şer	-11.3241
biriyle	-11.3242
mizdeki	-11.3243
▁şagirdi	-11.3243
▁janrı	-11.3245
▁yayıldığı	-11.3246
▁Cabbar	-11.3247
▁redaksiya	-11.3248
aska	-11.3252
▁xəritəsi	-11.3254
▁Berlində	-11.3257
liydi	-11.326
▁birey	-11.326
▁ulduzların	-11.3262
▁ekspert	-11.3263
▁faşist	-11.3263
▁karikatür	-11.3263
▁xeyirxah	-11.3263
▁fosil	-11.3263
▁fundamental	-11.3263
▁etiqad	-11.3263
▁diyelim	-11.3264
▁Vətəndaş	-11.3264
▁Kendisi	-11.3264
▁62	-11.3264
▁güvenilir	-11.3265
▁Ter	-11.3265
▁hissediyorum	-11.3267
▁şüaları	-11.3268
▁fond	-11.327
▁yığın	-11.3272
▁Yakın	-11.3272
▁dayandırıl	-11.3273
▁işlənə	-11.3274
▁olmazdı	-11.3279
▁Bayramov	-11.3279
▁şairlər	-11.3282
▁satma	-11.3282
▁maden	-11.3283
▁tatlı	-11.3284
▁oturan	-11.3286
▁Yaz	-11.3287
avuz	-11.3287
mühendis	-11.3288
casına	-11.329
▁yəhudilərin	-11.329
▁Naziri	-11.329
▁testi	-11.3291
▁icması	-11.3292
▁konuya	-11.3292
▁oturu	-11.3292
▁tamamı	-11.3292
▁etmirdi	-11.3293
▁Naxçıvanı	-11.3294
ersiya	-11.3297
inematoqrafiya	-11.3298
▁olunmalı	-11.33
▁öngörü	-11.33
▁konfranslar	-11.3304
tərəqqi	-11.3311
▁meme	-11.3311
▁qanı	-11.3311
▁avtomobilləri	-11.3313
▁gözlə	-11.3314
ebileceğiniz	-11.3316
▁cəhətləri	-11.3316
▁ifası	-11.332
▁salonu	-11.3322
▁görüşlər	-11.3322
▁məktəblərin	-11.3323
▁hastalar	-11.3323
▁studiya	-11.3324
▁koruy	-11.3324
▁Fərmanı	-11.3324
▁epizod	-11.3325
▁müdrik	-11.3325
▁eğri	-11.3325
▁Şəhid	-11.3325
▁sədaqət	-11.3325
▁Eğitim	-11.3325
▁maruz	-11.3325
▁mütəfəkkir	-11.3325
▁ötürmə	-11.3325
▁yetirilməsi	-11.3325
▁doğan	-11.3325
▁tanınması	-11.3326
▁1870	-11.3327
lıların	-11.3331
▁İyun	-11.3331
▁kilit	-11.3332
▁ederiz	-11.3332
▁tacir	-11.3335
▁bahsetti	-11.3335
▁payızında	-11.3336
▁karşılaştı	-11.3338
▁şairlərin	-11.3342
▁yatak	-11.3343
▁giriyor	-11.3343
▁altındadır	-11.3344
▁Zey	-11.3344
▁Katolik	-11.3345
▁çözü	-11.3348
ıyordum	-11.3353
▁kəsmə	-11.3353
▁olabilirdi	-11.3354
▁qurd	-11.3354
▁düşürdü	-11.3357
▁yürüme	-11.3358
▁Çocukları	-11.3359
▁önemi	-11.3359
▁irəliləy	-11.336
▁üsulla	-11.3362
▁keçirə	-11.3363
▁xəritə	-11.3365
▁ediyordu	-11.3369
▁Festivalı	-11.3371
▁itirmə	-11.3372
▁dediğim	-11.3373
▁işçiləri	-11.3373
▁hay	-11.3375
ers	-11.3377
▁geliyordu	-11.3378
▁Meşə	-11.3378
BC	-11.3382
▁iran	-11.3383
▁öfke	-11.3387
▁istehkam	-11.3387
▁nəticələndi	-11.3387
▁personaj	-11.3387
▁uyku	-11.3387
▁yəqin	-11.3387
▁Xızı	-11.3387
▁aclıq	-11.3387
▁birbirlerine	-11.3389
▁Anders	-11.3389
▁sevdiyi	-11.3389
▁Mehdiyev	-11.339
▁davamı	-11.339
▁saha	-11.3391
▁karvan	-11.3391
▁qoş	-11.3392
lyasiya	-11.3393
▁Bursa	-11.3394
▁yapmanız	-11.3394
▁Qoca	-11.3394
▁kuboku	-11.3395
,8	-11.3398
lov	-11.3399
▁olgu	-11.3399
▁xəstəliyində	-11.3401
sindeki	-11.3402
▁Beat	-11.3404
▁kadrlar	-11.3405
▁kişilik	-11.3409
irken	-11.3411
▁istedadı	-11.3416
▁olmuştur	-11.3418
AR	-11.3419
▁bahsettiğim	-11.3419
▁kızlar	-11.3422
▁uzat	-11.3424
▁Hans	-11.3424
▁kalmış	-11.3425
▁Tusi	-11.3425
▁Savaş	-11.3426
▁Kadın	-11.3428
▁romanları	-11.3429
▁Ege	-11.3432
TV	-11.3432
laşan	-11.3435
▁önəm	-11.3436
mıştır	-11.3437
▁istedikleri	-11.344
▁gey	-11.3441
lassik	-11.3448
▁azarkeş	-11.3449
▁World	-11.3449
▁Əhəməni	-11.3449
▁Geniş	-11.3449
▁rengi	-11.345
▁xatun	-11.345
▁köçürülməsi	-11.345
▁seviyor	-11.345
▁vakti	-11.345
▁təbəqəsi	-11.3451
▁Yolu	-11.3451
ldukça	-11.3451
▁blog	-11.3452
▁başlığı	-11.3453
rtəsi	-11.3453
▁vo	-11.3454
▁körpüsü	-11.3454
▁qal	-11.3455
▁Lütf	-11.3455
ester	-11.3455
▁port	-11.3455
▁hədiyyələr	-11.3456
▁Dev	-11.3457
▁regionda	-11.3457
▁hidro	-11.3457
▁ısınma	-11.346
bilecek	-11.3462
▁səciyyələn	-11.3462
▁çalışırken	-11.3464
▁seçimler	-11.3464
▁Məmmədovu	-11.3464
▁nümunələr	-11.3465
▁mütə	-11.3466
▁vurmaq	-11.3468
▁qaçmağ	-11.347
tək	-11.3473
▁Aran	-11.3475
▁Sona	-11.3476
▁yaradıcılığ	-11.3476
▁bədəni	-11.3476
▁saziş	-11.3477
▁kaydı	-11.3481
▁ritm	-11.3483
▁96	-11.3485
▁çıxarı	-11.3487
▁bakıma	-11.3487
leyip	-11.3489
▁nəslini	-11.349
▁şişe	-11.3491
▁səbəblə	-11.3491
▁otur	-11.3492
▁köşe	-11.3492
▁Muğa	-11.3493
▁konuştu	-11.3493
▁dayana	-11.3494
▁enerjinin	-11.3499
▁tənqidçi	-11.3499
▁belirsiz	-11.3501
▁qovu	-11.3505
▁dəf	-11.3507
▁qapıları	-11.3508
▁buyurdu	-11.3509
▁divarlarını	-11.3509
▁çəkilmə	-11.3509
▁tapdı	-11.351
▁qaydalar	-11.351
▁çıxar	-11.3512
▁koca	-11.3512
▁Fakültə	-11.3512
▁Ibrahim	-11.3512
▁batalyon	-11.3512
▁Şıxlinski	-11.3512
▁Obama	-11.3512
künc	-11.3512
▁nöqtələri	-11.3512
▁adlandırıldı	-11.3513
▁özgürlük	-11.3513
uantum	-11.3513
▁ustad	-11.3514
▁kurban	-11.3515
▁yetki	-11.3515
oslav	-11.3516
▁durdur	-11.3516
▁atmosferi	-11.3517
▁benzin	-11.3517
layın	-11.3519
▁qoruyur	-11.3521
▁uzaqlaş	-11.3521
▁padşahı	-11.3522
baş	-11.3522
▁söyleyen	-11.3523
▁yetirilmişdi	-11.3523
▁damarları	-11.3523
▁komissarı	-11.3524
▁yerinin	-11.3525
▁delik	-11.3526
rilişləri	-11.3527
▁Arka	-11.3529
eceğiniz	-11.3529
▁komşu	-11.353
▁bazarın	-11.353
▁çevresinde	-11.353
▁zorlu	-11.3531
▁Ərəbistanı	-11.3532
mezsiniz	-11.3532
▁zirvə	-11.3534
▁çıxarılır	-11.3535
▁49	-11.3535
▁atdı	-11.3535
kür	-11.3547
▁gençler	-11.3551
▁malları	-11.3552
▁01	-11.3552
▁radiosu	-11.3553
▁süqutun	-11.3553
▁anlıyor	-11.3558
▁şahidi	-11.356
▁Ala	-11.356
▁qanunun	-11.3561
▁turşu	-11.3563
▁29-	-11.3565
▁Təşkilat	-11.3565
▁müəllifləri	-11.3567
▁xətləri	-11.3571
▁yazarı	-11.3573
▁orucu	-11.3574
▁Fərrux	-11.3575
▁Moldova	-11.3575
▁fırtına	-11.3575
▁uyuşturucu	-11.3575
▁zireh	-11.3575
▁Değil	-11.3575
▁Fərəc	-11.3575
▁Uzay	-11.3576
▁otlaq	-11.3576
▁Saturn	-11.3576
▁350	-11.3577
▁fonunda	-11.3578
gram	-11.3578
▁işləyə	-11.3579
▁projesi	-11.358
▁yarımadasını	-11.358
▁mifologiyasında	-11.3581
▁İsti	-11.3582
▁Far	-11.3582
▁gizlən	-11.3583
▁orduları	-11.3584
▁yerleri	-11.3587
▁sunum	-11.359
▁ağıllı	-11.359
▁çözme	-11.3591
nizle	-11.3591
▁düşündüğümüz	-11.3592
▁Həsənəli	-11.3592
▁hadisədə	-11.3592
aşırı	-11.3592
▁uçma	-11.3593
▁yürü	-11.3595
▁175	-11.3595
▁yapılıyor	-11.3595
▁Xaç	-11.3597
▁900	-11.3598
▁Sovetlər	-11.3598
▁açılış	-11.36
▁toponim	-11.36
▁gününü	-11.3601
▁soyut	-11.3604
▁İri	-11.3609
▁toplanmış	-11.3612
▁quyu	-11.3614
mba	-11.3615
▁çoğunuz	-11.3616
▁haberler	-11.3617
▁örnekler	-11.3617
▁istehsalat	-11.3618
ğıda	-11.3621
▁Səfər	-11.3622
▁kurumlar	-11.3627
▁çektiği	-11.3633
▁kontrolü	-11.3638
▁Kesinlikle	-11.3639
▁Sührəvərdi	-11.3639
▁depresyon	-11.3639
▁fenomen	-11.3639
▁təcəssüm	-11.3639
▁Uğur	-11.3639
sabiq	-11.3639
▁cesur	-11.3639
▁ölümcül	-11.3639
▁sıkıntı	-11.3639
▁olunmur	-11.3639
▁teklif	-11.364
▁başardı	-11.364
▁yetirilir	-11.3641
▁uzaqda	-11.3643
▁həddi	-11.3643
▁Hacıbəyli	-11.3644
▁hızı	-11.3645
▁siyahısında	-11.3645
▁xəbərlər	-11.3646
▁Müslüman	-11.3647
▁maymun	-11.3647
▁amerikan	-11.3649
▁icad	-11.3649
▁eynidir	-11.3651
▁saatte	-11.3654
▁otaqda	-11.3657
əhiyyə	-11.3657
düyü	-11.3658
mdar	-11.3659
▁astronomi	-11.366
▁yetirmə	-11.3662
▁çalışıyorlar	-11.3662
▁məqalələrin	-11.3663
▁yayla	-11.3665
tah	-11.3666
▁köçdü	-11.3667
▁əlaqədə	-11.3668
▁ağlar	-11.3668
▁layihələrin	-11.3671
▁türkcəsi	-11.3671
▁Andrey	-11.3675
▁razılaşma	-11.3675
▁qanad	-11.3676
▁dönüyor	-11.3676
▁çıxarmışdı	-11.3676
ekranlaşdırılmış	-11.3678
▁Fizik	-11.3678
▁geliştirmek	-11.3679
▁tamamlayı	-11.3681
irler	-11.3682
▁edilər	-11.3682
▁kendiniz	-11.3683
▁kaynaklar	-11.3684
▁miktarı	-11.3687
▁sizler	-11.3693
▁statistik	-11.3694
▁kubokunu	-11.3695
▁ilaçlar	-11.3695
▁fayl	-11.3696
▁hayvanların	-11.3698
▁ağaclar	-11.3699
▁Bəs	-11.3699
▁faktı	-11.3699
▁rok	-11.3699
▁Şey	-11.37
▁birincisi	-11.3703
▁əsrlərin	-11.3703
▁vampir	-11.3703
▁İslandiya	-11.3703
▁ADU	-11.3703
▁Quşçu	-11.3703
▁avantaj	-11.3703
▁felaket	-11.3703
▁qütb	-11.3703
▁sanitariya	-11.3703
▁ödənilməsi	-11.3703
▁səmimi	-11.3703
▁bəzəy	-11.3703
▁parazit	-11.3703
▁istək	-11.3704
▁yararlan	-11.3704
▁qidalanır	-11.3706
▁işləmə	-11.3708
▁yaşındayken	-11.3709
▁bilmiyoruz	-11.3709
▁Nü	-11.3711
▁dövrlərin	-11.3714
▁əd	-11.3714
▁düzenli	-11.3715
▁Müharibədə	-11.3715
▁kimsə	-11.3716
▁olanları	-11.3717
▁rütubətli	-11.3718
▁qaba	-11.372
▁tutması	-11.3721
▁Sur	-11.3721
-15	-11.3721
▁atma	-11.3722
imize	-11.3727
▁romanını	-11.3728
▁İnsanın	-11.3729
▁Rio	-11.3732
▁zinciri	-11.3736
▁Məktəbini	-11.3738
▁vəsaitləri	-11.3739
▁göze	-11.3741
▁yöne	-11.3744
▁regiona	-11.3747
▁ayın	-11.3748
ildiği	-11.375
▁bitən	-11.3751
▁alay	-11.3752
▁əməli	-11.3753
▁Beyin	-11.3758
▁qaldıra	-11.3761
▁dedikdə	-11.3762
▁yeme	-11.3762
▁günümüz	-11.3765
▁kullanmaya	-11.3765
▁güləş	-11.3766
▁birçoğu	-11.3766
▁hərəkətlər	-11.3767
▁inanı	-11.3768
▁Arxiv	-11.3768
▁Xədicə	-11.3768
▁həzrət	-11.3768
▁edilmir	-11.3768
▁kurqan	-11.3769
▁boğu	-11.3769
▁ortamı	-11.377
▁yazıçıları	-11.377
▁denilen	-11.3771
▁yüzyılın	-11.3772
▁robotu	-11.3778
▁əsərlərdə	-11.378
▁yetişdiril	-11.3781
▁Qərar	-11.3783
▁teleskop	-11.3786
▁çeken	-11.3786
▁qəzəl	-11.3786
leyebilir	-11.3787
▁yürüşləri	-11.3788
▁memarı	-11.3789
▁biləcəyini	-11.3795
▁zamanın	-11.3796
▁Peyğəmbəri	-11.3797
▁dəstələr	-11.3799
▁hazırlanı	-11.38
▁miras	-11.38
▁Yuxarıda	-11.3804
layabilirsiniz	-11.3807
▁ödəmək	-11.3808
▁Şimalda	-11.3809
▁vəziyyətində	-11.381
▁tamaşaları	-11.3811
▁aday	-11.3811
▁neyi	-11.3812
▁Məlikov	-11.3813
▁alınara	-11.3813
tmişdi	-11.3814
▁iyulda	-11.3816
oba	-11.3816
▁şeyləri	-11.3816
▁bahsediyor	-11.3817
▁küre	-11.3819
▁peyk	-11.382
▁geçirme	-11.382
▁şirketlerin	-11.3821
▁əmlakı	-11.3822
▁xeyriyyə	-11.3824
▁sıklıkla	-11.3825
▁duyur	-11.3826
▁klipi	-11.3827
viç	-11.3828
uhtemelen	-11.383
prezidenti	-11.3831
aşqın	-11.3832
▁Məşhəd	-11.3833
▁Vidadi	-11.3833
▁öğle	-11.3833
▁Əlcəzair	-11.3833
▁Ərzurum	-11.3833
▁Apple	-11.3833
▁market	-11.3833
▁tahta	-11.3833
▁Dərə	-11.3833
▁gelişimi	-11.3833
▁çatdırır	-11.3833
▁Meydan	-11.3833
▁düşünülür	-11.3833
▁olmuyor	-11.3834
▁sorumluluk	-11.3834
▁gelmek	-11.3835
▁pulsuz	-11.3838
▁bölünmüşdü	-11.3838
▁basitçe	-11.3839
▁düşdüyü	-11.384
▁qarşıdurma	-11.384
▁Köçərli	-11.3841
▁Məkkədə	-11.3845
▁mətnləri	-11.3845
▁alıyoruz	-11.3846
▁görürü	-11.3846
▁utan	-11.3847
▁yardımçı	-11.3848
lendiği	-11.3848
▁gərginlik	-11.3849
▁relyefi	-11.385
▁rayonlarda	-11.3851
▁növlər	-11.3853
▁dönmə	-11.3857
▁hikayeleri	-11.3857
▁lüğəti	-11.3858
▁olunduqda	-11.386
▁təriqətin	-11.3863
▁şahid	-11.3864
▁hökümət	-11.3868
▁çıktığı	-11.3868
▁mesajı	-11.3871
▁xassələri	-11.3875
▁Wa	-11.3876
▁sifariş	-11.3876
▁saldığı	-11.3879
yuk	-11.3881
▁dəvə	-11.3884
▁gerçekliği	-11.3885
▁adada	-11.3885
▁oturma	-11.3885
▁bazarı	-11.3886
▁göndər	-11.389
▁koyuyor	-11.3891
▁kitaplar	-11.3892
▁vahidləri	-11.3893
▁kul	-11.3893
etmek	-11.3893
▁yıldızlar	-11.3896
urdu	-11.3896
▁zihin	-11.3897
basar	-11.3898
▁sənədləri	-11.3898
▁Michael	-11.3898
▁Qlazqo	-11.3898
▁Sentyabr	-11.3898
▁tənəffüs	-11.3898
▁xəmir	-11.3898
▁Münhen	-11.3898
▁olumlu	-11.3898
▁idare	-11.3898
▁müqabili	-11.3898
▁zeyt	-11.3898
▁İşin	-11.3899
▁ağciyər	-11.3899
▁gelince	-11.3901
▁xaqanı	-11.3901
▁kafe	-11.3901
▁Basit	-11.3902
▁sikkələr	-11.3904
▁uğurları	-11.3904
▁cəsarət	-11.3906
▁aletler	-11.3906
▁sağa	-11.3907
▁əhvalat	-11.3908
▁adama	-11.3909
▁şura	-11.391
▁fit	-11.391
▁satışı	-11.3912
▁edeceği	-11.3912
▁keşfetti	-11.3912
▁Andre	-11.3913
▁oynayırdı	-11.3917
▁sıkıcı	-11.3918
nom	-11.3919
▁98	-11.392
lmuş	-11.392
▁planları	-11.3922
imizde	-11.3923
▁doktora	-11.3926
ezliklə	-11.3934
▁mahnılarını	-11.3938
▁şeirlərini	-11.3938
▁əlamətlər	-11.394
▁tapma	-11.3941
yd	-11.3941
erken	-11.3941
▁yeməklər	-11.3943
▁anlamında	-11.3953
▁unu	-11.3956
▁ölçüm	-11.3957
▁maşınları	-11.3959
▁ağaçları	-11.3959
▁ədədlər	-11.3963
▁Nijerya	-11.3964
▁Babam	-11.3964
▁konsepsiya	-11.3964
▁tohum	-11.3964
▁yönəlmiş	-11.3964
▁qoyulması	-11.3964
▁ziyade	-11.3964
▁xatırlayır	-11.3964
▁Umarı	-11.3964
▁Məsud	-11.3965
▁Araba	-11.3965
▁etkileyici	-11.3965
▁konsul	-11.3966
▁dindar	-11.3966
▁tərəfini	-11.3968
ılacak	-11.3969
▁ederler	-11.3976
▁dağıldı	-11.3976
▁okulu	-11.3978
▁kolu	-11.3978
▁çatması	-11.3978
▁rəqəmlər	-11.3979
▁beslenme	-11.398
▁Farklı	-11.3981
▁Yaşar	-11.3982
▁nümunələrindən	-11.3985
▁çəkmişdi	-11.3991
▁səviyyəl	-11.3993
▁barı	-11.3996
▁sevdiği	-11.3998
▁geçmişte	-11.3999
▁festivalın	-11.3999
▁böcek	-11.4
▁amillər	-11.4001
▁külli	-11.4001
▁ürünler	-11.4002
▁uyarı	-11.4005
▁potensial	-11.4006
▁isteği	-11.4006
▁donanma	-11.401
▁qızılı	-11.4014
▁laboratoriyası	-11.4014
mdaki	-11.4015
▁savaşa	-11.4015
▁çirkin	-11.4016
▁müqaviməti	-11.4017
▁ailələri	-11.4018
▁gələndə	-11.4018
lerimize	-11.4019
J	-11.4019
▁hazırlayan	-11.402
ston	-11.4023
▁Sudan	-11.4025
▁məğlubiyyəti	-11.4026
▁oykonimi	-11.4026
▁sərhəddi	-11.4026
▁vurmuşdu	-11.4027
ateqoriya	-11.4029
▁dol	-11.4029
▁fındıq	-11.403
▁öyrəndi	-11.403
▁Presli	-11.403
▁Toğrul	-11.403
▁aracılığıyla	-11.403
▁Ülke	-11.403
▁nihayet	-11.403
▁otomatik	-11.403
▁sahte	-11.403
▁şikayət	-11.403
▁grubun	-11.403
▁qoşulma	-11.403
▁Axundzadə	-11.4031
▁1895	-11.4031
▁bitişik	-11.4031
▁Ardında	-11.4031
▁kutsal	-11.4032
▁Bahar	-11.4032
▁inceledi	-11.4032
▁cəbhədə	-11.4033
▁alimlik	-11.4033
▁Senat	-11.4033
ham	-11.4034
▁buzul	-11.4035
▁bariz	-11.4036
▁gök	-11.4038
▁aileleri	-11.4039
ettiği	-11.4042
▁dərəcəsini	-11.4042
▁Od	-11.4043
▁kanat	-11.4045
ebildiği	-11.4047
▁hərbçi	-11.4047
▁dönəm	-11.4048
▁başlıyoruz	-11.405
▁ayaqları	-11.405
▁Ora	-11.4052
▁keşfetme	-11.4052
▁evlənir	-11.4054
▁alanlarda	-11.4055
▁mövzuda	-11.4055
▁gözleri	-11.4055
▁köprü	-11.4056
▁Komitə	-11.4058
▁böcekler	-11.406
▁geçiriyor	-11.406
▁poli	-11.4062
▁düzəldil	-11.4067
▁sola	-11.4068
▁tanrıları	-11.4069
▁onay	-11.4069
▁adamlarını	-11.4069
▁yapmakta	-11.407
▁hadisələrdə	-11.4075
▁xilafəti	-11.4076
▁yapıyordu	-11.4078
meyeceğim	-11.4079
▁anlatacağım	-11.408
▁genişlet	-11.408
▁Bilə	-11.4083
düşünebilirsiniz	-11.4083
▁tələbi	-11.4085
▁bölgələri	-11.409
▁Məhərrəm	-11.409
▁sistemimiz	-11.4091
▁oturuyor	-11.4091
▁koş	-11.4093
▁Xəstə	-11.4093
▁getirdiği	-11.4094
▁düşüş	-11.4094
▁effekt	-11.4096
▁Dördüncü	-11.4097
▁Varşava	-11.4097
▁kobud	-11.4097
▁Bölgə	-11.4097
▁Bələdiyyə	-11.4097
▁İzmir	-11.4097
▁esnek	-11.4097
▁Keçi	-11.4097
▁Toplum	-11.4097
▁Mehr	-11.4097
▁Xoyski	-11.4097
▁nehir	-11.4097
▁kocaman	-11.4098
▁planını	-11.4099
▁genleri	-11.41
▁məqsədləri	-11.41
chi	-11.4102
▁işlev	-11.4104
▁1880	-11.4105
▁məktubu	-11.4107
▁zordur	-11.4107
▁əlləri	-11.411
▁biologiya	-11.411
▁tayfasından	-11.4112
▁yapılar	-11.4114
▁futbolu	-11.4115
▁Bağ	-11.4119
▁76	-11.4122
▁biliyordum	-11.4123
▁bilgiler	-11.4129
▁biriydi	-11.4131
▁atan	-11.4131
▁Firu	-11.4133
▁içeriği	-11.4139
fik	-11.414
▁Alimlər	-11.4143
lıyorlar	-11.4143
psi	-11.4143
▁attı	-11.4144
▁bəstələ	-11.4144
məli	-11.4144
▁adanı	-11.4145
▁yapıp	-11.4145
▁jurnallar	-11.4146
▁ahlak	-11.4147
▁falan	-11.4152
▁yerlərini	-11.4156
▁bağlanır	-11.4157
▁istemiyor	-11.4157
dissertasiyasını	-11.4158
▁modelini	-11.4159
▁zülm	-11.416
▁yazdım	-11.4161
Diza	-11.4162
▁izledi	-11.4163
▁Kalankatlı	-11.4164
▁Moğol	-11.4164
▁merhamet	-11.4164
▁zəhmət	-11.4164
▁bireysel	-11.4166
▁oyuncak	-11.4167
▁kəşfi	-11.4169
▁oyununu	-11.4169
labilecek	-11.417
▁məktubda	-11.417
▁sektör	-11.4172
▁torpaqda	-11.4177
▁serial	-11.418
▁növünü	-11.4182
▁rolunda	-11.4185
▁Ağır	-11.4187
▁çalışdığı	-11.4189
▁baktım	-11.4192
▁Muradov	-11.4194
▁çeviri	-11.4194
▁salını	-11.4194
▁inanıyor	-11.4194
▁zavodları	-11.4195
▁dilimiz	-11.4195
▁imzaladı	-11.4196
▁ömürlü	-11.4197
▁mülkü	-11.42
▁nəfərin	-11.4201
▁Dara	-11.4201
▁şairə	-11.4203
acağınız	-11.4207
▁insanlarda	-11.4208
▁hikayesini	-11.421
▁şeirlərində	-11.4211
mdeki	-11.4213
▁şərəf	-11.4213
▁yoksul	-11.4213
▁dinleme	-11.4214
▁məhəbbəti	-11.4219
təhsil	-11.422
▁Abbası	-11.4222
▁Adana	-11.4223
▁olayları	-11.4226
▁qayıtma	-11.4227
▁kaldığı	-11.4229
▁Konstantin	-11.4231
▁1883	-11.4231
▁Afşin	-11.4231
▁Noyabr	-11.4231
▁Yağləvənd	-11.4231
▁iqtidar	-11.4231
▁istehlak	-11.4231
▁lisenziya	-11.4231
▁Strabon	-11.4231
▁başlayalım	-11.4231
▁pozisyon	-11.4232
▁Qoruğu	-11.4232
▁fərziyyə	-11.4232
▁bilməyib	-11.4232
▁evlənmə	-11.4233
abitə	-11.4233
▁Minsk	-11.4233
▁söyleyebilirim	-11.4234
▁işleme	-11.4235
▁Babur	-11.4236
▁Mədəni	-11.4238
▁parçalanması	-11.424
▁peyki	-11.424
▁bulabilir	-11.4242
▁dövrlərində	-11.4243
mızdaki	-11.4244
▁işletme	-11.4245
▁Məs	-11.4245
▁karyerası	-11.4246
▁değerleri	-11.4251
▁qaynaq	-11.4253
▁teknolojisi	-11.4254
▁uşağın	-11.4261
▁əmiri	-11.4267
▁keyfiyyətləri	-11.4268
▁konuştuğu	-11.4269
▁Orda	-11.4269
▁tipləri	-11.4271
▁110	-11.4271
▁uçuşu	-11.4276
▁Amerikalılar	-11.4278
▁girişimci	-11.4279
▁şiddətl	-11.4283
▁sırt	-11.4284
▁solda	-11.4285
▁düşme	-11.4286
▁tədqiqatçıların	-11.4289
▁bö	-11.4294
amazsınız	-11.4295
▁övlad	-11.4295
▁formu	-11.4295
▁ürəyi	-11.4296
▁stansiyaları	-11.4296
▁fen	-11.4298
▁nüfuzunu	-11.4298
▁havaya	-11.4299
▁Toponim	-11.4299
▁avro	-11.4299
▁1892	-11.4299
▁Gözəl	-11.43
▁AXC	-11.43
▁kanalları	-11.43
▁karınca	-11.43
▁göçmen	-11.43
▁arayüz	-11.4301
▁nesli	-11.4301
▁duydum	-11.4301
▁hamilə	-11.4301
▁kaybetme	-11.4301
▁əlaqələndirir	-11.4302
▁şərqşünas	-11.4302
▁balıkları	-11.4302
maktır	-11.4304
▁Sahəsi	-11.4304
▁tuttu	-11.4304
▁tutuyor	-11.4305
-5	-11.4305
▁bahsedeceğim	-11.4305
▁titr	-11.4305
▁yaxınlaşdı	-11.4308
▁tersine	-11.4309
▁məktublar	-11.4309
▁mərkəzdə	-11.4313
▁kilsələri	-11.4314
▁sormak	-11.4315
▁Biliyor	-11.4316
▁poeziyası	-11.4317
▁Tak	-11.4318
▁təkid	-11.4319
▁verər	-11.432
▁yosun	-11.4321
▁küçəsi	-11.4322
▁albomunda	-11.4323
▁obyektlər	-11.4323
▁yaxınlaş	-11.4327
▁kullanıyorlar	-11.4328
▁vereceğim	-11.4328
▁Ceyh	-11.4329
▁gülü	-11.4329
eceğimiz	-11.4329
▁Wal	-11.4335
▁çocuklarını	-11.4335
▁konserv	-11.4335
▁kullandık	-11.4339
▁Şirvanda	-11.4339
▁çəkə	-11.434
dunuz	-11.4341
▁dakikada	-11.4345
▁kurtarma	-11.4346
▁savunma	-11.4347
▁başqalarını	-11.4347
▁tanrılar	-11.4347
▁renkler	-11.4349
▁çiftçi	-11.4354
▁değişiklikler	-11.4355
▁hüceyrələr	-11.4356
▁xərc	-11.4357
▁bitkiler	-11.4357
▁əkil	-11.4358
▁duruma	-11.4359
▁şagirdlərin	-11.436
▁iyulunda	-11.4362
▁mərtəbəli	-11.4366
▁tutara	-11.4366
▁duygusu	-11.4367
и	-11.4368
▁1890	-11.4368
▁Hikmət	-11.4368
▁Region	-11.4368
▁müayinə	-11.4368
▁icarə	-11.4368
▁kəmiyyət	-11.4368
▁Keçə	-11.4368
▁Polis	-11.4368
▁Ronald	-11.4368
▁tərzd	-11.4369
▁gətirilir	-11.4369
▁qaşı	-11.437
▁teleqra	-11.437
▁etnoqrafi	-11.4371
▁Komissar	-11.4371
-12	-11.4374
▁proqramının	-11.4375
▁parçasını	-11.4375
▁hizmeti	-11.4375
▁Açıq	-11.4377
▁mühiti	-11.4379
▁cihazlar	-11.4379
▁elementi	-11.4379
meliyim	-11.438
▁ideyalarını	-11.438
▁iskelet	-11.4381
▁Əsəri	-11.4382
▁çevirir	-11.4386
▁şüalanma	-11.4386
▁geçirdim	-11.4387
▁78	-11.4387
▁Samur	-11.4388
▁getmə	-11.4388
▁kapasite	-11.4389
▁olacağız	-11.4391
▁konuşmayı	-11.4392
▁İspaniyada	-11.4392
▁dəstəsini	-11.4393
▁döngü	-11.4394
▁hissettim	-11.4396
arpa	-11.4398
▁uzağ	-11.4401
▁Qrup	-11.4403
▁gelmişti	-11.4405
▁qrafik	-11.4405
▁etrafta	-11.441
▁taşıma	-11.4411
▁evrende	-11.4414
▁örgüt	-11.4414
▁verilənlər	-11.4418
24	-11.4418
▁köçürülmüş	-11.4418
▁dönüşü	-11.4419
lacak	-11.4421
▁mexanizm	-11.4421
▁aylık	-11.4423
▁üretmek	-11.4426
▁öyrənməy	-11.4427
▁salınır	-11.4427
▁koşullar	-11.4429
▁kalır	-11.4429
▁İlkin	-11.4431
▁noktalar	-11.4433
▁Mas	-11.4433
▁eğlence	-11.4434
▁oranları	-11.4434
▁əməkdaşlığı	-11.4434
▁alacağı	-11.4435
▁halları	-11.4435
▁Açık	-11.4436
▁Internet	-11.4437
▁Riyaziyyat	-11.4437
▁Volqa	-11.4437
▁Zərdüşt	-11.4437
▁hapishane	-11.4437
▁İndoneziya	-11.4437
▁meslek	-11.4437
▁qurucusu	-11.4437
▁zirve	-11.4437
▁trafik	-11.4437
▁polad	-11.4437
▁Eramız	-11.4437
aktik	-11.4437
laştırma	-11.4441
▁ört	-11.4441
▁niyet	-11.4442
▁resme	-11.4442
▁dastan	-11.4443
ıldığında	-11.4444
▁mükafatlar	-11.4444
Yorkda	-11.4446
▁saysız	-11.4446
▁göç	-11.4447
▁ru	-11.4448
▁fərqlər	-11.4449
▁qrupunda	-11.445
▁koydu	-11.4451
▁yükü	-11.4451
▁Fua	-11.4451
iriz	-11.4453
▁mülkiyyəti	-11.4455
▁müşahidələr	-11.4456
▁bitirdi	-11.4456
▁köçürülmüşdü	-11.4456
▁vətəndaşların	-11.4459
▁Arap	-11.4459
▁ulaşım	-11.446
▁Şahin	-11.4462
▁mühazirələr	-11.4462
▁aldığımız	-11.4463
leştirilmiş	-11.4469
▁kolayca	-11.4469
▁burun	-11.447
emiyor	-11.4471
▁tələblər	-11.4473
▁tamaşaçılar	-11.4473
▁pey	-11.4475
▁67	-11.4478
▁lisey	-11.4479
▁yetişdir	-11.4479
▁Salam	-11.4479
▁İndiyə	-11.448
▁şəklini	-11.4483
▁sər	-11.4486
▁ırk	-11.4487
▁yasal	-11.4488
▁Səh	-11.4488
▁kariyer	-11.4488
▁pyesləri	-11.449
▁topladığı	-11.4492
▁dağılmış	-11.4498
,2	-11.4499
▁ayırı	-11.45
▁cihazları	-11.45
▁Ağalar	-11.4501
▁diri	-11.4501
▁verilməsini	-11.4502
▁tersi	-11.4503
▁yükselt	-11.4505
▁hörülmüş	-11.4506
▁Einstein	-11.4506
▁Motsart	-11.4506
▁Richard	-11.4506
▁avukat	-11.4506
▁Puşkin	-11.4506
▁İnanılmaz	-11.4506
▁canişin	-11.4507
▁çoğal	-11.4507
▁Prussiya	-11.4507
▁Yapon	-11.4508
▁media	-11.4509
▁varsayım	-11.4509
▁değişken	-11.451
▁Səhər	-11.451
ong	-11.4511
▁temelde	-11.4513
ağara	-11.4513
▁çalışanları	-11.4515
larımıza	-11.4515
▁tutuldu	-11.4517
▁ilaçları	-11.4517
▁fasadı	-11.4519
▁xeyir	-11.4519
▁oranında	-11.4521
▁önde	-11.4522
▁sevən	-11.4523
▁məntəqələrində	-11.4525
▁1899	-11.4528
▁obyekt	-11.4528
▁Fərid	-11.4529
▁Akademiya	-11.4529
▁61	-11.4532
▁ideyasını	-11.4534
▁çəkilməy	-11.4536
▁oyk	-11.4538
▁Evli	-11.454
▁həcmində	-11.4541
▁aspiranturasın	-11.4541
▁hisseder	-11.4542
▁bebekler	-11.4543
▁Ərə	-11.4543
üsü	-11.4547
▁Wo	-11.4549
▁lüğət	-11.4549
lanabilir	-11.455
▁yüzeyi	-11.4551
▁kira	-11.4551
▁açılı	-11.4556
▁77	-11.4556
lükdə	-11.4557
▁boğaz	-11.4559
▁bütünlükl	-11.456
▁abidəni	-11.456
▁Dar	-11.456
▁çeşitliliği	-11.4562
▁kardeşim	-11.4562
▁aparatı	-11.4565
▁tökü	-11.4566
▁yüzillik	-11.4567
▁altındaki	-11.4568
▁şərqi	-11.4569
▁çayında	-11.4569
▁anladı	-11.457
▁etdirirdi	-11.4574
▁Qalanı	-11.4574
▁gördüğü	-11.4575
▁sərəncam	-11.4576
▁bələd	-11.4576
▁Ferrari	-11.4576
▁Herhangi	-11.4576
▁Osetiya	-11.4576
▁Təsadüfi	-11.4576
▁yarımkürəsin	-11.4576
övhər	-11.4576
▁cənab	-11.4576
▁iyimser	-11.4576
▁bacardı	-11.4576
▁kədər	-11.4576
▁tapıntılar	-11.4576
▁ötürülməsi	-11.4577
▁Bədəlbəyli	-11.4577
▁organize	-11.4577
▁artilleriya	-11.4577
▁eti	-11.4578
▁Gelecek	-11.4578
▁Qədir	-11.4578
▁öldürür	-11.4578
▁bilinci	-11.4578
▁əyanları	-11.4579
▁müddətli	-11.4579
▁rollarda	-11.4581
▁organik	-11.4582
▁qamış	-11.4583
▁Nuri	-11.4583
▁organizma	-11.4585
▁resimleri	-11.4585
▁sahibkar	-11.4587
▁kavra	-11.4588
▁Alan	-11.459
▁cəmiyyətlər	-11.459
▁məmulatları	-11.459
▁arxasın	-11.4596
▁resimde	-11.4597
▁Sistem	-11.46
▁astronomiya	-11.46
▁sifarişi	-11.46
wi	-11.4603
▁yapısı	-11.4604
▁tarihinde	-11.4613
▁ağıl	-11.4614
▁görünmez	-11.4619
▁geldim	-11.462
▁erkeklerin	-11.4621
▁örtü	-11.4622
▁qayıtmışdı	-11.4622
▁araşdırmaları	-11.4628
▁olsalar	-11.463
▁meydanda	-11.4632
▁eseri	-11.4632
suvar	-11.4633
▁başkanı	-11.4639
▁83	-11.464
▁Leyl	-11.4641
▁şurasını	-11.4642
ərviş	-11.4645
▁humani	-11.4646
▁1878	-11.4647
▁dosya	-11.4647
▁voleybol	-11.4647
▁dayanma	-11.4647
▁kasaba	-11.4648
▁silindr	-11.4648
▁aləmin	-11.4648
▁Baltik	-11.4648
▁bağlantılı	-11.4649
▁Evren	-11.4649
▁istemiyorum	-11.4651
ğümüz	-11.4652
▁cüz	-11.4654
▁edilsə	-11.4654
▁eğlen	-11.4655
▁tarama	-11.4656
▁2,5	-11.4657
▁şekilleri	-11.4658
▁nar	-11.4661
▁yağları	-11.4662
▁əlini	-11.4664
▁planlama	-11.4664
▁üstesinde	-11.4665
▁Turan	-11.4665
▁zənginliyi	-11.4667
▁danış	-11.4667
▁ölmə	-11.4668
▁koymak	-11.4668
▁geliş	-11.4669
▁özüm	-11.4671
▁Hələb	-11.4675
▁problemler	-11.4675
▁həllini	-11.4677
▁qay	-11.468
▁portret	-11.468
▁176	-11.4682
▁artıyor	-11.4682
▁ing	-11.4683
▁sarayını	-11.4684
▁ocaq	-11.4684
▁günlerde	-11.4687
▁sakinlər	-11.469
ativ	-11.4691
atılan	-11.4693
▁məclisin	-11.4695
▁planlaşdırıl	-11.4697
▁Zeynə	-11.4703
▁səfir	-11.4703
▁gezegenin	-11.4704
▁təbiətdə	-11.4706
▁məhsulun	-11.4706
▁keçirirdi	-11.4708
▁miqyasın	-11.4708
▁əsgərlərin	-11.4708
▁sentyabrda	-11.471
▁canlıların	-11.4712
▁bölgesi	-11.4713
▁bürcü	-11.4713
mişli	-11.4713
▁etmeniz	-11.4715
lduğunu	-11.4716
▁halkı	-11.4716
▁xürrəmilər	-11.4717
▁Agentliyi	-11.4718
▁Avustralya	-11.4718
▁Charles	-11.4718
▁Estoniya	-11.4718
▁Eylül	-11.4718
▁Liverpul	-11.4718
▁Maqomayev	-11.4718
▁Mübariz	-11.4718
▁Müqavilə	-11.4718
▁Qahirə	-11.4718
▁Sosyal	-11.4718
▁Topçubaşov	-11.4718
▁favori	-11.4718
▁kinorejissor	-11.4718
▁zolağı	-11.4718
▁Seçki	-11.4718
▁texnikumu	-11.4718
▁Zavod	-11.4718
▁səhih	-11.4718
▁göndərilməsi	-11.4718
▁çanta	-11.4718
▁mətbuatın	-11.4718
▁gittiği	-11.4719
▁dolayısıyla	-11.4719
▁nano	-11.4719
▁kamil	-11.472
▁üsyançılar	-11.4721
▁sıradışı	-11.4721
▁mikroskop	-11.4722
▁gelin	-11.4726
▁hizmetleri	-11.4727
▁rəsmlər	-11.4727
▁növlərini	-11.4727
ığ	-11.4729
▁İqtisad	-11.473
▁Sura	-11.4733
▁alıntı	-11.4734
▁hücresi	-11.4734
▁Quranı	-11.4734
▁tutun	-11.4735
▁çağında	-11.4738
▁izliyor	-11.4738
▁lövhələr	-11.4739
▁genom	-11.4743
▁terrorçu	-11.4745
▁dayaq	-11.4748
▁güvenliği	-11.4752
▁resursları	-11.4754
▁Kore	-11.4756
▁mühendisler	-11.4757
▁rəssamları	-11.4758
▁soyadı	-11.476
▁qoşununu	-11.4762
▁yetirmək	-11.4764
▁planetlər	-11.4764
0,000	-11.4768
▁bitkilərdə	-11.477
▁millətçi	-11.477
▁arxada	-11.477
▁Yıl	-11.4773
▁zahir	-11.4773
mayıb	-11.4774
▁xatirələrində	-11.4775
▁Qəzvin	-11.4777
▁kütlələri	-11.4778
kinden	-11.4778
▁Fil	-11.4779
▁vuruşma	-11.4781
▁İsanı	-11.4784
▁birləşdiri	-11.4784
▁değiştiriyor	-11.4785
▁kilsəni	-11.4787
▁üzləş	-11.4787
▁cərrah	-11.4788
▁Mansurov	-11.4789
▁meşgul	-11.4789
▁otobüs	-11.4789
▁repressiya	-11.4789
▁Humay	-11.4789
▁1828-	-11.4789
▁borç	-11.4789
▁Proje	-11.4789
▁gidecek	-11.479
▁Yaşıl	-11.479
▁slayt	-11.4791
▁aviasiya	-11.4791
▁Lester	-11.4792
▁qaydalarını	-11.4792
miyordu	-11.4795
OS	-11.4795
▁ekmek	-11.4798
▁CO	-11.48
▁Hafi	-11.4801
▁çayların	-11.4802
▁gözlü	-11.4802
▁qoyduğu	-11.4803
lunduğunu	-11.4803
▁aldığım	-11.4808
▁sinek	-11.481
pək	-11.481
▁Xanım	-11.481
▁uzaklaş	-11.4811
▁söyledim	-11.4811
▁annesi	-11.4815
▁tozu	-11.4817
rud	-11.482
▁Sənan	-11.4821
▁yasak	-11.4823
▁ingiliscə	-11.4824
▁qadınları	-11.4827
▁dalğaları	-11.4827
▁hiçbiri	-11.4827
▁orqanlarında	-11.483
lıyordu	-11.4831
▁düzeyde	-11.4834
▁Bizi	-11.4835
▁itkilər	-11.4837
▁tarla	-11.4839
▁değerlendirme	-11.4841
▁təqvim	-11.4841
▁vəzifəni	-11.4841
▁mənbələrin	-11.4842
▁sənətində	-11.4842
lmüş	-11.4843
▁tamaşaçıları	-11.4844
▁fəaliyyətlə	-11.4846
▁bırakıyor	-11.4847
▁özgürlüğü	-11.4849
▁niyyəti	-11.4851
▁yaradırdı	-11.4852
▁kullanılıyor	-11.4853
▁Şü	-11.4854
▁dövlətində	-11.4857
▁yıka	-11.486
▁itirmiş	-11.4861
▁Foqts	-11.4861
▁umarım	-11.4861
▁yırtıcı	-11.4861
▁Enerji	-11.4861
▁Gəray	-11.4861
▁kategori	-11.4861
▁tektonik	-11.4861
▁Okean	-11.4861
▁ləzgi	-11.4861
▁Neredeyse	-11.4861
▁bataqlıq	-11.4861
▁Bəhmənyar	-11.4862
▁çıxartdı	-11.4862
▁simetri	-11.4862
▁Əbdürrəh	-11.4862
▁Mona	-11.4862
▁sesini	-11.4863
▁1873	-11.4863
▁lisans	-11.4864
▁gözünü	-11.4865
▁görülen	-11.4865
▁ətəklərində	-11.4866
▁Suyun	-11.4866
▁siyahi	-11.4869
▁Jurnalist	-11.487
▁məhkəməsi	-11.4873
▁Kilsəsi	-11.4873
▁vs	-11.4873
▁savadlı	-11.4875
▁əməlləri	-11.4875
▁Xaçın	-11.4876
▁Bilgi	-11.4877
▁diqqətlə	-11.4884
emeyiz	-11.4885
▁qayıtmış	-11.4886
▁öldürme	-11.4888
▁başladığımız	-11.4889
▁Konu	-11.4892
▁cəbhəsində	-11.4892
▁Yayım	-11.4893
inizin	-11.4894
▁məskunlaşma	-11.4895
3-4	-11.4896
səmə	-11.4896
ılabilir	-11.4897
▁20.	-11.4899
▁Rob	-11.4899
▁bası	-11.4903
▁kəsə	-11.4904
▁Dün	-11.4905
▁kapital	-11.4908
▁söylediler	-11.4909
▁salon	-11.4909
▁renkli	-11.4913
▁məmurları	-11.4914
▁kazanma	-11.4921
▁qədə	-11.4922
remyer	-11.4923
▁Şirvanı	-11.4924
karlar	-11.493
▁Yaşa	-11.4931
▁planetlərin	-11.4932
▁ərazilərini	-11.4933
▁Florensiya	-11.4933
▁sivilizasiya	-11.4933
▁Fevral	-11.4933
▁Filarmoniyası	-11.4933
▁Georgi	-11.4933
▁Pavel	-11.4933
▁Rəvayət	-11.4933
▁Xalça	-11.4933
▁korkutucu	-11.4933
▁repertuarı	-11.4933
▁sohbet	-11.4933
▁çıxıntı	-11.4933
▁üfüq	-11.4933
▁ödəniş	-11.4934
▁texnolo	-11.4934
▁insanlığın	-11.4934
▁mühendislik	-11.4934
▁Mənsur	-11.4936
analitik	-11.4936
ünüzü	-11.4936
▁kullanabiliriz	-11.4938
▁irqi	-11.4939
▁oturup	-11.494
▁durumlarda	-11.4944
▁Sarayın	-11.4944
▁otaqlar	-11.4946
▁hamile	-11.4948
▁adəti	-11.4949
▁oradaki	-11.4949
▁olursanız	-11.4951
▁şeylerle	-11.4951
▁öldürmək	-11.4953
▁163	-11.4953
▁Gar	-11.4954
▁elədi	-11.4955
▁yürüyüş	-11.4956
▁yetişir	-11.4957
▁işlərdə	-11.4958
▁gəldiyin	-11.4958
▁həbsdə	-11.4963
▁seçdi	-11.4965
▁misra	-11.4965
fis	-11.4965
▁səsini	-11.4967
▁qurub	-11.4968
▁öyrənmiş	-11.4969
▁minik	-11.4969
▁hastalığın	-11.4971
▁sunuyor	-11.4973
boyu	-11.4974
ang	-11.4975
▁damla	-11.4978
▁böyüklüyü	-11.4978
▁Ani	-11.4979
▁dayanı	-11.4984
▁muğamı	-11.4984
▁nəyi	-11.4985
▁tamamlaya	-11.4986
liyiz	-11.4987
▁baxa	-11.4987
başı	-11.4988
ğimde	-11.4988
▁doğası	-11.4988
▁adalarında	-11.499
▁verilişin	-11.499
syon	-11.499
▁avto	-11.4991
▁düşüncələri	-11.4992
▁heykəltəraş	-11.4993
▁çeker	-11.4994
▁camaatın	-11.4997
▁həbsxana	-11.4997
▁hayatımız	-11.5001
bilirsek	-11.5004
▁memnun	-11.5006
▁1863	-11.5006
▁Darwin	-11.5006
▁Mətbuat	-11.5006
▁mühakimə	-11.5006
▁tənəzzül	-11.5006
lternativ	-11.5006
▁donanım	-11.5006
▁limit	-11.5007
▁nikah	-11.5007
▁görüntüsü	-11.5007
▁Boston	-11.5007
▁İstə	-11.5007
▁qəfil	-11.5008
▁şirketleri	-11.5008
▁bulduğumuz	-11.5009
▁Britaniyada	-11.5009
▁silin	-11.501
▁sədrəzəm	-11.501
▁kast	-11.501
▁bağçası	-11.501
▁çıxmağ	-11.5012
▁itirir	-11.5012
araya	-11.5012
▁görül	-11.5013
tağı	-11.5014
▁hamar	-11.5014
▁Səlcuqlu	-11.5015
▁köklü	-11.5016
▁Kürü	-11.5017
▁versə	-11.5018
▁taban	-11.5018
▁çoktan	-11.5018
▁düşen	-11.5019
▁boynun	-11.5023
▁vazgeç	-11.5025
▁vadisində	-11.5026
▁ayakta	-11.5026
▁yuvarla	-11.5027
ico	-11.5027
▁qrupda	-11.5028
▁etkileri	-11.5031
▁1940	-11.5032
▁gösterdiği	-11.5035
ebileceğini	-11.5036
ləşdirmək	-11.5036
▁əhəng	-11.5038
▁1919	-11.5038
▁dəyər	-11.5041
uşu	-11.5041
▁dönə	-11.5045
▁adil	-11.5046
▁ilişkiler	-11.5047
larımdan	-11.5048
rsek	-11.5048
adam	-11.505
madığını	-11.505
▁söylədi	-11.5051
▁verebilir	-11.5051
▁Vilayət	-11.5052
▁ortamda	-11.5055
▁monastır	-11.5056
▁yazılması	-11.5058
▁teknolojik	-11.5059
▁Yunanıstanda	-11.5061
▁toplanır	-11.5065
▁programları	-11.5065
▁münasibətdə	-11.5067
▁tələblərin	-11.5068
▁ağaçlar	-11.5071
uğu	-11.5073
▁bilimin	-11.5074
▁təbəqəsində	-11.5074
▁ailədən	-11.5075
▁bağlayı	-11.5077
▁taxtda	-11.5078
▁oba	-11.5078
▁endüstrisi	-11.5079
▁növündə	-11.5079
·	-11.508
▁Latviya	-11.508
▁Tasarım	-11.508
▁Nelson	-11.508
▁hayret	-11.508
▁hediye	-11.508
▁Xəbər	-11.508
▁Rəcəb	-11.508
▁karvansara	-11.508
▁uzunsov	-11.508
▁polen	-11.508
▁prodüser	-11.508
▁gideceği	-11.5081
▁göründüyü	-11.5081
▁regionun	-11.5081
▁hüdudlarında	-11.5081
▁panel	-11.5082
▁kaybı	-11.5083
▁kullanabilir	-11.5083
▁kalmak	-11.5087
▁satılan	-11.509
▁söyləmə	-11.5091
▁sahipti	-11.5092
rza	-11.5093
▁cəhdləri	-11.5093
mama	-11.5094
▁söyledikleri	-11.5095
▁değiştiren	-11.5097
▁farkettim	-11.5098
▁etibarı	-11.51
[...]
