<unk>	0
<s>	0
</s>	0
<pad>	0
▁,	-3.08561
▁.	-3.09217
▁	-3.26367
і	-3.39879
я	-3.81597
ы	-4.02549
▁і	-4.09768
й	-4.12376
▁ў	-4.17357
х	-4.21543
у	-4.31707
▁з	-4.41455
а	-4.44943
е	-4.4842
(	-4.56866
▁у	-4.57386
▁)	-4.58454
▁—	-4.59431
▁на	-4.61338
ў	-4.67996
;	-4.8938
м	-4.90454
▁&	-4.9491
▁У	-4.99455
га	-5.01891
ць	-5.08193
цца	-5.17274
«	-5.18968
▁»	-5.19134
▁да	-5.38659
аў	-5.47676
▁па	-5.59339
зе	-5.62289
apos	-5.63935
ot	-5.6607
qu	-5.66128
ю	-5.69276
ай	-5.70783
ь	-5.7704
▁г	-5.79827
▁ад	-5.80917
ага	-5.84012
▁год	-5.87913
▁года	-5.89063
▁не	-5.97313
ся	-6.00742
▁быў	-6.06795
▁што	-6.07192
ую	-6.12713
▁:	-6.15521
▁за	-6.21011
▁яго	-6.23259
-	-6.23786
▁З	-6.26067
▁як	-6.3085
▁а	-6.33065
ўся	-6.35208
1	-6.36951
5	-6.39955
▁так	-6.40339
для	-6.42546
7	-6.43198
▁На	-6.48413
4	-6.48868
▁час	-6.4906
6	-6.50519
3	-6.53987
8	-6.54727
сама	-6.55219
2	-6.56082
▁гэта	-6.57386
9	-6.58716
▁які	-6.60055
▁якія	-6.61266
оў	-6.62085
ак	-6.63366
км	-6.66388
▁аб	-6.67472
▁была	-6.7211
цы	-6.73814
▁пад	-6.76753
ён	-6.79217
▁С	-6.85745
▁горад	-6.90384
▁200	-6.91522
▁было	-6.94103
▁больш	-6.96895
▁але	-6.97267
мі	-6.99243
▁каля	-6.99725
▁2	-6.99998
▁пасля	-7.00234
▁пры	-7.00731
ам	-7.01247
▁Беларус	-7.01589
▁вобласц	-7.05299
▁194	-7.05515
це	-7.06415
▁якая	-7.07031
▁А	-7.07225
былі	-7.07564
ліся	-7.09667
▁м	-7.12274
▁;	-7.12339
́	-7.12644
▁раён	-7.13667
к	-7.14306
▁яўляе	-7.15706
▁іх	-7.16692
▁ст	-7.1765
▁пра	-7.17819
амі	-7.18316
▁яе	-7.18321
▁192	-7.1883
▁тольк	-7.18931
▁гадоў	-7.19891
▁іншы	-7.23457
юць	-7.24597
▁краін	-7.2664
▁191	-7.27669
▁Пасля	-7.27694
%	-7.28658
▁193	-7.28755
▁дзе	-7.31775
одзе	-7.32044
▁тэрыторы	-7.32949
ася	-7.37166
ССР	-7.37591
’	-7.38081
▁гэты	-7.38751
▁склад	-7.39861
▁1	-7.40062
▁3	-7.40711
▁ім	-7.41296
▁-	-7.44651
▁цэнтр	-7.44676
▁знаходзі	-7.45711
▁I	-7.46144
г	-7.46738
▁П	-7.48235
▁адзін	-7.48532
▁горада	-7.49669
▁196	-7.49719
▁або	-7.50261
▁195	-7.50798
▁чалавек	-7.51133
▁Па	-7.51254
▁складае	-7.51604
між	-7.52078
▁Б	-7.53027
▁201	-7.53127
▁тым	-7.53631
▁насельніцтва	-7.53927
▁калі	-7.54981
▁стаў	-7.55254
▁са	-7.5844
▁198	-7.59325
▁стагоддзя	-7.59719
лі	-7.59775
▁раёна	-7.59975
чы	-7.60312
▁ва	-7.61648
▁В	-7.62194
кі	-7.62222
▁вайн	-7.63501
▁197	-7.64355
час	-7.64435
таго	-7.65227
▁некалькі	-7.65302
▁пачатк	-7.65309
го	-7.6749
▁месца	-7.68926
▁ці	-7.6935
▁мов	-7.70119
▁199	-7.71454
▁10	-7.73681
ла	-7.74105
▁частка	-7.7432
▁Да	-7.74659
▁М	-7.75007
▁вынік	-7.75358
сць	-7.7696
юцца	-7.77737
ША	-7.77769
▁15	-7.78346
▁першы	-7.79276
▁мае	-7.79528
▁190	-7.79606
▁Расі	-7.79728
▁беларуска	-7.80796
гады	-7.82015
II	-7.83258
▁розны	-7.83348
▁20	-7.8336
▁якіх	-7.83931
▁праз	-7.84486
▁студзен	-7.85324
▁стала	-7.85719
▁інш	-7.86051
▁частк	-7.86133
▁беларускі	-7.86678
▁гісторы	-7.86727
▁якой	-7.87397
яны	-7.87485
▁Адна	-7.87514
▁Гэта	-7.87542
▁складзе	-7.87878
▁4	-7.89571
▁ё	-7.89781
▁5	-7.89865
▁атрымаў	-7.89942
▁гэтым	-7.90602
▁сваё	-7.91302
ах	-7.91422
▁тыс	-7.91569
▁XI	-7.91615
▁с	-7.91687
▁колькасц	-7.91904
▁перыяд	-7.93333
жо	-7.93526
ле	-7.93946
вайны	-7.94003
▁снежн	-7.95495
▁17	-7.96341
яшчэ	-7.96574
/	-7.97639
▁Я	-7.98302
▁некаторы	-7.98425
▁свет	-7.98997
▁Вяліка	-7.99373
▁ліпен	-7.99704
▁сакавік	-8.00161
▁ўсход	-8.00525
▁школ	-8.00573
▁Еўроп	-8.00896
▁жыхар	-8.00995
▁культур	-8.01143
▁над	-8.01309
ой	-8.0163
▁жа	-8.02424
▁К	-8.03403
▁12	-8.03916
шы	-8.04305
▁гада	-8.04352
▁Пад	-8.04538
▁кастрычнік	-8.04564
▁царкв	-8.05107
▁16	-8.05267
▁яна	-8.05358
▁Рэспублік	-8.05528
▁Мінска	-8.05636
▁Так	-8.07021
▁част	-8.07277
▁Ён	-8.0736
▁Беларуска	-8.07486
▁дзяржав	-8.07532
▁супраць	-8.08049
▁дзейнасц	-8.08418
ва	-8.08486
за	-8.09004
▁каб	-8.09445
▁размешчаны	-8.09793
▁працяг	-8.09898
▁захад	-8.10155
▁был	-8.10215
▁ве	-8.10325
▁14	-8.1086
▁лістапад	-8.10912
▁якога	-8.11316
▁Беларусь	-8.11516
▁сям	-8.11663
▁возера	-8.11876
▁вёска	-8.12602
▁імперы	-8.12727
▁чэрвен	-8.13269
▁поўнач	-8.13275
▁можа	-8.13301
▁перша	-8.1341
разам	-8.13521
ны	-8.13558
▁бы	-8.13946
сіх	-8.14826
▁30	-8.14861
льмі	-8.15347
▁аднак	-8.15366
▁назв	-8.15834
▁вядомы	-8.16633
▁19	-8.17209
▁18	-8.17218
▁ўсё	-8.174
▁назва	-8.17419
▁мая	-8.17593
▁ж	-8.17611
▁6	-8.17787
▁сувяз	-8.17997
▁якім	-8.18175
о	-8.18264
▁н	-8.18666
▁від	-8.18933
▁вялікі	-8.19256
▁І	-8.19359
▁адным	-8.19938
ая	-8.20054
▁мора	-8.20987
чынам	-8.21342
▁вяліка	-8.21402
▁рух	-8.21584
▁маю	-8.21747
▁вёск	-8.22523
▁новы	-8.22775
▁навук	-8.22778
▁канцы	-8.23019
▁працы	-8.23247
▁жыцця	-8.23615
маль	-8.24216
▁пасад	-8.24297
▁свай	-8.25729
▁б	-8.25744
▁павод	-8.25778
▁Польшч	-8.25797
°	-8.25803
ліку	-8.25934
▁XVI	-8.26367
▁кар	-8.26476
▁сярод	-8.26527
▁верасн	-8.26593
▁За	-8.26619
ем	-8.26819
▁якое	-8.26851
ючы	-8.26924
▁раз	-8.2755
▁самы	-8.2827
той	-8.28537
▁якасц	-8.29128
ца	-8.29169
▁жніўн	-8.29372
▁II	-8.29597
▁права	-8.29615
ка	-8.29759
сваю	-8.29925
▁два	-8.30305
▁груп	-8.3038
▁8	-8.30415
▁плошч	-8.3043
т	-8.30468
▁чым	-8.30509
▁25	-8.30611
▁13	-8.30635
дле	-8.30962
▁Паво	-8.31366
▁186	-8.31718
сці	-8.31721
▁мастацтва	-8.32405
▁пачаў	-8.32635
▁сельсавета	-8.33255
▁189	-8.33313
X	-8.33352
крамя	-8.33428
▁таму	-8.33769
▁найбольш	-8.34124
▁красавік	-8.34216
▁Але	-8.34542
▁Р	-8.34563
▁Пры	-8.35128
прыклад	-8.3543
асць	-8.35709
▁кніг	-8.36194
▁ліні	-8.36403
▁Германі	-8.36434
▁11	-8.36821
▁Францы	-8.3685
▁Гэты	-8.36867
▁лічы	-8.37508
ства	-8.38301
▁смерці	-8.39204
▁яўляю	-8.39276
▁пазней	-8.39396
▁парты	-8.39526
▁7	-8.39654
Л	-8.40079
▁аснов	-8.40753
▁друго	-8.40841
▁войска	-8.4114
V	-8.41155
▁шэраг	-8.41243
▁мова	-8.41417
▁Маскв	-8.41545
▁сваі	-8.42387
▁вядома	-8.42448
мовы	-8.4246
▁чалавека	-8.42552
▁твор	-8.42583
▁ям	-8.43287
▁тысяч	-8.43573
▁рак	-8.43907
▁т	-8.4418
▁бо	-8.44256
▁тут	-8.44344
▁месц	-8.44533
▁тып	-8.44822
можна	-8.45296
▁то	-8.45509
▁сваім	-8.45838
▁дзяржаўны	-8.45925
▁Плошч	-8.45943
▁Мінск	-8.46502
▁менш	-8.46519
▁сябе	-8.4671
▁род	-8.46936
▁лют	-8.47024
▁ер	-8.47143
▁млн	-8.47399
на	-8.475
▁ВК	-8.47534
▁форм	-8.47674
▁сіл	-8.47908
ых	-8.47948
▁зямл	-8.48222
▁член	-8.48261
▁Д	-8.48319
першын	-8.48693
▁адной	-8.48782
▁значна	-8.49078
▁Заходня	-8.49256
тым	-8.49279
▁9	-8.49339
працаваў	-8.49825
▁лік	-8.49981
му	-8.5004
▁сабо	-8.50042
с	-8.50653
▁Віцебска	-8.50923
▁тры	-8.51013
сельніцтва	-8.51247
▁2008	-8.51311
▁Расійска	-8.51773
▁літаратур	-8.51861
▁развіцц	-8.51871
▁дзеяч	-8.52076
▁Ян	-8.5214
▁вуліц	-8.52152
▁179	-8.52158
▁стагоддз	-8.52177
▁войск	-8.52859
▁шмат	-8.53052
▁Яго	-8.53309
▁цяпер	-8.54484
▁188	-8.54517
▁многі	-8.56101
▁сын	-8.56983
▁паўднёва	-8.5728
▁Паўночна	-8.57508
▁свец	-8.57682
▁поўдн	-8.58052
▁Уваходзі	-8.58302
▁к	-8.58509
▁пераважна	-8.58574
–	-8.58683
▁улад	-8.58731
▁ц	-8.58986
▁паўночна	-8.59017
▁звычайна	-8.59031
▁адна	-8.59219
▁рака	-8.59375
▁нават	-8.59424
▁армі	-8.59647
▁сталі	-8.59781
▁Рэчы	-8.59892
▁перш	-8.60091
▁сам	-8.60213
▁Яна	-8.60223
▁адбыл	-8.60941
▁без	-8.61176
▁C	-8.61222
▁22	-8.61689
▁мяж	-8.61781
атым	-8.61977
▁дзень	-8.62089
▁арганізацы	-8.62534
▁працэс	-8.62589
▁100	-8.6261
▁часта	-8.62626
▁сусветна	-8.6278
▁асабліва	-8.62789
ска	-8.63612
▁нацыянальна	-8.63724
▁канца	-8.63745
▁атрымала	-8.63945
скага	-8.64156
▁беларуск	-8.64191
▁часам	-8.64556
▁такі	-8.64904
▁28	-8.65158
ося	-8.65277
▁палов	-8.65672
пачатк	-8.65729
▁24	-8.65774
▁Калі	-8.65784
▁асноўным	-8.65813
ыня	-8.66115
▁агульна	-8.66396
▁барацьб	-8.66445
▁ваенны	-8.66513
▁шырын	-8.66706
▁в	-8.66848
ракі	-8.67019
▁шматлікі	-8.67132
▁187	-8.67231
▁Дл	-8.67269
▁п	-8.67289
▁колер	-8.67474
▁Г	-8.67574
0	-8.67715
▁свае	-8.67814
▁сістэм	-8.67917
▁сярэдзін	-8.6796
▁меў	-8.68167
▁2010	-8.68184
▁Першы	-8.68227
▁двух	-8.68548
▁21	-8.69053
▁тое	-8.69188
000	-8.69309
▁выгляд	-8.69503
▁апошні	-8.69514
▁першым	-8.69568
▁княз	-8.6964
▁2009	-8.69753
▁буйны	-8.69793
▁Мінску	-8.69993
▁вытворчасц	-8.70012
▁Паўднёва	-8.70074
▁23	-8.70107
▁пункт	-8.70171
▁27	-8.70397
▁Аб	-8.70757
▁Італі	-8.71236
▁50	-8.71295
▁дзве	-8.71702
▁цэнтрам	-8.72172
▁адміністрацыйны	-8.7224
▁ўсе	-8.72436
▁Перша	-8.72442
▁аднаго	-8.72828
▁межа	-8.7309
▁большасц	-8.73223
00	-8.73395
▁паверхн	-8.74112
▁галін	-8.74132
▁сістэмы	-8.74471
▁гонар	-8.7452
▁Ф	-8.74521
▁Горад	-8.74577
▁26	-8.74791
дзень	-8.74831
▁180	-8.74861
▁ступен	-8.75087
ст	-8.75759
▁дзяржаўна	-8.76321
▁Украін	-8.76422
алкам	-8.76599
ё	-8.76663
▁павета	-8.7706
▁зноў	-8.77215
▁асноўны	-8.77363
▁No	-8.77682
▁караля	-8.77775
▁Даўж	-8.77967
▁Паспаліта	-8.78006
▁станцы	-8.78016
▁стварэнн	-8.78118
▁наступны	-8.78597
▁шлях	-8.78992
▁людзей	-8.79567
▁губерні	-8.79676
▁по	-8.79719
▁палітычны	-8.79758
▁краіна	-8.80467
▁2-	-8.80473
▁183	-8.80578
▁сучасна	-8.80792
▁будаўніцтва	-8.80872
▁створаны	-8.81124
▁пабудаваны	-8.81333
▁трох	-8.81361
▁свой	-8.81376
▁сярэдня	-8.81642
▁прыток	-8.82016
▁кіраўніцтва	-8.82259
▁181	-8.82315
▁метра	-8.83089
▁184	-8.83241
▁2000	-8.83335
▁афіцыйна	-8.83337
▁чал	-8.83506
▁рэгіён	-8.83764
▁рол	-8.8377
▁кампані	-8.83944
▁см	-8.84065
▁паўночны	-8.84065
▁момант	-8.84235
▁Як	-8.84275
дзячы	-8.84341
▁ект	-8.84344
▁Зямл	-8.84424
▁дом	-8.84549
▁пачалі	-8.84951
▁гульн	-8.85035
▁Т	-8.8512
▁прамысловасц	-8.85126
▁дадзены	-8.85146
▁40	-8.85996
▁паўднёвы	-8.8625
▁заста	-8.86324
▁польска	-8.86687
▁185	-8.86901
▁ты	-8.86983
▁шырока	-8.87063
▁1-	-8.87188
▁народа	-8.8735
▁там	-8.87521
▁абарон	-8.87553
▁працу	-8.87789
э	-8.87964
▁цела	-8.88018
▁жыццё	-8.88211
▁палітык	-8.88369
▁бок	-8.8849
▁вёс	-8.88659
▁новага	-8.88807
▁Літв	-8.88958
▁перад	-8.88961
ку	-8.89282
▁XX	-8.89424
▁займае	-8.89473
▁таварыства	-8.89706
▁галоўным	-8.90173
▁знаходзя	-8.90263
▁нова	-8.903
▁адміністрацыйна	-8.90362
▁Вялікі	-8.90492
▁плошча	-8.90498
енавіта	-8.90591
▁скончыў	-8.90891
▁выступа	-8.91033
▁ўдзел	-8.91057
▁Айчынн	-8.91156
▁нацыянальны	-8.91434
▁тэрмін	-8.91479
▁Праз	-8.91584
▁створана	-8.916
▁прычын	-8.91905
▁раслін	-8.92138
▁слова	-8.92162
▁матэрыял	-8.92207
▁адбы	-8.92435
▁Беларускі	-8.92449
▁хо	-8.92784
▁бера	-8.9312
▁сістэма	-8.93939
▁руска	-8.9405
GC	-8.941
▁Са	-8.94104
▁мэта	-8.94412
▁выкарыстоўвае	-8.94434
вады	-8.94481
▁справ	-8.94538
▁незалежнасц	-8.94676
▁акруг	-8.9488
▁вышын	-8.95145
▁XVII	-8.95189
▁ваенна	-8.9547
▁жывёл	-8.95716
ец	-8.9585
▁Савета	-8.9607
▁навуковы	-8.96152
▁дзяце	-8.96461
▁іншым	-8.96686
▁якую	-8.96713
▁хутка	-8.96823
могу	-8.96851
▁29	-8.96885
▁басейн	-8.97041
▁яўля	-8.97111
▁ўніверсітэта	-8.97115
▁Скончыў	-8.97131
▁177	-8.97278
▁віда	-8.97436
▁вярну	-8.97496
▁размешчана	-8.98346
▁асобны	-8.98378
▁рэк	-8.98596
▁даўжын	-8.98721
▁тэоры	-8.98772
▁помнік	-8.98815
▁рускі	-8.98816
▁прэзідэнта	-8.9891
▁мела	-8.98993
оль	-8.99462
плыў	-8.99604
▁прыкладна	-8.99829
▁Парыж	-8.99988
забав	-9.00048
▁Саюза	-9.00067
▁моцна	-9.0016
▁1920	-9.00174
▁прадстаўнік	-9.00316
▁палітычна	-9.00425
▁чаго	-9.0048
▁наш	-9.00538
▁бацьк	-9.00598
▁мелі	-9.00723
▁сама	-9.00936
▁удзел	-9.00969
▁поў	-9.01003
▁адбыва	-9.01087
▁войскам	-9.01173
узор	-9.01368
▁Мікала	-9.01574
▁галоўны	-9.0171
▁ля	-9.01948
▁вялік	-9.0228
ахадзе	-9.0231
▁правінцы	-9.02368
▁прызначаны	-9.0241
▁статус	-9.02789
▁прэмі	-9.02919
▁Гомельска	-9.03005
▁самым	-9.03217
не	-9.03495
▁выпадк	-9.03575
Р	-9.03631
▁?	-9.03675
▁Рым	-9.03695
▁Л	-9.03742
▁развіццё	-9.03777
▁раней	-9.04001
▁150	-9.04013
▁нямецкі	-9.04037
▁182	-9.04117
▁перамог	-9.04193
▁савецкі	-9.04269
▁бак	-9.04331
▁школа	-9.04401
▁памёр	-9.0444
▁выкарыстоўва	-9.04653
▁творчасц	-9.04715
▁Быў	-9.04737
боку	-9.04975
+	-9.05198
▁нямецка	-9.05338
▁газет	-9.05362
▁гарадско	-9.05407
▁Н	-9.05432
▁тэрыторыя	-9.05584
▁сезон	-9.05764
▁будын	-9.05875
▁ўлад	-9.05882
▁Нарадзі	-9.0615
▁мясцовы	-9.06202
▁сцяг	-9.06221
▁ўніверсітэт	-9.06335
▁ём	-9.06338
▁такім	-9.06446
▁дзён	-9.06461
▁астрав	-9.06596
▁Свято	-9.06625
▁Азі	-9.06654
У	-9.0674
▁будзе	-9.06888
▁народна	-9.06949
▁акадэмі	-9.06999
▁усе	-9.07098
амак	-9.0714
ры	-9.07394
▁кіраванн	-9.074
▁КП	-9.07405
▁ўрад	-9.07497
▁Друго	-9.07572
▁дэ	-9.07646
ль	-9.07735
▁князя	-9.07773
▁ні	-9.07837
▁178	-9.0784
▁востра	-9.07896
_	-9.07919
▁бітв	-9.08022
▁клуб	-9.08143
най	-9.08219
▁сталіц	-9.08239
▁другі	-9.0835
▁Аўтар	-9.084
▁уваходзі	-9.08524
▁польскі	-9.08772
▁1990	-9.08819
▁адносін	-9.09114
▁Вільн	-9.09295
▁падзе	-9.09296
▁княства	-9.09379
▁гарадо	-9.0946
▁палац	-9.09568
▁сталіца	-9.09612
гле	-9.09841
▁абраны	-9.0994
la	-9.10239
▁сучасны	-9.10482
▁служб	-9.10514
▁брат	-9.10542
▁усход	-9.10589
▁Аляксандр	-9.10621
ці	-9.10766
▁гістарычны	-9.10782
▁спадчын	-9.10823
▁праблем	-9.10831
▁31	-9.11415
▁паўночным	-9.1156
▁2002	-9.11827
▁маці	-9.11863
▁рэвалюцы	-9.12009
▁Ад	-9.12033
▁значэнне	-9.12127
▁змен	-9.12189
▁работ	-9.1219
▁нарадзі	-9.12248
▁Літоўска	-9.12291
▁закон	-9.12391
▁характар	-9.12464
▁касцёл	-9.12473
▁верш	-9.12588
▁артыкул	-9.12611
▁крыніц	-9.12662
ярод	-9.12736
▁значны	-9.13054
▁1940	-9.13458
▁Вялікабрытані	-9.13655
▁узроўн	-9.1381
▁галоўна	-9.13856
▁шлюб	-9.13928
▁цэнтральна	-9.14016
юю	-9.14061
та	-9.14085
▁заснаваны	-9.14101
▁1930	-9.14188
▁паселішча	-9.14189
▁працавал	-9.14491
▁будынка	-9.14492
▁эпох	-9.14505
▁праца	-9.14527
▁езд	-9.14543
▁пісьменнік	-9.1484
▁кожны	-9.15101
▁вострава	-9.15142
▁мноства	-9.15544
▁магчыма	-9.15672
▁Англі	-9.15793
▁орган	-9.1581
▁N	-9.15895
▁Там	-9.16138
▁чыгуначна	-9.1617
▁Савецка	-9.16432
▁for	-9.16818
▁1999	-9.16901
▁Заснаван	-9.16923
▁аўтар	-9.173
▁паўднёвым	-9.17368
▁праходзі	-9.17429
▁дзейніча	-9.17537
▁высока	-9.17566
▁зон	-9.17633
▁добра	-9.1769
▁VI	-9.18419
▁беларус	-9.18797
mu	-9.1882
рацэ	-9.18829
▁Найбольш	-9.18882
▁правы	-9.19138
▁Нацыянальна	-9.19154
▁адносна	-9.19351
▁Адзін	-9.19525
▁БН	-9.19545
▁навукова	-9.19546
▁твора	-9.19657
▁цяперашні	-9.19808
▁існавал	-9.19815
▁актыўна	-9.19975
▁Гродзенска	-9.19982
ты	-9.20002
▁мог	-9.20152
▁выбара	-9.20345
▁архітэктур	-9.20381
▁жанчын	-9.20384
▁Пазней	-9.20594
▁будынк	-9.20681
▁дзяку	-9.20683
▁звязаны	-9.20997
▁Нова	-9.21162
▁адкрыты	-9.21195
▁імператара	-9.21246
▁Цэнтральна	-9.21258
▁спіс	-9.21288
▁вучы	-9.21445
▁штата	-9.21831
▁ЦК	-9.21858
▁Ц	-9.21867
ен	-9.21876
▁Магілёўска	-9.21906
▁ідэ	-9.21931
▁выбар	-9.21997
▁сродк	-9.22122
▁апошня	-9.22123
▁жыў	-9.22586
▁французска	-9.22586
▁завод	-9.22662
▁людз	-9.22732
▁дзяржава	-9.23062
▁ляс	-9.23106
▁дзеяння	-9.23122
▁кожна	-9.23326
▁паход	-9.23459
▁выйшл	-9.235
▁старажытны	-9.23609
▁Гродн	-9.23683
▁Такім	-9.23919
▁Некаторы	-9.24146
▁165	-9.24191
▁гістарычна	-9.24219
▁прыняў	-9.24271
▁чатыр	-9.24518
▁Усходня	-9.24665
▁60	-9.24766
▁замежны	-9.24827
▁паходжанн	-9.24853
▁Лондан	-9.24882
▁грамадска	-9.2496
куль	-9.25061
▁&#93;	-9.25078
▁гарадскі	-9.25112
▁156	-9.25253
▁інстытут	-9.25385
▁рэспублік	-9.25467
д	-9.25515
▁тэмпература	-9.25698
▁парк	-9.25759
▁пачат	-9.26268
▁Іспані	-9.26275
лас	-9.26581
▁адзінка	-9.26628
▁збор	-9.26871
▁комплекс	-9.26891
▁вуліца	-9.2703
л	-9.27043
▁штат	-9.27109
▁&#9	-9.27113
▁пакінуў	-9.27209
тады	-9.27337
▁Чырвона	-9.27622
▁Ня	-9.27629
▁складаю	-9.27652
▁гаспадарк	-9.27716
▁вакол	-9.27952
▁каманд	-9.28114
▁група	-9.28185
▁азёр	-9.28185
▁р	-9.28298
▁савецка	-9.28313
▁музей	-9.28315
▁невялікі	-9.28375
▁Не	-9.28524
▁Брэсцка	-9.28539
▁членам	-9.28822
▁тэатр	-9.28839
▁даследавання	-9.28846
▁думк	-9.29431
▁пера	-9.29439
▁партыя	-9.29486
▁становішча	-9.2966
▁падзел	-9.29665
▁Сярэдня	-9.29693
▁песн	-9.29732
▁станцыя	-9.2993
▁практычна	-9.30027
▁прэм	-9.30203
▁выкарыстоўваю	-9.30455
▁ўсім	-9.30468
▁прырод	-9.30489
▁Амерык	-9.30503
▁размяшчае	-9.3056
▁акіяна	-9.30567
▁рашэнне	-9.30645
▁Вялік	-9.30853
▁элемент	-9.30879
▁музык	-9.30885
▁французскі	-9.30984
▁прынята	-9.3099
▁народ	-9.31164
▁саб	-9.31338
▁няма	-9.31382
▁Больш	-9.31455
▁1994	-9.31519
▁альбо	-9.31711
▁грамадскі	-9.31758
▁Э	-9.31851
▁заснавана	-9.31912
ок	-9.32036
▁поўна	-9.32321
▁заходня	-9.32343
▁усё	-9.32416
▁вы	-9.32423
▁месяц	-9.32498
▁існуе	-9.32658
▁V	-9.32936
▁правіла	-9.33035
▁фільм	-9.33062
▁знаходзіл	-9.33233
▁прадстаўніко	-9.3326
▁міжнародны	-9.33265
▁прэзідэнт	-9.33405
▁паэт	-9.33452
▁мас	-9.33703
цыі	-9.3372
▁размяшча	-9.33769
▁Член	-9.33775
ні	-9.34095
▁гульня	-9.34096
▁эканамічна	-9.34098
▁паўстання	-9.34128
▁пачынае	-9.34183
▁фронт	-9.34257
▁атрымал	-9.34313
▁рэдакцы	-9.34559
▁рэгіёна	-9.34573
▁складала	-9.34633
▁пачало	-9.34801
▁высокі	-9.34825
▁расійскі	-9.34944
▁паходзі	-9.34946
з	-9.34955
▁Аляксандра	-9.34969
▁жыцц	-9.35048
▁кіраўнік	-9.35169
▁сялян	-9.35329
▁чаргу	-9.35396
▁тако	-9.35422
▁хто	-9.35434
▁спраў	-9.35453
▁люты	-9.35516
▁ўваходзіл	-9.35654
▁карцін	-9.35731
▁заканчэнн	-9.35733
▁1996	-9.35789
▁замка	-9.35876
нага	-9.36062
колькі	-9.36267
▁адукацыі	-9.3657
▁1993	-9.36716
▁ваяводства	-9.36744
▁часопіс	-9.36792
▁Асноўны	-9.36807
▁Інды	-9.37079
▁велічын	-9.37226
▁дапамог	-9.37303
▁Кіта	-9.37454
Ф	-9.37486
▁кошт	-9.37544
▁мастак	-9.37838
▁камун	-9.37855
ведаў	-9.37874
▁адносі	-9.37936
▁звязана	-9.38125
▁цэнтра	-9.38161
▁вялікім	-9.38178
▁англійска	-9.38233
▁сельска	-9.38233
▁генерал	-9.38254
н	-9.3838
▁значы	-9.3846
▁амерыканскі	-9.38462
▁крыніца	-9.385
▁народны	-9.38527
▁кіраўніко	-9.38546
▁сабор	-9.38826
▁храм	-9.39037
▁грамадства	-9.39131
▁земл	-9.39161
▁адкрыта	-9.39232
разу	-9.39359
▁прыватна	-9.39363
▁80	-9.39375
▁Княства	-9.39504
▁500	-9.39571
▁Маскоўска	-9.396
▁Пачына	-9.39662
▁колькас	-9.39851
▁падтрымк	-9.40193
▁ўзроўн	-9.40519
▁Знаходзі	-9.40531
▁сусветн	-9.40542
▁Нью	-9.40641
▁загад	-9.40801
▁земля	-9.40805
▁пачала	-9.40866
▁стане	-9.40941
▁залежнасц	-9.41108
▁тэатра	-9.41301
▁моў	-9.41311
▁адначасов	-9.41326
▁функцы	-9.4164
асці	-9.41877
▁Віленска	-9.41911
▁Новы	-9.41915
▁праграм	-9.42032
обач	-9.42406
▁явіла	-9.42611
▁перапіс	-9.42787
▁саюз	-9.42902
▁атрад	-9.4298
▁музея	-9.43143
▁вышынё	-9.43325
даволі	-9.43333
▁пабудавана	-9.43511
▁планет	-9.43642
▁адмові	-9.43698
▁глыбін	-9.43817
▁прац	-9.43921
▁займа	-9.43987
▁ўвайшл	-9.44119
▁крэпасц	-9.44203
▁курс	-9.44246
,5	-9.4444
▁праводзі	-9.4445
▁вострав	-9.4447
▁герб	-9.44494
вень	-9.44561
▁Тым	-9.44695
▁2,	-9.44733
доўж	-9.44801
▁каралё	-9.4492
▁мяжу	-9.45067
▁...	-9.45113
▁дзяржаў	-9.4517
▁вад	-9.45261
▁P	-9.45345
▁часткова	-9.45477
▁гадзін	-9.45518
▁300	-9.45547
▁прынцып	-9.45555
▁поспех	-9.45895
сельскагаспадарч	-9.46032
р	-9.46132
▁тытул	-9.46133
▁факультэт	-9.46197
Б	-9.46235
▁найбуйнейшы	-9.4628
▁астравы	-9.46376
▁нар	-9.46431
▁асоб	-9.46458
▁гара	-9.46476
▁рэформ	-9.46588
▁мясцова	-9.46688
▁арганізацыя	-9.46772
▁трэці	-9.46772
▁160	-9.46801
▁структур	-9.46803
▁перайшоў	-9.46848
▁зрабіў	-9.46898
▁праект	-9.46898
▁Варшав	-9.46905
▁займаў	-9.46937
▁магчымасць	-9.47341
▁кірунк	-9.47568
▁дынасты	-9.47574
▁справа	-9.47839
▁выраб	-9.4784
▁імператар	-9.48236
▁170	-9.48397
▁прыняты	-9.4842
▁дачк	-9.48435
▁сакратар	-9.48519
▁мястэчка	-9.48536
▁пазіцы	-9.4859
араз	-9.48744
▁каталога	-9.48826
▁Гомел	-9.48877
▁рыб	-9.48902
нкт	-9.48922
▁галактыка	-9.48932
▁літоўскі	-9.48934
▁эканомік	-9.49
▁1960	-9.49144
▁сына	-9.49168
▁ліча	-9.49198
G	-9.49204
▁чэмпіянат	-9.49208
▁Тут	-9.49438
▁філасофі	-9.49631
▁інстытута	-9.49665
рд	-9.49666
▁176	-9.50091
▁літоўска	-9.50149
▁рыс	-9.50159
▁35	-9.50168
▁лета	-9.5018
▁Мары	-9.50214
пісаў	-9.50237
лады	-9.50259
▁версі	-9.50289
▁доўгі	-9.50362
▁бацька	-9.50582
▁камітэта	-9.50593
▁зборнік	-9.507
▁адносяц	-9.50867
▁само	-9.51002
▁кафедр	-9.51113
▁Расія	-9.51146
▁воласц	-9.51149
▁адлегласц	-9.51174
s	-9.51339
▁універсітэц	-9.51365
▁Нацыянальны	-9.51373
▁ўваходзі	-9.51376
▁166	-9.51484
▁населены	-9.51537
▁Дзяржаўна	-9.51767
▁бераг	-9.51827
цтва	-9.51859
▁ўрада	-9.51896
▁прафесар	-9.51991
▁пасёл	-9.52067
▁фон	-9.52229
ёды	-9.52293
▁мы	-9.52443
▁ліпені	-9.52454
▁Усе	-9.52538
▁гімназі	-9.52738
▁проста	-9.52994
▁губерня	-9.53206
▁трэця	-9.53235
▁Пра	-9.5335
▁ня	-9.53539
▁верхня	-9.53704
▁пабудов	-9.53721
▁Каля	-9.53732
мест	-9.53786
▁дапамога	-9.53945
▁павет	-9.53945
▁сход	-9.53948
▁смерц	-9.54251
▁суд	-9.54306
▁Польска	-9.54315
▁Аўстралі	-9.54364
▁жонка	-9.54384
▁падобны	-9.5439
чале	-9.54464
▁тэмператур	-9.5451
▁павінна	-9.54533
▁напісаў	-9.54592
▁правёў	-9.54757
▁адно	-9.54848
▁пытання	-9.55013
▁праваслаўна	-9.5515
▁названы	-9.55161
▁стылі	-9.55263
▁выдання	-9.55285
▁рук	-9.553
▁называю	-9.55372
▁працава	-9.55446
▁сем	-9.55512
▁Уладзімір	-9.55607
п	-9.55801
▁Сярэдні	-9.55824
▁70	-9.55935
▁сцяга	-9.56005
▁магл	-9.56056
▁жніўні	-9.56057
▁жонк	-9.56131
▁пісьменніка	-9.56233
▁адрозніва	-9.56268
▁манастыр	-9.56365
▁Рымска	-9.56484
▁32	-9.56566
▁перайшл	-9.566
▁маі	-9.56601
▁конкурс	-9.56657
▁Пятр	-9.5666
▁XV	-9.56717
▁жывапіс	-9.56719
▁павінны	-9.56897
▁Полацка	-9.57016
▁Ва	-9.57032
▁правінцыя	-9.57048
▁інфармацы	-9.57112
▁еўрапейскі	-9.57252
▁Сцяг	-9.57317
ЕС	-9.57394
▁міністра	-9.57427
▁вадазбор	-9.57647
▁канал	-9.5772
▁стварыў	-9.57779
▁мір	-9.5788
▁Размешчан	-9.57917
▁гісторык	-9.57949
▁незалежна	-9.5809
▁паступова	-9.58168
▁знак	-9.58296
▁Адміністрацыйны	-9.58426
▁канчаткова	-9.58515
▁Акадэмі	-9.58518
▁часопіса	-9.5865
Ёрк	-9.58687
▁Царкв	-9.58687
▁Х	-9.58754
▁верасні	-9.58754
▁выйшаў	-9.58818
▁канфлікт	-9.58975
▁яднання	-9.59181
▁згадвае	-9.59256
тр	-9.59301
▁удзельніча	-9.59471
▁другім	-9.59623
Пецярбург	-9.59921
▁памяц	-9.60085
▁3-	-9.60116
▁сцен	-9.60135
▁былы	-9.60416
▁даследчык	-9.60432
▁шляхам	-9.60515
▁вымушаны	-9.60671
▁1980	-9.60761
год	-9.60796
▁святы	-9.6092
▁Карл	-9.61044
▁Буда	-9.61058
▁Раза	-9.61258
▁Назва	-9.61467
▁плямён	-9.61517
▁дзейнічал	-9.61569
▁45	-9.61627
▁адрозненне	-9.61649
▁азначае	-9.61701
▁ўдзельніча	-9.61773
▁Афрык	-9.61842
▁існаванн	-9.61905
▁пункта	-9.61937
▁Францыя	-9.6196
▁супольнасц	-9.6197
▁футбаліст	-9.62016
▁Агульна	-9.62152
▁164	-9.62178
▁1970	-9.62228
▁зборна	-9.62243
▁месцам	-9.62267
▁форма	-9.62324
б	-9.62399
веце	-9.6241
▁пераход	-9.62471
лежыць	-9.62507
▁вышыня	-9.6251
▁выхад	-9.62737
▁фактычна	-9.62796
▁Сусветна	-9.62863
▁163	-9.62892
▁158	-9.62905
▁Германія	-9.62958
▁план	-9.62959
▁бібліятэк	-9.63167
▁Віцебск	-9.63179
▁белы	-9.63229
▁рэчыва	-9.63368
▁літаратурна	-9.63407
▁распаўсюджаны	-9.63438
▁гандл	-9.63479
▁павін	-9.63489
▁ордэна	-9.63509
▁красавіку	-9.63697
▁АН	-9.63778
жыць	-9.63844
▁Гомель	-9.63894
10	-9.63904
▁эканамічны	-9.6391
▁тэм	-9.63923
▁камісі	-9.63943
▁заўс	-9.64282
▁міжнародна	-9.64311
▁ста	-9.64328
▁рэлігійны	-9.64396
▁армія	-9.64498
▁берага	-9.647
▁2015	-9.64816
▁вучылішча	-9.64861
▁явілі	-9.64957
▁Турцы	-9.64984
▁нацыянальн	-9.64986
▁спроб	-9.64989
▁застава	-9.65036
▁адпаведна	-9.65249
▁афіцыйны	-9.65278
▁працуе	-9.65308
▁пяць	-9.65385
▁раман	-9.65447
▁загінул	-9.65514
▁152	-9.65656
▁гл	-9.65755
▁выкарыстанн	-9.6584
▁гарады	-9.6585
▁Сонца	-9.65904
▁храма	-9.65979
▁Згодн	-9.66158
▁дарог	-9.66285
трэба	-9.66296
▁мастацка	-9.66435
▁называе	-9.66468
▁меж	-9.66478
▁традыцы	-9.66725
▁мала	-9.66797
▁Грэцы	-9.66826
▁кампанія	-9.66831
▁старшыня	-9.66903
▁напрамк	-9.66922
▁ўсходня	-9.66946
▁Андрэ	-9.66967
▁T	-9.67066
▁ахов	-9.67093
▁162	-9.67159
▁далін	-9.67176
▁робі	-9.67202
▁прадпрыемства	-9.6736
▁выкарыстанне	-9.67375
▁прынял	-9.67398
▁расійска	-9.67421
▁Кольк	-9.67453
▁адсутнасц	-9.67596
▁i	-9.67668
▁тысячагоддзя	-9.67888
▁цяжка	-9.68003
▁клуба	-9.68111
▁палас	-9.6812
косны	-9.68157
▁фізік	-9.68192
▁Усход	-9.68222
эры	-9.68244
▁мільёна	-9.68343
▁марскі	-9.68515
весці	-9.68575
▁дзеянн	-9.68678
▁грамадзян	-9.68813
▁станові	-9.68878
шчэ	-9.69242
▁хуткасц	-9.69306
▁званне	-9.69406
▁155	-9.69509
▁чатырох	-9.6961
цей	-9.69627
▁дзеля	-9.69669
▁газета	-9.69715
▁1950	-9.69715
▁культурны	-9.69745
падае	-9.69759
▁апыну	-9.69873
▁кіламетра	-9.69962
▁мл	-9.70035
▁сэнс	-9.7005
▁калгас	-9.70212
▁Іван	-9.70266
▁уплыва	-9.70647
▁ўз	-9.70688
▁вывучэнн	-9.70833
▁гаспадар	-9.70858
▁верагодна	-9.70884
▁Працава	-9.7091
▁арганізацый	-9.71099
▁заходні	-9.71245
▁пералічаны	-9.71379
▁невяліка	-9.71571
▁XII	-9.71603
▁парадк	-9.71629
▁яві	-9.71633
▁вусц	-9.71655
▁пераклад	-9.71801
▁рэжым	-9.71825
▁чэрвені	-9.71948
▁намеснік	-9.71973
ёў	-9.72023
яно	-9.7216
▁ніжэй	-9.72228
ААН	-9.72253
▁арыштаваны	-9.72269
▁першапачаткова	-9.7231
▁пачынаю	-9.72315
▁гэту	-9.72323
▁погляд	-9.72362
▁карыста	-9.72391
▁экспедыцы	-9.72501
▁належа	-9.7258
▁стан	-9.72606
▁Японі	-9.72637
▁1000	-9.72747
▁1984	-9.72752
▁камітэт	-9.72796
ну	-9.72898
▁роўна	-9.72903
▁раўнін	-9.72909
▁гарада	-9.73079
▁звестк	-9.73151
▁адказ	-9.7323
▁глыбіня	-9.73244
▁амерыканска	-9.73328
▁варыянт	-9.73336
▁лёгка	-9.73413
▁90	-9.73424
▁вышэйша	-9.73425
ступіў	-9.73497
▁пачалас	-9.73499
▁камп	-9.73635
будзь	-9.738
▁БД	-9.73883
▁пол	-9.7392
▁Займае	-9.73939
▁задач	-9.74015
служыў	-9.74134
▁касцёла	-9.74174
▁каралеўства	-9.74453
▁атрыма	-9.74477
▁Карла	-9.74524
▁непасрэдна	-9.74527
▁мэт	-9.74693
▁ўяўляе	-9.74773
▁175	-9.74777
▁1,5	-9.74853
▁бібліятэка	-9.74905
▁Амеры	-9.74927
▁астатні	-9.74943
▁важны	-9.74947
▁глеб	-9.75032
▁машын	-9.75078
▁сучасн	-9.75125
▁адпаведнасц	-9.75139
▁рымска	-9.75168
▁опер	-9.75279
вай	-9.75281
▁ніко	-9.75331
▁рост	-9.75374
▁стварэнне	-9.75387
▁Швецы	-9.75448
▁польск	-9.75565
▁пераеха	-9.75627
▁вышэй	-9.75722
▁салдат	-9.75903
▁дзяржаўн	-9.75914
▁цячэнн	-9.7599
▁традыцыйна	-9.76138
▁жанр	-9.76191
▁птуш	-9.76196
▁157	-9.76311
▁Першапачаткова	-9.7632
▁жыву	-9.76336
▁заняў	-9.7657
▁свабод	-9.76579
▁вызваленн	-9.7659
▁прыхільнік	-9.76679
▁плане	-9.76718
▁гэт	-9.76751
“	-9.7688
арока	-9.76886
▁дагавор	-9.76908
▁шчыльнасц	-9.7691
▁Народна	-9.77015
▁значэння	-9.77155
▁стагоддзяў	-9.77312
▁1971	-9.77336
18	-9.77513
▁33	-9.77549
▁левы	-9.7762
▁выклікал	-9.77664
▁аперацы	-9.77782
▁асобы	-9.77825
▁M	-9.77872
▁пэўны	-9.77878
но	-9.77886
▁аддзела	-9.78006
▁дні	-9.78013
тых	-9.78122
▁магутнасц	-9.78197
▁ўзбярэжжа	-9.78201
▁вывуча	-9.78304
▁наяўнасц	-9.78417
▁этап	-9.78446
▁сямейства	-9.78527
▁A	-9.78558
▁Рады	-9.78687
▁адукацыю	-9.78783
▁правядзенн	-9.7887
▁арыгінальна	-9.78899
▁зборн	-9.79015
▁Ленін	-9.79061
▁клас	-9.79117
усім	-9.79139
▁Больша	-9.79262
▁сустракае	-9.79279
▁захаваліся	-9.79317
▁даследаванн	-9.79363
▁асаблівасц	-9.79465
▁Армі	-9.79537
▁174	-9.79543
▁мясцовасц	-9.79557
▁захавала	-9.79642
▁перадач	-9.79657
▁музе	-9.79674
▁ліст	-9.79692
▁3,	-9.79781
▁дасягае	-9.79873
▁доўга	-9.79882
▁двар	-9.79929
▁старажытн	-9.79949
▁стары	-9.80011
▁нумар	-9.80149
▁прысвечаны	-9.80205
▁Аўстры	-9.8031
▁каталіцка	-9.80361
▁памер	-9.80362
▁Саюз	-9.80378
▁згодна	-9.8059
▁Хо	-9.80635
▁вызначае	-9.80775
▁сацыяльна	-9.80912
▁прывяло	-9.8095
▁пытанн	-9.8095
▁172	-9.80956
▁напісаны	-9.81009
▁кніга	-9.81067
▁палаца	-9.8109
▁далейшы	-9.81161
▁Дзяржаўны	-9.81267
▁метад	-9.81281
▁асабіста	-9.8145
▁гандлёвы	-9.81588
▁кароткі	-9.816
▁наступным	-9.8171
▁хвароб	-9.81768
▁універсітэта	-9.81868
▁прайшл	-9.81957
▁характэрны	-9.82066
▁Нарвегі	-9.82158
▁серы	-9.8216
▁Канад	-9.8217
▁Папа	-9.82263
▁драўляны	-9.82276
▁Паўла	-9.82294
▁развіва	-9.82299
▁старшын	-9.82311
▁120	-9.82326
▁лінія	-9.82365
▁горны	-9.82381
▁яў	-9.82438
▁прывял	-9.82492
▁сустракаю	-9.82518
▁баявы	-9.82533
▁падстав	-9.82537
▁грош	-9.82538
▁малады	-9.82629
▁ціск	-9.82771
▁ме	-9.82816
▁матэматык	-9.82835
▁класа	-9.82854
30	-9.82863
▁сярэднім	-9.82981
КА	-9.82995
▁сельсавет	-9.83046
▁саюза	-9.83199
▁дасягнул	-9.83279
▁пражыва	-9.83281
▁сцян	-9.83375
ля	-9.83397
▁праваслаўны	-9.83441
▁рабочы	-9.83478
▁400	-9.83491
▁клімат	-9.83545
20	-9.83572
▁л	-9.83657
▁Паўночны	-9.83674
▁Кар	-9.83678
ваны	-9.83764
▁меры	-9.83951
▁яднанне	-9.83967
▁збро	-9.8404
40	-9.84046
▁самастойна	-9.84059
▁мастацкі	-9.84165
▁ўзрос	-9.84237
▁рэштк	-9.84259
кг	-9.84385
▁спосаб	-9.8441
▁дрэва	-9.84412
▁ўнутраны	-9.84945
▁Савет	-9.84992
▁прадстаўлены	-9.85062
▁Вучы	-9.85076
▁вярнуў	-9.85091
▁грамадзянска	-9.8516
▁лічыў	-9.85162
скі	-9.85177
▁Гісторы	-9.85309
▁паэта	-9.85344
▁хрысціянства	-9.85388
▁пытанне	-9.85436
▁сур	-9.85437
▁Час	-9.85481
▁інша	-9.85609
да	-9.85799
▁заліва	-9.85856
▁руск	-9.85899
▁канферэнцы	-9.85919
▁тэкст	-9.8609
▁заснаваў	-9.86183
▁абвясціў	-9.86184
▁супрацоўнік	-9.86278
▁пісьмовы	-9.86539
▁адносіна	-9.86628
▁склаў	-9.86696
▁працягласц	-9.86774
▁савета	-9.86827
▁рымскі	-9.86974
вагу	-9.87014
▁Асноўна	-9.87029
▁вяртанн	-9.87035
▁Рэспубліка	-9.87042
▁Вуліц	-9.87129
▁кіраваў	-9.87164
▁зроблены	-9.87179
▁36	-9.87208
таў	-9.87383
▁лес	-9.87513
▁жыве	-9.87517
▁сацыяльны	-9.87555
▁маса	-9.87626
▁дазваляе	-9.87663
▁Ю	-9.8774
▁Галоўна	-9.87769
▁імкну	-9.87778
▁дачыненн	-9.87827
▁кантракт	-9.8788
ння	-9.87974
▁асобна	-9.88016
▁дазволіл	-9.88069
▁шырокі	-9.8818
▁дэпутат	-9.88245
▁сабора	-9.88265
▁Ле	-9.88404
▁агульны	-9.88414
▁Алімпійскі	-9.88504
80	-9.88557
▁далей	-9.88561
▁Галоўны	-9.88601
▁склала	-9.88715
▁магчымасц	-9.88761
▁нов	-9.88828
▁неў	-9.88875
▁забіты	-9.88931
праўлення	-9.88936
▁Афры	-9.89015
▁дакладна	-9.89044
▁Павел	-9.89062
▁знойдзены	-9.89062
▁Юры	-9.89062
▁Сібір	-9.89082
▁Радзівіл	-9.89114
▁зрабі	-9.89116
▁уся	-9.8912
▁цэлым	-9.89133
▁здольнасц	-9.89139
▁ес	-9.89194
▁ордэнам	-9.89201
▁князёў	-9.89242
▁код	-9.89242
▁моцны	-9.89302
▁Пё	-9.89412
▁даро	-9.89443
▁займаю	-9.89446
▁1910	-9.89626
▁дробны	-9.89662
▁атрыманн	-9.8968
▁дня	-9.89701
рэш	-9.89812
▁месяца	-9.89991
▁водна	-9.90044
▁Русі	-9.90063
▁Назв	-9.90077
▁кан	-9.90118
▁Схіл	-9.90144
▁акіян	-9.90163
▁пераваг	-9.90177
▁выява	-9.90294
▁мужчын	-9.90312
▁VII	-9.90325
▁Св	-9.90361
▁калоні	-9.90514
▁беларускім	-9.90534
▁запіс	-9.90541
▁паэзі	-9.90667
▁42	-9.90715
▁мадэл	-9.9088
▁Міністэрства	-9.91006
▁каманда	-9.91009
▁Берлін	-9.91129
▁ваенн	-9.91135
▁праекта	-9.91166
▁яўрэя	-9.91171
▁друку	-9.91199
▁суб	-9.91206
▁бела	-9.9122
▁імперыя	-9.91401
▁140	-9.91471
▁існава	-9.91515
▁края	-9.91562
▁флот	-9.91737
▁харчова	-9.9176
▁левым	-9.91784
▁ноч	-9.91797
▁чырвона	-9.91841
▁сярэдні	-9.91871
▁Музе	-9.91982
▁173	-9.92233
▁Мінскі	-9.92281
▁галав	-9.92299
=	-9.92308
▁Маці	-9.92317
▁159	-9.92369
▁маёнтк	-9.92416
▁Был	-9.92448
▁Існу	-9.9245
▁дваро	-9.92463
▁літар	-9.92486
▁налічвае	-9.92577
▁турнір	-9.92677
▁адпавяда	-9.9279
▁Першым	-9.92873
▁існаванне	-9.92899
▁званы	-9.92914
▁чырвоны	-9.92943
▁выяўлены	-9.93046
▁B	-9.93068
▁культурна	-9.93221
▁гісторыя	-9.93289
▁папулярнасц	-9.93354
▁арганізаваны	-9.93444
олькі	-9.93562
▁нахіл	-9.93706
▁Апошні	-9.93758
▁календар	-9.93786
ды	-9.938
▁войн	-9.93819
ц	-9.9394
▁ўваходз	-9.93999
▁паветра	-9.9401
▁яднаны	-9.94018
▁міністр	-9.94052
▁сялянска	-9.94126
▁Тэрыторы	-9.94158
▁дзесяцігоддзя	-9.94171
▁існую	-9.94179
▁Неў	-9.94314
▁адрознівае	-9.94344
C	-9.94471
▁116	-9.94492
▁верхні	-9.94595
▁ападка	-9.94674
І	-9.94719
▁новым	-9.94724
▁аддзяленне	-9.9473
▁польскім	-9.94751
▁англійскі	-9.9481
▁падпісаў	-9.95019
▁архітэктар	-9.95104
▁вышэйшы	-9.95258
▁Дзякую	-9.95286
▁лепшы	-9.95298
▁пастаянна	-9.95311
▁музычны	-9.95338
▁паступі	-9.95362
▁мастака	-9.95471
▁параўнанн	-9.95479
▁Цэнтр	-9.95495
▁радзім	-9.95856
▁паспяхова	-9.95857
▁транспарт	-9.95888
▁хімічны	-9.95953
▁Дняпр	-9.95975
лізна	-9.96045
▁зямель	-9.96094
▁0	-9.96148
▁75	-9.96197
▁ўлада	-9.96221
▁сёння	-9.96234
▁патрэб	-9.9635
ную	-9.96438
▁служы	-9.96455
▁37	-9.96458
▁Сан	-9.96542
▁фільма	-9.96678
▁Федэрацы	-9.96715
▁нараджэння	-9.96752
▁возер	-9.96804
▁чорна	-9.96811
▁паэм	-9.96814
зад	-9.96945
▁Івана	-9.96963
▁дво	-9.96991
▁сумесна	-9.97008
▁італьянскі	-9.97062
▁звест	-9.97265
▁энергіі	-9.97323
▁выключна	-9.97348
▁працоўны	-9.97563
▁называ	-9.97601
▁Сярге	-9.97771
▁буду	-9.97776
▁актыўны	-9.97787
міністра	-9.97871
▁пахаваны	-9.979
▁брытанскі	-9.9792
▁ўмова	-9.9792
▁значн	-9.9795
▁ніжня	-9.9798
▁168	-9.98003
▁раздзел	-9.98045
▁вежа	-9.98065
гор	-9.98069
▁Уладзіміра	-9.98085
▁абавязк	-9.98115
▁аўтара	-9.98155
▁Ізраіл	-9.98159
▁еўрапейска	-9.98211
▁сястр	-9.98219
▁праходзіл	-9.98243
▁екта	-9.98283
▁Польшча	-9.98386
▁блізка	-9.9841
▁імі	-9.98451
▁Канстытуцы	-9.98454
▁прыватн	-9.98462
▁выніка	-9.98501
▁рамка	-9.98526
▁скончыла	-9.98576
▁рэдка	-9.98584
▁умова	-9.98735
▁Радзівіла	-9.98868
▁сімвал	-9.99031
▁ўключае	-9.99032
▁мастако	-9.99053
▁Латві	-9.99082
▁34	-9.99121
▁Дэ	-9.99167
▁ўласна	-9.99273
▁вядзе	-9.99443
▁лагер	-9.99454
▁аўтамабільна	-9.99479
▁метрапалітэн	-9.99532
вёў	-9.99634
ню	-9.99674
▁накіраваны	-9.99708
амёр	-9.99709
Г	-9.99726
▁акупацы	-9.9986
▁корпус	-9.9993
▁вага	-9.99958
▁бяспек	-10.0007
▁4,	-10.0026
▁мор	-10.0029
▁Бераг	-10.0033
▁лепш	-10.0039
▁немц	-10.0041
▁археалагічны	-10.0045
▁герба	-10.0046
▁семінары	-10.0052
▁вучоны	-10.0061
▁прыб	-10.0079
ключаючы	-10.0079
▁захоўвае	-10.0085
▁ўвес	-10.0085
▁гук	-10.0087
▁камандаванне	-10.0089
▁найбольша	-10.009
▁нас	-10.0091
▁распаўсюджана	-10.0092
▁дома	-10.0099
▁38	-10.0103
▁Стары	-10.0106
▁Толь	-10.0109
▁мост	-10.0112
▁Вядомы	-10.0112
▁лёс	-10.0112
▁крытык	-10.0114
▁Дом	-10.0121
▁ўзро	-10.0128
▁агульн	-10.0129
ела	-10.0132
▁ўзнікл	-10.0144
▁акру	-10.0144
▁1920-	-10.0146
▁асноўна	-10.0148
▁паўвострава	-10.0151
▁застал	-10.0154
УП	-10.0166
▁яўрэйска	-10.0175
▁сад	-10.0175
▁каротка	-10.0176
ра	-10.0181
▁Лічы	-10.0183
▁звыш	-10.0196
▁валода	-10.0199
▁дадзена	-10.0199
60	-10.0205
летк	-10.0206
▁слоў	-10.0212
▁Звычайна	-10.0212
▁пажар	-10.0233
▁літаратурны	-10.0234
▁дывізі	-10.0245
▁паўстанне	-10.025
▁600	-10.0251
▁назваў	-10.0259
▁Купал	-10.0263
▁блізкі	-10.0266
▁дагавора	-10.027
▁вырашыў	-10.027
▁153	-10.0271
▁тон	-10.0272
▁медыцынскі	-10.0275
▁спорт	-10.0276
▁выходзі	-10.0296
ладу	-10.0298
▁помніка	-10.0306
▁супрацоўніцтв	-10.0314
▁аповесц	-10.0314
▁дзвю	-10.0324
▁паходжанне	-10.0332
▁рэлігі	-10.0334
▁ЮН	-10.0335
▁Чырвон	-10.0337
▁выклада	-10.0344
▁падрыхтоўк	-10.0345
▁кола	-10.0347
▁прычы	-10.0347
▁атмасфер	-10.0353
▁яўлял	-10.0359
▁прапанаваў	-10.0363
▁154	-10.0363
▁1990-	-10.0364
▁Марыя	-10.0365
▁55	-10.0365
▁Паўднёвы	-10.0367
▁стыл	-10.037
▁То	-10.0373
▁малы	-10.0378
▁даўжынё	-10.038
▁Венгры	-10.0387
▁каралеўска	-10.0388
▁Удзельнік	-10.0396
заходня	-10.0405
▁нізкі	-10.0405
▁ды	-10.0407
▁право	-10.0418
▁дапамогу	-10.0418
▁замк	-10.0424
▁дэпутата	-10.0437
▁Дзвін	-10.0437
▁Чорна	-10.0437
▁ўдал	-10.0443
▁Каралеўства	-10.0461
▁ранні	-10.0462
▁брата	-10.0472
”	-10.0479
▁выкананн	-10.048
▁Многі	-10.048
▁будучы	-10.0481
▁рукапіс	-10.0489
зноў	-10.0493
▁кіраванне	-10.05
▁ідзе	-10.0508
▁гэтак	-10.051
▁Прэзідэнта	-10.0511
▁расліннасц	-10.0512
▁пабудава	-10.052
▁насякомы	-10.052
▁неабходна	-10.0523
▁высокім	-10.0524
▁Рыма	-10.0533
▁нашы	-10.0536
▁цара	-10.0536
12	-10.0538
▁хвілін	-10.0541
▁свята	-10.0548
▁149	-10.055
адну	-10.0551
▁напад	-10.0552
▁выключэнне	-10.0556
17	-10.0558
▁шляхт	-10.0562
▁адзіным	-10.0569
▁каштоўнасц	-10.0569
▁вобраз	-10.0575
▁цар	-10.0585
▁катлавін	-10.0586
нка	-10.0598
▁басейна	-10.06
▁Самы	-10.0601
▁зорна	-10.062
▁уні	-10.0621
▁сетк	-10.0626
▁сынам	-10.0628
▁палон	-10.0642
▁навучанн	-10.0646
▁43	-10.0647
▁складалі	-10.0655
▁разнастайны	-10.0656
▁дакумент	-10.0659
▁Ч	-10.0661
▁суседні	-10.0662
▁крыла	-10.0665
90	-10.0671
▁Смаленска	-10.0673
▁плын	-10.0677
▁удзельнік	-10.068
▁ніжні	-10.0681
▁чыгунк	-10.0685
▁прылад	-10.0689
▁дзяржаўным	-10.069
▁духоўна	-10.0691
▁гісторыка	-10.0695
▁Руска	-10.0706
дзе	-10.0715
▁адзіны	-10.0722
▁Шмат	-10.073
▁урада	-10.073
▁грэчаска	-10.0731
▁парламента	-10.0744
▁Ш	-10.0751
▁Вядома	-10.0752
▁ўласны	-10.0757
▁турм	-10.0784
he	-10.0787
▁перавыша	-10.079
ф	-10.0796
▁акцёр	-10.08
▁трыма	-10.081
▁1900	-10.081
▁прадпрыемств	-10.0813
▁устаноў	-10.0816
▁прасторы	-10.0819
▁чорны	-10.082
▁выпадка	-10.082
▁ўжыва	-10.0821
▁1930-	-10.0824
o	-10.0836
▁выданне	-10.0843
шча	-10.0851
▁фонд	-10.0852
▁ажыццяўляе	-10.0857
▁X	-10.0858
▁138	-10.0858
▁налічвала	-10.0859
▁галас	-10.0861
▁вод	-10.0872
▁Тад	-10.0876
▁4-	-10.0877
▁футбол	-10.088
▁апублікаваны	-10.0886
СР	-10.0887
▁Полацк	-10.0895
▁песен	-10.0903
▁выдаў	-10.0906
▁любо	-10.091
▁паўнамоцтв	-10.0925
▁стварыць	-10.0925
▁двум	-10.0925
▁напісана	-10.0928
лізу	-10.0934
▁порт	-10.094
▁старшынё	-10.0942
▁рашэння	-10.0946
▁Аўгуста	-10.095
▁брытанска	-10.0955
▁разы	-10.0963
▁сведчы	-10.0965
▁кропка	-10.0966
▁баз	-10.0968
часова	-10.0972
▁ўсю	-10.0972
▁знешня	-10.0977
мем	-10.0993
▁скульптур	-10.1004
▁абазначэнн	-10.1005
▁камен	-10.1008
▁Літве	-10.101
▁падобна	-10.1011
▁дакумента	-10.1013
шар	-10.1019
▁Бабруйск	-10.1021
▁Люксембург	-10.103
▁выступі	-10.1034
▁паслуг	-10.1034
▁праведзены	-10.1037
▁прамысловы	-10.104
▁парламент	-10.1043
▁абвешчана	-10.1047
▁Народны	-10.1051
ш	-10.1058
▁мястэчк	-10.1064
▁дзіця	-10.1066
▁дамоў	-10.1067
▁працягваў	-10.1072
гэту	-10.108
▁форму	-10.1095
▁Іх	-10.1096
▁мінулы	-10.11
▁загінуў	-10.11
▁Божа	-10.1101
▁Бразіліі	-10.1102
▁Вярхоўна	-10.1102
▁Вялікабрытанія	-10.1106
▁належал	-10.1107
▁План	-10.1112
▁наступна	-10.1114
▁Кліма	-10.1127
▁хімічна	-10.113
▁музычна	-10.1133
▁Сам	-10.1138
▁названа	-10.1142
▁загадчык	-10.1147
▁ажані	-10.1147
▁адкрыў	-10.1156
▁наша	-10.1164
П	-10.1167
▁кра	-10.1188
▁пяці	-10.1189
▁сядзібн	-10.1192
▁Сама	-10.1192
▁шэсць	-10.1214
▁восен	-10.1215
▁жылы	-10.1217
стаў	-10.1219
▁ініцыятыв	-10.1221
▁газ	-10.1223
▁выкарыстоўвалі	-10.1231
▁прадмет	-10.1234
алогіі	-10.1235
▁ролі	-10.1242
▁палітычн	-10.1244
▁захаванн	-10.125
▁гор	-10.1253
▁заснавальнік	-10.1253
▁рання	-10.1256
▁Інстытута	-10.126
▁складаны	-10.1263
▁прапанов	-10.1279
ж	-10.1285
▁значэнн	-10.1287
▁могілка	-10.1289
▁ўзор	-10.1295
▁Найбольша	-10.1306
▁Прусі	-10.1307
▁Міжнародна	-10.1314
▁цячэ	-10.1318
▁ССР	-10.1319
▁Дж	-10.1322
▁здароў	-10.1333
▁стварыл	-10.1334
▁студэнтаў	-10.1341
▁татар	-10.1344
▁лідар	-10.1345
▁асноўнай	-10.135
▁сілу	-10.1351
▁Еўрапейска	-10.1353
▁адкрыццё	-10.1354
▁вядомым	-10.1357
▁пасёлка	-10.1359
▁будаўнічы	-10.1364
▁рэзка	-10.1369
▁Партугалі	-10.1376
▁прыродны	-10.1379
▁кляштар	-10.1387
▁сут	-10.1388
▁раённа	-10.1388
▁Ісланды	-10.1391
▁дысертацы	-10.1391
▁папулярны	-10.1392
▁працягвае	-10.1403
▁характэрна	-10.1407
▁правым	-10.1413
▁Удзельніча	-10.1414
▁альбом	-10.1415
▁навуков	-10.1415
▁хімі	-10.1418
▁імён	-10.1421
▁167	-10.1424
▁зорк	-10.1426
▁неабходнасц	-10.1427
▁бітва	-10.143
▁падзяляе	-10.1437
▁каменны	-10.1442
ом	-10.1442
▁ідэя	-10.1443
▁сутнасц	-10.1463
▁кампазітар	-10.1464
▁здолеў	-10.1464
▁зносін	-10.1483
▁хутчэй	-10.1484
▁асяроддзя	-10.1485
▁кры	-10.1492
▁Другі	-10.1495
▁Куб	-10.1497
▁рэдактар	-10.15
▁роўны	-10.15
▁атрымлівае	-10.15
▁Віцебску	-10.1507
▁сферы	-10.1508
▁прозвішча	-10.1518
▁радзе	-10.1524
▁моладз	-10.1528
▁сойм	-10.1532
▁лацінска	-10.1534
▁Бела	-10.1537
ру	-10.1545
▁ба	-10.1557
▁прыход	-10.1558
▁мірны	-10.1559
▁прадукцы	-10.1564
▁памерла	-10.1564
▁крызіс	-10.1575
▁будов	-10.1584
іно	-10.1601
▁Швейцары	-10.1611
▁Сын	-10.1611
▁свято	-10.1615
НК	-10.1618
▁запас	-10.162
▁каталіцкі	-10.1621
▁працяка	-10.1623
▁48	-10.1624
▁нарадзіла	-10.1628
▁аўтамабіля	-10.1628
▁пакінул	-10.1628
▁1980-	-10.1632
▁ера	-10.1633
▁Скарын	-10.1645
▁Друг	-10.1646
А	-10.1649
▁падзелены	-10.1649
▁кіраўніка	-10.1653
▁працягвала	-10.1655
▁зор	-10.1655
ста	-10.1662
▁звычайны	-10.1666
▁Цяпер	-10.1668
▁абшчын	-10.1675
▁Таварыства	-10.1676
мову	-10.1676
▁Міхаіл	-10.1683
▁начальніка	-10.1686
▁суда	-10.1688
14	-10.169
▁Заслужан	-10.1692
▁65	-10.1694
▁паводзін	-10.1699
▁намеснікам	-10.1699
▁ўзвышша	-10.1713
▁корпуса	-10.1715
▁эміграцы	-10.1715
▁поле	-10.1719
▁161	-10.1731
▁Каб	-10.174
▁ставі	-10.1745
▁Жлобін	-10.1746
▁дэпартамента	-10.1759
дзі	-10.1762
19	-10.1767
▁дачка	-10.177
▁развіты	-10.1772
▁рэльеф	-10.1775
быў	-10.1777
▁партрэт	-10.1778
▁матчы	-10.178
▁правінцый	-10.1784
▁неаднаразов	-10.1786
▁Пецярбург	-10.1797
▁генерала	-10.1802
▁дазвол	-10.1802
▁абодву	-10.181
цаў	-10.1812
▁кантроль	-10.1815
▁драўляна	-10.1819
▁падпарадкоўва	-10.1819
▁змяшчае	-10.182
▁Крым	-10.1824
міністр	-10.1827
▁Фінлянды	-10.1832
▁долара	-10.1833
▁Рымскі	-10.1836
▁Цэнтральны	-10.184
▁тэорыя	-10.1846
анец	-10.1848
n	-10.185
▁Каўказ	-10.1855
▁сітуацы	-10.1876
▁нізін	-10.1877
▁Старшын	-10.1881
▁цыкл	-10.189
▁інстыту	-10.1892
▁глыбока	-10.1899
▁250	-10.1904
▁газе	-10.1907
піс	-10.191
▁роля	-10.1917
▁Жыгімонта	-10.1934
▁увайш	-10.1938
▁старо	-10.1941
▁паказвае	-10.1942
▁Мае	-10.1956
▁старэйшы	-10.1967
▁0,5	-10.1978
▁фізічна	-10.198
▁свабодна	-10.1983
▁органа	-10.1992
▁канала	-10.1993
▁нафт	-10.1997
▁перададзены	-10.2002
▁версія	-10.2007
▁выпада	-10.2014
▁займала	-10.2019
▁адкрыцця	-10.2028
▁зацверджаны	-10.2029
К	-10.203
▁ўдзельнік	-10.2032
янскім	-10.2035
▁велічыня	-10.2045
▁Палесс	-10.205
▁распад	-10.2051
▁дырэктар	-10.2059
▁Тры	-10.2066
▁братам	-10.207
ўсходня	-10.207
▁абрад	-10.2072
▁рэсурс	-10.2074
▁падпарадкаванн	-10.2079
▁800	-10.2089
▁гледжанн	-10.2098
▁знаходжанн	-10.2099
▁Маскоўскі	-10.2113
▁багаты	-10.2117
▁кні	-10.2124
▁Напалеона	-10.2125
▁Лі	-10.213
▁д	-10.2137
▁біскуп	-10.2142
▁выса	-10.2147
▁калекцы	-10.2148
▁камуна	-10.2149
▁спецыяльна	-10.2156
СС	-10.2157
▁выкарыстоўвала	-10.2159
▁казак	-10.2162
▁фігур	-10.2162
▁расход	-10.2172
▁маршрут	-10.2179
▁лісце	-10.2194
▁дзіцячы	-10.2195
▁вучоб	-10.2197
▁Беларуск	-10.2198
▁прыйшл	-10.22
▁выдатны	-10.2201
▁золата	-10.2202
▁залежыць	-10.2211
▁культура	-10.2213
▁масава	-10.2216
▁цяжкі	-10.2225
▁46	-10.2233
▁цікавасц	-10.2234
▁дол	-10.2237
▁прадстаўлена	-10.2246
▁партызан	-10.2252
▁абласц	-10.2255
▁зрабіла	-10.2256
▁горы	-10.2256
▁хрысціянска	-10.2265
▁рабо	-10.2265
▁важным	-10.2271
▁маёнт	-10.2274
▁Станіслава	-10.2274
▁уз	-10.2277
▁уяўляе	-10.228
▁Га	-10.2283
▁Іншы	-10.2287
▁дату	-10.2289
▁старажытнасц	-10.2293
▁драўляным	-10.2297
▁рады	-10.2299
▁яўленне	-10.2304
▁склада	-10.2328
▁ордэн	-10.2329
▁нацыянальным	-10.2331
▁Нёмана	-10.2333
▁Нобелеўска	-10.2334
▁дух	-10.2341
▁39	-10.2354
▁нашчадк	-10.2357
▁стварае	-10.2363
▁Ірланды	-10.2377
▁фрон	-10.2378
аліў	-10.2385
▁Бога	-10.239
▁прымаў	-10.2394
▁Хрыста	-10.2396
▁астрава	-10.2398
▁век	-10.2398
▁падзелена	-10.2398
йчы	-10.2399
▁урад	-10.2402
▁ўладам	-10.2402
словы	-10.2408
▁Асманска	-10.241
▁лічыла	-10.2415
▁нізка	-10.242
▁пераважа	-10.2429
▁прыйшоў	-10.243
авіч	-10.2442
▁143	-10.2442
▁Віцебскі	-10.2444
▁артыст	-10.2447
▁мяне	-10.2447
▁дастаткова	-10.2448
▁Прэзідэнт	-10.2458
▁агульным	-10.2458
I	-10.2465
віч	-10.2467
▁паб	-10.2467
▁злучае	-10.248
▁прыватны	-10.2485
▁арганізава	-10.2485
▁Асабліва	-10.2485
▁аднаўленн	-10.2485
▁памеры	-10.2487
▁берагав	-10.2488
▁сюжэт	-10.2497
▁бальніц	-10.2497
▁стая	-10.2498
▁маёмасц	-10.2498
▁Ім	-10.2498
▁цэнтральны	-10.2512
▁летапіс	-10.2515
▁факультэта	-10.2519
▁забеспячэнн	-10.2522
▁асвет	-10.2522
▁прыём	-10.2531
▁Аляксе	-10.2533
▁царства	-10.2533
▁пэўна	-10.2534
▁47	-10.2543
▁спалі	-10.2551
▁дос	-10.2558
ная	-10.2571
▁Сталін	-10.2574
▁газу	-10.2574
▁выкананы	-10.2574
▁далучы	-10.2582
▁катэгоры	-10.2584
▁Славакі	-10.2584
▁абласно	-10.2584
▁Егіпта	-10.2595
огул	-10.2597
▁Заходні	-10.2604
▁двара	-10.2611
нёс	-10.2614
▁выдадзены	-10.2615
▁схіла	-10.2619
оўка	-10.2623
▁пастанов	-10.2629
▁тлумачы	-10.2632
▁Наша	-10.2632
▁знакаміты	-10.2638
▁аж	-10.2643
ходзе	-10.2646
▁Грыгар	-10.2651
▁Антоні	-10.2651
▁сяброў	-10.266
▁44	-10.266
▁галоўн	-10.2662
▁савет	-10.2664
▁настаўнікам	-10.2673
▁Уся	-10.2674
▁палос	-10.2688
▁Украіна	-10.2689
▁сустрэч	-10.2692
▁ўнутрана	-10.2699
▁Го	-10.2699
▁палітычным	-10.27
▁аддзел	-10.2713
▁абвясціл	-10.2721
▁іспанска	-10.2728
▁рэспубліка	-10.2739
▁пакіну	-10.2742
▁навучальны	-10.275
▁плат	-10.2757
▁займалі	-10.2761
▁складзены	-10.2775
роч	-10.2782
▁архіпелаг	-10.2783
▁адсутніча	-10.2795
▁спрабава	-10.2796
▁карыс	-10.2799
▁палітыка	-10.28
▁ўзбярэжж	-10.2805
аўрэат	-10.2806
▁Сярэднегадав	-10.2808
70	-10.2817
▁прыводзі	-10.2827
▁сцэн	-10.2835
▁вадасховішча	-10.2836
▁метро	-10.284
▁манет	-10.2843
▁традыцыйны	-10.2844
▁рэлігійна	-10.2853
▁прысвоен	-10.286
▁чыгун	-10.287
маглі	-10.2873
▁фальклор	-10.2883
▁Слуцк	-10.2886
▁акруга	-10.289
▁125	-10.289
▁адстаўк	-10.2902
▁легенд	-10.2905
▁куды	-10.2912
▁неба	-10.2913
пад	-10.2914
▁варта	-10.2917
▁прыклад	-10.2919
▁доктар	-10.293
▁Чэхі	-10.2932
▁145	-10.2933
▁абвешчаны	-10.2939
▁выток	-10.2939
▁Што	-10.2939
▁прайшоў	-10.2946
▁ўзрост	-10.2953
▁Ганн	-10.2953
▁трапіл	-10.2955
▁схіл	-10.2959
▁называлі	-10.2964
▁кампазіцы	-10.2968
▁фестывал	-10.2984
▁прысутніча	-10.299
▁радыё	-10.2994
▁Колас	-10.2995
▁парод	-10.2999
▁Ме	-10.3003
▁вул	-10.3003
▁лад	-10.3003
▁памяшканн	-10.3013
▁залаты	-10.3018
▁каналізавана	-10.3019
▁Вітаўта	-10.302
▁спрыял	-10.304
▁занята	-10.3043
▁невядома	-10.3046
гуляў	-10.3046
▁ўсходні	-10.3051
▁тэхнік	-10.3052
сі	-10.3058
▁Кіеўска	-10.3066
▁вывучэнне	-10.3066
13	-10.3067
▁захоплены	-10.3075
▁сакратаро	-10.3078
e	-10.3079
▁дамен	-10.3089
▁Менск	-10.309
▁адміністрацы	-10.3093
▁апублікава	-10.3095
▁адзіна	-10.3097
▁Ніжня	-10.3099
▁веж	-10.31
▁пашыраны	-10.3101
▁Бачн	-10.3102
йшоў	-10.3102
▁птушк	-10.3108
вец	-10.3109
▁сябрам	-10.3111
▁падарожжа	-10.3111
ро	-10.3111
▁аўтарам	-10.3118
▁Перад	-10.3121
▁апошнім	-10.3124
▁судна	-10.3124
▁друга	-10.3126
▁Тэрмін	-10.3126
▁гары	-10.3128
ьмі	-10.313
▁дапамо	-10.313
▁прызнаны	-10.3131
▁Ма	-10.3134
▁жаноча	-10.3137
▁дэпартамент	-10.3137
▁пошук	-10.3138
▁бая	-10.3148
▁сімвалізу	-10.3153
▁сетка	-10.316
▁бальшавік	-10.3161
▁рэвалюцыйн	-10.3164
▁53	-10.3169
▁56	-10.3172
▁імператарам	-10.3176
▁Чырвоны	-10.3181
▁гаспадарка	-10.3187
▁1500	-10.3192
▁здольны	-10.3193
▁169	-10.3195
▁вёў	-10.3197
▁славянскі	-10.32
▁Будын	-10.3205
▁захапіл	-10.3209
▁знайсц	-10.3211
▁марско	-10.3212
▁зорка	-10.3216
▁Ісуса	-10.3222
▁карал	-10.3222
▁стагоддзе	-10.3232
‰	-10.3235
▁вусце	-10.3236
▁заснавальніка	-10.3262
▁Чэмпіён	-10.3263
▁сапраўдна	-10.3274
▁ўплыв	-10.3282
▁Рэспублі	-10.3287
▁буйно	-10.3287
▁канструкцы	-10.329
▁130	-10.3307
▁акцы	-10.3309
▁Казіміра	-10.3316
▁аднайменна	-10.3317
▁педагог	-10.3318
▁разбураны	-10.3318
i	-10.3331
▁масавы	-10.3333
▁забойства	-10.3334
▁камандзір	-10.3336
▁мільён	-10.3336
▁факт	-10.3343
▁мастацтв	-10.3349
▁1830	-10.3366
▁Бацька	-10.3366
▁сучасным	-10.3371
▁Брэст	-10.3373
▁заняпад	-10.3374
▁фасад	-10.3374
▁праведзена	-10.3375
▁прымае	-10.338
▁рэдактара	-10.338
▁Аргенцін	-10.3382
▁розн	-10.3401
▁Бельгі	-10.3403
▁Джон	-10.3403
▁маёнтка	-10.3416
▁5-	-10.342
▁Чы	-10.3426
▁славян	-10.3431
▁крыж	-10.3432
▁нямецкім	-10.3435
▁двор	-10.3436
▁Злучаны	-10.3443
▁захаваў	-10.3447
▁бацькам	-10.3447
▁праводзя	-10.3448
▁ўладанн	-10.3449
▁52	-10.3449
▁вылуча	-10.3449
тэрытарыяльна	-10.3454
▁веры	-10.3456
▁царкоўна	-10.3463
▁істотна	-10.3464
▁54	-10.3478
▁абраз	-10.3482
▁стану	-10.3483
▁прастол	-10.3485
чу	-10.3504
▁41	-10.3507
УС	-10.3511
▁продаж	-10.3513
▁рэакцы	-10.3517
▁Сербі	-10.3518
▁рамана	-10.3519
▁кандыдата	-10.3524
▁выконва	-10.353
▁праходзя	-10.353
▁ўстанов	-10.3543
▁хрысціян	-10.3551
▁трапіў	-10.3556
▁сельскі	-10.3561
▁увайшл	-10.3564
▁малодшы	-10.3566
▁святла	-10.357
▁Перу	-10.3571
▁Міжнародны	-10.3572
▁будаўніцтв	-10.3582
▁падання	-10.3582
▁трон	-10.3583
▁штаб	-10.3592
падзення	-10.3596
▁Сёння	-10.3597
▁лёд	-10.3597
▁страціл	-10.3599
▁партый	-10.36
▁спрыя	-10.3603
▁просты	-10.3604
▁вызвалены	-10.3606
▁ўзніка	-10.3608
▁слаба	-10.3608
▁прамыслова	-10.3611
▁спадарожнік	-10.3614
y	-10.3618
▁700	-10.362
▁здабыч	-10.3623
▁Іерусалім	-10.3626
▁Магілёв	-10.3626
▁прама	-10.3627
▁паняцце	-10.363
сёлка	-10.3633
▁заявіў	-10.3636
▁лаўрэат	-10.3641
▁По	-10.3642
▁начальнік	-10.3645
чна	-10.3646
▁хат	-10.3654
▁Брытанска	-10.3655
▁піса	-10.3656
▁полі	-10.3659
▁вос	-10.3664
▁сонца	-10.3666
ві	-10.3669
▁увес	-10.3679
▁збудавання	-10.3679
▁явіў	-10.3682
▁Працягл	-10.3683
▁росквіт	-10.3683
▁чэмпіяна	-10.3684
▁Рака	-10.3691
▁Транспартны	-10.3695
▁ахвяр	-10.3695
▁арганізм	-10.3699
▁Даніі	-10.3705
▁ектам	-10.3706
▁вучня	-10.3708
▁Ганна	-10.3711
▁элемента	-10.3711
▁Вышын	-10.3711
▁жывы	-10.3713
▁Італія	-10.3716
▁песня	-10.3723
▁маскоўскі	-10.3727
▁атрада	-10.3744
▁звана	-10.3746
▁Пахаван	-10.3754
▁вызначэнн	-10.3758
▁спецыяльны	-10.376
▁мадэль	-10.3761
▁калон	-10.3766
▁дасягнуў	-10.3769
▁просьб	-10.3769
▁Востра	-10.3769
▁мінска	-10.3771
АТ	-10.3775
▁Шатланды	-10.378
▁гурт	-10.3784
жа	-10.3792
▁злучэння	-10.3793
▁Верхня	-10.3798
▁Магчыма	-10.3798
▁брыгад	-10.38
▁рынк	-10.381
▁зварот	-10.3825
▁Сярэднявечч	-10.3827
▁Адраджэнн	-10.3832
▁выданн	-10.3837
▁трапічны	-10.3838
▁апынул	-10.3841
▁натуральны	-10.3852
▁зрабілі	-10.3859
▁выступал	-10.3863
▁дзеянне	-10.3864
▁чыгуначны	-10.3865
▁E	-10.3867
▁героя	-10.3871
▁Усходні	-10.3871
▁інтарэс	-10.3875
▁1960-	-10.3875
▁заснаванн	-10.3879
▁вызначаны	-10.3882
▁галіна	-10.3882
▁перакладзе	-10.3883
▁нічо	-10.3885
▁эксплуатацы	-10.3885
▁страціў	-10.3886
▁Кніг	-10.3891
▁абмен	-10.3891
▁часціц	-10.3896
▁аэрапорт	-10.3897
▁арганізма	-10.3899
▁58	-10.3899
▁закона	-10.3911
жылі	-10.3912
▁Амундсен	-10.3914
▁Фларэнцы	-10.3914
▁зроблена	-10.3914
вежы	-10.3931
▁цяперашня	-10.3937
▁144	-10.3941
▁Еўрабачанн	-10.3944
▁сённяшні	-10.3944
▁леса	-10.3945
▁пастаўлены	-10.3945
▁згод	-10.3947
▁голас	-10.3947
▁забіў	-10.3949
чны	-10.395
кае	-10.3955
▁французск	-10.3959
▁класічна	-10.3962
▁Паўночн	-10.3965
▁Парыжа	-10.3973
▁Сталіца	-10.3973
▁зямно	-10.3984
▁канстытуцы	-10.3987
▁хаце	-10.3987
▁вымярэння	-10.3989
эт	-10.3991
▁49	-10.3992
▁ўдзельнічал	-10.3997
▁далейша	-10.3997
▁мясцовым	-10.3998
▁Размешчана	-10.4
▁аўтаномі	-10.4003
▁геаграфічны	-10.4009
▁абодва	-10.4012
▁італьянска	-10.4012
▁лічылі	-10.4012
▁Такі	-10.4028
юль	-10.4028
▁134	-10.403
▁св	-10.4031
▁недахоп	-10.4032
▁праекц	-10.4032
▁прэмія	-10.4033
▁148	-10.4037
92	-10.4039
▁ўтвараюц	-10.4043
▁О	-10.4048
▁наступ	-10.4062
▁пач	-10.4063
▁Нясвіж	-10.4063
▁Французска	-10.4064
▁багата	-10.4065
▁еж	-10.4071
ЭС	-10.4073
▁Мік	-10.4082
▁граф	-10.4085
▁абласця	-10.4087
▁органам	-10.4096
▁памера	-10.4101
▁1950-	-10.4102
▁магіл	-10.4105
▁край	-10.411
▁публікацы	-10.4111
▁галерэ	-10.4111
▁прыняцц	-10.4116
▁буйным	-10.4116
▁палат	-10.4122
▁цягам	-10.4134
▁Вашынгтон	-10.4151
▁рэспубліканска	-10.4152
▁злучаны	-10.4152
▁атрыманы	-10.4157
▁узбярэжж	-10.4163
▁Адным	-10.4163
▁змяніў	-10.4175
▁тэхнічны	-10.4181
▁Дынама	-10.4189
▁склалі	-10.419
▁сто	-10.4191
▁прыня	-10.4193
▁бачы	-10.4199
▁прамо	-10.4202
сюд	-10.4206
▁паказчык	-10.4206
▁часова	-10.421
▁вільготны	-10.4212
▁ускраін	-10.4212
▁будучын	-10.4214
▁адрозненн	-10.4225
▁Ла	-10.4227
ным	-10.4228
▁рука	-10.423
▁рэзідэнцыя	-10.4231
▁чын	-10.424
▁эсперант	-10.424
сё	-10.4243
▁распрацаваны	-10.4245
▁антычн	-10.4247
▁Старо	-10.4249
▁знайшл	-10.4255
▁сімвалам	-10.4278
▁любы	-10.4283
▁пары	-10.4284
СФ	-10.4285
▁экспедыцыя	-10.429
▁ўчастк	-10.4297
▁архітэктара	-10.4299
▁Свяшчэнна	-10.4302
сце	-10.4304
▁групу	-10.4306
▁фінансавы	-10.4311
▁Перш	-10.4311
▁натуральна	-10.4313
▁манастыра	-10.4316
▁каралев	-10.432
▁максімальна	-10.4325
▁Балгары	-10.4327
▁пакалення	-10.4327
▁савецкім	-10.4331
▁адноўлены	-10.4333
▁Пашыран	-10.4333
▁навучанне	-10.4334
▁сяло	-10.4336
▁міфалогі	-10.4337
▁Нідэрланда	-10.4339
▁Іванавіч	-10.4344
▁працоўн	-10.4351
▁захоп	-10.4353
▁нямецк	-10.4356
▁педагагічны	-10.4357
▁сіла	-10.4359
▁забалочаны	-10.4364
▁Генрых	-10.4366
▁маладо	-10.4373
▁Геро	-10.4381
▁пераходзі	-10.4383
▁Сучасны	-10.4385
▁Эстоні	-10.4389
озера	-10.4394
▁Старажытна	-10.4394
▁харчаванн	-10.4396
▁палка	-10.4404
цкага	-10.4404
▁адзначае	-10.4405
▁хатні	-10.4405
зму	-10.441
▁Палац	-10.4415
▁апавядання	-10.4416
Н	-10.442
▁вяршын	-10.4421
▁85	-10.4433
▁Марка	-10.4434
рэдка	-10.4435
▁цел	-10.4441
▁асоба	-10.4446
▁ўклад	-10.4457
▁друкарн	-10.4459
▁недалёк	-10.446
▁Універсітэт	-10.4461
▁Вільгельм	-10.4477
▁аўтаномна	-10.4479
▁святар	-10.4479
▁ўтварае	-10.4482
▁адправіў	-10.4483
▁Вікіпеды	-10.4487
▁прызначэнн	-10.4495
▁Рэч	-10.4496
▁1970-	-10.4501
▁крама	-10.4505
▁лекцы	-10.4517
▁надпіс	-10.4525
▁цягнік	-10.4531
▁навука	-10.4535
▁аддзялення	-10.4539
▁стал	-10.4539
▁норм	-10.4542
▁139	-10.4542
▁артыкула	-10.4544
▁нагадва	-10.4545
▁64	-10.4547
▁важн	-10.4548
▁дрэў	-10.4549
▁дзец	-10.4551
▁выступ	-10.4558
▁чалавеча	-10.4558
▁Мы	-10.4568
▁ваявод	-10.4569
оф	-10.4569
▁графа	-10.457
▁Венецы	-10.4572
▁грамадзянскі	-10.4578
▁канцэпцы	-10.4579
▁вол	-10.4589
▁нейкі	-10.4589
▁прыбыў	-10.4595
▁езда	-10.4599
▁фармальна	-10.4612
▁Рэйн	-10.4612
▁адзінства	-10.4613
▁меркаванне	-10.4615
▁заняты	-10.4617
▁пояс	-10.462
▁каралеўскі	-10.4625
▁важна	-10.463
▁царкоўны	-10.4631
▁стандарт	-10.4633
▁ўжывае	-10.4637
▁пост	-10.4638
стыль	-10.4638
▁публіцыст	-10.4641
▁распрацоўк	-10.4641
▁абарані	-10.4645
▁Акцябрскі	-10.4648
▁правіл	-10.4651
▁іграко	-10.4654
▁вызначы	-10.4654
▁Была	-10.466
▁інтэр	-10.4662
▁падыход	-10.4671
▁зняволенн	-10.4675
▁рэгулярна	-10.4675
▁бярэ	-10.4675
▁палёт	-10.4675
▁рада	-10.4676
▁рашэнн	-10.4681
▁фарміравання	-10.4681
▁захапіў	-10.4682
▁заставал	-10.4683
▁прыхільнікам	-10.4683
▁рэчыв	-10.4687
▁захоўваю	-10.4688
▁стаял	-10.4688
ому	-10.4691
▁ўзначалі	-10.4691
98	-10.4697
▁праціўніка	-10.4699
▁лясны	-10.47
D	-10.4702
▁ствара	-10.4703
▁147	-10.4706
▁паранены	-10.4706
▁замуж	-10.4706
▁выразна	-10.4706
▁характарызуе	-10.4707
▁ХХ	-10.4707
▁млын	-10.4709
▁розным	-10.4713
енне	-10.4716
рана	-10.4719
▁5,	-10.4721
▁Асноўным	-10.4731
▁сведча	-10.4735
▁піша	-10.4738
▁асацыяцы	-10.474
▁журналіст	-10.4745
▁57	-10.4746
▁раб	-10.4747
▁арабска	-10.4749
▁пача	-10.4754
▁матч	-10.4759
▁англійск	-10.4761
▁вынікам	-10.4761
▁Нідэрланд	-10.4764
▁змешчаны	-10.477
▁рухавік	-10.4771
▁Е	-10.4774
▁Кастрычніцка	-10.4775
▁складана	-10.4776
ПС	-10.4778
▁транспартны	-10.4781
▁партызанска	-10.4781
▁дадатковы	-10.4803
раз	-10.4803
▁ўступіл	-10.481
▁змяніла	-10.4813
▁прадукт	-10.4814
▁Вярхоўн	-10.4822
▁63	-10.4825
▁S	-10.4836
▁ўмацаванн	-10.484
▁камандзіра	-10.4845
t	-10.4846
▁вадаёма	-10.4854
▁мясцов	-10.4855
▁110	-10.4862
▁Кон	-10.4868
▁захава	-10.4872
▁іслам	-10.4874
▁карон	-10.4881
▁стату	-10.4889
▁руча	-10.4895
▁Пінск	-10.4897
▁Героя	-10.4904
Х	-10.4906
▁выявы	-10.4908
▁пацярпел	-10.4909
▁дыяметр	-10.4913
▁філосаф	-10.4914
▁Бог	-10.4915
▁Віленскі	-10.4916
▁спыні	-10.4917
▁этнічна	-10.4922
▁здолел	-10.4931
▁намаляваны	-10.4931
▁узнагароджаны	-10.4931
▁каралева	-10.4931
▁Генеральна	-10.4931
▁Балтыйска	-10.4931
віцэ	-10.4932
▁фактар	-10.4933
16	-10.4933
▁вызнача	-10.4933
▁вывучае	-10.4935
▁занялі	-10.4935
▁боле	-10.494
▁разнастайнасц	-10.4946
▁праводзілі	-10.4948
▁праграма	-10.4951
▁змага	-10.4957
кай	-10.4959
„	-10.4963
▁Трэця	-10.4963
▁квартал	-10.4963
▁уласны	-10.4964
▁размяшчал	-10.4965
▁зона	-10.4966
▁Біблі	-10.497
▁цывілізацы	-10.497
▁земляробства	-10.4971
▁ліста	-10.4976
▁немагчыма	-10.4981
▁брам	-10.4981
▁верша	-10.4987
▁ўстанова	-10.4993
са	-10.4995
▁кандыдат	-10.4995
▁Кожны	-10.5008
▁хрысціянскі	-10.5021
міру	-10.5022
▁6,	-10.5024
▁вялі	-10.5025
▁няг	-10.5025
▁чалавецтв	-10.5028
▁пагадненне	-10.5029
▁рыцар	-10.503
▁Казімір	-10.503
▁турызм	-10.5034
▁валодае	-10.5049
▁137	-10.505
▁зала	-10.5062
▁рэканструкцы	-10.5071
▁універсітэт	-10.5072
▁Вікторы	-10.5072
айстар	-10.5074
▁хац	-10.5075
▁Фрыдрых	-10.5076
▁віленскі	-10.5077
▁Бярэзін	-10.5078
▁Мало	-10.5081
▁Аўгуст	-10.5088
▁паляк	-10.5091
×	-10.5094
▁поўны	-10.5097
удаўніцтва	-10.5098
▁горна	-10.5101
▁далёка	-10.5107
▁асуджаны	-10.511
▁вада	-10.5114
▁Кітай	-10.5114
▁змест	-10.5118
▁Нансен	-10.512
▁француз	-10.512
▁ўваг	-10.5124
▁аграгарад	-10.5128
▁Частка	-10.5128
▁значным	-10.513
▁паселішч	-10.513
▁рэжысёр	-10.5131
▁падтрым	-10.5132
▁занятк	-10.5146
▁пасялі	-10.5147
▁духоўн	-10.5147
▁Філіп	-10.5149
▁прычына	-10.5155
▁герцага	-10.5155
▁ўласцівасц	-10.5161
▁выконвае	-10.5162
▁заняла	-10.5164
▁душ	-10.5164
▁Ордэна	-10.5164
▁Рус	-10.5165
▁Пап	-10.5166
▁апазіцы	-10.5168
▁Інстыту	-10.5188
▁Віленск	-10.5191
▁складаў	-10.5191
of	-10.5193
▁Выступа	-10.5194
▁надзвычай	-10.5202
nd	-10.5209
▁навукоўца	-10.5219
▁Сацыялістычна	-10.5221
▁ляса	-10.5224
▁вакзал	-10.5224
▁ўстаноўлен	-10.5236
▁рабоч	-10.5238
волі	-10.5241
▁малюнк	-10.5249
▁выеха	-10.5252
▁прысвечана	-10.5255
▁усім	-10.5257
▁Касцёл	-10.526
▁зямля	-10.5265
11	-10.5266
50	-10.5267
▁мірна	-10.5268
▁жыл	-10.527
▁невядомы	-10.5272
▁Орш	-10.5274
расце	-10.5274
▁каледж	-10.5275
▁крыві	-10.5277
▁лева	-10.5277
▁62	-10.5287
▁арышт	-10.5291
▁Чорны	-10.5294
▁страт	-10.5297
▁Швецыя	-10.53
▁змог	-10.5301
▁Канстытуцыя	-10.5303
▁утвораны	-10.5304
▁невялікім	-10.5308
▁Нёман	-10.5311
▁ап	-10.5312
асцей	-10.5316
▁фізічны	-10.5318
▁клетк	-10.5319
▁пражывал	-10.5321
▁Каралеўска	-10.5323
▁назірання	-10.5332
▁ішл	-10.5342
▁тыдня	-10.5345
▁рэдкі	-10.5346
▁стара	-10.535
▁Рада	-10.5351
▁дасягнення	-10.5353
▁ваенным	-10.5354
▁Дзмітры	-10.5354
▁адлюстроўвае	-10.5356
▁пераехал	-10.5364
▁Вільню	-10.5368
▁цэлы	-10.537
▁Літоўск	-10.5372
▁адпаведны	-10.5372
▁перадаў	-10.5379
▁словам	-10.5385
▁самц	-10.5387
▁архітэктурны	-10.5388
▁Аршанскі	-10.5395
▁выбраны	-10.5397
▁Вярхоўны	-10.5405
▁уласна	-10.5411
▁асабісты	-10.5414
ту	-10.5415
▁фінал	-10.5422
▁Дзе	-10.5425
▁папа	-10.5426
▁Югаславі	-10.5429
▁экспарт	-10.543
▁крок	-10.5433
ДР	-10.5435
▁паказал	-10.5437
КП	-10.5442
▁змяняе	-10.5442
▁футбольны	-10.5442
▁Ран	-10.5443
▁завода	-10.5444
▁германскі	-10.5459
▁адноўлена	-10.5463
▁патрабуе	-10.5463
▁узначальва	-10.5463
▁выяўлена	-10.5463
▁Атрымаў	-10.5464
▁далучаны	-10.5464
▁рускім	-10.5465
▁аказала	-10.5469
▁паражэнне	-10.5475
▁унутраны	-10.5477
▁карт	-10.5478
▁каштоўны	-10.5484
▁пайшл	-10.5485
вядзення	-10.5487
▁родна	-10.5488
▁шырокім	-10.5493
▁юрыдычны	-10.5499
▁Сапег	-10.5503
▁Канстанцін	-10.5506
сю	-10.5509
▁Генрыха	-10.5513
▁канцэрт	-10.5515
▁неабходны	-10.5518
▁матча	-10.5518
▁катастроф	-10.5522
▁радовішч	-10.5524
▁працягвалі	-10.5531
▁гадз	-10.5531
▁Станіслаў	-10.5532
▁сцвярджа	-10.5532
▁Літоўскі	-10.5535
▁шука	-10.5538
▁Міхаіла	-10.5545
▁дырэктарам	-10.5547
▁ра	-10.5554
▁актрыса	-10.5555
▁летні	-10.5559
▁Сапега	-10.5561
▁камісія	-10.5563
▁тэлебачанн	-10.5566
▁Савецкі	-10.5573
▁пясчаны	-10.5575
▁ўтварэння	-10.5577
▁развіта	-10.5579
▁мне	-10.5581
льга	-10.5583
▁прафесара	-10.5585
▁сялянскі	-10.5586
▁геаграфічна	-10.5588
▁абсалютна	-10.5589
▁екты	-10.5595
▁сілам	-10.5598
▁даны	-10.5599
▁аблог	-10.5599
▁гармат	-10.5601
▁етнам	-10.5601
▁рэферэндум	-10.5601
▁ўзыходжанн	-10.5601
▁хор	-10.5605
▁будуча	-10.561
▁Егіпе	-10.5614
▁Брытані	-10.5615
▁апісвае	-10.5616
▁атрымліва	-10.5616
▁морам	-10.5617
▁баі	-10.5623
▁гаспадарчы	-10.5625
▁стады	-10.5627
▁жыло	-10.563
вых	-10.5634
▁рабілі	-10.5635
▁федэральна	-10.5636
▁сапраўдны	-10.5637
▁медыцын	-10.5639
▁папулярна	-10.5647
▁1890	-10.5669
▁невыс	-10.567
▁Картэс	-10.567
▁палотн	-10.567
▁жалеза	-10.567
▁Слов	-10.5671
▁Герб	-10.5671
▁распаўсюджва	-10.5691
▁прыгарад	-10.5705
▁Аршанска	-10.5705
▁Перамог	-10.5705
▁ўніверсітэц	-10.5714
▁грэчаскі	-10.5716
▁будава	-10.5719
▁паказаў	-10.5721
▁НК	-10.5722
▁сапраўд	-10.5725
▁прынесл	-10.573
▁спартыўны	-10.574
▁ХІ	-10.574
▁франта	-10.5746
▁выконваў	-10.5747
▁крам	-10.5747
▁жаночы	-10.5752
ар	-10.5759
▁вольны	-10.576
▁гурта	-10.5765
▁папярэдні	-10.5774
▁ворага	-10.5774
▁Янк	-10.5775
▁цэркв	-10.5776
▁манархі	-10.5779
▁доктара	-10.5783
▁Ленінград	-10.5798
▁паўстал	-10.5798
▁класіцызм	-10.58
▁Міністра	-10.5801
▁вызначана	-10.5803
рэ	-10.5804
▁пагроз	-10.5804
▁напр	-10.581
▁Каліфорні	-10.5811
▁самакіраванн	-10.5812
октар	-10.5812
▁добры	-10.5825
верх	-10.5827
рбі	-10.5829
▁французскім	-10.5832
▁Прыпяц	-10.5836
15	-10.5837
▁уваг	-10.5838
▁дарога	-10.584
▁Ціха	-10.584
▁буйнейшы	-10.5847
▁сітуацыя	-10.5854
▁Філіпа	-10.5855
▁аўтадарог	-10.5857
▁назірае	-10.586
▁графства	-10.586
▁Антарктыд	-10.5862
▁Брагін	-10.5864
▁зборніка	-10.5867
▁выказаў	-10.5872
▁арыентацы	-10.5875
▁рэальна	-10.5875
▁Афіцыйна	-10.5882
▁Раён	-10.5889
▁разгляда	-10.5893
▁Аўстрыя	-10.59
▁Людовік	-10.5905
▁цэнтральн	-10.5906
▁дваццац	-10.5908
▁караблё	-10.5909
▁зімо	-10.591
▁прыходзі	-10.5913
▁меркавання	-10.5914
▁аспірантур	-10.5918
▁мяса	-10.5919
▁Мала	-10.592
▁падзея	-10.5923
▁мінскі	-10.5924
▁заве	-10.5926
▁рэч	-10.5926
▁прыма	-10.5927
лінейна	-10.5929
▁Васіль	-10.5936
▁грамадств	-10.5937
▁Стэфана	-10.594
▁Вайн	-10.594
▁дэмакраты	-10.5948
▁война	-10.595
▁выкладчык	-10.595
▁праводзіла	-10.5952
▁сонечна	-10.5954
▁адзначы	-10.5955
▁карабл	-10.5958
лікаў	-10.5971
▁ўваход	-10.5974
▁позня	-10.5974
▁партызанскі	-10.5979
▁здзейсніў	-10.5981
▁вода	-10.5986
▁майстэрн	-10.5986
▁Мяж	-10.5989
▁Сатурн	-10.599
▁Егіп	-10.599
▁чаму	-10.599
▁Атлантычн	-10.5995
▁бога	-10.5996
▁асяроддз	-10.6001
▁лёгкі	-10.6002
▁пашырэнн	-10.6005
▁навуча	-10.6007
▁губернатара	-10.6007
абудова	-10.6012
▁гуля	-10.6013
▁місі	-10.6023
▁скасаваны	-10.6026
▁заву	-10.6031
▁спыніла	-10.6034
▁115	-10.6037
▁прафесійны	-10.6038
▁мужчынска	-10.6038
▁67	-10.6045
▁Марс	-10.6046
▁126	-10.6047
▁музыка	-10.6053
нак	-10.6055
▁інструмент	-10.6057
▁памерам	-10.6058
▁прыналежнасц	-10.6062
▁нібы	-10.6062
▁прыйшло	-10.6064
▁герцаг	-10.6065
▁Святы	-10.6065
▁Гродзенскі	-10.6066
▁прызнача	-10.6067
▁проз	-10.6068
▁выраз	-10.6069
▁набор	-10.6085
▁рэпрэсі	-10.6094
▁вопыт	-10.6097
▁Інстытут	-10.6097
▁зялёны	-10.6098
Кашалёўскі	-10.6098
▁Смаленск	-10.61
▁перанос	-10.6101
▁выкананне	-10.6101
▁НА	-10.6102
▁прысутнасц	-10.6103
▁штаба	-10.6103
▁герцагства	-10.6108
▁чацвёрты	-10.6109
ова	-10.612
верс	-10.6122
▁6-	-10.6124
▁Антон	-10.6133
▁прывіле	-10.6133
▁варот	-10.6134
ана	-10.6135
▁робя	-10.6135
▁фізі	-10.6136
▁акупант	-10.6136
▁ваявода	-10.6139
мір	-10.6142
▁праблема	-10.6143
▁самі	-10.6146
▁зан	-10.6153
▁паліцы	-10.6158
▁Старажытны	-10.6171
▁двухбакова	-10.6171
▁дыялект	-10.6172
▁7,	-10.6172
▁распаўсюджванн	-10.6174
▁Дзев	-10.6176
▁доказ	-10.618
▁яднана	-10.6184
▁праводзіў	-10.619
▁заходнім	-10.6194
▁рэлігія	-10.6198
▁меліярацыйны	-10.62
▁пал	-10.62
▁доступ	-10.6208
▁прапаганд	-10.6208
▁фрагмент	-10.6208
▁Румыні	-10.6209
▁забяспечвае	-10.6212
▁выкапн	-10.6217
▁Сонечна	-10.6219
▁тэхнічна	-10.6224
▁апостала	-10.6224
▁51	-10.6225
страты	-10.6227
▁кв	-10.623
▁гмін	-10.6231
▁спаборніцтва	-10.6232
▁арганізавана	-10.6233
▁тэатральна	-10.6233
▁Названа	-10.6235
▁пачаткова	-10.6236
▁135	-10.6238
▁намер	-10.6244
▁Пол	-10.6246
▁знішчаны	-10.6246
▁Зеланды	-10.6247
▁дзясятк	-10.6247
▁хвалі	-10.6248
▁аўтамабільны	-10.6251
▁Ноўгарад	-10.6252
▁Жамойц	-10.6254
▁перакладчык	-10.6263
▁Васіл	-10.627
▁Жыгімонт	-10.6275
p	-10.6279
▁Тацыт	-10.6282
▁грудз	-10.6283
▁пустын	-10.6287
адта	-10.6292
▁маленькі	-10.6294
▁спрабавал	-10.6297
▁шасці	-10.63
▁рэчышч	-10.6302
▁88	-10.6304
▁спадарожніка	-10.6307
▁іспанскі	-10.631
▁усходня	-10.631
▁найлепшы	-10.6311
▁доля	-10.6315
▁метады	-10.6317
▁носіц	-10.6318
▁Стакгольм	-10.6319
▁камеды	-10.6319
▁выснов	-10.6322
▁Еўрапейскі	-10.6323
▁сказаў	-10.6323
▁памяшкання	-10.6328
▁Беласток	-10.6329
▁уключа	-10.6338
▁дата	-10.6346
▁чыгунка	-10.6348
ваў	-10.635
▁англ	-10.6355
▁Касцюшк	-10.6357
▁выбух	-10.6357
▁епархі	-10.6357
ндаль	-10.6359
▁Юпітэра	-10.6361
рэшт	-10.6363
▁рубл	-10.6366
▁рабі	-10.6369
▁папярэдня	-10.637
97	-10.6374
▁вярнула	-10.6374
▁аднайменны	-10.6376
▁муж	-10.6378
▁Урад	-10.6379
▁армян	-10.638
▁актыўнасц	-10.6387
▁цяжкасц	-10.6388
▁плям	-10.6393
▁геаграфі	-10.6393
▁ўзаемадзеянн	-10.6394
▁мяркую	-10.6395
▁дырэктара	-10.6401
▁вядучы	-10.6406
▁яўрэйскі	-10.6406
▁спроба	-10.6408
▁сэрца	-10.6411
▁Ліг	-10.6414
▁адпачынк	-10.6419
124	-10.6428
▁члена	-10.6428
▁Штат	-10.643
▁правял	-10.6431
▁кісларод	-10.6432
▁Мюнхен	-10.6432
▁прэзідэнцкі	-10.6432
▁пакрыты	-10.6433
▁Прэм	-10.6434
ман	-10.6447
▁зал	-10.645
▁чэмпіён	-10.645
монт	-10.6469
▁еха	-10.647
▁Кіев	-10.6472
зень	-10.6474
▁даліна	-10.6479
▁ніякі	-10.648
▁Людовіка	-10.6483
▁араб	-10.6489
▁Мес	-10.6489
▁размяшчэнн	-10.6492
▁медалё	-10.6494
▁стаіц	-10.65
▁склікання	-10.6519
▁рас	-10.6524
▁гімн	-10.6524
▁шаш	-10.6527
пярэд	-10.6533
▁магчымы	-10.6535
▁абмежавана	-10.6539
▁паліты	-10.6542
▁Оскар	-10.6545
▁сукупнасц	-10.6546
▁канфедэрацы	-10.6549
▁разглядае	-10.6553
▁Віктар	-10.6562
▁ўнутр	-10.6563
▁Та	-10.6564
▁адраджэнн	-10.6567
▁свабодны	-10.6568
▁1870	-10.6581
ча	-10.6583
▁традыцыя	-10.6583
▁карціна	-10.6585
▁абавязкова	-10.6586
▁Франс	-10.6591
магла	-10.6592
le	-10.6597
▁падтрымліваў	-10.6597
▁сухі	-10.66
▁закліка	-10.66
▁падпісаны	-10.6603
c	-10.6612
адні	-10.6619
▁Новага	-10.6619
▁найбуйнейша	-10.6622
▁цесна	-10.6622
▁ёзна	-10.6623
▁навуковым	-10.6625
▁Прэзідыума	-10.6628
▁Імперы	-10.6632
▁хуткім	-10.6636
▁вадо	-10.6637
▁1,2	-10.664
▁пасада	-10.6641
▁законам	-10.6642
▁умоў	-10.6644
▁загінула	-10.6645
▁пасло	-10.6647
▁прызнал	-10.6649
была	-10.665
▁фарміраванне	-10.665
▁дэпутатам	-10.6651
▁рымлян	-10.6652
▁высок	-10.6658
▁Францыск	-10.6659
ень	-10.666
тэр	-10.6661
▁твар	-10.6661
▁заказнік	-10.6664
▁сабраны	-10.6664
▁асобін	-10.6669
▁выдавецтва	-10.667
▁прызнаў	-10.6678
▁знешні	-10.6685
▁ўдар	-10.6693
адварот	-10.6695
яком	-10.6695
95	-10.6699
▁узнагарод	-10.6699
▁расійскім	-10.6699
▁ацэнк	-10.6699
▁гарадск	-10.6701
▁Лета	-10.6702
▁філасофскі	-10.6712
▁прыкмет	-10.6717
доўга	-10.672
▁паўплывал	-10.6721
▁эфект	-10.6724
▁механізм	-10.6724
▁супрацоўніча	-10.6726
▁Англія	-10.6727
▁каза	-10.6734
▁платформ	-10.6737
▁кажу	-10.6738
▁прыгажосц	-10.6738
▁найважнейшы	-10.6742
▁ажыццяўля	-10.6743
▁насіл	-10.6745
▁Іспанія	-10.6745
▁зброя	-10.6747
ьска	-10.6748
▁рэзідэнцы	-10.6751
ло	-10.6752
lt	-10.6755
▁дзвюм	-10.6761
▁развівае	-10.6768
▁сушы	-10.6768
▁фасада	-10.6775
▁Вітаўт	-10.6775
▁штучна	-10.6777
▁траўм	-10.6777
▁захворвання	-10.6779
евіч	-10.6782
▁ўзнагарод	-10.6783
▁павялічыла	-10.6785
▁146	-10.6786
▁стадыён	-10.6799
скім	-10.6803
▁пахавання	-10.6807
▁Кацярын	-10.6816
Кашалёўска	-10.6816
▁1880	-10.6816
▁драм	-10.6818
▁апісанне	-10.682
▁навучальна	-10.6823
▁абіра	-10.6823
▁&#	-10.6825
ня	-10.6829
▁славянска	-10.6832
▁руд	-10.6832
▁краі	-10.6848
▁Бел	-10.6853
▁перыядычна	-10.6855
▁Наступны	-10.6855
▁сектар	-10.6866
▁пэўн	-10.6867
лева	-10.6868
▁медыцынска	-10.6876
▁Георгі	-10.688
▁панаванн	-10.6884
▁дзяцінства	-10.6894
▁сігнал	-10.6894
▁Кракав	-10.6894
▁знойдзена	-10.6894
▁вер	-10.6908
восен	-10.6912
▁калонія	-10.6913
▁плана	-10.6922
▁узяў	-10.6923
▁этнічны	-10.6924
▁духоўны	-10.6926
▁балот	-10.693
▁Узнагароджан	-10.6934
▁выкарыстаны	-10.6935
▁паверх	-10.6938
▁валоданне	-10.6945
▁жорстка	-10.6945
▁Утворан	-10.6948
▁Рос	-10.695
▁ахопліва	-10.6954
▁аналізу	-10.6961
▁водны	-10.6965
▁выпуск	-10.6965
▁пераварот	-10.6974
▁забіл	-10.6978
▁Казахстан	-10.6979
▁служыл	-10.6981
нджэл	-10.6985
▁кантрол	-10.6992
▁турыста	-10.6995
▁перада	-10.6995
▁кон	-10.6996
▁паверхня	-10.6998
▁бака	-10.7
цкі	-10.7
▁00	-10.7001
▁уласнасц	-10.7004
▁0,2	-10.7013
▁Палесцін	-10.7013
▁Сувора	-10.7013
▁метал	-10.7018
▁апарат	-10.7019
▁афіцыйным	-10.7025
ФР	-10.7027
▁Вільня	-10.7031
▁канчатковы	-10.7038
▁ма	-10.7041
▁Раман	-10.7045
гуле	-10.7047
▁паўднёв	-10.7049
▁прывё	-10.7051
▁розум	-10.7053
▁рэстаўрацы	-10.7053
▁мінула	-10.7054
▁пасёлк	-10.7057
▁сум	-10.7058
▁бацькоў	-10.7064
▁Грузі	-10.7074
▁асноўн	-10.7084
▁накіравана	-10.7088
льнай	-10.7091
▁кантакт	-10.7093
▁цэгл	-10.7093
▁манах	-10.7097
▁абапіра	-10.7099
▁абараня	-10.71
▁Шыр	-10.7102
▁142	-10.7102
▁генеральны	-10.7104
▁адрас	-10.7107
▁старэйша	-10.7109
▁Палат	-10.711
▁банк	-10.711
▁бакавы	-10.7113
▁класіфікацы	-10.7115
▁перамов	-10.7115
▁напісанн	-10.7119
ТА	-10.712
d	-10.7123
$	-10.7134
▁Апошня	-10.7134
▁восем	-10.7139
▁далучыў	-10.7139
al	-10.7143
▁расліна	-10.7144
▁мерапрыемства	-10.7146
▁свецка	-10.7146
▁надвор	-10.7148
▁медаля	-10.7152
x	-10.7156
бі	-10.7158
▁вырашана	-10.7158
▁распрацава	-10.7161
▁127	-10.7162
▁часц	-10.7162
▁узбярэжжа	-10.7167
▁здабыча	-10.7169
▁ніяк	-10.717
▁работнік	-10.7172
▁літара	-10.7173
▁Чэхаславакі	-10.7174
▁агляд	-10.7174
▁Уільям	-10.7183
▁чыста	-10.7183
▁Ан	-10.7188
рэдк	-10.7188
▁клет	-10.7193
▁пашырэнне	-10.7198
▁выйграў	-10.72
▁моцным	-10.72
▁Полацкі	-10.7202
▁асобным	-10.7208
▁ліг	-10.7209
▁літоўск	-10.7212
▁Дэмакратычна	-10.7213
▁экспазіцы	-10.7215
▁эксперыментальн	-10.7215
▁характарыстык	-10.7215
▁параўнальна	-10.7215
▁выкліка	-10.7216
▁пап	-10.722
▁абаронца	-10.7225
▁прызна	-10.7231
▁de	-10.7233
▁адмыслова	-10.7244
▁скрыжаванн	-10.7246
▁мураваны	-10.7254
▁паступа	-10.7255
▁малекул	-10.7256
▁трагеды	-10.7256
▁Вільнюс	-10.7259
▁пражыванн	-10.7259
вак	-10.7262
▁чалавечы	-10.7263
▁вясн	-10.727
▁Дзейніча	-10.7271
▁звярта	-10.7272
▁павялічвае	-10.7279
▁падрыхтоў	-10.7284
▁гістарыяграфі	-10.7297
▁літаральна	-10.7297
▁працяглы	-10.7297
▁Прыкладна	-10.7297
▁98	-10.7298
сцю	-10.7298
▁шляхецка	-10.7299
▁ход	-10.73
▁балота	-10.7305
▁цвёрда	-10.7305
▁дваранства	-10.7309
▁лацінск	-10.7311
▁Ган	-10.7311
шоў	-10.7312
▁галактык	-10.7314
тар	-10.7317
▁незалежны	-10.7321
▁Свабод	-10.7329
▁адбывал	-10.7329
▁творча	-10.7329
▁пар	-10.7334
▁забудов	-10.7336
▁Варшаўска	-10.7338
▁Кіраўнік	-10.7338
▁усталяваны	-10.7338
▁істотны	-10.734
▁Мір	-10.7341
▁рэгістрацы	-10.7343
▁алтар	-10.737
▁заснавал	-10.7387
нне	-10.739
▁дасяга	-10.7396
▁баг	-10.7401
▁аднаўленне	-10.7403
▁прафесійна	-10.7403
▁Японія	-10.7404
▁выступіл	-10.741
▁патрабаванн	-10.7413
▁ледз	-10.7414
▁валодал	-10.7416
▁народн	-10.7419
▁Меркуры	-10.7421
▁Часта	-10.7423
▁Марк	-10.7428
▁ява	-10.7428
▁136	-10.743
▁кааліцы	-10.7447
▁Сабор	-10.7448
▁паўвостра	-10.7448
▁валас	-10.745
▁83	-10.7457
▁Мексік	-10.7458
ation	-10.7462
▁непадалёк	-10.7463
▁кошк	-10.7464
▁тавар	-10.7464
▁далі	-10.7469
▁Склада	-10.7472
▁дэмакратычны	-10.7481
▁Кіеў	-10.7486
▁Сва	-10.7488
▁абарончы	-10.749
▁сотн	-10.7492
▁Уладзіслава	-10.7492
▁кітайска	-10.7493
▁Малы	-10.7503
▁Свіслач	-10.7504
gt	-10.7504
▁Адной	-10.7505
▁Краін	-10.7506
▁пакрыта	-10.7509
▁каталог	-10.7509
ко	-10.751
▁альбома	-10.7521
▁97	-10.7529
▁заканадаўчы	-10.7531
▁Іран	-10.7535
▁аднаві	-10.7542
▁132	-10.7546
▁Еўразі	-10.7546
▁арганічны	-10.7546
▁Турын	-10.7546
▁паст	-10.7547
▁лідара	-10.7548
▁рад	-10.7548
▁самалёт	-10.7549
▁эксперымент	-10.7553
▁полюса	-10.7554
▁праграму	-10.7555
▁прафесарам	-10.7561
▁кантынента	-10.7567
▁накіраваў	-10.7568
чэ	-10.7569
▁Грамадзянска	-10.7571
▁прамы	-10.7576
▁арбіт	-10.7578
▁фізіка	-10.7579
▁кангрэс	-10.7583
▁Карал	-10.7584
▁збіра	-10.7584
▁аўтобус	-10.7585
▁Нептун	-10.7588
▁Магілёў	-10.7589
▁саўгаса	-10.7594
полк	-10.7594
▁тэрмінам	-10.7595
▁некатор	-10.76
▁вяртае	-10.7601
▁Ірана	-10.7605
М	-10.7606
▁чацвёрта	-10.7608
▁Вене	-10.7609
▁кватэр	-10.7611
▁сабак	-10.7611
абель	-10.7612
▁прадстаўнікам	-10.7614
▁лікам	-10.7617
▁дарослы	-10.7618
▁факультэ	-10.7618
▁гледач	-10.762
▁велізарны	-10.7622
▁ліквідацы	-10.7622
▁трэнера	-10.7622
▁Візанты	-10.7623
▁СП	-10.7624
▁спектр	-10.7631
▁0,3	-10.7631
▁Афіцыйны	-10.7631
▁мяркуе	-10.7631
▁Міхайлавіч	-10.7631
▁спіральна	-10.7631
▁звярну	-10.7633
▁Джа	-10.7634
▁хмызняко	-10.7638
▁95	-10.7641
▁культурным	-10.7641
▁Адам	-10.7643
▁заня	-10.7644
▁белым	-10.7646
▁АЭС	-10.7647
▁105	-10.7648
▁уступіў	-10.7652
вазе	-10.7664
▁спява	-10.7667
▁ўсходнім	-10.7667
▁Аўстра	-10.7668
▁Напалеон	-10.767
▁Сучасна	-10.767
▁вяла	-10.7671
▁Моцарт	-10.7673
▁Прадстаўнік	-10.7673
▁Багдановіч	-10.7673
▁Заходн	-10.7677
▁прамавугольна	-10.768
▁Захад	-10.7682
▁КН	-10.7682
▁жыла	-10.7682
▁Галоўным	-10.7682
▁загадчыка	-10.7686
▁жыво	-10.7687
▁ўведзена	-10.7688
▁біскупа	-10.769
▁Слуцка	-10.7691
▁прыеха	-10.7701
▁класічны	-10.7702
▁захоўва	-10.7703
▁вяду	-10.7706
▁выкарыстоўваў	-10.7713
▁заслуг	-10.7716
▁манаграфі	-10.7716
▁кажа	-10.7716
▁128	-10.772
▁папулярным	-10.7725
▁наведва	-10.7725
▁база	-10.7729
▁Хойні	-10.773
▁паказваю	-10.7734
▁адмысловы	-10.7735
▁Эдвард	-10.7741
▁Стана	-10.7745
кватэра	-10.7746
▁пасяджэнн	-10.7754
▁гандлёва	-10.7754
▁традыцый	-10.7755
▁драматычны	-10.7755
▁маштаб	-10.7757
росту	-10.7759
▁знайшоў	-10.7759
▁бачны	-10.776
▁Вынік	-10.7762
▁арабскі	-10.7765
▁паўста	-10.7767
▁магутны	-10.7769
▁вышэйш	-10.7769
▁выявіў	-10.7772
▁далучэнн	-10.7778
▁дамам	-10.7782
▁прымалі	-10.7783
▁паняцця	-10.7787
▁шырот	-10.7802
▁адны	-10.7803
карэспандэнт	-10.7803
▁узяты	-10.7804
▁літаратура	-10.7805
▁занесены	-10.7807
▁кары	-10.7808
▁медыцыны	-10.7808
вен	-10.7808
▁ўзнікненн	-10.7808
▁ф	-10.7811
▁вучылішч	-10.7815
вой	-10.7815
каў	-10.7816
расту	-10.7818
▁Залаты	-10.7823
нь	-10.7828
▁эканоміц	-10.7832
▁адс	-10.7833
▁Месяца	-10.7839
▁Сіры	-10.7843
▁аналіз	-10.7844
▁1840	-10.7845
▁праваслаў	-10.7846
▁Дэбютава	-10.7846
▁Паходзі	-10.7847
▁Вышэйшы	-10.7848
▁Wi	-10.7851
▁асобнік	-10.7851
U	-10.7854
▁прыбытк	-10.7867
▁87	-10.7867
▁масів	-10.7867
▁маскоўска	-10.7868
▁3000	-10.7868
ога	-10.7869
▁Полацку	-10.7872
лен	-10.7874
▁прызнанне	-10.7874
▁сол	-10.7874
▁механік	-10.7876
▁U	-10.7878
▁мене	-10.7881
▁вайсковы	-10.7881
▁Калумбі	-10.7882
▁Вышэйша	-10.7885
▁дзесяцігоддз	-10.7887
▁буйна	-10.7892
след	-10.7897
▁абласны	-10.7899
▁скульптар	-10.79
▁сцвярджае	-10.7902
туль	-10.7904
▁кампазітара	-10.7907
▁93	-10.7911
▁пунктам	-10.7917
▁блок	-10.7917
стыя	-10.7919
▁Адама	-10.7923
▁пераведзен	-10.7926
▁студы	-10.793
▁інтэлігенцы	-10.7932
▁ўласнасц	-10.7935
▁Польскі	-10.7936
▁становішч	-10.7941
▁полацкі	-10.7943
▁распаўсюджванне	-10.7949
▁паўвострав	-10.7949
▁паліва	-10.7954
ват	-10.7955
▁строга	-10.7958
▁Савецк	-10.7959
▁каменна	-10.7964
нова	-10.7964
▁мяч	-10.7967
▁апісання	-10.7969
▁швед	-10.7971
▁скараці	-10.7977
▁Ніжні	-10.7977
▁фірм	-10.7981
▁вар	-10.7982
▁Бітв	-10.7982
▁паляванн	-10.7983
▁ўжыванн	-10.7984
ВК	-10.7991
▁асаблівы	-10.7992
▁прызначыў	-10.7992
▁утварае	-10.7994
▁узрос	-10.7997
▁Вен	-10.8001
▁гімна	-10.8001
▁гістарычным	-10.8003
▁Прамо	-10.8004
▁бюр	-10.8012
ет	-10.8014
▁Закон	-10.8015
▁шматлікім	-10.8015
▁сусветны	-10.8015
▁1850	-10.8017
▁рэалізацы	-10.802
▁магазін	-10.802
▁Значна	-10.8022
▁абазначэння	-10.8022
▁захаванне	-10.8023
эн	-10.8025
▁пашырана	-10.8029
▁Далін	-10.8034
▁навукоўцы	-10.8044
▁тэатральны	-10.8046
казаў	-10.8047
▁глыбокі	-10.8052
▁ядра	-10.8055
▁бра	-10.8059
▁пасла	-10.8061
▁установа	-10.8062
▁аперацыя	-10.8063
▁Верагодн	-10.8065
▁123	-10.8068
▁адкрыла	-10.8069
▁прыпада	-10.8072
▁сіня	-10.8074
▁яв	-10.8077
▁мужа	-10.808
▁партыйн	-10.808
лю	-10.8081
▁дысцыплін	-10.8087
▁інфармацыя	-10.8087
▁Мак	-10.8087
▁самім	-10.8088
▁Прусія	-10.8098
▁выклікае	-10.8099
▁знакаміта	-10.81
▁апублікавана	-10.81
▁выдае	-10.8101
▁Уладзісла	-10.8102
▁уладання	-10.8103
▁выстав	-10.8107
туры	-10.8108
▁машынабудаванн	-10.8111
▁350	-10.8113
▁1860	-10.8115
▁найстарэйшы	-10.8115
▁друг	-10.8116
▁Мар	-10.812
▁стралкова	-10.8128
▁тэхналогі	-10.8134
▁Джона	-10.8136
▁ўзброены	-10.814
▁66	-10.814
▁Канстанціна	-10.8141
▁ваколіц	-10.8142
▁участка	-10.8143
▁элементам	-10.8145
▁калгаса	-10.8149
▁каманду	-10.8152
▁Шэкспір	-10.8154
▁еўра	-10.8154
▁вокн	-10.8154
оч	-10.8155
▁124	-10.8156
▁відам	-10.8158
▁Пецярбургск	-10.8161
▁лагера	-10.8171
▁Парыжска	-10.8172
▁паўночн	-10.8174
▁Венер	-10.8176
▁96	-10.8177
▁кірун	-10.818
▁ярка	-10.8181
▁сядзіб	-10.8187
▁царо	-10.819
▁чырвоным	-10.8192
ізму	-10.8194
▁публічна	-10.8194
▁Луі	-10.8194
▁хваля	-10.8195
▁патэнцыял	-10.8197
▁цэрква	-10.8198
▁Саксоні	-10.8199
ТЭ	-10.82
▁меркаванн	-10.82
▁змена	-10.8202
▁бібліятэ	-10.821
▁шчыт	-10.822
▁мастацкім	-10.8222
▁адправі	-10.8222
▁эканамічным	-10.8222
▁вясно	-10.8228
▁нагод	-10.8233
▁68	-10.8234
▁Азербайджана	-10.8234
▁абвяшчэнн	-10.8236
▁пачата	-10.8242
▁выпуска	-10.8243
▁Белы	-10.8244
▁пара	-10.825
▁плоскасц	-10.8251
ежы	-10.8254
▁дзіцяча	-10.8255
▁міністэрства	-10.8257
▁турк	-10.8258
▁пачатковы	-10.8258
▁Ні	-10.826
▁Ісус	-10.8266
▁рэчаіснасц	-10.8267
в	-10.8271
▁пацярпе	-10.8271
▁прыкладам	-10.8276
▁заканадаўства	-10.828
коў	-10.8282
▁замен	-10.8286
▁кожн	-10.8289
▁завершана	-10.8289
▁правядзенне	-10.8289
▁таўшчын	-10.8289
▁камандава	-10.829
▁зялёна	-10.8291
▁K	-10.8291
▁свядомасц	-10.8294
▁прызначана	-10.8294
▁ч	-10.8295
▁78	-10.8297
▁моста	-10.8297
▁браў	-10.8299
▁Бар	-10.8301
▁міжнародн	-10.8302
▁Юр	-10.8303
▁узведзен	-10.8304
▁дэкаратыўны	-10.8307
▁знішчэнн	-10.8307
▁Заснавана	-10.8312
▁БА	-10.8313
▁залів	-10.8317
▁завяршыў	-10.8319
▁Ягайла	-10.8323
▁86	-10.8326
▁сцёк	-10.8328
▁праўда	-10.8331
▁Вы	-10.8332
▁мужчынскі	-10.8332
▁Міжземнамор	-10.8334
▁гараджан	-10.8334
▁Роберт	-10.8334
▁відавочна	-10.8336
▁Штата	-10.8336
▁Інданезі	-10.8341
▁Украінска	-10.8342
▁ўвайш	-10.8353
яўлення	-10.8363
▁Льв	-10.8367
▁халодны	-10.8367
▁задача	-10.8369
▁выдатна	-10.8376
▁абмежаваны	-10.8376
▁дум	-10.8377
▁0,1	-10.838
▁псіхалогі	-10.838
▁122	-10.8382
▁дэбютава	-10.8382
▁акт	-10.8382
▁гарадам	-10.8384
▁наст	-10.8393
▁прытрымліва	-10.8395
▁абранн	-10.8401
ан	-10.8402
▁малюнка	-10.8402
▁вылучае	-10.8406
▁японска	-10.841
▁пагаднення	-10.8412
▁Турцыя	-10.8415
хто	-10.8417
▁Два	-10.8419
▁сярэдн	-10.8422
▁пралі	-10.8426
лікі	-10.8427
▁паляванне	-10.8427
▁дэлегацы	-10.8435
ўск	-10.8436
▁Евангелл	-10.8436
▁жоўты	-10.8437
▁шта	-10.8438
▁Вільгельма	-10.844
▁пахаванн	-10.8441
▁вылучаюц	-10.8444
КД	-10.8445
▁раёнам	-10.8451
▁мозг	-10.8453
▁матэрыяльна	-10.8456
▁тагачасн	-10.8458
▁германска	-10.8463
▁D	-10.8464
▁дэмакратычна	-10.8469
▁пазбег	-10.8472
▁духавенства	-10.8472
▁Свята	-10.8472
▁выпушчаны	-10.8472
▁Палеска	-10.8475
▁дасягненн	-10.8478
▁дасягаю	-10.8478
▁камандуючы	-10.8482
▁капітана	-10.8484
▁глін	-10.8486
▁падзяля	-10.849
▁аказаў	-10.8494
▁медаль	-10.8495
▁Сен	-10.8495
▁школьн	-10.8507
▁8,	-10.8511
▁Кіева	-10.8515
ZW	-10.8518
▁ўздзеянн	-10.8518
▁падатк	-10.8525
▁веды	-10.8526
▁артылеры	-10.8527
ём	-10.8537
▁Ален	-10.8538
▁банка	-10.8541
▁кіламетр	-10.8546
▁дапамаг	-10.8546
▁пагадзі	-10.8547
▁фабрыка	-10.8549
вы	-10.855
ведалі	-10.8552
▁Драгічынскі	-10.8552
▁900	-10.8553
▁лабараторы	-10.8553
▁пазнаёміў	-10.8556
▁дадаткова	-10.8559
▁лідарам	-10.856
▁O	-10.8563
▁0,4	-10.8565
▁каталіцтв	-10.8565
▁чыта	-10.8565
▁супада	-10.8573
▁паставіў	-10.8583
▁сустрэ	-10.859
▁шведска	-10.8594
▁калегі	-10.86
▁функцыя	-10.8605
▁Атлантычны	-10.8606
▁апавяданн	-10.8608
▁выдатк	-10.8609
▁Найвышэйша	-10.8611
▁украінскі	-10.8614
▁зарад	-10.862
▁прэс	-10.8627
▁змяня	-10.8629
▁забаронена	-10.863
▁сацыялістычна	-10.8632
▁пасольства	-10.8642
▁ядна	-10.8643
▁алфавіт	-10.8643
▁Міхал	-10.8643
▁мінеральны	-10.8646
▁верніка	-10.8647
▁пазнейшы	-10.8648
▁пісьменнасц	-10.8649
▁забарон	-10.8651
▁рэчы	-10.8652
▁сябра	-10.8658
▁бізнес	-10.8658
▁пазбаўлены	-10.8658
▁магнітна	-10.8658
▁зімовы	-10.8663
▁Ап	-10.8668
▁галерэя	-10.8676
▁копі	-10.8677
▁распачаў	-10.868
▁гаспадара	-10.8682
▁тэарэтычна	-10.8682
▁інтэнсіўна	-10.8683
▁выключан	-10.8683
▁структура	-10.8685
▁дыяметра	-10.8685
▁Рэй	-10.869
▁графік	-10.8693
▁звярнуў	-10.8698
▁лічб	-10.8699
▁Хрысто	-10.8706
▁Шэклтан	-10.8706
▁палярны	-10.8706
SO	-10.8706
▁фінансава	-10.8708
▁спецыяльнасц	-10.8711
вае	-10.8716
▁Ягайл	-10.8718
▁штучны	-10.872
▁тэхнікум	-10.8726
▁74	-10.8727
▁запісаў	-10.8731
▁Івацэвіцкі	-10.8731
▁бачна	-10.8732
▁ўтрыманн	-10.8732
▁Стаў	-10.8734
▁ток	-10.8736
▁пароды	-10.8739
▁дайшл	-10.8746
ячэ	-10.8746
▁працягва	-10.875
▁адкрытым	-10.8751
▁эвалюцы	-10.8751
▁палатн	-10.8753
▁выдадзена	-10.8753
▁раніц	-10.8754
▁надрукаваны	-10.8755
▁парламенцкі	-10.8758
▁доўжы	-10.8763
▁самастойны	-10.8763
▁Кіпр	-10.8767
▁чысты	-10.8769
▁даследава	-10.877
▁усю	-10.8771
▁драматург	-10.8774
▁табліц	-10.8776
▁дасягну	-10.878
▁вось	-10.8782
▁астатня	-10.8786
▁стромкі	-10.8787
▁археолаг	-10.8788
▁Ордэн	-10.8794
▁выцягнута	-10.8797
▁Далей	-10.8798
▁су	-10.8798
▁Мікалаевіч	-10.8802
▁княств	-10.8803
▁выйсц	-10.8805
наты	-10.8805
▁архітэктарам	-10.8807
▁руха	-10.8812
▁114	-10.8813
▁трапляе	-10.8813
▁пл	-10.8813
▁Ка	-10.8815
▁настаўнік	-10.8821
аступніка	-10.8822
▁раўніна	-10.8823
нікі	-10.8823
▁дазваляю	-10.8834
▁вагон	-10.8834
▁Ленінградска	-10.8839
▁адн	-10.8841
▁Максіма	-10.8841
▁Індыя	-10.8842
▁кампанент	-10.8845
НД	-10.8848
▁Манголі	-10.8848
▁Тадэвуш	-10.8848
▁камерцыйны	-10.8848
▁Кветк	-10.8848
▁Ньютан	-10.8849
▁Мярку	-10.8851
▁паспрабава	-10.8853
▁вяршыня	-10.8855
▁a	-10.8856
▁сабраў	-10.8859
▁галасаванн	-10.8863
▁Дняпро	-10.8868
▁усходні	-10.8868
▁Ос	-10.887
▁адлюстраванне	-10.887
▁Прац	-10.8871
▁выкладчыкам	-10.8872
▁мастацк	-10.8876
▁мусульман	-10.8876
▁аўтамабіль	-10.8877
▁Стаўбцоўскі	-10.8883
▁статут	-10.8888
▁прамов	-10.8891
▁Кангрэс	-10.8891
С	-10.8894
▁даследаванне	-10.8896
▁біялагічны	-10.8897
абраў	-10.8905
▁Аляксандравіч	-10.8908
▁Нацы	-10.8911
▁84	-10.8912
▁1,6	-10.8912
ож	-10.8913
A	-10.8917
▁уваходзіл	-10.8921
▁астраном	-10.8922
▁павялічы	-10.8924
▁дуб	-10.8926
даваў	-10.8927
▁апрацоўк	-10.893
▁Зорк	-10.8936
▁59	-10.8942
▁вучэнне	-10.8944
▁ажыццяўленн	-10.8945
▁ўтворана	-10.8945
▁зняты	-10.8946
▁8-	-10.8948
сярэдзін	-10.8951
▁аўстрыйскі	-10.8951
стаўшы	-10.8955
▁Памер	-10.8955
▁ПАР	-10.8956
▁губернатар	-10.8962
▁тэхналогіі	-10.8969
▁Вілейскі	-10.8973
▁Шырока	-10.8975
▁пячор	-10.8976
▁арганізатар	-10.8977
▁меркава	-10.8977
ор	-10.8981
▁Твор	-10.8982
▁Дум	-10.8988
▁халодна	-10.8989
▁вызваленне	-10.8991
▁рэспубліканскі	-10.8993
▁быццам	-10.9005
▁карысны	-10.9012
▁гуртк	-10.9013
▁народам	-10.9019
▁Фрыдрыха	-10.902
▁авіяцы	-10.9022
▁дзесяцін	-10.9022
чыльнасц	-10.9023
▁распрацавана	-10.9026
▁выступленн	-10.9029
▁раённы	-10.9033
ранейша	-10.9038
▁папер	-10.9039
▁Чарнобыл	-10.9042
▁даход	-10.9043
▁разуменн	-10.9045
▁аказва	-10.9054
▁ядро	-10.9054
супраць	-10.9055
▁бялк	-10.9055
▁мацерык	-10.9056
▁судо	-10.9059
маючы	-10.9063
▁парафі	-10.9064
▁лістоў	-10.9065
▁зразуме	-10.907
▁паражэння	-10.907
▁прадукты	-10.9077
па	-10.908
▁шчыльна	-10.9083
▁Афін	-10.9084
▁Скот	-10.9091
▁узначалі	-10.9091
▁адыгрыва	-10.9094
▁станаўленн	-10.9096
▁іду	-10.9101
▁павелічэнн	-10.9103
▁падземны	-10.9103
▁Апр	-10.9106
▁малюн	-10.9112
▁практы	-10.9114
ізацы	-10.9116
▁гаворы	-10.9119
▁82	-10.9121
▁72	-10.9121
▁гварды	-10.9127
▁знаходк	-10.9127
▁паўстанн	-10.9128
▁Якуба	-10.9128
▁паўабаронца	-10.913
▁адышл	-10.914
▁ўспамін	-10.914
▁амерыканскім	-10.9146
▁цэла	-10.9149
Заходня	-10.9155
▁поўным	-10.9157
▁Во	-10.9159
▁выпуску	-10.9159
▁арыентавана	-10.9163
▁аказалі	-10.9167
▁памерл	-10.9169
▁вярта	-10.9169
▁вырашылі	-10.9173
▁невялік	-10.9175
▁майстэрства	-10.9176
▁Волг	-10.9183
▁афарбоўк	-10.9184
▁Вайніловіч	-10.9186
▁кантона	-10.9186
▁каардынат	-10.9189
▁НАН	-10.9191
▁выгнанн	-10.9197
▁манарха	-10.9201
▁галосны	-10.9204
▁грамадскім	-10.9209
▁вырабляе	-10.9211
▁ядноўвае	-10.9215
▁касмічны	-10.9216
▁Баторы	-10.922
▁збудаваны	-10.9221
▁культ	-10.9221
▁гістарычн	-10.923
▁адзначыў	-10.9237
▁візіт	-10.924
▁Дуна	-10.924
▁феадальна	-10.9242
ПА	-10.9243
▁еўрапейск	-10.9243
▁Астрав	-10.9243
▁Петраград	-10.9248
▁назіра	-10.9249
▁пако	-10.9253
▁Паспаліт	-10.9256
▁лепшым	-10.9267
▁працягла	-10.9268
▁называла	-10.9271
▁дзелі	-10.9275
▁Планк	-10.9276
▁гіпотэз	-10.9277
▁ўтварэнн	-10.9278
▁корм	-10.9279
▁малодша	-10.928
▁адзначаны	-10.9282
▁рот	-10.9282
▁1,	-10.9283
▁слоўнік	-10.9284
▁геаметры	-10.9289
▁71	-10.929
▁вузка	-10.9291
▁працягнуў	-10.9296
▁Карэ	-10.9307
▁падае	-10.9308
▁здагадк	-10.9311
▁палавы	-10.9315
▁захоўванн	-10.9315
дава	-10.9318
▁XXI	-10.9319
▁любі	-10.9321
▁забяспечы	-10.9323
▁ўведзены	-10.9323
▁ТБ	-10.9323
▁Камуністычна	-10.9326
▁вятр	-10.9327
▁Стату	-10.9333
▁замежн	-10.9333
▁падтрымаў	-10.9336
▁магістра	-10.9337
▁дэкаратыўна	-10.9337
атлавіна	-10.9338
▁Грэнланды	-10.934
▁112	-10.934
▁ганарова	-10.934
▁гібел	-10.934
▁тканін	-10.9342
▁прадмета	-10.9343
▁прыцягва	-10.9343
▁Орша	-10.9344
▁партыйны	-10.9346
▁філалагічны	-10.9346
▁Навагрудска	-10.9348
▁гарнізон	-10.9355
▁Яўген	-10.9356
▁абароне	-10.9358
▁валют	-10.9365
▁Рух	-10.9366
▁гетмана	-10.9371
▁інтэрв	-10.9378
▁спосабам	-10.9382
▁падтрымлівае	-10.9387
▁завершаны	-10.939
▁Груп	-10.9391
▁сесі	-10.9391
▁сканчэнн	-10.9391
▁нарыс	-10.9392
▁групоўк	-10.9392
▁прысвяці	-10.9392
▁выстаўк	-10.9392
▁крыжак	-10.9392
▁змяні	-10.9392
▁абслугоўванн	-10.9396
▁дзевя	-10.9402
▁Сме	-10.9402
▁гаспадарча	-10.9405
▁107	-10.9407
▁Ха	-10.9425
▁бульб	-10.9431
▁статуя	-10.9432
▁61	-10.9438
~	-10.9441
▁Квіслінг	-10.9441
▁папуляцы	-10.9441
ows	-10.9441
▁напо	-10.9443
▁рамонт	-10.9443
▁установ	-10.9444
▁Войск	-10.9445
▁выканана	-10.9447
▁дыпламатычны	-10.9448
▁разрад	-10.9448
▁69	-10.9451
▁эканамічн	-10.9453
▁ўключаны	-10.9458
▁імкненне	-10.9459
▁немцам	-10.9466
▁сфера	-10.9479
▁капліц	-10.9481
▁атрымліваю	-10.9483
ер	-10.9483
▁Марцін	-10.9489
▁адзнак	-10.949
▁пастаянны	-10.949
▁перамагл	-10.949
▁Тэлефон	-10.9492
▁паштова	-10.9492
▁забаронены	-10.9492
▁кВ	-10.9493
▁рын	-10.9498
▁ўзначальва	-10.9499
▁поспехам	-10.9502
▁арэн	-10.9502
▁весці	-10.9503
▁базы	-10.9505
▁СМ	-10.9505
▁праўд	-10.9506
▁ранейшы	-10.9506
▁мало	-10.9512
▁душы	-10.9513
▁Уз	-10.9513
▁Міс	-10.9517
▁надае	-10.9522
▁асяроддзе	-10.9523
▁паездк	-10.9526
▁афіцэр	-10.9527
▁збудаванне	-10.9527
▁навакольна	-10.953
▁старшы	-10.9536
▁паток	-10.9537
▁чарговы	-10.9538
▁паведамі	-10.9539
▁знікл	-10.9543
▁Прадпрыемств	-10.9544
▁генацыд	-10.9544
▁зняволены	-10.9544
▁разнавіднасц	-10.9544
лізе	-10.9544
▁Албані	-10.9544
▁атама	-10.9545
▁Галіле	-10.9547
▁113	-10.9553
▁няўдала	-10.9558
▁шырок	-10.9558
се	-10.956
▁вугал	-10.9564
▁позні	-10.9564
▁ўзяў	-10.9564
▁106	-10.9564
▁сумес	-10.9565
▁узброены	-10.9568
▁фр	-10.9572
▁будынкам	-10.9573
▁Кожна	-10.9573
▁Аснов	-10.9574
,8	-10.9581
▁утварэння	-10.9586
▁Паўднёв	-10.9592
▁Барыс	-10.9592
▁73	-10.9592
▁скарб	-10.9593
▁Кацярына	-10.9595
▁штурм	-10.9595
▁талент	-10.9595
▁кансерваторы	-10.9595
▁перададзена	-10.9596
▁Нерон	-10.9596
▁Указ	-10.9597
▁дзікі	-10.9598
▁захапі	-10.9599
▁Ліст	-10.96
▁турэцка	-10.9603
▁шч	-10.9607
▁кіна	-10.9611
▁размяшчэнне	-10.9616
явы	-10.9617
▁продк	-10.9619
▁падпісана	-10.9619
▁вольна	-10.9621
ключала	-10.9622
▁маршалка	-10.9624
▁рэжысёра	-10.9629
так	-10.9631
▁карэнны	-10.9633
▁рэкорд	-10.9634
▁ёзны	-10.9643
▁жалезна	-10.9647
▁Шлях	-10.9647
▁Вёск	-10.9648
▁бел	-10.965
▁Існую	-10.9659
▁77	-10.9662
▁фракцы	-10.9664
▁судовы	-10.9667
▁бронзавы	-10.9671
▁стаўленне	-10.9674
▁наведваў	-10.9676
▁персанаж	-10.9679
▁выпраменьванн	-10.968
▁бліжэйшы	-10.9682
▁заяв	-10.9683
▁кірава	-10.9683
▁федэрацы	-10.9687
▁цвёрды	-10.9688
▁Партыя	-10.9688
▁Арганізацы	-10.9692
▁калекцыя	-10.9693
екалькі	-10.9696
▁наваколля	-10.9699
▁перабудов	-10.9699
аражытнагрэчаска	-10.9699
▁Аўстрыйска	-10.97
ары	-10.9701
▁вадкасц	-10.9702
▁зычны	-10.9703
▁выяўляе	-10.9703
▁самалёта	-10.9704
▁закладзены	-10.9704
▁быва	-10.9704
▁ярус	-10.9709
l	-10.9712
ключае	-10.9713
▁прадукта	-10.9717
▁саюзніка	-10.9719
▁пратэст	-10.972
▁дакладны	-10.972
▁каталіцк	-10.9722
▁намесніка	-10.9724
▁кітайскі	-10.9732
▁пакарання	-10.9735
▁карабля	-10.9743
▁жанчына	-10.9743
▁Джэймс	-10.9744
▁прадстаўляе	-10.9746
▁ням	-10.9748
▁ландшафт	-10.975
▁паляпшэнн	-10.9751
▁запрашэнн	-10.9751
▁кіруе	-10.9752
▁пастаўлена	-10.9754
▁89	-10.9755
▁паветраны	-10.9757
▁фарміраванн	-10.9758
▁паэтычны	-10.9758
▁адміністрацыя	-10.9759
▁дазваляла	-10.976
▁Праг	-10.976
▁118	-10.9762
▁Мілан	-10.9763
РП	-10.9763
▁1,3	-10.9765
▁евіч	-10.9771
оўскі	-10.9772
▁Чыкаг	-10.9774
▁Яно	-10.9778
▁Калінкаві	-10.9779
▁ўтрымлівае	-10.9781
длегласц	-10.9782
ногі	-10.9787
▁рэ	-10.9789
▁галоў	-10.9792
▁Мо	-10.9792
▁ўяўленн	-10.9793
▁шведскі	-10.9794
▁фабрык	-10.9795
▁моц	-10.9806
▁трэнер	-10.9807
▁мерыдыяна	-10.9818
▁сустрака	-10.9819
▁Кубка	-10.9822
▁думка	-10.9822
анцы	-10.9824
▁скорасц	-10.9831
▁ляжа	-10.9832
▁прадставі	-10.9833
▁спрэчк	-10.9834
▁заваявання	-10.9843
▁рабіў	-10.9845
▁b	-10.9849
▁Урал	-10.985
▁палова	-10.9852
▁міжнародным	-10.9855
▁судова	-10.9856
▁складзена	-10.9856
▁бюджэт	-10.9858
▁рухавіко	-10.9859
▁акадэмія	-10.9862
▁прадстаўніцтв	-10.9869
▁трактат	-10.9869
▁радовішча	-10.987
▁пяты	-10.9876
▁сказа	-10.9876
▁прызнана	-10.9877
▁філіял	-10.9879
ніцтва	-10.9883
▁F	-10.9891
▁формул	-10.9896
▁дваран	-10.9898
▁астраномі	-10.9901
▁заказ	-10.9902
▁матэматычны	-10.9904
▁камуністычна	-10.9907
▁узнікл	-10.9907
туды	-10.9911
▁досвед	-10.9912
▁назіранн	-10.9913
▁багацце	-10.9914
чаў	-10.9916
▁залатым	-10.9917
▁родны	-10.9917
▁1820	-10.9932
▁населена	-10.9936
▁квантава	-10.994
▁электрычны	-10.9941
водзя	-10.9942
▁выця	-10.9947
▁Малдов	-10.9948
▁магчымым	-10.9952
▁Ці	-10.9955
▁вяртанне	-10.9956
▁пабудо	-10.9957
▁Мадрыд	-10.9964
▁кукуруз	-10.9964
▁Райт	-10.9966
▁абарот	-10.9966
▁агн	-10.9967
▁атамны	-10.9967
▁руін	-10.9968
▁мер	-10.9974
▁Ваенна	-10.9975
▁Сусвет	-10.9979
▁99	-10.998
▁насельніцтв	-10.9981
▁s	-10.9982
▁канстытуцыя	-10.9988
▁афіцэра	-10.9989
▁павятовы	-10.9989
▁Іосіф	-10.999
u	-10.9991
▁Пабудаван	-10.9993
▁заменены	-10.9995
▁цёпла	-10.9997
▁пачуцця	-10.9999
▁тэрытарыяльны	-11
З	-11.0001
▁прымусіл	-11.0008
▁пейзаж	-11.0008
▁11,	-11.0015
▁рок	-11.0015
▁вучона	-11.0017
▁секунд	-11.0017
▁0,8	-11.0018
▁прамым	-11.0019
▁перабудаван	-11.002
▁выходзіл	-11.002
▁Максім	-11.002
▁распрацоў	-11.0023
▁Міжземн	-11.0025
▁забеспячэнне	-11.0027
▁антычны	-11.0028
▁секцы	-11.0034
конт	-11.0036
▁труп	-11.0042
▁каралеўск	-11.0042
▁вулкана	-11.0043
▁пяск	-11.0047
▁пяхот	-11.0048
▁рэвалюцыя	-11.0048
лікам	-11.0049
▁Уэльс	-11.0052
▁васьмі	-11.0052
▁паходз	-11.0053
▁плоска	-11.0054
▁літоўц	-11.006
▁скуры	-11.0061
▁выходзя	-11.0063
▁сцэны	-11.0063
▁Маскоўск	-11.0071
▁20-	-11.0071
▁найбол	-11.0071
▁святло	-11.0071
▁плот	-11.0071
▁дазволіў	-11.0073
▁адкрыцц	-11.0075
▁станаві	-11.0083
▁паведамляе	-11.0087
▁віна	-11.0091
▁Ко	-11.0091
▁выявілі	-11.0095
▁рэгіянальны	-11.0101
▁сродкам	-11.0102
▁7-	-11.0113
▁Рыгор	-11.012
▁вонкава	-11.0121
▁рэвалюцыйны	-11.0121
дэ	-11.0123
▁суадносін	-11.0124
Усходня	-11.0125
▁Фрэйд	-11.0126
▁Кірава	-11.0127
▁зарэгістравана	-11.0127
▁Жыв	-11.0145
▁дойлідств	-11.0145
▁побыт	-11.0147
▁Сена	-11.0149
▁паўстанц	-11.0149
▁параз	-11.0156
▁калектыв	-11.0159
▁пазіцыя	-11.016
▁клубам	-11.0171
нска	-11.0177
▁спектакл	-11.0179
▁Бавары	-11.0179
▁істот	-11.018
▁сярэднявечч	-11.018
▁Помнік	-11.018
▁Ліві	-11.0181
▁нядзел	-11.0182
▁найвышэйшы	-11.0183
▁кветкі	-11.0185
▁доктарск	-11.0186
▁Галі	-11.0188
упак	-11.0188
▁кіеўскі	-11.0188
▁мыс	-11.0192
▁гарадскім	-11.0196
▁залато	-11.0199
▁старонка	-11.0203
▁літоўскім	-11.0205
▁субтрапічны	-11.0211
▁распаўсюджанне	-11.0211
▁памочніка	-11.0216
▁супраціўленне	-11.0219
▁Ры	-11.0226
▁вайскова	-11.0228
▁найвялікшы	-11.0234
▁бар	-11.0235
▁кірмаш	-11.0235
▁наваколл	-11.0236
▁хваёвы	-11.0237
▁заўважы	-11.0239
▁граматы	-11.0239
▁электрычна	-11.0248
▁падабенства	-11.0249
▁скасавана	-11.0249
▁ІІ	-11.0251
▁тагачасны	-11.0252
▁уладальнік	-11.0256
▁абедзв	-11.0262
ань	-11.0262
▁Грэцыя	-11.0262
▁пазіцый	-11.0268
▁Статут	-11.0271
▁Крупскі	-11.0272
▁дадзеным	-11.0273
▁тур	-11.0275
цка	-11.0286
▁Блізкі	-11.0287
▁ўбачы	-11.0288
эмпература	-11.0288
▁мянушк	-11.0288
▁сярэднявечна	-11.0291
▁сапрапел	-11.0291
▁знішчана	-11.0292
▁разбурана	-11.0294
▁поўн	-11.0296
граф	-11.03
▁РС	-11.0305
▁ўласн	-11.0318
▁Рэ	-11.0318
▁Аўстралія	-11.0319
▁ўказ	-11.0321
▁рачны	-11.0328
▁вучэння	-11.033
▁ўплыва	-11.0334
▁жаданне	-11.0337
▁сло	-11.0337
▁называў	-11.034
▁студэнт	-11.0341
▁вулкан	-11.0345
▁Бо	-11.0346
▁рыбалоўства	-11.0346
▁кухн	-11.0346
▁адмовіла	-11.0347
▁паказаны	-11.0348
▁Створана	-11.0351
▁Янка	-11.0351
▁выкліканы	-11.0351
▁ансамбл	-11.0352
шмат	-11.0355
▁закрыты	-11.036
▁Ліс	-11.0362
▁Кал	-11.0365
▁Фёдар	-11.0367
▁метала	-11.0368
▁злачынства	-11.0372
▁юрыдычна	-11.0374
▁аблічча	-11.0383
▁сектара	-11.0387
▁Гомельскі	-11.0394
▁сведчання	-11.04
▁Вебер	-11.0402
▁Сталыпін	-11.0402
▁Храм	-11.0402
▁абмывае	-11.0407
▁пазбаві	-11.0408
▁ганаровы	-11.041
▁10-	-11.0411
▁суполк	-11.0413
▁дрэвы	-11.0413
▁капліца	-11.0415
▁найменша	-11.0417
еры	-11.0418
гета	-11.0419
▁ўмацавання	-11.0421
▁марак	-11.0424
▁яўрэ	-11.0427
▁украінска	-11.0429
▁аўтарытэт	-11.0432
▁даследчыка	-11.0432
▁наступств	-11.0433
▁логік	-11.0433
▁здароўе	-11.0433
k	-11.0435
▁праспекта	-11.0448
▁Алес	-11.045
▁найбуйнейшым	-11.045
▁пік	-11.0457
▁Леанард	-11.0458
▁дыяпазон	-11.0458
▁пясчана	-11.0458
▁Яраслаў	-11.0458
▁археалогі	-11.0458
▁Ападк	-11.0458
▁ўсталяваны	-11.046
▁92	-11.046
▁найвышэйша	-11.046
▁ледавік	-11.0464
▁Лук	-11.0465
▁Брусел	-11.0466
▁Уладзіміравіч	-11.0466
ступлення	-11.0467
▁Залато	-11.0468
▁порта	-11.0474
▁прастора	-11.0475
▁важнае	-11.0475
▁млекакормячы	-11.0475
▁9,	-11.0482
▁ўяўляю	-11.0483
▁меншасц	-11.0485
СД	-11.0485
кінуты	-11.0488
▁загада	-11.049
▁грунту	-11.0492
▁ўкраінскі	-11.0498
▁кош	-11.0498
▁энергія	-11.05
▁адпраўлены	-11.0504
дэмакратычна	-11.0505
▁шкод	-11.0514
▁Выкарыстоўва	-11.0515
▁федэральны	-11.0515
▁капэл	-11.0515
▁вяселл	-11.0515
▁акун	-11.0519
▁эпідэмі	-11.052
▁апісаны	-11.0522
▁пласт	-11.0523
▁Браслаўскі	-11.0528
▁вызначэнне	-11.0537
▁балета	-11.0542
▁парка	-11.0548
▁Канстанцінопаль	-11.0551
▁актывіст	-11.0556
▁Над	-11.0557
▁Самым	-11.056
вані	-11.0562
сланы	-11.0562
радак	-11.0569
▁дызайн	-11.057
сьц	-11.0571
▁Туніс	-11.0571
▁дыяцэзі	-11.0571
▁Увес	-11.0572
▁сейм	-11.0572
▁каляровы	-11.0573
▁далёкі	-11.0573
▁ютарны	-11.0574
▁лясно	-11.0575
▁чум	-11.0578
▁Армені	-11.0579
▁вырасл	-11.0582
▁Міхала	-11.0592
▁Брагінскі	-11.0594
▁музычн	-11.0596
▁гарадзішча	-11.0602
▁дрэнна	-11.0609
▁дзеючы	-11.0609
▁даведа	-11.0609
▁павелічэнне	-11.0616
▁пасажыра	-11.0617
кор	-11.0618
▁Піса	-11.0619
пэўна	-11.0621
▁перашкод	-11.0623
▁супрацоўнікам	-11.0623
▁танка	-11.0625
▁Араві	-11.0627
▁капітал	-11.0628
бывае	-11.0628
­	-11.0629
▁егіпецкі	-11.0629
▁Васілевіч	-11.0629
▁следства	-11.063
▁перадае	-11.0631
▁прызнання	-11.0631
▁апісанн	-11.064
▁ўкраінска	-11.0642
▁замацава	-11.0643
a	-11.0646
▁кантроле	-11.0647
▁курган	-11.0648
▁феадал	-11.0654
▁эпізод	-11.0655
▁педагагічна	-11.066
▁паралельн	-11.0668
▁правам	-11.0668
▁Генры	-11.0669
▁аўта	-11.0669
▁Сям	-11.0678
▁перасяленц	-11.0678
▁Гапон	-11.0686
▁Трэці	-11.0686
▁нешматлікі	-11.0686
▁становя	-11.0686
▁Доўгі	-11.0686
▁Чыгуначн	-11.0686
▁Генеральны	-11.0686
▁каланізацы	-11.0686
▁міжваенн	-11.0686
▁Персі	-11.0687
▁квадратны	-11.0689
▁нізіна	-11.0689
▁вылучы	-11.0691
▁рэальнасц	-11.0692
аліту	-11.0695
▁вучн	-11.0697
▁пакаленн	-11.0697
эй	-11.07
шта	-11.0701
▁133	-11.0702
нае	-11.0706
▁30-	-11.0707
палітычны	-11.0707
▁архітэктурна	-11.0714
▁сцягам	-11.0715
▁святаро	-11.0715
▁ютара	-11.0716
▁размясці	-11.0716
▁танкава	-11.0716
▁Еўропа	-11.0717
▁сіні	-11.0718
▁спецыялістаў	-11.072
▁Алжыр	-11.0721
▁сыравін	-11.0729
▁сумесны	-11.0733
▁ёмам	-11.0735
▁класічн	-11.0736
▁хатня	-11.0737
▁зліцц	-11.0737
06	-11.0738
▁Дэпутат	-11.0744
▁забалочана	-11.0744
▁Брытанскі	-11.0744
▁руб	-11.075
▁тэрміна	-11.0751
▁паля	-11.0752
▁грамадзянск	-11.0755
▁Міністр	-11.076
▁Рускі	-11.0761
▁гандлёвым	-11.0761
▁Парты	-11.0761
▁Глеб	-11.0764
▁дума	-11.0764
▁каран	-11.0768
мог	-11.077
ішча	-11.0776
рыштаваны	-11.078
▁жоўта	-11.0782
▁кіруючы	-11.0787
▁вагона	-11.0792
▁кн	-11.0798
▁чалавеч	-11.0799
▁Ганконг	-11.0802
▁рэйтынг	-11.0802
▁торф	-11.0802
▁здыма	-11.0803
▁далучана	-11.0804
▁уваходзя	-11.0804
▁Лос	-11.0804
▁акадэмік	-11.0805
▁бог	-11.0811
▁захаваны	-11.0813
▁выдава	-11.0817
▁маленька	-11.082
▁Марціна	-11.0824
▁ўтварыла	-11.0827
ндар	-11.0827
▁Жыву	-11.0828
шчыка	-11.0836
▁звання	-11.0837
▁зямны	-11.0841
зел	-11.0843
▁фаз	-11.0844
▁біялогі	-11.0845
▁сябр	-11.0846
▁ўчаст	-11.0853
▁прадметам	-11.0854
▁дзяўчын	-11.0856
▁эфір	-11.0858
▁выканаў	-11.086
▁выпушчана	-11.086
▁магнітны	-11.086
▁ўражанн	-11.086
▁вадаспад	-11.086
▁развівал	-11.0861
▁разбіты	-11.0862
▁прастор	-11.0864
▁Максімальн	-11.0865
▁яднанн	-11.0866
бар	-11.0867
тварэнне	-11.0869
▁грыб	-11.0874
▁франка	-11.0878
▁паслядоўнасц	-11.088
▁падпісанн	-11.0882
▁гульцо	-11.0886
выканкам	-11.0886
▁ўзведзен	-11.0892
▁дамена	-11.0894
▁энергі	-11.0895
▁матэрыяльны	-11.0896
▁грэчаск	-11.0898
▁H	-11.09
▁прыкметна	-11.0902
▁сп	-11.0907
▁Сафі	-11.0907
▁450	-11.0914
▁разгром	-11.0919
▁0,7	-11.0919
▁Праваслаўна	-11.0919
▁Служы	-11.0919
▁Асобны	-11.0921
▁гандляр	-11.0922
▁пушч	-11.0922
▁гавора	-11.0922
▁птушка	-11.0922
▁Вышэйш	-11.0924
▁лячэнн	-11.0924
▁Незалежнасц	-11.0926
▁калегіум	-11.0928
▁ажыццяві	-11.0933
▁трывала	-11.0934
▁1,7	-11.0936
▁ацэнка	-11.0936
or	-11.0937
▁103	-11.0942
▁чвэрц	-11.0947
▁даўні	-11.0953
▁свецкі	-11.0957
▁гра	-11.0957
▁дзевяц	-11.0965
▁спявачка	-11.0968
▁пліт	-11.0968
▁творам	-11.0969
▁чэмпіёнам	-11.097
▁сямі	-11.0973
▁перасякае	-11.0979
▁зарэгістраваны	-11.0979
▁Варта	-11.098
▁Адносі	-11.098
▁ствараю	-11.0981
▁Асвет	-11.0982
▁выхаванн	-11.0989
▁Мая	-11.099
▁удал	-11.099
▁дапамага	-11.0992
▁захоўвала	-11.0992
▁знаёмы	-11.0993
▁тэксты	-11.0994
▁разлік	-11.0998
▁рэдакцыя	-11.0999
▁сінтэз	-11.1001
▁Мэта	-11.1004
▁сталы	-11.1009
IA	-11.101
▁Адэс	-11.1017
▁стваралі	-11.1029
▁саюзны	-11.1029
▁псеўданімам	-11.1029
▁гатовы	-11.1038
▁Верхні	-11.1038
▁ўмераны	-11.1038
▁славутасц	-11.1038
▁дадат	-11.1038
▁Займаў	-11.1039
▁дэманстрацы	-11.104
олаг	-11.1041
▁верас	-11.1041
▁Каралін	-11.1045
▁акупацыя	-11.1045
▁генеральн	-11.1048
кроў	-11.1057
▁трымае	-11.1058
▁ацэн	-11.106
▁Re	-11.1062
er	-11.1063
▁рознага	-11.1063
▁падатка	-11.1076
▁збудаванн	-11.1077
▁інтарэса	-11.108
▁завяршэння	-11.1081
▁пояса	-11.1084
▁унутрана	-11.1089
▁атамна	-11.1095
▁разуме	-11.1097
88	-11.1097
▁Босні	-11.1098
▁траўн	-11.1098
▁дахам	-11.1103
▁граматык	-11.1103
ота	-11.1104
▁слав	-11.1109
▁падтрымліва	-11.111
▁выбітны	-11.1111
▁бег	-11.1113
▁японскі	-11.1116
▁Род	-11.1118
▁інжынер	-11.1127
▁Францішка	-11.1127
▁хворы	-11.1128
▁Лацінска	-11.1129
▁чэшска	-11.113
▁савецк	-11.1134
▁ініцыятара	-11.1134
▁складання	-11.1136
▁падтрымал	-11.1137
агон	-11.1137
▁навакольны	-11.1148
▁турыстычны	-11.1155
▁Лунінец	-11.1158
▁Старэйш	-11.1158
▁харчовы	-11.1158
▁хрышчэнн	-11.1158
▁насельнік	-11.1158
▁пірамід	-11.1158
▁дзяцінств	-11.1159
▁дало	-11.1162
▁драматычн	-11.1165
▁дацкі	-11.1167
вяло	-11.1172
▁віленска	-11.1176
▁Габсбурга	-11.1178
намс	-11.1179
▁цырымоні	-11.1179
▁жывёлагадоўля	-11.1179
▁патрэбны	-11.1179
чэй	-11.1179
▁тэндэнцы	-11.118
▁рушыл	-11.1182
▁падзяляюц	-11.1182
▁спыніў	-11.1184
▁102	-11.1185
▁стваральнік	-11.1191
▁ваяводств	-11.1193
▁Эдуард	-11.1196
▁аркестра	-11.1199
▁ветр	-11.12
радзе	-11.1201
▁музыкант	-11.1203
▁пята	-11.1204
▁магутна	-11.1208
▁ланцуг	-11.1216
▁гвалт	-11.1219
Анджэлес	-11.1219
▁Венесуэл	-11.1219
▁недастаткова	-11.1219
▁пераўтворан	-11.1219
▁Пачаў	-11.122
▁Пятровіч	-11.1221
▁цікавы	-11.1221
▁Дзяржав	-11.1222
▁Свет	-11.1223
▁кратар	-11.1223
▁серб	-11.1224
▁настаўнікаў	-11.123
▁уласцівасц	-11.1231
▁запрошаны	-11.1232
тан	-11.1233
▁яркі	-11.1234
▁пабудова	-11.1235
▁квет	-11.1237
▁абсталяванн	-11.1239
▁аказвае	-11.1244
▁Швейцарыя	-11.1246
▁цяжкім	-11.1249
▁ўжыт	-11.1253
▁рухам	-11.1253
▁Ваўкавыск	-11.1254
▁прадугледжва	-11.1257
91	-11.1257
▁курса	-11.1259
ваўся	-11.1262
▁батальёна	-11.1273
▁76	-11.1274
▁своеасаблівы	-11.1274
▁бліжэй	-11.1274
▁Гістарычна	-11.128
▁трацін	-11.128
▁карчм	-11.128
▁тэалогі	-11.128
▁супярэчнасц	-11.128
▁танца	-11.1283
▁скульптура	-11.1288
▁Бабруйска	-11.1298
▁намінацы	-11.1305
▁Варшава	-11.1309
▁ідэалогі	-11.1311
▁9-	-11.1311
▁Рыг	-11.1315
▁паслужыл	-11.1318
▁будавалі	-11.132
▁мітрапаліта	-11.1323
▁кольца	-11.1324
▁іспанц	-11.1328
▁ядзерна	-11.133
▁заваяваны	-11.1331
▁друкава	-11.1332
▁выклікана	-11.1334
▁анг	-11.1337
▁фа	-11.1338
▁Традыцыйна	-11.1341
▁трыццац	-11.1341
▁Тытан	-11.1341
▁Ідэ	-11.1344
▁шчасц	-11.1346
▁цуд	-11.1348
▁камуніста	-11.1348
▁Валын	-11.1348
▁перасяленца	-11.1349
▁цукр	-11.1352
▁аперацый	-11.1352
▁кляштара	-11.1355
▁родн	-11.1357
▁Мэры	-11.136
▁срод	-11.136
▁апавяданне	-11.1365
▁ру	-11.1369
▁ўпадзенн	-11.1371
▁Усходн	-11.1374
▁пратэсту	-11.1378
▁часовы	-11.1381
▁саступа	-11.1385
▁практык	-11.1395
▁W	-11.1396
▁жада	-11.1398
▁аддаў	-11.1402
▁Дэпартамент	-11.1403
▁Хутка	-11.1403
▁Маладзечн	-11.1403
▁наперад	-11.1403
▁ўключаю	-11.1403
▁казк	-11.1405
▁удзельнічал	-11.1405
▁выклікаў	-11.1406
▁светлавы	-11.1408
дому	-11.1409
▁дабра	-11.1415
▁злучэнн	-11.1416
▁жорсткі	-11.142
▁спыненн	-11.142
▁Германска	-11.142
▁творчы	-11.1422
▁выратаванн	-11.1427
▁Македоні	-11.1431
▁рэшт	-11.1434
▁грамад	-11.1436
▁Вер	-11.144
▁іспанск	-11.1444
ведзены	-11.1449
▁дынастыя	-11.1449
▁прызначэнне	-11.1449
рагу	-11.1451
▁зацвердзіў	-11.1453
▁прадстаўля	-11.1454
▁бедны	-11.1458
▁Пер	-11.1459
цер	-11.1461
▁Карыбск	-11.1465
▁найперш	-11.1465
▁сімфоні	-11.1465
▁Кампані	-11.1465
▁Сіцылі	-11.1465
▁0,6	-11.1465
▁10,	-11.1467
▁Каралеўскі	-11.1473
▁ператварыла	-11.1474
▁пагроза	-11.1477
▁Ігар	-11.1488
овіч	-11.1493
льц	-11.1493
▁слуп	-11.1495
the	-11.1496
▁захоўвалі	-11.1502
▁Горка	-11.1503
▁выстаўка	-11.1508
▁колькі	-11.151
▁метадам	-11.1511
▁візантыйскі	-11.1519
▁паняцц	-11.152
▁заклік	-11.152
▁дач	-11.1521
▁Малады	-11.1522
▁хрыбта	-11.1522
▁паеха	-11.1522
▁Пачат	-11.1524
▁Жыц	-11.1527
▁Абхазі	-11.1527
▁Добра	-11.1527
▁Пушкін	-11.1527
▁зачынены	-11.1527
▁падводны	-11.1527
▁вадарод	-11.1527
▁вока	-11.1529
▁UGC	-11.1531
▁пэўным	-11.1532
▁Рыгора	-11.1533
▁запісаны	-11.1536
▁перанесены	-11.1537
▁нос	-11.1541
▁ўварванн	-11.1542
▁Фердынанд	-11.1543
▁Анд	-11.1545
▁продка	-11.1545
▁вузкім	-11.1552
▁Эйнштэйна	-11.1553
▁тыдн	-11.1559
▁танк	-11.156
25	-11.156
▁абрана	-11.1562
▁круг	-11.1562
▁чаргова	-11.1562
▁прылеглы	-11.1566
▁выбра	-11.1569
▁Баранавічы	-11.157
дзесят	-11.1587
▁спалены	-11.159
▁мінімум	-11.159
▁інвентар	-11.159
▁індыйска	-11.159
▁згадк	-11.159
▁унія	-11.1591
▁вайсков	-11.1593
▁зменены	-11.1595
▁хан	-11.16
B	-11.16
▁вырашэння	-11.1601
▁94	-11.1602
▁Латвія	-11.1603
▁крытыка	-11.1604
▁плануе	-11.1604
▁падрабязна	-11.1606
▁дзённік	-11.1606
▁Месяц	-11.1608
▁тэмп	-11.1611
▁знакам	-11.1615
▁заключае	-11.1616
▁Рэчыцк	-11.1621
▁прыгожы	-11.1622
▁дэль	-11.1622
▁падпісал	-11.1624
▁Бур	-11.1627
▁Ты	-11.1628
ост	-11.163
▁Канстанцінопал	-11.1632
▁базілік	-11.1633
▁забіва	-11.1635
▁атрадам	-11.1636
▁кара	-11.1637
▁паспяховы	-11.1642
▁дывізія	-11.1643
▁грэк	-11.1645
▁ван	-11.1647
губернатар	-11.1649
▁Эры	-11.1651
▁Талсто	-11.1654
▁вулканічна	-11.1654
▁космас	-11.1654
▁спартыўна	-11.1654
▁Меды	-11.1655
▁шыра	-11.1655
▁распараджэнн	-11.1656
▁моладзев	-11.1656
▁хутар	-11.1656
▁біяграфі	-11.1659
▁экспанат	-11.1661
▁вас	-11.1661
▁вобл	-11.1662
▁крыжа	-11.1662
▁раздзела	-11.1662
▁Джордж	-11.1663
▁людзям	-11.1665
▁знішчыл	-11.167
▁выда	-11.1673
▁партнёр	-11.1673
▁Антона	-11.1675
▁гол	-11.1675
дала	-11.1677
▁Зім	-11.1681
▁медал	-11.1682
▁117	-11.1682
▁забудова	-11.1682
▁камбінат	-11.1682
▁Уран	-11.1684
▁узроўня	-11.1684
льны	-11.1691
іка	-11.1693
ава	-11.1697
▁аўтадаро	-11.1699
▁абмежавання	-11.1705
▁цёмна	-11.1705
▁паляка	-11.1708
▁вера	-11.1711
нікаў	-11.1713
▁кропк	-11.1714
▁адказны	-11.1716
▁Амстэрдам	-11.1717
▁Барселон	-11.1717
▁Уругва	-11.1717
▁прыбярэжны	-11.1717
▁пшаніц	-11.1717
▁набег	-11.1717
amp	-11.1717
▁племя	-11.1717
▁выкарыстаў	-11.1718
дна	-11.1721
▁дэтал	-11.1721
▁завяршыла	-11.1721
▁навучы	-11.1722
▁актыўн	-11.1727
▁Астатні	-11.1728
▁Парк	-11.1733
▁пярэдня	-11.1733
▁Буйны	-11.1739
▁атрымана	-11.174
▁Эдварда	-11.1745
слаў	-11.1745
▁снег	-11.1748
▁лічба	-11.1751
▁разгляд	-11.1752
▁даклад	-11.1755
▁Эйнштэйн	-11.1755
▁філасофска	-11.1764
▁маладым	-11.1765
▁хмызняк	-11.1771
▁каханн	-11.1772
▁жаб	-11.1773
▁камер	-11.1776
онкурс	-11.1779
▁Лівонск	-11.1781
▁Чалавек	-11.1781
▁шосты	-11.1781
▁мякка	-11.1781
▁бактэры	-11.1781
▁Дзве	-11.1782
▁умацавання	-11.1782
▁крайні	-11.1784
▁зліва	-11.1784
▁прапанавана	-11.1785
▁азначала	-11.1786
▁Вайніловіча	-11.1786
▁дзесятк	-11.1786
▁Алена	-11.1788
▁зда	-11.1789
▁скал	-11.1789
ешч	-11.1791
▁каро	-11.1793
▁сваяк	-11.1794
▁ніводна	-11.1794
ель	-11.1795
▁Працу	-11.1797
▁гатычны	-11.18
▁працягваю	-11.1803
▁моўны	-11.1803
▁вонкавы	-11.1805
▁раскопк	-11.1807
▁выконвалі	-11.1808
▁Цэнтральн	-11.1808
▁наву	-11.1811
▁ратуш	-11.1815
ойма	-11.1815
▁аддзяленн	-11.1816
▁зямельны	-11.1817
▁Скончы	-11.1819
▁выслана	-11.1824
▁забудавана	-11.1826
ч	-11.1829
▁Ро	-11.183
▁Альп	-11.183
▁вял	-11.1832
▁Ніка	-11.1841
▁наземны	-11.1845
▁англічан	-11.1845
*	-11.1846
▁абсерваторы	-11.1846
▁грудно	-11.1846
▁інфраструктур	-11.1846
▁градус	-11.1846
▁паўторна	-11.1846
▁манер	-11.1846
▁старэйшым	-11.185
▁Само	-11.1855
▁маршал	-11.1856
▁адрознення	-11.1865
▁паэма	-11.1868
▁футбольна	-11.187
заходні	-11.1875
▁покрыва	-11.1877
піва	-11.1878
▁аднолькава	-11.1884
▁шляхта	-11.1889
▁ўнутран	-11.1889
▁и	-11.1895
▁вузкі	-11.1896
▁глав	-11.19
▁епіскапа	-11.1904
▁Песня	-11.1907
▁дыпламат	-11.1909
кшталт	-11.1911
▁Гарбачо	-11.1911
▁нарвежскі	-11.1911
▁падполл	-11.1911
▁прадзюсар	-11.1911
▁размнажэнн	-11.1911
▁энцыклапеды	-11.1911
▁Славені	-11.1911
▁метр	-11.1911
▁дзесяці	-11.1913
▁Створан	-11.1915
▁Дру	-11.1916
▁імперскі	-11.1916
▁Ціхі	-11.1918
▁блізкасц	-11.1923
▁2000-	-11.1923
▁Нансена	-11.1924
▁Троцкі	-11.1928
▁доўгім	-11.1931
▁расстраляны	-11.1931
▁рухаў	-11.1933
▁Сенат	-11.1937
▁Крыжа	-11.194
▁дацэнт	-11.1943
▁удзельнікам	-11.1945
▁забяспечваю	-11.1947
▁Брэсц	-11.1948
▁абедзвю	-11.1951
▁празаі	-11.1961
▁сацыял	-11.1962
▁тэхні	-11.1963
▁староства	-11.1971
▁заканадаўча	-11.1973
▁Ван	-11.1975
рок	-11.1975
▁рамёств	-11.1976
▁Хемінгуэ	-11.1976
▁справаздач	-11.1976
▁студэнцкі	-11.1976
▁прапанаваны	-11.1977
▁забіта	-11.1977
няў	-11.1985
▁настаўніцк	-11.199
▁ўзнагароджан	-11.1994
дадзены	-11.1995
▁пісьмова	-11.1997
раду	-11.1998
▁даступны	-11.1998
▁пакінуты	-11.2005
▁Існавал	-11.2009
раў	-11.2012
▁рэгулярны	-11.2013
▁сутыкненн	-11.2019
дз	-11.202
▁Бразілія	-11.2023
▁ўздым	-11.2026
▁прамавугольны	-11.2026
▁Евангелля	-11.2028
вядзенне	-11.2028
▁музы	-11.203
▁суперніка	-11.203
ас	-11.2031
▁тэрытарыяльна	-11.2031
▁Перыяд	-11.2032
▁набы	-11.2035
▁герой	-11.2036
▁матэры	-11.2041
▁украінц	-11.2042
▁перыядычны	-11.2042
▁звон	-11.2043
▁размах	-11.2043
▁камісара	-11.2043
▁дно	-11.2044
▁кіруюча	-11.2044
▁дапамагл	-11.2045
▁Сусветны	-11.2045
▁прыдворны	-11.2046
▁пабудавал	-11.2046
▁падзенне	-11.2048
▁адрозніваюц	-11.2048
▁прызначае	-11.2048
▁прыняцце	-11.205
▁перамяшчэнн	-11.2053
▁брытанскім	-11.2053
▁школьны	-11.2054
▁адлюстроўваю	-11.2056
▁партызанск	-11.2056
▁помнікам	-11.2064
▁Анатоль	-11.2065
▁венгерска	-11.2071
▁прырост	-11.2073
▁ўзяцц	-11.2073
▁паданн	-11.2077
▁палі	-11.2079
▁чэшскі	-11.2083
▁Клецкі	-11.2084
▁сустрэў	-11.2085
▁Хронік	-11.2086
▁небяспек	-11.2089
бачыў	-11.2089
▁сусветным	-11.2089
▁пісьмо	-11.209
▁правадыр	-11.2092
▁выраша	-11.2095
▁прызнае	-11.2096
▁дзяржаўнасц	-11.2097
▁мінерал	-11.2103
▁этнаграфі	-11.2107
▁ідэал	-11.2108
▁Крыштаф	-11.2108
▁Сістэм	-11.2108
▁забруджванн	-11.2108
▁кандыдацк	-11.2108
▁фатаграфі	-11.2108
▁Рэфармацы	-11.2108
▁чытач	-11.2108
▁Порт	-11.211
▁Мазырск	-11.2113
▁Гары	-11.2114
▁нападнік	-11.2114
▁нейка	-11.2116
▁хронік	-11.2118
▁крыло	-11.2118
▁Ірак	-11.2123
▁сцена	-11.2124
▁мячэц	-11.2126
хвост	-11.2129
▁цёмны	-11.213
▁сімвала	-11.213
▁спалучэнне	-11.2131
g	-11.2131
▁Вель	-11.2132
▁Стэфан	-11.2134
▁Дзяржаўн	-11.2134
▁вырас	-11.2144
▁выказа	-11.2144
▁акадэмічны	-11.2145
▁Берліна	-11.2145
▁драўнін	-11.2151
▁еўрапейскім	-11.2155
▁прад	-11.2155
▁геалагічны	-11.2155
▁расійск	-11.2158
▁планавала	-11.2162
▁фараона	-11.2162
▁шэрага	-11.2163
▁заваяваў	-11.2168
▁пісьм	-11.2171
▁давала	-11.2171
▁Леанід	-11.2175
▁Летні	-11.2175
▁абумоўлена	-11.2175
▁дакументальны	-11.2175
рэч	-11.2176
▁Восен	-11.2177
▁круга	-11.2177
▁літаратар	-11.2177
▁майстэрня	-11.2182
▁пражы	-11.2185
▁арыгінальны	-11.2187
▁аўтамабіл	-11.2189
▁тэхналагічны	-11.2193
▁ліцэ	-11.2198
▁Каталіцка	-11.2206
▁перы	-11.2209
▁уключан	-11.2214
▁керамік	-11.222
▁перайменаван	-11.2226
▁прынца	-11.2226
▁адзначан	-11.2228
▁велізарна	-11.2228
▁пас	-11.2229
▁гарачы	-11.2229
▁аднолькавы	-11.2229
амарн	-11.2235
▁прапанавал	-11.2237
▁палё	-11.2238
▁Галанды	-11.2242
▁Гарэцк	-11.2242
▁Дэкларацы	-11.2242
▁Узброены	-11.2242
▁распасціра	-11.2242
▁адзначаю	-11.2242
▁інфармацыйны	-11.2242
ожжа	-11.2242
▁цягне	-11.2243
▁Сымон	-11.2243
▁Пекін	-11.2243
▁рымскім	-11.2248
▁вярнулі	-11.2249
▁дасягненне	-11.225
▁кангрэса	-11.225
▁круглы	-11.2252
▁пасол	-11.2254
▁Азербайджан	-11.2254
▁Міцкевіча	-11.2259
▁Жана	-11.226
▁Ру	-11.226
ваяваў	-11.2262
▁яўленн	-11.2268
▁хлопчыка	-11.2269
ведала	-11.2271
▁матыв	-11.2272
▁дзеяча	-11.2276
▁запаведнік	-11.2277
▁сфер	-11.2282
▁паверха	-11.2283
▁выканаўчы	-11.2284
▁Ленінска	-11.2285
▁могілк	-11.2286
зімку	-11.2286
▁Уільяма	-11.2287
▁азнача	-11.2289
▁мерапрыемств	-11.229
▁перабра	-11.2297
▁81	-11.2297
▁адыграл	-11.2297
TC	-11.23
вочы	-11.2304
▁рухавіка	-11.2305
▁інструмента	-11.2307
андыдат	-11.2307
▁Яраслава	-11.231
▁Штаб	-11.231
▁Прынят	-11.2311
▁перамо	-11.2312
▁ўключана	-11.2312
▁самак	-11.2313
магчы	-11.2315
▁адказнасц	-11.2315
▁данін	-11.2317
▁Запавет	-11.2317
▁перакладзены	-11.2317
▁звалі	-11.2318
▁эканоміка	-11.232
▁ўсталяванн	-11.2322
▁ўзялі	-11.2323
▁рабіла	-11.2325
▁прыцягненн	-11.2326
▁арх	-11.2328
▁вятрак	-11.2329
сь	-11.2329
▁Магілёўскі	-11.2335
▁рэальны	-11.2337
▁гал	-11.2338
▁дзеся	-11.2339
▁афрыканскі	-11.2339
рон	-11.2339
▁пошука	-11.2341
▁разведк	-11.2346
▁СІ	-11.2348
▁абсталяванне	-11.2356
▁прымаю	-11.2357
▁губернскі	-11.2358
▁кантынентальны	-11.2362
▁сельсаве	-11.2369
▁роўнасц	-11.2371
▁выраблены	-11.2372
▁фартэпіян	-11.2375
▁Камітэта	-11.2375
▁пасляваенны	-11.2377
▁Індыйскі	-11.2377
▁падзялі	-11.2377
▁мікрараён	-11.2378
▁форум	-11.2378
▁вывад	-11.2378
▁Каліноўск	-11.2378
▁мэбл	-11.2378
▁маркі	-11.2378
▁Хац	-11.2378
▁рассяленн	-11.2379
▁Данія	-11.2382
▁уведзен	-11.2383
▁Тэўтонск	-11.2383
▁Усебеларуск	-11.2384
▁цёплы	-11.2385
▁сядзіба	-11.2387
▁пазнанн	-11.2388
▁плаці	-11.2388
цё	-11.2394
▁матэматычна	-11.2394
▁Ота	-11.2397
▁званн	-11.2408
▁саюзнік	-11.2422
▁венгерскі	-11.2423
▁грэка	-11.2423
▁пасажырскі	-11.2424
раект	-11.2431
▁Бак	-11.2431
▁вакзала	-11.2436
несены	-11.2436
▁будуе	-11.2436
ванне	-11.2438
▁пакіда	-11.2443
ЗБ	-11.2445
▁Агульны	-11.2446
▁гравюр	-11.2446
▁партугальска	-11.2446
▁экзамен	-11.2446
▁Федэральн	-11.2446
▁Амерыканска	-11.2446
▁засяленн	-11.2446
▁паліцыя	-11.2447
▁коран	-11.2447
▁Джорджа	-11.2448
▁буры	-11.2448
▁Садружнасц	-11.2448
▁дабрабыт	-11.2448
▁Іаана	-11.245
▁агенцтва	-11.2451
▁участк	-11.2457
▁літаратурн	-11.2459
ран	-11.246
▁ўрачыста	-11.2463
▁ўмов	-11.2465
▁здзяйсняе	-11.2471
▁адзіночны	-11.2472
станавіў	-11.2473
▁насяля	-11.2474
▁падрыхтоўка	-11.2475
Ц	-11.2476
▁сваяко	-11.2477
▁арыстакраты	-11.2478
▁Канада	-11.248
▁Альберта	-11.2481
▁падн	-11.2487
ходзячы	-11.249
▁некаторым	-11.2502
▁пазначае	-11.2502
▁націск	-11.2502
▁пацвердзі	-11.2504
▁навін	-11.2506
▁гімназія	-11.2506
▁служа	-11.2507
▁гул	-11.2507
роўні	-11.2507
▁жалезны	-11.251
апар	-11.2512
▁Раб	-11.2515
▁Спроб	-11.2515
▁агламерацы	-11.2515
▁карпус	-11.2515
▁партугальц	-11.2515
▁ўмерана	-11.2515
▁вінаград	-11.2516
▁лінь	-11.2516
▁кандыдатур	-11.2519
▁выбірае	-11.2525
▁граніц	-11.2531
▁выйграл	-11.2531
▁вадзяны	-11.2531
▁лац	-11.2534
▁прасі	-11.2539
▁любоў	-11.254
▁спаборніцтв	-11.254
▁марскім	-11.254
▁эсэ	-11.2542
▁79	-11.2545
▁колерам	-11.2547
▁моўна	-11.255
▁перакла	-11.2551
▁Адзіны	-11.2552
▁ўчастка	-11.2553
▁заснавальнікам	-11.2556
▁аднавіў	-11.256
▁01	-11.2562
▁фармірава	-11.2563
▁востры	-11.2563
▁1,1	-11.2564
▁дыска	-11.2565
▁чар	-11.2566
▁сухо	-11.2566
аўна	-11.2574
▁механічны	-11.2577
▁актыўным	-11.2579
▁цэнтральным	-11.258
арты	-11.258
▁раскол	-11.2583
рафесар	-11.2583
▁готык	-11.2584
▁Стамбул	-11.2584
▁электрастанцы	-11.2584
▁перасяленн	-11.2584
▁няўдач	-11.2585
▁паміра	-11.2586
▁абмеркаванн	-11.2587
▁ўсталявана	-11.2588
▁захопніка	-11.259
▁бронзава	-11.2591
▁разуменне	-11.2597
▁сацыяльн	-11.2598
шкі	-11.2602
▁кампазіцыя	-11.2602
▁Друкава	-11.2604
▁апор	-11.2604
▁хадзі	-11.2606
▁Маркс	-11.2614
▁далучыла	-11.2614
▁Нобелеўск	-11.2616
▁голад	-11.2617
▁адмен	-11.2618
▁Слуцкі	-11.2624
▁пераўтварэння	-11.2624
▁кіравалі	-11.2625
маёр	-11.2627
▁водн	-11.2632
▁фактарам	-11.2632
▁атрымлівал	-11.2635
▁тэма	-11.2635
▁Расійск	-11.2637
▁сустрэча	-11.264
▁Сербія	-11.2642
▁109	-11.2645
няцце	-11.265
▁персанажа	-11.265
ве	-11.2651
▁Тэ	-11.2652
▁скончы	-11.2654
▁падарожніча	-11.2654
▁прадмесц	-11.2654
▁пратакол	-11.2655
▁Культур	-11.2655
▁Адкрыты	-11.2655
▁мемарыяльна	-11.2655
▁дапаможны	-11.2656
▁падвярга	-11.2658
▁аспект	-11.2661
▁турэцкі	-11.2664
▁трав	-11.2665
▁серыя	-11.2669
▁складанасц	-11.2673
▁выканаўча	-11.2674
▁разбурэння	-11.2674
▁Пастаўскі	-11.2678
▁знаём	-11.2679
▁дошка	-11.268
▁звіліста	-11.2681
▁жні	-11.2682
гадов	-11.2682
▁Пятро	-11.2683
▁Сахар	-11.2683
▁палажэнн	-11.2687
▁пакладзен	-11.2687
▁прафсаюза	-11.269
▁арэал	-11.2692
▁перасялі	-11.2693
▁Лукашэнка	-11.2696
▁сан	-11.2696
▁прыбыт	-11.2699
бодва	-11.2702
▁вызначыў	-11.2707
▁До	-11.2708
▁брама	-11.2712
▁першапачатковы	-11.2713
▁вартасц	-11.2714
▁тысячагоддз	-11.2717
▁вяло	-11.272
▁дакладн	-11.2721
эр	-11.2721
▁мангол	-11.2723
▁Аўтаномна	-11.2725
▁вымушана	-11.2725
▁іерархі	-11.2725
▁спев	-11.2726
▁труб	-11.2727
▁параметр	-11.2727
▁экалагічны	-11.2728
▁Гульня	-11.2729
▁спажыванн	-11.2729
▁камандаванн	-11.273
▁вылучаны	-11.2731
▁Найбуйнейшы	-11.2732
▁сонечны	-11.2732
▁будуч	-11.2733
▁выратава	-11.2734
▁утвараю	-11.2735
▁Міндоўг	-11.2735
▁ператвораны	-11.2743
▁праспект	-11.2743
▁1,4	-11.2744
▁выконваю	-11.2749
▁цікаві	-11.2751
вага	-11.2752
▁Дунай	-11.2752
▁збег	-11.2752
ерак	-11.2754
▁Княств	-11.2757
▁c	-11.2768
неслі	-11.277
▁планета	-11.277
▁падтрыманн	-11.2772
▁заваявал	-11.2775
▁Акадэмія	-11.2782
▁220	-11.2783
актычна	-11.2792
аступова	-11.2794
▁камісар	-11.2795
▁Мана	-11.2795
▁Сустрака	-11.2796
▁акупавана	-11.2796
▁арганічна	-11.2796
▁дрэваапрацоўча	-11.2796
▁захоплена	-11.2796
▁выслан	-11.2796
▁прагрэс	-11.2796
▁суверэнітэт	-11.2798
▁акружаны	-11.2801
▁129	-11.2802
▁чорным	-11.2804
▁намаганн	-11.2813
▁Брун	-11.2814
▁вернуты	-11.2815
аб	-11.2816
▁падрыхтава	-11.2817
▁Юзаф	-11.2818
▁абаронча	-11.2823
▁ўрач	-11.2824
▁непасрэдны	-11.2826
▁выдаваў	-11.2831
▁апостал	-11.2833
▁пляцоўк	-11.2833
▁Януш	-11.284
▁задня	-11.2842
▁стрэл	-11.2842
▁сенатара	-11.2846
▁сацыялізм	-11.2847
▁заключэнн	-11.2848
▁паведамленне	-11.2849
▁згуляў	-11.2851
▁сыш	-11.2854
▁Цікава	-11.2854
39	-11.2855
▁кафедральны	-11.2856
▁выхаванне	-11.2859
▁мышц	-11.2859
▁грамата	-11.286
▁Асіпові	-11.2861
▁узро	-11.2861
▁Нігеры	-11.2861
▁Месца	-11.2863
▁багін	-11.2864
▁раскоп	-11.2865
▁змаганн	-11.2866
▁Лівоні	-11.2867
▁Скандынаві	-11.2867
▁рэзалюцы	-11.2867
▁марка	-11.2867
▁Алімпіяд	-11.2868
▁нацысцка	-11.2873
▁ядноўва	-11.2876
▁Косав	-11.2878
▁тэкста	-11.2881
правы	-11.2881
▁Балгарыя	-11.2882
▁хваста	-11.2886
▁Аліс	-11.2887
▁абірае	-11.2889
▁Баранавіцк	-11.2891
▁хава	-11.2892
▁Эдуарда	-11.2893
▁Шэра	-11.2895
▁тая	-11.2898
▁дасягал	-11.2898
▁Сусветн	-11.2901
▁эсэр	-11.2911
▁прынц	-11.2917
▁праліва	-11.2919
▁луг	-11.2922
▁пралівам	-11.2927
▁бедна	-11.2929
▁патрэбна	-11.293
▁Перакла	-11.2931
▁ставілі	-11.2931
▁Пакістана	-11.2932
▁магіла	-11.2936
▁тралейбус	-11.2936
▁мармур	-11.2937
ce	-11.2937
▁летапіса	-11.2938
▁Свідрыгайл	-11.2939
▁акупаваны	-11.2939
▁аўтаматычна	-11.2939
▁электраэнергі	-11.2939
▁Аповесц	-11.2939
▁рамеснік	-11.2941
▁Якава	-11.2941
▁Камісі	-11.2943
▁кафедра	-11.2944
▁задні	-11.2944
▁журналістык	-11.2945
▁перамога	-11.2946
зэ	-11.2948
▁рукав	-11.295
▁Нів	-11.2954
▁баяво	-11.2956
▁Гер	-11.2956
▁паляўнічы	-11.2956
▁мін	-11.2957
▁ўзя	-11.296
▁справядлівасц	-11.2965
▁Літаратур	-11.2965
▁магната	-11.2965
▁флор	-11.2966
▁Лідскі	-11.2968
▁Ман	-11.2968
▁галава	-11.2969
ноў	-11.2975
▁абавязаны	-11.2975
▁праекту	-11.2976
▁архіў	-11.2981
▁архіва	-11.2982
▁губернск	-11.2988
▁вызвалі	-11.2989
▁адкрылі	-11.2995
класці	-11.2996
будавалі	-11.2997
▁доўг	-11.2997
▁выпусці	-11.2998
▁настаўніка	-11.2998
▁до	-11.2999
▁адыш	-11.3002
▁Афганістан	-11.3008
акол	-11.301
▁Характэрна	-11.3012
▁Эквадор	-11.3012
▁неадкладна	-11.3012
▁латын	-11.3012
▁спынена	-11.3012
▁кіслат	-11.3013
▁Еж	-11.3013
▁сямейны	-11.3014
▁канцэпцыя	-11.3014
▁знака	-11.3015
▁пер	-11.3015
▁старым	-11.3018
▁Гітлера	-11.3019
▁палаво	-11.3019
▁ператварыў	-11.302
▁пасяджэння	-11.3021
▁Пагон	-11.3022
▁выпусціл	-11.3026
▁палонны	-11.3027
цю	-11.3028
▁119	-11.3032
▁запрасі	-11.3033
▁камян	-11.3038
▁вадаём	-11.3039
▁спалуча	-11.304
▁малако	-11.3041
▁фінансаванн	-11.3044
▁грашовы	-11.3044
▁даты	-11.305
▁грамадскасц	-11.3053
▁Мазыр	-11.3053
▁Ра	-11.3055
▁Глеба	-11.3059
▁паслядоўна	-11.3061
▁Ве	-11.3063
▁прысуджан	-11.3065
▁адмоўны	-11.3065
▁Фердынанда	-11.3067
▁публічны	-11.3073
▁Кі	-11.3074
▁Гітлер	-11.3077
званы	-11.3081
▁Львов	-11.3082
▁Найвышэйшы	-11.3085
▁адтулін	-11.3085
▁звольн	-11.3085
▁малітв	-11.3085
▁куст	-11.3088
▁мовазнаўств	-11.3088
▁грашова	-11.3089
▁Ды	-11.3089
▁арыгінальн	-11.3091
▁фарб	-11.3098
▁рэлігійн	-11.3104
▁адзнака	-11.3104
▁аркестр	-11.3108
▁панаванне	-11.3109
▁спін	-11.3113
▁майстрам	-11.3113
▁пераможца	-11.3115
▁Рэчыцкі	-11.3115
▁вярхоў	-11.3118
▁таварыств	-11.3119
▁распрацоўка	-11.3124
S	-11.3126
▁заключыў	-11.3131
▁археалагічна	-11.3132
▁канферэнцыя	-11.3144
▁срэбра	-11.3146
▁адраджэнне	-11.3146
▁удзельніка	-11.315
▁прыбыцц	-11.3151
▁устаноўлены	-11.3155
▁прафесі	-11.3156
▁змянілі	-11.3157
▁Зялёны	-11.3158
▁Людвік	-11.3158
▁партугальскі	-11.3158
▁паспеў	-11.3158
▁перспектыв	-11.3158
▁Школ	-11.3158
▁прымыка	-11.3158
▁Язэп	-11.316
▁памешчыка	-11.3161
▁Скота	-11.3161
▁аўтары	-11.3162
▁сплав	-11.3163
▁Кракаў	-11.3167
▁канцлера	-11.3167
▁гасцініц	-11.3169
▁служба	-11.3172
▁прыродна	-11.3172
▁паўстанца	-11.3174
бралі	-11.3174
▁гар	-11.3174
ходжанне	-11.3175
▁пакараны	-11.3176
▁Гала	-11.3178
▁вернік	-11.318
▁арганізацыям	-11.3182
▁сексуальн	-11.3183
▁Слонім	-11.3184
▁карыстае	-11.3185
▁Распаўсюджаны	-11.3185
▁залежа	-11.3186
▁ўладальнік	-11.3191
▁здымк	-11.3192
дзейнасц	-11.3193
АП	-11.3195
▁каго	-11.3196
▁хлопчык	-11.3202
▁мячо	-11.3203
oft	-11.3207
▁рушы	-11.3207
▁педагагічн	-11.3207
эння	-11.321
юсты	-11.3211
▁Заснавальнік	-11.3218
▁Іосіфа	-11.3219
▁казн	-11.3219
▁пастанова	-11.322
▁існуючы	-11.3223
Кашалё	-11.3231
▁Найсвяцейша	-11.3232
▁беспрацоў	-11.3232
▁перагавор	-11.3232
▁персідска	-11.3232
▁спартсмен	-11.3232
▁індывідуальны	-11.3232
▁цяпл	-11.3232
▁Бунд	-11.3232
▁сінагог	-11.3232
▁попыт	-11.3233
▁спектакля	-11.3234
▁Фёдаравіч	-11.3234
▁Пінска	-11.3237
▁процілеглы	-11.3238
▁перамяшча	-11.3238
▁Азія	-11.3241
азвіццё	-11.325
зь	-11.3251
▁ведаю	-11.3251
▁Ала	-11.3253
▁Нарвегія	-11.3253
▁1940-	-11.3259
▁Імператар	-11.3259
абралі	-11.3259
▁муніцыпальны	-11.326
▁сведчанн	-11.326
верхня	-11.3261
▁памылк	-11.3269
▁Від	-11.3269
▁апарата	-11.3274
▁спецыяліст	-11.3275
▁патрабавала	-11.3286
▁схем	-11.329
▁наступн	-11.3291
▁бой	-11.3292
▁дэльт	-11.3301
▁арыгінал	-11.3302
▁футбола	-11.3303
▁адмоўна	-11.3306
▁узор	-11.3307
▁экватар	-11.3307
▁Арыстоцел	-11.3307
▁Камарын	-11.3307
▁грабніц	-11.3307
▁сквер	-11.3307
▁прыведзены	-11.3307
▁тапонім	-11.3307
▁Камітэт	-11.3309
▁Томас	-11.3311
▁канечнасц	-11.3313
▁адчува	-11.3314
▁падтрымлівала	-11.3314
▁вечна	-11.3315
▁парад	-11.3317
▁прадпрымальнік	-11.3321
▁Ля	-11.3322
▁дробна	-11.3322
▁G	-11.3323
▁разумее	-11.3324
▁опера	-11.3326
▁кольц	-11.333
▁долар	-11.333
▁арэнду	-11.3331
рак	-11.3334
▁шчыта	-11.3341
▁наступленне	-11.3341
▁імператарска	-11.3343
▁авары	-11.3343
▁родам	-11.3344
▁узнік	-11.3344
▁Жан	-11.3345
▁Міхас	-11.3354
▁дада	-11.3357
▁сапраўдным	-11.3357
▁хуткі	-11.3359
▁Армія	-11.3359
▁Пу	-11.3361
▁заключан	-11.3362
▁маральна	-11.3364
▁біскупам	-11.3368
▁бронз	-11.3375
▁Стара	-11.3378
▁вырабляю	-11.3378
▁Вывуча	-11.3382
▁абарачэнн	-11.3382
▁нарвежска	-11.3382
▁індыйскі	-11.3382
▁мяшчан	-11.3382
▁паштовы	-11.3382
днё	-11.3382
▁Баварыя	-11.3383
▁перакладае	-11.3384
▁збіраў	-11.3385
▁Брэсцкі	-11.3388
▁ранг	-11.3391
▁плас	-11.3391
▁кіравала	-11.3392
▁радыус	-11.3392
▁псеўданім	-11.3395
▁міліцы	-11.3395
▁заявіл	-11.3396
▁кроп	-11.3396
▁Прыма	-11.3397
▁слоўніка	-11.3399
▁тэкстыльна	-11.34
▁складан	-11.34
▁акупацыйны	-11.3403
растае	-11.3405
▁Сар	-11.3407
▁арганізатара	-11.3408
▁прарока	-11.3409
▁прыродазнаў	-11.3415
▁сёмы	-11.3417
▁дзіц	-11.3419
▁святара	-11.342
▁складнік	-11.3427
▁баяр	-11.3427
ключаны	-11.3429
▁езуіта	-11.3429
▁праяв	-11.343
Рыка	-11.3433
▁Партугалія	-11.3434
▁зняў	-11.3436
▁машына	-11.3447
▁зрок	-11.3448
▁царскі	-11.3449
▁праход	-11.3449
▁найбольшы	-11.345
▁эліт	-11.3453
▁праўленн	-11.3456
▁кінатэатр	-11.3456
▁страчаны	-11.3458
▁уздзеянне	-11.3458
▁Гёт	-11.3458
Ш	-11.3459
▁сусвет	-11.346
наменк	-11.346
▁насіў	-11.3464
▁ператвары	-11.3466
▁друкаваны	-11.347
▁Кам	-11.3471
▁Цэзара	-11.3474
▁сяр	-11.3477
▁перастал	-11.3479
▁Паўстанн	-11.3481
▁сутыкнення	-11.3484
▁мільярда	-11.3485
▁раннім	-11.3492
▁афармленн	-11.3495
▁запаведніка	-11.3496
▁падаўленн	-11.3499
▁спадз	-11.3505
падобна	-11.3512
▁сацыялістычны	-11.3514
P	-11.3519
▁гульнявы	-11.352
▁распаўсюдзіл	-11.3527
▁перыядам	-11.3528
дзясят	-11.353
▁падтрымлівалі	-11.3531
▁БСГ	-11.3534
▁Жыў	-11.3534
▁канцыляры	-11.3534
▁Тэадор	-11.3534
▁офіс	-11.3534
▁патрабую	-11.3534
▁службовы	-11.3535
▁Смерц	-11.3536
▁спецыфічны	-11.3537
▁Лізавета	-11.3538
хваль	-11.3538
▁Мікол	-11.354
▁хваляванн	-11.354
▁канкрэтны	-11.3541
▁кавалеры	-11.3542
▁змяняю	-11.3546
▁гарача	-11.3549
▁Праца	-11.3551
▁дзіка	-11.3553
скае	-11.3553
▁Гор	-11.3554
каталіцка	-11.3554
▁шпіталь	-11.3556
часце	-11.3556
▁налічва	-11.3562
▁мяня	-11.3566
▁101	-11.357
▁каралеўскім	-11.3575
▁муніцыпалітэт	-11.3581
▁50-	-11.3581
▁мяккі	-11.3581
▁кардынала	-11.3582
▁дым	-11.3582
▁амерыканц	-11.3583
▁натуральным	-11.3583
▁незвычайна	-11.3585
▁зубр	-11.3587
▁тычы	-11.359
▁размеркаванн	-11.359
▁плацін	-11.359
▁майстро	-11.3592
▁ўключа	-11.3593
▁бачыл	-11.3603
▁лічынк	-11.3604
▁шэрагам	-11.3609
▁Падобны	-11.3611
▁дыктатур	-11.3611
▁змешчана	-11.3611
▁прэтэнзі	-11.3611
▁экспансі	-11.3611
▁аматара	-11.3611
▁Майсе	-11.3611
▁мёртвы	-11.3612
▁святкаванн	-11.3612
Е	-11.3612
▁няс	-11.3612
▁акцёра	-11.3613
▁Мядзведзіц	-11.3613
▁прыбярэжна	-11.3613
▁здрад	-11.3614
▁Ваза	-11.3614
▁транспартна	-11.3615
▁выбарча	-11.362
▁адклада	-11.3621
▁штогадовы	-11.3621
▁тунэл	-11.3622
▁супрацьстаянн	-11.3622
▁Харваты	-11.3622
▁сувязя	-11.3628
▁паказана	-11.3628
▁Фінляндыя	-11.3631
▁выканаўч	-11.3634
авая	-11.3636
▁Лепшы	-11.3636
▁Альгерда	-11.3636
▁кардынал	-11.364
▁архів	-11.3644
▁прыцягну	-11.3646
сан	-11.3647
▁Рамана	-11.3651
▁кандыдатам	-11.3658
▁перам	-11.3659
▁Кара	-11.3666
▁цягніко	-11.367
▁глыбокім	-11.367
▁ужывае	-11.3674
▁прылада	-11.3675
▁вораг	-11.3678
▁Поўнач	-11.3679
▁эфектыўна	-11.368
▁Агінскі	-11.3686
▁Гагарын	-11.3689
▁Саудаўска	-11.3689
▁астранамічны	-11.3689
▁выяўленча	-11.3689
▁радыёстанцы	-11.3689
▁самагубства	-11.3689
▁спрабуе	-11.3689
▁эвакуацы	-11.3689
▁англійскім	-11.369
▁падрыхтаваны	-11.3692
▁пачуццё	-11.3693
▁Сход	-11.3694
▁прыбор	-11.3694
▁тонка	-11.3695
сен	-11.3695
▁Жэнев	-11.3696
фашысцкі	-11.3697
▁Суд	-11.3699
▁разглядаю	-11.3699
▁ураўнення	-11.3709
▁гаворка	-11.371
▁пале	-11.371
яўляе	-11.3712
▁сотня	-11.3712
▁этнаграфічны	-11.3713
▁надрукава	-11.3715
▁дзяржавам	-11.3716
▁даждж	-11.3716
▁станоўчы	-11.3719
▁медз	-11.372
▁разбіў	-11.3722
▁варожы	-11.3726
даўна	-11.3726
▁мод	-11.3727
▁Выдава	-11.3728
▁забі	-11.3729
▁выступлення	-11.373
▁ацэньвае	-11.3734
▁веда	-11.3734
▁матэматы	-11.3741
▁адкрывае	-11.3745
▁Венгрыя	-11.3758
▁галасаванне	-11.3759
▁Лідск	-11.376
▁зім	-11.3762
▁360	-11.3763
▁240	-11.3764
розна	-11.3764
▁ву	-11.3765
▁адукацыйны	-11.3767
▁незадаволенасц	-11.3767
▁скончана	-11.3767
▁харугв	-11.3767
▁багаслоў	-11.3767
▁кліматычны	-11.3767
▁пчол	-11.3767
▁састав	-11.3767
▁Людзі	-11.3767
▁Луўр	-11.3767
▁дзвяр	-11.3767
▁Беластоцка	-11.3771
▁практыка	-11.3771
▁дыскусі	-11.3773
▁скасаванн	-11.3773
сіп	-11.3774
▁аналагічны	-11.3776
▁ўлічва	-11.3776
▁выявіла	-11.3777
▁езуіцкі	-11.3778
▁базу	-11.3781
▁ўзбраенн	-11.3781
▁краязнаўчы	-11.3782
▁ўтварылі	-11.3783
▁перай	-11.3784
▁выглядае	-11.3786
▁індэкс	-11.379
▁геро	-11.3791
лівы	-11.3792
▁атак	-11.3795
▁ключавы	-11.3796
▁праваслаўным	-11.3797
▁транспарта	-11.3801
▁Барыса	-11.3803
▁скарачэнне	-11.3807
валас	-11.3808
▁Троцк	-11.3809
▁Крыж	-11.3811
▁Шарл	-11.3813
▁надпісам	-11.3818
▁прыносі	-11.3818
▁ўзвядзенн	-11.3821
▁спрэч	-11.3822
▁рэканструкцыя	-11.3822
▁стэп	-11.3823
▁даходзі	-11.3824
▁′	-11.3825
▁Рыжск	-11.3826
▁Коўн	-11.3828
▁снеж	-11.383
▁полацк	-11.383
▁полюс	-11.3831
▁палата	-11.3834
▁спалучэнн	-11.3835
▁веравызнання	-11.384
▁пастаноўк	-11.3841
▁Плутон	-11.3845
▁вымусіл	-11.3845
▁пілястр	-11.3845
▁кіслот	-11.3845
▁суседня	-11.3845
▁прыхільнасц	-11.3846
▁гадавы	-11.3846
▁фель	-11.3846
▁вертыкальна	-11.3846
▁Вавілон	-11.3846
▁паяс	-11.3846
▁Дзеянн	-11.3846
▁двухпавярховы	-11.3847
эдзі	-11.3849
ены	-11.3853
▁епіскап	-11.3853
▁саслоўя	-11.3858
▁ігр	-11.3859
▁каханне	-11.3859
▁Выда	-11.386
▁Леон	-11.3861
▁Арганізацыя	-11.3863
▁суддзя	-11.3863
▁стальц	-11.3866
▁карыстаю	-11.3867
▁трапля	-11.3868
▁гуманітарны	-11.3869
мен	-11.387
▁пераслед	-11.3871
▁напада	-11.3873
▁Гава	-11.3873
▁паведамлення	-11.3876
▁дыпламатычн	-11.3879
▁ўпада	-11.3879
di	-11.388
▁рэспублі	-11.3881
▁страта	-11.3881
▁еўрапейц	-11.3882
валіся	-11.3882
▁нізкім	-11.3882
йшло	-11.3884
▁носьбіта	-11.3884
нкі	-11.3884
▁паваг	-11.3886
▁Хуан	-11.3886
▁ядзерны	-11.3886
▁цагляны	-11.3892
▁падручнік	-11.3892
▁121	-11.3894
▁абарона	-11.3896
▁Габсбург	-11.3898
▁перашкаджа	-11.3899
▁штатам	-11.3899
▁здольна	-11.3904
▁Веж	-11.3906
етра	-11.391
▁Нов	-11.392
▁пустыня	-11.3922
▁праціўнікам	-11.3924
▁Актыўна	-11.3925
▁посуд	-11.3925
▁Вось	-11.3925
▁Высока	-11.3926
▁настаўніцкі	-11.3926
▁Слаўгарадскі	-11.3928
▁прасоўванн	-11.3928
▁вырабля	-11.393
▁закрыта	-11.393
▁атрыманне	-11.3931
▁Вінч	-11.3932
▁вузе	-11.3934
▁дыплом	-11.3943
▁падводна	-11.3944
▁Багародзіц	-11.3945
▁палкоўнік	-11.3946
▁жыхарам	-11.3948
▁нечакана	-11.3951
▁італьянск	-11.3953
▁масіў	-11.3953
▁філасофія	-11.3954
▁воінаў	-11.3956
▁сек	-11.3957
водзіла	-11.3957
▁паветр	-11.3963
▁практыку	-11.3964
▁мысленн	-11.3967
▁Знак	-11.3968
▁ведае	-11.3969
▁валоданн	-11.3973
▁зіму	-11.3973
▁алімпійскі	-11.3975
▁султана	-11.3975
▁электронны	-11.3975
▁вышэйшым	-11.398
алоўнакамандуючы	-11.398
яўляў	-11.3982
▁наведвальніка	-11.3983
▁выкарыста	-11.3985
▁намаганням	-11.3985
▁Со	-11.3989
▁знішчэнне	-11.399
▁імавернасц	-11.3991
▁праіснавал	-11.3992
▁нядаўна	-11.3993
▁царска	-11.3994
▁Казахстана	-11.3994
▁металургі	-11.3995
▁ютар	-11.3996
▁збірае	-11.3998
араны	-11.3999
▁пытанням	-11.4004
▁0,0	-11.4005
▁Глыбін	-11.4005
▁Лейпцыг	-11.4005
▁Фарадэ	-11.4005
▁аграрна	-11.4005
▁карэнна	-11.4005
сляды	-11.4005
▁Фонд	-11.4006
▁мадэрнізацы	-11.4006
▁Каір	-11.4006
▁трамвайны	-11.4007
▁плаванн	-11.4011
▁палкоўніка	-11.4011
▁сфарміравала	-11.4011
пры	-11.4011
▁батальён	-11.4013
▁Верш	-11.4015
▁імператрыц	-11.4016
▁60-	-11.4016
▁Навагрудскі	-11.4019
▁рэформа	-11.4021
▁кадра	-11.4033
▁праграмаванн	-11.4038
▁пачатков	-11.4039
▁касмічна	-11.4041
▁астатнім	-11.4045
▁выяві	-11.4045
▁Далёкі	-11.4046
▁Кор	-11.4047
▁паслядоўнік	-11.4053
▁метры	-11.4053
▁здзейсніл	-11.4053
▁парламенц	-11.4054
палітычна	-11.4055
ван	-11.4055
▁пазнаёмі	-11.4059
▁перадава	-11.4061
чак	-11.4066
▁біржа	-11.4066
▁рынка	-11.4066
чэр	-11.4067
▁практычны	-11.4068
▁рэлігійным	-11.4071
▁падпарадкаваны	-11.4072
▁роспіс	-11.4073
▁кіеўск	-11.4074
▁маральны	-11.4081
▁сойма	-11.4082
▁італьянскім	-11.4085
▁гаворк	-11.4085
▁Паскевіч	-11.4085
▁канкурэнцы	-11.4085
▁растлумачы	-11.4085
▁утворана	-11.4085
▁рамантызм	-11.4085
▁тэарэм	-11.4085
▁Мараві	-11.4086
▁каранацы	-11.4089
▁Маладо	-11.4092
▁Інтэрнэт	-11.4093
▁смак	-11.4093
▁Паўл	-11.4093
▁заваяванн	-11.4094
адзення	-11.4094
▁лісця	-11.4095
▁медыцынск	-11.4098
▁ўрадам	-11.4106
▁аўтаномны	-11.4106
▁Радзім	-11.4107
▁вільготнасц	-11.4111
▁він	-11.4113
▁садзейніча	-11.4114
▁Вена	-11.4115
r	-11.4115
▁доўжыл	-11.4117
▁звыча	-11.412
▁паўплыва	-11.412
▁Гедзіміна	-11.4121
▁Тон	-11.4123
▁знікненн	-11.4124
▁хрыб	-11.4126
▁павольна	-11.4128
наў	-11.4133
▁Но	-11.4133
▁Сіл	-11.4134
▁набывае	-11.4137
МС	-11.4141
▁пераемнікам	-11.4147
▁адклад	-11.4152
▁смяротна	-11.4154
▁Георга	-11.4154
▁пакідае	-11.4155
▁маладосц	-11.4156
▁ян	-11.4158
▁Афіна	-11.4159
▁ратуша	-11.4161
обласц	-11.4165
▁стратэгі	-11.4166
▁Альфонс	-11.4167
▁светапогляд	-11.4167
▁юрысдыкцы	-11.4167
▁егіпецка	-11.4167
▁Вісл	-11.4167
акушэрс	-11.4167
▁рэпертуар	-11.4167
▁камунікацы	-11.4167
▁індаеўрапейск	-11.4167
▁спрыяльны	-11.4167
▁знішчыў	-11.4168
▁залоз	-11.4171
▁ясна	-11.4171
▁люб	-11.4173
▁індзейца	-11.4174
▁патрапіл	-11.4176
▁ісцін	-11.4176
▁Нацыянальн	-11.4178
▁Сэр	-11.4178
▁фаўн	-11.4178
▁стар	-11.4178
▁адзначаў	-11.4179
▁бухт	-11.4181
▁Парламент	-11.4182
▁металічны	-11.4183
▁Брат	-11.4184
▁ніжэйшы	-11.4184
▁загадз	-11.4185
▁праціўнік	-11.4187
▁дыск	-11.4187
▁жон	-11.4192
▁уласн	-11.4194
▁жыццёвы	-11.4194
▁Залат	-11.4194
славянск	-11.4195
▁праблемам	-11.4195
▁Расц	-11.4199
▁прада	-11.42
▁паказа	-11.4204
▁электронна	-11.421
▁вырашы	-11.4214
во	-11.4217
▁гулял	-11.4219
▁апорны	-11.4221
09	-11.4224
насці	-11.4224
▁капітан	-11.4227
▁уладальнікам	-11.4228
▁міф	-11.4228
кс	-11.4228
▁кручэнн	-11.4238
▁сайт	-11.4238
▁глеба	-11.4242
▁крыл	-11.4243
▁слабы	-11.4248
▁тонкі	-11.4248
▁заканчвае	-11.4249
▁ўзмацненн	-11.4249
▁цукровы	-11.4249
▁этнас	-11.4249
▁Інша	-11.4249
▁ектыўна	-11.425
▁прагляд	-11.425
▁унук	-11.4252
▁Ватыкан	-11.4252
▁Рэспубліканска	-11.4258
▁ліквідавана	-11.4258
▁успаміна	-11.426
▁Амерыка	-11.4264
▁добрым	-11.4266
▁дзядзьк	-11.4267
▁Бор	-11.4269
▁заможны	-11.4273
▁вялікалітоўск	-11.4275
▁ўніз	-11.4276
▁Санта	-11.4278
▁лацінскі	-11.4279
▁працягну	-11.4281
▁Навагрудк	-11.4282
▁атам	-11.4282
▁нашчадкам	-11.4283
▁вызначаюц	-11.4286
есці	-11.4293
▁фунта	-11.4297
▁сутыкну	-11.4298
▁арэала	-11.4303
▁гербам	-11.4308
цэ	-11.4314
▁Ноўгарада	-11.4316
▁Судана	-11.4317
▁Бон	-11.4318
▁Дон	-11.4319
▁ужыва	-11.4321
▁дакладнасц	-11.4324
▁Слабад	-11.4324
▁15-	-11.4325
▁парушэння	-11.4325
▁сербскі	-11.4327
▁кантынентальн	-11.4329
▁Тайланд	-11.4331
▁Бенедыкт	-11.4331
▁Караткевіч	-11.4331
▁Рафаэл	-11.4331
▁максімум	-11.4331
▁пенсі	-11.4331
чка	-11.4331
▁тыраж	-11.4332
▁Лорэнц	-11.4332
▁выбарчы	-11.4332
▁шэры	-11.4332
▁Тарас	-11.4334
▁Малер	-11.4334
▁калярова	-11.4334
▁ног	-11.4336
▁родным	-11.4337
▁фальвар	-11.4341
▁наведвання	-11.4343
▁візантыйска	-11.4345
▁прыватным	-11.4346
▁ворагам	-11.4347
▁апісваю	-11.4348
▁Дэл	-11.4349
▁незалежн	-11.4353
▁саюзнікам	-11.4355
▁легенда	-11.4355
дня	-11.4357
▁армянска	-11.436
▁104	-11.4361
▁дзяр	-11.4362
▁пераста	-11.4362
▁студэнтам	-11.4365
▁алфавіта	-11.4367
▁Статута	-11.4369
▁кабінет	-11.4372
▁2,2	-11.4375
▁узніка	-11.4376
▁дваранскі	-11.4377
▁далучаец	-11.438
▁гульц	-11.438
▁перажы	-11.4384
▁паплечнік	-11.4386
▁Сената	-11.439
▁адчувае	-11.4392
▁рымск	-11.4398
▁Адрозніваюц	-11.4403
▁Фран	-11.4403
▁перанесен	-11.4404
▁рэгіянальна	-11.4408
▁пашыры	-11.441
▁дыялекты	-11.4411
▁кашталян	-11.4413
▁афарбоўка	-11.4414
▁Елізавет	-11.4415
▁Ракасоўск	-11.4415
▁кулямёт	-11.4415
▁хлебазапасн	-11.4415
▁галаўны	-11.4415
▁Колер	-11.4415
▁маскоўскім	-11.4415
▁ставяц	-11.4415
▁Багушэвіч	-11.4416
▁мужам	-11.4417
▁адваротны	-11.4417
▁правільна	-11.4418
тава	-11.4421
▁ацані	-11.4421
▁Пакістан	-11.4423
▁Даследаванн	-11.4423
▁асобн	-11.443
▁парушэнне	-11.4433
▁перс	-11.4434
▁абло	-11.4436
▁манархія	-11.4441
▁лацінк	-11.4442
▁дзеда	-11.4445
▁мусульмане	-11.4446
▁ставіла	-11.4448
▁сет	-11.4449
▁здзяйсня	-11.445
▁узора	-11.4451
▁гвардзейска	-11.4453
▁злучы	-11.4456
▁ўмоў	-11.4459
▁пакаранне	-11.446
▁скарыста	-11.4467
▁ахвярам	-11.4468
▁зале	-11.4471
▁народным	-11.4472
▁сельскага	-11.4472
▁Кот	-11.4473
▁Жыткавіцкі	-11.4473
▁жылл	-11.4474
▁108	-11.4475
▁San	-11.4476
▁пакут	-11.4481
▁адступленн	-11.4482
ападобна	-11.4488
▁курорт	-11.4499
▁0,9	-11.4499
▁Борхгрэвінк	-11.4499
▁дэкларацы	-11.4499
▁самасвядомасц	-11.4499
▁вітамін	-11.4499
▁шляхецкі	-11.4499
▁Шылер	-11.4499
▁дэвіз	-11.4499
ros	-11.4499
▁Выбар	-11.4499
▁прысяг	-11.45
▁ўзнік	-11.45
▁інвестыцы	-11.4501
▁імперск	-11.4501
▁прысутнічал	-11.4505
▁палярна	-11.4506
▁парламенцка	-11.4506
▁прытокам	-11.4509
▁ген	-11.451
▁праве	-11.4511
▁служачы	-11.4513
▁малак	-11.4514
прымала	-11.4514
▁Вол	-11.4515
▁выконвала	-11.4518
▁успамін	-11.452
▁скопішча	-11.452
in	-11.4524
▁скончылі	-11.4532
чар	-11.4533
▁вугл	-11.4535
▁ўцёк	-11.4537
▁старон	-11.454
▁выраблялі	-11.4541
▁тэарэтычны	-11.4541
▁прыбыл	-11.4542
▁выдавец	-11.4544
іжэй	-11.4548
яўляючы	-11.4549
▁прыкметны	-11.4551
▁традыцыйным	-11.4554
даючы	-11.4555
▁дробным	-11.4558
▁праваслаўн	-11.4558
▁утрымлівае	-11.4559
▁Індыйск	-11.456
▁выяўленн	-11.4561
▁змянення	-11.4563
▁мыса	-11.4569
▁прытул	-11.4573
▁зыход	-11.4574
▁літаратуразна	-11.4576
▁арка	-11.458
▁Зборн	-11.4581
▁вершам	-11.4581
▁Гэтым	-11.4582
▁размер	-11.4582
▁гарызантальны	-11.4582
▁палк	-11.4583
Айрэс	-11.4583
▁Кастрычнік	-11.4583
▁бежанца	-11.4583
▁паседжанн	-11.4583
▁сённяшня	-11.4583
▁энергетык	-11.4583
▁Нямецка	-11.4583
▁згадваюц	-11.4583
▁працаўнік	-11.4584
▁лекавы	-11.4584
▁даросл	-11.4587
▁Газет	-11.4587
▁заселены	-11.4587
твораны	-11.4594
▁здабыва	-11.4597
ўно	-11.4597
▁распаўсюджвае	-11.4602
▁пярэдні	-11.4602
▁навукоўцам	-11.4603
уэна	-11.4605
▁Пала	-11.4605
▁Бібліятэк	-11.4606
▁утварэнне	-11.4606
▁11-	-11.4609
▁чытання	-11.461
▁жаданн	-11.461
▁Бю	-11.4611
валі	-11.4614
Паўл	-11.4616
▁Аснова	-11.4619
▁садзейнічал	-11.4625
▁захварэ	-11.4634
даследчы	-11.4641
▁Гуля	-11.4643
▁яднаў	-11.4645
▁Рычард	-11.4648
▁хапа	-11.4649
ніка	-11.4653
атэ	-11.4656
▁батанічны	-11.4662
ткі	-11.4666
▁Жуан	-11.4669
▁Месапатамі	-11.4669
▁выяўленчы	-11.4669
▁зацверджана	-11.4669
▁Нарманды	-11.4669
▁Будучы	-11.4669
▁Княз	-11.4669
▁Навуковы	-11.4669
▁Працэс	-11.4669
▁культавы	-11.4669
▁селянін	-11.4669
▁дэп	-11.467
▁Праўд	-11.4672
▁насялял	-11.4674
▁вырошчваю	-11.4674
▁выпадкова	-11.4681
▁пазначаны	-11.4681
▁гатунк	-11.4682
▁зван	-11.4683
▁франк	-11.4683
▁Карэлі	-11.4684
▁геаметрычны	-11.4686
▁абазначае	-11.4686
▁дэлегат	-11.4691
▁выстаў	-11.4696
▁страх	-11.4697
▁Мексі	-11.4697
▁парода	-11.4699
▁блока	-11.47
▁Тураў	-11.4702
▁Іншым	-11.4703
▁91	-11.4706
▁L	-11.4706
▁Буг	-11.4707
▁каланіяльны	-11.4707
▁вымярэнн	-11.4708
смяротна	-11.4708
▁міфа	-11.471
▁памыл	-11.4712
▁ісламска	-11.4712
▁зме	-11.4713
▁афармленне	-11.4713
▁паставіл	-11.4717
▁адукацыя	-11.4719
▁Памяц	-11.4719
▁шкл	-11.4724
▁арганізавал	-11.4725
▁пераходны	-11.4729
▁Пан	-11.4732
▁прынцыпа	-11.4732
▁гадзіннік	-11.4733
▁разглядаў	-11.4735
▁ўласным	-11.4736
▁абяца	-11.4744
▁індзейц	-11.4748
▁Берлінска	-11.4751
▁Люблін	-11.4751
▁калектыў	-11.4752
▁Асеці	-11.4755
▁Вальтэр	-11.4755
▁Вінцэнт	-11.4755
▁Прыднястроў	-11.4755
▁Сілезі	-11.4755
▁Сінгапур	-11.4755
▁вярчэнн	-11.4755
▁дыяспар	-11.4755
▁лінейны	-11.4755
▁намалявана	-11.4755
▁вулканічны	-11.4755
▁сацыялістаў	-11.4755
▁характарызуюц	-11.4755
▁юнацтв	-11.4755
▁La	-11.4755
▁Балтыйскі	-11.4755
▁срэбны	-11.4756
▁том	-11.4756
▁сцэнарыст	-11.4758
▁хана	-11.476
▁подпіс	-11.476
▁тлумачэнне	-11.4761
h	-11.4763
▁імператарскі	-11.4764
▁збіралі	-11.4766
an	-11.4769
▁ўнёс	-11.4769
мэ	-11.4772
▁туры	-11.4773
▁паўабаронц	-11.4773
кага	-11.4777
▁суседнім	-11.4778
▁Кан	-11.4779
▁гіпотэза	-11.478
ki	-11.4785
▁скульптурны	-11.4785
▁стварэннем	-11.4785
▁некал	-11.4786
▁носьбіт	-11.4787
ама	-11.4787
▁перайменавана	-11.4789
▁кол	-11.4792
▁Ніла	-11.4793
▁Франц	-11.4793
▁сцвярджэнн	-11.4794
▁пасяленн	-11.4795
▁акадэміка	-11.4797
рду	-11.4798
▁выяв	-11.4801
▁любым	-11.4806
▁паказва	-11.4815
ростам	-11.4816
▁Міжземна	-11.4816
▁Ніл	-11.4816
▁земскі	-11.4819
▁Юлі	-11.482
▁Кастылі	-11.4823
▁вузло	-11.4825
▁раслінны	-11.4826
▁кваліфікацы	-11.4826
▁патрабаванне	-11.4831
дро	-11.4833
▁інжынера	-11.4833
▁Бельгія	-11.4834
▁Часов	-11.484
▁фарміруе	-11.4842
▁Банапарт	-11.4842
▁Выклада	-11.4842
▁Віленшчын	-11.4842
▁Гістарычны	-11.4842
▁Манчэстэр	-11.4842
▁Нямецкі	-11.4842
▁вытворчы	-11.4842
▁нябесна	-11.4842
▁рэкамендацы	-11.4842
▁экзэмпляр	-11.4842
▁нізоў	-11.4842
▁падоўжаны	-11.4842
▁паўсюдна	-11.4842
▁пераязджае	-11.4842
▁мітынг	-11.4842
▁праходжанн	-11.4842
▁Пскоўска	-11.4843
▁злучана	-11.4844
▁кашталяна	-11.4844
▁удар	-11.4846
індзі	-11.4848
стра	-11.4848
адэш	-11.4849
▁гарызонт	-11.485
▁водгук	-11.4851
▁паведамля	-11.4855
вяроў	-11.486
Венгры	-11.486
▁Унутр	-11.4861
▁адхілен	-11.4863
▁Сенненскі	-11.4868
цця	-11.4871
▁зямельн	-11.4873
▁староста	-11.4874
▁гетман	-11.4875
▁запіса	-11.4875
▁Юна	-11.4876
джы	-11.4877
▁складанн	-11.4877
▁хроніка	-11.4878
▁Лукашэнк	-11.4878
▁Узро	-11.4878
▁дэталя	-11.4882
▁выпускае	-11.4883
▁Эфіопі	-11.4884
▁арнамент	-11.4884
▁мясцін	-11.4884
▁каранава	-11.4886
▁750	-11.4888
▁дыялекта	-11.4889
▁Гара	-11.489
▁нараджэнн	-11.4894
вызваленча	-11.4897
▁хата	-11.4902
▁Цэнтра	-11.491
▁вядуча	-11.4913
▁ваг	-11.4914
▁сацыялістычн	-11.4915
▁Казан	-11.4915
▁80-	-11.4918
▁напрам	-11.4918
▁літаратурным	-11.4919
▁насенне	-11.492
▁прысуд	-11.4923
▁Вясно	-11.4925
▁спадчына	-11.4927
аспяхова	-11.4928
bo	-11.4928
заходнееўрапейск	-11.493
▁Панятоўск	-11.493
▁Толкін	-11.493
▁Цвярск	-11.493
▁пратэстанцкі	-11.493
▁Сахалін	-11.493
▁аплат	-11.493
▁ілюстрацы	-11.493
▁шматгадовы	-11.4931
▁Акіян	-11.4931
▁Клуб	-11.4931
▁цыган	-11.4932
▁магістрал	-11.4934
▁электрычнасц	-11.4936
▁Ча	-11.4938
▁Тако	-11.4938
▁выдатным	-11.4941
▁аптэк	-11.4941
▁адзенне	-11.4945
▁патрыярха	-11.4945
нт	-11.4947
▁работа	-11.4948
▁Алі	-11.4948
▁Каран	-11.4949
▁Бабруйскі	-11.4955
▁Ард	-11.4956
▁супраціўленн	-11.4956
▁унутр	-11.4959
▁фігура	-11.496
▁грады	-11.4962
овак	-11.4965
▁Слонімска	-11.4967
▁геалогі	-11.4968
▁гле	-11.4974
▁вугла	-11.4974
▁камуністычны	-11.4974
▁Купала	-11.4975
ярнуўшыс	-11.4975
▁Віктара	-11.498
▁ўтрымліва	-11.4985
▁РП	-11.4986
вялі	-11.4986
▁ўварва	-11.4991
▁замяніў	-11.4991
▁Юзафа	-11.4991
▁пераправ	-11.4992
чыні	-11.4994
▁Ірака	-11.5005
▁Кук	-11.5008
▁фальварк	-11.5008
▁імкне	-11.5015
▁май	-11.5016
▁Мін	-11.5016
▁Гродзеншчын	-11.5018
▁Завод	-11.5018
▁Капенгаген	-11.5018
▁Пераважа	-11.5018
▁Чарнагоры	-11.5018
▁гектара	-11.5018
▁камерцыйна	-11.5018
▁спынены	-11.5018
▁суцэльна	-11.5018
▁Дамаск	-11.5018
▁блізкім	-11.5019
▁малочны	-11.5019
▁Берасцейска	-11.5019
▁механічна	-11.5021
▁прымяненн	-11.5021
▁Кітайска	-11.5023
▁Камен	-11.5023
▁студэнцка	-11.5024
▁вывезен	-11.5024
▁ключ	-11.5025
▁перавага	-11.5025
▁надрукавана	-11.5025
▁тэрміналогі	-11.5031
▁супол	-11.5031
▁ахоўны	-11.5034
ord	-11.5035
▁стужка	-11.5035
▁Луцкевіч	-11.5036
▁аддзеле	-11.5037
#	-11.5037
▁Неапал	-11.5038
▁ўяўляла	-11.5041
Т	-11.5041
▁РК	-11.5042
▁матыва	-11.5045
▁пакоя	-11.5047
▁адпавядал	-11.5052
▁гутарк	-11.5053
ычк	-11.5055
▁дзейн	-11.5059
▁электрона	-11.5063
▁Гвіне	-11.5066
▁грамадзяніна	-11.5066
▁публік	-11.507
▁вучыл	-11.5072
▁Скірмунт	-11.5081
▁фінанса	-11.5082
▁каштоўн	-11.5083
ўсходні	-11.5084
▁Цэзар	-11.5089
жаны	-11.5089
▁Значны	-11.509
▁вярхоўн	-11.509
▁маё	-11.5092
▁падзела	-11.5094
▁пагража	-11.5099
чай	-11.5104
▁Бобр	-11.5105
шаны	-11.5105
▁Дакладна	-11.5108
▁Мадагаскар	-11.5108
▁Рузвельт	-11.5108
▁Хельсінк	-11.5108
▁біялагічна	-11.5108
▁ваеннапалонны	-11.5108
▁скарочана	-11.5108
▁інтэрпрэтацы	-11.5108
▁Галактык	-11.5108
▁аграгарадк	-11.5109
▁нацыяналізм	-11.5109
▁племе	-11.5109
▁мужнасц	-11.511
▁акадэмічна	-11.511
▁Афганістана	-11.5112
▁праектам	-11.5113
▁прызёр	-11.5114
▁ўво	-11.5114
▁вагання	-11.5116
▁мадэляў	-11.5118
▁Джэймса	-11.512
▁дазволен	-11.5124
▁трас	-11.5125
▁археолагам	-11.5132
▁тэлефон	-11.5143
▁сфарміраваны	-11.5146
▁Гвінея	-11.515
▁жані	-11.5151
▁Акадэмік	-11.5152
▁Альберт	-11.5153
▁спален	-11.5153
▁валюта	-11.5154
▁Берн	-11.5154
▁сцвярджаю	-11.5155
▁сора	-11.5157
▁Франца	-11.5157
▁дамова	-11.5157
раўне	-11.5158
▁мадыфікацы	-11.5158
▁Мн	-11.516
▁жадал	-11.5162
▁нарад	-11.5163
▁надаў	-11.5168
▁рухае	-11.5168
▁выразны	-11.517
▁скульптара	-11.5177
▁Анатол	-11.5178
▁патрабавал	-11.5179
▁музычным	-11.5179
▁пару	-11.5181
▁камандуюч	-11.5184
▁тэхніка	-11.5184
чча	-11.5185
заходнім	-11.5186
▁збожжа	-11.5187
▁грамадск	-11.519
сеўданім	-11.5196
▁уваход	-11.5196
▁Між	-11.5197
▁Лявон	-11.5198
▁акружнасц	-11.5198
▁Руанд	-11.5198
▁паэтэс	-11.5198
▁Гес	-11.5198
▁крайня	-11.5198
▁Размяшча	-11.5199
▁Ігнат	-11.5199
▁ліквідаваны	-11.5199
▁тактык	-11.52
▁Гэту	-11.5201
▁субот	-11.5203
▁прадстаўлял	-11.5208
▁Бельск	-11.5212
▁Карлам	-11.5212
▁асобам	-11.5214
▁абалонк	-11.5215
▁Кры	-11.5215
▁ўрочышч	-11.5216
▁схава	-11.5216
ge	-11.5224
▁асабістым	-11.5225
▁паравы	-11.5227
▁Клецк	-11.5232
рэта	-11.5233
▁апсід	-11.5234
▁мусіл	-11.5243
▁займаем	-11.5244
▁швейцарскі	-11.5244
▁езуіт	-11.5251
▁Трой	-11.5252
▁карона	-11.5257
▁пашкоджаны	-11.526
▁конкурса	-11.526
▁уплывовы	-11.5262
▁Рашэнне	-11.5267
▁праём	-11.527
▁сената	-11.5271
▁n	-11.5271
▁матэрыяльн	-11.5272
▁графічны	-11.5273
▁Тар	-11.5275
▁знішчы	-11.5277
▁папярэдніка	-11.5278
▁Даследава	-11.5279
АК	-11.5282
▁Алег	-11.5287
яўлены	-11.5288
золісты	-11.5289
▁Мастацтва	-11.5289
▁Узбекістан	-11.5289
▁дружын	-11.5289
▁дыялог	-11.5289
▁імпульс	-11.5289
▁вывучы	-11.5289
▁фізіялогі	-11.5289
▁Медал	-11.5289
▁Якуці	-11.5289
▁агародж	-11.529
▁Акт	-11.529
▁Каўнас	-11.5293
▁ўказа	-11.5294
▁мусульманскі	-11.5296
апісаў	-11.5298
▁ранейша	-11.5298
▁пашырыла	-11.5299
▁скур	-11.5302
овы	-11.5305
селены	-11.5305
лігі	-11.5309
▁віно	-11.5312
▁тыл	-11.5313
▁узрост	-11.5314
▁правадыро	-11.5315
▁ачко	-11.5315
▁90-	-11.5319
▁Мазырскі	-11.5322
▁даменн	-11.5322
▁парны	-11.5329
▁праніка	-11.533
▁прыступ	-11.5332
▁230	-11.5333
▁Георг	-11.5334
▁трапе	-11.5336
▁звязвае	-11.5336
▁Корм	-11.5341
▁Асаблівасц	-11.5341
▁Дво	-11.5343
вання	-11.5348
▁карыстанн	-11.5354
▁дажджо	-11.5366
▁адчуванн	-11.5367
ожна	-11.5368
▁звяртае	-11.537
▁утварыў	-11.5371
ДІ	-11.5372
▁Рэк	-11.5376
▁гавары	-11.5378
▁спадзява	-11.5379
▁належы	-11.538
▁азот	-11.538
▁Пераважна	-11.538
▁Фронт	-11.538
▁фундаментальны	-11.538
▁партрэта	-11.5381
▁стратэгічна	-11.5381
▁збіраю	-11.5382
▁былым	-11.5383
▁Будн	-11.5384
эл	-11.5385
▁се	-11.5387
▁шкал	-11.5387
▁азначэння	-11.539
▁Тро	-11.5392
▁кругла	-11.5394
▁наданн	-11.5394
▁Выяв	-11.5398
▁Ватыкана	-11.5401
▁гуляе	-11.5402
▁Валынска	-11.5403
▁ападк	-11.5404
▁маст	-11.5404
▁добр	-11.5409
▁перавоз	-11.541
▁падзеям	-11.541
▁абставін	-11.541
▁сямейна	-11.5419
▁давер	-11.5419
▁сучаснік	-11.542
▁вал	-11.542
▁ДП	-11.5421
▁даручэнн	-11.543
беларуску	-11.5433
▁забойств	-11.5435
▁авалода	-11.5435
▁260	-11.5439
▁Магілёўск	-11.544
ндзі	-11.5442
▁супольна	-11.5444
▁стол	-11.5447
▁перадал	-11.5448
▁меркавана	-11.545
▁еса	-11.5453
▁Докшыцкі	-11.5454
вэ	-11.5455
▁павышэнне	-11.5459
▁еўрапейца	-11.546
▁перапрацоўк	-11.546
▁султан	-11.5461
▁захавалі	-11.5462
▁Прычына	-11.5464
▁паведамленн	-11.5464
▁Франк	-11.5471
▁16-	-11.5472
▁Жак	-11.5473
▁Рэнесанс	-11.5473
▁Тэйлар	-11.5473
▁адметны	-11.5473
▁цесны	-11.5473
▁Time	-11.5473
▁Цюрых	-11.5473
▁Бацькаўшчын	-11.5473
▁Высокі	-11.5473
▁разлічва	-11.5474
▁Азербайджанска	-11.5475
▁восьмы	-11.5475
▁хоча	-11.5476
▁вырашыл	-11.5478
▁грамат	-11.5478
рн	-11.5479
▁Нігер	-11.548
▁працягнула	-11.5487
▁складаным	-11.5488
▁майстр	-11.5492
▁Александры	-11.5494
▁самастойнасц	-11.5499
▁Каралев	-11.55
▁размаўляю	-11.55
▁віцебскі	-11.5502
▁чэмпіёна	-11.5503
▁ўдасканаленн	-11.5504
▁часці	-11.5507
▁зня	-11.5509
▁імен	-11.5509
▁вайскоўца	-11.5509
▁оперны	-11.5511
▁бал	-11.5514
▁Франціш	-11.5521
▁Місі	-11.5524
▁выдавала	-11.554
▁Гродзенск	-11.5542
▁жыццёва	-11.5543
▁межан	-11.5543
▁культурн	-11.5548
▁вядомасц	-11.555
▁аўстралійскі	-11.5553
▁прыязджа	-11.5557
▁жывёлагадоўл	-11.5558
▁хрысціянск	-11.5561
▁павышэння	-11.5562
зы	-11.5562
▁простым	-11.5563
▁астэроід	-11.5565
▁Важна	-11.5566
▁Ластоўск	-11.5566
берг	-11.5566
▁Ro	-11.5566
▁Танзані	-11.5566
▁аператыўна	-11.5566
▁канадскі	-11.5566
▁банкнот	-11.5566
▁МТС	-11.5566
▁Тэхас	-11.5566
▁Праграм	-11.5566
▁будызм	-11.5567
▁хво	-11.5567
▁гравітацыйна	-11.5568
▁ўзгорк	-11.5568
▁пыл	-11.5568
▁нармальна	-11.5568
▁згаданы	-11.5568
▁тавары	-11.5569
▁старажытным	-11.5573
танцыя	-11.5573
▁прыводзяц	-11.5574
▁напісанне	-11.5576
▁неф	-11.5577
▁танкавы	-11.5578
кагор	-11.5579
▁варыянта	-11.5579
▁каранё	-11.5581
ўка	-11.5585
▁многа	-11.5585
▁літоўца	-11.5586
▁крыжовы	-11.5587
▁Луіс	-11.5589
▁Слав	-11.5589
▁прызнаваў	-11.5593
▁злучаю	-11.5599
▁пацвярджае	-11.5602
▁Ваенны	-11.5602
▁трой	-11.5603
культурн	-11.5606
рослы	-11.5614
▁Львоў	-11.5616
▁Імператарска	-11.5617
▁камяні	-11.5618
▁мянушка	-11.5618
▁агнё	-11.562
▁косц	-11.5627
▁заходн	-11.5628
▁паклал	-11.5629
▁ўжывал	-11.5634
▁вугаль	-11.5634
▁лекара	-11.5637
▁разнастайна	-11.5638
▁крытычны	-11.5639
▁дзядзька	-11.5639
▁слов	-11.5642
▁эмігранта	-11.5644
▁крымскі	-11.5646
▁вяшчанн	-11.5647
Дзін	-11.5649
▁нацыянальнасц	-11.5652
▁нараджэнне	-11.5652
▁дапамагае	-11.5656
▁размаўля	-11.5657
▁пацверджан	-11.5658
▁канстытуцыйна	-11.5659
▁co	-11.5659
▁Эгейск	-11.5661
▁агрэсі	-11.5661
▁Герцагавін	-11.5661
▁Дрэздэн	-11.5661
▁Лінкальн	-11.5661
▁Правінцы	-11.5661
▁акалічнасц	-11.5661
▁брашур	-11.5661
▁стасунк	-11.5661
▁тлушч	-11.5661
▁ўнікальны	-11.5661
▁запазычаны	-11.5661
▁сінгл	-11.5661
▁Тарпеда	-11.5661
▁Крычаў	-11.5661
▁Белавежска	-11.5661
▁Замкава	-11.5661
▁нябесны	-11.5662
▁Вілі	-11.5662
▁астэроіда	-11.5662
▁экран	-11.5663
▁акружэнн	-11.5663
▁явік	-11.5665
▁выкарыстана	-11.5666
▁Гарадскі	-11.5669
казалі	-11.5671
▁меркавала	-11.5673
▁нагляд	-11.5676
▁паспяховым	-11.5677
▁праста	-11.5678
▁Мех	-11.5678
▁Кана	-11.5681
▁расці	-11.5681
▁Рыжскі	-11.5685
▁пратэстанта	-11.5685
▁Вілейск	-11.5686
▁111	-11.5687
нс	-11.5688
on	-11.569
▁мітрапаліт	-11.5691
▁Дз	-11.5694
▁купал	-11.5696
▁каталік	-11.5699
▁вестк	-11.57
22	-11.5703
▁прырода	-11.5703
▁Справ	-11.5704
▁целам	-11.5705
небе	-11.5708
▁550	-11.571
▁летня	-11.5711
▁Ву	-11.5713
▁заняткам	-11.5714
▁70-	-11.5715
▁салон	-11.5723
кал	-11.5724
▁чырвон	-11.5724
▁ствала	-11.5726
▁давалі	-11.5728
▁малым	-11.5729
▁адкры	-11.573
▁адценне	-11.5731
▁Горк	-11.5731
▁дваранск	-11.5733
▁віч	-11.5738
▁шара	-11.5739
▁Пасол	-11.5743
▁праграмна	-11.5745
▁кантэкс	-11.5751
▁Рымскага	-11.5756
▁Бялград	-11.5756
▁Мясцова	-11.5756
▁Трыбунал	-11.5756
▁электрамагнітна	-11.5756
▁Выток	-11.5756
▁Аўрэліян	-11.5757
▁контр	-11.5757
аўж	-11.5757
▁Цын	-11.5762
▁каналам	-11.5762
▁славу	-11.5764
▁грузавы	-11.5766
▁Земл	-11.5766
▁прадстаўніка	-11.5767
▁прэзідэнцка	-11.577
оны	-11.5772
▁перыяды	-11.5776
▁дзеюч	-11.5782
▁пляцоўка	-11.5785
дарыла	-11.579
▁брамніка	-11.579
▁Літаратурна	-11.5791
▁паказ	-11.5793
▁прыхода	-11.5799
▁крыжам	-11.5802
▁матэрыялам	-11.5802
▁Дзяржынск	-11.5804
▁Рэн	-11.5805
▁матэматыка	-11.5806
▁спадчынны	-11.5807
▁Лагойск	-11.5807
▁Валеры	-11.5807
▁Афрыка	-11.5809
▁армянскі	-11.5812
▁свабодным	-11.5813
▁ютарна	-11.5814
▁Каспійска	-11.5815
▁аперацыйна	-11.5817
▁Самал	-11.5818
брала	-11.5821
▁звычая	-11.5824
дадзена	-11.5827
▁Дзі	-11.5829
▁Ке	-11.5832
▁цягніка	-11.5836
▁падтрымка	-11.5836
▁Пераможца	-11.5838
▁ператварэнне	-11.5839
▁пашыра	-11.5851
▁Італьянска	-11.5852
▁Варшаўскі	-11.5852
▁ажыццёўлен	-11.5852
▁эканаміст	-11.5852
▁эпас	-11.5852
▁сакратарыят	-11.5852
▁пашырыў	-11.5854
▁файл	-11.5855
▁навык	-11.5855
▁хут	-11.5856
▁збудавана	-11.5857
▁крон	-11.5857
▁Найбольшы	-11.5859
даюцца	-11.586
▁падоўжы	-11.5861
▁акта	-11.5861
▁місіянер	-11.5862
▁выкладанн	-11.5863
▁ездзі	-11.5864
▁Паўлавіч	-11.5865
▁дзеця	-11.5865
рава	-11.5866
▁Вест	-11.5867
▁прыдатны	-11.5868
▁замах	-11.5874
▁набраў	-11.5881
▁наведа	-11.5888
рачыста	-11.5888
▁Мядзельскі	-11.5891
▁маб	-11.5891
▁стандартны	-11.5891
▁выбіра	-11.5893
▁Захадзе	-11.5895
▁лексік	-11.5896
▁пан	-11.5897
▁самка	-11.5899
▁выкуп	-11.5903
▁распаўсюджаным	-11.5908
▁агента	-11.5908
▁та	-11.5914
▁забарані	-11.5914
▁туркам	-11.5916
▁павер	-11.5916
▁Люблінска	-11.5917
▁паўтара	-11.5919
▁напружанасц	-11.592
права	-11.592
▁выве	-11.5921
▁дзяленне	-11.5921
▁аснова	-11.5922
▁Працоўна	-11.5922
▁прадпрыемствам	-11.5923
▁трамвая	-11.5926
▁канцэрта	-11.5934
▁Сябра	-11.5935
▁Сін	-11.5939
▁Год	-11.5939
тс	-11.5941
▁задум	-11.5946
▁Вацла	-11.5946
▁Рэвалюцы	-11.5946
▁Пабудавана	-11.5947
▁Хрысціян	-11.5947
▁Джозеф	-11.5949
▁Лаўрэнці	-11.5949
▁Характэрны	-11.5949
▁апавядае	-11.5949
▁колішня	-11.5949
▁паўтары	-11.5949
▁сацыялогі	-11.5949
▁тэлевізійны	-11.5949
▁уласцівы	-11.5949
▁імпарт	-11.5949
▁Свярдло	-11.5949
▁здабы	-11.5949
▁раўнаваг	-11.5949
▁каэфіцыент	-11.5949
▁Бярэ	-11.595
▁Аўгусцін	-11.595
▁канструкцыя	-11.595
▁абеліск	-11.5951
▁падвід	-11.5951
▁Траян	-11.5951
▁прапануе	-11.5952
▁мусульманска	-11.5952
▁навакольн	-11.5952
▁летапісе	-11.5952
▁прывілея	-11.5954
▁Венецыя	-11.5954
▁паставі	-11.5954
▁загадва	-11.5955
▁гульца	-11.5955
▁інтэграцы	-11.5956
▁вернасц	-11.5957
▁Іркуцка	-11.5957
больш	-11.5959
ацыі	-11.596
▁небяспечны	-11.5963
▁аддзелены	-11.5965
яўлялі	-11.5965
▁магутным	-11.5968
▁сялянам	-11.597
зіць	-11.5972
▁тлумачэння	-11.5974
▁сезона	-11.5977
▁разглядала	-11.5979
ымя	-11.5982
▁сайта	-11.5983
▁праектаванн	-11.5986
ву	-11.599
▁плоскі	-11.5993
▁Ту	-11.5995
▁дырыжор	-11.6
▁Густа	-11.6001
выя	-11.6001
▁абаронц	-11.6003
▁распавядае	-11.6003
▁падпольна	-11.6003
▁муравана	-11.6004
▁кароткім	-11.6005
дне	-11.6005
▁Юлія	-11.601
▁аўстрыйска	-11.601
▁Рыа	-11.6014
▁Урада	-11.6017
▁цягну	-11.602
▁абмяжоўва	-11.6022
▁дэлегата	-11.6022
▁пераемнік	-11.603
▁эканомі	-11.603
інакш	-11.603
▁падобным	-11.6032
▁тэлеканал	-11.6033
▁ганаровым	-11.6033
▁блакітны	-11.6034
▁калегіума	-11.6034
▁Славацка	-11.6035
ta	-11.6042
▁звычайным	-11.6045
▁змагл	-11.6045
▁вядучым	-11.6046
▁падраздзялення	-11.6047
▁рыса	-11.6047
▁Найбол	-11.6047
▁Клаўдзі	-11.6047
▁Шродзінгер	-11.6047
▁абвінавачаны	-11.6047
▁памяншае	-11.6047
▁рэстаран	-11.6047
▁старадаўні	-11.6047
▁травяністы	-11.6047
▁чарапах	-11.6047
▁фашыст	-11.6047
▁чысцін	-11.6047
▁Талін	-11.6048
▁распрацоўшчык	-11.6048
▁германскім	-11.6048
▁краёва	-11.6049
гало	-11.6049
▁дыханн	-11.6051
▁Маса	-11.6052
▁Каін	-11.6054
▁Ло	-11.6055
▁правапіс	-11.6058
▁функцыянаванн	-11.6058
▁быцц	-11.6059
▁тыповы	-11.606
▁чыгуначн	-11.606
▁паварот	-11.606
іч	-11.6062
▁гароднін	-11.6063
▁высадзі	-11.6064
▁флота	-11.6068
англ	-11.6068
▁крыты	-11.6069
▁Сідне	-11.607
ызацы	-11.607
▁Ціт	-11.6074
лескі	-11.6075
▁адхілі	-11.6075
▁Лес	-11.6076
▁лекар	-11.6077
лінг	-11.6077
▁Глыбока	-11.608
▁незалежным	-11.6081
дае	-11.6084
▁Менска	-11.6084
▁Мсціслаў	-11.6088
аваны	-11.609
▁статыстык	-11.6095
▁патрабаваў	-11.61
▁гродзенскі	-11.6102
вер	-11.6102
▁княствам	-11.6104
▁выкладчыка	-11.6108
▁дзіркі	-11.6109
▁суддз	-11.6109
▁канцлер	-11.6112
▁князям	-11.6113
▁пруск	-11.6116
▁указа	-11.6121
▁ўдзельнікам	-11.6122
▁Ірландыя	-11.6123
▁выяўля	-11.6127
▁гармоні	-11.6129
нні	-11.6129
▁тэхналогія	-11.614
▁зло	-11.6141
▁выдзяляюц	-11.6146
▁Асацыяцы	-11.6146
▁Еўрасаюз	-11.6146
▁Максіміліян	-11.6146
▁бавоўн	-11.6146
▁блакітна	-11.6146
▁каталіцызм	-11.6146
▁расстрэл	-11.6146
▁сярэдневякова	-11.6146
▁штодзённа	-11.6146
▁спрабую	-11.6146
▁дапусці	-11.6146
▁феадальны	-11.6146
▁баланс	-11.6146
▁капітуляцы	-11.6146
▁Нікол	-11.6146
▁заапарк	-11.6147
▁пісьменніца	-11.6147
▁разарва	-11.6147
▁інтэлектуальн	-11.6148
кама	-11.615
▁Жанчын	-11.615
▁назірал	-11.615
▁Гамер	-11.6151
▁сыход	-11.6152
▁Балкан	-11.6153
В	-11.6153
ніва	-11.6156
▁рэгуляванн	-11.6159
F	-11.6162
▁Значн	-11.6163
▁манета	-11.6163
▁Эстонія	-11.6164
▁Lin	-11.6167
▁захоўваў	-11.6168
▁манарх	-11.617
танцы	-11.617
▁злучэнне	-11.6171
▁гаспадаро	-11.6174
▁ажыццяўляла	-11.6174
▁пошта	-11.6174
▁арганізоўва	-11.6175
▁чака	-11.6175
▁начны	-11.618
▁фінансав	-11.618
▁мера	-11.6182
▁саступіў	-11.6183
▁прыгонн	-11.6183
▁Алжыра	-11.6186
▁барабан	-11.6188
▁лёт	-11.619
▁сухапутны	-11.619
▁карыстальніка	-11.6194
▁масто	-11.6196
▁гурто	-11.6198
вухпавярховы	-11.6198
▁архітэктура	-11.6199
▁Людвіг	-11.6204
▁дывізіён	-11.6212
▁Аргенціна	-11.6214
▁майстра	-11.6215
▁Ашмянскі	-11.6217
▁270	-11.6217
▁Мёрскі	-11.6217
▁багатым	-11.6218
▁Кір	-11.6223
▁пратэктарат	-11.6224
дкрыццё	-11.6224
▁Тэатр	-11.6228
▁абвінавачванн	-11.6228
выш	-11.6228
▁афіц	-11.6234
▁прыз	-11.6237
▁эфектыўнасц	-11.6243
▁аддалены	-11.6244
▁Румынія	-11.6244
эабіліта	-11.6245
▁бразільскі	-11.6245
▁Дагавор	-11.6246
▁Даследчык	-11.6246
▁Мясцовы	-11.6246
▁Прыхільнік	-11.6246
▁Салігорск	-11.6246
▁зацвярджэнн	-11.6246
▁прымяня	-11.6246
▁унікальны	-11.6246
▁пасяленц	-11.6246
▁Ангол	-11.6247
▁палавін	-11.6247
двая	-11.6247
▁ўмацаваны	-11.6248
▁дынамік	-11.6248
▁пляж	-11.625
▁Педр	-11.6252
▁Кент	-11.6253
▁жадаючы	-11.6254
▁замежным	-11.6255
лін	-11.6255
▁распал	-11.6256
ранна	-11.6257
▁нізінны	-11.6259
▁замацавала	-11.6264
моўна	-11.6266
▁ВС	-11.6266
▁галандскі	-11.6266
▁даказа	-11.6267
▁кармленн	-11.6267
▁брытанц	-11.6268
прэзідэнт	-11.6268
▁конны	-11.6269
рэжысёр	-11.6269
▁Чарнігаўска	-11.627
men	-11.6272
▁камунізм	-11.6273
▁вугло	-11.6274
▁Мора	-11.6277
▁хімік	-11.6277
она	-11.6277
▁Дн	-11.6279
▁балгарска	-11.6279
▁Венскі	-11.628
▁этно	-11.6281
▁Кейстута	-11.6289
▁вадкі	-11.6289
▁прускі	-11.6291
он	-11.6292
▁напісал	-11.6293
▁свабода	-11.6295
▁Тан	-11.6295
▁цэн	-11.6296
▁арэнд	-11.6296
▁спако	-11.6296
et	-11.6297
ур	-11.6301
ne	-11.6302
▁Іль	-11.6303
▁каралеўств	-11.6304
СДП	-11.6309
▁хвароба	-11.6312
▁жывым	-11.6313
▁вырашае	-11.6321
▁вапняк	-11.6322
▁папскі	-11.6322
▁біблейскі	-11.6323
фарбоўка	-11.6323
▁фінанс	-11.6324
▁звязваю	-11.6326
▁мыш	-11.6328
▁алгебр	-11.6332
▁асаблівасцям	-11.6332
журы	-11.6335
▁знац	-11.6338
▁адчынены	-11.6342
▁батанік	-11.6345
ідавочна	-11.6345
▁Ізяслаў	-11.6347
▁Ганарова	-11.6347
▁Хмяльніцк	-11.6347
▁абумоўлены	-11.6347
▁атача	-11.6347
▁бесперапынна	-11.6347
▁вытворны	-11.6347
▁даступна	-11.6347
▁заканамернасц	-11.6347
▁заслужан	-11.6347
▁зледзянення	-11.6347
▁нязменна	-11.6347
▁памежны	-11.6347
▁сярэднявечны	-11.6347
▁Кастус	-11.6347
▁цэнзур	-11.6347
▁княжанн	-11.6347
▁Малдаўска	-11.6347
▁правільны	-11.6347
▁рыф	-11.6348
▁выстаўлен	-11.6348
▁распачата	-11.6348
▁Хан	-11.6351
▁Гу	-11.6354
цены	-11.6354
▁сталым	-11.6355
▁саступіл	-11.6356
▁замацаваў	-11.6356
▁Якаў	-11.6357
нава	-11.6362
▁зменена	-11.6363
▁пойма	-11.6369
▁Будапешт	-11.6371
▁650	-11.6371
▁Малі	-11.6371
▁выстава	-11.6373
▁Быхаў	-11.6373
▁Барысаўскі	-11.6373
▁тытула	-11.6374
▁кніжна	-11.6375
▁даводзі	-11.6378
губернатара	-11.6379
▁консул	-11.6379
▁цэл	-11.638
▁Mari	-11.638
▁паралельны	-11.6381
▁прэсн	-11.6384
▁Канчаткова	-11.6385
цу	-11.6387
▁індывідуальна	-11.6388
▁бюст	-11.6388
▁вача	-11.6391
▁Прыкладам	-11.6394
▁газа	-11.6394
▁металу	-11.6396
▁знешнім	-11.6401
▁іспанскім	-11.6409
▁хлеба	-11.6411
▁Іагана	-11.6414
▁землетрасення	-11.6416
▁перавозк	-11.6417
▁пераважал	-11.6418
▁Усерасійск	-11.6419
▁суднаход	-11.642
▁насенн	-11.642
▁13-	-11.6421
аркі	-11.6423
▁формула	-11.6424
▁назіральніка	-11.6425
▁сярэбраны	-11.6425
▁спынілі	-11.6425
▁Майкл	-11.6425
▁груза	-11.6433
▁выпрабавання	-11.6438
▁курфюрста	-11.6439
▁наведвал	-11.644
▁выбіраю	-11.6443
▁закрыцц	-11.6444
▁пячатк	-11.6445
ытворчасц	-11.6448
▁індустры	-11.6449
аражытнагрэчаскі	-11.6449
▁Бургунды	-11.6449
▁Падобна	-11.6449
▁вязн	-11.6449
▁грызун	-11.6449
▁працэдур	-11.6449
▁Дадзены	-11.6449
▁Чачэрск	-11.6449
▁Малодш	-11.6449
▁камет	-11.645
▁Камп	-11.645
▁промысл	-11.645
▁Аляксеевіч	-11.645
▁праезд	-11.645
▁кітайц	-11.6451
▁мелоды	-11.6451
▁сталічна	-11.6456
▁мангольск	-11.6457
▁гаварыл	-11.6458
▁гнёзд	-11.6459
▁Гур	-11.646
овай	-11.646
▁Кіеўскі	-11.6463
▁выдзелен	-11.6464
▁набыты	-11.6464
▁ўзначальвае	-11.6471
▁чыноўніка	-11.6471
▁Барысав	-11.6472
▁Чэха	-11.6478
T	-11.6478
▁перажыва	-11.6481
▁кру	-11.649
▁імігрант	-11.6498
▁заснаванне	-11.65
▁своеасабліва	-11.6501
▁след	-11.6502
▁адыгра	-11.651
▁апсіда	-11.6513
вечары	-11.6513
▁скарачэння	-11.6514
▁Іванавіча	-11.652
▁акцёрам	-11.6523
▁дазволі	-11.6524
▁адносіл	-11.6525
▁Радзіма	-11.6526
▁вертыкальны	-11.6528
▁Парламента	-11.6532
▁азначэнн	-11.6532
▁пераможцам	-11.654
▁міграцы	-11.6544
▁сарт	-11.6545
▁ўладання	-11.6546
Кейн	-11.6547
▁Лізавет	-11.6548
▁элементарны	-11.6548
▁прапанова	-11.655
▁паступіл	-11.655
▁цячэнне	-11.655
▁пісалі	-11.6552
▁Аўтамабіл	-11.6552
▁Вольфганг	-11.6552
▁Таджыкістан	-11.6552
▁дэпрэсі	-11.6552
▁заселена	-11.6552
▁старажытнаруск	-11.6552
▁эмоцы	-11.6552
▁паклаў	-11.6552
▁Чатыр	-11.6552
▁Тэрэз	-11.6553
▁заклаў	-11.6553
▁Муса	-11.6553
▁бяру	-11.6553
▁Амур	-11.6553
ig	-11.6553
ланіроўка	-11.6553
▁панавал	-11.6554
▁Ампер	-11.6554
▁дабі	-11.6554
▁прамянё	-11.6555
▁праяві	-11.6559
▁Кангрэса	-11.6564
▁разводдз	-11.6566
▁бор	-11.6567
▁паэтам	-11.6571
▁латышск	-11.6573
▁Маг	-11.6574
▁пісьменнікам	-11.6575
▁арбі	-11.6575
▁электрычн	-11.6576
вель	-11.6576
▁Бацьк	-11.6578
▁плантацы	-11.6579
▁саветніка	-11.6581
Джэр	-11.6583
▁чут	-11.6586
▁тэматык	-11.6587
▁Грыгоры	-11.6587
▁плану	-11.6591
▁Аляск	-11.6593
▁мозга	-11.6595
▁прагаласавал	-11.6597
▁распаўсюджанн	-11.6598
▁Кобрын	-11.6598
▁забяспечва	-11.6601
нцаў	-11.6603
▁многім	-11.6603
▁Прычы	-11.6604
▁Вар	-11.6604
▁кніжк	-11.6604
▁ўладальніка	-11.6606
▁Маршал	-11.6609
▁Ген	-11.6609
▁трэц	-11.661
камі	-11.661
▁рос	-11.6613
вацца	-11.6615
▁сума	-11.6616
▁канфіскаваны	-11.6618
▁перакладам	-11.6618
▁магнат	-11.6619
▁выд	-11.662
▁ўладанне	-11.662
▁стаўленн	-11.6622
▁паліт	-11.6622
трымліваў	-11.6622
▁Ша	-11.6625
▁гарнізона	-11.6625
▁абацтв	-11.6625
▁маёнткам	-11.663
▁выдавецтв	-11.663
▁патрабаванням	-11.6632
дпаведна	-11.6633
▁Адс	-11.6638
▁замацаваны	-11.6639
▁пляменнік	-11.6641
▁Лар	-11.6641
▁тытулам	-11.6643
▁Савец	-11.6643
▁паразу	-11.6646
▁Тур	-11.6649
▁Генерал	-11.6654
▁Роберта	-11.6656
▁пішу	-11.6657
▁Адрыян	-11.6657
▁Пытанн	-11.6657
▁Тэгеран	-11.6657
▁жамойцк	-11.6657
▁тлумача	-11.6657
▁эліптычна	-11.6657
▁Фільм	-11.6657
▁умераны	-11.6657
▁прапорцы	-11.6657
▁шлем	-11.6657
▁Візантыйска	-11.6657
▁Персідска	-11.6657
udi	-11.6657
▁падпольны	-11.6657
▁Раніца	-11.6657
▁вынаходства	-11.6657
▁сумяшча	-11.6658
▁Чэмпіянат	-11.6658
▁Край	-11.6658
▁перавезен	-11.6659
▁арыентаваны	-11.6659
беларуск	-11.666
▁Часовы	-11.6663
▁фінскі	-11.6664
▁кантон	-11.6664
▁гняздо	-11.6666
▁збожжавы	-11.6668
▁захапленне	-11.6671
▁асаблів	-11.6673
▁сапр	-11.6673
▁пашырае	-11.6674
▁палявы	-11.6675
▁падданы	-11.6677
▁рымлянам	-11.6679
▁незвычайны	-11.6681
▁Нясвіжск	-11.6681
▁аўтарскі	-11.6681
▁Гл	-11.6683
▁украінск	-11.6683
▁w	-11.6684
тры	-11.6685
▁ка	-11.6686
▁агульнае	-11.6687
▁ісці	-11.669
▁купі	-11.6691
▁Ляс	-11.6692
хары	-11.6692
▁арыштава	-11.6693
▁заступніка	-11.6693
марскі	-11.6698
▁Гарадоцкі	-11.6701
▁імператарск	-11.6703
▁схіле	-11.6706
▁Грузія	-11.6708
▁крымінальна	-11.6708
▁балет	-11.6711
▁стужк	-11.6713
▁рэалізм	-11.6713
▁Красна	-11.6715
▁вучоным	-11.6715
▁1890-	-11.6716
▁прамысловым	-11.6716
▁сок	-11.6716
▁падтрымліваю	-11.6717
▁аэрапорта	-11.6723
▁рэзерв	-11.6724
▁змяненне	-11.6726
▁дванаццац	-11.6726
St	-11.6726
▁адыход	-11.6731
▁пунк	-11.6731
рашова	-11.6733
▁судн	-11.6733
▁варожа	-11.6735
▁мал	-11.6735
▁калегія	-11.6735
▁трамвай	-11.6737
▁вытворца	-11.6737
▁Банк	-11.6739
▁адрознівала	-11.674
аваў	-11.6742
▁рэакцыя	-11.6744
нтэ	-11.6747
▁трымалі	-11.6748
▁Навук	-11.6751
▁ансамбля	-11.6757
▁рэклам	-11.6759
▁Жо	-11.6761
▁Брандэнбург	-11.6762
▁Карысны	-11.6762
▁Шаўчэнк	-11.6762
▁кірыліц	-11.6762
▁прасочва	-11.6762
▁антарктычн	-11.6762
▁лінз	-11.6762
▁ектыўны	-11.6762
шэль	-11.6763
▁вуглярод	-11.6763
▁Загіну	-11.6763
нізу	-11.6767
▁святым	-11.6769
▁пахода	-11.677
▁Фёдара	-11.677
▁Люта	-11.6771
▁выраблен	-11.6772
▁Каманда	-11.6776
▁сыходзі	-11.6778
▁Злучана	-11.678
▁страў	-11.6781
ўсходнім	-11.6782
▁Азар	-11.6783
▁тэле	-11.6783
▁Усясла	-11.6787
▁Клімент	-11.6789
руч	-11.6792
▁Рагачоўск	-11.6796
▁Іаган	-11.6798
▁найменне	-11.6798
▁Кембрыдж	-11.6799
езон	-11.68
▁Платона	-11.6801
▁выкладае	-11.6804
жыў	-11.6805
сферы	-11.6807
▁Людвіга	-11.6807
▁тэрас	-11.6807
▁Гам	-11.6807
▁землям	-11.6808
▁пласто	-11.681
▁здаў	-11.6812
▁запатрабава	-11.6813
▁Гю	-11.6815
▁Акцябрск	-11.6817
▁Чж	-11.682
▁Македонія	-11.682
біты	-11.6821
▁жыхара	-11.6822
▁тыпам	-11.6823
▁Кубк	-11.6824
▁гадзінніка	-11.6829
▁прымусіў	-11.683
▁Баліві	-11.6831
▁прымуша	-11.6834
▁воля	-11.6838
▁лесвіц	-11.6838
носі	-11.6838
▁Царства	-11.684
▁здара	-11.6847
▁таемна	-11.6849
▁пазначэнн	-11.6849
▁ўскраін	-11.685
▁стратэгічны	-11.685
▁уладанне	-11.685
▁тка	-11.6851
▁велізарн	-11.6852
амярза	-11.6853
▁Барысаўск	-11.6854
▁падлог	-11.6854
▁даследчыкам	-11.6859
▁смаленскі	-11.6861
▁Гульн	-11.6862
▁Кені	-11.6863
▁Зеландыя	-11.6864
▁дзі	-11.6865
▁набыцц	-11.6867
▁алкагол	-11.6868
orld	-11.6868
▁Парфенон	-11.6868
▁Рэпін	-11.6868
▁агітацы	-11.6868
▁канвенцы	-11.6868
▁рэарганізаван	-11.6868
▁швейна	-11.6868
▁Амерыканскі	-11.6868
▁Адміністрацыйна	-11.6868
▁Байкал	-11.6868
▁выводзі	-11.6869
▁Адкрыта	-11.6869
▁метан	-11.6869
▁кузава	-11.687
▁рэвіз	-11.687
▁Андрэевіч	-11.687
▁сачы	-11.687
▁званіца	-11.687
▁Гран	-11.687
▁алгарытм	-11.6873
▁функцыяну	-11.6873
▁наладзі	-11.6874
▁Належа	-11.6874
▁сталічны	-11.6875
энца	-11.6875
▁філалогі	-11.6877
▁военачальнік	-11.6878
▁ваганн	-11.6879
▁паходзіл	-11.688
▁прыкмета	-11.6883
▁ўспрыманн	-11.6883
асопіс	-11.6884
▁Палата	-11.6885
▁дацка	-11.6886
▁ўнутраным	-11.6891
▁аддае	-11.6892
рэба	-11.6893
▁бірж	-11.6894
▁Навагруд	-11.6896
▁веданне	-11.6897
▁музыканта	-11.6898
▁зыходны	-11.6904
▁Ельскі	-11.6904
арол	-11.6909
СА	-11.6915
▁населен	-11.6916
▁Мов	-11.692
▁касцюм	-11.692
▁Федэрацыя	-11.6921
беларускі	-11.6926
▁аконны	-11.6932
▁кветка	-11.6936
▁архібіскупа	-11.6938
▁дзеячам	-11.6938
▁мусі	-11.6942
▁рэальным	-11.6942
▁вытворча	-11.6945
▁асабіст	-11.6949
▁падпольн	-11.6958
▁адлюстраваны	-11.6964
▁маскоўск	-11.697
▁канцэнтрацы	-11.6972
▁даўжэй	-11.6972
азнаўств	-11.6974
ара	-11.6974
▁бесп	-11.6976
▁Браціслав	-11.6976
▁блыта	-11.6976
▁засушлівы	-11.6976
▁радыкальны	-11.6976
▁Чаплін	-11.6976
▁мемарыяльны	-11.6976
▁рэктар	-11.6976
▁Гамбург	-11.6976
▁Лісабон	-11.6976
▁Мексіка	-11.6977
▁пратэстанцка	-11.6978
▁Альбрэхт	-11.6978
▁выгнаны	-11.6979
▁Глыбоцкі	-11.6982
▁палкаводца	-11.6983
▁дазваля	-11.6983
▁Прон	-11.6985
▁газавы	-11.6986
▁Ферм	-11.6987
▁перадача	-11.6987
▁абсалютны	-11.6987
▁лірычны	-11.6988
▁прававы	-11.6989
▁садавін	-11.699
▁троцк	-11.6991
▁цюркск	-11.6992
▁культу	-11.6994
▁вырошчванн	-11.6996
▁змяшча	-11.6997
M	-11.7001
▁назіраю	-11.7004
▁вызначала	-11.7006
тое	-11.7012
▁Кука	-11.7013
▁пазбаўленн	-11.7014
▁яйк	-11.7019
▁Вольга	-11.7019
▁станоўча	-11.702
▁Мела	-11.7023
▁складанне	-11.7024
саў	-11.7033
▁каледжа	-11.7035
▁выцягнуты	-11.7036
▁Антаркты	-11.7037
▁Ліда	-11.7038
МФ	-11.7038
▁абавяз	-11.7045
▁дарагі	-11.7047
▁вырошчва	-11.7047
▁шпітал	-11.7049
▁ягад	-11.7053
чытаў	-11.7054
▁хадзіл	-11.7058
▁Права	-11.7069
▁забяспечвал	-11.707
▁сельск	-11.7074
каса	-11.7078
▁адзначалі	-11.708
▁нападніка	-11.7081
адазбор	-11.7083
▁le	-11.7083
▁Бісмарк	-11.7084
▁Туркменістан	-11.7084
▁Эпох	-11.7084
▁абумовіл	-11.7084
▁завочна	-11.7084
▁кантралюе	-11.7084
▁кінафестывал	-11.7084
▁лейб	-11.7084
▁форт	-11.7084
▁гатычна	-11.7084
▁нідэрландска	-11.7084
▁Mic	-11.7084
▁ліцэнзі	-11.7085
▁дэкор	-11.7087
азер	-11.7088
▁сыгра	-11.7088
▁МВ	-11.7089
ленд	-11.709
ХД	-11.709
▁пальм	-11.709
▁Канстанцінавіч	-11.7091
▁Лу	-11.7092
▁аддзяляе	-11.7095
▁Грамад	-11.7099
▁хрыбт	-11.71
▁Зімовы	-11.7105
▁Паліт	-11.7114
▁Пастанова	-11.7115
▁Адольф	-11.712
▁аддадзен	-11.7121
▁святын	-11.7125
бн	-11.7127
▁вядом	-11.7132
▁мяча	-11.7139
▁маляўнічы	-11.7139
▁прадукцыя	-11.714
ачу	-11.714
▁губерн	-11.715
▁аленя	-11.7156
пы	-11.7158
нула	-11.7159
▁прынцэс	-11.7162
▁выхадзе	-11.7164
▁грама	-11.7168
уры	-11.7168
▁утрыманне	-11.7171
▁выканаўцаў	-11.7171
▁цяжар	-11.7173
▁адчу	-11.7175
▁выгна	-11.7176
▁Расійскі	-11.7177
▁абшчына	-11.7181
▁водарасц	-11.7185
▁Томаса	-11.7188
▁Іаан	-11.7188
▁Надзе	-11.719
▁лод	-11.719
▁спадчыннікам	-11.7191
▁зваротны	-11.7192
▁воін	-11.7192
рактычна	-11.7194
▁Лынтуп	-11.7194
▁вуглякісл	-11.7194
▁клопат	-11.7194
▁захапля	-11.7194
▁Intern	-11.7194
▁Тамаш	-11.7194
дзялення	-11.7195
▁багацця	-11.7195
▁Гарадзе	-11.7196
▁памылкова	-11.7196
▁Вацлава	-11.7198
▁заляга	-11.7199
▁каменн	-11.72
▁Шры	-11.72
▁Серы	-11.7201
▁Двор	-11.7202
лёгку	-11.7204
авання	-11.7204
▁кіраўніцтв	-11.7205
▁атмасферны	-11.7206
▁Паб	-11.7208
▁прадугледжвала	-11.7212
рокі	-11.7212
несла	-11.7216
▁паэзія	-11.7218
▁ледавіка	-11.7219
▁віленск	-11.7219
▁паловай	-11.722
▁узвышша	-11.722
▁французам	-11.7222
▁нервова	-11.7224
▁гелі	-11.7224
▁мары	-11.7224
▁серыял	-11.7225
▁вам	-11.7225
▁захопнік	-11.7225
гадвае	-11.7225
твараючы	-11.7226
▁нафта	-11.7226
▁глядзе	-11.7228
лаёў	-11.7229
то	-11.7233
▁абаронцам	-11.7233
▁запісва	-11.7235
▁Карэя	-11.7238
нд	-11.7242
▁рыхтава	-11.7242
▁грамадзянін	-11.7246
▁славацка	-11.7249
▁афіцыйн	-11.725
▁12-	-11.7256
сам	-11.7256
▁Дэвід	-11.726
▁характары	-11.7265
▁Лонданск	-11.7267
▁экспедыцый	-11.7268
▁ігра	-11.7271
▁карпарацы	-11.7271
намерна	-11.7271
▁ядналі	-11.7275
▁пяхотна	-11.728
▁распачал	-11.728
▁Самк	-11.7287
▁стыля	-11.7287
▁пераклада	-11.7292
▁210	-11.7292
▁жыллё	-11.7295
рэал	-11.7295
▁адыгрывал	-11.7299
▁ўзвышш	-11.7299
▁бяс	-11.7301
▁Крысціян	-11.7302
▁Багдад	-11.7305
▁Археалагічны	-11.7305
▁Музык	-11.7305
▁Тарашкевіч	-11.7305
▁Фландры	-11.7305
▁блакад	-11.7305
▁вяскова	-11.7305
▁груз	-11.7305
▁егіпцян	-11.7305
▁паўфінал	-11.7305
▁рэарганізацы	-11.7305
▁італьянц	-11.7305
▁англамоўн	-11.7305
▁рухомы	-11.7306
▁моладзевы	-11.7306
▁спыня	-11.7307
▁шоста	-11.7307
▁фі	-11.7307
▁падраздзяленн	-11.7307
▁конна	-11.7309
▁апошн	-11.7311
▁брыгада	-11.7313
▁светлы	-11.7314
BM	-11.7315
лодкі	-11.7318
палі	-11.7321
▁садзейнічанн	-11.7323
▁шахт	-11.7328
▁паэтычна	-11.7329
col	-11.733
▁выяў	-11.7331
лер	-11.7331
пала	-11.7332
▁выказваў	-11.7333
▁будаўніча	-11.7334
▁стварала	-11.7334
▁Надзвычайны	-11.7336
▁крышталічны	-11.7336
▁разграміл	-11.7341
▁грэчаскім	-11.7341
▁Выяўлены	-11.7345
▁патрапіў	-11.7347
▁рахунк	-11.7348
▁навакольным	-11.7349
ера	-11.7349
▁прынцыпам	-11.7351
▁каменным	-11.7351
▁абмежава	-11.7358
▁заменен	-11.7359
▁ставіў	-11.736
▁групавы	-11.7363
▁павятова	-11.7364
тані	-11.7364
▁займаючы	-11.7364
▁Ушацкі	-11.7365
▁Бранска	-11.7365
метры	-11.7366
▁патрабавання	-11.737
ад	-11.7372
Заходні	-11.7374
▁Разан	-11.7375
▁надзвычайна	-11.7377
▁тэндэнцыя	-11.7378
зец	-11.7381
▁дапамагал	-11.7381
▁замкам	-11.7382
▁Венск	-11.7383
▁Лепель	-11.7385
▁лорда	-11.7386
▁чорн	-11.7386
▁адмаўляе	-11.7387
▁памятны	-11.739
▁уплыв	-11.739
▁абслугоўвае	-11.7392
up	-11.7393
▁падзялял	-11.7395
▁Бен	-11.7399
▁банкаў	-11.7399
▁бур	-11.7399
▁адпаведным	-11.7401
▁змяшчаюц	-11.7401
▁судов	-11.7405
▁ўсталява	-11.7405
▁падышл	-11.7408
▁тайны	-11.7409
ступае	-11.7409
▁Распрацава	-11.7409
▁харчаванне	-11.741
▁губля	-11.7414
▁адступі	-11.7415
адпарадкаваны	-11.7416
гавораны	-11.7418
▁America	-11.7418
▁Рагнед	-11.7418
▁генетычна	-11.7418
▁нелегальна	-11.7418
▁галандска	-11.7418
▁Мастацка	-11.7418
▁бытавы	-11.7418
▁Генадз	-11.7418
▁рэдагава	-11.7418
▁шатландскі	-11.7419
▁Тагор	-11.7419
▁ўзяты	-11.742
дачы	-11.742
▁Агінск	-11.7422
▁розніца	-11.7423
▁дава	-11.7423
▁Песн	-11.7424
▁чыноўнік	-11.7434
▁зменам	-11.7436
▁аднавіла	-11.744
▁адгалінаванн	-11.7441
▁дзяўчына	-11.7441
▁сербска	-11.7448
▁Gr	-11.7452
▁размеркаванне	-11.7453
тва	-11.7464
▁бура	-11.7475
▁1880-	-11.7475
▁філосафа	-11.7476
▁запыт	-11.7479
▁імаверна	-11.7479
▁выпрацоўк	-11.7485
▁сабра	-11.7485
арада	-11.7487
▁брытанск	-11.7493
▁еўрапейцам	-11.7495
▁дзед	-11.7496
робі	-11.7496
▁найменш	-11.7501
▁Міцкевіч	-11.7503
▁пляма	-11.7503
▁Закона	-11.7503
va	-11.7504
▁ператварае	-11.7506
▁грамадзянам	-11.7506
▁эміграва	-11.7506
дар	-11.7507
▁апіса	-11.7508
▁ручаё	-11.7508
▁філ	-11.7509
▁Пухавіцкі	-11.7516
расла	-11.7516
▁Львоўска	-11.7517
▁ўпрыгожаны	-11.7524
▁намінал	-11.7527
ўруч	-11.7527
▁Берлінскі	-11.7527
▁сардэчна	-11.7531
▁цыліндр	-11.7531
▁чацвер	-11.7531
Карунь	-11.7531
▁Вагнер	-11.7531
▁Вывучэнне	-11.7531
▁Дэкарт	-11.7531
▁Тасмані	-11.7531
▁міжземнаморск	-11.7531
▁натоўп	-11.7531
▁Кёльн	-11.7531
▁фланг	-11.7531
▁амфі	-11.7531
▁Тайван	-11.7532
▁спецыялізу	-11.7532
▁Карцін	-11.7532
▁каралавы	-11.7532
▁зафіксавана	-11.7532
▁дыстанцы	-11.7532
▁ўстанаўленн	-11.7532
▁умацаваны	-11.7533
▁валадарства	-11.7533
▁артыкулам	-11.7533
▁пакрыццё	-11.7533
▁Беліц	-11.7534
▁Магдэбург	-11.7535
▁парушэнн	-11.7537
▁строгі	-11.7537
▁місія	-11.7538
▁каланіяльна	-11.7538
▁Латвійска	-11.7539
АН	-11.754
▁Блізк	-11.754
▁штогадова	-11.754
▁Рымск	-11.7541
▁нумарам	-11.7546
▁Об	-11.7547
▁рукапісны	-11.7548
▁развіт	-11.755
▁рэпутацыю	-11.7551
▁словаў	-11.7551
▁ўзброена	-11.7553
▁адбор	-11.7553
▁публікава	-11.7557
▁выплат	-11.7558
▁Альпа	-11.7563
ніца	-11.7563
▁арабскім	-11.7572
▁самастойн	-11.7572
▁карта	-11.7572
▁старонк	-11.7574
бюр	-11.7574
▁планіроўк	-11.7575
аўлення	-11.7575
▁байц	-11.7576
▁фінансавым	-11.7579
▁ткан	-11.7579
▁відэа	-11.758
▁Вызвален	-11.7586
▁багат	-11.7586
▁Ja	-11.7587
язь	-11.7588
ДП	-11.7589
▁хрыбто	-11.759
▁ўтвары	-11.759
▁Крымска	-11.759
▁асвятленн	-11.759
▁альтэрнатыўны	-11.7592
▁асістэнта	-11.7593
ева	-11.7593
шла	-11.7593
▁Артур	-11.7593
ыхаван	-11.7597
▁невыразна	-11.76
▁рэзкі	-11.7602
▁зніжэнн	-11.7604
▁Мал	-11.7604
▁мур	-11.7605
▁густа	-11.7605
▁варыян	-11.7606
▁СС	-11.7608
▁пераходам	-11.7611
▁дададзены	-11.7612
нства	-11.7612
▁вывяржэння	-11.7615
▁Конрад	-11.7618
бы	-11.7619
▁Ін	-11.7621
атак	-11.7622
▁Ста	-11.7624
▁памешчы	-11.7629
▁даведаў	-11.7632
▁гнязд	-11.7636
▁адказнасці	-11.7641
▁правадыра	-11.7642
▁прымяненне	-11.7643
кутні	-11.7645
▁каталіцкім	-11.7646
▁драпежнік	-11.7646
▁Капернік	-11.7646
▁Ліхтэнштэйн	-11.7646
▁нявест	-11.7646
▁тулава	-11.7646
▁галаўно	-11.7646
▁валадаранн	-11.7646
▁рэйс	-11.7647
▁прымусова	-11.7647
▁прэфектур	-11.7647
▁добраахвотна	-11.7647
▁Кірыл	-11.7647
эрта	-11.7648
▁Баляслава	-11.7649
▁вызна	-11.7649
▁адзначала	-11.7649
▁марал	-11.765
▁творч	-11.765
▁Адно	-11.765
▁зімоўк	-11.7651
▁канцэнтрацыя	-11.7651
m	-11.7654
▁Радзівілам	-11.7654
▁незадаволены	-11.7655
▁Дарог	-11.7657
▁княжацк	-11.7658
▁Саратаў	-11.7658
▁аркуш	-11.7659
▁арт	-11.7661
▁выконваючы	-11.7665
зіма	-11.7669
▁кас	-11.7669
▁прадуктам	-11.7676
▁кіт	-11.7684
▁Крыт	-11.7685
▁пачына	-11.769
▁архібіскуп	-11.769
▁Ганаровы	-11.7691
▁тундр	-11.7695
▁вылучэнн	-11.7697
▁Люб	-11.7697
▁саступ	-11.7699
▁езуіцка	-11.7701
▁муніцыпалітэта	-11.7702
▁ссылк	-11.7702
▁пасялення	-11.7709
▁віруса	-11.7709
эма	-11.7712
▁ваявал	-11.7713
▁Кен	-11.7713
▁выведзены	-11.7718
ur	-11.772
▁раскопка	-11.772
▁AM	-11.7723
▁сексуальны	-11.7724
▁годнасц	-11.7725
▁акты	-11.7726
▁Імперыя	-11.7732
Жан	-11.7734
▁дачц	-11.7734
▁Чэ	-11.7737
налогіі	-11.7738
▁Луцкевіча	-11.7739
▁аддзелам	-11.7743
▁хрысціянскім	-11.7744
▁280	-11.7746
▁сёл	-11.7747
▁Назван	-11.7749
▁увахода	-11.775
▁Звяз	-11.7752
▁вучням	-11.7753
▁Усебеларускі	-11.7754
плады	-11.7756
▁распараджэнне	-11.7759
▁сада	-11.7762
▁Супрацоўні	-11.7763
▁Рагвалод	-11.7763
▁Севастопал	-11.7763
▁пазваночн	-11.7763
▁параўноўва	-11.7763
▁паспел	-11.7763
▁персідскі	-11.7763
▁суцэльны	-11.7763
▁Падзяля	-11.7763
▁ўзаемна	-11.7763
▁кансерватыўны	-11.7763
▁Хрысціцел	-11.7763
▁ужыт	-11.7763
▁Французскі	-11.7763
▁папрасі	-11.7763
▁значнасц	-11.7763
▁стральб	-11.7764
▁шлюбны	-11.7766
▁ідэальна	-11.7766
стае	-11.7768
▁паліцэйскі	-11.777
▁Магіл	-11.7772
▁працэнт	-11.7774
▁неафіцыйна	-11.7775
▁адыходзі	-11.7777
▁Быка	-11.7777
▁выпрабаванн	-11.7778
рол	-11.7779
▁слуха	-11.778
▁сыр	-11.7783
▁пісала	-11.7788
▁парадны	-11.7791
▁воблак	-11.7792
▁паскарэнне	-11.7793
▁эк	-11.7795
▁фондава	-11.7795
▁ўзял	-11.7796
▁Пухавіцк	-11.7796
▁бунт	-11.7798
-10	-11.7798
▁Дня	-11.78
▁Раслінн	-11.7801
▁суправаджае	-11.7801
▁соль	-11.7802
▁10-1	-11.7805
▁Апостал	-11.7807
▁вытворц	-11.7807
▁зялёным	-11.7811
▁адбіт	-11.7812
знікненне	-11.7819
▁назіраў	-11.7822
▁старажытная	-11.7823
▁нашэсц	-11.7823
▁трапічн	-11.7826
▁цац	-11.7826
▁трупа	-11.7827
▁скан	-11.7828
▁стваральніка	-11.7828
▁Пар	-11.7831
▁ёмна	-11.7831
▁адказва	-11.7834
▁кінуў	-11.7836
▁Давід	-11.7837
▁ажыццяўляў	-11.7839
▁кавалк	-11.784
▁ахоўн	-11.7843
▁трэ	-11.7843
сцёр	-11.7848
даўшы	-11.7848
▁вучэбны	-11.785
кіна	-11.7852
▁выдатн	-11.7852
зразумела	-11.7858
він	-11.7859
▁Арменія	-11.7865
▁дзяўчынк	-11.7865
▁паспрабавал	-11.7868
▁сажалка	-11.7874
▁гравітацы	-11.7879
▁Размер	-11.788
каноміка	-11.788
▁Ньюфаўндленд	-11.788
▁Светлагорск	-11.788
▁Усесаюзн	-11.788
▁Фларыд	-11.788
▁аздоблены	-11.788
▁аэрадром	-11.788
▁земнаводны	-11.788
▁прымеркаван	-11.788
▁сканцэнтравана	-11.788
▁ірландска	-11.788
▁манументальна	-11.788
▁супраців	-11.788
▁звяржэнн	-11.788
▁Дзейн	-11.788
▁гвалтоўна	-11.788
▁банан	-11.7881
▁Емен	-11.7881
▁паломні	-11.7881
▁Лейбніц	-11.7881
зм	-11.7881
▁зафіксаваны	-11.7881
іду	-11.7881
▁спецыялізаваны	-11.7881
▁хакейн	-11.7882
▁радыяцыйна	-11.7882
▁ўмяшанн	-11.7882
▁дасягнута	-11.7883
▁зручна	-11.7883
▁чыгуначным	-11.7883
▁Кінг	-11.7888
▁маляванн	-11.7893
▁Пталамея	-11.7897
▁мірн	-11.7898
▁турэцк	-11.7899
оўшчы	-11.79
▁гадаванн	-11.7902
▁выкладанне	-11.7902
яло	-11.7905
▁характэрным	-11.7906
▁мо	-11.7907
▁уяўля	-11.7907
▁вусна	-11.7907
▁крэдыт	-11.7908
▁паведаміл	-11.7908
▁Ленінградскі	-11.7908
▁Леапольд	-11.7909
▁Ізабела	-11.791
▁уцёк	-11.7916
▁Працоўн	-11.7916
ердзі	-11.7917
▁цвёрдым	-11.7919
▁памочнік	-11.7922
▁планаваў	-11.7924
▁r	-11.7924
▁падручніка	-11.7929
▁падзяліў	-11.7931
▁разві	-11.7931
▁Сямён	-11.7932
▁Чар	-11.7932
▁прамежк	-11.7932
▁1860-	-11.7933
▁уяўлення	-11.7934
▁неафіцыйны	-11.7936
▁Форм	-11.7937
▁навіч	-11.794
▁адправілі	-11.7941
жаль	-11.7944
▁аддаваў	-11.7944
баб	-11.7949
▁пячатка	-11.7954
▁акупіраван	-11.7955
▁падарожнік	-11.7959
▁брацка	-11.7962
▁Працавал	-11.7969
▁Руд	-11.797
▁Супраць	-11.7974
абарон	-11.7979
▁вадка	-11.798
▁распрацавал	-11.7981
▁выкладзены	-11.7984
▁ўрадавы	-11.7986
▁New	-11.7988
▁важнасц	-11.7989
▁пачынаў	-11.799
▁асацыяцыя	-11.7991
▁прав	-11.7997
▁Армянска	-11.7999
▁аграрны	-11.7999
▁асамбле	-11.7999
▁змяншэнн	-11.7999
▁пацыента	-11.7999
▁пятніц	-11.7999
▁радыкальна	-11.7999
▁іўдаізм	-11.7999
▁Псков	-11.7999
▁ht	-11.7999
▁Божы	-11.8
▁крытычна	-11.8
▁калектывізацы	-11.8
обус	-11.8
▁граніт	-11.8
▁яблык	-11.8
▁Адрыятычн	-11.8
▁Гарадо	-11.8001
▁Святаславіч	-11.8002
▁пераадоле	-11.8003
▁суправаджала	-11.8003
▁вялізны	-11.8003
гон	-11.8005
▁раманскі	-11.8005
▁Частк	-11.8005
▁ягоны	-11.8009
▁прэтэндэнта	-11.8014
▁Міністэрств	-11.8017
▁невысокі	-11.8021
▁кур	-11.8021
▁апісана	-11.8022
глыбей	-11.8023
▁цан	-11.8024
▁Творча	-11.8027
гейм	-11.8027
▁сацыяльным	-11.8028
▁напіса	-11.8031
▁Наш	-11.8031
▁зорны	-11.8031
ення	-11.8036
▁абсталяваны	-11.8038
▁мастацтвазнаў	-11.804
шкевіч	-11.8045
▁Ніж	-11.8046
мастацкі	-11.805
▁акругов	-11.8052
▁рачно	-11.8054
▁традыцыям	-11.8054
▁Адзіна	-11.8056
▁партызанам	-11.806
▁таленавіты	-11.806
▁дзялі	-11.8063
▁узял	-11.8063
▁крымінальны	-11.8063
▁скарача	-11.8064
▁сенатар	-11.807
▁філіяла	-11.807
▁вектар	-11.8072
▁катэгорыя	-11.8073
▁Шатландыя	-11.8075
▁прапаноўва	-11.8077
▁лацінскім	-11.8078
▁канкрэтна	-11.8079
▁міль	-11.808
▁ш	-11.8083
даследч	-11.8085
▁Ваз	-11.8086
▁разглядалі	-11.8089
▁мук	-11.8092
▁кармавы	-11.8096
▁каталіко	-11.8101
лаўра	-11.8111
▁дамага	-11.8112
▁прыдворн	-11.8113
▁калона	-11.8116
▁Вячасла	-11.8117
льск	-11.8117
▁лек	-11.8118
эльеф	-11.8119
▁Вірджыні	-11.812
▁Гданьск	-11.812
▁Закаўказз	-11.812
▁альманах	-11.812
▁высілк	-11.812
▁гіганцкі	-11.812
▁мексіканск	-11.812
▁ячмен	-11.812
▁Станкевіч	-11.812
▁вынаходніцтва	-11.812
▁Джэксан	-11.812
▁малекулярн	-11.812
▁Сельск	-11.812
▁касманаўт	-11.812
▁падраздзяленне	-11.8121
НС	-11.8121
▁антрапалогі	-11.8121
▁ліб	-11.8121
▁Сейм	-11.8122
эйн	-11.8122
▁Смаргон	-11.8122
ронта	-11.8123
▁Сваё	-11.8125
▁Камісія	-11.813
▁Лаос	-11.813
▁Герман	-11.813
▁трымаў	-11.8134
▁Форд	-11.8135
▁веліч	-11.8137
▁Карон	-11.8138
▁ўсеагульны	-11.814
▁званіц	-11.8142
▁прафсаюз	-11.8144
▁раўнінны	-11.8144
▁Хадкевіч	-11.8144
▁біблейск	-11.8149
▁Варонеж	-11.8149
▁пералік	-11.815
▁тропіка	-11.8151
віл	-11.8152
▁ісламскі	-11.8153
▁імкнул	-11.8154
▁тонкім	-11.8155
▁згарэ	-11.8162
▁стабільнасц	-11.8164
ысці	-11.8166
▁фрэск	-11.8166
ведзена	-11.8168
оўск	-11.8172
▁малюнкам	-11.8172
▁поласц	-11.8172
▁неад	-11.8173
▁інспектара	-11.8177
актаў	-11.8186
▁Уво	-11.8187
цэнтры	-11.8189
▁Хас	-11.8192
▁сфармулява	-11.8193
▁паступлення	-11.8194
▁Шы	-11.8197
▁Сун	-11.82
▁Баранавіцкі	-11.8202
▁тэкс	-11.8205
▁экіпажа	-11.8211
▁сведчанне	-11.8212
▁Крыніца	-11.8215
▁месцазнаходжанн	-11.8216
▁падыходзі	-11.822
▁сфарміравалі	-11.822
▁купалам	-11.8222
▁Галуб	-11.8223
▁узвышш	-11.8223
▁Палта	-11.8225
глыб	-11.8226
арла	-11.8226
віча	-11.8227
іста	-11.8227
▁Мсціслава	-11.8229
▁нацыст	-11.8236
лейтэнант	-11.8237
▁суправаджаў	-11.8238
▁рай	-11.8239
▁сховішча	-11.824
▁арганізатарам	-11.8241
ыпламатычны	-11.8241
▁Веласкес	-11.8242
▁Заменгоф	-11.8242
▁Максвел	-11.8242
▁манументальны	-11.8242
▁пазбяга	-11.8242
▁пранікненн	-11.8242
▁прыгнёт	-11.8242
▁рознагалосс	-11.8242
▁саманазв	-11.8242
▁аўдыторы	-11.8242
▁змянша	-11.8242
▁мемуара	-11.8242
▁страчана	-11.8242
▁імклів	-11.8242
▁пераезд	-11.8242
▁Валода	-11.8242
▁падвойна	-11.8242
▁Зеўс	-11.8242
▁цукрова	-11.8242
▁Меркава	-11.8243
▁праверк	-11.8244
будаванне	-11.8244
▁валун	-11.8245
▁Правіл	-11.8247
▁княжацкі	-11.8247
▁эсперантыст	-11.8248
▁Панам	-11.8248
▁падмур	-11.8249
▁аўтобусны	-11.825
▁Вера	-11.8253
▁упрыгожаны	-11.8254
▁пяхотны	-11.8257
▁пласцінк	-11.8257
▁буд	-11.8258
▁рэчк	-11.826
▁неабходным	-11.826
▁Дзед	-11.826
годдзя	-11.8263
▁Цар	-11.8264
▁бульба	-11.8266
▁ўраўненн	-11.8268
▁Якуб	-11.8273
тварыў	-11.8274
▁Вішнявецк	-11.8275
▁камуністычн	-11.8278
Венгрыя	-11.8281
▁акупіравана	-11.8288
менна	-11.8289
▁вірус	-11.8298
▁мэра	-11.8299
▁узаемадзеяння	-11.83
▁паўстанцам	-11.8302
▁пераходзіл	-11.8302
▁аднайменн	-11.8303
▁нязначна	-11.8303
▁дысцыпліна	-11.8304
▁запатрабавал	-11.8306
▁Трох	-11.8307
▁разбурыл	-11.8309
▁пераходзя	-11.8315
▁гаван	-11.8325
▁абмежаванн	-11.8328
▁ахова	-11.8331
▁стадыёна	-11.8333
▁адлюстраванн	-11.8337
▁жылым	-11.8337
▁падкрэслі	-11.8339
▁ўраўнення	-11.8339
жыта	-11.8339
▁скура	-11.8341
▁Ром	-11.8342
▁мужчынск	-11.8351
▁постац	-11.8351
▁пладо	-11.8356
▁крыжакам	-11.8357
▁апрацоўка	-11.8357
заду	-11.8358
▁заняцц	-11.8358
▁вярхоўя	-11.8364
ахвотна	-11.8364
▁зараснік	-11.8365
▁рэгулюе	-11.8365
▁Антверпен	-11.8365
▁Тэкст	-11.8365
▁бамбардзіра	-11.8365
▁вернута	-11.8365
▁кінематограф	-11.8365
▁скарочаны	-11.8365
▁суправаджэнн	-11.8365
▁акружана	-11.8365
▁аналітычн	-11.8365
▁Эдынбург	-11.8365
▁бытаво	-11.8365
▁мёд	-11.8365
▁безумоўна	-11.8365
▁Адносна	-11.8365
▁Абарон	-11.8365
▁глабальна	-11.8366
▁ўжывалі	-11.8366
▁дэкад	-11.8366
▁вырашэнне	-11.8366
▁гарызантальна	-11.8366
▁Ліван	-11.8366
▁аўто	-11.8367
▁ўзята	-11.8367
▁Сямёнавіч	-11.8367
▁Высоцк	-11.8368
▁тэхнічным	-11.8369
▁манг	-11.8369
▁раненн	-11.837
▁базава	-11.837
▁губляе	-11.837
▁масавым	-11.8372
абраны	-11.8372
▁даследвання	-11.8373
трыманне	-11.8374
▁лодка	-11.8375
▁Ашмян	-11.8376
▁Гендэл	-11.8377
рэктарам	-11.8377
▁радаво	-11.8378
▁этапа	-11.8379
▁палякам	-11.8382
▁Дуб	-11.8383
▁Міжзем	-11.8385
▁земск	-11.8385
▁натуральн	-11.8387
агі	-11.8388
▁гару	-11.8389
▁адказвае	-11.8389
▁Асамбле	-11.8394
ніі	-11.8395
▁Змен	-11.8406
▁храмам	-11.8406
▁планаванн	-11.8406
антэ	-11.841
▁публікацыя	-11.8413
рамі	-11.8415
▁яркасц	-11.8418
▁прададзены	-11.8419
павярховы	-11.8421
▁330	-11.8421
▁трохвугольнік	-11.8422
абрала	-11.8423
▁мяняе	-11.8423
▁юнак	-11.8424
▁залівам	-11.8427
▁Гай	-11.8427
▁дамові	-11.8428
▁усталяваў	-11.8429
нта	-11.843
▁воінска	-11.843
▁Турав	-11.8431
▁чвэрць	-11.8431
▁палацава	-11.8432
▁земляны	-11.8433
▁змяненн	-11.8438
▁моцн	-11.8438
шка	-11.8439
▁сучасніка	-11.8444
▁Ленінскі	-11.8445
▁Слюдзянк	-11.8447
▁Маа	-11.8449
▁адпраўляе	-11.8449
▁ездам	-11.8453
▁Нясвіжскі	-11.8454
▁пакідаю	-11.8464
▁рэалізаван	-11.8466
▁друк	-11.8466
▁град	-11.8467
▁этнічн	-11.8468
▁лев	-11.847
▁Смаленску	-11.847
▁аўстрыйск	-11.8474
▁асвечан	-11.8475
▁адменены	-11.8476
▁Ар	-11.8479
▁сабралі	-11.8482
чыны	-11.8486
▁Украінскі	-11.8487
▁ўзыходз	-11.8488
драэлектрастанцы	-11.849
▁Жука	-11.849
▁Кеплер	-11.849
▁Ляшчынск	-11.849
▁Трансільвані	-11.849
▁аргенцінск	-11.849
▁кінастуды	-11.849
▁памежна	-11.849
▁панядзел	-11.849
▁подзвіг	-11.849
▁прэзідыум	-11.849
▁роднасны	-11.849
▁сінонім	-11.849
▁Маладняк	-11.849
▁калідор	-11.849
▁рамантычна	-11.849
▁могільнік	-11.849
▁антысавецк	-11.849
▁умерана	-11.849
▁канадска	-11.849
▁Чэрчыл	-11.849
▁Ефрасінн	-11.849
▁трыснёг	-11.849
▁Тутмос	-11.849
▁вылет	-11.849
▁Ямайк	-11.8491
▁вывез	-11.8491
▁датаваны	-11.8492
іраўніцтва	-11.8493
▁абслугоўванне	-11.8494
▁рэйх	-11.8495
▁далучэнне	-11.8498
▁ледавіковы	-11.8499
▁Папу	-11.8499
▁Выбран	-11.8501
▁гавор	-11.8505
▁прытулк	-11.8505
▁урачо	-11.851
▁прадстаўляю	-11.8512
▁ганенн	-11.8519
▁ледавікова	-11.852
▁мядзведз	-11.8521
▁княгін	-11.8522
▁Тышкевіча	-11.8524
▁Дамініка	-11.853
▁добраахвотніка	-11.853
кавы	-11.8534
▁віла	-11.8538
▁працэсам	-11.854
▁фунт	-11.8542
▁луга	-11.8542
▁адлюстрава	-11.8542
▁надзвычайны	-11.8545
▁Харкаўска	-11.8545
тара	-11.8547
▁дошк	-11.8549
стве	-11.8551
▁цікава	-11.8552
▁Сямёна	-11.8554
▁факты	-11.8555
▁паданне	-11.8557
▁пакара	-11.8557
▁муніцыпальна	-11.8562
▁прадмов	-11.8566
▁тыпова	-11.8566
ардо	-11.8566
▁сфарміраваў	-11.8567
▁320	-11.8567
▁Пачала	-11.8571
часна	-11.8574
▁гісторыкам	-11.8576
▁Духа	-11.8578
▁суседзя	-11.8579
▁легіёна	-11.8579
▁падкрэсліва	-11.858
▁тура	-11.8581
▁распаўсюджвал	-11.8584
▁княгіня	-11.8585
Пецярбургска	-11.8587
▁Асамблея	-11.8588
дра	-11.859
▁маршала	-11.8591
уан	-11.8592
жыванне	-11.8596
▁Харватыя	-11.8598
▁радк	-11.8599
▁рог	-11.86
▁радыуса	-11.86
малёўк	-11.86
▁кантынен	-11.8603
пор	-11.8605
▁калектыўны	-11.8616
▁надавала	-11.8616
▁Актыўны	-11.8617
▁Зальцбург	-11.8617
▁Кыргызстан	-11.8617
▁Някляе	-11.8617
▁Салжаніцын	-11.8617
▁беспазваночны	-11.8617
▁профіл	-11.8617
▁інфляцы	-11.8617
▁Адукацы	-11.8617
▁Гегел	-11.8617
▁амністы	-11.8617
▁падскарбі	-11.8617
▁навел	-11.8617
▁публіцыстычны	-11.8617
▁прамежкавы	-11.8617
▁разьб	-11.8617
▁Белшын	-11.8617
▁разгромлен	-11.8617
ысун	-11.8617
▁паменшы	-11.8617
▁мембран	-11.8617
▁Васільевіч	-11.8618
▁пёр	-11.8618
▁Дзмітрыевіч	-11.8618
▁Ковенска	-11.8618
▁апрацоў	-11.8619
▁спыняе	-11.8619
▁абрыв	-11.8621
▁генетычны	-11.8622
▁Крупск	-11.8623
▁часавы	-11.8624
▁заклікал	-11.8625
▁насуп	-11.8625
▁сцэна	-11.8625
▁ведамства	-11.8626
▁пахавана	-11.8627
▁губ	-11.8629
йскі	-11.8629
▁Курска	-11.8631
▁атрымае	-11.8632
▁квадрат	-11.8636
▁палажэння	-11.8637
▁царск	-11.8637
▁сфармава	-11.8638
▁Візантыя	-11.8641
▁ані	-11.8642
▁Выця	-11.8644
▁адказным	-11.8646
▁ўзроўня	-11.8647
▁адмов	-11.8647
крылы	-11.8649
▁запушчан	-11.865
▁частат	-11.8652
▁вывяржэнн	-11.8652
пена	-11.8656
▁ўсходн	-11.8657
▁Маладзечанск	-11.8664
▁хлеб	-11.8665
▁Пярэдня	-11.867
ліны	-11.8673
▁дама	-11.8675
▁завяршэнн	-11.8676
▁планам	-11.8677
лічваю	-11.8677
▁гарадзішч	-11.8677
онцы	-11.8681
▁балгар	-11.8682
▁духоўным	-11.8682
матэматычны	-11.8684
▁Давыд	-11.8685
▁гітлераўца	-11.8686
начы	-11.8688
▁Раз	-11.8693
▁залу	-11.8694
▁дацэнта	-11.8695
▁сістэматычна	-11.8695
▁плыня	-11.8695
▁цыкла	-11.8696
шэ	-11.8701
▁Паселішч	-11.8703
▁экс	-11.8705
▁Венгерска	-11.8705
▁смяротнасц	-11.8706
▁садоў	-11.8707
▁старэйш	-11.8708
▁дайшоў	-11.8709
▁лён	-11.8709
▁Вішнявецкі	-11.871
▁вярхоўны	-11.8712
▁заключыл	-11.8713
▁пляц	-11.8714
▁зуб	-11.8715
▁рэгіёнам	-11.8718
▁сустрэлі	-11.872
▁праяўляе	-11.873
▁герцагам	-11.8731
▁Чарльз	-11.8732
▁асаблівасця	-11.8734
▁Тэўтонскі	-11.8735
▁меншыя	-11.8735
▁ўтвара	-11.8738
▁ужываю	-11.8743
▁Усевалад	-11.8743
▁камсамол	-11.8744
▁Адміністрацы	-11.8745
▁Андропа	-11.8745
▁Познан	-11.8745
▁Энцыклапеды	-11.8745
▁асіміляцы	-11.8745
▁батарэ	-11.8745
▁збліжэнн	-11.8745
▁няправільна	-11.8745
▁старадаўня	-11.8745
▁тэлеграм	-11.8745
▁Прынцып	-11.8745
▁Дарвін	-11.8745
▁зможа	-11.8745
▁псіхалагічны	-11.8745
▁Сінод	-11.8745
▁Гамбі	-11.8745
▁Гаус	-11.8746
йтэ	-11.8746
▁інжынерам	-11.8746
▁Інтэрнацыянал	-11.8747
▁Пасад	-11.875
▁Глуск	-11.875
▁слых	-11.8751
▁распаўсюдзі	-11.8751
▁рухома	-11.8752
▁папулярызацы	-11.8752
▁плада	-11.8752
▁пралів	-11.8753
▁адбіла	-11.8753
▁Хар	-11.8754
▁сабрана	-11.8755
▁нот	-11.8755
▁выдаленн	-11.8758
▁Луар	-11.8758
▁Сок	-11.8764
оса	-11.8764
▁ядр	-11.8764
▁Паштовы	-11.8765
оўны	-11.8766
▁далучылі	-11.8767
▁аналагічна	-11.8769
▁Спартак	-11.8773
▁накіравалі	-11.8776
▁Альбо	-11.8777
▁цёмным	-11.8778
граў	-11.8779
▁Чапск	-11.878
▁крытэры	-11.8781
▁беларусам	-11.8782
▁вуш	-11.8784
▁жывапісе	-11.8786
▁шары	-11.8786
▁Судан	-11.879
▁пагорк	-11.8791
▁розніц	-11.8794
ia	-11.8795
▁царкоўным	-11.8797
▁працуючы	-11.8797
▁партнёрам	-11.8799
▁экалагічна	-11.88
▁Галіцы	-11.8807
тылі	-11.8809
▁факта	-11.8809
▁жанчынам	-11.881
▁гонк	-11.8812
▁колькасна	-11.8813
▁злачынств	-11.8813
ЦР	-11.8816
▁ўключэнн	-11.8816
▁кабінета	-11.8817
▁ўспаміна	-11.8818
▁канцо	-11.8819
▁адміністратара	-11.882
▁змене	-11.8821
▁ўсеагульна	-11.8823
перша	-11.8827
▁суп	-11.8828
▁інтэнсіўнасц	-11.8832
▁брамнік	-11.8832
▁журналіста	-11.8833
▁павіннасц	-11.8838
▁рэдкім	-11.8844
▁маста	-11.8849
▁уварва	-11.8852
▁дыс	-11.8856
▁фармац	-11.8856
▁абутк	-11.8856
▁падпісанне	-11.8858
▁Іспанска	-11.8859
▁планіроўка	-11.8861
▁клетка	-11.8863
▁выкана	-11.8866
▁Пскоў	-11.8873
▁веравання	-11.8873
pan	-11.8875
▁фармат	-11.8875
▁шэдэўр	-11.8875
▁Бранісла	-11.8875
▁Вергілі	-11.8875
▁Дакумент	-11.8875
▁Дружб	-11.8875
▁Паўнамоцны	-11.8875
▁Пенсільвані	-11.8875
▁апалчэнн	-11.8875
▁барочны	-11.8875
▁канфесі	-11.8875
▁малдаўск	-11.8875
▁методык	-11.8875
▁прыпісваюц	-11.8875
▁эрозі	-11.8875
▁ірландскі	-11.8875
▁Фелікс	-11.8875
▁зрыну	-11.8875
▁плаўнік	-11.8875
▁вынаходнік	-11.8875
▁гумар	-11.8875
▁радыяцы	-11.8875
▁напрык	-11.8875
▁землетрасенне	-11.8877
▁садзе	-11.8877
▁этык	-11.8877
▁платформа	-11.8878
▁модул	-11.8879
▁пракладзен	-11.888
▁масав	-11.888
▁рэнесанс	-11.888
▁падаў	-11.888
▁змяшчала	-11.8884
прэзідэнта	-11.8886
завод	-11.8886
▁Сірыя	-11.8886
▁шкло	-11.8888
▁геалагічна	-11.8889
▁прыпын	-11.8891
▁Прамыслова	-11.8894
▁Балканск	-11.8897
бел	-11.8902
▁ўзбраення	-11.8904
▁мацерыкова	-11.8906
▁тканк	-11.8906
▁арганізацыйна	-11.8909
▁здавал	-11.891
▁ізраільскі	-11.8912
▁Падляшш	-11.8914
▁Чэхія	-11.8915
▁прадстаўленн	-11.8916
▁фінальн	-11.8921
ft	-11.8921
usi	-11.8922
▁ледавіко	-11.8923
▁зніжэнне	-11.8923
▁плён	-11.8924
▁нацыста	-11.8927
▁Каль	-11.8927
▁кампазітарам	-11.8928
▁абалонка	-11.893
ыкарыстанне	-11.8932
▁гродзенск	-11.8933
▁выканаўца	-11.8937
▁знакамітым	-11.8938
▁статута	-11.894
▁лірык	-11.894
▁ўступа	-11.8947
▁падарожж	-11.8949
▁аперацыйны	-11.895
▁тэлескопа	-11.895
▁07	-11.8951
▁правал	-11.8952
ыбу	-11.8952
браны	-11.8953
▁супярэчы	-11.8958
▁шахматы	-11.8959
▁інтарэсам	-11.896
▁Глінскі	-11.896
▁спрэчны	-11.8962
▁Арагон	-11.8962
▁копія	-11.8964
▁Раслін	-11.8965
▁спыненне	-11.897
▁выдавецк	-11.897
▁трамвайна	-11.8971
▁царкоўн	-11.8974
и	-11.8974
▁аптычны	-11.8974
▁класік	-11.8975
▁знік	-11.8976
▁пераназвана	-11.8979
▁дэмакратычн	-11.8981
▁вершаваны	-11.8982
ІІ	-11.8983
▁бяроза	-11.8984
▁ўпрыгожванн	-11.8984
▁чэшск	-11.8986
▁бача	-11.8987
▁дамов	-11.8993
▁мэ	-11.8997
▁неза	-11.8998
▁гадава	-11.9005
▁Гватэмал	-11.9006
▁Жытомір	-11.9006
▁Мадонн	-11.9006
▁Энгельс	-11.9006
▁прыпісвае	-11.9006
▁рэцэнзі	-11.9006
▁суквецц	-11.9006
▁фармальны	-11.9006
▁іерогліф	-11.9006
▁Ламаноса	-11.9006
▁галандц	-11.9006
▁тэрор	-11.9006
▁Геранім	-11.9006
сервер	-11.9006
▁Арабска	-11.9007
▁вучан	-11.9007
▁сарака	-11.9007
▁Валгаград	-11.9007
▁прыляга	-11.9007
▁журналістам	-11.9008
▁ліберальна	-11.9008
▁Пціч	-11.9009
▁кавалерыйска	-11.9009
▁змяшаны	-11.901
▁Цвіце	-11.9011
▁печан	-11.9012
▁пяско	-11.9012
▁Кандрат	-11.9012
▁пражск	-11.9014
▁Друцк	-11.9016
▁Пярсцёнка	-11.9018
▁выдала	-11.9018
▁вобраза	-11.902
▁звярнул	-11.9021
▁Запіс	-11.9022
▁бяроз	-11.9023
▁ніжэйша	-11.9024
ябе	-11.9025
▁Сант	-11.9025
▁блакітным	-11.9025
▁ствараў	-11.9025
▁абмяжоўвае	-11.9026
▁абяцанн	-11.9027
▁народжаны	-11.9029
▁свін	-11.9031
▁дакладнасці	-11.9032
▁вызначыла	-11.9033
▁ствараючы	-11.9033
▁Ашмянск	-11.9034
раўна	-11.9035
▁падобн	-11.9036
▁уніяцка	-11.9038
▁іспанцам	-11.9039
▁Аман	-11.9043
▁пачуцц	-11.9044
▁базавы	-11.9045
▁авеч	-11.9047
▁фестываля	-11.9047
▁пагадненн	-11.9051
▁канцэртна	-11.9051
▁вытрымаў	-11.9056
▁Оксфард	-11.9057
▁Дзісн	-11.9061
▁Мура	-11.9062
▁негатыўна	-11.9062
▁трое	-11.9066
▁замяні	-11.9067
▁каланіст	-11.9068
▁Абу	-11.9068
меры	-11.9071
▁падмурка	-11.9072
▁падмурк	-11.9072
▁перакладалі	-11.9073
памінае	-11.9074
лічаны	-11.9075
▁агня	-11.9076
▁спалучае	-11.9078
▁Пачатков	-11.9081
▁Шчы	-11.9091
трэ	-11.9093
▁печы	-11.9094
▁апазіцыйны	-11.9097
▁сучаснасц	-11.9102
▁калісь	-11.9109
▁нів	-11.9109
▁Джо	-11.911
▁ўтрымліваюц	-11.911
▁звер	-11.9119
▁выключэння	-11.9122
▁жорсткасц	-11.9123
▁Барбар	-11.9126
▁малад	-11.9128
енцы	-11.913
▁лісто	-11.913
▁Лік	-11.9133
▁мужчына	-11.9134
баха	-11.9134
▁ісп	-11.9134
онаў	-11.9136
▁забаранял	-11.9138
▁структурны	-11.9139
▁Брачысла	-11.914
▁штурш	-11.914
·	-11.914
Марцінкевіч	-11.914
▁Інакенці	-11.914
▁Войшалк	-11.914
▁Малайзі	-11.914
▁атрыбут	-11.914
▁бясплатна	-11.914
▁мемуары	-11.914
▁нябожчыка	-11.914
▁Адмірал	-11.914
▁чэрап	-11.914
▁сааўтар	-11.914
ing	-11.914
▁Наркама	-11.914
▁туманнасц	-11.914
▁Дунін	-11.914
▁каардынацы	-11.914
шай	-11.9141
▁гукавы	-11.9141
▁суправаджалі	-11.9141
▁фантан	-11.9142
▁родавы	-11.9142
▁трапляюц	-11.9144
▁Антар	-11.9145
▁падняў	-11.9145
▁даруч	-11.9145
▁прыехал	-11.9146
▁рэлігій	-11.915
▁акцыянерна	-11.9151
▁пастаноўка	-11.9152
▁Альфрэд	-11.9152
▁ахвяраванн	-11.9159
▁бук	-11.9162
▁лейтэнанта	-11.9164
▁маленькім	-11.9164
палов	-11.9164
▁дазвалял	-11.9167
▁ладзі	-11.917
▁ўзмацні	-11.917
▁праграмны	-11.9171
▁Парэ	-11.9175
▁прэтэндава	-11.9177
элс	-11.9177
▁падач	-11.9178
▁прынцэса	-11.9179
▁Танк	-11.918
▁атакавал	-11.9181
▁музейны	-11.9181
▁Лясн	-11.9184
▁Аўстралійск	-11.9184
▁міфалагічны	-11.9185
▁рота	-11.9185
▁сцэнары	-11.9187
▁Аркты	-11.9187
▁паўстанцкі	-11.9194
▁наймення	-11.92
▁юрыдычн	-11.9203
▁раздзеле	-11.9203
▁перашкодзіл	-11.9206
▁трохвугольніка	-11.9214
▁прададзен	-11.9218
▁абавязковым	-11.9223
▁паэты	-11.9224
казі	-11.9225
гукаў	-11.9225
▁сцэнарыя	-11.9226
яжы	-11.9227
▁ператварэння	-11.9229
▁гуч	-11.9231
стры	-11.9232
пра	-11.9237
▁Карпат	-11.9243
▁вызначылі	-11.9243
▁распа	-11.9243
▁парастк	-11.9249
▁Захар	-11.9249
▁сутычк	-11.925
ўтварэнне	-11.9252
▁намесні	-11.9254
▁адлюстроўва	-11.9256
▁Баранавіча	-11.9257
▁спор	-11.9259
▁могіл	-11.9264
▁лячэнне	-11.9264
▁дэманстру	-11.9271
▁Балясла	-11.9272
▁юрыст	-11.9272
лічэння	-11.9273
▁супраціў	-11.9274
▁рытуал	-11.9275
Балаховіч	-11.9275
▁Антыльскі	-11.9275
▁Камінтэрн	-11.9275
▁Рэмбрант	-11.9275
▁Урбан	-11.9275
▁Цімафе	-11.9275
▁абстрэл	-11.9275
▁анатомі	-11.9275
▁бровар	-11.9275
▁біяхімі	-11.9275
▁пажыццёва	-11.9275
▁перасячэнн	-11.9275
▁фалькларыст	-11.9275
▁фантастычны	-11.9275
скончаны	-11.9275
▁Брэжне	-11.9275
▁мудрасц	-11.9275
▁дактрын	-11.9275
▁спраектава	-11.9275
▁тытун	-11.9275
▁рацыён	-11.9275
шчына	-11.9275
▁Севіль	-11.9275
▁фермент	-11.9275
▁вінаваты	-11.9275
▁Трыстан	-11.9275
найстаражытнейшы	-11.9275
▁мошч	-11.9275
▁Расцісла	-11.9275
▁баскетбольн	-11.9277
▁Крыл	-11.9278
▁МД	-11.9278
▁ніша	-11.9279
▁Рыгоравіч	-11.9279
▁камяня	-11.928
▁Go	-11.928
▁Наступна	-11.928
▁апек	-11.9281
▁цырк	-11.9282
▁самастойным	-11.9283
эў	-11.9284
▁Хуана	-11.9284
▁багіня	-11.9286
▁пагражал	-11.9287
▁аказанн	-11.9287
▁завяшчанн	-11.9289
▁нейк	-11.9289
▁тайна	-11.929
▁разумеюць	-11.9292
▁убачыў	-11.9292
ёлаг	-11.9293
▁прыродн	-11.9294
▁друкавала	-11.9294
▁пляменніка	-11.9296
▁нядаўн	-11.9296
▁шасц	-11.9298
▁разабран	-11.93
▁Лідар	-11.9301
▁Важны	-11.9301
▁абвяшчэнне	-11.9302
▁Жывёл	-11.9303
▁Слонімскі	-11.9305
▁08	-11.9309
▁прававо	-11.9314
▁ваява	-11.9315
▁лінейна	-11.9317
▁ін	-11.932
▁куб	-11.9324
▁Усяслав	-11.9326
▁распрацоўвае	-11.9326
▁Давіда	-11.9326
здольн	-11.9332
▁магутн	-11.9334
▁Жанн	-11.9334
▁магістраль	-11.9335
▁скляпення	-11.9337
▁вытанчаны	-11.9338
▁грэч	-11.934
пера	-11.9342
▁кампазіцый	-11.9342
▁скрыпк	-11.9344
▁ляжал	-11.9345
▁патрыятычны	-11.9346
▁арыентава	-11.9347
▁прыстасаванн	-11.9349
▁ўстойліва	-11.9354
▁гонка	-11.9356
Еўрапейск	-11.9358
▁гарад	-11.9358
▁Дата	-11.936
▁Дзейнічал	-11.936
▁політэхнічны	-11.9361
▁невядомым	-11.9362
▁сл	-11.9366
▁адда	-11.9366
біліс	-11.9367
▁заваяван	-11.9368
▁заданне	-11.9371
▁ўстаноўк	-11.9372
▁запрасіл	-11.9372
▁парыжскі	-11.9374
▁апуска	-11.9384
▁служэнн	-11.9387
яўлена	-11.9387
▁Універсітэ	-11.9388
ьнай	-11.9391
▁Нараджэнн	-11.9393
▁пісьмен	-11.9393
▁Прыбалтык	-11.9395
▁авіяцыйна	-11.9397
▁арганізацыйны	-11.9397
▁падкрэслівае	-11.9398
▁пласты	-11.9398
▁Асаблів	-11.9399
▁наступленн	-11.94
згарэла	-11.9401
▁пратэстанты	-11.9402
▁страва	-11.9407
▁арэх	-11.9408
▁пастаноў	-11.9408
▁водным	-11.941
распект	-11.941
▁мовазна	-11.941
▁Фрунз	-11.9412
▁беспарадк	-11.9412
▁Валенсі	-11.9412
▁Мічыган	-11.9412
▁Рубенс	-11.9412
▁Свіслацк	-11.9412
▁Утварае	-11.9412
▁вясковы	-11.9412
▁задавальня	-11.9412
▁мітраполі	-11.9412
▁патэнт	-11.9412
▁рэзананс	-11.9412
▁фашызм	-11.9412
▁лакальны	-11.9412
▁Камуна	-11.9412
▁Uni	-11.9412
▁дактар	-11.9412
▁гнязду	-11.9412
▁фота	-11.9412
▁Унутрана	-11.9413
▁саліст	-11.9413
▁гадавін	-11.9416
▁Цяг	-11.9416
▁бука	-11.942
▁Мастак	-11.942
▁дубл	-11.9421
▁драматургі	-11.9422
▁супрацьстая	-11.9423
▁выканал	-11.9424
▁інфармацыйна	-11.9425
▁адступіл	-11.9427
▁фальклорны	-11.9427
▁пабыва	-11.943
▁трона	-11.9431
▁кветкавы	-11.9431
▁папск	-11.9431
метра	-11.9435
▁вылучана	-11.9438
эс	-11.9438
▁ветэрана	-11.9438
значна	-11.944
▁гора	-11.9441
Марын	-11.9445
▁належыл	-11.9447
▁пазнача	-11.9449
▁Гену	-11.9452
▁жаноч	-11.9454
▁Пары	-11.9455
▁акруговы	-11.9459
▁Рудольфа	-11.946
▁прыродным	-11.9461
▁касмічн	-11.9468
▁афрыканск	-11.9469
▁Наталля	-11.9469
wa	-11.9474
▁залічан	-11.9475
▁ёмістасц	-11.9476
▁карніз	-11.9476
▁Калумба	-11.948
▁al	-11.948
▁Элізаб	-11.9481
▁фю	-11.9482
▁Даме	-11.9483
▁Маце	-11.9487
▁Варонежска	-11.9494
▁чакаць	-11.9495
▁пастаянным	-11.9495
▁пашкоджанн	-11.9495
▁камандны	-11.9496
▁Альгерд	-11.9496
▁продкам	-11.9497
▁васалам	-11.9499
БелА	-11.95
▁Краснадарск	-11.95
▁супрацьлеглы	-11.9507
аконным	-11.9509
▁лінгвіст	-11.9509
▁горным	-11.9511
▁Чартарыйскі	-11.9511
▁серыяла	-11.9515
▁згулял	-11.9515
▁перакана	-11.9515
▁Сафія	-11.9518
▁апазіцыя	-11.9519
▁аказвал	-11.9524
▁Кіру	-11.9524
▁Браўн	-11.9527
▁парады	-11.9528
▁Прэзідыум	-11.9528
тэка	-11.9529
▁вонкавым	-11.9531
▁пасл	-11.9535
АЭ	-11.9536
▁востр	-11.9536
▁апора	-11.9538
▁іграка	-11.9539
▁шведск	-11.9542
▁Гадав	-11.9543
▁першасны	-11.9543
Майн	-11.9544
анка	-11.9544
▁Раду	-11.9547
▁рэш	-11.955
▁Архімед	-11.9551
▁Нарач	-11.9551
▁Сіротк	-11.9551
▁арфаграфі	-11.9551
▁астранамічна	-11.9551
▁географ	-11.9551
▁тэктанічны	-11.9551
▁інструктар	-11.9551
▁вакуум	-11.9551
▁народжана	-11.9551
▁салёна	-11.9551
▁ўзвыша	-11.9551
▁Кнуд	-11.9551
▁Унутраны	-11.9551
▁дастаўлен	-11.9551
▁нацыяналіста	-11.9551
▁зручны	-11.9551
▁Арсенал	-11.9551
▁індустрыяльн	-11.9551
араў	-11.9552
▁прадухіленн	-11.9552
▁мужчынам	-11.9552
▁Можа	-11.9552
▁замяніл	-11.9552
▁карычневы	-11.9552
▁фізічным	-11.9554
▁Доўга	-11.9554
▁ўладар	-11.9556
▁позн	-11.9556
▁амерыканск	-11.9557
▁Дзікі	-11.9558
▁перапынкам	-11.9559
▁шанц	-11.9561
▁лап	-11.9561
ліні	-11.9572
▁Пераклад	-11.9572
▁мабілізацы	-11.9572
▁яднала	-11.9574
▁вылучыла	-11.9575
паў	-11.9575
▁Сві	-11.9579
▁стэр	-11.9579
▁Бра	-11.9581
▁пачу	-11.9581
льніцтв	-11.9585
▁падня	-11.9585
▁хірургі	-11.9589
▁шчы	-11.9589
гварды	-11.9589
▁баярын	-11.9591
▁сухот	-11.9593
▁Іо	-11.9595
Францыск	-11.9595
▁Гімалая	-11.9597
▁прыстан	-11.9597
▁пераўтварэнн	-11.9601
аса	-11.9602
▁Лепельскі	-11.9602
яўнасц	-11.9603
▁выпраменьванне	-11.9603
▁пратока	-11.9604
▁сфармірава	-11.9605
▁сілку	-11.9605
▁сачыненн	-11.961
дай	-11.9611
▁Касі	-11.9614
▁валок	-11.9617
▁Дона	-11.9617
▁спецыяльным	-11.962
▁хацел	-11.9622
▁поўсц	-11.9628
▁квадратна	-11.9633
▁пераня	-11.9635
▁Славакія	-11.9635
▁Захава	-11.9636
нясе	-11.9641
▁Рудольф	-11.9643
▁цяжк	-11.9645
▁Адольфа	-11.9646
▁Гарад	-11.9658
▁каталікам	-11.9659
▁тарфян	-11.9661
▁Хадкевіча	-11.9663
▁завяршэнне	-11.9666
▁Джорджы	-11.9668
▁сваякам	-11.9668
▁класічным	-11.9669
▁молат	-11.9674
▁Іва	-11.9676
▁Пінскі	-11.9687
пушчаны	-11.969
▁характарыстыка	-11.9691
▁Асіры	-11.9692
▁Балонн	-11.9692
▁Канфедэрацы	-11.9692
▁Случ	-11.9692
▁Чарнаморск	-11.9692
▁армейск	-11.9692
▁здзяйсненн	-11.9692
▁нейтралітэт	-11.9692
▁нязменным	-11.9692
▁першабытн	-11.9692
▁ўзаемаадносін	-11.9692
ww	-11.9692
▁вымаўля	-11.9692
сантыметр	-11.9692
▁сумежны	-11.9692
▁камісарыят	-11.9692
▁попел	-11.9692
▁Буш	-11.9692
▁Пакінуў	-11.9692
▁засяроджан	-11.9692
▁Розны	-11.9693
▁пакет	-11.9693
▁падымае	-11.9694
▁соцен	-11.9695
▁бала	-11.9696
▁заўважан	-11.9696
▁Густава	-11.9696
▁Аркадз	-11.9696
▁стрыечны	-11.9697
▁валам	-11.9697
▁шанаванн	-11.9698
▁вікінг	-11.9704
▁роўным	-11.9704
▁Няма	-11.9705
▁уво	-11.9705
▁экалогі	-11.9706
▁вечны	-11.9706
▁Вада	-11.9708
▁бомб	-11.9708
▁Выходзі	-11.9708
▁пласта	-11.9711
▁Адрозніва	-11.9712
ета	-11.9713
▁надворн	-11.9713
▁змешаны	-11.9714
▁адхіленн	-11.9715
інер	-11.9718
раны	-11.9718
оні	-11.9719
▁ац	-11.9722
▁венецыянск	-11.9724
дзве	-11.9724
льна	-11.9725
▁сказал	-11.9727
▁друкавалі	-11.9728
▁электронік	-11.9729
▁салдатам	-11.9731
▁каф	-11.9733
▁хвойны	-11.9733
W	-11.9736
▁фактычны	-11.9737
фільм	-11.974
▁актам	-11.9742
▁хімічн	-11.9744
▁праёмам	-11.9745
▁папярэднік	-11.9747
▁ўбачыл	-11.9748
▁прыстасаваны	-11.975
▁кодэкс	-11.9751
▁забараніл	-11.9751
▁Ваўкавыскі	-11.9752
▁нядоўг	-11.9753
▁рова	-11.976
▁вучэнн	-11.976
▁класіфікацыя	-11.976
▁перакананн	-11.9763
▁інжынерна	-11.9765
▁парт	-11.9769
▁набыццё	-11.9776
▁працам	-11.9779
▁раскры	-11.9781
▁Лін	-11.9781
▁уласцівасця	-11.9782
▁спецыяльнасця	-11.9788
прача	-11.979
▁Кап	-11.979
▁17-	-11.9791
▁здымае	-11.9794
▁бул	-11.9796
▁лабараторыя	-11.9799
▁ператворан	-11.9799
▁цывілізацыя	-11.9803
ols	-11.9805
▁Куба	-11.9807
▁шукал	-11.9808
▁Неўск	-11.9809
▁асноў	-11.981
▁графств	-11.981
▁падзеле	-11.9814
▁пласцін	-11.9817
▁набыва	-11.9818
▁комплексны	-11.9825
▁di	-11.9826
▁змяшчаў	-11.9828
точна	-11.9831
▁паасоб	-11.9832
▁вострым	-11.9833
▁надзел	-11.9833
▁мемарыял	-11.9834
▁карэспандэнта	-11.9834
▁лагчын	-11.9834
ртэм	-11.9834
▁Герадот	-11.9834
▁Гільберт	-11.9834
▁Кёнігсберг	-11.9834
▁Наўгародска	-11.9834
▁Праблем	-11.9834
▁Стэн	-11.9834
▁зніжае	-11.9834
▁прэпарат	-11.9834
▁старажытнарымск	-11.9834
▁уражанне	-11.9834
▁згадванн	-11.9835
▁рэалістычн	-11.9835
▁кельцка	-11.9835
▁раўнд	-11.9835
▁акцэнт	-11.9835
▁Jo	-11.9835
▁Антант	-11.9835
▁Вылуча	-11.9838
▁выпускнік	-11.9839
▁ўладальнікам	-11.984
вое	-11.984
▁курганны	-11.9842
▁рэчаісны	-11.9842
▁папраўка	-11.9842
сіфікацы	-11.9842
▁літра	-11.9843
▁жывёльны	-11.9846
▁сфарміравана	-11.9846
▁Ельск	-11.9849
che	-11.9849
▁разыходз	-11.985
джэр	-11.9852
асольства	-11.9852
▁Уладзімірска	-11.9854
▁Склад	-11.9855
▁Эмі	-11.9855
▁абгрунтаванн	-11.986
▁акцёрск	-11.9861
▁Рыга	-11.9861
▁рэчывам	-11.9864
▁разв	-11.9865
▁стро	-11.9866
▁канкурэнта	-11.9867
галоўнакамандуюч	-11.9868
▁Арм	-11.9868
▁магістр	-11.9871
▁Гален	-11.9872
▁айчынн	-11.9876
рода	-11.9876
блога	-11.9877
▁ветра	-11.988
▁кава	-11.9883
▁намагання	-11.9887
▁вымаўленне	-11.9887
▁вызваленча	-11.9891
▁карыстал	-11.9892
▁чытача	-11.9893
▁ўпраўленн	-11.9893
▁Ілл	-11.9897
▁жывёла	-11.99
▁Лагойскі	-11.9902
▁немаўля	-11.9905
▁1870-	-11.9909
▁Траецка	-11.9912
▁канстытуцыйны	-11.9914
▁працоўным	-11.9917
▁фар	-11.9917
▁Валу	-11.992
▁Тураўска	-11.9921
▁запуск	-11.9924
▁жывапісца	-11.9925
▁сценк	-11.9927
▁залат	-11.9929
▁старшынства	-11.993
▁мінімальна	-11.9931
▁Македонск	-11.9932
▁Пілсудск	-11.9932
▁цёплым	-11.9933
▁Фінск	-11.9933
▁хад	-11.9933
▁віцебск	-11.9934
▁гульняво	-11.9939
▁сялі	-11.994
▁базіліка	-11.9942
▁валодання	-11.9948
▁госц	-11.9949
▁скліка	-11.995
▁Бру	-11.9952
▁чужы	-11.9952
▁прыгожа	-11.9957
▁дзюб	-11.9957
▁ідэалогія	-11.9957
яспек	-11.9959
▁тунэля	-11.9959
▁выказалі	-11.9959
▁кантынент	-11.9963
шчын	-11.9965
▁казацк	-11.9965
▁Абра	-11.9965
кончыў	-11.9965
▁працэнта	-11.9969
▁выйгра	-11.9969
▁сенат	-11.9969
▁сіметры	-11.9971
▁Балты	-11.9975
кульптар	-11.9976
▁ўсталявал	-11.9976
▁Галівуд	-11.9979
▁Абалон	-11.9979
▁Жаз	-11.9979
▁Квебек	-11.9979
▁Налічвае	-11.9979
▁Тызенгаўз	-11.9979
▁Феадосі	-11.9979
▁вечназялёны	-11.9979
▁высыл	-11.9979
▁множанн	-11.9979
▁прапаведава	-11.9979
▁салідарнасц	-11.9979
▁самавызначэнн	-11.9979
▁суфікс	-11.9979
▁трывалы	-11.9979
▁шыракалісты	-11.9979
▁інтэрфейс	-11.9979
▁Апалон	-11.9979
▁дашкольн	-11.9979
▁звод	-11.9979
▁рашуча	-11.9979
▁брэсцка	-11.9979
▁рэкаменду	-11.9979
▁Мухамед	-11.9979
▁настаяцел	-11.9979
▁раптоўна	-11.9979
▁рыначн	-11.998
▁Увараві	-11.998
▁Бостан	-11.998
▁выдзяляе	-11.998
▁гнездаванн	-11.998
▁дослед	-11.998
▁ракападобны	-11.9981
▁спадчынніка	-11.9981
▁рэкам	-11.9982
цекач	-11.9982
▁згада	-11.9983
троф	-11.9983
▁дар	-11.9985
▁арыстакратычн	-11.9985
▁Работ	-11.9988
унья	-11.9989
▁схаваны	-11.9991
эгіён	-11.9992
▁набажэнства	-11.9994
▁курфюрст	-11.9994
▁карыстальнік	-11.9997
▁каз	-11.9997
▁клад	-11.9997
Голь	-11.9998
▁асветнік	-11.9999
▁контур	-12.0002
менш	-12.0002
▁дакументальна	-12.0002
▁эпоха	-12.0005
▁рэканструяван	-12.0006
▁кірункам	-12.0008
умба	-12.0008
ёта	-12.0011
▁радасц	-12.0011
▁грудны	-12.0012
▁ператвара	-12.0013
▁Поў	-12.0015
▁перадавы	-12.0016
▁атмасфера	-12.0017
▁затрыма	-12.0017
▁Зноў	-12.002
▁серабр	-12.002
▁ланцуга	-12.0021
▁лесвіца	-12.0022
▁Галін	-12.0024
ошт	-12.0025
▁умоўна	-12.0025
▁Калінін	-12.0025
▁дык	-12.0026
▁раў	-12.0027
▁адзначыла	-12.0031
▁12,	-12.0031
▁ракет	-12.0037
▁каштоўным	-12.0037
▁арыфметык	-12.0039
▁Фор	-12.0039
▁Ваенн	-12.0039
замен	-12.004
▁тэлескоп	-12.0042
▁падпіса	-12.0044
▁Блакітны	-12.0045
▁Вольн	-12.0049
▁ліга	-12.0051
▁забяспечыл	-12.0052
▁абслугоўва	-12.0052
▁Шу	-12.0053
▁патрыярхат	-12.0053
▁перакладчыка	-12.0055
▁хацела	-12.0059
▁Гісторык	-12.006
▁вала	-12.0061
▁Хат	-12.0064
▁прызначыл	-12.0066
▁Кра	-12.007
▁вылучэнне	-12.0077
▁прэзідэн	-12.0077
▁Масачусе	-12.0078
▁адмаўляў	-12.0079
▁артылерыйскі	-12.0085
▁рабочым	-12.0087
▁Біблія	-12.009
▁балгарскі	-12.009
▁здзейснены	-12.0091
▁012	-12.0096
▁саветнік	-12.0099
▁беларускамоўны	-12.0101
▁Эн	-12.0104
▁ежа	-12.0105
▁разрабава	-12.0106
стр	-12.011
▁фірма	-12.0113
▁шчыльны	-12.0117
агдэбург	-12.0122
▁папярочн	-12.0123
▁пераносіц	-12.0124
шло	-12.0124
▁Вярнуў	-12.0124
ахта	-12.0126
▁паўзун	-12.0126
▁Award	-12.0126
▁Абуховіч	-12.0126
▁Адметна	-12.0126
▁Багемі	-12.0126
▁Віцебшчын	-12.0126
▁Дзюрэр	-12.0126
▁Славянскі	-12.0126
▁аксіём	-12.0126
▁дзяўчат	-12.0126
▁драпежны	-12.0126
▁маўзале	-12.0126
▁склеп	-12.0126
▁электрамагнітны	-12.0126
▁Петрапаўлаўск	-12.0126
▁бляск	-12.0126
▁Імкну	-12.0127
▁Бенгалі	-12.0127
▁асадкавы	-12.0127
▁Драздовіч	-12.0127
▁Дыск	-12.0127
▁сківіц	-12.0127
▁Яленск	-12.0127
▁адчувальны	-12.0127
▁астанк	-12.0127
▁кансерватыўна	-12.0127
▁адрачэнн	-12.0127
артэ	-12.0127
▁геолаг	-12.0127
▁насычан	-12.0128
▁здаров	-12.0129
▁сумнев	-12.0129
▁персанал	-12.0129
▁затрыманы	-12.0129
▁абвяшчае	-12.013
рэчы	-12.0131
▁бальшавіцк	-12.0131
▁380	-12.0132
▁дыферэнцыяльн	-12.0132
▁Бернард	-12.0137
▁цэх	-12.0137
▁друкаваў	-12.0138
▁даручы	-12.0138
▁румынска	-12.0141
▁Цім	-12.0142
▁заключана	-12.0143
▁Пе	-12.0144
▁справам	-12.0145
прост	-12.0145
▁індзейскі	-12.0146
▁выказала	-12.0148
матэрыяла	-12.0148
кало	-12.0149
▁40-	-12.0149
▁Пола	-12.015
▁дзюба	-12.0151
▁Крамл	-12.0153
▁заключы	-12.0154
▁Заслаў	-12.0156
▁хакеі	-12.0157
▁Падляска	-12.0157
▁ўчын	-12.0157
▁высакародны	-12.0158
▁слухачо	-12.016
намі	-12.0161
▁Рагачоўскі	-12.0161
▁эстэтык	-12.0162
▁Рычарда	-12.0162
▁афіцэрам	-12.0163
▁сял	-12.0165
▁Мірск	-12.0167
▁ужыванн	-12.0169
▁ўяві	-12.0171
▁здабывае	-12.0176
▁Непал	-12.0176
▁вызваліў	-12.018
▁пячора	-12.0181
▁публіку	-12.0184
льк	-12.0186
▁газава	-12.0192
▁пісар	-12.0195
▁аналаг	-12.0197
▁гітлераўц	-12.0201
▁легендарны	-12.0204
▁цяжарнасц	-12.0206
▁Маргарыта	-12.0207
▁лаўр	-12.0207
▁праяўля	-12.0208
года	-12.0209
▁пакідал	-12.021
▁Збор	-12.0211
▁працягл	-12.0212
▁выезд	-12.0213
▁вызвален	-12.0215
▁Багдана	-12.0216
▁народнасц	-12.0221
глядам	-12.0222
стан	-12.0225
▁гуманітарн	-12.0231
▁сведкам	-12.0234
▁Галоўн	-12.0235
▁сэр	-12.0235
▁Тышкевіч	-12.0236
▁Валянціна	-12.0237
▁дэпартамен	-12.0239
▁аздабленн	-12.0239
▁артылерыйска	-12.024
▁Vo	-12.0241
▁Кіраўск	-12.0241
▁Алтай	-12.0244
▁цяг	-12.0245
▁няўдалы	-12.0248
▁прыналеж	-12.0251
▁дрэв	-12.0257
ярэзінск	-12.0265
▁подпіса	-12.0267
▁архіўны	-12.027
▁вылічэння	-12.0271
▁Альбрэхта	-12.0273
омплекс	-12.0274
▁Мад	-12.0274
▁Рэспу	-12.0276
▁Напрык	-12.0276
▁Сцюарт	-12.0276
▁Аляхновіч	-12.0276
▁Амазонк	-12.0276
▁Скалісты	-12.0276
▁Фрэнсіс	-12.0276
▁алюміні	-12.0276
▁арганізуе	-12.0276
▁вестыбюл	-12.0276
▁дрэнны	-12.0276
▁кінематаграфі	-12.0276
▁ліберальны	-12.0276
▁мусон	-12.0276
▁псіхалагічна	-12.0276
▁тэлесерыял	-12.0276
▁Палітычны	-12.0276
▁цывільн	-12.0276
▁пажыўны	-12.0276
▁Традыцыйны	-12.0276
▁прайграў	-12.0276
▁італ	-12.0276
▁бульвар	-12.0276
▁празаічны	-12.0276
▁сцэнічн	-12.0277
▁Эльб	-12.0277
▁марэнны	-12.0277
ner	-12.0277
,6	-12.0277
▁Атлантык	-12.0277
▁святочны	-12.0278
▁Якаб	-12.0279
▁фінска	-12.0282
▁ідыш	-12.0282
▁Якаўле	-12.0282
▁калектыўн	-12.0282
▁конніц	-12.0286
чых	-12.0287
▁балад	-12.0288
▁Знаходзя	-12.0288
рання	-12.0289
▁прыбыва	-12.0291
▁цеплаво	-12.0292
▁малп	-12.0293
▁ўспрыма	-12.0295
▁нагрузк	-12.0295
▁манархам	-12.0296
▁Брама	-12.0296
эгі	-12.0297
[...]
