<unk>	0
<s>	0
</s>	0
<pad>	0
▁	-2.65693
▁,	-3.02169
▁.	-3.11553
і	-3.42176
я	-3.85666
ы	-4.08792
▁і	-4.09839
й	-4.17337
х	-4.2432
▁ў	-4.24625
у	-4.3375
▁з	-4.40197
а	-4.4972
(	-4.52508
▁)	-4.55158
е	-4.55285
▁—	-4.62738
▁на	-4.63304
▁у	-4.67489
ў	-4.69757
;	-4.78086
▁&	-4.83655
м	-4.95587
га	-5.07372
▁У	-5.08031
ць	-5.08695
«	-5.12079
▁»	-5.12434
цца	-5.17831
▁да	-5.4016
ot	-5.46823
qu	-5.4717
аў	-5.51827
▁па	-5.62289
зе	-5.66616
os	-5.68113
ap	-5.68601
ю	-5.70433
ь	-5.77448
▁ад	-5.82955
ай	-5.83328
▁год	-5.92226
ага	-5.954
▁не	-5.97692
ся	-6.00857
▁:	-6.03873
▁што	-6.05158
▁года	-6.05496
▁г	-6.06359
▁быў	-6.13906
ую	-6.16083
▁яго	-6.23604
▁як	-6.2636
▁за	-6.26936
-	-6.3318
▁так	-6.3538
для	-6.37055
▁З	-6.40457
сама	-6.43642
▁а	-6.47935
ўся	-6.49233
▁На	-6.53315
5	-6.53384
▁час	-6.54811
▁якія	-6.56935
7	-6.57568
▁гэта	-6.59214
▁які	-6.59661
1	-6.60227
4	-6.62221
3	-6.64614
ак	-6.65065
6	-6.66685
оў	-6.6834
▁аб	-6.70228
2	-6.72989
▁была	-6.74912
8	-6.75428
▁пад	-6.75859
9	-6.76359
былі	-6.79775
цы	-6.81086
ён	-6.81965
км	-6.82503
▁горад	-6.95033
▁пры	-6.95267
▁было	-6.95784
▁С	-6.96586
мі	-6.9937
▁але	-6.99626
▁больш	-7.01315
▁200	-7.03515
▁А	-7.05274
▁пасля	-7.05399
▁якая	-7.05634
▁каля	-7.0766
ам	-7.11768
амі	-7.12625
▁Беларус	-7.12893
▁іх	-7.13235
I	-7.14075
ліся	-7.14509
▁2	-7.1671
це	-7.17194
▁яўляе	-7.17556
юць	-7.18395
▁вобласц	-7.19015
▁яе	-7.19017
▁тольк	-7.1914
▁пра	-7.21715
▁іншы	-7.24737
▁194	-7.25181
▁раён	-7.25378
▁ст	-7.25597
к	-7.27471
▁або	-7.28103
▁гадоў	-7.2835
▁краін	-7.3209
▁;	-7.32286
▁192	-7.33696
▁Пасля	-7.37027
▁дзе	-7.37595
▁тэрыторы	-7.37623
▁гэты	-7.40761
ася	-7.41299
o	-7.42772
▁193	-7.43467
▁191	-7.44334
н	-7.44936
між	-7.45509
ССР	-7.4753
▁склад	-7.51499
▁знаходзі	-7.51981
▁1	-7.53103
▁калі	-7.53363
▁3	-7.53565
II	-7.54023
▁м	-7.5469
▁са	-7.55066
▁цэнтр	-7.55505
▁інш	-7.5594
▁тым	-7.56017
▁горада	-7.56353
▁Па	-7.57704
▁адзін	-7.57955
▁Б	-7.58729
▁ці	-7.6015
▁П	-7.60461
чы	-7.61668
▁насельніцтва	-7.61743
▁чалавек	-7.63913
▁раёна	-7.64993
лі	-7.65358
таго	-7.66244
А	-7.66444
▁В	-7.66658
▁складае	-7.6682
▁196	-7.6729
▁ва	-7.67339
▁19	-7.67504
час	-7.68307
г	-7.68553
▁стаў	-7.6857
го	-7.68819
▁некалькі	-7.69472
▁195	-7.71056
▁стагоддзя	-7.71501
кі	-7.71629
▁-	-7.71785
▁I	-7.72443
▁пачатк	-7.72774
▁частка	-7.74772
сць	-7.74953
юцца	-7.75764
▁месца	-7.76172
▁вынік	-7.7663
▁праз	-7.7813
▁мае	-7.78222
▁198	-7.79802
▁15	-7.80292
▁беларуска	-7.80935
вайны	-7.81463
▁Да	-7.82006
▁якіх	-7.822
▁10	-7.82228
▁197	-7.83229
▁М	-7.83369
▁ім	-7.83427
a	-7.83885
▁розны	-7.8417
▁першы	-7.84636
яны	-7.84904
▁частк	-7.85888
▁Расі	-7.867
▁якой	-7.87235
▁стала	-7.89148
▁сваё	-7.89806
▁Гэта	-7.90287
гады	-7.9055
▁гэтым	-7.90767
▁201	-7.9104
▁ё	-7.91156
▁20	-7.91228
ла	-7.91661
▁колькасц	-7.92578
▁190	-7.92708
одзе	-7.94122
▁тыс	-7.94295
▁Адна	-7.94378
ах	-7.95419
▁перыяд	-7.95517
ле	-7.9682
▁17	-7.97388
▁гісторы	-7.97612
▁вайн	-7.97781
▁некаторы	-7.98028
яшчэ	-7.98039
▁атрымаў	-8.00772
▁над	-8.00801
▁Я	-8.00877
▁беларускі	-8.01536
▁жа	-8.04236
▁16	-8.04405
▁складзе	-8.05023
▁каб	-8.05174
▁свет	-8.05176
▁мов	-8.05331
▁студзен	-8.05797
▁Так	-8.05916
▁5	-8.06019
▁4	-8.06025
▁ве	-8.07071
▁дзяржав	-8.07307
▁культур	-8.07764
разам	-8.0806
▁можа	-8.08463
▁бы	-8.08953
▁супраць	-8.08983
ўроп	-8.09159
▁18	-8.09489
▁яна	-8.09503
ой	-8.09954
▁12	-8.10632
▁якога	-8.10699
▁Мінска	-8.10791
▁школ	-8.11485
за	-8.11707
▁ліпен	-8.11741
▁снежн	-8.12064
льмі	-8.12817
▁назва	-8.12846
▁Вяліка	-8.12874
ліку	-8.13024
шы	-8.13321
мовы	-8.13577
▁дзейнасц	-8.13648
▁Пад	-8.13859
▁ўсход	-8.14055
▁14	-8.14444
▁сакавік	-8.14485
ва	-8.14524
▁працяг	-8.14629
▁вядомы	-8.14639
той	-8.14746
▁маю	-8.14785
сіх	-8.15394
▁размешчаны	-8.15956
▁жыхар	-8.16067
▁Рэспублік	-8.16276
о	-8.16415
▁част	-8.16514
▁199	-8.16617
▁Беларуска	-8.16639
▁царкв	-8.1715
▁якім	-8.17392
▁імперы	-8.17536
▁ўсё	-8.17552
▁К	-8.17677
▁перша	-8.17845
▁ж	-8.18156
▁поўнач	-8.18331
▁вяліка	-8.1915
▁рух	-8.19344
жо	-8.19533
▁вялікі	-8.1975
▁кастрычнік	-8.19831
▁назв	-8.20102
▁аднак	-8.20122
▁гада	-8.20205
ца	-8.21159
▁мора	-8.22043
чынам	-8.22144
▁від	-8.22212
▁якое	-8.22412
▁жыцця	-8.22843
▁свай	-8.22892
▁сям	-8.22984
▁павод	-8.23241
▁сувяз	-8.23939
▁Беларусь	-8.2394
▁новы	-8.24051
прыклад	-8.24452
ракі	-8.24941
▁лістапад	-8.25175
▁І	-8.25993
▁30	-8.2658
маль	-8.26703
▁адным	-8.27231
▁чэрвен	-8.27351
ючы	-8.27535
▁Пры	-8.2758
▁II	-8.27679
▁возера	-8.2769
▁Польшч	-8.28954
сці	-8.29318
▁сярод	-8.29465
▁вёск	-8.29519
▁захад	-8.29562
▁чым	-8.29808
▁канцы	-8.30372
сваю	-8.30424
▁працы	-8.30688
▁два	-8.3085
▁вёска	-8.30962
ем	-8.30984
▁якасц	-8.3099
▁мая	-8.31429
▁яўляю	-8.31779
▁груп	-8.31974
▁права	-8.32004
▁б	-8.32236
дле	-8.32357
▁Паво	-8.32499
▁с	-8.3263
крамя	-8.32662
т	-8.3289
▁пасад	-8.32941
▁13	-8.34755
▁самы	-8.3522
▁найбольш	-8.35796
▁таму	-8.3587
▁6	-8.3614
▁войска	-8.36345
ая	-8.36492
можна	-8.36523
▁пачаў	-8.37331
Л	-8.37374
▁мова	-8.37414
▁парты	-8.37745
▁раз	-8.37778
▁За	-8.38027
▁сваі	-8.38083
▁чалавека	-8.3929
▁186	-8.39371
▁Але	-8.39671
▁сябе	-8.39824
▁бо	-8.40045
ны	-8.40409
▁Р	-8.40692
ка	-8.40873
▁25	-8.41477
▁пазней	-8.4152
▁верасн	-8.41958
▁жніўн	-8.4224
▁кніг	-8.42346
▁навук	-8.42573
▁шэраг	-8.42712
▁сваім	-8.43643
▁н	-8.43679
му	-8.43802
ства	-8.4391
▁11	-8.43922
▁аснов	-8.44632
▁лічы	-8.44732
тым	-8.44833
▁кар	-8.44855
▁т	-8.44949
асць	-8.4517
▁сабо	-8.45241
▁сіл	-8.45479
▁8	-8.45973
▁вядома	-8.45992
▁тып	-8.46025
▁Германі	-8.46448
▁ліні	-8.46481
▁ям	-8.46536
▁смерці	-8.46614
t	-8.47074
▁род	-8.47088
▁Францы	-8.47805
▁значна	-8.47809
91	-8.47932
▁ВК	-8.48212
▁красавік	-8.48245
▁189	-8.4915
▁плошч	-8.4938
▁тут	-8.49472
▁сельсавета	-8.4993
▁менш	-8.50141
▁тысяч	-8.50616
ых	-8.50693
▁звычайна	-8.50695
на	-8.50852
▁месц	-8.51163
▁друго	-8.51185
першын	-8.51552
▁Маскв	-8.51906
▁развіцц	-8.52339
▁шмат	-8.52532
▁часта	-8.52669
▁млн	-8.5272
▁мастацтва	-8.52846
▁сам	-8.53166
▁адной	-8.53259
▁без	-8.53461
▁Ян	-8.53863
▁нават	-8.54273
▁сын	-8.54958
▁войск	-8.55092
▁цяпер	-8.55264
▁сталі	-8.55748
▁рака	-8.55864
▁Заходня	-8.55997
▁Яго	-8.56318
▁працэс	-8.56343
▁многі	-8.5664
▁тры	-8.57225
▁літаратур	-8.5726
ку	-8.5752
▁асабліва	-8.57701
▁Расійска	-8.57728
▁поўдн	-8.57764
▁дзяржаўны	-8.58416
▁сістэм	-8.58679
▁Д	-8.58894
▁княз	-8.58907
▁то	-8.58959
▁часам	-8.5927
▁пераважна	-8.59336
▁Дл	-8.5996
▁Мінск	-8.59994
▁член	-8.60483
▁ц	-8.60491
▁выгляд	-8.60567
▁вытворчасц	-8.61683
▁ер	-8.61729
▁форм	-8.62142
▁свец	-8.62451
▁лют	-8.62755
▁Калі	-8.63212
с	-8.6326
▁в	-8.63947
▁сістэмы	-8.64005
▁мяж	-8.64048
▁перш	-8.64459
▁арганізацы	-8.6446
▁двух	-8.64498
▁барацьб	-8.64899
▁7	-8.65188
▁паўночна	-8.65265
▁стагоддз	-8.65267
▁Рэчы	-8.65331
▁колер	-8.65446
скага	-8.65602
▁Гэты	-8.65725
працаваў	-8.66162
▁Паўночна	-8.66188
▁188	-8.66298
▁свае	-8.66467
▁нацыянальна	-8.6652
▁Плошч	-8.66922
▁адна	-8.67093
▁9	-8.6734
▁вуліц	-8.68153
▁179	-8.68391
▁улад	-8.68564
▁дзеяч	-8.68683
▁дзень	-8.68928
▁буйны	-8.69155
u	-8.69192
▁аднаго	-8.69232
▁шматлікі	-8.69274
▁адбыл	-8.69357
ося	-8.695
▁Яна	-8.695
▁тое	-8.69748
▁п	-8.70148
імя	-8.70438
▁2008	-8.70774
▁пункт	-8.70848
▁атрымала	-8.70951
▁паўднёва	-8.71148
сельніцтва	-8.71459
▁сусветна	-8.71656
▁армі	-8.71717
▁дзве	-8.7173
▁канца	-8.71826
▁Аб	-8.71913
▁асноўным	-8.72223
могу	-8.72574
▁меў	-8.72866
▁100	-8.73266
▁межа	-8.73382
▁апошні	-8.73738
▁большасц	-8.73877
▁Г	-8.74052
▁цэнтрам	-8.74067
▁шлях	-8.74157
▁першым	-8.74274
▁ўсе	-8.74308
▁ваенны	-8.74335
▁беларуск	-8.74405
атым	-8.74817
▁сярэдзін	-8.75986
▁по	-8.76124
▁22	-8.76499
▁паверхн	-8.77342
алкам	-8.77519
▁Паўднёва	-8.77576
▁Першы	-8.77689
▁187	-8.77838
▁сістэма	-8.78098
00	-8.7815
▁прамысловасц	-8.78564
▁галін	-8.78987
▁асноўны	-8.78999
▁людзей	-8.79448
▁палов	-8.79654
▁стварэнн	-8.79938
▁прыток	-8.7998
ё	-8.80651
▁Мінску	-8.80653
▁Горад	-8.80946
000	-8.8101
ей	-8.81417
▁сучасна	-8.81455
▁Уваходзі	-8.81479
▁адміністрацыйны	-8.81545
▁28	-8.81556
ска	-8.81558
▁перад	-8.81678
вады	-8.81748
▁Перша	-8.81979
▁21	-8.82112
▁наступны	-8.82167
▁трох	-8.82232
▁свой	-8.82462
▁Віцебска	-8.82501
▁кампані	-8.82572
▁ступен	-8.82667
дзень	-8.82718
▁шырын	-8.82911
▁Паспаліта	-8.82968
▁23	-8.83033
▁Ф	-8.83086
▁24	-8.83144
▁зноў	-8.83215
▁Як	-8.83396
▁палітычны	-8.83472
▁50	-8.83708
э	-8.83878
▁створаны	-8.83983
▁такі	-8.84081
▁гонар	-8.84234
▁рэк	-8.84531
▁дзяржаўна	-8.84596
▁цела	-8.84898
▁27	-8.84923
▁2009	-8.84932
▁кіраўніцтва	-8.85236
боку	-8.85418
▁павета	-8.85426
ст	-8.85531
▁дадзены	-8.85576
▁пачалі	-8.86007
▁Зямл	-8.86262
▁іншым	-8.86418
▁знаходзя	-8.86634
▁шырока	-8.87245
▁народа	-8.87744
▁Украін	-8.87892
ры	-8.88222
▁26	-8.88539
▁2-	-8.88624
▁момант	-8.88835
▁жыццё	-8.88973
▁завод	-8.89029
▁станцы	-8.8903
▁польска	-8.89346
▁будаўніцтва	-8.89386
▁рол	-8.89386
▁губерні	-8.89576
▁афіцыйна	-8.89654
дзячы	-8.8984
▁тэрмін	-8.89895
▁матэрыял	-8.89896
▁слова	-8.89923
▁працу	-8.90011
▁сярэдня	-8.90027
▁краіна	-8.90093
та	-8.90289
▁прычын	-8.90292
▁выкарыстоўвае	-8.903
▁заста	-8.90625
▁жывёл	-8.90645
▁палітык	-8.90983
▁дэ	-8.91335
▁180	-8.91381
▁якую	-8.91494
▁183	-8.91544
▁дом	-8.91644
▁Літв	-8.91744
▁см	-8.91905
енавіта	-8.92003
▁Вялікі	-8.92005
▁нова	-8.92558
▁займае	-8.92664
▁184	-8.93054
▁ляс	-8.93396
▁тэоры	-8.93756
▁мэта	-8.93828
▁2010	-8.93904
▁Праз	-8.94009
▁агульна	-8.94027
▁там	-8.94133
▁справ	-8.94189
К	-8.94468
▁створана	-8.94479
▁караля	-8.9454
▁абарон	-8.94728
▁хутка	-8.95001
▁185	-8.95166
▁моцна	-8.95184
▁нацыянальны	-8.95398
▁пабудаваны	-8.95593
▁такім	-8.96274
▁Т	-8.96589
▁руска	-8.97211
▁Італі	-8.97301
▁галоўным	-8.97411
▁адбы	-8.97482
▁асобны	-8.97588
ахадзе	-8.97802
▁чаго	-8.97819
▁раслін	-8.97869
▁1-	-8.9803
▁40	-8.98118
▁вышын	-8.98188
▁незалежнасц	-8.98585
▁хо	-8.98688
▁рускі	-8.98939
▁ўдзел	-8.9908
▁раней	-8.99117
▁адбыва	-8.99239
▁таварыства	-8.99434
▁рэгіён	-8.99851
▁ваенна	-8.99881
▁2000	-9.00042
▁паўднёвы	-9.00204
▁княства	-9.00321
Р	-9.00524
▁бера	-9.01065
▁прэзідэнта	-9.01149
▁мела	-9.01202
▁выпадк	-9.01211
▁дзяце	-9.01216
▁Даўж	-9.01218
ыня	-9.01339
ец	-9.0204
▁мелі	-9.02131
▁палітычна	-9.02132
93;	-9.02238
▁паўночны	-9.02668
▁вялік	-9.02978
▁выступа	-9.03751
▁зямл	-9.03835
▁будзе	-9.03921
▁плошча	-9.04002
▁войскам	-9.04253
плыў	-9.04288
▁твора	-9.04337
▁басейн	-9.04393
ці	-9.04394
▁князя	-9.05003
▁бок	-9.0501
▁развіццё	-9.05274
▁ўлад	-9.05465
▁к	-9.05469
▁акруг	-9.05597
▁адносін	-9.05627
▁181	-9.05661
▁кіраванн	-9.05765
▁ля	-9.05783
▁творчасц	-9.05867
▁Мікала	-9.05964
▁мясцовы	-9.06155
▁размешчана	-9.06282
най	-9.06542
▁народна	-9.06785
s	-9.06825
▁вёс	-9.06853
▁верш	-9.07001
▁прадстаўнік	-9.07111
▁бацьк	-9.07167
▁характар	-9.07231
▁прыкладна	-9.07235
▁сталіца	-9.07542
▁метра	-9.07601
ярод	-9.07834
▁тэрыторыя	-9.07943
▁статус	-9.08
▁удзел	-9.08125
▁выкарыстоўва	-9.0821
▁1920	-9.08377
▁нямецка	-9.08426
▁бак	-9.0861
▁віда	-9.08664
▁бітв	-9.08776
▁усе	-9.08812
▁гарадо	-9.08927
▁Беларускі	-9.09082
С	-9.09155
забав	-9.09162
▁маці	-9.09392
▁ні	-9.09501
не	-9.09524
▁галоўны	-9.09527
▁газет	-9.09588
▁нямецкі	-9.09774
▁альбо	-9.09896
амак	-9.09988
▁правінцы	-9.1009
▁Са	-9.10095
▁сталіц	-9.10136
▁перамог	-9.10257
▁Парыж	-9.10333
▁закон	-9.10463
▁змен	-9.10612
▁прызначаны	-9.10819
▁добра	-9.10839
▁работ	-9.1094
▁самым	-9.11005
▁звязаны	-9.11012
▁177	-9.11015
▁орган	-9.111
ль	-9.11472
▁дзён	-9.11566
▁высока	-9.11717
▁крыніц	-9.1172
▁азёр	-9.1174
▁польскі	-9.11755
▁ўрад	-9.118
▁даўжын	-9.11989
▁праблем	-9.12015
▁зон	-9.12053
▁помнік	-9.12084
▁29	-9.12206
▁значэнне	-9.12244
▁сучасны	-9.12445
▁поў	-9.12527
▁ўніверсітэта	-9.12543
▁другі	-9.12959
▁артыкул	-9.13009
▁Найбольш	-9.13181
▁праца	-9.13312
▁Аляксандр	-9.1334
▁магчыма	-9.1347
▁скончыў	-9.13477
▁яўля	-9.13577
▁навуковы	-9.13664
▁кожны	-9.1375
▁Саюза	-9.13888
▁ідэ	-9.14241
▁адносна	-9.14452
▁150	-9.14496
▁мноства	-9.14505
0	-9.14577
▁падзе	-9.14583
▁вярну	-9.14584
▁брат	-9.1475
▁адміністрацыйна	-9.14766
▁рак	-9.15
▁усход	-9.15011
гле	-9.1522
▁жанчын	-9.15232
▁Азі	-9.15375
▁савецкі	-9.15454
▁прэмі	-9.15528
▁значны	-9.15823
рацэ	-9.15853
чале	-9.15858
▁памёр	-9.16104
▁Быў	-9.16759
▁гарадско	-9.16965
▁Савета	-9.17202
▁ём	-9.17229
▁служб	-9.17305
▁абраны	-9.17698
юю	-9.17905
пачатк	-9.18043
▁...	-9.18124
▁дзяржава	-9.18127
▁Ад	-9.18255
▁Літоўска	-9.18316
▁нарадзі	-9.18377
▁дзяку	-9.18466
▁Вільн	-9.18773
▁паход	-9.18795
▁Н	-9.18814
▁182	-9.18931
▁беларус	-9.19193
▁рэвалюцы	-9.19511
▁Там	-9.19523
▁КП	-9.1953
▁паўночным	-9.19682
▁заснаваны	-9.19846
▁178	-9.19859
▁школа	-9.20034
▁галоўна	-9.20051
▁лік	-9.20063
▁пісьменнік	-9.20196
▁езд	-9.20252
▁выкарыстоўваю	-9.20322
▁Друго	-9.20324
р	-9.20335
▁кожна	-9.20351
▁астрав	-9.20426
▁выбар	-9.20545
▁дзейніча	-9.20676
▁гістарычны	-9.20783
▁цэнтральна	-9.20829
творы	-9.21119
▁апошня	-9.21172
▁працавал	-9.2124
▁складаю	-9.21576
▁Рым	-9.2177
▁будын	-9.2189
▁Л	-9.21957
▁правы	-9.21973
▁ўніверсітэт	-9.22153
▁актыўна	-9.22167
▁узроўн	-9.22225
▁1990	-9.22541
▁спадчын	-9.22606
▁элемент	-9.22689
оль	-9.22728
▁аўтар	-9.23073
▁паўднёвым	-9.23339
▁дзеяння	-9.2345
▁вакол	-9.23489
▁існавал	-9.2367
▁шлюб	-9.23773
▁наш	-9.23792
куль	-9.23921
▁саб	-9.23957
▁эпох	-9.23997
гульні	-9.24137
▁Пазней	-9.2428
энтральна	-9.24386
▁выбара	-9.24819
▁праходзі	-9.24834
▁чатыр	-9.24839
▁Адзін	-9.24874
▁Аўтар	-9.25236
▁становішча	-9.25307
▁старажытны	-9.25391
▁людз	-9.25423
▁Свято	-9.25515
▁касцёл	-9.25557
▁французска	-9.25582
▁грамадска	-9.25593
▁Вялікабрытані	-9.25657
▁музык	-9.25671
▁народ	-9.25697
▁гарадскі	-9.26169
▁думк	-9.2635
▁комплекс	-9.26482
▁2002	-9.26568
▁гістарычна	-9.2664
▁востра	-9.26941
▁Савецка	-9.2695
▁група	-9.27017
▁Асноўны	-9.27142
▁песн	-9.27542
▁поўна	-9.27571
▁будынка	-9.27585
▁цяперашні	-9.27596
▁Такім	-9.27673
▁паходжанн	-9.27724
▁Усходня	-9.2777
▁31	-9.27918
▁прырод	-9.27926
▁Некаторы	-9.27976
▁Скончыў	-9.28068
▁усё	-9.28112
тады	-9.28153
▁Гродзенска	-9.28181
цыі	-9.28275
У	-9.28296
▁рэспублік	-9.28379
▁1940	-9.28391
▁пачат	-9.28433
▁сялян	-9.28684
▁дапамога	-9.28729
▁1930	-9.29141
▁Адміністрацыйны	-9.29302
▁прыняў	-9.29332
▁прэм	-9.29456
▁сямейства	-9.29499
▁навукова	-9.2953
▁1999	-9.29614
▁імператара	-9.2963
ок	-9.29823
▁паселішча	-9.29826
▁палац	-9.30023
▁Заснаван	-9.30275
л	-9.3031
▁мас	-9.30337
▁партыя	-9.30355
▁чаргу	-9.30522
▁тэмпература	-9.30628
▁будынк	-9.30632
▁правіла	-9.31034
▁земл	-9.31209
▁выйшл	-9.31423
▁практычна	-9.31596
зямлі	-9.31649
▁даследавання	-9.31673
▁Нова	-9.31703
▁жыў	-9.31744
▁невялікі	-9.3188
▁тако	-9.31881
▁пачынае	-9.31903
▁Нарадзі	-9.32051
▁замежны	-9.32147
▁адкрыты	-9.322
д	-9.32355
▁заснавана	-9.3236
▁гаспадарк	-9.32484
▁60	-9.32491
▁месяц	-9.32559
▁грамадства	-9.32699
▁твор	-9.32724
▁адзінка	-9.32736
▁БН	-9.32827
▁выраб	-9.32954
▁прынята	-9.33047
▁няма	-9.33102
▁эканамічна	-9.3328
▁існуе	-9.33292
▁ўсім	-9.33296
▁парк	-9.33378
▁сцяг	-9.33477
▁Ня	-9.33487
▁чал	-9.33899
▁звязана	-9.33998
колькі	-9.3409
▁акіяна	-9.34191
▁паэт	-9.3424
▁сельска	-9.3425
▁называю	-9.34307
▁Не	-9.34384
▁значы	-9.34561
▁рашэнне	-9.34616
▁вы	-9.34647
▁Гродн	-9.34892
▁прэзідэнт	-9.35077
▁атрымал	-9.35105
▁клуб	-9.35307
▁прынцып	-9.35359
▁падзел	-9.35462
▁Нацыянальна	-9.35691
з	-9.35887
▁вялікім	-9.35897
▁грамадскі	-9.36018
▁ўзроўн	-9.36238
▁планет	-9.36346
▁акадэмі	-9.36423
▁Гомельска	-9.36479
▁вострава	-9.3657
▁высокі	-9.36661
▁Інды	-9.36675
▁рэгіёна	-9.36948
▁кошт	-9.36955
▁новага	-9.37065
▁хто	-9.37111
▁паходзі	-9.37223
▁спіс	-9.37319
▁структур	-9.37328
▁заходня	-9.37357
лас	-9.37358
▁залежнасц	-9.37374
▁пера	-9.37573
▁кіраўнік	-9.37592
▁атрад	-9.37675
▁збор	-9.377
▁паўстання	-9.37705
▁пачало	-9.37757
▁прыватна	-9.37838
▁праграм	-9.37899
▁функцы	-9.37963
▁чыгуначна	-9.3803
▁р	-9.38126
▁гара	-9.38161
▁жыцц	-9.38218
▁156	-9.38227
тых	-9.38311
▁Сярэдня	-9.38383
▁французскі	-9.38516
▁станцыя	-9.38528
▁камун	-9.38538
▁замка	-9.38542
▁нар	-9.38735
▁Кіта	-9.38838
▁гульня	-9.39031
▁Брэсцка	-9.39265
▁крэпасц	-9.39326
ен	-9.39366
ведаў	-9.3938
▁савецка	-9.3949
▁часопіс	-9.39621
нага	-9.3969
▁размяшча	-9.39695
▁правінцыя	-9.39748
ырвона	-9.39828
▁знаходзіл	-9.40159
▁спраў	-9.40206
▁гарады	-9.40336
▁магчымасць	-9.4044
▁Англі	-9.405
▁прадстаўніко	-9.40776
▁расійскі	-9.40892
▁вуліца	-9.41195
▁стане	-9.41393
▁Больш	-9.4149
▁Віленска	-9.41601
▁генерал	-9.417
▁фон	-9.41977
▁Пачына	-9.41997
▁дапамог	-9.42027
▁ваяводства	-9.421
▁саюз	-9.42124
▁тэатр	-9.42183
▁складала	-9.42251
▁мог	-9.42346
▁народны	-9.42475
▁герб	-9.42512
▁Аляксандра	-9.42847
даволі	-9.42881
▁штат	-9.42966
▁ліча	-9.42977
▁велічын	-9.43006
▁падтрымк	-9.43268
▁пачала	-9.43407
▁ўваходзіл	-9.43418
▁кірунк	-9.43452
▁членам	-9.43469
18	-9.442
▁музей	-9.44206
▁сродк	-9.44279
▁кіраўніко	-9.44285
▁адукацыі	-9.44297
▁фільм	-9.44333
разу	-9.44349
▁адносі	-9.44651
▁Магілёўска	-9.44686
рд	-9.44713
▁міжнародны	-9.44789
▁зрабіў	-9.44795
▁фронт	-9.45249
обач	-9.45299
▁архітэктур	-9.45393
▁Іспані	-9.45421
вень	-9.45484
▁мы	-9.4551
▁адначасов	-9.45527
▁часткова	-9.45768
▁гадзін	-9.45779
▁Тут	-9.45973
▁сабор	-9.46007
▁проста	-9.46487
▁англійска	-9.46492
ёды	-9.46519
▁справа	-9.46729
▁форма	-9.46737
▁Лондан	-9.46759
▁асоб	-9.46855
доўж	-9.46858
,5	-9.46918
▁загад	-9.46954
лен	-9.47045
▁земля	-9.47089
мест	-9.47164
▁1994	-9.47281
▁губерня	-9.47529
▁плямён	-9.47599
пісаў	-9.47674
▁165	-9.47757
▁праект	-9.47856
▁адносяц	-9.47864
▁1996	-9.48202
▁займа	-9.48219
▁шляхам	-9.48396
▁філасофі	-9.48451
▁Маскоўска	-9.48458
▁ўвайшл	-9.4853
▁эканомік	-9.48623
мову	-9.4882
▁дзяржаў	-9.48932
▁Новы	-9.48952
▁праводзі	-9.49083
▁арганізацыя	-9.49212
▁1993	-9.49243
▁інстытут	-9.49336
▁моў	-9.49411
▁верхня	-9.49415
▁Вялік	-9.49488
▁Усе	-9.49521
▁ект	-9.49563
▁500	-9.49725
▁дынасты	-9.49758
▁зборнік	-9.49801
▁само	-9.4999
араз	-9.50087
▁колькас	-9.50099
▁мяжу	-9.5014
▁штата	-9.50167
▁рэчыва	-9.50196
▁называе	-9.5033
▁доўгі	-9.50383
▁Амерык	-9.50565
▁крыніца	-9.50569
▁курс	-9.50606
▁рыс	-9.50679
▁пытання	-9.50937
▁лета	-9.50972
▁Княства	-9.51113
▁явіла	-9.51143
▁рук	-9.5115
сельскагаспадарч	-9.51176
▁рэформ	-9.51242
▁адно	-9.51263
▁пакінуў	-9.51312
▁імператар	-9.51314
▁Тым	-9.51554
узор	-9.5163
▁літоўска	-9.51847
▁сына	-9.51994
▁бераг	-9.52051
▁поспех	-9.52093
▁мясцова	-9.52167
▁Уладзімір	-9.52221
▁адлегласц	-9.523
▁астравы	-9.52381
▁знак	-9.52413
▁павінны	-9.52631
▁Нью	-9.52731
▁амерыканскі	-9.5282
▁адкрыта	-9.52896
▁Каля	-9.5293
▁бацька	-9.53105
▁трэці	-9.53177
▁карцін	-9.53344
▁павінна	-9.53356
▁напісаў	-9.535
▁Расія	-9.53568
І	-9.53611
▁паступова	-9.53825
▁300	-9.54217
цтва	-9.5442
▁храм	-9.54434
▁мястэчка	-9.54534
▁тэмператур	-9.54584
▁павет	-9.54811
▁пабудов	-9.55017
▁смерц	-9.5512
▁падобны	-9.55135
Б	-9.55235
▁канал	-9.55481
ужо	-9.55505
▁пабудавана	-9.55531
▁ўрада	-9.55569
▁кампанія	-9.55638
▁каманд	-9.55652
АН	-9.55669
▁версі	-9.55682
▁манастыр	-9.55766
▁жонка	-9.56084
▁прадпрыемства	-9.56148
▁займаў	-9.56156
▁суд	-9.56201
ты	-9.56248
▁вострав	-9.56259
▁Знаходзі	-9.5629
▁дачк	-9.56317
▁адрозніва	-9.56424
▁населены	-9.56548
▁далін	-9.56732
▁меж	-9.57074
▁80	-9.57132
▁глеб	-9.57255
▁люты	-9.57265
▁сакратар	-9.57375
асці	-9.57489
▁Варшав	-9.5755
▁Полацка	-9.57648
▁праваслаўна	-9.57868
▁тытул	-9.57889
▁сезон	-9.57955
▁літоўскі	-9.57958
▁інфармацы	-9.57966
▁Раза	-9.58273
▁стварыў	-9.58311
▁воласц	-9.58338
▁памяц	-9.58413
▁Нацыянальны	-9.58608
▁жонк	-9.58644
▁сусветн	-9.58651
▁Андрэ	-9.58669
▁глыбін	-9.58719
▁найбуйнейшы	-9.58777
92	-9.58789
▁Пра	-9.58888
▁канчаткова	-9.58937
▁незалежна	-9.58992
▁мастак	-9.5905
▁заўс	-9.59096
▁азначае	-9.59133
Н	-9.59232
▁ня	-9.59241
▁Іван	-9.594
▁пісьменніка	-9.59456
лежыць	-9.59507
▁сцен	-9.59587
▁існаванн	-9.59713
▁пераход	-9.5974
падае	-9.59756
▁згадвае	-9.59763
▁тэатра	-9.59781
▁170	-9.60041
трэба	-9.60044
▁выкарыстанне	-9.6008
▁перайшл	-9.60122
▁Мары	-9.60304
▁канфлікт	-9.60524
▁2,	-9.60682
▁Польска	-9.60769
▁раўнін	-9.60949
▁дзеля	-9.61208
▁прыняты	-9.61248
▁Пятр	-9.61274
▁адпаведна	-9.61297
▁гімназі	-9.6141
▁35	-9.61557
▁адрозненне	-9.61574
▁Сонца	-9.61587
лады	-9.61927
▁спроб	-9.62216
▁вышынё	-9.62236
▁пазіцы	-9.62259
▁супольнасц	-9.62295
▁выкарыстанн	-9.62413
▁Дзяржаўна	-9.62457
тр	-9.62601
▁былы	-9.62629
▁цэнтра	-9.62726
▁Ва	-9.62848
▁станові	-9.62868
▁сход	-9.62952
▁варыянт	-9.63033
весці	-9.63172
▁Айчынна	-9.63189
▁1960	-9.63223
▁рэжым	-9.63274
▁трэця	-9.63325
▁музея	-9.6334
▁Сярэдні	-9.63351
▁сем	-9.63395
▁каралё	-9.63443
▁лёгка	-9.63476
▁Турцы	-9.63638
ёў	-9.63644
▁названы	-9.6366
год	-9.6398
▁армія	-9.64007
▁міжнародна	-9.64043
▁гісторык	-9.64083
▁адсутнасц	-9.64229
▁традыцы	-9.64977
▁конкурс	-9.65251
▁дарог	-9.65297
▁ты	-9.65309
▁160	-9.65419
▁міністра	-9.65423
▁належа	-9.65423
▁машын	-9.65534
▁магутнасц	-9.65576
▁месцам	-9.65763
▁еўрапейскі	-9.65874
▁выдання	-9.65906
▁кан	-9.65962
▁літаратурна	-9.65981
▁факультэт	-9.66146
▁даследчык	-9.66371
▁гандл	-9.66374
▁цяжка	-9.66404
▁эканамічны	-9.66432
▁явілі	-9.66542
▁белы	-9.66624
б	-9.66794
▁мала	-9.66797
▁камп	-9.66824
▁правёў	-9.66876
▁гаспадар	-9.66984
▁часопіса	-9.67039
▁пол	-9.67058
▁70	-9.67159
▁камітэта	-9.67183
▁робі	-9.67184
▁Аўстралі	-9.67188
▁фактычна	-9.67191
маглі	-9.67262
▁парадк	-9.67621
▁ўваходзі	-9.67626
▁раман	-9.67689
▁вад	-9.67692
▁расійска	-9.67727
▁Назва	-9.6775
▁яднання	-9.67813
▁распаўсюджаны	-9.67852
▁дзейнічал	-9.67861
▁прац	-9.67892
▁маі	-9.67906
▁выхад	-9.67921
▁выйшаў	-9.68076
▁павін	-9.68149
▁карыста	-9.68351
▁план	-9.68425
эры	-9.68591
▁пяць	-9.68676
▁176	-9.6883
▁наяўнасц	-9.68877
▁хвароб	-9.6892
10	-9.69039
▁універсітэц	-9.69065
▁стылі	-9.69168
▁Францыя	-9.69193
▁роўна	-9.69351
▁хуткасц	-9.69365
▁арганізацый	-9.69389
нкт	-9.69565
▁Усход	-9.69663
▁рэлігійны	-9.69849
▁размяшчае	-9.70051
▁Грэцы	-9.70153
▁заходні	-9.70228
▁3-	-9.70376
▁мл	-9.70424
▁166	-9.7046
косны	-9.70492
▁сэнс	-9.70495
▁екта	-9.70601
▁гл	-9.70672
▁другім	-9.70696
▁метад	-9.70758
▁клас	-9.70773
▁камісі	-9.70841
▁дзеянн	-9.70841
▁Германія	-9.70877
▁застава	-9.70955
жыць	-9.70956
яно	-9.71008
▁непасрэдна	-9.71022
▁напрамк	-9.71203
▁заканчэнн	-9.713
▁ніжэй	-9.71336
▁Рымска	-9.71371
будзь	-9.71372
▁адпаведнасц	-9.71425
▁афіцыйны	-9.71603
▁звестк	-9.71678
▁вусц	-9.71793
▁перайшоў	-9.7195
▁ордэна	-9.71957
▁вышэй	-9.72059
▁пачынаю	-9.72084
▁традыцыйна	-9.72162
▁гарада	-9.72201
▁уплыва	-9.72223
▁вымушаны	-9.72237
▁невяліка	-9.72281
▁Афрык	-9.72298
▁45	-9.72299
▁перапіс	-9.72392
▁вышыня	-9.72455
▁стан	-9.72499
шчэ	-9.72525
▁прынял	-9.72686
▁верагодна	-9.72722
▁погляд	-9.72735
▁птуш	-9.72763
▁ўдзельніча	-9.72808
▁літар	-9.73002
▁лес	-9.73255
то	-9.73276
▁Згодн	-9.73303
▁ўз	-9.73308
веце	-9.7336
▁газета	-9.734
ні	-9.7349
усім	-9.73513
▁культурны	-9.73526
▁ліпені	-9.73675
▁выклікал	-9.73678
▁стварэнне	-9.73759
▁вызначае	-9.73783
▁ўяўляе	-9.73902
▁задач	-9.73906
▁удзельніча	-9.73913
▁верасні	-9.73937
▁берага	-9.74142
▁фізік	-9.74242
▁падстав	-9.74311
▁грош	-9.74311
▁бібліятэк	-9.7444
▁тысячагоддзя	-9.74582
▁Сусветна	-9.74608
▁ціск	-9.74698
ля	-9.74756
▁цячэнн	-9.74791
▁Размешчан	-9.74873
▁працуе	-9.74874
▁красавіку	-9.74876
аркв	-9.74906
▁чатырох	-9.74911
▁вывучэнн	-9.75035
АТ	-9.75051
▁уваходзі	-9.75053
▁перадач	-9.75136
▁спосаб	-9.75168
▁дазваляе	-9.75376
▁пераклад	-9.7555
ння	-9.75619
▁грамадзян	-9.75691
▁жніўні	-9.75811
▁вадазбор	-9.7582
▁інстытута	-9.75875
▁князёў	-9.75903
▁вучылішча	-9.75946
▁асаблівасц	-9.76071
▁Больша	-9.76075
▁пэўны	-9.7619
▁ме	-9.76211
17	-9.76219
▁дрэва	-9.7623
▁атрыма	-9.76348
Пецярбург	-9.7642
▁збро	-9.76456
▁важны	-9.76685
▁стары	-9.76706
▁паветра	-9.76814
▁класа	-9.76906
▁астатні	-9.76917
▁ўсходня	-9.76928
▁Рады	-9.76969
▁каралеўства	-9.76974
▁жанр	-9.77018
▁горны	-9.77134
▁першапачаткова	-9.77323
▁характэрны	-9.77382
▁паэта	-9.77517
▁ахов	-9.77535
▁малады	-9.77653
▁храма	-9.77717
▁прыхільнік	-9.77923
▁мясцовасц	-9.78007
▁асобы	-9.78026
▁сацыяльна	-9.78083
▁ніко	-9.78098
▁марскі	-9.78113
▁опер	-9.78187
20	-9.78299
▁дагавор	-9.78338
▁значэння	-9.785
98	-9.78757
служыў	-9.78827
▁32	-9.78873
▁далей	-9.7891
▁Кольк	-9.78915
▁імі	-9.78954
▁гэту	-9.78969
▁Карл	-9.78999
▁магчымасц	-9.79034
▁згодна	-9.79042
бі	-9.79108
▁палас	-9.7911
▁1970	-9.7916
да	-9.79224
▁Рэспубліка	-9.79351
▁пачалас	-9.79405
▁пераваг	-9.79459
▁наступным	-9.79527
▁апыну	-9.79531
▁працава	-9.79615
▁прадстаўлены	-9.79688
▁дні	-9.79714
▁мастацка	-9.79777
▁развіва	-9.79799
▁пасёл	-9.7983
▁кіламетра	-9.79914
▁1980	-9.79977
▁мір	-9.80281
▁жыву	-9.80344
▁лінія	-9.80353
▁лічыў	-9.80425
▁мэт	-9.80503
▁гандлёвы	-9.80544
▁сустракае	-9.80636
▁1000	-9.8072
▁здольнасц	-9.80785
▁старшыня	-9.80808
тыя	-9.80826
▁Русі	-9.80909
▁старажытн	-9.80923
▁края	-9.8098
▁меры	-9.80995
▁сустракаю	-9.8107
▁асабіста	-9.81078
▁камітэт	-9.81352
▁вучы	-9.81354
12	-9.81452
▁Народна	-9.81732
▁Гомел	-9.81774
▁этап	-9.81826
▁адпавяда	-9.81993
▁плане	-9.82
▁яві	-9.82032
▁галав	-9.82049
▁кніга	-9.82053
▁свабод	-9.82239
▁Агульна	-9.82246
▁памер	-9.82293
▁пытанн	-9.82393
▁аперацы	-9.82399
▁163	-9.82499
▁цэлым	-9.82515
▁каталіцка	-9.82595
п	-9.82697
▁прывял	-9.82711
30	-9.82775
▁сучасн	-9.82857
▁пытанне	-9.82865
▁дзяржаўн	-9.82883
▁маёнтк	-9.83031
▁вышэйша	-9.83037
▁адмові	-9.83044
▁Японі	-9.83071
▁паэзі	-9.8308
▁ста	-9.83081
▁нумар	-9.83087
рэш	-9.83107
▁адносіна	-9.83117
▁155	-9.83149
▁сцяга	-9.83274
▁чорна	-9.83334
▁нацыянальн	-9.83463
▁ўнутраны	-9.83472
▁Саюз	-9.83539
▁шырокі	-9.83555
▁напісаны	-9.83678
▁арыштаваны	-9.83708
▁Радзівіл	-9.84123
▁ліст	-9.84161
▁мужчын	-9.842
▁клімат	-9.84213
▁гэт	-9.84224
▁серы	-9.8423
▁званне	-9.84325
▁намеснік	-9.8441
▁атрыманн	-9.8441
▁левы	-9.84441
спачат	-9.84493
▁прывяло	-9.84605
▁дробны	-9.84618
▁чэрвені	-9.84688
вецы	-9.84744
кг	-9.84971
▁1,5	-9.85175
▁ўзбярэжжа	-9.85197
▁рыб	-9.85211
▁рэштк	-9.85274
▁нов	-9.85392
▁доўга	-9.85493
▁даследаванн	-9.85541
▁польск	-9.85636
▁касцёла	-9.85707
▁дазволіл	-9.85731
▁152	-9.85766
▁мільёна	-9.85769
▁сельсавет	-9.85781
▁сярэднім	-9.85808
▁імкну	-9.85861
▁футбаліст	-9.85874
Ф	-9.85883
▁Ленін	-9.85948
▁158	-9.86077
▁кароткі	-9.86082
▁Пё	-9.86134
▁Паўночны	-9.86193
▁мадэл	-9.86216
▁харчова	-9.86217
▁прафесар	-9.86275
▁амерыканска	-9.86348
▁Працава	-9.86427
▁моцны	-9.8652
▁адукацыю	-9.86547
p	-9.86636
▁прайшл	-9.86647
адну	-9.86672
▁працягласц	-9.86685
▁наша	-9.86721
▁стагоддзяў	-9.8673
жылі	-9.86792
▁Івана	-9.86867
▁запіс	-9.8687
▁заняў	-9.86899
▁Першапачаткова	-9.86951
▁сацыяльны	-9.87056
▁ды	-9.87069
40	-9.87116
▁параўнанн	-9.8713
▁чэмпіянат	-9.87135
ступіў	-9.8722
▁самастойна	-9.87226
▁правядзенн	-9.87246
▁зроблены	-9.87278
▁пастаянна	-9.87409
▁грамадзянска	-9.87484
орна	-9.87491
▁яднанне	-9.87578
▁Акадэмі	-9.87617
▁займаю	-9.87787
▁заснаваў	-9.87824
ваны	-9.87863
▁адказ	-9.87986
▁дасягае	-9.87988
▁90	-9.88008
▁1950	-9.88042
▁далейшы	-9.88167
▁баявы	-9.88179
▁уся	-9.88185
▁пераеха	-9.88271
▁120	-9.88425
▁загінул	-9.88548
▁дакладна	-9.88559
▁календар	-9.88597
▁зрабі	-9.8866
▁старшын	-9.88699
▁жывапіс	-9.88758
олькі	-9.88768
▁атмасфер	-9.88854
▁энергіі	-9.88893
▁сур	-9.88897
▁дачыненн	-9.88943
▁забіты	-9.89009
▁склаў	-9.89126
▁пражыва	-9.89276
▁Галоўны	-9.89604
▁дасягнул	-9.89662
80	-9.89719
▁заліва	-9.8973
▁вызваленн	-9.8975
▁Асноўна	-9.89805
▁захавала	-9.89865
▁цара	-9.8987
▁хімічны	-9.89928
▁водна	-9.89989
19	-9.90002
▁выява	-9.9014
▁прысвечаны	-9.90149
▁ноч	-9.90214
▁імперыя	-9.90251
▁праваслаўны	-9.90268
▁салдат	-9.90289
▁склала	-9.90344
▁экспедыцы	-9.90379
▁ўваходз	-9.90407
▁месяца	-9.90415
▁асобна	-9.90423
▁адрознівае	-9.90455
▁беларускім	-9.90465
▁суб	-9.90502
▁званы	-9.90613
▁агульны	-9.90778
▁канферэнцы	-9.90796
▁400	-9.90807
▁захаваліся	-9.90899
▁зямель	-9.90917
арока	-9.91009
▁двар	-9.91023
▁абвясціў	-9.91148
▁універсітэта	-9.91381
▁сёння	-9.91397
▁ўласна	-9.914
▁выключна	-9.91575
▁сярэдні	-9.91576
▁Был	-9.91621
▁руск	-9.91637
▁валода	-9.91667
▁вод	-9.91728
ра	-9.91744
▁Дзякую	-9.91753
ладу	-9.91812
▁маса	-9.91825
▁Кар	-9.91892
▁ўмова	-9.91923
▁цар	-9.92037
▁сетк	-9.9221
▁знойдзены	-9.92289
▁буду	-9.92316
▁Аўстры	-9.92323
▁дома	-9.92365
▁чырвона	-9.92376
оць	-9.92478
▁ніжня	-9.92478
▁Карла	-9.92593
вагу	-9.92682
▁існаванне	-9.92742
▁прадпрыемств	-9.92922
▁драўляны	-9.92961
▁Дзяржаўны	-9.93121
▁164	-9.93129
▁святы	-9.93175
▁Галоўна	-9.9332
▁гук	-9.93344
▁вывуча	-9.93344
▁175	-9.93353
▁Сярге	-9.93368
▁выяўлены	-9.9337
▁новым	-9.93398
▁33	-9.93514
▁зборна	-9.9352
▁вежа	-9.93539
▁Тэрыторы	-9.93549
▁верхні	-9.93628
▁чырвоны	-9.93742
▁дня	-9.93869
цей	-9.93991
▁разнастайны	-9.9419
вёў	-9.94232
▁гісторыя	-9.94361
▁саюза	-9.94416
▁прылад	-9.94578
▁Віцебск	-9.94598
▁3,	-9.94622
▁паэм	-9.9465
▁ўлада	-9.94677
▁ес	-9.94796
▁Савет	-9.9481
▁музычны	-9.94993
▁культурна	-9.95007
▁сумесна	-9.95076
такія	-9.9511
▁кіраваў	-9.95123
▁вышэйшы	-9.95179
▁хрысціянства	-9.95183
▁чорны	-9.95224
▁Першым	-9.95232
▁яўрэя	-9.95296
▁1971	-9.9531
▁прапанаваў	-9.95448
▁Вядомы	-9.95564
▁патрэб	-9.95623
▁1984	-9.95649
▁раздзел	-9.95808
▁матэматык	-9.95808
▁Назв	-9.95811
▁бібліятэка	-9.95837
▁існую	-9.95928
▁насякомы	-9.95935
▁гэтак	-9.95953
▁друку	-9.95984
▁Амеры	-9.95987
▁рымска	-9.9608
▁Уладзіміра	-9.96111
▁жыве	-9.96177
▁рабочы	-9.96198
▁савета	-9.96283
▁служы	-9.96286
▁еўрапейска	-9.96302
УП	-9.96326
▁дэпутат	-9.96356
▁неабходна	-9.96382
▁рост	-9.96505
▁кола	-9.96548
▁Канад	-9.96591
▁ўжыва	-9.96607
▁Існу	-9.96618
▁супрацоўніцтв	-9.9668
▁бела	-9.96692
▁умова	-9.96765
▁шляхт	-9.96785
▁Гісторы	-9.9686
▁36	-9.96924
▁існава	-9.96969
▁транспарт	-9.96977
▁вядзе	-9.97184
▁немц	-9.97212
▁значэнн	-9.97224
▁бяспек	-9.97316
▁значн	-9.97348
▁нас	-9.97348
міністра	-9.97375
▁польскім	-9.97385
▁папулярнасц	-9.97432
▁Вуліц	-9.97432
▁Польшча	-9.97535
▁гор	-9.97634
энтр	-9.97715
ключаючы	-9.97725
▁аддзела	-9.97784
▁паспяхова	-9.97813
▁174	-9.97846
▁плын	-9.97876
▁БД	-9.97947
▁яднаны	-9.97992
ві	-9.98058
▁116	-9.98086
▁ніжні	-9.9812
▁Сцяг	-9.98185
▁паўстанне	-9.98335
▁міністр	-9.9841
таў	-9.98412
▁Дняпр	-9.98484
▁дзесяцігоддзя	-9.98546
▁выкананн	-9.98594
▁мор	-9.98642
▁прадукт	-9.98671
▁тэм	-9.987
95	-9.98872
▁прыватн	-9.98925
▁ўзро	-9.98963
▁140	-9.99034
▁АН	-9.99121
▁флот	-9.99152
▁ападка	-9.99243
▁камандаванне	-9.99249
90	-9.99283
▁рамка	-9.99316
▁называ	-9.99337
▁Сібір	-9.99362
97	-9.99374
▁калоні	-9.99391
Г	-9.99403
▁блізкі	-9.99407
▁глыбіня	-9.99426
▁лёс	-9.99527
▁ўзрос	-9.99547
▁1910	-9.9956
▁блізка	-9.9964
ную	-9.99707
▁двум	-9.9972
▁акіян	-9.99856
▁дапамогу	-9.99906
▁Маці	-9.99923
▁прасторы	-9.99966
▁належал	-10.0001
▁пункта	-10.0008
▁сынам	-10.001
▁вяртанн	-10.0012
▁праекта	-10.0013
▁рэлігі	-10.0026
▁супрацоўнік	-10.0027
▁назваў	-10.0029
▁радзім	-10.003
▁герба	-10.0033
▁форму	-10.0045
▁прычы	-10.0046
▁нахіл	-10.0047
▁вобраз	-10.0047
▁Папа	-10.0051
мем	-10.0051
▁172	-10.0064
▁157	-10.0078
▁162	-10.0095
▁То	-10.0096
▁замк	-10.0108
▁Музе	-10.0131
ню	-10.014
▁ўвес	-10.014
▁ўключае	-10.0145
14	-10.0149
▁Паўла	-10.0151
▁налічвае	-10.0151
▁Апошні	-10.0153
▁неў	-10.0154
▁нізін	-10.0155
▁звест	-10.0158
▁імён	-10.0162
▁чыгунк	-10.0171
праўлення	-10.0173
▁Мінскі	-10.019
▁захоўвае	-10.02
▁татар	-10.02
▁палаца	-10.0207
▁мастацкі	-10.0211
▁Федэрацы	-10.0212
но	-10.0218
▁дадзена	-10.0222
▁даўжынё	-10.023
▁малы	-10.0238
лізу	-10.0261
▁лагер	-10.027
▁Стары	-10.0275
▁ідзе	-10.0289
▁ажыццяўляе	-10.0289
зад	-10.0297
▁падобна	-10.0304
▁літаратурны	-10.0304
▁Берлін	-10.031
▁ўзнікл	-10.0315
▁Св	-10.0321
▁вярнуў	-10.0327
▁паводзін	-10.035
▁Афры	-10.0363
▁галас	-10.0369
▁Неў	-10.039
▁Іншы	-10.0398
▁2015	-10.0399
▁трыма	-10.04
▁тэкст	-10.0404
▁Ізраіл	-10.0406
лізна	-10.0406
▁музе	-10.0406
▁рашэння	-10.0408
▁паходжанне	-10.0409
▁левым	-10.0422
▁Радзівіла	-10.0425
▁абавязк	-10.0427
▁ваенн	-10.043
▁сястр	-10.0437
▁кіраванне	-10.044
▁распаўсюджана	-10.0446
▁лепш	-10.0447
▁асноўна	-10.0454
▁корпус	-10.0464
▁акру	-10.0466
▁лепшы	-10.0468
▁слоў	-10.0471
▁Нарвегі	-10.0478
▁аўтара	-10.0479
▁фільма	-10.0481
▁паўвострава	-10.0484
▁выпадка	-10.0484
▁падрыхтоўк	-10.0492
▁сферы	-10.0495
▁Тад	-10.0498
▁застал	-10.0502
▁Ісланды	-10.0507
▁42	-10.0509
▁характэрна	-10.0516
▁яўрэйска	-10.0522
▁право	-10.0544
▁Вучы	-10.0554
▁пісьмовы	-10.0557
▁наступна	-10.0557
▁гульн	-10.0564
▁любо	-10.0564
ну	-10.0574
▁тон	-10.058
▁Звычайна	-10.0588
▁Самы	-10.0589
▁Многі	-10.059
▁нараджэння	-10.0606
▁ўдал	-10.0609
▁хімічна	-10.0611
ар	-10.0617
▁вырашыў	-10.0623
▁Міністэрства	-10.0624
▁палон	-10.0626
▁накіраваны	-10.0626
▁дзіця	-10.0632
дзе	-10.065
▁кафедр	-10.0651
зноў	-10.0654
▁каштоўнасц	-10.0663
▁запас	-10.068
▁дагавора	-10.0683
▁дзвю	-10.0686
▁актыўны	-10.069
НК	-10.0696
▁75	-10.0716
▁баз	-10.0718
▁был	-10.0725
▁звычайны	-10.073
▁клуба	-10.0733
▁ранні	-10.0739
▁дваро	-10.0744
▁зорна	-10.0753
▁семінары	-10.0757
▁будов	-10.0757
▁напад	-10.0758
▁свята	-10.0759
▁працоўны	-10.0759
міру	-10.0762
▁рэльеф	-10.0764
▁Алімпійскі	-10.0768
▁газ	-10.0769
▁Латві	-10.0771
▁выніка	-10.0779
▁дакумента	-10.078
▁ўзвышша	-10.0781
▁грэчаска	-10.0786
▁сут	-10.0789
▁выходзі	-10.0789
▁каманда	-10.079
▁рэзка	-10.0796
▁англійскі	-10.0797
▁лідар	-10.08
лікаў	-10.0808
▁акупацы	-10.0811
▁яў	-10.0813
▁складалі	-10.0828
▁прыб	-10.0831
▁савет	-10.0832
▁Ле	-10.0832
віч	-10.0833
▁сімвал	-10.0835
▁Каралеўства	-10.0836
▁хвілін	-10.0838
▁рымскі	-10.084
▁праходзіл	-10.0843
▁ідэя	-10.0848
▁будучы	-10.0853
▁стварыць	-10.0859
▁Руска	-10.0863
▁пабудава	-10.0865
▁сялянска	-10.0885
▁ўласны	-10.0886
60	-10.0903
▁Венгры	-10.0906
▁брата	-10.0915
▁рэдка	-10.0915
▁роўны	-10.0921
▁навучанн	-10.0928
▁метрапалітэн	-10.0944
▁сутнасц	-10.0947
▁расліннасц	-10.0951
▁калгас	-10.0951
▁звыш	-10.0954
▁Люксембург	-10.0956
▁прамысловы	-10.0964
▁дакумент	-10.0965
вай	-10.0967
▁600	-10.0978
▁выключэнне	-10.0978
▁выкарыстоўвалі	-10.098
ды	-10.0981
▁ажані	-10.0988
дзі	-10.099
▁Армі	-10.1005
▁Вядома	-10.1007
▁дэпутата	-10.1009
▁прадукцы	-10.1011
▁крытык	-10.1028
▁паслуг	-10.1029
летк	-10.1029
▁скончыла	-10.1031
▁сітуацы	-10.1032
▁Сам	-10.1044
▁сабора	-10.105
▁Павел	-10.105
▁мастака	-10.105
▁Каб	-10.1051
▁працяка	-10.1051
словы	-10.1057
▁зорк	-10.106
▁прыродны	-10.1062
▁выдаў	-10.1077
▁глыбока	-10.1081
▁змяшчае	-10.1081
▁Смаленска	-10.1086
▁арганізаваны	-10.1097
▁золата	-10.1099
▁Толь	-10.1101
▁Бела	-10.1105
▁паўнамоцтв	-10.1115
▁пахаваны	-10.1115
часова	-10.1124
▁Сама	-10.1124
▁Літве	-10.1136
▁высокім	-10.114
▁канала	-10.1144
▁знешня	-10.1144
▁дамоў	-10.1146
▁басейна	-10.1149
вежы	-10.1151
▁цячэ	-10.1152
▁Дзвін	-10.1158
▁мястэчк	-10.1162
▁падзяляе	-10.1163
▁адкрыццё	-10.1165
▁кра	-10.1169
▁тэорыя	-10.117
at	-10.1171
▁духоўна	-10.1172
▁сведчы	-10.1177
▁шэсць	-10.1181
▁прапанов	-10.1184
▁Дом	-10.1185
▁яўлял	-10.1191
▁адзіны	-10.1193
▁4-	-10.1195
▁царства	-10.12
▁атрымлівае	-10.1202
▁уні	-10.1203
▁турм	-10.1214
▁сад	-10.122
▁ўзор	-10.1224
▁поле	-10.123
▁напісана	-10.1232
▁багаты	-10.1233
▁168	-10.1235
▁выданне	-10.1242
СР	-10.1249
▁вядомым	-10.1251
▁неабходнасц	-10.1255
▁прадмет	-10.1261
▁радзе	-10.1262
▁аддзяленне	-10.1263
▁брытанскі	-10.1265
▁устаноў	-10.1266
заходня	-10.1268
▁захаванн	-10.1273
▁ставі	-10.1287
▁1990-	-10.1289
▁крыла	-10.1295
▁порт	-10.1311
▁дзяржаўным	-10.1311
▁моладз	-10.1311
▁34	-10.1312
▁песен	-10.1314
▁складаны	-10.1317
▁1930-	-10.1331
▁разы	-10.1338
▁Іх	-10.1341
▁Марыя	-10.1344
▁Купал	-10.135
▁рэсурс	-10.1356
▁адкрыў	-10.1362
▁дывізі	-10.1368
▁4,	-10.1396
▁лацінска	-10.1405
▁аповесц	-10.1406
гэту	-10.1415
▁адзіным	-10.1418
▁173	-10.1418
▁веры	-10.143
скі	-10.1442
▁летапіс	-10.1444
▁развіты	-10.1449
▁працягвае	-10.1452
ходзе	-10.1455
▁Паўднёвы	-10.1467
▁нашы	-10.1487
▁Палесс	-10.1489
▁праведзены	-10.1492
▁цыкл	-10.1504
▁Аўгуста	-10.1505
▁вага	-10.1507
▁мінулы	-10.1512
▁помніка	-10.1514
ела	-10.1515
▁пераважа	-10.1517
▁0	-10.1518
▁парламента	-10.1519
рк	-10.152
▁даро	-10.1525
пад	-10.1528
▁гурт	-10.1538
міністр	-10.154
▁старо	-10.1541
▁Лічы	-10.1546
▁каменны	-10.1552
▁кні	-10.1555
▁прадстаўлена	-10.1557
▁зносін	-10.1557
▁хутчэй	-10.1558
▁свабодна	-10.1558
▁153	-10.1559
▁стыл	-10.1561
▁маёнт	-10.1579
▁Аляксе	-10.1584
▁археалагічны	-10.1589
▁Канстытуцы	-10.1591
▁ініцыятыв	-10.1594
▁Прэзідэнта	-10.16
▁выступі	-10.1602
▁крызіс	-10.1602
▁Міхаіл	-10.1607
▁суда	-10.1611
▁будаўнічы	-10.1614
▁плат	-10.1616
▁пяці	-10.1622
▁Скарын	-10.1625
▁камен	-10.1625
стаў	-10.1628
▁архітэктар	-10.1636
▁дол	-10.1637
▁фонд	-10.1637
▁Лі	-10.1639
▁дапамо	-10.1642
▁Схіл	-10.1648
▁дух	-10.1657
▁горы	-10.1658
▁асяроддзя	-10.166
▁Крым	-10.1663
▁Прусі	-10.1665
▁італьянскі	-10.1669
▁кры	-10.1677
рыста	-10.1678
▁37	-10.1679
▁называлі	-10.169
▁Куб	-10.1692
шча	-10.1703
▁музычна	-10.1707
▁выса	-10.1717
▁сілу	-10.1719
▁генерала	-10.1724
▁ролі	-10.173
▁рання	-10.1731
▁Славакі	-10.1735
▁абрад	-10.1735
▁1980-	-10.1742
▁падзелены	-10.1743
▁Нобелеўска	-10.1745
▁альбом	-10.1746
▁навуков	-10.1753
▁прыводзі	-10.176
▁ўсю	-10.1762
▁абшчын	-10.1769
▁палітычн	-10.1777
▁граф	-10.1788
▁версія	-10.1796
▁прозвішча	-10.1798
▁жылы	-10.1806
▁Го	-10.1811
▁спорт	-10.1812
▁стварае	-10.182
▁паступі	-10.1824
▁папулярны	-10.1825
▁восен	-10.183
▁забеспячэнн	-10.1836
▁55	-10.1851
▁прыйшл	-10.1851
▁мост	-10.1852
▁братам	-10.1854
13	-10.1854
▁роля	-10.1857
▁нізка	-10.1865
▁зор	-10.1869
▁фізічна	-10.187
▁бітва	-10.1877
ыгімонта	-10.1879
мат	-10.1883
▁л	-10.1884
▁працягвала	-10.1887
▁склада	-10.189
▁кропка	-10.1895
ц	-10.1895
▁Сталіца	-10.1902
▁агульным	-10.1913
▁дачка	-10.1914
▁асноўнай	-10.1915
▁названа	-10.1919
▁паб	-10.1929
▁велічыня	-10.1943
▁дос	-10.1944
▁неаднаразов	-10.1949
▁цяжкі	-10.1953
▁каралеўска	-10.1956
▁магл	-10.1959
▁долара	-10.1967
▁працягваў	-10.1967
▁могілка	-10.197
▁дэпартамент	-10.1973
ш	-10.1974
▁пэўна	-10.1975
▁кампазітар	-10.1977
▁вучоны	-10.1986
▁нізкі	-10.1988
▁1900	-10.1993
▁Старшын	-10.1996
▁Міжнародна	-10.1996
▁перавыша	-10.1998
▁кантроль	-10.2004
▁38	-10.2005
▁абласц	-10.2007
▁дзеянне	-10.2012
▁выпада	-10.2019
▁канструкцы	-10.202
▁абвешчана	-10.202
▁адкрыцця	-10.2023
▁старшынё	-10.2023
▁залежыць	-10.2034
▁песня	-10.2036
▁маёмасц	-10.2044
▁здольны	-10.2053
▁Джон	-10.2055
▁абодву	-10.2067
▁Бабруйск	-10.2074
▁Полацк	-10.2087
▁парод	-10.2091
▁138	-10.2092
▁спецыяльна	-10.2095
▁аддзел	-10.2101
▁традыцыйны	-10.2111
▁рэлігійна	-10.2127
▁займала	-10.213
▁органа	-10.2142
▁сяброў	-10.2144
▁заснавальнік	-10.2147
▁палітыка	-10.2157
▁ўтвараюц	-10.2157
▁кіраўніка	-10.2158
огул	-10.2162
ўрапейска	-10.217
▁дастаткова	-10.2176
▁нафт	-10.2176
▁парламент	-10.2178
▁154	-10.2179
▁знакаміты	-10.2179
▁Вялікабрытанія	-10.2185
▁мяне	-10.2187
ан	-10.221
▁гледжанн	-10.2211
▁аўтамабіля	-10.2218
▁Вітаўта	-10.2222
волі	-10.2224
▁падарожжа	-10.2231
▁нашчадк	-10.2231
СК	-10.2232
▁гары	-10.2234
▁Амундсен	-10.2235
▁спецыяльны	-10.2236
▁дамен	-10.2246
▁каротка	-10.225
▁масава	-10.2251
▁брытанска	-10.2252
▁знаходжанн	-10.2259
▁часціц	-10.2261
▁рэдактар	-10.2261
▁д	-10.2285
▁Таварыства	-10.229
▁злучае	-10.2291
▁дво	-10.2292
▁прыём	-10.2295
▁захапіл	-10.2304
▁турнір	-10.2308
▁нарадзіла	-10.2309
▁яўленне	-10.2319
▁апублікаваны	-10.2336
▁Вярхоўна	-10.2341
▁рэакцы	-10.2341
▁спрыя	-10.2346
▁правым	-10.2349
япер	-10.2355
▁Сталін	-10.2356
▁сойм	-10.2362
▁шчыльнасц	-10.2378
▁лісце	-10.2378
▁схіл	-10.238
▁куды	-10.2381
▁рэдакцы	-10.2391
▁манет	-10.2399
▁ўзрост	-10.2399
▁загінуў	-10.2406
▁Ім	-10.2407
▁складзены	-10.2418
ана	-10.2419
магла	-10.242
янскім	-10.2423
▁Народны	-10.2424
▁падзелена	-10.2433
▁біскуп	-10.2435
▁Асманска	-10.2439
▁стая	-10.2444
▁аўтамабільна	-10.2447
▁налічвала	-10.2449
▁карыс	-10.2452
▁пажар	-10.2457
▁спрыял	-10.2465
▁мірны	-10.2475
роч	-10.2482
▁Каўказ	-10.2482
▁43	-10.2496
▁прыватны	-10.25
▁студэнтаў	-10.25
гіпта	-10.2507
▁чыгун	-10.2513
вейцары	-10.2517
▁паказвае	-10.2518
▁жаноча	-10.252
▁распад	-10.2521
▁дзіцячы	-10.2521
▁элемента	-10.2522
нёс	-10.2525
▁сетка	-10.2525
раз	-10.2527
▁злучаны	-10.2529
▁Ма	-10.253
▁возер	-10.253
▁1920-	-10.2537
▁цягнік	-10.2538
▁ордэнам	-10.2539
▁Бога	-10.2539
▁каталіцкі	-10.2543
▁адсутніча	-10.2553
▁Божа	-10.2555
▁Бразіліі	-10.2556
▁мастако	-10.2557
▁выкарыстоўвала	-10.2561
шар	-10.2564
▁код	-10.2565
▁выклада	-10.2567
▁пошук	-10.2568
▁партрэт	-10.2568
▁старэйшы	-10.2575
▁перададзены	-10.258
▁знайсц	-10.2582
▁газе	-10.2584
▁газу	-10.2587
▁прыйшоў	-10.2588
▁забойства	-10.259
▁лічыла	-10.2611
▁дату	-10.2612
▁Сын	-10.2617
▁урада	-10.2618
▁рады	-10.2625
▁выток	-10.2629
▁рухавік	-10.263
▁Сан	-10.2656
▁схіла	-10.2659
▁Наша	-10.2662
▁65	-10.2672
асцей	-10.2678
▁Вікіпеды	-10.268
аліў	-10.2694
▁пасёлка	-10.2694
▁мадэль	-10.2701
▁дрэў	-10.2705
▁ўзніка	-10.2715
▁Мае	-10.2719
▁зборн	-10.2728
▁стара	-10.2729
▁гісторыка	-10.2729
▁Займае	-10.2731
▁варта	-10.2736
▁Асабліва	-10.2754
ас	-10.2755
ўсходня	-10.2755
▁старажытнасц	-10.2755
▁эміграцы	-10.2756
▁гаспадарка	-10.2768
ьмі	-10.2772
▁палітычным	-10.2773
▁сябрам	-10.2774
▁аж	-10.2776
▁хрысціянска	-10.2777
▁Фінлянды	-10.2778
▁Рыма	-10.2778
▁уз	-10.2784
▁Інстытута	-10.2802
▁тэхнік	-10.2805
▁159	-10.2825
▁памеры	-10.2831
▁выдатны	-10.2837
70	-10.2837
▁намеснікам	-10.284
▁спрабава	-10.284
▁акруга	-10.2847
▁стандарт	-10.285
эт	-10.2855
▁Такі	-10.2858
▁культура	-10.2874
▁катэгоры	-10.2879
▁здолеў	-10.2884
▁дазвол	-10.2885
▁царкоўна	-10.2886
▁корпуса	-10.2887
▁ўладам	-10.2888
▁фігур	-10.2891
▁тлумачы	-10.2896
▁просты	-10.2898
▁пастанов	-10.2904
▁Другі	-10.2905
▁Заходні	-10.2907
▁выдадзены	-10.2912
быў	-10.2928
▁Перад	-10.2931
▁143	-10.2933
ная	-10.2934
▁Грыгар	-10.2936
▁бальніц	-10.2936
▁ера	-10.2939
▁Украіна	-10.2941
▁істотна	-10.2944
▁зрабіла	-10.2945
▁закона	-10.2961
▁рэчыв	-10.2964
▁нацыянальным	-10.2965
▁прысутніча	-10.297
▁Друг	-10.2974
▁увайш	-10.2979
▁акцёр	-10.298
▁пакінул	-10.2981
▁арганізава	-10.2984
амёр	-10.2986
цаў	-10.2997
▁паняцце	-10.2999
▁апошнім	-10.3001
▁урад	-10.3002
▁прыход	-10.3006
▁арганізм	-10.301
▁Маскоўскі	-10.3013
гор	-10.3019
▁здабыч	-10.302
▁займалі	-10.3022
форме	-10.3028
▁прамыслова	-10.303
▁век	-10.3033
▁здароў	-10.3035
▁ахвяр	-10.3039
▁0,5	-10.3041
▁захоплены	-10.3043
▁падпарадкаванн	-10.3046
▁казак	-10.3051
▁Га	-10.3053
▁фестывал	-10.3063
▁святла	-10.3067
▁Прэзідэнт	-10.3069
▁цэнтральны	-10.3071
верх	-10.3075
▁драўляна	-10.3079
▁залаты	-10.3081
▁250	-10.3089
▁лёд	-10.3093
▁Бераг	-10.3094
▁цел	-10.3097
▁ўзбярэжж	-10.3102
▁вадасховішча	-10.3107
▁канцэпцы	-10.3119
▁натуральна	-10.3127
▁сустрэч	-10.3131
▁сапраўдна	-10.3136
▁бацькам	-10.3138
▁занята	-10.3141
▁адзіна	-10.3142
▁двара	-10.3149
▁Нёмана	-10.3151
▁спадарожнік	-10.3158
▁зямно	-10.3159
▁Кліма	-10.3166
▁багата	-10.3171
▁зрабілі	-10.3174
▁вывучэнне	-10.3179
ырвон	-10.3179
▁Кіеўска	-10.3182
11	-10.3191
▁маскоўскі	-10.3193
▁адміністрацы	-10.3198
▁ўсходні	-10.3208
яком	-10.3218
▁ўладанн	-10.3221
▁расход	-10.3225
▁мяса	-10.3226
▁героя	-10.3229
▁арганізма	-10.3235
▁цікавасц	-10.3238
▁рукапіс	-10.3251
▁каналізавана	-10.3252
▁Бачн	-10.3254
▁сельскі	-10.3256
▁захаваў	-10.3259
▁атрада	-10.3259
▁Станіслава	-10.326
▁абвясціл	-10.3271
▁Удзельніча	-10.3279
▁Найбольша	-10.3279
▁хат	-10.328
▁памерла	-10.328
▁радыё	-10.3281
▁атрыманы	-10.3283
▁сонца	-10.3294
▁Менск	-10.3302
▁стану	-10.3306
▁неба	-10.3307
▁легенд	-10.3312
▁ўчастк	-10.3314
▁апублікава	-10.3314
▁праходзя	-10.3319
▁палос	-10.3319
▁Бацька	-10.3321
▁карал	-10.3327
▁ўплыв	-10.3327
▁звана	-10.3333
йшоў	-10.3335
▁злучэння	-10.3344
▁заснавальніка	-10.3344
▁прымаў	-10.336
▁ўнутрана	-10.3361
▁важным	-10.3361
▁Антоні	-10.3369
▁рамана	-10.3369
▁свято	-10.3376
▁норм	-10.3389
▁рэспубліка	-10.339
▁маёнтка	-10.3397
▁клетк	-10.3398
▁сіла	-10.3401
▁ба	-10.3405
▁валодае	-10.3413
▁сучасным	-10.342
▁абмен	-10.3422
сце	-10.3439
▁вусце	-10.3439
▁спалі	-10.3443
▁5-	-10.3445
▁Парыжа	-10.3449
▁зварот	-10.3451
▁розным	-10.3455
▁ўстанов	-10.3456
▁славянскі	-10.3457
ТА	-10.3462
▁вучоб	-10.3469
▁Сярэднегадав	-10.3469
ом	-10.347
▁асвет	-10.347
▁Усходні	-10.3471
▁Мы	-10.3472
▁кампазіцы	-10.3475
▁рынк	-10.3479
▁друга	-10.348
▁іспанска	-10.3483
йчы	-10.3485
▁Іерусалім	-10.3486
▁149	-10.3496
▁Мяж	-10.3496
эхі	-10.3497
▁лаўрэат	-10.3511
▁хімі	-10.3512
▁Рымскі	-10.3518
▁аднаўленн	-10.3521
▁Гомель	-10.3522
▁характарызуе	-10.3524
▁уяўляе	-10.353
падзення	-10.3532
▁суседні	-10.3536
▁Пецярбург	-10.3537
▁памяшканн	-10.3539
▁верша	-10.3546
вы	-10.355
▁зроблена	-10.3551
▁натуральны	-10.3551
▁недахоп	-10.3551
▁фальклор	-10.3556
▁800	-10.3574
▁167	-10.3575
▁Верхня	-10.3579
▁сяло	-10.358
▁чалавеча	-10.3581
▁Слуцк	-10.3584
▁трапіл	-10.3588
▁абласця	-10.3597
▁Сёння	-10.3606
▁чыгуначны	-10.3607
▁зорка	-10.3607
▁іслам	-10.3609
▁жывы	-10.361
▁прымае	-10.3612
▁партызан	-10.3614
▁аэрапорт	-10.3617
▁начальніка	-10.3617
▁крыві	-10.3619
▁сцэн	-10.3628
▁лад	-10.3629
▁буйным	-10.363
▁рэдактара	-10.3632
▁будучын	-10.3636
▁праведзена	-10.3636
▁калекцы	-10.3646
▁навука	-10.3651
▁голас	-10.3651
▁двор	-10.3659
▁невядома	-10.3662
юль	-10.3663
▁явіў	-10.3666
▁увайшл	-10.3675
▁імператарам	-10.3679
▁падпісаў	-10.3679
▁катлавін	-10.368
▁правінцый	-10.3689
стыль	-10.3692
▁марско	-10.3693
▁маладо	-10.3715
▁меркаванне	-10.3717
▁просьб	-10.3718
▁зона	-10.3721
▁абодва	-10.3728
▁астрава	-10.3731
▁Партугалі	-10.3731
анец	-10.3738
▁птушк	-10.3739
▁дырэктар	-10.3747
▁метро	-10.3751
▁партый	-10.3754
▁адзначае	-10.3755
▁ектам	-10.3757
▁найбольша	-10.3766
▁вызначэнн	-10.377
▁сакратаро	-10.377
▁Ніжня	-10.3774
▁эксплуатацы	-10.3774
▁нямецкім	-10.3776
▁слаба	-10.3781
▁Кніг	-10.3782
асам	-10.3783
▁крыж	-10.3784
▁край	-10.3789
▁аўтарам	-10.379
▁ўласцівасц	-10.3791
▁Нансен	-10.38
▁лясны	-10.3801
▁пакалення	-10.3803
▁горна	-10.3805
▁падання	-10.3809
▁выразна	-10.3812
▁пояс	-10.3814
росту	-10.3817
▁маршрут	-10.3818
СС	-10.3819
▁адстаўк	-10.3822
▁настаўнікам	-10.3829
▁Картэс	-10.3831
▁лічылі	-10.384
▁факт	-10.3842
лева	-10.3842
▁удзельнік	-10.3851
▁любы	-10.3852
▁вучыў	-10.3855
▁нічо	-10.3859
▁зацверджаны	-10.3862
▁выконва	-10.3868
▁масавы	-10.3869
▁галоўн	-10.3872
нка	-10.3873
▁класічна	-10.3876
▁Уся	-10.3881
тэрытарыяльна	-10.3886
▁По	-10.3899
▁падыход	-10.39
▁сцян	-10.3904
▁заявіў	-10.3912
▁ўтварае	-10.3915
▁пач	-10.3915
▁выкананы	-10.3917
▁Напалеона	-10.3918
▁Сербі	-10.3934
піс	-10.3935
▁далучы	-10.3936
▁Нясвіж	-10.3937
▁продаж	-10.3945
▁міфалогі	-10.3948
▁Ісуса	-10.3948
▁рэвалюцыйн	-10.3957
▁пакіну	-10.3958
▁ордэн	-10.3962
▁вызнача	-10.3963
▁вёў	-10.3964
▁вызвалены	-10.3977
▁цягам	-10.3987
▁пастаўлены	-10.3996
▁збудавання	-10.4004
▁архіпелаг	-10.4005
рэдка	-10.4006
▁ўжывае	-10.401
▁Дж	-10.4017
▁адрозненн	-10.4023
▁змест	-10.4025
▁інтарэс	-10.403
СФ	-10.4036
▁захворвання	-10.4038
▁прамо	-10.4043
алогіі	-10.4052
▁46	-10.4054
▁правіл	-10.4055
▁сімвалам	-10.4059
▁зямля	-10.406
▁дэпартамента	-10.4065
▁войн	-10.4067
ф	-10.4078
УС	-10.4079
▁артыкула	-10.4081
▁48	-10.4082
▁Рус	-10.4082
▁будаўніцтв	-10.4088
эмпіён	-10.4089
▁прайшоў	-10.4097
▁нейкі	-10.4103
▁вул	-10.4105
▁вымярэння	-10.4108
▁пашыраны	-10.4109
▁захоп	-10.411
▁Асноўным	-10.4116
▁Тэрмін	-10.4119
▁мясцовым	-10.4124
▁дзец	-10.4134
▁далейша	-10.4135
чу	-10.4135
▁асоба	-10.4139
▁Брэст	-10.4149
▁вызначаны	-10.4155
▁вылуча	-10.4169
▁чын	-10.417
▁увес	-10.4173
▁галіна	-10.4177
▁кляштар	-10.4181
▁130	-10.4182
▁апынул	-10.4186
▁дадатковы	-10.4186
▁вос	-10.4188
▁хаце	-10.4188
▁надзвычай	-10.4188
▁фактар	-10.4194
▁56	-10.4198
▁Ірланды	-10.4201
▁Балгары	-10.4202
▁жалеза	-10.4207
▁прызнаны	-10.4211
▁1960-	-10.4216
▁Адным	-10.4219
▁уласна	-10.4219
▁скульптур	-10.4225
▁вада	-10.4229
▁рада	-10.4242
▁выконвае	-10.4259
страты	-10.4261
▁вывучае	-10.4262
П	-10.4262
▁буйно	-10.4264
▁дысертацы	-10.4266
▁росквіт	-10.4266
▁органам	-10.4271
▁забяспечвае	-10.4273
▁прыхільнікам	-10.4274
▁125	-10.4275
гіпе	-10.4277
▁знайшл	-10.4282
▁праграма	-10.4282
▁Віцебску	-10.4295
▁абвешчаны	-10.4295
▁Кон	-10.4297
▁стагоддзе	-10.4306
▁захапіў	-10.4313
▁Рэспублі	-10.4316
зму	-10.4321
▁хрысціян	-10.4323
▁Брытанска	-10.4327
▁распрацаваны	-10.4328
▁адпаведны	-10.4338
▁вынікам	-10.4339
▁47	-10.4341
▁складана	-10.4342
▁памера	-10.4344
▁Пахаван	-10.4346
▁штаб	-10.4347
▁мільён	-10.4354
▁патрабуе	-10.4355
▁1950-	-10.4356
▁дасягнуў	-10.4357
▁пары	-10.4357
▁нагадва	-10.4366
▁судна	-10.4368
▁выступал	-10.437
▁пераходзі	-10.4379
▁страціл	-10.4379
са	-10.4381
▁заняпад	-10.4386
▁заснаванн	-10.4391
сё	-10.4392
▁рыцар	-10.4392
▁вяршын	-10.4394
▁заняты	-10.4395
▁манастыра	-10.4397
▁максімальна	-10.4406
▁лёгкі	-10.4407
▁выданн	-10.4412
▁цывілізацы	-10.4414
▁адзінк	-10.4416
▁механізм	-10.4418
▁навукоўца	-10.4421
▁склалі	-10.4422
▁бальшавік	-10.4422
▁ўмацаванн	-10.4425
▁Палац	-10.4432
▁прыня	-10.4433
▁навучальны	-10.4437
▁Удзельнік	-10.4445
▁галактыка	-10.4447
▁53	-10.445
▁мне	-10.4457
▁узбярэжж	-10.4473
▁разбураны	-10.4475
▁ап	-10.4482
124	-10.4485
▁развіта	-10.4504
▁гармат	-10.4507
▁магіл	-10.4512
▁Італія	-10.4519
▁царкоўны	-10.4519
кае	-10.4522
▁радовішч	-10.4523
▁фармальна	-10.4536
▁Аргенцін	-10.4536
▁Біблі	-10.4537
▁Бельгі	-10.4538
▁цэлы	-10.4538
▁друкарн	-10.4539
▁1500	-10.4551
▁Беларуск	-10.4552
▁няг	-10.4553
▁1830	-10.4561
▁полі	-10.4562
▁адзінства	-10.4565
▁арабска	-10.4566
▁піша	-10.4567
▁Дзмітры	-10.4573
▁піса	-10.4576
16	-10.4579
▁кошк	-10.4581
▁рука	-10.4582
▁сто	-10.4586
▁італьянска	-10.4586
▁агульн	-10.4591
▁ускраін	-10.4597
15	-10.4603
▁Рэйн	-10.4607
▁геаграфічны	-10.4622
▁кісларод	-10.4628
▁Бог	-10.4629
▁славян	-10.463
▁разнастайнасц	-10.463
▁Старо	-10.4633
▁важна	-10.4633
▁41	-10.4644
▁бога	-10.4652
50	-10.4656
▁сонечна	-10.4659
сюд	-10.4661
▁атрымліва	-10.4669
▁Марс	-10.4672
▁прыняцц	-10.4683
▁700	-10.4691
▁распрацоўк	-10.4702
▁Міжнародны	-10.4705
▁палат	-10.471
▁згод	-10.4711
▁немагчыма	-10.4715
▁надпіс	-10.4715
▁Казіміра	-10.4716
▁шырокім	-10.4723
жа	-10.4728
▁невялікім	-10.4729
▁боле	-10.4729
сю	-10.473
▁паказаў	-10.4736
▁Рака	-10.474
▁Ганн	-10.474
▁Магілёв	-10.4751
▁война	-10.4752
рана	-10.4754
кай	-10.4761
▁групу	-10.477
▁назірання	-10.4774
▁Магчыма	-10.4775
▁праводзя	-10.4775
▁праціўніка	-10.4779
▁кандыдата	-10.4781
▁Дэр	-10.4784
▁заставал	-10.4787
▁1970-	-10.4787
▁аўтаномі	-10.4788
▁Васіль	-10.479
▁вакзал	-10.4791
▁будава	-10.4793
▁хатні	-10.4795
▁трапіў	-10.4798
▁пост	-10.48
▁Тры	-10.4803
▁неабходны	-10.4804
▁Акцябрскі	-10.4808
▁часова	-10.4808
ча	-10.4809
▁сцвярджа	-10.4813
аўрэат	-10.4813
▁матчы	-10.4815
▁этнічна	-10.4822
▁святар	-10.4826
▁сэрца	-10.4828
▁транспартны	-10.4834
▁харчаванн	-10.4845
▁сённяшні	-10.4845
▁ўваг	-10.4847
вядзення	-10.4852
▁морам	-10.4853
▁Дзе	-10.4854
▁грамадзянскі	-10.4858
▁завода	-10.486
▁крама	-10.4863
▁філосаф	-10.4867
▁перакладзе	-10.4871
▁робя	-10.4877
▁змешчаны	-10.4877
▁Балтыйска	-10.4877
▁карон	-10.488
▁душ	-10.4882
▁145	-10.4884
▁словам	-10.489
▁берагав	-10.4893
▁перадаў	-10.4897
▁папулярна	-10.4908
▁нібы	-10.4909
▁экспарт	-10.4909
астка	-10.491
▁факультэта	-10.4912
▁аднайменна	-10.4912
▁трон	-10.4919
чна	-10.4924
▁падтрым	-10.493
89	-10.4931
оф	-10.4936
▁сімвалізу	-10.494
▁крок	-10.4943
▁екты	-10.4945
▁забіў	-10.4945
▁гурта	-10.4948
▁ствара	-10.495
▁мірна	-10.4954
▁Была	-10.4957
▁медыцын	-10.4961
▁змяніў	-10.4963
▁44	-10.4966
▁прызначэнн	-10.4967
▁сведча	-10.4968
▁забалочаны	-10.4972
▁армян	-10.4972
амойц	-10.4984
▁руд	-10.4985
▁адправіў	-10.4986
▁Пінск	-10.4987
▁недалёк	-10.4997
▁Рэч	-10.4997
▁Сучасны	-10.4997
▁сілам	-10.4998
рый	-10.4999
▁фарміравання	-10.5002
▁здолел	-10.5003
▁далёка	-10.5004
▁Французска	-10.5006
▁Мало	-10.5016
▁рэдкі	-10.502
▁выказаў	-10.5025
▁эфект	-10.5028
гаславі	-10.5035
▁усім	-10.5043
▁рэальна	-10.5045
▁вучня	-10.5045
▁Ме	-10.5047
▁39	-10.505
▁фрон	-10.505
вец	-10.505
▁крам	-10.5053
▁цяперашня	-10.5055
▁сапраўдны	-10.5058
▁канцэрт	-10.5061
▁рэгулярна	-10.5067
▁бярэ	-10.5067
▁захоўваю	-10.507
▁прыклад	-10.5071
▁Трэця	-10.5075
▁утвораны	-10.5076
▁езда	-10.5076
▁рэч	-10.5079
▁каштоўны	-10.508
▁паказал	-10.5083
▁прычына	-10.5089
▁каталога	-10.5092
▁Міхаіла	-10.5093
енне	-10.5093
▁рускім	-10.5096
▁Вышын	-10.51
▁Старажытна	-10.51
▁пакрыты	-10.5102
▁хвалі	-10.5103
▁даліна	-10.511
▁канстытуцы	-10.5111
▁фінансавы	-10.5114
▁вызначы	-10.5115
▁пацярпел	-10.5118
▁захава	-10.5119
▁навучанне	-10.5125
▁Вашынгтон	-10.5132
▁чалавецтв	-10.5132
▁праводзілі	-10.5134
▁палёт	-10.5136
▁вадо	-10.5141
▁Рада	-10.5142
▁паражэнне	-10.5146
▁малодшы	-10.5147
▁сюжэт	-10.515
▁64	-10.515
▁інстыту	-10.515
іно	-10.5152
▁савецкім	-10.5157
▁выраз	-10.5158
▁поўны	-10.5158
▁футбол	-10.5161
▁апавядання	-10.5161
▁вільготны	-10.5164
▁Прыпяц	-10.5168
▁будуча	-10.517
▁асяроддз	-10.5174
▁проз	-10.5174
▁рабілі	-10.5178
▁хрысціянскі	-10.5181
льга	-10.5181
▁віленскі	-10.5196
кага	-10.52
▁значным	-10.5206
▁змяняе	-10.5207
▁грамадств	-10.5208
▁прыбыў	-10.5211
▁аблог	-10.5215
▁абсалютна	-10.5217
▁стаял	-10.5219
▁уключа	-10.522
наты	-10.5221
▁публіцыст	-10.5227
▁выкапн	-10.5229
ПС	-10.5229
▁рашэнн	-10.523
ндаль	-10.523
▁графа	-10.5235
▁гімн	-10.5235
▁турызм	-10.5235
▁апісвае	-10.5244
▁нямецк	-10.525
▁ўзаемадзеянн	-10.5262
▁замуж	-10.5262
стоні	-10.5264
▁Ганна	-10.528
▁паляк	-10.5281
▁камісія	-10.5282
▁ажыццяўля	-10.5288
▁брыгад	-10.5289
▁вызначана	-10.5292
▁буйнейшы	-10.5295
▁выкліка	-10.5304
▁занялі	-10.5306
▁134	-10.5307
▁тэхнічны	-10.531
▁набор	-10.5311
▁часц	-10.5319
▁музыка	-10.5323
▁добры	-10.5324
▁св	-10.5327
▁Працягл	-10.5328
▁54	-10.5331
▁аказала	-10.5333
▁платформ	-10.5333
▁важн	-10.5335
▁страціў	-10.5337
▁асуджаны	-10.5344
▁пустын	-10.5352
▁вадаёма	-10.5352
▁зняволенн	-10.5361
▁складаў	-10.5362
▁абавязкова	-10.5363
▁трапічны	-10.5368
▁назірае	-10.5371
▁геро	-10.5378
▁стады	-10.538
▁Слов	-10.5393
▁Казімір	-10.5398
▁рэзідэнцыя	-10.54
▁Сонечна	-10.5404
▁абласно	-10.5408
▁дасягнення	-10.5413
▁аўтаномна	-10.5419
▁разгляда	-10.5419
▁каралеўскі	-10.5427
▁спыні	-10.5427
▁Літоўскі	-10.5427
▁араб	-10.5427
▁Генеральна	-10.5427
▁ўдзельнічал	-10.5431
▁сапраўд	-10.5432
▁французск	-10.5432
▁лекцы	-10.5436
▁стал	-10.5437
▁жаночы	-10.5443
▁Паўночн	-10.5444
▁прыходзі	-10.5448
▁5,	-10.5457
▁Свяшчэнна	-10.546
▁сігнал	-10.546
▁фізічны	-10.5467
▁Пол	-10.5472
▁НА	-10.5474
▁Віленскі	-10.5476
▁хац	-10.5476
▁заве	-10.5478
▁апазіцы	-10.5478
▁пасялі	-10.5479
▁уласны	-10.5483
▁паселішч	-10.5484
▁Будын	-10.5495
▁зброя	-10.5496
▁земляробства	-10.5501
▁Кожны	-10.5506
▁зялёны	-10.5509
рку	-10.5512
▁занятк	-10.5517
▁Сярэднявечч	-10.5527
▁розум	-10.5527
▁пача	-10.5528
пітэра	-10.5535
▁чыгунка	-10.5542
▁Васіл	-10.5543
▁зімо	-10.5545
▁родна	-10.5549
▁Перш	-10.555
▁француз	-10.5551
▁ўдзельнік	-10.5559
▁епархі	-10.5561
▁ток	-10.5563
▁фабрыка	-10.5564
▁Раён	-10.5568
▁розн	-10.557
▁перанос	-10.5575
▁прынесл	-10.5577
▁рэчышч	-10.5579
▁метады	-10.5584
▁спрабавал	-10.5585
▁вялі	-10.5586
вецыя	-10.5589
▁змог	-10.559
▁Мала	-10.5596
расце	-10.5605
▁Вярхоўны	-10.561
▁ворага	-10.5615
▁Даніі	-10.5616
▁вопыт	-10.5628
▁мастацтв	-10.5628
▁прастол	-10.5629
▁камеды	-10.5629
▁малюнк	-10.5636
▁ўтварэння	-10.5637
▁тыдня	-10.564
▁галерэ	-10.5641
▁52	-10.5646
▁кандыдат	-10.5655
▁інструмент	-10.5655
▁Нідэрланд	-10.5656
▁прывіле	-10.566
▁арышт	-10.5661
▁узначальва	-10.5663
▁ішл	-10.5668
▁85	-10.5668
▁Універсітэт	-10.5669
▁медыцынскі	-10.5669
▁Кітай	-10.5672
▁магчымы	-10.5674
▁невядомы	-10.5675
▁унутраны	-10.5675
▁Раман	-10.5685
ным	-10.5688
▁шасці	-10.5689
ырвоны	-10.5692
▁План	-10.5694
▁малекул	-10.5697
▁выявы	-10.5711
▁цэркв	-10.5713
▁меркавання	-10.5727
ыгімонт	-10.573
▁балот	-10.5733
▁усходня	-10.5735
▁выступ	-10.5737
▁Марка	-10.5738
▁прыма	-10.5741
▁пашырэнн	-10.5742
▁вольны	-10.5742
▁адлюстроўвае	-10.5757
▁сукупнасц	-10.5766
▁прыналежнасц	-10.5766
▁доктар	-10.577
▁Размешчана	-10.5774
▁мужчынска	-10.5785
▁Перу	-10.5787
▁паліцы	-10.5787
▁напр	-10.5787
▁брам	-10.5789
▁дыяметр	-10.5797
▁Моцарт	-10.58
▁тэлебачанн	-10.58
▁етнам	-10.58
▁Герб	-10.58
▁змага	-10.5802
▁сказаў	-10.5802
▁выснов	-10.5803
▁Брагін	-10.5804
▁прыйшло	-10.5813
▁спадарожніка	-10.5814
▁самі	-10.5816
▁аддзялення	-10.582
▁дэмакраты	-10.5827
▁паверхня	-10.5828
▁камандзір	-10.5832
▁ўзыходжанн	-10.5835
▁млын	-10.5837
▁Ноўгарад	-10.5838
▁Колас	-10.5839
▁Франс	-10.584
▁змяніла	-10.5845
▁Аўгуст	-10.5845
▁рабі	-10.5848
▁паказчык	-10.5853
▁пайшл	-10.5857
▁грудз	-10.5865
▁пал	-10.5867
ога	-10.5869
▁насіл	-10.587
▁пагадненне	-10.587
▁актыўнасц	-10.587
▁Адраджэнн	-10.5875
▁Канстанцін	-10.5898
▁рэлігія	-10.5899
▁гадз	-10.5904
▁невыс	-10.5904
▁метал	-10.5904
▁рэферэндум	-10.5904
▁клет	-10.5907
▁плям	-10.5908
▁грэчаскі	-10.5908
▁ўклад	-10.5909
▁Савецкі	-10.5924
▁Бярэзін	-10.5927
▁прыкмет	-10.593
▁асабісты	-10.593
▁асацыяцы	-10.5937
▁паўстал	-10.594
▁абмежавана	-10.595
▁58	-10.5951
▁карт	-10.5956
▁пагроз	-10.5958
жы	-10.5966
▁раённа	-10.5966
▁паранены	-10.5974
▁федэральна	-10.5974
▁выяўлена	-10.5974
▁этнічны	-10.5975
▁праводзіў	-10.5978
▁Айчынн	-10.5981
▁доказ	-10.5986
▁144	-10.5986
▁Мес	-10.5989
▁ўзначалі	-10.5994
▁6-	-10.6001
віцэ	-10.6003
▁працягвалі	-10.6007
▁Станіслаў	-10.6009
▁адноўлены	-10.6009
▁прысутнасц	-10.6012
▁загадчык	-10.6015
▁доля	-10.6019
▁філасофскі	-10.6022
▁стаіц	-10.6024
ежы	-10.6024
▁ўнутр	-10.6029
▁развівае	-10.6032
▁дыялект	-10.6032
▁Аўстрыя	-10.6037
▁папярэдня	-10.6043
▁карабл	-10.6043
▁каледж	-10.6045
▁рэканструкцы	-10.6045
▁110	-10.6055
▁цяжкасц	-10.6058
▁раб	-10.6059
▁экспедыцыя	-10.6062
▁фасад	-10.607
▁распаўсюджва	-10.6074
▁летні	-10.6076
▁самакіраванн	-10.6081
▁умоў	-10.6081
▁публікацы	-10.6082
▁прэмія	-10.6084
▁Злучаны	-10.6087
▁Вікторы	-10.6091
▁Вільню	-10.6097
▁кантракт	-10.6105
▁63	-10.6107
▁Касцюшк	-10.6116
▁выбух	-10.6116
▁кажу	-10.6116
▁законам	-10.612
▁праблема	-10.6121
▁самц	-10.6122
▁узяў	-10.6125
▁кантрол	-10.6125
▁губернатара	-10.6126
энтральны	-10.6127
▁бачы	-10.6129
явы	-10.6133
▁ядра	-10.6139
▁літара	-10.6139
▁Кастрычніцка	-10.6141
▁намаляваны	-10.6151
▁Сатурн	-10.6151
▁прыгажосц	-10.6151
▁абраз	-10.6151
▁Іванавіч	-10.6151
▁папа	-10.6152
▁духоўн	-10.6154
▁уваг	-10.6154
доўга	-10.6157
▁наступ	-10.6157
▁Вільгельм	-10.6161
▁ваенным	-10.6161
▁рубл	-10.6161
▁еж	-10.6164
▁пражывал	-10.6164
▁леса	-10.6172
▁хуткім	-10.6173
▁птушка	-10.6176
▁Стэфана	-10.6177
▁рэпрэсі	-10.6178
▁начальнік	-10.6185
▁знайшоў	-10.6187
▁краі	-10.6189
▁заву	-10.6191
▁апарат	-10.6196
▁ўдар	-10.6201
▁вылучаюц	-10.6202
▁жорстка	-10.6208
▁прызнаў	-10.6216
▁адмыслова	-10.6218
▁апісанне	-10.622
ўрабачанн	-10.6223
озера	-10.6224
▁дваццац	-10.6225
▁члена	-10.6225
атланды	-10.6228
▁Ран	-10.6229
▁перада	-10.623
▁57	-10.623
▁гмін	-10.6239
▁кары	-10.6241
▁Вільня	-10.6243
▁мінска	-10.6246
адварот	-10.6252
▁праекц	-10.626
▁Фрыдрых	-10.6264
▁кітайска	-10.6267
▁водны	-10.6274
▁рас	-10.6276
▁Вітаўт	-10.6278
▁фінал	-10.6288
▁адмысловы	-10.6288
▁выконваў	-10.6292
▁караблё	-10.6294
▁доступ	-10.6295
▁зала	-10.6299
▁аўтамабільны	-10.63
▁прысвечана	-10.6301
▁падзея	-10.6303
▁свядомасц	-10.6307
▁6,	-10.6308
▁гаспадарчы	-10.6311
▁маленькі	-10.6311
▁адпачынк	-10.6328
▁Заслужан	-10.6332
▁педагагічны	-10.6334
▁рэгістрацы	-10.6337
▁161	-10.6337
▁выклікае	-10.634
казаў	-10.6341
▁царо	-10.6342
▁памерам	-10.6343
▁журналіст	-10.6353
▁размяшчал	-10.6353
▁сол	-10.636
▁антычн	-10.6364
▁фірм	-10.6367
▁адноўлена	-10.6368
▁дарога	-10.6369
▁чаму	-10.6369
▁Лета	-10.6371
▁характарыстык	-10.6383
▁цвёрда	-10.6385
▁кантона	-10.6385
▁Вайн	-10.6393
▁137	-10.6397
мір	-10.6401
▁распрацава	-10.6408
▁сабраны	-10.6408
▁твар	-10.6408
▁выеха	-10.6408
▁універсітэт	-10.6408
▁палка	-10.6412
▁чыста	-10.6414
▁паліты	-10.6414
▁49	-10.6415
▁сухі	-10.6415
▁Беласток	-10.6417
▁дзвюм	-10.6418
▁ваявод	-10.642
▁геаграфічна	-10.642
▁пачаткова	-10.6427
▁заходнім	-10.6432
▁вагон	-10.6436
▁кампазітара	-10.6441
▁далучаны	-10.6442
▁прысвоен	-10.6443
КП	-10.6444
▁служыл	-10.645
▁асобным	-10.6451
▁шматлікім	-10.6461
▁масів	-10.6462
▁доктара	-10.6471
яўлення	-10.6472
▁сітуацыя	-10.6473
▁Мік	-10.6479
▁арбіт	-10.6482
▁разглядае	-10.6487
▁мясцов	-10.6491
▁Уільям	-10.6491
▁Малы	-10.6506
▁цесна	-10.6516
▁перыядычна	-10.6516
▁тканін	-10.6517
▁прафесійны	-10.6518
▁папярэдні	-10.6523
▁місі	-10.6528
▁баі	-10.6532
▁сялянскі	-10.6534
▁сядзібн	-10.6542
▁архітэктара	-10.6551
▁1890	-10.6551
▁Стакгольм	-10.6553
▁прызнача	-10.6562
▁чацвёрты	-10.6565
▁валодал	-10.6565
ямі	-10.6566
▁пэўн	-10.6579
▁139	-10.658
▁кантакт	-10.6588
▁Старажытны	-10.659
▁адзначы	-10.6594
▁гарадам	-10.6596
аста	-10.6602
▁традыцыя	-10.6608
▁ніякі	-10.6609
▁Янк	-10.6615
▁яднана	-10.6631
вых	-10.6632
▁Нідэрланда	-10.6635
▁арыентацы	-10.6641
▁панаванн	-10.6657
▁Гродзенскі	-10.6662
нак	-10.6662
▁фрагмент	-10.6665
▁скасаваны	-10.6666
▁Перамог	-10.6666
▁126	-10.6667
▁выбраны	-10.6667
▁Святы	-10.6669
▁прызна	-10.6673
▁ўстаноўлен	-10.6676
▁Канстытуцыя	-10.6677
▁фарміраванне	-10.6681
▁свабодны	-10.6683
▁148	-10.6685
восен	-10.6686
▁пашырэнне	-10.6691
▁спартыўны	-10.6697
▁Дэ	-10.6701
▁дарослы	-10.6703
▁Апошня	-10.6703
верс	-10.6703
▁высок	-10.6705
▁НК	-10.6708
▁мінскі	-10.6709
▁адраджэнн	-10.6712
▁знешні	-10.6717
▁ваявода	-10.672
▁свецка	-10.6724
▁бая	-10.6727
▁дуб	-10.6727
▁некатор	-10.6727
▁заняла	-10.6732
▁Сацыялістычна	-10.6733
▁праводзіла	-10.6734
▁здзейсніў	-10.6736
▁расійскім	-10.674
▁абарані	-10.6746
▁яўрэйскі	-10.6747
39	-10.6752
▁Вайніловіч	-10.6753
сцю	-10.6754
▁каралев	-10.6755
▁класіфікацы	-10.6757
▁павялічвае	-10.676
▁Атлантычн	-10.6766
▁рэспубліканска	-10.677
▁размяшчэнн	-10.677
▁Нёман	-10.6771
▁славянска	-10.6773
▁спроба	-10.6776
88	-10.6779
▁англ	-10.6781
▁пясчаны	-10.6785
▁аўтадарог	-10.6788
чны	-10.6793
▁артыст	-10.6797
▁педагог	-10.6798
▁валоданне	-10.6802
▁строга	-10.6807
▁Меркуры	-10.6817
▁жыло	-10.6817
▁прэзідэнцкі	-10.6818
▁хор	-10.6825
▁Мар	-10.6835
▁пазнаёміў	-10.6836
удаўніцтва	-10.6837
▁здабыча	-10.6839
▁французскім	-10.6841
▁канчатковы	-10.6843
▁раўніна	-10.6845
▁валас	-10.6847
▁мозг	-10.6849
▁турэцка	-10.6851
▁балота	-10.6854
▁штучна	-10.6855
▁заснавал	-10.6857
▁пароды	-10.6857
▁гарадск	-10.6859
▁ахопліва	-10.686
▁Інстытут	-10.6868
▁дваранства	-10.687
▁Імперы	-10.6874
▁маскоўска	-10.6875
▁аналіз	-10.6882
▁калон	-10.6883
▁варот	-10.6883
▁духоўны	-10.6885
▁партызанскі	-10.6889
гуле	-10.6892
▁Аршанскі	-10.6894
▁Прэм	-10.6894
полк	-10.6894
рдэна	-10.69
▁бацькоў	-10.6902
▁фізі	-10.6903
▁белым	-10.6903
▁намер	-10.6905
▁вода	-10.6909
двард	-10.6917
▁ніяк	-10.6921
▁лева	-10.6923
▁пераехал	-10.6931
▁агляд	-10.6932
▁выкарыстаны	-10.6934
▁сектар	-10.6936
▁пакрыта	-10.6937
▁творча	-10.6942
▁ёзна	-10.6942
▁драм	-10.6943
▁моцным	-10.6944
▁пап	-10.6948
▁распаўсюджванн	-10.6948
▁дзяцінства	-10.6966
▁прыкладам	-10.6972
▁Выступа	-10.6972
▁шляхецка	-10.6973
▁выкананне	-10.6973
была	-10.6973
▁камандзіра	-10.6974
▁графства	-10.6975
▁ява	-10.6976
▁манах	-10.6979
▁зборніка	-10.6995
адта	-10.6996
▁арганізавана	-10.7001
▁вер	-10.701
▁заказнік	-10.7012
▁115	-10.7015
▁сцвярджае	-10.7026
▁памяшкання	-10.7028
▁Грузі	-10.7033
▁база	-10.7035
▁стварыл	-10.7047
▁Адной	-10.7048
▁Афіцыйна	-10.7049
▁пераварот	-10.7049
▁паўплывал	-10.7049
▁мінула	-10.705
▁Генрых	-10.705
▁Віленск	-10.7057
рша	-10.7058
▁партызанска	-10.7058
▁сум	-10.7061
▁паліва	-10.707
▁банк	-10.7072
▁майстэрн	-10.7073
▁Румыні	-10.7073
▁дадаткова	-10.7074
▁юрыдычны	-10.7083
▁уласнасц	-10.7086
▁вядучы	-10.7088
▁трагеды	-10.7088
▁Атрымаў	-10.7089
▁спыніла	-10.7096
▁ч	-10.7098
▁генеральны	-10.7101
▁жыво	-10.7102
уан	-10.7106
▁вясн	-10.7107
▁Міністра	-10.7121
▁Іспанія	-10.7122
ань	-10.7123
▁Урад	-10.7124
▁Фларэнцы	-10.7128
▁Багдановіч	-10.7128
гіпц	-10.7128
▁Віцебскі	-10.7129
цкага	-10.7132
▁Антон	-10.7133
▁Джона	-10.7136
ста	-10.7138
айстар	-10.7147
▁Іран	-10.7148
▁Генрыха	-10.7148
▁драўляным	-10.7151
▁манархі	-10.7158
▁працяглы	-10.7165
▁ўніверсітэц	-10.7167
▁квартал	-10.7167
▁Сувора	-10.7167
▁прапаганд	-10.7167
▁кажа	-10.7167
▁рэжысёр	-10.7168
▁Дзейніча	-10.7168
▁літаральна	-10.7172
▁адбывал	-10.7178
▁ядро	-10.718
▁Названа	-10.7188
▁вар	-10.7189
▁Сапега	-10.72
▁Японія	-10.7204
▁Свіслач	-10.7207
▁параўнальна	-10.7207
▁Францыск	-10.7207
▁паступа	-10.7209
▁загінула	-10.7218
ту	-10.7224
▁пячор	-10.7224
▁падтрымліваў	-10.7227
▁Ягайла	-10.7232
▁Візанты	-10.7233
▁Галоўным	-10.7238
▁паказваю	-10.7238
▁ўваход	-10.7239
▁дырэктарам	-10.7242
▁накіравана	-10.7243
▁цэнтральн	-10.7244
▁полюса	-10.7244
НД	-10.7245
▁разнавіднасц	-10.7247
▁мяркую	-10.7247
▁калонія	-10.7255
▁51	-10.7262
▁утварае	-10.7264
▁рэчаіснасц	-10.7264
▁Кіеў	-10.7267
▁архітэктурны	-10.727
▁дата	-10.7274
▁ўстанова	-10.7275
▁самім	-10.7277
рэшт	-10.7286
▁напо	-10.7288
▁участка	-10.7288
дала	-10.7291
▁супрацоўніча	-10.7296
▁135	-10.7298
▁футбольны	-10.7299
▁навуковым	-10.7302
▁Мо	-10.7302
▁бульб	-10.7304
▁захоўва	-10.7305
▁блок	-10.7305
▁іспанскі	-10.7311
▁ўзнікненн	-10.7311
зень	-10.7314
▁адмовіў	-10.7315
▁праграму	-10.7317
▁аднайменны	-10.7317
▁становішч	-10.7319
▁Казахстан	-10.732
▁незалежны	-10.7326
▁геаграфі	-10.7326
▁Кіраўнік	-10.7327
▁Палесцін	-10.7327
▁гандлёва	-10.7329
▁Карал	-10.7334
▁Ан	-10.7335
▁бялк	-10.7341
▁прамы	-10.7342
▁позня	-10.7346
▁Дэмакратычна	-10.7347
▁правял	-10.735
цкі	-10.7352
▁падзяля	-10.7355
▁пахавання	-10.736
▁эксперымент	-10.7367
▁электрычны	-10.7367
▁непадалёк	-10.7368
▁даны	-10.7368
▁руха	-10.7371
▁структура	-10.7372
▁класіцызм	-10.7374
▁найважнейшы	-10.7376
▁каро	-10.7387
▁Мексік	-10.7387
▁чалавечы	-10.7392
▁кірун	-10.7394
▁аналізу	-10.7404
▁1870	-10.7404
▁патэнцыял	-10.7405
▁Нептун	-10.7408
▁знішчаны	-10.7408
▁расліна	-10.741
▁ход	-10.7412
▁вярнула	-10.7413
▁7,	-10.7415
▁афіцыйным	-10.7417
▁тагачасн	-10.7417
▁самалёт	-10.7423
▁чэмпіяна	-10.7424
▁перакладчык	-10.7425
▁радовішча	-10.7426
▁чырвоным	-10.7427
▁германскі	-10.7428
▁глыбокі	-10.7428
адні	-10.7429
▁далі	-10.7432
▁механік	-10.7434
▁пяск	-10.7436
▁буйна	-10.7437
след	-10.7437
▁Інданезі	-10.744
▁Мір	-10.744
▁рэзідэнцы	-10.7441
▁Палат	-10.7441
▁Інстыту	-10.7442
▁Ісус	-10.7444
▁Месяца	-10.7447
ФР	-10.7448
▁гістарыяграфі	-10.7448
▁найбуйнейша	-10.7448
▁арабскі	-10.745
▁тавар	-10.7452
▁веды	-10.7454
▁рабо	-10.7455
ро	-10.7457
▁прама	-10.7458
▁тэрмінам	-10.746
▁дэмакратычны	-10.7462
▁СП	-10.7463
▁каралева	-10.7464
▁наст	-10.7471
▁турыста	-10.7471
▁пасла	-10.7475
▁падатк	-10.7478
▁прытрымліва	-10.7485
▁адрас	-10.7487
▁выдавецтва	-10.7489
▁Кацярын	-10.7491
▁гуля	-10.7496
▁асобін	-10.7496
▁павялічыла	-10.7497
нова	-10.75
▁змена	-10.75
▁дазваляю	-10.7507
▁кон	-10.7507
▁Ліг	-10.7508
▁прызнал	-10.7511
▁ўведзена	-10.7512
▁магутны	-10.7521
▁лагера	-10.7521
▁сушы	-10.7521
▁сродка	-10.7522
оч	-10.753
▁Кіев	-10.7531
▁акупант	-10.7531
▁каменна	-10.7532
▁канфедэрацы	-10.7533
▁японска	-10.7534
▁надвор	-10.7536
▁пунктам	-10.7536
▁адны	-10.7536
▁Людовік	-10.7546
▁падпісаны	-10.7548
▁вясно	-10.7553
▁традыцый	-10.7555
▁княств	-10.7557
▁зан	-10.7566
▁ацэнк	-10.7568
▁Аршанска	-10.7571
▁сцёк	-10.7573
▁машынабудаванн	-10.7574
▁раёнам	-10.7576
▁пасёлк	-10.7583
▁англійск	-10.7586
▁плана	-10.7589
▁сумес	-10.7592
▁выпуск	-10.76
▁навуча	-10.7603
▁гімна	-10.7605
ДР	-10.7606
▁патрабаванн	-10.7609
▁ледз	-10.761
▁забіл	-10.7615
▁выступіл	-10.7615
шоў	-10.7618
▁Сапег	-10.762
▁фасада	-10.7625
▁афарбоўк	-10.7626
▁паняцця	-10.7626
▁Геро	-10.7634
▁адс	-10.7634
ізму	-10.7637
▁выявіў	-10.7645
▁Аўстра	-10.7649
▁лідара	-10.7653
▁усталяваны	-10.7655
▁знойдзена	-10.7655
▁восем	-10.7659
▁бака	-10.7664
▁зал	-10.767
▁вырашана	-10.7677
▁турк	-10.7684
▁мусульман	-10.7684
▁скуры	-10.7684
лю	-10.7684
▁вайсковы	-10.7685
▁акцы	-10.7685
▁шчыт	-10.7689
▁духавенства	-10.7696
▁інтэлігенцы	-10.7696
▁Востра	-10.7696
▁дзясятк	-10.77
▁носіц	-10.7701
▁закліка	-10.7704
▁прывё	-10.7704
▁аграгарад	-10.7711
▁дзелі	-10.7712
▁ўсходнім	-10.7716
▁пасло	-10.7717
▁асаблівы	-10.7718
▁залів	-10.7723
▁кватэр	-10.7733
▁169	-10.7733
▁глін	-10.7741
▁Бітв	-10.7742
▁тэхналогі	-10.7742
▁каза	-10.7743
▁вылучае	-10.7746
▁Віктар	-10.775
▁вяла	-10.775
▁кв	-10.775
▁душы	-10.7752
▁спаборніцтва	-10.7752
▁1,2	-10.7754
▁кампанент	-10.7756
▁навукоўцы	-10.7761
▁эканоміц	-10.7762
▁велізарны	-10.7763
▁паўста	-10.7764
▁Каралеўска	-10.7767
▁Планк	-10.777
▁паток	-10.7774
▁элементам	-10.7778
▁1880	-10.778
ойнік	-10.7787
▁каталог	-10.779
▁старэйша	-10.7792
▁спосабам	-10.7792
▁фр	-10.7794
▁Вільнюс	-10.7797
▁прадстаўнікам	-10.7802
еры	-10.7805
туры	-10.7815
пярэд	-10.7819
▁медыцынска	-10.7823
▁жыла	-10.7825
▁вяртае	-10.7828
▁мяч	-10.7828
▁су	-10.7839
▁узрос	-10.7842
▁паўвостра	-10.7843
▁называла	-10.7845
▁папер	-10.7847
▁Людовіка	-10.7848
▁падрыхтоў	-10.7851
▁62	-10.7853
▁147	-10.7856
вазе	-10.7863
▁малюн	-10.7864
▁бра	-10.7866
▁Вынік	-10.7866
▁культурным	-10.7869
▁фабрык	-10.7885
▁пражыванн	-10.7889
▁зялёна	-10.7896
▁праваслаў	-10.7899
▁ваколіц	-10.79
ру	-10.79
М	-10.7902
▁Кракав	-10.7907
▁баг	-10.7907
▁бачны	-10.7907
▁ліквідацы	-10.7907
▁абарончы	-10.7908
сі	-10.7912
▁студы	-10.7912
▁стату	-10.7913
▁Вярхоўн	-10.7915
▁матч	-10.7919
▁сацыялістычна	-10.7923
▁еха	-10.7929
▁паўвострав	-10.7934
▁атрымліваю	-10.7938
ому	-10.7938
▁вяду	-10.7939
туль	-10.7939
▁Англія	-10.7939
▁апрацоўк	-10.7947
▁Фрэйд	-10.795
▁Мюнхен	-10.795
▁Прыкладна	-10.795
оўка	-10.7952
▁Захад	-10.796
▁узбярэжжа	-10.7962
▁бакавы	-10.7963
▁Два	-10.7963
▁сотн	-10.7964
▁нагод	-10.7971
▁кангрэс	-10.7971
▁аднаўленне	-10.7972
▁Ірана	-10.7974
▁швед	-10.7985
▁мінеральны	-10.7989
▁скрыжаванн	-10.7992
▁полацкі	-10.7993
▁Палеска	-10.7994
рэдк	-10.7994
▁эксперыментальн	-10.7997
▁Магілёў	-10.7998
▁шчыльна	-10.7999
▁Сва	-10.8001
▁халодны	-10.8004
▁Свабод	-10.8006
ве	-10.8009
ршы	-10.8011
▁Ла	-10.8012
▁палавы	-10.8013
▁Літоўск	-10.8013
▁перамов	-10.8019
▁вадкасц	-10.8023
▁вольна	-10.8026
▁Дум	-10.8032
▁уладання	-10.8032
экспір	-10.8036
▁мяркуе	-10.8036
▁Новага	-10.8036
▁Паходзі	-10.8037
▁відавочна	-10.8037
▁паэтычны	-10.8037
▁Райт	-10.8038
▁Героя	-10.8039
▁уваходзіл	-10.8041
ко	-10.8041
▁гаспадара	-10.8042
▁Далін	-10.8056
▁звярну	-10.8058
▁публічна	-10.8063
▁камбінат	-10.8064
▁Ніжні	-10.8079
▁вучэнне	-10.8079
▁Верагодн	-10.808
▁Краін	-10.808
▁узяты	-10.8082
▁Кіпр	-10.8086
▁абапіра	-10.8086
▁Адам	-10.8092
06	-10.8092
▁Брытані	-10.8093
,8	-10.8096
▁лічб	-10.8101
▁шведска	-10.8105
▁накіраваў	-10.8107
▁Турцыя	-10.8109
▁аднаві	-10.8112
▁забудов	-10.8118
▁звярнуў	-10.8118
▁Апр	-10.8118
▁прафесара	-10.812
▁ўласнасц	-10.8121
▁Каліфорні	-10.8122
▁ажыццяўленн	-10.8122
▁карысны	-10.8124
▁рымлян	-10.8128
▁дзесяцігоддз	-10.8129
▁багацце	-10.8132
▁Прусія	-10.8133
▁аперацыя	-10.8138
▁знішчэнн	-10.814
▁паўднёв	-10.8148
▁88	-10.8149
абель	-10.8151
▁абіра	-10.8152
▁электрычна	-10.8155
▁грыб	-10.8157
▁Уладзіслава	-10.8158
▁Уладзісла	-10.8159
▁падпарадкоўва	-10.8161
▁ярка	-10.8164
▁герцагства	-10.8166
▁найбол	-10.8166
▁ўздзеянн	-10.8166
▁Рэй	-10.8169
▁пара	-10.8171
▁усю	-10.8172
▁Сіры	-10.8175
цэнтры	-10.8176
▁паст	-10.8176
▁абаронца	-10.818
▁Антарктыд	-10.818
▁мінерал	-10.8182
▁прыбытк	-10.8198
▁дасяга	-10.82
▁выдае	-10.8206
▁Георгі	-10.821
▁Афіцыйны	-10.821
▁псіхалогі	-10.821
▁Сучасна	-10.8212
▁школьн	-10.8215
ман	-10.8219
▁склікання	-10.8222
▁веж	-10.8223
▁заканадаўчы	-10.8224
▁мене	-10.8235
▁называў	-10.8235
▁Сабор	-10.8237
▁Ган	-10.824
авіч	-10.824
▁прызнанне	-10.8241
▁ПАР	-10.8242
▁лідарам	-10.8242
▁распрацавана	-10.8246
▁правядзенне	-10.8249
▁лікам	-10.8251
▁эвалюцы	-10.8252
▁камуна	-10.8253
▁пазбег	-10.8254
▁Пашыран	-10.8254
▁кааліцы	-10.8256
▁пачатковы	-10.8258
▁Канстанціна	-10.826
▁арганічны	-10.8266
ова	-10.8266
▁выдатна	-10.8271
▁праўда	-10.8271
▁запісаў	-10.8271
▁Утворан	-10.8277
▁захаванне	-10.8283
▁алфавіт	-10.8284
▁дэпутатам	-10.8287
▁мужа	-10.829
▁пар	-10.8291
ранейша	-10.8291
▁літаратура	-10.8294
▁далучэнн	-10.8294
▁разуменн	-10.8295
▁67	-10.8296
▁Тадэвуш	-10.8298
▁узнагароджаны	-10.8298
▁Наступны	-10.8299
▁Смаленск	-10.8301
▁інфармацыя	-10.8302
▁атама	-10.8305
ключала	-10.8308
▁дэлегацы	-10.8308
▁Закон	-10.8312
▁крыжак	-10.8315
▁мужчынскі	-10.8316
▁Вы	-10.8318
▁статут	-10.8321
▁сябра	-10.8322
▁жоўты	-10.8326
▁Філіп	-10.8326
▁Склада	-10.8328
▁мураваны	-10.8328
▁спява	-10.8332
▁Максіма	-10.8333
▁пасада	-10.8333
ваў	-10.8342
▁адкрытым	-10.8343
▁істотны	-10.8344
▁вол	-10.8353
▁шука	-10.8358
▁Прамо	-10.8362
▁паляванн	-10.8363
▁вось	-10.8367
▁персанаж	-10.837
▁Адама	-10.837
▁Рос	-10.838
▁выкарыстоўваў	-10.8382
▁меліярацыйны	-10.8383
▁прызначана	-10.8386
▁Прадпрыемств	-10.8387
▁паверх	-10.8388
▁Ленінград	-10.8389
▁ліста	-10.8393
▁банка	-10.8397
▁муж	-10.8397
▁Ягайл	-10.8404
▁ранейшы	-10.8409
▁прыеха	-10.8412
▁абмежаваны	-10.8414
▁дасягну	-10.8416
▁ўтрыманн	-10.842
▁выкладчык	-10.8423
▁змяня	-10.8425
▁міністэрства	-10.8426
▁Заходн	-10.8437
▁націск	-10.8438
▁адзначыў	-10.8439
▁сусветны	-10.8444
▁альбома	-10.8445
▁Пап	-10.8446
эн	-10.8447
▁тэхнічна	-10.845
▁Вен	-10.8451
▁Польскі	-10.8453
сярэдзін	-10.8453
▁фінансава	-10.8455
▁пагаднення	-10.846
▁кантынента	-10.846
▁Значна	-10.8466
86	-10.8474
▁таўшчын	-10.8478
расту	-10.8478
▁кВ	-10.8478
▁лацінск	-10.8478
▁катастроф	-10.848
ўска	-10.8481
▁бел	-10.8486
▁меркаванн	-10.8487
▁дзіцяча	-10.8494
▁прымалі	-10.8496
▁эканамічным	-10.85
ват	-10.8502
▁заканадаўства	-10.851
▁галасаванн	-10.8511
▁прадмета	-10.8512
▁83	-10.8516
▁губернатар	-10.8517
▁малюнка	-10.8518
ведалі	-10.8519
▁задача	-10.8519
▁пазбаўлены	-10.8522
▁палярны	-10.8522
▁еўра	-10.8523
ылі	-10.8524
▁даход	-10.8525
▁Янка	-10.8528
▁папулярным	-10.8529
▁друг	-10.8533
▁паставіў	-10.8534
▁136	-10.8541
▁ландшафт	-10.8543
▁страт	-10.8544
▁класічны	-10.8544
▁гіпотэз	-10.8546
▁мерапрыемства	-10.8547
▁прэс	-10.8554
▁Драгічынскі	-10.8558
▁рабіў	-10.8564
▁дасягаю	-10.8565
▁магнітна	-10.8568
▁Ньютан	-10.8569
коў	-10.8582
▁Існую	-10.8583
▁настаўнік	-10.8585
▁імкненне	-10.8585
25	-10.8587
▁складзена	-10.8589
вой	-10.8593
▁супада	-10.8594
▁кожн	-10.8597
рам	-10.8601
супраць	-10.8603
▁далучыў	-10.8605
▁агн	-10.8607
▁усходні	-10.8608
▁народн	-10.8609
▁інтэр	-10.8612
▁геаметры	-10.8612
▁дысцыплін	-10.8619
▁відам	-10.8626
▁апісання	-10.8635
▁іду	-10.8637
▁зарад	-10.8639
▁стаўленне	-10.8641
▁апавяданн	-10.8645
▁Белы	-10.865
ж	-10.8653
ары	-10.8653
▁актрыса	-10.8656
▁герцаг	-10.8659
▁0,2	-10.8659
▁кукуруз	-10.8659
▁палотн	-10.8659
▁1840	-10.866
▁распаўсюджванне	-10.8665
▁выяўляе	-10.8665
рыя	-10.867
▁работнік	-10.8673
▁ўзброены	-10.8674
▁сродкам	-10.8675
▁практы	-10.8675
▁ТБ	-10.8675
▁матэрыяльна	-10.8693
▁астатня	-10.8693
▁стадыён	-10.8695
ВК	-10.8699
▁аказва	-10.87
лях	-10.8701
▁талент	-10.8705
▁скараці	-10.8706
▁плоскасц	-10.8707
▁Урал	-10.8708
▁рын	-10.8717
▁быццам	-10.8717
▁кош	-10.8718
▁позні	-10.8719
▁пасяджэнн	-10.8725
▁Міхал	-10.8727
▁кн	-10.8728
▁збіра	-10.8731
▁гаворы	-10.8733
▁руча	-10.8737
▁рэчы	-10.8737
▁рэальнасц	-10.8737
▁вяршыня	-10.8737
▁прафесійна	-10.874
▁Венер	-10.8741
▁Касцёл	-10.8752
▁паляпшэнн	-10.8752
▁гістарычным	-10.8755
▁дырэктара	-10.8756
▁абараня	-10.8758
▁пахаванн	-10.8766
▁бюр	-10.8768
▁скорасц	-10.8768
▁уступіў	-10.8768
▁прызначыў	-10.8769
▁дапамаг	-10.8773
▁Украінска	-10.8778
▁прадукты	-10.8782
▁срод	-10.8784
▁герцага	-10.8785
мен	-10.8787
▁вырабляе	-10.8787
▁надае	-10.8787
лікам	-10.8787
▁рад	-10.8792
▁ўзнагарод	-10.8795
▁пераведзен	-10.8795
▁знакаміта	-10.8795
▁навакольна	-10.8798
▁гараджан	-10.8798
▁Варшаўска	-10.8798
▁кухн	-10.8799
▁1860	-10.8802
хто	-10.8809
оўскі	-10.8814
▁установа	-10.8818
▁прамов	-10.882
▁корм	-10.882
▁меркава	-10.882
▁мало	-10.8824
▁Індыя	-10.8828
▁ляжа	-10.8831
▁дэмакратычна	-10.8834
▁пачуцця	-10.8835
▁рухавіко	-10.8843
аражытнагрэчаска	-10.8845
▁выпраменьванн	-10.8849
▁абласны	-10.8854
▁гледач	-10.8857
▁Нацы	-10.8862
▁біскупа	-10.8867
▁звярта	-10.8868
▁памерл	-10.8868
часце	-10.887
▁халодна	-10.8872
▁захоўванн	-10.8873
евіч	-10.8873
▁цэла	-10.8873
▁Бо	-10.8877
▁вятр	-10.8881
▁Та	-10.8883
▁паўстанн	-10.8883
бывае	-10.8886
▁Прадстаўнік	-10.8892
▁ўтворана	-10.8892
▁рэстаўрацы	-10.8892
▁чэмпіён	-10.8894
▁працягла	-10.89
▁забаронена	-10.8902
▁Ні	-10.8907
▁пісьменнасц	-10.8912
▁адлюстраванне	-10.8915
▁выключан	-10.8915
▁нізіна	-10.8915
▁выйграў	-10.8917
▁Полацкі	-10.8926
▁Рух	-10.8926
РП	-10.8928
▁забяспечы	-10.8928
▁ўяўленн	-10.893
▁самастойны	-10.8931
▁утварэння	-10.8933
▁выдатк	-10.8935
▁пліт	-10.8938
вак	-10.8938
▁Камуністычна	-10.894
▁прыгарад	-10.8943
▁цвёрды	-10.8947
ень	-10.8947
▁Вене	-10.8948
тата	-10.8949
▁інтэнсіўна	-10.8952
▁3000	-10.8953
▁сустрэ	-10.8961
▁аўтобус	-10.8963
▁рэ	-10.8963
▁галосны	-10.897
▁чацвёрта	-10.8971
▁вагона	-10.8974
▁штаба	-10.8984
▁выдадзена	-10.8987
▁Галіле	-10.8989
орны	-10.8989
▁Войск	-10.8989
▁ўяўляю	-10.8989
▁атамны	-10.899
▁Мярку	-10.899
ногі	-10.8997
▁КН	-10.9003
▁Атлантычны	-10.9003
▁наведва	-10.9006
▁зычны	-10.9006
▁вонкава	-10.9006
▁быва	-10.9007
▁верніка	-10.9008
▁назіранн	-10.901
▁паўночн	-10.9012
маючы	-10.9018
▁Полацку	-10.9021
▁тэарэтычна	-10.9021
▁ўтрымлівае	-10.9022
▁сло	-10.9022
▁вышэйш	-10.9024
▁ўспамін	-10.9025
▁зразуме	-10.903
▁вокн	-10.9034
▁жалезна	-10.9034
▁слоўнік	-10.9042
ндар	-10.9042
▁пашырана	-10.9046
▁Алес	-10.9046
▁Луі	-10.9055
▁акт	-10.9059
▁забеспячэнне	-10.9064
КД	-10.9065
▁супраціўленне	-10.9065
▁сядзіб	-10.9068
▁выступленн	-10.9073
▁замежн	-10.9076
▁Грамадзянска	-10.9078
▁Далей	-10.908
▁Ап	-10.908
рэ	-10.908
туды	-10.9081
▁0,3	-10.9082
▁кіслат	-10.9083
▁Дэбютава	-10.9083
▁надрукаваны	-10.9083
▁адкрыла	-10.9086
▁суадносін	-10.9086
▁раніц	-10.9087
▁асяроддзе	-10.9092
▁дум	-10.9094
▁Венецы	-10.9096
▁працягва	-10.9108
▁любі	-10.9111
▁доўжы	-10.9112
▁паражэння	-10.9115
▁невялік	-10.9121
▁млекакормячы	-10.9121
▁ўключаю	-10.9123
ізацы	-10.9124
▁Яно	-10.9127
▁Кіева	-10.9129
▁падтрымлівае	-10.913
▁цэгл	-10.913
▁аўстрыйскі	-10.9137
кроў	-10.9146
▁ядна	-10.9146
▁узведзен	-10.9149
Заходня	-10.9156
▁заня	-10.9158
▁парафі	-10.9159
▁партыйн	-10.9159
▁абвяшчэнн	-10.9161
▁назіра	-10.9161
▁Марк	-10.9163
абраў	-10.9163
▁феадал	-10.9165
▁аказаў	-10.9169
▁абслугоўванн	-10.9177
▁Вебер	-10.9178
▁Грэнланды	-10.9178
▁Манголі	-10.9178
▁досвед	-10.918
▁галактык	-10.9183
▁абранн	-10.9195
▁пацярпе	-10.9197
▁шведскі	-10.9202
▁тэатральны	-10.9204
▁дазваляла	-10.9204
цер	-10.9207
▁літоўц	-10.9224
▁энергі	-10.9224
▁бліжэйшы	-10.9227
▁Сталыпін	-10.9227
▁прыпада	-10.9229
▁Слуцка	-10.9231
▁шырок	-10.9231
▁Петраград	-10.9233
сла	-10.9242
▁покрыва	-10.9242
▁групоўк	-10.9244
▁ра	-10.9247
▁Вілейскі	-10.925
▁майстэрства	-10.9251
▁цэрква	-10.9253
▁тэатральна	-10.9254
▁Баторы	-10.9254
▁унутрана	-10.9256
▁перамагл	-10.9258
▁паспрабава	-10.9261
стварылі	-10.9261
▁штучны	-10.9262
22	-10.9264
▁Вышэйша	-10.9264
▁рачны	-10.9264
▁Стаўбцоўскі	-10.9265
▁тэхналогіі	-10.9266
▁апублікавана	-10.9266
каў	-10.9269
▁Сусвет	-10.9271
▁грамадскім	-10.9272
ячэ	-10.9272
ьска	-10.9274
▁феадальна	-10.9278
▁дзікі	-10.9286
▁даследаванне	-10.9289
▁ўступіл	-10.9289
▁105	-10.929
▁энергія	-10.9292
▁Транспартны	-10.9295
▁аказалі	-10.9296
▁зімовы	-10.9297
▁рэгіянальны	-10.9297
▁палатн	-10.9302
▁разрад	-10.9317
▁судовы	-10.932
▁Напалеон	-10.9321
▁вузка	-10.9324
матлікі	-10.9325
▁экспазіцы	-10.9325
▁станаўленн	-10.9325
▁забаронены	-10.9325
▁выходзя	-10.9327
▁мер	-10.9327
▁дваран	-10.9331
▁142	-10.9338
стаўшы	-10.9346
▁чысты	-10.9347
▁артылеры	-10.9357
▁матча	-10.936
▁наваколл	-10.936
▁Дуна	-10.9366
▁дрэвы	-10.9372
▁дайшл	-10.9372
▁капітал	-10.9373
▁штурм	-10.9374
▁Міжземнамор	-10.9374
▁Саксоні	-10.9374
▁камерцыйны	-10.9374
▁Нерон	-10.9374
▁заўважы	-10.9375
▁астраномі	-10.9378
▁парламенцкі	-10.9379
78	-10.9389
▁Бел	-10.9392
▁84	-10.9398
▁цёпла	-10.94
▁паветраны	-10.9403
▁моц	-10.9404
▁ідэалогі	-10.9408
▁факультэ	-10.9411
▁найлепшы	-10.9415
▁карабля	-10.9419
▁адправі	-10.942
▁сабраў	-10.9422
▁выпушчаны	-10.9424
▁128	-10.9424
сёлка	-10.9427
▁выкліканы	-10.9428
▁хваля	-10.9429
▁паведамляе	-10.9432
▁браў	-10.9433
▁Парыжска	-10.9435
▁рэвалюцыя	-10.9436
▁Навагрудска	-10.9436
▁пасольства	-10.9442
▁вугал	-10.9442
ou	-10.9443
▁Стана	-10.9444
нджэл	-10.9445
▁спрэчк	-10.9445
▁міжнародн	-10.945
▁валют	-10.9451
▁судо	-10.9454
▁Афін	-10.9454
▁Лук	-10.9455
▁узнікл	-10.9456
▁шкод	-10.9458
▁паляванне	-10.9459
▁вярта	-10.9461
▁драматычны	-10.9462
▁выявілі	-10.9465
▁маштаб	-10.9467
▁дасягненн	-10.9468
▁узнагарод	-10.9473
▁узначалі	-10.9473
октар	-10.9474
▁навучальна	-10.9483
▁кітайскі	-10.9485
так	-10.9485
▁бачна	-10.9489
▁146	-10.949
▁8-	-10.949
▁камандава	-10.9492
▁ўтварэнн	-10.9495
▁даследава	-10.9498
▁Глеб	-10.9498
▁немцам	-10.9498
▁табліц	-10.9504
▁Зеланды	-10.9512
▁камандуючы	-10.9514
▁праўд	-10.9515
▁выпуска	-10.952
▁чыта	-10.9522
▁найперш	-10.9523
▁становя	-10.9523
▁аспірантур	-10.9523
▁завяршыў	-10.9525
▁падземны	-10.9533
▁350	-10.9533
▁фізіка	-10.9533
▁істот	-10.9535
▁поўным	-10.9535
▁Самым	-10.9538
▁пратэст	-10.954
▁Джа	-10.9542
▁00	-10.9542
▁павелічэнн	-10.9543
▁Вышэйшы	-10.9545
неслі	-10.9545
▁Во	-10.9546
▁здагадк	-10.9549
▁народам	-10.955
▁Калінкаві	-10.9551
▁логік	-10.9553
▁Кожна	-10.9555
▁знікл	-10.9556
бар	-10.9558
▁культ	-10.9559
▁нарыс	-10.9561
▁магістра	-10.9561
▁абсталяванне	-10.9565
▁гарнізон	-10.9565
▁Фрыдрыха	-10.9567
▁квантава	-10.9569
▁скарб	-10.957
▁асноўн	-10.9571
▁124	-10.9571
▁1850	-10.9572
▁залатым	-10.9572
▁Сме	-10.9573
▁двухбакова	-10.9573
▁егіпецкі	-10.9573
▁мякка	-10.9573
▁сесі	-10.9574
▁амерыканскім	-10.9574
▁кветкі	-10.9578
▁дыпламатычны	-10.9579
▁Максім	-10.9581
▁ўзяў	-10.9582
▁ўвайш	-10.9583
▁Волг	-10.9583
ніцтва	-10.9595
арта	-10.9595
▁формул	-10.9596
▁71	-10.9597
шта	-10.9602
▁тур	-10.9605
▁Роберт	-10.961
▁132	-10.9613
▁павялічы	-10.9613
▁дзевя	-10.9614
▁касмічны	-10.9615
▁Арганізацы	-10.9619
▁функцыя	-10.9623
▁каталіцтв	-10.9624
▁бактэры	-10.9624
▁вадарод	-10.9624
▁пірамід	-10.9624
▁127	-10.9625
▁падпісана	-10.9634
▁прамым	-10.9636
▁адзначаны	-10.965
▁зняты	-10.9652
абудова	-10.9654
▁дробна	-10.9657
тан	-10.9658
▁Вайніловіча	-10.9659
▁распачаў	-10.9661
▁самалёта	-10.9662
▁тагачасны	-10.9663
▁рэалізацы	-10.9665
▁лепшым	-10.9666
▁хворы	-10.9668
▁заслуг	-10.967
▁авіяцы	-10.967
▁ланцуг	-10.9671
▁Кацярына	-10.9672
▁захапі	-10.9673
емінгуэ	-10.9675
▁гібел	-10.9675
▁кіруе	-10.9675
▁перададзена	-10.9675
▁ўключаны	-10.9677
▁гуртк	-10.9678
▁спектр	-10.9681
▁кірава	-10.9681
▁адзнак	-10.9683
▁абсталяванн	-10.9685
▁паведамі	-10.9687
даваў	-10.9687
▁камуністычна	-10.9687
▁дамена	-10.969
ор	-10.9692
▁аказвае	-10.9696
▁кіеўскі	-10.9708
▁федэрацы	-10.9718
▁Араві	-10.9718
▁украінскі	-10.9721
▁кірмаш	-10.9726
▁торф	-10.9726
▁сказа	-10.9726
▁племя	-10.9726
▁сканчэнн	-10.9727
ырока	-10.9727
▁трапляе	-10.9729
▁перадае	-10.9732
▁епіскапа	-10.9734
▁выпуску	-10.9734
▁чум	-10.9736
▁Залаты	-10.974
▁асобнік	-10.9747
▁123	-10.9751
▁вырашылі	-10.9753
▁Ка	-10.9758
▁пралі	-10.9762
▁8,	-10.9768
эхаславакі	-10.977
▁пагадзі	-10.977
ер	-10.9771
▁ўкраінска	-10.9774
▁германска	-10.9776
▁бізнес	-10.9777
▁дыяпазон	-10.9777
▁Міхайлавіч	-10.9777
▁наперад	-10.9777
▁прысвяці	-10.9779
▁тэксты	-10.9781
▁адышл	-10.9793
▁Карэ	-10.9795
▁выстав	-10.9799
пэўна	-10.98
▁гістарычн	-10.98
▁вызваленне	-10.98
▁пяхот	-10.9801
▁саюзніка	-10.9808
▁галерэя	-10.9809
▁пісьмо	-10.9812
▁установ	-10.9815
▁хмызняко	-10.9816
▁пазіцыя	-10.9823
радак	-10.9825
▁перашкод	-10.9825
▁лячэнн	-10.9826
▁пазнейшы	-10.9828
▁0,4	-10.9829
▁зняволены	-10.9829
▁святло	-10.9829
▁далёкі	-10.9831
▁найстарэйшы	-10.9833
▁сыравін	-10.9836
▁вучылішч	-10.9836
екалькі	-10.9838
▁трактат	-10.9841
▁бронзавы	-10.985
нне	-10.9851
▁Яраслаў	-10.9853
▁ўплыва	-10.9854
▁студэнт	-10.9857
▁збудаванне	-10.9859
▁няўдала	-10.9865
гуляў	-10.9866
▁напісанн	-10.9868
▁рэвалюцыйны	-10.9871
▁прымусіл	-10.9873
▁прастор	-10.9874
▁жаб	-10.9874
▁0,1	-10.988
▁рамонт	-10.9882
▁адкрыцц	-10.9883
▁Канстанцінопаль	-10.9892
▁сустрака	-10.9893
▁размяшчэнне	-10.9893
ож	-10.9895
эй	-10.99
▁калегі	-10.9906
▁метадам	-10.9909
▁мацерык	-10.991
▁фракцы	-10.9911
44	-10.9912
▁прамавугольна	-10.9913
▁знаходк	-10.9914
▁судова	-10.9914
▁Грэцыя	-10.9919
▁ствараю	-10.9923
▁дакладны	-10.9923
▁удал	-10.9925
▁раённы	-10.9926
▁залато	-10.9927
72	-10.9929
▁абароне	-10.9932
▁Найвышэйша	-10.9932
▁подпіс	-10.9933
▁візіт	-10.9933
▁Стаў	-10.9934
▁выйсц	-10.9937
▁абазначэння	-10.9938
вага	-10.9939
▁яўрэ	-10.9942
▁сабак	-10.9947
▁адклад	-10.9955
▁заменены	-10.9956
▁Аснов	-10.996
▁7-	-10.9965
▁павелічэнне	-10.9965
▁пасажырскі	-10.9965
вер	-10.9974
▁падтрымаў	-10.9979
скар	-10.9983
▁распрацоў	-10.9983
▁супярэчнасц	-10.9985
▁прыцягва	-10.9986
▁залоз	-10.9988
▁дыяметра	-10.999
▁апостала	-10.999
▁магчымым	-10.9993
▁дрэнна	-10.9994
▁вызначэнне	-10.9994
▁падабенства	-10.9998
▁Аляксандравіч	-10.9999
▁Буйны	-11.0001
▁прызнана	-11.0006
▁Ліві	-11.0007
▁Барыс	-11.0011
▁Уз	-11.0012
▁прадметам	-11.0014
▁Найбуйнейшы	-11.002
ПА	-11.002
▁рэспубліканскі	-11.0024
▁Льв	-11.0026
▁пакарання	-11.0026
▁змяні	-11.0031
▁адміністрацыя	-11.0033
▁пакаленн	-11.0037
кшталт	-11.0037
▁вадаспад	-11.0037
▁папуляцы	-11.0037
▁стромкі	-11.0042
▁выканана	-11.0044
▁падае	-11.0044
▁карціна	-11.0048
▁прадстаўніцтв	-11.0049
піва	-11.0049
▁1,6	-11.005
▁вайскова	-11.0051
▁філіял	-11.0051
▁1820	-11.0057
▁калектыв	-11.0061
▁гаспадарча	-11.0063
▁s	-11.0063
▁адыгрыва	-11.0068
▁рэдакцыя	-11.0069
▁лац	-11.0075
шмат	-11.0081
▁ўведзены	-11.0081
▁труп	-11.0082
▁юрыдычна	-11.0084
▁Калумбі	-11.0085
▁ёзны	-11.0085
▁жанчына	-11.0088
▁Твор	-11.0088
▁мышц	-11.0089
▁Албані	-11.0091
▁Вёск	-11.0091
▁літоўск	-11.0092
▁дадзеным	-11.0094
▁Марцін	-11.0098
▁наваколля	-11.0105
льц	-11.0107
▁Малдов	-11.0113
нь	-11.0118
▁лясно	-11.0118
▁прытокам	-11.0121
▁гарадзішча	-11.0122
▁станаві	-11.0125
▁пазіцый	-11.0129
▁87	-11.0129
▁Джэймс	-11.013
ель	-11.0132
▁адрозніваюц	-11.0132
▁выходзіл	-11.0132
▁гетмана	-11.0136
▁шырот	-11.0144
▁Туніс	-11.0144
▁уваходзя	-11.0145
▁абарот	-11.0148
▁выклікана	-11.0148
▁найвышэйшы	-11.0149
▁Астрав	-11.015
▁наведваў	-11.015
▁пяты	-11.015
▁найвышэйша	-11.0152
▁здароўе	-11.0154
▁рухаў	-11.0161
дварда	-11.0164
▁жаданне	-11.0165
падобна	-11.0172
▁афіцэр	-11.0173
▁рот	-11.0175
▁ветр	-11.0176
▁драматург	-11.0177
▁Івацэвіцкі	-11.0177
▁бібліятэ	-11.0179
▁аўтамабіль	-11.0182
▁паслядоўнасц	-11.0183
▁900	-11.0187
▁сфера	-11.0189
▁сімфоні	-11.0197
стыя	-11.0199
▁ютарны	-11.0199
▁інтарэса	-11.0201
▁механічны	-11.0202
йнштэйна	-11.0203
▁Нансена	-11.0203
▁рухам	-11.0205
▁Аўстралія	-11.0205
▁68	-11.0211
▁хрыбта	-11.022
▁абедзв	-11.0222
▁пярэдня	-11.0223
▁філасофска	-11.0225
▁тэндэнцы	-11.0226
▁Блізкі	-11.0234
▁астраном	-11.0243
▁Рыгор	-11.0247
▁ідэал	-11.0249
▁матэрыяльны	-11.0249
▁дадат	-11.025
чыльнасц	-11.0251
▁развівал	-11.0251
▁Груп	-11.0253
▁базы	-11.0258
бачыў	-11.0259
▁Яўген	-11.0271
▁кантроле	-11.0272
▁здыма	-11.0274
▁манарха	-11.0274
▁выклікаў	-11.0277
▁дапамага	-11.028
▁ўкраінскі	-11.028
▁украінска	-11.0282
▁пушч	-11.0289
▁Кангрэс	-11.0294
29	-11.0294
▁зліцц	-11.0296
дому	-11.0299
▁пастаянны	-11.03
▁вучэння	-11.0302
▁атамна	-11.0303
▁біялагічны	-11.0305
▁завершана	-11.0305
▁зарэгістравана	-11.0306
▁следства	-11.0306
▁суполк	-11.0307
▁Тытан	-11.0307
▁Малер	-11.0307
▁Мікалаевіч	-11.031
▁намесніка	-11.0317
▁фаз	-11.0318
▁Паўднёв	-11.032
▁археолаг	-11.0323
йнштэйн	-11.0324
▁ўмацавання	-11.0325
▁вузкі	-11.0328
раду	-11.0331
▁74	-11.0331
▁ням	-11.0334
▁пояса	-11.0339
скім	-11.0341
▁Вільгельма	-11.0345
▁працягнуў	-11.0348
▁прадставі	-11.035
анцы	-11.0355
▁Ален	-11.0355
▁Выкарыстоўва	-11.0356
▁закладзены	-11.0356
▁Ры	-11.0356
▁абсерваторы	-11.0359
▁грудно	-11.0359
ём	-11.0363
▁мастацк	-11.0364
▁старонка	-11.0364
▁моста	-11.0367
▁японскі	-11.0371
▁1,3	-11.0371
▁закрыты	-11.0375
▁афіцэра	-11.0375
▁поспехам	-11.0376
▁медаль	-11.0377
СД	-11.0378
▁ядноўвае	-11.0378
▁Статут	-11.0381
▁медалё	-11.0382
▁Троцкі	-11.0383
▁выдава	-11.0386
▁паездк	-11.0391
гета	-11.0394
▁93	-11.04
ведзены	-11.0401
▁пабудо	-11.0404
▁пласт	-11.0407
▁франта	-11.0408
▁паняцц	-11.041
▁паралельн	-11.0411
▁эсперант	-11.0412
▁жывёлагадоўля	-11.0414
▁меншасц	-11.0414
▁матэматычны	-11.0415
▁дазволіў	-11.0415
рыня	-11.0416
▁рухавіка	-11.0417
▁дэманстрацы	-11.0418
▁выгнанн	-11.0423
▁лістоў	-11.0425
▁ІІ	-11.0431
▁аўтарытэт	-11.0431
рысто	-11.0435
▁вера	-11.0435
▁найменша	-11.0437
▁ядзерна	-11.0439
▁арганізатар	-11.0441
▁заваявання	-11.0444
▁думка	-11.0444
▁яркі	-11.0447
▁злачынства	-11.0449
▁фарміраванн	-11.045
▁тэрытарыяльны	-11.0452
▁аддаў	-11.0463
▁падтрымліва	-11.0463
▁сталы	-11.0467
▁Праваслаўна	-11.0469
▁Дзяржав	-11.0469
▁будынкам	-11.0469
▁занесены	-11.0469
▁ўжыт	-11.047
▁арэн	-11.0471
▁жалезны	-11.0472
▁эканамічн	-11.0472
▁прызнання	-11.0474
▁эпідэмі	-11.0477
▁Рэ	-11.048
76	-11.0481
▁ўзначальва	-11.0486
губернатар	-11.0486
▁злучэнн	-11.0486
▁задні	-11.0488
▁забяспечваю	-11.0491
▁навакольны	-11.0496
▁пабудова	-11.0508
▁ўчаст	-11.0509
▁матэматычна	-11.0513
рдэн	-11.0517
агон	-11.052
▁тэрміна	-11.052
▁спалучэнне	-11.0522
▁запрашэнн	-11.0524
▁Увес	-11.0524
▁хрышчэнн	-11.0525
▁ўсталяваны	-11.0525
▁гандляр	-11.0527
▁нядзел	-11.0528
▁сінтэз	-11.0531
▁звалі	-11.0534
намс	-11.0538
▁медыцыны	-11.054
▁міжнародным	-11.0541
▁поўн	-11.0542
▁скульптар	-11.0545
▁спецыяльнасц	-11.0546
▁бедны	-11.055
▁прыкметна	-11.0551
▁дало	-11.0557
▁Ліс	-11.0561
▁аркестра	-11.0562
цка	-11.0563
▁паходз	-11.0564
▁маленька	-11.0565
▁родны	-11.0565
▁зямны	-11.0571
▁хатня	-11.0573
▁псеўданімам	-11.0574
▁Савецк	-11.0574
сьц	-11.0575
▁сектара	-11.0575
▁загада	-11.0578
oo	-11.0582
граф	-11.0583
▁палова	-11.0584
▁генеральн	-11.0584
▁павятовы	-11.059
▁Бар	-11.0596
▁патрэбны	-11.0597
▁пасажыра	-11.0601
▁анг	-11.0603
▁вылучы	-11.0607
▁прылеглы	-11.0608
▁2000-	-11.0608
▁спецыялістаў	-11.0609
▁узброены	-11.0612
▁82	-11.062
▁дэкаратыўна	-11.062
▁заяв	-11.0621
▁чарговы	-11.0627
48	-11.0628
▁партыйны	-11.0629
дэмакратычна	-11.0632
▁каардынат	-11.0634
▁мітрапаліта	-11.0634
▁перабудов	-11.0635
▁Ганконг	-11.0635
▁выпушчана	-11.0635
▁магнітны	-11.0635
▁Кветк	-11.0635
▁сейм	-11.0637
▁пастаўлена	-11.0637
▁Генры	-11.0638
▁пачата	-11.0639
▁выда	-11.064
▁рэжысёра	-11.0642
▁107	-11.0642
ўразі	-11.0643
▁Міс	-11.0646
▁тэмп	-11.0647
▁ансамбл	-11.065
▁Прэзідыума	-11.0651
▁вяртанне	-11.0654
▁Трэці	-11.0656
▁жоўта	-11.0657
▁Фёдар	-11.0658
▁ўтварыла	-11.0662
▁сла	-11.0662
палітычны	-11.0667
▁Брагінскі	-11.0671
ступлення	-11.0672
▁метала	-11.0673
▁візантыйскі	-11.0675
▁васьмі	-11.0675
▁пісьм	-11.0677
▁чалавеч	-11.0683
▁сіня	-11.0683
▁мянушк	-11.0686
▁падатка	-11.069
▁індыйска	-11.0692
▁вяселл	-11.0692
▁Сымон	-11.0693
▁жорсткі	-11.0696
▁Незалежнасц	-11.0696
▁наступств	-11.0702
▁пазнанн	-11.0703
▁продк	-11.0704
▁паўстанц	-11.0704
▁Іосіф	-11.0707
▁пэўным	-11.0709
даючы	-11.0713
▁ютара	-11.0714
▁гавора	-11.0714
▁распаўсюджанне	-11.0723
▁бог	-11.0725
▁96	-11.0727
▁алтар	-11.073
▁знакам	-11.0738
▁служа	-11.0739
▁сумесны	-11.0742
▁весці	-11.0744
▁Леанард	-11.0748
▁сярэднявечч	-11.0748
▁еўрапейск	-11.0751
▁запісаны	-11.0755
▁людзям	-11.0757
▁аперацый	-11.0759
▁Філіпа	-11.0765
▁правам	-11.0766
▁палі	-11.0769
▁уласцівасц	-11.077
длегласц	-11.0782
▁шляхта	-11.0782
▁партнёр	-11.0789
▁прадстаўляе	-11.0793
ўропа	-11.0794
▁заваяваны	-11.0794
▁саступа	-11.0802
▁ўражанн	-11.0805
▁галаўны	-11.0805
▁рыбалоўства	-11.0805
▁параз	-11.0806
▁знішчана	-11.0806
нікі	-11.0807
▁Ідэ	-11.0808
▁азначала	-11.0808
▁антычны	-11.081
▁канечнасц	-11.0813
▁рознага	-11.0814
▁выкладчыкам	-11.0816
▁Дынама	-11.0818
▁Залато	-11.082
▁стрэл	-11.0822
▁цяжкім	-11.0824
▁выкарыстаў	-11.0827
▁труб	-11.083
▁калекцыя	-11.0834
▁Над	-11.0837
▁правадыр	-11.0838
▁працоўна	-11.0841
▁до	-11.0841
▁падзяляюц	-11.0845
▁дэкаратыўны	-11.0849
▁вял	-11.085
па	-11.0853
▁Створана	-11.0856
▁Паспаліт	-11.086
▁20-	-11.0862
▁гатовы	-11.0862
▁творам	-11.0863
▁дэбютава	-11.0865
▁Альп	-11.0865
▁абмывае	-11.0867
▁літоўскім	-11.0871
сланы	-11.0873
▁захоўвала	-11.0874
▁забарон	-11.0876
▁ру	-11.0882
▁заключае	-11.0882
▁квет	-11.0886
▁крыжа	-11.0888
▁копі	-11.0889
▁шта	-11.0891
▁ўбачы	-11.0894
▁прадугледжва	-11.0895
▁малодша	-11.0897
▁Уран	-11.09
▁танк	-11.0901
шчыка	-11.0905
▁найвялікшы	-11.0915
▁бліжэй	-11.0917
▁95	-11.0918
▁Якуба	-11.0918
арнобыл	-11.092
▁завершаны	-11.092
▁прыбярэжны	-11.092
▁Узнагароджан	-11.092
▁перасякае	-11.092
▁харчовы	-11.092
▁выканаў	-11.0922
▁дапамагл	-11.0922
▁грунту	-11.0925
▁снег	-11.0926
▁буры	-11.0929
▁Анд	-11.0931
▁дабра	-11.0932
▁СМ	-11.0932
верхня	-11.0935
▁ярус	-11.0937
ота	-11.094
▁грамад	-11.0941
▁разгляд	-11.0943
▁музы	-11.0945
ет	-11.095
▁пазбаві	-11.0952
▁глеба	-11.0954
тэмы	-11.0955
тат	-11.0957
▁сустрэў	-11.0963
▁Ваенна	-11.0965
▁гандлёвым	-11.0969
вен	-11.0971
▁рабоча	-11.0975
кінуты	-11.0976
▁Босні	-11.0977
▁ганарова	-11.0978
▁мэбл	-11.0978
▁0,8	-11.0978
▁біялогі	-11.0978
▁палё	-11.098
▁руін	-11.0981
▁118	-11.0982
▁114	-11.0982
▁дзеючы	-11.0983
▁Алі	-11.0983
▁камуніста	-11.0984
▁Алжыр	-11.0991
▁122	-11.0992
▁паяс	-11.0993
▁моўны	-11.1
▁стваральнік	-11.1001
▁падтрымал	-11.1004
▁іспанц	-11.1008
▁сярэдн	-11.1021
▁парка	-11.1022
тэр	-11.1026
хвост	-11.103
▁разгром	-11.103
▁танка	-11.1032
▁гвалт	-11.1035
▁Добра	-11.1036
▁Талсто	-11.1036
▁практык	-11.1039
ключае	-11.1046
▁дзённік	-11.1046
конт	-11.1048
▁рок	-11.1049
▁30-	-11.1053
▁найбуйнейшым	-11.1055
▁цукр	-11.106
▁11,	-11.1061
сцяны	-11.1063
▁архітэктарам	-11.107
▁адмовіла	-11.1071
▁пшаніц	-11.1071
▁Крупскі	-11.1076
▁заказ	-11.1079
▁праспекта	-11.1079
лобін	-11.108
▁магутна	-11.1081
▁Малады	-11.1083
▁Гарбачо	-11.1094
▁манаграфі	-11.1094
▁Традыцыйна	-11.1094
▁каланізацы	-11.1094
галоўнакамандуюч	-11.1094
▁манер	-11.1095
▁пік	-11.1099
▁баяр	-11.1099
▁вока	-11.1101
▁апісаны	-11.1101
▁дакладн	-11.1102
▁грэк	-11.1104
▁Валын	-11.1106
▁Анатоль	-11.1122
▁выконваю	-11.1127
▁98	-11.1129
▁абедзвю	-11.113
▁сямі	-11.1131
вочы	-11.1132
▁Ра	-11.1132
▁прафесарам	-11.1134
▁збудаванн	-11.1136
зэ	-11.1136
▁задня	-11.114
▁Венесуэл	-11.1153
▁Генеральны	-11.1153
▁паштова	-11.1153
▁тэалогі	-11.1153
кор	-11.1154
▁паказаны	-11.1154
▁дынастыя	-11.1155
▁выконвалі	-11.1156
▁галоў	-11.1158
▁утвараю	-11.1159
▁мастацкім	-11.1162
▁краінам	-11.1165
▁Рускі	-11.1168
▁выхаванн	-11.1174
▁падпісанн	-11.1174
▁Дзев	-11.1176
▁арыгінальны	-11.1177
дэ	-11.1177
▁святаро	-11.1179
▁побыт	-11.1179
▁чэшска	-11.118
чэ	-11.1181
▁Дняпро	-11.1182
эр	-11.1182
▁франка	-11.1188
рыштаваны	-11.1189
▁66	-11.119
▁дыска	-11.1193
▁Заснавана	-11.1197
▁хваёвы	-11.1199
▁Браслаўскі	-11.1203
▁Сям	-11.1204
▁гарадскім	-11.1205
▁вырасл	-11.1205
▁трэнера	-11.1205
▁карэнны	-11.1207
▁апарата	-11.1209
▁сонечны	-11.121
▁федэральны	-11.1212
▁звон	-11.1212
▁хана	-11.1212
▁Адносі	-11.1214
▁разбіты	-11.1215
▁Канстанцінопал	-11.1218
▁капліца	-11.1219
▁Уладзіміравіч	-11.1223
▁даследчыка	-11.1224
▁тэкста	-11.1229
▁імперскі	-11.1243
▁аблічча	-11.1246
▁каханн	-11.1248
▁Праг	-11.1251
▁Дру	-11.1251
карэспандэнт	-11.1256
▁Міжземн	-11.1256
зел	-11.1263
▁Ру	-11.1265
▁Сафі	-11.1267
▁змаганн	-11.1268
▁размнажэнн	-11.1272
▁украінц	-11.1272
▁загадчыка	-11.1272
▁зарэгістраваны	-11.1272
▁Язэп	-11.1273
▁крайні	-11.1273
▁вонкавы	-11.1275
▁шчасц	-11.1281
▁марак	-11.1284
▁паслядоўна	-11.1287
▁тонка	-11.1288
▁серб	-11.1289
▁спыненн	-11.1289
▁віленска	-11.129
▁грэчаск	-11.1292
▁вучн	-11.1295
▁кіруючы	-11.1296
▁чвэрц	-11.13
▁чар	-11.1302
▁паведамленне	-11.1309
▁насельніцтв	-11.1318
▁Мак	-11.1319
▁Габсбурга	-11.1322
▁1,	-11.1323
▁капліц	-11.1324
▁лабараторы	-11.1325
▁мінімум	-11.1331
▁трацін	-11.1331
▁Мадрыд	-11.1331
▁сярэднявечна	-11.1331
▁вывад	-11.1331
▁бюджэт	-11.1332
▁вулкан	-11.1334
▁актывіст	-11.1334
▁Асвет	-11.1335
▁Памер	-11.1335
▁разбурана	-11.1336
вяло	-11.1336
▁важнае	-11.1341
▁Міндоўг	-11.1342
▁плоска	-11.1343
▁эпізод	-11.1344
▁Рэчыцк	-11.1344
▁зямельны	-11.1349
▁каран	-11.135
▁давала	-11.1355
▁атрымана	-11.1356
▁крытыка	-11.1358
▁ўказ	-11.136
▁камян	-11.1366
▁ўласн	-11.1368
▁філалагічны	-11.1372
▁дыск	-11.1374
▁падзенне	-11.1374
▁разуме	-11.1377
▁пазначае	-11.1381
▁мін	-11.1386
▁данін	-11.139
▁недастаткова	-11.1392
▁рэйтынг	-11.1392
▁заснавальнікам	-11.1393
▁стваралі	-11.1394
▁своеасаблівы	-11.1395
▁вырашэння	-11.14
▁Ды	-11.1404
▁ваяводств	-11.1404
▁спін	-11.1409
▁вырабля	-11.141
▁112	-11.1411
▁Ірак	-11.1412
▁Сербія	-11.1414
▁ажыццяві	-11.1414
▁вырабляю	-11.1415
▁малако	-11.1415
▁камер	-11.1417
▁свецкі	-11.1417
▁10-	-11.1418
Усходня	-11.142
▁Кубка	-11.1432
заходні	-11.1436
▁збудаваны	-11.1442
▁секцы	-11.1445
▁ісцін	-11.1447
▁руб	-11.1448
▁турыстычны	-11.1448
▁трыццац	-11.1449
▁Абхазі	-11.1452
▁Доўгі	-11.1452
▁Сістэм	-11.1452
▁электрастанцы	-11.1452
▁электраэнергі	-11.1452
▁згадк	-11.1452
▁Ападк	-11.1452
▁далучана	-11.1454
▁паеха	-11.1454
▁Лос	-11.1454
▁палаво	-11.146
▁вобл	-11.1461
▁скасавана	-11.147
▁спев	-11.1472
▁86	-11.1474
▁інтэрв	-11.1478
▁канстытуцыя	-11.1486
▁прымаю	-11.1493
▁Ваўкавыск	-11.1495
▁апісанн	-11.1501
▁фараона	-11.1504
▁музычн	-11.1508
▁рушыл	-11.151
▁дызайн	-11.1511
▁пчол	-11.1513
▁Пушкін	-11.1513
▁канцэпцыя	-11.1513
▁абалонк	-11.1514
▁прапанавана	-11.1517
▁акупацыя	-11.1517
▁навучы	-11.1518
▁сцэны	-11.1519
▁выпускае	-11.152
▁Латвія	-11.152
▁ацэн	-11.1521
▁дзяцінств	-11.1521
▁Брусел	-11.1521
▁Абу	-11.1528
▁сацыяльн	-11.153
▁Джордж	-11.1531
▁дойлідств	-11.1537
▁Мая	-11.1543
▁літаратурн	-11.1543
вейцарыя	-11.1543
▁абрана	-11.1545
▁Францішка	-11.1547
▁граматык	-11.1547
▁73	-11.1548
▁арх	-11.1549
▁шаш	-11.1551
▁Пецярбургск	-11.1551
▁зацвердзіў	-11.1553
▁адказнасц	-11.1557
▁машына	-11.1568
▁доўгім	-11.1571
▁кара	-11.1572
▁даведа	-11.1574
▁кулямёт	-11.1575
▁кіслот	-11.1575
▁нешматлікі	-11.1575
▁Кампані	-11.1575
▁Помнік	-11.1575
▁Марціна	-11.1583
▁наву	-11.1584
▁Месяц	-11.1585
тар	-11.1585
▁1,7	-11.1586
▁рэшт	-11.1587
▁спалуча	-11.1588
▁прасі	-11.1588
▁Пу	-11.159
▁участк	-11.159
▁востры	-11.159
▁размясці	-11.1591
▁цёмна	-11.1593
▁графік	-11.1593
▁ледавік	-11.1595
▁дэтал	-11.1595
▁знаёмы	-11.1606
адзення	-11.1608
▁прадстаўля	-11.1609
▁спалучэнн	-11.1612
▁Рыг	-11.1613
ыццё	-11.1621
▁хлопчыка	-11.1623
▁любоў	-11.1624
▁адмен	-11.1626
▁Зорк	-11.1627
▁Сен	-11.163
▁справаздач	-11.1636
▁Пекін	-11.1637
▁хутар	-11.1638
▁серыя	-11.1638
▁траўн	-11.1646
▁прызначэнне	-11.1646
38	-11.1651
▁секунд	-11.1653
▁мячэц	-11.1653
▁Стэфан	-11.1654
▁Уэльс	-11.1656
льнай	-11.1657
▁курган	-11.1657
66	-11.1659
▁арыгінальна	-11.1665
вангелл	-11.1673
▁венгерска	-11.1677
рэч	-11.168
▁Кал	-11.1681
▁выця	-11.1684
▁саюзнік	-11.1686
▁прырост	-11.1692
▁узроўня	-11.1694
▁абмежавання	-11.1696
▁раскол	-11.1697
▁Барселон	-11.1698
▁забалочана	-11.1698
▁інфраструктур	-11.1698
▁Старэйш	-11.1698
▁Маладзечн	-11.1698
▁набег	-11.1698
▁Васілевіч	-11.1699
▁ван	-11.1699
эння	-11.17
▁порта	-11.1701
алавек	-11.1703
▁кропк	-11.1703
▁Каралін	-11.1705
мог	-11.1706
▁аўтаматычна	-11.171
▁Германска	-11.1713
▁апавяданне	-11.1724
▁некаторым	-11.1725
▁пісьмова	-11.1725
▁77	-11.1738
▁адзначаю	-11.1739
▁9-	-11.174
▁удзельнічал	-11.174
▁Парты	-11.1742
▁59	-11.1744
28	-11.1745
▁адпраўлены	-11.1747
▁капітана	-11.1748
▁сведчання	-11.1752
▁інструмента	-11.1754
▁каляровы	-11.1759
▁Уругва	-11.1761
▁Верхні	-11.1761
▁Рэфармацы	-11.1761
▁Брун	-11.1763
▁каталіцк	-11.1763
▁61	-11.1763
▁параметр	-11.1763
▁евіч	-11.1765
▁Вель	-11.1769
▁нос	-11.1779
▁здольна	-11.178
▁даўні	-11.1782
▁падпісал	-11.1783
▁прыцягненн	-11.1784
▁заклік	-11.1788
▁Кірава	-11.1788
▁субтрапічны	-11.1791
▁тэхнікум	-11.1791
▁зда	-11.1794
▁вайсков	-11.1803
▁кіравалі	-11.1803
ўрапейскі	-11.1808
▁летапіса	-11.1812
▁выбра	-11.182
эмпература	-11.1821
▁Арыстоцел	-11.1824
▁індыйскі	-11.1824
▁міжваенн	-11.1824
▁дада	-11.1827
▁удзельніка	-11.1827
▁ператварыла	-11.1832
▁106	-11.1832
▁захаваны	-11.1833
▁гульцо	-11.1834
▁Міхала	-11.1836
▁сябр	-11.1836
▁распрацоўка	-11.1839
▁паэма	-11.1839
▁запаведнік	-11.184
▁турэцкі	-11.1845
льны	-11.1847
▁карыстаю	-11.1851
▁каханне	-11.1851
▁жада	-11.1852
▁маладым	-11.1852
▁пагроза	-11.1853
▁савецк	-11.1853
▁Косав	-11.1854
▁праграмаванн	-11.1856
▁металічны	-11.1856
▁маркі	-11.1857
▁апор	-11.1857
▁пераўтварэння	-11.1861
▁Антона	-11.1861
▁паслужыл	-11.1862
▁акадэмія	-11.1863
▁Міхас	-11.1863
▁электронны	-11.1866
▁сацыялізм	-11.1866
овіч	-11.1867
▁Адрозніваюц	-11.1872
▁круглы	-11.1874
▁сухо	-11.1874
▁Пятро	-11.1874
▁аўтары	-11.1876
▁Тэўтонск	-11.1876
▁епіскап	-11.1877
▁рэкорд	-11.1877
▁будуе	-11.1882
▁спартыўна	-11.1883
▁слав	-11.1885
▁драўнін	-11.1885
▁узро	-11.1885
▁плануе	-11.1886
▁Скот	-11.1886
▁Завод	-11.1887
▁Яраслава	-11.1887
▁гравюр	-11.1887
▁Майсе	-11.1887
▁пакіда	-11.1891
▁адрознення	-11.1894
▁кратар	-11.1895
▁даступны	-11.19
▁перамяшчэнн	-11.1901
▁настаўнікаў	-11.1902
▁фактарам	-11.1902
▁эканоміка	-11.1902
▁прылада	-11.1904
зь	-11.1904
▁аўта	-11.1904
▁тонкі	-11.1908
▁ўпадзенн	-11.1908
▁знаём	-11.1911
▁цёмны	-11.1915
▁унія	-11.1918
▁малак	-11.1921
▁113	-11.1923
▁кіламетр	-11.1923
▁нейка	-11.1923
▁Уільяма	-11.1929
▁маршалка	-11.1929
▁тыдн	-11.193
▁дач	-11.1933
▁атрымлівал	-11.1933
розна	-11.1936
▁прапанавал	-11.1938
26	-11.1941
▁прызнае	-11.1941
дзесят	-11.1944
▁велізарна	-11.1944
▁вас	-11.1946
▁фартэпіян	-11.1948
▁праяв	-11.1951
Анджэлес	-11.1951
▁Лівоні	-11.1951
▁сінагог	-11.1951
▁інфармацыйны	-11.1952
▁лічба	-11.1952
▁круг	-11.1953
▁квадратны	-11.1953
▁сапр	-11.1954
▁мяккі	-11.1961
чаў	-11.1965
▁умацавання	-11.1967
▁памочніка	-11.1971
▁дэль	-11.1973
▁роўнасц	-11.1979
▁стэп	-11.198
▁абавязаны	-11.1981
▁гаворка	-11.1984
▁матыв	-11.1988
▁тая	-11.1989
▁эфір	-11.1994
▁Армені	-11.1995
▁дахам	-11.1996
▁Гала	-11.1996
▁стралкова	-11.1999
▁інжынер	-11.1999
▁сцягам	-11.2004
▁друкава	-11.2007
▁Лацінска	-11.2008
▁спыніў	-11.2014
▁0,7	-11.2015
▁Летні	-11.2015
▁Свідрыгайл	-11.2015
▁Служы	-11.2015
▁Спроб	-11.2015
▁Карыбск	-11.2015
▁фарб	-11.2015
▁градус	-11.2015
▁мангол	-11.2016
▁прыбор	-11.2019
▁Гары	-11.2021
▁плаці	-11.2022
▁дацкі	-11.2022
▁аўтамабіл	-11.2027
▁тэкстыльна	-11.2028
▁гра	-11.2032
▁выбітны	-11.2036
▁замен	-11.2037
▁падрабязна	-11.2038
▁падрыхтоўка	-11.2041
ерак	-11.2045
▁атрадам	-11.205
▁Брэсц	-11.2054
▁забіва	-11.2054
▁Македоні	-11.2061
▁прыродна	-11.2068
▁кольца	-11.2069
▁ўздым	-11.207
▁прадмесц	-11.2079
▁дзвяр	-11.208
▁Займаў	-11.208
▁цягне	-11.208
▁Асобны	-11.2081
▁Мілан	-11.2081
▁патрабавала	-11.2081
▁Свет	-11.2083
▁светлавы	-11.2086
▁Рамана	-11.2086
▁кольц	-11.2087
▁супрацоўнікам	-11.2089
▁ставілі	-11.2089
▁Стату	-11.209
▁прыняцце	-11.2092
▁глыбокім	-11.2094
▁планета	-11.2098
▁Гомельскі	-11.2103
▁афрыканскі	-11.2106
▁еўрапейскім	-11.2107
▁9,	-11.2107
▁паляка	-11.211
▁Усходн	-11.2111
▁славутасц	-11.2122
рык	-11.2124
▁страта	-11.2125
▁цырымоні	-11.2127
▁ўзбраенн	-11.2127
▁гварды	-11.2128
▁Клецкі	-11.2132
▁ініцыятара	-11.2139
▁захоўвалі	-11.2144
▁133	-11.2144
▁матэры	-11.2144
▁стар	-11.2144
▁Людвік	-11.2144
▁Саудаўска	-11.2144
▁Стамбул	-11.2144
▁арганічна	-11.2144
▁кансерваторы	-11.2144
▁абумоўлена	-11.2144
▁блізкасц	-11.2145
▁ствала	-11.2146
▁Існавал	-11.2148
▁куст	-11.2149
▁звання	-11.2149
▁хуткі	-11.2149
▁рукав	-11.2161
▁69	-11.2166
▁мысленн	-11.2166
▁трымае	-11.2167
▁Мазырск	-11.2167
▁танкава	-11.217
▁праекту	-11.2173
класці	-11.2174
▁чорным	-11.2177
▁творчы	-11.2177
▁стальц	-11.2181
▁складнік	-11.2184
▁тэма	-11.2186
▁ўзведзен	-11.2186
▁каманду	-11.2187
▁аднолькава	-11.2187
▁венгерскі	-11.2189
▁даклад	-11.219
▁справядлівасц	-11.219
▁схем	-11.2192
▁фа	-11.2194
▁патрэбна	-11.2195
▁прыгожы	-11.2195
▁СІ	-11.2196
▁багін	-11.2196
▁індзейц	-11.2201
радзе	-11.2201
09	-11.2203
▁здымк	-11.221
▁Агульны	-11.221
▁малітв	-11.221
▁студэнцкі	-11.221
▁археалогі	-11.221
▁абмеркаванн	-11.2212
▁вечна	-11.2216
▁пошука	-11.2217
▁вызначыў	-11.2217
▁рэгулярны	-11.2219
▁дзяўчын	-11.222
▁ўсталяванн	-11.2223
to	-11.2224
▁разуменне	-11.2232
▁граматы	-11.2233
▁Партыя	-11.2235
магчы	-11.2238
▁заканадаўча	-11.224
▁марскім	-11.2242
▁педагагічна	-11.2245
▁дым	-11.2247
▁ганаровы	-11.2249
▁дзесяцін	-11.2252
▁адмоўны	-11.2253
▁моўна	-11.2253
▁змяняю	-11.2257
▁гарачы	-11.2258
▁спалены	-11.2258
▁колькі	-11.226
▁паспяховы	-11.226
▁Горка	-11.2262
вядзенне	-11.2263
▁біяграфі	-11.2263
▁курса	-11.2266
▁Гульня	-11.2271
▁персідска	-11.2275
▁перыядычны	-11.2276
▁дакументальны	-11.2276
▁рамеснік	-11.2277
▁перы	-11.2277
▁Бабруйска	-11.228
▁сіні	-11.2282
▁дзесятк	-11.2283
ЗБ	-11.2291
▁Іосіфа	-11.2292
▁Ты	-11.2292
▁чаргова	-11.2294
▁сяр	-11.2297
▁сваяко	-11.2299
▁бег	-11.23
насці	-11.23
▁каралеўск	-11.2301
▁заключэнн	-11.2302
▁Свята	-11.2303
▁збег	-11.2312
▁пабудавал	-11.2314
ыву	-11.2318
▁ператварыў	-11.2322
▁граніц	-11.2324
лінейн	-11.2326
рак	-11.2327
▁Нобелеўск	-11.2327
▁радыус	-11.2329
▁сутыкненн	-11.2329
іка	-11.233
▁Астатні	-11.233
▁дэльт	-11.2331
▁пацвердзі	-11.2332
▁ратуш	-11.2334
▁голад	-11.2339
▁танца	-11.234
ваўся	-11.234
▁грашова	-11.2341
▁падполл	-11.2342
▁прыдворны	-11.2342
▁службовы	-11.2343
▁Максімальн	-11.2344
▁спажыванн	-11.2348
▁Міцкевіча	-11.2348
▁насіў	-11.2349
▁загадз	-11.235
▁паліцыя	-11.2351
▁рабіла	-11.2355
▁дзеяча	-11.2356
▁ўварванн	-11.2356
▁разбурэння	-11.2359
▁адклада	-11.236
дадзены	-11.2361
▁450	-11.2365
кватэра	-11.2367
▁паведамлення	-11.2367
▁здабыва	-11.2376
АП	-11.2379
▁небяспек	-11.2379
▁сфер	-11.2381
есці	-11.2381
▁Баранавічы	-11.2382
ад	-11.2385
▁Сахар	-11.2386
▁пята	-11.2387
▁аднолькавы	-11.239
ч	-11.2394
▁празаі	-11.2394
▁грэка	-11.2396
▁вулкана	-11.2397
Д	-11.2399
▁сцена	-11.2401
▁маршал	-11.2403
▁шчыта	-11.2406
онкурс	-11.2407
▁перабудаван	-11.2407
▁дрэваапрацоўча	-11.2408
▁забруджванн	-11.2408
▁уздзеянне	-11.2408
▁капэл	-11.2408
▁Дзве	-11.241
▁Восен	-11.2411
▁акружаны	-11.2413
▁Мікол	-11.2415
▁керамік	-11.2419
▁Міністр	-11.242
▁складання	-11.2427
▁хадзі	-11.2435
▁насяля	-11.2439
▁адыграл	-11.2441
станавіў	-11.2441
▁грашовы	-11.2445
▁выраблены	-11.2453
▁Бразілія	-11.2454
▁цягніко	-11.2455
▁прад	-11.2458
▁пляцоўк	-11.246
▁трывала	-11.2461
▁срэбра	-11.2463
▁перайменаван	-11.2463
▁Мэта	-11.2467
▁пралівам	-11.2471
▁спецыфічны	-11.2472
НФ	-11.2475
▁Дэпартамент	-11.2476
▁мяшчан	-11.2476
▁рамёств	-11.2476
▁0,6	-11.2476
▁набы	-11.2476
▁ўсталявана	-11.2479
▁Каін	-11.248
▁ўнутран	-11.248
▁дзяржаўнасц	-11.2481
▁агенцтва	-11.2483
▁выбірае	-11.2485
▁староства	-11.2488
▁Канада	-11.2502
Рыка	-11.2506
▁абаронча	-11.2506
водзя	-11.2516
▁скарачэнне	-11.2518
▁калгаса	-11.2519
бодва	-11.252
▁ўтварылі	-11.2525
▁тэрытарыяльна	-11.2528
▁адраджэнне	-11.253
▁прызначае	-11.253
▁ёмам	-11.2532
▁Піса	-11.2532
▁Перыяд	-11.2534
▁помнікам	-11.2539
▁праход	-11.254
▁Гістарычна	-11.2543
▁нарвежскі	-11.2543
▁пясчана	-11.2543
▁прагрэс	-11.2543
▁тапонім	-11.2543
▁завяршыла	-11.2547
ікава	-11.2548
▁шыра	-11.2557
чка	-11.2558
▁масіў	-11.2562
▁Парк	-11.2565
▁Справ	-11.2573
▁мерапрыемств	-11.2574
▁Вер	-11.2574
эзар	-11.2577
▁працягваю	-11.2578
▁хронік	-11.258
▁падн	-11.258
▁адчува	-11.258
▁адкрывае	-11.2582
няцце	-11.2582
▁Ігар	-11.2585
▁падтрыманн	-11.2587
▁планавала	-11.2588
▁пакінуты	-11.2589
▁Слуцкі	-11.2593
▁маральна	-11.2593
▁часовы	-11.2599
▁Сенат	-11.2601
▁спектакл	-11.2604
▁вакзала	-11.2605
▁ютар	-11.2606
▁адмоўна	-11.2606
▁лісця	-11.2606
▁дывізія	-11.2608
▁выкарыста	-11.2609
▁аддзяленн	-11.261
▁старэйшым	-11.261
▁іерархі	-11.2611
▁Бунд	-11.2611
▁сапрапел	-11.2611
▁фатаграфі	-11.2611
▁егіпецка	-11.2611
▁Сіцылі	-11.2611
▁посуд	-11.2611
▁пераўтворан	-11.2611
вае	-11.2611
▁Раб	-11.2612
▁рассяленн	-11.2612
▁Асіпові	-11.2613
▁цікавы	-11.2615
▁Іаана	-11.2617
▁гімназія	-11.2618
▁доўг	-11.2622
▁султана	-11.2623
▁запрошаны	-11.2624
▁Пачат	-11.2625
▁хмызняк	-11.2628
▁шэрага	-11.263
▁падвярга	-11.263
▁эсэ	-11.2633
▁архів	-11.2633
▁прастора	-11.2634
▁кіруюча	-11.2639
▁разбіў	-11.2642
▁саюзны	-11.2644
▁ўрачыста	-11.2645
▁Сар	-11.2645
▁Каралеўскі	-11.2646
▁настаўніцк	-11.2646
▁грады	-11.2652
▁завяршэння	-11.2654
▁кол	-11.2654
▁пратэсту	-11.2657
ўтварэнне	-11.2657
▁выхаванне	-11.2659
▁Заснавальнік	-11.2671
▁процілеглы	-11.2677
▁карпус	-11.268
▁Каліноўск	-11.268
▁ставяц	-11.268
▁Створан	-11.2685
▁вучон	-11.2685
чэр	-11.2689
▁Само	-11.2689
▁яднанн	-11.269
▁скал	-11.2695
▁Томас	-11.2696
▁вадаём	-11.2698
ойма	-11.2703
▁прарока	-11.2709
▁паля	-11.2713
▁распараджэнн	-11.2715
▁памылк	-11.2715
▁дума	-11.2717
▁саўгаса	-11.2723
▁Ленінградска	-11.2729
ведала	-11.273
▁настаўніка	-11.2731
зімку	-11.2736
▁жон	-11.2741
▁продка	-11.2742
▁ужывае	-11.2742
▁вузкім	-11.2744
▁ніводна	-11.2744
▁Бавары	-11.2745
▁сыш	-11.2746
▁Варшава	-11.2747
аступова	-11.2747
▁Фарадэ	-11.2749
▁мікрараён	-11.2749
▁Аповесц	-11.2749
▁патрабую	-11.2749
▁шосты	-11.2749
▁энцыклапеды	-11.2749
▁прапанаваны	-11.2749
▁ектыўна	-11.275
▁Гёт	-11.275
▁забіта	-11.275
▁97	-11.2752
▁Брэсцкі	-11.2754
▁бачыл	-11.2754
▁класічн	-11.2755
▁крыло	-11.2756
▁Ро	-11.276
▁Балгарыя	-11.2761
▁дзевяц	-11.2762
▁перс	-11.2765
▁ўзялі	-11.2766
▁філасофія	-11.2768
▁Ард	-11.2774
▁улада	-11.2774
▁дзесяці	-11.2779
▁перамо	-11.2781
▁актыўным	-11.279
▁кіна	-11.2801
▁падрыхтава	-11.2805
▁суперніка	-11.281
▁адзначаў	-11.2811
▁падзялі	-11.2812
▁паданн	-11.2814
▁Персі	-11.2815
▁хлеба	-11.2816
▁Пакістана	-11.2816
▁Амстэрдам	-11.2818
▁Гагарын	-11.2818
▁перагавор	-11.2818
▁экзамен	-11.2818
▁састав	-11.2818
▁кадра	-11.2818
▁Брытанскі	-11.2818
▁актыўн	-11.2819
▁злучана	-11.282
▁абазначэнн	-11.2821
▁ўключана	-11.2821
▁англічан	-11.2822
▁кандыдатур	-11.2822
▁Ман	-11.2825
▁родн	-11.2827
▁псеўданім	-11.2827
▁вярхоў	-11.2827
▁78	-11.2828
▁сутыкнення	-11.2831
▁вызвалі	-11.2832
05	-11.2835
▁уведзен	-11.2836
▁цуд	-11.2838
▁тыповы	-11.284
▁разлік	-11.284
апісаў	-11.2843
▁найбольшы	-11.2843
▁выратаванн	-11.2845
▁залежа	-11.2846
рыбы	-11.2848
▁зубр	-11.285
▁Альгерда	-11.2853
▁лічынк	-11.2853
▁арэал	-11.2856
▁Крыжа	-11.2857
▁дробным	-11.2858
▁метр	-11.2863
▁імператарска	-11.2866
▁надпісам	-11.2873
няў	-11.2874
▁заваяваў	-11.2874
▁фармірава	-11.2878
▁ўзя	-11.2881
▁тунэл	-11.2886
▁Камарын	-11.2888
▁адукацыйны	-11.2888
▁перспектыв	-11.2888
▁светапогляд	-11.2888
▁вітамін	-11.2888
▁курорт	-11.2888
▁космас	-11.2888
▁72	-11.2891
▁пачуццё	-11.2893
▁полюс	-11.2893
▁выканаўчы	-11.2895
ібн	-11.2895
▁знішчыл	-11.2897
▁Пагон	-11.2898
вані	-11.2901
▁рэальны	-11.2904
▁тавары	-11.2906
▁сувязя	-11.2906
аліту	-11.2908
▁траўм	-11.2908
▁будавалі	-11.2909
▁панаванне	-11.2909
▁Барыса	-11.2912
▁Азія	-11.2912
▁перашкаджа	-11.2915
▁падводны	-11.2919
▁віна	-11.2924
▁каго	-11.2924
▁ўтрымліва	-11.2925
▁медз	-11.2925
▁геалагічны	-11.2926
▁вугаль	-11.2929
олаг	-11.2933
▁выратава	-11.2935
▁грамадзянск	-11.2935
▁Дон	-11.2942
арты	-11.2942
▁сацыял	-11.2943
▁адкрылі	-11.2948
арактэрна	-11.2948
▁адзенне	-11.2951
▁цёплы	-11.2951
▁галава	-11.2953
▁канкрэтны	-11.2958
▁характарызуюц	-11.2958
▁захоплена	-11.2959
▁няўдач	-11.2959
▁мадыфікацы	-11.2959
▁перакла	-11.2959
▁паміра	-11.296
▁Аўстрыйска	-11.296
▁Указ	-11.296
▁латын	-11.2961
▁зменены	-11.2964
▁выявіла	-11.2966
▁выканаўча	-11.2967
▁ведаю	-11.2967
▁ніжэйшы	-11.2973
▁удзельнікам	-11.2975
дава	-11.2978
▁здзяйсняе	-11.2981
▁вадзяны	-11.2984
▁Маркс	-11.2986
▁ацэнка	-11.2989
▁ген	-11.299
▁палажэнн	-11.299
▁электрона	-11.2992
▁выраблялі	-11.2994
▁луг	-11.2996
войны	-11.2998
▁апісваю	-11.2998
▁забудова	-11.2998
▁афарбоўка	-11.3
▁дыпламат	-11.3003
▁Рэк	-11.3004
▁аналагічны	-11.3005
лізе	-11.3006
▁ядзерны	-11.3008
▁сацыялістычны	-11.3008
▁Афганістан	-11.3016
▁Камітэта	-11.3017
▁мыс	-11.3018
▁утварэнне	-11.3019
▁выказа	-11.3021
▁дзяр	-11.3024
ІІ	-11.3024
ходжанне	-11.3029
▁абарачэнн	-11.3029
▁акупаваны	-11.3029
▁ўзмацненн	-11.3029
▁ўмерана	-11.3029
▁паўторна	-11.3029
▁таварыств	-11.3031
▁адценне	-11.3032
▁коран	-11.3032
▁выцягнута	-11.3036
аб	-11.3038
▁палонны	-11.3042
▁паляўнічы	-11.3043
▁баяво	-11.3044
▁колерам	-11.3047
▁вузе	-11.3047
▁запрасі	-11.3049
▁расстраляны	-11.3049
▁наземны	-11.305
▁саслоўя	-11.3053
нагор	-11.306
▁арыстакраты	-11.306
будавалі	-11.3062
▁казк	-11.3064
▁самак	-11.3065
▁размеркаванн	-11.3066
▁пасяджэння	-11.307
▁цікаві	-11.3073
▁эліт	-11.3085
▁Данія	-11.3085
▁сойма	-11.3087
▁Ван	-11.3089
▁медаля	-11.3092
▁металургі	-11.3092
▁грамадскасц	-11.3092
▁дыскусі	-11.3093
раект	-11.3098
▁бар	-11.3098
▁вораг	-11.3099
▁Азербайджана	-11.3099
▁парушэння	-11.3099
золісты	-11.3101
▁Найвышэйшы	-11.3101
▁неадкладна	-11.3101
▁незадаволенасц	-11.3101
▁цяпл	-11.3101
▁цукровы	-11.3101
▁Прынят	-11.3101
▁шэры	-11.3101
▁размах	-11.3101
▁Садружнасц	-11.3103
▁дабрабыт	-11.3103
▁доктарск	-11.3106
▁перакладзены	-11.3106
▁шэрагам	-11.3108
▁НАН	-11.3108
▁адказны	-11.3109
▁удар	-11.3109
▁цячэнне	-11.311
▁абірае	-11.3113
дня	-11.3115
▁аркестр	-11.3123
▁камісара	-11.3123
▁Лідскі	-11.3124
▁раскопк	-11.3126
▁скончы	-11.3129
07	-11.313
▁флор	-11.3132
▁ўладальнік	-11.3132
▁опера	-11.3133
скае	-11.3134
▁выдаваў	-11.3135
ск	-11.3135
▁царскі	-11.3135
▁паверха	-11.3138
▁узніка	-11.3139
▁долар	-11.3139
▁1,1	-11.314
▁франк	-11.3151
▁газа	-11.3152
▁ўжыванн	-11.3157
▁перанесены	-11.3157
▁узнік	-11.3157
▁навукоўцам	-11.3158
▁Берліна	-11.3159
каталіцка	-11.316
▁Выда	-11.3162
▁Сіл	-11.3164
ло	-11.3165
▁кавалеры	-11.3165
ожжа	-11.3166
▁складанасц	-11.3167
▁Нігеры	-11.3171
▁Вальтэр	-11.3173
▁Лорэнц	-11.3173
▁Паскевіч	-11.3173
▁Плутон	-11.3173
▁Узброены	-11.3173
▁дыктатур	-11.3173
▁дыяцэзі	-11.3173
▁змешчана	-11.3173
▁інвентар	-11.3173
▁Славені	-11.3173
▁тэарэм	-11.3173
▁распасціра	-11.3173
▁малочны	-11.3173
йшло	-11.3174
▁правільна	-11.3175
▁ўмов	-11.3175
▁суверэнітэт	-11.3175
▁мук	-11.3177
▁перамяшча	-11.3178
▁Камісі	-11.3178
▁сустрэча	-11.318
▁Інтэрнэт	-11.318
▁уключан	-11.3182
▁Дэл	-11.3184
24	-11.3184
▁парушэнне	-11.3186
▁школьны	-11.3186
▁10,	-11.3188
▁Дунай	-11.3195
▁Мэры	-11.3196
▁гатычны	-11.32
▁Іншым	-11.3201
▁Мана	-11.3206
▁фінансаванн	-11.3208
▁Глеба	-11.3209
▁аснова	-11.321
▁Алена	-11.3211
▁99	-11.3213
▁заключыў	-11.3214
▁Ко	-11.3214
▁іграко	-11.3226
лены	-11.3226
славянск	-11.3228
▁заключан	-11.3228
▁рэлігійн	-11.3232
▁музыкант	-11.3236
▁архітэктурна	-11.3237
▁падтрымлівалі	-11.3238
▁смак	-11.3239
тварэнне	-11.3239
▁чэшскі	-11.324
рка	-11.3243
▁персанажа	-11.3244
▁Аўтаномна	-11.3245
▁астранамічны	-11.3245
▁арганізацыям	-11.3246
днё	-11.3246
▁калярова	-11.3247
▁падрыхтаваны	-11.3248
▁хвароба	-11.3249
▁навін	-11.3249
▁сан	-11.325
▁адзначан	-11.3253
▁царска	-11.3258
▁традыцыйным	-11.3259
▁103	-11.3261
Дзін	-11.3267
▁далучыла	-11.327
▁пакут	-11.3271
▁карыстае	-11.3273
▁Пабудаван	-11.3274
▁выступлення	-11.3277
▁тэхніка	-11.3279
▁ужыва	-11.3287
дна	-11.3287
▁Суд	-11.3293
▁родам	-11.3295
▁ўніз	-11.3296
ўно	-11.3296
ta	-11.3297
▁Род	-11.3297
▁перыядам	-11.3298
▁незвычайна	-11.3304
▁маральны	-11.3307
▁мармур	-11.3316
ыгуначна	-11.3318
▁БСГ	-11.3318
▁Вінцэнт	-11.3318
▁агламерацы	-11.3318
▁экспансі	-11.3318
▁спрэч	-11.3319
▁інвестыцы	-11.332
▁Каір	-11.332
выканкам	-11.332
▁Смерц	-11.3321
▁Запавет	-11.3322
▁вапняк	-11.3323
▁Песня	-11.3324
▁падаўленн	-11.3328
▁супрацьстаянн	-11.3329
▁штогадовы	-11.3329
▁паплечнік	-11.333
▁маскоўскім	-11.3336
▁зняў	-11.3337
ылер	-11.3339
st	-11.3345
▁азнача	-11.3345
▁намаганн	-11.3345
▁камандаванн	-11.3345
▁Мазыр	-11.3348
us	-11.3349
▁алфавіта	-11.335
▁працоўн	-11.3352
▁сёмы	-11.3353
▁рэформа	-11.3354
▁Адзіны	-11.3356
▁дасягненне	-11.3356
▁старым	-11.336
▁статуя	-11.336
▁сядзіба	-11.3361
▁пер	-11.3362
▁імен	-11.3363
▁ву	-11.3365
▁штатам	-11.3368
▁палк	-11.3368
▁мо	-11.3372
▁расійск	-11.3375
▁мод	-11.3376
▁Дзяржаўн	-11.3377
▁патрабаванне	-11.3384
▁слабы	-11.3386
▁старшы	-11.3388
▁адтулін	-11.3389
▁экалагічны	-11.339
▁заканчвае	-11.3392
▁спрабуе	-11.3392
▁энергетык	-11.3392
▁Ракасоўск	-11.3392
▁брама	-11.3392
▁попыт	-11.3392
▁дапаможны	-11.3393
▁Троцк	-11.3394
▁Януш	-11.3396
▁вылучаны	-11.3397
▁святара	-11.3397
▁верас	-11.3401
▁злучаю	-11.3402
абралі	-11.3403
▁Слонім	-11.3404
▁Карэлі	-11.3405
дзейнасц	-11.3407
▁220	-11.341
▁акадэмік	-11.3411
льскага	-11.3411
▁Фінляндыя	-11.3412
▁біскупам	-11.3416
ня	-11.3417
▁унутр	-11.3421
▁Альберта	-11.3422
▁Сусветны	-11.3422
▁пустыня	-11.3426
▁вертыкальна	-11.3426
▁нядаўна	-11.3428
▁імперск	-11.3434
▁добрым	-11.3437
▁запіса	-11.3448
▁Стара	-11.3448
▁Кракаў	-11.3449
▁знака	-11.3449
▁марка	-11.3452
▁імператрыц	-11.3453
▁дыялекты	-11.3454
▁рымскім	-11.3462
▁паваг	-11.3465
▁этнаграфі	-11.3465
▁аграрна	-11.3466
▁тлушч	-11.3466
▁магазін	-11.3466
▁нашчадкам	-11.3466
▁англійскім	-11.3467
▁Багушэвіч	-11.3468
▁трамвайны	-11.3468
▁сямейны	-11.3468
▁трэнер	-11.3468
▁жні	-11.347
▁даждж	-11.3471
рок	-11.3471
▁ўлічва	-11.3477
▁вернуты	-11.3479
up	-11.3481
▁Маскоўск	-11.3485
▁117	-11.3486
▁пастанова	-11.3488
хваль	-11.3489
▁смяротна	-11.3494
▁бой	-11.3501
▁кантынентальны	-11.3504
ваяваў	-11.3509
▁брытанскім	-11.3509
▁іспанск	-11.3509
▁выпусціл	-11.3513
▁сведчанн	-11.3515
▁выбарча	-11.352
▁візантыйска	-11.3522
юсты	-11.3522
▁нацысцка	-11.3523
▁Тэ	-11.3524
▁ф	-11.3525
▁распаўсюдзіл	-11.3528
▁вал	-11.3529
▁князям	-11.353
шч	-11.3533
▁Армія	-11.3534
▁кантэкс	-11.3535
▁пейзаж	-11.3539
обласц	-11.3539
▁здрад	-11.354
▁згадваюц	-11.354
▁Гарэцк	-11.354
сляды	-11.354
▁парастк	-11.3543
▁мовазнаўств	-11.3544
▁эфектыўна	-11.3544
▁наступленне	-11.3545
▁гарызонт	-11.3546
▁заможны	-11.3547
▁зліва	-11.3548
▁Працу	-11.3548
▁пярэдні	-11.3553
▁тысячагоддз	-11.3554
тры	-11.3556
▁Кара	-11.3557
▁перастал	-11.3557
▁гарача	-11.3558
▁служба	-11.3561
▁наступн	-11.3561
▁базу	-11.3567
▁ставіла	-11.3568
▁Ля	-11.3576
энтральн	-11.3576
▁Рыгора	-11.3577
▁Княств	-11.358
▁адпавядал	-11.3582
▁360	-11.3585
▁ядноўва	-11.3587
▁выстаўк	-11.3591
▁транспартна	-11.3595
індзі	-11.3598
▁легенда	-11.3599
▁вярнулі	-11.3601
▁гаворк	-11.3605
чай	-11.3605
▁пакідае	-11.3606
▁Джорджа	-11.3609
▁маст	-11.361
▁бедна	-11.3611
▁патрыярха	-11.3613
▁стратэгі	-11.3615
▁МТС	-11.3616
▁растлумачы	-11.3616
▁Сустрака	-11.3616
▁паштовы	-11.3616
▁перасяленн	-11.3616
▁срэбны	-11.3616
▁прыхільнасц	-11.3616
▁канферэнцыя	-11.3616
▁ўзгорк	-11.3616
▁Вавілон	-11.3616
▁засяленн	-11.3617
▁сапраўдным	-11.3618
▁Пятровіч	-11.3619
▁існуючы	-11.362
▁мадэрнізацы	-11.3621
▁паспеў	-11.3623
▁разумее	-11.3623
▁выпадкова	-11.3626
▁тэхналагічны	-11.3629
жу	-11.3629
▁муніцыпальны	-11.3633
валас	-11.3633
▁Пастаўскі	-11.3633
▁ключавы	-11.3634
▁хлопчык	-11.3634
▁змянілі	-11.3635
▁ўласным	-11.3635
▁Бур	-11.3636
▁сет	-11.3636
нна	-11.3641
▁садзейніча	-11.3643
▁выпусці	-11.3644
▁суправаджае	-11.3646
▁Найбольшы	-11.3647
▁валюта	-11.3649
▁раннім	-11.365
▁скарыста	-11.3651
▁паўабаронца	-11.3651
▁кангрэса	-11.3652
дуард	-11.3653
▁суседнім	-11.3656
▁магната	-11.3657
▁скульптура	-11.3657
▁сусветным	-11.3659
▁дакладнасц	-11.3659
▁губернскі	-11.366
▁практыку	-11.3663
▁асобн	-11.3664
▁Прац	-11.367
ыве	-11.3671
▁Пінска	-11.3672
▁ісламска	-11.3673
▁аўтадаро	-11.3673
▁Афіна	-11.3683
▁астатнім	-11.3685
▁плас	-11.3687
эраг	-11.3691
▁вымушана	-11.3691
▁партугальска	-11.3691
▁спартсмен	-11.3691
▁утворана	-11.3691
▁Камуна	-11.3691
▁камунікацы	-11.3691
▁Культур	-11.3692
▁азот	-11.3692
▁чэмпіёнам	-11.3693
▁сваяк	-11.3696
бралі	-11.3696
▁падтрымлівала	-11.3699
▁супольна	-11.37
оўвае	-11.3703
▁дзеся	-11.3705
▁хваста	-11.371
▁вільготнасц	-11.3712
цэ	-11.3712
▁мусіл	-11.3713
▁насенне	-11.3716
▁арыентавана	-11.3718
▁парода	-11.3721
▁Гітлер	-11.3721
▁мяня	-11.3722
▁каналам	-11.3723
▁асобам	-11.3724
▁племе	-11.3727
эзара	-11.373
▁Нів	-11.3731
▁арганізатара	-11.3731
▁дасягал	-11.3732
▁Каран	-11.3732
▁канцлера	-11.3734
▁атрыманне	-11.3736
▁касмічна	-11.3737
▁94	-11.3737
▁жыхарам	-11.3738
▁Зім	-11.374
▁прыносі	-11.3742
▁пастаноўк	-11.3742
▁До	-11.3742
▁сайт	-11.3744
▁хрыб	-11.3746
▁готык	-11.3746
▁Лукашэнка	-11.3747
▁Ніла	-11.3751
▁публічны	-11.3755
▁вартасц	-11.3756
арваты	-11.3758
▁рухае	-11.376
▁праліва	-11.3761
▁імавернасц	-11.3761
▁Толкін	-11.3768
▁кваліфікацы	-11.3768
▁страчаны	-11.3768
▁прамавугольны	-11.3769
▁кіравала	-11.3777
▁раздзела	-11.3777
▁могілк	-11.3778
▁Сэр	-11.378
▁Камітэт	-11.378
ндзі	-11.3782
▁1,4	-11.3782
▁ўрочышч	-11.3785
апар	-11.3785
▁пас	-11.3787
96	-11.3787
▁кроп	-11.3788
▁вяло	-11.3793
шкі	-11.3793
▁заваявал	-11.3797
▁прыбыт	-11.3797
▁мячо	-11.3798
уана	-11.3798
▁Нарвегія	-11.38
▁перамога	-11.3802
▁пераслед	-11.3802
▁саюзнікам	-11.3804
▁кампазіцыя	-11.3806
▁мусульмане	-11.381
▁старажытным	-11.3819
▁разглядаю	-11.3823
▁Лівонск	-11.3823
водзіла	-11.3823
▁Рыжск	-11.3825
▁жыццёвы	-11.3828
правы	-11.3828
▁калегіум	-11.3829
▁воін	-11.3833
▁пратакол	-11.3834
дзясят	-11.3837
▁пакладзен	-11.3842
▁Лідск	-11.3843
▁Лявон	-11.3845
▁Пераважа	-11.3845
▁самагубства	-11.3845
▁Прыднястроў	-11.3845
▁партугальц	-11.3845
▁ўмераны	-11.3845
▁кліматычны	-11.3845
▁каэфіцыент	-11.3845
▁звыча	-11.3847
▁прасоўванн	-11.3849
▁ператвораны	-11.3853
▁Навагрудскі	-11.3855
▁зван	-11.3856
▁пласцінк	-11.3857
▁Міжземна	-11.3857
▁варыянта	-11.3858
▁Расійск	-11.386
▁адлюстроўваю	-11.3863
▁прадпрымальнік	-11.3867
▁выяв	-11.3867
▁Лунінец	-11.3868
▁Со	-11.3871
▁рыса	-11.3874
▁непасрэдны	-11.3874
чэй	-11.3876
▁Рэн	-11.3878
▁Тар	-11.3878
▁батальёна	-11.3878
▁Венгрыя	-11.3883
▁Літаратур	-11.3883
▁батальён	-11.3888
▁аўтаномны	-11.3894
▁прысутнічал	-11.3898
▁Гор	-11.3903
▁Баранавіцк	-11.3904
▁змянення	-11.3912
▁былым	-11.3913
▁Ноўгарада	-11.3913
▁натуральным	-11.3915
▁гадавы	-11.3917
▁экватар	-11.3922
▁Дэпутат	-11.3922
▁Месапатамі	-11.3922
▁звіліста	-11.3922
▁інтэрпрэтацы	-11.3922
▁карчм	-11.3922
▁этнас	-11.3922
тэ	-11.3922
▁прымыка	-11.3922
▁спынена	-11.3923
▁пакараны	-11.3924
наменк	-11.3924
энев	-11.3925
▁механічна	-11.3926
▁хваляванн	-11.3927
▁Порт	-11.3927
яўляў	-11.393
▁заявіл	-11.3934
▁ўмоў	-11.3938
▁узор	-11.3939
▁праваслаўным	-11.3939
▁палкоўніка	-11.3945
▁ваг	-11.3948
▁аддае	-11.3949
▁Галі	-11.3955
▁стол	-11.3956
▁Фердынанд	-11.396
▁надрукава	-11.3961
▁гутарк	-11.3966
▁Гэтым	-11.397
▁работа	-11.3972
▁дзіркі	-11.3974
▁здзейсніл	-11.3975
▁першапачатковы	-11.3977
▁Каталіцка	-11.3978
ростам	-11.398
▁праціўнікам	-11.3981
▁кручэнн	-11.3984
ара	-11.3985
▁Усебеларуск	-11.3986
▁пераемнікам	-11.3986
▁чытач	-11.3988
▁Месца	-11.3989
▁дзеда	-11.3989
▁падпарадкаваны	-11.3992
▁1940-	-11.3992
▁выяві	-11.3997
▁цягніка	-11.4
▁Галанды	-11.4
▁Нямецка	-11.4
▁беспрацоў	-11.4
▁вярчэнн	-11.4
▁падарожніча	-11.4
▁прэтэнзі	-11.4
▁самасвядомасц	-11.4
▁імпульс	-11.4
▁вулканічна	-11.4
▁Вось	-11.4
▁лацінскі	-11.4001
▁ўзнік	-11.4006
▁Коўн	-11.4007
▁хво	-11.4007
▁240	-11.4007
▁сплав	-11.4009
▁Львов	-11.4009
рабоў	-11.4009
▁гетман	-11.4012
▁Арганізацыя	-11.4014
▁выконвала	-11.4016
▁прынца	-11.4016
▁даты	-11.4016
▁ўчастка	-11.4017
▁нараджэнн	-11.4019
▁выглядае	-11.402
▁выслан	-11.4021
▁паставіл	-11.4021
▁Друкава	-11.4025
▁забі	-11.4026
▁спецыяліст	-11.4027
▁ураўнення	-11.4029
▁зіму	-11.403
▁складан	-11.4031
▁Скірмунт	-11.4033
▁транспарта	-11.4034
▁Аснова	-11.4037
▁перасялі	-11.4038
▁ног	-11.4039
▁паслядоўнік	-11.404
▁мёртвы	-11.4047
▁пражы	-11.4048
▁прадпрыемствам	-11.4048
валіся	-11.4049
▁кафедральны	-11.4052
нае	-11.4052
▁пераможца	-11.4055
▁праграмна	-11.4057
▁гул	-11.4059
▁адчувае	-11.4062
▁утрымлівае	-11.4064
дае	-11.4064
▁любым	-11.4065
▁прыбыцц	-11.4071
▁слоўніка	-11.4074
▁выдатным	-11.4076
▁набывае	-11.4077
родзінгер	-11.4079
▁Падобны	-11.4079
▁канкурэнцы	-11.4079
▁Інша	-11.4079
▁сквер	-11.4079
▁рэзалюцы	-11.4079
▁крымінальна	-11.4079
▁мемарыяльна	-11.4079
▁акадэмічны	-11.4081
▁адваротны	-11.4083
палітычна	-11.4087
▁адыш	-11.4087
▁друкаваны	-11.4088
▁суддзя	-11.409
▁гасцініц	-11.409
маёр	-11.4094
▁гатунк	-11.4094
пера	-11.4095
▁паказана	-11.4098
▁абазначае	-11.4098
▁Джэймса	-11.4099
▁некал	-11.4101
азвіццё	-11.4102
▁паравы	-11.4105
▁ўключа	-11.4108
▁авары	-11.4119
▁пераходны	-11.4121
▁магіла	-11.4124
▁прынцыпа	-11.4124
▁праіснавал	-11.4124
▁напружанасц	-11.4133
▁будуч	-11.4133
▁Сусветн	-11.4137
▁ператвары	-11.4138
▁Пер	-11.415
нізу	-11.4151
кам	-11.4152
▁крымскі	-11.4153
▁кафедра	-11.4153
▁тычы	-11.4154
▁Від	-11.4156
▁цэнтральным	-11.4158
▁Асеці	-11.4158
▁Дэкларацы	-11.4158
▁Сінгапур	-11.4158
▁банкнот	-11.4158
▁максімум	-11.4158
▁Мараві	-11.4158
▁шляхецкі	-11.4158
▁будызм	-11.4158
▁Людзі	-11.4159
▁стральб	-11.4159
▁акадэмічна	-11.416
▁ахоўны	-11.417
▁Тако	-11.4171
▁абло	-11.4171
▁матэрыялам	-11.4178
▁Гам	-11.4185
▁майстрам	-11.4186
▁званн	-11.4187
▁камяні	-11.4187
▁хроніка	-11.4188
▁салон	-11.4188
▁аднавіў	-11.4189
▁майстэрня	-11.419
▁він	-11.419
▁ворагам	-11.4192
даўна	-11.4192
▁кабінет	-11.4197
▁матэматы	-11.4209
▁сотня	-11.4212
▁Гэт	-11.4217
▁студэнтам	-11.4217
▁еўрапейц	-11.4219
▁прыведзены	-11.4224
▁Франц	-11.4226
▁практыка	-11.4227
▁Паўл	-11.4229
▁пагража	-11.423
▁прыводзяц	-11.4231
▁Верш	-11.4237
▁Пачаў	-11.4237
▁блізкім	-11.4238
▁звольн	-11.4238
▁уласцівы	-11.4238
▁Сілезі	-11.4238
▁фундаментальны	-11.4238
▁суседня	-11.4238
▁Амерыканска	-11.4238
▁кармленн	-11.4239
▁Маўр	-11.424
твараючы	-11.4241
▁аплат	-11.4241
▁Беластоцка	-11.4242
▁экспанат	-11.4244
▁намаганням	-11.4246
ўсходні	-11.4249
▁прыцягну	-11.4249
▁сімвала	-11.4251
рн	-11.4255
▁целам	-11.4256
▁сенатара	-11.4258
▁абарона	-11.4261
▁Ніл	-11.4264
▁вымярэнн	-11.4269
▁вызначаюц	-11.4276
▁паветр	-11.4282
раўне	-11.4283
дадзена	-11.4284
▁пакаранне	-11.4286
▁пыл	-11.4289
▁Статута	-11.4293
каса	-11.4295
▁настаўніцкі	-11.4295
▁дно	-11.4299
▁круга	-11.4299
▁замяніў	-11.43
▁Гедзіміна	-11.43
▁ўяўляла	-11.4302
беларуску	-11.4302
▁міф	-11.4303
▁перай	-11.4303
▁паўстанца	-11.4307
▁выбарчы	-11.4308
яўляе	-11.4309
▁выяўленн	-11.4313
▁Слабад	-11.4313
▁ўрадам	-11.4313
▁паэтам	-11.4317
▁Бенедыкт	-11.4319
▁канцыляры	-11.4319
▁багаслоў	-11.4319
▁Княз	-11.4319
▁мітынг	-11.4319
▁краёва	-11.432
▁нізоў	-11.4321
▁ўнёс	-11.4322
▁мітрапаліт	-11.4324
▁том	-11.4324
▁закрыта	-11.4325
▁сербскі	-11.4325
▁мільярда	-11.4326
▁успаміна	-11.4327
▁рушы	-11.4329
▁італьянскім	-11.4331
▁геаметрычны	-11.4332
▁паказва	-11.4337
▁нападнік	-11.4338
▁быцц	-11.4339
▁Вена	-11.4339
▁аперацыйна	-11.4345
чытаў	-11.4345
▁Праца	-11.4345
▁здзяйсня	-11.4349
▁сцвярджэнн	-11.435
дз	-11.4351
▁раслінны	-11.4351
▁ўцёк	-11.4352
йны	-11.4353
▁стандартны	-11.4353
▁індаеўрапейск	-11.4353
▁садзейнічал	-11.4357
▁арнамент	-11.436
▁ігр	-11.4365
▁Славацка	-11.4368
▁Гітлера	-11.4369
слаў	-11.437
▁імператарскі	-11.437
▁утварыў	-11.4376
▁Анатол	-11.4379
▁дзіц	-11.4379
▁перавага	-11.4383
▁знішчэнне	-11.4383
▁электрычнасц	-11.4384
▁належы	-11.4386
▁102	-11.4386
▁электронна	-11.4386
овы	-11.4388
▁водн	-11.4388
▁спявачка	-11.4389
▁размер	-11.4398
вэ	-11.4399
▁багатым	-11.4399
▁Нямецкі	-11.44
▁біялагічна	-11.44
▁зачынены	-11.44
▁мёд	-11.44
▁офіс	-11.44
▁файл	-11.4402
▁уласн	-11.4403
▁полацк	-11.4403
▁Баварыя	-11.4405
▁сусвет	-11.4405
рду	-11.4405
▁тлумачэнне	-11.4411
▁прада	-11.4415
▁казн	-11.4419
▁кандыдатам	-11.4419
▁акупацыйны	-11.442
▁ліг	-11.4425
▁збіраў	-11.4425
▁нечакана	-11.4428
▁Корм	-11.443
▁камуністычны	-11.4431
▁прыродазнаў	-11.4433
▁нацыянальнасц	-11.4435
раў	-11.4437
нска	-11.4437
▁скур	-11.444
▁разведк	-11.4454
▁79	-11.4455
▁звязвае	-11.4456
▁чэмпіёна	-11.4458
роўні	-11.4458
▁зале	-11.4462
▁вагання	-11.4463
▁авалода	-11.4464
гадов	-11.4466
сан	-11.4468
▁пасляваенны	-11.4469
▁практычны	-11.447
▁майстро	-11.4471
▁Гара	-11.4475
▁тэрміналогі	-11.4476
▁падобным	-11.4477
▁канструкцыя	-11.4482
фрасінн	-11.4482
▁Фронт	-11.4482
▁акупавана	-11.4482
▁генацыд	-11.4482
▁дружын	-11.4482
▁прымяня	-11.4482
▁стасунк	-11.4482
▁трапе	-11.4482
▁незалежн	-11.4482
▁Колер	-11.4482
▁паэтычна	-11.4482
▁этнаграфічны	-11.4482
▁Тарас	-11.4483
▁гравітацыйна	-11.4483
▁адукацыя	-11.4484
яўляючы	-11.4485
▁Фёдаравіч	-11.4485
▁крон	-11.4486
▁веравызнання	-11.4488
▁многім	-11.449
▁намінацы	-11.449
▁Маладо	-11.4491
▁Поўнач	-11.4491
▁выраша	-11.4493
кагор	-11.4493
▁Габсбург	-11.4495
▁пляцоўка	-11.4496
▁сялянам	-11.4499
▁шпіталь	-11.4506
▁вырашы	-11.4506
▁сучаснік	-11.4508
▁праспект	-11.451
▁ўпада	-11.4511
▁тэхні	-11.4512
▁парад	-11.4513
▁староста	-11.4516
▁Лізавета	-11.4516
▁Кук	-11.4516
▁Залат	-11.452
▁галасаванне	-11.4526
дзялення	-11.4527
▁шкл	-11.4535
▁нізкім	-11.4535
▁зім	-11.4538
▁архіва	-11.4539
▁базілік	-11.4539
▁рэлігійным	-11.454
ключаны	-11.4542
▁Адэс	-11.4546
аўж	-11.4547
▁родным	-11.4548
▁парламенцка	-11.4548
▁мусульманскі	-11.4549
▁разглядаў	-11.4553
▁зрок	-11.4554
▁знікненн	-11.4555
▁Індыйскі	-11.4555
▁Перакла	-11.4556
▁стратэгічна	-11.4558
▁Амерыка	-11.456
▁імкне	-11.4561
рафесар	-11.4563
▁перакладае	-11.4565
▁Караткевіч	-11.4565
▁Крыштаф	-11.4565
▁Тайланд	-11.4565
▁нарвежска	-11.4565
▁сённяшня	-11.4565
▁юрысдыкцы	-11.4565
▁пратэстанцкі	-11.4565
▁карэнна	-11.4565
▁Скандынаві	-11.4565
▁працаўнік	-11.4565
▁Высокі	-11.4565
▁лекавы	-11.4565
▁нацыяналізм	-11.4565
▁паэтэс	-11.4566
▁дапамагае	-11.4566
▁метан	-11.4566
▁даходзі	-11.4566
▁Пакістан	-11.4567
▁узора	-11.4567
▁цыган	-11.4568
▁гадзіннік	-11.457
▁ясна	-11.4571
▁субот	-11.4571
▁81	-11.4576
▁злучэнне	-11.4577
▁перасяленц	-11.4578
▁ліквідавана	-11.4579
▁бухт	-11.4579
▁праходжанн	-11.4581
твораны	-11.4582
Венгры	-11.4583
▁Алег	-11.4586
▁тлумачэння	-11.4591
лігі	-11.4594
▁дзяржавам	-11.4594
▁армянска	-11.4596
вялі	-11.4597
▁манархія	-11.4599
арства	-11.46
дне	-11.4602
▁праве	-11.4605
▁мера	-11.4605
во	-11.4615
▁архіў	-11.4618
▁павольна	-11.4619
▁Леанід	-11.4624
▁мерыдыяна	-11.4624
▁астэроід	-11.4626
▁знешнім	-11.4626
іста	-11.4632
▁дошка	-11.4635
▁скасаванн	-11.4636
▁явік	-11.4638
▁памешчыка	-11.464
актычна	-11.4645
▁50-	-11.4648
▁Узбекістан	-11.4648
▁бежанца	-11.4648
▁насельнік	-11.4648
▁прапануе	-11.465
▁мелоды	-11.465
заф	-11.4652
▁хоча	-11.4652
▁супол	-11.4653
▁абяца	-11.4653
▁дажджо	-11.4661
▁хапа	-11.4664
▁яднаў	-11.4667
▁прыкметны	-11.4668
▁Багародзіц	-11.4677
▁заваяванн	-11.4678
▁Кор	-11.4678
▁лекар	-11.4686
дуарда	-11.469
▁Партугалія	-11.4692
▁збірае	-11.4694
▁Рэчыцкі	-11.4694
▁парламенц	-11.4697
▁распаўсюджаным	-11.4698
▁рэспублі	-11.4699
рода	-11.4701
▁дыпламатычн	-11.4701
вызваленча	-11.4702
▁вырас	-11.4705
▁Навагрудк	-11.4707
▁мусульманска	-11.4708
▁выдавец	-11.4711
▁дыялекта	-11.4716
▁праваслаўн	-11.4721
▁76	-11.4725
▁гармоні	-11.4728
ыткавіцкі	-11.4729
▁стужка	-11.473
▁вытворчы	-11.4732
▁радыёстанцы	-11.4732
▁фарміруе	-11.4732
▁Будучы	-11.4732
▁плот	-11.4732
▁султан	-11.4738
▁Вісл	-11.4738
▁палярна	-11.4739
▁Франца	-11.4739
▁акун	-11.4741
▁2,2	-11.4743
▁фінанса	-11.4744
▁вярхоўн	-11.4745
▁аптэк	-11.4747
▁Клецк	-11.4748
▁Франціш	-11.475
▁стварэннем	-11.4753
▁супраціўленн	-11.4764
▁ўзяцц	-11.4765
▁акцёра	-11.4766
▁карыстальніка	-11.4766
▁Грузія	-11.4767
▁вершам	-11.4768
▁раскоп	-11.4768
▁мядзведз	-11.4774
▁Агінскі	-11.4774
▁вугл	-11.4774
▁Рэспубліканска	-11.4777
▁цагляны	-11.478
▁Будн	-11.4783
овак	-11.4784
▁тэарэтычны	-11.4784
▁Радзім	-11.4785
▁заселены	-11.4786
▁выразны	-11.4787
▁рэакцыя	-11.4787
▁ратуша	-11.4789
▁дэп	-11.4789
▁адчуванн	-11.4793
▁атак	-11.4795
ішча	-11.4802
▁Індыйск	-11.4805
▁гульц	-11.4807
▁напрам	-11.4809
▁чыноўніка	-11.4812
▁бронз	-11.4815
сеўданім	-11.4815
▁Вясно	-11.4816
▁нарад	-11.4816
▁вымусіл	-11.4817
▁дыялог	-11.4817
▁Вывуча	-11.4817
▁камет	-11.4817
▁рухомы	-11.4817
▁Выбар	-11.4817
▁пералічаны	-11.4817
▁прысяг	-11.4818
▁яйк	-11.4819
▁Мін	-11.4819
▁святкаванн	-11.4819
▁Нігер	-11.4819
▁змяшчаюц	-11.4821
▁сфарміравала	-11.4823
▁клубам	-11.4823
▁партызанск	-11.483
▁падводна	-11.4831
▁прынц	-11.4831
▁Казахстана	-11.4831
▁вытворца	-11.4831
▁Брат	-11.4834
▁страва	-11.4839
▁паказа	-11.4841
▁каралеўскім	-11.4842
▁Паўстанн	-11.4843
▁чытання	-11.4845
▁перажы	-11.4846
▁косц	-11.4847
▁гіпотэза	-11.486
▁пару	-11.4866
▁атам	-11.4867
онка	-11.4869
▁ацэньвае	-11.4869
▁ютарна	-11.4877
▁се	-11.4883
▁Леон	-11.4886
В	-11.4888
дар	-11.489
сіп	-11.489
▁складаным	-11.4891
▁плоскі	-11.4899
атлавіна	-11.4901
аспяхова	-11.4901
▁Прыма	-11.4901
▁паўплыва	-11.4902
▁Лейпцыг	-11.4902
▁выдзяляюц	-11.4902
▁пачатков	-11.4902
▁кантынентальн	-11.4903
▁культавы	-11.4903
▁сфарміраваны	-11.4904
▁напісанне	-11.4904
▁Мех	-11.4906
▁Ленінска	-11.4906
▁матэматыка	-11.4906
▁маладосц	-11.4907
▁пашыры	-11.4907
▁правапіс	-11.491
▁захварэ	-11.491
▁працягну	-11.4911
▁мадэляў	-11.4912
▁Алімпіяд	-11.4915
▁замах	-11.4916
▁Гвінея	-11.4917
СА	-11.4919
▁Афганістана	-11.4919
▁страў	-11.4919
несены	-11.4919
▁асаблівасцям	-11.4922
моўна	-11.4923
жыванне	-11.4924
▁Луіс	-11.4925
▁Купала	-11.4925
▁хрыбт	-11.4926
▁ажыццяўляла	-11.4927
▁згуляў	-11.4937
▁Тураў	-11.4937
▁налічва	-11.4943
МС	-11.4948
▁прыватным	-11.4948
▁Значны	-11.4951
▁канцэрта	-11.4951
▁арэала	-11.4954
▁спадчына	-11.4958
▁выйграл	-11.4959
рашова	-11.4962
▁самастойнасц	-11.4963
▁сельскага	-11.4964
99	-11.4964
▁жаданн	-11.4965
▁наданн	-11.4968
▁устаноўлены	-11.4969
носі	-11.4969
▁станоўчы	-11.4969
▁падтрымка	-11.497
▁афіц	-11.4975
▁воля	-11.4977
ніва	-11.4983
больш	-11.4985
▁Вол	-11.4986
арнагоры	-11.4989
▁Актыўна	-11.4989
▁Вольфганг	-11.4989
▁Віленшчын	-11.4989
▁памяншае	-11.4989
▁імпарт	-11.4989
▁Буйнейшы	-11.4989
▁электрамагнітна	-11.4989
▁баланс	-11.4989
▁Працэс	-11.4989
▁правільны	-11.4989
▁Белавежска	-11.4989
▁Дзеянн	-11.4989
▁Тагор	-11.4993
▁Ло	-11.4995
▁Ігнат	-11.4996
▁Бельск	-11.4997
▁шкал	-11.5
▁Магілёўскі	-11.5
▁кардынал	-11.5001
▁Луцкевіч	-11.5009
ожна	-11.5012
▁пазнаёмі	-11.5012
▁блока	-11.5016
▁зямельн	-11.5018
▁туры	-11.5019
▁ўжывал	-11.5027
▁народным	-11.5027
▁малым	-11.5029
▁Далёкі	-11.503
▁памыл	-11.503
▁патрабавал	-11.5033
▁падлог	-11.5039
▁журналістык	-11.5043
▁кароткім	-11.5044
▁спаборніцтв	-11.5046
▁Фёдара	-11.5046
▁праблемам	-11.5048
▁гульца	-11.5049
▁Ірака	-11.5052
▁снеж	-11.5059
▁Судана	-11.5059
упак	-11.506
▁мужам	-11.5065
▁збожжа	-11.5066
▁падручнік	-11.5066
▁муніцыпалітэт	-11.5066
энтральным	-11.507
▁Бельгія	-11.5071
▁індывідуальны	-11.5073
▁крыжовы	-11.5073
▁скопішча	-11.5075
▁харугв	-11.5076
Айрэс	-11.5076
▁абумоўлены	-11.5076
▁партугальскі	-11.5076
▁рэкамендацы	-11.5076
▁форум	-11.5076
▁Ластоўск	-11.5076
▁паклал	-11.5076
▁юнацтв	-11.5076
▁Луўр	-11.5076
▁спрыяльны	-11.5076
▁Берасцейска	-11.5076
▁нябесны	-11.5076
▁ліквідаваны	-11.5077
▁каранацы	-11.5079
▁карона	-11.5082
▁прымяненн	-11.5084
▁балета	-11.5087
▁адступленн	-11.5089
▁археалагічна	-11.5093
небе	-11.5098
▁трапля	-11.5099
▁грамата	-11.5099
▁Лагойск	-11.51
мэ	-11.5101
▁спадчынны	-11.5102
▁Імператар	-11.5104
▁носьбіт	-11.5104
▁соль	-11.5105
▁Акадэмія	-11.5107
▁палата	-11.5109
▁крытычны	-11.5112
таб	-11.5114
▁кінатэатр	-11.5116
▁ападк	-11.5118
▁Усясла	-11.5127
▁дэлегат	-11.5135
▁зло	-11.5136
▁апорны	-11.5138
▁Бон	-11.5144
▁хрыбто	-11.5145
▁летапісе	-11.515
вання	-11.5154
▁перабра	-11.5154
▁прадстаўлял	-11.5156
▁патрапіл	-11.5158
▁прытул	-11.5159
▁Карысны	-11.5163
▁лейб	-11.5163
▁рамантызм	-11.5163
▁колішня	-11.5163
▁феадальны	-11.5163
▁Праграм	-11.5164
▁Скота	-11.5166
▁Праўд	-11.5166
▁мыса	-11.5168
▁гняздо	-11.5172
уэна	-11.5172
▁працягнула	-11.5175
▁палявы	-11.5176
▁прэзідэнцка	-11.5176
▁уладальнікам	-11.518
▁міфа	-11.5185
▁забяспечва	-11.5185
▁Кейстута	-11.5185
▁Лес	-11.5187
▁фігура	-11.5188
▁адн	-11.5188
▁пытанням	-11.5189
▁уладальнік	-11.519
крылы	-11.5194
▁Камен	-11.5195
▁ўнутраным	-11.5202
▁Гава	-11.5205
▁дабі	-11.5206
▁дамова	-11.5208
▁Фердынанда	-11.5209
▁насенн	-11.5209
стра	-11.5214
▁батанічны	-11.5217
▁Мов	-11.5218
сен	-11.5218
▁Казан	-11.522
▁вышэйшым	-11.5221
▁поласц	-11.5223
▁сек	-11.5223
тэксту	-11.5224
аты	-11.5225
фарбоўка	-11.5227
▁адрознівала	-11.5228
▁даручэнн	-11.5229
▁пашыра	-11.5229
▁абслугоўвае	-11.523
▁масто	-11.5233
▁трамвая	-11.5234
▁май	-11.5242
▁выпрабавання	-11.5244
▁сацыялістычн	-11.5245
▁прафесі	-11.5249
▁Між	-11.5251
▁вузло	-11.5251
аплін	-11.5252
▁Кастус	-11.5252
▁адметны	-11.5252
▁акалічнасц	-11.5252
▁працэдур	-11.5252
▁Галактык	-11.5252
▁нябесна	-11.5252
▁Дамаск	-11.5252
▁Альфонс	-11.5252
▁селянін	-11.5252
▁Аўрэліян	-11.5252
▁Высока	-11.5253
▁афармленн	-11.5254
▁знішчы	-11.5255
▁прыбярэжна	-11.5255
▁Веж	-11.5256
▁пашырыла	-11.526
▁гербам	-11.5261
▁дэталя	-11.5265
▁Кі	-11.5266
▁міліцы	-11.5266
▁даросл	-11.5272
▁тактык	-11.5274
▁Лукашэнк	-11.5276
▁Бор	-11.5276
▁старон	-11.5278
▁Буда	-11.528
▁паведамля	-11.5282
▁трэц	-11.5282
▁цягну	-11.5285
▁доўжыл	-11.5287
▁Грыгоры	-11.5288
▁тыпам	-11.5288
▁конкурса	-11.5289
▁перыяды	-11.5292
▁дзяленне	-11.5294
▁стыля	-11.5295
▁захапленне	-11.5295
танцы	-11.5295
▁выяўля	-11.5297
▁лексік	-11.5298
▁разнастайна	-11.5301
▁замацава	-11.5306
▁Люблін	-11.5306
▁каштоўн	-11.5307
беларуск	-11.531
▁прысуджан	-11.5311
▁прысуд	-11.5312
▁Тур	-11.5319
рамі	-11.5321
віл	-11.5324
▁княствам	-11.5325
▁Томаса	-11.5325
▁вайскоўца	-11.5326
▁Гарадскі	-11.5328
▁мянушка	-11.533
▁перадал	-11.5333
▁перапрацоўк	-11.5333
гукаў	-11.5335
▁езуіта	-11.534
▁Рузвельт	-11.5341
▁вытворны	-11.5341
▁канкрэтна	-11.5341
▁выканаўч	-11.5342
▁Адкрыты	-11.5342
▁Пскоўска	-11.5342
▁Акіян	-11.5342
▁пазначаны	-11.5343
▁Газет	-11.5343
▁Гес	-11.5344
▁Кітайска	-11.5347
▁адзнака	-11.5348
▁магістрал	-11.5348
▁межан	-11.5349
▁метры	-11.5349
▁спектакля	-11.5351
▁Александры	-11.5351
Кейн	-11.5352
▁нізінны	-11.5352
▁вернасц	-11.5353
▁газавы	-11.5354
заходнім	-11.5368
▁валоданн	-11.5368
▁дзеця	-11.537
▁носьбіта	-11.5374
дачы	-11.5376
аўна	-11.5384
▁збіралі	-11.5386
▁індывідуальна	-11.5389
▁акта	-11.5394
амарн	-11.5398
▁плаванн	-11.5399
дро	-11.5399
▁пасяленн	-11.54
▁Прыкладам	-11.5402
▁амерыканц	-11.5404
▁жывым	-11.5405
жэн	-11.5406
▁маё	-11.5407
▁Ватыкан	-11.5407
▁ўзвядзенн	-11.5408
▁канстытуцыйна	-11.5411
▁мясцін	-11.5414
▁простым	-11.5414
льк	-11.5416
▁кляштара	-11.542
▁дзядзьк	-11.5422
▁шч	-11.5423
▁Фонд	-11.5424
▁давалі	-11.5425
▁дзейн	-11.5426
▁арыгінал	-11.5428
▁патрабавання	-11.5431
▁Лінкальн	-11.5431
▁Пераважна	-11.5431
▁аргумент	-11.5431
▁егіпцян	-11.5431
▁праезд	-11.5431
▁фашыст	-11.5431
▁Балтыйскі	-11.5431
▁Лейбніц	-11.5432
▁землям	-11.5432
▁крайня	-11.5432
▁згаданы	-11.5433
▁Гур	-11.5434
▁архітэктура	-11.5434
▁раўнаваг	-11.5438
▁Даследаванн	-11.5438
▁збожжавы	-11.5441
▁забяспечвал	-11.5442
▁фальвар	-11.5444
▁101	-11.5446
▁Іб	-11.5447
зафа	-11.5451
▁Бобр	-11.5452
▁наведвання	-11.5454
▁разглядала	-11.5456
▁Быхаў	-11.5456
юрых	-11.5457
▁прыкмета	-11.5462
▁дваранскі	-11.5462
▁ачко	-11.5465
▁грэч	-11.5467
▁кіеўск	-11.5467
▁педагагічн	-11.5468
▁праўленн	-11.5468
▁ваганн	-11.5468
▁назіральніка	-11.5469
▁Мексі	-11.547
даюцца	-11.547
се	-11.5473
▁надаў	-11.5473
▁патрабаваў	-11.548
▁кіт	-11.5481
▁перавозк	-11.5482
▁збіраю	-11.5485
▁ездзі	-11.5488
▁аэрапорта	-11.5491
фіопі	-11.5491
▁РК	-11.5495
▁абалонка	-11.5502
▁веда	-11.5502
▁азначэння	-11.5505
кол	-11.5508
▁выбіра	-11.551
▁узвышша	-11.5514
▁публік	-11.5515
▁падзеям	-11.5516
▁намінал	-11.5517
▁Вілі	-11.5522
▁Капенгаген	-11.5522
▁Парфенон	-11.5522
▁Танзані	-11.5522
▁бавоўн	-11.5522
▁нязменна	-11.5522
▁скарочана	-11.5522
▁вязн	-11.5522
▁рэпертуар	-11.5522
▁Зеўс	-11.5522
▁Якава	-11.5523
▁знішчыў	-11.5524
▁падвід	-11.5524
▁плацін	-11.5526
▁пісьменнікам	-11.5527
▁выкарыстана	-11.5529
іжэй	-11.553
▁фунта	-11.553
▁прыз	-11.5531
▁палкоўнік	-11.5534
▁водгук	-11.5539
▁арганізавал	-11.5543
ызацы	-11.5546
ўрапейск	-11.5548
▁аддзеле	-11.5548
▁праціўнік	-11.5555
▁камунізм	-11.5555
▁Прычына	-11.5556
асэ	-11.5556
▁абсталяваны	-11.5557
▁Румынія	-11.5558
▁езуіт	-11.556
▁выслана	-11.5562
▁Знак	-11.5565
▁16-	-11.5566
▁гуманітарны	-11.5566
▁вяшчанн	-11.5579
▁ледавіка	-11.5585
▁звязваю	-11.5585
▁самка	-11.5587
▁гульнявы	-11.5589
▁Асаблівасц	-11.559
▁Нацыянальн	-11.5592
▁вырошчваю	-11.5596
▁займаем	-11.5596
▁павышэнне	-11.5597
беларускі	-11.5597
права	-11.5598
▁літаратар	-11.56
▁прымяненне	-11.5605
▁жылл	-11.5607
▁спадзява	-11.5611
▁варожы	-11.5614
▁Гродзеншчын	-11.5614
▁абумовіл	-11.5614
▁дыяспар	-11.5614
▁спынены	-11.5614
▁швейна	-11.5614
▁эмоцы	-11.5614
▁Бацькаўшчын	-11.5614
▁Малдаўска	-11.5614
▁выводзі	-11.5614
▁Клуб	-11.5615
▁сора	-11.562
▁літоўца	-11.562
▁функцыянаванн	-11.5623
▁добр	-11.5624
▁звычая	-11.5624
ол	-11.5625
▁індзейца	-11.5627
▁Менска	-11.5628
▁небяспечны	-11.5629
смяротна	-11.5632
▁капітан	-11.5633
▁Тамаш	-11.5634
▁геалогі	-11.5636
▁слуп	-11.5637
▁успамін	-11.5638
▁ДП	-11.5638
▁перайменавана	-11.564
▁вызначала	-11.564
▁рэзкі	-11.5643
▁109	-11.5644
▁хата	-11.5645
▁ведае	-11.5648
▁лацінк	-11.5648
▁грузавы	-11.5648
▁абставін	-11.5652
▁асабістым	-11.5654
▁перавоз	-11.5654
англ	-11.5654
-10	-11.5657
овай	-11.566
▁пашкоджаны	-11.5662
▁сыр	-11.5663
▁дзіка	-11.5665
▁хава	-11.5666
▁Ваза	-11.5668
▁119	-11.5671
▁11-	-11.5674
▁Віктара	-11.5679
▁сума	-11.5681
▁кругла	-11.5681
▁краязнаўчы	-11.5681
▁навакольным	-11.5683
▁славацка	-11.5685
▁ацані	-11.5686
▁утрыманне	-11.5686
▁графічны	-11.5686
▁водарасц	-11.5687
▁свабода	-11.5689
пы	-11.5692
▁60-	-11.5695
▁паходзіл	-11.5697
▁падыходзі	-11.5697
▁Валынска	-11.5698
▁схіле	-11.5699
▁дыплом	-11.5702
▁Гістарычны	-11.5706
▁блакітна	-11.5706
▁старадаўні	-11.5706
▁суцэльна	-11.5706
▁штодзённа	-11.5706
▁ўзброена	-11.5706
▁кузава	-11.5708
▁восьмы	-11.5709
▁Ампер	-11.5709
▁інтэграцы	-11.5711
▁пераемнік	-11.5712
▁вестк	-11.5714
▁эмігранта	-11.5715
▁рэгіянальна	-11.5715
▁праста	-11.5717
▁ледавіковы	-11.5719
гейм	-11.572
▁Вінч	-11.5721
▁літаратурным	-11.5723
▁інжынера	-11.5724
▁кавалк	-11.5724
▁роспіс	-11.5727
пакоі	-11.5729
▁Роберта	-11.5732
▁дазволен	-11.5733
▁пацвярджае	-11.5735
▁лінейны	-11.5736
▁узрост	-11.5736
▁Лепшы	-11.5737
▁асаблів	-11.5741
▁гарызантальны	-11.5742
▁Аліс	-11.5743
цця	-11.5744
▁сутыкну	-11.5746
▁сямейна	-11.5746
заду	-11.5753
▁гнязд	-11.5757
▁губернск	-11.5761
▁музычным	-11.5762
▁спако	-11.5762
▁Самал	-11.5767
▁Франк	-11.577
▁земскі	-11.577
▁эсэр	-11.5771
анка	-11.5774
дпаведна	-11.5776
▁ахвярам	-11.5776
▁армянскі	-11.5776
▁скарачэння	-11.5777
▁запаведніка	-11.5777
гон	-11.5778
▁Парламент	-11.578
▁вача	-11.578
▁Сена	-11.5782
▁захопніка	-11.5783
▁павышэння	-11.579
▁крыжам	-11.579
▁Тэадор	-11.5794
▁распаўсюджвае	-11.5796
▁купі	-11.5797
ера	-11.5797
▁стаўленн	-11.5798
▁Санта	-11.5798
▁насялял	-11.5798
▁Кастрычнік	-11.58
▁Клаўдзі	-11.58
▁Мясцова	-11.58
▁акружнасц	-11.58
▁грызун	-11.58
▁даступна	-11.58
▁дэпрэсі	-11.58
▁зацверджана	-11.58
▁бяру	-11.58
двая	-11.58
▁ўнікальны	-11.5801
▁пакоя	-11.5801
▁панавал	-11.5803
▁сыход	-11.5803
▁мал	-11.5809
▁паварот	-11.5811
▁запісва	-11.5812
сь	-11.5817
палі	-11.5818
▁каралеўств	-11.5818
▁эфектыўнасц	-11.5819
▁касцюм	-11.5819
▁гавары	-11.5822
рэта	-11.5824
▁прыдатны	-11.5827
▁вадкі	-11.5829
▁каранава	-11.583
▁няс	-11.5831
▁медал	-11.584
▁гурто	-11.5848
▁гаспадаро	-11.5848
▁арка	-11.585
▁вырашыл	-11.5857
▁праніка	-11.5859
▁сербска	-11.5859
▁зорны	-11.5861
▁воіна	-11.5862
▁аграгарадк	-11.5863
▁108	-11.587
▁заходн	-11.5871
▁езуіцкі	-11.5872
▁ўскраін	-11.5875
▁канцлер	-11.5878
▁арэнду	-11.5881
▁цэл	-11.5884
▁прыязджа	-11.5885
ымя	-11.5887
ss	-11.5887
▁пале	-11.589
▁Вольга	-11.5891
вечары	-11.5892
▁Карлам	-11.5892
▁рэканструкцыя	-11.5893
▁Браціслав	-11.5894
▁дэкларацы	-11.5894
▁скончана	-11.5894
▁спрабую	-11.5894
▁паўсюдна	-11.5894
▁Выток	-11.5894
▁кру	-11.5895
▁шматгадовы	-11.5895
▁кітайц	-11.5896
▁харчаванне	-11.5896
▁фірма	-11.5898
▁навык	-11.5898
▁надрукавана	-11.5902
▁Пярсцёнка	-11.5904
▁танкавы	-11.5905
▁распал	-11.5906
▁уваход	-11.5906
адэш	-11.5908
▁Сенненскі	-11.591
авання	-11.5911
▁ўдасканаленн	-11.5915
▁паспяховым	-11.5916
▁Рыжскі	-11.5918
▁перанесен	-11.592
▁скончылі	-11.5922
атэ	-11.5927
▁напісал	-11.5928
▁Кан	-11.5932
▁ўво	-11.5934
ярнуўшыс	-11.5934
▁сачы	-11.5935
▁балгарска	-11.5936
▁Мсціслаў	-11.5937
▁Кір	-11.594
▁Вілейск	-11.594
▁зыходны	-11.5941
▁Густа	-11.5944
▁тканк	-11.5951
▁скульптара	-11.5954
▁хадзіл	-11.5956
▁Адс	-11.5958
▁трамвай	-11.5959
▁Мн	-11.5961
▁пасол	-11.5962
▁Нов	-11.5963
▁Крычаў	-11.5967
▁канцэнтрацы	-11.5969
▁футбольна	-11.597
▁Вышэйш	-11.5973
▁перадача	-11.5976
▁формула	-11.5983
▁каланіяльны	-11.5983
адазбор	-11.5988
▁0,9	-11.5989
▁Зялёны	-11.5989
▁Музык	-11.5989
▁Тэгеран	-11.5989
▁гектара	-11.5989
▁кірыліц	-11.5989
▁эканаміст	-11.5989
▁Ізяслаў	-11.5989
▁паклаў	-11.5989
▁сярэдневякова	-11.5989
▁капітуляцы	-11.599
▁княжанн	-11.599
▁сакратарыят	-11.599
заходнееўрапейск	-11.599
▁вялізны	-11.5993
▁гаварыл	-11.5994
▁конны	-11.5994
▁скура	-11.5995
▁трой	-11.5997
▁дзеячам	-11.5998
▁арэх	-11.5999
орным	-11.6002
▁Сената	-11.601
▁суп	-11.601
▁Выяв	-11.6012
▁военачальнік	-11.6012
▁сцвярджаю	-11.6012
▁многа	-11.6013
▁рэгуляванн	-11.6016
▁Памяц	-11.6018
▁крыты	-11.6023
▁Мора	-11.6024
АК	-11.6024
▁міграцы	-11.6026
▁апошн	-11.6028
▁рынка	-11.603
▁вядомасц	-11.603
эканамічн	-11.603
▁пруск	-11.603
▁маскоўск	-11.6034
даследчы	-11.6037
▁Валеры	-11.6038
▁суднаход	-11.6045
▁Дзяржынск	-11.6045
▁Альберт	-11.6046
▁ягоны	-11.605
▁камісар	-11.6052
аця	-11.6053
▁яўленн	-11.6056
▁уплывовы	-11.6057
эха	-11.6057
▁прадстаўніка	-11.606
▁густа	-11.6064
▁ўказа	-11.6065
выя	-11.6068
▁Но	-11.6069
▁маёнткам	-11.607
▁змяненне	-11.6071
▁бал	-11.6078
▁грамат	-11.6079
▁сарт	-11.6081
▁праектам	-11.6082
▁пацверджан	-11.6082
андыдат	-11.6084
эльеф	-11.6085
▁Ваенны	-11.6085
▁0,0	-11.6086
▁Багдад	-11.6086
▁Варшаўскі	-11.6086
▁Герцагавін	-11.6086
▁зледзянення	-11.6086
▁дэвіз	-11.6086
▁Джозеф	-11.6086
▁падоўжаны	-11.6086
▁Персідска	-11.6086
▁рэстаран	-11.6086
▁чысцін	-11.6086
▁тыраж	-11.6086
▁Замкава	-11.6086
▁Якуці	-11.6086
▁пратэстанцка	-11.6087
▁сацыялогі	-11.6087
▁Надзе	-11.6087
▁ўмацаваны	-11.6087
▁вінаград	-11.6087
▁экран	-11.6087
▁падраздзялення	-11.6089
▁паведамленн	-11.609
▁студэнцка	-11.609
▁гнёзд	-11.6092
▁жадаючы	-11.6095
▁звычайным	-11.6096
▁разводдз	-11.6097
▁Азар	-11.6099
несла	-11.61
▁каранё	-11.6105
▁Імператарска	-11.6106
ек	-11.6107
▁зменена	-11.6107
▁пісьменніца	-11.6107
▁аматара	-11.6108
▁воблак	-11.611
▁Бібліятэк	-11.6111
▁замежным	-11.6111
нні	-11.6113
▁складанне	-11.6116
▁Распаўсюджаны	-11.6119
▁нафта	-11.6119
▁туркам	-11.612
▁словаў	-11.6121
бюр	-11.6121
▁магутным	-11.6121
▁Бак	-11.6121
▁веданне	-11.6129
▁Іль	-11.6134
акол	-11.6135
▁ўзнагароджан	-11.6138
азер	-11.6138
▁швейцарскі	-11.6138
▁дапамагал	-11.614
▁Гу	-11.614
▁вам	-11.6142
ельсінк	-11.6145
▁вернік	-11.6146
▁Іркуцка	-11.6151
▁пунк	-11.6153
▁назіраю	-11.6155
▁Афрыка	-11.6155
▁Разан	-11.6156
▁манета	-11.6157
▁залівам	-11.6157
▁падтрымліваю	-11.6157
▁ператварае	-11.6158
▁складанн	-11.6158
▁Рашэнне	-11.6163
▁прынцыпам	-11.6164
▁Працоўна	-11.6166
▁Гвіне	-11.6166
▁артыкулам	-11.6167
▁металу	-11.6169
лескі	-11.6173
▁незвычайны	-11.6177
▁тралейбус	-11.6177
▁сок	-11.618
▁рэклам	-11.6181
▁Найбол	-11.6183
▁Дагавор	-11.6183
▁Дакладна	-11.6183
▁Падобна	-11.6183
▁Рафаэл	-11.6183
▁ваеннапалонны	-11.6183
▁грабніц	-11.6183
▁пенсі	-11.6183
▁чарапах	-11.6183
▁эпас	-11.6183
▁Свярдло	-11.6183
▁сацыялістаў	-11.6183
▁амфі	-11.6183
▁пераязджае	-11.6183
▁спецыялізаваны	-11.6183
▁аўстрыйска	-11.6185
▁даказа	-11.6186
▁наведвальніка	-11.6188
▁спален	-11.6189
▁папярэдніка	-11.619
▁фаўн	-11.619
▁прывілея	-11.619
▁Скончы	-11.6191
▁трымаў	-11.6191
азнаўств	-11.6192
▁страх	-11.6193
▁90-	-11.6193
▁асабіст	-11.6193
▁абутк	-11.6195
▁пераправ	-11.6195
▁тэрас	-11.6198
яўлены	-11.6199
▁гадзінніка	-11.6204
▁пласто	-11.6204
▁ўварва	-11.6209
тое	-11.6209
▁Рычард	-11.621
▁ліцэ	-11.6212
▁750	-11.6216
▁адхілен	-11.6216
▁выстаўка	-11.622
▁распаўсюджанн	-11.6225
▁матыва	-11.6226
валі	-11.6226
ведзена	-11.6227
▁бур	-11.6228
▁80-	-11.6231
▁размеркаванне	-11.6233
▁ўраўненн	-11.6234
▁грамадск	-11.6236
▁трав	-11.6237
расла	-11.6241
▁клетка	-11.6241
▁даменн	-11.6243
▁своеасабліва	-11.6247
▁Слонімска	-11.6248
▁электрычн	-11.625
граў	-11.6252
▁стужк	-11.6254
цэна	-11.6256
▁блакітны	-11.6257
▁Кастылі	-11.6257
▁адкры	-11.6258
▁Алжыра	-11.6258
▁цяжар	-11.6259
▁элементарны	-11.6259
пала	-11.6262
▁выгна	-11.6262
дарыла	-11.6266
фашысцкі	-11.6267
▁малюнкам	-11.627
завод	-11.6272
▁выпраменьванне	-11.6273
▁меркавана	-11.6276
▁адчынены	-11.6277
▁падданы	-11.6278
▁эканомі	-11.6278
▁Вагнер	-11.6281
▁Правінцы	-11.6281
▁земнаводны	-11.6281
▁памежны	-11.6281
▁эвакуацы	-11.6281
▁дынамік	-11.6281
▁рыф	-11.6281
▁Камп	-11.6281
▁Каўнас	-11.6282
▁пакрыццё	-11.6283
▁забарані	-11.6284
▁МВ	-11.6285
▁Каспійска	-11.6289
▁багацця	-11.629
гейск	-11.6291
▁Расц	-11.6292
▁пісала	-11.6299
▁папскі	-11.6299
▁маб	-11.6303
▁Паліт	-11.6303
▁Савец	-11.6305
▁вядучым	-11.6306
▁прадугледжвала	-11.6312
▁каталік	-11.6315
▁нагляд	-11.6317
▁Буг	-11.632
▁тытула	-11.6322
▁меркавала	-11.6324
▁святын	-11.6324
оўны	-11.6324
▁Ляс	-11.6326
▁лёт	-11.6326
▁тэндэнцыя	-11.6327
рачыста	-11.6328
▁выве	-11.6329
▁паказ	-11.6329
▁дазволі	-11.633
▁прызнаваў	-11.6336
інакш	-11.6337
▁цвёрдым	-11.6337
▁летня	-11.6337
▁прымуша	-11.634
▁агнё	-11.6343
▁жадал	-11.6344
▁прырода	-11.6344
▁аўстралійскі	-11.6345
▁чорн	-11.6348
▁культурн	-11.6349
▁Маа	-11.635
▁малюск	-11.6351
▁гароднін	-11.6353
▁пераважал	-11.6357
▁дазваля	-11.6358
▁вугла	-11.6359
▁славу	-11.6361
▁давер	-11.6361
▁рос	-11.6361
▁жыллё	-11.6362
▁наладзі	-11.6363
▁дваранск	-11.6363
▁суддз	-11.6364
▁вектар	-11.6365
▁ўзначальвае	-11.6371
▁рода	-11.6372
▁пла	-11.6375
▁Вацла	-11.6377
сферы	-11.6377
ытворчасц	-11.6378
▁Падзяля	-11.638
▁рэкаменду	-11.638
▁Дрэздэн	-11.638
▁Найсвяцейша	-11.638
▁Пытанн	-11.638
▁бесперапынна	-11.638
▁запазычаны	-11.638
▁зацвярджэнн	-11.638
▁пазваночн	-11.638
▁Тутмос	-11.638
▁вывучы	-11.638
▁Азербайджан	-11.638
▁разлічва	-11.6381
▁памылкова	-11.6381
▁Венскі	-11.6381
▁двухпавярховы	-11.6381
▁сёл	-11.6382
▁прафсаюза	-11.6383
▁абсалютны	-11.6383
▁пратэстанта	-11.6383
▁Іванавіча	-11.6384
▁Належа	-11.6385
▁асвятленн	-11.6385
культурн	-11.6386
▁Сок	-11.6386
▁550	-11.6386
эдзі	-11.6386
ўрапейскім	-11.6386
▁бразільскі	-11.6387
▁сыходзі	-11.6388
▁печан	-11.6388
▁Земл	-11.6388
адпарадкаваны	-11.6389
▁аддзелены	-11.6393
▁знац	-11.6398
▁стварала	-11.6401
▁цюркск	-11.6402
даўшы	-11.6405
▁указа	-11.6407
▁італьянск	-11.6409
▁оперны	-11.6411
ердзі	-11.6414
po	-11.6415
▁паставі	-11.6415
▁Муса	-11.6419
▁129	-11.6422
▁пашырыў	-11.6426
▁распавядае	-11.6429
▁Ашмянскі	-11.6429
арла	-11.6431
▁Дво	-11.6434
▁сайта	-11.6434
▁Кені	-11.6435
▁паразу	-11.6438
роніка	-11.6441
кавы	-11.6442
▁грама	-11.6443
лёгку	-11.6445
гало	-11.6445
рагу	-11.6449
▁агульнае	-11.6452
ванне	-11.6454
▁вучыл	-11.6455
▁велізарн	-11.6455
▁Узро	-11.6457
▁прапанова	-11.6462
▁дырыжор	-11.6463
▁Місі	-11.6465
▁буд	-11.6465
▁правадыро	-11.6466
▁пазначэнн	-11.6467
▁алгебр	-11.6469
▁Кры	-11.6471
▁аддалены	-11.6472
▁чырвон	-11.6475
▁паэзія	-11.6475
▁адыход	-11.6476
▁мужнасц	-11.6476
▁пісалі	-11.6476
прэзідэнт	-11.6477
▁далучэнне	-11.6479
▁індустры	-11.6479
▁Капернік	-11.648
▁Максвел	-11.648
▁Тарашкевіч	-11.648
▁галаўно	-11.648
▁прыгнёт	-11.648
▁расстрэл	-11.648
▁сярэднявечны	-11.648
▁тулава	-11.648
▁Дэкарт	-11.648
▁фізіялогі	-11.648
▁цесны	-11.648
▁этнаграфічна	-11.648
▁марэнны	-11.6481
▁вуглярод	-11.6481
▁нармальна	-11.6482
▁прапаноўва	-11.6482
оны	-11.6486
▁Гамер	-11.6489
▁дзядзька	-11.649
▁наведа	-11.6494
▁здабы	-11.6495
▁брыгада	-11.6499
▁рымск	-11.6499
▁выдавала	-11.6499
▁Банк	-11.65
▁задум	-11.65
▁Захадзе	-11.6502
▁парны	-11.6504
▁Мядзельскі	-11.6507
▁чака	-11.6507
▁Македонія	-11.6508
pa	-11.6514
▁Берлінска	-11.6515
▁прадуктам	-11.6523
▁121	-11.6528
▁этно	-11.6529
▁выпрацоўк	-11.653
акцый	-11.6533
▁кантон	-11.6534
рослы	-11.6535
▁бульба	-11.6536
▁Кірыл	-11.6537
▁адхілі	-11.6541
▁пратэктарат	-11.6542
▁Візантыйска	-11.6542
▁Бабруйскі	-11.6545
▁бор	-11.6545
▁спалучае	-11.655
стравы	-11.6551
вяроў	-11.6552
эс	-11.6555
▁зня	-11.6555
▁адмаўляе	-11.6557
▁навакольн	-11.6557
▁уяўлення	-11.6558
▁ансамбля	-11.6558
▁груза	-11.6566
▁служачы	-11.6568
налогіі	-11.6571
▁Песн	-11.6572
▁карыстанн	-11.6576
▁фінансав	-11.658
мяльніцк	-11.6581
ўрасаюз	-11.6581
▁дапусці	-11.6581
▁радыкальны	-11.6581
▁Амерыканскі	-11.6581
▁Дадзены	-11.6581
▁дактрын	-11.6581
▁Дз	-11.6581
▁Байкал	-11.6581
▁вынаходства	-11.6581
▁промысл	-11.6581
▁распрацавал	-11.6583
▁Кобрын	-11.6584
▁саступіл	-11.6588
▁выдзелен	-11.6594
▁хрысціянск	-11.6595
▁Люб	-11.6595
▁калектыў	-11.6598
▁выкладанн	-11.66
▁паўтара	-11.6603
▁камандуюч	-11.6603
▁тэле	-11.6603
▁майстр	-11.6603
▁матэрыяльн	-11.6604
эл	-11.6606
▁змяшча	-11.6607
▁еса	-11.6608
▁астэроіда	-11.6608
нкі	-11.6609
арнігаўска	-11.6609
▁гал	-11.6609
▁набыты	-11.6609
▁Аман	-11.6609
▁грамадзяніна	-11.6611
▁адзіночны	-11.6615
нула	-11.6616
▁град	-11.6618
▁падпольны	-11.6622
▁тэлефон	-11.6622
▁магнат	-11.6627
▁назіраў	-11.663
▁тэматык	-11.6631
▁крэдыт	-11.6632
▁Ватыкана	-11.6634
прымала	-11.6635
▁Майкл	-11.6636
▁далучаец	-11.6638
▁15-	-11.6649
▁шара	-11.6649
▁арбі	-11.665
▁бронзава	-11.6654
▁прымусіў	-11.6654
▁ядналі	-11.6659
▁барабан	-11.6659
віча	-11.666
▁Люблінска	-11.6662
▁фю	-11.6665
нясе	-11.6666
▁кампазітарам	-11.6667
▁даведаў	-11.6672
▁бура	-11.6673
▁Навагруд	-11.6674
▁выбіраю	-11.6675
▁біблейскі	-11.668
▁афармленне	-11.6681
Паўл	-11.6681
▁развіт	-11.6682
▁Манчэстэр	-11.6683
▁заканамернасц	-11.6683
▁камерцыйна	-11.6683
▁канадскі	-11.6683
▁канфесі	-11.6683
▁намалявана	-11.6683
▁вуглякісл	-11.6683
▁пішу	-11.6683
аўчэнк	-11.6683
▁Генадз	-11.6683
▁ліцэнзі	-11.6683
ысун	-11.6683
▁ектыўны	-11.6683
асова	-11.6683
▁мембран	-11.6684
эрта	-11.6685
▁арганізоўва	-11.6685
▁флота	-11.6685
▁акружэнн	-11.6686
▁заляга	-11.6687
▁Аляксеевіч	-11.6687
▁Педр	-11.6689
▁Сход	-11.6689
▁літаратуразна	-11.6694
▁ткан	-11.6694
▁заснаванне	-11.6695
▁пакара	-11.6696
▁зыход	-11.6696
▁платформа	-11.6697
▁аддзяляе	-11.6698
▁Іаган	-11.67
утка	-11.6701
▁расці	-11.6703
▁люб	-11.6708
▁Унутр	-11.6709
▁дзед	-11.6711
▁Трой	-11.6711
вухпавярховы	-11.6714
▁выказваў	-11.6714
аркі	-11.672
▁садавін	-11.672
▁Ліст	-11.6721
▁гвардзейска	-11.6721
ўруч	-11.6724
▁заняткам	-11.6726
▁гол	-11.6727
▁сексуальна	-11.6727
▁сфармулява	-11.6732
▁сухапутны	-11.6732
▁будаўніча	-11.6737
▁вызна	-11.6738
▁пячора	-11.6741
▁падзялял	-11.6741
▁радк	-11.6747
▁варыян	-11.6753
льскі	-11.6753
брала	-11.676
▁прыхода	-11.6761
▁агента	-11.6764
▁Лу	-11.6764
▁Дзі	-11.6772
▁уплыв	-11.6773
▁сярэбраны	-11.6774
▁здара	-11.6775
▁Іаан	-11.6777
▁культу	-11.6778
▁вядуча	-11.6778
▁паведаміл	-11.6779
▁ядр	-11.6782
▁характары	-11.6782
▁абвінавачванн	-11.6783
▁Ген	-11.6783
▁саветніка	-11.6786
▁захапля	-11.6786
▁Веласкес	-11.6786
▁Выклада	-11.6786
▁іерогліф	-11.6786
▁мемуара	-11.6786
▁населена	-11.6786
▁пасяленц	-11.6786
▁заклаў	-11.6786
▁пакет	-11.6787
▁пёр	-11.6787
▁распачата	-11.6787
▁пляж	-11.6787
▁кашул	-11.6787
▁валадарства	-11.6787
▁Меды	-11.6788
▁хан	-11.6788
▁германскім	-11.6788
▁адзначала	-11.6788
▁рабоч	-11.679
шаны	-11.6792
▁паралельны	-11.6792
▁інтэлектуальн	-11.6792
вель	-11.6795
травы	-11.68
▁даводзі	-11.68
▁пахода	-11.68
ўжывання	-11.68
▁Ву	-11.6804
▁пашырае	-11.6806
▁мяча	-11.6806
▁пераходам	-11.6807
▁Карпат	-11.6809
▁наведвал	-11.681
▁Мазырскі	-11.6811
▁арыштава	-11.6812
▁Сідне	-11.6812
гварды	-11.6812
▁пошта	-11.6817
▁іспанскім	-11.6818
▁вучоным	-11.6819
рактычна	-11.6823
▁прагаласавал	-11.6827
▁Тан	-11.6829
▁вадка	-11.683
▁прыгонн	-11.6831
▁статыстык	-11.6831
▁Бацьк	-11.6831
цены	-11.6835
▁ўжывалі	-11.6836
▁лірык	-11.6836
▁Маршал	-11.6837
растае	-11.6838
▁Рыа	-11.6839
▁ўладанне	-11.6841
▁ранг	-11.685
▁прыступ	-11.6852
▁270	-11.6852
▁імігрант	-11.6853
абл	-11.6854
▁Слюдзянк	-11.6857
▁манарх	-11.6862
▁трапляюц	-11.6866
▁Літаратурна	-11.6867
▁рыхтава	-11.6868
▁ператварэнне	-11.6869
▁замацаваны	-11.6874
▁прадукцыя	-11.6877
▁тытулам	-11.6878
▁варожа	-11.6878
▁абшчына	-11.6881
▁Край	-11.6883
▁Ферм	-11.6884
▁зваротны	-11.6885
▁крытэры	-11.6885
▁светлы	-11.6887
лічэння	-11.6888
▁Аргенціна	-11.6889
▁Прыхільнік	-11.689
▁тлумача	-11.689
▁травяністы	-11.689
▁экзэмпляр	-11.689
▁прасочва	-11.689
▁Бярэ	-11.689
▁пранікненн	-11.689
▁ужыт	-11.689
▁прэфектур	-11.689
▁Баляслава	-11.6893
▁Ліда	-11.6893
▁акты	-11.6897
▁Георга	-11.6897
▁нараджэнне	-11.6898
ліны	-11.6899
▁Малі	-11.69
▁тэхналогія	-11.6901
▁замацавала	-11.6901
чча	-11.6901
▁89	-11.6903
▁ўсталява	-11.6903
▁Кінг	-11.6906
▁Маг	-11.6906
▁павіннасц	-11.6906
▁ўспрыманн	-11.6908
▁рэпутацыю	-11.6909
▁ужываю	-11.691
▁характэрным	-11.6914
аваў	-11.6914
▁Паб	-11.6918
ступае	-11.6918
нцаў	-11.6919
▁цац	-11.692
▁адносіл	-11.6921
▁дэлегата	-11.6924
▁баярын	-11.6924
▁цэн	-11.6925
жыта	-11.6925
▁адказнасці	-11.6926
▁патрон	-11.6927
Заходні	-11.6927
вангелля	-11.6933
менна	-11.6937
▁Маса	-11.6938
ходзячы	-11.694
▁Герман	-11.694
▁Беліц	-11.6949
баль	-11.6951
▁Кот	-11.6953
зразумела	-11.6955
▁банкаў	-11.6957
▁вугло	-11.6958
▁археолагам	-11.696
▁саступіў	-11.6962
▁стратэгічны	-11.6965
▁адзначалі	-11.6967
▁Барысаўск	-11.6974
▁кардынала	-11.698
▁Год	-11.698
▁230	-11.6981
▁пан	-11.6982
▁зялёным	-11.6986
▁захавалі	-11.6986
▁Даследава	-11.6987
▁ісп	-11.699
▁дарагі	-11.6992
аражытнагрэчаскі	-11.6995
▁Даследчык	-11.6995
▁Кеплер	-11.6995
▁Нарманды	-11.6995
▁клопат	-11.6995
▁персідскі	-11.6995
▁гатычна	-11.6995
▁генетычна	-11.6995
▁Лынтуп	-11.6995
▁Гамбург	-11.6995
▁палавін	-11.6996
▁добраахвотна	-11.6996
▁манг	-11.6998
▁функцыяну	-11.6999
▁Правіл	-11.6999
▁рухома	-11.7
▁алгарытм	-11.7
▁гаван	-11.7
▁Андрэевіч	-11.7002
▁незадаволены	-11.7004
▁Міжзем	-11.7006
▁Быка	-11.7008
▁падышл	-11.7009
ноў	-11.7014
▁гуч	-11.7015
▁здаў	-11.7016
▁патрабаванням	-11.7017
ўленне	-11.7018
▁віно	-11.7021
▁музыканта	-11.7021
▁балгар	-11.7021
▁жывёлагадоўл	-11.7023
▁лірычны	-11.7023
▁вытворча	-11.7023
▁Барысав	-11.7025
▁філосафа	-11.7026
▁размаўляю	-11.7027
▁напада	-11.7028
▁купал	-11.703
▁высадзі	-11.7034
▁негатыўна	-11.7035
▁атмасферны	-11.7038
▁консул	-11.7038
▁ганаровым	-11.7039
▁Прамыслова	-11.7041
▁Сін	-11.7043
лодкі	-11.7044
▁галандскі	-11.7047
▁ўзвышш	-11.7051
▁муравана	-11.7052
▁Фран	-11.7054
▁рэальным	-11.7054
▁бунт	-11.7056
▁найменш	-11.7059
▁ані	-11.706
▁ключ	-11.7062
▁пасл	-11.7064
▁місія	-11.7065
▁Львоўска	-11.7067
▁перажыва	-11.7067
▁свабодным	-11.7069
▁Гл	-11.7069
▁пераклада	-11.7072
араны	-11.7072
▁Нясвіжск	-11.7076
дкрыццё	-11.7078
▁рэлігій	-11.708
▁Вера	-11.7083
▁жывёла	-11.7086
▁прамысловым	-11.7096
▁Балкан	-11.7097
▁падобн	-11.7098
▁ўладання	-11.7101
▁чацвер	-11.7102
▁Італьянска	-11.7102
▁Вірджыні	-11.7102
▁Глыбін	-11.7102
▁Мастацтва	-11.7102
▁Рэпін	-11.7102
▁Салігорск	-11.7102
▁апавядае	-11.7102
▁бляск	-11.7102
▁мемарыяльны	-11.7102
▁паўтары	-11.7102
▁форт	-11.7102
▁Талін	-11.7102
▁гвалтоўна	-11.7102
▁гарызантальна	-11.7102
▁сацыяльным	-11.7102
▁яблык	-11.7102
вацца	-11.7103
▁вывезен	-11.7108
▁ўтвара	-11.7109
лівы	-11.711
▁Крыніца	-11.711
▁шкло	-11.7112
▁калегія	-11.7113
▁пазбаўленн	-11.7114
▁строгі	-11.7115
▁віцебскі	-11.7118
▁змене	-11.7119
▁садзейнічанн	-11.712
баб	-11.7121
▁кас	-11.7121
▁ўладальніка	-11.7122
цу	-11.7123
▁Гю	-11.7124
▁гадаванн	-11.7124
▁мары	-11.7129
▁аленя	-11.713
▁набраў	-11.7133
▁вырашае	-11.7136
▁старажытная	-11.7137
▁цыкла	-11.7139
▁звяртае	-11.7141
▁публікава	-11.7143
▁Радзіма	-11.7143
▁тыл	-11.7147
▁рыба	-11.7151
▁прускі	-11.7154
▁Імперыя	-11.7156
▁загадва	-11.7157
▁займаючы	-11.7158
▁Мёрскі	-11.7159
▁зніжэнне	-11.716
губернатара	-11.716
в	-11.7164
▁вядом	-11.7165
▁майстра	-11.7166
▁Значн	-11.7174
▁багат	-11.7174
▁бурак	-11.7176
ення	-11.718
▁хрысціянскім	-11.7181
▁Права	-11.7182
▁працэсам	-11.7184
▁Луцкевіча	-11.7184
насам	-11.7184
▁адчу	-11.7188
▁алімпійскі	-11.7189
▁спынілі	-11.7191
▁печы	-11.7192
▁драматычна	-11.7194
жаны	-11.7196
▁Глінскі	-11.7197
▁Навук	-11.72
▁тонкім	-11.7201
▁выкуп	-11.7204
шкевіч	-11.7204
▁Тэатр	-11.7206
▁Важна	-11.7206
▁Пераможца	-11.7206
▁пл	-11.7207
▁папярэдн	-11.7208
▁набыцц	-11.7208
▁бесп	-11.7209
▁кандыдацк	-11.7209
вярск	-11.7209
▁Бісмарк	-11.7209
▁Вергілі	-11.7209
▁прыпісвае	-11.7209
▁сканцэнтравана	-11.7209
▁тэлевізійны	-11.7209
▁тэлеграм	-11.7209
▁папраўк	-11.7209
▁Станкевіч	-11.7209
▁Адміністрацыйна	-11.7209
▁фермент	-11.7209
▁прамежкавы	-11.7209
▁звяржэнн	-11.7209
▁псіхалагічны	-11.7209
▁крытычна	-11.721
▁паломні	-11.721
▁Вест	-11.721
▁лінь	-11.721
▁фармат	-11.7212
▁ўмяшанн	-11.7213
▁дошк	-11.7213
▁адыгра	-11.7214
▁Кіеўскі	-11.7217
▁поўсц	-11.7218
▁Запіс	-11.7219
▁Вада	-11.7221
▁Гендэл	-11.7222
▁выдаленн	-11.7224
▁юнак	-11.7225
▁Грамад	-11.7226
▁Ірландыя	-11.723
▁далучылі	-11.7232
▁Парламента	-11.7233
▁Зеландыя	-11.7234
▁перадава	-11.7236
▁Дзед	-11.7237
▁вятрак	-11.7241
▁Канчаткова	-11.7244
▁вырошчванн	-11.7245
▁арабскім	-11.7246
▁вялікалітоўск	-11.7247
▁прававы	-11.7249
▁часці	-11.7254
▁кветка	-11.726
▁цыліндр	-11.7261
стонія	-11.7261
▁1890-	-11.7261
▁паступлення	-11.7263
▁постац	-11.7264
▁тыпова	-11.7264
▁дзялі	-11.7268
▁імаверна	-11.7268
▁Сун	-11.727
ены	-11.7271
▁Радзівілам	-11.7271
▁Докшыцкі	-11.7275
баха	-11.7276
▁закрыцц	-11.7279
▁падзела	-11.7281
▁незалежным	-11.7284
публікаваў	-11.7291
рава	-11.7296
▁крыжакам	-11.7297
▁княгіня	-11.7297
▁дацэнт	-11.7298
▁след	-11.7301
аму	-11.7306
▁Міцкевіч	-11.7307
▁інтэнсіўнасц	-11.7309
▁Георг	-11.731
▁104	-11.7311
▁уладанне	-11.7312
▁Рэвалюцы	-11.7312
▁вырошчва	-11.7313
▁даўжэй	-11.7315
▁сцэна	-11.7316
▁гравітацы	-11.7316
каноміка	-11.7318
▁Зальцбург	-11.7318
▁Таджыкістан	-11.7318
▁Туркменістан	-11.7318
▁ажыццёўлен	-11.7318
▁дэманстру	-11.7318
▁рознагалосс	-11.7318
▁блакад	-11.7318
▁бытавы	-11.7318
▁Навуковы	-11.7318
▁вынаходнік	-11.7318
зэф	-11.7318
▁місіянер	-11.7319
▁калісь	-11.7319
▁важнасц	-11.7319
▁этык	-11.7321
▁прамянё	-11.7321
▁выкладчыка	-11.7321
▁Святаславіч	-11.7321
чыні	-11.7322
▁папрасі	-11.7322
▁костк	-11.7324
▁Бранска	-11.7324
▁нервова	-11.7326
▁Гульн	-11.7327
▁пяхотны	-11.7329
▁ісці	-11.7331
▁абвінавачаны	-11.7332
▁брытанц	-11.7336
▁муніцыпалітэта	-11.7338
▁латышск	-11.734
▁мусі	-11.7342
▁адгалінаванн	-11.7342
▁царыц	-11.7343
▁зніжае	-11.735
▁Падляшш	-11.7351
▁кур	-11.7352
▁надзвычайна	-11.7353
▁яркасц	-11.7354
▁пералік	-11.7354
▁грэчаскім	-11.7355
▁фінанс	-11.7362
▁Крыт	-11.7364
▁заняцц	-11.7365
▁Ін	-11.7368
▁зніжэнн	-11.7369
▁кампазіцый	-11.737
▁ссылк	-11.7371
актаў	-11.7371
▁Ве	-11.7372
▁плантацы	-11.7372
▁падпольна	-11.7375
▁планіроўк	-11.7376
▁кіраўніцтв	-11.7383
знікненне	-11.7384
▁знакамітым	-11.7397
▁карта	-11.74
▁ўстаноўк	-11.74
▁адлюстраваны	-11.74
▁Горк	-11.7401
▁менша	-11.7404
▁шпітал	-11.7404
▁260	-11.741
▁ўдзельнікам	-11.7411
▁еўрапейца	-11.7412
▁фальварк	-11.7412
▁Баліві	-11.7415
▁фунт	-11.7418
▁дванаццац	-11.742
▁роўным	-11.7421
шэ	-11.7421
▁невысокі	-11.7426
ніі	-11.7426
▁інтарэсам	-11.7427
▁камяня	-11.7427
▁бяроз	-11.7428
▁Асацыяцы	-11.7428
▁Вывучэнне	-11.7428
▁Гданьск	-11.7428
▁Мясцовы	-11.7428
▁Рагнед	-11.7428
▁Салжаніцын	-11.7428
▁Тэкст	-11.7428
▁заселена	-11.7428
▁ўласцівы	-11.7428
▁Някляе	-11.7428
▁Панятоўск	-11.7428
▁абеліск	-11.7428
▁галандска	-11.7428
▁шлем	-11.7428
▁выдзяляе	-11.7428
▁фель	-11.7428
▁спецыялізу	-11.7428
▁ілюстрацы	-11.7428
▁губля	-11.7429
▁выдавецтв	-11.7429
▁Размяшча	-11.7429
шэль	-11.7429
▁акадэміка	-11.7429
▁зручна	-11.7431
▁Магдэбург	-11.7431
▁біблейск	-11.7431
Венгрыя	-11.7431
▁хлеб	-11.7432
▁спыня	-11.7433
▁Давыд	-11.7433
▁губ	-11.7436
▁Адно	-11.7436
▁аперацыйны	-11.7436
▁адлюстрава	-11.7438
▁выпрабаванн	-11.7439
таты	-11.7439
▁жылым	-11.744
▁ўзяты	-11.7441
▁стабільнасц	-11.7441
▁станоўча	-11.7444
▁кашталян	-11.7448
З	-11.7448
▁Зімовы	-11.7451
авая	-11.7453
▁Ілл	-11.7466
▁рэалізм	-11.7467
▁найменне	-11.7473
журы	-11.7474
▁сухім	-11.7475
▁1880-	-11.7475
▁узял	-11.7477
▁смаленскі	-11.7481
▁вільгац	-11.7485
іду	-11.7485
▁дзяўчынк	-11.7488
▁рачно	-11.7491
▁650	-11.7494
▁ставіў	-11.7496
▁перакладам	-11.7497
метры	-11.7498
▁аналагічна	-11.75
ыкарыстанне	-11.7504
▁моцн	-11.7504
▁каталіцкім	-11.7511
▁выяўленч	-11.7516
▁Вар	-11.7516
▁аддаваў	-11.7516
▁Вішнявецкі	-11.7521
▁Іагана	-11.7521
▁Кука	-11.7522
▁прэсн	-11.7524
▁балет	-11.7524
▁210	-11.7525
нікаў	-11.7525
▁слуха	-11.7526
▁ранейша	-11.7527
атыры	-11.7532
▁Сямён	-11.7533
прача	-11.7534
▁подзвіг	-11.7539
▁Азёр	-11.7539
▁Банапарт	-11.7539
▁Супраць	-11.7539
▁альтэрнатыўны	-11.7539
▁брашур	-11.7539
▁вяскова	-11.7539
▁прымеркаван	-11.7539
▁умераны	-11.7539
▁іўдаізм	-11.7539
▁Мухамед	-11.7539
▁тэрор	-11.7539
▁аздоблены	-11.7539
▁капуст	-11.7539
▁Раніца	-11.7539
▁аркуш	-11.754
▁Адрыятычн	-11.754
▁контр	-11.7541
▁арыентаваны	-11.7541
▁Высоцк	-11.7541
▁насуп	-11.7542
▁суправаджала	-11.7543
▁Канстанцінавіч	-11.7547
▁рукапісны	-11.7549
▁Форд	-11.7552
▁Паўлавіч	-11.7555
▁аднавіла	-11.7558
▁трохвугольніка	-11.7559
▁шахт	-11.7559
▁выплат	-11.756
арол	-11.7562
▁ідэальна	-11.7563
▁аптычны	-11.7565
▁13-	-11.7566
▁афіцыйн	-11.7571
▁паспрабавал	-11.7573
▁Расійскі	-11.7574
▁70-	-11.7576
▁Мела	-11.7577
▁гелі	-11.7577
▁карпарацы	-11.7583
▁курфюрста	-11.7584
▁вулканічны	-11.7585
▁Закона	-11.7586
▁пойма	-11.759
▁дакладнасці	-11.7592
▁Галуб	-11.7593
▁імператарск	-11.7594
▁разві	-11.7598
▁Крымска	-11.7601
▁цікава	-11.7603
▁горным	-11.7606
▁Лізавет	-11.7606
▁ўзял	-11.7606
▁пласта	-11.7607
▁трымалі	-11.7611
▁Мексіка	-11.7613
▁тэкс	-11.7617
▁пераста	-11.7622
▁адпаведным	-11.7628
рол	-11.763
▁сабра	-11.7631
зы	-11.7634
▁схава	-11.7637
амярза	-11.764
▁факта	-11.7641
радам	-11.7643
▁сценк	-11.7646
▁рабочым	-11.7648
▁сажалка	-11.7651
▁паўзун	-11.7651
▁пазбяга	-11.7651
берг	-11.7651
▁Ліхтэнштэйн	-11.7651
▁Рагвалод	-11.7651
▁асамбле	-11.7651
▁атача	-11.7651
▁змяншэнн	-11.7651
▁канвенцы	-11.7651
▁кантралюе	-11.7651
▁натоўп	-11.7651
▁тэктанічны	-11.7651
▁ячмен	-11.7651
▁умерана	-11.7651
▁Дзейн	-11.7651
▁рэдагава	-11.7652
▁ўстанаўленн	-11.7652
▁унікальны	-11.7652
▁генетычны	-11.7653
▁жамойцк	-11.7654
▁вярхоўя	-11.7654
▁пераходзя	-11.7654
▁дасягнута	-11.7655
▁Сваё	-11.7655
▁сталічна	-11.7658
▁Нікол	-11.7658
▁лодка	-11.7659
▁інфармацыйна	-11.7661
▁Двор	-11.7662
▁нітк	-11.7662
▁узвышш	-11.7662
▁княжацк	-11.7662
▁праграмны	-11.7663
пена	-11.7664
▁ажыццяўляў	-11.7668
▁Рымскага	-11.7669
▁жорсткасц	-11.767
▁выконваючы	-11.7671
▁Платона	-11.7671
▁Араго	-11.7672
▁суправаджаў	-11.7674
вар	-11.7675
▁Кангрэса	-11.7675
▁Пухавіцк	-11.7676
▁нязначна	-11.7682
▁змяненн	-11.7683
МФ	-11.7684
▁базавы	-11.7687
▁лорда	-11.7687
▁паскарэнне	-11.7688
▁разграміл	-11.7689
▁бюст	-11.7689
ДП	-11.7691
▁павятова	-11.7694
▁паданне	-11.7696
▁Пан	-11.7696
▁Венецыя	-11.7698
анна	-11.7705
▁рахунк	-11.7707
▁скарача	-11.7716
▁выцягнуты	-11.7716
▁сведчанне	-11.7718
рання	-11.7719
▁таленавіты	-11.7719
▁шлюбны	-11.772
▁Усевалад	-11.772
▁гавор	-11.7721
▁Духа	-11.7725
он	-11.7726
ўсходнім	-11.7727
▁ахоўн	-11.7727
▁забойств	-11.7734
▁Мад	-11.7737
04	-11.774
▁журналіста	-11.774
арльз	-11.7742
▁падарожнік	-11.7743
▁Ніка	-11.7745
▁стваральніка	-11.7751
▁Ніж	-11.7752
будаванне	-11.7752
▁жыццёва	-11.7752
▁Падпарадк	-11.7753
ўка	-11.7754
▁Гродзенск	-11.7755
матэрыяла	-11.7756
tu	-11.776
▁запуск	-11.7762
▁Палата	-11.7764
▁Супрацоўні	-11.7765
▁мануфактур	-11.7765
▁нявест	-11.7765
▁травяніста	-11.7765
▁Светлагорск	-11.7765
▁прыпісваюц	-11.7765
▁Андропа	-11.7765
▁Прынцып	-11.7765
▁Тэхас	-11.7765
▁мудрасц	-11.7765
▁народжана	-11.7765
▁пятніц	-11.7765
▁Псков	-11.7765
▁Адносна	-11.7765
▁рэйс	-11.7765
▁Кастра	-11.7765
▁распрацоўшчык	-11.7765
▁зафіксаваны	-11.7766
▁Гаус	-11.7766
▁гумар	-11.7766
▁гукавы	-11.7766
▁Ковенска	-11.7766
бы	-11.7766
▁антрапалогі	-11.7766
▁уяўля	-11.7766
▁розніца	-11.7767
▁малекулярн	-11.7767
▁вырашэнне	-11.7767
▁агародж	-11.7768
▁сталым	-11.7772
▁Армянска	-11.7773
▁праверк	-11.7774
▁Бра	-11.7776
▁спецыяльным	-11.7776
▁Злучана	-11.778
▁заступніка	-11.7781
▁апісана	-11.7783
▁таемна	-11.7785
▁раўнінны	-11.7786
▁ўдзельніка	-11.7789
▁напіса	-11.779
сяле	-11.7791
▁відэа	-11.7792
▁невыразна	-11.7796
▁крышталічны	-11.7798
▁Адольф	-11.7804
▁напружання	-11.7805
мск	-11.7806
▁Форм	-11.7807
▁ваявал	-11.7808
▁чут	-11.7808
▁народнасц	-11.7811
▁кветкавы	-11.7812
▁прадзюсар	-11.7817
▁даследчыкам	-11.7827
▁вылучэнн	-11.7827
▁вертыкальны	-11.7828
▁беларусам	-11.7828
анты	-11.7828
▁сельск	-11.783
▁гуляе	-11.7842
іда	-11.7845
▁сустрэлі	-11.7847
▁праяўляе	-11.7848
▁пляменнік	-11.7848
▁пляц	-11.785
▁Рыга	-11.7851
▁ўбор	-11.7852
▁10-1	-11.7854
▁рэзерв	-11.7854
▁Тон	-11.7856
▁града	-11.7856
▁апсід	-11.7857
▁пагорк	-11.7859
▁выкладзены	-11.7861
атак	-11.7861
▁Дня	-11.7862
▁дамам	-11.7869
▁пачу	-11.7869
▁бяроза	-11.7872
▁Звяз	-11.7875
▁публікацыя	-11.7875
▁Пскоў	-11.7878
▁планаваў	-11.7879
▁агрэсі	-11.788
драэлектрастанцы	-11.788
▁Брачысла	-11.788
▁Бургунды	-11.788
▁Бялград	-11.788
▁Ганаровы	-11.788
▁Дакумент	-11.788
▁аператыўна	-11.788
▁аўдыторы	-11.788
▁збліжэнн	-11.788
▁пераезд	-11.788
▁рэарганізаван	-11.788
▁саманазв	-11.788
▁італьянц	-11.788
▁фашызм	-11.788
▁чэрап	-11.788
▁роднасны	-11.788
▁прэпарат	-11.788
▁Сельск	-11.788
▁параўноўва	-11.788
шла	-11.7882
▁драпежнік	-11.7882
▁Сейм	-11.7883
▁вуш	-11.7883
▁апрацоў	-11.7883
▁слых	-11.7885
▁парушэнн	-11.7886
▁сховішча	-11.7886
▁акупіраван	-11.7886
▁палкаводца	-11.7886
▁штогадова	-11.7887
▁Латвійска	-11.7888
▁паловай	-11.7889
▁Друцк	-11.7891
▁зме	-11.7891
▁дава	-11.7893
▁неабходным	-11.7894
▁паліцэйскі	-11.7896
▁Вішнявецк	-11.7899
гадвае	-11.79
▁паступіл	-11.7904
▁гару	-11.7904
▁катэгорыя	-11.7905
▁пячатк	-11.7905
▁падзяліў	-11.791
лод	-11.7912
▁французам	-11.7912
▁Выяўлены	-11.7913
▁праём	-11.7915
▁Урада	-11.7915
▁Акцябрск	-11.7923
▁1860-	-11.7924
▁Людвіга	-11.7924
▁масла	-11.7926
▁адыгрывал	-11.7928
tt	-11.7934
▁выхадзе	-11.7936
▁Ашмян	-11.7939
▁падкрэсліва	-11.7942
трэ	-11.7943
▁украінск	-11.7943
▁апрацоўка	-11.7948
▁вя	-11.7952
селены	-11.7957
▁Гер	-11.7957
▁заменен	-11.7958
▁драпежны	-11.796
ант	-11.7963
▁грамадзянін	-11.7963
ву	-11.7967
тур	-11.7969
▁пастаноў	-11.7972
▁медыцынск	-11.7977
▁цёплым	-11.7982
▁масавым	-11.7983
азначэнне	-11.7984
▁каланіяльна	-11.799
▁азначэнн	-11.7993
эабіліта	-11.7995
▁Размер	-11.7996
▁Кёльн	-11.7996
▁Тасмані	-11.7996
▁аксіём	-11.7996
▁засушлівы	-11.7996
▁здзяйсненн	-11.7996
▁міжземнаморск	-11.7996
▁рэарганізацы	-11.7996
▁скарочаны	-11.7996
▁склон	-11.7996
▁суправаджэнн	-11.7996
▁фота	-11.7996
▁Амур	-11.7997
▁дыханн	-11.7997
▁шоста	-11.7997
▁умацаваны	-11.7997
▁Мальер	-11.8
ачу	-11.8005
эгіён	-11.8005
▁выдала	-11.8007
▁Карэя	-11.8009
▁злучы	-11.8009
▁княжацкі	-11.8012
перша	-11.8014
▁гарнізона	-11.8015
валь	-11.8018
▁княгін	-11.8019
▁абслугоўванне	-11.8021
▁цёмным	-11.8021
▁акул	-11.8023
▁Берн	-11.8023
▁Пар	-11.8024
▁лек	-11.8024
▁выяў	-11.8024
▁ягад	-11.8026
▁земляны	-11.8032
▁ізраільскі	-11.8034
▁бука	-11.8034
пры	-11.8034
▁палажэння	-11.8037
трымліваў	-11.8039
званы	-11.8045
▁захопнік	-11.8046
▁Наш	-11.8052
▁Кембрыдж	-11.8052
▁канцо	-11.8053
▁распараджэнне	-11.8053
▁шары	-11.8055
▁асноў	-11.8064
▁пляма	-11.8065
▁каменным	-11.8068
▁Дэвід	-11.8072
▁адмысловым	-11.8075
абрала	-11.8079
▁тэкстам	-11.808
жыў	-11.808
▁ўспаміна	-11.808
▁Вас	-11.8082
▁Руд	-11.8084
▁Клімент	-11.8086
арватыя	-11.8086
▁адлюстраванн	-11.8089
▁адказва	-11.8094
▁Сірыя	-11.8095
▁Альфрэд	-11.81
▁Сямёна	-11.8106
▁сістэматычна	-11.8106
▁Леапольд	-11.8106
▁лаўр	-11.8108
▁прыналеж	-11.8109
▁Балясла	-11.8111
▁Альпа	-11.8112
▁блыта	-11.8114
▁агітацы	-11.8114
▁каталіцызм	-11.8114
▁няправільна	-11.8114
▁рэгулюе	-11.8114
▁старажытнаруск	-11.8114
▁інфляцы	-11.8114
▁Фільм	-11.8114
▁сінгл	-11.8114
▁Гегел	-11.8114
▁імклів	-11.8114
▁Сахалін	-11.8114
▁Джэксан	-11.8114
▁глабальна	-11.8114
эмпіянат	-11.8114
чых	-11.8116
▁яду	-11.8116
▁Якуб	-11.8116
арактэрны	-11.8118
▁Прон	-11.8119
▁сталічны	-11.812
▁імкнул	-11.8122
▁фінскі	-11.8124
▁нот	-11.8125
▁Венск	-11.8126
▁забаранял	-11.8131
▁сучаснасц	-11.8134
прэзідэнта	-11.8137
▁Усебеларускі	-11.8137
▁прадстаўленн	-11.8139
▁хад	-11.8141
▁кніжна	-11.8142
▁12-	-11.8143
СДП	-11.8149
памінае	-11.8156
▁замяні	-11.8158
▁дацка	-11.8158
▁еўрапейцам	-11.816
▁Мура	-11.8163
▁Альгерд	-11.8164
оўшчы	-11.8164
▁выраблен	-11.8165
▁падраздзяленн	-11.8169
▁зуб	-11.8174
▁СС	-11.8174
▁прыпын	-11.8175
▁абмежава	-11.8176
▁усталяваў	-11.8177
▁дамага	-11.8181
▁сезона	-11.8186
▁ператварэння	-11.8192
▁вярхоўны	-11.8196
▁Уво	-11.82
▁Смаленску	-11.8201
▁заклікал	-11.8206
▁Дн	-11.8206
▁Ста	-11.8213
▁шасц	-11.8214
▁архібіскупа	-11.822
▁каталіко	-11.8221
▁адда	-11.8224
▁Мсціслава	-11.8225
▁авеч	-11.8227
▁Камісія	-11.8228
нава	-11.8229
▁факты	-11.823
ідавочна	-11.8231
▁эміграва	-11.8231
▁беспазваночны	-11.8233
▁рытуал	-11.8233
ынгісхан	-11.8233
▁Бранісла	-11.8233
▁Герадот	-11.8233
▁батарэ	-11.8233
▁паспел	-11.8233
▁рамантычна	-11.8233
▁кансерватыўны	-11.8233
▁рацыён	-11.8233
▁супраців	-11.8233
▁прымусова	-11.8233
ланіроўка	-11.8233
▁напрык	-11.8233
▁зафіксавана	-11.8233
▁зменам	-11.8234
▁фінансавым	-11.8235
▁сенатар	-11.8237
іраўніцтва	-11.8238
▁аўтобусны	-11.8239
▁часавы	-11.8239
▁экалагічна	-11.8241
▁конніц	-11.8243
▁пагражал	-11.8245
▁трупа	-11.8252
▁экспедыцый	-11.8252
▁Славакія	-11.8257
▁водным	-11.8257
▁паседжанн	-11.8258
▁этнічн	-11.8263
▁пачына	-11.8263
▁Будапешт	-11.8266
марскі	-11.8267
▁Артур	-11.8269
▁Візантыя	-11.827
▁Давід	-11.8271
▁Акадэмік	-11.8275
▁злачынств	-11.8276
▁партнёрам	-11.8277
▁артылерыйскі	-11.8278
▁накіравалі	-11.8279
▁дама	-11.8281
▁патрыятычны	-11.8283
▁ладзі	-11.8288
▁Крыж	-11.8289
▁чыгуначным	-11.8292
▁Нясвіжскі	-11.8293
▁цырк	-11.8295
▁сучасніка	-11.8302
▁вылучэнне	-11.8302
▁надавала	-11.8303
▁абавязковым	-11.8305
▁каменн	-11.8309
▁Кам	-11.8311
▁Львоў	-11.8319
▁крыніцам	-11.832
▁чыноўнік	-11.8331
альнай	-11.8331
▁пераходзіл	-11.8334
▁веравання	-11.8334
▁Усяслав	-11.8335
▁хацел	-11.8335
▁воінска	-11.8336
▁Гарад	-11.8337
▁сін	-11.8339
чак	-11.8345
▁партрэта	-11.8345
▁пяхотна	-11.8349
▁Генерал	-11.8351
▁прыдворн	-11.8352
гавораны	-11.8353
▁Брандэнбург	-11.8353
▁Войшалк	-11.8353
▁Гільберт	-11.8353
▁Утварае	-11.8353
▁гарэлк	-11.8353
▁Брэжне	-11.8353
▁Фландры	-11.8353
▁публіцыстычны	-11.8353
▁ўзаемна	-11.8353
▁Унутраны	-11.8353
▁банан	-11.8354
▁заапарк	-11.8354
▁радыкальна	-11.8354
▁цукрова	-11.8354
лек	-11.8354
▁Адкрыта	-11.8355
ур	-11.8355
▁ракападобны	-11.8355
▁радыяцыйна	-11.8355
нства	-11.8359
▁абрыв	-11.8359
ырвоным	-11.8364
кама	-11.8365
▁кл	-11.8367
▁арганізацыйна	-11.8368
▁прыехал	-11.8369
▁выкладае	-11.8369
чыны	-11.8371
▁паліт	-11.8372
▁Пабудавана	-11.8375
▁годнасц	-11.8377
▁ствараючы	-11.8378
▁аўто	-11.8379
▁Баранавіцкі	-11.8381
▁грамадзянам	-11.8381
▁фінска	-11.8384
▁111	-11.8384
▁Асамбле	-11.8384
▁адступі	-11.8385
▁дывізіён	-11.8385
▁чытанне	-11.8386
▁конна	-11.8386
▁Блізк	-11.8391
▁Крысціян	-11.8396
▁заключыл	-11.84
лец	-11.8402
▁пласты	-11.8403
▁свін	-11.8403
▁вымаўленне	-11.8406
▁тэлескопа	-11.8408
▁ездам	-11.8411
▁жанчынам	-11.8412
▁госц	-11.8412
▁фармац	-11.8414
▁Альбрэхт	-11.8416
▁Ігара	-11.8418
▁канфіскаваны	-11.8419
▁суправаджалі	-11.8419
▁тэлескоп	-11.8421
▁абмяжоўва	-11.8421
▁абмежаванн	-11.8421
▁адбіт	-11.8422
▁выведзены	-11.8424
арл	-11.8425
▁старонк	-11.8428
мусіў	-11.8431
▁супярэчы	-11.8432
▁памятны	-11.8434
етра	-11.8435
▁раманскі	-11.8438
▁легендарны	-11.8438
▁Федэрацыя	-11.844
чар	-11.8443
▁ведамства	-11.8444
▁філіяла	-11.8444
▁замяніл	-11.8446
▁лекара	-11.8447
▁прадмов	-11.8447
▁адступіл	-11.8449
▁брытанск	-11.8451
▁нумарам	-11.8454
трыманне	-11.8457
▁запатрабавал	-11.8459
тс	-11.846
▁інжынерам	-11.8462
▁адцення	-11.8462
▁шчы	-11.8463
▁кінуў	-11.8463
▁сексуальны	-11.8464
▁працэнт	-11.8466
▁даруч	-11.8468
▁Лютэра	-11.847
▁выразнасц	-11.847
▁плану	-11.847
▁Крупск	-11.8472
плады	-11.8473
оўк	-11.8474
Марцінкевіч	-11.8475
▁Ганарова	-11.8475
▁Дунін	-11.8475
▁Маладняк	-11.8475
▁альманах	-11.8475
▁нідэрландска	-11.8475
▁антысавецк	-11.8475
▁Палта	-11.8475
▁безумоўна	-11.8475
▁Малодш	-11.8475
▁Французскі	-11.8475
▁плаўнік	-11.8476
▁прадухіленн	-11.8477
▁датаваны	-11.8477
▁нацыст	-11.8478
▁ліб	-11.8478
▁рэдкім	-11.8478
▁Творча	-11.848
▁Люта	-11.848
▁збудавана	-11.8481
▁неф	-11.8483
▁бомб	-11.8489
▁народжаны	-11.8489
▁балотны	-11.849
▁адказвае	-11.8491
▁ўрач	-11.85
ўскі	-11.8504
віце	-11.8506
значна	-11.8506
▁колькасна	-11.8507
▁цяг	-11.8509
▁эк	-11.8511
▁мэра	-11.8512
▁Джо	-11.8513
▁убачыў	-11.8516
палов	-11.8517
▁патрапіў	-11.8517
▁пасялення	-11.8518
▁дамові	-11.852
▁традыцыям	-11.8523
тылі	-11.8525
годдзя	-11.8525
▁захоўваў	-11.8526
▁ручаё	-11.8529
▁экіпажа	-11.853
▁размаўля	-11.8534
рэба	-11.8535
▁валам	-11.8539
▁узаемадзеяння	-11.8539
▁раўна	-11.854
▁іспанцам	-11.854
▁прынцэс	-11.8542
▁Турав	-11.8544
▁пастаянным	-11.855
▁віруса	-11.8552
▁рота	-11.8556
▁адказа	-11.8557
▁тэлеканал	-11.8558
▁Распрацава	-11.8559
▁апіса	-11.8559
▁вучэбны	-11.856
▁звер	-11.856
▁плыня	-11.8561
▁прадстаўляю	-11.8564
▁ўпрыгожаны	-11.8567
▁ўтрымліваюц	-11.8567
▁базава	-11.8567
месцазнаходжанне	-11.8568
лер	-11.8571
леў	-11.8572
▁земск	-11.8574
▁адпраўляе	-11.8574
▁груз	-11.8578
шка	-11.8579
▁бул	-11.8579
▁пераможцам	-11.8579
▁рэчывам	-11.8582
▁выкана	-11.8583
▁ўсходн	-11.8584
▁трас	-11.8585
▁ўключэнн	-11.8586
▁Пухавіцкі	-11.8586
▁будова	-11.8587
▁зараснік	-11.8592
▁спыняе	-11.8593
▁Слав	-11.8595
▁цэх	-11.8595
▁арганізатарам	-11.8597
▁губляе	-11.8598
Балаховіч	-11.8599
▁арфаграфі	-11.8599
▁прапорцы	-11.8599
▁Адрыян	-11.8599
▁Мастацка	-11.8599
▁тытун	-11.8599
▁страчана	-11.8599
▁ежа	-11.8599
ачот	-11.8599
▁Валгаград	-11.8599
▁апора	-11.8599
▁ісландск	-11.8599
▁падвойна	-11.8599
эрчыл	-11.8599
▁касманаўт	-11.8599
▁калектывізацы	-11.8599
▁Гамбі	-11.86
▁ўзята	-11.8601
▁Пціч	-11.8601
▁перавезен	-11.8602
▁выгнаны	-11.8602
▁Вацлава	-11.8602
▁тайны	-11.8603
▁соцен	-11.8604
▁Лаос	-11.8605
▁прыгарадны	-11.8605
▁ствараў	-11.8605
▁тка	-11.8606
▁пачынаў	-11.8607
▁мур	-11.8608
▁пракладзен	-11.8616
▁малад	-11.8617
▁АА	-11.862
▁Раслінн	-11.8622
▁калегіума	-11.8625
▁канцэнтрацыя	-11.8626
▁Выця	-11.8627
▁дзяўчына	-11.8627
▁багіня	-11.8628
▁Дарог	-11.8629
▁пісьмен	-11.863
▁Конрад	-11.8635
▁вучням	-11.8635
▁Арменія	-11.8636
▁Сала	-11.8639
▁прыбыл	-11.864
▁Усерасійск	-11.8643
часна	-11.8643
▁Аляск	-11.8646
▁значнасц	-11.8646
▁розніц	-11.8647
▁Ірына	-11.8649
глыб	-11.8651
▁мірн	-11.8652
слоў	-11.8652
▁правал	-11.8655
▁Бю	-11.8661
▁творч	-11.8661
▁групавы	-11.8663
▁губерн	-11.8664
▁належыл	-11.8667
▁ракет	-11.8669
▁палкоў	-11.8669
▁класіфікацыя	-11.8671
▁звярнул	-11.8671
▁залат	-11.8672
▁Сябра	-11.8673
▁заданне	-11.8673
▁адправілі	-11.8673
зец	-11.8674
▁суседзя	-11.8674
▁Людвіг	-11.8675
▁спадз	-11.868
ардо	-11.8685
▁Саратаў	-11.8688
▁Рычарда	-11.8688
эхія	-11.8689
▁кармавы	-11.8697
▁чыгуначн	-11.87
▁увахода	-11.8702
▁меншыя	-11.8703
▁Магілёўск	-11.8704
▁неза	-11.8705
▁нейк	-11.8706
▁паэты	-11.8706
іч	-11.8708
▁праяві	-11.8709
▁тура	-11.8709
▁адхіленн	-11.8711
▁рэгіёнам	-11.8712
▁дазвалял	-11.8714
▁размешчаным	-11.8714
▁лінейна	-11.8714
турэцк	-11.8715
▁Прычы	-11.8718
▁даследвання	-11.8718
▁Вячасла	-11.8721
ахвотна	-11.8723
▁Нарач	-11.8724
▁Дружб	-11.8724
▁аграрны	-11.8724
▁манументальны	-11.8724
▁фарміруюц	-11.8724
▁рашуча	-11.8724
▁бытаво	-11.8724
▁дзіўна	-11.8724
▁сківіц	-11.8724
▁Тайван	-11.8724
▁Можа	-11.8725
▁карычневы	-11.8726
▁нейтрон	-11.8726
▁прызёр	-11.8727
▁сыгра	-11.8728
▁святым	-11.8728
▁філалогі	-11.8728
судны	-11.8728
▁рэйх	-11.8729
▁пяско	-11.8731
▁Ваз	-11.8735
▁выказала	-11.8737
▁вусна	-11.8739
тэка	-11.8742
▁мозга	-11.8743
▁радыуса	-11.8749
▁пладо	-11.875
▁Федэральн	-11.8751
▁адыходзі	-11.8752
▁абгрунтаванн	-11.8753
▁Дуб	-11.8753
▁калектыўны	-11.8754
▁пазначэнне	-11.8754
▁ісламскі	-11.8754
▁немаўля	-11.8755
арль	-11.8759
пакой	-11.876
▁Гален	-11.8761
▁Тураўска	-11.8763
▁Іо	-11.8764
▁ўладар	-11.8764
▁самастойн	-11.8765
▁планаванн	-11.8767
▁перакананн	-11.8769
▁кніжк	-11.877
▁вірус	-11.8771
▁Неапал	-11.8773
▁Гімалая	-11.8774
▁смяротнасц	-11.8776
▁прыстасаванн	-11.8778
▁палякам	-11.878
▁Ушацкі	-11.878
▁Вызвален	-11.8782
▁Наталля	-11.8782
▁ўраўнення	-11.8783
▁Самк	-11.8785
▁Грэ	-11.8785
▁Назван	-11.8789
▁духоўным	-11.8792
▁судов	-11.8792
прост	-11.88
▁калектыўн	-11.88
▁пралів	-11.8805
▁вытворц	-11.8806
▁ўзыходз	-11.8806
▁вобраза	-11.8807
▁ВС	-11.8811
▁землетрасення	-11.8815
▁запрасіл	-11.8816
▁уласцівасця	-11.8817
▁прыгожа	-11.8821
▁каз	-11.8822
▁кодэкс	-11.8822
▁групоўка	-11.8823
▁астанк	-11.8824
яўлена	-11.8825
▁адменены	-11.8827
▁надаю	-11.8828
▁структурны	-11.8829
вол	-11.8831
▁абмяжоўвае	-11.8833
▁Папу	-11.8842
▁камуністычн	-11.8844
ыпламатычны	-11.885
асопіс	-11.885
▁Рэспу	-11.885
▁апалчэнн	-11.885
▁нелегальна	-11.885
▁профіл	-11.885
▁Адукацы	-11.885
▁англамоўн	-11.885
▁крымінальны	-11.885
▁пацыента	-11.885
▁перасячэнн	-11.885
▁першасны	-11.885
▁статыстычна	-11.885
▁трыснёг	-11.885
▁суфікс	-11.885
▁Сінод	-11.885
▁Расцісла	-11.8851
▁паменшы	-11.8851
▁ац	-11.8852
▁Меркава	-11.8853
▁Трох	-11.8854
▁аддзелам	-11.8856
▁тэхнічным	-11.8856
▁Танк	-11.8857
▁справам	-11.8858
▁Выбран	-11.8859
▁квадрат	-11.886
▁выканал	-11.8862
▁разгромлен	-11.8863
▁Раду	-11.8863
▁гучанне	-11.8865
нідаў	-11.8866
▁падручніка	-11.8866
▁цеплаво	-11.8866
▁запатрабава	-11.8868
▁пачуцц	-11.8868
▁Пола	-11.8869
▁бук	-11.887
▁веліч	-11.8871
▁Тэўтонскі	-11.8873
▁атмасфера	-11.8873
рэктарам	-11.8874
▁аўтарскі	-11.8875
▁жывёльны	-11.8876
шчына	-11.8877
▁неафіцыйна	-11.8881
▁Міністэрств	-11.8884
▁квадрата	-11.8885
▁Мал	-11.8886
▁фізічным	-11.8889
▁выдзяленн	-11.8889
▁ўстойліва	-11.8892
▁грудны	-11.8894
▁вучэнн	-11.8894
▁рэкам	-11.8895
▁Казанск	-11.8896
▁цудоўны	-11.8899
▁байц	-11.89
▁Лаг	-11.8901
начы	-11.8902
йскі	-11.8906
▁ужыванне	-11.8906
яло	-11.891
▁партызанам	-11.8913
▁падраздзяленне	-11.8917
▁чвэрць	-11.8917
▁радасц	-11.8918
друго	-11.8921
▁правадыра	-11.8922
▁адпраўля	-11.8922
▁гле	-11.8923
▁магістр	-11.8928
▁сфарміраваў	-11.893
▁пераносіц	-11.8931
руч	-11.8931
▁ўзбраення	-11.8934
▁патрэба	-11.8936
сцёр	-11.8937
▁набыва	-11.8937
▁крыл	-11.8941
▁віленск	-11.8942
▁ўсеагульна	-11.8947
▁разглядалі	-11.8947
▁пазна	-11.8949
▁карыстал	-11.8955
▁геалагічна	-11.8958
▁дысцыпліна	-11.8962
▁пазнача	-11.8962
▁сената	-11.8963
▁падмур	-11.8964
▁трапічн	-11.8966
▁падкрэслівае	-11.8967
▁ўсеагульны	-11.8967
▁лацінскім	-11.8969
▁гісторыкам	-11.8971
▁вершаваны	-11.8971
▁выключэння	-11.8974
▁аэрадром	-11.8979
▁Кыргызстан	-11.8979
▁бясплатна	-11.8979
▁вернута	-11.8979
▁салідарнасц	-11.8979
▁зможа	-11.8979
▁калідор	-11.8979
▁прадукцыйнасц	-11.8979
▁Валода	-11.8979
▁акісл	-11.8979
▁Рудня	-11.8979
▁каралавы	-11.8979
▁шатландскі	-11.8979
▁Лісабон	-11.8979
▁вывез	-11.898
▁Загіну	-11.898
▁сумяшча	-11.898
▁Наступна	-11.8982
▁Важны	-11.8984
▁цывілізацыя	-11.8984
▁Дзікі	-11.8984
▁лячэнне	-11.8985
▁сцэнарыст	-11.8985
▁індзейскі	-11.8988
▁сабралі	-11.899
▁аказанн	-11.8992
▁Арк	-11.8994
▁мужчына	-11.8994
▁абяцанн	-11.8996
▁унутраным	-11.9003
▁Кен	-11.9004
▁Захава	-11.9004
▁выяўленчы	-11.9005
▁Лю	-11.9007
▁напал	-11.9011
▁Праця	-11.9015
▁бяс	-11.9015
▁Акт	-11.9016
ацыі	-11.9018
▁жыхара	-11.902
▁прыродным	-11.9021
▁апазіцыя	-11.9022
▁стандартна	-11.9022
оні	-11.9023
радок	-11.9026
▁газава	-11.9029
▁маста	-11.903
▁навіч	-11.9031
▁фашысцк	-11.9036
▁сцэнары	-11.904
▁ўрадавы	-11.904
▁ужывал	-11.9041
▁перашкодзіл	-11.9042
▁выдатн	-11.9042
▁царкоўным	-11.9042
▁арнаментам	-11.9043
▁шклян	-11.9044
▁Ала	-11.9046
▁кабінета	-11.905
▁густы	-11.9052
▁заваяван	-11.9054
кало	-11.9055
▁аўстрыйск	-11.9055
мілі	-11.9055
▁васалам	-11.9057
▁дадаткам	-11.9059
▁здзейсні	-11.906
▁Дона	-11.9062
▁Ар	-11.9067
▁320	-11.9069
▁спыненне	-11.9069
▁акцёрам	-11.9075
▁сл	-11.9075
Т	-11.908
марска	-11.9081
▁Пастанова	-11.9085
▁трамвайна	-11.9086
▁акруговы	-11.9087
▁класічным	-11.9088
▁пласцін	-11.9089
▁Пінскі	-11.9091
▁намагання	-11.9092
▁ўяві	-11.9092
▁280	-11.9097
▁Краснадарск	-11.9099
▁рэнесанс	-11.91
▁акупіравана	-11.9102
▁Васільк	-11.9105
▁Поў	-11.9107
▁сімволік	-11.9107
акушэрс	-11.9108
▁Кандрат	-11.9108
▁Максіміліян	-11.9108
▁аналітычн	-11.9108
▁вымаўля	-11.9108
▁забудавана	-11.9108
▁завочна	-11.9108
▁панядзел	-11.9108
▁сінонім	-11.9108
▁Асіры	-11.9108
▁вінаваты	-11.9108
▁Буш	-11.9109
▁пакрывае	-11.9109
▁маляванн	-11.911
▁Азербайджанска	-11.911
▁выкладанне	-11.9111
▁абвяшчае	-11.9112
▁Васільевіч	-11.9112
▁апек	-11.9113
▁Дзмітрыевіч	-11.9113
▁хацела	-11.9114
▁Лютэр	-11.9115
▁выстава	-11.9116
▁адбіла	-11.9117
▁змяшчала	-11.9117
▁акцыянерна	-11.9118
▁пераадоле	-11.9123
цю	-11.9125
▁архібіскуп	-11.9125
ябе	-11.9125
▁кантактаў	-11.9126
▁хімік	-11.9128
▁друкаваў	-11.913
▁вызначыла	-11.9131
метра	-11.9131
▁Барысаўскі	-11.9134
▁вылічэння	-11.9136
▁магістраль	-11.914
▁замкам	-11.9142
▁во	-11.9142
▁лесвіц	-11.9144
▁уцёк	-11.9145
хан	-11.9146
меч	-11.9147
▁Прыклад	-11.9151
▁скрыпк	-11.9156
▁напружанне	-11.9157
▁дадае	-11.9158
ёта	-11.9164
▁арыфметык	-11.9165
люб	-11.9165
▁працам	-11.9165
▁спалучэння	-11.9166
▁парады	-11.9166
▁слов	-11.917
пор	-11.917
▁распрацоўвае	-11.9172
▁рова	-11.9173
▁Пілсудск	-11.9173
▁Агінск	-11.9175
▁архіепіскапа	-11.9176
ліні	-11.9177
кватэр	-11.9183
▁ідэалогія	-11.9192
▁цук	-11.9196
рыс	-11.9199
▁забарона	-11.9199
▁узнікненн	-11.9201
▁арт	-11.9201
▁выдавецк	-11.9206
▁пакідаю	-11.9208
▁заключана	-11.9209
▁Каманда	-11.9212
▁каму	-11.9212
▁здавал	-11.9214
▁Ду	-11.9217
▁жывёлам	-11.9218
энтрам	-11.9223
▁тундр	-11.9223
▁падпісанне	-11.9224
▁глав	-11.9225
лічваю	-11.9226
▁віч	-11.9231
▁Рудольфа	-11.9233
▁Давыда	-11.9234
▁ланцуга	-11.9236
апскі	-11.9237
▁Гран	-11.9239
▁Адміністрацы	-11.924
▁Гімн	-11.924
▁задавальня	-11.924
▁Актыўны	-11.924
▁Архімед	-11.924
▁Познан	-11.924
▁Рэнесанс	-11.924
▁алюміні	-11.924
▁аргенцінск	-11.924
▁высыл	-11.924
▁высілк	-11.924
▁засваенн	-11.924
▁пажыццёва	-11.924
▁турбін	-11.924
▁фармальны	-11.924
▁сумежны	-11.924
▁Фелікс	-11.924
▁металічна	-11.924
▁галандц	-11.924
лізавет	-11.924
▁Традыцыйны	-11.924
▁змушаны	-11.924
▁прайграў	-11.924
▁схільнасц	-11.924
▁Ямайк	-11.924
▁туманнасц	-11.9241
▁Божы	-11.9241
▁Інтэрнацыянал	-11.9242
▁Якаб	-11.9243
▁молат	-11.9245
▁зімоўк	-11.9246
▁троцк	-11.9246
кіна	-11.9246
▁фі	-11.9247
▁праектаванн	-11.9248
ноства	-11.9249
▁атрымае	-11.9249
▁настроі	-11.925
▁слуг	-11.9253
▁упрыгожаны	-11.9255
▁звычай	-11.9258
▁беларускамоўны	-11.926
▁контур	-11.9262
▁асаблівасця	-11.9265
▁Парэ	-11.9276
▁Гену	-11.9277
антэ	-11.9277
▁штучным	-11.9277
▁легендарн	-11.928
дра	-11.9281
зіма	-11.9281
▁валокн	-11.9281
▁Галін	-11.9282
▁падзеле	-11.9285
лаўра	-11.9285
▁пераўтварэнн	-11.9286
▁паўстанцкі	-11.9286
▁разбурыл	-11.9287
▁рэктар	-11.929
▁пагадненн	-11.9293
▁гарадзішч	-11.9293
▁прыстан	-11.9294
▁Балканск	-11.9297
▁вонкавым	-11.9301
▁паўстанцам	-11.9301
▁добраахвотніка	-11.9302
▁прэзідэн	-11.9304
▁выказалі	-11.9307
▁лод	-11.931
▁нядоўг	-11.9311
▁Варонеж	-11.9313
тва	-11.9314
▁марш	-11.9314
▁Куба	-11.9314
▁мага	-11.9315
▁апаратам	-11.9316
▁абмежаванне	-11.9318
▁чакаць	-11.9319
▁прамежк	-11.932
▁выканаўцаў	-11.9325
▁аспект	-11.9326
▁распаўсюдзі	-11.9329
▁Давіда	-11.9331
▁Фам	-11.9332
▁вікінг	-11.9333
▁біржа	-11.9334
Джэр	-11.9335
▁Пачатков	-11.9336
лёт	-11.9338
▁Асамблея	-11.9339
шчын	-11.9352
біліс	-11.9353
▁супрацьлеглы	-11.9358
гіпт	-11.9359
▁сфарміравалі	-11.936
▁сіметры	-11.9366
рон	-11.9368
▁журналістам	-11.9369
▁330	-11.937
эорыя	-11.9372
▁камсамол	-11.9373
▁Пелапанес	-11.9373
▁прыметнік	-11.9373
квадор	-11.9373
▁Барадулін	-11.9373
▁Дарвін	-11.9373
▁амністы	-11.9373
▁асіміляцы	-11.9373
▁старадаўня	-11.9373
▁ўзаемаадносін	-11.9373
▁попел	-11.9373
▁Бенгалі	-11.9373
ытомір	-11.9373
▁нацыяналіста	-11.9373
▁кансерватыўна	-11.9374
▁мітраполі	-11.9374
▁каардынацы	-11.9374
▁дэкад	-11.9374
▁радыяцы	-11.9374
▁скро	-11.9377
▁змяшаны	-11.9377
▁Густава	-11.9377
▁маніфест	-11.9378
▁Севіль	-11.9379
▁асацыяцыя	-11.938
▁брамнік	-11.938
▁ідыш	-11.9381
▁рэчк	-11.9382
▁абрыс	-11.9386
▁ужыванн	-11.9387
▁касмічн	-11.9388
▁Пталамея	-11.9392
▁кот	-11.9394
▁Слонімскі	-11.9395
▁Працавал	-11.9399
▁ахвяраванн	-11.9399
▁парог	-11.94
▁уніяцка	-11.94
▁маленькім	-11.9401
▁драматурга	-11.9402
▁серабр	-11.9402
▁мацерыкова	-11.9402
▁Карон	-11.9404
она	-11.9406
▁сухот	-11.9406
▁перадавы	-11.9408
▁бірж	-11.9413
▁вытрымаў	-11.9417
▁Асаблів	-11.9418
▁Разі	-11.9418
▁прэтэндава	-11.942
▁Каралев	-11.942
▁начны	-11.9422
▁ўласціва	-11.9423
▁такс	-11.9425
ева	-11.9427
▁стадыя	-11.9428
бел	-11.9432
▁запушчан	-11.9434
ысці	-11.9434
▁вугля	-11.9434
ключы	-11.9438
▁падпольн	-11.9441
▁08	-11.9441
▁ўступа	-11.9443
▁кальца	-11.9447
▁сатырычны	-11.9447
▁пакідал	-11.9448
▁ледавіко	-11.9455
чыт	-11.9456
▁завяршэнн	-11.9458
▁Пала	-11.9458
▁прэтэндэнта	-11.9459
▁Змен	-11.9462
павярховы	-11.9463
▁шчыльны	-11.9466
▁валок	-11.9468
▁Лін	-11.9469
▁распа	-11.947
▁парт	-11.947
,6	-11.9472
▁конь	-11.9474
▁ёмістасц	-11.9474
▁Рымск	-11.9478
▁эпідэмія	-11.9487
▁рэалізаван	-11.9487
▁бача	-11.9489
▁падоўжны	-11.9489
▁філа	-11.949
аконным	-11.9492
рэжысёр	-11.9492
▁разрабава	-11.9493
анства	-11.9495
▁маршала	-11.9496
пушчаны	-11.9497
▁стрыечны	-11.9498
▁дэмакратычн	-11.9504
▁палацава	-11.9505
▁дрэвамі	-11.9505
▁тэрмадынамі	-11.9505
КА	-11.9505
▁могіл	-11.9508
▁уво	-11.9508
▁Сіротк	-11.9508
▁Трансільвані	-11.9508
▁Феадосі	-11.9508
▁бровар	-11.9508
▁вечназялёны	-11.9508
▁змянша	-11.9508
▁малдаўск	-11.9508
▁методык	-11.9508
▁мікраарганізм	-11.9508
▁паўфінал	-11.9508
▁рэзананс	-11.9508
▁трывалы	-11.9508
▁цяснін	-11.9508
▁ўстойлівы	-11.9508
▁ізатопа	-11.9508
▁Стэн	-11.9508
дынбург	-11.9509
▁мыш	-11.9509
▁сарака	-11.9509
▁падаўжэнн	-11.9509
▁ліберальна	-11.951
▁разбурэнне	-11.951
▁като	-11.951
▁кавалерыйска	-11.9511
▁футбола	-11.9511
▁Грозн	-11.9512
▁ўспрыма	-11.9516
▁валадаранн	-11.9517
▁прададзены	-11.9518
▁пахавана	-11.9519
онаў	-11.952
▁малп	-11.9522
▁скульптурны	-11.9524
▁падземн	-11.9525
▁мабілізацы	-11.9525
▁дачц	-11.9526
▁Луар	-11.9527
▁яднала	-11.9527
▁рознасц	-11.9528
джэр	-11.9529
▁эмірат	-11.953
▁фін	-11.9531
▁купалам	-11.9531
▁Лепель	-11.9533
▁актам	-11.9534
▁даручы	-11.9535
▁раздзеле	-11.9536
▁раскопка	-11.9539
▁наступленн	-11.954
▁блакітным	-11.9541
▁скан	-11.9542
▁святочны	-11.9545
▁крытыку	-11.9546
▁бліз	-11.9546
▁ўласцівасця	-11.9551
▁Судан	-11.9556
▁Сант	-11.9559
▁мяняе	-11.956
▁замкавы	-11.956
▁абвяшчэнне	-11.9563
▁фальклорны	-11.9564
▁бліскучы	-11.9566
▁яркім	-11.9566
рэчы	-11.9568
▁апазіцыйны	-11.9569
▁казацк	-11.957
▁Пярэдня	-11.9572
▁медзь	-11.9576
перац	-11.9577
▁спрэчны	-11.9579
▁максімальны	-11.958
▁Ленінскі	-11.9581
▁01	-11.9582
▁здабыт	-11.9583
▁шэра	-11.9584
казалі	-11.959
▁славуты	-11.9593
▁мангольск	-11.9595
▁афрыканск	-11.9595
▁Траецка	-11.9596
▁сімвалічна	-11.9598
значаны	-11.9598
▁гульняво	-11.9604
▁Апошнім	-11.9606
▁хімія	-11.9612
▁гадава	-11.9617
▁Прыбалтык	-11.9617
▁планам	-11.9617
▁распачал	-11.9618
▁трохвугольнік	-11.9621
▁чужы	-11.9622
Марын	-11.9623
▁перасяленца	-11.9624
02	-11.9627
▁зваро	-11.9628
рысціян	-11.9629
▁рымлянам	-11.9629
▁спадчыннікам	-11.963
▁ўзорам	-11.963
▁жаноч	-11.9631
язь	-11.9631
▁кантынен	-11.9632
▁пратэстанты	-11.9634
▁выстаў	-11.9638
НС	-11.9639
▁царкоўн	-11.9642
▁вылучыў	-11.9645
▁Аляхновіч	-11.9645
▁Аўтамабіл	-11.9645
▁Гватэмал	-11.9645
▁Дзюрэр	-11.9645
▁Ламаноса	-11.9645
▁бюлетэн	-11.9645
▁заслужан	-11.9645
▁прапаведава	-11.9645
▁уражанне	-11.9645
▁фанем	-11.9645
▁цагельн	-11.9645
▁электрамагнітны	-11.9645
▁Ляшчынск	-11.9645
▁буржуазн	-11.9645
▁Валенсі	-11.9645
▁лакальны	-11.9645
▁разабран	-11.9646
▁спіральна	-11.9646
▁засяроджан	-11.9646
▁бульвар	-11.9646
▁проці	-11.9646
▁ніжэйша	-11.9646
▁Абарон	-11.9646
▁Трайдзен	-11.9647
▁аддадзен	-11.9648
▁валун	-11.9648
▁Паселішч	-11.9649
▁сонечным	-11.9649
▁Глуск	-11.965
▁арыстакратычн	-11.965
▁акружана	-11.965
▁назапашванн	-11.9651
▁схаваны	-11.9653
▁салдатам	-11.9654
▁родавы	-11.9655
▁раненн	-11.9655
▁дасканаласц	-11.9656
▁Якаў	-11.9657
коп	-11.9658
▁Бернард	-11.9658
▁міль	-11.9659
яву	-11.9661
▁пратока	-11.9662
▁вылучыла	-11.9667
▁падарожж	-11.9667
абарон	-11.9668
▁неад	-11.9669
▁Альбо	-11.9671
▁Калумба	-11.9673
ачэрск	-11.9675
▁аблажы	-11.9675
▁падаў	-11.9678
▁вострым	-11.9679
▁выезд	-11.968
▁ледавікова	-11.968
▁падымае	-11.968
танцыя	-11.9681
▁Белорусс	-11.9683
▁яйка	-11.9686
▁светла	-11.9689
▁атакавал	-11.9689
▁жорсткім	-11.969
▁Лясн	-11.969
▁гора	-11.969
казі	-11.9691
▁падач	-11.9693
анс	-11.9694
▁фігуру	-11.9695
▁чытача	-11.9697
ўлення	-11.9697
▁аблога	-11.9697
▁Маце	-11.97
▁канцэртна	-11.97
▁Венгерска	-11.9704
▁інспектара	-11.9705
▁умоўна	-11.9706
▁Блакітны	-11.9706
▁моладзевы	-11.9708
▁ігра	-11.9709
▁сачыненн	-11.9709
▁вывяржэнн	-11.971
▁нанос	-11.9713
дай	-11.9714
▁рэспубліканск	-11.9715
▁Ліні	-11.9716
▁Тэсл	-11.9717
▁рукапіса	-11.972
▁Валянціна	-11.9723
▁Скірмунта	-11.9725
▁пераня	-11.9727
▁здабывае	-11.9727
▁мэ	-11.9736
▁памочнік	-11.9739
▁распаўсюджвал	-11.9741
▁палю	-11.9743
▁завяршэнне	-11.9748
▁Кой	-11.9751
▁Тор	-11.9753
▁скіну	-11.9754
▁Ке	-11.976
▁юрыст	-11.9761
▁падкрэслі	-11.9762
▁унук	-11.9763
▁парыжскі	-11.9764
▁Збор	-11.9766
▁Пярсцён	-11.977
уры	-11.9771
▁партнёра	-11.9773
водзі	-11.9774
▁рэчаісны	-11.9774
бій	-11.9776
▁Гальшанскі	-11.9776
▁ёмны	-11.9778
▁адлюстроўва	-11.9784
▁Ашмянск	-11.9784
рысціцел	-11.9784
▁Інакенці	-11.9784
▁Антыльскі	-11.9784
▁Закаўказз	-11.9784
▁Наўгародска	-11.9784
▁беспарадк	-11.9784
▁патэнт	-11.9784
▁прэзідыум	-11.9784
▁пажыўны	-11.9784
▁цэласнасц	-11.9784
▁хакейн	-11.9784
▁звод	-11.9784
▁Арабска	-11.9784
▁перасякаюц	-11.9784
▁рагата	-11.9784
заўс	-11.9784
▁адчувальны	-11.9785
▁рэйхстаг	-11.9785
▁дыстанцы	-11.9785
▁выяўленне	-11.9785
▁Унутрана	-11.9785
▁сардэчна	-11.9785
▁дослед	-11.9786
▁Ліван	-11.9787
далей	-11.9788
▁колам	-11.9788
▁медны	-11.9788
▁ударам	-11.9789
▁рызык	-11.979
▁адказным	-11.979
▁Нэ	-11.9792
сіфікацы	-11.9793
▁Работ	-11.9793
▁прастат	-11.9794
▁сабрана	-11.9796
▁прыродн	-11.9798
нгельс	-11.9799
▁сфарміравана	-11.9799
▁завяшчанн	-11.9799
▁румынска	-11.98
▁графств	-11.9803
▁сцябло	-11.9804
▁кода	-11.9804
▁адбор	-11.9805
▁выд	-11.9806
▁камбінацы	-11.981
▁пераадоленн	-11.981
▁сказал	-11.9815
▁ліп	-11.982
▁мужчынам	-11.982
▁знік	-11.982
▁Фрам	-11.9822
адкевіч	-11.9822
▁вызначылі	-11.9824
▁канкурэнта	-11.9824
▁Пары	-11.9825
▁апарату	-11.9827
▁мноств	-11.9829
▁ян	-11.983
▁сланц	-11.9832
▁індэкс	-11.9832
▁ляжал	-11.9832
▁плён	-11.9835
▁айчынн	-11.9836
▁клад	-11.9836
▁ўладальнікам	-11.9837
▁востр	-11.9837
▁класік	-11.9839
▁працуючы	-11.9841
▁праву	-11.9841
▁ўзмацні	-11.9843
▁дзюба	-11.9845
▁езуіцка	-11.9846
▁здымае	-11.9846
▁насі	-11.985
▁абслугоўва	-11.9851
▁перакладалі	-11.9851
▁прафесійным	-11.9855
▁адмова	-11.9856
▁неандэртальца	-11.9856
▁мядзведзя	-11.9856
▁сілку	-11.9857
артэ	-11.986
▁слабым	-11.9863
браны	-11.9865
▁характарыстыка	-11.9867
▁набыццё	-11.9869
▁Мірск	-11.9877
▁Фінск	-11.9878
кал	-11.9878
▁механіка	-11.988
годдзяў	-11.9881
▁дайшоў	-11.9882
▁адмаўляў	-11.9883
▁Гадав	-11.9884
▁вала	-11.9884
▁патрыярхат	-11.9885
▁Тро	-11.989
▁Глыбока	-11.9894
ідаў	-11.9895
▁настроя	-11.9896
▁марал	-11.9901
▁царск	-11.9902
▁Далі	-11.9903
▁вызваліў	-11.9905
▁уварва	-11.9907
▁спор	-11.9909
▁японскім	-11.9912
▁ліс	-11.9914
▁Біблія	-11.9915
▁перавод	-11.9921
▁беларускамоўн	-11.9921
▁выпускаў	-11.9921
▁надзвычайны	-11.9922
▁Дзейнічал	-11.9922
▁глядзе	-11.9923
▁аналаг	-11.9923
ўфрат	-11.9925
▁Археалагічны	-11.9925
▁Длугаш	-11.9925
▁Свіслацк	-11.9925
▁Фларыд	-11.9925
▁германц	-11.9925
▁гіганцкі	-11.9925
▁лагічна	-11.9925
▁мемуары	-11.9925
▁інтэрфейс	-11.9925
▁штурш	-11.9925
▁канадска	-11.9925
▁ўспы	-11.9925
▁Драздовіч	-11.9925
сервер	-11.9925
▁Абалон	-11.9925
ашэвіч	-11.9925
▁гнездаванн	-11.9925
▁фланг	-11.9925
▁Арсенал	-11.9926
▁птушанят	-11.9926
▁надзел	-11.9926
▁вярб	-11.9927
▁Антант	-11.9927
▁рэвіз	-11.9927
▁уласным	-11.9928
▁дэкор	-11.9928
▁персанал	-11.9928
▁тунэля	-11.9929
▁выстаўлен	-11.993
▁ўсталявал	-11.9936
▁шанц	-11.9937
▁вечны	-11.9937
▁прымусі	-11.9937
блога	-11.9938
▁коз	-11.9939
▁тайна	-11.994
▁смут	-11.994
манс	-11.9941
▁сустрэла	-11.9942
▁Украінскі	-11.9943
▁разумеюць	-11.9944
▁Святаполка	-11.9945
▁Крамл	-11.995
▁эпоха	-11.9951
▁сезонны	-11.9952
▁трое	-11.9953
▁ўпрыгожвалі	-11.9955
▁Інданезія	-11.9955
▁цен	-11.9955
▁агент	-11.9956
▁змяшчаў	-11.9956
▁ўпрыгожванн	-11.9956
▁позн	-11.9956
▁Падляска	-11.9957
святле	-11.9959
▁адзначыла	-11.9961
▁ператвара	-11.9962
джы	-11.9963
▁Ваўкавыскі	-11.9968
ронік	-11.9968
▁Аўстралійск	-11.9969
▁цары	-11.9969
▁спадчынна	-11.9972
▁Галіцы	-11.9974
▁павышан	-11.9974
▁высакародны	-11.9976
▁слава	-11.9976
▁мінімальна	-11.9983
▁Іспанска	-11.9986
▁1870-	-11.9988
▁Дзісн	-11.9989
жаль	-11.9989
▁заўважан	-11.9996
▁супрацьстая	-11.9997
асовы	-11.9997
▁расследаванн	-11.9998
▁гуманітарн	-11.9999
▁прызначыл	-12
▁агня	-12.0005
▁цяжарнасц	-12.0011
▁ваява	-12.0013
▁ш	-12.0014
▁сцэнарыя	-12.0016
▁абацтв	-12.002
▁пашкоджанн	-12.0021
▁Македонск	-12.0024
▁вільготна	-12.003
▁Серы	-12.0034
▁здзейснены	-12.0034
шло	-12.0037
▁мужчынск	-12.0037
▁кааліцыя	-12.0039
сцяне	-12.0041
▁Вольн	-12.0041
▁Заслаў	-12.0042
▁намесні	-12.0045
ыма	-12.0045
яспек	-12.0046
менш	-12.0046
▁сыравіна	-12.0048
▁ўбачыл	-12.005
▁папярэднічал	-12.0055
▁кірую	-12.0056
▁Лік	-12.0056
ярэзінск	-12.0059
▁папярэднік	-12.0062
▁мацней	-12.0067
нцыклапеды	-12.0068
сантыметр	-12.0068
▁Аэрапорт	-12.0068
▁Камбодж	-12.0068
▁Пазняк	-12.0068
▁Праблем	-12.0068
▁Рубенс	-12.0068
▁Севастопал	-12.0068
▁Фарэрскі	-12.0068
▁Фрэнсіс	-12.0068
▁альянс	-12.0068
▁астранамічна	-12.0068
▁атрыбут	-12.0068
▁вясковы	-12.0068
▁гарбат	-12.0068
▁географ	-12.0068
▁запраша	-12.0068
▁нязменным	-12.0068
▁інструкцы	-12.0068
▁друк	-12.0068
▁Турэцка	-12.0068
▁зручны	-12.0068
▁Буйніцк	-12.0068
▁Тыгр	-12.0068
▁тарфян	-12.007
▁затрыманы	-12.007
▁авіяцыйна	-12.0071
▁Сямёнавіч	-12.0071
▁высветліла	-12.0072
яўлялі	-12.0073
▁кава	-12.0073
▁адмаўля	-12.0073
▁папулярызацы	-12.0074
▁ахапіл	-12.0077
▁захопліва	-12.0078
▁плада	-12.0078
▁частат	-12.0078
▁Тышкевіча	-12.008
▁змешаны	-12.0085
▁гарачым	-12.0085
▁ліквідава	-12.0086
▁Рыб	-12.0092
▁стэ	-12.0092
▁ўзімку	-12.0094
▁зялён	-12.0097
ыльян	-12.01
▁Заканадаўча	-12.01
▁бен	-12.0105
▁грах	-12.0106
▁пляменніка	-12.0108
▁Захар	-12.0114
▁прав	-12.0117
▁пакутава	-12.0119
▁ўбачыў	-12.012
глядам	-12.0122
▁электронік	-12.0124
▁распада	-12.0125
▁Браўн	-12.0129
▁карніз	-12.0131
▁амерыканск	-12.0131
Голь	-12.0136
▁перапіск	-12.0136
▁расказвае	-12.0137
▁рай	-12.0137
▁нуля	-12.0137
саў	-12.0142
▁энергетычны	-12.0144
▁старшынства	-12.0145
▁прававо	-12.0145
▁пастаноўка	-12.0146
▁Ліён	-12.0146
апісваў	-12.0154
▁арыентава	-12.0158
▁разбіл	-12.0159
▁невядомым	-12.016
▁балгарскі	-12.0162
▁паскарэнн	-12.0165
▁зв	-12.0166
▁Галоўн	-12.0168
▁Артура	-12.017
▁дакумен	-12.0171
▁мексіканск	-12.0172
▁Лагойскі	-12.0172
▁шкляны	-12.0179
▁прыходзя	-12.0182
▁Іва	-12.0184
▁граніт	-12.0188
▁адміністратара	-12.0189
▁ўпраўленн	-12.0192
атландыя	-12.0196
▁акцыя	-12.0196
▁скляпення	-12.0198
▁стро	-12.0201
▁плава	-12.0203
▁прыгарада	-12.0205
▁сада	-12.0207
▁Самар	-12.0208
▁масав	-12.021
▁паасоб	-12.0211
▁Ізяслав	-12.0211
▁супраціў	-12.0211
▁Апалон	-12.0213
▁Магамет	-12.0213
▁Мендзялее	-12.0213
▁Рэмбрант	-12.0213
▁воклад	-12.0213
▁дынамічна	-12.0213
▁згадванн	-12.0213
▁кінафестывал	-12.0213
▁найбуйны	-12.0213
▁прасякнут	-12.0213
▁пагром	-12.0213
▁буйнейша	-12.0213
▁штраф	-12.0213
▁папярэджанн	-12.0213
▁ракавін	-12.0213
▁краёўцаў	-12.0213
▁мяшаны	-12.0213
▁нармальны	-12.0213
▁Без	-12.0214
▁пацук	-12.0214
тара	-12.0215
▁міжрэчч	-12.0215
▁цяжк	-12.0216
факта	-12.0218
▁Джонсан	-12.0222
▁льд	-12.0223
▁скарг	-12.0223
▁Курапата	-12.0224
▁магутн	-12.0226
ёлаг	-12.0226
▁Курска	-12.0229
▁Радзе	-12.023
▁спадарожнікам	-12.0234
дэль	-12.0237
▁дамов	-12.0238
▁ахова	-12.024
бю	-12.0241
▁продкам	-12.0242
▁звяза	-12.0243
▁серад	-12.0243
▁Дырэктар	-12.0244
.	-12.0246
▁эстэтык	-12.0247
▁нагрузк	-12.0247
тварыў	-12.0248
▁Надзвычайны	-12.0249
▁завяршае	-12.0253
▁юрыдычн	-12.0253
▁шукал	-12.0254
▁шведск	-12.0254
▁карэспандэнта	-12.0254
▁пячатка	-12.0259
▁атакава	-12.0261
рту	-12.0261
▁службова	-12.0263
▁баяв	-12.0266
▁Вылучаюц	-12.0267
▁ёмна	-12.0269
▁калібр	-12.0272
▁Ге	-12.0273
▁дадзен	-12.0273
▁старт	-12.0274
▁Ку	-12.0275
▁ганенн	-12.0279
▁Ленінградскі	-12.0281
рлінга	-12.0281
▁Бен	-12.0282
▁негатыўны	-12.0283
▁крытыкава	-12.0283
▁Карлас	-12.0291
▁пададзены	-12.0292
▁вызначалі	-12.0293
▁Сафія	-12.0296
▁фармаванн	-12.03
▁купц	-12.0301
▁Берлінскі	-12.0302
▁масіва	-12.0305
араў	-12.0305
▁парадны	-12.0307
▁вола	-12.0313
▁Дата	-12.0316
чкі	-12.0317
▁Прэзідыум	-12.032
▁эфектыўны	-12.032
▁экс	-12.0323
▁Пля	-12.0325
польску	-12.033
▁знакаміт	-12.0334
сэр	-12.0337
▁ветра	-12.0347
▁Тышкевіч	-12.0348
▁Аркты	-12.035
вое	-12.0351
▁РС	-12.0351
▁кантынент	-12.0352
▁Балты	-12.0356
агдэбург	-12.0356
▁пушча	-12.0356
▁Мядзел	-12.0358
▁каледжа	-12.0359
▁масіўна	-12.0359
▁Лонданск	-12.036
▁Адмірал	-12.036
▁Сакратарыят	-12.036
▁Случ	-12.036
▁Сыракомл	-12.036
▁Трыбунал	-12.036
▁Ядвіга	-12.036
▁дашкольн	-12.036
▁зацікаўленасц	-12.036
▁карупцы	-12.036
▁псіхалагічна	-12.036
▁склеп	-12.036
▁спраектава	-12.036
▁францыскан	-12.036
▁цеплын	-12.036
▁шакалад	-12.036
▁адстойва	-12.036
▁шырэй	-12.036
▁салёна	-12.036
▁вынаходніцтва	-12.036
▁Манамах	-12.036
лавесі	-12.036
▁пакрываюц	-12.0361
▁балад	-12.0361
нісе	-12.0361
▁дамоўленасц	-12.0361
ьнай	-12.0361
▁разарва	-12.0362
▁пошт	-12.0362
енцы	-12.0362
▁кален	-12.0363
▁асветнік	-12.037
▁пераўтварэнне	-12.0371
ытані	-12.0373
абраны	-12.0376
бліка	-12.0377
энца	-12.0379
▁Пачала	-12.038
▁радаво	-12.0381
▁зрух	-12.0381
▁прыходзіла	-12.0382
ленд	-12.0383
▁сядзе	-12.0383
▁адваротна	-12.0383
▁дзеянням	-12.0384
▁дакументальна	-12.0385
▁бяспе	-12.0387
▁кішк	-12.0387
▁ёзным	-12.0391
▁нараджае	-12.0394
▁Курлянды	-12.0394
МР	-12.0396
▁Ніц	-12.0404
▁забяспечыл	-12.0406
▁рамк	-12.0411
▁каш	-12.0412
▁Варонежска	-12.0413
▁вылучал	-12.0413
▁гнязду	-12.0414
▁куб	-12.0414
замен	-12.0415
штат	-12.0416
▁вызваленча	-12.0416
▁валодання	-12.0418
▁аблок	-12.0426
▁падмурка	-12.0426
▁Касі	-12.0428
▁развітым	-12.0428
▁жыва	-12.043
▁Ту	-12.0434
здольн	-12.0437
▁Смаргон	-12.0437
▁увядзенне	-12.044
▁яўрэям	-12.0443
▁імператрыца	-12.0445
▁накіроўвае	-12.0445
▁Малдова	-12.0446
нтэ	-12.045
ts	-12.0452
▁Адольфа	-12.0458
▁ўяўлення	-12.046
уль	-12.046
адзіны	-12.046
▁радавы	-12.0465
▁прыгод	-12.0468
▁Турк	-12.0473
▁залічан	-12.0476
▁прыносіл	-12.0479
▁Іардан	-12.048
▁паспрыял	-12.0481
▁Міха	-12.0487
▁абвяшчала	-12.0489
▁утварыл	-12.0491
стае	-12.0496
▁бакам	-12.0496
▁раслінн	-12.05
▁набываю	-12.05
▁гарад	-12.0501
▁сялі	-12.0505
▁пярэднім	-12.0506
▁гучанн	-12.0506
рдэнам	-12.0506
▁распаўсюд	-12.0507
▁мовазна	-12.0508
▁Маргар	-12.0509
▁мемарыял	-12.0509
ведска	-12.0509
▁паўсядзённ	-12.0509
кацярынбург	-12.0509
▁Імкну	-12.0509
▁Антверпен	-12.0509
▁Камінтэрн	-12.0509
▁Канфедэрацы	-12.0509
▁Лаўрэнці	-12.0509
▁Персідскі	-12.0509
▁дзяўчат	-12.0509
▁дрэнны	-12.0509
▁колішні	-12.0509
▁кінастуды	-12.0509
▁множанн	-12.0509
▁самавызначэнн	-12.0509
▁фантастычны	-12.0509
▁вынайш	-12.0509
▁суквецц	-12.0509
▁Бядул	-12.0509
▁вікары	-12.0509
▁дактар	-12.0509
▁Быхав	-12.0509
▁якасны	-12.0509
▁Аркадз	-12.0509
▁выкід	-12.0509
▁запазычанн	-12.0509
▁акцэнт	-12.0509
▁Новагародск	-12.051
▁стабільны	-12.051
▁дубовы	-12.051
▁варвар	-12.051
▁артэры	-12.0511
▁Ізяславіча	-12.0511
▁адваката	-12.0513
▁Пят	-12.0515
▁ўніяцка	-12.0515
▁скліка	-12.0517
▁Сара	-12.0517
▁захворванне	-12.0518
▁панэл	-12.0518
▁беднасц	-12.0519
▁тоўсты	-12.052
▁дуж	-12.052
▁пачынала	-12.0521
▁Уладар	-12.0522
даследча	-12.0522
▁чытае	-12.0525
▁арэнд	-12.0526
▁пяцігадов	-12.0527
▁Пецярбургскі	-12.0527
▁запісана	-12.0527
▁развіў	-12.0527
▁камісарыят	-12.0529
▁храмам	-12.0534
▁пляцоў	-12.0535
▁гітлераўц	-12.0537
▁ядзерн	-12.0542
▁Афрыканск	-12.0543
▁17-	-12.0544
▁Дамініка	-12.0547
▁Брагінск	-12.0548
▁рэп	-12.0549
▁нацыста	-12.0551
▁Раз	-12.0552
▁хімічным	-12.0552
▁сфармірава	-12.0552
▁фактычны	-12.0553
▁банкаўск	-12.0555
▁каф	-12.0556
біты	-12.0556
раць	-12.056
сродкам	-12.0565
▁сажалк	-12.0568
▁дык	-12.0571
▁Святасла	-12.0574
▁спецыяльн	-12.0576
▁прозвішч	-12.0577
▁аказа	-12.0579
▁металічным	-12.0583
арада	-12.0587
▁кантралява	-12.0587
вестк	-12.0588
стр	-12.0588
▁Кра	-12.059
рма	-12.0593
▁кампанентам	-12.0597
яўнасц	-12.0598
▁этапа	-12.06
▁Васілё	-12.0601
аркаўска	-12.0602
▁Зон	-12.0604
▁кост	-12.061
▁сена	-12.0612
лення	-12.0613
▁Алтай	-12.0613
▁абвясці	-12.0614
▁легіёна	-12.0615
▁Бат	-12.0617
▁статута	-12.0618
▁батанік	-12.0619
▁задавальненн	-12.0619
▁расстраля	-12.0621
▁гатэл	-12.0626
▁дэлегацыя	-12.0627
▁Вітал	-12.0628
ткі	-12.0632
▁кашталяна	-12.0634
▁Маладзечанск	-12.0635
▁каланіст	-12.0635
▁запыт	-12.0636
▁віцебск	-12.0637
▁механічн	-12.0638
▁ўзроўня	-12.0638
▁нашым	-12.0642
▁сустракалі	-12.0642
▁унутран	-12.0643
▁ператворан	-12.0645
▁сельсаве	-12.0651
▁студыя	-12.0651
▁ахвяру	-12.0657
эгі	-12.0657
▁згада	-12.0659
пяцц	-12.0659
▁Віцебшчын	-12.0661
▁Кувейт	-12.0661
▁Сувяз	-12.0661
▁Тызенгаўз	-12.0661
▁аўтамагістрал	-12.0661
▁заваёўніка	-12.0661
▁сімптом	-12.0661
▁шэдэўр	-12.0661
▁энтрапі	-12.0661
▁Астрожск	-12.0661
▁немагчымы	-12.0661
▁Узначальва	-12.0661
▁раптоўна	-12.0661
▁могільнік	-12.0661
▁увасабленне	-12.0661
▁ўезд	-12.0661
▁пасаг	-12.0661
Вестфал	-12.0661
▁разьб	-12.0661
▁абнаўленн	-12.0661
▁шапк	-12.0661
▁прынося	-12.0661
▁Наркама	-12.0661
стрэль	-12.0661
▁важнейшы	-12.0661
▁сцэнічн	-12.0662
▁баскетбольн	-12.0662
▁гарантава	-12.0662
▁Рэал	-12.0663
▁Доўга	-12.0664
▁ранейш	-12.0665
▁дастаўлен	-12.0666
▁Рудольф	-12.0669
▁хімічн	-12.0669
асновы	-12.0673
▁забараніл	-12.0674
▁падары	-12.0678
▁кансол	-12.0679
▁вырабляла	-12.068
▁падняў	-12.068
▁самастойным	-12.0681
▁ўказанн	-12.0682
▁друкавалі	-12.0683
▁герцагам	-12.0687
▁Склад	-12.0688
▁жытл	-12.0689
▁віла	-12.0689
лічаны	-12.0691
▁апсіда	-12.0691
іска	-12.0694
▁лев	-12.0705
▁прыцягнул	-12.0706
▁разнастайным	-12.0707
▁адмяні	-12.0709
▁прыстасаваны	-12.0712
▁размов	-12.0713
▁Выканаўча	-12.0718
▁шчыто	-12.0723
льня	-12.0724
▁пальц	-12.0727
▁венск	-12.0732
▁інжынерна	-12.0733
▁архіепіскап	-12.0735
умба	-12.0735
▁пашкоджання	-12.0736
▁ерам	-12.0741
▁цыбулі	-12.0742
▁дзесяц	-12.0746
робі	-12.0747
▁ваш	-12.0753
▁лён	-12.0753
▁квадратна	-12.0755
ынь	-12.0756
▁крыштал	-12.0756
▁сюжэта	-12.0763
▁аказвал	-12.0768
▁Развіцц	-12.0768
▁падзялілі	-12.0768
▁ідэалагічны	-12.0774
▁планіроўка	-12.0776
пітэр	-12.078
нок	-12.0781
еж	-12.0782
▁Раслін	-12.0787
▁карыстальнік	-12.0788
▁вырошчванне	-12.0791
[...]
