<unk>	0
<s>	0
</s>	0
<pad>	0
▁,	-3.17943
▁.	-3.23857
я	-4.02033
▁і	-4.1288
▁ў	-4.22859
й	-4.2867
х	-4.42737
▁	-4.46322
▁)	-4.49805
▁(	-4.49905
і	-4.52008
▁з	-4.52426
▁у	-4.55689
▁—	-4.61562
а	-4.68152
м	-4.69339
е	-4.7143
▁на	-4.74294
;	-4.92541
▁&	-4.95447
у	-4.96044
га	-4.97476
ы	-5.01146
-	-5.09003
▁У	-5.0911
▁«	-5.20584
▁»	-5.20624
ў	-5.30708
ць	-5.38125
▁да	-5.50834
▁па	-5.54408
quot	-5.58475
мі	-5.6677
.	-5.66872
apos	-5.7358
аў	-5.76186
▁года	-5.82701
▁ад	-5.84466
▁а	-6.01463
▁за	-6.01629
цца	-6.02182
ю	-6.0292
▁годзе	-6.03746
▁не	-6.07121
▁г	-6.09214
ам	-6.10038
лі	-6.11387
▁:	-6.13245
▁быў	-6.25738
▁што	-6.32065
▁аб	-6.33668
на	-6.37806
ла	-6.4125
ка	-6.41994
ся	-6.42695
▁З	-6.45294
▁́	-6.49038
▁яго	-6.51904
▁2	-6.52851
▁як	-6.54431
▁км	-6.56439
▁для	-6.57358
▁На	-6.59886
▁А	-6.60744
ую	-6.64507
▁пры	-6.67104
▁склад	-6.69937
▁які	-6.70929
кі	-6.71863
ны	-6.74722
▁пра	-6.78728
с	-6.78801
▁якія	-6.79613
▁вобласці	-6.7979
▁пад	-6.8213
амі	-6.82269
▁таксама	-6.82893
ўся	-6.84857
цы	-6.8616
▁с	-6.86645
▁;	-6.86804
т	-6.87359
к	-6.87662
ай	-6.90379
▁была	-6.92019
та	-6.99937
▁’	-7.00399
▁былі	-7.00693
▁раёне	-7.01847
▁Па	-7.04238
▁1	-7.07832
чы	-7.10329
▁С	-7.11439
▁ён	-7.11882
да	-7.13688
▁3	-7.14155
ецца	-7.16478
▁але	-7.1659
▁час	-7.1692
▁сельсавета	-7.17295
▁вёска	-7.19213
▁было	-7.19464
це	-7.20467
▁пасля	-7.21147
н	-7.21758
▁Да	-7.21849
▁гэта	-7.22592
най	-7.22716
за	-7.24085
▁м	-7.2487
нага	-7.25292
▁са	-7.25719
д	-7.25858
▁якая	-7.26425
▁каля	-7.27528
ры	-7.27672
ных	-7.27925
ах	-7.28083
ва	-7.29204
▁15	-7.29455
ліся	-7.3275
э	-7.3308
лася	-7.33178
▁Уваходзі	-7.33425
▁ва	-7.34371
▁больш	-7.34407
ні	-7.34456
▁Беларусі	-7.35478
ты	-7.36406
скага	-7.36853
ма	-7.37159
▁або	-7.3865
ныя	-7.39038
▁іх	-7.39288
л	-7.39672
му	-7.40189
▁вы	-7.40589
шы	-7.4081
▁дзе	-7.40825
▁16	-7.41747
▁складае	-7.41836
▁/	-7.42007
▁чалавек	-7.42068
▁яе	-7.42705
▁-	-7.43051
ку	-7.43839
▁яўляецца	-7.43976
▁4	-7.45582
ра	-7.46034
ь	-7.46538
▁М	-7.46752
▁І	-7.48171
▁толькі	-7.4863
са	-7.49119
ага	-7.49771
▁раён	-7.49792
ную	-7.50464
ш	-7.50482
ль	-7.50781
▁ст	-7.51136
▁За	-7.51524
▁Пасля	-7.51975
р	-7.52031
з	-7.52099
▁гадоў	-7.54416
▁5	-7.54516
сці	-7.54586
▁насельніцтва	-7.54941
скі	-7.55463
не	-7.57415
юць	-7.57418
ці	-7.59945
▁10	-7.60664
▁год	-7.61232
скай	-7.62451
ды	-7.63164
▁ці	-7.64104
ча	-7.64537
▁стаў	-7.65388
г	-7.66768
▁17	-7.67352
ная	-7.67566
ля	-7.68365
i	-7.69997
▁14	-7.70204
▁Гэты	-7.70517
ем	-7.72675
ле	-7.72787
▁вайны	-7.73134
▁горад	-7.74294
▁тым	-7.74446
▁12	-7.75252
▁калі	-7.75428
▁паміж	-7.76425
па	-7.77164
ным	-7.77218
▁%	-7.77243
▁6	-7.77434
оў	-7.77784
▁В	-7.78367
▁NGC	-7.78656
ня	-7.79063
▁раз	-7.7977
п	-7.79843
▁П	-7.79968
▁горада	-7.80617
▁тэрыторыі	-7.80895
сі	-7.82499
▁н	-7.83727
▁пера	-7.83953
юцца	-7.83956
ч	-7.84003
▁8	-7.84072
1	-7.84519
дзе	-7.84652
▁Пры	-7.86146
ве	-7.86668
▁Я	-7.87051
▁галактыка	-7.87313
ша	-7.87687
▁13	-7.88548
▁таго	-7.8869
зе	-7.89256
ста	-7.89862
рэ	-7.90191
▁ект	-7.90419
ві	-7.90437
▁знаходзіцца	-7.91076
▁некалькі	-7.91225
▁11	-7.93006
▁іншыя	-7.93681
▁раёна	-7.93791
б	-7.94573
дзі	-7.94671
▁7	-7.94893
▁К	-7.94932
▁адзін	-7.95636
▁рэдакцы	-7.95711
ба	-7.95835
ак	-7.9585
узор	-7.96428
▁9	-7.96917
ту	-7.9725
сць	-7.97558
▁20	-7.99174
▁мае	-7.99682
▁праз	-7.99982
▁Ка	-8.00154
▁якіх	-8.00343
▁гэтага	-8.00631
▁так	-8.00648
ц	-8.01318
гі	-8.01341
▁іншых	-8.01768
▁I	-8.02129
▁арыгінальна	-8.02544
▁складзе	-8.02983
▁каталога	-8.03542
▁месца	-8.03569
▁уваходзі	-8.04574
▁стагоддзя	-8.04833
▁гэты	-8.04898
▁пачатку	-8.05229
▁Гэта	-8.05675
▁Са	-8.06316
вы	-8.06677
▁Ма	-8.07236
▁цэнтр	-8.07308
▁лік	-8.07393
▁гг	-8.0848
▁Э	-8.08564
▁жа	-8.08786
▁над	-8.0879
ло	-8.09049
▁яны	-8.09659
▁гадах	-8.10163
▁гады	-8.10179
▁атрымаў	-8.10301
нскага	-8.10405
▁ж	-8.10967
▁гэтым	-8.11096
▁інш	-8.11141
▁якой	-8.11598
▁в	-8.11905
ца	-8.1306
▁ЗША	-8.13143
▁імя	-8.13378
▁стала	-8.1357
▁супраць	-8.13838
жо	-8.1385
s	-8.13866
се	-8.14623
ж	-8.15599
▁Б	-8.15707
бі	-8.16198
жа	-8.16875
▁беларускі	-8.17796
▁Віцебска	-8.1782
▁сваё	-8.18602
▁СССР	-8.18816
▁Рэспублікі	-8.18841
▁ка	-8.18877
▁чал	-8.19599
▁PGC	-8.20103
ру	-8.2024
▁Паводле	-8.20465
▁Насельніцтва	-8.20954
ф	-8.21143
▁некаторы	-8.21184
▁2008	-8.2144
▁IC	-8.21964
▁Беларусь	-8.22073
▁ракі	-8.22587
▁выніку	-8.22774
о	-8.23275
▁возера	-8.23931
нь	-8.23955
скую	-8.24461
▁б	-8.24848
жы	-8.25518
лы	-8.25553
▁частка	-8.25571
▁Ла	-8.26058
▁яна	-8.26158
скім	-8.27036
▁Пра	-8.27229
▁першы	-8.27599
▁каб	-8.27679
▁разам	-8.27858
▁тыпу	-8.28209
▁Расіі	-8.28417
но	-8.28687
ну	-8.28699
гу	-8.28875
▁II	-8.29259
▁яшчэ	-8.2946
▁Не	-8.29533
▁індэкс	-8.29546
ская	-8.30061
▁вядомы	-8.30521
▁C	-8.30567
▁той	-8.30706
▁э	-8.30815
▁аднак	-8.30941
▁размешчаны	-8.31183
во	-8.31386
ду	-8.31543
ння	-8.31558
▁розны	-8.31595
▁маюць	-8.31673
▁Беларуска	-8.31726
▁якога	-8.31729
▁S	-8.31749
зі	-8.31777
ву	-8.31863
▁30	-8.31883
▁мая	-8.31895
▁Ва	-8.32548
▁2009	-8.32628
▁можа	-8.32691
▁два	-8.33146
▁ліпеня	-8.33186
▁студзеня	-8.33196
▁Ён	-8.33332
▁пералічаны	-8.33848
▁Лі	-8.3431
▁Ра	-8.34945
▁двух	-8.35885
▁Плошча	-8.36284
▁Ба	-8.36514
▁тры	-8.36559
▁ліку	-8.36673
▁Мінскай	-8.36882
▁права	-8.3694
нае	-8.37114
тэ	-8.37285
▁Аднак	-8.37629
▁сям	-8.37721
дэ	-8.37785
▁25	-8.38299
▁дэ	-8.38307
▁чэрвеня	-8.38544
▁мовы	-8.38632
▁тыс	-8.38785
▁вёскі	-8.3898
▁Вы	-8.3903
▁перыяд	-8.39095
го	-8.39102
нне	-8.39133
▁падчас	-8.3918
▁Га	-8.39578
сіх	-8.39686
▁краіны	-8.40904
▁адміністрацыйна	-8.41426
▁ектаў	-8.4195
▁снежня	-8.4204
лю	-8.4224
▁гісторыі	-8.42848
▁f	-8.43039
С	-8.43042
▁свету	-8.43265
▁18	-8.43336
▁шмат	-8.43607
▁чынам	-8.43901
▁кастрычніка	-8.44044
ючы	-8.44468
▁п	-8.4452
▁Г	-8.44836
ко	-8.45458
ро	-8.45747
▁працы	-8.45946
▁адным	-8.45999
су	-8.46032
▁кар	-8.46033
▁ўсход	-8.46257
▁Аб	-8.46495
▁часу	-8.467
цкага	-8.46761
▁якасці	-8.47094
лу	-8.47241
▁верасня	-8.47682
▁агульнага	-8.47683
▁вельмі	-8.47884
▁сакавіка	-8.47899
▁2013	-8.48276
▁сярод	-8.48519
▁якое	-8.48734
▁Ар	-8.4876
▁жніўня	-8.48912
▁якім	-8.49956
фа	-8.50592
▁Польшчы	-8.51753
▁_	-8.51802
▁ўсё	-8.52249
▁паводле	-8.52435
▁працягу	-8.54167
ст	-8.54375
▁Італіі	-8.5446
▁без	-8.54665
▁частцы	-8.54995
▁адна	-8.55118
ска	-8.55305
▁19	-8.55375
нік	-8.55382
сваю	-8.55413
▁культуры	-8.5551
▁пазней	-8.55785
▁колькасць	-8.55889
▁канцы	-8.56076
нскі	-8.56341
▁нар	-8.56417
▁лістапада	-8.57099
▁Су	-8.57354
▁Новага	-8.57473
G	-8.57499
▁Калі	-8.5767
▁свайго	-8.57792
таў	-8.57924
▁ма	-8.57966
▁лічыцц	-8.58092
▁Пад	-8.58286
▁БССР	-8.58307
▁быць	-8.58414
▁Але	-8.58464
▁чым	-8.58729
▁красавіка	-8.58853
▁імперыі	-8.59154
▁кан	-8.59417
▁яўляюцца	-8.59679
▁таму	-8.59794
коў	-8.59845
▁ім	-8.6019
▁Ф	-8.60313
нымі	-8.60359
▁22	-8.60614
ormula	-8.60645
▁рас	-8.60916
y	-8.61441
▁бо	-8.6163
каў	-8.61702
▁шчыльнасць	-8.61844
ава	-8.61847
▁ра	-8.62025
▁менш	-8.62101
валі	-8.62428
то	-8.62459
▁2010	-8.62564
▁Ад	-8.62787
скіх	-8.62928
ая	-8.63065
▁павета	-8.63134
▁ба	-8.6435
фі	-8.64443
▁горадзе	-8.64469
▁можна	-8.64713
▁23	-8.64755
▁назва	-8.648
▁смерці	-8.64971
▁28	-8.65007
▁21	-8.65207
▁шэраг	-8.65345
▁Ю	-8.65379
▁працаваў	-8.65484
▁24	-8.65519
▁лютага	-8.65546
▁трох	-8.65878
▁навук	-8.66028
▁мора	-8.66286
▁жыцця	-8.66724
пі	-8.67175
сты	-8.67443
000	-8.67633
▁рэ	-8.67656
5	-8.67673
▁звычайна	-8.67673
▁нацыянальна	-8.67865
▁Даўжыня	-8.68177
ман	-8.68382
ё	-8.68717
▁найбольш	-8.68929
▁Ха	-8.6905
▁2004	-8.69074
▁яму	-8.6952
▁2014	-8.6954
▁пачаў	-8.69594
▁сябе	-8.69974
ства	-8.70087
▁Х	-8.70215
цкі	-8.70363
▁т	-8.7043
вер	-8.70474
нка	-8.70605
по	-8.70814
▁сувязі	-8.71271
▁No	-8.71456
e	-8.71503
▁лініі	-8.71558
атым	-8.71697
▁2011	-8.71962
▁Ме	-8.72294
▁Яго	-8.72383
камі	-8.72524
▁дзяржаўны	-8.72598
мен	-8.72665
▁26	-8.73026
▁захад	-8.73172
А	-8.73338
▁вядома	-8.73519
▁вобласць	-8.73755
ых	-8.73872
▁Бу	-8.74259
▁Мі	-8.74286
▁напрыклад	-8.74547
▁см	-8.7475
▁Та	-8.74797
▁2012	-8.75038
▁О	-8.75515
▁27	-8.75619
▁ды	-8.75679
▁B	-8.75685
▁значна	-8.75743
▁абазначэнні	-8.75858
▁Д	-8.75892
▁Гродзенскай	-8.75943
▁1999	-8.75969
▁адной	-8.75973
▁дзяржавы	-8.76187
тры	-8.76333
▁–	-8.76341
▁жыхароў	-8.76439
▁часта	-8.76721
▁беларускай	-8.76747
▁сусветнай	-8.76781
▁мастацтва	-8.76875
▁цяпер	-8.7688
▁часам	-8.76922
▁Спіс	-8.76965
▁Таксама	-8.76993
▁Ле	-8.77174
▁амаль	-8.77223
в	-8.77322
▁д	-8.77401
▁тысяч	-8.77916
▁то	-8.78073
и	-8.78137
▁ўваходзіл	-8.78145
▁Рэ	-8.78152
▁V	-8.78207
▁Яна	-8.78341
▁сваіх	-8.78435
ваў	-8.78576
▁XIX	-8.79083
▁пераважна	-8.79097
▁E	-8.79117
▁Германіі	-8.7916
n	-8.79639
▁P	-8.79726
▁A	-8.79799
▁сталі	-8.79833
▁плошч	-8.79958
▁2006	-8.80071
стаў	-8.80239
▁часткі	-8.80252
▁2007	-8.80462
▁Расійска	-8.80657
▁сабой	-8.80833
▁асабліва	-8.80881
▁ля	-8.80902
нні	-8.81133
зы	-8.81161
сцю	-8.81328
тра	-8.81342
нскай	-8.81615
▁Дл	-8.81785
▁спіс	-8.818
▁святы	-8.82011
М	-8.82163
▁сучасна	-8.82292
▁Ш	-8.82292
▁тут	-8.82296
▁самы	-8.8345
▁арміі	-8.83588
▁100	-8.83673
насць	-8.83861
▁нават	-8.83966
▁к	-8.84008
▁дзеяч	-8.84702
▁M	-8.8471
бы	-8.84824
▁канца	-8.85124
▁код	-8.85358
▁су	-8.85434
▁размяшчае	-8.85451
ўшы	-8.85527
▁°	-8.85613
▁1944	-8.8564
▁2016	-8.85818
▁Ры	-8.85999
▁пункта	-8.86037
▁месцы	-8.86097
o	-8.8616
▁Р	-8.86236
▁рэгіёне	-8.86277
П	-8.86574
▁жанчын	-8.86589
ян	-8.86631
кава	-8.86667
▁мове	-8.86686
▁камуна	-8.86937
Б	-8.86979
▁Ві	-8.87416
2	-8.87561
шча	-8.87595
▁+	-8.87716
▁р	-8.87762
▁ні	-8.87766
▁боку	-8.88312
бра	-8.88381
▁Гу	-8.88545
лен	-8.88693
▁размешчана	-8.88715
▁2005	-8.88783
▁50	-8.88924
▁ста	-8.8898
▁першым	-8.89101
▁ха	-8.89112
▁перад	-8.89209
▁Францыі	-8.89416
І	-8.89522
вя	-8.89628
▁ўсе	-8.89642
▁могу	-8.89693
ар	-8.90064
авых	-8.90095
▁паўночны	-8.90244
▁рака	-8.90272
▁Т	-8.90632
▁поўначы	-8.90676
скія	-8.90717
▁Мінска	-8.90737
▁сваім	-8.90749
▁партыі	-8.90854
▁відаў	-8.91024
▁2015	-8.91048
▁Ко	-8.91203
авіч	-8.9131
▁групы	-8.91368
▁паўночна	-8.91501
▁мова	-8.91621
▁Падчас	-8.91641
▁клуб	-8.91806
▁мужчын	-8.91874
▁паўднёвы	-8.91928
▁аднаго	-8.91974
ран	-8.92054
▁сельска	-8.92251
▁тое	-8.92426
▁стагоддзі	-8.92581
a	-8.92654
частку	-8.92766
▁чалавека	-8.93401
▁дадзеных	-8.93464
▁1941	-8.93562
▁Ве	-8.93633
▁Дэ	-8.93728
▁дзень	-8.93794
▁29	-8.93965
▁ёй	-8.94035
▁III	-8.9407
3	-8.94089
▁Во	-8.94142
▁збор	-8.94171
▁млн	-8.94175
▁Ша	-8.94301
▁меў	-8.94334
▁Ку	-8.94367
▁караля	-8.94396
▁MCG	-8.94421
▁40	-8.94902
▁пражывал	-8.95008
▁складала	-8.95138
▁сямейства	-8.95148
▁ер	-8.95288
▁Мар	-8.95348
дзя	-8.95516
▁ўдзел	-8.95658
ом	-8.95809
▁Займае	-8.96019
▁гонар	-8.96085
▁паўднёва	-8.96105
кай	-8.96146
тан	-8.96148
бе	-8.96167
нікі	-8.96267
▁свой	-8.9628
▁Еўропы	-8.96507
▁акругі	-8.96565
▁Брэсцка	-8.96721
▁&#93;	-8.96856
бу	-8.96998
▁Як	-8.97062
▁наступны	-8.97288
К	-8.97408
▁Украіны	-8.97695
▁Акрам	-8.97718
▁ёсць	-8.97783
тар	-8.97816
▁захадзе	-8.9788
▁F	-8.97942
▁працэс	-8.98097
чу	-8.98109
▁Заходня	-8.98116
▁&#9	-8.9829
▁асноўным	-8.9844
▁Е	-8.98521
пра	-8.98795
0	-8.9881
▁свае	-8.99075
▁Ча	-8.99199
▁сістэмы	-8.99399
ге	-8.99783
▁1-	-8.99806
▁Магілёўскай	-8.99842
▁сама	-9.00162
▁скончыў	-9.00467
нда	-9.00563
▁Паўднёва	-9.00657
▁створаны	-9.00735
чэ	-9.00865
мо	-9.00907
ця	-9.00916
кан	-9.01161
▁цела	-9.01209
▁гэтых	-9.0137
шэ	-9.01443
▁населена	-9.01454
нскім	-9.01489
▁апошні	-9.01489
▁Сі	-9.01519
до	-9.01634
▁паверхні	-9.01742
▁Кар	-9.02038
▁Ру	-9.02069
▁2-	-9.0228
▁Мінск	-9.02313
▁ваяводства	-9.02482
▁Аляксандр	-9.02583
▁беларуска	-9.0265
▁Н	-9.02684
▁роду	-9.02722
▁раслін	-9.02824
скае	-9.0297
лін	-9.02974
▁савецкі	-9.03042
u	-9.03313
шкі	-9.0333
▁першай	-9.03407
▁2000	-9.0359
▁зноў	-9.03683
▁царква	-9.03757
▁Се	-9.03807
▁Ге	-9.03882
▁сын	-9.0438
▁2017	-9.04621
▁чаго	-9.04635
▁Л	-9.04763
▁1918	-9.04886
A	-9.05038
▁руху	-9.05134
сан	-9.05165
ск	-9.05215
▁Пі	-9.0527
▁Вялікай	-9.05339
пе	-9.05639
▁асобны	-9.05718
кам	-9.06047
▁Савета	-9.06098
▁атрымала	-9.06125
▁1939	-9.06562
ен	-9.06694
▁назву	-9.06747
▁галоўным	-9.06852
гра	-9.06969
▁Мінску	-9.07313
4	-9.07922
сы	-9.07965
даў	-9.0817
▁ша	-9.08247
▁XX	-9.08415
▁0	-9.08599
▁палов	-9.08601
▁група	-9.08668
▁буйны	-9.08772
бо	-9.08967
Т	-9.09064
авыя	-9.09081
ніца	-9.09144
▁Бе	-9.09202
цэ	-9.09232
▁дзве	-9.0971
▁цэнтру	-9.09835
насці	-9.09838
▁1945	-9.09913
▁мела	-9.09922
▁Паштовы	-9.09944
▁вады	-9.09961
▁по	-9.09978
▁прыток	-9.1005
▁цэнтры	-9.10319
▁літаратуры	-9.10548
▁прызначаны	-9.10552
▁ла	-9.10563
en	-9.10899
▁Заступнікам	-9.109
дар	-9.10904
8	-9.10931
▁Тэлефонны	-9.10945
6	-9.11188
▁вяліка	-9.1126
▁пабудаваны	-9.11339
▁краін	-9.11459
цкай	-9.11517
ым	-9.11522
▁свеце	-9.11586
джа	-9.11729
▁H	-9.11907
▁ваенны	-9.12132
us	-9.12223
▁Лу	-9.12241
нкі	-9.12314
▁сістэма	-9.12567
чных	-9.12658
ова	-9.12732
▁царквы	-9.12739
▁31	-9.12782
▁цалкам	-9.12886
▁гміна	-9.12988
род	-9.13017
▁людзей	-9.13068
▁вярну	-9.13294
▁агульна	-9.13328
▁будаўніцтва	-9.1334
▁аснове	-9.13365
▁Тэ	-9.13556
він	-9.13579
l	-9.13594
▁ш	-9.1376
▁1940	-9.13822
al	-9.1398
чны	-9.14128
▁падпарадкоўвае	-9.14151
▁выглядзе	-9.14249
нія	-9.14325
ніка	-9.14374
▁перша	-9.14403
▁Сан	-9.14404
▁колькасці	-9.14464
▁Адміністрацыйны	-9.1461
зна	-9.14611
▁ня	-9.14624
▁губерні	-9.14641
▁палітычны	-9.14723
▁такі	-9.14967
▁Гомельскай	-9.15037
▁лі	-9.15148
er	-9.15216
▁XVIII	-9.15295
▁сам	-9.1558
ан	-9.15636
▁школы	-9.15673
пы	-9.15755
▁ўніверсітэта	-9.15759
▁прыкладна	-9.1583
▁генерал	-9.16
▁мелі	-9.16046
▁вялікі	-9.16131
чка	-9.16146
▁афіцыйна	-9.16305
▁пачалі	-9.16485
▁Мо	-9.1649
Д	-9.16512
▁сяло	-9.16589
▁галін	-9.16687
▁Ту	-9.16847
▁якую	-9.16906
▁арганізацыі	-9.16908
ін	-9.16975
В	-9.17091
▁раней	-9.17203
вых	-9.17216
ўна	-9.17283
▁там	-9.17446
▁дзяржаўна	-9.17682
▁Бар	-9.17932
▁нямецкі	-9.17959
шка	-9.18051
▁Скончыў	-9.18053
▁Нацыянальна	-9.18083
▁поўдні	-9.18101
кс	-9.18226
▁вуліцы	-9.18344
▁клуба	-9.18405
▁мала	-9.18445
▁шырока	-9.18552
▁перапісу	-9.1856
▁ZW	-9.18849
▁По	-9.18863
пу	-9.18914
▁станцыя	-9.18918
▁войскі	-9.18966
ванне	-9.19026
▁Пу	-9.19171
▁спіральна	-9.19202
▁цэнтрам	-9.19371
▁Аўтар	-9.1952
▁від	-9.19695
ер	-9.19721
▁Ро	-9.19775
▁1943	-9.19809
c	-9.20172
▁ролю	-9.20218
▁D	-9.20263
▁зямлі	-9.2029
сто	-9.203
▁пункт	-9.203
▁другой	-9.20312
▁Саюза	-9.20339
▁Кан	-9.20472
▁Раз	-9.20562
▁род	-9.2058
▁створана	-9.20679
▁N	-9.20695
▁будзе	-9.20874
▁Ян	-9.21011
▁сіл	-9.21112
▁заста	-9.2117
▁населены	-9.21325
▁Ні	-9.21462
▁станцыі	-9.21498
ланд	-9.21818
▁Сярод	-9.2182
▁хутка	-9.21867
▁галоўны	-9.219
7	-9.21919
▁Ло	-9.21924
r	-9.22073
▁потым	-9.221
▁новы	-9.22152
▁Гі	-9.2232
віцкага	-9.2235
чныя	-9.22359
▁Кі	-9.22488
гор	-9.22577
▁тэрмін	-9.22639
ец	-9.22816
▁навуковы	-9.22843
▁Быў	-9.22956
▁слова	-9.22982
▁Друго	-9.23019
▁дзяцей	-9.23022
▁кіравання	-9.2312
▁ступені	-9.23122
ходзіць	-9.23123
ён	-9.2322
▁2001	-9.23233
▁1919	-9.23618
▁2002	-9.23656
Г	-9.23785
▁поўдзень	-9.23832
раз	-9.23912
вання	-9.23931
▁K	-9.23954
бор	-9.23989
нава	-9.24284
авай	-9.24305
▁Вялікага	-9.24357
▁Так	-9.24451
▁плошчы	-9.24472
ar	-9.24689
нг	-9.24729
▁войска	-9.24759
▁Айчынна	-9.24765
▁будынак	-9.24828
▁ём	-9.24877
▁мм	-9.25011
▁R	-9.25326
▁удзел	-9.25351
▁Яны	-9.25395
сла	-9.25468
ана	-9.25494
▁Ц	-9.25509
▁заснаваны	-9.25513
▁1991	-9.25532
там	-9.2561
▁1920	-9.25625
▁член	-9.25683
▁Кара	-9.25727
▁i	-9.25774
▁Пе	-9.25788
▁Ман	-9.25901
пры	-9.2597
▁G	-9.26138
вод	-9.26141
▁...	-9.26144
▁войскаў	-9.26146
▁пара	-9.26147
▁сельсавет	-9.26188
▁пасаду	-9.26301
фе	-9.26338
▁метраў	-9.26489
▁добра	-9.26636
лена	-9.26843
▁цэнтральна	-9.27039
ген	-9.27147
▁Пера	-9.27348
Н	-9.2736
▁жывёл	-9.2737
▁2003	-9.27561
▁000	-9.27626
▁хоць	-9.27692
авы	-9.27696
▁склада	-9.27764
▁усе	-9.27774
льны	-9.2779
▁IV	-9.27839
le	-9.27955
лаў	-9.27979
▁жыццё	-9.28067
▁другі	-9.28093
▁чатырох	-9.2817
t	-9.28174
Л	-9.28215
▁рэк	-9.28221
▁XVI	-9.28431
кар	-9.2849
со	-9.28582
▁Еўропе	-9.28729
нэ	-9.28807
▁развіцця	-9.29032
выя	-9.29047
эр	-9.2938
▁ўніверсітэт	-9.29499
вай	-9.29508
ке	-9.29563
ой	-9.29702
чнай	-9.29866
▁1990	-9.29885
сь	-9.30042
▁Ду	-9.30044
цу	-9.30049
▁моцна	-9.30053
вой	-9.30057
нская	-9.30127
цаў	-9.30132
нікаў	-9.30321
▁знаходзяцца	-9.30361
▁?	-9.30507
▁моў	-9.30591
▁таварыства	-9.30815
▁Праз	-9.30842
▁мясцовы	-9.30856
▁руска	-9.31094
▁адміністрацыйны	-9.31112
▁дапамогай	-9.31282
▁дзён	-9.31334
выкарыстоўваецца	-9.31357
▁былы	-9.31533
▁цэнтра	-9.31544
ўка	-9.31603
9	-9.31735
ваць	-9.31765
▁1992	-9.31802
ніцы	-9.3184
▁Назв	-9.31949
▁Ды	-9.32006
▁вёсц	-9.32217
▁кожна	-9.32337
▁Знаходзі	-9.32539
▁Кры	-9.32573
рын	-9.32617
▁дзейнасці	-9.32676
▁характар	-9.32733
▁пасёлак	-9.33067
▁адкрыты	-9.33082
▁ку	-9.33095
▁новага	-9.33147
льныя	-9.33154
D	-9.33246
▁Бо	-9.33278
так	-9.33311
▁Бі	-9.33357
вала	-9.33433
▁XVII	-9.33512
▁кароль	-9.33588
льных	-9.33606
шчы	-9.33744
мер	-9.33745
▁Ан	-9.33789
▁ўрад	-9.33789
▁нарадзіў	-9.33834
▁гміны	-9.33889
▁такіх	-9.3395
▁памёр	-9.34022
▁храм	-9.34033
re	-9.3404
наў	-9.34048
▁магчыма	-9.34081
кра	-9.3412
▁Першы	-9.34122
▁Рэчы	-9.34129
роў	-9.34162
▁Бра	-9.34167
▁во	-9.34275
ной	-9.34391
▁вострава	-9.34399
стра	-9.34414
▁Найбольш	-9.34515
▁мясцова	-9.34603
▁розныя	-9.34708
▁часткай	-9.34728
▁музей	-9.34754
жэ	-9.34791
▁тра	-9.34801
▁касцёл	-9.34815
▁ю	-9.34858
раў	-9.34884
▁беразе	-9.34896
▁Пазней	-9.35067
10	-9.3517
сен	-9.35218
▁звязаны	-9.3552
▁T	-9.35599
▁востраў	-9.35709
▁Нарадзіў	-9.35721
▁нацыянальны	-9.3578
▁плошча	-9.35809
чнага	-9.35898
z	-9.36051
▁момант	-9.36081
▁1917	-9.36225
▁дзейнасць	-9.36258
ор	-9.36298
рад	-9.36347
▁та	-9.365
▁вайну	-9.36502
▁школа	-9.36541
▁кі	-9.3656
ўскага	-9.36629
▁архітэктуры	-9.36672
▁Казахстана	-9.36723
он	-9.36746
▁князя	-9.3702
▁Іван	-9.37037
▁эпох	-9.37049
алі	-9.37079
рыя	-9.37129
▁займае	-9.3715
▁статус	-9.37162
▁маці	-9.37247
▁Кра	-9.37288
тон	-9.37395
▁перш	-9.3746
нер	-9.3778
дэн	-9.3779
on	-9.37795
лан	-9.37814
рэн	-9.37932
нс	-9.3834
▁інстытут	-9.38412
тэр	-9.38597
зу	-9.38598
is	-9.38673
▁35	-9.38759
▁кра	-9.38883
льную	-9.39043
▁пе	-9.39086
▁тытул	-9.3909
▁Вер	-9.39097
▁Ста	-9.39219
пера	-9.39229
тары	-9.39239
льнай	-9.39289
▁абароны	-9.39296
▁значэнне	-9.3931
▁праца	-9.39394
▁Перша	-9.3943
f	-9.39432
▁старажытны	-9.39509
вае	-9.39693
▁формы	-9.39694
▁народна	-9.39794
лены	-9.39799
▁пу	-9.39802
▁гульні	-9.39807
▁Горад	-9.39838
▁Каля	-9.39861
йскі	-9.40025
▁самым	-9.4009
ае	-9.40109
▁ўваходзі	-9.4013
чную	-9.40254
▁французска	-9.40334
ткі	-9.4034
▁анты	-9.4035
ком	-9.40354
тка	-9.40396
▁матчы	-9.40441
▁комплекс	-9.40459
▁замежны	-9.40501
▁Го	-9.40516
нт	-9.40525
▁L	-9.40615
▁Першай	-9.40615
▁чэмпіянату	-9.40687
▁Паспалітай	-9.40692
▁выпадку	-9.4071
▁60	-9.40827
▁прыватнасц	-9.40872
▁1921	-9.40876
ленне	-9.40885
▁працу	-9.40902
ева	-9.40913
▁такім	-9.41042
▁1994	-9.41086
вар	-9.41298
▁Уладзімір	-9.41332
▁альбо	-9.41338
▁мяжы	-9.41412
▁кампаніі	-9.41438
кон	-9.41596
▁правінцыі	-9.41632
▁творы	-9.41646
▁адзінка	-9.41847
▁200	-9.42114
▁сяла	-9.42125
▁шматлікі	-9.42203
▁першага	-9.42239
▁дзяржаў	-9.42673
▁саюз	-9.42752
слаў	-9.42791
ары	-9.42815
▁асноўны	-9.43025
рон	-9.43118
▁футбаліст	-9.43119
▁закон	-9.43131
пер	-9.43249
віч	-9.43274
дзь	-9.43406
▁поўнач	-9.43414
80	-9.4357
▁Паўночнай	-9.43575
ус	-9.43689
▁назвай	-9.43693
▁кнігі	-9.4373
Ф	-9.43735
▁іншымі	-9.43737
ску	-9.43793
▁шырыня	-9.43831
▁Ля	-9.43872
▁1998	-9.43905
▁Код	-9.43928
▁напрамк	-9.43949
▁1997	-9.43999
цыю	-9.44199
вая	-9.44246
▁курс	-9.4432
b	-9.4437
▁тэрыторыя	-9.44373
▁1996	-9.44403
▁UGC	-9.44423
чын	-9.44441
▁Фа	-9.44464
сяго	-9.44625
▁Ты	-9.44678
▁ВКЛ	-9.44767
▁пла	-9.44792
тэн	-9.44795
ван	-9.4485
Р	-9.45058
▁1995	-9.45094
▁Вялікабрытаніі	-9.45187
чкі	-9.45239
▁дзякуючы	-9.45301
▁Святога	-9.45334
50	-9.45361
▁правы	-9.45428
▁доўгі	-9.45446
▁вуліца	-9.45488
▁дом	-9.45488
70	-9.4558
▁стылі	-9.45668
30	-9.45869
35	-9.45872
тара	-9.46105
▁зборн	-9.46164
▁абраны	-9.46291
▁ве	-9.46292
▁прафесар	-9.46462
▁бок	-9.46625
▁Ал	-9.46649
стэр	-9.46712
▁вытворчасці	-9.46764
▁акадэміі	-9.46862
▁княства	-9.46927
▁мову	-9.46944
▁гарадскога	-9.47083
сам	-9.47138
an	-9.47145
ваецца	-9.4727
▁рашэнне	-9.4728
▁турнір	-9.47357
▁спа	-9.47404
▁пі	-9.4745
19	-9.47501
▁Усходня	-9.47531
▁Адзін	-9.47561
аюць	-9.47626
вед	-9.4769
▁межах	-9.47776
40	-9.47886
▁чале	-9.47946
▁развіццё	-9.47952
▁сілы	-9.48158
▁мноства	-9.48216
ноў	-9.48227
▁стане	-9.48338
▁1993	-9.48385
▁імператара	-9.48457
▁Му	-9.48497
▁адкрыта	-9.48567
▁s	-9.48672
▁астравоў	-9.48698
кова	-9.48734
▁Карл	-9.49034
▁праводзі	-9.4918
▁раман	-9.49215
▁ліпені	-9.49221
цкая	-9.49319
▁Фе	-9.49322
▁вышынё	-9.49352
▁выступаў	-9.49422
оўскі	-9.49424
▁перайшоў	-9.49451
▁Тры	-9.49467
▁Чырвона	-9.49503
У	-9.49642
▁Ня	-9.49654
▁будынка	-9.49681
сцей	-9.49706
▁заснавана	-9.49854
чная	-9.49877
▁прыняў	-9.49883
▁дрэва	-9.49945
▁грамадска	-9.49955
нос	-9.49976
тава	-9.50085
▁значны	-9.50179
нд	-9.50191
ад	-9.50338
▁асоб	-9.50381
ско	-9.50457
ок	-9.50646
▁Азіі	-9.50675
▁спраў	-9.50751
бар	-9.50786
▁Некаторы	-9.50807
▁ас	-9.50897
▁стварэння	-9.50908
▁Аляксандра	-9.50958
C	-9.50963
▁музея	-9.51073
▁многіх	-9.51074
▁32	-9.51111
ёр	-9.51256
▁паўночным	-9.51268
эн	-9.51317
▁рацэ	-9.51368
▁Такім	-9.51385
d	-9.5151
12	-9.51573
▁высока	-9.51576
▁амерыканскі	-9.51585
пад	-9.51603
▁сем	-9.51754
▁вакол	-9.51783
▁Пер	-9.51791
▁тэорыі	-9.51805
▁большасць	-9.51823
▁план	-9.51838
▁актыўна	-9.51862
▁ўлады	-9.51868
▁жніўні	-9.51889
▁кіраўнік	-9.51918
k	-9.52038
▁займа	-9.52097
цін	-9.52143
44	-9.52245
лава	-9.52346
▁атрымалі	-9.52351
ючыся	-9.52502
▁прэм	-9.52528
▁між	-9.52559
▁Нью	-9.52582
▁ко	-9.52583
▁1989	-9.526
сце	-9.5262
▁назвы	-9.52624
▁камп	-9.52657
▁войскамі	-9.52664
▁студзені	-9.52757
вен	-9.52787
▁чатыры	-9.52825
▁кантракт	-9.52828
-19	-9.52902
es	-9.53089
▁Тур	-9.53163
▁Хо	-9.53173
▁тэатра	-9.53212
▁Станам	-9.53218
or	-9.53345
in	-9.53414
▁Аль	-9.53452
стры	-9.5348
▁правіла	-9.5349
45	-9.53516
▁Хі	-9.53535
▁Усе	-9.53541
овую	-9.53556
▁выйшл	-9.5368
▁жанчыны	-9.53726
авым	-9.53735
▁завод	-9.53748
▁Ке	-9.53795
P	-9.53827
бры	-9.53893
▁Нова	-9.53949
▁помнік	-9.54077
овы	-9.54138
▁3-	-9.54191
▁мэтай	-9.54271
▁улады	-9.54356
▁1924	-9.54451
▁гарадоў	-9.54507
▁інстытута	-9.54584
34	-9.54648
▁сына	-9.54661
▁трыма	-9.54758
▁сяле	-9.54802
вяз	-9.54806
▁ру	-9.54822
S	-9.54922
▁акрамя	-9.54953
ўскі	-9.54983
джы	-9.54998
▁уз	-9.55008
▁Фі	-9.55048
лё	-9.55187
лення	-9.55234
B	-9.55289
▁віды	-9.5541
m	-9.55414
нта	-9.5542
▁адносна	-9.55435
няў	-9.55445
▁цяперашні	-9.55549
20	-9.55618
▁ле	-9.55628
ch	-9.55824
▁тых	-9.55897
▁карыста	-9.55899
▁1942	-9.55982
▁знаходзілас	-9.56076
▁паход	-9.56107
▁значыць	-9.5617
▁1938	-9.56193
-1	-9.56282
▁до	-9.56291
▁партыя	-9.56292
▁бацькі	-9.56317
▁кіраўніцтвам	-9.56401
▁рух	-9.56522
▁грамадскі	-9.56583
валася	-9.56652
▁займаў	-9.56687
▁яў	-9.56701
▁сцяг	-9.5675
гон	-9.56754
▁ўсходзе	-9.56768
▁твораў	-9.56843
▁французскі	-9.56851
▁падзелена	-9.56851
лер	-9.56856
▁Карла	-9.56965
▁заходня	-9.5701
60	-9.57187
клад	-9.57232
25	-9.57234
▁Ву	-9.57325
▁часоў	-9.57348
▁гмін	-9.57463
23	-9.57495
▁народа	-9.57635
▁народны	-9.57711
▁міжнародны	-9.57746
▁прозвішча	-9.57856
33	-9.57977
▁адукацыі	-9.58055
43	-9.58067
▁фон	-9.58074
ліва	-9.58134
▁и	-9.58134
▁служб	-9.58141
нак	-9.58151
хан	-9.58204
▁То	-9.58265
90	-9.58274
37	-9.5829
стан	-9.58329
льная	-9.58422
▁Зямлі	-9.58517
▁ордэна	-9.58546
▁нямецка	-9.58584
▁Паўночна	-9.58598
▁паў	-9.58768
▁адпаведна	-9.588
▁Шы	-9.58918
▁адбыўся	-9.58955
▁замак	-9.58982
льным	-9.59
лад	-9.59131
бер	-9.59234
йскага	-9.59361
▁пачатак	-9.59446
▁ЦК	-9.59498
вую	-9.59499
15	-9.59566
▁Рас	-9.59638
кры	-9.59656
▁палац	-9.59842
▁Бел	-9.59858
▁КАТА	-9.59861
▁замка	-9.59968
▁ар	-9.60023
авая	-9.60056
мар	-9.60116
сп	-9.6019
▁гарадскі	-9.60213
▁Размешчаны	-9.60299
▁прадстаўнікоў	-9.60318
▁разгляда	-9.60482
▁каманды	-9.60493
▁драўляны	-9.60503
▁стст	-9.60503
▁назіра	-9.60531
▁ўз	-9.60629
▁кры	-9.60684
▁адбылося	-9.60776
02	-9.60796
▁пакінуў	-9.60842
▁Вярхоўнага	-9.60861
▁сіла	-9.60916
▁ска	-9.60946
▁выніка	-9.60956
39	-9.6096
ваюць	-9.61006
▁паўднёвым	-9.61019
тоў	-9.61061
▁гор	-9.61104
рава	-9.61118
гна	-9.61132
▁Беларускі	-9.61138
▁кара	-9.61162
вым	-9.61276
▁тады	-9.61326
▁хто	-9.61441
56	-9.61532
▁бы	-9.61775
трыма	-9.61794
22	-9.61848
E	-9.62033
рас	-9.62134
▁Свята	-9.62145
оўскага	-9.62409
06	-9.62435
el	-9.62525
▁краінах	-9.62583
▁адбылася	-9.62633
▁барацьб	-9.62651
14	-9.62654
▁2018	-9.62667
▁70	-9.62722
▁1930	-9.62769
▁адносі	-9.6282
кер	-9.6286
▁бу	-9.62956
▁правёў	-9.6301
аваў	-9.63028
▁ССР	-9.6322
▁Хар	-9.63223
▁мар	-9.63264
▁сярэдзіне	-9.63285
▁няма	-9.63434
▁краіне	-9.63484
11	-9.63528
▁сабе	-9.63599
дава	-9.63649
▁паэт	-9.63663
13	-9.63744
36	-9.63853
▁прэміі	-9.63877
▁мы	-9.6392
кара	-9.63924
▁O	-9.63924
41	-9.63972
▁імператар	-9.6398
▁многія	-9.64029
18	-9.64043
▁лютым	-9.64121
цкім	-9.64145
▁Бела	-9.64163
▁аўтар	-9.64204
▁Тым	-9.64258
ксі	-9.6432
▁знаходзіў	-9.64447
▁паселішча	-9.64449
▁Англіі	-9.64604
нам	-9.64649
▁Вялікі	-9.64695
▁плане	-9.64712
▁Член	-9.64722
▁жыў	-9.64788
▁Ці	-9.64875
▁фа	-9.6493
▁храма	-9.64949
валіся	-9.64987
▁становішча	-9.65022
дра	-9.65028
▁пабудавана	-9.65029
сця	-9.65031
▁паходжання	-9.65057
тым	-9.65064
▁кошт	-9.65363
▁форма	-9.65402
сна	-9.65434
▁польскі	-9.65624
▁бітв	-9.65646
▁этап	-9.65656
▁другім	-9.65689
38	-9.65689
▁1946	-9.65696
▁практычна	-9.65755
▁Мікалай	-9.65764
▁Но	-9.65788
▁конкурс	-9.65832
17	-9.65889
рус	-9.65913
▁прынята	-9.65915
▁чаргу	-9.65973
46	-9.65997
▁свет	-9.66041
лас	-9.66115
нцы	-9.66167
ur	-9.66228
▁армія	-9.66244
▁мастак	-9.66258
▁старажытна	-9.66274
ём	-9.66286
▁адначасова	-9.66299
▁Тра	-9.66438
▁сельскагаспадар	-9.66494
▁усё	-9.66519
▁До	-9.66525
▁тэ	-9.6653
▁мас	-9.66573
42	-9.66656
um	-9.66676
▁штат	-9.66686
▁Швецыі	-9.66686
сходзе	-9.66739
▁найбуйнейшы	-9.66764
▁Лю	-9.66769
▁1959	-9.66782
▁думк	-9.66786
▁сталіца	-9.66803
▁ўрада	-9.67033
I	-9.67063
24	-9.67155
▁чалавекі	-9.67203
лом	-9.67209
▁Савецка	-9.67234
▁шлюб	-9.67414
▁сацыяльна	-9.6742
▁ідэ	-9.67512
вага	-9.67534
▁чар	-9.67547
▁бая	-9.67548
чным	-9.67611
▁Ак	-9.67658
▁сезоне	-9.67705
▁стары	-9.67862
▁снежні	-9.67866
▁парк	-9.67879
▁членам	-9.67941
▁1960	-9.67953
▁песні	-9.67982
▁проста	-9.68088
▁ц	-9.6813
▁навукова	-9.6815
▁ап	-9.68254
рскі	-9.6828
▁спачатку	-9.68301
▁со	-9.68325
g	-9.68329
раб	-9.6833
▁Марк	-9.68332
▁існуе	-9.68379
58	-9.68413
▁звязана	-9.68419
чэнне	-9.68552
47	-9.6856
рам	-9.68563
T	-9.68567
▁Ч	-9.68684
▁W	-9.68699
M	-9.68705
▁вяскова	-9.68736
▁прэзідэнта	-9.68777
▁кніг	-9.68781
кла	-9.68787
▁прэзідэнт	-9.68823
▁само	-9.68843
et	-9.68859
чай	-9.68861
▁расійскі	-9.68883
▁зрабіў	-9.69061
▁першыя	-9.69061
▁45	-9.69189
▁гар	-9.69202
▁Працава	-9.69218
▁востраве	-9.69229
▁колеру	-9.69274
льнага	-9.69276
▁шлях	-9.6932
▁чыгуначн	-9.6934
▁Іспаніі	-9.69387
ic	-9.69501
▁радыё	-9.69508
▁паўстання	-9.69521
▁міжнародна	-9.69536
▁Бер	-9.69705
▁часткова	-9.69777
▁вучылішча	-9.69819
▁Со	-9.69844
лей	-9.69929
▁папярэдні	-9.69937
▁павінна	-9.69954
▁прац	-9.69964
▁Літвы	-9.70028
52	-9.70132
▁гаспадаркі	-9.70162
весь	-9.70177
▁еўрапейскі	-9.70184
▁Гар	-9.70203
▁1954	-9.70239
▁пісьменнік	-9.70332
маглі	-9.70409
▁другога	-9.70424
▁прамысловасці	-9.70445
▁камітэта	-9.70469
▁Чэ	-9.70472
▁гістарычна	-9.7053
▁стан	-9.7053
▁загад	-9.70606
▁наш	-9.70633
тэры	-9.70675
▁500	-9.70713
05	-9.70765
▁перыяду	-9.7081
▁ўсім	-9.70811
03	-9.70884
▁дынастыі	-9.70893
рыс	-9.70908
▁сакавіку	-9.7093
ia	-9.70953
▁разоў	-9.70958
дры	-9.71036
йскай	-9.71084
евіч	-9.71092
32	-9.71128
▁галоўна	-9.71135
▁Маскве	-9.71196
85	-9.71221
▁неўзабав	-9.71237
тыўна	-9.71338
паў	-9.7142
шу	-9.71425
at	-9.71432
дэр	-9.71433
ўшыся	-9.71475
▁універсітэце	-9.71515
▁змен	-9.71516
▁80	-9.71529
▁1970	-9.71532
▁Гра	-9.716
▁названы	-9.71609
▁менавіта	-9.7165
▁вайне	-9.71655
ступ	-9.7168
ннем	-9.717
16	-9.71784
▁Бал	-9.71791
53	-9.71798
▁воласці	-9.71819
▁цяжка	-9.71861
авана	-9.71982
▁Згодна	-9.72016
▁1937	-9.72038
▁большасц	-9.72048
▁князь	-9.72057
▁мастацка	-9.72082
Э	-9.7209
тыка	-9.72095
▁Японіі	-9.72098
▁школу	-9.72137
лоў	-9.72193
овіч	-9.72216
▁герб	-9.72461
▁фонд	-9.72482
эль	-9.72504
▁Жы	-9.7251
▁Маці	-9.72511
64	-9.72595
▁бацька	-9.72613
48	-9.72773
▁Сядзіба	-9.72801
▁1988	-9.72985
ас	-9.73009
▁значэння	-9.73052
каз	-9.73128
▁пяці	-9.73179
▁ф	-9.73221
▁Мак	-9.73228
▁Шу	-9.73307
59	-9.73367
▁Чар	-9.7341
▁рэвалюцыі	-9.73486
▁гра	-9.73492
L	-9.73505
▁шы	-9.73539
▁кніга	-9.73572
▁распаўсюджаны	-9.73593
▁прынцып	-9.73626
▁магчымасць	-9.73642
▁Тут	-9.73708
▁Віленска	-9.73725
▁Марыя	-9.73747
55	-9.7385
дж	-9.73869
▁дні	-9.73953
дыя	-9.73978
▁распа	-9.73978
▁вышыні	-9.74096
▁чэрвені	-9.74222
▁землі	-9.74243
▁астатні	-9.74306
мана	-9.74347
▁1956	-9.74412
нню	-9.74495
чаны	-9.74529
▁праект	-9.7453
▁штата	-9.74552
▁бал	-9.74556
▁марскі	-9.74646
▁Мала	-9.7467
▁IRAS	-9.74685
▁1980	-9.74819
▁ўсяго	-9.74905
ta	-9.74999
▁1926	-9.75
▁Цэнтр	-9.75044
▁Стра	-9.75076
▁верасні	-9.75109
▁1975	-9.75128
▁адмові	-9.75156
▁1962	-9.75171
▁АН	-9.75189
▁расійска	-9.75283
61	-9.75294
na	-9.75305
▁даволі	-9.75326
h	-9.75482
▁езд	-9.75517
зер	-9.75542
▁прычыны	-9.75546
▁эканамічна	-9.75597
ход	-9.75611
▁ча	-9.75652
ляў	-9.7566
▁падобны	-9.75692
▁ваенна	-9.75706
▁вялікага	-9.75725
▁шматлікія	-9.75748
62	-9.75909
▁апошня	-9.75978
▁Чы	-9.75991
▁белы	-9.75999
ган	-9.76016
ню	-9.76027
▁новых	-9.76052
нюю	-9.76193
R	-9.76238
▁школе	-9.76299
▁1922	-9.76327
▁Нягледзя	-9.76344
▁Новы	-9.76367
чна	-9.76384
▁адбываецца	-9.76434
▁выгляд	-9.76459
▁жыхары	-9.76483
ацыі	-9.7652
▁поспех	-9.76524
54	-9.76558
▁Дзя	-9.76576
▁пэўны	-9.76699
▁факультэт	-9.76801
вічы	-9.76817
▁150	-9.76829
▁народаў	-9.76836
28	-9.76846
▁36	-9.76869
▁палі	-9.76889
▁намеснік	-9.76894
p	-9.76956
▁1986	-9.77013
▁новай	-9.77017
▁мастацтваў	-9.77028
▁верхня	-9.77051
▁каралеўства	-9.77122
віцкі	-9.77177
▁адрозненне	-9.77255
▁X	-9.77304
▁Дзе	-9.7731
▁астравы	-9.77362
▁Шэ	-9.77415
▁ўпершын	-9.77471
▁c	-9.77492
▁пачынае	-9.77539
▁выйшаў	-9.77581
▁кожны	-9.77601
49	-9.77609
▁новыя	-9.77653
31	-9.7767
▁1967	-9.77708
▁дзя	-9.77846
▁грамадства	-9.77859
▁Санкт	-9.7787
▁заняў	-9.77956
аб	-9.77967
▁мужчыны	-9.7805
▁Сам	-9.78109
ках	-9.78146
▁званне	-9.78165
ваўся	-9.78174
08	-9.78186
▁300	-9.78224
▁ўплыў	-9.78292
▁пер	-9.78293
04	-9.78368
▁суд	-9.78449
75	-9.78489
тэра	-9.78498
▁Мінскі	-9.78498
▁VI	-9.78527
лет	-9.78542
▁лінія	-9.78552
07	-9.78577
жу	-9.78621
▁Дынаміка	-9.78652
шта	-9.78712
▁Сусветна	-9.78761
▁Рэспубліка	-9.7898
▁гурт	-9.78994
нін	-9.7901
ол	-9.7905
▁вымушаны	-9.79093
▁вялікім	-9.7919
▁справа	-9.79304
▁яўляў	-9.79364
▁л	-9.79365
▁ліча	-9.79378
▁дзяржава	-9.79403
▁каралём	-9.79447
▁турніру	-9.79482
тур	-9.79505
th	-9.7953
ацыя	-9.79544
яр	-9.79565
▁павінны	-9.79582
▁тэмпература	-9.79642
дзін	-9.79648
00	-9.79722
▁захоўва	-9.79861
▁гісторы	-9.79925
66	-9.79972
▁1957	-9.8
лем	-9.8001
▁мог	-9.80032
▁польскай	-9.80051
ліна	-9.80072
▁сезон	-9.80128
зо	-9.80162
▁кірунк	-9.80249
65	-9.80266
▁прадстаўлены	-9.80384
▁1914	-9.80406
29	-9.80451
▁мо	-9.8056
▁1929	-9.80581
▁1965	-9.80582
21	-9.8071
ra	-9.8075
▁шляхам	-9.80822
▁суб	-9.8084
▁вышэйша	-9.80856
ing	-9.80878
▁вялікая	-9.8089
57	-9.80898
прыклад	-9.80939
льскі	-9.81054
кін	-9.81062
▁кароткі	-9.81104
цкіх	-9.81112
▁поўна	-9.81125
нды	-9.81162
чых	-9.81194
▁англійскі	-9.81287
67	-9.81297
▁Разам	-9.81352
лак	-9.81356
Х	-9.81405
▁пачала	-9.81483
▁правінцыя	-9.81578
▁арганізацыя	-9.81589
▁Галі	-9.81598
▁Алімпійскі	-9.81599
▁1979	-9.81618
▁чэмпіянат	-9.81618
▁брат	-9.81628
трымліва	-9.81642
лон	-9.81676
▁33	-9.81692
▁рэгіёна	-9.81739
86	-9.81838
▁1974	-9.81844
▁мана	-9.81858
▁аддзела	-9.81863
▁полі	-9.81868
▁The	-9.81923
▁праваслаўны	-9.81954
88	-9.81982
буд	-9.82023
79	-9.82035
▁сезону	-9.82037
шоў	-9.82062
▁фронту	-9.8208
te	-9.82081
крэ	-9.82112
▁Міністэрства	-9.82123
▁першапачаткова	-9.82143
▁акцёр	-9.82144
ходзяць	-9.82257
▁маі	-9.82343
▁1950	-9.82363
▁Ган	-9.82369
ала	-9.82372
26	-9.82401
▁вучы	-9.82404
цэн	-9.82419
27	-9.82462
піс	-9.8247
▁Грэ	-9.82483
▁адно	-9.82553
▁Народна	-9.82568
цамі	-9.82583
la	-9.82712
▁1972	-9.82801
▁явілас	-9.82851
▁вялік	-9.82854
▁1966	-9.82941
▁заканчэння	-9.83013
68	-9.83019
-2	-9.83022
▁1958	-9.83035
▁эканамічны	-9.83052
▁называюць	-9.831
▁Пан	-9.83113
▁сродка	-9.83267
▁1927	-9.83309
▁галоўнага	-9.83338
▁явіліс	-9.83365
▁1923	-9.83498
оры	-9.83563
▁42	-9.8357
▁Дом	-9.8364
▁сін	-9.83654
▁Мары	-9.83683
▁тэрыторыю	-9.83704
▁1976	-9.83723
▁XV	-9.83747
▁забіты	-9.8382
аўскага	-9.83846
чана	-9.83881
▁1978	-9.83954
ходзе	-9.83965
эй	-9.83972
▁камандаванне	-9.83982
▁стварэнне	-9.8399
▁членаў	-9.83999
льнік	-9.84031
▁адказ	-9.84064
▁1968	-9.84141
▁кафедры	-9.84196
рак	-9.8427
76	-9.84278
лёт	-9.8431
09	-9.84351
▁даўжын	-9.84368
▁звыш	-9.84387
▁37	-9.84502
хо	-9.84506
пар	-9.84605
▁1931	-9.84608
▁вадазбор	-9.84681
▁сабор	-9.84703
95	-9.84814
нец	-9.84852
▁земля	-9.849
▁Вільні	-9.84952
▁падпісаў	-9.84965
▁1971	-9.84981
it	-9.84985
овыя	-9.85046
▁адзіна	-9.85117
▁груп	-9.85132
▁вайна	-9.85135
▁вежа	-9.85137
▁кастрычніку	-9.85143
пла	-9.85168
O	-9.85234
▁U	-9.85271
82	-9.85298
▁4-	-9.85322
83	-9.85335
▁аддзялення	-9.85337
▁ін	-9.85367
▁вышэй	-9.85464
▁дзяржаўнай	-9.85493
▁дагавор	-9.85526
71	-9.85558
▁Джа	-9.85714
▁34	-9.85719
▁месяц	-9.85778
▁1987	-9.8578
▁1985	-9.85784
▁паветра	-9.8584
74	-9.85894
▁тып	-9.85951
▁гарады	-9.85958
▁старшыня	-9.85977
▁тэатр	-9.86007
сія	-9.86065
▁дапамог	-9.8608
▁1934	-9.86118
▁упершын	-9.86125
▁1948	-9.86161
▁спадчыны	-9.86169
▁1925	-9.86213
▁Гер	-9.86247
▁1964	-9.86257
▁XIV	-9.86332
▁Раман	-9.86355
99	-9.86455
▁згодна	-9.86474
твор	-9.86499
▁ордэнам	-9.86534
▁Св	-9.8658
▁Агульна	-9.8662
▁форму	-9.86631
▁сталіцы	-9.86729
▁Тар	-9.86731
▁1963	-9.86775
▁адпаведнасц	-9.8682
▁чыгункі	-9.86826
▁знойдзены	-9.86901
▁1961	-9.86922
▁пераклад	-9.86939
▁1947	-9.86972
▁салдат	-9.87043
▁электра	-9.87063
нцаў	-9.87074
рд	-9.87085
олаг	-9.87132
▁берага	-9.872
▁склаў	-9.87229
дан	-9.87243
▁сур	-9.87255
▁Княства	-9.87261
лівы	-9.87263
▁клас	-9.87291
▁газеты	-9.87348
▁форме	-9.87348
▁1949	-9.87353
▁гл	-9.87459
▁невяліка	-9.87464
▁зорка	-9.875
▁сучасных	-9.87502
▁1969	-9.87543
▁Першапачаткова	-9.8762
аль	-9.87766
▁Міхаіл	-9.8787
▁ты	-9.87894
▁вобраз	-9.87957
▁ваеннай	-9.87972
▁про	-9.87979
▁гадзін	-9.87981
▁рымска	-9.88061
▁спроб	-9.88063
▁38	-9.88088
шын	-9.88216
▁басейн	-9.88232
▁пяць	-9.88238
▁значэнні	-9.88248
▁дробны	-9.88254
▁акіяна	-9.88276
▁культурна	-9.88307
▁прафесійны	-9.88324
▁павінен	-9.88344
▁верагодна	-9.88445
▁Індыі	-9.88447
▁1935	-9.88471
▁55	-9.88504
▁наступ	-9.88523
▁бі	-9.88532
▁рэлігійны	-9.88536
▁навукі	-9.88597
▁людзі	-9.8866
▁падзей	-9.88714
▁адносіны	-9.88719
▁Галоўны	-9.88751
97	-9.88769
▁1981	-9.88797
▁1982	-9.8885
▁інтэр	-9.88867
▁тыя	-9.8891
▁Алі	-9.88914
▁часопіса	-9.88921
зія	-9.88963
▁стара	-9.88964
▁Амерыкі	-9.89025
▁рэгіён	-9.89065
▁рэспублікі	-9.89071
гадовы	-9.89075
▁пазіцыі	-9.89078
ri	-9.89089
▁бібліятэка	-9.89095
98	-9.8921
73	-9.89237
▁перайшл	-9.89338
▁прыняты	-9.8934
▁канал	-9.89394
▁замест	-9.89515
▁перадач	-9.89517
нар	-9.89521
▁1984	-9.89582
▁існавала	-9.89602
праў	-9.89716
▁традыцыйна	-9.89743
69	-9.89744
▁Акадэміі	-9.89748
роб	-9.89832
▁43	-9.89852
арэ	-9.89923
оўка	-9.89953
сту	-9.89985
▁гісторыка	-9.90042
лам	-9.90069
▁палітычна	-9.90122
87	-9.90139
▁яднання	-9.90197
▁1977	-9.90222
віта	-9.90231
N	-9.90237
-20	-9.90248
льскага	-9.90257
▁камун	-9.90269
шыню	-9.90316
адразу	-9.90325
▁1915	-9.90329
▁Адміністрацыйна	-9.90401
▁праекта	-9.90404
раж	-9.90505
▁культурны	-9.90513
▁Цэнтральна	-9.90522
▁тако	-9.90674
▁варыянт	-9.90675
▁красавіку	-9.90677
▁выкарыстоўва	-9.90725
▁1,5	-9.90752
нняў	-9.90756
▁кампанія	-9.90858
▁праходзі	-9.90867
▁ры	-9.90894
▁Джон	-9.90895
ўля	-9.90914
am	-9.90924
▁прыклад	-9.90934
▁працуе	-9.91069
▁фактычна	-9.91111
▁ду	-9.91125
▁сп	-9.91128
▁літаратурна	-9.91147
▁Літоўскага	-9.91172
▁вярнуў	-9.91201
рок	-9.9122
ара	-9.91231
небудзь	-9.91245
89	-9.91256
гар	-9.91291
▁края	-9.91312
▁басейне	-9.91322
ed	-9.9133
▁лёгка	-9.91395
77	-9.91447
▁мэта	-9.91464
▁XIII	-9.91502
нскіх	-9.91613
ктар	-9.91652
▁выпадка	-9.9167
ера	-9.91707
72	-9.91735
▁1973	-9.91765
▁Паўла	-9.91767
▁кіраваў	-9.91795
фор	-9.91887
▁сэнс	-9.91893
▁Большасць	-9.91911
▁выдання	-9.9192
▁Сама	-9.9193
▁Ары	-9.91933
▁канчаткова	-9.91946
след	-9.92016
▁куп	-9.92052
▁Дзяржаўна	-9.92068
▁орган	-9.92088
▁праціўніка	-9.92092
▁цыкл	-9.92094
нтэ	-9.92101
▁Вялікая	-9.92102
▁Марыі	-9.92153
▁гара	-9.92198
бін	-9.92304
▁Ця	-9.92343
▁належыць	-9.92349
аваны	-9.9235
▁буд	-9.92358
78	-9.92364
▁63	-9.9242
▁пасёлка	-9.92426
▁Упер	-9.92467
падае	-9.92478
цю	-9.92512
▁народ	-9.92589
▁ўнутраны	-9.92604
▁знак	-9.9262
▁1936	-9.92627
▁маса	-9.92697
іна	-9.92699
аба	-9.92734
▁факт	-9.92769
▁музыкі	-9.92842
зн	-9.92853
▁іншага	-9.92854
▁павет	-9.92874
роз	-9.92888
▁характэрны	-9.92956
▁даследаванняў	-9.93035
84	-9.93158
▁Назва	-9.93167
▁Ас	-9.93177
▁праваслаўна	-9.93214
▁парадку	-9.9324
▁называ	-9.93311
▁Кор	-9.93334
▁даўжынё	-9.93418
▁паступова	-9.93465
▁Асноўныя	-9.93503
▁раздзел	-9.93525
гер	-9.93546
▁крыніца	-9.93548
▁Іванавіч	-9.93589
▁сярэдзіны	-9.9375
▁знаходзіліс	-9.93839
▁Пар	-9.93887
▁1932	-9.93898
▁вялікія	-9.93976
ром	-9.94036
▁называе	-9.94109
▁афіцыйны	-9.94153
▁брытанскі	-9.94181
▁пасады	-9.94206
▁расліны	-9.94222
выкарыстоўваюцца	-9.94291
▁вялікіх	-9.94303
▁вул	-9.94307
▁стварыў	-9.94338
зэ	-9.94353
▁змены	-9.94389
▁дазваляе	-9.94438
▁малады	-9.94448
93	-9.94539
▁агульны	-9.94569
▁прызна	-9.94576
лес	-9.94581
▁адзіны	-9.94616
▁выява	-9.9462
▁фільм	-9.94629
▁залежнасці	-9.94651
▁абраз	-9.94657
▁нова	-9.94682
дон	-9.94728
цоў	-9.94739
лка	-9.94747
цця	-9.94779
▁расліна	-9.94801
▁нямецкай	-9.94807
▁стра	-9.94831
ol	-9.94866
▁класа	-9.94978
st	-9.94981
пачатку	-9.95012
▁фронт	-9.95079
▁жыцці	-9.95099
▁пакольк	-9.95137
▁метад	-9.95161
рма	-9.9517
чык	-9.95187
▁становіцца	-9.95214
▁of	-9.95233
as	-9.95236
нё	-9.95277
руч	-9.9536
▁альбом	-9.9537
лева	-9.95449
▁прадстаўнік	-9.95548
▁кіламетра	-9.95573
▁мір	-9.95577
цкую	-9.95622
▁выбарах	-9.95639
▁горны	-9.95653
▁39	-9.95658
ора	-9.95659
▁Заснаваны	-9.95682
▁Першыя	-9.95688
▁манастыр	-9.95691
она	-9.9573
ни	-9.95747
▁вучоны	-9.95787
грагарадок	-9.95788
▁творчасці	-9.95804
вія	-9.95805
▁рыб	-9.95837
63	-9.95864
▁1928	-9.95914
▁азначае	-9.95936
каўскага	-9.95937
ўны	-9.95953
тны	-9.95957
мба	-9.95964
▁колер	-9.95971
лян	-9.95977
▁Саюз	-9.96209
▁выда	-9.96255
▁напісаў	-9.96266
▁бар	-9.96313
▁баявы	-9.96331
▁актыўны	-9.96349
▁ніжэй	-9.96372
▁ўяўляе	-9.96417
▁пастаянна	-9.96433
ваюцца	-9.96461
▁асноўна	-9.96534
▁найбольшая	-9.96542
▁Кур	-9.96569
▁мястэчка	-9.96605
▁Пётр	-9.96626
▁глыбін	-9.96629
▁высокі	-9.9663
▁незалежнасці	-9.96656
▁Пап	-9.96693
▁Хе	-9.96782
▁ло	-9.96793
▁доўга	-9.9681
Ка	-9.96837
94	-9.96847
▁сярэдняя	-9.96853
чак	-9.96883
▁версіі	-9.96887
▁ген	-9.96982
рэй	-9.97036
▁прысвечаны	-9.97084
▁чыта	-9.97107
▁Сонца	-9.97131
▁грамадзянска	-9.97142
авага	-9.97188
▁1983	-9.97228
цам	-9.97271
▁дня	-9.97287
цыйны	-9.97319
▁каманда	-9.97319
вары	-9.97388
▁48	-9.97449
торы	-9.97474
▁польска	-9.97507
96	-9.97518
▁Размешчана	-9.97578
▁Стары	-9.97579
il	-9.9763
▁звычайны	-9.97635
▁сад	-9.97665
▁спорту	-9.97729
▁дзеянні	-9.97741
▁сялян	-9.9777
▁ўсходня	-9.97789
▁абвясціў	-9.97791
альны	-9.97823
▁сімвал	-9.97858
тай	-9.97907
▁дзеянняў	-9.97915
▁90	-9.97938
▁вер	-9.98009
тыя	-9.9803
▁рамка	-9.98046
▁заўсёды	-9.98072
▁асобна	-9.9811
▁Сярэдні	-9.98137
ат	-9.98141
чына	-9.98191
ul	-9.98198
51	-9.98223
сель	-9.98307
стро	-9.98327
▁XII	-9.98431
▁1955	-9.98457
раджа	-9.98479
▁Кап	-9.98519
▁го	-9.98577
92	-9.98578
важ	-9.98595
▁1933	-9.98675
блі	-9.98709
▁прадстаўнікі	-9.98797
йскім	-9.98889
▁Цы	-9.99004
▁лістападзе	-9.99035
▁побач	-9.99077
▁праходзіў	-9.99145
▁аперацыі	-9.99162
лік	-9.99177
▁яно	-9.99185
▁даследаванні	-9.99244
▁незалежнасць	-9.9926
доў	-9.99274
▁малы	-9.99287
▁Кам	-9.99302
▁прадпрыемства	-9.99303
кса	-9.99351
▁дывізіі	-9.99392
▁Венгрыі	-9.99529
▁чэмпіяна	-9.99533
▁бра	-9.99546
віна	-9.99551
▁пас	-9.99628
міна	-9.99667
▁наступным	-9.99669
▁Пятра	-9.99731
цтва	-9.99779
▁непасрэдна	-9.99781
сана	-9.99814
▁Ін	-9.99825
▁Пла	-9.99825
▁функцыі	-9.99835
рна	-9.9986
▁цар	-9.99863
▁серыі	-9.99896
▁сумесна	-10
▁ствара	-10.0002
▁двароў	-10.001
▁пачалос	-10.0018
▁захаваліся	-10.0019
▁Нар	-10.0021
▁літоўскі	-10.0027
▁сістэм	-10.003
▁пунктаў	-10.0035
▁Сын	-10.0038
вёў	-10.0041
▁вышэйшы	-10.0041
О	-10.0043
пас	-10.0051
▁1905	-10.0053
овых	-10.0055
▁корпус	-10.006
▁1953	-10.0063
▁сістэме	-10.0063
▁Дзі	-10.0064
▁гандлёвы	-10.0065
▁лічыць	-10.0073
▁мовах	-10.0077
чан	-10.0077
▁сакратар	-10.0077
ro	-10.0078
эс	-10.0083
рка	-10.0084
▁часцей	-10.009
▁даўжыня	-10.0091
▁вызначы	-10.0095
▁Сцяг	-10.0096
▁разы	-10.0101
▁Гродна	-10.0115
▁палка	-10.0123
▁Рым	-10.0125
▁служыў	-10.0128
▁зроблены	-10.0131
▁еры	-10.0139
▁ядна	-10.0141
ti	-10.0145
год	-10.0151
▁збіра	-10.0155
▁Мас	-10.0156
▁Арміі	-10.0156
▁Усходне	-10.0161
свет	-10.0162
▁званы	-10.017
авання	-10.0173
▁стагоддзяў	-10.0175
чую	-10.0178
▁КП	-10.0181
▁трэба	-10.0183
▁41	-10.0188
▁400	-10.0189
нк	-10.0193
▁Сар	-10.0196
▁параўнанн	-10.0201
▁ноч	-10.0205
▁культура	-10.0219
▁мастацкі	-10.022
вата	-10.0222
▁італьянскі	-10.0223
кана	-10.0224
▁асобы	-10.0225
палі	-10.0233
▁Каб	-10.0236
тыўны	-10.0238
▁мін	-10.024
▁Нацыянальны	-10.0241
▁Павел	-10.0245
вал	-10.0245
біра	-10.0251
ESO	-10.0254
▁віда	-10.0257
▁сістэму	-10.0259
▁архітэктар	-10.0262
▁перада	-10.0264
▁палон	-10.0268
чага	-10.0285
▁дадзена	-10.0285
ліч	-10.0288
▁прад	-10.0289
▁стады	-10.0289
▁ера	-10.029
▁водна	-10.029
▁дзеля	-10.0291
коўскі	-10.0298
▁англійскай	-10.0299
▁свята	-10.03
▁Таму	-10.0306
▁Фар	-10.0306
▁Ж	-10.0309
▁праблем	-10.0319
▁p	-10.0327
шко	-10.0328
▁палаца	-10.0339
вагу	-10.0339
▁левы	-10.0343
куль	-10.0344
ік	-10.0347
▁падстав	-10.0347
▁сярэдняй	-10.035
▁запас	-10.0351
уецца	-10.036
ізм	-10.037
▁інфармацыі	-10.0373
▁БДУ	-10.0378
▁тэкст	-10.038
▁Грэцыі	-10.0383
▁вышыня	-10.0383
▁Польшча	-10.0383
▁рымскі	-10.0384
▁Рымскай	-10.0385
v	-10.0394
мор	-10.0411
▁1952	-10.0414
▁лісце	-10.0419
▁Кір	-10.0419
радзе	-10.0425
▁ман	-10.0432
нты	-10.0436
▁музычна	-10.0439
ad	-10.0444
бург	-10.0459
▁гульняў	-10.0461
▁кам	-10.0461
▁арганізацый	-10.0464
▁чы	-10.0466
гры	-10.0467
▁іншым	-10.0469
▁ту	-10.047
▁чорна	-10.048
тамі	-10.0481
▁гуляў	-10.0482
нога	-10.0483
▁асабіста	-10.0488
▁саюза	-10.049
▁сустракае	-10.0502
▁катлавін	-10.0502
льф	-10.0505
▁дэпутатаў	-10.0509
▁дакладна	-10.0519
▁выяўлены	-10.0521
мір	-10.0523
▁касцёла	-10.0524
▁герба	-10.0524
сон	-10.053
▁Ё	-10.0531
▁Мін	-10.0534
▁Жа	-10.0536
аваць	-10.0537
▁44	-10.0538
▁вызначае	-10.0539
проч	-10.0539
▁Леў	-10.054
01	-10.054
эт	-10.054
скаму	-10.0541
▁кіраўніцтва	-10.0543
▁Яе	-10.0546
▁дзвюх	-10.0554
▁поле	-10.0561
▁існавання	-10.0564
▁прасторы	-10.0566
▁кап	-10.0574
▁Стара	-10.0574
▁Брэ	-10.0576
зон	-10.0577
▁пераход	-10.058
куп	-10.0582
▁кола	-10.0586
▁Каз	-10.0586
▁ранні	-10.059
▁меры	-10.0593
жан	-10.0608
▁Бен	-10.0609
▁атрад	-10.061
▁падзеі	-10.0611
▁важны	-10.0612
▁развіва	-10.0613
▁паспяхова	-10.0613
▁Гомель	-10.0615
ненне	-10.0621
чэння	-10.0627
▁Вар	-10.0627
▁75	-10.0633
▁Уз	-10.0639
▁старшыні	-10.0656
▁кв	-10.0657
▁асноўнай	-10.0658
▁птушак	-10.0664
▁паступіў	-10.0665
▁дакумента	-10.067
▁выраб	-10.0684
▁далей	-10.0699
▁заходні	-10.0704
▁загадчык	-10.0712
▁46	-10.0712
▁вершы	-10.0715
▁Эр	-10.0717
▁бес	-10.0719
рына	-10.0722
▁напісаны	-10.0731
▁Эн	-10.0739
▁жонкі	-10.074
▁эканомікі	-10.0743
▁ахвяр	-10.0746
▁св	-10.0753
льна	-10.0754
▁47	-10.076
▁калгас	-10.0761
▁раёнаў	-10.0761
▁пісаў	-10.0766
▁транс	-10.0767
▁адну	-10.0771
здоўж	-10.0775
▁Уладзіміра	-10.0781
▁граф	-10.0785
▁жонка	-10.0791
▁Леніна	-10.0791
▁рукапіс	-10.0794
▁ч	-10.0795
▁Ара	-10.0795
li	-10.0799
▁кіраўніком	-10.0801
▁барацьбы	-10.0804
▁жыву	-10.0806
▁ца	-10.0809
▁мастака	-10.0813
▁кіна	-10.0815
▁Фу	-10.082
▁ўзбярэжжа	-10.0825
un	-10.0826
001	-10.0833
грэ	-10.0833
▁Апошні	-10.0834
стая	-10.084
▁традыцыі	-10.0842
нікам	-10.0845
▁грэчаска	-10.0852
льнае	-10.0858
▁хвілін	-10.0858
▁звестк	-10.0863
слав	-10.0864
▁Аўстраліі	-10.0869
ne	-10.087
▁Аўстрыі	-10.087
▁матча	-10.087
▁сустрэ	-10.0872
▁адносяцца	-10.0873
вэ	-10.0876
▁Пара	-10.0881
▁Шар	-10.0882
▁гарадах	-10.0882
ель	-10.0882
▁размяшча	-10.0885
тана	-10.0887
▁1000	-10.0892
▁сустракаюцца	-10.0892
▁лічыў	-10.0892
81	-10.0901
▁жылы	-10.0901
▁Васіль	-10.0902
▁жанр	-10.0908
істы	-10.091
паль	-10.0918
нас	-10.0919
▁двума	-10.0925
▁запа	-10.0927
▁заліва	-10.0933
▁атрымаць	-10.0935
▁савета	-10.0944
ата	-10.0948
чо	-10.0961
▁чу	-10.0964
▁Ху	-10.0966
рык	-10.0968
▁рэдка	-10.0991
▁гідра	-10.0993
▁спосаб	-10.0994
w	-10.0995
▁ўзроўню	-10.1004
▁Расія	-10.1008
▁выступа	-10.101
▁працавала	-10.1016
▁ўключае	-10.102
прац	-10.102
чнае	-10.1031
▁велічыні	-10.1031
▁цяжкі	-10.1033
▁трэці	-10.1034
▁рады	-10.1036
вет	-10.104
рана	-10.1042
▁Міжнародна	-10.105
▁кіраўніка	-10.105
вое	-10.1058
▁дазволіл	-10.1062
▁сюжэт	-10.1062
▁Арменіі	-10.1062
▁тэмпературы	-10.1063
▁еру	-10.1065
▁павеце	-10.1068
▁прыход	-10.1073
▁імкну	-10.1073
▁будынку	-10.1074
▁сацыяльны	-10.1075
▁традыцыйны	-10.1077
▁інжынер	-10.1078
▁спецыяльна	-10.1079
▁пажар	-10.1084
▁баку	-10.109
кевіч	-10.1093
авога	-10.1094
▁1951	-10.1094
▁блізка	-10.1095
▁вызнача	-10.1099
▁карыс	-10.1099
▁згадваецц	-10.1101
▁Бы	-10.1102
▁5-	-10.1106
▁Пала	-10.1106
▁падтрым	-10.1113
стэ	-10.1119
раваны	-10.1119
▁заснаваў	-10.1127
саў	-10.1127
чае	-10.113
▁ўзрос	-10.1131
▁захаду	-10.1135
слоў	-10.1135
▁просты	-10.1135
валь	-10.1144
мін	-10.1145
▁крыніц	-10.1148
▁Кас	-10.1151
дэль	-10.1153
▁цёмна	-10.1159
▁іншай	-10.1159
▁газета	-10.1162
▁зборнік	-10.1163
▁гісторыя	-10.1164
▁экспедыцыі	-10.1164
парт	-10.1165
100	-10.1168
▁Парыж	-10.1168
▁лепшы	-10.1169
lo	-10.1172
▁глыбіня	-10.1173
▁Люб	-10.1175
▁месцаў	-10.1176
▁літаратурны	-10.1177
▁брата	-10.1182
клі	-10.1182
▁a	-10.1185
ань	-10.1189
лек	-10.1191
▁кг	-10.1191
▁аўта	-10.1192
▁пачалас	-10.1195
▁энергіі	-10.1196
▁сабора	-10.1196
▁месяцаў	-10.12
▁новым	-10.1201
▁беларуск	-10.1203
▁яднаны	-10.1204
усім	-10.121
▁Чу	-10.1218
▁функцыя	-10.1223
▁бла	-10.1225
91	-10.1225
▁будынкаў	-10.1226
▁Генрых	-10.1227
жыць	-10.1228
шаны	-10.123
▁ніжня	-10.1233
рэз	-10.1237
▁цара	-10.1239
рабіць	-10.1245
▁імем	-10.1252
рэс	-10.1253
▁карцін	-10.1254
▁шырокі	-10.1255
овай	-10.1256
▁берагаво	-10.1264
▁летапіс	-10.1264
▁самастойна	-10.1264
▁гістарычны	-10.1266
мон	-10.1266
▁дагавора	-10.1266
▁вядзе	-10.127
зен	-10.1271
▁сучасны	-10.1272
▁Аба	-10.1273
▁азёр	-10.1275
ення	-10.1276
▁мікра	-10.1277
▁Федэрацыі	-10.1282
▁Францыя	-10.1294
▁музеі	-10.1294
▁Маскоўска	-10.13
▁вытворчасць	-10.1306
▁слоў	-10.1309
▁Бор	-10.1317
▁дома	-10.132
▁роўны	-10.1321
▁Помнік	-10.1326
ена	-10.1332
▁прыроды	-10.1334
▁Гор	-10.1342
▁Він	-10.1343
▁структур	-10.1344
▁Удзельнік	-10.1344
йская	-10.1347
▁San	-10.1347
▁здабы	-10.1347
юю	-10.1348
▁імперыя	-10.1354
▁Буда	-10.1354
▁&#124;	-10.1363
кавыя	-10.1365
▁песня	-10.1369
▁Адна	-10.137
F	-10.1372
аса	-10.1381
люб	-10.1383
шак	-10.1383
▁Папа	-10.1383
▁VII	-10.1387
▁моцны	-10.1395
уса	-10.1404
град	-10.1407
▁Івана	-10.1408
▁ступень	-10.1409
▁магчымасц	-10.141
▁гарадско	-10.1416
▁1916	-10.1416
▁году	-10.1421
▁Там	-10.1423
▁кас	-10.1425
▁падзелу	-10.1433
▁пахаваны	-10.1434
▁Про	-10.1438
▁існаванне	-10.1439
▁суседні	-10.1439
пала	-10.144
▁паходжанне	-10.1443
▁адукацыю	-10.1444
▁арыштаваны	-10.1445
▁Памёр	-10.1451
▁Толькі	-10.1463
▁яднанне	-10.1465
▁самай	-10.1472
▁сваімі	-10.1472
▁крытык	-10.1476
▁Больш	-10.1476
пор	-10.1481
▁японскі	-10.1482
▁ўваход	-10.1483
дзел	-10.1484
▁пар	-10.1485
▁варта	-10.1493
▁аддзел	-10.1497
▁беларуская	-10.1499
бро	-10.1504
дз	-10.1506
▁прэс	-10.1511
аві	-10.1511
ал	-10.1512
▁непа	-10.1514
кую	-10.1515
ніна	-10.1518
▁Германія	-10.1522
▁шляху	-10.1523
▁падзел	-10.1524
▁ліст	-10.153
▁бакоў	-10.153
▁d	-10.1535
▁сынам	-10.1536
▁Бара	-10.1538
▁двары	-10.1538
▁адносін	-10.1538
▁каралеўска	-10.1546
▁жылі	-10.1547
фер	-10.1547
тныя	-10.1549
▁Прэзідэнта	-10.1551
ли	-10.1551
▁Мікалая	-10.1552
▁пераваг	-10.1553
▁Юр	-10.1554
пал	-10.1555
▁гары	-10.1556
▁дырэктар	-10.1559
▁выс	-10.1561
▁могілках	-10.1565
▁пасад	-10.157
цыйна	-10.1578
▁прывяло	-10.1581
▁умова	-10.1581
▁абарон	-10.1583
▁узроўнем	-10.1584
▁ўжыва	-10.159
▁выкарыстоўваюць	-10.159
▁Ім	-10.16
ней	-10.16
Ёрк	-10.1602
▁52	-10.1602
▁Колькасць	-10.1603
▁ролі	-10.1603
▁старэйшы	-10.1605
▁гістарычных	-10.1606
▁шасці	-10.1607
▁Жан	-10.1612
▁ўласна	-10.1613
▁спецыяльны	-10.1616
▁ставі	-10.1618
lt	-10.1621
▁мець	-10.1624
▁1912	-10.1626
▁49	-10.1626
бан	-10.1627
▁уключаючы	-10.1629
ie	-10.163
▁01	-10.1634
джэ	-10.1636
▁міністр	-10.164
▁дуб	-10.1643
рова	-10.1648
эл	-10.1649
▁археалагічны	-10.1654
▁Гры	-10.1658
ma	-10.1664
знаўства	-10.1664
шай	-10.1672
▁Парыжы	-10.1673
▁брытанска	-10.1673
▁хутар	-10.1682
▁120	-10.1682
▁пэўна	-10.1685
▁падобна	-10.1687
▁1897	-10.1696
▁палітыкі	-10.1704
▁Сяргей	-10.1706
▁частак	-10.171
▁замацава	-10.1721
мет	-10.1722
оп	-10.1726
рыка	-10.1729
▁каротка	-10.1732
▁праграмы	-10.1735
▁Герб	-10.1738
рэд	-10.1743
▁Нава	-10.1744
▁корпуса	-10.1744
▁ана	-10.1745
тычныя	-10.1748
▁камандзір	-10.1752
▁каза	-10.1753
сэ	-10.1754
▁нумар	-10.1755
▁вынік	-10.1765
X	-10.1769
цкія	-10.1772
▁зямель	-10.1777
▁дасягае	-10.1777
▁56	-10.1781
▁фронце	-10.1783
▁Украіне	-10.1784
▁аховы	-10.1786
▁прычына	-10.1787
▁Паў	-10.1789
▁Гара	-10.1799
▁Це	-10.1802
дам	-10.1805
▁элементаў	-10.1813
▁Фінляндыі	-10.1819
шчэ	-10.182
далі	-10.1821
▁выдаў	-10.1824
▁Бур	-10.1825
ключ	-10.1825
▁захавалася	-10.1826
vi	-10.1826
эра	-10.1828
▁працаваць	-10.1832
▁мільёнаў	-10.1832
▁Царква	-10.1833
▁нягледзячы	-10.1836
▁de	-10.1841
вестак	-10.1842
заходня	-10.1845
▁пражыва	-10.1845
▁51	-10.1845
▁філасофіі	-10.1848
▁вежы	-10.1848
▁пасла	-10.1851
▁накіраваны	-10.1852
▁лева	-10.1853
▁m	-10.1854
▁Перад	-10.1859
енка	-10.1865
ек	-10.1867
▁мадэлі	-10.1867
x	-10.1876
▁жыве	-10.1877
овіча	-10.1878
▁Анд	-10.1885
▁доктар	-10.1887
▁аддзяленне	-10.1888
▁Тро	-10.189
da	-10.1891
хар	-10.1892
▁аль	-10.1903
тор	-10.1911
кен	-10.1912
▁ўлада	-10.1913
▁паўстанне	-10.1917
▁Ана	-10.1919
▁загінулі	-10.1921
▁пытанне	-10.1922
ўскім	-10.1926
▁фальклор	-10.1928
▁рада	-10.1929
▁дачка	-10.1931
▁ААН	-10.1932
▁кантроль	-10.1934
▁перамогу	-10.1934
▁намеснікам	-10.1939
▁перамог	-10.1945
ліка	-10.1947
▁Амерыцы	-10.1947
▁распаўсюджана	-10.1954
▁Кубка	-10.196
▁Сал	-10.1961
▁гісторык	-10.1962
▁здолеў	-10.1967
to	-10.1968
▁рэчыва	-10.1968
▁органа	-10.1971
▁палітычнай	-10.1975
▁прывял	-10.1977
▁тур	-10.198
▁поля	-10.1982
▁камітэт	-10.1986
▁друга	-10.199
▁Неўзабав	-10.1994
▁1910	-10.1996
▁цэлым	-10.1997
▁выкарыстання	-10.2003
▁бераг	-10.2004
▁удзельнічаў	-10.2006
▁суда	-10.2013
▁дысертацы	-10.2014
зв	-10.2014
ніцкага	-10.202
▁Вядомы	-10.202
▁пакіну	-10.2023
▁часціц	-10.2024
▁Дзякую	-10.2024
se	-10.2024
▁выхад	-10.2026
тру	-10.2027
▁выбар	-10.203
▁лёс	-10.2031
▁багаты	-10.2031
▁Асноўна	-10.2038
пан	-10.2038
цяг	-10.2038
▁чырвоны	-10.2039
▁Пас	-10.204
▁выцягнутая	-10.2041
дзю	-10.2044
▁часопіс	-10.2045
▁лепш	-10.2046
спа	-10.2051
▁Андрэй	-10.2052
▁медыцынскі	-10.2056
ніс	-10.2056
▁зараз	-10.2056
▁нашы	-10.2058
▁склала	-10.2058
▁Палац	-10.2059
сава	-10.206
▁прыводзі	-10.2061
▁грамадзян	-10.2065
▁эліптычна	-10.2067
▁змяшчае	-10.2067
▁вада	-10.2068
▁эпі	-10.2074
▁прыватны	-10.2076
▁асноўныя	-10.208
▁рэдактар	-10.2084
io	-10.2084
▁фасад	-10.2084
▁ажыццяўля	-10.2087
▁праблемы	-10.2087
▁удзельнік	-10.2089
▁работ	-10.2091
туры	-10.2092
▁універсітэта	-10.2095
▁урад	-10.2096
▁складу	-10.2096
▁драўляна	-10.2098
пусці	-10.2099
ce	-10.21
H	-10.2103
▁беларусаў	-10.2104
▁лагер	-10.2105
даць	-10.2106
▁Дынама	-10.2108
▁чырвона	-10.2108
▁яўлялася	-10.211
ўцы	-10.211
▁прэзідэнтам	-10.2115
▁перамогі	-10.2116
▁машын	-10.2118
лява	-10.212
ціна	-10.2122
▁прыём	-10.2123
▁фільма	-10.2124
▁адлегласці	-10.2127
▁абвешчана	-10.2128
▁Турцыі	-10.2135
▁Масква	-10.2135
▁сельскі	-10.2148
З	-10.2149
▁памеры	-10.2154
нен	-10.2155
▁базе	-10.2156
▁Пачынаецца	-10.2161
▁Філіп	-10.2165
стве	-10.2167
▁явіў	-10.2169
▁атрада	-10.217
▁музычны	-10.2173
▁стварэнні	-10.2175
мент	-10.2179
▁Русі	-10.218
▁службы	-10.218
▁бела	-10.2181
▁Бры	-10.2183
▁зала	-10.2194
фін	-10.2196
▁кіраванне	-10.2206
▁генерала	-10.2217
▁савецкай	-10.2221
▁работы	-10.2223
▁кляштар	-10.2226
▁рэшткі	-10.2227
▁пасадзе	-10.2234
ліс	-10.2234
▁0,5	-10.2244
▁гала	-10.2245
▁ўласны	-10.2257
▁Ісуса	-10.2259
▁лідар	-10.2261
▁слаба	-10.2264
овым	-10.2267
▁53	-10.2272
▁Яўген	-10.2277
▁назад	-10.2278
▁сродкі	-10.2282
▁разнастайны	-10.2284
▁роўна	-10.2284
поль	-10.2286
▁каз	-10.2291
лінг	-10.2292
▁Тан	-10.2293
бель	-10.2295
▁дапамогу	-10.2303
▁магі	-10.2307
▁наступна	-10.2308
шчына	-10.2312
▁Малы	-10.2316
аванне	-10.2325
▁царства	-10.2329
▁уплывам	-10.2332
▁галоў	-10.2333
▁графа	-10.2337
▁сум	-10.2338
▁Эстоніі	-10.2339
тэрытарыяльна	-10.2339
▁прадстаўлена	-10.2339
▁розна	-10.2351
ніцкі	-10.2352
кавы	-10.2364
падобны	-10.2367
▁Інстытута	-10.2368
▁губерня	-10.2368
▁Свято	-10.237
▁устаноў	-10.237
▁экс	-10.2372
▁італьянска	-10.2374
▁выключна	-10.2381
▁захаваў	-10.2392
ёна	-10.2395
бэ	-10.2399
стычны	-10.2401
йны	-10.2402
▁пары	-10.2404
▁лацінска	-10.2409
▁пабудовы	-10.2412
▁рэйтынг	-10.2413
▁вос	-10.2414
▁святла	-10.2422
▁Савет	-10.2429
▁адрас	-10.2432
іст	-10.2433
тва	-10.2433
▁партызан	-10.2443
▁Гру	-10.2444
▁адносінах	-10.2444
Е	-10.2453
▁65	-10.2453
▁бяспекі	-10.2454
от	-10.2454
авічы	-10.2456
кор	-10.2459
▁твор	-10.246
▁о	-10.2465
коўскага	-10.2473
▁возер	-10.2475
меры	-10.2476
▁заявіў	-10.2481
▁ордэн	-10.2491
▁ўладу	-10.2495
лён	-10.2496
цыяна	-10.2496
ет	-10.2497
весці	-10.2498
▁гал	-10.2498
талі	-10.2509
▁Аг	-10.2511
▁вага	-10.252
▁Віцебскі	-10.252
▁рускіх	-10.2521
▁прызнача	-10.2522
▁ініцыятыв	-10.2526
фу	-10.2527
пісаць	-10.2527
▁загінуў	-10.2533
▁Кле	-10.2536
▁штаб	-10.2537
вілі	-10.2539
▁акупацы	-10.254
йцаў	-10.2548
▁1863	-10.255
▁1907	-10.2553
фон	-10.2555
сін	-10.2557
▁камісіі	-10.2564
▁сферы	-10.2565
▁Ну	-10.2567
▁пераможца	-10.2569
▁духоўна	-10.2572
▁кнігу	-10.2574
▁сцяга	-10.2574
▁Прэм	-10.2575
гляд	-10.2578
знач	-10.2579
▁эфект	-10.2587
▁канец	-10.2592
▁бітвы	-10.2593
▁правядзення	-10.2597
▁Род	-10.2604
▁тон	-10.2606
▁1908	-10.2609
▁стралкова	-10.2611
▁хрысціянства	-10.2622
▁пачына	-10.2622
▁Рыме	-10.2631
▁складаны	-10.2636
▁Тэрыторыя	-10.2637
▁ара	-10.2638
раўн	-10.2644
▁лікам	-10.2649
▁Вучыў	-10.265
▁бег	-10.2651
йскіх	-10.2652
ап	-10.2652
▁іншае	-10.2654
▁ўваходзяць	-10.2659
▁Афрыкі	-10.266
▁Еўрапейска	-10.2662
нскія	-10.2664
V	-10.2665
▁рост	-10.2666
▁1990-	-10.2666
▁Над	-10.2674
▁князёў	-10.2675
ванні	-10.2675
▁Мае	-10.2677
▁выдатны	-10.2678
▁парку	-10.2678
нова	-10.2684
▁палітыка	-10.2684
▁адчува	-10.2691
▁мастакоў	-10.2693
▁Сен	-10.2694
прэ	-10.2694
анты	-10.2695
▁дзяўчын	-10.2696
▁прычым	-10.2703
▁Ганна	-10.2708
▁структуры	-10.2715
▁малодшы	-10.2718
ень	-10.2718
▁Марка	-10.2719
▁Звычайна	-10.2724
▁цэ	-10.2727
▁сілу	-10.2728
▁ніколі	-10.2732
▁атрымання	-10.2732
▁графства	-10.2735
os	-10.2741
нес	-10.2745
▁страты	-10.2748
▁забіў	-10.2748
глыб	-10.2753
яна	-10.2757
▁гэту	-10.2759
▁падтрымку	-10.276
шан	-10.2764
▁1906	-10.2765
▁Рэй	-10.2772
▁Камен	-10.2774
▁кампактна	-10.2778
міра	-10.2781
▁застава	-10.279
дскі	-10.279
насцю	-10.2791
▁асоба	-10.2793
▁пытанні	-10.2796
▁напісана	-10.2798
▁Першым	-10.2799
▁чэмпіён	-10.28
▁ката	-10.2802
▁герцаг	-10.2803
▁Кру	-10.2806
▁нахіл	-10.2809
▁1909	-10.2816
▁матэрыялаў	-10.2818
▁неабходна	-10.2819
дро	-10.2822
▁каменны	-10.2824
▁пераехаў	-10.2825
зд	-10.2831
овая	-10.2834
▁рэльеф	-10.2834
▁Новая	-10.2835
▁залаты	-10.2837
▁шырынё	-10.284
▁рашэння	-10.2841
▁распаўсюджва	-10.2841
▁неда	-10.2841
▁рыба	-10.2841
▁лізе	-10.2848
▁спадчыну	-10.2852
▁РСФСР	-10.2854
▁падзелены	-10.2856
▁каталіцкі	-10.2858
▁XI	-10.2861
▁нізка	-10.2862
▁акруга	-10.2863
▁Латвіі	-10.2865
▁арэн	-10.2868
▁дзеянне	-10.2869
▁Крэ	-10.287
▁1911	-10.2872
▁Дра	-10.2874
▁Суд	-10.2876
▁культур	-10.288
▁аэрапорт	-10.2883
нёс	-10.2885
ання	-10.2894
асці	-10.2899
▁выконва	-10.2903
▁культ	-10.2904
▁рынк	-10.2907
рскага	-10.2907
▁гурта	-10.2907
▁міністра	-10.2908
▁фу	-10.291
▁Кал	-10.2912
даецца	-10.2913
▁Найбольша	-10.2915
▁будучы	-10.2916
▁працавалі	-10.2917
▁ярус	-10.292
▁Сін	-10.2926
▁германскі	-10.2935
▁справе	-10.2935
▁Даніі	-10.2936
▁Рака	-10.2937
▁флот	-10.2937
▁1913	-10.2938
сар	-10.2945
▁Афрыцы	-10.2949
▁трэнер	-10.2949
▁Літоўска	-10.2949
бал	-10.2951
▁любы	-10.2952
рк	-10.2956
▁яўрэйска	-10.2956
▁элементы	-10.2958
▁паэта	-10.296
▁ўвайшл	-10.2961
▁віцэ	-10.2964
▁Рыма	-10.2969
▁Re	-10.2971
▁Вялік	-10.2973
-3	-10.2974
▁далейшым	-10.2977
▁дэбютаваў	-10.2978
om	-10.2984
йныя	-10.2989
▁маёнтак	-10.2993
намі	-10.2993
цава	-10.2995
▁рэжым	-10.2996
гле	-10.2998
▁фігур	-10.2999
▁служы	-10.3
▁фі	-10.3002
дары	-10.3004
▁афіцэр	-10.3005
▁сярэдні	-10.3009
▁знаходзі	-10.3011
▁начальнік	-10.3015
▁хімічны	-10.3018
▁Сла	-10.3018
оні	-10.3018
▁Кітая	-10.3018
▁тэхнічны	-10.3021
заваны	-10.3023
▁радзей	-10.3024
нскае	-10.3027
▁Генрыха	-10.3029
▁маёнтка	-10.3032
▁паўночнага	-10.3037
▁лясы	-10.3042
▁Касцёл	-10.3044
▁двор	-10.3049
▁бяз	-10.3055
-4	-10.3057
▁ўдалося	-10.3059
▁гандлю	-10.3063
▁парламента	-10.3065
▁Палі	-10.3071
▁лаўрэат	-10.3074
K	-10.3076
▁дзі	-10.3078
▁крыніцы	-10.3083
▁пача	-10.3088
▁сцен	-10.3088
▁палос	-10.3088
▁прапанаваў	-10.3089
берг	-10.3089
▁фота	-10.3089
ўсходня	-10.3093
▁англійска	-10.3095
ізму	-10.3096
хава	-10.3104
▁Баб	-10.3105
co	-10.3107
алагічны	-10.3108
▁мовай	-10.3118
▁Мен	-10.3119
▁крыж	-10.3121
▁Хан	-10.3121
ir	-10.3122
▁горадам	-10.313
▁мост	-10.3147
▁паэзіі	-10.3148
▁Існу	-10.3149
▁раку	-10.315
▁левым	-10.315
▁Сер	-10.3152
▁фізічна	-10.3157
▁Каралеўства	-10.3158
рос	-10.3165
▁моманту	-10.3167
▁захоп	-10.3168
▁паўвострава	-10.317
▁канцэрт	-10.3171
▁прыродны	-10.3174
▁іграком	-10.3178
▁словы	-10.3188
льнікаў	-10.3197
ter	-10.3198
▁назваў	-10.32
▁высокім	-10.3205
анне	-10.3205
▁жанчына	-10.3205
▁2,5	-10.3205
▁Востраў	-10.3208
▁дрэў	-10.3208
▁музыка	-10.3209
час	-10.3211
▁рад	-10.3214
▁Святы	-10.3214
▁уяўляе	-10.3216
▁справы	-10.3216
od	-10.3217
тыцы	-10.322
▁выкарыстанне	-10.3223
▁дахам	-10.3226
▁версія	-10.3227
▁выкананы	-10.3231
ёў	-10.3232
▁дра	-10.3233
▁b	-10.3236
нца	-10.3237
дапамозе	-10.3238
▁ўвайшлі	-10.3239
аўка	-10.3241
▁Карэ	-10.3244
▁дэпутат	-10.3245
▁Музей	-10.3246
▁канфлікт	-10.3247
мат	-10.3247
▁сетка	-10.3248
▁даў	-10.3249
ладзі	-10.325
▁прызёр	-10.3253
тычнай	-10.3254
▁факультэта	-10.3257
▁раб	-10.3258
▁ляса	-10.3258
пакуль	-10.3259
бл	-10.3269
тным	-10.327
▁прынялі	-10.327
▁вырашыў	-10.327
▁магістра	-10.3275
казаць	-10.3275
▁сто	-10.3279
▁асяроддзя	-10.3291
▁рання	-10.3291
▁кіно	-10.3292
▁будуць	-10.3299
жыў	-10.3303
жаны	-10.3304
▁атрымлівае	-10.331
▁64	-10.331
цкае	-10.3312
▁абласцей	-10.3314
ведзена	-10.3314
▁вар	-10.3315
▁бітва	-10.3318
тура	-10.3319
▁нараджэння	-10.3321
▁стылю	-10.3322
▁Украіна	-10.3322
авалі	-10.3323
▁даследавання	-10.3326
me	-10.3327
▁прастол	-10.3327
▁Вяр	-10.3336
▁Масквы	-10.3336
▁Герой	-10.3338
▁ледавік	-10.3338
▁Канстанцін	-10.3339
em	-10.3339
▁Віктар	-10.3341
гін	-10.3341
▁замен	-10.3342
анта	-10.3347
▁Сва	-10.3349
▁пісьменнікаў	-10.335
кавічы	-10.3351
тэк	-10.3352
▁татар	-10.3354
Ш	-10.3354
мас	-10.3357
▁сусветна	-10.3358
▁выключэнне	-10.3361
рады	-10.3363
▁Лічы	-10.3365
▁існуюць	-10.3367
▁футболе	-10.3369
алогіі	-10.337
▁судна	-10.3372
▁мал	-10.3376
▁патрабаванн	-10.3379
▁француз	-10.3387
вара	-10.3389
енавіта	-10.339
▁герцага	-10.3393
сер	-10.3396
▁мясцовасці	-10.3396
стру	-10.3396
▁смерц	-10.3397
логіі	-10.34
рог	-10.3403
▁межы	-10.3406
▁манастыра	-10.3406
пя	-10.3408
▁натуральны	-10.3409
▁адрозніва	-10.3414
альныя	-10.3416
▁праведзены	-10.3419
▁інстытуце	-10.342
▁валас	-10.3424
▁адсутнасц	-10.3426
▁маршрут	-10.3428
▁Кітай	-10.343
▁выйграў	-10.3433
▁Сп	-10.3433
▁ЮНЕСКА	-10.3436
▁абласно	-10.3436
▁зорак	-10.3444
▁гульнях	-10.3446
▁наведва	-10.345
▁Франц	-10.345
▁знакаміты	-10.3451
ve	-10.3456
▁край	-10.3458
чнік	-10.3463
рыста	-10.3467
▁трон	-10.3467
рат	-10.3471
ўшчына	-10.3473
▁Вал	-10.3473
▁камер	-10.3473
▁яўрэяў	-10.3474
▁Кла	-10.3478
дас	-10.348
▁свабодна	-10.3483
▁кла	-10.3485
▁моры	-10.3485
▁ваенныя	-10.3488
▁хрысціян	-10.3488
пат	-10.3489
▁вадасховішча	-10.3489
▁няс	-10.3491
стар	-10.3496
алогія	-10.3499
▁доме	-10.3505
▁перададзены	-10.3508
▁IX	-10.3509
оз	-10.3516
▁сярэднім	-10.3517
ленні	-10.3518
прав	-10.3518
▁дапамаг	-10.3521
▁Вышэйша	-10.3522
льд	-10.3524
падобна	-10.3528
свят	-10.353
▁сігнал	-10.3533
▁Польска	-10.3535
▁старшынёй	-10.3536
▁Аз	-10.3536
▁VIII	-10.3543
▁спін	-10.3547
авала	-10.3548
▁1904	-10.3548
тро	-10.355
чым	-10.3553
▁ўтвараю	-10.3553
▁57	-10.3554
▁пошук	-10.3556
▁дачко	-10.3561
▁папулярны	-10.3561
пуска	-10.3564
▁кіраўнікоў	-10.3569
▁Вол	-10.3569
▁гэтак	-10.3576
▁каледж	-10.3583
▁млрд	-10.359
▁прэ	-10.3593
таваны	-10.3597
▁нацыянальн	-10.3599
▁выданне	-10.36
новіч	-10.3601
▁галіны	-10.3603
▁выступае	-10.3607
том	-10.3609
▁Іх	-10.361
▁ё	-10.361
▁Ігар	-10.361
▁1930-	-10.3611
▁навуковай	-10.3615
▁тысячагоддзя	-10.3616
лкі	-10.3618
▁Асманска	-10.3622
▁зуб	-10.3623
▁Магілёўска	-10.3629
ном	-10.3632
Ма	-10.3634
▁Каза	-10.3635
льня	-10.3638
▁правоў	-10.3638
▁ужыва	-10.3638
▁дамоў	-10.3639
ністы	-10.3641
▁дзеяння	-10.3641
гур	-10.3644
зор	-10.3644
▁фасада	-10.3644
▁славян	-10.3647
▁запіс	-10.3653
Ч	-10.3654
▁зброі	-10.3654
▁Мало	-10.3657
▁рэлігійна	-10.3659
вальны	-10.366
▁Народны	-10.3667
▁фар	-10.3667
▁54	-10.3674
сны	-10.3676
▁песень	-10.3676
стам	-10.3679
▁царкв	-10.3681
▁выдадзены	-10.3682
▁Дж	-10.3683
ос	-10.3684
тычных	-10.3684
▁звана	-10.3685
▁оперы	-10.3685
▁600	-10.3686
▁рэдкі	-10.3694
▁кон	-10.3694
▁дзіцячы	-10.3699
▁Мара	-10.3699
чая	-10.37
▁Іерусалім	-10.37
id	-10.3702
▁працягва	-10.3704
▁прымаў	-10.3706
▁абаронца	-10.3708
▁выпуска	-10.372
▁навучання	-10.3726
ов	-10.373
▁двойчы	-10.3732
тных	-10.3735
▁Цэ	-10.3739
▁Заслужаны	-10.374
▁футбольны	-10.374
▁банк	-10.3741
дара	-10.3745
▁месцам	-10.3746
▁Станіслава	-10.3748
▁сведчы	-10.3748
▁прайшоў	-10.3748
▁канстытуцы	-10.3748
▁Такі	-10.3749
міністра	-10.375
▁спыні	-10.3757
вацца	-10.3757
▁Дзева	-10.3758
▁фізіка	-10.3759
зін	-10.3761
чыць	-10.3764
▁пунктам	-10.3765
▁сувязь	-10.3766
▁неза	-10.3766
▁роля	-10.3767
▁эсперанта	-10.3771
збраенн	-10.3772
нду	-10.3772
▁дыялект	-10.3775
асць	-10.3777
▁Многія	-10.3779
▁пісьмовы	-10.3779
▁58	-10.3781
▁Кала	-10.3783
▁планеты	-10.3784
еты	-10.3787
▁Крым	-10.379
▁матэрыял	-10.379
▁друку	-10.3795
▁емонт	-10.3796
▁рыс	-10.3796
▁паказвае	-10.3797
дзіна	-10.3798
▁апублікаваны	-10.38
▁ваеннага	-10.3802
▁жаноча	-10.3804
▁дадатковы	-10.3805
▁сыноў	-10.3807
міністр	-10.3809
▁арганізатар	-10.3811
▁Гісторыя	-10.3811
▁хвалі	-10.3811
▁мірны	-10.3815
▁Рада	-10.3818
▁каш	-10.382
▁крыла	-10.3822
▁светла	-10.3826
▁Вядома	-10.3827
Ц	-10.3828
▁тэорыя	-10.383
льда	-10.3836
▁Мы	-10.3841
чат	-10.385
▁арганізаваны	-10.3852
▁міру	-10.3853
▁Цяпер	-10.3853
▁тэрыторый	-10.3859
▁пачаткам	-10.3859
▁Каль	-10.3865
▁Галоўна	-10.3867
мера	-10.3873
▁колькасц	-10.3879
▁помнікаў	-10.3883
▁Італія	-10.3883
кага	-10.3884
▁Ска	-10.3884
▁невялікі	-10.3887
▁0,1	-10.3891
▁прысвоена	-10.3891
▁вершаў	-10.3893
зм	-10.3894
▁порт	-10.3894
-18	-10.3897
зацыя	-10.3897
▁студэнтаў	-10.3899
▁золата	-10.39
▁Адам	-10.39
дала	-10.3905
▁Тады	-10.3908
▁Савецкай	-10.391
▁палітык	-10.3912
лыя	-10.3912
▁Красна	-10.3912
▁выбараў	-10.3914
▁Чэхіі	-10.3923
▁Сала	-10.3925
▁журналіст	-10.3926
лата	-10.3927
ніча	-10.3928
▁выкарыстоўваць	-10.393
▁сёння	-10.3931
▁адзіным	-10.3936
льскай	-10.3938
данне	-10.3938
▁зварот	-10.394
▁рэспубліка	-10.394
▁кары	-10.3942
▁біскуп	-10.3942
▁штогод	-10.3943
▁Арэ	-10.3946
фо	-10.3948
▁іспанска	-10.3951
▁Нарвегіі	-10.3956
ut	-10.3958
▁выпуск	-10.3959
тані	-10.3959
▁Сярэдняя	-10.396
▁пачынаючы	-10.3964
▁пал	-10.3966
▁t	-10.3966
манд	-10.3967
▁Ваенна	-10.3972
▁узнагароджаны	-10.3972
оль	-10.3972
▁Хоць	-10.3977
▁забойства	-10.3983
▁Схіл	-10.3983
▁сойм	-10.3984
кро	-10.3985
версе	-10.3993
▁прамысловы	-10.3998
▁прэмі	-10.4002
▁рэжысёр	-10.4011
▁Эй	-10.4012
▁супрацоўнік	-10.4012
▁Пахаваны	-10.4013
▁1900	-10.4013
▁памер	-10.4016
▁савет	-10.4018
вес	-10.4021
▁мадэль	-10.4022
▁вывуча	-10.4022
ca	-10.4023
▁выклікала	-10.4026
▁паўнамоцтв	-10.4029
▁іспанскі	-10.4035
ані	-10.4036
▁адміністрацыі	-10.4036
▁кнізе	-10.4046
мес	-10.4046
▁Другі	-10.405
▁Вялікабрытанія	-10.4052
ндэ	-10.4054
▁лад	-10.4059
▁складалі	-10.4061
▁Мікалаевіч	-10.4062
▁Інд	-10.4062
▁працяка	-10.4062
▁План	-10.4064
пен	-10.4064
вік	-10.4066
▁разуме	-10.4068
▁жывапіс	-10.4072
тарам	-10.4072
▁Эль	-10.4075
▁сапраўдны	-10.4075
▁Дру	-10.4078
▁абмен	-10.4079
бек	-10.4079
▁басейна	-10.4084
ота	-10.4086
▁ведаў	-10.409
тал	-10.409
▁прызнаны	-10.4094
▁паранены	-10.4094
▁шэсць	-10.4095
ада	-10.4095
▁спаборніцтва	-10.4099
руж	-10.4105
▁абрад	-10.4106
льнікі	-10.4114
▁шкод	-10.4119
▁зоркі	-10.4119
▁дух	-10.4123
▁праблема	-10.413
▁Сіл	-10.4132
▁Хрыста	-10.4135
▁Ужо	-10.4135
▁Рэспубліцы	-10.4135
▁стандарт	-10.4143
▁міфалогіі	-10.4144
▁кру	-10.415
▁схіла	-10.4153
чаты	-10.4157
▁наша	-10.4161
вец	-10.4161
меж	-10.4162
Казахстанска	-10.4162
▁штаба	-10.4165
▁навучальны	-10.4166
цё	-10.4168
▁характэрна	-10.4168
▁хутчэй	-10.4168
▁ізноў	-10.4168
▁адрозніваюцца	-10.4172
▁Асноўны	-10.4174
тычны	-10.4177
▁Астра	-10.4179
альных	-10.4182
▁рысы	-10.4186
▁навуча	-10.4186
аве	-10.4193
▁дыстанцы	-10.4194
рт	-10.4196
▁n	-10.4197
▁абодва	-10.4198
▁крэпасці	-10.4201
▁сход	-10.4205
рн	-10.4207
▁адкрыццё	-10.4209
▁пашыраны	-10.4214
▁сустрака	-10.4215
ac	-10.4219
рная	-10.4222
вагі	-10.4222
тычнага	-10.4223
▁праекц	-10.4224
▁вызвалення	-10.4226
▁педагог	-10.4226
▁ўнутрана	-10.4228
грама	-10.4229
ола	-10.4235
рс	-10.4235
▁масава	-10.4238
нію	-10.4238
▁групу	-10.4244
▁сапраўдна	-10.4249
ўская	-10.4251
фік	-10.4254
кладзены	-10.4254
▁тэле	-10.4255
▁прыблізна	-10.4259
▁Фрыдрых	-10.4262
▁250	-10.4263
граф	-10.4265
▁веры	-10.4271
▁выбары	-10.4272
ваючы	-10.4286
ргі	-10.4288
▁6-	-10.429
од	-10.4294
▁артыст	-10.4298
ha	-10.4298
тона	-10.4301
жны	-10.4302
▁Z	-10.4306
▁іслам	-10.4309
дна	-10.4312
▁Фры	-10.4314
▁падня	-10.4315
▁Прэзідыума	-10.4318
-5	-10.4318
трэ	-10.4319
▁1980-	-10.4326
▁акруг	-10.4329
▁Ar	-10.433
слава	-10.4331
лых	-10.4332
▁Віцебск	-10.4332
▁Героя	-10.4335
ымі	-10.4339
стае	-10.4342
▁здароўя	-10.4343
▁памерла	-10.4343
▁61	-10.4346
▁артыкулаў	-10.4346
аўскі	-10.4347
▁патрэб	-10.4347
▁названа	-10.4348
▁баі	-10.4349
▁пабліз	-10.4353
▁Джо	-10.4354
▁армян	-10.4354
нту	-10.4354
▁Кіт	-10.436
▁Ёс	-10.4361
▁0,2	-10.4365
▁паўднёвага	-10.4371
▁царкоўна	-10.4371
ph	-10.4372
▁пісьменніка	-10.4372
▁Міжнародны	-10.4377
▁схіл	-10.4377
▁Універсітэт	-10.4377
▁літаратура	-10.4378
▁Ван	-10.4378
▁апа	-10.4379
▁Мер	-10.438
▁глыбока	-10.4385
дана	-10.4387
▁пункты	-10.4389
▁ўзрост	-10.439
зь	-10.4392
▁Ch	-10.4395
▁адрознівае	-10.4397
▁Гала	-10.44
▁паражэнне	-10.44
▁сялянска	-10.44
▁погляд	-10.4402
▁склікання	-10.4404
ніз	-10.4406
▁адправі	-10.4409
НК	-10.4414
▁яві	-10.4422
▁народнага	-10.4426
▁Кіеўска	-10.4428
▁Прэзідэнт	-10.4437
ток	-10.4437
пара	-10.4445
▁ўмовах	-10.4453
▁Ап	-10.4454
▁крыжа	-10.4461
▁завершаны	-10.4462
▁працягваў	-10.4462
▁вялі	-10.4462
чаў	-10.4467
▁Дзвін	-10.447
▁абодвух	-10.447
▁снукер	-10.4471
▁тэатры	-10.4472
▁Буд	-10.4472
▁парафі	-10.4473
▁праграм	-10.4474
▁краіна	-10.4474
▁1864	-10.4475
▁адбыліс	-10.4477
▁зоны	-10.4477
▁карціны	-10.4478
ent	-10.4479
▁h	-10.448
ковіч	-10.4482
▁місі	-10.4489
▁жывапісу	-10.4492
▁продаж	-10.4496
▁відэа	-10.4496
сьці	-10.4496
▁рэйтынгавы	-10.4496
▁Бас	-10.4498
▁гэтую	-10.4499
леў	-10.4499
▁Дзяржаўны	-10.45
▁Будынак	-10.4504
▁Закон	-10.4505
▁асновы	-10.4513
▁фізікі	-10.4514
цёр	-10.4514
▁Берагі	-10.4515
рва	-10.4516
польскага	-10.4516
▁багата	-10.4518
▁паказ	-10.4519
кары	-10.452
▁Прэ	-10.4529
▁зямлю	-10.453
фра	-10.453
▁жонкай	-10.4533
▁Мір	-10.4534
▁чорны	-10.4537
▁крэпасць	-10.4538
▁прыйшоў	-10.4539
твара	-10.4542
▁дачыненні	-10.4547
▁Сербіі	-10.4547
pe	-10.4548
▁La	-10.4548
▁Юрый	-10.4554
▁Іль	-10.4555
▁тлумачы	-10.4556
▁адпаведны	-10.4556
▁часе	-10.4558
▁Жу	-10.4561
▁пан	-10.4565
▁агарод	-10.4568
▁62	-10.4572
▁Возера	-10.4573
▁Sc	-10.4574
▁адзначаны	-10.4574
▁стану	-10.4576
▁Клімат	-10.4581
▁мара	-10.4583
▁мыс	-10.4586
ета	-10.459
▁члены	-10.4591
▁хімічна	-10.4592
дка	-10.4592
білі	-10.4592
▁слуп	-10.4593
▁выходзіць	-10.4594
▁лета	-10.4598
▁механізм	-10.4599
віс	-10.4599
фан	-10.4602
▁родна	-10.4603
▁ан	-10.4604
▁каштоўны	-10.4607
клаў	-10.4611
▁падзея	-10.4612
аты	-10.4613
гла	-10.4615
▁пост	-10.4617
▁Кветк	-10.4617
ni	-10.4619
віл	-10.4619
▁апынуў	-10.4621
▁пач	-10.4622
нгі	-10.4626
▁адпавядае	-10.4627
авую	-10.4628
▁еўра	-10.4637
ліку	-10.4645
▁масавы	-10.4657
▁каманду	-10.4657
▁кал	-10.4662
▁зялёны	-10.4664
▁дазвол	-10.4669
▁ль	-10.4672
▁табліц	-10.4677
▁барока	-10.4677
▁кампазіцыі	-10.468
▁Ma	-10.4681
▁Бага	-10.4682
аз	-10.4682
▁гімназіі	-10.4685
▁апарат	-10.4687
▁Роберт	-10.469
▁Спа	-10.4692
ква	-10.4693
гадова	-10.4693
▁рэзка	-10.4694
▁Асабліва	-10.4695
▁аднаві	-10.4699
mo	-10.47
▁Вялікім	-10.4702
▁ўсю	-10.4703
годдзя	-10.4707
нічы	-10.471
▁КПСС	-10.4711
▁Англія	-10.4713
▁агульным	-10.4719
▁Вуліца	-10.4721
жка	-10.4722
▁эры	-10.4723
▁закона	-10.4724
▁горна	-10.4728
аснову	-10.473
вана	-10.473
▁Бан	-10.473
▁Май	-10.4734
▁рэчываў	-10.4734
▁траўм	-10.4736
чук	-10.4738
▁кур	-10.4738
▁здыма	-10.4741
тык	-10.4742
зіць	-10.4743
▁заклік	-10.4745
плыў	-10.4746
▁Фер	-10.475
▁Фо	-10.475
▁Мал	-10.475
▁Купалы	-10.4751
нья	-10.4752
▁фрагмент	-10.4755
про	-10.4756
▁Гродзенска	-10.4757
▁цэнтральны	-10.4758
▁Вен	-10.4759
шана	-10.4763
.1	-10.4764
▁аж	-10.4766
▁Пол	-10.4767
▁помніка	-10.4768
маг	-10.477
▁Аўстра	-10.4776
овага	-10.4776
піса	-10.4777
▁перанос	-10.4786
▁праводзя	-10.4788
▁войск	-10.4789
▁паказчык	-10.479
▁зацверджаны	-10.479
▁Рэйн	-10.4792
▁абвясціл	-10.4796
▁Сярэдня	-10.4798
▁масы	-10.4798
▁выраз	-10.4802
gt	-10.4805
глі	-10.4807
▁ідзе	-10.4808
мена	-10.481
▁Румыніі	-10.481
▁штурм	-10.481
▁плоска	-10.4812
▁аўтарам	-10.4812
ант	-10.4815
▁рукі	-10.4815
▁значн	-10.4816
кім	-10.4816
▁сямі	-10.4816
оўцы	-10.4817
лог	-10.482
▁выступіў	-10.4822
▁часова	-10.4823
топ	-10.4825
ёва	-10.4827
▁дзяржаўным	-10.4829
▁распрацоў	-10.4829
▁Дзю	-10.483
▁тан	-10.4832
▁двара	-10.4833
чанка	-10.4835
▁66	-10.4835
▁рускі	-10.4845
▁заснавальнік	-10.4845
кцыя	-10.4846
▁De	-10.4847
▁мінулым	-10.485
▁арбіт	-10.4851
▁ке	-10.4852
▁спецыяльнасц	-10.4854
няты	-10.4856
▁Дар	-10.4864
ура	-10.4866
чар	-10.4869
▁Вільгельм	-10.487
▁прайшлі	-10.487
кт	-10.487
▁Трэ	-10.4872
▁ўдзельнічаў	-10.4873
▁вядучы	-10.4875
еры	-10.4876
▁машына	-10.4878
▁Каўказ	-10.4879
▁пакалення	-10.4879
дат	-10.488
▁заліў	-10.4882
▁межам	-10.4884
▁дастаткова	-10.4886
▁парламент	-10.4889
▁гармат	-10.489
▁72	-10.4894
▁гледжання	-10.4896
▁Бял	-10.4896
▁дзейнічае	-10.4898
▁душ	-10.49
стыя	-10.4901
▁называлі	-10.4906
▁партый	-10.4908
жэн	-10.4909
кле	-10.4911
▁Куб	-10.4912
▁Інстытут	-10.4912
▁Лондан	-10.4913
ow	-10.4913
▁памяці	-10.4914
▁сло	-10.4915
▁ўладанні	-10.4916
▁стварыць	-10.4923
▁адкрыцця	-10.4932
▁St	-10.4934
лаве	-10.4937
▁Аляксандравіч	-10.4937
носі	-10.494
▁герцагства	-10.494
▁залежыць	-10.4941
▁будуча	-10.4941
цк	-10.4943
вялі	-10.4947
▁Міхал	-10.4948
леп	-10.495
▁68	-10.495
▁бібліятэкі	-10.495
▁шведскі	-10.4956
лат	-10.496
нікамі	-10.4961
▁вылуча	-10.4962
▁дыск	-10.4963
шых	-10.4971
▁the	-10.4972
▁манархі	-10.4972
▁каралеўскі	-10.4973
▁зона	-10.4975
▁прамавугольны	-10.4979
▁такога	-10.4979
▁лічы	-10.4979
оч	-10.4981
▁выбух	-10.4986
кладзена	-10.4987
▁апошнім	-10.4988
▁Дуб	-10.4988
▁Еўра	-10.4989
▁Цар	-10.4991
▁прыпыначны	-10.4993
▁іншы	-10.4994
▁правінцый	-10.4997
▁невядома	-10.4998
▁Бога	-10.4998
▁улада	-10.4999
▁незалежна	-10.5
▁Таварыства	-10.5003
▁долараў	-10.5004
▁летні	-10.5007
ніверсітэце	-10.5007
▁сходу	-10.5009
▁прэмія	-10.5011
▁князем	-10.5012
▁Лондане	-10.5013
▁ападка	-10.5016
▁пасада	-10.5016
рэч	-10.5016
-6	-10.5016
▁друкава	-10.5018
жываецца	-10.5018
▁Мік	-10.5019
▁Аўгуста	-10.5021
▁здольны	-10.5021
ge	-10.5022
зму	-10.5025
▁флоту	-10.5027
кавых	-10.5029
▁Беларускім	-10.5029
▁падрыхтоўк	-10.5031
▁гол	-10.5038
▁будынкі	-10.5039
▁мястэчк	-10.5041
▁віду	-10.5042
▁акадэмі	-10.5048
▁правым	-10.5048
▁сцэна	-10.5051
коль	-10.5058
дкі	-10.5061
цка	-10.5063
▁Міхайлавіч	-10.5066
▁забеспячэння	-10.5067
зар	-10.507
лым	-10.5073
▁ўзровень	-10.5073
▁Пакольк	-10.5077
жанне	-10.5081
рамі	-10.5083
▁чын	-10.5084
▁Доктар	-10.5086
▁Барыс	-10.5089
▁Гомеля	-10.5094
▁зроблена	-10.5094
▁захоўвае	-10.5094
▁Часам	-10.5095
▁парты	-10.5099
▁вёсак	-10.5103
▁выкладаў	-10.5104
каўскі	-10.5104
лера	-10.5105
▁надпіс	-10.5107
-10	-10.5108
▁трэця	-10.5111
▁мяса	-10.5112
▁дарозе	-10.5112
ga	-10.5113
кур	-10.5117
рскай	-10.5118
▁Лісце	-10.5122
▁Ген	-10.5126
соб	-10.5127
▁невядомы	-10.5127
▁Балгарыі	-10.513
▁уладай	-10.513
op	-10.5131
▁Кер	-10.5133
▁Li	-10.5134
▁стая	-10.5139
▁належаць	-10.514
нуць	-10.5141
▁старо	-10.5142
пл	-10.515
мара	-10.5152
карэспандэнт	-10.5157
▁паводзін	-10.5157
▁Маль	-10.5159
▁набыў	-10.5162
▁распрацаваны	-10.5165
▁кол	-10.5165
▁знаходжанн	-10.5168
▁сан	-10.517
бара	-10.5181
▁суп	-10.5183
фры	-10.519
▁каманд	-10.5191
нож	-10.5191
▁войскам	-10.5192
▁барабан	-10.5194
лег	-10.5196
▁ўдзельніча	-10.5201
▁хі	-10.5202
▁Кале	-10.5204
▁вера	-10.5206
▁69	-10.5208
▁пратэст	-10.521
▁працуюць	-10.521
веж	-10.5213
▁цячэнні	-10.5213
ka	-10.5216
▁Злучаны	-10.5216
рані	-10.5216
▁далучыў	-10.5216
нута	-10.5217
▁1920-	-10.522
аваныя	-10.5224
▁Нобелеўска	-10.523
▁Ірландыі	-10.523
▁абазначэнне	-10.523
альная	-10.5232
▁сабо	-10.5234
▁лес	-10.5235
▁Іс	-10.5236
еля	-10.5246
▁Радзівіл	-10.5247
▁лабараторы	-10.5249
ваны	-10.5259
▁старэйша	-10.526
▁1890	-10.5261
▁развіты	-10.5261
▁Джэ	-10.5265
але	-10.5265
▁Гары	-10.5268
▁Яшч	-10.5271
стой	-10.5273
▁хваробы	-10.5274
▁Браслаўскі	-10.5274
▁67	-10.5275
ляецца	-10.5277
▁знешні	-10.5279
▁пласт	-10.5281
▁чыгуначны	-10.5283
▁зарад	-10.5283
▁хрысціянскі	-10.5285
▁парод	-10.5285
▁выкананне	-10.5286
▁хва	-10.5288
▁Літве	-10.5288
▁змог	-10.5288
▁e	-10.5291
йшло	-10.5293
▁робіць	-10.5295
▁атрыманы	-10.5297
▁Бог	-10.53
▁балот	-10.5302
▁Бразіліі	-10.5304
▁спадарожнік	-10.5304
▁канферэнцыі	-10.5305
▁земляробства	-10.5307
▁руха	-10.5309
▁мед	-10.5311
рта	-10.5314
▁жаночы	-10.5315
еўскі	-10.5316
ступіць	-10.5318
▁гаспадарка	-10.5322
пт	-10.5322
▁замуж	-10.5323
беры	-10.5324
▁лясны	-10.5324
▁Міністра	-10.5325
шаў	-10.5325
▁плям	-10.5326
уз	-10.5329
віт	-10.533
авымі	-10.5331
▁горы	-10.5332
▁сабраны	-10.5333
0-	-10.5336
шэн	-10.5341
▁фізічны	-10.5342
▁дарог	-10.5346
даюць	-10.535
нск	-10.5351
▁Ор	-10.5351
▁Дняпра	-10.5353
▁выканання	-10.5354
віны	-10.5355
▁Варшаве	-10.5356
▁Рады	-10.5356
▁Гран	-10.5357
льнымі	-10.5359
▁трэ	-10.5362
▁Андрэ	-10.5364
родзе	-10.5364
▁завода	-10.5365
▁Порт	-10.5366
льнасць	-10.5366
▁тэоры	-10.5369
▁лу	-10.537
графічны	-10.537
ри	-10.537
кал	-10.5373
▁ускраін	-10.5379
▁Тэрмін	-10.5381
▁Бацька	-10.5381
▁Бель	-10.5387
▁Віль	-10.5387
▁астравах	-10.5388
▁Смаленска	-10.5393
▁неаднаразова	-10.5397
▁Самы	-10.5401
▁невялікія	-10.5402
ічнай	-10.5403
▁змага	-10.5405
▁заканчэнні	-10.5407
▁страціў	-10.5407
▁падзялі	-10.5407
▁далёка	-10.5417
▁муж	-10.5417
▁Сту	-10.542
▁праведзена	-10.542
▁падыход	-10.542
▁літара	-10.5421
цяж	-10.5421
▁ўдар	-10.5421
▁Максім	-10.5421
▁архітэктурны	-10.5425
▁росту	-10.5427
▁зоне	-10.5433
крыва	-10.5437
льва	-10.5438
▁зямля	-10.5439
▁васьмі	-10.544
▁супер	-10.5441
зда	-10.5443
▁гварды	-10.5443
▁каардынат	-10.5444
▁трапіў	-10.5444
орт	-10.5444
▁сеткі	-10.5444
▁пастаўлены	-10.5445
▁метады	-10.5447
▁жывёлы	-10.5448
▁пакрыты	-10.5449
▁злучаны	-10.5455
▁аўтамабільна	-10.546
▁куды	-10.5461
▁рэспубліканска	-10.5464
▁непры	-10.5465
▁дыяметр	-10.5467
▁выявы	-10.5469
▁лю	-10.547
▁вынікам	-10.547
▁уласна	-10.5474
▁начальніка	-10.5476
▁рухавік	-10.5478
▁Бэ	-10.548
▁Тор	-10.548
▁0,3	-10.5488
чэн	-10.5491
льніка	-10.5493
▁гандл	-10.5493
▁пакінул	-10.5497
▁парт	-10.5497
▁палітыку	-10.5499
▁існавал	-10.5499
▁8-	-10.55
▁акіян	-10.5502
▁матэматык	-10.5504
▁нафта	-10.5505
ти	-10.5505
▁маштаб	-10.5507
▁належала	-10.5508
гары	-10.5508
▁выра	-10.5513
дуць	-10.5514
▁екты	-10.5515
▁імператарам	-10.5516
бой	-10.5518
▁ажыццяўляе	-10.5519
▁Кана	-10.552
▁Луі	-10.552
▁задач	-10.5521
▁самі	-10.5521
▁800	-10.5521
▁Паўночны	-10.5525
▁абароне	-10.5526
сел	-10.5531
гул	-10.5531
▁досы	-10.5532
▁савецка	-10.5537
пэўн	-10.5537
▁ідэя	-10.554
▁ван	-10.554
▁куб	-10.5545
▁Георг	-10.555
дадзены	-10.5553
лёў	-10.5558
шага	-10.5559
▁мусульман	-10.556
цвя	-10.5561
▁бура	-10.5563
▁вуліц	-10.5564
▁ажаніў	-10.5565
воз	-10.557
лец	-10.5571
лос	-10.5572
▁паверх	-10.5573
▁падзяля	-10.5574
▁1970-	-10.5576
▁Маг	-10.5579
▁вылучы	-10.5582
ізацыі	-10.5588
ўкі	-10.5588
▁газ	-10.5589
баў	-10.5591
▁Шатландыі	-10.5595
▁Брытанска	-10.5596
▁Указам	-10.5596
▁поўны	-10.5598
ркі	-10.5603
▁унутраны	-10.5605
▁Кро	-10.5613
▁дамен	-10.5614
▁лігі	-10.5615
▁рок	-10.5616
▁дырэктарам	-10.5621
ab	-10.5624
▁Міха	-10.5624
▁Веранікі	-10.5625
▁Al	-10.5626
Пецярбургу	-10.5626
▁1960-	-10.5632
рты	-10.5633
▁пагадненне	-10.5633
▁твар	-10.5635
▁Старажытна	-10.5643
нку	-10.5646
▁спектакл	-10.5653
▁птушка	-10.5653
▁класіфікацы	-10.5653
▁Рымскі	-10.5655
▁партызанска	-10.5658
▁трапічны	-10.5662
▁праграма	-10.5669
▁ўстанова	-10.5669
do	-10.5674
▁спрыял	-10.5675
быт	-10.5677
▁Міхаіла	-10.568
▁Фра	-10.5683
▁увайшоў	-10.5691
▁прыватна	-10.5696
▁кала	-10.5698
▁74	-10.5703
▁супрацоўніцтва	-10.5704
▁Перш	-10.5708
▁родаў	-10.571
▁цэглы	-10.571
▁ск	-10.5712
▁араб	-10.5713
▁ракет	-10.5713
▁прамысловасць	-10.5714
разовы	-10.5717
▁Кава	-10.5717
▁плана	-10.572
цце	-10.5723
▁Герман	-10.5724
▁Ліп	-10.5724
▁прычын	-10.5725
▁59	-10.5726
▁стрэл	-10.5729
▁прамы	-10.573
▁вопыт	-10.573
незі	-10.5731
▁Дняпро	-10.5731
▁Гай	-10.5732
▁шука	-10.5734
▁Аляксей	-10.5739
▁вёў	-10.574
нічны	-10.5741
▁бяс	-10.5742
бліз	-10.5744
▁складана	-10.5745
▁вяршын	-10.5745
▁1903	-10.5746
▁Ала	-10.5748
▁старшы	-10.5748
▁1830	-10.5748
▁скопішча	-10.5749
▁Рак	-10.5749
▁скарб	-10.5756
▁важна	-10.5758
▁крэ	-10.5759
▁істотна	-10.5761
▁свабодны	-10.5764
чнымі	-10.5764
▁якімі	-10.5764
▁засталіся	-10.5765
права	-10.5766
▁адноўлены	-10.5768
▁харчова	-10.5774
будаваны	-10.5782
▁займаюць	-10.5782
неслі	-10.5783
ёт	-10.5783
кты	-10.5785
▁апынулася	-10.5788
▁выкарыстоўвалі	-10.5793
восень	-10.5795
▁архітэктара	-10.5795
▁абвешчаны	-10.5797
▁кампазітар	-10.5798
▁пік	-10.5799
▁Вене	-10.5806
▁кірава	-10.5807
валы	-10.5817
▁чалавеча	-10.582
▁фла	-10.5821
▁перакладзе	-10.5824
▁карціна	-10.5825
▁буйно	-10.5829
дак	-10.583
▁дзейнічала	-10.5836
▁звярта	-10.5836
▁Вышыня	-10.5837
▁паверхня	-10.5837
альнай	-10.5837
ід	-10.5838
▁абіра	-10.5839
▁вала	-10.5839
жна	-10.5843
шыр	-10.5844
▁Была	-10.5844
▁Шмат	-10.5848
льцы	-10.5852
▁сяброў	-10.5854
склад	-10.5854
▁нізін	-10.5855
ур	-10.5856
▁Акмолінска	-10.5856
▁якому	-10.5857
▁дарога	-10.5859
▁раўнд	-10.5861
леж	-10.5863
▁кропка	-10.5863
▁спалуча	-10.5864
▁матч	-10.5864
▁Пру	-10.5864
▁абавязкі	-10.5866
тычная	-10.5868
▁натуральна	-10.5869
нуў	-10.587
тыкі	-10.587
▁медаль	-10.587
de	-10.5872
▁тэхнікі	-10.5876
▁выкарыстоўваў	-10.5878
▁Глеб	-10.5879
▁традыцыя	-10.5884
цель	-10.5885
▁Адначасова	-10.5885
▁вядомым	-10.5886
▁мяжу	-10.5887
▁Рос	-10.589
▁ўдзельнік	-10.5892
▁пліт	-10.5893
▁дарогі	-10.5894
▁армію	-10.5895
▁захапіў	-10.5902
▁недахоп	-10.5905
▁памяць	-10.5906
▁дзяржавай	-10.5907
▁Крас	-10.591
▁Божай	-10.5911
ндра	-10.5912
▁заснава	-10.5916
▁сакратаром	-10.5917
тэль	-10.5918
▁верш	-10.592
▁ядра	-10.5921
▁клубам	-10.5922
▁смерць	-10.5923
▁Партугаліі	-10.5927
▁плошчай	-10.5927
▁арх	-10.5928
▁дывізія	-10.5934
▁Брэст	-10.5935
еўскага	-10.5936
▁Гомельска	-10.5937
▁пытаннях	-10.5939
▁артыкул	-10.594
▁вывучэнне	-10.5946
idae	-10.5947
▁матэрыялы	-10.5949
▁выкарыстоўвае	-10.5953
▁філосаф	-10.5954
▁прамыслова	-10.5955
▁Валасы	-10.5955
федэра	-10.5957
від	-10.5958
ica	-10.5958
▁братам	-10.5963
▁Санта	-10.5965
▁крыві	-10.5966
апа	-10.5975
▁ро	-10.5979
чака	-10.5979
▁царкоўны	-10.598
and	-10.598
▁1812	-10.5981
▁вод	-10.5981
▁братоў	-10.5985
овак	-10.599
▁дагэтуль	-10.5991
▁71	-10.5994
▁супольнасці	-10.5995
▁яўляліся	-10.5998
▁звярну	-10.6003
ляр	-10.6003
▁складзены	-10.6004
▁акрузе	-10.6004
▁збудавання	-10.6004
▁Свяшчэнна	-10.6004
▁царкву	-10.6007
асцей	-10.6014
одзяцца	-10.6015
▁знайсці	-10.6015
▁сцены	-10.6015
▁існаваў	-10.6019
алагічна	-10.6021
ПС	-10.6023
жскі	-10.6024
▁дырэктара	-10.6025
▁бронзавы	-10.6028
▁An	-10.6033
▁маленькі	-10.6034
▁характарыстык	-10.6034
▁фр	-10.6034
▁рука	-10.6037
аўскай	-10.6037
▁нямецкім	-10.6041
дня	-10.6043
элі	-10.6044
▁85	-10.6046
▁Дубро	-10.6049
▁астэроід	-10.6051
▁73	-10.6052
▁перапіс	-10.6053
▁авія	-10.6053
▁выразна	-10.6054
▁германск	-10.6055
ліз	-10.6055
▁лікаў	-10.6058
▁Тэр	-10.6059
кл	-10.6059
▁прама	-10.6059
▁v	-10.6062
▁Марцін	-10.6063
▁жорстка	-10.6063
▁яўленне	-10.6063
▁вывучэння	-10.6067
▁дадзены	-10.6071
кала	-10.6072
▁аўтобус	-10.6073
нства	-10.6074
авіча	-10.6074
▁змяніў	-10.6075
бас	-10.6077
тнай	-10.6078
▁аперацыя	-10.6078
▁сек	-10.6079
▁расход	-10.608
▁сухі	-10.6081
ката	-10.6082
▁транспарт	-10.6086
▁ХХ	-10.6087
▁моладзі	-10.6088
im	-10.6092
▁стадыён	-10.6094
▁працягласц	-10.6097
▁захоплены	-10.61
▁Магілёў	-10.6102
ry	-10.6102
ніц	-10.6103
ou	-10.6103
▁стагоддзе	-10.6103
▁нас	-10.6105
amp	-10.6106
ніцтва	-10.6106
▁экспедыцыя	-10.6108
▁прафесійна	-10.6111
▁шлюбу	-10.6113
▁Аўгуст	-10.6114
▁наяўнасць	-10.6116
▁база	-10.6123
▁археолаг	-10.6124
▁Кіеў	-10.6124
▁шэрагам	-10.6125
тын	-10.6126
▁вызначаны	-10.6127
▁прысутніча	-10.6129
▁далучы	-10.613
▁працягну	-10.6134
▁арміяй	-10.6139
аюцца	-10.614
▁Трэця	-10.6145
▁альбома	-10.6146
▁Маскоўскага	-10.6146
▁адзінак	-10.6147
шлі	-10.6147
▁фільме	-10.6148
трап	-10.6149
▁калон	-10.6152
радзі	-10.6153
▁Люксембург	-10.6154
йскія	-10.6156
▁мірна	-10.6156
▁заняла	-10.6157
оны	-10.6159
▁славянскі	-10.6161
дор	-10.6168
▁ланцуг	-10.6174
▁абласця	-10.6174
▁канала	-10.6175
▁дзейнасц	-10.6176
▁Прад	-10.618
▁бур	-10.6184
▁рэформы	-10.6186
▁Іншыя	-10.6187
▁дасягнула	-10.6187
▁грошы	-10.6194
▁сезона	-10.6195
▁ўзброены	-10.6195
▁неба	-10.6195
тр	-10.6195
▁гаспадарчы	-10.6196
▁Ro	-10.6197
▁будаўнічы	-10.6204
▁гандлёва	-10.6205
▁блізкі	-10.6207
▁ўладальнік	-10.6209
▁Пэ	-10.621
▁1870	-10.6211
▁Казіміра	-10.6212
кол	-10.6214
пол	-10.6215
▁сэрца	-10.6219
▁стыль	-10.6222
падобныя	-10.6224
ci	-10.6227
йскую	-10.6235
▁Чэмпіён	-10.6235
віца	-10.6237
▁1902	-10.6238
нга	-10.6239
200	-10.6239
▁Сям	-10.6241
ндзі	-10.6241
ba	-10.6245
▁ал	-10.6246
▁выратава	-10.6247
▁спе	-10.6249
▁бога	-10.6259
▁стварае	-10.6259
кру	-10.6262
▁Егіпта	-10.6265
▁эксплуатацы	-10.6265
рны	-10.6265
НР	-10.6269
вад	-10.6269
▁ява	-10.627
▁Гал	-10.6276
▁бачы	-10.6277
вымі	-10.6278
▁ўнутры	-10.628
эта	-10.6282
▁маскоўскі	-10.6287
▁памерам	-10.6287
▁развіцці	-10.6287
метры	-10.6288
▁марско	-10.6291
▁школ	-10.6292
леныя	-10.6294
▁драматург	-10.6296
▁краі	-10.6298
два	-10.6305
▁вызвалі	-10.6305
▁Тру	-10.6305
▁адмаўля	-10.6307
▁ліста	-10.6312
эк	-10.6312
▁змяня	-10.6312
▁цячэ	-10.6317
▁1901	-10.6319
▁вучыў	-10.6322
▁Залата	-10.6324
▁каналізавана	-10.6327
▁літар	-10.6327
mi	-10.6328
лька	-10.6332
▁банка	-10.6332
▁Цю	-10.6333
лова	-10.6338
ваты	-10.634
▁літоўскага	-10.6348
▁сярэдн	-10.6349
▁эфір	-10.6349
▁Джона	-10.6349
▁валодае	-10.635
▁ўладамі	-10.6352
рож	-10.6356
▁незалежны	-10.6357
▁1500	-10.6359
▁электрычна	-10.6359
▁хаце	-10.6361
▁разбураны	-10.6362
пуск	-10.6364
тычным	-10.6366
▁кн	-10.6367
маты	-10.6373
▁k	-10.6374
▁удзельнікаў	-10.6376
▁Храм	-10.6376
ічныя	-10.6377
▁аг	-10.6377
▁вымярэння	-10.6378
▁вакзал	-10.6379
▁калоніі	-10.6382
▁заслуг	-10.6383
ард	-10.6383
▁вяртання	-10.6385
▁прымае	-10.6388
ступлення	-10.6395
▁Станіслаў	-10.6399
▁галасоў	-10.6399
▁Інстытуц	-10.6399
▁рыцар	-10.6403
іт	-10.6407
калі	-10.6409
ное	-10.6414
▁Памер	-10.6414
▁хуткасць	-10.6416
▁звыча	-10.6417
▁Два	-10.6418
▁адрозненні	-10.6419
▁1880	-10.6423
тс	-10.6424
▁рабочых	-10.6424
▁буйна	-10.6426
▁прыхільнікаў	-10.6427
▁сыр	-10.6429
▁неабходны	-10.6431
▁сада	-10.6433
▁ўмовы	-10.6434
▁справах	-10.6436
▁Эд	-10.6438
▁Сто	-10.6439
▁масів	-10.6443
▁самага	-10.6448
ндэр	-10.6449
▁Прусіі	-10.645
▁ўзор	-10.6452
▁Лін	-10.6452
▁Паўднёвы	-10.6452
сал	-10.6453
тызм	-10.6461
▁рамана	-10.6461
▁аўтараў	-10.6462
кас	-10.6464
▁пазнача	-10.6471
▁выяўлена	-10.6472
▁03	-10.6473
▁уласны	-10.6473
▁Канстытуцыі	-10.6474
▁гук	-10.6474
▁рэзерв	-10.6481
▁снукеры	-10.6482
▁загадаў	-10.6483
▁надзе	-10.6484
▁акт	-10.6485
all	-10.6485
▁беларускім	-10.6485
▁газу	-10.6491
▁вадзе	-10.6493
▁апублікаваў	-10.6493
▁Стаў	-10.6494
шо	-10.6495
▁Дзярж	-10.6495
▁Анты	-10.6501
▁прысвечана	-10.6502
▁вусця	-10.6503
▁вырабля	-10.6506
тавы	-10.6508
▁Філіпа	-10.6512
▁пагроз	-10.6512
▁лячэнн	-10.6515
будавалі	-10.6515
▁выкарыстоўваліс	-10.6517
гіна	-10.652
▁Чырвоны	-10.6523
▁поўдня	-10.6523
▁маёнтк	-10.6525
▁БНР	-10.6526
▁дачкі	-10.6532
сныя	-10.6533
віча	-10.6537
▁дамы	-10.6537
▁Бла	-10.6541
▁выканаў	-10.6543
▁ўсходні	-10.6544
▁прыбыў	-10.6545
▁труб	-10.655
падаюць	-10.6557
біты	-10.6557
▁далучаны	-10.6559
▁Сацыялістычна	-10.6559
▁выкарыстоўвалас	-10.6561
▁пашыры	-10.6566
▁Перу	-10.6569
▁настаўнікам	-10.6574
фар	-10.6576
▁ўклад	-10.6582
лот	-10.6585
▁утвораны	-10.6586
▁правадыр	-10.6589
▁практыка	-10.659
▁крылаў	-10.6591
ступіла	-10.6591
▁Канстанціна	-10.6594
▁Віцебску	-10.6596
▁аўстрыйскі	-10.6596
▁вадо	-10.6602
▁партрэт	-10.6602
▁расце	-10.6603
▁цяперашня	-10.6605
▁Зо	-10.6606
▁1793	-10.6606
▁экспазіцы	-10.6607
▁пераходзі	-10.661
джаны	-10.6622
▁мінска	-10.6623
▁адкрыў	-10.6623
▁галіна	-10.6626
▁набор	-10.663
▁шчыт	-10.6634
годы	-10.6638
▁Дзмітрый	-10.6639
▁тэлебачанн	-10.6639
▁выбіра	-10.664
тап	-10.6648
▁адлюстрава	-10.6651
ічны	-10.6653
▁пласцін	-10.6653
▁мета	-10.6655
▁абмежавана	-10.6658
▁фарміравання	-10.6658
▁магла	-10.6661
завод	-10.6662
▁брыгады	-10.6662
▁Вест	-10.6666
▁камандзіра	-10.6676
▁мяжуе	-10.668
▁бацькам	-10.6681
▁мяжой	-10.6681
▁Мана	-10.6682
▁кожным	-10.6684
▁сер	-10.6685
▁пастанова	-10.6686
▁алтар	-10.6688
▁схем	-10.6688
▁клімат	-10.6689
▁цэлы	-10.669
▁забяспечы	-10.6692
▁ўдзельнічал	-10.6692
▁Славакіі	-10.6692
▁Нёман	-10.6696
▁перадаў	-10.6699
▁Сібіры	-10.6702
▁метал	-10.6702
краін	-10.6702
▁ландшафт	-10.6703
▁газеце	-10.6703
▁сучасным	-10.6708
▁Права	-10.6708
▁Глу	-10.6709
абілі	-10.6711
▁намаляваны	-10.6713
▁r	-10.6714
наму	-10.6718
▁130	-10.6719
▁гульня	-10.6723
▁здзейсніў	-10.6724
▁супрацьстая	-10.6725
пін	-10.6728
▁катэгорыі	-10.6728
оўкі	-10.6729
▁Від	-10.6733
▁склалі	-10.6733
▁доктара	-10.6734
▁76	-10.6735
таль	-10.6739
▁Азербайджана	-10.6741
▁Чэр	-10.6745
-7	-10.6745
▁тро	-10.6746
▁маёмас	-10.6749
▁паліва	-10.6749
▁літаральна	-10.675
▁структура	-10.675
▁Mo	-10.6752
меды	-10.6752
сад	-10.6755
уша	-10.6756
▁напад	-10.6758
▁падання	-10.6759
▁стаўшы	-10.6761
▁філіял	-10.6765
▁Еўрапейскі	-10.6767
нята	-10.6769
ag	-10.6769
▁сустрэчы	-10.677
льма	-10.6771
маёр	-10.6772
U	-10.6775
▁Магчыма	-10.6777
▁Mar	-10.6781
▁Джордж	-10.6784
▁еўрапейскай	-10.6787
▁вызвалены	-10.6789
шчыны	-10.6789
▁1950-	-10.6791
лавы	-10.6791
брэ	-10.6793
кіна	-10.6793
▁танца	-10.6795
▁Малі	-10.6798
▁салецтва	-10.6798
▁Маскву	-10.6799
кцыі	-10.6799
▁ўтварае	-10.6809
▁маладо	-10.681
▁сонца	-10.6812
▁накірава	-10.6819
▁фаз	-10.6819
▁Клім	-10.682
▁памяшкання	-10.682
шэнне	-10.682
▁глебы	-10.6821
▁графік	-10.6823
▁нацыянальным	-10.6824
▁фінансавы	-10.6825
павярховы	-10.6827
▁пасяджэнн	-10.6832
▁Паўночная	-10.6833
чэр	-10.6833
▁рускага	-10.6836
▁Сара	-10.6838
▁Выступа	-10.6842
пруж	-10.6842
▁даследчыкі	-10.6842
▁калегі	-10.6845
▁фармальна	-10.6846
▁Бір	-10.6847
▁плато	-10.6847
▁адстаўку	-10.6847
▁Sa	-10.685
▁Гро	-10.685
▁літаратур	-10.685
пушчаны	-10.6851
▁эксперымент	-10.6851
▁летам	-10.6851
мпі	-10.6852
▁вучоб	-10.6853
▁далейша	-10.6853
▁ярка	-10.6853
▁Ціха	-10.6853
▁вынікі	-10.6854
▁выбра	-10.6859
▁грамадзянскі	-10.686
▁пункту	-10.6863
▁характарызуе	-10.6863
▁дэкаратыўны	-10.6863
рман	-10.6864
▁прастора	-10.6865
сіць	-10.6865
▁навучанне	-10.6866
▁Твор	-10.6866
шына	-10.6868
▁разлік	-10.6869
▁Ляс	-10.687
▁Хай	-10.6871
▁Дры	-10.6872
▁кітайскі	-10.6875
▁хіміі	-10.6875
▁круг	-10.6875
ікаў	-10.6875
ьскі	-10.6882
▁700	-10.6883
▁Далей	-10.6884
▁Швецыя	-10.6885
▁увайшл	-10.6886
▁ручай	-10.6886
ard	-10.6887
Па	-10.6887
тараў	-10.6888
▁млын	-10.6891
ми	-10.6892
▁краю	-10.6895
▁Сабор	-10.6897
тынг	-10.6901
▁армянска	-10.6904
▁Джы	-10.6904
▁камень	-10.6905
тун	-10.6913
экс	-10.6915
▁Каро	-10.6917
вей	-10.6917
▁Ск	-10.6926
▁зрабіла	-10.6929
▁Le	-10.6929
рака	-10.6931
▁жоўта	-10.6932
▁Інтэр	-10.6933
▁вёск	-10.6933
▁ўзнік	-10.6933
▁нарадзілас	-10.6937
▁ўсталява	-10.6939
▁выхаду	-10.6939
▁дамаг	-10.6942
▁77	-10.6943
▁камандуючы	-10.6943
вера	-10.6944
▁Пераможца	-10.6948
▁етнам	-10.695
▁Ордэн	-10.6951
-15	-10.6957
пс	-10.6958
▁Чэмпіянат	-10.6959
▁Лаўрэат	-10.6961
▁велічыня	-10.6961
▁украінскі	-10.6962
▁Тал	-10.6963
раваў	-10.6963
▁бацькоў	-10.6963
▁ўзнікла	-10.6967
▁падпарадкоўва	-10.697
▁караблёў	-10.6972
мяні	-10.6975
▁нічо	-10.6975
▁выступ	-10.6981
мента	-10.6983
sh	-10.6988
гуль	-10.6988
ин	-10.6989
▁Антон	-10.699
▁абслугоўва	-10.6992
▁рэгулярна	-10.6995
▁даліна	-10.7
▁апісвае	-10.7002
▁рэальна	-10.7005
▁аўтаномна	-10.7005
▁важным	-10.7008
▁l	-10.7012
▁міф	-10.7013
аецца	-10.7013
▁ваенн	-10.7014
▁паняцце	-10.7016
▁Пале	-10.7023
▁1795	-10.7027
▁дзіцяча	-10.703
▁аўтара	-10.7031
▁1,2	-10.7033
▁Дыя	-10.7037
▁гарнізон	-10.7038
▁рыф	-10.7042
нера	-10.7045
▁адкуль	-10.7048
▁вільготны	-10.7049
▁партнёр	-10.7049
сная	-10.705
▁Рэчышча	-10.7056
перы	-10.7058
▁Аса	-10.7061
▁Свет	-10.7062
▁Радзівіла	-10.7062
▁ёму	-10.7066
лэ	-10.7072
▁абра	-10.7073
▁узнагарод	-10.7074
рыт	-10.7074
аны	-10.7076
▁неад	-10.7081
▁сказа	-10.7084
сход	-10.7084
▁суправаджа	-10.7085
▁асабісты	-10.7086
▁органы	-10.7086
▁навучальна	-10.7086
равана	-10.7088
▁160	-10.7088
▁Пятро	-10.709
▁Частка	-10.709
бла	-10.7091
▁бер	-10.7091
▁Кары	-10.7092
тку	-10.7093
▁зрабілі	-10.7093
▁немагчыма	-10.7095
▁выкарыстаны	-10.7098
ver	-10.71
ine	-10.7101
▁дыс	-10.7101
▁праўлення	-10.7105
руб	-10.7108
▁бярэ	-10.7109
▁0,4	-10.7113
▁знойдзена	-10.7115
▁класічны	-10.7118
▁фе	-10.7119
▁рэферэндум	-10.7127
▁ўзвышша	-10.7127
▁Былі	-10.7127
кет	-10.7128
-16	-10.7129
▁Іспанія	-10.7131
біта	-10.7134
▁Мінская	-10.7138
▁мер	-10.7139
▁палас	-10.7149
▁любі	-10.715
▁Мэ	-10.7151
▁вышыню	-10.7151
▁японска	-10.7152
▁старажытнасці	-10.7153
▁мыш	-10.7155
ской	-10.7161
сюль	-10.7166
▁Стакгольм	-10.7171
нны	-10.7173
▁носі	-10.7174
▁ворага	-10.7179
▁маркі	-10.718
чыся	-10.7181
вел	-10.7181
▁Пабудавана	-10.7182
цэвіч	-10.7183
▁піша	-10.7184
рынг	-10.7185
ваннем	-10.7186
▁гімна	-10.7189
▁1860	-10.719
ападобна	-10.719
▁вярта	-10.7192
▁гер	-10.7192
лічы	-10.7197
ніч	-10.7199
▁занялі	-10.7199
▁працэсу	-10.7201
▁залы	-10.7206
▁войнаў	-10.7208
▁Полацка	-10.7209
тычную	-10.721
сцяў	-10.7211
веры	-10.7211
▁дасягнуў	-10.7218
▁Цэнтральны	-10.7219
▁Томас	-10.7221
▁вывучаў	-10.7222
▁аналіз	-10.7227
▁выток	-10.7228
▁помнікі	-10.7238
▁апсіда	-10.724
PM	-10.7242
▁выкарыстаннем	-10.7244
▁Гарадзе	-10.7244
лісты	-10.7247
дзял	-10.7249
W	-10.7249
▁павялічы	-10.7251
▁нейкі	-10.7253
▁сабак	-10.7253
▁гроша	-10.7262
гель	-10.7266
▁захапілі	-10.7269
▁падтрымкі	-10.7272
▁спрабаваў	-10.7272
зма	-10.7274
тная	-10.7274
вуч	-10.7275
▁апошняй	-10.7275
▁працягла	-10.728
▁спев	-10.7281
▁скульптуры	-10.7284
▁інтарэс	-10.7285
дру	-10.7286
▁незалежнай	-10.7287
▁дадзеныя	-10.7288
кель	-10.7288
▁Баг	-10.7293
▁абазначэння	-10.7294
▁рэкорд	-10.7295
ви	-10.7295
▁Друга	-10.7299
▁комплексу	-10.7299
ловы	-10.7301
▁Чырвон	-10.7303
тэт	-10.7304
▁04	-10.7305
▁развіта	-10.7305
фарм	-10.7305
▁рэстаўрацы	-10.7306
▁захавання	-10.7308
▁валют	-10.7311
цёк	-10.7312
▁Уладзіміравіч	-10.7312
льнікам	-10.7314
біт	-10.7318
▁караблі	-10.7319
рыян	-10.7319
▁блок	-10.732
▁захоўваю	-10.7327
▁дзвюма	-10.7328
▁вузка	-10.7329
▁польскім	-10.733
▁каралева	-10.733
▁старажытнагрэч	-10.7332
▁голас	-10.7333
▁турэцка	-10.7335
▁лег	-10.7337
▁краіну	-10.7337
▁гран	-10.7337
▁прыняцц	-10.7337
▁Сучасны	-10.734
▁квартал	-10.7342
▁Пастаўскі	-10.7342
▁Кіева	-10.7344
▁ход	-10.7344
рун	-10.7345
шкевіч	-10.7346
жыва	-10.7347
▁памяшканні	-10.7351
▁касмічны	-10.7352
▁Таў	-10.7352
▁прадукт	-10.7352
▁Полацкім	-10.7354
▁Ленінград	-10.7358
▁Ісус	-10.736
шчык	-10.7361
▁аўстра	-10.7361
▁Мюнхен	-10.7362
▁франтах	-10.7362
▁Казімір	-10.7366
▁адправіў	-10.7366
▁мясцовым	-10.7374
▁спартыўны	-10.7374
▁працягвае	-10.7377
ёны	-10.7379
▁патрабуе	-10.7385
▁хатні	-10.7386
▁Баранавіцка	-10.7386
▁Том	-10.7388
▁руб	-10.7389
▁дыпламат	-10.7396
▁Кон	-10.7396
мысл	-10.7396
▁лейтэнант	-10.7398
▁ўтварэння	-10.7401
▁жалеза	-10.7401
▁насякомых	-10.7408
віль	-10.7409
▁Стэфан	-10.7412
віз	-10.7412
▁Дз	-10.7413
▁усім	-10.7413
▁Pa	-10.7413
▁стваральнік	-10.7421
клас	-10.7425
▁хлеба	-10.7425
▁рэгіёнаў	-10.7425
▁трэцяга	-10.7426
нева	-10.743
▁паўабаронца	-10.7431
йная	-10.7431
▁магчымы	-10.7432
▁максімальна	-10.7434
была	-10.7434
▁прылады	-10.7434
эма	-10.7435
▁Каш	-10.7436
▁свайм	-10.7438
▁святар	-10.7439
цыяй	-10.7442
▁купал	-10.7443
▁педагагічны	-10.7443
▁Кэ	-10.7451
▁пейзаж	-10.7451
▁сябрам	-10.7451
анс	-10.7453
▁Аўстрыя	-10.7454
▁прыняла	-10.7455
▁усталяваны	-10.7456
▁Мілан	-10.746
оід	-10.7463
▁скончылас	-10.7466
▁астра	-10.7466
▁асаблівасці	-10.7468
ленд	-10.747
▁ўспамін	-10.7472
▁лінзападобна	-10.7477
▁рэзідэнцыя	-10.7477
▁скрыжаванн	-10.7477
рг	-10.7479
▁Іл	-10.7482
▁прыз	-10.7483
стрэ	-10.7483
▁скал	-10.7484
▁кажу	-10.7485
става	-10.7485
▁Леанід	-10.7486
▁курган	-10.7486
▁Вялікае	-10.7489
▁занята	-10.749
▁сутнасц	-10.749
▁невялікім	-10.7491
цян	-10.7491
▁добры	-10.7492
▁жоўты	-10.7497
▁рускія	-10.75
несена	-10.7501
▁волі	-10.7503
ot	-10.7503
тнік	-10.7508
▁змешчаны	-10.7511
▁квантава	-10.7511
▁меркавання	-10.7512
▁ес	-10.7513
пля	-10.7514
▁Украінска	-10.7514
зава	-10.7514
▁1896	-10.7516
▁карон	-10.7516
▁хо	-10.7517
▁арт	-10.7517
фы	-10.7518
▁Сэ	-10.7518
аваная	-10.7522
▁даждж	-10.7528
▁крок	-10.7529
▁недалёка	-10.7534
▁Рычард	-10.7535
▁папулярна	-10.7535
▁назірання	-10.7536
▁ган	-10.7538
▁цягам	-10.754
▁BMW	-10.7546
▁патэнцыял	-10.7546
вяшча	-10.7549
▁мяч	-10.7549
▁шырокім	-10.755
▁Жо	-10.755
лагічны	-10.7552
▁выпушчаны	-10.7553
▁Усход	-10.7554
▁сказаў	-10.7558
▁Вас	-10.7558
гарад	-10.7564
▁Кен	-10.7564
мень	-10.7565
▁палеа	-10.7565
ит	-10.7566
глядзе	-10.7567
▁Між	-10.7568
▁цвёрда	-10.7569
▁Мастэрс	-10.7569
▁будава	-10.7569
▁Гвіне	-10.7569
станов	-10.757
der	-10.7573
▁прафесара	-10.7576
▁дэкаратыўна	-10.7581
▁гарах	-10.7581
▁істот	-10.7583
▁рыбы	-10.7584
▁падарожжа	-10.7585
▁хор	-10.7585
дына	-10.759
▁вода	-10.7591
▁геа	-10.7594
ліца	-10.7595
▁след	-10.7596
▁цэркваў	-10.7597
▁Бру	-10.7599
▁нападнік	-10.76
▁другое	-10.7602
▁бас	-10.7603
▁чацвёрты	-10.7604
▁карабля	-10.7605
▁яўлення	-10.7607
рук	-10.7607
▁Me	-10.7608
▁Ірак	-10.7608
▁1898	-10.7609
▁планет	-10.761
▁надзвычай	-10.761
▁Паўднёвая	-10.7611
▁Раней	-10.7615
▁бія	-10.7615
▁раўнін	-10.7616
▁тэхнічна	-10.7616
▁Армі	-10.7619
браны	-10.762
▁даста	-10.762
▁ўзбярэжж	-10.7621
▁Узнагароджаны	-10.7628
▁мат	-10.763
льскім	-10.7631
▁палат	-10.7632
be	-10.7632
жана	-10.7633
▁1895	-10.7633
бай	-10.7633
▁сапраўд	-10.7633
▁пакрыта	-10.7635
ніт	-10.7636
▁Харватыі	-10.7639
▁Ката	-10.7641
оле	-10.7641
▁квет	-10.7642
ены	-10.7643
чыны	-10.7645
▁паток	-10.7645
▁важн	-10.7646
раш	-10.765
▁пастаянны	-10.7652
▁выснов	-10.7653
▁працягвалі	-10.7653
si	-10.7653
▁карт	-10.7654
▁спец	-10.7655
мета	-10.7657
▁малекул	-10.7659
▁гвардзейска	-10.7664
ніку	-10.7664
▁Анатоль	-10.7667
▁англ	-10.7667
▁пояс	-10.7671
ўскае	-10.7673
▁невялікіх	-10.7674
▁адмысловы	-10.7674
▁лясоў	-10.7674
▁прыгарад	-10.7676
▁фінансава	-10.7676
▁глеба	-10.7678
les	-10.7679
▁атмасферы	-10.7681
▁Дан	-10.7685
he	-10.7685
▁старажытнага	-10.7685
▁Сталіца	-10.7687
дом	-10.7688
▁Джэймс	-10.769
▁Нёмана	-10.7693
▁ціску	-10.7693
луч	-10.7694
▁7-	-10.7695
▁Швейцарыі	-10.7698
▁Ніка	-10.7699
анскі	-10.77
▁Валь	-10.7701
▁Алег	-10.7703
▁зямно	-10.7703
лікам	-10.7705
▁распаду	-10.7705
▁Царквы	-10.7705
▁выконваў	-10.7706
вор	-10.7709
▁Вашынгтон	-10.771
▁Вярхоўны	-10.771
▁чалавекам	-10.771
арам	-10.7716
уючы	-10.7728
▁доказ	-10.7733
знікае	-10.7736
▁лінгвіст	-10.7737
▁уключае	-10.7741
▁забарон	-10.7742
уля	-10.7742
▁агульная	-10.7742
▁асуджаны	-10.7745
▁агляд	-10.7749
▁робя	-10.775
▁07	-10.7751
▁пакут	-10.7754
▁Сталін	-10.7754
▁хвароб	-10.7754
▁Месяца	-10.7754
▁пашыра	-10.7758
▁g	-10.7759
меш	-10.7764
▁мужчынска	-10.7765
▁Запа	-10.7766
▁калектыў	-10.7769
льні	-10.7769
зур	-10.777
▁прадпрыемстваў	-10.7776
▁мен	-10.7777
ент	-10.7781
▁апісанне	-10.7781
▁паўтара	-10.7782
▁венгерска	-10.7786
▁вяз	-10.7786
▁рэчы	-10.7786
▁вусце	-10.7786
▁лічылі	-10.7786
спект	-10.7792
▁выклада	-10.7793
слі	-10.7794
ове	-10.7794
▁Раб	-10.7795
ніцкай	-10.7795
▁цяг	-10.7797
стычна	-10.7799
▁08	-10.7799
▁di	-10.7801
скімі	-10.7801
бур	-10.7802
▁грэчаскі	-10.7803
▁разгром	-10.7804
▁Шча	-10.7809
ступілі	-10.7811
▁паказаў	-10.7811
▁Be	-10.7813
нуты	-10.7814
ub	-10.7816
▁трэцім	-10.7817
▁святога	-10.7825
жэння	-10.7829
▁прадукцыі	-10.7831
▁рэчывы	-10.7831
▁дасягну	-10.7832
▁1886	-10.7834
лета	-10.7834
нгу	-10.7836
▁цвёрды	-10.784
▁Скар	-10.784
▁кіслат	-10.784
▁этнічны	-10.7841
▁бала	-10.7841
▁116	-10.7841
▁браў	-10.7844
▁задні	-10.7846
ae	-10.7847
▁Мат	-10.7848
▁Пятровіч	-10.7848
бру	-10.7848
бярэж	-10.7849
▁рабоча	-10.7852
лярна	-10.7852
▁абмежаваны	-10.7856
-17	-10.7858
▁гаспадар	-10.786
▁універсітэт	-10.7862
▁крыв	-10.7863
▁ніжнім	-10.7864
рона	-10.7864
▁абапіра	-10.7864
▁часопісе	-10.7869
▁граматы	-10.7871
▁рэлігіі	-10.7872
ke	-10.7872
▁вугл	-10.7875
▁скасаваны	-10.7876
воль	-10.7876
▁належаў	-10.7876
▁архітэктурна	-10.7876
▁зімовы	-10.7877
▁прыняць	-10.7878
▁злуча	-10.788
▁забяспечвае	-10.7881
▁Лап	-10.7882
sa	-10.7887
дадзена	-10.7889
▁рэжысёра	-10.7889
▁тэхнікум	-10.789
▁перамога	-10.7898
▁ліквідацы	-10.79
▁правіл	-10.7901
▁Плод	-10.7901
▁Хэ	-10.7903
▁ўказ	-10.7907
▁ганаровы	-10.7912
▁змена	-10.7913
▁участка	-10.7913
▁Кітаі	-10.7914
▁лічылас	-10.7914
tor	-10.7915
ell	-10.7918
▁мес	-10.7919
▁будаўніцтве	-10.7924
▁размясці	-10.7924
▁Сёння	-10.7924
▁сённяшні	-10.7924
▁крыху	-10.7926
▁метро	-10.7927
▁110	-10.7937
чэй	-10.7939
▁Роз	-10.794
▁w	-10.794
▁кітайска	-10.7943
▁Канады	-10.7946
▁Навагрудска	-10.7948
▁доўжы	-10.7948
▁Еў	-10.7949
▁прызнаў	-10.7949
▁Старшыня	-10.7952
▁ўзначаліў	-10.7952
▁Улетку	-10.7955
▁меркаванне	-10.7957
▁адклада	-10.7958
йным	-10.7958
▁фізіцы	-10.796
▁парадак	-10.7962
▁выкладчык	-10.7962
▁Кало	-10.7962
▁КПБ	-10.7963
▁Яр	-10.7963
est	-10.7964
цо	-10.7965
Пецярбург	-10.7967
рата	-10.7968
▁чацвёрта	-10.7972
▁тыдня	-10.7973
▁Апа	-10.7973
▁вернікаў	-10.7974
▁скуры	-10.7974
▁выказаў	-10.7977
ўскай	-10.7977
▁Генры	-10.7982
tion	-10.7983
▁вучняў	-10.7985
▁верхнім	-10.7985
▁Кожны	-10.7986
▁эксперыментальн	-10.7989
све	-10.7991
▁доступ	-10.7998
▁Чылі	-10.7998
▁самалёт	-10.8
Ба	-10.8004
няць	-10.8008
▁Нідэрландаў	-10.8008
▁Пашыраны	-10.8008
▁Бельгіі	-10.8008
-8	-10.8009
▁тэатральна	-10.8011
▁групоўк	-10.8011
▁алфавіт	-10.8013
▁Іран	-10.8016
▁абавязкова	-10.8017
▁Стэфана	-10.8017
▁Прадстаўнік	-10.802
▁немцаў	-10.8021
▁прынц	-10.8021
▁наведаў	-10.8022
▁пераварот	-10.8022
▁расп	-10.8023
▁манаграфі	-10.8023
▁цуд	-10.8024
ea	-10.8027
фард	-10.8032
▁юрыдычны	-10.8032
▁Чорны	-10.8034
▁Уільям	-10.8035
жска	-10.8035
▁зялёна	-10.8036
▁Фла	-10.8038
заходні	-10.8038
▁1899	-10.8038
▁1861	-10.8039
бат	-10.8041
▁цэн	-10.8042
▁завершана	-10.8045
▁армянскі	-10.8045
▁армій	-10.8046
ліф	-10.8046
▁венгерскі	-10.8047
▁камен	-10.8051
▁Савецкі	-10.8051
▁Оскар	-10.8053
▁крама	-10.8053
▁грэка	-10.8053
▁метра	-10.8055
▁надвор	-10.8057
▁узроўні	-10.8058
▁яр	-10.806
▁дыяметрам	-10.8066
▁паўшар	-10.8069
▁вяр	-10.8072
творчасць	-10.8073
▁Міл	-10.8078
онаў	-10.8083
▁маг	-10.8084
▁Каралеўска	-10.8084
▁Заходні	-10.8086
no	-10.8086
▁водны	-10.8086
▁меркава	-10.8087
ступіў	-10.8088
▁Вала	-10.8088
▁сталы	-10.8091
▁атрымалася	-10.8093
▁адноўлена	-10.8094
рская	-10.8094
▁малодша	-10.8096
▁Генеральна	-10.8096
стана	-10.8097
▁шчыльна	-10.8098
ho	-10.8099
кат	-10.8099
▁прытрымліва	-10.8103
▁традыцый	-10.8104
рада	-10.8106
▁прызначэння	-10.8107
ед	-10.8107
чоў	-10.8108
графічна	-10.8109
di	-10.8116
▁Рыба	-10.8118
▁манет	-10.8123
▁святых	-10.8125
▁званіца	-10.8126
прэзідэнт	-10.8127
▁78	-10.8129
▁хуткасці	-10.813
▁супрацоўніча	-10.813
▁даследчыкаў	-10.8134
▁Вера	-10.8135
0,000	-10.8136
▁балота	-10.814
▁тыпаў	-10.8141
▁апынуліс	-10.8143
▁Адкрыты	-10.8144
▁сістэмай	-10.8145
▁Грамадзянска	-10.8146
▁дабра	-10.8147
▁каталіцкай	-10.815
▁140	-10.8154
оф	-10.8155
▁Паля	-10.8155
▁Пецярбург	-10.8162
▁вектар	-10.8167
▁Штата	-10.8167
▁мураваны	-10.8168
▁in	-10.8173
вазе	-10.8175
▁мужа	-10.8175
льца	-10.8177
дны	-10.8177
▁нярэдка	-10.8179
▁бізнес	-10.8179
▁электрычны	-10.8184
▁фоне	-10.8184
▁In	-10.8185
сма	-10.8186
▁Віцебскага	-10.8186
▁перакладчык	-10.819
рослы	-10.8192
▁Інданезіі	-10.8192
віла	-10.8194
ічных	-10.8196
▁задача	-10.82
▁Полацк	-10.82
▁класіцызму	-10.8202
▁заходнім	-10.8204
▁трывала	-10.8205
▁грамад	-10.8207
▁даведа	-10.8212
▁яўрэйскі	-10.8217
▁рублёў	-10.8217
логія	-10.8217
▁Эс	-10.8226
▁бак	-10.8226
▁палацы	-10.8226
▁Ганны	-10.8229
▁Хал	-10.823
▁мянушк	-10.8231
▁спецыяліст	-10.8234
▁мозг	-10.8235
▁1848	-10.8236
▁сітуацыя	-10.8236
▁полк	-10.8236
▁рэжыму	-10.8236
▁прамавугольна	-10.8241
▁дзеці	-10.8245
▁Із	-10.8245
tu	-10.8249
▁роўная	-10.8255
сман	-10.8257
доўга	-10.8257
▁Давід	-10.8262
левіч	-10.8262
целя	-10.8262
ill	-10.8264
ходзіў	-10.8265
▁сусветн	-10.8265
унд	-10.8266
▁цёмны	-10.8266
сып	-10.8267
рэнц	-10.827
▁шара	-10.827
▁астраном	-10.8273
▁выданні	-10.8274
▁музыку	-10.8279
▁Кангрэс	-10.8279
▁кватэр	-10.8291
▁саборы	-10.8293
шні	-10.8298
▁Слова	-10.8303
▁птушкі	-10.8304
тнага	-10.8304
▁выказва	-10.8304
▁навука	-10.8307
▁камандзе	-10.8309
піра	-10.831
▁начальнікам	-10.8311
▁заставалас	-10.8316
▁абвяшчэнн	-10.8316
шэвіч	-10.8317
▁Нор	-10.8318
▁верша	-10.8319
▁высокія	-10.832
▁Вілейскі	-10.832
▁арганізава	-10.8326
шты	-10.8327
▁фактара	-10.8328
▁стварылі	-10.8329
▁праходзіла	-10.833
▁Напалеона	-10.833
▁каталог	-10.833
▁усходня	-10.8332
▁Людовіка	-10.8333
▁фільмаў	-10.8336
▁сушы	-10.8336
дзё	-10.8339
▁Конрад	-10.8346
тас	-10.8348
▁адзначыў	-10.8349
ікі	-10.835
▁Зямля	-10.8351
▁інтэнсіўна	-10.8354
▁рассеяна	-10.8354
▁хво	-10.8355
▁злучае	-10.8355
▁ваенным	-10.8355
▁тар	-10.8356
▁швед	-10.8357
▁Берліне	-10.8359
▁руках	-10.8359
▁кампанент	-10.8359
Мар	-10.8364
▁прысутнасц	-10.8366
віцы	-10.8373
чала	-10.8373
▁Жыгімонта	-10.8375
▁ніякі	-10.8375
▁цэла	-10.8375
водны	-10.8378
▁росквіт	-10.8379
▁уздоўж	-10.8379
дэмакрат	-10.838
бура	-10.8381
▁прымалі	-10.8384
▁Верхня	-10.8388
стаўлены	-10.8388
шня	-10.8391
▁навакольна	-10.8392
▁мяжа	-10.8394
шым	-10.8395
bi	-10.8397
▁рабочы	-10.8398
▁адлюстроўвае	-10.8399
▁Сты	-10.84
▁рыса	-10.84
▁Беларус	-10.8406
рэк	-10.8406
▁95	-10.841
▁пераслед	-10.8413
▁калектыв	-10.8415
дума	-10.8417
▁бакі	-10.842
каталіцк	-10.8421
ex	-10.8424
▁дзесяцігоддзя	-10.8426
▁зносін	-10.8426
будоў	-10.8427
▁дацэнт	-10.8433
ig	-10.8434
зіс	-10.8434
▁Мура	-10.8434
▁ідэй	-10.8436
▁танка	-10.8436
▁снег	-10.8439
▁занесены	-10.8442
▁Ордэна	-10.8443
▁заняпад	-10.8443
▁узброены	-10.8443
▁творча	-10.8444
льнасці	-10.8446
▁вызначана	-10.8446
моўных	-10.8447
▁прырода	-10.8448
▁Гарад	-10.8448
▁Усходні	-10.8449
▁and	-10.8454
▁Будаўніцтва	-10.8455
▁пабудаваў	-10.8455
▁турэцкі	-10.8455
▁канструкцыі	-10.8455
▁прыцягва	-10.8456
ковы	-10.8463
▁еўрапейска	-10.8463
▁Рус	-10.8463
рныя	-10.8463
▁узрос	-10.8464
▁Слуцка	-10.8464
▁апублікавана	-10.8465
▁транспартны	-10.8468
▁грамата	-10.8469
▁Янкі	-10.8474
tr	-10.8475
▁Чырвонага	-10.8477
▁носьбіта	-10.8477
▁Нансен	-10.848
▁Кніга	-10.8481
▁займалі	-10.8482
▁радзім	-10.8482
▁страва	-10.8485
матычны	-10.8486
▁1885	-10.8487
▁геаграфічны	-10.8488
▁ням	-10.849
▁клубе	-10.8495
▁адсутнас	-10.8496
▁футбольна	-10.8496
▁чэшскі	-10.8496
▁падрыхтава	-10.8499
▁фарм	-10.8501
▁маюцца	-10.8504
▁спартсмен	-10.8506
▁энергія	-10.8506
КА	-10.8508
▁цепла	-10.8511
▁земляў	-10.8513
▁Дзень	-10.8513
▁абласны	-10.8521
кта	-10.8521
ату	-10.8522
▁Воль	-10.8522
▁аналізу	-10.8523
надта	-10.8526
▁вайсковы	-10.8528
▁дзяржаву	-10.8531
▁выцяка	-10.8531
▁пераехал	-10.8531
▁прыпыначным	-10.8533
▁мужчына	-10.8533
▁свабоды	-10.8535
▁аўтамабіляў	-10.8535
▁зняты	-10.8535
▁Рай	-10.8539
▁Шта	-10.854
ствам	-10.854
▁элемент	-10.8541
▁уладу	-10.8542
▁уключаны	-10.8542
мані	-10.8543
▁пагаднення	-10.8544
▁святло	-10.8544
▁магазін	-10.8544
▁Узброены	-10.8544
▁Нясвіж	-10.8545
ніта	-10.8546
▁Каралін	-10.8546
au	-10.8548
300	-10.8549
▁1889	-10.8549
▁ўплыву	-10.855
▁сведча	-10.8551
▁Аўта	-10.8555
▁кажа	-10.8556
коп	-10.8556
▁Пачынаючы	-10.8557
▁Побач	-10.8557
▁прадпрыемствы	-10.8557
▁аўтамабіль	-10.8558
▁асяроддз	-10.8559
▁руч	-10.8562
▁Германі	-10.8562
▁Лука	-10.8563
▁вен	-10.8568
▁кулямёт	-10.8569
▁Катлавіна	-10.8569
туш	-10.857
▁генеральны	-10.857
▁замку	-10.8571
▁выканаўца	-10.8572
дал	-10.8575
філ	-10.8575
▁адкрытым	-10.8576
▁магутны	-10.8581
льды	-10.8581
▁загінула	-10.8582
▁Кіеве	-10.8582
▁адносяць	-10.8585
кама	-10.8585
▁скульптар	-10.8586
прам	-10.8587
зоў	-10.8588
▁спектр	-10.8589
▁грунт	-10.8595
▁ху	-10.8595
▁злачынства	-10.8595
▁рымлян	-10.8596
▁тэмы	-10.8597
▁пахавання	-10.8599
▁Франк	-10.8601
▁Сем	-10.8601
▁Часта	-10.8602
▁ацэнк	-10.8609
▁размяшчалас	-10.8609
▁узяў	-10.8612
▁Фор	-10.8614
▁самастойны	-10.8615
▁музыкант	-10.8616
▁Грузіі	-10.8621
▁узбярэжж	-10.8623
▁духоўны	-10.8625
ліст	-10.8626
▁прылад	-10.8628
▁міністрам	-10.863
▁Азербайджан	-10.8632
▁сусвет	-10.8633
▁салецтв	-10.8635
▁машыны	-10.8635
шчыне	-10.8637
▁вадаёма	-10.8639
▁шляхты	-10.8641
▁Пухавіцкі	-10.8644
va	-10.8644
▁здольна	-10.8645
▁чыста	-10.8647
▁ўспрыма	-10.8647
▁хмызняко	-10.8647
▁рамонт	-10.865
▁пяск	-10.8655
▁Бро	-10.8655
▁вяду	-10.8659
▁Еўропа	-10.866
▁клеткі	-10.866
моўны	-10.8663
▁палёт	-10.8665
мель	-10.8665
▁камандаваў	-10.8665
▁праводзіліс	-10.8665
▁Жлобін	-10.8668
▁бою	-10.8672
▁Балтыйска	-10.8673
▁падзення	-10.8673
▁Лявон	-10.8674
▁пачаткова	-10.8676
▁уладання	-10.8677
ки	-10.8681
▁эк	-10.8682
▁Утвораны	-10.8686
▁май	-10.8686
кера	-10.8687
▁англа	-10.8689
▁класічнай	-10.8689
▁серыя	-10.869
▁класаў	-10.869
кавая	-10.8692
гадовая	-10.8694
▁паветраны	-10.8696
▁савецкага	-10.8696
▁Вара	-10.8696
▁Шо	-10.8697
▁тралейбус	-10.8699
▁ААТ	-10.8699
▁Бібліі	-10.8699
man	-10.8704
▁Бран	-10.8708
▁грыб	-10.8709
рскім	-10.871
▁спроба	-10.8711
▁архі	-10.8711
▁каталіцка	-10.8712
▁размяшчаліс	-10.8714
▁этнічна	-10.8714
▁чэшска	-10.8716
▁калекцыя	-10.8717
▁ваду	-10.8717
ліцы	-10.872
арда	-10.8721
▁электрон	-10.8722
▁прадуктаў	-10.8722
wa	-10.8722
▁здзяйсня	-10.8723
▁нагадвае	-10.8725
▁дойлідства	-10.8727
▁1878	-10.873
▁Бабруйск	-10.8732
▁асаблівы	-10.8734
нса	-10.8736
працоўн	-10.8737
▁рашэнні	-10.8738
▁пераходу	-10.8739
ki	-10.8739
знавец	-10.874
▁асновай	-10.874
▁перамовы	-10.8741
▁строга	-10.8741
▁свін	-10.8744
▁візіт	-10.8746
▁ўтворана	-10.8751
▁Паміж	-10.8751
▁арнамент	-10.8753
вугольн	-10.8754
авой	-10.8757
кліка	-10.8757
▁падзяляе	-10.876
зан	-10.8761
лама	-10.8763
нька	-10.8763
▁харчавання	-10.877
▁некатор	-10.8773
▁амерыканска	-10.8776
▁Бярэзін	-10.8778
▁моц	-10.8778
кап	-10.8778
нці	-10.8778
▁Пят	-10.8779
▁Коласа	-10.8779
▁ўласцівасці	-10.8779
▁рэформ	-10.8781
▁пастаўлена	-10.8782
▁звання	-10.8784
ейн	-10.8785
▁абсалютна	-10.8786
▁Sb	-10.8788
▁паказваю	-10.8789
▁Мед	-10.879
▁медыцыне	-10.8794
▁Мёрскі	-10.8796
▁вылучаны	-10.8796
▁Іва	-10.8797
▁рэдактарам	-10.8797
сё	-10.8798
▁хаця	-10.8799
▁прафесарам	-10.8801
сек	-10.8802
▁паселішчы	-10.8803
▁вырашана	-10.8804
зіі	-10.8804
дскага	-10.8813
▁лісця	-10.8814
▁дазваляю	-10.8816
▁сонечна	-10.8816
▁апрацоўк	-10.8817
▁Кастрычніцка	-10.8817
▁любо	-10.8818
▁друг	-10.8819
▁верхні	-10.8819
эвалюцыйн	-10.8819
▁дывізіён	-10.882
ium	-10.8822
▁актывіст	-10.8823
-12	-10.8825
зны	-10.8827
▁Лес	-10.8828
▁дробна	-10.883
▁атрымаўшы	-10.883
▁ўкраінскі	-10.8832
▁праводзіў	-10.8832
▁ЕС	-10.8835
▁марак	-10.8835
▁падпісаны	-10.8838
▁0,7	-10.884
▁Кура	-10.8841
▁асацыяцыі	-10.8843
▁Аршанскі	-10.8843
▁камісія	-10.8845
▁цел	-10.8846
▁манарха	-10.8848
▁вырабаў	-10.885
▁мінерал	-10.885
▁намер	-10.885
▁Фрыдрыха	-10.8852
▁аднаўлення	-10.8856
▁кантролю	-10.8856
▁творах	-10.8856
▁Кампанія	-10.8857
▁Глыбоцкі	-10.8857
адмірал	-10.886
▁біскупа	-10.886
вак	-10.8862
▁1866	-10.8862
▁новае	-10.8865
pa	-10.8865
▁малюнка	-10.8866
▁дэпутатам	-10.8867
▁Гарадоцкі	-10.8869
▁капліца	-10.887
цэнтр	-10.8871
▁парка	-10.8873
▁Асноўным	-10.8875
▁выдадзена	-10.8876
▁кантакт	-10.8876
▁тэму	-10.8879
дзесят	-10.888
▁місіянер	-10.8882
▁Палаты	-10.8883
зроўні	-10.8885
шэння	-10.8886
▁заснавання	-10.8886
▁прызначыў	-10.8886
▁хворы	-10.8893
▁самыя	-10.8895
▁разуменн	-10.8896
▁Іаган	-10.8896
лож	-10.8898
нных	-10.8899
▁займаліс	-10.89
фаль	-10.89
▁накіравана	-10.89
▁звязва	-10.8905
алод	-10.8905
падобных	-10.8907
▁арышт	-10.8908
ft	-10.8908
▁дасягнення	-10.8909
▁аднаўленне	-10.8909
▁Белы	-10.8918
▁Літ	-10.8918
апрацоў	-10.8921
станцы	-10.8921
▁прыцягну	-10.8923
▁штучны	-10.8923
мігрант	-10.8924
эле	-10.8925
▁даліне	-10.8927
рыца	-10.8928
▁Лігі	-10.8928
▁сутак	-10.8929
▁матэматыкі	-10.893
▁артыкулы	-10.8933
▁тай	-10.8939
▁3,5	-10.8941
▁Адным	-10.8942
віты	-10.8943
цова	-10.8944
бон	-10.8944
SC	-10.8945
чыка	-10.8946
▁сярэбраны	-10.8949
▁наогул	-10.8949
▁формаў	-10.8949
▁дзяржаве	-10.8949
▁Гл	-10.8949
▁нізкія	-10.8951
▁бры	-10.8951
жкі	-10.8951
несен	-10.8952
▁публіцыст	-10.8952
▁умоў	-10.8956
носяць	-10.8956
▁аркестра	-10.8958
цыян	-10.8958
жур	-10.896
▁падзяляю	-10.896
▁вольна	-10.896
▁цікавас	-10.896
▁кроп	-10.896
▁пазбаві	-10.8962
▁Уладзіслаў	-10.8962
▁кандыдат	-10.8963
▁чалавечы	-10.8963
зніклі	-10.8964
▁арка	-10.8967
альнага	-10.897
▁20-	-10.8971
▁вайскова	-10.8972
▁манастыры	-10.8973
▁людзьм	-10.8976
пон	-10.8979
раг	-10.8979
ючай	-10.8981
летку	-10.8984
▁арган	-10.8984
▁заняты	-10.8985
▁працоўна	-10.8987
▁Расіяй	-10.8988
▁бе	-10.8988
▁верасень	-10.8989
▁найбуйнейша	-10.8989
▁Барселон	-10.8989
дныя	-10.899
▁прысуд	-10.8991
▁ладу	-10.8992
член	-10.8995
▁захоўванн	-10.8998
▁яднана	-10.8999
чыне	-10.9001
▁дзіця	-10.9002
▁кіслот	-10.9002
парад	-10.9003
▁адмов	-10.9003
▁чыгунка	-10.9003
▁пабудава	-10.9006
▁імёны	-10.9006
▁чэмпіёнам	-10.9007
▁180	-10.9007
▁Берлін	-10.9009
мені	-10.901
▁Пінск	-10.9013
▁дакумент	-10.9014
груз	-10.9015
▁кантралява	-10.9017
▁кніж	-10.9017
▁дзесяці	-10.9017
▁танк	-10.9021
▁1888	-10.9022
▁Co	-10.9027
▁дадаткова	-10.9027
зю	-10.9028
▁абараніў	-10.9029
▁гандаль	-10.9029
ілі	-10.9032
▁грамадств	-10.9033
стр	-10.9037
500	-10.9037
▁белага	-10.9039
▁праваслаў	-10.9041
▁памераў	-10.9042
▁Уладзіслава	-10.9042
▁знакаміта	-10.9043
▁Людвіг	-10.9043
▁губернатара	-10.9044
▁Адама	-10.9046
рот	-10.9049
▁бібліятэ	-10.9051
▁правах	-10.9051
▁Слуцк	-10.9052
▁груз	-10.9056
▁сімвалам	-10.9056
твары	-10.9057
▁афіцэраў	-10.906
▁майстар	-10.9061
▁Працы	-10.9065
▁міністраў	-10.9068
▁афармленн	-10.9069
▁калекцыі	-10.9071
▁ёзны	-10.9074
▁пояса	-10.9075
▁Віс	-10.9076
▁турніра	-10.9079
▁фіна	-10.9079
▁вывучэнн	-10.9079
траў	-10.908
▁Хол	-10.9081
дамі	-10.9083
▁Ігна	-10.9083
▁пацярпел	-10.9083
▁Што	-10.9083
▁Алена	-10.9085
што	-10.9086
▁Кай	-10.9089
▁лесу	-10.9089
▁чаму	-10.9092
▁развіцц	-10.9092
▁Рыгор	-10.9093
▁хваля	-10.9094
▁Мікалаеў	-10.9095
▁Апошня	-10.9096
▁відавочна	-10.9096
літ	-10.9097
▁установа	-10.9099
завана	-10.9099
▁гістарычнага	-10.9101
▁мяне	-10.9101
мары	-10.9102
чэнні	-10.9103
▁параўнальна	-10.9103
▁Тай	-10.9108
▁Слуцкі	-10.9109
▁арыентацы	-10.911
льта	-10.911
▁НАН	-10.9111
▁меж	-10.9112
▁геаграфічна	-10.9112
▁1868	-10.9116
▁выдава	-10.9117
▁вал	-10.9117
▁абмяжоўва	-10.9123
▁інфармацы	-10.9124
бера	-10.9124
ардын	-10.9124
бава	-10.9124
▁брама	-10.9126
енне	-10.9127
пісала	-10.9127
▁выйгра	-10.9127
▁Англі	-10.9128
gi	-10.9135
▁даклад	-10.9136
ers	-10.9137
сходу	-10.9137
▁спыненн	-10.9137
▁тэксты	-10.914
▁маскоўска	-10.9142
▁Парк	-10.9142
▁Валожынскі	-10.9143
трымліваюць	-10.9144
nd	-10.9144
▁пярэдні	-10.9145
▁дума	-10.9146
▁міністэрства	-10.9146
▁транспарту	-10.9147
▁раскопк	-10.9148
зёр	-10.9149
▁тонка	-10.9149
▁галерэя	-10.915
▁дачку	-10.9151
▁мастацкім	-10.9152
Ра	-10.9153
кула	-10.9155
▁аспірантур	-10.9155
▁Br	-10.9155
▁1893	-10.9156
▁раскоп	-10.9157
▁прыйшлі	-10.9164
▁паслуг	-10.9165
▁гадам	-10.9166
▁перакры	-10.9166
▁форм	-10.9166
▁педагагічна	-10.9166
▁Фан	-10.9168
▁фізік	-10.9171
▁88	-10.9171
▁падпарадкава	-10.9171
▁сцэн	-10.9176
▁адзінства	-10.9177
tt	-10.9177
▁Важн	-10.9178
▁бой	-10.918
▁езда	-10.918
ставы	-10.9181
▁каменна	-10.9185
▁заяв	-10.9189
▁Егіпет	-10.9191
▁галерэі	-10.9191
▁прафсаюз	-10.9191
сіл	-10.9191
▁штучна	-10.9192
▁Урад	-10.9193
джана	-10.9194
шчо	-10.9197
one	-10.9197
▁Сібір	-10.9198
▁упадае	-10.92
зды	-10.9201
бен	-10.9201
эла	-10.9203
ніста	-10.9204
▁будов	-10.9204
▁навакольны	-10.9205
▁касмічна	-10.9206
▁арабска	-10.9211
▁Дрэ	-10.9211
▁10-	-10.9212
▁сацыял	-10.9212
▁луга	-10.9213
▁Мор	-10.9215
▁канфедэрацы	-10.9219
▁рыхтава	-10.9219
▁арганічны	-10.9219
▁Экс	-10.922
▁1892	-10.9224
▁1894	-10.9224
Ж	-10.9227
▁Кірыл	-10.9227
▁арганізавана	-10.923
▁Аўстры	-10.9232
▁паштова	-10.9233
▁жанаты	-10.9233
рэвіч	-10.9233
▁Элі	-10.9234
▁метрапалітэна	-10.9235
▁ператвара	-10.9239
ation	-10.9239
▁настаўніц	-10.9239
▁папа	-10.924
▁кветкі	-10.9247
▁падпісанн	-10.9247
▁прылада	-10.9247
▁фіналу	-10.9249
▁тэрміна	-10.9251
▁абшчыны	-10.9253
▁абарончы	-10.9255
▁распараджэнн	-10.926
бля	-10.9261
▁серый	-10.9261
▁карэнны	-10.9261
▁Залаты	-10.9261
▁пайшоў	-10.9261
ладзе	-10.9263
▁арганізаваў	-10.9266
палітычны	-10.9267
▁дзейнічаў	-10.9268
▁Артур	-10.9268
▁арганізм	-10.9269
▁ютар	-10.9273
▁лесам	-10.9274
▁Альп	-10.9274
▁ян	-10.9278
рэна	-10.9279
▁сваяк	-10.928
▁Майкл	-10.9283
sch	-10.9287
▁фан	-10.9288
▁уваходзіў	-10.9289
▁170	-10.929
▁краінамі	-10.9292
▁абавязк	-10.9293
вальна	-10.9295
фера	-10.9295
лле	-10.9296
істаў	-10.9296
▁пле	-10.9299
▁уніі	-10.9301
▁серы	-10.9301
▁самакіравання	-10.9301
▁арабскі	-10.9301
▁пераклада	-10.9302
▁паражэння	-10.9303
▁вось	-10.9303
зель	-10.9303
▁Хуан	-10.9305
▁валодаў	-10.9307
▁медалё	-10.9307
дання	-10.9307
▁Азія	-10.9309
стоў	-10.9309
▁папулярнасць	-10.931
com	-10.931
▁Людовік	-10.931
ть	-10.9311
▁мене	-10.9311
▁казак	-10.9314
▁узведзены	-10.9316
▁газа	-10.9324
▁Руска	-10.9325
ючых	-10.9325
вёр	-10.9326
▁кро	-10.9329
▁Індыя	-10.9334
▁1831	-10.9336
мата	-10.9336
▁Da	-10.9342
▁хронік	-10.9343
▁срэбра	-10.9343
▁Шырока	-10.9343
▁гадзіннік	-10.9343
▁часця	-10.9344
▁абшчын	-10.9344
▁карабель	-10.9344
фармава	-10.9344
▁адзінкі	-10.9345
▁саюзнікаў	-10.9347
▁Слабада	-10.9351
уры	-10.9352
▁галактык	-10.9354
▁працяглы	-10.9355
▁Сіцылі	-10.9357
нем	-10.9357
▁пярэдня	-10.9364
хад	-10.9366
▁Карп	-10.9367
▁Чарна	-10.9367
▁кампаніяй	-10.9367
▁напр	-10.9367
▁мастацтве	-10.9368
баль	-10.9368
▁дому	-10.9369
▁немцы	-10.9369
▁віленскі	-10.937
-9	-10.9371
несці	-10.9372
▁выдавецтва	-10.9373
знік	-10.9375
▁цягнік	-10.9375
▁баб	-10.9376
▁чэ	-10.9376
▁болей	-10.9377
▁наяўнасці	-10.938
▁лістоў	-10.9383
іда	-10.9384
▁бацьку	-10.9385
▁тэма	-10.9385
▁біялагічны	-10.9385
▁гістарычным	-10.9387
палітычна	-10.9387
▁мужчынскі	-10.9388
німа	-10.939
▁ягад	-10.9391
▁кіну	-10.9397
▁Адраджэння	-10.9398
▁выяўленча	-10.9398
▁ГЭС	-10.94
▁выпраменьвання	-10.94
▁кандыдатаў	-10.9404
▁Бай	-10.9406
▁явы	-10.9407
шчын	-10.9407
▁Канстытуцыя	-10.9408
▁баках	-10.9415
▁Нацыянальным	-10.9415
pi	-10.9415
▁палову	-10.942
▁перавышае	-10.9422
▁Яраслаў	-10.9426
дачы	-10.9427
▁выканана	-10.9429
▁здымк	-10.9429
ёл	-10.9431
▁Вялікія	-10.9432
▁сталіц	-10.9434
рыд	-10.9435
▁гасцін	-10.9437
▁ўварва	-10.9438
▁Ламбардыя	-10.944
▁магнітна	-10.944
біна	-10.9442
▁00	-10.9442
▁украінска	-10.9446
▁86	-10.9451
▁Рад	-10.9453
ўсходні	-10.9454
▁Японія	-10.9454
▁Вітаўта	-10.9455
▁калегіум	-10.9457
ліча	-10.946
▁ёзна	-10.9461
ec	-10.9462
бел	-10.9463
▁круга	-10.9464
план	-10.9465
▁дзейніча	-10.9467
▁адпачынк	-10.9468
▁забяспечва	-10.9469
нсульт	-10.947
▁ляжа	-10.9471
▁ратуш	-10.9473
▁утварае	-10.9473
▁Эл	-10.9473
▁1871	-10.9475
▁выбраны	-10.9475
лізава	-10.9477
▁фінал	-10.9478
ber	-10.9478
▁даследава	-10.9478
▁Po	-10.9478
▁стэп	-10.9481
пале	-10.9481
▁Рух	-10.9481
▁выклікае	-10.9482
вядомасць	-10.9482
▁прапанов	-10.9482
▁Баранавіцкі	-10.9482
bo	-10.9483
рэнне	-10.9486
▁выступіл	-10.9487
▁Давыд	-10.9495
▁падземны	-10.9497
▁сербска	-10.9498
бле	-10.95
▁стаяў	-10.9501
▁пр	-10.9502
▁базы	-10.9504
▁улад	-10.9507
▁матэрыялу	-10.9508
▁дзейнічал	-10.9515
служ	-10.9515
▁мэты	-10.9515
▁лігу	-10.9516
▁Добра	-10.9516
▁чырвонага	-10.9516
▁выканаўча	-10.9517
▁памылк	-10.9519
▁кава	-10.9524
▁прагляд	-10.9525
▁паляванне	-10.9526
схільны	-10.9527
▁Маса	-10.953
ліста	-10.9531
▁сярэдне	-10.9531
▁Сві	-10.9535
супраць	-10.9538
дэмакратычна	-10.9538
▁Палеска	-10.9539
▁веку	-10.9539
▁федэральна	-10.954
▁матэрыяльна	-10.9547
дзельнічаў	-10.9548
▁металічны	-10.955
▁Камуністычн	-10.9553
▁спартыўна	-10.9553
▁Ерэван	-10.9553
▁прадметаў	-10.9554
▁Яс	-10.9554
▁Фёдар	-10.9557
сак	-10.9561
▁Ква	-10.9564
▁раўніны	-10.9564
цяр	-10.9567
▁літары	-10.9568
▁скарыста	-10.9568
▁Смаленск	-10.9574
▁праёмамі	-10.9575
▁перашкод	-10.9582
▁канцэпцы	-10.9586
▁моста	-10.9588
▁1867	-10.9588
▁тэксту	-10.9592
ru	-10.9594
▁Ніжні	-10.9595
▁Стывен	-10.9596
▁ціск	-10.9597
▁бук	-10.9598
▁зразуме	-10.9601
▁востра	-10.9602
чышча	-10.9603
▁плямёны	-10.9603
▁тэатральны	-10.9607
▁задачы	-10.9608
sta	-10.9608
▁архітэктарам	-10.9609
▁рэканструкцыі	-10.961
▁яйк	-10.9612
▁бакавы	-10.9612
▁галосны	-10.9613
▁прэзідэнцкі	-10.9614
▁спалучэнн	-10.9618
кір	-10.9619
▁пераправ	-10.962
рв	-10.9621
▁Тадэвуш	-10.9624
▁граніц	-10.9624
▁заводзе	-10.9625
рба	-10.9627
▁аўстрыйска	-10.9629
▁інфармацыя	-10.9629
▁мэт	-10.9631
▁све	-10.9632
▁залоз	-10.9632
▁Больша	-10.9633
▁знішчаны	-10.9633
▁зорна	-10.9634
▁адзначыць	-10.9634
▁вырабы	-10.9635
▁Іосіф	-10.9635
▁жорсткі	-10.9636
▁нафты	-10.9639
▁паэмы	-10.9641
▁секцы	-10.9644
▁Фін	-10.9645
▁Урал	-10.9649
▁0,6	-10.9649
страл	-10.9649
▁азёры	-10.9651
▁аднайменны	-10.9652
▁тэлеканал	-10.9653
▁насельніцтвам	-10.9653
▁батальёна	-10.9653
ограф	-10.9653
▁унутрана	-10.9654
▁Ватыкан	-10.9654
▁кіламетр	-10.9654
▁фарміраванне	-10.9657
▁сцёк	-10.9657
▁Літва	-10.9659
тэхнічна	-10.966
▁размяшчаюцц	-10.9661
▁культуру	-10.9662
▁Было	-10.9662
▁даных	-10.9663
чыцы	-10.9663
сара	-10.9664
▁Максіма	-10.9665
▁узрост	-10.9666
▁Шчучынскі	-10.9667
культурна	-10.9667
тыр	-10.9669
ens	-10.9674
▁выяв	-10.9674
ПА	-10.9676
маўля	-10.9676
▁аўтамат	-10.968
▁мадыфікацы	-10.9681
рэшце	-10.9682
▁Іаана	-10.9683
▁музычных	-10.9691
▁урада	-10.9691
▁апарата	-10.9694
▁эпідэмі	-10.9695
▁аўтарытэт	-10.9696
▁мінула	-10.9696
▁канфлікту	-10.9696
ічная	-10.9698
▁Барыса	-10.9699
▁вывучае	-10.9699
▁Божа	-10.9701
▁прыстасава	-10.9703
▁перамо	-10.9706
▁кампазіцыя	-10.9708
дзяржаў	-10.971
тэхнічны	-10.971
вель	-10.9716
▁рэштка	-10.9716
нёў	-10.9717
▁намесніка	-10.9719
ze	-10.972
правод	-10.972
ске	-10.9721
▁валодал	-10.9724
▁рыбалоўства	-10.9724
▁Тэадор	-10.9724
▁прыналежнасц	-10.9724
▁кантроле	-10.9728
▁жыла	-10.9733
жэнне	-10.9737
гадовай	-10.9737
▁рэгіянальны	-10.9738
▁Wi	-10.9739
▁прыйшлос	-10.974
▁Айчынную	-10.974
▁Эк	-10.9741
▁супада	-10.9742
▁98	-10.9745
▁82	-10.9746
▁прайшла	-10.9749
▁Ота	-10.9751
▁Найсвяцейша	-10.9753
▁тапонім	-10.9753
▁вонкава	-10.9753
▁сонечны	-10.9753
▁сыравін	-10.9753
▁гаворы	-10.9754
▁пясчана	-10.9754
▁сітуацыі	-10.9756
▁законам	-10.976
вядзенне	-10.9761
▁Калчак	-10.9761
▁пыл	-10.9764
▁Час	-10.9765
▁слоўнік	-10.9773
▁рэлігія	-10.9777
▁рабілі	-10.9778
жын	-10.9778
▁Кацярына	-10.9778
▁ўстановы	-10.9778
АЗ	-10.9779
▁хрыбта	-10.9782
▁Куль	-10.9782
▁лаз	-10.9783
▁він	-10.9786
▁паліт	-10.9786
▁налічвае	-10.9786
▁рэвалюцыйна	-10.9788
▁аднайменна	-10.9789
▁вызначэння	-10.9789
▁крытыка	-10.979
▁масіў	-10.979
▁Сент	-10.9791
Я	-10.9796
▁французскім	-10.9797
▁згадва	-10.9797
▁фігура	-10.9798
▁фарба	-10.9803
▁статут	-10.9804
▁атмасфер	-10.9807
▁Кос	-10.981
карычневы	-10.9811
▁арганізацыю	-10.9811
▁плямёнаў	-10.9814
▁Міністр	-10.9823
▁Баль	-10.9823
▁сувязя	-10.9826
зве	-10.9826
▁30-	-10.9827
нгер	-10.9828
▁ігра	-10.9829
ld	-10.9829
сіна	-10.983
▁Асі	-10.983
▁перададзена	-10.983
▁бру	-10.9831
шч	-10.9834
▁перавы	-10.9836
▁каро	-10.9837
▁расту	-10.9839
▁СС	-10.984
▁каль	-10.9841
мур	-10.9841
▁даследчык	-10.9841
▁верх	-10.9842
▁піра	-10.9844
▁1891	-10.9845
▁Парыжа	-10.9846
▁такімі	-10.9847
сную	-10.985
▁напачатку	-10.9852
▁леса	-10.9853
роўка	-10.9854
▁тэндэнцы	-10.9855
▁84	-10.9856
▁прамо	-10.9858
▁стар	-10.9861
▁Імператар	-10.9865
▁3000	-10.9866
▁сцвярджае	-10.987
ведзены	-10.9871
▁Антоні	-10.9871
▁браты	-10.9872
падзе	-10.9873
зіра	-10.9873
лярны	-10.9873
рэдку	-10.988
▁часціцы	-10.988
ходны	-10.9883
▁тавары	-10.9884
▁геаграфі	-10.9885
▁узначальваў	-10.9888
▁350	-10.9888
хін	-10.9892
-25	-10.9893
▁уключа	-10.9894
▁кругла	-10.9894
нныя	-10.9895
▁выявіў	-10.9899
▁партал	-10.9901
▁пакарання	-10.9901
▁проз	-10.9902
-11	-10.9903
фран	-10.9903
▁83	-10.9907
▁Абу	-10.9908
▁знаходк	-10.9913
▁намінацы	-10.9915
▁Юпітэра	-10.9915
▁рус	-10.9916
▁маючы	-10.9917
ёк	-10.9918
шку	-10.9919
▁уласцівасц	-10.992
▁Чорна	-10.9922
▁доля	-10.9923
▁пахаванн	-10.9923
стат	-10.9926
▁Александр	-10.9926
гера	-10.9927
▁імаверна	-10.9927
▁смяротна	-10.9928
эйн	-10.993
▁Вільню	-10.9933
▁Бяроза	-10.9934
былі	-10.9937
роўкі	-10.9937
ina	-10.9938
▁адыгрыва	-10.9942
▁калонія	-10.9943
крыты	-10.9944
▁Андрэя	-10.9945
▁падвярга	-10.9946
▁нов	-10.9946
▁адбываю	-10.9947
ежу	-10.9949
▁Кароль	-10.9951
▁літ	-10.9956
▁партыйны	-10.9956
▁Усё	-10.9957
▁авіяцыі	-10.9957
▁прызначана	-10.9961
▁патрыярха	-10.9965
▁y	-10.9967
▁называюцца	-10.9967
бары	-10.9967
вікі	-10.9969
▁элементам	-10.9971
наўка	-10.9972
▁Афіцыйна	-10.9972
▁мяркую	-10.9972
▁планета	-10.9972
▁тыдзень	-10.9972
▁секунд	-10.9973
▁ежы	-10.9973
▁шахмат	-10.9973
▁распрацавана	-10.9974
▁пасёлк	-10.9974
▁корм	-10.9977
▁1,3	-10.9979
рства	-10.9981
▁Кіпр	-10.9981
▁здабыч	-10.9983
піна	-10.9984
культурны	-10.9985
▁Пабудаваны	-10.9985
▁Германіяй	-10.9986
▁Вільгельма	-10.9987
▁функцый	-10.9987
▁інтэрнэт	-10.9987
▁канцэнтрацы	-10.9987
▁Паўладарска	-10.9987
▁бераго	-10.9987
▁адбывалас	-10.9988
▁частках	-10.9988
▁дынастыя	-10.9988
▁распаўсюджванне	-10.9989
▁скляпенн	-10.9992
▁Ата	-10.9994
гард	-10.9995
▁ектам	-10.9999
▁ўступіў	-10.9999
нтэр	-11
▁палова	-11.0001
▁дэлегацы	-11.0001
▁ліній	-11.0004
▁Папы	-11.0007
▁Кубак	-11.0009
▁прынесл	-11.001
▁майстэрні	-11.0011
▁ядзерна	-11.0012
▁судова	-11.0013
▁Дон	-11.0013
▁выкуп	-11.0014
hi	-11.0015
ковыя	-11.0015
▁філасофскі	-11.0017
▁Саў	-11.0018
▁юрыдычна	-11.0022
▁есы	-11.0023
▁выстава	-11.0023
▁глін	-11.0024
▁анг	-11.0025
▁Крам	-11.0026
▁справ	-11.0029
▁сакратара	-11.0031
▁Кандыдат	-11.0031
▁найважнейшы	-11.0031
▁пацярпеў	-11.0031
▁адмыслова	-11.0031
▁Чап	-11.0033
▁1840	-11.0038
▁Транс	-11.0038
нікоў	-11.0038
шчу	-11.0039
пак	-11.0041
▁граніт	-11.0045
▁гімн	-11.0046
▁пагадзі	-11.0046
▁Дэмакратычна	-11.0047
▁Ашмянскі	-11.005
▁свабод	-11.0053
▁Дэвід	-11.0054
▁дыха	-11.0054
▁выконвае	-11.0054
▁ваявода	-11.0056
▁Эдуард	-11.0058
▁племя	-11.0058
▁ўключаны	-11.0059
оўнік	-11.0061
▁перемычк	-11.0061
▁ўздзеянн	-11.0061
▁ачкоў	-11.0061
▁знайшоў	-11.0061
▁пару	-11.0062
льская	-11.0062
▁распачаў	-11.0064
▁даступны	-11.0065
казан	-11.0066
кус	-11.0066
▁загадз	-11.007
▁акадэмія	-11.0074
▁кабінет	-11.0075
штаце	-11.0075
▁Ніжэй	-11.0076
▁вінаград	-11.0076
▁захопнікамі	-11.0076
▁сястры	-11.0077
▁вызначаю	-11.0079
▁нагляд	-11.0082
▁здагадк	-11.0083
▁пазіцыя	-11.0084
▁99	-11.0085
шава	-11.0085
▁асобін	-11.0088
плы	-11.0091
▁авалода	-11.0091
▁мяркуе	-11.0091
▁Ca	-11.0091
▁Віш	-11.0092
▁лыж	-11.0097
даваць	-11.01
▁вярхоў	-11.0101
▁смак	-11.0102
▁заказ	-11.0104
сне	-11.0105
▁фатаграфі	-11.0106
▁вяла	-11.0108
▁велізарны	-11.011
▁лацін	-11.011
▁эміграцыі	-11.011
▁шведска	-11.0112
дэнт	-11.0114
▁выяўля	-11.0119
▁радзіму	-11.012
▁Вёска	-11.0121
▁Магілёва	-11.0121
▁Клуб	-11.0121
чата	-11.0121
▁каралевы	-11.0121
▁аса	-11.0124
▁1887	-11.0127
▁аўтамабіля	-11.0131
▁калоні	-11.0131
▁адлеглас	-11.0134
тып	-11.0135
▁тэлефон	-11.0136
▁Майстар	-11.0137
▁Ско	-11.0138
▁Дэй	-11.0139
беж	-11.014
▁1881	-11.0141
▁стагоддзях	-11.0141
if	-11.0143
ud	-11.015
▁праграму	-11.0151
▁валоданне	-11.0151
▁Віленскі	-11.0151
▁побыт	-11.0153
▁ядро	-11.0155
ог	-11.0156
літа	-11.0159
▁групе	-11.016
▁екта	-11.0161
▁кісларод	-11.0166
пэ	-11.0166
▁трас	-11.0167
▁паказаны	-11.0168
▁1884	-11.0172
▁ўплыва	-11.0172
▁жыць	-11.0174
▁Мікала	-11.0174
▁націск	-11.0174
▁Дзевы	-11.0176
▁Старо	-11.0177
▁квадрат	-11.0181
▁падраздзялення	-11.0181
▁бел	-11.0181
▁крыніцай	-11.0182
▁актрыса	-11.0183
▁сім	-11.0185
▁Фло	-11.0188
ство	-11.0189
авецца	-11.0189
▁жыло	-11.019
▁0,8	-11.0194
▁тэхналогіі	-11.0196
▁вонкавы	-11.0196
▁сіні	-11.0201
▁крызіс	-11.0202
лд	-11.0203
▁магутнасць	-11.0204
▁вырас	-11.0205
▁літоўскай	-11.021
▁Францыю	-11.0212
▁даследаванне	-11.0214
▁круглы	-11.0216
▁1882	-11.0218
▁законы	-11.0218
▁1879	-11.0218
▁востры	-11.0218
нёва	-11.0223
суд	-11.0224
▁колеры	-11.0225
▁рабоце	-11.0226
▁усходні	-11.0226
▁спыня	-11.0226
▁прырод	-11.0227
▁сцяны	-11.0227
▁цесна	-11.0227
▁1850	-11.0228
ng	-11.0228
цук	-11.0232
▁правядзенне	-11.0233
▁урадам	-11.0235
леная	-11.0236
▁Уол	-11.0237
▁рэалі	-11.0239
▁прадукты	-11.024
▁гулец	-11.0242
▁81	-11.0243
▁сярэдняга	-11.0243
дне	-11.0244
▁арыстакраты	-11.0244
▁афіцыйным	-11.0245
▁робі	-11.0249
▁Эпі	-11.0252
▁аперацый	-11.0252
▁Васілевіч	-11.0254
▁ўбачы	-11.0255
▁гарадзішча	-11.0256
▁кашталян	-11.0256
▁зверху	-11.0256
▁Турын	-11.026
▁Галоўным	-11.0261
▁адзнак	-11.0265
▁англічан	-11.0266
пта	-11.0268
▁параметр	-11.0269
▁Вада	-11.0272
▁топ	-11.0274
▁дваран	-11.0275
▁замежн	-11.0275
▁сусветны	-11.0276
▁евіч	-11.0276
▁Амаль	-11.0277
▁Поты	-11.0277
крыта	-11.0278
▁палітычным	-11.0279
▁зв	-11.028
▁прычыне	-11.0281
▁захапі	-11.0282
▁саветнік	-11.0285
▁ані	-11.0289
▁Камуна	-11.029
альна	-11.0292
▁Баранавічы	-11.0294
▁апісання	-11.0298
▁Bo	-11.03
эвалюцыі	-11.0301
▁Старажытны	-11.0302
▁працоўных	-11.0302
▁воласць	-11.0303
адварот	-11.0303
▁Тэатр	-11.0306
▁твора	-11.0307
ыходзіць	-11.0308
▁віна	-11.0312
▁Стэ	-11.0313
▁яўля	-11.0315
▁дыска	-11.0317
▁энцыклапеды	-11.0317
▁Рам	-11.0318
▁медалі	-11.0319
Ёрку	-11.032
сыл	-11.0322
▁імпульс	-11.0324
che	-11.0324
▁сябра	-11.0326
▁Астро	-11.0326
▁драматычны	-11.0327
▁тракт	-11.0329
▁героя	-11.0329
вол	-11.0332
▁дакладны	-11.0332
▁непадалёк	-11.0333
▁Скарыны	-11.0333
▁Шлях	-11.0333
▁працягнуў	-11.0334
▁Бабруйска	-11.0335
стка	-11.0337
▁Марс	-11.0337
▁Сяр	-11.0339
▁калгаса	-11.034
▁Чорнага	-11.0343
▁войны	-11.0344
▁Барысаўскі	-11.0344
▁візантыйска	-11.0345
▁катастроф	-11.0348
-30	-11.0348
▁змяніла	-11.0349
▁праяўля	-11.0349
▁Фрэ	-11.0351
▁кіп	-11.0355
▁удзелам	-11.0356
ff	-11.0359
берт	-11.0359
▁ўсталяваны	-11.036
▁Афрыка	-11.0363
▁аповесці	-11.0363
▁найбольшы	-11.0364
Са	-11.0364
лькі	-11.0365
ліны	-11.0368
▁прыкладам	-11.0372
▁султана	-11.0373
▁выдатна	-11.0374
гарадская	-11.0376
энд	-11.0376
рама	-11.0377
спі	-11.0378
пёр	-11.0378
▁НКУС	-11.0379
▁пляменнік	-11.0379
▁захаваць	-11.038
▁працэсы	-11.038
▁кодэкс	-11.0381
▁прадстаўнікам	-11.0382
po	-11.0385
▁раскры	-11.0386
▁камандавання	-11.0388
ts	-11.0392
эты	-11.0393
▁пабудова	-11.0393
▁эсэ	-11.0394
▁вучылішчы	-11.0394
▁паверхню	-11.0395
▁Кірава	-11.0395
▁адклад	-11.0396
наві	-11.0397
льц	-11.04
▁пасялі	-11.0402
ris	-11.0407
▁Брэста	-11.0407
▁гадзіны	-11.0408
▁сяржант	-11.0409
▁меліярацыйны	-11.041
▁займала	-11.0411
▁белым	-11.0414
бела	-11.0415
▁Se	-11.042
раванне	-11.042
▁рэп	-11.0421
▁міліцы	-11.0421
▁існава	-11.0421
▁камбінат	-11.0422
▁жыво	-11.0423
▁Карагандзінска	-11.0425
▁камуністычна	-11.0425
▁Мядзельскі	-11.0425
▁настольк	-11.0426
▁спрэчк	-11.0426
▁прадстаўляе	-11.0427
▁капітан	-11.0429
▁Захад	-11.0429
▁сінгл	-11.0434
лаб	-11.0434
гран	-11.0437
роўні	-11.0438
▁гульцоў	-11.0439
▁дыяпазон	-11.044
▁чырвоным	-11.044
▁прадмет	-11.0441
▁Праект	-11.0443
▁Рэч	-11.0446
▁1862	-11.0448
▁завяршэнн	-11.0448
ідаў	-11.0449
▁бачны	-11.0449
▁амерыканскага	-11.045
▁ранейшы	-11.0451
▁налічвалася	-11.0452
▁пашырэнне	-11.0453
▁зыход	-11.0453
▁1796	-11.0454
▁часовы	-11.0454
▁пакіда	-11.0455
▁травяністы	-11.0456
▁узяты	-11.0457
мэн	-11.0457
▁вірус	-11.0458
нейшы	-11.0458
бет	-11.0458
▁саветаў	-11.0459
▁рук	-11.046
▁знакам	-11.046
Ку	-11.0461
▁органам	-11.0461
лігі	-11.0462
бул	-11.0462
▁Сад	-11.0463
▁медыцыны	-11.0464
дова	-11.0464
▁акадэмік	-11.0464
▁Гей	-11.0467
ay	-11.0468
▁Мале	-11.0468
ствы	-11.0468
-21	-11.0469
▁Васіля	-11.0471
▁гарадамі	-11.0472
▁96	-11.0474
▁прыбор	-11.0475
рокі	-11.0476
▁Ніжня	-11.0477
▁Вет	-11.0478
▁Лос	-11.0481
Заходня	-11.0481
▁дысцыплін	-11.0482
▁AM	-11.0486
рызм	-11.049
▁дададзены	-11.049
▁скончыла	-11.0491
зара	-11.0492
берта	-11.0494
▁Te	-11.0494
▁Шк	-11.0495
▁спадарожніка	-11.0497
▁апавяданняў	-11.0499
над	-11.0502
▁размяшчэнне	-11.0502
▁накіроўва	-11.0502
▁падручнік	-11.0503
▁Усходзе	-11.0505
арт	-11.0505
даль	-11.0505
▁усю	-11.0506
▁9-	-11.0508
▁Кул	-11.0508
нена	-11.051
ноўскі	-11.0511
▁восем	-11.0515
▁яркі	-11.0515
маш	-11.0516
▁Еўропу	-11.0518
▁календары	-11.0518
▁аўтаматычна	-11.0518
▁паліцыі	-11.0519
▁узнік	-11.0522
▁Кун	-11.0522
▁словах	-11.0524
▁радыус	-11.0528
▁скі	-11.0529
▁кадра	-11.0532
▁Пля	-11.0534
▁Польшчу	-11.0534
ляцыя	-11.0537
▁даліны	-11.0539
▁Варта	-11.0539
▁Рускай	-11.0546
эна	-11.0547
▁Югаславіі	-11.0549
▁шляхецка	-11.0556
▁Юрыя	-11.0556
▁падпарадкаваны	-11.0557
▁занятк	-11.0557
▁Месца	-11.0558
▁ўключа	-11.0558
гун	-11.0559
▁валадар	-11.0562
зіна	-11.0564
эз	-11.0565
▁сельсавеце	-11.0565
▁дыплом	-11.0565
▁паўстанцаў	-11.0565
нічна	-11.0565
▁самалёта	-11.0566
▁сядзібна	-11.0567
ess	-11.0568
▁Лё	-11.0569
▁зычны	-11.0571
▁1876	-11.0572
▁заснавальніка	-11.0573
казаў	-11.0577
▁этнаграфі	-11.0578
▁атрымліваюць	-11.0579
▁рухавіка	-11.058
▁ВУП	-11.058
▁аўтары	-11.0581
▁Кіраўнік	-11.0581
▁прыродна	-11.0582
сных	-11.0583
тацыі	-11.0583
▁Ца	-11.0583
▁Лам	-11.0586
▁каналаў	-11.0588
▁фабрыка	-11.0589
▁Куп	-11.059
▁даход	-11.059
▁аэра	-11.059
▁матыв	-11.0591
▁пля	-11.0592
▁змяні	-11.0593
▁пазіцы	-11.0595
▁чалавецтва	-11.0596
▁трамвай	-11.0596
▁мужнас	-11.0598
▁пераведзены	-11.06
еўрапейск	-11.0603
▁партызанскі	-11.0603
фт	-11.0603
▁рускім	-11.0604
▁саступіў	-11.0605
аванні	-11.061
бло	-11.0611
фрэ	-11.0612
▁бюджэт	-11.0612
▁паўвостраў	-11.0612
▁факультэце	-11.0612
▁пясчаныя	-11.0612
▁Свіслач	-11.0612
▁Празе	-11.0612
▁рэакцыі	-11.0613
Ві	-11.0617
▁прызнанне	-11.0618
▁Венгрыя	-11.0619
▁Германска	-11.0621
▁бальніц	-11.0626
▁Гродзенскім	-11.0626
▁асветы	-11.0628
гэ	-11.063
ty	-11.0632
▁Лідскі	-11.0635
бах	-11.0635
вян	-11.0643
▁захаванне	-11.0643
▁Нідэрланды	-11.0643
▁Працягласць	-11.0643
▁ўвайшоў	-11.0643
▁філасофі	-11.0644
▁сена	-11.0645
▁губ	-11.0647
▁прывёў	-11.0648
▁падтрымлівае	-11.065
▁захаваны	-11.065
▁апісаны	-11.0653
▁кардынал	-11.0653
палітычную	-11.0658
слы	-11.0659
віцкай	-11.066
▁Высока	-11.066
метра	-11.066
▁Тарас	-11.066
▁праяв	-11.0663
▁Гідра	-11.0664
▁старшын	-11.0664
▁перыядычна	-11.0664
▁тэмператур	-11.0665
▁зале	-11.0665
▁выкана	-11.0667
▁паслядоўна	-11.0667
▁пашырана	-11.0669
▁ахов	-11.0671
▁50-	-11.0671
йшла	-11.0672
нула	-11.0672
▁Лаўр	-11.0672
равання	-11.0673
дзённы	-11.0675
ерам	-11.0676
▁Наша	-11.0676
аваных	-11.0678
▁Славы	-11.0679
ap	-11.0679
▁Навуковы	-11.068
▁аконны	-11.068
▁тыпы	-11.0681
▁пароды	-11.0682
▁аднайменнай	-11.0683
ys	-11.0685
▁рако	-11.0687
▁рэспублік	-11.0688
▁пірамід	-11.0693
▁Адной	-11.0694
▁пражывання	-11.0697
▁мак	-11.0697
ента	-11.0701
▁міжнародным	-11.0701
▁Ідэ	-11.0701
крыццё	-11.0704
▁Бон	-11.0706
▁позні	-11.0707
▁багоў	-11.0707
▁Полацкай	-11.0712
▁1800	-11.0713
▁руд	-11.0714
▁ўключана	-11.0714
▁адсутнічае	-11.0716
▁Цэнтральнага	-11.0717
▁1,6	-11.072
кевіча	-11.072
▁завярша	-11.0723
▁найстарэйшы	-11.0723
нулі	-11.0725
▁любоў	-11.0725
ляры	-11.0727
▁артыкула	-11.0728
сло	-11.073
▁дзяцінства	-11.0731
▁рэальны	-11.0733
▁прапаноў	-11.0733
▁Ноўгарад	-11.0735
▁элемента	-11.0735
шую	-11.0736
▁перадава	-11.0738
▁эпізод	-11.0739
▁лясно	-11.0739
▁каляндар	-11.074
▁архіпелаг	-11.0742
pr	-11.0743
▁Малая	-11.0744
▁le	-11.0746
▁1865	-11.0747
▁дзеячаў	-11.0748
графія	-11.0749
вінава	-11.075
▁танкава	-11.0751
▁кампаній	-11.0755
аўскім	-11.0755
▁Наступны	-11.0756
даючы	-11.0758
ёвы	-11.0759
кура	-11.0765
▁скульптур	-11.0768
▁Аргенцін	-11.0768
▁сума	-11.0769
▁паэм	-11.077
▁Еўрабачанне	-11.077
▁песню	-11.077
▁каэфіцыент	-11.077
▁трагеды	-11.077
▁ўпраўлення	-11.0771
▁розум	-11.0771
▁Кругл	-11.0771
ant	-11.0771
▁Палесцін	-11.0772
▁сабра	-11.0772
▁паўфінал	-11.0772
▁Іаан	-11.0773
▁x	-11.0777
▁Чэхаславакіі	-11.0778
▁Ірана	-11.0779
▁Цела	-11.0783
▁самалётаў	-11.0784
7,5	-11.0786
▁Верагодна	-11.0786
▁Адольф	-11.0787
▁заўважы	-11.0787
▁дыпламатычны	-11.0787
▁кансерв	-11.0788
▁Заснавальнік	-11.0788
▁шанава	-11.0788
лямі	-11.0791
▁ажані	-11.0792
гнуты	-11.0793
▁жывы	-11.0795
янка	-11.0797
▁вывад	-11.0799
▁Яно	-11.0801
▁Барба	-11.0802
▁плыні	-11.0803
▁высокага	-11.0803
▁падрыхтоўц	-11.0804
020	-11.0806
▁ніжні	-11.0806
▁належал	-11.0808
ене	-11.0808
▁медыцынска	-11.0812
▁праектаў	-11.0812
камп	-11.0812
сбург	-11.0818
▁Егіпце	-11.0819
▁адпраўлены	-11.0819
▁тэмп	-11.0819
▁балгарска	-11.0819
▁пратакол	-11.0821
▁размяшчэння	-11.0822
▁Якаў	-11.0822
▁ездзе	-11.0825
гір	-11.0826
▁Канадзе	-11.0827
ёй	-11.083
▁лідараў	-11.0831
▁грамадзянін	-11.0834
▁ўсходнім	-11.0834
▁навуковым	-11.0835
▁Вайніловіч	-11.0835
▁памочнік	-11.0835
▁Абрам	-11.0837
▁кіруе	-11.0838
▁шча	-11.0841
▁Усходу	-11.0841
▁адлюстроўва	-11.0846
▁125	-11.0847
лучаецца	-11.0848
▁адтулін	-11.0852
▁Гале	-11.0853
дэра	-11.0854
▁Эдвард	-11.0854
ржа	-11.0855
▁Маскоўскі	-11.0856
▁Інг	-11.0856
▁ахоўва	-11.0856
▁Com	-11.0859
саюз	-11.086
▁выяўленн	-11.0862
▁опер	-11.0863
▁згуляў	-11.0864
▁Цэнтральная	-11.0864
лейтэнант	-11.0865
▁Жэ	-11.0866
быць	-11.0867
▁паляпшэнн	-11.0867
руш	-11.0868
вір	-11.0868
uc	-11.087
▁кавалер	-11.0871
ist	-11.0871
▁нізкі	-11.0871
▁плоскі	-11.0872
веднік	-11.0873
▁Анг	-11.0874
рку	-11.0877
знаўца	-11.0877
▁Спе	-11.0882
▁арыгінальны	-11.0883
▁галава	-11.0883
▁слабы	-11.0883
▁Рымска	-11.0892
▁баявыя	-11.0895
▁Lo	-11.0896
▁Бітва	-11.0896
▁СМІ	-11.0899
▁каралёў	-11.09
▁аркестр	-11.0905
сот	-11.0905
▁даўга	-11.0907
▁спецыялістаў	-11.0909
тыку	-11.0912
скры	-11.0913
▁знешня	-11.0913
скоп	-11.0913
▁пята	-11.0913
рыйскі	-11.0915
▁Бары	-11.0915
▁сербскі	-11.0916
▁Дэн	-11.0917
віц	-11.0924
▁атрады	-11.0926
ват	-11.0929
цер	-11.093
▁паўста	-11.0931
▁запісаў	-11.0931
▁лацінскі	-11.0931
▁БАТЭ	-11.0932
▁Узбекістан	-11.0932
▁батанік	-11.0933
▁60-	-11.0933
лізм	-11.0933
▁вылучаюць	-11.0935
▁трыбун	-11.0935
▁эліт	-11.0939
▁сяр	-11.0941
▁моцным	-11.0941
▁зон	-11.0942
▁Вільнюс	-11.0943
▁Акадэмі	-11.0944
ии	-11.0945
▁лін	-11.0946
рні	-11.0946
▁дата	-11.0947
▁паняцця	-11.0948
▁стромкі	-11.0948
част	-11.0948
хоп	-11.0949
▁граб	-11.0949
нікава	-11.0951
ko	-11.0952
▁тэхніка	-11.0952
▁1875	-11.0956
▁Вале	-11.096
джва	-11.0962
▁бюро	-11.0963
▁нарэшце	-11.0965
▁студы	-11.0967
хіл	-11.0967
▁нараджэнн	-11.0967
▁глыбокі	-11.0969
▁скура	-11.0971
▁1873	-11.0972
метр	-11.0974
спан	-11.0975
▁вугла	-11.0975
▁высокая	-11.0977
йскае	-11.0978
▁планава	-11.0979
▁нка	-11.0981
▁Песня	-11.0981
▁Салігорск	-11.0981
льт	-11.0985
▁Польскага	-11.0987
▁поўным	-11.099
▁персанаж	-11.0992
германск	-11.0993
▁гульн	-11.0995
▁под	-11.0995
▁здзейсні	-11.0996
▁вып	-11.0996
▁дакументы	-11.0997
▁прыгажосц	-11.0997
▁Шан	-11.0998
▁He	-11.0999
▁ледзь	-11.1001
▁ключ	-11.1002
▁выкліка	-11.1002
▁Міла	-11.1003
▁1,4	-11.1004
▁жывых	-11.1004
сти	-11.1006
▁1814	-11.1006
рных	-11.1007
▁Лан	-11.1007
▁Анатол	-11.1008
▁Ізраіль	-11.1009
▁аблог	-11.1009
Ва	-11.101
▁Значна	-11.1012
▁дзяржавамі	-11.1014
▁1820	-11.1016
▁павыша	-11.1017
▁падатка	-11.1018
Ха	-11.1019
▁прамым	-11.1022
▁Бак	-11.1022
▁1815	-11.1023
▁тэкстаў	-11.1024
ёз	-11.1024
▁Знак	-11.1026
▁падабенства	-11.103
▁Дама	-11.1031
▁падтрымліваў	-11.1032
сацыя	-11.1032
энс	-11.1034
▁настаўнік	-11.1034
▁прамов	-11.1036
▁пл	-11.1036
▁1877	-11.1037
▁яўляцца	-11.1037
плыв	-11.1039
▁Юлія	-11.104
▁кангрэс	-11.1041
▁архіпелага	-11.1043
▁Грын	-11.1044
▁1772	-11.1045
▁прымаю	-11.1045
▁Ленінградска	-11.1046
▁Босніі	-11.1046
▁дырыжор	-11.1046
▁небяспек	-11.1046
▁Маршал	-11.1047
▁набліжа	-11.1047
несла	-11.1047
сярэдзіне	-11.1048
▁гвалт	-11.105
дараў	-11.1052
▁прадметы	-11.1052
▁уступіў	-11.1055
▁запар	-11.1056
▁Круп	-11.1057
гні	-11.1058
▁Турцыя	-11.1059
тні	-11.106
▁Паўночным	-11.1062
▁гравюр	-11.1062
кул	-11.1063
▁Статут	-11.1063
▁клетак	-11.1063
▁служа	-11.1064
▁павялічва	-11.1066
▁Евангелля	-11.107
▁Заходнім	-11.1071
▁выпуску	-11.1071
▁знакаў	-11.1071
бег	-11.1072
піён	-11.1073
▁аналаг	-11.1074
▁мяня	-11.1076
▁шум	-11.1077
▁баё	-11.1079
▁тагачасна	-11.1079
▁металаў	-11.1082
пісаны	-11.1084
▁заключэнн	-11.1086
анг	-11.1087
▁тычы	-11.1088
▁ядноўва	-11.1088
ци	-11.1092
▁Лагойскі	-11.1095
▁акупіравана	-11.1095
▁фестываль	-11.1095
▁матыва	-11.1097
▁Валын	-11.11
▁Сім	-11.1105
выдавец	-11.1106
▁87	-11.1106
▁насенн	-11.1107
ДУ	-11.1107
дзясят	-11.1107
▁Скончыла	-11.1112
▁Сучасна	-11.1112
▁Сонечна	-11.1113
▁тавар	-11.1113
▁далучана	-11.1114
▁працягвалас	-11.1115
▁Астравы	-11.1116
ковай	-11.1116
oc	-11.1117
▁мільён	-11.1117
▁Заба	-11.1117
▁Ер	-11.1118
▁капітал	-11.1119
▁неабходнасц	-11.112
▁распрацаваў	-11.1121
▁05	-11.1123
▁Жыве	-11.1123
▁прадстаўля	-11.1123
▁Меў	-11.1124
▁лагера	-11.1124
фен	-11.1126
▁некалькімі	-11.1127
▁харч	-11.1127
▁мне	-11.1127
▁продкаў	-11.1128
▁вяселл	-11.1129
▁дрэвы	-11.1129
▁злучэння	-11.1129
▁Гродне	-11.1129
▁сядзіб	-11.1131
▁пашырэння	-11.1131
▁лідарам	-11.1132
шчаны	-11.1132
▁105	-11.1134
▁насілі	-11.1134
▁сенатар	-11.1135
ападобныя	-11.1135
цвер	-11.1137
▁барацьба	-11.1138
▁кандыдата	-11.1139
▁Віт	-11.114
▁бен	-11.1142
▁Леапольд	-11.1145
▁Магілёве	-11.1145
▁мяккі	-11.1145
▁пісьмо	-11.1147
▁здрад	-11.1149
▁пазнейшы	-11.1151
▁Ушацкі	-11.1153
ваенн	-11.1154
▁Хер	-11.1155
▁вучн	-11.1157
▁пісьмова	-11.116
5,5	-11.1162
ога	-11.1162
▁халодны	-11.1162
▁Сенненскі	-11.1162
пур	-11.1162
ніцу	-11.1162
▁пачынаю	-11.1163
▁прымяня	-11.1163
▁97	-11.1164
▁ўмацава	-11.1164
▁абазнача	-11.1165
▁хуткім	-11.1165
▁Ліс	-11.1169
▁Тэле	-11.1169
▁свабоду	-11.117
▁вагон	-11.117
гавор	-11.1172
▁запісаны	-11.1176
▁Альбрэхт	-11.1178
▁публічна	-11.1178
▁Прызавы	-11.1178
▁шклян	-11.1179
▁пасту	-11.1179
▁царквой	-11.118
▁баяво	-11.1182
▁галавы	-11.1182
▁Бабруйскі	-11.1182
слуг	-11.1187
▁Спі	-11.1188
▁вус	-11.1189
▁сведчанн	-11.1193
eg	-11.1194
▁Vi	-11.1194
▁Заснавана	-11.1195
▁аднолькавы	-11.1195
▁абарот	-11.1195
▁бульб	-11.1196
▁Бала	-11.1197
▁Існую	-11.1198
▁падтрымка	-11.1199
▁Імя	-11.1199
▁распрацоўкі	-11.1201
▁Нік	-11.1201
▁палкоўнік	-11.1202
▁Юзаф	-11.1202
▁Петр	-11.1203
▁сцэне	-11.1204
▁Оль	-11.1205
тран	-11.1206
▁сацыялістычна	-11.1207
лаўскага	-11.1207
▁трэнерам	-11.1208
up	-11.1209
▁ідэал	-11.1209
▁заканадаўства	-11.1209
▁размешчаная	-11.121
▁Ісландыі	-11.1212
гоні	-11.1212
пель	-11.1212
▁палітыцы	-11.1213
▁забалочаныя	-11.1216
▁нава	-11.1222
▁Атрымаў	-11.1223
▁скульптура	-11.1224
▁пашкоджанн	-11.1228
▁каштоўнасцей	-11.1229
▁Каралеўскі	-11.1229
▁контр	-11.123
роджана	-11.1231
▁суха	-11.1235
▁кляштара	-11.1237
▁веда	-11.1237
▁адзінага	-11.1238
▁Мад	-11.124
лёва	-11.1241
▁Зараз	-11.1242
▁эксперт	-11.1243
▁знішчыў	-11.1243
▁Месяц	-11.1244
▁тэхналогій	-11.1245
▁прадмесц	-11.1245
▁дэмакратычна	-11.1246
▁шматгадовы	-11.1246
▁заходне	-11.1248
▁адказны	-11.1249
▁трапляе	-11.1249
▁дэпартамент	-11.1251
▁ўключаю	-11.1251
▁дзікі	-11.1252
▁карысталіс	-11.1253
рэцкі	-11.1254
▁сабраў	-11.1256
лявы	-11.1258
▁шырокай	-11.1259
▁лап	-11.1259
▁Tr	-11.126
▁атакава	-11.1261
ich	-11.1261
▁гістарыяграфі	-11.1262
▁халодна	-11.1262
▁знайшлі	-11.1262
▁віленска	-11.1262
▁аўтамабільны	-11.1265
▁уведзены	-11.1266
▁еў	-11.1267
▁нарыс	-11.127
▁тэрмінам	-11.1271
▁экз	-11.1276
▁аснова	-11.1277
ски	-11.1279
▁кірунак	-11.1279
▁могілкі	-11.1279
▁Італію	-11.1279
▁Армянска	-11.1279
▁сучаснік	-11.1281
▁цяжкасц	-11.1281
▁суперніка	-11.1283
бак	-11.1284
праект	-11.1286
чава	-11.1287
▁кветка	-11.129
▁квадратны	-11.1292
6,5	-11.1296
▁Амундсен	-11.1296
▁практыцы	-11.1296
▁паралельна	-11.1296
▁варожы	-11.1296
▁Гур	-11.1296
лагічнай	-11.1296
▁адбываліс	-11.1297
▁пяты	-11.1297
▁Канстанцінопал	-11.1298
▁току	-11.1301
▁спява	-11.1306
▁Канстанцінопаль	-11.131
▁рэвалюцыя	-11.1313
▁тэрытарыяльны	-11.1313
верс	-11.1314
▁ІІ	-11.1315
▁кольца	-11.1316
▁мовамі	-11.1318
▁залато	-11.1318
▁93	-11.1321
▁рэвалюцыйны	-11.1321
▁Прыкладна	-11.1325
▁маршал	-11.1325
▁Саветаў	-11.1326
▁аналагічны	-11.1328
▁модул	-11.1328
▁супрацоўнікам	-11.133
▁Расію	-11.1331
▁Роберта	-11.1331
▁экран	-11.1333
луш	-11.1335
▁Pro	-11.1339
▁кароны	-11.134
▁уварва	-11.1342
▁здабыча	-11.1344
▁ферм	-11.1345
▁найвышэйша	-11.1346
▁абгрунтава	-11.1346
▁эстафе	-11.1346
▁Алжыр	-11.1347
▁перамяшчэнн	-11.1347
▁адзначаецца	-11.1348
▁Di	-11.1348
▁збудаванне	-11.1348
▁Вілейска	-11.135
▁Алекс	-11.1351
▁Ама	-11.1352
▁футбола	-11.1354
▁пытанняў	-11.1358
леных	-11.1358
▁істотны	-11.136
фільм	-11.1361
▁выйсц	-11.1362
соўва	-11.1362
▁запрошаны	-11.1363
▁польск	-11.1367
▁вулкан	-11.1367
▁павелічэнне	-11.1368
▁арэнду	-11.1369
▁Прыпяц	-11.137
▁загадчыкам	-11.1375
гва	-11.1377
▁Эрык	-11.1378
▁балета	-11.1378
▁інструмента	-11.1381
▁ўтрымлівае	-11.1385
▁Na	-11.1386
таваў	-11.1386
▁гарачы	-11.1387
▁маёмасці	-11.1388
ковых	-11.1388
▁сцэны	-11.1395
▁капэл	-11.1396
▁Плі	-11.1397
▁выпушчана	-11.1397
ходзілі	-11.1397
▁найменш	-11.1398
нікненн	-11.1398
▁лётчык	-11.1398
▁заменены	-11.1399
нструкт	-11.1399
▁навукоўцы	-11.1401
▁судовы	-11.1401
▁выкліканы	-11.1403
▁эфектыўна	-11.1405
era	-11.1406
▁Шам	-11.1407
цюр	-11.1408
рбан	-11.141
▁Талін	-11.1413
▁медалямі	-11.1413
▁Іса	-11.1413
▁душы	-11.1414
▁славянска	-11.1414
▁ахоплівае	-11.1415
аген	-11.1416
▁пілот	-11.1417
▁карпус	-11.1418
▁воін	-11.142
▁Клі	-11.1425
▁месяца	-11.1428
аматар	-11.1429
▁Камісі	-11.1433
▁плаванн	-11.1435
▁Сур	-11.1435
графіі	-11.1436
▁Хрыс	-11.1437
▁завяршыў	-11.1441
▁прэфектур	-11.1442
▁Вільня	-11.1443
▁Цё	-11.1444
▁12-	-11.1444
▁студыі	-11.1444
▁эст	-11.1445
▁прыведзены	-11.1446
▁скрын	-11.1448
▁антычна	-11.1448
▁найвышэйшы	-11.1448
▁паведамляе	-11.1449
▁няўдала	-11.1449
▁супраціўленне	-11.1449
▁хава	-11.145
▁колераў	-11.1451
▁гаспадарча	-11.1451
▁ўрач	-11.1451
▁Астравецкі	-11.1452
іну	-11.1461
цэр	-11.1461
ставіць	-11.1461
▁Спар	-11.1463
шмат	-11.1465
▁Варшаўска	-11.1466
▁забеспячэнне	-11.1466
▁Альб	-11.1466
▁Радзівілаў	-11.1466
▁рэспубліканскі	-11.1467
▁перабудов	-11.1467
tus	-11.1467
▁Архі	-11.1468
▁Плад	-11.1469
▁дэбют	-11.147
дзейніча	-11.147
▁валодаю	-11.147
мала	-11.1472
чор	-11.1472
▁позняга	-11.1475
▁партыйна	-11.1477
ццю	-11.1477
▁сала	-11.1478
▁кампазітара	-11.1478
▁хрысціянска	-11.148
▁кафедра	-11.1481
▁буйнейшы	-11.1483
▁малітв	-11.1483
▁сюды	-11.1484
▁шляхоў	-11.1484
land	-11.1484
ковым	-11.1485
▁прыбытк	-11.1487
▁праўда	-11.1487
per	-11.1488
-13	-11.1488
невы	-11.149
▁1883	-11.1491
▁манеты	-11.1491
▁навукоўцаў	-11.1493
▁Вялі	-11.1493
▁каралю	-11.1493
▁кле	-11.1493
▁ёмам	-11.1495
алагічных	-11.1495
була	-11.1495
леб	-11.1495
▁тонкі	-11.1496
▁Жар	-11.1498
▁батальён	-11.1499
▁злучэнняў	-11.15
▁малюнак	-11.15
скра	-11.15
▁Кол	-11.1501
оды	-11.1502
▁вузкі	-11.1502
▁здольнасць	-11.1505
▁адышл	-11.1505
▁сімвалізу	-11.1505
юк	-11.1506
Усходня	-11.1506
▁Фёдаравіч	-11.1508
▁кветкавы	-11.1511
▁рэчаіснасц	-11.1516
анцы	-11.1516
▁узначаліў	-11.1517
▁фінансаў	-11.1517
▁гібелі	-11.1517
▁аўтадарог	-11.1517
▁брэйк	-11.1518
▁ніводна	-11.1518
▁абсерваторыі	-11.152
▁выкладчыкам	-11.152
▁гука	-11.1521
▁наперад	-11.1526
▁Старога	-11.1528
▁весці	-11.153
▁магутна	-11.153
чок	-11.1532
▁архіў	-11.1532
мел	-11.1533
▁роспіс	-11.1535
мерна	-11.1536
▁забаронена	-11.1537
▁Вышэйшы	-11.1537
дэл	-11.1539
▁фінальны	-11.1539
▁Выбар	-11.1539
круг	-11.1545
ian	-11.1549
▁Калумб	-11.1549
▁узбярэжжа	-11.1549
▁Стал	-11.1551
▁астатня	-11.1552
▁прыцягненн	-11.1552
АК	-11.1554
▁перасяленн	-11.1554
▁89	-11.1554
▁900	-11.1555
▁туры	-11.1555
▁удалос	-11.1555
▁сектар	-11.1557
▁79	-11.1558
▁старога	-11.156
▁усталява	-11.1561
▁пасольства	-11.1561
▁Захар	-11.1561
▁адміністрацыя	-11.1565
▁іспанц	-11.1568
▁Тыр	-11.1569
маз	-11.1569
дарож	-11.1569
▁агонь	-11.1569
▁чарна	-11.157
▁падводны	-11.1571
пло	-11.1572
▁магутнасц	-11.1572
▁Шап	-11.1583
бр	-11.1585
▁Некалькі	-11.1586
▁ўрачыста	-11.1586
▁папуляцы	-11.1586
▁фігуры	-11.1588
▁турыстаў	-11.1588
ераў	-11.159
лішча	-11.159
▁Фінляндыя	-11.1593
▁1869	-11.1594
стэры	-11.1596
АП	-11.1597
ніла	-11.1598
▁змяняе	-11.1598
▁Кампа	-11.16
чыкаў	-11.16
мела	-11.16
▁разьб	-11.1601
▁Граб	-11.1601
бана	-11.1601
▁Лы	-11.1603
▁дызайн	-11.1605
▁датуе	-11.1606
▁епіскап	-11.1607
▁дзесяць	-11.1607
ыходзячы	-11.161
▁аддаў	-11.1612
▁Ігнат	-11.1613
▁Стэн	-11.1614
▁рабіць	-11.1614
нберг	-11.1615
▁фінале	-11.1616
▁адкрыла	-11.162
▁руін	-11.162
▁вобл	-11.162
▁скур	-11.162
▁ажыццяўленн	-11.1621
▁візантыйскі	-11.1621
▁апазіцыі	-11.1621
▁выбітны	-11.1622
▁Сірыі	-11.1622
груд	-11.1623
фта	-11.1623
▁спосабам	-11.1624
▁дзеючы	-11.1625
▁вечар	-11.1625
▁Крыжа	-11.1626
▁1654	-11.1628
▁разбіты	-11.1628
зван	-11.1628
док	-11.1629
▁91	-11.1632
▁раўніна	-11.1633
▁спаліл	-11.1634
▁маста	-11.1634
▁Бата	-11.1634
▁Пінска	-11.1635
наваны	-11.1637
▁ХІХ	-11.1638
▁мякка	-11.1638
ведам	-11.1639
▁Гла	-11.1639
▁посуд	-11.1641
шту	-11.1644
лізму	-11.1646
душ	-11.1647
кос	-11.1648
рац	-11.1648
▁сялянскі	-11.1648
▁абедзв	-11.1649
▁дубль	-11.1653
▁пераважа	-11.1653
2,8	-11.1656
▁World	-11.1656
▁ўяўляю	-11.1657
▁Традыцыйна	-11.1658
Дж	-11.1658
▁зборніка	-11.1662
▁Рэчыцкі	-11.1664
▁радовішч	-11.1666
▁майстэрства	-11.1673
▁спрабавалі	-11.1673
▁бакавыя	-11.1675
▁Дабра	-11.1676
▁Раён	-11.1677
▁Эры	-11.1677
OS	-11.1677
▁Ізраіля	-11.1678
▁тунэл	-11.168
▁стол	-11.1681
▁сотні	-11.1682
▁Стру	-11.1682
▁Само	-11.1685
стор	-11.1687
▁Якуба	-11.1687
lu	-11.1689
▁Албаніі	-11.1691
▁Лунінец	-11.1691
▁Міжземнамор	-11.1691
▁заня	-11.1692
міністрам	-11.1693
▁папулярнасц	-11.1696
▁атама	-11.1698
▁нейка	-11.1699
▁выпадкова	-11.1699
▁Сцяпан	-11.17
▁арганізма	-11.17
▁1839	-11.1701
▁вайно	-11.1702
▁крымінальна	-11.1704
▁115	-11.1706
▁Мядзведзіца	-11.1708
▁ўведзена	-11.171
▁накрыты	-11.1712
ляюцца	-11.1713
wi	-11.1714
▁no	-11.1714
▁згуб	-11.1715
▁міні	-11.1719
▁вяршыня	-11.172
▁амерыканскім	-11.172
▁выявілі	-11.1721
▁куст	-11.1723
▁бран	-11.1723
▁Львов	-11.1725
горы	-11.1725
▁Літоўскім	-11.1726
▁талент	-11.1726
▁самім	-11.1727
▁Мая	-11.1728
▁унутры	-11.1728
▁Савец	-11.1729
▁збудаваны	-11.1729
▁губерняў	-11.173
▁гавора	-11.173
▁перайменаваны	-11.173
▁Сцен	-11.173
▁чэмпіёнаў	-11.1734
▁бачна	-11.1739
▁перавоз	-11.1743
▁хмызняк	-11.1743
▁Championship	-11.1744
▁пенсі	-11.1744
славянска	-11.1744
▁прызнана	-11.1745
▁гавары	-11.1747
▁магло	-11.1748
▁Яму	-11.1748
▁прапаганд	-11.1751
▁акіяне	-11.1753
▁удзельніча	-11.1753
▁Вэ	-11.1754
▁задня	-11.1755
▁Фердынанд	-11.1758
▁выкананн	-11.1761
▁Маладзечанскі	-11.1761
▁1,1	-11.1761
▁трапіла	-11.1762
▁Каманда	-11.1763
▁большы	-11.1764
▁лёгкі	-11.1765
▁шэра	-11.1766
▁авары	-11.1766
▁паэтычны	-11.1767
▁ўзяў	-11.1767
▁адпраўля	-11.1768
go	-11.1769
▁марка	-11.1769
010	-11.177
лічаны	-11.1771
▁Стар	-11.1773
дных	-11.1773
дзень	-11.1774
▁92	-11.1774
▁магутнасці	-11.1774
▁дадзеным	-11.1775
▁пісьма	-11.1779
▁дрэнна	-11.1779
▁лінію	-11.1782
▁Друг	-11.1783
фэ	-11.1786
дорф	-11.1791
сля	-11.1791
ловіч	-11.1792
▁серыял	-11.1792
▁Жук	-11.1794
▁кантынента	-11.1796
▁праход	-11.1796
▁адрознення	-11.1797
▁Кожна	-11.18
▁пастаноўк	-11.1801
▁сродак	-11.1802
▁мастаком	-11.1803
▁тыл	-11.1806
▁адзення	-11.1807
▁парламенцкі	-11.1807
▁ствараю	-11.1809
▁забіва	-11.181
сёл	-11.1811
▁электронна	-11.1811
▁Афін	-11.1813
ip	-11.1814
▁ажыццяві	-11.1814
▁дасягненні	-11.1814
▁рэсурсаў	-11.1815
▁палякаў	-11.1815
си	-11.1815
▁спадчын	-11.1817
▁прастола	-11.1819
▁сумесны	-11.1823
za	-11.1824
▁залатым	-11.1825
▁струн	-11.1825
▁прадукцы	-11.1827
ik	-11.1827
▁дэль	-11.1827
▁працяг	-11.1828
▁гета	-11.1829
▁абвінавачванн	-11.1831
▁Ака	-11.1831
▁экспанат	-11.1832
▁падрабязна	-11.1832
▁вопратк	-11.1832
▁выкарыстанн	-11.1833
▁артылерыі	-11.1835
ючага	-11.1836
▁стро	-11.1839
▁здольнасці	-11.1839
▁хаке	-11.1841
селен	-11.1845
▁падкрэслі	-11.1845
▁хваста	-11.1845
▁Смаргонскі	-11.1848
by	-11.1849
▁туды	-11.1849
▁Рэн	-11.185
▁Навагрудскі	-11.185
▁прадстаўленн	-11.185
▁абсталяванне	-11.185
▁Мора	-11.1854
ly	-11.1854
▁спыніў	-11.1855
▁папер	-11.1855
▁тая	-11.1856
▁часці	-11.186
Ла	-11.1861
▁тэрыторыях	-11.1861
▁нель	-11.1864
▁асяроддзе	-11.1864
рланд	-11.1865
▁воінаў	-11.1866
▁пазбаўлены	-11.1868
▁ўзгорк	-11.1868
пут	-11.1869
▁амерыканская	-11.1869
▁рэклам	-11.1869
ону	-11.1871
▁ацэньва	-11.1872
▁вусці	-11.1875
▁акта	-11.1875
▁месці	-11.1878
▁карысны	-11.1879
▁Аста	-11.188
ржы	-11.1883
ский	-11.1885
▁паселішчаў	-11.1885
▁паўвостраве	-11.1886
▁чарговы	-11.1886
▁курорт	-11.1886
ski	-11.1887
нькі	-11.1888
▁ma	-11.1888
▁знішчана	-11.1888
▁Замак	-11.1888
▁храмаў	-11.1889
джу	-11.1892
▁Зуб	-11.1895
▁Хам	-11.1898
▁метры	-11.1898
рыё	-11.19
▁дэмакратычны	-11.19
▁РБ	-11.1904
▁Аві	-11.1905
▁камерцыйны	-11.1905
▁калекцы	-11.1905
▁аул	-11.1907
▁Аку	-11.1907
▁размаўля	-11.1908
▁дасягаю	-11.1908
ціс	-11.1911
ьнай	-11.1911
▁крэм	-11.1913
▁арыгінал	-11.1914
▁крам	-11.1915
▁выпадк	-11.1916
алежнасць	-11.1916
хара	-11.1917
▁закрыты	-11.1917
▁мармур	-11.1921
▁цывілізацыі	-11.1921
▁цёплы	-11.1921
▁ўзаемадзеяння	-11.1921
▁гатовы	-11.1922
белы	-11.1922
▁герой	-11.1923
АА	-11.1924
▁Орша	-11.1924
zi	-11.1924
▁хара	-11.1925
▁літоўска	-11.1925
▁паруша	-11.1929
▁Пітэр	-11.1929
▁школах	-11.1931
▁Вір	-11.1932
ect	-11.1934
▁збег	-11.1939
▁International	-11.1939
▁Найбуйнейшы	-11.1939
▁военачальнік	-11.1939
▁выпадак	-11.1939
▁скасавана	-11.1939
▁выключа	-11.1945
son	-11.1947
▁Баку	-11.1947
▁бамбардзір	-11.195
▁варыянты	-11.1953
▁сярэднявечна	-11.1957
▁Алімпіяд	-11.1957
▁паштовы	-11.1958
гел	-11.1958
▁тлушч	-11.1959
vo	-11.1959
▁абяца	-11.1961
▁суме	-11.1963
нізава	-11.1967
▁ветра	-11.1969
▁Анта	-11.197
▁падпарадкаванн	-11.197
▁плада	-11.1972
▁веды	-11.1972
▁свецка	-11.1973
▁пачатковы	-11.1977
▁ФК	-11.1978
▁Лас	-11.1979
▁партрэты	-11.1983
ak	-11.1984
▁рэформа	-11.1985
▁Міра	-11.199
▁Хва	-11.1991
▁Македоніі	-11.1993
▁апавяданні	-11.1995
▁геаметры	-11.1995
▁Іўеўскі	-11.1997
тнае	-11.1999
▁Венгерска	-11.2
ццё	-11.2001
▁сельскага	-11.2005
▁скар	-11.201
▁ВНУ	-11.2011
▁Дэпутат	-11.2011
▁Турнір	-11.2012
▁кіруючы	-11.2012
ызацыі	-11.2012
▁0,9	-11.2013
▁Галь	-11.2014
sk	-11.2017
▁Мадрыд	-11.2018
du	-11.2018
біла	-11.2021
▁1859	-11.2021
▁недастаткова	-11.2021
▁1856	-11.2022
▁To	-11.2022
▁1700	-11.2023
берга	-11.2026
▁расійскім	-11.2026
▁гаспадарцы	-11.2027
▁Ваўкавыск	-11.2029
▁Імперыі	-11.203
▁Сербска	-11.203
▁Вайна	-11.203
нізму	-11.203
▁тэарэтычна	-11.2031
▁Апалон	-11.2031
▁паказалі	-11.2032
▁сястра	-11.2032
▁інтэрв	-11.2032
▁ансамбль	-11.2032
▁Малады	-11.2033
▁Конга	-11.2039
▁вырашылі	-11.204
▁труп	-11.204
чко	-11.2041
спел	-11.2042
▁мнага	-11.2042
▁Без	-11.2045
▁полюса	-11.2046
чыкі	-11.2046
▁пацвярджа	-11.2048
▁пазбегну	-11.2048
▁Рэспу	-11.2048
▁шкло	-11.2048
▁Еўразіі	-11.2048
мона	-11.2049
▁свецкі	-11.2051
▁агенцтва	-11.2052
▁падпарадкавання	-11.2053
▁лісты	-11.2054
▁камандзірам	-11.2054
▁арбіты	-11.2059
▁Par	-11.206
▁la	-11.206
▁Джу	-11.2062
▁заваявання	-11.2062
дора	-11.2062
▁фармірава	-11.2063
▁Соф	-11.2064
вела	-11.2064
▁феадал	-11.2065
▁фізіялогі	-11.2066
▁змяшчаю	-11.2066
▁страціла	-11.2066
▁дыскусі	-11.2066
▁глеб	-11.2066
▁пячоры	-11.207
чи	-11.2071
▁страта	-11.2071
▁Арагон	-11.2071
ep	-11.2074
▁уладальнік	-11.2075
▁1858	-11.2076
нары	-11.2077
дэс	-11.2078
казвае	-11.2078
▁Гус	-11.2081
q	-11.2082
▁Полацку	-11.2084
▁бог	-11.2084
▁перасякае	-11.2084
▁зімой	-11.2084
ходзіла	-11.2087
▁кампазіцый	-11.2089
▁вас	-11.2091
und	-11.2091
цом	-11.2091
▁наклад	-11.2092
▁значным	-11.2095
чыкам	-11.2096
данні	-11.2097
▁Ашмян	-11.2097
▁1,8	-11.2098
зялёна	-11.2098
фл	-11.2099
▁здолелі	-11.2102
▁жалезна	-11.2103
зімку	-11.2103
▁Зорка	-11.2104
▁Адэс	-11.2105
▁Руб	-11.2106
▁Рыа	-11.2108
▁дапамож	-11.2109
▁дэма	-11.2109
шнік	-11.211
▁проці	-11.2112
манам	-11.2114
▁Грэцыя	-11.2115
▁тэрытарыяльна	-11.2119
▁Windows	-11.2121
▁паляўнічы	-11.2121
▁1200	-11.2123
▁Жана	-11.2127
▁піва	-11.2127
▁Аф	-11.2129
▁экспарт	-11.2132
тацыя	-11.2135
▁цыта	-11.2136
▁княств	-11.2137
▁духавенства	-11.2139
▁ліцэнзі	-11.2139
▁Сярэднявечча	-11.214
▁імперыяй	-11.2142
▁пусты	-11.2142
▁свято	-11.2142
▁Гульня	-11.2142
жава	-11.2143
▁першынств	-11.2144
▁кор	-11.2145
▁мясцін	-11.2148
▁плён	-11.2148
дзіла	-11.2149
фікс	-11.2151
▁кіравалі	-11.2152
гранічн	-11.2152
▁епіскапа	-11.2154
▁распаўсюджвання	-11.2156
▁морам	-11.2156
▁Кракаў	-11.2157
▁вясной	-11.2157
▁вільготна	-11.2157
▁шчупак	-11.2157
▁аператыўна	-11.2157
▁кірмаш	-11.2158
▁творчы	-11.216
вярн	-11.216
рол	-11.2161
▁Све	-11.2163
патрабава	-11.2164
▁падтрымаў	-11.2167
▁Маўр	-11.2169
▁памеру	-11.217
▁падыма	-11.217
▁Група	-11.2171
▁выкарыста	-11.2172
▁схава	-11.2173
▁дзейнічаю	-11.2175
▁славу	-11.2175
авуць	-11.2176
▁гароднін	-11.2176
▁Чалавек	-11.2176
▁зямлё	-11.2176
▁Берагавая	-11.2176
дэры	-11.2177
▁дзярж	-11.2178
▁ніяка	-11.2179
▁Вакол	-11.218
▁Стрэ	-11.2181
▁жанры	-11.2181
стыка	-11.2182
свечаны	-11.2183
кавым	-11.2184
art	-11.2189
▁ям	-11.219
▁неабходнасць	-11.2191
хвост	-11.2192
фект	-11.2192
Да	-11.2193
▁Крысціян	-11.2194
▁Хат	-11.2194
▁спявачка	-11.2196
▁ўчастак	-11.22
▁бронз	-11.2202
▁высок	-11.2202
▁1874	-11.2203
▁рытуал	-11.2205
▁інтарэсаў	-11.221
▁Эў	-11.2211
▁пытання	-11.2211
▁сканцэнтрава	-11.2213
▁матэматычна	-11.2213
▁рэгіянальна	-11.2213
▁батарэ	-11.2213
▁электронны	-11.2213
con	-11.2213
▁нашчадкаў	-11.2214
▁Верхні	-11.2214
▁медаля	-11.2214
▁Аршанска	-11.2214
▁магнітны	-11.2216
▁94	-11.2217
араў	-11.2218
▁юрыст	-11.2218
рушэнн	-11.2218
▁дошка	-11.2218
▁Con	-11.2219
▁пазна	-11.2219
▁Лазар	-11.222
▁1872	-11.2221
ДП	-11.2222
▁страт	-11.2224
▁царскі	-11.2225
▁сок	-11.2227
гнут	-11.2228
▁запісва	-11.223
▁сімвалаў	-11.2231
▁веліч	-11.2231
▁Тарпеда	-11.2231
▁паведаміў	-11.2231
▁перанесены	-11.2231
▁Берн	-11.2231
▁запісу	-11.2232
кора	-11.2233
годдз	-11.2233
▁Pr	-11.2239
2,4	-11.2239
▁насенне	-11.2241
▁рэшт	-11.2242
▁просьб	-11.2243
#	-11.2243
▁Мэры	-11.2245
▁Берг	-11.2247
▁філалагічны	-11.225
нізм	-11.2251
▁Камітэта	-11.2254
▁мясцовасць	-11.2254
▁адлюстраванне	-11.2255
▁грамадзянства	-11.2256
▁Маха	-11.2256
▁светлавы	-11.2257
▁лінейна	-11.2257
▁Двор	-11.2258
каваны	-11.2258
▁ўзначальваў	-11.2259
▁мура	-11.2259
▁пальм	-11.2259
▁Гарэ	-11.2261
клон	-11.2262
2,6	-11.2268
▁Рудольф	-11.2268
▁пазіцый	-11.2268
▁археалогі	-11.2269
▁Сілезі	-11.2269
▁гелі	-11.2269
▁прадстаўніко	-11.2269
▁Удзельніча	-11.2271
▁торф	-11.2271
▁Савецкая	-11.2271
▁Брат	-11.2272
двор	-11.2273
▁антычны	-11.2274
▁Шыр	-11.2274
▁Пле	-11.2274
▁дазволіў	-11.2275
▁вызваленне	-11.228
рэчча	-11.2282
▁далучэння	-11.2283
акцый	-11.2283
▁ціскам	-11.2283
▁Лукі	-11.2285
▁сутыкнення	-11.2286
▁Зеландыі	-11.2287
▁багаслоў	-11.2287
▁мітынг	-11.2288
▁разарва	-11.2288
▁Дзяржынскі	-11.2289
▁сіня	-11.2289
алізацыі	-11.2292
▁званні	-11.2294
▁межаў	-11.2294
▁Брун	-11.2295
▁РФ	-11.2295
▁паласа	-11.2301
▁вітамін	-11.2306
▁рэгулярны	-11.2306
▁Казахстан	-11.2308
сцен	-11.231
▁радовішча	-11.2313
▁Жыву	-11.2314
▁спако	-11.2314
▁біяграфі	-11.2319
▁Вяліка	-11.232
▁Мур	-11.2321
▁напісанн	-11.2322
▁легенда	-11.2326
ючая	-11.2328
▁пойма	-11.2328
ass	-11.2328
ron	-11.2329
▁каляровы	-11.2332
▁пратэсту	-11.2332
▁Мантэ	-11.2336
▁фракцы	-11.2336
▁Мака	-11.2337
▁паглына	-11.2343
▁Баварыі	-11.2343
аўская	-11.2343
▁Візантыі	-11.2344
энцы	-11.235
▁1,7	-11.2351
▁малява	-11.2351
▁эканоміка	-11.2352
▁франка	-11.2353
▁хвароба	-11.2354
▁Лібер	-11.2356
▁нападу	-11.2359
▁выраблены	-11.2359
▁1794	-11.2359
▁раўна	-11.236
▁памянша	-11.2361
▁прадзюсар	-11.2361
▁Доўгі	-11.2362
▁закладзены	-11.2362
▁аператар	-11.2362
зяць	-11.2366
▁Францыяй	-11.2367
ight	-11.2369
голь	-11.237
▁палавы	-11.237
▁ўздым	-11.2372
ньён	-11.2373
▁фармат	-11.2376
сэн	-11.2377
▁Куры	-11.2377
▁ФРГ	-11.238
▁заканадаўчы	-11.238
▁прэтэнзі	-11.238
▁хрыбет	-11.238
▁вучона	-11.238
▁ўстаноўлена	-11.2381
▁біялогі	-11.2381
▁прынцыпы	-11.2381
▁сцвярджа	-11.2385
▁Север	-11.2386
▁Кві	-11.2387
▁дадатк	-11.2391
▁1842	-11.2391
▁прапанавана	-11.2392
будоўва	-11.2394
▁Рускі	-11.2395
▁мона	-11.2396
▁бедны	-11.2396
▁дыялекты	-11.2396
▁арэх	-11.2397
▁супраціў	-11.2397
▁Кат	-11.2398
▁Пен	-11.2399
▁трапілі	-11.2399
▁Праваслаўна	-11.2399
ice	-11.24
▁прызваны	-11.24
▁Польскі	-11.24
▁выклікаў	-11.24
ваходзяць	-11.2404
▁Газ	-11.2406
▁камет	-11.2408
▁вулкана	-11.2409
▁прадаў	-11.2409
▁праліў	-11.241
▁ехаў	-11.241
▁Радыё	-11.2411
▁маральна	-11.2411
бю	-11.2413
▁разведк	-11.2416
▁Полацкі	-11.2416
будаўнічы	-11.2417
▁кратар	-11.2419
▁чорнага	-11.2419
▁пераемнік	-11.2419
▁герояў	-11.2422
.2	-11.2422
▁губля	-11.2426
іраваны	-11.2429
▁лічба	-11.2429
▁плоскасці	-11.2429
▁сквер	-11.2431
алагічнага	-11.2436
▁дзвяр	-11.2437
▁Кін	-11.2438
▁юстыцы	-11.2438
▁перамагл	-11.2443
▁праходзіл	-11.2443
лікі	-11.2444
▁Францыска	-11.2444
▁Адносі	-11.2446
▁Дум	-11.2446
▁засталос	-11.2446
▁тыповы	-11.2446
▁09	-11.2446
▁поўнага	-11.2448
▁цеплаво	-11.2449
▁крызісу	-11.2449
400	-11.2452
▁Вало	-11.2453
▁пасажыраў	-11.2454
▁спара	-11.2454
▁Генерал	-11.2454
▁марш	-11.2455
▁землетрасенн	-11.2456
▁Ізабел	-11.2457
ляцыі	-11.2458
▁падмурк	-11.2458
▁Сезон	-11.246
▁дзесяцігоддз	-11.2462
-22	-11.2462
▁клін	-11.2464
мут	-11.2464
▁Гад	-11.2466
▁Амерыканска	-11.2467
▁лепшым	-11.2468
▁следства	-11.2469
▁ўзоры	-11.2471
псі	-11.2473
верг	-11.2473
радны	-11.2474
▁КДБ	-11.2475
▁прыгожы	-11.2475
▁акупант	-11.2475
▁фунтаў	-11.2475
гадовым	-11.2476
▁рабіў	-11.2476
▁будучыні	-11.2478
▁дзясятка	-11.2479
рэц	-11.2479
▁праве	-11.2481
▁страх	-11.2485
▁кіраванн	-11.2485
ock	-11.2486
▁Багародзіцы	-11.2487
▁буйным	-11.2487
▁архібіскуп	-11.2487
▁страў	-11.2487
▁прыйшла	-11.249
▁Выхаван	-11.2491
▁апісва	-11.2491
▁вара	-11.2491
▁Жал	-11.2492
▁супрацоўнікаў	-11.2492
▁намаганн	-11.2493
▁заваяваў	-11.2493
ціск	-11.2493
▁маленька	-11.2493
▁Партызан	-11.2494
▁нацысцка	-11.2494
ногі	-11.2494
▁абсталявання	-11.2494
▁перавыша	-11.2494
▁Цэзар	-11.2494
▁Прусія	-11.2495
▁Славян	-11.2495
▁называлас	-11.2496
лтан	-11.2496
▁Зямл	-11.2497
▁меркаванн	-11.2498
▁Баз	-11.2499
зровень	-11.2499
▁Атлантычна	-11.2502
▁гармон	-11.2503
дыс	-11.2506
▁шырыні	-11.2513
▁Амерыка	-11.2513
▁СНД	-11.2517
▁абслугоўвання	-11.2517
ступленне	-11.2518
▁2000-	-11.2521
▁Янка	-11.2522
▁Пік	-11.2527
▁чыгуначная	-11.2529
▁матэматычны	-11.253
▁Афіцыйны	-11.2532
▁паставіў	-11.2532
▁Ленін	-11.2533
▁Герцаг	-11.2533
▁камісар	-11.2533
▁цэнтральным	-11.2534
▁сукупнасць	-11.2534
▁Георгій	-11.2535
▁шчыта	-11.2536
піла	-11.2538
▁Аўстралія	-11.2539
ди	-11.2541
ii	-11.2543
▁зборнікаў	-11.2543
▁абарона	-11.2544
жар	-11.2544
шова	-11.2549
▁вертыкальна	-11.2551
▁узаемадзеянн	-11.2551
▁жалезны	-11.2551
▁SBc	-11.2552
▁тытула	-11.2552
MS	-11.2552
▁Пяс	-11.2552
tic	-11.2554
▁Жыгімонт	-11.2556
▁ўласнасць	-11.2557
▁завяршэння	-11.256
▁вырошчванн	-11.2561
▁Мэта	-11.2565
▁заключаны	-11.2566
лун	-11.2567
▁генеральна	-11.2568
▁паспяховы	-11.2569
▁Заб	-11.2569
▁Распаўсюджаны	-11.257
▁Французскай	-11.257
▁семінарыі	-11.257
▁капліцы	-11.2571
sp	-11.2571
▁Кля	-11.2571
▁адзіночны	-11.2572
вест	-11.2575
▁пабудов	-11.258
▁Трэці	-11.258
mp	-11.2585
▁лістапад	-11.2586
▁станаві	-11.2586
▁поспехам	-11.2587
▁ўчасткі	-11.2589
▁лексік	-11.2589
▁гараджан	-11.259
▁замяні	-11.259
▁Стан	-11.2591
▁Аргенціны	-11.2592
▁ДНК	-11.2592
▁Андрэевіч	-11.2593
▁паўна	-11.2593
▁Міхала	-11.2594
▁вылучаю	-11.2594
▁мадэл	-11.2595
▁засталас	-11.2598
▁1600	-11.2599
нтаў	-11.26
▁Сцяга	-11.2602
▁наступленне	-11.2603
▁ператварэнн	-11.2604
▁220	-11.2604
▁Напалеон	-11.2606
цці	-11.2608
▁Брытанскі	-11.2608
▁1801	-11.2609
▁быццам	-11.2609
▁Кацярыны	-11.261
▁скліка	-11.2611
становы	-11.2612
▁Эдуарда	-11.2612
▁450	-11.2613
▁папулярным	-11.2614
▁царом	-11.2615
▁статуя	-11.2616
вят	-11.2618
▁Зара	-11.2625
шук	-11.2627
▁ігрок	-11.2628
▁ЦВК	-11.2628
▁статусу	-11.2634
▁службовы	-11.2636
▁выступала	-11.2638
мун	-11.264
▁Ран	-11.2642
▁Філа	-11.2642
фір	-11.2643
▁ўзнагарод	-11.2643
іхто	-11.2645
▁вольны	-11.2645
▁індывідуальна	-11.2647
▁тэарэм	-11.2647
▁Беласток	-11.2647
▁SBb	-11.2647
▁словамі	-11.2649
▁краінай	-11.265
▁хіт	-11.265
▁стужка	-11.2651
▁Ір	-11.2652
▁сайт	-11.2654
▁фрыз	-11.2659
▁Алесь	-11.266
▁знешняй	-11.266
▁самае	-11.266
бываў	-11.2661
▁рытм	-11.2661
▁Мн	-11.2663
▁дол	-11.2664
нача	-11.2666
▁Ос	-11.2667
▁легенды	-11.2668
▁Лепельскі	-11.2668
▁Мац	-11.2668
▁ўтварэнне	-11.2668
▁небяспечны	-11.2674
▁ўзначальва	-11.2675
▁кана	-11.2676
▁1836	-11.2677
из	-11.2683
вянча	-11.2684
▁накіраваў	-11.2684
▁сышоў	-11.2686
▁зброю	-11.2686
вон	-11.2687
▁уваход	-11.2687
▁прызначэнне	-11.2688
▁станцый	-11.2688
▁пляцоўк	-11.2688
▁меза	-11.269
канцлер	-11.269
▁Рэд	-11.2691
▁Габсбургаў	-11.2693
▁мусі	-11.2694
▁захворвання	-11.2694
стыцы	-11.2696
▁купалам	-11.2697
▁Баранавіч	-11.2698
▁Бат	-11.2699
▁Маскоўскім	-11.27
лагі	-11.2704
▁Азі	-11.2705
▁тура	-11.2705
▁крэдыт	-11.2705
▁хатня	-11.2709
шна	-11.2711
▁гіпер	-11.2711
▁ліп	-11.2713
раваць	-11.2714
▁сфера	-11.2714
вецкі	-11.2715
▁вольным	-11.2715
▁Карэлі	-11.2716
▁Кубк	-11.2717
роп	-11.2717
оты	-11.2718
рэння	-11.2721
▁палярны	-11.2724
НС	-11.2724
▁паведамлення	-11.2724
▁акупавана	-11.2724
▁Гродзенскі	-11.2726
▁Бура	-11.2734
▁Вольга	-11.2736
даўна	-11.2738
▁ўсталявана	-11.2738
▁падаў	-11.2739
люс	-11.274
аму	-11.2741
энт	-11.2743
▁досвед	-11.2744
шэр	-11.2744
▁ўзялі	-11.2745
народн	-11.2747
маль	-11.2748
▁Вельмі	-11.2753
▁маз	-11.2757
-14	-11.2758
▁Расце	-11.2759
▁маладым	-11.2759
павядаюць	-11.2763
▁майстроў	-11.2763
▁кіруюча	-11.2763
▁нейтрон	-11.2763
▁апісаў	-11.2764
вард	-11.2765
▁касця	-11.2766
▁густа	-11.2766
▁зруб	-11.277
▁1832	-11.2774
яўленне	-11.2774
▁Растоў	-11.2774
▁трохі	-11.2778
нная	-11.2778
▁Крыж	-11.278
▁Склада	-11.2781
▁мільёна	-11.2781
2,7	-11.2783
▁Бургунды	-11.2783
▁кукуруз	-11.2783
▁нацыянал	-11.2783
▁Генеральны	-11.2783
▁мінеральны	-11.2783
▁Ra	-11.2784
▁ядноўвае	-11.2786
парк	-11.2789
дзян	-11.279
родны	-11.2794
▁Sh	-11.2794
кард	-11.2796
▁харчовы	-11.2796
▁нуля	-11.2796
▁матор	-11.2798
▁прыхільнікам	-11.28
▁Стры	-11.2801
▁пераможцам	-11.2801
▁Сусветны	-11.2802
▁Ліквідаван	-11.2802
▁вымушана	-11.2802
▁Балгарыя	-11.2802
▁офіс	-11.2802
▁Марока	-11.2802
▁легіён	-11.2803
▁удзельнікам	-11.2803
▁паэтаў	-11.2808
▁галасавання	-11.2809
▁ваяводы	-11.281
дэна	-11.2811
▁навукоўца	-11.2812
▁Хор	-11.2812
▁Віктара	-11.2812
клетачн	-11.2814
▁разв	-11.2815
▁16-	-11.2815
▁Паўлавіч	-11.282
▁рэнесанс	-11.2822
▁тэхніцы	-11.2822
▁чаргова	-11.2822
▁запрашэнн	-11.2822
▁падпісана	-11.2822
гонцы	-11.2822
▁розыгрышам	-11.2824
фун	-11.2826
▁выдатка	-11.2827
▁пасажырскі	-11.2828
▁Ac	-11.2829
▁разбура	-11.283
кало	-11.283
кватэра	-11.2833
ment	-11.2834
▁Марціна	-11.2835
▁Названа	-11.2838
ord	-11.2838
▁паліцыя	-11.284
жаў	-11.284
▁Прафесар	-11.2841
▁кампанію	-11.2841
▁узроўня	-11.2841
▁блакітна	-11.2841
▁форум	-11.2841
▁артыкуле	-11.2843
▁кантакты	-11.2843
▁двухпавярховы	-11.2846
▁блока	-11.2847
▁спалучэнне	-11.2849
ata	-11.285
▁асаблівасця	-11.2851
▁саступа	-11.2853
▁хлеб	-11.2853
▁палёў	-11.2855
руе	-11.2856
▁Падзе	-11.2856
▁правага	-11.2857
▁Ленінска	-11.2857
▁разгар	-11.286
▁цэрквы	-11.2861
▁ганарова	-11.2861
евіча	-11.2862
▁Валапас	-11.2862
разова	-11.2863
▁карані	-11.2863
ss	-11.2864
▁рэч	-11.2865
гол	-11.2867
лус	-11.2868
▁Рыгоравіч	-11.2869
▁Бес	-11.2869
монт	-11.2871
▁заснавалі	-11.2871
▁Рыгора	-11.2872
▁зборная	-11.2874
▁хрысціянскай	-11.2876
▁патрэбна	-11.2877
▁Антан	-11.2878
▁Румынія	-11.2881
▁Фонд	-11.2883
▁крытэры	-11.2884
▁гледачоў	-11.2884
евых	-11.2884
вядома	-11.2885
▁SB	-11.2886
▁нашчадкі	-11.2888
▁мод	-11.2892
▁агульн	-11.2895
▁пасло	-11.2895
▁гаспадарак	-11.2896
▁змест	-11.2897
банк	-11.2898
▁дынасты	-11.2898
▁240	-11.2899
ana	-11.2901
▁кандыдацк	-11.2901
▁страцілі	-11.2901
▁балгарскі	-11.2901
▁венгр	-11.2901
▁Смо	-11.2903
▁археалагічна	-11.2903
▁прымаць	-11.2904
▁Крыва	-11.2905
▁Слу	-11.2907
ok	-11.2908
▁мілі	-11.2909
▁сінтэз	-11.2913
▁персанажаў	-11.2915
▁працэнт	-11.2915
▁поўн	-11.2918
▁галаву	-11.292
▁афарбоўк	-11.292
▁расстрэл	-11.292
▁дазваляла	-11.292
▁Сербія	-11.292
▁зачынены	-11.2921
▁агню	-11.2922
▁Gr	-11.2923
▁правядзенн	-11.2924
вас	-11.2926
джар	-11.2927
▁светлы	-11.2927
▁гарадскім	-11.2928
▁чысты	-11.2928
▁карыстальніка	-11.2931
▁разбурана	-11.2931
сткі	-11.2932
▁турызм	-11.2933
▁майстэрня	-11.2934
▁парадк	-11.2935
пава	-11.2937
стак	-11.2938
▁езуітаў	-11.294
▁акунь	-11.2941
▁Ba	-11.2941
▁лёд	-11.2942
▁нечакана	-11.2942
▁подпіс	-11.2942
▁Кот	-11.2943
▁Сант	-11.2943
▁баз	-11.2944
амерыканскі	-11.2945
▁Ол	-11.2945
▁праходжанн	-11.2947
▁манер	-11.2947
▁аказвае	-11.2949
pp	-11.2951
крылы	-11.2952
▁гарматы	-11.2953
лаві	-11.2954
▁псіхалогі	-11.2957
▁аказаў	-11.2958
▁дзіка	-11.2958
▁1797	-11.2959
▁адсутнічаюць	-11.2963
▁гулялі	-11.2963
▁Sant	-11.2966
▁перакана	-11.2966
ісцкі	-11.2966
аконнымі	-11.2967
▁Сера	-11.297
▁апостал	-11.2971
▁прын	-11.2972
▁клімату	-11.2972
▁аднаўля	-11.2976
▁правесц	-11.298
аўшчына	-11.298
▁эканоміцы	-11.298
▁дэманстрацы	-11.298
▁Астатні	-11.298
▁кіеўскі	-11.2983
мерны	-11.2984
▁Лаб	-11.2987
ляны	-11.2987
▁крылы	-11.2988
▁лёду	-11.2992
стара	-11.2992
беларускі	-11.2992
▁балет	-11.2996
▁кінатэатр	-11.3
▁прагрэс	-11.3001
▁вырашальн	-11.3002
▁Партыя	-11.3003
▁запуск	-11.3004
▁мэбл	-11.3005
▁трактат	-11.3006
▁1849	-11.301
▁метадам	-11.301
▁Ph	-11.3011
▁дэкор	-11.3012
Кар	-11.3013
олі	-11.3015
▁бліжэй	-11.3017
ЭС	-11.3017
АН	-11.3017
▁заход	-11.3018
▁артылерыйска	-11.3018
абаронцы	-11.3019
▁аднолькава	-11.302
▁двухсхільным	-11.302
▁Унутры	-11.302
▁ператварыў	-11.302
▁Чарльз	-11.302
▁заснавальнікам	-11.3021
▁вучэнне	-11.3021
▁бронзава	-11.3023
водства	-11.3025
▁Льва	-11.3025
▁пяхоты	-11.3025
▁згадк	-11.3026
фашысцкімі	-11.3026
▁развод	-11.3027
льён	-11.3031
▁тэрас	-11.3036
▁Слонім	-11.3037
ладальнік	-11.3037
▁перашкаджа	-11.304
▁агрэсі	-11.304
▁ініцыятар	-11.304
збу	-11.3041
▁Нагорна	-11.3042
▁сыход	-11.305
▁сядзіба	-11.3052
▁прынца	-11.3054
▁XXI	-11.3054
▁налічваецца	-11.3054
▁101	-11.3057
▁відамі	-11.3058
▁Верхнядзвінскі	-11.306
▁Малдовы	-11.306
▁індзейцаў	-11.306
▁ўсталёўва	-11.306
▁сутыкненн	-11.3061
▁Сымон	-11.3063
▁рынак	-11.3064
▁спыніла	-11.3064
▁епархіі	-11.3066
▁пераўтварэння	-11.3066
▁Воранаўскі	-11.3068
▁паветрана	-11.3069
тварэнні	-11.3069
▁Саб	-11.3074
татар	-11.3074
▁дзесяцін	-11.3077
▁парушэнне	-11.3079
▁наваколля	-11.308
▁партугальскі	-11.308
▁вылучэнн	-11.3081
▁хваёвы	-11.3081
▁прыбярэжны	-11.3081
▁фраз	-11.3083
▁атрымана	-11.3084
тварэнне	-11.3085
▁ютара	-11.3087
▁пазнаёмі	-11.3089
аскай	-11.309
лятар	-11.309
▁Данія	-11.3091
эля	-11.3092
▁прытвор	-11.3093
▁абмежаванн	-11.3096
▁праспекта	-11.31
▁УЕФА	-11.31
▁абумоўлена	-11.31
▁нешматлікі	-11.31
▁тагачасны	-11.31
▁вячэр	-11.31
▁Венецыі	-11.3101
▁Жыў	-11.3102
▁расійскія	-11.3104
▁Гончы	-11.3105
▁паходжанн	-11.3106
▁паэма	-11.3107
▁фланг	-11.3108
наўскага	-11.3109
▁вызваленн	-11.3111
▁Сон	-11.3111
▁Дно	-11.3113
.3	-11.3115
▁камяні	-11.3116
каўшчына	-11.3118
▁механічны	-11.3118
▁Значн	-11.312
▁ГДР	-11.3121
▁курфюрст	-11.3121
▁Парламент	-11.3121
▁юнак	-11.3122
▁матэры	-11.3122
ник	-11.3122
▁двухбакова	-11.3122
▁лац	-11.3124
▁Ліст	-11.3128
онэ	-11.3128
▁правільна	-11.3129
▁Ост	-11.3129
▁знешн	-11.3129
lin	-11.3129
▁Васільевіч	-11.313
▁соль	-11.3133
ёю	-11.3133
▁фаўн	-11.3134
▁5000	-11.3134
мешва	-11.3134
абудовы	-11.3135
▁кваліфікацыі	-11.3139
▁стаяла	-11.3139
▁Шчыльнасць	-11.3141
▁керамікі	-11.3141
▁Дэбютаваў	-11.3141
▁ўскраін	-11.3141
▁надрукаваны	-11.3142
▁губернатар	-11.3143
▁суседня	-11.3144
маха	-11.315
▁пошука	-11.315
▁профіл	-11.315
чку	-11.3152
▁аблічча	-11.3153
▁клубаў	-11.3156
▁Вітаўт	-11.316
▁4,5	-11.316
▁становішчы	-11.3161
▁алімпійскі	-11.3161
▁скасаванн	-11.3162
▁касцюм	-11.3162
▁клетка	-11.3163
леўскі	-11.3168
2,5	-11.3169
▁кваліфікацыйн	-11.3171
▁рэалізацыі	-11.3172
▁царска	-11.3173
Ман	-11.3174
▁Ne	-11.3175
▁лекавы	-11.3176
ков	-11.3177
▁1792	-11.3178
Га	-11.3179
▁газет	-11.3179
▁збудаванні	-11.3181
▁шэры	-11.3182
▁стральб	-11.3182
▁працягвала	-11.3182
▁разрад	-11.3183
тала	-11.3184
▁Лепшы	-11.3187
▁надпісам	-11.3187
орскі	-11.3188
▁спад	-11.3188
▁кампазіцы	-11.3191
▁1857	-11.3191
▁геалагічны	-11.3192
▁Брус	-11.3192
▁ны	-11.3193
▁1846	-11.3193
▁навуковага	-11.3197
бок	-11.3198
▁знакі	-11.3198
▁мітрапаліта	-11.3198
ang	-11.3198
▁злучана	-11.3201
▁спор	-11.3201
▁падножжа	-11.3202
▁падтрымал	-11.3202
▁гуляць	-11.3202
ob	-11.3202
▁плотка	-11.3202
оне	-11.3205
▁Георгія	-11.3206
▁рачны	-11.3206
nia	-11.3206
▁раствара	-11.3208
▁Януш	-11.3208
лічваючы	-11.3212
▁Гера	-11.3214
▁рэалізава	-11.3218
лавічы	-11.3219
руд	-11.322
▁Псы	-11.3222
▁вытворца	-11.3222
▁дзверы	-11.3223
крыж	-11.3224
▁найлепшы	-11.3224
yn	-11.3225
▁хірургі	-11.3227
▁распрацоўка	-11.3229
вядзе	-11.3231
▁вылучае	-11.3231
▁саюзны	-11.3232
шскі	-11.3232
▁крыжовы	-11.3232
дыкт	-11.3235
▁Паўлін	-11.3236
▁епархі	-11.3236
▁такую	-11.3237
ans	-11.3238
▁1791	-11.3238
▁Дунай	-11.3241
▁пацярпела	-11.3242
▁мініяцюр	-11.3243
▁тэлескоп	-11.3243
our	-11.3243
▁сектара	-11.3244
▁колькі	-11.3244
гурт	-11.3244
▁панавання	-11.3244
▁Петра	-11.3246
даследча	-11.3247
▁даўні	-11.3248
▁вырошчва	-11.3251
▁Магілёўскім	-11.3253
мант	-11.3253
▁Новак	-11.3255
▁Марса	-11.326
▁правялі	-11.3261
▁дыяцэзіі	-11.3263
▁зарэгістраваны	-11.3263
▁рэгент	-11.3264
▁біскупам	-11.3264
▁фарміраванн	-11.3264
▁Галанды	-11.3265
▁дыялектаў	-11.3265
чынскі	-11.3269
тавана	-11.3269
so	-11.3269
▁жаданне	-11.3271
▁Дара	-11.3272
▁сыну	-11.3278
▁нашчадкам	-11.3279
▁пераважаю	-11.3281
прад	-11.3282
левы	-11.3282
▁польскія	-11.3282
▁Мядзве	-11.3284
▁асістэнт	-11.3284
▁хрышчэнн	-11.3284
▁неадкладна	-11.3284
▁тармаз	-11.3284
▁далёкі	-11.3284
▁валоданн	-11.3286
вуглярод	-11.3286
▁забаронены	-11.3287
▁Берліна	-11.3288
▁Балі	-11.3289
▁175	-11.3292
андр	-11.3294
дынг	-11.3295
.20	-11.3296
▁акцыя	-11.3304
▁млекакормячы	-11.3304
▁Арменія	-11.3304
ella	-11.3306
▁паўстанні	-11.3306
▁покрыва	-11.3306
▁Канада	-11.3309
▁Сяргеевіч	-11.3309
▁звяза	-11.331
▁рота	-11.331
▁вулканічна	-11.3311
▁Майсе	-11.3311
▁адбіва	-11.3311
▁членамі	-11.3311
▁разнастайнасц	-11.3313
зялёны	-11.3313
▁Ані	-11.3313
дразу	-11.3318
▁прадметам	-11.3318
ляваны	-11.3318
▁своеасаблівы	-11.332
зба	-11.3322
▁прамежк	-11.3322
▁мінімум	-11.3325
рск	-11.3328
▁тэалогі	-11.333
вада	-11.3331
▁зняволення	-11.3332
ству	-11.3333
▁мары	-11.3335
▁Навук	-11.3336
▁1818	-11.3337
▁Галоўнай	-11.3337
▁гранат	-11.3338
шэўскі	-11.3345
▁Чыгуначна	-11.3345
▁Шумілінскі	-11.3345
▁пасмяротна	-11.3345
▁прысяг	-11.3349
▁тэхналагічны	-11.3349
▁Адрыян	-11.3351
▁дваранства	-11.3351
▁ўмацавання	-11.3352
▁святара	-11.3355
сун	-11.3359
▁сяляне	-11.3362
▁Нацый	-11.3362
▁бліжэйшы	-11.3363
▁радк	-11.3364
▁базу	-11.3364
▁Ge	-11.3364
▁Дзяржаўная	-11.3364
▁выклікана	-11.3365
▁Маладзечна	-11.3366
▁месцазнаходжанн	-11.3366
▁арганізоўва	-11.3366
▁Тэйлар	-11.3366
▁чатырма	-11.3366
▁трапля	-11.3366
▁выстаўка	-11.3367
▁грашова	-11.3367
▁Do	-11.3367
▁адхіленн	-11.3368
▁Бялград	-11.3368
▁філасофска	-11.3369
▁аспект	-11.3369
▁Макс	-11.337
чыца	-11.3371
▁Шп	-11.3373
сары	-11.3374
▁плады	-11.3377
▁захворванняў	-11.3378
▁Ніжняя	-11.3379
▁цырымоніі	-11.338
▁падрыхтоўку	-11.3383
▁спаборніцтвах	-11.3384
▁Пілсудск	-11.3387
▁эквівалент	-11.3387
поўнены	-11.3387
▁Гомелі	-11.3388
▁гульца	-11.3388
▁Манголіі	-11.3388
▁рызык	-11.3388
шчана	-11.3389
pan	-11.339
▁звярнуў	-11.339
▁1790	-11.3391
лянд	-11.3396
▁Нарадзіла	-11.3397
▁сіметры	-11.3398
навы	-11.3398
▁канцэпцыі	-11.3401
▁Якуб	-11.3401
▁саўгаса	-11.3402
▁Бярэ	-11.3406
ven	-11.3407
▁Шахцёр	-11.3408
▁Альфрэд	-11.3408
▁Выканаў	-11.3408
▁памерах	-11.3408
▁адпавяда	-11.3408
▁Эст	-11.3408
▁асобнікаў	-11.341
▁брыгад	-11.3411
▁СП	-11.3412
▁паказана	-11.3413
AT	-11.3415
▁трацін	-11.3415
▁багацце	-11.3416
▁баран	-11.3416
▁механічна	-11.3417
▁работа	-11.3419
ПК	-11.3424
▁ліга	-11.3426
▁Альгерд	-11.3429
▁дадатак	-11.3429
▁гаворка	-11.3429
дзейн	-11.3432
▁рухаў	-11.3432
▁складзена	-11.3432
▁паўплыва	-11.3433
▁нібыт	-11.3434
▁стылем	-11.3436
фур	-11.3437
ранейшам	-11.3438
▁няўдач	-11.3438
▁прыносі	-11.3438
▁саманазва	-11.344
йце	-11.3442
▁1845	-11.3442
тэрмін	-11.3443
▁стал	-11.3447
▁шырот	-11.3451
▁Пегас	-11.3451
rus	-11.3452
▁арганізацыяй	-11.3454
▁заваява	-11.3454
шпі	-11.3454
▁футбол	-11.3455
▁матчу	-11.3455
рыта	-11.3456
▁1806	-11.3458
▁магіла	-11.346
даследчы	-11.3461
▁Вышэйш	-11.3464
▁тэрміны	-11.3467
▁Кук	-11.3468
030	-11.3468
▁Патрыярх	-11.347
▁функцыю	-11.347
▁Капенгаген	-11.347
▁завяршы	-11.3471
▁пагража	-11.3473
ran	-11.3476
▁распаўсюджанне	-11.3477
▁астраномам	-11.3479
▁Яма	-11.3479
▁Вес	-11.348
лез	-11.348
▁ток	-11.3483
▁маршалка	-11.3485
ue	-11.3486
▁Пачаў	-11.3488
▁рэчышча	-11.3488
▁от	-11.349
▁Блу	-11.3491
▁Іосіфа	-11.3491
▁злучэнні	-11.3491
▁паядынк	-11.3491
▁зямельны	-11.3492
груп	-11.3492
▁прапанаваны	-11.3493
▁матэрыяльны	-11.3493
▁атрымлівалі	-11.3493
▁цікаві	-11.3493
дыё	-11.3494
▁падводна	-11.3496
▁дарослых	-11.3497
▁чорным	-11.3498
▁Юры	-11.3499
▁старонка	-11.3504
▁выступлення	-11.3505
▁родны	-11.3505
ster	-11.3507
▁Оршы	-11.3507
▁Лондана	-11.3507
▁Полацкага	-11.3509
▁Татар	-11.351
лагічна	-11.3511
▁папяро	-11.3512
▁зняволены	-11.3512
▁суцэльна	-11.3512
▁муравана	-11.3514
▁утвараю	-11.3516
▁Рыбы	-11.3519
▁шкла	-11.3519
▁гатычны	-11.3521
▁інструмент	-11.3522
▁падтрымліва	-11.3523
▁бамб	-11.3525
цэнт	-11.3528
▁заклікаў	-11.3529
▁консул	-11.353
▁Cl	-11.3532
▁Туніс	-11.3533
▁Кембрыдж	-11.3533
▁адзначана	-11.3533
запіс	-11.3534
▁лодка	-11.3535
▁Галава	-11.3536
▁маё	-11.3536
▁персідска	-11.3536
▁розніц	-11.3538
▁барон	-11.3538
▁o	-11.3542
▁вока	-11.3545
▁духу	-11.3547
волі	-11.355
▁міфа	-11.355
▁павялічвае	-11.3551
▁пакінуўшы	-11.3552
польскі	-11.3553
▁кост	-11.3554
3,2	-11.3554
8,5	-11.3554
▁утварэння	-11.3554
▁Джавані	-11.3555
▁крэйсер	-11.3555
▁справаздач	-11.3555
▁паслужыл	-11.3555
▁восенню	-11.3556
▁кузава	-11.3557
▁Брэсце	-11.3557
▁Каран	-11.3558
▁самцоў	-11.3559
▁сітуацы	-11.356
▁Фларэнцыі	-11.3562
▁сусветным	-11.3566
del	-11.3566
▁Адрозніваю	-11.357
▁сярэднявечч	-11.3576
▁парушэння	-11.3578
▁Касцюк	-11.3578
▁Шры	-11.3578
▁снукерыст	-11.3581
▁дзіцяці	-11.3583
▁дэпартамента	-11.3584
ТБ	-11.3585
▁аказалі	-11.359
▁Гімн	-11.3591
▁прыкметна	-11.3591
▁карта	-11.3591
▁112	-11.3592
▁брыгада	-11.3592
▁Роў	-11.3593
▁ўмераны	-11.3594
▁гум	-11.3595
▁паездк	-11.3597
▁вадкасці	-11.3599
▁прадпрымальнік	-11.36
▁вузел	-11.3602
▁асноў	-11.3607
▁Юн	-11.3607
▁Car	-11.3607
зіны	-11.3608
▁кіда	-11.361
▁франк	-11.361
▁моладзева	-11.361
Го	-11.3611
▁трэцяе	-11.3614
▁палонны	-11.3616
цар	-11.3617
▁выканаўчы	-11.3617
▁вучэбна	-11.3618
▁Мяркуе	-11.3618
▁генацыд	-11.3618
▁карпарацы	-11.3618
ast	-11.3618
▁солі	-11.3619
▁1780	-11.3619
▁адзенне	-11.3624
▁лінейны	-11.3624
▁to	-11.3625
гара	-11.3626
ратар	-11.3627
▁1847	-11.363
▁ішла	-11.363
▁хлопчыка	-11.3631
Венгрыі	-11.3632
▁ўпрыгожва	-11.3632
tal	-11.3632
▁набыва	-11.3634
▁Лева	-11.3636
фары	-11.3637
2000	-11.3638
▁Ганаровы	-11.3639
▁мяцеж	-11.3639
▁вырабляе	-11.3639
▁адраджэння	-11.3641
▁творам	-11.3646
▁вызначэнне	-11.3649
▁хана	-11.365
▁дзелі	-11.365
▁Шырын	-11.3651
▁тытулам	-11.3651
ТА	-11.3652
еўка	-11.3653
▁прыхільнікі	-11.3653
нішча	-11.3653
su	-11.3654
▁кален	-11.3656
▁шар	-11.3656
цінскі	-11.3659
oll	-11.3659
▁Брытаніі	-11.3661
▁Святаполк	-11.3661
▁Біблія	-11.3661
▁Глін	-11.3664
▁спірт	-11.3664
гародск	-11.3665
нок	-11.3665
▁мук	-11.3665
▁згоды	-11.3671
▁умацава	-11.3671
▁біялагічна	-11.3672
▁артылеры	-11.3677
▁ядзерны	-11.3679
▁Вікіпедыі	-11.3682
▁набажэнств	-11.3682
▁Залато	-11.3682
▁прота	-11.3682
▁практыку	-11.3683
▁выслана	-11.3683
ключыць	-11.3683
міні	-11.3683
▁разбуры	-11.3686
▁Нэ	-11.3691
▁Сталіна	-11.3694
ВА	-11.3694
▁Рэспубліканска	-11.3694
Ю	-11.3696
▁запаведнік	-11.3698
▁бальшавік	-11.3699
▁Об	-11.3701
▁тавараў	-11.3702
▁Руд	-11.3702
▁ўзнікнення	-11.3703
▁Меркуры	-11.3703
▁Ваўкавыскі	-11.3704
▁чвэрцьфінал	-11.3704
▁Тышкевіч	-11.3705
▁пакінуты	-11.3706
▁ўчастка	-11.3707
▁ваеннае	-11.3707
▁насіў	-11.3708
▁ўключала	-11.3709
камен	-11.371
▁зменены	-11.3711
▁салон	-11.3713
▁Міхайлаў	-11.3713
▁грунту	-11.3715
▁Пяр	-11.3716
▁Вайн	-11.3717
▁спадарожнікаў	-11.3717
лаўка	-11.3718
▁хат	-11.3719
▁Выкарыстоўвае	-11.3721
▁паўторна	-11.3722
эмп	-11.3722
маро	-11.3722
▁пачуцця	-11.3723
▁чорныя	-11.3725
кун	-11.3726
▁індыйскі	-11.3727
▁Пераклад	-11.3729
▁Коў	-11.3729
▁жыхар	-11.3729
▁праём	-11.3729
ўск	-11.3731
сібірск	-11.3731
▁паварот	-11.3737
▁Камар	-11.374
az	-11.3741
▁Перамогі	-11.3741
▁Новым	-11.3741
▁даюць	-11.3744
▁спадчыннікам	-11.3746
▁архіепіскап	-11.3746
▁сцвярджэнн	-11.3746
▁гімназію	-11.3746
▁Блізкі	-11.3746
▁шосты	-11.3746
▁вяртанн	-11.3747
форм	-11.3747
▁ўпадзенн	-11.3749
▁каму	-11.3751
перс	-11.3754
▁бюст	-11.3755
▁давер	-11.3756
ib	-11.3757
▁дакладнасц	-11.376
▁карты	-11.3764
▁няў	-11.3764
▁лёгкіх	-11.3764
▁інфармацыйны	-11.3765
ct	-11.3765
▁зброя	-11.3766
▁паверха	-11.3766
▁задум	-11.3767
▁Тып	-11.3768
▁Манчэстэр	-11.3768
▁адкрыцці	-11.3768
▁Сістэма	-11.3768
▁Асобны	-11.3769
▁Ахо	-11.3769
▁ярусна	-11.3769
▁Адзіны	-11.3771
сцё	-11.3771
▁найлепшым	-11.3774
пазіцы	-11.3774
▁слава	-11.3774
літы	-11.3775
▁Служы	-11.3775
▁Лаз	-11.3776
моўнай	-11.3776
транс	-11.3776
▁інструментаў	-11.3777
▁Глі	-11.3779
▁Or	-11.3781
▁віз	-11.3781
тычнае	-11.3782
▁імператарска	-11.3783
▁Баран	-11.3785
▁Выра	-11.3785
▁зніжа	-11.3786
▁аддзяленні	-11.379
▁становяцца	-11.379
▁размнажэнн	-11.379
▁стратэгічна	-11.3791
▁падпольна	-11.3793
▁Займаў	-11.3796
▁мемуар	-11.3796
▁Верхняя	-11.3797
▁адваротны	-11.3797
-32	-11.3797
▁крыло	-11.3798
▁Ава	-11.3801
▁опера	-11.3801
2001	-11.3803
▁1834	-11.3803
▁Докшыцкі	-11.3806
▁Сміт	-11.3806
▁Лук	-11.3807
▁літоўскіх	-11.3808
▁Грэнландыі	-11.381
▁інвентар	-11.3811
▁брытанц	-11.3812
▁аддадзены	-11.3812
▁Год	-11.3812
▁вучэння	-11.3813
▁атол	-11.3814
▁заваяваны	-11.3815
▁вінт	-11.3818
▁Мацве	-11.382
▁Распрацава	-11.3822
▁сыны	-11.3822
▁паспрабаваў	-11.3824
▁прамой	-11.3826
▁Загад	-11.3827
▁разнавіднасц	-11.3827
▁Сапега	-11.3827
▁аблогі	-11.3828
абіць	-11.3831
жываюцца	-11.3831
▁даследаваў	-11.3833
▁Вікторыя	-11.3833
▁перавага	-11.3835
▁еха	-11.3836
▁абрана	-11.3836
▁заставаліс	-11.3838
ысцкі	-11.3839
▁двое	-11.3839
РА	-11.3839
ёс	-11.384
▁Бяс	-11.384
▁Львоў	-11.3841
атычна	-11.3842
▁валун	-11.3842
▁Скот	-11.3842
▁Si	-11.3842
▁фундаментальны	-11.3847
▁пляцоўка	-11.3848
▁масла	-11.385
▁ніжэйшы	-11.3851
▁Візанты	-11.3852
▁Гаў	-11.3853
▁атрымоўва	-11.3855
▁першапачатковы	-11.3855
▁Усевалад	-11.3855
▁звіліста	-11.3856
▁Дзяніс	-11.3857
▁аднаму	-11.3858
▁Вылуча	-11.386
▁ПАР	-11.386
▁гісторыкаў	-11.3861
▁Віла	-11.3861
▁медыцынскага	-11.3867
▁легенд	-11.3868
правы	-11.3869
▁арэал	-11.3869
весну	-11.387
▁куры	-11.3871
▁буры	-11.3874
▁Войска	-11.3874
троп	-11.3874
▁Шматлікі	-11.3877
▁абставін	-11.3877
▁федэральны	-11.3878
штат	-11.3878
▁наземны	-11.3879
▁Евангелле	-11.388
▁Th	-11.3881
▁злучы	-11.3881
лума	-11.3882
▁тканін	-11.3882
▁тэматык	-11.3883
▁апуска	-11.3885
▁перабудаваны	-11.3885
▁наведвальніка	-11.3887
▁1855	-11.3888
▁1853	-11.3888
▁мадэрн	-11.3888
▁сексуальна	-11.3889
▁супрацоўніцтв	-11.389
▁1837	-11.389
зброен	-11.3892
▁Нават	-11.3893
▁сухо	-11.3895
▁Швейцарыя	-11.3898
▁канфіскава	-11.3898
▁шырыню	-11.3898
▁Мяс	-11.3898
▁вясны	-11.3898
▁Самым	-11.39
▁рознага	-11.39
▁адмен	-11.3901
▁брамы	-11.3901
▁страчаны	-11.3901
гракоў	-11.3902
▁яз	-11.3902
▁Даўг	-11.3902
▁знішчэння	-11.3903
▁Эрэ	-11.3906
▁Працяг	-11.3907
НА	-11.3908
▁нумарам	-11.3909
▁знішча	-11.3911
▁медалёў	-11.3911
▁азнача	-11.3912
▁Камп	-11.3913
▁англійск	-11.3914
▁Лен	-11.3916
▁пераўтварэнн	-11.3917
авец	-11.3919
▁нявы	-11.3919
▁заключыў	-11.392
▁сінагог	-11.392
▁прылеглы	-11.392
▁бяроза	-11.392
▁гаспадара	-11.3921
▁вяртанне	-11.3923
▁крамы	-11.3923
▁пладоў	-11.3923
▁бальніца	-11.3927
▁набег	-11.3927
dia	-11.3928
ov	-11.3928
дзір	-11.3929
▁сцвярджаў	-11.3929
▁вуліцу	-11.3929
цэт	-11.3931
▁ўсталяванн	-11.3933
За	-11.3934
▁падрыхтоўка	-11.3935
бун	-11.3935
▁Радзім	-11.3936
▁сліз	-11.3937
▁разабра	-11.3937
дрэ	-11.3938
▁зборы	-11.3938
▁Чарня	-11.3938
-40	-11.3941
▁аргумент	-11.3942
▁кінафестывал	-11.3942
▁эканаміст	-11.3942
▁яўрэі	-11.3942
▁экватар	-11.3942
▁авіяцыйна	-11.3943
▁выходзіл	-11.3945
▁праспект	-11.3945
▁славутасц	-11.3946
▁Лэ	-11.3947
▁вымаўленн	-11.3948
▁хваляванн	-11.3949
▁Першамайск	-11.3949
▁далучыліс	-11.3952
▁турызму	-11.3955
▁Антона	-11.3955
▁стаўленне	-11.3955
▁Тон	-11.3958
▁служба	-11.3958
▁рухам	-11.3962
фарб	-11.3962
▁канчатковым	-11.3964
▁Ягайла	-11.3964
▁заўважа	-11.3964
▁Каталіцка	-11.3965
▁дэсант	-11.3966
▁акружаны	-11.3967
▁Фердынанда	-11.3967
▁хімік	-11.3969
▁перы	-11.397
▁Асе	-11.397
сберг	-11.397
▁клубы	-11.3974
▁Белага	-11.3974
▁Талачынскі	-11.3976
▁суму	-11.3978
▁жывёлагадоўля	-11.398
▁тэрма	-11.3984
пед	-11.3985
▁Гістарычна	-11.3986
▁прастору	-11.3986
пані	-11.3987
нштэйн	-11.3988
▁вызвал	-11.3989
▁меч	-11.3989
▁файл	-11.3991
акцыі	-11.3991
▁прымусіл	-11.3993
▁вапняк	-11.3994
Ко	-11.3997
▁Кінг	-11.3997
▁расліннасці	-11.3998
▁ўтварыла	-11.3998
▁Трох	-11.3998
▁Латвія	-11.3999
Пецярбурга	-11.4001
▁кантынентальны	-11.4002
▁сесіі	-11.4002
▁вытворча	-11.4007
▁трапляю	-11.4007
▁Каліфорнія	-11.4008
▁акадэмічны	-11.4009
▁станаўленн	-11.4009
індустры	-11.401
▁пола	-11.4011
вольна	-11.4012
▁выконваю	-11.4013
▁гадз	-11.4014
▁360	-11.4015
▁дапаможны	-11.4015
ніцкая	-11.4015
джан	-11.4017
▁Карэі	-11.4019
▁Лацінска	-11.4021
▁секс	-11.4022
▁чвэрц	-11.4024
▁кіраваннем	-11.4027
класці	-11.4027
тысячн	-11.4028
▁Антарктыд	-11.403
▁Найвышэйшы	-11.403
▁камянёў	-11.403
▁Хігінс	-11.403
▁Зоркі	-11.4031
▁Жалез	-11.4033
▁варот	-11.4036
▁Крупскі	-11.4036
▁сучасн	-11.4039
▁этна	-11.404
we	-11.4044
▁Саламон	-11.4046
рост	-11.4049
люк	-11.4052
▁абмежава	-11.4052
▁егіпецкі	-11.4052
▁канструкцыя	-11.4052
▁партугальска	-11.4052
▁Венесуэл	-11.4052
▁Будапешт	-11.4052
вызваленча	-11.4053
▁каланіяльны	-11.4053
▁Валерый	-11.4053
▁We	-11.4053
▁белая	-11.4054
▁назоўнік	-11.4055
▁Чо	-11.4056
віда	-11.4057
вальд	-11.4057
▁пляц	-11.4057
▁рэгістра	-11.406
▁франкаў	-11.406
▁1566	-11.4064
▁Гэ	-11.4065
▁формула	-11.4071
▁розыгрыш	-11.4072
▁ваяводств	-11.4074
▁непасрэдны	-11.4075
▁абсталяваны	-11.4075
▁тыдні	-11.4075
▁Клін	-11.4075
▁асвятленн	-11.4075
▁механікі	-11.4075
▁травы	-11.4077
▁гіпа	-11.4079
▁Ga	-11.408
▁Ціхі	-11.4083
▁Муж	-11.4083
▁ворагаў	-11.4084
▁раскол	-11.4087
▁гетмана	-11.4092
▁дву	-11.4095
Анджэлес	-11.4097
▁Сяргея	-11.4097
▁князі	-11.4097
▁New	-11.4099
арыст	-11.4102
▁1810	-11.4102
▁перапынк	-11.4103
▁пустыні	-11.4105
▁цын	-11.4105
▁пасол	-11.4106
▁Фран	-11.4107
▁Люблінска	-11.4107
▁скончы	-11.4117
▁аўтаноміі	-11.4117
▁Аляксеевіч	-11.4119
▁памяшканне	-11.4119
▁Палесся	-11.4119
iv	-11.4119
▁Кракаве	-11.412
▁Мазыр	-11.4121
▁кіеўска	-11.4121
▁атакі	-11.4124
▁Sp	-11.4125
▁Дэвіс	-11.4125
▁80-	-11.4129
▁Аляксандрам	-11.4132
▁будаўніча	-11.4134
▁галінах	-11.4135
памін	-11.4136
сінг	-11.4136
змам	-11.4137
▁Тытан	-11.4138
ny	-11.4139
1,5	-11.414
▁няз	-11.4141
▁высакосны	-11.4142
▁каталіцтва	-11.4142
▁публікацыі	-11.4142
▁травяністая	-11.4142
▁акцэнт	-11.4142
▁космас	-11.4142
метрычна	-11.4143
▁камандай	-11.4148
▁For	-11.4149
▁пачуццё	-11.4149
▁камплект	-11.4149
▁супольнасць	-11.415
служыў	-11.415
▁Рыжска	-11.4151
ius	-11.4151
▁перыядычны	-11.4152
▁Шон	-11.4152
▁храме	-11.4153
▁самак	-11.4155
▁гама	-11.4156
▁Адбы	-11.4158
▁выбарча	-11.4158
▁іграка	-11.4161
тыўную	-11.4164
▁Светлагорск	-11.4164
водзяць	-11.4165
чча	-11.4166
▁ваяваў	-11.4166
▁Дэрбі	-11.4166
▁Сатурна	-11.4168
▁Пецярбургска	-11.4169
▁Леон	-11.417
▁пражываў	-11.4171
▁Галуб	-11.4172
▁Акт	-11.4172
▁128	-11.4172
▁атамны	-11.4173
▁валок	-11.4173
▁апавяда	-11.4173
res	-11.4177
▁базілік	-11.4182
▁Ціт	-11.4182
накшталт	-11.4186
▁Створаны	-11.4186
▁плацдарм	-11.4186
МУС	-11.4187
▁тэст	-11.4187
▁аўтаномі	-11.4189
▁сотня	-11.4189
▁Мела	-11.419
▁фермент	-11.4191
▁Заходне	-11.4194
▁кроў	-11.4194
▁інф	-11.4196
▁скарачэнн	-11.4197
яўленні	-11.4198
▁атамна	-11.42
▁1817	-11.42
▁об	-11.42
▁прамавугольным	-11.4203
▁Руда	-11.4204
▁успаміна	-11.4207
ach	-11.4209
▁Антыёх	-11.4209
▁гарызантальны	-11.4209
▁ўведзены	-11.421
▁сувяз	-11.4211
▁сачыненн	-11.4212
▁акадэмічна	-11.4213
▁налічвала	-11.4215
▁Серы	-11.4215
▁коней	-11.4216
▁Парыжска	-11.4216
▁кааліцыі	-11.4216
▁дзеяннях	-11.4217
▁знішчы	-11.4218
▁фільмах	-11.4219
▁словаў	-11.4219
▁Антонія	-11.4221
▁Браслаў	-11.4224
▁Летам	-11.4224
ходзячы	-11.4224
▁шырок	-11.4224
▁Старэйшы	-11.4225
мелі	-11.4226
▁вічы	-11.4226
▁Рагачоўскі	-11.4226
▁260	-11.4231
▁праекту	-11.4233
▁Фільм	-11.4233
▁галаўны	-11.4241
▁глебе	-11.4241
ского	-11.4241
▁паветры	-11.4244
▁малака	-11.4245
▁Брэсцкім	-11.4248
▁аднавіў	-11.4249
▁майстра	-11.4251
▁аўтамабілі	-11.4254
▁іерархі	-11.4254
▁103	-11.4255
▁1775	-11.4255
тальны	-11.4256
▁дваццаць	-11.4257
▁Зборна	-11.4258
рэвалюцыянер	-11.426
▁любога	-11.4261
▁рот	-11.4261
▁Мова	-11.4264
▁размеркава	-11.4266
▁велізарна	-11.4268
тарна	-11.4269
▁замяня	-11.427
▁калоны	-11.427
іяна	-11.4273
▁Матэ	-11.4275
▁Рэг	-11.4275
ier	-11.4276
аснавальнікаў	-11.4276
▁Эфіопі	-11.4277
▁абмяркоўва	-11.4277
▁вертыкальны	-11.4277
▁высадзі	-11.4277
амерыканска	-11.4277
эб	-11.4278
ключэнне	-11.4278
▁пагрозай	-11.4279
▁фрэс	-11.428
▁1808	-11.428
▁канон	-11.4282
руючы	-11.4282
▁ях	-11.4282
раты	-11.4284
▁пластык	-11.4286
▁наведваў	-11.4287
▁сустрэча	-11.4289
▁архіва	-11.4291
▁элементарны	-11.4293
▁пакаленне	-11.4294
▁бедна	-11.4295
▁Свір	-11.4295
▁Man	-11.4296
▁вузкім	-11.4297
шке	-11.4297
▁абраду	-11.4297
▁Праца	-11.4297
▁адзначае	-11.4298
▁Заход	-11.4299
▁збожжа	-11.4299
▁калідор	-11.4299
3,8	-11.43
▁фальварак	-11.43
3,6	-11.43
▁Мяжуе	-11.43
▁імкненне	-11.43
▁адзначаю	-11.4301
▁разгляд	-11.4301
▁Эрыдан	-11.4302
▁жыллё	-11.4303
▁атрымліваў	-11.4303
▁публікава	-11.4305
▁Медаль	-11.4307
▁полацкі	-11.4307
клуб	-11.4311
▁выхаванн	-11.4311
▁вылет	-11.4313
▁праводзілі	-11.4315
▁патрэбы	-11.4316
днік	-11.4317
-28	-11.4318
▁атрадаў	-11.4319
даюцца	-11.4322
Z	-11.4322
▁скарочана	-11.4322
▁патрабую	-11.4322
▁Вавілон	-11.4322
▁Эмілі	-11.4325
▁сямейны	-11.4325
▁Хутка	-11.4326
▁заняткам	-11.4328
▁матыл	-11.4333
▁Перамог	-11.4334
▁устаноўлены	-11.4335
▁малой	-11.4335
▁класічна	-11.4336
▁далейшы	-11.4337
лёгку	-11.4337
▁супольна	-11.4337
▁расліннасць	-11.4338
▁Каса	-11.4338
net	-11.4339
марскі	-11.4341
ненні	-11.4342
кварк	-11.4344
▁ліштва	-11.4344
▁карона	-11.4344
▁Фландры	-11.4345
▁рэакцыя	-11.4345
▁колькасн	-11.4345
▁водгук	-11.4346
блак	-11.4348
▁арганізмаў	-11.4349
▁арэала	-11.4349
▁113	-11.4349
▁Уэльса	-11.4349
▁So	-11.4351
▁108	-11.4353
▁норма	-11.4354
вінскі	-11.4356
▁Бухар	-11.4358
▁Магілёўскі	-11.4358
▁адценн	-11.4359
нген	-11.436
▁Сена	-11.4361
▁вочы	-11.4364
▁аграгарадка	-11.4365
▁муніцыпалітэт	-11.4365
▁прыбылі	-11.4366
ванню	-11.4367
▁Шэклтан	-11.4368
▁перспектыв	-11.4368
▁бялко	-11.4368
▁фасады	-11.4369
▁Euro	-11.4369
▁ёмна	-11.4369
▁Агульны	-11.4369
▁Фасад	-11.4372
▁Чачэрск	-11.4372
▁хлопчык	-11.4377
▁ютарны	-11.4377
ніст	-11.4377
▁1852	-11.4381
▁бухт	-11.4381
ner	-11.4381
▁выкарыстоўваючы	-11.4382
бож	-11.4384
▁ўмоў	-11.4384
▁багацц	-11.4386
▁Хра	-11.4386
▁БНФ	-11.4391
▁нарвежскі	-11.4391
▁індывідуальны	-11.4391
▁паслядоўнік	-11.4392
гаспадар	-11.4393
дольны	-11.4394
▁абмежавання	-11.4395
▁захоплена	-11.4396
▁акупацыяй	-11.4399
▁Карпат	-11.4401
▁кіт	-11.4401
▁1829	-11.4402
▁Габсбург	-11.4405
▁пагорк	-11.4406
▁Жыл	-11.4408
▁казкі	-11.4409
ix	-11.4409
▁Каўказа	-11.4411
▁пачало	-11.4411
хопліва	-11.4412
▁2,2	-11.4412
▁брамнік	-11.4414
▁Геркулес	-11.4414
▁НАТА	-11.4414
▁паведамленне	-11.4414
▁іканастас	-11.4414
▁змешчана	-11.4414
▁Моцарт	-11.4414
▁галандскі	-11.4414
▁разбурэння	-11.4415
▁нацыі	-11.4415
▁грэчаскіх	-11.4415
▁мемарыяльна	-11.4415
▁канферэнцыя	-11.4416
▁праекты	-11.4417
▁праграмаванн	-11.442
ies	-11.442
▁суддзя	-11.4421
▁забіта	-11.4422
▁прымус	-11.4424
▁планавалася	-11.4425
▁1828	-11.4426
▁зарэгістравана	-11.4426
▁Каў	-11.4429
▁магіле	-11.4429
▁разбіў	-11.443
▁распавядае	-11.4432
▁парламенц	-11.4432
▁поп	-11.4434
▁франтонам	-11.4434
▁Сінгапур	-11.4437
▁вывяржэнн	-11.4437
▁ўзмацненн	-11.4437
▁святкаванн	-11.4437
чвае	-11.4437
▁юбіле	-11.4437
▁Міс	-11.4438
▁будовы	-11.4439
▁староства	-11.4442
▁Пекін	-11.4445
▁гісторыкі	-11.4445
асветніцк	-11.4446
▁дакументальны	-11.4447
▁Крыш	-11.445
▁фінска	-11.4451
▁фінскі	-11.4453
▁1835	-11.4453
▁мера	-11.4454
nt	-11.4454
▁выраза	-11.4455
метал	-11.4455
▁вырашэння	-11.4455
▁ранейша	-11.4458
▁Складае	-11.4458
рэсурс	-11.4459
▁ўмацаванні	-11.4459
▁Пакістан	-11.446
▁расчлянёны	-11.446
▁фестывалю	-11.446
▁чэрвень	-11.446
▁Абодва	-11.446
▁утворана	-11.446
▁ліпень	-11.4461
▁дзеяслова	-11.4461
▁Жыццё	-11.4461
▁атрыманне	-11.4461
▁вечна	-11.4464
▁багіні	-11.4464
▁вуглавы	-11.4465
▁капітана	-11.4466
cz	-11.4466
▁Атлантычны	-11.4466
▁размах	-11.4468
дуб	-11.4468
▁Таб	-11.4472
▁Філ	-11.4473
▁Пушкіна	-11.4473
▁ансамбля	-11.4475
▁дзённік	-11.4476
▁народы	-11.4476
▁старэйшым	-11.4477
лізацы	-11.4477
▁меркавана	-11.4479
▁Петраград	-11.448
▁1809	-11.4482
▁субтрапічны	-11.4483
▁каланізацы	-11.4483
▁каралі	-11.4483
▁універсітэтаў	-11.4485
▁Шаркаўшчынскі	-11.4485
шчанка	-11.4485
▁спір	-11.4485
матэматычны	-11.4485
▁патрэбны	-11.4486
▁дало	-11.4486
▁Захава	-11.4487
луг	-11.4488
▁1826	-11.4494
▁цікавы	-11.4494
▁парода	-11.4501
ападобных	-11.4502
▁Людзі	-11.4502
гру	-11.4503
▁выяўляе	-11.4503
▁кропкі	-11.4504
▁Хрысціян	-11.4505
▁патрон	-11.4505
▁сустрэч	-11.4506
▁аповесць	-11.4507
▁архітэктура	-11.4507
▁абавязаны	-11.4507
▁псеўданім	-11.4508
Ар	-11.451
rum	-11.4511
секс	-11.4511
еўскай	-11.4513
▁каго	-11.4514
▁1802	-11.4517
▁паўстала	-11.4517
▁Uni	-11.4521
▁330	-11.4521
▁1833	-11.4521
▁Львоўска	-11.4521
▁шведскай	-11.4523
рэзаны	-11.4525
▁шэрага	-11.4529
▁каменя	-11.4529
▁Брандэнбург	-11.453
▁Створана	-11.453
▁рэпертуар	-11.453
▁інфраструктур	-11.453
▁Транспартны	-11.453
▁патрапіл	-11.4531
▁праграме	-11.4532
оўскай	-11.4532
▁Якава	-11.4532
▁дно	-11.4534
▁стабільна	-11.4534
▁апісанн	-11.4535
▁пяхотна	-11.4537
▁Акцябрскі	-11.4539
▁1854	-11.4542
▁сведчання	-11.4543
мову	-11.4545
▁падарава	-11.455
▁статуі	-11.4551
▁270	-11.4552
ного	-11.4553
▁злучэнне	-11.4553
▁каханне	-11.4553
▁Сафіі	-11.4554
▁цераз	-11.4554
▁мерапрыемстваў	-11.4554
▁Каўнас	-11.4555
▁KU	-11.4555
▁пакараны	-11.4555
▁мяшчан	-11.4556
▁камбінац	-11.4556
▁Аснов	-11.4557
▁падвойна	-11.4557
▁вылучана	-11.4559
▁мінскім	-11.4559
▁кут	-11.456
▁Выток	-11.4561
▁ясна	-11.4565
▁паўночн	-11.4566
▁135	-11.4569
▁мячо	-11.4569
▁Гло	-11.4569
▁Раг	-11.4572
▁рос	-11.4573
▁шашы	-11.4573
▁папярэдняга	-11.4573
адтуль	-11.4574
▁выкарыстаў	-11.4575
▁жыхарамі	-11.4575
▁даху	-11.4575
▁жнівень	-11.4576
▁трохвугольнік	-11.4576
▁выехаў	-11.4577
▁Стамбул	-11.4577
▁гутарк	-11.4577
▁адвакат	-11.4578
▁война	-11.4578
▁семінар	-11.4579
▁канцо	-11.4581
▁ствала	-11.4582
звычай	-11.4583
▁пакоі	-11.4585
▁138	-11.4585
▁абедзвю	-11.4586
▁уваходам	-11.4586
▁прыкметны	-11.4587
▁Горка	-11.4589
▁маёнткі	-11.4589
▁1822	-11.459
оўская	-11.4593
▁хуткасц	-11.4595
Кашалёўскі	-11.4596
▁Русь	-11.4597
▁версій	-11.4599
3,3	-11.46
▁Лукашэнка	-11.46
▁сутыкну	-11.46
▁інтэлігенцы	-11.46
▁Оксфард	-11.46
▁Франсуа	-11.46
▁нарвежска	-11.46
▁палявання	-11.46
▁чэрап	-11.4601
▁палкоўніка	-11.4602
▁Украінскі	-11.4602
▁работнік	-11.4603
сет	-11.4607
▁граматык	-11.4609
▁1648	-11.461
▁кавалк	-11.4612
новы	-11.4614
▁1804	-11.4615
▁асноўн	-11.4615
носны	-11.4615
▁прызнання	-11.4616
▁плануе	-11.4617
▁Беларуск	-11.4617
ост	-11.4619
Ан	-11.4619
▁кантона	-11.4621
біс	-11.4622
▁рэчаў	-11.4623
віка	-11.4623
▁нябесна	-11.4623
▁рамёств	-11.4623
▁Амстэрдам	-11.4623
▁сегмент	-11.4623
▁грашовы	-11.4624
▁запраша	-11.4624
▁канструкцый	-11.4624
▁дэкан	-11.4624
▁грэкаў	-11.4625
▁Горкага	-11.4625
▁Сіна	-11.463
▁амерыкан	-11.4631
▁1851	-11.4633
▁1813	-11.4637
▁кардынала	-11.4639
▁рэлігі	-11.4639
нізе	-11.464
чцы	-11.464
сферы	-11.464
стэн	-11.4641
▁Варшавы	-11.4646
3,4	-11.4646
▁намалявана	-11.4647
▁паплечнік	-11.4647
▁тэрмадынамі	-11.4647
▁Асамбле	-11.4647
▁выстаўкі	-11.4647
▁прыехаў	-11.4647
▁дэталя	-11.4649
▁пляж	-11.465
▁Казлоў	-11.4653
▁герцагам	-11.4653
▁думка	-11.4653
▁ўдзельнікаў	-11.4653
кэ	-11.4653
▁карніз	-11.4654
▁шлем	-11.4655
▁уладальнікам	-11.4656
днём	-11.4656
чнасць	-11.4656
▁Бярэзінскі	-11.4657
▁Жак	-11.4659
▁чыгуначнага	-11.4662
▁падлог	-11.4662
▁1844	-11.4662
дача	-11.4665
Ры	-11.4665
▁земляроб	-11.4667
▁Глыбо	-11.4668
канал	-11.4668
крат	-11.4668
▁дэмакраты	-11.4668
фіт	-11.4669
▁Сян	-11.4669
Успенск	-11.467
▁пункце	-11.467
▁мікрараён	-11.467
▁тройчы	-11.4671
стрэл	-11.4671
▁партрэта	-11.4671
▁Слонімскі	-11.4673
оўвае	-11.4676
▁Міцкевіча	-11.4678
▁1667	-11.4678
▁цырымоні	-11.4678
▁Віталь	-11.4679
▁Дзеянн	-11.4681
▁служылі	-11.4682
gen	-11.4683
▁прадава	-11.4684
▁павольна	-11.4691
▁зборнікі	-11.4691
▁Мароз	-11.4692
▁знаёмы	-11.4694
▁жонку	-11.4694
▁цыліндрычны	-11.4694
▁прыдворны	-11.4695
▁мінскі	-11.4695
▁гарызантальна	-11.4695
▁шкілет	-11.4695
mon	-11.4696
▁многім	-11.4696
▁вароты	-11.4697
дов	-11.4698
▁Браўн	-11.4699
нясення	-11.4699
▁выклікалі	-11.47
▁перадача	-11.47
▁забудова	-11.4701
прадукт	-11.4701
▁Барысаў	-11.4701
▁грыбоў	-11.4702
▁нумары	-11.4703
▁ўзяцц	-11.4705
▁бачыў	-11.4705
▁выратаванн	-11.4706
▁палёту	-11.4706
▁арыентавана	-11.4707
▁Навукова	-11.4707
tis	-11.471
▁Банк	-11.4712
канферэнцы	-11.4714
▁Бразілія	-11.4718
▁фартэпіяна	-11.4718
▁шатландска	-11.4718
▁мацерыко	-11.4718
▁цёпла	-11.4718
▁Зялёны	-11.4718
▁верхавін	-11.4718
▁восені	-11.4718
▁кандыдатур	-11.4719
▁102	-11.4719
кран	-11.4719
мкну	-11.4721
▁драматычна	-11.4721
марк	-11.4723
▁фрэска	-11.4723
▁закры	-11.4723
▁бывае	-11.4724
▁чацверык	-11.4724
▁Паўночн	-11.4726
руха	-11.4729
▁задання	-11.4733
снежн	-11.4735
▁Камітэт	-11.4736
▁блізкіх	-11.4739
▁вырабляю	-11.4739
▁цягну	-11.474
▁Сцюарт	-11.4742
▁спонсара	-11.4742
▁энергію	-11.4742
▁Друкава	-11.4743
▁кіравала	-11.4744
▁Жонка	-11.4745
▁славі	-11.4746
▁каштоўнасць	-11.4746
▁Шэкспіра	-11.4747
▁азот	-11.4747
▁2-3	-11.4749
▁правял	-11.4754
▁1816	-11.4755
▁Такая	-11.4755
▁запісы	-11.4757
▁склон	-11.4757
льск	-11.4758
▁спажыва	-11.476
-31	-11.4763
нтрап	-11.4763
сле	-11.4765
▁памочнікам	-11.4765
tra	-11.4765
▁настаўніка	-11.4765
▁важнае	-11.4765
▁абмеркаванн	-11.4765
▁дзевяці	-11.4765
▁кухні	-11.4766
арганіз	-11.4766
▁паўабаронцы	-11.4766
каталік	-11.4767
▁жывапісец	-11.4768
▁Лыс	-11.4771
▁метала	-11.4773
▁феадальна	-11.4773
▁цырк	-11.4774
▁вобласц	-11.4779
▁краязнаўчы	-11.4783
ВК	-11.4786
▁воды	-11.4787
▁Густаў	-11.4788
2,9	-11.4789
▁Грыгарыянскі	-11.4789
▁захапля	-11.4789
▁аўтаномны	-11.4789
▁Пачатак	-11.4789
▁прапануе	-11.4789
▁ўзнагароджаны	-11.479
▁віла	-11.479
▁існуючы	-11.479
▁дазволу	-11.4791
▁анёл	-11.4792
▁ўтрыманн	-11.4792
▁Вальтэр	-11.4793
▁Раду	-11.4794
▁Публі	-11.4795
генез	-11.4795
▁90-	-11.4797
▁латыш	-11.4797
невіч	-11.48
▁арганічна	-11.4801
тэрна	-11.4801
▁агента	-11.4802
▁Рэал	-11.4803
▁рабоў	-11.4803
▁1843	-11.4804
▁Слава	-11.4804
▁Свят	-11.4804
CC	-11.4809
▁часты	-11.4811
▁Характэрна	-11.4813
▁дасягненне	-11.4813
▁еўрапейцаў	-11.4813
▁срэбны	-11.4813
▁Існавал	-11.4815
▁Траян	-11.4816
▁Тэкст	-11.4816
▁1807	-11.4817
будаваў	-11.4823
балтыйск	-11.4825
лук	-11.4825
лешч	-11.4826
▁век	-11.4827
▁Брагін	-11.4827
▁124	-11.4831
▁максімальн	-11.4832
ung	-11.4832
антаў	-11.4832
▁каштоўнасці	-11.4832
▁выбаршчыкаў	-11.4837
▁Капыльскі	-11.4838
▁вернуты	-11.4838
▁Варшава	-11.4839
min	-11.484
▁Сіг	-11.4841
▁Мазырскі	-11.4842
равалі	-11.4843
▁Брусел	-11.4846
▁Джорджа	-11.4847
▁сумяшча	-11.4848
▁Колер	-11.4848
▁Ніл	-11.4849
▁цыган	-11.485
▁экспедыцый	-11.485
▁1841	-11.4851
▁голад	-11.4852
▁саюзнікам	-11.4854
▁фармаванн	-11.4854
▁Граф	-11.4854
1001	-11.4855
▁палявы	-11.4857
-24	-11.4858
▁Эстонія	-11.4861
▁Фрэдэрык	-11.4861
▁імперскі	-11.4862
▁утварэнне	-11.4865
▁зямны	-11.4866
▁ведае	-11.4868
▁Пін	-11.4868
ore	-11.4873
▁апублікава	-11.4873
▁сканчэння	-11.4874
▁70-	-11.4874
▁пазнаёміў	-11.4875
▁платформа	-11.4876
▁прымала	-11.4879
▁фараона	-11.4879
▁кантра	-11.4884
▁аздабленн	-11.4885
▁Ганарова	-11.4885
▁рэстаран	-11.4885
▁турыстычны	-11.4886
▁аперацы	-11.4887
▁праліва	-11.4887
▁упраўленн	-11.4887
▁водар	-11.4888
фікаваны	-11.4888
▁Сяло	-11.489
фель	-11.4891
▁прарва	-11.4892
мастацкі	-11.4893
▁Выклада	-11.4895
▁нізіна	-11.4895
▁развівае	-11.4895
▁гульнявы	-11.4896
▁Паходзі	-11.4896
▁фірма	-11.4897
▁1821	-11.4897
▁Коп	-11.4898
▁нарадзіла	-11.4898
▁ўкраінскай	-11.49
▁адрозніваюць	-11.4901
арган	-11.4902
ano	-11.4903
▁гаро	-11.4906
▁магчымым	-11.4907
▁1803	-11.4908
▁родам	-11.4908
▁псеўданімам	-11.4909
▁рэканструкцыя	-11.4909
▁рэгістрацыі	-11.491
▁Хронік	-11.491
▁ўзяць	-11.4913
▁турме	-11.4913
▁ўзвядзенн	-11.4917
3,5	-11.4919
▁дзецьмі	-11.4919
▁Жанаты	-11.4919
▁380	-11.4921
que	-11.4921
▁Афганістан	-11.4922
▁Сел	-11.4923
ug	-11.4927
▁хоры	-11.4928
▁развіваюцц	-11.493
архі	-11.4932
▁назапашва	-11.4934
▁федэрацыі	-11.4934
▁ператвораны	-11.4934
▁Язэп	-11.4934
сялянск	-11.4934
рдзі	-11.4934
▁Картэс	-11.4934
ніцтв	-11.4935
▁пакрыцц	-11.4936
▁шахт	-11.4936
▁Fe	-11.4937
▁цяжар	-11.4937
▁Уільяма	-11.4937
▁Людвік	-11.494
▁аўтадаро	-11.494
▁апосталаў	-11.4942
▁апавяданне	-11.4942
плат	-11.4943
МФ	-11.4946
▁сайта	-11.4947
▁1824	-11.4947
▁Мост	-11.4948
▁Кука	-11.495
▁скульптара	-11.495
▁перап	-11.4954
▁Камянецкі	-11.4956
▁выхадца	-11.4956
▁Сярэднявечч	-11.4957
▁сфармулява	-11.4958
▁патрапіў	-11.4958
aceae	-11.4958
▁Баварыя	-11.4958
ini	-11.4959
▁садзейніча	-11.496
▁Гель	-11.4961
руюць	-11.4962
▁фірмы	-11.4963
сляды	-11.4964
▁лекцыі	-11.4964
▁тка	-11.4965
▁рэпрэсі	-11.4965
▁Цэнтральным	-11.4965
▁апрацоўва	-11.4965
ew	-11.4971
▁Антонавіч	-11.4972
▁пакры	-11.4973
▁зліцця	-11.4974
бад	-11.4974
затар	-11.4975
рускага	-11.4978
▁стыл	-11.4979
▁Суха	-11.4982
рыды	-11.4982
▁прапаганды	-11.4982
▁Лейпцыг	-11.4982
▁Мексікі	-11.4982
▁падоўжаны	-11.4982
▁пасляваенны	-11.4982
дзён	-11.4983
▁Токіа	-11.4983
клалі	-11.4987
▁106	-11.4988
будаўніча	-11.4991
значаны	-11.4991
луп	-11.4996
ою	-11.4996
▁чэмпіёнка	-11.4997
▁абшчына	-11.4998
джэр	-11.4998
▁рэпрэсій	-11.5
▁перапын	-11.5002
рут	-11.5005
▁заключа	-11.5005
▁Даліна	-11.5005
▁Гісторык	-11.5007
▁Анастасі	-11.5007
▁незвычайна	-11.5008
▁абвінавачва	-11.5008
▁Сыр	-11.5008
▁дэман	-11.5011
▁кастрычнік	-11.5011
▁туманнасць	-11.5011
▁шкал	-11.5013
рыент	-11.5016
▁Гітлер	-11.5017
▁інжынерам	-11.5019
прэч	-11.5019
▁1811	-11.5021
▁рухавіком	-11.5023
▁Шэр	-11.5023
▁АЭС	-11.5024
▁ўладання	-11.5024
▁папярэдня	-11.5025
ros	-11.5026
▁павялічылас	-11.5028
▁арачны	-11.5028
▁староста	-11.5029
▁помнікам	-11.503
▁падтрымлівалі	-11.503
▁Хельсінкі	-11.5031
▁найвялікшы	-11.5031
▁пасялкова	-11.5031
▁камедыі	-11.5031
▁селянін	-11.5031
▁насялял	-11.5034
▁абацтв	-11.5036
▁вугал	-11.5037
▁зменена	-11.5042
▁Міжзем	-11.5046
▁перавод	-11.5047
лівасць	-11.5048
▁Сяля	-11.5049
▁пакаранне	-11.5052
▁расстраляны	-11.5056
▁самагубства	-11.5056
▁упрыгожаны	-11.5056
▁агнём	-11.5056
▁Рама	-11.5056
▁даўжэй	-11.5056
▁урач	-11.5057
ek	-11.5057
▁ўрочышч	-11.5058
▁сера	-11.5059
▁палях	-11.5059
▁апорны	-11.506
шок	-11.5063
▁гарадская	-11.5068
▁алфавіта	-11.5069
▁Алан	-11.5069
▁рангу	-11.5071
▁адкрывае	-11.5073
замен	-11.5075
▁упрыгожва	-11.508
▁Чашніцкі	-11.508
▁японц	-11.5081
▁выпусціў	-11.5081
▁патрабавала	-11.5082
▁друкар	-11.5082
▁вадзяны	-11.5082
вязаны	-11.5087
▁порта	-11.5088
сама	-11.509
▁прыкмета	-11.5092
оўшчык	-11.5092
▁Княств	-11.5092
▁скарачэнне	-11.5094
▁ключавы	-11.5095
▁Гаро	-11.5095
▁чыноўнік	-11.5098
дур	-11.5098
спор	-11.5099
▁назвалі	-11.5099
▁выпрабаванн	-11.51
▁Алены	-11.5101
▁абавязковы	-11.5101
ler	-11.5103
▁ужываецца	-11.5104
▁Францішка	-11.5105
▁вадаспад	-11.5105
▁манеўр	-11.5105
▁Перыяд	-11.5105
▁Шанхай	-11.5105
▁плод	-11.5105
▁Вінцэнт	-11.5105
▁зацвердзіў	-11.5106
▁люд	-11.5108
▁полу	-11.5109
▁выпусціл	-11.5111
▁яднанні	-11.5111
▁сапр	-11.5114
▁шары	-11.5118
вуз	-11.5118
oph	-11.5118
амсі	-11.5121
▁лінь	-11.5121
▁Буйны	-11.5123
буры	-11.5123
▁Сакал	-11.5124
▁роты	-11.5126
▁раманаў	-11.5129
3,7	-11.5129
▁наваколлі	-11.5129
▁фестываля	-11.5129
▁фільмы	-11.5132
гро	-11.5132
▁літургі	-11.5136
▁кля	-11.514
шэра	-11.514
▁яўляючы	-11.5141
РП	-11.5141
▁пілястрам	-11.5141
▁ўкраінска	-11.5142
▁інфармацыйна	-11.5143
▁адыход	-11.5144
▁ракавін	-11.5144
онак	-11.5148
▁даступна	-11.5149
▁дывізіёна	-11.5149
org	-11.5153
▁1805	-11.5153
▁Мсціслаў	-11.5153
▁веравызнанн	-11.5154
▁студэнцкі	-11.5154
▁распасціра	-11.5154
▁расследаванн	-11.5154
▁Інтэрнэт	-11.5154
▁людзям	-11.5154
▁карэнішч	-11.5154
▁далуча	-11.5155
▁дамог	-11.5155
▁сценах	-11.5156
▁Слонімска	-11.5156
▁Акадэмія	-11.5156
▁тканіны	-11.5157
▁Валода	-11.5157
▁печ	-11.5157
▁прыпада	-11.5159
▁навучы	-11.5159
▁замяніў	-11.5162
▁грамадзяне	-11.5162
▁Лідска	-11.5164
▁Дор	-11.5164
▁унук	-11.5165
▁Стаўбцоўскі	-11.5165
▁фінансаванн	-11.5167
▁Антант	-11.5168
▁1838	-11.5168
▁Арта	-11.5169
▁Клецк	-11.5171
▁Сол	-11.5172
ton	-11.5175
▁лесе	-11.5175
▁беларусы	-11.5176
▁гледач	-11.5177
▁Дзве	-11.5177
▁дэталі	-11.5178
▁1773	-11.5178
▁звон	-11.5178
2,0	-11.5179
▁біятлон	-11.5179
▁суверэнітэт	-11.5179
▁падпісалі	-11.518
▁стварыла	-11.518
▁называць	-11.5181
▁празаік	-11.5182
▁Іардан	-11.5182
▁Вель	-11.5182
▁нявест	-11.5182
▁аздоблены	-11.5182
▁продка	-11.5182
▁прымуша	-11.5184
og	-11.5184
▁Рудня	-11.5187
вень	-11.5196
▁прыкмет	-11.5196
▁118	-11.5196
▁дапушча	-11.5198
▁тысячагоддз	-11.5198
▁вярнулас	-11.5198
▁віс	-11.5201
▁Справа	-11.5203
фельд	-11.5204
▁напярэдадні	-11.5204
▁порцік	-11.5204
▁здароўе	-11.5204
▁Сапегі	-11.5204
▁Фелікс	-11.5204
▁Ізраіл	-11.5205
▁магн	-11.5207
▁мітрапаліт	-11.5208
▁аддзелены	-11.5209
выканкам	-11.521
▁адказнасць	-11.5212
▁арышту	-11.5212
▁Пола	-11.5213
▁рана	-11.5214
сховішч	-11.5214
▁густы	-11.5214
▁Уэльс	-11.5215
▁Духа	-11.5218
▁Арсенал	-11.5218
ola	-11.5218
▁тую	-11.5219
▁Макар	-11.5219
▁крайні	-11.522
рэзана	-11.522
▁Багдана	-11.522
▁дайшл	-11.5222
▁размеркаванне	-11.5224
-27	-11.5227
▁нагадваю	-11.523
▁Багдановіча	-11.5232
▁адмоўна	-11.5232
tro	-11.5235
▁выразны	-11.5236
▁спадчына	-11.5237
▁гравітацыйна	-11.5237
▁сфер	-11.5238
▁таўшчын	-11.5238
▁Галоў	-11.5239
▁Фларыд	-11.524
▁адкрылі	-11.5244
▁самкі	-11.5245
руп	-11.5246
▁107	-11.5246
▁павелічэння	-11.5246
піл	-11.5251
▁абаронча	-11.5252
▁1783	-11.5253
4,2	-11.5254
▁дэкларацы	-11.5254
▁найболе	-11.5254
▁станоўчы	-11.5254
тэле	-11.5254
▁інтэграцы	-11.5254
▁салдаты	-11.5254
▁рэзкі	-11.5255
▁выконвалі	-11.5257
▁Спартак	-11.5257
▁школьны	-11.5257
сцэн	-11.5258
▁адвагу	-11.5258
ita	-11.5261
эканамічны	-11.5265
▁малюнкаў	-11.5266
▁Нур	-11.5267
dr	-11.5267
▁Мсціслаўскі	-11.5267
▁дэпо	-11.5268
▁1825	-11.5269
губернатарства	-11.5271
▁пазначаны	-11.5271
▁малюнкі	-11.5271
цыйную	-11.5275
▁Даследаванн	-11.5279
▁экзамен	-11.5279
стын	-11.528
▁Працэс	-11.528
▁Труб	-11.528
▁майстрам	-11.528
мперыю	-11.528
▁Вял	-11.5281
▁Бяро	-11.5283
цяпл	-11.5283
▁мерапрыемств	-11.5283
▁буйнымі	-11.5284
▁Часова	-11.5285
▁117	-11.5285
▁Леан	-11.5285
пеш	-11.5289
▁камісі	-11.5291
▁памят	-11.5291
▁намінал	-11.5293
каранёв	-11.5295
▁цячэнне	-11.5295
▁Ho	-11.5295
▁нібы	-11.5302
▁блыта	-11.5304
▁свядомасці	-11.5304
▁Нямецка	-11.5304
▁Асацыяцы	-11.5304
▁настаўнікаў	-11.5305
▁рэвалюцы	-11.5305
▁знізу	-11.5307
end	-11.5308
філі	-11.5308
▁шчыльны	-11.531
▁сяброўства	-11.531
▁вял	-11.531
арэнды	-11.5312
▁жыхара	-11.5316
▁Завод	-11.5316
▁набраў	-11.5316
▁суткі	-11.5316
▁руды	-11.5317
▁забяспечваю	-11.5317
зацыю	-11.5318
▁280	-11.5318
рал	-11.5319
[...]
