<unk>	0
<s>	0
</s>	0
<pad>	0
▁,	-3.19382
▁.	-3.25249
я	-4.04244
▁і	-4.13743
▁ў	-4.23794
й	-4.2944
х	-4.44229
▁)	-4.51244
▁(	-4.51344
і	-4.51801
▁з	-4.5269
▁у	-4.56429
▁—	-4.63002
а	-4.63322
м	-4.68137
е	-4.70185
▁на	-4.75402
у	-4.92163
;	-4.94528
ы	-4.95718
▁&	-4.96887
га	-4.99775
-	-5.09047
▁	-5.09156
▁У	-5.10207
▁«	-5.22023
▁»	-5.22064
ў	-5.29702
ць	-5.41459
▁да	-5.50297
▁па	-5.513
quot	-5.59915
мі	-5.67157
.	-5.67466
аў	-5.70346
apos	-5.7502
▁ад	-5.83997
▁года	-5.8415
▁а	-5.95402
▁за	-5.98745
ю	-6.00654
цца	-6.02709
лі	-6.04459
▁годзе	-6.05187
ам	-6.06264
▁не	-6.06784
▁г	-6.09004
▁:	-6.14684
▁быў	-6.27181
ла	-6.27757
на	-6.28196
ка	-6.29512
▁аб	-6.32939
▁што	-6.33086
▁З	-6.45716
ся	-6.47367
▁́	-6.50477
▁2	-6.52542
▁А	-6.52969
▁яго	-6.53348
▁як	-6.55423
▁км	-6.57887
▁На	-6.58004
▁для	-6.58799
▁пры	-6.61791
ны	-6.62248
с	-6.63085
кі	-6.65362
▁склад	-6.71387
▁які	-6.72452
▁с	-6.72699
ую	-6.73874
▁пра	-6.74991
амі	-6.76338
т	-6.76528
к	-6.77304
▁пад	-6.79164
▁якія	-6.8101
▁вобласці	-6.8123
ўся	-6.83501
▁таксама	-6.84333
▁;	-6.84506
та	-6.8814
цы	-6.8863
ай	-6.91362
▁была	-6.93443
▁С	-7.0095
▁’	-7.01839
▁былі	-7.02117
▁раёне	-7.03295
▁1	-7.03431
▁Па	-7.03805
да	-7.04985
н	-7.09296
▁м	-7.10498
це	-7.12109
ецца	-7.12566
▁ён	-7.13265
д	-7.13407
ва	-7.13828
▁3	-7.1388
ма	-7.13884
чы	-7.15467
най	-7.15555
▁Да	-7.1698
ры	-7.17346
▁але	-7.1785
нага	-7.18208
ах	-7.1821
▁час	-7.18239
ных	-7.18508
▁сельсавета	-7.18743
ні	-7.19966
▁вёска	-7.20654
за	-7.20861
▁было	-7.20903
▁пасля	-7.22035
▁гэта	-7.24
ты	-7.24524
ш	-7.25147
▁15	-7.26063
э	-7.26459
скага	-7.27103
▁якая	-7.27863
▁са	-7.28212
▁ва	-7.28801
ныя	-7.28938
▁каля	-7.29076
▁вы	-7.30203
л	-7.30354
лася	-7.30549
ліся	-7.30757
шы	-7.31899
му	-7.3351
ра	-7.33565
ку	-7.33602
▁Уваходзі	-7.34868
▁больш	-7.3571
ль	-7.36665
▁16	-7.36774
з	-7.36848
▁Беларусі	-7.36917
▁-	-7.37924
са	-7.38588
не	-7.38784
▁або	-7.39743
▁За	-7.3976
▁дзе	-7.40038
▁іх	-7.40384
ь	-7.4065
▁І	-7.41986
ля	-7.43023
▁чалавек	-7.4344
▁/	-7.43446
▁складае	-7.43481
▁яе	-7.44559
ную	-7.45407
▁4	-7.45412
▁яўляецца	-7.45413
▁М	-7.45612
сці	-7.47689
▁ст	-7.47727
юць	-7.49719
▁толькі	-7.50069
ці	-7.50582
скай	-7.50734
скі	-7.50847
▁раён	-7.51047
р	-7.51612
▁Пасля	-7.53391
▁5	-7.54662
▁17	-7.5483
▁гадоў	-7.55857
ды	-7.56254
▁насельніцтва	-7.5637
ная	-7.57191
ле	-7.59646
ча	-7.60728
г	-7.6099
п	-7.615
▁10	-7.62037
па	-7.62224
▁год	-7.62514
ем	-7.62658
ага	-7.64312
▁ці	-7.64582
ч	-7.6521
оў	-7.65473
дзе	-7.65523
ным	-7.66357
▁14	-7.66735
▁стаў	-7.66737
ве	-7.70637
i	-7.70869
ста	-7.70969
ба	-7.71335
ня	-7.71435
▁Гэты	-7.71956
▁В	-7.71978
▁12	-7.7218
▁н	-7.73028
▁вайны	-7.74577
▁горад	-7.75693
▁тым	-7.75838
зе	-7.7593
▁пера	-7.76442
▁калі	-7.76813
▁6	-7.76983
▁раз	-7.77686
б	-7.77699
▁паміж	-7.77865
▁П	-7.7815
▁%	-7.78682
юцца	-7.79113
ту	-7.79505
▁NGC	-7.80095
сі	-7.81138
▁горада	-7.82072
▁тэрыторыі	-7.82334
▁Пры	-7.83268
ша	-7.83869
▁13	-7.85118
▁8	-7.85163
▁Я	-7.85735
▁К	-7.87398
▁ект	-7.87475
рэ	-7.87643
дзі	-7.88434
▁Ка	-7.88644
▁галактыка	-7.88755
1	-7.88983
гі	-7.90076
▁таго	-7.90135
▁11	-7.91062
сць	-7.91367
▁Ма	-7.9167
▁знаходзіцца	-7.92516
▁некалькі	-7.92666
ві	-7.92749
ц	-7.93205
▁9	-7.9332
▁адзін	-7.94414
▁Э	-7.94802
▁іншыя	-7.95118
ак	-7.9522
▁раёна	-7.95464
▁7	-7.96023
узор	-7.97143
▁рэдакцы	-7.9715
вы	-7.97232
▁праз	-7.97431
ло	-7.97896
▁20	-7.99935
жа	-8.00784
▁мае	-8.01353
▁якіх	-8.01721
се	-8.01789
▁ж	-8.01864
▁так	-8.01953
▁гэтага	-8.02036
▁Са	-8.02727
▁іншых	-8.03205
нскага	-8.03424
▁арыгінальна	-8.03984
ру	-8.04083
▁складзе	-8.04258
▁месца	-8.04589
▁I	-8.04784
▁каталога	-8.04985
▁я	-8.05032
ф	-8.05668
▁уваходзі	-8.0602
▁стагоддзя	-8.06283
▁гэты	-8.06337
▁пачатку	-8.06586
во	-8.06864
▁Гэта	-8.07118
▁цэнтр	-8.08235
▁лік	-8.08616
ння	-8.08737
ж	-8.0886
▁над	-8.09561
ца	-8.09564
▁гг	-8.09951
▁жа	-8.112
▁яны	-8.11215
▁Ба	-8.11414
жо	-8.11454
тэ	-8.11503
▁гадах	-8.11603
▁гады	-8.11641
▁атрымаў	-8.11738
скім	-8.11759
ну	-8.11927
▁в	-8.12081
▁гэтым	-8.12541
бі	-8.12551
▁інш	-8.1261
▁якой	-8.13043
лы	-8.14485
▁ЗША	-8.14583
▁Ла	-8.14613
s	-8.14682
▁супраць	-8.14744
▁імя	-8.14858
▁стала	-8.15054
▁э	-8.1535
▁Б	-8.15635
но	-8.1638
▁б	-8.16807
нь	-8.17159
▁беларускі	-8.19215
▁Віцебска	-8.1928
▁ка	-8.19377
зі	-8.19909
о	-8.20051
▁сваё	-8.20056
▁СССР	-8.20256
▁Рэспублікі	-8.20281
▁чал	-8.21033
▁Лі	-8.21168
скую	-8.21177
▁PGC	-8.21543
▁Не	-8.21757
▁C	-8.21795
▁Паводле	-8.21904
нне	-8.22319
▁Насельніцтва	-8.22394
▁некаторы	-8.22625
▁2008	-8.22879
▁IC	-8.234
▁Беларусь	-8.23513
жы	-8.23763
ро	-8.23957
▁ракі	-8.24036
▁выніку	-8.2422
▁Пра	-8.24387
ву	-8.24847
ду	-8.24908
▁возера	-8.25382
нае	-8.25436
▁Ра	-8.25609
ская	-8.25642
▁Вы	-8.25877
▁права	-8.262
▁30	-8.26466
▁S	-8.27252
▁каб	-8.2741
дэ	-8.27654
▁яна	-8.27812
го	-8.27986
▁частка	-8.28013
▁тры	-8.29008
▁першы	-8.29083
▁разам	-8.29327
▁тыпу	-8.29656
▁Расіі	-8.29858
▁Ва	-8.30334
▁II	-8.30677
▁яшчэ	-8.30903
▁індэкс	-8.30985
лю	-8.31885
▁вядомы	-8.31944
▁Га	-8.32096
▁той	-8.32154
▁аднак	-8.32306
С	-8.32329
▁размешчаны	-8.32623
▁мая	-8.32685
▁розны	-8.33068
▁маюць	-8.33124
▁Беларуска	-8.33156
▁якога	-8.3317
лу	-8.33725
гу	-8.33797
▁дэ	-8.34006
▁2009	-8.34068
▁можа	-8.34133
▁два	-8.34584
▁ліпеня	-8.34626
▁студзеня	-8.34636
▁Ён	-8.34772
фа	-8.34774
▁пералічаны	-8.35288
су	-8.35584
▁п	-8.36717
▁двух	-8.37333
▁Г	-8.3748
▁Плошча	-8.37723
▁ліку	-8.38098
▁Мінскай	-8.38317
цкага	-8.38373
▁25	-8.3861
▁Аднак	-8.39069
▁сям	-8.39119
▁Ар	-8.39236
ючы	-8.39333
ко	-8.39454
▁чэрвеня	-8.39983
▁мовы	-8.40079
▁тыс	-8.40235
▁вёскі	-8.4042
▁рэ	-8.40442
▁перыяд	-8.40484
▁падчас	-8.40621
сіх	-8.41197
▁краіны	-8.42364
коў	-8.42643
▁ма	-8.4283
▁адміністрацыйна	-8.42863
▁ектаў	-8.43408
▁снежня	-8.43479
▁кан	-8.43662
▁гісторыі	-8.44296
▁f	-8.44684
▁свету	-8.44714
▁18	-8.4475
▁шмат	-8.45012
▁чынам	-8.45342
▁кастрычніка	-8.45486
ст	-8.45754
▁Аб	-8.46119
▁Ф	-8.4613
▁ўсход	-8.46718
нік	-8.46801
y	-8.46814
ман	-8.46927
таў	-8.46971
мен	-8.472
▁працы	-8.47458
▁адным	-8.47558
▁рас	-8.48045
▁часу	-8.48254
▁якасці	-8.48538
▁сярод	-8.48768
▁агульнага	-8.49121
▁верасня	-8.49121
▁вельмі	-8.49324
▁сакавіка	-8.4934
▁2013	-8.49715
нка	-8.49732
▁якое	-8.50174
▁жніўня	-8.50352
ска	-8.50699
нскі	-8.50799
ё	-8.5085
▁кар	-8.51342
▁якім	-8.51466
А	-8.5176
нымі	-8.51792
фі	-8.5197
▁Рэ	-8.52428
по	-8.52646
▁Ш	-8.52725
▁ба	-8.52791
▁Польшчы	-8.53192
▁_	-8.53241
▁Ле	-8.5331
▁ўсё	-8.53691
▁Су	-8.53828
▁адна	-8.53858
▁паводле	-8.53874
G	-8.5444
пі	-8.54449
▁нар	-8.54908
▁Пад	-8.55417
▁працягу	-8.55635
▁Італіі	-8.55899
▁без	-8.56133
▁Калі	-8.5627
▁частцы	-8.56435
▁ра	-8.56517
▁трох	-8.56692
валі	-8.56902
▁ім	-8.56932
▁культуры	-8.56957
▁19	-8.57019
▁пазней	-8.57229
▁колькасць	-8.57329
скіх	-8.57342
▁канцы	-8.57529
000	-8.58058
ства	-8.58479
▁лістапада	-8.58534
сты	-8.58654
в	-8.58791
▁Новага	-8.5892
▁свайго	-8.59232
тры	-8.59432
▁Бу	-8.5969
▁БССР	-8.59746
▁быць	-8.59826
▁Ад	-8.59943
▁лічыцц	-8.60011
▁Але	-8.60052
▁чым	-8.6011
▁назва	-8.60217
▁мора	-8.60253
▁красавіка	-8.60295
каў	-8.6041
▁імперыі	-8.60594
цкі	-8.61077
▁яўляюцца	-8.61115
▁шэраг	-8.61128
▁таму	-8.61301
▁ды	-8.61808
▁22	-8.62054
ormula	-8.62086
▁Д	-8.62104
▁бо	-8.62152
▁т	-8.62863
▁Мі	-8.63034
▁шчыльнасць	-8.63283
вер	-8.63407
то	-8.63797
▁2010	-8.64004
камі	-8.64483
▁28	-8.64524
▁23	-8.64612
▁павета	-8.64618
n	-8.64873
▁Ме	-8.64877
▁21	-8.65247
сваю	-8.65818
▁горадзе	-8.65921
▁можна	-8.66152
▁вядома	-8.66394
▁смерці	-8.66412
▁24	-8.66824
▁працаваў	-8.66926
▁лютага	-8.66985
▁навук	-8.67191
ава	-8.67301
шча	-8.67513
тра	-8.6814
▁жыцця	-8.6819
▁О	-8.68323
5	-8.68574
▁B	-8.68701
▁Ха	-8.68912
▁звычайна	-8.69112
и	-8.69138
▁нацыянальна	-8.69276
▁менш	-8.69497
▁Даўжыня	-8.69617
▁га	-8.69675
▁Та	-8.69741
▁Ю	-8.70261
▁найбольш	-8.70343
▁д	-8.70455
▁2004	-8.70515
ар	-8.70727
зы	-8.70932
▁2014	-8.70981
▁яму	-8.71004
ваў	-8.71265
▁пачаў	-8.71301
▁сябе	-8.71413
e	-8.71618
▁Сі	-8.71994
▁ля	-8.71996
▁Ко	-8.72063
▁Х	-8.72075
▁см	-8.72414
▁сувязі	-8.72711
П	-8.72764
чэ	-8.72947
▁лініі	-8.72998
▁No	-8.73207
▁2011	-8.73402
▁Яго	-8.73907
▁су	-8.74135
▁дзяржаўны	-8.74138
▁асабліва	-8.74234
стаў	-8.74253
▁сталі	-8.7427
▁26	-8.74377
▁захад	-8.74585
нскай	-8.74743
▁вобласць	-8.75194
атым	-8.75232
вя	-8.75339
ых	-8.75682
▁напрыклад	-8.7598
▁Ку	-8.76194
▁E	-8.76246
ран	-8.76421
▁2012	-8.76477
Д	-8.76612
▁цяпер	-8.76759
▁27	-8.76879
▁значна	-8.7719
М	-8.77277
▁абазначэнні	-8.77297
▁к	-8.77378
▁Гродзенскай	-8.7738
▁адной	-8.77408
▁1999	-8.77409
▁то	-8.77559
▁дзяржавы	-8.77608
насць	-8.77608
▁–	-8.77781
▁P	-8.7784
▁жыхароў	-8.77879
▁ні	-8.78158
▁беларускай	-8.78181
▁часта	-8.78207
▁сусветнай	-8.78215
бы	-8.78261
▁е	-8.78405
▁часам	-8.78423
▁Спіс	-8.78425
▁Таксама	-8.78431
▁амаль	-8.78664
ая	-8.78844
Б	-8.78888
▁тысяч	-8.79367
▁ла	-8.79563
▁та	-8.79636
▁A	-8.79675
▁сваіх	-8.79877
▁Яна	-8.79886
▁збор	-8.80091
▁V	-8.80213
▁мастацтва	-8.80425
▁ўваходзіл	-8.80497
▁XIX	-8.80523
▁пераважна	-8.80538
▁Германіі	-8.80599
▁р	-8.80627
▁Ві	-8.80638
▁плошч	-8.81254
▁Ры	-8.81407
▁2006	-8.8151
кава	-8.81806
▁тут	-8.81855
тан	-8.81867
▁2007	-8.81901
2	-8.82038
▁Расійска	-8.82098
o	-8.82134
▁Ру	-8.82261
▁сабой	-8.82271
пра	-8.82477
▁часткі	-8.8249
ом	-8.82521
▁Дл	-8.82572
скія	-8.82587
ўшы	-8.83229
▁спіс	-8.83341
▁святы	-8.83462
кай	-8.8357
▁сама	-8.83679
▁сучасна	-8.83715
3	-8.8398
▁ста	-8.84186
сцю	-8.84657
нікі	-8.84739
▁M	-8.84773
▁клуб	-8.84805
▁100	-8.84824
▁самы	-8.8502
▁арміі	-8.85028
▁нават	-8.85344
авіч	-8.85396
пе	-8.85422
▁камуна	-8.8567
▁дзеяч	-8.86119
нні	-8.86317
▁канца	-8.86588
бра	-8.86619
ніка	-8.86627
▁перад	-8.86699
▁Ча	-8.86896
авых	-8.86925
▁код	-8.86934
▁°	-8.87052
▁1944	-8.8708
▁2016	-8.87257
▁сын	-8.87391
▁Ро	-8.87399
▁размяшчае	-8.87409
▁пункта	-8.87536
▁месцы	-8.87537
▁лі	-8.87552
▁рэгіёне	-8.87722
І	-8.87847
▁жанчын	-8.87871
▁мове	-8.88134
▁Т	-8.88333
чных	-8.8855
бе	-8.88744
до	-8.88871
чны	-8.8891
▁+	-8.89156
К	-8.89308
▁Кар	-8.89379
▁боку	-8.89775
цэ	-8.89795
дзя	-8.89807
▁размешчана	-8.90193
▁2005	-8.90222
▁50	-8.9033
Р	-8.90372
▁першым	-8.90542
▁Францыі	-8.90855
▁Гу	-8.91036
▁могу	-8.91146
0	-8.91387
бо	-8.91467
кам	-8.91498
▁Во	-8.91546
тар	-8.91576
▁паўночны	-8.91676
▁рака	-8.91699
▁буйны	-8.91799
▁Ша	-8.91856
▁Е	-8.91883
▁паўночна	-8.91985
▁поўначы	-8.92136
▁сваім	-8.92186
ян	-8.92251
▁партыі	-8.92295
▁ша	-8.923
▁відаў	-8.92482
▁2015	-8.92487
▁Мінска	-8.92515
ге	-8.92572
▁мужчын	-8.92634
▁групы	-8.92833
▁Р	-8.929
▁Дэ	-8.9298
ск	-8.93025
▁Падчас	-8.93081
шэ	-8.93167
▁паўднёвы	-8.9336
▁аднаго	-8.93431
дар	-8.93451
▁сельска	-8.935
лен	-8.93507
ця	-8.93674
нда	-8.93758
▁Ве	-8.9386
▁тое	-8.93896
▁стагоддзі	-8.9402
4	-8.94375
▁дадзеных	-8.949
▁1941	-8.95002
▁чалавека	-8.9507
▁дзень	-8.95185
▁ўсе	-8.95315
▁29	-8.95452
er	-8.95491
▁III	-8.95497
▁Тэ	-8.95519
▁ёй	-8.95551
▁млн	-8.95614
чу	-8.95617
▁меў	-8.95796
▁караля	-8.95843
▁MCG	-8.9586
▁40	-8.95877
▁Мар	-8.96003
нскім	-8.96018
▁паўднёва	-8.96129
▁сямейства	-8.96595
▁ер	-8.96707
▁H	-8.96786
бу	-8.96819
▁пражывал	-8.96854
скае	-8.96952
даў	-8.9705
▁ўдзел	-8.97103
▁складала	-8.97295
чка	-8.97354
▁Займае	-8.97368
▁гонар	-8.97525
a	-8.97569
▁свой	-8.9776
▁Еўропы	-8.97946
▁акругі	-8.98051
▁мова	-8.98146
▁Брэсцка	-8.9816
▁Се	-8.98204
▁&#93;	-8.98295
▁F	-8.98399
со	-8.9853
Г	-8.98883
▁наступны	-8.98931
▁Украіны	-8.99134
▁Акрам	-8.99158
▁ёсць	-8.99226
▁ш	-8.99299
▁захадзе	-8.99326
цкай	-8.99412
▁1-	-8.99428
A	-8.99453
джа	-8.99585
▁Заходня	-8.99622
зна	-8.99625
r	-8.99653
▁&#9	-8.9973
ін	-8.99808
▁Н	-8.99833
▁асноўным	-8.99877
▁ха	-9.00133
лін	-9.00148
сан	-9.00545
гра	-9.00692
▁свае	-9.00837
▁сістэмы	-9.00852
▁Бе	-9.00961
▁Магілёўскай	-9.01251
▁Аляксандр	-9.0141
нг	-9.01445
▁0	-9.01659
мо	-9.01821
▁скончыў	-9.01942
▁Як	-9.02134
▁Паўднёва	-9.02136
вой	-9.0214
▁створаны	-9.02174
▁Ге	-9.02316
us	-9.02331
ова	-9.02401
ан	-9.02453
c	-9.02481
авыя	-9.02674
▁ру	-9.02714
▁гэтых	-9.02766
▁Бар	-9.02893
▁населена	-9.02894
▁апошні	-9.02924
▁цела	-9.03051
▁паверхні	-9.03193
насці	-9.03221
▁2-	-9.0352
цаў	-9.03555
шкі	-9.0358
нкі	-9.03726
▁раслін	-9.03736
▁ваяводства	-9.03933
▁беларуска	-9.03946
▁Мінск	-9.0405
▁перша	-9.04079
▁роду	-9.04206
u	-9.04394
▁савецкі	-9.04449
ер	-9.04748
▁Л	-9.04753
сы	-9.04827
▁2000	-9.04966
▁першай	-9.04983
алі	-9.05038
▁ня	-9.05186
▁царква	-9.0521
▁по	-9.05211
▁зноў	-9.0523
en	-9.05402
гор	-9.05444
сто	-9.05481
▁Кан	-9.05589
l	-9.05624
▁Ні	-9.05788
▁2017	-9.0606
▁група	-9.06068
▁чаго	-9.0608
▁По	-9.06114
▁1918	-9.06326
кан	-9.06415
▁руху	-9.066
▁Вялікай	-9.06811
▁Кара	-9.06988
ен	-9.07206
ніца	-9.0748
▁асобны	-9.07488
▁Пі	-9.07514
▁Савета	-9.0756
стра	-9.0756
▁атрымала	-9.07571
▁працэс	-9.07933
род	-9.07969
▁1939	-9.08002
▁вяліка	-9.08007
▁назву	-9.08187
▁галоўным	-9.08295
▁Мінску	-9.08677
▁Лу	-9.08901
▁Мо	-9.09206
ген	-9.09419
В	-9.09697
▁палов	-9.1041
▁XX	-9.10445
▁сам	-9.10742
пы	-9.10747
▁Пе	-9.11072
▁Гі	-9.11166
▁дзве	-9.11218
▁мела	-9.1127
▁1945	-9.11353
▁цэнтру	-9.11367
▁Паштовы	-9.11384
він	-9.11399
▁мала	-9.11409
▁вады	-9.11441
нія	-9.11484
▁прыток	-9.11493
авай	-9.11656
Т	-9.11848
▁цэнтры	-9.11981
▁літаратуры	-9.12015
▁прызначаны	-9.12017
▁D	-9.12126
▁тэрмін	-9.12126
▁Пера	-9.12205
ўскага	-9.12296
нта	-9.12305
▁Заступнікам	-9.1234
ён	-9.12382
▁Тэлефонны	-9.12385
ходзіць	-9.12411
▁агульна	-9.12531
▁вярну	-9.12533
▁краін	-9.12567
вання	-9.12603
▁G	-9.1261
▁пара	-9.12654
ar	-9.12783
▁пабудаваны	-9.12798
▁Ц	-9.1282
▁там	-9.12823
тон	-9.12873
вае	-9.1289
▁свеце	-9.13026
нт	-9.13123
▁слова	-9.13569
▁ваенны	-9.13628
▁Кі	-9.13715
пу	-9.13871
ванне	-9.13873
6	-9.13954
▁сістэма	-9.13963
▁царквы	-9.14189
фе	-9.14195
он	-9.14207
▁31	-9.14237
▁Сан	-9.1427
▁цалкам	-9.14325
▁гміна	-9.14502
▁людзей	-9.14508
▁Пу	-9.1455
▁будаўніцтва	-9.14759
▁аснове	-9.14805
▁Ло	-9.15154
нэ	-9.15174
▁1940	-9.15264
пры	-9.154
▁Бо	-9.15506
▁выглядзе	-9.1569
▁колькасці	-9.15905
▁падпарадкоўвае	-9.15951
▁мелі	-9.15966
▁Адміністрацыйны	-9.1605
▁губерні	-9.16081
▁палітычны	-9.16186
▁Кры	-9.16288
▁сіл	-9.16414
▁Гомельскай	-9.16474
▁такі	-9.16507
вых	-9.16669
▁XVIII	-9.16735
8	-9.1688
▁галін	-9.16969
▁N	-9.17021
t	-9.17036
▁Ту	-9.17066
▁хутка	-9.17091
ец	-9.17118
▁школы	-9.17119
кс	-9.17197
▁генерал	-9.17214
раў	-9.17242
▁прыкладна	-9.17291
▁ўніверсітэта	-9.173
▁во	-9.17467
▁Бра	-9.17506
▁Ан	-9.17613
al	-9.17622
▁вялікі	-9.17667
▁афіцыйна	-9.17742
▁сяло	-9.18028
рыя	-9.18104
лё	-9.18133
ўка	-9.18146
ўна	-9.18197
▁якую	-9.18208
▁пачалі	-9.1824
▁арганізацыі	-9.18348
зу	-9.1836
ваць	-9.18441
вай	-9.1855
рэн	-9.18551
▁раней	-9.18648
чныя	-9.18678
бор	-9.18972
▁род	-9.19023
▁T	-9.1904
k	-9.19262
▁Нацыянальна	-9.19301
50	-9.19317
ой	-9.19341
шка	-9.19395
▁нямецкі	-9.19453
▁Скончыў	-9.19492
▁поўдні	-9.1954
чнай	-9.19673
▁дзяржаўна	-9.19734
▁выкарыстоўвае	-9.19757
▁вуліцы	-9.19793
▁шырока	-9.19994
віцкага	-9.19995
▁перапісу	-9.20006
▁ку	-9.20011
▁частк	-9.20027
z	-9.20082
▁клуба	-9.20086
▁склада	-9.20095
выя	-9.20168
▁ZW	-9.2024
▁станцыя	-9.20357
▁войскі	-9.20408
ус	-9.20415
віч	-9.20509
льны	-9.20622
▁спіральна	-9.20642
▁Ян	-9.20753
вод	-9.2079
авы	-9.20812
▁Аўтар	-9.20911
▁цэнтрам	-9.20975
▁1943	-9.21248
▁пункт	-9.21536
сла	-9.2161
▁заста	-9.21623
▁ролю	-9.21659
▁зямлі	-9.21729
▁другой	-9.21751
▁Саюза	-9.21816
так	-9.21908
рон	-9.22068
▁створана	-9.22118
▁жыццё	-9.22148
▁ар	-9.22182
▁Раз	-9.22251
▁будзе	-9.2232
▁тытул	-9.22624
▁населены	-9.22765
▁станцыі	-9.22936
▁від	-9.22984
кра	-9.23115
▁храм	-9.23235
▁Сярод	-9.2326
раз	-9.23303
чнага	-9.23341
▁галоўны	-9.23443
▁новы	-9.23459
▁i	-9.2347
нікаў	-9.23528
▁потым	-9.23541
лаў	-9.23719
чная	-9.24124
19	-9.24252
▁навуковы	-9.24345
▁дзяцей	-9.24461
▁Быў	-9.24468
▁Друго	-9.24471
нава	-9.24509
▁кіравання	-9.2456
▁ступені	-9.24562
▁2001	-9.2461
шчы	-9.24672
клад	-9.24866
▁1919	-9.25061
▁2002	-9.25092
ым	-9.25098
▁Ман	-9.25207
вала	-9.2521
ор	-9.25226
▁поўдзень	-9.25271
дэн	-9.25368
▁член	-9.25393
▁Ду	-9.256
▁Вер	-9.25613
▁удзел	-9.25779
чную	-9.258
▁Вялікага	-9.25812
▁плошчы	-9.25969
▁Так	-9.26028
▁ём	-9.26055
▁K	-9.26065
нская	-9.26148
▁войска	-9.26214
▁Айчынна	-9.26235
▁будынак	-9.26267
слаў	-9.26363
Л	-9.26382
сь	-9.26444
le	-9.26513
▁заснаваны	-9.26892
▁Яны	-9.26962
▁1991	-9.26971
пер	-9.27118
▁Го	-9.27184
▁1920	-9.27201
▁цэнтра	-9.27235
лена	-9.27297
▁мм	-9.27308
▁сельсавет	-9.27557
▁...	-9.27578
▁войскаў	-9.27596
нс	-9.27608
▁ас	-9.27659
▁чатырох	-9.27742
▁пасаду	-9.27781
нер	-9.27875
▁метраў	-9.27929
▁Рас	-9.27994
▁добра	-9.28052
▁Кра	-9.2809
7	-9.28165
▁000	-9.28226
ад	-9.28251
наў	-9.28395
тка	-9.28418
▁цэнтральна	-9.28605
▁Ля	-9.2871
▁R	-9.28757
▁жывёл	-9.28771
ra	-9.28918
льныя	-9.28943
▁2003	-9.29001
там	-9.29117
▁хоць	-9.29137
▁IV	-9.29229
тэн	-9.29379
▁другі	-9.29524
ступ	-9.29562
ланд	-9.29596
рад	-9.29598
b	-9.29797
30	-9.29831
▁усе	-9.29865
▁XVI	-9.29869
10	-9.29948
re	-9.29971
вен	-9.29995
рын	-9.30001
▁Ды	-9.30149
▁Еўропе	-9.30168
9	-9.30244
вар	-9.30336
мер	-9.30415
▁развіцця	-9.30464
Н	-9.30475
лены	-9.30493
ніцы	-9.30528
▁рэк	-9.30534
▁руска	-9.30686
▁ўніверсітэт	-9.30823
ары	-9.30917
▁Бі	-9.30951
кар	-9.31006
льных	-9.31053
40	-9.31112
дзь	-9.31167
▁1990	-9.31349
▁Праз	-9.31488
▁моцна	-9.31528
▁ўрад	-9.31559
▁знаходзяцца	-9.318
ана	-9.31929
▁?	-9.31946
кова	-9.31975
▁дзён	-9.32034
or	-9.32274
▁таварыства	-9.32282
▁мясцовы	-9.32323
ке	-9.32327
▁Ста	-9.32337
ван	-9.32534
▁адміністрацыйны	-9.32546
▁дапамогай	-9.32722
▁пе	-9.32743
▁ко	-9.32751
▁былы	-9.3292
ноў	-9.33002
льную	-9.33115
▁1992	-9.33243
d	-9.33257
сам	-9.33331
▁Назв	-9.33352
льнай	-9.33369
▁вёсц	-9.33646
вед	-9.33672
▁кожна	-9.33744
▁ле	-9.33861
▁магчыма	-9.33922
▁Знаходзі	-9.33978
овую	-9.33985
▁Іван	-9.34048
D	-9.34074
▁дзейнасці	-9.34117
▁характар	-9.34172
▁моў	-9.34299
цу	-9.34428
▁пасёлак	-9.34506
▁адкрыты	-9.34521
▁спа	-9.34569
▁ве	-9.34635
кры	-9.34692
▁новага	-9.34753
пера	-9.34754
▁XVII	-9.34953
▁значны	-9.35021
▁кароль	-9.35033
on	-9.35089
▁Адзін	-9.3517
▁нарадзіў	-9.35287
▁расійскі	-9.35347
▁гміны	-9.35359
▁такіх	-9.35369
▁праца	-9.35376
▁Рэчы	-9.35446
▁памёр	-9.35462
▁амерыканскі	-9.3547
▁Першы	-9.35614
▁саюз	-9.35626
▁Аляксандра	-9.35739
▁вострава	-9.35841
▁Найбольш	-9.36025
▁розныя	-9.36039
▁мясцова	-9.36042
▁ю	-9.36095
▁касцёл	-9.36096
▁музей	-9.36193
▁часткай	-9.3624
▁беразе	-9.36335
эр	-9.364
▁Пазней	-9.36506
S	-9.36802
ацыі	-9.36915
80	-9.36963
▁звязаны	-9.36996
▁востраў	-9.3715
▁Нарадзіў	-9.37164
▁нацыянальны	-9.37202
▁служб	-9.37296
▁плошча	-9.37444
▁момант	-9.37489
▁1917	-9.37664
▁Фі	-9.37665
▁дзейнасць	-9.37698
ева	-9.37936
▁вайну	-9.37942
▁школа	-9.38018
▁архітэктуры	-9.38112
▁Казахстана	-9.38306
▁паў	-9.38334
ткі	-9.3834
▁князя	-9.38459
▁закон	-9.38484
▁эпох	-9.38489
▁статус	-9.38576
ску	-9.38588
▁маці	-9.38712
ной	-9.38831
▁займае	-9.38893
чкі	-9.38902
▁перш	-9.38965
▁анты	-9.38971
60	-9.39003
▁камп	-9.39074
ваецца	-9.39088
ком	-9.3916
лан	-9.39332
Ф	-9.39404
жэ	-9.39624
▁інстытут	-9.3965
▁адзінка	-9.39715
▁народ	-9.3976
тара	-9.39775
чын	-9.39838
▁35	-9.39922
▁ўваходзі	-9.39923
m	-9.39934
▁ўз	-9.40023
▁Перша	-9.40141
ліва	-9.40159
кон	-9.40296
бар	-9.40308
сен	-9.40397
▁ц	-9.40436
тыка	-9.40523
бры	-9.40635
▁гар	-9.4067
▁значэнне	-9.40749
▁абароны	-9.40751
▁старажытны	-9.40866
вяз	-9.40869
▁пу	-9.40945
тэр	-9.41065
ок	-9.41101
сна	-9.41126
▁уз	-9.41131
▁формы	-9.41141
▁гульні	-9.41248
▁Горад	-9.41278
E	-9.41378
I	-9.41385
▁Аль	-9.41416
роў	-9.4142
▁самым	-9.41528
нцы	-9.41537
▁комплекс	-9.41868
▁матчы	-9.41892
▁французска	-9.41955
цкая	-9.41991
нос	-9.42009
▁ап	-9.42011
▁замежны	-9.42038
▁Першай	-9.42052
▁60	-9.42106
▁Паспалітай	-9.42132
▁чэмпіянату	-9.42153
▁выпадку	-9.42156
▁1921	-9.42315
▁прыватнасц	-9.42411
▁такім	-9.42495
▁1994	-9.42525
▁Уладзімір	-9.42579
▁працу	-9.42614
▁раман	-9.42656
▁альбо	-9.42746
▁мяжы	-9.42852
▁кампаніі	-9.42877
▁праект	-9.42919
▁між	-9.42937
▁дзяржаў	-9.42988
мар	-9.43057
▁правінцыі	-9.43072
овы	-9.43097
▁творы	-9.43103
вяр	-9.43127
▁Ты	-9.43297
▁народна	-9.43315
is	-9.4335
тары	-9.43392
▁200	-9.4342
ленне	-9.43463
▁сяла	-9.43559
▁шматлікі	-9.43678
ёр	-9.43717
▁першага	-9.43756
цыю	-9.43785
in	-9.43796
▁Ня	-9.43861
лоў	-9.43936
йскі	-9.4401
аюць	-9.44027
▁Фа	-9.44187
▁пі	-9.44305
▁кі	-9.44344
валася	-9.44496
▁футбаліст	-9.44559
▁асноўны	-9.44598
пад	-9.44615
куль	-9.44654
▁гарадскі	-9.44715
▁поўнач	-9.44823
▁s	-9.44841
стан	-9.44864
an	-9.44871
▁Паўночнай	-9.4501
▁стылі	-9.45126
▁кнігі	-9.45172
▁іншымі	-9.45178
▁шырыня	-9.45271
▁назвай	-9.45283
▁1998	-9.45345
▁напрамк	-9.4539
▁L	-9.45396
▁1997	-9.45438
хан	-9.45534
▁Код	-9.45613
дра	-9.45761
▁курс	-9.45774
▁тэрыторыя	-9.45828
▁1996	-9.45844
▁UGC	-9.45862
▁=	-9.45956
ri	-9.46016
лава	-9.4609
сяго	-9.46123
▁ВКЛ	-9.46206
гна	-9.46388
ол	-9.46435
▁1995	-9.46533
▁Вялікабрытаніі	-9.46627
▁Хо	-9.46645
▁дзякуючы	-9.4674
▁дом	-9.46759
20	-9.46765
▁Святога	-9.46766
▁правы	-9.46868
▁доўгі	-9.46885
▁вуліца	-9.47027
ско	-9.47031
оўскі	-9.47193
▁ча	-9.4722
35	-9.47501
▁Ці	-9.47524
▁Карл	-9.47628
70	-9.47661
▁абраны	-9.47754
▁прафесар	-9.47782
▁тра	-9.4785
f	-9.47897
▁Усе	-9.47981
▁турнір	-9.47987
▁бок	-9.48016
сп	-9.48038
▁вытворчасці	-9.48204
цін	-9.48227
тава	-9.48273
стры	-9.48287
стэр	-9.48292
▁мову	-9.48314
▁акадэміі	-9.48326
▁княства	-9.48431
▁гарадскога	-9.48515
ваюць	-9.48638
▁и	-9.48697
▁рашэнне	-9.4872
▁Усходня	-9.48869
▁Фе	-9.48897
▁70	-9.4892
▁шы	-9.48934
es	-9.4895
▁бы	-9.48983
йскага	-9.49011
дава	-9.49046
▁Чырвона	-9.49081
▁польскі	-9.49086
дры	-9.49208
▁Савецка	-9.49209
▁межах	-9.49217
▁развіццё	-9.49392
▁чале	-9.49447
45	-9.4945
▁32	-9.49598
▁Каля	-9.49656
▁мноства	-9.49674
▁сілы	-9.49699
▁пла	-9.49765
ход	-9.49785
▁Му	-9.49789
▁1993	-9.49824
▁стане	-9.4989
▁адкрыта	-9.50005
C	-9.50007
сцей	-9.50036
▁астравоў	-9.50138
▁імператара	-9.50149
сця	-9.50206
▁праводзі	-9.50207
каз	-9.50321
рас	-9.50397
▁Бела	-9.50403
▁асоб	-9.50459
▁до	-9.50486
▁кра	-9.50503
▁!	-9.5053
▁Нью	-9.50557
▁ліпені	-9.50661
У	-9.50738
вага	-9.50743
el	-9.50778
▁вышынё	-9.50792
44	-9.50809
▁перайшоў	-9.50891
▁Ву	-9.50897
▁Тры	-9.50904
▁выступаў	-9.50922
▁пераклад	-9.50954
▁прац	-9.50961
▁заснавана	-9.51075
льная	-9.51106
▁будынка	-9.51115
тым	-9.5116
▁прыняў	-9.51338
▁грамадска	-9.51362
▁дрэва	-9.51385
34	-9.51436
лер	-9.51466
▁3-	-9.51592
нак	-9.5168
▁займа	-9.5172
раб	-9.51804
▁высока	-9.51891
▁фа	-9.51957
авым	-9.52092
▁Азіі	-9.52136
овіч	-9.52139
▁Ке	-9.52155
▁спраў	-9.52159
▁Некаторы	-9.52247
▁стварэння	-9.52345
▁музея	-9.52513
▁многіх	-9.52513
▁сем	-9.52639
▁план	-9.52685
▁паўночным	-9.52725
▁рацэ	-9.52816
▁Такім	-9.52829
эн	-9.52865
▁думк	-9.52889
▁белы	-9.52891
джы	-9.5302
▁актыўна	-9.53084
▁кіраўнік	-9.53191
▁тэорыі	-9.53246
▁вакол	-9.53251
▁большасць	-9.53266
▁кры	-9.53306
▁жніўні	-9.53307
▁ўлады	-9.53313
12	-9.53329
▁Нова	-9.5333
▁атрымалі	-9.5379
24	-9.53793
валіся	-9.53798
▁членам	-9.53848
▁1989	-9.54039
▁назвы	-9.54065
▁O	-9.54068
▁войскамі	-9.54105
▁студзені	-9.54196
▁Ал	-9.54242
ic	-9.54261
▁чатыры	-9.54264
▁кантракт	-9.54269
▁прэм	-9.54279
чным	-9.54491
▁Станам	-9.54662
▁Кам	-9.54764
▁завод	-9.54803
ючыся	-9.54816
▁ф	-9.54928
▁тэатра	-9.54982
▁правіла	-9.55063
▁Хі	-9.55092
18	-9.55099
-19	-9.55112
33	-9.55148
T	-9.55152
▁выйшл	-9.55226
▁жанчыны	-9.55238
▁бу	-9.55279
▁помнік	-9.5531
▁80	-9.55416
цкім	-9.55539
ае	-9.55663
▁мэтай	-9.55666
▁карыста	-9.55684
гон	-9.55868
▁1924	-9.55893
▁То	-9.55931
▁гарадоў	-9.55947
льным	-9.55954
32	-9.55959
сце	-9.56034
▁улады	-9.56039
▁Жы	-9.56062
▁паэт	-9.56149
P	-9.56151
▁сяле	-9.5622
▁інстытута	-9.5626
тоў	-9.56306
▁акрамя	-9.56393
▁Хар	-9.5642
ас	-9.5645
▁шлюб	-9.56502
рава	-9.56524
▁сына	-9.56638
▁пяці	-9.56675
h	-9.56841
▁адносна	-9.56869
▁віды	-9.56929
няў	-9.56947
▁цяперашні	-9.5695
▁храма	-9.57002
▁трыма	-9.57065
авая	-9.57254
▁суд	-9.57381
бер	-9.5739
▁тых	-9.57395
▁1942	-9.57422
▁паход	-9.57543
▁палац	-9.57561
▁значыць	-9.57611
▁1938	-9.57632
▁Св	-9.57638
▁знаходзілас	-9.57647
▁партыя	-9.57717
▁бацькі	-9.57757
▁рух	-9.57775
віцкі	-9.57784
▁кіраўніцтвам	-9.57848
йскай	-9.57979
M	-9.58005
▁сцяг	-9.5802
▁грамадскі	-9.58052
▁ска	-9.58127
аваў	-9.58151
▁заходня	-9.58154
▁ўсходзе	-9.58181
▁выкарыстоўва	-9.58238
▁падзелена	-9.58291
▁твораў	-9.58293
▁французскі	-9.58303
-1	-9.58457
вым	-9.58614
▁Карла	-9.5863
▁ваенна	-9.58653
аб	-9.58697
▁часоў	-9.58843
▁Шы	-9.58892
▁Ак	-9.58909
14	-9.58919
▁гмін	-9.58946
25	-9.59013
90	-9.59054
▁фон	-9.5914
▁міжнародны	-9.59186
36	-9.59226
▁займаў	-9.59234
65	-9.59261
▁прозвішча	-9.59307
▁До	-9.59309
29	-9.59461
лад	-9.59462
▁ідэ	-9.59492
▁адукацыі	-9.59494
37	-9.59591
▁Паўночна	-9.59639
-2	-9.59727
нін	-9.59767
чына	-9.59834
▁Новы	-9.59871
ўскі	-9.59884
▁адпаведна	-9.59906
23	-9.59916
ліч	-9.59957
▁Зямлі	-9.59958
▁нямецка	-9.60003
43	-9.60086
▁ордэна	-9.6018
вую	-9.6026
▁адносі	-9.6034
▁ту	-9.60393
▁адбыўся	-9.60394
кара	-9.60399
▁замак	-9.60424
▁Тур	-9.60625
нд	-9.60678
02	-9.60696
▁пачатак	-9.60869
▁гор	-9.60881
B	-9.60915
▁ЦК	-9.60922
нам	-9.61215
▁народны	-9.61218
▁кара	-9.6127
▁КАТА	-9.61301
рыс	-9.61395
▁Дзе	-9.61397
▁замка	-9.61573
▁народа	-9.61597
▁л	-9.61601
▁Размешчаны	-9.61739
▁прадстаўнікоў	-9.61762
авана	-9.61788
15	-9.61854
пар	-9.61878
▁зборн	-9.61912
▁назіра	-9.61917
▁драўляны	-9.61941
▁каманды	-9.61955
▁стст	-9.61968
▁разгляда	-9.61993
льнік	-9.62024
▁адбылося	-9.62216
▁фі	-9.62273
▁пакінуў	-9.62283
▁Вярхоўнага	-9.62299
▁стан	-9.62304
▁тэ	-9.62361
39	-9.6239
нец	-9.62395
▁паўднёвым	-9.62476
42	-9.62496
фор	-9.62537
06	-9.62559
▁Беларускі	-9.62567
вая	-9.62591
чай	-9.62608
▁мо	-9.62735
▁тады	-9.62816
ках	-9.62854
▁Ін	-9.62859
▁хто	-9.62862
22	-9.62922
ch	-9.62999
твор	-9.63024
евіч	-9.63113
▁Бел	-9.63117
56	-9.63125
лом	-9.63286
бін	-9.63349
▁мас	-9.63359
O	-9.63365
▁палі	-9.63371
трымліва	-9.6339
▁арганізацыя	-9.634
64	-9.63538
▁выніка	-9.63591
▁Свята	-9.6361
оўскага	-9.63611
лам	-9.63626
сія	-9.63661
▁загад	-9.63869
▁гра	-9.63888
09	-9.63897
▁сіла	-9.6399
▁барацьб	-9.64008
▁краінах	-9.64025
міна	-9.64041
41	-9.64043
▁адбылася	-9.64073
▁2018	-9.64109
цыйны	-9.6411
кер	-9.64197
▁1930	-9.64306
▁імператар	-9.64322
льскага	-9.64417
▁мар	-9.64439
▁правёў	-9.64452
v	-9.64524
▁адказ	-9.64526
▁ССР	-9.64592
▁сярэдзіне	-9.64602
эль	-9.64685
шу	-9.64711
▁няма	-9.64743
11	-9.64754
чна	-9.64771
▁краіне	-9.6495
▁сабе	-9.65045
тур	-9.65292
▁прэміі	-9.65319
ваўся	-9.65359
мана	-9.65409
▁аўтар	-9.65434
▁многія	-9.65469
▁яў	-9.65475
▁шлях	-9.65497
00	-9.65503
▁Но	-9.65536
▁лютым	-9.65563
ера	-9.65601
лас	-9.65612
▁Тым	-9.65722
▁плане	-9.65752
▁паселішча	-9.65883
ган	-9.66
▁жыў	-9.66035
▁Англіі	-9.66039
▁Член	-9.66165
▁Вялікі	-9.6617
la	-9.66212
зія	-9.66231
▁становішча	-9.66461
13	-9.6648
▁Чар	-9.66488
▁паходжання	-9.6649
яр	-9.6651
▁пабудавана	-9.66512
te	-9.66518
▁мы	-9.6661
▁кошт	-9.66787
▁яўляў	-9.66798
▁бітв	-9.66861
27	-9.66871
▁форма	-9.6692
▁Кур	-9.66968
▁свет	-9.67041
ta	-9.67085
▁этап	-9.67098
46	-9.67131
▁1946	-9.67135
▁другім	-9.67143
ём	-9.67183
▁практычна	-9.67194
▁конкурс	-9.67272
▁Мікалай	-9.6732
ўшыся	-9.67329
▁старажытна	-9.67359
▁прынята	-9.67365
▁чаргу	-9.67411
at	-9.67524
▁штат	-9.67525
▁мастак	-9.67551
38	-9.67572
▁чар	-9.67583
▁тур	-9.67669
▁армія	-9.67697
▁адначасова	-9.67738
26	-9.67747
▁ліча	-9.67759
17	-9.67799
▁сельскагаспадар	-9.67933
▁усё	-9.67964
рус	-9.67998
льнага	-9.68026
▁знаходзіў	-9.68067
▁Стра	-9.681
▁Швецыі	-9.68126
▁ві	-9.68163
▁найбуйнейшы	-9.68204
▁1959	-9.68223
рам	-9.68262
▁сталіца	-9.68298
um	-9.68315
аль	-9.68384
▁со	-9.68471
льскі	-9.68506
▁чалавекі	-9.68691
паў	-9.68764
аба	-9.68765
▁прызна	-9.68791
▁сацыяльна	-9.68859
пла	-9.68926
▁ўрада	-9.68934
▁Гер	-9.69014
▁сезоне	-9.69158
▁Тра	-9.69181
піс	-9.69199
▁парк	-9.69205
ннем	-9.69302
▁снежні	-9.69304
47	-9.69308
▁вер	-9.69326
▁цяжка	-9.69363
▁песні	-9.69422
▁стары	-9.69423
ol	-9.69439
▁бая	-9.69466
жаны	-9.69467
пан	-9.69493
▁1960	-9.69499
эй	-9.6953
▁проста	-9.69537
59	-9.69632
▁навукова	-9.69646
▁Ч	-9.69658
ляў	-9.69664
ia	-9.69686
тэры	-9.69706
чаны	-9.69712
na	-9.69716
▁спачатку	-9.69751
▁існуе	-9.69818
▁звязана	-9.69881
▁Марк	-9.69898
▁кніг	-9.69906
58	-9.69918
05	-9.6995
▁прэзідэнт	-9.69972
▁падобны	-9.69978
она	-9.7006
рскі	-9.70106
▁вяскова	-9.70176
▁польска	-9.70253
R	-9.70265
нню	-9.70286
▁45	-9.70287
▁прэзідэнта	-9.70309
▁першыя	-9.70343
▁Бер	-9.70431
▁пачынае	-9.70466
▁само	-9.7047
▁зрабіў	-9.70501
g	-9.70547
льна	-9.70589
▁востраве	-9.70671
▁Працава	-9.70684
▁колеру	-9.70738
▁чыгуначн	-9.70794
шта	-9.70819
▁Іспаніі	-9.70827
сходзе	-9.70875
Э	-9.70906
et	-9.70972
▁міжнародна	-9.70976
▁салдат	-9.70976
▁паўстання	-9.70983
дэр	-9.70987
ксі	-9.71018
▁“	-9.71177
▁вучылішча	-9.71259
▁Дзяржаўна	-9.71268
▁часткова	-9.71278
52	-9.71303
▁Шэ	-9.71375
▁павінна	-9.71395
▁Літвы	-9.71469
чана	-9.71478
▁гаспадаркі	-9.7153
▁пісьменнік	-9.71566
86	-9.71584
▁еўрапейскі	-9.71622
весь	-9.71667
▁1954	-9.71678
▁папярэдні	-9.71744
▁другога	-9.71864
x	-9.71875
▁прамысловасці	-9.71886
▁гістарычна	-9.7194
▁ры	-9.71996
▁радыё	-9.71997
▁500	-9.72007
▁камітэта	-9.72055
дж	-9.72206
▁Чэ	-9.72212
▁каза	-9.72237
▁ўсім	-9.72253
63	-9.7226
▁дынастыі	-9.72334
эл	-9.72344
▁перыяду	-9.72364
▁перадач	-9.72371
▁сакавіку	-9.72374
лей	-9.72379
03	-9.72393
▁разоў	-9.72442
▁Маскве	-9.72636
68	-9.72637
гар	-9.72657
▁неўзабав	-9.72676
▁галоўна	-9.72802
▁Мала	-9.72829
▁Дзя	-9.72869
▁куп	-9.72892
▁універсітэце	-9.72949
▁наш	-9.73037
альны	-9.73044
▁1970	-9.73059
85	-9.73089
▁менавіта	-9.73093
цкіх	-9.73096
▁вайне	-9.73096
▁W	-9.73112
▁стра	-9.73198
▁воласці	-9.73209
▁змен	-9.73225
▁Гар	-9.73232
L	-9.73294
04	-9.73323
▁названы	-9.73433
▁Згодна	-9.73456
▁1937	-9.73477
▁мастацка	-9.73485
▁князь	-9.73497
48	-9.73522
▁Японіі	-9.73538
цамі	-9.73568
16	-9.73577
▁школу	-9.73584
▁герб	-9.73655
▁Кор	-9.73671
нняў	-9.73775
нцаў	-9.73841
жу	-9.73944
▁большасц	-9.7397
▁Маці	-9.7404
▁фонд	-9.74055
▁бацька	-9.74072
цыйна	-9.7409
▁Сядзіба	-9.74241
53	-9.74321
▁дзя	-9.74407
▁1988	-9.74424
▁сп	-9.7445
зер	-9.74452
▁значэння	-9.74491
оры	-9.74739
▁рэвалюцыі	-9.74928
ur	-9.7501
▁прынцып	-9.75018
▁распаўсюджаны	-9.75033
дзін	-9.75038
▁магчымасць	-9.75087
▁фільм	-9.75095
▁Марыя	-9.75176
год	-9.75261
▁кніга	-9.75309
▁Со	-9.75324
лак	-9.75351
55	-9.75356
▁дні	-9.75393
▁цы	-9.754
▁Тут	-9.75401
лем	-9.75492
▁Шу	-9.75497
▁вышыні	-9.75536
▁c	-9.7554
палі	-9.75558
кла	-9.756
▁чэрвені	-9.75661
▁землі	-9.75686
▁Віленска	-9.75714
▁астатні	-9.75746
▁бі	-9.75829
▁1956	-9.75851
▁ты	-9.76073
ані	-9.76102
▁IRAS	-9.76125
▁марскі	-9.76161
праў	-9.76247
▁1980	-9.76314
▁ўсяго	-9.76321
▁1926	-9.76442
▁адмові	-9.7645
трыма	-9.76454
▁Цэнтр	-9.76474
вічы	-9.76476
▁Мак	-9.76496
▁штата	-9.76532
ходзяць	-9.76543
▁верасні	-9.76549
▁1975	-9.76567
▁1962	-9.7661
▁расійска	-9.76676
▁сродка	-9.767
▁даволі	-9.76792
87	-9.76873
▁эканамічна	-9.76925
▁езд	-9.76941
▁прычыны	-9.77
▁бал	-9.77015
▁Джа	-9.77024
▁Ас	-9.77084
▁шматлікія	-9.77134
▁вялікага	-9.77186
▁форму	-9.7723
62	-9.77256
▁апошня	-9.77423
p	-9.77437
▁новых	-9.77463
чэнне	-9.77588
▁школе	-9.77738
▁1922	-9.77767
▁каманда	-9.77805
▁Чы	-9.77837
▁Нягледзя	-9.77872
▁выгляд	-9.77897
▁адбываецца	-9.77898
▁поспех	-9.77925
▁жыхары	-9.7793
08	-9.78009
▁факультэт	-9.78024
07	-9.78109
▁пэўны	-9.78136
істы	-9.7814
▁Дзі	-9.78166
▁АН	-9.78182
▁клас	-9.78202
▁намеснік	-9.78208
З	-9.78211
ліна	-9.7823
хо	-9.78333
▁інтэр	-9.78356
▁X	-9.78377
▁сін	-9.78403
28	-9.7844
▁мастацтваў	-9.78451
▁1986	-9.78455
▁народаў	-9.78473
нар	-9.78488
▁верхня	-9.78496
цця	-9.78496
▁гара	-9.78518
▁новай	-9.78599
▁каралеўства	-9.78602
▁90	-9.78651
▁36	-9.7866
Х	-9.7866
▁150	-9.78693
▁адрозненне	-9.78694
▁астравы	-9.78764
овыя	-9.78787
49	-9.7886
▁Назва	-9.78914
▁ўпершын	-9.78916
▁гісторы	-9.78957
▁выйшаў	-9.79016
▁новыя	-9.7903
▁кожны	-9.79035
▁пас	-9.79054
▁1967	-9.79147
31	-9.79164
▁захоўва	-9.79188
▁літоўскі	-9.79203
61	-9.79304
▁Санкт	-9.79311
▁грамадства	-9.79342
▁Тро	-9.79376
▁Кас	-9.79444
▁Сла	-9.79488
▁300	-9.79526
▁мужчыны	-9.79583
дыя	-9.7968
▁гл	-9.79715
▁ўплыў	-9.79721
▁VI	-9.79765
th	-9.7981
▁званне	-9.79839
▁про	-9.79839
54	-9.79849
лон	-9.79866
▁заняў	-9.79876
▁лінія	-9.8
lo	-9.80052
▁Дынаміка	-9.80092
▁гурт	-9.8018
ing	-9.80208
▁Сусветна	-9.80273
▁Рэспубліка	-9.80274
бург	-9.80325
75	-9.80367
▁Мінскі	-9.80369
▁Лю	-9.80415
ўля	-9.80425
▁вымушаны	-9.80533
▁вялікім	-9.80569
▁Сам	-9.80587
▁нова	-9.80701
▁справа	-9.80848
▁дзяржава	-9.80853
▁каралём	-9.80887
▁турніру	-9.80971
▁павінны	-9.81021
66	-9.81039
▁тэмпература	-9.81124
▁Пан	-9.81156
тыўна	-9.81165
▁бра	-9.81182
кін	-9.81188
▁сезон	-9.81202
ro	-9.81224
лення	-9.81246
чых	-9.81252
▁Уз	-9.81267
▁Кап	-9.81296
▁месяц	-9.81339
ню	-9.81388
▁брат	-9.81427
▁1957	-9.8144
▁мог	-9.81518
падае	-9.81534
▁вучы	-9.81552
▁кірунк	-9.81689
буд	-9.81715
▁прыклад	-9.81745
пас	-9.81813
▁прадстаўлены	-9.81824
▁1914	-9.81847
▁польскай	-9.81877
57	-9.81949
▁1929	-9.82025
▁1965	-9.82025
рэд	-9.8205
▁края	-9.82137
ань	-9.82184
▁вышэйша	-9.82302
▁шляхам	-9.82335
▁вялікая	-9.82407
▁Пер	-9.8245
▁кароткі	-9.82544
▁стара	-9.82564
цкую	-9.8259
▁электра	-9.8262
цтва	-9.82628
67	-9.8264
рак	-9.82655
цоў	-9.82696
▁англійскі	-9.82728
▁Вал	-9.82809
▁Разам	-9.82809
▁поўна	-9.82851
▁груп	-9.82944
▁правінцыя	-9.83012
ненне	-9.83035
▁Алімпійскі	-9.83039
▁1979	-9.83057
▁Люб	-9.83064
▁чэмпіянат	-9.83086
прыклад	-9.83086
▁пачала	-9.83146
лян	-9.83179
▁грамадзян	-9.83231
▁Галі	-9.83237
▁полі	-9.8328
▁1974	-9.83283
▁ак	-9.83305
▁The	-9.83325
88	-9.83382
▁33	-9.83405
ктар	-9.83406
st	-9.83416
▁рэгіёна	-9.83482
92	-9.83483
▁сезону	-9.8351
▁ін	-9.8351
шоў	-9.83519
▁праваслаўны	-9.83539
▁фронту	-9.83546
▁Міністэрства	-9.8358
▁U	-9.83582
▁першапачаткова	-9.83583
▁акцёр	-9.83587
▁суб	-9.83613
21	-9.83686
▁аддзела	-9.8371
мон	-9.83737
дан	-9.83778
аваны	-9.83789
▁1950	-9.83912
оўка	-9.83931
79	-9.83954
▁Народна	-9.84011
▁Грэ	-9.84082
▁адно	-9.84134
96	-9.84187
доў	-9.84188
▁1972	-9.8424
▁маі	-9.8425
кана	-9.84251
▁азёр	-9.84253
▁явілас	-9.84376
▁1966	-9.8438
▁Ця	-9.84383
▁эканамічны	-9.84389
▁заканчэння	-9.84452
▁1958	-9.84474
▁называюць	-9.84543
рд	-9.84571
лет	-9.84629
раж	-9.84639
арэ	-9.84673
▁1927	-9.84751
▁галоўнага	-9.84762
нды	-9.84806
▁явіліс	-9.84881
▁1923	-9.84937
▁42	-9.85017
▁37	-9.8511
▁тэрыторыю	-9.85144
▁1976	-9.85163
▁Хе	-9.85178
▁вялік	-9.85181
▁XV	-9.85186
▁ду	-9.85214
▁забіты	-9.85256
▁Дом	-9.85372
ром	-9.85393
▁1978	-9.85393
блі	-9.85405
j	-9.85417
▁стварэнне	-9.8544
▁камандаванне	-9.85479
▁членаў	-9.85483
95	-9.85518
▁4-	-9.85557
▁Мары	-9.85562
▁1968	-9.85583
▁кафедры	-9.85642
зэ	-9.85675
▁звыш	-9.85811
▁даўжын	-9.85861
роб	-9.85884
рэй	-9.85921
▁сабор	-9.85922
нскіх	-9.8594
76	-9.85953
▁камун	-9.85974
вата	-9.8598
▁Раман	-9.85988
▁1931	-9.86047
▁вадазбор	-9.8612
▁55	-9.86121
мба	-9.86205
▁земля	-9.8634
▁наступ	-9.86386
▁паветра	-9.86388
82	-9.86388
▁Вільні	-9.86405
▁1971	-9.8642
рыста	-9.86459
▁вежа	-9.86497
▁вайна	-9.86579
▁кастрычніку	-9.86589
▁Сама	-9.86634
▁вул	-9.86767
▁аддзялення	-9.86776
▁вышэй	-9.86795
▁тэатр	-9.86822
▁дагавор	-9.86856
71	-9.86867
▁падпісаў	-9.86886
▁дзяржаўнай	-9.86909
▁34	-9.86947
▁тып	-9.87141
▁чыта	-9.87173
▁1987	-9.87222
▁1985	-9.87223
скаму	-9.87394
99	-9.8741
▁гарады	-9.87415
▁старшыня	-9.87471
▁дапамог	-9.87488
▁1934	-9.87559
▁упершын	-9.87569
ходзе	-9.87574
▁1948	-9.87601
▁Пар	-9.8764
▁адзіна	-9.87645
▁1925	-9.87652
▁1964	-9.87698
тай	-9.8774
▁сур	-9.87749
▁XIV	-9.87772
▁спадчыны	-9.87901
▁згодна	-9.87914
нё	-9.87918
дон	-9.87925
83	-9.87941
▁ордэнам	-9.87967
от	-9.88019
▁Агульна	-9.88059
▁сталіцы	-9.88198
▁1963	-9.88219
▁чыгункі	-9.88267
▁знойдзены	-9.8834
▁1961	-9.88361
▁1947	-9.88411
лівы	-9.88543
▁ствара	-9.88576
▁склаў	-9.88685
▁адпаведнасц	-9.88702
▁Княства	-9.88718
▁1949	-9.88792
▁форме	-9.88795
▁берага	-9.88804
▁невяліка	-9.88883
авага	-9.88911
▁газеты	-9.88922
▁сучасных	-9.88927
▁зорка	-9.88936
▁бар	-9.88962
▁1969	-9.88982
74	-9.89029
цэн	-9.89046
▁Першапачаткова	-9.89059
▁Міхаіл	-9.89216
гер	-9.89282
▁спроб	-9.89302
овых	-9.8931
▁рымска	-9.89365
▁падзей	-9.89366
▁гадзін	-9.89368
▁вобраз	-9.89397
▁38	-9.89399
важ	-9.89405
тэра	-9.89444
▁басейн	-9.89452
зо	-9.8947
97	-9.89482
цю	-9.89535
▁рыс	-9.89551
парт	-9.89575
лес	-9.89577
зн	-9.8958
лева	-9.89632
лка	-9.89651
▁пяць	-9.89677
▁значэнні	-9.89688
▁ваеннай	-9.89704
▁прафесійны	-9.89777
▁павінен	-9.89784
▁дробны	-9.89789
▁канал	-9.89798
▁рэлігійны	-9.89825
▁культурна	-9.89848
▁верагодна	-9.89884
▁Індыі	-9.89887
▁1935	-9.8991
98	-9.89974
▁тыя	-9.90015
▁зборнік	-9.90028
ваюцца	-9.90053
зен	-9.90059
▁навукі	-9.90068
▁рэгіён	-9.9008
▁людзі	-9.90107
▁акіяна	-9.90132
▁пар	-9.90204
▁адносіны	-9.90213
▁бібліятэка	-9.90217
▁1981	-9.90236
▁Галоўны	-9.90242
▁1982	-9.90289
цам	-9.90341
гадовы	-9.90464
▁Амерыкі	-9.90465
нк	-9.90482
▁рэспублікі	-9.90512
▁пазіцыі	-9.90519
▁часопіса	-9.90682
нюю	-9.90772
▁прыняты	-9.90787
▁Брэ	-9.90816
▁замест	-9.90954
▁прад	-9.90992
▁1984	-9.91021
▁існавала	-9.91068
▁чы	-9.9114
am	-9.91194
▁43	-9.9123
овай	-9.91235
вары	-9.91242
69	-9.91259
▁перайшл	-9.91261
▁традыцыйна	-9.91323
шын	-9.91332
эс	-9.9134
-20	-9.91397
▁Акадэміі	-9.91408
спа	-9.91431
нтэ	-9.91432
вет	-9.91483
▁палітычна	-9.91516
un	-9.91631
▁орган	-9.91643
▁яднання	-9.91659
▁1977	-9.91661
шыню	-9.91757
▁1915	-9.91767
▁Адміністрацыйна	-9.91841
▁мін	-9.91922
каўскага	-9.91943
▁кру	-9.9203
▁Цэнтральна	-9.92046
▁1,5	-9.9207
▁культурны	-9.92091
▁варыянт	-9.92096
▁красавіку	-9.92122
73	-9.92152
▁гісторыка	-9.92215
▁Джон	-9.92283
▁кампанія	-9.92308
▁сад	-9.92327
йны	-9.92352
▁фактычна	-9.9236
▁Пап	-9.92483
▁арганізацый	-9.92485
▁го	-9.92492
▁працуе	-9.92532
▁вядзе	-9.9258
▁Літоўскага	-9.92601
небудзь	-9.92685
V	-9.92692
89	-9.92708
▁Ган	-9.92714
▁басейне	-9.92776
▁кон	-9.92787
▁лёгка	-9.92834
▁тако	-9.92882
▁доўга	-9.92915
▁Гра	-9.92923
▁XIII	-9.92943
▁p	-9.92952
72	-9.93007
стэ	-9.93056
it	-9.93067
▁літаратурна	-9.93074
▁старэйшы	-9.93085
▁1973	-9.93204
▁прэ	-9.93251
▁кіраваў	-9.93282
▁Паўла	-9.93304
▁архітэктар	-9.93311
▁называ	-9.9333
▁мір	-9.9333
▁сэнс	-9.93342
77	-9.93351
▁Большасць	-9.93351
рэс	-9.93385
▁канчаткова	-9.93385
▁выдання	-9.93435
▁ч	-9.93501
▁выпадка	-9.93585
▁Марыі	-9.93618
▁край	-9.93621
▁Вялікая	-9.93632
тыя	-9.93646
след	-9.93652
▁праціўніка	-9.93664
▁належыць	-9.93789
▁ўнутраны	-9.93898
▁63	-9.93899
чык	-9.9392
▁Жа	-9.93932
▁цыкл	-9.93936
▁Бал	-9.93975
▁праекта	-9.9399
чага	-9.94021
тычныя	-9.94028
▁1936	-9.94068
▁Упер	-9.9408
льф	-9.9408
▁цар	-9.94087
78	-9.94123
тал	-9.94129
as	-9.94153
▁музыкі	-9.94192
▁павет	-9.94235
▁знак	-9.94245
▁іншага	-9.94252
▁маса	-9.94337
▁нумар	-9.94347
▁характэрны	-9.94395
кцыя	-9.94433
авання	-9.94467
▁даследаванняў	-9.94478
лёт	-9.94542
уецца	-9.94588
▁парадку	-9.94687
▁Бы	-9.94733
▁адраз	-9.94795
▁даўжынё	-9.94841
▁паступова	-9.94904
▁праваслаўна	-9.94908
▁Асноўныя	-9.94916
ключ	-9.9495
▁Іванавіч	-9.95056
▁раздзел	-9.95116
▁збіра	-9.95162
вал	-9.95185
▁сярэдзіны	-9.95196
рма	-9.95238
аўскага	-9.95283
ена	-9.95302
▁пасёлка	-9.95315
▁вялікія	-9.95327
▁1932	-9.95341
▁знаходзіліс	-9.95458
▁палаца	-9.95536
▁афіцыйны	-9.95604
кавыя	-9.95605
▁брытанскі	-9.95621
тычных	-9.95648
▁вялікіх	-9.95703
▁пасады	-9.95728
▁расліны	-9.95751
▁стварыў	-9.95778
ара	-9.95788
рок	-9.95789
віта	-9.9586
▁малады	-9.95875
▁дазваляе	-9.95878
ацыя	-9.95884
▁змены	-9.95884
93	-9.95963
84	-9.9597
▁агульны	-9.96022
▁залежнасці	-9.96091
▁крыніца	-9.96128
▁бела	-9.96135
мор	-9.96141
▁абраз	-9.96174
▁выява	-9.96224
▁нямецкай	-9.96232
il	-9.96306
▁Джэ	-9.96323
▁выступа	-9.9634
▁адзіны	-9.96364
знач	-9.96366
▁прадстаўнік	-9.9641
▁праходзі	-9.9642
▁альбом	-9.96458
▁фронт	-9.96488
▁de	-9.96523
▁жыцці	-9.96539
▁пакольк	-9.96581
▁называе	-9.96605
▁работ	-9.96613
нты	-9.96614
▁становіцца	-9.96653
▁of	-9.96694
▁канцэрт	-9.96706
▁расліна	-9.96717
ат	-9.96729
ed	-9.96779
▁перада	-9.96884
▁метад	-9.96982
▁манастыр	-9.96986
▁класа	-9.96989
пачатку	-9.97003
▁39	-9.9703
руч	-9.97035
▁мэта	-9.97043
▁Першыя	-9.97054
N	-9.97064
чак	-9.97067
тны	-9.9707
сель	-9.97077
▁выбарах	-9.97085
ни	-9.97097
тамі	-9.97111
▁Заснаваны	-9.97122
▁кіраванне	-9.97152
▁вярнуў	-9.97161
▁вучоны	-9.97226
грагарадок	-9.97226
▁колер	-9.97244
▁творчасці	-9.97253
юю	-9.97331
▁1928	-9.97354
▁азначае	-9.97393
клі	-9.97472
іна	-9.97568
▁Саюз	-9.97571
тана	-9.97673
▁кап	-9.97682
▁напісаў	-9.97706
Ка	-9.97715
▁гісторык	-9.97746
▁горны	-9.97781
эт	-9.97793
▁актыўны	-9.978
▁ё	-9.97803
▁ніжэй	-9.97825
▁разы	-9.97848
▁ўяўляе	-9.97857
▁пастаянна	-9.97857
▁баявы	-9.97867
нікам	-9.97903
▁кіламетра	-9.97923
▁выда	-9.97937
▁найбольшая	-9.97975
▁Рым	-9.97995
вое	-9.98062
▁асноўна	-9.98063
▁Пётр	-9.98065
чо	-9.98083
▁48	-9.9809
▁незалежнасці	-9.98098
▁мястэчка	-9.98122
▁глыбін	-9.98122
йскім	-9.98144
▁высокі	-9.98149
прац	-9.98195
▁сярэдняя	-9.98291
хава	-9.98313
ала	-9.98314
▁Тар	-9.98318
▁Каб	-9.98414
овіча	-9.98419
▁фільма	-9.98431
▁Палі	-9.98462
▁прысвечаны	-9.98525
▁дня	-9.98528
001	-9.9854
▁сялян	-9.98562
▁Сонца	-9.9857
▁версіі	-9.98576
94	-9.98589
ора	-9.98639
51	-9.98656
▁1983	-9.98667
жан	-9.98741
ve	-9.98746
пусці	-9.98749
▁ўсходня	-9.9885
олаг	-9.98859
▁бес	-9.98883
сана	-9.98922
▁Размешчана	-9.99017
▁абвясціў	-9.9907
▁звычайны	-9.9908
▁Стары	-9.99084
мін	-9.99144
▁спорту	-9.99177
▁дзеянні	-9.9918
стро	-9.99253
▁сімвал	-9.99257
▁Ана	-9.99361
▁функцыя	-9.99401
▁дзеянняў	-9.99476
▁заўсёды	-9.99479
▁рамка	-9.99489
▁Сярэдні	-9.99576
Ш	-9.99685
дам	-9.99719
раджа	-9.9982
▁непа	-9.99868
▁XII	-9.9987
▁1955	-9.99896
▁Пара	-9.99911
▁свята	-9.9994
оп	-9.99963
▁рыб	-9.99967
▁рады	-9.99995
льнае	-10.0006
▁1933	-10.0012
ti	-10.0016
▁асобна	-10.0019
біра	-10.0023
▁прадстаўнікі	-10.0025
чан	-10.0032
сту	-10.0033
▁Цы	-10.0041
▁лістападзе	-10.0047
▁грамадзянска	-10.005
▁побач	-10.0052
▁Ары	-10.0054
▁КП	-10.0054
овая	-10.0057
▁аперацыі	-10.0061
▁праходзіў	-10.0061
О	-10.0067
▁даследаванні	-10.0068
▁незалежнасць	-10.007
li	-10.0073
▁дывізіі	-10.0073
▁прадпрыемства	-10.0077
ал	-10.008
▁Венгрыі	-10.0083
▁яно	-10.0086
▁чэмпіяна	-10.0089
зон	-10.0091
▁кас	-10.0092
▁Гор	-10.0094
▁малы	-10.0095
аваць	-10.0096
▁наступным	-10.0112
▁палка	-10.0116
▁Пятра	-10.0119
лік	-10.012
▁непасрэдна	-10.0122
▁функцыі	-10.0127
▁серыі	-10.0134
▁сумесна	-10.0144
▁запа	-10.0153
▁пачалос	-10.0153
▁двароў	-10.0154
▁сістэм	-10.016
▁захаваліся	-10.0163
выкарыстоўваюцца	-10.0163
▁вышэйшы	-10.0182
▁пунктаў	-10.0184
▁замацава	-10.0188
▁корпус	-10.019
▁Сын	-10.0191
ленні	-10.0191
ie	-10.0192
▁a	-10.0194
▁1905	-10.0196
▁мовах	-10.02
▁сакратар	-10.0205
▁1953	-10.0206
▁400	-10.0207
▁сістэме	-10.0208
▁ядна	-10.0208
▁гандлёвы	-10.0209
чнае	-10.021
▁лічыць	-10.0222
▁вызначы	-10.0223
▁даўжыня	-10.0231
▁часцей	-10.0235
▁Сцяг	-10.0235
вёў	-10.0245
▁Арміі	-10.025
чае	-10.0255
01	-10.0256
▁Гродна	-10.0259
рна	-10.0261
▁пал	-10.0267
▁служыў	-10.0268
Ц	-10.0269
▁Паў	-10.0272
▁зроблены	-10.0275
ціна	-10.0278
▁Фра	-10.0278
▁еры	-10.0288
▁Анд	-10.0296
шчэ	-10.0297
▁41	-10.0306
рана	-10.0309
▁Кір	-10.031
▁стагоддзяў	-10.0323
пала	-10.0327
▁трэба	-10.0328
▁званы	-10.033
кую	-10.0337
▁ноч	-10.0343
▁параўнанн	-10.0348
аві	-10.035
▁мастацкі	-10.0352
вагу	-10.0353
прав	-10.0356
▁кам	-10.0358
▁італьянскі	-10.0359
▁палон	-10.0362
чую	-10.0367
100	-10.0369
▁асобы	-10.0375
▁Нацыянальны	-10.0379
▁аўта	-10.038
▁Усходне	-10.0384
▁ера	-10.0387
▁Павел	-10.0391
▁культура	-10.0391
уса	-10.0396
ESO	-10.0398
▁падстав	-10.0402
▁сістэму	-10.0406
▁дадзена	-10.041
▁праблем	-10.0411
▁Май	-10.0422
▁віда	-10.0428
ma	-10.0436
▁стады	-10.0439
▁англійскай	-10.0442
▁Фар	-10.0443
▁дзеля	-10.0453
▁водна	-10.0462
▁Таму	-10.0462
коўскі	-10.0466
шаны	-10.0474
▁левы	-10.0483
▁факт	-10.0486
▁сярэдняй	-10.0494
зін	-10.0503
мес	-10.0513
▁Карэ	-10.0514
▁інфармацыі	-10.0517
▁рэдка	-10.052
▁Гомель	-10.0521
▁Ё	-10.0522
▁тэкст	-10.0522
▁БДУ	-10.0522
▁Грэцыі	-10.0527
▁вышыня	-10.0527
▁ло	-10.0527
▁Польшча	-10.0527
▁рымскі	-10.0529
рына	-10.0529
▁запас	-10.0536
сер	-10.0541
сон	-10.0544
ad	-10.055
▁Рымскай	-10.0554
▁Там	-10.0556
▁1952	-10.0558
ўскай	-10.0559
▁лісце	-10.0563
люб	-10.0575
▁музычна	-10.058
ul	-10.0586
▁распа	-10.0587
▁Вар	-10.0601
▁гідра	-10.0602
▁гульняў	-10.0611
▁іншым	-10.0612
▁транс	-10.0613
▁пер	-10.0618
▁Сп	-10.0619
▁блізкі	-10.0623
▁гуляў	-10.0624
▁чорна	-10.0625
▁асабіста	-10.063
w	-10.0637
віз	-10.0641
▁44	-10.0641
▁катлавін	-10.0646
▁Івана	-10.0647
▁дэпутатаў	-10.0655
ніна	-10.0655
▁развіва	-10.0657
оўны	-10.0657
▁d	-10.0662
▁выяўлены	-10.0665
стычны	-10.0667
▁Шар	-10.0669
▁дакладна	-10.0673
▁пераход	-10.0685
▁кіраўніцтва	-10.0686
мір	-10.0687
проч	-10.0689
▁дзвюх	-10.0698
▁касцёла	-10.07
▁брата	-10.07
▁меры	-10.0701
зв	-10.0707
▁існавання	-10.0707
▁саюза	-10.0707
▁поле	-10.0708
▁герба	-10.0708
▁Стара	-10.0717
▁75	-10.0721
▁атрад	-10.0722
▁Яе	-10.0723
▁прасторы	-10.0723
▁запіс	-10.0724
▁пасад	-10.0727
▁ман	-10.0729
▁ца	-10.0741
▁сустракае	-10.0741
▁ранні	-10.0741
▁паспяхова	-10.0744
▁мікра	-10.0745
▁Леў	-10.0746
жыў	-10.0746
▁Галоўна	-10.0746
віна	-10.0748
▁выраб	-10.0751
тура	-10.0751
ne	-10.0752
▁m	-10.0754
▁падзеі	-10.0756
яна	-10.076
▁важны	-10.0764
гры	-10.0766
▁Чу	-10.0768
▁Бара	-10.0768
▁роўна	-10.0787
▁дзеяння	-10.0788
▁асноўнай	-10.0801
▁размяшча	-10.0802
▁старшыні	-10.0806
▁Жан	-10.0808
▁птушак	-10.0808
▁каротка	-10.0808
▁паступіў	-10.081
▁47	-10.0813
▁вызначае	-10.0814
vi	-10.0814
▁кола	-10.0814
роз	-10.0815
▁заходні	-10.0823
▁кв	-10.0824
▁46	-10.0828
кевіч	-10.0832
дат	-10.0835
▁паверх	-10.084
▁далей	-10.0842
ністы	-10.0843
овым	-10.0851
▁мана	-10.0855
▁загадчык	-10.0856
▁Каз	-10.0857
▁Дуб	-10.0863
▁вершы	-10.0867
▁Про	-10.0871
рка	-10.0872
вія	-10.0873
аса	-10.0875
▁напісаны	-10.0876
▁жонкі	-10.0884
▁эканомікі	-10.0887
▁ахвяр	-10.089
▁калгас	-10.0893
▁чу	-10.0903
мент	-10.0904
пара	-10.0906
▁пісаў	-10.0909
іст	-10.0911
▁вызнача	-10.0913
здоўж	-10.092
▁канфлікт	-10.0922
▁ген	-10.0925
▁служы	-10.0928
▁граф	-10.093
▁раёнаў	-10.0933
▁жонка	-10.0935
▁Леніна	-10.0937
▁рукапіс	-10.0938
▁кіраўніком	-10.0945
▁дзі	-10.0946
▁адну	-10.0946
▁5-	-10.0947
▁Эр	-10.0947
▁улад	-10.0948
▁згадваецц	-10.0949
▁жыву	-10.095
лек	-10.0951
▁Бен	-10.0951
▁барацьбы	-10.0954
▁Уладзіміра	-10.096
фер	-10.0964
▁ўзбярэжжа	-10.0975
▁Апошні	-10.0978
▁Пала	-10.098
▁мастака	-10.0984
▁традыцыі	-10.0986
чэння	-10.0992
▁грэчаска	-10.0994
▁Аўстрыі	-10.0996
▁St	-10.0996
▁дакумента	-10.0996
▁хвілін	-10.1002
паль	-10.1006
вэ	-10.1006
▁сустрэ	-10.1007
▁звестк	-10.1007
ель	-10.1009
рэз	-10.1012
▁адносяцца	-10.1014
нога	-10.1014
▁Аўстраліі	-10.1015
бара	-10.1022
▁гарадах	-10.1026
81	-10.1028
▁сустракаюцца	-10.1036
▁судна	-10.1036
to	-10.1043
▁1000	-10.1044
▁Ара	-10.1045
▁жылы	-10.1045
▁жанр	-10.1048
▁Фу	-10.106
▁Васіль	-10.1062
▁двума	-10.1069
91	-10.1071
▁Ж	-10.1071
▁”	-10.1073
▁савета	-10.1085
поль	-10.1088
▁атрымаць	-10.1088
▁заліва	-10.1089
нёс	-10.1098
▁матча	-10.111
▁спосаб	-10.1125
▁Алі	-10.1128
міра	-10.113
▁забіў	-10.1132
▁Мін	-10.1139
цкія	-10.1143
▁камен	-10.1143
▁Гры	-10.1146
▁ўзроўню	-10.1147
▁Ху	-10.1152
ап	-10.1153
ліс	-10.1153
▁Расія	-10.1156
▁крыніц	-10.1156
▁выхад	-10.1156
▁чорны	-10.1158
▁працавала	-10.116
▁імперыя	-10.1165
▁ўключае	-10.1166
ўны	-10.1166
асці	-10.1175
▁велічыні	-10.1175
▁спецыяльна	-10.1177
▁цяжкі	-10.1177
▁трэці	-10.1178
▁кіна	-10.1179
▁інжынер	-10.1181
дара	-10.1183
▁Міжнародна	-10.1193
▁прыход	-10.1195
слоў	-10.1203
▁ставі	-10.1205
▁сюжэт	-10.1206
▁Арменіі	-10.1206
▁дазволіл	-10.1208
ванні	-10.1208
▁тэмпературы	-10.1209
▁блізка	-10.121
▁павеце	-10.1212
тро	-10.1213
▁імкну	-10.1216
▁будынку	-10.1218
▁пажар	-10.1219
▁сацыяльны	-10.1219
▁прэс	-10.1223
шко	-10.1224
▁кіраўніка	-10.1225
нен	-10.1227
▁еру	-10.1229
▁Сіл	-10.1231
▁заснавальнік	-10.1233
▁ўзрос	-10.1237
▁сва	-10.1238
▁1951	-10.1238
▁заснаваў	-10.1241
▁карыс	-10.1242
▁традыцыйны	-10.1244
▁баку	-10.1244
▁Парыж	-10.1254
куп	-10.1256
▁лічыў	-10.1257
усім	-10.1257
тныя	-10.1277
свет	-10.1279
▁просты	-10.128
ік	-10.1282
вец	-10.1284
йская	-10.1286
▁захаду	-10.1291
▁лева	-10.1293
▁цёмна	-10.1303
▁іншай	-10.1304
жана	-10.1304
▁гісторыя	-10.1309
▁глыбіня	-10.1312
▁Гара	-10.1314
▁лепшы	-10.1315
лых	-10.1322
H	-10.1323
ли	-10.1324
▁месцаў	-10.1325
▁кг	-10.1329
▁*	-10.1334
▁экспедыцыі	-10.1336
▁энергіі	-10.134
▁новым	-10.134
валь	-10.1341
▁пачалас	-10.1342
▁схіл	-10.1343
авога	-10.1344
▁буд	-10.1345
io	-10.135
▁месяцаў	-10.1352
▁порт	-10.1353
om	-10.1359
▁Генрых	-10.1361
▁Сін	-10.1361
аванне	-10.1366
▁слоў	-10.1366
▁сабора	-10.1368
дэль	-10.1369
▁будынкаў	-10.1371
▁карцін	-10.1372
▁бяз	-10.1373
▁літаратурны	-10.1375
▁ніжня	-10.1377
▁Юр	-10.1385
▁яднаны	-10.1388
▁самастойна	-10.1389
▁выпуска	-10.139
ніс	-10.1391
ізм	-10.1392
▁цэ	-10.1394
▁Мас	-10.1394
▁газета	-10.14
ёна	-10.14
▁імем	-10.1401
▁гістарычны	-10.1401
▁цара	-10.1403
▁шырокі	-10.1404
▁ступень	-10.1408
ант	-10.1408
▁летапіс	-10.1409
▁сум	-10.1411
▁сучасны	-10.142
чыя	-10.1423
▁Бур	-10.1423
▁берагаво	-10.1424
грэ	-10.1426
▁Федэрацыі	-10.1426
ўскім	-10.1429
▁дагавора	-10.1431
оль	-10.1434
▁экс	-10.1437
▁музеі	-10.1438
▁Францыя	-10.1439
▁Бор	-10.1439
прэ	-10.1442
▁вытворчасць	-10.1451
радзе	-10.1456
стве	-10.146
▁ўжыва	-10.146
▁роўны	-10.1464
▁структур	-10.147
▁Помнік	-10.147
коўскага	-10.147
▁беларуск	-10.1475
▁пары	-10.148
сін	-10.148
▁о	-10.1485
▁выс	-10.1485
жыць	-10.1486
▁дома	-10.1487
▁прыроды	-10.1488
▁Удзельнік	-10.1488
▁гал	-10.1493
▁San	-10.1496
тычнай	-10.1497
▁Маскоўска	-10.1501
град	-10.1505
▁Ска	-10.1505
▁&#124;	-10.1507
▁песня	-10.1513
▁VII	-10.1529
зар	-10.1537
▁Крым	-10.1541
фік	-10.1551
▁моцны	-10.1554
рабіць	-10.1554
▁Буда	-10.1557
▁Адна	-10.156
▁1916	-10.156
▁гарадско	-10.1562
▁варта	-10.1568
F	-10.1571
▁пахаваны	-10.1579
▁падзелу	-10.158
▁суседні	-10.1584
▁існаванне	-10.1584
▁адукацыю	-10.1588
▁аддзел	-10.1588
▁паходжанне	-10.1588
▁Папа	-10.1588
▁арыштаваны	-10.159
se	-10.1593
▁Памёр	-10.1595
рова	-10.1596
▁году	-10.1605
▁Толькі	-10.1607
▁яднанне	-10.161
▁крытык	-10.1614
▁Бры	-10.1615
▁сваімі	-10.1618
▁японскі	-10.1626
▁Больш	-10.1627
▁беларуская	-10.1632
▁Він	-10.1632
▁магл	-10.1632
ъ	-10.1639
▁пл	-10.1639
шай	-10.1644
оч	-10.1646
нас	-10.1655
чым	-10.1655
▁лу	-10.1656
нца	-10.1664
ней	-10.1665
▁Германія	-10.1665
▁падзел	-10.1669
▁матэрыял	-10.1676
▁бакоў	-10.1677
▁шляху	-10.1678
ter	-10.1681
тыўны	-10.1685
слав	-10.1686
▁ліст	-10.1686
▁дырэктар	-10.1686
▁двары	-10.1687
ос	-10.1688
▁каралеўска	-10.1689
▁жылі	-10.169
▁самай	-10.1693
▁адносін	-10.1694
da	-10.1694
▁Прэзідэнта	-10.1704
ек	-10.1704
▁могілках	-10.1708
▁пераваг	-10.1711
▁52	-10.1712
саў	-10.1714
▁Мікалая	-10.172
кцыі	-10.1724
▁прывяло	-10.1724
K	-10.1725
▁узроўнем	-10.1728
▁умова	-10.1728
берг	-10.1732
▁міністр	-10.1735
раваны	-10.1735
▁сынам	-10.1736
▁выкарыстоўваюць	-10.1737
ce	-10.1737
▁49	-10.1738
чат	-10.1747
▁Колькасць	-10.1747
▁ўласна	-10.1747
▁гістарычных	-10.1749
▁ролі	-10.1749
оз	-10.1753
▁шасці	-10.1755
сны	-10.1755
меры	-10.1758
▁спецыяльны	-10.176
▁мець	-10.1769
▁эпі	-10.177
▁1912	-10.177
ni	-10.177
хар	-10.1772
▁уключаючы	-10.1773
Ёрк	-10.1775
▁120	-10.1779
кса	-10.1784
▁падобна	-10.1788
▁вар	-10.179
падобны	-10.1791
▁Маг	-10.1791
lt	-10.1795
▁01	-10.1797
▁археалагічны	-10.1798
▁Іс	-10.1799
▁ўлада	-10.1799
▁вос	-10.18
▁Дзяржаўны	-10.1805
ніцкага	-10.1806
▁Ім	-10.1807
▁дуб	-10.1816
▁брытанска	-10.1817
▁сер	-10.1819
▁Парыжы	-10.1821
▁вынік	-10.1823
▁хутар	-10.1826
▁пэўна	-10.1827
частку	-10.1827
▁погляд	-10.1829
шак	-10.183
шчына	-10.1834
▁1897	-10.184
насцю	-10.184
мет	-10.1842
▁палітыкі	-10.1849
▁пражыва	-10.185
даць	-10.1851
алогіі	-10.1853
джэ	-10.1854
-4	-10.1854
od	-10.1855
▁частак	-10.1855
пал	-10.1858
▁56	-10.1866
▁абарон	-10.1866
▁зямель	-10.187
▁Це	-10.1872
▁камандзір	-10.1872
▁Герб	-10.188
▁праграмы	-10.1887
▁Лічы	-10.1888
▁Кле	-10.1889
▁культ	-10.189
фон	-10.1892
▁корпуса	-10.1904
▁магчымасц	-10.1919
▁ката	-10.1919
▁дасягае	-10.1921
йныя	-10.1922
бро	-10.1927
▁фронце	-10.1927
▁Украіне	-10.1928
від	-10.193
пуска	-10.1933
нду	-10.1933
▁Сяргей	-10.1936
▁Нава	-10.1938
▁тан	-10.1939
меш	-10.194
ўцы	-10.1941
▁неда	-10.1945
▁J	-10.1946
▁аховы	-10.1947
▁элементаў	-10.195
▁прычына	-10.1955
▁51	-10.1962
▁Фінляндыі	-10.1963
▁мара	-10.1964
▁Гру	-10.1966
X	-10.1968
▁захавалася	-10.197
▁працаваць	-10.1976
▁мільёнаў	-10.1977
▁Царква	-10.1979
▁нягледзячы	-10.198
▁выдаў	-10.1983
стая	-10.1988
вестак	-10.1988
▁магістра	-10.1991
▁вежы	-10.1993
▁філасофіі	-10.1993
▁Спа	-10.2002
▁накіраваны	-10.2006
віча	-10.201
▁мадэлі	-10.2011
▁рада	-10.2017
▁Нар	-10.2017
▁доктар	-10.2019
▁жыве	-10.202
чыць	-10.2021
▁бераг	-10.2021
▁пакіну	-10.2031
▁Сер	-10.2031
▁аддзяленне	-10.2032
▁Перад	-10.2042
заходня	-10.2043
льня	-10.2044
патрабава	-10.2048
▁падтрым	-10.2057
▁зварот	-10.2062
▁паўстанне	-10.2063
▁загінулі	-10.2065
лёў	-10.2065
▁пытанне	-10.2066
▁фальклор	-10.2072
▁перамог	-10.2072
▁ААН	-10.2077
▁кантроль	-10.2078
▁перамогу	-10.2082
▁намеснікам	-10.2086
▁Амерыцы	-10.2091
os	-10.2092
тор	-10.2094
енка	-10.2098
▁распаўсюджана	-10.2098
▁нашы	-10.2099
▁дачка	-10.21
▁Тан	-10.2101
▁пасла	-10.2104
▁камітэт	-10.2106
▁аль	-10.2111
▁здолеў	-10.2111
▁рэчыва	-10.2113
▁Кубка	-10.2113
▁палітычнай	-10.2118
сэ	-10.2121
▁прыём	-10.2122
міністра	-10.2123
▁гары	-10.2127
▁ажыццяўля	-10.2127
▁Вен	-10.2129
▁поля	-10.213
▁друга	-10.2134
▁Неўзабав	-10.2138
▁каз	-10.2139
▁1910	-10.214
▁цэлым	-10.2141
ut	-10.2143
▁часопіс	-10.2144
▁выкарыстання	-10.2145
▁выконва	-10.2147
жываецца	-10.2149
ніцкі	-10.215
▁удзельнічаў	-10.215
сава	-10.215
фарм	-10.2151
▁Асноўна	-10.2151
пя	-10.2152
дзел	-10.2155
▁часціц	-10.2155
туры	-10.2157
▁дысертацы	-10.2158
▁чырвоны	-10.2158
▁выцягнутая	-10.2158
▁Вядомы	-10.2164
▁Дзякую	-10.2169
▁выбар	-10.217
ізму	-10.2171
▁фасад	-10.2172
вад	-10.2174
▁лёс	-10.2174
▁багаты	-10.2175
тыцы	-10.2177
▁зала	-10.2181
рык	-10.2182
▁65	-10.2183
é	-10.2184
льскай	-10.2187
▁лепш	-10.2188
▁Крэ	-10.2188
дары	-10.2189
▁герцаг	-10.2191
▁вада	-10.2193
бан	-10.2195
▁Андрэй	-10.2195
▁медыцынскі	-10.2202
▁Кла	-10.2202
▁лагер	-10.2203
▁склала	-10.2204
▁зараз	-10.2204
▁прыватны	-10.2205
▁прыводзі	-10.2205
▁эліптычна	-10.2211
▁змяшчае	-10.2211
▁асноўныя	-10.2215
▁Палац	-10.2217
несен	-10.2219
▁удзельнік	-10.2224
▁палат	-10.2225
▁рэдактар	-10.2225
▁Ma	-10.2227
▁Пла	-10.2233
▁праблемы	-10.2236
▁ўваход	-10.2236
▁урад	-10.2237
▁звярну	-10.2239
▁драўляна	-10.2239
▁чырвона	-10.2244
▁беларусаў	-10.2245
цяг	-10.2247
▁прывял	-10.225
▁яўлялася	-10.2251
▁Дынама	-10.2251
▁універсітэта	-10.2252
▁Дру	-10.2253
▁адлегласці	-10.2255
▁перамогі	-10.2261
▁Антоні	-10.2262
▁прэзідэнтам	-10.2262
▁Русі	-10.2263
▁абвешчана	-10.2272
фармава	-10.2274
ата	-10.2278
чнік	-10.2278
▁Турцыі	-10.2279
▁Масква	-10.2279
▁сельскі	-10.228
▁Ап	-10.2287
▁Род	-10.2288
▁Пас	-10.2288
▁хі	-10.229
▁суда	-10.2295
▁машын	-10.2298
рскага	-10.2303
▁Філіп	-10.2303
▁Пачынаецца	-10.2305
▁памеры	-10.2306
▁базе	-10.2307
▁артыст	-10.2308
кен	-10.2317
ёў	-10.2318
▁музычны	-10.2319
▁стварэнні	-10.2319
▁пасадзе	-10.2324
▁надпіс	-10.2327
тычнага	-10.2331
чая	-10.2337
▁складу	-10.2338
од	-10.2341
▁Дра	-10.2346
▁фар	-10.2346
▁атрада	-10.2347
тру	-10.235
тычны	-10.2352
▁кляштар	-10.2356
▁лес	-10.2359
▁савецкай	-10.2363
▁службы	-10.2364
▁органа	-10.2366
▁Бель	-10.237
▁53	-10.237
▁рэшткі	-10.2371
▁0,5	-10.2374
▁Мен	-10.2382
ота	-10.2389
▁работы	-10.2391
бель	-10.2395
▁галоў	-10.2399
▁сродкі	-10.24
▁генерала	-10.2402
▁ўласны	-10.2405
▁Ісуса	-10.2409
▁лідар	-10.2416
▁Яўген	-10.2421
▁назад	-10.2422
▁канстытуцы	-10.2423
▁Аг	-10.2423
йскіх	-10.2426
▁пача	-10.2426
▁разнастайны	-10.2428
цава	-10.2428
кавы	-10.2432
рыка	-10.2443
▁ан	-10.2447
▁плям	-10.245
▁італьянска	-10.245
▁дапамогу	-10.2452
▁Адам	-10.2462
▁явіў	-10.2465
▁уплывам	-10.2476
▁царства	-10.2476
▁Сва	-10.2481
▁Эстоніі	-10.2483
▁прадстаўлена	-10.2483
▁розна	-10.2488
▁Малы	-10.2491
дзю	-10.2493
▁партызан	-10.2499
▁графа	-10.2499
жны	-10.2501
▁твор	-10.2509
▁губерня	-10.2511
▁устаноў	-10.2514
▁Свято	-10.2517
▁Інстытута	-10.2518
▁слаба	-10.2523
▁выключна	-10.2524
раста	-10.2529
заваны	-10.253
▁прапанов	-10.2531
тэрытарыяльна	-10.2535
▁св	-10.2537
▁куб	-10.2538
тані	-10.2544
▁захаваў	-10.2544
▁рэйтынг	-10.2547
▁вырабля	-10.2551
нскія	-10.2556
▁пабудовы	-10.2557
▁апа	-10.2559
▁тон	-10.2559
▁наступна	-10.2561
ir	-10.2562
▁Савет	-10.2563
альных	-10.2565
▁крыжа	-10.2565
£	-10.2566
▁святла	-10.2566
йцаў	-10.2571
лён	-10.2575
▁спадчын	-10.2576
▁Сар	-10.2579
▁маёнтк	-10.2579
алогія	-10.2583
▁лацінска	-10.2586
ень	-10.2587
▁адносінах	-10.2589
▁бяспекі	-10.2598
▁ордэн	-10.2599
лінг	-10.2599
дскі	-10.26
альныя	-10.2601
нскае	-10.2609
▁возер	-10.2611
▁магі	-10.2616
авічы	-10.2618
▁заявіў	-10.2625
▁вага	-10.2629
торы	-10.2637
▁ўладу	-10.2639
дро	-10.2641
▁прызнача	-10.2642
талі	-10.2647
весці	-10.2647
анты	-10.2649
▁лю	-10.2651
жскі	-10.2655
▁рыба	-10.2659
▁штаб	-10.2664
▁Віцебскі	-10.2664
намі	-10.2665
▁рускіх	-10.2666
▁ініцыятыв	-10.267
▁Каза	-10.2674
▁загінуў	-10.2677
▁адрас	-10.2682
▁акупацы	-10.2682
▁пласт	-10.2688
▁сферы	-10.2694
▁1863	-10.2695
▁1907	-10.2697
▁знаходзі	-10.2701
▁камісіі	-10.2708
бру	-10.2711
▁духоўна	-10.2712
▁пераможца	-10.2713
▁Прэм	-10.2714
▁кала	-10.2719
зм	-10.272
▁кнігу	-10.2723
кор	-10.2723
▁эфект	-10.2723
шан	-10.2727
дз	-10.2732
стру	-10.2733
▁Ну	-10.2734
бэ	-10.2738
▁Дж	-10.2738
▁канец	-10.2739
▁правядзення	-10.274
▁бітвы	-10.2744
▁1908	-10.2746
▁акруг	-10.2752
▁стралкова	-10.2755
▁сцяга	-10.2755
вік	-10.2759
вялі	-10.2764
▁хрысціянства	-10.2766
no	-10.2767
гін	-10.2771
▁Z	-10.2773
▁крыж	-10.2776
віс	-10.2778
▁Тэрыторыя	-10.278
▁Рыме	-10.2782
аз	-10.2782
свят	-10.2783
ндэ	-10.2784
▁Сен	-10.2785
▁лікам	-10.2787
ква	-10.2787
▁Вучыў	-10.2795
▁іншае	-10.2797
▁Еўрапейска	-10.2802
▁ўваходзяць	-10.2803
▁1990-	-10.2804
▁Афрыкі	-10.2804
▁ара	-10.2805
▁Марка	-10.2812
▁акт	-10.2814
▁Пол	-10.2815
тыкі	-10.2816
▁Ганна	-10.2818
▁князёў	-10.2818
▁выдатны	-10.2824
▁Над	-10.2828
▁парку	-10.2831
▁ўсю	-10.2832
алагічны	-10.2832
▁кампактна	-10.2833
▁гала	-10.2833
▁рост	-10.2838
▁мастакоў	-10.2838
▁дзяўчын	-10.284
лкі	-10.2844
рысты	-10.2848
▁прычым	-10.285
▁палітыка	-10.2858
▁гэту	-10.2858
▁малодшы	-10.2861
▁структуры	-10.2863
піса	-10.2866
ваты	-10.2867
ення	-10.2867
▁Звычайна	-10.2868
▁лічы	-10.2868
кал	-10.2873
▁атрымання	-10.2875
▁ніколі	-10.2876
▁сілу	-10.2883
ет	-10.2885
▁графства	-10.2887
­	-10.289
▁культур	-10.2893
ga	-10.2894
▁страты	-10.2894
цёр	-10.2894
гляд	-10.2896
▁напад	-10.2899
овага	-10.2902
▁падтрымку	-10.2904
энерг	-10.2907
▁1906	-10.2909
▁фр	-10.2921
нес	-10.2929
▁чэмпіён	-10.2933
кро	-10.2935
▁Першым	-10.2938
▁раб	-10.294
▁пытанні	-10.294
▁напісана	-10.2942
▁неабходна	-10.2944
мяні	-10.2947
стой	-10.2954
▁1909	-10.296
быт	-10.296
ўшчына	-10.296
▁рэльеф	-10.2969
▁пераехаў	-10.2969
▁матэрыялаў	-10.2971
данне	-10.2972
▁распаўсюджва	-10.2978
стар	-10.2978
▁Новая	-10.2979
ов	-10.2982
▁гаспадар	-10.2982
▁Аз	-10.2982
▁шырынё	-10.2983
▁рашэння	-10.2985
▁каталіцкі	-10.2986
▁залаты	-10.2986
▁стадыён	-10.2988
▁Кру	-10.2988
▁трэ	-10.299
▁застава	-10.2995
▁Re	-10.2995
▁авія	-10.2995
▁лізе	-10.2997
▁Латвіі	-10.2998
▁РСФСР	-10.2998
льва	-10.2998
▁падзелены	-10.3
▁XI	-10.3005
▁нізка	-10.3006
▁асоба	-10.3012
▁дзеянне	-10.3013
▁міністра	-10.3014
▁1911	-10.3016
лыя	-10.302
▁складаны	-10.3022
ном	-10.3022
▁бібліятэ	-10.3022
▁аэрапорт	-10.3027
▁партрэт	-10.303
▁нахіл	-10.303
▁ярус	-10.3034
▁гол	-10.3035
▁Мае	-10.3038
▁Найбольша	-10.3041
▁спадчыну	-10.3042
твара	-10.3048
▁надзвычай	-10.3057
ніча	-10.3057
лада	-10.3058
▁рынк	-10.3061
▁працавалі	-10.3062
▁Камен	-10.3063
▁будучы	-10.3067
▁рад	-10.3067
▁гурта	-10.3069
трэ	-10.3078
▁флот	-10.3078
▁справе	-10.3079
▁германскі	-10.3079
▁Даніі	-10.3081
▁1913	-10.3082
▁Афрыцы	-10.3093
▁Цяпер	-10.3093
▁трэнер	-10.3093
▁Літоўска	-10.3095
▁любы	-10.3095
▁акруга	-10.3098
ліка	-10.3098
▁яўрэйска	-10.31
▁Кал	-10.31
зацыя	-10.3103
льнікаў	-10.3105
авала	-10.3107
далі	-10.3107
▁віцэ	-10.311
▁ўвайшл	-10.3112
▁машына	-10.3112
▁праграма	-10.3121
▁тэле	-10.3121
▁далейшым	-10.3121
раўн	-10.3121
час	-10.3122
▁дэбютаваў	-10.3122
вілі	-10.3122
▁Вас	-10.3125
co	-10.3127
▁элементы	-10.3131
▁Рака	-10.3132
зд	-10.3132
глыб	-10.3133
▁афіцэр	-10.3134
▁тэхнічны	-10.3136
▁маёнтак	-10.3137
▁рэжым	-10.3137
нья	-10.314
▁хімічны	-10.3141
▁Рыма	-10.3147
манд	-10.3147
▁начальнік	-10.3149
▁сярэдні	-10.3152
цё	-10.3153
рн	-10.3153
▁Трэ	-10.3154
▁Эн	-10.3154
дас	-10.3155
авалі	-10.3157
аўка	-10.3159
▁Кітая	-10.3163
▁сто	-10.3165
▁сцен	-10.3167
▁радзей	-10.3167
▁двор	-10.3172
▁паўночнага	-10.3177
зь	-10.3178
фра	-10.3179
▁дух	-10.3183
▁Генрыха	-10.3184
цкае	-10.3184
зор	-10.3184
даецца	-10.3186
▁лясы	-10.3187
▁Вялік	-10.3188
▁Касцёл	-10.3188
▁каменны	-10.3189
▁прапанаваў	-10.3195
▁паэта	-10.3199
▁Сал	-10.3199
▁ўдалося	-10.3203
▁Паўднёвы	-10.3205
▁фігур	-10.3206
▁гандлю	-10.321
▁англійска	-10.3215
▁Дан	-10.3215
▁b	-10.3217
▁лаўрэат	-10.3218
▁апарат	-10.3224
▁Маль	-10.3227
▁дра	-10.3228
▁парламента	-10.3229
▁крыніцы	-10.3232
▁Існу	-10.3238
▁мовай	-10.3239
▁палос	-10.3246
▁галіна	-10.3261
▁спыні	-10.3265
меж	-10.3267
павярховы	-10.3267
про	-10.3281
▁гук	-10.3282
▁мост	-10.3284
крэ	-10.3286
▁алтар	-10.3291
▁паэзіі	-10.3292
ўсходня	-10.3293
апа	-10.3294
▁левым	-10.3295
▁элемент	-10.3297
▁фізічна	-10.33
▁горадам	-10.3301
пат	-10.3303
▁Каралеўства	-10.3304
▁Арэ	-10.3307
▁раку	-10.3308
▁паўвострава	-10.3314
▁моманту	-10.3319
льд	-10.3322
▁іграком	-10.3322
▁музыка	-10.3324
▁Хан	-10.3325
▁2,5	-10.3329
▁серыя	-10.3331
▁словы	-10.3334
▁татар	-10.3334
оні	-10.334
гле	-10.3341
▁француз	-10.3341
▁высокім	-10.3343
льнікі	-10.3348
пісаць	-10.3348
том	-10.3349
мас	-10.3351
▁астэроід	-10.3352
▁Востраў	-10.3352
▁дрэў	-10.3352
▁справы	-10.3358
▁Святы	-10.3359
▁уяўляе	-10.336
▁назваў	-10.3362
▁Кале	-10.3363
▁выкарыстанне	-10.3366
▁дахам	-10.338
▁дэпутат	-10.338
нію	-10.3381
дапамозе	-10.3382
▁ўвайшлі	-10.3383
▁закона	-10.3384
дадзены	-10.3386
▁адчува	-10.3389
▁Музей	-10.339
▁адрозніва	-10.339
▁сетка	-10.3391
ha	-10.3393
▁прызёр	-10.3398
▁прыродны	-10.34
▁жанчына	-10.3401
▁Гран	-10.3401
▁Бацька	-10.3402
▁захоп	-10.3403
▁даў	-10.3407
гур	-10.3408
ура	-10.3408
пуск	-10.341
▁ляса	-10.3412
▁прынялі	-10.3414
▁выкананы	-10.3414
▁вырашыў	-10.3415
▁64	-10.3418
▁версія	-10.3427
сар	-10.3427
бек	-10.3428
вагі	-10.343
рк	-10.3433
▁асяроддзя	-10.3433
▁кіно	-10.3434
▁факультэта	-10.3439
ваючы	-10.344
▁рання	-10.344
-3	-10.3441
▁будуць	-10.3443
▁хва	-10.3444
▁Аба	-10.345
▁ўзнагарод	-10.3452
▁атрымлівае	-10.3455
цыяна	-10.3456
▁абласцей	-10.3458
▁стылю	-10.3458
▁Дар	-10.3461
ведзена	-10.3462
▁нараджэння	-10.3464
▁прастол	-10.3464
▁Украіна	-10.3466
▁Віктар	-10.3467
▁банк	-10.347
▁адсутнасц	-10.347
▁даследавання	-10.347
▁распрацоў	-10.3474
▁Канстанцін	-10.3479
▁Масквы	-10.348
▁Герой	-10.3482
▁ўдзельнік	-10.3483
▁Вяр	-10.3484
кавічы	-10.3484
▁Мер	-10.3486
▁навуча	-10.3489
▁веда	-10.349
зда	-10.3493
▁Li	-10.3495
▁пісьменнікаў	-10.3498
Ма	-10.3499
▁ль	-10.3499
тызм	-10.35
оны	-10.3503
▁выключэнне	-10.3505
рскай	-10.3508
▁існуюць	-10.3511
▁ск	-10.3513
▁футболе	-10.3513
▁замен	-10.3514
▁бітва	-10.3518
дак	-10.352
▁патрабаванн	-10.3527
фу	-10.3528
▁Франц	-10.3528
тэк	-10.3528
Е	-10.3535
кт	-10.3538
тным	-10.3539
▁смерц	-10.354
▁сусветна	-10.354
▁мясцовасці	-10.3541
▁натуральны	-10.3542
бл	-10.3545
▁няс	-10.3546
▁хрысціян	-10.3548
▁Астра	-10.3551
▁межы	-10.3551
енавіта	-10.3555
падобна	-10.3557
▁Куб	-10.3561
me	-10.3561
▁выйграў	-10.3562
▁інстытуце	-10.3564
▁манастыра	-10.3565
▁праведзены	-10.3567
▁Цэнтральны	-10.3567
ac	-10.3568
▁руха	-10.3571
▁маршрут	-10.3572
▁праграм	-10.3573
▁ужыва	-10.3576
льда	-10.3579
▁ЮНЕСКА	-10.358
▁абласно	-10.358
графічны	-10.3582
▁фарм	-10.3583
▁зорак	-10.3588
▁наведва	-10.3588
ўская	-10.359
▁герцага	-10.3591
▁57	-10.3594
▁знакаміты	-10.3595
▁маёнтка	-10.3595
ур	-10.3599
▁мед	-10.3603
аты	-10.3606
▁пошук	-10.3607
▁вялі	-10.361
▁гульнях	-10.361
тных	-10.3611
оўцы	-10.3613
▁яўрэяў	-10.3618
▁ваенныя	-10.3619
▁камер	-10.362
фры	-10.3623
▁валас	-10.3626
▁мяч	-10.3626
рот	-10.3628
▁вадасховішча	-10.3633
▁прама	-10.3635
▁моры	-10.3636
em	-10.3638
▁калон	-10.3639
вана	-10.364
▁паказ	-10.3641
▁дапамаг	-10.3641
ca	-10.3643
▁n	-10.3645
ковіч	-10.3648
▁Баб	-10.3648
▁свабодна	-10.3652
▁IX	-10.3653
▁перададзены	-10.3653
бал	-10.366
▁сярэднім	-10.3661
▁доме	-10.3663
▁Вышэйша	-10.3666
▁трон	-10.3669
▁VIII	-10.367
▁арышт	-10.3675
▁сігнал	-10.3677
▁старшынёй	-10.368
тычная	-10.368
▁мус	-10.3681
ляр	-10.3681
▁дачко	-10.3688
авую	-10.3691
дны	-10.3692
▁1904	-10.3693
▁папулярны	-10.3698
▁фу	-10.3701
▁ўтвараю	-10.3701
▁Польска	-10.3703
▁спін	-10.3706
слава	-10.3707
▁нізін	-10.3714
▁кіраўнікоў	-10.3714
пл	-10.3721
тва	-10.3721
▁рэлігійна	-10.3723
кага	-10.3724
▁старо	-10.3724
мера	-10.3725
▁каледж	-10.3727
ола	-10.3728
▁славян	-10.3729
▁млрд	-10.3734
▁1930-	-10.3735
рат	-10.3747
▁выданне	-10.3748
▁нацыянальн	-10.3749
pe	-10.3751
▁навуковай	-10.3757
▁тысячагоддзя	-10.3758
▁зуб	-10.3759
▁галіны	-10.3764
таваны	-10.3766
▁Асманска	-10.3766
▁Кала	-10.3767
▁змяня	-10.3769
▁Ігар	-10.377
▁дамоў	-10.3771
▁выступае	-10.3772
▁Віль	-10.3778
▁правоў	-10.3782
▁54	-10.3785
пен	-10.3787
лява	-10.3789
▁зброі	-10.3798
ндэр	-10.3801
нічны	-10.3807
▁рыцар	-10.3807
▁58	-10.3808
▁Народны	-10.3812
▁Вол	-10.3812
▁Цэ	-10.3813
▁царкв	-10.3813
▁Мало	-10.3814
▁600	-10.3816
▁песень	-10.382
▁Магілёўска	-10.3822
▁выдадзены	-10.3827
▁гэтак	-10.383
▁оперы	-10.3831
▁Вене	-10.3838
▁асабісты	-10.3839
▁адкрыў	-10.3842
▁Іерусалім	-10.3844
▁рэдкі	-10.3845
▁ютар	-10.3845
▁дзіцячы	-10.3846
▁працягва	-10.385
▁фасада	-10.3851
▁прымаў	-10.3852
тарам	-10.3854
Ч	-10.3854
дзіна	-10.3854
▁навучання	-10.3856
▁Станіслава	-10.3866
▁Іх	-10.3872
▁звана	-10.3873
▁двойчы	-10.3876
аўскі	-10.388
міністр	-10.3881
▁Заслужаны	-10.3884
▁футбольны	-10.3884
склад	-10.3887
▁абмен	-10.3887
лісты	-10.3889
▁месцам	-10.3891
▁сведчы	-10.3892
▁прайшоў	-10.3892
▁Такі	-10.3898
глі	-10.3899
ляецца	-10.39
стат	-10.3901
тычным	-10.3904
веж	-10.3907
▁Дзева	-10.3907
▁сувязь	-10.391
▁эсперанта	-10.3915
▁дыялект	-10.3916
▁фізіка	-10.3916
▁пунктам	-10.3917
▁роля	-10.3918
вальны	-10.392
стам	-10.3923
▁Многія	-10.3923
▁бе	-10.3924
▁пісьмовы	-10.3925
лька	-10.3931
▁планеты	-10.3933
нку	-10.3933
сел	-10.3934
▁друку	-10.3939
▁емонт	-10.394
кавых	-10.3942
▁жаноча	-10.3945
▁кары	-10.3947
▁паказвае	-10.3949
▁дадатковы	-10.395
▁апублікаваны	-10.3953
▁Гісторыя	-10.3955
▁арганізатар	-10.3955
▁сыноў	-10.3957
▁светла	-10.3962
▁ваеннага	-10.3967
асць	-10.3967
▁царкоўна	-10.3969
▁крыла	-10.397
нова	-10.397
▁тэорыя	-10.3971
▁Вядома	-10.3971
▁братам	-10.3971
▁Рэйн	-10.3972
▁пакіда	-10.3978
чар	-10.3985
▁План	-10.3985
аюцца	-10.3986
дня	-10.3989
логіі	-10.3993
фін	-10.3998
тык	-10.3999
тэль	-10.4002
▁арганізаваны	-10.4002
▁хвалі	-10.4002
▁тэрыторый	-10.4003
▁пачаткам	-10.4003
▁міру	-10.4004
рог	-10.4011
нск	-10.4016
▁палітык	-10.4019
казаць	-10.402
▁прыняцц	-10.402
▁колькасц	-10.4022
незі	-10.4023
▁0,1	-10.4024
▁мірны	-10.4024
▁Італія	-10.4027
-18	-10.4031
▁помнікаў	-10.4031
▁прысвоена	-10.4035
лова	-10.4035
мента	-10.4036
топ	-10.4036
▁вершаў	-10.4039
▁золата	-10.4044
лера	-10.4045
▁біскуп	-10.4048
▁Мір	-10.4049
▁невялікі	-10.405
два	-10.4052
лот	-10.4052
▁студэнтаў	-10.4053
▁рэспубліка	-10.4054
▁Тады	-10.4055
чаў	-10.4058
▁выбараў	-10.406
▁Рада	-10.4062
рт	-10.4066
▁журналіст	-10.4067
▁Чэхіі	-10.4067
▁сёння	-10.4075
▁адзіным	-10.4079
чнымі	-10.4088
▁Каль	-10.4092
▁штогод	-10.4092
▁іспанска	-10.4092
▁Кен	-10.4093
▁ро	-10.4096
▁выкарыстоўваць	-10.4096
▁Сярэдняя	-10.41
▁пачынаючы	-10.4105
▁Мы	-10.4105
маг	-10.4108
сцяў	-10.4108
▁Сала	-10.4109
▁Савецкай	-10.4109
▁сацыял	-10.411
▁Ваенна	-10.4115
▁рэжысёр	-10.4115
▁узнагароджаны	-10.4116
▁250	-10.4122
„	-10.4124
▁Хоць	-10.4126
ёва	-10.4127
▁сойм	-10.4129
▁Схіл	-10.413
▁прамысловы	-10.4132
▁Нарвегіі	-10.4133
мысл	-10.4135
воль	-10.4136
▁забойства	-10.4137
▁савет	-10.414
▁супрацоўнік	-10.4141
▁памер	-10.4142
ent	-10.4146
▁6-	-10.4149
▁вывуча	-10.4151
▁адміністрацыі	-10.4156
▁Пахаваны	-10.4157
▁1900	-10.4158
▁алфавіт	-10.4162
▁мадэль	-10.4162
▁прэмі	-10.417
▁пост	-10.4171
▁выклікала	-10.4171
▁паўнамоцтв	-10.4173
ндра	-10.4173
▁добры	-10.4176
версе	-10.4176
▁іспанскі	-10.4179
▁лад	-10.4179
эра	-10.418
▁Красна	-10.4181
цце	-10.4182
▁разуме	-10.4186
▁Кро	-10.4189
▁кнізе	-10.419
кладзены	-10.4192
дор	-10.4192
элі	-10.4193
▁аж	-10.4194
▁Другі	-10.4195
▁Вялікабрытанія	-10.4196
▁стандарт	-10.4201
▁Мікалаевіч	-10.4206
▁працяка	-10.4207
леў	-10.4209
▁жывапіс	-10.4213
▁Джэймс	-10.4214
▁ўзор	-10.4221
▁карон	-10.4222
▁сустрака	-10.4222
▁абрад	-10.4223
▁кла	-10.4224
▁выпуск	-10.4229
▁Рос	-10.4235
мена	-10.4236
▁паранены	-10.4239
▁шэсць	-10.4239
▁сход	-10.424
дуць	-10.4241
ток	-10.4241
ук	-10.4242
▁сапраўдны	-10.4245
▁мал	-10.4247
▁Гл	-10.4248
▁Эль	-10.4259
▁ведаў	-10.426
▁шкод	-10.4262
аваныя	-10.4263
▁басейна	-10.4263
▁зоркі	-10.4263
▁ўнутрана	-10.4265
вара	-10.4266
віла	-10.4267
дала	-10.4268
▁гандл	-10.4268
▁Хрыста	-10.4273
▁літаратура	-10.4276
▁пан	-10.4276
▁Рэспубліцы	-10.4279
пэўн	-10.4287
▁міфалогіі	-10.4288
▁Ужо	-10.4295
▁фота	-10.4297
▁архітэктара	-10.4302
▁прызнаны	-10.4311
▁характэрна	-10.4312
▁хутчэй	-10.4312
▁ізноў	-10.4312
ica	-10.4315
op	-10.4316
▁адрозніваюцца	-10.4316
▁штаба	-10.4319
▁навучальны	-10.4319
▁Бэ	-10.432
Казахстанска	-10.4327
▁Асноўны	-10.4331
шых	-10.4332
еры	-10.4334
▁дыстанцы	-10.4338
▁Шмат	-10.4339
▁суп	-10.4342
▁абодва	-10.4343
плыв	-10.4344
▁праблема	-10.4345
▁крэпасці	-10.4345
ill	-10.4348
▁усход	-10.4354
▁суправаджа	-10.4354
▁адкрыццё	-10.4355
▁двара	-10.4356
▁кампазітар	-10.4366
мат	-10.4367
шаў	-10.4367
▁вызвалення	-10.4368
▁складалі	-10.4369
▁педагог	-10.437
▁Эй	-10.4372
▁пашыраны	-10.4376
▁рысы	-10.438
нікамі	-10.4382
лата	-10.4382
▁наша	-10.4384
▁іслам	-10.4391
▁Фрыдрых	-10.4394
▁групу	-10.4399
▁прыблізна	-10.4403
рная	-10.4407
▁патрэб	-10.4409
шлі	-10.4411
філ	-10.4415
▁сапраўдна	-10.4416
▁маладо	-10.4417
▁адправі	-10.4418
нгі	-10.4419
▁масава	-10.4421
▁выбары	-10.4422
▁61	-10.4422
▁армян	-10.4427
▁праекц	-10.4428
шана	-10.4428
▁веры	-10.4429
фо	-10.443
-5	-10.4438
носі	-10.4438
цк	-10.444
чака	-10.4442
шчык	-10.4445
рынг	-10.4452
▁Дз	-10.4454
▁1980-	-10.4459
▁Прэзідыума	-10.4463
цка	-10.4465
▁La	-10.4467
одзяцца	-10.4468
▁Жу	-10.4468
▁Фры	-10.4479
руж	-10.4479
▁Героя	-10.4479
▁Бру	-10.4482
▁Віцебск	-10.4483
▁здароўя	-10.4487
ph	-10.4487
▁памерла	-10.449
ічныя	-10.4492
▁артыкулаў	-10.4492
▁Суд	-10.4492
▁горна	-10.4497
▁0,2	-10.4498
▁пабліз	-10.4501
▁Буд	-10.4504
нуць	-10.4505
▁паўднёвага	-10.4511
асцей	-10.4518
кол	-10.452
▁Міжнародны	-10.4521
знаўства	-10.4521
▁Універсітэт	-10.4521
ргі	-10.4523
▁глыбока	-10.4529
▁паражэнне	-10.453
▁Запа	-10.4534
▁склікання	-10.4535
ніцтва	-10.4542
▁пункты	-10.4545
дана	-10.4549
▁пісьменніка	-10.4555
▁яві	-10.456
▁Прэзідэнт	-10.4569
▁гульня	-10.457
▁Ar	-10.4573
▁народнага	-10.4574
льнасць	-10.4576
▁баі	-10.4577
▁тавары	-10.4587
▁ўзрост	-10.4589
▁багата	-10.459
▁Луі	-10.4591
▁Мік	-10.4596
▁ўмовах	-10.4597
ka	-10.4598
яне	-10.4599
▁эк	-10.4604
▁завершаны	-10.4605
стае	-10.461
▁снукер	-10.4612
▁Джо	-10.4613
▁карэ	-10.4613
льніка	-10.4613
▁абодвух	-10.4614
▁Кіеўска	-10.4616
▁Дзвін	-10.4616
▁парафі	-10.4617
▁зоны	-10.4618
▁1864	-10.4619
▁Гала	-10.4619
▁сялянска	-10.4619
▁адбыліс	-10.4621
ри	-10.4622
сьці	-10.4622
▁тэатры	-10.4623
▁карціны	-10.4627
▁Ch	-10.4627
▁місі	-10.4628
▁зносін	-10.463
▁абвясціл	-10.4631
▁паста	-10.4632
▁тай	-10.4635
▁жывапісу	-10.4639
▁продаж	-10.464
дкі	-10.464
▁відэа	-10.4641
▁рэйтынгавы	-10.4642
▁гэтую	-10.4643
▁Каўказ	-10.4646
ci	-10.4648
▁мыс	-10.4648
▁Будынак	-10.4648
▁працягваў	-10.4648
▁Закон	-10.4652
▁манет	-10.4654
▁62	-10.4654
маты	-10.4655
▁асновы	-10.4657
▁названа	-10.4658
▁фізікі	-10.4658
▁Берагі	-10.4659
нута	-10.466
дка	-10.4663
▁Усходні	-10.4665
еўскага	-10.4668
▁зямлю	-10.4674
▁жонкай	-10.4676
еты	-10.4676
▁Інд	-10.4677
▁Ван	-10.4679
▁краіна	-10.4679
гран	-10.4679
▁крэпасць	-10.4682
▁прыйшоў	-10.4683
▁Ёс	-10.4684
▁адрознівае	-10.4689
▁дачыненні	-10.4691
▁Сербіі	-10.4691
▁хімічна	-10.4691
коль	-10.4692
▁абаронца	-10.4692
▁Кіт	-10.4696
агу	-10.4699
▁дывізіён	-10.4699
▁тлумачы	-10.4699
▁−	-10.4699
▁адпаведны	-10.47
▁Юрый	-10.47
▁еўра	-10.4702
вуч	-10.4704
НК	-10.4706
▁Франк	-10.4708
▁акадэмі	-10.471
▁цел	-10.471
▁лета	-10.4712
цяж	-10.4712
▁h	-10.4717
▁Возера	-10.4717
пс	-10.4718
▁адзначаны	-10.4719
▁Асабліва	-10.4724
гадова	-10.4729
▁Клімат	-10.4732
▁слуп	-10.4733
авымі	-10.4733
лос	-10.4734
оід	-10.4734
▁часе	-10.4735
перы	-10.4735
id	-10.4736
▁муж	-10.4737
ілі	-10.474
▁кур	-10.4741
▁механізм	-10.4743
▁выходзіць	-10.4743
▁стану	-10.4748
овак	-10.4751
▁каштоўны	-10.4751
льнымі	-10.4752
▁Sc	-10.4752
▁члены	-10.4752
▁падзея	-10.4757
вацца	-10.4758
рослы	-10.476
▁Кветк	-10.4761
▁апынуў	-10.4767
ката	-10.4768
▁крэ	-10.4772
клаў	-10.4784
▁зялёны	-10.4785
нічы	-10.4788
▁стая	-10.4791
мара	-10.4791
▁спаборніцтва	-10.4792
▁адпавядае	-10.4794
▁перанос	-10.4795
▁праводзя	-10.4797
ніз	-10.4801
▁каманду	-10.4802
▁дазвол	-10.4802
▁Верхня	-10.4803
рады	-10.4805
▁шча	-10.4809
▁Эд	-10.4812
▁барока	-10.4821
▁табліц	-10.4821
ізацыі	-10.4823
▁Роберт	-10.4824
лог	-10.4825
лым	-10.4825
▁масавы	-10.4827
рос	-10.4827
▁Фо	-10.4829
гла	-10.4829
▁Прэ	-10.4829
▁гімназіі	-10.4829
▁Аўстра	-10.483
кары	-10.483
леп	-10.4832
▁рэзка	-10.4838
▁каш	-10.4838
▁вала	-10.484
кас	-10.4846
▁чын	-10.4847
▁Вялікім	-10.4848
▁аднаві	-10.4848
▁схіла	-10.485
▁Англія	-10.4852
▁КПСС	-10.4855
▁агульным	-10.4862
годдзя	-10.4865
▁Вуліца	-10.4865
▁траўм	-10.4871
▁Фла	-10.4871
аснову	-10.4874
тавы	-10.4875
▁кампазіцыі	-10.4879
▁рэчываў	-10.4879
▁выраз	-10.4882
▁эры	-10.4885
▁здыма	-10.4885
▁бяс	-10.4888
льні	-10.4892
▁здабы	-10.4894
▁Фер	-10.4895
кладзена	-10.4895
▁Купалы	-10.4896
▁неза	-10.4897
льцы	-10.4898
▁фрагмент	-10.4899
▁Гродзенска	-10.4903
▁дасягну	-10.4903
▁він	-10.4905
▁In	-10.4909
плыў	-10.4912
▁каль	-10.4914
▁пач	-10.4914
▁войск	-10.492
віт	-10.4921
▁Баг	-10.4922
▁зона	-10.4923
йскія	-10.4928
ry	-10.4928
▁аўтарам	-10.4931
новіч	-10.4933
▁зацверджаны	-10.4934
▁цэнтральны	-10.4936
▁паказчык	-10.4938
▁66	-10.4938
няты	-10.4939
▁родна	-10.4943
▁Румыніі	-10.4943
пол	-10.4945
▁паслуг	-10.4945
▁Сярэдня	-10.4945
чанка	-10.4947
gt	-10.4947
▁помніка	-10.4949
чоў	-10.495
▁сло	-10.495
▁дыск	-10.4951
▁штурм	-10.4953
▁сямі	-10.4956
mo	-10.4956
▁партый	-10.4958
▁плоска	-10.496
▁масы	-10.496
ведзены	-10.496
▁рускі	-10.496
▁выкладчык	-10.4961
▁вылуча	-10.4962
▁фла	-10.4963
рада	-10.4963
нга	-10.4964
▁выступіў	-10.4966
ge	-10.4968
▁e	-10.4972
▁Міхал	-10.4972
▁заклік	-10.4972
ot	-10.4974
онаў	-10.4976
▁дзяржаўным	-10.4977
▁Лондан	-10.4977
▁дастаткова	-10.4978
▁68	-10.4982
▁Права	-10.4982
ти	-10.4983
▁арэн	-10.499
аве	-10.4992
▁Дзю	-10.4992
але	-10.4992
▁ал	-10.4993
▁ана	-10.4994
▁мінулым	-10.4995
▁арбіт	-10.4995
▁выклада	-10.4997
▁Нясвіж	-10.4998
кур	-10.5001
▁72	-10.5003
▁Вільгельм	-10.5005
▁парламент	-10.5009
▁прайшлі	-10.5014
▁ўдзельнічаў	-10.5017
▁душ	-10.5021
▁вядучы	-10.5021
▁здзяйсня	-10.5022
▁пакалення	-10.5023
рыт	-10.5024
▁рукі	-10.5024
бліз	-10.5025
▁часова	-10.5027
▁герцагства	-10.5027
▁заліў	-10.5028
▁труб	-10.5029
▁гармат	-10.5031
▁манархі	-10.5033
гул	-10.5037
жэн	-10.5038
▁De	-10.504
▁гледжання	-10.504
рва	-10.5041
▁дзейнічае	-10.5044
▁межам	-10.5045
▁Інстытут	-10.5048
U	-10.5053
▁Мал	-10.5055
▁памяці	-10.5058
альнай	-10.5058
▁ўладанні	-10.506
▁спецыяльнасц	-10.5065
▁значн	-10.5067
▁стварыць	-10.5067
авіча	-10.5068
▁мужа	-10.5069
▁бібліятэкі	-10.5074
▁адкрыцця	-10.5076
▁рук	-10.5083
▁сходу	-10.5085
▁залежыць	-10.5085
▁будуча	-10.5085
альная	-10.5088
ногі	-10.5089
▁Аляксандравіч	-10.509
▁газ	-10.509
▁называлі	-10.5091
▁кампанент	-10.5094
граф	-10.5097
▁Крас	-10.5098
бой	-10.5099
стычна	-10.5106
▁твар	-10.5107
йшло	-10.5108
▁шведскі	-10.5109
▁невядома	-10.511
▁друкава	-10.5111
шэн	-10.5112
▁the	-10.5113
▁каралеўскі	-10.5117
▁Іва	-10.5117
чук	-10.5118
▁такога	-10.5119
▁каманд	-10.5123
▁Цар	-10.5127
▁выбух	-10.513
▁апошнім	-10.5134
▁прыпыначны	-10.5136
▁Еўра	-10.5137
ож	-10.5139
▁прамавугольны	-10.5139
▁правінцый	-10.5142
тр	-10.5142
▁Таварыства	-10.5147
ow	-10.5149
▁долараў	-10.5149
▁летні	-10.515
▁прэмія	-10.5151
▁бен	-10.5153
ніверсітэце	-10.5153
▁князем	-10.5156
▁уладай	-10.5158
▁Лондане	-10.5158
▁Бял	-10.516
уючы	-10.516
▁ападка	-10.5161
▁Бас	-10.5162
дна	-10.5164
▁падрыхтоўк	-10.5165
▁здольны	-10.5165
de	-10.5167
▁тро	-10.517
▁флоту	-10.5175
▁мястэчк	-10.5175
▁Беларускім	-10.5176
▁ке	-10.5177
фан	-10.5179
гру	-10.5179
▁Аўгуста	-10.5179
▁іншы	-10.5181
▁будынкі	-10.5183
▁хаце	-10.5184
▁ес	-10.5188
-6	-10.5194
▁незалежна	-10.5198
▁правым	-10.5198
▁віду	-10.5199
ваны	-10.5201
▁забеспячэння	-10.5203
▁ўдзельніча	-10.5205
▁Бога	-10.5205
льма	-10.5207
▁раўнін	-10.5209
▁Міхайлавіч	-10.521
0-	-10.5213
▁ўзровень	-10.5216
▁Пакольк	-10.5221
▁парты	-10.5221
▁Лін	-10.5223
сныя	-10.5224
▁Доктар	-10.523
КА	-10.5235
▁раўна	-10.5235
▁балот	-10.5236
▁Гомеля	-10.5238
▁зроблена	-10.5238
▁кал	-10.5238
нуты	-10.5239
-10	-10.524
▁Часам	-10.5241
▁пасада	-10.5244
▁вёсак	-10.5247
▁трэця	-10.5254
▁мяса	-10.5256
▁дарозе	-10.5256
дэнт	-10.526
▁палас	-10.5261
▁кол	-10.5263
▁выкладаў	-10.5263
▁магн	-10.5265
▁Лісце	-10.5267
▁невядомы	-10.5271
▁Сям	-10.5272
▁Балгарыі	-10.5274
▁шведска	-10.5284
▁належаць	-10.5284
ір	-10.5286
▁падзяля	-10.5288
▁69	-10.5292
карэспандэнт	-10.5301
▁паводзін	-10.5301
▁67	-10.5301
▁набыў	-10.5306
лег	-10.5311
▁знаходжанн	-10.5311
ркі	-10.5311
▁1920-	-10.5313
шага	-10.5319
▁Al	-10.5326
▁вера	-10.5327
нуў	-10.5328
▁Браслаўскі	-10.5329
▁распрацаваны	-10.5331
кім	-10.5333
ліз	-10.5334
▁Mar	-10.5335
▁барабан	-10.5338
▁мета	-10.5338
▁войскам	-10.534
вымі	-10.5347
стыя	-10.535
▁працуюць	-10.5355
▁Злучаны	-10.5356
▁цячэнні	-10.5357
▁Порт	-10.5359
▁сцэна	-10.5365
▁вуз	-10.5367
.1	-10.5367
▁8-	-10.5367
▁Дзярж	-10.5368
▁бл	-10.5371
ходзіў	-10.5372
▁Ліп	-10.5374
▁Ірландыі	-10.5374
▁абазначэнне	-10.5374
▁Нобелеўска	-10.5376
юр	-10.5376
▁Радзівіл	-10.5379
▁сабо	-10.538
▁круг	-10.5381
▁пасёлк	-10.5385
▁Барыс	-10.5385
▁прысуд	-10.5389
ета	-10.5392
▁лабараторы	-10.5393
▁ўдар	-10.5393
льнікам	-10.5395
▁злучаны	-10.5395
▁старэйша	-10.5403
▁1890	-10.5404
▁захоўвае	-10.5406
▁развіты	-10.5406
▁ідзе	-10.5406
▁спадарожнік	-10.5411
▁дыс	-10.542
▁хваробы	-10.5421
▁Кер	-10.5421
▁гаспадарка	-10.5422
▁знешні	-10.5425
▁чыгуначны	-10.5426
дзіць	-10.5427
еўскі	-10.5429
▁ацэнк	-10.5431
▁змог	-10.5432
▁Літве	-10.5433
▁кантакт	-10.5433
▁магутны	-10.5435
▁горы	-10.5436
пор	-10.5437
▁выкананне	-10.5438
▁робіць	-10.5439
▁маштаб	-10.544
▁атрыманы	-10.5441
краін	-10.5442
▁Ген	-10.5443
вес	-10.5444
кты	-10.5444
▁хрысціянскі	-10.5445
▁Бог	-10.5446
▁Бразіліі	-10.5448
▁канферэнцыі	-10.5448
▁земляробства	-10.5451
ступіць	-10.5453
▁зарад	-10.5458
▁жаночы	-10.5459
▁ледавік	-10.546
▁дарог	-10.5465
▁замуж	-10.5467
▁лясны	-10.5468
▁парод	-10.5472
▁зоне	-10.5472
гары	-10.5478
▁бег	-10.5479
лец	-10.5479
▁слоўнік	-10.5481
леж	-10.5484
ўкі	-10.5485
▁фізічны	-10.5486
▁пакры	-10.5487
▁падыход	-10.5494
▁сабраны	-10.5494
▁арнамент	-10.5495
▁выканання	-10.5497
▁Дняпра	-10.5498
ндр	-10.5499
▁Варшаве	-10.55
▁Гары	-10.5502
▁рухавік	-10.5506
▁змага	-10.551
▁метал	-10.5511
▁апрацоўк	-10.5515
▁Рады	-10.5515
▁тэоры	-10.5516
вян	-10.5517
▁Ор	-10.5522
вей	-10.5522
▁ускраін	-10.5523
▁Тэрмін	-10.5526
▁змяніў	-10.5531
▁астравах	-10.5532
▁Бан	-10.5533
▁Смаленска	-10.5534
▁метады	-10.5536
▁невялікія	-10.5541
▁неаднаразова	-10.5541
▁Андрэ	-10.5543
▁v	-10.5546
▁астра	-10.555
▁заканчэнні	-10.555
▁васьмі	-10.5551
▁страціў	-10.5551
▁падзялі	-10.5552
▁Самы	-10.5556
руш	-10.5556
▁далёка	-10.556
▁праведзена	-10.5565
▁архітэктурны	-10.5569
▁зямля	-10.557
▁супер	-10.5571
▁завода	-10.5574
▁росту	-10.5576
▁Максім	-10.5577
▁гварды	-10.5578
▁акіян	-10.5581
йскую	-10.5582
▁Юлі	-10.5582
кле	-10.5585
▁каардынат	-10.5588
▁сеткі	-10.5588
▁трапіў	-10.5589
▁пастаўлены	-10.559
кта	-10.5592
▁Ката	-10.5595
ліку	-10.5597
and	-10.5598
▁бачы	-10.5602
▁жывёлы	-10.5605
▁далучыў	-10.5608
▁куды	-10.5609
▁пакрыты	-10.5609
▁дыяметр	-10.561
▁літара	-10.5615
▁выявы	-10.5615
▁непры	-10.5617
▁0,3	-10.562
▁вынікам	-10.562
дру	-10.5627
▁уласна	-10.5627
▁сан	-10.5628
алагічна	-10.5628
зіі	-10.563
▁начальніка	-10.5631
W	-10.5633
ліца	-10.5633
▁мусульман	-10.5634
пт	-10.5634
▁Тор	-10.5634
▁задач	-10.5635
▁аўтамабільна	-10.5641
▁абароне	-10.5641
▁рэспубліканска	-10.5645
▁палітыку	-10.5646
▁матэматык	-10.5648
▁савецка	-10.565
▁бура	-10.565
▁нафта	-10.5651
▁Сту	-10.5652
▁гіпотэз	-10.5654
▁належала	-10.5654
▁цягнік	-10.5657
▁800	-10.5663
▁імператарам	-10.5666
▁Міністра	-10.5667
▁Паўночны	-10.5669
▁аг	-10.567
годы	-10.5671
▁вуліц	-10.5671
▁груз	-10.5676
▁досы	-10.5676
▁Цю	-10.5678
▁кампазіцы	-10.5679
▁Me	-10.5682
▁Георг	-10.5693
▁1970-	-10.5699
▁рок	-10.5703
▁прастора	-10.5703
po	-10.5711
чаты	-10.5717
▁перамо	-10.5718
▁заваява	-10.572
шты	-10.5721
▁літаратур	-10.5722
▁існавал	-10.5724
▁ідэя	-10.5724
неслі	-10.5725
▁прыватна	-10.5725
▁прамы	-10.5725
кру	-10.5728
▁вылучы	-10.5729
▁будава	-10.5732
даюць	-10.5735
▁Шатландыі	-10.5739
▁Брытанска	-10.574
▁Указам	-10.574
рамі	-10.574
шкевіч	-10.5744
▁лігі	-10.5744
▁екты	-10.5745
▁поўны	-10.5747
▁унутраны	-10.5749
▁1960-	-10.5751
▁вучн	-10.5753
цвер	-10.5757
шчыны	-10.5768
▁дырэктарам	-10.5768
▁сядзіб	-10.5768
▁Веранікі	-10.5769
коп	-10.5773
▁самі	-10.5777
▁пагадненне	-10.5777
▁ажыццяўляе	-10.5778
▁крыв	-10.5784
do	-10.5786
▁59	-10.5786
▁Старажытна	-10.5787
▁74	-10.5787
▁парт	-10.5789
▁вёў	-10.5791
▁Вера	-10.5792
▁спектакл	-10.5797
▁птушка	-10.5797
▁класіфікацы	-10.5797
кала	-10.5797
веры	-10.5798
тап	-10.5802
ab	-10.5803
ніста	-10.5803
▁фе	-10.5808
▁трапічны	-10.5809
▁ўстанова	-10.5813
▁Рымскі	-10.5817
наму	-10.5821
▁араб	-10.5823
▁Перш	-10.5824
леныя	-10.5824
▁Тэр	-10.5826
▁паўста	-10.5827
▁Герман	-10.5829
▁спрыял	-10.5833
▁пакінул	-10.5834
▁дамен	-10.5834
соб	-10.5835
▁увайшоў	-10.5835
▁вод	-10.5835
▁архі	-10.5837
творчасць	-10.5838
▁матч	-10.5841
маглі	-10.5842
▁Пру	-10.5842
▁Міхаіла	-10.5843
таль	-10.5843
іт	-10.5845
▁стрэл	-10.5849
нны	-10.5849
раш	-10.585
▁супрацоўніцтва	-10.5851
▁цэглы	-10.5854
моўны	-10.5855
▁ракет	-10.5857
рэч	-10.5857
▁прамысловасць	-10.5858
рта	-10.5863
▁родаў	-10.5865
▁важна	-10.5867
разовы	-10.5867
нята	-10.587
▁Дняпро	-10.5872
▁Яшч	-10.5874
▁вопыт	-10.5874
▁шука	-10.5875
▁Аляксей	-10.5883
▁1903	-10.5889
▁1830	-10.5893
▁скопішча	-10.5893
▁вяршын	-10.5896
▁Міха	-10.5897
▁якімі	-10.5898
зяць	-10.5901
▁узнагарод	-10.5905
тынг	-10.5908
▁партызанска	-10.5909
▁засталіся	-10.591
▁адноўлены	-10.5912
▁істотна	-10.5917
▁пік	-10.5919
зава	-10.5921
▁харчова	-10.5921
▁скарб	-10.5925
▁займаюць	-10.5927
будаваны	-10.593
ba	-10.593
▁апынулася	-10.5932
дзял	-10.5932
пін	-10.5933
▁свабодны	-10.5934
▁ажаніў	-10.5934
▁кірава	-10.5936
▁Акадэмі	-10.5939
▁абвешчаны	-10.5941
▁Кана	-10.5946
va	-10.5946
▁ўнутры	-10.5947
Пецярбург	-10.5948
▁немагчыма	-10.5951
▁верш	-10.5952
▁натуральна	-10.5953
восень	-10.5957
▁перакладзе	-10.596
▁чалавеча	-10.5962
▁далучы	-10.5963
нера	-10.5963
баў	-10.5966
▁плана	-10.5971
▁рымлян	-10.5971
▁буйно	-10.5975
ымі	-10.5976
▁Бяроза	-10.5976
▁раўнд	-10.5977
▁выкарыстоўвалі	-10.5979
▁старшы	-10.5979
▁Вышыня	-10.598
▁звярта	-10.5982
▁дзейнічала	-10.5984
▁абіра	-10.5989
▁Ала	-10.5991
жка	-10.5992
▁паверхня	-10.5995
▁сяброў	-10.5997
▁Была	-10.5998
▁Акмолінска	-10.6
▁цепла	-10.6
▁якому	-10.6001
▁святар	-10.6002
▁Кітай	-10.6003
▁карціна	-10.6004
▁абавязкі	-10.601
▁спалуча	-10.6013
▁Сара	-10.6015
▁Анты	-10.6016
▁медаль	-10.6016
▁пліт	-10.6017
▁кропка	-10.6019
×	-10.6019
▁тэхнікі	-10.602
▁настаўнік	-10.602
▁Ro	-10.6022
▁артыкул	-10.6022
▁Глеб	-10.6025
▁традыцыя	-10.6027
▁мяжу	-10.6029
▁Адначасова	-10.6029
▁дарога	-10.603
▁вядомым	-10.6031
рун	-10.6038
▁дарогі	-10.6039
▁армію	-10.6039
▁дзяржавай	-10.6048
▁дывізія	-10.6049
▁недахоп	-10.6049
▁памяць	-10.605
▁прысутніча	-10.6052
▁Два	-10.6054
▁Божай	-10.6054
▁рэчы	-10.6056
▁Партугаліі	-10.6059
▁сакратаром	-10.6061
▁Рак	-10.6063
▁Мат	-10.6066
▁смерць	-10.6067
▁плошчай	-10.6067
▁ядра	-10.6073
▁прычын	-10.6077
▁71	-10.6077
▁Брэст	-10.6079
▁хар	-10.6079
▁прамыслова	-10.6089
idae	-10.6092
▁клубам	-10.6092
▁транспарт	-10.6092
▁дысцыплін	-10.6098
▁філосаф	-10.6098
▁Валасы	-10.6099
▁вывучэнне	-10.6102
▁An	-10.6102
несці	-10.6103
▁царкоўны	-10.6108
кет	-10.6109
▁пытаннях	-10.6113
▁Санта	-10.6116
▁матэрыялы	-10.6119
▁1812	-10.6124
▁дагэтуль	-10.6128
эта	-10.6129
▁братоў	-10.613
▁крыві	-10.6136
▁яўляліся	-10.6138
▁85	-10.6142
▁супольнасці	-10.6143
ПС	-10.6146
▁збудавання	-10.6148
▁акрузе	-10.6148
▁Свяшчэнна	-10.6148
▁гімна	-10.6151
мал	-10.6153
▁нямецкім	-10.6154
▁73	-10.6154
▁царкву	-10.6155
▁звыча	-10.6156
права	-10.6158
йным	-10.6159
▁знайсці	-10.616
вел	-10.6164
▁існаваў	-10.6164
▁сцены	-10.6164
радзі	-10.6166
▁захапіў	-10.6166
▁германск	-10.617
▁Марцін	-10.617
▁бронзавы	-10.6174
▁маленькі	-10.6178
▁характарыстык	-10.6178
▁зім	-10.6183
джва	-10.6183
▁дадзены	-10.6185
біць	-10.6186
▁дырэктара	-10.6192
▁Кіеў	-10.6193
▁літ	-10.6194
▁спе	-10.6199
ag	-10.6201
▁складана	-10.6204
▁Магілёў	-10.6206
▁сек	-10.6207
родзе	-10.6207
▁вывучэння	-10.6208
рс	-10.6216
▁расход	-10.6216
▁аўтобус	-10.6217
▁аперацыя	-10.6221
▁яўленне	-10.6225
▁выразна	-10.6226
▁сухі	-10.6226
▁шара	-10.6227
▁перапіс	-10.6228
▁лікаў	-10.6228
сіць	-10.6228
жэння	-10.6229
▁Гомельска	-10.623
▁ХХ	-10.6231
▁моладзі	-10.6232
тнай	-10.6233
▁r	-10.6235
▁Тай	-10.6236
▁шэрагам	-10.6238
▁Аўгуст	-10.6242
▁захоплены	-10.6244
mi	-10.6245
▁стагоддзе	-10.6247
▁прафесійна	-10.6253
▁Прад	-10.6255
▁наяўнасць	-10.626
▁Пэ	-10.6263
▁ўладальнік	-10.6265
amp	-10.6266
▁археолаг	-10.6267
▁кангрэс	-10.6268
▁Іншыя	-10.6268
ленд	-10.627
▁складзены	-10.6276
ндзі	-10.628
▁арміяй	-10.628
▁Y	-10.6282
▁Гал	-10.6284
ічнай	-10.6288
▁Маскоўскага	-10.6288
▁шлюбу	-10.6289
▁Трэця	-10.629
▁працягну	-10.6292
▁адзінак	-10.6294
▁Дубро	-10.6294
▁клімат	-10.6295
▁Люксембург	-10.6298
аўскай	-10.6299
▁Кары	-10.6301
▁тэма	-10.6302
▁славянскі	-10.6303
зму	-10.6304
▁ван	-10.6304
тэт	-10.6306
▁Берлін	-10.6312
▁зразуме	-10.6313
ig	-10.6314
▁ланцуг	-10.6318
▁вызначаны	-10.6319
▁будаўнічы	-10.6319
▁абласця	-10.6319
лізава	-10.632
▁дзейнасц	-10.6324
тку	-10.6324
200	-10.6324
▁заняла	-10.6325
▁Казіміра	-10.6329
▁экспедыцыя	-10.6329
▁нас	-10.6332
▁рэформы	-10.6333
▁фільме	-10.6335
▁ўзброены	-10.6338
▁грошы	-10.6338
▁дасягнула	-10.634
цель	-10.6341
▁бія	-10.6341
экс	-10.6342
▁працягласц	-10.6344
▁Сярге	-10.6344
каўскі	-10.6347
▁гандлёва	-10.6349
▁база	-10.6351
▁альбома	-10.6351
▁выратава	-10.6354
▁гер	-10.6354
▁1870	-10.6355
▁Урад	-10.6355
▁Пецярбург	-10.6358
▁выступ	-10.6361
▁Лука	-10.6362
▁стыль	-10.6363
▁сэрца	-10.6364
▁канала	-10.6365
▁гаспадарчы	-10.6365
▁Бро	-10.6367
пля	-10.6373
▁t	-10.6375
нева	-10.6378
▁Чэмпіён	-10.6379
▁1902	-10.6379
метры	-10.6386
▁ліста	-10.6386
▁любо	-10.6387
ступіла	-10.6389
▁стро	-10.6392
▁Тру	-10.6393
рацыя	-10.6399
▁Фор	-10.6405
віца	-10.6406
▁Егіпта	-10.6409
▁эксплуатацы	-10.6409
▁бога	-10.641
▁краі	-10.641
▁кн	-10.6411
▁сезона	-10.6411
ваннем	-10.6416
льц	-10.6419
▁літар	-10.6419
▁марско	-10.6421
▁банка	-10.6422
▁электрычна	-10.6422
▁неба	-10.6425
▁k	-10.6428
▁нізкі	-10.6429
▁маскоўскі	-10.6431
▁развіцці	-10.6432
шыр	-10.6432
▁драматург	-10.644
▁занятк	-10.6442
tr	-10.6444
НР	-10.6449
▁вызвалі	-10.6451
▁адмаўля	-10.6451
▁Пят	-10.6453
▁памерам	-10.6454
беры	-10.6456
im	-10.6458
▁цячэ	-10.6458
▁1901	-10.6462
става	-10.6464
▁Залата	-10.647
▁неад	-10.647
▁валодае	-10.647
▁каналізавана	-10.647
▁эвалюцы	-10.6481
▁мірна	-10.6482
фар	-10.6483
sh	-10.6485
▁літоўскага	-10.6491
▁сярэдн	-10.6491
ine	-10.6492
▁эфір	-10.6493
білі	-10.6497
▁ўладамі	-10.6498
500	-10.6498
▁Sa	-10.6498
▁снукеры	-10.6506
тс	-10.6508
▁1500	-10.6508
▁Джона	-10.6509
▁ахов	-10.6509
▁Pa	-10.651
▁разбураны	-10.6511
▁Эдвард	-10.6512
целя	-10.6514
▁вымярэння	-10.6521
▁бульб	-10.6522
▁удзельнікаў	-10.6522
▁вакзал	-10.6523
▁заслуг	-10.6526
▁Храм	-10.6527
▁Co	-10.6527
▁Еў	-10.6527
▁вяртання	-10.6527
▁калоніі	-10.6527
ступлення	-10.6529
чэнні	-10.6531
рані	-10.6535
нства	-10.6535
▁незалежны	-10.6537
▁прымае	-10.6538
▁Інстытуц	-10.6542
▁Станіслаў	-10.6542
▁галасоў	-10.6542
ver	-10.6544
уз	-10.6545
бас	-10.6547
▁Нор	-10.6548
цяр	-10.655
▁прадстаўля	-10.6553
▁калекцыя	-10.6554
▁пазнача	-10.6557
▁03	-10.6559
▁стварае	-10.6559
▁персанаж	-10.656
шні	-10.6561
▁хуткасць	-10.6561
▁адрозненні	-10.6563
▁1880	-10.6566
▁рабочых	-10.6567
вак	-10.6567
шчо	-10.6569
▁Памер	-10.657
▁прыхільнікаў	-10.6572
мень	-10.6574
▁неабходны	-10.6575
▁справах	-10.6578
▁ўмовы	-10.6578
▁школ	-10.6584
фы	-10.6586
▁буйна	-10.6587
▁эксперымент	-10.6588
▁масів	-10.6589
парад	-10.6592
▁Прусіі	-10.6594
воз	-10.6595
рэт	-10.66
▁рэзерв	-10.6605
рож	-10.6605
йная	-10.661
калі	-10.6611
▁аўтараў	-10.6613
▁выяўлена	-10.6616
▁даследчык	-10.6617
▁сыр	-10.662
кл	-10.6621
шэнне	-10.6623
▁беларускім	-10.6629
▁цэн	-10.663
бай	-10.6631
▁уласны	-10.6633
all	-10.6634
▁настаўнікам	-10.6636
▁апублікаваў	-10.6637
▁загадаў	-10.6638
▁падня	-10.664
бун	-10.664
хад	-10.6643
аваная	-10.6645
▁прысвечана	-10.6646
▁самага	-10.6647
▁вусця	-10.6648
абілі	-10.6649
ваенн	-10.665
▁газу	-10.6651
▁Канстытуцыі	-10.6656
▁пагроз	-10.6656
рыян	-10.6665
торыя	-10.6665
▁Філіпа	-10.6665
▁ўсходні	-10.6666
▁вадзе	-10.6667
▁поўдня	-10.6667
▁Чырвоны	-10.6668
▁БНР	-10.667
стоў	-10.6671
▁лячэнн	-10.6671
чыка	-10.6672
▁Перу	-10.6681
▁дачкі	-10.6688
чэн	-10.6689
▁Стаў	-10.6689
▁прыбыў	-10.669
▁дамы	-10.6691
равана	-10.6694
вальна	-10.6695
▁далучаны	-10.6696
льскім	-10.6696
▁гран	-10.6703
▁Сацыялістычна	-10.6704
цян	-10.6705
цэвіч	-10.6708
ss	-10.6708
▁пашыры	-10.671
зіць	-10.6711
▁хво	-10.6711
▁правадыр	-10.6712
▁баг	-10.6712
▁квадрат	-10.6714
▁рамана	-10.6714
▁выканаў	-10.6715
нтаў	-10.6719
▁Віцебску	-10.6724
▁Ск	-10.6725
▁снег	-10.6725
сек	-10.6728
▁аўстрыйскі	-10.673
▁цяперашня	-10.673
▁утвораны	-10.673
▁практыка	-10.6732
▁хо	-10.6735
▁спектр	-10.6736
▁крылаў	-10.6736
▁Канстанціна	-10.6741
▁Том	-10.6745
▁шчыт	-10.6748
▁1793	-10.6751
▁экспазіцы	-10.6751
▁ўклад	-10.6752
▁вадо	-10.6754
лагічны	-10.6756
▁расце	-10.6758
шня	-10.676
▁Інтэр	-10.6764
бярэж	-10.6765
анні	-10.6767
гадовая	-10.6768
ікаў	-10.6769
ard	-10.6773
▁баб	-10.6774
бен	-10.6779
▁Дзмітрый	-10.6783
▁тэлебачанн	-10.6783
▁адлюстрава	-10.6784
▁ява	-10.679
▁76	-10.6791
▁выбіра	-10.6792
▁вяр	-10.6794
тараў	-10.6796
▁пласцін	-10.6798
▁набор	-10.6798
▁бер	-10.6801
▁фарміравання	-10.6801
блак	-10.6806
раваў	-10.6806
▁супрацьстая	-10.681
▁брыгады	-10.681
▁Рымска	-10.6812
▁прыстасава	-10.6815
ки	-10.6816
▁цэлы	-10.6816
▁англа	-10.6819
▁бацькам	-10.6819
▁мяжой	-10.6825
▁мяжуе	-10.6826
▁Ляс	-10.6827
▁Le	-10.6829
▁Нёман	-10.683
▁схем	-10.683
▁кожным	-10.6831
▁пастанова	-10.6831
гіна	-10.6835
▁забяспечы	-10.6836
▁Славакіі	-10.6836
руб	-10.6842
▁абмежавана	-10.6845
▁ландшафт	-10.6846
▁газеце	-10.6847
▁сучасным	-10.6848
▁Сібіры	-10.6849
бла	-10.6852
tu	-10.6853
▁акадэмік	-10.6854
▁камандзіра	-10.6856
▁намаляваны	-10.6857
▁глін	-10.6858
▁накірава	-10.6865
завод	-10.6865
▁здзейсніў	-10.6866
збраенн	-10.6867
сал	-10.6875
▁адзнак	-10.6876
▁мінска	-10.6879
▁склалі	-10.6879
▁падання	-10.688
▁бур	-10.6881
▁сведчанн	-10.6888
ho	-10.6891
▁Азербайджана	-10.6892
▁Мор	-10.6893
▁літаральна	-10.6894
▁маёмас	-10.6895
▁вагон	-10.6896
▁перадаў	-10.6896
▁доктара	-10.6897
орт	-10.69
▁аўтара	-10.69
-7	-10.6904
▁філіял	-10.6906
▁жада	-10.6907
▁структура	-10.6908
графічна	-10.691
▁Еўрапейскі	-10.6911
▁1950-	-10.6911
▁130	-10.6914
▁атмасфер	-10.6915
▁сустрэчы	-10.6915
сную	-10.6917
▁Глу	-10.6917
▁катэгорыі	-10.6917
▁Джордж	-10.6917
▁стаўшы	-10.692
▁Магчыма	-10.6921
▁Гро	-10.6924
▁Бран	-10.6925
▁выкарыстоўваліс	-10.6925
▁77	-10.6926
зур	-10.6927
▁еўрапейскай	-10.693
▁вызвалены	-10.6932
▁надзе	-10.6935
уша	-10.6936
▁Мана	-10.6936
ловы	-10.6941
▁Маскву	-10.6943
▁падпарадкоўва	-10.6945
рэм	-10.6946
▁міл	-10.6949
▁паліва	-10.695
▁сонца	-10.6956
▁ўтварае	-10.6957
сацыя	-10.6961
▁глебы	-10.6964
ное	-10.6964
▁памяшкання	-10.6964
дом	-10.6965
▁нацыянальным	-10.6967
▁графік	-10.6967
▁Паўночная	-10.6968
▁расп	-10.6968
ae	-10.6968
▁рускага	-10.6969
▁фінансавы	-10.6969
▁сар	-10.6969
▁Від	-10.6975
▁ярка	-10.6975
▁пасяджэнн	-10.6976
аецца	-10.6978
▁разлік	-10.6979
▁стэп	-10.6979
▁l	-10.698
▁Зо	-10.6984
пушчаны	-10.6985
▁экспарт	-10.6987
▁калегі	-10.6989
▁выбра	-10.6992
▁фармальна	-10.6992
▁адстаўку	-10.6993
▁Дры	-10.6996
▁навучанне	-10.6996
▁вучоб	-10.6997
▁летам	-10.6997
▁грунт	-10.6997
▁Іль	-10.6998
тычную	-10.6999
▁вучыў	-10.6999
▁далейша	-10.6999
вера	-10.6999
▁ўдзельнічал	-10.6999
тная	-10.7
▁выкарыстоўвалас	-10.7002
шо	-10.7002
ліст	-10.7006
▁фан	-10.7007
▁плато	-10.7007
▁характарызуе	-10.7007
▁дэкаратыўны	-10.7007
▁вынікі	-10.7009
▁Твор	-10.701
скімі	-10.7011
▁ўзнік	-10.7014
рыд	-10.7015
▁Свет	-10.7017
▁кітайскі	-10.7019
▁даследчыкі	-10.7019
▁хіміі	-10.7019
▁пункту	-10.7021
▁ручай	-10.7022
▁рука	-10.7027
▁Швецыя	-10.7029
▁Далей	-10.703
▁Выступа	-10.703
▁ўсталява	-10.703
▁Мэ	-10.7031
▁Ціха	-10.7032
▁700	-10.7033
▁мер	-10.7034
▁краю	-10.7034
▁увайшл	-10.7034
▁Хай	-10.7035
▁танца	-10.7035
жэнне	-10.7036
▁млын	-10.7037
▁Бла	-10.7039
▁архібіскуп	-10.704
▁Сабор	-10.7045
▁Бір	-10.7052
▁магла	-10.7053
▁дамаг	-10.7054
▁абра	-10.7054
▁камень	-10.7054
▁жоўта	-10.7059
-15	-10.7064
ть	-10.7067
▁вёск	-10.7067
▁нарадзілас	-10.7073
▁зрабіла	-10.7073
чата	-10.7078
гель	-10.708
▁Джы	-10.7083
ніц	-10.7084
▁фаз	-10.7087
▁напісанн	-10.7087
▁камандуючы	-10.7088
▁Дыя	-10.7089
▁Ордэн	-10.7093
▁етнам	-10.7094
▁зыход	-10.7097
▁Пераможца	-10.7099
▁выхаду	-10.71
дына	-10.71
▁Лаўрэат	-10.7105
▁велічыня	-10.7105
▁украінскі	-10.7106
▁бацькоў	-10.7108
▁Чэмпіянат	-10.7108
▁ўзнікла	-10.7113
▁Пале	-10.7114
▁караблёў	-10.7116
джана	-10.7117
▁грамадзянскі	-10.7118
▁нічо	-10.712
▁ход	-10.7121
▁Гарад	-10.7125
Пецярбургу	-10.7127
▁армянска	-10.7128
ской	-10.7129
ld	-10.713
▁рэгулярна	-10.7138
▁Антон	-10.7142
▁ваенн	-10.7142
▁Клім	-10.7144
▁важным	-10.7148
▁глыбокі	-10.7149
▁аўтаномна	-10.7149
▁сказа	-10.7153
рская	-10.7153
рама	-10.7153
▁даліна	-10.7157
▁рэальна	-10.7158
▁пратэст	-10.7159
▁паняцце	-10.716
падаюць	-10.7161
кіна	-10.7161
▁трывала	-10.7164
гарад	-10.717
▁апісвае	-10.7172
▁1795	-10.7172
▁1,2	-10.7177
▁дзіцяча	-10.7177
▁гарнізон	-10.7182
▁пераходзі	-10.7184
ступілі	-10.7185
кат	-10.719
▁вільготны	-10.7193
▁партнёр	-10.7193
ніку	-10.7199
▁рыф	-10.72
▁Рэчышча	-10.7201
▁хлопчык	-10.7204
▁Клі	-10.7207
▁геа	-10.7207
луч	-10.7209
▁Радзівіла	-10.7213
кавая	-10.7224
▁160	-10.7224
▁страў	-10.7226
▁ёму	-10.7226
бары	-10.7228
▁Частка	-10.7236
▁зрабілі	-10.7237
анскі	-10.7238
▁органы	-10.7241
▁навучальна	-10.7242
▁0,4	-10.7242
▁вярта	-10.7243
▁адкуль	-10.7243
▁праўлення	-10.7248
▁руд	-10.7249
▁выкарыстаны	-10.725
▁Мара	-10.725
▁класічны	-10.7251
піра	-10.7253
▁Казахстан	-10.7254
▁Мікала	-10.7254
▁Мінская	-10.7257
di	-10.7257
▁верх	-10.7257
▁носі	-10.7257
▁Афін	-10.7258
▁знойдзена	-10.7259
▁Валын	-10.7262
лета	-10.7264
чыся	-10.7265
▁Кон	-10.727
▁рэферэндум	-10.727
▁ўзвышша	-10.727
▁мыш	-10.7271
▁Іспанія	-10.7273
▁бярэ	-10.7274
ke	-10.7275
-16	-10.7276
біты	-10.7278
ату	-10.7279
арам	-10.7279
тас	-10.7283
▁няз	-10.7286
▁труп	-10.7286
▁Былі	-10.7287
альнага	-10.7292
▁пейзаж	-10.7293
▁малекул	-10.7293
лавы	-10.7293
▁Аса	-10.7294
▁японска	-10.7295
▁аперацый	-10.7296
▁вышыню	-10.7297
▁старажытнасці	-10.7298
▁публіцыст	-10.7306
рэнц	-10.7307
сюль	-10.7313
▁любі	-10.7313
▁Стакгольм	-10.7315
▁дэмакраты	-10.7315
▁хаке	-10.7315
Па	-10.7317
▁працягла	-10.7318
▁адлеглас	-10.7321
мені	-10.7324
▁маркі	-10.7325
▁Пабудавана	-10.7326
▁сусвет	-10.7328
▁Перс	-10.733
▁піша	-10.733
▁працэсу	-10.733
▁выра	-10.7334
▁1860	-10.7335
á	-10.7337
▁ворага	-10.734
▁пасту	-10.7349
▁важн	-10.735
▁Полацка	-10.7351
лігі	-10.7352
бел	-10.7352
літ	-10.7353
▁войнаў	-10.7353
▁04	-10.7356
рман	-10.7364
▁аналіз	-10.7365
▁Томас	-10.7367
▁занялі	-10.7368
лат	-10.737
▁вывучаў	-10.7371
▁выток	-10.7373
▁павялічы	-10.7377
$	-10.7382
▁апсіда	-10.7382
▁злуч	-10.7384
▁помнікі	-10.7384
дамі	-10.7385
▁Гарадзе	-10.7385
▁Каро	-10.739
▁выкарыстаннем	-10.739
▁сцэн	-10.7391
▁голас	-10.7394
▁нейкі	-10.7398
▁залы	-10.7402
▁сабак	-10.7402
нных	-10.7402
сцямі	-10.7403
▁Іл	-10.7403
біта	-10.7404
▁блок	-10.7405
туль	-10.7405
PM	-10.7406
▁гроша	-10.7406
лярны	-10.7407
све	-10.7407
▁віна	-10.7408
▁мен	-10.7412
▁падтрымкі	-10.7415
▁Ленінград	-10.7415
▁выконвае	-10.7415
▁спрабаваў	-10.7416
▁апошняй	-10.7417
нса	-10.7418
ви	-10.742
▁захапілі	-10.7423
тын	-10.7423
▁старажытнагрэч	-10.7426
▁дадзеныя	-10.7427
маёр	-10.7427
▁інтарэс	-10.7427
ex	-10.7428
▁дасягнуў	-10.7428
▁скульптуры	-10.7431
шына	-10.7431
▁незалежнай	-10.7432
▁тонкі	-10.7436
▁абазначэння	-10.7438
ўскае	-10.7439
▁рэкорд	-10.7439
тнага	-10.7441
▁даста	-10.7445
▁развіта	-10.7448
▁Чырвон	-10.745
▁рэстаўрацы	-10.745
▁захавання	-10.7451
▁комплексу	-10.7455
▁валют	-10.7456
лізму	-10.7456
▁усім	-10.7457
лэ	-10.7459
▁турэцка	-10.746
▁7-	-10.746
▁Уладзіміравіч	-10.746
соўва	-10.7462
▁чэ	-10.7463
▁караблі	-10.7463
▁выкарыстоўваў	-10.7464
▁прадукт	-10.7464
▁Каш	-10.7466
▁працяг	-10.7467
▁дзвюма	-10.7472
▁каралева	-10.7474
▁Друга	-10.7476
▁Шча	-10.7477
▁змест	-10.7481
▁Сучасны	-10.7484
▁квартал	-10.7485
▁Пастаўскі	-10.7486
▁выкана	-10.7487
▁Кіева	-10.7488
жыва	-10.7493
оўкі	-10.7494
▁памяшканні	-10.7495
▁касмічны	-10.7496
ове	-10.7496
▁Ісус	-10.7496
▁краіну	-10.7497
▁Полацкім	-10.7499
▁спев	-10.75
нгу	-10.7501
▁Сэ	-10.7502
▁лейтэнант	-10.7503
ент	-10.7503
▁аўстра	-10.7504
▁Мюнхен	-10.7506
▁франтах	-10.7506
▁мясцовым	-10.7507
▁Кірава	-10.7515
▁Рам	-10.7515
▁спартыўны	-10.7518
▁вяз	-10.7523
pa	-10.7528
▁Таў	-10.7529
▁патрабуе	-10.7529
▁Баранавіцка	-10.753
▁хатні	-10.7531
▁ўтварэння	-10.7532
лічы	-10.7534
лор	-10.7534
▁газет	-10.7536
▁вузка	-10.7537
▁дыпламат	-10.7539
▁Казімір	-10.754
▁Аўстрыя	-10.754
▁жалеза	-10.7541
▁салецтва	-10.7541
▁квет	-10.7541
▁сутнасц	-10.7542
▁прырод	-10.7545
▁абмежаванн	-10.7548
дні	-10.7551
цёк	-10.7551
▁насякомых	-10.7552
▁Стэфан	-10.7554
▁сведча	-10.7565
▁трэцяга	-10.7569
ападобна	-10.7569
▁максімальна	-10.7573
▁рэгіёнаў	-10.7574
▁паўабаронца	-10.7575
▁хлеба	-10.7575
▁дабра	-10.7576
▁еж	-10.7576
▁магчымы	-10.7577
▁стваральнік	-10.7578
ми	-10.7578
▁прылады	-10.7582
▁педагагічны	-10.7586
▁захапі	-10.759
чэр	-10.7595
▁паслядоўна	-10.7596
▁прыняла	-10.76
сных	-10.7603
▁прыз	-10.7603
▁свайм	-10.7607
▁скончылас	-10.7608
цо	-10.7611
sa	-10.7612
брэ	-10.7614
кос	-10.7617
▁асаблівасці	-10.7617
▁невялікім	-10.7618
▁адкрыва	-10.762
▁ўспамін	-10.762
▁жоўты	-10.762
▁лінзападобна	-10.7621
▁рэзідэнцыя	-10.7621
▁скрыжаванн	-10.7621
▁камісар	-10.7622
▁след	-10.7622
▁працягвае	-10.7623
▁Леанід	-10.7628
▁усталяваны	-10.7629
▁кажу	-10.7629
▁курган	-10.763
▁глеба	-10.7632
▁Усход	-10.7633
▁рабілі	-10.7638
▁сябрам	-10.7638
▁рускія	-10.7641
лярна	-10.7644
▁Вялікае	-10.7645
чыны	-10.7646
▁Атрымаў	-10.7647
▁Алег	-10.7649
▁волі	-10.7649
была	-10.7651
▁Жэ	-10.7654
жна	-10.7655
ніт	-10.7655
▁квантава	-10.7655
▁змешчаны	-10.7655
▁И	-10.7656
▁меркавання	-10.7658
▁Украінска	-10.7659
▁1896	-10.7661
▁Тал	-10.7662
▁занята	-10.7662
▁Мілан	-10.7663
мета	-10.7663
служ	-10.7665
зве	-10.7667
клас	-10.7672
▁Вест	-10.7673
рг	-10.7674
▁даждж	-10.7675
▁папулярна	-10.7678
α	-10.7678
▁недалёка	-10.7678
▁Рычард	-10.7679
▁прыхільнікам	-10.7679
▁істот	-10.7681
▁скляпенн	-10.7682
ин	-10.7683
оле	-10.7684
▁шырокім	-10.7685
▁цягам	-10.7686
▁ўказ	-10.7687
▁захоўваю	-10.7689
становы	-10.769
▁BMW	-10.769
▁патэнцыял	-10.769
▁адправіў	-10.7694
▁сказаў	-10.7694
▁планет	-10.7694
тун	-10.7697
▁выпушчаны	-10.7697
▁сапраўд	-10.7698
▁Маса	-10.7699
ковыя	-10.77
▁назірання	-10.7701
▁імаверна	-10.7702
▁Хал	-10.7706
▁польскім	-10.7706
▁вода	-10.7707
рушэнн	-10.7707
au	-10.7709
падобныя	-10.7711
туш	-10.7711
▁тэхнічна	-10.7712
▁цвёрда	-10.7713
▁Мастэрс	-10.7713
▁Ноўгарад	-10.7713
▁Гвіне	-10.7713
▁купал	-10.7719
берт	-10.772
▁крок	-10.7721
вяшча	-10.7725
▁дэкаратыўна	-10.7725
ніч	-10.7725
be	-10.7727
план	-10.773
▁Яр	-10.7731
▁Паўднёвая	-10.7733
bi	-10.7733
▁рыбы	-10.7733
▁Між	-10.7735
▁другое	-10.7736
▁Чэр	-10.7738
▁падарожжа	-10.7741
▁цэркваў	-10.7741
грама	-10.7742
▁Ірак	-10.7743
▁спец	-10.7744
▁чацвёрты	-10.7748
▁перакана	-10.7749
▁карабля	-10.7749
▁скі	-10.7752
▁1898	-10.7753
▁племя	-10.7754
▁ўзбярэжж	-10.7755
▁прафесара	-10.7756
гел	-10.7758
▁хор	-10.7759
▁перапын	-10.7761
▁цяг	-10.7766
▁Анг	-10.777
▁Узнагароджаны	-10.7772
▁Жо	-10.7772
▁гарах	-10.7775
▁1895	-10.7777
станов	-10.7782
▁Харватыі	-10.7783
ea	-10.7785
▁яўлення	-10.7788
ёны	-10.7789
▁выснов	-10.7791
▁фінансава	-10.7792
▁07	-10.7794
▁нападнік	-10.7794
▁англічан	-10.7795
▁пастаянны	-10.7795
▁паток	-10.7795
▁палеа	-10.7796
▁g	-10.7797
▁пакрыта	-10.78
▁пояс	-10.78
наві	-10.7804
▁прыгарад	-10.7806
несена	-10.7806
▁гвардзейска	-10.7807
▁воін	-10.7808
▁зброя	-10.781
▁Анатоль	-10.7811
▁англ	-10.7812
▁невялікіх	-10.7815
рака	-10.7816
▁лясоў	-10.7818
▁адмысловы	-10.7818
▁старажытнага	-10.7824
будавалі	-10.7827
гавор	-10.783
▁Сталіца	-10.7831
▁сінтэз	-10.7832
віны	-10.7833
▁доказ	-10.7833
▁Раней	-10.7836
щ	-10.784
▁ціску	-10.7841
рук	-10.7841
▁Швейцарыі	-10.7842
▁Кэ	-10.7842
▁зямно	-10.7847
▁распаду	-10.7847
ніцкай	-10.7848
▁Нёмана	-10.7848
▁атмасферы	-10.7849
▁Царквы	-10.7851
▁Вашынгтон	-10.7853
▁Вярхоўны	-10.7853
▁пашыра	-10.7855
▁08	-10.7856
рба	-10.7856
▁Фрэ	-10.7863
пале	-10.7863
▁хвароб	-10.7864
бат	-10.7865
дзілі	-10.7869
▁агляд	-10.7872
si	-10.7874
▁выконваў	-10.7876
▁di	-10.7877
оф	-10.788
▁in	-10.7881
▁ядноўва	-10.7881
▁агульная	-10.7885
▁Валь	-10.7886
▁забарон	-10.7886
завана	-10.7888
▁асуджаны	-10.7889
▁уключае	-10.7889
▁чалавекам	-10.7889
кель	-10.7891
▁робя	-10.7892
▁Брагін	-10.7894
ствам	-10.7895
▁граматы	-10.7897
ell	-10.7898
▁Сталін	-10.7902
▁Месяца	-10.7903
der	-10.7904
▁працягвалі	-10.7905
▁ны	-10.7906
▁жорстка	-10.7907
▁лег	-10.7907
▁110	-10.7909
▁пасялі	-10.7909
▁інструмент	-10.7909
les	-10.7912
▁калектыў	-10.7913
▁венгерска	-10.7916
віты	-10.7921
▁прадпрыемстваў	-10.7922
-17	-10.7923
▁павышэнн	-10.7925
▁паўтара	-10.7929
▁апісанне	-10.7929
▁трап	-10.793
▁вусце	-10.7931
▁паказаў	-10.7932
▁раскры	-10.7932
ыходзіць	-10.7937
▁пакут	-10.7939
▁Арганізацы	-10.794
▁карт	-10.7942
▁Парт	-10.7943
-8	-10.7944
▁разгром	-10.7948
▁грэчаскі	-10.7949
стрэ	-10.7952
віл	-10.7954
бул	-10.7956
▁трэцім	-10.7963
цыяй	-10.7965
▁лічылі	-10.7967
▁святога	-10.7968
▁Ніка	-10.7972
▁каха	-10.7974
▁рэчывы	-10.7976
▁1886	-10.7978
▁універсітэт	-10.798
▁тэр	-10.7981
▁цвёрды	-10.7984
▁этнічны	-10.7984
▁рус	-10.7986
▁Пятровіч	-10.799
▁прадукцыі	-10.7992
руд	-10.7992
▁паспяховы	-10.7996
▁задні	-10.7996
▁рабоча	-10.7996
знікае	-10.7997
he	-10.7997
▁скал	-10.8002
▁правіл	-10.8004
▁кіслат	-10.8005
▁абапіра	-10.8008
▁ніжнім	-10.8008
браны	-10.8013
▁часопісе	-10.8016
▁скасаваны	-10.802
▁належаў	-10.802
▁архітэктурна	-10.802
▁прыняць	-10.8023
▁метро	-10.8026
▁Эл	-10.8026
▁140	-10.8028
tion	-10.8029
▁мес	-10.803
▁тэхнікум	-10.803
рона	-10.8032
▁абмежаваны	-10.8034
nd	-10.8034
▁браў	-10.8037
▁рэлігіі	-10.8037
гэ	-10.8038
лізм	-10.8039
▁ліквідацы	-10.8044
▁Плод	-10.8046
▁замежн	-10.8048
лікам	-10.8051
бле	-10.8052
льнасці	-10.8054
▁зімовы	-10.8054
▁ганаровы	-10.8056
▁участка	-10.8058
▁Кітаі	-10.8058
дума	-10.8058
камп	-10.8058
▁забяспечвае	-10.8062
▁руб	-10.8062
ng	-10.8066
▁будаўніцтве	-10.8068
▁размясці	-10.8068
▁сённяшні	-10.8068
▁кітайска	-10.8069
▁Сёння	-10.807
▁крыху	-10.8071
▁афарбоўк	-10.8073
▁116	-10.8074
шчыне	-10.8074
ненні	-10.808
▁ўзначаліў	-10.808
▁гум	-10.8082
рскім	-10.8083
▁78	-10.8086
0,000	-10.8088
дадзена	-10.8089
▁Скар	-10.8091
▁Навагрудска	-10.8092
▁доўжы	-10.8092
▁Канады	-10.8092
▁рэжысёра	-10.8093
▁Штата	-10.8094
ведам	-10.8094
▁Старшыня	-10.8094
▁перамога	-10.8095
▁Улетку	-10.8099
рата	-10.8099
▁салецтв	-10.8104
лаве	-10.8104
▁фізіцы	-10.8104
▁меркаванне	-10.8105
ru	-10.8105
▁w	-10.8106
▁парадак	-10.8106
▁дваран	-10.8106
▁КПБ	-10.8107
бур	-10.8111
▁файл	-10.8113
▁Генры	-10.8115
▁чацвёрта	-10.8116
▁самалёт	-10.8116
▁выказаў	-10.8116
▁дэбют	-10.8117
▁тыдня	-10.8117
▁студы	-10.8117
▁вернікаў	-10.8119
ит	-10.8124
▁суадносін	-10.8126
▁скуры	-10.8126
▁Абу	-10.8127
▁вучняў	-10.8129
▁газа	-10.8129
▁верхнім	-10.813
▁Кожны	-10.8131
▁набыва	-10.814
каваны	-10.8141
ступіў	-10.8142
▁доступ	-10.8143
▁зялёна	-10.8144
▁Кало	-10.8148
▁Іран	-10.8149
▁Уільям	-10.8152
▁Нідэрландаў	-10.8152
▁Пашыраны	-10.8152
▁разбурэнн	-10.8152
▁Бельгіі	-10.8152
▁групоўк	-10.8153
▁май	-10.8157
▁цуд	-10.8159
▁вугл	-10.8161
▁метра	-10.8162
▁Рыба	-10.8162
▁абавязкова	-10.8163
▁Стэфана	-10.8163
▁манаграфі	-10.8164
▁Прадстаўнік	-10.8164
▁Be	-10.8165
▁немцаў	-10.8166
▁тэатральна	-10.8166
▁пераварот	-10.8166
▁традыцый	-10.8167
віль	-10.8168
▁лічылас	-10.8173
▁юрыдычны	-10.8176
▁Чорны	-10.8177
▁усталява	-10.8177
▁венгерскі	-10.8178
▁Эс	-10.8179
▁кватэр	-10.8181
▁1899	-10.8182
▁1861	-10.8182
▁Чылі	-10.8183
▁эксперыментальн	-10.8183
нейшы	-10.8184
▁прынц	-10.8184
▁завершана	-10.8189
▁рэпрэсі	-10.8189
▁мужчынска	-10.8189
▁ацэньва	-10.8189
▁праём	-10.819
▁армій	-10.8191
▁меркава	-10.8193
▁Роз	-10.8194
▁грэка	-10.8195
▁Савецкі	-10.8196
▁Оскар	-10.8199
▁надвор	-10.82
ki	-10.82
▁узроўні	-10.8201
▁Гла	-10.8202
▁федэрацы	-10.8202
▁армянскі	-10.8203
казан	-10.8207
▁Сто	-10.8207
▁змена	-10.8212
▁дыяметрам	-10.8212
▁паўшар	-10.8213
▁Віс	-10.8215
ud	-10.8216
▁Экс	-10.8218
▁крама	-10.8223
▁ўкраінска	-10.8225
нёў	-10.8226
▁водны	-10.8227
▁наведаў	-10.8229
▁арт	-10.8229
фард	-10.823
▁прызнаў	-10.8233
няць	-10.8233
▁атрымалася	-10.8233
істаў	-10.8235
▁Каралеўска	-10.8235
заходні	-10.8236
▁адноўлена	-10.8237
ina	-10.8238
▁ператвары	-10.8238
▁малодша	-10.8239
▁Генеральна	-10.824
▁шчыльна	-10.8241
эла	-10.8241
▁прыкмет	-10.8246
ковы	-10.8249
▁Заходні	-10.8249
▁сімвалізу	-10.825
▁Раб	-10.825
▁Сапега	-10.825
▁прызначэння	-10.8251
сман	-10.8252
▁званіца	-10.8255
▁прытрымліва	-10.8257
▁святых	-10.8259
▁Напалеона	-10.8266
ft	-10.8267
▁Эк	-10.8269
▁хуткасці	-10.8272
сад	-10.8272
▁супрацоўніча	-10.8274
сбург	-10.8277
▁хры	-10.8277
лявы	-10.828
▁напр	-10.8281
▁сістэмай	-10.8284
▁грамад	-10.8285
▁апынуліс	-10.8287
▁Адкрыты	-10.8288
▁даследчыкаў	-10.829
ec	-10.829
▁тыпаў	-10.8291
▁сталы	-10.8292
▁каталіцкай	-10.8293
▁Грамадзянска	-10.8302
▁адклада	-10.8302
▁Давід	-10.8305
▁Із	-10.8306
▁электрычны	-10.8306
лішча	-10.831
▁Віцебскага	-10.831
сцен	-10.831
▁вектар	-10.8311
▁выказва	-10.8312
▁мураваны	-10.8314
вас	-10.8321
цэр	-10.8323
▁бізнес	-10.8323
▁нярэдка	-10.8323
вазе	-10.8324
прэзідэнт	-10.8326
дачы	-10.8331
▁фоне	-10.8331
▁Інданезіі	-10.8336
льская	-10.834
бава	-10.8341
берта	-10.8345
▁класіцызму	-10.8346
▁заходнім	-10.8346
▁вырашэнн	-10.8348
ржы	-10.8348
▁паказваю	-10.8349
эйн	-10.8354
▁перакладчык	-10.8354
ардын	-10.8354
▁даведа	-10.8356
▁бак	-10.8356
▁Полацк	-10.8358
▁Ганны	-10.836
▁яўрэйскі	-10.8361
▁рублёў	-10.8361
жур	-10.8362
ляюцца	-10.8365
▁злучае	-10.8366
▁балота	-10.8367
▁Скот	-10.8369
▁цэла	-10.8371
ляры	-10.8372
▁спецыяліст	-10.8376
Ж	-10.8376
▁сітуацыя	-10.8377
▁1848	-10.8379
▁полк	-10.838
▁пытання	-10.838
▁мозг	-10.8381
▁рэжыму	-10.8385
▁прамавугольна	-10.8385
▁Пакістан	-10.8385
▁Адэс	-10.8386
▁задача	-10.8388
дзё	-10.8388
▁мянушк	-10.839
▁палацы	-10.8394
лама	-10.8395
tt	-10.8398
ржа	-10.8398
тнік	-10.8402
▁ху	-10.8402
▁рэп	-10.8403
▁дзеці	-10.8406
▁астраном	-10.841
▁цёмны	-10.841
▁Лап	-10.8413
▁Хэ	-10.8414
▁выданні	-10.8418
▁Макс	-10.8419
▁музыку	-10.8423
▁Кангрэс	-10.8423
▁Слова	-10.8426
▁дол	-10.8427
▁адпавяда	-10.8429
▁бала	-10.8433
▁арганізава	-10.8436
вінава	-10.8444
▁Паля	-10.8445
нена	-10.8445
▁роўная	-10.8446
▁птушкі	-10.8448
▁саборы	-10.8448
ліцы	-10.8448
▁умацава	-10.8448
віцы	-10.8449
тая	-10.8453
▁камандзе	-10.8454
▁творча	-10.8455
▁высокія	-10.8455
▁начальнікам	-10.8458
▁абвяшчэнн	-10.846
апрацоў	-10.8461
▁фактара	-10.8467
▁каталог	-10.8468
▁усходня	-10.8469
шэвіч	-10.847
▁стварылі	-10.8473
▁Беларус	-10.8473
▁Вілейскі	-10.8475
цэнтр	-10.848
▁праходзіла	-10.8481
▁швед	-10.8483
ou	-10.8486
▁адзначыў	-10.8486
доўга	-10.8487
▁ніякі	-10.8488
стр	-10.8489
▁Людовіка	-10.8489
дал	-10.8489
▁Зямля	-10.8489
▁сушы	-10.8491
▁ням	-10.8491
▁Конрад	-10.8492
▁версі	-10.8493
▁Радзім	-10.8493
▁ваенным	-10.8493
▁інтэнсіўна	-10.8498
▁рассеяна	-10.8498
▁родны	-10.8503
▁руках	-10.8505
▁Слуцка	-10.8508
▁прысутнасц	-10.851
▁95	-10.8512
▁скар	-10.8512
▁Даніл	-10.8513
▁заставалас	-10.8518
ub	-10.8518
▁уздоўж	-10.8521
▁росквіт	-10.8523
дныя	-10.8524
▁Жыгімонта	-10.8524
▁and	-10.8529
▁фільмаў	-10.8529
стаўлены	-10.8529
▁Вала	-10.8531
▁Яс	-10.8531
▁Берліне	-10.8533
▁прымалі	-10.8535
▁навакольна	-10.8535
Мар	-10.8536
▁мяжа	-10.8538
рызм	-10.8541
▁рабочы	-10.8544
▁пераслед	-10.8554
зма	-10.8556
▁калектыв	-10.8558
сіл	-10.856
▁адлюстроўвае	-10.8561
▁заняпад	-10.8562
▁Мура	-10.8564
будоў	-10.8566
▁дзесяцігоддзя	-10.8567
шэр	-10.8567
▁адбыва	-10.857
ону	-10.8573
▁дацэнт	-10.8574
▁перавы	-10.8579
est	-10.8583
▁узброены	-10.8586
▁занесены	-10.8586
▁Ордэна	-10.8589
▁пабудаваў	-10.8594
▁бакі	-10.8598
▁Будаўніцтва	-10.8599
▁канструкцыі	-10.8599
▁турэцкі	-10.8599
▁прыцягва	-10.86
▁узрос	-10.8603
▁еўрапейска	-10.8604
тыр	-10.8608
▁аўтамабіль	-10.8609
▁носьбіта	-10.8611
▁грамата	-10.8613
▁рамонт	-10.8613
▁радзім	-10.8616
▁Чырвонага	-10.8618
▁мат	-10.862
▁апублікавана	-10.8621
▁Фёдар	-10.8622
▁падрыхтава	-10.8623
▁чэшскі	-10.8624
▁Нансен	-10.8625
▁Кніга	-10.8625
▁Янкі	-10.8626
▁ўплыву	-10.8626
бура	-10.8628
моўных	-10.8629
▁навука	-10.8629
▁1885	-10.8631
▁верша	-10.8631
левіч	-10.8633
▁геаграфічны	-10.8634
кус	-10.8637
арганіз	-10.8638
▁лекцы	-10.8639
▁футбольна	-10.864
ation	-10.8645
▁ідэй	-10.8647
▁спартсмен	-10.8649
▁энергія	-10.865
прам	-10.8651
▁займалі	-10.8653
▁маюцца	-10.8658
▁земляў	-10.8658
▁Дзень	-10.866
▁вызначана	-10.8664
▁абласны	-10.8665
суд	-10.8667
праект	-10.8671
▁вайсковы	-10.8672
нікава	-10.8672
▁аналізу	-10.8673
▁дзяржаву	-10.8675
▁выцяка	-10.8675
man	-10.8676
▁пераехал	-10.8678
▁прыпыначным	-10.8678
▁транспартны	-10.8679
▁аўтамабіляў	-10.8679
нічна	-10.8682
▁свабоды	-10.8682
жска	-10.8684
▁зняты	-10.8685
▁міні	-10.8686
▁Узброены	-10.8688
▁пагаднення	-10.8688
▁магазін	-10.8688
▁святло	-10.8688
▁скульптар	-10.8689
▁прылад	-10.8689
▁уключаны	-10.8692
▁асяроддз	-10.8693
▁1889	-10.8693
▁Пачынаючы	-10.8701
▁Побач	-10.8701
▁прадпрыемствы	-10.8702
▁кро	-10.8703
▁клубе	-10.8703
wa	-10.8703
нька	-10.8705
▁экспедыцы	-10.8705
▁Каралін	-10.8706
лічаны	-10.8708
▁Сты	-10.8709
шч	-10.8712
рв	-10.8713
▁кулямёт	-10.8713
▁Катлавіна	-10.8713
▁генеральны	-10.8714
▁дакумент	-10.8717
▁замку	-10.8717
▁уладання	-10.8717
ёк	-10.872
▁вен	-10.8721
▁адкрытым	-10.8722
▁этнаграфі	-10.8723
▁Германі	-10.8724
▁загінула	-10.8726
▁Аўта	-10.8726
▁Кіеве	-10.8726
▁лічба	-10.8728
▁адносяць	-10.8729
▁танка	-10.873
▁Азербайджан	-10.8731
▁прырода	-10.8734
літа	-10.8736
водны	-10.8736
▁міністрам	-10.8738
▁злачынства	-10.8739
▁пахавання	-10.874
▁тэмы	-10.8741
▁выканаўца	-10.8742
▁узбярэжж	-10.8742
сло	-10.8745
▁тар	-10.8745
▁чэшска	-10.8752
шэння	-10.8753
▁Часта	-10.8753
▁Рай	-10.8757
▁здольна	-10.8757
▁мужчына	-10.8758
▁самастойны	-10.8758
зды	-10.8761
ючых	-10.8761
▁узяў	-10.8763
▁Грузіі	-10.8765
▁кажа	-10.8766
▁духоўны	-10.8769
▁Вара	-10.877
▁электрон	-10.877
▁Ква	-10.8772
▁чыста	-10.8772
▁уладу	-10.8778
▁Літ	-10.8779
аўскім	-10.8779
сё	-10.878
▁машыны	-10.8785
рост	-10.8785
▁музыкант	-10.8787
▁спад	-10.8788
▁шляхты	-10.8788
▁Пухавіцкі	-10.8789
▁Жлобін	-10.879
▁каро	-10.8791
▁схава	-10.8791
▁Лё	-10.8791
▁вяду	-10.8796
300	-10.8797
▁сярэдне	-10.8798
▁размяшчалас	-10.8803
▁Еўропа	-10.8804
▁палёт	-10.8804
▁клеткі	-10.8804
▁Bo	-10.8808
▁адсутнас	-10.8809
▁Воль	-10.8809
▁камандаваў	-10.8811
метра	-10.8813
▁чара	-10.8817
ó	-10.8817
▁Балтыйска	-10.8817
▁падзення	-10.8817
▁Лявон	-10.8818
▁пачаткова	-10.8818
▁20-	-10.8819
зёр	-10.882
ковым	-10.882
▁выхаванн	-10.882
льта	-10.8822
▁бою	-10.8823
шчаны	-10.8827
▁Утвораны	-10.883
▁Коласа	-10.8831
гва	-10.8831
▁класічнай	-10.8833
▁ветра	-10.8833
▁распача	-10.8833
▁савецкага	-10.8837
льды	-10.8838
▁контр	-10.8842
льца	-10.8842
▁амерыканска	-10.8842
▁тралейбус	-10.8843
▁ААТ	-10.8843
▁Бібліі	-10.8843
go	-10.8843
біт	-10.8847
▁хмызняко	-10.8848
лёва	-10.8849
▁класаў	-10.8849
ковай	-10.8851
▁грыб	-10.8853
▁рэформ	-10.8853
▁дойлідства	-10.8856
▁этнічна	-10.8857
▁Бабруйск	-10.8863
pi	-10.8866
▁прадуктаў	-10.8868
▁нагадвае	-10.8869
▁Ама	-10.8872
▁ваду	-10.8872
▁1878	-10.8874
▁10-	-10.8876
▁асаблівы	-10.8878
▁рашэнні	-10.8882
▁асновай	-10.8883
▁вадаёма	-10.8884
знавец	-10.8885
▁перамовы	-10.8886
▁Міл	-10.8887
ючай	-10.8887
▁пераходу	-10.889
▁візіт	-10.889
▁вал	-10.889
кліка	-10.8891
▁ўтворана	-10.8895
▁Паміж	-10.8895
▁каталіцка	-10.8897
▁So	-10.8897
▁Бярэзін	-10.8899
-12	-10.8899
▁праводзіліс	-10.89
▁размяшчаліс	-10.8904
ium	-10.8905
дзённа	-10.8906
▁спроба	-10.8909
▁харчавання	-10.8914
нгер	-10.8915
▁некатор	-10.8916
▁строга	-10.8917
▁Мёрскі	-10.8922
баль	-10.8922
вор	-10.8923
▁ўласцівасці	-10.8923
▁пастаўлена	-10.8927
▁абсалютна	-10.8929
надта	-10.8932
▁Sb	-10.8933
▁моц	-10.8939
▁медыцыне	-10.8939
ковых	-10.8941
▁хаця	-10.8943
фект	-10.8946
▁рэдактарам	-10.8946
▁паселішчы	-10.8947
▁вырашана	-10.8947
мары	-10.8949
што	-10.8952
бон	-10.8952
▁прафесарам	-10.8953
▁вылучаны	-10.8955
жава	-10.8957
▁друг	-10.8957
АП	-10.8957
▁паветраны	-10.8958
▁дазваляю	-10.896
▁сонечна	-10.896
▁Кастрычніцка	-10.8961
невы	-10.8964
▁змяніла	-10.8964
▁Сем	-10.8964
спі	-10.8965
▁свін	-10.8965
▁0,7	-10.8966
▁лісця	-10.8968
сып	-10.8968
▁верхні	-10.897
▁звязва	-10.8971
мпі	-10.8971
▁актывіст	-10.8972
▁ўкраінскі	-10.8976
▁ЕС	-10.8978
▁атрымаўшы	-10.8979
▁умоў	-10.8984
▁асацыяцыі	-10.8987
▁Аршанскі	-10.8987
▁камісія	-10.8987
▁дробна	-10.8991
▁бас	-10.8991
кул	-10.8992
▁Асноўным	-10.8992
▁моладзев	-10.8996
▁пабудава	-10.8996
▁мінерал	-10.8996
▁вырабаў	-10.8999
▁творах	-10.9
▁аднаўлення	-10.9
▁кантролю	-10.9
▁Кампанія	-10.9001
▁Глыбоцкі	-10.9003
▁звання	-10.9004
▁мерапрыемств	-10.9006
▁1866	-10.9006
унд	-10.9006
▁Кос	-10.9007
SC	-10.9008
▁самыя	-10.9009
▁манарха	-10.9009
▁Ос	-10.901
▁Гарадоцкі	-10.9013
▁капліца	-10.9014
▁Фрыдрыха	-10.9014
▁падпісаны	-10.9018
▁выдадзена	-10.902
▁дэпутатам	-10.9023
шчын	-10.9023
▁тэму	-10.9026
▁місіянер	-10.9026
▁эксперт	-10.9026
▁прызначыў	-10.9027
▁Палаты	-10.9029
▁намер	-10.9031
кера	-10.9032
вель	-10.9032
ард	-10.9036
▁Іаган	-10.9036
▁праводзіў	-10.9039
▁Мікалаеў	-10.904
зроўні	-10.904
▁Нік	-10.9041
▁хворы	-10.9042
und	-10.9047
▁новае	-10.9047
▁дасягнення	-10.9053
▁аднаўленне	-10.9053
▁Альберт	-10.9053
▁аркестра	-10.9054
док	-10.9054
▁3,5	-10.9054
рланд	-10.9058
▁формаў	-10.9059
▁біскупа	-10.9061
▁штучны	-10.9066
▁прыцягну	-10.9067
рэнне	-10.9069
▁даліне	-10.9072
▁накіравана	-10.9072
носяць	-10.9073
▁матэматыкі	-10.9074
▁сутак	-10.9075
▁разьб	-10.9075
эк	-10.9075
▁Белы	-10.9075
сід	-10.9076
▁снукерыст	-10.9077
▁праваслаў	-10.9078
▁разуменн	-10.9081
▁артыкулы	-10.9082
сма	-10.9083
▁Лігі	-10.9084
▁леса	-10.9087
▁сярэбраны	-10.9093
▁наогул	-10.9093
▁дзяржаве	-10.9093
раванне	-10.9096
ацыю	-10.9096
▁дэпартамент	-10.9098
▁граніц	-10.9099
▁займаліс	-10.91
▁элементам	-10.9101
▁кандыдат	-10.9101
▁Адным	-10.9104
▁пазбаві	-10.9106
▁чалавечы	-10.9106
▁Уладзіслаў	-10.9106
▁вольна	-10.9107
ступленне	-10.9108
▁вайскова	-10.9113
▁кніж	-10.9116
▁людзьм	-10.912
крыццё	-10.912
▁працоўна	-10.9125
▁страва	-10.9126
▁манастыры	-10.9127
▁Пля	-10.9127
палітычны	-10.9127
рства	-10.9129
▁Расіяй	-10.9129
▁заснавання	-10.913
▁размаўля	-10.913
▁цікавас	-10.913
▁верасень	-10.9133
▁найбуйнейша	-10.9133
▁Барселон	-10.9133
▁заняты	-10.9135
▁кроп	-10.9135
▁дзесяці	-10.9136
▁дзіця	-10.9138
летку	-10.9142
▁парка	-10.9143
▁адмов	-10.9143
▁базілік	-10.9146
▁арган	-10.9147
▁ладу	-10.9147
хопліва	-10.915
▁чыгунка	-10.915
▁кіслот	-10.915
▁імёны	-10.915
▁180	-10.9151
one	-10.9155
▁Пінск	-10.9155
▁меж	-10.9155
ікі	-10.9159
▁чэмпіёнам	-10.916
▁кантралява	-10.916
▁1888	-10.9166
▁грамадств	-10.9167
▁гандаль	-10.9173
▁нізкія	-10.9173
▁дадаткова	-10.9174
▁майстар	-10.9177
▁перакры	-10.918
▁Уладзіслава	-10.9186
▁знакаміта	-10.9187
▁Людвіг	-10.9187
дарож	-10.9187
▁пачынаю	-10.9188
▁памераў	-10.9189
▁кампазітара	-10.9193
▁губернатара	-10.9194
▁88	-10.9203
▁Слуцк	-10.9204
збу	-10.9206
фран	-10.9206
▁афіцэраў	-10.9208
▁вывучэнн	-10.9211
▁Ca	-10.9211
▁Працы	-10.9212
▁афармленн	-10.9213
▁валодал	-10.9214
▁Рыгор	-10.9214
▁сімвалам	-10.9214
▁калекцыі	-10.9216
▁работнік	-10.9217
▁ёзны	-10.9217
▁міністраў	-10.9217
▁Сібір	-10.9219
▁белага	-10.9219
▁Слуцкі	-10.9227
▁пацярпел	-10.9228
▁форм	-10.9231
▁захоўванн	-10.9233
▁міф	-10.9233
▁Лес	-10.9234
▁дума	-10.9236
ство	-10.9236
▁пояса	-10.9237
▁гістарычнага	-10.9239
▁развіцц	-10.9239
▁яднана	-10.9239
▁раскоп	-10.9239
▁Апошня	-10.924
▁відавочна	-10.924
саюз	-10.9242
▁падзяляе	-10.9242
▁установа	-10.9243
рэна	-10.9243
▁чаму	-10.9245
▁хваля	-10.9246
▁бой	-10.9247
▁параўнальна	-10.9248
трымліваюць	-10.925
▁Што	-10.9252
▁арыентацы	-10.9254
▁НАН	-10.9255
▁Шо	-10.9256
дача	-10.9256
оўнік	-10.9257
▁Кура	-10.9261
▁1868	-10.9261
фт	-10.9262
пазіцы	-10.9265
▁мяне	-10.9266
▁геаграфічна	-10.9266
▁даклад	-10.9267
▁абмяжоўва	-10.9267
▁інфармацы	-10.9269
▁дзейніча	-10.927
▁фізік	-10.9274
крыты	-10.9275
▁падпарадкава	-10.9275
сена	-10.9275
▁лесу	-10.9277
зніклі	-10.9277
▁абараніў	-10.9278
▁Алена	-10.928
твары	-10.928
▁спыненн	-10.9281
▁кава	-10.9283
ии	-10.9283
▁брама	-10.9284
▁Фан	-10.9287
▁бры	-10.9288
▁пярэдні	-10.9289
▁тэксты	-10.9289
▁ор	-10.9289
бр	-10.9292
sta	-10.9292
▁галерэя	-10.9294
▁мастацкім	-10.9296
▁аспірантур	-10.9296
▁Валожынскі	-10.9299
▁транспарту	-10.9299
▁дачку	-10.9299
▁1893	-10.93
ліста	-10.9301
▁маскоўска	-10.9303
член	-10.9303
▁Парк	-10.9305
▁Адама	-10.9305
▁міністэрства	-10.9306
▁тонка	-10.9307
вір	-10.9307
▁прыйшлі	-10.9308
▁педагагічна	-10.9309
▁стал	-10.931
▁анг	-10.9315
▁будов	-10.9317
шая	-10.9318
▁марак	-10.9321
▁адзінства	-10.9328
пта	-10.9331
▁выйгра	-10.9333
ейн	-10.9335
▁Егіпет	-10.9335
▁галерэі	-10.9335
▁прафсаюз	-10.9335
▁штучна	-10.9336
зан	-10.9337
▁танк	-10.9338
▁Хол	-10.9338
▁правах	-10.9347
▁навакольны	-10.9349
▁касмічна	-10.935
▁арганічны	-10.9355
▁раскопк	-10.9356
▁туры	-10.9356
▁проці	-10.9357
-9	-10.9358
▁ключ	-10.9361
▁парламенц	-10.9363
мель	-10.9363
▁канфедэрацы	-10.9363
▁рыхтава	-10.9363
нці	-10.9364
▁забяспечва	-10.9366
палітычна	-10.9367
▁яр	-10.9367
▁1894	-10.9368
▁1892	-10.9369
▁упадае	-10.9372
▁Сямён	-10.9373
▁Кірыл	-10.9375
пак	-10.9376
▁лесам	-10.9376
▁паштова	-10.9377
▁жанаты	-10.9377
▁пор	-10.9381
▁луга	-10.9384
▁ператвара	-10.9384
▁метрапалітэна	-10.9384
▁паза	-10.9385
▁падзяляю	-10.9385
▁пару	-10.9387
▁арганізм	-10.9388
▁настаўніц	-10.9389
▁кветкі	-10.9392
▁езда	-10.9393
▁фіналу	-10.9396
трап	-10.9397
gi	-10.9398
▁арганізавана	-10.94
▁Велі	-10.94
▁распараджэнн	-10.9404
▁абшчыны	-10.9404
піна	-10.9405
▁пайшоў	-10.9406
▁Залаты	-10.9406
▁арганізаваў	-10.9409
груз	-10.941
▁серый	-10.9412
▁дзейнічаў	-10.9413
▁абарончы	-10.9414
▁задум	-10.9415
адмірал	-10.9417
▁Афганістан	-10.9418
▁прапаноў	-10.9418
▁карэнны	-10.9418
▁паражэння	-10.9419
ога	-10.9428
▁капітал	-10.943
▁абавязк	-10.9431
▁заяв	-10.9431
▁валодаў	-10.9431
▁арабска	-10.9433
зель	-10.9435
▁Майкл	-10.9435
рыца	-10.9436
▁Хуан	-10.9439
▁краінамі	-10.9439
▁Людовік	-10.9441
▁уваходзіў	-10.9442
▁самакіравання	-10.9445
sch	-10.9446
зіра	-10.9449
▁вось	-10.945
▁медалё	-10.945
▁00	-10.9451
▁уніі	-10.9451
цом	-10.9454
▁папулярнасць	-10.9455
▁мене	-10.9456
▁Артур	-10.9457
▁Важн	-10.9459
▁узведзены	-10.946
▁Гай	-10.9461
▁арабскі	-10.9464
▁Карп	-10.9465
▁Te	-10.9465
▁Азія	-10.9467
▁Англі	-10.9467
▁заключа	-10.9471
▁прылада	-10.9476
▁гадам	-10.9476
рэвіч	-10.9478
▁Індыя	-10.9479
▁абшчын	-10.9479
▁1831	-10.948
▁зліцц	-10.948
▁капітан	-10.948
хіл	-10.9481
вёр	-10.9481
ёл	-10.9482
▁сваяк	-10.9487
▁Слабада	-10.9487
▁хронік	-10.9487
▁срэбра	-10.9487
▁86	-10.9487
▁Шырока	-10.9487
▁карабель	-10.9488
▁саюзнікаў	-10.9491
▁галактык	-10.9493
▁экран	-10.9493
ens	-10.9494
▁спако	-10.9495
▁серы	-10.9498
▁Дрэ	-10.9499
▁Руб	-10.95
▁Сіцылі	-10.9501
▁Альп	-10.9504
▁гадзіннік	-10.9506
▁пярэдня	-10.9507
▁водар	-10.9507
▁заказнік	-10.9508
▁працяглы	-10.9508
▁кампаніяй	-10.9508
зіна	-10.9509
▁адзінкі	-10.951
культурна	-10.9511
▁немцы	-10.9513
▁мастацтве	-10.9514
▁віленскі	-10.9515
хоп	-10.9515
▁Кай	-10.9517
▁часця	-10.9517
▁болей	-10.9521
▁Гомельскі	-10.9522
▁наяўнасці	-10.9524
▁лістоў	-10.9525
хара	-10.9525
▁Львов	-10.9525
▁гістарычным	-10.9527
▁бацьку	-10.9529
▁біялагічны	-10.9529
▁кіну	-10.953
▁дому	-10.9531
▁выдавецтва	-10.9532
▁брамнік	-10.9532
▁інф	-10.9536
біна	-10.9536
▁падпісанн	-10.9536
▁град	-10.9537
com	-10.954
роўка	-10.9542
▁Адраджэння	-10.9542
▁выяўленча	-10.9542
▁ГЭС	-10.9544
▁выпраменьвання	-10.9545
▁Чарна	-10.9547
▁выдава	-10.9548
▁сталіц	-10.9549
▁кандыдатаў	-10.955
▁сябра	-10.9551
▁кіламетр	-10.9552
ог	-10.9554
▁турніра	-10.9555
арт	-10.9555
▁выстава	-10.9555
ПА	-10.956
▁Нацыянальным	-10.9562
▁Вялікія	-10.9562
▁баках	-10.9563
▁арка	-10.9566
▁перавышае	-10.9567
крыва	-10.9568
▁бліжэй	-10.9568
▁Яраслаў	-10.957
▁здымк	-10.9573
▁здабыч	-10.9574
▁палову	-10.9579
культурны	-10.9581
▁Барыса	-10.9583
▁Ламбардыя	-10.9584
▁кансерваторы	-10.9584
▁Валянцін	-10.9584
▁магнітна	-10.9585
▁ляжа	-10.9587
▁украінска	-10.9591
▁прагляд	-10.9592
ber	-10.9593
▁ўварва	-10.9594
▁явы	-10.9598
▁Японія	-10.9598
глядзе	-10.9601
▁папа	-10.9601
▁калегіум	-10.9602
энд	-10.9602
▁мужчынскі	-10.9603
▁ягад	-10.9604
▁ёзна	-10.9605
графіі	-10.9607
▁малюнка	-10.9608
▁Элі	-10.9609
▁Вітаўта	-10.961
чала	-10.9611
▁фінал	-10.9611
пель	-10.9612
▁адпачынк	-10.9612
жын	-10.9612
▁пле	-10.9615
bo	-10.9616
Ра	-10.9616
▁даследава	-10.9617
▁ратуш	-10.9618
▁1871	-10.9619
▁утварае	-10.9621
энс	-10.9623
▁мэт	-10.9624
▁Баранавіцкі	-10.9626
▁y	-10.963
▁Канстытуцыя	-10.9631
ant	-10.9634
▁круга	-10.9635
стка	-10.9638
▁выклікае	-10.964
▁сербска	-10.9641
▁падземны	-10.9641
▁Давыд	-10.9641
▁выбраны	-10.9641
▁капітана	-10.9647
▁стаяў	-10.9649
▁выканана	-10.965
німа	-10.9652
▁праліва	-10.9654
▁мэты	-10.9656
ўсходні	-10.9656
▁чырвонага	-10.9657
▁базы	-10.9657
дання	-10.9659
▁Добра	-10.9661
▁памылк	-10.9661
▁Міністр	-10.9663
▁лігу	-10.9663
фера	-10.9666
▁пр	-10.9668
▁тэрміна	-10.9668
▁выканаўча	-10.9668
▁паляванне	-10.967
чышча	-10.9671
▁Мед	-10.9674
мігрант	-10.9675
▁аўстрыйска	-10.9683
▁федэральна	-10.9683
нулі	-10.9684
нструкт	-10.9685
▁матэрыялу	-10.9689
▁веку	-10.9689
▁металічны	-10.969
ьскі	-10.9694
▁матэрыяльна	-10.9695
▁ціск	-10.9695
▁Камуністычн	-10.9697
▁спартыўна	-10.9697
▁Ерэван	-10.9697
▁эст	-10.9698
схільны	-10.9698
▁пераправ	-10.9699
▁прадметаў	-10.9699
лькі	-10.9703
▁заказ	-10.9709
▁Малі	-10.9712
▁скарыста	-10.9713
кевіча	-10.9717
▁літары	-10.9719
▁Смаленск	-10.9721
▁праёмамі	-10.9725
▁перашкод	-10.9728
▁канцэпцы	-10.9729
▁востра	-10.9729
▁тэксту	-10.9731
▁1867	-10.9732
▁Mo	-10.9734
арда	-10.9734
▁камяні	-10.9735
▁заня	-10.9736
▁раўніны	-10.9736
▁ўбачы	-10.9737
супраць	-10.9737
дэмакратычна	-10.9737
▁Ніжні	-10.9739
прад	-10.974
▁Стывен	-10.9741
жкі	-10.9741
стыцы	-10.9749
ограф	-10.9749
дзельнічаў	-10.9749
▁плямёны	-10.9749
▁спалучэнн	-10.9752
былі	-10.9752
▁рэканструкцыі	-10.9753
▁галосны	-10.9754
▁Іосіф	-10.9761
▁задачы	-10.9761
▁выступіл	-10.9761
ладзе	-10.9762
▁Больша	-10.9762
меды	-10.9763
▁прэзідэнцкі	-10.9763
▁тэатральны	-10.9764
▁моста	-10.9766
▁Тадэвуш	-10.9768
▁жорсткі	-10.9768
▁інфармацыя	-10.9769
▁заводзе	-10.9772
чыцы	-10.9772
▁0,6	-10.9774
▁залоз	-10.9778
▁адзначыць	-10.9778
▁зорна	-10.9779
▁бран	-10.978
▁Урал	-10.9782
ty	-10.9783
▁знішчаны	-10.9783
▁нафты	-10.9784
▁дзейнічал	-10.9786
▁выяв	-10.9786
▁паэмы	-10.9788
▁вырабы	-10.9789
▁Максіма	-10.9792
▁аднайменны	-10.9796
▁унутрана	-10.9796
▁тэлеканал	-10.9797
▁Акт	-10.9798
▁Ватыкан	-10.9799
ствы	-10.9799
▁Палеска	-10.9799
▁Рух	-10.9801
▁сцёк	-10.9801
▁паліт	-10.9802
раг	-10.9802
▁секцы	-10.9803
▁Літва	-10.9805
▁фарміраванне	-10.9805
▁Было	-10.981
▁фігура	-10.9811
▁прамо	-10.9812
▁культуру	-10.9813
равання	-10.9816
▁узрост	-10.9818
▁размяшчаюцц	-10.9822
▁яйк	-10.9823
▁мадыфікацы	-10.9825
▁Ца	-10.9827
▁Іаана	-10.9829
▁насельніцтвам	-10.983
рэшце	-10.9831
▁музычных	-10.9831
▁батальёна	-10.9832
▁архітэктарам	-10.9834
Ба	-10.9835
▁Руска	-10.9835
▁месяца	-10.9837
маўля	-10.9838
▁эпідэмі	-10.9839
▁аўтарытэт	-10.984
▁мінула	-10.984
олі	-10.984
▁аўтамат	-10.9842
▁евіч	-10.9842
▁Божа	-10.9852
▁Ско	-10.9853
▁Грам	-10.9854
▁вызначэння	-10.9854
▁бакавы	-10.9856
▁катэгоры	-10.9859
▁азёры	-10.9859
▁сусветн	-10.9859
▁прыналежнасц	-10.986
▁вывучае	-10.9863
▁98	-10.9864
мур	-10.9865
класці	-10.9865
▁Сві	-10.9865
▁рыбалоўства	-10.9868
▁Тэадор	-10.9868
▁жыла	-10.9869
▁кантроле	-10.987
▁Da	-10.9872
▁прадукцы	-10.9873
▁Хва	-10.9874
▁піра	-10.9874
жэй	-10.9877
▁Рад	-10.988
беж	-10.988
гадовай	-10.9881
▁рэштка	-10.9882
▁рэгіянальны	-10.9882
▁Джу	-10.9883
▁прыйшлос	-10.9884
▁Айчынную	-10.9885
▁Бай	-10.9886
чыкаў	-10.9891
об	-10.9891
▁канфлікту	-10.9891
▁урада	-10.9893
▁прайшла	-10.9894
▁масіў	-10.9894
▁супольн	-10.9895
▁Найсвяцейша	-10.9897
▁тапонім	-10.9897
▁вонкава	-10.9897
▁сонечны	-10.9897
▁намесніка	-10.9897
▁сыравін	-10.9897
▁гаворы	-10.9897
▁чыноўнік	-10.9897
▁пясчана	-10.9897
▁пячор	-10.9899
▁сітуацыі	-10.99
нат	-10.9901
▁Шчучынскі	-10.9901
луш	-10.9902
оды	-10.9904
тацыі	-10.9905
▁Калчак	-10.9907
веднік	-10.9907
▁пыл	-10.9909
дзяржаў	-10.9909
пон	-10.9911
нем	-10.9913
▁тру	-10.9919
▁ансамбл	-10.992
▁супада	-10.992
▁вугал	-10.9921
▁Кацярына	-10.9923
вела	-10.9925
ο	-10.9926
▁хрыбта	-10.9926
▁бяроз	-10.9926
гранічн	-10.9928
дзіла	-10.9929
▁налічвае	-10.993
роўкі	-10.9934
▁аднайменна	-10.9934
▁бук	-10.9935
▁французскім	-10.9935
тыку	-10.9936
▁стар	-10.9938
▁Саб	-10.9941
▁рэвалюцыйна	-10.9942
▁Ота	-10.9943
▁лін	-10.9945
▁мары	-10.9947
бак	-10.995
▁Імператар	-10.9954
правод	-10.9955
▁арганізацыю	-10.9955
карычневы	-10.9955
▁ваявода	-10.9955
▁драўнін	-10.9955
▁статут	-10.9956
чыне	-10.9956
-11	-10.9958
▁фарба	-10.9958
▁рэлігія	-10.9958
▁крытыка	-10.9959
▁плямёнаў	-10.9959
▁Pr	-10.9962
▁ян	-10.9963
▁адыгрыва	-10.9965
ступае	-10.9965
ляцыя	-10.9967
▁сувязя	-10.9967
ходны	-10.9967
ze	-10.9969
▁Афрыка	-10.997
▁перададзена	-10.9975
ris	-10.9976
▁Куль	-10.9977
ідаў	-10.9977
che	-10.998
верс	-10.9986
▁даных	-10.9989
▁1891	-10.9989
▁ўстановы	-10.9991
ts	-10.9991
▁Сент	-10.9991
жыр	-10.9992
▁такімі	-10.9992
▁напачатку	-10.9992
▁кампазіцыя	-10.9993
▁экз	-10.9996
Я	-10.9996
бера	-10.9996
▁расту	-10.9997
ä	-10.9998
▁тэндэнцы	-10.9998
▁законам	-11.0001
▁Час	-11.0001
▁Зара	-11.0004
▁геаграфі	-11.0004
▁Транс	-11.0006
▁Парыжа	-11.0007
▁ігра	-11.001
▁СС	-11.001
▁Ер	-11.0011
▁пакарання	-11.0013
▁зафіксава	-11.0014
▁гітар	-11.0014
▁170	-11.0018
▁3000	-11.0025
▁ядзерна	-11.0028
▁84	-11.0032
▁часціцы	-11.0032
▁сцвярджае	-11.0032
▁узначальваў	-11.0032
▁Ата	-11.0035
▁каменна	-11.0035
▁браты	-11.0036
▁партал	-11.0036
▁Lo	-11.0037
логія	-11.0042
▁уключа	-11.0042
▁выявіў	-11.0044
віцкай	-11.0045
▁найменн	-11.0046
▁малюнк	-11.0049
▁350	-11.0052
▁Вільню	-11.0052
▁кругла	-11.0054
тыўныя	-11.0055
▁ектам	-11.0055
▁чвэрц	-11.0057
-25	-11.0057
▁гасцін	-11.0059
▁намінацы	-11.006
▁Юпітэра	-11.0062
▁82	-11.0062
▁маючы	-11.0067
▁Чорна	-11.0067
сара	-11.007
▁Фін	-11.007
▁Александр	-11.0071
▁смяротна	-11.0072
дне	-11.0072
▁лацін	-11.0075
▁пахаванн	-11.0078
▁Андрэя	-11.0081
▁Асі	-11.0085
РК	-11.0086
▁кабінет	-11.0086
▁калонія	-11.0087
▁падвярга	-11.0087
дзейн	-11.009
▁патрыярха	-11.0091
per	-11.0093
▁знаходк	-11.0094
▁Кароль	-11.0098
▁авіяцыі	-11.0101
▁Усё	-11.0102
▁свабод	-11.0103
▁клін	-11.0103
▁1,3	-11.0105
▁сім	-11.0105
▁83	-11.0105
▁агародж	-11.0106
▁еў	-11.0108
▁палова	-11.0111
▁называюцца	-11.0112
▁Афіцыйна	-11.0116
▁мяркую	-11.0116
▁тыдзень	-11.0116
▁секунд	-11.0117
▁шахмат	-11.0118
алагічнага	-11.012
▁Сака	-11.0123
▁Германіяй	-11.0128
▁корм	-11.0129
▁Пабудаваны	-11.0129
мерна	-11.0129
▁дынастыя	-11.013
▁функцый	-11.0131
▁канцэнтрацы	-11.0131
▁інтэрнэт	-11.0131
▁Паўладарска	-11.0131
▁распаўсюджванне	-11.0136
гард	-11.0139
▁апарата	-11.0139
▁ўступіў	-11.0143
▁частках	-11.0143
▁Вільгельма	-11.0144
▁дэлегацы	-11.0145
рыйскі	-11.0148
▁ліній	-11.0148
▁доля	-11.0149
▁выкуп	-11.0151
цыян	-11.0152
▁вярхоў	-11.0152
▁справ	-11.0153
▁Кубак	-11.0154
▁партыйны	-11.0154
▁майстэрні	-11.0155
▁Шк	-11.0155
▁трас	-11.0158
вядзенне	-11.0159
▁філасофскі	-11.016
▁прызначана	-11.0161
▁юрыдычна	-11.0162
▁казак	-11.0168
▁дыха	-11.017
▁99	-11.0175
▁Кандыдат	-11.0175
▁найважнейшы	-11.0175
▁пацярпеў	-11.0175
▁адмыслова	-11.0175
▁кансерв	-11.0175
гера	-11.0178
▁Дэвід	-11.0179
ске	-11.0179
▁Папы	-11.0179
▁жыць	-11.018
германск	-11.0181
▁Br	-11.0182
▁1840	-11.0183
ната	-11.0184
▁дэпартамента	-11.0184
▁проз	-11.0184
знік	-11.0185
▁адценн	-11.0186
▁даўга	-11.0186
▁нава	-11.0186
▁граніт	-11.019
▁све	-11.0193
йшла	-11.0193
▁пагадзі	-11.0193
▁Дэмакратычна	-11.0193
▁сакратара	-11.0194
▁перс	-11.0195
▁He	-11.0196
▁распрацавана	-11.0198
▁судова	-11.0201
лагічнай	-11.0201
▁есы	-11.0202
▁Эдуард	-11.0204
▁перемычк	-11.0205
▁ўздзеянн	-11.0205
▁ачкоў	-11.0205
▁знайшоў	-11.0205
lu	-11.0205
цова	-11.0208
сіна	-11.0209
▁Бала	-11.0209
▁ўключаны	-11.021
валы	-11.0211
станцы	-11.0212
▁даступны	-11.0212
▁Петр	-11.0215
▁Ашмянскі	-11.0215
▁нагляд	-11.0216
▁прынесл	-11.0218
▁выяўля	-11.0219
▁захопнікамі	-11.022
▁вінаград	-11.022
▁Ніжэй	-11.0221
▁сястры	-11.0221
▁Кіпр	-11.0224
▁пазіцыя	-11.0224
▁Філа	-11.0225
▁ежы	-11.0225
▁вапняк	-11.0226
▁акадэмія	-11.0229
штаце	-11.023
▁гімн	-11.0232
▁лыж	-11.0233
▁асобін	-11.0234
▁Баль	-11.0234
▁мяркуе	-11.0235
▁авалода	-11.0235
падобных	-11.0236
▁сухо	-11.0236
▁вяла	-11.0239
▁падтрымлівае	-11.024
▁здагадк	-11.0242
эна	-11.0244
зіс	-11.0246
▁папярэдн	-11.0248
пут	-11.0248
▁актрыса	-11.025
▁фатаграфі	-11.025
▁велізарны	-11.0254
▁стагоддзях	-11.0254
▁эміграцыі	-11.0254
ёз	-11.0255
▁уласцівасц	-11.0255
рэдку	-11.0257
▁Вёска	-11.0265
▁Магілёва	-11.0265
▁Клуб	-11.0265
▁каралевы	-11.0265
▁радзіму	-11.0267
дэра	-11.027
▁смак	-11.027
▁шп	-11.0271
▁1887	-11.0272
льт	-11.0273
▁аўтамабіля	-11.0274
ніта	-11.0278
▁тэлефон	-11.028
▁Майстар	-11.0281
Са	-11.0283
▁каў	-11.0284
▁1881	-11.0285
жэнні	-11.0287
АЗ	-11.0291
ляцыі	-11.0293
▁Дэй	-11.0295
▁побыт	-11.0297
▁валоданне	-11.0298
▁ядро	-11.0304
▁Дон	-11.031
▁кісларод	-11.031
▁праграму	-11.0312
▁паказаны	-11.0312
oc	-11.0312
▁групе	-11.0316
▁1884	-11.0316
▁0,8	-11.0317
▁націск	-11.0317
▁крыніцай	-11.0318
▁калоні	-11.032
іраваны	-11.0323
▁Дзевы	-11.0324
▁падраздзялення	-11.0325
▁Віленскі	-11.0325
▁Сад	-11.0326
▁Прыклад	-11.0327
▁планета	-11.0327
шчу	-11.0328
скоп	-11.0328
▁бераго	-11.033
.2	-11.033
▁ўплыва	-11.0331
▁Мале	-11.0333
▁Старо	-11.0334
▁жыло	-11.0334
▁тэхналогіі	-11.034
▁вонкавы	-11.034
▁81	-11.034
▁крызіс	-11.0342
▁Вада	-11.0346
▁топ	-11.0348
▁Крам	-11.0348
▁магутнасць	-11.0349
ers	-11.0351
▁Арк	-11.0353
▁літоўскай	-11.0353
кола	-11.0355
▁Францыю	-11.0355
▁перасялі	-11.0356
▁даследаванне	-11.0359
▁1882	-11.0362
▁1879	-11.0362
▁Чап	-11.0363
авецца	-11.0364
▁востры	-11.0364
▁прычыне	-11.0365
▁круглы	-11.0367
йскае	-11.0367
▁сіні	-11.0367
▁меншы	-11.0368
▁рабоце	-11.037
▁спыня	-11.037
▁цесна	-11.037
▁сцяны	-11.0371
▁1850	-11.0375
▁Вяліка	-11.0376
пэ	-11.0378
▁колеры	-11.0379
▁Ў	-11.0381
▁правядзенне	-11.0383
▁урадам	-11.0385
▁Васілевіч	-11.0385
▁гулец	-11.0386
▁афіцыйным	-11.0386
▁сярэдняга	-11.0387
▁адклад	-11.0388
▁палітычным	-11.0389
страл	-11.0389
▁прадукты	-11.0389
▁арыстакраты	-11.0389
бля	-11.0393
▁робі	-11.0394
▁le	-11.0397
▁Галоўным	-11.04
▁гарадзішча	-11.04
▁кашталян	-11.04
▁зверху	-11.04
тэрмін	-11.0401
тэхнічны	-11.0401
▁усходні	-11.0404
▁Турын	-11.0405
▁законы	-11.0409
▁Месца	-11.0413
▁параметр	-11.0415
▁студэнт	-11.0417
▁лекар	-11.0421
▁Вет	-11.0423
▁Амаль	-11.0426
лямі	-11.0426
▁Мац	-11.0429
▁існава	-11.0432
▁загадз	-11.0433
▁Камуна	-11.0436
▁бачна	-11.0439
▁апісання	-11.044
▁Баранавічы	-11.0441
леная	-11.0445
hi	-11.0446
▁Дамінік	-11.0446
▁Старажытны	-11.0446
▁воласць	-11.0446
▁працоўных	-11.0446
▁саветнік	-11.0448
▁Тэатр	-11.0452
▁Эпі	-11.0453
▁Віш	-11.0458
ny	-11.0459
▁энцыклапеды	-11.0461
▁фіна	-11.0461
траў	-11.0462
▁міліцы	-11.0464
▁медалі	-11.0464
▁Саў	-11.0465
аваных	-11.0467
▁імпульс	-11.0467
▁вырас	-11.0472
Ёрку	-11.0472
▁Астро	-11.0472
▁героя	-11.0472
▁драматычны	-11.0474
▁непадалёк	-11.0477
▁візантыйска	-11.0477
▁Скарыны	-11.0477
▁Шлях	-11.0477
тэхнічна	-11.0481
шава	-11.0481
▁Чорнага	-11.0486
▁твора	-11.0486
▁Бабруйска	-11.049
▁войны	-11.0492
▁катастроф	-11.0492
▁праяўля	-11.0494
▁працягнуў	-11.0494
адварот	-11.0495
▁аповесці	-11.0507
рэк	-11.0508
▁Барысаўскі	-11.0508
▁удзелам	-11.0509
▁працэсы	-11.0509
▁калгаса	-11.0516
алагічных	-11.0517
▁выдатна	-11.0517
▁бан	-11.0518
▁Уол	-11.0519
▁ўсталяваны	-11.0522
▁кіп	-11.0522
▁НКУС	-11.0523
▁пляменнік	-11.0523
нтэр	-11.0523
▁султана	-11.0523
▁захаваць	-11.0524
лучаецца	-11.0525
▁найбольшы	-11.0525
▁кодэкс	-11.0525
▁дакладны	-11.0526
▁камандавання	-11.0532
дора	-11.0533
▁эсэ	-11.0537
▁вучылішчы	-11.0538
▁сусветны	-11.0538
▁паверхню	-11.0539
▁адбывалас	-11.0541
нтам	-11.0542
▁матыв	-11.0544
▁камбінат	-11.0545
лд	-11.0547
▁Поты	-11.0548
▁Ba	-11.0548
зара	-11.0549
-30	-11.0552
▁меліярацыйны	-11.0553
▁сяржант	-11.0553
▁вызначаю	-11.0557
▁AM	-11.056
джу	-11.0561
▁гадзіны	-11.0563
▁прыкладам	-11.0563
▁Брэста	-11.0565
eg	-11.0565
рэння	-11.0566
▁жыво	-11.0567
▁ажані	-11.0567
▁Карагандзінска	-11.0569
▁гульцоў	-11.0569
▁камуністычна	-11.0569
▁Мядзельскі	-11.0569
▁настольк	-11.057
хала	-11.057
▁спрэчк	-11.057
▁прадмет	-11.057
▁Стэ	-11.0572
▁пабудова	-11.0573
гарадская	-11.0575
▁ранейшы	-11.0575
▁Захад	-11.0576
▁сінгл	-11.0576
роўні	-11.0578
▁дыяпазон	-11.0584
▁Праект	-11.0587
▁займала	-11.0588
ерам	-11.0588
бло	-11.0589
▁амерыканскага	-11.0591
▁1862	-11.0592
art	-11.0592
пісала	-11.0593
▁завяршэнн	-11.0594
▁96	-11.0594
▁налічвалася	-11.0595
▁лаз	-11.0598
▁органам	-11.0599
▁травяністы	-11.06
▁узяты	-11.0601
▁пашырэнне	-11.0601
▁1796	-11.0602
▁цырк	-11.0602
▁ўключа	-11.0602
▁саветаў	-11.0608
ys	-11.0609
▁бел	-11.061
▁медыцыны	-11.061
▁вірус	-11.061
-21	-11.0611
ци	-11.0614
▁рос	-11.0614
▁Васіля	-11.0615
▁гарадамі	-11.0616
▁Маўр	-11.0619
рокі	-11.0624
▁Ніжня	-11.0625
▁чырвоным	-11.0625
▁старшын	-11.0626
гун	-11.0628
▁Гей	-11.0629
▁Петраград	-11.0631
▁прафесі	-11.0634
▁Тара	-11.0635
▁даліны	-11.0641
▁Усходзе	-11.0641
▁апавяданняў	-11.0643
▁узнік	-11.0644
▁накіроўва	-11.0646
▁падручнік	-11.0647
▁прадстаўнікам	-11.0648
▁размяшчэнне	-11.0648
▁Com	-11.0649
Ку	-11.065
▁дададзены	-11.0652
▁Мес	-11.0652
▁усю	-11.0653
▁скончыла	-11.0656
▁знакам	-11.0657
▁ані	-11.066
▁восем	-11.0661
▁яркі	-11.0661
▁Еўропу	-11.0662
▁календары	-11.0662
▁аўтаматычна	-11.0662
▁паліцыі	-11.0663
▁Лос	-11.0664
▁прадстаўляе	-11.0666
італьян	-11.0668
ff	-11.067
ёвы	-11.0672
▁Po	-11.0674
▁запар	-11.0674
праб	-11.0676
▁дыска	-11.0676
▁радыус	-11.0677
▁Хрысціян	-11.0677
▁Польшчу	-11.0678
▁кадра	-11.0679
Заходня	-11.068
▁спадарожніка	-11.0682
▁арэнд	-11.0684
груд	-11.0685
селен	-11.0693
▁Югаславіі	-11.0693
▁Se	-11.0695
▁Варта	-11.0696
над	-11.0697
▁Рускай	-11.0698
▁шляхецка	-11.0702
тып	-11.0703
▁Юрыя	-11.0706
▁дыплом	-11.0709
▁сельсавеце	-11.0709
▁паўстанцаў	-11.071
крыта	-11.0715
▁1876	-11.0716
▁часовы	-11.0719
бела	-11.072
▁валадар	-11.072
▁бачны	-11.0721
du	-11.0722
▁атрымліваюць	-11.0724
▁ВУП	-11.0724
▁Кіраўнік	-11.0725
ьнай	-11.0725
▁аэра	-11.0726
сткі	-11.0726
мел	-11.0727
▁Рэч	-11.0728
▁аўтары	-11.073
▁пазіцы	-11.0732
ko	-11.0733
▁словах	-11.0735
▁Венгрыя	-11.0737
▁падпарадкаваны	-11.0737
▁каналаў	-11.0739
▁чалавецтва	-11.074
▁трамвай	-11.074
▁Высока	-11.0741
▁самалёта	-11.0745
▁кардынал	-11.0747
▁пераведзены	-11.0748
▁саступіў	-11.0749
нула	-11.0752
▁вадарод	-11.0752
▁рускім	-11.0753
▁бюджэт	-11.0756
▁паўвостраў	-11.0756
▁факультэце	-11.0756
▁пясчаныя	-11.0756
▁рэакцыі	-11.0756
▁Свіслач	-11.0756
▁Na	-11.0756
▁Vi	-11.076
▁бальніц	-11.0762
▁нка	-11.0771
▁прызнанне	-11.0771
▁Гродзенскім	-11.0771
▁асветы	-11.0772
▁партызанскі	-11.0773
▁даход	-11.0774
uc	-11.0774
▁губ	-11.0776
дыс	-11.0779
▁Лідскі	-11.0781
▁рухавіка	-11.0781
▁Празе	-11.0782
зны	-11.0783
ападобныя	-11.0786
▁філасофі	-11.0787
▁Нідэрланды	-11.0787
▁Працягласць	-11.0787
▁ўвайшоў	-11.0787
▁распачаў	-11.0788
▁тэмператур	-11.079
Ю	-11.079
▁прывёў	-11.0794
▁захаванне	-11.0794
▁сабра	-11.0794
▁захаваны	-11.0797
▁апісаны	-11.0799
даль	-11.08
тні	-11.0802
▁прагрэс	-11.0804
▁тракт	-11.0807
▁перыядычна	-11.0808
▁Гідра	-11.0809
▁50-	-11.0815
▁зычны	-11.0816
зван	-11.0817
▁малітоўн	-11.0819
матычны	-11.0821
▁адмен	-11.0822
▁рэспублік	-11.0822
▁праяв	-11.0824
▁Навуковы	-11.0826
▁аднайменнай	-11.0826
▁Пен	-11.0827
сти	-11.0828
▁Славы	-11.0829
▁Германска	-11.083
ноўскі	-11.0832
▁пароды	-11.0833
▁рако	-11.0834
круг	-11.0835
анцы	-11.0837
▁пірамід	-11.0838
▁тыпы	-11.084
▁скульптур	-11.0841
палітычную	-11.0841
▁пражывання	-11.0842
▁1,6	-11.0842
▁пашырана	-11.0843
▁Адной	-11.0844
▁міжнародным	-11.0845
бет	-11.0846
▁позні	-11.0851
част	-11.0852
▁Полацкай	-11.0854
▁фабрыка	-11.0855
▁Цэнтральнага	-11.0855
▁Ідэ	-11.0856
▁Дама	-11.0857
▁1800	-11.0859
▁багоў	-11.0859
▁Дабра	-11.0859
▁адлюстроўва	-11.0859
▁адсутнічае	-11.086
▁мужнас	-11.086
▁ўключана	-11.0864
▁нацыянал	-11.0865
▁найстарэйшы	-11.0867
▁завярша	-11.0867
▁лясно	-11.0867
гнуты	-11.087
▁вугла	-11.0871
▁скліка	-11.0871
▁Наша	-11.0873
▁x	-11.0874
▁архіпелаг	-11.0875
▁Віт	-11.0877
▁дзяцінства	-11.0878
Ві	-11.0883
▁эпізод	-11.0883
▁каляндар	-11.0884
чыкам	-11.0888
▁любоў	-11.0889
▁Бр	-11.0892
▁1865	-11.0892
▁Wi	-11.0893
▁ган	-11.0897
▁кампаній	-11.0899
▁Малая	-11.0901
▁Наступны	-11.0901
▁паэм	-11.0904
▁Аргенцін	-11.0908
▁дзеячаў	-11.0909
▁шанава	-11.091
волі	-11.091
▁Еўрабачанне	-11.0914
▁каэфіцыент	-11.0914
▁песню	-11.0914
▁трагеды	-11.0914
▁ўпраўлення	-11.0914
▁розум	-11.0915
▁Іаан	-11.0915
▁паўфінал	-11.0916
▁Палесцін	-11.0916
▁Кругл	-11.0916
алізацыі	-11.0917
▁танкава	-11.0918
ызацыі	-11.0919
▁Усходу	-11.0921
▁Яно	-11.0921
▁Лаўр	-11.0922
▁страх	-11.0922
▁Чэхаславакіі	-11.0922
020	-11.0922
7,5	-11.093
▁Верагодна	-11.093
▁Адольф	-11.093
▁самалётаў	-11.0931
▁заўважы	-11.0931
▁дыпламатычны	-11.0931
▁Цела	-11.0933
аграфі	-11.0933
мэн	-11.0933
▁Заснавальнік	-11.0934
▁выкліка	-11.0934
леных	-11.0936
▁рэальны	-11.0936
лаўскага	-11.0937
▁жывы	-11.0938
▁Ірана	-11.094
▁высокага	-11.0943
нізм	-11.0943
▁пола	-11.0945
▁вывад	-11.0946
▁забалочана	-11.0946
▁плыні	-11.0947
▁няў	-11.0947
▁належал	-11.0948
▁падрыхтоўц	-11.0948
▁вып	-11.0949
▁падтрымліваў	-11.0949
▁ніжні	-11.095
▁ездзе	-11.0952
ліян	-11.0953
ючага	-11.0953
▁опер	-11.0956
▁беларус	-11.0956
▁артыкула	-11.0962
▁выяўленн	-11.0962
▁Егіпце	-11.0963
▁адпраўлены	-11.0963
▁балгарска	-11.0963
▁тэмп	-11.0964
▁аконны	-11.0964
▁размяшчэння	-11.0965
▁пратакол	-11.0965
ian	-11.097
▁прыродна	-11.0971
▁Жур	-11.0971
вікі	-11.0973
ja	-11.0973
▁Канадзе	-11.0973
▁Якаў	-11.0974
▁памочнік	-11.0975
▁лідараў	-11.0978
▁ўсходнім	-11.0978
▁Вайніловіч	-11.0979
▁згуляў	-11.0979
▁навуковым	-11.0979
нок	-11.0979
▁медыцынска	-11.098
▁Цэнтральная	-11.0985
▁пазна	-11.0985
▁Абрам	-11.0987
рных	-11.0989
ran	-11.0993
псі	-11.0995
▁ахоўва	-11.0996
▁адтулін	-11.0996
▁грамадзянін	-11.1
луп	-11.1001
Кар	-11.1003
кура	-11.1009
▁паляпшэнн	-11.1011
▁праектаў	-11.1011
▁сяр	-11.1012
аванні	-11.1016
▁под	-11.1016
▁кавалер	-11.1018
шэль	-11.102
▁плоскі	-11.1022
▁05	-11.1022
шую	-11.1023
▁Маскоўскі	-11.1023
нізму	-11.1025
▁баявыя	-11.1026
▁арыгінальны	-11.1027
▁эліт	-11.1028
шук	-11.1029
▁кіруе	-11.103
▁Гале	-11.1032
▁галава	-11.104
▁Бітва	-11.1042
▁СМІ	-11.1043
▁каралёў	-11.1045
лаві	-11.1052
▁Мантэ	-11.1054
▁спецыялістаў	-11.1055
▁Бак	-11.1059
▁сербскі	-11.1059
▁тэхніка	-11.106
▁знешня	-11.1062
▁латыш	-11.1063
400	-11.1064
лейтэнант	-11.1064
знаўца	-11.1069
▁планава	-11.1069
▁60-	-11.107
▁Міла	-11.1073
▁павелічэнн	-11.1073
▁БАТЭ	-11.1076
▁Узбекістан	-11.1076
▁бюро	-11.1076
▁батанік	-11.1077
▁вылучаюць	-11.1079
ёт	-11.108
▁атрады	-11.108
▁моцным	-11.108
▁урач	-11.1081
пур	-11.109
▁паняцця	-11.1092
▁пагража	-11.1092
быць	-11.1092
▁стромкі	-11.1092
▁валодаю	-11.1093
▁лацінскі	-11.1093
▁97	-11.1093
ски	-11.1097
▁Без	-11.1099
▁1875	-11.11
▁модул	-11.1105
▁аркестр	-11.1107
▁Бат	-11.1107
▁запісаў	-11.1107
▁нарэшце	-11.1108
▁Марс	-11.1113
▁нараджэнн	-11.1114
▁высокая	-11.1114
▁Вільнюс	-11.1115
▁скура	-11.1115
каталіцка	-11.1115
▁1873	-11.1115
рэцкі	-11.1116
▁125	-11.1116
▁Тарас	-11.1118
▁павялічва	-11.112
▁Песня	-11.1125
▁Салігорск	-11.1125
▁мяня	-11.1126
▁слабы	-11.1128
▁раніц	-11.1128
сыл	-11.1128
▁1,4	-11.1129
▁Польскага	-11.1129
▁тычы	-11.113
Z	-11.113
ёй	-11.1133
ect	-11.1134
▁пята	-11.1134
▁гульн	-11.1134
▁поўным	-11.1135
вугольн	-11.1136
рні	-11.1137
▁справядліва	-11.1141
▁Куп	-11.1141
▁прыгажосц	-11.1141
даваць	-11.1142
▁здзейсні	-11.1144
▁ледзь	-11.1146
▁жывых	-11.1147
▁Ізраіль	-11.1147
▁дакументы	-11.1148
▁1820	-11.1149
▁1814	-11.1151
▁87	-11.1152
▁Анатол	-11.1152
піён	-11.1153
▁Значна	-11.1153
▁яўляцца	-11.1157
▁сканчэнн	-11.1157
▁дзяржавамі	-11.1158
▁аблог	-11.1158
▁павыша	-11.1162
пісаны	-11.1165
▁1815	-11.1167
▁Плад	-11.1172
▁тэкстаў	-11.1173
▁прамым	-11.1174
▁падабенства	-11.1177
▁падатка	-11.1181
▁1877	-11.1181
▁Кун	-11.1184
▁Кул	-11.1186
ess	-11.1188
леўскі	-11.1188
эз	-11.1189
▁Знак	-11.1189
▁Босніі	-11.119
▁дырыжор	-11.119
▁небяспек	-11.119
▁1772	-11.1191
▁набліжа	-11.1192
▁Круп	-11.1192
▁шум	-11.1193
▁гвалт	-11.1193
▁мак	-11.1195
▁архіпелага	-11.1198
▁Маршал	-11.1198
▁уступіў	-11.1199
▁прадметы	-11.12
▁Турцыя	-11.12
▁служа	-11.1202
▁абслугоўва	-11.1205
▁гравюр	-11.1206
▁пісьменніц	-11.1207
▁сенатар	-11.1207
▁клетак	-11.1207
▁Статут	-11.1207
▁Паўночным	-11.1208
▁ідэал	-11.1208
тычнае	-11.121
ловіч	-11.1213
▁прамов	-11.1215
▁Евангелля	-11.1215
▁Заходнім	-11.1216
▁выпуску	-11.1221
▁аналаг	-11.1221
▁знакаў	-11.1222
▁тагачасна	-11.1223
вол	-11.1224
даючы	-11.1226
▁Бары	-11.1229
дзённы	-11.1229
▁Жыве	-11.1235
Ха	-11.1239
▁акупіравана	-11.1239
▁фестываль	-11.1239
▁Лагойскі	-11.1239
▁прымаю	-11.124
▁Выкарыстоўва	-11.124
▁заключэнн	-11.124
▁абазнача	-11.1241
▁мільён	-11.1242
▁металаў	-11.1244
▁перадава	-11.1245
сярэдзіне	-11.1246
▁атакава	-11.1247
спект	-11.1248
▁Сенат	-11.1253
▁Астравы	-11.1253
ا	-11.1256
▁Скончыла	-11.1256
▁сацыялістычна	-11.1256
▁Сучасна	-11.1256
зоў	-11.1256
▁Сонечна	-11.1257
кві	-11.1258
▁тавар	-11.1259
▁вус	-11.126
кавым	-11.1262
ляны	-11.1262
▁Шан	-11.1263
▁далучана	-11.1263
▁некалькімі	-11.1266
▁злучэння	-11.1272
▁вяселл	-11.1272
▁дрэвы	-11.1273
разуме	-11.1273
▁продкаў	-11.1273
▁Гродне	-11.1273
▁пашырэння	-11.1274
▁ўмацава	-11.1277
▁сядзібна	-11.1278
▁насілі	-11.1281
▁пісьмо	-11.1281
▁карта	-11.1284
несла	-11.1286
▁кандыдата	-11.1289
▁Магілёве	-11.1289
▁Леапольд	-11.1289
▁мяккі	-11.1289
▁пазнейшы	-11.129
▁Ленінградска	-11.1291
▁распрацаваў	-11.1292
▁лідарам	-11.1296
▁палкоўнік	-11.1296
▁Ушацкі	-11.1298
ik	-11.1298
люс	-11.1299
pr	-11.1299
бег	-11.1299
▁барацьба	-11.1302
▁прымяня	-11.1304
цук	-11.1304
5,5	-11.1306
―	-11.1306
▁халодны	-11.1306
▁Сенненскі	-11.1306
▁неабходнасц	-11.1307
▁Бон	-11.1308
▁хуткім	-11.1308
▁пісьмова	-11.131
▁працягвалас	-11.1311
цвя	-11.1311
сне	-11.1312
▁105	-11.1316
піл	-11.1316
▁свабоду	-11.1317
▁размешчаная	-11.1318
ніла	-11.132
▁Кол	-11.1322
▁Альбрэхт	-11.1322
▁публічна	-11.1322
▁Прызавы	-11.1322
▁шклян	-11.1323
▁запісаны	-11.1323
▁Грын	-11.1324
▁царквой	-11.1325
▁Асе	-11.133
▁галавы	-11.1331
▁Бабруйскі	-11.1332
лавічы	-11.1334
▁Заснавана	-11.1339
▁аднолькавы	-11.1339
▁абарот	-11.134
чава	-11.1342
▁Юзаф	-11.1343
▁Меў	-11.1345
▁падтрымка	-11.1346
▁Хер	-11.1347
ap	-11.1348
ДУ	-11.135
▁распрацоўкі	-11.135
▁вас	-11.1353
нёва	-11.1354
▁Ісландыі	-11.1356
▁Тэле	-11.1356
▁пераназва	-11.1356
▁трэнерам	-11.1356
▁Вынік	-11.1357
▁палітыцы	-11.1358
▁заканадаўства	-11.1358
▁забалочаныя	-11.1358
▁мне	-11.1363
▁адзінага	-11.1366
▁сцэне	-11.137
▁Оль	-11.1371
▁кле	-11.1371
▁пашкоджанн	-11.1372
▁каштоўнасцей	-11.1373
▁Каралеўскі	-11.1374
▁Сур	-11.1377
▁Аўстрыйска	-11.1377
▁знішчыў	-11.1377
▁сёл	-11.1383
▁зале	-11.1383
▁лагера	-11.1385
▁хава	-11.1386
▁баяво	-11.1386
гародск	-11.1388
▁тэхналогій	-11.1389
▁прадмесц	-11.1389
▁шматгадовы	-11.139
▁Ігнат	-11.139
▁заходне	-11.1391
▁Месяц	-11.1391
▁суха	-11.1392
▁дэмакратычна	-11.1395
▁Зараз	-11.1395
▁шырокай	-11.1396
▁Фёдара	-11.1396
▁скульптура	-11.1397
▁93	-11.1399
пёр	-11.14
▁метры	-11.1402
▁Камар	-11.1404
▁дзікі	-11.1405
▁гістарыяграфі	-11.1406
▁халодна	-11.1406
▁знайшлі	-11.1406
▁Інг	-11.1407
▁віленска	-11.1409
▁Канстанцінопаль	-11.141
наваны	-11.1412
▁сабраў	-11.1414
▁кляштара	-11.1415
крыж	-11.1417
▁баё	-11.1419
▁Pro	-11.1421
▁аснова	-11.1422
▁кірунак	-11.1423
▁могілкі	-11.1423
▁Італію	-11.1423
▁Армянска	-11.1423
▁сучаснік	-11.1424
рку	-11.1431
▁суперніка	-11.1434
▁польск	-11.1434
ist	-11.1435
▁Дэн	-11.1438
6,5	-11.144
▁Амундсен	-11.144
▁практыцы	-11.144
▁паралельна	-11.144
▁варожы	-11.144
-13	-11.1441
аген	-11.1443
ходзілі	-11.1443
▁здрад	-11.1443
zi	-11.1445
▁матыва	-11.1445
левы	-11.1446
▁мовамі	-11.1446
▁нарыс	-11.1446
▁Імя	-11.1447
▁разв	-11.1447
ніст	-11.1449
▁спява	-11.145
▁карысталіс	-11.1452
▁току	-11.1452
▁вулкан	-11.1453
▁Гур	-11.1455
▁перамяшчэнн	-11.1456
▁тэрытарыяльны	-11.1457
▁кольца	-11.1459
▁пяты	-11.146
▁залато	-11.1462
▁ІІ	-11.1464
▁аўтамабільны	-11.1466
▁тэрмінам	-11.1467
▁рэвалюцыйны	-11.1467
вецкі	-11.147
tus	-11.147
▁аналагічны	-11.1471
▁Ліс	-11.1474
▁Існую	-11.1474
▁Расію	-11.1475
лізацы	-11.1476
▁Алекс	-11.1477
▁Саветаў	-11.1479
наўка	-11.1484
▁ферм	-11.1484
▁уведзены	-11.1486
▁Канстанцінопал	-11.1486
▁вечар	-11.1487
▁здабыча	-11.1489
▁абгрунтава	-11.149
▁найвышэйша	-11.149
▁эстафе	-11.149
▁адзначаецца	-11.1492
▁Алжыр	-11.1492
▁уварва	-11.1496
▁Прыкладна	-11.1496
▁Роберта	-11.1496
▁дата	-11.1497
монт	-11.1498
▁трапляе	-11.1502
▁Хат	-11.1502
▁супрацоўнікам	-11.1503
▁ўключаю	-11.1503
▁спыніла	-11.1503
za	-11.1503
ay	-11.1505
▁запрошаны	-11.1507
▁Di	-11.151
▁футбола	-11.1512
ron	-11.1514
▁Прыпяц	-11.1517
▁кветка	-11.1518
гоні	-11.1519
троп	-11.1522
▁загадчыкам	-11.1522
▁камплект	-11.1524
▁пытанняў	-11.1525
ыходзячы	-11.1532
дэмакрат	-11.1532
▁маёмасці	-11.1533
онны	-11.1533
▁маршал	-11.1537
if	-11.1537
▁ўтрымлівае	-11.1538
▁балета	-11.1538
▁капэл	-11.1539
▁збудаванне	-11.1541
land	-11.1541
▁выпушчана	-11.1541
▁кароны	-11.1542
▁найменш	-11.1542
▁Вілейска	-11.1542
▁заменены	-11.1543
▁кат	-11.1544
▁навукоўцы	-11.1545
метр	-11.1547
дзясят	-11.1548
чыкі	-11.1548
▁выйсц	-11.1551
▁эфектыўна	-11.1551
▁весці	-11.1552
▁Пір	-11.1555
▁79	-11.1557
▁медалямі	-11.1557
▁Эйнштэйн	-11.1558
▁ахоплівае	-11.1559
рбан	-11.156
▁сцэны	-11.1561
▁Талін	-11.1561
▁пілот	-11.1561
▁Эрык	-11.1562
▁істотны	-11.1562
▁карпус	-11.1562
▁Глін	-11.1563
▁пераважа	-11.1565
▁лётчык	-11.1566
фільм	-11.1568
▁душы	-11.1569
▁гарачы	-11.1572
мелі	-11.1572
▁выкліканы	-11.1574
▁заканчва	-11.1575
тацыя	-11.1576
▁Астравецкі	-11.1576
▁Камісі	-11.1578
▁прэфектур	-11.1581
▁скрын	-11.1581
ходзячы	-11.1584
▁судовы	-11.1586
▁Вільня	-11.1589
▁аўтадарог	-11.159
▁кафедра	-11.159
▁Плі	-11.159
▁найвышэйшы	-11.1592
▁паведамляе	-11.1593
▁няўдала	-11.1593
▁супраціўленне	-11.1593
▁арэнду	-11.1594
▁шэра	-11.1594
▁Вялі	-11.1597
ству	-11.1599
дразу	-11.16
▁батальён	-11.1601
▁колераў	-11.1601
▁перабудов	-11.1601
▁прыведзены	-11.1601
мерны	-11.1605
▁рабіць	-11.1605
▁Жар	-11.1607
▁Варшаўска	-11.161
▁89	-11.1612
▁забеспячэнне	-11.1613
▁Архі	-11.1613
▁славянска	-11.1614
ria	-11.1615
▁рэспубліканскі	-11.1617
▁позняга	-11.1618
▁Радзівілаў	-11.162
запіс	-11.1624
▁буйнейшы	-11.1627
▁адміністрацыя	-11.1627
▁малітв	-11.1627
дов	-11.1627
▁сюды	-11.1628
▁студыі	-11.163
▁шляхоў	-11.1631
▁праўда	-11.1631
▁адышл	-11.1632
▁Спі	-11.1632
▁прыбытк	-11.1632
▁1883	-11.1634
▁навукоўцаў	-11.1636
▁Цё	-11.1637
▁плаванн	-11.1637
▁каралю	-11.1639
фашысцк	-11.1641
▁Лан	-11.1642
нікненн	-11.1643
▁пяс	-11.1643
▁малюнак	-11.1644
▁злучэнняў	-11.1644
таваў	-11.1645
▁Альб	-11.1648
▁здольнасць	-11.1649
▁гаспадарча	-11.1649
ццю	-11.1653
▁ёмам	-11.1655
шнік	-11.1655
▁Фёдаравіч	-11.1657
▁антычна	-11.1659
▁узначаліў	-11.1661
▁фінансаў	-11.1661
▁гібелі	-11.1661
▁Прыбалты	-11.1661
▁брэйк	-11.1662
▁рэлігі	-11.1662
▁ніводна	-11.1662
шмат	-11.1662
▁абсерваторыі	-11.1664
▁кветкавы	-11.1664
▁сектар	-11.1665
▁рэчаіснасц	-11.1668
▁Старога	-11.1669
▁квадратны	-11.1671
▁прадаў	-11.1672
▁магутна	-11.1673
▁вузкі	-11.1676
vo	-11.1678
▁фінальны	-11.1679
▁Пятро	-11.1679
▁ўрач	-11.1679
▁роспіс	-11.168
▁забаронена	-11.1681
▁Вышэйшы	-11.1681
▁маста	-11.1682
▁наперад	-11.1682
Ва	-11.1683
▁манеты	-11.1684
льніца	-11.1685
▁епіскап	-11.169
энт	-11.169
▁Калумб	-11.1693
▁сала	-11.1693
▁Mi	-11.1694
чор	-11.1694
▁астатня	-11.1696
▁удалос	-11.1696
▁павелічэнне	-11.1698
▁перасяленн	-11.1698
▁архіў	-11.1699
▁адказны	-11.17
цці	-11.17
▁кір	-11.1702
OS	-11.1704
Усходня	-11.1705
▁900	-11.1706
▁партыйна	-11.1708
▁выкладчыкам	-11.1711
▁Аф	-11.1712
▁пасольства	-11.1713
▁ног	-11.1713
▁агонь	-11.1713
▁іспанц	-11.1713
▁магутнасц	-11.1714
▁падводны	-11.1716
▁Граб	-11.1717
▁чарна	-11.1718
▁Кампа	-11.172
▁Захар	-11.1722
▁старога	-11.1723
▁радовішч	-11.1727
▁узбярэжжа	-11.1727
плы	-11.1727
▁майстэрства	-11.173
▁Некалькі	-11.173
▁ўрачыста	-11.173
▁папуляцы	-11.173
▁турыстаў	-11.1732
цюр	-11.1734
▁хрысціянска	-11.1736
▁Фінляндыя	-11.1736
нары	-11.1737
ніжэнн	-11.1738
▁1869	-11.1738
данні	-11.1739
▁фігуры	-11.174
ep	-11.1746
▁крымінальна	-11.1748
▁дызайн	-11.1749
▁дзесяць	-11.1751
▁91	-11.1751
рыё	-11.1753
дэл	-11.1756
нізава	-11.1756
фен	-11.176
▁Вало	-11.1761
▁фінале	-11.1762
▁удзельніча	-11.1763
еўрапейск	-11.1763
▁ma	-11.1763
▁скур	-11.1763
▁ажыццяўленн	-11.1765
▁візантыйскі	-11.1765
▁рэвалюцыя	-11.1765
▁апазіцыі	-11.1765
▁Сірыі	-11.1766
▁Лы	-11.1767
АН	-11.1768
дэс	-11.1768
манам	-11.1769
▁каранава	-11.177
▁Стэн	-11.1771
▁разбіты	-11.1772
▁1654	-11.1773
▁адкрыла	-11.1776
▁выбітны	-11.1776
джэр	-11.1777
▁дэль	-11.1777
▁фундамент	-11.1778
мата	-11.178
▁Мад	-11.178
▁ХІХ	-11.1782
▁мякка	-11.1782
▁Крыжа	-11.1785
▁гука	-11.1785
▁посуд	-11.1786
▁Выбар	-11.1788
▁спаліл	-11.1789
▁завяршыў	-11.179
▁спаборніцтв	-11.179
▁аддаў	-11.1792
▁дзеючы	-11.1792
▁абедзв	-11.1793
▁дубль	-11.1799
2,8	-11.18
▁World	-11.18
▁ўяўляю	-11.1801
▁Традыцыйна	-11.1802
▁мармур	-11.1802
▁кор	-11.1803
▁спосабам	-11.1806
▁хмызняк	-11.181
010	-11.1811
▁To	-11.1813
▁бакавыя	-11.1814
▁спрабавалі	-11.1817
▁руін	-11.1818
▁Ізраіля	-11.1819
▁сотні	-11.1821
▁la	-11.1824
▁Іса	-11.1825
▁Par	-11.1826
▁Якуба	-11.1826
▁Раён	-11.1826
▁згуб	-11.1826
▁Тыр	-11.1827
▁Стру	-11.1828
▁заснава	-11.183
▁сялянскі	-11.1831
▁Рэчыцкі	-11.1831
▁Сцяпан	-11.1832
▁Само	-11.1833
▁Албаніі	-11.1835
▁тунэл	-11.1835
▁Лунінец	-11.1835
▁Міжземнамор	-11.1835
▁датуе	-11.1835
▁здабыва	-11.1837
▁папулярнасц	-11.1841
▁свяці	-11.1844
▁1839	-11.1845
▁выпадкова	-11.1845
▁вайно	-11.1846
▁ўведзена	-11.185
▁Мядзведзіца	-11.1852
▁Спар	-11.1853
▁сума	-11.1854
▁унутры	-11.1854
▁развед	-11.1855
▁Эры	-11.1856
▁вяршыня	-11.1857
▁атама	-11.1857
▁нейка	-11.1859
▁вобл	-11.1859
▁накрыты	-11.1861
чок	-11.1865
▁лап	-11.1866
▁выявілі	-11.1866
▁гавора	-11.1868
▁Літоўскім	-11.187
▁харч	-11.187
▁талент	-11.1871
▁самім	-11.1871
▁збудаваны	-11.1873
so	-11.1874
▁арганізма	-11.1874
▁перайменаваны	-11.1874
▁92	-11.1875
▁губерняў	-11.1875
▁перавоз	-11.1877
ццё	-11.188
up	-11.188
▁выпадк	-11.1882
▁адбываю	-11.1882
▁чэмпіёнаў	-11.1882
мела	-11.1883
▁1,1	-11.1884
▁Championship	-11.1888
▁Савец	-11.1888
▁рэгулява	-11.1888
▁пенсі	-11.1888
▁Фердынанд	-11.1889
mp	-11.1892
▁магло	-11.1896
▁гавары	-11.1896
▁Сцен	-11.1897
▁акіяне	-11.19
▁Маладзечанскі	-11.1905
▁трапіла	-11.1906
▁адзення	-11.1906
▁большы	-11.1906
▁Каманда	-11.1907
▁адбываліс	-11.1908
▁Яму	-11.1908
▁лёгкі	-11.191
▁задня	-11.1912
▁паэтычны	-11.1913
▁дадзеным	-11.1914
▁адпраўля	-11.1914
▁арк	-11.1917
▁магутнасці	-11.1919
▁авары	-11.1919
слуг	-11.192
▁Пінска	-11.1922
▁пісьма	-11.1923
▁дрэнна	-11.1923
▁хваста	-11.1925
▁ўзяў	-11.1925
ский	-11.1925
▁лінію	-11.1927
▁кантынента	-11.1927
▁Друг	-11.1929
віц	-11.193
▁Шап	-11.1931
▁Ака	-11.1933
▁праход	-11.1935
міністрам	-11.1939
▁марка	-11.194
▁no	-11.194
▁адрознення	-11.1941
▁сродак	-11.1941
▁сакрэт	-11.1941
жанне	-11.1943
славянска	-11.1944
▁Кожна	-11.1945
транс	-11.1945
берга	-11.1947
▁мастаком	-11.1948
▁падкрэслі	-11.1948
▁115	-11.1949
lin	-11.195
фта	-11.1953
▁Нарвегі	-11.1955
▁выкананн	-11.1957
▁забіва	-11.1958
▁дасягненні	-11.1958
▁ажыццяві	-11.1958
▁рэсурсаў	-11.1958
▁парламенцкі	-11.1958
▁палякаў	-11.1959
▁сляд	-11.1959
▁залатым	-11.1961
▁Гус	-11.1965
▁крам	-11.1965
▁струн	-11.1967
▁сумесны	-11.1969
▁Працоўн	-11.1971
▁выкарыстанн	-11.1974
▁Стар	-11.1974
▁гета	-11.1974
бана	-11.1975
▁Смаргонскі	-11.1976
▁падрабязна	-11.1976
▁экспанат	-11.1976
▁вопратк	-11.1976
▁пастаноўк	-11.1979
▁артылерыі	-11.1979
▁ніяка	-11.1981
▁прастола	-11.1983
▁здольнасці	-11.1984
ратар	-11.1988
▁Бата	-11.1994
▁Навагрудскі	-11.1994
▁прадстаўленн	-11.1994
цэнтры	-11.1995
▁тэрыторыях	-11.1995
бад	-11.1997
дзень	-11.2
▁абсталяванне	-11.2001
▁туды	-11.2003
by	-11.2003
мешва	-11.2005
▁стол	-11.2005
▁амерыканская	-11.2007
▁РБ	-11.2009
▁пазбаўлены	-11.2012
▁Варонеж	-11.2012
▁ўзгорк	-11.2013
▁рэклам	-11.2015
▁Ніл	-11.2015
▁электронна	-11.2015
▁Вір	-11.2016
цінскі	-11.2017
▁раўніна	-11.2018
▁вусці	-11.2019
нькі	-11.2021
▁месці	-11.2023
▁фабрык	-11.2025
▁воінаў	-11.2027
▁асяроддзе	-11.2027
▁паўвостраве	-11.203
аматар	-11.203
▁чарговы	-11.203
▁курорт	-11.203
▁паселішчаў	-11.2031
▁абвінавачванн	-11.2032
▁Замак	-11.2033
▁літоўска	-11.2039
▁куст	-11.2041
▁знішчана	-11.2041
▁часці	-11.2042
▁калекцы	-11.2042
▁закрыты	-11.2047
▁уладальнік	-11.2048
▁камерцыйны	-11.2049
ДП	-11.2049
▁дасягаю	-11.2052
▁Пітэр	-11.2055
▁арыгінал	-11.2056
▁Зуб	-11.2058
▁прызнана	-11.2062
▁кост	-11.2065
▁цывілізацыі	-11.2065
▁цёплы	-11.2065
▁ўзаемадзеяння	-11.2065
▁школах	-11.2066
▁гатовы	-11.2066
▁Лас	-11.2067
▁герой	-11.2067
▁Мора	-11.2067
▁Орша	-11.2068
алежнасць	-11.2068
▁мячэц	-11.207
цыйную	-11.207
саксонск	-11.2072
▁насенне	-11.2073
▁паруша	-11.2077
▁бамбардзір	-11.2079
ўскіх	-11.208
си	-11.2081
▁зборніка	-11.2081
▁збег	-11.2082
▁выключа	-11.2083
ł	-11.2083
▁International	-11.2083
▁Найбуйнейшы	-11.2083
▁военачальнік	-11.2083
▁выпадак	-11.2083
▁скасавана	-11.2083
ди	-11.2084
▁Займаў	-11.2086
▁храмаў	-11.2096
▁Кат	-11.2098
чку	-11.2099
▁спыніў	-11.21
▁недастаткова	-11.2101
▁сярэднявечна	-11.2101
▁агенцтва	-11.2101
▁паштовы	-11.2102
▁Алімпіяд	-11.2102
▁тлушч	-11.2102
▁абяца	-11.2104
▁Аку	-11.2108
▁варыянты	-11.2111
▁лёт	-11.2114
▁тэрытарыяльна	-11.2115
▁геаметры	-11.2118
▁Іўеўскі	-11.2119
▁веды	-11.212
▁пачатковы	-11.212
▁перы	-11.2122
▁ФК	-11.2124
▁свецка	-11.2124
▁плада	-11.2126
аснавальнікаў	-11.2127
▁падпарадкаванн	-11.2129
▁Венгерска	-11.2132
▁сельскага	-11.2133
гма	-11.2135
леб	-11.2136
▁Македоніі	-11.2137
▁кантэкс	-11.2138
▁апавяданні	-11.2138
▁0,9	-11.2139
стэры	-11.214
ходзіла	-11.2141
▁Баку	-11.2141
▁Аві	-11.2144
лянд	-11.2144
душ	-11.2147
▁дэмакратычны	-11.215
2,3	-11.2152
▁ВНУ	-11.2155
▁Дэпутат	-11.2155
▁Турнір	-11.2156
▁кіруючы	-11.2157
▁рэшт	-11.2157
▁абаронц	-11.2158
▁паказалі	-11.2159
▁карысны	-11.2163
▁Мадрыд	-11.2164
▁1859	-11.2166
▁нель	-11.2166
▁1856	-11.2166
▁лісты	-11.2166
▁феадал	-11.217
▁1700	-11.2172
▁бог	-11.2172
▁Ваўкавыск	-11.2173
▁Імперыі	-11.2174
▁Сербска	-11.2174
▁тэарэтычна	-11.2174
затар	-11.2176
▁сястра	-11.2176
▁Апалон	-11.2176
▁інструмента	-11.2178
▁Вайна	-11.2178
▁тыл	-11.2179
белы	-11.218
▁гаспадарцы	-11.2181
▁ансамбль	-11.2181
▁Малады	-11.2184
лагі	-11.2184
▁партрэты	-11.2186
▁Конга	-11.2186
▁вырашылі	-11.2186
▁пусты	-11.2189
ord	-11.219
раваць	-11.2191
wi	-11.2191
▁дзір	-11.2192
▁пазбегну	-11.2192
▁пацвярджа	-11.2192
▁шкло	-11.2192
▁Еўразіі	-11.2192
▁падпарадкавання	-11.2194
чи	-11.2196
son	-11.2197
▁Полацку	-11.2199
▁свецкі	-11.2201
▁Кракаў	-11.2201
▁o	-11.2201
▁камандзірам	-11.2204
▁полюса	-11.2207
▁фармірава	-11.2207
▁фізіялогі	-11.221
▁змяшчаю	-11.221
трымаць	-11.221
▁страціла	-11.221
▁дыскусі	-11.221
▁арбіты	-11.221
▁аул	-11.2213
▁Соф	-11.2213
▁Арагон	-11.2216
▁Ашмян	-11.2216
▁1,8	-11.2218
будаванне	-11.2219
▁1858	-11.2219
q	-11.222
▁рэформа	-11.2222
кут	-11.2224
▁заваявання	-11.2225
▁перасякае	-11.2228
▁зімой	-11.223
▁Стал	-11.2231
▁Хам	-11.2239
▁Дара	-11.2241
тнае	-11.2243
плод	-11.2243
▁княств	-11.2244
▁Жук	-11.2246
▁здолелі	-11.2246
▁жалезна	-11.2247
▁Зорка	-11.2247
▁Гарба	-11.225
▁Таскан	-11.2252
зімку	-11.2256
▁Гэ	-11.2258
▁Міра	-11.2258
▁Грэцыя	-11.2259
▁пячоры	-11.2262
▁Windows	-11.2265
▁паляўнічы	-11.2265
ly	-11.2268
▁перамагл	-11.227
▁1200	-11.2272
▁першынств	-11.2274
▁страта	-11.2274
▁свято	-11.2277
▁94	-11.228
▁піва	-11.2281
‰	-11.2283
▁духавенства	-11.2283
▁ліцэнзі	-11.2283
▁Двух	-11.2283
▁кааліцы	-11.2286
▁Гарэ	-11.2286
▁Ra	-11.2287
▁Гульня	-11.2287
▁Сярэднявечча	-11.2288
▁крэм	-11.2289
▁мясцін	-11.2291
джан	-11.2292
▁імперыяй	-11.2296
▁плён	-11.2296
зялёна	-11.2297
▁распаўсюджвання	-11.2299
▁выкарыста	-11.2299
▁вільготна	-11.2301
▁шчупак	-11.2301
▁кірмаш	-11.2302
була	-11.2303
▁аператыўна	-11.2303
▁падтрымаў	-11.2306
▁Галь	-11.2312
ючая	-11.2313
▁Канстытуцы	-11.2315
▁падыма	-11.2315
▁славу	-11.2317
▁Група	-11.2318
▁інтэрв	-11.2319
▁творчы	-11.232
▁гароднін	-11.232
▁Чалавек	-11.232
▁зямлё	-11.232
▁Берагавая	-11.232
▁памеру	-11.2321
▁кіравалі	-11.2325
свечаны	-11.2326
▁Вакол	-11.2327
фарб	-11.233
▁Стрэ	-11.2332
▁жанры	-11.2336
▁неабходнасць	-11.2336
▁бронз	-11.2336
ς	-11.2338
▁Крысціян	-11.2338
▁магнітны	-11.2339
каўшчына	-11.234
авуць	-11.2341
▁паўз	-11.2342
▁ўчастак	-11.2343
▁спявачка	-11.2343
▁Удзельніча	-11.2344
эмп	-11.2346
▁1874	-11.2347
▁наклад	-11.2353
гранна	-11.2353
▁рытуал	-11.2354
▁высок	-11.2354
▁Мур	-11.2356
▁матэматычна	-11.2357
▁сканцэнтрава	-11.2357
▁рэгіянальна	-11.2357
▁інтарэсаў	-11.2357
▁батарэ	-11.2357
▁нашчадкаў	-11.2358
▁Верхні	-11.2358
▁медаля	-11.2358
▁Аршанска	-11.2359
спан	-11.2361
▁дошка	-11.2363
▁епіскапа	-11.2363
▁1872	-11.2365
▁просьб	-11.2366
▁вясной	-11.2371
аўская	-11.2372
▁Лазар	-11.2372
▁Тарпеда	-11.2375
▁паведаміў	-11.2375
▁перанесены	-11.2375
▁прэстыж	-11.2375
лож	-11.2379
▁веліч	-11.2379
▁лінейна	-11.238
▁сімвалаў	-11.2381
▁ран	-11.2381
2,4	-11.2384
#	-11.2386
▁сцвярджа	-11.2386
▁Пле	-11.2388
▁знішчэнн	-11.2388
▁юрыст	-11.239
▁Мэры	-11.2393
▁філалагічны	-11.2394
▁мясцовасць	-11.24
▁адлюстраванне	-11.2401
▁Двор	-11.2402
дэры	-11.2404
▁грамадзянства	-11.2404
▁Жана	-11.2405
▁ўзначальваў	-11.2406
▁Камітэта	-11.2406
▁светлавы	-11.2408
гол	-11.2409
2,6	-11.2412
▁Рудольф	-11.2412
▁археалогі	-11.2412
▁пазіцый	-11.2413
▁торф	-11.2414
▁гелі	-11.2415
▁Лукі	-11.2417
▁электронны	-11.2418
▁дазволіў	-11.2418
рэчча	-11.2423
бож	-11.2426
▁сутыкнення	-11.2427
▁Жыву	-11.2427
▁Улас	-11.2427
▁вызваленне	-11.2428
▁Об	-11.2429
▁ціскам	-11.2429
2,1	-11.2431
ö	-11.2431
▁Зеландыі	-11.2431
▁прапанавана	-11.2431
▁багаслоў	-11.2431
▁інфекцы	-11.2431
▁мітынг	-11.2431
▁разарва	-11.2433
▁Жал	-11.2433
▁Дзяржынскі	-11.2433
▁царскі	-11.2434
▁РФ	-11.2439
▁запісу	-11.2439
▁межаў	-11.244
▁сок	-11.2442
▁перап	-11.2444
дыё	-11.2445
біла	-11.2447
▁рэгулярны	-11.2449
▁вітамін	-11.245
▁пратэсту	-11.2451
▁ствараю	-11.2451
▁пальм	-11.2458
ich	-11.2458
▁сіня	-11.246
▁Вес	-11.2462
▁Берг	-11.2463
▁малява	-11.2467
▁прадстаўніко	-11.2468
▁мона	-11.2468
▁дзейнічаю	-11.247
▁каляровы	-11.247
ski	-11.2471
▁біяграфі	-11.2472
▁Рыа	-11.2472
▁пойма	-11.2472
двор	-11.2472
▁фракцы	-11.2473
▁1,7	-11.2473
▁Шыр	-11.248
▁званні	-11.2482
▁этна	-11.2486
▁далучэння	-11.2486
▁паглына	-11.2487
▁Баварыі	-11.2487
▁апісва	-11.2487
▁паласа	-11.2488
▁Візантыі	-11.2488
▁09	-11.2494
ii	-11.2495
▁эканоміка	-11.25
▁біялогі	-11.2501
tic	-11.2503
▁выраблены	-11.2504
▁1794	-11.2505
▁памянша	-11.2505
▁прадзюсар	-11.2505
▁Доўгі	-11.2505
▁аператар	-11.2506
▁Францыяй	-11.2507
лагічна	-11.2508
▁кіраванн	-11.2509
▁закладзены	-11.2509
▁легенда	-11.2509
▁папер	-11.2509
▁Маха	-11.251
ераў	-11.2511
ight	-11.2513
▁Склада	-11.2514
▁ўздым	-11.2517
sk	-11.2519
▁фармат	-11.252
▁глеб	-11.2521
▁франка	-11.2523
▁ФРГ	-11.2524
▁заканадаўчы	-11.2524
▁прэтэнзі	-11.2524
▁вучона	-11.2524
▁хрыбет	-11.2524
▁ўстаноўлена	-11.2525
▁дадатк	-11.2533
▁бедны	-11.2533
▁кратар	-11.2533
акцый	-11.2534
▁Con	-11.2535
▁1842	-11.2535
Ла	-11.2539
▁арэх	-11.254
казвае	-11.2541
▁прынцыпы	-11.2541
▁супраціў	-11.2542
▁Праваслаўна	-11.2543
▁прызваны	-11.2544
▁трапілі	-11.2544
▁Ph	-11.2544
▁цыта	-11.2544
▁сыход	-11.2544
▁хвароба	-11.2546
▁камет	-11.2546
▁Север	-11.2546
хвост	-11.2546
▁радовішча	-11.2547
▁засталос	-11.2547
▁успаміна	-11.2548
▁кіт	-11.2549
▁выхадц	-11.2549
▁саступа	-11.2551
▁ехаў	-11.2553
▁Радыё	-11.2553
▁Мака	-11.2554
▁дэман	-11.2554
▁выклікаў	-11.2554
▁Полацкі	-11.2555
▁праліў	-11.2555
▁чорнага	-11.2558
▁пераемнік	-11.2559
▁антычны	-11.2559
рэц	-11.2559
гір	-11.256
▁пасажыраў	-11.2562
▁змяняе	-11.2562
ваходзяць	-11.2566
▁герояў	-11.2567
▁нападу	-11.2569
▁Польскі	-11.257
▁Францыска	-11.2571
sp	-11.2573
▁дыялекты	-11.2573
▁плоскасці	-11.2574
клон	-11.2574
▁губля	-11.2579
▁спара	-11.2581
▁Атлантычна	-11.2581
▁дзвяр	-11.2582
▁юстыцы	-11.2582
▁поўнага	-11.2584
▁сквер	-11.2585
▁Адносі	-11.2591
▁крызісу	-11.2597
энцы	-11.2599
▁землетрасенн	-11.26
▁гама	-11.26
▁Ленін	-11.26
▁Берн	-11.26
ue	-11.26
▁Генерал	-11.2601
▁Ізабел	-11.2601
▁палавы	-11.2601
▁тыповы	-11.2601
▁падмурк	-11.2603
▁Сезон	-11.2604
▁марш	-11.2606
язджа	-11.2608
rus	-11.2609
▁дзесяцігоддз	-11.261
▁лепшым	-11.2611
будоўва	-11.2612
▁следства	-11.2614
будаўнічы	-11.2616
шэўскі	-11.2617
▁КДБ	-11.2618
▁прыгожы	-11.2619
▁акупант	-11.2619
▁фунтаў	-11.2619
▁дзясятка	-11.2621
фэ	-11.2621
▁маральна	-11.2623
▁рабіў	-11.2624
▁будучыні	-11.2625
▁Амерыканска	-11.2625
шова	-11.2627
▁вулкана	-11.2628
▁матэматычны	-11.2629
оты	-11.2631
гадовым	-11.2632
▁Багародзіцы	-11.2632
-22	-11.2634
Y	-11.2635
▁прыйшла	-11.2635
наўскага	-11.2637
▁маленька	-11.2637
▁Партызан	-11.2637
▁нацысцка	-11.2638
▁Выхаван	-11.2638
▁Цэзар	-11.2638
▁меркаванн	-11.2638
тарны	-11.2639
▁Прусія	-11.2639
▁абсталявання	-11.2639
▁перавыша	-11.264
▁Амерыка	-11.264
▁намаганн	-11.264
▁супрацоўнікаў	-11.2641
▁страт	-11.2641
▁Кві	-11.2643
зровень	-11.2645
годдз	-11.2645
▁Янка	-11.2646
▁Зямл	-11.2651
▁2000-	-11.2651
фары	-11.2653
▁СНД	-11.2656
▁шырыні	-11.2657
▁ўзоры	-11.2658
ЭС	-11.2658
▁суме	-11.266
ock	-11.2662
▁XXI	-11.267
▁чыгуначная	-11.2672
верг	-11.2673
верагодн	-11.2675
▁Афіцыйны	-11.2676
▁пабудов	-11.2676
ok	-11.2677
ціск	-11.2677
▁паставіў	-11.2677
▁Герцаг	-11.2677
▁цэнтральным	-11.2677
▁Таб	-11.2678
▁сукупнасць	-11.2678
▁Георгій	-11.2679
ana	-11.2679
▁хе	-11.2681
▁Сант	-11.2684
▁Кобрын	-11.2685
▁ўспрыма	-11.2686
сэн	-11.2687
нейша	-11.2689
▁шчыта	-11.269
▁Аўстралія	-11.2691
▁Жыгімонт	-11.2692
ment	-11.2693
▁узаемадзеянн	-11.2695
▁вертыкальна	-11.2695
▁жалезны	-11.2695
ice	-11.2695
▁SBc	-11.2696
▁Пяс	-11.2696
▁ўласнасць	-11.27
▁абарона	-11.27
▁завяршэння	-11.2702
▁j	-11.2704
ньён	-11.2704
вызначэнн	-11.2705
раўна	-11.2707
▁гумар	-11.2708
▁называлас	-11.2711
▁Распаўсюджаны	-11.2714
▁Французскай	-11.2714
▁генеральна	-11.2714
▁семінарыі	-11.2714
▁капліцы	-11.2715
▁адзіночны	-11.2715
▁Мэта	-11.2717
▁зборнікаў	-11.2722
▁220	-11.2722
▁Пік	-11.2725
▁Трэці	-11.2728
▁вырошчванн	-11.2728
▁Рускі	-11.2729
▁ўжыванн	-11.2731
▁станаві	-11.2731
▁лістапад	-11.2732
▁Ac	-11.2733
▁ўчасткі	-11.2733
ставіць	-11.2733
▁лексік	-11.2734
▁Андрэевіч	-11.2734
▁гараджан	-11.2735
tor	-11.2735
con	-11.2736
▁ДНК	-11.2737
▁мадэл	-11.2737
▁Аргенціны	-11.2741
араў	-11.2748
▁поспехам	-11.2748
▁Брат	-11.2749
▁1600	-11.2749
▁1801	-11.275
▁папулярным	-11.2751
▁дэлегат	-11.2752
▁Брытанскі	-11.2752
▁сайт	-11.2753
▁быццам	-11.2753
▁Эдуарда	-11.2754
▁заключаны	-11.2754
▁Кацярыны	-11.2755
вало	-11.2755
▁ператварэнн	-11.2756
▁статуя	-11.2757
▁царом	-11.276
▁лінгвіст	-11.276
▁Міхала	-11.276
▁Сцяга	-11.2765
▁абслугоўвання	-11.2765
▁ігрок	-11.2772
▁ЦВК	-11.2772
▁Дум	-11.2777
▁заваяваў	-11.2777
▁наступленне	-11.2781
▁Кля	-11.2781
Венецыя	-11.2785
▁замяні	-11.2789
▁індывідуальна	-11.2791
▁тэарэм	-11.2791
▁краінай	-11.2791
▁Беласток	-11.2791
▁SBb	-11.2791
нанс	-11.2792
▁фрыз	-11.2795
▁450	-11.2797
▁статусу	-11.2799
▁выступала	-11.2799
▁пляцоўк	-11.2801
▁знешняй	-11.2802
іхто	-11.2803
авец	-11.2803
▁Алесь	-11.2805
▁стужка	-11.2806
ник	-11.2807
▁рытм	-11.2807
▁ўтварэнне	-11.281
-14	-11.2813
▁завяршы	-11.2814
▁легенды	-11.2815
▁ўзначальва	-11.2816
▁небяспечны	-11.2818
▁словамі	-11.2821
▁1836	-11.2822
▁уваход	-11.2826
▁Азі	-11.2826
арган	-11.2827
▁Лепельскі	-11.2829
▁сышоў	-11.283
▁зброю	-11.283
▁варожа	-11.283
▁прызначэнне	-11.2832
▁меза	-11.2835
▁захворвання	-11.2837
▁Габсбургаў	-11.2838
▁Баранавіч	-11.2839
канцлер	-11.2841
▁станцый	-11.2842
лед	-11.2845
▁службовы	-11.2845
▁Маскоўскім	-11.2846
друкава	-11.2846
▁крэдыт	-11.2849
▁малюск	-11.285
▁вольны	-11.285
▁купалам	-11.285
фікс	-11.2852
MS	-11.2852
▁сфера	-11.2852
▁хатня	-11.2853
АА	-11.2853
▁прэзідэнц	-11.2854
▁гіпер	-11.2855
▁заснавальнікам	-11.2855
▁Стан	-11.286
▁вольным	-11.2861
▁паўна	-11.2865
▁паведамлення	-11.2868
▁акупавана	-11.2868
▁Гродзенскі	-11.2868
▁палёў	-11.2873
▁Вольга	-11.2875
чанне	-11.2876
▁вара	-11.2882
▁густа	-11.2883
▁запісва	-11.2885
▁палярны	-11.2886
▁досвед	-11.2888
▁Іркуцк	-11.2888
▁праходзіл	-11.2891
▁абмежава	-11.2892
▁ўзялі	-11.2895
▁Вельмі	-11.2896
▁ўсталявана	-11.29
▁маладым	-11.29
▁вылучаю	-11.2905
▁майстроў	-11.2907
▁пасажырскі	-11.2907
▁кіруюча	-11.2907
▁нейтрон	-11.2907
▁апісаў	-11.2909
▁засталас	-11.2909
НС	-11.2913
▁Мн	-11.2914
▁1832	-11.2919
▁Карэлі	-11.2921
▁Расце	-11.2923
▁Гол	-11.2926
2,7	-11.2926
▁Бургунды	-11.2926
▁кукуруз	-11.2926
▁ваяводы	-11.2926
▁накіраваў	-11.2926
▁Генеральны	-11.2927
▁мінеральны	-11.2927
▁зруб	-11.2929
даўна	-11.2933
▁праве	-11.2935
▁нуля	-11.2936
▁Кін	-11.2937
▁Газ	-11.2938
▁Яма	-11.2939
маль	-11.2942
▁разбура	-11.2943
▁харчовы	-11.2943
▁пераможцам	-11.2943
▁мільёна	-11.2944
▁асноў	-11.2944
Й	-11.2946
▁Ліквідаван	-11.2946
▁вымушана	-11.2946
▁Балгарыя	-11.2946
вянча	-11.2946
▁офіс	-11.2946
▁Дзятлаўск	-11.2946
▁Крыж	-11.2946
▁Марока	-11.2946
▁легіён	-11.2946
кард	-11.2948
▁размеркаванн	-11.295
▁разведк	-11.2955
▁навукоўца	-11.2955
рэгул	-11.2957
змам	-11.2958
▁Сусветны	-11.2959
▁выдавец	-11.2963
▁пазнаёмі	-11.2965
▁рэнесанс	-11.2966
▁тэхніцы	-11.2966
▁чаргова	-11.2966
▁запрашэнн	-11.2966
▁касця	-11.2969
▁розыгрышам	-11.2969
▁Паўлавіч	-11.297
▁баз	-11.2971
▁удзельнікам	-11.2971
▁выдатка	-11.2973
▁выража	-11.2974
▁матор	-11.2975
▁Стры	-11.2975
яўленне	-11.2978
▁паэтаў	-11.2978
▁Марціна	-11.2984
▁паліцыя	-11.2985
▁Прафесар	-11.2985
▁Румынія	-11.2985
▁блакітна	-11.2985
▁кампанію	-11.2985
▁узроўня	-11.2985
▁форум	-11.2985
▁хлеб	-11.2986
▁артыкуле	-11.299
▁разгар	-11.2991
▁двухпавярховы	-11.2991
▁Бура	-11.2994
▁заснавалі	-11.2997
графія	-11.3
вард	-11.3
▁брыгад	-11.3
▁Віктара	-11.3001
льён	-11.3003
▁цэрквы	-11.3005
▁ганарова	-11.3005
▁Валапас	-11.3006
▁спалучэнне	-11.3008
гнут	-11.3014
▁Рыгоравіч	-11.3014
▁SB	-11.3015
▁Падзе	-11.3017
▁карані	-11.3018
▁хрысціянскай	-11.3019
▁маё	-11.3019
▁валоданн	-11.302
our	-11.3025
í	-11.3025
▁гледачоў	-11.3025
ā	-11.3025
▁зборная	-11.3028
▁крытэры	-11.3028
▁нашчадкі	-11.3033
▁Фонд	-11.3033
▁Гуд	-11.3034
▁маз	-11.3034
▁240	-11.3035
▁метала	-11.3037
▁кантакты	-11.3037
▁ядноўвае	-11.3037
▁сіметры	-11.3041
▁мура	-11.3043
▁венгр	-11.3044
▁кандыдацк	-11.3044
▁дынасты	-11.3045
▁страцілі	-11.3045
разова	-11.3045
▁балгарскі	-11.3045
▁гаспадарак	-11.3045
▁археалагічна	-11.3046
носны	-11.3047
▁прымаць	-11.3048
▁карлік	-11.3049
▁персанажаў	-11.305
▁Рыгора	-11.305
▁каму	-11.3051
▁Крычаў	-11.3052
▁агульн	-11.3055
лятар	-11.3057
▁працэнт	-11.3059
▁галасавання	-11.3059
▁лёд	-11.3061
▁расстрэл	-11.3064
▁дазваляла	-11.3064
▁Сербія	-11.3064
▁галаву	-11.3065
▁зачынены	-11.3065
▁правядзенн	-11.3065
▁агню	-11.3066
▁парушэнне	-11.3066
▁аказаў	-11.307
▁Названа	-11.3072
▁чысты	-11.3073
▁дзесятк	-11.3074
▁турызм	-11.3075
▁майстэрня	-11.3076
▁падпісана	-11.3076
▁Напалеон	-11.3077
▁Ленінска	-11.3078
навы	-11.3081
▁крылы	-11.3081
▁Крыва	-11.3082
▁карыстальніка	-11.3082
▁факты	-11.3083
▁Слонім	-11.3084
▁езуітаў	-11.3084
▁светлы	-11.3084
▁акунь	-11.3085
▁парадк	-11.3086
▁подпіс	-11.3087
▁нечакана	-11.3087
▁праходжанн	-11.3088
Ман	-11.3088
▁Сё	-11.3089
▁Смо	-11.3092
▁аказвае	-11.3095
▁блока	-11.3095
▁разбурана	-11.3096
родны	-11.3099
▁поўн	-11.3099
▁псіхалогі	-11.31
▁патрэбна	-11.3103
▁гулялі	-11.3105
▁1797	-11.3106
▁гарматы	-11.3106
цар	-11.3107
▁адсутнічаюць	-11.3107
сары	-11.311
ніцу	-11.3111
▁манер	-11.3111
▁Кубк	-11.3115
крылы	-11.3117
алізаваны	-11.3119
▁балет	-11.3122
▁аднаўля	-11.3123
▁эканоміцы	-11.3124
▁дэманстрацы	-11.3124
▁Астатні	-11.3124
▁Sant	-11.3127
▁кіеўскі	-11.3127
▁клімату	-11.313
▁Хор	-11.313
атычна	-11.3134
▁лёду	-11.3139
ν	-11.3144
амерыканскі	-11.3144
▁кінатэатр	-11.3144
фашысцкімі	-11.3144
▁губернатар	-11.3145
▁мэбл	-11.3145
▁вырашальн	-11.3146
▁злучана	-11.3148
▁Партыя	-11.3148
▁трактат	-11.3149
▁1849	-11.3154
▁дэкор	-11.3156
▁Ль	-11.3163
▁Сіг	-11.3164
▁аднолькава	-11.3164
▁двухсхільным	-11.3164
▁Унутры	-11.3164
▁дзіка	-11.3164
▁заход	-11.3164
▁Чарльз	-11.3164
▁Бес	-11.3165
▁вучэнне	-11.3165
ip	-11.3167
▁Sh	-11.3169
▁артылерыйска	-11.3169
▁пасло	-11.3169
▁згадк	-11.317
▁пяхоты	-11.3172
▁Льва	-11.3172
льск	-11.3172
▁Сало	-11.3174
▁бронзава	-11.3174
ib	-11.3175
▁Юры	-11.318
татар	-11.3182
▁электр	-11.3182
▁Варо	-11.3182
▁перашкаджа	-11.3184
▁агрэсі	-11.3184
▁ініцыятар	-11.3184
водства	-11.3185
▁Нагорна	-11.3187
▁Брус	-11.3188
беларускі	-11.3191
▁тэрас	-11.3193
▁налічваецца	-11.3198
▁паэма	-11.3201
▁соль	-11.3202
пед	-11.3203
▁Малдовы	-11.3204
▁індзейцаў	-11.3204
▁ўсталёўва	-11.3204
▁Воранаўскі	-11.3204
▁аблічча	-11.3204
▁Сымон	-11.3205
нізе	-11.3205
▁пераўтварэння	-11.3207
▁відамі	-11.3208
▁сутыкненн	-11.3208
▁Сера	-11.3209
▁рынак	-11.3209
тварэнні	-11.321
▁епархіі	-11.3211
▁метадам	-11.3214
▁цяжкасц	-11.3216
▁Януш	-11.3216
pp	-11.3216
▁правесц	-11.322
▁механічны	-11.3224
▁наваколля	-11.3224
▁партугальскі	-11.3224
▁хваёвы	-11.3225
▁прыбярэжны	-11.3225
▁атрымана	-11.3228
тварэнне	-11.3228
▁фраз	-11.3228
джар	-11.3229
▁разрад	-11.3233
народн	-11.3236
▁Do	-11.3238
▁Верхнядзвінскі	-11.3241
вест	-11.3243
▁УЕФА	-11.3244
▁абумоўлена	-11.3244
▁нешматлікі	-11.3244
▁тагачасны	-11.3244
▁вячэр	-11.3244
▁Гончы	-11.3245
▁Венецыі	-11.3245
▁175	-11.3246
▁княжа	-11.3246
нача	-11.3246
▁Данія	-11.3247
клетачн	-11.3248
▁знешн	-11.3249
era	-11.3249
▁шэры	-11.3249
▁паходжанн	-11.3251
▁запуск	-11.3251
▁вызваленн	-11.3253
ella	-11.3254
▁прытвор	-11.3255
▁фланг	-11.3256
▁дзесяцін	-11.3259
▁прынца	-11.3262
▁Замо	-11.3262
▁ліп	-11.3263
▁ГДР	-11.3264
▁курфюрст	-11.3264
▁двухбакова	-11.3265
▁Парламент	-11.3265
▁4,5	-11.3266
▁Васільевіч	-11.3267
▁Дно	-11.3267
кора	-11.3269
▁вырошчва	-11.3271
▁правільна	-11.3274
▁праспекта	-11.3274
▁101	-11.3277
цяпл	-11.3278
nia	-11.3279
▁СП	-11.3281
▁кваліфікацыі	-11.3284
▁Шчыльнасць	-11.3285
▁керамікі	-11.3285
КСМ	-11.3285
▁эскадр	-11.3285
▁Дэбютаваў	-11.3285
▁ўскраін	-11.3285
▁надрукаваны	-11.3286
чыца	-11.3286
пава	-11.3287
▁суседня	-11.3288
▁Вітаўт	-11.3288
банк	-11.3289
▁5000	-11.3289
орскі	-11.3297
гонцы	-11.33
ісцкі	-11.3301
ü	-11.3305
▁становішчы	-11.3305
▁алімпійскі	-11.3305
▁скасаванн	-11.3306
▁касцюм	-11.3306
▁клетка	-11.3307
▁фаўн	-11.331
ata	-11.3312
oll	-11.3313
▁Ран	-11.3315
будаўнік	-11.3316
▁спор	-11.3317
▁Жыў	-11.3317
▁рэалізацыі	-11.3317
▁Ne	-11.3319
▁Кот	-11.3319
yn	-11.3319
▁агарод	-11.332
▁профіл	-11.332
▁вайскоўца	-11.3325
▁збудаванні	-11.3325
▁Лепшы	-11.3325
▁стральб	-11.3326
▁лац	-11.3327
▁1792	-11.3328
▁навуковага	-11.3333
тавана	-11.3335
▁1857	-11.3335
▁геалагічны	-11.3337
▁1846	-11.3337
▁развод	-11.3337
▁Рэд	-11.3339
оўскай	-11.3343
▁падножжа	-11.3346
▁гуляць	-11.3346
парк	-11.3346
▁плотка	-11.3346
▁знакі	-11.3347
▁хіт	-11.3348
▁Георгія	-11.335
▁раствара	-11.3352
▁рэчышча	-11.3353
▁такую	-11.3353
▁клубаў	-11.3354
лус	-11.3355
▁працягвала	-11.3355
лічваючы	-11.3359
▁Брун	-11.3359
▁Сон	-11.336
▁разнастайнасц	-11.3361
dia	-11.3362
▁лекавы	-11.3362
кватэра	-11.3363
нтрап	-11.3364
▁вытворца	-11.3367
▁падтрымал	-11.3368
▁хірургі	-11.3368
2,5	-11.3368
лівасць	-11.3368
▁найлепшы	-11.3369
▁Псы	-11.337
▁стаяла	-11.3373
▁дзверы	-11.3373
▁кваліфікацыйн	-11.3374
ков	-11.3377
▁Значн	-11.3378
▁Ост	-11.3378
ступленні	-11.3379
▁мітрапаліта	-11.3379
▁епархі	-11.338
▁рэалізава	-11.3381
▁Новак	-11.3382
▁Паўлін	-11.3383
ven	-11.3384
▁1791	-11.3384
▁пацярпела	-11.3384
▁Марса	-11.3384
▁to	-11.3385
▁крыжовы	-11.3386
▁мініяцюр	-11.3387
▁Sp	-11.3387
▁тэлескоп	-11.3387
▁колькі	-11.3388
▁панавання	-11.3389
▁паветрана	-11.3394
▁Дунай	-11.3394
віле	-11.3396
▁даўні	-11.3398
▁Магілёўскім	-11.3398
▁фарміраванн	-11.3403
▁дыяцэзіі	-11.3407
тыст	-11.3408
▁рэгент	-11.3408
▁Галанды	-11.3409
▁правялі	-11.3413
▁дыялектаў	-11.3413
▁біскупам	-11.3414
даследча	-11.3417
▁зарэгістраваны	-11.3417
▁трапля	-11.342
▁распрацоўка	-11.3422
▁сектара	-11.3423
▁матэры	-11.3424
.20	-11.3426
лучэнне	-11.3427
▁нашчадкам	-11.3427
▁асістэнт	-11.3428
▁неадкладна	-11.3428
▁хрышчэнн	-11.3428
tur	-11.3428
▁тармаз	-11.3428
▁далёкі	-11.3428
▁Петра	-11.3431
▁забаронены	-11.3431
▁звяза	-11.3434
▁Блу	-11.3439
секс	-11.3441
вуглярод	-11.3442
▁жаданне	-11.3443
▁Ол	-11.3443
горск	-11.3445
▁млекакормячы	-11.3448
▁Арменія	-11.3448
чынскі	-11.3448
вядзе	-11.3448
▁Сяргеевіч	-11.345
▁покрыва	-11.345
фір	-11.345
▁паўстанні	-11.3451
пел	-11.3452
▁Пятроў	-11.3452
▁от	-11.3452
▁вулканічна	-11.3454
▁абарані	-11.3454
лун	-11.3454
▁Канада	-11.3457
▁вылучэнн	-11.3458
pan	-11.3458
▁адбіва	-11.3461
▁тэрма	-11.3461
▁своеасаблівы	-11.3463
▁прамежк	-11.3463
▁тэхналагічны	-11.3469
▁механічна	-11.3469
▁надпісам	-11.3469
▁мінімум	-11.3469
▁зняволення	-11.3473
бок	-11.3475
▁прадметам	-11.3475
абудовы	-11.3479
оўшчык	-11.348
▁Навук	-11.348
▁1818	-11.3482
▁скачк	-11.3482
▁прысяг	-11.3485
▁акта	-11.3489
▁Чыгуначна	-11.3489
▁Шумілінскі	-11.3489
▁пасмяротна	-11.3489
РП	-11.349
онэ	-11.3492
▁Адрыян	-11.3496
▁дваранства	-11.3497
бут	-11.3499
гурт	-11.3499
▁радк	-11.3501
▁аспект	-11.3502
▁ўмацавання	-11.3502
▁Нацый	-11.3506
аўшчына	-11.3507
▁тэалогі	-11.3508
▁Маладзечна	-11.351
▁арганізоўва	-11.351
▁месцазнаходжанн	-11.351
▁чатырма	-11.351
▁Тэйлар	-11.351
▁прапанаваны	-11.351
▁выстаўка	-11.3511
▁грашова	-11.3511
▁філасофска	-11.3511
▁сяляне	-11.3512
▁адхіленн	-11.3512
▁Бялград	-11.3512
зялёны	-11.3513
▁бліжэйшы	-11.3513
▁Ніжняя	-11.3518
▁Гера	-11.352
▁плады	-11.3521
▁захворванняў	-11.3522
▁сядзіба	-11.3524
▁цырымоніі	-11.3524
ola	-11.3524
▁гранат	-11.3525
▁спаборніцтвах	-11.3528
▁саманазва	-11.3531
▁эквівалент	-11.3531
▁Пілсудск	-11.3531
поўнены	-11.3531
▁гульца	-11.3531
ini	-11.3532
▁Манголіі	-11.3532
▁рызык	-11.3532
▁Гомелі	-11.3532
▁падрыхтоўку	-11.3535
▁Берліна	-11.3535
▁політэхнічн	-11.3536
▁базу	-11.3537
▁Ga	-11.3537
▁1790	-11.3539
▁Нарадзіла	-11.3542
▁пошука	-11.3542
res	-11.3543
▁выклікана	-11.3544
▁канцэпцыі	-11.3545
▁Альфрэд	-11.3552
▁Шахцёр	-11.3552
▁Выканаў	-11.3552
▁дарослых	-11.3553
▁Бярэ	-11.3553
▁пераважаю	-11.3553
▁Якуб	-11.3553
▁памерах	-11.3554
▁асобнікаў	-11.3555
▁Юн	-11.3556
лез	-11.3557
▁папяро	-11.3557
▁паказана	-11.3558
▁трацін	-11.3558
▁саўгаса	-11.3558
▁рота	-11.3559
павядаюць	-11.3566
▁Рэн	-11.3568
▁Альгерд	-11.3573
▁дадатак	-11.3573
▁стылем	-11.3573
▁гаворка	-11.3573
▁кантона	-11.3578
▁багацце	-11.3579
▁футбол	-11.3583
сцё	-11.3584
ванню	-11.3584
▁Гава	-11.3584
▁кіда	-11.3584
▁рачны	-11.3585
▁няўдач	-11.3586
▁1845	-11.3587
▁прыносі	-11.3588
АК	-11.3589
дзесят	-11.359
▁Лук	-11.3591
▁сексуальна	-11.3594
▁парушэння	-11.3595
▁Пегас	-11.3598
▁1806	-11.3601
▁спадчыннікам	-11.3603
ранейшам	-11.3607
▁Вышэйш	-11.3607
▁Ліст	-11.3607
▁матчу	-11.3608
▁Куз	-11.3609
▁магіла	-11.361
ТА	-11.361
▁Патрыярх	-11.3614
▁функцыю	-11.3614
▁Капенгаген	-11.3614
▁грабніц	-11.3616
ster	-11.362
ніцтв	-11.3621
▁распаўсюджанне	-11.3624
▁ток	-11.3626
▁баран	-11.3632
▁астраномам	-11.3635
▁Фларэнцыі	-11.3635
▁злучэнні	-11.3635
▁паядынк	-11.3635
▁царска	-11.3636
▁крышталі	-11.3636
▁Віла	-11.3636
▁матэрыяльны	-11.3637
▁цікаві	-11.3638
▁атрымлівалі	-11.3638
▁Пачаў	-11.3639
▁маршалка	-11.3639
▁нібыт	-11.364
▁падводна	-11.3641
▁Полацкага	-11.3647
фун	-11.3649
▁выступлення	-11.365
▁Татар	-11.365
▁Оршы	-11.3652
дзян	-11.3656
▁зняволены	-11.3656
▁суцэльна	-11.3656
-40	-11.3658
даследчы	-11.3661
▁Іосіфа	-11.3662
▁муравана	-11.3662
ліча	-11.3663
▁шкла	-11.3664
▁Лондана	-11.3667
▁Рыбы	-11.3668
▁утвараю	-11.3668
▁мук	-11.367
▁Кембрыдж	-11.3677
▁самак	-11.3677
▁адзначана	-11.3677
▁персідска	-11.3677
▁ядзерны	-11.3677
▁Міхайлаў	-11.3678
▁старонка	-11.3678
▁лодка	-11.3679
▁заклікаў	-11.3679
▁Малодш	-11.3679
▁розніц	-11.3679
▁Туніс	-11.3681
▁святара	-11.3682
▁Галава	-11.3686
▁рухаў	-11.3688
▁вылучае	-11.3696
3,2	-11.3698
8,5	-11.3698
▁утварэння	-11.3698
▁крэйсер	-11.3698
▁Джавані	-11.3699
▁паслужыл	-11.3699
▁справаздач	-11.3699
▁пакінуўшы	-11.3699
▁вызначэнне	-11.3699
дынг	-11.37
▁восенню	-11.37
▁тытулам	-11.3701
▁кузава	-11.3701
▁Брэсце	-11.3701
▁самцоў	-11.3704
▁сітуацы	-11.3707
▁сусветным	-11.3707
▁франк	-11.3718
▁сярэднявечч	-11.372
▁аказалі	-11.372
▁Car	-11.3722
▁духу	-11.3722
▁адзенне	-11.3722
маха	-11.3722
▁Ge	-11.3723
▁дзіцяці	-11.3728
▁Касцюк	-11.3728
▁ўпрыгожва	-11.373
ang	-11.3733
▁барон	-11.3733
▁лінейны	-11.3735
▁ўмераны	-11.374
▁паездк	-11.3741
▁вадкасці	-11.3742
▁Гімн	-11.3745
▁хана	-11.375
▁консул	-11.3751
▁прадпрымальнік	-11.3752
▁прын	-11.3754
▁пяск	-11.3757
ak	-11.3757
▁вучэбна	-11.3762
▁рэканструява	-11.3762
▁генацыд	-11.3762
▁Мяркуе	-11.3762
▁дапаможны	-11.3762
▁карпарацы	-11.3762
▁Шры	-11.3762
▁трэцяе	-11.3763
▁Нэ	-11.3766
▁хат	-11.3767
▁выканаўчы	-11.3767
▁брыгада	-11.3768
▁зямельны	-11.3771
▁1780	-11.3771
▁1847	-11.3774
▁солі	-11.3777
▁ішла	-11.378
фізік	-11.3781
▁Перамогі	-11.3783
▁Ганаровы	-11.3783
▁мяцеж	-11.3783
▁слава	-11.3785
▁Адрозніваю	-11.3787
▁азнача	-11.379
▁вузел	-11.3791
▁Si	-11.3795
▁Шырын	-11.3796
▁кален	-11.3798
▁прыхільнікі	-11.3801
▁вес	-11.3804
лума	-11.3804
▁Брытаніі	-11.3805
▁Святаполк	-11.3805
▁Біблія	-11.3805
▁запаведнік	-11.3805
фур	-11.3805
▁вока	-11.3812
▁павялічвае	-11.3812
▁артылеры	-11.3812
ысцкі	-11.3813
▁Нов	-11.3814
▁біялагічна	-11.3817
▁творам	-11.3819
▁складзена	-11.3822
▁Вікіпедыі	-11.3826
▁набажэнств	-11.3826
▁Залато	-11.3826
▁практыку	-11.3826
▁адраджэнн	-11.3827
▁выслана	-11.3827
▁112	-11.3827
ключыць	-11.3827
▁разбуры	-11.383
▁прота	-11.383
▁Сена	-11.383
Венгрыі	-11.3831
▁спірт	-11.3836
дыкт	-11.3837
▁згоды	-11.384
▁Сталіна	-11.3841
оўская	-11.3842
▁бальшавік	-11.3843
▁жыхар	-11.3843
▁чвэрцьфінал	-11.3847
▁ўзнікнення	-11.3847
▁Меркуры	-11.3847
▁Столін	-11.3848
▁Ваўкавыскі	-11.3848
▁тавараў	-11.3849
▁Служы	-11.3849
▁Тышкевіч	-11.3849
▁ўчастка	-11.3851
давы	-11.3854
▁зменены	-11.3855
▁пакінуты	-11.3856
▁насіў	-11.3858
▁салон	-11.3859
▁ўключала	-11.386
▁пачуцця	-11.3865
▁спадарожнікаў	-11.3866
▁індыйскі	-11.3871
тэле	-11.3874
▁Пераклад	-11.3876
▁Баз	-11.3878
▁экстра	-11.3879
▁паўторна	-11.388
▁Пяр	-11.3881
▁паварот	-11.3882
сібірск	-11.3883
▁вяртанн	-11.3884
▁дзярж	-11.3885
▁Кавале	-11.3885
шскі	-11.3887
030	-11.3888
▁архіепіскап	-11.389
▁сцвярджэнн	-11.389
▁гімназію	-11.389
▁Блізкі	-11.389
▁шосты	-11.389
▁ўпадзенн	-11.389
штаб	-11.3896
ёлаг	-11.3897
▁бюст	-11.3898
▁слаб	-11.3901
евых	-11.3903
▁луска	-11.3903
ндз	-11.3905
▁лёгкіх	-11.3906
tal	-11.3906
▁саюзны	-11.3906
▁карты	-11.3906
▁прыкметна	-11.3909
▁Рэспубліканска	-11.3909
▁дакладнасц	-11.3911
▁інфармацыйны	-11.3911
Ы	-11.3912
▁Манчэстэр	-11.3912
▁адкрыцці	-11.3912
▁Сістэма	-11.3912
▁адраджэння	-11.3913
▁Асобны	-11.3913
▁Рыжска	-11.3918
▁найлепшым	-11.3918
▁рэд	-11.392
▁стратэгічна	-11.3924
груп	-11.3925
▁мэр	-11.3929
▁становяцца	-11.3933
▁размнажэнн	-11.3933
▁аддзяленні	-11.3934
▁мемуар	-11.3934
▁Львоў	-11.3935
▁падпольна	-11.3938
▁адваротны	-11.3938
▁садавін	-11.3939
-32	-11.3943
▁зніжа	-11.3945
▁Тып	-11.3946
▁1834	-11.3947
▁інструментаў	-11.3948
▁Докшыцкі	-11.395
▁Грэнландыі	-11.3954
▁крыло	-11.3955
▁інвентар	-11.3955
▁брытанц	-11.3956
▁вучэння	-11.3956
ліф	-11.3957
▁атол	-11.3961
▁Адбы	-11.3962
▁перажыва	-11.3963
▁Сміт	-11.3964
▁легенд	-11.3965
ob	-11.3965
▁паспрабаваў	-11.3967
▁Мацве	-11.3968
▁прамой	-11.397
▁Вайн	-11.397
▁разнавіднасц	-11.3971
▁опера	-11.3971
▁аблогі	-11.3973
▁аддадзены	-11.3973
нсульт	-11.3974
▁гатычны	-11.3975
▁Вікторыя	-11.3977
▁палонны	-11.3977
▁арэал	-11.3979
▁буры	-11.3979
▁юна	-11.398
▁Распрацава	-11.398
▁даследаваў	-11.3982
▁фундаментальны	-11.3982
▁грунту	-11.3982
▁Лаб	-11.3983
▁Бяс	-11.3983
▁Th	-11.3983
▁двое	-11.3984
▁Візанты	-11.399
▁валун	-11.399
▁ніжэйшы	-11.3992
▁атрымоўва	-11.3999
▁першапачатковы	-11.3999
▁Усевалад	-11.3999
▁звіліста	-11.4
▁ПАР	-11.4
▁Лацінска	-11.4001
▁Дзяніс	-11.4002
▁Ланд	-11.4007
▁Роў	-11.4009
▁медыцынскага	-11.4009
▁Кук	-11.4011
жываюцца	-11.4015
▁ярусна	-11.4017
▁пляцоўка	-11.4018
▁аднаму	-11.402
▁Шматлікі	-11.402
▁федэральны	-11.4021
▁абставін	-11.4021
весну	-11.4022
▁тканін	-11.4023
▁наземны	-11.4023
▁работа	-11.4023
▁Евангелле	-11.4024
▁перавага	-11.4024
клін	-11.4026
▁Нават	-11.4026
▁Войска	-11.4027
▁знішча	-11.4027
▁супрацоўніцтв	-11.4028
літоўскі	-11.403
▁1853	-11.4032
▁1855	-11.4032
▁масла	-11.4032
▁мадэрн	-11.4032
▁наведвальніка	-11.4033
▁1837	-11.4034
▁Руд	-11.4035
▁Самым	-11.4038
▁рознага	-11.4039
▁гісторыкаў	-11.4041
▁Швейцарыя	-11.4042
▁канфіскава	-11.4042
▁дыферэнц	-11.4042
▁шырыню	-11.4042
▁вясны	-11.4042
▁апуска	-11.4045
▁брамы	-11.4046
▁разабра	-11.4046
▁страчаны	-11.4046
▁абрана	-11.405
▁Працяг	-11.4051
▁Or	-11.4051
▁куры	-11.4053
▁праспект	-11.4055
▁медалёў	-11.4056
▁скончы	-11.406
▁Каса	-11.406
▁тэматык	-11.4063
▁Вылуча	-11.4063
▁заключыў	-11.4064
▁сінагог	-11.4064
▁прылеглы	-11.4064
▁пераўтварэнн	-11.4065
▁Антона	-11.4066
▁англійск	-11.4067
▁перабудаваны	-11.4067
▁пладоў	-11.4068
▁крамы	-11.4071
▁нявы	-11.4071
нштэйн	-11.4072
▁набег	-11.4072
▁вяртанне	-11.4074
▁сцвярджаў	-11.4074
▁Мяс	-11.4075
рск	-11.4077
▁Год	-11.4077
▁заставаліс	-11.4079
▁шар	-11.4081
▁вуліцу	-11.4081
▁бальніца	-11.4083
ПК	-11.4084
▁кінафестывал	-11.4086
▁эканаміст	-11.4086
▁Латвія	-11.4086
▁аргумент	-11.4086
▁яўрэі	-11.4086
▁Чарня	-11.4087
▁авіяцыйна	-11.4088
▁давер	-11.4089
▁славутасц	-11.4091
▁вымаўленн	-11.4091
▁сліз	-11.4094
▁падрыхтоўка	-11.4094
чвае	-11.4095
▁Першамайск	-11.4096
гракоў	-11.4096
▁стаўленне	-11.4099
▁Ціт	-11.4099
▁Пярэ	-11.41
▁выходзіл	-11.41
▁For	-11.41
прэс	-11.4101
▁турызму	-11.4102
▁хваляванн	-11.4103
▁Аўстры	-11.4104
▁Ягайла	-11.4108
▁заўважа	-11.4109
▁Каталіцка	-11.4109
▁дэсант	-11.411
ach	-11.4111
▁вытворча	-11.4113
ct	-11.4113
▁кантынентальны	-11.4114
чырвона	-11.4115
▁хімік	-11.4115
▁акружаны	-11.4116
▁Кінг	-11.4119
we	-11.412
▁Талачынскі	-11.4121
▁жывёлагадоўля	-11.4121
зба	-11.4122
AT	-11.4124
▁Коў	-11.4125
▁Фердынанда	-11.4128
▁вызвал	-11.4129
▁ацэн	-11.413
▁Гістарычна	-11.413
▁Эрэ	-11.4132
плат	-11.4133
▁360	-11.4134
штат	-11.4135
▁ўсталяванн	-11.4136
▁секс	-11.4137
▁варот	-11.414
▁прымусіл	-11.4141
▁расліннасці	-11.4143
▁ўтварыла	-11.4145
▁далучыліс	-11.4146
▁сесіі	-11.4146
▁вічы	-11.415
▁меч	-11.4152
▁Каліфорнія	-11.4152
▁станаўленн	-11.4153
▁злучы	-11.4153
ніцкая	-11.4157
шэра	-11.4157
індустры	-11.4157
▁гаспадара	-11.416
▁Мазыр	-11.4161
~	-11.4174
▁Антарктыд	-11.4174
▁Найвышэйшы	-11.4174
▁камянёў	-11.4174
▁Хігінс	-11.4174
руха	-11.4175
▁Зоркі	-11.4175
▁Саламон	-11.4177
▁разгляд	-11.4177
▁Жалез	-11.4178
ВА	-11.4178
▁суму	-11.4179
▁рэгістра	-11.4179
▁акадэмічны	-11.418
▁знішчэння	-11.4181
нген	-11.4183
▁прастору	-11.4185
▁ваяводств	-11.4188
▁Шон	-11.4189
▁егіпецкі	-11.4196
▁канструкцыя	-11.4196
▁партугальска	-11.4196
▁Будапешт	-11.4196
▁Валерый	-11.4196
▁Венесуэл	-11.4196
▁каланіяльны	-11.4197
вызваленча	-11.4197
▁канчатковым	-11.4197
▁назоўнік	-11.4199
▁Лэ	-11.4203
▁сучасн	-11.4204
▁франкаў	-11.4206
▁рухам	-11.4208
▁1566	-11.4209
▁Крупскі	-11.421
▁ўмоў	-11.4214
больш	-11.4214
▁розыгрыш	-11.4215
▁дву	-11.4219
▁асвятленн	-11.4219
▁механікі	-11.4219
▁чорным	-11.4219
▁тыдні	-11.422
▁Мел	-11.422
▁травы	-11.422
ius	-11.4222
▁Чо	-11.4222
▁Муж	-11.4223
▁нумарам	-11.4223
сун	-11.4225
камер	-11.4225
▁гіпа	-11.4226
▁Ціхі	-11.4228
▁будаўніча	-11.4228
нішча	-11.4229
ского	-11.4229
▁ворагаў	-11.423
▁We	-11.4233
▁формула	-11.4237
▁Каран	-11.4239
▁знішчы	-11.424
▁заваяваны	-11.4241
Анджэлес	-11.4241
ι	-11.4241
▁князі	-11.4241
▁Даўг	-11.4242
▁New	-11.4245
fe	-11.4246
▁1810	-11.4247
▁галасаванн	-11.4248
▁раскол	-11.425
▁пустыні	-11.425
скра	-11.4251
ападобных	-11.4254
▁Сян	-11.4255
▁гетмана	-11.4257
водзяць	-11.426
▁аўтаноміі	-11.4262
лаўка	-11.4262
▁Аляксеевіч	-11.4263
▁памяшканне	-11.4263
▁Палесся	-11.4263
▁Кракаве	-11.4264
▁u	-11.4264
▁моладзева	-11.4268
▁атакі	-11.4269
▁Дэвіс	-11.427
Ко	-11.4276
▁кіеўска	-11.4284
▁Севастопал	-11.4286
▁высакосны	-11.4286
▁публікацыі	-11.4286
▁травяністая	-11.4286
▁каталіцтва	-11.4286
▁космас	-11.4286
▁акцэнт	-11.4286
▁размеркава	-11.4289
log	-11.429
▁пачуццё	-11.4292
▁супольнасць	-11.4292
▁еха	-11.4293
-28	-11.4294
ner	-11.4298
▁перыядычны	-11.4298
▁імператарска	-11.4305
▁прамавугольным	-11.4305
▁абсталяваны	-11.4305
▁Рагачоўскі	-11.4308
▁Светлагорск	-11.4308
▁мудра	-11.4309
▁ваяваў	-11.431
▁Дэрбі	-11.431
▁апавяда	-11.4311
gu	-11.4315
▁Люблінска	-11.4315
▁выбарча	-11.4316
▁Сатурна	-11.4316
▁Галуб	-11.4316
end	-11.4317
▁Тытан	-11.4317
▁атамны	-11.4318
▁пражываў	-11.4318
▁іграка	-11.432
▁валок	-11.4321
кел	-11.4325
▁трапляю	-11.4329
накшталт	-11.433
▁Створаны	-11.433
▁плацдарм	-11.433
▁фермент	-11.4332
▁сотня	-11.4332
МУС	-11.4332
▁аўтаномі	-11.4332
▁скарачэнн	-11.4333
▁Баран	-11.4334
▁270	-11.4336
1,5	-11.4338
▁Тон	-11.4339
▁атаку	-11.4341
служыў	-11.4341
сінг	-11.4343
▁1817	-11.4343
▁кроў	-11.4344
▁матыл	-11.4345
▁атамна	-11.4345
▁тэст	-11.4347
▁Антыёх	-11.4353
▁гарызантальны	-11.4353
канцов	-11.4353
▁адыход	-11.4354
▁плат	-11.4355
▁сачыненн	-11.4356
▁налічвала	-11.4359
▁сувяз	-11.4361
▁коней	-11.4362
2001	-11.4363
ast	-11.4367
▁майстра	-11.4369
▁Старэйшы	-11.437
▁Летам	-11.4371
▁Матэ	-11.4373
сберг	-11.4376
▁фрэска	-11.4376
▁шырок	-11.4376
▁Фільм	-11.4376
▁глебе	-11.4378
▁Руда	-11.4379
вальд	-11.4379
▁Мараві	-11.438
▁закры	-11.4381
net	-11.4381
▁гадз	-11.4382
▁Камп	-11.4384
▁галаўны	-11.4386
▁паветры	-11.439
вінскі	-11.439
▁славі	-11.4391
НА	-11.4392
▁Брэсцкім	-11.4393
▁іерархі	-11.4398
▁аўтамабілі	-11.4398
РА	-11.4398
▁кааліцыі	-11.4399
▁заснаванн	-11.44
▁дваццаць	-11.4401
▁330	-11.4402
▁1775	-11.4403
▁Зборна	-11.4403
▁аднавіў	-11.4404
руючы	-11.4405
▁акадэмічна	-11.4406
▁велізарна	-11.4406
▁Горка	-11.4407
▁замяня	-11.4408
ключэнне	-11.4408
▁260	-11.4409
▁Эст	-11.4409
▁бедна	-11.4411
▁пластык	-11.4413
▁128	-11.4417
▁Эфіопі	-11.4421
▁абмяркоўва	-11.4421
ρ	-11.4421
▁вертыкальны	-11.4421
▁рот	-11.4421
▁элементарны	-11.4421
▁высадзі	-11.4422
su	-11.4422
▁муніцыпалітэт	-11.4422
▁1808	-11.4423
▁пагрозай	-11.4423
▁Заходне	-11.4423
ніверсітэ	-11.4424
▁Выра	-11.4424
роўскі	-11.4426
▁малака	-11.4427
▁вузкім	-11.4433
▁любога	-11.4435
▁пакаленне	-11.444
▁Лаз	-11.4441
▁адзначае	-11.4442
3,6	-11.4444
3,8	-11.4444
▁фальварак	-11.4444
▁Мяжуе	-11.4444
маро	-11.4444
▁жыллё	-11.4445
▁адзначаю	-11.4446
▁Эрыдан	-11.4446
▁публікава	-11.4446
▁класічна	-11.4446
▁атрымліваў	-11.4448
▁Мова	-11.4449
▁наведваў	-11.4449
▁імкненне	-11.445
▁тытун	-11.4452
▁сустрэча	-11.4452
▁Медаль	-11.4452
▁абраду	-11.4452
▁калідор	-11.4455
▁Хра	-11.4457
▁збожжа	-11.4461
▁Праца	-11.4463
▁Леон	-11.4465
▁сада	-11.4465
▁вылет	-11.4466
▁полацкі	-11.4466
▁скарочана	-11.4466
▁Вавілон	-11.4466
▁патрабую	-11.4466
лёгку	-11.4466
▁Man	-11.4467
▁Серы	-11.4467
▁сямейны	-11.447
▁Хутка	-11.447
▁калоны	-11.447
▁об	-11.447
▁атрадаў	-11.4472
▁103	-11.4472
pl	-11.4473
тов	-11.4473
▁Свір	-11.4473
амерыканска	-11.4475
▁патрэбы	-11.4477
▁Мела	-11.4478
▁малой	-11.4479
▁праводзілі	-11.4479
▁устаноўлены	-11.448
ою	-11.4483
▁расліннасць	-11.4483
▁далейшы	-11.4484
▁Фландры	-11.4489
▁рэакцыя	-11.4489
▁водгук	-11.449
▁актыв	-11.449
▁згадваю	-11.4491
▁архіва	-11.4493
▁арганізмаў	-11.4496
▁аконным	-11.4499
▁Уэльса	-11.45
▁Магілёўскі	-11.4502
▁Ha	-11.4505
▁108	-11.4507
▁багацц	-11.451
▁Q	-11.451
▁аграгарадка	-11.4511
кун	-11.4511
▁прыбылі	-11.4511
▁Шэклтан	-11.4512
▁перспектыв	-11.4512
▁бялко	-11.4512
▁Бухар	-11.4513
▁Euro	-11.4513
▁Агульны	-11.4513
▁арэала	-11.4514
клуб	-11.4514
▁Фасад	-11.4516
▁вочы	-11.4517
▁Чачэрск	-11.4517
▁выраза	-11.4518
▁1852	-11.4524
▁фасады	-11.4526
rum	-11.4529
▁выкарыстоўваючы	-11.4531
▁мера	-11.4532
▁бухт	-11.4533
▁2,2	-11.4534
▁БНФ	-11.4535
▁нарвежскі	-11.4535
▁індывідуальны	-11.4535
▁паслядоўнік	-11.4536
▁Парыжска	-11.4538
моўнай	-11.4539
тыўную	-11.454
▁захоплена	-11.454
▁акупацыяй	-11.4543
▁паразіт	-11.4546
▁Габсбург	-11.4547
▁Карпат	-11.4548
▁1829	-11.4549
рыент	-11.4549
▁ліштва	-11.4555
▁грэчаскіх	-11.4556
▁казкі	-11.4557
▁Геркулес	-11.4558
▁НАТА	-11.4558
▁паведамленне	-11.4558
▁іканастас	-11.4558
▁змешчана	-11.4558
▁Моцарт	-11.4558
▁галандскі	-11.4558
▁канферэнцыя	-11.4559
▁мемарыяльна	-11.4559
▁ўмацаванні	-11.456
▁суддзя	-11.4567
▁забіта	-11.4568
▁планавалася	-11.4569
▁1828	-11.457
фл	-11.457
▁парода	-11.457
▁нацыі	-11.4572
▁магіле	-11.4575
▁разбіў	-11.4576
▁пачало	-11.4576
▁зарэгістравана	-11.4577
-31	-11.4578
▁выконваю	-11.4579
ore	-11.458
ire	-11.4581
▁Сінгапур	-11.4581
▁Шаркаўшчынскі	-11.4581
▁святкаванн	-11.4581
▁ўзмацненн	-11.4581
▁юбіле	-11.4581
▁вывяржэнн	-11.4581
▁Атлантычны	-11.4581
▁Каўказа	-11.4583
▁распавядае	-11.4586
▁староства	-11.4588
▁будовы	-11.4591
▁франтонам	-11.4592
▁пляж	-11.4593
▁прымус	-11.4594
▁Пекін	-11.4595
▁Лен	-11.4596
▁1835	-11.4597
гаспадар	-11.4597
ew	-11.4599
▁Пецярбургска	-11.4599
ковую	-11.4599
шке	-11.4601
▁дакументальны	-11.4603
▁ранейша	-11.4603
канал	-11.4603
рэсурс	-11.4604
▁норма	-11.4604
▁расчлянёны	-11.4604
▁фестывалю	-11.4604
▁чэрвень	-11.4604
▁Абодва	-11.4604
▁дзеяслова	-11.4604
▁утворана	-11.4604
▁багіні	-11.4604
▁ліпень	-11.4605
▁Жыццё	-11.4605
чнасць	-11.4605
▁каралі	-11.4605
▁атрыманне	-11.4609
▁размах	-11.4613
ate	-11.4615
ньё	-11.4616
▁рушыл	-11.4619
▁Пушкіна	-11.4621
ix	-11.4622
▁вуглавы	-11.4624
▁субтрапічны	-11.4627
▁каланізацы	-11.4627
▁1809	-11.4628
льшчык	-11.4628
▁цен	-11.4628
▁амерыканц	-11.4631
▁113	-11.4631
lis	-11.4634
▁універсітэтаў	-11.4634
асветніцк	-11.4639
▁поп	-11.464
▁1826	-11.464
▁псеўданім	-11.464
▁канон	-11.4641
▁Людзі	-11.4642
▁ёмна	-11.4649
▁Трап	-11.4649
▁кропкі	-11.465
▁аповесць	-11.465
▁абавязаны	-11.4651
▁архітэктура	-11.4651
▁папярэдняга	-11.4652
▁стымул	-11.4653
▁Uni	-11.4653
▁патрон	-11.4655
▁меркавана	-11.4657
▁1802	-11.4661
▁сустрэч	-11.4662
▁1833	-11.4665
▁дзённік	-11.4668
цісну	-11.4673
▁Брандэнбург	-11.4674
▁рэпертуар	-11.4674
▁інфраструктур	-11.4674
▁Створана	-11.4674
▁Транспартны	-11.4674
▁патрапіл	-11.4674
▁апісанн	-11.4676
▁Каўнас	-11.4676
▁Fe	-11.4677
▁стабільна	-11.4678
▁Якава	-11.468
▁паўстала	-11.4682
▁спір	-11.4684
дрэ	-11.4684
матэматычны	-11.4684
▁1854	-11.4686
▁вечна	-11.4686
▁Акцябрскі	-11.4686
▁мерапрыемстваў	-11.4687
▁Аснов	-11.4687
▁падарава	-11.4689
▁фінскі	-11.4691
одзіцца	-11.4693
невіч	-11.4694
дольны	-11.4695
▁статуі	-11.4696
▁цераз	-11.4698
▁Сафіі	-11.4698
рэзаны	-11.4699
▁дно	-11.4699
▁KU	-11.47
▁яўляючы	-11.47
▁мяшчан	-11.47
▁пакараны	-11.47
▁камбінац	-11.4701
▁праграме	-11.4702
▁падвойна	-11.4704
▁мінскім	-11.4705
▁паўночн	-11.4706
▁Выток	-11.4706
▁выкарыстаў	-11.4713
ного	-11.4714
▁каханне	-11.4716
польскі	-11.4719
▁Львоўска	-11.4719
▁жыхарамі	-11.472
▁жнівень	-11.472
▁выехаў	-11.4721
▁гутарк	-11.4721
▁Стамбул	-11.4721
▁трохвугольнік	-11.4722
шчанка	-11.4726
▁семінар	-11.4727
▁пяхотна	-11.4727
▁брус	-11.4728
▁рэчаў	-11.4728
▁вылучана	-11.473
▁пакоі	-11.473
▁абедзвю	-11.473
▁ясна	-11.4732
▁уваходам	-11.4732
▁ствала	-11.4733
▁кармав	-11.4733
▁Русь	-11.4734
▁1822	-11.4734
▁даху	-11.4735
▁шашы	-11.4736
Кашалёўскі	-11.474
▁цікавы	-11.4742
3,3	-11.4744
▁Лукашэнка	-11.4744
▁Оксфард	-11.4744
▁Франсуа	-11.4744
▁сутыкну	-11.4744
▁інтэлігенцы	-11.4744
▁нарвежска	-11.4744
▁палявання	-11.4744
▁выяўляе	-11.4744
▁чэрап	-11.4744
▁Днепр	-11.4745
tis	-11.4745
▁патрэбны	-11.4745
▁Украінскі	-11.4746
▁Ka	-11.4746
▁Барысаў	-11.4753
▁Жак	-11.4754
▁1648	-11.4756
▁1804	-11.4759
▁кавалк	-11.4759
▁Алімп	-11.4761
фельд	-11.4764
▁Атлант	-11.4766
▁Амстэрдам	-11.4767
▁рамёств	-11.4767
▁нябесна	-11.4767
▁сегмент	-11.4767
▁грашовы	-11.4768
▁запраша	-11.4768
▁канструкцый	-11.4768
▁прызнання	-11.4769
▁Горкага	-11.477
▁палкоўніка	-11.477
▁грэкаў	-11.477
ros	-11.4773
▁славен	-11.4776
▁1851	-11.4777
▁Міс	-11.4779
▁1813	-11.4781
▁карніз	-11.4781
ies	-11.4782
марскі	-11.4782
▁Граф	-11.4782
мову	-11.4783
слух	-11.4783
▁Адно	-11.4784
тэрна	-11.4785
▁заняткам	-11.4789
3,4	-11.479
▁паплечнік	-11.4791
▁Асамбле	-11.4791
▁статыстык	-11.4791
▁тэрмадынамі	-11.4791
▁выстаўкі	-11.4791
▁прыехаў	-11.4791
▁намалявана	-11.4792
▁Варшавы	-11.4792
▁Шара	-11.4793
▁дэталя	-11.4793
▁Аляс	-11.4795
▁380	-11.4795
▁павольна	-11.4796
крат	-11.4797
▁Казлоў	-11.4798
днём	-11.4798
▁шлем	-11.48
▁чыгуначнага	-11.4802
▁Складае	-11.4804
▁уладальнікам	-11.4805
▁крон	-11.4806
▁1844	-11.4806
gen	-11.4807
▁Глыбо	-11.4808
▁Раг	-11.4809
▁земляроб	-11.481
▁падлог	-11.4814
▁пункце	-11.4814
▁мікрараён	-11.4814
▁тройчы	-11.4815
▁герцагам	-11.4815
▁Сол	-11.4816
Ан	-11.4816
▁голад	-11.4817
▁война	-11.4818
▁цырымоні	-11.4822
▁дэкан	-11.4822
▁1667	-11.4824
▁Віталь	-11.4824
▁ўдзельнікаў	-11.4825
Пецярбурга	-11.4826
▁злучэнне	-11.4827
▁Міцкевіча	-11.4829
▁знаёмы	-11.4838
▁жонку	-11.4838
▁цыліндрычны	-11.4839
▁шкілет	-11.4839
▁прыдворны	-11.4839
▁Бярэзінскі	-11.4839
▁гарызантальна	-11.4839
▁Мароз	-11.4839
сферы	-11.484
▁Слонімскі	-11.4841
▁вароты	-11.4845
▁прапаганды	-11.4846
нясення	-11.4847
▁грыбоў	-11.4847
fa	-11.4849
▁тка	-11.485
▁138	-11.485
▁служылі	-11.485
▁плануе	-11.4851
▁ўзяцц	-11.4852
▁выклікалі	-11.4852
▁Дзеянн	-11.4853
▁забудова	-11.4853
▁кандыдатур	-11.4854
▁Навукова	-11.4855
▁палёту	-11.4856
лютэран	-11.4858
▁сумяшча	-11.4859
значаны	-11.486
канферэнцы	-11.486
▁Бразілія	-11.4862
▁фартэпіяна	-11.4862
▁мацерыко	-11.4862
▁цёпла	-11.4862
▁шатландска	-11.4862
▁Зялёны	-11.4862
▁верхавін	-11.4862
▁восені	-11.4862
▁кардынала	-11.4863
▁мінскі	-11.4866
▁бачыў	-11.4868
▁чацверык	-11.4868
▁Камітэт	-11.4869
▁бывае	-11.487
▁драматычна	-11.4872
▁прадава	-11.4875
▁арыентавана	-11.4876
▁2-3	-11.4876
▁задання	-11.488
▁вырабляе	-11.488
▁Шэкспіра	-11.4881
▁135	-11.4882
▁цягну	-11.4885
▁Сцюарт	-11.4886
▁спонсара	-11.4886
▁энергію	-11.4886
▁падтрымлівалі	-11.4889
▁Жонка	-11.489
▁азот	-11.4891
tra	-11.4892
▁каштоўнасць	-11.4893
▁Паўночн	-11.4896
▁1816	-11.4898
▁Такая	-11.4898
cz	-11.49
▁Друкава	-11.49
▁пакоя	-11.4901
▁Лідска	-11.4902
▁склон	-11.4904
▁краязнаўчы	-11.4907
▁абмеркаванн	-11.4909
▁паўабаронцы	-11.4909
▁дзевяці	-11.4909
▁правял	-11.491
▁кухні	-11.491
луг	-11.491
Ар	-11.4912
▁жывапісец	-11.4913
▁каго	-11.4913
▁Мост	-11.4913
▁важнае	-11.4914
▁канцо	-11.4915
▁памочнікам	-11.4915
▁Свят	-11.4916
▁феадальна	-11.4917
▁выратаванн	-11.492
▁Беларуск	-11.4922
▁Гло	-11.4924
▁садзейніча	-11.4927
▁вобласц	-11.4928
мкну	-11.493
▁102	-11.493
▁Вальтэр	-11.4932
2,9	-11.4933
▁Грыгарыянскі	-11.4933
▁захапля	-11.4933
▁Пачатак	-11.4933
▁аўтаномны	-11.4933
▁прапануе	-11.4933
▁Густаў	-11.4934
▁ўтрыманн	-11.4934
прадукт	-11.4934
▁існуючы	-11.4935
▁ўзнагароджаны	-11.4935
▁Лыс	-11.4938
▁Публі	-11.4939
цэт	-11.4942
▁дазволу	-11.4943
▁арганічна	-11.4944
▁кіравала	-11.4945
▁граматык	-11.4947
▁1843	-11.4948
Успенск	-11.4949
▁рабоў	-11.495
▁воды	-11.4953
▁спажыва	-11.4957
▁Характэрна	-11.4957
▁дасягненне	-11.4957
▁еўрапейцаў	-11.4957
▁срэбны	-11.4957
▁Існавал	-11.4959
▁1807	-11.4959
▁Раду	-11.496
▁Тэкст	-11.496
▁каштоўнасці	-11.4961
▁апублікава	-11.4968
метал	-11.4969
▁Банк	-11.497
▁Траян	-11.4971
▁Браўн	-11.4971
ug	-11.4973
пало	-11.4975
свяч	-11.4979
▁выбаршчыкаў	-11.4981
▁Капыльскі	-11.4982
▁вернуты	-11.4983
▁максімальн	-11.4984
▁Варшава	-11.4986
дуб	-11.4986
▁анёл	-11.4988
▁агента	-11.4991
▁Слава	-11.4992
▁Судан	-11.4992
▁асад	-11.4992
▁аперацы	-11.4995
▁1841	-11.4995
▁Радз	-11.4996
▁Колер	-11.4998
▁Антант	-11.5003
▁апосталаў	-11.5005
▁Фрэдэрык	-11.5005
▁Эстонія	-11.5005
▁кантра	-11.5005
▁імперскі	-11.5006
▁утварэнне	-11.5007
▁Qu	-11.5008
▁Мазырскі	-11.5011
▁платформа	-11.5013
▁прымала	-11.5014
▁Джорджа	-11.5014
▁прыкметны	-11.5015
▁саюзнікам	-11.5016
снежн	-11.5016
▁зямны	-11.5018
▁палявы	-11.5029
τ	-11.5029
▁аздабленн	-11.5029
▁рэстаран	-11.5029
▁Ганарова	-11.5029
▁турыстычны	-11.503
▁упраўленн	-11.5031
стрэл	-11.5035
▁Сяло	-11.5035
генез	-11.5035
ula	-11.504
▁фармаванн	-11.504
▁прарва	-11.504
▁1821	-11.5041
▁фінска	-11.5041
фікаваны	-11.5045
▁адрозніваюць	-11.5046
▁цыган	-11.5048
▁магчымым	-11.505
▁1803	-11.5051
▁рэканструкцыя	-11.5053
▁рэгістрацыі	-11.5053
▁Хронік	-11.5054
▁распрацава	-11.5056
метрычна	-11.5056
▁турме	-11.5059
▁нарадзіла	-11.5062
▁дзецьмі	-11.5063
▁Жанаты	-11.5065
▁псеўданімам	-11.5065
que	-11.5066
▁фараона	-11.507
▁ўзвядзенн	-11.5071
▁абвінавачва	-11.5074
▁віз	-11.5075
▁цяжар	-11.5076
▁назапашва	-11.5078
▁ператвораны	-11.5078
▁Язэп	-11.5078
▁хоры	-11.5078
▁Картэс	-11.5079
▁Людвік	-11.508
▁фірма	-11.5081
▁гульнявы	-11.5082
▁развіваюцц	-11.5084
▁апавяданне	-11.5087
▁Выклада	-11.509
мастацкі	-11.5092
жнік	-11.5092
▁1824	-11.5093
▁ютарны	-11.5095
▁Сярэднявечч	-11.5096
бургскі	-11.5096
працоўка	-11.5097
▁шахт	-11.5098
марк	-11.5099
▁Камянецкі	-11.5099
▁сфармулява	-11.5102
▁патрапіў	-11.5102
aceae	-11.5102
▁Баварыя	-11.5102
буры	-11.5104
▁апрацоўва	-11.5104
rr	-11.5105
▁фірмы	-11.511
▁родам	-11.5113
▁Міжзем	-11.5116
3,5	-11.5117
▁Антонавіч	-11.5117
▁часты	-11.5117
▁Уільяма	-11.5118
▁Рэал	-11.5119
▁шкал	-11.5124
▁печ	-11.5124
▁гарадская	-11.5125
▁Лейпцыг	-11.5126
▁Мексікі	-11.5126
▁падоўжаны	-11.5126
▁пасляваенны	-11.5126
▁Поўнач	-11.5127
▁Токіа	-11.5127
▁Пін	-11.5131
▁Гель	-11.5137
cu	-11.5141
сялянск	-11.5143
CC	-11.5145
▁міфа	-11.5147
▁кастрычнік	-11.5147
▁Гісторык	-11.5151
▁пакаранне	-11.5151
▁Сяля	-11.5151
▁незвычайна	-11.5152
▁класік	-11.5153
▁Даліна	-11.5154
▁туманнасць	-11.5155
▁чэмпіёнка	-11.5157
▁Гітлер	-11.5157
▁Кіш	-11.5164
▁1811	-11.5165
▁сайта	-11.5167
▁рухавіком	-11.5167
▁АЭС	-11.5169
лешч	-11.5171
▁скульптара	-11.5172
▁Выкарыстоўвае	-11.5174
▁Хельсінкі	-11.5175
▁найвялікшы	-11.5175
▁пасялкова	-11.5175
▁камедыі	-11.5175
кантынент	-11.5175
▁124	-11.5177
▁рэвалюцы	-11.5177
▁106	-11.5177
▁інжынерам	-11.5178
▁насялял	-11.5178
▁Сыр	-11.518
▁абшчына	-11.5182
eb	-11.5184
▁староста	-11.5184
▁Багдана	-11.5186
▁зменена	-11.5188
будаўніча	-11.5189
▁абацтв	-11.5191
▁аўтадаро	-11.5197
▁ўладання	-11.5198
▁помнікам	-11.5199
▁расстраляны	-11.52
▁самагубства	-11.52
▁упрыгожаны	-11.52
▁агнём	-11.52
▁даўжэй	-11.5201
▁перавод	-11.5201
▁ўрочышч	-11.5202
▁Кука	-11.5202
▁апорны	-11.5203
▁кут	-11.5203
▁Мсціслаў	-11.5204
▁наведа	-11.5205
▁Грыгор	-11.5208
▁звон	-11.5209
▁павялічылас	-11.5211
▁палях	-11.5212
▁працэсар	-11.5212
▁рангу	-11.5218
▁арачны	-11.522
федэра	-11.522
спор	-11.5223
▁друкар	-11.5224
▁кінематаграфі	-11.5224
▁упрыгожва	-11.5224
▁Чашніцкі	-11.5224
▁ключавы	-11.5225
▁выпусціў	-11.5225
▁японц	-11.5226
▁вадзяны	-11.5227
▁Княств	-11.5228
▁Ганс	-11.523
▁ракавін	-11.5239
рускага	-11.5239
андры	-11.5242
▁скарачэнне	-11.5247
▁Францішка	-11.5249
▁вадаспад	-11.5249
▁манеўр	-11.5249
▁Шанхай	-11.5249
▁Перыяд	-11.5249
▁Вінцэнт	-11.5249
▁полу	-11.525
▁выпрабаванн	-11.5251
▁абавязковы	-11.5251
▁век	-11.5253
джэнне	-11.5254
▁яднанні	-11.5255
▁Філ	-11.5255
▁зацвердзіў	-11.5261
▁літургі	-11.5263
▁замяніў	-11.5265
3,7	-11.5273
▁наваколлі	-11.5273
▁фестываля	-11.5273
▁далуча	-11.5274
▁Гаро	-11.5276
▁роты	-11.528
▁Шэр	-11.5283
▁інфармацыйна	-11.5288
рэст	-11.5291
▁1805	-11.5292
▁Алены	-11.5294
▁лінь	-11.5295
▁ведае	-11.5298
▁веравызнанн	-11.5298
▁студэнцкі	-11.5298
▁распасціра	-11.5298
▁расследаванн	-11.5298
▁Інтэрнэт	-11.5298
▁людзям	-11.5298
▁дамог	-11.5299
▁нізіна	-11.5302
▁сценах	-11.5302
▁Галоў	-11.5303
▁навучы	-11.5304
▁даступна	-11.5304
▁тканіны	-11.5305
▁карэнішч	-11.5307
▁мітрапаліт	-11.5307
▁дапушча	-11.5307
▁раманаў	-11.5308
дзён	-11.5309
▁Стаўбцоўскі	-11.5309
ольскі	-11.531
▁1838	-11.5312
▁ўзыход	-11.5315
▁дэталі	-11.5317
▁Праграм	-11.5318
▁107	-11.5319
вугольнік	-11.532
▁пілястрам	-11.5321
▁называць	-11.5321
горнут	-11.5322
2,0	-11.5323
▁біятлон	-11.5323
▁суверэнітэт	-11.5323
▁дапаможнік	-11.5323
▁плод	-11.5323
▁стварыла	-11.5325
▁1773	-11.5325
▁празаік	-11.5326
▁Іардан	-11.5326
▁аздоблены	-11.5326
▁нявест	-11.5326
▁продка	-11.5326
▁Валода	-11.5327
▁прымуша	-11.5328
▁пасол	-11.5331
▁Рудня	-11.5333
▁шары	-11.5334
▁Буйны	-11.5336
▁Вяз	-11.534
▁унук	-11.534
▁юнак	-11.5342
▁тысячагоддз	-11.5346
▁Алан	-11.5347
замен	-11.5348
▁напярэдадні	-11.5348
▁здароўе	-11.5348
▁Сапегі	-11.5348
▁Люд	-11.5348
▁Фелікс	-11.5348
▁порцік	-11.5349
▁пазнаёміў	-11.5349
▁Справа	-11.5351
выканкам	-11.5351
▁аддзелены	-11.5353
mon	-11.5354
▁кля	-11.5356
▁гаро	-11.5357
▁Нур	-11.5357
▁Арсенал	-11.5358
▁адказнасць	-11.5358
▁адмоўна	-11.5358
▁густы	-11.5359
▁Ізраіл	-11.5361
вязаны	-11.5362
▁Дзве	-11.5363
сховішч	-11.5365
ide	-11.5365
▁фінансаванн	-11.5365
балтыйск	-11.5367
lan	-11.5373
▁прадстаўніцтва	-11.5373
▁Заходн	-11.5374
▁нагадваю	-11.5374
▁118	-11.5374
▁развівае	-11.5375
▁састав	-11.5376
▁Фларыд	-11.5377
▁Духа	-11.5377
▁нібы	-11.5378
▁даследчы	-11.538
▁гравітацыйна	-11.5382
▁беларусы	-11.5383
▁Багдановіча	-11.5383
▁люд	-11.5383
сцэн	-11.5386
▁таўшчын	-11.5389
▁адкрылі	-11.5393
ler	-11.5393
▁сапр	-11.5393
рэзана	-11.5393
онак	-11.5394
▁Сел	-11.5394
▁Слонімска	-11.5395
4,2	-11.5398
▁дэкларацы	-11.5398
▁найболе	-11.5398
▁інтэграцы	-11.5398
▁станоўчы	-11.5398
▁дайшл	-11.5399
▁рэзкі	-11.5399
▁Быхаўскі	-11.5399
▁сфер	-11.54
▁школьны	-11.54
▁Ta	-11.54
▁1783	-11.54
▁Спартак	-11.5401
org	-11.5402
▁памят	-11.5403
▁Вель	-11.5403
▁адвагу	-11.5404
▁самкі	-11.5408
▁абаронча	-11.5411
▁ябл	-11.5411
▁Дор	-11.5412
▁1825	-11.5413
▁Бяро	-11.5417
▁майстрам	-11.5418
▁дэпо	-11.5421
λ	-11.5423
▁Даследаванн	-11.5423
▁экзамен	-11.5423
▁Працэс	-11.5424
мперыю	-11.5425
клалі	-11.5425
▁блыта	-11.5426
▁117	-11.5427
▁Мсціслаўскі	-11.5432
▁падпісалі	-11.5432
нецкі	-11.5433
▁настаўнікаў	-11.5434
▁вял	-11.5436
шок	-11.5437
▁камісі	-11.5437
▁цячэнне	-11.5441
▁Часова	-11.5442
min	-11.5443
стэн	-11.5444
▁Уэльс	-11.5445
▁малюнкаў	-11.5445
▁Вял	-11.5447
▁Нямецка	-11.5448
▁пазначаны	-11.5448
▁Асацыяцы	-11.5448
▁прасоўванн	-11.5449
▁Коп	-11.5451
▁знізу	-11.5451
▁шчыльны	-11.5452
▁свядомасці	-11.5452
▁сяброўства	-11.5455
▁захаванн	-11.5458
▁набраў	-11.5458
▁дз	-11.546
▁Замк	-11.5462
▁суткі	-11.5462
▁каркас	-11.5464
эканамічны	-11.5464
▁1819	-11.5469
▁атамаў	-11.5471
▁павятовы	-11.5473
▁Завод	-11.5474
▁Калумбіі	-11.5475
▁Дракон	-11.5476
▁Незалежнасці	-11.5477
▁Аснова	-11.5477
▁Антан	-11.5477
▁Сусвету	-11.548
▁сканаў	-11.5483
▁доктарскую	-11.5484
▁выразны	-11.5485
губернатарства	-11.5486
▁жыхара	-11.5488
▁пят	-11.549
ov	-11.549
▁сцэнарыст	-11.549
▁Макар	-11.5494
▁батанічны	-11.5498
▁праяўлены	-11.5499
▁спасыла	-11.5499
▁1789	-11.55
▁даручэнн	-11.5502
▁стратэгі	-11.5507
▁індыйска	-11.5507
▁надае	-11.5508
▁Ex	-11.5508
▁вугаль	-11.5509
▁выконвалі	-11.5514
▁размеркаванне	-11.5514
гро	-11.5515
▁Дагавор	-11.5515
▁УССР	-11.5518
▁Царкв	-11.552
▁хуткі	-11.5522
▁дыялог	-11.5524
▁Працуе	-11.5524
▁алімпійска	-11.5525
age	-11.5526
▁ветру	-11.5527
▁артылерыйскі	-11.5529
▁прынёс	-11.5529
▁друкарні	-11.5531
▁супольнасц	-11.5533
▁сэр	-11.5533
штурх	-11.5534
алізацыя	-11.5537
▁1823	-11.5539
ВК	-11.5539
▁Юзафа	-11.5544
▁Труб	-11.5544
ر	-11.5549
▁Развіццё	-11.5549
▁падраздзяленні	-11.5549
▁Лёзненск	-11.5549
▁публічны	-11.5549
▁сетку	-11.5549
▁немцамі	-11.5551
▁ўстаноўлены	-11.5551
lus	-11.5553
▁драма	-11.5554
▁Леан	-11.5554
▁полюс	-11.5555
▁ўражанн	-11.5559
▁вярнулас	-11.5568
▁пазначае	-11.5571
▁вадаём	-11.5573
▁Жыл	-11.5574
▁Кіеўскі	-11.5574
▁Пталаме	-11.5575
▁Альфонса	-11.5575
▁дзевяць	-11.5575
CPG	-11.5576
▁майстры	-11.5577
Гар	-11.558
▁Інша	-11.5583
▁Маладо	-11.5583
▁нормы	-11.5585
▁Сіці	-11.5585
▁вытворны	-11.5588
▁Шэраг	-11.5589
наўскі	-11.5599
[...]
