<unk>	0
<s>	0
</s>	0
<pad>	0
▁,	-3.00119
▁.	-3.09503
▁	-3.21197
і	-3.41686
я	-3.82042
▁і	-4.01944
ы	-4.03713
й	-4.14523
▁ў	-4.20469
х	-4.2256
у	-4.32611
▁з	-4.38007
а	-4.48524
(	-4.50459
е	-4.51959
▁)	-4.53108
▁у	-4.60625
▁—	-4.60689
▁на	-4.60972
ў	-4.72739
;	-4.7905
▁&	-4.85067
м	-4.95096
га	-5.04433
▁У	-5.05952
ць	-5.05998
«	-5.1003
▁»	-5.10385
цца	-5.15838
▁да	-5.37987
аў	-5.44362
ot	-5.45064
qu	-5.4512
▁па	-5.60275
зе	-5.6436
os	-5.66407
ap	-5.66551
ю	-5.68678
ь	-5.74259
▁ад	-5.80954
ай	-5.82864
▁год	-5.90172
▁не	-5.9545
ага	-5.95649
ся	-5.98212
▁:	-6.01823
▁г	-6.02848
▁што	-6.03066
▁года	-6.03471
▁быў	-6.11802
ую	-6.13509
▁яго	-6.21537
▁як	-6.23895
▁за	-6.24604
▁а	-6.26352
▁так	-6.33408
-	-6.34345
для	-6.35011
▁З	-6.38445
1	-6.47191
сама	-6.47896
ўся	-6.48355
▁На	-6.51149
5	-6.51394
▁час	-6.51671
▁якія	-6.54967
7	-6.55471
▁гэта	-6.57105
▁які	-6.57506
4	-6.60088
6	-6.61205
ак	-6.63392
3	-6.65168
оў	-6.65883
▁аб	-6.68123
2	-6.69112
8	-6.69604
▁была	-6.73013
▁пад	-6.73284
9	-6.73403
цы	-6.7907
ён	-6.79921
км	-6.82196
▁горад	-6.92865
▁пры	-6.93197
▁С	-6.93242
▁было	-6.93758
мі	-6.96264
▁але	-6.97546
былі	-6.97715
▁;	-6.98237
ам	-6.98975
▁больш	-6.99298
▁200	-7.01051
▁А	-7.01188
▁пасля	-7.03351
▁якая	-7.03595
́	-7.04431
▁каля	-7.0561
амі	-7.07429
▁Беларус	-7.10874
▁2	-7.11676
▁іх	-7.11677
це	-7.11898
ліся	-7.12118
▁яўляе	-7.15469
▁яе	-7.16011
юць	-7.16312
▁вобласц	-7.16965
▁тольк	-7.17091
▁пра	-7.19592
%	-7.1996
к	-7.20119
▁м	-7.20512
▁194	-7.2222
▁ст	-7.22521
▁іншы	-7.22698
▁раён	-7.23176
▁або	-7.26056
▁гадоў	-7.26301
▁краін	-7.29923
▁192	-7.30111
▁дзе	-7.346
▁Пасля	-7.34979
▁тэрыторы	-7.35627
▁191	-7.35951
▁гэты	-7.38713
ася	-7.39314
’	-7.40289
▁193	-7.40531
▁ім	-7.45021
▁1	-7.45432
▁3	-7.4649
між	-7.47305
▁склад	-7.49371
▁знаходзі	-7.49902
▁цэнтр	-7.5046
▁калі	-7.51291
ССР	-7.51679
▁са	-7.52669
▁тым	-7.52758
▁інш	-7.53732
▁горада	-7.54521
▁I	-7.55138
▁Па	-7.55167
▁адзін	-7.55762
▁ці	-7.57169
▁П	-7.57968
▁-	-7.58103
▁Б	-7.58181
лі	-7.58731
чы	-7.59565
▁насельніцтва	-7.59704
▁чалавек	-7.61707
г	-7.62147
▁ва	-7.63239
▁раёна	-7.63306
▁В	-7.64042
таго	-7.64197
▁196	-7.64669
кі	-7.64723
▁складае	-7.64773
▁стаў	-7.65594
го	-7.66853
▁некалькі	-7.67422
час	-7.68896
▁195	-7.68926
▁стагоддзя	-7.69497
▁вайн	-7.69603
▁пачатк	-7.70369
сць	-7.70845
юцца	-7.72402
▁частка	-7.72686
▁месца	-7.74286
▁вынік	-7.74393
▁198	-7.75303
▁мов	-7.75465
▁праз	-7.75762
▁мае	-7.76173
ла	-7.76638
▁беларуска	-7.78204
▁197	-7.79041
▁Да	-7.80172
▁якіх	-7.80245
▁М	-7.80545
▁10	-7.81725
▁розны	-7.82097
▁першы	-7.82615
▁частк	-7.83849
яны	-7.84196
▁Расі	-7.84574
▁15	-7.84835
▁якой	-7.85193
▁199	-7.85352
▁стала	-7.87097
▁сваё	-7.87757
▁201	-7.87852
/	-7.87899
▁ё	-7.88058
▁Гэта	-7.88231
▁190	-7.88373
гады	-7.88689
▁гэтым	-7.88731
ах	-7.88888
▁колькасц	-7.90519
▁20	-7.9075
одзе	-7.91197
▁тыс	-7.9225
▁Адна	-7.92265
ле	-7.92946
ША	-7.93222
▁перыяд	-7.93371
жо	-7.94729
▁5	-7.95238
▁гісторы	-7.95454
II	-7.95938
▁некаторы	-7.95957
яшчэ	-7.96004
▁4	-7.96538
▁Я	-7.98362
▁над	-7.98622
▁атрымаў	-7.98717
▁беларускі	-7.99366
ва	-7.99678
▁жа	-8.01687
▁17	-8.02629
▁складзе	-8.02998
▁свет	-8.03071
▁каб	-8.03227
▁студзен	-8.03747
▁Так	-8.03866
▁ве	-8.04648
▁XI	-8.05094
▁дзяржав	-8.05198
ой	-8.05497
▁культур	-8.05811
▁супраць	-8.06257
▁можа	-8.06413
разам	-8.07045
▁Еўроп	-8.07099
▁с	-8.07265
▁яна	-8.07423
▁бы	-8.07869
▁Мінска	-8.08444
▁якога	-8.08651
вайны	-8.08702
▁школ	-8.09394
▁ліпен	-8.09676
о	-8.09697
▁Ён	-8.09803
▁снежн	-8.10014
▁К	-8.10378
▁Пад	-8.10412
льмі	-8.10422
▁Вяліка	-8.10473
шы	-8.10551
▁16	-8.10586
▁назва	-8.10732
▁дзейнасц	-8.1147
▁12	-8.11541
за	-8.11888
▁ўсход	-8.12051
▁маю	-8.12247
▁сакавік	-8.12436
▁працяг	-8.12544
▁вядомы	-8.12575
▁част	-8.1333
сіх	-8.13359
▁Рэспублік	-8.13813
▁размешчаны	-8.13893
▁жыхар	-8.13942
▁Беларуска	-8.1435
▁ж	-8.14895
▁царкв	-8.15097
▁перша	-8.15291
▁якім	-8.15412
▁імперы	-8.15417
▁ўсё	-8.15506
▁19	-8.16096
▁поўнач	-8.16263
▁вяліка	-8.16739
▁14	-8.16796
▁рух	-8.17227
▁вялікі	-8.17656
ліку	-8.17743
▁кастрычнік	-8.17764
▁аднак	-8.18081
▁назв	-8.18125
▁гада	-8.18149
▁від	-8.18245
▁І	-8.18303
▁мора	-8.20018
чынам	-8.20243
▁якое	-8.20362
▁сям	-8.20735
▁жыцця	-8.20818
▁свай	-8.20859
▁павод	-8.21108
▁сувяз	-8.21835
▁Беларусь	-8.21921
ца	-8.21972
▁новы	-8.21998
▁18	-8.22274
▁лістапад	-8.23123
ючы	-8.23317
▁30	-8.23725
ны	-8.24322
▁6	-8.24555
маль	-8.24669
▁адным	-8.25184
▁чэрвен	-8.25286
прыклад	-8.25477
▁возера	-8.25653
▁н	-8.26049
ая	-8.26484
▁Пры	-8.26643
т	-8.26933
▁Польшч	-8.2695
ем	-8.26966
▁сярод	-8.27382
▁был	-8.27395
▁захад	-8.27458
▁вёск	-8.27468
той	-8.27572
▁чым	-8.27718
▁права	-8.27819
сці	-8.28079
▁б	-8.2808
▁канцы	-8.2832
сваю	-8.28383
▁працы	-8.28668
▁якасц	-8.28848
▁два	-8.28864
▁вёска	-8.28941
▁яўляю	-8.29238
▁мая	-8.29387
°	-8.29546
▁груп	-8.29882
ка	-8.30118
дле	-8.30327
▁раз	-8.3033
▁Паво	-8.30447
крамя	-8.30617
▁пасад	-8.30896
▁самы	-8.33111
▁найбольш	-8.33506
▁8	-8.33524
▁таму	-8.33827
можна	-8.34505
ства	-8.34517
▁войска	-8.34962
▁За	-8.35041
▁пачаў	-8.35237
▁парты	-8.35689
▁то	-8.35941
▁сваі	-8.36016
▁Р	-8.36293
мовы	-8.3686
▁186	-8.3692
▁ям	-8.37035
▁Але	-8.37513
▁чалавека	-8.37573
▁бо	-8.37713
▁сябе	-8.37774
▁13	-8.3786
Л	-8.37917
▁мова	-8.38127
▁II	-8.38168
▁XVI	-8.38553
▁25	-8.38877
▁т	-8.39246
▁пазней	-8.39469
▁верасн	-8.39893
▁жніўн	-8.40176
▁кніг	-8.40281
▁навук	-8.40489
▁189	-8.40585
▁шэраг	-8.4061
с	-8.40665
▁форм	-8.41002
▁аснов	-8.41463
▁сваім	-8.41613
▁кар	-8.41691
▁лічы	-8.42722
▁сабо	-8.4326
▁твор	-8.43276
▁сіл	-8.43298
на	-8.43885
▁вядома	-8.43888
▁тып	-8.43917
▁11	-8.44092
▁Германі	-8.44321
▁ліні	-8.44403
▁смерці	-8.4457
му	-8.44637
асць	-8.44963
▁род	-8.45082
▁зямл	-8.45407
▁значна	-8.45599
▁Францы	-8.45619
▁ВК	-8.45797
▁красавік	-8.4618
тым	-8.46623
▁плошч	-8.473
▁тут	-8.47423
X	-8.47578
▁7	-8.47846
▁сельсавета	-8.47926
▁менш	-8.48367
▁тысяч	-8.48567
▁звычайна	-8.48643
▁месц	-8.48663
▁друго	-8.49035
першын	-8.49504
▁Маскв	-8.49857
▁шмат	-8.50226
▁развіцц	-8.50291
▁часта	-8.50438
▁млн	-8.50655
▁тры	-8.50694
▁мастацтва	-8.50898
V	-8.50995
▁адной	-8.51172
▁без	-8.51408
▁рак	-8.51637
▁такі	-8.51898
▁войск	-8.52119
▁нават	-8.5223
ых	-8.52375
–	-8.52757
▁сын	-8.52869
▁Ян	-8.52911
▁цяпер	-8.53211
▁9	-8.536
▁Заходня	-8.53662
▁сталі	-8.53795
▁Яго	-8.54077
▁працэс	-8.54277
▁рака	-8.54291
▁многі	-8.54562
▁ер	-8.55305
▁літаратур	-8.55412
▁Расійска	-8.55532
▁асабліва	-8.55641
▁поўдн	-8.55688
▁Д	-8.56153
▁дзяржаўны	-8.56358
▁в	-8.5653
▁сістэм	-8.56556
▁ц	-8.56795
▁княз	-8.56819
▁сам	-8.56912
▁пераважна	-8.57287
▁часам	-8.57312
▁член	-8.57476
▁Дл	-8.57902
▁C	-8.58039
▁улад	-8.58056
▁Мінск	-8.58401
▁выгляд	-8.58511
▁свец	-8.59312
▁вытворчасц	-8.59636
▁179	-8.60244
▁лют	-8.60618
▁Калі	-8.61132
▁мяж	-8.61983
▁сістэмы	-8.62049
▁двух	-8.62224
▁188	-8.62262
▁арганізацы	-8.62343
▁барацьб	-8.6285
▁перш	-8.6298
▁стагоддз	-8.63106
▁паўночна	-8.63148
▁Рэчы	-8.63264
▁адна	-8.63353
▁колер	-8.63364
▁Гэты	-8.63673
▁нацыянальна	-8.63751
▁Паўночна	-8.63985
скага	-8.64049
▁дзень	-8.64218
ракі	-8.64351
▁свае	-8.6442
▁Плошч	-8.64873
▁к	-8.65412
▁вуліц	-8.66064
▁дзеяч	-8.66361
▁Г	-8.66616
▁буйны	-8.67084
▁Яна	-8.67141
▁шматлікі	-8.67179
▁аднаго	-8.67183
▁адбыл	-8.67258
▁тое	-8.67801
▁п	-8.67857
ося	-8.67858
працаваў	-8.67875
▁пункт	-8.68139
▁2008	-8.68767
▁атрымала	-8.68898
▁паўднёва	-8.69016
▁сусветна	-8.6906
сельніцтва	-8.69387
▁дзве	-8.6955
▁армі	-8.6965
▁канца	-8.69776
▁Аб	-8.69864
▁асноўным	-8.70183
▁меў	-8.70774
▁100	-8.71142
▁большасц	-8.71448
▁апошні	-8.71679
▁межа	-8.71694
атым	-8.71856
▁шлях	-8.72012
▁цэнтрам	-8.72094
▁першым	-8.72251
▁ваенны	-8.72252
▁ўсе	-8.72274
▁22	-8.73046
▁по	-8.734
▁сярэдзін	-8.73552
ска	-8.73562
▁187	-8.73783
▁беларуск	-8.73909
алкам	-8.74385
▁паверхн	-8.74468
пачатк	-8.75154
▁Паўднёва	-8.75426
▁Першы	-8.75641
▁сістэма	-8.76029
▁прамысловасц	-8.76521
▁галін	-8.76818
▁асноўны	-8.76949
ё	-8.77043
▁палов	-8.77222
▁людзей	-8.774
▁стварэнн	-8.77852
▁прыток	-8.77862
ей	-8.78413
▁28	-8.7853
▁сучасна	-8.78616
▁Мінску	-8.78629
▁Ф	-8.78724
▁Горад	-8.78897
000	-8.79138
▁перад	-8.79421
▁Уваходзі	-8.79432
▁24	-8.79456
▁адміністрацыйны	-8.79498
▁21	-8.79556
▁Т	-8.79589
▁No	-8.79723
▁Перша	-8.79867
▁трох	-8.80108
▁наступны	-8.80113
▁Віцебска	-8.80208
▁зноў	-8.80282
▁свой	-8.8036
▁кампані	-8.80447
00	-8.80467
▁ступен	-8.80617
▁Паспаліта	-8.80674
▁шырын	-8.80856
▁23	-8.80872
▁50	-8.80875
могу	-8.81091
▁палітычны	-8.81092
▁Як	-8.81396
▁дзяржаўна	-8.81728
▁створаны	-8.81926
▁гонар	-8.82184
▁27	-8.8233
▁рэк	-8.82372
▁цела	-8.82869
▁2009	-8.82915
▁дадзены	-8.83227
▁кіраўніцтва	-8.83238
▁павета	-8.83492
дзень	-8.8381
ку	-8.8382
▁пачалі	-8.83945
▁Зямл	-8.84212
▁іншым	-8.84558
▁знаходзя	-8.84586
▁бок	-8.84732
▁26	-8.84857
▁шырока	-8.85162
▁Украін	-8.85834
▁жыццё	-8.85866
▁ты	-8.86158
▁польска	-8.86499
▁2-	-8.86546
▁завод	-8.8661
▁народа	-8.8675
▁момант	-8.86786
ыня	-8.86896
▁заста	-8.86905
▁180	-8.87013
▁рол	-8.87049
▁станцы	-8.87122
▁будаўніцтва	-8.87292
▁дэ	-8.87293
▁губерні	-8.87527
▁матэрыял	-8.87553
▁афіцыйна	-8.87587
▁тэрмін	-8.87716
▁дом	-8.87813
▁слова	-8.87869
дзячы	-8.87931
▁працу	-8.87941
▁сярэдня	-8.87986
▁выкарыстоўвае	-8.88278
▁прычын	-8.88287
▁краіна	-8.88306
▁жывёл	-8.88515
▁184	-8.88533
▁183	-8.88688
▁палітык	-8.88796
ст	-8.89435
▁якую	-8.89532
▁Літв	-8.89543
▁нова	-8.8968
▁Вялікі	-8.89952
енавіта	-8.89953
▁см	-8.9016
▁хо	-8.90455
▁займае	-8.90625
э	-8.90929
▁ляс	-8.91383
▁агульна	-8.91602
▁тэоры	-8.91629
▁мэта	-8.91724
▁2010	-8.91856
▁Праз	-8.91955
▁справ	-8.92029
▁там	-8.9205
▁створана	-8.92427
▁караля	-8.92453
▁абарон	-8.92482
▁хутка	-8.92909
▁185	-8.93057
▁моцна	-8.93122
▁нацыянальны	-8.93284
▁пабудаваны	-8.93546
▁181	-8.94066
▁40	-8.94475
▁руска	-8.9454
вады	-8.94686
▁такім	-8.9478
ры	-8.94929
▁адбы	-8.95102
та	-8.95112
▁Італі	-8.95173
▁галоўным	-8.9537
▁асобны	-8.95516
▁лік	-8.95566
▁чаго	-8.9577
ахадзе	-8.95858
▁раслін	-8.95898
▁1-	-8.9596
▁вышын	-8.96153
▁незалежнасц	-8.96561
▁рускі	-8.96846
▁адбыва	-8.96914
▁ўдзел	-8.9703
▁раней	-8.97067
▁рэгіён	-8.97195
▁таварыства	-8.97422
▁ваенна	-8.97461
▁2000	-8.97993
▁паўднёвы	-8.98163
▁княства	-8.98327
▁выпадк	-8.98488
▁бера	-8.98997
▁ні	-8.99136
▁мела	-8.99144
▁дзяце	-8.99166
▁Даўж	-8.99168
▁&#9	-8.99333
▁прэзідэнта	-8.99391
▁палітычна	-8.99459
▁мелі	-8.99941
▁&#93;	-9.00181
▁паўночны	-9.00628
боку	-9.011
▁ўлад	-9.01223
▁Са	-9.01235
▁?	-9.01277
0	-9.01418
▁вялік	-9.01766
▁будзе	-9.01783
▁выступа	-9.01927
▁плошча	-9.02006
▁басейн	-9.02169
плыў	-9.02238
▁войскам	-9.02409
▁ля	-9.02429
▁князя	-9.03035
▁развіццё	-9.03222
▁адносін	-9.03387
_	-9.03433
▁акруг	-9.03481
▁верш	-9.03585
▁кіраванн	-9.03656
▁творчасц	-9.03845
▁Мікала	-9.03915
▁мясцовы	-9.04087
▁размешчана	-9.04231
▁прадстаўнік	-9.04314
▁народна	-9.04362
▁XX	-9.04524
▁вёс	-9.04645
▁бацьк	-9.05064
▁характар	-9.05094
▁прыкладна	-9.05186
Р	-9.0521
▁сталіца	-9.05285
▁177	-9.05538
▁тэрыторыя	-9.05602
la	-9.057
ярод	-9.05787
▁XVII	-9.05894
▁статус	-9.05958
▁нямецка	-9.06017
▁удзел	-9.06075
▁метра	-9.06155
не	-9.06195
▁выкарыстоўва	-9.06287
▁бак	-9.06299
▁1920	-9.0632
ль	-9.06358
▁бітв	-9.06584
▁усе	-9.06778
▁гарадо	-9.06954
▁Беларускі	-9.07063
забав	-9.07116
▁маці	-9.07343
▁галоўны	-9.0749
▁газет	-9.07547
ец	-9.07662
ці	-9.07673
▁нямецкі	-9.07684
▁закон	-9.07723
▁29	-9.07734
▁альбо	-9.07843
▁орган	-9.07887
▁правінцы	-9.08021
амак	-9.08059
▁сталіц	-9.08137
▁Парыж	-9.08166
▁перамог	-9.0821
▁змен	-9.08382
▁прызначаны	-9.08771
▁добра	-9.08779
▁работ	-9.08911
▁самым	-9.08976
▁звязаны	-9.08987
▁помнік	-9.09054
▁ўрад	-9.09186
▁дзён	-9.09514
▁высока	-9.09534
▁крыніц	-9.09625
▁польскі	-9.09651
▁артыкул	-9.09655
▁азёр	-9.09688
▁праблем	-9.09885
▁даўжын	-9.09939
▁значэнне	-9.10151
▁зон	-9.10314
▁сучасны	-9.1041
▁яўля	-9.10427
▁ўніверсітэта	-9.10607
▁поў	-9.10683
▁другі	-9.10907
▁Найбольш	-9.10949
▁сама	-9.11122
▁Аляксандр	-9.11124
▁віда	-9.11129
▁150	-9.11135
▁праца	-9.11144
▁скончыў	-9.11412
▁магчыма	-9.11443
▁Л	-9.11616
▁навуковы	-9.11622
▁кожны	-9.11714
▁Саюза	-9.11877
▁адносна	-9.12404
▁ідэ	-9.12427
▁Н	-9.1248
▁мноства	-9.1248
▁182	-9.1254
▁падзе	-9.12555
▁брат	-9.12653
▁адміністрацыйна	-9.12706
▁усход	-9.13011
▁жанчын	-9.13155
▁Азі	-9.13249
▁савецкі	-9.13365
▁прэмі	-9.13495
▁значны	-9.13726
▁вярну	-9.13779
рацэ	-9.13806
▁памёр	-9.14054
▁Быў	-9.1471
▁ём	-9.14715
най	-9.14771
юю	-9.1482
+	-9.14888
▁гарадско	-9.14908
▁служб	-9.1518
▁178	-9.15247
▁Савета	-9.15363
▁абраны	-9.15469
▁for	-9.15819
▁Літоўска	-9.15851
▁дзяржава	-9.15899
гле	-9.15966
▁...	-9.16075
▁паход	-9.1624
▁нарадзі	-9.16322
▁чал	-9.16328
▁Ад	-9.16361
▁дзяку	-9.16416
▁Вільн	-9.16639
▁пісьменнік	-9.16688
▁КП	-9.16741
▁беларус	-9.17098
оль	-9.17199
▁выбар	-9.1733
▁рэвалюцы	-9.17405
▁Там	-9.17556
▁галоўна	-9.1757
▁паўночным	-9.17641
▁заснаваны	-9.17801
▁кожна	-9.17825
▁астрав	-9.18048
▁езд	-9.18092
▁школа	-9.18138
▁цэнтральна	-9.18279
▁выкарыстоўваю	-9.18284
▁Друго	-9.1829
▁дзейніча	-9.18339
▁гістарычны	-9.18734
▁элемент	-9.18907
▁апошня	-9.1913
▁правы	-9.1942
▁складаю	-9.19433
▁працавал	-9.19527
▁Рым	-9.19639
mu	-9.199
▁будын	-9.19945
куль	-9.19963
▁ўніверсітэт	-9.19979
▁аўтар	-9.20013
▁актыўна	-9.20058
▁узроўн	-9.20096
▁1990	-9.20492
▁спадчын	-9.2065
▁паўднёвым	-9.21298
▁дзеяння	-9.21403
▁вакол	-9.21437
▁мог	-9.2155
▁шлюб	-9.21718
▁існавал	-9.21778
▁саб	-9.21876
▁эпох	-9.21941
▁народ	-9.22206
▁Пазней	-9.22231
▁праходзі	-9.22531
▁наш	-9.22716
▁Адзін	-9.22734
▁Цэнтральна	-9.23042
▁французска	-9.2308
▁Аўтар	-9.23161
▁касцёл	-9.23277
▁становішча	-9.23287
▁старажытны	-9.2335
▁людз	-9.23371
▁грамадска	-9.23421
▁музык	-9.23447
▁Свято	-9.23468
▁чатыр	-9.23509
▁Вялікабрытані	-9.23529
▁выбара	-9.23943
▁гарадскі	-9.24109
▁думк	-9.24272
▁гістарычна	-9.24417
▁комплекс	-9.24494
▁2002	-9.2458
▁Савецка	-9.24588
▁твора	-9.246
▁сялян	-9.24784
▁група	-9.25026
▁Асноўны	-9.25061
▁31	-9.25109
▁Усходня	-9.25253
▁поўна	-9.25394
д	-9.25527
▁цяперашні	-9.25546
тады	-9.25614
▁песн	-9.25622
▁Такім	-9.25627
▁паходжанн	-9.25633
▁востра	-9.25844
▁Некаторы	-9.25926
▁дапамога	-9.25934
▁Гродзенска	-9.25974
▁р	-9.25974
▁Скончыў	-9.26016
▁прырод	-9.26028
▁усё	-9.26071
▁1940	-9.26333
▁рэспублік	-9.26372
▁вы	-9.26778
▁будынка	-9.26838
л	-9.26884
ен	-9.26919
▁Э	-9.27003
▁1930	-9.27081
▁будынк	-9.2709
▁прэм	-9.27214
▁пачат	-9.27241
▁Адміністрацыйны	-9.27253
▁навукова	-9.27264
▁прыняў	-9.27267
▁сямейства	-9.27286
▁1999	-9.27684
▁палац	-9.27694
▁імператара	-9.2781
▁паселішча	-9.27965
▁ЦК	-9.28022
▁Заснаван	-9.28196
▁партыя	-9.28226
▁парк	-9.28231
▁мас	-9.28442
▁чаргу	-9.28473
▁тэмпература	-9.28588
цыі	-9.28618
▁60	-9.28773
чале	-9.2894
У	-9.28955
▁правіла	-9.29101
▁земл	-9.29114
▁месяц	-9.29372
▁выйшл	-9.29374
▁жыў	-9.29386
▁практычна	-9.29544
▁Нова	-9.29588
▁адзінка	-9.29623
▁даследавання	-9.29623
▁невялікі	-9.298
▁пачынае	-9.29857
▁Нарадзі	-9.3
▁замежны	-9.30077
▁адкрыты	-9.30135
▁замка	-9.3024
▁заснавана	-9.30303
▁тако	-9.30396
з	-9.30462
▁гаспадарк	-9.30504
ок	-9.30546
▁грамадства	-9.30647
▁эканамічна	-9.30816
▁выраб	-9.30856
▁прынята	-9.30976
▁няма	-9.31055
▁існуе	-9.31242
▁ўсім	-9.31247
▁сцяг	-9.31388
▁Не	-9.31454
▁VI	-9.31532
▁паэт	-9.31568
▁пера	-9.3174
▁сельска	-9.31885
▁звязана	-9.32009
▁значы	-9.32034
▁прэзідэнт	-9.3205
▁называю	-9.32193
▁акіяна	-9.32374
▁рашэнне	-9.32583
ты	-9.3264
▁Гродн	-9.32842
▁прынцып	-9.32866
▁падзел	-9.32962
▁атрымал	-9.33122
▁клуб	-9.33148
▁Ня	-9.33301
▁156	-9.33391
▁Нацыянальна	-9.33411
▁i	-9.33665
▁нар	-9.33681
▁БН	-9.3386
▁заходня	-9.33867
▁вялікім	-9.33901
▁грамадскі	-9.3395
▁ўзроўн	-9.34111
▁планет	-9.34282
▁хто	-9.34316
▁акадэмі	-9.34355
▁Інды	-9.34408
▁Гомельска	-9.34427
р	-9.34553
▁высокі	-9.34593
▁вострава	-9.34643
▁кошт	-9.34907
▁паходзі	-9.34963
▁новага	-9.35044
▁атрад	-9.35064
▁кіраўнік	-9.35149
колькі	-9.35165
▁спіс	-9.35301
▁вад	-9.35315
▁залежнасц	-9.35326
▁структур	-9.35355
▁паўстання	-9.35673
▁пачало	-9.35708
▁рэгіёна	-9.35718
▁чыгуначна	-9.3585
▁збор	-9.3586
▁праграм	-9.35953
▁функцы	-9.36015
▁жыцц	-9.36091
▁прыватна	-9.36202
▁станцыя	-9.36255
▁гара	-9.3631
▁Сярэдня	-9.36337
▁французскі	-9.36441
▁Кіта	-9.36744
▁савецка	-9.37047
▁Брэсцка	-9.3722
▁часопіс	-9.37258
▁крэпасц	-9.37277
▁Чырвона	-9.37569
▁размяшча	-9.37586
▁правінцыя	-9.37669
▁гульн	-9.37699
лас	-9.37703
▁камун	-9.37776
▁гульня	-9.37849
ведаў	-9.37992
▁спраў	-9.38156
▁гарады	-9.383
▁знаходзіл	-9.38304
▁Англі	-9.38372
▁магчымасць	-9.38411
▁расійскі	-9.38798
▁Віленска	-9.39068
▁вуліца	-9.39227
▁генерал	-9.39364
▁стане	-9.394
▁прадстаўніко	-9.39588
▁тэатр	-9.39765
▁штат	-9.3988
▁фон	-9.39939
▁Пачына	-9.39948
▁саюз	-9.4
▁ваяводства	-9.401
▁сродк	-9.40105
▁складала	-9.40205
▁герб	-9.40318
▁народны	-9.40388
▁Больш	-9.40416
▁дапамог	-9.40836
▁ліча	-9.40927
▁велічын	-9.40928
▁Аляксандра	-9.41018
▁Ц	-9.41169
▁падтрымк	-9.41227
▁кірунк	-9.41314
▁фільм	-9.41394
▁пачала	-9.4148
▁членам	-9.41488
▁ўваходзіл	-9.41624
▁музей	-9.42066
▁адукацыі	-9.42247
даволі	-9.4226
▁Магілёўска	-9.42275
▁адносі	-9.42519
▁кіраўніко	-9.4256
▁зрабіў	-9.42705
▁міжнародны	-9.42735
разу	-9.42888
вень	-9.43086
▁фронт	-9.43203
обач	-9.43249
▁Іспані	-9.43294
▁архітэктур	-9.43453
▁адначасов	-9.43473
▁сабор	-9.4364
▁гадзін	-9.43715
▁часткова	-9.43722
▁мы	-9.43826
▁Тут	-9.43922
▁загад	-9.43954
▁англійска	-9.44102
▁проста	-9.44411
ёды	-9.44419
нага	-9.44572
▁Лондан	-9.44663
▁справа	-9.44698
доўж	-9.44855
▁асоб	-9.44983
▁ект	-9.45013
▁земля	-9.4509
▁праект	-9.45278
мест	-9.45312
рд	-9.45376
▁165	-9.45391
▁1994	-9.45433
▁губерня	-9.45484
▁плямён	-9.4555
▁адносяц	-9.45997
▁Маскоўска	-9.46108
▁філасофі	-9.46324
▁1996	-9.46344
▁шляхам	-9.46383
▁моў	-9.46414
пісаў	-9.46439
▁ўвайшл	-9.46588
▁эканомік	-9.46594
▁верхня	-9.46746
▁Новы	-9.46909
▁інстытут	-9.46951
▁дзяржаў	-9.46963
▁займа	-9.46987
▁праводзі	-9.47116
▁арганізацыя	-9.47283
▁зборнік	-9.47298
араз	-9.4734
,5	-9.4737
▁1993	-9.47373
▁Усе	-9.47484
▁500	-9.47595
▁дынасты	-9.47631
▁рыс	-9.47935
▁мяжу	-9.4813
▁само	-9.48143
▁колькас	-9.48145
▁курс	-9.48268
▁называе	-9.483
▁доўгі	-9.48323
▁крыніца	-9.4843
▁Амерык	-9.48535
▁суд	-9.48811
▁Вялік	-9.48833
▁рук	-9.48847
▁пытання	-9.48904
▁лета	-9.48923
▁штата	-9.48923
▁імператар	-9.48928
▁адно	-9.48945
▁T	-9.49057
▁рэчыва	-9.49063
▁рэформ	-9.49076
▁Княства	-9.4908
▁явіла	-9.49095
сельскагаспадарч	-9.49127
▁літоўска	-9.49142
▁пакінуў	-9.49254
▁мясцова	-9.49283
▁Тым	-9.49508
▁бераг	-9.49811
▁форма	-9.49878
▁знак	-9.49886
▁сына	-9.49966
▁Уладзімір	-9.4999
ні	-9.50019
▁поспех	-9.5002
▁адлегласц	-9.50251
▁астравы	-9.50461
▁павінны	-9.50584
▁Нью	-9.50682
▁амерыканскі	-9.50749
▁ўрада	-9.50836
▁адкрыта	-9.50837
▁Андрэ	-9.5089
▁Каля	-9.50917
▁бацька	-9.51061
▁трэці	-9.51134
▁карцін	-9.51268
▁павінна	-9.51294
▁напісаў	-9.51462
▁храм	-9.51774
▁паступова	-9.51776
▁Расія	-9.51932
цтва	-9.52059
▁300	-9.52171
узор	-9.52383
▁канал	-9.52462
▁тэмператур	-9.52523
▁мястэчка	-9.52524
▁80	-9.52567
▁Х	-9.52604
▁павет	-9.5265
асці	-9.52687
▁падобны	-9.52846
▁пабудов	-9.52907
▁смерц	-9.53056
▁глеб	-9.53343
▁пабудавана	-9.53474
▁займаў	-9.53512
▁версі	-9.53584
▁каманд	-9.53655
▁манастыр	-9.5369
▁кампанія	-9.53699
▁вострав	-9.53823
▁жонка	-9.5386
▁меж	-9.54005
▁глыбін	-9.54055
▁адрозніва	-9.54097
▁Знаходзі	-9.54241
▁дачк	-9.5425
▁населены	-9.5448
▁далін	-9.54511
▁V	-9.54553
▁170	-9.54593
▁прадпрыемства	-9.55052
▁сакратар	-9.55211
▁Полацка	-9.55405
▁люты	-9.55417
▁Варшав	-9.55509
Б	-9.55584
▁праваслаўна	-9.556
▁літоўскі	-9.55669
▁сезон	-9.55691
▁тытул	-9.55702
▁інфармацы	-9.55839
АН	-9.55938
▁Раза	-9.56011
▁Пра	-9.56054
▁стварыў	-9.56262
▁памяц	-9.56393
▁воласц	-9.56412
▁мастак	-9.56504
▁Нацыянальны	-9.56576
▁найбуйнейшы	-9.56715
▁заўс	-9.56766
“	-9.56771
▁жонк	-9.56775
▁незалежна	-9.56783
▁канчаткова	-9.56878
▁сцен	-9.57083
▁азначае	-9.57091
▁Іван	-9.57273
▁існаванн	-9.57546
▁згадвае	-9.57592
▁пераход	-9.57592
▁2,	-9.57606
лежыць	-9.57708
▁Ва	-9.57732
s	-9.57773
▁сусветн	-9.57789
трэба	-9.58016
▁перайшл	-9.58056
▁тэатра	-9.58085
▁выкарыстанне	-9.58102
▁Мары	-9.58111
▁канфлікт	-9.58476
▁Польска	-9.58698
▁раўнін	-9.58877
▁ня	-9.58979
▁Пятр	-9.59024
▁дзеля	-9.59159
▁прыняты	-9.5918
▁адпаведна	-9.59221
▁гімназі	-9.59283
тр	-9.59328
▁магл	-9.59526
▁Сонца	-9.5954
▁адрозненне	-9.59543
▁пісьменніка	-9.59557
▁35	-9.5957
▁мір	-9.59702
▁спроб	-9.60029
▁пазіцы	-9.60088
▁вышынё	-9.60188
▁Дзяржаўна	-9.6019
▁супольнасц	-9.60233
▁выкарыстанн	-9.60291
▁160	-9.60435
▁варыянт	-9.60443
▁Айчынна	-9.60494
▁станові	-9.60819
▁сход	-9.61062
▁1960	-9.61162
▁рэжым	-9.61225
▁трэця	-9.61291
▁Сярэдні	-9.61302
▁музея	-9.61343
▁сем	-9.61387
▁каралё	-9.61389
▁міжнародна	-9.61457
▁лёгка	-9.61463
▁Турцы	-9.61504
▁гісторык	-9.61541
▁названы	-9.61634
падае	-9.61671
▁рыб	-9.61905
▁армія	-9.61997
▁цэнтра	-9.62024
▁міністра	-9.62129
▁адсутнасц	-9.6218
ёў	-9.62419
▁традыцы	-9.62869
▁конкурс	-9.62935
▁Член	-9.62982
▁дарог	-9.63033
▁належа	-9.63047
▁даследчык	-9.63112
▁70	-9.63162
▁машын	-9.63378
▁літаратурна	-9.63521
▁магутнасц	-9.63526
▁еўрапейскі	-9.63776
лады	-9.63797
▁выдання	-9.63844
▁факультэт	-9.63846
б	-9.63855
▁месцам	-9.64041
▁явілі	-9.64068
весці	-9.64249
▁цяжка	-9.64292
▁гандл	-9.64325
▁эканамічны	-9.64373
▁N	-9.64379
▁камп	-9.64491
▁белы	-9.64577
▁мала	-9.64579
▁заканчэнн	-9.64631
ЕС	-9.6464
▁гаспадар	-9.64816
▁правёў	-9.64826
▁176	-9.64887
▁робі	-9.65007
▁расійска	-9.65019
▁раман	-9.65051
▁Аўстралі	-9.6506
▁фактычна	-9.6514
▁ўваходзі	-9.65284
▁часопіса	-9.65365
▁камітэта	-9.65411
год	-9.65512
▁парадк	-9.65557
▁Назва	-9.65614
▁прац	-9.65706
▁яднання	-9.65774
▁распаўсюджаны	-9.65781
▁маі	-9.65843
▁ста	-9.65873
▁выйшаў	-9.66027
▁план	-9.66106
▁павін	-9.66137
▁карыста	-9.66153
▁працава	-9.66182
▁дзейнічал	-9.66274
▁выхад	-9.66286
▁пол	-9.66315
▁пяць	-9.66659
▁тэм	-9.66771
▁наяўнасц	-9.6683
▁стан	-9.66852
▁хвароб	-9.6686
▁166	-9.66881
▁універсітэц	-9.67015
▁стылі	-9.67194
▁роўна	-9.67251
▁хуткасц	-9.67375
▁Францыя	-9.67409
▁заходні	-9.67437
нкт	-9.6752
▁Усход	-9.67662
▁рэлігійны	-9.67799
▁Грэцы	-9.68033
▁клас	-9.68046
▁размяшчае	-9.6805
▁3-	-9.68252
▁мл	-9.68425
косны	-9.68442
▁сэнс	-9.68446
цей	-9.68472
▁метад	-9.68559
эры	-9.68645
▁другім	-9.68659
▁дзеянн	-9.68697
▁камісі	-9.68713
жыць	-9.68731
▁XV	-9.68857
▁непасрэдна	-9.68968
▁застава	-9.68978
▁напрамк	-9.69086
▁Германія	-9.691
▁дрэва	-9.69116
яно	-9.69143
▁Рымска	-9.69149
Ёрк	-9.69168
▁ніжэй	-9.69286
ц	-9.69296
▁адпаведнасц	-9.69303
будзь	-9.69329
▁афіцыйны	-9.69549
▁арганізацый	-9.69638
▁звестк	-9.69707
▁вусц	-9.6971
▁лес	-9.69797
▁былы	-9.69867
▁перайшоў	-9.69901
▁вышэй	-9.70009
▁ордэна	-9.70023
▁гл	-9.70042
▁традыцыйна	-9.70061
▁невяліка	-9.70114
▁пачынаю	-9.70116
▁гарада	-9.70133
▁вымушаны	-9.70188
▁45	-9.70287
▁Афрык	-9.70289
▁вышыня	-9.70375
18	-9.70375
шчэ	-9.70398
▁перапіс	-9.70418
▁уплыва	-9.70425
▁ўдзельніча	-9.70554
▁погляд	-9.70619
▁птуш	-9.70633
▁верагодна	-9.70659
▁прынял	-9.70787
▁літар	-9.71029
▁края	-9.71161
веце	-9.71259
▁Згодн	-9.7126
▁культурны	-9.71274
▁магчымасц	-9.71362
▁газета	-9.71374
▁екта	-9.71511
▁ліпені	-9.71562
▁удзельніча	-9.71642
▁чатырох	-9.71665
▁ўз	-9.71697
▁вызначае	-9.71723
▁выклікал	-9.71796
▁стварэнне	-9.71797
▁бібліятэк	-9.71825
▁верасні	-9.71841
▁задач	-9.71847
▁ўяўляе	-9.71852
▁фізік	-9.72018
▁жанр	-9.72069
▁Сусветна	-9.72202
▁падстав	-9.72261
▁грош	-9.72262
10	-9.72319
▁берага	-9.72322
▁тысячагоддзя	-9.72548
▁ціск	-9.72572
▁Больша	-9.72662
▁цячэнн	-9.72687
▁уваходзі	-9.72773
▁Размешчан	-9.72801
▁красавіку	-9.72882
▁працуе	-9.72908
▁вывучэнн	-9.72919
▁пераклад	-9.72983
▁ўсходня	-9.73039
▁спосаб	-9.73077
▁перадач	-9.73083
▁дазваляе	-9.73332
тых	-9.73458
ння	-9.73509
▁грамадзян	-9.73566
▁жніўні	-9.73735
▁вадазбор	-9.73771
▁асаблівасц	-9.73884
▁князёў	-9.7391
▁Царкв	-9.7392
▁вучылішча	-9.73958
гульні	-9.73991
▁пэўны	-9.74158
▁атрыма	-9.74212
▁інстытута	-9.74226
▁32	-9.7428
▁збро	-9.74328
▁стары	-9.74342
▁гэту	-9.74447
▁важны	-9.74654
усім	-9.74668
▁астатні	-9.74846
▁каралеўства	-9.74874
▁паветра	-9.7492
▁Рады	-9.74926
▁горны	-9.75227
▁першапачаткова	-9.75265
▁характэрны	-9.75296
▁152	-9.75318
▁ахов	-9.75511
▁класа	-9.75533
▁серы	-9.75539
▁малады	-9.75598
▁марскі	-9.75729
▁сацыяльна	-9.75807
▁прыхільнік	-9.75817
▁дагавор	-9.75927
▁ніко	-9.75928
▁мясцовасц	-9.75977
▁XII	-9.76045
▁асобы	-9.76097
▁паэта	-9.76233
▁опер	-9.7627
▁храма	-9.76323
=	-9.76383
▁значэння	-9.76481
▁далей	-9.76515
▁тэкст	-9.76606
ля	-9.76778
▁Карл	-9.76853
▁Кольк	-9.76866
▁згодна	-9.76892
▁рост	-9.7701
▁палас	-9.77063
▁1970	-9.77104
▁пачалас	-9.77182
▁Рэспубліка	-9.77256
▁мастацка	-9.77347
▁апыну	-9.77473
▁пераваг	-9.77502
▁наступным	-9.77515
Пецярбург	-9.77542
▁прадстаўлены	-9.77639
▁дні	-9.77664
▁развіва	-9.77684
▁лічыў	-9.7782
▁1980	-9.77909
▁пасёл	-9.77917
▁158	-9.77958
▁лінія	-9.78037
▁ме	-9.78042
▁жыву	-9.78113
н	-9.78243
▁мэт	-9.7848
▁гандлёвы	-9.78488
▁памер	-9.78589
▁сустракае	-9.78597
▁1000	-9.78657
▁старшыня	-9.78701
▁меры	-9.78706
▁здольнасц	-9.7878
▁кіламетра	-9.78874
▁Русі	-9.78881
▁асабіста	-9.78956
▁Дэ	-9.78972
▁камітэт	-9.78986
▁сустракаю	-9.79039
ну	-9.79061
▁старажытн	-9.79101
▁163	-9.7932
▁этап	-9.79333
▁каталіцка	-9.79397
вай	-9.79416
▁Народна	-9.79584
▁адпавяда	-9.796
▁Гомел	-9.79714
▁плане	-9.79918
▁галав	-9.79973
▁кніга	-9.80088
▁маёнтк	-9.80193
▁Агульна	-9.80196
▁пытанн	-9.80263
▁вучы	-9.80291
▁ліст	-9.80373
▁аперацы	-9.8044
▁ды	-9.80464
▁цэлым	-9.8047
▁прывял	-9.80482
▁салдат	-9.80512
▁155	-9.80692
▁вышэйша	-9.8072
▁пытанне	-9.80863
▁Японі	-9.80943
▁паэзі	-9.80952
▁нумар	-9.80988
▁чорна	-9.81114
▁Радзівіл	-9.81123
▁сцяга	-9.8124
▁яві	-9.81245
▁Саюз	-9.81415
▁ўнутраны	-9.81425
▁шырокі	-9.81488
▁адносіна	-9.81535
▁Швецы	-9.81613
20	-9.81635
▁напісаны	-9.81639
▁арыштаваны	-9.81665
▁адмові	-9.81767
▁Юры	-9.81828
▁доўга	-9.81971
▁левы	-9.8202
▁мужчын	-9.82067
▁клімат	-9.82164
▁намеснік	-9.82185
he	-9.8223
▁званне	-9.8224
▁атрыманн	-9.82306
▁дробны	-9.82519
▁90	-9.82551
▁прывяло	-9.82558
▁чэрвені	-9.82629
▁дзяржаўн	-9.82666
▁Хо	-9.82777
▁маса	-9.82842
▁сучасн	-9.82907
ступіў	-9.82917
▁свабод	-9.83067
▁1,5	-9.83126
ваны	-9.83171
▁рэштк	-9.83172
▁ўзбярэжжа	-9.83195
▁164	-9.83221
▁наша	-9.83297
▁месяца	-9.83326
▁Час	-9.83348
▁даследаванн	-9.83408
▁гэт	-9.83477
▁сельсавет	-9.83555
▁дазволіл	-9.83748
▁сярэднім	-9.83766
▁імкну	-9.83787
▁футбаліст	-9.83824
▁Ленін	-9.83881
▁нов	-9.83956
▁прафесар	-9.83969
▁Пё	-9.83972
рэш	-9.83998
▁кароткі	-9.84007
▁касцёла	-9.8408
▁Працава	-9.84088
▁амерыканска	-9.84119
▁мадэл	-9.84156
▁харчова	-9.84161
▁Паўночны	-9.84201
▁прайшл	-9.84374
▁120	-9.84394
служыў	-9.84408
▁кан	-9.8441
жылі	-9.84465
▁моцны	-9.84465
▁адукацыю	-9.84498
▁стагоддзяў	-9.84502
▁запіс	-9.84591
▁працягласц	-9.84644
▁заняў	-9.84786
▁Ю	-9.84787
▁Івана	-9.84864
▁чэмпіянат	-9.84866
▁Першапачаткова	-9.84902
▁сацыяльны	-9.85009
ра	-9.85017
▁параўнанн	-9.85079
▁грамадзянска	-9.85092
▁самастойна	-9.85096
▁правядзенн	-9.85103
▁адказ	-9.85172
▁зроблены	-9.8523
олькі	-9.85289
▁пастаянна	-9.85323
▁польск	-9.85348
▁займаю	-9.85427
▁Акадэмі	-9.85455
▁служы	-9.85457
▁яднанне	-9.8554
кг	-9.85553
дзі	-9.85585
▁нацыянальн	-9.85601
30	-9.85622
▁мільёна	-9.85756
▁заснаваў	-9.85772
▁гук	-9.85821
▁пераеха	-9.85888
▁дасягае	-9.85957
▁1950	-9.85982
▁далейшы	-9.86122
▁баявы	-9.86128
▁сур	-9.86398
▁дакладна	-9.86457
▁загінул	-9.86499
▁календар	-9.86548
▁старшын	-9.8657
▁зрабі	-9.86663
▁сцян	-9.86725
▁энергіі	-9.8685
▁дачыненн	-9.86893
▁пражыва	-9.86907
▁жывапіс	-9.86913
▁забіты	-9.86919
▁склаў	-9.86984
▁імі	-9.87329
▁водна	-9.87377
да	-9.87533
▁Галоўны	-9.87547
▁вызваленн	-9.87656
▁двар	-9.87661
▁уся	-9.87663
▁Асноўна	-9.87746
▁дасягнул	-9.87746
▁заліва	-9.87769
▁захавала	-9.87819
▁цара	-9.87846
▁хімічны	-9.87944
▁Кар	-9.87994
▁прысвечаны	-9.88105
▁ноч	-9.88148
▁выява	-9.88173
▁званы	-9.88177
▁асобна	-9.88208
▁праваслаўны	-9.8821
▁склала	-9.88295
▁экспедыцы	-9.88299
▁ўваходз	-9.88342
▁суб	-9.88451
▁адрознівае	-9.88453
Ф	-9.88479
▁беларускім	-9.88538
▁канферэнцы	-9.88542
▁імперыя	-9.8864
▁400	-9.88675
▁агульны	-9.88761
”	-9.88816
▁захаваліся	-9.88854
арока	-9.89091
▁зямель	-9.89093
▁ўласна	-9.89094
▁абвясціў	-9.89096
▁Был	-9.89233
▁вод	-9.89304
▁сёння	-9.89347
▁валода	-9.89384
▁прадпрыемств	-9.8942
▁сярэдні	-9.89524
▁выключна	-9.89524
▁A	-9.89681
▁цар	-9.8969
▁B	-9.89696
▁Дзякую	-9.89704
▁Цэнтр	-9.8975
▁універсітэта	-9.89822
▁нас	-9.90041
▁чырвона	-9.90067
▁ўмова	-9.90097
▁атмасфер	-9.90135
▁Аўстры	-9.90195
▁сетк	-9.90203
▁Карла	-9.9023
▁буду	-9.90236
▁знойдзены	-9.90239
▁ніжня	-9.90436
▁дэпутат	-9.90491
▁175	-9.9058
вагу	-9.90679
▁зборна	-9.90717
▁існаванне	-9.90753
▁дома	-9.90872
▁драўляны	-9.90874
▁33	-9.90936
таў	-9.90975
▁дня	-9.91036
40	-9.91065
▁руск	-9.91095
▁Дзяржаўны	-9.91098
▁святы	-9.9113
▁Галоўна	-9.9119
▁174	-9.91215
▁ес	-9.91224
▁вывуча	-9.91283
▁Сярге	-9.91319
▁выяўлены	-9.91321
▁157	-9.91394
▁новым	-9.91438
▁3,	-9.91475
▁Тэрыторы	-9.915
▁верхні	-9.91581
▁чырвоны	-9.91695
▁172	-9.91739
гор	-9.91866
▁культурна	-9.92047
▁л	-9.92066
▁разнастайны	-9.92104
▁яў	-9.9214
▁прылад	-9.92147
▁162	-9.92239
▁Савет	-9.92299
▁міністр	-9.92442
▁войн	-9.92459
▁АН	-9.92483
▁паэм	-9.92576
▁саюза	-9.92755
▁гісторыя	-9.9285
п	-9.92918
▁ўлада	-9.92955
▁музычны	-9.92956
▁Ле	-9.92965
of	-9.92991
▁сумесна	-9.93007
▁кіраваў	-9.93053
▁раздзел	-9.93089
▁хрысціянства	-9.93136
GC	-9.93144
▁вышэйшы	-9.93148
▁чорны	-9.93166
▁Першым	-9.93231
▁яўрэя	-9.9324
▁Віцебск	-9.93276
▁патрэб	-9.93386
▁прапанаваў	-9.93398
▁1971	-9.93482
▁матэматык	-9.93497
▁Вядомы	-9.93515
▁еўрапейска	-9.93596
▁рымска	-9.93597
▁1984	-9.93708
▁Назв	-9.93721
▁кола	-9.93791
▁існую	-9.93884
▁насякомы	-9.93886
▁Амеры	-9.93898
▁друку	-9.93902
▁гэтак	-9.94043
▁жыве	-9.94071
▁36	-9.94118
80	-9.94236
▁бела	-9.94263
▁неабходна	-9.94268
▁Уладзіміра	-9.9434
▁бібліятэка	-9.94483
▁140	-9.94493
вёў	-9.94582
▁Канад	-9.94585
▁існава	-9.94593
▁супрацоўніцтв	-9.94631
▁умова	-9.94681
▁Гісторы	-9.94759
▁ўжыва	-9.94765
▁Існу	-9.9479
▁савета	-9.94826
УП	-9.9486
▁рабочы	-9.94886
▁транспарт	-9.94971
▁немц	-9.95037
▁шляхт	-9.95044
▁значэнн	-9.95094
▁вядзе	-9.95101
▁Паўла	-9.95113
▁бяспек	-9.95159
▁Польшча	-9.95245
▁Вуліц	-9.95383
▁значн	-9.95386
▁вежа	-9.95399
▁польскім	-9.95408
▁папулярнасц	-9.9542
ключаючы	-9.95688
▁БД	-9.9572
▁паспяхова	-9.95764
▁116	-9.95832
▁прадукт	-9.95865
▁вярнуў	-9.95895
▁яднаны	-9.95927
▁прыватн	-9.95991
▁аддзела	-9.96013
▁ніжні	-9.96072
▁мор	-9.96139
▁Сцяг	-9.96146
▁плын	-9.96185
▁паўстанне	-9.96304
▁Дняпр	-9.96429
▁выкананн	-9.96485
▁дзесяцігоддзя	-9.96528
ладу	-9.96674
▁Чорна	-9.96729
▁нахіл	-9.9677
но	-9.96792
▁флот	-9.9687
▁ўзро	-9.97161
▁камандаванне	-9.97228
▁ўзрос	-9.97233
▁рамка	-9.97283
▁акіян	-9.97305
▁Сібір	-9.97325
▁блізкі	-9.97339
▁лёс	-9.97478
▁1910	-9.97489
▁блізка	-9.97546
▁глыбіня	-9.97575
▁гор	-9.97633
▁называ	-9.97669
▁двум	-9.9767
▁калоні	-9.97671
▁Маці	-9.97874
▁дапамогу	-9.97877
▁вобраз	-9.9789
▁прасторы	-9.9795
▁вяртанн	-9.98016
▁рэлігі	-9.98087
▁супрацоўнік	-9.98181
▁сынам	-9.98197
▁радзім	-9.98252
▁назваў	-9.98267
▁належал	-9.98421
▁прычы	-9.9844
▁герба	-9.985
▁неў	-9.9853
▁Папа	-9.98573
▁праекта	-9.98767
▁замк	-9.98815
17	-9.98822
▁ападка	-9.98947
міністра	-9.99043
▁дадзена	-9.99159
▁Музе	-9.99265
▁звест	-9.99345
▁ўвес	-9.99349
▁То	-9.9938
▁ўключае	-9.9942
▁Апошні	-9.99471
12	-9.99471
▁налічвае	-9.99473
▁нізін	-9.99489
▁форму	-9.99576
І	-9.99628
▁мастацкі	-9.99734
▁чыгунк	-9.9975
▁падобна	-9.99754
▁Св	-9.99889
▁Мінскі	-9.9991
▁татар	-9.99922
▁захоўвае	-9.99967
▁лагер	-9.9998
▁Федэрацы	-9.99992
▁імён	-10.0004
▁даўжынё	-10.0025
▁акру	-10.0031
▁малы	-10.0031
▁пункта	-10.0033
▁палаца	-10.0047
o	-10.0052
лізу	-10.0053
▁ідзе	-10.0062
▁Стары	-10.007
▁право	-10.0074
▁159	-10.0084
▁ажыццяўляе	-10.0087
ню	-10.0087
▁Берлін	-10.0094
▁літаратурны	-10.0102
адну	-10.0102
▁42	-10.0108
зад	-10.0118
▁ўзнікл	-10.0119
КА	-10.0133
Г	-10.014
НК	-10.0143
▁паводзін	-10.0145
▁Афры	-10.0153
▁галас	-10.0161
▁рашэння	-10.0164
▁сястр	-10.0165
▁Неў	-10.0181
▁музе	-10.0184
▁Іншы	-10.019
▁трыма	-10.0195
▁2015	-10.0199
▁Ізраіл	-10.0201
лізна	-10.0201
▁паходжанне	-10.0213
▁абавязк	-10.0219
▁левым	-10.0219
▁сферы	-10.0229
▁асноўна	-10.023
▁слоў	-10.0231
▁корпус	-10.0235
▁лепш	-10.0235
▁распаўсюджана	-10.0241
▁кіраванне	-10.0251
▁Нарвегі	-10.0265
▁лепшы	-10.0267
▁падрыхтоўк	-10.028
▁аповесц	-10.0281
▁паўвострава	-10.0287
▁Тад	-10.0293
▁Ісланды	-10.0302
▁застал	-10.0306
▁яўрэйска	-10.0307
▁характэрна	-10.0308
▁VII	-10.0318
▁ваенн	-10.0324
▁пісьмовы	-10.0328
▁наступна	-10.0329
▁Радзівіла	-10.0334
▁ўдал	-10.0348
▁Вучы	-10.035
▁любо	-10.0364
▁Звычайна	-10.0384
▁Многі	-10.0385
АТ	-10.0386
▁тон	-10.039
▁Самы	-10.039
▁хімічна	-10.0393
▁зорна	-10.0396
▁фільма	-10.04
▁нараджэння	-10.0403
▁газ	-10.0407
▁вырашыў	-10.0417
▁палон	-10.0421
▁накіраваны	-10.0421
▁Міністэрства	-10.0422
▁Шмат	-10.0423
▁дзіця	-10.0429
▁кафедр	-10.0441
▁лідар	-10.0454
▁напад	-10.0464
▁запас	-10.0464
▁аўтара	-10.0465
▁выпадка	-10.0472
▁рэдка	-10.0478
▁дзвю	-10.0479
▁каштоўнасц	-10.0485
▁актыўны	-10.0486
праўлення	-10.0487
нка	-10.0502
▁75	-10.0511
▁грэчаска	-10.0522
▁0	-10.0523
▁звычайны	-10.0524
▁дагавора	-10.0527
▁сімвал	-10.053
▁ранні	-10.0534
мем	-10.0537
▁савет	-10.0546
▁семінары	-10.0552
▁працоўны	-10.0554
▁рэльеф	-10.0556
▁будов	-10.0557
▁выходзі	-10.0558
▁Латві	-10.0558
▁свята	-10.0561
▁Алімпійскі	-10.0563
▁сут	-10.0564
▁баз	-10.0568
▁каманда	-10.0574
▁клуба	-10.0579
▁ўзвышша	-10.0581
▁ідэя	-10.0583
▁англійскі	-10.0589
▁рэзка	-10.0591
▁акупацы	-10.0598
▁Венгры	-10.0615
▁складалі	-10.0616
▁дакумент	-10.0618
▁168	-10.0624
90	-10.063
▁дваро	-10.063
▁Каралеўства	-10.0632
▁рымскі	-10.0632
▁хвілін	-10.0633
▁кра	-10.0639
i	-10.0647
▁прыб	-10.0647
▁будучы	-10.0653
▁стварыць	-10.0654
▁Руска	-10.0657
▁пабудава	-10.0668
▁сялянска	-10.067
▁ўласны	-10.0682
▁праходзіл	-10.0698
▁дакумента	-10.0711
▁брата	-10.0711
▁роўны	-10.0715
мову	-10.0718
▁навучанн	-10.0718
▁дво	-10.0719
▁калгас	-10.0723
▁de	-10.0731
скі	-10.0731
▁выніка	-10.0738
▁метрапалітэн	-10.0739
▁сутнасц	-10.0742
▁расліннасц	-10.0746
▁звыш	-10.0749
▁Люксембург	-10.075
▁прамысловы	-10.0759
зноў	-10.0764
▁выкарыстоўвалі	-10.0765
▁600	-10.0768
дзе	-10.0773
▁выключэнне	-10.0774
▁крытык	-10.0778
▁ажані	-10.0783
▁Армі	-10.0793
▁прадукцы	-10.0798
▁Вядома	-10.0802
▁Ш	-10.0812
▁сітуацы	-10.0819
▁паслуг	-10.0824
летк	-10.0824
▁скончыла	-10.0827
▁Павел	-10.0845
▁мастака	-10.0847
▁Каб	-10.0847
▁працяка	-10.0847
▁зорк	-10.0856
▁прыродны	-10.0857
▁глыбока	-10.0871
▁выдаў	-10.0872
шча	-10.0873
▁яўлял	-10.0874
▁прадмет	-10.0876
▁змяшчае	-10.0877
▁сабора	-10.0878
▁Сама	-10.0889
▁арганізаваны	-10.0892
▁золата	-10.0894
▁уні	-10.09
▁пахаваны	-10.0901
▁X	-10.0906
▁паўнамоцтв	-10.091
▁Сам	-10.0919
▁34	-10.0922
▁духоўна	-10.0922
▁Бела	-10.0923
▁радзе	-10.0936
▁высокім	-10.0939
▁знешня	-10.0941
▁сведчы	-10.0941
▁дамоў	-10.0942
▁стыл	-10.0943
▁мястэчк	-10.0946
▁цячэ	-10.0947
▁Дзвін	-10.0953
▁падзяляе	-10.096
▁адкрыццё	-10.096
▁стварыл	-10.0968
▁прапанов	-10.097
▁шэсць	-10.0975
▁4-	-10.0981
▁Дом	-10.0981
▁Літве	-10.0982
▁тэорыя	-10.0991
▁Смаленска	-10.0991
▁басейна	-10.0995
▁турм	-10.0998
▁атрымлівае	-10.0999
▁царства	-10.1
▁ўзор	-10.1003
▁паляк	-10.1009
▁173	-10.1019
▁напісана	-10.1027
▁багаты	-10.1028
▁поле	-10.103
▁выданне	-10.1041
▁порт	-10.1041
▁сад	-10.1041
▁адзіны	-10.1053
▁неабходнасц	-10.1056
▁брытанскі	-10.1057
▁вядомым	-10.1058
▁аддзяленне	-10.1059
▁устаноў	-10.106
▁захаванн	-10.1062
▁Толь	-10.1083
▁1990-	-10.1084
▁4,	-10.1094
▁ставі	-10.1095
▁канала	-10.11
▁моладз	-10.1106
▁песен	-10.1109
▁дзяржаўным	-10.1112
▁складаны	-10.1113
▁1930-	-10.1125
▁плат	-10.1129
▁Купал	-10.1134
словы	-10.1137
▁Марыя	-10.1144
▁лацінска	-10.1146
▁адкрыў	-10.115
▁рэсурс	-10.1151
▁Аляксе	-10.1156
маглі	-10.1157
▁дывізі	-10.1164
▁летапіс	-10.1187
▁Іх	-10.1192
ш	-10.1192
▁37	-10.1192
▁веры	-10.1203
кай	-10.1204
▁153	-10.1208
▁адзіным	-10.1214
віч	-10.1241
часова	-10.1241
▁развіты	-10.1243
ф	-10.1248
▁працягвае	-10.1249
▁дэпутата	-10.1258
▁цыкл	-10.1265
▁Паўднёвы	-10.1267
▁кні	-10.1272
▁д	-10.1276
▁Палесс	-10.1284
▁праведзены	-10.1288
▁пераважа	-10.1294
▁вага	-10.1294
▁гурт	-10.1297
▁мінулы	-10.1307
▁старо	-10.1312
▁Еўрапейска	-10.1312
▁нашы	-10.1313
▁Аўгуста	-10.1319
▁38	-10.1327
▁даро	-10.1327
▁138	-10.1327
▁парламента	-10.1337
▁Лічы	-10.1342
▁каменны	-10.1347
▁прадстаўлена	-10.1352
▁зносін	-10.1352
▁хутчэй	-10.1353
60	-10.1356
▁крыла	-10.1361
▁архітэктар	-10.137
▁масава	-10.1374
▁Канстытуцы	-10.1378
заходня	-10.1378
▁Міхаіл	-10.1383
▁археалагічны	-10.1383
▁дос	-10.1383
▁выступі	-10.1384
▁маёнт	-10.1386
▁фонд	-10.139
▁Лі	-10.139
▁ініцыятыв	-10.1391
▁крызіс	-10.1397
▁будаўнічы	-10.1408
анец	-10.1408
▁Скарын	-10.142
▁дол	-10.1425
▁Прэзідэнта	-10.1426
▁дапамо	-10.1435
▁суда	-10.1435
▁восен	-10.1437
▁камен	-10.1438
▁Го	-10.1439
▁Схіл	-10.1444
▁Ма	-10.1444
▁граф	-10.1447
▁кры	-10.145
▁Прусі	-10.1452
▁дух	-10.1453
▁горы	-10.1457
▁асяроддзя	-10.146
▁Крым	-10.1462
▁італьянскі	-10.1462
19	-10.1464
▁рання	-10.1464
▁пяці	-10.1468
▁музычна	-10.1476
▁называлі	-10.1482
▁абрад	-10.149
▁альбом	-10.1492
▁Нобелеўска	-10.1502
▁разы	-10.1503
ходзе	-10.1509
▁и	-10.1513
▁прыводзі	-10.1514
▁выса	-10.1515
▁Славакі	-10.1523
▁сілу	-10.1523
▁ролі	-10.1531
▁154	-10.1536
стаў	-10.1536
▁1980-	-10.1537
▁падзелены	-10.1538
▁пэўна	-10.1543
▁абшчын	-10.1562
гэту	-10.1576
▁помніка	-10.1577
▁генерала	-10.158
міністр	-10.1581
▁дэпартамент	-10.1587
▁забеспячэнн	-10.1587
ста	-10.1593
▁навуков	-10.1594
▁версія	-10.1595
▁жылы	-10.1599
▁папулярны	-10.1599
▁прозвішча	-10.16
▁ўсю	-10.1604
▁спорт	-10.1607
▁стварае	-10.1617
▁Ч	-10.1619
▁мост	-10.1626
▁зор	-10.1639
▁55	-10.1649
▁прыйшл	-10.1649
▁фізічна	-10.1652
ру	-10.1661
▁братам	-10.1661
▁палітычн	-10.1662
▁149	-10.167
▁роля	-10.168
▁заснавальнік	-10.1681
▁працягвала	-10.1683
▁Жыгімонта	-10.169
▁кропка	-10.1691
▁Сталіца	-10.1697
▁каралеўска	-10.1699
▁нізка	-10.17
СР	-10.17
▁названа	-10.1703
▁кампазітар	-10.1704
▁агульным	-10.171
▁паб	-10.1711
▁дачка	-10.1712
▁бітва	-10.1714
▁асноўнай	-10.1715
▁свабодна	-10.1733
▁велічыня	-10.1744
▁неаднаразов	-10.1744
▁цяжкі	-10.1746
▁працягваў	-10.1758
▁перавыша	-10.1761
▁могілка	-10.177
▁Міжнародна	-10.1774
▁1900	-10.1778
▁вучоны	-10.1781
▁нізкі	-10.1781
▁Старшын	-10.1791
▁песня	-10.1798
▁кантроль	-10.1801
▁абвешчана	-10.1804
пад	-10.1807
▁старшынё	-10.1808
▁канструкцы	-10.1808
▁выпада	-10.1812
▁паступі	-10.1813
▁Джон	-10.1818
▁дзеянне	-10.1818
▁адкрыцця	-10.1822
▁залежыць	-10.1829
▁маёмасц	-10.1839
14	-10.1841
▁аддзел	-10.1845
▁здольны	-10.1845
▁парод	-10.1859
▁абодву	-10.1862
▁склада	-10.1866
▁абласц	-10.1875
▁спецыяльна	-10.1882
▁рэлігійна	-10.1882
▁Бабруйск	-10.1895
▁традыцыйны	-10.1906
▁ЮН	-10.191
▁Полацк	-10.1914
▁займала	-10.1926
▁сяброў	-10.1934
▁парламент	-10.1949
▁долара	-10.195
▁рэдактар	-10.195
ды	-10.1952
▁кіраўніка	-10.1954
огул	-10.1958
▁ўтвараюц	-10.1966
▁дастаткова	-10.1969
▁нафт	-10.197
▁знакаміты	-10.1973
▁мяне	-10.1982
▁брытанска	-10.2
▁палітыка	-10.2
▁Вярхоўна	-10.2
▁Вялікабрытанія	-10.2
лікаў	-10.2001
▁гледжанн	-10.2006
▁аўтамабіля	-10.2015
▁дамен	-10.2018
▁нашчадк	-10.202
▁Амундсен	-10.203
▁спецыяльны	-10.2031
▁Вітаўта	-10.2036
▁падарожжа	-10.2037
▁гары	-10.2037
▁маршрут	-10.2037
▁каротка	-10.2038
n	-10.2042
▁знаходжанн	-10.2054
▁часціц	-10.2055
ЭС	-10.2066
▁прыём	-10.207
t	-10.207
▁Таварыства	-10.2086
▁злучае	-10.2087
▁схіл	-10.2102
▁турнір	-10.2103
роч	-10.2104
▁нарадзіла	-10.2106
▁спрыя	-10.2107
▁захапіл	-10.2107
▁сойм	-10.212
▁рэакцы	-10.2128
▁апублікаваны	-10.2132
ную	-10.2133
▁яўленне	-10.2135
▁правым	-10.2146
▁Цяпер	-10.2151
▁Сталін	-10.2152
янскім	-10.2171
▁лісце	-10.2171
▁куды	-10.2176
▁шчыльнасц	-10.2178
▁рэдакцы	-10.2178
▁код	-10.2183
▁манет	-10.2186
▁ўзрост	-10.2189
▁біскуп	-10.2192
▁загінуў	-10.2201
▁43	-10.2205
▁складзены	-10.2217
▁Асманска	-10.222
▁Народны	-10.2221
▁Ім	-10.2221
▁падзелена	-10.2228
▁газе	-10.2231
▁аўтамабільна	-10.2238
▁налічвала	-10.2243
▁пажар	-10.2252
▁цягнік	-10.2263
▁карыс	-10.2264
I	-10.227
▁распад	-10.2273
▁Каўказ	-10.2275
▁мірны	-10.2278
▁органа	-10.2278
алогіі	-10.2279
▁партрэт	-10.2283
▁стая	-10.2288
▁урада	-10.2294
▁спрыял	-10.2295
▁студэнтаў	-10.2296
▁жаноча	-10.2298
▁чыгун	-10.2301
▁пошук	-10.2301
▁прыклад	-10.2304
▁Швейцары	-10.2304
▁Егіпта	-10.2307
▁прыватны	-10.2308
▁каталіцкі	-10.2311
▁сетка	-10.2312
нёс	-10.2313
y	-10.2314
▁паказвае	-10.2314
▁возер	-10.2316
▁дзіцячы	-10.2317
▁адсутніча	-10.2323
▁злучаны	-10.2325
▁1920-	-10.2331
▁ордэнам	-10.2341
ная	-10.2347
▁Божа	-10.235
▁Бразіліі	-10.2351
▁выкарыстоўвала	-10.2358
▁Бога	-10.236
▁старэйшы	-10.237
шар	-10.2371
▁перададзены	-10.2375
▁рухавік	-10.2376
▁знайсц	-10.2377
▁прыйшоў	-10.2383
▁газу	-10.2386
▁забойства	-10.2395
▁лічыла	-10.241
▁Сын	-10.2412
▁дату	-10.2412
▁вылуча	-10.2423
▁выток	-10.2425
▁рады	-10.2429
▁мастако	-10.243
▁Сан	-10.2434
▁лад	-10.2436
▁выклада	-10.244
▁Наша	-10.2454
▁О	-10.246
▁65	-10.2472
„	-10.2475
▁Вікіпеды	-10.2475
аліў	-10.2486
▁Дж	-10.2496
▁мадэль	-10.2498
▁дрэў	-10.25
▁Куб	-10.2505
▁старажытнасц	-10.2505
▁ўзніка	-10.2511
▁пасёлка	-10.2519
▁Іерусалім	-10.2526
▁Займае	-10.2526
▁Мае	-10.2526
▁хрысціянска	-10.2528
▁варта	-10.2532
▁рэчыв	-10.2543
▁Асабліва	-10.2549
▁эміграцы	-10.2551
▁гаспадарка	-10.2557
▁схіла	-10.2558
▁Фінлянды	-10.2565
▁Цэнтральны	-10.2568
▁аж	-10.2571
▁167	-10.2574
▁палітычным	-10.2577
▁зборн	-10.2578
▁сябрам	-10.2578
▁век	-10.2583
▁Інстытута	-10.2604
▁тэхнік	-10.2608
▁Рыма	-10.2609
▁спрабава	-10.2616
цаў	-10.2623
▁Заходні	-10.2627
▁прыход	-10.2629
▁выдатны	-10.2631
▁урад	-10.2635
▁намеснікам	-10.2638
▁гісторыка	-10.2638
▁143	-10.2643
▁памеры	-10.2644
ьмі	-10.2648
▁стандарт	-10.2649
▁арганізм	-10.2661
▁царкоўна	-10.2664
▁Такі	-10.2665
▁катэгоры	-10.2666
▁акруга	-10.2666
▁акцёр	-10.2669
▁ССР	-10.2671
▁уз	-10.2676
▁дазвол	-10.2678
▁здолеў	-10.2679
▁культура	-10.268
▁тлумачы	-10.2685
▁просты	-10.2688
▁фігур	-10.2688
▁выдадзены	-10.2695
▁Другі	-10.2702
▁корпуса	-10.2713
▁Перад	-10.2726
▁пастанов	-10.2726
▁Украіна	-10.2729
▁бальніц	-10.2731
▁Грыгар	-10.2731
▁істотна	-10.2737
▁увайш	-10.2738
▁зрабіла	-10.2741
▁прысутніча	-10.2741
▁ўладам	-10.2742
▁арганізава	-10.2756
▁нацыянальным	-10.2766
▁ўдзельнік	-10.2774
▁Пецярбург	-10.2779
▁ера	-10.2779
амёр	-10.2781
▁элемента	-10.2795
▁Га	-10.2796
▁паняцце	-10.2796
▁займалі	-10.2796
70	-10.2796
▁пакінул	-10.2797
▁апошнім	-10.2801
▁прамыслова	-10.2802
▁спадарожнік	-10.2803
▁Маскоўскі	-10.2807
піс	-10.2815
▁здабыч	-10.282
▁здароў	-10.2824
▁ахвяр	-10.2827
▁Прэзідэнт	-10.2828
▁цел	-10.2833
▁0,5	-10.2836
▁захоплены	-10.2838
▁падпарадкаванн	-10.2841
▁казак	-10.2847
▁фестывал	-10.285
▁Друг	-10.2862
▁святла	-10.2862
▁ба	-10.2863
ўсходня	-10.2866
▁250	-10.2868
▁залаты	-10.2868
▁драўляна	-10.287
▁цэнтральны	-10.287
▁лёд	-10.2888
▁Бераг	-10.2888
▁ўзбярэжж	-10.289
92	-10.2892
▁сапраўдна	-10.2894
▁натуральна	-10.2904
▁ўсходні	-10.2906
▁канцэпцы	-10.2907
▁вадасховішча	-10.291
▁сустрэч	-10.292
▁занята	-10.2933
К	-10.2946
▁бацькам	-10.2948
▁Нёмана	-10.2954
▁зямно	-10.2954
▁Кіеўска	-10.2957
▁багата	-10.296
▁двара	-10.2963
▁зрабілі	-10.2969
▁закона	-10.2972
▁рукапіс	-10.2973
▁48	-10.298
▁маскоўскі	-10.2982
▁вывучэнне	-10.2986
▁адміністрацы	-10.2986
ом	-10.2993
▁Чырвоны	-10.3004
▁хат	-10.3004
▁адзіна	-10.3005
▁захаваў	-10.3008
▁Чырвон	-10.3017
‰	-10.302
▁расход	-10.3021
▁героя	-10.3027
▁Кліма	-10.3033
▁цікавасц	-10.3035
быў	-10.3037
▁сельскі	-10.3045
▁каналізавана	-10.3047
▁мяса	-10.3048
▁Бачн	-10.3049
▁ўладанн	-10.3058
▁Станіслава	-10.306
▁памерла	-10.3066
▁апублікава	-10.3069
▁абвясціл	-10.3072
▁Удзельніча	-10.3074
▁Што	-10.3074
▁радыё	-10.3076
▁атрыманы	-10.3079
▁ўчастк	-10.3088
▁сонца	-10.309
▁палос	-10.3095
▁неба	-10.3102
▁пашыраны	-10.3103
▁Найбольша	-10.3103
▁ўплыв	-10.3103
▁легенд	-10.3107
▁ўнутрана	-10.3111
▁стану	-10.3112
▁звана	-10.3115
▁Менск	-10.3117
▁Бацька	-10.3118
йшоў	-10.3128
▁злучэння	-10.3136
13	-10.3139
▁свято	-10.3146
▁прымаў	-10.3155
▁важным	-10.3159
▁Антоні	-10.3167
▁арганізма	-10.3172
▁праходзя	-10.3174
▁рэспубліка	-10.3175
▁норм	-10.3177
▁клетк	-10.3188
▁атрада	-10.3189
верх	-10.3191
▁сіла	-10.3195
са	-10.3197
▁рынк	-10.321
▁валодае	-10.3214
▁абмен	-10.3215
▁сучасным	-10.322
▁5-	-10.3227
эт	-10.3239
▁ўстанов	-10.3239
▁спалі	-10.324
▁явіў	-10.324
▁вусце	-10.3242
▁ап	-10.3242
▁іспанска	-10.3244
▁славянскі	-10.3246
▁вучоб	-10.3264
▁Сярэднегадав	-10.3265
▁Парыжа	-10.3267
▁Усходні	-10.3268
▁рамана	-10.327
▁кампазіцы	-10.328
▁друга	-10.3282
▁вёў	-10.3283
▁Мяж	-10.3291
▁розным	-10.3297
▁маёнтка	-10.3297
▁лаўрэат	-10.3305
▁чалавеча	-10.3307
▁аднаўленн	-10.3311
вежы	-10.3313
▁хімі	-10.3315
▁Гомель	-10.3315
П	-10.3315
▁Рымскі	-10.3316
▁характарызуе	-10.3319
▁уяўляе	-10.3326
▁суседні	-10.3328
міру	-10.3344
▁натуральны	-10.3346
▁аўтаномі	-10.3346
▁зроблена	-10.3346
▁недахоп	-10.3346
▁памяшканн	-10.3348
▁абласця	-10.3351
▁a	-10.3364
▁800	-10.3364
▁аэрапорт	-10.337
▁карал	-10.3372
▁рабо	-10.3372
▁фальклор	-10.3372
▁Верхня	-10.3374
▁39	-10.3374
▁двор	-10.3376
▁сяло	-10.3376
▁жывы	-10.3381
йчы	-10.3382
▁трапіл	-10.3387
раз	-10.3389
▁Слуцк	-10.3399
▁партызан	-10.3399
▁іслам	-10.3401
▁Сёння	-10.3402
▁чыгуначны	-10.3403
▁сцэн	-10.3408
▁зорка	-10.3408
▁прымае	-10.3411
▁крыві	-10.3414
юль	-10.3424
▁будучын	-10.3428
сце	-10.3429
▁праведзена	-10.3431
▁голас	-10.3432
▁калекцы	-10.3433
▁буйным	-10.3438
▁марско	-10.3439
▁заснавальніка	-10.344
▁удзельнік	-10.3448
▁невядома	-10.3458
▁катлавін	-10.3466
▁начальніка	-10.3466
▁навука	-10.347
▁вучыў	-10.3473
▁падпісаў	-10.3474
▁імператарам	-10.348
▁Е	-10.3489
▁факт	-10.3495
▁правінцый	-10.3499
▁маладо	-10.3505
▁дырэктар	-10.3512
▁увайшл	-10.3513
▁просьб	-10.3513
▁меркаванне	-10.3515
▁Партугалі	-10.3518
▁абодва	-10.3523
▁зона	-10.3529
▁піса	-10.3533
▁птушк	-10.3536
▁згод	-10.3536
▁зварот	-10.3537
▁44	-10.3546
іно	-10.3547
▁рэдактара	-10.355
▁адзначае	-10.3551
▁вызначэнн	-10.356
▁ектам	-10.3564
▁эксплуатацы	-10.3569
▁По	-10.3571
▁метро	-10.3571
▁слаба	-10.3572
▁інтарэс	-10.3575
▁Ніжня	-10.3577
▁сакратаро	-10.3577
▁крыж	-10.3577
▁Нансен	-10.3582
▁нямецкім	-10.3583
▁масавы	-10.3586
▁пояс	-10.3592
▁аўтарам	-10.3595
▁край	-10.3595
▁лясны	-10.3599
▁пакалення	-10.3602
▁выразна	-10.3602
▁астрава	-10.3603
▁падання	-10.3605
▁партый	-10.3608
А	-10.3608
▁адстаўк	-10.3614
▁класічна	-10.3614
▁Мы	-10.3618
▁Картэс	-10.3626
▁настаўнікам	-10.3626
падзення	-10.3626
▁асвет	-10.3627
▁лічылі	-10.3633
▁Кніг	-10.3636
▁найбольша	-10.364
▁чын	-10.3644
▁любы	-10.3646
▁нічо	-10.3654
▁Рака	-10.3654
вых	-10.3655
▁зацверджаны	-10.3657
▁стара	-10.3658
▁выконва	-10.368
▁47	-10.368
▁Дзмітры	-10.3683
nd	-10.3683
▁падыход	-10.3688
▁заявіў	-10.3701
▁пач	-10.3706
▁ўтварае	-10.3711
▁выкананы	-10.3712
▁Сербі	-10.3722
УС	-10.3722
▁Чэхі	-10.3723
▁Нясвіж	-10.3725
▁ордэн	-10.3726
▁Напалеона	-10.3729
▁46	-10.3737
▁продаж	-10.374
▁пастаўлены	-10.3741
▁міфалогі	-10.3744
▁Чы	-10.3745
▁пакіну	-10.3751
▁Ісуса	-10.3752
СФ	-10.3757
▁верша	-10.3763
▁вызвалены	-10.3774
▁ўласцівасц	-10.3775
▁мільён	-10.378
▁цягам	-10.3783
▁130	-10.3784
98	-10.3788
▁галоўн	-10.3792
▁бачы	-10.3794
▁збудавання	-10.3797
▁архіпелаг	-10.38
▁правіл	-10.3802
▁веж	-10.3806
▁Уся	-10.3807
▁далучы	-10.3808
▁ўжывае	-10.3809
▁змест	-10.3826
▁адрозненн	-10.3829
▁захворвання	-10.3833
▁прамо	-10.3843
▁сімвалам	-10.3857
▁будаўніцтв	-10.3871
▁Рус	-10.3874
чу	-10.3883
▁Чэмпіён	-10.3885
▁прайшоў	-10.3893
▁далейша	-10.3896
▁нейкі	-10.3899
▁вул	-10.39
▁вымярэння	-10.3905
▁захоп	-10.3907
▁Тэрмін	-10.3914
СС	-10.3919
▁асоба	-10.3921
▁Асноўным	-10.3922
▁56	-10.3928
▁мясцовым	-10.3929
▁Брэст	-10.3944
▁дзец	-10.3945
▁кляштар	-10.396
▁вызначаны	-10.3968
▁увес	-10.3968
▁галіна	-10.3976
▁хаце	-10.3978
▁дадатковы	-10.3979
▁фактар	-10.3981
▁апынул	-10.3983
▁Ірланды	-10.3988
▁Балгары	-10.3989
стыль	-10.3992
▁вос	-10.3995
▁уласна	-10.3996
▁жалеза	-10.4002
▁надзвычай	-10.4005
▁прызнаны	-10.4006
▁1960-	-10.4011
▁Адным	-10.4014
▁скульптур	-10.402
тэрытарыяльна	-10.4025
▁Пахаван	-10.4035
▁125	-10.4037
▁часова	-10.4042
▁рада	-10.4051
▁еж	-10.4052
ро	-10.4054
▁выконвае	-10.4058
▁буйно	-10.406
▁дысертацы	-10.4061
▁росквіт	-10.4061
▁вывучае	-10.4063
▁праграма	-10.4066
▁забяспечвае	-10.4069
▁вада	-10.4075
▁знайшл	-10.4078
▁св	-10.4079
▁прыхільнікам	-10.408
лева	-10.4084
▁органам	-10.4088
▁дэпартамента	-10.4089
▁Кон	-10.409
▁абвешчаны	-10.409
▁Віцебску	-10.4093
▁захапіў	-10.4101
▁Рэспублі	-10.4103
▁механізм	-10.4104
▁складана	-10.4106
▁хрысціян	-10.4107
▁нагадва	-10.4114
рэдка	-10.412
▁Брытанска	-10.4122
▁штаб	-10.413
▁стагоддзе	-10.4131
▁адпаведны	-10.4131
▁распрацаваны	-10.4132
▁41	-10.414
▁пары	-10.4143
▁53	-10.4144
▁патрабуе	-10.415
▁1950-	-10.4151
▁дасягнуў	-10.4151
▁страціл	-10.4152
▁адзінк	-10.4163
▁вынікам	-10.4164
▁пераходзі	-10.4165
▁рыцар	-10.4179
▁заснаванн	-10.4181
▁заняпад	-10.4181
▁заняты	-10.4185
▁усім	-10.4189
рбі	-10.419
▁манастыра	-10.4197
▁максімальна	-10.42
▁лёгкі	-10.4201
▁цывілізацы	-10.4201
▁вяршын	-10.4201
▁склалі	-10.4202
▁выданн	-10.4205
волі	-10.4207
сё	-10.4207
▁радовішч	-10.4209
▁навукоўца	-10.4213
▁бальшавік	-10.4217
▁Палац	-10.4228
▁навучальны	-10.4232
▁узбярэжж	-10.4233
▁ўмацаванн	-10.4234
▁Удзельнік	-10.424
▁галактыка	-10.4242
▁няг	-10.4257
▁мне	-10.4258
▁Марс	-10.4262
▁выступал	-10.4262
▁горна	-10.4263
▁разбураны	-10.4271
▁магіл	-10.4275
▁Васіль	-10.4283
D	-10.4289
▁139	-10.4297
▁развіта	-10.4303
▁гармат	-10.4303
▁царкоўны	-10.4314
▁Біблі	-10.4324
▁Бельгі	-10.4325
▁арабска	-10.4331
▁фармальна	-10.4331
▁Хрыста	-10.4331
▁друкарн	-10.4334
▁Аргенцін	-10.4334
▁цэлы	-10.4335
▁італьянска	-10.4336
▁артыкула	-10.4337
ар	-10.4338
▁полі	-10.434
▁1500	-10.4343
▁вызнача	-10.4344
▁Італія	-10.4348
▁1830	-10.4355
▁піша	-10.4362
▁прыня	-10.4363
▁судна	-10.4363
▁адзінства	-10.4365
сюд	-10.4377
▁сто	-10.4379
▁кошк	-10.4385
×	-10.4392
▁ускраін	-10.4392
▁памера	-10.4393
▁важна	-10.4394
▁Бог	-10.4394
▁Рэйн	-10.44
кае	-10.4401
вага	-10.4403
▁геаграфічны	-10.4418
▁кісларод	-10.4423
▁разнастайнасц	-10.4426
▁славян	-10.4426
▁Старо	-10.4429
▁Беларуск	-10.4437
▁161	-10.4438
▁вол	-10.4449
▁рука	-10.4452
рана	-10.4453
▁сонечна	-10.4454
▁прыняцц	-10.4471
▁атрымліва	-10.4476
▁700	-10.4476
▁бога	-10.4485
явы	-10.449
▁надпіс	-10.45
▁Міжнародны	-10.4502
▁немагчыма	-10.4505
▁распрацоўк	-10.4506
▁зямля	-10.4506
▁вакзал	-10.451
зму	-10.4517
▁шырокім	-10.4522
▁боле	-10.4526
▁паказаў	-10.453
▁невялікім	-10.4535
▁агульн	-10.4535
ным	-10.4539
▁Казіміра	-10.4543
▁Ганн	-10.4545
▁Ордэна	-10.4546
▁Магілёв	-10.4546
▁палат	-10.4555
▁святар	-10.4556
▁назірання	-10.4566
▁Магчыма	-10.457
▁філосаф	-10.4575
▁праводзя	-10.4577
▁групу	-10.458
▁будава	-10.458
▁1970-	-10.4581
▁заставал	-10.4586
▁пост	-10.459
▁хатні	-10.459
▁трапіў	-10.4592
▁Тры	-10.4596
▁неабходны	-10.4597
▁этнічна	-10.4602
▁карон	-10.4603
▁Акцябрскі	-10.4604
▁праціўніка	-10.4604
▁сцвярджа	-10.4604
аўрэат	-10.4608
▁P	-10.4611
▁наступ	-10.4611
124	-10.4614
▁матчы	-10.4619
ча	-10.4621
▁Дзе	-10.4623
▁сэрца	-10.4625
▁транспартны	-10.4629
▁харчаванн	-10.4633
▁134	-10.4634
▁145	-10.4639
▁сённяшні	-10.464
▁169	-10.465
▁грамадзянскі	-10.4654
▁морам	-10.4661
▁лева	-10.4665
▁душ	-10.4668
▁перакладзе	-10.4668
▁розн	-10.4669
▁змешчаны	-10.4672
▁робя	-10.4672
▁Балтыйска	-10.4672
▁аднайменна	-10.4672
▁64	-10.4687
▁рэч	-10.4689
▁берагав	-10.4689
▁крама	-10.4692
ога	-10.4696
▁трон	-10.4696
▁папулярна	-10.4697
▁нібы	-10.4704
▁экспарт	-10.4705
▁Жамойц	-10.4705
▁перадаў	-10.4705
▁словам	-10.4717
▁мірна	-10.4721
▁падтрым	-10.4724
▁адправіў	-10.4728
▁завода	-10.4729
▁сімвалізу	-10.4735
▁кантракт	-10.4735
▁далёка	-10.4735
▁крок	-10.4739
▁забіў	-10.4739
▁кандыдата	-10.4742
▁гурта	-10.4744
▁екты	-10.4746
▁медыцын	-10.4747
▁змяніў	-10.4749
сю	-10.4749
▁Была	-10.4757
▁прызначэнн	-10.4757
▁ствара	-10.4761
▁сведча	-10.4763
▁факультэта	-10.4765
▁Частка	-10.4765
▁забалочаны	-10.4767
▁армян	-10.4767
▁54	-10.4778
▁руд	-10.4779
▁недалёк	-10.478
▁канцэрт	-10.4782
▁Рэч	-10.4784
lt	-10.4788
▁Сучасны	-10.4794
▁фарміравання	-10.4798
▁здолел	-10.4798
▁Французска	-10.4801
▁Пінск	-10.4801
▁рэдкі	-10.4804
▁будуча	-10.4805
▁эфект	-10.4808
▁крам	-10.481
▁выказаў	-10.4813
▁Мало	-10.4816
ому	-10.4817
▁шука	-10.482
▁рэальна	-10.4824
▁Югаславі	-10.483
gt	-10.4831
вец	-10.4835
▁вучня	-10.484
▁фрон	-10.4844
ваў	-10.4848
вядзення	-10.4848
▁цяперашня	-10.4851
▁&#	-10.4851
▁сапраўдны	-10.4853
▁прычына	-10.4859
▁Трэця	-10.4862
▁рэгулярна	-10.4862
▁бярэ	-10.4862
▁захоўваю	-10.487
▁утвораны	-10.4872
▁каштоўны	-10.4872
жа	-10.4874
▁страт	-10.4879
▁паказал	-10.4884
▁сілам	-10.4886
▁Старажытна	-10.4895
▁Вышын	-10.4895
▁каталога	-10.4896
▁пакрыты	-10.4896
▁хвалі	-10.4896
▁канстытуцы	-10.4899
▁рускім	-10.4906
▁езда	-10.4907
▁фінансавы	-10.4911
▁Міхаіла	-10.4916
▁сюжэт	-10.4917
▁праводзілі	-10.4919
▁вызначы	-10.492
▁палёт	-10.4922
▁Вашынгтон	-10.4927
▁чалавецтв	-10.4927
▁навучанне	-10.4927
▁пацярпел	-10.493
▁Рада	-10.4938
▁паражэнне	-10.4942
▁малодшы	-10.4942
▁інстыту	-10.4943
▁даліна	-10.4945
▁футбол	-10.4948
▁уключа	-10.495
▁рабілі	-10.4951
▁апавядання	-10.4952
▁асяроддз	-10.4954
▁поўны	-10.4959
▁вільготны	-10.4959
▁Ран	-10.496
▁выраз	-10.496
▁савецкім	-10.4964
▁гімн	-10.4965
▁проз	-10.4967
▁захава	-10.4969
▁хрысціянскі	-10.4972
▁144	-10.4982
▁віленскі	-10.4984
льга	-10.4988
ПС	-10.4996
▁грамадств	-10.5
▁Прыпяц	-10.5004
▁змяняе	-10.5005
▁Ме	-10.5006
▁прыбыў	-10.5006
▁абсалютна	-10.5007
▁значным	-10.5008
▁аблог	-10.5012
магла	-10.5014
чна	-10.5019
▁рашэнн	-10.502
▁публіцыст	-10.5022
Н	-10.5023
▁выкапн	-10.5024
ндаль	-10.5026
▁турызм	-10.503
▁Эстоні	-10.5033
▁вялі	-10.5039
▁апісвае	-10.5042
x	-10.5046
▁52	-10.5046
▁стаял	-10.5049
▁ўзаемадзеянн	-10.5057
▁замуж	-10.5057
▁Ганна	-10.5063
▁выкліка	-10.5064
▁Егіпе	-10.5064
▁графа	-10.5069
▁брыгад	-10.5086
▁ажыццяўля	-10.5086
▁буйнейшы	-10.509
▁Слов	-10.509
▁Чорны	-10.509
▁камісія	-10.5094
▁тэхнічны	-10.5096
▁платформ	-10.5101
▁занялі	-10.5101
▁ўваг	-10.5103
▁набор	-10.5105
енне	-10.5105
▁пустын	-10.5107
▁хац	-10.5108
▁вадо	-10.5111
▁добры	-10.512
▁педагог	-10.5123
▁Працягл	-10.5123
▁страціў	-10.5123
▁аказала	-10.5128
▁музыка	-10.5129
▁складаў	-10.5134
50	-10.5137
▁асуджаны	-10.514
▁5,	-10.5142
▁зняволенн	-10.5156
▁важн	-10.5156
▁абавязкова	-10.5158
▁Казімір	-10.516
▁трапічны	-10.5162
▁стады	-10.5169
▁геро	-10.5169
▁назірае	-10.5173
▁ток	-10.5174
▁Сонечна	-10.5175
▁нямецк	-10.5185
▁цэркв	-10.519
▁часц	-10.5193
▁родна	-10.5199
▁аўтаномна	-10.5201
▁рэзідэнцыя	-10.5201
▁паўстанц	-10.5202
▁дасягнення	-10.5202
▁абласно	-10.5204
▁паселішч	-10.5208
▁Нідэрланд	-10.5211
▁каралеўскі	-10.522
▁Генеральна	-10.5222
▁ХХ	-10.5223
▁Літоўскі	-10.5223
▁араб	-10.5223
▁разгляда	-10.5224
▁НА	-10.5225
▁вадаёма	-10.5228
▁лекцы	-10.5231
оф	-10.5235
▁прыходзі	-10.524
▁спыні	-10.524
▁жаночы	-10.524
▁сапраўд	-10.525
▁Свяшчэнна	-10.5255
▁сігнал	-10.5255
▁заве	-10.5257
▁вызначана	-10.526
▁фізічны	-10.5261
▁Пол	-10.5263
▁апазіцы	-10.5266
▁Віленскі	-10.5269
▁кандыдат	-10.5269
▁пасялі	-10.5272
▁ўдзельнічал	-10.5272
яком	-10.5276
▁уласны	-10.5278
▁квартал	-10.5289
▁Будын	-10.5289
11	-10.5291
▁інструмент	-10.5296
▁земляробства	-10.5296
▁малюнк	-10.5301
▁Кожны	-10.5302
▁зялёны	-10.5304
▁занятк	-10.5308
▁зброя	-10.5309
▁зімо	-10.531
▁мастацтв	-10.5311
▁выступ	-10.5312
▁Сярэднявечч	-10.5322
▁розум	-10.5322
▁M	-10.5326
▁Паўночн	-10.5329
▁чыгунка	-10.5332
▁Юпітэра	-10.5332
▁француз	-10.5336
▁Васіл	-10.5338
▁План	-10.5345
▁прыма	-10.535
▁пал	-10.5354
▁епархі	-10.5356
▁перанос	-10.5356
▁фабрыка	-10.536
▁раб	-10.5363
▁Раён	-10.5364
▁Перш	-10.537
▁змог	-10.5374
ж	-10.5375
▁французск	-10.5375
▁рэчышч	-10.5376
▁прынесл	-10.5381
▁раённа	-10.5388
▁пача	-10.5389
▁Даніі	-10.5389
▁Мала	-10.5397
▁метады	-10.54
▁Швецыя	-10.54
▁Раман	-10.5401
▁спрабавал	-10.5405
▁Вярхоўны	-10.5413
▁метал	-10.5419
▁ўтварэння	-10.5421
▁вопыт	-10.5423
▁прастол	-10.5424
▁камеды	-10.5424
▁тыдня	-10.5439
▁58	-10.544
▁галерэ	-10.5443
▁85	-10.5453
▁арышт	-10.5456
al	-10.5457
▁узначальва	-10.5458
▁дарослы	-10.5463
▁Універсітэт	-10.5464
▁медыцынскі	-10.5466
▁невядомы	-10.5467
▁магчымы	-10.5468
▁унутраны	-10.547
▁дыяметр	-10.5474
▁ішл	-10.5475
▁прывіле	-10.5477
▁усходня	-10.5478
▁стал	-10.5479
▁Кітай	-10.548
▁шасці	-10.5485
▁малекул	-10.5492
расце	-10.5495
▁Жыгімонт	-10.5502
▁Марка	-10.5508
▁балот	-10.5509
▁выявы	-10.5511
ела	-10.5511
▁ворага	-10.5517
▁меркавання	-10.5521
▁49	-10.5529
▁пашырэнн	-10.5531
▁доктар	-10.5536
▁літара	-10.5536
▁вольны	-10.5539
▁камандзір	-10.5541
▁мужчынска	-10.5551
▁напр	-10.5552
▁адлюстроўвае	-10.5553
▁сукупнасц	-10.5561
▁прыналежнасц	-10.5561
▁самі	-10.5567
▁O	-10.5572
▁паліцы	-10.5573
▁Размешчана	-10.5574
▁брам	-10.5576
▁Перу	-10.5583
ТА	-10.5586
▁Брагін	-10.5589
▁рас	-10.559
▁змага	-10.5591
▁паказчык	-10.5593
▁Моцарт	-10.5595
▁тэлебачанн	-10.5595
▁етнам	-10.5595
▁Герб	-10.5595
▁выснов	-10.5597
▁сказаў	-10.5597
▁Франс	-10.5603
▁прыйшло	-10.5603
▁57	-10.5604
Х	-10.561
▁Ноўгарад	-10.561
▁Аўгуст	-10.561
e	-10.5612
ет	-10.5612
▁аддзялення	-10.5613
▁137	-10.5619
▁дэмакраты	-10.5623
▁ўзыходжанн	-10.563
▁млын	-10.5632
▁Колас	-10.5635
▁S	-10.5635
▁змяніла	-10.564
▁пайшл	-10.5642
▁паверхня	-10.5646
▁грудз	-10.5652
▁дыялект	-10.5658
чны	-10.5664
▁Канстанцін	-10.5665
▁ўклад	-10.5665
▁рабі	-10.5665
▁пагадненне	-10.5666
▁Адраджэнн	-10.5669
▁насіл	-10.5673
▁актыўнасц	-10.5675
▁плям	-10.5681
▁клет	-10.5696
▁гадз	-10.5699
▁невыс	-10.5699
▁рэферэндум	-10.5699
▁грэчаскі	-10.57
▁Егіп	-10.5704
▁загадчык	-10.5707
▁рэлігія	-10.5709
▁Бярэзін	-10.5715
▁Савецкі	-10.5718
ту	-10.5721
▁асацыяцы	-10.5724
▁асабісты	-10.5727
▁110	-10.5739
▁абмежавана	-10.5742
▁прыкмет	-10.575
▁ўзначалі	-10.5753
▁праводзіў	-10.5757
▁паўстал	-10.5762
▁этнічны	-10.5769
▁паранены	-10.5769
▁федэральна	-10.5769
▁выяўлена	-10.5769
▁карт	-10.578
▁доказ	-10.578
▁пагроз	-10.5784
віцэ	-10.5785
▁Янк	-10.5786
▁6-	-10.5788
▁ра	-10.5793
▁працягвалі	-10.5798
▁каледж	-10.58
▁фасад	-10.58
▁спадарожніка	-10.5802
▁Станіслаў	-10.5804
▁адноўлены	-10.5804
▁прысутнасц	-10.5806
▁філасофскі	-10.5817
▁самц	-10.5817
▁63	-10.5823
▁ўнутр	-10.5825
▁доля	-10.5826
▁карабл	-10.5832
▁рэканструкцы	-10.5833
▁развівае	-10.5835
▁папярэдня	-10.5841
▁148	-10.5845
▁Аўстрыя	-10.5847
▁экспедыцыя	-10.5855
▁Вільню	-10.5857
▁распаўсюджва	-10.5862
▁апарат	-10.5868
▁публікацы	-10.5869
▁умоў	-10.5869
▁кантрол	-10.587
▁летні	-10.5871
▁Мес	-10.5871
▁самакіраванн	-10.5876
▁прэмія	-10.5877
▁губернатара	-10.5878
▁Злучаны	-10.588
▁Вікторы	-10.5887
▁праблема	-10.591
▁прыгарад	-10.591
▁начальнік	-10.5911
▁Касцюшк	-10.5911
▁выбух	-10.5911
▁кажу	-10.5911
▁узяў	-10.592
▁Кастрычніцка	-10.5922
▁акцы	-10.5924
▁законам	-10.593
▁Вільгельм	-10.5934
▁Іванавіч	-10.5936
▁Айчынн	-10.5945
▁абраз	-10.5945
▁Сатурн	-10.5946
▁намаляваны	-10.5946
▁прыгажосц	-10.5946
▁рубл	-10.5956
▁ядра	-10.5967
▁хуткім	-10.5968
▁ваенным	-10.5969
▁цяжкасц	-10.5972
▁рэпрэсі	-10.5977
▁заву	-10.5979
▁Стэфана	-10.5981
▁знайшоў	-10.5982
▁птушка	-10.5988
▁папа	-10.5995
▁жорстка	-10.5995
авіч	-10.5999
▁краі	-10.5999
▁перада	-10.6002
▁ўдар	-10.6003
▁адмыслова	-10.6005
▁прызнаў	-10.6006
▁6,	-10.601
▁Шатланды	-10.6015
▁духоўн	-10.6015
▁Еўрабачанн	-10.6018
▁апісанне	-10.6018
озера	-10.6019
▁журналіст	-10.6022
▁уваг	-10.6023
▁пражывал	-10.6025
▁кітайска	-10.6029
▁дваццац	-10.6029
▁вагон	-10.6036
▁Фрыдрых	-10.6036
▁мінска	-10.6041
▁гмін	-10.6041
▁ХІ	-10.6043
▁Вітаўт	-10.6046
ова	-10.6049
адварот	-10.605
▁праекц	-10.6055
ко	-10.6059
▁стаіц	-10.607
▁водны	-10.6071
▁Вільня	-10.6072
▁выконваў	-10.608
▁фінал	-10.6083
▁адмысловы	-10.6083
▁доступ	-10.6091
▁караблё	-10.6092
▁прысвечана	-10.6093
▁аўтамабільны	-10.6095
цкага	-10.6099
▁свядомасц	-10.6103
▁універсітэт	-10.6103
▁маленькі	-10.6103
▁заходнім	-10.6104
▁гаспадарчы	-10.6105
▁126	-10.6108
▁адпачынк	-10.6116
▁кары	-10.6118
▁Заслужан	-10.6127
▁падзея	-10.6129
95	-10.613
▁рэгістрацы	-10.6132
▁педагагічны	-10.6133
▁выклікае	-10.6139
▁фірм	-10.6142
▁антычн	-10.6148
▁сухі	-10.6151
▁памерам	-10.6154
▁сол	-10.6155
▁размяшчал	-10.6157
▁цвёрда	-10.6162
▁адноўлена	-10.6163
▁чаму	-10.6164
▁Лета	-10.6167
▁царо	-10.6173
▁характарыстык	-10.6173
▁выеха	-10.6174
▁рабоч	-10.6177
▁дарога	-10.618
▁ява	-10.618
▁масів	-10.6182
▁Вайн	-10.6189
▁ваявод	-10.6191
▁чыста	-10.6193
▁геаграфічна	-10.6199
▁твар	-10.6202
▁сабраны	-10.6203
▁пачаткова	-10.6205
▁зала	-10.6208
▁палка	-10.621
▁Беласток	-10.621
▁каралев	-10.6211
▁пап	-10.6214
▁дзвюм	-10.6214
▁паліты	-10.6219
▁кантона	-10.6227
▁леса	-10.6233
ation	-10.6237
▁далучаны	-10.6237
▁свецка	-10.6238
▁прысвоен	-10.6238
▁Уільям	-10.6252
16	-10.6259
▁НК	-10.626
▁асобным	-10.6263
▁гуля	-10.6269
▁арбіт	-10.6277
▁сітуацыя	-10.6282
▁разглядае	-10.6286
доўга	-10.6289
▁шматлікім	-10.629
▁доктара	-10.6297
▁валас	-10.6305
▁Малы	-10.6309
▁папярэдні	-10.6311
▁цесна	-10.6311
▁перыядычна	-10.6311
▁тканін	-10.6312
▁прафесійны	-10.6313
▁місі	-10.6315
▁сядзібн	-10.6325
▁сялянскі	-10.6337
▁служыл	-10.6337
▁кампазітара	-10.6337
▁баі	-10.6343
▁1890	-10.6346
▁Стакгольм	-10.6348
▁прызнача	-10.6353
рэ	-10.6357
▁чацвёрты	-10.6361
15	-10.6365
▁Смаленск	-10.6374
▁кантакт	-10.6381
▁Старажытны	-10.6385
▁адзначы	-10.6388
цкі	-10.6397
▁валодал	-10.6401
▁Мік	-10.6404
97	-10.6405
▁ніякі	-10.6405
▁яднана	-10.641
▁гарадам	-10.641
▁традыцыя	-10.6419
▁арыентацы	-10.6428
▁англ	-10.6433
вак	-10.6434
▁прызна	-10.6439
▁архітэктара	-10.6442
▁панаванн	-10.6447
▁пэўн	-10.6452
▁Гродзенскі	-10.6455
▁фрагмент	-10.646
▁скасаваны	-10.6461
▁Перамог	-10.6461
▁выбраны	-10.6462
▁Еўрапейскі	-10.6464
▁Святы	-10.6465
▁ўстаноўлен	-10.6471
▁зарад	-10.6473
▁фарміраванне	-10.6479
▁Канстытуцыя	-10.6485
нне	-10.6493
▁вылучаюц	-10.6493
▁пашырэнне	-10.6493
▁спартыўны	-10.6493
▁маскоўска	-10.6495
нак	-10.6497
▁Апошня	-10.6498
▁Часта	-10.6501
▁абапіра	-10.6501
▁адраджэнн	-10.6501
▁Вайніловіч	-10.6505
▁мінскі	-10.6506
▁знешні	-10.6511
▁рэспубліканска	-10.6513
▁Сацыялістычна	-10.6516
▁некатор	-10.6516
▁славянска	-10.6517
▁пясчаны	-10.6519
▁Орш	-10.6524
▁U	-10.6524
▁заняла	-10.6527
▁артыст	-10.6528
▁бая	-10.6529
▁здзейсніў	-10.6531
▁праводзіла	-10.6531
▁абарані	-10.6538
▁яўрэйскі	-10.6539
▁ваявода	-10.6539
▁мясцов	-10.6539
▁ход	-10.654
▁свабодны	-10.6541
пярэд	-10.6541
▁класіфікацы	-10.6544
▁расійскім	-10.6544
▁Атлантычн	-10.6552
▁дуб	-10.6555
▁Нёман	-10.6555
▁павялічвае	-10.6556
▁размяшчэнн	-10.6559
▁пазнаёміў	-10.6562
▁высок	-10.6564
скім	-10.6568
▁абараня	-10.6575
▁валоданне	-10.658
▁вер	-10.6584
▁раўніна	-10.6594
▁строга	-10.6599
▁аўтадарог	-10.6599
мір	-10.6606
▁спроба	-10.6611
▁Меркуры	-10.6612
▁жыло	-10.6612
▁прэзідэнцкі	-10.6613
▁турэцка	-10.6614
▁ахопліва	-10.6616
▁здабыча	-10.6624
▁мозг	-10.6626
КП	-10.6632
удаўніцтва	-10.6635
▁канчатковы	-10.6639
▁Ціха	-10.6639
▁французскім	-10.6643
▁война	-10.6644
бі	-10.6644
▁гарадск	-10.6647
▁варот	-10.6649
▁штучна	-10.665
▁Інстытут	-10.6654
▁заснавал	-10.6656
адні	-10.6657
▁калон	-10.6657
верс	-10.6657
▁Імперы	-10.6662
▁балота	-10.6663
▁дваранства	-10.6666
▁пароды	-10.6667
▁члена	-10.6669
U	-10.6673
▁аналіз	-10.6675
▁партызанскі	-10.6686
▁сектар	-10.6686
▁духоўны	-10.6687
▁намер	-10.6688
▁Аршанскі	-10.6689
▁Прэм	-10.6689
▁ўжыванн	-10.6694
▁бацькоў	-10.6695
▁Эдвард	-10.6697
▁фізі	-10.67
▁Нідэрланда	-10.6702
▁распрацава	-10.6703
▁хор	-10.6703
гуле	-10.6704
▁белым	-10.6705
▁ніяк	-10.6716
▁творча	-10.6719
▁агляд	-10.6727
▁выкарыстаны	-10.6729
▁пакрыта	-10.6732
▁ёзна	-10.6733
▁драм	-10.6734
▁распаўсюджванн	-10.6737
▁Мар	-10.6738
▁база	-10.6739
▁Ан	-10.6743
▁моцным	-10.6743
▁дзяцінства	-10.6762
▁выкананне	-10.6763
▁плана	-10.6765
▁Выступа	-10.6767
ана	-10.6768
▁шляхецка	-10.6768
▁наст	-10.6771
▁манах	-10.6771
▁прыкладам	-10.6771
▁банк	-10.6773
▁партызанска	-10.6775
▁Антон	-10.6777
адта	-10.6779
▁зан	-10.6783
▁115	-10.6786
▁графства	-10.6787
страты	-10.6789
росту	-10.6789
▁арганізавана	-10.679
▁рэжысёр	-10.6795
восен	-10.6798
▁пераехал	-10.6801
▁памяшкання	-10.6803
казаў	-10.6807
▁заказнік	-10.6807
▁стваральнік	-10.6809
▁блок	-10.681
▁Грузі	-10.682
▁сцвярджае	-10.6825
▁Генрых	-10.6826
▁51	-10.6833
▁Адной	-10.6843
▁Афіцыйна	-10.6844
▁пераварот	-10.6844
▁мінула	-10.6845
▁вар	-10.6847
▁паліва	-10.6851
▁вода	-10.6856
▁сум	-10.6858
▁паўплывал	-10.6859
▁майстэрн	-10.686
▁Румыні	-10.686
▁дадаткова	-10.6862
▁камандзіра	-10.6867
▁ч	-10.6871
след	-10.6872
▁Урад	-10.6873
▁юрыдычны	-10.688
▁вядучы	-10.6882
▁уласнасц	-10.6883
▁трагеды	-10.6884
▁Атрымаў	-10.6884
▁жыво	-10.6885
▁спыніла	-10.6892
▁вясн	-10.6899
▁генеральны	-10.6902
полк	-10.6916
▁Уладзісла	-10.6921
▁Фларэнцы	-10.6923
▁арганічны	-10.6923
▁Багдановіч	-10.6923
▁Іран	-10.6923
ізму	-10.6924
▁Віцебскі	-10.6925
▁каза	-10.6935
▁Дзейніча	-10.6938
▁зборніка	-10.6942
айстар	-10.6943
▁працяглы	-10.6943
▁адмовіў	-10.6944
▁Іспанія	-10.6944
▁манархі	-10.6947
▁драўляным	-10.6956
▁Сувора	-10.6962
▁літаральна	-10.6962
▁прапаганд	-10.6962
▁кажа	-10.6963
▁Генрыха	-10.6964
▁88	-10.6966
▁ўніверсітэц	-10.6969
▁Штат	-10.697
▁паступа	-10.6971
▁ядро	-10.6973
▁Джона	-10.698
▁Названа	-10.6984
▁калонія	-10.6984
▁Францыск	-10.6985
▁падатк	-10.6988
▁адбывал	-10.6989
▁руча	-10.6999
▁Свіслач	-10.7002
▁параўнальна	-10.7002
▁накіравана	-10.7004
▁загінула	-10.7013
▁пячор	-10.7014
лю	-10.7015
▁Японія	-10.7018
▁падтрымліваў	-10.7019
▁Візанты	-10.702
▁ўваход	-10.7029
▁паказваю	-10.7029
▁Віленск	-10.7032
▁Галоўным	-10.7038
НД	-10.7038
▁дырэктарам	-10.7039
▁разнавіднасц	-10.7042
▁мяркую	-10.7042
▁135	-10.7046
▁дата	-10.7055
▁Ягайла	-10.7055
▁Кіеў	-10.7058
▁полюса	-10.7058
▁рэчаіснасц	-10.7058
▁утварае	-10.7059
▁архітэктурны	-10.7064
▁самалёт	-10.7066
▁супрацоўніча	-10.7067
▁самім	-10.7072
▁7,	-10.7073
▁ўзнікненн	-10.7081
▁147	-10.7083
▁пара	-10.7083
▁напо	-10.7083
▁ўстанова	-10.7087
▁Казахстан	-10.7089
▁футбольны	-10.7096
▁падзяля	-10.7097
▁правял	-10.7097
▁становішч	-10.71
▁бульб	-10.7101
▁гандлёва	-10.7101
▁іспанскі	-10.7103
▁навуковым	-10.7106
▁захоўва	-10.7107
▁Мір	-10.7113
▁аднайменны	-10.7115
▁праграму	-10.7117
▁00	-10.7117
d	-10.7118
▁геаграфі	-10.7121
▁Палесцін	-10.7122
▁Кіраўнік	-10.7122
▁незалежны	-10.7122
ежы	-10.7128
▁чар	-10.7131
▁бялк	-10.7134
▁Карал	-10.7134
▁Дэмакратычна	-10.7135
▁прамы	-10.7137
▁адс	-10.7137
▁аналізу	-10.7138
le	-10.7138
▁перакладчык	-10.714
▁позня	-10.7144
▁між	-10.7146
▁Міністра	-10.7147
▁класіцызм	-10.7148
▁АЭС	-10.7149
the	-10.7149
▁пахавання	-10.7151
М	-10.7152
▁Сапега	-10.7158
▁непадалёк	-10.7163
▁цэнтральн	-10.7163
▁руха	-10.7163
▁электрычны	-10.7164
▁структура	-10.7164
▁эксперымент	-10.7166
▁веды	-10.7168
▁Та	-10.7168
▁найважнейшы	-10.7172
▁участка	-10.7174
▁Мексік	-10.7186
▁62	-10.7189
▁чалавечы	-10.7191
▁пяск	-10.7196
▁1870	-10.7198
▁патэнцыял	-10.72
▁Нептун	-10.7203
▁знішчаны	-10.7203
▁тагачасн	-10.7206
асцей	-10.7206
▁чырвоным	-10.7209
▁даны	-10.721
▁вярнула	-10.7211
▁кірун	-10.7212
▁расліна	-10.7212
▁еха	-10.7215
зень	-10.7215
▁афіцыйным	-10.7216
▁германскі	-10.7216
▁чэмпіяна	-10.7217
была	-10.7221
▁глыбокі	-10.7221
▁механік	-10.7222
▁Ісус	-10.7227
▁Інданезі	-10.7227
▁рэзідэнцы	-10.7228
▁тавар	-10.7228
▁буйна	-10.7235
▁Інстыту	-10.7237
▁судо	-10.7237
▁Ліг	-10.7239
▁Палат	-10.7241
▁арабскі	-10.7243
▁гістарыяграфі	-10.7243
▁найбуйнейша	-10.7243
▁далі	-10.7245
▁Сапег	-10.7248
▁Месяца	-10.7248
▁прама	-10.7249
▁дэмакратычны	-10.7261
▁b	-10.7263
▁каралева	-10.7265
▁каменна	-10.7267
▁турыста	-10.7267
▁тэрмінам	-10.7268
▁прытрымліва	-10.7273
▁носіц	-10.7275
▁асобін	-10.7291
▁павялічыла	-10.7292
▁адрас	-10.7294
▁пасёлк	-10.7294
▁Кацярын	-10.7296
▁змена	-10.7296
▁выдавецтва	-10.7296
▁кон	-10.7299
▁дазваляю	-10.7303
▁Кіев	-10.7306
▁ўведзена	-10.7308
▁японска	-10.7309
▁княств	-10.7311
ФР	-10.7316
▁магутны	-10.7316
▁сушы	-10.7319
▁сцёк	-10.7321
▁Людовік	-10.7322
▁парафі	-10.7325
▁акупант	-10.7327
▁канфедэрацы	-10.7328
G	-10.7331
▁надвор	-10.7333
▁прызнал	-10.7337
▁падпісаны	-10.7344
льнай	-10.7345
сцю	-10.735
▁вясно	-10.7351
▁ацэнк	-10.7358
▁пунктам	-10.7362
$	-10.7366
▁Аршанска	-10.7366
▁радовішча	-10.7368
▁машынабудаванн	-10.7369
▁выпуск	-10.7379
▁традыцый	-10.7388
▁папер	-10.7389
▁патрабаванн	-10.7391
▁навуча	-10.7393
▁ўсходнім	-10.7399
▁ледз	-10.7402
▁баг	-10.7405
▁сумес	-10.7413
▁паняцця	-10.7413
▁забіл	-10.7416
сі	-10.7418
▁скуры	-10.7419
рэшт	-10.742
▁кватэр	-10.7425
▁афарбоўк	-10.743
▁выявіў	-10.7432
▁старэйша	-10.7433
▁зал	-10.744
шоў	-10.7441
▁Аўстра	-10.7444
▁Геро	-10.7445
▁пасла	-10.7448
▁Віктар	-10.7448
~	-10.7449
▁знойдзена	-10.7449
▁усталяваны	-10.745
▁вяла	-10.7452
▁восем	-10.7454
▁лагера	-10.7456
▁выступіл	-10.7462
▁англійск	-10.7472
▁вырашана	-10.7472
▁турк	-10.7474
▁камуна	-10.7477
▁мусульман	-10.7477
▁шчыт	-10.7477
▁грыб	-10.7481
▁вайсковы	-10.7483
▁гімна	-10.7484
▁духавенства	-10.7491
▁кв	-10.7491
▁інтэлігенцы	-10.7491
▁Востра	-10.7491
▁раёнам	-10.7493
▁дзясятк	-10.7493
▁фасада	-10.7495
▁аграгарад	-10.7496
▁адны	-10.7503
лікі	-10.7506
▁бака	-10.7513
▁асаблівы	-10.7515
▁залів	-10.7516
▁дзелі	-10.7518
▁паўста	-10.7523
▁глін	-10.7525
вазе	-10.753
▁прывё	-10.7532
▁паток	-10.7534
▁матч	-10.7534
▁быва	-10.7535
▁Бітв	-10.7536
▁кампанент	-10.7545
▁1,2	-10.7548
▁Каралеўска	-10.7548
▁эканоміц	-10.7549
▁бра	-10.7556
▁навукоўцы	-10.7557
▁душы	-10.7559
▁велізарны	-10.7559
▁вылучае	-10.7566
▁Ла	-10.7571
▁медыцынска	-10.7573
▁каталог	-10.7573
ДР	-10.7573
▁тэхналогі	-10.7574
▁1880	-10.7574
▁Марк	-10.7577
▁Планк	-10.7577
▁паст	-10.7578
▁фр	-10.7579
▁жыла	-10.7581
▁Хойні	-10.7586
▁D	-10.7595
▁мяч	-10.7597
▁спосабам	-10.7599
▁элементам	-10.7608
каў	-10.761
▁спаборніцтва	-10.7612
▁узрос	-10.762
▁закліка	-10.7622
▁вяртае	-10.7626
▁пасло	-10.7628
▁СП	-10.7631
▁зялёна	-10.7631
▁перамов	-10.7635
▁Вільнюс	-10.7636
▁зычны	-10.7636
▁называла	-10.7641
▁падрыхтоў	-10.7648
▁сацыялістычна	-10.7655
▁паўвостра	-10.7656
▁малюн	-10.7661
▁Вынік	-10.7661
▁Людовіка	-10.7662
▁прадстаўнікам	-10.7665
▁культурным	-10.7667
▁Ган	-10.767
нова	-10.7677
▁фабрык	-10.7678
▁пражыванн	-10.7681
▁паўвострав	-10.7693
▁ваколіц	-10.7694
▁ліквідацы	-10.7695
▁студы	-10.77
▁Кракав	-10.7702
▁бачны	-10.7702
▁абарончы	-10.7703
▁праваслаў	-10.7712
▁атрымліваю	-10.7716
▁стату	-10.7722
туль	-10.7725
▁лідара	-10.7727
▁кангрэс	-10.7727
▁хан	-10.7732
▁вяду	-10.7732
оч	-10.7738
нь	-10.7739
▁67	-10.7742
▁Фрэйд	-10.7745
▁Мюнхен	-10.7745
▁Прыкладна	-10.7745
▁апрацоўк	-10.7746
▁Захад	-10.7754
▁бакавы	-10.7755
▁Два	-10.7761
▁нагод	-10.7764
▁Англія	-10.7765
▁аднаўленне	-10.7775
▁вольна	-10.7777
▁лічб	-10.7779
▁скрыжаванн	-10.778
▁сотн	-10.7781
▁мінеральны	-10.7785
▁шчыльна	-10.7785
▁эксперыментальн	-10.7788
▁полацкі	-10.7789
▁камбінат	-10.7789
▁Палеска	-10.7789
▁звярнуў	-10.7789
▁Магілёў	-10.779
▁Ірана	-10.7792
▁Свабод	-10.7796
▁палавы	-10.7797
▁гаспадара	-10.7799
▁швед	-10.7805
▁узбярэжжа	-10.7808
оўскі	-10.7812
рэдк	-10.7814
▁халодны	-10.7817
▁Адам	-10.7817
▁вадкасц	-10.782
▁Дум	-10.7826
▁уладання	-10.7828
▁Шэкспір	-10.7831
▁мяркуе	-10.7831
▁відавочна	-10.7832
▁паэтычны	-10.7832
▁Паходзі	-10.7833
▁Райт	-10.7833
эн	-10.7837
▁Новага	-10.7839
▁Героя	-10.7843
оўка	-10.7844
▁публічна	-10.7854
▁Далін	-10.7855
вой	-10.7856
▁лікам	-10.7858
▁шведска	-10.7859
▁дасяга	-10.7869
▁Кіпр	-10.7872
▁Верагодн	-10.7875
▁Краін	-10.7875
туры	-10.7875
▁вучэнне	-10.7876
▁узяты	-10.7876
▁s	-10.7876
▁Сва	-10.7877
▁Брытані	-10.7888
▁электрычна	-10.7891
▁Ніжні	-10.7891
▁аперацыя	-10.7899
▁накіраваў	-10.7899
▁звярта	-10.7902
▁уваходзіл	-10.7905
▁аднаві	-10.7909
▁рымлян	-10.7912
▁забудов	-10.7916
▁карысны	-10.7916
▁дзесяцігоддз	-10.7917
▁Каліфорні	-10.7917
▁ажыццяўленн	-10.7917
▁су	-10.7921
▁ўласнасц	-10.7921
▁Уладзіслава	-10.7921
ень	-10.7921
ват	-10.7923
абель	-10.7924
▁пар	-10.7925
▁багацце	-10.7929
▁Турцыя	-10.793
▁знішчэнн	-10.793
▁звярну	-10.7931
▁Вярхоўн	-10.7941
▁Прусія	-10.7943
▁абіра	-10.7943
▁ярка	-10.7944
▁астраном	-10.7945
▁падпарадкоўва	-10.7953
▁найбол	-10.7961
▁ўздзеянн	-10.7961
▁ўтварэнн	-10.7961
▁Сіры	-10.7962
▁герцагства	-10.7964
▁называў	-10.7969
▁рад	-10.7973
▁Антарктыд	-10.7974
▁Рэй	-10.7975
▁прафесара	-10.7976
▁прыбытк	-10.7979
▁абаронца	-10.7979
▁персанаж	-10.798
▁школьн	-10.7987
▁губернатар	-10.7988
▁паўднёв	-10.8001
▁усю	-10.8004
▁выдае	-10.8004
▁Афіцыйны	-10.8005
▁псіхалогі	-10.8005
▁Георгі	-10.8005
▁Сучасна	-10.8009
▁Утворан	-10.8019
▁склікання	-10.8019
▁ПАР	-10.802
▁Літоўск	-10.802
▁заканадаўчы	-10.8021
r	-10.8032
яўлення	-10.8033
▁прызнанне	-10.8037
▁Сабор	-10.8038
▁алфавіт	-10.8039
▁кааліцы	-10.8043
▁98	-10.8043
▁лідарам	-10.8044
▁эвалюцы	-10.8047
▁пазбег	-10.8049
▁Пашыран	-10.8049
▁Вы	-10.805
▁запісаў	-10.8053
▁выдатна	-10.8055
▁судова	-10.8056
▁правядзенне	-10.8057
▁пачатковы	-10.8058
▁каро	-10.8058
▁сябра	-10.8063
▁Закон	-10.8064
▁праўда	-10.8066
▁мене	-10.8067
▁рэ	-10.8071
▁далучэнн	-10.8079
▁статут	-10.808
▁захаванне	-10.8082
▁літаратура	-10.8082
▁крыжак	-10.8084
▁разуменн	-10.8086
▁мужа	-10.8086
▁дэпутатам	-10.8089
▁Канстанціна	-10.809
▁Філіп	-10.8093
▁Тадэвуш	-10.8093
▁узнагароджаны	-10.8093
▁спява	-10.8094
▁Наступны	-10.8094
▁Склада	-10.8094
▁дэлегацы	-10.8095
▁выкладчык	-10.8096
▁выкарыстоўваў	-10.8097
▁распрацавана	-10.8103
▁мужчынскі	-10.8115
ключала	-10.812
▁жоўты	-10.8121
▁124	-10.8123
▁мураваны	-10.8125
▁інфармацыя	-10.8125
▁сродка	-10.8129
▁паверх	-10.8133
▁136	-10.8133
▁тэхнічна	-10.814
▁істотны	-10.8141
▁адкрытым	-10.8144
▁муж	-10.8146
▁142	-10.815
▁паляванн	-10.8153
евіч	-10.8154
▁Прамо	-10.8154
▁вось	-10.8164
▁Ягайл	-10.8168
▁пасада	-10.8172
▁Максіма	-10.8172
▁прызначана	-10.8179
▁меліярацыйны	-10.8179
▁Ленінград	-10.818
▁Прадпрыемств	-10.8182
▁ўтрыманн	-10.8183
▁дасягну	-10.8186
▁прыеха	-10.8187
▁Апр	-10.8196
ло	-10.8199
▁змяня	-10.8205
▁ранейшы	-10.8206
▁абмежаваны	-10.8208
▁Вен	-10.8212
▁банка	-10.822
наты	-10.8222
▁Заходн	-10.8223
▁адзначыў	-10.8226
▁Польскі	-10.8231
▁націск	-10.8233
▁прамов	-10.8234
▁чыта	-10.8236
▁фінансава	-10.8239
▁Адама	-10.824
▁міністэрства	-10.8243
▁атама	-10.8252
▁катастроф	-10.8255
▁пагаднення	-10.8258
▁Значна	-10.8264
▁кантынента	-10.8268
▁83	-10.8268
▁Юр	-10.8269
▁сусветны	-10.8271
▁таўшчын	-10.8273
▁кВ	-10.8273
▁дзіцяча	-10.8273
▁132	-10.8275
расту	-10.8278
▁меркаванн	-10.8279
▁бел	-10.8285
▁дэмакратычна	-10.829
▁Шыр	-10.8295
▁галасаванн	-10.8295
▁прымалі	-10.8296
▁далучыў	-10.8297
▁эканамічным	-10.83
▁задача	-10.83
▁заканадаўства	-10.8308
▁друг	-10.831
▁пазбаўлены	-10.8317
▁палярны	-10.8317
▁еўра	-10.8318
▁даход	-10.8318
▁Пап	-10.8319
▁складзена	-10.832
ня	-10.8321
▁Wi	-10.8323
▁агн	-10.8324
▁Існую	-10.8324
▁паставіў	-10.8325
▁папулярным	-10.8328
▁назіра	-10.8331
▁Янка	-10.8333
▁альбома	-10.8338
▁іду	-10.8339
▁ландшафт	-10.8342
▁класічны	-10.8343
ведалі	-10.8344
▁гіпотэз	-10.8345
▁рабіў	-10.8346
▁дапамаг	-10.8351
▁Драгічынскі	-10.8354
▁супада	-10.8361
▁прэс	-10.8363
▁магнітна	-10.8363
▁Ньютан	-10.8364
▁дасягаю	-10.8366
▁лацінск	-10.8368
,8	-10.8372
▁настаўнік	-10.8374
▁імкненне	-10.8382
▁сродкам	-10.8397
ўска	-10.8405
▁усходні	-10.8406
▁інтэр	-10.8407
▁геаметры	-10.8408
▁акт	-10.8409
▁дысцыплін	-10.8416
▁герцаг	-10.8416
▁бюр	-10.8418
▁матэрыяльна	-10.8434
▁апісання	-10.8436
▁стаўленне	-10.8439
▁апавяданн	-10.8441
▁ТБ	-10.8446
▁рэчы	-10.8448
▁актрыса	-10.8449
▁аказва	-10.845
▁1840	-10.8453
▁палотн	-10.8454
▁0,2	-10.8454
▁кукуруз	-10.8454
▁стадыён	-10.8457
▁работнік	-10.8459
ер	-10.8459
▁практы	-10.846
▁выяўляе	-10.8462
▁Белы	-10.8463
▁ўзброены	-10.8464
▁распаўсюджванне	-10.8466
▁чэмпіён	-10.8474
▁Міхал	-10.8474
ранейша	-10.8476
▁кн	-10.8476
▁малюнка	-10.848
▁мерапрыемства	-10.8481
▁астатня	-10.8489
▁відам	-10.8497
▁рын	-10.8497
▁кош	-10.8499
▁талент	-10.8501
▁скараці	-10.8501
▁плоскасц	-10.8504
▁навакольна	-10.8507
▁Урал	-10.8508
▁пасяджэнн	-10.8512
▁быццам	-10.8513
▁прафесійна	-10.8514
▁вяршыня	-10.8514
▁позні	-10.8515
▁Венер	-10.8527
▁гаворы	-10.8532
▁дум	-10.8537
▁рэальнасц	-10.8537
▁Касцёл	-10.8547
▁паляпшэнн	-10.8547
▁Ап	-10.855
▁Бел	-10.8555
▁гістарычным	-10.8558
▁збіра	-10.8562
▁знакаміта	-10.8563
хто	-10.8563
сярэдзін	-10.8563
▁скорасц	-10.8564
▁прызначыў	-10.8564
▁пахаванн	-10.8564
▁корм	-10.8568
▁Украінска	-10.857
▁95	-10.8572
▁127	-10.8574
▁срод	-10.8574
▁уступіў	-10.8576
▁ўзнагарод	-10.8583
▁надае	-10.8583
▁вырабляе	-10.8584
▁пераведзен	-10.859
▁Варшаўска	-10.8593
▁Оскар	-10.8593
▁гараджан	-10.8593
▁кухн	-10.8593
▁1860	-10.8596
▁установа	-10.8597
▁ляжа	-10.8598
▁дырэктара	-10.8599
▁прадукты	-10.86
▁меркава	-10.8612
▁герцага	-10.8615
▁народн	-10.8619
▁мало	-10.8621
▁гледач	-10.8626
▁пачуцця	-10.8627
▁кожн	-10.8637
▁выпраменьванн	-10.8638
аражытнагрэчаска	-10.864
▁падае	-10.8642
▁ліста	-10.8644
▁ўспамін	-10.8647
▁цэла	-10.8648
▁халодна	-10.8649
▁абласны	-10.8651
▁літоўц	-10.8659
▁Індыя	-10.8661
▁паўстанн	-10.8666
▁захоўванн	-10.8669
▁працягла	-10.8671
▁Нацы	-10.8672
▁вятр	-10.8674
▁пісьменнасц	-10.8678
▁Бо	-10.8679
▁аўтобус	-10.8679
▁прадмета	-10.8681
▁рэстаўрацы	-10.8687
▁Прадстаўнік	-10.8687
▁ўтворана	-10.8687
▁памерл	-10.8692
▁забаронена	-10.8696
▁забяспечы	-10.8697
▁рухавіко	-10.8699
▁Ні	-10.8705
▁выключан	-10.8709
▁пліт	-10.8711
▁нізіна	-10.8712
▁адлюстраванне	-10.8712
супраць	-10.8713
▁выйграў	-10.8716
▁зразуме	-10.8719
▁Камуністычна	-10.8721
▁штаба	-10.8721
▁Рух	-10.8724
▁Полацкі	-10.8724
▁самастойны	-10.8727
▁утварэння	-10.8729
▁выдатк	-10.8731
▁біскупа	-10.8731
▁цвёрды	-10.8742
▁інтэнсіўна	-10.8742
▁3000	-10.8747
▁чацвёрта	-10.8751
▁фаз	-10.8751
▁ўяўленн	-10.8755
чэ	-10.8757
▁галосны	-10.8764
КД	-10.8767
▁Мярку	-10.8776
▁ўяўляю	-10.8781
▁вонкава	-10.8781
▁наведва	-10.8781
▁выдадзена	-10.8782
▁Галіле	-10.8784
▁Войск	-10.8785
▁атамны	-10.8785
▁сустрэ	-10.8785
▁слоўнік	-10.8791
▁КН	-10.8791
▁Вене	-10.8792
▁тэарэтычна	-10.8803
ВК	-10.8808
▁Атлантычны	-10.8809
▁назіранн	-10.8811
▁ўтрымлівае	-10.882
▁Полацку	-10.8821
▁128	-10.8828
▁штурм	-10.8829
▁жалезна	-10.8829
▁вокн	-10.8829
▁Ос	-10.8834
ндар	-10.8835
▁146	-10.8837
▁пашырана	-10.8841
▁Луі	-10.8843
ьска	-10.8847
▁суадносін	-10.8851
▁забарон	-10.8857
▁замежн	-10.8859
▁выступленн	-10.886
▁Грамадзянска	-10.8861
▁паўночн	-10.8861
▁супраціўленне	-10.8863
вае	-10.8869
цер	-10.8869
▁забеспячэнне	-10.887
p	-10.887
▁сло	-10.8873
▁Далей	-10.8875
▁любі	-10.8876
туды	-10.8877
▁0,3	-10.8877
▁сядзіб	-10.8878
▁кіслат	-10.8878
▁Дэбютава	-10.8878
▁надрукаваны	-10.8879
▁адкрыла	-10.8881
▁Венецы	-10.8883
▁раніц	-10.8884
▁доўжы	-10.8885
▁вышэйш	-10.8889
▁партыйн	-10.8898
▁асяроддзе	-10.8898
▁Алес	-10.8898
▁прыпада	-10.8906
▁заня	-10.8908
▁ўключаю	-10.891
▁паражэння	-10.8911
▁Яно	-10.8913
▁млекакормячы	-10.8917
▁цэгл	-10.8925
▁падтрымлівае	-10.8928
▁працягва	-10.8928
▁аўстрыйскі	-10.893
кроў	-10.8941
▁узведзен	-10.8943
ізацы	-10.8946
▁Кіева	-10.8947
▁аказаў	-10.8948
▁абвяшчэнн	-10.8949
▁феадал	-10.8953
▁невялік	-10.8953
▁палатн	-10.8958
▁84	-10.8963
▁пацярпе	-10.8967
▁абслугоўванн	-10.8967
▁ядна	-10.897
▁Вебер	-10.8973
▁Манголі	-10.8973
▁Грэнланды	-10.8973
▁досвед	-10.8975
лікам	-10.8978
▁галактык	-10.8979
▁абранн	-10.8983
▁судовы	-10.8984
89	-10.8986
▁Слуцка	-10.8988
▁Дру	-10.8994
▁шведскі	-10.8995
▁дазваляла	-10.8998
▁тэатральны	-10.9001
▁бліжэйшы	-10.9001
▁энергі	-10.901
▁унутрана	-10.901
▁71	-10.9015
▁Сталыпін	-10.9022
▁покрыва	-10.9022
▁тэатральна	-10.9028
▁вагона	-10.9029
▁групоўк	-10.9029
▁Петраград	-10.9031
▁перамагл	-10.9032
▁паспрабава	-10.9035
▁мер	-10.9036
▁зімовы	-10.9036
РП	-10.9039
▁Вышэйша	-10.9039
▁тур	-10.904
▁Ка	-10.9042
▁Вілейскі	-10.9047
▁Баторы	-10.9048
▁майстэрства	-10.9048
▁шырок	-10.9051
▁Ха	-10.9053
▁штучны	-10.9056
▁рачны	-10.9056
▁апублікавана	-10.9058
▁Стаўбцоўскі	-10.906
▁тэхналогіі	-10.9061
▁феадальна	-10.9073
▁105	-10.9074
▁грамадскім	-10.9075
▁дзікі	-10.908
▁Сусвет	-10.9084
▁аказалі	-10.9089
▁Напалеон	-10.909
▁ўступіл	-10.909
▁Транспартны	-10.9091
▁рэгіянальны	-10.9092
▁энергія	-10.9095
абраў	-10.91
▁даследаванне	-10.9101
▁97	-10.9101
▁разрад	-10.9108
▁мінерал	-10.9108
▁вузка	-10.911
▁дваран	-10.9115
▁забаронены	-10.912
▁экспазіцы	-10.912
▁станаўленн	-10.912
ячэ	-10.9121
▁верніка	-10.9134
▁чысты	-10.9142
▁артылеры	-10.9144
▁наваколл	-10.9147
▁дайшл	-10.9158
▁Дуна	-10.9158
▁заўважы	-10.916
▁капітал	-10.9168
▁Міжземнамор	-10.9169
▁Саксоні	-10.9169
▁камерцыйны	-10.9169
▁Нерон	-10.917
▁дрэвы	-10.917
▁парламенцкі	-10.9174
▁выходзя	-10.9174
▁цёпла	-10.9188
▁86	-10.9191
▁паветраны	-10.9198
▁ідэалогі	-10.9204
▁факультэ	-10.9205
▁найлепшы	-10.9207
▁сабраў	-10.9212
▁Афін	-10.9213
▁выпушчаны	-10.9219
▁карабля	-10.9221
▁выкліканы	-10.9223
▁хваля	-10.9226
▁Парыжска	-10.9226
▁браў	-10.9227
▁моц	-10.9228
▁Навагрудска	-10.9229
▁паведамляе	-10.9229
▁Мо	-10.923
▁маштаб	-10.9231
▁шкод	-10.9232
сёлка	-10.9234
▁вугал	-10.9236
▁спрэчк	-10.9239
▁астраномі	-10.924
нджэл	-10.9246
ота	-10.9246
▁культ	-10.9248
▁вярта	-10.9249
▁пасольства	-10.925
▁Лук	-10.925
ас	-10.925
▁валют	-10.9251
▁выявілі	-10.9259
▁драматычны	-10.926
▁паляванне	-10.9261
▁Ці	-10.9263
▁даследава	-10.9263
Заходня	-10.9266
▁дасягненн	-10.9266
▁навучальна	-10.9267
▁узнагарод	-10.9268
▁узначалі	-10.9268
▁Стана	-10.9269
▁Глеб	-10.9269
октар	-10.9269
▁узнікл	-10.9273
u	-10.9274
▁рэвалюцыя	-10.9276
▁кітайскі	-10.9277
тан	-10.9277
▁бачна	-10.9281
▁8-	-10.9283
▁Во	-10.9284
ож	-10.9286
▁фа	-10.9293
▁табліц	-10.9295
▁Зеланды	-10.9299
льц	-10.9304
▁адправі	-10.9306
▁350	-10.9306
▁Орша	-10.9309
▁праўд	-10.9309
▁завяршыў	-10.931
▁камандава	-10.931
▁камандуючы	-10.9314
▁магістра	-10.9314
▁весці	-10.9316
▁E	-10.9317
▁найперш	-10.9318
▁становя	-10.9318
▁аспірантур	-10.9319
▁немцам	-10.9319
▁нарыс	-10.932
▁Максім	-10.9326
▁гарнізон	-10.9327
▁падземны	-10.9327
неслі	-10.933
▁павелічэнн	-10.9331
▁поўным	-10.9331
▁пратэст	-10.9333
▁Самым	-10.9338
▁квантава	-10.9339
▁выпуска	-10.934
▁здагадк	-10.9342
▁F	-10.9344
▁Калінкаві	-10.9344
▁ўвайш	-10.9344
▁Вышэйшы	-10.9345
▁Кожна	-10.9348
▁логік	-10.935
▁істот	-10.9352
▁123	-10.9353
▁матча	-10.9356
арта	-10.9359
▁знікл	-10.9361
▁абсталяванне	-10.9364
▁скарб	-10.9365
▁1850	-10.9366
▁двухбакова	-10.9369
▁егіпецкі	-10.9369
▁мякка	-10.9369
▁сесі	-10.9369
▁функцыя	-10.9369
▁зняты	-10.9369
▁залатым	-10.9372
▁кветкі	-10.9373
▁ўзяў	-10.9376
▁дыпламатычны	-10.9376
▁амерыканскім	-10.9377
▁народам	-10.9381
▁асноўн	-10.9382
▁Роберт	-10.9383
▁Волг	-10.9386
▁адн	-10.9387
ніцтва	-10.9389
▁фізіка	-10.9389
▁Фрыдрыха	-10.9394
▁формул	-10.9397
▁Арганізацы	-10.9406
▁касмічны	-10.9412
▁дзевя	-10.9412
▁каталіцтв	-10.9419
▁бактэры	-10.9419
▁вадарод	-10.9419
▁пірамід	-10.9419
▁павялічы	-10.9422
▁ланцуг	-10.9423
▁96	-10.9428
▁падпісана	-10.9428
▁камуністычна	-10.9429
▁прамым	-10.9434
▁міжнародн	-10.944
▁дробна	-10.9441
er	-10.9443
абудова	-10.9446
▁адзначаны	-10.9452
▁рэалізацы	-10.9453
▁паведамі	-10.9453
▁распачаў	-10.9454
▁Кацярына	-10.9456
▁авіяцы	-10.9458
▁захапі	-10.946
▁хворы	-10.9462
▁заслуг	-10.9465
▁лепшым	-10.9466
▁Сме	-10.9466
▁тагачасны	-10.9466
▁пако	-10.9468
▁сказа	-10.9469
▁Хемінгуэ	-10.947
▁гібел	-10.947
▁кіруе	-10.947
▁перададзена	-10.947
▁ўключаны	-10.947
ань	-10.9473
▁германска	-10.9473
▁абсталяванн	-10.9475
▁87	-10.9477
▁8,	-10.948
▁гуртк	-10.9481
▁кірава	-10.9482
▁рэвалюцыйны	-10.9486
▁W	-10.9486
▁адзнак	-10.9494
▁аказвае	-10.9495
▁кіеўскі	-10.9503
▁федэрацы	-10.9505
▁Вайніловіча	-10.9512
▁Араві	-10.9513
▁украінскі	-10.9513
▁замен	-10.9517
▁цэрква	-10.9518
▁кірмаш	-10.9521
▁торф	-10.9521
▁племя	-10.9521
▁сканчэнн	-10.9522
▁ўкраінска	-10.9524
▁трапляе	-10.9526
▁чум	-10.9527
C	-10.9529
▁выпуску	-10.9532
▁асобнік	-10.9532
▁перадае	-10.9533
▁Шырока	-10.9533
▁Залаты	-10.954
▁вырашылі	-10.9548
▁дамена	-10.955
▁Чэхаславакі	-10.9557
▁адклад	-10.9557
даваў	-10.9557
▁пагадзі	-10.9563
▁ветр	-10.9569
▁бізнес	-10.9572
▁дыяпазон	-10.9572
▁Міхайлавіч	-10.9572
▁наперад	-10.9572
▁прысвяці	-10.9574
▁Рос	-10.9586
▁пралі	-10.9587
▁бронзавы	-10.9588
▁галерэя	-10.9595
▁66	-10.9599
▁выстав	-10.96
▁пісьмо	-10.96
▁адышл	-10.9607
▁вызваленне	-10.9608
▁122	-10.9609
▁палі	-10.9609
▁пяхот	-10.961
▁вучылішч	-10.9611
тэр	-10.9612
l	-10.9615
▁Джа	-10.9618
▁лячэнн	-10.9618
▁перашкод	-10.9618
▁хмызняко	-10.9622
▁пазнейшы	-10.9623
*	-10.9624
▁0,4	-10.9624
▁зняволены	-10.9624
▁святло	-10.9624
▁далёкі	-10.9625
▁найстарэйшы	-10.9629
▁установ	-10.9629
екалькі	-10.9634
▁трактат	-10.9636
▁сыравін	-10.9636
▁епіскапа	-10.9637
бар	-10.9644
▁Яраслаў	-10.9644
▁студэнт	-10.9645
▁Карэ	-10.9645
маючы	-10.9649
▁няўдала	-10.9651
▁удал	-10.9652
▁самалёта	-10.9652
чаў	-10.9653
▁ўплыва	-10.9655
91	-10.9657
▁напісанн	-10.9657
▁збудаванне	-10.966
▁прастор	-10.966
▁меншасц	-10.9663
радак	-10.9668
▁адкрыцц	-10.967
▁жаб	-10.9675
▁0,1	-10.9675
▁стэп	-10.9676
▁рамонт	-10.9677
▁прымусіл	-10.968
▁мацерык	-10.968
▁афіцэр	-10.9681
▁сустрака	-10.9683
▁гістарычн	-10.9683
▁Канстанцінопаль	-10.9687
▁нос	-10.9688
▁фракцы	-10.9692
▁калегі	-10.9694
▁размяшчэнне	-10.9696
▁ствараю	-10.9702
▁залато	-10.9704
▁107	-10.9704
▁прамавугольна	-10.9705
▁гра	-10.9706
▁знаходк	-10.9711
▁Стаў	-10.9716
▁тэксты	-10.9722
▁дакладны	-10.9723
▁метадам	-10.9726
▁Найвышэйша	-10.9728
▁подпіс	-10.9728
▁візіт	-10.9728
▁абароне	-10.9728
▁яўрэ	-10.9728
▁выйсц	-10.9732
▁сабак	-10.9734
▁абазначэння	-10.9736
ногі	-10.9736
▁7-	-10.974
дала	-10.9742
▁Грэцыя	-10.9742
▁прыцягва	-10.9746
▁станаві	-10.975
▁пазіцыя	-10.9753
▁раённы	-10.9754
▁заменены	-10.9755
▁пасажырскі	-10.9761
▁дрэнна	-10.9762
▁павелічэнне	-10.9768
▁распрацоў	-10.9777
▁падтрымаў	-10.9779
▁Аснов	-10.9779
▁Ліві	-10.978
▁супярэчнасц	-10.978
▁Барыс	-10.9783
▁залоз	-10.9783
▁Рэ	-10.9787
▁вайскова	-10.979
▁магчымым	-10.9791
▁падабенства	-10.9794
▁Аляксандравіч	-10.9795
▁Буйны	-10.9796
▁вызначэнне	-10.9797
▁філіял	-10.9799
▁прызнана	-10.9799
▁68	-10.9801
▁Льв	-10.9801
▁ІІ	-10.9806
▁Найбуйнейшы	-10.9811
▁прадметам	-10.9817
▁рэспубліканскі	-10.9819
▁рок	-10.982
▁пакарання	-10.9823
▁пакаленн	-10.9825
▁Уз	-10.9828
▁гаспадарча	-10.9831
кшталт	-10.9833
▁папуляцы	-10.9833
▁вадаспад	-10.9833
▁стромкі	-10.9833
▁адыгрыва	-10.9838
▁выканана	-10.9839
k	-10.9839
▁змяні	-10.9843
▁адміністрацыя	-10.9844
▁труп	-10.9844
▁прадстаўніцтв	-10.9844
▁74	-10.9844
▁1,6	-10.9846
▁арганізатар	-10.9846
граф	-10.9849
▁1820	-10.9851
▁лац	-10.9851
▁калектыв	-10.9852
эй	-10.9853
▁рэвалюцыйна	-10.9856
піва	-10.9858
▁юрыдычна	-10.9859
▁карціна	-10.9861
▁жанчына	-10.9866
▁апостала	-10.9874
▁ўведзены	-10.9876
▁Калумбі	-10.9878
▁Марцін	-10.988
▁ёзны	-10.988
▁сябр	-10.9881
▁рэдакцыя	-10.9881
▁мышц	-10.9882
▁Твор	-10.9884
▁Албані	-10.9886
▁Вёск	-10.9886
▁лясно	-10.9889
С	-10.9889
▁Джэймс	-10.989
тар	-10.989
ПА	-10.9897
▁дадзеным	-10.9903
▁наваколля	-10.9909
▁Малдов	-10.9912
▁саюзніка	-10.9918
▁драматург	-10.9924
▁жаданне	-10.9926
шта	-10.993
▁дума	-10.9931
▁найвышэйша	-10.9931
▁гарадзішча	-10.9938
▁Туніс	-10.9939
▁шырот	-10.9939
стаўшы	-10.9939
▁выклікана	-10.9939
▁абарот	-10.9941
▁наведваў	-10.9941
▁пазіцый	-10.9942
▁уваходзя	-10.9942
▁найвышэйшы	-10.9947
▁Астрав	-10.9948
▁бар	-10.995
▁гетмана	-10.9959
▁здароўе	-10.9961
▁Ален	-10.9962
▁дыяметра	-10.9966
▁Івацэвіцкі	-10.9972
▁бібліятэ	-10.9976
▁900	-10.9978
▁прытокам	-10.9978
a	-10.9979
▁пяты	-10.998
▁Эдварда	-10.998
▁H	-10.9982
▁паслядоўнасц	-10.9983
пэўна	-10.9984
▁сфера	-10.9985
▁аўтамабіль	-10.9986
▁анг	-10.9988
▁рухаў	-10.999
▁філасофска	-10.9992
стыя	-10.9992
▁сімфоні	-10.9992
▁ютарны	-10.9994
▁выходзіл	-10.9995
▁механічны	-11.0001
▁Яўген	-11.0003
▁трав	-11.0004
▁дзяўчын	-11.0012
▁абедзв	-11.0016
▁Эйнштэйна	-11.0016
▁пярэдня	-11.0019
шмат	-11.0021
▁Нансена	-11.0022
▁Рыгор	-11.0023
▁XXI	-11.0024
▁украінска	-11.0026
▁адрозніваюц	-11.0029
▁Блізкі	-11.003
▁Аўстралія	-11.003
▁хрыбта	-11.0031
▁рухам	-11.0041
▁тэндэнцы	-11.0042
▁здыма	-11.0042
▁ідэал	-11.0045
▁вучэння	-11.0046
▁Шлях	-11.0046
▁матэрыяльны	-11.0046
▁Груп	-11.0048
amp	-11.0049
▁рот	-11.0049
▁развівал	-11.0056
▁Кангрэс	-11.006
бывае	-11.0062
▁выклікаў	-11.0068
▁ўкраінскі	-11.0072
нска	-11.0074
▁Эйнштэйн	-11.0075
▁базы	-11.0075
▁пушч	-11.0081
06	-11.0084
▁зліцц	-11.0092
▁атамна	-11.0094
▁пастаянны	-11.0095
▁ўмацавання	-11.0097
▁біялагічны	-11.01
▁завершана	-11.01
▁Тытан	-11.01
▁Ордэн	-11.0101
▁зарэгістравана	-11.0101
▁следства	-11.0101
▁Мікалаевіч	-11.0102
▁Малер	-11.0103
▁суполк	-11.0105
▁археолаг	-11.0108
▁сла	-11.0109
▁93	-11.011
▁прадставі	-11.0111
▁вузкі	-11.012
▁моўна	-11.0128
▁ням	-11.0131
▁працягнуў	-11.0135
▁матэматычны	-11.0137
▁франта	-11.0138
▁кантроле	-11.014
▁Выкарыстоўва	-11.0141
▁манарха	-11.0141
▁пласт	-11.0146
▁Статут	-11.0149
▁закладзены	-11.0154
▁абсерваторы	-11.0154
▁грудно	-11.0154
▁Ры	-11.0157
▁японскі	-11.0161
▁намесніка	-11.0163
▁старонка	-11.0164
▁ядзерна	-11.0165
▁1,3	-11.0166
▁пояса	-11.0167
▁закрыты	-11.0168
▁медаль	-11.0173
▁Вільгельма	-11.0174
▁продк	-11.0176
▁ядноўвае	-11.0176
▁медалё	-11.0177
▁Троцкі	-11.0179
▁літоўск	-11.018
▁поспехам	-11.0182
▁паралельн	-11.0199
▁пачата	-11.02
▁Паўднёв	-11.02
▁выдава	-11.0203
▁118	-11.0203
▁эсперант	-11.0208
▁дазволіў	-11.0209
▁пабудо	-11.0211
▁паняцц	-11.0212
▁жывёлагадоўля	-11.0213
▁дэманстрацы	-11.0213
▁колькі	-11.0214
▁заяв	-11.0215
ман	-11.0216
▁выгнанн	-11.0219
▁моста	-11.0219
▁паездк	-11.0219
▁лістоў	-11.022
▁ўзгорк	-11.0229
▁аўтарытэт	-11.0231
▁найменша	-11.0231
СД	-11.0233
▁яркі	-11.0239
▁фарміраванн	-11.0239
▁82	-11.024
▁тэрытарыяльны	-11.0241
▁дапамага	-11.0242
▁заваявання	-11.0244
▁думка	-11.0244
▁вера	-11.0245
▁рухавіка	-11.0247
▁сінтэз	-11.025
▁аддаў	-11.0254
▁ўзначальва	-11.0257
сьц	-11.0261
▁Праваслаўна	-11.0264
▁Хрысто	-11.0264
▁жалезны	-11.0264
▁Дзяржав	-11.0264
▁эпідэмі	-11.0265
▁скульптар	-11.0266
▁занесены	-11.0266
▁падтрымліва	-11.0267
▁ўжыт	-11.0268
▁сталы	-11.0268
▁прызнання	-11.0272
▁арэн	-11.0272
▁поўн	-11.0274
▁114	-11.0279
▁злучэнн	-11.0283
▁мастацк	-11.0283
▁забяспечваю	-11.0287
▁матэматычна	-11.0288
падобна	-11.0289
▁навакольны	-11.0293
▁задні	-11.0295
▁ўчаст	-11.0295
▁будынкам	-11.0296
▁злачынства	-11.0306
▁Ліс	-11.0307
▁евіч	-11.031
▁параз	-11.0312
▁пабудова	-11.0316
▁Увес	-11.0319
▁хрышчэнн	-11.0319
▁запрашэнн	-11.0319
ows	-11.0319
▁ўсталяваны	-11.032
па	-11.0322
▁гандляр	-11.0322
▁спалучэнне	-11.0322
▁нядзел	-11.0323
намс	-11.0327
▁звалі	-11.0327
▁глеба	-11.0334
чыльнасц	-11.0335
▁Мэры	-11.0335
▁спецыяльнасц	-11.0337
▁шта	-11.0341
▁бедны	-11.0343
▁маленька	-11.0343
▁прыкметна	-11.0344
▁міжнародным	-11.0345
▁медыцыны	-11.0351
▁паходз	-11.0357
ан	-11.0358
▁зямны	-11.0368
▁Бар	-11.0368
▁дало	-11.037
▁хатня	-11.037
▁генеральн	-11.0371
▁псеўданімам	-11.0372
▁родны	-11.0372
▁La	-11.0375
анцы	-11.0377
▁палова	-11.0381
▁эканамічн	-11.0384
ор	-11.0387
▁павятовы	-11.0387
▁Іосіф	-11.0389
▁патрэбны	-11.0394
ведзены	-11.0399
▁тэрміна	-11.04
▁2000-	-11.0402
▁аркестра	-11.0403
▁узброены	-11.0404
▁прылеглы	-11.0405
▁спецыялістаў	-11.0406
▁дэкаратыўна	-11.0413
▁танк	-11.0414
▁вылучы	-11.0415
▁жоўта	-11.0416
▁выда	-11.0419
▁Генры	-11.0423
▁чарговы	-11.0424
▁каардынат	-11.043
▁перабудов	-11.043
▁Ганконг	-11.0431
▁выпушчана	-11.0431
▁магнітны	-11.0431
▁Кветк	-11.0431
▁Трэці	-11.0431
▁Персі	-11.0432
▁партыйны	-11.0432
▁сейм	-11.0432
▁пастаўлена	-11.0433
▁сектара	-11.0435
▁БА	-11.0435
▁ансамбл	-11.0438
▁гавора	-11.0438
▁Міс	-11.0439
▁тэмп	-11.0448
▁Прэзідыума	-11.045
агон	-11.0455
▁ўтварыла	-11.0458
гета	-11.046
▁афіцэра	-11.0462
▁інтарэса	-11.0463
▁вяртанне	-11.0463
▁пісьм	-11.0467
▁мітрапаліта	-11.0468
▁Фёдар	-11.0468
▁візантыйскі	-11.0469
▁Брагінскі	-11.0478
зел	-11.0479
▁мянушк	-11.048
▁бог	-11.0481
▁сіня	-11.0481
▁васьмі	-11.0485
▁Еўразі	-11.0487
▁індыйска	-11.0487
▁вяселл	-11.0487
▁жорсткі	-11.0488
▁Сымон	-11.0488
▁наступств	-11.049
▁Незалежнасц	-11.0492
▁паля	-11.0495
▁пазнанн	-11.0498
▁партнёр	-11.0503
▁пэўным	-11.0511
▁алтар	-11.0513
A	-11.0513
ступлення	-11.0514
▁распаўсюджанне	-11.0521
▁служа	-11.0534
▁знакам	-11.0537
▁сумесны	-11.0539
▁Леанард	-11.0543
▁сярэднявечч	-11.0543
▁до	-11.0546
▁рэжысёра	-11.055
губернатар	-11.0551
▁запісаны	-11.0551
▁Савецк	-11.0552
▁людзям	-11.0553
▁уласцівасц	-11.0557
▁працоўна	-11.056
▁малодша	-11.0564
▁шляхта	-11.0565
▁Альп	-11.0565
▁спектр	-11.0572
▁саступа	-11.0572
длегласц	-11.0576
▁правадыр	-11.0585
▁аперацый	-11.0588
нт	-11.059
▁прадстаўляе	-11.0592
▁заваяваны	-11.0593
▁правам	-11.0594
88	-11.0596
▁Філіпа	-11.0596
так	-11.0599
▁ўражанн	-11.06
▁галаўны	-11.06
▁рыбалоўства	-11.06
▁Еўропа	-11.0601
▁знішчана	-11.0601
▁Ідэ	-11.0603
▁канечнасц	-11.0603
▁азначала	-11.0603
▁стрэл	-11.0605
▁моўны	-11.0608
ель	-11.061
▁рознага	-11.061
▁чалавеч	-11.0611
▁выкладчыкам	-11.0613
▁Дынама	-11.0613
▁антычны	-11.0615
▁Залато	-11.0615
▁выкарыстаў	-11.0622
▁цяжкім	-11.0624
▁ютара	-11.0634
▁труб	-11.0634
▁Над	-11.0638
▁20-	-11.0641
▁вял	-11.0642
▁дэкаратыўны	-11.0642
▁віленска	-11.0644
▁калекцыя	-11.0646
▁Створана	-11.0654
▁гатовы	-11.0657
▁дэбютава	-11.066
нікі	-11.0661
▁абмывае	-11.0663
39	-11.0664
▁снег	-11.0667
▁квет	-11.0668
▁ўбачы	-11.0668
▁захоўвала	-11.067
▁копі	-11.0672
▁59	-11.0674
▁літоўскім	-11.0675
▁заключае	-11.0677
▁грэк	-11.068
▁прадугледжва	-11.0682
▁падзяляюц	-11.0689
▁106	-11.0691
▁пасажыра	-11.0692
шчыка	-11.0699
▁крыжа	-11.0704
▁найвялікшы	-11.0711
▁бліжэй	-11.0711
▁грунту	-11.0712
▁Чарнобыл	-11.0715
▁завершаны	-11.0715
▁прыбярэжны	-11.0715
▁харчовы	-11.0715
▁Чыгуначн	-11.0715
▁Узнагароджан	-11.0715
▁перасякае	-11.0715
▁72	-11.0715
ТЭ	-11.0718
▁112	-11.0718
▁Якуба	-11.0721
▁еўрапейск	-11.0727
▁дабра	-11.0727
▁СМ	-11.0729
▁буры	-11.0729
▁сустрэў	-11.0729
▁Анд	-11.0729
▁ярус	-11.0732
▁разгляд	-11.0734
▁выканаў	-11.0734
▁грамад	-11.0736
▁музы	-11.0744
▁пазбаві	-11.0747
▁біялогі	-11.0747
▁Ваенна	-11.0749
▁Re	-11.075
▁Алжыр	-11.0756
▁загада	-11.0765
▁дадат	-11.0769
▁гандлёвым	-11.0769
▁Босні	-11.0772
▁Лунінец	-11.0772
▁ганарова	-11.0773
▁мэбл	-11.0773
▁0,8	-11.0773
палітычны	-11.0775
▁руін	-11.0777
▁мыс	-11.0778
▁палё	-11.0779
▁камуніста	-11.0779
▁Уран	-11.0786
▁дзеючы	-11.0786
▁11,	-11.0786
▁іспанц	-11.0792
▁паяс	-11.0793
or	-11.08
▁Чыкаг	-11.08
кінуты	-11.08
▁сярэдн	-11.0806
▁падтрымал	-11.0809
▁заказ	-11.081
дэмакратычна	-11.0812
▁дапамагл	-11.0817
▁саюзны	-11.0825
▁Валын	-11.0828
▁разгром	-11.083
▁гвалт	-11.0831
▁Добра	-11.0831
▁Талсто	-11.0831
хвост	-11.0834
Ц	-11.0837
▁Алі	-11.084
▁дзённік	-11.0842
▁цукр	-11.0844
▁30-	-11.0846
▁магутна	-11.0846
конт	-11.0854
▁найбуйнейшым	-11.0856
▁практык	-11.0859
▁пшаніц	-11.0865
▁адмовіла	-11.0868
▁Жлобін	-11.0868
▁99	-11.087
▁Крупскі	-11.0872
▁архітэктарам	-11.0873
▁баяр	-11.0874
▁Малады	-11.0881
вен	-11.0882
▁рэшт	-11.0885
▁Гарбачо	-11.0889
▁манаграфі	-11.0889
▁Традыцыйна	-11.0889
▁каланізацы	-11.0889
▁манер	-11.0889
▁вока	-11.0891
▁падатка	-11.0892
▁Паспаліт	-11.0892
▁пік	-11.0895
▁выконваю	-11.0895
▁апісаны	-11.0897
▁дакладн	-11.09
▁сямі	-11.0904
▁Анатоль	-11.0912
▁праспекта	-11.0914
ём	-11.0914
льны	-11.0916
▁метала	-11.0919
ключае	-11.092
▁чэшска	-11.0925
▁абедзвю	-11.0926
▁збудаванн	-11.093
▁Хронік	-11.0935
▁задня	-11.0936
▁прафесарам	-11.0937
▁выконвалі	-11.0947
▁Венесуэл	-11.0948
▁Генеральны	-11.0948
▁паштова	-11.0948
▁тэалогі	-11.0948
▁паказаны	-11.095
▁Дзев	-11.0951
сланы	-11.0952
вочы	-11.0953
▁утвараю	-11.0955
▁падпісанн	-11.0961
▁мастацкім	-11.0961
▁галоў	-11.0962
▁выхаванн	-11.0964
▁Рускі	-11.0966
▁арыгінальны	-11.0973
▁побыт	-11.0974
тварэнне	-11.0975
▁Дняпро	-11.0978
▁1,	-11.0983
рыштаваны	-11.0983
▁ру	-11.0989
▁дынастыя	-11.0989
▁хваёвы	-11.099
▁вулкан	-11.0994
▁Жан	-11.0998
▁карэнны	-11.1001
▁Браслаўскі	-11.1001
▁сонечны	-11.1004
▁звон	-11.1007
▁падводны	-11.1007
▁федэральны	-11.1007
дэ	-11.1008
▁разбіты	-11.1009
▁Адносі	-11.1009
▁гарадскім	-11.101
гуляў	-11.1012
▁Канстанцінопал	-11.1012
▁капліца	-11.1012
▁Заснавана	-11.1017
▁Уладзіміравіч	-11.1018
▁вырасл	-11.1024
▁імперскі	-11.1037
▁каханн	-11.1038
▁аблічча	-11.1043
верхня	-11.1046
▁бал	-11.1046
▁дыска	-11.1048
▁ўказ	-11.1049
▁парка	-11.105
▁наву	-11.105
цю	-11.1053
▁Сафі	-11.1055
▁святаро	-11.1057
▁давала	-11.106
▁Ра	-11.1064
▁размнажэнн	-11.1067
▁змаганн	-11.1067
▁украінц	-11.1067
▁зарэгістраваны	-11.1067
▁Язэп	-11.1068
▁крайні	-11.1069
▁вонкавы	-11.1071
▁Пу	-11.1075
▁марак	-11.1075
▁шчасц	-11.1077
дава	-11.1077
▁паслядоўна	-11.1077
▁спыненн	-11.1079
карэспандэнт	-11.1079
▁Праг	-11.1081
▁серб	-11.1084
▁тонка	-11.1084
▁трэнера	-11.1086
▁вучн	-11.1087
▁кольца	-11.1091
▁кіруючы	-11.1093
▁Ру	-11.1093
▁пісьмова	-11.1094
▁чвэрц	-11.1094
▁саюзнік	-11.1101
▁насельніцтв	-11.1102
▁паведамленне	-11.1107
▁апарата	-11.1107
▁Мак	-11.1108
▁філалагічны	-11.1108
▁дыск	-11.1108
▁танка	-11.1111
▁лабараторы	-11.1113
▁Пецярбургск	-11.1114
▁капліц	-11.1121
▁актывіст	-11.1123
▁мінімум	-11.1126
▁сярэднявечна	-11.1126
▁трацін	-11.1126
▁Мадрыд	-11.1126
▁вывад	-11.1126
▁бюджэт	-11.1128
▁Асвет	-11.113
▁разбурана	-11.113
▁разуме	-11.1131
▁плоска	-11.1132
▁свецкі	-11.1133
▁Памер	-11.1134
▁Міндоўг	-11.1137
▁эпізод	-11.1139
▁атрымана	-11.114
B	-11.1142
▁важнае	-11.1143
▁Міжземн	-11.1144
▁зямельны	-11.1149
IA	-11.1149
▁творам	-11.1152
▁падзенне	-11.1158
▁77	-11.1162
▁ваяводств	-11.1172
▁заснавальнікам	-11.1172
▁Рэчыцк	-11.1175
▁мін	-11.1176
▁данін	-11.1179
▁стваралі	-11.1181
▁Ірак	-11.1186
▁Жыц	-11.1187
▁недастаткова	-11.1187
▁рэйтынг	-11.1187
▁ажыццяві	-11.1187
▁пазначае	-11.1189
▁даведа	-11.1193
▁своеасаблівы	-11.1193
▁вырашэння	-11.1198
▁спін	-11.12
▁вырабляю	-11.1202
▁найбольшы	-11.1208
▁вырабля	-11.1214
▁малако	-11.1214
раду	-11.1225
▁Сербія	-11.1226
▁камер	-11.1228
▁ўласн	-11.123
▁78	-11.123
▁франка	-11.1232
▁участк	-11.1232
▁секцы	-11.1232
▁Кубка	-11.1235
▁збудаваны	-11.1237
▁паеха	-11.124
▁загадчыка	-11.1245
▁турыстычны	-11.1245
▁Абхазі	-11.1247
▁Доўгі	-11.1247
▁Сістэм	-11.1247
▁электрастанцы	-11.1247
▁электраэнергі	-11.1247
▁згадк	-11.1247
▁Ападк	-11.1247
▁палаво	-11.1248
▁далучана	-11.1249
▁ісцін	-11.1249
▁Лос	-11.125
▁літаратурн	-11.125
▁крытыка	-11.1251
▁краінам	-11.1252
▁грэчаск	-11.1252
et	-11.1257
▁вобл	-11.1258
▁наземны	-11.1259
▁спев	-11.126
▁скасавана	-11.1264
▁каран	-11.127
▁адмен	-11.1273
▁інтэрв	-11.1274
▁ван	-11.1275
▁ацэн	-11.1277
▁хваста	-11.1278
▁апісанн	-11.1283
▁10-	-11.1284
▁Джордж	-11.1288
▁Ваўкавыск	-11.1288
▁прымаю	-11.129
▁73	-11.129
▁трыццац	-11.1295
▁канстытуцыя	-11.1296
▁61	-11.1303
▁дызайн	-11.1307
іка	-11.1307
▁Пушкін	-11.1308
▁пчол	-11.1308
▁пратакол	-11.1308
▁камян	-11.1309
▁заклік	-11.1309
▁прапанавана	-11.1311
▁навучы	-11.1313
▁дзяцінств	-11.1314
▁ледавік	-11.1315
▁Брусел	-11.1316
▁выпускае	-11.1319
▁абалонк	-11.1321
▁кіламетр	-11.1322
▁рушыл	-11.1325
▁канцэпцыя	-11.1327
▁арх	-11.1328
S	-11.1329
▁сцэны	-11.1334
▁дойлідств	-11.1334
▁G	-11.1335
▁акупацыя	-11.1335
▁Ды	-11.1338
▁Латвія	-11.1338
▁Абу	-11.1342
▁Францішка	-11.1343
▁абрана	-11.1343
▁зацвердзіў	-11.1346
▁граматык	-11.1347
▁кольц	-11.1347
▁адказнасц	-11.1349
▁фараона	-11.1353
▁Швейцарыя	-11.1358
▁Мая	-11.1363
▁музычн	-11.1364
овы	-11.1367
▁кулямёт	-11.137
▁кіслот	-11.137
▁нешматлікі	-11.137
▁Кампані	-11.137
▁Помнік	-11.137
▁шаш	-11.137
▁спалуча	-11.1371
▁Месяц	-11.1371
▁машына	-11.1378
▁доўгім	-11.138
▁цёмна	-11.138
▁1,7	-11.1382
▁прасі	-11.1385
▁прадстаўля	-11.1386
▁размясці	-11.1389
▁ш	-11.1393
▁Марціна	-11.1393
▁спалучэнн	-11.1393
▁графік	-11.1394
овіч	-11.14
▁востры	-11.1401
▁сацыяльн	-11.1407
▁луг	-11.1407
▁знаёмы	-11.1409
▁кара	-11.1412
▁Кірава	-11.1418
▁Рыг	-11.1418
▁Штата	-11.1419
▁Зорк	-11.1424
▁дэтал	-11.1427
▁арыгінальна	-11.1428
▁Сен	-11.1431
▁справаздач	-11.1431
▁хутар	-11.1432
▁Пекін	-11.1432
▁прырост	-11.1433
▁траўн	-11.1434
▁Стэфан	-11.1435
кор	-11.1435
▁секунд	-11.1439
▁курган	-11.1445
▁мячэц	-11.1447
▁Пятро	-11.1448
▁прызначэнне	-11.1451
▁венгерска	-11.1454
▁Уэльс	-11.1455
▁Евангелл	-11.146
вяло	-11.1461
ваўся	-11.1465
▁Габсбурга	-11.147
дому	-11.1472
▁абмежавання	-11.1482
▁серыя	-11.1489
▁раскол	-11.1493
▁Барселон	-11.1493
▁Старэйш	-11.1493
▁забалочана	-11.1493
▁інфраструктур	-11.1493
▁Маладзечн	-11.1493
▁набег	-11.1493
▁Васілевіч	-11.1494
▁кропк	-11.15
▁Каралін	-11.15
▁любоў	-11.1502
▁аўтаматычна	-11.1502
▁выця	-11.1503
▁Германска	-11.1508
▁9-	-11.1516
▁хлопчыка	-11.1521
▁апавяданне	-11.1526
▁даследчыка	-11.1528
▁тэрытарыяльна	-11.1528
▁Парты	-11.1529
Усходня	-11.153
▁зда	-11.1531
▁113	-11.1532
▁адзначаю	-11.1533
▁епіскап	-11.154
эння	-11.1543
▁адпраўлены	-11.1545
▁узроўня	-11.1545
заходні	-11.1546
▁здольна	-11.155
▁каляровы	-11.1551
▁сведчання	-11.1553
▁Уругва	-11.1556
▁Чалавек	-11.1556
▁Верхні	-11.1556
▁Рэфармацы	-11.1556
▁параметр	-11.1558
g	-11.1559
▁Брун	-11.1562
▁Зім	-11.1572
▁прыцягненн	-11.1572
▁індзейц	-11.1573
▁c	-11.1577
▁капітана	-11.1577
вані	-11.1585
▁некаторым	-11.1586
▁тэхнікум	-11.1586
▁падпісал	-11.1587
▁субтрапічны	-11.1587
▁дада	-11.1588
класці	-11.1592
▁пагроза	-11.1593
▁хана	-11.1593
▁запаведнік	-11.1597
▁кіравалі	-11.1597
▁выбра	-11.1599
коў	-11.1604
▁даўні	-11.1606
▁ўпадзенн	-11.1608
▁Вель	-11.1609
▁Кал	-11.1609
▁круг	-11.1612
▁распрацоўка	-11.1615
эмпература	-11.1616
▁69	-11.1617
▁Арыстоцел	-11.1619
▁індыйскі	-11.1619
▁міжваенн	-11.1619
▁літаратар	-11.1621
▁жада	-11.1624
▁ператварыла	-11.1628
▁удзельнічал	-11.1628
▁захаваны	-11.1629
зь	-11.1629
▁дэль	-11.163
▁турэцкі	-11.1633
▁пакіда	-11.1638
▁паэма	-11.1643
▁сацыялізм	-11.1648
▁металічны	-11.1649
▁каханне	-11.1651
▁праграмаванн	-11.1652
▁маладым	-11.1653
▁Косав	-11.1654
▁маркі	-11.1655
▁адрознення	-11.1655
▁вайсков	-11.1656
▁Міхала	-11.1658
▁Міхас	-11.1658
▁Ро	-11.1659
▁матыв	-11.166
▁пераўтварэння	-11.166
▁паслужыл	-11.1663
рн	-11.1664
▁электронны	-11.1664
▁Адрозніваюц	-11.1664
▁сухо	-11.1664
▁знаём	-11.1665
еры	-11.1666
▁круглы	-11.1667
▁дач	-11.1668
▁Тэўтонск	-11.1669
▁гульцо	-11.167
▁слав	-11.1671
▁рэкорд	-11.1671
▁спартыўна	-11.1672
▁Скот	-11.1672
▁нейка	-11.1674
▁апор	-11.168
▁порта	-11.168
▁карыстаю	-11.1681
▁Завод	-11.1682
▁Яраслава	-11.1682
▁гравюр	-11.1682
▁Майсе	-11.1682
▁рэвалюцыйн	-11.1682
▁плануе	-11.1683
▁драўнін	-11.1685
▁аўта	-11.1687
▁эканоміка	-11.1689
▁будуе	-11.1689
▁інжынер	-11.169
▁кратар	-11.169
▁Сям	-11.169
▁перамяшчэнн	-11.1692
▁каталіцк	-11.1692
▁даступны	-11.1693
▁настаўнікаў	-11.1699
▁тонкі	-11.1701
дна	-11.1701
▁акадэмія	-11.1705
▁узро	-11.1706
▁фактарам	-11.1708
▁цёмны	-11.1709
▁тыдн	-11.1718
▁маршалка	-11.1718
▁велізарна	-11.172
▁тая	-11.1728
▁гварды	-11.173
▁прапанавал	-11.1739
▁аўтары	-11.174
дзесят	-11.1742
▁прызнае	-11.1743
▁фартэпіян	-11.1743
▁атрымлівал	-11.1746
Анджэлес	-11.1746
▁Лівоні	-11.1746
▁сінагог	-11.1746
▁інфармацыйны	-11.1747
▁прыродна	-11.1747
▁квадратны	-11.1749
▁сапр	-11.1751
▁мяккі	-11.1753
часце	-11.1758
▁прылада	-11.1759
▁Еж	-11.176
▁умацавання	-11.1765
▁вас	-11.1766
рэч	-11.1767
▁стралкова	-11.1776
oft	-11.1776
▁спыніў	-11.1776
▁абавязаны	-11.1777
▁праяв	-11.1781
▁Армені	-11.1783
▁Уільяма	-11.1783
▁унія	-11.1783
▁гаворка	-11.1783
▁9,	-11.1786
▁Гала	-11.1788
▁Лацінска	-11.179
цё	-11.1793
▁роўнасц	-11.1795
▁малак	-11.1804
▁дахам	-11.1808
▁эфір	-11.1808
▁133	-11.1809
▁0,7	-11.181
▁Карыбск	-11.181
▁Летні	-11.181
▁Свідрыгайл	-11.181
▁Служы	-11.181
▁Спроб	-11.181
▁Бунд	-11.181
▁фарб	-11.181
▁эліт	-11.181
▁градус	-11.181
▁мангол	-11.1811
▁плаці	-11.1812
▁прыбор	-11.1813
▁аўтамабіл	-11.1814
▁Гары	-11.1815
мог	-11.1816
▁сцягам	-11.1818
▁падрыхтоўка	-11.1818
▁летапіса	-11.1819
▁дацкі	-11.1824
▁тэкстыльна	-11.1825
бачыў	-11.1826
шкі	-11.1827
▁выбітны	-11.1829
▁Міністр	-11.1834
25	-11.1834
▁памочніка	-11.1836
▁падрабязна	-11.1837
▁узор	-11.1838
▁Брэсц	-11.1845
▁савецк	-11.1846
▁Македоні	-11.1849
▁забіва	-11.1849
▁інструмента	-11.185
▁друкава	-11.1856
▁Мілан	-11.1861
▁ўздым	-11.1861
▁планета	-11.1866
an	-11.1868
▁Стату	-11.187
▁атрадам	-11.1872
▁Усходн	-11.1872
▁патрабавала	-11.1873
▁дзвяр	-11.1874
▁прадмесц	-11.1874
▁Храм	-11.1874
▁славутасц	-11.1875
▁Займаў	-11.1875
▁цягне	-11.1875
▁ставілі	-11.1876
▁Асобны	-11.1876
▁Свет	-11.1879
▁светлавы	-11.1882
▁метр	-11.1889
он	-11.1892
▁глыбокім	-11.1893
▁Антона	-11.1894
авая	-11.1897
▁супрацоўнікам	-11.1898
▁Рамана	-11.1898
▁прыняцце	-11.1899
▁афрыканскі	-11.1902
▁перы	-11.1904
▁здымк	-11.1906
▁Гомельскі	-11.1909
▁еўрапейскім	-11.1909
▁лічба	-11.1911
НФ	-11.1914
▁цырымоні	-11.1914
▁ўзбраенн	-11.1914
▁кол	-11.1919
▁Клецкі	-11.1928
▁захоўвалі	-11.1931
ce	-11.1932
▁педагагічна	-11.1933
▁матэры	-11.1939
▁складнік	-11.1939
▁Людвік	-11.1939
▁Саудаўска	-11.1939
▁Стамбул	-11.1939
▁арганічна	-11.1939
▁кансерваторы	-11.1939
▁абумоўлена	-11.1939
▁ствала	-11.1942
▁ўніз	-11.1942
▁куст	-11.1943
▁Фёдара	-11.1943
▁хуткі	-11.1943
▁рукав	-11.1945
▁блізкасц	-11.1946
▁біяграфі	-11.1947
▁даклад	-11.1947
▁Існавал	-11.1952
▁мысленн	-11.1958
ходзячы	-11.1959
дз	-11.196
▁Мазырск	-11.1964
on	-11.1968
▁звання	-11.197
▁СІ	-11.1972
▁трымае	-11.1973
▁аднолькава	-11.1973
▁танкава	-11.1974
▁стальц	-11.1978
ерак	-11.1979
▁праекту	-11.1979
▁ўзведзен	-11.198
▁венгерскі	-11.198
▁чорным	-11.1982
▁патрэбна	-11.1983
▁багін	-11.1985
▁справядлівасц	-11.1986
▁схем	-11.1987
▁прыгожы	-11.199
▁каманду	-11.199
▁вызначыў	-11.1992
▁Вер	-11.1993
▁Бабруйска	-11.1999
▁ф	-11.1999
▁тралейбус	-11.2002
▁Агульны	-11.2005
▁малітв	-11.2005
▁студэнцкі	-11.2005
▁археалогі	-11.2005
▁абмеркаванн	-11.2007
▁рэгулярны	-11.2011
▁вечна	-11.2011
▁заканадаўча	-11.2015
ера	-11.2016
▁Горка	-11.2016
▁ўсталяванн	-11.2019
▁радыус	-11.2028
▁граматы	-11.2031
магчы	-11.2031
▁творчы	-11.2033
▁разуменне	-11.2034
▁Партыя	-11.2038
▁ганаровы	-11.2043
▁дзесяцін	-11.2045
▁марскім	-11.2046
▁ініцыятара	-11.2047
▁адмоўны	-11.2049
сан	-11.2052
▁паспяховы	-11.2053
▁гарачы	-11.2055
▁Жыв	-11.2055
▁ператварыў	-11.2058
▁спалены	-11.2059
▁змяняю	-11.2062
▁удзельніка	-11.2068
▁персідска	-11.2071
▁перыядычны	-11.2071
▁Гульня	-11.2071
▁дакументальны	-11.2071
▁бег	-11.2071
▁чаргова	-11.2072
▁рамеснік	-11.2072
▁дзесятк	-11.2075
▁сіні	-11.2076
▁збег	-11.2083
▁заключэнн	-11.2086
▁Свята	-11.209
ЗБ	-11.2095
▁голад	-11.2105
▁сяр	-11.2111
▁сутыкненн	-11.2117
▁пацвердзі	-11.2119
▁граніц	-11.2119
▁доўг	-11.2123
ведала	-11.2124
▁Астатні	-11.2126
▁грашова	-11.2126
▁танца	-11.213
▁ратуш	-11.2131
▁дэльт	-11.2132
▁загадз	-11.2135
▁пабудавал	-11.2137
▁падполл	-11.2137
▁службовы	-11.2138
▁дно	-11.2138
▁Максімальн	-11.214
▁450	-11.214
▁прад	-11.2141
▁прыдворны	-11.2142
▁насіў	-11.2143
▁спажыванн	-11.2144
▁Іосіфа	-11.2146
▁пошука	-11.2146
▁сваяко	-11.2148
▁рабіла	-11.2152
▁Міцкевіча	-11.2152
▁ўварванн	-11.2152
▁паведамлення	-11.2156
▁разбурэння	-11.2158
▁хава	-11.216
▁мерапрыемств	-11.2165
▁паліцыя	-11.2165
▁сфер	-11.2165
▁небяспек	-11.2178
▁Кры	-11.2179
▁Баранавічы	-11.218
in	-11.2183
▁здабыва	-11.2184
▁аднолькавы	-11.2184
вядзенне	-11.219
▁празаі	-11.2192
▁ву	-11.2195
чка	-11.2197
▁складання	-11.2197
онкурс	-11.2201
­	-11.2203
▁дрэваапрацоўча	-11.2203
▁забруджванн	-11.2203
▁уздзеянне	-11.2203
▁капэл	-11.2203
▁Дзве	-11.2204
▁перабудаван	-11.2205
▁Восен	-11.2206
▁Мікол	-11.2207
▁акружаны	-11.2208
▁шчыта	-11.2209
▁76	-11.2209
▁керамік	-11.2216
лінейн	-11.2217
▁хадзі	-11.2219
▁насяля	-11.2221
▁Це	-11.2223
▁курса	-11.2225
▁ген	-11.2226
▁Сахар	-11.2227
▁маршал	-11.2229
▁Нобелеўск	-11.2232
▁грашовы	-11.2243
▁каралеўск	-11.2248
▁трывала	-11.225
▁Бразілія	-11.2251
▁выраблены	-11.2252
▁Мэта	-11.2254
▁ютар	-11.2254
▁адыграл	-11.2256
▁срэбра	-11.2257
▁перайменаван	-11.2257
▁пляцоўк	-11.2259
▁набы	-11.2262
▁Ігар	-11.2264
▁спецыфічны	-11.2269
▁пралівам	-11.2269
▁Дэпартамент	-11.2271
▁мяшчан	-11.2271
▁рамёств	-11.2271
▁0,6	-11.2271
слаў	-11.2273
▁ўсталявана	-11.2274
▁Каін	-11.2275
▁агенцтва	-11.2278
▁абаронча	-11.228
▁L	-11.2282
▁выбірае	-11.2282
▁Парк	-11.229
▁бой	-11.229
▁дзяржаўнасц	-11.2293
▁Канада	-11.2294
▁староства	-11.2299
▁Шэра	-11.23
Рыка	-11.2309
водзя	-11.2313
▁скарачэнне	-11.2314
бодва	-11.2315
en	-11.2317
▁вулкана	-11.2319
▁вадаём	-11.2325
▁Піса	-11.2327
▁ўтварылі	-11.2328
▁Перыяд	-11.2329
▁праход	-11.2329
▁яўленн	-11.2331
▁прызначае	-11.2332
▁ліг	-11.2332
▁адраджэнне	-11.2333
насці	-11.2337
▁Гістарычна	-11.2338
▁Хутка	-11.2338
▁нарвежскі	-11.2338
▁пясчана	-11.2338
▁прагрэс	-11.2338
▁тапонім	-11.2339
▁Жыву	-11.2339
▁ёмам	-11.234
▁завяршыла	-11.2342
▁лісця	-11.2343
▁шыра	-11.2345
▁выраша	-11.2348
▁Сар	-11.2353
▁часовы	-11.2357
▁K	-11.236
▁маральна	-11.2361
▁масіў	-11.2362
▁сцена	-11.2366
▁хронік	-11.2367
▁пакінуты	-11.2367
▁помнікам	-11.2368
лен	-11.2369
▁уведзен	-11.2372
▁адчува	-11.2372
▁працягваю	-11.2375
няцце	-11.2376
▁ўнутран	-11.2378
▁адкрывае	-11.2378
▁планавала	-11.238
▁долар	-11.238
▁выкарыста	-11.2381
▁архів	-11.2383
▁руб	-11.2383
▁Сенат	-11.2385
▁падтрыманн	-11.2385
▁калгаса	-11.2388
▁спектакл	-11.2391
▁Слуцкі	-11.2392
▁ўмов	-11.2394
▁адмоўна	-11.2396
▁дывізія	-11.2398
▁Ты	-11.2399
▁аддзяленн	-11.2402
▁Асіпові	-11.2403
▁адклада	-11.2403
▁лёт	-11.2404
▁Раб	-11.2405
▁будавалі	-11.2405
▁егіпецка	-11.2406
▁посуд	-11.2406
▁іерархі	-11.2406
▁сапрапел	-11.2406
▁фатаграфі	-11.2406
▁Сіцылі	-11.2406
▁пераўтворан	-11.2406
▁рассяленн	-11.2407
▁хмызняк	-11.2408
▁старэйшым	-11.2408
▁кіруюча	-11.2409
▁цікавы	-11.241
▁прастора	-11.2417
▁падвярга	-11.2419
▁цягніко	-11.2419
▁запрошаны	-11.242
▁Іаана	-11.2421
▁кіна	-11.2425
▁эсэ	-11.2432
▁грэка	-11.2436
▁разбіў	-11.2437
▁ўрачыста	-11.2438
▁дзеяча	-11.2439
▁Каралеўскі	-11.244
▁Бур	-11.2444
▁настаўніцк	-11.2444
▁ног	-11.2445
di	-11.2447
▁завяршэння	-11.2449
▁Справ	-11.2449
▁султана	-11.2451
▁грады	-11.2453
▁пратэсту	-11.2454
станавіў	-11.2454
▁гімназія	-11.2454
▁Томас	-11.2459
▁выхаванне	-11.246
▁Створан	-11.2461
▁Заснавальнік	-11.2462
▁Тэ	-11.2469
▁вакзала	-11.2471
▁вучон	-11.2474
▁Ленінградска	-11.2474
▁процілеглы	-11.2474
▁яднанн	-11.2475
▁карпус	-11.2475
▁ставяц	-11.2475
▁Каліноўск	-11.2475
TC	-11.2476
кватэра	-11.2481
▁Само	-11.2485
▁шэрага	-11.2489
▁ніводна	-11.2497
ойма	-11.2498
▁J	-11.2503
▁распараджэнн	-11.2505
стра	-11.2508
лізе	-11.2509
▁сыш	-11.2511
то	-11.2518
▁жон	-11.2521
▁памылк	-11.2522
▁скал	-11.2523
▁дзесяці	-11.2525
▁саўгаса	-11.2527
зімку	-11.2528
▁разлік	-11.2529
▁настаўніка	-11.253
▁Бавары	-11.2532
▁Варшава	-11.2537
▁ужывае	-11.2542
▁вузкім	-11.2542
аступова	-11.2542
▁Фарадэ	-11.2544
▁мікрараён	-11.2544
▁энцыклапеды	-11.2544
▁Аповесц	-11.2544
▁патрабую	-11.2544
▁шосты	-11.2544
▁прапанаваны	-11.2544
▁Гёт	-11.2544
▁ектыўна	-11.2545
▁забіта	-11.2545
▁зліва	-11.2548
▁Брэсцкі	-11.2549
▁прарока	-11.2551
дадзены	-11.2552
▁дзевяц	-11.2553
▁Пачат	-11.2553
ki	-11.2554
АП	-11.2554
▁крыло	-11.2554
▁перс	-11.2558
▁ўзялі	-11.2561
▁Ота	-11.2563
▁абазначэнн	-11.2567
▁Ард	-11.2569
аб	-11.257
▁Балгарыя	-11.2575
▁падрыхтава	-11.2576
▁імператарска	-11.2577
чэр	-11.2581
▁актыўным	-11.2589
▁перамо	-11.2593
▁родн	-11.2594
▁паданн	-11.2601
▁адзначаў	-11.2603
▁англічан	-11.2607
▁філасофія	-11.261
▁залежа	-11.2611
▁страта	-11.2612
▁Амстэрдам	-11.2613
▁Гагарын	-11.2613
▁перагавор	-11.2613
▁экзамен	-11.2613
▁састав	-11.2613
▁Брытанскі	-11.2613
▁злучана	-11.2615
▁ўключана	-11.2616
▁падзялі	-11.2616
▁Со	-11.2617
▁кандыдатур	-11.2617
▁псеўданім	-11.2618
▁вызвалі	-11.2624
▁Ман	-11.2625
▁хлеба	-11.2627
▁цуд	-11.2628
▁суперніка	-11.263
▁мерыдыяна	-11.2632
▁тыповы	-11.2632
▁Пакістана	-11.2633
▁актыўн	-11.2633
▁сутыкнення	-11.2634
▁вярхоў	-11.2638
▁Дон	-11.264
▁зубр	-11.2641
▁выратаванн	-11.2642
▁арэал	-11.2642
▁тэма	-11.2643
▁ўзя	-11.2643
▁Крыжа	-11.2648
▁зім	-11.2648
▁франк	-11.265
▁полюс	-11.2654
▁Альгерда	-11.2661
▁бачыл	-11.2661
▁вораг	-11.2665
▁заваяваў	-11.2668
▁пята	-11.2669
▁фармірава	-11.267
▁дробным	-11.2673
▁тунэл	-11.2673
▁лічынк	-11.2675
▁надпісам	-11.2675
▁жні	-11.2678
▁прафесі	-11.2681
▁класічн	-11.2681
▁перашкаджа	-11.2681
▁выратава	-11.2682
▁Камарын	-11.2683
▁адукацыйны	-11.2683
▁перспектыв	-11.2683
▁светапогляд	-11.2683
▁курорт	-11.2683
▁вітамін	-11.2683
▁космас	-11.2683
▁Хац	-11.2684
▁пачуццё	-11.2687
▁выканаўча	-11.2689
▁Пагон	-11.2693
▁выканаўчы	-11.2698
▁рэальны	-11.27
аліту	-11.2701
▁траўм	-11.2702
▁уключан	-11.2703
▁знішчыл	-11.2706
▁сан	-11.2711
▁панаванне	-11.2713
▁каго	-11.2719
▁Барыса	-11.2721
▁вугаль	-11.2723
▁геалагічны	-11.2724
▁тавары	-11.2724
адзення	-11.2727
▁дыпламат	-11.273
▁117	-11.2733
▁медз	-11.2734
▁тэкста	-11.2736
▁сацыял	-11.2738
▁адкрылі	-11.2742
олаг	-11.2743
радзе	-11.2745
▁цёплы	-11.2746
▁мадыфікацы	-11.2746
и	-11.2748
даючы	-11.2749
▁акты	-11.2753
▁Характэрна	-11.2753
▁канкрэтны	-11.2753
▁характарызуюц	-11.2753
▁захоплена	-11.2754
▁латын	-11.2754
▁галава	-11.2754
▁няўдач	-11.2754
▁паміра	-11.2755
▁Аўстрыйска	-11.2755
▁Указ	-11.2755
▁перакла	-11.2757
▁ўтрымліва	-11.2757
▁зменены	-11.276
▁выявіла	-11.2762
▁Рэк	-11.2764
▁ніжэйшы	-11.2768
▁Жана	-11.277
кага	-11.277
▁адзенне	-11.277
▁Азія	-11.2773
▁медаля	-11.2774
▁палажэнн	-11.2776
▁афарбоўка	-11.2777
▁здзяйсняе	-11.2779
▁вадзяны	-11.278
▁ведаю	-11.2781
▁удзельнікам	-11.2781
▁выраблялі	-11.2784
▁музыкант	-11.2786
▁таварыств	-11.2789
▁Маркс	-11.279
▁ацэнка	-11.279
▁забудова	-11.2792
▁падн	-11.2793
▁Афганістан	-11.2797
▁аналагічны	-11.2798
▁ядзерны	-11.2807
▁сацыялістычны	-11.281
▁Камітэта	-11.2824
▁абарачэнн	-11.2824
▁акупаваны	-11.2824
▁ўзмацненн	-11.2824
▁ўмерана	-11.2824
▁паўторна	-11.2825
▁коран	-11.2825
ходжанне	-11.2826
▁запрасі	-11.2826
рок	-11.2828
▁адценне	-11.2829
▁выцягнута	-11.283
▁дзяр	-11.2835
▁цікаві	-11.2837
▁палонны	-11.2838
▁паляўнічы	-11.284
▁баяво	-11.284
▁утварэнне	-11.2842
▁94	-11.2843
▁расстраляны	-11.2845
▁выказа	-11.2849
▁саслоўя	-11.2851
▁Ван	-11.2852
▁размеркаванн	-11.2855
▁казк	-11.2855
▁арыстакраты	-11.2857
▁аркестр	-11.2859
▁удар	-11.2867
▁ўладальнік	-11.2868
▁сувязя	-11.2869
▁грамадзянск	-11.2873
▁пасяджэння	-11.2877
раект	-11.2878
▁апісваю	-11.2879
▁мук	-11.2879
▁Данія	-11.2884
▁дыскусі	-11.2885
▁віна	-11.2885
▁металургі	-11.2887
▁парушэння	-11.2888
▁колерам	-11.2889
▁абірае	-11.2891
▁грамадскасц	-11.2892
▁самак	-11.2894
▁10,	-11.2895
золісты	-11.2896
▁Найвышэйшы	-11.2896
▁неадкладна	-11.2896
▁незадаволенасц	-11.2896
▁цяпл	-11.2896
▁цукровы	-11.2896
▁пыл	-11.2896
▁шэры	-11.2897
▁размах	-11.2897
▁Прынят	-11.2897
▁Садружнасц	-11.2898
▁дабрабыт	-11.2898
бн	-11.2899
▁доктарск	-11.2901
▁Азербайджана	-11.2902
▁перакладзены	-11.2902
▁НАН	-11.2903
▁адказны	-11.2904
▁раскопк	-11.2906
▁выдаваў	-11.2908
▁узнік	-11.2919
▁пераправ	-11.2921
▁Лідскі	-11.2923
▁флор	-11.2924
▁опера	-11.2927
▁царскі	-11.2927
▁шэрагам	-11.2931
▁цячэнне	-11.2932
▁1,1	-11.2933
▁103	-11.2935
▁электрона	-11.2935
▁узніка	-11.2936
арты	-11.2936
▁продка	-11.2938
▁скончы	-11.2943
▁круга	-11.2948
▁Сіл	-11.295
▁Мана	-11.2953
▁заключан	-11.2954
мен	-11.2956
▁Выда	-11.2957
▁перанесены	-11.2959
ожжа	-11.296
▁навукоўцам	-11.2962
▁кавалеры	-11.2963
▁складанасц	-11.2964
▁архітэктурна	-11.2965
▁Камісі	-11.2966
▁Вальтэр	-11.2968
▁Лорэнц	-11.2968
▁Паскевіч	-11.2968
▁Плутон	-11.2968
▁Узброены	-11.2968
▁дыктатур	-11.2968
▁дыяцэзі	-11.2968
▁змешчана	-11.2968
▁інвентар	-11.2968
▁тэарэм	-11.2968
▁Славені	-11.2968
SO	-11.2968
▁распасціра	-11.2968
▁малочны	-11.2968
▁правільна	-11.297
▁суверэнітэт	-11.2971
▁царска	-11.2972
▁перамяшча	-11.2973
▁Нігеры	-11.2973
▁Інтэрнэт	-11.2975
▁Берліна	-11.2978
▁сустрэча	-11.2982
▁89	-11.2984
▁гатычны	-11.2985
▁парушэнне	-11.2985
▁Алена	-11.2993
▁школьны	-11.2993
▁арганізацыям	-11.2994
▁сойма	-11.2995
▁Дунай	-11.2995
22	-11.2999
▁фінансаванн	-11.3005
▁Цэнтральн	-11.3007
▁камісара	-11.3007
▁заключыў	-11.3008
▁Іншым	-11.3008
▁зрок	-11.3024
▁′	-11.3024
▁смяротна	-11.3024
▁92	-11.3025
▁іграко	-11.3028
▁падтрымлівалі	-11.3032
▁чэшскі	-11.3035
▁паверха	-11.3039
▁адзначан	-11.3039
▁Глеба	-11.304
▁Аўтаномна	-11.304
▁астранамічны	-11.304
днё	-11.304
▁Шылер	-11.3041
▁калярова	-11.3042
▁падрыхтаваны	-11.3043
▁хвароба	-11.3049
▁смак	-11.3049
▁пакут	-11.3052
▁тэхніка	-11.3057
▁Пабудаван	-11.3058
▁традыцыйным	-11.3061
вання	-11.3062
▁вапняк	-11.3065
▁далучыла	-11.3066
▁азнача	-11.3067
▁ка	-11.3068
▁Суд	-11.3071
▁аснова	-11.3073
▁ужыва	-11.3076
▁Імператар	-11.3077
▁імен	-11.308
▁выступлення	-11.3084
▁карыстае	-11.3088
▁Род	-11.3093
ч	-11.3094
▁навін	-11.3095
▁незвычайна	-11.3096
гадов	-11.3098
▁маральны	-11.3105
▁Кара	-11.3108
йшло	-11.3108
▁мармур	-11.3111
▁БСГ	-11.3113
▁Вінцэнт	-11.3113
▁агламерацы	-11.3113
▁экспансі	-11.3113
▁інвестыцы	-11.3115
▁Каір	-11.3115
▁Смерц	-11.3115
▁Запавет	-11.3117
▁паплечнік	-11.3119
▁сок	-11.312
▁Ціхі	-11.3121
▁падаўленн	-11.3122
▁статуя	-11.3123
выканкам	-11.3123
цэ	-11.3124
▁родам	-11.3125
▁штогадовы	-11.3125
▁глав	-11.3125
▁супрацьстаянн	-11.3125
▁Песня	-11.3125
▁рэлігійн	-11.3126
Дзін	-11.3127
славянск	-11.3128
▁камандаванн	-11.313
▁Мазыр	-11.3133
▁спрэч	-11.3135
▁маскоўскім	-11.3136
▁намаганн	-11.3137
▁перыядам	-11.3139
▁пер	-11.3139
розна	-11.3143
▁сёмы	-11.315
▁Гор	-11.3153
▁трэнер	-11.3156
▁сядзіба	-11.3159
us	-11.316
▁акадэмік	-11.3161
▁дасягненне	-11.3161
выя	-11.3162
▁старым	-11.3163
▁102	-11.3171
ўно	-11.3175
▁брама	-11.3179
▁слабы	-11.3181
▁старшы	-11.3182
▁Ракасоўск	-11.3187
▁заканчвае	-11.3187
▁спрабуе	-11.3187
▁энергетык	-11.3187
▁экалагічны	-11.3187
▁попыт	-11.3187
▁дапаможны	-11.3188
▁мод	-11.3189
▁мо	-11.3189
▁Троцк	-11.319
▁Януш	-11.319
сен	-11.3191
▁адтулін	-11.3191
▁зняў	-11.3192
▁вяло	-11.3192
▁патрабаванне	-11.3193
▁вылучаны	-11.3193
▁святара	-11.3195
▁Карэлі	-11.3196
▁праўленн	-11.3196
▁Слонім	-11.3197
▁злучаю	-11.3197
▁220	-11.3198
▁даждж	-11.3198
▁вернуты	-11.3202
▁верас	-11.3203
▁пастанова	-11.3205
будавалі	-11.321
▁штатам	-11.3212
▁алфавіта	-11.3213
▁вертыкальна	-11.3215
▁унутр	-11.3218
▁рэформа	-11.3218
▁біскупам	-11.3219
▁Адзіны	-11.3221
скае	-11.3224
дня	-11.3226
▁візантыйска	-11.3227
▁імперск	-11.3228
▁Альберта	-11.3228
▁Сусветны	-11.323
▁Фінляндыя	-11.323
▁Кракаў	-11.3235
▁добрым	-11.3235
▁працоўн	-11.3238
▁пустыня	-11.3238
▁нядаўна	-11.3248
▁марка	-11.3249
▁Стара	-11.3252
▁імператрыц	-11.3257
▁Дзяржаўн	-11.326
▁этнаграфі	-11.326
▁аграрна	-11.3261
▁магазін	-11.3261
▁тлушч	-11.3261
▁Школ	-11.3261
▁Эры	-11.3261
▁рымскім	-11.3262
▁Багушэвіч	-11.3263
▁трамвайны	-11.3263
▁сямейны	-11.3263
▁выбарча	-11.3266
▁англійскім	-11.3268
▁нацысцка	-11.327
▁дыялекты	-11.3272
▁ўлічва	-11.3274
▁До	-11.3282
хваль	-11.3282
▁нашчадкам	-11.3283
▁воін	-11.3286
▁сведчанн	-11.3294
▁наступленне	-11.3298
▁пярэдні	-11.33
▁запіса	-11.3302
▁хлопчык	-11.3302
▁князям	-11.3306
▁кантынентальны	-11.3306
▁брытанскім	-11.3311
▁дым	-11.3316
юсты	-11.3318
каталіцка	-11.3322
▁распаўсюдзіл	-11.3322
78	-11.3323
▁паваг	-11.3324
▁эфектыўна	-11.3324
▁кантэкс	-11.333
▁ядноўва	-11.3331
обласц	-11.3334
▁здрад	-11.3334
▁Гарэцк	-11.3335
▁згадваюц	-11.3335
▁парастк	-11.3335
сляды	-11.3336
▁персанажа	-11.3337
▁нацыянальнасц	-11.3338
▁мовазнаўств	-11.3339
індзі	-11.334
▁гарача	-11.334
▁пейзаж	-11.3341
▁выпусціл	-11.3341
▁гарызонт	-11.3341
▁Працу	-11.3341
▁страва	-11.3342
▁тысячагоддз	-11.3342
▁заможны	-11.3345
▁транспартна	-11.3351
ран	-11.3353
▁асобн	-11.3355
есці	-11.3355
▁Армія	-11.3357
▁Княств	-11.3365
▁ставіла	-11.3366
▁нафта	-11.3367
▁базу	-11.3367
▁360	-11.3369
▁вярнулі	-11.3371
▁маст	-11.3375
▁Дэл	-11.3376
▁Прац	-11.3376
▁выстаўк	-11.3383
бралі	-11.3393
▁легенда	-11.3393
▁іспанск	-11.3396
▁гаворк	-11.3397
абралі	-11.3397
▁бедна	-11.3403
▁садзейніча	-11.3404
▁выпусці	-11.3405
▁пакідае	-11.3406
▁палк	-11.3407
▁газа	-11.3408
вар	-11.341
▁стратэгі	-11.341
▁МТС	-11.3411
▁растлумачы	-11.3411
▁Сустрака	-11.3411
▁паштовы	-11.3411
▁перасяленн	-11.3411
▁прыхільнасц	-11.3411
▁срэбны	-11.3411
▁Вавілон	-11.3412
▁засяленн	-11.3412
▁Пятровіч	-11.3414
▁мадэрнізацы	-11.3416
▁сапраўдным	-11.3417
▁існуючы	-11.3418
▁паспеў	-11.3418
▁сваяк	-11.3418
▁Пінска	-11.3419
▁Рыгора	-11.3419
▁служба	-11.3422
▁выпадкова	-11.3422
▁Эдуард	-11.3423
▁разумее	-11.3424
▁змянілі	-11.3426
▁наступн	-11.3427
▁перастал	-11.3427
▁тэхналагічны	-11.3427
▁Пастаўскі	-11.3429
▁муніцыпальны	-11.3429
▁ключавы	-11.3431
▁сайт	-11.3431
▁сет	-11.3432
▁аўтадаро	-11.3436
▁ўласным	-11.3436
▁валюта	-11.3437
▁Джорджа	-11.3439
▁суправаджае	-11.3442
▁патрыярха	-11.3443
▁канферэнцыя	-11.3445
▁паўабаронца	-11.3448
▁раннім	-11.3449
▁дакладнасц	-11.3449
▁скульптура	-11.3451
▁скарыста	-11.3454
▁сусветным	-11.3457
▁губернскі	-11.3458
▁практыку	-11.3459
▁суседнім	-11.3461
▁плас	-11.3464
▁ісламска	-11.3464
▁касмічна	-11.3468
▁супольна	-11.3473
▁готык	-11.3474
▁Маскоўск	-11.3478
▁109	-11.3482
▁азот	-11.3486
▁вымушана	-11.3486
▁партугальска	-11.3486
▁спартсмен	-11.3486
▁утворана	-11.3486
▁Камуна	-11.3486
▁камунікацы	-11.3486
▁Культур	-11.3487
▁Цэзара	-11.3488
▁Гітлер	-11.3489
▁Венгрыя	-11.3491
▁чэмпіёнам	-11.3491
▁астатнім	-11.3492
▁падтрымлівала	-11.3495
▁ян	-11.3503
оўвае	-11.3505
▁вільготнасц	-11.3509
▁мяня	-11.351
▁арыентавана	-11.3511
▁племе	-11.3512
▁Каран	-11.3517
дзейнасц	-11.3517
▁кангрэса	-11.3518
▁прыносі	-11.3521
▁хрыб	-11.3524
▁Афіна	-11.353
▁веда	-11.3531
▁вузе	-11.3531
▁Найбольшы	-11.3532
▁насенне	-11.3536
▁расійск	-11.3537
▁знака	-11.3537
▁пастаноўк	-11.3537
ары	-11.3539
▁адпавядал	-11.3539
▁Нів	-11.3545
▁каналам	-11.3548
▁дзеся	-11.3549
▁вартасц	-11.355
▁мусіл	-11.3551
▁публічны	-11.3552
▁Міжземна	-11.3553
▁аспект	-11.3554
▁атрыманне	-11.3555
▁Лукашэнка	-11.3555
▁імавернасц	-11.3559
▁асобам	-11.3559
▁еўрапейц	-11.3559
▁Ніла	-11.3559
▁прамавугольны	-11.3561
▁могілк	-11.3561
нае	-11.3561
▁кампазіцыя	-11.3562
▁кваліфікацы	-11.3563
▁страчаны	-11.3563
▁Толкін	-11.3563
▁рухае	-11.3563
▁Камітэт	-11.3563
▁ваг	-11.3567
▁канцлера	-11.3568
▁Сэр	-11.3572
▁кіравала	-11.3573
▁парода	-11.3577
▁1,4	-11.3578
▁кроп	-11.3579
▁ўрочышч	-11.358
▁перамога	-11.3581
лівы	-11.3581
▁пераслед	-11.3586
▁129	-11.3587
▁праліва	-11.3587
▁выяв	-11.3596
▁заваявал	-11.3604
▁саюзнікам	-11.361
▁мусульмане	-11.3612
▁батальён	-11.3613
вялі	-11.3613
▁пакладзен	-11.3614
▁разглядаю	-11.3615
▁Лівонск	-11.3616
▁прыбыт	-11.3618
▁Рыжск	-11.3619
▁калегіум	-11.3621
▁Нарвегія	-11.3624
▁мячо	-11.3628
▁n	-11.3631
▁старажытным	-11.3633
дзясят	-11.3635
▁Лідск	-11.3639
▁Лявон	-11.364
▁Пераважа	-11.364
▁Прыднястроў	-11.364
▁самагубства	-11.364
▁ўмераны	-11.364
▁партугальц	-11.364
▁кліматычны	-11.364
▁каэфіцыент	-11.364
▁прасоўванн	-11.3644
▁Lin	-11.3649
▁ператвораны	-11.3653
▁Навагрудскі	-11.3655
▁прадпрымальнік	-11.3655
▁пласцінк	-11.3657
▁адлюстроўваю	-11.3659
▁звыча	-11.3659
тры	-11.3663
▁119	-11.3664
▁непасрэдны	-11.367
водзіла	-11.3673
эр	-11.3677
▁вал	-11.3679
▁былым	-11.368
▁механічна	-11.3681
▁пас	-11.3682
▁аўтаномны	-11.3692
▁жыхарам	-11.3693
▁Паўл	-11.3697
▁Баранавіцк	-11.3698
▁Літаратур	-11.3705
▁зван	-11.3712
▁змянення	-11.3712
▁ключ	-11.3713
▁натуральным	-11.3715
▁экватар	-11.3717
▁Дэпутат	-11.3717
▁Месапатамі	-11.3717
▁звіліста	-11.3717
▁інтэрпрэтацы	-11.3717
▁карчм	-11.3717
▁этнас	-11.3717
▁прымыка	-11.3717
▁спынена	-11.3718
наменк	-11.3719
▁хваляванн	-11.3722
▁Порт	-11.3722
▁Жэнев	-11.3723
▁гадавы	-11.3724
▁надрукава	-11.3724
▁Цікава	-11.3727
▁рыса	-11.3728
▁Фердынанд	-11.3728
раў	-11.3729
▁заявіл	-11.373
апар	-11.3731
▁Харваты	-11.3731
▁ўмоў	-11.3733
▁дасягал	-11.3733
▁пакараны	-11.3734
рак	-11.3743
▁батальёна	-11.3744
▁праваслаўным	-11.3745
▁гул	-11.3746
▁аддае	-11.3747
▁магната	-11.3747
▁Каталіцка	-11.3748
▁стол	-11.3753
наў	-11.3757
сь	-11.3759
▁Ноўгарада	-11.3761
▁прысутнічал	-11.3764
▁гутарк	-11.3764
▁забі	-11.3765
▁ўзнік	-11.3765
чэй	-11.3765
▁складан	-11.3765
▁гетман	-11.3766
▁палкоўніка	-11.3766
▁чытач	-11.3768
▁Рэн	-11.3769
▁дзіркі	-11.377
▁першапачатковы	-11.3774
▁кручэнн	-11.3776
▁пражы	-11.3777
▁Гэтым	-11.3777
▁Усебеларуск	-11.3779
▁Месца	-11.3781
▁пераемнікам	-11.3783
▁праграмна	-11.3783
▁здзейсніл	-11.3784
▁праціўнікам	-11.3785
▁1940-	-11.3785
▁блока	-11.3786
ваяваў	-11.3786
▁хво	-11.3786
▁Галі	-11.3788
▁падпарадкаваны	-11.3789
▁Пер	-11.3791
▁Скірмунт	-11.3794
▁лацінскі	-11.3795
▁Жо	-11.3795
▁240	-11.3795
▁Галанды	-11.3795
▁Нямецка	-11.3795
▁беспрацоў	-11.3795
▁вярчэнн	-11.3795
▁падарожніча	-11.3795
▁прэтэнзі	-11.3795
▁самасвядомасц	-11.3795
▁імпульс	-11.3795
▁вулканічна	-11.3795
▁аматара	-11.3795
▁Вось	-11.3795
чай	-11.3796
▁Рэспубліканска	-11.3796
▁работа	-11.3797
▁Аснова	-11.3797
▁Львов	-11.3797
валас	-11.3797
▁нараджэнн	-11.3801
▁Коўн	-11.3802
▁раздзела	-11.3803
▁дзеда	-11.3804
▁сплав	-11.3805
▁спецыяліст	-11.3811
09	-11.3811
▁выконвала	-11.3812
▁выяві	-11.3814
▁выглядае	-11.3816
▁выслан	-11.3816
▁вызначаюц	-11.3818
▁цягніка	-11.3819
▁Ко	-11.3819
▁Арганізацыя	-11.3822
▁Друкава	-11.3822
▁Габсбург	-11.3825
▁ураўнення	-11.3825
▁паслядоўнік	-11.3829
▁перасялі	-11.3831
азвіццё	-11.3832
▁паставіл	-11.3835
▁кавалк	-11.3842
▁мёртвы	-11.3843
се	-11.3844
▁прыбыцц	-11.3847
▁кафедральны	-11.385
▁транспарта	-11.3852
▁паветр	-11.3854
▁зіму	-11.3855
▁прынца	-11.3857
▁набывае	-11.3859
▁утрымлівае	-11.3861
▁адчувае	-11.3862
▁любым	-11.3864
ост	-11.3864
▁се	-11.3869
▁бронз	-11.3872
▁Падобны	-11.3874
▁Шродзінгер	-11.3874
▁канкурэнцы	-11.3874
▁сквер	-11.3874
▁Інша	-11.3874
▁рэзалюцы	-11.3874
▁крымінальна	-11.3874
▁мемарыяльна	-11.3874
▁ўчастка	-11.3875
▁акадэмічны	-11.3876
▁адваротны	-11.3877
▁выдатным	-11.3877
валіся	-11.3878
▁пераможца	-11.3883
▁прадпрыемствам	-11.3883
▁друкаваны	-11.3884
▁гасцініц	-11.3885
▁гатунк	-11.3889
▁даты	-11.3889
▁вугл	-11.389
▁суддзя	-11.3891
▁ўключа	-11.3891
▁паказана	-11.3893
▁адыш	-11.3894
▁абазначае	-11.3894
▁некал	-11.3898
▁салон	-11.39
▁парад	-11.3901
▁ахоўны	-11.3907
▁Расійск	-11.391
▁міф	-11.3911
▁авары	-11.3916
▁паравы	-11.3918
▁пераходны	-11.392
▁напружанасц	-11.3927
▁магіла	-11.3932
правы	-11.3936
▁праіснавал	-11.3936
нізу	-11.3939
▁Франц	-11.3943
▁слоўніка	-11.3944
c	-11.3946
▁Джэймса	-11.3947
▁прыцягну	-11.3947
▁крымскі	-11.3948
Ш	-11.3948
▁Асеці	-11.3953
▁Дэкларацы	-11.3953
▁Мараві	-11.3953
▁Сінгапур	-11.3953
▁банкнот	-11.3953
▁максімум	-11.3953
▁шляхецкі	-11.3953
▁будызм	-11.3953
▁Людзі	-11.3954
▁стральб	-11.3955
▁цэнтральным	-11.3955
▁варыянта	-11.3955
▁акадэмічна	-11.3955
#	-11.3956
▁абло	-11.3965
▁сотня	-11.3966
▁званн	-11.3969
▁кафедра	-11.397
▁Від	-11.3972
▁Тако	-11.3972
▁аднавіў	-11.3976
▁камяні	-11.3979
▁хроніка	-11.3981
▁сучаснік	-11.3981
▁належы	-11.3983
▁майстрам	-11.3986
▁пагража	-11.3988
даўна	-11.3989
▁кабінет	-11.399
▁ворагам	-11.3995
▁майстэрня	-11.4001
▁практыка	-11.4004
▁матэматы	-11.4004
▁перадава	-11.4006
▁перасяленц	-11.4008
▁ператвары	-11.4017
▁він	-11.4018
▁Шарл	-11.4018
▁студэнтам	-11.4019
оны	-11.4021
▁прыведзены	-11.4021
▁Верш	-11.4021
▁Гэт	-11.4024
▁прыводзяц	-11.4028
▁Пачаў	-11.4029
▁Ча	-11.403
▁звольн	-11.4033
▁цыліндр	-11.4033
▁уласцівы	-11.4033
▁Сілезі	-11.4033
▁фундаментальны	-11.4033
▁суседня	-11.4033
▁матэрыялам	-11.4033
▁кармленн	-11.4034
▁Амерыканска	-11.4034
твараючы	-11.4034
▁аплат	-11.4037
▁Беластоцка	-11.4038
▁намаганням	-11.4038
▁экспанат	-11.404
▁блізкім	-11.4041
▁Ніл	-11.4047
▁абарона	-11.4051
▁79	-11.4054
▁тычы	-11.4054
▁вымярэнн	-11.4056
▁мітрапаліт	-11.4063
раўне	-11.4077
▁целам	-11.4078
▁Сусветн	-11.4081
▁скур	-11.4081
▁пакаранне	-11.4083
▁арганізатара	-11.4089
▁настаўніцкі	-11.4092
▁выяўленн	-11.4093
▁замяніў	-11.4093
▁ўяўляла	-11.4094
▁нападнік	-11.4095
▁рушы	-11.4097
права	-11.4098
вэ	-11.41
▁быцц	-11.41
▁аперацыйна	-11.4106
▁Слабад	-11.4108
▁выбарчы	-11.4108
▁81	-11.4112
▁Бенедыкт	-11.4114
▁багаслоў	-11.4114
▁канцыляры	-11.4114
▁нізоў	-11.4114
▁Княз	-11.4114
▁мітынг	-11.4114
▁індаеўрапейск	-11.4115
▁краёва	-11.4115
▁закрыта	-11.412
▁сербскі	-11.4123
▁ігр	-11.4125
▁знікненн	-11.4127
▁ўнёс	-11.4128
▁Статута	-11.4129
▁геаметрычны	-11.4129
▁перавага	-11.413
▁італьянскім	-11.4132
▁паказва	-11.4132
▁Праца	-11.4134
▁Вена	-11.4134
▁ўрадам	-11.4135
▁Славацка	-11.4137
▁сцвярджэнн	-11.4137
▁паэтам	-11.4138
▁здзяйсня	-11.4143
▁Гедзіміна	-11.4144
▁Хуан	-11.4147
▁Лес	-11.4147
▁ўцёк	-11.4148
▁ападк	-11.4149
▁стандартны	-11.4151
▁электронна	-11.4152
▁арнамент	-11.4152
▁казн	-11.4155
▁раслінны	-11.4156
дае	-11.4158
▁жыццёвы	-11.4162
▁перай	-11.4163
▁дзіц	-11.4163
▁збіраў	-11.4168
▁утварыў	-11.4173
▁Анатол	-11.4173
▁электрычнасц	-11.4181
▁спявачка	-11.4182
▁садзейнічал	-11.4186
▁імператарскі	-11.4187
▁знішчэнне	-11.4188
рду	-11.4189
▁Гітлера	-11.4193
▁размер	-11.4193
▁Нямецкі	-11.4195
▁біялагічна	-11.4195
▁зачынены	-11.4195
▁мёд	-11.4195
▁офіс	-11.4195
▁полацк	-11.4197
▁файл	-11.4198
▁ўпада	-11.42
29	-11.42
▁багатым	-11.4202
▁Баварыя	-11.4209
▁тлумачэнне	-11.421
маёр	-11.421
▁туры	-11.4211
▁астэроід	-11.4213
▁авалода	-11.4215
▁акупацыйны	-11.4218
▁кандыдатам	-11.4221
▁сусвет	-11.4222
беларуску	-11.4224
▁разведк	-11.4225
▁прыродазнаў	-11.4226
▁нечакана	-11.4227
▁камуністычны	-11.4228
▁Корм	-11.4229
▁прынцыпа	-11.423
▁вагання	-11.4231
▁прада	-11.4233
палітычна	-11.4234
▁уласн	-11.4237
▁праве	-11.4239
▁сенатара	-11.424
▁адукацыя	-11.4242
▁намінацы	-11.4245
▁праспект	-11.425
▁звязвае	-11.4253
каса	-11.4258
▁вырашы	-11.4258
▁мільярда	-11.4266
▁пасляваенны	-11.4267
▁практычны	-11.4267
яўляў	-11.4268
роўні	-11.427
ніва	-11.427
▁сценк	-11.4272
▁Фронт	-11.4277
▁акупавана	-11.4277
▁генацыд	-11.4277
▁прымяня	-11.4277
▁стасунк	-11.4277
▁Тэадор	-11.4277
▁дружын	-11.4277
▁Колер	-11.4277
▁паэтычна	-11.4277
▁этнаграфічны	-11.4278
▁Тарас	-11.4278
▁гравітацыйна	-11.4278
▁крон	-11.4281
▁Кук	-11.4281
▁Фёдаравіч	-11.4281
▁Поўнач	-11.4284
▁зале	-11.4285
▁пляцоўка	-11.4286
▁Маладо	-11.4286
▁веравызнання	-11.4286
▁тэрміналогі	-11.4286
▁падобным	-11.4289
▁Гам	-11.429
▁гадзіннік	-11.429
▁даходзі	-11.4291
▁хапа	-11.4293
кагор	-11.4295
▁тэхні	-11.4297
▁канструкцыя	-11.4299
▁шпіталь	-11.4301
▁Залат	-11.4302
аўна	-11.4303
▁Лізавета	-11.4308
▁Гара	-11.4308
▁парламенцка	-11.431
▁стратэгічна	-11.4312
▁мера	-11.4312
▁шч	-11.4321
▁трапе	-11.4322
▁абяца	-11.4324
▁будуч	-11.4325
▁староста	-11.4328
▁зме	-11.4329
▁майстро	-11.433
▁разглядаў	-11.4331
▁шкл	-11.4331
▁Адэс	-11.4334
▁базілік	-11.4335
▁многім	-11.4336
▁нізкім	-11.4336
▁Пакістан	-11.4336
▁злучэнне	-11.4337
▁Леанід	-11.4337
▁галасаванне	-11.434
▁мусульманскі	-11.4341
▁незалежн	-11.4342
▁родным	-11.4345
▁рэлігійным	-11.4347
▁армянска	-11.435
▁Перакла	-11.4352
▁Індыйскі	-11.4353
▁Алег	-11.4356
▁імкне	-11.4356
рафесар	-11.4358
ўсходні	-11.4359
▁няс	-11.4359
▁Амерыка	-11.4359
▁Тэатр	-11.436
▁Высокі	-11.436
▁Караткевіч	-11.436
▁Крыштаф	-11.436
▁Скандынаві	-11.436
▁Тайланд	-11.436
▁нарвежска	-11.436
▁нацыяналізм	-11.436
▁сённяшня	-11.436
▁юрысдыкцы	-11.436
▁карэнна	-11.436
▁пратэстанцкі	-11.436
▁працаўнік	-11.436
▁лекавы	-11.436
▁паэтэс	-11.4361
▁перакладае	-11.4361
▁метан	-11.4361
▁цыган	-11.4362
▁бронзава	-11.4362
▁дапамагае	-11.4364
▁ясна	-11.4366
ярнуўшыс	-11.4366
▁субот	-11.4368
▁сялянам	-11.4369
▁том	-11.437
▁насенн	-11.437
▁водн	-11.4372
▁ліквідавана	-11.4373
▁праходжанн	-11.4374
▁бухт	-11.4375
аўж	-11.4379
▁атак	-11.4384
йны	-11.4385
▁Тар	-11.4385
▁лекар	-11.4389
▁архіва	-11.4389
▁тлумачэння	-11.439
▁атам	-11.439
▁явік	-11.4398
▁успаміна	-11.44
ноў	-11.4401
▁павольна	-11.441
▁манархія	-11.4411
▁Кор	-11.4414
яўляе	-11.4421
▁знешнім	-11.4425
▁скасаванн	-11.4426
▁сімвала	-11.4431
▁архіў	-11.4438
актычна	-11.444
▁50-	-11.444
акол	-11.4441
▁дошка	-11.4442
▁акта	-11.4442
▁ліцэ	-11.4443
▁Узбекістан	-11.4443
▁бежанца	-11.4443
▁зараснік	-11.4443
▁насельнік	-11.4443
▁супол	-11.4445
▁прапануе	-11.4445
▁мелоды	-11.4445
▁хоча	-11.4447
▁яднаў	-11.4449
▁вырас	-11.4456
▁Багародзіц	-11.4459
▁прыкметны	-11.4463
▁заваяванн	-11.4464
дне	-11.4466
▁выдавец	-11.4469
▁памешчыка	-11.4474
h	-11.4483
▁рэспублі	-11.4487
▁Навагрудк	-11.4489
▁дыпламатычн	-11.4489
▁парламенц	-11.449
▁Рэчыцкі	-11.4492
▁збірае	-11.4495
твораны	-11.4496
▁Юзаф	-11.4496
▁султан	-11.4497
дадзена	-11.4498
▁мусульманска	-11.45
▁вярхоўн	-11.4501
▁яйк	-11.4502
овак	-11.4504
▁распаўсюджаным	-11.4506
▁Партугалія	-11.4511
ростам	-11.4513
▁Эдуарда	-11.4514
▁ведае	-11.4515
▁нарад	-11.4521
▁2,2	-11.4522
▁гармоні	-11.4524
▁стужка	-11.4524
▁Жыткавіцкі	-11.4524
▁заселены	-11.4526
▁мядзведз	-11.4527
▁вытворчы	-11.4527
▁радыёстанцы	-11.4527
▁фарміруе	-11.4527
▁Вісл	-11.4527
▁Будучы	-11.4527
▁плот	-11.4527
▁носьбіт	-11.453
▁дажджо	-11.4533
▁палярна	-11.4534
▁дэп	-11.4535
▁акун	-11.4537
▁гульц	-11.4538
▁дэлегат	-11.4539
▁Клецк	-11.4542
▁аптэк	-11.4543
▁раскоп	-11.4552
▁стварэннем	-11.4553
▁супраціўленн	-11.4554
▁Франціш	-11.4556
▁ўзяцц	-11.4561
▁страх	-11.4569
▁Агінскі	-11.457
▁цагляны	-11.4571
▁Будн	-11.4578
▁Грузія	-11.4579
▁прынц	-11.458
▁ратуша	-11.458
▁тэарэтычны	-11.4582
▁выразны	-11.4582
▁адчуванн	-11.4583
▁Радзім	-11.4585
▁Ля	-11.4592
▁Індыйск	-11.4601
няў	-11.4602
віл	-11.4603
▁Нігер	-11.4605
▁крыл	-11.4606
▁Мін	-11.4606
▁віч	-11.4606
▁Франца	-11.4607
▁паказа	-11.4607
▁змяшчаюц	-11.4608
▁рэакцыя	-11.461
сеўданім	-11.461
▁Цэзар	-11.4611
▁co	-11.4611
▁Вывуча	-11.4612
▁вымусіл	-11.4612
▁дыялог	-11.4612
▁рухомы	-11.4612
▁Выбар	-11.4612
▁пералічаны	-11.4613
▁Вясно	-11.4613
▁камет	-11.4613
▁прысяг	-11.4613
▁перажы	-11.4613
▁святкаванн	-11.4614
сіп	-11.4618
▁сфарміравала	-11.4618
▁праваслаўн	-11.4619
▁Леон	-11.4622
МС	-11.4624
▁падводна	-11.4626
▁чэмпіёна	-11.4628
▁Брат	-11.463
ішча	-11.4632
▁косц	-11.4633
▁le	-11.4635
▁пераста	-11.4635
дар	-11.4635
▁вершам	-11.4636
▁клубам	-11.4638
▁Паўстанн	-11.4638
▁напрам	-11.4639
▁каралеўскім	-11.464
▁узора	-11.4643
▁чытання	-11.4644
▁Ігнат	-11.4647
▁гіпотэза	-11.4648
▁хрыбт	-11.4658
▁захварэ	-11.466
▁Бак	-11.466
▁паўплыва	-11.4666
▁ацэньвае	-11.4666
▁ютарна	-11.4668
▁кардынал	-11.4677
▁Казахстана	-11.4682
▁Гер	-11.4684
▁дзяржавам	-11.4684
Венгры	-11.4685
▁карыстальніка	-11.4685
▁асаблівасцям	-11.4688
▁май	-11.469
▁плоскі	-11.4691
▁Ленінска	-11.4691
▁зямельн	-11.4693
▁складаным	-11.4694
атлавіна	-11.4695
ожна	-11.4696
аспяхова	-11.4696
▁Жак	-11.4697
▁Лейпцыг	-11.4697
▁выдзяляюц	-11.4697
▁Алімпіяд	-11.4697
▁культавы	-11.4698
▁сфарміраваны	-11.47
▁падручнік	-11.4701
ены	-11.4702
▁кантынентальн	-11.4705
▁правапіс	-11.4706
▁маладосц	-11.4707
▁мадэляў	-11.4707
▁Мех	-11.4708
▁спаборніцтв	-11.4708
▁напісанне	-11.471
▁згуляў	-11.4712
▁страў	-11.4712
▁станоўчы	-11.4713
▁замах	-11.4716
▁Гвінея	-11.4719
Е	-11.472
▁працягну	-11.4721
▁Луіс	-11.4722
▁ажыццяўляла	-11.4723
▁падтрымка	-11.4725
▁пашыры	-11.4727
▁налічва	-11.473
▁Тураў	-11.473
▁Афганістана	-11.473
▁пару	-11.4733
▁пачатков	-11.4735
▁Прыма	-11.4737
▁дывізіён	-11.4741
▁жаданн	-11.4747
зэ	-11.4749
▁спадчына	-11.4749
▁прыватным	-11.4749
▁вытворца	-11.475
▁муніцыпалітэт	-11.4753
▁Значны	-11.4753
▁Чж	-11.4754
▁наданн	-11.4757
рашова	-11.4759
▁арэала	-11.476
▁Купала	-11.4762
▁акцёра	-11.4762
▁Вол	-11.4762
▁устаноўлены	-11.4766
▁w	-11.477
▁Луцкевіч	-11.4771
▁афіц	-11.4771
▁Ло	-11.4773
▁сельскага	-11.4774
▁самастойнасц	-11.4776
▁славу	-11.4779
ключаны	-11.478
▁Актыўна	-11.4784
▁Вольфганг	-11.4784
▁Віленшчын	-11.4784
▁Чарнагоры	-11.4784
▁памяншае	-11.4784
▁імпарт	-11.4784
▁Буйнейшы	-11.4784
▁электрамагнітна	-11.4784
▁баланс	-11.4784
▁Працэс	-11.4784
▁правільны	-11.4784
▁шкал	-11.4784
▁Белавежска	-11.4784
▁Дзеянн	-11.4785
▁Бобр	-11.4787
▁Бельск	-11.4789
▁Тагор	-11.4789
▁трапля	-11.4791
▁партызанск	-11.4794
▁Магілёўскі	-11.4801
▁зорны	-11.4808
▁выйграл	-11.4808
▁чыноўніка	-11.4813
вызваленча	-11.4814
▁кадра	-11.4815
▁матэматыка	-11.4823
▁памыл	-11.4823
▁езуіт	-11.4824
▁Далёкі	-11.4825
упак	-11.4834
▁народным	-11.4834
▁патрабавал	-11.4835
▁малым	-11.4836
рода	-11.4839
▁падлог	-11.4839
▁ўжывал	-11.4842
▁гульца	-11.4843
▁журналістык	-11.4843
▁уладальнік	-11.4845
▁стар	-11.4846
іста	-11.4852
▁кароткім	-11.4853
▁крытычны	-11.4853
несены	-11.4856
▁снеж	-11.4856
▁летапісе	-11.4858
▁збожжа	-11.4858
▁101	-11.4861
▁адступленн	-11.4863
▁мужам	-11.4863
▁індывідуальны	-11.4865
▁кінатэатр	-11.4866
▁археалагічна	-11.4868
▁крыжовы	-11.4869
▁Ja	-11.4869
▁дабі	-11.487
Айрэс	-11.4871
▁Ластоўск	-11.4871
▁абумоўлены	-11.4871
▁партугальскі	-11.4871
▁рэкамендацы	-11.4871
▁форум	-11.4871
▁харугв	-11.4871
▁паклал	-11.4871
▁Intern	-11.4871
▁юнацтв	-11.4871
▁Луўр	-11.4871
▁Берасцейска	-11.4871
▁спрыяльны	-11.4871
▁нябесны	-11.4871
▁ліквідаваны	-11.4872
▁э	-11.4874
▁каранацы	-11.4874
▁карона	-11.4874
▁прымяненн	-11.4874
▁Судана	-11.4875
▁Ірака	-11.4875
кавы	-11.488
▁грамата	-11.4885
▁Бельгія	-11.4889
▁палата	-11.489
▁скопішча	-11.489
▁Усясла	-11.4892
▁Лагойск	-11.4894
уэна	-11.4896
▁дыялекта	-11.4896
▁балета	-11.4902
▁спадчынны	-11.4908
небе	-11.4911
▁сек	-11.4915
▁метры	-11.4923
▁апорны	-11.4929
▁сп	-11.4932
▁соль	-11.4936
▁Гу	-11.4941
▁забяспечва	-11.4942
▁Акадэмія	-11.4943
▁цягну	-11.4946
▁праблемам	-11.4946
▁перабра	-11.4947
▁Казан	-11.4955
ge	-11.4958
▁воля	-11.4958
▁лейб	-11.4958
▁Карысны	-11.4958
▁паседжанн	-11.4958
▁рамантызм	-11.4958
▁колішня	-11.4958
▁феадальны	-11.4958
▁Праграм	-11.4958
трэ	-11.496
▁Праўд	-11.4961
▁фінанса	-11.4961
▁патрапіл	-11.4963
▁фігура	-11.4965
▁пазнаёмі	-11.4967
▁гняздо	-11.4968
▁працягнула	-11.4971
▁прэзідэнцка	-11.4971
▁Хан	-11.4972
▁Скота	-11.4973
▁трэц	-11.4975
▁палявы	-11.4978
▁уладальнікам	-11.4978
▁поласц	-11.4979
▁Бон	-11.498
атэ	-11.498
▁хрыбто	-11.4984
апісаў	-11.4985
▁канцэрта	-11.4987
▁прадстаўлял	-11.4988
▁Камен	-11.4989
▁пытанням	-11.4991
▁Кейстута	-11.4992
В	-11.4996
▁зло	-11.5005
▁ўнутраным	-11.5007
▁дэталя	-11.5007
▁Гава	-11.5008
▁Люблін	-11.5011
▁батанічны	-11.5014
▁пашыра	-11.5016
▁Бор	-11.5017
▁даручэнн	-11.5022
фарбоўка	-11.5022
▁вышэйшым	-11.5024
▁абслугоўвае	-11.5027
▁адрознівала	-11.5027
▁Веж	-11.5031
▁трамвая	-11.5032
▁Фердынанда	-11.5034
▁знішчы	-11.5035
▁Маса	-11.5036
амарн	-11.5036
льк	-11.5038
▁карыстанн	-11.5038
▁Ша	-11.504
▁прытул	-11.504
▁афармленн	-11.5043
▁Між	-11.5046
▁выпрабавання	-11.5046
▁Высока	-11.5047
▁Кастус	-11.5047
▁адметны	-11.5047
▁акалічнасц	-11.5047
▁нябесна	-11.5047
▁працэдур	-11.5047
▁Галактык	-11.5047
▁Чаплін	-11.5047
▁Дамаск	-11.5047
▁Альфонс	-11.5047
▁селянін	-11.5047
▁Аўрэліян	-11.5047
▁прыбярэжна	-11.5049
va	-11.5051
▁зня	-11.5055
▁Лукашэнк	-11.5056
▁пашырыла	-11.5056
▁міліцы	-11.5061
▁паведамля	-11.5066
▁вузло	-11.5066
▁дамова	-11.5067
▁межан	-11.5068
▁гербам	-11.5074
▁даросл	-11.5075
▁Буда	-11.5076
▁выяўля	-11.5082
▁Грыгоры	-11.5085
▁доўжыл	-11.5087
▁разнастайна	-11.5088
▁масто	-11.5091
больш	-11.5093
▁лексік	-11.5094
▁прысуджан	-11.5105
▁старон	-11.5105
▁дзяленне	-11.5107
▁РК	-11.5108
▁давалі	-11.5108
▁замацава	-11.5111
жы	-11.5112
men	-11.5113
▁мыса	-11.5116
▁адзнака	-11.5116
▁мянушка	-11.5117
носі	-11.5119
▁Гарадскі	-11.5124
▁успамін	-11.5127
танцы	-11.513
▁перапрацоўк	-11.513
▁прысуд	-11.513
▁амерыканц	-11.5135
▁Мов	-11.5135
▁Жыў	-11.5136
▁Рузвельт	-11.5136
▁вытворны	-11.5136
▁канкрэтна	-11.5136
▁Адкрыты	-11.5136
▁Гес	-11.5137
▁Акіян	-11.5137
▁Пскоўска	-11.5137
▁Кітайска	-11.5138
▁міфа	-11.5139
▁Газет	-11.514
▁княствам	-11.514
▁пазначаны	-11.5142
▁вернасц	-11.5144
▁Александры	-11.5146
▁нізінны	-11.5148
▁захапленне	-11.5149
▁тыпам	-11.515
▁валоданн	-11.5151
▁газавы	-11.5152
▁стыля	-11.5152
іжэй	-11.5153
дро	-11.5153
▁магістрал	-11.5155
▁спектакля	-11.5156
▁Томаса	-11.5157
▁сацыялістычн	-11.5163
▁канстытуцыйна	-11.5167
▁збіралі	-11.5167
▁перадал	-11.5175
▁дзядзьк	-11.5178
▁індывідуальна	-11.5179
▁ДП	-11.5183
▁Ватыкан	-11.5186
▁пасяленн	-11.5187
▁Фонд	-11.5188
▁дзеця	-11.5188
▁плаванн	-11.5189
▁мясцін	-11.5194
▁Прыкладам	-11.52
▁ўзвядзенн	-11.5201
▁маё	-11.5201
▁палкоўнік	-11.5203
моўна	-11.5205
▁дзейн	-11.5209
▁Ву	-11.521
▁жывым	-11.5212
▁землям	-11.5213
▁простым	-11.5216
▁выканаўч	-11.5219
▁архітэктура	-11.5223
▁арыгінал	-11.5223
▁Лінкальн	-11.5226
▁Пераважна	-11.5226
▁Хельсінк	-11.5226
▁агрэсі	-11.5226
▁егіпцян	-11.5226
▁Цюрых	-11.5226
▁аргумент	-11.5226
▁фашыст	-11.5226
▁Балтыйскі	-11.5227
▁раўнаваг	-11.5227
▁Лейбніц	-11.5227
▁крайня	-11.5227
▁праезд	-11.5227
▁згаданы	-11.5228
мэ	-11.5234
▁каштоўн	-11.5234
▁Даследаванн	-11.5235
▁збожжавы	-11.5239
▁патрабавання	-11.524
▁тактык	-11.5244
▁Быхаў	-11.5244
▁фальвар	-11.5248
▁разглядала	-11.5253
▁наведвання	-11.5253
▁праціўнік	-11.5253
▁108	-11.5256
▁дваранскі	-11.5259
▁конкурса	-11.526
▁кіт	-11.5261
▁кіеўск	-11.5261
▁Мексі	-11.5262
▁грэч	-11.5262
▁Гур	-11.5263
▁кляштара	-11.5263
▁збіраю	-11.5264
▁прыкмета	-11.5267
▁падзеям	-11.5269
▁забяспечвал	-11.5271
▁патрабаваў	-11.5274
▁вестк	-11.5278
▁Эфіопі	-11.5279
▁абалонка	-11.5281
▁ачко	-11.5281
ек	-11.5287
▁вернік	-11.5287
▁перавозк	-11.5287
▁ваганн	-11.5294
▁16-	-11.5297
▁Чэ	-11.5301
▁выбіра	-11.5302
▁ездзі	-11.5305
▁публік	-11.5307
▁вяшчанн	-11.5308
овай	-11.5309
▁намінал	-11.5312
лін	-11.5313
▁вайскоўца	-11.5313
▁назіральніка	-11.5313
▁знішчыў	-11.5317
▁Капенгаген	-11.5317
▁Парфенон	-11.5317
▁Танзані	-11.5317
▁бавоўн	-11.5317
▁нязменна	-11.5317
▁скарочана	-11.5317
▁вязн	-11.5317
▁рэпертуар	-11.5317
▁Зеўс	-11.5317
▁Якава	-11.5318
38	-11.5318
▁Прычына	-11.5319
▁падвід	-11.5319
беларуск	-11.532
зіць	-11.5323
▁выкарыстана	-11.5324
▁Кі	-11.5327
АК	-11.5328
▁водгук	-11.5329
▁азначэння	-11.5331
▁Вілі	-11.5336
▁плацін	-11.5337
ызацы	-11.5338
▁Цар	-11.534
▁121	-11.535
▁Юзафа	-11.5351
▁абсталяваны	-11.5354
▁Менска	-11.5355
▁камунізм	-11.5355
▁пісьменнікам	-11.5356
▁надаў	-11.5357
▁аддзеле	-11.5358
▁выслана	-11.5358
▁Знак	-11.536
▁гуманітарны	-11.5365
▁звязваю	-11.5371
ндзі	-11.5371
▁Румынія	-11.5372
▁капітан	-11.5378
▁перыяды	-11.5378
▁вырошчваю	-11.5382
▁слуп	-11.5384
▁дыплом	-11.5384
▁Асаблівасц	-11.5384
бы	-11.5386
▁схіле	-11.5391
▁звычая	-11.5393
камі	-11.5393
▁павышэнне	-11.5395
▁узвышша	-11.5395
▁займаем	-11.54
▁сора	-11.5401
▁гульнявы	-11.5402
▁педагагічн	-11.5403
▁жылл	-11.5403
▁прымяненне	-11.5405
▁варожы	-11.5406
▁спадзява	-11.5406
▁краязнаўчы	-11.5406
▁Хрысціян	-11.5407
▁дзіка	-11.5408
▁Гродзеншчын	-11.5409
▁абумовіл	-11.5409
▁дыяспар	-11.5409
▁спынены	-11.5409
▁швейна	-11.5409
▁эмоцы	-11.5409
▁ледавіка	-11.5409
▁Бацькаўшчын	-11.5409
▁Малдаўска	-11.5409
▁Тамаш	-11.5409
▁выводзі	-11.541
▁Клуб	-11.541
▁Ваза	-11.541
▁пан	-11.5411
▁самка	-11.5411
▁функцыянаванн	-11.5418
▁грузавы	-11.542
▁небяспечны	-11.5422
▁добр	-11.5423
▁аэрапорта	-11.5425
▁сыр	-11.5426
дзялення	-11.5428
▁водарасц	-11.543
▁арганізавал	-11.5431
▁абставін	-11.5432
▁вызначала	-11.5436
▁рэзкі	-11.5436
▁геалогі	-11.5436
▁Ельскі	-11.5438
▁перавоз	-11.544
вер	-11.544
▁перайменавана	-11.5441
-10	-11.5442
▁пераемнік	-11.5445
▁прыз	-11.5449
рон	-11.5449
▁рэгіянальна	-11.5449
▁лацінк	-11.545
▁свабода	-11.5452
▁11-	-11.5452
▁асабістым	-11.5453
▁Валынска	-11.5455
▁Gr	-11.5456
▁славацка	-11.5458
▁пашкоджаны	-11.5459
▁ацані	-11.5461
▁кругла	-11.5462
▁сума	-11.5468
заходнім	-11.5479
▁груза	-11.5481
▁навакольным	-11.5482
▁графічны	-11.5483
▁слов	-11.5485
▁падыходзі	-11.5485
▁утрыманне	-11.5486
▁60-	-11.5488
▁Кан	-11.5489
▁праніка	-11.549
▁гал	-11.5497
▁Гістарычны	-11.5501
▁блакітна	-11.5501
▁прадзюсар	-11.5501
▁старадаўні	-11.5501
▁суцэльна	-11.5501
▁штодзённа	-11.5501
▁ўзброена	-11.5501
▁кузава	-11.5503
▁Ампер	-11.5503
▁восьмы	-11.5504
оўны	-11.5505
▁інтэграцы	-11.5506
▁Вінч	-11.5509
▁купц	-11.5512
▁носьбіта	-11.5513
▁роспіс	-11.5515
▁ледавіковы	-11.5518
▁лінейны	-11.5518
▁гар	-11.5521
▁пасол	-11.5522
▁гле	-11.5523
▁заходн	-11.5523
гейм	-11.5527
▁літаратурным	-11.5527
алоўнакамандуючы	-11.5527
▁пацвярджае	-11.5531
▁дазволен	-11.5532
▁Лепшы	-11.5533
▁гарызантальны	-11.5533
▁узрост	-11.5534
▁Санта	-11.5534
▁Франк	-11.5538
▁сямейна	-11.5538
▁сутыкну	-11.5539
▁Аліс	-11.5539
▁спако	-11.554
▁Мн	-11.554
▁тыл	-11.5541
▁Парламент	-11.5543
▁мал	-11.5545
▁гнязд	-11.5548
▁вача	-11.5552
заду	-11.5557
▁губернск	-11.5558
нс	-11.5558
▁эсэр	-11.556
▁уваход	-11.5563
▁трой	-11.5564
▁музычным	-11.5565
▁купі	-11.5566
▁размаўля	-11.5566
▁канцлер	-11.5567
▁Роберта	-11.5567
▁гавары	-11.5568
▁земскі	-11.5569
дпаведна	-11.557
▁каралеўств	-11.5571
▁хата	-11.5571
▁армянскі	-11.5573
▁скарачэння	-11.5575
▁кру	-11.5577
▁Дзі	-11.5579
▁Сена	-11.5579
▁Нацыянальн	-11.5585
▁касцюм	-11.5585
▁павышэння	-11.5588
▁запісва	-11.5588
▁стаўленн	-11.5589
▁гурто	-11.559
▁ахвярам	-11.5593
▁сыход	-11.5593
▁крыжам	-11.5594
▁праста	-11.5594
▁Кастрычнік	-11.5595
▁Клаўдзі	-11.5595
▁Мясцова	-11.5595
▁акружнасц	-11.5595
▁даступна	-11.5595
▁дэпрэсі	-11.5595
▁зацверджана	-11.5595
▁грызун	-11.5595
▁бяру	-11.5595
двая	-11.5596
▁ўнікальны	-11.5596
▁арка	-11.5596
▁панавал	-11.5598
▁Самал	-11.5599
▁Цын	-11.56
▁распаўсюджвае	-11.5601
▁ўво	-11.5605
▁паварот	-11.5606
▁насялял	-11.5612
ешч	-11.5612
дачы	-11.5612
▁Крычаў	-11.5614
▁эфектыўнасц	-11.5619
▁прыдатны	-11.5619
▁каранава	-11.5621
▁асаблів	-11.5627
рэта	-11.5629
▁запаведніка	-11.563
▁сачы	-11.5634
▁кніжк	-11.5635
▁вадкі	-11.5639
▁Кір	-11.5643
▁кл	-11.5649
▁сербска	-11.5652
▁ўскраін	-11.5662
▁суп	-11.5663
▁фунта	-11.5665
T	-11.5666
▁балгарска	-11.5666
▁езуіцкі	-11.5667
▁інжынера	-11.5668
▁прыязджа	-11.5669
стравы	-11.5675
▁езуіта	-11.5676
▁арэнду	-11.5677
▁аграгарадк	-11.568
▁Вольга	-11.5684
▁спрабую	-11.5689
▁Браціслав	-11.5689
▁Македонск	-11.5689
▁дэкларацы	-11.5689
▁навык	-11.5689
▁скончана	-11.5689
▁Чатыр	-11.5689
▁паўсюдна	-11.5689
▁Выток	-11.5689
▁шматгадовы	-11.5691
▁кітайц	-11.5691
▁Віктара	-11.5691
▁военачальнік	-11.5695
▁распал	-11.5695
▁надрукавана	-11.5698
▁міграцы	-11.57
▁Пярсцёнка	-11.57
▁танкавы	-11.5703
▁вырашыл	-11.5705
▁Хас	-11.5705
▁Сенненскі	-11.5706
▁перанесен	-11.5706
▁конны	-11.5707
адэш	-11.5707
даюцца	-11.5708
▁рэканструкцыя	-11.5709
▁скончылі	-11.571
▁ўдасканаленн	-11.5711
▁харчаванне	-11.5711
беларускі	-11.5711
▁цэл	-11.5712
▁паспяховым	-11.5714
нні	-11.5714
▁Рыжскі	-11.5715
▁пале	-11.5717
▁рэгуляванн	-11.5717
▁арэх	-11.5721
▁футбольна	-11.5723
▁камісар	-11.5728
▁Мсціслаў	-11.573
ян	-11.5732
▁Вілейск	-11.5735
▁зыходны	-11.5742
28	-11.5743
▁фірма	-11.5746
▁паходзіл	-11.5746
▁Густа	-11.5746
F	-11.5747
▁104	-11.5748
▁тканк	-11.5749
▁напісал	-11.575
зы	-11.5752
смяротна	-11.5755
▁канцэнтрацы	-11.5756
▁Адс	-11.5757
▁пруск	-11.5757
▁перадача	-11.5759
жаны	-11.576
▁трамвай	-11.5762
англ	-11.5765
▁гаспадаро	-11.5766
▁формула	-11.5769
▁хадзіл	-11.5771
▁малюск	-11.5777
▁каланіяльны	-11.578
▁сцвярджаю	-11.5782
адазбор	-11.5783
заходнееўрапейск	-11.5785
▁0,9	-11.5785
▁Зялёны	-11.5785
▁Музык	-11.5785
▁Тэгеран	-11.5785
▁Штаб	-11.5785
▁гектара	-11.5785
▁эканаміст	-11.5785
▁Ізяслаў	-11.5785
▁кірыліц	-11.5785
▁мексіканск	-11.5785
▁паклаў	-11.5785
▁сярэдневякова	-11.5785
▁капітуляцы	-11.5785
▁княжанн	-11.5785
▁сакратарыят	-11.5785
▁медал	-11.5785
▁гаварыл	-11.5789
▁вялізны	-11.5792
▁эмігранта	-11.5794
тое	-11.5794
▁скура	-11.5796
▁Вышэйш	-11.5797
несла	-11.58
▁крыты	-11.58
▁Нов	-11.5804
▁Выяв	-11.581
▁многа	-11.581
▁апошн	-11.5814
▁Чэха	-11.5818
▁Мора	-11.5819
▁Памяц	-11.582
▁Сената	-11.5822
▁Пан	-11.5825
▁Альберт	-11.5827
▁Валеры	-11.5831
▁Дзяржынск	-11.5838
▁суднаход	-11.5841
ўка	-11.5848
▁уплывовы	-11.5853
азер	-11.5854
▁Карлам	-11.5862
▁падраздзялення	-11.5868
▁змяненне	-11.5872
▁густа	-11.5873
гон	-11.5874
▁прадстаўніка	-11.5874
▁грамат	-11.5875
▁Надзе	-11.5877
▁скульптара	-11.5877
▁пацверджан	-11.5877
андыдат	-11.5879
эльеф	-11.5879
▁0,0	-11.5881
▁Ro	-11.5881
▁Багдад	-11.5881
▁Варшаўскі	-11.5881
▁Герцагавін	-11.5881
▁Джозеф	-11.5881
▁Замкава	-11.5881
▁дэвіз	-11.5881
▁зледзянення	-11.5881
▁рэстаран	-11.5881
▁сацыялогі	-11.5881
▁падоўжаны	-11.5881
▁чысцін	-11.5881
▁Персідска	-11.5881
▁Якуці	-11.5881
▁тыраж	-11.5881
▁пратэстанцка	-11.5882
▁ўмацаваны	-11.5882
▁экран	-11.5882
▁вінаград	-11.5883
▁Ваенны	-11.5885
▁студэнцка	-11.5886
▁вугла	-11.5886
▁гнёзд	-11.5887
▁жадаючы	-11.589
▁паведамленн	-11.589
▁дзеячам	-11.589
▁разводдз	-11.5891
▁аўстрыйска	-11.5892
▁сарт	-11.5893
▁Азар	-11.5897
▁Серы	-11.5899
▁вядомасц	-11.5899
▁пісьменніца	-11.5899
▁звычайным	-11.59
▁зменена	-11.5901
▁словаў	-11.5903
▁каранё	-11.5903
▁воблак	-11.5905
▁праектам	-11.5907
▁маёнткам	-11.5908
▁Бібліятэк	-11.5908
ымя	-11.5909
цу	-11.5913
▁Распаўсюджаны	-11.5915
▁культурн	-11.5916
▁прыбыл	-11.5918
▁складанне	-11.5919
▁трымаў	-11.5919
▁Іркуцка	-11.5921
▁Імператарска	-11.5921
▁магутным	-11.5923
▁прывілея	-11.5924
яўляючы	-11.5924
▁веданне	-11.5926
▁Іль	-11.5932
▁швейцарскі	-11.5934
▁складанн	-11.5937
▁ўзнагароджан	-11.5937
▁замежным	-11.5938
▁падтрымліваю	-11.5939
▁ягоны	-11.594
▁туркам	-11.5942
▁спален	-11.5942
▁пунк	-11.5945
▁Афрыка	-11.5946
▁Савец	-11.5948
▁грама	-11.595
▁даказа	-11.595
▁Гвіне	-11.5953
▁ператварае	-11.5955
▁даменн	-11.5959
▁Рашэнне	-11.596
лескі	-11.5962
аты	-11.5963
▁мусі	-11.5964
▁Рычард	-11.5966
▁выве	-11.5968
палі	-11.5969
▁залівам	-11.597
▁незвычайны	-11.5971
▁Но	-11.5973
▁захопніка	-11.5974
▁металу	-11.5975
▁рэклам	-11.5976
▁абутк	-11.5976
▁манета	-11.5977
яўлены	-11.5977
▁дапамагал	-11.5977
▁Найбол	-11.5978
▁Дагавор	-11.5978
▁Дакладна	-11.5978
▁Жуан	-11.5978
▁Падобна	-11.5978
▁Рафаэл	-11.5978
▁Свярдло	-11.5978
▁ваеннапалонны	-11.5978
▁грабніц	-11.5978
▁пенсі	-11.5978
▁чарапах	-11.5978
▁сацыялістаў	-11.5978
▁эпас	-11.5978
▁амфі	-11.5978
▁пераязджае	-11.5978
▁спецыялізаваны	-11.5978
▁рос	-11.5979
▁рынка	-11.598
вечары	-11.5982
▁тэрас	-11.5986
▁фаўн	-11.5987
▁90-	-11.5988
▁Скончы	-11.5988
▁пакоя	-11.5998
▁своеасабліва	-11.5999
▁750	-11.6
▁ўварва	-11.6001
пы	-11.6011
▁прынцыпам	-11.6012
▁адхілен	-11.6013
▁люб	-11.6014
▁распаўсюджанн	-11.6015
эканамічн	-11.6016
▁Каспійска	-11.6016
▁нагляд	-11.6016
▁ўказа	-11.6019
▁выстаўка	-11.602
ведзена	-11.6021
▁вам	-11.6024
▁80-	-11.6024
▁асабіст	-11.6025
она	-11.6027
▁артыкулам	-11.6031
▁размеркаванне	-11.6035
▁бур	-11.6037
▁магнат	-11.6038
▁Слонімска	-11.6039
▁назіраю	-11.6041
▁каталік	-11.6042
▁індзейца	-11.6049
▁блакітны	-11.6051
▁забарані	-11.6053
▁ўраўненн	-11.6053
чытаў	-11.6053
▁Кастылі	-11.6053
гало	-11.6053
▁стужк	-11.6054
▁цяжар	-11.6054
▁выгна	-11.6055
рава	-11.6056
▁элементарны	-11.6056
▁меркавана	-11.6063
▁пласто	-11.6065
▁схава	-11.6065
▁вектар	-11.6068
▁клетка	-11.6074
▁падданы	-11.6074
▁Вагнер	-11.6076
▁Правінцы	-11.6076
▁Эгейск	-11.6076
▁дынамік	-11.6076
▁земнаводны	-11.6076
▁памежны	-11.6076
▁эвакуацы	-11.6076
▁рыф	-11.6076
▁Камп	-11.6076
▁адчынены	-11.6077
▁пакрыццё	-11.6078
▁Каўнас	-11.6079
▁выпраменьванне	-11.608
▁МВ	-11.608
▁Жанчын	-11.608
▁малюнкам	-11.608
▁воіна	-11.6083
▁тэндэнцыя	-11.6083
▁гадзінніка	-11.6087
▁адкры	-11.6087
▁Паліт	-11.6088
▁эканомі	-11.6089
▁багацця	-11.609
дарыла	-11.6091
▁дазволі	-11.6095
▁пісала	-11.6097
▁Расц	-11.61
▁маб	-11.61
▁папскі	-11.6103
▁Алжыра	-11.6104
▁жыццёва	-11.6105
азнаўств	-11.6106
▁прадугледжвала	-11.6106
▁паставі	-11.6108
▁вядучым	-11.6108
▁прымуша	-11.6108
▁меркавала	-11.6109
▁святын	-11.6112
▁прызнаваў	-11.6117
▁паказ	-11.612
рачыста	-11.612
▁прырода	-11.6121
▁рода	-11.6121
▁давер	-11.6122
▁Буг	-11.613
▁развіт	-11.6131
▁летня	-11.6134
▁цвёрдым	-11.6135
▁літоўца	-11.6136
▁наладзі	-11.6137
▁жадал	-11.6137
▁агнё	-11.6138
▁аўстралійскі	-11.614
▁папярэдніка	-11.6142
▁жыллё	-11.6145
даследчы	-11.6148
▁задум	-11.6154
▁гароднін	-11.6154
▁грамадск	-11.6156
▁дазваля	-11.6158
▁550	-11.6161
▁дваранск	-11.6163
▁Азербайджан	-11.6164
хары	-11.6166
▁пла	-11.6168
▁электрычн	-11.6169
▁Вацла	-11.6171
▁ўзначальвае	-11.6173
ытворчасц	-11.6173
▁пратэстанта	-11.6174
▁асвятленн	-11.6175
▁Дрэздэн	-11.6175
▁Найсвяцейша	-11.6175
▁Пытанн	-11.6175
▁бесперапынна	-11.6175
▁вывучы	-11.6175
▁зацвярджэнн	-11.6175
▁Падзяля	-11.6175
▁рэкаменду	-11.6175
▁запазычаны	-11.6175
▁пазваночн	-11.6175
▁Тутмос	-11.6175
▁разлічва	-11.6176
▁памылкова	-11.6176
▁сёл	-11.6176
▁двухпавярховы	-11.6177
▁Акт	-11.6177
▁чака	-11.6179
▁Маа	-11.6179
▁Належа	-11.618
▁печан	-11.6181
▁абсалютны	-11.6181
▁бразільскі	-11.6182
эдзі	-11.6182
▁Сок	-11.6183
адпарадкаваны	-11.6183
▁суддз	-11.6183
▁Земл	-11.6184
▁Венскі	-11.6188
▁аддзелены	-11.6189
▁Ляс	-11.6189
▁сыходзі	-11.6191
▁пашырыў	-11.6196
▁матыва	-11.6197
▁стварала	-11.6198
▁цюркск	-11.6199
▁кантон	-11.6201
▁трас	-11.6203
▁наведвальніка	-11.6204
▁дырыжор	-11.6204
▁знац	-11.6208
▁тытула	-11.6208
▁Іванавіча	-11.6208
▁ядр	-11.6209
▁пратэктарат	-11.6212
▁Муса	-11.6214
▁оперны	-11.6217
▁цэн	-11.6218
▁распавядае	-11.6225
▁Дво	-11.623
▁Ашмянскі	-11.6231
▁пераважал	-11.6231
▁адыход	-11.6232
▁Кені	-11.6234
пры	-11.6234
▁чорн	-11.6235
▁Цэнтра	-11.6239
рагу	-11.6246
▁паразу	-11.6246
▁буд	-11.6247
▁выдавала	-11.625
▁пазначэнн	-11.6255
▁алгебр	-11.6263
▁Місі	-11.6263
▁Узро	-11.6264
эл	-11.6265
▁вучыл	-11.6269
▁аддалены	-11.6269
▁велізарн	-11.6271
▁мужнасц	-11.6272
▁індустры	-11.6274
▁Капернік	-11.6275
▁Максвел	-11.6275
▁Тарашкевіч	-11.6275
▁галаўно	-11.6275
▁прыгнёт	-11.6275
▁пілястр	-11.6275
▁расстрэл	-11.6275
▁сярэднявечны	-11.6275
▁тулава	-11.6275
▁цесны	-11.6275
▁Дэкарт	-11.6275
▁фізіялогі	-11.6275
▁этнаграфічна	-11.6275
ig	-11.6275
▁здабы	-11.6276
▁марэнны	-11.6276
▁вуглярод	-11.6276
▁нармальна	-11.6276
▁прапаноўва	-11.628
▁Юлі	-11.6286
▁Гамер	-11.6286
▁далучэнне	-11.6286
▁брыгада	-11.6287
▁Банк	-11.629
▁маскоўск	-11.6294
▁указа	-11.6295
даўшы	-11.6296
▁агульнае	-11.6299
▁прапанова	-11.63
▁Часов	-11.6302
▁парны	-11.6302
▁Мядзельскі	-11.6303
▁Захадзе	-11.6304
▁Берлінска	-11.6305
▁адхілі	-11.631
▁Кірыл	-11.6312
▁майстр	-11.6312
▁град	-11.6315
▁Македонія	-11.6315
▁паэзія	-11.6318
▁этно	-11.6321
▁уяўлення	-11.6322
▁Візантыйска	-11.6325
▁Дз	-11.6325
▁правадыро	-11.6327
▁бульба	-11.6327
рослы	-11.6329
▁дзядзька	-11.6329
▁выпрацоўк	-11.6329
фашысцкі	-11.6331
віча	-11.6333
культурн	-11.6341
▁кветка	-11.6342
▁Бабруйскі	-11.6346
▁Бен	-11.6348
вяроў	-11.6349
▁прадуктам	-11.6351
▁спалучае	-11.6351
▁італьянск	-11.6353
▁пазнача	-11.6354
▁адмаўляе	-11.6354
лігі	-11.6356
▁Песн	-11.6359
▁пісалі	-11.636
▁ранейша	-11.6361
▁Люблінска	-11.6363
▁азначэнн	-11.6365
▁служачы	-11.6365
▁след	-11.6365
▁Тур	-11.6367
▁ансамбля	-11.6367
▁Люб	-11.6368
▁Кобрын	-11.6369
бюр	-11.6372
▁Еўрасаюз	-11.6376
▁Эпох	-11.6376
▁дапусці	-11.6376
▁радыкальны	-11.6376
▁сайта	-11.6376
▁Амерыканскі	-11.6376
▁Дадзены	-11.6376
▁Хмяльніцк	-11.6376
▁Time	-11.6376
▁дактрын	-11.6376
▁Байкал	-11.6376
▁вынаходства	-11.6376
▁промысл	-11.6376
ама	-11.6379
▁Ін	-11.6379
завод	-11.6381
▁выкладанн	-11.6387
▁радк	-11.6389
▁выдзелен	-11.6389
▁камандуюч	-11.639
▁уплыв	-11.639
▁набыты	-11.6392
▁Майкл	-11.6397
▁саступіл	-11.6397
▁фінансав	-11.6397
▁тэле	-11.6399
▁Жывёл	-11.6399
▁чырвон	-11.6401
▁наведа	-11.6402
▁паўтара	-11.6403
▁крэдыт	-11.6403
Кейн	-11.6403
▁Чарнігаўска	-11.6403
▁распрацавал	-11.6408
▁барабан	-11.6409
▁адзіночны	-11.6412
▁правал	-11.6413
▁Юлія	-11.6414
▁калектыў	-11.6415
▁гол	-11.6415
▁шара	-11.6417
авання	-11.6417
▁тэлефон	-11.6422
▁падпольны	-11.6423
равы	-11.6428
▁дзед	-11.643
▁еса	-11.6431
▁тэматык	-11.6431
▁арганізоўва	-11.6433
▁змяшча	-11.6435
▁ядналі	-11.6435
▁прафсаюза	-11.6436
▁Разан	-11.6443
лёгку	-11.6443
▁Ватыкана	-11.6444
▁ўжывалі	-11.6445
▁прымусіў	-11.6447
▁даведаў	-11.6451
нула	-11.6453
намерна	-11.6455
▁Іаган	-11.6463
▁цац	-11.6468
▁Царства	-11.647
▁грамадзяніна	-11.6471
▁выбіраю	-11.6471
▁фю	-11.6473
▁назіраў	-11.6474
▁ткан	-11.6475
▁біблейскі	-11.6476
вухпавярховы	-11.6477
▁Манчэстэр	-11.6478
▁Шаўчэнк	-11.6478
▁вуглякісл	-11.6478
▁заканамернасц	-11.6478
▁камерцыйна	-11.6478
▁канадскі	-11.6478
▁канфесі	-11.6478
▁намалявана	-11.6478
▁кампазітарам	-11.6478
▁пішу	-11.6478
▁Генадз	-11.6478
▁ліцэнзі	-11.6478
▁ектыўны	-11.6478
▁мембран	-11.6478
▁Аляксеевіч	-11.6479
эрта	-11.6479
брала	-11.6479
▁акружэнн	-11.6481
▁заляга	-11.6482
▁Кіраўск	-11.6482
▁афармленне	-11.6482
вель	-11.6483
▁матэрыяльн	-11.6483
▁Навагруд	-11.6483
▁Сход	-11.6484
▁Педр	-11.6484
анка	-11.6489
сферы	-11.6489
▁выказваў	-11.6491
▁літаратуразна	-11.6492
▁аддзяляе	-11.6493
▁15-	-11.6496
прэзідэнт	-11.6499
▁расці	-11.6501
▁будаўніча	-11.6501
ысун	-11.6503
▁сексуальна	-11.6503
▁далучаец	-11.6503
▁гвардзейска	-11.6503
▁скульптурны	-11.6503
▁Унутр	-11.6505
▁Трой	-11.6505
▁заснаванне	-11.6507
▁Карпат	-11.6509
▁зыход	-11.651
ердзі	-11.651
▁манарх	-11.6511
▁сфармулява	-11.6519
▁арбі	-11.652
слоў	-11.652
▁Ліст	-11.6523
▁садавін	-11.6525
▁сухапутны	-11.6528
▁Ар	-11.6529
▁навакольн	-11.6533
▁заняткам	-11.6534
▁бура	-11.6534
▁рымск	-11.6538
▁падзялял	-11.6543
▁варыян	-11.6544
▁вызна	-11.6544
▁вядуча	-11.6545
▁платформа	-11.6546
▁пячора	-11.6549
▁Аман	-11.6552
▁даводзі	-11.6553
▁Іаан	-11.6559
▁хрысціянск	-11.656
рокі	-11.656
▁Ген	-11.6566
▁здара	-11.6567
▁сярэбраны	-11.6567
▁абвінавачванн	-11.6571
цэна	-11.6573
рактычна	-11.658
▁Веласкес	-11.6581
▁Выклада	-11.6581
▁населена	-11.6581
▁іерогліф	-11.6581
▁захапля	-11.6581
▁мемуара	-11.6581
▁пасяленц	-11.6581
▁заклаў	-11.6581
▁распачата	-11.6582
▁пляж	-11.6582
▁пёр	-11.6582
▁кашул	-11.6582
▁пакет	-11.6582
▁валадарства	-11.6582
▁Меды	-11.6582
▁інтэлектуальн	-11.6583
▁адзначала	-11.6583
▁публікава	-11.6585
арол	-11.6586
▁культу	-11.6587
▁Шры	-11.6587
▁германскім	-11.6593
прымала	-11.6597
▁патрон	-11.66
▁паралельны	-11.6602
▁арыштава	-11.6603
▁тэхналогія	-11.6603
▁пашырае	-11.6605
▁флота	-11.6607
▁Сідне	-11.6608
▁пошта	-11.6608
▁мяча	-11.6615
▁Мазырскі	-11.6618
▁ранг	-11.6619
▁Бацьк	-11.6619
▁іспанскім	-11.6619
▁пераходам	-11.6621
▁фінанс	-11.6622
▁прыгонн	-11.6624
▁вучоным	-11.6627
▁прагаласавал	-11.6627
▁статыстык	-11.6627
▁назірал	-11.6628
▁лірык	-11.6629
растае	-11.6633
▁паведаміл	-11.6633
▁запыт	-11.6634
аркі	-11.6634
▁імігрант	-11.6637
▁Працоўна	-11.6638
▁саветніка	-11.664
▁Рыа	-11.664
▁Маршал	-11.6641
▁Юна	-11.6643
▁270	-11.6643
▁Літаратурна	-11.6643
налогіі	-11.6644
аваў	-11.6646
▁наведвал	-11.6648
▁вадка	-11.6649
▁СС	-11.665
▁ўладанне	-11.6652
▁бор	-11.6653
цены	-11.6655
▁Край	-11.6657
▁Слюдзянк	-11.6658
▁астэроіда	-11.6663
▁Паб	-11.6666
▁ператварэнне	-11.6667
▁варожа	-11.6668
▁прыступ	-11.6669
▁крытэры	-11.6673
▁замацаваны	-11.6674
▁Аргенціна	-11.6674
менна	-11.6675
▁светлы	-11.6679
▁агента	-11.6681
чча	-11.6682
▁рыхтава	-11.6683
▁абшчына	-11.6685
▁тлумача	-11.6685
▁Прыхільнік	-11.6685
▁травяністы	-11.6685
▁прасочва	-11.6685
▁экзэмпляр	-11.6685
▁ужыт	-11.6685
▁пранікненн	-11.6685
▁манг	-11.6685
▁Бярэ	-11.6685
▁прэфектур	-11.6686
▁Баляслава	-11.6688
нцаў	-11.669
▁тытулам	-11.6691
▁Кінг	-11.6694
▁характары	-11.6694
▁Ферм	-11.6696
▁замацавала	-11.6696
▁нараджэнне	-11.67
▁ўсталява	-11.67
▁Прамыслова	-11.6701
▁ужываю	-11.6703
▁Маг	-11.6704
▁ўспрыманн	-11.6704
▁рэпутацыю	-11.6704
▁Малі	-11.6706
▁кас	-11.6708
▁Герман	-11.671
▁Чапск	-11.671
▁прадукцыя	-11.6711
▁павіннасц	-11.6711
▁ўладання	-11.6712
▁Георга	-11.6717
жыта	-11.6717
▁адносіл	-11.6718
▁баярын	-11.6718
▁характэрным	-11.6723
▁адказнасці	-11.6724
▁зваротны	-11.6727
▁Ліда	-11.6733
▁Тан	-11.6734
ord	-11.674
▁пасл	-11.6741
▁Евангелля	-11.6741
▁Кот	-11.6743
чыні	-11.675
▁банкаў	-11.6752
▁ані	-11.6753
▁гаван	-11.6757
▁саступіў	-11.6757
▁адзначалі	-11.676
▁консул	-11.6761
▁стратэгічны	-11.6762
▁трапляюц	-11.6763
▁230	-11.6769
▁Барысаўск	-11.6769
▁археолагам	-11.6774
▁Міжзем	-11.6775
▁Год	-11.6776
▁Даследава	-11.678
▁r	-11.6781
▁захавалі	-11.6782
▁ісп	-11.6785
лічэння	-11.6788
▁зялёным	-11.6788
▁дарагі	-11.679
аражытнагрэчаскі	-11.679
▁Даследчык	-11.679
▁Кеплер	-11.679
▁Лынтуп	-11.679
▁Нарманды	-11.679
▁клопат	-11.679
▁персідскі	-11.679
▁гатычна	-11.679
▁генетычна	-11.679
▁палавін	-11.679
▁Гамбург	-11.679
▁Правіл	-11.6791
▁добраахвотна	-11.6791
саў	-11.6792
▁Андрэевіч	-11.6792
▁здаў	-11.6792
ХД	-11.6793
ступае	-11.6793
▁фі	-11.6793
▁функцыяну	-11.6794
▁рухома	-11.6795
▁алгарытм	-11.6795
▁гуч	-11.6795
▁незадаволены	-11.6799
▁вугло	-11.68
Паўл	-11.6803
▁аленя	-11.6804
▁Быка	-11.6805
▁Сін	-11.6807
▁патрабаванням	-11.6809
▁Кана	-11.6812
▁жывёлагадоўл	-11.6812
▁вытворча	-11.6813
▁балгар	-11.6815
▁фунт	-11.6817
▁віно	-11.6819
▁купал	-11.6821
▁лірычны	-11.6822
▁бунт	-11.6824
▁ўзвышш	-11.6824
▁высадзі	-11.6828
▁ўтвара	-11.6829
▁падышл	-11.683
▁негатыўна	-11.683
▁муравана	-11.6832
▁ганаровым	-11.6835
оўк	-11.6838
▁Барысав	-11.6839
▁галандскі	-11.684
лец	-11.684
▁гелі	-11.685
▁рэальным	-11.6851
араны	-11.6852
СА	-11.6854
нкі	-11.6854
▁найменш	-11.6855
▁перажыва	-11.6861
▁Львоўска	-11.6861
▁свабодным	-11.6865
цця	-11.6867
▁Часовы	-11.6872
дкрыццё	-11.6873
▁Нясвіжск	-11.6879
▁Балкан	-11.6882
▁місія	-11.6883
лодкі	-11.6887
▁атмасферны	-11.6893
сам	-11.6893
▁жывёла	-11.6895
▁Беліц	-11.6895
▁гадаванн	-11.6896
▁Салігорск	-11.6897
▁Італьянска	-11.6897
▁Вірджыні	-11.6897
▁Глыбін	-11.6897
▁Мастацтва	-11.6897
▁Рэпін	-11.6897
▁апавядае	-11.6897
▁бляск	-11.6897
▁паўтары	-11.6897
▁чацвер	-11.6897
▁мемарыяльны	-11.6897
▁форт	-11.6897
▁гвалтоўна	-11.6897
▁прамысловым	-11.6897
▁гарызантальна	-11.6897
▁Талін	-11.6897
▁яблык	-11.6898
▁пазбаўленн	-11.69
▁Крыніца	-11.6902
ення	-11.6903
▁строгі	-11.6904
▁вывезен	-11.6905
▁шкло	-11.6907
▁сацыяльным	-11.691
▁Права	-11.6912
▁мары	-11.6914
▁віцебскі	-11.6914
▁садзейнічанн	-11.6917
▁рэлігій	-11.6919
▁падобн	-11.6919
▁кардынала	-11.6923
гварды	-11.6923
▁калегія	-11.6924
▁Фран	-11.6925
▁набраў	-11.6928
▁драматычна	-11.6929
робі	-11.6929
▁Радзіма	-11.6931
валі	-11.6932
▁старажытная	-11.6934
▁прускі	-11.6951
▁Значн	-11.6953
рамі	-11.6954
расла	-11.6954
▁займаючы	-11.6955
▁бурак	-11.6955
▁Мёрскі	-11.6957
▁зніжэнне	-11.696
▁камяня	-11.6961
▁майстра	-11.6961
шаны	-11.6962
▁Гю	-11.6963
баль	-11.6964
▁глядзе	-11.6964
▁змене	-11.6964
▁звяртае	-11.6967
▁вырашае	-11.6967
▁алімпійскі	-11.6971
▁Імперыя	-11.6973
▁адыгра	-11.6974
вацца	-11.6975
▁юнак	-11.6979
▁спынілі	-11.698
▁далучылі	-11.6981
▁адчу	-11.6983
▁хрысціянскім	-11.6984
▁багат	-11.6988
▁Важна	-11.6988
▁печы	-11.6992
▁Глінскі	-11.6993
▁Навук	-11.6994
▁папярэдн	-11.6994
▁ўладальніка	-11.6995
▁дошк	-11.6997
▁выкуп	-11.6998
баб	-11.6998
шкевіч	-11.6999
ніі	-11.7001
▁тонкім	-11.7001
▁набыцц	-11.7003
▁бесп	-11.7004
▁Цвярск	-11.7004
▁Бісмарк	-11.7004
▁Вергілі	-11.7004
▁кандыдацк	-11.7004
▁прыпісвае	-11.7004
▁сканцэнтравана	-11.7004
▁тэлевізійны	-11.7004
▁тэлеграм	-11.7004
▁Станкевіч	-11.7004
▁папраўк	-11.7004
▁фармат	-11.7004
▁Адміністрацыйна	-11.7004
▁фермент	-11.7004
▁прамежкавы	-11.7004
▁звяржэнн	-11.7004
▁псіхалагічны	-11.7005
▁крытычна	-11.7005
▁паломні	-11.7005
▁лінь	-11.7007
▁ўмяшанн	-11.7008
▁вядом	-11.7011
▁Запіс	-11.7015
▁Вада	-11.7016
▁Гендэл	-11.7017
▁загадва	-11.7017
▁Грамад	-11.7018
▁выдаленн	-11.7018
▁поўсц	-11.7018
▁Луцкевіча	-11.7021
▁ін	-11.7022
▁Кіеўскі	-11.7024
▁Дзед	-11.703
▁Пераможца	-11.7032
▁вырошчванн	-11.7034
▁пахода	-11.7036
▁вятрак	-11.7036
Заходні	-11.7037
▁Канчаткова	-11.7039
▁вялікалітоўск	-11.7042
▁дацэнт	-11.7044
▁арабскім	-11.7046
▁Вест	-11.7046
▁Зеландыя	-11.7046
▁Ірландыя	-11.7054
▁1890-	-11.7056
▁імаверна	-11.706
▁дзялі	-11.706
▁тыпова	-11.7061
▁працэсам	-11.7061
▁паступлення	-11.7063
▁постац	-11.7063
▁Парламента	-11.7064
▁закрыцц	-11.7067
▁Сун	-11.7069
▁прававы	-11.707
▁Красна	-11.707
▁Докшыцкі	-11.7071
жыванне	-11.7072
▁дава	-11.7073
▁Георг	-11.7077
▁Радзівілам	-11.7081
▁Эстонія	-11.7082
▁надзвычайна	-11.7083
▁Ціт	-11.7085
▁незалежным	-11.7086
▁Міцкевіч	-11.7088
▁кіраўніцтв	-11.7088
▁нервова	-11.7089
▁Вера	-11.709
▁Бранска	-11.7091
▁91	-11.7096
▁папрасі	-11.7096
▁цыкла	-11.7097
▁прыхода	-11.7097
▁княгіня	-11.7099
▁часці	-11.7101
▁Рэвалюцы	-11.7106
▁місіянер	-11.7108
▁уладанне	-11.711
▁даўжэй	-11.711
▁важнасц	-11.711
▁Баліві	-11.7111
▁гравітацы	-11.7111
каноміка	-11.7113
▁Зальцбург	-11.7113
▁Таджыкістан	-11.7113
▁Туркменістан	-11.7113
▁ажыццёўлен	-11.7113
▁дэманстру	-11.7113
▁рознагалосс	-11.7113
▁блакад	-11.7113
▁бытавы	-11.7113
▁Навуковы	-11.7113
▁вынаходнік	-11.7113
▁Гульн	-11.7114
▁інтэнсіўнасц	-11.7115
▁прамянё	-11.7115
▁вырошчва	-11.7115
▁Святаславіч	-11.7116
▁этык	-11.7117
▁падпольна	-11.7119
▁крыжакам	-11.7119
▁брытанц	-11.7121
▁філосафа	-11.7121
▁Давыд	-11.7124
▁пяхотны	-11.7125
▁царыц	-11.7125
баха	-11.7128
▁абвінавачаны	-11.7128
▁костк	-11.7129
▁адгалінаванн	-11.7131
▁пералік	-11.7133
▁латышск	-11.7135
ачу	-11.714
▁плантацы	-11.7143
▁Le	-11.7144
▁Падляшш	-11.7146
▁зніжае	-11.7146
▁Сямёна	-11.7148
▁сцэна	-11.7153
▁ўдзельнікам	-11.7153
▁грэчаскім	-11.7156
▁зніжэнн	-11.7158
▁размаўляю	-11.7159
▁яркасц	-11.716
▁Захава	-11.7162
ta	-11.7162
▁ссылк	-11.7164
▁ша	-11.7165
▁Гл	-11.7167
▁заняцц	-11.7168
▁музыканта	-11.7173
▁Крыт	-11.7176
▁планіроўк	-11.7183
ўскі	-11.7184
▁шпітал	-11.719
▁выдавецтв	-11.7191
▁кампазіцый	-11.7194
пала	-11.7194
▁карта	-11.7196
▁фальварк	-11.7197
▁рэалізм	-11.7197
джы	-11.7199
▁ўстаноўк	-11.7199
▁адлюстраваны	-11.7199
▁260	-11.72
▁знакамітым	-11.72
▁хлеб	-11.7201
інакш	-11.7206
▁ісці	-11.7206
▁дэлегата	-11.7208
▁кашталян	-11.7209
▁дванаццац	-11.7215
▁невысокі	-11.7217
▁пераклада	-11.7218
▁губля	-11.722
▁бяроз	-11.7221
▁Панятоўск	-11.7223
▁Асацыяцы	-11.7223
▁Вывучэнне	-11.7223
▁Гданьск	-11.7223
▁Мясцовы	-11.7223
▁Някляе	-11.7223
▁Рагнед	-11.7223
▁Салжаніцын	-11.7223
▁Тэкст	-11.7223
▁заселена	-11.7223
▁ўласцівы	-11.7223
▁галандска	-11.7223
▁абеліск	-11.7223
▁шлем	-11.7223
▁выдзяляе	-11.7223
▁фель	-11.7223
▁спецыялізу	-11.7223
▁ілюстрацы	-11.7223
ыкарыстанне	-11.7224
шэль	-11.7224
▁ўзяты	-11.7224
▁Размяшча	-11.7224
▁біблейск	-11.7225
▁зручна	-11.7226
▁спыня	-11.7226
▁Магдэбург	-11.7226
▁выпрабаванн	-11.7226
▁павер	-11.7228
▁Адно	-11.7229
▁адлюстрава	-11.7229
▁акадэміка	-11.723
▁роўным	-11.723
▁губ	-11.7232
▁ставіў	-11.7233
▁станоўча	-11.7235
▁аперацыйны	-11.7235
▁моцн	-11.7239
▁стабільнасц	-11.7239
ліны	-11.7241
▁Зімовы	-11.7243
▁інтарэсам	-11.7247
▁жылым	-11.7247
▁вільгац	-11.7255
▁напада	-11.7257
▁прыпын	-11.7258
▁ягад	-11.726
▁Ілл	-11.7263
▁Горк	-11.7266
▁найменне	-11.7269
▁1880-	-11.727
▁муніцыпалітэта	-11.7271
▁650	-11.7271
біты	-11.7272
▁Ве	-11.7274
▁сухім	-11.7274
▁смаленскі	-11.7276
▁аналагічна	-11.7287
▁рачно	-11.7288
▁узял	-11.7292
▁прэсн	-11.7292
▁балет	-11.7295
▁Лу	-11.7299
col	-11.7301
граў	-11.7302
▁выяўленч	-11.7304
▁карпарацы	-11.7305
▁калісь	-11.7305
▁аддаваў	-11.7309
журы	-11.731
▁аптычны	-11.7312
▁каталіцкім	-11.7312
▁210	-11.7312
▁рэчк	-11.7313
▁Сямён	-11.7315
▁Вішнявецкі	-11.7317
▁13-	-11.7319
▁Мексіка	-11.7322
▁слуха	-11.7325
▁перакладам	-11.7325
прача	-11.7333
▁Азёр	-11.7334
▁Банапарт	-11.7334
▁Высоцк	-11.7334
▁Супраць	-11.7334
▁аздоблены	-11.7334
▁альтэрнатыўны	-11.7334
▁брашур	-11.7334
▁вяскова	-11.7334
▁подзвіг	-11.7334
▁прымеркаван	-11.7334
▁тэрор	-11.7334
▁умераны	-11.7334
▁іўдаізм	-11.7334
▁Мухамед	-11.7334
▁капуст	-11.7334
▁Раніца	-11.7334
▁Адрыятычн	-11.7335
▁контр	-11.7336
▁арыентаваны	-11.7336
▁лек	-11.7337
▁ідэальна	-11.7338
▁насуп	-11.7338
▁суправаджала	-11.7338
▁Канстанцінавіч	-11.7343
▁дзяўчынк	-11.7345
▁рукапісны	-11.7345
▁апіса	-11.7347
▁Форд	-11.7348
▁аркуш	-11.735
▁Іагана	-11.735
▁Кука	-11.7351
▁Паўлавіч	-11.7352
▁узвышш	-11.7352
▁аднавіла	-11.7355
▁шахт	-11.7356
губернатара	-11.7357
▁Расійскі	-11.7357
▁выплат	-11.7359
▁захопнік	-11.7364
▁Мела	-11.7368
▁d	-11.7368
▁70-	-11.737
▁Галуб	-11.7376
▁вулканічны	-11.7377
▁планаваў	-11.7379
▁горным	-11.7382
арла	-11.7383
▁пойма	-11.7383
▁цікава	-11.7385
▁Крымска	-11.7388
▁дакладнасці	-11.7389
▁афіцыйн	-11.7389
ніца	-11.739
▁менша	-11.7393
шэ	-11.7393
▁Усевалад	-11.7396
▁Лізавет	-11.7404
▁падарожнік	-11.7404
▁трымалі	-11.7405
нства	-11.7405
▁падзела	-11.7406
ранна	-11.7409
▁тэкс	-11.7411
▁выкладчыка	-11.7414
▁паспрабавал	-11.7416
▁павятова	-11.7422
▁трохвугольніка	-11.7423
амярза	-11.7433
▁адпаведным	-11.7434
▁сабра	-11.7436
▁пласта	-11.7436
▁ажыццяўляў	-11.7438
▁народнасц	-11.7446
берг	-11.7446
▁пазбяга	-11.7446
▁Ліхтэнштэйн	-11.7446
▁Рагвалод	-11.7446
▁асамбле	-11.7446
▁жамойцк	-11.7446
▁змяншэнн	-11.7446
▁канвенцы	-11.7446
▁кантралюе	-11.7446
▁натоўп	-11.7446
▁паўзун	-11.7446
▁тэктанічны	-11.7446
▁ячмен	-11.7446
▁атача	-11.7446
▁умерана	-11.7446
▁Нікол	-11.7446
▁Uni	-11.7446
▁Дзейн	-11.7446
▁рэдагава	-11.7447
▁ўстанаўленн	-11.7447
▁унікальны	-11.7447
▁сажалка	-11.7448
▁генетычны	-11.7449
▁уяўля	-11.7449
▁суправаджаў	-11.7449
▁дасягнута	-11.745
▁Сваё	-11.7451
▁сталічна	-11.7453
▁рабочым	-11.7455
▁інфармацыйна	-11.7455
▁Двор	-11.7455
▁княжацк	-11.7456
▁лодка	-11.7457
▁нітк	-11.746
▁вярхоўя	-11.7461
▁курфюрста	-11.7463
▁змяненн	-11.7463
▁Ніка	-11.7464
▁выконваючы	-11.7466
▁жорсткасц	-11.747
▁праграмны	-11.747
▁Пухавіцк	-11.7471
іду	-11.7473
▁Араго	-11.7473
▁відэа	-11.7474
▁нязначна	-11.7475
▁111	-11.7476
▁Платона	-11.7477
▁Рымскага	-11.7477
St	-11.7479
▁бюст	-11.7483
▁забойств	-11.7484
▁10-1	-11.7484
публікаваў	-11.7485
▁разграміл	-11.7488
▁паскарэнне	-11.7488
▁базавы	-11.7492
▁рахунк	-11.7493
▁Закона	-11.7495
▁паста	-11.7497
▁паданне	-11.75
▁ўзял	-11.7502
▁выхадзе	-11.7503
▁скарача	-11.7508
▁Чарльз	-11.7508
▁выцягнуты	-11.7511
▁Венецыя	-11.7512
▁ахоўн	-11.7515
▁таленавіты	-11.7516
▁таемна	-11.752
З	-11.7522
▁шлюбны	-11.7522
▁імператарск	-11.7522
▁Духа	-11.7524
▁сведчанне	-11.7526
▁пагорк	-11.7527
▁Кангрэса	-11.753
▁Падпарадк	-11.7548
▁Палата	-11.7548
будаванне	-11.7549
Венгрыя	-11.7553
нок	-11.7555
▁розніца	-11.7557
МФ	-11.7557
знікненне	-11.7558
▁запуск	-11.7559
▁лорда	-11.7559
▁кур	-11.756
▁Андропа	-11.756
▁Светлагорск	-11.756
▁Тэхас	-11.756
▁мануфактур	-11.756
▁травяніста	-11.756
▁Супрацоўні	-11.756
▁нявест	-11.756
▁Прынцып	-11.756
▁малекулярн	-11.756
▁мудрасц	-11.756
▁народжана	-11.756
▁прыпісваюц	-11.756
▁Псков	-11.756
▁пятніц	-11.756
▁Адносна	-11.756
▁рэйс	-11.756
▁распрацоўшчык	-11.7561
▁гумар	-11.7561
▁зафіксаваны	-11.7561
▁Mic	-11.7561
▁Гаус	-11.7561
▁Ковенска	-11.7561
▁гукавы	-11.7561
▁De	-11.7562
▁антрапалогі	-11.7562
▁агародж	-11.7562
▁праверк	-11.7562
Т	-11.7563
▁Адольф	-11.7565
▁вырашэнне	-11.7566
▁апрацоўка	-11.7567
▁Армянска	-11.7568
▁сталым	-11.757
▁Злучана	-11.7574
▁апісана	-11.7578
▁спецыяльным	-11.7581
▁кветкавы	-11.7582
▁раўнінны	-11.7583
▁напіса	-11.7585
▁пляменнік	-11.7587
▁чут	-11.7589
крылы	-11.759
▁града	-11.7592
▁невыразна	-11.7592
▁крышталічны	-11.7596
b	-11.7597
▁напружання	-11.7601
▁рыба	-11.7604
▁пераходзя	-11.7609
▁Форм	-11.761
метры	-11.7611
▁вылучэнн	-11.7616
▁разві	-11.7618
шла	-11.762
▁вертыкальны	-11.7621
▁заступніка	-11.7624
чыны	-11.7632
▁пачу	-11.7633
▁тайны	-11.7633
▁ваявал	-11.7634
▁Рыга	-11.7635
▁Тон	-11.7635
▁сустрэлі	-11.7636
▁ўбор	-11.7641
▁пляц	-11.7645
▁праяўляе	-11.7645
▁рэзерв	-11.7647
ўтварэнне	-11.7648
ros	-11.7649
▁гавор	-11.765
▁выкладзены	-11.766
▁Звяз	-11.7662
▁бяроза	-11.7667
▁вуш	-11.7668
▁Дня	-11.7671
▁Урада	-11.7671
▁апсід	-11.7673
▁Пскоў	-11.7673
драэлектрастанцы	-11.7675
▁Брачысла	-11.7675
▁Бургунды	-11.7675
▁Бялград	-11.7675
▁Ганаровы	-11.7675
▁Дакумент	-11.7675
▁Жука	-11.7675
▁аператыўна	-11.7675
▁аўдыторы	-11.7675
▁збліжэнн	-11.7675
▁роднасны	-11.7675
▁рэарганізаван	-11.7675
▁саманазв	-11.7675
▁італьянц	-11.7675
▁прэпарат	-11.7675
▁чэрап	-11.7675
▁фашызм	-11.7675
▁пераезд	-11.7675
▁Сельск	-11.7675
▁Мад	-11.7675
▁параўноўва	-11.7675
▁драпежнік	-11.7677
▁Друцк	-11.7677
▁Сейм	-11.7678
ур	-11.7678
▁гуляе	-11.7679
ад	-11.7679
▁даследчыкам	-11.768
▁слых	-11.7681
▁апрацоў	-11.7681
▁палкаводца	-11.7682
▁Латвійска	-11.7683
▁грамадзянін	-11.7683
▁штогадова	-11.7683
▁парушэнн	-11.7684
▁сховішча	-11.7689
званы	-11.769
▁падзяліў	-11.7691
▁паліцэйскі	-11.7691
▁Вішнявецк	-11.7692
▁княжацкі	-11.7693
▁публікацыя	-11.7696
▁Mari	-11.7697
▁неабходным	-11.7697
▁праём	-11.7698
▁сл	-11.7701
▁каланіяльна	-11.7701
▁акупіраван	-11.7703
▁беларусам	-11.7703
▁пячатк	-11.7703
▁паловай	-11.7704
▁пакара	-11.7709
▁Выяўлены	-11.7709
▁фармац	-11.7715
▁Дн	-11.7715
▁Акцябрск	-11.7717
▁агня	-11.7719
▁1860-	-11.7719
▁лаўр	-11.7719
▁падкрэсліва	-11.7721
▁факта	-11.7722
▁Ашмян	-11.7723
▁масла	-11.7728
▁дамам	-11.7728
трымліваў	-11.7731
▁катэгорыя	-11.7736
селены	-11.7742
▁французам	-11.7743
▁Гродзенск	-11.7747
▁заменен	-11.775
▁сенатар	-11.7751
▁Людвіга	-11.7753
▁драпежны	-11.7756
▁бука	-11.7762
▁пастаноў	-11.7766
▁Мал	-11.7766
▁гару	-11.777
ван	-11.7772
▁адыгрывал	-11.7779
▁цёплым	-11.778
онаў	-11.7784
▁дыханн	-11.7788
эабіліта	-11.779
▁Размер	-11.7791
orld	-11.7791
▁Кёльн	-11.7791
▁Тасмані	-11.7791
▁аксіём	-11.7791
▁засушлівы	-11.7791
▁здзяйсненн	-11.7791
▁міжземнаморск	-11.7791
▁рэарганізацы	-11.7791
▁скарочаны	-11.7791
▁склон	-11.7791
▁суправаджэнн	-11.7791
▁фота	-11.7792
▁Амур	-11.7792
▁шоста	-11.7793
▁умацаваны	-11.7793
▁Мальер	-11.7795
▁масавым	-11.7795
гадвае	-11.7796
эгіён	-11.78
▁выдала	-11.7803
▁палажэння	-11.7805
▁княгін	-11.7806
ДП	-11.7806
▁акул	-11.781
▁Берн	-11.7812
▁Дэвід	-11.7814
▁злучы	-11.7815
▁выяў	-11.7818
ty	-11.7818
▁Карэя	-11.7819
▁цёмным	-11.7822
▁шары	-11.7826
▁Кембрыдж	-11.7827
▁абслугоўванне	-11.7828
▁ізраільскі	-11.7829
▁x	-11.7831
▁чыноўнік	-11.7832
ўсходнім	-11.7838
▁земляны	-11.7838
▁паліт	-11.7846
▁паступіл	-11.7847
▁украінск	-11.7848
рання	-11.7848
▁канцо	-11.7852
▁еўрапейца	-11.7855
▁распараджэнне	-11.7857
▁Клімент	-11.7865
▁Альфрэд	-11.7867
▁госц	-11.7869
▁Наш	-11.787
▁Руд	-11.7873
▁адмысловым	-11.7876
▁частат	-11.7876
▁адлюстраванн	-11.7877
▁каменным	-11.7878
годдзя	-11.7878
▁хад	-11.7879
валь	-11.7885
▁асноў	-11.7885
▁сістэматычна	-11.7885
▁Леапольд	-11.7887
▁Харватыя	-11.7887
▁гарнізона	-11.7889
▁Вас	-11.7892
▁медыцынск	-11.7895
▁Якуб	-11.7896
▁нацыст	-11.7896
▁прыналеж	-11.7902
▁журналіста	-11.7902
▁Балясла	-11.7906
▁блыта	-11.7909
▁старажытнаруск	-11.7909
▁Гегел	-11.7909
▁агітацы	-11.7909
▁каталіцызм	-11.7909
▁няправільна	-11.7909
▁інфляцы	-11.7909
▁Фільм	-11.7909
▁рэгулюе	-11.7909
▁сінгл	-11.7909
▁Джэксан	-11.7909
▁імклів	-11.7909
▁Сахалін	-11.7909
▁глабальна	-11.7909
▁Чэмпіянат	-11.791
▁яду	-11.791
▁адказва	-11.7911
▁Сірыя	-11.7911
▁сталічны	-11.7916
▁Прон	-11.7916
атак	-11.7917
▁нот	-11.7917
▁фінскі	-11.7918
▁Характэрны	-11.792
▁забаранял	-11.7925
▁прадстаўленн	-11.7926
▁куб	-11.7928
▁Венск	-11.7929
▁замяні	-11.7931
нна	-11.7933
▁пляма	-11.7934
▁кніжна	-11.7934
▁Усебеларускі	-11.7935
▁імкнул	-11.7935
▁Альгерд	-11.7936
▁злачынств	-11.7937
▁Мура	-11.7937
▁адда	-11.7938
▁Раз	-11.7938
▁дацка	-11.7939
лод	-11.7942
▁сін	-11.7944
▁сучаснасц	-11.7961
▁12-	-11.7963
оўшчы	-11.7966
▁выраблен	-11.7967
СДП	-11.7967
▁еўрапейцам	-11.7968
▁тэкстам	-11.7969
▁усталяваў	-11.797
▁цан	-11.7974
памінае	-11.7976
жыў	-11.7979
▁падраздзяленн	-11.7979
водзі	-11.7982
P	-11.7984
▁зуб	-11.7989
▁ператварэння	-11.799
▁кода	-11.799
▁працэнт	-11.7996
▁эміграва	-11.7999
▁Уво	-11.8001
▁сельск	-11.8001
▁абмежава	-11.8001
матэрыяла	-11.8001
чых	-11.8002
▁дамага	-11.8006
▁вярхоўны	-11.8007
▁пачына	-11.8007
▁экалагічна	-11.8009
пена	-11.801
▁нанос	-11.802
ne	-11.8024
ідавочна	-11.8026
▁Артур	-11.8027
▁Алімп	-11.8028
▁рытуал	-11.8028
▁Бранісла	-11.8028
▁Герадот	-11.8028
▁Чынгісхан	-11.8028
▁батарэ	-11.8028
▁беспазваночны	-11.8028
▁паспел	-11.8028
▁супраців	-11.8028
▁рамантычна	-11.8028
▁кансерватыўны	-11.8028
▁рацыён	-11.8028
▁Hom	-11.8028
▁Ефрасінн	-11.8028
▁Par	-11.8028
▁прымусова	-11.8028
ланіроўка	-11.8028
▁неад	-11.8028
▁напрык	-11.8028
▁Емен	-11.8029
▁зафіксавана	-11.8029
▁Мсціслава	-11.8031
іраўніцтва	-11.8033
▁адмов	-11.8033
▁пальм	-11.8034
▁аўтобусны	-11.8035
▁во	-11.8035
▁часавы	-11.8035
▁Камісія	-11.8036
▁фінансавым	-11.8037
▁конніц	-11.804
пера	-11.804
▁шасц	-11.8041
▁конна	-11.8042
▁Давід	-11.8043
▁авеч	-11.8047
▁y	-11.805
▁Будапешт	-11.8059
▁водным	-11.8062
▁заклікал	-11.8065
▁балотны	-11.8067
абрала	-11.8068
▁факты	-11.807
▁артылерыйскі	-11.8073
▁годнасц	-11.8078
▁экспедыцый	-11.808
▁архібіскупа	-11.808
▁накіравалі	-11.808
▁ўсходн	-11.8081
▁патрыятычны	-11.8083
▁Візантыя	-11.8089
▁партнёрам	-11.809
▁Крыж	-11.809
▁каталіко	-11.8091
▁Славакія	-11.8093
▁Акадэмік	-11.8093
▁чыгуначным	-11.8094
▁пагражал	-11.8097
▁абавязковым	-11.8101
▁надавала	-11.8102
▁вылучэнне	-11.8103
▁ладзі	-11.8106
▁Альпа	-11.8106
▁Львоў	-11.8108
▁Ста	-11.8109
эс	-11.811
▁этнічн	-11.8111
▁Нясвіжскі	-11.8111
Жан	-11.8116
▁клад	-11.8117
▁дамов	-11.8118
▁звер	-11.8119
▁Смаленску	-11.812
▁пяхотна	-11.8121
▁плыня	-11.8121
▁трупа	-11.8122
▁тэлескоп	-11.8124
▁дама	-11.8126
іч	-11.813
нясе	-11.8132
▁воінска	-11.8132
▁веравання	-11.8133
▁прыдворн	-11.814
гукаў	-11.814
▁Генерал	-11.8146
гавораны	-11.8148
▁Брандэнбург	-11.8148
▁Брэжне	-11.8148
▁Войшалк	-11.8148
▁Гільберт	-11.8148
▁гарэлк	-11.8148
▁Утварае	-11.8148
▁Фландры	-11.8148
▁публіцыстычны	-11.8148
▁ўзаемна	-11.8148
▁ведамства	-11.8148
▁Унутраны	-11.8148
▁банан	-11.8149
▁заапарк	-11.8149
▁радыкальна	-11.8149
▁цукрова	-11.8149
▁Адкрыта	-11.815
▁ракападобны	-11.815
▁радыяцыйна	-11.815
▁фінска	-11.8151
▁аўто	-11.8152
▁абрыв	-11.8155
▁адступі	-11.816
эйн	-11.8163
▁хацел	-11.8167
▁Крысціян	-11.8168
▁зменам	-11.8168
▁рота	-11.8171
▁Асамбле	-11.8171
перша	-11.8173
▁ствараючы	-11.8175
▁выкладае	-11.8177
▁Баранавіцкі	-11.8178
▁Пабудавана	-11.8178
▁сезона	-11.8183
▁New	-11.8184
▁Блізк	-11.8184
▁чытанне	-11.8186
▁каменн	-11.8187
▁Усяслав	-11.8188
▁Альбрэхт	-11.819
зразумела	-11.8191
оса	-11.8193
ўруч	-11.82
▁вымаўленне	-11.8203
▁Кастра	-11.8204
▁суправаджалі	-11.8205
▁Гарад	-11.8208
▁старонк	-11.8209
▁заключыл	-11.8212
▁абмяжоўва	-11.8213
▁канфіскаваны	-11.8217
▁прадмов	-11.8222
▁выведзены	-11.8222
▁пласты	-11.8227
▁абмежаванн	-11.8228
▁прыехал	-11.823
▁мур	-11.823
▁супярэчы	-11.8231
▁памятны	-11.8232
▁пераходзіл	-11.8233
▁грамадзянам	-11.8234
чар	-11.8234
▁Кам	-11.8238
▁ўрач	-11.8239
рту	-11.824
▁неф	-11.824
▁легендарны	-11.8241
▁адцення	-11.8243
▁кінуў	-11.8246
▁колькасна	-11.8248
▁раманскі	-11.825
▁ездам	-11.8252
чак	-11.8259
▁інжынерам	-11.8259
▁замяніл	-11.826
▁захоўваў	-11.8263
▁сексуальны	-11.8264
▁адступіл	-11.8266
▁Крупск	-11.8267
руч	-11.8268
Марцінкевіч	-11.827
▁ht	-11.827
▁Ганарова	-11.827
▁Маладняк	-11.827
▁альманах	-11.827
▁нідэрландска	-11.827
▁Дунін	-11.827
▁Малодш	-11.827
▁антысавецк	-11.827
▁безумоўна	-11.827
▁Французскі	-11.827
▁плаўнік	-11.8271
▁шчы	-11.8271
▁нумарам	-11.8271
▁Палта	-11.8272
▁прадухіленн	-11.8272
▁датаваны	-11.8272
▁ліб	-11.8272
▁плод	-11.8272
▁Творча	-11.8273
▁Люта	-11.8276
▁збудавана	-11.8276
▁выразнасц	-11.8277
▁груз	-11.8277
▁крыніцам	-11.8277
▁лап	-11.8279
▁запатрабавал	-11.8279
▁Лютэра	-11.828
▁цэх	-11.8281
▁убачыў	-11.8283
▁Федэрацыя	-11.8284
▁бомб	-11.8284
▁традыцыям	-11.8284
етра	-11.8284
▁жанчынам	-11.8285
▁народжаны	-11.8285
▁плану	-11.8286
▁рэдкім	-11.8286
▁адказвае	-11.8291
рэба	-11.8293
▁тэлескопа	-11.8296
▁Шу	-11.8305
▁стро	-11.8307
▁тэлеканал	-11.8307
▁эк	-11.8308
▁патрапіў	-11.8312
▁начны	-11.8317
▁цяг	-11.8317
▁ўспаміна	-11.832
▁ўтрымліваюц	-11.8322
▁пасялення	-11.8324
тылі	-11.8328
▁прадстаўляю	-11.8336
▁узаемадзеяння	-11.8337
▁земск	-11.8338
▁ўключэнн	-11.8339
▁валам	-11.8339
▁мэра	-11.8339
▁Турав	-11.834
трыманне	-11.8344
▁лінейна	-11.8347
▁філіяла	-11.8349
▁пастаянным	-11.835
прэзідэнта	-11.835
▁выкана	-11.8351
▁прынцэс	-11.8351
▁будова	-11.8354
▁Распрацава	-11.8356
▁вучэбны	-11.8357
▁іспанцам	-11.8357
▁адбіт	-11.8357
▁каз	-11.8359
▁ручаё	-11.836
▁дамові	-11.8361
▁экіпажа	-11.8367
▁ўпрыгожаны	-11.8367
марскі	-11.8368
▁адпраўляе	-11.8372
▁ствараў	-11.8372
▁апора	-11.8373
дра	-11.8374
▁лекара	-11.8374
▁малад	-11.8374
▁пераможцам	-11.8379
▁пачынаў	-11.8381
▁даруч	-11.8382
▁Пухавіцкі	-11.8383
жэн	-11.8386
▁партрэта	-11.8392
▁спыняе	-11.8392
▁фашысцк	-11.8393
Балаховіч	-11.8394
▁Адрыян	-11.8394
▁арфаграфі	-11.8394
▁праву	-11.8394
▁Мастацка	-11.8394
▁Чэрчыл	-11.8394
▁прапорцы	-11.8394
▁страчана	-11.8394
▁тытун	-11.8394
▁Валгаград	-11.8394
▁падвойна	-11.8394
▁ісландск	-11.8394
▁Гамбі	-11.8394
▁калектывізацы	-11.8394
▁касманаўт	-11.8394
▁змагл	-11.8395
▁Слав	-11.8396
▁ўзята	-11.8396
▁Пціч	-11.8396
▁перавезен	-11.8397
▁выгнаны	-11.8397
▁губляе	-11.8397
▁Вацлава	-11.8398
▁Чачот	-11.8398
▁соцен	-11.8399
▁арганізатарам	-11.8399
▁базава	-11.84
▁пісьмен	-11.8401
▁Лаос	-11.8403
▁прыгарадны	-11.8403
▁Частк	-11.8404
▁Конрад	-11.8405
▁пракладзен	-11.8406
▁Ігара	-11.8407
▁Дарог	-11.8409
▁вірус	-11.8413
▁бул	-11.8413
АА	-11.8414
▁вытворц	-11.8414
▁Раслінн	-11.8414
▁тка	-11.8415
▁Сябра	-11.8421
ткі	-11.8423
▁ВС	-11.8425
▁калегіума	-11.8426
▁палякам	-11.8427
▁рэчывам	-11.8428
▁канцэнтрацыя	-11.8431
ІІ	-11.8432
▁свін	-11.8434
▁Людвіг	-11.8435
▁Выця	-11.8436
▁Усерасійск	-11.8437
▁ўзыходз	-11.8437
▁вучням	-11.8437
▁багіня	-11.8438
ардо	-11.8439
плады	-11.8442
▁залат	-11.8443
▁Ірына	-11.8444
▁Аляск	-11.8445
▁губерн	-11.8446
▁Арменія	-11.8447
▁розніц	-11.8448
▁адправілі	-11.8449
▁Бю	-11.8451
ібн	-11.8456
▁тура	-11.846
▁навіч	-11.8462
ft	-11.8463
▁палкоў	-11.8463
▁суседзя	-11.8465
▁Саратаў	-11.8467
▁заданне	-11.847
▁групавы	-11.8472
▁спадз	-11.8472
▁звярнул	-11.8475
▁Чэхія	-11.8476
▁лён	-11.8478
▁Тураўска	-11.8483
▁ўласцівасця	-11.8484
часна	-11.8488
▁значнасц	-11.8488
▁востр	-11.8489
▁класіфікацыя	-11.8492
▁кармавы	-11.8495
▁брытанск	-11.8495
▁ўладар	-11.8496
▁адхіленн	-11.8499
▁віруса	-11.8499
прост	-11.85
▁неза	-11.8503
АЭ	-11.8505
▁ракет	-11.8506
▁меншыя	-11.8507
▁праяві	-11.8511
▁пладо	-11.8513
тэка	-11.8515
▁Вячасла	-11.8515
bo	-11.8517
ахвотна	-11.8518
▁даследвання	-11.8518
▁Нарач	-11.8519
▁Дружб	-11.8519
▁аграрны	-11.8519
▁манументальны	-11.8519
▁фарміруюц	-11.8519
▁Элізаб	-11.8519
▁рашуча	-11.8519
▁бытаво	-11.8519
▁дзіўна	-11.8519
▁сківіц	-11.8519
▁Тайван	-11.8519
▁астанк	-11.8519
▁Можа	-11.852
▁карычневы	-11.852
▁Прычы	-11.852
▁нейтрон	-11.8521
▁прызёр	-11.8521
▁дазвалял	-11.8523
▁сыгра	-11.8524
▁рэйх	-11.8525
▁філалогі	-11.8527
▁належыл	-11.8527
кало	-11.8532
▁вусна	-11.8533
▁Рычарда	-11.8533
▁выказала	-11.8534
▁святым	-11.8534
▁адыходзі	-11.854
▁Арк	-11.854
ic	-11.8548
▁ўраўнення	-11.8549
▁абгрунтаванн	-11.8549
▁немаўля	-11.8551
▁пазначэнне	-11.8557
▁перакананн	-11.8557
▁калектыўн	-11.8557
▁калектыўны	-11.8558
▁Гален	-11.8558
▁Грэ	-11.8558
▁пралів	-11.856
▁ісламскі	-11.8562
▁планаванн	-11.8562
▁нейк	-11.8563
▁Неапал	-11.8566
▁прыстасаванн	-11.8568
▁размешчаным	-11.8568
▁Гімалая	-11.8571
▁творч	-11.8574
▁Ушацкі	-11.8576
▁сучасніка	-11.8577
▁квадрат	-11.8578
▁Дуб	-11.8579
▁Наталля	-11.858
▁Вызвален	-11.8581
▁кодэкс	-11.8584
▁самастойн	-11.8585
▁смяротнасц	-11.8585
▁Федэральн	-11.8587
▁рэгіёнам	-11.8587
▁прыгожа	-11.8587
▁духоўным	-11.8593
▁мозга	-11.86
▁гора	-11.8602
▁атмасфера	-11.8608
▁надаю	-11.8608
▁мірн	-11.8611
▁Ваз	-11.8611
▁землетрасення	-11.8613
▁Бр	-11.8613
раўна	-11.8616
▁паэты	-11.8618
значна	-11.862
яўлена	-11.8622
уры	-11.8625
турэцк	-11.8627
▁адменены	-11.8627
палов	-11.8627
▁уласцівасця	-11.863
▁абмяжоўвае	-11.8632
▁пяско	-11.8634
▁структурны	-11.8634
▁запатрабава	-11.8636
▁Ке	-11.8638
▁Папу	-11.8638
▁чыгуначн	-11.8641
▁запрасіл	-11.8643
▁групоўка	-11.8643
ыпламатычны	-11.8645
▁Рэспу	-11.8645
―	-11.8645
▁апалчэнн	-11.8645
▁профіл	-11.8645
▁суфікс	-11.8645
▁нелегальна	-11.8645
▁Адукацы	-11.8645
▁пацыента	-11.8645
▁англамоўн	-11.8645
▁крымінальны	-11.8645
▁перасячэнн	-11.8645
▁статыстычна	-11.8645
▁трыснёг	-11.8645
▁Сінод	-11.8646
▁Расцісла	-11.8646
вол	-11.8646
▁паменшы	-11.8646
▁разгромлен	-11.8647
▁Меркава	-11.8647
▁набыва	-11.8648
▁першасны	-11.8648
▁Трох	-11.8649
він	-11.8651
нідаў	-11.8652
▁Магілёўск	-11.8652
▁Сала	-11.8655
▁Выбран	-11.8655
▁вікінг	-11.8656
▁адказа	-11.8657
▁Раду	-11.8658
▁тэхнічным	-11.8658
▁веліч	-11.866
▁магі	-11.8663
▁цеплаво	-11.8663
▁Самк	-11.8664
▁бук	-11.8664
▁Міністэрств	-11.8665
▁гучанне	-11.8665
асопіс	-11.8666
▁сфарміраваў	-11.8667
▁грудны	-11.867
▁Тэўтонскі	-11.8671
▁ўяві	-11.8672
▁Іо	-11.8674
▁пачуцц	-11.8674
▁жывёльны	-11.8674
▁аддзелам	-11.8674
▁неафіцыйна	-11.8675
▁Назван	-11.8675
▁увахода	-11.8675
▁Эн	-11.8676
▁вучэнн	-11.8677
▁ўсеагульна	-11.868
▁выдзяленн	-11.8681
▁ўстойліва	-11.8682
▁Хар	-11.8684
m	-11.8686
▁напал	-11.8686
▁Танк	-11.8686
th	-11.8687
▁выканал	-11.8688
▁Змен	-11.8689
▁лод	-11.8693
▁цудоўны	-11.8693
▁фізічным	-11.8694
▁байц	-11.8695
▁пл	-11.8697
▁ужыванне	-11.8698
▁Пола	-11.8699
начы	-11.8707
▁геалагічна	-11.8708
▁дзяўчына	-11.8713
▁чвэрць	-11.8714
▁адпраўля	-11.8714
▁падраздзяленне	-11.8718
▁аўтарскі	-11.8718
сцёр	-11.8719
▁ўрадавы	-11.8719
▁спа	-11.8723
▁ац	-11.8723
▁радыуса	-11.8728
▁разглядалі	-11.8731
▁Джо	-11.8735
▁радасц	-11.8737
▁правадыра	-11.8742
▁пазна	-11.8745
▁ўзбраення	-11.8746
▁партызанам	-11.8748
▁дысцыпліна	-11.8752
▁выключэння	-11.8753
рол	-11.8754
▁трапічн	-11.8754
▁Бат	-11.8757
глыб	-11.8757
▁Нэ	-11.8757
▁ваява	-11.8761
▁квадрата	-11.8763
▁камуністычн	-11.8765
wa	-11.8765
▁падкрэслівае	-11.8766
кама	-11.8766
▁лацінскім	-11.8768
▁ўсеагульны	-11.8768
▁вершаваны	-11.877
▁карыстал	-11.8773
▁вывез	-11.8773
▁Кыргызстан	-11.8774
▁аэрадром	-11.8774
▁бясплатна	-11.8774
▁вернута	-11.8774
▁салідарнасц	-11.8774
▁калідор	-11.8774
▁зможа	-11.8774
▁прадукцыйнасц	-11.8774
▁Валода	-11.8774
▁акісл	-11.8774
▁Рудня	-11.8774
▁каралавы	-11.8774
▁Лісабон	-11.8774
▁ежа	-11.8774
▁шатландскі	-11.8774
▁бяс	-11.8775
▁Загіну	-11.8775
▁сумяшча	-11.8775
▁стандартна	-11.8776
▁Наступна	-11.8777
йскі	-11.8777
▁сцэнарыст	-11.8778
▁Казанск	-11.8779
▁пераносіц	-11.8779
язь	-11.878
▁Дзікі	-11.8781
▁сабралі	-11.8782
▁індзейскі	-11.8783
▁Важны	-11.8786
▁падмур	-11.8786
▁Кен	-11.8787
▁аказанн	-11.8788
▁лячэнне	-11.8789
▁сената	-11.8792
▁абяцанн	-11.8796
ГУ	-11.8799
▁магістр	-11.8801
▁мужчына	-11.8801
▁Еў	-11.8801
▁унутраным	-11.8806
▁выяўленчы	-11.8809
▁сцэнары	-11.881
▁такс	-11.8812
▁цывілізацыя	-11.8813
шчына	-11.8813
▁Лю	-11.8821
▁маста	-11.8827
▁шклян	-11.8829
▁хімік	-11.8829
▁рова	-11.8833
▁прыродным	-11.8833
▁гісторыкам	-11.8833
▁рэш	-11.8834
▁здзейсні	-11.8834
ЦР	-11.8836
▁газава	-11.8842
▁арнаментам	-11.8842
▁ужывал	-11.8842
зец	-11.8844
тс	-11.8844
▁Эл	-11.8844
▁перашкодзіл	-11.8845
▁царкоўным	-11.8845
льнік	-11.8845
▁кабінета	-11.8849
▁густы	-11.8849
▁заваяван	-11.8849
▁архібіскуп	-11.885
▁Куба	-11.8853
▁васалам	-11.8853
▁Праця	-11.8854
▁320	-11.8856
▁справам	-11.8858
▁дадаткам	-11.8859
▁Дона	-11.886
▁апазіцыя	-11.8863
▁Пастанова	-11.8863
▁жыхара	-11.8863
▁выдатн	-11.8864
▁друкаваў	-11.887
▁Ала	-11.8872
▁акупіравана	-11.8872
▁трамвайна	-11.8872
▁пласцін	-11.8875
▁спыненне	-11.8875
▁патрэба	-11.8877
антэ	-11.8883
▁280	-11.8885
▁паезд	-11.8886
▁акцёрам	-11.8886
▁класічным	-11.8888
▁акруговы	-11.8889
▁парог	-11.889
▁выстава	-11.8891
▁арт	-11.8892
▁Лютэр	-11.8893
▁Пінскі	-11.8894
▁намагання	-11.8897
радам	-11.8898
▁мага	-11.8898
▁падручніка	-11.8899
▁Пар	-11.89
▁маляванн	-11.8903
pan	-11.8903
▁Кандрат	-11.8903
▁Асіры	-11.8903
▁Максіміліян	-11.8903
▁аналітычн	-11.8903
▁вымаўля	-11.8903
▁забудавана	-11.8903
▁завочна	-11.8903
▁панядзел	-11.8903
▁сінонім	-11.8903
акушэрс	-11.8903
▁вінаваты	-11.8904
▁Буш	-11.8904
▁пакрывае	-11.8904
▁Васільевіч	-11.8904
▁Дзмітрыевіч	-11.8905
▁Азербайджанска	-11.8906
od	-11.8906
▁абвяшчае	-11.8907
▁апек	-11.8908
▁хацела	-11.8908
▁рэнесанс	-11.8908
ронта	-11.8909
нава	-11.891
▁адбіла	-11.8912
▁акцыянерна	-11.8912
▁змяшчала	-11.8913
▁сімволік	-11.8913
▁выкладанне	-11.8914
▁Поў	-11.8915
▁пераадоле	-11.8919
▁Краснадарск	-11.8921
▁вобраза	-11.8921
радок	-11.8923
▁вызначыла	-11.8928
▁кантактаў	-11.893
▁лесвіц	-11.8932
▁Барысаўскі	-11.8935
▁вылічэння	-11.8937
▁уцёк	-11.894
▁Прыклад	-11.8941
▁рэкам	-11.8944
ябе	-11.8944
▁магістраль	-11.8946
▁ран	-11.895
▁прэзідэн	-11.895
▁раскры	-11.8951
меч	-11.8953
▁напружанне	-11.8954
▁скрыпк	-11.8956
▁зімова	-11.8958
бій	-11.896
▁дадае	-11.8961
▁арыфметык	-11.8964
▁тундр	-11.8967
▁Пілсудск	-11.8967
▁аўстрыйск	-11.8968
▁Агінск	-11.8969
▁распрацоўвае	-11.8969
▁Панам	-11.8971
▁спалучэння	-11.8978
▁рэктар	-11.8979
▁парады	-11.8987
▁узнікненн	-11.8987
▁Васільк	-11.899
яло	-11.8994
▁заключана	-11.8999
▁звычай	-11.8999
▁паўстанцам	-11.9
▁мэ	-11.9007
ёта	-11.9008
▁ідэалогія	-11.9009
▁здавал	-11.901
лічваю	-11.9011
▁архіепіскапа	-11.9014
▁цук	-11.9015
▁выдавецк	-11.903
друго	-11.9031
▁Адміністрацы	-11.9035
▁Гімн	-11.9035
▁Актыўны	-11.9035
▁Архімед	-11.9035
▁Елізавет	-11.9035
▁Познан	-11.9035
▁Рэнесанс	-11.9035
▁Фелікс	-11.9035
▁алюміні	-11.9035
▁аргенцінск	-11.9035
▁высыл	-11.9035
▁высілк	-11.9035
▁задавальня	-11.9035
▁засваенн	-11.9035
▁пажыццёва	-11.9035
▁турбін	-11.9035
▁фармальны	-11.9035
▁галандц	-11.9035
▁сумежны	-11.9035
▁троцк	-11.9035
▁металічна	-11.9035
▁змушаны	-11.9035
▁Традыцыйны	-11.9035
▁прайграў	-11.9035
▁схільнасц	-11.9035
▁Ямайк	-11.9035
▁Божы	-11.9036
▁туманнасц	-11.9036
▁Шуберт	-11.9036
▁гарадзішч	-11.9036
▁Інтэрнацыянал	-11.9037
▁Гран	-11.9037
▁молат	-11.9038
лер	-11.9038
▁праектаванн	-11.9038
▁Якаб	-11.9038
▁падпісанне	-11.9039
▁зімоўк	-11.904
▁пакідаю	-11.9043
▁замкам	-11.9045
ноства	-11.9046
▁настроі	-11.9046
▁Рудольфа	-11.9046
▁слуг	-11.905
▁упрыгожаны	-11.9051
пор	-11.9054
eat	-11.9055
▁контур	-11.9055
▁Ду	-11.9057
▁беларускамоўны	-11.9061
▁ланцуга	-11.9062
▁каму	-11.9064
оні	-11.9065
▁AM	-11.9067
▁легендарн	-11.9067
▁пераўтварэнн	-11.9068
▁Гену	-11.9073
▁Каманда	-11.9075
▁Парэ	-11.9075
▁пагадненн	-11.9075
▁штучным	-11.9076
віц	-11.908
▁di	-11.9081
▁паўстанцкі	-11.9089
▁выказалі	-11.909
▁Галін	-11.909
▁прыстан	-11.9091
▁атрымае	-11.9092
▁валокн	-11.9092
нэ	-11.9094
▁Балканск	-11.9096
▁марш	-11.9098
▁вонкавым	-11.91
▁разбурыл	-11.9101
▁нядоўг	-11.9101
▁Варонеж	-11.9103
▁прамежк	-11.9107
▁Хуана	-11.9107
▁парт	-11.9108
▁чакаць	-11.9117
▁арганізацыйна	-11.9117
▁выканаўцаў	-11.9119
▁абмежаванне	-11.912
▁асаблівасця	-11.9122
▁міль	-11.9124
▁біржа	-11.9124
▁апаратам	-11.9126
▁Пачатков	-11.9126
▁працам	-11.9129
▁падзеле	-11.9132
▁кот	-11.9134
▁сфарміравалі	-11.9141
▁al	-11.9141
▁Асамблея	-11.9143
▁Абра	-11.9147
▁замкавы	-11.9149
арада	-11.9151
▁дрэвамі	-11.9151
▁уво	-11.9152
▁Давіда	-11.9153
▁Давыда	-11.9154
▁супрацьлеглы	-11.9158
▁330	-11.916
▁жывёлам	-11.9161
▁сіметры	-11.9161
▁Шчы	-11.9162
эорыя	-11.9167
▁журналістам	-11.9167
▁камсамол	-11.9168
▁Пелапанес	-11.9168
▁Севіль	-11.9168
▁Барадулін	-11.9168
▁Жытомір	-11.9168
▁Эквадор	-11.9168
▁амністы	-11.9168
▁асіміляцы	-11.9168
▁нацыяналіста	-11.9168
▁прыметнік	-11.9168
▁старадаўня	-11.9168
▁ўзаемаадносін	-11.9168
▁попел	-11.9168
▁Бенгалі	-11.9168
▁абрыс	-11.9168
▁Дарвін	-11.9168
▁мітраполі	-11.9169
▁кансерватыўна	-11.9169
▁каардынацы	-11.9169
▁дэкад	-11.9169
▁радыяцы	-11.917
▁Кой	-11.917
to	-11.9171
▁змяшаны	-11.9172
▁скро	-11.9173
▁маніфест	-11.9173
▁ужыванн	-11.9173
▁Густава	-11.9173
▁ідыш	-11.9175
▁брамнік	-11.9175
▁прэтэндава	-11.9191
ванне	-11.9192
▁нядаўн	-11.9192
▁Пталамея	-11.9193
▁ахвяраванн	-11.9193
паў	-11.9193
▁цен	-11.9194
▁уніяцка	-11.9197
▁Слонімскі	-11.92
▁мацерыкова	-11.9202
▁запушчан	-11.9202
▁серабр	-11.9204
▁асацыяцыя	-11.9205
▁Каралев	-11.9206
▁забарона	-11.9206
▁маленькім	-11.9207
▁вытрымаў	-11.9211
▁Карон	-11.9212
▁перадавы	-11.9212
▁ўласціва	-11.9212
▁сухот	-11.9213
▁бірж	-11.9213
▁ўступа	-11.9214
▁Егіпт	-11.9215
▁Асаблів	-11.9217
▁сял	-11.9217
▁падач	-11.922
▁распаўсюдзі	-11.9221
▁філ	-11.9223
▁ёмістасц	-11.9224
▁добраахвотніка	-11.9227
▁аддадзен	-11.9232
▁распа	-11.9233
▁мыш	-11.9239
▁наступленн	-11.924
▁кальца	-11.9243
нікаў	-11.9243
▁08	-11.9243
актаў	-11.9243
▁сатырычны	-11.9245
▁маршала	-11.9246
▁завяршэнн	-11.9247
▁валок	-11.9247
метра	-11.925
▁Vo	-11.9252
▁стадыя	-11.9255
▁шчыльны	-11.9259
Еўрапейск	-11.926
▁вугля	-11.9261
▁луга	-11.9263
▁Лін	-11.9264
▁Ніж	-11.9265
▁судн	-11.9266
▁рог	-11.9267
▁конь	-11.9271
рэктарам	-11.9273
▁разрабава	-11.9279
▁бача	-11.9281
▁Разі	-11.9282
▁падпольн	-11.9283
шчын	-11.9284
▁касмічн	-11.9287
▁падоўжны	-11.9288
лаўра	-11.9288
▁рэалізаван	-11.9289
біліс	-11.9292
▁могіл	-11.9293
▁пакідал	-11.9294
▁01	-11.9294
бел	-11.9296
▁стрыечны	-11.9299
павярховы	-11.93
▁тэрмадынамі	-11.93
z	-11.9301
кватэр	-11.9302
▁эпідэмія	-11.9302
▁Сіротк	-11.9303
▁Трансільвані	-11.9303
▁Феадосі	-11.9303
▁бровар	-11.9303
▁вечназялёны	-11.9303
▁змянша	-11.9303
▁малдаўск	-11.9303
▁методык	-11.9303
▁паўфінал	-11.9303
▁рэзананс	-11.9303
▁трывалы	-11.9303
▁цяснін	-11.9303
▁ўстойлівы	-11.9303
▁Стэн	-11.9304
▁Эдынбург	-11.9304
▁мікраарганізм	-11.9304
▁ізатопа	-11.9304
▁сарака	-11.9304
▁эмірат	-11.9304
▁падаўжэнн	-11.9304
▁като	-11.9304
▁ліберальна	-11.9305
▁кавалерыйска	-11.9306
GN	-11.9307
▁Грозн	-11.9307
▁ўспрыма	-11.9307
▁аказвал	-11.9309
▁разбурэнне	-11.931
▁драматурга	-11.931
▁даручы	-11.9311
H	-11.9311
▁падземн	-11.9311
▁Ni	-11.9311
▁валадаранн	-11.9312
▁пахавана	-11.9313
пушчаны	-11.9313
▁Луар	-11.9313
▁Судан	-11.9316
джэр	-11.9316
▁скан	-11.9317
▁Лепель	-11.9319
▁малп	-11.9319
▁прададзены	-11.932
▁мабілізацы	-11.9321
▁рознасц	-11.9321
▁Венгерска	-11.9321
▁яднала	-11.9324
кіна	-11.9326
▁славуты	-11.9327
▁трохвугольнік	-11.9332
▁купалам	-11.9332
▁блакітным	-11.9338
▁прэтэндэнта	-11.9339
▁футбола	-11.934
▁святочны	-11.9342
▁унук	-11.9346
▁здабыт	-11.9347
▁Go	-11.9352
▁палацава	-11.9353
▁крытыку	-11.9354
▁Лаг	-11.9356
▁ледавіко	-11.9356
▁мяняе	-11.9361
▁Траецка	-11.9362
▁бліскучы	-11.9363
▁бліз	-11.9364
▁фальклорны	-11.9364
▁раздзеле	-11.9366
▁апазіцыйны	-11.9368
▁яркім	-11.9368
▁Пярэдня	-11.937
▁актам	-11.937
▁медзь	-11.9373
▁дэмакратычн	-11.9373
▁абвяшчэнне	-11.9377
▁шэра	-11.9377
▁спрэчны	-11.9378
▁максімальны	-11.9379
▁казацк	-11.9379
сна	-11.938
▁Лясн	-11.9381
▁ігра	-11.9383
▁раскопка	-11.9383
▁памочнік	-11.9384
▁сімвалічна	-11.9386
▁мангольск	-11.9389
артэ	-11.9389
▁афрыканск	-11.939
галоўнакамандуюч	-11.9392
▁гульняво	-11.9398
▁выезд	-11.9399
▁падарожж	-11.9401
▁Апошнім	-11.9406
▁дачц	-11.9407
▁Ленінскі	-11.9408
тані	-11.9408
▁Сант	-11.9409
▁Паселішч	-11.9412
▁Прыбалтык	-11.9412
▁вылучыў	-11.9414
▁распачал	-11.9421
▁зваро	-11.9421
значаны	-11.9422
▁юрыст	-11.9425
▁Рымск	-11.9426
▁ледавікова	-11.9426
▁кантынен	-11.9426
▁гадава	-11.9427
▁спадчыннікам	-11.9428
▁чужы	-11.9428
лёт	-11.9428
▁пратэстанты	-11.9429
уан	-11.943
▁фін	-11.9433
▁выстаў	-11.9436
НС	-11.9439
▁ліс	-11.944
▁Ляшчынск	-11.944
▁заслужан	-11.944
±	-11.944
▁Аляхновіч	-11.944
▁Аўтамабіл	-11.944
▁Гватэмал	-11.944
▁Дзюрэр	-11.944
▁Ламаноса	-11.944
▁акружана	-11.944
▁буржуазн	-11.944
▁бюлетэн	-11.944
▁прапаведава	-11.944
▁уражанне	-11.944
▁цагельн	-11.944
▁электрамагнітны	-11.944
▁рэактар	-11.944
▁Валенсі	-11.944
▁фанем	-11.944
▁Чачэрск	-11.9441
▁лакальны	-11.9441
▁Тэсл	-11.9441
ck	-11.9441
▁спіральна	-11.9441
▁засяроджан	-11.9441
▁Абарон	-11.9441
▁проці	-11.9441
▁бульвар	-11.9441
▁ніжэйша	-11.9441
▁Трайдзен	-11.9442
▁разабран	-11.9442
▁валун	-11.9442
▁хімія	-11.9443
▁падымае	-11.9443
▁Працавал	-11.9444
▁канцэртна	-11.9444
▁арыстакратычн	-11.9445
▁Глуск	-11.9446
▁назапашванн	-11.9447
▁салдатам	-11.9447
▁сонечным	-11.9448
Джэр	-11.9449
▁схаваны	-11.9449
▁дасканаласц	-11.9452
▁родавы	-11.9452
▁Бернард	-11.9452
▁раненн	-11.9453
▁рымлянам	-11.9457
▁планам	-11.9457
оп	-11.9458
▁ўзорам	-11.9459
▁вылучыла	-11.9463
▁Альбо	-11.9468
▁Вар	-11.9469
меры	-11.9472
▁аблажы	-11.9475
▁ёмны	-11.9476
ысці	-11.9478
дай	-11.9478
▁Пала	-11.9478
▁вострым	-11.948
▁радавы	-11.9485
▁прастат	-11.9486
▁аблога	-11.949
▁жорсткім	-11.9492
танцыя	-11.9493
▁вала	-11.9496
▁сачыненн	-11.9496
▁вывяржэнн	-11.9498
▁Фам	-11.95
▁атакавал	-11.9501
▁пратока	-11.9501
▁яйка	-11.9501
▁умоўна	-11.9502
кая	-11.9503
ўлення	-11.9503
▁Блакітны	-11.9504
▁фігуру	-11.9504
перац	-11.9507
кал	-11.9508
▁Калумба	-11.9508
▁моладзевы	-11.9509
▁светла	-11.9509
▁жаноч	-11.951
▁Якаў	-11.9513
▁пераня	-11.9514
▁Тор	-11.9519
казалі	-11.9519
▁класік	-11.9522
▁царкоўн	-11.9522
▁Хадкевіч	-11.9524
▁Ліні	-11.9524
коп	-11.9528
▁ўчын	-11.9529
▁здабывае	-11.953
вое	-11.9531
▁чытача	-11.9535
▁Хат	-11.9536
▁графств	-11.9538
казі	-11.9539
▁Валянціна	-11.954
▁Маце	-11.9543
▁Цяг	-11.9549
▁падкрэслі	-11.955
▁завяршэнне	-11.9551
▁распаўсюджвал	-11.9552
▁інспектара	-11.9553
▁здымае	-11.9557
▁парыжскі	-11.956
▁сардэчна	-11.956
▁Пярсцён	-11.9563
▁адлюстроўва	-11.9565
азначэнне	-11.9566
▁скіну	-11.9569
▁езуіцка	-11.957
▁рэчаісны	-11.9571
▁Гальшанскі	-11.9571
▁Збор	-11.9576
▁звод	-11.9579
▁Ёхан	-11.9579
▁Інакенці	-11.9579
▁Антыльскі	-11.9579
▁Закаўказз	-11.9579
▁Наўгародска	-11.9579
▁Хрысціцел	-11.9579
▁Чавус	-11.9579
▁беспарадк	-11.9579
▁патэнт	-11.9579
▁прэзідыум	-11.9579
▁цэласнасц	-11.9579
▁пажыўны	-11.9579
▁хакейн	-11.9579
▁Арабска	-11.9579
▁перасякаюц	-11.9579
▁кельт	-11.9579
▁рагата	-11.958
▁адчувальны	-11.958
▁рэйхстаг	-11.958
▁дыстанцы	-11.958
▁дослед	-11.958
▁Ліван	-11.958
▁Унутрана	-11.958
▁індустрыяльн	-11.958
▁Скірмунта	-11.9582
▁Ашмянск	-11.9583
▁мноств	-11.9583
▁знік	-11.9583
id	-11.9584
▁агент	-11.9584
▁адказным	-11.9587
▁медны	-11.9588
te	-11.9588
▁выйгра	-11.9589
▁выяўленне	-11.9589
▁палю	-11.959
▁Работ	-11.959
сіфікацы	-11.959
ідаў	-11.959
▁ударам	-11.9591
▁сабрана	-11.9591
▁аналаг	-11.9592
▁сфарміравана	-11.9592
▁выд	-11.9594
▁завяшчанн	-11.9595
▁румынска	-11.9595
мусіў	-11.9596
▁адбор	-11.9599
рэжысёр	-11.9599
▁сцябло	-11.96
▁сланц	-11.96
▁Жанн	-11.96
▁Пары	-11.9601
▁плён	-11.9603
▁камбінацы	-11.9606
▁пераадоленн	-11.9607
тара	-11.9608
▁колам	-11.9608
▁ліп	-11.9609
▁спадчынна	-11.9611
▁перакладалі	-11.9613
▁Фрам	-11.9615
▁вызначылі	-11.9617
▁абслугоўва	-11.9618
▁дзюба	-11.9623
▁індэкс	-11.9628
▁айчынн	-11.963
▁прыродн	-11.963
▁адмаўляў	-11.9633
▁сілку	-11.9638
▁працуючы	-11.9638
▁папярэднік	-11.9638
▁ўзмацні	-11.9641
▁ўладальнікам	-11.9646
▁прафесійным	-11.9656
▁слабым	-11.9661
інер	-11.9663
▁набыццё	-11.9667
▁механіка	-11.9667
менш	-11.967
▁Фінск	-11.9671
▁мужчынам	-11.9673
▁вызваленча	-11.9673
▁патрыярхат	-11.9676
годдзяў	-11.9679
▁настроя	-11.9681
▁Глыбока	-11.9682
▁дайшоў	-11.9682
▁характарыстыка	-11.9682
▁апуска	-11.9685
▁вызваліў	-11.9688
▁Мірск	-11.9689
▁выпускаў	-11.9691
▁марал	-11.9692
▁уварва	-11.9702
▁прымусі	-11.9702
▁рэспубліканск	-11.9703
▁спор	-11.9703
рэчы	-11.9703
▁Самар	-11.9708
▁беларускамоўн	-11.971
▁перавод	-11.9712
▁Далі	-11.9712
▁супрацьстая	-11.9712
▁японскім	-11.9713
▁ляжал	-11.9713
▁літ	-11.9716
▁стэ	-11.9717
▁надзел	-11.972
▁штурш	-11.972
▁Абалон	-11.972
▁Антант	-11.972
▁Археалагічны	-11.972
▁Длугаш	-11.972
▁Еўфрат	-11.972
▁Фларыд	-11.972
▁гіганцкі	-11.972
▁лагічна	-11.972
▁мемуары	-11.972
▁інтэрфейс	-11.972
▁Свіслацк	-11.972
▁германц	-11.972
▁канадска	-11.972
сервер	-11.972
▁Драздовіч	-11.972
▁ўспы	-11.972
▁трое	-11.972
ашэвіч	-11.972
▁мядзведзя	-11.972
▁гнездаванн	-11.972
▁фланг	-11.9721
▁Comp	-11.9721
▁Арсенал	-11.9721
▁птушанят	-11.9721
▁вярб	-11.9721
▁выстаўлен	-11.9721
▁надзвычайны	-11.9722
▁рэвіз	-11.9723
▁персанал	-11.9723
▁дэкор	-11.9724
▁змяшчаў	-11.9725
▁канкурэнта	-11.9726
▁сказал	-11.9727
▁Гадав	-11.9729
▁уласным	-11.9733
▁вечны	-11.9733
▁тайна	-11.9733
▁смут	-11.9735
▁коз	-11.9736
▁ўпрыгожванн	-11.9738
▁сустрэла	-11.9739
▁шанц	-11.9739
▁разумеюць	-11.9739
▁тунэля	-11.974
▁позн	-11.9742
блога	-11.9743
Марын	-11.9744
▁Крамл	-11.9746
▁Біблія	-11.9747
▁партнёра	-11.9748
▁ўсталявал	-11.9749
▁сезонны	-11.975
▁ўпрыгожвалі	-11.975
▁размов	-11.975
▁Падляска	-11.9752
браны	-11.9753
▁адзначыла	-11.9753
▁эпоха	-11.9753
▁ператвара	-11.9754
▁насі	-11.9755
▁слава	-11.9758
▁Ельск	-11.9761
ліні	-11.9761
▁адмова	-11.9765
▁павышан	-11.9765
▁Святаполка	-11.9765
▁Аўстралійск	-11.9766
▁Ваўкавыскі	-11.9767
абарон	-11.9769
▁Галіцы	-11.977
▁Іспанска	-11.9772
▁высакародны	-11.9772
▁мінімальна	-11.9774
руб	-11.9777
▁Дзісн	-11.9777
▁Інданезія	-11.9778
святле	-11.9782
▁1870-	-11.9783
▁расследаванн	-11.9785
▁віленск	-11.9789
▁гуманітарн	-11.9789
▁заўважан	-11.9791
▁прызначыл	-11.9794
▁Украінскі	-11.9805
▁ўпраўленн	-11.9806
▁цяжарнасц	-11.9806
▁пашкоджанн	-11.9808
▁Дзейнічал	-11.9809
▁абацтв	-11.9817
▁вільготна	-11.982
▁сцэнарыя	-11.982
▁Вольн	-11.9824
▁сыравіна	-11.9828
▁здзейснены	-11.9835
▁Заслаў	-11.9836
▁верх	-11.9837
lk	-11.9838
▁намесні	-11.9839
яспек	-11.9841
▁неандэртальца	-11.9846
▁цары	-11.9846
it	-11.985
▁кірую	-11.9851
▁апарату	-11.9851
▁царск	-11.9852
ярэзінск	-11.9854
▁ліквідава	-11.9855
▁перапіск	-11.9856
▁тарфян	-11.9857
бю	-11.986
шло	-11.986
▁кааліцыя	-11.986
▁мацней	-11.9861
▁друк	-11.9862
▁ўбачыў	-11.9863
сантыметр	-11.9863
▁Аэрапорт	-11.9863
▁Камбодж	-11.9863
▁Пазняк	-11.9863
▁Праблем	-11.9863
▁Рубенс	-11.9863
▁Севастопал	-11.9863
▁Турэцка	-11.9863
▁Фарэрскі	-11.9863
▁Фрэнсіс	-11.9863
▁Энцыклапеды	-11.9863
▁альянс	-11.9863
▁астранамічна	-11.9863
▁атрыбут	-11.9863
▁вясковы	-11.9863
▁гарбат	-11.9863
▁географ	-11.9863
▁запраша	-11.9863
▁нязменным	-11.9863
▁інструкцы	-11.9863
▁зручны	-11.9863
▁Буйніцк	-11.9863
▁Тыгр	-11.9864
▁папярэднічал	-11.9865
▁затрыманы	-11.9866
▁авіяцыйна	-11.9866
▁Сямёнавіч	-11.9866
▁захопліва	-11.9867
▁07	-11.9868
▁высветліла	-11.9868
▁папулярызацы	-11.9869
▁Лік	-11.9871
▁плада	-11.9871
▁пражск	-11.9872
▁кава	-11.9873
ыма	-11.988
▁гарачым	-11.9882
▁змешаны	-11.9885
▁рукапіса	-11.9885
▁пакутава	-11.9885
▁Тро	-11.9887
▁Рыб	-11.9889
▁Заканадаўча	-11.9895
▁ўзімку	-11.9896
далей	-11.9898
▁электронік	-11.9898
▁нуля	-11.9899
▁аблок	-11.99
▁Захар	-11.9901
▁бен	-11.9903
▁ўбачыл	-11.9904
ыльян	-11.9905
▁падаў	-11.9907
▁скляпення	-11.991
▁Пля	-11.9911
▁прававо	-11.9913
▁карніз	-11.9921
▁раслінн	-11.9923
▁адмаўля	-11.9934
▁расказвае	-11.9934
▁пастаноўка	-11.9943
▁Ліён	-11.9943
▁энергетычны	-11.9944
▁мужчынск	-11.9944
▁лен	-11.9947
▁ахапіл	-11.9949
▁Дамініка	-11.995
▁паскарэнн	-11.9954
заўс	-11.9957
▁арыентава	-11.9958
▁балгарскі	-11.9959
▁разбіл	-11.9959
▁дакумен	-11.9961
,6	-11.9962
▁старшынства	-11.9964
▁невядомым	-11.9967
▁Лагойскі	-11.997
▁пляменніка	-11.9974
▁граніт	-11.9975
▁ёмна	-11.9976
▁грах	-11.9977
▁Бра	-11.9979
▁карэспандэнта	-11.9981
▁шкляны	-11.9983
▁прыходзя	-11.9988
▁вызначалі	-11.9989
месцазнаходжанне	-11.9994
▁дыс	-11.9996
▁Тышкевіча	-11.9998
▁экс	-11.9998
▁плава	-12.0001
▁зялён	-12.0001
▁паасоб	-12.0005
▁супраціў	-12.0006
▁Ізяслав	-12.0008
▁воклад	-12.0008
·	-12.0008
▁Апалон	-12.0008
▁Мендзялее	-12.0008
▁Рэмбрант	-12.0008
▁Цётк	-12.0008
▁дынамічна	-12.0008
▁згадванн	-12.0008
▁кінафестывал	-12.0008
▁найбуйны	-12.0008
▁прасякнут	-12.0008
▁Магамет	-12.0008
▁буйнейша	-12.0008
▁пагром	-12.0008
▁штраф	-12.0008
▁папярэджанн	-12.0008
▁калібр	-12.0008
▁краёўцаў	-12.0008
▁мяшаны	-12.0008
▁нармальны	-12.0008
▁Без	-12.0009
▁пацук	-12.0009
▁Артура	-12.001
▁ракавін	-12.001
▁міжрэчч	-12.001
▁ахова	-12.0012
рлінга	-12.0013
▁Джонсан	-12.0014
▁гітлераўц	-12.0016
▁Галоўн	-12.0016
▁Тышкевіч	-12.0018
▁скарг	-12.0019
▁Браўн	-12.002
▁каланіст	-12.0022
▁Шатландыя	-12.0022
▁льд	-12.0024
▁Радзе	-12.0026
▁атакава	-12.0027
ёлаг	-12.0028
▁Курска	-12.0029
▁ўяўлення	-12.0034
тварыў	-12.0035
▁Дырэктар	-12.0035
▁Іва	-12.0037
▁серад	-12.0038
▁эстэтык	-12.0041
▁нагрузк	-12.0041
▁адміністратара	-12.0042
▁Надзвычайны	-12.0046
▁ганенн	-12.0048
▁пячатка	-12.0049
▁завяршае	-12.0049
▁сада	-12.0051
▁перасяленца	-12.0054
▁спадарожнікам	-12.0054
▁старт	-12.0056
▁службова	-12.006
глядам	-12.006
▁продкам	-12.0061
▁баяв	-12.0066
▁распада	-12.0066
▁гарад	-12.0071
▁негатыўны	-12.0081
▁Вылучаюц	-12.0082
▁кантынент	-12.0082
▁амерыканск	-12.0085
▁крытыкава	-12.0086
▁пяц	-12.0086
▁пададзены	-12.0086
▁магутн	-12.0087
▁фармаванн	-12.0088
▁Ленінградскі	-12.0093
▁юрыдычн	-12.0095
▁рай	-12.0097
▁Карлас	-12.0097
▁Арагон	-12.0101
▁Каль	-12.0105
▁Прэзідыум	-12.0105
▁Дата	-12.0106
стр	-12.011
▁Сафія	-12.0111
▁эфектыўны	-12.0118
▁акцыя	-12.0126
▁балад	-12.0132
▁пят	-12.0136
▁Курапата	-12.0136
▁Берлінскі	-12.0138
▁Афрыканск	-12.0139
▁масіўна	-12.0142
▁Аркты	-12.0142
▁сядзе	-12.0145
▁пушча	-12.0145
▁Маўры	-12.0151
▁Балты	-12.0151
агдэбург	-12.0151
▁Мядзел	-12.0153
▁Адмірал	-12.0155
ww	-12.0155
лавесі	-12.0155
▁Play	-12.0155
▁Сакратарыят	-12.0155
▁Сыракомл	-12.0155
▁Трыбунал	-12.0155
▁Ядвіга	-12.0155
▁дашкольн	-12.0155
▁зацікаўленасц	-12.0155
▁карупцы	-12.0155
▁псіхалагічна	-12.0155
▁склеп	-12.0155
▁цеплын	-12.0155
▁шырэй	-12.0155
▁Случ	-12.0155
▁спраектава	-12.0155
▁францыскан	-12.0155
▁шакалад	-12.0155
▁салёна	-12.0155
▁адстойва	-12.0155
▁вынаходніцтва	-12.0155
▁Манамах	-12.0155
▁пакрываюц	-12.0156
▁дамоўленасц	-12.0156
▁разарва	-12.0156
▁прыходзіла	-12.0157
сяле	-12.0157
▁цяжк	-12.0158
▁кален	-12.0159
аконным	-12.016
ленд	-12.016
▁Лонданск	-12.0161
▁жыва	-12.0163
▁рамк	-12.0164
▁асветнік	-12.0165
▁пошт	-12.0166
▁адваротна	-12.0167
▁кішк	-12.0167
энца	-12.0168
▁дадзен	-12.0169
▁пераўтварэнне	-12.0171
▁Пачала	-12.0173
▁радаво	-12.0175
▁бяспе	-12.0177
▁дакументальна	-12.0179
▁зрух	-12.0181
▁шведск	-12.0185
▁парадны	-12.0186
▁пасажыр	-12.0187
ансі	-12.0188
▁Ніц	-12.0189
▁нараджае	-12.019
▁Курлянды	-12.0191
▁Нар	-12.0192
▁ёзным	-12.0194
▁Турк	-12.0197
араў	-12.0198
▁дзеянням	-12.02
бліка	-12.0203
▁Bl	-12.0206
▁Варонежска	-12.0207
▁знакаміт	-12.0208
МР	-12.0208
нтэ	-12.021
▁спектра	-12.0211
up	-12.0212
▁17-	-12.0212
маш	-12.0212
▁гнязду	-12.0214
▁імператрыца	-12.0223
▁Смаргон	-12.0225
▁месцазнаходжанн	-12.0226
▁Касі	-12.0226
▁валодання	-12.0227
▁Малдова	-12.0229
▁залічан	-12.0233
▁пальц	-12.0235
▁развітым	-12.0238
польску	-12.024
▁накіроўвае	-12.0243
▁таварыша	-12.0243
▁увядзенне	-12.0244
▁караня	-12.025
▁прыносіл	-12.0253
▁яўрэям	-12.0255
▁каш	-12.0257
▁прыгод	-12.0261
▁развіў	-12.0267
▁Ку	-12.027
▁вола	-12.0272
▁Іардан	-12.0274
▁Пецярбургскі	-12.0279
▁абвяшчала	-12.0282
▁утварыл	-12.029
▁падмурка	-12.029
▁забяспечыл	-12.029
▁паспрыял	-12.0293
▁скліка	-12.0294
▁гучанн	-12.0295
▁набываю	-12.0296
▁Li	-12.0296
▁Адольфа	-12.0298
▁распаўсюд	-12.0299
▁арэнд	-12.0301
▁мовазна	-12.0303
▁Маргар	-12.0303
▁мемарыял	-12.0304
▁Антверпен	-12.0304
▁Екацярынбург	-12.0304
▁Камінтэрн	-12.0304
▁Канфедэрацы	-12.0304
▁Лаўрэнці	-12.0304
▁Персідскі	-12.0304
▁вікары	-12.0304
▁дзяўчат	-12.0304
▁дрэнны	-12.0304
▁колішні	-12.0304
▁кінастуды	-12.0304
▁множанн	-12.0304
▁паўсядзённ	-12.0304
▁самавызначэнн	-12.0304
▁фантастычны	-12.0304
▁Імкну	-12.0304
▁суквецц	-12.0304
▁Бядул	-12.0304
▁якасны	-12.0304
▁вынайш	-12.0304
▁дактар	-12.0304
▁Быхав	-12.0304
▁акцэнт	-12.0304
▁Аркадз	-12.0304
[...]
