<unk>	0
<s>	0
</s>	0
<pad>	0
▁,	-3.16009
▁.	-3.27534
я	-4.10963
▁і	-4.29004
й	-4.32077
▁ў	-4.38958
е	-4.47313
а	-4.51943
х	-4.52187
▁у	-4.6393
▁)	-4.64044
▁(	-4.64144
▁з	-4.65282
м	-4.67771
і	-4.70114
▁—	-4.73299
▁на	-4.7337
у	-4.92206
ы	-4.95662
▁	-4.97286
;	-5.03216
▁&	-5.05963
га	-5.11675
-	-5.14337
▁У	-5.22882
▁«	-5.31073
▁»	-5.31165
ў	-5.4287
▁да	-5.58613
ць	-5.59509
▁па	-5.60696
quot	-5.63779
▁не	-5.72565
аў	-5.78479
.	-5.80116
мі	-5.81933
▁за	-5.88276
apos	-5.90437
▁в	-5.92558
▁ад	-5.95005
▁а	-5.96221
▁года	-5.97878
ю	-5.98276
▁с	-6.00572
лі	-6.04834
▁:	-6.08193
ам	-6.13592
▁г	-6.1772
ся	-6.19991
▁и	-6.2059
▁годзе	-6.20772
на	-6.21206
ла	-6.26717
и	-6.26756
цца	-6.28391
ка	-6.29842
т	-6.413
▁быў	-6.42834
с	-6.44302
▁аб	-6.46081
▁што	-6.47893
▁А	-6.511
▁для	-6.51696
▁З	-6.5653
▁На	-6.61386
▁2	-6.64885
▁́	-6.65528
▁вы	-6.65629
кі	-6.6613
ны	-6.67861
▁что	-6.68145
▁яго	-6.68964
▁пры	-6.69507
к	-6.69917
▁як	-6.70546
▁км	-6.73337
та	-6.81124
▁пра	-6.83475
ую	-6.85592
▁я	-6.86102
▁склад	-6.86472
да	-6.86857
амі	-6.87814
▁які	-6.88191
н	-6.90445
▁С	-6.90827
▁пад	-6.90881
цы	-6.92087
ь	-6.94471
л	-6.95346
▁якія	-6.96457
▁вобласці	-6.96813
д	-6.97093
▁;	-6.97375
▁была	-6.98715
о	-6.9915
▁таксама	-6.99918
▁по	-7.01656
ва	-7.06575
ных	-7.07719
▁Я	-7.09525
▁1	-7.10568
▁было	-7.11619
ах	-7.11668
ні	-7.11979
ай	-7.12367
▁Па	-7.13163
ма	-7.1411
ра	-7.15996
за	-7.16979
▁’	-7.17334
▁былі	-7.17943
ры	-7.18113
▁раёне	-7.19029
ш	-7.19296
▁это	-7.19773
▁В	-7.19824
▁м	-7.19889
це	-7.19932
ўся	-7.20459
ку	-7.22643
ты	-7.23015
ецца	-7.2338
най	-7.23516
нага	-7.23613
▁Да	-7.23658
ля	-7.23824
з	-7.25019
▁3	-7.26034
ем	-7.2711
▁мы	-7.27119
▁ён	-7.28919
му	-7.2957
▁-	-7.30844
го	-7.31304
▁але	-7.33345
▁сельсавета	-7.34348
▁са	-7.34397
не	-7.34863
ль	-7.35428
▁вёска	-7.36244
ную	-7.36458
са	-7.37064
чы	-7.37154
▁пасля	-7.3761
▁час	-7.37702
▁15	-7.37963
ов	-7.38544
ча	-7.3865
ныя	-7.39099
▁гэта	-7.39649
шы	-7.40332
▁За	-7.40354
р	-7.40646
▁к	-7.40712
▁больш	-7.42345
скага	-7.4243
ч	-7.42677
э	-7.43055
▁якая	-7.43458
▁ва	-7.4355
▁каля	-7.44654
ле	-7.45396
п	-7.45939
лася	-7.46766
▁16	-7.47479
ная	-7.48056
▁Уваходзі	-7.50458
▁раз	-7.50746
ды	-7.50791
▁как	-7.51361
▁о	-7.52054
ліся	-7.52059
▁17	-7.5234
▁Беларусі	-7.52498
г	-7.52853
▁іх	-7.53405
ці	-7.53569
но	-7.53711
▁М	-7.55168
▁дзе	-7.55241
▁або	-7.55342
▁так	-7.5571
скі	-7.56254
в	-7.56617
▁И	-7.5667
▁/	-7.57818
то	-7.58337
▁4	-7.58389
▁ст	-7.5861
юць	-7.58637
▁складае	-7.59001
▁чалавек	-7.59059
▁І	-7.59173
ня	-7.59865
скай	-7.60879
оў	-7.60911
▁яўляецца	-7.60999
сці	-7.62387
▁яе	-7.62402
па	-7.62681
ом	-7.63066
ным	-7.63653
ту	-7.64109
▁толькі	-7.65656
▁раён	-7.6616
ста	-7.66285
ли	-7.66295
▁пера	-7.66413
▁10	-7.66428
ба	-7.66505
▁?	-7.6666
▁год	-7.67619
▁5	-7.68101
▁насельніцтва	-7.68747
б	-7.68855
▁Пасля	-7.68896
ве	-7.70001
ша	-7.70422
▁из	-7.70563
▁П	-7.7141
▁гадоў	-7.71443
ло	-7.72811
ж	-7.74204
▁то	-7.75083
▁К	-7.75911
ть	-7.76724
▁12	-7.76918
зе	-7.79734
▁ці	-7.80122
▁14	-7.80928
дзе	-7.81192
▁%	-7.81476
вы	-7.82425
▁стаў	-7.82466
ру	-7.83452
i	-7.84797
рэ	-7.85012
сі	-7.85398
ві	-7.85732
▁от	-7.87143
▁Гэты	-7.87544
гі	-7.87777
▁Ка	-7.88342
▁вайны	-7.90162
▁6	-7.90622
▁горад	-7.91149
▁тым	-7.91741
▁калі	-7.92478
▁н	-7.92518
▁паміж	-7.93451
1	-7.9347
ф	-7.94285
дзі	-7.94563
юцца	-7.95024
жа	-7.95507
▁NGC	-7.95681
▁Пры	-7.96475
ц	-7.96999
▁13	-7.97538
s	-7.97763
▁горада	-7.97804
▁тэрыторыі	-7.9792
▁адзін	-7.98561
▁Вы	-7.98602
▁8	-7.98754
▁11	-7.99336
▁ка	-8.00203
▁Ма	-8.0069
▁Это	-8.00879
ко	-8.01695
ца	-8.02022
▁ект	-8.02968
▁некалькі	-8.04253
ак	-8.04333
▁галактыка	-8.04347
ну	-8.04424
▁Э	-8.04547
▁20	-8.05671
▁таго	-8.05743
▁над	-8.05788
▁ж	-8.06313
ага	-8.0635
лы	-8.06978
вер	-8.07037
▁9	-8.07137
▁при	-8.07576
▁Не	-8.07721
▁знаходзіцца	-8.08092
▁7	-8.08223
▁про	-8.08638
▁Б	-8.09008
▁до	-8.09239
▁но	-8.09438
узор	-8.09764
се	-8.10079
▁жа	-8.10348
▁іншыя	-8.10692
нскага	-8.11083
▁Но	-8.11275
▁раёна	-8.11535
зі	-8.11946
▁праз	-8.12293
▁Ба	-8.12379
▁рэдакцы	-8.12736
ння	-8.12792
ро	-8.1367
ду	-8.14058
▁э	-8.14385
▁Ла	-8.14914
сць	-8.15031
▁бы	-8.1505
ет	-8.15666
▁со	-8.1637
▁складзе	-8.16504
▁стагоддзя	-8.16862
▁якіх	-8.16935
тэ	-8.17284
▁гэтага	-8.17452
жы	-8.17521
▁мае	-8.17592
бі	-8.17844
▁іншых	-8.18781
▁I	-8.19502
▁арыгінальна	-8.19565
ой	-8.20115
▁месца	-8.20255
▁каталога	-8.2052
▁во	-8.21049
▁Са	-8.21537
▁они	-8.21582
скім	-8.21664
▁уваходзі	-8.21693
ми	-8.21865
лу	-8.21884
ст	-8.21929
▁гэты	-8.21991
▁б	-8.22125
▁пачатку	-8.22222
во	-8.22434
▁Пра	-8.22473
▁рас	-8.22604
▁Гэта	-8.22708
гу	-8.23294
▁цэнтр	-8.23679
▁лік	-8.2448
лю	-8.25124
▁Лі	-8.25157
скую	-8.2521
▁стала	-8.25416
▁гг	-8.25454
▁Ра	-8.26565
▁Мы	-8.26799
нь	-8.26994
жо	-8.27008
▁гадах	-8.27189
▁яны	-8.27217
▁гады	-8.2724
▁атрымаў	-8.27331
су	-8.27836
▁Г	-8.27886
мен	-8.28007
▁гэтым	-8.28158
ить	-8.28183
▁супраць	-8.28656
▁якой	-8.28744
▁інш	-8.28878
нне	-8.28885
▁п	-8.2894
▁ЗША	-8.30168
▁імя	-8.30246
ская	-8.30534
дэ	-8.30845
▁ба	-8.31111
▁C	-8.31369
▁два	-8.31443
ска	-8.31797
ё	-8.32404
нае	-8.33243
С	-8.33507
ки	-8.34253
по	-8.34292
▁беларускі	-8.34744
▁Віцебска	-8.34821
▁чал	-8.35263
▁права	-8.35536
▁СССР	-8.3568
▁сваё	-8.35687
▁Д	-8.35738
▁Рэспублікі	-8.35866
▁кан	-8.36391
▁Ар	-8.36431
▁ма	-8.36432
▁без	-8.36554
▁PGC	-8.37128
▁2008	-8.37223
▁частка	-8.37396
▁Паводле	-8.3749
▁Насельніцтва	-8.37979
▁некаторы	-8.38215
ву	-8.38808
▁S	-8.38838
▁IC	-8.38898
▁Беларусь	-8.39092
▁ракі	-8.39754
▁выніку	-8.3981
▁чтобы	-8.40665
▁возера	-8.40972
▁каб	-8.40978
▁30	-8.41172
зна	-8.41987
▁двух	-8.42109
нік	-8.42296
▁Ва	-8.42597
ства	-8.42698
▁той	-8.42972
▁же	-8.43236
▁Ме	-8.43793
▁нас	-8.44092
▁яна	-8.44577
▁об	-8.44763
▁першы	-8.44765
▁разам	-8.45182
▁тыпу	-8.45265
▁Расіі	-8.45446
цкага	-8.45781
▁–	-8.45792
▁II	-8.45843
ной	-8.4622
▁Га	-8.46453
▁яшчэ	-8.46514
▁індэкс	-8.46571
▁О	-8.46777
▁тры	-8.46921
▁дэ	-8.4694
▁аднак	-8.47158
▁По	-8.4721
▁вядомы	-8.4747
▁кар	-8.477
▁мая	-8.48178
▁размешчаны	-8.48208
▁2009	-8.48398
К	-8.48538
▁Беларуска	-8.48666
▁маюць	-8.48721
▁якога	-8.48747
▁розны	-8.48786
ючы	-8.4945
▁25	-8.49614
▁можа	-8.49725
А	-8.5011
коў	-8.50122
▁ліпеня	-8.50211
▁студзеня	-8.50221
▁Ён	-8.50378
пі	-8.50789
▁пералічаны	-8.50874
y	-8.51284
▁рэ	-8.5218
▁когда	-8.52668
фі	-8.53076
▁Ле	-8.53098
▁д	-8.5311
▁Плошча	-8.5331
нскі	-8.53388
фа	-8.53435
▁ліку	-8.53709
▁Мінскай	-8.53864
▁ра	-8.54568
▁Аднак	-8.54642
▁он	-8.54745
▁Аб	-8.54965
▁Ф	-8.54983
▁сям	-8.55022
тра	-8.55351
до	-8.55514
бра	-8.55553
таў	-8.55557
▁чэрвеня	-8.55569
▁Су	-8.55576
▁тыс	-8.55677
▁f	-8.55679
▁мовы	-8.55762
▁или	-8.55885
сіх	-8.559
▁вёскі	-8.55986
▁перыяд	-8.56067
скіх	-8.56077
▁падчас	-8.56207
▁Е	-8.56459
▁18	-8.56575
▁бо	-8.56887
▁т	-8.57137
каў	-8.57277
▁Ю	-8.57677
▁краіны	-8.57954
▁адміністрацыйна	-8.58451
▁Ве	-8.58728
ман	-8.5887
▁ектаў	-8.58952
нымі	-8.59012
▁снежня	-8.59064
▁ко	-8.59189
▁под	-8.59258
▁гісторыі	-8.59831
▁свету	-8.59885
ют	-8.60479
▁все	-8.60548
▁шмат	-8.6061
нні	-8.60671
▁чынам	-8.60923
▁Ш	-8.61011
▁га	-8.61073
▁кастрычніка	-8.61077
▁Так	-8.61742
▁ўсход	-8.61824
камі	-8.62639
нка	-8.62754
зы	-8.62763
▁эти	-8.62834
цкі	-8.62857
▁Ад	-8.62899
▁працы	-8.63063
▁Бу	-8.63133
тры	-8.63171
ая	-8.63229
▁адным	-8.63264
▁их	-8.63328
ран	-8.63345
▁назва	-8.63516
▁часу	-8.63607
▁Ха	-8.63895
мо	-8.63955
валі	-8.63969
▁якасці	-8.64117
▁сярод	-8.64356
▁есть	-8.64636
▁агульнага	-8.64682
▁Х	-8.64702
▁верасня	-8.64707
▁2013	-8.64729
▁если	-8.64787
▁вельмі	-8.64909
▁сакавіка	-8.64931
бы	-8.65048
ти	-8.65182
шча	-8.65508
ова	-8.65751
▁якое	-8.65798
▁жніўня	-8.65937
▁адна	-8.66379
▁Але	-8.66415
▁Мі	-8.66645
ск	-8.66661
▁Пад	-8.66942
▁якім	-8.67276
▁меня	-8.67562
G	-8.68273
▁нар	-8.68284
сты	-8.6846
▁_	-8.68531
вод	-8.68726
▁Польшчы	-8.68778
▁очень	-8.68852
▁19	-8.68859
▁которые	-8.68868
▁Та	-8.68891
▁ўсё	-8.6928
▁паводле	-8.6946
▁культуры	-8.69496
▁Ры	-8.70718
▁трох	-8.70744
n	-8.70779
▁Н	-8.70856
ре	-8.71027
бу	-8.71212
▁працягу	-8.71226
мер	-8.71343
▁Італіі	-8.71485
▁тысяч	-8.71587
▁частцы	-8.72031
ых	-8.72114
чны	-8.72194
▁ім	-8.72212
▁его	-8.72218
▁пазней	-8.72908
▁колькасць	-8.72921
▁Ко	-8.73134
▁канцы	-8.73172
ок	-8.73202
▁Калі	-8.73205
▁P	-8.73283
000	-8.733
кава	-8.73451
r	-8.73896
▁лістапада	-8.74128
▁мора	-8.74159
ен	-8.74209
▁Новага	-8.74449
стаў	-8.74453
▁лічыцц	-8.74522
▁ды	-8.74765
▁Ві	-8.74811
▁свайго	-8.74818
ваў	-8.74824
сто	-8.74873
П	-8.74946
▁ста	-8.75234
▁БССР	-8.75335
5	-8.75706
▁чым	-8.75752
▁красавіка	-8.75887
▁быць	-8.75917
▁22	-8.76094
▁імперыі	-8.76179
e	-8.76181
▁Мо	-8.76572
▁шэраг	-8.76667
▁яўляюцца	-8.76701
бо	-8.76793
▁может	-8.76807
дзя	-8.76952
▁A	-8.76971
чэ	-8.77083
▁таму	-8.77157
▁21	-8.77163
ар	-8.77203
ormula	-8.77671
▁2010	-8.77696
ке	-8.78371
▁23	-8.78462
▁Для	-8.78471
ход	-8.78487
ется	-8.78548
стра	-8.78561
насць	-8.78582
▁шчыльнасць	-8.78868
▁лет	-8.78923
ге	-8.79029
2	-8.79217
со	-8.79456
▁24	-8.79461
ри	-8.79545
▁B	-8.79688
▁ні	-8.79892
▁28	-8.80006
▁павета	-8.80276
▁ля	-8.80322
▁Дэ	-8.80943
▁ш	-8.81144
▁та	-8.81354
нікі	-8.81364
▁горадзе	-8.81503
▁могу	-8.81617
▁там	-8.8173
▁можна	-8.8179
▁вядома	-8.81911
▁смерці	-8.81961
▁мне	-8.82011
▁E	-8.82014
o	-8.82115
▁M	-8.8212
▁працаваў	-8.82511
▁лютага	-8.82571
▁навук	-8.82603
ён	-8.8267
ами	-8.82688
▁Ку	-8.82766
▁тут	-8.8279
▁см	-8.82838
▁Рэ	-8.83096
▁Сі	-8.83157
▁жыцця	-8.83744
Б	-8.84045
▁пачаў	-8.84159
▁Кар	-8.84305
нг	-8.84316
тар	-8.84349
▁Т	-8.84548
▁ле	-8.84549
▁нацыянальна	-8.84661
▁звычайна	-8.84698
раў	-8.84735
кай	-8.84766
▁2004	-8.84872
▁менш	-8.85073
▁Даўжыня	-8.85202
скія	-8.85221
М	-8.85404
чу	-8.85581
нскай	-8.85636
он	-8.85674
тан	-8.85803
▁2014	-8.85861
▁найбольш	-8.85918
авіч	-8.86007
ться	-8.86011
сваю	-8.86029
▁100	-8.86186
▁сама	-8.86802
▁яму	-8.8684
▁сябе	-8.87002
▁ли	-8.87217
джа	-8.87297
▁Ро	-8.87309
▁No	-8.87493
▁2011	-8.87574
▁26	-8.876
Д	-8.87772
▁лі	-8.87983
▁сувязі	-8.88283
▁лініі	-8.88583
▁пере	-8.88711
вой	-8.88813
▁всё	-8.88832
бе	-8.89039
▁ня	-8.89083
▁V	-8.89093
3	-8.8912
▁был	-8.89464
▁27	-8.89646
▁дзяржаўны	-8.89867
▁сталі	-8.8999
▁захад	-8.90139
▁Р	-8.90207
▁Яго	-8.90448
гра	-8.90588
er	-8.90635
лен	-8.90749
▁вобласць	-8.90782
▁2012	-8.9079
пе	-8.90917
▁50	-8.91478
насці	-8.91568
▁напрыклад	-8.91572
▁ку	-8.91611
▁Смех	-8.91674
клад	-8.91764
пра	-8.91997
кан	-8.91997
▁&#93;	-8.92141
▁1999	-8.92224
▁свой	-8.92331
▁цяпер	-8.92344
вых	-8.9253
те	-8.9257
ава	-8.92683
▁Ша	-8.92838
▁абазначэнні	-8.92882
▁Гродзенскай	-8.92959
▁часам	-8.9301
фе	-8.93052
▁ша	-8.93082
нскім	-8.93103
▁дзяржавы	-8.93193
пры	-8.93219
▁&#9	-8.93246
▁адной	-8.93285
▁жыхароў	-8.9347
стан	-8.93477
u	-8.9351
ўшы	-8.93561
▁беларускай	-8.93742
▁сусветнай	-8.9379
▁значна	-8.93795
▁мастацтва	-8.93933
▁Спіс	-8.94017
▁Таксама	-8.94017
▁часта	-8.94048
▁р	-8.94169
▁...	-8.94201
▁амаль	-8.94227
ан	-8.94528
l	-8.94587
▁клуб	-8.94632
или	-8.95027
▁только	-8.95105
зу	-8.95134
Р	-8.95158
▁ла	-8.95356
▁сваіх	-8.95464
▁размешчана	-8.95556
▁XIX	-8.95557
▁2007	-8.95658
▁том	-8.957
▁Се	-8.95717
▁2006	-8.95761
▁ўваходзіл	-8.95803
скае	-8.95911
▁Л	-8.95984
▁код	-8.96032
І	-8.96035
▁пераважна	-8.96091
▁Германіі	-8.96159
▁ха	-8.96288
кры	-8.96385
▁асабліва	-8.9639
▁Яна	-8.9647
ян	-8.96475
кам	-8.96605
▁плошч	-8.96644
t	-8.96735
▁Гу	-8.96783
ём	-8.97023
▁сын	-8.9712
В	-8.97274
род	-8.97316
c	-8.97553
▁Расійска	-8.97683
▁сабой	-8.97855
▁часткі	-8.9788
d	-8.98379
▁перад	-8.98791
▁Во	-8.98839
атым	-8.98859
авых	-8.98905
бор	-8.98923
▁чем	-8.99013
▁Мар	-8.99104
▁святы	-8.99127
▁спіс	-8.99148
▁сучасна	-8.99188
▁сам	-8.99204
▁Ча	-8.99304
▁сельска	-8.99312
▁пара	-8.99329
▁!	-8.99512
ця	-8.99634
Т	-8.99667
▁40	-8.99708
чи	-8.99985
ни	-9.00277
▁F	-9.00279
▁арміі	-9.00613
▁нават	-9.00946
▁Бар	-9.01004
▁слова	-9.01166
▁камуна	-9.01295
ніка	-9.01431
ступ	-9.01445
нія	-9.01494
▁дзеяч	-9.01719
раз	-9.01793
▁°	-9.01808
нкі	-9.01872
сь	-9.0198
ор	-9.02013
▁канца	-9.02215
▁2016	-9.02218
чных	-9.02295
даў	-9.02362
▁1944	-9.02543
▁рака	-9.02544
▁пункта	-9.02689
▁збор	-9.02756
ніца	-9.02946
пер	-9.03133
▁месцы	-9.03155
лін	-9.03279
▁рэгіёне	-9.03399
▁+	-9.03474
▁жанчын	-9.03507
A	-9.03646
▁мове	-9.03723
ген	-9.03723
каз	-9.03753
▁2005	-9.04031
▁Ге	-9.04367
▁Пі	-9.04406
лё	-9.04744
▁Бо	-9.04821
▁боку	-9.05283
▁Тэ	-9.05413
▁Ні	-9.05576
4	-9.05922
▁другой	-9.05987
▁раслін	-9.06132
▁першым	-9.06192
▁размяшчае	-9.06256
лена	-9.0631
▁2000	-9.06385
▁Францыі	-9.06441
цэ	-9.06567
ные	-9.06601
вед	-9.06867
▁2015	-9.06924
шэ	-9.07198
сти	-9.07249
▁паўночны	-9.0725
▁буйны	-9.07301
ком	-9.07324
▁ре	-9.07351
▁того	-9.07372
▁Кан	-9.07464
▁Бе	-9.07527
▁людей	-9.07546
▁паўночна	-9.07612
▁поўначы	-9.07719
кс	-9.07724
нда	-9.07752
▁партыі	-9.07839
▁потому	-9.07857
▁H	-9.07862
сцю	-9.07924
сы	-9.07927
▁сваім	-9.07968
▁Мінска	-9.07975
▁мужчын	-9.08013
▁відаў	-9.08066
чная	-9.08363
▁групы	-9.084
us	-9.08439
▁Падчас	-9.08667
▁быть	-9.08827
en	-9.08841
ения	-9.08906
▁паўднёвы	-9.08932
▁млн	-9.08976
▁аднаго	-9.0907
▁просто	-9.09201
він	-9.09264
ит	-9.09482
▁мова	-9.09584
▁стагоддзі	-9.09606
шкі	-9.09689
ец	-9.09964
▁ты	-9.10013
▁29	-9.10056
▁D	-9.10219
▁паўднёва	-9.10323
▁1941	-9.10436
▁дадзеных	-9.10466
▁Го	-9.10505
сан	-9.10509
▁ўдзел	-9.10729
▁ўсе	-9.10729
▁дзень	-9.10796
▁вер	-9.10821
▁III	-9.10935
▁ер	-9.10971
ус	-9.11139
▁ёй	-9.11283
▁вас	-9.11321
▁перша	-9.11333
▁меў	-9.11357
цкай	-9.1137
че	-9.11398
▁чалавека	-9.11444
▁MCG	-9.11445
▁караля	-9.11451
▁Лу	-9.11618
Г	-9.11652
▁складала	-9.11664
▁G	-9.11674
▁мала	-9.11695
a	-9.11971
▁Ру	-9.11979
нцы	-9.12042
▁сямейства	-9.12192
ланд	-9.12441
кра	-9.12482
цаў	-9.12541
нд	-9.12546
чка	-9.1275
ўна	-9.128
▁тое	-9.12873
▁Займае	-9.12953
дар	-9.13014
▁1-	-9.13061
▁гонар	-9.13117
▁род	-9.13153
кар	-9.13213
▁нямецкі	-9.13403
ін	-9.13456
▁Еўропы	-9.13532
▁акругі	-9.13589
▁Брэсцка	-9.13746
▁пі	-9.1383
▁она	-9.14006
пу	-9.14022
▁Ду	-9.14053
ўскага	-9.14126
▁вам	-9.14234
▁спа	-9.14516
рыя	-9.14603
▁больше	-9.14712
▁Украіны	-9.1472
▁Акрам	-9.14745
▁ёсць	-9.14809
эр	-9.14815
▁захадзе	-9.1491
ад	-9.15048
▁працэс	-9.15053
▁Заходня	-9.15084
вар	-9.15141
шка	-9.15168
▁наступны	-9.15209
пы	-9.15215
▁асноўным	-9.15501
ще	-9.15539
там	-9.15636
▁000	-9.15638
▁тра	-9.15656
in	-9.15688
ного	-9.15707
▁этого	-9.158
вен	-9.15855
▁2-	-9.16039
гор	-9.16276
▁сістэмы	-9.16438
▁Магілёўскай	-9.16824
авыя	-9.16827
▁свае	-9.16867
▁пражывал	-9.16907
ёр	-9.16984
выя	-9.17197
▁скончыў	-9.17232
▁ап	-9.17235
▁Кара	-9.17279
вая	-9.17318
▁цела	-9.17392
▁То	-9.17496
▁Пе	-9.17523
▁палітычны	-9.17577
▁Аляксандр	-9.17603
▁Паўднёва	-9.17735
▁створаны	-9.1776
▁гэтых	-9.18095
дэн	-9.18135
▁Кі	-9.18286
▁населена	-9.18444
▁апошні	-9.18468
ым	-9.18558
▁суд	-9.187
▁паверхні	-9.18781
▁Они	-9.1898
вай	-9.19
al	-9.19056
▁беларуска	-9.19105
▁Ло	-9.1913
ии	-9.19281
▁роду	-9.19348
ar	-9.19378
▁ваяводства	-9.19539
▁0	-9.19639
▁група	-9.19745
▁Ан	-9.19923
▁Гі	-9.19996
▁савецкі	-9.20051
цу	-9.20393
9	-9.20535
▁першай	-9.20631
▁зноў	-9.20827
▁царква	-9.20829
▁Мінск	-9.20838
8	-9.21216
▁Як	-9.21288
нікаў	-9.21316
40	-9.21345
▁Раз	-9.21418
ходзіць	-9.21548
▁1918	-9.21618
▁2017	-9.21625
▁чаго	-9.21709
ил	-9.21734
▁Ман	-9.21769
піс	-9.21846
▁Ч	-9.21884
▁новы	-9.21926
z	-9.22
вання	-9.22026
льны	-9.22029
▁шырока	-9.22177
▁руху	-9.22206
вае	-9.22313
▁Вялікай	-9.22389
▁ўз	-9.22575
▁агульна	-9.22684
50	-9.22687
▁Сан	-9.22754
стры	-9.23023
ние	-9.2306
тэр	-9.23072
re	-9.23072
▁атрымала	-9.23111
▁Ц	-9.23156
is	-9.23196
▁Савета	-9.23221
вал	-9.23225
▁были	-9.23236
▁который	-9.23268
▁вяліка	-9.23344
▁1939	-9.23372
▁кон	-9.2356
вала	-9.23714
ваць	-9.23773
▁назву	-9.23773
▁вот	-9.23824
▁асобны	-9.23839
▁галоўным	-9.23922
ra	-9.24013
▁Мінску	-9.24075
S	-9.2408
ер	-9.24088
7	-9.24266
▁сістэма	-9.24377
сть	-9.24404
0	-9.24409
наў	-9.24471
▁Он	-9.24483
вяз	-9.24483
чнага	-9.24537
рон	-9.24579
▁школы	-9.24697
6	-9.24924
▁XX	-9.25049
так	-9.25186
b	-9.25295
шчы	-9.2541
▁план	-9.25421
▁ру	-9.25479
▁навуковы	-9.256
▁где	-9.25681
от	-9.25704
▁N	-9.2581
чныя	-9.25843
бер	-9.25933
▁палов	-9.25958
▁мела	-9.25987
лены	-9.26058
ана	-9.26075
▁Ту	-9.2608
чнай	-9.26169
▁этом	-9.26178
▁1945	-9.26188
▁Пера	-9.26217
ключ	-9.26252
ются	-9.26276
же	-9.26387
льную	-9.26443
▁Ты	-9.26453
▁краін	-9.26609
▁дзве	-9.26884
▁цэнтру	-9.26952
▁Аль	-9.26963
▁Паштовы	-9.26969
▁вады	-9.27072
▁прыток	-9.27119
нава	-9.27169
кова	-9.27229
пад	-9.27244
▁тэрмін	-9.27282
▁цэнтры	-9.27302
нт	-9.27432
стэр	-9.27437
▁можно	-9.2746
нс	-9.27572
▁літаратуры	-9.27589
▁прызначаны	-9.27592
▁сіл	-9.27767
▁время	-9.27836
ёт	-9.27924
▁Заступнікам	-9.27925
▁Тэлефонны	-9.2797
10	-9.27984
авай	-9.28132
▁самых	-9.28352
m	-9.28355
▁ю	-9.28359
▁пабудаваны	-9.28404
▁будет	-9.28407
лись	-9.28422
▁31	-9.28427
▁свеце	-9.28616
▁Кры	-9.29035
▁Пу	-9.29113
ванне	-9.29117
тка	-9.29229
алі	-9.29339
▁клуба	-9.29584
▁мелі	-9.29699
▁бу	-9.29712
▁царквы	-9.29774
▁цалкам	-9.29911
нер	-9.29949
▁ваенны	-9.30036
▁людзей	-9.30094
▁Бра	-9.30112
▁гміна	-9.3014
▁Со	-9.30163
▁люди	-9.30238
▁1940	-9.303
▁будаўніцтва	-9.30322
рас	-9.30383
▁аснове	-9.30391
ал	-9.3067
▁жыццё	-9.30705
▁заста	-9.30768
▁паў	-9.30801
▁пачалі	-9.30906
▁ём	-9.3095
▁склада	-9.30962
раб	-9.31138
▁закон	-9.3124
▁выглядзе	-9.31288
▁Бі	-9.31301
вую	-9.3136
льных	-9.31395
▁колькасці	-9.31435
▁более	-9.31475
▁T	-9.3149
▁Адміністрацыйны	-9.31635
▁мо	-9.31647
▁губерні	-9.31663
▁которо	-9.31672
▁генерал	-9.31692
жи	-9.31762
ўка	-9.31834
▁Вер	-9.31848
нэ	-9.3186
Н	-9.31934
60	-9.31941
рад	-9.32001
ите	-9.32031
▁Гомельскай	-9.32059
le	-9.32059
▁XVIII	-9.32181
ше	-9.32357
ску	-9.32367
▁свет	-9.32373
▁Как	-9.32417
ках	-9.32529
▁галін	-9.32543
▁Кра	-9.32662
▁Праз	-9.32767
Л	-9.32847
▁прыкладна	-9.3289
нская	-9.32995
▁ўніверсітэта	-9.33075
▁вялікі	-9.33213
▁афіцыйна	-9.33304
▁хутка	-9.33328
▁рэк	-9.33359
▁кры	-9.33408
кон	-9.33478
▁кара	-9.33578
▁ещё	-9.33579
▁пункт	-9.33595
▁якую	-9.33628
▁сяло	-9.33634
ное	-9.33732
ленне	-9.33783
овую	-9.33794
▁арганізацыі	-9.33933
on	-9.34012
▁падпарадкоўвае	-9.34055
▁Хо	-9.34131
▁такі	-9.34172
▁жывёл	-9.34511
▁раней	-9.34524
▁член	-9.34711
20	-9.34779
▁R	-9.34788
▁Нацыянальна	-9.34887
k	-9.34926
C	-9.35076
▁Скончыў	-9.35078
▁поўдні	-9.35126
рэн	-9.35161
▁гор	-9.35161
▁Если	-9.35174
яр	-9.35232
ван	-9.35321
▁ча	-9.35444
▁вуліцы	-9.35461
▁перапісу	-9.35589
ном	-9.35592
вічы	-9.35624
лет	-9.35684
ди	-9.35821
▁ZW	-9.35825
▁Друго	-9.35869
▁станцыя	-9.35949
▁войскі	-9.35963
лан	-9.36015
вяр	-9.36099
▁спіральна	-9.36212
▁много	-9.36337
льнай	-9.36343
цыю	-9.36346
▁дзяржаўна	-9.36542
▁Аўтар	-9.36606
▁цэнтрам	-9.36611
▁ас	-9.36652
▁1943	-9.36661
▁кі	-9.36666
нам	-9.36724
льнага	-9.37123
тэн	-9.37246
▁ролю	-9.37255
▁зямлі	-9.37315
сла	-9.3732
▁Саюза	-9.37427
▁мог	-9.37429
▁статус	-9.37483
▁храм	-9.37542
твор	-9.37565
▁створана	-9.37704
ство	-9.37733
▁Дзе	-9.37744
тым	-9.37902
слаў	-9.37905
▁будзе	-9.37922
▁тытул	-9.37987
an	-9.38008
▁кра	-9.38112
▁саюз	-9.38208
▁населены	-9.38279
▁2001	-9.3828
▁них	-9.38301
ары	-9.38353
▁від	-9.38397
es	-9.38403
70	-9.38424
▁этот	-9.38551
▁станцыі	-9.38567
D	-9.38755
▁Сярод	-9.38846
▁самым	-9.3899
ноў	-9.39141
▁потым	-9.39214
▁2002	-9.3932
дра	-9.39373
▁галоўны	-9.39377
▁назад	-9.39577
30	-9.3963
f	-9.39635
▁удзел	-9.3973
ния	-9.39822
▁уз	-9.39822
▁K	-9.39933
▁дзяцей	-9.40047
▁Быў	-9.40079
▁кіравання	-9.40126
▁ступені	-9.40147
▁добра	-9.40156
or	-9.40169
▁её	-9.4022
ткі	-9.40416
▁1919	-9.40416
сна	-9.40422
авы	-9.40432
▁i	-9.40458
▁Ста	-9.40686
▁поўдзень	-9.40857
▁войска	-9.40869
▁само	-9.41045
льныя	-9.41049
ин	-9.41145
▁Тра	-9.41183
▁Нью	-9.4132
▁Вялікага	-9.4138
▁Айчынна	-9.41443
тор	-9.41478
▁плошчы	-9.41553
ева	-9.41554
ви	-9.41555
▁1991	-9.41706
▁усе	-9.41846
▁будынак	-9.41853
▁Ды	-9.41916
мар	-9.4217
шу	-9.42455
▁заснаваны	-9.42482
сам	-9.42526
лом	-9.42607
▁2003	-9.42731
стро	-9.42746
▁раман	-9.42782
▁1920	-9.42817
лоў	-9.42868
▁Вот	-9.42956
19	-9.42989
▁сельсавет	-9.42991
▁войскаў	-9.43118
▁пе	-9.43133
ніцы	-9.43233
▁Яны	-9.43261
▁мм	-9.43314
▁чатырох	-9.43327
▁пасаду	-9.43384
▁Фі	-9.434
▁цэнтра	-9.43415
▁Ян	-9.43443
▁метраў	-9.43518
лаў	-9.43602
чную	-9.43675
У	-9.43769
чным	-9.43987
▁дом	-9.44051
▁называ	-9.44081
▁цэнтральна	-9.44284
ri	-9.44387
ена	-9.44431
▁IV	-9.44498
віч	-9.445
жэ	-9.44527
▁хоць	-9.44751
лей	-9.45072
▁свое	-9.45142
▁тем	-9.45158
▁пред	-9.4517
▁тэрыторыя	-9.45248
▁Фа	-9.45257
ацыі	-9.45259
▁XVI	-9.45348
▁другі	-9.45628
▁Еўропе	-9.45754
ваецца	-9.45756
▁1990	-9.45772
▁моў	-9.45846
чын	-9.45903
▁60	-9.4594
пера	-9.46019
▁развіцця	-9.46025
след	-9.46176
▁ўніверсітэт	-9.46192
▁♫	-9.46209
лер	-9.46235
▁руска	-9.4626
▁Рас	-9.46293
стве	-9.46372
▁формы	-9.46854
ать	-9.46903
ят	-9.46921
▁моцна	-9.47127
▁Аплодисменты	-9.47179
сп	-9.47183
▁частк	-9.47184
валася	-9.4727
де	-9.47312
▁эпох	-9.47316
▁знаходзяцца	-9.47396
▁народ	-9.47458
буд	-9.4746
▁ўрад	-9.47511
йскага	-9.4762
▁мясцовы	-9.47747
▁дзён	-9.47753
ение	-9.47812
▁году	-9.47833
▁таварыства	-9.47888
80	-9.47893
тары	-9.47926
▁пу	-9.47934
бар	-9.47935
▁200	-9.47943
лад	-9.47971
ный	-9.48014
▁адміністрацыйны	-9.48138
▁1992	-9.48279
▁дапамогай	-9.48296
ўскі	-9.48314
▁зборна	-9.48324
▁Назв	-9.48539
дж	-9.48562
▁стра	-9.48685
лас	-9.48741
кла	-9.48758
прав	-9.48822
▁ар	-9.48869
нта	-9.48909
▁Ля	-9.48922
▁музей	-9.48955
▁праца	-9.49193
▁кожна	-9.49222
▁вёсц	-9.49243
цкая	-9.49342
Ф	-9.49399
▁Мала	-9.49442
роў	-9.4951
вым	-9.4955
▁Знаходзі	-9.49564
▁Ня	-9.49573
▁магчыма	-9.49604
▁дзейнасці	-9.49649
▁характар	-9.49757
овы	-9.4977
▁Усе	-9.49793
I	-9.49858
▁Іван	-9.49981
тон	-9.50023
▁адкрыты	-9.50084
▁ін	-9.50084
▁пасёлак	-9.50092
луча	-9.501
▁школа	-9.50176
▁курс	-9.50197
▁новага	-9.50212
▁Рэчы	-9.50256
▁Му	-9.50362
▁XVII	-9.50453
▁Аляксандра	-9.50486
▁кароль	-9.5062
рож	-9.50712
ско	-9.50717
▁35	-9.50724
▁былы	-9.50724
▁нарадзіў	-9.50809
▁такіх	-9.5083
▁Адзін	-9.50854
бры	-9.50908
▁гміны	-9.50942
▁расійскі	-9.50944
▁Перша	-9.51021
▁памёр	-9.51049
▁амерыканскі	-9.51124
ваюць	-9.5113
▁наш	-9.51157
▁нужно	-9.51215
▁Першы	-9.51231
▁розныя	-9.5128
▁даже	-9.51291
аль	-9.51299
ого	-9.51322
▁шы	-9.51341
▁уже	-9.5135
▁вострава	-9.51428
▁Найбольш	-9.51487
▁касцёл	-9.51546
сен	-9.51587
▁мясцова	-9.51616
▁Ке	-9.51692
кара	-9.51696
альны	-9.51897
▁часткай	-9.51906
▁беразе	-9.51921
▁вярну	-9.51944
эн	-9.52019
рын	-9.52089
▁Пазней	-9.52092
▁сделать	-9.52148
▁французскі	-9.52223
нос	-9.52299
g	-9.52472
лось	-9.52489
▁один	-9.52508
▁звязаны	-9.5262
▁комплекс	-9.52645
фор	-9.52653
выкарыстоўваецца	-9.52691
▁востраў	-9.52722
▁камп	-9.52732
▁Нарадзіў	-9.52737
▁бра	-9.52767
▁нацыянальны	-9.52781
▁анты	-9.52829
тур	-9.52866
▁70	-9.52869
▁ту	-9.52964
▁стан	-9.52999
▁тур	-9.53046
▁момант	-9.5308
▁1917	-9.53106
▁значны	-9.53125
▁кто	-9.53197
▁Ак	-9.53277
▁дзейнасць	-9.53294
аюць	-9.53343
вет	-9.53396
▁плошча	-9.5343
▁Ал	-9.53437
сце	-9.53439
▁вайну	-9.53529
тава	-9.53558
про	-9.53621
▁ц	-9.53651
▁прызна	-9.5367
▁архітэктуры	-9.53698
▁Хар	-9.53706
ch	-9.5372
дэр	-9.53804
▁Казахстана	-9.53837
▁між	-9.53931
▁L	-9.54011
▁князя	-9.54045
▁самы	-9.54115
▁фа	-9.54145
оўскі	-9.54146
E	-9.54384
▁міжнародны	-9.54481
▁маці	-9.54506
▁праводзі	-9.54552
P	-9.54575
льная	-9.54576
ром	-9.54755
22	-9.54901
дзь	-9.54963
▁інстытут	-9.54986
цкім	-9.55005
▁тэ	-9.55007
нец	-9.55019
аваны	-9.5505
▁гар	-9.55106
нняў	-9.5515
▁жизни	-9.55182
чкі	-9.55219
▁перш	-9.5529
▁Пер	-9.55512
▁асоб	-9.55523
▁займае	-9.55527
B	-9.55645
▁мар	-9.55646
▁адзінка	-9.5569
пар	-9.55691
te	-9.55715
14	-9.55734
▁вид	-9.55741
▁ўваходзі	-9.56108
▁абароны	-9.56329
32	-9.56454
▁значэнне	-9.56495
▁старажытны	-9.56538
овых	-9.56599
няў	-9.5668
▁дзяржаў	-9.56687
O	-9.56764
тара	-9.56798
ган	-9.56843
▁гульні	-9.56857
▁Горад	-9.56922
▁1994	-9.56968
ности	-9.56998
▁Каля	-9.5708
▁s	-9.5717
ксі	-9.57228
▁бес	-9.57238
гна	-9.57277
▁можем	-9.57377
▁французска	-9.57483
▁Жы	-9.57517
▁матчы	-9.57564
▁здесь	-9.57616
▁замежны	-9.57647
▁Першай	-9.57654
льскага	-9.57686
▁Паспалітай	-9.57716
▁чэмпіянату	-9.57739
▁выпадку	-9.57747
лся	-9.57808
▁1921	-9.57871
▁працу	-9.57997
▁белы	-9.58006
ци	-9.58137
▁Кам	-9.58146
▁прыватнасц	-9.58224
▁Уладзімір	-9.58265
▁такім	-9.58278
▁правы	-9.58313
▁альбо	-9.5832
▁праект	-9.5841
▁мяжы	-9.58438
валіся	-9.58454
нак	-9.58455
▁кампаніі	-9.58463
▁Бела	-9.5847
▁До	-9.58537
T	-9.58614
дава	-9.58633
ню	-9.58634
▁правінцыі	-9.58639
льскі	-9.58891
▁творы	-9.58956
бл	-9.58971
вага	-9.59035
▁Гра	-9.59142
▁сяла	-9.59225
лава	-9.5923
▁першага	-9.59283
▁шматлікі	-9.59386
▁1998	-9.5945
лон	-9.5947
жу	-9.59482
▁всего	-9.59495
▁=	-9.59499
▁Гор	-9.5953
▁нет	-9.59589
▁асноўны	-9.59688
ъ	-9.59744
▁1997	-9.59847
▁народна	-9.59909
ліва	-9.60015
▁сем	-9.60033
▁бок	-9.60122
▁футбаліст	-9.60144
▁гарадскі	-9.60287
▁1996	-9.60341
▁поўнач	-9.60434
▁себя	-9.60484
▁Паўночнай	-9.60561
▁Код	-9.60607
▁кнігі	-9.6061
▁ни	-9.60624
▁іншымі	-9.60628
ол	-9.60653
▁стылі	-9.60759
віцкага	-9.6081
▁этой	-9.60846
▁шырыня	-9.60856
▁1995	-9.60868
оўскага	-9.60894
чаны	-9.60907
90	-9.60923
▁Дж	-9.60932
ала	-9.6096
▁напрамк	-9.60981
▁назвай	-9.61207
рава	-9.6128
об	-9.61346
тыка	-9.61397
▁UGC	-9.61416
09	-9.61468
▁сто	-9.61641
▁ВКЛ	-9.6176
▁прынцып	-9.61764
Х	-9.61845
▁гра	-9.6193
▁фі	-9.61937
▁турнір	-9.61962
▁32	-9.62028
▁актыўна	-9.62057
la	-9.62069
▁Карл	-9.6209
24	-9.62126
▁Тры	-9.62162
рд	-9.62178
▁Вялікабрытаніі	-9.62199
▁Святога	-9.62319
▁дзякуючы	-9.62335
сця	-9.62349
ктар	-9.62445
эль	-9.62445
▁доўгі	-9.62449
ность	-9.62468
▁сум	-9.62592
35	-9.62703
▁3-	-9.62725
18	-9.6281
аб	-9.6296
ia	-9.63071
▁абраны	-9.63106
▁прафесар	-9.6317
ваўся	-9.63199
▁транс	-9.63211
▁Фе	-9.63312
el	-9.63361
▁сейчас	-9.63399
сяго	-9.6348
▁вуліца	-9.63525
бро	-9.63577
пан	-9.63643
ляў	-9.63654
▁Ці	-9.63732
▁вытворчасці	-9.63774
▁Мак	-9.63826
▁мову	-9.63834
▁акадэміі	-9.63836
фер	-9.6392
▁шлях	-9.64008
рус	-9.64021
▁чу	-9.64026
▁гарадскога	-9.6406
▁княства	-9.64092
M	-9.64187
цін	-9.64192
йскай	-9.64259
▁рашэнне	-9.64307
▁1993	-9.64374
▁завод	-9.64386
▁пол	-9.64402
▁польскі	-9.64424
▁друг	-9.64446
▁ак	-9.64451
▁Усходня	-9.64473
▁Чырвона	-9.64505
▁стане	-9.64601
мана	-9.64805
▁межах	-9.64808
▁O	-9.64881
45	-9.6496
▁развіццё	-9.65008
дры	-9.65149
▁мноства	-9.65272
▁также	-9.65283
▁сілы	-9.65338
▁пар	-9.65412
▁Савецка	-9.65434
44	-9.65544
овіч	-9.65557
▁ўжыва	-9.65563
▁адкрыта	-9.6565
▁астравоў	-9.65723
▁Шы	-9.6583
34	-9.65867
▁займаў	-9.65931
нду	-9.65957
▁чале	-9.65972
ліна	-9.65981
▁Гер	-9.66002
▁музея	-9.66017
▁куп	-9.66105
бін	-9.66119
h	-9.66142
ней	-9.66185
▁ліпені	-9.66246
▁помнік	-9.66273
▁вышынё	-9.66378
лек	-9.66382
▁перайшоў	-9.66476
▁выступаў	-9.66494
джы	-9.66519
ta	-9.66541
▁імператара	-9.66546
чай	-9.66549
цця	-9.6655
▁вопрос	-9.6659
▁заснавана	-9.66681
▁высока	-9.66719
▁будынка	-9.66762
йскі	-9.66896
кер	-9.66905
▁прыняў	-9.66928
▁дрэва	-9.6697
▁імператар	-9.6703
▁грамадска	-9.67043
ши	-9.67123
▁пераклад	-9.67234
▁спраў	-9.67298
▁сказал	-9.67397
p	-9.67422
28	-9.6743
нюю	-9.67463
бург	-9.67491
▁знаходзіў	-9.67492
▁Азіі	-9.67523
▁навукова	-9.67525
куль	-9.67583
▁членам	-9.67826
▁чар	-9.67827
▁Некаторы	-9.67833
авана	-9.6784
▁стварэння	-9.67922
праў	-9.67979
at	-9.6801
▁любо	-9.6805
▁самом	-9.6805
▁многіх	-9.68099
▁сына	-9.68146
▁рух	-9.68149
лем	-9.68156
▁им	-9.68169
▁Нова	-9.68182
▁штат	-9.68236
пла	-9.68238
▁вакол	-9.68263
▁паўночным	-9.68334
▁де	-9.68338
▁Ас	-9.68343
▁Кас	-9.68355
▁рацэ	-9.68403
▁Такім	-9.68419
▁фон	-9.68482
▁1989	-9.68511
▁думк	-9.6853
сцей	-9.68542
▁кіраўнік	-9.68581
▁форма	-9.68646
▁тэорыі	-9.68761
▁суб	-9.68791
▁жніўні	-9.68869
12	-9.6887
▁прац	-9.68883
▁большасць	-9.68889
▁ўлады	-9.68901
нов	-9.68987
23	-9.69058
цыйны	-9.69159
ліч	-9.69208
▁часы	-9.69237
▁аўтар	-9.69271
ат	-9.69282
▁Вал	-9.69328
▁атрымалі	-9.69376
▁которая	-9.69466
▁те	-9.69473
▁клас	-9.69488
гадовы	-9.69535
▁войскамі	-9.69553
▁назвы	-9.69653
▁Чы	-9.69654
тро	-9.69773
▁студзені	-9.69782
▁мир	-9.69809
▁выйшл	-9.69842
▁кантракт	-9.6985
▁чатыры	-9.6985
▁орган	-9.6988
ўля	-9.69882
нін	-9.70043
▁прэм	-9.70088
33	-9.7019
▁думаю	-9.70235
▁Станам	-9.70278
цтва	-9.70281
▁тэатра	-9.70419
-19	-9.70427
цэн	-9.70605
▁адказ	-9.70666
▁Св	-9.70778
▁правіла	-9.70812
▁человек	-9.70812
▁жанчыны	-9.7082
лод	-9.70961
▁новых	-9.70975
▁Жа	-9.71053
ro	-9.71104
-1	-9.71131
▁школу	-9.71232
th	-9.71246
▁паэт	-9.71307
дан	-9.71347
▁мэтай	-9.71354
R	-9.71367
▁1924	-9.71374
▁способ	-9.71411
▁вос	-9.71438
▁этап	-9.7145
▁рад	-9.71455
▁гарадоў	-9.71533
▁улады	-9.71601
▁карыста	-9.71602
ннем	-9.71633
▁наступ	-9.71646
▁Хі	-9.71653
▁Про	-9.71693
пас	-9.71694
▁Что	-9.7172
▁палі	-9.7174
▁сяле	-9.71886
ic	-9.71891
ванні	-9.71924
▁акрамя	-9.71979
ючыся	-9.72026
25	-9.72078
зо	-9.72082
▁шлюб	-9.72092
▁інстытута	-9.72142
▁пас	-9.72147
st	-9.72355
▁адносна	-9.72464
▁віды	-9.72481
▁Бер	-9.72514
чына	-9.72516
▁могут	-9.7252
▁цяперашні	-9.72535
L	-9.7255
▁знаходзілас	-9.72641
нцаў	-9.72682
▁сін	-9.72785
-2	-9.72786
▁1942	-9.72831
▁стары	-9.72873
▁1938	-9.72901
▁такой	-9.7305
▁значыць	-9.73099
▁каза	-9.73106
тай	-9.73232
▁партыя	-9.73252
гар	-9.73254
рос	-9.7326
▁трыма	-9.73274
▁парк	-9.73302
▁бацькі	-9.73343
▁Новы	-9.73358
▁народа	-9.73395
▁кіраўніцтвам	-9.73435
▁паход	-9.73456
▁Карла	-9.7349
▁факт	-9.73543
▁ўсходзе	-9.73558
чых	-9.73568
▁грамадскі	-9.73654
36	-9.73667
▁палац	-9.73701
шчэ	-9.73705
13	-9.73787
▁заходня	-9.73791
▁вярнуў	-9.73877
▁падзелена	-9.73879
▁твораў	-9.73885
▁Когда	-9.73913
▁мед	-9.73931
▁80	-9.73979
▁загад	-9.73982
▁плане	-9.73992
▁Кор	-9.74017
нды	-9.74018
шта	-9.74044
▁пре	-9.74101
▁тых	-9.74129
▁Кур	-9.74232
▁гмін	-9.74281
▁ваенна	-9.74327
▁Тур	-9.74332
лення	-9.74339
65	-9.74375
пуска	-9.74436
▁часоў	-9.74442
роб	-9.74453
▁сцяг	-9.7446
▁электра	-9.74498
авым	-9.74572
85	-9.74583
▁сад	-9.74765
▁ска	-9.74808
евіч	-9.74877
ера	-9.74897
▁прозвішча	-9.74907
▁Галі	-9.74956
ник	-9.75005
▁должны	-9.75046
рам	-9.75075
▁адукацыі	-9.7508
▁Ган	-9.75146
29	-9.75147
▁Паўночна	-9.75252
27	-9.75344
43	-9.75406
38	-9.75479
зэ	-9.75502
▁Зямлі	-9.75507
17	-9.75563
▁нямецка	-9.75635
37	-9.75646
▁езд	-9.75667
пол	-9.75671
рак	-9.75676
▁ордэна	-9.75731
▁Тут	-9.75734
▁бал	-9.75776
овай	-9.75784
▁c	-9.75805
31	-9.7582
▁цар	-9.75832
55	-9.75834
26	-9.75855
▁проста	-9.75884
▁займа	-9.75922
▁адбыўся	-9.7598
▁замак	-9.76012
парт	-9.76033
ков	-9.7606
▁бі	-9.76134
рок	-9.76141
▁500	-9.76193
мет	-9.7625
▁ген	-9.76322
цоў	-9.76358
▁ЦК	-9.76376
нё	-9.76406
▁адпаведна	-9.76408
Э	-9.76414
▁пачатак	-9.7645
15	-9.76487
блі	-9.76652
▁ідэ	-9.76668
нтэ	-9.76669
ща	-9.76673
▁Стра	-9.76785
лён	-9.76788
▁выда	-9.76818
▁ро	-9.76826
▁пла	-9.76874
▁КАТА	-9.76886
▁замка	-9.7691
▁маг	-9.77085
et	-9.7726
▁назіра	-9.77299
▁Размешчаны	-9.77324
▁прадстаўнікоў	-9.77325
▁л	-9.77433
x	-9.77439
▁драўляны	-9.77517
▁поўна	-9.77555
▁Дзя	-9.77582
▁стст	-9.77602
56	-9.77677
гон	-9.77683
▁каманды	-9.77702
▁разгляда	-9.77714
ос	-9.77764
▁“	-9.77765
▁адбылося	-9.77801
▁сялян	-9.77815
▁народны	-9.77821
42	-9.77838
ировать	-9.77849
▁пакінуў	-9.77849
▁Вярхоўнага	-9.77875
▁всех	-9.77875
▁мое	-9.77992
▁паўднёвым	-9.78092
▁дзя	-9.78103
▁Беларускі	-9.78111
лак	-9.78155
▁школе	-9.78159
▁W	-9.78166
ив	-9.78194
вое	-9.782
41	-9.7836
▁тады	-9.78435
тыўны	-9.78461
64	-9.78471
лась	-9.78477
▁хто	-9.78497
рскі	-9.78524
ек	-9.78568
▁форму	-9.78578
▁ўрада	-9.78594
овая	-9.78715
39	-9.78769
▁Гар	-9.78781
▁дома	-9.78785
▁пяці	-9.78953
▁арганізацыя	-9.78986
рыс	-9.79016
роз	-9.79111
it	-9.7917
▁Свята	-9.79212
▁друга	-9.79233
тэра	-9.79302
▁знак	-9.79339
▁фонд	-9.79448
▁барацьб	-9.79467
▁2018	-9.79546
▁адбылася	-9.79659
▁1930	-9.79659
▁деле	-9.79665
▁конкурс	-9.79696
j	-9.79717
▁краінах	-9.79765
▁твор	-9.79772
▁Ін	-9.7985
цамі	-9.79901
11	-9.79951
▁правёў	-9.80034
▁45	-9.80065
▁Тро	-9.80081
кой	-9.80145
цкіх	-9.80145
зер	-9.8017
▁сіла	-9.80174
▁Джон	-9.80189
▁работы	-9.80204
▁сярэдзіне	-9.80242
арэ	-9.80247
▁Бел	-9.80294
дел	-9.80308
▁ССР	-9.8034
ходзяць	-9.80435
▁нова	-9.80448
um	-9.80523
▁цы	-9.80561
нню	-9.80591
▁сабе	-9.80675
▁няма	-9.80719
хан	-9.80764
▁прэміі	-9.80809
▁свои	-9.80815
▁хочу	-9.8091
▁ло	-9.80945
▁краіне	-9.80963
▁след	-9.81005
▁лютым	-9.81024
▁Цэнтральна	-9.81041
▁многія	-9.81054
олаг	-9.81103
трыма	-9.81205
▁Шэ	-9.81221
▁бітв	-9.81341
▁Член	-9.81344
из	-9.8137
льнік	-9.81471
▁паселішча	-9.81531
▁Англіі	-9.81571
▁Марк	-9.81665
▁жыў	-9.81752
▁Вялікі	-9.8176
46	-9.81794
▁Тым	-9.81953
▁Сама	-9.82028
тычныя	-9.82046
▁становішча	-9.82047
▁паходжання	-9.82053
зія	-9.82111
▁храма	-9.82114
З	-9.8214
▁наша	-9.82168
лог	-9.82191
▁пабудавана	-9.82198
овыя	-9.82238
эл	-9.82368
гры	-9.82387
▁яўляў	-9.82394
▁кошт	-9.82417
▁месяц	-9.82437
▁мастак	-9.82446
▁1946	-9.82449
▁чалавекі	-9.82461
li	-9.82512
рова	-9.82526
▁мас	-9.82612
▁Чэ	-9.82672
▁інтэр	-9.82722
лка	-9.82724
▁эта	-9.82736
▁другім	-9.82747
год	-9.82749
▁практычна	-9.8278
▁Мікалай	-9.82895
▁выгляд	-9.8291
▁радыё	-9.82946
▁прынята	-9.82949
▁чаргу	-9.83004
21	-9.83153
▁ч	-9.83164
▁ліча	-9.8329
▁армія	-9.8332
▁адначасова	-9.83322
тру	-9.83357
▁сп	-9.83362
▁Люб	-9.83412
▁старажытна	-9.83476
авая	-9.835
▁сельскагаспадар	-9.83518
▁1960	-9.83519
na	-9.8352
▁1959	-9.83533
▁усё	-9.83584
чэнне	-9.83613
▁кап	-9.83614
▁брат	-9.83626
▁сталіца	-9.83698
▁Швецыі	-9.83711
цыйна	-9.83713
▁найбуйнейшы	-9.83789
ur	-9.83807
il	-9.83875
дзін	-9.83935
оры	-9.83976
аваў	-9.84053
сер	-9.84125
ете	-9.84311
▁сацыяльна	-9.84362
47	-9.84426
▁150	-9.84511
▁важны	-9.84564
жаны	-9.84595
ненне	-9.84606
▁падобны	-9.84606
76	-9.84615
нк	-9.84675
▁цяжка	-9.84704
си	-9.8474
эй	-9.84747
▁сезоне	-9.84801
▁сер	-9.8483
сія	-9.8485
▁после	-9.84865
06	-9.84878
▁снежні	-9.84889
▁выніка	-9.84958
▁p	-9.84972
▁300	-9.85019
58	-9.85058
▁сцен	-9.85078
шоў	-9.85083
▁песні	-9.85085
▁кніг	-9.85245
▁дня	-9.85269
тал	-9.85285
▁баявы	-9.85346
▁эту	-9.85363
▁прэзідэнт	-9.85398
▁існуе	-9.85404
тны	-9.85415
▁першыя	-9.85418
▁спачатку	-9.85434
чна	-9.85461
▁звязана	-9.85484
▁Працава	-9.85624
▁жизнь	-9.85642
▁гук	-9.85673
▁Пар	-9.85709
▁вяскова	-9.85761
86	-9.85916
▁пачынае	-9.86061
кор	-9.86067
▁прэзідэнта	-9.86085
▁зрабіў	-9.86085
▁знач	-9.86109
кін	-9.86119
▁дзі	-9.86149
овым	-9.86164
▁Бал	-9.8621
▁востраве	-9.86258
доў	-9.86272
59	-9.86329
свет	-9.86332
▁стара	-9.86342
▁штата	-9.86343
▁чыгуначн	-9.8638
▁Іспаніі	-9.86389
▁Ця	-9.86396
▁колеру	-9.86433
▁міжнародна	-9.86561
▁салдат	-9.86561
▁Хе	-9.86584
▁паўстання	-9.86589
▁ры	-9.86615
▁сва	-9.86719
▁справа	-9.86735
ўшыся	-9.86761
▁1954	-9.86778
эт	-9.86783
02	-9.86816
82	-9.86828
▁вучылішча	-9.86844
▁Дзяржаўна	-9.86853
▁часткова	-9.8688
тыўна	-9.86921
▁павінна	-9.86988
▁Літвы	-9.87044
▁гаспадаркі	-9.8714
▁пісьменнік	-9.87166
52	-9.87205
▁еўрапейскі	-9.87208
▁1970	-9.87421
▁другога	-9.87449
весь	-9.87465
▁прамысловасці	-9.87468
▁работ	-9.87488
ора	-9.87554
▁гістарычна	-9.87556
▁вышэй	-9.87581
▁Ну	-9.87624
ель	-9.87627
▁перадач	-9.87653
63	-9.87702
оз	-9.87718
▁захоўва	-9.87751
▁камітэта	-9.87776
лева	-9.87847
▁ўсім	-9.87857
▁дынастыі	-9.87879
▁малады	-9.87894
тычных	-9.87906
▁перыяду	-9.87945
▁сакавіку	-9.87959
98	-9.8808
быт	-9.88138
68	-9.88154
раваны	-9.8817
сходзе	-9.88175
48	-9.88191
лож	-9.88193
▁Маскве	-9.88221
▁разоў	-9.8824
▁неўзабав	-9.88262
нар	-9.88348
▁Сп	-9.88353
▁універсітэце	-9.885
16	-9.88571
ані	-9.88575
зд	-9.88596
нскіх	-9.88665
,0	-9.8867
▁менавіта	-9.88674
▁АН	-9.88681
▁вайне	-9.88685
▁мастацка	-9.88691
лян	-9.88725
▁воласці	-9.88795
▁Она	-9.88827
▁1937	-9.88855
нікам	-9.88867
74	-9.88875
▁Шу	-9.88935
▁галоўна	-9.8895
▁інжынер	-9.88959
▁бар	-9.88976
▁князь	-9.89
▁Згодна	-9.89041
зв	-9.89078
ас	-9.8909
▁Японіі	-9.89123
▁герб	-9.89176
▁названы	-9.89182
▁поле	-9.89227
▁X	-9.89229
торы	-9.89258
▁ман	-9.89279
она	-9.89288
▁1988	-9.89304
рэс	-9.89326
75	-9.89412
ing	-9.8948
▁каманда	-9.89518
▁бацька	-9.89525
▁тып	-9.89527
щи	-9.8965
▁Там	-9.89717
▁большасц	-9.89723
▁Маці	-9.89837
рэй	-9.89855
▁змен	-9.89886
тер	-9.89907
▁Сядзіба	-9.89915
ически	-9.89933
раж	-9.89934
53	-9.9001
▁значэння	-9.90077
▁созда	-9.90103
▁фільм	-9.90208
▁1980	-9.90209
69	-9.90349
▁через	-9.90368
істы	-9.90396
▁рэвалюцыі	-9.90481
▁Марыя	-9.90577
▁фар	-9.90582
▁распаўсюджаны	-9.90619
▁пер	-9.90652
▁магчымасць	-9.90684
▁этим	-9.90701
щ	-9.90765
▁1975	-9.90802
▁Итак	-9.90887
дам	-9.90996
▁кор	-9.91002
▁Ж	-9.91063
▁1956	-9.91098
▁вышыні	-9.91123
чана	-9.91151
ально	-9.91174
аса	-9.91179
▁Віленска	-9.91187
▁чэрвені	-9.91247
▁землі	-9.91283
04	-9.91317
▁астатні	-9.91332
▁кніга	-9.91361
ев	-9.91389
▁Гры	-9.91475
lo	-9.91481
▁ду	-9.91561
палі	-9.91586
▁1962	-9.91601
▁дні	-9.91611
▁ўсяго	-9.91626
▁IRAS	-9.9171
▁сродка	-9.91736
шла	-9.9179
▁Цэнтр	-9.91851
▁1926	-9.91857
▁чыта	-9.91863
▁форме	-9.91984
87	-9.91992
78	-9.92026
▁хотел	-9.92079
▁адно	-9.92086
▁36	-9.92131
▁верасні	-9.92134
▁марскі	-9.92229
▁Грэ	-9.92281
▁яў	-9.92302
▁расійска	-9.92359
мор	-9.92372
▁эканамічна	-9.92395
▁даволі	-9.92398
жд	-9.92434
V	-9.92469
▁збіра	-9.92521
▁шматлікія	-9.92548
▁гара	-9.92563
▁Джа	-9.92583
▁вялікага	-9.92603
▁прычыны	-9.9261
▁сезон	-9.92665
стр	-9.92708
лес	-9.9273
гла	-9.92803
▁Сцяг	-9.92848
ской	-9.92872
▁Чар	-9.92896
▁сур	-9.92927
ными	-9.92947
ік	-9.9299
▁апошня	-9.93031
62	-9.93036
▁1986	-9.93048
▁май	-9.93119
вагу	-9.93152
▁работа	-9.93191
оўка	-9.93194
▁факультэт	-9.93262
▁1922	-9.93269
мін	-9.93302
стой	-9.93338
▁поспех	-9.93473
▁адбываецца	-9.93485
▁канал	-9.93494
84	-9.93517
▁The	-9.93543
▁Цы	-9.93583
▁намеснік	-9.93586
▁верхня	-9.93608
▁себе	-9.93641
град	-9.93647
▁жыхары	-9.93712
77	-9.93718
▁пэўны	-9.93723
▁Кап	-9.93759
ги	-9.93766
▁Назва	-9.93803
падае	-9.93846
▁4-	-9.93873
▁мастацтваў	-9.93899
ент	-9.93995
▁народаў	-9.94028
▁1967	-9.94036
▁гісторы	-9.94117
ходзе	-9.94147
ўскай	-9.94176
▁каралеўства	-9.94218
▁польска	-9.94231
▁кожны	-9.94232
О	-9.94241
мп	-9.94266
▁адрозненне	-9.9428
▁астравы	-9.9435
кую	-9.9444
▁воз	-9.94451
▁новай	-9.9446
лег	-9.9448
▁ўпершын	-9.94505
фон	-9.94547
▁пачала	-9.94571
▁выйшаў	-9.94608
▁літоўскі	-9.94655
авага	-9.9467
ью	-9.94699
▁Санкт	-9.94725
▁колер	-9.94819
▁края	-9.94842
льным	-9.94928
▁дух	-9.94934
▁грамадства	-9.94955
▁которы	-9.94995
▁новыя	-9.95006
▁званне	-9.95011
54	-9.95013
ань	-9.95021
▁Сусветна	-9.95021
▁лю	-9.95047
▁камун	-9.95062
49	-9.95071
61	-9.9508
▁мужчыны	-9.95181
▁ўплыў	-9.95204
▁VI	-9.95231
▁лагер	-9.95233
▁гісторыка	-9.95237
лёт	-9.95258
скаму	-9.95268
рма	-9.95298
07	-9.95299
▁нумар	-9.95461
лам	-9.95509
▁Эр	-9.95555
▁лінія	-9.95594
▁Дынаміка	-9.95677
ень	-9.95703
▁гурт	-9.95741
том	-9.95772
▁Рэспубліка	-9.95795
▁Мінскі	-9.95812
▁Лю	-9.95882
ляр	-9.95883
66	-9.95929
▁ди	-9.95949
іна	-9.95962
▁прад	-9.95971
▁рыб	-9.96004
03	-9.9604
▁вымушаны	-9.96118
ўшчына	-9.96146
▁мана	-9.96157
▁пл	-9.96185
ніна	-9.96305
▁1957	-9.96312
N	-9.96349
▁вялікім	-9.96432
▁земля	-9.96445
куп	-9.96466
▁каралём	-9.96473
люб	-9.96484
▁33	-9.96512
▁турніру	-9.96573
▁павінны	-9.96607
дер	-9.96617
альных	-9.96662
рана	-9.9667
▁дзяржава	-9.96679
▁вышэйша	-9.96707
чнае	-9.96726
▁тэмпература	-9.96747
гер	-9.96836
кавыя	-9.96838
дат	-9.96845
▁1965	-9.96849
00	-9.96878
▁заняў	-9.96948
▁1929	-9.97027
▁день	-9.97057
▁42	-9.97144
92	-9.97174
▁прыклад	-9.97203
▁1914	-9.9721
чо	-9.97242
▁кірунк	-9.97274
ями	-9.97334
▁Дом	-9.97345
▁польскай	-9.97366
▁прадстаўлены	-9.9741
лых	-9.97437
ніча	-9.97525
▁несколько	-9.97539
▁даў	-9.976
▁полі	-9.97721
эс	-9.97725
ток	-9.97755
▁вялікая	-9.9776
клі	-9.97796
▁1979	-9.97828
шко	-9.97924
▁пражыва	-9.97937
88	-9.97952
вата	-9.9804
▁U	-9.9804
▁1950	-9.98044
▁шляхам	-9.98099
▁манастыр	-9.98106
▁кароткі	-9.98129
96	-9.98153
▁явілас	-9.98214
▁1974	-9.98235
▁англійскі	-9.98268
▁наши	-9.98347
▁между	-9.98363
v	-9.98381
▁ствара	-9.98403
▁Разам	-9.98447
57	-9.98474
▁распа	-9.98496
95	-9.9856
▁правінцыя	-9.9858
▁мэта	-9.98583
прыклад	-9.98601
▁Алімпійскі	-9.98624
рка	-9.98639
▁явіліс	-9.98711
рыста	-9.98728
▁грамадзян	-9.98736
оль	-9.98742
▁чэмпіянат	-9.98743
▁імперыя	-9.98805
жны	-9.98884
леж	-9.98964
05	-9.98974
▁сезону	-9.98993
67	-9.99004
▁пераход	-9.99005
▁глыбін	-9.99026
▁1972	-9.99138
тыя	-9.99139
▁фронту	-9.99144
▁делать	-9.99156
цкую	-9.9916
▁Міністэрства	-9.99164
▁першапачаткова	-9.99168
▁акцёр	-9.99174
нёс	-9.99245
аваць	-9.99249
▁праваслаўны	-9.99283
ol	-9.99418
▁перамог	-9.99428
▁гл	-9.99436
▁аддзела	-9.9948
▁1966	-9.99505
▁Тар	-9.99507
▁Народна	-9.9951
▁37	-9.99556
▁1976	-9.99599
кана	-9.99677
▁рэгіёна	-9.99697
▁90	-9.99721
▁Джэ	-9.99724
▁55	-9.99753
▁1958	-9.99782
▁момент	-9.99802
▁азёр	-9.99851
▁Бы	-9.99919
▁b	-9.99952
▁эканамічны	-9.99992
міна	-10.0003
дз	-10.0004
▁заканчэння	-10.0004
ягледзячы	-10.0008
▁1927	-10.0011
▁1968	-10.0015
▁называюць	-10.0017
▁Шар	-10.0024
▁Каз	-10.0025
▁галоўнага	-10.0026
раста	-10.0029
▁вод	-10.0032
кур	-10.0036
▁маі	-10.0037
▁1978	-10.0038
насцю	-10.0039
▁Сам	-10.0043
▁Мары	-10.0044
би	-10.0045
▁пласт	-10.0046
79	-10.0047
▁1923	-10.0048
▁лучше	-10.0048
▁оста	-10.0059
ацыя	-10.0069
каўскага	-10.007
▁Уз	-10.0071
▁34	-10.0072
▁XV	-10.0073
▁тэрыторыю	-10.0073
▁камандаванне	-10.008
▁бая	-10.0082
▁забіты	-10.0086
▁паветра	-10.0088
▁малы	-10.0091
71	-10.0094
ti	-10.0094
▁кафедры	-10.0101
▁членаў	-10.0106
▁стварэнне	-10.0123
▁газеты	-10.0126
▁Ім	-10.013
▁развіва	-10.0134
▁мире	-10.0137
▁даўжын	-10.0138
▁Францыя	-10.0139
▁1931	-10.014
лада	-10.0143
▁Раман	-10.0143
▁1971	-10.0154
нес	-10.0154
лівы	-10.0155
▁сабор	-10.0157
▁просты	-10.0159
▁1985	-10.0163
віта	-10.017
▁вадазбор	-10.0171
▁”	-10.0171
▁Эн	-10.0171
▁пока	-10.0175
▁мои	-10.0189
▁действительно	-10.0196
▁1987	-10.0196
▁падпісаў	-10.0199
▁Вільні	-10.02
99	-10.0201
сту	-10.0207
08	-10.0207
ведзена	-10.0215
83	-10.0215
▁веда	-10.0216
▁кастрычніку	-10.0217
▁вайна	-10.0218
▁дагавор	-10.0225
▁перайшл	-10.023
пример	-10.023
▁аддзялення	-10.0236
▁дзяржаўнай	-10.0237
ma	-10.0239
нога	-10.024
▁тэатр	-10.024
част	-10.0244
вары	-10.0245
▁1948	-10.0248
▁Спасибо	-10.025
▁вялік	-10.0251
шаны	-10.0252
нут	-10.0259
▁служы	-10.0261
ции	-10.0263
81	-10.0265
▁1964	-10.0281
▁перада	-10.0281
руч	-10.0285
зон	-10.0293
▁Брэ	-10.0299
▁1925	-10.03
▁1934	-10.03
▁гарады	-10.0301
un	-10.0301
▁старшыня	-10.0303
▁мін	-10.0304
▁адпаведнасц	-10.0308
▁дапамог	-10.031
▁упершын	-10.0316
▁чорны	-10.0317
▁1947	-10.0318
▁акт	-10.032
ара	-10.0321
тана	-10.0323
▁1963	-10.0323
▁XIV	-10.0331
ўская	-10.0332
▁проект	-10.0332
ое	-10.0339
▁спадчын	-10.0344
▁Пас	-10.0345
001	-10.0349
▁доўга	-10.035
▁згодна	-10.035
▁1949	-10.0352
▁1961	-10.0361
▁Агульна	-10.0365
чык	-10.037
▁спадчыны	-10.0373
▁1969	-10.0375
▁сталіцы	-10.0376
▁Віктар	-10.0376
▁культурны	-10.038
▁берага	-10.0382
▁мір	-10.0385
▁чыгункі	-10.0385
-20	-10.039
▁знойдзены	-10.0393
▁ордэнам	-10.0398
▁сегодня	-10.0412
ред	-10.0412
шын	-10.0415
▁буд	-10.0418
али	-10.0418
▁граф	-10.0421
▁1,5	-10.0427
▁звыш	-10.0429
▁43	-10.0429
▁Княства	-10.0431
▁невяліка	-10.0433
▁вар	-10.0439
льна	-10.044
97	-10.0441
▁выступа	-10.0442
▁1984	-10.0442
▁склаў	-10.0443
▁сучасных	-10.0444
фу	-10.0445
хава	-10.045
▁басейн	-10.0454
▁зорка	-10.0458
лік	-10.0461
▁Першапачаткова	-10.0464
▁груп	-10.047
▁гісторык	-10.0473
▁рэгіён	-10.0477
▁Міхаіл	-10.0479
цам	-10.0481
▁1982	-10.0481
▁гадзін	-10.0486
▁меры	-10.0486
▁38	-10.0487
▁спроб	-10.0489
▁рады	-10.0489
▁рымска	-10.0495
▁навукі	-10.0501
▁1981	-10.0514
зн	-10.0515
▁вобраз	-10.0519
▁ваеннай	-10.0524
▁прафесійны	-10.0525
▁пяць	-10.0526
▁значэнні	-10.0527
▁зборнік	-10.0528
▁вул	-10.0529
▁рыс	-10.0533
поль	-10.0535
▁павінен	-10.0537
▁1935	-10.054
▁рэлігійны	-10.0541
▁кру	-10.0543
▁верагодна	-10.0547
▁Індыі	-10.0547
▁Галоўны	-10.0548
мест	-10.0554
▁дробны	-10.056
▁времени	-10.0561
▁адносіны	-10.0563
▁акіяна	-10.0564
▁Дзі	-10.0567
▁культурна	-10.0568
▁возможно	-10.0569
▁людзі	-10.0571
ены	-10.0573
раджа	-10.0574
▁падзей	-10.0575
ліка	-10.0576
ваюцца	-10.058
▁бібліятэка	-10.0581
рат	-10.0586
▁замест	-10.059
▁ката	-10.0595
тані	-10.0597
▁рэспублікі	-10.0604
▁доступ	-10.0604
▁пазіцыі	-10.0604
▁Амерыкі	-10.0605
▁падрыхтоўк	-10.0605
▁цэ	-10.0615
стэ	-10.0616
чую	-10.0627
▁край	-10.0634
▁прыняты	-10.0639
цю	-10.0642
▁Анд	-10.0645
▁1977	-10.0651
кт	-10.0651
▁вежа	-10.0656
▁ан	-10.0657
▁пример	-10.0658
▁прадстаўнік	-10.0662
▁існавала	-10.0669
▁часопіса	-10.0672
падобны	-10.068
▁1915	-10.0686
▁Івана	-10.0689
▁Акадэміі	-10.069
чески	-10.0694
▁Паўла	-10.0697
▁традыцыйна	-10.07
зда	-10.0709
▁Бур	-10.071
▁палітычна	-10.0722
▁яднання	-10.0731
▁миллион	-10.0733
▁Пан	-10.0734
73	-10.0735
▁варыянт	-10.074
шыню	-10.0742
▁Адміністрацыйна	-10.0743
▁400	-10.075
▁прэ	-10.0753
рына	-10.0754
мес	-10.0755
▁Палі	-10.0758
▁фасад	-10.0759
важ	-10.0762
▁лёгка	-10.0767
▁1973	-10.0769
▁чы	-10.077
▁красавіку	-10.0771
сель	-10.0775
▁структур	-10.0784
зін	-10.0788
▁фактычна	-10.0792
кевіч	-10.0793
▁кампанія	-10.0793
аба	-10.0795
чыя	-10.0799
ul	-10.0802
▁камен	-10.0802
▁дуб	-10.0806
▁арганізацый	-10.0807
аванне	-10.0813
▁Літоўскага	-10.0813
▁Дуб	-10.0822
▁тыя	-10.0823
▁пор	-10.0823
▁явіў	-10.0827
небудзь	-10.0827
овіча	-10.0831
чага	-10.084
мба	-10.084
▁замацава	-10.0842
▁кіраваў	-10.0845
▁архітэктар	-10.0845
▁раздзел	-10.0846
▁XIII	-10.0848
▁63	-10.085
▁пераваг	-10.0851
▁працуе	-10.0852
▁вядзе	-10.0858
▁літаратурна	-10.0858
▁басейне	-10.0861
чат	-10.0864
▁Вар	-10.0866
89	-10.0867
▁старэйшы	-10.0867
▁запас	-10.0873
цяг	-10.0889
ров	-10.089
72	-10.089
▁маса	-10.0891
чак	-10.0892
▁Большасць	-10.0894
▁рамках	-10.0894
аўскага	-10.0894
▁сэнс	-10.0897
▁канчаткова	-10.0897
am	-10.0911
вія	-10.0915
цкія	-10.0916
▁ль	-10.0918
▁Вялікая	-10.0919
▁лес	-10.0922
▁Марыі	-10.0922
уецца	-10.0927
▁палаца	-10.0937
▁праціўніка	-10.0937
▁належыць	-10.0937
▁Пап	-10.0938
рав	-10.0938
спа	-10.094
зи	-10.0941
▁выдання	-10.0941
▁1936	-10.0945
▁ўнутраны	-10.0947
мена	-10.0951
▁некоторы	-10.0953
▁крэ	-10.0957
▁кала	-10.0961
▁перед	-10.0962
▁цыкл	-10.0962
▁альбом	-10.0966
▁Фар	-10.0966
▁іншага	-10.0971
▁фронт	-10.0981
▁павет	-10.0982
▁Мен	-10.0996
▁музыкі	-10.0997
▁характэрны	-10.0998
паў	-10.0998
тэры	-10.0999
▁Слав	-10.1
▁выпадка	-10.1002
▁даследаванняў	-10.1002
▁Упер	-10.1006
▁знаходзіліс	-10.101
▁Жан	-10.1011
тр	-10.1012
▁праекта	-10.1016
ленні	-10.1016
93	-10.102
▁происходит	-10.1023
▁Фу	-10.1024
▁парадку	-10.1027
від	-10.1028
▁культура	-10.1037
валь	-10.1039
▁75	-10.1042
▁Асноўныя	-10.1043
▁паступова	-10.1049
дара	-10.105
ющих	-10.1051
▁1932	-10.1052
▁мозг	-10.1053
ед	-10.1058
▁of	-10.1061
▁праваслаўна	-10.1061
▁Іванавіч	-10.1062
міра	-10.1063
▁даўжынё	-10.1063
▁вялікія	-10.1065
ут	-10.1065
F	-10.1066
ёй	-10.1071
ie	-10.1073
▁бела	-10.1076
▁адраз	-10.1076
▁сярэдзіны	-10.1078
▁палат	-10.1081
▁такое	-10.1082
пала	-10.1082
частку	-10.1089
кал	-10.109
▁абраз	-10.1091
▁Кле	-10.1091
▁вялікіх	-10.1107
▁Пла	-10.1109
▁афіцыйны	-10.1111
▁Бен	-10.1113
▁пи	-10.1118
▁брытанскі	-10.1121
жыў	-10.1122
уз	-10.1124
▁пасёлка	-10.1127
▁цел	-10.1128
▁Жу	-10.1131
чым	-10.1131
▁пасады	-10.1135
▁стварыў	-10.1137
носі	-10.1139
▁установ	-10.114
▁дазваляе	-10.1146
▁змены	-10.1147
▁агульны	-10.1153
▁расліны	-10.1158
мон	-10.1166
▁залежнасці	-10.1167
рна	-10.1171
▁ноч	-10.1171
▁хі	-10.1172
мент	-10.1172
▁буду	-10.1174
▁нямецкай	-10.1177
▁48	-10.1178
▁асноўна	-10.1183
вец	-10.1184
▁Сар	-10.1197
▁метад	-10.12
▁жыцці	-10.121
▁крыніца	-10.1212
▁пакольк	-10.1218
уль	-10.1224
▁становіцца	-10.1224
▁Юр	-10.1226
▁ф	-10.1227
▁атрад	-10.1228
▁канцэрт	-10.1229
▁КП	-10.123
пачатку	-10.1235
гул	-10.1235
йны	-10.1237
▁1928	-10.1237
▁Першыя	-10.1242
94	-10.1243
Ш	-10.1243
жан	-10.1246
▁рэдка	-10.1251
алогіі	-10.1252
▁адзіны	-10.1256
прац	-10.1268
▁выбарах	-10.1269
▁Заснаваны	-10.1271
▁важна	-10.1272
сон	-10.1272
▁вага	-10.1274
намі	-10.1274
све	-10.1278
грагарадок	-10.1281
▁вучоны	-10.1281
▁творчасці	-10.1281
▁гідра	-10.1288
выкарыстоўваюцца	-10.1289
▁Ё	-10.1291
тычны	-10.1292
▁дакумента	-10.1292
▁тех	-10.1292
льнае	-10.1293
▁кіраванне	-10.1294
51	-10.1295
▁выкарыстоўва	-10.1295
льскай	-10.1298
▁Ара	-10.1304
нца	-10.1306
▁Саюз	-10.131
▁розна	-10.1311
▁пастаянна	-10.1313
▁1983	-10.1325
кро	-10.1326
▁кам	-10.1328
авалі	-10.1328
▁напісаў	-10.1329
▁актыўны	-10.1337
▁выява	-10.1338
емся	-10.1341
▁Каб	-10.1344
▁ўяўляе	-10.1344
▁39	-10.1346
проч	-10.1347
▁ніжэй	-10.1354
дон	-10.1356
▁найбольшая	-10.1357
▁знаю	-10.1358
слоў	-10.1358
▁судна	-10.1359
▁Пётр	-10.136
▁высокі	-10.1366
▁Сер	-10.1367
▁незалежнасці	-10.1368
▁класа	-10.1368
▁Стары	-10.1377
▁азначае	-10.1377
▁мястэчка	-10.1378
▁рынк	-10.1379
▁разы	-10.1385
▁сярэдняя	-10.1388
▁размяшча	-10.1388
йскім	-10.1391
▁образом	-10.1395
▁расліна	-10.1396
овага	-10.1398
юсь	-10.1401
▁прысвечаны	-10.1407
▁алтар	-10.1409
▁версіі	-10.141
▁выраз	-10.1418
▁Сонца	-10.1418
▁Пара	-10.1429
▁аўта	-10.1431
▁метал	-10.1435
▁папярэдні	-10.1436
▁си	-10.1439
▁фільма	-10.1442
▁ўсходня	-10.1453
▁Размешчана	-10.146
▁спорту	-10.1463
▁сімвал	-10.1463
▁абвясціў	-10.1466
▁звычайны	-10.1466
▁банк	-10.1471
беж	-10.1473
▁результат	-10.1476
▁дзеянні	-10.1477
▁5-	-10.1483
▁горны	-10.1485
▁порт	-10.1489
▁ну	-10.1491
▁основ	-10.1491
▁бла	-10.1492
имо	-10.15
▁дзеянняў	-10.1501
▁заўсёды	-10.1503
▁a	-10.1503
▁Сярэдні	-10.1508
▁1955	-10.1511
віна	-10.1518
ne	-10.1525
асць	-10.1527
▁Рым	-10.1531
▁каждый	-10.1535
ed	-10.154
▁XII	-10.1546
▁вызнача	-10.156
мір	-10.1561
▁1933	-10.1564
▁прадстаўнікі	-10.157
01	-10.1582
иться	-10.1585
▁корпус	-10.1588
▁адносіцц	-10.1589
▁новым	-10.1591
▁крыжа	-10.1595
нас	-10.1595
▁лістападзе	-10.1606
▁грамадзянска	-10.1609
▁41	-10.1609
▁праходзіў	-10.1609
▁побач	-10.161
дзю	-10.161
ціна	-10.1613
▁аперацыі	-10.1614
авання	-10.1623
▁даследаванні	-10.1627
▁незалежнасць	-10.1628
▁Ска	-10.1631
▁дывізіі	-10.1632
нуты	-10.1632
▁чэмпіяна	-10.1639
▁выраб	-10.1642
▁прадпрыемства	-10.1644
▁Венгрыі	-10.1644
100	-10.1653
цё	-10.1654
грам	-10.1655
▁котор	-10.1656
▁сістэм	-10.1658
▁ядна	-10.166
▁гаспадар	-10.1666
▁Аз	-10.1672
▁Сын	-10.1673
біра	-10.1675
▁выбар	-10.1677
▁Пятра	-10.1679
бара	-10.1679
▁непасрэдна	-10.1681
іста	-10.1682
▁1953	-10.1683
▁наступным	-10.1685
▁функцыі	-10.1686
▁серыі	-10.1686
▁асобна	-10.1694
▁Маг	-10.1697
▁вышэйшы	-10.17
джэ	-10.1703
▁сумесна	-10.1703
рэз	-10.1709
▁двароў	-10.1713
коўскі	-10.1714
дка	-10.1721
▁пунктаў	-10.1722
▁захаваліся	-10.1722
▁Мас	-10.1723
▁Больш	-10.1724
▁палка	-10.1724
▁Фра	-10.1731
ешь	-10.1741
▁1905	-10.1743
▁мовах	-10.1744
▁тан	-10.1746
▁сакратар	-10.1747
▁праграм	-10.1756
бр	-10.1758
▁праходзі	-10.1759
вёў	-10.1761
юр	-10.1762
▁гандлёвы	-10.1768
тва	-10.1769
▁Чу	-10.177
▁культур	-10.1772
сана	-10.1773
▁даўжыня	-10.1775
▁ск	-10.1777
▁лічыць	-10.1779
▁стандарт	-10.1789
▁сістэме	-10.179
▁левы	-10.1793
▁часцей	-10.1793
гляд	-10.1798
грэ	-10.1799
▁службу	-10.1802
даецца	-10.1802
йская	-10.1803
▁пачалос	-10.1803
чоў	-10.1804
▁яно	-10.1804
▁камер	-10.1805
▁Арміі	-10.1808
▁Кір	-10.1813
сіі	-10.1813
▁мой	-10.1815
пло	-10.1816
▁віда	-10.1817
▁Гродна	-10.1818
▁палон	-10.1818
метры	-10.1821
▁служб	-10.1822
плыв	-10.1823
▁ажыццяўля	-10.1826
ук	-10.1828
as	-10.183
▁зроблены	-10.1834
▁служыў	-10.1835
▁званы	-10.184
▁рада	-10.1842
тура	-10.1846
▁сказать	-10.1847
▁еры	-10.1848
▁стагоддзяў	-10.1854
тамі	-10.1863
▁Усходне	-10.1865
ізм	-10.1868
▁важно	-10.1871
рэд	-10.1872
ает	-10.1876
ніцтва	-10.1876
▁Дра	-10.1877
уса	-10.1879
чэння	-10.1885
▁трэба	-10.1888
▁запіс	-10.1895
меж	-10.1895
віцкі	-10.1896
▁лу	-10.1897
▁мастацкі	-10.1897
▁універсітэта	-10.1898
▁кіна	-10.1907
se	-10.191
▁схіл	-10.1912
▁італьянскі	-10.1917
▁прэс	-10.1918
чыць	-10.1921
▁параўнанн	-10.1925
прэ	-10.1928
▁процесс	-10.1928
▁ера	-10.193
▁Нацыянальны	-10.1937
▁Карэ	-10.1941
▁Павел	-10.1941
іст	-10.1942
▁1000	-10.1946
▁асобы	-10.1949
▁пасад	-10.1954
ESO	-10.1956
▁сістэму	-10.1965
лява	-10.1968
ргі	-10.1977
пор	-10.1979
вара	-10.1979
рог	-10.1979
▁44	-10.198
▁дадзена	-10.1984
▁брата	-10.1988
▁стады	-10.1989
▁пост	-10.1996
▁старо	-10.1996
▁англійскай	-10.1998
▁сво	-10.2003
▁Бара	-10.2005
▁функцыя	-10.2008
дом	-10.2009
vi	-10.2011
▁пошук	-10.2017
▁почему	-10.2023
▁ё	-10.2024
анты	-10.2026
Ка	-10.2029
льцы	-10.203
▁падстав	-10.2031
▁неза	-10.2031
ота	-10.2031
▁дзеля	-10.2032
апа	-10.2035
вез	-10.2038
▁тэкст	-10.2049
сло	-10.2052
▁сярэдняй	-10.2053
▁бер	-10.2053
▁Таму	-10.2053
▁праблем	-10.2058
▁de	-10.2059
еха	-10.206
ющие	-10.206
▁кол	-10.2061
▁інфармацыі	-10.2067
▁Кла	-10.2068
▁1952	-10.2076
▁БДУ	-10.2081
▁Польшча	-10.2085
▁Грэцыі	-10.2085
▁вышыня	-10.2086
▁рымскі	-10.2087
▁групп	-10.209
ски	-10.209
▁Сал	-10.2097
to	-10.2099
▁машин	-10.2103
▁кіламетра	-10.2107
ёна	-10.2107
альная	-10.2108
▁Рымскай	-10.2111
ского	-10.2115
рык	-10.2118
▁лісце	-10.2122
▁музычна	-10.2123
▁вада	-10.2127
▁именно	-10.2135
▁каманд	-10.2137
радзе	-10.2137
▁является	-10.2143
▁Гомель	-10.2144
▁перамо	-10.2147
энер	-10.2155
▁видит	-10.2156
▁гульняў	-10.2166
▁груз	-10.2168
▁раб	-10.217
▁Галоўна	-10.2177
▁галоў	-10.2179
▁асабіста	-10.2179
тыкі	-10.2179
▁Бры	-10.2182
▁блізкі	-10.2182
▁гуляў	-10.2183
ення	-10.2185
▁здабы	-10.2185
клаў	-10.2189
авала	-10.219
▁іншым	-10.219
▁чорна	-10.2191
фра	-10.2196
ают	-10.2197
w	-10.22
▁газ	-10.2202
▁герба	-10.2202
▁тре	-10.2204
▁катлавін	-10.2205
оўцы	-10.2208
▁Стара	-10.221
▁дэпутатаў	-10.2212
▁песня	-10.2214
▁наведва	-10.222
▁выяўлены	-10.2222
ний	-10.2223
тычнай	-10.2224
зь	-10.2229
альнай	-10.2236
▁шчыт	-10.2239
чан	-10.2244
▁кіраўніцтва	-10.2246
▁ўдзельнік	-10.2251
▁47	-10.2252
▁одна	-10.2256
▁дзвюх	-10.2256
▁46	-10.2258
▁Ху	-10.2261
▁існавання	-10.2264
вацца	-10.2267
рк	-10.2268
кага	-10.2269
▁выпуска	-10.227
▁свята	-10.2276
▁оп	-10.2278
▁калон	-10.2278
▁прасторы	-10.2281
▁касцёла	-10.2282
ad	-10.2284
ўны	-10.2287
▁Нава	-10.229
▁других	-10.2291
▁тро	-10.2293
▁база	-10.2293
тарам	-10.2293
▁паспяхова	-10.2303
нту	-10.2304
▁ранні	-10.231
ндр	-10.2312
бла	-10.2313
▁падзеі	-10.2314
рскага	-10.2315
ілі	-10.2317
▁m	-10.2322
▁кур	-10.2324
▁теперь	-10.2326
▁человека	-10.233
▁Леў	-10.2331
ола	-10.2331
овать	-10.2333
пя	-10.2334
▁ца	-10.2336
▁гал	-10.2337
▁дзеяння	-10.2352
▁атрада	-10.2354
▁асноўнай	-10.2357
▁старшыні	-10.2358
гле	-10.2361
▁птушак	-10.2366
▁паступіў	-10.2367
▁каротка	-10.2367
чае	-10.2367
пін	-10.2367
▁роўна	-10.2369
▁водна	-10.2369
жыць	-10.237
▁детей	-10.2372
▁лічыў	-10.2375
H	-10.2379
▁саюза	-10.2381
▁могли	-10.2383
▁заходні	-10.2384
▁Мне	-10.2384
лов	-10.2385
▁самастойна	-10.2389
▁кг	-10.2389
da	-10.2395
▁заснавальнік	-10.2397
91	-10.2397
▁тон	-10.2401
▁планеты	-10.2405
пал	-10.241
▁раёнаў	-10.2411
▁всегда	-10.2413
▁загадчык	-10.2414
ўскім	-10.2423
ржа	-10.2428
тычнага	-10.2429
▁калгас	-10.2431
▁напісаны	-10.2434
▁адчува	-10.244
ству	-10.244
▁эканомікі	-10.2442
▁канфлікт	-10.2442
▁жонкі	-10.2442
▁куб	-10.2444
▁вершы	-10.2447
▁компьютер	-10.2448
▁задач	-10.2454
▁ахвяр	-10.2454
▁далей	-10.2457
▁нашы	-10.2458
▁рост	-10.2464
▁пісаў	-10.2468
▁бег	-10.2472
нку	-10.2472
▁блок	-10.2472
▁жанр	-10.2477
▁грэчаска	-10.2478
ление	-10.2479
▁Франц	-10.2485
здоўж	-10.2486
рот	-10.2487
▁паверх	-10.2488
▁абрад	-10.2491
▁рукапіс	-10.2496
▁жонка	-10.2498
▁Уладзіміра	-10.2502
дне	-10.2505
▁жыву	-10.2509
▁кіраўніком	-10.251
▁барацьбы	-10.2513
зен	-10.2513
стая	-10.2513
эра	-10.2515
нскія	-10.2521
▁Леніна	-10.2521
▁рэйтынг	-10.2524
▁бур	-10.2528
ёў	-10.2533
сін	-10.2536
▁Апошні	-10.2537
дно	-10.254
▁традыцыі	-10.2542
▁адну	-10.2542
▁Поэтому	-10.2543
▁музыка	-10.2543
▁ўзбярэжжа	-10.2543
▁авія	-10.2544
▁Аўстраліі	-10.2549
▁Аўстрыі	-10.2549
чая	-10.2552
▁еру	-10.2553
▁нізін	-10.2554
▁мастака	-10.2559
▁хвілін	-10.256
ндэ	-10.2562
▁аль	-10.2565
▁адносяцца	-10.2572
▁звестк	-10.2573
▁газета	-10.258
▁гарадах	-10.2584
▁ком	-10.2587
▁дакладна	-10.2588
ni	-10.259
▁ответ	-10.2591
▁Пол	-10.2592
▁сустракаюцца	-10.2596
▁вместе	-10.2602
▁матч	-10.2606
фры	-10.2609
▁никогда	-10.2614
▁пары	-10.2618
▁Васіль	-10.2618
ладзі	-10.2619
▁патрэб	-10.2623
▁жылы	-10.2628
▁двума	-10.2631
▁нашей	-10.2631
▁дра	-10.2631
ция	-10.2633
▁Вол	-10.2636
▁Кал	-10.2637
вян	-10.2639
▁савета	-10.2641
▁120	-10.2642
еля	-10.2644
▁атрымаць	-10.2647
▁ўключае	-10.265
▁прыход	-10.2652
K	-10.2653
▁заліва	-10.2656
▁Це	-10.2657
▁спосаб	-10.2657
кса	-10.2657
саў	-10.266
нікамі	-10.2668
фармава	-10.2668
▁Пала	-10.2668
ніцкі	-10.2669
ур	-10.2673
несены	-10.2673
▁крыніц	-10.2674
▁пыта	-10.2674
▁зуб	-10.2678
▁От	-10.2684
нова	-10.269
▁будучы	-10.2692
▁забіў	-10.2692
аты	-10.2696
▁часть	-10.2696
▁Бор	-10.2702
кцыі	-10.2702
▁ўзроўню	-10.2703
руб	-10.2709
альным	-10.2714
▁Расія	-10.2717
▁працавала	-10.2719
▁ўзрос	-10.2721
суд	-10.2721
▁цяжкі	-10.2722
паль	-10.2723
io	-10.2726
пара	-10.2727
▁поля	-10.2728
▁стран	-10.2729
▁карыс	-10.2733
▁велічыні	-10.2734
▁трэці	-10.2736
ляецца	-10.2737
▁дыя	-10.2738
годы	-10.275
вуч	-10.275
▁ступень	-10.2752
▁Міжнародна	-10.2752
▁выхад	-10.2756
▁1951	-10.276
тным	-10.2761
▁сюжэт	-10.2764
▁Арменіі	-10.2764
коўскага	-10.2765
рослы	-10.2766
▁тэмпературы	-10.2767
нии	-10.2769
анне	-10.277
▁Лондан	-10.277
▁герцага	-10.277
▁павеце	-10.2771
іла	-10.2773
віз	-10.2775
▁імкну	-10.2775
▁будынку	-10.2776
воз	-10.2778
▁При	-10.2782
▁каждо	-10.2782
▁сацыяльны	-10.2783
▁ютар	-10.2783
дскі	-10.2786
▁баку	-10.2787
ис	-10.2788
▁дазволіл	-10.2796
▁Парыж	-10.2796
▁заснаваў	-10.2796
▁пажар	-10.2799
▁три	-10.2804
зор	-10.2812
рыка	-10.2812
ическо	-10.2812
сны	-10.2812
▁кіраўніка	-10.2819
соб	-10.282
рада	-10.2821
▁традыцыйны	-10.2832
глыб	-10.2833
▁Сен	-10.2839
▁месцаў	-10.2842
▁хор	-10.2844
▁руха	-10.2846
▁іншай	-10.2846
▁захаду	-10.2848
▁гісторыя	-10.2849
▁Папа	-10.2849
▁Крэ	-10.2853
▁згадваецц	-10.286
▁цёмна	-10.2862
▁спецыяльна	-10.2862
час	-10.2863
тныя	-10.2869
▁спаборніцтва	-10.2873
ёл	-10.2875
▁лепшы	-10.2875
ніцкага	-10.2885
мас	-10.2885
▁гон	-10.2885
▁экспедыцыі	-10.2887
▁глыбіня	-10.2887
усім	-10.289
вэ	-10.2891
▁мікра	-10.2893
▁француз	-10.2895
▁энергіі	-10.2898
бан	-10.2903
▁карцін	-10.2903
альныя	-10.2906
▁журналіст	-10.2906
▁замен	-10.2907
ання	-10.2911
os	-10.2914
▁Алі	-10.2914
▁Генрых	-10.2915
▁будынкаў	-10.2919
▁месяцаў	-10.2921
▁гармат	-10.2923
▁Все	-10.2924
дэль	-10.2928
▁Буд	-10.2929
▁рыба	-10.2932
▁ніжня	-10.2933
▁распрацоў	-10.2933
▁шырокі	-10.2935
шего	-10.2935
▁сабора	-10.2937
▁блізка	-10.2942
▁слоў	-10.2946
▁бяз	-10.2946
▁бога	-10.2949
ut	-10.2951
▁літаратурны	-10.2952
▁планет	-10.2954
▁Гру	-10.2957
рэч	-10.2958
▁гістарычны	-10.2961
▁летапіс	-10.2967
▁вода	-10.2973
▁краіна	-10.2975
▁лева	-10.2975
▁сучасны	-10.2976
▁імем	-10.298
▁Федэрацыі	-10.2985
▁будут	-10.2987
▁сустракае	-10.2993
▁Над	-10.2994
▁душ	-10.2995
▁музеі	-10.2997
▁культ	-10.2997
▁тэле	-10.2999
▁52	-10.3004
▁памер	-10.3004
▁берагаво	-10.3006
▁любы	-10.3007
кладзены	-10.3008
▁программ	-10.3009
▁Маскоўска	-10.3011
тных	-10.3012
▁дагавора	-10.3013
▁вытворчасць	-10.3014
▁San	-10.3014
▁конечно	-10.3016
▁яднаны	-10.3016
▁Фор	-10.3017
▁цара	-10.3021
▁структуры	-10.3023
▁роўны	-10.3025
таль	-10.3027
лкі	-10.3028
▁Помнік	-10.3029
om	-10.3033
▁Каўказ	-10.3035
▁адносін	-10.3037
▁прыроды	-10.304
▁пос	-10.304
▁Удзельнік	-10.3047
▁вяршын	-10.3047
lt	-10.3048
-4	-10.3051
▁Він	-10.3051
▁тар	-10.3061
▁&#124;	-10.3065
мат	-10.3067
віс	-10.3067
X	-10.3068
лёў	-10.3072
▁Арэ	-10.3072
рабіць	-10.3076
▁VII	-10.3077
▁патрабаванн	-10.3077
▁Уільям	-10.3078
▁аддзел	-10.3078
метр	-10.308
▁улад	-10.3081
еры	-10.3082
▁зараз	-10.3087
пуск	-10.3091
▁St	-10.3093
▁Крым	-10.3095
▁гары	-10.3097
▁1916	-10.3099
бель	-10.3106
▁сваімі	-10.311
берг	-10.3111
▁моцны	-10.3112
▁использовать	-10.3115
меры	-10.3117
▁трэ	-10.3117
ніс	-10.3118
▁тогда	-10.3122
▁матэрыял	-10.3123
▁муж	-10.3127
▁Сін	-10.3129
▁начал	-10.3131
▁Адна	-10.3135
оп	-10.3135
▁пахаваны	-10.3138
▁падзелу	-10.3138
йти	-10.3143
▁пачалас	-10.3147
▁адукацыю	-10.3147
▁артыкул	-10.3147
▁існаванне	-10.3147
▁суседні	-10.3148
▁захоп	-10.3148
▁гарадско	-10.3149
▁арыштаваны	-10.3149
▁Памёр	-10.3153
▁кантакт	-10.3154
▁город	-10.3156
▁Эд	-10.3157
▁паходжанне	-10.3158
▁беларуская	-10.3159
▁заня	-10.3162
▁суп	-10.3165
▁крытык	-10.3165
▁65	-10.3165
▁яднанне	-10.3169
нію	-10.3172
▁фе	-10.3172
▁каралеўска	-10.3172
цёр	-10.3175
туры	-10.3177
граф	-10.3184
▁собира	-10.3185
▁японскі	-10.3185
▁Толькі	-10.3189
▁Кру	-10.3195
▁падзел	-10.3196
ір	-10.3196
▁сядзіб	-10.3198
▁Re	-10.3205
▁кола	-10.321
▁фан	-10.3214
▁дырэктар	-10.3219
▁Германія	-10.3221
ir	-10.3222
▁01	-10.3222
тэк	-10.3228
▁49	-10.3228
▁пакіну	-10.3228
▁дазвол	-10.3234
▁выконва	-10.3234
▁ставі	-10.3236
леп	-10.3237
▁бакоў	-10.3238
▁Ma	-10.3241
▁трэця	-10.3241
▁кас	-10.3242
тов	-10.3247
воль	-10.3248
либо	-10.325
▁Мін	-10.3251
▁Прэзідэнта	-10.3254
гур	-10.3254
▁двары	-10.3256
▁1912	-10.3258
вать	-10.3258
▁шляху	-10.326
▁герцаг	-10.3263
▁крас	-10.3264
▁жылі	-10.3265
▁могілках	-10.3267
знаўства	-10.3267
тычна	-10.3269
йцаў	-10.327
▁Род	-10.3272
▁Мікалая	-10.3272
▁службы	-10.3278
оўны	-10.328
ьны	-10.3283
▁ўласна	-10.3286
▁узроўнем	-10.3286
▁варта	-10.3287
▁міністр	-10.3287
лінг	-10.3288
▁прывяло	-10.3288
▁выкарыстоўваюць	-10.3292
шчына	-10.3292
▁умова	-10.3293
вялі	-10.3295
▁гістарычных	-10.3297
йскіх	-10.33
▁Колькасць	-10.3305
▁спецыяльны	-10.3306
ter	-10.3306
▁Рэй	-10.331
▁ліст	-10.3311
▁самай	-10.3314
▁шасці	-10.3314
мысл	-10.332
▁Об	-10.3321
▁Тан	-10.3323
▁Буда	-10.3325
▁мець	-10.3329
▁уключаючы	-10.3331
Ёрк	-10.3332
▁эпі	-10.3342
▁51	-10.3344
▁ролі	-10.3344
▁Паў	-10.3346
▁56	-10.335
▁археалагічны	-10.3357
▁падобна	-10.3363
▁сынам	-10.3363
▁Дзяржаўны	-10.3363
▁погляд	-10.3364
▁зямель	-10.3365
яна	-10.3365
▁сил	-10.3366
▁брытанска	-10.3376
▁корпуса	-10.3377
▁1897	-10.3378
▁магістра	-10.3379
▁частак	-10.3379
▁камандзір	-10.3379
▁Парыжы	-10.338
▁Перад	-10.3384
▁лічы	-10.3384
▁матча	-10.3385
▁бераг	-10.3385
зар	-10.3386
▁пэўна	-10.3386
▁хутар	-10.3388
▁палітыкі	-10.3392
▁стал	-10.3395
форм	-10.3395
вога	-10.3396
енка	-10.3398
жскі	-10.3399
od	-10.34
▁такие	-10.34
▁мыш	-10.3401
служ	-10.3405
луч	-10.3408
▁Сяргей	-10.3408
▁ход	-10.341
▁Луі	-10.3411
▁бачы	-10.3411
co	-10.3417
рт	-10.3422
▁Сва	-10.3427
вілі	-10.343
вл	-10.343
▁вуліц	-10.3431
▁случае	-10.3434
▁аг	-10.3442
▁Адам	-10.3442
дня	-10.3444
▁элементы	-10.3445
▁мене	-10.3445
вад	-10.3447
▁Лічы	-10.345
▁магчымасц	-10.3453
ним	-10.3454
▁беларуск	-10.3456
▁абарон	-10.3457
▁ўлада	-10.3458
▁адсутнасц	-10.3458
▁него	-10.346
нскае	-10.3461
мера	-10.3461
▁кв	-10.3468
▁Аба	-10.3468
образ	-10.3471
▁праграмы	-10.3472
▁мост	-10.3477
▁выс	-10.3479
é	-10.3479
▁дасягае	-10.348
▁святар	-10.3481
▁прычына	-10.3485
▁фронце	-10.3486
▁Украіне	-10.3486
▁зала	-10.3488
казан	-10.3497
цыяна	-10.3497
план	-10.3497
▁Герб	-10.35
▁Гара	-10.3504
▁аховы	-10.3505
▁d	-10.3508
бера	-10.3512
▁Фінляндыі	-10.3512
▁суправаджа	-10.3512
дро	-10.3513
жэн	-10.3513
льд	-10.3515
▁элементаў	-10.352
шак	-10.3527
▁мало	-10.3528
▁захавалася	-10.3529
▁мільёнаў	-10.3532
▁працаваць	-10.3535
даць	-10.3538
ліс	-10.3539
▁Царква	-10.354
▁вучыў	-10.3541
▁Бэ	-10.3541
▁філасофіі	-10.3543
▁нягледзячы	-10.3544
▁біскуп	-10.3549
▁бакавы	-10.3551
лос	-10.3556
▁труб	-10.3556
вестак	-10.3558
шчык	-10.3559
ізму	-10.3561
▁базе	-10.3564
▁вежы	-10.3572
заходня	-10.3574
▁накіраваны	-10.3575
▁вещи	-10.3578
▁жыве	-10.3579
▁вынік	-10.3579
▁суда	-10.358
▁неда	-10.3581
me	-10.3583
▁доктар	-10.3586
кавых	-10.3588
кавы	-10.3589
▁аддзяленне	-10.3591
▁непа	-10.3592
▁J	-10.3594
раўн	-10.3594
▁ес	-10.3595
аваныя	-10.3596
▁Кен	-10.3597
▁потом	-10.3598
▁выдаў	-10.3598
ліз	-10.3602
шт	-10.3611
▁Дру	-10.3611
тыцы	-10.3612
▁часопіс	-10.3616
▁язык	-10.3616
▁зварот	-10.3619
дала	-10.3619
▁паўстанне	-10.3622
ата	-10.3623
▁загінулі	-10.3624
▁паста	-10.3626
іль	-10.3626
▁цен	-10.3627
▁падтрым	-10.3629
▁Аўстра	-10.363
▁фальклор	-10.363
▁пытанне	-10.3633
▁ААН	-10.3636
▁кантроль	-10.3637
льф	-10.3638
▁двор	-10.3639
▁камітэт	-10.3643
▁Кубка	-10.3644
▁1910	-10.3645
▁намеснікам	-10.3647
▁дачка	-10.3649
нная	-10.3649
▁Амерыцы	-10.365
▁Джордж	-10.365
▁распаўсюджана	-10.3657
▁лишь	-10.3657
▁груд	-10.366
„	-10.3663
▁Z	-10.3665
од	-10.3667
▁53	-10.3668
дал	-10.3668
▁здолеў	-10.367
▁палітычнай	-10.3671
ўцы	-10.3671
▁перамогу	-10.3673
▁гол	-10.3675
▁рэчыва	-10.3678
далі	-10.3681
▁мадэлі	-10.3682
рскай	-10.3683
ника	-10.3685
▁чырвоны	-10.3689
▁Неўзабав	-10.3696
▁бяс	-10.3697
▁удзельнічаў	-10.3697
▁выкарыстання	-10.3699
▁цэлым	-10.3703
дны	-10.3703
▁Палац	-10.3704
славі	-10.3706
▁дапамаг	-10.3709
▁прыём	-10.3709
▁Асноўна	-10.371
▁Спа	-10.3712
▁мер	-10.3715
▁часціц	-10.3716
▁выцягнутая	-10.3716
▁дысертацы	-10.3716
▁багаты	-10.3718
▁Вядомы	-10.3723
▁машын	-10.3724
хар	-10.3728
ила	-10.3732
цэнтр	-10.3734
▁лёс	-10.3735
няты	-10.3735
▁лепш	-10.374
▁Вен	-10.3741
▁Май	-10.3744
▁Берлін	-10.3747
▁асноўныя	-10.3747
весці	-10.375
нц	-10.3752
жана	-10.3752
▁Андрэй	-10.3752
лата	-10.3754
Ц	-10.3755
дор	-10.3757
▁клімат	-10.3764
▁прыводзі	-10.3764
▁прыватны	-10.3764
▁медыцынскі	-10.3765
▁склала	-10.3765
▁сферы	-10.3765
▁доме	-10.3768
▁вучы	-10.3768
▁эліптычна	-10.377
▁змяшчае	-10.377
▁удзельнік	-10.3772
лера	-10.3775
▁чырвона	-10.3777
▁рэдактар	-10.3782
▁драўляна	-10.3786
▁ўваход	-10.3788
▁геа	-10.379
чно	-10.3793
▁праблемы	-10.3793
▁мета	-10.3794
руж	-10.3795
зякуючы	-10.3797
Ма	-10.3797
▁тот	-10.3803
▁зап	-10.3805
вана	-10.381
▁яўлялася	-10.381
▁Дынама	-10.381
ніз	-10.3811
▁адлегласці	-10.3813
▁Баб	-10.3813
рысты	-10.3814
▁беларусаў	-10.3814
тычным	-10.3817
▁прэзідэнтам	-10.3821
ga	-10.3821
пен	-10.3824
ністы	-10.3825
▁Антоні	-10.383
▁абвешчана	-10.383
▁Бель	-10.3836
▁Турцыі	-10.3837
▁Масква	-10.3837
чнік	-10.3841
вид	-10.3841
▁сельскі	-10.3841
▁перамогі	-10.3842
талі	-10.3844
ир	-10.3851
▁электрон	-10.3853
пусці	-10.3853
▁справе	-10.3855
▁Пачынаецца	-10.3864
▁Філіп	-10.3867
▁слаба	-10.3867
ило	-10.3868
нный	-10.3873
▁артыст	-10.3873
▁надпіс	-10.3878
▁стварэнні	-10.388
▁памеры	-10.3881
▁складу	-10.3882
▁царства	-10.3885
▁музычны	-10.3885
▁Русі	-10.3886
▁кляштар	-10.3887
▁0,5	-10.3894
▁Дар	-10.3898
▁прысутніча	-10.3905
бэ	-10.3912
▁пасла	-10.3915
▁савецкай	-10.3919
вест	-10.3919
▁урад	-10.392
сар	-10.3924
▁генерала	-10.393
▁рэшткі	-10.393
шты	-10.3931
▁1990-	-10.394
фан	-10.3941
▁пасадзе	-10.3946
▁прывял	-10.3946
▁Кала	-10.3951
льня	-10.3952
▁сродкі	-10.3959
▁ўласны	-10.3965
дары	-10.3966
▁лідар	-10.3967
▁Ісуса	-10.3967
▁Каза	-10.3969
фар	-10.3972
тварэнне	-10.3973
▁Малы	-10.3974
▁Свято	-10.3975
ении	-10.3976
▁ўзнагарод	-10.3978
▁Яўген	-10.398
▁канстытуцы	-10.3981
ских	-10.3982
цкае	-10.3986
▁разнастайны	-10.3986
▁работу	-10.3987
▁штаб	-10.3987
пат	-10.3991
кле	-10.3992
▁маёнтк	-10.3995
▁плям	-10.4005
▁італьянска	-10.4009
▁дапамогу	-10.401
чыны	-10.4012
▁супер	-10.4012
▁Кон	-10.4014
алогія	-10.4015
рады	-10.4023
▁Ана	-10.403
▁круг	-10.4032
▁уплывам	-10.4035
▁говорил	-10.4035
▁Схіл	-10.4035
вания	-10.4037
ce	-10.4038
▁называе	-10.404
▁Рака	-10.4041
▁Эстоніі	-10.4041
▁прадстаўлена	-10.4041
кол	-10.4044
▁кро	-10.4048
▁партызан	-10.4056
йныя	-10.4058
жываецца	-10.4059
▁ара	-10.4063
тычная	-10.4067
▁устаноў	-10.4074
авічы	-10.4076
анта	-10.4077
▁губерня	-10.4079
▁Інстытута	-10.4081
▁Іосіф	-10.4083
тэрытарыяльна	-10.4083
▁выключна	-10.4083
еще	-10.4088
мяні	-10.4088
▁прапанов	-10.409
▁каз	-10.4091
авік	-10.4091
гне	-10.4091
▁мара	-10.4092
▁захаваў	-10.4098
▁Вяр	-10.41
▁ордэн	-10.4102
лец	-10.4104
аўскі	-10.4105
лыя	-10.4105
▁пабудовы	-10.4116
▁Хрыста	-10.4117
лез	-10.412
▁наших	-10.4121
▁друкава	-10.4121
▁Савет	-10.4121
▁адрозніва	-10.4124
£	-10.4124
вес	-10.4127
дна	-10.4134
ваючы	-10.4136
▁святла	-10.4137
стат	-10.4143
крыта	-10.4145
Е	-10.4146
ура	-10.4148
▁адносінах	-10.4148
чёт	-10.4153
▁сред	-10.4153
▁бяспекі	-10.4153
▁хрысціян	-10.4159
▁проблем	-10.4161
алагічны	-10.4162
▁мяч	-10.4168
▁Новая	-10.4168
шая	-10.417
ніц	-10.417
▁ничего	-10.4173
▁Маль	-10.4178
▁раку	-10.4184
нья	-10.4184
▁заявіў	-10.4184
шана	-10.4186
▁капітан	-10.4187
▁истории	-10.4188
бой	-10.4188
пісаць	-10.4193
ика	-10.4196
Пецярбург	-10.4196
▁ўладу	-10.4198
▁Мер	-10.4199
▁він	-10.4201
▁Віцебскі	-10.4206
▁мор	-10.4207
▁1908	-10.421
сел	-10.4211
▁немного	-10.4216
▁рускіх	-10.4217
▁вес	-10.4223
▁кла	-10.4223
зілі	-10.4225
шаў	-10.4226
▁ініцыятыв	-10.4229
вали	-10.423
▁1863	-10.4232
▁Сталін	-10.4233
▁загінуў	-10.4236
▁1907	-10.4238
▁духоўна	-10.424
▁Яе	-10.424
▁акупацы	-10.4241
ведзены	-10.4242
▁прав	-10.4242
▁США	-10.4243
▁сек	-10.4243
▁Эй	-10.4245
▁графа	-10.4249
▁настаўнік	-10.4255
▁лацінска	-10.4255
▁Хан	-10.4256
▁іслам	-10.4258
▁ал	-10.426
▁адрас	-10.4261
▁камісіі	-10.4261
▁пераможца	-10.4264
▁возер	-10.4273
сэ	-10.4276
▁последни	-10.4278
▁кнігу	-10.4281
▁эфект	-10.4283
тэль	-10.429
▁Цар	-10.4291
▁хо	-10.4292
▁место	-10.4293
▁грунт	-10.4294
▁правядзення	-10.4294
▁сцяга	-10.4295
▁акруг	-10.4297
леныя	-10.4297
▁Прэм	-10.4299
▁канец	-10.4303
▁парку	-10.4303
▁бітвы	-10.4303
▁Чарн	-10.4304
▁каш	-10.4308
▁хрысціянства	-10.4309
асці	-10.4313
▁стралкова	-10.4313
шую	-10.4314
▁Марка	-10.4315
▁Тэрыторыя	-10.432
▁говорит	-10.4323
▁затем	-10.4323
льда	-10.4324
віт	-10.4331
ca	-10.4338
▁кары	-10.4339
ант	-10.434
▁Вучыў	-10.4342
чнымі	-10.4342
▁тай	-10.4343
гін	-10.4344
▁Красна	-10.4344
заваны	-10.4345
тель	-10.4346
▁Камен	-10.4351
▁іншае	-10.4352
▁ўваходзяць	-10.4353
▁Два	-10.4356
▁выратава	-10.4358
моўны	-10.4359
▁экс	-10.436
▁Еўрапейска	-10.4361
падобна	-10.4362
▁Афрыкі	-10.4363
дру	-10.4367
▁лікам	-10.437
▁плана	-10.4371
▁Рыме	-10.4373
▁Антон	-10.4374
▁св	-10.4374
ваты	-10.4374
▁князёў	-10.4377
▁2,5	-10.438
электр	-10.438
▁выдатны	-10.4381
-3	-10.4382
тызм	-10.4386
ічныя	-10.4391
▁крыж	-10.4393
▁ўсю	-10.4394
▁мастакоў	-10.4396
▁План	-10.4399
пуст	-10.4403
▁хорошо	-10.4406
▁магіл	-10.4406
▁форм	-10.4409
▁помніка	-10.4409
лагічны	-10.441
▁прычым	-10.4411
▁Мало	-10.4413
▁лад	-10.4414
ka	-10.4416
▁гэту	-10.4417
▁палітыка	-10.442
­	-10.442
▁малодшы	-10.442
▁графства	-10.4424
▁прама	-10.4425
▁Звычайна	-10.4427
▁ніколі	-10.4434
▁нахіл	-10.4442
▁1906	-10.4444
▁мира	-10.4446
▁Ганна	-10.4446
▁600	-10.4447
▁сілу	-10.4452
▁страты	-10.4459
ci	-10.4462
мента	-10.4464
▁падтрымку	-10.4464
▁флот	-10.4464
▁пач	-10.4469
▁Теперь	-10.447
▁ярус	-10.4476
▁маршрут	-10.4477
лета	-10.448
▁Крас	-10.4481
op	-10.4482
▁адмові	-10.4483
▁атрымання	-10.4484
▁неабходна	-10.4485
▁парламента	-10.4486
▁Дан	-10.4486
▁чэмпіён	-10.4487
do	-10.4487
▁поз	-10.449
вагі	-10.449
▁Барыс	-10.449
▁Джо	-10.4492
▁Бог	-10.4497
казаць	-10.45
▁пытанні	-10.4501
▁1909	-10.4503
пэўн	-10.4505
▁кампактна	-10.4511
спо	-10.4512
ыва	-10.4514
▁Гран	-10.4515
▁наступна	-10.4516
нты	-10.4516
▁распаўсюджва	-10.4519
▁Першым	-10.4519
▁закона	-10.4523
▁вызначае	-10.4525
▁матэрыялаў	-10.4528
▁рэльеф	-10.4528
кты	-10.4528
▁пераехаў	-10.4528
круж	-10.4528
цвер	-10.4529
▁напад	-10.4529
фарм	-10.453
▁залаты	-10.453
▁выстав	-10.4531
ости	-10.4532
ічных	-10.4533
▁Мат	-10.4537
рг	-10.4537
▁шырынё	-10.4542
▁рашэння	-10.4544
▁стадыён	-10.4546
▁каталіцкі	-10.4547
▁Al	-10.4548
▁занима	-10.4549
▁Куб	-10.4551
▁1911	-10.4553
▁Латвіі	-10.4556
▁РСФСР	-10.4556
▁лізе	-10.4559
▁падзелены	-10.4559
▁напісана	-10.4563
▁XI	-10.4563
▁нізка	-10.4565
▁ворага	-10.4565
вымі	-10.4566
нства	-10.4567
▁Li	-10.4567
pe	-10.457
▁дзеянне	-10.4571
▁бібліятэ	-10.458
▁выпуск	-10.4581
сіць	-10.4582
▁аэрапорт	-10.4586
▁партрэт	-10.4588
жска	-10.4592
▁міністра	-10.4594
▁понять	-10.4597
▁Сто	-10.4603
▁1913	-10.4604
ления	-10.461
▁продаж	-10.4611
▁надзвычай	-10.4616
перы	-10.4617
▁працавалі	-10.462
▁газа	-10.4622
▁места	-10.4623
▁германскі	-10.4624
ологи	-10.4626
вести	-10.4627
▁прысуд	-10.4628
▁Існу	-10.4628
▁Найбольша	-10.4632
▁гурта	-10.4635
▁ўвайшл	-10.4639
маг	-10.4639
▁спадчыну	-10.4639
▁Даніі	-10.464
▁каменны	-10.4642
жка	-10.4647
▁таких	-10.4648
▁женщин	-10.4649
алагічна	-10.4649
▁Цяпер	-10.465
▁Афрыцы	-10.4651
веда	-10.4652
▁трэнер	-10.4652
онны	-10.4657
▁Літоўска	-10.4658
▁яўрэйска	-10.4659
скоп	-10.4662
наму	-10.4663
▁віцэ	-10.4667
слав	-10.4667
▁около	-10.4673
▁далейшым	-10.468
▁дэбютаваў	-10.4681
▁Полацка	-10.4681
незі	-10.4685
▁Музей	-10.4689
▁начальнік	-10.4691
▁апарат	-10.4691
ленд	-10.4693
▁акруга	-10.4693
▁афіцэр	-10.4695
▁маёнтак	-10.4695
▁сярэдні	-10.4695
▁рэжым	-10.4696
рыян	-10.4697
▁ледавік	-10.4699
▁тэхнічны	-10.4701
▁хімічны	-10.4701
▁паўночнага	-10.4703
при	-10.4708
▁фігур	-10.4711
енно	-10.4715
▁асоба	-10.4715
▁паэта	-10.4719
▁Кітая	-10.4721
фін	-10.4722
▁Рыма	-10.4724
▁таким	-10.4724
▁радзей	-10.4726
шан	-10.4732
▁сайт	-10.4733
▁Ch	-10.4734
▁англійска	-10.4734
▁гала	-10.4737
▁міф	-10.4738
▁Касцёл	-10.474
▁Генрыха	-10.4741
▁64	-10.4744
▁лясы	-10.4746
▁сход	-10.4747
▁прапанаваў	-10.4754
▁ядноўва	-10.4754
фо	-10.4755
ac	-10.4761
▁ўдалося	-10.4761
▁змяня	-10.4762
▁Паўднёвы	-10.4763
▁гандлю	-10.4769
▁лаўрэат	-10.4776
бек	-10.478
▁размеркава	-10.478
▁левым	-10.4782
▁стол	-10.4784
▁складаны	-10.4786
ічнай	-10.4787
▁сетка	-10.4789
▁крыніцы	-10.4792
▁вызначы	-10.4794
▁6-	-10.4797
▁стану	-10.4797
цяж	-10.4797
▁Трэ	-10.4805
▁мовай	-10.4809
▁Де	-10.4811
аўка	-10.4815
▁знаем	-10.4821
еўскага	-10.4822
лот	-10.4823
стар	-10.4824
павярховы	-10.4826
▁Вялік	-10.4827
▁галіна	-10.4829
▁натуральны	-10.4829
ывает	-10.4831
▁палос	-10.4831
гр	-10.4836
мед	-10.4836
нуть	-10.4837
▁250	-10.4837
ркі	-10.4837
▁всем	-10.4838
ўсходня	-10.4842
дзел	-10.4845
▁млрд	-10.4851
▁паэзіі	-10.4851
▁горадам	-10.4851
зм	-10.4852
▁фізічна	-10.4859
сава	-10.4861
▁проблема	-10.4861
▁Sc	-10.4863
▁Каралеўства	-10.4864
▁фл	-10.4866
селен	-10.4871
▁паўвострава	-10.4873
▁сустрака	-10.4875
▁вагон	-10.4876
▁моманту	-10.4877
▁іграком	-10.488
▁парафі	-10.4885
Ч	-10.4887
нен	-10.4887
▁знаете	-10.4888
▁рання	-10.4892
ндзі	-10.4899
▁In	-10.4899
нічны	-10.4901
ились	-10.4901
▁Пру	-10.4902
▁астэроід	-10.491
▁Востраў	-10.491
▁дрэў	-10.4911
▁Святы	-10.4912
▁Дыя	-10.4914
▁эк	-10.4917
▁уяўляе	-10.4918
маглі	-10.492
▁ўвайшлі	-10.4922
▁разуме	-10.4927
▁высокім	-10.4927
▁назваў	-10.4928
▁амерыканска	-10.4929
▁дэпутат	-10.493
▁выкарыстанне	-10.4934
▁Рай	-10.4934
дадзены	-10.4935
▁турм	-10.4936
▁татар	-10.4937
▁жанчына	-10.4938
дапамозе	-10.494
▁справы	-10.4942
рва	-10.4946
▁стая	-10.4947
▁прыродны	-10.4949
▁дахам	-10.4949
▁словы	-10.495
▁зоны	-10.4952
▁ново	-10.4953
▁Бацька	-10.4954
▁вырашыў	-10.4956
ve	-10.4957
▁прызёр	-10.4957
кта	-10.4964
▁Ген	-10.4965
нск	-10.497
▁Верхня	-10.4971
▁прынялі	-10.4972
▁Ары	-10.4973
▁мозга	-10.4973
ился	-10.4978
▁ляса	-10.4979
▁выкананы	-10.498
бліз	-10.4981
▁версія	-10.4981
агу	-10.4982
▁асяроддзя	-10.4985
▁правадыр	-10.4985
▁добры	-10.4987
кас	-10.4988
▁рэформ	-10.4993
▁баб	-10.4994
вин	-10.4995
▁кіно	-10.4998
▁трон	-10.5002
▁праграма	-10.5003
▁оно	-10.5005
▁атрымлівае	-10.5008
▁прызнача	-10.5009
▁одной	-10.5011
льнікаў	-10.5011
▁дзесяцігоддз	-10.5014
▁прастол	-10.5014
▁зале	-10.5015
▁абласцей	-10.5016
▁нараджэння	-10.5017
▁стылю	-10.5017
▁Герой	-10.5023
▁раўна	-10.5023
▁Вас	-10.5024
▁Украіна	-10.5025
▁пят	-10.5028
▁Мае	-10.5028
▁даследавання	-10.5034
▁Масквы	-10.5039
▁навуча	-10.5043
▁пісьменнікаў	-10.5046
▁фла	-10.5048
нічы	-10.5048
▁будуць	-10.5057
▁факультэта	-10.5058
▁57	-10.5059
▁Вене	-10.5059
білі	-10.5059
▁футболе	-10.5065
▁выключэнне	-10.5066
▁існуюць	-10.507
▁1930-	-10.5072
манд	-10.5084
тык	-10.5084
чар	-10.5086
▁другие	-10.5093
▁Аг	-10.5093
▁Гарад	-10.5094
віча	-10.5094
▁перакладзе	-10.5094
оўкі	-10.5096
▁мясцовасці	-10.5098
▁54	-10.5106
▁парушэнн	-10.511
▁Канстанцін	-10.5112
ent	-10.5115
ист	-10.5116
▁смерц	-10.5116
слава	-10.5116
▁межы	-10.5117
лым	-10.5117
нных	-10.5122
▁інстытуце	-10.5123
віла	-10.5124
енавіта	-10.5125
▁выйграў	-10.5126
▁праведзены	-10.5127
▁открыт	-10.5128
▁выступае	-10.5129
▁ваенныя	-10.5132
▁ЮНЕСКА	-10.5138
▁абласно	-10.5139
калі	-10.5141
▁зорак	-10.5146
таваны	-10.5148
▁Цэнтральны	-10.515
▁далучыў	-10.5152
лярна	-10.5153
▁Анта	-10.5153
▁знакаміты	-10.5154
▁бітва	-10.5158
▁сусветна	-10.516
▁гульнях	-10.5161
▁ужыва	-10.5161
коль	-10.517
вол	-10.517
▁одно	-10.5172
ge	-10.5172
▁яўрэяў	-10.5177
▁IX	-10.518
аны	-10.5184
▁Вышэйша	-10.5185
▁дыс	-10.5186
▁расход	-10.5186
дана	-10.5191
▁Станіслава	-10.5192
▁вадасховішча	-10.5192
▁Нар	-10.5192
▁важн	-10.5194
маты	-10.5195
▁манастыра	-10.5198
льнікі	-10.5198
▁VIII	-10.5206
бег	-10.5207
▁чего	-10.5208
ств	-10.5208
▁адлюстрава	-10.5209
▁n	-10.5209
ўня	-10.5211
▁валас	-10.5212
▁перададзены	-10.5212
▁поэтому	-10.5215
U	-10.5215
▁Цэ	-10.5217
▁Іх	-10.5217
▁футбольны	-10.5218
▁арышт	-10.5222
▁сярэднім	-10.5222
▁секунд	-10.5223
▁1904	-10.5226
▁спін	-10.5229
▁страх	-10.5233
дак	-10.5233
▁сігнал	-10.5235
va	-10.5235
no	-10.5236
ряд	-10.5236
▁спыні	-10.5238
▁отношени	-10.5238
▁старшынёй	-10.5239
іны	-10.5242
▁папулярны	-10.5244
▁ху	-10.5246
сут	-10.5246
▁парт	-10.5247
▁свабодна	-10.5251
▁літаратура	-10.5252
▁органа	-10.5254
▁вярхоў	-10.5254
▁магчымы	-10.5254
▁природ	-10.5254
ваны	-10.5255
▁лета	-10.5255
▁58	-10.5262
▁спектр	-10.5264
▁дачко	-10.5269
▁рыцар	-10.5271
▁Ігар	-10.5273
▁кіраўнікоў	-10.5274
рман	-10.5276
▁рэлігійна	-10.5282
▁моры	-10.5282
кавічы	-10.5283
▁славян	-10.5285
▁Польска	-10.5285
▁каледж	-10.5286
ізацыі	-10.5287
новіч	-10.5287
ha	-10.5288
▁заяв	-10.5291
нуць	-10.5291
▁школ	-10.5298
▁оперы	-10.5298
▁фарм	-10.5303
гран	-10.5309
коп	-10.5309
▁верш	-10.5309
▁тысячагоддзя	-10.5313
▁части	-10.5313
▁маёнтка	-10.5314
▁Народны	-10.5315
▁ткан	-10.5317
▁галіны	-10.5319
▁выданне	-10.532
▁Ор	-10.5323
▁грэчаскі	-10.5324
▁Асманска	-10.5325
▁Права	-10.5326
▁Эль	-10.5329
ўкі	-10.5331
рынг	-10.5331
рс	-10.5333
▁дамоў	-10.5333
▁1900	-10.5334
▁долларов	-10.5335
▁Мац	-10.5336
енне	-10.534
▁абмен	-10.534
кап	-10.5345
інскі	-10.5346
фи	-10.5349
▁крыла	-10.5351
▁Віль	-10.5351
ский	-10.5352
▁зброі	-10.5358
▁царкв	-10.5358
ніт	-10.5359
▁навуковай	-10.5359
▁Астра	-10.5363
кала	-10.5367
▁набор	-10.5368
▁правоў	-10.537
▁бл	-10.5373
ностью	-10.5379
▁песень	-10.5381
▁Магілёўска	-10.5384
▁хвалі	-10.5387
▁выдадзены	-10.5393
▁мусульман	-10.5394
▁асабісты	-10.5397
▁ему	-10.5398
▁адкрыў	-10.54
▁рэдкі	-10.5402
▁Іерусалім	-10.5403
▁фрагмент	-10.5403
▁дзіцячы	-10.5405
▁прымаў	-10.5406
▁голов	-10.5407
вёр	-10.541
рост	-10.5411
▁навучання	-10.5414
ковіч	-10.5415
▁жаноча	-10.5419
▁дыялект	-10.5419
▁Рос	-10.542
▁гэтак	-10.5423
de	-10.5424
▁пунктам	-10.5424
▁нацыянальн	-10.5424
ковы	-10.5425
▁вала	-10.5428
▁Закон	-10.5428
вік	-10.5432
▁двойчы	-10.5434
▁роля	-10.5434
▁помощью	-10.5435
▁другое	-10.5436
рны	-10.5439
ід	-10.5439
▁Заслужаны	-10.5442
▁кал	-10.5443
▁прайшоў	-10.545
▁прадстаўля	-10.5451
▁сведчы	-10.5451
нішча	-10.5453
▁звана	-10.5454
логіі	-10.5454
▁бен	-10.5457
mo	-10.5464
▁апостал	-10.5467
▁ўзор	-10.5467
▁сувязь	-10.5469
▁светла	-10.5471
ica	-10.5472
▁эсперанта	-10.5474
▁снова	-10.5476
▁Дзева	-10.548
▁Одна	-10.5481
▁Многія	-10.5482
▁горы	-10.5483
НК	-10.5484
▁фізіка	-10.5485
столько	-10.5486
▁екты	-10.5489
▁возможность	-10.5491
▁уласна	-10.5492
▁пісьмовы	-10.5494
▁0,1	-10.5496
▁друку	-10.5498
▁емонт	-10.5498
цк	-10.5507
▁ваеннага	-10.5508
▁дадатковы	-10.5512
▁Гісторыя	-10.5514
▁арганізатар	-10.5514
▁сыноў	-10.5518
▁паказвае	-10.5518
▁Каль	-10.5518
▁тэорыя	-10.5518
▁апублікаваны	-10.5519
лісты	-10.5522
міністра	-10.5524
нса	-10.5526
нем	-10.5527
▁царкоўна	-10.5529
▁Вядома	-10.553
▁Ката	-10.5531
міністр	-10.5531
▁идея	-10.5532
▁Дз	-10.5536
▁проблемы	-10.5537
фікс	-10.5537
▁пакіда	-10.5538
▁месцам	-10.5545
▁двара	-10.5547
шо	-10.5547
em	-10.5556
▁тэрыторый	-10.5562
▁арганізаваны	-10.5567
▁міру	-10.557
графічны	-10.557
▁пачаткам	-10.5576
▁прыняцц	-10.5579
глі	-10.558
▁невялікі	-10.5582
▁грэка	-10.5585
▁педагог	-10.5586
▁Італія	-10.5586
-18	-10.5589
ry	-10.559
ot	-10.559
▁помнікаў	-10.5592
▁h	-10.5592
▁палітык	-10.5593
▁прысвоена	-10.5594
▁колькасц	-10.5597
▁вершаў	-10.5598
шні	-10.56
стру	-10.5601
▁золата	-10.5602
▁найти	-10.5602
вальны	-10.5604
▁фр	-10.5608
▁вялі	-10.5609
▁меч	-10.5614
▁две	-10.5616
▁выкарыстоўваць	-10.5617
▁Герман	-10.5619
бру	-10.5619
▁студэнтаў	-10.5619
▁веры	-10.5621
▁Тады	-10.5621
▁вывуча	-10.5622
▁іспанска	-10.5623
▁выбараў	-10.5624
▁Чэхіі	-10.5626
рэнц	-10.5626
▁братам	-10.5628
▁складалі	-10.5629
▁Бога	-10.5629
▁сёння	-10.5634
▁Суд	-10.5635
▁адзіным	-10.5637
▁Ніка	-10.5638
▁печ	-10.5641
▁создать	-10.5642
▁Нарвегіі	-10.5642
чаў	-10.5645
сад	-10.5647
▁Сярэдняя	-10.5648
▁Анты	-10.565
▁Сту	-10.5651
дума	-10.5652
▁штогод	-10.5652
тно	-10.5653
▁Бага	-10.5655
шлі	-10.5658
▁рэспубліка	-10.5658
▁Савецкай	-10.5659
▁дасягну	-10.5661
▁пачынаючы	-10.5662
▁Франк	-10.5663
кру	-10.5666
▁алфавіт	-10.5666
ющий	-10.5667
пта	-10.5669
дзіна	-10.567
▁мірны	-10.5671
▁узнагароджаны	-10.5675
▁такая	-10.5677
▁супрацоўнік	-10.5679
рыв	-10.5682
▁Гала	-10.5684
біт	-10.5684
каўскі	-10.5685
▁бел	-10.5686
зма	-10.5688
▁прамысловы	-10.5691
тся	-10.5693
▁сустрэ	-10.5695
▁Хоць	-10.5696
▁савет	-10.57
піра	-10.57
▁Ar	-10.5703
▁прэмі	-10.5705
сцяў	-10.5705
▁члены	-10.5706
пля	-10.5707
▁забойства	-10.5709
▁зона	-10.5711
▁1980-	-10.5713
▁пацярпел	-10.5715
▁Пахаваны	-10.5715
▁Фо	-10.5715
▁выклікала	-10.5715
▁нафта	-10.5718
равана	-10.572
цце	-10.5722
▁ажаніў	-10.5722
▁працягваў	-10.5723
оф	-10.5723
▁хво	-10.5725
рыт	-10.5728
тараў	-10.573
▁паўнамоцтв	-10.5731
▁іспанскі	-10.5733
лавы	-10.5734
▁адміністрацыі	-10.5735
▁рэжысёр	-10.5736
нстру	-10.5736
ікі	-10.5738
ard	-10.5738
▁сойм	-10.5742
▁усход	-10.5742
▁выкарыстоўваў	-10.5743
▁кнізе	-10.5748
▁Вялікабрытанія	-10.5752
зава	-10.5753
▁Ваенна	-10.5757
▁La	-10.5759
▁Мікалаевіч	-10.5764
▁працяка	-10.5765
▁Другі	-10.5768
▁жывапіс	-10.5771
▁мадэль	-10.5771
▁Такі	-10.5772
▁Джэймс	-10.5772
▁праблема	-10.5774
сныя	-10.578
▁Ужо	-10.5781
▁Фер	-10.5783
скімі	-10.5784
▁центр	-10.5787
▁еж	-10.5787
▁рода	-10.5788
▁Рада	-10.5789
▁ўтвараю	-10.5791
грама	-10.5798
▁шэсць	-10.5798
▁паранены	-10.5798
▁шкод	-10.58
▁Роберт	-10.5801
▁фу	-10.5801
дуць	-10.5806
ится	-10.5807
лька	-10.5813
▁фасада	-10.5815
▁гандл	-10.5815
▁An	-10.5819
▁ўнутрана	-10.5821
гары	-10.5821
▁зоркі	-10.5822
ill	-10.5828
▁сапраўдны	-10.5828
вей	-10.5829
▁прыкмет	-10.5829
спы	-10.583
▁тому	-10.5836
▁Рэспубліцы	-10.5838
тын	-10.5838
▁карон	-10.5843
версе	-10.5843
▁61	-10.5845
▁міфалогіі	-10.5846
▁ведаў	-10.5848
▁Асноўны	-10.5849
▁заключа	-10.585
сек	-10.5852
▁фота	-10.5855
нера	-10.5858
▁штаба	-10.5859
▁Кро	-10.5865
тавы	-10.5865
▁басейна	-10.5866
▁узнагарод	-10.587
▁характэрна	-10.5871
▁хутчэй	-10.5871
▁спалучэнн	-10.5871
▁ізноў	-10.5871
▁игр	-10.5871
▁образ	-10.5871
одзяцца	-10.5873
▁адрозніваюцца	-10.5875
▁навучальны	-10.5877
▁Мір	-10.588
цава	-10.5882
Казахстанска	-10.5884
▁экран	-10.5886
▁Потому	-10.5886
ик	-10.5888
▁обо	-10.5888
▁Афін	-10.5889
мара	-10.5889
▁Шмат	-10.5898
▁абодва	-10.59
▁моладзев	-10.5902
▁крэпасці	-10.5904
▁кампазітар	-10.5904
шэнне	-10.5906
▁адкрыццё	-10.5907
кус	-10.5908
▁перво	-10.5911
▁которым	-10.5913
нее	-10.5919
▁замуж	-10.5921
▁архітэктара	-10.5922
▁вызвалення	-10.5922
▁эры	-10.5923
▁дыстанцы	-10.5925
▁рот	-10.5925
аўскай	-10.5933
▁хар	-10.5938
▁рысы	-10.5938
▁паказ	-10.594
лова	-10.5943
ходзіў	-10.5946
▁групу	-10.5947
▁стать	-10.5949
▁пашыраны	-10.5951
▁Фры	-10.5951
▁сан	-10.5953
ясь	-10.5955
ража	-10.5956
▁паслядоўна	-10.5956
▁доказ	-10.5956
▁0,2	-10.5958
▁Фрыдрых	-10.5959
нуў	-10.5961
▁заклік	-10.5961
леў	-10.5961
▁прыблізна	-10.5962
сколько	-10.5963
▁аперацый	-10.5966
верс	-10.5967
руш	-10.5971
▁мужчин	-10.5971
юю	-10.5974
▁масава	-10.5975
▁движени	-10.5979
▁маладо	-10.598
▁араб	-10.598
кары	-10.5981
▁Самы	-10.5981
▁прызнаны	-10.5982
▁Ван	-10.5987
▁армян	-10.5988
цка	-10.5989
йте	-10.599
▁62	-10.5997
▁Ск	-10.5999
здзе	-10.6002
▁выбары	-10.6006
▁самое	-10.6006
▁необходимо	-10.6006
▁размер	-10.6007
▁палёт	-10.6008
▁Героя	-10.6013
▁Гл	-10.6017
данне	-10.6018
▁Прэзідыума	-10.6023
▁схем	-10.6026
▁e	-10.6026
▁сапраўдна	-10.6029
стам	-10.603
▁Ап	-10.6032
▁мал	-10.6033
▁скульптар	-10.6037
▁паўднёвага	-10.6039
пред	-10.6044
онаў	-10.6045
▁пункты	-10.6045
▁Дняпро	-10.6046
▁здароўя	-10.6046
бал	-10.6052
▁памерла	-10.6055
▁Сіл	-10.6056
▁дело	-10.6057
▁артыкулаў	-10.6058
▁расп	-10.6058
кен	-10.6059
-5	-10.606
шэн	-10.6062
▁пабліз	-10.6063
нной	-10.6063
жэння	-10.6065
▁De	-10.6073
▁Фла	-10.6075
▁Міжнародны	-10.6079
▁канцэпцы	-10.6079
▁скур	-10.608
оні	-10.608
▁Універсітэт	-10.608
авога	-10.6082
▁будава	-10.6084
▁глыбока	-10.6088
▁паражэнне	-10.6089
▁пасту	-10.609
▁Мал	-10.6095
філ	-10.6097
стью	-10.6097
▁склікання	-10.6099
po	-10.6105
▁народнага	-10.6107
▁Кале	-10.6109
рная	-10.6112
ивает	-10.6113
▁прамо	-10.6114
▁72	-10.6114
▁пісьменніка	-10.6122
▁тавары	-10.6125
гн	-10.6127
дум	-10.6127
авымі	-10.6128
▁апа	-10.613
льніка	-10.6131
рта	-10.6134
▁Прэзідэнт	-10.6139
▁ракет	-10.6143
яне	-10.6144
овак	-10.6147
доб	-10.6148
▁багата	-10.6149
▁гульня	-10.615
▁Тал	-10.6152
▁существ	-10.6152
жно	-10.6153
▁Петр	-10.6154
▁ўмовах	-10.6156
▁Сала	-10.6157
тынг	-10.6159
▁удар	-10.616
лаг	-10.6161
▁завершаны	-10.6164
▁Клімат	-10.617
▁снукер	-10.617
▁Дзвін	-10.6171
жда	-10.6172
▁абодвух	-10.6173
ском	-10.6176
▁Кіеўска	-10.6177
▁1864	-10.6177
sa	-10.6177
ападобна	-10.6179
▁адбыліс	-10.6181
▁тэатры	-10.6182
▁суме	-10.6184
▁карціны	-10.6186
▁абвясціл	-10.619
ирует	-10.6191
▁зносін	-10.6192
▁значит	-10.6193
▁Порт	-10.6198
▁жывапісу	-10.6198
▁відэа	-10.6199
топ	-10.62
▁Юрый	-10.62
кладзена	-10.6201
▁гэтую	-10.6203
▁фізікі	-10.6205
фект	-10.6205
▁Будынак	-10.6207
▁місі	-10.6208
▁рэйтынгавы	-10.6208
▁беларус	-10.621
▁Віцебск	-10.6212
▁войск	-10.6212
▁Берагі	-10.6213
▁асновы	-10.6215
▁завяршэнн	-10.6215
▁Усходні	-10.6219
соўва	-10.6221
▁8-	-10.6224
льні	-10.6228
▁манет	-10.6228
▁жонкай	-10.6229
тора	-10.6229
▁глін	-10.6232
▁зямлю	-10.6232
▁Эти	-10.6233
мовы	-10.6234
▁Іль	-10.6235
сьці	-10.6239
нибудь	-10.6241
▁крэпасць	-10.6241
▁прыйшоў	-10.6241
▁хімічна	-10.6241
шёл	-10.6242
▁Ёс	-10.6248
▁дачыненні	-10.6249
▁Сербіі	-10.6249
жэнне	-10.6256
▁дывізіён	-10.6258
▁тлумачы	-10.6258
▁адпаведны	-10.6258
▁ўзрост	-10.626
стрэ	-10.626
▁Почему	-10.6267
▁адзначаны	-10.6267
▁воды	-10.6268
ейчас	-10.6269
▁складана	-10.627
зму	-10.6271
▁абаронца	-10.6274
▁Возера	-10.6275
▁парламент	-10.6282
▁коп	-10.6289
▁мужа	-10.6292
▁адпавядае	-10.6292
▁Мік	-10.6293
▁данные	-10.6294
▁сусвет	-10.6296
▁интерес	-10.6297
▁еўра	-10.6297
▁механізм	-10.6303
▁слуп	-10.6304
віль	-10.6307
лявы	-10.6308
▁апынуў	-10.631
▁каштоўны	-10.631
▁падзея	-10.6315
фіка	-10.6315
▁the	-10.632
▁Кветк	-10.6321
▁работает	-10.6323
▁акадэмі	-10.6323
кля	-10.6331
ёны	-10.6335
▁прямо	-10.6336
▁будов	-10.6338
▁плоска	-10.6342
▁Прэ	-10.6344
рн	-10.6345
▁Me	-10.6345
▁задача	-10.6346
▁справ	-10.6346
▁праекц	-10.6347
▁баі	-10.6347
▁зялёны	-10.6347
сыл	-10.6348
▁прыватна	-10.6353
▁штурм	-10.6354
▁выходзіць	-10.6355
▁пле	-10.6356
▁имеет	-10.6356
авіча	-10.6357
шли	-10.6358
ета	-10.6358
ow	-10.636
гадова	-10.6364
▁сямі	-10.6365
дать	-10.6367
▁барабан	-10.637
▁спецыяльнасц	-10.6371
▁68	-10.6373
▁игра	-10.6373
▁кампазіцыі	-10.6374
gt	-10.6375
▁названа	-10.6378
нула	-10.6379
▁табліц	-10.6379
▁барока	-10.638
стыя	-10.6382
▁Мэ	-10.6383
▁фірм	-10.6385
▁гімназіі	-10.6388
▁разум	-10.6388
асцей	-10.6389
народ	-10.6391
▁партнёр	-10.6396
▁рэзка	-10.6397
▁дабра	-10.6397
▁делает	-10.6398
▁Гро	-10.64
▁Ro	-10.6401
▁масавы	-10.6401
▁Англія	-10.6403
▁каманду	-10.6405
▁Вялікім	-10.6409
годдзя	-10.641
▁працягласц	-10.6411
▁КПСС	-10.6414
▁партый	-10.6415
▁траўм	-10.6418
авую	-10.6423
▁Вуліца	-10.6423
▁сабра	-10.6423
дадзена	-10.6428
▁рэчываў	-10.6429
чака	-10.6431
тас	-10.6432
▁агульным	-10.6433
нгу	-10.6434
аснову	-10.6435
▁ўдзельніча	-10.6435
▁Варшав	-10.6438
зны	-10.644
▁течение	-10.644
▁Сям	-10.6441
▁сялянска	-10.6441
▁пратэст	-10.6441
▁Асабліва	-10.6443
▁здыма	-10.6444
льнымі	-10.6446
йскую	-10.645
id	-10.6451
плыў	-10.6455
▁800	-10.6458
▁дела	-10.6459
чанка	-10.6461
ho	-10.6465
▁Гродзенска	-10.6465
▁достаточно	-10.6466
ква	-10.6467
▁зоне	-10.6468
▁вера	-10.6468
тона	-10.647
▁Купалы	-10.6477
▁ацэнк	-10.6477
луш	-10.6479
▁аднаві	-10.6481
▁Рад	-10.6481
▁рускі	-10.6482
▁манархі	-10.6484
▁ваше	-10.6484
▁пазнача	-10.649
▁66	-10.6491
▁Бро	-10.6491
▁аўтарам	-10.6492
▁зацверджаны	-10.6493
▁паказчык	-10.6493
▁Сярэдня	-10.6495
▁мяса	-10.6496
▁скан	-10.6497
▁Кіт	-10.65
▁Румыніі	-10.6501
▁праводзя	-10.6509
▁літ	-10.6512
▁хв	-10.6514
ыходзіць	-10.6514
▁паслуг	-10.6514
ліку	-10.6514
▁выкладчык	-10.6516
▁масы	-10.6517
▁шча	-10.6526
▁знешня	-10.6527
дзіць	-10.6527
▁Пале	-10.6528
▁Міхал	-10.6528
▁выступіў	-10.6529
чыся	-10.6532
▁горна	-10.6544
▁ўдзельнічаў	-10.6546
▁арбіт	-10.655
▁перанос	-10.6553
▁мінулым	-10.6553
▁рукі	-10.6554
▁такога	-10.6556
цэр	-10.6556
▁дзяржаўным	-10.6556
▁Дзю	-10.6562
▁причин	-10.6562
▁цэнтральны	-10.6564
джва	-10.6569
▁работать	-10.6569
ость	-10.6569
▁Вільгельм	-10.6569
▁арэн	-10.657
▁почти	-10.6572
▁прайшлі	-10.6572
▁гер	-10.6577
▁здзяйсня	-10.6581
▁падыход	-10.6584
▁дастаткова	-10.6586
▁герцагства	-10.6586
▁заліў	-10.6588
▁Ніжня	-10.659
Ба	-10.659
▁росту	-10.659
▁вядучы	-10.6593
▁гледжання	-10.6599
▁правым	-10.6599
▁Інстытут	-10.6601
▁Бас	-10.6605
-6	-10.6607
альна	-10.6612
бат	-10.6613
▁пан	-10.6613
бен	-10.6616
пазіцы	-10.6616
▁памяці	-10.6617
▁лічылі	-10.6617
▁ўладанні	-10.6619
▁Те	-10.6621
▁мястэчк	-10.6622
дзё	-10.6624
▁стварыць	-10.6625
▁дзейнічае	-10.6627
▁какой	-10.663
▁ног	-10.6631
ош	-10.6632
▁бібліятэкі	-10.6632
ba	-10.6634
▁адкрыцця	-10.6634
▁Аляксандравіч	-10.664
▁прамавугольны	-10.6641
▁епіскап	-10.6643
▁залежыць	-10.6644
луб	-10.6644
▁пакалення	-10.6644
даюць	-10.6644
ёва	-10.6646
▁ключ	-10.6647
щих	-10.6647
▁кампанент	-10.6652
▁сходу	-10.6653
нейшы	-10.6656
▁должен	-10.6661
▁каралеўскі	-10.6662
and	-10.6662
ab	-10.6664
▁шведскі	-10.6669
▁часова	-10.667
▁Рэйн	-10.667
дзейніча	-10.6671
▁арх	-10.6673
▁ДНК	-10.6673
рез	-10.6677
▁невядома	-10.668
вор	-10.6683
▁выбух	-10.6689
▁банка	-10.6693
▁прыпыначны	-10.6694
▁прэмія	-10.6695
▁гран	-10.6697
▁правінцый	-10.6697
цыян	-10.6697
▁войны	-10.6699
▁понял	-10.6703
▁аж	-10.6705
▁апошнім	-10.6705
▁балот	-10.6706
▁Таварыства	-10.6706
▁долараў	-10.6707
▁незалежна	-10.6709
▁парод	-10.671
▁раўнін	-10.6712
▁уладай	-10.6714
▁князем	-10.6715
чаты	-10.6716
крэт	-10.6717
▁1920-	-10.6718
▁Бял	-10.6718
▁жыхар	-10.6719
чок	-10.672
▁скал	-10.672
-10	-10.672
▁ван	-10.672
ніверсітэце	-10.6721
▁ападка	-10.6721
▁67	-10.6722
▁здольны	-10.6722
ёс	-10.6723
▁увидеть	-10.6724
▁Ми	-10.6725
▁мест	-10.6728
пс	-10.6731
губернатар	-10.6731
▁Аўгуста	-10.6732
▁ее	-10.6733
▁заваява	-10.6733
▁ідзе	-10.6735
▁флоту	-10.6735
▁Беларускім	-10.6736
▁распача	-10.674
тоже	-10.6741
▁технологии	-10.6742
▁будынкі	-10.6742
▁хаце	-10.6747
▁будуча	-10.6751
▁ор	-10.6751
льц	-10.6752
▁віду	-10.6752
▁Кер	-10.6754
▁забеспячэння	-10.6761
аюцца	-10.6762
▁англ	-10.6763
▁ўзровень	-10.6765
тэт	-10.6768
▁Міхайлавіч	-10.6769
▁іншы	-10.6775
▁Эта	-10.6777
льскім	-10.6778
▁Пакольк	-10.678
дэнт	-10.678
▁важным	-10.6781
лаве	-10.6783
▁пару	-10.6784
▁опер	-10.6787
▁часе	-10.6787
раваў	-10.6788
▁Доктар	-10.6789
жива	-10.6792
▁Лондане	-10.6795
▁Гомеля	-10.6796
▁зроблена	-10.6796
▁Часам	-10.6797
▁69	-10.6801
▁парты	-10.6802
раг	-10.6803
▁вёсак	-10.6805
чук	-10.6808
▁выкладаў	-10.6808
▁маленьки	-10.6814
▁дарозе	-10.6815
▁межам	-10.6817
▁моя	-10.6817
▁шведска	-10.6818
мэ	-10.6822
▁называлі	-10.6824
▁сусветны	-10.6825
▁мяс	-10.6825
▁Лісце	-10.6826
W	-10.6827
▁сыр	-10.6828
эта	-10.6832
▁невядомы	-10.6832
▁Балгарыі	-10.6832
▁искусств	-10.6832
▁ўдар	-10.6834
▁палас	-10.6835
чит	-10.6837
вел	-10.6838
істаў	-10.6839
▁Сяр	-10.6842
▁належаць	-10.6843
▁выступ	-10.6849
▁1970-	-10.685
цвя	-10.685
▁папярэдн	-10.6851
ненні	-10.6855
▁готов	-10.6859
карэспандэнт	-10.686
▁паводзін	-10.686
▁сабо	-10.686
sh	-10.6864
▁набыў	-10.6866
▁знаходжанн	-10.687
▁выбор	-10.6871
200	-10.6876
▁пасёлк	-10.6879
▁1960-	-10.688
▁Еў	-10.688
▁Анг	-10.6881
▁бас	-10.6887
▁Браслаўскі	-10.6888
▁1890	-10.6889
валы	-10.6892
▁распрацаваны	-10.6892
▁войскам	-10.6895
▁вяду	-10.6901
▁пасада	-10.6902
▁Нобелеўска	-10.6903
▁Дзярж	-10.6903
▁Mo	-10.6904
▁бальніц	-10.6907
баў	-10.6911
бак	-10.6911
▁працуюць	-10.6912
▁сами	-10.6914
▁цячэнні	-10.6916
▁квадрат	-10.6917
▁Злучаны	-10.6918
▁Пят	-10.6925
▁памят	-10.6927
свят	-10.693
▁котором	-10.6932
▁Ірландыі	-10.6933
▁абазначэнне	-10.6933
рныя	-10.6935
апрацоў	-10.6937
▁сутнасц	-10.6941
▁абшчын	-10.6946
▁Радзівіл	-10.695
▁лабараторы	-10.6951
ступіць	-10.6952
▁сцены	-10.6952
льнікам	-10.6958
▁количество	-10.6959
▁Ліп	-10.696
▁злучаны	-10.6961
▁старэйша	-10.6961
▁видео	-10.6963
▁Стаў	-10.6965
▁развіты	-10.6965
▁маштаб	-10.6971
▁хрысціянска	-10.6975
▁хваробы	-10.6979
▁магутны	-10.6979
▁Іс	-10.6983
▁знешні	-10.6984
▁Жлобін	-10.6988
▁Літве	-10.6988
▁Мара	-10.6989
▁чыгуначны	-10.6989
▁змог	-10.6991
▁семь	-10.6992
▁робіць	-10.6993
▁паўста	-10.6994
▁жаночы	-10.6998
▁Зо	-10.6998
▁атрыманы	-10.7
ительно	-10.7
йскія	-10.7003
ната	-10.7005
▁прастора	-10.7007
▁Бразіліі	-10.7007
▁канферэнцыі	-10.7007
▁гаспадарка	-10.7009
▁земляробства	-10.701
▁завода	-10.7011
чэнні	-10.7014
▁выкарыстоўвае	-10.7015
цыяй	-10.7016
▁спе	-10.7017
▁оказа	-10.7019
▁Барыса	-10.7019
▁стало	-10.702
▁пакут	-10.7023
бел	-10.7027
▁конце	-10.7027
▁выкананне	-10.7029
▁хрысціянскі	-10.703
▁Тэр	-10.7032
▁Від	-10.7034
▁Смаленска	-10.7034
илась	-10.7035
▁Запа	-10.7035
▁слоўнік	-10.7036
▁лясны	-10.704
▁дарог	-10.7041
▁Дняпра	-10.7044
▁фізічны	-10.7044
▁сделал	-10.7045
▁летні	-10.7048
▁выканання	-10.7049
става	-10.7051
▁Гары	-10.7051
▁экономи	-10.7051
▁магі	-10.7053
▁арнамент	-10.7053
▁апрацоўк	-10.7056
▁элемент	-10.7058
▁Максім	-10.7058
▁твар	-10.7059
▁схіла	-10.7059
▁якімі	-10.7061
▁спадарожнік	-10.7062
▁эксп	-10.7064
душ	-10.7066
еўскі	-10.7069
.1	-10.707
▁многие	-10.7072
▁Бан	-10.7074
нята	-10.7074
краін	-10.7077
▁змяніў	-10.7078
оны	-10.7079
▁ускраін	-10.7081
▁Тэрмін	-10.7084
▁невялікія	-10.7086
экс	-10.7086
▁Андрэ	-10.7088
▁ландшафт	-10.709
▁астравах	-10.709
▁далёка	-10.7091
▁аблог	-10.7096
▁0,3	-10.7096
▁стали	-10.7097
▁неаднаразова	-10.71
▁v	-10.7102
дамі	-10.7103
два	-10.7104
▁рухавік	-10.7104
▁тэоры	-10.7107
▁заканчэнні	-10.7109
▁змага	-10.7109
▁страціў	-10.711
▁падзялі	-10.711
▁рок	-10.7112
оле	-10.7113
▁медыцынска	-10.7116
▁структура	-10.7117
льская	-10.7119
▁Тор	-10.712
▁кніж	-10.712
▁кажет	-10.7124
▁чувств	-10.7124
si	-10.7126
▁Рады	-10.7127
▁спектакл	-10.7128
▁гварды	-10.7128
▁зямля	-10.7129
▁архітэктурны	-10.7129
▁акіян	-10.713
▁праведзена	-10.713
▁Была	-10.7131
▁васьмі	-10.7133
▁выкарыстоўвалі	-10.7134
▁глеб	-10.7139
чылі	-10.7141
▁59	-10.7145
▁каардынат	-10.7147
▁пастаўлены	-10.7147
▁трапіў	-10.7147
▁сеткі	-10.7148
разовы	-10.7148
▁Георг	-10.715
▁тип	-10.7153
▁пакрыты	-10.7153
▁Варшаве	-10.7157
клас	-10.718
▁адрознівае	-10.7181
▁куды	-10.7182
▁Джона	-10.7183
лізава	-10.7185
▁кардынал	-10.7187
amp	-10.7188
слаб	-10.7189
▁жывёлы	-10.719
▁мадэл	-10.7192
▁выявы	-10.7195
▁сабраны	-10.7195
▁ядра	-10.7195
лле	-10.7197
ими	-10.7198
▁дыяметр	-10.72
▁85	-10.7202
▁адправі	-10.7203
▁Сара	-10.7203
▁палітыку	-10.7205
рама	-10.7208
▁рыбы	-10.7208
▁74	-10.7208
▁начальніка	-10.7212
▁гіпотэз	-10.7212
▁образовани	-10.7212
▁хран	-10.7214
▁нацыянал	-10.7214
твары	-10.7216
цян	-10.7217
▁родна	-10.7217
▁аўтамабільна	-10.722
▁належала	-10.722
▁Ре	-10.7221
▁цягнік	-10.7223
▁матэматык	-10.7225
▁Паўночны	-10.7226
▁савецка	-10.7227
▁снег	-10.7231
радзі	-10.7231
ённы	-10.7231
▁Джы	-10.7232
▁рэспубліканска	-10.7232
▁Вала	-10.7234
▁вынікам	-10.7235
▁быстро	-10.7242
▁вылучы	-10.7243
▁імператарам	-10.7245
▁публіцыст	-10.7245
▁надо	-10.7247
беры	-10.7247
▁досы	-10.7249
▁ідэя	-10.725
ліст	-10.725
▁Час	-10.7254
▁Цю	-10.7256
▁видим	-10.7257
рэза	-10.7258
тная	-10.7259
пон	-10.726
▁рамана	-10.7262
▁материал	-10.7263
▁дорог	-10.7263
mi	-10.7264
▁метады	-10.7266
гарадская	-10.7266
баро	-10.7269
наві	-10.7275
льнасць	-10.7278
неслі	-10.728
▁Давайте	-10.7288
▁Тру	-10.7289
▁Шатландыі	-10.7298
▁ваш	-10.7298
▁Брытанска	-10.7298
▁Указам	-10.7299
▁абароне	-10.7299
ki	-10.7301
▁сложно	-10.7304
▁Лё	-10.7305
▁унутраны	-10.7307
▁лігі	-10.731
творчасць	-10.7315
ліп	-10.7318
▁вучн	-10.7318
▁зім	-10.7318
▁t	-10.732
ске	-10.732
▁бру	-10.7321
▁дырэктарам	-10.7325
▁Санта	-10.7325
▁сторон	-10.7325
▁вырабля	-10.7326
ительны	-10.7326
▁людям	-10.7327
▁минут	-10.7328
▁Веранікі	-10.7328
чэр	-10.733
▁вен	-10.733
▁поўны	-10.7333
▁пагадненне	-10.7336
▁1903	-10.7339
шчо	-10.7339
шчыны	-10.7339
пл	-10.734
▁зарад	-10.7341
▁музыку	-10.7345
▁Старажытна	-10.7346
▁меньше	-10.7346
цёк	-10.7351
▁прамы	-10.7353
▁птушка	-10.7355
рэшце	-10.7355
▁класіфікацы	-10.7355
▁Эл	-10.736
▁показать	-10.7365
▁ўстанова	-10.7365
чь	-10.7367
▁Рымскі	-10.7367
▁літара	-10.7368
500	-10.737
▁трапічны	-10.7372
▁газет	-10.7376
▁Асі	-10.7378
доўга	-10.7383
▁плат	-10.7383
▁норм	-10.7386
▁спрыял	-10.7386
енных	-10.7388
льта	-10.7392
▁увайшоў	-10.7394
▁компани	-10.7394
рамі	-10.7403
▁леса	-10.7403
льфа	-10.7403
▁эксперт	-10.7403
▁часто	-10.7403
▁Міхаіла	-10.7404
▁умоў	-10.7406
▁Гай	-10.7406
ікаў	-10.7411
▁падпарадкоўва	-10.7411
▁1830	-10.7413
▁цэглы	-10.7413
рская	-10.7413
▁вёў	-10.7414
▁супрацоўніцтва	-10.7414
рэб	-10.7414
три	-10.7415
▁прамысловасць	-10.7416
▁стрэл	-10.7419
шку	-10.7419
▁Гла	-10.742
ваенн	-10.7421
▁вугл	-10.7422
смотр	-10.7424
тически	-10.7425
▁Le	-10.7426
▁прычын	-10.7429
тнай	-10.7432
▁сутыкненн	-10.7432
▁старшы	-10.7432
tor	-10.7434
▁гос	-10.7435
▁пуст	-10.7437
біць	-10.7437
▁шука	-10.7437
▁тэма	-10.7438
all	-10.744
▁вопыт	-10.7441
▁арт	-10.7441
▁био	-10.7445
▁бура	-10.7446
▁скарб	-10.745
▁скопішча	-10.7451
▁натуральна	-10.7453
▁Пэ	-10.7458
▁технологи	-10.7459
віл	-10.7463
▁засталіся	-10.7465
▁партызанска	-10.7465
▁цвет	-10.7465
множ	-10.7465
ческо	-10.747
ственны	-10.747
▁адноўлены	-10.7471
▁месяца	-10.7473
склад	-10.7475
▁ХХ	-10.7476
▁медаль	-10.7479
▁лёгкі	-10.7481
▁істотна	-10.7481
▁ўнутры	-10.7481
бур	-10.7482
▁харчова	-10.7484
▁займаюць	-10.7484
▁71	-10.7487
ine	-10.749
▁апынулася	-10.749
▁Эмі	-10.7493
▁Гал	-10.7493
▁архі	-10.7497
▁Нясвіж	-10.7499
▁абвешчаны	-10.75
▁родаў	-10.7501
маёр	-10.7502
▁буйно	-10.7504
▁палеа	-10.7505
ССР	-10.7506
аваная	-10.7507
▁палкоўнік	-10.7507
▁немагчыма	-10.751
▁ситуаци	-10.751
▁Міха	-10.751
▁далучэнн	-10.7511
будаваны	-10.7513
неж	-10.7516
▁книг	-10.7517
▁Акадэмі	-10.7519
дол	-10.7519
×	-10.7519
▁чалавеча	-10.7521
▁кадр	-10.7521
▁Sa	-10.7524
▁рымлян	-10.7529
▁транспарт	-10.753
▁даждж	-10.7532
▁Аляксей	-10.7533
▁Вышыня	-10.7539
▁звярта	-10.754
▁наблюда	-10.7541
▁раўнд	-10.7544
▁свабодны	-10.7544
шня	-10.7545
▁дзейнічала	-10.7547
▁абіра	-10.7547
▁пліт	-10.7549
восень	-10.7551
▁руках	-10.7553
▁абавязкі	-10.7555
▁сяброў	-10.7556
▁органы	-10.7557
▁паверхня	-10.7558
▁цепла	-10.7558
▁Акмолінска	-10.7558
ута	-10.756
▁якому	-10.7561
▁мяжу	-10.7563
▁исследовани	-10.7564
▁Кітай	-10.7565
▁спалуча	-10.7567
▁обще	-10.7568
▁Фердынанд	-10.7568
шэння	-10.7569
▁выклада	-10.7572
ики	-10.7574
▁кропка	-10.7576
▁города	-10.7577
▁дарогі	-10.7577
▁тэхнікі	-10.7578
▁Кана	-10.7579
пед	-10.7579
▁Міністра	-10.7581
▁Тай	-10.7582
▁традыцыя	-10.7583
▁Глеб	-10.7585
▁Адначасова	-10.7588
▁Мор	-10.7588
▁захапіў	-10.7589
ндэр	-10.759
▁провод	-10.7593
▁Із	-10.7596
▁топ	-10.7597
▁плошчай	-10.7597
▁дзяржавай	-10.7598
▁Ваўкавыск	-10.7598
▁армію	-10.7598
▁Эдвард	-10.7598
сных	-10.7601
▁рэчы	-10.7603
▁Томас	-10.7606
▁хаке	-10.7606
▁карціна	-10.7607
▁дывізія	-10.7607
хож	-10.7607
▁недахоп	-10.7608
▁дарога	-10.7608
▁памяць	-10.7608
▁Божай	-10.761
крыты	-10.7611
▁Гарадзе	-10.7614
▁Эс	-10.7616
▁Партугаліі	-10.7617
ьер	-10.7622
▁Кары	-10.7623
▁сакратаром	-10.7626
зяць	-10.7627
▁сонца	-10.7629
▁смерць	-10.7631
▁вядомым	-10.7633
ПС	-10.7634
▁чын	-10.7634
▁Брэст	-10.7634
▁крыві	-10.7636
▁просьб	-10.7638
0-	-10.7639
▁помог	-10.7643
▁1812	-10.7643
ers	-10.7644
ятся	-10.7644
▁пазна	-10.7649
▁появи	-10.765
пісана	-10.7652
tt	-10.7652
тельно	-10.7653
▁прамыслова	-10.7654
віца	-10.7654
▁дысцыплін	-10.7657
▁філосаф	-10.7657
▁Валасы	-10.7658
idae	-10.7658
▁бія	-10.766
▁Нет	-10.7663
рства	-10.7664
▁пытаннях	-10.7664
ствы	-10.7666
▁царкоўны	-10.7667
▁k	-10.767
▁система	-10.7673
▁студэнт	-10.7675
▁матэрыялы	-10.7679
падобныя	-10.768
▁прафесійна	-10.7682
▁Еўра	-10.7685
▁дагэтуль	-10.7686
▁ліквідава	-10.7687
▁болезн	-10.7687
▁клубам	-10.7687
вугольн	-10.7688
зван	-10.7689
▁братоў	-10.7689
▁канала	-10.769
▁супольнасці	-10.7693
▁даклад	-10.7695
▁яўляліся	-10.7696
ніку	-10.7698
▁захоўваецц	-10.7701
чыне	-10.7702
несці	-10.7703
▁гімна	-10.7704
▁73	-10.7704
▁скі	-10.7705
▁германск	-10.7706
▁збудавання	-10.7706
▁акрузе	-10.7706
▁дамен	-10.7708
▁Гомельска	-10.7712
▁царкву	-10.7713
▁існавал	-10.7714
▁квартал	-10.7716
ента	-10.7718
▁знайсці	-10.7718
▁700	-10.7718
чыні	-10.7719
▁Шк	-10.7722
ph	-10.7727
▁дамы	-10.7728
▁130	-10.7728
▁Вера	-10.7728
▁счита	-10.773
▁бронзавы	-10.7731
▁кірава	-10.7734
di	-10.7735
▁маленькі	-10.7736
▁характарыстык	-10.7736
▁вывучэнне	-10.7737
▁існаваў	-10.7737
ступіла	-10.7741
▁заслуг	-10.7743
овой	-10.7744
▁заняла	-10.7746
▁цікавас	-10.7747
віны	-10.7747
ver	-10.7752
дына	-10.7754
▁Марцін	-10.7756
▁лікаў	-10.7758
▁вывучэння	-10.7759
▁экз	-10.7761
▁маст	-10.7764
▁намер	-10.7764
▁Магілёў	-10.7766
▁дадзены	-10.7767
▁Рак	-10.7768
▁адправіў	-10.7768
▁яўленне	-10.7769
▁Свяшчэнна	-10.7774
▁аперацыя	-10.7774
каваны	-10.7775
$	-10.7776
▁аўтобус	-10.7776
▁Кіеў	-10.7777
▁сухі	-10.7777
иль	-10.7778
▁1500	-10.7779
▁літар	-10.778
▁изменить	-10.778
▁шар	-10.7782
бле	-10.7783
▁краю	-10.7783
ó	-10.7786
▁моладзі	-10.7788
▁служа	-10.7788
▁альбома	-10.7789
▁всему	-10.779
▁совершенно	-10.7791
▁Нарв	-10.7792
▁неба	-10.7792
▁сезона	-10.7793
▁дырэктара	-10.7793
лянд	-10.7794
▁начали	-10.7795
▁этому	-10.7796
▁шэрагам	-10.7796
▁Люксембург	-10.7796
трэ	-10.7797
▁своё	-10.7798
▁захоплены	-10.7802
родзе	-10.7804
▁Pa	-10.7805
▁стагоддзе	-10.7806
▁Аўгуст	-10.7807
будавалі	-10.7807
▁удалос	-10.781
гарад	-10.7814
▁шара	-10.7815
▁Перу	-10.7816
▁стар	-10.7817
сцямі	-10.7819
▁наяўнасць	-10.7819
▁адзінак	-10.7823
▁скульптур	-10.7823
НР	-10.7823
▁пераслед	-10.7824
▁ран	-10.7826
▁археолаг	-10.7826
▁драматург	-10.7826
▁кангрэс	-10.7826
▁Іншыя	-10.7826
▁1902	-10.7827
▁арміяй	-10.7828
кіна	-10.783
зіць	-10.7832
▁Маскоўскага	-10.7834
ден	-10.784
▁звыча	-10.7841
эк	-10.7843
▁Юзаф	-10.7847
▁шлюбу	-10.7847
▁Трэця	-10.7848
▁вадкасц	-10.7848
▁ліста	-10.7851
▁Марс	-10.7852
▁Ала	-10.7859
пре	-10.7861
▁свін	-10.7862
▁Альб	-10.7864
▁1870	-10.7864
á	-10.7866
▁знішчэнн	-10.7866
▁1950-	-10.7867
▁фильм	-10.787
▁Казіміра	-10.787
крат	-10.7873
▁Y	-10.7876
▁ланцуг	-10.7876
▁краі	-10.7878
▁абалон	-10.7878
▁зразуме	-10.7878
▁абласця	-10.7878
лок	-10.7879
▁экспедыцыя	-10.7881
фы	-10.7881
▁будаўнічы	-10.7883
▁Кало	-10.7885
▁славянскі	-10.7888
▁дамов	-10.7888
▁Штата	-10.7889
▁даследчык	-10.789
▁Пецярбург	-10.789
▁Перш	-10.7891
▁дасягнула	-10.7891
іца	-10.7892
▁адклада	-10.7893
▁Лука	-10.7894
гель	-10.7895
▁ўзброены	-10.7897
▁грошы	-10.7897
▁ўладальнік	-10.7901
вил	-10.7901
▁Прад	-10.7902
дин	-10.7903
орт	-10.7904
▁дзейнасц	-10.7905
▁пейзаж	-10.7907
▁гандлёва	-10.7907
нева	-10.7908
нгі	-10.7908
▁кааліцы	-10.7908
▁хат	-10.7912
▁цэн	-10.7916
ствам	-10.7917
▁сэрца	-10.7917
▁эксперымент	-10.7919
▁камень	-10.7921
▁стыль	-10.7923
▁Хай	-10.7924
жэй	-10.7925
▁перапіс	-10.7925
▁лег	-10.7926
▁in	-10.7927
▁узнік	-10.7928
▁рэформы	-10.7931
ig	-10.7936
▁дыск	-10.7937
▁напр	-10.7937
▁Чэмпіён	-10.7937
▁круп	-10.7943
▁гаспадарчы	-10.7945
▁Храм	-10.7947
▁пакінул	-10.7948
▁фільме	-10.7952
ber	-10.7954
бул	-10.7956
▁подход	-10.7956
▁брыгад	-10.7957
▁Нор	-10.7959
кавая	-10.7959
▁1901	-10.7961
лин	-10.7961
лічы	-10.7964
▁Егіпта	-10.7968
▁эксплуатацы	-10.7968
▁вярта	-10.7969
ляп	-10.7972
▁Свет	-10.7975
▁вызначаны	-10.7975
▁развіцці	-10.7975
▁ны	-10.7976
▁складзены	-10.7981
рата	-10.7982
▁дваран	-10.7984
▁аматар	-10.7985
ктор	-10.7988
▁адмаўля	-10.7989
▁маскоўскі	-10.7989
▁літаратур	-10.7993
ось	-10.7995
▁самі	-10.7996
▁неад	-10.7997
▁ради	-10.7997
▁нізкі	-10.7998
▁занятк	-10.8001
гва	-10.8004
▁марско	-10.8007
▁слишком	-10.8009
▁Друга	-10.8012
▁цячэ	-10.8012
▁Лін	-10.802
▁одного	-10.8021
ловы	-10.8022
▁аф	-10.8024
ват	-10.8026
▁пляцоўк	-10.8027
меньш	-10.8027
▁валодае	-10.8029
▁каналізавана	-10.8029
▁сярэдн	-10.8029
▁Залата	-10.803
▁лацін	-10.8033
ений	-10.8037
▁океан	-10.8039
▁1880	-10.8043
чата	-10.8044
▁літоўскага	-10.8044
▁ўладамі	-10.8048
▁ведь	-10.805
йшло	-10.8051
▁салецтв	-10.8051
▁эфір	-10.8054
▁вызвалі	-10.8057
▁связан	-10.8059
груз	-10.806
▁незалежны	-10.806
▁снукеры	-10.8064
ke	-10.8068
▁калоніі	-10.8072
▁разбураны	-10.8074
▁вымярэння	-10.8075
▁валют	-10.8076
▁Урад	-10.8076
bo	-10.8076
▁удзельнікаў	-10.8077
▁контр	-10.8079
▁папа	-10.8079
▁вакзал	-10.8081
▁бульб	-10.8081
▁фаз	-10.8085
▁Нам	-10.8088
▁руб	-10.8088
▁говорить	-10.8089
▁03	-10.8089
дскага	-10.809
▁танца	-10.81
▁Інстытуц	-10.8101
▁галасоў	-10.8101
▁Станіслаў	-10.8101
ступлення	-10.8101
▁калекцыя	-10.8103
▁прымае	-10.8104
др	-10.8104
ваннем	-10.8112
▁рабочых	-10.8118
▁хуткасць	-10.8118
▁электро	-10.8118
▁Бран	-10.8119
▁r	-10.8119
▁отправ	-10.8121
▁персанаж	-10.8121
▁адрозненні	-10.8122
▁неабходны	-10.8122
дут	-10.8122
▁Памер	-10.8123
дзял	-10.8123
▁рук	-10.8128
цом	-10.8128
▁прыхільнікаў	-10.813
▁падня	-10.8131
▁совсем	-10.8132
место	-10.8133
▁измен	-10.8134
хоп	-10.8135
▁электрычна	-10.8139
▁ахов	-10.8141
веч	-10.8143
▁справах	-10.8144
▁атама	-10.8145
▁масів	-10.8146
стычны	-10.8147
▁собой	-10.8147
▁160	-10.8148
▁Америк	-10.8153
▁Прусіі	-10.8153
мень	-10.8154
▁вяртання	-10.8157
▁буйна	-10.8158
▁труп	-10.8159
▁кажу	-10.8165
▁Глу	-10.8168
▁рэзерв	-10.8168
▁фи	-10.8169
▁аўтараў	-10.8169
▁выяўлена	-10.8174
▁Баг	-10.8178
рэк	-10.818
▁Філіпа	-10.8187
▁рус	-10.8187
▁малюнка	-10.8188
бас	-10.8189
▁газу	-10.819
▁системы	-10.8193
▁апублікаваў	-10.8193
▁звук	-10.8195
▁уласны	-10.8196
▁загадаў	-10.8196
ард	-10.8198
овые	-10.8198
▁Канстанціна	-10.8199
фт	-10.82
▁пік	-10.82
▁мак	-10.8201
▁пояс	-10.8201
▁точно	-10.8203
▁памерам	-10.8203
▁Канстытуцыі	-10.8204
▁прысвечана	-10.8205
▁самага	-10.8207
▁вусця	-10.8209
▁турызм	-10.8209
верш	-10.821
ніта	-10.8213
тс	-10.8216
▁вадзе	-10.8216
▁далучаны	-10.8217
▁Каро	-10.8217
▁пагроз	-10.8217
▁Бла	-10.8219
▁універсітэт	-10.822
▁7-	-10.8221
▁выкарыстоўвалас	-10.8222
▁выдава	-10.8223
▁20-	-10.8223
▁лячэнн	-10.8224
▁беларускім	-10.8225
▁поўдня	-10.8226
▁актив	-10.8226
▁Чырвоны	-10.8226
▁Было	-10.8228
▁БНР	-10.8229
▁Сім	-10.8231
▁дзяўчын	-10.8233
▁76	-10.8233
▁Вест	-10.8234
▁дачкі	-10.8235
▁действи	-10.8236
▁настаўнікам	-10.8239
▁Твор	-10.824
▁працягну	-10.8241
Па	-10.8245
▁мірна	-10.8245
▁выканаў	-10.8247
ступілі	-10.8248
нок	-10.8248
▁Віцебску	-10.8248
▁прыбыў	-10.8249
▁Сацыялістычна	-10.8249
▁сар	-10.8252
▁расце	-10.8254
шыр	-10.8257
▁галасаванн	-10.8257
▁слов	-10.8258
уючы	-10.8259
▁ўсходні	-10.8261
фэ	-10.8265
▁найлепшы	-10.8267
▁пашыры	-10.8269
▁метро	-10.8278
ката	-10.828
▁падзяляе	-10.8282
▁пераўтварэнн	-10.8288
▁крылаў	-10.8288
▁ўмовы	-10.8289
▁аўстрыйскі	-10.8289
▁цяперашня	-10.8289
▁утвораны	-10.8289
▁практыка	-10.8289
зіна	-10.8289
пле	-10.829
▁примерно	-10.829
ушка	-10.8295
цэвіч	-10.8297
▁надзе	-10.8297
▁кров	-10.8297
-15	-10.8299
бярэж	-10.8302
▁ажыццяўляе	-10.8303
▁кост	-10.8304
▁опыт	-10.8308
▁экспазіцы	-10.831
▁ўзнік	-10.831
▁1793	-10.831
гадовая	-10.8311
вание	-10.8311
▁произ	-10.8312
▁яр	-10.8313
▁получа	-10.8313
біты	-10.8316
клон	-10.832
▁падкрэслі	-10.8323
еты	-10.8323
les	-10.8323
▁страны	-10.8326
▁1,2	-10.8328
▁Ляс	-10.8329
▁эксперимент	-10.8331
▁находит	-10.8334
▁Кэ	-10.8335
▁Рымска	-10.8337
Ла	-10.8338
▁Інд	-10.8338
▁выяв	-10.8338
рэнне	-10.8339
▁Інтэр	-10.8341
▁тэлебачанн	-10.8341
▁Дзмітрый	-10.8342
▁вадо	-10.8343
КА	-10.8344
▁77	-10.8347
▁Экс	-10.8347
▁Ос	-10.8348
▁пласцін	-10.8354
▁выбіра	-10.8357
▁фарміравання	-10.8357
имы	-10.8358
▁метра	-10.8359
▁плато	-10.8359
▁видеть	-10.8359
▁заставаў	-10.8363
даваў	-10.8364
▁вынаход	-10.8368
▁супрацьстая	-10.8368
▁акадэмік	-10.8372
▁прыстасава	-10.8373
▁пациент	-10.8373
ейн	-10.8374
▁цікав	-10.8376
▁свят	-10.8376
▁g	-10.8378
▁кожным	-10.8381
▁цэлы	-10.8382
▁мяжой	-10.8384
▁све	-10.8385
цер	-10.839
▁Нёман	-10.839
▁Славакіі	-10.8394
▁забяспечы	-10.8395
▁падтрымліва	-10.8398
итель	-10.8398
▁бук	-10.8401
▁брыгады	-10.8404
▁довольно	-10.8405
▁газеце	-10.8405
▁Азербайджана	-10.8407
▁Сібіры	-10.8408
завод	-10.8408
▁мод	-10.8409
▁мяжуе	-10.8411
▁уверен	-10.8412
▁бацькам	-10.8413
▁свобод	-10.8416
▁намаляваны	-10.8416
▁руд	-10.8417
▁здзейсніў	-10.8418
▁пункту	-10.8418
▁сучасным	-10.8426
губ	-10.8427
збраенн	-10.8428
нёва	-10.8431
десь	-10.8433
▁склалі	-10.8435
▁эст	-10.8438
кие	-10.8444
▁маёмас	-10.8444
цию	-10.8446
▁развива	-10.8449
▁абмежавана	-10.845
▁доктара	-10.8451
▁літаральна	-10.8453
tu	-10.8455
кет	-10.8456
▁адзнак	-10.8457
▁расту	-10.8457
▁шп	-10.846
▁філіял	-10.8461
чить	-10.8462
▁рускага	-10.8462
▁катэгорыі	-10.8462
изм	-10.8462
▁миру	-10.8465
▁стаўшы	-10.8466
▁Еўрапейскі	-10.8469
▁многих	-10.8469
▁перадаў	-10.8472
▁англа	-10.8472
▁атмасфер	-10.8473
нию	-10.8479
▁Магчыма	-10.848
цюр	-10.848
▁баз	-10.8484
▁еўрапейскай	-10.8485
ации	-10.8489
▁считаю	-10.849
▁Пераможца	-10.8491
▁Паўночная	-10.8491
▁Малі	-10.8492
▁вызвалены	-10.8492
▁падання	-10.8493
Пецярбургу	-10.8497
▁камандзіра	-10.8499
▁сустрэчы	-10.8501
▁l	-10.8501
▁Маскву	-10.8501
▁выразна	-10.8507
▁Эк	-10.8507
ковым	-10.8508
▁калегі	-10.851
рака	-10.851
▁знаходзі	-10.8511
▁паліва	-10.8512
▁Пен	-10.8512
АЗ	-10.8514
▁вокруг	-10.8515
енты	-10.8516
▁стэп	-10.8517
тэрмін	-10.8517
▁Ціха	-10.8517
▁далейша	-10.8523
▁памяшкання	-10.8523
▁скульптуры	-10.8523
▁сделали	-10.8523
▁голос	-10.8524
▁фінансавы	-10.8527
▁перакры	-10.8529
▁Ама	-10.853
жанне	-10.8531
▁пасяджэнн	-10.8534
▁Выступа	-10.8535
▁малекул	-10.8536
▁дамаг	-10.8538
▁выкарыстоўваліс	-10.854
▁адмовіў	-10.854
▁Астро	-10.8541
▁Том	-10.8542
▁магла	-10.8543
пушчаны	-10.8545
вольна	-10.8545
водны	-10.8545
▁экспарт	-10.8546
▁нацыянальным	-10.8546
щие	-10.8547
▁паза	-10.8548
▁фармальна	-10.855
ліца	-10.855
▁адстаўку	-10.8551
біна	-10.8554
▁навучанне	-10.8555
▁графік	-10.8555
▁вучоб	-10.8555
▁даследчыкі	-10.8556
▁зыход	-10.8558
▁кандыдата	-10.856
▁ўклад	-10.856
▁глебы	-10.8561
pa	-10.8561
▁мінска	-10.8565
▁дэкаратыўны	-10.8566
▁характарызуе	-10.8566
▁увайшл	-10.8568
▁Далей	-10.8577
▁кітайскі	-10.8577
▁хіміі	-10.8577
▁стварае	-10.8579
▁ручай	-10.8581
льт	-10.8581
ёк	-10.8585
▁дву	-10.8586
▁Сабор	-10.8586
▁ўсталява	-10.8587
▁Швецыя	-10.8588
▁вынікі	-10.8593
▁млын	-10.8596
ru	-10.8598
▁архібіскуп	-10.8598
сё	-10.8599
▁капітал	-10.8601
ub	-10.8602
▁думал	-10.8602
ніцкай	-10.8603
ландска	-10.8604
▁дол	-10.8606
▁аўтара	-10.8606
▁Чэр	-10.8607
сцен	-10.8611
▁мінерал	-10.8612
бары	-10.8612
філа	-10.8616
-7	-10.862
▁жоўта	-10.862
зды	-10.8622
зіі	-10.8628
▁зрабіла	-10.8632
слуг	-10.8634
▁племя	-10.8637
▁вёск	-10.8639
рных	-10.8639
▁поп	-10.864
▁Мана	-10.8641
▁Жо	-10.8642
▁Фін	-10.8642
▁напісанн	-10.8643
▁камандуючы	-10.8645
▁працягвалі	-10.8646
▁вяртанн	-10.8647
he	-10.8651
▁етнам	-10.8653
▁багацц	-10.8655
▁кн	-10.8655
▁выхаду	-10.8658
▁Лаўрэат	-10.8664
▁велічыня	-10.8664
▁украінскі	-10.8665
нят	-10.8666
▁бацькоў	-10.8667
ДП	-10.8671
▁Стан	-10.8672
▁ўзнікла	-10.8672
▁Чэмпіянат	-10.8674
▁караблёў	-10.8675
ўскае	-10.8675
▁армянска	-10.8676
▁Ордэн	-10.8678
▁нічо	-10.8679
au	-10.8681
▁ярка	-10.8681
▁внимание	-10.8686
▁кос	-10.8686
канцлер	-10.8692
▁хлеба	-10.8692
▁абслугоўва	-10.8694
льма	-10.8695
▁рэгулярна	-10.8697
▁разлік	-10.87
▁грамадзянскі	-10.8701
ставить	-10.8702
▁Дры	-10.8706
▁Север	-10.8707
▁глыбокі	-10.8708
▁аўтаномна	-10.8708
ng	-10.8711
▁цяг	-10.8713
▁Казахстан	-10.8714
▁10-	-10.8718
▁паняцце	-10.8719
▁міль	-10.8719
▁трывала	-10.8722
мані	-10.8723
йным	-10.8725
рона	-10.8728
▁1795	-10.8732
im	-10.8733
▁мен	-10.8734
▁дзіцяча	-10.8736
▁Мінская	-10.8739
▁сацыял	-10.874
▁Сла	-10.874
▁гарнізон	-10.8741
нно	-10.8741
▁даліна	-10.8743
абілі	-10.8744
тив	-10.8744
туль	-10.8745
▁0,4	-10.8748
▁вільготны	-10.8752
▁Іл	-10.8752
▁своим	-10.8755
▁вус	-10.8755
чэн	-10.8756
рэм	-10.8756
▁рыф	-10.8759
▁Рэчышча	-10.876
▁Радзівіла	-10.876
▁говорят	-10.8762
▁продукт	-10.8763
▁працягвае	-10.8767
▁накірава	-10.8769
▁цырымоні	-10.8774
▁процент	-10.8774
▁летам	-10.8775
пале	-10.8778
▁сведчанн	-10.8779
тун	-10.8781
вела	-10.8781
▁адкуль	-10.8784
▁старажытнагрэч	-10.8787
▁Be	-10.8789
▁Всё	-10.8792
▁140	-10.8794
▁зрабілі	-10.8796
▁сведча	-10.8798
▁Частка	-10.8798
▁ваенн	-10.88
▁Наша	-10.8802
▁1860	-10.8806
-16	-10.8807
▁праўлення	-10.8807
▁должно	-10.8807
▁нарадзілас	-10.8808
▁Хэ	-10.8808
▁навучальна	-10.8811
▁выкарыстаны	-10.8812
▁класічны	-10.8813
▁файл	-10.8815
▁бярэ	-10.8816
▁Мікала	-10.8817
ae	-10.8818
▁знойдзена	-10.8818
▁японска	-10.8823
кім	-10.8824
▁ёму	-10.8824
▁працяг	-10.8826
тическо	-10.8828
▁Іспанія	-10.8828
▁рэферэндум	-10.8829
▁ўзвышша	-10.8829
▁Захад	-10.8832
▁музыкант	-10.8833
Мар	-10.8834
мур	-10.8839
▁информации	-10.884
▁дер	-10.884
▁Дама	-10.8851
ex	-10.8851
▁Былі	-10.8853
▁подумал	-10.8853
▁старажытнасці	-10.8854
be	-10.8856
▁04	-10.8861
▁развед	-10.8865
зёр	-10.8868
роде	-10.8868
▁дэмакраты	-10.8868
▁Валын	-10.8868
▁вышыню	-10.887
▁вяз	-10.887
сюль	-10.8872
▁Стакгольм	-10.8874
▁арэал	-10.8875
▁Сэ	-10.8876
▁Гур	-10.8878
▁адлеглас	-10.888
tion	-10.8883
▁Пабудавана	-10.8885
хотим	-10.8885
▁вадаёма	-10.8886
▁заказ	-10.8886
▁вывучаў	-10.889
▁любі	-10.8891
der	-10.8892
▁помнікі	-10.8896
▁піша	-10.8901
ону	-10.8903
▁Из	-10.8904
лэ	-10.8906
▁гроша	-10.8908
▁Бір	-10.8908
ыми	-10.891
была	-10.8914
▁аналіз	-10.8917
▁аўтаномі	-10.8918
▁пераемнік	-10.8921
▁працэсу	-10.8922
▁бедны	-10.8923
▁Рам	-10.8923
▁команд	-10.8924
▁войнаў	-10.8928
▁обычно	-10.8929
▁Перс	-10.8932
графічна	-10.8932
тнік	-10.8935
дов	-10.8937
▁апсіда	-10.8941
йная	-10.8947
ндар	-10.8947
▁Mar	-10.8947
▁30-	-10.8949
сбург	-10.8949
▁выкарыстаннем	-10.895
▁голас	-10.8951
▁110	-10.8953
▁звярну	-10.8955
моўных	-10.8955
▁неф	-10.8956
▁няз	-10.8961
PM	-10.8964
▁павялічы	-10.8965
▁апошняй	-10.8965
вак	-10.8965
▁сабак	-10.8968
▁нейкі	-10.8969
▁комплексу	-10.897
▁ўдзельнічал	-10.897
▁дадзеныя	-10.8971
ников	-10.8971
льца	-10.8973
несена	-10.8974
▁падтрымкі	-10.8974
▁спрабаваў	-10.8974
▁захапілі	-10.8977
▁Co	-10.8983
▁выток	-10.8983
▁незалежнай	-10.8984
летку	-10.8986
▁інтарэс	-10.8988
▁маркі	-10.8988
ением	-10.8993
рскім	-10.8994
▁прырода	-10.8994
▁бял	-10.8994
▁занялі	-10.8994
▁спец	-10.8995
тычную	-10.8996
полне	-10.8996
▁абазначэння	-10.8997
▁маршал	-10.8997
▁рэкорд	-10.8997
▁выкана	-10.9002
▁захавання	-10.9005
ост	-10.9006
эла	-10.9007
▁Мюнхен	-10.9008
▁рэстаўрацы	-10.9008
▁внутри	-10.9008
▁залы	-10.9011
▁развіта	-10.9011
▁Уладзіміравіч	-10.9012
ники	-10.9013
▁Без	-10.9016
▁тонкі	-10.9017
▁інструмент	-10.9018
вальна	-10.9018
▁принима	-10.902
▁наше	-10.9021
▁турэцка	-10.9022
▁караблі	-10.9023
▁прадукт	-10.9024
раванне	-10.9024
▁существует	-10.9026
▁дасягнуў	-10.9026
ляюцца	-10.9026
▁делают	-10.9028
▁история	-10.9029
▁дзвюма	-10.9031
▁вузка	-10.9031
▁каралева	-10.9034
▁Сучасны	-10.9042
▁ветра	-10.9043
▁Пастаўскі	-10.9045
тельны	-10.9048
▁Кіева	-10.9048
▁фінал	-10.9052
▁памяшканні	-10.9054
▁Ісус	-10.9054
▁касмічны	-10.9054
▁Ленінград	-10.9055
▁начала	-10.9056
▁Парк	-10.9058
▁Полацкім	-10.9058
▁краіну	-10.906
▁Скот	-10.9061
▁аўстра	-10.9062
▁франтах	-10.9065
анг	-10.9066
ици	-10.9067
▁лейтэнант	-10.9068
▁машына	-10.9069
шкевіч	-10.9071
жна	-10.9073
шло	-10.9073
▁BMW	-10.9076
▁спартыўны	-10.9076
эб	-10.9077
біта	-10.9079
▁усім	-10.9081
▁апісва	-10.9081
▁Канады	-10.9084
▁патрабуе	-10.9088
▁Фрэ	-10.9088
▁реально	-10.909
▁Аўстрыя	-10.9093
▁Чырвон	-10.9094
▁ўтварэння	-10.9096
▁Баранавіцка	-10.9097
▁дыпламат	-10.9098
▁падзяляю	-10.9101
▁хатні	-10.9105
ограф	-10.9105
▁такую	-10.9107
сво	-10.9108
торыя	-10.9108
▁Стэфан	-10.9109
▁рэальна	-10.911
▁насякомых	-10.9111
▁жалеза	-10.9111
▁Іса	-10.9111
▁различны	-10.9111
▁рэгіёнаў	-10.9112
брэ	-10.9116
▁сярэдне	-10.9116
▁Казімір	-10.9118
▁планета	-10.9118
▁максімальна	-10.9119
▁95	-10.9122
▁телефон	-10.9122
▁мясцовым	-10.9123
▁спев	-10.9124
▁пр	-10.9127
▁сцэн	-10.9128
▁di	-10.9128
▁Роз	-10.9131
▁пастанова	-10.9132
дання	-10.9133
▁паўабаронца	-10.9133
▁ўтварае	-10.9133
▁микро	-10.9134
▁стваральнік	-10.9135
чер	-10.9138
▁прылады	-10.9141
▁верну	-10.9142
ниц	-10.9143
оты	-10.9144
▁педагагічны	-10.9145
ющее	-10.9146
▁сапраўд	-10.9149
▁варот	-10.9149
▁стороны	-10.915
▁трэцяга	-10.915
берт	-10.915
▁спецы	-10.9151
▁Таў	-10.9151
рован	-10.9153
авіцкага	-10.9156
означает	-10.9156
▁сустрэч	-10.9157
▁прыняла	-10.9158
▁адкрыва	-10.9161
эйн	-10.9162
икто	-10.9162
нного	-10.9165
▁Кірава	-10.9167
ковыя	-10.9167
Ж	-10.9169
рэння	-10.9174
▁Аса	-10.9175
▁фоне	-10.9178
▁лінзападобна	-10.9179
▁рэзідэнцыя	-10.9179
▁скрыжаванн	-10.9179
▁агент	-10.918
▁камісар	-10.9181
▁жоўты	-10.9182
▁рускія	-10.9184
▁Леанід	-10.9185
▁Друг	-10.9185
▁класс	-10.9189
▁Усход	-10.9189
▁рабілі	-10.919
▁свайм	-10.919
▁перакана	-10.9191
▁курган	-10.9191
▁первый	-10.9192
▁крама	-10.9193
▁стоит	-10.9194
▁усталяваны	-10.9195
▁занята	-10.9196
▁Рус	-10.92
мала	-10.9202
▁граматы	-10.9204
▁Атрымаў	-10.9206
▁1896	-10.9207
▁получить	-10.9208
▁істот	-10.9208
▁асаблівасці	-10.9212
▁Мілан	-10.9213
▁бамбардзір	-10.9214
▁змешчаны	-10.9214
▁Украінска	-10.9217
▁праяв	-10.9218
▁особенно	-10.9219
▁Паўднёвая	-10.9221
▁меркавання	-10.9222
▁Вялікае	-10.9223
▁Маса	-10.9223
▁сябрам	-10.9225
▁вось	-10.9226
▁сказаў	-10.9229
ell	-10.923
▁захапі	-10.9231
▁невялікім	-10.9235
ковых	-10.9236
α	-10.9237
▁недалёка	-10.9237
▁скляпенн	-10.9237
▁адыгрыва	-10.9237
▁Рычард	-10.9237
круг	-10.9238
▁получил	-10.9243
вядзе	-10.9244
▁пабудава	-10.9245
▁прыхільнікам	-10.9245
▁TED	-10.9249
▁патэнцыял	-10.9249
▁Рух	-10.925
▁цягам	-10.9252
сма	-10.9254
▁шум	-10.9255
▁анг	-10.9256
▁імаверна	-10.9261
▁выпушчаны	-10.9263
▁квантава	-10.9263
▁Мале	-10.9265
падаюць	-10.9265
▁цвёрда	-10.9272
▁Мастэрс	-10.9272
▁Ноўгарад	-10.9272
▁Гвіне	-10.9272
▁спор	-10.9272
рызм	-10.9272
▁Уэльс	-10.9275
жкі	-10.9277
▁мыс	-10.9277
▁апісвае	-10.9282
▁дэкаратыўна	-10.9283
▁шырокім	-10.9286
▁Ірак	-10.9286
▁всю	-10.9289
▁астра	-10.9291
▁тэхнічна	-10.9293
▁папулярна	-10.9293
▁меж	-10.9293
▁ўспамін	-10.9293
▁ўзбярэжж	-10.9295
ивать	-10.9295
▁рабоча	-10.9295
▁ваши	-10.9297
▁мармур	-10.9297
▁цэркваў	-10.9298
▁1898	-10.93
▁купал	-10.9302
сэн	-10.9302
▁бран	-10.9302
▁Бр	-10.9304
▁чацвёрты	-10.9307
▁карабля	-10.9307
▁уключае	-10.9307
▁Лос	-10.9309
▁Валь	-10.9309
▁1895	-10.9312
▁тканін	-10.9313
ивают	-10.9315
▁падарожжа	-10.9317
▁инструмент	-10.9318
▁гарах	-10.932
чет	-10.9324
▁назірання	-10.9327
▁Узнагароджаны	-10.933
▁пастаянны	-10.9331
▁метод	-10.9334
▁сказа	-10.9335
зоў	-10.9336
▁Між	-10.9336
▁весь	-10.9336
▁выснов	-10.9337
мель	-10.9341
▁Харватыі	-10.9342
▁яўлення	-10.9344
зур	-10.9344
▁кіламетр	-10.9345
▁нападнік	-10.9351
▁англічан	-10.9353
ычную	-10.9353
▁абмежаванн	-10.9355
нены	-10.9356
▁прыгарад	-10.9356
▁пакрыта	-10.9357
▁Кол	-10.9357
права	-10.9357
лізм	-10.9357
шына	-10.9359
▁старажытнага	-10.9359
віты	-10.936
▁невялікіх	-10.936
▁распаду	-10.9361
▁свято	-10.9363
▁фінансава	-10.9363
▁полк	-10.9364
арганіз	-10.9365
▁выконваў	-10.9365
▁данных	-10.9366
▁гвардзейска	-10.9367
▁Алег	-10.9369
▁зброя	-10.9371
▁пашыра	-10.9371
▁Анатоль	-10.9372
▁07	-10.9375
▁лясоў	-10.9377
▁адмысловы	-10.9377
▁пыл	-10.9379
віц	-10.9381
▁прафесара	-10.9385
▁крок	-10.9386
ft	-10.9387
▁людьми	-10.9389
▁сінтэз	-10.9389
▁Сталіца	-10.939
▁польскім	-10.9392
кевіча	-10.9393
▁Можн	-10.9394
тэрыя	-10.9395
стер	-10.9397
андра	-10.9399
▁ціску	-10.94
▁хвароб	-10.94
▁Швейцарыі	-10.9401
▁кажд	-10.9401
▁скарачэнн	-10.9401
▁Оскар	-10.9402
нулі	-10.9404
▁Майкл	-10.9404
▁исследования	-10.9405
▁Нёмана	-10.9406
нул	-10.9407
▁атмасферы	-10.9407
гавор	-10.9408
go	-10.9409
▁чалавекам	-10.941
▁Царквы	-10.941
▁зямно	-10.9411
▁Вашынгтон	-10.9412
▁Вярхоўны	-10.9412
▁робот	-10.9413
▁раза	-10.9414
▁Месяца	-10.9419
▁верх	-10.9419
▁новые	-10.9421
▁скончылас	-10.9423
▁хороши	-10.9424
▁медицин	-10.9424
сную	-10.9425
гел	-10.9426
▁Важн	-10.9426
▁агульная	-10.943
▁чэ	-10.9431
▁разгром	-10.9436
▁Рыба	-10.9437
▁сильно	-10.9437
▁Раней	-10.9437
значаецца	-10.9438
▁выконвае	-10.9438
камп	-10.944
▁фра	-10.9442
▁Мура	-10.9444
▁Брагін	-10.9444
бет	-10.9446
▁разных	-10.9447
▁асуджаны	-10.9447
▁агляд	-10.9448
реш	-10.9448
▁паток	-10.9449
▁забарон	-10.945
▁робя	-10.9452
▁кватэр	-10.9452
▁Сцяпан	-10.9453
▁вами	-10.9457
▁бизнес	-10.9459
-17	-10.9461
▁Ір	-10.9462
нным	-10.9462
▁заставалас	-10.9463
▁Абу	-10.9464
▁сказала	-10.9465
▁венгерска	-10.9465
▁прадпрыемстваў	-10.9466
▁08	-10.9467
▁арка	-10.9468
▁другом	-10.9469
правод	-10.9469
▁калектыў	-10.9471
нные	-10.9471
▁волі	-10.9473
ьным	-10.9473
▁сел	-10.9474
▁век	-10.9474
com	-10.9476
▁законы	-10.9481
▁Парт	-10.9484
▁павышэнн	-10.9484
▁паказаў	-10.9485
▁энергии	-10.9485
тэхнічна	-10.9485
рап	-10.9488
гэ	-10.949
даследчы	-10.9491
вазе	-10.9493
▁вусце	-10.9493
▁паўтара	-10.9494
▁Арганізацы	-10.9495
выш	-10.9497
▁дети	-10.9502
ідаў	-10.9504
▁заняты	-10.9506
▁правіл	-10.9506
▁апісанне	-10.9518
▁манарха	-10.9519
тап	-10.952
лікам	-10.9521
▁трэцім	-10.9524
▁1886	-10.9524
пут	-10.9525
▁прадукцыі	-10.9534
▁рэчывы	-10.9535
-8	-10.9536
▁ява	-10.9538
▁цвёрды	-10.9542
▁этнічны	-10.9543
▁кіслат	-10.9543
▁святога	-10.9543
▁карт	-10.9544
▁Паля	-10.9546
▁Пятровіч	-10.9549
дні	-10.955
▁Жэ	-10.9552
знікае	-10.9554
▁паспяховы	-10.9554
▁зняволенн	-10.9554
▁78	-10.9554
▁рэжысёра	-10.9559
ёз	-10.9561
▁задні	-10.9562
▁Каш	-10.9563
▁абапіра	-10.9567
дасканал	-10.9568
▁прыняць	-10.9568
▁ніжнім	-10.9569
ніста	-10.9572
джана	-10.9572
аваных	-10.9572
▁рэп	-10.9574
▁скасаваны	-10.9578
▁рассказать	-10.9579
▁належаў	-10.9579
▁архітэктурна	-10.958
▁рэлігіі	-10.9582
роджан	-10.9588
▁тэхнікум	-10.9588
▁швед	-10.9592
ющей	-10.9594
bi	-10.9596
ьная	-10.96
▁ліквідацы	-10.9602
▁Альберт	-10.9603
▁защит	-10.9606
▁секс	-10.9608
▁историю	-10.9608
луп	-10.9609
▁малюнк	-10.961
▁абмежаваны	-10.9611
Q	-10.9613
▁ганаровы	-10.9614
▁Кітаі	-10.9616
▁святых	-10.9618
▁часопісе	-10.9618
▁будаўніцтве	-10.9626
▁размясці	-10.9626
▁Сёння	-10.9626
▁Гэ	-10.9626
▁сённяшні	-10.9627
▁кітайска	-10.9628
▁самалёт	-10.9628
▁крыху	-10.963
цяр	-10.9631
▁Заба	-10.9634
▁зімовы	-10.9635
▁корм	-10.9638
▁катастроф	-10.964
▁традыцый	-10.9641
▁серб	-10.9642
▁систем	-10.9643
▁Плод	-10.9644
▁Слова	-10.9644
▁Макс	-10.9646
▁афарбоўк	-10.9647
сман	-10.9649
▁решения	-10.965
цова	-10.965
кос	-10.965
▁лінгвіст	-10.965
левіч	-10.965
▁Навагрудска	-10.965
▁доўжы	-10.9651
▁ўзначаліў	-10.9653
▁гульн	-10.9653
▁адбыва	-10.9654
▁восем	-10.9655
▁этна	-10.9657
▁Улетку	-10.966
▁Ква	-10.9661
▁фізіцы	-10.9662
▁Муз	-10.9665
▁парадак	-10.9665
▁КПБ	-10.9666
▁прыз	-10.9668
▁помн	-10.9669
▁дэбют	-10.9674
▁чацвёрта	-10.9674
▁выказаў	-10.9675
▁тыдня	-10.9677
▁браў	-10.9678
▁Смал	-10.9678
▁замежн	-10.9679
▁интересно	-10.968
▁использовани	-10.968
▁вернікаў	-10.9681
▁Бру	-10.9682
жен	-10.9682
ant	-10.9685
стаўлены	-10.9686
▁Сегодня	-10.9686
▁запаведнік	-10.9687
▁мянушк	-10.9687
▁вучняў	-10.9687
▁Генры	-10.9688
▁меркаванне	-10.969
фран	-10.9691
▁Кожны	-10.9691
над	-10.9691
▁верхнім	-10.9691
▁нерв	-10.9692
▁Старшыня	-10.9693
▁студы	-10.9694
вот	-10.9698
▁осозна	-10.9699
▁меркава	-10.9701
льды	-10.9707
▁зялёна	-10.9709
▁возраст	-10.971
▁Нідэрландаў	-10.9711
▁Пашыраны	-10.9711
▁состояни	-10.9711
▁разбурэнн	-10.9711
▁Бельгіі	-10.9711
▁групоўк	-10.9714
▁набыва	-10.9715
▁1899	-10.9716
▁дыха	-10.9716
▁Аснов	-10.9716
▁Іран	-10.9718
ному	-10.9719
▁становит	-10.972
▁Прадстаўнік	-10.9723
кера	-10.9723
ступіў	-10.9725
▁абавязкова	-10.9725
▁немцаў	-10.9725
▁пераварот	-10.9725
волі	-10.9725
▁Стэфана	-10.9726
▁наведаў	-10.9727
▁манаграфі	-10.9729
▁труд	-10.9729
▁цуд	-10.9729
▁забяспечвае	-10.973
арда	-10.9731
▁116	-10.9733
берта	-10.9734
▁юрыдычны	-10.9735
рол	-10.9735
▁Чорны	-10.9735
▁лучши	-10.9736
art	-10.9737
▁венгерскі	-10.9739
▁1861	-10.974
▁жорстка	-10.9742
▁ацэньва	-10.9747
▁рэпрэсі	-10.9747
▁завершана	-10.9747
дова	-10.9749
▁армій	-10.9749
ніч	-10.9751
▁ей	-10.9751
▁тэатральна	-10.9751
▁узроўні	-10.9752
▁скуры	-10.9752
ками	-10.9755
▁Віцебскага	-10.9756
▁Савецкі	-10.9756
▁усталява	-10.9758
▁мужчынска	-10.9759
▁лічылас	-10.976
▁федэрацы	-10.976
▁надвор	-10.9762
чин	-10.9764
заходні	-10.9764
спан	-10.9764
▁яйк	-10.9766
▁армянскі	-10.977
▁Заходні	-10.977
▁дыяметрам	-10.977
ea	-10.977
▁Ско	-10.977
патрабава	-10.9772
▁паўшар	-10.9772
▁Каралеўска	-10.9772
▁Чылі	-10.9773
▁рука	-10.9774
шчыне	-10.9777
бир	-10.9778
▁лесу	-10.9778
▁дизайн	-10.978
▁валадар	-10.9781
аўскім	-10.9781
▁ўкраінска	-10.9782
▁муніцыпалітэт	-10.9784
▁Лан	-10.9787
▁каталог	-10.9787
▁Муж	-10.9789
▁пусты	-10.9789
▁праём	-10.9794
▁адноўлена	-10.9796
стран	-10.9796
▁званіца	-10.9797
▁малодша	-10.9797
▁Генеральна	-10.9798
▁кандыдат	-10.9799
низ	-10.9801
▁шчыльна	-10.9802
▁прытрымліва	-10.9806
▁мінскі	-10.9807
▁сімвалізу	-10.9808
▁Сапега	-10.9808
▁Музыка	-10.9808
▁прызначэння	-10.981
роўка	-10.981
▁Po	-10.981
▁культуру	-10.9812
сыпа	-10.9815
▁хуткасці	-10.9818
▁атрымалася	-10.9818
▁Полацк	-10.9818
▁займалі	-10.9818
ніжэнн	-10.9823
▁грамад	-10.9824
▁прызнаў	-10.9827
мунд	-10.9831
менно	-10.9832
▁супрацоўніча	-10.9833
▁Баль	-10.9835
▁Кос	-10.9836
нет	-10.9837
▁паўфінал	-10.9837
▁Давід	-10.9838
▁апынуліс	-10.9846
▁даследчыкаў	-10.9846
▁Адкрыты	-10.9847
▁каталіцкай	-10.9848
ардын	-10.9848
лама	-10.9848
смотря	-10.9852
▁тыпаў	-10.9855
▁Грамадзянска	-10.9857
мерна	-10.9857
▁электрычны	-10.9857
▁Міл	-10.9858
▁Ленін	-10.9861
▁хотя	-10.9862
ируют	-10.9863
▁сістэмай	-10.9863
рэна	-10.9869
▁мураваны	-10.987
рха	-10.9871
▁проці	-10.9871
SC	-10.9873
прэзідэнт	-10.9875
ina	-10.9875
▁риск	-10.9881
▁против	-10.9882
▁бізнес	-10.9882
▁студент	-10.9882
▁нярэдка	-10.9882
▁губернатара	-10.9883
▁дзейніча	-10.9889
man	-10.989
▁вектар	-10.9891
▁целы	-10.9892
▁Інданезіі	-10.9894
льнасці	-10.9894
▁вырашэнн	-10.9895
ётся	-10.9897
▁перакладчык	-10.9904
▁класіцызму	-10.9905
энд	-10.9905
▁змена	-10.9907
нём	-10.9909
▁сделан	-10.9912
чыка	-10.9912
▁генеральны	-10.9915
▁and	-10.9916
трымліваюць	-10.9918
▁праводзіліс	-10.9918
▁заходнім	-10.9918
зов	-10.9919
▁яўрэйскі	-10.9919
▁рублёў	-10.992
▁1848	-10.9925
▁Ганны	-10.9926
лічаны	-10.9927
▁сітуацыя	-10.9928
▁одну	-10.9932
▁Беларус	-10.9935
▁спецыяліст	-10.9937
▁Даніл	-10.994
sta	-10.9941
▁Адэс	-10.9943
▁рэжыму	-10.9944
▁прамавугольна	-10.9944
▁Пакістан	-10.9944
▁Вілейскі	-10.9944
▁Хал	-10.9944
ation	-10.9947
est	-10.9948
▁палацы	-10.995
▁паказваю	-10.9953
▁цэла	-10.9954
падзе	-10.9957
віцы	-10.9957
▁пытання	-10.9959
▁астраном	-10.9959
▁самыя	-10.9961
▁дзеці	-10.9963
▁контрол	-10.9963
шэр	-10.9964
мені	-10.9966
лёва	-10.9967
▁арганізава	-10.9967
зан	-10.9968
▁Брэсцкі	-10.9969
▁цёмны	-10.9969
▁умацава	-10.9971
▁водны	-10.9974
▁даведа	-10.9975
▁выданні	-10.9975
жыва	-10.9977
▁Кангрэс	-10.9981
▁высокія	-10.9985
▁роўная	-10.9985
▁вырошчва	-10.9985
▁Слуцка	-10.9985
▁Зем	-10.9986
▁вызвал	-10.9989
▁крыва	-10.9989
туш	-10.999
завана	-10.9993
▁ужас	-10.9994
▁бою	-10.9994
▁фактара	-10.9998
▁глав	-11
хіл	-11.0001
▁сушы	-11.0001
▁Само	-11.0001
▁дакумент	-11.0004
▁птушкі	-11.0006
▁саборы	-11.0007
▁пут	-11.0008
▁част	-11.0009
▁называем	-11.0009
▁Віс	-11.0013
ag	-11.0015
▁камандзе	-11.0015
цель	-11.0016
▁начальнікам	-11.0016
▁эксперыментальн	-11.0016
гнута	-11.0017
▁абвяшчэнн	-11.0019
▁разнавіднасц	-11.0019
▁мол	-11.0019
▁Напалеона	-11.0025
▁99	-11.0029
▁праходзіла	-11.003
▁Белы	-11.0031
▁усходня	-11.0031
▁стварылі	-11.0031
▁Вада	-11.0033
▁рос	-11.0035
оўнік	-11.0036
one	-11.0038
▁Людовіка	-11.0039
▁ўказ	-11.0039
▁Зямля	-11.0039
лішча	-11.0044
▁адзначыў	-11.0044
▁ніякі	-11.0047
▁чём	-11.0048
ению	-11.005
▁Конрад	-11.005
▁Радзім	-11.0051
метра	-11.0052
▁объект	-11.0056
▁інтэнсіўна	-11.0056
▁рассеяна	-11.0056
прам	-11.0058
эма	-11.0058
▁Філа	-11.006
▁уздоўж	-11.0063
▁Хол	-11.0065
▁смог	-11.0065
▁фільмаў	-11.0066
▁w	-11.0068
▁сталы	-11.0068
обра	-11.007
▁прысутнасц	-11.007
▁пераважа	-11.0072
фард	-11.0075
▁3,5	-11.0075
▁Жыгімонта	-11.0075
▁аўтамабіль	-11.0076
▁дому	-11.0076
▁росквіт	-11.0081
▁Гітлер	-11.0082
▁балота	-11.0082
будоў	-11.0085
шэвіч	-11.0086
▁прымалі	-11.0087
▁ваенным	-11.0089
300	-11.009
▁версі	-11.0093
▁навакольна	-11.0094
▁мяжа	-11.0097
дык	-11.0099
что	-11.01
▁бакі	-11.01
▁злучае	-11.01
▁ним	-11.0105
▁ўбачы	-11.0107
▁падрыхтава	-11.0109
сона	-11.0109
▁Сем	-11.011
▁дацэнт	-11.0111
▁рабочы	-11.0111
нцам	-11.0111
▁калектыв	-11.0112
▁Ордэна	-11.0117
▁узрос	-11.0125
▁распаўсюджанн	-11.0126
▁1885	-11.0126
▁ўтрыманн	-11.0128
нич	-11.013
▁продолжа	-11.0131
шчаны	-11.0132
wa	-11.0136
лігі	-11.0137
▁Воль	-11.0139
▁полу	-11.0139
▁раскры	-11.0142
▁Se	-11.0144
▁Чырвонага	-11.0144
▁узброены	-11.0145
▁постоянно	-11.0146
wi	-11.0148
▁круга	-11.0151
значэнне	-11.0156
▁Руб	-11.0157
▁Будаўніцтва	-11.0157
▁канструкцыі	-11.0157
▁турэцкі	-11.0158
▁пабудаваў	-11.0159
▁футбольна	-11.0159
▁прыцягва	-11.0159
▁180	-11.0164
зра	-11.0164
▁парка	-11.0166
▁еўрапейска	-11.0167
▁выхаванн	-11.0168
▁Нансен	-11.017
▁ідэй	-11.0171
▁кого	-11.0171
▁асяроддз	-11.0172
▁грамата	-11.0172
▁изуча	-11.0172
▁носі	-11.0172
▁носьбіта	-11.0172
▁рамонт	-11.0172
помина	-11.0173
▁дума	-11.0174
▁радзім	-11.0178
▁Раб	-11.0178
▁заняпад	-11.0179
▁геаграфічны	-11.018
▁занесены	-11.018
▁родны	-11.0181
▁чэшскі	-11.0183
▁Кніга	-11.0184
res	-11.0184
▁ўплыву	-11.0185
рыд	-11.0185
ens	-11.0189
▁апублікавана	-11.0189
нгер	-11.0191
▁Берліне	-11.0193
▁Апа	-11.0194
▁компании	-11.0195
▁уключаны	-11.0195
німа	-11.0199
▁вобл	-11.0199
рун	-11.0201
вно	-11.0204
▁земляў	-11.0207
▁спартсмен	-11.0208
▁энергія	-11.0208
нёў	-11.0208
▁праводзіў	-11.0212
▁Уол	-11.0218
▁Янкі	-11.0219
▁Азербайджан	-11.0219
▁цель	-11.022
праект	-11.0221
▁маюцца	-11.0221
▁следующи	-11.0222
▁Дзень	-11.0222
раджэнн	-11.0224
▁абласны	-11.0225
▁1889	-11.0226
▁аналізу	-11.0226
▁Аўта	-11.0228
▁прылад	-11.0229
▁вайсковы	-11.023
▁аўтамабіляў	-11.0233
▁дзяржаву	-11.0234
▁выцяка	-11.0234
▁пераехал	-11.0236
▁Шо	-11.0237
▁прыпыначным	-11.0238
▁задума	-11.024
▁захоўваю	-11.0244
▁свабоды	-11.0245
сал	-11.0246
▁Узброены	-11.0246
▁пагаднення	-11.0246
▁адлюстроўвае	-11.0246
▁магазін	-11.0247
▁Пушкін	-11.0248
больш	-11.0251
▁глеба	-11.0252
▁карта	-11.0258
▁Пачынаючы	-11.0259
▁Побач	-11.0259
▁віна	-11.026
ляцыі	-11.026
▁выход	-11.026
▁прадпрыемствы	-11.0261
нці	-11.0261
pi	-11.0263
▁зняты	-11.0267
щё	-11.0268
▁замку	-11.0268
▁танк	-11.0268
▁рако	-11.0269
▁лічба	-11.027
▁Лап	-11.0271
▁Каралін	-11.0271
ападобных	-11.0271
▁святло	-11.0272
▁кулямёт	-11.0272
▁Катлавіна	-11.0272
▁навука	-11.0274
▁уладання	-11.028
▁узбярэжж	-11.0281
▁этнаграфі	-11.0282
▁арачны	-11.0283
▁адносяць	-11.0284
▁загінула	-11.0285
▁Кіеве	-11.0285
▁ЕС	-11.0287
▁строга	-11.0288
▁пахавання	-11.0289
▁творча	-11.0291
▁экспедыцы	-11.0291
енные	-11.0292
очно	-11.0296
ходзіла	-11.0296
▁Часта	-11.0296
▁адкрытым	-11.0296
▁Пухавіцкі	-11.0298
▁злачынства	-11.0298
Кашалёўск	-11.0298
▁тэмы	-11.0301
ьных	-11.0304
▁бой	-11.0306
▁міністрам	-11.0306
▁выканаўца	-11.0306
▁политик	-11.0311
▁чэшска	-11.0311
рэлі	-11.0312
▁узяў	-11.0313
▁Фёдар	-11.0314
ющая	-11.0315
▁самастойны	-11.0316
▁доля	-11.0317
▁здольна	-11.0319
нныя	-11.0319
гма	-11.0321
▁Грузіі	-11.0324
▁транспартны	-11.0324
▁уладу	-11.0327
▁духоўны	-11.0327
▁чыста	-11.0329
▁Германі	-11.0338
▁Сты	-11.0339
▁раскоп	-11.0339
▁фундамент	-11.0345
▁машыны	-11.0345
▁помоч	-11.0352
▁шляхты	-11.0353
▁Артур	-11.0358
нную	-11.0359
▁ўспрыма	-11.036
▁правах	-11.0361
▁Еўропа	-11.0362
▁Мед	-11.0363
▁вылучаны	-11.0363
▁клеткі	-11.0363
▁большой	-11.0366
кавым	-11.0366
▁казак	-11.0366
▁вызначана	-11.0367
ывать	-11.0368
▁камандаваў	-11.037
істычны	-11.0371
▁жывёлагадоўл	-11.0375
▁Балтыйска	-11.0375
▁падзення	-11.0376
▁Лявон	-11.0377
▁прагрэс	-11.0377
▁Бат	-11.038
рацыя	-11.0382
▁кажа	-11.0382
▁размяшчалас	-11.0384
▁So	-11.0385
▁еў	-11.0386
сара	-11.0386
▁Утвораны	-11.0388
▁класічнай	-11.0389
▁Коласа	-11.0389
зю	-11.039
ьё	-11.0391
вядзенне	-11.0391
пель	-11.0393
▁савецкага	-11.0393
▁кален	-11.0393
lu	-11.0394
шчын	-11.0396
▁тралейбус	-11.0401
▁ААТ	-11.0401
▁Бібліі	-11.0401
▁пераходзі	-11.0402
▁Лес	-11.0403
нічна	-11.0405
▁клубе	-11.0407
▁пачаткова	-11.0409
▁класаў	-11.041
▁войн	-11.041
оўшчык	-11.0412
▁грыб	-11.0413
пак	-11.0414
кватэр	-11.0415
▁дойлідства	-11.0415
▁этнічна	-11.0415
▁далучы	-11.0416
▁серыя	-11.0419
лекс	-11.0421
▁0,7	-11.0423
▁прадуктаў	-11.0424
▁нагадвае	-11.0427
▁мужчына	-11.0427
вели	-11.0428
▁деньги	-11.0429
бура	-11.0429
▁возможности	-11.043
тыр	-11.0431
▁1878	-11.0433
▁To	-11.0433
▁асаблівы	-11.0437
▁асновай	-11.0439
лізму	-11.044
▁рашэнні	-11.044
▁візіт	-11.0443
дзённа	-11.0447
знавец	-11.0447
▁Ин	-11.0447
▁размяшчаліс	-11.0451
▁ваду	-11.0452
▁ўтворана	-11.0453
▁Паміж	-11.0454
▁слава	-11.0454
▁каштоўнасц	-11.0455
▁перамовы	-11.0457
меша	-11.0457
авец	-11.0458
мал	-11.0466
▁окружающ	-11.0466
▁Pro	-11.0467
▁каталіцка	-11.0468
▁харчавання	-11.0468
▁размаўля	-11.0469
▁представить	-11.0469
▁Бярэзін	-11.0469
жал	-11.0471
▁абсалютна	-11.0472
▁некатор	-11.0472
▁творах	-11.0473
▁решил	-11.0473
▁мной	-11.0474
нька	-11.0474
▁ферм	-11.0477
-12	-11.0477
▁благодаря	-11.0479
▁спроба	-11.048
ступленне	-11.0481
▁супада	-11.0482
▁ўласцівасці	-11.0482
▁пастаўлена	-11.0485
▁изменения	-11.0493
▁Sb	-11.0494
▁паўна	-11.0494
▁пераходу	-11.0494
▁Кастрычніцка	-11.0496
▁Больша	-11.05
▁аспект	-11.0503
▁хаця	-11.0503
▁паселішчы	-11.0506
▁вырашана	-11.0506
▁змяніла	-11.0507
ium	-11.0507
▁рэдактарам	-11.0507
▁неё	-11.0514
▁медыцыне	-11.0514
▁прафесарам	-11.0514
▁ўмоў	-11.0515
▁пояса	-11.0516
▁дазваляю	-11.0519
▁сонечна	-11.052
▁чита	-11.0524
▁атрымаўшы	-11.0526
парадкаван	-11.0529
▁верхні	-11.0529
ris	-11.0529
▁лісця	-11.053
▁аркестра	-11.0532
▁Люд	-11.0534
надта	-11.0534
▁ўкраінскі	-11.0535
▁звання	-11.0536
скра	-11.0537
▁камісія	-11.0539
▁Вара	-11.054
▁падпісаны	-11.054
▁актывіст	-11.0541
▁асацыяцыі	-11.0545
▁Аршанскі	-11.0546
эвалюцыйн	-11.0547
▁ням	-11.0548
▁Палаты	-11.0549
▁Te	-11.055
▁1866	-11.0551
▁вырабаў	-11.0556
▁нагляд	-11.0556
▁кантролю	-11.0558
▁Барселон	-11.0558
▁аднаўлення	-11.0558
▁Кампанія	-11.0559
жар	-11.056
▁праваслаў	-11.056
тыку	-11.0561
▁Глыбоцкі	-11.0562
▁забяспечва	-11.0563
▁Фрыдрыха	-11.0563
▁мерапрыемств	-11.0567
пісала	-11.057
▁Бабруйск	-11.057
▁Саб	-11.0571
▁Гарадоцкі	-11.0572
▁капліца	-11.0572
▁схава	-11.0574
▁праліва	-11.0575
кавіч	-11.0575
▁Іаган	-11.0579
▁дробна	-11.058
мел	-11.0583
▁місіянер	-11.0585
▁Ca	-11.0585
▁зрения	-11.0585
▁прызначыў	-11.0585
ліста	-11.0585
▁Французск	-11.0589
▁Bo	-11.059
ze	-11.0592
▁выдадзена	-11.0592
▁Бак	-11.0592
▁глаза	-11.0592
▁тэму	-11.0593
▁дэпартамент	-11.0596
дель	-11.0598
▁асвет	-11.0598
графіі	-11.0599
▁дэпутатам	-11.0601
▁скар	-11.0601
▁сухо	-11.0605
▁экономик	-11.0606
▁матэматыкі	-11.0607
▁хворы	-11.0607
▁Александр	-11.0608
▁дасягнення	-11.0611
▁аднаўленне	-11.0611
▁участка	-11.0613
▁Пінск	-11.0616
▁выйгра	-11.0617
▁арган	-11.0622
▁Мікалаеў	-11.0623
▁штучны	-11.0625
▁сутак	-11.0626
зроўні	-11.0628
▁страва	-11.0628
▁Мёрскі	-11.0629
▁поиск	-11.063
▁вайскова	-11.063
▁00	-11.0631
▁даліне	-11.0631
сіна	-11.0632
▁Конечн	-11.0635
▁луга	-11.0635
▁Асноўным	-11.0635
▁серы	-11.0636
цев	-11.0636
▁Іва	-11.0636
▁разьб	-11.0636
▁снукерыст	-11.0636
ec	-11.0638
невы	-11.064
ывают	-11.0643
▁88	-11.0646
▁тонка	-11.0646
▁сярэбраны	-11.0651
▁наогул	-11.0651
▁дзяржаве	-11.0652
арт	-11.0652
▁Лігі	-11.0652
нное	-11.0654
баль	-11.0654
▁мет	-11.0655
▁верша	-11.0657
▁песню	-11.0658
бана	-11.066
дыс	-11.0663
▁Уладзіслаў	-11.0664
▁пазбаві	-11.0665
▁чалавечы	-11.0665
▁акцыя	-11.0665
▁лыж	-11.0666
▁земле	-11.0666
▁Гей	-11.0669
разуме	-11.0673
дзень	-11.0674
▁разуменн	-11.0675
бон	-11.0675
ское	-11.0675
▁людзьм	-11.0679
▁Расіяй	-11.0679
▁вывучэнн	-11.068
▁Кита	-11.0681
▁дзесяці	-11.0684
▁заснавання	-11.0684
▁працоўна	-11.0685
▁граніц	-11.0688
▁хмызняко	-11.0689
палітычны	-11.0689
▁Бяроза	-11.0689
▁верасень	-11.0691
▁найбуйнейша	-11.0691
▁финанс	-11.0691
▁начинает	-11.0692
▁дзіця	-11.0693
▁Адным	-11.0693
▁точки	-11.0693
▁артыкулы	-11.0694
сси	-11.0695
▁формаў	-11.0695
▁1888	-11.0697
носяць	-11.07
▁базы	-11.0704
▁інтэрв	-11.0704
▁кіслот	-11.0705
▁базілік	-11.0706
▁бры	-11.0706
▁туры	-11.0709
▁імёны	-11.0709
▁чыгунка	-11.0712
▁манастыры	-11.0714
▁Міністр	-11.0714
▁моста	-11.0716
▁кантралява	-11.0718
▁нізкія	-11.0719
▁Адама	-11.072
▁паветраны	-11.0722
▁ладу	-11.0725
▁Пля	-11.0725
▁Люди	-11.0727
▁параметр	-11.0728
▁чэмпіёнам	-11.0729
▁един	-11.073
▁хваля	-11.073
хопліва	-11.073
▁моц	-11.0731
▁гандаль	-11.0731
▁дадаткова	-11.0736
хара	-11.0739
▁майстар	-11.0742
ногі	-11.0742
▁грамадств	-11.0744
▁Уладзіслава	-11.0745
▁знакаміта	-11.0745
▁иметь	-11.0745
▁Людвіг	-11.0745
▁каменна	-11.075
▁пачынаю	-11.075
ou	-11.0752
▁міністраў	-11.0759
▁новае	-11.0759
▁калекцыі	-11.076
иф	-11.076
▁памераў	-11.0761
▁белага	-11.0762
▁афіцэраў	-11.0762
▁начать	-11.0764
плат	-11.0766
▁Слуцкі	-11.0769
▁гістарычнага	-11.0771
▁афармленн	-11.0772
▁He	-11.0773
▁валодал	-11.0773
che	-11.0774
▁Фан	-11.0775
▁ёзны	-11.0777
мун	-11.0779
чен	-11.0782
▁кампазітара	-11.0785
стей	-11.0787
▁Da	-11.0788
▁палк	-11.0789
▁60-	-11.079
ходят	-11.0791
▁1868	-11.0792
▁Рыгор	-11.0792
▁танка	-11.0793
▁раскопк	-11.0793
зель	-11.0793
▁падпарадкава	-11.0794
▁Працы	-11.0795
сне	-11.0796
▁такого	-11.0797
▁відавочна	-11.0799
▁Апошня	-11.0799
▁Сібір	-11.0799
ццё	-11.08
▁Хуан	-11.08
▁сімвалам	-11.0801
гера	-11.0801
▁клетка	-11.0801
▁кроп	-11.0805
▁параўнальна	-11.0808
▁героя	-11.0809
▁Алена	-11.081
стычнай	-11.0812
▁арыентацы	-11.0812
▁особ	-11.0813
▁Ігна	-11.0813
▁НАН	-11.0814
▁развіцц	-11.0816
▁чаму	-11.0816
sch	-11.0818
▁накіравана	-11.0819
монт	-11.0819
▁призна	-11.082
▁серый	-11.0821
▁будем	-11.0822
▁абмяжоўва	-11.0826
▁пярэдні	-11.0826
▁абараніў	-11.0827
ляцыя	-11.0828
▁працягла	-11.0829
▁фізік	-11.0829
▁геаграфічна	-11.0832
▁мяне	-11.0835
▁лесам	-11.0835
ладзе	-11.0839
▁говорю	-11.084
▁спыненн	-11.084
▁вызначэнн	-11.0841
хват	-11.0844
▁тэксты	-11.0846
▁законам	-11.0848
▁Валожынскі	-11.0848
▁женщины	-11.0849
▁інфармацы	-11.0851
▁займаліс	-11.0853
▁галерэя	-11.0853
▁захоўванн	-11.0854
▁Кура	-11.0854
▁аспірантур	-11.0855
фаль	-11.0855
▁выбраны	-11.0856
▁сфер	-11.0857
▁После	-11.0857
▁брама	-11.0858
адмірал	-11.0858
▁1893	-11.0858
▁маскоўска	-11.0859
▁выклікае	-11.0859
▁транспарту	-11.0859
▁дачку	-11.0862
▁Цу	-11.0864
▁клін	-11.0865
таваў	-11.0865
▁мастацкім	-11.0865
▁педагагічна	-11.0867
▁прыйшлі	-11.0867
▁Слуцк	-11.0869
лізацы	-11.0874
лькі	-11.0875
▁350	-11.0877
▁міністэрства	-11.0882
▁Што	-11.0882
▁агарод	-11.0883
▁марак	-11.0884
▁немцы	-11.0887
▁Купал	-11.089
▁Егіпет	-11.0894
▁галерэі	-11.0894
▁прафсаюз	-11.0894
▁множество	-11.0894
▁штучна	-11.0894
▁уваходзіў	-11.0896
▁Азія	-11.0901
▁адзінства	-11.0901
▁мере	-11.0902
▁салецтва	-11.0905
▁навакольны	-11.0908
▁горазд	-11.0908
▁касмічна	-11.0908
▁полно	-11.091
палітычна	-11.0913
▁яднана	-11.0914
▁канфедэрацы	-11.0921
▁парламенц	-11.0921
▁рыхтава	-11.0922
▁50-	-11.0922
▁Доў	-11.0922
▁прадстаўніц	-11.0924
▁сним	-11.0926
▁1894	-11.0926
▁1892	-11.0927
▁упадае	-11.0928
▁Кірыл	-11.0928
▁арганічны	-11.0928
▁арганізм	-11.0929
вінава	-11.093
ёвы	-11.093
▁Сямён	-11.0931
гіна	-11.0932
▁болей	-11.0932
▁ператвара	-11.0935
▁кветкі	-11.0935
▁паштова	-11.0935
▁потреб	-11.0935
▁жанаты	-11.0936
енным	-11.0936
ржы	-11.0939
меды	-11.0941
мары	-11.0942
▁біскупа	-11.0948
▁падпісанн	-11.0949
▁метрапалітэна	-11.095
ПА	-11.0951
▁арганізаваў	-11.0953
сун	-11.0955
▁настаўніц	-11.0959
▁решение	-11.0959
ерам	-11.0961
ись	-11.0963
▁распараджэнн	-11.0963
пис	-11.0964
▁пайшоў	-11.0964
▁карэнны	-11.0964
▁Залаты	-11.0965
▁работнік	-11.0966
зве	-11.0968
▁гасцін	-11.0969
▁Саха	-11.0969
▁нами	-11.097
▁фіналу	-11.0971
▁дзейнічаў	-11.0971
▁крышталі	-11.0974
▁Афганістан	-11.0976
▁прапаноў	-11.0976
▁абарончы	-11.0978
▁паражэння	-11.0978
меч	-11.0981
▁86	-11.0981
▁канчатковы	-11.0984
глядзе	-11.0986
▁слово	-11.0989
▁валодаў	-11.099
▁Карп	-11.0991
▁Жал	-11.0992
▁арганізавана	-11.0993
▁абшчыны	-11.0995
▁абавязк	-11.0998
▁краінамі	-11.1003
▁информацию	-11.1004
▁самакіравання	-11.1004
супраць	-11.1004
▁кафедра	-11.1005
▁Людовік	-11.1009
▁Альп	-11.1009
▁уніі	-11.101
▁волн	-11.1012
еўрапейск	-11.1014
▁медалё	-11.1015
▁папулярнасць	-11.1015
▁бала	-11.1017
▁узведзены	-11.1019
▁98	-11.1027
▁большинство	-11.1029
▁Гомельскі	-11.1031
▁пярэдня	-11.1032
▁папяро	-11.1034
▁разнастайнасц	-11.1036
▁галактык	-11.1038
▁1831	-11.1039
▁губ	-11.1039
▁сможем	-11.1045
▁Слабада	-11.1045
▁граждан	-11.1045
▁хронік	-11.1045
▁срэбра	-11.1045
▁Шырока	-11.1046
рку	-11.1046
▁Індыя	-11.1047
▁карабель	-11.1047
▁3000	-11.1049
ировал	-11.1049
збу	-11.1049
▁арабска	-11.105
▁саюзнікаў	-11.1051
▁кампаніяй	-11.1056
работ	-11.1058
▁Сіцылі	-11.106
▁Дон	-11.106
▁склон	-11.1066
нізм	-11.1067
рэвіч	-11.1067
етесь	-11.1068
▁арабскі	-11.107
▁выяўля	-11.107
▁працяглы	-11.107
▁віленскі	-11.1073
▁Львов	-11.1073
▁наяўнасці	-11.1073
▁слабы	-11.1075
▁Вялікія	-11.1075
▁мастацтве	-11.1077
▁заказнік	-11.1077
▁веку	-11.1079
▁сябра	-11.108
▁достиг	-11.1084
▁часця	-11.1084
▁лістоў	-11.1085
▁должна	-11.1087
▁біялагічны	-11.1087
▁бацьку	-11.1087
мона	-11.1088
▁ГЭС	-11.1089
▁гадзіннік	-11.1089
▁баках	-11.1092
▁брамнік	-11.1093
▁выдавецтва	-11.1094
▁магл	-11.1097
▁Дрэ	-11.1097
gi	-11.11
▁прылада	-11.11
▁раскол	-11.11
▁выяўленча	-11.1101
▁Адраджэння	-11.1101
▁масштаб	-11.1101
▁адзінкі	-11.1102
▁шахмат	-11.1102
▁выпраменьвання	-11.1104
скры	-11.1106
▁благо	-11.1107
▁гістарычным	-11.1108
▁Смо	-11.1109
▁Таким	-11.1114
▁Ли	-11.1121
▁Нацыянальным	-11.1121
▁y	-11.1123
рыйскі	-11.1123
▁кандыдатаў	-11.1123
▁спросил	-11.1129
▁Яраслаў	-11.1129
▁ожида	-11.1129
вель	-11.113
▁Пло	-11.1131
▁Англі	-11.1133
▁здымк	-11.1133
▁Сол	-11.1134
▁руж	-11.1134
▁палову	-11.1136
▁бліжэй	-11.1136
несла	-11.1138
чыцы	-11.1138
▁СС	-11.1139
▁Ламбардыя	-11.1143
▁принцип	-11.1143
▁кансерваторы	-11.1143
▁Валянцін	-11.1143
▁збожжа	-11.1143
▁магнітна	-11.1143
▁перавышае	-11.1143
дас	-11.1144
▁прагляд	-11.1144
hi	-11.1144
ty	-11.1146
▁1871	-11.1148
▁украінска	-11.1149
-9	-11.1152
▁Сент	-11.1152
▁долго	-11.1153
▁Вітаўта	-11.1154
▁замечательн	-11.1157
▁Японія	-11.1157
▁ляжа	-11.1158
Йорк	-11.1158
▁аэра	-11.1159
▁Архі	-11.1159
▁калегіум	-11.116
▁ратуш	-11.1163
▁перв	-11.1165
▁Транс	-11.1167
▁ёзна	-11.1168
▁адпачынк	-11.1171
Я	-11.1172
логія	-11.1173
▁Хва	-11.1176
du	-11.1179
▁ўварва	-11.118
▁Маха	-11.1182
▁псіха	-11.1183
▁Добра	-11.1183
▁Канстытуцыя	-11.1184
▁мужчынскі	-11.1184
▁Баранавіцкі	-11.1185
▁ранг	-11.1185
чышча	-11.1185
▁вещей	-11.1186
оне	-11.1192
▁круглы	-11.1193
▁гадам	-11.1194
▁работал	-11.1197
▁чырвонага	-11.1199
▁вероятно	-11.1199
▁Может	-11.1199
▁падземны	-11.1199
▁Давыд	-11.12
ўсходні	-11.1201
стка	-11.1202
▁спако	-11.1205
▁прос	-11.121
▁даследава	-11.1211
▁Br	-11.1211
▁Жыў	-11.1212
▁мэты	-11.1213
▁82	-11.1216
▁памылк	-11.1217
▁стаяў	-11.1218
шке	-11.122
сёл	-11.1221
▁выканана	-11.1222
▁ними	-11.1225
▁выканаўча	-11.1228
▁паляванне	-11.1228
хін	-11.1229
▁тер	-11.1229
▁лігу	-11.123
▁равно	-11.123
мігрант	-11.1235
▁езда	-11.1236
▁ядро	-11.124
▁четыре	-11.1241
▁аўстрыйска	-11.1241
▁федэральна	-11.1242
▁нашем	-11.1242
▁існава	-11.1243
наўскага	-11.1245
▁размяшчаюцц	-11.1245
▁матэрыяльна	-11.1245
▁боль	-11.1245
▁нашу	-11.1247
▁матэрыялу	-11.1251
▁спартыўна	-11.1255
▁Ерэван	-11.1255
▁прадметаў	-11.1256
▁пераправ	-11.1258
▁Гарба	-11.126
▁1,3	-11.1261
▁нравит	-11.1263
▁Куль	-11.1264
зіра	-11.1264
▁0,6	-11.1265
▁Месца	-11.1267
▁Элі	-11.1269
знаём	-11.1269
▁скарыста	-11.1272
лагічнага	-11.1274
▁металічны	-11.1274
▁тэксту	-11.1275
▁1867	-11.1275
былі	-11.128
▁літары	-11.128
▁уласцівасц	-11.1281
▁працягва	-11.1281
▁перашкод	-11.1282
▁ціск	-11.1282
▁праёмамі	-11.1282
тели	-11.1283
▁маленька	-11.1284
▁знішчаны	-11.1285
дэмакратычна	-11.1286
▁рассказыва	-11.1291
▁камяні	-11.1291
▁кіну	-11.1294
▁раўніны	-11.1297
▁Ніжні	-11.1298
▁Стывен	-11.1299
▁Руска	-11.1302
▁показал	-11.1309
▁рэканструкцыі	-11.1312
равання	-11.1312
▁галосны	-11.1313
▁Аляксе	-11.1313
зніклі	-11.1314
▁інфармацыя	-11.1314
псі	-11.1315
▁востра	-11.132
▁прэзідэнцкі	-11.1322
Ра	-11.1322
запіс	-11.1323
ap	-11.1326
▁Тадэвуш	-11.1326
▁жорсткі	-11.1326
▁адзначыць	-11.1326
▁статут	-11.1329
▁сколько	-11.133
▁заводзе	-11.1331
▁иног	-11.1333
▁пастанов	-11.1335
▁плямёны	-11.1339
віцкай	-11.134
▁урада	-11.1342
▁тэатральны	-11.1343
▁нафты	-11.1343
▁залоз	-11.1343
▁туда	-11.1344
▁прыналежнасц	-11.1345
▁сталіц	-11.1345
▁паэмы	-11.1347
▁Літва	-11.1348
арам	-11.1352
▁Африк	-11.1355
▁аднайменны	-11.1355
▁унутрана	-11.1355
▁тэлеканал	-11.1355
▁пляц	-11.1356
▁вырабы	-11.1357
▁Ватыкан	-11.1357
▁зорна	-11.1358
▁аўтамат	-11.1366
▁ўстановы	-11.1369
▁Шчучынскі	-11.1369
▁идеи	-11.1369
▁мэт	-11.137
▁музычных	-11.1371
▁ягад	-11.1378
▁адапт	-11.1379
▁показыва	-11.1381
вит	-11.1382
▁сцёк	-11.1383
▁задачы	-11.1383
▁евіч	-11.1383
▁мадыфікацы	-11.1384
ыходзячы	-11.1384
жава	-11.1385
▁явы	-11.1386
И	-11.1387
▁Смаленск	-11.139
▁Іаана	-11.1392
▁масіў	-11.1394
▁фарміраванне	-11.1395
▁эпідэмі	-11.1398
▁аўтарытэт	-11.1398
▁кампазіцыя	-11.1398
▁мінула	-11.1399
▁прырод	-11.1399
▁звон	-11.1404
▁друкар	-11.1404
піць	-11.1408
сет	-11.1411
▁Кацярына	-11.1412
▁архітэктарам	-11.1414
давно	-11.1419
▁азёры	-11.1419
▁Божа	-11.1423
▁такімі	-11.1424
▁батальёна	-11.1424
▁выкуп	-11.1425
чку	-11.1425
▁рыбалоўства	-11.1427
▁Тэадор	-11.1427
▁кантроле	-11.1427
ляры	-11.143
класці	-11.143
▁узрост	-11.1432
гадовай	-11.1433
▁катэгоры	-11.1436
▁вугал	-11.1439
▁Айчынную	-11.1441
▁рэгіянальны	-11.1441
▁бог	-11.1441
▁прайшла	-11.1441
бож	-11.1442
▁прыйшлос	-11.1443
▁сітуацыі	-11.1446
ny	-11.1446
бава	-11.1447
▁прадукцы	-11.1451
▁настольк	-11.1451
▁жить	-11.1454
▁Найсвяцейша	-11.1455
▁тапонім	-11.1455
▁сыравін	-11.1456
▁вонкава	-11.1456
▁пясчана	-11.1456
▁Максіма	-11.1456
▁гаворы	-11.1456
▁сонечны	-11.1457
▁пячор	-11.1457
▁прыцягну	-11.1457
▁канфлікту	-11.1457
тэхнічны	-11.1459
горы	-11.1459
▁Лаўр	-11.146
▁ансамбл	-11.146
РК	-11.146
печат	-11.1462
▁Калчак	-11.1464
-11	-11.1466
.2	-11.1467
культурны	-11.1469
▁авто	-11.1469
карычнева	-11.147
камандуючага	-11.1471
▁средств	-11.1472
0,000	-11.1473
▁фігура	-11.1476
▁рэштка	-11.1481
▁Com	-11.1483
говор	-11.1484
ο	-11.1484
▁хрыбта	-11.1484
▁взять	-11.1484
▁бяроз	-11.1485
▁тэрміна	-11.1487
▁Дэн	-11.1488
▁рэвалюцыйна	-11.1491
маш	-11.1492
▁налічвае	-11.1495
▁аднайменна	-11.1496
▁свабод	-11.1499
▁Чап	-11.15
▁здагадк	-11.15
▁84	-11.1501
▁рэлігія	-11.1506
▁улиц	-11.1507
▁супольн	-11.1511
▁палова	-11.1512
▁арганізацыю	-11.1513
▁ваявода	-11.1513
▁драўнін	-11.1513
карычневы	-11.1513
схільны	-11.1515
▁картин	-11.1516
▁сувязя	-11.1517
▁1891	-11.1518
▁вылучаю	-11.1519
▁83	-11.1519
сацыя	-11.1519
▁намесніка	-11.152
даль	-11.152
▁Імператар	-11.1521
▁ян	-11.1522
вір	-11.1526
▁кругла	-11.1527
ä	-11.1528
▁спасибо	-11.1528
▁Афрыка	-11.1528
▁плямёнаў	-11.153
▁выглядит	-11.1531
ja	-11.1534
▁бюро	-11.1534
▁перададзена	-11.1536
▁кіт	-11.1536
ируем	-11.1537
телей	-11.1537
ay	-11.1543
ировали	-11.1544
іроўкі	-11.1544
нять	-11.1544
▁гітар	-11.1545
▁право	-11.1547
АП	-11.1552
▁пачуцц	-11.1553
▁Ца	-11.1554
▁мусі	-11.1555
▁гум	-11.1556
▁Сві	-11.1556
▁напачатку	-11.1557
▁тэндэнцы	-11.1557
▁систему	-11.1558
▁170	-11.1562
▁Урал	-11.1563
ass	-11.1565
▁Палеска	-11.1566
▁Эдуард	-11.1571
▁Или	-11.1572
▁пакарання	-11.1572
▁жыла	-11.1573
▁плямён	-11.1578
▁піра	-11.1579
▁крытыка	-11.158
▁выклік	-11.158
▁узначальваў	-11.1583
▁взгляд	-11.1586
▁ядзерна	-11.1586
▁выража	-11.1587
рбан	-11.1587
рен	-11.1587
▁вызначэння	-11.1588
▁часціцы	-11.159
▁Парыжа	-11.1591
чне	-11.1598
▁выявіў	-11.1599
мета	-11.16
энцы	-11.16
▁сможет	-11.1601
▁геаграфі	-11.1602
▁приходит	-11.1603
▁высоко	-11.1604
лучаецца	-11.1607
▁найменн	-11.1609
▁здабыч	-11.1613
▁пахаванн	-11.1614
▁Выкарыстоўва	-11.1615
▁помощи	-11.1616
▁чвэрц	-11.1616
▁намінацы	-11.1619
▁маючы	-11.1621
▁Юпітэра	-11.1622
прад	-11.1622
▁партал	-11.1622
▁Андрэя	-11.1623
▁Сад	-11.1625
▁странах	-11.1625
вон	-11.1626
ron	-11.1628
▁Чорна	-11.1629
▁смяротна	-11.1631
▁модул	-11.1631
▁калонія	-11.1632
▁вывучае	-11.1633
▁рухавіко	-11.1634
ходны	-11.1636
▁пойм	-11.1637
▁Сака	-11.1639
▁нечто	-11.1639
▁браты	-11.1642
▁кабінет	-11.1645
▁падвярга	-11.1645
▁одном	-11.1646
▁фіна	-11.1648
▁Папы	-11.1651
▁намного	-11.1651
рба	-11.1652
▁Клуб	-11.1653
▁второ	-11.1653
-25	-11.1656
▁Кароль	-11.1659
▁экіпаж	-11.166
▁96	-11.166
▁авіяцыі	-11.166
▁Усё	-11.166
▁поколени	-11.166
наўка	-11.1663
▁адмов	-11.1666
▁нос	-11.1669
▁вообще	-11.1674
▁Афіцыйна	-11.1674
▁мяркую	-11.1674
▁тыдзень	-11.1676
▁Германіяй	-11.1677
▁работаю	-11.1677
плаў	-11.1678
▁называюцца	-11.1678
▁ўступіў	-11.1678
▁Вільню	-11.1679
▁дынастыя	-11.1679
▁1840	-11.1684
▁Na	-11.1685
▁арк	-11.1686
▁ектам	-11.1687
▁Пабудаваны	-11.1687
▁майстэрні	-11.1689
▁функцый	-11.1689
▁раньше	-11.1689
▁канцэнтрацы	-11.1689
▁інтэрнэт	-11.1689
▁Паўладарска	-11.1689
▁старост	-11.1691
▁случай	-11.1691
▁патрыярха	-11.1692
▁высокая	-11.1692
▁Вільгельма	-11.1694
алізацыі	-11.1695
▁юрыдычна	-11.1696
▁вулкан	-11.1699
емых	-11.1699
ским	-11.1702
чор	-11.1703
▁посмотреть	-11.1704
▁дэлегацы	-11.1704
▁мёртв	-11.1704
▁ўключаны	-11.1704
▁аказала	-11.1705
▁ліній	-11.1706
▁сцвярджае	-11.1708
▁распаўсюджванне	-11.171
готов	-11.1713
▁Кубак	-11.1713
▁Сенат	-11.1715
ирование	-11.1717
▁соглас	-11.1719
▁філасофскі	-11.1719
▁Міцкевіч	-11.1719
▁нужны	-11.172
▁секцы	-11.1722
▁прызначана	-11.1724
гро	-11.1724
▁1850	-11.1725
▁стране	-11.1729
▁Стэн	-11.1732
▁найважнейшы	-11.1734
▁пацярпеў	-11.1734
▁Кандыдат	-11.1734
▁адмыслова	-11.1734
▁куда	-11.1735
▁словах	-11.1735
рб	-11.1736
▁сербска	-11.1737
казвае	-11.1738
oc	-11.1739
германск	-11.1739
▁Дэвід	-11.1739
цці	-11.174
▁пагадзі	-11.1744
▁пакаленн	-11.1748
▁эволюци	-11.1748
▁граніт	-11.1749
▁утварае	-11.1751
▁Дэмакратычна	-11.1753
▁элементам	-11.1754
▁загадз	-11.1756
▁Ашмянскі	-11.1757
▁руку	-11.1757
▁займала	-11.176
▁акадэмія	-11.1763
▁вапняк	-11.1763
▁ўздзеянн	-11.1763
▁знайшоў	-11.1764
▁ачкоў	-11.1764
▁пазіцыя	-11.1766
▁школах	-11.1767
▁теле	-11.177
▁жыць	-11.1771
▁распрацавана	-11.1774
▁0,8	-11.1774
▁даступны	-11.1775
вис	-11.1776
▁Ba	-11.1776
▁клетки	-11.1778
нанс	-11.1779
▁вінаград	-11.1779
▁захопнікамі	-11.1779
▁Ніжэй	-11.178
▁сястры	-11.1782
нтэр	-11.1783
▁адценн	-11.1784
▁Пружан	-11.1785
ys	-11.1786
▁знаходк	-11.1788
ызацыі	-11.1789
▁Пле	-11.1791
▁фраз	-11.1792
▁сакратара	-11.1792
штаце	-11.1792
▁перемычка	-11.1793
▁авалода	-11.1793
▁мяркуе	-11.1793
▁вольна	-11.1794
писать	-11.1795
ff	-11.1796
▁есы	-11.1797
лаўскага	-11.1798
▁гімн	-11.18
▁1887	-11.18
троп	-11.18
▁Гол	-11.1801
▁ежы	-11.1804
раваць	-11.1804
▁партыйны	-11.1807
▁эміграцыі	-11.1807
▁луч	-11.1807
▁актрыса	-11.1808
▁фатаграфі	-11.1808
▁дэпартамента	-11.181
▁Кля	-11.1819
рэдку	-11.1821
ts	-11.1822
▁Вёска	-11.1823
▁Магілёва	-11.1823
▁каралевы	-11.1824
▁радзіму	-11.1825
▁тракт	-11.1828
▁1881	-11.1829
▁паліт	-11.183
▁скончыла	-11.1831
тограф	-11.1831
овали	-11.1836
чко	-11.1839
▁аўтамабіля	-11.1839
▁тэлефон	-11.1839
▁Майстар	-11.1839
спект	-11.1843
▁турніра	-11.1845
▁Ком	-11.1846
пит	-11.1848
моцн	-11.185
▁81	-11.1853
гард	-11.1855
▁элемента	-11.1856
▁пути	-11.1856
▁крыніцай	-11.1857
▁1879	-11.1859
▁працягнуў	-11.186
▁1884	-11.186
▁асобін	-11.1861
▁миллиард	-11.1862
▁апарата	-11.1863
алагічных	-11.1864
▁собственно	-11.1865
росла	-11.1865
роўні	-11.1867
▁прынесл	-11.1867
▁кісларод	-11.1868
▁спажыва	-11.1869
тацыі	-11.187
▁ўключаю	-11.187
▁Ja	-11.1871
▁паказаны	-11.1872
▁групе	-11.1873
sk	-11.1876
▁Віленскі	-11.1878
▁велізарны	-11.1879
▁квадратны	-11.188
чыкаў	-11.1881
▁эффект	-11.1883
▁падраздзялення	-11.1883
▁Прыклад	-11.1885
▁валоданне	-11.1885
▁Вяліка	-11.1887
▁Старо	-11.1888
▁Кіпр	-11.1891
▁Вос	-11.1891
▁Дзевы	-11.1893
▁ўплыва	-11.1893
▁меншы	-11.1895
▁делаем	-11.1897
▁тэхналогіі	-11.1898
▁вонкавы	-11.19
▁лап	-11.19
▁крызіс	-11.1901
▁Бабруйска	-11.1901
▁1882	-11.1906
▁літоўскай	-11.1908
▁хотят	-11.1908
▁магутнасць	-11.191
▁Францыю	-11.1914
▁ўзаема	-11.1914
▁жыло	-11.1915
▁даследаванне	-11.1917
▁велізарн	-11.1917
▁смак	-11.1917
▁судова	-11.1922
▁сім	-11.1922
▁матыв	-11.1924
жур	-11.1925
▁Lo	-11.1925
первых	-11.1928
▁рабоце	-11.1929
▁цесна	-11.1929
▁спыня	-11.1929
▁сцяны	-11.193
▁думать	-11.1932
-30	-11.1932
▁разгар	-11.1934
веднік	-11.1934
▁праграму	-11.1935
энт	-11.1937
▁калоні	-11.1939
▁трас	-11.1939
▁востры	-11.1941
▁Ў	-11.1942
▁Клім	-11.1943
▁понимани	-11.1944
▁гулец	-11.1944
▁имеют	-11.1944
▁подобны	-11.1945
▁сярэдняга	-11.1945
▁прадукты	-11.1948
▁выдатна	-11.1949
▁урадам	-11.1949
▁имею	-11.195
▁Барысаўскі	-11.1951
▁органам	-11.1954
▁струн	-11.1955
▁арыстакраты	-11.1956
авецца	-11.1958
▁ma	-11.1958
▁гарадзішча	-11.1959
▁кашталян	-11.1959
▁половин	-11.1959
пур	-11.196
▁Васілевіч	-11.1961
▁Турын	-11.1962
тебя	-11.1965
транс	-11.1966
▁робі	-11.1968
▁афіцыйным	-11.1969
▁усходні	-11.1969
лагічн	-11.1973
▁ресурс	-11.1974
▁пазнаёміў	-11.1974
▁Амаль	-11.1976
ko	-11.1978
▁колеры	-11.1979
нтер	-11.1981
▁Wi	-11.1982
▁правядзенне	-11.1982
порт	-11.1984
▁le	-11.1985
▁Галоўным	-11.1987
▁правда	-11.1987
штаб	-11.1989
▁апісання	-11.1991
мэн	-11.1993
▁район	-11.1993
▁дыска	-11.1994
▁Камуна	-11.1995
▁производств	-11.1996
▁AM	-11.1997
нтрап	-11.1998
▁Баранавічы	-11.1999
▁імкненн	-11.2
▁Дамінік	-11.2002
эвалюцыі	-11.2003
▁Хорошо	-11.2005
▁Старажытны	-11.2005
▁працоўных	-11.2005
▁воласць	-11.2005
400	-11.2009
мата	-11.201
▁Тэатр	-11.2011
▁карты	-11.2011
▁дел	-11.2013
▁пяск	-11.2017
▁саветнік	-11.2017
▁Кампа	-11.2018
▁какие	-11.2019
▁энцыклапеды	-11.202
гранічн	-11.2021
▁произошло	-11.2022
▁султана	-11.2022
▁каро	-11.2023
Ві	-11.2023
▁медалі	-11.2026
▁зверху	-11.2029
графія	-11.203
Ёрку	-11.203
▁прычыне	-11.2032
▁адлюстроўва	-11.2032
▁сіні	-11.2032
крас	-11.2033
адварот	-11.2035
▁изменени	-11.2035
▁візантыйска	-11.2035
▁непадалёк	-11.2035
▁Скарыны	-11.2035
▁драматычны	-11.2036
▁Шлях	-11.2036
▁Чорнага	-11.2036
рет	-11.205
▁Багдановіч	-11.205
▁праяўля	-11.2052
▁імпульс	-11.2055
▁камандавання	-11.2055
жение	-11.2056
▁1800	-11.2058
▁Бала	-11.2058
▁пуш	-11.206
▁Дабра	-11.2062
▁удзелам	-11.2062
нізму	-11.2062
▁Арк	-11.2066
▁аповесці	-11.2066
ющего	-11.2068
▁1,6	-11.2076
▁ранейшы	-11.2078
теля	-11.2081
▁НКУС	-11.2081
▁пляменнік	-11.2081
▁Стэ	-11.2083
▁захаваць	-11.2083
▁кодэкс	-11.2083
▁ўсталяваны	-11.2086
дальше	-11.209
▁Лук	-11.209
▁найбольшы	-11.2091
▁пачатк	-11.2096
▁вучылішчы	-11.2096
▁Віт	-11.2097
▁эсэ	-11.2097
rk	-11.2097
▁спадарожніка	-11.2097
▁паверхню	-11.2098
ляет	-11.2102
▁Vi	-11.2104
▁жыл	-11.2105
▁стуж	-11.2106
▁камбінат	-11.2107
бол	-11.2108
▁прадмет	-11.2111
▁Скар	-11.2111
▁сяржант	-11.2112
▁меліярацыйны	-11.2112
▁працэсы	-11.2113
▁адбывалас	-11.2118
▁гадзіны	-11.2123
▁кле	-11.2123
▁x	-11.2123
ud	-11.2124
культурна	-11.2126
▁Карагандзінска	-11.2127
▁гульцоў	-11.2127
▁97	-11.2127
▁Мядзельскі	-11.2127
▁камуністычна	-11.2128
▁націск	-11.2129
▁калгаса	-11.2129
▁двига	-11.2129
▁адпраўля	-11.213
▁Юрыя	-11.2132
▁павялічва	-11.2133
▁спрэчк	-11.2135
даючы	-11.2135
▁Брэста	-11.2137
▁задум	-11.2139
▁жыво	-11.2139
маз	-11.214
тки	-11.2141
▁футбол	-11.2142
7,5	-11.2143
▁дыяпазон	-11.2143
▁міліцы	-11.2144
▁1796	-11.2146
▁саветаў	-11.2146
▁Праект	-11.2147
▁1862	-11.215
▁прыкладам	-11.215
▁Sp	-11.2152
▁сінгл	-11.2153
абудовы	-11.2155
▁таўшчын	-11.2155
▁перс	-11.2155
нікненн	-11.2156
▁налічвалася	-11.2157
▁Сера	-11.2158
▁травяністы	-11.2158
▁дзейнічал	-11.2159
▁месте	-11.2159
▁узяты	-11.216
▁пабудова	-11.216
▁вірус	-11.216
бела	-11.2163
▁являют	-11.2163
▁хлеб	-11.2165
▁Усходзе	-11.2167
▁электронны	-11.217
▁медыцыны	-11.2172
▁Васіля	-11.2174
▁любим	-11.2174
▁гарадамі	-11.2175
бес	-11.2179
ip	-11.218
знать	-11.2184
▁мары	-11.2185
▁Ост	-11.2188
▁Кто	-11.2188
▁пашырэнне	-11.2189
▁Петраград	-11.2189
▁амерыканскага	-11.2192
▁утрымліва	-11.2196
▁Рэч	-11.2197
▁апавяданняў	-11.2198
▁даліны	-11.22
нікава	-11.2201
▁бед	-11.2203
▁дададзены	-11.2205
▁интернет	-11.2205
▁накіроўва	-11.2205
▁падручнік	-11.2205
▁мел	-11.2206
ніверсітэ	-11.2208
▁огромны	-11.2213
▁Алекс	-11.2214
▁усю	-11.222
▁Еўропу	-11.222
▁трамвай	-11.222
▁календары	-11.2221
▁аўтаматычна	-11.2221
▁паліцыі	-11.2221
▁Маўр	-11.2221
▁хочет	-11.2221
фантаст	-11.2221
▁развити	-11.2228
▁1876	-11.2228
▁трудно	-11.2228
Ю	-11.223
Заходня	-11.223
бед	-11.2232
▁размяшчэнне	-11.2233
▁радыус	-11.2233
▁чырвоным	-11.2233
▁закрыты	-11.2236
▁Польшчу	-11.2236
▁Хрысціян	-11.2236
▁вугла	-11.2237
▁Высока	-11.2237
▁Рускай	-11.2239
▁яркі	-11.2241
▁арэнд	-11.2244
▁моё	-11.2244
ect	-11.2247
ходить	-11.2248
▁кветка	-11.2251
▁Югаславіі	-11.2252
▁области	-11.2252
▁Варта	-11.2255
люс	-11.2256
учиться	-11.226
▁шляхецка	-11.2265
▁Паўста	-11.2267
▁источник	-11.2267
▁сельсавеце	-11.2267
▁дыплом	-11.2267
▁паўстанцаў	-11.2268
tra	-11.2271
-21	-11.2272
шки	-11.2272
▁говори	-11.2276
▁включа	-11.228
▁рак	-11.228
▁ВУП	-11.2283
▁Кіраўнік	-11.2283
▁атрымліваюць	-11.2292
▁Стар	-11.2293
▁крайне	-11.2295
▁каналаў	-11.2295
▁дакладны	-11.2297
▁чалавецтва	-11.2299
▁Венгрыя	-11.23
▁саступіў	-11.2307
вядома	-11.2308
▁пераведзены	-11.2309
▁вадарод	-11.2312
▁бюджэт	-11.2314
▁паўвостраў	-11.2314
▁факультэце	-11.2314
▁пясчаныя	-11.2314
▁Свіслач	-11.2314
▁рэакцыі	-11.2314
▁основан	-11.2315
▁социальны	-11.2317
▁распачаў	-11.2318
▁Кук	-11.2319
▁падпарадкаваны	-11.2321
▁аўтары	-11.2323
▁Гродзенскім	-11.233
▁выяўленн	-11.233
▁Эпі	-11.2331
▁Куп	-11.2333
▁тэмператур	-11.2335
▁попыт	-11.2335
▁прызнанне	-11.234
▁партызанскі	-11.234
▁Лідскі	-11.2341
пісаны	-11.2344
ist	-11.2344
▁заданн	-11.2345
▁Нідэрланды	-11.2346
▁Працягласць	-11.2346
▁абвяшча	-11.2346
▁літургі	-11.2346
▁ўвайшоў	-11.2346
▁воздух	-11.2346
▁уваход	-11.2346
▁месяцев	-11.2348
▁Ер	-11.2348
▁скорасц	-11.2349
▁стаял	-11.2349
▁сыгра	-11.2349
▁прывёў	-11.235
трымліваць	-11.235
▁Адно	-11.2354
ично	-11.2356
Z	-11.2356
▁апісаны	-11.2357
▁смотри	-11.2358
▁энерги	-11.2358
▁аконны	-11.236
ющим	-11.236
▁ўключана	-11.2362
▁філасофі	-11.2365
▁захаваны	-11.2366
тивны	-11.2366
▁перыядычна	-11.2367
▁плод	-11.2369
▁нейрон	-11.2369
▁Гідра	-11.237
▁Круп	-11.2371
рокі	-11.2372
▁самалёта	-11.2374
▁Тарас	-11.2376
▁малітоўн	-11.2378
▁использовал	-11.2378
ran	-11.2378
руша	-11.2379
▁выступіл	-11.238
▁аднайменнай	-11.238
нными	-11.2383
палітычную	-11.2384
▁кіп	-11.2385
▁Навуковы	-11.2386
▁Маршал	-11.2386
▁взял	-11.2387
▁зычны	-11.2388
▁итог	-11.2389
▁прадстаўляе	-11.2392
▁период	-11.2393
▁Песня	-11.2393
▁пароды	-11.2395
▁пірамід	-11.2396
▁знал	-11.2396
▁пазіцы	-11.2397
▁рускім	-11.2398
▁захаванне	-11.2401
▁часовы	-11.2401
▁вопросы	-11.2402
▁1865	-11.2402
▁пражывання	-11.2404
▁выключа	-11.2406
▁скліка	-11.2407
▁демократи	-11.2409
▁сообществ	-11.2409
▁хры	-11.2409
▁ідэал	-11.241
▁градус	-11.241
▁багоў	-11.241
ive	-11.2413
▁900	-11.2414
стычна	-11.2415
▁асветы	-11.2416
▁Цела	-11.2416
▁рухавіка	-11.2417
▁асад	-11.2417
▁огромно	-11.2418
▁Мсціслаў	-11.2418
▁видели	-11.2419
ik	-11.2419
▁бачна	-11.242
▁Вэ	-11.2422
▁архіпелаг	-11.2423
груд	-11.2424
▁найстарэйшы	-11.2425
▁завярша	-11.2425
чик	-11.2425
▁спустя	-11.2426
▁пяс	-11.2427
end	-11.2427
▁лясно	-11.2428
▁Гале	-11.2428
ізацыя	-11.2428
▁пашырана	-11.2429
▁прыродна	-11.2429
▁адсутнічае	-11.243
піл	-11.2431
▁паэм	-11.2435
▁тыпы	-11.2435
▁ідэалогі	-11.2439
▁напружанн	-11.2441
▁эпізод	-11.2441
▁Адольф	-11.2441
▁рэсурс	-11.2442
ноўскі	-11.2442
▁дзяцінства	-11.2443
▁модель	-11.2443
▁Цэнтральнага	-11.2445
ian	-11.2445
▁дзеячаў	-11.2445
▁консул	-11.2446
▁125	-11.2447
▁лін	-11.245
шава	-11.245
son	-11.245
▁каляндар	-11.2451
▁Кругл	-11.2452
▁позні	-11.2456
▁кампаній	-11.2457
▁шанава	-11.246
▁Наступны	-11.2461
▁старшын	-11.2461
▁Ідэ	-11.2463
▁Адной	-11.2463
▁1,4	-11.2464
▁высокага	-11.2465
▁Аргенцін	-11.2466
лівасць	-11.2469
▁Іаан	-11.247
▁вытворн	-11.247
▁Чэхаславакіі	-11.2471
▁Еўрабачанне	-11.2473
▁каэфіцыент	-11.2473
▁ребёнк	-11.2473
▁трагеды	-11.2473
▁ўпраўлення	-11.2473
▁розум	-11.2473
▁Германска	-11.2474
▁Палесцін	-11.2474
▁сажалк	-11.2475
▁рэспублік	-11.2475
▁сук	-11.2476
кель	-11.2478
▁Усходу	-11.2479
▁самалётаў	-11.2479
▁Удзельніча	-11.2481
▁танкава	-11.2483
дынг	-11.2484
▁Гава	-11.2484
▁слыш	-11.2486
▁бераго	-11.2487
▁кавалер	-11.2489
▁Верагодна	-11.2489
▁заўважы	-11.2489
▁падрыхтоўц	-11.2489
▁дыпламатычны	-11.249
шел	-11.249
▁Заснавальнік	-11.249
▁запар	-11.2491
▁ездзе	-11.2493
▁ніжні	-11.2494
▁належал	-11.2496
▁Полацкай	-11.2497
Кар	-11.2503
▁забалочана	-11.2505
▁плыні	-11.2505
▁напаў	-11.2508
▁плоскі	-11.2509
▁Ірана	-11.2509
▁жывы	-11.2511
▁кольца	-11.2512
ццю	-11.2512
▁настоящ	-11.2512
ўстойлів	-11.2514
▁нявы	-11.2514
▁Знак	-11.2517
▁згуляў	-11.2517
▁размяшчэння	-11.252
▁Егіпце	-11.2521
▁адпраўлены	-11.2521
▁соедин	-11.2521
▁климат	-11.2521
▁павелічэнн	-11.2522
▁успех	-11.2522
▁пратакол	-11.2522
▁балгарска	-11.2522
▁памочнік	-11.2528
▁лідараў	-11.2531
шэль	-11.2531
▁Канадзе	-11.2531
левы	-11.2531
▁тэмп	-11.2535
▁Абрам	-11.2536
▁праектаў	-11.2537
▁Вайніловіч	-11.2537
▁ўсходнім	-11.2541
▁даход	-11.2542
▁ответил	-11.2542
▁кіруе	-11.2544
▁кем	-11.2545
▁грамадзянін	-11.2548
▁эліт	-11.2549
▁организаци	-11.2551
дачы	-11.2551
▁нка	-11.2551
▁пяты	-11.2552
▁фабрыка	-11.2553
▁Возможно	-11.2553
▁ахоўва	-11.2554
▁адтулін	-11.2555
▁Маскоўскі	-11.2556
uc	-11.2561
▁прынц	-11.2561
очка	-11.2564
▁позволя	-11.2565
up	-11.2565
5,5	-11.2569
▁лаборатори	-11.2569
▁паляпшэнн	-11.2569
лавічы	-11.257
▁05	-11.257
мира	-11.257
▁вывад	-11.2571
▁высок	-11.2571
▁Бітва	-11.2572
▁создал	-11.2576
▁Мантэ	-11.2576
▁Міла	-11.2577
нізава	-11.2581
энс	-11.2583
▁Якаў	-11.2584
друг	-11.2584
▁Зате	-11.2588
▁93	-11.2588
▁галава	-11.2592
▁арыгінальны	-11.2593
▁1875	-11.2593
▁урач	-11.2596
▁Ол	-11.2598
▁Вільнюс	-11.2599
▁среди	-11.2599
so	-11.2601
▁СМІ	-11.2602
▁каралёў	-11.2604
стыка	-11.2607
▁бачны	-11.2609
▁спецыялістаў	-11.261
und	-11.2611
▁87	-11.2611
▁пеш	-11.2612
▁Славы	-11.2612
zi	-11.2613
лейтэнант	-11.2614
▁университет	-11.2618
▁уровень	-11.2618
▁тэхніка	-11.2619
цінскі	-11.2621
▁латыш	-11.2621
▁любоў	-11.2621
▁вылучаюць	-11.2627
▁спыніла	-11.2627
знаўца	-11.2628
▁Эрык	-11.2629
▁Хер	-11.263
лагічнай	-11.2631
▁Вясн	-11.2633
▁БАТЭ	-11.2634
▁Европ	-11.2634
▁Узбекістан	-11.2634
▁теори	-11.2634
дзельнічаў	-11.2635
▁КА	-11.2636
▁батанік	-11.2637
хвост	-11.2638
▁герой	-11.264
▁необходим	-11.2645
▁запис	-11.2647
▁стромкі	-11.265
▁паняцця	-11.2651
▁пагража	-11.2651
ючай	-11.2652
▁валодаю	-11.2653
мела	-11.2654
▁Мес	-11.2656
▁адзінага	-11.2657
▁запісаў	-11.2657
▁1820	-11.266
▁атрады	-11.2661
каталіцка	-11.2664
▁падабенства	-11.2667
▁скульптура	-11.2671
▁знакам	-11.2672
▁моцным	-11.2673
▁1873	-11.2673
▁Польскага	-11.2673
▁невероятно	-11.2675
павядаюць	-11.2682
▁World	-11.2683
▁определен	-11.2683
▁Салігорск	-11.2683
вард	-11.2689
▁105	-11.2689
▁1877	-11.269
▁Анатол	-11.2692
▁прадстаўнікам	-11.2693
эмп	-11.2694
▁жывых	-11.2696
▁дзяржавамі	-11.2697
▁справядліва	-11.2699
▁прыгажосц	-11.27
быць	-11.27
▁поўным	-11.27
▁Вілейска	-11.2701
вших	-11.2703
▁Грын	-11.2706
▁Ізраіль	-11.2706
свяц	-11.2707
▁ледзь	-11.2708
con	-11.2708
▁комнат	-11.2709
▁1814	-11.271
▁дакументы	-11.2711
▁человеческо	-11.2713
▁здзейсні	-11.2713
▁суха	-11.2713
▁гравюр	-11.2716
▁яўляцца	-11.2716
▁1772	-11.2717
▁нарэшце	-11.2719
▁Выбар	-11.2719
дзённы	-11.2721
▁павыша	-11.2723
▁лацінскі	-11.2724
▁раніц	-11.2724
▁1815	-11.2724
▁тэкстаў	-11.2725
▁пазнейшы	-11.2729
▁Значна	-11.273
▁мяня	-11.2731
▁гармон	-11.2732
▁плохо	-11.2732
▁уровне	-11.2733
▁атрыманн	-11.2735
▁гвалт	-11.2738
пір	-11.274
▁Его	-11.2741
▁падатка	-11.2742
нсульт	-11.2743
▁Юлія	-11.2744
▁Босніі	-11.2749
▁дырыжор	-11.2749
▁небяспек	-11.2749
▁уступіў	-11.2749
▁организм	-11.275
▁набліжа	-11.275
▁далучана	-11.2752
▁получает	-11.2755
▁Ленінградска	-11.2758
▁прадметы	-11.2758
▁сканчэнн	-11.2759
▁абазнача	-11.276
▁Турцыя	-11.2762
▁заключэнн	-11.2764
▁Яно	-11.2765
▁рэальны	-11.2765
▁населения	-11.2765
▁пісьменніц	-11.2765
▁прамым	-11.2765
▁клетак	-11.2766
▁Статут	-11.2766
▁сенатар	-11.2767
▁выпуску	-11.2767
▁архіпелага	-11.2768
▁Паўночным	-11.2768
▁аркестр	-11.2773
per	-11.2774
гранна	-11.2776
▁Заходнім	-11.2776
▁аналаг	-11.2779
▁тагачасна	-11.2781
чыкам	-11.2784
▁Фёдара	-11.2784
ДУ	-11.2784
▁сербскі	-11.2784
Ман	-11.2786
▁Лагойскі	-11.2787
▁развод	-11.2789
▁падтрымліваў	-11.279
▁здрад	-11.279
▁Роберта	-11.279
▁ўмацава	-11.2794
сярэдзіне	-11.2795
дыян	-11.2797
▁Евангелля	-11.2797
6,5	-11.2798
▁акупіравана	-11.2798
▁фестываль	-11.2798
▁нараджэнн	-11.2798
▁металаў	-11.28
▁завяршыў	-11.2802
▁мона	-11.2805
▁мільён	-11.2807
▁атакава	-11.2807
▁знакаў	-11.281
рэцкі	-11.2812
▁працягвалас	-11.2812
▁Астравы	-11.2814
▁пісьмо	-11.2814
ставіць	-11.2814
ا	-11.2814
▁Скончыла	-11.2814
▁сацыялістычна	-11.2815
▁Сучасна	-11.2815
▁отвеча	-11.2815
▁Сонечна	-11.2816
▁Жыве	-11.2819
вижу	-11.2821
ового	-11.2821
▁продкаў	-11.2827
vo	-11.2828
▁пашырэння	-11.2828
▁аграгарадк	-11.2831
▁дрэвы	-11.2831
▁вяселл	-11.2831
▁Гродне	-11.2832
▁водо	-11.2832
▁бомб	-11.2837
▁злучэння	-11.2837
▁распрацаваў	-11.2847
▁Магілёве	-11.2848
▁Леапольд	-11.2848
▁мяккі	-11.2848
▁эстафе	-11.2848
▁животных	-11.2848
рэц	-11.2849
▁насілі	-11.285
▁новост	-11.285
▁прымаю	-11.2854
▁тычы	-11.2854
▁тавар	-11.2856
▁Ушацкі	-11.2858
▁Оль	-11.2861
▁неабходнасц	-11.2862
▁Бабруйскі	-11.2863
OS	-11.2864
▁Google	-11.2864
▁счастлив	-11.2864
▁халодны	-11.2865
▁Сенненскі	-11.2865
▁пс	-11.2865
▁легко	-11.2866
▁посуд	-11.2868
▁пять	-11.2871
▁аўтадарог	-11.2872
▁пісьмова	-11.2872
▁карысталіс	-11.2872
▁хуткім	-11.2874
ратар	-11.2874
▁прымяня	-11.2875
▁пальм	-11.2876
▁Шан	-11.2878
▁Альбрэхт	-11.2881
▁публічна	-11.2881
▁Прызавы	-11.2881
▁свабоду	-11.2881
▁запісаны	-11.2886
▁царквой	-11.2887
джэр	-11.2888
▁технология	-11.2888
▁Кун	-11.289
▁лідарам	-11.289
чыкі	-11.2891
▁мац	-11.2892
▁галавы	-11.2892
▁пакрыва	-11.2893
▁звярнуў	-11.2895
za	-11.2896
▁91	-11.2897
▁Заснавана	-11.2898
▁аднолькавы	-11.2898
вяк	-11.2899
▁абарот	-11.29
▁собственны	-11.29
▁знешн	-11.29
▁выкліканы	-11.2901
▁нядзел	-11.2908
▁Зараз	-11.2909
▁забалочаныя	-11.2911
нейша	-11.2911
▁заканадаўства	-11.2912
▁92	-11.2912
▁падтрымка	-11.2913
▁Ісландыі	-11.2914
▁Амундсен	-11.2914
▁пераназва	-11.2914
▁трэнерам	-11.2915
▁Інг	-11.2915
▁пастаноўк	-11.2916
▁Чарна	-11.2916
▁распрацоўкі	-11.2916
▁палітыцы	-11.2916
▁полюса	-11.2917
▁Тэле	-11.2917
▁барацьба	-11.2917
▁заход	-11.2918
land	-11.2921
▁Хор	-11.2923
▁прошло	-11.2923
▁плён	-11.2926
▁пашкоджанн	-11.2931
▁Чарльз	-11.2931
▁Каралеўскі	-11.2932
▁89	-11.2933
▁каштоўнасцей	-11.2933
▁Аўстрыйска	-11.2936
▁пята	-11.2936
▁79	-11.2936
страл	-11.2939
▁сяр	-11.2939
▁шматгадовы	-11.294
▁знішчыў	-11.294
▁Канстанцінопаль	-11.2941
ніцтв	-11.2944
▁Месяц	-11.2947
▁тэхналогій	-11.2948
▁прадмесц	-11.2948
▁мура	-11.2952
кард	-11.2952
▁заходне	-11.2954
нструкцы	-11.2958
▁журнал	-11.2961
▁увидел	-11.2961
▁знать	-11.2962
▁гістарыяграфі	-11.2964
▁рэчаіснасц	-11.2964
▁правильно	-11.2965
▁знайшлі	-11.2965
▁халодна	-11.2965
▁віленска	-11.2965
▁Тогда	-11.2966
▁говоря	-11.2966
▁смысл	-11.2967
▁сцэне	-11.2967
▁удзельніча	-11.297
▁мовамі	-11.2972
-13	-11.2976
▁дэмакратычна	-11.2977
▁кірунак	-11.2981
▁могілкі	-11.2981
▁Італію	-11.2981
020	-11.2981
▁Армянска	-11.2982
▁дзікі	-11.2982
▁сучаснік	-11.2982
▁Саветаў	-11.2983
▁заменены	-11.2984
▁паўстал	-11.2985
▁общества	-11.2986
▁аснова	-11.2986
цэт	-11.2989
▁большое	-11.2991
▁перавоз	-11.2992
▁збудаванне	-11.2998
▁практыцы	-11.2998
▁паралельна	-11.2998
▁варожы	-11.2999
▁хмызняк	-11.3001
tri	-11.3003
▁цифр	-11.3006
▁Фонд	-11.3006
▁сёл	-11.3006
ванню	-11.3007
ападобныя	-11.3007
▁баяво	-11.3015
▁тэрытарыяльны	-11.3016
ep	-11.3017
▁ІІ	-11.3017
▁балета	-11.3021
▁мужнас	-11.3023
тып	-11.3024
▁здабыча	-11.3024
▁спява	-11.3024
▁рэвалюцыйны	-11.3024
▁метры	-11.3025
▁залато	-11.3032
▁пячат	-11.3032
▁Расію	-11.3034
▁нарыс	-11.3034
▁тэрмінам	-11.3037
▁аналагічны	-11.3037
▁лидер	-11.3038
▁прекрасн	-11.3041
▁кляштара	-11.3042
▁Брун	-11.3043
▁Поты	-11.3046
▁перамяшчэнн	-11.3047
▁найвышэйша	-11.3049
▁ўтрымлівае	-11.3049
▁абгрунтава	-11.3049
▁сфера	-11.305
▁Алжыр	-11.305
▁суперніка	-11.3051
mp	-11.3054
▁лёд	-11.3056
▁падтрымлівае	-11.306
▁Прыкладна	-11.3062
шир	-11.3062
▁фотограф	-11.3064
lin	-11.3065
▁запрошаны	-11.3066
tus	-11.3067
▁сыход	-11.3068
▁Прыпяц	-11.3071
роп	-11.3072
▁наибол	-11.3072
▁вечар	-11.3073
▁Канстанцінопал	-11.3073
▁Камуністычна	-11.3074
▁люд	-11.3077
▁пытанняў	-11.3077
▁загадчыкам	-11.3077
▁Вялі	-11.3078
▁уведзены	-11.308
▁адзначаецца	-11.3082
▁пасольства	-11.3083
▁хотите	-11.3083
▁камплект	-11.3083
▁тела	-11.3084
дэмакрат	-11.3087
▁врач	-11.3089
▁уварва	-11.3089
пэ	-11.309
▁маёмасці	-11.3091
▁Ніл	-11.3092
▁кароны	-11.3095
▁капэл	-11.31
▁найменш	-11.3101
,000	-11.3101
плод	-11.3102
▁навукоўцы	-11.3104
▁Віш	-11.3105
шок	-11.3109
фільм	-11.3109
▁выпушчана	-11.311
▁супрацоўнікам	-11.311
▁аўтамабільны	-11.311
▁медалямі	-11.3111
▁сцэнары	-11.3113
дразу	-11.3114
▁думает	-11.3114
▁Эйнштэйн	-11.3117
белы	-11.3117
▁ахоплівае	-11.3117
▁батальён	-11.312
▁Маз	-11.3121
трап	-11.3121
▁папярэднік	-11.3121
▁лётчык	-11.3122
▁сцэны	-11.3122
▁la	-11.3122
▁току	-11.3123
▁карпус	-11.3123
▁славянска	-11.3126
▁истори	-11.3126
▁весці	-11.3129
мелі	-11.3132
▁плаванн	-11.3132
▁прэфектур	-11.3134
▁денег	-11.3134
▁Астравецкі	-11.3134
▁изменил	-11.3136
▁выпадк	-11.3137
▁масс	-11.3138
▁пілот	-11.314
▁магутнасц	-11.314
▁дзеючы	-11.314
▁Камісі	-11.3141
▁Нігер	-11.3142
▁одним	-11.3144
▁нуля	-11.3145
цяпл	-11.3148
▁называет	-11.3149
▁Вільня	-11.315
▁сабраў	-11.315
▁найвышэйшы	-11.3151
▁паведамляе	-11.3151
▁няўдала	-11.3151
▁супраціўленне	-11.3152
▁арэнду	-11.3152
▁гарачы	-11.3152
▁Хат	-11.3155
▁радовішч	-11.3158
ходзілі	-11.3158
▁спыніў	-11.316
ct	-11.316
▁студыі	-11.3161
сары	-11.3161
▁Пятро	-11.3163
▁прыведзены	-11.3164
▁дэль	-11.3164
▁скрын	-11.3165
▁будущем	-11.3168
▁Варшаўска	-11.3168
▁пойма	-11.317
▁выступлени	-11.317
▁растени	-11.317
▁колераў	-11.3172
▁позняга	-11.3172
▁перабудов	-11.3173
▁Радзівілаў	-11.3174
▁вузкі	-11.3182
▁рэспубліканскі	-11.3183
▁буйнейшы	-11.3185
▁істотны	-11.3186
▁малітв	-11.3186
▁хваста	-11.3186
▁душы	-11.3187
▁сложны	-11.3188
▁сюды	-11.3188
▁получи	-11.3188
▁Талін	-11.3189
▁навукоўцаў	-11.3189
▁рабіць	-11.319
▁решили	-11.319
▁праўда	-11.3191
▁1883	-11.3192
▁прыбытк	-11.3193
▁шляхоў	-11.3195
▁женщина	-11.3195
▁забеспячэнне	-11.3196
▁злучэнняў	-11.3196
▁Старшын	-11.3196
леўскі	-11.3199
фашысцк	-11.3199
▁вещь	-11.3202
▁малюнак	-11.3202
▁религи	-11.3202
▁Захар	-11.3202
берга	-11.3202
▁матыва	-11.3203
шук	-11.3203
▁каралю	-11.3205
член	-11.3205
▁футбола	-11.3205
▁здольнасць	-11.3206
▁фундаментальны	-11.3208
▁польск	-11.321
▁Прыбалты	-11.321
▁Фёдаравіч	-11.3212
▁абсерваторыі	-11.3213
▁Старога	-11.3214
льзя	-11.3217
▁кукуруз	-11.322
▁узначаліў	-11.322
▁гібелі	-11.322
▁фінансаў	-11.322
▁брэйк	-11.3221
▁no	-11.3221
▁кветкавы	-11.3222
▁ніводна	-11.3223
▁создания	-11.3223
▁штук	-11.3225
▁сектар	-11.3226
дзясят	-11.3226
ria	-11.3229
стыцы	-11.323
▁шэра	-11.323
▁ўрач	-11.3233
▁Сель	-11.3234
▁века	-11.3234
▁наперад	-11.3238
▁роспіс	-11.3238
▁прадаў	-11.3239
▁Вышэйшы	-11.324
▁забаронена	-11.3241
▁манеты	-11.3243
▁фінальны	-11.3243
▁адышл	-11.3246
▁архіў	-11.3246
by	-11.3248
▁гаспадарча	-11.3248
зацыя	-11.3249
▁прафесі	-11.3251
▁Стру	-11.3251
тин	-11.3252
крыж	-11.3252
▁Калумб	-11.3252
▁рэлігі	-11.3253
▁1,1	-11.3254
▁Интернет	-11.3254
▁Фінляндыя	-11.3254
▁аргумент	-11.3254
ставляет	-11.3254
▁астатня	-11.3254
▁прыцягненн	-11.3254
Усходня	-11.3255
▁міні	-11.3256
▁Марса	-11.3257
▁Один	-11.3258
▁перасяленн	-11.3258
леб	-11.3259
▁магутна	-11.326
▁ёмам	-11.3261
▁адміністрацыя	-11.3262
▁лат	-11.3262
▁марш	-11.3264
рит	-11.3265
шмат	-11.3266
tic	-11.3267
▁шатр	-11.3268
▁ХІХ	-11.3271
▁агонь	-11.3272
▁выкладчыкам	-11.3278
▁падводны	-11.3279
▁Ігнат	-11.3285
▁майстэрства	-11.3289
▁серьёзн	-11.3289
▁Некалькі	-11.3289
▁ўрачыста	-11.3289
▁папуляцы	-11.3289
▁турыстаў	-11.3291
▁арыентава	-11.3292
зара	-11.3294
вёл	-11.3296
▁Саф	-11.3297
▁1869	-11.3297
▁фігуры	-11.33
ловіч	-11.3301
▁вяла	-11.3304
2,8	-11.3306
▁крымінальна	-11.3306
▁спаборніцтв	-11.3308
▁дзесяць	-11.331
▁дубль	-11.3311
▁узбярэжжа	-11.3311
▁1654	-11.3312
▁партыйна	-11.3312
▁папулярнасц	-11.3313
дела	-11.3314
▁Сцен	-11.3314
▁рэвалюцыя	-11.3315
▁дызайн	-11.3317
▁старога	-11.3317
▁судовы	-11.3317
▁чарна	-11.3317
дорф	-11.3319
▁ажыццяўленн	-11.3323
▁візантыйскі	-11.3323
▁традици	-11.3324
▁апазіцыі	-11.3324
▁покрыва	-11.3324
▁Сірыі	-11.3324
▁выбітны	-11.3325
▁асноўн	-11.3327
▁еха	-11.3329
блик	-11.3332
памін	-11.3333
▁разбіты	-11.3333
тивно	-11.3335
▁куст	-11.3336
▁адкрыла	-11.3337
▁рэд	-11.334
▁мякка	-11.3341
гло	-11.3342
▁антычна	-11.3346
▁Тр	-11.3348
▁Якуба	-11.335
▁абедзв	-11.3351
#	-11.3352
▁аддаў	-11.3353
ишь	-11.3358
▁Традыцыйна	-11.3358
rus	-11.3358
пет	-11.336
▁ўяўляю	-11.336
▁New	-11.3362
▁тунэл	-11.3364
▁вызначаю	-11.3367
▁задня	-11.3368
▁Ізраіля	-11.3369
▁94	-11.3373
▁Глін	-11.3375
▁Крыжа	-11.3375
▁павелічэнне	-11.3375
▁спрабавалі	-11.3376
▁лютэран	-11.3376
▁курорт	-11.3377
▁трапляе	-11.3378
▁Бухар	-11.338
▁изобре	-11.3383
▁фінале	-11.3384
▁Лас	-11.3385
▁спаліл	-11.3387
▁анал	-11.3388
▁РБ	-11.3393
▁Windows	-11.3393
▁Албаніі	-11.3393
▁Лунінец	-11.3394
▁Міжземнамор	-11.3394
▁подобно	-11.3395
▁Рэчыцкі	-11.3395
▁лен	-11.3396
▁Граб	-11.3396
мерны	-11.3398
тацыя	-11.3399
ly	-11.3401
▁1839	-11.3402
▁80-	-11.3405
▁Шап	-11.3406
тарны	-11.3407
▁выпадкова	-11.3408
▁збудаваны	-11.3408
гародск	-11.341
фікацыі	-11.3411
▁Мядзведзіца	-11.3411
▁унутры	-11.3414
▁Складае	-11.3414
▁тэрма	-11.3417
▁Даўг	-11.3418
▁губерняў	-11.3418
▁путь	-11.3418
▁развития	-11.342
▁Існую	-11.3422
▁выявілі	-11.3422
▁Пір	-11.3424
разова	-11.3424
▁накрыты	-11.3425
▁гавора	-11.3426
▁Пінска	-11.3428
▁International	-11.3428
▁Літоўскім	-11.3428
▁Савец	-11.3429
▁талент	-11.3429
▁фабрык	-11.343
▁віз	-11.343
▁Бес	-11.343
▁предел	-11.3432
▁перайменаваны	-11.3433
▁Сур	-11.3433
▁сотні	-11.3434
▁Апостал	-11.3434
▁чэмпіёнаў	-11.3435
ходзячы	-11.3437
▁актыв	-11.3437
▁мудр	-11.3438
▁самім	-11.3439
▁лёт	-11.3441
▁спосабам	-11.3442
каталік	-11.3445
міністрам	-11.3445
▁Championship	-11.3446
▁число	-11.3446
▁встрети	-11.3446
▁существую	-11.3452
▁артыкула	-11.3454
▁серыял	-11.3455
▁гавары	-11.3456
▁магутнасці	-11.3457
▁Галь	-11.3461
▁пенсі	-11.3461
▁адбываліс	-11.3463
▁Вяз	-11.3463
▁Маладзечанскі	-11.3464
▁трапіла	-11.3464
▁арганізма	-11.3465
▁адзення	-11.3465
▁Каманда	-11.3467
▁ўзяў	-11.347
▁паэтычны	-11.3472
▁скорост	-11.3472
▁Ваенн	-11.3473
▁115	-11.3475
▁Ни	-11.3476
▁средне	-11.3478
▁вперв	-11.348
▁пісьма	-11.3481
▁дрэнна	-11.3482
▁авары	-11.3482
▁магло	-11.3483
ьте	-11.3485
▁длин	-11.3485
▁выйсц	-11.3486
▁лінію	-11.3486
▁кантынента	-11.349
▁XXI	-11.3494
▁свяці	-11.3494
славянска	-11.3494
▁дадзеным	-11.3494
ЭС	-11.3496
▁адрознення	-11.3499
▁сродак	-11.3499
▁знішчана	-11.3502
камен	-11.3502
▁акіяне	-11.3503
▁Кожна	-11.3504
▁часці	-11.3505
▁адказны	-11.3507
▁вайно	-11.3509
2,3	-11.3514
▁Зуб	-11.3516
▁парламенцкі	-11.3517
▁ажыццяві	-11.3517
▁дасягненні	-11.3517
▁палякаў	-11.3517
▁навык	-11.3521
▁абаронц	-11.3521
▁артылерыі	-11.3522
▁объясн	-11.3522
▁мастаком	-11.3522
▁марка	-11.3522
▁руін	-11.3525
▁забіва	-11.3525
думать	-11.3527
▁Раён	-11.3529
sp	-11.3529
▁дро	-11.3531
▁сцвярджа	-11.3532
▁перадава	-11.3533
▁Смаргонскі	-11.3535
▁падрабязна	-11.3535
▁вопратк	-11.3535
▁экспанат	-11.3535
▁наконец	-11.3535
▁воінаў	-11.3535
▁нейка	-11.3536
▁Працоўн	-11.3538
▁праход	-11.3538
▁сумесны	-11.3539
▁здольнасці	-11.3541
ton	-11.3544
▁ніяка	-11.3545
▁Жар	-11.3549
▁бронз	-11.3551
▁рэсурсаў	-11.3552
▁Навагрудскі	-11.3552
▁прадстаўленн	-11.3552
▁абсталяванне	-11.3553
▁узмацн	-11.3554
трымаць	-11.3556
▁220	-11.3556
▁выкананн	-11.3557
▁видел	-11.3558
▁залатым	-11.356
▁паселішчаў	-11.3561
слух	-11.3569
▁пазбаўлены	-11.357
▁Шэкспір	-11.357
▁прастола	-11.3571
▁рэклам	-11.3571
▁гета	-11.3571
▁туды	-11.3571
▁Варонеж	-11.3571
▁ўзгорк	-11.3572
▁производит	-11.3572
▁Стал	-11.3574
q	-11.3575
dia	-11.3577
▁выклікаў	-11.3579
▁двое	-11.3581
▁1,8	-11.3582
АН	-11.3584
Дж	-11.3585
▁1700	-11.3585
▁вусці	-11.3588
▁паўвостраве	-11.3588
▁чарговы	-11.3588
▁выкарыстанн	-11.359
▁Замак	-11.3591
▁храмаў	-11.3591
▁Мора	-11.3598
марк	-11.3599
▁мячэц	-11.36
саксонск	-11.3601
ii	-11.3601
алежнасць	-11.3602
▁война	-11.3602
▁шаг	-11.3605
▁накіраваў	-11.3606
вос	-11.3608
▁камерцыйны	-11.3608
▁літоўска	-11.361
▁Спар	-11.3612
▁дасягаю	-11.3613
ight	-11.3613
▁харч	-11.3615
▁арыгінал	-11.3617
if	-11.3617
▁Орша	-11.3618
▁Улас	-11.362
▁участк	-11.3622
▁0,9	-11.3624
▁цывілізацыі	-11.3624
▁цёплы	-11.3624
▁ўзаемадзеяння	-11.3624
▁гатовы	-11.3625
ord	-11.3627
мешва	-11.3628
▁ансамбль	-11.3636
▁абяца	-11.3637
▁узнал	-11.3638
▁калекцы	-11.3639
▁сялянскі	-11.3641
▁Пітэр	-11.3641
▁Найбуйнейшы	-11.3642
ł	-11.3642
▁военачальнік	-11.3642
▁выпадак	-11.3642
▁скасавана	-11.3642
▁давайте	-11.3642
▁месці	-11.3643
▁Кул	-11.3643
▁Займаў	-11.3644
▁раздел	-11.3644
▁Плад	-11.3644
▁насенне	-11.3645
▁запал	-11.3645
▁Ra	-11.3647
▁1858	-11.3651
▁1859	-11.3651
фта	-11.3651
▁Пана	-11.3651
▁Мон	-11.3651
▁причина	-11.3655
▁ФК	-11.3656
▁Брат	-11.3657
▁Соф	-11.3658
▁доход	-11.3658
▁недастаткова	-11.366
▁сярэднявечна	-11.366
▁агенцтва	-11.366
▁идёт	-11.366
▁Алімпіяд	-11.366
▁паштовы	-11.366
▁тлушч	-11.3661
fe	-11.3662
Y	-11.3663
▁веды	-11.3663
▁каким	-11.3665
▁Рэн	-11.3665
▁варыянты	-11.3666
▁связи	-11.3667
▁датуе	-11.3667
▁Цё	-11.3668
фен	-11.367
▁Индии	-11.367
▁рэшт	-11.3674
▁спорт	-11.3676
▁экстра	-11.3677
▁функци	-11.3678
▁форум	-11.3678
▁Іўеўскі	-11.3678
▁Двух	-11.3678
▁Малады	-11.3678
спор	-11.3682
▁феадал	-11.3684
▁раўніна	-11.3684
нькі	-11.3684
▁баё	-11.3686
▁дэкар	-11.3686
▁плада	-11.3687
▁Бон	-11.3691
ветак	-11.3691
▁Венгерска	-11.3692
▁Македоніі	-11.3696
▁кантэкс	-11.3697
▁тэрытарыяльна	-11.3697
▁фармірава	-11.3697
▁апавяданні	-11.3697
▁Баку	-11.37
▁кіравалі	-11.3702
▁1856	-11.3705
▁заснава	-11.3706
▁манер	-11.3707
▁паруша	-11.3707
моўнай	-11.3709
▁пляж	-11.371
кладання	-11.371
▁асяроддзе	-11.3712
▁дэмакратычны	-11.3713
▁славу	-11.3713
▁ВНУ	-11.3714
▁Дэпутат	-11.3714
▁Африке	-11.3714
▁Турнір	-11.3714
▁легенда	-11.3714
▁кіруючы	-11.3715
▁паказалі	-11.3717
▁Мадрыд	-11.3719
▁1200	-11.372
▁Полацку	-11.3725
льной	-11.3727
MS	-11.3727
eg	-11.3729
▁пачатковы	-11.373
▁рядо	-11.3732
2,6	-11.3732
▁абсолютно	-11.3732
▁нескольки	-11.3732
▁Імперыі	-11.3732
▁тэарэтычна	-11.3732
▁Сербска	-11.3733
▁свецка	-11.3733
рушы	-11.3733
▁вырашылі	-11.3733
▁Con	-11.3737
▁падпарадкавання	-11.3738
▁Апалон	-11.3738
▁сястра	-11.3739
▁падпарадкаванн	-11.374
▁Вакол	-11.3742
▁прошлом	-11.3746
▁партрэты	-11.3746
▁гаспадарцы	-11.3747
▁збег	-11.3748
▁Вайна	-11.3748
▁сядзібна	-11.3748
▁используют	-11.3749
▁We	-11.375
▁пазбегну	-11.375
▁другим	-11.375
▁Еўразіі	-11.3751
▁шкло	-11.3751
▁лісты	-11.3755
2,4	-11.3759
▁Гарэ	-11.3759
▁Генерал	-11.376
▁княств	-11.3761
▁камандзірам	-11.3764
▁Конга	-11.3768
▁фізіялогі	-11.3768
▁змяшчаю	-11.3768
▁страціла	-11.3769
▁Берг	-11.3769
▁дыскусі	-11.3769
▁оказыва	-11.377
▁свецкі	-11.377
▁арбіты	-11.377
▁Лазар	-11.377
▁зерн	-11.377
▁абвінавачванн	-11.3772
▁Газ	-11.3774
▁240	-11.3776
▁выкарыста	-11.3776
▁кампазіцый	-11.3777
▁Арагон	-11.3777
▁прамов	-11.3779
рыца	-11.3782
▁опера	-11.3785
▁перасякае	-11.3787
▁фермер	-11.3789
▁зімой	-11.3793
▁адсутнас	-11.3795
▁Ашмян	-11.3795
▁1,7	-11.3796
▁Двор	-11.3798
▁Атон	-11.38
▁заваявання	-11.3801
▁450	-11.3801
▁Ac	-11.3801
▁здолелі	-11.3805
▁жалезна	-11.3806
▁Зорка	-11.3806
▁Гуд	-11.3807
▁Таскан	-11.3813
▁зборніка	-11.3813
зімку	-11.3816
▁Грэцыя	-11.382
▁пячоры	-11.3821
▁паляўнічы	-11.3823
▁першынств	-11.3823
▁ўчастак	-11.3823
▁вирус	-11.3824
▁даводзі	-11.3824
▁эфектыўна	-11.3825
выканкам	-11.3827
тарна	-11.3828
▁электронна	-11.383
крыццё	-11.3834
▁перамагл	-11.3834
важны	-11.3835
▁матери	-11.3835
▁Par	-11.3835
▁сквер	-11.3836
▁дзярж	-11.3839
▁мнени	-11.3841
‰	-11.3841
▁духавенства	-11.3841
▁ліцэнзі	-11.3841
▁тво	-11.3842
▁Гульня	-11.3845
зялёна	-11.3846
▁мясцін	-11.3851
▁уладальнік	-11.3851
▁распаўсюджвання	-11.3852
ическа	-11.3852
двор	-11.3853
▁Сярэднявечча	-11.3854
▁выступала	-11.3859
▁Кракаў	-11.3859
▁падтрымаў	-11.386
▁вясной	-11.386
▁вільготна	-11.386
▁шчупак	-11.386
▁будущее	-11.386
▁кірмаш	-11.386
▁жанры	-11.3861
ide	-11.3862
ючага	-11.3863
каўшчына	-11.3867
▁миллиардов	-11.3867
▁Бата	-11.3869
▁Мэры	-11.387
▁Група	-11.3875
▁падыма	-11.3875
▁Бол	-11.3878
ö	-11.3878
▁гароднін	-11.3878
▁Чалавек	-11.3878
▁зямлё	-11.3878
▁Берагавая	-11.3879
▁торф	-11.3883
▁Кажды	-11.3883
▁1872	-11.3885
▁частью	-11.3885
▁1874	-11.3887
▁Дара	-11.3888
▁Стрэ	-11.3889
авуць	-11.3891
гружа	-11.3892
pp	-11.3896
ς	-11.3897
▁трёх	-11.3897
▁неабходнасць	-11.3897
▁Крысціян	-11.3897
▁магнітны	-11.3897
▁Міра	-11.3897
▁спявачка	-11.3898
▁Канстытуцы	-11.3899
▁хими	-11.3899
ціска	-11.39
▁слуша	-11.3902
▁медаля	-11.3904
▁прызнана	-11.3906
▁веліч	-11.3906
▁стен	-11.3909
▁рытуал	-11.391
▁інтарэсаў	-11.3911
▁дыялекты	-11.3915
▁Представь	-11.3915
▁матэматычна	-11.3915
▁рэгіянальна	-11.3915
▁Рудольф	-11.3915
▁сканцэнтрава	-11.3915
▁батарэ	-11.3915
▁нашчадкаў	-11.3916
▁Верхні	-11.3917
▁Аршанска	-11.3918
▁закончи	-11.3919
ck	-11.3919
▁Ne	-11.392
ment	-11.3924
▁сімвалаў	-11.3932
▁абмежава	-11.3933
▁страта	-11.3933
▁паведаміў	-11.3934
▁ўзначальваў	-11.3934
▁Тарпеда	-11.3934
▁прэстыж	-11.3934
▁памеру	-11.3934
▁саступа	-11.3935
▁Ліс	-11.3937
▁выпрабаванн	-11.3938
▁фарба	-11.3939
▁палавы	-11.3943
▁дошка	-11.3947
▁перанесены	-11.3948
беларуска	-11.3948
саюз	-11.3949
▁філалагічны	-11.3952
▁мясцовасць	-11.3953
▁юрыст	-11.3953
ёд	-11.3956
▁живо	-11.3956
можна	-11.3958
▁пазіцый	-11.3959
▁лінейна	-11.3959
дакладн	-11.3961
ski	-11.3961
▁РФ	-11.3961
ісцкі	-11.3962
▁творчы	-11.3963
▁грамадзянства	-11.3964
▁Камітэта	-11.3968
▁смогл	-11.3968
▁адлюстраванне	-11.3968
▁качестве	-11.3971
▁Сілезі	-11.3971
▁археалогі	-11.3972
щего	-11.3977
▁дазволіў	-11.3977
▁Ph	-11.3979
СМ	-11.3979
чава	-11.398
▁Вало	-11.3981
▁ціскам	-11.3986
▁гелі	-11.3987
▁Жыву	-11.3987
▁вулкана	-11.3988
▁Брус	-11.3988
▁Атлант	-11.3988
оцен	-11.3988
▁Зеландыі	-11.3989
▁Некоторы	-11.3989
▁прапанавана	-11.3989
▁багаслоў	-11.3989
▁5000	-11.399
▁мітынг	-11.399
▁СП	-11.3991
рэчча	-11.3992
▁встреча	-11.3997
▁имел	-11.3997
▁карысны	-11.4
▁межаў	-11.4003
▁Тыр	-11.4003
▁Лукі	-11.4005
▁рэгулярны	-11.4008
▁вітамін	-11.4008
▁светлавы	-11.4008
▁статуя	-11.4009
▁Шча	-11.401
▁біяграфі	-11.4013
▁to	-11.4014
▁запісу	-11.4014
мощн	-11.4019
▁правительств	-11.402
▁общи	-11.402
креп	-11.4023
▁дней	-11.4024
▁спрашива	-11.4026
▁нейтрон	-11.4027
▁вызваленне	-11.4027
ich	-11.4027
▁каляровы	-11.403
▁Візантыі	-11.403
▁Дзяржынскі	-11.4033
▁распаўсюд	-11.4033
ньён	-11.4035
▁Евангел	-11.4035
▁аператыўна	-11.4037
▁Гус	-11.4039
лота	-11.4039
▁Стаўбцоўск	-11.4045
▁паглына	-11.4045
▁обратно	-11.4045
▁Баварыі	-11.4045
▁малява	-11.4048
▁Большо	-11.405
▁Ран	-11.405
работа	-11.4053
▁эканоміка	-11.4053
▁фармат	-11.4054
▁фракцы	-11.4056
▁паласа	-11.4057
▁нападу	-11.406
▁выраблены	-11.4062
▁руки	-11.4064
▁памянша	-11.4064
▁прадзюсар	-11.4064
▁аул	-11.4064
стара	-11.4065
▁1794	-11.4065
▁аператар	-11.4065
▁біялогі	-11.4068
▁Доўгі	-11.4069
▁Сезон	-11.407
▁сети	-11.407
щения	-11.407
▁1600	-11.4072
АК	-11.4073
▁1842	-11.4074
▁ўздым	-11.4078
▁дадатк	-11.4078
▁ФРГ	-11.4083
▁заканадаўчы	-11.4083
▁прэтэнзі	-11.4083
▁ўстаноўлена	-11.4083
▁вучона	-11.4083
▁хрыбет	-11.4083
сексуал	-11.4084
гнуты	-11.4085
▁Полацкі	-11.4087
▁легенды	-11.409
▁чорнага	-11.4092
фарб	-11.4094
екцыя	-11.4095
▁закладзены	-11.4096
мыш	-11.4096
▁Sh	-11.4098
▁Берн	-11.4098
▁бывае	-11.4099
▁супраціў	-11.4101
▁поддержива	-11.4101
▁фото	-11.4101
▁Праваслаўна	-11.4102
▁трапілі	-11.4102
▁прызваны	-11.4102
▁арэх	-11.4102
акцый	-11.4105
▁чист	-11.4105
▁Францыска	-11.4106
▁кіраванн	-11.4108
▁успаміна	-11.4108
▁Радыё	-11.4112
груп	-11.4112
▁праліў	-11.4113
▁дэман	-11.4114
▁Жана	-11.4114
фель	-11.4115
▁засталос	-11.4116
▁чыноў	-11.4116
▁камет	-11.4118
▁франка	-11.4119
▁Польскі	-11.412
▁используем	-11.412
▁Аўстралія	-11.4121
▁герояў	-11.4125
вшие	-11.4126
▁ехаў	-11.4126
▁будучыні	-11.4127
▁цыта	-11.4128
▁90-	-11.413
▁абарона	-11.413
▁плоскасці	-11.4131
▁адбываю	-11.4131
▁хвароба	-11.4139
▁дзвяр	-11.4139
▁Атлантычна	-11.414
▁юстыцы	-11.414
▁Лібер	-11.4148
▁став	-11.4148
▁Адносі	-11.4154
▁пахавальн	-11.4155
▁крызісу	-11.4155
онэ	-11.4156
▁светлы	-11.4156
бит	-11.4157
▁выхадц	-11.4158
▁землетрасенн	-11.4158
▁революци	-11.4158
ваходзяць	-11.4158
▁перавыша	-11.4158
▁известно	-11.4159
▁Ізабел	-11.4159
▁пасажыраў	-11.4161
▁падмурк	-11.4162
▁губля	-11.4164
▁рабіў	-11.4165
будаўнічы	-11.4165
▁базу	-11.4165
our	-11.4176
pl	-11.4177
▁Багародзіцы	-11.4177
▁КДБ	-11.4177
▁жизне	-11.4177
▁прыгожы	-11.4177
▁акупант	-11.4177
▁прыйшла	-11.4178
▁маральна	-11.4178
wo	-11.4179
шэўскі	-11.4179
▁дзясятка	-11.418
▁пратэсту	-11.4181
▁Княз	-11.4183
▁разговор	-11.4184
▁лепшым	-11.4186
▁Амерыканска	-11.4186
сховішч	-11.4186
AT	-11.4188
мант	-11.419
▁предмет	-11.419
▁Цэзар	-11.4191
▁Шыр	-11.4191
▁царскі	-11.4192
▁ўласнасць	-11.4193
▁смысле	-11.4193
▁супрацоўнікаў	-11.4194
▁Мур	-11.4194
▁фунтаў	-11.4194
▁антычны	-11.4194
▁Амерыка	-11.4194
▁матэматычны	-11.4195
▁страт	-11.4196
▁Партызан	-11.4196
▁нацысцка	-11.4196
▁абсталявання	-11.4196
▁Прусія	-11.4198
▁пабудов	-11.42
▁тыповы	-11.42
▁следства	-11.4204
▁Выхаван	-11.4204
камер	-11.4207
▁намаганн	-11.4207
▁карту	-11.4207
▁Рускі	-11.4212
наўскі	-11.4213
▁вылучаецц	-11.4213
▁СНД	-11.4215
▁борьб	-11.4215
▁шырыні	-11.4215
▁абслугоўвання	-11.422
зровень	-11.4224
▁ўзоры	-11.4225
родны	-11.4228
▁знали	-11.4228
шэра	-11.4229
▁кратар	-11.423
▁чыгуначная	-11.4232
▁безопас	-11.4233
▁Афіцыйны	-11.4234
▁разгляд	-11.4235
▁Й	-11.4236
▁надежд	-11.4236
▁Георгій	-11.4237
▁Герцаг	-11.4238
▁сукупнасць	-11.4239
▁паставіў	-11.424
▁Зямл	-11.424
▁Міхала	-11.4243
▁Si	-11.4244
ахоўн	-11.4245
▁радовішча	-11.4246
▁цэнтральным	-11.4249
▁трапля	-11.425
▁узаемадзеянн	-11.4253
▁вертыкальна	-11.4253
▁жалезны	-11.4254
▁SBc	-11.4254
▁меркаванн	-11.4257
▁1801	-11.4258
▁Кобрын	-11.4258
▁Жыгімонт	-11.4262
▁зборнікаў	-11.4262
▁лини	-11.4263
▁Мёр	-11.4264
▁прода	-11.4265
▁генеральна	-11.4266
▁пищ	-11.4268
▁гумар	-11.4269
▁лістапад	-11.427
ходим	-11.427
2,7	-11.4272
▁Распаўсюджаны	-11.4272
▁капліцы	-11.4272
свяшчэнн	-11.4272
▁семінарыі	-11.4273
▁Оп	-11.4277
годдз	-11.4278
▁адзіночны	-11.4278
▁фрыз	-11.4279
▁Мэта	-11.4281
▁Французскай	-11.4286
▁Трэці	-11.4286
▁Раст	-11.4287
▁Ник	-11.4289
▁Кацярыны	-11.4291
▁друзья	-11.4291
▁ўчасткі	-11.4292
▁сигнал	-11.4292
▁засталас	-11.4292
▁гараджан	-11.4293
▁Андрэевіч	-11.4293
▁лексік	-11.4293
▁Пяс	-11.4295
▁Сант	-11.4295
▁балет	-11.4295
фур	-11.4295
ice	-11.4297
ola	-11.4297
парк	-11.4299
ana	-11.4299
▁Аргенціны	-11.43
▁Янка	-11.4301
▁дэлегат	-11.4311
▁Брытанскі	-11.4311
АА	-11.4314
▁быццам	-11.4315
будоўва	-11.4316
▁баланс	-11.4316
▁сотня	-11.4317
Венецыя	-11.4318
▁4,5	-11.4318
▁Напалеон	-11.432
▁знает	-11.4322
▁поспехам	-11.4324
▁тест	-11.4329
ak	-11.4329
▁ЦВК	-11.433
▁ігрок	-11.4331
▁Эдуарда	-11.4331
▁другими	-11.4332
▁Генеральны	-11.4337
▁лодка	-11.4337
▁службовы	-11.4338
▁царом	-11.434
водства	-11.434
▁папулярным	-11.4345
▁густа	-11.4347
▁наступленне	-11.4349
▁использует	-11.4349
▁состоит	-11.4349
▁індывідуальна	-11.4349
▁тэарэм	-11.4349
▁Беласток	-11.435
▁SBb	-11.435
tal	-11.435
▁Год	-11.4352
▁знаходзя	-11.4352
▁коллег	-11.4353
платформ	-11.4355
▁Суха	-11.4359
▁заваяваў	-11.4361
tro	-11.4367
▁рытм	-11.4367
▁небяспечны	-11.4368
▁Алесь	-11.4369
▁бамб	-11.4372
▁Do	-11.4373
▁Лепельскі	-11.4373
▁страда	-11.4375
▁сцэна	-11.4376
▁скачк	-11.4377
▁нібыт	-11.4379
▁1836	-11.4379
▁палярны	-11.438
▁замяні	-11.438
ang	-11.4383
ложил	-11.4384
▁сусед	-11.4387
▁Парламент	-11.4388
▁Сусветны	-11.4388
▁сышоў	-11.4389
▁зброю	-11.4389
парад	-11.4392
друкава	-11.4393
▁выше	-11.4394
▁Габсбургаў	-11.4395
▁меза	-11.4395
▁Баранавіч	-11.4397
▁модели	-11.4398
▁знаком	-11.4398
слаўскі	-11.4398
▁Кві	-11.4399
движ	-11.4399
▁вырошчванн	-11.4401
▁заключаны	-11.4402
▁захворвання	-11.4402
▁Маскоўскім	-11.4405
федэра	-11.4406
yn	-11.4407
▁ўзначальва	-11.4407
▁станцый	-11.4409
▁Крыж	-11.4409
▁крэдыт	-11.441
▁прызначэнне	-11.441
▁Таб	-11.4411
II	-11.4411
▁прэзідэнц	-11.4413
▁гіпер	-11.4413
стати	-11.4414
ейши	-11.4414
▁вольным	-11.4415
▁хатня	-11.4417
лятар	-11.4419
▁1832	-11.442
▁Вольга	-11.4424
▁Гад	-11.4424
▁купалам	-11.4426
▁Рэд	-11.4426
▁Гродзенскі	-11.4427
í	-11.4427
▁паведамлення	-11.4427
▁акупавана	-11.4427
▁Вельмі	-11.4427
арган	-11.4428
▁палёў	-11.4429
▁сразу	-11.4429
▁інструмента	-11.4429
▁шкал	-11.4431
▁живу	-11.4444
пало	-11.4446
▁досвед	-11.4447
▁Іркуцк	-11.4449
▁днём	-11.4449
▁веж	-11.445
▁ўзялі	-11.445
▁позволяет	-11.4452
тавана	-11.4453
▁состав	-11.4454
▁Такая	-11.4454
we	-11.4458
▁дзейнічаю	-11.4458
▁стужка	-11.4462
польскі	-11.4463
▁майстроў	-11.4466
▁кіруюча	-11.4466
▁апісаў	-11.4466
▁заснавальнікам	-11.4468
▁Карэлі	-11.4469
банк	-11.4478
▁выдавец	-11.4479
▁Расце	-11.4479
▁разбура	-11.448
▁ўсталявана	-11.4481
▁Бургунды	-11.4485
▁ваяводы	-11.4485
▁желани	-11.4488
▁Пік	-11.4494
▁норма	-11.4495
▁мінеральны	-11.4499
нести	-11.45
lan	-11.4501
▁Ліквідаван	-11.4505
▁пришлось	-11.4505
▁вымушана	-11.4505
▁Балгарыя	-11.4505
▁легіён	-11.4505
▁Дзятлаўск	-11.4505
▁Марока	-11.4505
▁офіс	-11.4506
▁паэтаў	-11.4507
▁працягвала	-11.4508
водна	-11.4509
▁ператварэнн	-11.451
▁харчовы	-11.4513
▁Марціна	-11.4513
даўна	-11.4518
▁навукоўца	-11.452
андры	-11.4522
очны	-11.4524
▁невозможно	-11.4524
▁рэнесанс	-11.4524
▁тэхніцы	-11.4524
▁пераможцам	-11.4524
▁запрашэнн	-11.4525
▁чаргова	-11.4525
▁розыгрышам	-11.4527
фікацыя	-11.453
▁Паўлавіч	-11.4531
▁доби	-11.4532
▁мільёна	-11.4532
▁выдатка	-11.4539
▁дакладнасц	-11.4539
▁SB	-11.454
▁валоданн	-11.4542
▁маз	-11.4543
▁Прафесар	-11.4544
▁Румынія	-11.4544
▁блакітна	-11.4544
▁кампанію	-11.4544
▁узроўня	-11.4544
▁падпісана	-11.4544
▁мілі	-11.4546
зба	-11.4547
▁трактат	-11.4549
▁двухпавярховы	-11.455
▁пасажырскі	-11.4552
▁заснавалі	-11.4554
▁касця	-11.4559
ā	-11.4564
▁цэрквы	-11.4564
▁ганарова	-11.4564
▁Валапас	-11.4565
▁удзельнікам	-11.4565
раўноўва	-11.4568
ster	-11.4568
▁границ	-11.4569
▁Рыгоравіч	-11.4571
▁паліцыя	-11.4572
▁венгр	-11.4579
▁Стры	-11.458
▁101	-11.458
тварэнні	-11.4581
▁правядзенн	-11.4583
▁потрясающ	-11.4583
▁Рыгора	-11.4586
▁гледачоў	-11.4587
▁заставаліс	-11.4588
▁называлас	-11.4588
▁чувство	-11.4589
▁хава	-11.4591
НС	-11.4591
▁нашчадкі	-11.4591
ючая	-11.4592
▁Нэ	-11.4593
▁Под	-11.4595
▁гаспадарак	-11.4596
▁матор	-11.4601
▁карані	-11.4601
▁Канада	-11.4602
▁кандыдацк	-11.4603
▁страцілі	-11.4603
▁балгарскі	-11.4603
▁Шп	-11.4603
▁персанажаў	-11.4604
▁археалагічна	-11.4604
▁Кузьм	-11.4606
▁прымаць	-11.4607
▁працэнт	-11.4607
▁пасол	-11.461
▁Крычаў	-11.4612
nia	-11.4614
▁расстрэл	-11.4618
алізаваны	-11.462
▁геном	-11.462
▁проз	-11.4622
▁дазваляла	-11.4623
▁Сербія	-11.4623
▁Блу	-11.4623
▁галаву	-11.4623
▁выраст	-11.4623
▁зачынены	-11.4624
▁создавать	-11.4624
ТА	-11.4625
▁агню	-11.4625
▁крытэры	-11.4628
▁аказаў	-11.4629
▁нём	-11.4629
▁карыстальніка	-11.463
▁чысты	-11.463
▁Sant	-11.4632
▁дзесятк	-11.4633
▁дынасты	-11.4635
▁крат	-11.4637
ib	-11.4639
▁паданн	-11.464
▁анализ	-11.4642
▁For	-11.4642
мышленн	-11.4642
▁Многи	-11.4643
▁езуітаў	-11.4643
▁сапрапел	-11.4643
▁акунь	-11.4643
▁1797	-11.4645
▁праходжанн	-11.4647
▁нечакана	-11.4648
▁1849	-11.4651
▁пярэ	-11.4655
▁цяжкасц	-11.4657
▁крылы	-11.4658
▁Слонім	-11.4659
▁Ka	-11.4659
▁молоды	-11.4663
тыднёв	-11.4663
▁гулялі	-11.4663
▁аказвае	-11.4665
▁адсутнічаюць	-11.4665
абралі	-11.4666
▁количеств	-11.4666
▁Крыва	-11.4666
▁карлік	-11.4667
▁подпіс	-11.4667
вянча	-11.4667
▁разбурана	-11.4671
▁псіхалогі	-11.4672
▁начало	-11.4674
ступленні	-11.4676
лейка	-11.4679
▁Растоў	-11.468
▁исчез	-11.4682
▁пяхоты	-11.4682
▁эканоміцы	-11.4682
▁дэманстрацы	-11.4683
▁Льва	-11.4683
▁отлича	-11.4683
▁Астатні	-11.4683
▁тело	-11.4684
▁аднаўля	-11.4684
▁кіеўскі	-11.4686
▁жук	-11.4686
▁усили	-11.4692
амерыканскі	-11.4693
▁Вір	-11.4697
▁Названа	-11.4699
▁услови	-11.4701
ν	-11.4702
▁кінатэатр	-11.4702
▁Драгічын	-11.4702
▁вырашальн	-11.4703
▁эскадр	-11.4703
фашысцкімі	-11.4703
▁фотографии	-11.4704
▁роста	-11.4706
▁Партыя	-11.4707
▁мэбл	-11.4708
▁лёду	-11.4709
▁Леон	-11.471
▁Вынік	-11.4711
▁злучана	-11.4713
армейск	-11.4714
ue	-11.4717
▁дэкор	-11.4717
▁Car	-11.4717
ata	-11.4721
▁аднолькава	-11.4722
▁двухсхільным	-11.4723
▁Унутры	-11.4723
гурт	-11.4724
пасрэд	-11.4724
▁видов	-11.4724
▁вучэнне	-11.4725
▁написал	-11.4725
▁ператварыў	-11.4727
▁артылерыйска	-11.4731
ставы	-11.4735
▁бронзава	-11.4735
ven	-11.4736
крылы	-11.4737
беларускі	-11.4739
▁тэрас	-11.4739
▁мирово	-11.4741
чынскі	-11.4741
▁відамі	-11.4742
▁ГДР	-11.4742
ü	-11.4742
▁перашкаджа	-11.4742
▁ініцыятар	-11.4743
▁агрэсі	-11.4743
▁Нагорна	-11.4746
сберг	-11.4748
▁налічваецца	-11.4749
▁выклікана	-11.4749
▁старонка	-11.4749
▁епархіі	-11.4752
▁пита	-11.4754
маха	-11.4756
▁злучы	-11.476
▁Верхнядзвінскі	-11.4763
▁Малдовы	-11.4763
▁індзейцаў	-11.4763
▁ўсталёўва	-11.4763
▁Воранаўскі	-11.4763
▁аблічча	-11.4763
▁азнача	-11.4765
▁гранат	-11.4767
▁Сымон	-11.4767
▁рынак	-11.4767
▁хіт	-11.4767
▁мук	-11.4768
▁Януш	-11.4772
аснавальнікаў	-11.4775
▁фланг	-11.4776
волен	-11.4779
▁наваколля	-11.4783
▁партугальскі	-11.4783
▁хваёвы	-11.4783
▁влияни	-11.4783
▁похоже	-11.4783
▁вылучэнн	-11.4784
▁прыбярэжны	-11.4784
расійска	-11.4784
▁паходжанн	-11.4785
▁пакет	-11.4787
▁атрымана	-11.4787
▁парадк	-11.4788
▁вызваленн	-11.4788
▁Оно	-11.4792
▁Баз	-11.4793
▁проб	-11.4795
▁Сіг	-11.4795
▁агульн	-11.4798
▁механічны	-11.4801
▁пен	-11.4803
▁УЕФА	-11.4803
▁абумоўлена	-11.4803
▁нешматлікі	-11.4803
▁тагачасны	-11.4803
▁Венецыі	-11.4803
▁элементарны	-11.4803
▁Гончы	-11.4803
▁скорее	-11.4803
▁вячэр	-11.4804
▁школьны	-11.4808
▁шэры	-11.4808
▁радыяцы	-11.4811
авецкі	-11.4814
2,5	-11.4815
▁Данія	-11.4822
▁дзесяцін	-11.4822
▁курфюрст	-11.4823
▁двухбакова	-11.4823
▁саўгаса	-11.4823
▁Васільевіч	-11.4825
▁кваліфікацыі	-11.483
▁юнак	-11.483
▁правільна	-11.4836
▁праспекта	-11.4836
лічваючы	-11.484
▁Шчыльнасць	-11.4843
▁керамікі	-11.4843
▁Дэбютаваў	-11.4844
▁прытвор	-11.4844
▁ўскраін	-11.4844
▁надрукаваны	-11.4845
▁сатыры	-11.4845
▁паэма	-11.4847
▁суседня	-11.4849
▁ранне	-11.485
▁дзіка	-11.4852
▁Банк	-11.4854
мкну	-11.4856
сферы	-11.4858
▁360	-11.486
▁дайшл	-11.4861
▁рэалізацыі	-11.4863
▁ограничен	-11.4864
▁становішчы	-11.4864
▁алімпійскі	-11.4864
▁разны	-11.4864
▁скасаванн	-11.4864
▁небольшо	-11.4865
▁касцюм	-11.4865
▁наземны	-11.4866
▁1792	-11.4868
▁Вітаўт	-11.4869
гіп	-11.487
▁Земле	-11.4873
чвае	-11.4874
писыва	-11.4876
▁правесц	-11.4877
▁кваліфікацыйн	-11.488
▁Вылуча	-11.4882
▁вайскоўца	-11.4884
▁збудаванні	-11.4884
▁Лепшы	-11.4884
▁понимаю	-11.4884
▁экологи	-11.4885
▁вечер	-11.4885
▁жытл	-11.4885
▁стральб	-11.4885
pan	-11.4886
▁покажу	-11.4887
ros	-11.4887
▁Дно	-11.4888
▁фаўн	-11.4889
▁прынца	-11.4893
▁1857	-11.4893
▁запісва	-11.4893
▁Камп	-11.4894
▁1846	-11.4894
▁Новак	-11.4898
▁геалагічны	-11.4899
▁лаз	-11.4903
▁инноваци	-11.4904
▁падножжа	-11.4904
▁молекул	-11.4904
▁гуляць	-11.4904
▁раствара	-11.4904
▁решить	-11.4904
log	-11.4906
помн	-11.4907
▁Георгія	-11.4908
▁Кін	-11.4908
▁рэалізава	-11.4909
▁рэчышча	-11.4911
верагодн	-11.4913
▁метадам	-11.4914
▁плотка	-11.4921
▁Чтоб	-11.4923
▁хірургі	-11.4925
▁трап	-11.4926
▁Багдана	-11.4927
▁шахт	-11.493
▁дзверы	-11.4933
▁Паўлін	-11.4937
▁Псы	-11.4939
▁мітрапаліта	-11.4939
дамінікан	-11.4941
▁1791	-11.4944
▁мініяцюр	-11.4945
▁протяжени	-11.4945
▁тэлескоп	-11.4946
▁кампазіцы	-11.4946
▁ценност	-11.4947
▁панавання	-11.4947
▁профіл	-11.4947
▁колькі	-11.4948
▁домой	-11.4949
▁Ga	-11.4952
▁Сацыял	-11.4953
▁епархі	-11.4956
▁правялі	-11.4956
▁Магілёўскім	-11.4957
▁атаку	-11.4957
▁сложн	-11.4958
джэнне	-11.4963
▁крыжовы	-11.4965
▁падтрымал	-11.4965
▁дыялектаў	-11.4965
▁дыяцэзіі	-11.4966
▁девочк	-11.4966
▁сексуальна	-11.4966
▁рэгент	-11.4967
▁Галанды	-11.4967
▁последне	-11.4968
▁выдзяля	-11.497
▁салон	-11.4971
▁Дунай	-11.4972
▁попыта	-11.4973
▁жаданне	-11.4974
▁вызначыў	-11.4979
▁асістэнт	-11.4986
▁хрышчэнн	-11.4986
▁неадкладна	-11.4986
▁далёкі	-11.4987
▁тармаз	-11.4987
▁спірт	-11.4988
▁зарэгістраваны	-11.4988
▁Ленінска	-11.4988
▁Майсе	-11.4991
▁забаронены	-11.4991
▁звяза	-11.4991
▁вернуть	-11.4992
пул	-11.4994
▁Рыбы	-11.4995
вуглярод	-11.4998
SA	-11.5
▁фарміраванн	-11.5
▁нашчадкам	-11.5
даследча	-11.5001
чнасць	-11.5001
бил	-11.5003
▁полага	-11.5003
▁разведк	-11.5003
▁Сяргеевіч	-11.5007
▁млекакормячы	-11.5007
▁своеасаблівы	-11.5007
▁Арменія	-11.5007
▁роль	-11.5008
▁паўстанні	-11.5011
▁лазер	-11.5012
▁тыл	-11.5013
▁вулканічна	-11.5014
▁даўні	-11.5015
▁біскупам	-11.5016
▁вольны	-11.5018
▁Значн	-11.5019
▁сектара	-11.5019
▁адбіва	-11.5022
▁масла	-11.5023
▁Навук	-11.5023
пеш	-11.5024
▁абарані	-11.5026
роўскі	-11.5027
▁здравоохранени	-11.5027
▁тэхналагічны	-11.5027
▁мінімум	-11.5028
▁семьи	-11.5029
▁прамежк	-11.5029
▁алкагол	-11.5029
▁речь	-11.503
▁заключается	-11.5031
▁механічна	-11.5034
▁плава	-11.5036
▁1818	-11.504
▁Камар	-11.5041
огда	-11.5043
▁творам	-11.5044
▁выпрацоў	-11.5045
▁Чыгуначна	-11.5048
▁Шумілінскі	-11.5048
▁пасмяротна	-11.5048
унга	-11.5051
▁абрана	-11.5052
▁распрацоўка	-11.5052
▁112	-11.5053
▁прадметам	-11.5056
▁Адрыян	-11.5056
▁вызыва	-11.5056
▁бліжэйшы	-11.5057
▁дваранства	-11.5058
зялёны	-11.5062
▁настоящи	-11.5063
▁фермент	-11.5063
▁размах	-11.5065
▁Нацый	-11.5066
8,5	-11.5069
▁Маладзечна	-11.5069
▁арганізоўва	-11.5069
▁месцазнаходжанн	-11.5069
▁філасофска	-11.5069
▁чатырма	-11.5069
▁Тэйлар	-11.5069
▁прапанаваны	-11.5069
▁грашова	-11.5069
▁выстаўка	-11.507
▁надпісам	-11.507
▁адхіленн	-11.507
▁Бялград	-11.5071
▁захворванняў	-11.5074
▁плады	-11.508
▁ўмацавання	-11.5083
▁1790	-11.5083
итесь	-11.5088
▁Сатурна	-11.5088
▁прысяг	-11.5088
▁Манголіі	-11.5089
▁саманазва	-11.5089
▁эквівалент	-11.5089
▁следует	-11.509
▁гульца	-11.509
▁рызык	-11.5091
▁Гомелі	-11.5091
▁асобнікаў	-11.5097
▁пальца	-11.5097
▁Нарадзіла	-11.5097
▁легенд	-11.5099
верху	-11.51
▁остальны	-11.5101
свяч	-11.5104
▁Куз	-11.5107
▁патрэбна	-11.5107
▁Бярэ	-11.5108
▁Th	-11.511
▁Альфрэд	-11.511
▁Шахцёр	-11.511
▁Выканаў	-11.5111
▁касма	-11.5111
▁травы	-11.5111
▁рухаў	-11.5111
▁Самым	-11.5115
▁лекавы	-11.5116
▁паказана	-11.5117
▁азот	-11.5119
▁ліп	-11.512
▁франк	-11.5121
▁памерах	-11.5122
▁паветрана	-11.5126
▁Якуб	-11.5129
▁Альгерд	-11.5131
▁дадатак	-11.5132
▁трацін	-11.5132
▁баран	-11.5132
▁няўдач	-11.5132
▁стылем	-11.5132
▁гаворка	-11.5132
▁Ліст	-11.5137
▁доктор	-11.5138
▁кантона	-11.5143
▁1845	-11.5144
▁лац	-11.5149
валюцыя	-11.5151
▁Пегас	-11.5154
▁1806	-11.5157
▁Пятроў	-11.5159
▁бюст	-11.516
▁Шчу	-11.5162
▁Дол	-11.5163
▁Мус	-11.5163
ранейшам	-11.5164
▁тэалогі	-11.5164
▁прыносі	-11.5165
ніцкая	-11.5167
▁создан	-11.5168
030	-11.5169
▁разрад	-11.5169
▁спадчыннікам	-11.5171
▁Капенгаген	-11.5173
▁Патрыярх	-11.5173
▁возвраща	-11.5173
▁функцыю	-11.5173
▁Венесуэл	-11.5173
▁вариант	-11.5173
▁грабніц	-11.5175
генез	-11.5181
▁Пачаў	-11.5189
▁Ge	-11.5191
спрэч	-11.5191
Ы	-11.5194
▁Фларэнцыі	-11.5194
▁атрымлівалі	-11.5194
▁злучэнні	-11.5194
▁паядынк	-11.5194
▁крыло	-11.5196
▁Дубро	-11.5197
▁исследоват	-11.52
▁станет	-11.5202
сцэн	-11.5202
тяж	-11.5205
▁адыход	-11.5208
▁астраномам	-11.5211
▁Оршы	-11.5211
▁зняволены	-11.5215
▁суцэльна	-11.5215
▁падводна	-11.5215
▁муравана	-11.5216
▁выступлення	-11.5222
▁ўпрыгожва	-11.5224
▁матэрыяльны	-11.5225
▁шкла	-11.5228
▁хол	-11.5233
▁заклікаў	-11.5234
▁Кембрыдж	-11.5236
▁ліштва	-11.5236
▁адзначана	-11.5236
▁персідска	-11.5236
▁Міхайлаў	-11.5236
▁ядзерны	-11.5237
▁розніц	-11.5239
азіяцк	-11.524
▁тэрарыст	-11.524
ock	-11.5241
▁Туніс	-11.5242
▁Галава	-11.5245
▁барон	-11.5246
верить	-11.5246
min	-11.5248
▁пакрыцц	-11.5249
▁маршалка	-11.5251
жываюцца	-11.5253
▁Татар	-11.5254
▁пакінуўшы	-11.5254
▁утварэння	-11.5257
gu	-11.5257
▁Крыш	-11.5257
▁крэйсер	-11.5257
▁Моцарт	-11.5257
▁Джавані	-11.5257
▁паслужыл	-11.5257
▁справаздач	-11.5257
▁Брэсце	-11.526
▁кузава	-11.5261
ire	-11.5264
▁Вор	-11.5265
▁самцоў	-11.5265
▁тытулам	-11.5268
ставляют	-11.527
▁формула	-11.5271
дзесят	-11.5271
▁Касцюк	-11.5272
▁Вышэйш	-11.5272
▁восенню	-11.5273
▁Флор	-11.5277
▁сярэднявечч	-11.5278
▁практически	-11.5278
татар	-11.5278
▁хороше	-11.5279
▁аказалі	-11.5279
▁адзенне	-11.5281
mon	-11.5282
▁вылет	-11.5282
льён	-11.5283
▁вдох	-11.5284
▁вниз	-11.5284
▁дзіцяці	-11.5287
▁1847	-11.5289
дольны	-11.5291
▁шлем	-11.5291
net	-11.5293
▁1780	-11.5293
вольны	-11.5295
▁Ціт	-11.5296
▁сітуацы	-11.5298
▁лінейны	-11.5299
▁сегмент	-11.5299
▁ўключала	-11.53
▁паездк	-11.53
▁адраджэння	-11.53
РУ	-11.5301
▁ўмераны	-11.5304
сор	-11.5304
весну	-11.5304
плаціць	-11.5306
▁Гімн	-11.5306
▁Вайн	-11.5307
▁прадпрымальнік	-11.5307
▁вузел	-11.531
▁валун	-11.5316
давать	-11.5318
▁Жэн	-11.5319
▁бактери	-11.5321
▁вучэбна	-11.5321
▁рэканструява	-11.5321
▁Мяркуе	-11.5321
▁генацыд	-11.5321
▁дапаможны	-11.5321
▁карпарацы	-11.5321
▁далеко	-11.5323
▁выканаўчы	-11.5327
ob	-11.533
чек	-11.5332
▁удивительно	-11.5332
▁мысли	-11.5336
▁намінал	-11.5336
▁Пяр	-11.534
▁Перамогі	-11.5342
▁мяцеж	-11.5342
▁Ганаровы	-11.5342
▁Шры	-11.5345
▁прыхільнікі	-11.5348
▁каха	-11.535
▁Шырын	-11.5354
ющую	-11.5355
▁треть	-11.5358
носны	-11.5362
▁Брытаніі	-11.5363
▁Біблія	-11.5363
▁Святаполк	-11.5363
▁связь	-11.5364
su	-11.5365
▁выслана	-11.5365
▁хана	-11.5366
▁330	-11.5367
сінг	-11.5371
▁знішчы	-11.5375
Венгрыі	-11.538
▁Вікіпедыі	-11.5385
▁набажэнств	-11.5385
▁Ігумен	-11.5385
▁практыку	-11.5385
▁разбуры	-11.5385
клетачн	-11.5385
▁Залато	-11.5385
▁актыўнасц	-11.5386
▁біялагічна	-11.5386
▁Шон	-11.5387
▁персанал	-11.5387
ключыць	-11.5387
▁артылеры	-11.5388
▁Дзяржынск	-11.5395
▁полюс	-11.54
культур	-11.5401
▁бальшавік	-11.5401
сып	-11.5403
имся	-11.5404
▁тавараў	-11.5404
▁юнацк	-11.5406
▁чвэрцьфінал	-11.5406
▁ўзнікнення	-11.5406
▁Меркуры	-11.5406
▁позволит	-11.5406
▁Тышкевіч	-11.5408
▁Служы	-11.5408
водзяць	-11.5409
▁спадарожнікаў	-11.5411
▁Кубк	-11.5414
▁жил	-11.5415
▁ўчастка	-11.5417
▁зменены	-11.5418
правления	-11.5419
правлен	-11.5419
▁пакінуты	-11.5421
▁насіў	-11.5422
▁матэры	-11.5423
Го	-11.5426
▁используя	-11.5427
▁індыйскі	-11.5429
▁паварот	-11.5437
▁Пераклад	-11.5439
▁кіда	-11.5439
▁получен	-11.5441
▁рачны	-11.5442
▁паўторна	-11.5447
▁архіепіскап	-11.5449
▁Блізкі	-11.5449
▁гімназію	-11.5449
▁Распрацава	-11.5449
▁шосты	-11.5449
▁названием	-11.5449
▁перемен	-11.5449
▁однажды	-11.5452
сібірск	-11.5453
▁ўпадзенн	-11.5453
▁старш	-11.546
▁далучыліс	-11.546
гракоў	-11.5461
▁2-3	-11.5464
пушчана	-11.5466
▁хлопчыка	-11.5466
sion	-11.5468
▁інфармацыйны	-11.5469
▁книги	-11.547
▁цели	-11.547
▁Манчэстэр	-11.547
▁ощущени	-11.547
▁адкрыцці	-11.547
▁Сістэма	-11.547
▁луска	-11.5471
▁Акта	-11.5471
▁Асобны	-11.5473
▁садавін	-11.5474
▁Мяс	-11.5478
▁Or	-11.5479
▁Адрозніваю	-11.5481
▁Жук	-11.5481
▁Рыжска	-11.5482
rum	-11.5483
ключэнне	-11.5483
▁атол	-11.5484
▁стратэгічна	-11.5486
▁даследаваў	-11.5489
уадносіны	-11.5492
▁математик	-11.5492
▁становяцца	-11.5492
▁размнажэнн	-11.5492
▁аддзяленні	-11.5492
▁экзамен	-11.5492
▁інструментаў	-11.5493
▁ніжэйшы	-11.5496
▁адваротны	-11.5497
▁падпольна	-11.5498
▁Рэспубліканска	-11.5499
▁зніжа	-11.5503
▁Львоў	-11.5504
▁глаз	-11.5504
▁1834	-11.5505
▁Грэнландыі	-11.5505
▁Докшыцкі	-11.5506
▁Лэ	-11.551
org	-11.551
писал	-11.5511
лійскі	-11.5512
▁человечеств	-11.5514
▁Будапешт	-11.5514
▁інвентар	-11.5514
▁устройств	-11.5514
▁брытанц	-11.5514
▁общество	-11.5516
▁вучэння	-11.5516
вязаны	-11.5521
▁аддадзены	-11.5524
▁перажыва	-11.5527
▁Адбы	-11.5529
▁операци	-11.5529
▁сусветн	-11.5531
▁Гло	-11.5533
▁Сміт	-11.5533
▁Вікторыя	-11.5535
era	-11.5539
▁Кінг	-11.554
▁крамы	-11.5542
▁зямельны	-11.5547
▁БД	-11.555
▁ўтвара	-11.5552
▁задавал	-11.5553
▁атрымоўва	-11.5557
▁першапачатковы	-11.5557
▁посмотрим	-11.5557
▁люблю	-11.5557
▁Усевалад	-11.5558
▁звіліста	-11.5558
▁ПАР	-11.5558
▁Гарвард	-11.5559
▁Лацінска	-11.556
▁Дзяніс	-11.556
▁1853	-11.5567
НА	-11.5568
▁Візанты	-11.5569
▁1837	-11.5569
▁1855	-11.5569
метал	-11.5569
▁шанс	-11.557
▁поскольк	-11.5574
▁паспрабаваў	-11.5575
▁супрацоўніцтв	-11.5577
▁солнечн	-11.5579
▁Шматлікі	-11.5579
▁уровня	-11.5579
▁федэральны	-11.5579
▁абставін	-11.558
▁Войска	-11.558
▁матыл	-11.5582
▁Бяс	-11.5584
▁мадэрн	-11.5588
▁перабудаваны	-11.5589
ore	-11.5591
▁Евангелле	-11.5591
▁персон	-11.5591
руючы	-11.5592
нштэйн	-11.5593
правлять	-11.5595
▁платформа	-11.5597
▁канфіскава	-11.5601
▁определя	-11.5601
▁аднаму	-11.5601
▁шырыню	-11.5601
▁Менск	-11.5602
▁Швейцарыя	-11.5602
▁вясны	-11.5602
▁разрабава	-11.5603
[...]
