<unk>	0
<s>	0
</s>	0
<pad>	0
▁,	-2.70788
▁.	-3.14928
е	-3.81509
и	-4.01073
▁в	-4.02427
▁и	-4.13107
▁	-4.35806
й	-4.35981
▁что	-4.49994
а	-4.5311
▁на	-4.65484
▁не	-4.68485
х	-4.68493
ы	-4.8559
▁с	-4.89656
м	-4.95838
▁я	-4.99912
▁это	-5.01075
у	-5.06175
я	-5.15144
▁мы	-5.16155
ся	-5.21467
-	-5.3237
▁как	-5.41297
;	-5.46268
ть	-5.48084
▁:	-5.48813
▁И	-5.4922
▁—	-5.49267
▁по	-5.53057
▁&	-5.53395
ot	-5.56006
qu	-5.56405
го	-5.57772
о	-5.62798
▁?	-5.63294
▁вы	-5.64662
▁Я	-5.65095
▁из	-5.67545
ов	-5.67932
ю	-5.70862
▁Это	-5.82644
ом	-5.84361
т	-5.84553
▁о	-5.8509
▁к	-5.85467
▁у	-5.86268
«	-5.88271
▁»	-5.89121
▁для	-5.90534
▁за	-5.90991
▁то	-5.97776
▁)	-6.02104
(	-6.02203
ая	-6.04294
▁они	-6.04294
ой	-6.05823
▁В	-6.09605
ую	-6.12443
▁от	-6.12932
▁так	-6.13242
то	-6.1336
▁но	-6.1786
▁Мы	-6.19008
▁Но	-6.20089
▁бы	-6.20485
▁был	-6.22109
▁чтобы	-6.22148
ми	-6.27433
▁а	-6.30608
▁когда	-6.3427
▁он	-6.35803
▁или	-6.38618
▁же	-6.39962
▁было	-6.42015
▁их	-6.4257
▁эти	-6.45381
▁если	-6.46293
▁есть	-6.46483
▁все	-6.47623
ь	-6.48053
▁очень	-6.504
▁которые	-6.5074
▁нас	-6.51955
▁А	-6.53939
▁его	-6.55243
▁меня	-6.55281
▁может	-6.58459
▁до	-6.62942
ли	-6.63675
▁том	-6.6666
▁мне	-6.67079
ем	-6.68016
▁-	-6.6879
▁лет	-6.72646
▁Смех	-6.73297
▁всё	-6.74973
▁только	-6.76981
▁С	-6.79794
ами	-6.81641
в	-6.84044
▁нам	-6.85775
ей	-6.88107
▁потому	-6.89336
▁людей	-6.89366
▁того	-6.90153
▁чем	-6.90176
▁больше	-6.90497
▁просто	-6.91157
▁вам	-6.91456
▁быть	-6.91629
▁она	-6.94734
▁при	-6.98268
▁У	-6.99076
▁этого	-6.99876
▁Так	-7.0028
▁Они	-7.01926
▁На	-7.03332
▁который	-7.04963
лись	-7.05342
ет	-7.05649
▁этом	-7.0608
▁Он	-7.06575
▁где	-7.07634
▁об	-7.07668
▁ли	-7.08171
▁раз	-7.08306
▁можно	-7.09183
▁вот	-7.0977
л	-7.09856
▁была	-7.10076
▁время	-7.10277
▁вас	-7.10742
▁люди	-7.12118
▁Вы	-7.12958
▁более	-7.13281
▁ещё	-7.15271
▁будет	-7.16729
▁Если	-7.16777
ться	-7.17124
▁которо	-7.18359
сь	-7.1837
с	-7.18916
▁них	-7.1983
ого	-7.20689
▁этот	-7.21169
▁под	-7.21425
▁её	-7.21943
▁со	-7.22671
з	-7.22748
.	-7.23614
▁–	-7.23777
ла	-7.25549
▁Вот	-7.25772
▁♫	-7.27592
▁Аплодисменты	-7.28617
▁во	-7.30005
те	-7.31583
му	-7.32065
▁уже	-7.32188
▁даже	-7.32405
ют	-7.32587
▁нужно	-7.32673
▁много	-7.3344
▁сделать	-7.33544
▁кто	-7.35957
▁Как	-7.36265
▁жизни	-7.3742
▁можем	-7.38803
▁здесь	-7.38981
на	-7.39652
▁нет	-7.41059
ах	-7.41259
ка	-7.4151
▁этой	-7.41826
▁тем	-7.42069
▁всего	-7.42164
ок	-7.42267
▁себя	-7.42581
к	-7.43659
д	-7.4394
▁сейчас	-7.45129
▁также	-7.47304
▁один	-7.47935
▁Не	-7.49133
▁сказал	-7.4954
▁свое	-7.49755
▁про	-7.5055
▁!	-7.51131
▁которая	-7.51377
▁По	-7.51985
▁самом	-7.53711
лось	-7.53893
▁могут	-7.54064
▁Что	-7.54397
ных	-7.54745
ная	-7.54871
▁Когда	-7.55518
▁думаю	-7.5572
▁должны	-7.56535
ются	-7.56698
ется	-7.57075
но	-7.57385
ых	-7.57419
▁да	-7.58566
▁всех	-7.59701
▁вопрос	-7.59986
▁там	-7.604
за	-7.6144
▁деле	-7.61593
ные	-7.62057
ной	-7.6301
ки	-7.63954
▁свои	-7.64233
▁ты	-7.64434
і	-7.64772
ен	-7.65397
▁мир	-7.65429
▁хочу	-7.65729
▁назад	-7.65997
н	-7.66252
▁эту	-7.66631
▁мое	-7.67368
лась	-7.6805
▁...	-7.68715
ко	-7.69051
▁этим	-7.69865
▁Она	-7.70239
ную	-7.71369
▁Да	-7.71375
▁Итак	-7.72193
▁К	-7.72413
▁через	-7.72589
▁%	-7.72967
ло	-7.72991
сти	-7.74377
же	-7.75911
▁человек	-7.76105
▁само	-7.76203
▁себе	-7.76493
ый	-7.76669
ам	-7.76905
▁ни	-7.77931
▁жизнь	-7.79267
▁несколько	-7.79609
▁делать	-7.80823
▁которы	-7.81132
▁лучше	-7.82256
▁после	-7.82622
▁года	-7.83248
пример	-7.83258
▁день	-7.83375
▁котор	-7.83767
▁Спасибо	-7.83981
▁мире	-7.84279
▁эта	-7.85373
▁году	-7.85506
ный	-7.85663
ны	-7.85897
▁им	-7.86342
▁і	-7.86578
▁действительно	-7.86928
▁друг	-7.87648
▁времени	-7.87892
▁без	-7.87945
▁з	-7.88879
▁над	-7.90128
р	-7.91456
▁между	-7.91923
▁возможно	-7.94105
▁хотел	-7.94199
▁сегодня	-7.95169
▁образом	-7.95578
▁происходит	-7.96471
▁некоторы	-7.97246
▁каждый	-7.97289
ного	-7.97395
1	-7.97553
▁сказать	-8.00401
▁два	-8.00413
▁тех	-8.01721
▁почему	-8.01729
▁момент	-8.01842
▁видит	-8.01995
▁Е	-8.02114
▁10	-8.02455
▁именно	-8.03378
▁является	-8.03669
▁пол	-8.03738
▁год	-8.04099
▁одна	-8.04539
▁других	-8.04777
▁теперь	-8.05164
▁могли	-8.05249
▁человека	-8.05322
▁знаю	-8.05469
▁детей	-8.05632
▁пере	-8.06017
▁всегда	-8.06164
▁мои	-8.0621
ць	-8.06616
▁Поэтому	-8.07046
▁никогда	-8.0783
▁наши	-8.07922
юсь	-8.07966
▁вместе	-8.08004
▁часть	-8.08542
▁те	-8.08546
▁нашей	-8.08547
▁мой	-8.08894
▁пример	-8.0898
ку	-8.10248
та	-8.10258
га	-8.10622
лся	-8.10788
▁будут	-8.11303
либо	-8.12274
▁пока	-8.12322
▁использовать	-8.12537
▁О	-8.12546
вою	-8.12826
▁Мне	-8.13237
▁могу	-8.13402
▁тогда	-8.13746
да	-8.15101
г	-8.15249
▁такой	-8.15531
▁такие	-8.15904
▁говорил	-8.15925
ля	-8.16731
▁тысяч	-8.17253
▁вещи	-8.17293
▁важно	-8.17639
▁три	-8.17693
ным	-8.18563
▁лишь	-8.18709
ж	-8.1905
сть	-8.19053
▁другой	-8.1917
▁Одна	-8.19183
▁ў	-8.19222
п	-8.19834
ти	-8.20121
▁потом	-8.2074
▁што	-8.20754
▁тот	-8.21028
ым	-8.21034
▁З	-8.21464
▁наших	-8.22538
ва	-8.22724
▁немного	-8.23609
▁ничего	-8.23673
▁него	-8.23842
▁США	-8.24588
▁затем	-8.24595
▁последни	-8.24736
▁таким	-8.25003
▁говорит	-8.25247
a	-8.25656
ма	-8.25812
▁Теперь	-8.26227
▁хорошо	-8.26373
▁мира	-8.26376
▁перед	-8.26457
ст	-8.26535
▁истории	-8.26709
▁понять	-8.27521
▁конечно	-8.27658
ешь	-8.27837
▁таких	-8.28042
ш	-8.28152
▁миллион	-8.28277
▁П	-8.28542
▁около	-8.2885
▁проблема	-8.28863
▁;	-8.28953
▁больш	-8.2905
▁начал	-8.29357
▁знаем	-8.30221
еще	-8.30368
▁То	-8.30623
▁знаете	-8.30749
▁наше	-8.30791
▁такое	-8.31831
▁одной	-8.31835
▁способ	-8.31989
▁па	-8.32437
ое	-8.32629
▁другие	-8.32674
▁новы	-8.32932
▁20	-8.32941
▁оно	-8.33399
▁поэтому	-8.33536
тся	-8.3364
▁разны	-8.33706
▁чего	-8.34098
▁&#9	-8.34624
▁долларов	-8.34842
▁&#93;	-8.34937
ное	-8.35431
▁000	-8.35621
▁Для	-8.35671
▁место	-8.35689
▁помощью	-8.35913
▁снова	-8.35968
▁Все	-8.3634
▁ему	-8.36489
чи	-8.36579
▁идея	-8.36688
▁возможность	-8.36712
▁сам	-8.36753
▁найти	-8.36824
▁создать	-8.378
▁которым	-8.37838
▁проблемы	-8.38461
ў	-8.3852
емся	-8.39898
▁наш	-8.39903
сколько	-8.4002
▁Потому	-8.40213
▁случае	-8.41516
▁работы	-8.41774
лі	-8.41854
▁результат	-8.42118
▁процесс	-8.42991
ейчас	-8.43747
нибудь	-8.44222
▁моя	-8.44241
▁первы	-8.44426
▁Почему	-8.4448
▁каждо	-8.44545
▁данные	-8.44726
▁работает	-8.44861
ни	-8.454
ё	-8.45758
▁Нам	-8.45839
▁имеет	-8.45849
▁пыта	-8.46029
▁работа	-8.46101
▁теб	-8.46353
▁достаточно	-8.46364
▁течение	-8.46616
▁всем	-8.47041
▁За	-8.47141
ра	-8.47295
ль	-8.47331
▁пор	-8.47513
▁мог	-8.47519
▁почти	-8.47638
▁работать	-8.47638
▁ответ	-8.47996
▁увидеть	-8.48622
▁проект	-8.48626
▁должен	-8.48712
▁надо	-8.48712
▁ее	-8.48949
▁значит	-8.48978
▁Д	-8.49437
▁технологии	-8.50009
▁мозга	-8.50899
▁котором	-8.51
▁количество	-8.51227
▁двух	-8.51303
▁работу	-8.51543
▁Эти	-8.51587
▁одно	-8.51711
▁многие	-8.52194
▁какой	-8.52602
▁Мо	-8.52756
▁кажет	-8.52767
огда	-8.5332
▁б	-8.5336
▁стали	-8.53589
▁ваше	-8.53788
ру	-8.54165
▁весь	-8.54366
▁Давайте	-8.54369
▁групп	-8.54648
ф	-8.54893
▁людям	-8.55223
▁меньше	-8.55476
▁мозг	-8.5562
▁показать	-8.55667
▁видим	-8.55783
ди	-8.5591
▁делает	-8.56002
▁часто	-8.56721
▁Во	-8.56976
ты	-8.57043
▁дело	-8.57319
▁свой	-8.57568
▁тут	-8.57734
▁прямо	-8.57764
▁Ну	-8.58541
▁этому	-8.59097
▁изменить	-8.59149
▁всему	-8.59544
▁своё	-8.59648
▁любо	-8.59854
▁совершенно	-8.60077
ри	-8.60191
▁быстро	-8.60461
▁гэта	-8.61469
▁слишком	-8.61703
▁смысл	-8.61816
▁необходимо	-8.61824
▁женщин	-8.6188
ле	-8.62229
▁Нет	-8.62243
▁говорить	-8.6242
▁совсем	-8.62705
▁ведь	-8.63025
▁одного	-8.63133
ясь	-8.6318
▁система	-8.63234
▁ко	-8.63516
▁собой	-8.63956
▁ряд	-8.64001
▁примерно	-8.64265
▁стать	-8.64382
не	-8.64463
▁системы	-8.64489
▁стал	-8.64913
▁страны	-8.64988
▁две	-8.6538
▁видеть	-8.65525
▁начали	-8.65627
▁довольно	-8.65647
ч	-8.65677
▁части	-8.65761
▁форм	-8.65768
▁миру	-8.65886
ном	-8.65983
▁3	-8.66077
тоже	-8.66101
роде	-8.66439
▁многих	-8.66827
▁вокруг	-8.66916
до	-8.67045
десь	-8.67272
▁своим	-8.67289
▁2	-8.67549
▁Эта	-8.67846
ния	-8.67968
▁та	-8.67988
▁сделали	-8.68194
▁проблем	-8.68426
▁внимание	-8.68741
▁сами	-8.69209
▁говорят	-8.69397
место	-8.69455
▁причин	-8.70005
▁Всё	-8.70018
▁информации	-8.70119
хотим	-8.70262
▁дома	-8.70304
▁подумал	-8.70581
▁видео	-8.70798
▁конце	-8.70805
▁стоит	-8.71246
▁ин	-8.71376
▁обычно	-8.71459
ями	-8.71529
ыми	-8.71721
▁100	-8.71771
▁внутри	-8.71789
▁существует	-8.71896
▁делают	-8.71959
▁история	-8.72001
▁свет	-8.72091
столько	-8.72262
▁самых	-8.72797
▁различны	-8.72866
▁новые	-8.7297
▁стороны	-8.73039
ин	-8.7319
б	-8.73316
▁получить	-8.73502
▁При	-8.73667
ре	-8.73764
▁Ес	-8.73981
ностью	-8.74316
▁сделал	-8.74677
▁Э	-8.75056
▁находит	-8.75113
▁30	-8.75823
▁людьми	-8.75857
▁начала	-8.75886
▁данных	-8.76095
▁должно	-8.76155
▁сильно	-8.76513
ёт	-8.76618
▁энергии	-8.76885
▁рассказать	-8.77224
▁наша	-8.77333
▁слова	-8.7742
▁дети	-8.7743
вер	-8.77461
▁войн	-8.77535
▁историю	-8.77704
▁решения	-8.77753
означает	-8.77872
▁Люд	-8.78132
▁важны	-8.78266
▁особенно	-8.78366
▁50	-8.78617
ён	-8.78752
▁Сегодня	-8.78977
ными	-8.7904
▁ним	-8.79367
▁Нью	-8.79458
менее	-8.79681
▁всю	-8.79711
▁друга	-8.79884
▁хотя	-8.80282
▁создал	-8.80532
▁основ	-8.81003
▁одну	-8.81071
▁становит	-8.81391
ние	-8.81892
▁чём	-8.82011
▁называет	-8.82176
▁перво	-8.8226
▁города	-8.82336
▁компании	-8.83371
▁постоянно	-8.83376
▁ново	-8.83386
▁неё	-8.83389
▁точно	-8.83484
▁места	-8.83508
ду	-8.83777
▁TED	-8.83844
цы	-8.8424
▁исследования	-8.84429
по	-8.84457
ев	-8.84777
▁компьютер	-8.84992
▁увидел	-8.85135
ически	-8.8533
▁большой	-8.85424
▁помоч	-8.85527
▁кого	-8.85581
це	-8.85876
▁деньги	-8.85944
▁представить	-8.86106
▁благодаря	-8.86344
▁возможности	-8.86417
жи	-8.86525
▁воды	-8.87107
▁зрения	-8.87363
▁процент	-8.87403
▁вид	-8.87717
▁ник	-8.87823
▁Конечн	-8.87901
▁сказала	-8.87967
▁понял	-8.8798
▁эксперимент	-8.88016
ан	-8.8826
▁буду	-8.88348
▁самы	-8.88398
▁Б	-8.88555
▁стран	-8.88943
▁опыт	-8.88972
▁начать	-8.88972
▁мере	-8.88977
▁начинает	-8.89005
▁точки	-8.89074
ц	-8.89203
▁стало	-8.89386
▁узна	-8.89546
ор	-8.89708
▁говорю	-8.89778
э	-8.89779
▁иметь	-8.90047
▁будем	-8.90052
▁минут	-8.9027
ро	-8.90309
▁женщины	-8.90404
▁технологи	-8.90514
▁мной	-8.90841
▁такого	-8.91122
▁горазд	-8.91196
▁множество	-8.91309
цца	-8.91391
▁информацию	-8.9142
▁буд	-8.91748
▁♪	-8.91835
▁сможем	-8.9187
▁сложно	-8.91874
▁решение	-8.92031
▁1	-8.92086
лен	-8.92322
▁Таким	-8.92489
▁оказа	-8.92522
▁спросил	-8.92731
▁большинство	-8.92792
▁должна	-8.9281
▁5	-8.92815
ну	-8.9291
ча	-8.93085
▁против	-8.93165
ком	-8.93261
▁4	-8.93476
ры	-8.93522
ём	-8.93547
▁вещей	-8.9357
▁выбор	-8.93712
▁Может	-8.938
▁работаю	-8.93811
▁дела	-8.94261
▁15	-8.94526
па	-8.94538
e	-8.94656
▁изменения	-8.94945
▁идеи	-8.9524
▁телефон	-8.95385
аў	-8.95535
первы	-8.95706
▁туда	-8.95769
▁нашем	-8.95957
йти	-8.95958
▁сколько	-8.96018
▁Можн	-8.96204
▁систему	-8.96328
▁жить	-8.96352
▁программ	-8.96499
▁взять	-8.96527
▁спасибо	-8.96662
s	-8.96691
▁выглядит	-8.96788
▁рас	-8.97025
ят	-8.97092
ец	-8.97165
▁ними	-8.97324
▁размер	-8.97572
ня	-8.97656
▁следующи	-8.97676
▁интересно	-8.97731
би	-8.97788
▁знал	-8.97807
▁перв	-8.97846
▁вами	-8.98115
▁нечто	-8.98133
▁намного	-8.98136
▁помощи	-8.98275
▁раньше	-8.98276
▁странах	-8.98312
▁факт	-8.98356
▁ваши	-8.98415
▁посмотреть	-8.98423
ще	-8.98426
▁стране	-8.98483
▁вообще	-8.9872
он	-8.98975
▁слово	-8.98994
▁стала	-8.99043
▁куда	-8.99171
▁лучши	-8.99194
▁нравит	-8.99215
▁закон	-8.99514
▁клетки	-8.99524
▁нужны	-8.9958
▁считаю	-8.99612
▁другом	-8.99814
▁ей	-8.99881
▁Или	-9.00163
вляются	-9.00351
▁пра	-9.00399
бы	-9.00668
▁делаем	-9.00812
▁думать	-9.01074
▁хотят	-9.01134
▁друго	-9.01307
▁Хорошо	-9.01462
▁нашу	-9.01556
▁До	-9.01609
▁моё	-9.01635
o	-9.01641
ши	-9.01799
▁имеют	-9.01813
▁пути	-9.02049
во	-9.02073
ке	-9.02175
▁произошло	-9.02276
тор	-9.02574
▁мест	-9.02815
▁дня	-9.02916
▁бо	-9.02944
▁думал	-9.03031
▁какие	-9.03148
▁т	-9.0323
▁звук	-9.03457
дальше	-9.0362
▁ответил	-9.03658
▁сама	-9.03705
са	-9.0372
ал	-9.04198
▁инструмент	-9.04206
▁смогл	-9.04288
от	-9.04718
▁месяцев	-9.04862
▁Кто	-9.05037
▁занима	-9.05204
▁От	-9.05271
▁нами	-9.05335
▁итог	-9.05362
▁Там	-9.05498
▁40	-9.05602
▁Ты	-9.05855
▁мало	-9.05867
▁области	-9.05954
▁спустя	-9.05964
▁Зате	-9.06027
ша	-9.06372
▁зале	-9.06694
▁бизнес	-9.068
▁видели	-9.06851
▁Возможно	-9.06916
▁Ф	-9.0698
▁вопросы	-9.07084
▁месте	-9.07271
менно	-9.07477
▁М	-9.07564
▁уровень	-9.07595
▁приходит	-9.07644
▁ваш	-9.07878
▁оста	-9.07974
▁структур	-9.08104
▁невероятно	-9.08175
ски	-9.08247
▁цвет	-9.0867
▁самым	-9.08674
ось	-9.08768
▁подход	-9.08917
▁огромно	-9.09055
▁крайне	-9.09217
▁среди	-9.09386
бо	-9.09455
жа	-9.09549
▁уровне	-9.09651
▁город	-9.09735
▁животных	-9.09867
▁ДНК	-9.10026
или	-9.10157
▁четыре	-9.10216
▁пару	-9.10398
▁плохо	-9.10511
▁легко	-9.10532
ту	-9.10676
ды	-9.10728
▁знать	-9.10751
▁населения	-9.10908
▁большое	-9.11102
ци	-9.11251
▁рода	-9.11399
pos	-9.11504
ющие	-9.11517
▁Тогда	-9.11552
мер	-9.11664
▁ад	-9.11686
▁кажд	-9.11845
▁думает	-9.11953
▁тела	-9.11956
▁человеческо	-9.11978
▁кое	-9.12051
▁хотите	-9.12211
▁пять	-9.12337
▁смерт	-9.12348
ющий	-9.12378
ость	-9.12387
▁взгляд	-9.12426
ца	-9.12558
говорим	-9.12575
▁маленьки	-9.12666
▁работал	-9.12854
▁денег	-9.12893
▁ту	-9.12996
▁одним	-9.12999
ности	-9.13144
▁карт	-9.13162
ости	-9.13257
лю	-9.1332
▁вещь	-9.13579
ющих	-9.13618
смотря	-9.1363
ение	-9.13662
ста	-9.13708
▁решил	-9.13733
▁будущем	-9.13759
▁долго	-9.14056
▁создания	-9.14182
▁общества	-9.14214
▁второ	-9.14408
▁решили	-9.14816
▁океан	-9.14836
▁После	-9.15296
▁модель	-9.15578
льзя	-9.15586
кой	-9.15814
▁правд	-9.15916
▁Один	-9.16031
ар	-9.16035
▁защит	-9.1612
ба	-9.16148
▁Т	-9.16452
чы	-9.167
▁подобны	-9.16853
▁никак	-9.16906
▁наконец	-9.16907
▁развития	-9.1697
ставить	-9.17023
▁появи	-9.17237
▁экономик	-9.17304
▁як	-9.1754
▁Африке	-9.17706
могла	-9.17761
▁равно	-9.1777
▁фильм	-9.17786
▁наибол	-9.17818
▁другим	-9.17825
▁прошлом	-9.17941
▁сред	-9.17979
▁Индии	-9.17982
▁давайте	-9.1817
нию	-9.18171
▁часов	-9.18197
▁число	-9.18281
ическ	-9.18612
▁идёт	-9.18706
▁нашим	-9.18732
▁путь	-9.18768
▁Из	-9.18786
▁абсолютно	-9.18969
▁связи	-9.18999
▁используют	-9.19061
▁нов	-9.1927
гу	-9.19542
▁Большо	-9.19775
▁миллиардов	-9.20182
ил	-9.20199
▁ж	-9.20348
▁будущее	-9.2035
что	-9.20402
▁уверен	-9.20415
▁Представь	-9.20534
нём	-9.20827
шего	-9.20899
▁социальны	-9.20953
▁работе	-9.20989
▁Про	-9.21158
▁частью	-9.21196
▁виду	-9.21212
вы	-9.21269
йте	-9.21378
▁Некоторы	-9.21462
▁источник	-9.21521
▁де	-9.21624
▁прав	-9.21734
▁Кажды	-9.21866
ков	-9.21978
▁интернет	-9.22072
▁Х	-9.22173
▁такая	-9.22185
▁Музыка	-9.22398
▁18	-9.22558
▁сети	-9.22569
▁рост	-9.22679
▁ген	-9.22787
▁называем	-9.22814
про	-9.22857
▁обратно	-9.22972
▁S	-9.2315
▁руки	-9.23344
▁одном	-9.23458
▁дней	-9.23609
▁правильно	-9.23623
▁использовани	-9.23912
▁Ш	-9.23969
▁лаборатори	-9.24096
▁6	-9.24192
t	-9.24307
▁голов	-9.24531
▁знает	-9.24647
▁известно	-9.25275
▁говоря	-9.25298
етесь	-9.25309
ги	-9.25316
▁состоит	-9.25478
ер	-9.25652
▁сотн	-9.25751
▁позволяет	-9.25876
си	-9.25957
▁Чтоб	-9.26029
r	-9.26056
▁сразу	-9.26161
▁знали	-9.26195
▁дом	-9.26298
▁центр	-9.26388
бер	-9.26402
че	-9.26407
▁пришлось	-9.26451
ность	-9.26559
▁другими	-9.26665
▁права	-9.26839
су	-9.27028
вая	-9.27104
об	-9.27117
▁невозможно	-9.27216
кі	-9.27599
али	-9.27607
▁Многи	-9.27811
стати	-9.27814
▁создавать	-9.2785
▁имею	-9.27903
▁машины	-9.28001
ижу	-9.28047
▁план	-9.28259
▁І	-9.28261
▁чувство	-9.2834
▁Ин	-9.28384
тер	-9.28538
▁глаза	-9.28767
▁видов	-9.28818
ство	-9.29147
▁фотографии	-9.2922
▁трудно	-9.29383
▁язык	-9.2946
▁скорее	-9.29626
▁г	-9.29634
▁обо	-9.29792
ров	-9.2982
сто	-9.2988
зи	-9.29982
▁собственны	-9.30014
ник	-9.30038
▁цел	-9.30221
▁покажу	-9.30241
▁похоже	-9.30362
▁движение	-9.30429
▁школу	-9.30441
▁решить	-9.30454
▁Р	-9.30619
▁Мой	-9.30696
▁протяжени	-9.30867
▁проблему	-9.31
▁нейрон	-9.31004
▁образование	-9.31055
▁вернуть	-9.31119
▁самые	-9.31199
▁домой	-9.31523
пер	-9.31581
▁сут	-9.31748
▁уж	-9.31864
▁заключается	-9.31882
▁свобод	-9.31921
▁типа	-9.31928
▁шаг	-9.31954
▁Оно	-9.31965
▁станет	-9.32041
ировать	-9.32175
▁движения	-9.32688
▁сил	-9.32929
▁речь	-9.3295
▁семьи	-9.33234
▁каким	-9.33386
▁мою	-9.33393
▁мужчин	-9.33414
▁пред	-9.33438
▁качестве	-9.33599
▁собственно	-9.33705
▁следует	-9.3381
▁культур	-9.33839
▁половин	-9.34224
ёр	-9.34356
▁практически	-9.34377
▁дизайн	-9.34444
▁п	-9.35013
▁”	-9.35015
▁модели	-9.35021
▁далеко	-9.35085
▁Меня	-9.3509
i	-9.35415
ятся	-9.35495
▁голос	-9.35511
овать	-9.3553
▁используем	-9.35533
▁используя	-9.35657
▁группа	-9.35871
▁8	-9.35876
▁однажды	-9.35898
▁планеты	-9.35957
▁даёт	-9.36062
▁связь	-9.36138
▁названием	-9.36151
▁цели	-9.36185
2	-9.36225
▁нескольки	-9.36418
▁доступ	-9.36422
▁Вам	-9.36487
▁хороши	-9.36553
▁небольшо	-9.37119
▁сигнал	-9.37315
дер	-9.37409
▁посмотрим	-9.37413
▁час	-9.37415
▁поскольк	-9.37492
▁уровня	-9.37499
▁женщина	-9.37539
▁роль	-9.37618
ому	-9.37778
▁12	-9.38393
▁увидите	-9.38461
едь	-9.38552
▁понима	-9.38652
пи	-9.38656
ения	-9.38799
▁полно	-9.38858
▁дале	-9.39106
▁Был	-9.39106
▁интерес	-9.39384
ской	-9.39461
▁право	-9.39468
▁25	-9.39516
▁цель	-9.39666
▁способны	-9.39684
▁хотела	-9.3974
▁моим	-9.3982
друг	-9.39945
▁7	-9.40078
▁общество	-9.40175
▁причина	-9.40438
▁период	-9.40439
гра	-9.40525
▁обнаружили	-9.4087
де	-9.40923
▁планете	-9.40945
▁калі	-9.40961
▁безопасности	-9.40966
▁ночь	-9.41268
▁идею	-9.41411
ос	-9.41413
▁образ	-9.41505
▁Об	-9.41756
▁случилось	-9.41764
▁отношения	-9.41786
▁света	-9.41808
▁книги	-9.41887
ше	-9.41906
М	-9.41919
▁пре	-9.4198
▁правительство	-9.41998
▁сын	-9.42167
▁каждом	-9.4221
▁хочет	-9.42268
первых	-9.42268
▁сюда	-9.42342
▁чему	-9.42661
▁удалос	-9.42688
давно	-9.4275
оду	-9.42785
▁выше	-9.42853
▁Ко	-9.4293
▁воздух	-9.43088
▁прежде	-9.43186
▁фото	-9.43268
овые	-9.43432
ска	-9.43734
▁кем	-9.43914
▁поговорить	-9.43971
▁последне	-9.44064
▁прекрасно	-9.44123
▁хороше	-9.44161
ходить	-9.44164
чу	-9.44227
▁разговор	-9.44322
▁века	-9.44594
▁концов	-9.44597
▁ситуаци	-9.44649
▁готовы	-9.44842
▁масштаб	-9.44888
y	-9.45203
▁КА	-9.4539
ись	-9.45547
▁гор	-9.45597
вал	-9.45606
дать	-9.4571
ща	-9.45721
люблю	-9.45744
▁местах	-9.4576
▁вариант	-9.45788
▁Ма	-9.45929
▁значение	-9.45966
▁Л	-9.45986
▁видел	-9.46147
▁теори	-9.46156
живут	-9.46164
ства	-9.46216
▁понимает	-9.4622
▁получил	-9.46278
▁трёх	-9.46298
▁реально	-9.46323
ью	-9.46427
▁цен	-9.46455
▁класс	-9.46525
вших	-9.46537
▁здания	-9.4657
▁мысли	-9.46618
▁Со	-9.46668
▁рак	-9.46734
▁социально	-9.46818
▁семь	-9.46852
▁самого	-9.46936
ходят	-9.46944
▁ре	-9.46962
▁природ	-9.47291
▁сфер	-9.47341
▁годы	-9.47403
▁принцип	-9.47421
▁помощь	-9.47428
кс	-9.47493
▁вероятно	-9.47519
▁нужна	-9.47719
▁большие	-9.47788
▁вниз	-9.47853
▁исследование	-9.47987
5	-9.48006
ает	-9.48091
▁столько	-9.48158
щё	-9.48166
▁результаты	-9.48545
▁болезн	-9.48626
▁пространство	-9.4864
▁11	-9.48714
▁исследований	-9.48757
▁наде	-9.48823
▁Земле	-9.49193
▁расскажу	-9.49456
▁основном	-9.4955
▁60	-9.49572
▁написал	-9.4992
думаем	-9.5
▁включа	-9.50039
▁находятся	-9.50064
▁нуж	-9.50373
▁начинают	-9.50398
▁Очень	-9.50448
▁Знает	-9.50479
пу	-9.50509
▁Ник	-9.50526
вести	-9.50565
▁остальны	-9.50595
▁политик	-9.50625
ющей	-9.50626
▁тело	-9.50714
ющая	-9.50738
▁Тольк	-9.50845
▁э	-9.50868
▁образования	-9.50916
▁слов	-9.51067
▁скажу	-9.51199
▁быстрее	-9.51206
▁част	-9.51297
нг	-9.5139
▁делали	-9.51419
▁организации	-9.51498
▁верну	-9.51579
▁границ	-9.51607
▁матери	-9.5162
▁иначе	-9.51656
▁Америк	-9.51746
▁окружающе	-9.51807
▁высоко	-9.52018
настоящему	-9.52094
вали	-9.52132
▁провел	-9.52174
▁смотреть	-9.52207
ский	-9.52239
▁молоды	-9.52265
▁показывает	-9.52276
▁игра	-9.52399
ек	-9.52464
нд	-9.52519
Р	-9.52564
▁школе	-9.52646
▁отец	-9.52852
▁человечески	-9.52858
▁слышали	-9.52861
▁Потом	-9.52862
▁эффект	-9.52908
▁доби	-9.52988
хотелось	-9.53041
▁больши	-9.53067
овой	-9.53181
▁Интернет	-9.53202
▁реальность	-9.53277
ских	-9.53307
▁большим	-9.53342
ман	-9.53391
▁Просто	-9.53495
▁метров	-9.53671
А	-9.53694
ирует	-9.53751
▁шесть	-9.53844
лу	-9.53855
▁лес	-9.53905
вар	-9.53914
▁здорово	-9.53939
▁задач	-9.54038
▁поведение	-9.5416
бр	-9.54194
▁штат	-9.5441
Йорк	-9.54435
▁попросил	-9.54514
▁поверхности	-9.54544
▁Второ	-9.54568
думать	-9.54576
▁действия	-9.54716
▁клеток	-9.54774
тель	-9.5488
▁миллиона	-9.55166
▁сможет	-9.55175
▁страх	-9.55446
▁посмотрите	-9.55565
▁зон	-9.55642
▁главно	-9.55744
▁машин	-9.55783
▁200	-9.55837
дут	-9.5588
▁вес	-9.55896
▁круг	-9.55907
ите	-9.55924
▁словами	-9.55971
▁силы	-9.56039
▁развитие	-9.56068
▁буквально	-9.56073
пе	-9.56095
▁каза	-9.56126
▁ш	-9.56287
▁Позволь	-9.56347
▁сравнени	-9.56374
▁высот	-9.56398
▁степени	-9.56462
▁счёт	-9.56503
▁технология	-9.56679
▁возника	-9.56885
▁нашли	-9.56893
▁школы	-9.56961
ні	-9.56977
▁целы	-9.57028
жды	-9.57049
▁становят	-9.57102
ась	-9.57189
▁Г	-9.57278
ран	-9.57312
▁лично	-9.57354
▁рука	-9.57436
▁виде	-9.57522
ского	-9.57536
лет	-9.57553
▁сеть	-9.57911
ел	-9.57938
▁решени	-9.57971
▁ну	-9.58013
пл	-9.58145
▁смог	-9.58182
мі	-9.58259
▁сторону	-9.58291
▁большинств	-9.58518
▁заметил	-9.58526
▁настоящи	-9.58583
▁игры	-9.5872
▁ма	-9.58776
▁природы	-9.58817
▁успех	-9.58923
▁компания	-9.58964
▁системе	-9.58995
▁проекта	-9.59039
кр	-9.59103
▁общем	-9.59157
▁риск	-9.59187
▁задача	-9.5922
er	-9.59279
▁ребёнка	-9.59311
▁получили	-9.5956
▁придёт	-9.59571
▁мысль	-9.59572
▁видно	-9.59699
▁поняли	-9.5975
лева	-9.59784
▁собира	-9.6016
▁вода	-9.60518
▁опять	-9.60691
бра	-9.60698
▁19	-9.60822
сс	-9.60849
▁Google	-9.60942
С	-9.6107
чувствовать	-9.61168
▁раза	-9.61175
▁Думаю	-9.6131
▁сторон	-9.61379
▁изменени	-9.61498
▁одновременно	-9.61505
▁C	-9.61671
▁мужчины	-9.61696
стро	-9.61774
▁имени	-9.61834
▁месяц	-9.61977
▁рака	-9.6204
тельны	-9.62061
бе	-9.62069
▁удивительно	-9.62186
▁эволюци	-9.62279
▁таком	-9.623
род	-9.623
▁начало	-9.62338
▁объясни	-9.62339
ним	-9.62443
▁метод	-9.62546
нный	-9.62586
▁пришли	-9.62617
▁рассказал	-9.62682
▁ресурс	-9.62723
▁человеком	-9.62825
▁смех	-9.62842
▁похожи	-9.62876
▁Крис	-9.62919
стью	-9.62976
▁Земли	-9.63152
▁способность	-9.63203
▁руку	-9.63209
▁мама	-9.6322
▁пар	-9.6323
думайте	-9.63296
▁вер	-9.63402
дел	-9.63421
▁глаз	-9.63441
▁доход	-9.63567
▁изображение	-9.63571
▁кому	-9.63573
могут	-9.63616
ишь	-9.63644
▁фотография	-9.63757
ющихся	-9.63792
бу	-9.63857
чен	-9.63917
▁вирус	-9.63968
▁Африки	-9.63993
▁лицо	-9.64106
D	-9.64166
▁интересны	-9.64199
▁Первы	-9.64244
▁значительно	-9.64448
▁идей	-9.64472
▁построить	-9.64476
▁Америке	-9.64533
▁состоянии	-9.64582
▁80	-9.64583
▁устройство	-9.6461
▁A	-9.64649
шла	-9.64651
▁шанс	-9.64835
▁часа	-9.64835
вёл	-9.64985
▁орган	-9.65017
▁набор	-9.65184
▁дел	-9.65196
▁материал	-9.65226
▁использовали	-9.65228
▁кроме	-9.65241
пол	-9.65268
▁важна	-9.65275
▁средства	-9.65316
▁климата	-9.65328
▁поиск	-9.65395
▁вверх	-9.65509
▁урок	-9.65515
▁миллиарда	-9.6553
▁разниц	-9.65581
▁известны	-9.65614
▁Те	-9.65625
▁дух	-9.65865
нее	-9.65901
делиться	-9.66025
▁Нужн	-9.66061
К	-9.66224
▁Видео	-9.66344
кажем	-9.66509
▁появля	-9.66575
ик	-9.66613
▁силу	-9.66677
▁лица	-9.66689
▁скоро	-9.66832
▁пяти	-9.66833
▁график	-9.67039
ющее	-9.6704
▁тюрьм	-9.67069
▁организаци	-9.67087
▁ситуация	-9.6709
▁рынк	-9.67093
оў	-9.67105
верить	-9.67174
▁ВИЧ	-9.67221
▁маленькие	-9.67526
▁принять	-9.67584
▁влияние	-9.67682
▁здание	-9.67685
▁сердце	-9.67718
рон	-9.67788
Г	-9.68016
▁представляет	-9.68113
▁называют	-9.68114
▁сила	-9.68146
сн	-9.68153
▁поиска	-9.68241
▁очевидно	-9.68257
▁член	-9.68332
▁чуть	-9.68478
▁создание	-9.68725
раз	-9.68841
u	-9.68854
вшие	-9.68925
▁предмет	-9.68936
иться	-9.69045
ис	-9.6928
▁касает	-9.69286
▁времена	-9.69355
▁вывод	-9.69413
▁глубоко	-9.69443
▁рук	-9.69491
тесь	-9.6958
нии	-9.69736
▁друзей	-9.69908
▁сожалению	-9.69942
▁пад	-9.69956
▁огромн	-9.69961
нных	-9.70042
▁машина	-9.70077
▁Ба	-9.70142
правда	-9.70181
▁пут	-9.70184
▁получает	-9.703
▁ф	-9.70351
▁какое	-9.70439
▁земле	-9.70473
́	-9.70515
▁зна	-9.70522
▁идее	-9.7067
9	-9.70676
▁приводит	-9.70693
изм	-9.70784
▁Посмотрите	-9.70824
▁Сан	-9.70926
▁бедны	-9.71015
▁ла	-9.71135
▁узнал	-9.71319
▁виды	-9.71467
▁леса	-9.71541
▁пользу	-9.71561
▁считают	-9.71594
▁любом	-9.71692
▁существую	-9.71701
▁продолжать	-9.71703
▁центре	-9.71828
▁пара	-9.71856
▁сначала	-9.71942
▁явля	-9.71971
▁недель	-9.72
▁угодно	-9.72049
кра	-9.72085
▁произойд	-9.72097
▁ради	-9.72319
писать	-9.72322
▁использует	-9.72429
▁голову	-9.72447
▁каб	-9.72508
▁фактически	-9.72699
▁наверное	-9.72713
▁Раз	-9.72716
▁9	-9.7275
▁случая	-9.72903
▁вида	-9.72968
▁механизм	-9.72978
▁глубин	-9.73027
оп	-9.73102
▁создаёт	-9.73105
▁ранее	-9.73118
▁пытаемся	-9.7312
нные	-9.73128
▁музык	-9.73177
▁миллиард	-9.73198
▁правительства	-9.73218
▁труд	-9.7324
▁целом	-9.73246
ці	-9.73297
▁родители	-9.73608
▁представление	-9.73652
нести	-9.73709
▁курс	-9.73828
▁инноваци	-9.73839
c	-9.73851
▁власти	-9.73909
▁Их	-9.73933
▁искусства	-9.7409
▁десятк	-9.74172
ний	-9.74176
▁океана	-9.74376
▁недостаточно	-9.74479
▁рассказыва	-9.74526
▁обща	-9.74528
▁думали	-9.74546
▁любовь	-9.74556
▁проблемой	-9.7461
▁болезнь	-9.74637
▁пры	-9.74657
▁необходимы	-9.74674
▁тип	-9.7468
▁тест	-9.74682
▁знания	-9.74685
▁кажды	-9.74727
A	-9.74837
▁магазин	-9.74848
▁заниматься	-9.75023
▁Где	-9.752
▁живёт	-9.75319
▁любим	-9.75349
▁лечения	-9.75373
▁мер	-9.75417
S	-9.75476
▁код	-9.75489
▁возможностей	-9.75528
▁стол	-9.75649
▁M	-9.75668
бор	-9.75684
▁другу	-9.75707
▁месяца	-9.7576
▁книгу	-9.7576
▁делаю	-9.75829
▁Большинство	-9.75839
▁сад	-9.75874
▁отношени	-9.75916
▁энерги	-9.75964
▁получается	-9.76011
▁прекрасны	-9.76023
▁момента	-9.76029
▁политически	-9.76143
чь	-9.7618
▁километров	-9.76196
аль	-9.76206
l	-9.76351
▁неделю	-9.76476
▁экономически	-9.76529
сон	-9.76537
▁действительност	-9.76639
▁условиях	-9.76675
▁тво	-9.76707
▁улучши	-9.76797
сты	-9.76827
▁получают	-9.76829
вают	-9.76914
▁элемент	-9.77272
▁делал	-9.77332
▁Благодар	-9.77447
▁посмотрел	-9.77447
став	-9.77478
▁работали	-9.77498
ол	-9.77684
шь	-9.7769
▁семья	-9.77703
▁бес	-9.77722
▁живём	-9.77786
дж	-9.77863
▁здравоохранения	-9.77913
▁теле	-9.7793
▁позже	-9.7817
▁пациент	-9.78235
▁процессе	-9.7842
▁детям	-9.7843
▁500	-9.78446
▁создани	-9.78469
▁смогу	-9.78594
прав	-9.78699
▁пациентов	-9.78773
чик	-9.78869
4	-9.78886
▁чувства	-9.78888
▁Китай	-9.78952
лин	-9.78982
▁информация	-9.79091
▁правила	-9.79101
8	-9.79132
▁желание	-9.79246
▁участие	-9.79266
▁анализ	-9.79278
▁имя	-9.79286
▁данны	-9.79311
▁всём	-9.79335
▁дорог	-9.79343
▁ста	-9.79359
ально	-9.79387
▁внимания	-9.79424
шёл	-9.796
зы	-9.79712
вин	-9.79737
▁/	-9.79757
лов	-9.79788
▁ваша	-9.79865
▁огромны	-9.79878
▁прогресс	-9.80084
▁галактик	-9.80091
▁Бог	-9.80092
▁помогает	-9.80168
ель	-9.80178
▁сможете	-9.80246
▁земли	-9.80336
▁научны	-9.80338
ван	-9.8038
нт	-9.80546
▁замечательно	-9.80557
лы	-9.80564
▁верно	-9.80664
дти	-9.80686
ала	-9.80701
▁парень	-9.80767
▁определить	-9.80774
щих	-9.80777
▁зависит	-9.80793
▁обучения	-9.80943
▁P	-9.81063
▁страна	-9.81355
▁использование	-9.81394
▁играть	-9.81435
фи	-9.81663
верю	-9.81664
▁местны	-9.81762
бл	-9.81824
▁выглядел	-9.81843
жу	-9.81883
▁птиц	-9.82039
▁ног	-9.82083
▁Под	-9.82101
▁понимание	-9.8211
▁машину	-9.82264
▁целью	-9.82303
▁выясни	-9.82389
▁секс	-9.82394
▁секунд	-9.82416
со	-9.82447
▁ребёнок	-9.82464
нес	-9.82528
▁надею	-9.82538
▁улиц	-9.82575
▁научно	-9.826
ющиеся	-9.82627
вод	-9.82699
ус	-9.82799
▁достичь	-9.82808
▁стары	-9.82812
вать	-9.82837
фор	-9.82838
▁Н	-9.8284
▁эмоци	-9.82848
▁студентов	-9.82916
▁убедить	-9.82954
купить	-9.82982
00	-9.83104
▁вполне	-9.83167
▁Ч	-9.83173
▁точк	-9.83178
▁сложны	-9.83302
▁вперёд	-9.83402
▁физически	-9.83514
др	-9.83527
▁совет	-9.83561
▁откуда	-9.83618
▁G	-9.83723
ции	-9.8379
таки	-9.8384
является	-9.83846
▁единственны	-9.83983
при	-9.83992
▁количества	-9.84074
ируем	-9.84076
▁выбора	-9.84103
▁Гэта	-9.84235
▁Дж	-9.84554
▁конца	-9.84577
▁картин	-9.84621
огласно	-9.84673
▁всеми	-9.8474
ают	-9.84809
▁сообщества	-9.84871
ак	-9.84918
▁Пол	-9.84937
▁глобально	-9.84969
▁этап	-9.84983
▁имеем	-9.85012
▁ужасно	-9.85209
▁изменение	-9.85217
▁инфраструктур	-9.85247
▁чаще	-9.85251
▁городе	-9.85364
▁общественно	-9.8563
▁условия	-9.85635
▁суть	-9.85732
▁понимаю	-9.85736
ками	-9.85786
▁белы	-9.85979
▁температур	-9.85986
ден	-9.86033
▁книг	-9.86053
▁называю	-9.86082
нут	-9.86084
▁жив	-9.86097
▁сайт	-9.8616
▁состояние	-9.86221
ному	-9.86226
▁кон	-9.86238
▁секрет	-9.86247
щем	-9.8625
▁форма	-9.86326
▁поддержк	-9.86387
▁отлично	-9.86449
▁СМИ	-9.86679
▁показал	-9.86752
▁90	-9.86823
▁разум	-9.86832
другому	-9.86832
▁производства	-9.86916
торая	-9.86921
вор	-9.86971
▁недели	-9.87051
ток	-9.87064
эн	-9.87188
▁устройства	-9.87222
▁форму	-9.87281
▁занимает	-9.87286
▁собрать	-9.87323
▁взял	-9.87347
нул	-9.87363
▁будущего	-9.87398
▁17	-9.875
▁оказывает	-9.87544
ирован	-9.87617
▁объект	-9.87637
▁человечества	-9.87637
▁страниц	-9.87689
▁возраста	-9.87713
▁организм	-9.87735
▁науки	-9.87834
▁ясно	-9.87858
▁обществе	-9.87943
„	-9.8811
▁миллионы	-9.88134
▁удивительны	-9.88162
▁справа	-9.88214
▁услуг	-9.88226
▁велики	-9.88237
▁цифр	-9.88245
И	-9.88557
три	-9.88567
▁последствия	-9.88602
▁давно	-9.88707
могло	-9.88734
▁остава	-9.88859
▁временем	-9.88869
▁высоки	-9.8888
▁Ещ	-9.88893
▁стара	-9.88907
▁14	-9.88918
▁провести	-9.88919
ющего	-9.88933
▁лекарства	-9.88966
▁готов	-9.89005
▁мать	-9.89029
▁мечта	-9.89034
▁будете	-9.89165
П	-9.89173
▁алгоритм	-9.89205
▁очередь	-9.89218
рен	-9.89286
Йорке	-9.8933
▁реакци	-9.8949
ится	-9.89541
▁16	-9.8955
▁рынок	-9.89573
▁основан	-9.89581
▁случай	-9.89586
▁продукт	-9.89601
нос	-9.89695
▁нефт	-9.89727
▁возраст	-9.89753
▁двумя	-9.89787
эй	-9.8994
▁пространства	-9.8994
▁странно	-9.9014
▁13	-9.90148
▁первым	-9.90169
▁изображения	-9.90179
искать	-9.90208
▁многим	-9.90312
▁хуже	-9.90312
▁сделан	-9.90388
ском	-9.90407
▁нового	-9.90613
▁Кроме	-9.90694
▁кризис	-9.90795
▁работаем	-9.90905
летни	-9.90912
▁позволит	-9.91022
дзе	-9.91038
▁Бо	-9.91045
бежать	-9.91072
▁друзья	-9.91287
тр	-9.91425
7	-9.91432
▁систем	-9.91434
▁T	-9.91478
▁поколение	-9.91509
▁пришёл	-9.91536
ско	-9.91601
кры	-9.91616
▁поколения	-9.91617
▁относительно	-9.91643
▁позволи	-9.91763
▁роста	-9.91764
▁H	-9.91827
ились	-9.91842
▁дизайна	-9.91866
▁двигаться	-9.91935
щие	-9.91972
ист	-9.91982
▁собираю	-9.9199
Б	-9.91995
3	-9.9206
▁реальност	-9.92248
▁искусство	-9.9231
ируют	-9.92324
▁Европе	-9.92477
an	-9.92513
▁будь	-9.92517
▁получаем	-9.92609
▁совместно	-9.92633
▁религи	-9.92664
▁аппарат	-9.92684
▁программу	-9.92702
▁вашем	-9.92745
▁компаний	-9.92793
▁команда	-9.92829
▁частиц	-9.92832
▁нужда	-9.92843
вши	-9.92925
О	-9.92977
▁картинк	-9.93055
▁начинае	-9.93073
▁широко	-9.93081
▁Па	-9.93094
▁поверхность	-9.93222
▁удар	-9.93252
▁поток	-9.93261
▁Ли	-9.93342
тельно	-9.9342
йтесь	-9.93458
ская	-9.93459
▁Тут	-9.9347
▁іх	-9.93515
стра	-9.93534
▁ход	-9.93568
юць	-9.93674
▁позволил	-9.93696
▁изучени	-9.93697
▁обеспечи	-9.93745
▁Наши	-9.93821
▁сто	-9.93888
▁возрасте	-9.93967
▁сердца	-9.94072
▁Проблем	-9.94093
▁воз	-9.94115
▁вселенной	-9.94147
учи	-9.94186
▁взяли	-9.94383
▁примеров	-9.94384
▁сосед	-9.94399
▁Наша	-9.94496
▁данным	-9.94541
▁ситуацию	-9.9464
▁новости	-9.94789
▁представь	-9.94868
▁понятия	-9.94873
▁ощущение	-9.94874
▁случайно	-9.94881
▁правило	-9.9495
▁объём	-9.95111
Д	-9.95125
▁Перв	-9.95186
рез	-9.95202
▁создают	-9.95209
▁супер	-9.95268
▁Ни	-9.9528
▁изучать	-9.95402
▁длин	-9.95486
▁Ла	-9.95576
▁естественно	-9.95596
▁сидел	-9.95667
▁D	-9.95856
ря	-9.95881
▁современно	-9.96023
▁следующе	-9.96028
▁Пока	-9.9605
▁живы	-9.96215
▁дороги	-9.96228
▁мужчина	-9.96254
нов	-9.96281
сць	-9.96295
читаем	-9.96304
стер	-9.96314
▁символ	-9.96351
▁Чере	-9.96392
▁интеллект	-9.96475
▁журнал	-9.96482
al	-9.96485
▁F	-9.96491
▁демократи	-9.96508
▁любв	-9.96516
▁ресурсов	-9.96518
щей	-9.96549
▁управлять	-9.96558
рос	-9.96649
давать	-9.9668
▁любимы	-9.96779
▁считать	-9.96798
▁B	-9.96837
▁Ле	-9.96898
▁номер	-9.96939
▁ошибк	-9.96972
▁надежд	-9.97117
▁читать	-9.97151
▁расположен	-9.97166
▁программа	-9.97203
C	-9.97229
чно	-9.9724
▁серьёзно	-9.97272
▁район	-9.97274
▁нормально	-9.97317
нер	-9.9732
▁появилась	-9.97334
ющим	-9.97391
ственн	-9.97409
▁кра	-9.97416
нц	-9.97465
▁экономическо	-9.97472
▁пе	-9.97507
b	-9.97612
▁происходил	-9.97623
▁конец	-9.97648
▁события	-9.97757
▁маленьк	-9.97762
▁полици	-9.97976
амі	-9.97987
кон	-9.98052
▁обнаружил	-9.98066
▁Але	-9.98073
ительн	-9.98076
▁выглядеть	-9.98079
▁здоровья	-9.98099
▁создан	-9.98243
▁принимать	-9.98252
рат	-9.98286
▁успеха	-9.98342
▁спор	-9.98409
▁взгляну	-9.98416
▁основны	-9.98465
▁род	-9.98524
▁размера	-9.98652
▁линии	-9.98662
шу	-9.98702
▁остров	-9.98704
▁потенциал	-9.98789
▁связаны	-9.98803
▁определённо	-9.98837
▁музыку	-9.98842
▁порядке	-9.98882
▁помнит	-9.99051
тон	-9.99069
▁можешь	-9.99109
▁способом	-9.99172
▁робот	-9.99175
▁вне	-9.99193
вторы	-9.99219
▁вызов	-9.99252
▁регион	-9.99304
▁никаки	-9.99356
▁общи	-9.99397
▁управления	-9.99398
▁собираем	-9.99412
▁цвета	-9.99415
▁чрезвычайно	-9.99421
▁сегодняшни	-9.99465
▁наблюдать	-9.99479
▁Тем	-9.9952
▁сельско	-9.99579
эр	-9.99617
▁ноги	-9.99636
▁углерод	-9.997
▁осознал	-9.99734
лькі	-9.99767
▁американски	-9.99793
▁связан	-9.99938
▁рек	-9.99948
▁открыты	-10.0003
▁здоровье	-10.0004
▁следующем	-10.0006
▁влияет	-10.001
▁вести	-10.0013
▁подобное	-10.0014
▁Ха	-10.0017
▁жизнью	-10.0021
▁станови	-10.0022
пис	-10.0026
▁Перво	-10.0035
▁аудитори	-10.0044
▁70	-10.0069
ели	-10.0075
▁созда	-10.0081
▁связанны	-10.0089
▁писать	-10.0093
пы	-10.0094
▁хоть	-10.0103
▁Вселенн	-10.0105
▁смотрите	-10.0115
▁I	-10.0126
▁детьми	-10.0128
▁животные	-10.013
▁ці	-10.0136
▁слайд	-10.0137
▁музыка	-10.0138
▁боль	-10.0141
▁наука	-10.0147
▁качества	-10.0149
▁выступления	-10.015
▁продолжает	-10.015
▁черт	-10.0161
▁открыто	-10.0168
▁дни	-10.0172
▁режим	-10.0173
▁будуч	-10.0174
▁фактор	-10.0182
▁случаев	-10.0183
нь	-10.0185
▁среду	-10.0192
ила	-10.0197
▁реклам	-10.0206
▁учёные	-10.0211
▁городов	-10.0214
▁борьб	-10.0216
▁улице	-10.0219
▁процесса	-10.022
▁повсюду	-10.0221
▁отношение	-10.0223
▁замечательны	-10.0224
▁разработал	-10.0225
▁привести	-10.0227
чер	-10.0228
▁крупны	-10.0233
▁книга	-10.024
фа	-10.0245
▁сделано	-10.0252
▁игр	-10.0254
▁Чем	-10.0258
▁помога	-10.0278
▁треть	-10.0282
▁конечном	-10.0284
▁способности	-10.0286
▁300	-10.029
помнить	-10.0291
▁предел	-10.0294
▁хороший	-10.0294
▁сквоз	-10.0299
▁мнение	-10.03
▁направлении	-10.0304
ваем	-10.0311
▁какая	-10.0319
▁народ	-10.0322
▁контролирова	-10.0323
▁граждан	-10.0325
▁утра	-10.0326
▁стоимость	-10.033
▁родителей	-10.0338
▁приехал	-10.0338
▁поле	-10.0341
▁учиться	-10.0347
щего	-10.035
▁Де	-10.0359
▁конц	-10.036
▁эффективно	-10.0362
▁моем	-10.0371
Л	-10.0377
“	-10.038
ческо	-10.0382
▁числа	-10.0386
▁семье	-10.0387
нуть	-10.0393
▁Ж	-10.0395
частью	-10.041
▁новым	-10.0411
▁Хотя	-10.0422
▁расти	-10.0427
▁але	-10.0433
▁жил	-10.0434
▁поводу	-10.0442
▁важное	-10.0442
дите	-10.0445
▁следующее	-10.0451
▁развити	-10.0453
▁выход	-10.0464
▁букв	-10.0465
▁Кар	-10.0469
▁языка	-10.0475
▁Джон	-10.0477
вший	-10.0507
▁середин	-10.0509
образ	-10.0512
▁документ	-10.0519
▁настоящее	-10.0527
▁единственно	-10.0531
▁вероятность	-10.054
нная	-10.0544
▁остально	-10.0546
Х	-10.0548
▁знакомы	-10.0552
▁офис	-10.0562
▁сделала	-10.0572
▁задума	-10.0579
▁поможет	-10.0594
▁мяне	-10.0594
▁вершин	-10.0594
▁Оказывает	-10.0595
▁население	-10.0602
▁веке	-10.0617
▁геном	-10.0621
▁практик	-10.0627
▁лечение	-10.0628
делаем	-10.0632
▁первых	-10.0632
▁зову	-10.064
▁среде	-10.065
▁чисто	-10.065
▁придумал	-10.0654
Т	-10.0659
вой	-10.0664
мню	-10.0664
ющую	-10.067
▁доктор	-10.0674
p	-10.0678
▁Боле	-10.0684
▁определённы	-10.0684
знают	-10.0691
▁способы	-10.0692
▁водой	-10.0693
жд	-10.0694
▁особо	-10.0704
▁человеку	-10.0708
▁обычны	-10.0708
пустить	-10.0709
▁потрясающе	-10.0718
▁узнали	-10.0722
ó	-10.0725
▁хорош	-10.0736
ген	-10.0742
▁еду	-10.0743
▁лист	-10.0743
▁пространстве	-10.0748
▁сильны	-10.075
▁угроз	-10.0753
▁выступление	-10.0754
▁мусор	-10.0769
▁список	-10.0769
зу	-10.0773
▁одни	-10.0786
▁насчёт	-10.0789
▁многое	-10.0794
▁аспект	-10.0801
▁научить	-10.0802
▁реальны	-10.0805
▁получи	-10.0806
▁компьютеры	-10.0814
▁рыб	-10.0827
▁пришла	-10.0829
ложить	-10.0838
▁средств	-10.0841
▁24	-10.0843
▁сумм	-10.0852
6	-10.0852
▁считает	-10.0852
▁мечт	-10.0857
▁обязательно	-10.0858
▁область	-10.0858
В	-10.0861
гла	-10.0867
▁мобильны	-10.0873
шел	-10.0873
▁остаёт	-10.0897
▁Китае	-10.09
▁проходит	-10.0914
▁особенност	-10.0921
▁запис	-10.0924
▁показывают	-10.0929
вала	-10.0934
▁показали	-10.0941
▁дали	-10.0943
▁зависимости	-10.0948
▁составляет	-10.095
▁Ка	-10.0951
▁специально	-10.0955
▁ответственность	-10.0955
▁политическо	-10.0958
▁обучение	-10.0962
▁частно	-10.0963
▁мирово	-10.0966
▁находить	-10.0971
чные	-10.0974
нет	-10.0977
▁секунду	-10.0986
▁движени	-10.0997
▁экран	-10.0997
▁вашу	-10.1004
ян	-10.1012
тан	-10.1019
▁перемен	-10.1027
ника	-10.1029
▁строить	-10.1033
▁Лос	-10.1039
юю	-10.1039
▁обратить	-10.1042
ново	-10.1042
стан	-10.1044
▁бактери	-10.1046
▁суд	-10.105
▁понимал	-10.1057
▁добра	-10.1064
▁неправильно	-10.1064
▁понимаем	-10.1073
▁данном	-10.1075
▁контакт	-10.1083
▁скажет	-10.1083
▁газ	-10.1084
▁гэты	-10.1085
▁звучит	-10.1085
начала	-10.1092
▁след	-10.1095
▁растения	-10.11
▁качество	-10.111
▁получится	-10.1116
▁скоростью	-10.1117
▁меняет	-10.1121
тра	-10.1125
▁боя	-10.1127
▁увидим	-10.1129
▁чувствовал	-10.1133
▁спасти	-10.1135
▁прошлого	-10.1138
▁автомобиль	-10.1143
▁живу	-10.1151
▁слыш	-10.1151
▁отдел	-10.1152
n	-10.1153
▁Южно	-10.1157
имся	-10.1158
▁нему	-10.1162
▁языке	-10.1172
▁Видите	-10.1175
▁любя	-10.1188
уществует	-10.1192
▁га	-10.1198
▁исследова	-10.1202
▁ближе	-10.1213
▁свободно	-10.1219
▁близко	-10.1226
льше	-10.123
▁положение	-10.1232
ьте	-10.1243
тически	-10.125
▁аб	-10.125
▁снимк	-10.1251
▁космос	-10.1252
▁можа	-10.1268
▁военны	-10.1272
▁норм	-10.1272
▁использовал	-10.1275
жить	-10.1276
▁происходя	-10.1276
▁столь	-10.1278
▁муж	-10.1285
▁путешествие	-10.13
▁уме	-10.1301
▁некоторо	-10.1303
дин	-10.1304
▁душ	-10.1307
▁небольш	-10.1311
▁усили	-10.1313
▁ответить	-10.132
▁эксперт	-10.1321
g	-10.1327
▁тяжело	-10.1331
▁кор	-10.1331
▁фильма	-10.1342
работ	-10.1343
лон	-10.1345
вид	-10.1346
▁выбрать	-10.1351
кам	-10.1352
▁везде	-10.136
▁действова	-10.1361
▁пользоваться	-10.1364
альны	-10.1364
▁велосипед	-10.1365
▁Дело	-10.1366
оборот	-10.1372
▁чувствую	-10.1374
▁насилия	-10.1379
▁честно	-10.1385
▁медицин	-10.1392
▁Само	-10.1393
ней	-10.1393
▁доступны	-10.1404
▁Вопрос	-10.1407
▁энергия	-10.1413
▁Мои	-10.1422
▁шар	-10.1424
▁отдельны	-10.1426
рав	-10.1426
▁цифрово	-10.143
▁умны	-10.1435
▁желез	-10.1435
▁счастлив	-10.1454
▁ниже	-10.1454
▁якія	-10.1454
▁сделаю	-10.1456
▁Ди	-10.1458
▁изменило	-10.1461
▁своем	-10.1494
▁канал	-10.1497
▁государства	-10.15
▁Ра	-10.1506
P	-10.1516
▁жертв	-10.1521
▁Ро	-10.1523
сер	-10.1524
▁мо	-10.1525
▁доме	-10.1525
учиться	-10.153
▁оценк	-10.1535
▁E	-10.1539
просить	-10.1542
▁вышл	-10.1543
▁генетически	-10.1544
▁сталкива	-10.1544
ично	-10.1548
▁небольши	-10.1551
ром	-10.1555
▁живо	-10.1556
▁наверняка	-10.1562
▁политики	-10.1564
ошёл	-10.1566
▁пройти	-10.1569
▁личност	-10.1582
▁журналист	-10.1597
▁случа	-10.1603
▁скорост	-10.1607
▁Одно	-10.1618
▁Та	-10.1629
▁материалы	-10.1631
in	-10.1634
▁Эй	-10.164
▁Сам	-10.1641
▁ООН	-10.1646
▁онлайн	-10.1646
▁микро	-10.1652
▁взрослы	-10.1655
▁рад	-10.1659
▁возможны	-10.1666
▁способов	-10.1669
лучилось	-10.167
▁назвал	-10.1671
▁важным	-10.1673
▁жили	-10.1677
▁скорость	-10.1681
щая	-10.1683
▁растени	-10.1685
няя	-10.1687
▁газа	-10.169
▁выглядят	-10.1694
▁пытался	-10.1696
▁внутрь	-10.1699
▁попробовать	-10.1699
▁университет	-10.1702
▁предложил	-10.1703
▁пациента	-10.1711
▁осозна	-10.1711
▁солнечны	-10.1717
▁вклад	-10.1717
▁назвать	-10.1721
инг	-10.1726
▁изменит	-10.1729
▁страну	-10.1729
▁поведения	-10.1737
▁конференции	-10.1741
▁баз	-10.1741
смотрим	-10.1743
▁Япони	-10.1744
▁решать	-10.1745
▁компьютера	-10.1754
▁прибор	-10.1757
▁заболевания	-10.176
▁красот	-10.1762
▁Пере	-10.1767
▁независимо	-10.177
▁задать	-10.1772
▁приём	-10.1775
ился	-10.1777
▁комнате	-10.1778
▁земл	-10.1786
эт	-10.1796
▁умер	-10.1802
I	-10.1807
▁дают	-10.1809
▁ё	-10.1812
▁попыта	-10.1828
шн	-10.1832
k	-10.1832
ехать	-10.1834
▁нашёл	-10.1835
под	-10.1836
▁заставил	-10.184
▁истин	-10.1844
ват	-10.1847
▁четырёх	-10.1849
▁открыть	-10.1854
куп	-10.1858
▁Наш	-10.1875
▁актив	-10.1876
▁связано	-10.1884
▁вод	-10.1885
▁вынужден	-10.1889
▁компонент	-10.1889
▁живущи	-10.189
▁отличие	-10.1891
▁маленько	-10.1893
тар	-10.1898
▁лиц	-10.1903
▁море	-10.1909
▁ха	-10.1915
▁оп	-10.192
чная	-10.1923
▁продуктов	-10.1927
▁дал	-10.1929
▁обе	-10.193
▁рассказ	-10.1932
▁атмосфер	-10.1935
▁Бразили	-10.1939
▁пу	-10.1939
▁еды	-10.194
▁каких	-10.1942
▁400	-10.1948
▁утром	-10.1951
нне	-10.1952
▁старше	-10.1958
▁хочется	-10.1963
▁развивать	-10.1966
▁Рас	-10.1967
▁методы	-10.1977
▁доверя	-10.1991
▁имел	-10.1996
▁Без	-10.1999
▁велико	-10.2006
▁потрясающи	-10.201
▁био	-10.2018
▁км	-10.2018
креп	-10.2023
▁рыбы	-10.2027
▁городах	-10.2029
▁архитектур	-10.203
▁требует	-10.2035
▁Такие	-10.2037
▁рождения	-10.2039
ад	-10.2048
ур	-10.2049
▁смотрит	-10.2055
▁ужас	-10.2059
▁шести	-10.2065
▁президент	-10.2068
▁понимают	-10.2077
▁действий	-10.2077
▁роботов	-10.2081
▁планета	-10.2083
▁успешно	-10.2088
▁экосистем	-10.2089
▁сильнее	-10.209
▁запас	-10.2092
▁играет	-10.2094
▁вернулся	-10.2095
ред	-10.2106
▁люб	-10.2113
▁пожалуйста	-10.2113
▁пытается	-10.2119
▁огромные	-10.2124
▁таму	-10.2128
▁Лондон	-10.2132
▁страшно	-10.2135
▁Земля	-10.2136
▁написан	-10.2138
▁переход	-10.2143
▁творчески	-10.2144
▁отца	-10.2146
▁мед	-10.2154
▁стоял	-10.2161
ики	-10.2165
▁ранни	-10.2172
▁Великобритании	-10.2175
нной	-10.2183
▁достигл	-10.2186
▁архитектор	-10.219
▁людях	-10.219
▁интервью	-10.2197
▁открытия	-10.2198
▁читал	-10.2199
▁мальчик	-10.2201
нного	-10.2208
▁плохи	-10.2208
▁привело	-10.2208
▁голоса	-10.2211
▁автор	-10.2214
▁столкну	-10.2214
лер	-10.2215
▁конфликт	-10.2217
▁лекарство	-10.2221
▁мол	-10.2222
станут	-10.2223
▁биологически	-10.2228
чных	-10.223
▁получать	-10.2235
ники	-10.2235
▁воде	-10.2237
ены	-10.2239
▁встреча	-10.2241
▁ресторан	-10.2241
▁вперед	-10.2245
▁собрали	-10.2252
▁ди	-10.2253
▁проб	-10.2253
▁сохранить	-10.226
▁приходят	-10.2263
▁власть	-10.2264
лек	-10.2265
▁словно	-10.2266
▁появил	-10.2268
ина	-10.2269
▁вкус	-10.2275
▁перевод	-10.2278
▁используется	-10.2281
▁согласи	-10.2284
▁точка	-10.2284
▁опыта	-10.229
▁посредств	-10.2293
▁служб	-10.2297
▁ценности	-10.2298
▁сообщество	-10.2303
▁заставляет	-10.2305
▁кино	-10.231
▁сознание	-10.2311
овсе	-10.2316
▁коробк	-10.2319
▁признать	-10.2324
▁ума	-10.2331
▁развивающих	-10.2337
▁прогноз	-10.2339
▁девочка	-10.2343
ывает	-10.2344
▁знаний	-10.2345
▁решила	-10.235
▁радио	-10.235
▁деревья	-10.2352
▁учителя	-10.2354
▁действие	-10.2354
▁производство	-10.2358
▁Идея	-10.236
▁мост	-10.2364
▁химически	-10.2365
▁едино	-10.2373
▁находи	-10.2373
чки	-10.2376
▁помогл	-10.2392
она	-10.2396
▁письмо	-10.2396
▁революции	-10.2397
▁бороться	-10.2398
▁масштаба	-10.24
▁наблюдаем	-10.2404
▁общего	-10.2407
▁вызывает	-10.2415
аць	-10.2415
▁слышал	-10.2417
▁сложные	-10.2418
▁оружие	-10.242
▁экологически	-10.2427
▁собственн	-10.2428
ar	-10.2438
▁Ю	-10.2442
▁территории	-10.2445
ваю	-10.2445
▁медленно	-10.2445
▁бомб	-10.2445
▁каком	-10.2447
▁сме	-10.2452
▁усилия	-10.2463
▁вырос	-10.2465
▁забот	-10.2465
▁представляют	-10.2475
▁состав	-10.2475
▁стар	-10.2478
▁звёзд	-10.2482
▁просты	-10.2484
▁обмен	-10.2484
▁понимания	-10.2485
▁верси	-10.2487
▁богаты	-10.2489
▁лежит	-10.25
▁имели	-10.2502
▁требуется	-10.2506
нс	-10.2512
▁открытие	-10.2517
▁вред	-10.2521
ским	-10.2525
w	-10.253
▁смерть	-10.2534
▁видят	-10.2535
гер	-10.2536
▁подобно	-10.2537
ющими	-10.2538
▁ценность	-10.2547
▁ребята	-10.2549
▁новость	-10.2557
▁разве	-10.2563
▁сним	-10.2564
▁поднять	-10.2566
▁среднем	-10.2566
▁достижения	-10.2569
▁данно	-10.2571
▁смотрел	-10.2571
вшего	-10.2573
▁прошло	-10.2573
▁пер	-10.2576
итесь	-10.258
кая	-10.2581
▁изменили	-10.2582
▁работающи	-10.2582
▁создава	-10.2585
▁Ирак	-10.2585
доль	-10.2588
▁представления	-10.2588
▁изменил	-10.2589
▁сектор	-10.2589
▁счастье	-10.2606
▁попасть	-10.2606
▁Запад	-10.2608
on	-10.2608
▁плане	-10.2613
▁каса	-10.2617
▁горы	-10.262
▁событий	-10.2621
▁заболеваний	-10.2623
▁Мир	-10.2625
ция	-10.2629
▁рынка	-10.2629
ун	-10.2634
▁хоч	-10.2647
▁схем	-10.2648
▁волос	-10.2649
▁Нас	-10.2649
вый	-10.2649
▁возвраща	-10.2651
▁экране	-10.2653
▁проста	-10.2657
▁похож	-10.2658
▁фотографию	-10.266
▁кампани	-10.2661
▁различия	-10.2671
▁оказался	-10.2674
▁масс	-10.2675
▁21	-10.2685
▁теория	-10.2693
▁понрави	-10.2712
▁начиная	-10.2713
▁важнее	-10.2717
зе	-10.2735
▁Би	-10.2735
▁находимся	-10.2739
▁поддерживать	-10.2741
▁рабочих	-10.2744
▁жител	-10.2745
▁чувствует	-10.2757
▁занять	-10.2758
▁затрат	-10.2762
▁биологии	-10.2764
▁восемь	-10.2766
▁деятельности	-10.2766
▁вновь	-10.2767
менить	-10.2768
чным	-10.2774
▁родил	-10.2775
▁Марс	-10.2783
▁счастливы	-10.2785
▁пуст	-10.2785
▁красивы	-10.279
тур	-10.2791
▁неудач	-10.2791
▁показан	-10.2797
▁отправить	-10.2798
летне	-10.2804
▁науке	-10.2809
▁техник	-10.2814
▁плат	-10.2816
▁зада	-10.2817
▁подходит	-10.2825
▁рамках	-10.2826
▁ос	-10.2827
▁удовольствие	-10.2836
▁называемы	-10.2838
▁Бу	-10.2843
▁началось	-10.2844
▁взаимодействия	-10.2851
▁социальн	-10.2851
▁университета	-10.2854
▁воздуха	-10.2856
▁N	-10.2859
▁друзьями	-10.2859
ика	-10.2861
▁название	-10.2862
▁Перед	-10.2863
▁открыт	-10.287
▁научили	-10.2872
ажен	-10.2873
▁реальном	-10.2873
чески	-10.2873
▁Facebook	-10.2875
▁растёт	-10.2876
шен	-10.288
▁Обычно	-10.2883
▁полу	-10.2886
▁вещества	-10.2896
шка	-10.2904
дом	-10.2915
ъ	-10.2917
пад	-10.2919
▁завод	-10.2926
▁Факт	-10.293
▁парти	-10.2936
цев	-10.2938
E	-10.2939
▁век	-10.2939
▁команды	-10.2941
▁цивилизаци	-10.2943
▁вопроса	-10.2943
▁крови	-10.2945
▁защитить	-10.2947
▁контроля	-10.2953
▁сложност	-10.2959
▁д	-10.2971
▁самостоятельно	-10.2978
▁150	-10.2981
▁дерево	-10.2984
▁учитыва	-10.2985
▁сверху	-10.2985
▁американцев	-10.2986
▁учат	-10.2987
▁хватает	-10.2988
▁позици	-10.2989
▁средни	-10.3005
▁север	-10.3007
скольк	-10.3015
иц	-10.3022
▁позволяю	-10.303
▁Северно	-10.3035
▁Ре	-10.3035
▁эффективны	-10.3036
▁потеря	-10.3039
▁жителе	-10.3039
▁туалет	-10.304
▁тонн	-10.3041
▁понятие	-10.3043
▁разобраться	-10.3046
▁ра	-10.3048
▁передать	-10.3051
▁шум	-10.3052
льмі	-10.3055
▁спа	-10.306
▁Калифорнии	-10.3063
▁восприятие	-10.3073
▁дорого	-10.3073
O	-10.3075
▁эпох	-10.3079
▁брат	-10.3081
▁существу	-10.3082
стей	-10.3083
▁контроль	-10.309
▁лекарств	-10.3092
нять	-10.3092
▁Вашингтон	-10.3095
▁технически	-10.3096
работать	-10.3099
изма	-10.3108
▁спрашиваю	-10.3109
▁вечер	-10.3113
▁культура	-10.3115
▁внезапно	-10.3117
▁охран	-10.3119
▁организация	-10.3119
▁особ	-10.3119
лучается	-10.3121
▁бумаги	-10.3122
▁семей	-10.3131
▁группу	-10.3132
эл	-10.3134
вает	-10.314
▁получит	-10.3144
лл	-10.315
▁ткани	-10.3151
▁учёных	-10.3152
▁перспектив	-10.3153
▁одному	-10.3157
▁пера	-10.3157
▁прошлое	-10.3162
▁Аль	-10.3162
▁пределам	-10.3166
легка	-10.317
▁элементы	-10.3173
▁активно	-10.3184
▁проще	-10.3187
▁выда	-10.3188
▁мил	-10.3193
▁увеличить	-10.3193
▁произ	-10.3194
▁пост	-10.3198
▁редко	-10.3198
▁существовал	-10.3198
жать	-10.32
▁поля	-10.32
▁Сколько	-10.3207
▁шимпанзе	-10.3207
▁вещах	-10.3207
▁услышал	-10.3211
▁Билл	-10.3213
▁задумать	-10.3213
▁плава	-10.3214
▁гены	-10.3215
▁замети	-10.3218
▁сложнее	-10.322
▁мышления	-10.322
▁получени	-10.3222
▁проводить	-10.3224
▁поставил	-10.3226
▁общения	-10.3226
▁Хо	-10.3236
▁зачем	-10.3237
▁цикл	-10.3239
▁чёрны	-10.324
▁двер	-10.3242
▁отправил	-10.3243
R	-10.3243
▁минуту	-10.3245
▁отношении	-10.3245
▁име	-10.3246
▁признак	-10.3251
▁2000	-10.3261
▁Вообще	-10.3264
▁выходит	-10.3269
▁Калі	-10.3269
▁неделе	-10.3269
▁бор	-10.3274
▁Три	-10.3276
▁сцене	-10.328
▁бесплатно	-10.328
▁добавить	-10.328
▁безопасность	-10.3287
▁блок	-10.3292
щую	-10.3292
▁животно	-10.3296
ках	-10.3303
▁утро	-10.3309
▁отличны	-10.3311
▁бизнеса	-10.3314
▁спас	-10.3318
▁довери	-10.3319
▁лёгки	-10.332
▁хлеб	-10.332
▁зач	-10.332
▁медицински	-10.3327
▁робота	-10.3327
▁R	-10.3331
▁Вмест	-10.3332
кар	-10.3332
▁общин	-10.3337
▁вашим	-10.3342
▁средне	-10.3346
▁относит	-10.3361
▁заключа	-10.3367
клад	-10.3369
▁историй	-10.3372
отен	-10.3376
▁настоящ	-10.3377
▁память	-10.3378
▁деятельность	-10.3378
▁построили	-10.3379
рас	-10.3381
вых	-10.339
ага	-10.3392
▁дума	-10.3403
кладыва	-10.3404
вол	-10.3414
▁ран	-10.3419
▁закончил	-10.3422
▁театр	-10.3426
дал	-10.3433
▁информацией	-10.3435
▁памяти	-10.3435
▁обработк	-10.3435
▁приходилось	-10.3437
ид	-10.3439
▁запах	-10.3439
▁класса	-10.3442
▁молодо	-10.3449
▁рассмотре	-10.345
▁банк	-10.3451
▁индустри	-10.3454
▁нефть	-10.3454
▁компанию	-10.3459
▁штата	-10.346
▁Друго	-10.3463
▁мировы	-10.347
▁планет	-10.3471
ировал	-10.3472
▁Лад	-10.3476
▁студенты	-10.3476
h	-10.3491
▁ВВП	-10.3493
▁девочек	-10.3493
▁простым	-10.3493
▁материалов	-10.3499
▁продукты	-10.35
▁финансовы	-10.3503
▁идет	-10.3504
▁предложение	-10.3508
▁образц	-10.3509
мимо	-10.351
▁сидя	-10.3511
лучится	-10.3511
▁Зач	-10.352
▁определяет	-10.352
нным	-10.3523
▁единственн	-10.3528
▁правы	-10.3529
▁любил	-10.3531
▁какую	-10.3533
▁проектов	-10.354
▁ключ	-10.3545
▁долг	-10.3548
астую	-10.3569
▁причинам	-10.3569
▁знак	-10.3572
▁срок	-10.3575
лася	-10.3577
▁прийти	-10.359
▁множеств	-10.3598
T	-10.36
▁возможным	-10.3606
▁Австрали	-10.3609
▁задумыва	-10.3609
щий	-10.3623
уп	-10.3625
▁борьбе	-10.3627
▁детски	-10.3628
▁существа	-10.3639
▁Им	-10.3643
▁половина	-10.3649
пла	-10.365
▁оцени	-10.3659
прежнем	-10.3666
▁автобус	-10.3668
▁сделает	-10.3668
▁услышать	-10.3668
▁телескоп	-10.3669
▁директор	-10.3685
скую	-10.3689
ирование	-10.3694
▁понятно	-10.3695
лей	-10.3699
▁ведёт	-10.3704
▁комнат	-10.3705
іць	-10.3706
▁конкретно	-10.3708
▁континент	-10.3709
▁любы	-10.371
шло	-10.3714
▁маленьким	-10.3718
▁инвестици	-10.3723
▁коротки	-10.3723
▁содержит	-10.3727
▁грипп	-10.3728
▁невероятны	-10.3728
▁материала	-10.3728
▁школ	-10.3736
У	-10.3742
▁гражданско	-10.3743
▁рассказывал	-10.3746
▁раздел	-10.3751
▁насилие	-10.3752
▁красиво	-10.3775
вается	-10.3778
нием	-10.3778
ации	-10.3778
▁собирает	-10.378
вание	-10.3782
▁Значит	-10.3784
▁зуб	-10.3786
▁Университет	-10.3787
▁баланс	-10.3787
▁благотворительн	-10.3787
▁поехал	-10.3788
дар	-10.379
▁парня	-10.379
▁переста	-10.379
▁солнечно	-10.379
▁груди	-10.3793
▁помог	-10.3793
▁остановить	-10.3796
▁сообщение	-10.3804
▁наук	-10.3817
исты	-10.3818
чную	-10.3824
▁солдат	-10.3824
▁пищи	-10.3831
▁продолжи	-10.3832
▁шоу	-10.3832
▁доступно	-10.3836
▁красны	-10.3838
▁физик	-10.3841
▁участи	-10.3842
▁Кита	-10.3842
▁постепенно	-10.3847
▁Ответ	-10.3847
▁Соединённы	-10.385
▁окружающ	-10.3851
▁развива	-10.3855
▁исследовани	-10.3856
▁речи	-10.3861
▁позволь	-10.3863
▁медицинско	-10.3867
▁які	-10.3868
▁движет	-10.3869
▁глазами	-10.3871
▁благо	-10.3873
B	-10.3874
▁самолёт	-10.3874
▁электрически	-10.3876
▁роли	-10.3879
▁газет	-10.3879
▁ходил	-10.388
▁закончить	-10.3883
▁мимо	-10.3883
час	-10.3887
тели	-10.3893
чка	-10.3896
зер	-10.3898
▁представлен	-10.3902
▁картина	-10.3906
▁Джордж	-10.3907
▁коррупци	-10.3907
▁результатов	-10.3912
▁учителе	-10.3914
▁серьёзны	-10.3914
▁кожи	-10.3917
▁кусочк	-10.392
▁отличается	-10.3922
f	-10.3923
▁линия	-10.3924
▁любит	-10.3926
пре	-10.393
▁прочита	-10.393
▁района	-10.3931
идеть	-10.3931
▁трех	-10.3938
льны	-10.3942
▁хороша	-10.3948
▁полезны	-10.395
ников	-10.3954
лок	-10.3955
▁полны	-10.3959
▁Штата	-10.396
кер	-10.3963
▁игрок	-10.3978
ует	-10.3981
▁веб	-10.3983
▁кредит	-10.3996
x	-10.3997
щи	-10.4005
пра	-10.4011
▁Хоч	-10.4017
ойти	-10.4024
бит	-10.4025
▁занимал	-10.4028
▁почв	-10.4029
▁смотрю	-10.4029
вел	-10.403
▁единиц	-10.403
▁обнаружить	-10.4034
▁предложи	-10.4035
▁стволовы	-10.4037
▁искал	-10.406
ству	-10.4066
▁примени	-10.4067
▁неожиданно	-10.4071
▁занимают	-10.4072
▁пещер	-10.4073
▁построен	-10.4079
▁теми	-10.4081
▁удастся	-10.409
▁третий	-10.4094
▁микроб	-10.4097
▁35	-10.4098
▁стади	-10.4101
▁взрыв	-10.4105
▁спин	-10.4105
▁ближайши	-10.4107
чат	-10.4112
▁сидит	-10.4117
▁пик	-10.4119
▁районе	-10.4124
▁измерения	-10.413
▁позволя	-10.413
▁смотрели	-10.413
▁причине	-10.4132
ировали	-10.4134
re	-10.4138
▁инженер	-10.4138
▁продолжительно	-10.414
▁поместить	-10.4141
▁важн	-10.4143
▁смотрят	-10.4149
вую	-10.415
▁бесконечно	-10.4152
▁самим	-10.4155
▁исключение	-10.4157
▁какого	-10.4163
▁честь	-10.4165
▁существ	-10.4171
▁внутренне	-10.4173
▁Бр	-10.4174
▁устройств	-10.4179
▁правил	-10.4181
▁открыл	-10.4181
▁другому	-10.4184
▁75	-10.4186
▁биологи	-10.4186
вит	-10.4188
▁телевизор	-10.4198
▁Ричард	-10.4214
▁Индия	-10.4214
▁чист	-10.4217
▁природа	-10.4217
▁глобальны	-10.4219
▁встретил	-10.4222
▁объекты	-10.4224
▁опасно	-10.4232
▁Джо	-10.4239
▁воспользова	-10.4247
▁торговл	-10.4251
вшая	-10.426
▁Ц	-10.4262
▁полезно	-10.4263
▁получила	-10.4269
▁общественны	-10.4269
▁фонд	-10.427
▁традиционны	-10.4274
▁костюм	-10.4276
▁клиник	-10.4277
▁блог	-10.4278
▁проводим	-10.4279
▁труда	-10.4284
легче	-10.4294
▁Земл	-10.4296
▁математик	-10.4298
▁страха	-10.4301
▁болезней	-10.431
▁правильны	-10.4311
▁Африка	-10.4332
цен	-10.4338
▁игру	-10.434
▁оставил	-10.434
▁сверх	-10.4341
▁текст	-10.4344
▁кол	-10.4348
вшей	-10.4349
▁экономика	-10.4349
▁измери	-10.4357
▁ребёнком	-10.4357
пал	-10.4358
M	-10.4368
▁сущност	-10.437
▁разговарива	-10.4374
▁плеч	-10.438
стоит	-10.4381
фер	-10.4383
▁морско	-10.4395
▁пригласил	-10.4395
▁роман	-10.44
▁деревьев	-10.4403
▁пошли	-10.4404
▁Африк	-10.4407
▁Кажд	-10.4414
▁десять	-10.4415
▁производить	-10.4417
▁травм	-10.4417
▁установить	-10.4419
альный	-10.4426
▁сотруднича	-10.4428
▁кофе	-10.4428
▁специалист	-10.4432
▁кровь	-10.4432
вели	-10.4434
▁Бога	-10.4434
овал	-10.4436
вания	-10.4441
▁сторона	-10.4455
▁разнообразие	-10.446
▁внутренни	-10.4466
▁Наконец	-10.4466
▁идеально	-10.4467
▁отвечаю	-10.4473
▁небо	-10.4478
▁числе	-10.4481
▁публик	-10.4482
▁слушать	-10.4483
▁современны	-10.4485
▁ро	-10.4492
▁машине	-10.4493
лом	-10.4494
▁университете	-10.4498
йдём	-10.4508
ств	-10.4508
▁существующи	-10.4509
▁взаимосвяз	-10.4509
▁округ	-10.451
▁c	-10.4511
▁справить	-10.452
▁сообща	-10.4522
▁команд	-10.4528
▁сообщения	-10.4528
▁побед	-10.4529
▁ограничен	-10.4533
мест	-10.4534
▁мышц	-10.4536
вые	-10.4538
▁кур	-10.4542
▁проверить	-10.4542
▁характер	-10.4543
▁парк	-10.4545
▁карта	-10.4546
▁значения	-10.4547
▁ужасны	-10.4548
▁сери	-10.455
▁жена	-10.4551
▁стандарт	-10.4553
начал	-10.4555
▁юг	-10.456
▁чувств	-10.4564
▁Кон	-10.4568
▁др	-10.4571
▁операции	-10.4574
кал	-10.4592
ниц	-10.4594
▁Человек	-10.4595
▁Нигери	-10.4595
▁выброс	-10.4597
▁выставк	-10.4597
▁бу	-10.4598
▁безопасно	-10.4598
лён	-10.4601
▁Че	-10.4602
▁Боже	-10.4602
▁призна	-10.4614
▁исключительно	-10.4621
нта	-10.4628
▁дзе	-10.4628
▁пустын	-10.4629
▁знаком	-10.4635
▁системой	-10.4636
▁поездк	-10.4637
▁потер	-10.4644
ир	-10.4646
▁верил	-10.4656
▁катастроф	-10.4658
▁предотврати	-10.466
▁едва	-10.4664
яў	-10.4664
▁работ	-10.4665
or	-10.4672
▁топлива	-10.4672
▁Га	-10.4677
чный	-10.4681
очки	-10.4681
▁прош	-10.4682
сил	-10.4683
▁45	-10.4686
▁война	-10.4688
▁частны	-10.4693
▁ощущения	-10.4695
▁поезд	-10.4698
ард	-10.4698
раб	-10.4707
▁дверь	-10.4708
▁недавн	-10.4711
▁продолжа	-10.4723
▁Конгресс	-10.4725
▁берёт	-10.4726
▁протез	-10.4726
▁влия	-10.4729
▁комнату	-10.473
сці	-10.473
нное	-10.4731
▁ожидал	-10.4734
▁ядерно	-10.4736
▁книге	-10.4739
▁существова	-10.4747
▁нежел	-10.4749
▁помогаю	-10.475
нно	-10.475
▁использую	-10.4754
▁ўсё	-10.4756
▁Два	-10.4763
▁перестал	-10.4763
▁надея	-10.477
▁полагаю	-10.4774
▁пресс	-10.4774
▁кус	-10.4777
▁штук	-10.4778
▁ч	-10.4779
▁прошли	-10.4782
▁мозге	-10.4785
▁открывает	-10.4786
▁Мужчин	-10.4791
▁минимум	-10.4791
▁попытать	-10.4792
▁долги	-10.4795
▁спрашива	-10.4799
▁отвечает	-10.4799
▁людзей	-10.4802
▁интересное	-10.4803
▁Иран	-10.4804
▁Много	-10.4805
ления	-10.4811
▁сетк	-10.4813
▁бывает	-10.4818
▁дочь	-10.4818
▁песн	-10.482
▁возникл	-10.4821
▁обед	-10.4826
▁Кени	-10.4839
▁Ло	-10.4841
ню	-10.4844
нок	-10.4848
▁национально	-10.4849
▁импульс	-10.4857
▁потратил	-10.4858
▁одинаково	-10.4865
грамм	-10.4869
▁поставить	-10.4874
▁сознания	-10.4888
▁капитал	-10.4892
▁клетка	-10.49
▁опасност	-10.4901
▁пищ	-10.4905
▁физическо	-10.4906
▁назвали	-10.4913
▁приняли	-10.4914
Н	-10.4917
Ф	-10.4919
▁превратить	-10.492
▁Каков	-10.4921
▁Эйнштейн	-10.4924
▁карман	-10.4925
▁фотографий	-10.4926
N	-10.4928
▁приносит	-10.4937
▁глубоки	-10.4938
▁истори	-10.494
▁отправили	-10.4945
▁масса	-10.4947
▁собирать	-10.4947
▁сотрудничеств	-10.4948
▁солнце	-10.4952
▁создаё	-10.4953
▁бог	-10.4953
▁играю	-10.4956
шек	-10.4963
▁рыба	-10.4967
▁Мак	-10.4968
щик	-10.4971
▁молекул	-10.4971
▁термин	-10.4979
▁Азии	-10.4986
▁зарплат	-10.4991
▁повезло	-10.4991
енные	-10.4992
▁идеал	-10.4993
участвовать	-10.4993
▁видела	-10.4996
▁O	-10.5
▁одинаковы	-10.5001
▁питания	-10.5001
воз	-10.5008
▁фотограф	-10.5008
дз	-10.5009
▁проектом	-10.5009
щ	-10.501
▁песня	-10.5017
▁Ге	-10.502
▁заинтересован	-10.5025
it	-10.503
▁мозгу	-10.5031
ас	-10.5032
▁больниц	-10.5045
▁сообществ	-10.5049
▁преврати	-10.5054
▁прост	-10.5064
▁местност	-10.5065
▁степень	-10.5068
▁мощны	-10.5072
▁жизне	-10.5075
▁простые	-10.5076
▁помн	-10.5077
▁молод	-10.5083
▁комплекс	-10.5083
▁квартир	-10.5086
▁альтернатив	-10.5086
▁детстве	-10.5088
▁произошл	-10.5101
пуск	-10.5106
▁W	-10.5115
▁операци	-10.5115
▁окружающи	-10.5116
▁22	-10.512
▁верит	-10.5121
▁моря	-10.5121
▁риска	-10.5124
▁Очевидно	-10.5127
▁изучить	-10.5127
▁датчик	-10.5127
▁служит	-10.513
▁общ	-10.5136
▁инструментов	-10.5139
нка	-10.514
▁сегодняшне	-10.5141
шей	-10.5143
сад	-10.515
▁лучшим	-10.5152
▁длинны	-10.5155
ница	-10.5158
режде	-10.5159
▁ждать	-10.516
▁градус	-10.5171
печат	-10.5177
▁обеспечени	-10.5179
▁звезд	-10.519
▁Твиттер	-10.5195
▁скульптур	-10.5195
▁творчеств	-10.5195
▁авари	-10.5196
▁основно	-10.5197
▁опрос	-10.5197
▁вскоре	-10.52
▁Правд	-10.5201
▁поднима	-10.5205
▁Самы	-10.5209
▁реакция	-10.521
▁бур	-10.5219
▁забыл	-10.5221
▁профессор	-10.5222
▁морски	-10.5225
▁сложн	-10.5227
▁Гор	-10.5231
▁вечером	-10.5231
▁привыкл	-10.5232
▁течени	-10.5233
ступить	-10.5238
▁природу	-10.5239
▁настояще	-10.5239
▁рисунк	-10.525
хожу	-10.5254
▁принимают	-10.5256
▁дополнительны	-10.5261
▁мирового	-10.5262
эк	-10.5263
▁бок	-10.5264
▁надежды	-10.5264
▁плод	-10.5265
бежал	-10.5266
▁пришло	-10.5267
▁непосредственно	-10.5269
▁Дети	-10.5271
▁коллег	-10.5272
мент	-10.5272
▁Марк	-10.5275
▁доказа	-10.5275
▁молекулы	-10.5275
гляд	-10.5276
▁Дэн	-10.5276
▁Отлично	-10.5276
▁событие	-10.5279
▁эпидеми	-10.528
▁зарабатыва	-10.5281
▁стимул	-10.5283
▁средство	-10.5284
▁управление	-10.5286
▁поступил	-10.5293
▁институт	-10.5294
▁соглас	-10.5297
▁любую	-10.5299
уют	-10.53
▁экономи	-10.5302
▁Ча	-10.5305
▁компьютерны	-10.5306
рис	-10.5311
браться	-10.5313
▁семи	-10.5314
▁обязан	-10.5317
▁отдельно	-10.532
▁колен	-10.5321
▁подума	-10.5321
▁уникальны	-10.5322
▁Друг	-10.5326
звать	-10.533
▁литератур	-10.5333
▁прототип	-10.5333
▁письма	-10.5333
▁подготовк	-10.5334
▁электронны	-10.5335
▁аплодисменты	-10.5337
▁хорошим	-10.5342
▁оружия	-10.5343
▁лидеров	-10.5349
рад	-10.5353
▁миров	-10.5353
▁поколени	-10.5354
▁образовани	-10.5356
▁акт	-10.5356
▁национальны	-10.5356
▁работой	-10.536
▁животным	-10.5363
▁Бе	-10.5367
▁мусульман	-10.5367
▁личны	-10.5372
▁Лун	-10.5372
▁ведут	-10.5373
▁Бер	-10.5376
▁компьютеров	-10.5378
▁кан	-10.5382
▁американц	-10.5383
▁врач	-10.5383
▁ежедневно	-10.5385
▁камеры	-10.5385
▁главным	-10.5388
▁праз	-10.539
▁концепци	-10.5393
аты	-10.5394
шая	-10.5396
▁Андерсон	-10.5403
▁портрет	-10.5403
▁поразительно	-10.5404
▁распространения	-10.5404
▁анти	-10.5407
▁сексуально	-10.5408
▁враг	-10.5413
части	-10.5416
▁Му	-10.5416
▁роди	-10.5419
▁сентября	-10.542
растут	-10.5421
реб	-10.5422
▁атмосферу	-10.5423
▁нрави	-10.5424
▁производит	-10.5439
▁ответа	-10.5439
▁Вас	-10.5441
▁труб	-10.5446
ur	-10.5446
▁перемены	-10.5454
▁арми	-10.5455
▁малыш	-10.5456
Франциск	-10.5457
▁годов	-10.5458
шки	-10.5461
▁структура	-10.5472
▁физики	-10.5474
▁2010	-10.5474
▁Причин	-10.5475
▁слышать	-10.5479
en	-10.548
▁авто	-10.5485
▁Другим	-10.5488
ставляют	-10.5497
илась	-10.5507
долго	-10.5513
▁ц	-10.5518
▁говори	-10.5522
▁победи	-10.5523
пар	-10.5524
▁оказаться	-10.5526
▁коммуникаци	-10.5529
ера	-10.5533
▁волн	-10.5534
▁диск	-10.5538
▁отчёт	-10.5545
▁Дэвид	-10.5546
▁Ар	-10.5547
▁избавиться	-10.5548
▁интересует	-10.5549
▁детали	-10.5551
▁климат	-10.5552
▁детско	-10.5553
▁трав	-10.5561
раж	-10.5564
▁рассказываю	-10.5567
▁обраща	-10.5572
▁экономике	-10.5575
ана	-10.5576
бросить	-10.5581
▁маленькую	-10.5584
▁бактерий	-10.5604
▁триллион	-10.5605
▁Наде	-10.5606
▁счастья	-10.5616
▁вчера	-10.5619
енный	-10.562
▁доступа	-10.5625
▁самолет	-10.5628
тре	-10.563
▁Ниче	-10.5632
▁спрос	-10.5633
▁спросит	-10.5636
▁явление	-10.5637
▁ба	-10.5639
▁нос	-10.5642
ари	-10.5642
▁вход	-10.5644
▁Кан	-10.5649
▁транспорт	-10.5652
▁необходимост	-10.566
кол	-10.5662
▁международны	-10.5668
▁крив	-10.5674
▁Кол	-10.5674
▁процента	-10.5675
▁десятилетия	-10.5679
▁площад	-10.5683
▁стены	-10.5685
▁купил	-10.5686
▁рамк	-10.5688
▁главны	-10.5688
нёс	-10.5688
▁2008	-10.569
▁прос	-10.569
▁прибыль	-10.5695
мор	-10.5697
телей	-10.5699
▁вызвал	-10.5703
▁взросл	-10.5703
▁картины	-10.5705
▁разным	-10.5708
▁опасны	-10.5709
▁пункт	-10.5709
▁запрет	-10.571
▁обладаю	-10.571
дали	-10.5717
▁ферм	-10.5721
ін	-10.5728
▁сосуд	-10.5729
▁кар	-10.573
▁наблюдения	-10.573
▁доктора	-10.5732
▁тепло	-10.5732
▁команду	-10.5734
▁Англии	-10.5736
учу	-10.5747
ший	-10.5748
овое	-10.575
▁держать	-10.5755
▁23	-10.5756
▁интерфейс	-10.5761
▁гадоў	-10.5761
▁кажу	-10.5762
нец	-10.5762
▁покупк	-10.5763
▁международно	-10.5763
▁X	-10.5764
m	-10.5767
▁участник	-10.5769
▁планету	-10.577
▁бедност	-10.5773
▁напоминает	-10.5777
тка	-10.578
▁уверены	-10.5787
▁финансово	-10.5789
▁Ми	-10.5791
рес	-10.5791
▁местно	-10.5791
▁бюджет	-10.5803
леп	-10.5803
носят	-10.5806
▁среда	-10.5807
▁превращает	-10.5812
нова	-10.5819
▁орбит	-10.582
▁повлия	-10.5832
▁стратеги	-10.5832
▁жизненно	-10.5835
▁вызыва	-10.5838
▁выбрали	-10.5838
▁Мал	-10.5847
▁изменила	-10.585
▁центра	-10.5851
▁позвонил	-10.5855
пло	-10.587
▁сбор	-10.5873
▁дохода	-10.5874
▁смысла	-10.5876
▁медицины	-10.5882
d	-10.5884
▁политика	-10.5886
▁порядка	-10.5889
▁встретить	-10.589
▁конкретны	-10.5895
▁Пу	-10.5897
▁содержание	-10.5909
▁выбрал	-10.591
▁звезды	-10.5918
оставить	-10.5919
▁Пер	-10.5921
▁искусственно	-10.5921
▁Разве	-10.5923
▁уверенность	-10.5924
ление	-10.5935
▁девочки	-10.5936
▁головно	-10.5944
так	-10.5945
тки	-10.595
▁счет	-10.5951
▁космически	-10.5956
▁ноч	-10.596
крыва	-10.5963
ючы	-10.5966
▁отсутствие	-10.5966
▁установк	-10.5974
▁ім	-10.5975
la	-10.5978
▁диагноз	-10.5981
▁Интересно	-10.5981
▁зрение	-10.5981
▁найдёт	-10.5981
▁дает	-10.5981
▁точне	-10.5982
▁миф	-10.5982
▁99	-10.5983
▁лучш	-10.5984
пит	-10.5987
▁потребност	-10.5987
▁ребенка	-10.5988
▁оборудование	-10.5991
▁феномен	-10.5995
▁древни	-10.5998
зі	-10.5999
▁полос	-10.6006
дём	-10.6006
es	-10.6006
▁камен	-10.6007
▁порядо	-10.6011
▁Поз	-10.6018
▁провал	-10.6019
▁расс	-10.6025
водить	-10.6028
▁огромным	-10.6029
▁школа	-10.6033
▁зло	-10.6034
▁естественны	-10.6035
▁углу	-10.6039
▁пят	-10.6039
le	-10.6042
▁проводил	-10.6046
▁0	-10.6048
▁специальны	-10.6049
▁изначально	-10.6056
▁показатели	-10.6056
▁привлечь	-10.6056
▁жанчын	-10.6056
▁реформ	-10.6056
▁Последни	-10.6056
▁мелки	-10.6059
▁умирают	-10.606
▁поэт	-10.6064
▁автомобиля	-10.6067
тельный	-10.6068
▁замечательн	-10.6069
▁боли	-10.6071
▁созданны	-10.6076
Э	-10.6077
нными	-10.6081
▁считали	-10.6085
▁электричеств	-10.6085
▁психологи	-10.6095
▁крупнейши	-10.6096
▁коллеги	-10.6103
▁приятно	-10.6104
▁предостави	-10.6107
ёл	-10.6109
ограф	-10.6109
▁предположи	-10.6112
▁полёт	-10.6114
▁восстановить	-10.6114
есь	-10.6115
▁долин	-10.6119
▁старо	-10.6124
▁человеческ	-10.6126
▁эксперимента	-10.6127
▁ландшафт	-10.6131
▁презентаци	-10.6131
▁начнём	-10.6131
▁нравятся	-10.6131
вес	-10.6131
шься	-10.6133
▁двига	-10.6134
▁беженце	-10.6135
▁парне	-10.6135
▁Больше	-10.6136
▁стреми	-10.6138
▁цена	-10.614
альная	-10.6144
▁отсюда	-10.6145
брос	-10.6156
▁принимает	-10.6158
▁воспоминания	-10.6164
▁20-	-10.6166
илл	-10.6166
▁потребител	-10.6168
▁распозна	-10.6172
▁сделанны	-10.6178
▁давление	-10.618
▁насекомых	-10.618
▁революция	-10.6185
▁ником	-10.6189
▁глазах	-10.6198
стоять	-10.6199
▁путе	-10.6202
▁некотором	-10.6203
▁астероид	-10.6207
▁плюс	-10.6207
▁развиты	-10.621
тическо	-10.6216
▁равны	-10.6217
▁разработан	-10.6228
▁зданий	-10.6233
ирования	-10.6241
▁всяки	-10.6251
▁пчёл	-10.6252
▁электричество	-10.6253
▁мае	-10.6253
▁предметы	-10.6254
айте	-10.6262
веч	-10.6262
▁бед	-10.6269
▁предсказа	-10.6276
▁способа	-10.6278
▁собрал	-10.6279
▁бренд	-10.6283
▁религиозны	-10.6284
▁медиа	-10.6289
▁пас	-10.6292
▁пальц	-10.6292
сц	-10.63
▁Помнит	-10.6301
▁Эд	-10.6302
▁государственны	-10.6304
▁называ	-10.6306
▁стресс	-10.6309
▁платить	-10.6313
▁Други	-10.6316
▁нерв	-10.6317
▁проекте	-10.6328
▁государств	-10.6331
▁крошечны	-10.6337
▁чувствуют	-10.6343
▁спрашивал	-10.6347
наружи	-10.6347
сы	-10.6348
кую	-10.6351
▁государственно	-10.6355
▁собирал	-10.6356
▁квадрат	-10.6356
▁завтра	-10.6357
▁похожа	-10.6358
▁чётко	-10.636
▁происхождени	-10.636
▁Работа	-10.636
ёк	-10.6361
▁объединить	-10.6362
▁обладает	-10.6363
▁списк	-10.6364
▁людз	-10.6367
▁высше	-10.6369
▁работников	-10.638
▁жен	-10.6381
▁отвеча	-10.6384
▁коп	-10.6388
▁стоят	-10.639
▁радость	-10.639
▁размышля	-10.6394
▁клиент	-10.6395
туда	-10.6399
▁песню	-10.6399
▁смен	-10.6403
▁симптом	-10.6403
▁жир	-10.6421
▁саб	-10.6424
▁мыши	-10.6427
▁голуб	-10.6427
▁закончи	-10.6432
▁активист	-10.6434
▁объектов	-10.6434
ётся	-10.6436
ing	-10.6437
▁Джеймс	-10.6438
▁фрагмент	-10.6438
▁The	-10.6438
▁показатель	-10.6438
▁включает	-10.6441
▁резко	-10.6443
▁инфекци	-10.6445
верим	-10.6445
▁прорыв	-10.6448
▁микроскоп	-10.6451
верят	-10.6453
▁жал	-10.6453
▁стоил	-10.6458
▁определение	-10.646
▁состояния	-10.647
▁задание	-10.6472
▁развивает	-10.6473
жат	-10.6473
смотр	-10.6478
кажите	-10.6478
▁камера	-10.648
▁электро	-10.6482
▁коротко	-10.6488
▁среднего	-10.6493
изу	-10.6494
▁динозавр	-10.6495
▁минуты	-10.6495
▁трати	-10.6496
▁космическо	-10.6504
▁фи	-10.6508
▁традиционно	-10.651
▁вруч	-10.6511
▁дорогу	-10.6511
▁Больш	-10.6512
▁компьютерно	-10.6513
▁ноутбук	-10.6516
▁опухоль	-10.6516
▁взаимодействие	-10.6516
▁Германии	-10.6517
атив	-10.6517
▁относи	-10.6526
▁метра	-10.6528
▁веществ	-10.6529
▁кости	-10.6529
▁выяснил	-10.6533
▁колледж	-10.6534
▁создает	-10.6537
фф	-10.6542
▁свете	-10.6546
▁простая	-10.6551
▁задачу	-10.6554
▁ученик	-10.6554
▁странам	-10.6556
▁автомобилей	-10.6563
жит	-10.6568
▁даст	-10.6571
▁назван	-10.6572
▁80-	-10.6572
готов	-10.6573
▁традици	-10.6575
▁противоречи	-10.6577
дет	-10.6584
▁открыли	-10.6585
▁попытка	-10.6587
▁зараз	-10.6587
▁Каж	-10.6591
▁устойчиво	-10.6591
▁спектр	-10.6593
▁разреши	-10.6595
▁Томас	-10.6595
▁тро	-10.6597
▁Марсе	-10.6601
овым	-10.6609
▁красив	-10.661
▁лесов	-10.6611
▁Какой	-10.6611
▁перес	-10.6612
▁периода	-10.6614
▁круто	-10.6615
▁контексте	-10.6621
▁внешне	-10.6621
▁придет	-10.6621
▁последовательно	-10.6623
▁карте	-10.6623
▁сел	-10.6625
▁производят	-10.6626
▁зелёны	-10.6629
уча	-10.6648
▁африкански	-10.6652
▁граждански	-10.6653
рож	-10.6667
▁аргумент	-10.6674
▁начнёт	-10.6674
▁Голос	-10.6674
▁принесл	-10.6674
▁Мексик	-10.6674
▁2009	-10.6676
▁расход	-10.6679
▁наград	-10.6679
▁писал	-10.668
▁уйти	-10.6682
▁ушл	-10.6683
▁присутствующи	-10.6688
▁бутылк	-10.6694
▁вечно	-10.6694
очно	-10.6695
против	-10.6705
чит	-10.6707
▁высок	-10.6707
▁острова	-10.6707
▁предела	-10.6708
▁ярки	-10.6708
▁хакер	-10.6709
▁культуре	-10.6709
▁учили	-10.671
▁компани	-10.6715
▁атак	-10.6715
▁новом	-10.6716
▁критик	-10.6717
▁выполни	-10.6717
рак	-10.6718
казано	-10.6718
ога	-10.6721
▁слышит	-10.6726
▁органы	-10.6732
▁региона	-10.674
мон	-10.6744
гі	-10.6748
▁имена	-10.6752
трэба	-10.6753
▁Звук	-10.6754
▁квартал	-10.6754
▁фабрик	-10.6754
▁называть	-10.6756
плоть	-10.6757
▁головы	-10.6758
▁акул	-10.6758
▁загляну	-10.6758
▁частично	-10.6759
▁ритм	-10.6763
▁распространение	-10.6763
пон	-10.6769
▁бар	-10.6777
▁обрати	-10.6779
▁Го	-10.6785
▁природны	-10.6785
▁народа	-10.6789
▁нужд	-10.679
▁Ку	-10.6794
виду	-10.6795
com	-10.6796
▁фундаментальны	-10.6798
▁статистик	-10.68
▁доклад	-10.6805
▁кро	-10.6807
▁полицейски	-10.6807
▁кризиса	-10.681
▁разработки	-10.6813
казать	-10.6814
▁сложна	-10.6816
▁опубликовал	-10.6821
▁сострадание	-10.6824
етей	-10.683
▁неплохо	-10.6832
▁кадр	-10.6833
▁потребления	-10.6835
▁проверк	-10.6836
▁добры	-10.6836
▁Ру	-10.6844
▁высоким	-10.685
меш	-10.6851
▁Майкл	-10.6852
▁установлен	-10.6853
▁Афганистан	-10.6856
▁надежда	-10.686
▁игрушк	-10.6861
справить	-10.6862
▁путешествия	-10.6871
▁функци	-10.6872
▁собран	-10.6873
лез	-10.6878
▁Европы	-10.6883
▁здоров	-10.689
▁геро	-10.6891
▁Афганистане	-10.6894
рыв	-10.6895
▁обнаружен	-10.6897
бан	-10.6897
▁увеличение	-10.6901
▁ранне	-10.6902
водит	-10.6904
▁воздействие	-10.6905
▁различи	-10.6912
▁60-	-10.6914
▁хвост	-10.6916
▁Почти	-10.6916
тен	-10.6916
▁пляж	-10.6916
▁культуру	-10.6916
бил	-10.6917
▁крыс	-10.6919
▁делается	-10.692
▁Канад	-10.6923
▁рабоче	-10.6924
тин	-10.6927
▁организмы	-10.6929
▁выращива	-10.6932
▁приз	-10.6944
▁чип	-10.6953
▁чтоб	-10.6955
▁чернокожи	-10.6959
▁собираются	-10.6959
▁упал	-10.6962
▁позволяющи	-10.6963
▁выгод	-10.6968
чек	-10.697
▁симметри	-10.6971
▁тема	-10.6973
▁заболевание	-10.698
▁разрешение	-10.698
▁Бен	-10.6982
▁Следующи	-10.6983
▁плох	-10.6989
гна	-10.6989
▁голода	-10.6991
кус	-10.6993
▁помогал	-10.6997
▁утверждаю	-10.6998
▁пакет	-10.6998
▁стиле	-10.7002
▁Пре	-10.7002
▁библиотек	-10.7004
▁появлени	-10.7005
кладывать	-10.7012
▁девушка	-10.7015
▁мно	-10.7016
L	-10.7016
▁подростков	-10.7018
▁верх	-10.7027
▁дорога	-10.7029
▁рабочие	-10.7029
▁применения	-10.7029
▁Ново	-10.7033
▁телефона	-10.7034
▁передачи	-10.7035
▁первом	-10.704
▁малы	-10.7052
▁ужин	-10.7053
▁Южн	-10.7053
▁доверие	-10.7056
▁камеру	-10.7056
▁низко	-10.7067
▁здоровы	-10.7071
▁отличн	-10.7076
двига	-10.7077
th	-10.7079
▁проходил	-10.7079
▁рассматривать	-10.708
▁гипотез	-10.708
▁наслажда	-10.708
▁палец	-10.708
▁выразить	-10.708
▁добро	-10.708
▁риф	-10.7082
▁отличаются	-10.7085
▁фигур	-10.7085
▁составляют	-10.7089
▁жела	-10.7093
▁величин	-10.7095
▁мнения	-10.7096
▁направление	-10.7096
▁сделаны	-10.7103
▁оба	-10.7104
ении	-10.7106
▁зала	-10.7107
▁женщинам	-10.7115
ымі	-10.7117
▁рожден	-10.7119
чк	-10.7121
▁сестр	-10.7125
▁останет	-10.7128
▁какими	-10.7129
▁еда	-10.7131
▁брак	-10.7134
▁направ	-10.7134
пор	-10.7137
▁добавил	-10.7137
▁заканчива	-10.714
▁предложения	-10.7145
▁гигантски	-10.7145
▁подобного	-10.7147
▁задавать	-10.7149
▁значительны	-10.715
ску	-10.7151
▁просмотр	-10.7151
луч	-10.7158
▁финансов	-10.7163
▁восторг	-10.7164
▁потребует	-10.7164
▁млн	-10.7164
▁Важно	-10.7164
▁Привет	-10.7164
▁груз	-10.7164
▁примера	-10.7165
▁адзін	-10.7165
▁пожар	-10.7167
▁лечить	-10.7167
▁обеспечение	-10.7169
сход	-10.7175
▁хозяйства	-10.7176
▁человечество	-10.7177
▁противостоя	-10.7182
▁души	-10.7184
▁жук	-10.7185
▁товаров	-10.7189
▁успешны	-10.719
▁улица	-10.719
▁Оказа	-10.719
льных	-10.7191
▁стен	-10.7193
▁приведу	-10.7194
ческ	-10.7195
чет	-10.7196
рам	-10.7197
дна	-10.7197
▁процвета	-10.7198
▁звуков	-10.7202
▁существования	-10.7206
▁поступ	-10.7207
говор	-10.7207
▁попадает	-10.7208
тым	-10.7213
▁навыки	-10.7213
бач	-10.7218
▁частот	-10.7218
изации	-10.7223
роз	-10.7224
▁мод	-10.7229
▁рукой	-10.723
▁измен	-10.7232
▁1000	-10.7236
▁професси	-10.7237
дра	-10.7238
▁фокус	-10.7239
▁мор	-10.724
▁J	-10.7247
▁электронно	-10.7248
▁кандидат	-10.7248
▁воссозда	-10.7248
▁процедур	-10.7248
▁вернёмся	-10.7248
▁навсегда	-10.7248
▁Истори	-10.7248
▁дли	-10.7259
▁красно	-10.7261
▁земля	-10.7262
▁функции	-10.7268
ремя	-10.727
▁уменьшить	-10.7277
▁заказ	-10.7279
▁600	-10.728
рог	-10.7284
▁запись	-10.7288
▁вируса	-10.729
▁страсть	-10.7295
▁погод	-10.7298
▁политическ	-10.73
▁родственник	-10.7307
▁запрос	-10.731
▁обуча	-10.7312
▁Ги	-10.7313
▁сомнени	-10.7316
▁мяч	-10.7317
ган	-10.7319
▁превраща	-10.7331
▁запуска	-10.7331
▁вспомни	-10.7332
▁iPhone	-10.7332
▁Ён	-10.7332
▁обитания	-10.7332
▁грузовик	-10.7332
моем	-10.7333
▁исторически	-10.7334
сор	-10.7336
▁толп	-10.7339
▁отметить	-10.7339
▁берут	-10.7341
li	-10.7342
▁Том	-10.7342
най	-10.7349
▁полученны	-10.735
лан	-10.7354
сі	-10.7356
щу	-10.7357
▁живет	-10.7358
▁большом	-10.736
▁школах	-10.7363
▁хирург	-10.7366
▁экономическ	-10.7366
▁расстояни	-10.7368
v	-10.7373
▁старши	-10.738
енных	-10.7381
▁лини	-10.7381
ліся	-10.7381
▁активность	-10.7385
▁отход	-10.7385
бі	-10.7386
ук	-10.7387
▁Росси	-10.7389
ива	-10.739
▁отражает	-10.739
▁городско	-10.7393
▁s	-10.7393
▁уход	-10.7395
is	-10.7398
▁городски	-10.7401
ткуда	-10.7402
▁превратил	-10.7402
▁ман	-10.7407
альным	-10.7412
▁правительств	-10.7413
▁звука	-10.7415
▁интересна	-10.7416
▁соответстви	-10.7418
▁областях	-10.7418
▁ткань	-10.7418
▁особы	-10.7418
▁существенно	-10.7422
аньше	-10.7424
▁организма	-10.7426
▁окажет	-10.7427
▁восприятия	-10.744
▁сцену	-10.745
▁опер	-10.745
ющегося	-10.7451
▁ждал	-10.7451
▁играл	-10.7452
▁продемонстрир	-10.7453
▁страда	-10.7456
▁мух	-10.7458
▁основал	-10.7467
▁склонны	-10.7469
▁основани	-10.7478
▁английском	-10.7482
▁Возьмё	-10.7489
▁мысле	-10.7489
рт	-10.7491
▁определенны	-10.7495
▁художник	-10.7496
▁соверши	-10.7499
▁ды	-10.75
леч	-10.75
▁смертност	-10.75
▁желания	-10.7501
▁замуж	-10.7501
тобой	-10.7503
▁талант	-10.7504
▁динамик	-10.7504
▁технологиями	-10.7504
▁юмор	-10.7505
▁мэр	-10.7506
жалуйста	-10.7507
явить	-10.7507
▁годах	-10.7509
▁льда	-10.7509
▁Понимает	-10.751
▁площадь	-10.7515
истов	-10.7516
▁фильмов	-10.7518
▁статью	-10.7519
▁делом	-10.752
шие	-10.7521
ание	-10.7522
мысл	-10.7526
▁менять	-10.7527
▁факты	-10.7529
▁рассказа	-10.7533
▁нахожу	-10.7537
▁ислам	-10.7537
нем	-10.754
▁стена	-10.7545
▁участников	-10.7545
▁голод	-10.7546
есть	-10.7547
▁обществ	-10.7551
▁уходит	-10.7556
даём	-10.7562
▁капитала	-10.7564
▁слабо	-10.7566
ck	-10.7568
гру	-10.7568
▁кислород	-10.757
▁деревне	-10.757
▁поддержку	-10.7573
▁максимально	-10.7578
▁английски	-10.7579
▁главный	-10.7581
▁Ган	-10.7582
▁спутник	-10.7585
▁проводят	-10.7585
▁коллекци	-10.7591
▁внимательно	-10.7591
▁углекисло	-10.7591
▁вдвое	-10.7591
▁аэропорт	-10.7591
▁Среди	-10.7591
▁нищет	-10.7592
▁ошибок	-10.7595
▁плач	-10.7596
▁дыр	-10.7596
▁преимущество	-10.7597
▁чьи	-10.7598
▁больно	-10.7598
▁сыр	-10.7599
▁воображение	-10.7603
скоре	-10.7605
▁исполни	-10.7612
ило	-10.7612
▁студи	-10.7613
▁раком	-10.7613
▁проводит	-10.7614
ладно	-10.7616
▁произойт	-10.7618
ённые	-10.7621
▁90-	-10.7624
▁хими	-10.7628
▁распространен	-10.7631
▁бел	-10.7632
▁роде	-10.7634
пир	-10.764
▁часы	-10.7643
ация	-10.7656
▁угол	-10.7656
▁ламп	-10.7664
нага	-10.7666
рок	-10.7666
▁встречал	-10.767
▁повлиял	-10.767
▁топливо	-10.767
▁куч	-10.7672
▁Доктор	-10.7679
▁2007	-10.768
▁целое	-10.7693
▁капитализм	-10.7696
▁журнала	-10.7696
▁женщину	-10.7697
▁женщинами	-10.7698
▁штука	-10.7699
▁мобильно	-10.7702
▁задал	-10.7709
▁чудо	-10.7711
▁снег	-10.7712
▁домашни	-10.7716
▁27	-10.7716
▁знание	-10.7718
▁отрыв	-10.7718
▁отлича	-10.7728
▁никого	-10.773
▁умерл	-10.7731
▁определенно	-10.7736
▁массово	-10.774
▁ролик	-10.774
▁основа	-10.7743
▁Стив	-10.7744
▁биологическо	-10.7747
▁сини	-10.7749
▁представлял	-10.7751
▁доказательства	-10.7756
▁математики	-10.7759
▁вырасти	-10.7762
▁потеряли	-10.7765
$	-10.7767
▁YouTube	-10.7767
▁НАСА	-10.7767
▁дерева	-10.7767
▁клинически	-10.7767
▁Спуст	-10.7767
▁Речь	-10.7768
▁произведения	-10.7768
▁сезон	-10.7769
▁описал	-10.7774
▁ПМ	-10.7776
▁близки	-10.7779
лететь	-10.7779
▁попытк	-10.7784
▁бег	-10.7785
▁порог	-10.7794
▁наличие	-10.7795
▁Обам	-10.7796
▁Какие	-10.7801
ведения	-10.7801
▁находящи	-10.7805
▁склад	-10.7807
▁ветра	-10.7809
▁стратегии	-10.7811
ывать	-10.7819
▁необычно	-10.7823
▁больнице	-10.7824
▁больных	-10.7825
us	-10.783
▁стену	-10.7836
▁исследовательск	-10.7837
стать	-10.7846
▁встречи	-10.7847
▁конструкци	-10.7848
▁эмоционально	-10.7852
▁ошибка	-10.7854
▁расходы	-10.7855
▁участвовал	-10.7857
▁впечатление	-10.7857
▁расчёт	-10.7857
▁коров	-10.7858
тера	-10.786
▁Соединенны	-10.7861
▁доля	-10.7862
▁окна	-10.7863
▁уз	-10.7864
▁цепочк	-10.787
▁ценност	-10.7871
▁диалог	-10.7872
ированны	-10.7873
▁революци	-10.7877
▁выполнять	-10.788
▁сотрудников	-10.7889
▁слав	-10.789
▁поднимает	-10.7893
▁экологи	-10.7897
▁пишет	-10.7902
▁задачей	-10.7902
шить	-10.791
▁Америка	-10.7912
▁твои	-10.7916
▁занятия	-10.792
▁математически	-10.792
▁зал	-10.7921
▁оборот	-10.7924
▁каково	-10.7928
▁батаре	-10.7941
▁удивительное	-10.7942
▁рецепт	-10.7945
▁ежегодно	-10.7947
▁положил	-10.7947
▁снизить	-10.7947
▁Мартин	-10.7947
▁крупно	-10.7954
▁брать	-10.7959
зор	-10.796
чны	-10.796
▁ветер	-10.7961
▁польз	-10.7962
▁существование	-10.7968
▁объясняет	-10.797
▁ледник	-10.7971
▁лиш	-10.7973
сов	-10.7976
▁следовать	-10.7979
▁пора	-10.7984
▁доллар	-10.7989
▁подел	-10.799
▁положительны	-10.799
▁современных	-10.7992
▁неизвестно	-10.7994
▁стоимост	-10.7994
▁игре	-10.7994
жы	-10.7995
▁сенсор	-10.7998
▁жар	-10.8
убить	-10.8001
▁учит	-10.8009
▁разумно	-10.8012
бар	-10.8013
▁детств	-10.8013
▁ожидания	-10.8015
тный	-10.802
▁падает	-10.8022
▁прочи	-10.8023
люб	-10.8025
ряд	-10.8026
▁главн	-10.8027
▁тёмно	-10.8034
▁тым	-10.8036
▁комментари	-10.8038
▁предназначен	-10.8038
▁цифровы	-10.8038
▁Одним	-10.8038
▁технологически	-10.8046
▁промышленно	-10.8047
▁ге	-10.8047
▁рис	-10.805
▁70-	-10.8055
любить	-10.8057
вым	-10.806
▁изучал	-10.806
▁депрессии	-10.8063
▁секунды	-10.8064
▁продолжают	-10.8064
▁слой	-10.8065
ch	-10.8065
▁пожилы	-10.8067
сен	-10.8074
▁военно	-10.8076
▁команде	-10.8078
стве	-10.8085
▁судьб	-10.8088
▁высокого	-10.8093
▁бесед	-10.8097
▁оставля	-10.8098
▁пластик	-10.8101
▁изобретение	-10.8105
два	-10.8106
▁ошиба	-10.8109
▁Всего	-10.811
▁убеждения	-10.811
рел	-10.8112
▁грани	-10.8113
▁настоящим	-10.8113
▁вовлечен	-10.8114
остью	-10.8115
▁искусственны	-10.8115
▁радикально	-10.8123
▁ребят	-10.8124
nd	-10.8128
▁GPS	-10.8129
▁взаимодействова	-10.8129
▁времён	-10.8129
▁демонстраци	-10.8129
▁участок	-10.8129
▁Около	-10.8129
▁сюжет	-10.8129
▁объекта	-10.813
ваться	-10.8133
▁будзе	-10.8135
▁общее	-10.8137
▁ед	-10.8138
▁волны	-10.8138
▁сострадани	-10.8141
▁разработать	-10.8143
▁Смотрит	-10.8146
▁обычных	-10.8146
▁считал	-10.8146
ита	-10.8146
▁ничто	-10.8151
▁статус	-10.8151
чку	-10.8152
▁многом	-10.8153
▁сайте	-10.8154
▁Примерн	-10.8162
▁родилась	-10.8163
▁дне	-10.8163
▁Y	-10.8164
▁свойства	-10.8171
▁нижне	-10.8172
▁делиться	-10.8172
▁снять	-10.8173
стран	-10.8174
▁лидеры	-10.8178
▁найден	-10.8184
▁господ	-10.8184
▁фраз	-10.8189
▁распространя	-10.8192
▁Дале	-10.8193
▁Солнце	-10.8194
▁рейтинг	-10.8199
▁белк	-10.8201
▁наблюдает	-10.8203
ируя	-10.8204
▁коллективно	-10.8205
▁отказа	-10.8205
вис	-10.8208
▁Говоря	-10.821
ённых	-10.8215
▁ожида	-10.8216
▁единственным	-10.8219
лены	-10.822
▁творчество	-10.8221
звлечь	-10.8222
▁Действительно	-10.8222
▁январ	-10.8222
▁196	-10.8223
▁делала	-10.8223
▁безусловно	-10.8223
▁лазер	-10.8223
▁явно	-10.8223
разном	-10.8226
▁шкал	-10.8228
▁Женщины	-10.8229
▁девять	-10.8229
▁сумасшедши	-10.823
▁преодолеть	-10.8233
▁отвечал	-10.8236
изация	-10.8247
ланд	-10.825
▁платформ	-10.8253
▁дар	-10.8254
▁позад	-10.8255
▁Всемирн	-10.8261
▁компаниям	-10.8262
бла	-10.8265
▁карьер	-10.8267
▁уделя	-10.8272
▁пле	-10.8274
▁врачи	-10.8279
▁объяснение	-10.8282
▁террорист	-10.8283
▁защищать	-10.829
▁наблюдали	-10.8295
▁намерен	-10.8296
▁Мор	-10.83
▁быстры	-10.8301
▁достижени	-10.8304
▁территори	-10.8307
▁сотрудник	-10.8314
▁диабет	-10.8315
▁смартфон	-10.8315
▁Господ	-10.8315
▁моделей	-10.8316
▁холодно	-10.8316
▁Центр	-10.8316
щим	-10.8318
вшим	-10.8318
▁шла	-10.8322
▁дра	-10.8324
новому	-10.8324
▁доллара	-10.8326
▁наблюда	-10.8335
▁L	-10.8337
▁экономист	-10.8339
▁клуб	-10.834
▁женщиной	-10.8347
фу	-10.8348
▁деталь	-10.8354
рн	-10.8356
▁языком	-10.8358
▁сократить	-10.8364
▁необходимость	-10.8365
▁ветр	-10.8376
▁попал	-10.8378
ro	-10.838
▁снизу	-10.838
▁удивительн	-10.8382
▁интернета	-10.8385
▁взрыва	-10.8387
▁облака	-10.8388
▁программно	-10.839
▁кроват	-10.8391
▁Франции	-10.8393
▁Наше	-10.8397
▁температура	-10.8402
▁рос	-10.8402
▁домов	-10.8405
▁250	-10.8405
▁Стар	-10.8406
▁горизонт	-10.8409
▁Чикаго	-10.841
▁автоматически	-10.8411
▁Опять	-10.8411
▁решает	-10.8412
▁остановиться	-10.8414
▁Жизнь	-10.8414
▁исход	-10.8416
▁попытки	-10.8417
▁Адам	-10.8419
▁отношениях	-10.8419
▁двигатель	-10.8419
▁десяти	-10.8422
кладывают	-10.8423
▁склон	-10.8425
▁замеча	-10.8429
▁Стивен	-10.8437
▁считается	-10.8437
▁деревни	-10.8438
▁этаж	-10.8439
▁втор	-10.8444
▁представляю	-10.8447
▁представител	-10.8448
▁закона	-10.8449
▁начинал	-10.8452
▁заключённы	-10.8453
▁необходим	-10.8453
▁увеличени	-10.8454
▁золото	-10.8455
лик	-10.8455
вил	-10.8457
▁вакцин	-10.8458
▁необходима	-10.8458
▁вещами	-10.8464
▁Весь	-10.8465
▁солнц	-10.8465
▁здравоохранение	-10.8469
▁учить	-10.8469
енная	-10.8475
▁реальн	-10.8483
▁личность	-10.8485
селенная	-10.849
ходим	-10.8491
▁генетическо	-10.8495
ранее	-10.8497
▁коллегами	-10.8498
▁пары	-10.8498
гар	-10.8498
клон	-10.8504
▁пожалуй	-10.8504
▁съёмк	-10.8505
▁Бостон	-10.8505
▁спокойно	-10.8506
▁сража	-10.8507
▁страдания	-10.8507
▁днём	-10.8507
▁понадобится	-10.8508
0	-10.8509
▁мышление	-10.8512
▁приведёт	-10.8512
▁Ман	-10.8512
▁пользователей	-10.8513
▁подошл	-10.8518
▁окружени	-10.8519
▁земно	-10.8521
▁заявил	-10.8522
▁гриб	-10.8525
очка	-10.8526
бег	-10.8529
▁льд	-10.8534
▁тайн	-10.8536
▁точек	-10.8536
▁одежд	-10.8538
ень	-10.8541
▁испыта	-10.8545
▁видение	-10.8546
▁хто	-10.8547
▁здани	-10.8549
валі	-10.8552
▁бега	-10.8554
▁воспринимать	-10.8559
▁занимаем	-10.8559
▁ограничения	-10.8561
▁борьба	-10.8561
▁тщательно	-10.8565
▁демократия	-10.8566
шта	-10.8569
▁религия	-10.8572
▁открытым	-10.8578
▁Коре	-10.858
▁посыла	-10.8584
▁эффективность	-10.8585
▁Гу	-10.8589
▁непросто	-10.8593
▁разбира	-10.8594
▁роботы	-10.8595
▁Давай	-10.8595
▁показало	-10.8601
▁поздно	-10.8601
▁Руанд	-10.8601
▁последующи	-10.8601
▁книж	-10.8602
▁понадоби	-10.8602
▁донор	-10.8605
▁проводили	-10.8607
нутри	-10.8608
▁убива	-10.8611
▁выступа	-10.8612
▁парни	-10.8614
▁врачей	-10.8619
▁обезьян	-10.8625
▁осуществить	-10.8629
▁продаж	-10.863
центов	-10.863
▁опубликован	-10.8632
▁Национально	-10.8633
▁пис	-10.8635
▁напряму	-10.8636
▁диет	-10.8639
▁Ад	-10.8639
▁переговор	-10.8642
▁расширя	-10.8643
▁интересным	-10.8645
▁Тот	-10.8646
▁поврежден	-10.865
▁управляет	-10.865
▁случайны	-10.8651
▁встреч	-10.8656
▁выиграл	-10.8659
▁Конго	-10.8659
▁противоположно	-10.8661
стях	-10.8662
чна	-10.8665
▁снял	-10.8665
▁известна	-10.8667
роб	-10.8668
ачива	-10.8668
▁животного	-10.8669
▁собственным	-10.8669
▁почувствовал	-10.8669
▁65	-10.8676
▁Западно	-10.8682
▁строительство	-10.8685
▁пород	-10.8685
▁приступ	-10.8686
▁риску	-10.8691
▁достигает	-10.8693
▁ракет	-10.8696
плыв	-10.8698
▁скелет	-10.8698
▁учёт	-10.8698
▁Будь	-10.8698
сом	-10.8699
▁дешевле	-10.8699
▁актёр	-10.8699
▁потребление	-10.87
▁тишин	-10.8702
▁изучил	-10.8703
▁бросил	-10.8706
▁пап	-10.8706
▁возл	-10.8708
▁прекрасн	-10.8709
▁моральны	-10.8709
шедш	-10.8712
▁Женщина	-10.8714
▁окно	-10.8716
▁использован	-10.8717
▁принимаем	-10.8721
▁борт	-10.8722
▁трудности	-10.8723
▁партнёр	-10.8726
▁пес	-10.8731
▁упомина	-10.8731
▁жизненны	-10.8735
▁потребность	-10.8736
мар	-10.8736
▁отходов	-10.8737
▁лун	-10.8743
шы	-10.8743
▁кот	-10.8744
▁прочим	-10.8745
▁ящик	-10.8749
год	-10.8751
▁вещество	-10.8753
▁цеп	-10.8754
▁следи	-10.8754
▁оказывают	-10.8764
очень	-10.8766
▁отбор	-10.8767
рно	-10.8767
▁папа	-10.8768
рин	-10.8769
▁патент	-10.877
▁занят	-10.877
▁выполнени	-10.8771
▁государство	-10.8771
▁изображений	-10.8776
▁справедливост	-10.8779
▁учитель	-10.878
▁изучение	-10.8783
▁обратил	-10.8787
▁словар	-10.8788
реш	-10.8795
▁строи	-10.8795
▁Существую	-10.8796
▁взгляне	-10.8796
▁инициатив	-10.8796
▁іншы	-10.8796
▁двое	-10.8796
▁ритуал	-10.8797
▁вечеринк	-10.8797
▁трюк	-10.8797
▁немноги	-10.8797
▁побочны	-10.8797
писано	-10.8797
▁адрес	-10.8798
▁ответственности	-10.8798
▁переехал	-10.8807
льна	-10.8807
платить	-10.881
▁упомянул	-10.8811
▁языков	-10.8812
▁50-	-10.8812
▁хозяйство	-10.8813
▁виртуально	-10.8814
▁растение	-10.8814
▁Кор	-10.8819
▁выбирать	-10.8822
▁шарик	-10.8823
▁результата	-10.8828
ступает	-10.8828
▁фильме	-10.8828
чал	-10.8833
▁выросла	-10.8833
▁низки	-10.8834
пан	-10.8835
▁рыбу	-10.8839
▁массы	-10.8843
▁находя	-10.8843
▁посеща	-10.8853
айн	-10.8855
▁счастливым	-10.8859
▁замен	-10.8865
пред	-10.8866
дают	-10.8866
▁пыльц	-10.8873
▁потери	-10.8875
▁тур	-10.8877
▁луч	-10.8883
▁придума	-10.8884
▁ребенк	-10.8887
▁выпуска	-10.8887
▁Хар	-10.8888
▁тесно	-10.8891
▁преимущества	-10.8892
▁Апплодисменты	-10.8895
▁глобализаци	-10.8895
▁долгосрочно	-10.8895
▁покупать	-10.8895
▁водоросл	-10.8895
▁добыч	-10.8896
▁анализа	-10.8897
▁ўсе	-10.8898
▁БД	-10.8899
▁созданы	-10.89
▁выражение	-10.8901
дзі	-10.8901
▁меж	-10.8904
▁генома	-10.8904
▁показывал	-10.8905
▁двум	-10.891
▁отдал	-10.8912
▁запад	-10.8916
▁возвращает	-10.8917
▁кислорода	-10.8919
▁музей	-10.8926
▁глуб	-10.893
ic	-10.8931
ена	-10.8931
▁бабушка	-10.8937
▁целую	-10.8939
▁темп	-10.8939
▁ограничени	-10.8942
▁клетку	-10.8944
▁зим	-10.8945
▁Ваш	-10.8949
▁существо	-10.8955
▁лечени	-10.8959
▁карьеру	-10.8963
▁магнит	-10.8966
▁Пра	-10.8969
▁ярко	-10.8969
▁понят	-10.897
▁изобрел	-10.8974
вез	-10.8978
▁некоторым	-10.8979
льной	-10.8982
фон	-10.8983
▁применять	-10.8983
z	-10.8985
▁создател	-10.8987
▁обычн	-10.899
▁имела	-10.8992
▁счита	-10.8995
▁опухоли	-10.8995
▁ребено	-10.8996
▁глав	-10.8996
▁промышленност	-10.8997
▁2005	-10.8998
▁случиться	-10.8998
▁элит	-10.8999
метр	-10.9
▁занял	-10.9002
▁приблизительно	-10.9006
▁стоя	-10.9009
▁принципе	-10.9011
▁слабы	-10.9011
▁стул	-10.9013
▁красн	-10.9014
▁учился	-10.9016
▁увеличивается	-10.9018
▁американско	-10.9019
▁реактор	-10.9022
▁боле	-10.9023
▁сложным	-10.9023
▁относят	-10.9026
▁скал	-10.9029
▁поменять	-10.9046
▁прибыли	-10.9049
▁направлен	-10.9055
ўся	-10.9063
чем	-10.9068
тремя	-10.907
▁определени	-10.9071
▁мен	-10.9073
▁верны	-10.9075
▁пациентам	-10.9076
▁гра	-10.9077
вшее	-10.9077
▁крыш	-10.9078
▁приложение	-10.9084
▁обычным	-10.9086
▁мем	-10.9092
▁частя	-10.9093
▁организовать	-10.9096
▁Исследовани	-10.9096
▁Чарльз	-10.9096
▁кусочек	-10.9096
▁проходя	-10.9097
▁сравнить	-10.9098
▁концерт	-10.9099
▁разуме	-10.9102
▁летом	-10.9102
▁Никогда	-10.9104
▁связей	-10.9107
▁ядерны	-10.9109
▁поп	-10.9115
▁ищет	-10.9115
▁продолжал	-10.9119
пс	-10.912
▁расширить	-10.9122
▁тра	-10.9122
▁следующ	-10.9123
▁разрешения	-10.9125
▁следующим	-10.9126
▁прием	-10.9127
▁мотор	-10.9127
▁влияния	-10.9129
▁отказыва	-10.913
▁твор	-10.9133
рэч	-10.9138
▁лент	-10.9139
▁популяци	-10.914
▁распа	-10.9142
et	-10.9143
дан	-10.9144
▁4-	-10.9146
худ	-10.9148
каж	-10.9149
▁постоянны	-10.915
▁ня	-10.9153
▁мала	-10.9159
▁Лу	-10.9163
▁называемо	-10.9163
▁определения	-10.9163
▁ребёнк	-10.9163
▁встрети	-10.9168
следовани	-10.9168
▁метафор	-10.9169
▁сложность	-10.917
▁либерал	-10.917
нами	-10.9171
ння	-10.9179
▁потерял	-10.9179
▁факторов	-10.9181
▁провод	-10.9181
▁предприниматель	-10.9183
щихся	-10.9186
▁фильтр	-10.9196
▁New	-10.9197
▁Apple	-10.9198
▁интуици	-10.9198
▁полиомиелит	-10.9198
▁энергетик	-10.9198
▁рассчитыва	-10.9199
▁микрофон	-10.9199
▁вычисления	-10.9199
▁Наверно	-10.9199
▁Эрик	-10.92
▁32	-10.9201
50	-10.9202
▁пережил	-10.9203
вно	-10.9211
▁струн	-10.9212
▁науку	-10.9217
▁погибл	-10.9222
▁внешни	-10.9223
▁цифра	-10.9227
ошел	-10.9229
▁профессиональны	-10.9232
▁формировани	-10.9237
▁активност	-10.9237
льная	-10.9239
▁крут	-10.9239
▁Верно	-10.9246
▁разговора	-10.9246
▁картинка	-10.9249
▁такова	-10.925
▁Стра	-10.9251
▁Джен	-10.9252
▁требуют	-10.9254
▁начнут	-10.9255
▁Мар	-10.9256
▁согласны	-10.9257
давая	-10.9258
наешь	-10.9263
▁метро	-10.9265
▁нашы	-10.9266
▁Интернете	-10.9266
▁принял	-10.9267
следовательность	-10.9269
▁просил	-10.927
▁торговы	-10.9272
оль	-10.9272
▁рисова	-10.9276
▁лице	-10.9277
▁получал	-10.9286
▁постройк	-10.9287
▁хо	-10.9291
▁Эл	-10.9295
читыва	-10.9301
á	-10.9301
▁Прямо	-10.9301
▁посреди	-10.9301
▁соотношени	-10.9301
▁экспедици	-10.9301
▁Проект	-10.9301
▁сервис	-10.9302
тил	-10.9302
йдут	-10.9304
▁повторя	-10.9306
▁интересовал	-10.9306
▁пригород	-10.9306
▁чёрно	-10.9307
▁формат	-10.931
▁оркестр	-10.931
▁спуска	-10.931
▁смешно	-10.9311
▁меняют	-10.9313
▁гора	-10.9318
работает	-10.9318
▁центрально	-10.9319
▁ценны	-10.9324
▁искусств	-10.9326
брасыва	-10.9327
▁слушал	-10.9327
▁ме	-10.9328
нач	-10.933
▁ше	-10.9331
▁явления	-10.9336
▁написала	-10.9339
еце	-10.934
кий	-10.9344
▁кг	-10.9345
▁мастер	-10.9347
овали	-10.9348
▁молодым	-10.9352
▁выживани	-10.9352
руч	-10.9361
▁испытания	-10.9368
▁применение	-10.937
▁называли	-10.937
▁разума	-10.9371
▁школьны	-10.9372
▁кода	-10.9372
ap	-10.9374
▁будущи	-10.9376
тные	-10.9376
▁Бар	-10.9376
▁возможностям	-10.9377
▁мышь	-10.9387
▁восьми	-10.9388
▁сер	-10.9389
▁расстояния	-10.9391
▁принима	-10.9391
▁такі	-10.9392
Анджелес	-10.9393
▁избега	-10.9395
▁плана	-10.9395
▁перешл	-10.94
носим	-10.9402
▁тратить	-10.9403
▁возьмём	-10.9406
▁подвержен	-10.9406
▁соответствует	-10.9406
▁руководство	-10.9406
▁устроен	-10.9406
▁принадлежит	-10.9407
▁пилот	-10.9407
▁квадратны	-10.9411
▁прекрасна	-10.9411
▁Закон	-10.9412
ставим	-10.9413
чение	-10.9415
били	-10.9422
▁показано	-10.9423
▁Солнца	-10.9426
▁снимал	-10.9428
▁лекци	-10.9433
ыш	-10.9439
логи	-10.9439
▁взаимосвязан	-10.944
▁лаборатория	-10.944
▁посетил	-10.9441
миль	-10.9442
▁автомобили	-10.9444
▁подверга	-10.9463
▁летать	-10.9463
чего	-10.9465
тельной	-10.9474
ведение	-10.9475
ните	-10.9478
водят	-10.9484
▁сердечны	-10.9487
▁небе	-10.9489
▁скучно	-10.949
яшчэ	-10.9494
▁шрифт	-10.9511
▁вдохновил	-10.9511
▁2011	-10.9511
▁флаг	-10.9511
▁опира	-10.9511
▁башн	-10.9511
▁заняты	-10.9512
▁творческо	-10.9513
▁фермер	-10.9513
▁показываю	-10.9514
▁корм	-10.9514
▁нават	-10.9517
▁министр	-10.9517
▁Средн	-10.9521
▁серьезно	-10.9521
▁конфликта	-10.9521
▁30-	-10.9527
▁Суть	-10.9528
▁домашне	-10.9529
ошли	-10.953
▁чудесны	-10.9532
лки	-10.9532
тика	-10.9532
▁Джим	-10.9536
▁проектировани	-10.9538
▁сосредоточен	-10.9539
▁великолепны	-10.954
рг	-10.9541
▁принятия	-10.9541
▁нож	-10.9541
▁инвалид	-10.9544
▁философ	-10.9548
▁взяты	-10.9549
берг	-10.9549
▁обеспечива	-10.9553
▁Ху	-10.9557
▁убил	-10.9558
▁сцены	-10.9559
▁богатства	-10.9559
▁подар	-10.9567
▁преступления	-10.9572
теля	-10.9572
граф	-10.9572
▁камер	-10.958
кто	-10.9581
▁источника	-10.9583
маль	-10.9585
▁философи	-10.9587
▁подходящи	-10.9596
▁дам	-10.9601
▁воздушны	-10.9602
▁разрушен	-10.9609
▁корн	-10.961
▁един	-10.961
▁пенси	-10.9611
▁сериал	-10.9612
▁битв	-10.9614
▁избирател	-10.9615
▁организовал	-10.9617
▁траектори	-10.9617
▁трансформаци	-10.9617
▁микроорганизм	-10.9617
▁берём	-10.9617
▁возвращени	-10.9618
▁рано	-10.9619
▁холм	-10.962
▁сине	-10.9621
юцца	-10.9622
тек	-10.9626
▁хлоп	-10.9627
▁увеличи	-10.9628
▁Могу	-10.9629
▁правду	-10.9629
▁жила	-10.9631
▁Ал	-10.9634
▁охот	-10.9637
▁соединить	-10.9637
▁Бра	-10.9639
▁отсутстви	-10.964
▁разработк	-10.9641
▁создала	-10.9644
▁собак	-10.9645
▁площадк	-10.9647
енное	-10.9647
▁раст	-10.9649
вучит	-10.965
▁веру	-10.9654
▁останавлива	-10.966
▁торгов	-10.9662
▁показывать	-10.9665
▁вс	-10.9667
▁открыва	-10.9668
джа	-10.9672
▁специалистов	-10.9675
▁дав	-10.9677
▁10-	-10.9686
▁настроен	-10.9688
▁музыкальны	-10.9689
▁северно	-10.969
лево	-10.969
▁полтор	-10.969
▁разрыв	-10.9695
▁Вселенная	-10.9707
▁закрыва	-10.9707
▁совершил	-10.971
▁силе	-10.9713
▁рот	-10.9723
▁руководств	-10.9724
▁Альцгеймер	-10.9725
▁научн	-10.9725
▁клеткам	-10.9725
▁працу	-10.9725
▁состоящ	-10.9726
▁Марса	-10.9726
▁колледже	-10.9727
▁профессионал	-10.9736
▁участки	-10.9736
▁Хороши	-10.9737
НБ	-10.974
▁Бы	-10.9742
▁Пус	-10.9749
▁мотиваци	-10.9753
▁дискусси	-10.9757
▁редки	-10.9757
▁параметр	-10.9759
сек	-10.976
щими	-10.9762
▁заключение	-10.9763
дель	-10.9773
жил	-10.9773
очек	-10.9775
держать	-10.9778
озьмите	-10.978
▁заботить	-10.9782
▁скот	-10.9783
▁губ	-10.9783
▁третье	-10.9788
▁желани	-10.979
▁сущность	-10.9793
бывают	-10.9799
▁показала	-10.98
▁лодк	-10.9806
▁студент	-10.981
хватить	-10.9811
▁карикатур	-10.9813
G	-10.9814
▁предлагаю	-10.9822
▁доск	-10.9827
▁благосостояни	-10.9833
▁преподавател	-10.9833
▁придумыва	-10.9833
▁таблиц	-10.9833
▁мутаци	-10.9833
▁просьб	-10.9835
▁слышим	-10.9836
▁культурны	-10.9839
▁кожу	-10.984
▁куск	-10.9843
▁влияю	-10.9848
низу	-10.9849
▁умере	-10.9852
▁африканск	-10.9854
▁пришел	-10.9855
▁математика	-10.9857
el	-10.9863
▁неравенство	-10.9864
▁лов	-10.9867
ледовательно	-10.9868
▁крупн	-10.987
▁десятилетий	-10.987
▁сталкиваем	-10.9877
▁U	-10.9883
▁нога	-10.9885
▁исходя	-10.9886
▁прожи	-10.9889
тора	-10.9889
ац	-10.9895
атель	-10.9896
▁рул	-10.9896
▁широки	-10.9903
важ	-10.9909
▁Фа	-10.9911
▁кос	-10.9912
▁визуально	-10.9913
▁враща	-10.9916
ed	-10.992
▁изобретения	-10.9926
▁держа	-10.9927
▁выгляд	-10.993
▁Институт	-10.9943
▁пейзаж	-10.9943
▁рекорд	-10.9943
▁шоколад	-10.9943
▁объем	-10.9943
▁поэзи	-10.9943
▁Фонд	-10.9943
▁дочери	-10.9944
▁представлять	-10.9944
▁программировани	-10.9945
ог	-10.9948
▁сябе	-10.9948
▁строк	-10.9949
▁обратн	-10.995
энд	-10.9952
▁означало	-10.9954
▁удаётся	-10.9959
▁предыдущи	-10.996
▁потерять	-10.9966
▁велика	-10.9966
▁музее	-10.9972
▁обнаружила	-10.9974
▁захочет	-10.9981
▁связать	-10.9983
▁преми	-10.9985
▁включить	-10.9994
▁женски	-10.9996
▁двор	-11
▁добавля	-11.001
▁открытом	-11.0011
▁Мес	-11.0014
▁балл	-11.0014
▁дала	-11.0015
ворот	-11.0015
▁стене	-11.0017
чел	-11.0026
▁независимы	-11.0026
▁лед	-11.0029
подобие	-11.0029
▁Тай	-11.0029
▁V	-11.0037
▁виртуальны	-11.0043
▁Оп	-11.0044
▁появление	-11.0049
▁персонаж	-11.0049
▁ссылк	-11.0051
▁Гре	-11.0051
▁потенциально	-11.0053
▁версия	-11.0053
▁Швеци	-11.0054
▁учёб	-11.0054
▁ущерб	-11.0054
▁хромосом	-11.0054
▁держит	-11.0054
▁пойдёт	-11.0055
▁Северн	-11.0055
▁способствуе	-11.0056
▁глядя	-11.0056
▁значимы	-11.0057
лла	-11.0062
▁эволюция	-11.0062
ёшь	-11.0065
▁понимани	-11.0069
▁ожидаем	-11.0072
▁нуля	-11.0072
вест	-11.0072
▁Гарвард	-11.0075
▁Сири	-11.0081
телем	-11.0086
▁справи	-11.0088
▁дед	-11.0089
влекательн	-11.0092
▁полет	-11.0093
▁ключевы	-11.0093
▁подобным	-11.0094
▁изображен	-11.0095
▁чёрн	-11.0095
▁шмат	-11.01
▁разговаривал	-11.0101
▁ката	-11.0102
▁Интернета	-11.0103
▁Похоже	-11.0109
▁обращать	-11.0109
▁фон	-11.0109
▁полёта	-11.0111
ания	-11.0112
▁трубк	-11.0113
▁иллюзи	-11.0115
▁стереотип	-11.0121
стов	-11.0124
цию	-11.0127
▁дики	-11.0127
▁разно	-11.0131
сама	-11.0141
▁K	-11.0142
▁попадают	-11.0144
▁образова	-11.0148
▁попросить	-11.0148
▁осознава	-11.0151
▁сценари	-11.0152
▁происходить	-11.0155
▁движ	-11.0157
▁разумны	-11.0157
,5	-11.0161
▁организмов	-11.0161
▁зайти	-11.0162
▁справля	-11.0164
▁формируют	-11.0165
▁теряет	-11.0167
▁приоритет	-11.0167
▁просматрива	-11.0167
▁всевозможны	-11.0167
▁сомнева	-11.0167
▁гнев	-11.0167
▁хищник	-11.0169
▁преступник	-11.017
▁социальным	-11.0172
▁неизбежно	-11.0173
▁Можем	-11.0173
вались	-11.0175
▁газов	-11.0178
▁банка	-11.0179
▁комикс	-11.0181
десят	-11.0182
▁металл	-11.0192
▁формул	-11.0195
▁Этим	-11.0198
▁обозначен	-11.0203
▁страдаю	-11.0206
▁улыба	-11.0207
▁объяснил	-11.0208
▁улучшения	-11.0208
▁95	-11.0209
▁чу	-11.0211
▁получа	-11.0211
de	-11.0212
▁семейны	-11.0214
▁учреждения	-11.0214
▁порт	-11.0219
▁навык	-11.022
▁Джона	-11.0221
▁расп	-11.0223
▁рассмотри	-11.0226
бывать	-11.023
▁разнообразны	-11.0235
ством	-11.0236
▁займ	-11.0237
▁четырех	-11.0237
▁построил	-11.0241
▁питательны	-11.0248
▁расстояние	-11.0249
▁веры	-11.025
▁количестве	-11.025
▁составил	-11.0251
сле	-11.0252
▁электрон	-11.0252
▁репутаци	-11.0253
▁пл	-11.026
▁якая	-11.0264
▁Каждо	-11.0266
▁аналоги	-11.0267
пят	-11.0267
▁распространи	-11.0274
бес	-11.0278
▁Ту	-11.0279
▁иллюстраци	-11.028
▁парниковы	-11.0281
▁психически	-11.0281
▁транс	-11.0281
▁Музе	-11.0282
▁положении	-11.0282
▁справ	-11.0284
▁проведени	-11.0287
▁повседневно	-11.0288
▁умирает	-11.029
▁родителями	-11.0293
▁удиви	-11.0296
▁умира	-11.03
▁Мил	-11.0301
▁программе	-11.0304
▁представи	-11.0306
▁вспомина	-11.0309
там	-11.0313
▁прочитал	-11.0315
▁идеальны	-11.0318
тянул	-11.0318
▁странным	-11.032
план	-11.0323
▁заднем	-11.0326
▁тропически	-11.0327
▁обсуждать	-11.033
▁предлагает	-11.0333
▁продела	-11.0333
▁получали	-11.0334
лас	-11.0335
▁остаться	-11.0336
ожидать	-11.0337
дей	-11.0341
▁математике	-11.0341
▁оптимизм	-11.0342
▁сестра	-11.0344
▁р	-11.0345
▁оси	-11.0347
▁рассказывает	-11.0347
▁китайско	-11.0348
гал	-11.0348
▁направить	-11.035
▁корпораци	-11.035
строить	-11.0353
▁школьно	-11.0353
,000	-11.0355
▁поразил	-11.0355
▁рады	-11.0357
тянуть	-11.0359
▁выигра	-11.036
чт	-11.0361
З	-11.0363
пользуются	-11.0363
▁Тим	-11.0369
ливо	-11.037
▁лево	-11.0372
▁Як	-11.0373
▁находим	-11.0375
▁глобальн	-11.0379
строения	-11.0381
▁положить	-11.0383
▁панел	-11.0388
▁поддерживает	-11.0393
тры	-11.0393
буд	-11.0395
▁изобража	-11.0395
▁конкуренци	-11.0395
▁несомненно	-11.0395
▁лёд	-11.0395
▁проследи	-11.0395
▁ткане	-11.0396
▁2012	-11.0397
▁валют	-11.0397
▁маги	-11.0398
▁климатически	-11.0398
▁поразительны	-11.0398
▁пальцев	-11.0398
▁промышленны	-11.0398
▁типичны	-11.0398
▁жыццё	-11.04
▁Мари	-11.0402
▁Восток	-11.0405
▁Кам	-11.041
▁тратят	-11.041
▁уничтожи	-11.0413
яць	-11.0414
▁прошёл	-11.0415
вшийся	-11.0416
▁протест	-11.0424
▁Син	-11.0428
▁китов	-11.0429
▁товар	-11.043
▁корне	-11.0432
▁публично	-11.0433
▁неважно	-11.0435
▁стро	-11.0442
te	-11.0443
▁вещам	-11.0445
▁собака	-11.0446
▁Каким	-11.0451
▁подхода	-11.0451
▁информационны	-11.0454
▁доказательство	-11.0456
▁Рад	-11.046
▁неверно	-11.0461
▁Будуч	-11.0461
▁запустили	-11.0465
▁неза	-11.0467
▁замер	-11.0469
▁дизайнеры	-11.0474
▁наблюдал	-11.0478
▁скрыты	-11.0479
▁копи	-11.048
▁женско	-11.0481
▁противо	-11.0483
▁современн	-11.0491
▁карьеры	-11.0493
действуют	-11.0502
▁больницу	-11.0505
▁наклон	-11.0508
спа	-11.051
▁объявил	-11.051
▁мал	-11.051
▁музыкант	-11.051
▁архив	-11.0512
▁корабль	-11.0512
▁пирамид	-11.0512
▁покупател	-11.0513
▁Год	-11.0513
▁северо	-11.0518
▁Недавн	-11.0519
▁пи	-11.052
▁диагностик	-11.0521
▁обсудить	-11.0525
▁Нача	-11.0526
▁Взгляните	-11.0526
▁интеллектуальны	-11.0529
▁Фор	-11.0529
кинуть	-11.0529
▁опасность	-11.0531
бро	-11.0533
душн	-11.0537
▁цифров	-11.0539
▁дому	-11.0548
▁справедливо	-11.0548
▁церкви	-11.055
▁горд	-11.0562
▁видны	-11.0567
▁подпис	-11.0567
▁нескольким	-11.057
▁инженеров	-11.0575
▁дизайнер	-11.0577
▁десят	-11.0582
▁плот	-11.0585
▁голубо	-11.0586
▁биолог	-11.0587
▁можн	-11.0587
▁сотрудничество	-11.0587
▁любым	-11.0589
▁продавать	-11.0591
▁голосов	-11.0594
▁чувствовала	-11.06
▁цветов	-11.0604
▁достига	-11.0607
▁стан	-11.0611
▁немало	-11.0614
▁остальным	-11.0615
V	-11.0618
▁поддержани	-11.0619
▁перспективе	-11.0625
▁сохранен	-11.0628
▁адвокат	-11.0629
▁гольф	-11.0629
▁предпочитаю	-11.0629
▁ждёт	-11.0629
▁Роберт	-11.0629
▁нарисова	-11.063
▁печ	-11.063
рик	-11.063
▁плоск	-11.0636
ровать	-11.0639
▁терроризм	-11.0639
▁ручк	-11.064
▁ўз	-11.0643
▁одержим	-11.0645
▁120	-11.0646
▁выступал	-11.0651
▁догада	-11.0654
▁разрабатыва	-11.0654
▁возник	-11.0654
▁поступать	-11.0655
▁Банк	-11.0658
▁действует	-11.0658
▁восстановления	-11.0661
▁Пред	-11.0665
▁прыга	-11.0667
льд	-11.0671
▁электроник	-11.0681
▁станции	-11.0682
▁волнует	-11.0684
▁мужчинам	-11.0685
▁Суд	-11.0687
▁шли	-11.069
▁солнечн	-11.0697
▁общественные	-11.0698
▁гл	-11.0698
▁дик	-11.0703
остр	-11.0704
▁способна	-11.0706
▁Мэри	-11.0706
▁голосовани	-11.0708
▁снижа	-11.0716
нном	-11.0716
гло	-11.0722
▁заинтересовал	-11.0728
▁налогов	-11.0728
▁упомяну	-11.073
▁беспоко	-11.073
▁Кал	-11.0733
om	-11.0733
▁воспитани	-11.0734
▁основыва	-11.0734
▁Две	-11.0735
▁обучени	-11.0737
делайте	-11.0738
▁Ей	-11.0739
▁пита	-11.0739
K	-11.074
▁института	-11.0741
▁технологией	-11.0743
▁раб	-11.0745
зон	-11.0747
▁Результат	-11.0748
▁Эфиопи	-11.0748
▁Техас	-11.0748
▁решают	-11.0749
▁2004	-11.0751
выше	-11.0751
▁просыпа	-11.0752
▁трагеди	-11.0753
произвести	-11.0753
▁овощ	-11.0753
▁безумно	-11.0753
▁конкурс	-11.0755
▁магазина	-11.0756
▁Пять	-11.076
▁оборудовани	-11.076
едят	-11.0762
▁огонь	-11.0762
▁операционн	-11.0764
▁записал	-11.0764
▁нуждается	-11.0765
▁цитат	-11.0772
▁всяко	-11.0772
▁прям	-11.0772
▁трудны	-11.0774
▁начинаю	-11.0774
▁Восточно	-11.0777
▁реали	-11.0777
▁Роб	-11.0779
▁спорт	-11.078
▁исследованиях	-11.078
▁Штатов	-11.0781
▁печат	-11.0785
▁опас	-11.0788
▁пониманию	-11.079
▁позна	-11.079
▁связ	-11.0794
асць	-11.0797
▁изменяет	-11.0798
▁Ок	-11.0798
▁шагом	-11.0799
▁пользова	-11.0802
▁жа	-11.0804
▁свин	-11.0804
▁взяла	-11.0805
▁установили	-11.0807
▁пусты	-11.081
▁начинали	-11.0813
▁технологиях	-11.0816
▁уникально	-11.0818
▁магнитно	-11.0822
▁применя	-11.0823
▁адна	-11.0823
▁антибиотик	-11.0835
▁условий	-11.0837
▁700	-11.0837
сюда	-11.084
▁нормальны	-11.0847
▁существовани	-11.0849
▁героя	-11.0852
▁эмоциональны	-11.0855
разу	-11.0859
▁изменять	-11.086
H	-11.0861
▁трети	-11.0862
▁детал	-11.0864
носить	-11.0865
▁гламур	-11.0869
▁мгновенно	-11.0869
▁полушари	-11.0869
▁посередине	-11.0869
▁Британи	-11.0869
▁гармони	-11.087
▁учёный	-11.087
▁2006	-11.0871
▁рэ	-11.0871
▁составлял	-11.0873
▁произведение	-11.0874
▁южн	-11.0874
▁кожа	-11.0883
▁продолжил	-11.0884
st	-11.089
▁некий	-11.0893
▁количеств	-11.0896
рал	-11.0896
▁заметит	-11.0899
▁отправ	-11.09
▁программист	-11.0902
▁принтер	-11.0906
▁яйца	-11.0912
▁научила	-11.0912
остей	-11.0913
▁исследователе	-11.0923
веду	-11.0924
▁коммерчески	-11.0926
▁Ша	-11.0927
▁операция	-11.0927
▁демократически	-11.0929
▁стратегия	-11.0929
▁следствие	-11.0933
▁смотря	-11.0934
▁вопросами	-11.0935
▁плакат	-11.0935
▁800	-11.0936
▁завис	-11.0937
▁снизи	-11.0939
▁привели	-11.0946
стараюсь	-11.0947
▁состоят	-11.0948
▁Гер	-11.0949
▁гал	-11.095
▁сыгра	-11.0951
ктивн	-11.0953
▁Зна	-11.0957
▁мечтал	-11.0959
▁сообщени	-11.096
▁удач	-11.0961
▁достижение	-11.0968
▁невероятн	-11.0968
счет	-11.0974
▁куп	-11.0975
БР	-11.0975
▁красным	-11.0977
▁края	-11.0977
▁бумаг	-11.0977
X	-11.0984
бел	-11.0986
слать	-11.099
▁York	-11.0991
▁нелегко	-11.0991
▁сопровожда	-11.0991
▁шаблон	-11.0991
▁Таймс	-11.0991
▁маркетинг	-11.0991
▁нехватк	-11.0991
▁паразит	-11.0991
ad	-11.0993
▁узнает	-11.0993
▁кабинет	-11.0995
▁сахар	-11.0996
▁учим	-11.0998
▁беспокоить	-11.0999
▁26	-11.1
▁сводит	-11.1003
▁точност	-11.1006
▁посвящен	-11.1008
▁последняя	-11.1008
▁отцом	-11.1009
▁удивлени	-11.1012
▁сомнения	-11.1015
▁носить	-11.1016
▁Необходимо	-11.1017
▁тратит	-11.1018
▁Посмотрим	-11.1021
▁выросли	-11.1021
▁стиль	-11.1027
▁видом	-11.1027
▁привел	-11.103
▁бело	-11.1033
▁разб	-11.1035
▁встал	-11.1039
▁художников	-11.104
▁категории	-11.1042
▁остановил	-11.1042
▁правилам	-11.1045
▁начну	-11.1046
▁обстановк	-11.1051
▁транспорта	-11.1052
кин	-11.1068
▁задания	-11.1069
▁радиаци	-11.1069
▁потеплени	-11.1072
▁снижени	-11.1072
▁неправильны	-11.1074
▁Кир	-11.1076
▁завершени	-11.1077
▁изобрета	-11.1081
несли	-11.1082
▁раск	-11.1084
▁Совет	-11.1087
▁слайде	-11.1088
▁достиг	-11.1096
▁приходить	-11.1102
▁нена	-11.1103
рд	-11.1107
▁дешёвы	-11.1109
Е	-11.111
▁Компьютер	-11.1114
▁синдром	-11.1114
▁Правительств	-11.1114
▁фунтов	-11.1114
▁маршрут	-11.1114
▁тарелк	-11.1114
▁семьёй	-11.1114
▁заявление	-11.1114
▁покинул	-11.1115
▁Будет	-11.1115
▁выйдет	-11.1115
▁Питер	-11.1121
▁Особенно	-11.1122
звините	-11.1123
▁западно	-11.1124
▁лежат	-11.1127
▁техническо	-11.1127
▁футбол	-11.1128
▁живым	-11.1128
▁визуальны	-11.1132
▁положения	-11.1133
▁Карл	-11.1133
▁Сер	-11.1135
▁сознани	-11.1136
▁мужско	-11.1138
▁пережива	-11.1146
▁устойчивы	-11.115
▁последствий	-11.1152
▁поворот	-11.1159
▁голова	-11.1159
▁гормон	-11.116
▁способно	-11.1163
▁шок	-11.1167
▁заканчивает	-11.1167
▁индивидуально	-11.1177
▁выборы	-11.1184
▁хирурги	-11.1184
▁Вер	-11.1192
▁логик	-11.1196
▁медицинск	-11.1199
▁жилищ	-11.1204
▁синтез	-11.1207
▁лев	-11.1212
▁маск	-11.1218
▁фундаментально	-11.1219
▁станци	-11.122
мена	-11.1221
▁сфера	-11.1221
▁поднял	-11.1223
▁небольшим	-11.1227
▁недостатк	-11.123
зади	-11.1234
▁дизайне	-11.1234
▁гул	-11.1236
▁капл	-11.1236
▁южно	-11.1238
▁изменя	-11.1239
▁MIT	-11.1239
▁Вероятно	-11.1239
▁дефицит	-11.1239
▁редактор	-11.1239
▁муравьёв	-11.1239
▁дождь	-11.1239
▁писатель	-11.1239
▁исследователи	-11.124
▁CO	-11.1241
▁Эбол	-11.1241
▁Союз	-11.1242
▁обман	-11.1242
▁лепш	-11.1243
▁названия	-11.1244
▁Штат	-11.1245
▁механик	-11.1245
▁рада	-11.1246
▁наполнен	-11.125
▁берет	-11.1251
▁шелк	-11.1253
▁прожива	-11.1256
▁передач	-11.1259
▁чисты	-11.1259
▁весом	-11.1261
ори	-11.1263
▁No	-11.1265
▁поймёт	-11.1267
▁наличи	-11.127
▁иностранны	-11.1273
▁муравьи	-11.1279
рол	-11.128
▁предсказыва	-11.1281
▁финанс	-11.1284
▁поддерживают	-11.1284
▁неожиданны	-11.1285
▁печата	-11.1286
op	-11.1286
лизм	-11.129
▁май	-11.1291
▁американской	-11.1296
▁отдать	-11.1297
▁эффективност	-11.1298
▁образы	-11.13
раст	-11.1302
бивают	-11.1302
▁надел	-11.1302
▁ногами	-11.1306
▁живот	-11.1306
▁деревня	-11.1308
▁стрел	-11.131
▁продукта	-11.1312
▁психолог	-11.1312
▁встретили	-11.1313
▁строительства	-11.1316
▁сообщи	-11.1319
ключить	-11.1319
енной	-11.132
▁выхода	-11.1321
▁словам	-11.1324
▁врача	-11.1331
▁фермеры	-11.1331
кла	-11.1341
▁Гаи	-11.1346
▁демократию	-11.1347
▁Использу	-11.1348
▁спутников	-11.1351
▁компьютере	-11.1362
министр	-11.1365
▁Википеди	-11.1366
▁некоммерческ	-11.1366
▁приглаша	-11.1366
▁холодильник	-11.1366
▁Лучше	-11.1366
▁худши	-11.1366
▁пересмотре	-11.1366
▁экрана	-11.1366
▁забыть	-11.1367
▁психологически	-11.1369
▁повреждения	-11.137
▁технологическо	-11.1371
▁водород	-11.1371
▁распределение	-11.1372
▁находитесь	-11.1372
▁телом	-11.1372
▁западны	-11.1373
дадим	-11.1375
▁повторить	-11.1376
▁присоедини	-11.1377
▁кафе	-11.1379
▁Боб	-11.1383
▁льв	-11.1383
▁хаос	-11.1387
▁Западе	-11.1388
▁наркотик	-11.1396
▁описыва	-11.1398
▁28	-11.14
▁наркотиков	-11.14
▁направления	-11.14
▁поведени	-11.1403
▁пишут	-11.1406
▁весело	-11.1409
▁массовы	-11.141
▁называл	-11.1411
▁великолепно	-11.1411
▁обсуждения	-11.1413
▁Ага	-11.1413
▁иммунн	-11.1414
▁объединяет	-11.1414
▁воображения	-11.1415
▁энергией	-11.1418
▁столетия	-11.1423
ёв	-11.1426
▁мозгов	-11.1428
▁наблюдение	-11.143
очку	-11.1431
ve	-11.1434
▁Калифорни	-11.1437
▁активны	-11.1438
▁мел	-11.1439
▁подверг	-11.1449
▁череп	-11.1451
▁интенсивно	-11.1451
▁контрол	-11.1453
▁пишу	-11.1455
▁незнакомц	-11.1457
▁выращивани	-11.1459
▁потрясающ	-11.1464
▁прекратить	-11.1464
▁содержат	-11.1466
▁комар	-11.1466
▁продвига	-11.1468
▁отзыв	-11.147
▁сокращ	-11.147
▁вызван	-11.1472
▁путешестви	-11.1475
▁метр	-11.1478
▁эффективным	-11.1479
глу	-11.1481
▁раскрыть	-11.1483
▁безопасны	-11.1485
▁временно	-11.1486
▁погиб	-11.1487
▁свобода	-11.1487
хол	-11.1488
▁Ор	-11.1491
▁адно	-11.1491
▁ры	-11.1493
▁пистолет	-11.1494
▁премьер	-11.1494
▁помощник	-11.1494
▁заложен	-11.1494
▁юрист	-11.1494
▁галере	-11.1494
▁жестоки	-11.1494
▁привычк	-11.1494
▁Молод	-11.1494
дэ	-11.1496
▁Буш	-11.1496
▁шахт	-11.1496
▁поставлен	-11.1498
▁открытий	-11.1499
авац	-11.1504
▁учебник	-11.1504
▁эффекты	-11.1504
▁заменя	-11.1504
▁деньгам	-11.1507
▁2001	-11.1511
▁пойма	-11.1512
▁пластиковы	-11.1514
▁категори	-11.1516
йце	-11.1523
▁поддержа	-11.1524
▁предки	-11.1524
▁научился	-11.1527
▁доста	-11.1533
▁внести	-11.1534
▁общение	-11.1535
▁прошлы	-11.1536
▁летучи	-11.1536
▁космоса	-11.1538
▁готовить	-11.1538
▁образуют	-11.1538
нні	-11.1539
▁звонк	-11.154
▁i	-11.154
▁стремление	-11.1542
▁сообщил	-11.1542
▁веков	-11.1551
тара	-11.1553
▁Эт	-11.1555
▁подсказ	-11.1557
▁скрыт	-11.1558
▁испытал	-11.1558
▁клетк	-11.1558
▁маленьком	-11.156
▁убрать	-11.1562
▁соверш	-11.1567
▁комната	-11.1569
▁характеристик	-11.157
▁рукам	-11.1571
▁свободны	-11.1573
▁представили	-11.1579
▁горе	-11.1582
▁чувствуе	-11.1588
▁Европ	-11.1589
▁Лет	-11.159
▁пря	-11.1595
▁низ	-11.1597
▁игров	-11.1598
▁встречают	-11.1599
▁давал	-11.1601
▁персонал	-11.1604
▁отрица	-11.161
▁способност	-11.1612
▁записать	-11.1616
казаў	-11.1617
чувств	-11.1619
▁гэтым	-11.162
▁сформировал	-11.1624
▁Между	-11.1624
▁диапазон	-11.1624
▁предотвращени	-11.1624
▁продовольственн	-11.1624
▁регулярно	-11.1624
▁сапраўд	-11.1624
▁энтузиазм	-11.1624
▁бензин	-11.1624
▁обложк	-11.1624
▁генетик	-11.1625
▁важность	-11.1626
▁горячи	-11.1626
▁Начнё	-11.1627
▁принято	-11.1628
▁дико	-11.1629
▁намерения	-11.163
▁присутствует	-11.163
▁Ці	-11.1634
▁сердечно	-11.1634
▁чест	-11.1637
сса	-11.1638
▁Люб	-11.1638
думаешь	-11.164
▁подходил	-11.164
вае	-11.1642
▁интереса	-11.1646
▁исполнени	-11.1647
▁вирусов	-11.1651
▁файл	-11.1652
▁выбросы	-11.1652
▁удален	-11.1652
▁птица	-11.1656
▁передвига	-11.1656
лист	-11.1656
▁уважение	-11.1659
анные	-11.1663
льш	-11.1663
▁млекопитающих	-11.1676
▁пан	-11.1678
образить	-11.1678
▁разнообрази	-11.1684
▁давали	-11.1688
▁суда	-11.1689
▁полезным	-11.1691
▁кнопк	-11.1691
▁верхне	-11.1694
▁связыва	-11.1695
▁перенос	-11.1696
▁микробов	-11.1697
▁ходу	-11.1697
плен	-11.1699
▁распространяет	-11.17
▁захотел	-11.1702
▁лёгко	-11.1704
▁Мама	-11.1708
▁общая	-11.1709
▁имеющих	-11.1709
рна	-11.1713
▁ответственны	-11.1714
нты	-11.1716
▁уголь	-11.1722
▁Пап	-11.1724
▁весел	-11.1726
▁перемеща	-11.173
▁входит	-11.1731
▁шест	-11.174
▁мышей	-11.1741
▁стоящи	-11.1742
▁выражен	-11.1748
▁жестоко	-11.1755
▁компромисс	-11.1755
▁сэкономи	-11.1755
льскохозяйственн	-11.1755
▁Довольно	-11.1755
▁ингредиент	-11.1755
▁начинать	-11.1755
▁терапии	-11.1755
▁услышит	-11.1755
▁ураган	-11.1755
▁рассужда	-11.1756
▁зрабіц	-11.1756
▁строят	-11.1756
▁звучал	-11.1756
▁сжига	-11.1756
▁обожаю	-11.1756
▁сравним	-11.1756
▁мелоч	-11.1756
▁областе	-11.1757
▁восхища	-11.1758
▁акци	-11.1758
▁предполагает	-11.1758
далеко	-11.176
▁линз	-11.1764
▁передавать	-11.1768
▁беременност	-11.1773
▁твёрдо	-11.1774
▁покида	-11.1775
▁Рим	-11.1781
▁восточно	-11.1781
▁расширени	-11.1792
▁электрод	-11.1796
▁старая	-11.1798
▁езд	-11.1799
▁работники	-11.1799
▁новост	-11.1803
▁облако	-11.1804
▁столкновени	-11.1808
▁очереди	-11.1811
▁соединения	-11.1813
▁раскрыва	-11.1813
▁Созда	-11.1814
▁распознавани	-11.1816
фил	-11.1822
чынам	-11.1825
▁Любо	-11.1829
▁взаимодействи	-11.1829
▁Йо	-11.1831
скоп	-11.1833
▁адказ	-11.1834
рр	-11.1835
▁убежден	-11.1839
▁культурно	-11.1839
▁коллектив	-11.1843
▁мило	-11.1844
▁товары	-11.1847
▁задавал	-11.1847
мира	-11.1847
▁стекл	-11.1851
▁сработал	-11.1853
▁Дик	-11.1854
чок	-11.1859
▁Оста	-11.1864
▁мясо	-11.1864
▁находят	-11.1866
▁тр	-11.1867
▁приобре	-11.187
▁повторно	-11.1871
▁предприятия	-11.1871
▁Бэ	-11.1872
▁Майк	-11.1872
▁упоминал	-11.1877
гли	-11.1881
▁тяжёлы	-11.1882
▁маленького	-11.1884
бол	-11.1884
дол	-11.1887
▁толк	-11.1887
▁Оксфорд	-11.1889
▁диаметр	-11.1889
▁ископаемы	-11.1889
▁поблагодари	-11.1889
▁фанат	-11.1889
▁контракт	-11.1889
▁равновеси	-11.1889
▁обеспокоен	-11.1889
▁дебат	-11.1889
▁производим	-11.1889
▁приземли	-11.1889
▁задают	-11.189
▁развить	-11.1891
▁массив	-11.1891
▁радости	-11.1892
▁английско	-11.1895
▁Гугл	-11.1895
▁полном	-11.1896
▁бал	-11.1898
▁разработке	-11.19
▁реализаци	-11.1901
знавать	-11.1901
▁относиться	-11.1903
▁никуд	-11.1906
▁предприяти	-11.1906
эль	-11.1907
▁передвижения	-11.1916
▁располага	-11.1925
▁публикаци	-11.1925
▁готова	-11.1926
цами	-11.1928
▁дизайнеров	-11.1929
▁прошла	-11.193
▁уровн	-11.193
▁наверху	-11.1931
▁фермеров	-11.1932
▁производител	-11.1932
▁Пакистан	-11.1935
▁Система	-11.1938
▁сильным	-11.194
▁современном	-11.1944
ія	-11.1945
▁слон	-11.1948
▁низким	-11.1949
▁заняти	-11.1951
▁производстве	-11.1953
▁сравнива	-11.1956
▁мяса	-11.1957
ЭС	-11.1959
сайт	-11.1963
▁убийств	-11.1963
▁гад	-11.1964
▁диаграмм	-11.1968
▁выпуск	-11.1968
▁Точно	-11.197
▁сопереживани	-11.1971
▁изучали	-11.1975
нула	-11.1978
▁крест	-11.1978
▁архитектуры	-11.1981
восточн	-11.1982
ратор	-11.1983
▁брал	-11.1984
▁уважени	-11.1988
▁зона	-11.1991
▁точны	-11.1992
▁управляем	-11.1995
▁факта	-11.1996
ологи	-11.1998
▁нашел	-11.2002
▁идеологи	-11.201
▁познакоми	-11.2011
▁дыры	-11.2012
▁здравоохранени	-11.2018
▁китайски	-11.2019
▁краск	-11.2021
▁СПИД	-11.2022
▁строительны	-11.2023
▁корабля	-11.2024
▁октябр	-11.2024
▁Скоре	-11.2024
▁показателе	-11.2024
▁запечатле	-11.2025
▁остро	-11.2025
▁куб	-11.2025
▁сложил	-11.2025
▁Браун	-11.2026
▁мастерск	-11.2027
▁ТВ	-11.2027
▁приспособлен	-11.203
культур	-11.2031
▁столиц	-11.2034
▁подряд	-11.2035
▁обзор	-11.2037
▁изучаем	-11.2038
просту	-11.204
щут	-11.2042
▁соедини	-11.2044
▁мета	-11.2048
▁волну	-11.2052
▁инженеры	-11.2055
▁объединя	-11.2057
▁Z	-11.2059
▁Новы	-11.2059
▁Разумее	-11.206
воль	-11.2062
рана	-11.2063
▁длинн	-11.2065
▁пропуска	-11.2067
▁ощути	-11.2068
▁лестнице	-11.2073
▁осмотр	-11.2075
▁каковы	-11.2077
вшую	-11.2082
▁распределени	-11.2083
▁популярно	-11.2083
▁сыграл	-11.2084
▁15-	-11.2085
▁высказывани	-11.209
▁всеобще	-11.2091
насці	-11.2092
фар	-11.2092
▁усовершенствова	-11.2093
▁описывает	-11.2095
▁рассматрива	-11.2095
▁парол	-11.2098
20	-11.2102
▁тестировани	-11.2104
▁доказательств	-11.2107
третьи	-11.2107
нал	-11.211
▁нарушения	-11.2113
дон	-11.2113
іс	-11.2115
▁поясн	-11.2115
▁подводны	-11.2115
▁Дума	-11.2117
▁собственном	-11.2119
▁определять	-11.2124
▁коры	-11.2125
▁ночно	-11.2126
▁килограмм	-11.2126
▁Ганд	-11.2128
няў	-11.2131
▁зелены	-11.2132
▁тёмн	-11.2132
▁СПИДа	-11.2133
▁получаю	-11.2134
▁приходили	-11.2134
▁удержива	-11.2136
▁Сто	-11.214
▁спрашивает	-11.2144
▁ищу	-11.2146
▁раствор	-11.2147
▁устал	-11.2149
▁21-	-11.215
▁дало	-11.215
здор	-11.2151
▁стыд	-11.2157
▁гонк	-11.2159
▁волонтёр	-11.2161
▁пешеход	-11.2161
+	-11.2161
▁Манхэттен	-11.2161
▁Учёные	-11.2161
▁инвестировать	-11.2161
▁кошмар	-11.2161
▁переосмысли	-11.2161
▁проповед	-11.2161
▁отклик	-11.2161
▁убежда	-11.2161
▁надпись	-11.2161
▁бедность	-11.2161
▁Уганд	-11.2161
▁ученых	-11.2161
▁Машин	-11.2161
▁1,5	-11.2163
▁снимать	-11.2163
▁2,5	-11.2163
▁доставк	-11.2163
▁смелы	-11.2164
▁БФ	-11.2164
▁выстрел	-11.2166
▁изменениям	-11.2169
▁примат	-11.217
правительственны	-11.217
▁работник	-11.2171
▁комет	-11.2172
▁Часто	-11.2173
▁слышала	-11.2174
▁наилучш	-11.2175
бирать	-11.2175
▁играли	-11.2176
▁страдает	-11.2176
▁оставши	-11.2177
▁выпустил	-11.2179
▁территория	-11.2181
▁чашк	-11.2186
▁потратить	-11.219
▁слух	-11.2192
▁велик	-11.2194
▁малярии	-11.2203
▁паук	-11.2205
▁созданно	-11.221
▁бесплатны	-11.221
▁льш	-11.2212
▁стоп	-11.2215
▁зразуме	-11.2218
▁прекрасным	-11.2219
бин	-11.222
▁разруша	-11.2222
▁удовлетворени	-11.2224
слушайте	-11.2227
▁сум	-11.223
▁выделить	-11.2232
звонить	-11.2233
▁смея	-11.2248
▁попада	-11.2248
▁таблетк	-11.2251
▁наследие	-11.2252
▁холод	-11.2252
вот	-11.2256
▁проигра	-11.2256
▁повыша	-11.2257
▁повод	-11.2257
▁построени	-11.2258
▁белка	-11.226
▁чувству	-11.2261
▁Сдела	-11.2262
▁клеточн	-11.2265
▁сидящи	-11.2266
дзіць	-11.2273
▁попали	-11.2273
▁изуча	-11.2276
переди	-11.2277
▁получен	-11.2277
▁Стр	-11.2281
▁дым	-11.2284
▁уголк	-11.229
▁инструмента	-11.2294
▁зависим	-11.2294
▁подобн	-11.2295
▁m	-11.2296
▁самц	-11.2299
▁взволнован	-11.23
▁геноцид	-11.23
▁нагрузк	-11.23
▁соглаша	-11.23
▁содержащ	-11.23
▁рыболов	-11.23
▁супруг	-11.23
▁отчаяни	-11.23
▁происходящее	-11.23
▁переработк	-11.23
▁смешива	-11.23
кручива	-11.23
▁билет	-11.23
▁отмеча	-11.23
▁представляем	-11.2301
▁моно	-11.2301
▁колонии	-11.2302
▁ствол	-11.2302
▁столе	-11.2304
▁покажет	-11.2307
▁начальник	-11.2308
▁ветеран	-11.2308
▁бак	-11.2309
▁десятилетие	-11.2309
веце	-11.231
▁предпринимателе	-11.231
▁Смит	-11.2311
▁окруж	-11.2311
нервнича	-11.2312
▁Удивительно	-11.2314
▁чым	-11.2314
▁непрерывно	-11.2316
▁гей	-11.2318
▁Неуж	-11.232
▁смертность	-11.2321
▁мечтать	-11.2321
▁указывает	-11.2329
▁традиция	-11.2332
▁маляри	-11.2333
▁равенств	-11.2335
▁зелёно	-11.2339
▁Мед	-11.2341
▁ні	-11.2346
стар	-11.2347
▁потенциальны	-11.2349
▁старени	-11.235
▁остановк	-11.2353
▁мысля	-11.2353
▁улыбк	-11.2354
▁полюс	-11.2354
▁дальн	-11.2355
▁деревн	-11.2355
▁восток	-11.2355
▁благ	-11.2356
▁увеличива	-11.2357
▁ветрян	-11.2358
▁продают	-11.236
co	-11.2361
▁клиентов	-11.2362
▁коже	-11.2364
▁кнопку	-11.2368
▁бит	-11.2373
▁клей	-11.2375
▁жидкость	-11.2376
▁основным	-11.2377
▁финансирование	-11.238
▁невидимы	-11.238
гласит	-11.2386
▁предоставил	-11.2388
▁прямы	-11.2388
▁черны	-11.239
▁графика	-11.239
▁залив	-11.2393
▁детск	-11.2393
▁низкой	-11.2393
▁предыдуще	-11.2394
фт	-11.2396
▁одиночк	-11.2397
рган	-11.2398
▁богат	-11.2398
▁кит	-11.2401
▁вакцины	-11.2416
▁приходил	-11.2416
летают	-11.242
ложите	-11.2421
▁стихи	-11.2422
▁метан	-11.2422
▁образу	-11.2426
▁агент	-11.2429
▁метода	-11.2431
▁строит	-11.2434
нни	-11.2434
▁сторонник	-11.2435
▁удобно	-11.2437
ce	-11.2438
▁Microsoft	-11.2441
▁фармацевт	-11.2441
▁электростанци	-11.2441
▁мелоди	-11.2441
▁послание	-11.2441
▁одиночеств	-11.2441
▁предпринять	-11.2443
▁семена	-11.2443
▁2003	-11.2443
▁рецептор	-11.2444
▁передаёт	-11.2445
больш	-11.2445
▁пасля	-11.2446
▁спр	-11.2446
▁отправлять	-11.2447
▁ехал	-11.2448
▁передвигаться	-11.2449
▁удовольствия	-11.2455
Анджелесе	-11.2458
▁институты	-11.2459
▁шутк	-11.246
▁местным	-11.2462
▁умру	-11.2466
▁реальным	-11.2467
▁доказал	-11.2467
▁решающ	-11.2471
▁гидро	-11.2472
вольн	-11.2474
▁Дарвин	-11.2474
▁сна	-11.2475
дова	-11.2477
▁воздействия	-11.248
▁спад	-11.2483
▁депресси	-11.2485
▁насекомы	-11.249
▁взаимоотношения	-11.2497
▁способностью	-11.2498
▁тенденция	-11.2501
▁приложения	-11.2502
▁телу	-11.2505
▁мужчын	-11.2509
▁разделить	-11.2512
▁разумеет	-11.2515
мышленн	-11.2516
▁сельски	-11.2521
▁ростом	-11.2522
кава	-11.2523
▁проче	-11.253
▁предложени	-11.253
ушек	-11.2534
▁отража	-11.2535
▁Тер	-11.2539
▁длинно	-11.2547
▁целя	-11.2548
▁расстройства	-11.2549
▁порой	-11.255
▁темноте	-11.2553
▁делят	-11.2559
▁ошиб	-11.2559
▁универсальны	-11.2561
▁сумма	-11.2561
нтов	-11.2565
▁обучать	-11.2565
▁Стои	-11.2567
▁обезьяны	-11.2569
▁хранит	-11.2572
▁вооружен	-11.2576
▁спасени	-11.2577
▁приятны	-11.2579
▁автомат	-11.2579
▁вряд	-11.2582
▁кукуруз	-11.2583
▁партнер	-11.2583
▁утверждает	-11.2583
▁церемони	-11.2583
▁погружа	-11.2584
▁удвои	-11.2584
▁Флорид	-11.2584
▁Брайан	-11.2584
▁кратко	-11.2584
▁исчезает	-11.2584
дышать	-11.2584
▁довод	-11.2585
▁засух	-11.2585
▁камне	-11.2587
▁реагирует	-11.2588
▁звал	-11.2589
▁изучаю	-11.259
▁Рио	-11.259
▁находился	-11.2592
▁глупо	-11.2593
куль	-11.2599
▁расширение	-11.2601
▁2-	-11.2607
▁эквивалент	-11.2607
▁присоединя	-11.2608
нік	-11.2611
свет	-11.2612
▁родно	-11.2613
▁умеет	-11.2616
▁Дела	-11.2616
▁слаб	-11.2616
селе	-11.2617
▁вспышк	-11.2617
▁представлени	-11.2621
▁Анд	-11.2622
▁королев	-11.2622
▁снижает	-11.2624
▁типов	-11.2624
▁экологическо	-11.2624
▁записыва	-11.2625
▁газеты	-11.2627
▁цу	-11.2628
as	-11.2631
▁потепление	-11.2633
тир	-11.2641
▁испытани	-11.2642
▁необычны	-11.2643
▁особенность	-11.2645
крыл	-11.2647
▁мас	-11.2649
ладить	-11.265
▁контроле	-11.265
▁бол	-11.2652
40	-11.2652
▁кров	-11.2655
▁Кен	-11.2657
▁приближ	-11.2658
▁бабушки	-11.2659
▁эволюционно	-11.2667
▁стану	-11.2668
▁жыв	-11.2669
▁повсеместно	-11.267
▁знакомо	-11.267
▁устойчивость	-11.2674
▁носил	-11.2674
▁Ти	-11.2676
▁совпада	-11.2683
▁собаки	-11.2686
▁лекции	-11.2691
▁сосредоточи	-11.2692
▁музыкально	-11.2694
▁умение	-11.2695
▁страной	-11.2697
ровень	-11.2701
ставляем	-11.2701
▁получат	-11.2702
танец	-11.2703
▁финансировани	-11.2711
▁достигнут	-11.2714
▁Ваши	-11.2718
um	-11.272
me	-11.2721
▁правом	-11.2723
▁парадокс	-11.2728
▁психиатр	-11.2728
▁Нобелевск	-11.2728
▁Хиггс	-11.2728
▁бассейн	-11.2728
▁критери	-11.2728
▁презерватив	-11.2728
▁накаплива	-11.2728
▁супермаркет	-11.2728
▁известен	-11.2728
▁шприц	-11.2728
▁возьму	-11.2729
▁худше	-11.2729
▁разреша	-11.2729
▁импери	-11.2729
▁визит	-11.2729
▁ставит	-11.273
▁мамы	-11.2731
▁съест	-11.2732
▁умнее	-11.2732
▁листья	-11.2732
▁заполнен	-11.2733
▁тонки	-11.2734
▁лицензи	-11.2735
▁План	-11.2735
▁попробуем	-11.2737
ряду	-11.274
▁убиты	-11.2743
▁студентам	-11.2744
▁материальны	-11.2744
▁мальчика	-11.2745
▁еде	-11.2746
▁формирует	-11.2747
▁производительно	-11.2748
сыла	-11.275
▁естественным	-11.2751
▁решит	-11.2752
▁Брун	-11.2752
▁предположение	-11.2754
▁рез	-11.2754
оедино	-11.2755
▁любопытно	-11.2757
BM	-11.276
▁художника	-11.2763
▁обнаружени	-11.2763
▁указыва	-11.2764
▁Хай	-11.2765
ваў	-11.2768
▁причё	-11.2768
▁умею	-11.2769
ящий	-11.2771
▁блага	-11.2772
▁американск	-11.2773
▁мудрость	-11.2774
▁крик	-11.2776
▁друж	-11.2777
▁снижение	-11.2778
▁настоящем	-11.2781
▁составляющи	-11.2781
▁позволят	-11.2784
▁став	-11.2784
▁коз	-11.2786
▁базовы	-11.2786
▁29	-11.279
▁побережье	-11.279
▁горя	-11.2791
▁увеличил	-11.2794
▁контролирует	-11.2795
▁Наук	-11.2795
▁волна	-11.2795
▁астроном	-11.2799
▁Огромно	-11.2801
жение	-11.2804
▁забавно	-11.2805
арт	-11.281
▁зап	-11.2812
▁убеждени	-11.2813
▁угроза	-11.2814
щиеся	-11.2818
▁недавни	-11.282
▁физическ	-11.2826
▁использовала	-11.2828
▁вдохновение	-11.283
▁раковы	-11.2831
▁Должн	-11.2834
жима	-11.2837
работало	-11.2839
изаци	-11.284
▁придержива	-11.284
▁встретила	-11.2842
▁Школ	-11.2844
▁добыва	-11.285
енько	-11.2857
▁корол	-11.2859
▁оказыва	-11.2859
нтерес	-11.2859
ставляет	-11.286
▁жителям	-11.2861
▁голосова	-11.2864
▁отклонения	-11.2865
▁холодны	-11.2866
▁хор	-11.2867
▁осознание	-11.2871
▁упаковк	-11.2872
▁Дом	-11.2873
▁содержани	-11.2874
▁конкурент	-11.2874
▁вспомнит	-11.2874
▁мульти	-11.2875
▁2015	-11.2875
▁Четыре	-11.2875
▁коридор	-11.2875
▁предупреждени	-11.2875
▁соблазн	-11.2875
▁тревог	-11.2875
▁акцент	-11.2876
▁печень	-11.2876
▁Красны	-11.2876
▁стихотворение	-11.2876
▁блюд	-11.2877
▁подготовить	-11.2878
▁медуз	-11.2878
▁освеща	-11.2878
▁длительно	-11.2879
▁статья	-11.2881
▁беспокоит	-11.2881
года	-11.2881
▁почву	-11.2882
▁зрител	-11.2883
▁пережить	-11.2886
▁решен	-11.2886
▁33	-11.2887
▁эры	-11.2887
▁Кинг	-11.2888
▁терпе	-11.2888
▁побережья	-11.2889
▁следовал	-11.289
▁хранить	-11.2891
▁совмести	-11.2893
▁подняли	-11.2896
▁ча	-11.29
▁искусстве	-11.2901
▁свойство	-11.2901
▁основы	-11.2902
▁тестов	-11.2902
▁вспомнил	-11.2905
▁некое	-11.2906
▁шара	-11.2913
▁отпуск	-11.2921
▁следит	-11.2925
▁надёжно	-11.2926
▁сочувствие	-11.2933
▁упад	-11.2933
▁сухо	-11.2936
▁индивидуальны	-11.2938
▁описан	-11.2939
▁поход	-11.2939
▁зависимость	-11.294
▁CA	-11.2941
▁сократи	-11.2942
кормить	-11.2943
▁реагирова	-11.2945
▁обсуждали	-11.2945
нку	-11.2947
▁зеркал	-11.2947
▁парка	-11.2948
▁продать	-11.295
▁дворе	-11.2952
▁минимальн	-11.2956
▁шёл	-11.2959
▁фоне	-11.2961
▁процветани	-11.2963
анной	-11.2964
▁Чего	-11.2965
▁мощно	-11.2965
▁теряют	-11.2965
▁Расскажи	-11.2967
сок	-11.297
▁выжив	-11.2971
▁похорон	-11.2975
▁Немног	-11.2977
▁умел	-11.298
▁выража	-11.298
▁состоял	-11.2981
▁творени	-11.2986
рус	-11.2993
▁происходящи	-11.2994
▁глупы	-11.2996
▁цене	-11.3001
▁решении	-11.3002
▁определяют	-11.3007
▁скач	-11.3008
▁бывши	-11.3009
▁парке	-11.3011
ави	-11.3015
▁тайны	-11.3016
▁передне	-11.3017
мель	-11.3021
▁уши	-11.3021
▁горди	-11.3022
▁лидерам	-11.3025
▁Гейтс	-11.3025
▁декабр	-11.3025
▁запущен	-11.3025
▁лагерь	-11.3025
▁немедленно	-11.3025
▁эволюционировал	-11.3025
▁заголовк	-11.3025
▁сетчатк	-11.3025
▁Честно	-11.3025
▁гипер	-11.3025
▁камня	-11.3025
▁рационально	-11.3025
▁Кевин	-11.3025
▁фирм	-11.3026
▁гараж	-11.3027
меньшинств	-11.3027
▁новостях	-11.3028
▁2050	-11.3028
▁твит	-11.3029
▁вычислени	-11.3031
▁Начина	-11.3032
▁ап	-11.3037
▁Какое	-11.3042
▁Кра	-11.3045
▁мысленно	-11.3046
пта	-11.3046
▁точностью	-11.3047
▁окружение	-11.3048
▁лидер	-11.3048
▁странице	-11.3049
▁пластика	-11.3052
▁ведущи	-11.3054
▁пласт	-11.3055
▁профессионально	-11.3055
un	-11.3057
▁обеспечивает	-11.3058
▁применени	-11.3059
▁черта	-11.3059
ношу	-11.3062
▁образов	-11.3069
▁саму	-11.3069
▁исходит	-11.307
▁развивают	-11.307
▁насили	-11.3073
▁несчасть	-11.3074
▁предположения	-11.3076
▁узор	-11.3077
▁заполни	-11.3078
▁третьего	-11.3081
▁Газ	-11.3082
▁глубок	-11.3082
▁пользовател	-11.3082
▁курса	-11.3082
▁запусти	-11.3083
▁ставк	-11.3094
▁Пар	-11.3097
▁воображени	-11.3098
▁заработать	-11.3099
▁выжил	-11.3101
▁готово	-11.3104
▁важнейши	-11.311
▁палочк	-11.311
▁задумал	-11.3112
▁столети	-11.3113
▁День	-11.3118
▁размеща	-11.3118
▁спроектирован	-11.312
▁обманыва	-11.3121
▁допуска	-11.3124
▁СО	-11.3125
▁пустыне	-11.3127
▁лишни	-11.3129
▁занятие	-11.313
▁парковк	-11.3135
▁обстоятельства	-11.3139
▁особенны	-11.3139
вато	-11.3141
камер	-11.3141
падают	-11.3149
▁поменя	-11.3153
▁повышени	-11.3154
чуть	-11.3163
▁включен	-11.3166
▁беженц	-11.3169
▁нанял	-11.3169
▁уравнение	-11.3171
рил	-11.3172
▁подробно	-11.3172
▁слеп	-11.3174
▁поощр	-11.3174
pe	-11.3175
век	-11.3176
ard	-11.3176
▁ориентир	-11.3176
▁Александр	-11.3176
=	-11.3176
▁администраци	-11.3176
▁подъём	-11.3176
▁спонсор	-11.3176
▁электроэнерги	-11.3176
▁Индию	-11.3176
▁оператор	-11.3176
▁детях	-11.3176
▁некалькі	-11.3176
▁Совсем	-11.3176
▁Альберт	-11.3176
▁Хан	-11.3177
▁энергетически	-11.3177
▁морально	-11.3177
▁представителе	-11.3178
▁уехал	-11.3178
amp	-11.3178
▁пугающ	-11.3179
▁индийски	-11.3179
▁сложное	-11.318
▁Што	-11.3181
▁легки	-11.3182
▁ніко	-11.3184
▁заповедник	-11.3185
▁дошл	-11.3187
▁Вернём	-11.3188
▁коллега	-11.3189
▁призыв	-11.3191
ойдёт	-11.3195
▁двойн	-11.3195
▁управляют	-11.3197
прощения	-11.3198
▁давления	-11.3199
метров	-11.32
▁вера	-11.3201
▁роз	-11.3203
▁змен	-11.3204
▁едет	-11.3206
▁река	-11.3209
▁питание	-11.3212
▁предлага	-11.3213
▁быстр	-11.3217
▁духовно	-11.3218
▁функция	-11.322
лучше	-11.322
▁континента	-11.3224
▁мудр	-11.3232
▁дву	-11.3232
▁конфликтов	-11.3235
ины	-11.3235
▁квантово	-11.3235
▁крылья	-11.3236
героев	-11.3239
▁девушк	-11.3243
▁дедушка	-11.3245
▁потребителе	-11.3247
▁статьи	-11.3247
am	-11.3249
▁молча	-11.325
▁купили	-11.3251
анцы	-11.3254
▁уничтожени	-11.3259
▁статистически	-11.3259
▁помеща	-11.3261
▁девяти	-11.3261
▁Куд	-11.3262
▁утверждение	-11.3263
правления	-11.3265
▁текуще	-11.327
▁интеллектуально	-11.3272
▁36	-11.3273
▁правильном	-11.3274
больше	-11.3276
▁участка	-11.3277
▁друзьям	-11.3278
▁меняться	-11.3283
▁тени	-11.3283
▁неизвестны	-11.3285
асці	-11.3289
▁добива	-11.3292
▁образцов	-11.3293
▁привык	-11.3293
▁Co	-11.3299
▁уязвим	-11.3306
▁держал	-11.3309
енс	-11.3313
ul	-11.3316
коп	-11.3319
инга	-11.3319
▁избави	-11.3323
▁дыхание	-11.3325
▁штуку	-11.3326
▁Привед	-11.3326
▁Либ	-11.3327
▁направлени	-11.3329
▁списка	-11.333
▁Голливуд	-11.333
▁Дзякуй	-11.333
▁адаптаци	-11.333
▁воплотить	-11.333
▁выигрыва	-11.333
▁клавиатур	-11.333
▁контейнер	-11.333
▁парадигм	-11.333
▁повествовани	-11.333
▁фантастик	-11.333
▁феврал	-11.333
▁возглавля	-11.333
▁напуган	-11.333
▁республик	-11.333
▁эфир	-11.333
▁протокол	-11.333
▁паутин	-11.333
▁дальнейше	-11.333
▁земель	-11.333
▁изобили	-11.333
▁запрограммирова	-11.333
▁решаем	-11.333
▁протеин	-11.3331
▁механически	-11.3331
▁выражения	-11.3333
▁религиозно	-11.3333
▁очевидны	-11.3334
ter	-11.3334
▁своя	-11.3335
▁подсчёт	-11.3335
▁МК	-11.3336
▁имело	-11.3339
▁выреза	-11.3341
▁творить	-11.3341
▁Мирово	-11.3342
▁присоединить	-11.3343
▁працы	-11.3345
остаточно	-11.3349
▁молекула	-11.335
▁перевести	-11.335
▁инновационны	-11.3351
▁человечеств	-11.3352
▁мая	-11.3354
▁подтверждени	-11.3358
▁лампочк	-11.3358
▁урожай	-11.3359
▁подавлен	-11.3359
▁пропаганд	-11.336
▁налог	-11.336
▁включ	-11.3362
бал	-11.3362
▁дополнительно	-11.3362
ближе	-11.3362
кнул	-11.3366
ерс	-11.3366
▁закончили	-11.3367
▁Воз	-11.3369
▁берегу	-11.337
▁Мер	-11.3371
▁эпохи	-11.3376
▁изобретени	-11.3377
▁вертикально	-11.3381
▁учебны	-11.3381
▁полов	-11.3391
▁значил	-11.3395
▁заметно	-11.3395
▁газета	-11.3398
▁гибки	-11.3398
▁богатство	-11.3401
▁фантастически	-11.3401
▁Пару	-11.3405
▁Атлант	-11.3407
▁позитивно	-11.3408
▁куча	-11.3412
▁забрать	-11.3416
росла	-11.3417
▁5-	-11.342
▁используемы	-11.342
▁ходит	-11.3423
▁столкновения	-11.3424
▁глобальном	-11.3425
▁красоты	-11.3426
▁подоб	-11.3429
ступают	-11.343
▁рентген	-11.3434
▁мальчиков	-11.3434
▁премии	-11.3435
▁аутизма	-11.3436
▁хозяйств	-11.3437
▁реч	-11.3442
▁стремлени	-11.3443
▁гостин	-11.3443
▁позитивны	-11.3444
▁заве	-11.3445
▁бедным	-11.3446
▁дипломат	-11.3449
▁Тро	-11.3454
▁гарантирова	-11.3458
▁заработал	-11.3459
▁привлекл	-11.3461
▁отказать	-11.3464
▁начально	-11.3466
▁стремя	-11.3467
▁ледников	-11.3467
▁информационно	-11.347
▁увлечен	-11.3472
вращени	-11.3474
▁мощн	-11.3477
▁постав	-11.3477
▁кадры	-11.3482
▁вспоминаю	-11.3483
▁Амазонк	-11.3486
▁Бангладеш	-11.3486
▁индекс	-11.3486
▁ископаемо	-11.3486
▁правосуди	-11.3486
▁фантази	-11.3486
▁экзамен	-11.3486
▁эпизод	-11.3486
▁подключа	-11.3486
▁Каролин	-11.3486
▁лежал	-11.3486
▁погрузи	-11.3486
▁праблем	-11.3486
▁пульс	-11.3486
▁мембран	-11.3486
▁Мисс	-11.3486
▁тренд	-11.3487
▁обвиня	-11.3487
▁заполня	-11.3487
▁Чарл	-11.3487
▁отправляет	-11.3487
▁Генри	-11.3488
▁храм	-11.3489
зывают	-11.349
▁схема	-11.349
▁виноват	-11.349
▁остры	-11.3493
▁организациям	-11.3494
▁химикат	-11.3496
▁разрабатываем	-11.3505
▁демонстрирует	-11.3506
нимаешь	-11.3507
▁заходит	-11.351
▁надёжны	-11.3513
▁Солнечно	-11.3514
▁Стэнфорд	-11.3515
▁соответствующи	-11.3515
встреч	-11.3515
меньше	-11.3518
▁истинно	-11.352
▁свод	-11.3521
сан	-11.3525
тягивает	-11.3527
центр	-11.3527
▁пересека	-11.3528
▁кресло	-11.3529
▁восстановление	-11.353
▁пищев	-11.3531
▁разреза	-11.3533
▁гар	-11.3534
▁ездил	-11.3537
▁прочего	-11.3537
▁явлени	-11.3538
▁заняло	-11.3543
чан	-11.3548
лена	-11.3549
▁объяснения	-11.3552
▁серьезны	-11.3553
▁принципов	-11.3553
▁звезда	-11.3557
▁отслежива	-11.3561
▁душе	-11.3561
▁начне	-11.3561
▁проник	-11.3561
▁изготовлени	-11.3562
▁рисовал	-11.3564
▁слое	-11.3567
▁благодарн	-11.3567
пп	-11.3568
▁поместили	-11.3568
▁гуманитарн	-11.3573
▁85	-11.3573
▁ўж	-11.3578
▁взаимодействую	-11.358
ілі	-11.3581
▁Эли	-11.3581
оны	-11.3583
сли	-11.3584
▁часам	-11.3584
▁сдвиг	-11.3587
▁поступить	-11.3587
▁измерени	-11.3588
▁высока	-11.359
▁электронн	-11.3591
▁предоставлени	-11.3591
▁гена	-11.3593
▁женой	-11.3601
▁крыше	-11.3603
▁основания	-11.3603
резал	-11.3606
▁вулкан	-11.3607
▁ожидает	-11.3608
▁эпидемия	-11.3608
▁сумк	-11.3609
▁угрозы	-11.361
▁забира	-11.3611
▁слуха	-11.3612
▁удивил	-11.3613
▁деталя	-11.3616
▁улучшени	-11.3617
▁Европа	-11.3618
▁больница	-11.3618
▁Гар	-11.3618
ружу	-11.3621
▁уча	-11.3622
▁создавал	-11.3636
▁сталь	-11.3638
▁лишен	-11.364
реки	-11.3642
▁великим	-11.3645
чо	-11.3645
▁дьявол	-11.3645
▁путешествовал	-11.3645
▁резерв	-11.3645
▁тюрем	-11.3645
▁лагеря	-11.3645
▁матерью	-11.3645
▁подвижн	-11.3645
▁футов	-11.3645
▁демографическ	-11.3645
▁Библи	-11.3645
▁непонят	-11.3645
▁продавц	-11.3645
▁приготовлени	-11.3645
▁Дерек	-11.3645
▁сваё	-11.3645
▁камни	-11.3645
▁угля	-11.3645
▁машын	-11.3646
▁отметк	-11.3646
▁законодател	-11.3646
▁поражен	-11.3646
▁дорожк	-11.3646
▁побывал	-11.3646
▁мистер	-11.3646
▁высши	-11.3646
▁болезням	-11.3646
▁монет	-11.3647
▁нано	-11.3647
▁звен	-11.3648
▁Трети	-11.3648
▁куриц	-11.3649
▁дыхани	-11.365
▁кніг	-11.365
▁оборон	-11.3651
▁африканц	-11.3652
▁боро	-11.3652
▁клип	-11.3653
▁буквальном	-11.3653
▁органически	-11.3653
▁пролета	-11.3654
▁англ	-11.3655
▁поверхност	-11.3656
нувши	-11.3657
▁трое	-11.3657
▁глин	-11.3657
▁доступна	-11.3658
▁наступил	-11.3659
▁фаз	-11.3661
▁громко	-11.3661
▁миг	-11.3662
▁серьёзная	-11.3665
джер	-11.3665
▁аутизм	-11.3667
▁приводят	-11.3669
▁щит	-11.367
▁Париже	-11.367
▁вино	-11.367
Ш	-11.3676
▁достать	-11.3678
▁лидерств	-11.3678
бель	-11.3679
▁процессор	-11.368
▁банд	-11.368
▁якую	-11.3681
▁музея	-11.3682
▁сорт	-11.3688
▁невидимо	-11.3689
▁тёмны	-11.369
▁устроил	-11.369
▁скрыва	-11.369
падает	-11.3691
▁Име	-11.3694
▁оставляет	-11.3694
▁Пал	-11.3696
▁проделал	-11.3698
▁тяжёло	-11.3698
▁давай	-11.3698
▁поиски	-11.3704
▁объёма	-11.3704
ездить	-11.3707
▁требования	-11.3707
▁Пит	-11.3708
▁заявля	-11.3709
▁левы	-11.3709
гл	-11.371
▁характеристики	-11.3711
▁Цель	-11.3712
▁стекло	-11.3712
▁растущи	-11.3713
▁ведет	-11.3715
▁неравенства	-11.3716
▁вопросам	-11.3719
сво	-11.3719
▁маг	-11.372
▁достойны	-11.3721
▁встрече	-11.3724
▁черно	-11.3725
▁зеркало	-11.3727
▁ужасн	-11.3733
▁судебны	-11.3734
▁чудесно	-11.3741
▁адчува	-11.3746
▁сос	-11.3746
ышел	-11.3747
▁глава	-11.3748
▁Лор	-11.3748
▁радикальны	-11.3748
▁экстр	-11.3748
зовём	-11.3749
▁сканировани	-11.375
▁договор	-11.375
▁проигрыва	-11.3751
▁Re	-11.3752
▁ду	-11.3753
коль	-11.3756
▁звер	-11.3756
▁круга	-11.3761
▁воск	-11.3764
▁посвящённ	-11.3764
▁заряд	-11.3765
▁передают	-11.3766
▁пил	-11.3768
▁снимков	-11.3768
▁третьем	-11.3771
▁Ch	-11.3773
▁гол	-11.3775
▁принятие	-11.3776
станем	-11.3783
▁требовал	-11.3788
▁исп	-11.3788
добав	-11.3789
▁полна	-11.3793
▁органа	-11.3795
sh	-11.3796
▁рабочи	-11.3796
▁объясн	-11.3796
▁производств	-11.3797
▁банки	-11.3799
▁характера	-11.3801
▁умирал	-11.3803
▁приговор	-11.3804
▁перенес	-11.3805
▁пояс	-11.3806
▁Президент	-11.3806
▁внедря	-11.3806
▁воспитыва	-11.3806
▁попробовал	-11.3806
▁продукци	-11.3806
▁пузырь	-11.3806
▁реализовать	-11.3806
▁сооружени	-11.3806
▁внедрени	-11.3806
▁прогулк	-11.3806
▁хроническ	-11.3806
▁дапамаг	-11.3806
▁пересечени	-11.3806
утверждать	-11.3806
▁ловушк	-11.3807
▁азот	-11.3807
▁скоплени	-11.3807
▁предвиде	-11.3807
▁настаива	-11.3807
▁президента	-11.3808
▁молекулярны	-11.3808
▁стремительно	-11.3809
гни	-11.3809
▁проявления	-11.3811
▁заработ	-11.3811
▁несёт	-11.3812
▁забрал	-11.3815
▁спусти	-11.3815
слеп	-11.3817
▁воспринимаем	-11.3819
▁знамениты	-11.3819
▁ближайше	-11.382
▁оценива	-11.3826
▁замет	-11.383
▁спал	-11.383
▁человеческим	-11.3831
делить	-11.3835
значения	-11.3841
половин	-11.3841
Times	-11.3844
▁Скотт	-11.3846
▁повернуть	-11.3847
▁объектив	-11.3847
▁многочисленны	-11.385
▁Ваша	-11.3852
▁принес	-11.3852
▁последн	-11.3856
▁Золото	-11.3858
▁привлечени	-11.3858
▁Кит	-11.386
▁предоставляет	-11.386
▁старик	-11.3862
▁убивает	-11.3863
▁нынешни	-11.3865
фин	-11.3865
▁Зрител	-11.3866
ёмся	-11.3866
▁выходны	-11.3869
▁несчастны	-11.3871
▁познакомить	-11.3871
▁препараты	-11.3871
стараться	-11.3873
▁установ	-11.3873
▁депрессия	-11.3873
▁подключить	-11.3874
▁Парк	-11.3874
▁Обратит	-11.3875
▁плав	-11.3876
вшем	-11.3878
писания	-11.3882
▁грязн	-11.3882
▁доступным	-11.3886
▁технологиям	-11.3892
▁пожертвовани	-11.3896
▁кухне	-11.3896
▁пробк	-11.3898
id	-11.3902
▁ключево	-11.3903
▁освещени	-11.3903
▁повыси	-11.3907
▁противник	-11.3913
▁самолёта	-11.3914
▁Хорош	-11.3916
▁страст	-11.3917
цыі	-11.3922
▁увлек	-11.3924
іна	-11.3932
▁схожи	-11.3937
▁Wi	-11.394
▁совместны	-11.3942
правляю	-11.3946
▁жажд	-11.3947
▁чай	-11.3951
▁времен	-11.3953
▁сказа	-11.3953
сам	-11.3954
тревож	-11.3957
▁Рей	-11.3957
▁младен	-11.396
▁твоё	-11.3961
▁изобретател	-11.3962
Сити	-11.3962
сегда	-11.3963
▁значени	-11.3965
▁жёлты	-11.397
▁менеджер	-11.397
▁окситоцин	-11.397
▁Фрэнк	-11.397
▁аккумулятор	-11.397
▁подчеркну	-11.397
▁путешествовать	-11.397
▁реабилитаци	-11.397
▁шизофрени	-11.397
▁зрелищ	-11.397
▁искренне	-11.397
▁этническ	-11.397
▁момант	-11.397
▁модифицирова	-11.397
▁тунца	-11.397
▁слез	-11.3971
▁инвестирован	-11.3971
▁поговорил	-11.3971
▁свидани	-11.3971
▁190	-11.3972
▁Свет	-11.3972
оплеск	-11.3973
▁взглянул	-11.3974
▁отда	-11.3975
▁участк	-11.3975
▁Добро	-11.3977
▁обрабатыва	-11.3977
жённ	-11.3978
▁описание	-11.3979
▁иду	-11.3979
▁разработчик	-11.398
-2	-11.3983
▁отдыха	-11.3983
▁теряем	-11.3986
▁сделк	-11.3989
тент	-11.399
▁Фар	-11.399
▁лома	-11.3992
▁42	-11.3992
▁песен	-11.3994
▁Тон	-11.3997
▁берега	-11.3997
▁старт	-11.3998
▁концепция	-11.3999
▁вероятности	-11.4
▁километра	-11.4003
▁1990-	-11.4006
F	-11.4006
▁Давид	-11.4008
▁белок	-11.4008
▁восстанови	-11.4008
▁освобождени	-11.4009
▁Внутри	-11.4009
▁следуют	-11.401
эд	-11.401
рабатывают	-11.4012
▁Сахары	-11.4012
▁Коран	-11.4012
▁павінны	-11.4017
глы	-11.402
▁дрон	-11.4023
▁сырь	-11.4024
▁контекст	-11.4025
▁обитаю	-11.4026
▁окончания	-11.4027
▁имеющие	-11.4028
▁Сп	-11.4031
▁страница	-11.4032
▁миссия	-11.4037
▁невероятным	-11.404
▁повернул	-11.4046
▁появ	-11.4046
▁кухн	-11.4048
▁Le	-11.4048
▁мощь	-11.4048
▁выполняет	-11.405
▁братья	-11.4057
▁значимо	-11.4057
▁едины	-11.406
▁связанно	-11.4064
▁размышлял	-11.4064
▁55	-11.4065
▁молодёж	-11.4068
▁ужасающ	-11.407
▁обращени	-11.4071
▁Мен	-11.4072
os	-11.4073
йших	-11.4076
▁посети	-11.4078
▁статистика	-11.4082
▁создавали	-11.4084
▁включил	-11.4084
▁Джин	-11.4087
▁доходит	-11.409
делать	-11.4094
нак	-11.4095
▁аналогичн	-11.41
org	-11.41
▁Правил	-11.4101
▁кость	-11.4102
▁существующе	-11.4104
▁обслуживани	-11.4105
▁зрительны	-11.4106
▁определённ	-11.4107
▁изображени	-11.4107
▁сэр	-11.4112
едим	-11.4112
▁разрабатывать	-11.4112
держал	-11.4122
▁обнаружит	-11.4122
▁мировом	-11.4123
йдем	-11.4124
▁искр	-11.4126
▁исходны	-11.4129
нил	-11.413
▁исчез	-11.4132
▁тенденции	-11.4132
▁открывать	-11.4133
мигрант	-11.4133
▁упаков	-11.4136
лежащ	-11.4137
▁Кембридж	-11.4137
▁захотите	-11.4137
▁иерархи	-11.4137
▁инстинкт	-11.4137
▁интуитивно	-11.4137
▁ложь	-11.4137
▁мгновение	-11.4137
▁возникновени	-11.4137
▁молитв	-11.4137
▁артери	-11.4137
▁моделировани	-11.4137
▁прошедши	-11.4137
▁провинци	-11.4137
▁забуду	-11.4138
▁помещени	-11.4138
▁читател	-11.4138
▁звучат	-11.4138
▁нацелен	-11.4138
▁гэту	-11.4139
▁сексуальны	-11.414
▁посадк	-11.414
▁действи	-11.4142
изован	-11.4143
▁Чили	-11.4144
▁близких	-11.4145
▁потребова	-11.4147
▁март	-11.4147
▁добави	-11.4148
▁открыла	-11.4148
▁пятниц	-11.4149
▁опуска	-11.4155
▁предполагаю	-11.4156
▁удивительным	-11.4165
▁такси	-11.4166
▁шансов	-11.4171
▁сталкиваютс	-11.4176
▁стадион	-11.4178
▁исполня	-11.4179
▁забавны	-11.4179
▁страхов	-11.418
▁конфиденциально	-11.4188
всюду	-11.4192
▁трущоб	-11.4195
▁строго	-11.4196
▁переговоров	-11.4197
▁слоя	-11.4197
▁альбом	-11.4197
▁паник	-11.4204
▁белого	-11.4204
лед	-11.4204
▁недостато	-11.4209
братьев	-11.4213
ставлять	-11.4213
▁врачам	-11.4213
▁водо	-11.4213
▁груд	-11.4213
▁слушател	-11.4215
развит	-11.4217
▁опор	-11.4218
▁совершенств	-11.4223
▁заражени	-11.4224
▁выявля	-11.4226
▁обману	-11.4227
▁успешным	-11.4231
▁светом	-11.4238
▁Ваше	-11.4245
▁окончани	-11.4248
сим	-11.4249
▁предпоч	-11.4254
аві	-11.4258
▁основанны	-11.4261
▁направлениях	-11.4262
▁продавал	-11.4263
▁колледжа	-11.4263
ходишь	-11.4267
▁лег	-11.4272
станет	-11.4272
▁жидкост	-11.4273
▁улучшение	-11.4274
▁одежды	-11.4276
серьёз	-11.4276
казаться	-11.4276
нял	-11.4279
▁отвлека	-11.428
безопас	-11.4281
▁разу	-11.4281
▁артист	-11.4281
▁принципа	-11.4282
▁a	-11.4283
▁рисун	-11.4284
▁спинно	-11.4286
▁сохрани	-11.4287
▁племени	-11.4287
▁уменьшает	-11.4292
▁Теб	-11.4292
▁сумасшедш	-11.4292
▁Задумай	-11.4295
▁Таков	-11.4297
нцев	-11.4297
▁арест	-11.43
ne	-11.4301
▁сказав	-11.4304
▁задействова	-11.4306
‐	-11.4306
▁Невозможно	-11.4306
▁бесконечны	-11.4306
▁максимум	-11.4306
▁Нельсон	-11.4306
▁беспорядк	-11.4306
▁вырубк	-11.4306
▁необычайно	-11.4306
▁употребля	-11.4306
▁эксплуатаци	-11.4306
▁парашют	-11.4306
▁чёрт	-11.4306
▁тренер	-11.4306
▁Иисус	-11.4307
▁шляп	-11.4307
▁барабан	-11.4307
▁рубашк	-11.4307
▁насекомо	-11.4307
▁кожны	-11.4307
▁бетон	-11.4307
▁Хотит	-11.4307
▁поистин	-11.4307
▁вариаци	-11.4307
▁наставник	-11.4307
▁социолог	-11.4308
▁дзень	-11.4308
▁дороже	-11.4308
▁полагать	-11.4308
▁Джефф	-11.4308
▁треугольник	-11.4308
▁голас	-11.4309
▁попрош	-11.4309
▁Настоящ	-11.4309
▁страдал	-11.4312
▁разместить	-11.4312
▁зелен	-11.4312
▁одиноки	-11.4313
▁бабушк	-11.4316
▁находили	-11.4318
▁родителям	-11.4318
▁справляться	-11.4319
атомов	-11.432
▁своеобразн	-11.4321
▁эффективне	-11.4323
▁Дальше	-11.4323
даются	-11.4324
▁напомнил	-11.4326
мана	-11.4327
сол	-11.4328
▁экспериментальн	-11.433
▁платя	-11.4332
телями	-11.4335
▁поддерживал	-11.4335
▁Тре	-11.4335
▁Уолл	-11.4336
нимает	-11.4337
▁медсестр	-11.4337
▁согласились	-11.4338
▁принадлежност	-11.4338
▁Тихо	-11.4339
▁лидером	-11.434
▁выделяет	-11.4343
▁Вось	-11.4346
▁глобальным	-11.4347
дир	-11.435
▁четверт	-11.4352
шоу	-11.4355
волю	-11.4355
▁осталась	-11.4356
▁метафора	-11.4356
▁критически	-11.436
полне	-11.436
▁свежи	-11.4361
▁образа	-11.4361
▁препятствия	-11.4363
▁вселенн	-11.4366
▁пул	-11.4366
▁шир	-11.4369
▁текущи	-11.4371
▁эффекта	-11.4372
▁захотели	-11.4374
часов	-11.4374
чинить	-11.4375
▁холодн	-11.4375
▁заставля	-11.4377
▁поступает	-11.4378
емлёй	-11.4378
▁мощност	-11.438
▁пригласи	-11.4383
▁тры	-11.4384
▁бож	-11.4392
▁данн	-11.4394
▁взаимодейству	-11.4399
▁брали	-11.4399
▁захватывающи	-11.4399
▁читает	-11.4402
▁скор	-11.4404
▁Север	-11.4407
▁свят	-11.441
▁сцена	-11.4411
▁предмета	-11.4411
живают	-11.4412
▁квантов	-11.4412
пользуемся	-11.4414
▁рискова	-11.4415
пати	-11.4416
▁идущи	-11.4417
▁обстоятельствах	-11.4417
In	-11.4419
▁Центрально	-11.4419
▁носител	-11.442
▁плотность	-11.4426
▁12-	-11.443
▁соединя	-11.4438
▁Египте	-11.4438
▁сосредоточить	-11.4439
▁фонда	-11.444
▁объединили	-11.4441
▁суп	-11.4443
▁ракеты	-11.4446
▁пола	-11.4446
▁шума	-11.4448
▁суб	-11.445
образован	-11.445
▁воспринимают	-11.4451
▁организован	-11.4454
▁извлека	-11.4455
▁цикла	-11.4456
▁потока	-11.446
▁гром	-11.4461
▁участвую	-11.4462
▁захватывающе	-11.4462
▁моделью	-11.4463
▁привязан	-11.4466
▁отобра	-11.4466
▁трудне	-11.4474
▁младш	-11.4477
▁Лес	-11.4478
▁август	-11.4479
▁инсталляци	-11.4479
▁млрд	-11.4479
▁официально	-11.4479
▁фосфор	-11.4479
▁церковь	-11.4479
▁Поднимите	-11.4479
▁мотоцикл	-11.4479
▁совпадени	-11.4479
▁рычаг	-11.4479
▁авторитет	-11.4479
▁отметил	-11.4479
▁цензур	-11.4479
▁разместил	-11.4479
▁сказк	-11.4479
влёк	-11.4479
▁чувствительны	-11.4479
імі	-11.4479
▁допустим	-11.4479
▁персональны	-11.448
▁марш	-11.448
▁минус	-11.448
▁европейски	-11.448
▁заслуживаю	-11.4481
▁осадк	-11.4481
▁черн	-11.4482
▁убит	-11.4484
▁интереснее	-11.4484
▁мужа	-11.4485
▁экспорт	-11.4486
▁отражение	-11.4486
▁предков	-11.4487
▁Организаци	-11.4489
▁существенны	-11.449
▁мисси	-11.4492
▁разрушить	-11.4494
истом	-11.4494
цепи	-11.4497
▁воп	-11.4498
прям	-11.4498
▁перенести	-11.45
,7	-11.4501
▁бога	-11.4502
▁задавали	-11.4502
▁яблок	-11.4503
▁сценарий	-11.4504
▁Главны	-11.4508
▁мёртвы	-11.4508
▁залива	-11.4511
▁считала	-11.4512
▁девушки	-11.4512
▁бедно	-11.4513
▁развито	-11.4515
▁воспринимает	-11.4517
чиков	-11.452
▁произноси	-11.4522
▁моментом	-11.4523
клеточн	-11.4523
▁выполняют	-11.4524
▁приложени	-11.4524
▁комаров	-11.4526
▁слома	-11.4526
▁неверны	-11.4528
▁втором	-11.4528
▁распоряжении	-11.4529
▁пусто	-11.4533
шат	-11.4536
▁зла	-11.4542
бот	-11.4543
▁месяце	-11.4544
▁инфицирован	-11.4545
▁кораллов	-11.4545
▁Италии	-11.4546
▁свидетельство	-11.4547
▁положительно	-11.4549
▁услови	-11.4551
▁участникам	-11.4552
▁расходов	-11.4553
льное	-11.4553
слан	-11.4556
пить	-11.4559
тас	-11.4563
▁сочетание	-11.4563
▁плотно	-11.4565
▁колонн	-11.4566
▁писали	-11.4567
послед	-11.4568
▁Какая	-11.4569
▁интересов	-11.457
▁коллективны	-11.4571
▁Национальны	-11.4576
▁посчита	-11.4576
▁полным	-11.4579
▁тверд	-11.4582
▁неустойчив	-11.4582
▁Род	-11.4582
▁ехать	-11.4588
▁женщине	-11.459
▁встроен	-11.4597
▁Стран	-11.4598
▁аппарата	-11.4598
▁подразумевает	-11.4601
▁сочувстви	-11.4602
▁хватит	-11.4605
▁Единственно	-11.461
▁обход	-11.4614
▁двигател	-11.4615
▁передо	-11.4617
▁ожидани	-11.4618
▁герои	-11.4618
▁пассажир	-11.4619
оход	-11.462
▁препод	-11.4621
▁достойно	-11.4622
▁упор	-11.4624
бытия	-11.4626
▁инженери	-11.4628
▁пика	-11.4629
▁взлома	-11.4632
чник	-11.4634
▁продажи	-11.4637
▁отправляют	-11.4637
▁негативны	-11.4638
▁наблюдени	-11.4639
▁Востоке	-11.4641
▁сцен	-11.4641
▁принимал	-11.4642
▁собираете	-11.4648
▁учёным	-11.4648
▁установил	-11.4651
▁промышленность	-11.4652
▁загадк	-11.4653
▁исследовали	-11.4653
▁Amazon	-11.4654
▁девушек	-11.4654
▁долгосрочны	-11.4654
▁кристалл	-11.4654
▁продовольстви	-11.4654
▁тормоз	-11.4654
▁убеждён	-11.4654
▁враждебн	-11.4654
▁дилемм	-11.4654
▁корабле	-11.4654
▁оптимальн	-11.4654
▁утверждал	-11.4654
▁новшеств	-11.4654
▁Джейн	-11.4654
▁лагере	-11.4654
▁матерей	-11.4654
▁верхушк	-11.4655
▁привлекает	-11.4655
▁агрессивны	-11.4656
▁направляет	-11.4656
син	-11.4656
▁кожна	-11.4656
▁сохранения	-11.4659
▁поставщик	-11.466
▁самоубийств	-11.466
▁мягко	-11.4662
▁миссии	-11.4663
▁Алекс	-11.4668
▁Ближнем	-11.4669
▁запомина	-11.467
▁законам	-11.4671
▁мин	-11.4672
▁правильн	-11.4673
жка	-11.4676
▁Мандел	-11.4676
▁мудрост	-11.4679
▁признал	-11.4679
▁смесь	-11.4683
▁1950-	-11.4684
▁преступление	-11.4686
▁нервно	-11.4689
▁закат	-11.4698
▁Стал	-11.4699
▁динозавра	-11.4701
▁поступают	-11.4701
прыклад	-11.4702
▁жидк	-11.4704
▁Гл	-11.4709
▁запуск	-11.4711
▁присутстви	-11.4714
▁зрителе	-11.4714
люс	-11.4716
▁Гал	-11.4718
▁крах	-11.4719
▁странные	-11.472
▁повысить	-11.4723
▁разрыва	-11.4727
RB	-11.4727
ke	-11.4733
▁соединение	-11.4733
▁студентами	-11.4734
▁рожда	-11.4739
▁кровеносны	-11.474
▁кара	-11.474
▁танцу	-11.4741
▁стимулирова	-11.4743
стическ	-11.4747
лаг	-11.4747
▁техника	-11.4747
▁строительств	-11.4749
щает	-11.4751
▁деятел	-11.4754
ийся	-11.4756
▁прицел	-11.4757
▁общени	-11.4758
▁математическо	-11.4758
▁президентом	-11.4759
▁пальца	-11.4763
▁распространять	-11.4765
▁доступными	-11.4766
▁четыр	-11.4767
▁фе	-11.4768
▁блоки	-11.477
▁основанно	-11.4773
▁толка	-11.4774
тари	-11.4775
▁справедливость	-11.4776
▁нынешне	-11.4778
▁марк	-11.478
▁характерны	-11.478
▁разочарован	-11.4783
▁близ	-11.4785
▁смело	-11.4791
▁умно	-11.4794
▁уничтож	-11.4795
▁Цел	-11.4796
▁чудеса	-11.4798
зел	-11.4799
▁заболе	-11.4799
▁практику	-11.4803
▁Главно	-11.4803
▁древ	-11.4804
▁вина	-11.4805
гнуть	-11.4806
▁чалавек	-11.4812
садить	-11.4816
▁чужи	-11.482
стрит	-11.4821
▁анатоми	-11.4824
▁прожил	-11.4825
▁давлением	-11.4827
▁Германи	-11.4831
▁подходяще	-11.4831
▁запустил	-11.4832
мешает	-11.4833
▁1998	-11.4833
▁Зеланди	-11.4833
▁Уильям	-11.4833
▁детектор	-11.4833
▁защищен	-11.4833
▁интерпретаци	-11.4833
▁лошадь	-11.4833
▁пчол	-11.4833
▁режиссёр	-11.4833
▁свадьб	-11.4833
▁сконцентрирова	-11.4833
▁хозяин	-11.4833
▁Life	-11.4833
▁Правильно	-11.4833
▁тренировк	-11.4833
▁пугает	-11.4833
▁подчиня	-11.4833
▁отрасли	-11.4833
▁запрещен	-11.4833
▁полагаем	-11.4833
▁элементарны	-11.4833
▁ухажива	-11.4834
▁исключения	-11.4834
▁колония	-11.4834
▁тупик	-11.4835
▁съед	-11.4836
▁показывали	-11.4836
▁специфическ	-11.4838
▁необходимым	-11.4839
▁китайц	-11.484
▁содержал	-11.4841
▁ничем	-11.4842
сани	-11.4842
▁готовил	-11.4843
▁реагирую	-11.4844
▁исследуем	-11.4844
▁разработ	-11.4844
▁Израиль	-11.4845
▁лап	-11.4845
▁горяче	-11.4845
▁послал	-11.4847
▁резин	-11.4848
▁владел	-11.4851
▁уязвимы	-11.4853
▁древн	-11.4854
▁наруша	-11.4854
▁избавля	-11.4854
▁индийск	-11.4855
▁манер	-11.4855
▁бывал	-11.4856
▁провед	-11.4856
▁Тэ	-11.4857
▁поверь	-11.4862
тащить	-11.4863
▁политическим	-11.4864
▁отказ	-11.4866
▁вакцина	-11.4866
▁союзник	-11.4866
▁семейно	-11.4866
▁спутника	-11.4867
семян	-11.4868
▁призыва	-11.4869
▁палат	-11.4871
▁взлет	-11.4872
сажива	-11.4877
▁ведаю	-11.4879
енность	-11.488
▁огня	-11.4882
ation	-11.4883
▁исчезаю	-11.4886
▁пача	-11.4888
▁захват	-11.4889
▁повышает	-11.4889
▁расстройство	-11.4894
▁гражданам	-11.4896
водим	-11.4899
▁СС	-11.4906
▁величайши	-11.4907
▁шут	-11.4911
▁переходит	-11.4914
▁внук	-11.4915
▁испытыва	-11.4915
▁фр	-11.4915
▁денежны	-11.492
▁уменьши	-11.492
and	-11.4924
едаеце	-11.4927
своем	-11.4928
▁соответствую	-11.4934
▁могил	-11.4935
▁дружб	-11.4942
▁3-	-11.4942
▁Вид	-11.4943
▁французск	-11.4947
▁измерять	-11.4948
▁поменял	-11.495
▁ненавист	-11.495
▁вмешательства	-11.4953
ніка	-11.4955
▁землетрясени	-11.4957
▁натур	-11.4958
▁кислот	-11.4959
ванне	-11.496
▁Сол	-11.496
▁выступлений	-11.496
ha	-11.4964
▁объясня	-11.4966
▁гре	-11.4966
хотят	-11.4966
▁194	-11.4966
▁обменива	-11.4969
▁сбора	-11.4972
▁чита	-11.4972
▁городом	-11.4975
▁уменьшени	-11.4977
ходили	-11.4977
▁цитата	-11.4979
▁подруг	-11.4979
▁поступки	-11.4981
идим	-11.4981
▁Прошло	-11.4981
▁бара	-11.4983
▁анимаци	-11.4987
копать	-11.4989
▁начались	-11.4991
ждут	-11.4993
▁внутренн	-11.4995
▁лидера	-11.4995
▁Искусств	-11.4996
▁экс	-11.5002
▁ставил	-11.5002
▁разрушит	-11.5002
▁гарант	-11.5002
▁бейсбол	-11.5004
▁фраза	-11.5008
▁диплом	-11.5008
▁сахара	-11.5008
править	-11.501
▁дешев	-11.5013
▁жертву	-11.5014
▁Twitter	-11.5015
▁Индонези	-11.5015
▁Процесс	-11.5015
▁Юпитер	-11.5015
▁индивидуум	-11.5015
▁ориентаци	-11.5015
▁преобразовать	-11.5015
▁синтетическ	-11.5015
▁сознательно	-11.5015
▁сюрприз	-11.5015
▁энтропи	-11.5015
▁впечатления	-11.5015
▁клиническо	-11.5015
▁решётк	-11.5015
▁загружа	-11.5015
▁ученые	-11.5015
▁шлях	-11.5015
▁возьме	-11.5015
▁писателе	-11.5015
▁покончи	-11.5015
▁задействован	-11.5016
▁осторожны	-11.5016
▁танца	-11.5016
▁локально	-11.5016
▁историческо	-11.5016
▁углом	-11.5016
▁стандартны	-11.5017
▁беспилотник	-11.5017
▁тихо	-11.5017
▁всемирно	-11.5017
▁проявля	-11.5017
▁Программ	-11.5017
▁моделя	-11.5017
▁совершают	-11.5018
▁подробности	-11.502
▁2002	-11.5021
▁методом	-11.5024
▁Рик	-11.5024
▁Зал	-11.5024
▁значительн	-11.5025
▁кат	-11.5026
▁молекулярно	-11.5026
▁наглядно	-11.5026
▁заставит	-11.5028
▁ступен	-11.5031
▁молоко	-11.5034
▁кадров	-11.5035
▁достигнуть	-11.5035
ленд	-11.5036
▁воспита	-11.5037
▁испытывают	-11.5037
▁счастливо	-11.5038
▁плит	-11.5039
▁больны	-11.5043
▁сумел	-11.5044
▁реш	-11.5046
▁маё	-11.5046
▁выступаю	-11.5048
пытался	-11.5049
▁сайта	-11.5049
▁снят	-11.5052
▁показыва	-11.5053
▁современным	-11.5055
▁Игра	-11.5056
▁выступлени	-11.5056
▁ощущает	-11.5058
▁негативно	-11.5059
▁службу	-11.5059
▁материально	-11.5063
▁приносят	-11.5068
▁ветв	-11.5069
можешь	-11.5071
▁воспринима	-11.5071
▁испытывал	-11.5078
▁могущественн	-11.5081
▁кибер	-11.5082
▁свеже	-11.5083
▁умрёт	-11.5085
▁партнёра	-11.5086
кур	-11.5087
▁склада	-11.5089
▁ОК	-11.5095
▁Мин	-11.5095
▁гуманитарны	-11.5098
▁эго	-11.5101
▁верхни	-11.5106
▁наркотикам	-11.5107
▁черепах	-11.5107
▁похожим	-11.5107
▁Пожалуй	-11.5108
▁примитивны	-11.511
▁страдающи	-11.5112
▁собственность	-11.5112
жаль	-11.5118
▁устанавлива	-11.5119
▁типично	-11.5119
▁печал	-11.5122
▁Всем	-11.5122
▁июл	-11.5125
дадут	-11.5125
▁спине	-11.5126
форд	-11.5129
▁увеличит	-11.5132
▁Джер	-11.5133
▁властью	-11.5137
▁открытость	-11.5143
▁познакомил	-11.5144
даль	-11.5144
▁поражает	-11.5145
рка	-11.5146
▁влиятельны	-11.5151
▁Велики	-11.5152
изирован	-11.5152
▁закрыл	-11.5154
считать	-11.5154
▁цивилизация	-11.5154
▁оплат	-11.5155
▁пел	-11.5156
▁удивление	-11.5157
▁зл	-11.5159
▁пингвин	-11.5165
▁успел	-11.5168
▁спроектировал	-11.5169
▁Солнечн	-11.517
кладываем	-11.5171
▁нейро	-11.5172
▁психо	-11.5173
▁почте	-11.5174
казан	-11.5174
згляните	-11.5179
▁дамы	-11.5181
▁терроризма	-11.5185
▁изгиб	-11.5189
▁облак	-11.5189
▁знакомств	-11.5191
▁комфорт	-11.5192
▁кампания	-11.5192
▁формировать	-11.5195
▁оригинал	-11.5196
▁агресси	-11.5198
▁Невероятно	-11.52
▁Паркинсон	-11.52
▁Филипп	-11.52
▁ассоциаци	-11.52
▁вертолёт	-11.52
▁грандиозн	-11.52
▁размножени	-11.52
▁священник	-11.52
▁симуляци	-11.52
▁сформировать	-11.52
▁танцор	-11.52
▁фестивал	-11.52
▁поздне	-11.52
▁боевик	-11.52
▁поиграть	-11.52
▁ложны	-11.52
▁немнож	-11.52
▁вибраци	-11.52
▁Пекин	-11.52
▁МРТ	-11.52
▁проделыва	-11.52
▁Сомали	-11.52
▁идиот	-11.52
▁пирог	-11.52
▁антрополог	-11.5201
▁географи	-11.5201
▁ноябр	-11.5201
▁загрязнения	-11.5201
▁богаче	-11.5201
▁произнес	-11.5201
▁Грин	-11.5201
▁наполни	-11.5202
▁атомно	-11.5202
▁услышан	-11.5202
▁поверил	-11.5202
▁привлекательно	-11.5203
хотеть	-11.5203
▁предполага	-11.5204
▁спектра	-11.5204
▁загрязнение	-11.5205
▁посетител	-11.5206
000	-11.5207
▁кружк	-11.5207
▁очевидным	-11.5208
▁японск	-11.521
▁маме	-11.5211
▁рациональны	-11.5212
▁признание	-11.5213
▁любопытство	-11.5213
▁предполагаем	-11.5214
▁Джонсон	-11.5214
▁ели	-11.5215
▁пробовал	-11.5216
▁действии	-11.5217
▁еврейск	-11.5218
▁поместил	-11.5218
▁пробел	-11.5219
▁последнем	-11.5221
▁платил	-11.5221
▁применяем	-11.5222
▁масло	-11.5223
▁проверя	-11.5226
▁кончик	-11.5226
▁гон	-11.5226
▁ширин	-11.5227
▁выделен	-11.5228
▁гибко	-11.5232
▁поддержива	-11.5233
ставлю	-11.5234
ig	-11.5235
▁принадлежат	-11.5239
▁вынік	-11.5241
▁спальн	-11.5243
летня	-11.5243
▁19-	-11.5244
дающие	-11.5245
▁преступлени	-11.5246
▁оценка	-11.5248
▁задни	-11.5251
▁обеда	-11.5255
▁заключени	-11.5255
Каид	-11.5256
▁отказал	-11.5256
американск	-11.5256
▁двигает	-11.5257
16	-11.5258
гнать	-11.5259
▁конференция	-11.5259
английски	-11.5259
▁серы	-11.5262
онов	-11.5265
▁мини	-11.5265
▁навыкам	-11.5268
▁создаю	-11.5269
▁конференци	-11.527
▁выделя	-11.5273
▁дельфин	-11.5275
стаёт	-11.5276
▁послушать	-11.5279
▁Помн	-11.5282
▁сотовы	-11.5287
▁комбинаци	-11.5289
▁популярны	-11.5289
▁упражнения	-11.5291
ia	-11.5292
▁слои	-11.5292
▁гнезд	-11.5292
▁АК	-11.5294
▁Следующе	-11.5294
▁рождает	-11.5296
▁порази	-11.5296
▁напомина	-11.5298
▁фирмы	-11.5298
▁царств	-11.5299
▁Мас	-11.5299
▁величайших	-11.53
▁сохранять	-11.5302
▁отслеживать	-11.5303
▁31	-11.5303
▁Джонс	-11.5305
▁ровно	-11.5307
▁преступност	-11.5308
▁продвину	-11.5308
▁мертв	-11.531
резать	-11.5311
▁тенденци	-11.5314
80	-11.5316
замен	-11.5319
▁знаниями	-11.532
ванн	-11.5325
ложение	-11.5325
▁присутствие	-11.5325
▁стресса	-11.5325
▁вдох	-11.5326
▁национальн	-11.5326
ent	-11.5331
▁Тур	-11.5331
верси	-11.5332
▁директора	-11.5333
▁душа	-11.5333
▁природно	-11.5334
▁исчезнут	-11.5335
слыша	-11.5335
▁абстрактны	-11.5336
спать	-11.5338
▁говорящи	-11.5341
▁троп	-11.5342
порт	-11.5343
▁Дарвина	-11.5344
▁вычисли	-11.5347
▁ценно	-11.5351
▁блестящи	-11.5353
▁потряс	-11.5354
▁выживание	-11.5355
▁учителям	-11.5356
▁изучает	-11.5363
▁Бор	-11.5363
▁двадцат	-11.5367
крытие	-11.5371
▁привет	-11.5376
▁исчезли	-11.5378
▁соединяет	-11.5382
жав	-11.5385
▁чудовищ	-11.5389
▁Антарктик	-11.5389
▁Государств	-11.5389
▁Понятно	-11.5389
▁дзяце	-11.5389
▁необязательно	-11.5389
▁сопротивление	-11.5389
▁углекислы	-11.5389
▁Эндрю	-11.5389
▁отмечен	-11.5389
▁впоследстви	-11.5389
▁кишечник	-11.5389
▁воспроизвести	-11.5389
▁устаревш	-11.5389
▁Бруклин	-11.5389
▁обитател	-11.5389
▁контент	-11.5389
▁печени	-11.5389
▁переполнен	-11.5389
▁печально	-11.539
▁рубеж	-11.539
▁записан	-11.539
▁II	-11.539
▁разрушения	-11.5391
одно	-11.5392
▁2020	-11.5392
▁движут	-11.5393
ступать	-11.5393
▁улучша	-11.5395
▁духовны	-11.5397
▁величайш	-11.54
вне	-11.5402
▁якім	-11.5404
▁брата	-11.5405
▁Велико	-11.5407
▁выбираем	-11.5407
▁загадочн	-11.5408
▁рассматриваем	-11.5408
▁старым	-11.5412
▁распространяют	-11.5413
▁пить	-11.5415
▁варианта	-11.5418
▁игнорировать	-11.5419
▁образовательны	-11.542
▁кита	-11.5421
▁исчезновения	-11.5422
▁Джек	-11.5422
▁иск	-11.5424
▁слепот	-11.5426
▁задани	-11.5427
▁вон	-11.5428
▁вычислительн	-11.5429
▁аудитория	-11.5431
виз	-11.5432
▁камерой	-11.5432
▁уравнения	-11.5433
сыпа	-11.5435
▁связывает	-11.5437
▁працава	-11.5438
▁юридически	-11.5439
рма	-11.544
▁удержать	-11.544
▁Долж	-11.5442
раг	-11.5442
аваны	-11.5448
▁способствую	-11.5449
дневн	-11.5449
▁сектора	-11.545
▁проявляет	-11.545
бирают	-11.5452
▁парков	-11.5452
▁Иде	-11.5452
▁аспекта	-11.5454
▁наследи	-11.5454
крытия	-11.5456
▁сантиметров	-11.5458
▁Город	-11.5459
▁Предположи	-11.5461
▁бен	-11.5461
▁провода	-11.5461
▁металлическ	-11.5462
▁гражданин	-11.5464
▁телефонны	-11.5465
▁страшны	-11.5465
▁повторять	-11.5466
▁колес	-11.5467
▁проплы	-11.5469
▁городк	-11.5471
▁ощущени	-11.5472
▁мечту	-11.5474
▁возьми	-11.5474
▁веда	-11.5476
▁зрительно	-11.5477
▁принимали	-11.5482
▁океаны	-11.5483
▁белым	-11.5484
▁работало	-11.5485
▁хвата	-11.5486
▁слонов	-11.5486
▁создади	-11.5488
▁спроектирова	-11.5492
▁добира	-11.5493
▁Кому	-11.5494
▁Мура	-11.5495
▁намеренно	-11.5495
▁серьезн	-11.5496
▁to	-11.5503
▁пребывани	-11.5504
▁профессора	-11.5506
▁сильна	-11.5507
▁неудоб	-11.5509
▁мыслям	-11.5516
▁ор	-11.5517
код	-11.5517
▁платформу	-11.552
▁эксперты	-11.552
рочно	-11.5521
поминают	-11.5521
▁Форд	-11.5522
▁методик	-11.5522
▁волшебны	-11.5522
▁здоровым	-11.5523
▁возвращают	-11.5527
▁дно	-11.5529
▁учитывать	-11.5529
▁хит	-11.5533
▁милы	-11.5538
▁голубы	-11.5541
▁собирают	-11.5544
▁закрыты	-11.5547
▁сильн	-11.5547
▁защищает	-11.5548
▁тысячелетия	-11.5549
▁ожирение	-11.5549
текает	-11.5552
▁смешн	-11.5553
▁наверно	-11.5554
следствие	-11.5555
▁мощность	-11.5559
▁рисовани	-11.5562
▁излуча	-11.5562
▁шутка	-11.5565
▁отделение	-11.5565
▁христиан	-11.5567
▁объединен	-11.5573
пин	-11.5573
▁Супер	-11.5575
▁Гэ	-11.5577
▁общественн	-11.5578
▁Вьетнам	-11.5581
▁Ребён	-11.5581
▁Сингапур	-11.5581
▁Танзани	-11.5581
▁верблюд	-11.5581
▁головоломк	-11.5581
▁лихорадк	-11.5581
▁логотип	-11.5581
▁размаўля	-11.5581
▁1999	-11.5581
▁консультант	-11.5581
▁разворачива	-11.5581
▁таракан	-11.5581
▁чиновник	-11.5581
▁кардинальн	-11.5581
▁толщин	-11.5581
▁щедро	-11.5581
▁местоположени	-11.5581
▁плёнк	-11.5581
▁ошибочно	-11.5581
▁паралич	-11.5581
▁дождя	-11.5581
▁неловко	-11.5582
▁крепко	-11.5582
▁нулево	-11.5582
▁вовремя	-11.5582
▁вычислительны	-11.5583
▁нарисовал	-11.5583
▁нигде	-11.5583
▁живопис	-11.5583
▁2030	-11.5583
▁робіц	-11.5584
▁наибольше	-11.5584
▁Мозг	-11.5584
▁повышенн	-11.5585
▁аль	-11.5585
▁чья	-11.5586
▁материалом	-11.5586
▁гео	-11.5587
▁роботизированн	-11.5587
▁питьев	-11.5587
▁некотор	-11.5587
▁перерыв	-11.5589
▁стру	-11.5589
▁Тысяч	-11.5589
▁удивлен	-11.5592
▁лифт	-11.5597
▁руководителе	-11.5597
вшими	-11.5598
▁означа	-11.5601
▁проведё	-11.5603
▁порядк	-11.5607
▁груб	-11.5607
вязал	-11.5607
▁переключ	-11.5609
ологии	-11.561
▁почтов	-11.561
дается	-11.5611
▁мечет	-11.5611
▁снято	-11.5612
▁чрезмерно	-11.5615
▁полагал	-11.5618
▁кресла	-11.5619
▁оглядыва	-11.562
▁завтрак	-11.5621
▁окончательно	-11.5622
▁запутанн	-11.5623
▁рассматривал	-11.5625
учения	-11.5625
▁МТ	-11.5626
▁муч	-11.563
▁Бел	-11.5631
рести	-11.5633
▁Единственны	-11.5634
▁проведен	-11.5637
Леон	-11.564
дак	-11.564
родом	-11.5641
▁четверть	-11.5642
▁правильным	-11.5644
▁неба	-11.5645
30	-11.5646
▁база	-11.5646
▁беспокоил	-11.5649
▁помещения	-11.5649
▁стадия	-11.565
▁местном	-11.5653
▁указан	-11.5655
▁жыцця	-11.5655
▁удобны	-11.5657
▁беседу	-11.5659
▁металла	-11.566
▁попыт	-11.5661
▁внешн	-11.5662
▁подарил	-11.5662
▁закончен	-11.5664
▁коротк	-11.5664
▁записывать	-11.5668
▁владе	-11.5671
щиков	-11.5671
▁гума	-11.5672
▁продуктами	-11.5672
▁слуша	-11.5673
▁массовой	-11.5674
▁муравья	-11.5679
▁переходи	-11.568
▁Треть	-11.5685
▁непрост	-11.5687
▁дедушк	-11.5689
близи	-11.5689
▁учила	-11.5691
▁коммерческо	-11.5692
▁публичны	-11.5692
▁последовал	-11.5692
шит	-11.5692
▁предоставлять	-11.5692
▁сигналов	-11.5693
▁Кре	-11.5695
▁этапа	-11.5695
▁власт	-11.5696
▁чернил	-11.5697
▁Технологи	-11.5698
▁Элл	-11.5698
▁следу	-11.57
▁нарко	-11.5701
▁приняла	-11.5707
▁лоб	-11.5708
▁развлека	-11.5712
▁угла	-11.5713
▁900	-11.5714
▁193	-11.5717
▁классически	-11.5717
▁продолжит	-11.5718
▁концентраци	-11.5718
▁доли	-11.5719
▁усе	-11.5719
звуч	-11.572
▁Бур	-11.5721
▁танцева	-11.5722
▁карыста	-11.5723
▁заботит	-11.5724
▁фондов	-11.5725
ss	-11.5729
▁статистике	-11.573
▁Разниц	-11.573
▁судья	-11.573
▁препарат	-11.5731
▁коралловы	-11.5738
▁Фил	-11.5739
▁предлагают	-11.5739
▁случил	-11.5741
▁d	-11.5742
▁стату	-11.5743
92	-11.5745
▁мотив	-11.5745
▁воспроизв	-11.5747
▁броса	-11.5747
▁полюса	-11.5748
ключения	-11.5751
▁Мон	-11.5751
▁передела	-11.5753
▁подключен	-11.5755
ive	-11.5758
▁состояни	-11.576
▁евре	-11.5761
▁розны	-11.5761
▁пища	-11.5762
▁определя	-11.5762
▁продолжали	-11.5764
▁предпринима	-11.5767
сутствует	-11.5768
руба	-11.577
▁Канады	-11.577
▁аспирант	-11.5775
▁гибрид	-11.5777
▁потребляем	-11.5777
▁Аристотел	-11.5777
▁Силиконов	-11.5777
▁возьмёт	-11.5777
▁галлюцинаци	-11.5777
▁джунгл	-11.5777
▁озабочен	-11.5777
▁предвзято	-11.5777
▁транзистор	-11.5777
▁химиотерапи	-11.5777
▁цяжка	-11.5777
▁2014	-11.5777
▁симфони	-11.5777
▁композици	-11.5777
▁Цвет	-11.5777
▁глагол	-11.5777
▁бирж	-11.5777
▁распределя	-11.5777
▁Групп	-11.5777
▁Подобны	-11.5777
▁Девочк	-11.5777
▁генерал	-11.5777
▁диаре	-11.5777
▁многообрази	-11.5778
▁литров	-11.5778
▁банан	-11.5778
▁ускорени	-11.5778
▁проникает	-11.5778
▁увидев	-11.5778
▁сканер	-11.578
▁МВ	-11.5782
▁привод	-11.5782
▁рождаются	-11.5783
▁изменим	-11.5783
▁круглы	-11.5783
▁весит	-11.5785
піса	-11.5786
▁працяг	-11.5786
▁образовательн	-11.5787
▁кажа	-11.5788
pp	-11.5789
▁фотографировал	-11.579
▁насос	-11.579
▁недостатка	-11.5791
▁служил	-11.5791
▁фонар	-11.5791
▁брон	-11.5791
▁сур	-11.5794
▁Пришло	-11.5794
▁зелён	-11.5795
▁эру	-11.5797
▁тень	-11.5797
▁случалось	-11.5799
▁серия	-11.58
▁влияни	-11.58
▁выучил	-11.5805
▁Десят	-11.5806
▁Лондона	-11.5806
▁замечаем	-11.5807
▁выступил	-11.5807
▁успешн	-11.5808
▁пытаетесь	-11.5811
▁изоляци	-11.5812
▁героин	-11.5816
▁достоинство	-11.582
▁прилага	-11.582
▁Ясно	-11.582
▁глуп	-11.5823
▁перелом	-11.5824
▁вечера	-11.5824
▁предпринимател	-11.5825
▁испытывает	-11.5825
▁рассказы	-11.583
шку	-11.5831
▁построи	-11.5833
▁состояла	-11.5835
близости	-11.5836
▁окружающим	-11.5837
▁сломан	-11.584
▁снимаю	-11.5843
▁зда	-11.5845
▁ученики	-11.5846
▁Справ	-11.5846
дует	-11.5847
▁партнёров	-11.5847
▁террористов	-11.5848
▁испытывать	-11.5849
▁песк	-11.5849
▁Хотел	-11.585
▁закончит	-11.585
▁арт	-11.5852
ямі	-11.5853
▁свист	-11.5855
защит	-11.5856
дня	-11.5859
▁молодёжь	-11.5859
▁пыль	-11.5861
▁отпуска	-11.5863
▁урожа	-11.5867
стон	-11.5867
▁Маленьки	-11.5868
▁когнитивны	-11.5869
▁дыра	-11.5873
▁ориентирован	-11.5874
▁институтов	-11.5876
▁разделен	-11.5877
▁невозможным	-11.5882
▁границу	-11.5882
ование	-11.5882
▁бактерия	-11.5882
▁Рэй	-11.5883
живать	-11.5883
▁цепь	-11.5883
▁Израиле	-11.5885
▁прямом	-11.5889
▁идентичны	-11.5891
▁изучают	-11.5892
▁дешёво	-11.5895
▁жалова	-11.5898
▁остановили	-11.5901
▁тысячам	-11.5903
▁лестниц	-11.5905
▁Др	-11.5906
▁соревновани	-11.5907
▁предоставля	-11.591
▁помещение	-11.5911
▁шагов	-11.5915
▁Ск	-11.5921
▁анализиру	-11.5922
▁або	-11.5922
▁продолжение	-11.5923
▁37	-11.5926
▁интерактивны	-11.5927
▁проводя	-11.5928
▁разницы	-11.5929
▁возобновляем	-11.5935
▁взорва	-11.5936
▁преследу	-11.5937
▁трога	-11.5943
▁владени	-11.5945
▁Фри	-11.5945
▁чуж	-11.5952
▁футболк	-11.5953
▁Ази	-11.5954
скі	-11.5957
▁меньши	-11.596
▁наблюдают	-11.596
убийц	-11.596
▁теста	-11.5964
▁протеста	-11.5965
▁рок	-11.5969
▁трагедия	-11.5969
▁прекрати	-11.5973
▁мет	-11.5974
▁нейробиолог	-11.5975
▁тяжелы	-11.5975
▁фермерам	-11.5976
▁союз	-11.5976
▁2013	-11.5977
▁Клинтон	-11.5977
▁Компании	-11.5977
▁Человеческ	-11.5977
▁обдумыва	-11.5977
▁позаботи	-11.5977
▁посчастливи	-11.5977
▁цилиндр	-11.5977
▁бонобо	-11.5977
▁конфет	-11.5977
▁неандертальц	-11.5977
▁пандеми	-11.5977
▁привычно	-11.5977
▁Аудитори	-11.5977
▁консерватор	-11.5977
▁вырашы	-11.5977
▁миграци	-11.5977
▁пьес	-11.5977
▁умственны	-11.5977
▁Габб	-11.5977
▁оруди	-11.5977
,4	-11.5977
▁корзин	-11.5977
▁стрэс	-11.5977
▁продаже	-11.5977
▁оболочк	-11.5977
▁проникнуть	-11.5978
▁регулировани	-11.5978
▁пьян	-11.5978
▁незначительны	-11.5978
▁сокращения	-11.5978
▁Мистер	-11.5978
▁Гарри	-11.5979
чёл	-11.598
▁морали	-11.598
▁ошеломляющ	-11.5981
▁звонок	-11.5982
▁тигр	-11.5982
▁заключен	-11.5983
▁выбран	-11.5983
▁контролируем	-11.5985
▁слепых	-11.5985
ag	-11.5985
▁фар	-11.5986
▁парализован	-11.5987
▁засел	-11.5987
▁турист	-11.5987
▁тракт	-11.5988
▁убедил	-11.5988
▁суши	-11.5989
▁выключа	-11.599
▁гравитаци	-11.5992
▁чтени	-11.5993
▁закрыть	-11.5994
▁целым	-11.5996
▁изучен	-11.5997
▁стойк	-11.5999
▁Ого	-11.5999
▁бум	-11.6001
▁общим	-11.6003
казывают	-11.6004
▁корпоративн	-11.6006
▁жду	-11.6006
▁повышение	-11.6009
▁эмоциональн	-11.601
▁выбирает	-11.6011
▁отцов	-11.6012
▁пингвинов	-11.6015
▁калорий	-11.6015
▁подумает	-11.6018
▁определили	-11.6022
▁рассмотрени	-11.6024
▁желающи	-11.6025
▁разрушает	-11.6025
▁независимост	-11.6026
▁маму	-11.6027
▁беру	-11.6028
▁естественн	-11.6029
▁коренны	-11.6029
▁бросает	-11.6029
▁Эль	-11.6031
▁приближает	-11.6035
▁выбирают	-11.6037
▁прозрачность	-11.6039
▁воли	-11.6039
▁сохраня	-11.6044
▁встречается	-11.6046
▁левом	-11.6051
▁достал	-11.6054
▁серьёзн	-11.6056
▁Ран	-11.6057
74	-11.6057
техническ	-11.606
▁электрическо	-11.6063
▁предпочтения	-11.6065
излучени	-11.6065
выков	-11.6067
▁задали	-11.6068
▁брака	-11.6069
нув	-11.6069
▁рай	-11.6071
▁проверять	-11.6072
▁женск	-11.6073
▁призываю	-11.6073
▁стих	-11.6074
▁ступн	-11.6075
▁незнаком	-11.6076
▁грудь	-11.6078
ймите	-11.608
▁передачу	-11.6081
▁общественност	-11.6081
▁Часть	-11.6081
даётся	-11.6082
▁тюрьма	-11.6082
▁сочетани	-11.6082
маглі	-11.6082
▁химик	-11.6083
▁разработка	-11.6084
паў	-11.6089
▁Кро	-11.6089
▁адаптировать	-11.609
▁Кур	-11.61
▁известным	-11.6102
▁Куб	-11.6104
плыть	-11.6108
▁разгляде	-11.6109
▁препарата	-11.6111
▁постара	-11.6116
▁пошло	-11.6117
▁уличны	-11.6125
▁взглядом	-11.6128
▁стола	-11.6128
▁очища	-11.6129
▁волшебно	-11.6129
▁наверх	-11.6132
▁временны	-11.6135
окс	-11.6136
▁продолжала	-11.6138
нис	-11.6141
▁освещение	-11.6141
▁ограниченны	-11.6142
▁верхнем	-11.6143
▁тел	-11.6144
▁круж	-11.6153
▁яблоко	-11.6153
▁судьбы	-11.6153
▁Перу	-11.6154
▁первичн	-11.6154
▁дисциплин	-11.616
▁напр	-11.6163
▁заболеваниям	-11.6163
▁Ближн	-11.6164
▁врачу	-11.6164
дающий	-11.6164
▁арабски	-11.6165
▁очарован	-11.6165
▁услышала	-11.6166
▁совершал	-11.6169
▁фигуры	-11.6169
▁ядра	-11.617
▁350	-11.6174
▁обширн	-11.6176
▁здраво	-11.6178
▁возврат	-11.6181
▁выпущен	-11.6181
▁Аргентин	-11.6181
▁Лучши	-11.6181
▁гісторы	-11.6181
▁джихад	-11.6181
▁заслуживает	-11.6181
▁медикамент	-11.6181
▁Сиэтл	-11.6181
▁Эдвард	-11.6181
▁прислал	-11.6181
▁волокна	-11.6181
▁изобрё	-11.6181
▁подъем	-11.6181
▁ненулево	-11.6181
▁антенн	-11.6181
▁Природа	-11.6181
▁вмешива	-11.6181
▁резюм	-11.6181
▁мамонт	-11.6182
▁предпринимателя	-11.6182
▁Артур	-11.6182
▁магистра	-11.6182
▁динозавры	-11.6182
▁Количеств	-11.6182
▁младше	-11.6183
▁Простит	-11.6183
▁Книг	-11.6183
ианино	-11.6183
▁недооценива	-11.6184
▁сервер	-11.6184
▁клас	-11.6187
▁богатым	-11.619
▁замкнут	-11.6194
▁двигают	-11.6195
▁просит	-11.6197
▁штан	-11.6198
▁атакова	-11.6199
▁племен	-11.6201
▁опусти	-11.6201
▁беременн	-11.6204
▁Сво	-11.6204
▁рух	-11.6204
▁усё	-11.6208
▁накопи	-11.6208
▁измеря	-11.6209
▁границе	-11.6209
ницы	-11.6212
▁доказывает	-11.6215
▁Такі	-11.6215
▁носит	-11.6216
▁британски	-11.6217
▁Турци	-11.6221
▁шип	-11.6223
▁усы	-11.6224
▁вожд	-11.6225
▁генетическ	-11.6227
лос	-11.6228
▁туман	-11.6229
▁далеки	-11.623
▁проща	-11.6231
ўні	-11.6231
▁пицц	-11.6234
▁телевизора	-11.6234
▁справляются	-11.6234
25	-11.6235
▁студентом	-11.6237
ороче	-11.6237
▁пустот	-11.6238
▁Акт	-11.6239
▁оптическ	-11.624
▁включают	-11.624
▁жарко	-11.6245
следовало	-11.6247
▁медленн	-11.6249
▁классны	-11.6251
▁перемещения	-11.6251
▁художником	-11.6252
▁обязательств	-11.6254
▁ключев	-11.6256
▁искусством	-11.6259
▁переживал	-11.6259
▁ставить	-11.6262
пива	-11.6262
▁пользователя	-11.6262
▁французски	-11.6265
▁набрал	-11.6265
▁наблюдател	-11.6265
▁свято	-11.6265
▁счета	-11.6266
матер	-11.6266
▁послуша	-11.627
активны	-11.6272
▁телевидени	-11.6273
▁предка	-11.6274
▁достоинства	-11.6276
▁аренд	-11.6277
▁уничтожен	-11.6282
▁неприятны	-11.6284
▁местность	-11.6285
▁государственн	-11.6288
▁объединяют	-11.6288
▁разрешени	-11.6288
▁упражнени	-11.6288
▁заяв	-11.6288
▁основатель	-11.6288
▁главе	-11.6289
▁потерян	-11.629
▁скромно	-11.6292
▁классно	-11.6292
▁помести	-11.6293
▁мероприяти	-11.6293
рвал	-11.6293
▁Стан	-11.6297
▁населени	-11.6298
▁морск	-11.6307
▁демократическо	-11.6308
▁голодны	-11.6311
▁приняти	-11.6311
▁виновн	-11.6314
▁пользовани	-11.6315
▁Ген	-11.6317
▁будущим	-11.632
▁телевидение	-11.632
▁тонко	-11.6323
▁стоим	-11.6323
▁берегов	-11.6324
▁гос	-11.6325
▁43	-11.6325
▁48	-11.6328
▁приют	-11.6328
вич	-11.633
▁препятствие	-11.6334
вление	-11.6334
качать	-11.6339
▁отражают	-11.634
ладельц	-11.6344
▁провож	-11.6345
▁волнующ	-11.6345
▁Вспомнит	-11.6347
▁атмосфера	-11.6348
car	-11.6349
▁Смотр	-11.6351
учесть	-11.6354
▁Основн	-11.6355
▁нация	-11.6356
▁Тор	-11.6356
▁собственност	-11.6358
несла	-11.636
▁воздействи	-11.636
чаты	-11.636
▁детство	-11.636
▁черепа	-11.6361
▁грубо	-11.6362
▁плохим	-11.6362
▁очередно	-11.6368
▁столкнул	-11.6368
▁Титан	-11.6369
▁расстройств	-11.6369
▁выпускник	-11.6371
▁воин	-11.6373
▁выделил	-11.6374
▁остановит	-11.6375
▁инвестиру	-11.6375
▁рацион	-11.6376
▁кирпич	-11.6376
▁противоположны	-11.6376
▁дур	-11.6378
▁равенство	-11.6378
▁Богу	-11.638
▁распространить	-11.638
▁демократ	-11.6384
▁подруга	-11.6386
▁персонажа	-11.6387
▁удивля	-11.6388
,3	-11.6388
°	-11.6389
▁Сноуден	-11.6389
▁Студент	-11.6389
▁амбици	-11.6389
▁игнориру	-11.6389
▁интегрирован	-11.6389
▁лошади	-11.6389
▁осуществлени	-11.6389
▁отверстие	-11.6389
▁пешком	-11.6389
▁посредник	-11.6389
▁тротуар	-11.6389
▁археолог	-11.6389
▁потрачен	-11.6389
▁разрушил	-11.6389
▁обоснован	-11.6389
▁хранят	-11.6389
▁желуд	-11.6389
▁мебель	-11.639
▁шлем	-11.639
▁пересадк	-11.639
▁субсиди	-11.639
▁атлет	-11.639
▁бачыц	-11.639
▁ладон	-11.6391
▁сражени	-11.6391
▁съеда	-11.6391
▁производитель	-11.6391
▁освободить	-11.6392
▁постели	-11.6392
▁маркер	-11.6393
вилл	-11.6393
▁отражен	-11.6394
▁завершить	-11.6394
▁томографи	-11.6394
▁спасение	-11.6395
▁отц	-11.6397
▁удоб	-11.6397
▁систематически	-11.6398
▁суде	-11.6399
BC	-11.6399
▁отделени	-11.64
▁разделение	-11.64
▁движущи	-11.6402
▁победил	-11.6402
ўсю	-11.6402
▁осуществлять	-11.6405
▁захотелось	-11.6407
▁растет	-11.6409
▁нелепо	-11.6409
▁Жив	-11.6411
▁международн	-11.6414
▁конструкция	-11.6416
▁универсально	-11.6417
энне	-11.642
▁широком	-11.642
▁арабском	-11.6422
ыглядит	-11.6422
▁мышечн	-11.6422
▁крас	-11.6422
▁Шта	-11.6423
▁абстрактно	-11.6423
▁лжи	-11.6423
▁сжима	-11.6429
▁обращает	-11.6429
▁жёстки	-11.6429
▁содержать	-11.643
▁обслужива	-11.643
росло	-11.6431
▁эра	-11.6431
▁достигают	-11.6432
▁ядро	-11.6433
▁изобре	-11.6433
▁представляли	-11.6435
▁Кенне	-11.6436
▁индустрия	-11.6439
▁слоё	-11.6441
▁дождев	-11.6443
▁защитник	-11.6444
▁стиральн	-11.6444
▁текстов	-11.6448
▁трудов	-11.6448
▁вдохновени	-11.6455
▁материя	-11.6455
▁заболел	-11.6461
▁финал	-11.6462
▁Технология	-11.6469
▁Дели	-11.6471
двинуть	-11.6472
▁месца	-11.6472
▁ранен	-11.6472
усім	-11.6472
наче	-11.6473
▁комп	-11.6476
▁Больши	-11.6476
явления	-11.6479
▁сенсорны	-11.6482
▁добавляет	-11.6482
▁курени	-11.6484
щение	-11.6486
шер	-11.6487
▁научил	-11.6487
▁трат	-11.6487
▁ценностям	-11.6489
▁уменьша	-11.6493
▁стабильно	-11.6495
▁Ma	-11.6498
▁исчезл	-11.6499
▁интерактивно	-11.6502
▁превращают	-11.6503
▁художественно	-11.6506
терн	-11.6507
▁доз	-11.6508
▁ставят	-11.6515
▁оцен	-11.6518
▁текста	-11.6518
▁требовани	-11.6519
▁Сме	-11.6521
▁синим	-11.6522
▁рабіц	-11.6523
ніз	-11.6524
▁пиксел	-11.6524
▁судь	-11.6527
▁роскош	-11.653
▁управлял	-11.6533
▁поезда	-11.6543
▁функционировани	-11.6545
▁Вод	-11.655
прыгнул	-11.6552
▁половы	-11.6559
▁правительстве	-11.6559
▁палатк	-11.6563
▁взрослым	-11.6568
▁окружен	-11.657
▁свае	-11.657
▁поймё	-11.6571
▁приобрел	-11.6573
▁Париж	-11.6575
ливает	-11.6577
▁знаменит	-11.6577
жечь	-11.658
▁выплат	-11.6582
▁груп	-11.6584
▁воспоминани	-11.6585
▁открытк	-11.6589
счёт	-11.659
▁сделанно	-11.6591
▁попала	-11.6594
▁Пры	-11.6594
чество	-11.6594
▁затрону	-11.6594
▁тяжёл	-11.6594
▁водны	-11.6596
▁акулы	-11.6598
▁афро	-11.6599
▁сопротивля	-11.6602
▁Ирланди	-11.6602
▁Управление	-11.6602
▁Филадельфи	-11.6602
▁айсберг	-11.6602
▁вдохновляет	-11.6602
▁расшифрова	-11.6602
▁сопротивления	-11.6602
▁стипенди	-11.6602
▁сістэм	-11.6602
▁тэхналогі	-11.6602
▁бамбук	-11.6602
▁возбужден	-11.6602
▁гадзін	-11.6602
▁аромат	-11.6602
▁усвоил	-11.6602
▁Зелён	-11.6602
▁привычны	-11.6602
▁Будд	-11.6603
▁практическо	-11.6603
▁содержимо	-11.6603
▁испуга	-11.6603
▁стремимся	-11.6603
▁потолк	-11.6603
▁бацьк	-11.6604
▁сокращение	-11.6604
70	-11.6604
▁Робот	-11.6604
▁устойчивост	-11.6605
▁восстанавливать	-11.6607
▁1900	-11.6607
▁Ничто	-11.6608
▁сложивш	-11.661
▁займёт	-11.6611
▁Ливи	-11.6611
▁представил	-11.6614
▁подростка	-11.6617
▁Начн	-11.6621
▁Ньютон	-11.6621
▁неврологи	-11.6625
▁звонит	-11.6626
кос	-11.6626
▁сложен	-11.6626
▁пасту	-11.6628
▁планетарн	-11.6628
▁Каза	-11.6629
▁кабель	-11.6631
▁луг	-11.6631
▁девочку	-11.6632
▁тренирова	-11.6632
опустим	-11.6634
▁банкир	-11.6634
▁геологическ	-11.6635
▁изобретен	-11.6635
▁Данные	-11.6636
▁нормальным	-11.664
▁перемещать	-11.6641
▁значимость	-11.6643
▁автомобиле	-11.6643
▁крошечн	-11.6645
▁закрыт	-11.6645
▁Ван	-11.6647
▁отчаянно	-11.6647
▁моста	-11.6655
▁Испании	-11.6657
прочем	-11.6658
▁размышления	-11.666
▁азиат	-11.666
▁проанализирова	-11.6663
▁оригами	-11.6663
▁качеств	-11.6663
▁документальны	-11.6666
▁знаменитост	-11.667
▁ведущ	-11.6673
▁перад	-11.6673
▁отличать	-11.6674
▁исток	-11.6686
▁полез	-11.6687
▁увеличивать	-11.6687
▁поража	-11.6693
▁подключи	-11.6698
▁учите	-11.67
▁удачно	-11.6702
▁наличия	-11.6702
▁поврежд	-11.6703
▁Берлин	-11.6704
▁впечатля	-11.6707
▁биотехнологи	-11.6708
▁сфокусировать	-11.6715
▁вступил	-11.6716
▁четвёрто	-11.6716
▁образованны	-11.672
▁развивающие	-11.6722
▁посе	-11.6725
▁любопытны	-11.6725
▁поведенчески	-11.6726
▁переживания	-11.6728
▁гордость	-11.6729
округ	-11.6729
▁край	-11.6734
льц	-11.6737
▁воспоминание	-11.6741
▁обращал	-11.6742
▁сбережения	-11.6742
▁крыль	-11.6744
▁девочкам	-11.6744
▁гуля	-11.6746
▁прошлым	-11.6752
▁разбива	-11.6753
видимом	-11.6755
▁товара	-11.6755
кинс	-11.6755
▁рекламны	-11.676
▁преобразовани	-11.6761
▁любител	-11.6762
▁перехода	-11.6763
▁заглядыва	-11.6766
▁приви	-11.6768
▁изнасилован	-11.6769
▁подач	-11.6773
▁размышлени	-11.6783
▁быстрого	-11.6784
▁обратите	-11.6785
ствовать	-11.6786
▁финансирова	-11.6786
▁вредны	-11.6787
▁прода	-11.6787
▁удовлетвори	-11.6788
▁разновидност	-11.679
▁конечны	-11.6791
▁пройд	-11.6793
▁огне	-11.6793
▁успе	-11.6799
▁Послушай	-11.6802
▁авиа	-11.6802
ждём	-11.6805
to	-11.6805
▁соседни	-11.6805
▁приключени	-11.6806
пресс	-11.6807
▁Сара	-11.6809
каў	-11.6811
▁выгоды	-11.6813
▁объявлен	-11.6814
▁правительственн	-11.6816
▁изменяют	-11.6816
▁измерение	-11.6817
озд	-11.6818
▁субъект	-11.6819
пладысмент	-11.682
▁Антарктид	-11.682
▁Возвраща	-11.682
▁Гренланди	-11.682
▁Леонардо	-11.682
▁Трудно	-11.682
▁бесполезны	-11.682
▁джентльмен	-11.682
▁заблуждени	-11.682
▁иероглиф	-11.682
▁интеграци	-11.682
▁милосерди	-11.682
▁привилеги	-11.682
▁сегмент	-11.682
▁сигарет	-11.682
▁туберкулёз	-11.682
▁Арктик	-11.682
▁Республик	-11.682
▁благоприятн	-11.682
▁приспосаблива	-11.682
▁реконструкци	-11.682
▁капитан	-11.682
▁колёс	-11.682
▁радостн	-11.682
▁расстроен	-11.682
▁крохотн	-11.682
▁обнаружим	-11.682
▁Мэтт	-11.682
▁1984	-11.682
▁жилья	-11.682
▁распознава	-11.682
▁водителя	-11.6821
▁спутниковы	-11.6821
▁пират	-11.6821
▁форум	-11.6821
▁Арави	-11.6821
▁устрани	-11.6822
▁Сэм	-11.6823
▁периодическ	-11.6823
гвозд	-11.6823
▁апрел	-11.6823
▁высказать	-11.6824
▁Шесть	-11.6824
▁собрания	-11.6824
▁простит	-11.6825
▁высоком	-11.6825
▁отрицательны	-11.6825
▁Арабск	-11.6826
▁бизнесмен	-11.6828
▁крупным	-11.6828
▁восстановлени	-11.6828
▁учёными	-11.6829
авіта	-11.683
▁позиция	-11.6832
▁батарейк	-11.6833
▁нижн	-11.6834
▁пожил	-11.6835
▁оптимист	-11.6836
▁анализирова	-11.6836
▁призван	-11.6837
▁чистый	-11.6837
▁световы	-11.6837
▁производителей	-11.6841
▁складывает	-11.6842
▁господин	-11.6843
мог	-11.6843
▁авиаци	-11.6844
▁посвящ	-11.6846
▁вторым	-11.6847
▁художники	-11.6847
▁повлияет	-11.6847
▁тонк	-11.6849
▁студента	-11.685
▁воздушн	-11.6852
бирает	-11.6854
▁интересуют	-11.6854
▁шторм	-11.6855
▁воле	-11.6856
ливать	-11.6858
▁растуще	-11.686
карт	-11.6861
▁щел	-11.6861
▁технику	-11.6861
▁описания	-11.6861
ацию	-11.6861
▁фрукт	-11.6862
▁судить	-11.6864
▁сохраняет	-11.6866
,2	-11.6866
▁пр	-11.6867
▁представитель	-11.6867
▁урока	-11.6867
▁постановк	-11.687
▁послужил	-11.687
▁переезжа	-11.6871
▁толч	-11.6871
▁этически	-11.6872
▁благодар	-11.6874
очный	-11.6877
▁выходил	-11.6878
▁отчет	-11.688
шын	-11.6881
▁выражать	-11.6884
▁чей	-11.6886
▁Ден	-11.6887
▁кошки	-11.689
▁пароли	-11.6896
менем	-11.6899
▁обходит	-11.69
▁Роз	-11.6901
▁перепис	-11.6905
▁мат	-11.6908
▁Кем	-11.6908
▁пари	-11.691
▁бюджета	-11.6911
▁категория	-11.6911
▁врачом	-11.6913
▁сваі	-11.6914
▁ускорить	-11.6915
▁адаптирова	-11.6917
▁гости	-11.6918
▁одева	-11.6926
▁община	-11.6928
▁лыжа	-11.6928
▁раннем	-11.6935
▁далёко	-11.694
▁начнет	-11.6943
▁отдавать	-11.6946
▁мертвы	-11.6946
▁6-	-11.6947
▁отправлен	-11.695
▁прозрачн	-11.695
▁числ	-11.6952
▁дяд	-11.6952
▁неприятно	-11.6962
рэш	-11.6963
▁Одн	-11.6964
▁бездомны	-11.6965
▁Франци	-11.697
▁Следующ	-11.6972
▁скат	-11.6973
▁ускоря	-11.6976
▁продолжае	-11.6976
▁Третье	-11.6978
▁Замет	-11.6979
вист	-11.6979
▁уверенным	-11.6979
берите	-11.6981
▁Белы	-11.6981
▁иностранн	-11.6982
▁фундамент	-11.6984
ТС	-11.7
был	-11.7002
▁посчитал	-11.7004
▁стеклянны	-11.7005
▁Bu	-11.7007
▁лучи	-11.7007
▁Остальн	-11.7007
▁повторил	-11.7008
▁кач	-11.7009
▁заинтересовать	-11.7009
▁строител	-11.701
▁свидетеле	-11.7012
даем	-11.7013
▁тяг	-11.7016
▁строя	-11.7017
▁обсужда	-11.7022
▁счастливе	-11.7023
▁обмана	-11.7024
▁продал	-11.7026
▁развивающе	-11.7026
▁окружае	-11.7031
▁использованы	-11.7032
держим	-11.7033
▁беспокойство	-11.7038
▁взгляда	-11.7041
▁Детройт	-11.7042
▁Пациент	-11.7042
▁вовлечь	-11.7042
▁выигрыш	-11.7042
▁мальчишк	-11.7042
▁муравей	-11.7042
▁подтвердил	-11.7042
▁прибрежн	-11.7042
▁протоклетк	-11.7042
▁светодиод	-11.7042
▁Линкольн	-11.7042
▁издержк	-11.7042
▁запомнил	-11.7042
▁Взрыв	-11.7042
▁добровольц	-11.7042
▁психическо	-11.7042
▁комеди	-11.7042
▁вернёт	-11.7042
▁параллельно	-11.7042
▁упрости	-11.7042
▁простира	-11.7042
▁патоген	-11.7042
▁Последне	-11.7042
▁XXI	-11.7042
▁завоева	-11.7042
▁ремонт	-11.7043
▁расцвет	-11.7043
▁шкаф	-11.7043
▁ходьб	-11.7043
▁чертовск	-11.7043
▁удавал	-11.7043
▁посещени	-11.7043
▁пенис	-11.7044
▁убедительно	-11.7045
зноў	-11.7045
▁інша	-11.7046
▁Семь	-11.7047
▁найдет	-11.7048
▁чертеж	-11.7049
▁гибел	-11.7049
▁превышает	-11.705
▁скуча	-11.7051
▁культ	-11.7052
▁решка	-11.7052
▁войска	-11.7054
▁рассказчик	-11.7054
▁5000	-11.7055
▁Вес	-11.7056
▁потеряла	-11.7057
▁ухо	-11.7058
▁вырабатыва	-11.706
онным	-11.706
▁Буду	-11.7061
▁физика	-11.7062
ндер	-11.7063
▁геометрическ	-11.7063
▁машинами	-11.7064
азначае	-11.7068
▁кубик	-11.707
▁Wal	-11.7072
▁натуральн	-11.7072
▁определённым	-11.7074
▁комисси	-11.7077
▁платит	-11.7077
▁чтение	-11.7082
▁осознани	-11.7083
▁блестящ	-11.7084
▁забав	-11.7084
толог	-11.7085
▁перевернул	-11.7086
▁1960-	-11.7087
▁Рам	-11.7089
▁вернем	-11.709
▁возобновляемы	-11.7091
▁основание	-11.7092
son	-11.7094
▁Прекрасно	-11.7096
▁жертвам	-11.7097
мешать	-11.7097
▁выдерж	-11.7099
▁планирование	-11.71
▁Пара	-11.7102
▁построены	-11.7104
ровал	-11.7107
тус	-11.7112
▁улучшает	-11.7112
▁инновация	-11.7115
▁национальном	-11.7115
сот	-11.7121
▁признан	-11.7122
ньки	-11.7122
▁сутк	-11.7124
ion	-11.7124
ect	-11.7125
ложим	-11.7128
▁применим	-11.7129
▁впечатляющи	-11.7131
▁получение	-11.7132
▁Норвегии	-11.7133
чил	-11.7133
▁Фр	-11.7134
▁дядя	-11.7135
▁публике	-11.7136
ld	-11.7136
▁учреждений	-11.7136
▁продуктивно	-11.714
▁Кин	-11.7144
▁журналистик	-11.7145
▁поверну	-11.7147
▁минимально	-11.7148
▁взятк	-11.7148
▁инвестор	-11.7149
▁130	-11.7151
▁поймал	-11.7156
фоб	-11.7158
только	-11.7161
▁оценкам	-11.7164
▁пише	-11.7164
▁чис	-11.7165
▁посвяти	-11.7165
▁44	-11.7167
▁слепо	-11.7167
▁миллиметр	-11.7169
▁хватил	-11.7171
▁кофейн	-11.7178
летним	-11.7179
▁сваім	-11.7183
▁проход	-11.7188
хватил	-11.719
▁развод	-11.7192
▁продвижени	-11.7192
▁бумажны	-11.7193
▁новаторств	-11.7193
▁Модел	-11.7193
▁изменят	-11.7195
▁доктором	-11.7195
▁действующи	-11.7195
стало	-11.7196
▁свидетел	-11.7197
▁вырва	-11.7201
ология	-11.7203
▁посме	-11.7203
hi	-11.7206
▁запр	-11.7208
▁человечност	-11.7208
▁одобрен	-11.7216
▁здоровьем	-11.7218
▁ударил	-11.7218
▁выстраива	-11.7219
▁1990	-11.722
▁итальянск	-11.7222
▁аудиторию	-11.7227
▁Первым	-11.7232
▁стира	-11.7234
ставлял	-11.7237
▁обратим	-11.7239
верен	-11.724
▁Отличн	-11.7241
▁столб	-11.7241
инди	-11.7242
▁матк	-11.7245
▁облада	-11.7247
вре	-11.7247
▁строение	-11.7253
▁приступа	-11.7253
▁стремит	-11.7257
▁ням	-11.7258
▁Джули	-11.7262
▁завися	-11.7262
▁сделав	-11.7262
▁совместн	-11.7266
▁японски	-11.7266
порить	-11.7267
езусловно	-11.7267
▁родин	-11.7268
▁физиологи	-11.7269
▁спортсмен	-11.7269
Second	-11.7269
▁Аполлон	-11.7269
▁Бенджамин	-11.7269
▁Бронкс	-11.7269
▁Здорово	-11.7269
▁Шекспир	-11.7269
▁восприня	-11.7269
▁детеныш	-11.7269
▁догадыва	-11.7269
▁импровизаци	-11.7269
▁конфигураци	-11.7269
▁отследи	-11.7269
▁официальны	-11.7269
▁охлаждени	-11.7269
▁попробую	-11.7269
▁предупреди	-11.7269
▁прикосновени	-11.7269
▁темнокожи	-11.7269
▁факультет	-11.7269
▁шоссе	-11.7269
▁безграничн	-11.7269
▁компакт	-11.7269
▁преоблада	-11.7269
▁притяжени	-11.7269
▁экстремальны	-11.7269
▁эмбрион	-11.7269
▁находк	-11.7269
▁пшениц	-11.7269
▁комитет	-11.7269
▁Сьерра	-11.7269
▁проявление	-11.7269
▁легенд	-11.7269
▁обруши	-11.7269
▁преград	-11.7269
▁поднимите	-11.7269
▁працэс	-11.7269
▁раковин	-11.727
пряжен	-11.727
▁Плох	-11.727
▁поражён	-11.727
▁труп	-11.727
▁подбира	-11.727
▁пострадал	-11.727
▁ПМС	-11.7271
▁проектами	-11.7271
▁платье	-11.7271
▁совершать	-11.7271
▁вписыва	-11.7271
▁приняты	-11.7271
▁волновать	-11.7272
▁увлекательно	-11.7272
▁исключа	-11.7273
▁смири	-11.7274
▁прокат	-11.7274
▁Сотн	-11.7275
▁вдохновить	-11.7275
▁оптимизаци	-11.7275
▁участвует	-11.7275
▁Лично	-11.7276
▁схож	-11.7277
▁Современн	-11.7277
▁берем	-11.7278
▁равна	-11.7278
глуб	-11.7278
цер	-11.7279
▁поспори	-11.728
▁Уверен	-11.728
▁купол	-11.728
▁кукл	-11.7282
▁Международно	-11.7286
▁нефтяно	-11.7287
▁транспортны	-11.7288
▁людск	-11.7289
▁Учитыва	-11.729
▁обнаружив	-11.7291
▁свалк	-11.7296
▁приход	-11.7297
растает	-11.7297
▁соглашение	-11.7297
▁кричал	-11.7298
▁розовы	-11.73
▁Лин	-11.7301
▁свай	-11.7302
▁тёт	-11.7303
▁1970-	-11.7304
▁знаков	-11.7304
▁Ba	-11.7304
бок	-11.7305
▁неделя	-11.7305
▁стыдно	-11.7308
▁осознанно	-11.7309
▁препаратов	-11.7309
рэс	-11.731
▁прочес	-11.7312
▁мешк	-11.7313
▁канализаци	-11.7314
▁стере	-11.7315
▁рассматривает	-11.7318
▁свободным	-11.732
▁Номер	-11.7321
▁одет	-11.7321
▁нервны	-11.7322
▁сгиб	-11.7323
▁устроить	-11.7328
вным	-11.7329
▁инсулин	-11.7337
едем	-11.7337
клин	-11.7338
▁дизайнера	-11.7339
▁руб	-11.7339
▁следил	-11.7339
▁двигать	-11.7342
▁пользователям	-11.7344
гри	-11.7345
▁спорта	-11.7346
▁трап	-11.735
▁различие	-11.7354
▁встречает	-11.7355
▁осуществи	-11.7357
▁Израил	-11.7359
▁колебания	-11.7361
▁несут	-11.7361
▁прослушивани	-11.7363
▁серьёзным	-11.7367
сосудист	-11.737
технологи	-11.7371
▁отображен	-11.7372
▁татуировк	-11.7373
минутн	-11.7374
▁уникальна	-11.7377
▁неопределённост	-11.738
▁красивой	-11.7381
▁транспортно	-11.7383
▁Каб	-11.7384
▁смертельно	-11.7384
▁астрономи	-11.7385
▁ослаб	-11.7386
масштабн	-11.7386
▁общественным	-11.7389
▁бумагу	-11.739
▁срока	-11.7393
▁Сар	-11.7396
▁совета	-11.7398
▁исследу	-11.7399
▁проявить	-11.7399
▁Гру	-11.7399
▁осп	-11.74
▁расширяет	-11.74
▁грамотност	-11.7405
▁линейн	-11.7406
чайш	-11.7407
▁бри	-11.7408
▁млекопитающи	-11.7408
▁затрагива	-11.741
сал	-11.7411
▁18-	-11.7412
▁способностям	-11.7414
стен	-11.7416
▁бедн	-11.7416
▁ідэ	-11.7421
▁управлении	-11.7421
▁подразумеваю	-11.7422
▁путешеству	-11.7425
▁вымирани	-11.7426
▁магнитны	-11.7428
▁прет	-11.743
▁скрыто	-11.743
▁вертикальн	-11.7431
▁видам	-11.7444
тверж	-11.7447
▁пыли	-11.7454
▁соединени	-11.7457
▁детально	-11.7463
▁стандартно	-11.7463
▁сон	-11.7465
▁чалавека	-11.7466
▁просмотра	-11.7469
▁замедлить	-11.747
падать	-11.7478
▁подража	-11.7479
▁гравитации	-11.748
▁рабоч	-11.7482
▁возможностя	-11.7484
▁клик	-11.7484
▁кормить	-11.7486
▁волшебство	-11.7487
▁чуд	-11.749
▁планировал	-11.7494
▁монитор	-11.7496
туш	-11.7497
▁объед	-11.7501
▁Медицин	-11.7502
▁CRISPR	-11.7502
▁Внезапн	-11.7502
▁Здравствуй	-11.7502
▁Палестин	-11.7502
▁Поразительно	-11.7502
▁Ребят	-11.7502
▁Талибан	-11.7502
▁Фейсбук	-11.7502
▁вакуум	-11.7502
▁динамическ	-11.7502
▁заблокирова	-11.7502
▁здароў	-11.7502
▁инфляци	-11.7502
▁карандаш	-11.7502
▁метаболизм	-11.7502
▁окрестност	-11.7502
▁отталкива	-11.7502
▁переворачива	-11.7502
▁преувеличен	-11.7502
▁стрекоз	-11.7502
▁шахмат	-11.7502
▁штраф	-11.7502
▁экспонат	-11.7502
▁Глобальн	-11.7502
▁корпус	-11.7502
▁подразделени	-11.7502
▁спрятан	-11.7502
▁Свобод	-11.7502
▁лотере	-11.7502
▁вслух	-11.7502
▁воплоща	-11.7502
▁верёвк	-11.7502
▁тяжест	-11.7502
▁штамм	-11.7502
▁каркас	-11.7502
▁запясть	-11.7502
▁кольцо	-11.7502
,8	-11.7502
▁осужда	-11.7502
▁Брэд	-11.7502
▁ненужн	-11.7502
▁хранил	-11.7502
▁продли	-11.7502
▁подготовил	-11.7502
▁слияни	-11.7503
▁першы	-11.7503
▁удалить	-11.7503
▁кролик	-11.7504
▁происходящего	-11.7504
▁весёл	-11.7504
▁протестирова	-11.7504
▁сустав	-11.7505
▁3,5	-11.7505
▁рэчы	-11.7506
▁мобильник	-11.7506
▁Исследовател	-11.7506
▁приглашение	-11.7507
ыграть	-11.7507
▁искажен	-11.7508
TI	-11.7508
▁кассет	-11.7509
▁продвинуты	-11.751
▁72	-11.7512
▁энергетическо	-11.7515
▁Абсолютно	-11.7516
▁Долин	-11.7518
▁отклонени	-11.7519
▁полагает	-11.7521
▁виден	-11.7521
▁улови	-11.7523
▁узки	-11.7525
▁перейдё	-11.7527
fi	-11.7528
▁моде	-11.753
▁подписал	-11.7531
▁племена	-11.7531
▁будучын	-11.7531
▁заявления	-11.7533
▁драйв	-11.7534
59	-11.7536
▁вообрази	-11.7536
▁Lab	-11.754
▁порождает	-11.7543
▁конкретн	-11.7544
▁дельфинов	-11.7545
▁больным	-11.7545
▁выступающи	-11.7546
▁зелено	-11.7546
▁машинно	-11.7547
▁планирования	-11.7548
▁праздн	-11.755
▁сетям	-11.755
жир	-11.7551
▁беспроводны	-11.7553
шан	-11.7554
люд	-11.7563
▁экологичны	-11.7564
▁демонстрируют	-11.7565
▁путешествую	-11.7566
▁архитектуру	-11.7567
▁полноценно	-11.757
▁пригодн	-11.7571
▁пространств	-11.7571
▁копию	-11.7572
▁СП	-11.7574
▁Кэ	-11.7575
▁видеоигры	-11.7576
▁кораллы	-11.7576
▁невидим	-11.7579
▁Никол	-11.7579
▁слона	-11.7583
▁красивым	-11.7583
▁овц	-11.7587
▁мёртв	-11.7587
▁соседям	-11.7593
▁Хилл	-11.7596
▁мягки	-11.7597
класс	-11.7597
▁распространённы	-11.7597
▁дельфины	-11.76
▁беспрецедентн	-11.76
▁звуковы	-11.76
▁хватал	-11.7601
▁огранич	-11.7605
▁горш	-11.7605
▁бедстви	-11.7608
▁посвятил	-11.7609
рут	-11.7609
Ч	-11.7611
▁взят	-11.7611
▁позволяющ	-11.7613
▁делим	-11.7618
▁жертвой	-11.762
▁возвращать	-11.762
правду	-11.7621
▁звёзды	-11.7622
▁Северном	-11.7623
▁Движение	-11.7623
▁напечата	-11.7625
wi	-11.7626
▁упорно	-11.7627
▁обсуждени	-11.7629
▁оказывать	-11.7635
▁талантливы	-11.7637
▁новейш	-11.7638
▁реклама	-11.7638
▁казни	-11.7641
▁приблизи	-11.7644
▁новатор	-11.7647
▁Мел	-11.765
▁ежедневны	-11.765
▁реку	-11.7651
▁узко	-11.7652
▁ведущих	-11.7652
▁Пакистане	-11.7657
▁километр	-11.7658
▁навоз	-11.7659
▁уважа	-11.7659
▁Li	-11.766
▁барьер	-11.766
▁воздейству	-11.7661
▁тайно	-11.7665
щите	-11.7665
▁способствова	-11.7666
ошла	-11.7667
▁лодки	-11.7667
▁Уол	-11.7671
▁распада	-11.7673
▁страстно	-11.7673
жимает	-11.7687
▁читаю	-11.7689
▁площадки	-11.7689
▁грязны	-11.7693
▁убийство	-11.7693
12	-11.7695
▁демо	-11.7696
▁британско	-11.7696
▁окон	-11.7698
▁фразы	-11.7704
▁организованно	-11.7705
▁пожела	-11.7706
go	-11.7708
▁отмен	-11.7711
▁телевидении	-11.7712
▁гигантско	-11.7717
конт	-11.772
▁пище	-11.7721
▁виртуальн	-11.7722
▁Пен	-11.7723
сё	-11.7724
ческим	-11.7725
▁приводил	-11.7727
ранс	-11.7728
▁скрывать	-11.773
▁превыша	-11.773
▁выступ	-11.7739
▁лауреат	-11.774
▁пестицид	-11.774
▁швейцар	-11.774
▁Совершенн	-11.774
▁блокчейн	-11.774
▁гладко	-11.774
▁диспле	-11.774
▁заплатил	-11.774
▁заслуг	-11.774
▁инсульт	-11.774
▁марсоход	-11.774
▁общепринят	-11.774
▁педагог	-11.774
▁урбанизаци	-11.774
▁шедевр	-11.774
▁экземпляр	-11.774
сплеск	-11.774
j	-11.774
▁Мальчик	-11.774
▁покупают	-11.774
▁покупает	-11.774
▁адбыва	-11.774
▁немыслим	-11.774
▁вылечить	-11.774
▁покрыты	-11.774
▁поглощен	-11.774
▁ограничивает	-11.774
▁обыденн	-11.774
▁посадил	-11.7741
▁Половин	-11.7741
▁Задач	-11.7741
▁взбира	-11.7741
▁покров	-11.7741
▁коляск	-11.7742
▁размещен	-11.7742
▁переместить	-11.7743
▁учёного	-11.7743
▁демон	-11.7743
▁жалоб	-11.7743
▁полимер	-11.7743
▁11-	-11.7744
▁детка	-11.7744
▁Никако	-11.7745
▁памятник	-11.7745
▁радиус	-11.7745
▁планируем	-11.7746
▁стреля	-11.7746
▁аэро	-11.7747
▁прежне	-11.7747
▁останк	-11.7747
▁королевск	-11.775
▁потребительск	-11.775
▁растительн	-11.7752
▁школьник	-11.7754
вязать	-11.7754
▁обсуждаем	-11.7754
ell	-11.7757
▁помнят	-11.7758
▁Мало	-11.7762
▁спит	-11.7762
▁четверти	-11.7763
▁подражани	-11.7766
▁натуральны	-11.7767
▁обращают	-11.7767
▁примет	-11.7767
▁Дэ	-11.7772
▁УФ	-11.7773
▁росли	-11.7774
▁Sta	-11.7776
▁договори	-11.7777
▁коробка	-11.7778
▁триллиона	-11.7778
▁развили	-11.7782
▁справедлив	-11.7782
▁обладать	-11.7783
▁SE	-11.7785
читать	-11.7788
▁душевн	-11.7788
▁граф	-11.779
компан	-11.779
ведаем	-11.7793
▁управляющи	-11.7795
▁Возьм	-11.7795
▁контролируют	-11.7795
▁основывая	-11.7798
▁визуализаци	-11.7798
▁изделия	-11.7799
▁переключател	-11.7799
▁согласован	-11.7799
нападени	-11.78
▁соседству	-11.7803
хватывают	-11.7803
▁Наибол	-11.7805
▁выгодно	-11.781
растают	-11.7811
▁гражданск	-11.7812
▁песка	-11.7812
вернуть	-11.7813
▁заплыв	-11.7814
▁звон	-11.7815
▁доброт	-11.7817
▁вымирания	-11.7819
▁продвижения	-11.7821
▁зелёным	-11.7823
▁16-	-11.7823
▁смертельны	-11.7823
промышленн	-11.7824
▁осознавал	-11.7824
▁качественно	-11.7825
▁служа	-11.7826
▁сбережени	-11.7826
▁De	-11.7827
▁простат	-11.7828
бьют	-11.7829
▁логика	-11.7832
▁сердц	-11.7832
ng	-11.7833
▁затрагивает	-11.7834
▁лёгкость	-11.7835
▁ресурсами	-11.7837
▁разнообразн	-11.7837
▁ужасным	-11.784
▁РНК	-11.784
▁угрожа	-11.784
▁дополнение	-11.7843
▁пункта	-11.7843
▁сломал	-11.7847
▁позор	-11.7849
▁золота	-11.7849
▁Натан	-11.7849
▁менш	-11.7852
▁заняли	-11.7854
уровне	-11.7855
ma	-11.7856
▁низк	-11.7857
скольз	-11.7858
▁98	-11.7858
▁наблюдала	-11.7862
▁обеспечен	-11.7862
▁грех	-11.7863
▁гнездо	-11.7864
какие	-11.7867
знаём	-11.7869
▁кресл	-11.7871
▁казн	-11.7871
▁раскры	-11.7873
почту	-11.7875
▁комфортно	-11.7882
▁собаку	-11.7885
нья	-11.7887
▁предположил	-11.7887
▁Рак	-11.7891
▁производственн	-11.7893
▁парочк	-11.7894
▁предста	-11.7895
ble	-11.7895
▁свеч	-11.7898
▁Сила	-11.79
▁страховк	-11.79
▁осторожно	-11.7902
истами	-11.7902
▁описывал	-11.7905
▁подняла	-11.7911
▁обезьяна	-11.7914
▁парад	-11.7915
▁остатк	-11.7919
▁Гол	-11.7919
хождения	-11.7921
▁посмотри	-11.7925
▁сентябр	-11.7925
▁художественны	-11.7926
▁дизайнерски	-11.7926
▁старение	-11.7929
▁заставлял	-11.7929
▁1980	-11.7935
▁1960	-11.7935
даваемы	-11.7936
▁четвёрты	-11.7937
▁писала	-11.7938
▁Дон	-11.7939
▁авторско	-11.794
▁диалога	-11.794
▁информирова	-11.7942
▁народов	-11.7942
di	-11.7944
▁нижни	-11.7944
▁открывают	-11.7946
звонил	-11.7947
▁пойду	-11.7951
▁кап	-11.7952
▁берег	-11.7955
▁Pro	-11.7956
▁глупост	-11.7958
▁мышлени	-11.7962
▁рассчита	-11.7963
курс	-11.7964
▁уничтожение	-11.7965
▁вступа	-11.7966
▁алкогол	-11.7968
▁ненавидел	-11.7968
▁посылает	-11.7976
▁платформа	-11.7977
▁крупнейше	-11.7981
▁офиса	-11.7981
▁чемпион	-11.7982
▁космонавт	-11.7984
▁ультразвук	-11.7984
é	-11.7984
▁Sky	-11.7984
▁Гонконг	-11.7984
▁Зимбабв	-11.7984
▁Йемен	-11.7984
▁Стюарт	-11.7984
▁застрял	-11.7984
▁координаци	-11.7984
▁леопард	-11.7984
▁мельчайши	-11.7984
▁модификаци	-11.7984
▁освобожда	-11.7984
▁престарелы	-11.7984
▁робототехник	-11.7984
▁свидетельства	-11.7984
▁священны	-11.7984
▁удовлетворя	-11.7984
▁федерально	-11.7984
▁Олимпиад	-11.7984
▁специализиру	-11.7984
▁возрождени	-11.7984
▁ухудша	-11.7984
▁Фотограф	-11.7984
▁некаторы	-11.7984
▁секвой	-11.7984
▁хутка	-11.7984
▁наушник	-11.7984
▁грош	-11.7984
▁XX	-11.7984
▁витамин	-11.7984
▁переживани	-11.7984
▁Тунис	-11.7984
▁Лютер	-11.7984
▁проекци	-11.7984
▁столкнё	-11.7984
▁штуковин	-11.7984
▁Верховн	-11.7984
▁гитар	-11.7984
▁исчезнет	-11.7984
▁Христ	-11.7984
▁карточк	-11.7984
▁русски	-11.7984
▁зарождени	-11.7984
▁прирост	-11.7984
▁Абед	-11.7985
▁Сьюз	-11.7985
▁опережа	-11.7985
▁предельно	-11.7985
▁Вчера	-11.7985
▁мамой	-11.7985
▁горизонтально	-11.7985
▁дорожны	-11.7985
▁дорожно	-11.7986
▁Здани	-11.7986
▁чьё	-11.7986
▁рассвет	-11.7986
▁Лонг	-11.7986
▁грустн	-11.7987
▁спасать	-11.7987
▁погибши	-11.7987
дёшь	-11.7987
▁функционально	-11.7988
▁товарищ	-11.7988
▁излучение	-11.7988
▁the	-11.7989
▁толку	-11.7991
бивает	-11.7991
▁заража	-11.7991
▁обозначи	-11.7991
▁наброск	-11.7993
▁астм	-11.7993
▁Американско	-11.7993
▁сборк	-11.7994
▁атаку	-11.7995
▁собрание	-11.7996
▁захватывает	-11.7996
▁петл	-11.7997
▁настроение	-11.8
▁позволял	-11.8001
▁июне	-11.8003
▁уничтожил	-11.8006
ci	-11.8008
▁клиентам	-11.8009
▁бумага	-11.8009
▁рта	-11.8009
▁крошечно	-11.801
▁несправедлив	-11.801
▁арабск	-11.8012
▁родов	-11.8013
▁инструкци	-11.8016
▁видна	-11.8017
▁принадлежал	-11.8017
▁подвал	-11.8017
▁словарь	-11.8021
▁расположенны	-11.8025
▁Lo	-11.8025
▁трёхмерно	-11.803
▁Велик	-11.8031
▁физическим	-11.8031
спор	-11.8037
▁лодка	-11.8038
▁проезж	-11.8039
▁вкратце	-11.8041
становиться	-11.8043
▁средн	-11.8044
▁Швейцарии	-11.8046
▁старался	-11.8046
▁привез	-11.8047
▁ремн	-11.8048
ноги	-11.8049
▁полагают	-11.805
▁Порт	-11.805
перёд	-11.8053
▁выполнен	-11.8053
▁представл	-11.8054
▁матч	-11.8058
▁почувствовала	-11.8058
▁уважать	-11.8059
▁присутствовал	-11.8059
▁ирони	-11.806
▁функциональн	-11.8061
▁свечени	-11.8067
▁прыж	-11.8068
між	-11.8068
▁градуса	-11.8069
▁перевоз	-11.807
▁достигнет	-11.8071
▁восприяти	-11.8072
▁выдающим	-11.8072
льнік	-11.8075
▁продвинуть	-11.8075
▁улицам	-11.8078
▁Прав	-11.8078
▁членами	-11.8078
▁косну	-11.8081
▁спортивны	-11.8088
читаю	-11.8089
▁позвон	-11.8091
▁кабел	-11.8091
▁пообещал	-11.8091
▁160	-11.8092
▁уголовно	-11.8093
▁180	-11.8093
▁сфотографировал	-11.8096
▁сфокусирова	-11.8102
▁оценивает	-11.8104
звезд	-11.8104
▁дискриминации	-11.8105
▁трёхмерн	-11.8106
▁поступал	-11.8107
▁коралл	-11.8109
анні	-11.8109
▁преуспева	-11.8109
▁эхо	-11.811
▁деревянны	-11.8111
▁сравнивать	-11.8112
▁беспроводно	-11.8114
▁задаём	-11.8114
▁Тво	-11.8116
вляется	-11.8116
▁просну	-11.8117
▁влюбил	-11.8119
▁сдержива	-11.8119
▁стандартам	-11.8121
▁предубеждени	-11.8131
▁Mi	-11.8132
Fi	-11.8139
▁составляющих	-11.8143
▁начав	-11.8144
▁убеди	-11.8144
▁далёки	-11.8144
▁испытание	-11.8144
▁Лар	-11.8145
▁уверенност	-11.8145
▁исключительны	-11.8147
▁Лед	-11.8152
▁ковр	-11.8154
▁внешним	-11.8157
▁видеоигр	-11.816
▁вынес	-11.8163
ьмі	-11.8163
▁полноценн	-11.8164
▁медленны	-11.8165
▁Южном	-11.8166
▁научным	-11.8167
▁Реш	-11.817
▁хрупк	-11.8173
▁действиям	-11.8175
▁магчыма	-11.8175
▁незаконно	-11.8175
запад	-11.8176
▁применил	-11.8178
▁запута	-11.8181
▁перша	-11.8181
▁рисков	-11.8182
▁взаимо	-11.8182
▁ограниченно	-11.8183
▁судя	-11.8183
▁мотивирова	-11.8185
▁мужски	-11.8187
▁дожде	-11.8188
▁поступлени	-11.8189
▁выпустить	-11.819
▁одежда	-11.8192
▁образует	-11.8194
▁Массачусетск	-11.8195
▁Белл	-11.8196
▁мусульмански	-11.8197
шестви	-11.8199
▁отвечающи	-11.82
▁убивали	-11.8201
▁34	-11.8203
▁парламента	-11.8208
▁геометри	-11.821
гружен	-11.8214
▁ограниченным	-11.8214
▁пищевы	-11.8217
▁академи	-11.8219
▁вооружённы	-11.8221
▁слышат	-11.8222
▁пен	-11.8223
▁хаце	-11.8223
▁Дизайн	-11.8227
▁Кас	-11.823
местить	-11.8232
▁беспорядо	-11.8233
▁индивид	-11.8233
▁1995	-11.8234
▁iPod	-11.8234
▁Иерусалим	-11.8234
▁Копенгаген	-11.8234
▁Мухаммед	-11.8234
▁альтруизм	-11.8234
▁губернатор	-11.8234
▁заседани	-11.8234
▁коннектом	-11.8234
▁обусловлен	-11.8234
▁произошедше	-11.8234
▁увлечён	-11.8234
▁усердно	-11.8234
▁чётки	-11.8234
▁экспоненциально	-11.8234
▁DVD	-11.8234
▁осужден	-11.8234
▁подталкива	-11.8234
▁снабжа	-11.8234
▁Чувств	-11.8234
▁Беркли	-11.8234
▁анонимно	-11.8234
▁дорогостоящ	-11.8234
▁поцелу	-11.8234
▁плакал	-11.8234
▁принципиально	-11.8234
▁флейт	-11.8234
▁бригад	-11.8234
▁чемодан	-11.8234
▁Монтере	-11.8234
▁планшет	-11.8234
▁суббот	-11.8234
▁аудио	-11.8234
▁Замечательн	-11.8234
▁куратор	-11.8234
▁монах	-11.8234
▁пожаловать	-11.8234
▁покупал	-11.8234
▁сусвет	-11.8234
▁полутора	-11.8235
▁молочно	-11.8235
▁Решение	-11.8235
▁построенны	-11.8235
▁змея	-11.8235
▁баррел	-11.8235
▁обыча	-11.8235
▁седьмо	-11.8235
▁дальнейши	-11.8235
▁Цельси	-11.8235
▁пройдёт	-11.8236
▁минерал	-11.8236
будзь	-11.8236
▁Бутан	-11.8236
▁шрам	-11.8236
▁широт	-11.8236
▁локальны	-11.8237
▁подземн	-11.8237
▁откроет	-11.8237
онколог	-11.8237
-15	-11.8237
▁пиво	-11.8238
▁брош	-11.8238
▁распределённ	-11.824
▁дроб	-11.824
▁ГГ	-11.824
▁вспышка	-11.8241
▁революционны	-11.8241
▁обширны	-11.8242
▁подушк	-11.8245
▁волновал	-11.8245
▁принадлежащ	-11.8247
▁девочкой	-11.8247
▁чаму	-11.8248
▁тепла	-11.8248
▁убрал	-11.8251
▁разрушение	-11.8251
▁слушает	-11.8251
▁совершенны	-11.8251
▁указал	-11.8251
▁обсуждение	-11.8257
▁сведения	-11.8258
ологически	-11.8259
ставят	-11.8261
террористическ	-11.8263
▁кратер	-11.8263
▁увидит	-11.8266
▁корпораций	-11.8266
▁исключи	-11.8266
▁основател	-11.8267
▁колон	-11.8269
▁сперм	-11.827
▁возмож	-11.8272
▁владельце	-11.8272
▁обрел	-11.8272
танцы	-11.8275
▁ожирени	-11.8275
▁падения	-11.8276
▁принят	-11.8281
▁антибиотикам	-11.8283
▁руководи	-11.8284
▁участков	-11.8287
▁отеле	-11.8292
▁жизнеспособн	-11.8295
красил	-11.8296
▁плоскост	-11.8296
▁38	-11.8299
▁чалаве	-11.8302
▁объединять	-11.8305
▁Шир	-11.8305
▁концентрация	-11.8309
.5	-11.8309
▁музыкантов	-11.831
▁очевид	-11.831
▁конкретном	-11.8312
▁нарушени	-11.8313
ходила	-11.8313
▁читают	-11.8313
▁Пят	-11.8315
правилась	-11.8317
ходящих	-11.8317
циальн	-11.8317
▁центральны	-11.8317
▁подводит	-11.8318
▁динамичн	-11.8319
▁проведённы	-11.8319
▁составлен	-11.8321
▁постараюсь	-11.8321
▁сказанно	-11.8323
▁возросл	-11.8326
дождать	-11.8327
▁17-	-11.8327
▁ідэя	-11.8329
▁богато	-11.833
▁побег	-11.8331
▁нарушение	-11.8332
▁достаточн	-11.8334
▁диаграмма	-11.8339
▁малярия	-11.834
▁поворачива	-11.8346
▁распространённо	-11.8346
ўшы	-11.8347
▁химическо	-11.8347
▁умения	-11.8349
▁мероприятия	-11.8351
▁задне	-11.8351
сылают	-11.8352
▁Al	-11.8354
▁подлинно	-11.8357
▁расово	-11.8362
машин	-11.8364
монт	-11.8365
▁осуществля	-11.8366
▁96	-11.8366
▁назва	-11.8367
звал	-11.8367
▁Рэ	-11.8369
▁биологическ	-11.837
▁средним	-11.8375
бон	-11.8376
▁создаются	-11.8377
▁ощущал	-11.8377
▁потребовал	-11.8379
ански	-11.8385
▁взаимоотношени	-11.8387
▁обстоятельств	-11.8388
▁невинн	-11.8389
▁особенным	-11.8389
гадать	-11.8389
▁всеобщ	-11.8391
▁классов	-11.8391
▁применяет	-11.8396
▁убийства	-11.8398
▁застройк	-11.8405
▁обсуждают	-11.8405
▁еже	-11.8406
▁подтверждает	-11.8407
▁семьями	-11.8411
▁столов	-11.8412
кричать	-11.8415
▁математическ	-11.8415
▁достойн	-11.8417
▁умным	-11.8417
▁постиг	-11.842
▁задаёт	-11.8422
▁возникнут	-11.8424
тиф	-11.8426
▁Колумби	-11.843
▁безопасне	-11.8432
▁домик	-11.8435
▁праца	-11.8441
▁сантиметр	-11.8441
чём	-11.8443
▁присутствую	-11.8443
▁ключевым	-11.8444
жыць	-11.8446
▁оценивать	-11.8448
▁опубликова	-11.8449
▁инструкции	-11.8452
▁заразить	-11.8455
▁террор	-11.8455
▁разговариваю	-11.8456
▁колод	-11.8459
▁феминист	-11.8463
▁вызывал	-11.8463
▁библиотека	-11.847
▁повтор	-11.8471
▁показателям	-11.8474
▁убедили	-11.8476
▁объяснени	-11.8482
▁беременны	-11.8483
этажн	-11.8489
,6	-11.8489
▁филантроп	-11.849
загрузить	-11.849
▁1994	-11.849
▁1997	-11.849
▁Компания	-11.849
▁Моцарт	-11.849
▁Эверест	-11.849
▁аккаунт	-11.849
▁асабліва	-11.849
▁восхитительно	-11.849
▁дапамог	-11.849
▁египтян	-11.849
▁жизня	-11.849
▁защищённ	-11.849
▁иммиграци	-11.849
▁кампані	-11.849
▁кладбищ	-11.849
▁мировоззрени	-11.849
▁неокортекс	-11.849
▁развлечений	-11.849
▁расшифровк	-11.849
▁сэндвич	-11.849
▁транспортировк	-11.849
▁электромагнит	-11.849
▁Происходи	-11.849
▁вредоносн	-11.849
▁заброшенн	-11.849
▁забываем	-11.849
▁обувь	-11.849
▁пропорци	-11.849
▁смотришь	-11.849
▁добровольно	-11.849
▁сомнительн	-11.849
▁маммографи	-11.849
▁Подобно	-11.849
▁матриц	-11.849
▁побежда	-11.849
▁устарел	-11.849
▁гамма	-11.849
лишком	-11.849
▁жильё	-11.849
▁Числ	-11.8491
▁водопад	-11.8491
▁выявил	-11.8491
▁помешан	-11.8491
▁овладе	-11.8491
▁фермент	-11.8491
▁Греции	-11.8491
▁1,2	-11.8492
▁колоссально	-11.8492
▁Язык	-11.8492
▁отвращение	-11.8492
▁объединения	-11.8492
таскива	-11.8493
▁диван	-11.8494
▁обнаруживает	-11.8495
▁прогрессивн	-11.8496
▁укрепи	-11.8496
▁утечк	-11.8496
▁помех	-11.8498
▁производил	-11.8498
▁ночам	-11.8499
▁возникающи	-11.85
▁угрожает	-11.85
▁Аляск	-11.85
▁западн	-11.85
▁разделяют	-11.8501
▁боевы	-11.8501
▁пытанне	-11.8501
▁Хью	-11.8501
▁медведей	-11.8503
▁получалось	-11.8505
▁молок	-11.8505
▁суше	-11.8507
▁охоти	-11.8509
▁тряс	-11.8509
▁резки	-11.851
▁перерабатыва	-11.8512
▁наполня	-11.8512
▁международным	-11.8513
▁разгар	-11.8515
▁пауз	-11.8516
▁законом	-11.8517
▁механизмов	-11.8518
▁государством	-11.8518
▁двадцать	-11.8519
▁исследователь	-11.8523
▁любовн	-11.8524
▁Смысл	-11.8524
▁отдалённы	-11.8525
▁загадка	-11.8525
▁обладал	-11.8528
▁постер	-11.8529
▁встречаться	-11.853
▁критическо	-11.853
▁француз	-11.8531
▁постоянн	-11.8531
▁первоначальн	-11.8533
▁разраста	-11.8534
▁Цен	-11.8535
▁склонность	-11.8536
▁диагност	-11.8537
▁обойти	-11.8537
▁произведен	-11.854
▁эффективна	-11.8541
чур	-11.8541
▁согласил	-11.8541
▁поглоща	-11.8541
▁1980-	-11.8542
▁уменьшение	-11.8545
▁швед	-11.8548
▁добавлен	-11.8549
▁зашл	-11.855
▁восхищени	-11.8551
▁обращаем	-11.8553
▁устойчив	-11.8553
берут	-11.8554
▁знайсц	-11.8554
▁замечательным	-11.8555
▁маю	-11.8555
▁падение	-11.8558
▁исполнитель	-11.8559
▁спеш	-11.8564
▁пещера	-11.8564
▁готовит	-11.8566
▁соединяют	-11.8568
▁Великобритани	-11.8569
▁поступк	-11.8569
▁дайте	-11.8571
▁самолёты	-11.8571
▁землетрясения	-11.8573
▁определен	-11.8574
▁неэффективны	-11.8575
▁замедлен	-11.8577
▁14-	-11.8581
▁остану	-11.8583
▁отличия	-11.8586
▁условие	-11.8587
▁неизбежны	-11.8587
▁крыша	-11.8593
▁медвед	-11.8596
▁производя	-11.8602
▁выраст	-11.8602
пачатк	-11.8602
▁набирает	-11.8605
▁магу	-11.8605
▁52	-11.8608
▁палк	-11.861
▁иллюзия	-11.8611
геев	-11.8612
▁толст	-11.8612
▁положен	-11.8612
▁двигателе	-11.8613
▁бросают	-11.8613
▁вращает	-11.8613
Ж	-11.8614
▁140	-11.8617
▁растительност	-11.8617
▁ферма	-11.8619
▁слежки	-11.8625
▁болезненны	-11.8626
▁останавливает	-11.8628
▁Линд	-11.8631
▁любимым	-11.8632
▁традиционным	-11.8635
▁открывал	-11.8635
▁насыщен	-11.8636
озо	-11.8637
RI	-11.8637
▁глухи	-11.864
▁зубов	-11.8641
▁заменил	-11.8645
бс	-11.8649
▁Международны	-11.865
тала	-11.8651
ритм	-11.8651
бирая	-11.8651
▁поглощает	-11.8656
▁цифровым	-11.8656
▁ўсім	-11.8657
▁вложения	-11.8659
▁приносил	-11.8659
▁Города	-11.866
▁перемена	-11.8661
▁выдающ	-11.8662
▁перемещени	-11.8663
▁субъективн	-11.8664
▁растениям	-11.8664
▁составит	-11.8668
▁страшн	-11.8671
▁дискуссия	-11.8674
▁цар	-11.8675
▁бунт	-11.8677
▁новаторск	-11.8679
▁таково	-11.868
▁рису	-11.8681
▁расизм	-11.8683
▁прыклад	-11.8684
▁применяют	-11.8686
▁Пример	-11.8686
ace	-11.8686
▁визуализации	-11.8689
▁повторю	-11.8692
▁выпал	-11.8692
гнут	-11.8692
пустил	-11.8692
▁черед	-11.8693
ловно	-11.8696
оставлять	-11.8702
▁зонд	-11.8704
▁древнег	-11.8704
▁прыжк	-11.8706
▁деревьям	-11.871
истическо	-11.8711
▁помещает	-11.8711
▁направлены	-11.8713
▁скучны	-11.8713
▁заботят	-11.8716
▁родитель	-11.872
▁распространены	-11.8721
▁невидимым	-11.8723
▁мощ	-11.8724
▁Эми	-11.8729
▁нагре	-11.8737
▁горны	-11.8738
▁заповед	-11.8739
▁малым	-11.874
▁учебно	-11.8741
▁поднят	-11.8742
▁пожарны	-11.8749
▁необычным	-11.8749
▁потребовало	-11.875
▁фабрика	-11.8751
▁ангел	-11.8753
▁Франк	-11.8753
регулировать	-11.8753
▁NAS	-11.8753
▁Граждан	-11.8753
▁Естественно	-11.8753
▁Множеств	-11.8753
▁Пенсильвани	-11.8753
▁гамбургер	-11.8753
▁индикатор	-11.8753
▁инфракрасн	-11.8753
▁каледж	-11.8753
▁манускрипт	-11.8753
▁неподалёку	-11.8753
▁неприемлем	-11.8753
▁основополагающ	-11.8753
▁промежуточн	-11.8753
▁репортаж	-11.8753
▁священно	-11.8753
▁сформулирова	-11.8753
▁фальшив	-11.8753
▁эгоистичн	-11.8753
▁Грэ	-11.8753
▁ерунд	-11.8753
▁невежеств	-11.8753
▁предотвраща	-11.8753
▁улавлива	-11.8753
▁капсул	-11.8753
▁цяпер	-11.8753
▁Мумба	-11.8753
пружин	-11.8753
▁отправляем	-11.8753
▁торжеств	-11.8753
▁экспресс	-11.8753
▁обуви	-11.8753
▁гениально	-11.8753
▁умственно	-11.8753
▁ныря	-11.8753
▁IQ	-11.8754
▁лёгка	-11.8754
▁лічы	-11.8754
[...]
