<unk>	0
<s>	0
</s>	0
<pad>	0
▁	-2.76132
▁,	-2.95435
▁.	-3.16941
і	-3.84173
я	-3.99345
й	-4.18131
е	-4.22171
ы	-4.27193
а	-4.31196
х	-4.40922
▁і	-4.50196
у	-4.54607
▁на	-4.64833
▁ў	-4.65292
м	-4.72083
▁з	-4.79646
(	-4.85028
▁—	-4.87232
▁)	-4.87417
▁у	-4.9042
;	-5.00325
▁&	-5.04462
ў	-5.05727
▁в	-5.15061
и	-5.22969
га	-5.25367
▁и	-5.34031
«	-5.34489
▁»	-5.34933
▁не	-5.36624
▁У	-5.41681
ць	-5.5324
ot	-5.55746
qu	-5.56183
цца	-5.6026
▁что	-5.66961
ю	-5.67736
▁да	-5.7306
ь	-5.75546
ся	-5.80487
-	-5.86396
▁:	-5.87476
a	-5.90501
аў	-5.91055
▁с	-5.9317
▁па	-5.94858
зе	-5.96163
▁за	-6.07786
pos	-6.10388
▁год	-6.16089
▁это	-6.18213
▁ад	-6.21351
▁для	-6.2408
▁мы	-6.30241
▁так	-6.32244
▁года	-6.4043
ую	-6.41536
▁по	-6.43182
о	-6.45833
▁што	-6.47374
мі	-6.49558
▁а	-6.54325
▁быў	-6.56477
▁как	-6.58395
▁19	-6.59944
т	-6.61593
го	-6.62257
▁И	-6.62267
▁Я	-6.65074
▁яго	-6.65618
ов	-6.66219
▁На	-6.67206
▁вы	-6.67452
▁г	-6.67588
▁я	-6.68735
▁як	-6.69619
▁З	-6.71174
к	-6.72367
▁С	-6.74362
▁?	-6.76117
▁из	-6.79779
▁было	-6.79887
▁А	-6.8003
то	-6.82248
ам	-6.82606
н	-6.8335
▁В	-6.87819
▁была	-6.89427
▁18	-6.90019
сама	-6.9015
▁то	-6.90495
▁к	-6.91429
ом	-6.94527
▁о	-6.97959
▁час	-6.98137
ак	-6.98403
▁якія	-6.98984
▁гэта	-6.99719
▁Это	-6.9981
▁які	-7.00333
оў	-7.02142
ла	-7.02492
▁аб	-7.05027
цы	-7.05582
с	-7.05607
ем	-7.0637
ён	-7.09993
ўся	-7.10425
▁пад	-7.11304
▁бы	-7.11905
▁от	-7.16377
на	-7.16584
▁они	-7.20525
ой	-7.20637
лі	-7.21144
▁км	-7.22755
ага	-7.23585
ка	-7.25086
▁2	-7.25235
лася	-7.25739
▁пры	-7.26284
ть	-7.27885
в	-7.3372
▁Но	-7.34079
ва	-7.34157
▁был	-7.34628
ми	-7.34654
▁но	-7.34918
▁Мы	-7.34961
▁горад	-7.37122
▁17	-7.38894
▁чтобы	-7.39281
ны	-7.4137
▁але	-7.41477
▁больш	-7.42524
▁-	-7.42972
це	-7.43565
ли	-7.44995
▁пра	-7.45595
▁15	-7.46976
o	-7.47276
▁пасля	-7.47748
▁якая	-7.48015
▁раз	-7.48246
▁3	-7.48642
▁об	-7.4906
▁1	-7.49945
▁каля	-7.49967
юць	-7.50562
I	-7.50656
▁когда	-7.5141
▁іх	-7.51798
ах	-7.52378
▁Беларус	-7.5355
▁он	-7.55028
былі	-7.55284
ай	-7.55612
▁или	-7.56264
з	-7.56846
амі	-7.57973
▁же	-7.58592
▁нас	-7.58705
▁яўляе	-7.60032
ле	-7.60916
▁тольк	-7.61319
▁вобласц	-7.61328
▁эти	-7.61349
▁все	-7.62037
▁П	-7.62816
▁их	-7.62836
▁іншы	-7.63178
▁раён	-7.63303
▁если	-7.63512
▁есть	-7.6377
ліся	-7.63777
▁Так	-7.64139
▁при	-7.64246
▁;	-7.64328
▁16	-7.65431
ет	-7.66143
▁яе	-7.66636
▁очень	-7.67635
▁которые	-7.67726
за	-7.68475
ая	-7.68614
л	-7.68879
ей	-7.69146
▁до	-7.69396
ных	-7.69845
▁або	-7.70249
▁гадоў	-7.70673
▁меня	-7.71152
▁Да	-7.72301
▁его	-7.7233
А	-7.73468
но	-7.74564
чы	-7.75159
▁может	-7.75626
▁краін	-7.7607
▁ст	-7.76415
▁дзе	-7.76957
да	-7.77393
▁10	-7.78515
кі	-7.78706
▁Пасля	-7.79283
▁Б	-7.79313
▁знаходзі	-7.80119
▁тэрыторы	-7.80355
▁Па	-7.81041
▁том	-7.81266
▁гэты	-7.82342
ную	-7.83206
▁мне	-7.84083
ами	-7.84621
▁лет	-7.85313
▁склад	-7.86339
між	-7.87092
▁4	-7.87124
▁са	-7.8864
ССР	-7.89516
та	-7.90225
▁Смех	-7.90458
▁20	-7.90598
▁всё	-7.91991
д	-7.93145
▁5	-7.93315
р	-7.93524
▁цэнтр	-7.94208
▁только	-7.94273
▁калі	-7.9495
▁над	-7.95545
ку	-7.9592
II	-7.96631
▁К	-7.96745
▁под	-7.98848
▁горада	-7.99144
▁тым	-7.99327
▁М	-8.00839
▁ці	-8.02444
му	-8.02462
▁про	-8.02707
▁раёна	-8.0353
▁14	-8.03825
▁насельніцтва	-8.04067
▁беларуска	-8.04789
юцца	-8.04879
▁I	-8.04976
ж	-8.05752
час	-8.05813
▁чалавек	-8.06066
▁людей	-8.06314
▁со	-8.06417
▁адзін	-8.06618
▁потому	-8.06625
▁того	-8.06656
▁чем	-8.07315
▁быть	-8.0799
▁просто	-8.08267
таго	-8.08646
▁складае	-8.09059
ст	-8.09182
▁больше	-8.10183
▁12	-8.10536
ная	-8.10725
▁стаў	-8.10739
▁вам	-8.11197
▁некалькі	-8.11794
▁частка	-8.12125
▁Вы	-8.12625
▁она	-8.13149
▁стагоддзя	-8.13977
▁пачатк	-8.14476
ки	-8.14548
ра	-8.14858
▁этого	-8.15271
сці	-8.15808
▁колькасц	-8.16614
▁месца	-8.16943
▁свет	-8.17031
▁стала	-8.17572
ч	-8.17672
▁праз	-8.17675
▁Они	-8.17873
не	-8.18575
▁вынік	-8.18701
▁ім	-8.18767
▁нам	-8.1877
▁мае	-8.20221
ют	-8.205
▁13	-8.20988
сць	-8.21319
▁6	-8.21552
вайны	-8.2197
▁который	-8.22268
▁без	-8.22488
▁два	-8.22831
▁вас	-8.22999
▁ты	-8.2366
▁якіх	-8.23858
ться	-8.23907
▁розны	-8.24051
▁этом	-8.24255
ло	-8.24418
▁во	-8.24558
▁где	-8.24723
▁Он	-8.25049
ль	-8.25132
п	-8.25215
▁першы	-8.25566
сли	-8.2596
▁можно	-8.26343
▁Расі	-8.26519
▁інш	-8.26784
▁вот	-8.26933
▁Не	-8.27131
▁время	-8.27216
▁За	-8.27421
▁люди	-8.29288
▁новы	-8.29382
э	-8.29454
ля	-8.29617
▁якой	-8.29843
яны	-8.30312
ок	-8.30459
гады	-8.30527
▁более	-8.30551
ной	-8.31205
▁8	-8.3152
б	-8.31819
▁ли	-8.32059
▁сваё	-8.32135
▁Гэта	-8.32436
▁ещё	-8.32452
▁которо	-8.32578
лись	-8.32628
шы	-8.33124
▁гэтым	-8.3369
▁ва	-8.33721
ца	-8.33884
.	-8.3391
▁там	-8.34393
▁будет	-8.34644
▁частк	-8.34654
▁перыяд	-8.35034
▁По	-8.35405
мовы	-8.35435
▁11	-8.36054
▁некаторы	-8.36153
▁тыс	-8.36218
▁Адна	-8.36507
▁Д	-8.3676
▁этот	-8.36929
▁них	-8.37183
те	-8.37304
▁част	-8.37318
▁культур	-8.37859
сь	-8.38079
▁её	-8.39155
▁Мінска	-8.3932
▁9	-8.394
▁гісторы	-8.39856
ты	-8.40028
яшчэ	-8.40299
▁ж	-8.40899
▁беларускі	-8.41063
▁7	-8.41254
▁тысяч	-8.41454
ры	-8.41591
▁перша	-8.41601
▁каб	-8.41657
ные	-8.41689
▁жа	-8.41985
ется	-8.42401
▁вайн	-8.42487
были	-8.42662
▁Вот	-8.42926
▁атрымаў	-8.43022
t	-8.43575
▁Вяліка	-8.43649
ш	-8.43731
▁б	-8.43835
ц	-8.44955
ен	-8.45644
▁Аплодисменты	-8.45784
▁много	-8.45867
ні	-8.46039
▁назва	-8.46235
▁складзе	-8.46435
▁гг	-8.46537
ко	-8.47154
▁студзен	-8.48117
▁І	-8.48223
▁...	-8.4831
▁30	-8.48444
ча	-8.48564
▁нужно	-8.49826
▁уже	-8.4984
▁даже	-8.49861
▁вяліка	-8.50273
▁Как	-8.5032
скай	-8.50707
▁сделать	-8.50708
▁супраць	-8.50774
▁можа	-8.50787
▁могу	-8.51126
скага	-8.5113
▁Пад	-8.51461
ства	-8.52226
▁форм	-8.52399
ўроп	-8.52624
▁кто	-8.5271
▁яна	-8.52729
▁якога	-8.53009
▁бо	-8.53631
▁снежн	-8.53728
ліку	-8.54063
же	-8.54118
▁Беларуска	-8.54133
▁адбы	-8.54164
▁ўсход	-8.54441
▁жизни	-8.54588
▁Р	-8.54683
ючы	-8.54858
▁Пры	-8.54965
разам	-8.55045
▁ліпен	-8.55191
▁тем	-8.5523
ным	-8.55238
сіх	-8.55251
▁дзяржав	-8.55514
▁Для	-8.55689
▁размешчаны	-8.55838
▁можем	-8.55958
▁дзейнасц	-8.56
▁вель	-8.5602
▁працяг	-8.56031
▁вядомы	-8.56073
най	-8.56079
▁жыхар	-8.56163
▁здесь	-8.56371
▁сакавік	-8.56802
▁само	-8.56825
ти	-8.57184
▁тут	-8.57266
ракі	-8.57531
▁гада	-8.57972
▁нет	-8.58348
жо	-8.5847
▁всего	-8.58709
ф	-8.58817
▁царкв	-8.59473
ру	-8.59588
▁себя	-8.59749
▁рух	-8.59755
ются	-8.59784
▁ўсё	-8.59873
▁вялікі	-8.60051
▁імперы	-8.60134
91	-8.60163
сти	-8.60526
▁поўнач	-8.60748
▁маю	-8.61212
▁Рэспублік	-8.61368
▁мора	-8.61373
▁права	-8.61383
▁один	-8.61824
1	-8.61854
сть	-8.61873
▁этой	-8.61874
▁кастрычнік	-8.62113
▁сейчас	-8.62119
скі	-8.62298
▁аднак	-8.62438
▁двух	-8.62561
▁якім	-8.62825
жа	-8.63103
тым	-8.64472
чынам	-8.64488
▁также	-8.64511
▁якое	-8.64812
▁павод	-8.65015
▁жыцця	-8.65079
▁мова	-8.65081
▁свай	-8.65158
прыклад	-8.65665
▁сям	-8.6569
▁захад	-8.6572
▁назад	-8.66184
лось	-8.66188
▁лістапад	-8.6625
▁Беларусь	-8.66268
▁сувяз	-8.66718
▁II	-8.66994
маль	-8.67075
г	-8.67243
s	-8.676
▁которая	-8.68414
▁від	-8.69107
▁пере	-8.69253
▁войска	-8.69281
▁самом	-8.69479
ный	-8.69491
ного	-8.69632
▁адным	-8.69695
са	-8.69941
▁якасц	-8.70077
▁возера	-8.70105
ого	-8.70248
▁Але	-8.70472
u	-8.70723
▁чэрвен	-8.708
▁сярод	-8.7122
▁сам	-8.71289
▁могут	-8.71882
▁Пав	-8.71916
▁чым	-8.72183
▁вёска	-8.7252
ве	-8.72543
ни	-8.72557
▁мая	-8.72609
▁вопрос	-8.72665
▁Когда	-8.72674
сваю	-8.72744
▁канцы	-8.72823
▁працы	-8.72904
▁т	-8.72936
▁вёск	-8.72969
▁свой	-8.73542
▁должны	-8.73703
одле	-8.73872
ша	-8.73889
можна	-8.74037
▁назв	-8.74417
▁п	-8.74457
крамя	-8.74485
ит	-8.74495
▁лічы	-8.74816
▁пасад	-8.75047
ить	-8.756
▁яўляю	-8.76341
ар	-8.76524
▁Польшч	-8.76601
ёй	-8.76677
▁25	-8.76678
▁другой	-8.76908
▁мир	-8.77489
▁всех	-8.77557
ин	-8.77842
▁деле	-8.78082
▁член	-8.78131
▁пачаў	-8.78289
▁100	-8.7883
▁таму	-8.79137
▁сваі	-8.79351
▁шэраг	-8.79385
▁сказал	-8.79638
▁груп	-8.79794
вер	-8.79799
▁яму	-8.79942
93;	-8.80113
▁парты	-8.80155
▁свои	-8.81048
ре	-8.81475
▁найбольш	-8.81859
▁хочу	-8.81885
▁чалавека	-8.81974
▁Г	-8.82141
▁сябе	-8.82146
▁000	-8.8235
▁пазней	-8.82629
▁думаю	-8.82778
▁рака	-8.82857
ці	-8.83092
ри	-8.8349
ста	-8.83718
▁эту	-8.8382
К	-8.84017
ну	-8.8411
▁н	-8.84263
▁Т	-8.84592
▁слова	-8.84957
▁верасн	-8.85403
▁жніўн	-8.85692
▁О	-8.85693
▁сабо	-8.86078
▁кніг	-8.86205
▁Л	-8.86245
▁навук	-8.86719
ём	-8.86834
па	-8.86845
▁сваім	-8.8712
▁мое	-8.87454
▁Она	-8.87894
▁кар	-8.88106
мове	-8.88219
▁значна	-8.8822
▁тып	-8.8831
▁этим	-8.88554
▁смерці	-8.88554
▁ё	-8.88729
лен	-8.8876
▁Германі	-8.8914
▁Итак	-8.89374
▁ліні	-8.89715
▁через	-8.89881
▁млн	-8.89882
Р	-8.90069
▁сын	-8.90316
▁50	-8.90751
▁вядома	-8.90754
▁красавік	-8.90813
ранцы	-8.90837
▁сіл	-8.914
▁ВКЛ	-8.91452
2	-8.91834
или	-8.91845
▁шмат	-8.92208
▁сельсавета	-8.92273
ал	-8.92348
▁человек	-8.92767
▁часта	-8.92791
лась	-8.92861
▁звычайна	-8.92919
▁месц	-8.93019
▁нацыянальна	-8.93193
▁которы	-8.93324
▁ц	-8.93382
▁многі	-8.93488
▁себе	-8.93658
першын	-8.93748
▁аснов	-8.94
вы	-8.94148
▁Маскв	-8.94228
▁развіцц	-8.9444
ё	-8.94462
▁самых	-8.94806
▁мастацтва	-8.94939
ди	-8.94944
▁літаратур	-8.94998
пример	-8.95156
чи	-8.95266
▁сусветна	-8.9545
▁менш	-8.95609
▁жизнь	-8.95751
▁адной	-8.95767
нага	-8.95832
▁Э	-8.9596
▁Расійска	-8.96086
▁выгляд	-8.9614
▁цяпер	-8.9632
▁несколько	-8.96541
▁плошч	-8.96772
▁нават	-8.96863
▁сталі	-8.97135
▁тры	-8.9722
▁делать	-8.9816
▁Заходня	-8.9822
▁пера	-8.98549
ход	-8.98573
▁году	-8.98595
▁працэс	-8.98623
че	-8.9896
он	-8.99018
до	-8.99184
▁часам	-8.99355
лся	-8.99508
▁дзяржаўны	-8.99516
▁лучше	-8.99623
▁Яго	-8.99684
об	-8.99895
▁после	-8.9991
41	-8.99966
▁поўдн	-9.00034
▁асабліва	-9.00176
▁сучасна	-9.00277
▁день	-9.00478
▁эта	-9.0066
▁мире	-9.00661
▁Спасибо	-9.01148
▁адна	-9.01462
▁пераважна	-9.0165
▁Гэты	-9.01668
▁закон	-9.02114
▁ни	-9.02419
▁самы	-9.02703
▁Паўночна	-9.02828
▁Калі	-9.03163
ил	-9.03172
▁действительно	-9.03399
▁паўночна	-9.03527
жи	-9.03549
▁дзеяч	-9.03574
ро	-9.03758
▁заста	-9.03761
▁дзяржаўна	-9.03853
▁вытворчасц	-9.03978
▁сістэм	-9.04316
▁возможно	-9.04335
▁такой	-9.046
▁им	-9.04641
▁времени	-9.05029
▁лют	-9.05193
вал	-9.05403
▁2008	-9.05605
▁сістэмы	-9.05966
працаваў	-9.06248
▁мяж	-9.06564
▁Аб	-9.06584
ор	-9.06806
▁стагоддз	-9.06818
▁арганізацы	-9.0697
▁барацьб	-9.07222
▁Рэчы	-9.07643
▁сістэма	-9.07726
▁колер	-9.0789
▁межа	-9.08042
ня	-9.08232
92	-9.0831
асць	-9.08523
▁шматлікі	-9.0858
ное	-9.08648
▁между	-9.08689
▁свае	-9.08815
ду	-9.08988
▁происходит	-9.0899
▁большасц	-9.09066
▁некоторы	-9.09136
▁Плошч	-9.09245
▁см	-9.09748
▁буйны	-9.09761
ер	-9.10289
▁паўднёва	-9.10378
▁40	-9.10379
▁дзень	-9.10653
ком	-9.10796
сяго	-9.108
▁сегодня	-9.10842
▁свец	-9.11179
▁2005	-9.11442
▁аднаго	-9.11626
▁дэ	-9.11994
▁Яна	-9.12087
▁сама	-9.12216
▁Ян	-9.1224
ту	-9.12248
▁образом	-9.12717
▁атрымала	-9.12839
▁нова	-9.12882
▁2007	-9.12966
ния	-9.13121
▁друг	-9.13178
пачатк	-9.13617
▁мог	-9.13776
сельніцтва	-9.13793
▁дзве	-9.13796
▁момент	-9.13897
▁перед	-9.14063
ан	-9.14132
▁2006	-9.14249
▁самым	-9.14389
▁армі	-9.14392
▁канца	-9.14408
▁котор	-9.14462
▁каждый	-9.14496
▁друго	-9.14541
цыі	-9.14767
▁цела	-9.14801
▁Віцебска	-9.14825
▁польска	-9.14849
▁вуліц	-9.14915
▁ваенны	-9.14965
▁меў	-9.14985
▁асноўным	-9.15027
от	-9.15092
ец	-9.15093
▁пол	-9.15142
▁шлях	-9.15284
▁апошні	-9.15515
21	-9.15566
▁свое	-9.1574
▁Паўднёва	-9.16213
ды	-9.16461
▁цэнтрам	-9.16642
▁ўсе	-9.17044
▁Ма	-9.17192
▁наш	-9.17479
▁сказать	-9.17532
▁тех	-9.17662
▁рас	-9.17756
▁першым	-9.17918
▁сярэдзін	-9.18215
▁хо	-9.18321
алкам	-9.18495
імя	-9.18844
▁почему	-9.18896
▁Першы	-9.1907
▁Паспаліта	-9.1907
▁паверхн	-9.19267
▁2009	-9.19372
ви	-9.19495
▁Перша	-9.19525
▁галін	-9.19992
▁именно	-9.20166
мер	-9.20176
▁агульна	-9.20521
зна	-9.20572
▁стварэнн	-9.20576
▁адбыва	-9.20611
▁асноўны	-9.20641
▁прамысловасц	-9.20667
▁палов	-9.20743
▁яўля	-9.20823
▁завод	-9.20904
▁Мінску	-9.2113
▁школы	-9.21166
▁работы	-9.2135
▁сво	-9.21693
▁одна	-9.2171
▁такі	-9.21718
▁является	-9.21754
ями	-9.21781
▁людзей	-9.21794
▁других	-9.21932
▁народа	-9.21955
▁мой	-9.22049
▁наша	-9.22067
▁руска	-9.22305
▁теперь	-9.22332
▁род	-9.22336
▁могли	-9.22394
▁прыток	-9.22414
▁рэк	-9.22568
▁детей	-9.22801
▁человека	-9.22842
▁мои	-9.22853
▁Як	-9.22968
▁створаны	-9.23169
▁Горад	-9.23271
▁всегда	-9.23289
по	-9.23415
лося	-9.23512
▁трох	-9.23537
эр	-9.23554
▁перад	-9.23643
▁палітычны	-9.23765
▁адміністрацыйны	-9.23802
▁Уваходзі	-9.23811
▁Нью	-9.23851
▁наступны	-9.23855
▁краіна	-9.23962
▁Там	-9.2401
▁наши	-9.24039
ном	-9.24086
ши	-9.24186
▁Поэтому	-9.24214
63	-9.24215
▁те	-9.2427
▁24	-9.24301
вады	-9.24302
▁1918	-9.24417
рэ	-9.24449
▁мэта	-9.24648
▁То	-9.24711
▁пункт	-9.24897
боку	-9.24904
▁никогда	-9.24989
▁кампані	-9.25128
▁вместе	-9.2517
дзень	-9.25173
▁шырын	-9.25233
▁зноў	-9.25273
ще	-9.25483
▁нашей	-9.25662
▁тое	-9.25748
▁жывёл	-9.25914
▁пример	-9.2613
юсь	-9.26475
▁гонар	-9.26557
▁Во	-9.2688
▁часть	-9.27034
▁працу	-9.27111
▁Украін	-9.27119
16	-9.27129
▁2010	-9.27369
▁дадзены	-9.27482
▁21	-9.27523
▁кіраўніцтва	-9.27554
мен	-9.27579
▁пачалі	-9.27603
▁павета	-9.27614
▁пока	-9.27623
67	-9.2765
▁зон	-9.27824
вых	-9.27911
▁Мне	-9.28072
▁тэрмін	-9.28107
▁займае	-9.28276
26	-9.28419
▁будут	-9.28453
ба	-9.28501
▁шырока	-9.28533
ска	-9.28557
▁Зямл	-9.28588
тор	-9.28622
либо	-9.28714
▁добра	-9.28736
▁способ	-9.28928
▁знаходзя	-9.28967
чу	-9.29006
12	-9.29115
▁дом	-9.29143
▁матэрыял	-9.29501
▁28	-9.29508
▁использовать	-9.29704
▁ваенна	-9.29881
▁жыццё	-9.29976
▁2000	-9.30175
ое	-9.30339
▁улад	-9.30367
▁три	-9.30478
▁22	-9.30551
▁важно	-9.30836
▁тогда	-9.3091
▁артыкул	-9.30964
▁момант	-9.31157
▁афіцыйна	-9.31277
дзячы	-9.31387
ёт	-9.31418
▁структур	-9.31498
▁будаўніцтва	-9.31592
▁губерні	-9.31839
видите	-9.31991
▁план	-9.32019
▁станцы	-9.32025
▁Вялікі	-9.32306
▁сярэдня	-9.32317
42	-9.32708
▁такое	-9.32786
▁выкарыстоўвае	-9.32931
▁такие	-9.3294
ными	-9.33035
▁Пра	-9.33059
▁палітычна	-9.33117
▁якую	-9.33231
▁2004	-9.33501
▁Літв	-9.33526
во	-9.34087
ировать	-9.3421
енавіта	-9.34325
▁вещи	-9.34462
ель	-9.34539
▁23	-9.3473
бо	-9.34906
▁метра	-9.34946
▁княства	-9.35015
22	-9.35142
▁Мінск	-9.35161
▁27	-9.35174
▁ко	-9.3519
▁него	-9.3522
▁потом	-9.35268
▁нацыянальны	-9.35613
▁суд	-9.35658
▁ўз	-9.35807
▁лишь	-9.35858
▁Мо	-9.36293
▁Одна	-9.36325
14	-9.36338
▁тэоры	-9.36355
▁Праз	-9.36435
си	-9.36567
▁створана	-9.36584
ролю	-9.36637
▁караля	-9.36692
▁абарон	-9.36809
тер	-9.36907
▁моцна	-9.37086
▁тот	-9.372
ас	-9.37223
▁важны	-9.37461
▁палітык	-9.37472
ння	-9.37526
58	-9.37661
бер	-9.37819
▁рускі	-9.37934
▁пабудаваны	-9.37967
▁1944	-9.37992
▁дома	-9.38013
59	-9.38031
▁плошча	-9.38134
▁ер	-9.38144
▁раслін	-9.38222
гу	-9.38353
▁хутка	-9.38379
еще	-9.38442
▁200	-9.38482
▁ўлад	-9.38719
▁бок	-9.3872
▁асобны	-9.38728
▁раней	-9.38778
из	-9.38878
мову	-9.38885
би	-9.39089
▁народна	-9.39145
▁сталіца	-9.39261
ние	-9.39343
▁2-	-9.39447
▁прадстаўнік	-9.39476
▁незалежнасц	-9.39819
48	-9.39823
▁вышын	-9.39896
▁Італі	-9.399
▁віда	-9.39905
▁змен	-9.39994
▁наших	-9.40073
▁такім	-9.40112
▁галоўным	-9.40141
▁чаго	-9.40161
роду	-9.40184
▁знаю	-9.40273
74	-9.40324
69	-9.40399
атым	-9.40512
▁выпадк	-9.40572
вод	-9.40724
▁немного	-9.40776
▁26	-9.40779
▁ничего	-9.40838
▁нямецка	-9.41157
▁эпох	-9.41471
▁ўдзел	-9.41617
▁буду	-9.41695
▁таварыства	-9.4175
▁затем	-9.41764
▁друга	-9.41834
▁последни	-9.4185
ци	-9.41891
▁паўднёвы	-9.41953
ения	-9.41955
▁говорит	-9.42005
37	-9.4206
▁іншым	-9.42068
▁рэгіён	-9.42129
▁истории	-9.42322
▁характар	-9.42392
▁дзяржава	-9.42637
▁прыватна	-9.42644
88	-9.42701
▁інша	-9.42723
пл	-9.42764
▁прэзідэнта	-9.42965
34	-9.43106
▁бера	-9.43119
▁высока	-9.43359
▁стал	-9.43383
▁Теперь	-9.43394
▁брат	-9.4342
▁князя	-9.43475
▁хорошо	-9.43524
▁мела	-9.43534
▁дзяце	-9.43538
▁Даўж	-9.43539
ыня	-9.43633
де	-9.43762
▁1919	-9.43817
▁дапамога	-9.43823
▁Мікала	-9.43896
▁мелі	-9.44068
▁мира	-9.44096
▁1939	-9.44104
▁паўночны	-9.44433
▁миллион	-9.44603
▁таким	-9.44651
▁понять	-9.44652
▁конечно	-9.44652
▁твора	-9.44716
▁Ад	-9.44719
ят	-9.44724
гле	-9.44828
▁любо	-9.44962
▁Найбольш	-9.45116
▁таких	-9.4523
▁проблема	-9.45303
▁акруг	-9.45372
▁Азі	-9.45517
▁ўрад	-9.45617
▁работа	-9.45687
▁перш	-9.45717
23	-9.45723
▁Дж	-9.45842
▁мясцовы	-9.45863
▁Літоўска	-9.45929
ство	-9.45977
▁около	-9.46017
ение	-9.46031
раз	-9.46074
▁будзе	-9.46173
▁хотел	-9.46183
▁разны	-9.46241
▁кіраванн	-9.46484
плыў	-9.46619
забав	-9.46652
▁Парыж	-9.46777
▁праца	-9.46781
▁басейн	-9.46912
▁ответ	-9.47269
46	-9.47284
▁народ	-9.4736
вать	-9.47399
тоже	-9.47604
▁знаете	-9.47624
32	-9.47644
▁месяц	-9.4768
стра	-9.47734
81	-9.47766
▁знаем	-9.47876
▁вёс	-9.479
▁развіццё	-9.47972
▁творчасц	-9.47983
▁тэрыторыя	-9.48048
▁60	-9.48051
бы	-9.48053
▁нарадзі	-9.48058
▁галоўна	-9.48124
ахадзе	-9.48173
▁1917	-9.48385
▁размешчана	-9.48484
▁удзел	-9.48499
чале	-9.48702
▁Все	-9.4872
▁бацьк	-9.48733
▁аўтар	-9.48777
06	-9.48835
▁прычын	-9.48848
▁пре	-9.48925
▁верш	-9.48965
▁оно	-9.49042
▁нямецкі	-9.49134
▁Друго	-9.49375
▁одной	-9.494
▁ні	-9.49507
▁гор	-9.49514
▁выкарыстоўва	-9.49526
▁адносін	-9.49577
▁прыкладна	-9.4959
▁штат	-9.49635
▁другие	-9.4979
▁результат	-9.49867
▁усе	-9.49878
▁1-	-9.49915
пи	-9.49993
▁Беларускі	-9.50085
емся	-9.50086
▁1920	-9.50115
▁азёр	-9.50163
▁езд	-9.5026
▁гарадо	-9.50264
▁польскі	-9.50342
▁ём	-9.50395
ров	-9.50536
▁поэтому	-9.50703
▁галоўны	-9.50736
ман	-9.50939
▁проект	-9.50952
▁войскам	-9.50978
▁ідэ	-9.51067
ярод	-9.51178
▁чего	-9.51182
▁дзён	-9.51286
▁правы	-9.51294
▁ля	-9.51436
▁сучасны	-9.51606
▁маці	-9.51727
▁называю	-9.51789
▁цэнтральна	-9.51883
▁альбо	-9.5193
▁бітв	-9.51961
▁долларов	-9.51974
▁твор	-9.51993
ос	-9.52112
амак	-9.52179
▁ступен	-9.52336
сколько	-9.52361
▁работу	-9.52408
▁правінцы	-9.52672
ков	-9.52761
ете	-9.52816
род	-9.52883
лу	-9.52916
нне	-9.5298
▁помощью	-9.53084
▁снова	-9.53157
▁група	-9.5316
▁прызначаны	-9.53207
▁место	-9.5321
▁звязаны	-9.53337
▁даўжын	-9.53361
бр	-9.53401
▁падзе	-9.53423
▁ма	-9.53489
▁справа	-9.53561
▁спадчын	-9.53636
▁пачат	-9.53751
ически	-9.53784
▁возможность	-9.53787
▁идея	-9.53866
куль	-9.53891
▁кожна	-9.53926
▁паход	-9.53927
▁Ка	-9.53983
▁навуковы	-9.5402
▁найти	-9.54165
чных	-9.54466
▁орган	-9.54475
▁одно	-9.54531
вой	-9.54653
▁значэнне	-9.54744
ев	-9.54845
▁ему	-9.54856
17	-9.54905
▁создать	-9.54912
▁статус	-9.54914
▁кожны	-9.54939
▁старажытны	-9.54951
▁нар	-9.54974
▁ўніверсітэта	-9.55011
▁французска	-9.55027
05	-9.55062
13	-9.55079
гл	-9.55126
▁савецкі	-9.55173
лю	-9.55245
▁процесс	-9.55256
ности	-9.5527
▁магчыма	-9.55343
▁скончыў	-9.55368
▁Адзін	-9.55466
зямлі	-9.55529
▁земл	-9.55609
цкі	-9.55653
гульні	-9.55709
▁проблемы	-9.56097
ус	-9.5611
▁Н	-9.56116
▁помнік	-9.56128
▁пор	-9.56186
▁р	-9.56226
▁значны	-9.56247
▁Саюза	-9.56318
▁мм	-9.56347
▁поў	-9.56471
▁адміністрацыйна	-9.56522
▁адносна	-9.566
▁Аляксандр	-9.56737
лы	-9.56762
▁перамог	-9.5678
▁мноства	-9.56815
▁которым	-9.56837
▁прэмі	-9.5724
пол	-9.57246
▁дня	-9.57481
▁Потому	-9.5752
▁Рым	-9.57561
бач	-9.5769
▁рэвалюцы	-9.57695
▁усход	-9.57715
бл	-9.57818
▁другі	-9.5783
ги	-9.58025
08	-9.58177
рацэ	-9.58186
▁памёр	-9.58428
▁збор	-9.58511
▁земля	-9.58549
гр	-9.58787
▁праблем	-9.58855
▁жанчын	-9.58895
▁стать	-9.58963
▁Быў	-9.59062
▁складаю	-9.59139
▁каждо	-9.59196
кор	-9.59218
▁случае	-9.593
ите	-9.59367
▁Савецка	-9.59393
▁гарадско	-9.59397
▁Савета	-9.59445
▁пред	-9.59451
▁беларус	-9.59471
▁абраны	-9.59632
▁дзеяння	-9.59677
мат	-9.59806
Б	-9.59847
▁женщин	-9.59977
▁БН	-9.60064
▁знак	-9.60091
▁КП	-9.60091
36	-9.60122
▁первы	-9.60201
▁1991	-9.60222
▁2011	-9.60228
али	-9.60237
▁мозг	-9.60291
▁выбара	-9.60314
У	-9.60318
▁крыніц	-9.60385
▁начал	-9.60452
▁дзейніча	-9.60583
▁Эти	-9.60757
со	-9.6077
▁дзяку	-9.60788
▁школа	-9.60874
07	-9.60915
вай	-9.60917
▁больша	-9.60918
▁1990	-9.6093
▁курс	-9.60953
▁школе	-9.60987
11	-9.61083
▁мозга	-9.61102
▁школу	-9.61194
гра	-9.612
▁2001	-9.61332
▁Вільн	-9.6136
нибудь	-9.61389
прав	-9.61487
энтральна	-9.61527
▁29	-9.61559
▁Почему	-9.61648
▁гістарычны	-9.61659
▁выступа	-9.6168
ейчас	-9.61696
▁гістарычна	-9.61756
▁данные	-9.61769
▁лік	-9.61949
▁князь	-9.61993
▁дело	-9.62102
▁заснаваны	-9.62103
▁моя	-9.62126
09	-9.62132
колькі	-9.62168
▁паўночным	-9.62316
▁делает	-9.62394
▁навукова	-9.62439
▁работает	-9.62476
▁выбар	-9.62536
▁прямо	-9.62616
▁выкарыстоўваю	-9.62621
▁сродк	-9.62651
Г	-9.62715
▁сельска	-9.62887
▁будын	-9.62905
▁падзел	-9.62956
▁имеет	-9.62994
▁2002	-9.63064
▁500	-9.63179
тар	-9.63282
▁При	-9.6331
▁клуб	-9.63321
творы	-9.63405
ис	-9.63428
▁зямл	-9.63436
▁апошня	-9.63467
▁достаточно	-9.635
▁выраб	-9.63529
▁проста	-9.63553
▁течение	-9.63634
▁2003	-9.63661
▁рост	-9.63705
дзе	-9.6381
▁Тут	-9.63918
тр	-9.63968
вар	-9.64029
юю	-9.64047
▁котором	-9.64048
▁1945	-9.64079
▁грамадска	-9.64087
▁востра	-9.64111
▁загад	-9.6415
▁Аўтар	-9.64272
▁актыўна	-9.64306
▁ўніверсітэт	-9.64316
▁факт	-9.64384
бор	-9.64491
своей	-9.64504
▁пісьменнік	-9.64527
▁замежны	-9.64581
▁почти	-9.64805
▁астрав	-9.64813
▁узроўн	-9.64845
▁праходзі	-9.64884
бра	-9.65009
▁працавал	-9.65028
▁шлюб	-9.65118
скім	-9.65196
96	-9.65214
▁80	-9.65235
ность	-9.6528
▁мас	-9.65461
▁справ	-9.65539
▁Гродзенска	-9.6559
▁сталіц	-9.65648
▁Лі	-9.65658
▁работать	-9.65697
▁чал	-9.65716
▁прынцып	-9.65754
▁увидеть	-9.6579
▁Са	-9.65821
▁адрозніва	-9.65866
кой	-9.6587
▁должен	-9.6588
▁вакол	-9.65916
▁поўна	-9.65969
▁паўднёвым	-9.66014
▁значит	-9.66044
▁Нам	-9.66108
▁технологии	-9.66132
▁какой	-9.66189
▁Ну	-9.66441
▁всем	-9.66533
▁Пазней	-9.66602
эн	-9.66977
льны	-9.67013
▁адзінка	-9.67025
тады	-9.67051
▁замка	-9.67062
▁Асноўны	-9.67154
ник	-9.67154
▁будынка	-9.67215
▁1999	-9.67255
▁існавал	-9.67271
▁Ня	-9.67338
▁гарадскі	-9.67429
▁паэт	-9.67473
▁надо	-9.67485
95	-9.67567
93	-9.67573
сты	-9.67671
▁становішча	-9.67686
▁людз	-9.67722
пор	-9.6775
▁касцёл	-9.67788
▁эканамічна	-9.67794
лов	-9.67882
зи	-9.67885
▁чатыр	-9.67906
▁музык	-9.68021
▁количество	-9.68086
▁войск	-9.68199
▁сялян	-9.68228
▁Вялікабрытані	-9.68255
▁паселішча	-9.68369
▁правіла	-9.68507
ясь	-9.68537
▁планеты	-9.68543
▁даследавання	-9.6863
▁Нова	-9.68982
▁паходжанн	-9.69307
▁многие	-9.69361
▁Больш	-9.69418
▁1940	-9.69719
чна	-9.69793
▁цяперашні	-9.69829
▁музей	-9.69864
▁думк	-9.69869
▁стали	-9.69895
▁кажет	-9.69925
▁Усходня	-9.69937
▁ды	-9.6995
▁Такім	-9.70117
ырвона	-9.70293
▁Некаторы	-9.70298
год	-9.70308
▁1930	-9.70313
▁Скончыў	-9.70366
▁говорил	-9.70402
▁Віленска	-9.70477
▁усё	-9.70511
▁грамадства	-9.70677
▁канал	-9.70725
▁1943	-9.7074
дзі	-9.70786
сабе	-9.70877
▁300	-9.70904
▁вярну	-9.70936
▁сезон	-9.70959
▁видим	-9.71019
▁ме	-9.7103
▁быстро	-9.71109
▁Нацыянальна	-9.71158
▁кіраўнік	-9.71272
▁форма	-9.71273
▁размяшча	-9.7129
▁гара	-9.71306
▁тэмпература	-9.71322
▁часы	-9.71402
▁рэгіёна	-9.71407
нд	-9.7148
▁Давайте	-9.71532
▁прыняў	-9.71587
▁Адміністрацыйны	-9.71625
▁та	-9.7164
▁групп	-9.71642
▁дзяржаў	-9.71656
▁імператара	-9.71663
▁невялікі	-9.71708
▁партыя	-9.71733
▁сямейства	-9.71776
▁ўзроўн	-9.72019
кс	-9.7203
▁Заснаван	-9.72037
18	-9.72271
▁показать	-9.72313
▁народны	-9.72366
▁людям	-9.72391
▁песн	-9.72431
00	-9.72437
▁месяца	-9.72453
▁карыста	-9.72459
пу	-9.72496
▁палац	-9.72569
▁перво	-9.72571
ешь	-9.72648
▁савецка	-9.72655
▁жыў	-9.72681
▁прэм	-9.72746
▁карол	-9.72775
▁прырод	-9.72787
▁чаргу	-9.72892
кры	-9.73093
▁меньше	-9.7317
▁штата	-9.73199
04	-9.73293
ает	-9.73467
▁мясцова	-9.73493
стро	-9.73608
С	-9.73686
▁практычна	-9.73749
▁выйшл	-9.73808
▁адкрыты	-9.73815
лет	-9.73822
▁архітэктур	-9.73887
▁кра	-9.73962
ски	-9.7405
▁пачынае	-9.74135
▁сад	-9.74256
▁заснавана	-9.74314
▁Нарадзі	-9.74331
▁камун	-9.74365
▁система	-9.74372
чны	-9.74407
▁белы	-9.7449
▁Тольк	-9.74532
скую	-9.74696
▁две	-9.74738
ыми	-9.74837
▁Был	-9.7485
▁вуліца	-9.74877
войскі	-9.74889
▁адносі	-9.75105
▁філасофі	-9.75319
▁значы	-9.75325
▁прынята	-9.7533
ше	-9.75406
▁чыгуначна	-9.75416
роде	-9.75486
▁комплекс	-9.75522
дать	-9.75563
▁сцяг	-9.75574
▁крыніца	-9.75588
▁няма	-9.75605
▁існуе	-9.75613
▁ўсім	-9.75633
▁рэспублік	-9.75649
▁застава	-9.75818
▁150	-9.75839
дер	-9.7586
▁будынк	-9.76121
▁Про	-9.76152
пад	-9.76168
▁хто	-9.76182
▁начали	-9.76281
▁изменить	-9.7633
▁звязана	-9.76348
шего	-9.76515
▁акіяна	-9.76548
доўж	-9.76556
▁1924	-9.76782
▁всему	-9.76953
ваны	-9.76975
▁часто	-9.77003
▁грамадскі	-9.77065
▁весь	-9.77139
ран	-9.77191
▁Гродн	-9.77215
▁этому	-9.77219
тся	-9.77264
▁Лондан	-9.77315
▁совершенно	-9.7733
▁оста	-9.77333
нос	-9.77349
▁ф	-9.77391
▁акадэмі	-9.77392
▁рашэнне	-9.77399
▁лес	-9.77468
▁высокі	-9.77517
▁Ты	-9.77535
дел	-9.77551
▁ваше	-9.77599
▁новага	-9.77663
▁паходзі	-9.77818
▁своё	-9.77818
▁право	-9.77826
3	-9.77858
аль	-9.77879
▁прэзідэнт	-9.77983
ща	-9.78141
▁необходимо	-9.78154
▁саюз	-9.78206
▁Кар	-9.78447
▁Нет	-9.7853
▁гаспадарк	-9.78535
▁кан	-9.78546
▁пачала	-9.78553
дал	-9.78642
▁французскі	-9.78668
про	-9.78747
▁Інды	-9.78774
▁наше	-9.78786
▁рак	-9.78787
ать	-9.78813
▁слишком	-9.78852
▁рук	-9.78894
▁цар	-9.78904
▁вострава	-9.79078
▁заходня	-9.79098
▁англійска	-9.79124
▁Ва	-9.79168
▁Гомельска	-9.79216
98	-9.79238
▁займаў	-9.79268
▁кірунк	-9.79322
▁ведь	-9.79355
▁кошт	-9.79372
стан	-9.79438
ская	-9.79447
▁генерал	-9.79554
▁залежнасц	-9.79561
бі	-9.79562
▁ста	-9.79574
▁говорить	-9.79716
▁сына	-9.79834
▁совсем	-9.79871
▁стане	-9.79895
▁паўстання	-9.7997
▁членам	-9.80041
▁станцыя	-9.80045
▁одного	-9.80104
ол	-9.80108
ана	-9.80121
▁Амерык	-9.80192
даволі	-9.80211
▁гульня	-9.80224
место	-9.80329
▁видео	-9.80367
ваў	-9.80432
▁пытання	-9.80443
тан	-9.80476
▁атрад	-9.80607
▁Сярэдня	-9.8069
▁жыцц	-9.80695
ющие	-9.80702
▁функцы	-9.80726
▁пачало	-9.8079
▁ня	-9.80866
▁Маскоўска	-9.8091
▁расійскі	-9.8093
▁части	-9.80937
весь	-9.80973
▁мало	-9.80988
▁Кіта	-9.81053
▁собой	-9.81123
▁праграм	-9.81127
▁літоўска	-9.81216
сі	-9.81226
▁вялікім	-9.81233
▁спіс	-9.81261
▁примерно	-9.81416
▁вялік	-9.8146
▁часопіс	-9.8149
▁правінцыя	-9.81574
▁Брэсцка	-9.81581
▁Новы	-9.81607
▁крэпасц	-9.81651
▁стары	-9.8183
▁системы	-9.81831
p	-9.81893
▁воды	-9.81991
54	-9.82088
▁герб	-9.8209
ап	-9.82227
пісаў	-9.82253
▁рэчыва	-9.82292
ведаў	-9.82316
▁видеть	-9.82358
тель	-9.82475
▁спраў	-9.82498
▁гарады	-9.82507
▁Англі	-9.82544
▁княз	-9.8257
▁вид	-9.82597
иться	-9.82647
▁страны	-9.82741
▁атрымал	-9.82743
▁магчымасць	-9.82759
раб	-9.82814
▁довольно	-9.82821
▁уз	-9.82844
ова	-9.8286
▁Магілёўска	-9.82911
▁ре	-9.82918
▁31	-9.82944
▁1998	-9.82956
▁газеты	-9.8296
▁сами	-9.82968
▁фронт	-9.82975
▁асоб	-9.83084
▁парк	-9.83085
лад	-9.83157
▁ўрада	-9.83157
66	-9.83165
▁падобны	-9.83226
▁Об	-9.83589
десь	-9.83631
▁Аляксандра	-9.83644
нии	-9.83732
▁тэатр	-9.8379
нь	-9.83858
▁конкурс	-9.83887
▁многих	-9.83995
▁вокруг	-9.84123
▁сделали	-9.84163
ностью	-9.84204
▁Пачына	-9.84319
▁проблем	-9.84359
▁миру	-9.84396
весці	-9.84404
▁ваяводства	-9.84423
72	-9.84532
веце	-9.84651
ним	-9.84827
▁Эта	-9.84907
▁тытул	-9.84918
64	-9.84964
▁гэту	-9.85041
▁стан	-9.85138
▁міжнародны	-9.8516
▁пыта	-9.85172
▁1994	-9.85213
▁ліча	-9.85316
ции	-9.85362
▁зрабіў	-9.85373
▁складала	-9.85377
▁эксперимент	-9.85421
▁1989	-9.85651
▁велічын	-9.85655
▁кон	-9.85734
▁ее	-9.85798
▁внимание	-9.85847
цтва	-9.85922
▁Ле	-9.85931
▁пісьменніка	-9.85985
▁гімназі	-9.86067
▁служб	-9.86192
кон	-9.86283
нг	-9.86311
▁причин	-9.86419
вен	-9.86448
▁1996	-9.86456
▁говорят	-9.86486
▁фільм	-9.86511
▁адукацыі	-9.86619
▁своим	-9.86823
▁ново	-9.86945
лог	-9.86979
▁явілі	-9.8705
▁прадстаўніко	-9.87099
▁1995	-9.87118
▁Всё	-9.87227
▁края	-9.87254
вали	-9.87283
▁информации	-9.87286
10	-9.87297
▁карт	-9.87354
▁подумал	-9.87434
▁1938	-9.87457
хотим	-9.87468
89	-9.87489
▁адначасов	-9.87524
▁пару	-9.87535
таў	-9.87583
гі	-9.87605
▁сто	-9.87645
столько	-9.87651
▁арганізацыя	-9.87709
▁1993	-9.87788
94	-9.87798
▁Айчынна	-9.87815
▁моў	-9.87823
▁ўваходзіл	-9.87834
▁70	-9.87855
▁конце	-9.87915
▁Іспані	-9.87915
▁даследчык	-9.87916
▁жонка	-9.87934
▁гадзін	-9.87941
▁Та	-9.88091
▁процент	-9.88124
▁часткова	-9.88134
▁обычно	-9.88199
▁клас	-9.885
І	-9.88535
йти	-9.88581
▁этап	-9.88581
▁создал	-9.88584
ёў	-9.88734
▁камп	-9.88785
▁сакратар	-9.88801
ёды	-9.88805
▁внутри	-9.88855
ическо	-9.88914
▁существует	-9.88937
▁делают	-9.88955
▁імператар	-9.88985
▁Тым	-9.89053
▁меж	-9.89092
▁Полацка	-9.89143
▁сабор	-9.89283
▁Каля	-9.89294
ала	-9.89386
ющих	-9.89394
пе	-9.89404
▁манастыр	-9.89441
30	-9.89445
стаў	-9.89465
▁Ко	-9.89527
▁стоит	-9.89552
▁история	-9.8957
щи	-9.89604
▁цен	-9.89619
▁губерня	-9.8982
▁каманд	-9.89852
▁1997	-9.8987
▁различны	-9.89887
сел	-9.89892
▁плямён	-9.89909
▁праект	-9.9013
▁адносяц	-9.90189
▁телефон	-9.90229
означает	-9.90309
▁храм	-9.90358
▁верхня	-9.90446
▁праводзі	-9.90491
▁Уладзімір	-9.9052
▁стороны	-9.90532
▁получить	-9.90581
▁шляхам	-9.90759
▁минут	-9.90795
▁запіс	-9.90809
▁доўгі	-9.90865
▁называе	-9.91069
йте	-9.91102
▁міжнародна	-9.91127
▁населены	-9.91199
▁находит	-9.91208
▁Ме	-9.91235
▁доступ	-9.91272
ющий	-9.91278
▁інстытут	-9.91293
▁Ба	-9.91301
▁Люд	-9.91467
▁адзіна	-9.91543
▁исследования	-9.91656
▁ўвайшл	-9.91688
▁мяжу	-9.91853
эт	-9.91994
▁вярнуў	-9.92032
99	-9.92043
▁Усе	-9.92244
ужо	-9.92264
П	-9.92301
▁дынасты	-9.92357
▁зборнік	-9.92427
▁опер	-9.92442
▁фон	-9.925
каў	-9.92514
oo	-9.9262
▁кампанія	-9.92632
▁1927	-9.92877
▁сделал	-9.92891
дразу	-9.92951
▁людьми	-9.93025
Н	-9.93032
ской	-9.9338
▁мор	-9.9339
▁дух	-9.93393
▁компьютер	-9.93399
ирован	-9.93408
▁данных	-9.93436
▁От	-9.93437
▁бераг	-9.93457
▁Княства	-9.93469
сельскагаспадарч	-9.93499
▁пакінуў	-9.93541
▁эканомік	-9.93602
▁Андрэ	-9.9362
▁энергии	-9.93649
▁праваслаўна	-9.93678
▁сильно	-9.93691
▁особенно	-9.93786
▁амерыканскі	-9.93812
ирует	-9.94035
узор	-9.94149
▁астравы	-9.94186
▁новые	-9.94249
▁стст	-9.9425
▁карцін	-9.94309
▁рассказать	-9.94336
▁душ	-9.94381
▁поспех	-9.94408
▁Пол	-9.9444
▁кіраўніко	-9.94504
след	-9.94529
▁Пятр	-9.94608
▁дети	-9.94615
▁адлегласц	-9.94622
▁поле	-9.94633
▁распаўсюджаны	-9.94693
▁адкрыта	-9.94705
▁Расія	-9.94714
нят	-9.94768
▁бацька	-9.94775
▁выхад	-9.94801
▁начала	-9.94882
▁историю	-9.9489
уд	-9.94901
▁суб	-9.94932
▁Больша	-9.94954
▁рода	-9.94958
▁павінны	-9.94983
дава	-9.95099
▁места	-9.95125
83	-9.95169
▁падтрымк	-9.95225
▁трэці	-9.95343
▁Сан	-9.9546
▁прадпрыемства	-9.95461
▁рэлігійны	-9.95532
82	-9.95582
▁развіва	-9.95644
▁ляс	-9.9565
▁решения	-9.95725
▁павінна	-9.9577
ают	-9.95806
▁мастак	-9.95851
▁напісаў	-9.95877
▁Го	-9.95887
78	-9.96043
▁сем	-9.9613
▁Сегодня	-9.96145
▁паступова	-9.96148
▁против	-9.96335
▁зале	-9.96352
▁программ	-9.96402
лежыць	-9.96416
▁адно	-9.96467
▁сут	-9.96471
▁должно	-9.96476
пал	-9.96476
▁павет	-9.9673
▁раўнін	-9.96744
▁Дзяржаўна	-9.96808
ид	-9.96974
▁мястэчка	-9.97001
ден	-9.97007
▁гаспадар	-9.97035
ровень	-9.97059
76	-9.97099
се	-9.97102
ско	-9.9713
овать	-9.97182
ню	-9.9721
▁элемент	-9.97234
віч	-9.97238
85	-9.97429
▁вами	-9.97435
тра	-9.97443
▁стран	-9.97482
▁стало	-9.97514
▁рэформ	-9.97556
вид	-9.97612
▁хотя	-9.97637
▁музея	-9.97679
▁сложно	-9.97693
▁90	-9.9774
▁всю	-9.97753
▁плане	-9.97777
АН	-9.97793
маглі	-9.97827
▁банк	-9.97843
ступіў	-9.97863
▁мала	-9.97864
▁явіла	-9.97917
20	-9.97927
▁выбор	-9.9793
▁города	-9.97957
▁пабудавана	-9.9796
▁ноч	-9.9798
лом	-9.98125
▁цячэнн	-9.98128
▁літоўскі	-9.98169
▁одну	-9.98239
▁ген	-9.98279
▁версі	-9.98362
рк	-9.98373
▁Мары	-9.98507
77	-9.98526
рат	-9.98553
▁Знаходзі	-9.98612
▁лёгка	-9.98612
▁Га	-9.9864
▁До	-9.98756
▁глыбін	-9.98776
▁расійска	-9.98811
ват	-9.9893
▁смерц	-9.9895
▁люты	-9.98973
▁тэмператур	-9.99015
▁такая	-9.99102
▁Рымска	-9.99123
▁чём	-9.99124
зы	-9.99141
▁становит	-9.99167
▁точно	-9.9927
▁тэатра	-9.99274
▁незалежна	-9.99334
▁д	-9.99341
▁мужчын	-9.99513
▁вострав	-9.9966
▁глеб	-9.99828
▁фонд	-9.99846
73	-9.99945
нес	-9.9997
▁газета	-10
▁1960	-10.0007
▁де	-10.0008
▁форму	-10.0016
▁воласц	-10.0016
▁Іван	-10.0019
раж	-10.002
▁Аўстралі	-10.0021
▁компании	-10.0034
▁35	-10.004
фа	-10.0049
▁найбуйнейшы	-10.0049
▁інфармацы	-10.0052
лер	-10.0054
▁Нацыянальны	-10.0057
▁неё	-10.0057
▁памяц	-10.0057
▁буд	-10.0059
▁постоянно	-10.006
▁літаратурна	-10.0065
▁стварыў	-10.0066
рад	-10.0067
▁Акадэмі	-10.0076
▁атрыма	-10.0081
трэба	-10.0084
▁гандл	-10.0087
▁канчаткова	-10.0089
▁пераход	-10.009
68	-10.009
ости	-10.0099
▁следующи	-10.0109
▁войн	-10.0113
ально	-10.0115
▁Можн	-10.0118
▁Варшав	-10.012
▁існаванн	-10.0129
▁Афрык	-10.013
84	-10.0137
▁заўс	-10.014
▁кого	-10.0144
шча	-10.0154
▁азначае	-10.0157
▁перайшл	-10.0167
▁раман	-10.0169
▁апыну	-10.0171
▁звук	-10.0174
ёр	-10.019
▁Раз	-10.0192
▁2013	-10.0197
▁ект	-10.02
▁згадвае	-10.0203
▁пабудов	-10.0208
▁сказала	-10.0216
падае	-10.0219
▁задач	-10.0224
▁увидел	-10.0231
▁горны	-10.0238
▁выкарыстанн	-10.0238
▁2012	-10.0238
▁меры	-10.024
▁беларуск	-10.0247
нка	-10.0256
▁помоч	-10.0269
▁1925	-10.0269
▁арганізацый	-10.027
тельно	-10.0272
▁каза	-10.0279
▁ДНК	-10.0283
▁запас	-10.0288
▁канфлікт	-10.0289
▁адпаведна	-10.029
▁перадач	-10.0296
ского	-10.0299
▁изменения	-10.0304
▁ту	-10.0306
▁деньги	-10.031
ели	-10.0313
▁Дэ	-10.0318
▁большой	-10.032
▁представить	-10.0325
▁дрэва	-10.0332
▁Польска	-10.0341
▁газ	-10.0345
▁1929	-10.0347
кра	-10.0351
▁возможности	-10.0353
▁прыняты	-10.0353
▁часопіса	-10.0354
оп	-10.0356
▁стварэнне	-10.0358
▁жанр	-10.0362
▁нумар	-10.0374
▁дзеля	-10.0376
▁код	-10.038
сон	-10.0383
менее	-10.0383
▁Сонца	-10.0387
▁гл	-10.0389
▁серы	-10.0395
▁благодаря	-10.0396
лады	-10.0404
▁уверен	-10.0411
▁Ла	-10.0412
▁адрозненне	-10.042
▁паэта	-10.0435
▁супольнасц	-10.044
▁интерес	-10.0442
▁берага	-10.0445
▁зрения	-10.0453
▁400	-10.0454
▁Назва	-10.0455
бу	-10.0463
ван	-10.0473
▁пазіцы	-10.0474
▁далін	-10.0478
▁называет	-10.048
▁машын	-10.0486
▁выкарыстанне	-10.0486
80	-10.0493
вляются	-10.0494
проч	-10.0496
▁пост	-10.0504
▁перапіс	-10.0508
▁Конечн	-10.051
▁ним	-10.051
ись	-10.0513
сы	-10.0515
спе	-10.0516
вую	-10.0516
▁належа	-10.0516
▁станові	-10.0519
▁раздзел	-10.0522
▁маі	-10.0529
▁былы	-10.0529
▁1000	-10.0541
▁еўрапейскі	-10.0543
▁паветра	-10.0545
75	-10.0546
▁армія	-10.0548
▁Св	-10.0549
25	-10.0553
▁дела	-10.0556
▁размер	-10.0557
чно	-10.0559
▁точки	-10.0559
▁рэжым	-10.056
▁Сярэдні	-10.056
▁трэця	-10.056
▁зараз	-10.0563
▁новым	-10.0564
▁начинает	-10.057
эй	-10.0571
▁цэнтра	-10.0579
▁варыянт	-10.0579
▁характэрны	-10.0588
▁мере	-10.0608
▁названы	-10.0611
▁начать	-10.0615
▁міністра	-10.062
▁свабод	-10.0621
▁транс	-10.0621
▁Сусветна	-10.0624
▁каралё	-10.0627
▁мной	-10.0633
жыць	-10.0634
ому	-10.0635
▁Турцы	-10.0638
▁понял	-10.0642
▁вышынё	-10.0642
▁Со	-10.0647
▁адсутнасц	-10.0655
▁ўваходзі	-10.0659
▁асаблівасц	-10.0661
▁пераклад	-10.0663
▁гісторык	-10.067
▁просты	-10.0676
▁стылі	-10.0686
▁говорю	-10.0696
рон	-10.0703
ний	-10.0707
▁опыт	-10.0708
М	-10.0709
▁иметь	-10.0711
▁будем	-10.0719
▁атрыманн	-10.0725
▁образ	-10.0731
ист	-10.0736
▁эканамічны	-10.0742
▁традыцы	-10.0748
▁магутнасц	-10.0755
спо	-10.0758
▁Карл	-10.076
▁оказа	-10.0761
53	-10.077
▁цяжка	-10.0771
▁1931	-10.0776
▁екта	-10.0776
▁множество	-10.0777
▁ўнутраны	-10.0778
▁Ра	-10.0785
▁спроб	-10.0787
▁такого	-10.0788
▁млрд	-10.079
▁город	-10.0801
▁сп	-10.0807
▁выдання	-10.0809
▁1962	-10.0817
Пецярбург	-10.082
шчэ	-10.0822
▁горазд	-10.0831
▁напрамк	-10.0841
▁факультэт	-10.0851
чную	-10.0853
▁информацию	-10.0859
▁решение	-10.086
▁жывапіс	-10.0873
▁женщины	-10.0878
▁храма	-10.0881
тры	-10.0884
ось	-10.0889
▁Карла	-10.089
▁Рэспубліка	-10.0892
▁робі	-10.0896
▁заканчэнн	-10.09
▁сможем	-10.09
▁хуткасц	-10.0903
▁культурны	-10.0916
▁вывуча	-10.0918
▁правёў	-10.092
▁вад	-10.0921
▁прав	-10.0927
▁невяліка	-10.0939
▁фактычна	-10.0942
▁камітэта	-10.0949
▁большинство	-10.0951
щё	-10.0957
▁Таким	-10.0967
тро	-10.0967
at	-10.0968
49	-10.097
▁мастацка	-10.0974
пер	-10.098
▁рука	-10.0989
спа	-10.0991
▁спросил	-10.0997
▁должна	-10.0998
ятся	-10.0999
нёс	-10.1001
▁яднання	-10.1008
▁1928	-10.1009
тельны	-10.1009
▁нашем	-10.1018
жу	-10.1018
дж	-10.102
жы	-10.1021
▁пачынаю	-10.1026
▁паэзі	-10.1027
▁гарада	-10.1031
90	-10.1032
▁ліпені	-10.1036
▁павін	-10.1037
▁кароткі	-10.104
▁выйшаў	-10.104
▁парадк	-10.1041
▁Мі	-10.1045
▁лагер	-10.1049
▁кг	-10.1056
▁інстытута	-10.1057
ранцыя	-10.1058
▁прац	-10.1061
кро	-10.1063
▁метад	-10.107
▁вещей	-10.107
▁инструмент	-10.1083
кую	-10.1083
ву	-10.1085
▁важна	-10.1094
▁Может	-10.1096
льных	-10.1096
▁пяць	-10.1099
▁граф	-10.1103
▁рамках	-10.1112
▁зборна	-10.1114
▁0	-10.1114
▁наяўнасц	-10.112
▁дзеянн	-10.1127
▁сацыяльна	-10.1127
▁Джон	-10.113
▁універсітэц	-10.1139
▁уплыва	-10.1142
▁старажытна	-10.1176
вин	-10.1177
сце	-10.119
▁верасні	-10.1192
▁равно	-10.1196
▁подход	-10.1197
▁дарог	-10.1199
вёў	-10.12
▁канферэнцы	-10.1202
▁заходні	-10.1204
▁Германія	-10.1225
▁каталіцка	-10.1236
▁ник	-10.1236
▁идеи	-10.1239
нее	-10.1247
косны	-10.1251
▁князёў	-10.1254
▁роўна	-10.1255
▁ними	-10.1255
▁другом	-10.1256
▁основ	-10.1274
▁бес	-10.1275
▁рынк	-10.1279
▁Грэцы	-10.1282
▁сэнс	-10.1282
▁афіцыйны	-10.1284
▁приходит	-10.1289
▁ордэна	-10.1294
▁традыцыйна	-10.1296
▁ўдзельніча	-10.1298
▁пара	-10.1301
ится	-10.1305
▁непасрэдна	-10.1311
▁размяшчае	-10.1314
▁слово	-10.1316
▁нами	-10.1317
войны	-10.1329
▁Раза	-10.1337
▁жонк	-10.1337
▁вышэйша	-10.134
▁камісі	-10.1344
31	-10.1349
▁другім	-10.1351
▁четыре	-10.1352
▁ніжэй	-10.1365
▁систему	-10.1366
▁зямель	-10.1366
▁салдат	-10.1368
шн	-10.1369
будзь	-10.1369
▁сацыяльны	-10.1374
▁жніўні	-10.1377
▁ваши	-10.1377
▁взять	-10.1378
▁спасибо	-10.1383
▁45	-10.1386
▁адпаведнасц	-10.1386
▁нов	-10.139
▁выглядит	-10.1393
ость	-10.1395
▁туда	-10.1398
▁Санк	-10.1399
▁работаю	-10.1403
▁вышыня	-10.1404
овой	-10.1407
65	-10.1408
71	-10.141
▁удзельніча	-10.1413
▁дзейнічал	-10.1418
▁лічыў	-10.1424
▁птуш	-10.1427
▁перайшоў	-10.1428
Д	-10.1431
▁грамадзян	-10.1432
орошо	-10.1434
▁воз	-10.1435
▁вышэй	-10.1435
▁вусц	-10.1438
▁класа	-10.1446
▁вымушаны	-10.1456
рэш	-10.146
гор	-10.1461
так	-10.1467
энтр	-10.147
▁взгляд	-10.1471
чит	-10.1473
▁Из	-10.1479
▁Ар	-10.1482
▁імкну	-10.1485
57	-10.1491
▁стране	-10.1498
▁Или	-10.15
▁грош	-10.15
чная	-10.1501
▁Згодн	-10.1502
▁нечто	-10.1502
▁намного	-10.1516
▁Польшча	-10.1519
▁уваходзі	-10.1523
▁хвароб	-10.1524
▁звестк	-10.1527
▁вывучэнн	-10.1532
▁верагодна	-10.1535
▁доме	-10.1536
29	-10.1537
▁імі	-10.1541
▁нравит	-10.1541
86	-10.1541
метр	-10.1543
▁лучши	-10.1544
▁помощи	-10.1544
▁раньше	-10.1544
▁замест	-10.1556
▁посмотреть	-10.1559
▁странах	-10.1562
▁вод	-10.1573
▁жить	-10.1574
цаў	-10.1581
лён	-10.1584
▁нашу	-10.1587
▁вообще	-10.1589
▁1980	-10.159
▁интересно	-10.1591
▁сход	-10.1592
▁Усход	-10.1595
▁чатырох	-10.1604
▁яно	-10.1604
▁ўяўляе	-10.1609
▁заліва	-10.161
ень	-10.1611
уп	-10.1625
▁эры	-10.1627
▁старшын	-10.163
▁красавіку	-10.1633
▁куда	-10.1637
▁1,5	-10.1639
▁расход	-10.1639
35	-10.1641
смотря	-10.1643
▁пэўны	-10.1643
▁нужны	-10.1644
▁магчымасц	-10.1647
▁мір	-10.1648
▁бизнес	-10.1648
▁принцип	-10.1648
▁музыка	-10.1649
рам	-10.165
▁здольнасц	-10.1652
▁вызначае	-10.1653
▁прынял	-10.166
▁экспедыцы	-10.166
▁1970	-10.1663
▁падстав	-10.1664
правда	-10.1665
вают	-10.1665
▁ціск	-10.1679
▁клетки	-10.168
▁Размешчан	-10.1683
▁тысячагоддзя	-10.1685
усім	-10.169
▁атмасфер	-10.1697
▁займа	-10.1715
▁второ	-10.1718
что	-10.1718
▁норм	-10.1723
еры	-10.1723
▁водна	-10.1727
аркв	-10.1728
▁выклікал	-10.173
▁сімвал	-10.1731
нул	-10.1738
▁считаю	-10.1742
▁делаем	-10.1749
▁спосаб	-10.175
▁вышэйшы	-10.1752
ект	-10.1757
▁1954	-10.1758
ились	-10.1764
▁дазваляе	-10.1778
▁1975	-10.1784
▁левы	-10.1785
▁астатні	-10.1787
▁бібліятэк	-10.1788
▁фильм	-10.1797
▁собственно	-10.1799
нные	-10.1799
▁задача	-10.1801
▁цвет	-10.1804
нию	-10.1806
▁адказ	-10.1811
▁1986	-10.1813
▁месцам	-10.1819
фи	-10.1821
▁вадазбор	-10.1823
▁Гр	-10.1824
менно	-10.1826
▁вучылішча	-10.1828
▁далей	-10.1835
▁смогл	-10.1841
▁працуе	-10.1842
▁фізік	-10.1844
▁эффект	-10.1844
▁чорна	-10.1845
служыў	-10.1853
▁хотят	-10.1854
ент	-10.1858
▁пути	-10.1858
▁святы	-10.1859
▁Рас	-10.186
▁кніга	-10.1863
▁имеют	-10.1863
▁Ин	-10.1866
▁подобны	-10.1866
▁Бог	-10.1868
▁явіў	-10.1872
▁музычны	-10.1872
▁матэматык	-10.1874
55	-10.1875
дут	-10.1876
▁ўсходня	-10.1886
ек	-10.1886
▁БД	-10.1894
▁иног	-10.1899
▁моё	-10.1901
▁какие	-10.1904
▁збро	-10.1906
тебя	-10.1908
▁марскі	-10.1911
▁ліст	-10.1911
▁малады	-10.1913
▁рыб	-10.1916
лон	-10.192
▁першапачаткова	-10.1921
▁блок	-10.1923
▁каралеўства	-10.1925
она	-10.1931
▁произошло	-10.194
▁тра	-10.1942
▁еўрапейска	-10.1943
40	-10.1946
▁наступ	-10.1947
ила	-10.1951
ант	-10.1951
▁трыма	-10.1953
лин	-10.1954
▁океан	-10.1956
▁работ	-10.1967
▁чырвона	-10.1968
▁замк	-10.197
▁Бо	-10.197
▁Народна	-10.1983
▁маса	-10.1991
▁Друг	-10.1994
▁асобы	-10.1997
▁Рады	-10.1998
▁грамадзянска	-10.2006
▁ин	-10.2009
▁Наша	-10.2015
▁мясцовасц	-10.2019
▁бела	-10.2027
▁1956	-10.2027
од	-10.2027
▁прыхільнік	-10.2027
ских	-10.2029
15	-10.2029
▁флот	-10.2029
▁літар	-10.2031
▁Те	-10.2032
▁кіламетра	-10.2034
▁кола	-10.2039
▁старо	-10.2039
▁сетк	-10.205
▁значэння	-10.2057
ара	-10.2057
▁палаца	-10.2058
▁асабіста	-10.206
▁ніко	-10.206
▁дагавор	-10.2068
▁акт	-10.2076
▁малы	-10.2087
▁пасёл	-10.2095
▁хімічны	-10.2095
▁гук	-10.21
▁голов	-10.21
▁набор	-10.2104
▁интернет	-10.2107
▁лінія	-10.2107
▁згодна	-10.2111
▁палас	-10.2116
▁Вярхоўна	-10.2122
▁Кольк	-10.2123
говорим	-10.2124
▁месте	-10.2125
ский	-10.2131
▁вобраз	-10.2131
▁Куб	-10.2143
▁вода	-10.2144
▁называ	-10.2145
▁званы	-10.2147
▁ваш	-10.2151
97	-10.2155
▁чэрвені	-10.2158
▁ответил	-10.2158
▁школ	-10.2162
дальше	-10.2164
▁гандлёвы	-10.2165
▁защит	-10.2178
47	-10.2186
70	-10.2189
▁ўжыва	-10.219
▁поля	-10.2191
▁чэмпіянат	-10.2191
▁Свято	-10.2192
▁адпавяда	-10.2193
▁прадстаўлены	-10.2201
▁акцёр	-10.2202
▁месяцев	-10.2203
19	-10.2207
60	-10.2209
▁рада	-10.2212
▁дні	-10.2213
ена	-10.2213
▁сур	-10.2214
▁социальны	-10.2224
▁прайшл	-10.2226
друг	-10.2226
цка	-10.2229
▁огромно	-10.2229
▁рабочы	-10.2235
▁Кто	-10.2246
при	-10.2247
▁баз	-10.2247
▁источник	-10.2248
чным	-10.225
▁жыву	-10.225
56	-10.2252
▁працава	-10.2253
▁итог	-10.2254
▁Русі	-10.2258
▁1976	-10.2266
5	-10.2269
▁старшыня	-10.2285
▁сіла	-10.2286
▁напр	-10.2287
▁долго	-10.2292
▁сколько	-10.2297
▁модель	-10.2297
▁бак	-10.2303
▁сустракае	-10.231
▁видели	-10.2311
▁амерыканска	-10.2312
▁спустя	-10.2312
▁области	-10.2312
,5	-10.2315
▁глаза	-10.232
▁думать	-10.232
▁перв	-10.2321
▁Зате	-10.2335
▁баявы	-10.2354
▁мост	-10.2355
▁мільёна	-10.2359
▁Нарвегі	-10.236
ично	-10.2368
ред	-10.2372
▁камітэт	-10.2372
▁наступным	-10.2383
▁сустракаю	-10.2385
▁галав	-10.2389
▁1915	-10.239
▁доўга	-10.2401
знать	-10.2407
▁Возможно	-10.2408
▁Гомел	-10.2409
▁тон	-10.241
▁дробны	-10.2412
▁шырокі	-10.2416
▁культура	-10.242
▁пытанн	-10.2424
нов	-10.244
▁горы	-10.244
▁калгас	-10.2441
▁крайне	-10.2443
▁Самы	-10.2443
жылі	-10.2446
▁Агульна	-10.2457
▁летапіс	-10.2458
▁1966	-10.2461
▁татар	-10.2462
▁лаборатори	-10.2464
▁2014	-10.2466
▁двум	-10.2467
▁праекта	-10.2469
▁маёнтк	-10.247
▁герба	-10.247
▁адносіна	-10.2471
▁1950	-10.2471
▁бедны	-10.2474
▁элементы	-10.2476
▁займаю	-10.2484
нні	-10.2499
▁патрэб	-10.2503
▁цэлым	-10.2503
▁разнастайны	-10.2506
▁прывял	-10.2506
▁невероятно	-10.2506
жны	-10.2507
▁аперацы	-10.2508
▁музе	-10.2511
▁среди	-10.2531
▁готов	-10.2532
▁календар	-10.2538
▁сцяга	-10.2539
▁забіты	-10.2545
▁рэлігі	-10.2562
▁Саюз	-10.2563
▁Японі	-10.2567
▁улада	-10.2568
кру	-10.2571
▁кампазіцы	-10.2571
▁1985	-10.2573
▁уровень	-10.258
▁плын	-10.2589
▁яўрэя	-10.2593
▁арыштаваны	-10.2597
39	-10.2601
▁напісаны	-10.2604
▁Івана	-10.2608
▁3-	-10.2611
▁дачк	-10.262
▁пытанне	-10.262
▁плохо	-10.262
45	-10.2626
33	-10.2631
▁стандарт	-10.2631
▁уровне	-10.2643
▁клімат	-10.2653
рок	-10.2653
▁намеснік	-10.2661
▁человеческо	-10.2661
▁пункта	-10.2667
▁даследаванн	-10.2668
шта	-10.2673
▁Працава	-10.2673
▁Радзівіл	-10.2681
щих	-10.2682
▁стагоддзяў	-10.2683
▁Венгры	-10.2685
▁1935	-10.2685
▁элемента	-10.2688
▁званне	-10.2696
▁Пецярбург	-10.27
▁прывяло	-10.2702
▁животных	-10.2703
▁Армі	-10.2704
▁пр	-10.2711
▁занима	-10.2712
▁рэштк	-10.2713
ёс	-10.272
▁Музыка	-10.2724
▁вопросы	-10.2725
▁клуба	-10.2732
▁Ленін	-10.2735
▁сферы	-10.274
▁вежа	-10.2742
▁ўласна	-10.2755
44	-10.2759
▁Паўночны	-10.2761
▁дазволіл	-10.2762
тон	-10.2762
▁ўзбярэжжа	-10.2764
▁удар	-10.2766
▁легко	-10.2771
▁собственны	-10.2771
▁моцны	-10.2781
▁аддзел	-10.2786
образ	-10.2787
▁працягласц	-10.2792
▁зрабі	-10.2792
▁1965	-10.2802
▁пастаянна	-10.2803
вала	-10.2803
▁сельсавет	-10.2805
чер	-10.2807
▁пераеха	-10.281
▁оп	-10.281
▁заняў	-10.2812
▁асобна	-10.2814
▁населения	-10.2817
87	-10.2818
▁Гісторы	-10.282
▁футбаліст	-10.282
▁касцёла	-10.282
▁Кон	-10.2828
▁мест	-10.283
▁правядзенн	-10.2835
▁большое	-10.2838
▁памер	-10.2842
▁сярэднім	-10.2847
▁аддзела	-10.2847
▁1957	-10.2852
▁мадэл	-10.2854
▁харчова	-10.2854
нём	-10.286
ир	-10.2863
▁пражыва	-10.2863
▁Мар	-10.2864
▁прафесар	-10.2864
вага	-10.2866
ётр	-10.2867
▁1933	-10.2867
ственн	-10.2869
▁Тогда	-10.2871
▁1978	-10.2872
думать	-10.2876
▁круг	-10.288
▁говоря	-10.2881
▁адукацыю	-10.2887
▁кое	-10.2897
▁правильно	-10.2898
орна	-10.2902
▁Галоўна	-10.2904
▁1982	-10.2906
▁Радзівіла	-10.2909
▁рымска	-10.2914
коў	-10.2918
▁тела	-10.2918
▁маленьки	-10.2919
▁Першапачаткова	-10.2921
▁1984	-10.2922
▁самастойна	-10.2925
▁культурна	-10.2927
едэрацы	-10.2937
▁хотите	-10.2938
▁параўнанн	-10.2941
▁удалос	-10.2946
хотели	-10.2952
▁пять	-10.2954
▁зроблены	-10.2955
лены	-10.2955
▁след	-10.2961
ина	-10.2967
▁існую	-10.2969
вецы	-10.298
▁слов	-10.2983
▁звычайны	-10.2991
▁1979	-10.3001
▁денег	-10.3006
рас	-10.3007
▁дапамог	-10.3008
▁літаратурны	-10.301
28	-10.3013
▁яднанне	-10.3015
▁заснаваў	-10.3018
▁1968	-10.3024
▁далейшы	-10.3026
▁одним	-10.3027
▁стара	-10.304
▁Апошні	-10.304
▁Сама	-10.3045
няў	-10.3047
▁600	-10.3047
▁дасягае	-10.3047
▁186	-10.3048
▁Галоўны	-10.3051
▁кры	-10.3053
▁агульны	-10.3057
▁склаў	-10.3058
етесь	-10.3059
▁багаты	-10.306
▁ба	-10.306
▁шаг	-10.3061
▁грэчаска	-10.307
чат	-10.3072
▁решили	-10.3074
▁вещь	-10.3075
ота	-10.3079
▁1972	-10.3079
▁энергіі	-10.3081
▁ўлада	-10.3082
▁стол	-10.3083
давно	-10.3085
▁будущем	-10.3093
▁праваслаўны	-10.3096
▁Буд	-10.31
▁імперыя	-10.3103
▁дакладна	-10.3109
▁био	-10.3109
▁вос	-10.311
▁друку	-10.311
ог	-10.3111
три	-10.3112
▁ўмова	-10.3114
▁валода	-10.3116
▁выява	-10.3116
▁После	-10.3116
▁Интернет	-10.3127
▁дачыненн	-10.3127
знают	-10.3132
▁вызваленн	-10.3132
▁загінул	-10.3135
▁общества	-10.3138
▁пераваг	-10.3142
▁Асноўна	-10.3142
▁работал	-10.3145
▁Аўстры	-10.3149
▁справе	-10.3163
▁яднаны	-10.3167
▁камен	-10.3174
ству	-10.3181
▁пар	-10.3182
▁стыл	-10.3183
▁умова	-10.3184
▁решил	-10.3186
▁Ман	-10.3195
▁1949	-10.3196
▁Один	-10.3198
авіч	-10.3198
▁песня	-10.3199
ходзе	-10.3199
▁гурт	-10.32
▁выда	-10.3203
▁драўляны	-10.3205
▁создания	-10.3209
▁цара	-10.3211
▁период	-10.3212
▁духоўна	-10.3213
В	-10.3218
▁складаны	-10.3226
▁дос	-10.3232
нуть	-10.3234
▁полно	-10.3236
▁прысвечаны	-10.324
▁1961	-10.3248
рыста	-10.3259
выя	-10.3262
▁склала	-10.3266
ела	-10.3268
▁Купал	-10.3269
▁1964	-10.327
▁дакумента	-10.3282
говорили	-10.3286
арт	-10.3296
ника	-10.3297
льзя	-10.33
▁захаваліся	-10.331
▁падзяля	-10.331
▁транспарт	-10.3318
▁важным	-10.3319
▁прамысловы	-10.3319
▁сярэдні	-10.332
піс	-10.3321
▁вес	-10.3323
▁свобод	-10.3333
▁італьянскі	-10.3334
▁універсітэта	-10.3338
▁2015	-10.3341
▁абвясціў	-10.3344
▁ўваходз	-10.3351
▁тип	-10.3353
цкага	-10.3358
нс	-10.3361
▁дасягнул	-10.3362
▁ўладанн	-10.3364
▁каменны	-10.3364
▁вядзе	-10.3366
адну	-10.3366
сень	-10.3368
▁наибол	-10.3369
▁сёння	-10.3372
▁роўны	-10.3372
▁прадукцы	-10.3373
▁выключна	-10.3382
ющая	-10.3389
шла	-10.3394
▁целы	-10.3395
▁класс	-10.3398
орак	-10.3401
▁сум	-10.3402
▁1947	-10.3405
▁наконец	-10.3408
▁Дзякую	-10.3408
▁вучыў	-10.3428
нный	-10.3434
▁чырвоны	-10.3435
▁мо	-10.3441
ром	-10.3446
▁адрознівае	-10.3446
▁знать	-10.3449
▁знойдзены	-10.3461
▁Бела	-10.3463
щие	-10.3463
чь	-10.3464
▁часов	-10.3464
▁1910	-10.3465
▁развития	-10.3466
▁АН	-10.3467
▁Африке	-10.3469
овая	-10.3469
▁сцен	-10.3471
▁пустын	-10.3472
▁гісторыя	-10.3473
▁ніжня	-10.3477
▁будов	-10.3478
езд	-10.3491
▁пачалас	-10.3493
▁1971	-10.3496
▁Дзяржаўны	-10.3497
▁спорт	-10.3506
▁Мінскі	-10.3508
▁прошлом	-10.3512
▁трудно	-10.3514
▁Индии	-10.3515
нная	-10.3516
▁лета	-10.3521
▁продаж	-10.3523
▁обо	-10.3525
▁лацінска	-10.3526
ладу	-10.3527
▁чорны	-10.3527
▁число	-10.3529
▁давайте	-10.3533
лізу	-10.3539
тобы	-10.3542
▁экономик	-10.3544
▁дизайн	-10.3547
▁порт	-10.3549
▁Сібір	-10.3556
раст	-10.3565
▁л	-10.3567
▁футбол	-10.3568
▁Сярге	-10.3569
▁выяўлены	-10.3572
ходят	-10.3584
▁Тэрыторы	-10.3587
▁идёт	-10.3587
▁путь	-10.3591
▁існаванне	-10.3599
▁4-	-10.3603
канец	-10.3605
▁абсолютно	-10.3605
▁1973	-10.3607
▁выса	-10.3609
▁используют	-10.3609
ющей	-10.3613
▁верхні	-10.3613
▁связи	-10.3619
вагу	-10.362
▁другим	-10.3626
▁риск	-10.3627
стер	-10.3636
▁ападка	-10.364
▁женщина	-10.3649
▁Уладзіміра	-10.3649
▁існава	-10.365
27	-10.3655
▁нескольки	-10.366
▁нізкі	-10.366
▁паэм	-10.3665
▁выклада	-10.3673
▁абавязк	-10.3681
▁Дз	-10.3683
▁смысл	-10.3686
▁кіраваў	-10.3689
▁манет	-10.3698
▁наступна	-10.37
стати	-10.37
▁сумесна	-10.3704
▁Дом	-10.3706
верс	-10.3707
▁бібліятэка	-10.3709
▁ўзрос	-10.3711
▁Амеры	-10.3714
ены	-10.3718
вол	-10.3718
▁саюза	-10.3722
▁миллиардов	-10.3722
Т	-10.3725
▁прадпрыемств	-10.3729
▁канструкцы	-10.3729
▁Савет	-10.373
▁прыватны	-10.3731
▁працоўны	-10.3734
▁галас	-10.3734
▁нахіл	-10.3736
▁вирус	-10.374
▁каштоўнасц	-10.3745
тэр	-10.3746
дз	-10.3751
▁выкарыстоўвалі	-10.3751
▁фільма	-10.3751
▁Бр	-10.3751
▁будущее	-10.3752
▁хрысціянства	-10.3752
▁рэдка	-10.3756
▁музыку	-10.3764
▁ос	-10.3767
УП	-10.3768
▁Представь	-10.377
смысле	-10.3771
▁1977	-10.3772
▁дадзена	-10.3773
▁Сам	-10.3773
▁савета	-10.3774
▁прапанаваў	-10.3775
▁Папа	-10.3776
▁Паўла	-10.3783
▁Вядомы	-10.3789
анс	-10.3797
цей	-10.3803
сво	-10.3804
▁отношения	-10.3807
АТ	-10.3807
шка	-10.3807
нер	-10.3808
▁лепш	-10.3815
▁нашим	-10.3817
▁верша	-10.3819
▁насякомы	-10.3826
▁Кажды	-10.3829
твор	-10.383
ках	-10.383
▁папулярнасц	-10.3834
ируют	-10.3834
нут	-10.3837
▁метод	-10.3839
▁асноўна	-10.3843
▁жыве	-10.3845
▁Маці	-10.3849
▁пэўна	-10.3852
▁цыкл	-10.3857
▁Некоторы	-10.3863
▁служы	-10.387
ставить	-10.3874
дет	-10.3876
▁качестве	-10.3879
▁немц	-10.3886
▁Бога	-10.3893
изм	-10.39
▁супрацоўніцтв	-10.39
могла	-10.3902
▁парад	-10.3905
▁органа	-10.391
▁значэнн	-10.3911
▁виду	-10.3912
▁рэльеф	-10.3919
▁тур	-10.3921
чески	-10.3921
▁Каб	-10.3925
▁свята	-10.3928
▁работе	-10.3928
▁выкананн	-10.393
учи	-10.3931
▁обратно	-10.3934
▁беларускім	-10.3934
▁Існу	-10.3946
▁имею	-10.3948
▁гра	-10.3952
ез	-10.3953
▁гэтак	-10.3958
▁Дняпр	-10.3958
▁бяспек	-10.3966
ключаючы	-10.3967
нта	-10.397
▁используем	-10.3975
▁Вуліц	-10.3975
▁Америк	-10.3978
▁падобна	-10.3979
▁сети	-10.3985
▁акіян	-10.3988
▁прычына	-10.3991
▁Сцяг	-10.3994
▁партрэт	-10.3995
тел	-10.3995
▁абшчын	-10.3998
▁центр	-10.3999
▁кажд	-10.4
нной	-10.4
▁знал	-10.4001
ируем	-10.4002
▁неабходна	-10.4003
ваем	-10.4003
▁РС	-10.4005
сер	-10.4006
▁кні	-10.401
аб	-10.4011
▁одном	-10.4014
▁Першым	-10.4022
овые	-10.4023
ишь	-10.4026
кол	-10.4028
▁блізкі	-10.403
▁1953	-10.4032
інлянды	-10.4032
▁рэакцы	-10.4032
▁брата	-10.4032
▁ніжні	-10.4033
▁назваў	-10.4034
міністра	-10.4037
▁руки	-10.404
стью	-10.4043
▁прыродны	-10.4043
▁язык	-10.4047
▁прычы	-10.4048
▁Неў	-10.4049
лікаў	-10.4052
▁дапамогу	-10.4055
▁ўзор	-10.4056
▁муж	-10.4057
▁Большо	-10.4057
▁дзесяцігоддзя	-10.4074
▁дэпутата	-10.4079
▁корпус	-10.408
▁блізка	-10.4085
▁вучоны	-10.4089
▁известно	-10.4089
▁двар	-10.4091
нных	-10.4092
▁разговор	-10.4094
▁демократи	-10.4096
▁паўстанне	-10.4099
▁частью	-10.4107
▁предмет	-10.4108
▁дней	-10.4118
нести	-10.4122
▁1987	-10.4124
▁жылы	-10.4128
▁думал	-10.413
вежы	-10.4131
▁вяртанн	-10.4136
ками	-10.4136
дар	-10.4137
▁глыбіня	-10.4141
▁нашы	-10.4144
▁знали	-10.4146
▁паспяхова	-10.4146
▁уні	-10.4151
▁міністр	-10.4155
▁модели	-10.416
▁урада	-10.4176
▁Стары	-10.4176
▁газет	-10.4182
▁любы	-10.4189
▁пе	-10.419
▁сайт	-10.4192
▁акупацы	-10.4192
▁технология	-10.42
▁75	-10.4202
▁сигнал	-10.4204
▁Славакі	-10.4204
▁двор	-10.4205
▁калоні	-10.4208
▁Мой	-10.4212
▁прасторы	-10.4217
лёт	-10.4226
нное	-10.424
▁другими	-10.4243
▁мастацкі	-10.4247
▁знает	-10.4253
▁Мак	-10.4254
▁турм	-10.4255
▁организм	-10.4256
▁развіты	-10.4256
▁супрацоўнік	-10.4261
▁радзім	-10.4263
▁состоит	-10.4263
▁лідар	-10.4263
▁паст	-10.4266
24	-10.4271
▁камандаванне	-10.4271
▁прылад	-10.4275
▁звест	-10.4276
▁вучы	-10.4289
▁Назв	-10.43
▁позволяет	-10.4303
▁хімічна	-10.4307
▁карыс	-10.4309
вших	-10.4321
▁сразу	-10.4321
▁1990-	-10.4327
▁ўключае	-10.4337
▁каманда	-10.4339
▁высоко	-10.4346
чик	-10.4355
▁1955	-10.4358
▁пришлось	-10.436
▁суда	-10.4361
▁каралеўска	-10.4362
▁чувство	-10.4367
▁Тад	-10.437
▁імён	-10.4372
▁дамен	-10.4374
▁использовани	-10.4375
▁знакаміты	-10.438
▁цел	-10.4392
▁веры	-10.4398
▁Берлін	-10.4399
▁1983	-10.4401
79	-10.4405
▁налічвае	-10.4409
▁св	-10.4409
▁Іншы	-10.4412
▁Бар	-10.4424
▁песен	-10.4432
▁сынам	-10.4435
▁мужчин	-10.4435
▁Вед	-10.4438
▁невозможно	-10.4438
▁сведчы	-10.4439
▁лепшы	-10.444
▁органы	-10.444
▁страх	-10.4442
▁складалі	-10.4444
▁захоўвае	-10.4447
▁Канстытуцы	-10.4452
▁польскім	-10.4454
▁крыла	-10.4459
ряд	-10.446
▁акру	-10.446
инг	-10.4464
▁голос	-10.4464
кал	-10.4466
▁дзіця	-10.447
тивн	-10.4472
тэрытарыяльна	-10.4473
▁Афры	-10.4473
43	-10.4475
▁левым	-10.4479
ция	-10.4479
▁создавать	-10.4487
▁захавала	-10.4495
▁Многи	-10.4498
▁схіл	-10.4498
▁мяч	-10.4503
праўлення	-10.4507
▁рады	-10.451
▁спецыяльны	-10.4513
дра	-10.4515
роб	-10.4527
▁вылуча	-10.4533
▁матери	-10.4535
▁маршрут	-10.4538
▁ідзе	-10.454
вести	-10.4542
кар	-10.4544
▁крытык	-10.4546
нава	-10.4546
▁ажыццяўляе	-10.455
▁видов	-10.457
▁Кал	-10.4572
▁пабудава	-10.4576
▁написал	-10.4578
▁паводзін	-10.4578
▁выпадка	-10.4583
▁машины	-10.4583
орд	-10.4584
ўрапейска	-10.459
▁ініцыятыв	-10.4598
▁належал	-10.4603
▁героя	-10.4609
шу	-10.461
▁рашэння	-10.461
▁каталіцкі	-10.4611
▁ўзнікл	-10.4618
ском	-10.4618
▁Люксембург	-10.4618
▁масштаб	-10.4621
▁лёс	-10.4626
▁палон	-10.4635
▁шляхт	-10.4635
▁Ізраіл	-10.4638
▁фотографии	-10.4638
▁Смаленска	-10.4639
чай	-10.4642
▁тело	-10.4655
▁апазіцы	-10.4655
▁ўсю	-10.4656
▁устаноў	-10.4658
луча	-10.466
▁120	-10.4665
▁звыш	-10.4676
▁нізін	-10.4678
▁распаўсюджана	-10.4678
▁движение	-10.4678
лізна	-10.4681
▁скорее	-10.4682
▁мэт	-10.4682
▁границ	-10.469
50	-10.4691
▁кін	-10.4697
▁даўжынё	-10.47
▁рэлігійна	-10.4701
▁включа	-10.4701
ими	-10.4703
▁похоже	-10.4703
▁ш	-10.4703
▁вернуть	-10.4705
▁сястр	-10.4716
▁аповесц	-10.4719
▁характэрна	-10.4721
▁музычна	-10.4721
▁аўтара	-10.4723
▁Нобелеўска	-10.4723
▁Оно	-10.4724
▁паўвострава	-10.4726
▁Аляксе	-10.4727
тебе	-10.4729
▁болезн	-10.4734
▁раздел	-10.4735
▁Ісланды	-10.4739
▁молоды	-10.4739
▁сяброў	-10.474
▁паўстанц	-10.4754
▁век	-10.4762
▁слоў	-10.4762
▁решить	-10.4765
▁мастака	-10.4769
▁образование	-10.4773
▁яўрэйска	-10.4774
▁англійскі	-10.4777
▁чыгунк	-10.4781
▁Вучы	-10.4781
▁пісьмовы	-10.4782
ики	-10.4785
▁паходжанне	-10.4792
▁фігур	-10.4797
лева	-10.4797
▁протяжени	-10.48
воз	-10.4801
▁глав	-10.4805
▁выдаў	-10.4812
▁актыўны	-10.4812
▁службу	-10.4812
▁покажу	-10.4814
▁эволюци	-10.4814
годы	-10.4816
▁выходзі	-10.482
▁Звычайна	-10.4821
▁Многі	-10.4822
▁прыход	-10.4823
ЭС	-10.4824
йшоў	-10.4825
▁рядо	-10.4829
эхі	-10.483
▁вырашыў	-10.4831
▁дазвол	-10.4835
ческо	-10.4841
▁остальны	-10.4846
О	-10.4851
▁накіраваны	-10.4856
▁ролі	-10.4856
сих	-10.4857
▁адзіны	-10.4858
ары	-10.4859
▁Міністэрства	-10.486
▁нараджэння	-10.4864
▁домой	-10.4868
▁плат	-10.4873
тически	-10.4873
▁тест	-10.4883
▁волн	-10.489
▁парламента	-10.4892
▁дзвю	-10.4897
▁дэпутат	-10.4897
▁проблему	-10.4898
▁зорна	-10.4899
▁рымскі	-10.4901
▁врач	-10.4902
ась	-10.4902
▁заключается	-10.4903
▁выше	-10.4904
ющее	-10.4909
▁ранні	-10.4912
▁дагавора	-10.4913
▁небольшо	-10.4918
цион	-10.4919
▁последне	-10.4921
▁канала	-10.4923
▁археалагічны	-10.4924
рава	-10.4924
міру	-10.4927
▁семьи	-10.4929
▁ўласны	-10.4943
▁настоящи	-10.4951
▁ідэя	-10.4958
зноў	-10.4961
жды	-10.4963
▁прыб	-10.4966
▁значн	-10.4976
вижу	-10.4978
▁1897	-10.4979
▁Гор	-10.4984
▁Алімпійскі	-10.4986
▁семінары	-10.4986
▁чалавеча	-10.5002
такія	-10.5004
▁журналіст	-10.5006
▁речь	-10.5008
▁ўзвышша	-10.5009
▁выніка	-10.5022
▁Марыя	-10.5026
▁типа	-10.5028
▁рэзка	-10.5028
▁Латві	-10.5029
▁будучы	-10.5032
▁сетка	-10.5034
▁метро	-10.5038
шел	-10.5039
▁ра	-10.5042
▁хімі	-10.5042
▁палітыка	-10.5042
▁лад	-10.5044
▁движения	-10.5053
▁сцэн	-10.5058
▁закона	-10.5058
▁250	-10.5058
▁Святог	-10.5062
▁станет	-10.5068
▁кафедр	-10.5068
▁сред	-10.5069
▁ключ	-10.5069
▁Каралеўства	-10.507
▁Партугалі	-10.507
▁хвілін	-10.507
▁1930-	-10.507
ou	-10.5076
▁Ім	-10.5083
▁тэм	-10.5088
▁навучанн	-10.5089
▁стварыць	-10.5091
▁следует	-10.5091
▁Крым	-10.5101
▁роля	-10.5102
▁катэгоры	-10.5107
▁урад	-10.5108
▁дваро	-10.5109
▁моладз	-10.511
орны	-10.5111
▁глыбока	-10.5112
▁вариант	-10.5112
▁вниз	-10.5112
▁вероятно	-10.5114
▁савет	-10.5114
▁Ро	-10.5118
▁мою	-10.512
▁кіраванне	-10.5124
ился	-10.5133
▁самые	-10.5139
▁жывы	-10.5143
▁альбом	-10.5146
▁каким	-10.5146
СР	-10.5147
▁будаўнічы	-10.5154
▁практически	-10.5155
▁двой	-10.5158
▁газа	-10.5158
▁1900	-10.5163
▁ўда	-10.5174
▁аэрапорт	-10.5176
▁метрапалітэн	-10.5176
▁помніка	-10.5177
▁половин	-10.5179
▁сутнасц	-10.5187
оць	-10.519
▁1980-	-10.5195
▁ўтвараюц	-10.5197
▁расліннасц	-10.5206
▁доби	-10.5207
▁Руска	-10.5207
▁стая	-10.521
быў	-10.5211
▁ажані	-10.5218
▁цели	-10.5219
▁ступень	-10.5219
▁война	-10.5221
▁Меня	-10.5222
▁хороши	-10.5222
▁вперв	-10.5225
▁называем	-10.5226
▁мар	-10.5237
▁Вядома	-10.524
▁царства	-10.524
▁удивительно	-10.5244
прост	-10.5246
СС	-10.5249
мент	-10.5249
нова	-10.525
▁группа	-10.5254
▁збіра	-10.5256
▁позволит	-10.5261
▁Павел	-10.5266
▁паслуг	-10.5267
▁неабходнасц	-10.5277
▁схем	-10.5278
вит	-10.5279
▁пач	-10.5281
▁змяшчае	-10.5282
▁используя	-10.5282
▁лёд	-10.5282
▁працяка	-10.5287
▁32	-10.529
▁сітуацы	-10.5292
▁ног	-10.5301
▁брытанскі	-10.5305
▁однажды	-10.5305
▁далеко	-10.5309
▁Каўказ	-10.531
▁тэорыя	-10.5313
▁сабора	-10.5316
ген	-10.5316
▁падрыхтоўк	-10.5319
▁басейна	-10.5324
▁золата	-10.5326
▁пахаваны	-10.5326
▁перавыша	-10.5326
▁сялянска	-10.5326
▁измен	-10.5334
▁света	-10.5336
первых	-10.5336
▁связь	-10.5336
мест	-10.534
▁дале	-10.5341
▁названием	-10.5341
▁Вам	-10.5342
рова	-10.5344
▁паўнамоцтв	-10.5347
▁маёнтка	-10.535
▁арганізаваны	-10.5353
▁распаўсюджва	-10.5358
▁190	-10.536
▁Ган	-10.5361
фор	-10.5361
▁дапамо	-10.5362
▁цячэ	-10.5367
▁захаванн	-10.5368
лек	-10.537
▁кіраўніка	-10.5375
▁дамоў	-10.5379
▁патрабаванн	-10.538
▁зона	-10.5383
▁Дзвін	-10.539
ізму	-10.5392
▁мястэчк	-10.5393
▁зала	-10.5393
▁знешня	-10.5393
▁полу	-10.5397
дин	-10.5398
▁брытанска	-10.5399
▁гісторыка	-10.5402
живут	-10.5406
▁адкрыццё	-10.5407
▁мысли	-10.5411
▁шэсць	-10.5413
▁каждом	-10.5415
▁пласт	-10.5419
▁скульптур	-10.5421
▁выключэнне	-10.5425
▁Рэ	-10.5432
▁рыбы	-10.5437
▁слав	-10.544
▁посмотрим	-10.5441
волі	-10.5444
ур	-10.5444
▁Ло	-10.5446
часова	-10.5447
льнік	-10.545
,8	-10.545
▁напісана	-10.5451
▁поскольк	-10.5451
▁здольны	-10.5479
▁атрымлівае	-10.5484
▁уровня	-10.5488
▁машин	-10.5489
рыв	-10.5489
чные	-10.5491
▁вызнача	-10.5493
▁человечески	-10.5495
▁радзе	-10.5496
хотелось	-10.5498
▁фото	-10.55
▁платформ	-10.5515
▁дакумент	-10.5515
▁аддзяленне	-10.5517
▁пяці	-10.5519
▁сюжэт	-10.5522
рез	-10.5522
▁заключ	-10.5524
▁ўнутрана	-10.5524
▁аспект	-10.5526
пло	-10.5527
▁падзяляе	-10.5528
▁2,5	-10.5532
▁века	-10.5536
дом	-10.5539
огул	-10.554
▁Міжнародна	-10.5544
▁Літве	-10.5549
▁пераважа	-10.555
заходня	-10.5555
▁раку	-10.556
вец	-10.5567
тели	-10.5585
▁кляштар	-10.5588
▁рэсурс	-10.5588
▁выданне	-10.559
▁ера	-10.5591
▁фізічна	-10.5591
▁высокім	-10.5593
ужен	-10.5594
ес	-10.56
▁разум	-10.56
▁кандыдата	-10.56
▁праходзіл	-10.5602
гэту	-10.5603
▁рання	-10.5604
▁общество	-10.561
▁рукапіс	-10.5615
▁интересны	-10.5616
енне	-10.5621
▁парламент	-10.5622
▁выстав	-10.5623
▁Паўднёвы	-10.5623
▁Іх	-10.5625
лас	-10.5627
▁веда	-10.5628
▁адкрыў	-10.5628
▁хотела	-10.5631
▁адмовіў	-10.5634
шло	-10.5636
▁ход	-10.5637
▁дывізі	-10.564
сек	-10.5641
▁способны	-10.5642
сё	-10.5651
воду	-10.5652
▁1952	-10.5655
▁чыгуначны	-10.5655
▁прежде	-10.5655
▁лісце	-10.5655
▁116	-10.5656
▁зорк	-10.5657
ывает	-10.5661
▁займалі	-10.5661
▁ахвяр	-10.5665
▁палос	-10.5668
▁роль	-10.5675
▁фальклор	-10.5677
▁маёнт	-10.568
▁Ли	-10.5684
▁атак	-10.5691
▁працягвае	-10.57
▁адзіным	-10.5704
▁Тро	-10.5711
▁спас	-10.5718
нак	-10.572
▁Палесс	-10.5722
▁фестывал	-10.5722
▁праведзены	-10.5724
▁800	-10.5734
япер	-10.5735
▁скончыла	-10.5738
▁хрысціянска	-10.5738
▁цель	-10.5741
▁Аўгуста	-10.5742
▁трон	-10.5742
▁мінулы	-10.5744
▁нізка	-10.5744
▁обнаружили	-10.5745
▁инженер	-10.5754
▁прыводзі	-10.5757
▁абрад	-10.5759
▁называлі	-10.5762
▁Бельгі	-10.5767
▁причина	-10.577
чный	-10.5772
писать	-10.5773
▁Лічы	-10.5778
▁долара	-10.5781
▁решени	-10.5783
▁сілу	-10.5783
▁ставі	-10.5785
▁прадстаўлена	-10.5789
▁зносін	-10.5789
▁буквально	-10.5789
▁Ды	-10.579
▁хутчэй	-10.579
▁воздух	-10.5791
▁КА	-10.5796
др	-10.5798
▁тэкст	-10.5808
▁генерала	-10.5811
▁Ник	-10.5812
▁мяса	-10.5813
▁безопасности	-10.5813
▁даёт	-10.5817
▁Пер	-10.5818
▁гары	-10.5821
кат	-10.5822
▁книги	-10.5823
▁правительство	-10.5823
▁Міхаіл	-10.5824
▁палат	-10.5825
▁масава	-10.5826
▁увидите	-10.5827
мор	-10.583
▁крызіс	-10.5834
▁др	-10.5837
▁Прэзідэнта	-10.584
▁цифр	-10.5846
▁дзяржаўным	-10.5848
▁бога	-10.585
▁прыём	-10.5851
рбі	-10.5853
міністр	-10.5853
▁бітва	-10.5854
▁культ	-10.5854
▁катастроф	-10.5857
кага	-10.5857
▁ночь	-10.5857
▁Скарын	-10.5857
▁идею	-10.5858
розе	-10.5858
рысы	-10.5867
▁случилось	-10.5871
▁планете	-10.5871
▁свято	-10.5874
▁асяроддзя	-10.5875
дро	-10.5876
▁Два	-10.5876
пит	-10.5879
▁нагадва	-10.588
▁Схіл	-10.5881
▁масавы	-10.5883
▁прадмет	-10.5884
▁моим	-10.5888
▁кропка	-10.5891
▁планета	-10.5895
▁свабодна	-10.5897
▁тлумачы	-10.5903
▁хрысціян	-10.5904
▁корм	-10.5905
▁дзец	-10.5905
▁сделан	-10.5915
▁архітэктар	-10.5923
▁Прусі	-10.5925
▁бар	-10.5926
вели	-10.5927
▁старэйшы	-10.5932
люблю	-10.5932
▁обычны	-10.5935
▁класічна	-10.5937
▁працягваў	-10.5937
▁папулярны	-10.5939
▁фа	-10.5942
▁забеспячэнн	-10.5949
ило	-10.595
▁падтрым	-10.596
▁руку	-10.596
▁хочет	-10.5964
▁складаў	-10.5965
▁версія	-10.5966
▁тэхнік	-10.597
▁Васіль	-10.5971
▁адсутніча	-10.5972
▁Сталін	-10.5972
▁падзелены	-10.5975
▁социально	-10.5978
чка	-10.5979
▁хороше	-10.5979
част	-10.5979
▁игра	-10.598
▁паб	-10.5982
▁крыж	-10.5994
▁жаноча	-10.5995
смерти	-10.5995
▁Кор	-10.5996
▁прыклад	-10.5998
▁сюда	-10.6
▁материал	-10.6011
▁чыгун	-10.6011
▁Ірланды	-10.6018
▁кем	-10.6023
роз	-10.6023
▁прозвішча	-10.6029
фер	-10.6031
▁Бел	-10.6034
▁Ру	-10.6034
▁ситуаци	-10.6037
▁рэспубліка	-10.6037
▁замуж	-10.6041
СКА	-10.6041
▁проб	-10.6043
▁прекрасно	-10.6045
▁урок	-10.605
Л	-10.6062
илась	-10.6063
▁захава	-10.6063
▁уж	-10.6065
▁цяжкі	-10.6066
▁заняты	-10.6067
▁Пап	-10.6068
▁кампазітар	-10.6072
▁спектр	-10.6078
думаете	-10.608
шар	-10.6081
▁планет	-10.6084
▁заснаванн	-10.6087
▁игр	-10.6094
▁спецыяльна	-10.6096
▁поиск	-10.6099
▁стану	-10.6106
▁фр	-10.611
▁поговорить	-10.6111
▁велічыня	-10.6111
▁стварае	-10.6115
▁вядомым	-10.6117
▁Гарад	-10.6117
▁ўласцівасц	-10.6117
▁анализ	-10.6121
ыгімонта	-10.6121
▁пояс	-10.6127
▁сцвярджа	-10.6128
▁таког	-10.613
▁край	-10.613
▁выпуска	-10.6131
▁Сталіца	-10.6134
▁появи	-10.614
верх	-10.6142
янскім	-10.6145
▁дачка	-10.6146
▁ўплыв	-10.6153
вет	-10.6155
▁зварот	-10.6161
▁концов	-10.6165
▁асноўнай	-10.6166
▁реально	-10.6167
нет	-10.6173
▁эксперт	-10.6181
▁каротка	-10.6181
▁неаднаразов	-10.6185
▁теори	-10.6188
▁пары	-10.619
▁адпаведны	-10.6197
▁правым	-10.6198
▁раза	-10.6201
▁акцы	-10.6202
▁Аргенцін	-10.6204
▁харчаванн	-10.6204
пра	-10.6209
▁могілка	-10.621
▁каралеўскі	-10.6212
▁энерги	-10.6215
думаем	-10.6224
▁экран	-10.6224
▁кантроль	-10.6227
ющим	-10.6228
▁Старшын	-10.6228
▁абвешчана	-10.6228
▁квартал	-10.6228
ток	-10.6231
▁плана	-10.6231
▁Земле	-10.6234
▁адкрыцця	-10.6241
▁арганізма	-10.6243
▁апублікава	-10.6244
▁звана	-10.6248
▁План	-10.625
▁боле	-10.6251
▁ствара	-10.6253
нікі	-10.6255
▁адміністрацы	-10.6256
▁братам	-10.6257
▁агульным	-10.6258
лан	-10.6259
▁уключа	-10.6265
▁действия	-10.6267
▁папярэдні	-10.6271
▁гаспадарка	-10.6274
▁маёмасц	-10.6276
▁залежыць	-10.6276
▁структура	-10.6278
▁найбольша	-10.6284
▁стар	-10.6284
▁кур	-10.6285
▁абласц	-10.6288
ўсходня	-10.6292
технологий	-10.6297
▁самого	-10.6298
▁Асманска	-10.6299
▁абодву	-10.6299
▁традыцыйны	-10.6299
▁значение	-10.63
▁понимает	-10.6301
▁спрыя	-10.6305
▁способность	-10.6313
сан	-10.6313
рэшт	-10.6313
▁разы	-10.6315
▁Мал	-10.6316
▁природ	-10.6321
▁дастаткова	-10.6323
▁лаўрэат	-10.6323
▁кол	-10.6324
▁Украіна	-10.6326
▁готовы	-10.633
▁основан	-10.6332
вшие	-10.6333
▁неба	-10.6345
▁Вялікабрытанія	-10.6345
▁трёх	-10.6346
▁эфект	-10.6347
рана	-10.6354
▁вугл	-10.6358
▁местах	-10.6361
▁доход	-10.6362
нным	-10.6362
▁Бабруйск	-10.6363
▁названа	-10.6363
▁парод	-10.6365
ники	-10.637
▁инноваци	-10.637
▁1951	-10.6371
▁прапанов	-10.6372
▁открыто	-10.6373
ировали	-10.638
щий	-10.6398
▁старшынё	-10.64
вил	-10.6401
st	-10.6406
▁акруга	-10.6408
▁выступ	-10.6408
шь	-10.6408
▁кошк	-10.6409
▁здания	-10.6414
другому	-10.6417
▁мяне	-10.642
▁большие	-10.6422
▁нафт	-10.6429
аліў	-10.6429
рог	-10.643
▁видел	-10.6431
▁созда	-10.6432
▁царкоўна	-10.6437
▁Вялік	-10.6438
▁шчыльнасц	-10.6438
▁аўтамабіля	-10.6439
▁семь	-10.644
▁захаваў	-10.644
гон	-10.6441
▁гледжанн	-10.6443
▁ландшафт	-10.6443
▁камян	-10.6443
▁сосед	-10.6443
▁Народны	-10.6443
▁часціц	-10.6444
▁прыходзі	-10.6448
▁іспанска	-10.6452
▁обще	-10.6454
▁помощь	-10.6457
▁падарожжа	-10.6458
▁назіра	-10.6459
смотр	-10.646
▁исследование	-10.646
▁выраз	-10.646
▁Вітаўта	-10.6463
вис	-10.6464
ировал	-10.6466
▁нашчадк	-10.6474
▁нужна	-10.6482
▁ру	-10.6482
▁ограничен	-10.6489
▁получил	-10.649
▁Біблі	-10.6491
▁філосаф	-10.6491
▁знаходжанн	-10.6492
▁дэпартамент	-10.6497
▁геро	-10.6499
▁Сын	-10.6502
▁сил	-10.6503
▁Кан	-10.6506
▁сцян	-10.651
▁катлавін	-10.6513
▁падыход	-10.6515
▁Таварыства	-10.6516
▁злучае	-10.6517
▁асоба	-10.6519
ному	-10.6526
▁похожи	-10.6529
▁график	-10.6531
▁чему	-10.6536
ьте	-10.6539
▁Закон	-10.6539
▁цывілізацы	-10.654
▁турнір	-10.654
▁пространство	-10.6541
,3	-10.6544
пуск	-10.6547
▁чар	-10.6554
▁виде	-10.6555
▁1920-	-10.6557
▁ради	-10.6557
▁прамыслова	-10.656
▁установ	-10.6562
▁рэдактар	-10.6563
▁больниц	-10.6565
▁прыйшл	-10.6575
▁натуральна	-10.6576
зь	-10.6578
▁царкоўны	-10.6579
▁замен	-10.6581
ге	-10.6583
▁схіла	-10.6592
▁водны	-10.6593
▁ряд	-10.6594
щ	-10.6594
джа	-10.6595
▁дату	-10.6596
▁славянскі	-10.6597
▁исследований	-10.6603
коп	-10.6606
алогіі	-10.6609
▁яўленне	-10.6611
под	-10.6613
▁шанс	-10.6614
▁куды	-10.6615
▁дзеянне	-10.6616
▁апублікаваны	-10.662
▁неабходны	-10.6623
▁160	-10.6623
▁рухавік	-10.6624
▁мусульман	-10.6628
ніка	-10.6631
▁навука	-10.6632
▁захапіл	-10.6632
▁продукт	-10.6634
летку	-10.6635
▁сойм	-10.6637
▁загінуў	-10.6638
зму	-10.6642
орке	-10.6643
▁рэдакцы	-10.6651
▁хрысціянскі	-10.6653
▁нейрон	-10.6656
▁окружающе	-10.666
▁метал	-10.6661
огда	-10.6663
▁расскажу	-10.6665
▁падзелена	-10.6665
▁помн	-10.6667
нного	-10.6676
▁основном	-10.6677
▁политик	-10.6678
▁расп	-10.6684
ера	-10.6684
▁брыгад	-10.6688
▁сторон	-10.6688
▁газу	-10.6688
▁біскуп	-10.6688
▁пажар	-10.669
▁страниц	-10.6691
магла	-10.6701
▁выступае	-10.6702
▁аўтамабільна	-10.671
▁произ	-10.6711
▁находятся	-10.6712
▁Перад	-10.6712
▁кап	-10.6714
▁газе	-10.6716
▁дзіцячы	-10.6717
▁возника	-10.672
▁мал	-10.672
▁вера	-10.6723
▁цягнік	-10.6723
▁вне	-10.6724
▁студэнтаў	-10.6725
▁Тры	-10.6728
▁собира	-10.6736
гіпта	-10.6743
▁начинают	-10.6745
▁ўзрост	-10.675
▁працягвала	-10.6756
▁организации	-10.6759
▁700	-10.676
▁делали	-10.676
▁Бразіліі	-10.6762
▁Очень	-10.6762
▁выступал	-10.6762
▁злучаны	-10.6762
▁Знает	-10.6764
▁дел	-10.6767
▁паказвае	-10.6769
▁спор	-10.6773
вейцары	-10.6777
▁Кіеўска	-10.6778
▁дадатковы	-10.6787
▁Божа	-10.679
▁результаты	-10.6791
▁вул	-10.6792
топ	-10.6793
▁делал	-10.6794
▁неза	-10.6795
▁пошук	-10.6796
▁возер	-10.6797
сказали	-10.6798
▁перададзены	-10.6813
▁забойства	-10.6816
▁Первы	-10.6817
▁прыйшоў	-10.682
▁знайсц	-10.6822
▁корпуса	-10.6823
▁единственны	-10.6828
раў	-10.6836
▁магазин	-10.6837
▁Эстоні	-10.6837
▁рассказ	-10.6837
▁быстрее	-10.6837
▁руха	-10.6839
настоящему	-10.684
амёр	-10.6843
энтральны	-10.6843
▁Мала	-10.6851
▁5-	-10.6851
▁образования	-10.6854
▁спрабава	-10.6857
▁иначе	-10.6862
▁доля	-10.6864
рен	-10.687
буд	-10.6877
▁мірны	-10.6881
▁фінансавы	-10.6881
▁лёгкі	-10.6887
▁прывіле	-10.6887
▁механізм	-10.6888
▁асабісты	-10.6891
▁партый	-10.6895
стве	-10.6898
▁ресурс	-10.6899
▁паступі	-10.6901
▁дапамага	-10.6901
▁заснавальнік	-10.6904
верн	-10.6909
▁арганізава	-10.6911
▁Вікіпеды	-10.6912
▁поддержк	-10.6912
▁паказчык	-10.6912
▁зялёны	-10.6912
▁известны	-10.6912
эл	-10.6913
▁Канад	-10.6914
▁выдатны	-10.6915
▁пасёлка	-10.6915
тки	-10.6916
▁рэдкі	-10.692
▁астрава	-10.6922
яўлення	-10.6922
рос	-10.6923
▁плот	-10.6928
▁разниц	-10.6928
▁увайш	-10.693
▁чын	-10.6934
▁мадэль	-10.6935
▁смотреть	-10.6937
▁дрэў	-10.6937
▁Кр	-10.694
нікаў	-10.6943
верху	-10.6944
стей	-10.6945
▁родна	-10.6945
▁показывает	-10.6951
▁слышали	-10.6951
▁заснавальніка	-10.6951
зор	-10.6954
говор	-10.6959
▁ўзніка	-10.6959
ел	-10.6959
▁Потом	-10.6959
аты	-10.6963
▁Іерусалім	-10.6963
▁Займае	-10.6963
▁вучня	-10.6965
сотни	-10.6968
▁спрыял	-10.6971
▁прысутніча	-10.6982
▁сложны	-10.6983
щая	-10.6984
▁яў	-10.6984
▁реальность	-10.6985
▁кризис	-10.6988
▁фрагмент	-10.6988
▁эміграцы	-10.6988
ырвоны	-10.6988
▁натуральны	-10.6991
▁цэнтральны	-10.6992
▁ордэнам	-10.6993
▁легенд	-10.6995
▁Ку	-10.6995
▁памеры	-10.6998
▁отец	-10.7002
▁сапраўдна	-10.7008
▁складзены	-10.7008
▁обща	-10.7009
▁Магілёў	-10.7011
граф	-10.7014
▁зап	-10.7016
▁старажытнасц	-10.7018
лоп	-10.7018
▁варта	-10.7024
▁занята	-10.7025
▁Вер	-10.7026
▁правінцый	-10.7026
▁партызан	-10.7033
▁1950-	-10.7033
▁драм	-10.7033
▁Асабліва	-10.7036
▁выток	-10.704
▁слаба	-10.704
▁секс	-10.7046
▁еру	-10.7047
▁здорово	-10.7047
▁Інстытута	-10.705
▁змага	-10.7051
▁Заходні	-10.7057
▁рыба	-10.7058
▁Маскоўскі	-10.706
шёл	-10.7063
▁тюрьм	-10.7065
▁Просто	-10.7065
38	-10.7067
▁Кліма	-10.7071
▁драўляна	-10.7071
пустил	-10.7073
▁замацава	-10.7078
мед	-10.7078
словы	-10.708
▁Рыма	-10.708
бел	-10.708
нно	-10.7082
ань	-10.7083
▁багата	-10.7084
▁метров	-10.7086
▁1830	-10.7087
▁маленько	-10.7091
вание	-10.7091
▁сябрам	-10.7092
▁рэканструкцы	-10.7093
▁поведение	-10.7094
▁налічвала	-10.7096
▁намеснікам	-10.7097
▁шесть	-10.7101
▁падзея	-10.7101
▁канцэрт	-10.7103
▁памерла	-10.7106
▁здароў	-10.7107
▁важн	-10.7108
▁ўсходні	-10.7111
ивает	-10.7113
▁температур	-10.7116
▁здолеў	-10.7116
▁0,5	-10.7117
снить	-10.7117
НК	-10.7121
▁рыс	-10.7122
▁залаты	-10.7122
▁істотна	-10.7123
▁выдадзены	-10.7128
▁главно	-10.7129
рэч	-10.714
шли	-10.7143
юль	-10.7145
▁прекрасны	-10.715
▁поверхности	-10.7154
▁Другі	-10.7159
▁дизайнер	-10.716
вания	-10.7162
▁начало	-10.7162
▁дада	-10.7165
▁вар	-10.7167
▁попросил	-10.7168
▁бальніц	-10.7168
▁Грыгар	-10.7168
▁Второ	-10.717
▁грэчаскі	-10.7175
▁тэхнічны	-10.718
▁другу	-10.7183
▁палк	-10.7188
ников	-10.719
▁Прыпяц	-10.7194
▁клеток	-10.7196
▁развитие	-10.7196
▁Дзе	-10.7197
▁італьянска	-10.7198
▁маскоўскі	-10.7205
▁будуча	-10.7205
▁секунд	-10.7208
▁папа	-10.7212
▁смог	-10.7212
▁Кам	-10.722
▁ўдзельнік	-10.7221
▁атрада	-10.7223
▁1960-	-10.7227
▁бег	-10.723
▁пуст	-10.7239
▁провел	-10.7243
тата	-10.7246
▁знайшл	-10.7249
▁Мае	-10.7252
вога	-10.7253
шэ	-10.7256
▁масів	-10.7256
▁добры	-10.7259
щем	-10.7259
вропе	-10.726
▁клетк	-10.7263
▁Лос	-10.7265
▁гульн	-10.7267
▁бако	-10.7269
▁граждан	-10.7271
▁посмотрите	-10.7272
▁захоплены	-10.7273
▁ес	-10.7274
ления	-10.7275
▁земле	-10.7279
▁изучени	-10.728
▁двара	-10.7283
▁паняцце	-10.7286
▁верну	-10.729
▁Прэзідэнт	-10.7292
▁падпарадкаванн	-10.7293
▁архитектур	-10.7299
▁майстэрн	-10.7299
▁Іванавіч	-10.73
▁святла	-10.7301
▁сфер	-10.7305
▁зорка	-10.7307
▁проекта	-10.7309
▁сможет	-10.731
▁теле	-10.731
▁возвраща	-10.7312
▁ўзбярэжж	-10.7313
вез	-10.7321
▁фізічны	-10.7322
▁словами	-10.7323
▁гуля	-10.7323
124	-10.7323
▁Бераг	-10.7325
▁штук	-10.7325
▁арбіт	-10.7327
▁вадасховішча	-10.7337
▁зрабілі	-10.7342
▁перакладзе	-10.7344
▁надежд	-10.7345
▁Позволь	-10.7351
▁сравнени	-10.7351
▁степени	-10.7351
▁вылучы	-10.7351
▁дамы	-10.7355
▁лічылі	-10.7355
▁Эл	-10.7356
▁высот	-10.7357
▁журнал	-10.7358
▁захоп	-10.7359
▁мужа	-10.736
▁Музей	-10.7361
▁смех	-10.7363
▁силы	-10.7369
▁таком	-10.737
ходить	-10.7378
▁мод	-10.7378
▁канцэпцы	-10.7379
рол	-10.738
▁зямно	-10.7385
▁большим	-10.7391
▁цікавасц	-10.7395
рик	-10.7395
▁англ	-10.7395
▁Нёмана	-10.7397
▁сустрэч	-10.7398
▁правила	-10.7401
лок	-10.7407
▁миллиона	-10.7409
▁праводзілі	-10.7414
▁участк	-10.7428
▁поняли	-10.7431
▁бра	-10.7431
▁Крис	-10.7432
▁счёт	-10.7433
вёл	-10.7434
▁заметил	-10.7435
бит	-10.7439
▁сеть	-10.744
▁65	-10.7441
▁арганізм	-10.7442
ление	-10.7442
▁хор	-10.7451
▁36	-10.7452
▁Грузі	-10.7458
аста	-10.7458
▁Станіслава	-10.7458
▁манархі	-10.7458
▁унутраны	-10.7459
▁завода	-10.7466
▁апошнім	-10.7466
▁лично	-10.7467
▁ожида	-10.7468
▁навучальны	-10.7472
▁вызначы	-10.7476
▁сельскі	-10.7477
▁стады	-10.7479
▁каналізавана	-10.7484
▁Само	-10.7492
▁нашли	-10.7493
стыль	-10.7495
▁бака	-10.7497
▁нацыянальным	-10.7498
асам	-10.7499
росту	-10.7502
▁33	-10.7504
▁нефт	-10.7511
▁Удзельніча	-10.7511
▁жертв	-10.7511
▁Адам	-10.7512
▁пакіну	-10.7512
▁сонца	-10.7513
▁судна	-10.7521
печат	-10.7521
▁становят	-10.7521
▁каштоўны	-10.7523
▁рэчыв	-10.753
▁получили	-10.7531
▁суседні	-10.7534
▁супер	-10.7534
▁напад	-10.7537
▁палітычным	-10.7538
▁глубоко	-10.7538
▁показал	-10.7538
▁Антоні	-10.7539
чет	-10.7539
лясы	-10.7542
▁уласны	-10.7542
▁хат	-10.7542
▁радыё	-10.7546
▁абвясціл	-10.755
▁Бацька	-10.7559
▁системе	-10.7563
▁леса	-10.7563
▁праходзя	-10.7563
▁сила	-10.7565
▁магл	-10.7565
▁маленька	-10.7565
▁мірна	-10.7567
▁компания	-10.7568
▁прымаў	-10.7568
▁Аль	-10.7569
▁пашыраны	-10.757
▁Найбольша	-10.7572
▁осозна	-10.7575
▁успех	-10.7576
онд	-10.7577
▁штаб	-10.7578
▁необходимы	-10.7578
▁пакінул	-10.7579
чить	-10.7581
▁балот	-10.7582
▁бацькам	-10.7584
▁хаце	-10.7586
▁местны	-10.7586
▁стен	-10.759
▁Верхня	-10.7592
▁птиц	-10.7592
▁сторону	-10.76
летни	-10.7601
▁сцены	-10.7606
▁злучэння	-10.7607
7	-10.7607
▁наде	-10.7608
▁1890	-10.7612
щего	-10.7613
▁сол	-10.7613
уш	-10.7619
▁публікацы	-10.7619
▁знания	-10.762
▁Гомель	-10.7624
вор	-10.7625
▁аднаўленн	-10.7632
▁праблема	-10.7641
▁спадарожнік	-10.7641
▁политически	-10.7641
▁Рад	-10.7644
▁галіна	-10.7644
▁религи	-10.7645
▁сказа	-10.7646
▁выход	-10.7649
▁казак	-10.765
▁надзвычай	-10.7652
▁ребёнка	-10.7655
▁Рымскі	-10.7655
▁Усходні	-10.7657
льнай	-10.766
▁большинств	-10.7662
▁труд	-10.7665
▁спадарожніка	-10.7665
▁будава	-10.7666
▁природы	-10.767
▁рамана	-10.7671
верю	-10.7672
▁придёт	-10.7674
▁1903	-10.7674
▁понимат	-10.7674
гна	-10.7675
▁мысль	-10.7675
▁сухі	-10.7677
▁транспартны	-10.7679
▁асвет	-10.7681
▁спалі	-10.7685
▁абмен	-10.7687
▁видно	-10.7687
▁атрыманы	-10.7687
эст	-10.769
вший	-10.7691
▁праграма	-10.7692
▁игры	-10.7698
▁вучоб	-10.7701
▁Сярэднегадав	-10.7702
▁столько	-10.7702
нок	-10.7705
▁езда	-10.7706
▁Карэ	-10.7707
▁заве	-10.7709
бачыў	-10.771
слав	-10.771
▁складана	-10.7711
▁лицо	-10.7713
▁валодае	-10.7715
рка	-10.7717
▁Мяж	-10.7717
▁дума	-10.7719
▁Румыні	-10.7728
▁прэс	-10.773
▁пацярпел	-10.7731
▁іслам	-10.7735
▁апарат	-10.7735
▁электро	-10.7742
ового	-10.7743
▁кампазітара	-10.7746
▁абласця	-10.7749
▁ўладам	-10.7752
▁характарызуе	-10.7756
вое	-10.7757
▁Ні	-10.7759
▁місі	-10.7759
▁мама	-10.7762
▁встреча	-10.7764
▁Кніг	-10.7765
эла	-10.7766
▁лидер	-10.7772
▁уяўляе	-10.7774
▁робот	-10.7776
▁вывучэнне	-10.7779
▁1970-	-10.7781
▁зроблена	-10.7783
▁невядомы	-10.7783
▁недахоп	-10.7783
▁аўтаномі	-10.7783
▁опять	-10.7784
▁рэдактара	-10.7784
▁Парыжа	-10.7785
▁займала	-10.7787
▁55	-10.779
▁адчува	-10.7791
чувствовать	-10.7794
▁общем	-10.7794
амойц	-10.7797
▁изуча	-10.7799
▁адмысловы	-10.7801
▁никако	-10.7802
▁аблог	-10.7806
люб	-10.7808
▁двига	-10.7808
▁адправіў	-10.781
▁вусце	-10.7814
▁далейша	-10.7814
▁мастако	-10.782
▁памяшканн	-10.7821
▁лож	-10.7824
▁начальніка	-10.7836
чувств	-10.7837
▁здабыч	-10.7838
▁асацыяцы	-10.7839
▁художник	-10.7839
▁Сёння	-10.7839
▁заявіў	-10.784
▁Думаю	-10.7841
▁взял	-10.7842
▁предел	-10.7845
падзення	-10.7845
▁атрымліва	-10.7854
▁трапіл	-10.7858
▁нерв	-10.7861
▁ўчастк	-10.7863
дите	-10.7865
▁сяло	-10.7866
▁механизм	-10.7866
▁одновременно	-10.7867
▁праведзена	-10.7868
▁человеком	-10.7874
▁прымае	-10.7876
▁больши	-10.7879
▁даліна	-10.7889
▁изменени	-10.7889
▁ракет	-10.7889
▁маладо	-10.7892
▁плато	-10.7894
беж	-10.7894
▁угроз	-10.7894
▁голас	-10.7894
▁вядучы	-10.7898
▁Рака	-10.79
▁имени	-10.79
▁падпісаў	-10.7903
▁вызначэнн	-10.7904
▁калекцы	-10.7904
▁1500	-10.7908
▁невядома	-10.7909
▁ўстанов	-10.7912
▁ляса	-10.7915
▁адзначы	-10.7916
▁аднайменна	-10.7922
▁Лу	-10.7924
▁уласна	-10.793
суд	-10.793
▁1902	-10.7933
▁сучасным	-10.7935
▁арабска	-10.7936
▁рассказал	-10.7939
▁Урад	-10.794
▁француз	-10.7941
▁будучын	-10.7943
▁конфликт	-10.795
▁глаз	-10.7951
▁рад	-10.7955
▁дэпартамента	-10.7956
▁Джона	-10.7961
▁распрацоў	-10.7961
▁абодва	-10.7964
▁ошибк	-10.7971
▁марско	-10.7972
шоў	-10.7973
часце	-10.7974
могут	-10.7975
▁прызна	-10.7975
▁аж	-10.7975
▁картинк	-10.798
▁адзначае	-10.7981
▁мужчины	-10.7981
▁кв	-10.7982
▁Кры	-10.7983
▁пришли	-10.7983
▁Нансен	-10.7984
▁адмові	-10.7985
▁дырэктар	-10.7985
▁інжынер	-10.7986
ющихся	-10.7987
тат	-10.7989
▁пациент	-10.7989
▁карал	-10.7989
▁Брагін	-10.7989
▁Земли	-10.7992
▁глобально	-10.8
▁машина	-10.8002
▁меркаванне	-10.8003
▁эксплуатацы	-10.8007
▁Ніжня	-10.8007
▁изображение	-10.8007
лот	-10.801
думайте	-10.8016
▁пакалення	-10.802
▁лева	-10.8023
▁імператарам	-10.8024
страты	-10.8027
▁заказ	-10.803
▁Наш	-10.8032
щей	-10.8032
водзі	-10.8032
▁Імперы	-10.8035
дан	-10.8035
▁Пар	-10.8036
▁адстаўк	-10.8036
▁устройство	-10.8037
▁органам	-10.804
ежы	-10.8042
▁квадрат	-10.8043
▁нос	-10.8047
▁змест	-10.8048
дэ	-10.8053
▁пут	-10.8053
верить	-10.8056
▁Африки	-10.806
▁памера	-10.8062
▁Картэс	-10.8063
▁знішчэнн	-10.8063
телей	-10.8064
готов	-10.8068
▁185	-10.807
▁падання	-10.8071
баку	-10.8073
▁Была	-10.808
▁настаўнікам	-10.8083
▁прамо	-10.8089
▁кому	-10.8091
▁зацверджаны	-10.8091
▁маленькі	-10.8091
▁нічо	-10.8092
▁фотография	-10.8092
▁зямля	-10.8093
▁значительно	-10.8096
дали	-10.8097
▁Віцебску	-10.8102
▁традыцыя	-10.811
▁крыві	-10.8119
▁крытыка	-10.812
▁Дзмітры	-10.812
▁каледж	-10.812
▁ўтварае	-10.812
▁славян	-10.8124
▁идей	-10.8125
▁трапічны	-10.8126
фу	-10.8127
▁выразна	-10.8127
▁Рус	-10.8129
▁араб	-10.8136
▁парку	-10.8137
▁Америке	-10.8141
▁іспанскі	-10.8142
▁38	-10.8142
▁выконва	-10.8145
ющиеся	-10.8148
мір	-10.8148
▁институт	-10.8149
ёв	-10.815
УС	-10.8155
▁состоянии	-10.8156
▁Рэйн	-10.8156
▁построить	-10.8157
▁выкананы	-10.816
▁зрабіла	-10.8162
▁открыты	-10.8166
▁аўтарам	-10.8166
▁магутны	-10.8166
св	-10.8167
ении	-10.817
▁Ста	-10.817
▁потенциал	-10.8177
▁пячор	-10.8177
▁бульб	-10.8177
▁вызвалены	-10.8178
▁пастаўлены	-10.8178
▁міфалогі	-10.8181
нец	-10.8182
ізацы	-10.8186
льная	-10.819
▁банка	-10.8191
▁Нясвіж	-10.8192
▁Дум	-10.8192
▁Сербі	-10.8194
▁актив	-10.8195
▁Ісуса	-10.8195
▁свабодны	-10.8198
▁имел	-10.8202
▁ордэн	-10.8205
план	-10.8205
▁маштаб	-10.8206
дня	-10.8207
ологи	-10.8208
▁Скот	-10.821
▁збудавання	-10.821
▁цягам	-10.8212
▁духоўны	-10.8213
атланды	-10.8235
▁Віктар	-10.8235
▁словам	-10.8235
▁кроме	-10.8235
▁архіпелаг	-10.8237
▁адрозненн	-10.8238
▁использовали	-10.824
▁гурта	-10.8242
ьмі	-10.8248
▁нейкі	-10.825
▁карон	-10.8251
▁Палат	-10.8252
▁Мало	-10.8255
оборот	-10.8257
▁ектам	-10.8261
▁средства	-10.8262
ип	-10.8262
▁германскі	-10.8264
▁педагог	-10.8264
▁умер	-10.8265
▁организаци	-10.8268
▁увайшл	-10.8271
▁мышц	-10.8271
▁участка	-10.8273
▁климата	-10.8276
▁сімвалам	-10.8277
ским	-10.8278
вест	-10.8282
▁характарыстык	-10.8293
▁кантакт	-10.8293
▁реклам	-10.8293
▁Напалеона	-10.8293
▁аўта	-10.8294
▁горна	-10.8295
▁аснова	-10.8298
▁незалежны	-10.8299
▁будаўніцтв	-10.83
▁захворвання	-10.8301
▁миллиарда	-10.8303
▁правіл	-10.8304
аховы	-10.831
▁скоро	-10.831
эмпіён	-10.8321
▁класіфікацы	-10.8322
▁сапраўд	-10.8322
▁борьб	-10.8322
И	-10.8323
сен	-10.8328
▁Бачн	-10.8328
▁ўжывае	-10.8329
▁вымярэння	-10.833
рэдка	-10.833
▁прайшоў	-10.833
▁графа	-10.8335
▁Ни	-10.8335
▁вывод	-10.8339
▁маленькие	-10.8341
▁далёка	-10.8341
▁захапіў	-10.8343
цяка	-10.8343
▁мечта	-10.8344
▁мед	-10.8347
▁Візанты	-10.8349
▁Видео	-10.8351
▁Тэрмін	-10.8351
▁прафесійны	-10.8352
▁галасаванн	-10.8356
▁намер	-10.836
▁фермер	-10.8362
▁Марк	-10.8363
▁выданн	-10.8364
▁создание	-10.8372
▁жил	-10.8374
▁этнічна	-10.8375
▁буйно	-10.838
хан	-10.838
▁Брэст	-10.8381
▁170	-10.8382
▁совет	-10.8385
▁труб	-10.8387
▁любим	-10.8389
▁ВИ	-10.8391
▁святар	-10.8397
▁вада	-10.8398
ранейша	-10.8398
зіць	-10.8399
▁пяти	-10.8401
▁лясны	-10.8403
▁няг	-10.8406
▁скажу	-10.8407
▁ўнутр	-10.8409
чем	-10.8409
▁аудитори	-10.8409
▁Даніі	-10.8414
▁невыс	-10.8414
▁навукоўца	-10.8416
▁силу	-10.8419
▁любом	-10.8419
▁Пінск	-10.8421
,6	-10.8426
▁вида	-10.8429
▁лица	-10.8432
▁фактар	-10.8433
рый	-10.8439
▁жалеза	-10.8439
▁велики	-10.8439
▁здание	-10.8446
▁пер	-10.8446
▁Мір	-10.8446
ющего	-10.8447
▁Адным	-10.8447
▁живы	-10.8447
▁гаспадарчы	-10.8449
▁поделить	-10.8452
▁арабскі	-10.8453
ёл	-10.8457
▁Балгары	-10.8461
▁магіл	-10.8462
дадзены	-10.8464
▁паля	-10.8467
▁пераходзі	-10.8468
▁Рэспублі	-10.8468
▁сердце	-10.8468
▁звярта	-10.8468
▁Пахаван	-10.8469
▁принять	-10.8472
▁Анд	-10.8472
▁Віцебск	-10.8472
иф	-10.8482
▁прызнаны	-10.8484
▁вёў	-10.8485
▁вызначаны	-10.8496
▁обнаружил	-10.8497
▁дысертацы	-10.8498
▁прогресс	-10.8498
▁склалі	-10.8498
▁росквіт	-10.8498
▁прыхільнікам	-10.8501
гіпе	-10.8502
▁партызанска	-10.8503
▁математик	-10.8504
▁прыня	-10.8509
▁база	-10.8513
▁современно	-10.8515
▁забяспечвае	-10.8518
▁Перу	-10.8518
▁удивительны	-10.852
▁цяжкасц	-10.8523
▁научны	-10.8524
▁абвешчаны	-10.8528
▁кааліцы	-10.8528
▁представляет	-10.8528
to	-10.8529
▁выконвае	-10.8529
▁чуть	-10.853
▁культуру	-10.8531
▁существую	-10.8531
▁ахов	-10.8534
▁влияние	-10.8534
▁сла	-10.8534
▁Мексік	-10.854
▁удзельнік	-10.8549
▁1880	-10.855
▁хац	-10.855
▁сусветн	-10.8552
▁очевидно	-10.8554
▁геном	-10.8556
▁Брытанска	-10.8557
▁кухн	-10.856
анты	-10.8561
ание	-10.8571
бар	-10.8571
▁студы	-10.8575
▁этнічны	-10.8582
▁дасягнуў	-10.8583
▁распрацаваны	-10.8584
▁кажу	-10.8585
▁патрабуе	-10.8587
▁секрет	-10.8587
▁характер	-10.8587
▁страціл	-10.8587
▁канц	-10.8588
▁боль	-10.8589
ница	-10.8589
▁дэтал	-10.859
▁назвал	-10.8592
▁семья	-10.8597
▁проз	-10.8597
▁Гу	-10.8601
▁напо	-10.8601
рку	-10.8603
тесь	-10.8604
▁какое	-10.8605
овым	-10.8607
▁Джордж	-10.8607
▁ситуация	-10.8608
▁птушк	-10.8608
▁тэхналогі	-10.8614
▁недалёк	-10.8615
▁буйным	-10.8616
▁драматург	-10.8617
▁заняпад	-10.8618
▁рабі	-10.8619
▁создан	-10.8621
▁снег	-10.8624
▁бая	-10.8627
▁Італія	-10.8631
▁явля	-10.8633
тур	-10.8633
▁вывучае	-10.864
▁ажыццяўля	-10.8644
▁законам	-10.8645
▁галактыка	-10.8647
▁здыма	-10.8648
▁цэлы	-10.8652
▁максімальна	-10.8655
▁развіта	-10.8657
▁приводит	-10.8659
▁армян	-10.8659
▁полк	-10.8663
▁зуб	-10.8668
▁дол	-10.8671
овіч	-10.8674
▁вяршын	-10.8674
▁Китай	-10.8674
▁палка	-10.8674
▁бактери	-10.8675
▁Удзельнік	-10.8677
нцаў	-10.8678
▁вверх	-10.8681
▁вынікам	-10.8682
▁касает	-10.8683
жно	-10.8683
▁основны	-10.8684
▁Палац	-10.8685
сю	-10.8689
пустить	-10.8691
▁Нужн	-10.8692
арл	-10.8693
▁называют	-10.8694
▁друзья	-10.87
▁узбярэжж	-10.8704
▁разбураны	-10.8708
▁друзей	-10.8708
▁Бярэзін	-10.8709
▁прыняцц	-10.8713
▁Марс	-10.8714
▁сожалению	-10.8714
▁ўмацаванн	-10.8715
ад	-10.8719
▁физически	-10.8723
▁грудз	-10.8726
▁групу	-10.8727
▁бальшавік	-10.8727
▁манастыра	-10.8734
▁гармат	-10.8739
▁выкарыстоўваў	-10.8741
▁маскоўска	-10.8742
▁мальчик	-10.8745
▁времена	-10.8751
▁ядра	-10.8751
▁42	-10.8756
▁Герб	-10.8758
▁бачы	-10.8762
▁Род	-10.8765
▁получает	-10.8768
▁Моцарт	-10.8768
▁друкарн	-10.8768
▁адмаўля	-10.8768
▁фармальна	-10.8768
▁адзінства	-10.8771
▁идее	-10.8775
▁ран	-10.8779
▁далучэнн	-10.8785
▁разнастайнасц	-10.8788
над	-10.879
▁перада	-10.8792
▁прадукт	-10.8794
▁центре	-10.8796
▁нямецкім	-10.8796
▁Посмотрите	-10.8799
▁піша	-10.8799
▁выяв	-10.88
▁картин	-10.8805
▁пайшл	-10.881
▁считают	-10.8811
▁інтэр	-10.8821
наты	-10.8823
▁поиска	-10.8823
▁геаграфічны	-10.8829
▁арыентацы	-10.8829
▁ускраін	-10.8829
▁шкод	-10.8829
▁піса	-10.8839
▁Уз	-10.8839
▁куп	-10.8841
▁шар	-10.8841
▁выпуск	-10.8842
▁медыцын	-10.8853
▁праціўніка	-10.8856
▁Арганізацы	-10.886
▁кісларод	-10.886
▁продолжать	-10.8869
▁Такі	-10.8873
▁черт	-10.8873
▁літара	-10.8877
▁радовішч	-10.8879
▁сначала	-10.8879
ДР	-10.888
▁канстытуцы	-10.8886
▁думали	-10.889
жил	-10.8891
▁Міжнародны	-10.8891
▁сонечна	-10.8891
▁фоне	-10.8891
▁перемен	-10.8896
▁недель	-10.8897
▁кажды	-10.89
ания	-10.8906
▁погляд	-10.8906
▁змяніў	-10.8907
▁выступі	-10.891
▁школах	-10.8915
▁грамадзянскі	-10.8915
▁Дон	-10.8915
▁рэальна	-10.8915
▁кадр	-10.8921
▁указ	-10.8921
▁эмоци	-10.8922
▁ўзначальва	-10.8922
▁Сонечна	-10.8922
▁ўзначалі	-10.8922
▁угодно	-10.8922
ПС	-10.8926
илл	-10.8928
▁10-	-10.8929
▁зарад	-10.893
▁140	-10.8931
▁Ал	-10.8934
▁собираю	-10.8935
тир	-10.8938
▁вакзал	-10.8938
онны	-10.8939
▁інтарэс	-10.8943
думают	-10.8945
ющую	-10.8946
▁паказаў	-10.895
▁Злучаны	-10.8953
сцю	-10.8953
▁слайд	-10.8954
▁экс	-10.8962
▁бог	-10.8966
▁Ганна	-10.8966
віцэ	-10.897
▁малюнка	-10.897
ІІ	-10.8971
▁современны	-10.8972
▁1870	-10.8972
▁Ордэна	-10.8974
▁валас	-10.8974
▁агн	-10.8975
▁наверное	-10.8976
▁заву	-10.8976
рн	-10.8978
▁дэмакраты	-10.8978
▁Казіміра	-10.8979
▁20-	-10.8979
ограф	-10.8979
▁назірання	-10.898
▁умоў	-10.8982
▁использует	-10.8983
▁Магчыма	-10.8984
▁ахопліва	-10.8984
▁ланцуг	-10.8984
▁Магілёв	-10.8984
▁испытыва	-10.8984
▁микро	-10.8985
▁хатні	-10.8986
▁фактически	-10.8986
цэ	-10.8988
▁создаёт	-10.8993
гер	-10.9003
▁целом	-10.9003
клон	-10.9004
▁выказаў	-10.9006
дзел	-10.9009
▁Акцябрскі	-10.901
▁доўжы	-10.9011
▁вопыт	-10.9011
▁мясцовым	-10.9013
вел	-10.9013
▁аппарат	-10.9015
▁практик	-10.9015
▁сэрца	-10.9015
▁глубин	-10.9015
▁представление	-10.9016
▁куб	-10.9016
▁распаўсюдзі	-10.9017
▁пытаемся	-10.9017
▁запис	-10.9017
▁калон	-10.9021
▁маст	-10.9022
▁миллиард	-10.9022
▁трапіў	-10.9026
▁пал	-10.903
▁Джо	-10.9031
▁матчы	-10.9034
▁пункту	-10.9035
▁шум	-10.9037
▁поток	-10.9042
▁узрос	-10.9044
▁расс	-10.9045
аўрэат	-10.9045
▁змог	-10.9052
▁ўваг	-10.9053
ылі	-10.9055
асцей	-10.9058
пярэд	-10.9059
▁рабілі	-10.9061
▁голову	-10.9062
▁десятк	-10.9064
▁надпіс	-10.9067
▁мирово	-10.9069
▁прад	-10.9071
▁разгляда	-10.9077
▁родители	-10.9077
▁аўтаномна	-10.9077
▁сённяшні	-10.9077
▁рэспубліканска	-10.9078
▁власти	-10.9078
▁прызначэнн	-10.9079
▁немагчыма	-10.908
▁барок	-10.9083
имся	-10.9085
▁перадаў	-10.909
▁праводзя	-10.9092
▁Под	-10.9093
▁Асноўным	-10.9098
▁каталога	-10.9102
▁крама	-10.9107
▁виды	-10.9108
▁построен	-10.9108
▁змешчаны	-10.9109
▁президент	-10.9109
▁Балтыйска	-10.911
нными	-10.9117
озера	-10.9118
▁усім	-10.9125
▁болезнь	-10.9127
▁Марса	-10.9127
▁робя	-10.9127
▁проблемой	-10.9131
астка	-10.9134
▁делаю	-10.9134
гуляў	-10.9136
▁случая	-10.9136
▁Інданезі	-10.914
▁малекул	-10.914
▁чака	-10.914
▁недостаточно	-10.9141
▁труп	-10.9142
8	-10.9143
▁нібы	-10.9144
▁сухо	-10.9145
▁ваша	-10.9146
▁экспарт	-10.9148
▁растени	-10.9149
▁факультэта	-10.9151
▁правительства	-10.9153
енные	-10.9155
▁рассказыва	-10.9157
▁змена	-10.9157
▁мужчынска	-10.9158
ранцузска	-10.9159
▁доктар	-10.916
▁механік	-10.916
▁смогу	-10.9161
ложить	-10.9164
▁условия	-10.9165
▁забіў	-10.9169
▁технологи	-10.9172
▁выпраменьванн	-10.9172
▁кантракт	-10.9172
▁сімвалізу	-10.9172
▁счастлив	-10.9174
▁стагоддзе	-10.9181
▁манах	-10.9182
▁сведча	-10.9183
▁любовь	-10.9186
▁электрычны	-10.9187
▁выкліка	-10.9188
▁шырокім	-10.919
▁навуков	-10.9191
▁доступны	-10.9193
▁асяроддз	-10.9194
лях	-10.9196
ехать	-10.9201
▁работали	-10.9202
▁обществе	-10.9203
▁забалочаны	-10.9204
▁цвёрды	-10.9204
▁ранее	-10.9206
▁заниматься	-10.9209
▁Раман	-10.9212
▁рынка	-10.9215
▁фарміравання	-10.9216
▁магістра	-10.9219
кер	-10.9221
▁абсалютна	-10.9223
▁фрон	-10.9223
▁тво	-10.9225
▁Сучасны	-10.9226
▁океана	-10.9226
▁пастанов	-10.9232
▁искусств	-10.9234
▁Смаленск	-10.9234
▁Рэч	-10.9235
▁здолел	-10.9236
▁живёт	-10.9237
▁существовани	-10.9241
▁Где	-10.9242
▁Сіры	-10.9243
▁захоўваю	-10.9243
▁сапраўдны	-10.9244
орк	-10.9244
▁бацькоў	-10.9248
▁искусства	-10.9249
▁Літоўскі	-10.926
▁мысленн	-10.9262
▁капитал	-10.9262
изации	-10.9265
▁палі	-10.9265
▁цяперашня	-10.9268
▁широко	-10.9268
▁Полацк	-10.9268
гаславі	-10.9269
▁возможностей	-10.9269
является	-10.9273
▁чыгунка	-10.9275
▁произойд	-10.9275
▁рот	-10.9278
▁получается	-10.9279
▁особ	-10.9282
▁клет	-10.9288
▁далучыў	-10.9292
▁лечения	-10.9294
ниц	-10.9295
▁утвораны	-10.9298
▁Сва	-10.9299
▁Трэця	-10.93
▁Большинство	-10.93
▁рэгулярна	-10.93
▁віленскі	-10.93
▁бярэ	-10.93
▁меркава	-10.93
▁процессе	-10.93
▁мужчина	-10.9301
оўка	-10.9301
▁экономически	-10.9302
▁отправ	-10.9303
▁изобретен	-10.9305
▁огромны	-10.9307
,9	-10.9309
ваться	-10.9311
▁вярхоў	-10.9312
▁Марка	-10.9324
▁узор	-10.9326
▁Мор	-10.9328
▁книгу	-10.9329
▁длин	-10.9332
▁Старажытна	-10.9332
▁малодшы	-10.9332
▁рэпрэсі	-10.9332
▁шчыт	-10.9332
▁пакрыты	-10.9332
▁получают	-10.9332
▁Вышын	-10.9332
▁палёт	-10.9333
▁хвалі	-10.9333
жаны	-10.9333
▁артыст	-10.9334
▁километров	-10.9336
▁десяти	-10.9336
▁мол	-10.9343
▁Гл	-10.9345
вым	-10.9346
▁рашэнн	-10.9347
▁Міхаіла	-10.9347
▁ветр	-10.9347
▁інстыту	-10.935
▁балота	-10.9352
▁Ленінград	-10.9354
▁прызнача	-10.9354
▁прыйшло	-10.9357
▁дуб	-10.9358
▁ферм	-10.9363
▁Вашынгтон	-10.9364
▁паражэнне	-10.9364
▁чалавецтв	-10.9364
▁Свабод	-10.9364
▁паступа	-10.9364
▁неделю	-10.9365
▁использование	-10.9365
▁апавядання	-10.9365
▁поступ	-10.9373
▁грамадств	-10.9374
▁каменна	-10.9376
▁Віленскі	-10.9377
▁забот	-10.938
▁папулярна	-10.9381
▁искусство	-10.9382
два	-10.9382
▁1860	-10.9385
▁оценк	-10.9389
▁Гер	-10.9391
▁поўны	-10.9396
▁навакольна	-10.9396
▁вільготны	-10.9396
▁кітайска	-10.9396
▁мільён	-10.9399
ерт	-10.9403
▁чувства	-10.9408
▁отношени	-10.941
нием	-10.9415
▁сотн	-10.9415
▁крам	-10.9418
▁вадаёма	-10.9424
▁условиях	-10.9427
▁перакладчык	-10.9429
▁Кітай	-10.9429
▁текст	-10.9429
▁всеми	-10.9431
▁пясчаны	-10.9431
реш	-10.9436
▁дарога	-10.9436
▁слабы	-10.9438
▁прыбыў	-10.9441
▁фасад	-10.9444
▁камісія	-10.9451
▁операци	-10.9452
▁надею	-10.9455
▁бал	-10.9458
▁публіцыст	-10.9459
▁последствия	-10.946
▁распаду	-10.9461
▁Благодар	-10.9461
▁выкапн	-10.9461
▁посмотрел	-10.9462
▁Сар	-10.9463
▁момента	-10.9464
▁правд	-10.9467
▁турызм	-10.9469
ліва	-10.9474
▁сыр	-10.9478
енный	-10.9487
▁навучанне	-10.9488
▁состав	-10.9489
йтесь	-10.9491
▁связан	-10.9493
▁рабо	-10.9494
▁ўзаемадзеянн	-10.9494
▁живём	-10.9495
▁апісвае	-10.9498
сси	-10.9498
▁змяняе	-10.9504
▁ледз	-10.9507
▁паказал	-10.9509
▁злучэнн	-10.951
З	-10.9524
▁участие	-10.9527
▁буйнейшы	-10.9527
▁ўладальнік	-10.9527
▁позже	-10.9528
▁отдел	-10.9529
▁гар	-10.9539
▁Стр	-10.9539
▁будете	-10.9539
▁ўдар	-10.954
▁занялі	-10.9543
▁Канады	-10.9545
▁радио	-10.9554
▁павялічы	-10.9557
▁інтэнсіўна	-10.956
▁страціў	-10.956
▁Працягл	-10.956
▁ацэньва	-10.956
▁детям	-10.956
андаль	-10.9561
▁Сен	-10.9562
▁гімн	-10.9562
▁научно	-10.9563
▁сацыялістычна	-10.9563
▁расце	-10.9564
▁аказала	-10.9567
▁асуджаны	-10.9567
▁заяв	-10.957
толк	-10.957
▁ворага	-10.9573
▁130	-10.9573
▁пациентов	-10.9575
▁Рада	-10.9577
▁дыялект	-10.9578
▁чувствовал	-10.9584
▁ясно	-10.9585
▁класічны	-10.9586
▁сустрэ	-10.9588
▁электронны	-10.9588
▁часова	-10.9591
▁Над	-10.9591
▁морам	-10.9592
,4	-10.9592
▁зняволенн	-10.9593
▁рымлян	-10.9593
▁жаночы	-10.9593
▁Менск	-10.9597
▁Казімір	-10.9598
▁абавязкова	-10.9599
▁создани	-10.96
▁общественно	-10.9601
эс	-10.9601
▁здравоохранения	-10.9602
▁Тако	-10.9604
▁вызначана	-10.9607
▁Ге	-10.9608
лик	-10.9609
▁праводзіў	-10.9609
▁рэзідэнцыя	-10.961
▁замечательно	-10.9612
▁богат	-10.9613
▁екты	-10.9616
уан	-10.9616
▁дасягнення	-10.9618
▁роста	-10.9623
▁информация	-10.9626
▁расстояни	-10.9626
▁самолёт	-10.9629
▁узнал	-10.9632
▁рэч	-10.9638
▁авто	-10.9639
▁полюса	-10.9643
▁абласно	-10.9644
▁сможете	-10.9645
▁любі	-10.9646
▁любимы	-10.9649
▁яўрэйскі	-10.965
▁Васіл	-10.965
▁невялікім	-10.965
▁чалавечы	-10.9651
▁сильны	-10.9655
▁зброя	-10.9659
▁Вярхоўны	-10.9659
▁внимания	-10.9659
▁символ	-10.9659
▁супрацоўніча	-10.9659
▁Генеральна	-10.9659
▁кош	-10.966
▁лекцы	-10.9663
▁разуме	-10.9666
пала	-10.9666
▁праваслаў	-10.9667
▁інтарэса	-10.9669
даваў	-10.9676
▁пачаткова	-10.9677
▁белым	-10.968
▁Карал	-10.9682
оцен	-10.9684
▁желание	-10.9685
мана	-10.9686
▁верно	-10.9691
▁Свяшчэнна	-10.9692
▁сігнал	-10.9692
▁зал	-10.9693
▁зімо	-10.9698
▁Будын	-10.97
▁истин	-10.9707
рно	-10.971
▁стаіц	-10.9714
чэ	-10.9719
▁выпад	-10.9724
удаўніцтва	-10.9725
▁галактик	-10.9726
▁земляробства	-10.9726
▁Кожны	-10.9727
▁кантрол	-10.9727
казаў	-10.9728
▁помогает	-10.9731
▁актыўнасц	-10.9732
▁моем	-10.9734
▁Эдвард	-10.9737
▁чыта	-10.9737
▁реальны	-10.9738
▁прадукта	-10.9739
▁назірае	-10.9743
▁сена	-10.9744
▁Тэ	-10.9745
▁занятк	-10.9751
▁паселішч	-10.9754
льга	-10.9757
▁Сярэднявечч	-10.9759
▁розум	-10.976
▁метады	-10.976
вецыя	-10.9762
▁беспоко	-10.9764
еля	-10.9764
▁архітэктурны	-10.9765
▁тэкста	-10.9765
▁общи	-10.9768
таки	-10.9769
рел	-10.977
пітэра	-10.9771
▁прама	-10.9774
ации	-10.9774
▁змяня	-10.9776
▁згод	-10.9782
тора	-10.9784
вядзення	-10.9785
▁Венецы	-10.9789
иц	-10.9791
рма	-10.9792
▁прытрымліва	-10.9793
▁епархі	-10.9793
▁определить	-10.9793
▁дысцыплін	-10.9793
▁зависит	-10.9793
▁обучения	-10.9794
▁ўтварэння	-10.9794
▁своем	-10.9794
▁парень	-10.9794
▁пашырэнн	-10.9795
▁абараня	-10.9798
▁медыцынскі	-10.9802
▁довери	-10.9803
▁ваенн	-10.9807
вторы	-10.9807
▁мер	-10.9808
▁рэчышч	-10.9811
▁дасягну	-10.9812
▁Раён	-10.9813
▁Рэй	-10.9818
▁магчымы	-10.9819
▁фабрыка	-10.9821
торы	-10.9823
▁услуг	-10.9824
▁дарослы	-10.9827
шей	-10.9829
▁Далей	-10.9829
▁Савецкі	-10.9829
лка	-10.983
▁працягвалі	-10.9831
▁Мес	-10.9833
▁пользу	-10.9835
▁настольк	-10.9835
изма	-10.9836
▁выбра	-10.9836
▁Нідэрланда	-10.9837
▁птушка	-10.9837
▁напісанн	-10.9841
▁прынесл	-10.9842
▁доктор	-10.9842
▁НК	-10.9848
▁земли	-10.9852
▁действительност	-10.9854
ческ	-10.9854
▁распрацоўк	-10.9854
▁лекарства	-10.9856
▁страна	-10.9859
▁навуча	-10.986
▁тыдня	-10.986
▁навакольны	-10.9861
▁камеды	-10.9861
▁прастол	-10.9861
▁вред	-10.9861
▁расположен	-10.9861
▁покрыва	-10.9862
▁паверхня	-10.9864
▁кары	-10.987
ющими	-10.987
▁вайсковы	-10.9872
▁пазнаёміў	-10.9874
дти	-10.9875
▁швед	-10.988
▁стаял	-10.9884
▁появля	-10.9886
▁шасці	-10.9887
▁исход	-10.9892
▁арышт	-10.9894
▁узначальва	-10.9895
▁карьер	-10.9895
▁создают	-10.9897
▁Кіпр	-10.9899
▁творча	-10.9901
▁космос	-10.9902
▁автор	-10.9905
могло	-10.9911
▁Універсітэт	-10.9912
▁галерэ	-10.9916
▁рос	-10.9917
▁гол	-10.9919
екты	-10.992
▁малюнк	-10.9923
▁кост	-10.9924
купить	-10.9927
▁Зеланды	-10.9929
▁перайменаван	-10.9929
▁тавар	-10.993
▁меркавання	-10.9933
КП	-10.9933
▁электрычна	-10.9933
▁Ганн	-10.9934
▁надвор	-10.9934
▁попыта	-10.9934
▁понимание	-10.9935
ta	-10.9937
▁усходня	-10.9938
оф	-10.9938
▁самі	-10.9942
▁целью	-10.9947
ыгімонт	-10.9948
казам	-10.9949
▁ядро	-10.995
▁небольши	-10.9954
▁мастацтв	-10.9955
▁Сол	-10.9958
▁абслугоўванн	-10.996
▁дэлегацы	-10.9963
▁ребёнок	-10.9963
▁пліт	-10.9965
▁геаграфічна	-10.9966
▁чыста	-10.9966
▁адзінк	-10.9967
▁Кастрычніцка	-10.997
▁полі	-10.9971
▁трав	-10.9972
▁общественны	-10.9976
▁значным	-10.9977
▁функцыя	-10.9977
▁масс	-10.9979
▁выраша	-10.9981
▁фінал	-10.9981
▁понимаю	-10.9981
рны	-10.9984
▁сілам	-10.9988
▁Пока	-10.9993
▁изменение	-10.9995
▁Лук	-10.9997
▁достичь	-10.9998
▁цвёрда	-10.9998
тивно	-10.9999
▁прыналежнасц	-10.9999
▁сукупнасц	-11.0001
▁студентов	-11.0007
▁Слуцка	-11.0009
адні	-11.0012
▁сообщества	-11.0014
▁адлюстроўвае	-11.0015
▁выявы	-11.0018
▁доказ	-11.0021
▁машину	-11.0024
▁вполне	-11.0026
▁гімна	-11.003
▁тэлебачанн	-11.0032
▁выснов	-11.0032
▁етнам	-11.0032
▁относительно	-11.0032
▁здоровье	-11.0033
▁аддзялення	-11.0033
▁сумм	-11.0033
▁істот	-11.0033
▁генеральны	-11.0033
▁всём	-11.0034
▁вперёд	-11.004
▁статут	-11.0041
▁традыцый	-11.0042
пры	-11.0044
▁мозгу	-11.0047
▁Тур	-11.0047
▁Астрав	-11.005
▁вадо	-11.005
▁бомб	-11.0051
ланд	-11.0051
▁адмен	-11.0052
▁играть	-11.0053
▁собак	-11.0053
▁заня	-11.0053
▁Ноўгарад	-11.0058
▁высок	-11.0058
▁задума	-11.006
огласно	-11.0061
жать	-11.0061
▁обращ	-11.0061
▁выключ	-11.0065
▁ўзыходжанн	-11.0067
▁ўніверсітэц	-11.0067
▁млын	-11.0067
ежу	-11.0069
▁Колас	-11.007
▁Аўгуст	-11.007
▁откуда	-11.0071
▁180	-11.0074
рэал	-11.0075
▁улиц	-11.0076
чки	-11.0079
▁мене	-11.0079
▁паліцы	-11.008
▁сказаў	-11.0082
пре	-11.0083
▁рэвалюцыйна	-11.0085
▁даследава	-11.0085
была	-11.0086
зву	-11.0087
▁Размешчана	-11.009
▁спыні	-11.0092
▁получи	-11.0095
▁астраном	-11.0096
▁праяв	-11.0097
▁прыма	-11.0097
▁абмежавана	-11.01
▁интеллект	-11.0101
▁абапіра	-11.0101
▁тэндэнцы	-11.0101
чкой	-11.0102
▁ужас	-11.0102
▁ўклад	-11.0103
▁мнени	-11.0104
▁спрабавал	-11.0107
▁спроба	-11.011
▁Адраджэнн	-11.0111
▁дыяметр	-11.0114
▁жанчына	-11.0114
▁убедить	-11.0114
,	-11.0115
таб	-11.0116
▁чуж	-11.0117
▁губернатара	-11.0119
▁камандзір	-11.0121
▁крупны	-11.0121
▁количества	-11.0122
камі	-11.0123
▁соверш	-11.0124
кай	-11.0125
▁пагадненне	-11.0125
учиться	-11.0128
▁кукуруз	-11.0136
▁рэферэндум	-11.0136
▁гадз	-11.014
▁адмыслова	-11.0141
▁СП	-11.0142
▁рэлігія	-11.0144
абель	-11.0146
рыя	-11.0147
энд	-11.0152
▁кандыдат	-11.0153
▁савецкім	-11.0154
▁методы	-11.0157
▁прэмія	-11.0159
▁ужасно	-11.0159
▁городе	-11.016
▁лесам	-11.016
▁Вільню	-11.0161
▁глін	-11.0164
▁ўдзельнічал	-11.0166
▁нужда	-11.0169
▁калегі	-11.017
▁пасла	-11.017
▁выглядел	-11.0171
ырвон	-11.0171
▁6-	-11.0182
▁возраста	-11.0183
▁Вен	-11.0186
▁фізі	-11.0186
▁техник	-11.0191
▁песню	-11.0191
▁расту	-11.0191
брос	-11.0191
▁філасофскі	-11.0193
▁выбора	-11.0194
▁Канстанцін	-11.0196
▁вось	-11.0201
▁Суд	-11.0205
▁ансамбл	-11.0206
▁гарнізон	-11.0206
▁старэйша	-11.0206
▁паранены	-11.0206
▁федэральна	-11.0206
▁конца	-11.021
▁выяўлена	-11.0211
▁берагав	-11.0215
▁имеем	-11.0216
▁прысутнасц	-11.0223
▁Лета	-11.0225
▁Аўстрыя	-11.0227
конт	-11.0231
▁использовал	-11.0235
▁групоўк	-11.0239
▁Станіслаў	-11.0241
▁инфраструктур	-11.0241
▁адноўлены	-11.0241
▁парафі	-11.0242
▁ярус	-11.0242
▁чаще	-11.0242
▁Кур	-11.0244
▁секунду	-11.0244
▁герцаг	-11.0245
▁пациента	-11.0247
▁Ін	-11.0249
▁звярнуў	-11.025
шки	-11.0251
▁Бен	-11.0252
▁Кол	-11.0252
▁паліты	-11.0253
▁карабл	-11.0254
▁происходя	-11.0255
▁дваццац	-11.0255
▁узяў	-11.0258
▁абраз	-11.0264
▁папярэдня	-11.0266
езжа	-11.0268
рс	-11.027
▁счастливы	-11.0275
ходим	-11.0276
▁спектакл	-11.0277
▁случайно	-11.0279
▁рубл	-11.0282
▁велізарны	-11.0282
▁абаронца	-11.0282
▁адкры	-11.0282
▁паляк	-11.0283
▁экспедыцыя	-11.0284
▁рускім	-11.0285
▁пойма	-11.0285
▁здабы	-11.0287
щик	-11.0288
▁отлично	-11.029
▁Ліг	-11.0294
выш	-11.0304
▁Антон	-11.0307
узел	-11.0308
▁загадчык	-11.0311
▁Слова	-11.0312
▁суть	-11.0312
▁Вікторы	-11.0312
▁ліквідацы	-11.0312
▁самакіраванн	-11.0313
,2	-11.0314
▁состояние	-11.0315
▁верси	-11.0319
▁Амундсен	-11.0321
▁раўніна	-11.0327
▁выконваў	-11.0327
▁летні	-11.0328
▁жорстка	-11.0331
овали	-11.0333
льше	-11.034
▁прызнаў	-11.0341
▁насіл	-11.0346
▁Касцюшк	-11.0348
▁абвяшчэнн	-11.0348
▁штучны	-11.0348
▁выбух	-11.0348
▁заняла	-11.0348
▁мечт	-11.0349
▁Ірак	-11.0349
рэйд	-11.035
▁замечательны	-11.0355
▁занимает	-11.0359
▁Вільня	-11.036
дна	-11.0361
арты	-11.0361
▁яднана	-11.0365
торая	-11.0366
▁забарон	-11.0366
▁Сенат	-11.0367
▁собрать	-11.0371
▁Малы	-11.0374
енных	-11.0374
▁выеха	-11.0375
▁вялі	-11.0377
▁пищ	-11.0378
▁Вільгельм	-11.0378
пс	-11.0382
▁намаляваны	-11.0384
▁позволил	-11.0384
▁колледж	-11.0384
▁прыгажосц	-11.0384
▁СМИ	-11.0384
▁пят	-11.0384
▁футбольны	-11.0384
▁паўстал	-11.0386
▁паралельн	-11.0388
▁скрыжаванн	-11.0388
▁Эн	-11.039
▁случай	-11.0392
несены	-11.0395
▁Вайн	-11.0396
▁сфера	-11.0397
грамм	-11.0398
▁твар	-11.0399
▁прыкмет	-11.0402
▁науки	-11.0402
нить	-11.0403
▁какая	-11.0406
▁параз	-11.0407
искать	-11.0408
▁Ваш	-11.0412
▁ідэалогі	-11.0414
▁самастойны	-11.0418
▁особенност	-11.0419
▁взрыв	-11.042
▁знайшоў	-11.042
▁зялёна	-11.042
▁жоўты	-11.042
▁Стэфана	-11.042
▁недели	-11.042
▁начальнік	-11.0424
▁здабыча	-11.0429
▁прысвечана	-11.043
▁абло	-11.0433
▁языка	-11.0441
вроп	-11.0441
▁хуткім	-11.0442
▁журналист	-11.0442
▁вашем	-11.0443
▁ядна	-11.0444
▁производства	-11.0448
▁устройства	-11.0451
▁падзялі	-11.0454
▁Сацыялістычна	-11.0454
▁арх	-11.0454
ўрабачанн	-11.0455
▁гандлёва	-11.0455
▁спалуча	-11.0455
▁алтар	-11.0456
▁будущего	-11.0456
▁развівае	-11.046
▁педагагічны	-11.0466
▁стадыён	-11.0467
ните	-11.0467
душ	-11.0469
лез	-11.047
адварот	-11.0471
▁стату	-11.0474
оўскі	-11.0474
▁інструмент	-11.0481
рыдрых	-11.0482
кая	-11.0485
▁человечества	-11.0485
▁перанос	-11.0489
▁книг	-11.0491
▁свядомасц	-11.0492
▁краі	-11.0492
валіся	-11.0492
▁праекц	-11.0493
іліп	-11.0496
▁усили	-11.0497
▁Вітаўт	-11.0497
▁1,2	-11.0498
▁Янк	-11.0502
сенню	-11.0503
ворот	-11.0506
▁гмін	-11.0506
▁коллег	-11.0507
дала	-11.0512
▁факты	-11.0515
▁аўтобус	-11.0521
жить	-11.0523
▁служа	-11.0523
▁артылеры	-11.0524
▁реакци	-11.0525
доўга	-11.0525
▁остава	-11.0528
вые	-11.0529
▁просьб	-11.0529
щую	-11.0535
заходні	-11.0535
▁высоки	-11.0535
▁апісанне	-11.0538
іста	-11.0544
▁караблё	-11.0545
▁абарончы	-11.0551
▁Галі	-11.0552
▁расти	-11.0552
▁согласи	-11.0552
▁восен	-11.0554
рд	-11.0555
летне	-11.0557
▁определённы	-11.0564
▁Заслужан	-11.0564
▁Алжыр	-11.0564
▁ўтрыманн	-11.0565
▁стади	-11.057
▁медыцынска	-11.057
▁заходнім	-11.0571
▁рэгістрацы	-11.0571
▁кантона	-11.0573
▁двумя	-11.0577
▁вагон	-11.0577
▁Міс	-11.0578
▁верніка	-11.0582
▁расліна	-11.0582
▁00	-11.0583
▁свецка	-11.0583
▁перамов	-11.0589
цягну	-11.0593
▁молод	-11.0597
▁мінска	-11.0597
▁Без	-11.0598
▁адпачынк	-11.06
▁Кангрэс	-11.0601
▁адноўлена	-11.0601
▁называў	-11.0602
ванне	-11.0602
▁чаму	-11.0604
▁временем	-11.0606
▁провести	-11.0607
▁выбраны	-11.0614
▁Кіеў	-11.0615
гру	-11.0619
▁выклікае	-11.0621
▁мать	-11.0621
▁архітэктара	-11.0627
▁герцага	-11.0632
0	-11.0632
▁Кен	-11.0634
▁алгоритм	-11.0637
▁очередь	-11.0637
▁офис	-11.0637
▁Беласток	-11.0637
▁аўтамабільны	-11.0639
▁сабраны	-11.064
▁дорог	-11.0642
us	-11.0646
▁уваг	-11.0646
▁рабоча	-11.0649
губернатар	-11.0653
▁карысны	-11.066
▁предлага	-11.0661
▁Земл	-11.0662
▁сітуацыя	-11.0663
▁экономическо	-11.0663
▁возраст	-11.067
▁снимк	-11.0672
▁філіял	-11.0674
▁прысвоен	-11.0674
▁далучаны	-11.0674
▁рынок	-11.0676
▁пространства	-11.0679
▁усходні	-11.0683
▁бакавы	-11.0684
▁забяспечы	-11.0685
▁дзвюм	-11.0686
▁лячэнн	-11.0688
▁шведскі	-11.069
▁переход	-11.0692
▁аўстрыйскі	-11.0696
▁гаспадара	-11.0696
▁Гродзенскі	-11.0697
уют	-11.0699
▁АЭС	-11.0699
▁Бе	-11.07
давать	-11.0706
▁універсітэт	-11.0709
▁пик	-11.0711
▁изображения	-11.0712
▁матэрыяльна	-11.0714
▁Кір	-11.0714
▁хава	-11.0716
▁Уільям	-11.0717
частью	-11.072
▁Віцебскі	-11.0722
▁правадыр	-11.0724
▁строга	-11.0724
крас	-11.0728
▁ніякі	-11.0731
фф	-11.0731
▁целе	-11.0736
альная	-11.0739
исто	-11.0742
▁Слуцк	-11.0742
▁вяду	-11.0743
▁доктара	-11.0743
▁простым	-11.0746
▁нового	-11.0748
▁многим	-11.0748
▁цесна	-11.0748
▁перыядычна	-11.0748
НД	-11.0749
▁красот	-11.0749
▁дзяўчын	-11.0749
▁хуже	-11.0749
▁формул	-11.075
▁тканін	-11.0754
▁странно	-11.0756
▁польск	-11.0758
▁чацвёрты	-11.0764
▁адраджэнн	-11.0769
▁разглядае	-11.077
▁жела	-11.0771
▁панаванн	-11.0772
▁поколение	-11.0776
▁тавары	-11.0779
▁написан	-11.078
▁ваявода	-11.0784
▁розна	-11.0785
▁Стакгольм	-11.0785
▁патэнцыял	-11.0785
▁вакцин	-11.0785
▁углерод	-11.0785
▁Кроме	-11.0786
▁шведска	-11.0787
▁открыва	-11.0788
▁рыцар	-11.0789
гне	-11.0792
ивши	-11.0792
▁работаем	-11.0797
▁сялянскі	-11.0802
▁племя	-11.0808
▁ваявод	-11.0812
▁карта	-11.0813
▁памерам	-11.0815
▁Ди	-11.0816
▁спін	-11.0817
▁систем	-11.0818
▁размяшчэнн	-11.0819
▁Роберт	-11.082
▁Старажытны	-11.0822
▁Бавары	-11.0822
▁пастаянны	-11.0823
▁баланс	-11.0823
▁Святы	-11.0824
бежать	-11.0824
▁дваран	-11.0829
▁миллионы	-11.0832
▁змяніла	-11.0844
▁баі	-11.0852
▁знешні	-11.0853
▁аўтадарог	-11.0854
▁документ	-11.0854
▁сним	-11.0858
▁эвалюцы	-11.086
▁падраздзяленн	-11.086
▁працоўна	-11.086
пред	-11.0861
▁пришёл	-11.0867
▁помога	-11.0867
▁крыжа	-11.0868
▁доста	-11.0869
▁рэвалюцыйны	-11.0872
▁оказывает	-11.088
▁деревн	-11.0882
жной	-11.0882
▁1840	-11.0884
люд	-11.0885
▁благо	-11.089
ліні	-11.0891
есть	-11.0893
▁Запад	-11.0893
▁фаз	-11.0896
▁Перамог	-11.0897
▁запаведнік	-11.0897
▁спартыўны	-11.0897
▁скасаваны	-11.0899
▁ўстаноўлен	-11.09
▁хран	-11.0901
▁двигаться	-11.0902
итесь	-11.0906
цэнт	-11.0907
вый	-11.0908
▁Канстытуцыя	-11.0909
▁сумес	-11.091
шкі	-11.091
▁Міністра	-11.0914
▁случа	-11.0915
▁партызанскі	-11.0916
▁сложност	-11.0916
▁будуч	-11.0918
▁хвост	-11.0919
ніца	-11.092
▁плод	-11.0922
▁Нідэрланд	-11.0924
ерез	-11.0935
▁Апошня	-11.0935
▁велосипед	-11.0935
▁закрыты	-11.0935
▁дата	-11.0936
▁ч	-11.0936
▁прода	-11.0937
▁дадаткова	-11.0937
▁пражывал	-11.0938
▁первым	-11.0941
▁подверг	-11.0941
▁шч	-11.0942
▁ёзна	-11.0945
▁Выступа	-11.0948
▁літаратура	-11.0948
▁ранейшы	-11.0949
ячэ	-11.0949
ард	-11.095
ўрапейскі	-11.095
дают	-11.0952
▁здзейсніў	-11.0954
▁сакратаро	-11.0955
▁валют	-11.0956
▁знакам	-11.0956
▁имя	-11.096
▁абмежаваны	-11.096
▁рек	-11.096
▁поколения	-11.0962
▁мінскі	-11.0963
чок	-11.0963
▁розным	-11.0966
ранк	-11.0968
▁руск	-11.097
▁геаграфі	-11.0971
▁фарміраванне	-11.0972
▁перспектив	-11.0973
▁получаем	-11.0973
▁сыравін	-11.0973
▁мін	-11.0976
основе	-11.0976
▁абарані	-11.0978
▁суадносін	-11.0979
▁Захад	-11.098
▁пространстве	-11.0982
▁Нёман	-11.0983
▁дизайна	-11.0993
▁частиц	-11.0999
▁совместно	-11.1002
▁Вайніловіч	-11.1004
▁слышал	-11.1005
▁8-	-11.1008
▁компаний	-11.1008
▁Белы	-11.1009
▁рэгіянальны	-11.1011
▁гармон	-11.1011
▁Райт	-11.1016
шек	-11.1017
▁клетка	-11.1017
▁апрацоўк	-11.1018
▁графства	-11.1019
▁поверхность	-11.1022
▁пача	-11.1022
▁примеров	-11.1023
▁падатк	-11.1025
▁Рыг	-11.1031
туль	-11.1032
▁Майкл	-11.1035
брала	-11.1038
▁возрасте	-11.104
родак	-11.1044
▁пароды	-11.1045
▁Меркуры	-11.1049
▁прэзідэнцкі	-11.105
▁жыло	-11.105
▁чытанн	-11.1052
▁каралев	-11.1054
▁канчатковы	-11.1066
пресс	-11.1068
▁павялічвае	-11.1068
▁Ране	-11.107
▁брам	-11.1074
цев	-11.1076
▁команда	-11.1078
▁каралева	-11.1084
▁распрацава	-11.1086
▁валоданне	-11.1086
▁штучна	-11.1088
▁дваранства	-11.109
▁хворы	-11.109
▁распаўсюджванн	-11.1094
▁Наши	-11.1095
▁галоў	-11.11
▁вясн	-11.11
▁Інстытут	-11.11
▁дазваляю	-11.11
фо	-11.1101
▁Зараз	-11.1102
▁аналіз	-11.1104
▁слыш	-11.1112
тельный	-11.1113
▁потер	-11.1113
▁Луі	-11.1116
▁гарадск	-11.1118
▁пяск	-11.1119
▁варот	-11.1123
▁ваенным	-11.1123
▁партнёр	-11.1124
▁пашырэнне	-11.1124
▁сердца	-11.1125
▁Аршанскі	-11.1126
▁Проблем	-11.1126
▁эффективны	-11.1126
▁вселенной	-11.1126
▁Прэм	-11.1127
▁апор	-11.1127
мог	-11.1127
▁Эй	-11.1127
▁служыл	-11.1128
▁реальност	-11.1129
▁спява	-11.1131
▁взяли	-11.1133
▁желез	-11.1133
работать	-11.1141
▁камандзіра	-11.1143
▁1850	-11.1145
▁меншы	-11.1146
▁зборніка	-11.1147
альный	-11.1148
▁выброс	-11.115
овал	-11.1151
▁программу	-11.1151
▁матч	-11.1152
▁развива	-11.1153
▁Соф	-11.1155
▁взрослы	-11.1157
▁новости	-11.1162
▁тракт	-11.1162
▁естественно	-11.1163
▁Выда	-11.1164
▁агляд	-11.1165
▁Атлантычна	-11.1165
▁павышэнн	-11.1165
▁пакрыта	-11.1165
наешь	-11.1168
▁пита	-11.1169
▁адказнасц	-11.1173
▁ощущение	-11.1174
▁плава	-11.1174
▁рыса	-11.1174
дэль	-11.1175
▁вызвал	-11.1175
вак	-11.1175
▁Дзейніча	-11.1177
▁ўстанова	-11.1179
▁славянска	-11.118
▁шука	-11.1181
▁выкарыстаны	-11.1181
вается	-11.1181
▁усю	-11.1181
▁ситуацию	-11.1183
▁правило	-11.1183
▁сектар	-11.1185
▁Перво	-11.1187
▁памяшкання	-11.119
▁Склада	-11.1199
▁ўзнікненн	-11.1201
▁Нептун	-11.1203
▁мобильны	-11.1203
▁представь	-11.1203
▁понятия	-11.1203
▁дороги	-11.1203
▁ёзны	-11.1205
▁плям	-11.1206
▁будь	-11.1207
▁шляхецка	-11.1207
▁дэмакратычна	-11.1209
▁атама	-11.1209
гуле	-11.121
▁заснавал	-11.1212
▁начинае	-11.1212
▁дзяцінства	-11.1213
▁Марок	-11.1214
▁Люб	-11.1215
▁сталы	-11.1218
▁прыкладам	-11.1219
▁паспяховы	-11.1219
▁уласнасц	-11.1219
▁Казахстан	-11.122
▁Сапега	-11.1227
▁турэцка	-11.1228
▁пыл	-11.1229
ирование	-11.1229
▁ван	-11.1236
▁хваля	-11.124
▁правял	-11.124
▁падпарадкоўва	-11.1242
вангелл	-11.1242
▁НАТ	-11.1244
▁сусветны	-11.1245
айстар	-11.1246
▁встретил	-11.1247
▁Адной	-11.1251
▁каталог	-11.1251
глуб	-11.1252
▁антычна	-11.1252
▁заслуг	-11.1253
▁заказнік	-11.1255
▁Іспанія	-11.1257
▁руча	-11.1258
▁изучать	-11.126
цер	-11.126
▁валодал	-11.1263
▁уласцівасц	-11.1264
▁юрыдычны	-11.127
▁ўзнагарод	-11.1274
▁Генрых	-11.128
▁стимул	-11.128
альным	-11.1281
▁Афіцыйна	-11.1281
▁автомобиль	-11.1281
▁пераварот	-11.1281
▁эпідэмі	-11.1281
▁Малдов	-11.1281
▁мінула	-11.1282
▁Дэмакратычна	-11.1282
▁яркі	-11.1283
▁профессионал	-11.1285
▁перевод	-11.1286
▁главны	-11.1287
▁никаки	-11.1288
▁Нас	-11.1289
▁працяглы	-11.1291
▁ніяк	-11.1296
▁закліка	-11.1299
▁арганізавана	-11.131
▁ўзброены	-11.1313
▁авіяцы	-11.1316
▁сядзібна	-11.1317
▁Атрымаў	-11.1321
▁Македоні	-11.1321
▁трагеды	-11.1321
▁заболевания	-11.1321
▁паліва	-11.1322
▁рачны	-11.1325
▁парка	-11.1333
▁спрэчк	-11.1337
▁носіц	-11.134
▁жыво	-11.134
▁ресурсов	-11.1341
▁загінула	-11.1341
▁любя	-11.1342
▁сцёк	-11.1345
▁калонія	-11.1348
▁34	-11.1348
▁серьёзно	-11.1351
▁фінансава	-11.1353
▁Уладзісла	-11.1353
▁мінерал	-11.1358
адно	-11.1359
ларэнцы	-11.136
▁кітайскі	-11.136
▁Багдановіч	-11.136
▁арганічны	-11.136
гіпц	-11.136
▁падтрымліваў	-11.1361
▁нормально	-11.1361
▁43	-11.1361
▁заняти	-11.1363
▁Сусвет	-11.1363
▁пушч	-11.1363
тическо	-11.1365
▁сцвярджае	-11.1365
▁Камен	-11.1367
▁Японія	-11.1369
▁Іран	-11.1373
▁Бабруйска	-11.1373
▁выявіў	-11.1374
▁прамы	-11.1377
▁заметит	-11.1381
▁110	-11.1384
▁суп	-11.1384
▁нарадзіла	-11.1385
▁1886	-11.1387
▁комплексу	-11.1388
▁определённо	-11.1388
ранс	-11.1389
▁супада	-11.139
▁Орш	-11.139
▁скал	-11.1393
▁Генрыха	-11.1397
▁перашкод	-11.1399
▁следующе	-11.1399
▁літаральна	-11.1399
▁прапаганд	-11.1399
▁убежден	-11.14
▁Сувора	-11.14
▁читать	-11.14
▁паўплывал	-11.14
▁курган	-11.1401
▁Сабор	-11.1403
пир	-11.1405
▁кажа	-11.1407
▁управлять	-11.1408
▁85	-11.1408
▁номер	-11.1408
свет	-11.1411
▁Боле	-11.1412
▁анг	-11.1417
▁37	-11.1418
рода	-11.1424
▁цэркв	-11.1424
▁кватэр	-11.1427
▁японскі	-11.1429
▁рэжысёр	-11.1431
▁моцным	-11.1433
▁глыбокі	-11.1435
▁паляка	-11.1438
▁Свіслач	-11.1439
▁Каралеўска	-11.1439
▁параўнальна	-11.144
▁праграму	-11.144
▁параметр	-11.1441
▁появилась	-11.1442
▁палова	-11.1444
▁кірун	-11.1452
▁атмосфер	-11.1452
▁Сатурна	-11.1452
▁накіравана	-11.1453
▁Вене	-11.1454
▁печ	-11.1455
▁представлен	-11.1464
помнить	-11.1465
▁жорсткі	-11.1465
▁буйна	-11.1466
▁аналізу	-11.147
орт	-11.1472
▁Ягайла	-11.1473
▁французскім	-11.1474
▁фірм	-11.1475
▁афіцэра	-11.1476
▁палітычн	-11.1478
▁аднайменны	-11.1479
▁мэр	-11.1479
▁разнавіднасц	-11.1479
▁утварае	-11.1479
▁происходил	-11.1479
▁мяркую	-11.1479
гварды	-11.1479
▁сущност	-11.1479
▁события	-11.148
арльз	-11.148
▁федэрацы	-11.1481
▁Герман	-11.1483
▁конец	-11.1486
▁эксперымент	-11.1488
▁красны	-11.1491
▁университет	-11.1492
▁спросит	-11.1493
▁радовішча	-11.1495
▁дырэктарам	-11.1497
▁собираем	-11.1498
▁полици	-11.1498
▁тонкі	-11.1499
▁многое	-11.15
▁3000	-11.15
есс	-11.1502
▁зло	-11.1502
▁рэчаіснасц	-11.1504
▁элементам	-11.1509
▁растения	-11.151
▁прада	-11.1514
ніцтва	-11.1516
▁выкананне	-11.1516
▁ўваход	-11.1516
▁окруж	-11.1516
▁феадал	-11.1518
дор	-11.1519
▁микроб	-11.1519
▁повторя	-11.1519
▁позня	-11.1519
▁рассмотре	-11.1519
▁здоровья	-11.1519
▁грыб	-11.152
▁везде	-11.1521
▁линии	-11.1522
▁выглядеть	-11.1524
▁власть	-11.1526
▁принимать	-11.1527
▁становішч	-11.1531
▁ноги	-11.1531
▁3,5	-11.1533
▁Названа	-11.1539
▁лідара	-11.1541
▁способом	-11.1542
▁име	-11.1544
▁практы	-11.1544
▁вайскова	-11.1544
явы	-11.1546
▁любв	-11.1547
▁каса	-11.1548
▁расійскім	-11.1551
оўвае	-11.1552
▁ўяўленн	-11.1554
▁акул	-11.1557
▁пахавання	-11.1557
▁Лондон	-11.1559
▁Найбуйнейшы	-11.1559
▁Палесцін	-11.1559
▁класіцызм	-11.1559
▁Кіраўнік	-11.1559
▁бялк	-11.1559
▁племен	-11.156
▁паказваю	-11.1563
чил	-11.1566
▁следующем	-11.157
▁наблюда	-11.1573
▁наву	-11.1577
▁Ген	-11.1579
▁вольны	-11.1579
▁фасада	-11.1582
▁бур	-11.1583
▁чэмпіяна	-11.1585
▁найважнейшы	-11.1586
▁успеха	-11.1586
▁стратеги	-11.1586
▁квадратны	-11.1588
▁порядке	-11.1589
▁комнат	-11.1595
▁камуністычна	-11.1599
▁можешь	-11.1599
▁непадалёк	-11.1599
▁знакаміта	-11.16
▁пунктам	-11.1602
▁дэмакратычны	-11.1604
▁веды	-11.1607
▁тэхнічна	-11.1609
▁каком	-11.1609
▁1888	-11.1616
▁вулкан	-11.1618
▁программа	-11.1619
▁остров	-11.162
летам	-11.162
▁жив	-11.1622
▁дайшл	-11.1622
▁самім	-11.1624
едине	-11.1625
▁считать	-11.1627
▁культурным	-11.1631
▁Максім	-11.1632
▁район	-11.1632
середине	-11.1636
слеп	-11.1639
▁адыход	-11.164
▁ганаровы	-11.164
▁чрезвычайно	-11.164
▁сегодняшни	-11.164
▁плохи	-11.164
▁фундаментальны	-11.1642
▁унутрана	-11.1642
▁американски	-11.1642
▁учителя	-11.1642
▁часця	-11.1643
▁пісьм	-11.1646
▁пережива	-11.1647
▁знішчаны	-11.1648
▁правах	-11.1649
▁Інстыту	-11.1651
▁вызов	-11.1653
▁коп	-11.1653
▁аграгарад	-11.1654
▁наблюдать	-11.1656
▁Ісус	-11.1656
▁представител	-11.1662
▁бел	-11.1664
▁Том	-11.1664
▁кино	-11.1664
▁Месяца	-11.1666
▁подобное	-11.1675
▁гістарыяграфі	-11.1681
▁найбуйнейша	-11.1681
▁прогноз	-11.1681
▁рэстаўрацы	-11.1681
▁чвэрц	-11.1681
Паўл	-11.1682
▁круглы	-11.1682
▁пашыра	-11.1683
▁противо	-11.1683
▁связаны	-11.169
таражытнагрэчаск	-11.1691
▁спецыяльнасц	-11.1693
▁вольна	-11.1694
▁Лін	-11.1695
▁цэрква	-11.1696
▁касмічны	-11.1696
волю	-11.1698
▁350	-11.1701
▁рэзідэнцы	-11.1701
▁Перш	-11.1705
▁ўведзена	-11.1712
▁друкава	-11.1712
▁папер	-11.1719
больш	-11.1719
▁чэмпіён	-11.172
▁паўста	-11.172
▁выгод	-11.1721
▁Петраград	-11.1721
▁влияет	-11.1721
▁Оскар	-11.1721
▁спыненн	-11.1721
▁Мярку	-11.1722
▁вонкавы	-11.1722
▁выдавецтва	-11.1722
▁важное	-11.1724
▁управления	-11.1725
▁падпісанн	-11.1726
ленд	-11.1732
оставить	-11.1732
▁турыста	-11.1733
▁продолжа	-11.1733
▁асобін	-11.1736
▁манарха	-11.1741
▁44	-11.1742
▁рассматрива	-11.1743
▁княств	-11.1743
стварылі	-11.1743
▁Кіев	-11.1748
▁далучы	-11.1749
▁жизнью	-11.1749
▁столь	-11.1749
▁тэрмінам	-11.175
▁цвета	-11.175
ндар	-11.175
▁размера	-11.175
▁пераехал	-11.1751
▁собран	-11.1752
дол	-11.1753
▁восем	-11.1754
▁май	-11.1756
▁спалучэнн	-11.1757
▁ўсходнім	-11.1759
▁Людовік	-11.1761
ложения	-11.1761
▁акупант	-11.1762
▁рэалізацы	-11.1762
▁цёмны	-11.1763
▁давно	-11.1764
▁Галоўным	-11.1765
▁цэла	-11.1766
▁чисто	-11.1766
▁канфедэрацы	-11.1767
▁асобным	-11.1769
▁падземны	-11.177
▁падпісаны	-11.177
▁связанны	-11.1774
▁гарадам	-11.1775
▁наука	-11.1775
▁пакіда	-11.1781
▁Бра	-11.1782
▁звон	-11.1784
▁смотрите	-11.1785
▁станаві	-11.179
▁столкну	-11.179
шен	-11.1791
▁конц	-11.1793
▁Перв	-11.1795
▁пласты	-11.1795
▁Рамана	-11.1796
▁захоўва	-11.1798
▁разве	-11.1798
▁сабак	-11.1799
▁отношение	-11.18
▁Грэ	-11.1802
▁сваяк	-11.1803
▁Аршанска	-11.1804
▁размеркаванн	-11.1804
▁выслан	-11.1804
▁выдатк	-11.1804
▁полезны	-11.1805
▁машынабудаванн	-11.1805
▁днём	-11.1805
▁Венер	-11.1808
▁моц	-11.1809
▁устойчиво	-11.1816
▁паняцця	-11.1819
▁единственно	-11.1821
карыстанн	-11.1821
▁бою	-11.1822
сходу	-11.1824
▁лиц	-11.1825
▁улице	-11.1826
вно	-11.1829
▁зрител	-11.183
▁залів	-11.1835
▁сушы	-11.1837
▁пяхот	-11.1842
▁Вселенн	-11.1842
неслі	-11.1844
▁пазбаві	-11.1845
▁галосны	-11.1845
▁детьми	-11.1845
▁клиент	-11.1845
▁Яўген	-11.1845
▁сонечны	-11.1845
▁віленска	-11.1845
▁Тем	-11.1845
▁сектор	-11.1845
▁животные	-11.1846
▁отдельны	-11.1846
▁ўласнасц	-11.1847
овай	-11.1848
▁добро	-11.1851
▁хоть	-11.1857
▁кампани	-11.1858
▁чырвоным	-11.1864
▁продолжает	-11.1865
▁Тар	-11.1865
▁сельско	-11.1866
овут	-11.1867
▁качества	-11.187
стыя	-11.1871
▁Пере	-11.1874
▁адрас	-11.1876
▁случаев	-11.1877
▁прадмета	-11.1878
▁Аўстра	-11.188
рес	-11.188
▁афіцыйным	-11.1883
▁скуры	-11.1884
▁городов	-11.1884
▁поп	-11.1885
▁знойдзена	-11.1886
▁обезьян	-11.1886
▁режим	-11.1886
▁заўважы	-11.1887
▁вкус	-11.1891
▁дни	-11.1894
▁вырашана	-11.1895
▁семье	-11.1899
▁асаблівы	-11.1903
▁56	-11.1905
▁усталяваны	-11.1905
▁лист	-11.1906
▁паветраны	-11.1907
▁регион	-11.1911
▁альбома	-11.1913
▁Гол	-11.1914
▁аднаві	-11.1914
▁дыр	-11.1916
▁прадстаўнікам	-11.1916
▁фактор	-11.1921
▁потребител	-11.1928
▁духавенства	-11.1928
▁тагачасна	-11.1928
▁учёные	-11.1928
▁інтэлігенцы	-11.1928
▁Героя	-11.1928
▁хирург	-11.1929
▁спаборніцтва	-11.1929
▁повсюду	-11.1932
▁вылучаюц	-11.1936
▁Востра	-11.1937
▁привести	-11.1938
▁аказва	-11.194
▁выступления	-11.1946
щение	-11.1946
▁дзіцяча	-11.1946
▁меняет	-11.1949
▁люб	-11.1949
▁Мои	-11.1953
▁книга	-11.1956
▁сделано	-11.1957
▁эффективно	-11.1961
▁японска	-11.1962
вазе	-11.1963
▁проходит	-11.1964
▁школьны	-11.1965
▁самалёт	-11.1966
▁эканоміц	-11.1966
▁утра	-11.1967
▁забіл	-11.1968
▁Мюнхен	-11.197
▁направлении	-11.197
▁Бітв	-11.197
▁понимал	-11.197
▁наличи	-11.197
▁среду	-11.1973
▁жыла	-11.1974
▁гавора	-11.1974
▁падрыхтоў	-11.1976
▁ўжыванн	-11.1978
▁рэальны	-11.1979
▁паўвостра	-11.1982
▁зразуме	-11.1984
▁разработал	-11.1985
▁сделае	-11.1985
▁педагагічна	-11.1986
▁яўрэ	-11.1991
▁сбор	-11.1991
▁навукоўцы	-11.1993
,7	-11.1996
▁малюн	-11.1997
насці	-11.1999
▁крок	-11.2006
платить	-11.2007
▁далі	-11.2011
эхаславакі	-11.2012
▁сквоз	-11.2012
▁выдатна	-11.2014
▁востры	-11.2014
▁раскол	-11.2014
▁39	-11.2017
▁Генры	-11.2018
02	-11.2019
▁спосабам	-11.2021
▁ярка	-11.2023
стар	-11.2023
▁стоимость	-11.2027
▁900	-11.2027
▁Сафі	-11.203
▁ацэнк	-11.2032
▁осознал	-11.2035
лли	-11.2039
▁ўтрымліва	-11.204
▁дзелі	-11.2042
▁вясно	-11.2044
▁музыкант	-11.2049
▁задні	-11.2049
▁Тэўтонск	-11.2054
▁Яраслаў	-11.2054
▁цивилизаци	-11.2054
▁Выкарыстоўва	-11.2054
▁родителей	-11.2054
▁Армені	-11.2054
▁коробк	-11.2054
▁приехал	-11.2055
▁полацкі	-11.2055
▁прафесійна	-11.2055
▁политическо	-11.2056
▁выстаўк	-11.2056
▁тэксты	-11.2057
▁Груп	-11.2058
▁способности	-11.2058
▁каран	-11.2063
▁сюд	-11.2063
▁хороший	-11.2064
▁Англія	-11.2066
▁Індыйск	-11.2067
▁навуковым	-11.2069
▁Сапег	-11.2071
▁выступіл	-11.2072
вялі	-11.2073
▁разговарива	-11.2073
▁Северно	-11.2074
Э	-11.2077
▁інструмента	-11.2078
▁паток	-11.208
▁конечном	-11.2081
ойти	-11.2081
▁следующее	-11.2085
▁арганізатара	-11.2087
карэспандэнт	-11.2088
▁помнит	-11.2091
▁абмяжоўва	-11.2096
▁пейзаж	-11.2096
▁статистик	-11.2096
▁табліц	-11.2097
▁драўляным	-11.2097
▁Людовіка	-11.2098
▁стрэл	-11.2099
▁матэрыяльны	-11.21
▁вызвалі	-11.2101
▁фабрык	-11.2102
▁угол	-11.2102
▁числа	-11.2104
▁Томас	-11.2105
▁52	-11.2105
адта	-11.2107
▁Георгі	-11.2107
▁запісаў	-11.2107
монт	-11.2107
▁турк	-11.2109
▁сябра	-11.2111
▁семей	-11.2112
▁процесса	-11.2115
▁дасяга	-11.2117
▁ваколіц	-11.2117
енной	-11.2119
▁Афін	-11.2128
▁скрыт	-11.2129
▁пражыванн	-11.2131
▁дакладнасц	-11.2134
▁публічна	-11.2136
▁богаты	-11.2136
▁континент	-11.2139
▁Ваўкавыск	-11.2139
▁Кракав	-11.2139
скажем	-11.2139
▁среде	-11.2139
▁вяртае	-11.214
▁спыніла	-11.214
▁учитыва	-11.214
▁вылучае	-11.2142
▁пасёлк	-11.2145
▁хороша	-11.2146
▁вырабля	-11.2147
▁появлени	-11.2148
смяротна	-11.2149
▁паданн	-11.215
рид	-11.2155
▁остально	-11.2156
▁закончил	-11.216
▁находить	-11.2162
▁Планк	-11.2167
▁дакладны	-11.2167
▁Адама	-11.2169
▁поводу	-11.2172
▁пагроз	-11.2174
▁ими	-11.2177
▁аргумент	-11.2182
▁динозавр	-11.2182
▁халодны	-11.2182
▁багін	-11.2182
▁Калінкаві	-11.2182
▁звёзд	-11.2182
▁мінеральны	-11.2182
▁охран	-11.2184
▁Прыкладна	-11.2186
▁живо	-11.219
▁мнение	-11.219
▁Вынік	-11.219
▁раскопк	-11.2193
асов	-11.2193
▁слава	-11.2193
▁узбярэжжа	-11.2194
▁фін	-11.2194
▁Стаў	-11.2194
▁девочка	-11.2195
інск	-11.2196
▁наведва	-11.2197
▁превращ	-11.2197
▁побед	-11.2202
▁придумал	-11.2202
▁абароне	-11.2202
▁открыт	-11.2203
▁узнали	-11.2208
▁организация	-11.2209
▁лодк	-11.221
▁видит	-11.221
▁дыпламатычны	-11.221
▁нізіна	-11.2211
▁працягла	-11.2212
▁кангрэс	-11.2217
▁вероятность	-11.2221
▁вадкасц	-11.2221
▁направлен	-11.2223
▁Ірана	-11.2224
▁Дру	-11.2224
▁ядзерна	-11.2225
▁ўзбраенн	-11.2225
▁бяроз	-11.2225
▁бачны	-11.2226
▁дыск	-11.2226
▁творчески	-11.2226
▁воспринима	-11.2227
▁Палеска	-11.2228
авая	-11.223
рэдк	-11.2232
▁палавы	-11.2235
бал	-11.2236
▁Вільнюс	-11.2237
▁аперацыя	-11.2238
▁Далін	-11.2238
▁паўвострав	-11.224
▁атрымліваю	-11.224
▁Утворан	-11.2242
▁настоящее	-11.2245
▁ваганн	-11.2246
▁суполк	-11.2246
▁называлас	-11.2247
▁полны	-11.2247
исты	-11.225
▁Турцыя	-11.2252
▁развити	-11.2253
▁душы	-11.2258
▁население	-11.2259
▁камуна	-11.226
▁дала	-11.2262
▁Урал	-11.2262
▁сет	-11.2265
▁Кацярын	-11.2266
раш	-11.2267
экспір	-11.2268
▁деревья	-11.2268
▁мяркуе	-11.2268
▁пацвердзі	-11.2268
▁стромкі	-11.2268
▁Паходзі	-11.2268
▁украінскі	-11.2268
▁знакомы	-11.2268
▁паэтычны	-11.227
▁зліцц	-11.227
▁Новага	-11.2271
▁почв	-11.2274
▁Дуб	-11.2276
▁красивы	-11.2276
▁показыва	-11.2277
▁особо	-11.2279
▁камбінат	-11.2279
▁лечение	-11.2282
▁бюро	-11.2285
▁рэчы	-11.2289
▁погляды	-11.229
▁вести	-11.229
▁пан	-11.229
▁прафесара	-11.2291
▁ішл	-11.2292
▁відавочна	-11.2298
отен	-11.2298
▁апарата	-11.23
▁станови	-11.2302
ическа	-11.2302
▁прыпада	-11.2303
нас	-11.2303
▁60-	-11.2306
▁вагона	-11.2311
▁Брытані	-11.2311
▁Оказывает	-11.2311
▁поможет	-11.2311
▁распараджэнн	-11.2311
▁халодна	-11.2311
▁Верагодн	-11.2311
▁обязан	-11.2311
▁бронзавы	-11.2311
▁узяты	-11.2311
▁Краін	-11.2311
▁Ніжні	-11.2312
▁Прусія	-11.2313
▁радыус	-11.2313
▁навык	-11.2317
▁танца	-11.2317
▁ліста	-11.2318
▁карабля	-11.232
▁цикл	-11.232
▁букв	-11.2322
▁сельск	-11.2329
▁невероятны	-11.2332
▁уладання	-11.2332
станут	-11.2339
▁спин	-11.2342
▁абіра	-11.2345
▁эксперыментальн	-11.2345
▁вечер	-11.2347
▁вершин	-11.2348
▁торгов	-11.235
▁бліжэй	-11.2352
▁кот	-11.2354
▁Каліфорні	-11.2355
▁ажыццяўленн	-11.2355
▁прыцягва	-11.2355
▁философ	-11.2355
▁обратить	-11.2355
▁вонкава	-11.2355
▁пагадзі	-11.2355
▁0,2	-11.2355
▁герцагства	-11.2357
вот	-11.2357
▁накіраваў	-11.2358
▁зычны	-11.236
▁Ігар	-11.2361
▁Уладзіслава	-11.2362
первы	-11.2366
▁дадат	-11.2369
▁лагера	-11.237
▁вучэнне	-11.237
▁стэп	-11.237
цця	-11.2371
Вт	-11.2372
▁рабіў	-11.2374
▁дне	-11.2377
▁аднаўленне	-11.2378
▁потрясающе	-11.2379
▁сделала	-11.238
▁водой	-11.2381
▁выраст	-11.2382
щу	-11.2389
▁дзесяцігоддз	-11.2389
▁паляванн	-11.2392
▁адклад	-11.2394
▁кантынента	-11.2395
▁канцэнтрацы	-11.2398
▁падвярга	-11.2398
▁прадставі	-11.2398
▁цёплы	-11.2398
▁ўздзеянн	-11.2398
▁склікання	-11.2399
▁найбол	-11.24
▁моста	-11.24
▁дало	-11.2401
▁ўплыва	-11.2405
▁глуп	-11.2407
▁прызнал	-11.2407
▁фінанса	-11.2407
▁Канстанціна	-11.241
▁Вас	-11.2415
▁пачатковы	-11.2416
▁інфармацыя	-11.2418
▁ну	-11.2418
▁хлеб	-11.2419
▁заканадаўчы	-11.242
▁раскры	-11.2424
▁лікам	-11.2427
▁прыеха	-11.2427
▁достиг	-11.243
▁получал	-11.2433
▁мужчынскі	-11.2434
▁Антарктыд	-11.2438
▁цифрово	-11.2441
▁дому	-11.2442
▁Афіцыйны	-11.2442
▁ўспрыма	-11.2442
▁псіхалогі	-11.2442
▁штурм	-11.2442
▁палажэнн	-11.2443
▁позици	-11.2443
▁веке	-11.2447
▁выканаўц	-11.245
▁падкрэсліва	-11.2452
▁разуменн	-11.2454
▁ПАР	-11.2455
▁луг	-11.2455
▁Вышэйша	-11.2461
▁Максіма	-11.2461
▁меншасц	-11.2461
фил	-11.2464
ойнік	-11.247
кова	-11.2471
▁1700	-11.2471
▁основани	-11.2471
▁Сучасна	-11.2472
▁ужыва	-11.2473
▁знаком	-11.2475
▁одни	-11.2476
▁мацерык	-11.2478
▁Льв	-11.2484
▁германска	-11.2486
▁список	-11.2486
▁услышал	-11.2486
▁Пашыран	-11.2486
лінейна	-11.2486
министр	-11.2487
▁мусор	-11.2487
▁выступление	-11.2492
▁выдае	-11.2493
▁прыбытк	-11.2494
▁прызнанне	-11.2495
▁адзначыў	-11.2496
▁падрыхтава	-11.2497
▁БА	-11.2498
▁рэ	-11.2503
▁судова	-11.2506
▁насчёт	-11.2507
▁прадукты	-11.2521
4	-11.2522
▁появил	-11.2523
▁базы	-11.2526
ss	-11.2527
▁традици	-11.253
▁калектыв	-11.253
▁Наступны	-11.253
▁Тадэвуш	-11.253
▁ўкраінска	-11.253
▁мураваны	-11.253
▁камеры	-11.253
▁узнагароджаны	-11.2531
▁обучение	-11.2531
▁предоставля	-11.2531
▁чацвёрта	-11.2532
▁приложени	-11.2535
▁Прамо	-11.2537
начала	-11.2537
▁прымалі	-11.2537
▁экране	-11.2537
▁манер	-11.2538
▁шчыльна	-11.2539
▁алфавіт	-11.2539
▁Китае	-11.254
▁продка	-11.2541
▁пришла	-11.2544
▁распрацавана	-11.2545
▁показали	-11.2549
▁индустри	-11.255
встреч	-11.2551
▁пазнейшы	-11.2558
бла	-11.2562
▁Брун	-11.2562
▁получени	-11.2562
вернуты	-11.2567
▁ява	-11.2571
▁нараджэнн	-11.2571
▁умны	-11.2574
▁обязательно	-11.2575
▁специально	-11.2575
▁термин	-11.2575
▁область	-11.2575
▁меліярацыйны	-11.2576
▁металічны	-11.2576
▁забудов	-11.2576
▁пасада	-11.2578
▁секцы	-11.258
▁вярта	-11.2584
жэн	-11.2584
▁ошиб	-11.2585
▁еха	-11.2586
эд	-11.2586
▁адс	-11.2589
▁лабараторы	-11.2591
▁мерапрыемства	-11.2592
▁лідарам	-11.2593
▁сяр	-11.2597
▁ацэн	-11.2597
таты	-11.2597
сол	-11.2599
▁Віл	-11.2602
▁хими	-11.2603
▁Ватыкан	-11.2604
▁становя	-11.2605
▁афарбоўк	-11.2606
▁крыты	-11.2608
▁третье	-11.261
▁Камуністычна	-11.2615
анцы	-11.2615
▁Прадпрыемств	-11.2619
▁дэкаратыўны	-11.2619
▁ўкраінскі	-11.2619
▁прымяненн	-11.2619
▁Камісі	-11.262
▁маршал	-11.2621
▁мяня	-11.2625
▁Ягайл	-11.2626
нять	-11.2627
▁багацце	-11.2628
▁лац	-11.2629
▁показывают	-11.263
▁Эд	-11.2634
▁80-	-11.2635
▁студент	-11.264
▁выбрать	-11.2642
▁Вал	-11.2643
▁тэатральна	-11.2643
▁міністэрства	-11.2645
▁сведчанн	-11.2647
слева	-11.2648
▁гарачы	-11.2649
▁паставіў	-11.265
▁остаёт	-11.266
▁англічан	-11.2664
▁директор	-11.2664
▁сфармава	-11.2664
▁четырёх	-11.2664
▁составляет	-11.2664
▁зависимости	-11.2664
▁ответственность	-11.2664
▁націск	-11.2665
▁тэарэтычна	-11.2665
▁Польскі	-11.2667
▁задачу	-11.2672
альд	-11.2673
делить	-11.2673
▁считает	-11.2673
▁здабыва	-11.2678
▁владе	-11.2678
▁контролирова	-11.2679
▁нуля	-11.268
▁пагаднення	-11.2682
▁меркаванн	-11.2683
▁гадзіннік	-11.2683
▁град	-11.2688
▁Існую	-11.2689
▁бед	-11.2689
▁данном	-11.2693
▁аказаў	-11.2695
▁істотны	-11.2699
▁учиться	-11.27
▁вопроса	-11.27
тные	-11.2702
▁украінска	-11.2708
▁Парламент	-11.2709
▁жалезны	-11.2709
▁таўшчын	-11.2709
▁карэнны	-11.271
▁полёт	-11.271
▁двое	-11.2711
▁прызначана	-11.2712
▁средни	-11.2713
▁открыл	-11.2725
▁рыхтава	-11.2726
▁Пабудаван	-11.2731
шчын	-11.2732
▁команд	-11.2733
▁Гар	-11.2736
▁глобальны	-11.2737
▁вперед	-11.2739
▁свеж	-11.274
нтэ	-11.2741
▁языке	-11.2741
▁размаўля	-11.2741
▁качество	-11.2742
▁заканадаўства	-11.2743
▁Полацкі	-11.2744
▁дэпутатам	-11.2746
▁копі	-11.2749
▁правядзенне	-11.275
▁нему	-11.2753
▁неправильно	-11.2755
▁пазбаўлены	-11.2755
▁понимаем	-11.2755
▁прыцягненн	-11.2755
▁Кракаў	-11.2755
▁палярны	-11.2755
▁еўра	-11.2756
▁дасягаю	-11.2756
▁тэрытарыяльны	-11.2757
вшего	-11.2759
▁движени	-11.2761
сярэдзін	-11.2761
▁95	-11.2762
▁Драгічынскі	-11.2763
▁рэальнасц	-11.2766
▁пасло	-11.2769
▁баяр	-11.2771
абраў	-11.2771
▁разрабатыва	-11.2773
льк	-11.2773
▁медицин	-11.2773
▁распространя	-11.2774
▁провод	-11.2774
▁азначэнн	-11.2774
▁ўтварэнн	-11.2775
▁КН	-11.2777
▁стреми	-11.2779
МС	-11.278
▁прыродна	-11.2781
▁шести	-11.2782
▁сродкам	-11.2782
▁Мед	-11.2783
▁образц	-11.2784
▁компьютеры	-11.2789
▁сцена	-11.2789
▁Музе	-11.279
▁крыш	-11.2793
▁получится	-11.2794
▁актрыса	-11.2796
▁Гвіне	-11.28
▁контакт	-11.28
▁скажет	-11.28
▁аўтарытэт	-11.28
▁магнітна	-11.28
▁апавяданн	-11.28
▁усилия	-11.2801
▁нацыянальн	-11.2803
▁геаметры	-11.2804
▁шкал	-11.2804
▁Ньютан	-11.2806
▁крыжак	-11.2807
▁Твор	-11.2809
▁писать	-11.2809
▁Заходн	-11.2811
мысл	-11.2815
▁праўд	-11.2816
кама	-11.2818
▁графік	-11.2818
▁запад	-11.2819
▁Бор	-11.2821
лікам	-11.2824
заф	-11.2827
▁скан	-11.283
▁исследоват	-11.2831
дорож	-11.2831
▁турэцкі	-11.2831
▁захаванне	-11.2831
▁скоростью	-11.2833
▁Дан	-11.2833
▁звучит	-11.2836
▁установа	-11.2841
▁ляжа	-11.2842
ведалі	-11.2844
▁грэка	-11.2845
▁настаўнік	-11.2845
эма	-11.2845
▁эсперант	-11.2846
▁прапаноўва	-11.2846
▁увидим	-11.2846
▁позні	-11.2846
▁честно	-11.2846
▁курса	-11.2847
▁апісання	-11.2848
▁7-	-11.285
▁общин	-11.285
▁спасти	-11.285
▁вашу	-11.2851
▁море	-11.2851
▁считае	-11.2852
▁Грамадзянска	-11.2855
▁выкладчык	-11.2855
нства	-11.2856
▁непр	-11.2858
▁Янка	-11.2859
▁адкрытым	-11.2864
▁Міжземна	-11.2864
фар	-11.2865
абралі	-11.2866
▁человеку	-11.2868
танцы	-11.287
глыб	-11.2875
▁рын	-11.2876
лігі	-11.2878
▁государства	-11.2879
▁чувствую	-11.2879
евіч	-11.2879
▁Полацку	-11.288
▁масіў	-11.2883
▁дыпламат	-11.289
▁мяккі	-11.2892
▁шахмат	-11.2892
▁гаворы	-11.2892
▁Видите	-11.2892
▁Значна	-11.2892
▁палотн	-11.2892
▁0,3	-11.2893
▁Самым	-11.2894
▁афіцэр	-11.2895
ошёл	-11.2896
▁писал	-11.2899
▁Барыс	-11.29
сця	-11.2901
▁фотограф	-11.2901
▁гуч	-11.2902
▁1891	-11.2903
▁Рос	-11.2904
▁вяршыня	-11.2904
▁навучальна	-11.2905
▁некоторо	-11.2905
▁военны	-11.2906
супраць	-11.2907
▁імкненне	-11.2913
▁стварыл	-11.2913
▁переста	-11.2915
▁прошлого	-11.2916
▁50-	-11.2916
▁пабудова	-11.2919
арваты	-11.292
▁астатня	-11.292
▁штаба	-11.2921
тика	-11.2922
▁Міхал	-11.2923
▁доллар	-11.2923
▁показан	-11.2924
▁паверх	-11.2924
▁стаўленне	-11.2929
▁свецкі	-11.293
▁Індыя	-11.2938
▁скараці	-11.2938
▁близко	-11.2938
▁талент	-11.2938
▁пляж	-11.2938
▁способы	-11.2939
▁матча	-11.2939
▁охот	-11.294
▁уваходзіл	-11.294
▁скорасц	-11.294
▁губернатар	-11.2941
▁граматы	-11.2941
▁положение	-11.2944
отя	-11.2945
▁плоскасц	-11.2946
▁Одно	-11.2947
▁красиво	-11.2948
▁дырэктара	-11.2952
▁лічба	-11.2953
ВК	-11.2953
уществует	-11.2957
▁заключан	-11.2958
▁Кук	-11.296
▁работнік	-11.2962
▁быццам	-11.2966
▁тэма	-11.2967
▁путешествие	-11.2969
вши	-11.2972
стри	-11.2976
▁пальц	-11.2978
▁молекул	-11.2978
▁разработк	-11.298
▁скарб	-11.2981
▁выканаў	-11.2983
▁Касцёл	-11.2984
▁кислород	-11.2984
▁паляпшэнн	-11.2984
▁пасажыра	-11.2984
▁ўяўляю	-11.2984
▁прызначыў	-11.2984
▁четвер	-11.2984
▁пасяджэнн	-11.2985
▁выяўляе	-11.2986
▁перабудов	-11.2987
мышленн	-11.2987
туды	-11.2987
▁абслугоўва	-11.2988
▁папулярным	-11.2988
лево	-11.2989
▁попал	-11.2992
▁эканамічным	-11.2998
▁уступіў	-11.3003
▁улучшит	-11.3004
▁Марсе	-11.3004
▁перес	-11.3005
▁біскупа	-11.3005
страда	-11.3006
▁полюс	-11.3007
ключить	-11.3007
▁даход	-11.301
▁применя	-11.3012
▁48	-11.3013
▁градус	-11.3016
▁ребята	-11.3019
▁персанаж	-11.3021
▁свободно	-11.3021
▁неудач	-11.3024
▁ткан	-11.3024
▁медицински	-11.3029
▁Варшаўска	-11.303
▁кантралява	-11.303
▁тяжело	-11.303
▁гараджан	-11.3031
▁гледач	-11.3031
▁Атлантычны	-11.3031
зімку	-11.3031
▁пахаванн	-11.3033
▁берег	-11.3036
▁кольц	-11.3037
▁купал	-11.3038
▁политики	-11.3039
▁заключэнн	-11.3039
▁квантава	-11.304
▁ответить	-11.304
▁надае	-11.304
лки	-11.3043
ўропа	-11.3045
▁распаўсюджванне	-11.3045
▁пераведзен	-11.3047
▁пачуцця	-11.3051
▁адказва	-11.3054
▁калекцыя	-11.3061
▁самцо	-11.3063
▁сустрака	-11.3065
▁абласны	-11.3065
▁срок	-11.3068
▁контр	-11.3069
▁паўстанн	-11.3074
▁гіпотэз	-11.3075
▁прочи	-11.3075
▁Свет	-11.3077
▁тяжёл	-11.3077
▁тунэл	-11.3077
▁пользоваться	-11.3077
▁шоу	-11.3078
▁начинал	-11.3078
▁Дело	-11.3078
▁насилия	-11.3078
▁средств	-11.3087
▁Значн	-11.3087
▁жада	-11.3088
▁выве	-11.3089
▁ближе	-11.309
▁вырабляе	-11.3094
▁арыстакраты	-11.3096
▁лацінскі	-11.3096
▁сіні	-11.3097
▁90-	-11.3097
▁акадэмік	-11.3099
▁еду	-11.3106
▁іду	-11.3108
▁замет	-11.3112
ранцыска	-11.3114
▁сверх	-11.3119
▁чум	-11.3123
▁Вопрос	-11.3124
▁Прадстаўнік	-11.3124
▁обеспечит	-11.3124
▁ўтворана	-11.3124
▁слуп	-11.3124
▁гавары	-11.3125
▁Нацы	-11.3125
▁захоўванн	-11.3125
▁забаронена	-11.3126
▁дапамаг	-11.3126
▁шматлікім	-11.3127
▁отличны	-11.3127
▁велико	-11.3128
▁ученик	-11.313
▁необходим	-11.3131
▁груз	-11.3131
▁партыйны	-11.3134
▁наступств	-11.3135
▁Войск	-11.3137
▁пісьменнасц	-11.3137
▁выявілі	-11.3139
РП	-11.314
▁выкарыстоўвала	-11.3142
▁взглянут	-11.3144
▁ниже	-11.3146
▁51	-11.3148
▁помогл	-11.3148
▁выйграў	-11.3153
ётся	-11.3154
▁медз	-11.3157
▁пратэст	-11.3158
▁утварэння	-11.3161
▁намаганн	-11.3162
▁гаспадарча	-11.3162
▁фильма	-11.3165
▁здзяйсня	-11.3167
▁отлича	-11.3168
▁Калумбі	-11.3168
▁саюзніка	-11.3168
▁лічб	-11.3169
▁альтернатив	-11.3171
▁предложил	-11.3171
▁вузка	-11.3171
▁жоўта	-11.3171
▁сделаю	-11.3173
▁правильны	-11.3174
▁Радзім	-11.3174
▁драўнін	-11.3174
▁кальц	-11.3175
▁Порт	-11.3181
▁1,3	-11.3183
▁ператварэнн	-11.3187
▁склон	-11.319
▁взят	-11.319
▁строить	-11.3191
піл	-11.3192
▁аднолькавы	-11.3194
▁треть	-11.3195
▁2000-	-11.3196
каса	-11.3198
▁конкретно	-11.3198
▁представи	-11.3206
▁адлюстраванне	-11.3208
▁30-	-11.3218
▁Справ	-11.3219
▁понрави	-11.3219
лейтэнант	-11.3219
▁ажыццяві	-11.3219
▁афармленн	-11.3219
▁даступны	-11.3219
▁дзядзьк	-11.3219
▁кардынал	-11.3219
▁эфір	-11.3219
▁ўсеагульн	-11.3219
▁улучшени	-11.3219
▁Земля	-11.3219
ирования	-11.322
▁калегіум	-11.322
▁рок	-11.3221
▁пакет	-11.3223
▁Галіле	-11.3225
▁Вера	-11.3227
▁выдадзена	-11.3227
▁1,6	-11.3228
▁изменило	-11.3228
▁аказалі	-11.3229
▁генетически	-11.3231
▁настояще	-11.3234
▁серьёзны	-11.3234
▁небяспек	-11.3238
ронт	-11.3238
▁брать	-11.3239
▁фізіка	-11.3248
лучилось	-11.3248
▁веру	-11.3252
▁вклад	-11.3254
▁физик	-11.326
▁пацярпе	-11.3261
вання	-11.3263
▁наверняка	-11.3266
▁телевизор	-11.3266
▁солнечны	-11.3266
▁Сахары	-11.3266
▁жалезна	-11.3266
▁арыгінальны	-11.3267
▁Вебер	-11.3267
▁сталкива	-11.3268
▁Кацярына	-11.3269
▁1800	-11.3269
▁способов	-11.3269
Венгры	-11.3271
▁руд	-11.3274
▁Ток	-11.3275
▁граніц	-11.3275
▁атамны	-11.3275
▁пагроза	-11.3276
тава	-11.3276
▁паспрабава	-11.3277
▁Герой	-11.3278
▁желани	-11.3278
вшей	-11.3281
▁пройти	-11.3281
▁рис	-11.3291
▁Рух	-11.3297
▁млекакормячы	-11.3297
▁слоўнік	-11.33
▁медицинско	-11.3301
▁скорост	-11.3304
▁прастора	-11.3305
▁личност	-11.3306
▁использую	-11.3307
▁Орша	-11.331
▁Напалеон	-11.3313
збегну	-11.3314
▁Дэбютава	-11.3314
▁Луцкевіч	-11.3314
▁близки	-11.3314
▁кіслат	-11.3314
▁узброены	-11.3314
▁цёпла	-11.3314
▁керамік	-11.3314
▁Вілейскі	-11.3314
▁паражэння	-11.3314
▁назіранн	-11.3315
▁старше	-11.3316
▁Карол	-11.3316
▁жили	-11.3316
долю	-11.3321
▁выступленн	-11.3322
▁Вол	-11.3325
▁сери	-11.333
▁надрукаваны	-11.333
▁ўтрымлівае	-11.3332
эння	-11.3332
▁пераможца	-11.3332
▁корн	-11.3334
▁раніц	-11.3334
▁сутк	-11.3334
▁возможны	-11.3336
▁1879	-11.3339
▁ўключаю	-11.3343
▁сабраў	-11.3344
▁звезд	-11.3349
смотрим	-11.335
▁складанн	-11.3351
▁супраціўленне	-11.3351
▁пашырана	-11.3352
олаг	-11.3352
▁метала	-11.3354
▁працягва	-11.3356
▁небе	-11.3356
▁імперскі	-11.3357
▁лег	-11.3357
▁усталява	-11.3359
▁гал	-11.336
идеть	-11.3362
▁ООН	-11.3362
▁эпидеми	-11.3362
▁онлайн	-11.3362
▁экзамен	-11.3362
▁цэгл	-11.3362
▁Від	-11.3365
▁товар	-11.3367
▁пытался	-11.3368
▁пастанова	-11.3368
▁лекарств	-11.337
▁прадугледжва	-11.3374
▁Анр	-11.3379
▁Кіева	-11.338
▁затрат	-11.3386
▁прывё	-11.3388
▁задать	-11.339
▁судовы	-11.3392
сёлка	-11.3392
маючы	-11.3393
▁узведзен	-11.3394
▁падтрымлівае	-11.3394
▁пояса	-11.3396
▁абранн	-11.3398
▁замеч	-11.3402
▁Памер	-11.3403
мир	-11.3409
біяграфі	-11.3411
ыткаві	-11.3411
▁актывіст	-11.3411
▁внутрь	-11.3411
▁попробовать	-11.3411
▁цырымоні	-11.3411
▁Грэнланды	-11.3411
▁инвестици	-11.3411
▁Манголі	-11.3411
▁скорость	-11.3412
▁дзікі	-11.3412
▁1200	-11.3412
▁конференции	-11.3413
▁досвед	-11.3413
▁бліжэйшы	-11.3413
▁тэатральны	-11.3414
▁выглядят	-11.3421
віл	-11.3422
▁суперніка	-11.3423
▁энергия	-11.3425
▁испытани	-11.3426
▁муніцыпалітэт	-11.3426
▁праўда	-11.3426
▁выходит	-11.3428
▁гістарычным	-11.3428
os	-11.3429
▁царскі	-11.343
▁строи	-11.3441
▁сестр	-11.3445
▁теми	-11.3453
▁отказ	-11.3454
▁танк	-11.3455
▁ўзяў	-11.3456
▁філасофска	-11.3457
▁юрыдычна	-11.3459
▁Сталыпін	-11.3459
▁майстэрства	-11.3459
▁препарат	-11.3459
▁пузыр	-11.3459
▁ўступіл	-11.3459
▁дызайн	-11.3459
▁приняти	-11.3459
▁решать	-11.3459
▁Баторы	-11.346
▁галактык	-11.346
▁Япони	-11.346
▁Мілан	-11.3461
Заходня	-11.3463
▁тэхналогіі	-11.3464
▁Стаўбцоўскі	-11.3467
▁слой	-11.3469
▁ўсталява	-11.3469
▁патрыярха	-11.3471
tu	-11.3472
▁перадава	-11.3475
вёр	-11.3478
округ	-11.3479
▁зімовы	-11.3482
▁сядзіб	-11.3484
▁жизне	-11.3485
▁прибор	-11.3486
▁комнате	-11.3488
▁Лес	-11.3489
▁саступа	-11.3489
▁национально	-11.3492
▁поведения	-11.3495
▁энергія	-11.3495
▁выкарыста	-11.3496
▁выключан	-11.35
▁независимо	-11.3503
▁Гала	-11.3503
очки	-11.3505
▁руб	-11.3505
▁ўвайш	-11.3507
▁малодша	-11.3508
▁преступлени	-11.3508
▁категори	-11.3508
▁міграцы	-11.3508
▁Заснавальнік	-11.3508
стаўшы	-11.3508
▁дазваляла	-11.3508
▁мисси	-11.3509
▁феадальна	-11.3509
▁редко	-11.3509
▁Транспартны	-11.3509
▁адказны	-11.351
▁едино	-11.351
▁парламенцкі	-11.3511
пон	-11.3513
▁материалы	-11.3515
▁перамагл	-11.3515
▁приём	-11.3516
▁чысты	-11.3517
▁самалёта	-11.3517
прям	-11.3517
▁дасягненн	-11.3521
▁верны	-11.3522
▁немцам	-11.3524
орка	-11.3524
▁данны	-11.3526
▁забеспячэнне	-11.3526
▁Дуна	-11.3527
▁павелічэнн	-11.3536
▁каких	-11.3537
▁естественны	-11.3545
▁разрыв	-11.3545
▁любую	-11.355
▁кольца	-11.3554
▁сувязя	-11.3555
матлікі	-11.3557
▁выпрабаванн	-11.3557
▁тагачасны	-11.3557
▁концепци	-11.3557
▁одежд	-11.3557
▁станаўленн	-11.3557
▁0,1	-11.3558
▁каляровы	-11.3558
истов	-11.3558
▁экспазіцы	-11.3558
▁рэвалюцыя	-11.3559
▁забаронены	-11.3559
▁гул	-11.3559
▁изменит	-11.356
▁точка	-11.3561
▁падмур	-11.3563
▁нязначн	-11.3563
▁Сіл	-11.3565
овое	-11.3566
▁выдава	-11.3575
несла	-11.3578
▁связано	-11.358
▁апублікавана	-11.3582
▁поезд	-11.3583
▁живущи	-11.3585
▁любым	-11.3586
кроў	-11.3587
▁Парк	-11.359
▁тонн	-11.359
▁складзена	-11.3591
▁фармірава	-11.3592
▁назвать	-11.3593
ўразі	-11.3594
▁открыть	-11.3594
▁протест	-11.3595
▁нашёл	-11.3597
▁дрэвы	-11.3597
▁энергі	-11.3601
▁найлепшы	-11.3601
▁капітал	-11.3603
▁компонент	-11.3606
▁обеспечива	-11.3606
▁Саксоні	-11.3606
▁вынужден	-11.3606
▁драматычны	-11.3606
▁камерцыйны	-11.3606
фашысцк	-11.3606
▁кабінет	-11.3606
▁Маршал	-11.3606
▁пярэдні	-11.3606
▁Міжземнамор	-11.3606
▁первых	-11.3607
▁Алі	-11.3608
▁бук	-11.3608
▁любоў	-11.3608
▁хваёвы	-11.3609
▁астраномі	-11.3614
▁сообщество	-11.3616
▁завяршыў	-11.3616
▁Нерон	-11.3617
▁факультэ	-11.3618
▁наваколл	-11.362
▁развивать	-11.3621
▁хочется	-11.3624
▁выпадае	-11.3624
▁низко	-11.3625
▁Будуч	-11.3627
ранц	-11.3631
▁кірава	-11.3631
КД	-11.3632
▁страну	-11.3633
▁лістоў	-11.3635
▁Украінска	-11.3639
▁нагляд	-11.3639
▁обед	-11.3645
▁чэшска	-11.3652
▁Дэн	-11.3654
▁Бразили	-11.3656
▁няўдала	-11.3656
▁пещер	-11.3656
▁здымк	-11.3656
▁Артур	-11.3656
▁кофе	-11.3656
▁приближ	-11.3659
▁Глав	-11.3661
▁трактат	-11.3661
▁выпушчаны	-11.3661
▁слуша	-11.3664
▁карціна	-11.3666
▁46	-11.3668
▁пасольства	-11.3668
▁выканаўча	-11.367
▁ВН	-11.3672
▁паведамі	-11.3676
▁вугал	-11.3677
▁контроль	-11.3681
▁сан	-11.3681
▁асяроддзе	-11.3682
▁продуктов	-11.3683
▁венгерскі	-11.3683
олл	-11.3683
▁утром	-11.3685
▁размясці	-11.3685
▁потрясающи	-11.3686
▁Вель	-11.3688
▁найвышэйша	-11.3688
▁круга	-11.3688
▁успешно	-11.3689
▁Такие	-11.3689
▁отличие	-11.3691
▁еды	-11.3691
▁пісьмо	-11.3691
▁баб	-11.3692
▁Валын	-11.3693
▁Навагрудска	-11.3695
▁памылк	-11.3696
▁узнагарод	-11.3705
▁узначалі	-11.3705
▁Кобрын	-11.3705
▁маляри	-11.3706
▁канадск	-11.3706
▁найбольшы	-11.3707
▁разгляд	-11.3708
▁павялічыла	-11.371
▁майстр	-11.371
▁торф	-11.3711
▁Вышэйшы	-11.3712
▁аперацый	-11.3714
▁рамк	-11.3715
▁действова	-11.3716
▁браў	-11.3716
▁компьютера	-11.3717
▁дно	-11.372
▁признать	-11.3722
доволь	-11.3723
▁благодар	-11.3723
▁камандуючы	-11.3726
▁отца	-11.3727
▁понимают	-11.3729
октар	-11.3732
▁Глеб	-11.3733
▁доверя	-11.3735
▁огромные	-11.3735
▁веб	-11.3739
▁паведамляе	-11.374
▁Георг	-11.3744
▁купил	-11.3745
▁рус	-11.3752
▁Мсціслаў	-11.3755
▁Скірмунт	-11.3755
▁здагадк	-11.3755
▁найперш	-11.3755
▁перамяшчэнн	-11.3755
▁сомнени	-11.3755
келандж	-11.3755
▁Кожна	-11.3756
▁аспірантур	-11.3756
▁традиционны	-11.3756
▁кіеўскі	-11.3756
мерна	-11.3756
▁ўспамін	-11.3756
6	-11.3756
▁47	-11.3757
▁логік	-11.3757
▁выкліканы	-11.3762
▁лекарство	-11.3762
далёк	-11.3763
▁жителе	-11.3765
▁чытач	-11.3767
▁куст	-11.3767
▁окружающи	-11.3768
▁покуп	-11.3769
▁думает	-11.3772
▁требует	-11.3777
▁роботов	-11.3779
▁разрад	-11.3779
▁1600	-11.3781
легка	-11.3781
▁Ком	-11.3786
▁апынуў	-11.3787
вестк	-11.379
ыццё	-11.3791
▁наземны	-11.3797
▁средне	-11.3798
▁выказва	-11.3798
▁Барыса	-11.3799
▁дик	-11.38
вались	-11.38
▁играет	-11.3801
▁служба	-11.3805
▁двухбакова	-11.3806
▁егіпецкі	-11.3806
▁экосистем	-11.3806
▁сохраня	-11.3806
▁мякка	-11.3806
▁кредит	-11.3806
▁0,4	-11.3807
▁сильнее	-11.3807
▁пожалуйста	-11.3807
▁пастаноўк	-11.3808
▁вернулся	-11.3808
▁сесі	-11.3809
▁кветкі	-11.3809
▁зняты	-11.3811
лит	-11.3811
▁пакут	-11.3812
▁васьмі	-11.3812
▁поўным	-11.3813
▁пытается	-11.3815
▁9-	-11.3819
▁бачна	-11.3819
рыдрыха	-11.3819
▁заменены	-11.382
▁відам	-11.382
прэ	-11.3821
▁паеха	-11.3821
▁определени	-11.3822
▁падпісана	-11.3825
▁падае	-11.3825
▁рождения	-11.3826
▁предполага	-11.3828
▁местно	-11.3828
▁смотрит	-11.383
▁данным	-11.383
▁думка	-11.3836
▁игру	-11.3841
▁камандава	-11.3842
▁родны	-11.3844
▁даклад	-11.3846
▁голуб	-11.3848
▁обман	-11.3848
▁ужасны	-11.3856
▁действий	-11.3856
▁пірамід	-11.3856
▁бактэры	-11.3856
▁каталіцтв	-11.3856
▁профессор	-11.3856
▁сямі	-11.386
▁абсталяванн	-11.3861
▁слон	-11.3863
ити	-11.3864
▁Вайніловіча	-11.3866
эш	-11.3866
▁Великобритании	-11.3867
▁ўключаны	-11.3867
▁епіскапа	-11.3869
▁адзначаны	-11.3869
▁Ван	-11.3869
▁называемы	-11.387
▁узнікл	-11.387
▁выполня	-11.387
тельной	-11.3876
льскага	-11.3877
▁городах	-11.3877
▁Яно	-11.388
▁паходз	-11.388
лучается	-11.3881
▁создава	-11.3881
▁страшно	-11.3885
▁часовы	-11.3886
▁выпуску	-11.3887
▁ток	-11.3889
▁70-	-11.389
▁броса	-11.3892
▁грудно	-11.3892
▁глеба	-11.3893
▁грунту	-11.3893
▁атрымлівал	-11.3896
ация	-11.3896
▁ўбачы	-11.3896
▁абсталяванне	-11.3899
вязан	-11.39
очу	-11.3907
▁авалода	-11.3907
емінгуэ	-11.3907
▁Венесуэл	-11.3907
▁архитектор	-11.3907
▁интервью	-11.3907
лобін	-11.3907
▁каардынат	-11.3907
▁кіруе	-11.3907
▁людях	-11.3907
▁мармур	-11.3907
▁биологически	-11.3907
▁гібел	-11.3908
▁перададзена	-11.3908
▁открытия	-11.3909
▁дробна	-11.3912
▁файл	-11.3913
▁ранни	-11.3915
рал	-11.3916
▁ствараю	-11.3919
▁получать	-11.392
▁Араві	-11.3921
абудова	-11.3922
▁заданн	-11.3922
▁паляванне	-11.3922
▁вырашылі	-11.3923
▁згадва	-11.3924
▁привело	-11.3924
шчыка	-11.3925
▁сотня	-11.3931
▁сознание	-11.3934
▁увеличива	-11.3937
▁распачаў	-11.3938
▁рухавіка	-11.394
▁давала	-11.3941
▁грамадскім	-11.3944
тыка	-11.3944
▁Залаты	-11.3945
▁трапля	-11.3945
▁вадарод	-11.3948
▁Уво	-11.3954
▁ценности	-11.3955
▁мур	-11.3956
▁64	-11.3957
▁барабан	-11.3958
▁мадыфікацы	-11.3958
▁перашкаджа	-11.3958
▁ресторан	-11.3958
▁адтулін	-11.3958
▁кірмаш	-11.3958
▁завтра	-11.3958
▁используется	-11.3958
доль	-11.396
▁сканчэнн	-11.3962
▁нижн	-11.3962
pp	-11.3964
▁Роз	-11.3964
нкі	-11.3965
ырока	-11.3966
▁выратава	-11.3967
▁сохранить	-11.3967
▁обратил	-11.3968
▁бой	-11.397
▁словно	-11.397
▁приходят	-11.3972
▁соглас	-11.3972
▁Уран	-11.3973
▁імператрыц	-11.3973
▁галерэя	-11.3978
▁даследаванне	-11.3979
▁аказвае	-11.3988
▁залато	-11.3988
▁Эдварда	-11.3992
▁участник	-11.3997
▁прамым	-11.4001
▁зан	-11.4002
двиг	-11.4003
▁больны	-11.4007
▁производство	-11.4009
▁бізнес	-11.4009
▁дыяпазон	-11.4009
▁заставляет	-11.4009
▁посредств	-11.4009
▁прамавугольна	-11.4009
▁прымусіл	-11.4009
▁Міхайлавіч	-11.4009
▁Агінск	-11.4009
▁прыгожы	-11.4009
▁змяні	-11.4009
▁наперад	-11.401
▁смертност	-11.401
▁Волг	-11.4011
▁Захава	-11.4011
▁прысвяці	-11.4011
▁списк	-11.4011
▁прыступ	-11.4012
▁пазнача	-11.4013
▁Ідэ	-11.4013
▁коле	-11.4014
▁залежа	-11.4018
▁125	-11.4018
▁падн	-11.4022
▁трас	-11.4025
▁подобно	-11.4027
▁странны	-11.4027
плыв	-11.403
▁спев	-11.4031
▁работающи	-11.4033
▁рухаў	-11.4035
▁захапі	-11.4035
▁змяненн	-11.4035
▁голоса	-11.4036
▁блог	-11.4037
справить	-11.4039
▁развивающих	-11.404
▁революции	-11.404
▁выяўля	-11.4041
▁Грэцыя	-11.405
▁яві	-11.405
▁трапляе	-11.4054
магчы	-11.4054
▁выяснит	-11.4058
▁155	-11.4059
▁подходит	-11.406
екалькі	-11.406
▁биологи	-11.406
▁зняволены	-11.4061
▁найстарэйшы	-11.4061
▁оружие	-11.4061
▁падручнік	-11.4061
▁рэспубліканскі	-11.4061
▁смерть	-11.4061
▁химически	-11.4061
▁знаний	-11.4061
▁залатым	-11.4062
ёдар	-11.4062
▁Идея	-11.4063
▁вучылішч	-11.4064
▁страха	-11.4065
▁некатора	-11.4066
▁перадае	-11.4067
▁Бур	-11.4068
▁святло	-11.4069
▁адыгрыва	-11.4071
▁казк	-11.4071
▁далёкі	-11.4075
▁сидел	-11.4075
▁сыш	-11.4077
▁Три	-11.4079
▁знікл	-11.408
▁Абу	-11.4084
апроч	-11.4084
▁медаль	-11.4088
▁коне	-11.4089
▁справля	-11.409
▁Канстанцінопаль	-11.409
рычн	-11.409
авання	-11.409
▁собрали	-11.4092
▁достижени	-11.4093
▁дыяметра	-11.4094
▁планету	-11.4095
▁заставил	-11.4095
▁опыта	-11.4095
▁сложные	-11.4099
▁студэнт	-11.4101
▁робота	-11.4103
▁дорого	-11.4105
▁тыповы	-11.4108
ёдара	-11.411
▁модул	-11.411
▁территории	-11.4111
▁Далёк	-11.4113
▁письмо	-11.4113
▁знаходк	-11.4113
▁пасяленн	-11.4113
▁фракцы	-11.4113
▁экологически	-11.4113
▁рамонт	-11.4113
▁театр	-11.4114
▁бороться	-11.4114
жка	-11.4115
▁действие	-11.4115
▁вызывает	-11.4118
▁обмен	-11.4121
▁адправі	-11.4123
▁адкрыцц	-11.4123
аново	-11.4124
▁наблюдаем	-11.4125
▁Праг	-11.4126
▁казн	-11.4126
▁раствор	-11.4127
▁дзесяц	-11.4128
▁имели	-11.4129
елл	-11.4129
тэмы	-11.4129
дневн	-11.413
▁пола	-11.4132
▁метадам	-11.4136
вост	-11.4136
▁оставля	-11.4139
▁дамена	-11.4141
▁масштаба	-11.4143
льной	-11.4144
знала	-11.4147
▁абазначэння	-11.4148
▁решила	-11.4148
▁общего	-11.4152
▁шляхта	-11.4153
▁1820	-11.4155
▁медленно	-11.4159
▁пралі	-11.416
▁падтрымка	-11.4161
▁асобнік	-11.4163
▁Найвышэйша	-11.4165
▁дрэнна	-11.4165
▁обнаружен	-11.4165
▁пасажырскі	-11.4165
▁Буйны	-11.4165
▁паўтара	-11.4165
▁Казан	-11.4165
▁вырос	-11.4165
▁візіт	-11.4166
▁магутна	-11.4166
▁збудаванне	-11.4169
▁азот	-11.417
▁хрыбта	-11.417
▁метан	-11.4173
▁падтрымаў	-11.4175
▁представляют	-11.4178
▁существа	-11.418
▁физическо	-11.4186
▁варыянта	-11.4187
▁полагаю	-11.4187
▁лепшым	-11.419
гадова	-11.4191
▁аўтамабіль	-11.4192
▁американско	-11.4193
▁творчы	-11.4193
▁требуется	-11.4198
эль	-11.4198
▁выпускае	-11.4199
▁еўрапейца	-11.4207
▁адышл	-11.4211
▁памерл	-11.4213
▁новость	-11.4214
▁рухавіко	-11.4215
▁імператарска	-11.4216
ПА	-11.4216
▁падабенства	-11.4217
▁лежит	-11.4217
▁географ	-11.4218
▁пакарання	-11.4218
▁Ліві	-11.4218
▁архіў	-11.4219
▁супярэчнасц	-11.4219
▁размах	-11.422
▁залоз	-11.422
▁Аляксандравіч	-11.4222
▁открытие	-11.4222
▁ідэал	-11.4226
вшая	-11.4227
▁ценность	-11.4228
▁персанажа	-11.4228
слаў	-11.423
▁99	-11.4231
▁видят	-11.4233
▁родил	-11.4233
▁вып	-11.4233
асто	-11.4233
▁прастор	-11.4237
▁жаб	-11.4238
▁опера	-11.4239
▁пазіцыя	-11.4239
▁рэдакцыя	-11.4242
▁звярну	-11.4248
▁ўведзены	-11.4251
▁вызваленне	-11.4255
▁адміністрацыя	-11.4255
▁Літаратур	-11.4256
▁позволя	-11.4257
▁маркі	-11.4257
▁соль	-11.4259
▁повлия	-11.426
▁напада	-11.4261
ронік	-11.4263
▁жен	-11.4263
▁Сям	-11.4267
▁амерыканскім	-11.4267
▁прылада	-11.4267
кшталт	-11.427
▁исполни	-11.427
▁мядзведз	-11.427
▁папуляцы	-11.427
▁тралейбус	-11.427
▁вадаспад	-11.427
▁размышля	-11.427
▁познакоми	-11.427
▁представления	-11.4272
пэўна	-11.4274
▁Ирак	-11.4276
▁поднять	-11.4277
▁зямельны	-11.4278
▁жон	-11.4279
▁никак	-11.4279
▁среднем	-11.428
▁прадстаўніцтв	-11.4281
твараючы	-11.4284
▁Мир	-11.4285
▁прытокам	-11.4287
▁правам	-11.4287
генов	-11.4289
▁наведваў	-11.429
▁смен	-11.429
▁прошло	-11.4292
▁паслядоўнасц	-11.4293
▁супол	-11.4294
▁Марцін	-11.4295
▁пакаленн	-11.4297
▁отправил	-11.43
▁воде	-11.43
▁выканана	-11.4302
▁падатка	-11.4304
▁изменил	-11.4304
▁выходзя	-11.4305
дзь	-11.4306
▁наваколля	-11.4308
піва	-11.4308
▁народам	-11.4309
▁связыва	-11.4311
▁кн	-11.4318
▁Кита	-11.4319
▁прызнана	-11.4321
▁Албані	-11.4323
▁выбітны	-11.4323
▁заболеваний	-11.4323
▁событий	-11.4323
изация	-11.4323
▁фокус	-11.4323
▁счастье	-11.4323
▁попасть	-11.4323
▁впечатлени	-11.4323
▁Кап	-11.4323
цов	-11.4324
▁науке	-11.4324
▁Вёск	-11.4325
▁бібліятэ	-11.4326
▁добавл	-11.4331
▁понимания	-11.4332
▁магчымым	-11.4335
намс	-11.4339
▁тонка	-11.434
▁найвышэйшы	-11.434
▁гарадзішча	-11.4343
▁Габсбурга	-11.4344
▁суш	-11.4347
▁вузкі	-11.4347
▁1887	-11.4355
▁Джэймс	-11.4356
▁небольш	-11.4358
▁Парыжска	-11.436
▁пісьмова	-11.436
▁нагор	-11.436
▁механічны	-11.4361
▁заключае	-11.4361
▁марш	-11.4364
▁собирает	-11.4368
▁выйсц	-11.4369
▁гетмана	-11.4372
ший	-11.4375
▁адпраўля	-11.4376
▁фартэпіян	-11.4376
▁шырот	-11.4376
▁Туніс	-11.4376
▁фотографию	-11.4376
▁Івацэвіцкі	-11.4376
▁арыгінальна	-11.4376
▁прадметам	-11.4378
▁биологии	-11.4378
▁Іаган	-11.4379
▁уваходзя	-11.438
▁оказался	-11.4381
▁размяшчэнне	-11.4381
шаны	-11.4381
▁абарот	-11.4381
▁ўказ	-11.4384
▁поднял	-11.4385
▁маги	-11.4385
▁Пачат	-11.4387
гранич	-11.4388
▁выклікаў	-11.4388
ТЭ	-11.439
▁замежн	-11.439
▁истори	-11.4392
▁применит	-11.4393
▁праяўля	-11.4395
▁унія	-11.4399
▁вучэння	-11.44
▁спецыяліст	-11.4402
▁Аўстралія	-11.4402
▁Тор	-11.4403
▁Малер	-11.4403
▁приобре	-11.4406
▁пазіцый	-11.4408
рис	-11.441
культур	-11.4411
▁працягнуў	-11.4413
▁вызначэнне	-11.4413
▁ваг	-11.4414
▁базу	-11.4415
▁смотрел	-11.4416
▁Блізкі	-11.4416
▁нейка	-11.4417
▁рукой	-11.4418
▁тэрміна	-11.4422
ыву	-11.4425
▁Стана	-11.4426
ступить	-11.4426
дис	-11.4426
▁продолжал	-11.4426
вызваленча	-11.4429
▁сімфоні	-11.4429
▁дыскусі	-11.4429
▁пярэдня	-11.4429
▁начиная	-11.443
▁находимся	-11.443
легче	-11.443
гета	-11.4432
▁важнее	-11.4434
▁мощны	-11.4435
ікава	-11.4435
▁сустрэў	-11.4437
▁Альп	-11.4437
▁чувствует	-11.4438
▁збег	-11.4445
пользова	-11.4445
▁правительств	-11.4445
зень	-11.4446
чак	-11.4447
▁жук	-11.4448
▁абедзв	-11.4449
▁выклікана	-11.4451
▁Эйнштэйна	-11.4451
▁уваход	-11.4452
▁павелічэнне	-11.4453
есы	-11.446
▁баго	-11.4463
ённые	-11.4463
▁слабо	-11.4464
▁поддерживать	-11.4465
радзе	-11.447
▁мощно	-11.4471
▁шырок	-11.4472
▁научили	-11.4472
▁Нансена	-11.4472
▁Перед	-11.4472
▁мёртвы	-11.4473
▁задумать	-11.4473
▁ўмацавання	-11.4475
вшим	-11.4476
▁местност	-11.4478
▁лінгвіст	-11.4483
▁деятельности	-11.4483
▁информационн	-11.4483
▁удовольствие	-11.4483
▁сообща	-11.4483
чыльнасц	-11.4484
▁вновь	-11.4484
▁Мэры	-11.4484
▁скульптура	-11.4486
▁жаданне	-11.4487
▁сябр	-11.4491
▁рабочих	-11.4493
▁друзьями	-11.4496
▁перамога	-11.4499
▁французск	-11.4499
▁потеря	-11.4503
▁достижения	-11.4503
▁султана	-11.4504
▁найменша	-11.4505
▁вярнулі	-11.4505
▁ням	-11.4508
▁матэматычны	-11.451
▁пользовател	-11.4514
▁Эйнштэйн	-11.4515
▁франта	-11.4515
Леон	-11.4516
▁намесніка	-11.4518
кажите	-11.4521
▁Дар	-11.4525
▁восемь	-11.4525
▁падпарадкава	-11.4526
скоре	-11.4527
▁Троцкі	-11.4529
▁давление	-11.4534
▁СПИД	-11.4537
▁біялагічны	-11.4537
▁солдат	-11.4537
▁зніжэнн	-11.4537
▁Мікалаевіч	-11.4538
▁завершана	-11.4538
▁бело	-11.454
▁Тытан	-11.4541
▁сок	-11.4542
▁обладаю	-11.4543
▁следства	-11.4544
▁началось	-11.4545
чал	-11.4545
▁папы	-11.4546
▁зарэгістравана	-11.4547
▁брак	-11.4548
▁прыпісва	-11.4548
▁различия	-11.4549
▁грамадзянін	-11.4551
роп	-11.4551
▁гены	-11.4552
▁пабудо	-11.4552
▁Ордэн	-11.4554
▁Месца	-11.4554
▁реальном	-11.4563
▁археолаг	-11.4564
▁паняцц	-11.4564
▁анти	-11.4565
водзя	-11.4568
▁атамна	-11.4571
▁какую	-11.4572
▁Гам	-11.4573
▁апостала	-11.4573
▁название	-11.4577
▁страт	-11.4579
екта	-11.4584
▁Важн	-11.4585
▁выяўленн	-11.4587
изирован	-11.4587
▁провал	-11.4588
▁отправить	-11.4588
▁абсерваторы	-11.4591
▁солнечно	-11.4591
▁тенденци	-11.4591
▁мил	-11.4591
▁стресс	-11.4591
▁выгнанн	-11.4592
▁растёт	-11.4592
▁ўжыт	-11.4592
элі	-11.4592
▁Лагойск	-11.4592
▁крови	-11.4592
▁паездк	-11.4594
▁закладзены	-11.4594
▁Обычно	-11.4595
▁дазволіў	-11.4595
▁антычны	-11.4596
▁сыну	-11.4599
▁Вільгельма	-11.4599
▁бываю	-11.4602
▁услови	-11.4606
▁падтрымліва	-11.4607
▁занесены	-11.4608
▁паведамля	-11.4608
▁перакла	-11.4611
сцяны	-11.4612
▁огромна	-11.4612
▁поспехам	-11.4612
▁звалі	-11.4619
▁Статут	-11.4622
▁климат	-11.4622
▁взаимодействия	-11.4623
▁ютарны	-11.4625
▁пошука	-11.4625
▁музы	-11.4626
▁злачынства	-11.4626
▁вещества	-11.4626
▁достигл	-11.4628
▁Пінска	-11.4632
▁жывёлагадоўля	-11.4632
ведения	-11.4633
▁Банк	-11.4633
прэзідэнт	-11.4634
рысціян	-11.4635
▁набыва	-11.4635
▁оказыва	-11.4638
▁аддаў	-11.4639
▁воск	-11.4641
▁воздуха	-11.4641
упак	-11.4641
▁фарміраванн	-11.4643
▁старт	-11.4644
▁вока	-11.4645
▁Рычард	-11.4646
▁бюджет	-11.4646
▁цікаві	-11.4646
▁швейцарск	-11.4646
▁ўзгорк	-11.4646
▁университета	-11.4647
▁враща	-11.4647
▁отдельно	-11.4652
▁дэманстрацы	-11.4657
чыні	-11.4658
▁рухам	-11.4659
▁заваявання	-11.466
▁старонка	-11.466
▁носьбіта	-11.4663
шмат	-11.4664
▁ядноўвае	-11.4664
рыня	-11.4667
▁вс	-11.4668
▁пес	-11.4668
▁действу	-11.467
▁арэн	-11.467
▁закончи	-11.4672
▁защитить	-11.4673
▁самостоятельно	-11.4674
▁хлеба	-11.4675
▁вовс	-11.4675
дём	-11.4678
▁сторона	-11.4679
▁гуртк	-11.468
▁здравоохранени	-11.4685
мимо	-11.4689
▁ператварыў	-11.469
▁движ	-11.4691
▁плеч	-11.4694
▁забяспечваю	-11.4695
▁мировы	-11.4696
▁Працу	-11.4697
рысто	-11.4699
▁прызнання	-11.47
▁дэкаратыўна	-11.4701
▁триллион	-11.4701
▁Праваслаўна	-11.4701
▁хватает	-11.4701
▁дерево	-11.4701
▁американцев	-11.4701
▁рэгулярны	-11.4701
▁ўраўненн	-11.4701
▁Дзяржав	-11.4702
даётся	-11.4703
▁рэкорд	-11.4704
▁парти	-11.4705
▁бывае	-11.4707
▁медалё	-11.4707
▁спрашиваю	-11.4707
▁Сямён	-11.471
▁ставілі	-11.4711
был	-11.4713
▁существу	-11.4718
▁здароўе	-11.4721
▁матэматычна	-11.4721
▁падрыхтоўка	-11.4723
▁пределам	-11.4727
▁Пред	-11.4728
▁знаём	-11.4728
▁медыцыны	-11.4729
кінуты	-11.4731
▁доступно	-11.4733
▁Оп	-11.4735
▁страта	-11.4736
▁отношении	-11.4738
▁Калифорнии	-11.4739
▁теория	-11.4739
▁пяты	-11.4743
▁сінтэз	-11.4745
▁ветра	-11.4746
▁распрацоўка	-11.4746
▁дзевя	-11.4747
▁дали	-11.4748
▁настроен	-11.4749
▁собственн	-11.475
▁команды	-11.4752
прежнем	-11.4756
▁візантыйскі	-11.4756
▁павятовы	-11.4756
▁хрышчэнн	-11.4756
▁понятие	-11.4756
▁разобраться	-11.4756
▁живу	-11.4756
▁хваста	-11.4756
▁череп	-11.4756
▁туалет	-11.4756
▁Быхаў	-11.4756
▁зерн	-11.4756
▁камера	-11.4757
▁запрашэнн	-11.4757
▁нядзел	-11.4758
▁признак	-11.4758
▁хатня	-11.4759
▁адкрыла	-11.4761
▁уничтож	-11.4762
▁гандляр	-11.4763
▁ўсталяваны	-11.4763
▁хмызняко	-11.4764
▁прыкметна	-11.4766
▁получит	-11.477
▁функци	-11.477
▁разработан	-11.4771
▁передать	-11.4773
▁скасаванн	-11.4773
▁вяла	-11.4776
▁прыгарад	-11.4778
▁165	-11.4779
правляем	-11.4781
▁аркестра	-11.4783
▁сектара	-11.4783
▁Яму	-11.4783
▁жаданн	-11.4784
▁Імператар	-11.4787
▁зямны	-11.4787
▁старым	-11.4788
▁ссылк	-11.4791
▁валоданн	-11.4791
▁прылеглы	-11.4796
▁позволяю	-11.4799
▁хво	-11.4799
▁прошлое	-11.48
▁праве	-11.4802
▁рэжысёра	-11.4803
▁контроля	-11.4805
▁псеўданімам	-11.4806
▁бумаги	-11.4806
▁175	-11.4809
▁СМ	-11.4809
▁Альцгеймер	-11.4812
▁Вашингтон	-11.4812
▁внезапно	-11.4812
▁візантыйска	-11.4812
▁гуманітарн	-11.4812
▁0,8	-11.4813
▁Значит	-11.4813
▁чарговы	-11.4814
▁1801	-11.4815
▁занимают	-11.4817
▁успешны	-11.4818
▁арми	-11.4819
▁даруч	-11.4819
▁Паўночн	-11.482
▁хорош	-11.4821
▁стваралі	-11.4822
▁плоска	-11.4828
▁сіня	-11.4828
▁пазначэнн	-11.4829
▁скульптар	-11.483
▁отвечаю	-11.483
▁эканоміка	-11.4835
▁ютара	-11.4835
▁сверху	-11.4835
▁относит	-11.4836
▁Рыгор	-11.4838
▁Слав	-11.4839
▁чёрны	-11.484
▁машына	-11.4841
▁спецыялістаў	-11.4841
▁Канада	-11.4841
▁спадчыннік	-11.4841
▁Незалежнасц	-11.4844
▁Брагінскі	-11.4846
▁перавага	-11.4848
▁учат	-11.4855
▁технически	-11.4857
▁формай	-11.4857
▁выконвалі	-11.4859
▁мітрапаліта	-11.4859
▁международны	-11.4861
кватэра	-11.4864
▁плоскі	-11.4865
▁гарант	-11.4865
▁счет	-11.4866
▁раду	-11.4867
▁Трэці	-11.4868
▁Уругва	-11.4868
▁выпушчана	-11.4868
▁сцвярджэнн	-11.4868
▁учёных	-11.4868
▁вапняк	-11.4868
▁распределен	-11.4868
▁магнітны	-11.4868
▁Кветк	-11.4868
▁Ганконг	-11.4868
▁пляц	-11.4868
▁рукав	-11.4869
▁Персі	-11.4869
▁территори	-11.487
▁пастаўлена	-11.487
▁Добра	-11.4871
▁кантэкс	-11.4872
▁бесед	-11.4872
tt	-11.4874
▁папярэдніка	-11.4876
▁Год	-11.4878
▁губ	-11.488
▁тэмп	-11.4881
▁увеличить	-11.4881
▁восприятие	-11.4881
▁сейм	-11.4884
▁палатн	-11.4885
ногі	-11.4885
чаў	-11.4885
гонь	-11.4886
шие	-11.4887
▁Прэзідыума	-11.4891
класці	-11.4891
▁лясно	-11.4897
▁450	-11.4898
▁чудес	-11.49
▁Мех	-11.4901
слоў	-11.4903
▁поддержива	-11.4903
▁понимани	-11.4904
▁кода	-11.4906
▁Горка	-11.4911
▁работник	-11.492
▁феномен	-11.4921
▁спыніў	-11.4923
▁Сколько	-11.4924
▁княгін	-11.4924
▁шимпанзе	-11.4924
▁індыйска	-11.4924
▁вещах	-11.4924
▁вяселл	-11.4924
▁Генеральны	-11.4924
▁Сымон	-11.4924
▁пазнанн	-11.4925
▁сложнее	-11.4925
▁Менска	-11.4926
▁общения	-11.4926
▁базілік	-11.4927
▁намінал	-11.4927
▁ўчаст	-11.493
▁ткани	-11.4931
▁активно	-11.4932
▁тычы	-11.4932
▁Билл	-11.4935
▁север	-11.4936
іліпа	-11.4936
▁изменили	-11.4936
▁грамад	-11.4938
▁Карэлі	-11.4939
вяшчанн	-11.4942
▁гнязд	-11.4944
▁уведзен	-11.4945
▁светлы	-11.4945
▁танка	-11.495
▁буры	-11.495
▁позна	-11.4952
▁выходзіл	-11.4952
▁проводить	-11.4954
▁удзельніка	-11.4962
звычай	-11.4963
леск	-11.4965
▁распозна	-11.4971
палітычны	-11.4973
▁разрушен	-11.4973
▁зачем	-11.4974
▁прамов	-11.4975
▁хана	-11.4977
нном	-11.4978
американц	-11.498
▁Вообще	-11.498
▁Вішнявецк	-11.498
▁Леанард	-11.498
▁сярэднявечч	-11.498
▁дзяр	-11.498
▁трех	-11.4981
▁Ответ	-11.4981
части	-11.4982
▁найменн	-11.4982
▁низки	-11.4982
рама	-11.4982
▁добавить	-11.4984
▁генеральна	-11.4984
▁международно	-11.4985
▁неделе	-11.4985
▁похож	-11.4987
▁тепло	-11.4989
▁патрэбны	-11.4989
▁одному	-11.499
▁людзям	-11.4991
▁безопасность	-11.4991
▁запісаны	-11.4992
▁Ваенна	-11.4992
▁ума	-11.4992
▁крив	-11.4993
ішча	-11.4993
▁ўво	-11.4996
▁Пят	-11.5
плен	-11.5003
вернуть	-11.5009
адзення	-11.5013
▁серб	-11.5013
длегласц	-11.5014
▁личны	-11.5017
▁евіч	-11.5017
▁животно	-11.5019
▁заваяваны	-11.5019
▁построили	-11.502
▁разгром	-11.502
▁бесплатно	-11.5022
▁распаўсюджанне	-11.5024
▁существ	-11.503
нясе	-11.5034
▁какого	-11.5035
▁Іосіф	-11.5037
▁Дынама	-11.5037
▁блакітны	-11.5037
▁лёгки	-11.5037
▁рыбалоўства	-11.5037
▁сотруднича	-11.5037
▁ўражанн	-11.5037
▁ўздым	-11.5037
▁галаўны	-11.5038
▁предложение	-11.5039
▁побыт	-11.5039
▁канечнасц	-11.5039
▁пластик	-11.504
▁посуд	-11.5042
▁финансовы	-11.5042
▁спалучэнне	-11.5044
▁азначала	-11.5045
▁Арабск	-11.5046
▁1,7	-11.5046
▁каф	-11.5047
▁касмічна	-11.5048
▁уладальнік	-11.505
остр	-11.5051
▁знішчана	-11.5054
▁тая	-11.5059
▁выбрал	-11.506
▁лыж	-11.5063
▁прадстаўляе	-11.5063
▁рознага	-11.5067
▁существовал	-11.507
▁выкладчыкам	-11.5073
▁мышления	-11.5075
▁кара	-11.5077
▁патрэбна	-11.5078
▁дадзеным	-11.508
▁занимал	-11.5087
▁Африка	-11.5088
дэмакратычна	-11.5094
▁персонаж	-11.5094
▁деятельность	-11.5094
▁прытул	-11.5095
▁память	-11.5095
▁захоўвалі	-11.5095
▁гатовы	-11.5095
▁помести	-11.5095
▁дэбютава	-11.5096
▁абмывае	-11.5098
▁Гран	-11.5098
▁экологи	-11.5099
▁спутник	-11.5101
▁погляда	-11.5103
▁прысуд	-11.5107
▁цуд	-11.5108
▁дают	-11.5111
▁группу	-11.5113
▁найвялікшы	-11.5113
▁опасно	-11.5113
▁Раб	-11.5115
▁заверш	-11.5116
▁электрона	-11.5116
▁дзеючы	-11.512
▁Створана	-11.5123
▁Мура	-11.5124
▁нож	-11.5127
▁Міжзем	-11.5129
▁налічва	-11.5131
веку	-11.5132
▁проектов	-11.5135
▁квет	-11.5137
▁задня	-11.5138
▁моўна	-11.5139
▁палё	-11.514
▁ледник	-11.5141
▁историй	-11.5145
▁даты	-11.5145
▁велізарна	-11.515
▁Рэк	-11.515
▁Узнагароджан	-11.5152
▁біялогі	-11.5152
▁землетрасенн	-11.5152
▁информацией	-11.5152
▁обработк	-11.5152
▁определяет	-11.5152
▁прыбярэжны	-11.5152
▁харчовы	-11.5152
▁расстройств	-11.5152
▁Крупскі	-11.5152
▁памяти	-11.5152
▁ніводна	-11.5152
▁ператвара	-11.5152
▁завершаны	-11.5152
▁приходилось	-11.5152
▁перасякае	-11.5152
▁бизнеса	-11.5152
▁Барбар	-11.5153
▁Залато	-11.5153
▁выделя	-11.5154
онка	-11.516
▁мук	-11.5161
▁грама	-11.5161
▁Якуба	-11.5161
▁опрос	-11.5162
▁царска	-11.5163
▁нефть	-11.5163
▁Гал	-11.5165
▁частот	-11.5168
▁проще	-11.5171
▁запах	-11.5171
▁перакана	-11.5176
▁компанию	-11.5177
▁материалов	-11.5178
атуры	-11.518
▁играл	-11.5185
▁здоровы	-11.519
▁опасны	-11.5192
▁яйк	-11.5193
▁сумесны	-11.5194
строить	-11.5197
▁публік	-11.5207
▁падтрымал	-11.5207
▁Кірава	-11.5208
▁пацверджан	-11.521
▁ВВП	-11.521
▁Лунінец	-11.521
▁Босні	-11.521
▁ганарова	-11.521
▁мэбл	-11.521
▁паслядоўнік	-11.521
▁девочек	-11.521
▁мясцін	-11.521
▁ислам	-11.521
▁талант	-11.521
▁аналагічны	-11.521
▁маральна	-11.521
▁струн	-11.5212
▁гвалт	-11.5213
еловек	-11.5214
▁пераслед	-11.5216
▁настоящ	-11.5216
▁Ор	-11.5216
▁минуту	-11.5217
▁камуніста	-11.5218
▁франка	-11.5219
▁возник	-11.5223
▁трыццац	-11.5225
▁размяшчалі	-11.5226
▁Стан	-11.5229
▁руін	-11.5232
еўскі	-11.5234
▁преврати	-11.5234
▁мимо	-11.5238
▁вял	-11.5242
▁утвараю	-11.5242
▁звонк	-11.5242
▁сидя	-11.5245
▁вяртанне	-11.5247
▁дынастыя	-11.5249
▁іспанц	-11.5251
верхня	-11.5256
▁каталік	-11.5257
▁идет	-11.5257
▁заинтересован	-11.5262
▁адзнак	-11.5264
▁арэнд	-11.5264
▁просьба	-11.5265
рек	-11.5267
▁Талсто	-11.5268
▁абставін	-11.5268
▁рэзкі	-11.5268
▁перемеща	-11.5268
▁пшаніц	-11.5268
▁вымаўленн	-11.5268
▁окружени	-11.5268
▁франто	-11.5268
▁запісва	-11.527
▁вашим	-11.527
▁насилие	-11.527
реки	-11.527
▁губля	-11.527
▁спыня	-11.5271
▁полос	-11.5275
▁Малады	-11.5275
▁праводзіла	-11.5276
▁оценива	-11.5277
▁цяжкім	-11.5278
▁міжнародным	-11.5283
▁помог	-11.5284
▁перамо	-11.5286
▁контрол	-11.5287
▁выхаванн	-11.529
бол	-11.529
▁прийти	-11.5294
лучится	-11.5296
▁детски	-11.5296
▁дзённік	-11.5298
▁праспекта	-11.5299
▁збудаванн	-11.5303
▁сило	-11.5305
▁капліца	-11.5305
▁гражданско	-11.5309
▁Уэльс	-11.5311
▁перс	-11.5313
▁пасялі	-11.5317
▁Пан	-11.5325
▁класса	-11.5326
▁борьбе	-11.5326
галоўнакамандуюч	-11.5326
▁Австрали	-11.5326
▁Барселон	-11.5326
▁Распаўсюджан	-11.5326
▁каланізацы	-11.5326
▁манаграфі	-11.5326
▁Гарбачо	-11.5326
▁вылучэнн	-11.5326
▁Традыцыйна	-11.5326
▁задумыва	-11.5329
▁выконваю	-11.5331
вне	-11.5331
▁студенты	-11.5331
▁мянушк	-11.5333
▁стандартны	-11.5341
▁пік	-11.5341
▁выкладанн	-11.5344
▁цукр	-11.5345
▁шаш	-11.5348
▁Анатоль	-11.5349
▁паяс	-11.5351
▁пэўным	-11.5354
▁павялічва	-11.5356
точку	-11.5359
▁апісаны	-11.536
▁абедзвю	-11.5364
▁Кубка	-11.5364
▁возможным	-11.5373
▁различи	-11.5374
▁сцене	-11.5376
▁каханн	-11.5377
ческа	-11.5378
ападобна	-11.5379
▁вядомасц	-11.538
▁дабра	-11.5385
▁Пухавіцк	-11.5385
▁автобус	-11.5385
▁десятилетия	-11.5385
▁касцюм	-11.5385
▁паштова	-11.5385
▁телескоп	-11.5385
▁услышать	-11.5385
▁фигур	-11.5385
▁тэалогі	-11.5385
▁зелёны	-11.5385
▁понятно	-11.5385
▁срэбра	-11.5385
▁карыстальніка	-11.5385
▁будынкам	-11.5386
▁загадчыка	-11.5388
▁перажы	-11.5389
▁паказаны	-11.539
▁земск	-11.5391
тный	-11.5392
▁прочита	-11.5395
▁Браслаўскі	-11.5397
▁сярэдн	-11.5398
▁цеп	-11.5399
▁стрел	-11.5403
▁тайны	-11.5404
▁Ленінградска	-11.5404
▁причинам	-11.5404
▁коротки	-11.5406
зэ	-11.5407
▁166	-11.5407
▁исследовани	-11.5408
▁архітэктарам	-11.541
▁рэформа	-11.5414
▁ката	-11.5416
▁утро	-11.5421
рыштаваны	-11.5421
▁продукты	-11.5421
▁176	-11.5431
▁прафесарам	-11.5434
▁Рускі	-11.5435
ключала	-11.5438
▁половина	-11.544
▁Мана	-11.544
▁распространен	-11.5441
▁давя	-11.5444
▁наведванн	-11.5444
▁грипп	-11.5444
▁содержит	-11.5444
английски	-11.5444
▁федэральны	-11.5444
▁цёмна	-11.5445
▁падводны	-11.5446
▁Адносі	-11.5446
▁кіруючы	-11.5446
▁Уладзіміравіч	-11.5447
енность	-11.5448
▁розніц	-11.5448
▁разбіты	-11.5448
▁занять	-11.5452
подрост	-11.5455
явить	-11.5455
▁Старог	-11.5458
▁научить	-11.546
▁ранне	-11.5464
▁данін	-11.5465
▁причине	-11.547
льскі	-11.5471
▁Канстанцінопал	-11.5472
▁сообщение	-11.5472
▁идеал	-11.5473
▁Гава	-11.5473
▁груди	-11.5474
▁пераемнік	-11.5476
десят	-11.5477
▁записыва	-11.5478
▁района	-11.5479
▁миф	-11.548
▁сделает	-11.5482
▁аблічча	-11.5483
▁подходящ	-11.5484
▁пищи	-11.5484
▁результатов	-11.5485
▁сете	-11.5486
носить	-11.5487
▁інжынера	-11.5488
▁гора	-11.5489
ваўся	-11.5491
▁пора	-11.5491
▁фундамент	-11.5497
серьёз	-11.5498
▁сложна	-11.5499
▁белк	-11.55
▁диск	-11.5501
▁отвеча	-11.5502
▁НАСА	-11.5504
▁Университет	-11.5504
▁благотворительн	-11.5504
▁позволь	-11.5504
▁размнажэнн	-11.5504
▁украінц	-11.5504
▁змяшчаюц	-11.5504
▁Ігнат	-11.5504
▁Язэп	-11.5504
▁поехал	-11.5506
▁изучал	-11.5506
▁шахт	-11.5507
▁падзенне	-11.5509
▁крайні	-11.5509
▁парня	-11.5511
▁надея	-11.5511
▁речи	-11.5512
▁трэнера	-11.5514
▁Гары	-11.5516
▁электронна	-11.5517
▁гандлёвым	-11.5519
чыны	-11.552
▁предположени	-11.5522
▁выкарыстаў	-11.5523
▁зарэгістраваны	-11.5524
▁роли	-11.5527
▁адклада	-11.5528
▁насельніцтв	-11.553
зілі	-11.5535
▁ніш	-11.5535
▁змаганн	-11.5538
▁ўпадзенн	-11.5539
▁глазами	-11.5539
pa	-11.5539
▁мусульманскі	-11.5539
▁останавлива	-11.5541
▁лев	-11.5541
▁голод	-11.5541
▁остановить	-11.5541
▁невялік	-11.5542
▁шчасц	-11.5546
▁філалагічны	-11.5548
ызацы	-11.5549
▁езуіта	-11.5553
ПУ	-11.5553
▁пле	-11.5555
▁роўнасц	-11.5555
сад	-11.5557
▁вучн	-11.5559
оскольк	-11.5562
▁закончить	-11.5563
маёр	-11.5563
Анджелес	-11.5564
▁Соединённы	-11.5564
▁бюджэт	-11.5564
▁мінімум	-11.5564
▁постепенно	-11.5564
▁разбурана	-11.5564
▁сярэднявечна	-11.5564
▁эпізод	-11.5564
▁Мадрыд	-11.5564
▁кнопк	-11.5564
▁Міндоўг	-11.5564
▁Людвіг	-11.5564
▁трацін	-11.5564
▁Давыд	-11.5564
▁рассказывал	-11.5566
▁кантроле	-11.5567
▁кас	-11.5567
▁плаванн	-11.5568
▁ведёт	-11.5568
▁2-3	-11.5569
▁мастацкім	-11.5569
▁вывад	-11.557
▁найбуйнейшым	-11.5571
▁правил	-11.5575
▁літоўскім	-11.5575
▁стольк	-11.5575
▁выкуп	-11.5578
▁Асвет	-11.5581
▁забараня	-11.5584
▁вечна	-11.5585
▁паслан	-11.5587
▁Сербія	-11.5588
▁помещ	-11.5589
стоит	-11.5591
▁своеасаблівы	-11.5592
▁Месяц	-11.5594
▁сацыял	-11.5597
▁пале	-11.5597
▁паўднёв	-11.5602
▁Вмест	-11.5605
▁электрически	-11.5607
▁гонк	-11.5607
▁легенда	-11.5608
▁ходу	-11.5609
▁погиб	-11.561
▁Африк	-11.561
▁пята	-11.5611
▁продк	-11.5612
▁марак	-11.5613
▁Аснов	-11.5615
▁паведамленне	-11.5616
▁заканадаўча	-11.5616
моўна	-11.5617
▁волос	-11.5619
▁марк	-11.562
▁прымаю	-11.5621
▁множеств	-11.5622
▁апісанн	-11.5622
азвіццё	-11.5623
▁Стамбул	-11.5624
▁коррупци	-11.5624
▁недастаткова	-11.5624
▁рэйтынг	-11.5624
▁набег	-11.5624
▁зарплат	-11.5624
▁кручэнн	-11.5625
▁применени	-11.5625
ap	-11.5626
▁Дзев	-11.5626
▁заболе	-11.5626
▁отличается	-11.5627
▁учителе	-11.5627
▁нападу	-11.5628
▁Тра	-11.5629
▁бумаг	-11.5631
▁описыва	-11.5634
▁разлік	-11.5634
▁кусочк	-11.5637
▁кожи	-11.5637
▁горд	-11.564
▁отдал	-11.5641
▁вырасл	-11.5642
чешь	-11.5643
▁Джорджа	-11.5644
жели	-11.5645
▁хвароба	-11.5646
актически	-11.5647
▁ахоўва	-11.5647
кладзены	-11.5647
▁ваяводств	-11.5649
▁дыска	-11.5651
▁даждж	-11.5651
▁маленьким	-11.5652
▁девушк	-11.5656
▁турыстычны	-11.5656
▁паслядоўна	-11.5658
ходили	-11.5659
▁районе	-11.566
▁Савец	-11.5662
▁убеди	-11.5667
▁збудаваны	-11.5667
▁школьна	-11.5668
▁Латвія	-11.5672
▁канстытуцыя	-11.5683
▁канцэпцыя	-11.5684
▁вычислени	-11.5684
▁тэлескоп	-11.5684
▁электрастанцы	-11.5684
▁электраэнергі	-11.5684
▁Абхазі	-11.5684
▁Сістэм	-11.5684
▁отчёт	-11.5684
▁Доўгі	-11.5685
▁перасялі	-11.5685
▁далучана	-11.5685
▁Ападк	-11.5686
▁падверг	-11.5686
▁переговор	-11.5688
▁прадстаўля	-11.5689
▁загадз	-11.5691
▁кіруюча	-11.5691
▁Роб	-11.5691
▁партыйна	-11.5692
▁лекци	-11.5694
▁4,5	-11.5699
▁палаво	-11.5701
фин	-11.5703
▁смотрели	-11.5705
▁капліц	-11.5707
вейцарыя	-11.5708
▁картина	-11.5714
▁акупацыя	-11.5715
▁ісцін	-11.5716
▁фараона	-11.5716
▁360	-11.5717
рожден	-11.5718
жит	-11.5718
▁материала	-11.572
▁узроўня	-11.5722
▁дыялекта	-11.5723
водят	-11.5725
▁вырашэння	-11.5725
▁вытворца	-11.5726
Усходня	-11.5727
▁пазначае	-11.5728
▁игрок	-11.5729
▁дзяцінств	-11.573
▁заснавальнікам	-11.5731
▁Дэл	-11.5732
▁скасавана	-11.5732
▁вход	-11.5733
▁франк	-11.5736
динственн	-11.5737
▁практыка	-11.574
▁чыноўніка	-11.5744
▁Берн	-11.5745
▁коммуникаци	-11.5745
▁Лацінска	-11.5745
▁Мексик	-11.5745
▁Пушкін	-11.5745
▁адзначаю	-11.5745
▁акупіраван	-11.5745
▁дойлідств	-11.5745
▁неожиданно	-11.5745
▁пчол	-11.5745
▁спартыўна	-11.5745
▁пратакол	-11.5745
▁единиц	-11.5745
▁прыпын	-11.5745
▁Брусел	-11.5745
▁Леанід	-11.5745
▁продолжительно	-11.5746
▁гряз	-11.5746
▁0,7	-11.5746
▁Маргар	-11.5747
▁фарб	-11.5748
▁серыя	-11.5749
стическ	-11.5749
▁грэк	-11.5749
▁чаргова	-11.575
▁хлопчыка	-11.5751
ранцішка	-11.5752
▁навучы	-11.5752
▁смотрю	-11.5754
▁стволовы	-11.5754
▁обнаружить	-11.5757
▁набыцц	-11.5757
▁прапанавана	-11.5758
▁нрави	-11.5758
ранца	-11.5763
▁каго	-11.5767
▁будавалі	-11.5771
▁скура	-11.5774
▁абрана	-11.5774
▁Стату	-11.5778
▁вулкана	-11.5778
▁знаёмы	-11.5779
▁Адрозніваюц	-11.5779
▁сцэны	-11.5782
▁шара	-11.5782
вления	-11.5789
▁нафта	-11.5791
▁линия	-11.5791
▁ядноўва	-11.5793
▁літоўц	-11.5794
▁крыло	-11.5795
▁просмотр	-11.5796
▁массово	-11.5796
▁атрымана	-11.5796
фт	-11.5797
думы	-11.5801
нутри	-11.5802
▁матыва	-11.5802
▁вечар	-11.5804
▁клад	-11.5804
▁спуска	-11.5806
▁продолжит	-11.5806
▁неафіцыйн	-11.5807
гітлераў	-11.5807
▁Перыяд	-11.5807
▁аўтаматычна	-11.5807
▁ближайши	-11.5807
▁кулямёт	-11.5807
▁кіслот	-11.5807
▁маленькую	-11.5807
▁удастся	-11.5807
▁узаемадзеянн	-11.5807
▁фабрик	-11.5807
▁нешматлікі	-11.5807
▁аутизм	-11.5807
▁Кампані	-11.5807
▁плюс	-11.5807
▁Платон	-11.5807
▁запрет	-11.5807
▁захапленн	-11.5808
▁Помнік	-11.5809
▁трохвугольнік	-11.5809
▁патрон	-11.5809
значаны	-11.581
▁Заснавана	-11.581
▁вобл	-11.581
▁ставя	-11.5813
▁Дняпро	-11.5814
весну	-11.5815
▁смотрят	-11.5816
▁грашова	-11.5816
▁сидит	-11.5816
▁5000	-11.5817
▁рул	-11.5819
▁Пятро	-11.5821
▁внутренне	-11.5823
▁третий	-11.5823
▁вызначыў	-11.5824
▁воін	-11.5825
▁искал	-11.5826
сообществ	-11.5827
▁социальн	-11.5827
▁кіравалі	-11.5828
▁сини	-11.583
▁участи	-11.5837
ируя	-11.5838
▁Марціна	-11.5838
ектов	-11.5841
▁Оста	-11.5841
льс	-11.5843
▁зацвердзіў	-11.5844
▁ценност	-11.5845
▁прасі	-11.5847
▁надрукава	-11.5856
▁мусульмане	-11.5863
▁Стэфан	-11.5867
▁симптом	-11.5869
▁справаздач	-11.5869
▁бесконечно	-11.5869
▁величайш	-11.5869
▁Пекін	-11.5869
▁успаміна	-11.5869
▁злучы	-11.5869
▁воспользова	-11.5869
▁мембран	-11.5869
▁хутар	-11.5869
▁исключение	-11.5869
▁траўн	-11.5871
▁полезно	-11.5871
▁честь	-11.5874
▁Рэчыцка	-11.5875
▁поместить	-11.5875
естно	-11.5876
▁важнейш	-11.5876
▁агульн	-11.5877
▁Эміл	-11.5878
▁мячэц	-11.5879
▁статусу	-11.588
▁рабоче	-11.588
▁нямецк	-11.588
▁помогаю	-11.5881
верен	-11.5882
▁абаронча	-11.5883
▁Парты	-11.5885
▁дзевяц	-11.5885
▁движет	-11.5885
▁выбарча	-11.5888
▁патрабавала	-11.5889
▁морско	-11.589
▁156	-11.589
▁брама	-11.5895
▁прош	-11.5895
▁адчуванн	-11.5896
▁Старо	-11.5897
▁выразны	-11.5897
▁Дол	-11.5899
жыў	-11.5907
▁помещени	-11.591
▁семи	-11.5916
▁прырост	-11.5916
▁борт	-11.5917
op	-11.5918
▁рушыл	-11.5928
▁зыход	-11.5929
▁Пре	-11.5929
▁дапамагл	-11.593
алавек	-11.593
▁Культур	-11.5931
▁Ричард	-11.5931
▁Эфіопі	-11.5931
▁библиотек	-11.5931
▁вопратк	-11.5931
▁гравюр	-11.5931
▁забалочана	-11.5931
▁обсуждени	-11.5931
▁пригласил	-11.5931
▁інфраструктур	-11.5931
▁Маладзечн	-11.5931
▁Старэйш	-11.5931
▁архібіскуп	-11.5931
▁рожда	-11.5931
▁вірус	-11.5931
▁Индия	-11.5931
▁Лепш	-11.5931
▁Васілевіч	-11.5931
▁форум	-11.5931
▁бул	-11.5934
▁пісьменніц	-11.5934
браны	-11.5934
▁даўні	-11.5936
▁арэх	-11.5938
аліту	-11.5939
▁даводзі	-11.5941
▁представлял	-11.5942
▁акадэмія	-11.5943
▁Каралін	-11.5943
▁венгерска	-11.5949
▁провед	-11.5949
▁изобре	-11.5951
▁моўны	-11.5953
▁опас	-11.5955
▁пустыня	-11.5963
ивается	-11.5964
▁гарадскім	-11.5965
▁плаці	-11.5968
▁основно	-11.597
▁адпраўлены	-11.5971
ведзены	-11.5972
▁нацыянальнасц	-11.5974
бин	-11.5974
▁зеркал	-11.5977
▁азнача	-11.5977
▁багацц	-11.5981
▁капітана	-11.5981
▁измерения	-11.5982
▁Варт	-11.5982
▁хмызняк	-11.5985
▁абмежавання	-11.5985
▁алгебр	-11.5992
▁конструкци	-11.5993
▁скляпенн	-11.5993
▁Дзяржынск	-11.5993
▁Верхні	-11.5993
▁Рэфармацы	-11.5993
▁костюм	-11.5994
▁проводим	-11.5994
▁клиник	-11.5994
▁купц	-11.5995
▁тэхнікум	-11.5996
▁Бон	-11.5998
▁станци	-11.6001
▁небяспечны	-11.6001
▁нападнік	-11.6008
▁террорист	-11.6009
▁субтрапічны	-11.601
▁природа	-11.6011
▁болезней	-11.6014
▁ледавік	-11.6016
▁Завод	-11.6016
▁адрознення	-11.6017
ремен	-11.6018
▁аднолькава	-11.602
верд	-11.6021
▁важнае	-11.6024
▁Варшава	-11.6026
▁связ	-11.6029
▁стваральнік	-11.6035
▁считал	-11.6035
▁Германска	-11.6037
▁восприяти	-11.6041
▁поставил	-11.6042
▁Перакла	-11.6052
эмпература	-11.6054
▁духоўн	-11.6055
▁Арыстоцел	-11.6056
▁военачальнік	-11.6056
▁камуністычны	-11.6056
▁кінатэатр	-11.6056
▁микроскоп	-11.6056
▁міжваенн	-11.6056
▁місіянер	-11.6056
▁прамавугольны	-11.6056
▁тэлефон	-11.6056
▁індыйскі	-11.6056
▁Лютэр	-11.6056
▁адчынен	-11.6056
▁асвятленн	-11.6056
▁паслужыл	-11.6056
▁Давід	-11.6056
следовани	-11.6056
▁Бунд	-11.6056
▁Косав	-11.6056
▁достойн	-11.6057
▁граматык	-11.6057
▁элементарны	-11.6057
▁літаратар	-11.6058
▁судьб	-11.6058
чек	-11.6058
▁сядзе	-11.6058
▁сведчання	-11.6061
▁вчера	-11.6061
▁малако	-11.6062
▁ребёнком	-11.6062
▁Кірыл	-11.6062
▁туры	-11.6063
▁единственн	-11.6064
▁попыт	-11.607
▁арганізатар	-11.6071
▁62	-11.6071
▁разнообразие	-11.6072
▁плануе	-11.6072
ступает	-11.6076
лип	-11.6076
▁сацыялізм	-11.6076
начал	-11.6077
▁абмежаванн	-11.6082
▁старая	-11.6083
▁ўтварыла	-11.6084
▁медал	-11.6085
▁психологи	-11.609
▁настаўнікаў	-11.609
▁Міхала	-11.6094
▁машине	-11.6094
▁труда	-11.6095
▁праграмаванн	-11.61
▁абарона	-11.6102
▁улица	-11.6104
▁афарбоўка	-11.6108
▁аналог	-11.6108
▁сусвет	-11.6113
годдзя	-11.6114
▁апавяданне	-11.6117
▁падрабязна	-11.6118
▁получила	-11.6118
▁Асамбле	-11.6119
▁Яраслава	-11.6119
▁деревьев	-11.6119
▁отслежива	-11.6119
▁паскарэнн	-11.6119
▁сенсор	-11.6119
▁литератур	-11.6119
▁Адольф	-11.6119
▁цыбул	-11.6119
▁Майсе	-11.6119
▁кровь	-11.612
▁фирм	-11.612
▁хаос	-11.612
▁лап	-11.6121
▁десять	-11.6122
▁прызначэнне	-11.6122
▁вырабляю	-11.6123
▁пожар	-11.6123
▁віна	-11.6124
▁кратар	-11.6124
▁самим	-11.6127
▁фактарам	-11.6129
▁Александры	-11.613
▁мозге	-11.613
▁1,8	-11.6136
яўляў	-11.6138
▁экономика	-11.6138
льш	-11.6142
▁флор	-11.6145
▁попытать	-11.6147
▁сучасніка	-11.6147
▁производить	-11.6149
▁памочніка	-11.6152
▁внутренни	-11.6153
▁детств	-11.6153
▁вырошчванн	-11.6154
▁существующи	-11.6155
▁чип	-11.616
▁пераўтварэння	-11.6161
▁несчаст	-11.6161
▁дзясятк	-11.6161
▁университете	-11.6162
▁вугаль	-11.6164
▁захопніка	-11.6164
▁падпісал	-11.6165
пиш	-11.6166
дзесят	-11.617
▁специалист	-11.617
▁маршалка	-11.6172
▁Уільяма	-11.6172
▁числе	-11.6173
▁задн	-11.6175
▁древн	-11.618
▁безопасно	-11.618
единить	-11.6182
Анджэлес	-11.6183
▁Лівоні	-11.6183
▁кашталян	-11.6183
▁стралкова	-11.6183
▁ўзмацні	-11.6183
▁пляменнік	-11.6183
▁Наконец	-11.6183
▁сінагог	-11.6183
▁батаре	-11.6183
▁метафор	-11.6183
▁Конкур	-11.6183
▁интересное	-11.6184
▁ініцыятара	-11.6184
▁плацін	-11.6184
▁средство	-11.6184
▁кресл	-11.6185
▁идеально	-11.6185
▁установить	-11.6185
▁устройств	-11.6185
▁счита	-11.6185
▁здольна	-11.6186
▁унутр	-11.6186
▁планавала	-11.6188
▁абавязаны	-11.6188
ёшь	-11.6189
oso	-11.6191
▁тыдн	-11.6192
▁каханне	-11.6192
чение	-11.6197
▁слушать	-11.6198
▁інфармацыйны	-11.6199
дзялення	-11.6204
станавіў	-11.6205
▁планіроўк	-11.6208
▁порта	-11.6209
▁паэма	-11.6211
▁пошли	-11.6212
▁валюта	-11.6215
▁дахам	-11.6219
даючы	-11.6221
▁любит	-11.6223
ўшчы	-11.6224
▁магістрал	-11.6226
▁операции	-11.6227
▁прапанавал	-11.6227
▁предложен	-11.6231
▁епіскап	-11.6231
▁взаимосвяз	-11.6232
▁Адэс	-11.6233
▁механічна	-11.6235
▁трэнер	-11.6236
пят	-11.6238
▁окружающ	-11.6244
▁мангол	-11.6247
▁Красна	-11.6247
▁Свідрыгайл	-11.6247
▁пячатк	-11.6247
▁Летні	-11.6247
▁Карыбск	-11.6247
▁разведк	-11.6247
▁Служы	-11.6247
▁Спроб	-11.6248
▁убийств	-11.6248
▁Мэта	-11.6248
центр	-11.6249
▁плас	-11.625
▁справядлівасц	-11.6251
▁матыв	-11.6253
▁проверить	-11.6255
▁менять	-11.6256
▁Антона	-11.6256
▁умацавання	-11.6257
▁гаворка	-11.626
▁эліт	-11.626
▁небо	-11.626
▁тэхніка	-11.6261
▁праекту	-11.6266
▁тэкстыльна	-11.6266
▁забіва	-11.6268
▁значения	-11.6268
актычна	-11.6269
▁блізкасц	-11.6271
▁хуткі	-11.6271
стать	-11.6275
▁дамаг	-11.6282
▁Клецкі	-11.6282
▁Буш	-11.6282
▁Брэсц	-11.6284
▁афрыканскі	-11.6284
▁творам	-11.6285
▁аўтамабіл	-11.6289
▁практык	-11.6293
▁льв	-11.6297
▁працягну	-11.6299
лук	-11.6299
даследчы	-11.63
▁прыбор	-11.6302
сос	-11.6308
▁Песня	-11.6312
▁арганізоўва	-11.6312
▁Асобны	-11.6312
▁Нигери	-11.6312
▁дзвяр	-11.6312
▁исключительно	-11.6312
▁пчёл	-11.6312
▁славутасц	-11.6312
▁ўскраін	-11.6312
▁прадмесц	-11.6312
▁Займаў	-11.6312
▁курорт	-11.6312
▁светлавы	-11.6313
▁цягне	-11.6314
▁книге	-11.6315
▁Маркс	-11.6317
▁малыш	-11.6317
▁супрацоўнікам	-11.6317
▁слуха	-11.6319
▁Боже	-11.632
▁мел	-11.632
▁стальц	-11.6323
▁каманду	-11.6324
▁раслінны	-11.6324
▁системой	-11.6325
▁спрэч	-11.6327
▁меньш	-11.6329
▁сообщения	-11.6332
▁Маўр	-11.6335
▁прызнае	-11.6336
▁моря	-11.6338
▁Зорк	-11.634
▁саюзны	-11.6343
▁гульцо	-11.6344
▁ствала	-11.6344
▁сядзіба	-11.6348
▁установлен	-11.6352
▁мух	-11.6356
карту	-11.6357
▁ужыванн	-11.6358
▁приносит	-11.636
▁влияни	-11.6363
▁травм	-11.6363
очку	-11.6364
▁Слуцкі	-11.6366
руды	-11.6367
▁професси	-11.6368
▁прырода	-11.6368
технологи	-11.6368
▁ані	-11.6368
▁верил	-11.6369
▁меч	-11.637
▁долги	-11.6371
▁Атлант	-11.6373
▁матэры	-11.6375
▁бліскуч	-11.6377
▁потребля	-11.6377
▁Саудаўска	-11.6377
▁абумоўлена	-11.6377
▁арганічна	-11.6377
▁сфармулява	-11.6377
▁топлива	-11.6377
▁кансерваторы	-11.6377
▁дверь	-11.6377
▁0,6	-11.6378
▁Людвік	-11.6378
ляют	-11.6381
▁звання	-11.6382
▁Рэн	-11.6382
▁дли	-11.6386
▁дзіка	-11.6386
▁маладым	-11.6387
▁Гомельскі	-11.6387
▁черн	-11.6388
▁господ	-11.6389
▁Іосіфа	-11.6392
▁пасяліў	-11.6394
▁мера	-11.6394
▁едва	-11.6395
▁інтэрв	-11.6396
▁пэўн	-11.64
ts	-11.6404
▁кампанента	-11.6408
▁потребност	-11.641
▁перы	-11.641
остью	-11.6421
▁ўніз	-11.6423
бирать	-11.6423
▁танкава	-11.6426
▁летапіса	-11.6428
▁Ваенн	-11.6431
аходжанне	-11.6432
▁ўзведзен	-11.6434
▁святара	-11.6435
▁парт	-11.6439
▁Свята	-11.6439
▁дацкі	-11.6439
▁задал	-11.6439
▁Партыя	-11.644
▁Конгресс	-11.6442
▁абмеркаванн	-11.6442
▁студэнцкі	-11.6442
▁улучша	-11.6442
▁Агульны	-11.6442
▁диалог	-11.6442
▁апсід	-11.6442
▁малітв	-11.6442
▁противоречи	-11.6442
рнобыльск	-11.6442
▁камеру	-11.6442
▁играю	-11.6442
▁адмоўны	-11.6442
▁археалогі	-11.6442
▁одинаково	-11.6442
▁протез	-11.6443
▁автомат	-11.6443
важен	-11.6443
▁луч	-11.6444
▁СІ	-11.6445
▁прарока	-11.6446
▁даходзі	-11.6447
▁здоров	-11.6448
▁берёт	-11.6448
▁накірава	-11.6448
▁ядерно	-11.645
▁Макс	-11.645
▁Каков	-11.6451
▁Аснова	-11.6451
▁торговл	-11.6452
ологии	-11.6454
▁политика	-11.6455
▁1802	-11.646
▁Існавал	-11.6461
▁хадзі	-11.6463
▁ощущения	-11.6465
▁застало	-11.647
▁захаваны	-11.6473
▁сцягам	-11.6473
▁спалены	-11.6474
▁святаро	-11.6476
▁Альберта	-11.6478
▁Наде	-11.6478
▁насяля	-11.6483
▁собирать	-11.6486
▁Гульня	-11.6487
▁справедливост	-11.6487
▁абалонк	-11.6488
▁льд	-11.6488
▁путе	-11.6489
▁рабства	-11.649
долго	-11.649
▁прошли	-11.6496
▁ўсталяванн	-11.6499
▁роман	-11.6499
▁поставить	-11.6503
▁рыбу	-11.6503
опыт	-11.6503
▁заклік	-11.6505
брали	-11.6506
▁Сэр	-11.6508
▁Астатні	-11.6508
▁Мужчин	-11.6508
▁гароднін	-11.6508
▁минимум	-11.6508
▁нацысцка	-11.6508
▁персідска	-11.6508
▁мінімальн	-11.6508
асад	-11.6509
▁рамеснік	-11.6509
▁вектар	-11.6511
▁апек	-11.6514
▁Бранск	-11.6515
▁пагорк	-11.6515
▁отвечает	-11.6516
▁прыдворны	-11.6517
нтов	-11.6518
▁вырошчва	-11.6518
йдём	-11.6519
▁солнце	-11.652
▁літоўца	-11.6522
▁дзесятк	-11.6522
▁спрашива	-11.6523
стоять	-11.6523
▁пытают	-11.6524
▁перыядычны	-11.6524
▁дочь	-11.6525
▁дэльт	-11.6525
ЗБ	-11.6526
▁Другим	-11.6527
▁паліцыя	-11.6529
▁староства	-11.653
▁вспомина	-11.6533
▁выяснил	-11.6535
▁бывает	-11.6535
нит	-11.6535
▁превратить	-11.6537
▁прыкметны	-11.6538
▁Альберт	-11.6538
антэ	-11.6538
▁цифровы	-11.6542
▁кампанент	-11.6542
▁финансово	-11.6545
▁дзесяцін	-11.6545
▁комнату	-11.6548
▁працягваю	-11.656
изаци	-11.6563
▁атрадам	-11.6564
енни	-11.6564
▁саветнік	-11.6565
▁краінам	-11.6566
▁ўпада	-11.6567
▁паведамлення	-11.6569
▁Много	-11.6572
▁Баранавічы	-11.6574
▁глубоки	-11.6574
▁импульс	-11.6574
▁потеплени	-11.6574
▁уязвим	-11.6574
▁цагляны	-11.6574
▁грашовы	-11.6574
ясняет	-11.6574
▁латын	-11.6574
▁пратэстанта	-11.6574
▁Глінск	-11.6574
▁адхілі	-11.6574
▁уважени	-11.6574
▁дакументальны	-11.6575
▁падполл	-11.6576
▁глыбокім	-11.6581
АП	-11.6582
▁сказ	-11.6583
▁празаі	-11.6583
▁спажыванн	-11.6584
▁поездк	-11.6585
▁фігура	-11.6586
▁сутыкненн	-11.6589
▁службовы	-11.659
▁проектом	-11.6591
▁Міцкевіча	-11.6592
▁компьютерны	-11.6595
▁Маса	-11.6595
▁61	-11.6595
▁адмоўна	-11.6596
▁называл	-11.6604
▁добрым	-11.6605
▁1780	-11.6605
▁Міхас	-11.6606
▁насіў	-11.6611
▁ўварванн	-11.6612
▁длинны	-11.6618
▁экстр	-11.6621
▁Кажд	-11.6621
▁разуменне	-11.6622
▁падпольн	-11.6623
▁эп	-11.6625
▁Сала	-11.6627
дзейнасц	-11.6638
▁Бразілія	-11.6641
▁Израил	-11.6641
▁Эйнштейн	-11.6641
▁дрэваапрацоўча	-11.6641
▁забруджванн	-11.6641
▁предприяти	-11.6641
▁снижени	-11.6641
▁уздзеянне	-11.6641
▁дырыжор	-11.6641
▁бірж	-11.6641
▁одинаковы	-11.6641
▁Азии	-11.6641
▁Тэтч	-11.6641
▁акружаны	-11.6641
▁фотографий	-11.6642
▁лісця	-11.6642
▁падтрыманн	-11.6642
▁Мікол	-11.6643
правлять	-11.6644
▁доўгім	-11.6645
▁выживани	-11.6645
▁детско	-11.665
▁оставил	-11.6651
▁назвали	-11.6653
▁выраблены	-11.6655
▁капэл	-11.6655
▁приняли	-11.666
▁Усходн	-11.666
▁ютар	-11.6661
▁прыняцце	-11.6662
▁находящи	-11.6663
▁Мазырска	-11.6665
▁разбурэння	-11.6668
▁производител	-11.6669
▁ўтварылі	-11.6669
▁Ашмянск	-11.667
▁голад	-11.667
▁ратуш	-11.667
▁карман	-11.6671
▁сознания	-11.6672
▁аўстрыйска	-11.6675
▁стратэгі	-11.6676
▁Ліс	-11.6677
▁волну	-11.6679
▁спецыфічны	-11.668
▁Работа	-11.6681
рансу	-11.6683
▁Дзве	-11.6685
▁Акт	-11.6685
▁трымае	-11.6686
▁выдаваў	-11.6688
▁взаимодейству	-11.669
▁кропк	-11.6691
▁кафедра	-11.6692
сіп	-11.6694
стрем	-11.6694
вочы	-11.6694
▁подпис	-11.6696
вядзенне	-11.6698
▁бол	-11.6701
▁принял	-11.6705
▁открывает	-11.6705
государств	-11.6705
▁муравь	-11.6708
▁распространи	-11.6708
участвовать	-11.6708
▁Дэпартамент	-11.6708
▁Плутон	-11.6708
▁агенцтва	-11.6708
▁мяшчан	-11.6708
▁рамёств	-11.6708
▁повезло	-11.6708
▁критик	-11.6708
▁перапын	-11.6708
▁сегодняшне	-11.6708
▁сенатара	-11.6708
вление	-11.6709
▁1,1	-11.6709
▁служит	-11.6709
▁питания	-11.671
ранциск	-11.671
рение	-11.671
▁паўночн	-11.6711
▁Тураў	-11.6712
ачэй	-11.6713
▁крыжовы	-11.6716
▁складання	-11.6717
▁жнів	-11.6721
▁Гёт	-11.6724
единил	-11.6725
▁дывізія	-11.6726
▁посыл	-11.6727
▁парода	-11.6731
▁сума	-11.6731
▁мышлени	-11.6732
▁Піса	-11.6735
▁раённы	-11.6736
▁деталь	-11.6737
▁жир	-11.6745
▁пакінуты	-11.6745
▁Вар	-11.6747
▁обсужда	-11.6751
▁Каін	-11.6753
▁разно	-11.6756
▁перабудаван	-11.6757
бодва	-11.676
ваяваў	-11.676
бирает	-11.6761
▁акты	-11.6762
арска	-11.6763
▁каналам	-11.6764
▁сцэнары	-11.6765
▁преодоле	-11.6768
▁инструментов	-11.677
▁сучасн	-11.677
▁ўсталявана	-11.6771
▁Томаса	-11.6771
▁коров	-11.6772
▁заключен	-11.6773
шэсц	-11.6773
▁сотрудничеств	-11.6774
▁прагрэс	-11.6775
▁курфюрст	-11.6775
▁Гістарычна	-11.6775
▁нарвежскі	-11.6775
▁прадстаўленн	-11.6775
▁пясчана	-11.6775
▁степень	-11.6775
▁тапонім	-11.6775
▁адкрывае	-11.6775
▁Каралеўскі	-11.6776
▁разрушит	-11.6776
▁Калінін	-11.6777
▁уласн	-11.6778
▁выбірае	-11.6779
▁пралівам	-11.6779
po	-11.678
щут	-11.6781
▁зняў	-11.6781
ўленне	-11.6781
▁ничто	-11.6782
▁хронік	-11.6785
▁доклад	-11.6785
▁аматар	-11.6787
▁видела	-11.679
▁Брат	-11.6792
тэксту	-11.6793
▁промышленност	-11.6794
▁завяршэнн	-11.6795
▁Асіпові	-11.6796
▁детстве	-11.6797
▁канцэрта	-11.6797
эзар	-11.68
▁эсэ	-11.6803
▁вакзала	-11.6806
▁аддзяленн	-11.6809
▁основыва	-11.681
▁забудова	-11.6816
▁скарачэнн	-11.6816
▁шыра	-11.6819
▁ёмам	-11.6819
▁праход	-11.682
▁выраблялі	-11.6822
▁240	-11.6825
▁произошл	-11.6828
▁дакладн	-11.6831
▁показывал	-11.6832
▁рыцара	-11.6839
▁адыграл	-11.6839
режде	-11.6842
▁Слабад	-11.6843
▁рэзерв	-11.6843
▁Очевидно	-11.6843
▁горизонт	-11.6843
▁запрошаны	-11.6843
▁прэстыж	-11.6843
▁рассяленн	-11.6843
▁расширя	-11.6843
▁сапрапел	-11.6843
▁фатаграфі	-11.6843
▁іерархі	-11.6843
▁саўгаса	-11.6843
▁Сіцылі	-11.6843
▁егіпецка	-11.6843
▁Карпат	-11.6843
▁гарызантальны	-11.6843
▁приступ	-11.6844
▁разбіў	-11.6844
▁пераўтворан	-11.6844
▁изучить	-11.6844
▁родителям	-11.6844
▁цікавы	-11.6844
ожжа	-11.6844
▁Правд	-11.6845
▁перестал	-11.6846
▁суднаход	-11.6846
▁ясна	-11.6847
▁масса	-11.6847
▁статуя	-11.6848
▁вскоре	-11.6849
▁датчик	-11.685
▁Джава	-11.685
рушени	-11.685
▁яднанн	-11.6852
▁использован	-11.6858
▁захват	-11.686
▁Иран	-11.686
▁ждать	-11.686
▁пратэсту	-11.6863
▁Іаана	-11.6863
▁привел	-11.6864
▁сценари	-11.6864
▁архів	-11.6865
▁экономи	-11.6868
▁прызначае	-11.6878
▁трывала	-11.6879
▁запуск	-11.6884
▁клетку	-11.6885
▁процілеглы	-11.6886
▁падыходзі	-11.6886
герой	-11.6887
▁Мон	-11.6896
▁пройд	-11.6897
▁утвары	-11.6899
▁жена	-11.69
▁саюзнік	-11.6902
▁оценит	-11.6903
▁пашкоджан	-11.6905
▁кит	-11.6906
▁удзельнічал	-11.6907
▁изображен	-11.6908
▁бронз	-11.6909
▁мысля	-11.691
щими	-11.691
▁Твиттер	-11.6912
▁адзначаў	-11.6912
▁корпораци	-11.6912
▁распавяда	-11.6912
▁расширени	-11.6912
▁симметри	-11.6912
▁событие	-11.6912
▁індывідуальны	-11.6912
▁карпус	-11.6912
▁коллекци	-11.6912
амярза	-11.6912
▁Каліноўск	-11.6912
▁гучанн	-11.6913
▁авари	-11.6913
▁Пойма	-11.6915
купа	-11.6915
▁індзейца	-11.6916
▁трени	-11.6916
▁воображени	-11.6916
▁вятр	-11.6917
▁ўзялі	-11.6918
▁выканаўчы	-11.6918
▁национальны	-11.6921
▁ўрачыста	-11.6922
▁детал	-11.6925
▁вечером	-11.6927
▁абазначэнн	-11.6927
▁Між	-11.6928
▁магнит	-11.6928
▁Балгарыя	-11.6928
▁собрал	-11.6932
▁тэхні	-11.6934
званы	-11.6934
берг	-11.6936
▁Санта	-11.6938
▁адраджэнне	-11.6941
▁долг	-11.6943
▁непосредственно	-11.6944
▁мирового	-11.6945
▁сацыялістычны	-11.695
▁дзесяці	-11.695
▁принимают	-11.6954
селены	-11.6954
▁превращает	-11.6955
▁морски	-11.6959
▁кіламетр	-11.6959
▁завяршэння	-11.6961
▁создаё	-11.6966
▁Знак	-11.697
▁220	-11.6972
▁Эдуард	-11.6975
▁изобретател	-11.6976
▁натур	-11.6979
аступова	-11.6979
▁настаўніка	-11.6979
▁Альфрэд	-11.6981
▁Баліві	-11.6981
▁Отлично	-11.6981
▁Рудольф	-11.6981
▁демонстриру	-11.6981
▁мікрараён	-11.6981
▁патрабую	-11.6981
▁энцыклапеды	-11.6981
▁ядзерны	-11.6981
▁располага	-11.6981
▁Усевалад	-11.6981
▁шосты	-11.6981
▁прынцэс	-11.6981
▁Аповесц	-11.6981
▁столети	-11.6981
▁уникальны	-11.6981
▁Дети	-11.6982
▁ектыўна	-11.6982
▁шчыта	-11.6983
арадэ	-11.6983
▁потратил	-11.6983
Рыка	-11.6984
▁забіта	-11.6985
▁Экс	-11.6985
▁шклян	-11.6985
▁Брэсцкі	-11.6985
▁компьютеров	-11.6987
▁выбіра	-11.6989
▁цягніко	-11.699
▁грады	-11.699
▁экономике	-11.6992
▁звуков	-11.6992
▁пришло	-11.6993
временно	-11.6993
▁1,4	-11.6993
▁прапанаваны	-11.6994
▁лини	-11.6996
▁текущ	-11.6997
тэк	-11.6998
▁Азербайджана	-11.6999
▁уключан	-11.7
▁платформа	-11.7001
▁обеспечени	-11.7003
▁стваральніка	-11.7005
▁пляцоўк	-11.7008
▁секунды	-11.7008
▁вспомнит	-11.7008
▁скарачэнне	-11.7009
▁спако	-11.7013
▁захоўвала	-11.7014
▁дополнительны	-11.7015
▁будущи	-11.7018
▁зубр	-11.702
сут	-11.7022
▁настаўніцк	-11.7022
▁рисова	-11.7022
ёк	-11.7023
▁марскім	-11.7032
▁старэйшым	-11.7032
▁далучылі	-11.7033
▁сутыкнення	-11.7034
▁синтез	-11.7035
▁выхаванне	-11.7037
▁сотрудник	-11.7037
▁пераўтварэнн	-11.704
значительн	-11.7042
▁производит	-11.7042
▁дев	-11.7044
▁даведа	-11.7045
▁арыгінал	-11.7049
▁запуска	-11.7049
▁рисунк	-11.705
▁управление	-11.705
▁Амстэрдам	-11.705
▁Брытанскі	-11.705
▁Гагарын	-11.705
▁аплодисменты	-11.705
▁встретить	-11.705
▁ежедневно	-11.705
▁мерыдыяна	-11.705
▁оружия	-11.705
▁пратэктарат	-11.705
▁прототип	-11.705
▁перагавор	-11.705
▁письма	-11.705
▁почувствовал	-11.705
▁выращива	-11.705
▁Лідскі	-11.705
▁ацані	-11.705
▁трыбун	-11.705
▁подготовк	-11.7051
▁исследу	-11.7051
▁злучана	-11.7051
▁рэклам	-11.7051
▁Восток	-11.7051
▁састав	-11.7052
▁Крыжа	-11.7053
▁ацэнка	-11.7054
▁авеч	-11.7054
▁тэматык	-11.7054
▁кандыдатур	-11.7055
▁чорным	-11.7055
▁псеўданім	-11.7059
▁физики	-11.7059
▁Пакістана	-11.706
▁Створан	-11.7064
▁спадз	-11.7065
▁ўключана	-11.7066
▁течени	-11.7067
▁сайта	-11.7067
▁скончы	-11.7068
▁ужывае	-11.7068
няцце	-11.7069
▁запрасі	-11.707
▁ведут	-11.7075
▁вырашэнн	-11.7079
▁лидеров	-11.7082
▁работой	-11.7085
▁возникл	-11.7086
▁сексуальны	-11.7086
▁еўрапейскім	-11.7087
роль	-11.7088
кажут	-11.7089
▁парламенц	-11.7091
▁Ок	-11.7091
▁пальца	-11.7091
▁поколени	-11.7093
▁мерапрыемств	-11.7094
▁Алена	-11.7095
▁Альгерда	-11.7099
▁доступа	-11.7102
▁заваяваў	-11.7103
▁узнік	-11.7103
▁надпісам	-11.7104
▁арэал	-11.7104
▁Тон	-11.7106
▁приходил	-11.7107
▁выратаванн	-11.7109
▁образовани	-11.7109
перак	-11.7109
▁животным	-11.711
▁знаменит	-11.7111
ранціш	-11.7114
▁карона	-11.7115
▁рассказываю	-11.7116
▁прыязджа	-11.712
▁Андерсон	-11.712
▁Камарын	-11.712
▁адукацыйны	-11.712
▁вітамін	-11.712
▁космас	-11.712
▁перспектыв	-11.712
▁светапогляд	-11.712
▁выцягнута	-11.712
▁портрет	-11.712
▁посеща	-11.712
▁адзенне	-11.7121
▁распространения	-11.7121
▁молекулы	-11.7122
▁чист	-11.7123
▁траўм	-11.7125
▁грамата	-11.7126
▁природу	-11.7131
▁помнікам	-11.7133
▁крон	-11.7133
▁змяняю	-11.7134
▁предложит	-11.7135
▁Пагон	-11.7136
▁поступил	-11.7138
▁транспартна	-11.7141
▁явление	-11.7147
▁пачуццё	-11.7147
менна	-11.7148
бежал	-11.7148
циальн	-11.7148
▁спрос	-11.7149
▁смысла	-11.7151
ставляют	-11.7152
▁хата	-11.7153
▁лічынк	-11.7154
▁паказва	-11.7156
▁вузкім	-11.7158
маш	-11.7159
▁любил	-11.7159
▁зліва	-11.7162
▁геалагічны	-11.7162
били	-11.7162
крылы	-11.7165
▁складнік	-11.7172
▁сложи	-11.7172
▁воіна	-11.7172
▁Каран	-11.7173
▁сентября	-11.7174
▁раскоп	-11.7175
▁Стара	-11.7177
яснил	-11.718
▁Максімальн	-11.718
ібн	-11.7181
▁существова	-11.7183
арактэрна	-11.7183
думала	-11.7183
ведала	-11.7185
▁заканчива	-11.7186
▁прапанова	-11.7187
апісаў	-11.7188
▁камандаванн	-11.7188
▁вучона	-11.7191
▁канкрэтны	-11.7191
▁паступленн	-11.7191
▁родственник	-11.7191
▁садавін	-11.7191
▁уравнени	-11.7191
▁архіепіскап	-11.7191
▁захварэ	-11.7191
▁накіроўва	-11.7191
▁пазбаўленн	-11.7191
▁Сенненск	-11.7191
▁вадзяны	-11.7191
▁характарызуюц	-11.7191
▁няўдач	-11.7191
▁закрыта	-11.7191
▁саслоўя	-11.7191
▁захоплена	-11.7191
▁Крычаў	-11.7191
▁стремлени	-11.7191
▁прымуша	-11.7191
▁Причин	-11.7192
▁слышать	-11.7192
▁малым	-11.7192
▁паміра	-11.7193
▁Права	-11.7193
▁лучшим	-11.7194
▁1940-	-11.7194
перац	-11.7194
▁наладзі	-11.7194
▁металургі	-11.7196
▁плав	-11.7196
▁реакция	-11.7197
▁Аўстрыйска	-11.7198
▁зменены	-11.7198
▁отража	-11.7202
▁ніжэйшы	-11.7203
▁скрыва	-11.7203
▁оказаться	-11.7204
▁перабра	-11.7204
▁надежды	-11.7208
▁государство	-11.7212
▁детали	-11.7217
▁поразительно	-11.722
▁иск	-11.7223
▁финансировани	-11.7229
▁Афганістан	-11.7229
▁ператварыла	-11.7231
▁паляўнічы	-11.7231
стон	-11.7233
▁враг	-11.7234
рослы	-11.7234
▁кіда	-11.7234
▁творчеств	-11.7235
▁любов	-11.7235
▁атмосферу	-11.7238
▁умени	-11.724
▁адкрылі	-11.7243
▁хорошим	-11.7248
▁пабудавал	-11.7253
▁паверха	-11.7255
▁пасяджэння	-11.7259
▁Рузвельт	-11.7262
▁абарачэнн	-11.7262
▁адгалінаванн	-11.7262
▁акупаваны	-11.7262
▁препятстви	-11.7262
▁рэгіянальна	-11.7262
▁ўзмацненн	-11.7262
▁паўторна	-11.7262
▁прыдатны	-11.7262
▁пенси	-11.7262
▁суседзя	-11.7262
▁Осла	-11.7262
▁ўмерана	-11.7262
▁гриб	-11.7262
▁избавиться	-11.7263
▁хакер	-11.7263
▁выявіла	-11.7263
▁колерам	-11.7264
▁Дэвид	-11.7264
▁Ниче	-11.7265
▁палец	-11.7268
▁Камітэта	-11.7268
▁искусственно	-11.7268
шедш	-11.7269
▁интересует	-11.7269
▁ником	-11.727
▁Данія	-11.727
▁привыкл	-11.727
▁самка	-11.7271
▁Рашэнн	-11.7271
▁вадаём	-11.7275
▁риска	-11.7276
▁комар	-11.7277
▁актыўным	-11.7279
генера	-11.728
▁тканк	-11.728
▁англійск	-11.728
льян	-11.7281
▁расстраляны	-11.7283
звать	-11.7284
▁быстры	-11.7284
▁коран	-11.7286
▁сойма	-11.7287
ентр	-11.7287
▁таварыств	-11.7289
▁баяво	-11.7289
▁галава	-11.7293
▁знішчыл	-11.73
▁чэшскі	-11.73
▁Рыгора	-11.7301
▁времен	-11.7301
▁крыштал	-11.7305
▁злучаю	-11.7305
▁парушэння	-11.7306
▁шэрагам	-11.7309
▁признан	-11.7312
▁падтрымлівалі	-11.7314
▁центра	-11.7317
▁страхов	-11.7321
▁Лун	-11.7322
▁гарача	-11.7323
жаль	-11.7323
▁змянілі	-11.7325
очка	-11.7329
▁Навук	-11.7329
▁складанасц	-11.7332
▁неадкладна	-11.7333
золісты	-11.7333
▁Найвышэйшы	-11.7333
▁амерыканц	-11.7333
▁дабрабыт	-11.7333
▁нагрузк	-11.7333
▁незадаволенасц	-11.7333
▁столкновени	-11.7333
▁характеристик	-11.7333
▁креп	-11.7333
▁счастья	-11.7333
▁захватывающ	-11.7333
единяет	-11.7333
▁канцлера	-11.7333
▁Руанд	-11.7333
▁цукровы	-11.7333
▁тэрас	-11.7333
▁незвычайна	-11.7333
▁шэры	-11.7334
▁Садружнасц	-11.7335
▁НАН	-11.7338
▁здзяйсняе	-11.734
▁вечно	-11.734
▁пераправ	-11.7343
▁іграко	-11.7343
▁Прынят	-11.7345
▁держать	-11.7346
▁самолет	-11.7348
рду	-11.7348
▁сексуально	-11.7349
▁цяпл	-11.735
лічваю	-11.7351
▁коз	-11.7351
▁бас	-11.7353
▁105	-11.7355
▁парламенцка	-11.7358
▁экономист	-11.7358
▁утварэнне	-11.7359
хваль	-11.7364
▁уверенность	-11.7366
▁жест	-11.7368
▁перанесены	-11.737
▁абірае	-11.737
▁аркестр	-11.7371
▁свойства	-11.7373
▁перемены	-11.7373
▁панаванне	-11.7374
▁агент	-11.7374
▁удзельнікам	-11.7377
▁Мад	-11.7378
▁смак	-11.7379
▁абавязковы	-11.7379
▁Нігеры	-11.7379
▁Каж	-11.7383
полне	-11.7384
рабоў	-11.7387
▁кавалеры	-11.739
ечен	-11.7392
▁прыкмета	-11.7395
▁выставк	-11.7395
▁марка	-11.7397
▁воля	-11.7399
▁прафесі	-11.7401
▁магната	-11.7402
▁узніка	-11.7403
▁супольна	-11.7403
▁кроп	-11.7404
▁Вальтэр	-11.7405
▁Паскевіч	-11.7405
▁Узброены	-11.7405
▁атрымоўва	-11.7405
▁дельфин	-11.7405
▁дыктатур	-11.7405
▁дыяцэзі	-11.7405
▁змешчана	-11.7405
▁тэарэм	-11.7405
▁інвентар	-11.7405
▁Лорэнц	-11.7405
▁перамяшча	-11.7405
▁распасціра	-11.7405
▁телевидени	-11.7405
▁дыплом	-11.7405
▁внешни	-11.7405
▁вертыкальна	-11.7405
▁Славені	-11.7405
▁прибыль	-11.7405
▁шлем	-11.7405
▁гатычны	-11.7405
▁утрыманн	-11.7406
▁правільна	-11.7406
▁терроризм	-11.7406
▁главным	-11.7407
▁патент	-11.7407
▁заключыў	-11.7408
▁Мядзельск	-11.7409
▁доказа	-11.7409
▁дзяржаўнасц	-11.7409
бралі	-11.741
▁цитат	-11.7411
▁площад	-11.7413
▁маральны	-11.7416
▁Дунай	-11.7416
▁унікальн	-11.7417
▁ўзнагароджан	-11.7419
▁суверэнітэт	-11.742
▁перакладзены	-11.7421
▁забі	-11.7422
▁Англии	-11.7424
▁бедна	-11.7426
▁влият	-11.7426
▁Інтэрнэт	-11.7427
▁коротко	-11.7433
▁знік	-11.7434
▁Глеба	-11.7439
▁ожидал	-11.7444
Дзін	-11.7445
▁красно	-11.7445
▁Міністр	-11.7446
▁міф	-11.7446
▁наблюдени	-11.7448
▁стекл	-11.7453
▁направления	-11.7454
▁прожива	-11.7455
▁называемо	-11.7458
▁гульца	-11.7459
▁Кени	-11.7461
кормить	-11.7462
▁старшы	-11.7462
▁разумны	-11.7464
▁выступлення	-11.7466
задачи	-11.7468
▁Берліна	-11.7469
▁потерял	-11.747
▁жизненно	-11.7473
▁скліка	-11.7476
▁4000	-11.7477
▁Аўтаномна	-11.7477
▁Леапольд	-11.7477
▁астранамічны	-11.7477
▁варожы	-11.7477
▁интерфейс	-11.7477
▁каланіяльны	-11.7477
▁нечакана	-11.7477
▁нынешн	-11.7477
▁выбрасыва	-11.7478
▁Тышкевіч	-11.7478
▁намерен	-11.7478
▁незвычайны	-11.7478
індзі	-11.748
▁навін	-11.7482
▁бактерий	-11.7482
▁напоминает	-11.7482
▁адзначан	-11.7483
▁камісара	-11.7483
▁Калумб	-11.7483
▁Сусветны	-11.7486
▁сустрэча	-11.7486
▁похожа	-11.7487
раўне	-11.7492
▁формула	-11.7492
▁фінансаванн	-11.7492
▁постоянн	-11.7494
▁содержание	-11.7499
▁калярова	-11.7501
растут	-11.7506
следуе	-11.7508
▁малочны	-11.7512
▁эфектыўна	-11.7517
▁пусто	-11.7518
▁шпітал	-11.7518
туда	-11.7522
▁пазнаёмі	-11.7522
беларуску	-11.7523
▁красн	-11.7524
▁ўчастка	-11.7524
▁среда	-11.7526
▁Амундсена	-11.7533
▁малак	-11.7535
▁отсутствие	-11.7537
▁команду	-11.7537
будавалі	-11.7537
▁натуральным	-11.7538
▁преимуществ	-11.7538
▁віла	-11.7538
▁конкретны	-11.7538
бросить	-11.7539
▁падрыхтаваны	-11.7543
▁аперацыйна	-11.7544
▁Слонім	-11.7545
▁бачыл	-11.7546
следствие	-11.7548
ростам	-11.7548
ыгуначна	-11.755
▁аграрна	-11.755
выканкам	-11.755
▁БСГ	-11.755
▁Вінцэнт	-11.755
▁Запавет	-11.755
▁агламерацы	-11.755
▁волшебн	-11.755
▁месцазнаходжанн	-11.755
▁экспансі	-11.755
▁інвестыцы	-11.755
▁пацвярджа	-11.755
▁Славацка	-11.7551
чиков	-11.7551
▁бухт	-11.7552
▁парушэнне	-11.7552
▁падаўленн	-11.7552
▁лазер	-11.7553
▁соединен	-11.7553
▁сваяко	-11.7554
▁Януш	-11.7554
▁Пала	-11.7555
▁нарисова	-11.7555
новому	-11.7556
▁сосуд	-11.7557
▁обнаружив	-11.7557
▁сёмы	-11.7557
▁алфавіта	-11.7559
▁Ард	-11.756
▁штогадовы	-11.7561
▁адзнака	-11.7561
▁кантынентальны	-11.7562
▁найден	-11.7563
▁сильн	-11.7565
сляды	-11.7566
▁сахар	-11.7566
▁сплав	-11.7569
▁государственно	-11.757
▁Каір	-11.757
▁удивлени	-11.7571
▁матэматы	-11.7575
▁свін	-11.7576
▁армянска	-11.7578
▁Эры	-11.7579
▁позвонил	-11.7581
▁электричество	-11.7581
▁оборудование	-11.7582
▁супрацьстаянн	-11.7582
каталіцка	-11.7583
рэгуляванн	-11.7585
▁Лар	-11.7589
▁Нача	-11.759
▁пальм	-11.759
▁интересна	-11.7591
▁наступленн	-11.7593
▁перыядам	-11.7594
▁картины	-11.7595
▁суддз	-11.7596
▁задани	-11.76
▁садзейніча	-11.7601
яўляе	-11.7602
трэ	-11.7605
▁влияю	-11.7607
▁грамадскасц	-11.7611
▁выпусці	-11.7615
▁порядка	-11.7616
лист	-11.762
▁апісваю	-11.7623
▁сапр	-11.7624
▁сутыкну	-11.7624
▁заканчвае	-11.7624
▁заможны	-11.7624
▁предотвратит	-11.7624
▁спрабуе	-11.7624
▁тэлеканал	-11.7624
▁энергетык	-11.7624
▁Ракасоўск	-11.7624
▁смаленск	-11.7624
▁трамвайны	-11.7624
▁мёд	-11.7624
▁сокращен	-11.7625
▁дапаможны	-11.7625
▁Мазыр	-11.7626
▁здава	-11.7627
▁здары	-11.7629
кевіч	-11.763
БМ	-11.7632
евая	-11.7634
▁жыхарам	-11.7637
▁літаратуразна	-11.7638
▁коллектив	-11.7638
▁абвінавачванн	-11.7638
▁губернскі	-11.7639
▁космически	-11.7639
чэння	-11.764
▁магіла	-11.764
▁дыялекты	-11.7641
сток	-11.7643
▁компьютерно	-11.7648
опасности	-11.7649
▁уладанн	-11.7649
▁наблюдения	-11.7654
▁лун	-11.7655
ўтварэнне	-11.7656
▁площадк	-11.7657
▁экалагічны	-11.7663
▁углу	-11.7664
▁лед	-11.7665
ётк	-11.7666
▁этнаграфі	-11.7668
▁бедност	-11.7669
▁девочки	-11.767
▁вораг	-11.7672
красив	-11.7674
▁строительств	-11.7675
▁словар	-11.7676
▁трое	-11.7676
▁паказа	-11.7678
мусіў	-11.7682
▁гаворк	-11.7683
▁самак	-11.7685
▁долин	-11.7685
▁дацэнт	-11.7687
▁нашчадкам	-11.7688
краязнаўчы	-11.7698
▁Альбрэхт	-11.7698
▁Интересно	-11.7698
▁МТС	-11.7698
▁вывяржэнн	-11.7698
▁диагноз	-11.7698
▁магазін	-11.7698
▁специальны	-11.7698
▁тлушч	-11.7698
▁імавернасц	-11.7698
▁астроном	-11.7698
▁крытэры	-11.7698
▁разрабава	-11.7698
▁внешне	-11.7698
▁преуспе	-11.7698
▁Истори	-11.7698
▁найдёт	-11.7698
▁Багушэвіч	-11.7698
▁традиционно	-11.7698
▁учитель	-11.7698
▁выбира	-11.7698
▁нядаўна	-11.7698
▁точне	-11.7699
▁1803	-11.7699
▁погод	-11.77
▁сямейны	-11.7701
▁медицины	-11.7702
▁Разве	-11.7702
▁древни	-11.7702
▁адценне	-11.7702
▁льда	-11.7703
▁Смерц	-11.7705
ярнуўшыс	-11.7706
▁закрыва	-11.7707
▁стены	-11.7709
▁порядо	-11.7709
▁созданны	-11.7712
▁Рон	-11.7713
двери	-11.7713
▁існуючы	-11.7717
▁зрок	-11.7719
▁прыцягну	-11.7722
▁ребенка	-11.7724
▁Джонс	-11.7724
▁ўлічва	-11.7725
▁инвалид	-11.7728
экономическ	-11.7733
▁беженце	-11.7734
▁коллеги	-11.7734
▁біскупам	-11.7736
▁выбрали	-11.7737
▁ствол	-11.7738
▁доктора	-11.7738
энне	-11.7739
▁цеплаво	-11.774
▁Ніл	-11.7741
▁ПМ	-11.7741
▁115	-11.7742
▁Люблін	-11.7742
▁разбурэнн	-11.7743
▁дорога	-11.7748
▁кантынен	-11.7751
▁Алег	-11.7753
▁отправили	-11.7755
▁патрыятычн	-11.7756
▁поэт	-11.7757
▁Каспійска	-11.7759
▁прыносі	-11.7762
ошел	-11.7767
удобн	-11.777
▁звезды	-11.777
▁колы	-11.7771
▁Валянцін	-11.7773
▁автомобиля	-11.7773
▁гарызонт	-11.7773
▁достоинств	-11.7773
▁изначально	-11.7773
▁муніцыпальны	-11.7773
▁показатели	-11.7773
▁популяци	-11.7773
▁привлечь	-11.7773
▁трагеди	-11.7773
▁мовазнаўств	-11.7773
▁дзюб	-11.7773
▁Последни	-11.7773
▁Гарэцк	-11.7773
▁банкнот	-11.7773
▁приятно	-11.7773
арства	-11.7773
▁разгарну	-11.7775
▁ключавы	-11.7775
▁умирают	-11.7775
▁мелки	-11.7777
▁абсталяван	-11.7777
▁парастк	-11.7778
▁густы	-11.7778
▁вылучаны	-11.778
▁Вось	-11.7783
▁дохода	-11.7785
▁прыбыцц	-11.7786
▁імперск	-11.7786
▁отход	-11.7788
▁пакара	-11.7789
▁отделени	-11.7789
▁Княств	-11.7792
▁зрение	-11.7792
▁парне	-11.7793
▁заключалас	-11.7793
▁Бат	-11.7796
▁страва	-11.7797
▁превосход	-11.7799
▁отличи	-11.78
▁1838	-11.7802
▁крышталічн	-11.7802
▁восстановить	-11.7803
▁собирал	-11.7803
▁наступленне	-11.7804
▁настаўні	-11.7804
▁отмеч	-11.7804
▁пошт	-11.7804
верят	-11.7804
▁авиа	-11.7809
▁крупнейши	-11.7811
▁производств	-11.7813
▁тысячагоддз	-11.7814
азнаўств	-11.7815
▁орбит	-11.7819
▁космическо	-11.7825
▁тэхналагічны	-11.7829
▁Пастаўскі	-11.7833
▁наркотик	-11.7835
▁вартасц	-11.7837
▁практыку	-11.7841
▁145	-11.7842
▁валадар	-11.7845
▁растлумачы	-11.7848
▁Вавілон	-11.7848
▁Сустрака	-11.7848
▁нравятся	-11.7848
▁палкоўніка	-11.7848
▁паштовы	-11.7848
▁перасяленн	-11.7848
▁презентаци	-11.7848
▁срэбны	-11.7848
▁суправаджае	-11.7848
▁экіпаж	-11.7848
▁засяленн	-11.7848
▁начнём	-11.7848
▁эмігранта	-11.7848
▁прыхільнасц	-11.7848
▁мадэрнізацы	-11.7848
▁аптычн	-11.7848
▁паспеў	-11.7849
▁Пятровіч	-11.785
▁банан	-11.785
▁хрыб	-11.785
▁отсюда	-11.7851
▁звязва	-11.7852
зве	-11.7855
▁канстытуцыйна	-11.7855
▁вільготнасц	-11.7856
▁традыцыйным	-11.7857
▁огромным	-11.7861
▁кангрэса	-11.7862
ВС	-11.7862
▁готык	-11.7865
▁эмоциональн	-11.7865
▁маскоўскім	-11.7867
▁выпадкова	-11.7867
▁праліва	-11.7873
▁ўмоў	-11.7873
▁облак	-11.7875
▁архітэктурна	-11.7876
▁остановил	-11.7877
▁последовательно	-11.7878
▁паўабаронца	-11.7888
▁принимает	-11.7893
очный	-11.7895
лететь	-11.7897
▁государственны	-11.7897
перамен	-11.7901
▁считали	-11.7905
против	-11.7906
▁сделанны	-11.7907
▁Какой	-11.7907
▁насекомых	-11.7913
▁относи	-11.7914
▁лучш	-11.7916
▁збіраў	-11.7918
▁размеро	-11.7918
конференци	-11.792
▁скарыста	-11.7922
▁стужка	-11.7922
▁дасягненне	-11.7922
▁восстановлен	-11.7923
эраг	-11.7923
▁аналаг	-11.7923
▁астероид	-11.7924
▁вымушана	-11.7924
▁жидкост	-11.7924
▁камунікацы	-11.7924
▁партугальска	-11.7924
▁подразумева	-11.7924
▁спартсмен	-11.7924
▁сярэбраны	-11.7924
▁лютэран	-11.7924
▁угрожа	-11.7924
▁утворана	-11.7924
▁Камуна	-11.7924
▁Среди	-11.7924
▁развиты	-11.7924
▁фермент	-11.7925
▁сыгра	-11.7925
▁Росси	-11.7926
▁футбольна	-11.7926
▁круто	-11.7927
▁некотором	-11.793
▁всяки	-11.7931
▁прыбыт	-11.7932
▁добр	-11.7933
верим	-11.7934
▁ўзнік	-11.7937
▁Гітлер	-11.794
▁Крыніц	-11.7943
▁депресси	-11.7946
▁разумее	-11.7947
▁публічны	-11.7947
▁выхадца	-11.7948
щает	-11.795
влекательн	-11.7951
▁электронно	-11.7951
▁адлюстрава	-11.7953
▁региона	-11.7954
▁ведаю	-11.7956
танец	-11.7968
▁нужд	-11.7969
льное	-11.7969
▁зданий	-11.797
▁металл	-11.798
▁завяршыла	-11.798
▁прыстасаванн	-11.7981
▁этапа	-11.7981
▁арыентавана	-11.7982
▁реформ	-11.7983
эзара	-11.7983
▁навукоўцам	-11.7983
▁радк	-11.7986
▁виртуальн	-11.7988
▁держа	-11.799
▁хлопчык	-11.7993
▁Камітэт	-11.7993
▁роспіс	-11.7994
▁Лукашэнка	-11.7995
▁чэмпіёнам	-11.7999
▁Толкін	-11.8
▁дискусси	-11.8
▁кваліфікацы	-11.8
▁недостатк	-11.8
▁ўрочышч	-11.8
▁страчаны	-11.8
▁лесвіц	-11.8
▁аўтаномны	-11.8
▁содержат	-11.8
▁бренд	-11.8
адкевіч	-11.8
▁Буэн	-11.8001
▁рымскім	-11.8001
▁ключевы	-11.8002
▁сцябл	-11.8002
▁религиозны	-11.8003
▁МВ	-11.8003
▁медиа	-11.8004
▁промысл	-11.8005
▁ветер	-11.8008
▁разглядаў	-11.8009
▁выпусціл	-11.8009
▁англійскім	-11.8013
▁обои	-11.8013
▁революция	-11.8013
▁копи	-11.8014
▁проявлени	-11.8015
▁праніка	-11.8017
▁принесл	-11.8017
▁новост	-11.8018
▁пакідае	-11.802
▁воспоминания	-11.8021
юсты	-11.8022
▁135	-11.8022
▁действи	-11.8025
▁чувствуют	-11.8025
сін	-11.803
▁Помнит	-11.8032
▁могілк	-11.8032
▁нормальны	-11.8035
▁Вест	-11.8035
▁исчез	-11.8035
▁цягніка	-11.8036
▁Ніла	-11.8037
читаю	-11.8041
элек	-11.8044
▁ладзі	-11.8044
яўлялі	-11.8045
▁родам	-11.8046
▁реп	-11.8047
▁крошечны	-11.8051
▁раннім	-11.8052
▁перастал	-11.8055
▁задавал	-11.8057
▁асноўн	-11.8061
▁батальёна	-11.8062
дзясят	-11.8063
ладно	-11.8064
▁кафедральны	-11.8068
наружи	-11.8068
відэа	-11.8069
▁ператвораны	-11.8072
▁ўключа	-11.8075
▁драматычна	-11.8077
▁Пераважа	-11.8077
▁Прыднястроў	-11.8077
▁Смаргон	-11.8077
▁адступленн	-11.8077
▁археалагічна	-11.8077
▁гравитаци	-11.8077
▁каэфіцыент	-11.8077
▁непасрэдны	-11.8077
▁обладает	-11.8077
▁партугальц	-11.8077
▁подозрева	-11.8077
▁происхождени	-11.8077
▁самагубства	-11.8077
▁Лявон	-11.8077
▁Пілсудск	-11.8077
▁Клімент	-11.8077
▁чётко	-11.8077
▁брытанц	-11.8077
▁ўмераны	-11.8077
▁кліматычны	-11.8079
▁спадзява	-11.8079
▁залив	-11.808
▁сапраўдным	-11.8081
▁покупк	-11.8081
▁запар	-11.8082
▁мыши	-11.8083
▁измерит	-11.8084
▁прасоўванн	-11.8086
▁равны	-11.809
▁снеж	-11.8091
▁даведаў	-11.8092
▁проводил	-11.8092
▁аддае	-11.8094
▁Кавал	-11.8095
▁работников	-11.8096
▁высше	-11.8096
телями	-11.8096
▁Край	-11.8101
▁выплат	-11.8103
▁радость	-11.8103
▁прададзен	-11.8103
▁зіму	-11.8105
▁мусіл	-11.8107
▁Навагрудскі	-11.8109
▁вылічэнн	-11.8115
▁чисты	-11.8115
▁сусветным	-11.8124
▁брытанскім	-11.8125
▁поражен	-11.8126
▁благ	-11.8127
ряду	-11.8128
▁прадпрымальнік	-11.8129
▁Мил	-11.813
▁природны	-11.8133
▁вруч	-11.8134
▁боли	-11.8135
▁Рыз	-11.8135
[...]
