<unk>	0
<s>	0
</s>	0
<pad>	0
▁,	-2.80561
▁.	-3.24703
е	-3.80372
и	-3.97946
▁в	-4.08629
▁	-4.21001
▁и	-4.21657
а	-4.35698
й	-4.51798
▁что	-4.59552
▁на	-4.68656
▁не	-4.69823
м	-4.71651
х	-4.82245
▁с	-4.82834
ы	-4.84595
я	-4.94745
у	-4.97666
▁я	-5.08254
▁это	-5.10749
▁мы	-5.24597
ть	-5.33419
-	-5.34622
о	-5.35712
▁по	-5.37352
ов	-5.47598
▁как	-5.48607
т	-5.50878
ся	-5.55748
;	-5.5585
▁И	-5.5701
▁:	-5.58584
▁—	-5.59038
▁вы	-5.61147
▁&	-5.63166
ot	-5.65544
▁у	-5.65959
qu	-5.66176
го	-5.67974
ю	-5.7064
▁из	-5.72496
▁?	-5.73065
▁Я	-5.73785
▁о	-5.78106
▁за	-5.78672
▁к	-5.81047
ом	-5.81782
▁Это	-5.92422
«	-5.98043
ли	-5.98454
▁»	-5.98892
▁для	-6.00309
в	-6.02535
▁то	-6.03609
▁от	-6.06228
▁В	-6.06648
то	-6.07193
ой	-6.08835
▁)	-6.11875
(	-6.11974
▁они	-6.14173
▁так	-6.19875
▁но	-6.20559
с	-6.20914
ми	-6.24021
▁бы	-6.24857
▁а	-6.27016
▁Но	-6.27807
▁Мы	-6.28845
ь	-6.29121
ую	-6.30329
ет	-6.31479
▁чтобы	-6.31998
ем	-6.32496
л	-6.32782
▁был	-6.34517
ая	-6.35729
з	-6.43691
▁когда	-6.44043
▁же	-6.44269
ла	-6.44956
▁он	-6.45405
▁С	-6.47528
▁А	-6.47531
д	-6.48669
▁или	-6.49837
▁их	-6.51284
▁было	-6.51995
▁до	-6.52389
▁эти	-6.54231
▁если	-6.56064
▁есть	-6.56241
на	-6.56443
▁все	-6.56629
▁нас	-6.57734
▁при	-6.58204
▁меня	-6.58798
▁очень	-6.60174
▁которые	-6.60498
к	-6.62567
ами	-6.648
▁его	-6.65027
ка	-6.66126
▁может	-6.6823
но	-6.68707
ей	-6.73886
▁мне	-6.75063
▁раз	-6.76115
▁том	-6.76785
▁лет	-6.77354
▁-	-6.79759
▁про	-6.82162
ло	-6.82949
▁Смех	-6.83062
▁об	-6.83411
▁всё	-6.84541
ют	-6.84733
▁только	-6.86743
ться	-6.90864
▁У	-6.92942
р	-6.93576
▁под	-6.9441
ки	-6.97368
▁нам	-6.97673
▁со	-6.98169
▁потому	-6.99127
▁людей	-6.99137
▁чем	-6.99886
▁того	-6.99887
▁больше	-7.0037
▁просто	-7.01053
▁На	-7.01426
▁быть	-7.01592
▁вам	-7.01683
ах	-7.02294
ется	-7.04346
▁она	-7.05327
н	-7.06074
те	-7.0772
▁Так	-7.07946
▁этого	-7.09391
▁ли	-7.10765
му	-7.11042
ных	-7.11592
▁Они	-7.11779
ого	-7.12208
да	-7.12527
лись	-7.13678
ж	-7.14633
▁который	-7.14637
ные	-7.15959
▁Он	-7.15994
ен	-7.17138
▁этом	-7.17296
▁где	-7.17408
▁можно	-7.18956
▁время	-7.20065
▁вот	-7.20073
▁была	-7.20498
▁вас	-7.20545
ной	-7.21265
▁Вы	-7.21498
▁люди	-7.21889
та	-7.22301
▁во	-7.22455
▁более	-7.22998
ст	-7.24073
ко	-7.24906
за	-7.24991
▁ещё	-7.25044
ва	-7.25773
▁будет	-7.2649
▁Если	-7.2657
ра	-7.2658
ны	-7.28119
ых	-7.28778
▁которо	-7.29022
▁них	-7.29573
ются	-7.29929
ку	-7.29961
.	-7.3072
ля	-7.30728
▁её	-7.31728
▁этот	-7.31991
▁Как	-7.32883
▁–	-7.33548
▁К	-7.33878
сти	-7.35531
▁Вот	-7.35658
▁много	-7.36272
ам	-7.36415
ная	-7.3659
▁♫	-7.37364
▁Аплодисменты	-7.38388
▁По	-7.38911
г	-7.39138
ру	-7.3924
ш	-7.40148
ный	-7.40204
▁да	-7.40629
ок	-7.41839
▁уже	-7.42128
▁даже	-7.42205
▁нужно	-7.42461
ти	-7.42921
ни	-7.43193
▁сделать	-7.43303
▁тем	-7.43483
п	-7.44113
га	-7.44437
же	-7.45241
▁кто	-7.45933
▁жизни	-7.47191
▁можем	-7.48562
▁здесь	-7.48756
ма	-7.48804
ную	-7.49338
▁этой	-7.49555
ый	-7.49674
▁пере	-7.51481
▁всего	-7.51848
▁себя	-7.52353
▁Не	-7.52457
▁нет	-7.52614
▁свое	-7.52703
▁один	-7.53071
лось	-7.54186
ль	-7.54508
▁сейчас	-7.54921
▁также	-7.57147
▁сказал	-7.59058
ного	-7.59159
ре	-7.60695
б	-7.60829
▁!	-7.60902
▁з	-7.6096
▁которая	-7.61113
▁Что	-7.62311
ди	-7.63498
▁самом	-7.63814
▁могут	-7.63913
▁думаю	-7.65054
і	-7.65217
ле	-7.65229
▁Когда	-7.65297
▁Да	-7.65484
ри	-7.65526
▁вопрос	-7.65643
ч	-7.66051
▁должны	-7.66306
▁па	-7.66888
вер	-7.66987
ф	-7.67439
▁мир	-7.6826
ным	-7.6862
лась	-7.68682
▁всех	-7.69126
чи	-7.69702
лся	-7.69767
▁там	-7.69853
▁деле	-7.70957
▁ты	-7.71077
▁мое	-7.71235
ши	-7.71956
ния	-7.72608
a	-7.73212
ё	-7.73285
▁свои	-7.73785
сть	-7.7476
▁хочу	-7.75505
▁назад	-7.7577
▁само	-7.76289
▁эту	-7.76416
▁...	-7.78486
▁О	-7.80022
▁без	-7.80402
▁этим	-7.80412
▁Она	-7.80507
▁ни	-7.81128
сь	-7.81265
не	-7.81399
▁Итак	-7.81942
▁пол	-7.82322
▁через	-7.82359
▁і	-7.8245
ў	-7.82527
ча	-7.82565
▁%	-7.82738
▁те	-7.83662
▁себе	-7.85486
юсь	-7.85547
▁человек	-7.85593
▁П	-7.86177
ное	-7.86506
1	-7.86651
▁котор	-7.87903
▁года	-7.8842
ты	-7.88631
▁жизнь	-7.89037
до	-7.89174
▁несколько	-7.89374
ро	-7.89516
▁над	-7.89527
ое	-7.90036
▁делать	-7.90604
▁после	-7.91147
жи	-7.91428
ць	-7.917
▁лучше	-7.92006
ду	-7.92285
пример	-7.92839
▁эта	-7.92956
▁день	-7.93116
ым	-7.93475
▁Спасибо	-7.93752
че	-7.93764
ан	-7.93878
ц	-7.94104
▁мире	-7.94276
▁которы	-7.94291
▁году	-7.95336
▁действительно	-7.95486
он	-7.95693
▁им	-7.95824
▁ма	-7.96226
▁времени	-7.97787
▁ко	-7.97894
▁друг	-7.99176
ят	-7.99177
э	-7.99847
ин	-8.00842
▁между	-8.01291
▁происходит	-8.01593
▁некоторы	-8.01695
▁возможно	-8.01784
ёт	-8.02264
o	-8.02431
▁Е	-8.02567
по	-8.0325
▁сегодня	-8.03444
▁хотел	-8.03932
лі	-8.04422
ями	-8.04781
▁образом	-8.05407
ние	-8.05483
ал	-8.05583
▁знаю	-8.05688
e	-8.05862
жа	-8.06101
▁10	-8.06328
▁момент	-8.06352
или	-8.0691
▁каждый	-8.07031
▁б	-8.07037
▁г	-8.07311
би	-8.08702
▁ў	-8.09213
▁То	-8.09409
ну	-8.09493
па	-8.09714
▁тех	-8.09932
ры	-8.10098
▁два	-8.10141
▁сказать	-8.10188
▁перед	-8.10394
тор	-8.10892
лу	-8.109
ение	-8.11028
▁почему	-8.115
ном	-8.11633
▁пример	-8.11887
ня	-8.12108
це	-8.12125
▁видит	-8.12193
▁год	-8.12678
▁именно	-8.13195
▁является	-8.13493
ба	-8.13875
▁одна	-8.14293
▁других	-8.14546
▁теперь	-8.14935
▁могли	-8.15122
▁человека	-8.15373
▁детей	-8.15404
▁З	-8.1547
▁всегда	-8.15932
бо	-8.16024
▁мои	-8.16648
▁Поэтому	-8.16817
ения	-8.1721
▁Д	-8.17255
от	-8.1726
бы	-8.17421
▁ре	-8.17578
▁никогда	-8.176
▁вместе	-8.17784
ор	-8.17785
тер	-8.18147
▁нашей	-8.18269
▁часть	-8.18402
▁наши	-8.18824
▁мой	-8.19206
ще	-8.19295
▁способ	-8.19876
си	-8.2018
об	-8.20243
▁будут	-8.21136
▁три	-8.21168
▁могу	-8.22256
са	-8.22269
▁использовать	-8.22308
▁важно	-8.22499
вою	-8.22729
▁Мне	-8.23042
▁пока	-8.23378
либо	-8.2339
▁тогда	-8.23526
▁тысяч	-8.23768
ешь	-8.23975
▁говорил	-8.24021
i	-8.2414
сто	-8.24392
▁Т	-8.244
ке	-8.24485
ста	-8.24574
▁такой	-8.25309
▁Э	-8.25442
▁такие	-8.257
мер	-8.25975
▁ин	-8.26033
▁М	-8.2606
емся	-8.26469
ает	-8.26703
ци	-8.26707
▁вещи	-8.27075
ил	-8.27603
▁што	-8.2828
▁потом	-8.28286
▁лишь	-8.28514
▁За	-8.28586
тся	-8.28633
ту	-8.28769
▁больш	-8.28793
▁другой	-8.28828
▁Одна	-8.28919
ными	-8.29436
ров	-8.3006
▁20	-8.30473
ги	-8.31211
▁него	-8.31984
▁тот	-8.32127
▁наших	-8.32173
ша	-8.32538
▁3	-8.32576
▁Все	-8.3312
▁немного	-8.33389
▁сам	-8.33422
▁ничего	-8.33442
цы	-8.33578
▁мозг	-8.33604
еще	-8.33787
лен	-8.33864
ности	-8.34185
▁рас	-8.34316
▁США	-8.34357
▁затем	-8.34378
▁последни	-8.34516
▁говорит	-8.3474
ически	-8.34784
де	-8.34831
▁таким	-8.34843
ков	-8.35086
во	-8.3546
▁Теперь	-8.35998
▁хорошо	-8.36142
ён	-8.36553
▁истории	-8.36613
▁мира	-8.36773
▁начал	-8.37201
▁конечно	-8.37286
▁понять	-8.37359
лю	-8.37458
t	-8.37518
▁миллион	-8.37593
сс	-8.37792
▁таких	-8.37803
▁проблема	-8.3833
▁около	-8.38622
ар	-8.38682
▁свет	-8.39549
ировать	-8.3986
▁знаем	-8.40062
▁наш	-8.40502
▁знаете	-8.40531
▁пор	-8.41251
▁Мо	-8.41439
▁э	-8.41528
▁одной	-8.41565
▁такое	-8.41751
ыми	-8.41888
▁пред	-8.41922
▁;	-8.4197
▁ответ	-8.41999
▁проект	-8.42032
▁наше	-8.42191
ком	-8.42206
▁ш	-8.42357
▁другие	-8.42447
▁результат	-8.42787
▁т	-8.42855
▁вер	-8.42872
ально	-8.43013
▁женщин	-8.43055
▁поэтому	-8.43307
▁место	-8.43468
▁чего	-8.43783
ность	-8.4382
▁мог	-8.44058
▁Б	-8.44146
про	-8.44255
▁&#9	-8.44395
▁долларов	-8.44632
▁&#93;	-8.44709
▁оно	-8.45152
ости	-8.45194
▁000	-8.4534
▁Ф	-8.45443
▁Для	-8.45508
ём	-8.45663
▁помощью	-8.45685
▁снова	-8.45811
▁работа	-8.46241
▁та	-8.46338
▁ему	-8.46357
▁идея	-8.4649
▁возможность	-8.46566
▁найти	-8.46756
ическ	-8.4678
▁процесс	-8.46976
▁собира	-8.47243
▁новы	-8.47348
пи	-8.47459
▁создать	-8.47702
▁2	-8.47917
▁которым	-8.47968
▁пыта	-8.48064
▁проблемы	-8.48243
▁Ш	-8.48404
нию	-8.4919
сколько	-8.49634
ство	-8.49675
▁бо	-8.49976
▁Потому	-8.50003
▁одно	-8.5013
ски	-8.50234
▁пре	-8.50487
▁стать	-8.50875
ды	-8.51088
▁работы	-8.5145
▁случае	-8.51512
ца	-8.52929
дер	-8.53359
▁Эти	-8.53396
ейчас	-8.53482
вод	-8.53939
нибудь	-8.53993
▁Во	-8.54116
▁Почему	-8.54252
▁значит	-8.54254
▁данные	-8.54505
▁моя	-8.54521
▁работает	-8.54774
▁Нам	-8.54826
▁До	-8.5492
ше	-8.54962
ясь	-8.55102
▁свой	-8.55116
▁каждо	-8.5521
▁первы	-8.55357
▁основ	-8.55803
▁всем	-8.55896
▁Р	-8.55903
гу	-8.55954
ща	-8.56011
▁делает	-8.56038
▁достаточно	-8.56144
▁имеет	-8.56276
▁течение	-8.56408
▁дело	-8.56607
▁теб	-8.56673
▁форм	-8.56789
али	-8.56868
пе	-8.56904
▁4	-8.56914
▁почти	-8.57411
▁работать	-8.57648
бер	-8.5765
су	-8.57852
▁смысл	-8.57969
▁оста	-8.58133
▁При	-8.58211
▁увидеть	-8.58393
▁Х	-8.58439
▁должен	-8.58483
ющие	-8.58708
ний	-8.58962
▁прямо	-8.59393
s	-8.59547
кой	-8.59575
▁ее	-8.59631
зи	-8.59686
▁двух	-8.5972
▁надо	-8.59935
▁технологии	-8.60106
кс	-8.60199
▁19	-8.60343
▁групп	-8.60481
род	-8.60558
▁пра	-8.6069
со	-8.60853
▁вид	-8.61209
▁работу	-8.61228
вать	-8.61353
▁количество	-8.61463
▁мозга	-8.61472
тельно	-8.61846
▁многие	-8.61965
▁какой	-8.62328
▁котором	-8.62357
▁причин	-8.62577
▁кажет	-8.62616
ер	-8.62899
▁мо	-8.62923
огда	-8.63046
прав	-8.6321
▁видим	-8.63448
▁стали	-8.63626
▁быстро	-8.63717
▁весь	-8.63847
▁де	-8.63911
ющих	-8.63949
▁Давайте	-8.64142
ость	-8.64185
▁ваше	-8.64245
ник	-8.64507
▁показать	-8.64988
▁людям	-8.64994
лы	-8.65314
▁часто	-8.65432
▁меньше	-8.6554
▁5	-8.65751
▁стран	-8.66439
▁ф	-8.66527
▁любо	-8.66752
▁разны	-8.67016
▁система	-8.67109
2	-8.67421
▁тут	-8.67647
вал	-8.67678
▁Про	-8.67724
ев	-8.67738
ают	-8.68207
▁Ну	-8.68439
ностью	-8.68706
рав	-8.68737
роде	-8.68876
▁изменить	-8.68977
▁узна	-8.69104
нов	-8.69272
▁своё	-8.6943
▁всему	-8.69548
▁совершенно	-8.69572
▁этому	-8.6976
▁видео	-8.69861
раз	-8.70018
▁30	-8.70026
пу	-8.70475
▁стал	-8.70501
▁необходимо	-8.70644
▁Ма	-8.71098
ска	-8.71195
▁гэта	-8.7124
▁начали	-8.71249
пер	-8.71282
▁закон	-8.71399
▁войн	-8.71424
▁слишком	-8.71445
c	-8.71501
▁Нет	-8.71626
место	-8.717
вы	-8.71954
ите	-8.7197
▁говорить	-8.72126
▁воз	-8.72271
▁совсем	-8.72477
▁две	-8.72565
ства	-8.72571
▁части	-8.72577
жд	-8.72829
▁ведь	-8.72837
▁одного	-8.72908
ющий	-8.73036
▁точно	-8.73213
▁50	-8.73646
бе	-8.73651
▁собой	-8.73731
тельны	-8.73899
▁ряд	-8.73905
▁примерно	-8.74186
▁системы	-8.74264
▁карт	-8.74539
▁страны	-8.74997
кі	-8.75377
▁видеть	-8.75392
▁довольно	-8.75418
▁ново	-8.75475
▁миру	-8.75952
▁Г	-8.76145
цца	-8.76591
▁вокруг	-8.76598
▁многих	-8.76598
стра	-8.76638
▁перво	-8.7664
▁программ	-8.76692
йте	-8.76742
десь	-8.7705
▁проблем	-8.77161
йти	-8.77188
▁компьютер	-8.77359
▁Эта	-8.77628
▁своим	-8.77701
▁сделали	-8.78023
дать	-8.78086
▁слова	-8.78162
r	-8.78284
▁правд	-8.78427
ол	-8.78436
▁внимание	-8.7845
бу	-8.78502
▁конце	-8.78658
нт	-8.78698
▁п	-8.78759
▁дома	-8.78968
▁гор	-8.79014
ос	-8.79101
▁говорят	-8.7927
ні	-8.79411
▁технологи	-8.79541
▁подумал	-8.79667
лов	-8.79671
став	-8.79696
▁Всё	-8.7978
▁информации	-8.7989
ью	-8.79912
▁должно	-8.80002
хотим	-8.80076
вали	-8.80162
лет	-8.80172
столько	-8.80314
пол	-8.80649
▁процент	-8.80761
▁ад	-8.80854
▁эксперимент	-8.80859
тель	-8.80971
▁стоит	-8.81196
▁сами	-8.81229
▁обычно	-8.81322
▁факт	-8.81511
▁100	-8.81527
▁внутри	-8.81667
нии	-8.81683
▁существует	-8.81715
ним	-8.81815
▁Нью	-8.81926
▁делают	-8.82005
▁история	-8.82061
ел	-8.82081
чу	-8.82309
ман	-8.82446
▁самых	-8.82479
▁различны	-8.82499
▁новые	-8.82709
▁телефон	-8.82834
▁стороны	-8.82921
▁ж	-8.83192
▁особенно	-8.83226
▁получить	-8.83607
▁минут	-8.83769
▁создал	-8.83793
▁ген	-8.83855
▁друга	-8.83989
аль	-8.83997
▁исследования	-8.8406
▁сделал	-8.84162
нд	-8.84214
означает	-8.84368
ции	-8.84509
учи	-8.84525
чы	-8.84754
нее	-8.8525
ец	-8.85625
▁людьми	-8.85629
вают	-8.85755
▁данных	-8.85827
▁цен	-8.85938
▁сильно	-8.86131
ирует	-8.8629
▁кон	-8.86474
▁находит	-8.866
▁культур	-8.86651
▁энергии	-8.86934
▁рассказать	-8.86941
кон	-8.87014
гра	-8.87139
вид	-8.87171
▁дети	-8.8728
▁наша	-8.87327
ской	-8.87427
▁историю	-8.87514
▁интерес	-8.87629
▁начала	-8.87661
бр	-8.87725
▁решения	-8.87746
пл	-8.87766
нес	-8.87896
▁Люд	-8.87915
▁важны	-8.88007
стро	-8.88114
ёр	-8.8817
▁Дж	-8.88213
▁интересно	-8.8826
▁1	-8.88528
▁TED	-8.88748
▁Сегодня	-8.88748
▁всю	-8.88788
▁наде	-8.88965
▁план	-8.89088
5	-8.89324
▁выбор	-8.89407
▁против	-8.89494
кр	-8.89613
вая	-8.89747
▁Ес	-8.89755
▁хотя	-8.89938
овать	-8.89964
тоже	-8.9001
менее	-8.9011
аў	-8.90439
6	-8.9045
▁занима	-8.90532
▁одну	-8.90843
▁ним	-8.90858
▁15	-8.9122
▁д	-8.91222
▁уверен	-8.91239
▁голов	-8.91293
▁сложно	-8.913
▁чём	-8.91729
три	-8.92115
y	-8.92473
нуть	-8.92774
▁Л	-8.92898
▁цел	-8.92943
▁города	-8.92963
▁компании	-8.93158
▁образ	-8.93193
▁фильм	-8.93202
ставить	-8.93232
▁звук	-8.93389
▁постоянно	-8.93585
7	-8.93686
▁следующи	-8.93868
▁места	-8.93956
▁становит	-8.94254
▁Со	-8.94732
▁неё	-8.94809
▁увидел	-8.94908
эн	-8.94922
▁изменения	-8.95169
▁большой	-8.95223
▁буд	-8.95288
▁помоч	-8.95303
▁подход	-8.95425
мі	-8.95572
кра	-8.95728
▁дела	-8.95753
▁деньги	-8.95758
▁представить	-8.96008
▁доступ	-8.96037
нные	-8.96158
▁кого	-8.96161
u	-8.96196
▁возможности	-8.96251
▁благодаря	-8.96267
p	-8.96273
▁Ко	-8.96391
▁ме	-8.9649
▁буду	-8.96624
бра	-8.96653
▁ник	-8.96747
▁структур	-8.97073
▁Ка	-8.9708
▁зрения	-8.97134
▁воды	-8.97217
▁Те	-8.9731
при	-8.97468
▁Конечн	-8.97693
▁понял	-8.97697
▁цвет	-8.97762
ъ	-8.97787
▁город	-8.9815
▁опыт	-8.9855
▁сказала	-8.98582
▁начать	-8.98766
▁мере	-8.98844
▁точки	-8.98864
ось	-8.98905
▁начинает	-8.99145
▁прав	-8.99301
▁стало	-8.99356
▁говорю	-8.99551
▁обо	-8.99704
ских	-8.99722
нос	-8.99831
▁оказа	-8.99861
▁будем	-8.99895
▁иметь	-8.99942
овой	-9.00103
дел	-9.00244
▁называет	-9.00364
▁ту	-9.00453
▁женщины	-9.00526
▁перв	-9.00595
▁мной	-9.00669
▁горазд	-9.00917
чен	-9.00936
▁множество	-9.00936
▁сред	-9.00981
дут	-9.00985
▁такого	-9.0103
С	-9.01077
▁информацию	-9.01192
бл	-9.01358
▁кра	-9.01441
рон	-9.015
ря	-9.01601
▁сможем	-9.01606
▁♪	-9.01606
▁язык	-9.01625
▁дом	-9.01695
менно	-9.02048
▁волн	-9.02177
3	-9.02182
▁самы	-9.02261
▁Таким	-9.02291
▁решение	-9.02346
▁Из	-9.02492
▁большинство	-9.02538
▁спросил	-9.0258
▁должна	-9.02581
▁зна	-9.02586
ления	-9.02734
ческо	-9.02855
ель	-9.02919
▁инструмент	-9.03143
▁принцип	-9.03284
▁вещей	-9.03345
ственн	-9.03376
▁Может	-9.03568
чно	-9.03625
9	-9.0407
зы	-9.04114
работ	-9.04176
ского	-9.04223
вор	-9.04283
er	-9.04292
l	-9.04354
▁От	-9.04468
▁мест	-9.04526
стер	-9.04543
▁сама	-9.0461
▁экономик	-9.04628
▁класс	-9.04691
▁суд	-9.04909
▁центр	-9.04927
▁идеи	-9.05054
К	-9.05087
▁Можн	-9.05315
▁C	-9.05566
▁туда	-9.05648
первы	-9.05662
▁Ин	-9.05902
тр	-9.05903
▁систему	-9.06122
▁сколько	-9.06137
пы	-9.0616
▁четыре	-9.06197
вляются	-9.06314
▁жить	-9.0635
▁взять	-9.06352
▁спасибо	-9.06434
▁нов	-9.06448
▁выглядит	-9.0655
ус	-9.0667
▁размер	-9.06765
▁нашем	-9.06792
▁слово	-9.07097
0	-9.07215
▁ними	-9.07253
▁взгляд	-9.07312
ран	-9.07337
етесь	-9.07531
▁риск	-9.07759
▁ваши	-9.07844
▁мало	-9.07864
▁пры	-9.07909
▁нечто	-9.08013
▁помощи	-9.08046
▁раньше	-9.08047
▁намного	-9.08056
▁странах	-9.08099
▁посмотреть	-9.08194
рож	-9.08239
▁6	-9.08292
смотря	-9.0837
▁вообще	-9.08491
▁работаю	-9.08575
▁лучши	-9.08741
ский	-9.08915
ятся	-9.0895
▁куда	-9.0896
фор	-9.09032
▁бизнес	-9.0911
гл	-9.09187
▁стране	-9.0919
▁стала	-9.0925
бор	-9.09536
▁нужны	-9.09615
▁клетки	-9.09638
▁другом	-9.09701
▁нравит	-9.09747
ели	-9.09837
вин	-9.0986
▁Об	-9.09861
▁S	-9.09995
ится	-9.09998
▁считаю	-9.10006
нг	-9.10235
▁приходит	-9.10345
ик	-9.10368
▁знал	-9.10546
▁второ	-9.10574
4	-9.10605
▁делаем	-9.10734
▁сто	-9.10737
▁высоко	-9.10748
▁орган	-9.10752
▁хотят	-9.10942
иться	-9.10949
▁подобны	-9.1108
▁Хорошо	-9.1131
▁думать	-9.114
▁понима	-9.11498
нер	-9.11526
ист	-9.11735
▁океан	-9.11849
раж	-9.1185
▁нашу	-9.11979
▁пути	-9.1202
▁вами	-9.12034
▁произошло	-9.12072
▁имеют	-9.1243
▁моё	-9.12445
▁дня	-9.12625
▁40	-9.12787
овые	-9.12808
▁смерт	-9.12903
▁какие	-9.12941
▁част	-9.13379
▁ос	-9.1351
▁думал	-9.13547
ряд	-9.13602
▁интернет	-9.13671
▁называем	-9.13681
говорим	-9.13823
пис	-9.13845
▁защит	-9.13857
дальше	-9.13857
ала	-9.14184
▁Или	-9.14245
тан	-9.14257
▁ответил	-9.14283
ень	-9.1449
▁собственно	-9.14539
▁месяцев	-9.14629
ис	-9.14664
▁зале	-9.1476
▁месте	-9.14893
▁ей	-9.14941
▁источник	-9.15088
▁равно	-9.15109
▁друго	-9.15149
▁итог	-9.15167
▁пару	-9.15267
▁Кто	-9.15409
8	-9.15455
шего	-9.15543
▁модель	-9.15578
▁машин	-9.15699
▁спустя	-9.15725
▁области	-9.15726
что	-9.1599
▁Зате	-9.16
▁Па	-9.16076
▁социальны	-9.1608
▁ди	-9.1622
шла	-9.16258
▁голос	-9.16388
▁8	-9.16391
▁глаза	-9.16396
ек	-9.16433
ак	-9.16453
▁рак	-9.16549
▁Возможно	-9.16687
▁ваш	-9.16746
▁Ты	-9.16832
▁шаг	-9.16942
▁лаборатори	-9.1701
▁смогл	-9.17021
▁вопросы	-9.17033
▁Там	-9.17067
▁18	-9.17187
▁нами	-9.17191
▁видели	-9.17195
А	-9.17247
▁долго	-9.17261
▁сил	-9.1731
нём	-9.17316
ств	-9.17326
▁уровень	-9.17334
▁период	-9.17334
нь	-9.17439
ющая	-9.17855
стан	-9.17961
▁невероятно	-9.18019
▁ста	-9.1807
▁Ц	-9.1836
щих	-9.1838
▁кажд	-9.1847
уп	-9.18474
пад	-9.18744
▁самым	-9.18768
нут	-9.18966
▁крайне	-9.18976
▁пад	-9.19136
▁организм	-9.19206
▁пи	-9.19316
ван	-9.19341
▁уровне	-9.19407
▁животных	-9.19631
ур	-9.19665
▁огромно	-9.19694
▁среди	-9.19716
▁ДНК	-9.19797
тически	-9.19804
нная	-9.1981
▁рост	-9.19977
▁готов	-9.20174
▁легко	-9.20297
▁появи	-9.20311
m	-9.2036
▁плохо	-9.20429
pos	-9.20635
▁населения	-9.20636
▁эффект	-9.20653
▁час	-9.20809
изм	-9.20836
▁знать	-9.20858
▁большое	-9.20918
ству	-9.20934
чер	-9.20945
фи	-9.20978
▁говоря	-9.21072
b	-9.21136
▁свобод	-9.21245
▁Тогда	-9.2135
ому	-9.21356
▁собственны	-9.21533
ющей	-9.21537
▁работал	-9.21695
▁думает	-9.21836
▁рода	-9.21902
▁тела	-9.21977
▁хотите	-9.21982
▁правильно	-9.22055
▁пять	-9.22162
▁После	-9.22184
▁человеческо	-9.22197
▁метод	-9.22218
▁маленьки	-9.22278
▁врач	-9.22295
▁каким	-9.22309
чески	-9.22342
▁трудно	-9.22507
вар	-9.22547
▁200	-9.22609
жу	-9.22644
▁денег	-9.22664
▁одним	-9.22848
▁Ли	-9.22852
ция	-9.22944
ваем	-9.22966
▁решил	-9.23044
▁бес	-9.23045
вит	-9.23047
вает	-9.23275
лин	-9.23304
она	-9.23328
▁вещь	-9.23351
щи	-9.23374
▁будущем	-9.23532
▁Интернет	-9.23869
▁создания	-9.24138
▁общества	-9.24168
ление	-9.24465
▁Ра	-9.24497
▁Один	-9.24607
ват	-9.2474
▁решили	-9.24741
ско	-9.24787
▁Ре	-9.24888
дин	-9.25157
▁дорог	-9.25202
▁дел	-9.25258
нный	-9.25306
льзя	-9.25378
ника	-9.2553
▁Де	-9.25542
сн	-9.25588
ходят	-9.25786
▁як	-9.2588
▁тип	-9.25928
нул	-9.25992
▁вес	-9.26253
думать	-9.26336
▁матери	-9.26341
сы	-9.26383
ила	-9.2644
▁пар	-9.2654
▁наконец	-9.26679
▁никак	-9.267
▁развития	-9.26798
мент	-9.26917
▁получил	-9.26982
мест	-9.27151
ками	-9.2726
▁P	-9.2732
▁стро	-9.27419
▁Африке	-9.27482
▁кое	-9.27515
▁другим	-9.27552
▁видел	-9.27602
▁число	-9.27606
▁Индии	-9.27754
▁прошлом	-9.27791
▁Ч	-9.27834
▁уме	-9.27839
нс	-9.27841
▁созда	-9.27853
▁давайте	-9.27933
чик	-9.27933
гла	-9.2801
▁доход	-9.28025
ген	-9.28058
▁дизайн	-9.2814
▁часов	-9.28193
ились	-9.283
▁идёт	-9.28484
▁связи	-9.2849
Р	-9.2852
нет	-9.28593
▁9	-9.28666
лей	-9.28685
▁наибол	-9.28734
▁сотн	-9.28759
▁стол	-9.28789
▁путь	-9.28834
▁абсолютно	-9.28871
▁зада	-9.29123
друг	-9.29138
▁нашим	-9.292
▁используют	-9.29205
▁нескольки	-9.2921
нных	-9.29351
▁пе	-9.29351
▁вирус	-9.29404
00	-9.29438
▁Ро	-9.29618
▁демократи	-9.29743
▁сут	-9.29817
▁Бо	-9.29849
шу	-9.29904
▁миллиардов	-9.30003
▁отношения	-9.30056
▁имею	-9.30096
▁будущее	-9.30122
▁работе	-9.30164
▁рад	-9.30236
▁Представь	-9.30306
тар	-9.30362
вших	-9.30392
М	-9.30446
ян	-9.30522
A	-9.30684
ись	-9.30695
▁такая	-9.30742
▁Ле	-9.30776
▁Бу	-9.30936
▁частью	-9.31069
эр	-9.31139
стати	-9.31159
▁болезн	-9.31185
▁Некоторы	-9.31233
▁виду	-9.31279
▁прос	-9.31423
пла	-9.3145
▁граждан	-9.31482
▁качестве	-9.31518
инг	-9.31552
чь	-9.31785
▁Америк	-9.31811
гляд	-9.31912
ижу	-9.31925
▁эволюци	-9.31975
▁Музыка	-9.32169
I	-9.32197
▁используем	-9.32358
▁право	-9.32388
▁Большо	-9.32454
ней	-9.32503
пре	-9.32564
▁сети	-9.32606
ина	-9.32655
▁обратно	-9.32714
▁60	-9.32744
▁стар	-9.3283
▁Кажды	-9.33067
ирован	-9.33138
щие	-9.33164
сон	-9.33222
▁ц	-9.33291
▁дней	-9.33355
▁использовани	-9.33362
▁руки	-9.33395
стью	-9.33398
▁известно	-9.33504
▁Го	-9.33519
▁одном	-9.3357
▁разговор	-9.33583
▁предмет	-9.33691
креп	-9.33902
рос	-9.34051
▁7	-9.34117
образ	-9.34118
ющее	-9.34389
кры	-9.34475
▁технология	-9.34504
▁знает	-9.34587
▁сигнал	-9.34647
фа	-9.34721
▁разум	-9.35045
▁состоит	-9.35256
ируем	-9.35615
▁позволяет	-9.35771
▁задач	-9.35774
▁сразу	-9.35821
▁12	-9.35824
▁масштаб	-9.36007
▁круг	-9.36125
▁A	-9.36191
▁пришлось	-9.36213
▁знали	-9.36247
нести	-9.36437
▁другими	-9.365
on	-9.36579
▁невозможно	-9.36987
леч	-9.37079
рез	-9.37112
▁ла	-9.37205
▁банк	-9.37256
▁мужчин	-9.37316
▁чувство	-9.37466
лек	-9.37512
едь	-9.37514
▁Многи	-9.37581
▁создавать	-9.37756
▁І	-9.38041
▁машины	-9.3815
▁написал	-9.38184
▁дале	-9.38257
ден	-9.3831
▁школ	-9.38366
ир	-9.38408
▁Ник	-9.38591
▁права	-9.38976
▁фотографии	-9.38999
тра	-9.39005
▁видов	-9.39041
▁ба	-9.39113
▁границ	-9.3913
or	-9.39153
лом	-9.39157
▁скорее	-9.39406
эй	-9.39524
▁труд	-9.39549
пло	-9.39592
цен	-9.39654
щ	-9.39836
▁тело	-9.39869
▁сфер	-9.39893
▁покажу	-9.40029
▁ну	-9.40103
▁похоже	-9.40204
▁решить	-9.40235
▁Ба	-9.40328
ишь	-9.40334
▁движение	-9.40354
▁нейрон	-9.40419
▁бу	-9.40469
▁зон	-9.40475
▁след	-9.40512
ологи	-9.40537
▁протяжени	-9.40606
▁полно	-9.40618
шёл	-9.40643
▁выше	-9.40664
▁школу	-9.40681
▁проблему	-9.40885
▁самые	-9.40887
▁образование	-9.40911
▁страх	-9.40935
ском	-9.41047
▁Мой	-9.41066
D	-9.41175
▁молоды	-9.41309
▁остальны	-9.41372
▁домой	-9.41395
▁инноваци	-9.41635
▁заключается	-9.41666
ируют	-9.41737
▁станет	-9.41759
▁био	-9.41766
могла	-9.41848
ходить	-9.41947
▁сторон	-9.42024
лён	-9.42073
▁тво	-9.42106
ская	-9.42138
ню	-9.42197
▁показал	-9.42218
▁последне	-9.42299
▁включа	-9.42422
S	-9.42445
▁доби	-9.42453
вой	-9.42522
▁сме	-9.42527
▁настоящи	-9.4257
▁движения	-9.42649
альны	-9.42683
▁речь	-9.42707
▁ожида	-9.42714
ично	-9.42806
▁фото	-9.42884
▁типа	-9.43039
ред	-9.43041
g	-9.43048
▁семьи	-9.43082
П	-9.43083
▁уж	-9.43159
▁природ	-9.43218
▁Оно	-9.43244
дж	-9.4332
▁вероятно	-9.43374
▁Ж	-9.43499
▁возвраща	-9.43513
▁следует	-9.43522
▁11	-9.43583
▁компания	-9.43597
▁стен	-9.43643
▁вариант	-9.43724
▁половин	-9.43777
рат	-9.43788
▁вниз	-9.43823
меш	-9.4389
ении	-9.43909
▁произ	-9.43969
Г	-9.44089
▁плат	-9.44119
▁практически	-9.44148
тен	-9.44176
нно	-9.44181
чный	-9.4425
▁B	-9.44331
▁мою	-9.4435
ун	-9.44484
▁бактери	-9.44573
▁Раз	-9.44756
шел	-9.44765
▁Меня	-9.4479
оп	-9.44849
▁мысли	-9.44872
▁Джон	-9.44914
▁далеко	-9.44943
▁удивительно	-9.44964
вести	-9.45017
▁модели	-9.45036
нным	-9.45197
ющим	-9.45229
нное	-9.45304
▁даёт	-9.4535
▁ради	-9.45384
щё	-9.45394
▁используя	-9.45428
▁Га	-9.4547
чет	-9.4552
▁проб	-9.45659
О	-9.45665
▁однажды	-9.45667
▁женщина	-9.457
▁планеты	-9.45754
▁связь	-9.45861
▁Н	-9.4589
▁душ	-9.45964
эт	-9.45992
▁названием	-9.45999
▁хороши	-9.46216
ительн	-9.46276
ному	-9.46429
▁оп	-9.46443
▁обе	-9.46493
чные	-9.46499
сць	-9.4676
▁Чтоб	-9.46959
▁пу	-9.47098
▁посмотрим	-9.4724
▁уровня	-9.47305
▁поскольк	-9.47315
▁Был	-9.4732
▁цели	-9.47327
▁сын	-9.47375
▁Вам	-9.47414
▁роль	-9.47427
▁род	-9.47444
▁вернуть	-9.4751
▁группа	-9.47715
▁небольшо	-9.47762
тон	-9.47895
▁сделан	-9.47915
▁человечески	-9.47934
щий	-9.47973
▁увидите	-9.4804
шен	-9.48076
▁призна	-9.4819
▁га	-9.48267
делиться	-9.48395
▁игра	-9.48433
▁математик	-9.48482
щик	-9.4879
▁материал	-9.48993
▁хороше	-9.49153
▁прежде	-9.49156
▁книг	-9.49347
чка	-9.49496
▁ход	-9.49511
▁рука	-9.49517
стей	-9.49523
давать	-9.49539
рен	-9.49539
▁решени	-9.49587
▁инженер	-9.49596
▁цель	-9.49622
▁25	-9.4972
▁общество	-9.49725
▁встреча	-9.49771
кая	-9.4981
тур	-9.49881
оў	-9.50009
ид	-9.50119
▁сайт	-9.50257
f	-9.5027
▁интеллект	-9.5027
h	-9.50275
щей	-9.50283
▁пара	-9.50392
▁хотела	-9.50397
▁моим	-9.50417
▁буквально	-9.50507
▁воздух	-9.50569
▁цифр	-9.50601
▁калі	-9.50747
▁безопасности	-9.50753
хотелось	-9.50754
оль	-9.50762
▁ночь	-9.50774
▁раздел	-9.50776
▁планете	-9.50778
▁тест	-9.50802
▁вод	-9.50807
вшие	-9.50956
▁поступ	-9.50961
ток	-9.51097
▁обнаружили	-9.5111
▁Бр	-9.51154
▁кор	-9.51194
▁идею	-9.51194
▁поиск	-9.5125
рт	-9.51261
▁причина	-9.51367
▁игр	-9.51466
▁случилось	-9.51551
▁Та	-9.51567
первых	-9.51657
k	-9.51878
▁ч	-9.51972
ники	-9.51976
▁лес	-9.52016
▁сюда	-9.52172
фер	-9.52224
пит	-9.52239
▁хочет	-9.52244
▁верну	-9.52262
▁книги	-9.52356
▁объясни	-9.52533
▁правительство	-9.52599
нной	-9.52671
▁способны	-9.52791
▁обычны	-9.52888
▁I	-9.52898
ar	-9.53108
▁соверш	-9.53112
▁чему	-9.53117
вается	-9.53144
▁выход	-9.53188
▁удалос	-9.53249
дом	-9.53256
▁света	-9.53426
▁доктор	-9.53482
▁каждом	-9.53619
ась	-9.5367
▁G	-9.53684
▁поговорить	-9.53711
▁страда	-9.5373
зу	-9.53781
▁прекрасно	-9.53793
нием	-9.53873
▁каза	-9.53886
▁ситуаци	-9.54096
▁народ	-9.54193
▁ног	-9.54196
клон	-9.54228
an	-9.54233
▁концов	-9.54412
▁энерги	-9.54486
▁пер	-9.54578
ены	-9.54596
▁реально	-9.54627
нне	-9.54751
▁семь	-9.54885
▁основан	-9.54906
▁M	-9.5493
▁действия	-9.54959
▁развива	-9.5511
▁КА	-9.55216
писать	-9.55251
тре	-9.5534
▁местах	-9.55358
▁интересны	-9.5541
▁Бе	-9.55464
▁ге	-9.55478
▁теори	-9.556
лл	-9.55733
▁значение	-9.55752
▁код	-9.55761
▁рассказыва	-9.55781
▁века	-9.55871
▁90	-9.56005
▁трёх	-9.56046
▁мечта	-9.56139
мор	-9.56259
люблю	-9.56347
▁здания	-9.56477
▁месяц	-9.56478
▁готовы	-9.56497
▁понимает	-9.56511
▁анализ	-9.5666
▁самого	-9.56764
▁кем	-9.57017
▁расс	-9.57021
▁сосед	-9.57033
шка	-9.57097
вания	-9.57165
▁университет	-9.57181
▁помощь	-9.57182
▁годы	-9.5725
▁нужна	-9.57569
▁социально	-9.57585
▁большие	-9.57603
▁рассказ	-9.57605
C	-9.57735
▁график	-9.57761
▁способность	-9.57841
▁исследование	-9.57848
▁коллег	-9.57869
▁пространство	-9.58002
▁политик	-9.58127
ьте	-9.58172
▁отдел	-9.58216
смотр	-9.58218
ці	-9.58233
ін	-9.58245
▁больниц	-9.58277
▁Крис	-9.58312
▁столько	-9.58335
▁виде	-9.58342
▁похожи	-9.58364
▁исследований	-9.58455
▁каб	-9.58464
▁объект	-9.58474
лер	-9.58475
▁результаты	-9.58552
▁жил	-9.58616
▁тро	-9.58707
▁шанс	-9.58738
шь	-9.58767
▁слов	-9.58844
В	-9.58981
▁Земле	-9.59028
▁теле	-9.59033
Т	-9.59167
нного	-9.59173
▁нуж	-9.59224
▁расскажу	-9.59228
▁обраща	-9.59228
▁R	-9.59235
▁продукт	-9.59276
ников	-9.59375
▁основном	-9.59399
думаем	-9.59436
▁страниц	-9.59531
вала	-9.59552
мысл	-9.5956
▁находятся	-9.59734
▁целы	-9.59841
▁Марс	-9.59847
▁создан	-9.59938
живут	-9.60007
▁секунд	-9.60028
вание	-9.60055
ваться	-9.60115
сты	-9.60156
тели	-9.60188
▁Очень	-9.60219
▁начинают	-9.60257
▁Знает	-9.60338
▁возника	-9.605
▁высоки	-9.60721
▁образования	-9.6075
чным	-9.60837
▁Кар	-9.60888
▁смог	-9.60888
▁Тольк	-9.60906
нц	-9.60916
▁быстрее	-9.60969
▁магазин	-9.60969
▁скажу	-9.60974
▁электро	-9.61065
ывает	-9.61177
настоящему	-9.61253
▁иначе	-9.6126
▁ресурс	-9.61302
лок	-9.61345
дет	-9.61358
вил	-9.61383
▁актив	-9.61403
▁называ	-9.61409
ика	-9.61421
Л	-9.61488
▁организации	-9.61519
▁D	-9.61529
▁ед	-9.61678
▁поддержк	-9.61725
▁известны	-9.61741
▁рук	-9.61743
al	-9.61747
говор	-9.61835
тесь	-9.61852
вший	-9.61924
▁муж	-9.61965
▁смотреть	-9.61978
раб	-9.62
▁делали	-9.62096
▁делал	-9.62249
бит	-9.62298
▁длин	-9.62396
▁кризис	-9.62486
пра	-9.62493
▁показывает	-9.62523
▁Ни	-9.62531
дите	-9.62562
▁Потом	-9.62592
▁единственны	-9.62625
n	-9.62654
▁отец	-9.62778
▁окружающе	-9.62789
▁F	-9.62921
ках	-9.62928
ики	-9.62939
ющиеся	-9.63016
▁слышали	-9.63047
ился	-9.63087
▁урок	-9.63108
▁штат	-9.63204
▁метров	-9.63206
▁тюрьм	-9.63253
▁Первы	-9.63258
▁Просто	-9.63324
▁большим	-9.63367
▁больши	-9.63409
▁шесть	-9.63535
куп	-9.63548
▁часа	-9.63587
Йорк	-9.6359
▁реальность	-9.63616
цию	-9.63618
щем	-9.63725
▁температур	-9.63768
ниц	-9.63783
сле	-9.63798
▁предел	-9.63912
▁сложны	-9.63951
▁провел	-9.63962
,	-9.63966
▁мил	-9.63971
▁поведение	-9.64035
чат	-9.6408
ог	-9.64126
▁дизайнер	-9.64144
▁авто	-9.64145
▁школе	-9.64227
▁находи	-9.64261
ует	-9.64268
▁попросил	-9.64286
▁разниц	-9.64344
▁поверхности	-9.64451
▁Второ	-9.64459
▁здорово	-9.64459
▁клеток	-9.64546
▁Ча	-9.64559
вол	-9.64715
▁спас	-9.64717
др	-9.64745
▁организаци	-9.64764
вый	-9.64774
▁открыто	-9.64807
▁курс	-9.64857
▁прекрасны	-9.64914
▁сможет	-9.64921
ировал	-9.64935
▁кол	-9.65094
▁мед	-9.65155
▁сер	-9.65279
▁посмотрите	-9.65329
▁изучени	-9.6534
няя	-9.65378
▁словами	-9.65458
▁главно	-9.65461
▁архитектур	-9.65591
▁религи	-9.65591
▁лично	-9.65801
нем	-9.66061
▁развитие	-9.66068
▁глав	-9.66095
▁степени	-9.66118
▁Позволь	-9.66118
▁становят	-9.6613
▁высот	-9.66167
▁силы	-9.6617
▁T	-9.66192
ским	-9.66341
▁обща	-9.66389
кам	-9.66405
▁сравнени	-9.66443
▁Пол	-9.66464
▁миллиона	-9.66524
▁правила	-9.66535
▁счёт	-9.66564
▁бедны	-9.66647
▁надежд	-9.66707
▁член	-9.66796
ющихся	-9.66875
пуск	-9.66909
ена	-9.66985
▁пут	-9.66995
▁нефт	-9.67124
вест	-9.67145
▁нашли	-9.67325
▁школы	-9.67405
▁Сан	-9.67445
▁остров	-9.67462
кий	-9.67652
▁жертв	-9.67719
рог	-9.67736
▁умер	-9.67749
▁проекта	-9.67776
ации	-9.67804
▁занят	-9.67831
Д	-9.67843
▁глубоко	-9.67985
▁деревн	-9.67985
▁регион	-9.67985
▁штук	-9.67992
▁осозна	-9.68062
ита	-9.68064
лева	-9.68093
вых	-9.68206
▁сеть	-9.68207
ющего	-9.68247
▁черт	-9.68331
буд	-9.68332
▁сторону	-9.68336
▁большинств	-9.68341
▁музык	-9.684
▁нужда	-9.68417
▁тра	-9.68429
оду	-9.68453
▁птиц	-9.68527
▁L	-9.68532
жды	-9.68569
▁успех	-9.6872
чку	-9.68722
▁природы	-9.68732
▁системе	-9.68796
▁потеря	-9.68819
▁форма	-9.68853
▁знания	-9.68881
▁игры	-9.68921
▁общем	-9.69008
▁общественно	-9.6907
▁журнал	-9.69105
▁ребёнка	-9.69138
▁Ди	-9.69271
телей	-9.69287
▁взял	-9.6931
▁мысль	-9.6936
▁придёт	-9.69377
▁необходимы	-9.69409
▁политически	-9.69409
▁поняли	-9.69642
▁видно	-9.69761
дз	-9.69788
▁особ	-9.698
▁микро	-9.69801
щего	-9.69857
ограф	-9.69877
▁сердце	-9.69887
▁робот	-9.70129
зер	-9.70148
▁Под	-9.70165
▁изменени	-9.70225
▁лидер	-9.70329
▁опять	-9.70442
▁рек	-9.70461
▁влия	-9.70553
▁задача	-9.70627
▁получили	-9.7065
▁Google	-9.70713
▁стратеги	-9.70713
▁глаз	-9.70726
рас	-9.70847
▁позволя	-9.70935
▁смех	-9.70949
▁любим	-9.70965
▁художник	-9.7099
▁исследова	-9.71046
▁изменя	-9.71063
▁Думаю	-9.71086
роб	-9.71136
▁механизм	-9.71268
▁одновременно	-9.71268
▁кар	-9.71276
щим	-9.71337
чки	-9.71446
летни	-9.71489
▁угроз	-9.71547
▁мужчины	-9.7155
▁начало	-9.7155
▁двига	-9.71578
▁существую	-9.71588
чувствовать	-9.71714
▁имени	-9.71726
ница	-9.71818
▁исп	-9.71831
▁газ	-9.71848
шло	-9.71885
▁рассказал	-9.71887
▁Ла	-9.71943
▁Кор	-9.71986
▁огромн	-9.72083
▁конфликт	-9.72106
▁уничтож	-9.72106
▁Би	-9.72182
▁важна	-9.72291
ющую	-9.72296
зе	-9.72303
▁пришли	-9.72398
▁заметил	-9.72423
▁появля	-9.72433
▁пациент	-9.72495
▁человеком	-9.72658
▁изображение	-9.72701
▁16	-9.72702
▁вода	-9.72863
E	-9.72884
И	-9.72887
▁сад	-9.72893
▁рака	-9.72903
▁дух	-9.72905
ировали	-9.72942
▁физик	-9.72953
▁Земли	-9.72956
▁коп	-9.72987
чных	-9.7305
▁таком	-9.73077
▁живо	-9.73096
▁явля	-9.73145
думайте	-9.7317
▁руку	-9.7317
чная	-9.73263
воз	-9.73299
▁мама	-9.73395
▁70	-9.73401
бил	-9.73421
теля	-9.73464
▁значительно	-9.73524
▁фотография	-9.73542
кажем	-9.73552
▁рыб	-9.73593
▁80	-9.73735
метр	-9.73763
▁Африки	-9.73786
▁происходя	-9.73817
илась	-9.7383
▁кому	-9.7384
▁идей	-9.73926
▁задума	-9.74
▁институт	-9.74089
атив	-9.741
▁устройство	-9.74116
▁Ещ	-9.7427
▁построить	-9.74307
▁состоянии	-9.74363
▁потенциал	-9.74375
кладыва	-9.74485
очно	-9.7456
▁W	-9.74572
▁лицо	-9.74592
w	-9.74663
▁открыл	-9.74772
▁ошибк	-9.74793
▁сила	-9.74799
пор	-9.74912
▁попытк	-9.74953
▁поддержива	-9.74985
▁ро	-9.75004
▁борьб	-9.75029
▁ха	-9.75091
шки	-9.75114
▁кроме	-9.75142
▁Америке	-9.75215
дзе	-9.75304
▁климата	-9.75339
▁картинк	-9.75341
▁удар	-9.75349
▁вверх	-9.7535
▁реклам	-9.75536
▁разработк	-9.75544
▁средства	-9.75595
енные	-9.75618
▁Бог	-9.75657
▁глобально	-9.75853
▁Нужн	-9.75879
▁земле	-9.75911
▁рынк	-9.75932
▁набор	-9.75946
▁миллиарда	-9.75991
▁скоро	-9.76017
d	-9.76068
▁професси	-9.76112
▁Видео	-9.76113
▁Ми	-9.76211
▁обнаружил	-9.76221
ана	-9.76339
▁поле	-9.76416
▁спа	-9.76417
▁име	-9.7644
верить	-9.76468
▁Их	-9.76512
▁использовали	-9.76531
▁совет	-9.76552
▁местны	-9.76637
вёл	-9.76662
▁аудитори	-9.76698
давно	-9.76718
▁машина	-9.76734
▁H	-9.76764
▁Ку	-9.76813
▁влияние	-9.76858
▁силу	-9.76902
▁открыты	-9.7691
▁14	-9.76937
▁имел	-9.76966
▁Кон	-9.76986
▁ВИЧ	-9.76992
▁велики	-9.77007
▁Ха	-9.77055
▁ситуация	-9.77266
▁достиг	-9.77329
▁маленькие	-9.7735
щая	-9.77362
▁белы	-9.77368
▁семья	-9.77372
▁геро	-9.77383
▁фактор	-9.774
▁выда	-9.7745
▁пяти	-9.77482
▁хо	-9.7749
▁здание	-9.77509
▁принять	-9.77568
▁просты	-9.77585
▁лица	-9.77636
▁вне	-9.77732
▁воспринима	-9.7788
▁представляет	-9.77892
▁печ	-9.77903
кол	-9.7791
▁стара	-9.77999
▁чуть	-9.78187
▁супер	-9.78197
оборот	-9.78243
тки	-9.78246
▁научны	-9.78253
▁картин	-9.78269
▁очевидно	-9.78283
▁показыва	-9.78451
▁характер	-9.78476
▁секрет	-9.78476
in	-9.78501
гер	-9.78523
▁вывод	-9.78536
▁Рас	-9.7858
зор	-9.78614
▁маленько	-9.78624
▁пользу	-9.78677
нта	-9.78724
▁Больш	-9.78773
▁выполня	-9.7878
▁удивительны	-9.78804
ром	-9.78903
дал	-9.78948
▁создание	-9.7897
ание	-9.79054
▁Китай	-9.79104
▁люб	-9.79111
дра	-9.79202
▁кап	-9.7924
раст	-9.79274
реб	-9.79382
▁друзья	-9.79466
▁вида	-9.79468
цев	-9.79664
▁друзей	-9.79679
ложить	-9.7968
▁смогу	-9.79713
▁пост	-9.79733
▁сожалению	-9.79743
▁сталкива	-9.79759
▁мальчик	-9.79982
▁называют	-9.79988
▁земл	-9.79997
▁геном	-9.80003
▁живы	-9.80082
▁физически	-9.80085
▁написан	-9.80186
сво	-9.80256
пустить	-9.80262
́	-9.80286
тическо	-9.80339
▁получи	-9.80353
▁получает	-9.80398
тельный	-9.80443
50	-9.80484
сці	-9.80528
▁Посмотрите	-9.80591
▁времена	-9.8084
▁идее	-9.80843
▁приводит	-9.80913
кую	-9.80974
▁элемент	-9.81024
тры	-9.81025
▁стары	-9.81056
▁всеми	-9.81135
▁этап	-9.81152
x	-9.81203
ланд	-9.81254
носят	-9.81275
▁какое	-9.81408
сов	-9.81463
▁парк	-9.81489
тка	-9.81504
могут	-9.81544
▁фермер	-9.81567
ива	-9.81647
ющими	-9.81734
▁сначала	-9.81756
▁эмоци	-9.81819
▁угодно	-9.8182
▁другу	-9.81826
▁недель	-9.8209
▁виды	-9.82132
▁наверное	-9.82133
▁слайд	-9.82133
▁миллиард	-9.82147
▁счастлив	-9.8221
дзі	-9.82265
▁современно	-9.82292
▁использует	-9.82357
имся	-9.82365
▁перемен	-9.82371
▁считают	-9.82396
▁поиска	-9.82423
▁испытыва	-9.8244
▁17	-9.82481
▁фактически	-9.82507
клад	-9.8251
сі	-9.82575
▁аппарат	-9.82751
▁глубин	-9.82751
▁практик	-9.82751
▁разговарива	-9.82751
▁переход	-9.82763
▁представление	-9.82804
▁пытаемся	-9.82852
▁голову	-9.82885
▁центре	-9.8293
вели	-9.82963
тора	-9.82986
▁ранее	-9.82987
▁мод	-9.83045
▁объём	-9.83064
▁леса	-9.83074
▁любом	-9.8309
▁случая	-9.83106
▁десятк	-9.83112
▁Европе	-9.8315
атель	-9.83224
▁родители	-9.83382
▁целом	-9.83389
▁создаёт	-9.83461
нять	-9.83493
▁связан	-9.83501
▁современны	-9.83625
▁продолжать	-9.83681
▁президент	-9.83692
▁транспорт	-9.83694
ехать	-9.83723
▁поток	-9.83838
скую	-9.83847
▁власти	-9.83879
▁делаю	-9.83891
чную	-9.83901
леп	-9.83979
▁недостаточно	-9.84011
▁эффективно	-9.8407
▁условия	-9.84101
▁произойд	-9.84107
▁строи	-9.84161
лез	-9.84201
▁N	-9.84239
▁500	-9.84257
▁любовь	-9.84337
вые	-9.84345
▁проблемой	-9.84365
▁Хо	-9.84388
▁правительства	-9.84396
O	-9.84416
▁думали	-9.84498
▁раза	-9.84498
▁искусства	-9.8456
▁отправ	-9.84562
▁считает	-9.84576
гру	-9.84638
▁применя	-9.84643
▁обществе	-9.84682
▁заниматься	-9.84893
▁документ	-9.8496
▁живёт	-9.85011
▁Где	-9.85037
▁полу	-9.85048
▁построен	-9.85058
▁забот	-9.85058
▁капитал	-9.85129
▁кажды	-9.85169
▁лечения	-9.85188
▁отношени	-9.85229
▁широко	-9.85279
▁возможностей	-9.85326
▁растени	-9.85377
Х	-9.85398
▁океана	-9.85523
альная	-9.85546
▁Большинство	-9.856
▁получается	-9.85736
▁болезнь	-9.85759
ачива	-9.85831
▁книгу	-9.85926
▁месяца	-9.85998
▁мужчина	-9.86028
P	-9.86054
▁километров	-9.86061
▁лиш	-9.86073
▁навык	-9.86118
M	-9.86181
▁взгляну	-9.86244
▁неделю	-9.86252
▁оценк	-9.86283
▁экономически	-9.86319
▁трати	-9.86363
ага	-9.86407
▁условиях	-9.86428
▁ран	-9.86522
▁существовани	-9.86528
льны	-9.86567
▁стандарт	-9.86567
▁улучши	-9.86568
щу	-9.86616
альный	-9.86647
льных	-9.86652
▁бед	-9.86795
▁функци	-9.86889
▁последствия	-9.86893
▁текст	-9.86917
▁маг	-9.86996
▁помога	-9.8703
▁бор	-9.87062
▁состав	-9.87115
йтесь	-9.87126
▁баз	-9.87176
▁Благодар	-9.87218
▁посмотрел	-9.8722
уют	-9.87315
эл	-9.87321
ётся	-9.87474
▁живём	-9.87564
▁детств	-9.87593
сер	-9.87784
просить	-9.87798
▁позже	-9.87881
▁узнал	-9.87959
▁здравоохранения	-9.87964
▁работали	-9.87984
ывать	-9.88041
B	-9.88044
▁пас	-9.88074
▁доступны	-9.88081
▁Пар	-9.88097
▁аб	-9.88101
рес	-9.88108
▁выясни	-9.8813
▁продолжи	-9.88152
▁улиц	-9.88171
▁момента	-9.88178
▁детям	-9.88202
▁искусство	-9.88276
▁мер	-9.88349
▁спор	-9.88432
▁получают	-9.88442
▁направ	-9.88508
рок	-9.88514
▁сильны	-9.88514
▁обсужда	-9.88531
▁чувствовал	-9.88555
▁экран	-9.88614
▁пациентов	-9.88703
▁ограничен	-9.88717
▁Вселенн	-9.88754
▁вырос	-9.88758
▁процессе	-9.88801
▁информация	-9.88863
▁расстояни	-9.88863
▁самолёт	-9.88863
дали	-9.88992
▁мирово	-9.89069
▁желание	-9.8912
енных	-9.89127
▁внимания	-9.89195
▁символ	-9.89196
▁участие	-9.89241
стран	-9.89349
▁газет	-9.89495
▁ваша	-9.89528
▁чувства	-9.89581
▁ясно	-9.89674
▁команд	-9.89752
▁определя	-9.89816
▁прогресс	-9.89857
▁галактик	-9.89863
пустил	-9.89884
альным	-9.89935
лан	-9.89946
▁сможете	-9.9005
▁помогает	-9.90073
▁довери	-9.90148
▁сумм	-9.90249
овал	-9.90363
водит	-9.90418
▁Але	-9.90439
▁доста	-9.90488
жение	-9.90515
▁обучения	-9.90535
▁услуг	-9.90535
▁определить	-9.90536
▁гэты	-9.90536
▁зависит	-9.90542
▁парень	-9.90555
▁радио	-9.90601
▁замечательно	-9.90618
▁ды	-9.90621
вес	-9.90687
▁получа	-9.90725
▁существ	-9.90731
▁имя	-9.90743
▁понимание	-9.90782
▁случай	-9.90852
▁Ю	-9.90864
▁земли	-9.90886
смотрим	-9.90903
▁боль	-9.90915
▁расход	-9.90977
дар	-9.90986
торая	-9.91033
вши	-9.91109
нач	-9.91177
▁13	-9.91212
▁истин	-9.91233
пал	-9.91301
▁плот	-9.91332
▁секс	-9.91392
является	-9.91453
▁играть	-9.91497
▁распространя	-9.91552
▁космос	-9.91552
▁карьер	-9.91552
▁эксперт	-9.91552
▁выглядел	-9.91555
▁лекарства	-9.91563
крыва	-9.91567
▁масс	-9.91608
▁Наш	-9.9164
илл	-9.91846
купить	-9.91998
▁музыка	-9.92003
шей	-9.92059
▁использование	-9.92059
▁целью	-9.92102
дти	-9.92129
Йорке	-9.9213
▁огромны	-9.92158
▁реальны	-9.9218
▁создани	-9.92187
▁ребёнок	-9.92236
рыв	-9.92241
▁недавн	-9.92305
Б	-9.92377
▁касает	-9.92532
▁научно	-9.92576
▁достичь	-9.92579
▁собак	-9.9262
▁машину	-9.92665
▁автор	-9.92698
▁дик	-9.92813
под	-9.92828
▁фи	-9.92847
▁студентов	-9.92902
таки	-9.92918
▁вперёд	-9.92924
▁здоровье	-9.9293
▁относительно	-9.92942
▁небольши	-9.9296
▁примени	-9.92975
огласно	-9.93025
▁страна	-9.93073
▁использовал	-9.93123
▁общественны	-9.93127
T	-9.93174
▁дав	-9.93207
▁всём	-9.93227
жить	-9.93259
лик	-9.93318
▁откуда	-9.934
грамм	-9.93468
▁вполне	-9.93506
вез	-9.93644
овали	-9.93646
час	-9.93667
тин	-9.93703
▁Ваш	-9.93706
▁замети	-9.93873
▁мечт	-9.93899
▁потер	-9.93933
▁Гэта	-9.93967
▁детал	-9.93989
луч	-9.94034
▁сним	-9.94054
▁создают	-9.94134
▁станови	-9.94138
▁данны	-9.94149
▁возраста	-9.94163
юць	-9.94168
Н	-9.94234
вторы	-9.94273
▁голод	-9.94354
▁форму	-9.94355
▁объясн	-9.94383
▁расположен	-9.94391
▁Му	-9.94423
▁позволи	-9.9443
▁ошиб	-9.94502
▁знаком	-9.94505
▁кан	-9.94519
▁стреми	-9.94536
▁встреч	-9.94555
▁бег	-9.94681
▁пациента	-9.94701
▁спин	-9.94761
▁конца	-9.94771
▁гра	-9.94787
▁Пока	-9.94807
▁действительност	-9.9486
▁измен	-9.94901
▁ужасно	-9.94934
▁имеем	-9.9494
▁инфраструктур	-9.95018
▁техник	-9.95021
▁чаще	-9.95022
▁др	-9.95023
▁мол	-9.95071
▁крупны	-9.95121
▁сообщества	-9.95154
▁количества	-9.95234
▁лиц	-9.95306
рг	-9.9537
en	-9.95384
▁E	-9.95456
▁ра	-9.95459
▁изменение	-9.95464
▁благо	-9.95564
ваю	-9.95623
▁понимаю	-9.95704
▁девушк	-9.95726
▁согласи	-9.95778
▁любимы	-9.9578
▁верно	-9.95799
▁акт	-9.95841
▁верси	-9.95873
▁продолжа	-9.96006
▁шар	-9.96008
▁суть	-9.96015
▁жал	-9.96025
▁состояние	-9.96028
▁Мак	-9.96059
▁общи	-9.96061
▁животно	-9.9612
▁основны	-9.96138
▁рис	-9.96158
▁Друг	-9.96213
бел	-9.96278
нными	-9.96298
▁Бер	-9.96332
▁городе	-9.96336
льше	-9.9635
другому	-9.96412
▁отлично	-9.96429
▁СМИ	-9.96439
▁колледж	-9.96439
it	-9.96444
▁дзе	-9.96451
▁показан	-9.9665
казан	-9.96698
изма	-9.9675
▁называю	-9.96795
▁жив	-9.96807
▁взрыв	-9.96809
▁открыва	-9.96824
▁недели	-9.9686
▁аспект	-9.96877
▁случайно	-9.9695
▁север	-9.96982
▁выступа	-9.97058
▁семей	-9.97063
▁канал	-9.971
▁журналист	-9.97108
▁производства	-9.97114
▁будущего	-9.97175
▁Че	-9.97318
сил	-9.97381
дают	-9.97388
▁Запад	-9.97421
▁человечества	-9.97455
▁устройства	-9.97455
▁исчез	-9.97531
▁каса	-9.97607
▁выбора	-9.97624
▁открыт	-9.9763
ворот	-9.97698
▁собрать	-9.97718
▁счастливы	-9.97787
„	-9.97881
▁выращива	-9.97881
▁замечательны	-9.97934
▁замеча	-9.9799
▁миллионы	-9.98018
▁частиц	-9.98028
▁став	-9.98095
▁сокращ	-9.98251
▁прост	-9.98278
▁исход	-9.98336
▁науки	-9.98341
шек	-9.98357
▁стади	-9.98366
льная	-9.98419
▁усили	-9.9853
наружи	-9.98574
▁справа	-9.98623
▁велико	-9.98663
▁вред	-9.98736
▁временем	-9.98762
▁провести	-9.98799
кар	-9.98853
▁реакци	-9.98965
▁алгоритм	-9.98976
▁предполага	-9.98976
▁очередь	-9.98976
▁доказательств	-9.98976
▁офис	-9.9898
▁пес	-9.99028
▁возраст	-9.99071
▁определённы	-9.99071
▁остава	-9.99141
лон	-9.9922
▁будуч	-9.99246
▁выбрал	-9.99253
▁будете	-9.99276
▁маленьк	-9.99302
▁пространства	-9.99343
▁рынок	-9.99344
▁двумя	-9.99348
▁Ло	-9.99385
▁кров	-9.99413
льной	-9.99548
▁жела	-9.9957
▁принят	-9.99645
▁Вер	-9.99696
▁изображения	-9.99729
R	-10.0007
▁многим	-10.0008
▁хуже	-10.0008
▁красот	-10.0009
▁случа	-10.0014
▁Ар	-10.002
овым	-10.002
▁ужас	-10.0024
▁систем	-10.0032
▁нового	-10.0039
▁снимк	-10.0044
▁углерод	-10.0045
▁вакцин	-10.0045
▁Кроме	-10.0046
▁убедить	-10.0047
шн	-10.0055
ёл	-10.0055
▁обеспечи	-10.0055
▁дра	-10.0062
ческ	-10.008
тельной	-10.0082
бежать	-10.0086
▁Ти	-10.0088
▁отказ	-10.0089
брос	-10.0089
▁запис	-10.0091
▁первым	-10.0091
▁пуст	-10.0093
искать	-10.0094
▁давно	-10.0098
▁работаем	-10.0101
▁расти	-10.0103
▁позволит	-10.0107
▁попыта	-10.0109
уча	-10.0113
▁пят	-10.0114
▁голуб	-10.012
▁обеспечени	-10.0121
▁черн	-10.0122
рус	-10.0126
▁блок	-10.0128
енный	-10.0135
ган	-10.0135
сход	-10.0135
▁поколение	-10.0144
▁пришёл	-10.0145
▁слышал	-10.0147
▁считал	-10.0157
▁начинае	-10.0158
▁поколения	-10.0167
▁двигаться	-10.0172
▁фонд	-10.0173
le	-10.0176
▁мать	-10.0194
▁велосипед	-10.0196
▁пера	-10.0204
▁Джо	-10.0214
рожден	-10.0221
пс	-10.0222
▁перспектив	-10.0233
▁пространстве	-10.0234
тера	-10.0237
▁роста	-10.0239
▁ці	-10.0248
▁дизайна	-10.0249
▁компаний	-10.0249
▁получаем	-10.0256
чек	-10.0262
ога	-10.0263
▁защища	-10.0271
▁норм	-10.0289
▁шум	-10.0292
хожу	-10.0295
▁встретил	-10.0301
▁поверхность	-10.0312
▁Тут	-10.0312
▁изуча	-10.0314
▁программу	-10.0323
▁іх	-10.0327
▁21	-10.0328
▁будь	-10.0339
▁сердца	-10.0348
руч	-10.0354
▁Тем	-10.0362
▁реальност	-10.0362
▁точк	-10.0363
▁приз	-10.0379
▁воображени	-10.0386
▁Проблем	-10.0386
▁эффективны	-10.0386
▁возрасте	-10.0387
▁пита	-10.0387
▁помн	-10.0388
нік	-10.039
▁вселенной	-10.0395
▁район	-10.0401
люб	-10.0402
la	-10.0408
▁дал	-10.041
▁наук	-10.0422
▁команда	-10.0422
▁участк	-10.0425
▁странно	-10.0433
▁ситуацию	-10.0441
▁остановить	-10.0447
лькі	-10.045
▁вашем	-10.0452
▁звон	-10.0452
▁X	-10.0463
▁мобильны	-10.0464
▁представь	-10.0464
▁понятия	-10.0465
▁ощущение	-10.047
▁правило	-10.0477
▁девочк	-10.0483
летне	-10.0483
▁спрашива	-10.0485
▁стан	-10.0487
▁примеров	-10.0487
▁век	-10.0488
▁Наши	-10.05
▁разве	-10.0505
▁обрати	-10.0509
▁утра	-10.051
▁Наша	-10.0519
▁новости	-10.0522
жил	-10.0525
▁печат	-10.0529
▁данным	-10.0529
▁совместно	-10.053
▁переста	-10.0534
▁убеди	-10.054
▁автомобиль	-10.0542
▁преодоле	-10.0542
▁Мар	-10.0544
▁заверш	-10.0546
▁выброс	-10.0546
▁сидел	-10.0548
▁естественно	-10.0555
▁следующе	-10.0565
▁изучать	-10.0568
▁объединя	-10.0581
▁заболевания	-10.0581
граф	-10.0582
рик	-10.0585
▁представлен	-10.0587
▁поднима	-10.0604
▁вспомни	-10.0605
▁вести	-10.0616
▁управлять	-10.062
▁нормально	-10.0623
▁Ге	-10.0638
▁нерв	-10.0641
▁взяли	-10.0645
▁ресурсов	-10.0647
▁растения	-10.0651
▁любв	-10.0652
щую	-10.0652
▁окруж	-10.0654
ванн	-10.0661
▁Боле	-10.0663
▁Перв	-10.0666
▁треть	-10.0669
▁роз	-10.0677
▁Южно	-10.0678
▁Кажд	-10.0683
▁уз	-10.0693
сад	-10.0699
ация	-10.0704
▁схем	-10.0704
▁появилась	-10.0711
▁особенност	-10.0711
▁Перво	-10.0721
▁какая	-10.0721
▁фотограф	-10.0731
▁специалист	-10.0739
▁происходил	-10.0739
▁сущност	-10.0739
▁события	-10.0742
роз	-10.0742
▁пережива	-10.0743
▁конец	-10.0748
▁номер	-10.0748
▁атмосфер	-10.075
▁публик	-10.075
▁читать	-10.0756
▁взрослы	-10.0763
▁передач	-10.0763
▁линии	-10.0771
▁вызыва	-10.0774
▁боя	-10.0777
▁выглядеть	-10.0779
▁повторя	-10.0779
▁везде	-10.0779
▁здоровья	-10.0779
▁рассмотре	-10.078
▁дороги	-10.0787
▁экономическо	-10.0789
исты	-10.079
▁кур	-10.0801
▁товар	-10.0806
▁комнат	-10.0808
▁полици	-10.0809
▁прочита	-10.0814
▁Лондон	-10.082
▁порядке	-10.082
▁принимать	-10.0828
▁индустри	-10.0838
▁Чере	-10.084
▁считать	-10.0843
▁красны	-10.0844
▁Чем	-10.0853
▁власть	-10.0855
учиться	-10.0862
▁успеха	-10.0862
работать	-10.0864
▁определённо	-10.0871
шта	-10.0878
каж	-10.0879
▁слыш	-10.0882
▁музыку	-10.0882
▁связаны	-10.0883
изации	-10.0886
стве	-10.0888
▁рассматрива	-10.0889
▁можешь	-10.0892
▁пря	-10.0893
▁300	-10.0898
▁Афганистан	-10.09
▁сегодняшни	-10.0901
▁учителя	-10.0902
▁вызов	-10.0907
▁серьёзно	-10.091
▁микроб	-10.0912
▁чрезвычайно	-10.0922
▁помнит	-10.0923
▁никаки	-10.0924
▁управления	-10.0926
▁разрабатыва	-10.0929
▁независимо	-10.0931
▁служб	-10.0933
▁угол	-10.0938
▁способом	-10.0939
▁прогноз	-10.0941
▁американски	-10.0941
пар	-10.0944
▁перевод	-10.0949
готов	-10.0949
▁наблюдать	-10.097
▁любы	-10.0975
▁истори	-10.0975
▁Пере	-10.0981
▁эпох	-10.0982
▁столкну	-10.0982
▁транс	-10.0983
ску	-10.0987
рел	-10.0989
▁плохи	-10.0994
▁обуча	-10.0995
делить	-10.0997
▁жизнью	-10.0999
▁подобное	-10.1
▁экс	-10.1004
▁влияет	-10.101
▁собран	-10.1012
план	-10.1016
▁добро	-10.1017
▁партнёр	-10.1023
сц	-10.1038
▁следующем	-10.1044
▁размера	-10.1045
нок	-10.1047
льд	-10.1065
▁позволил	-10.1065
▁позици	-10.1066
▁программа	-10.1068
итесь	-10.1068
▁полезны	-10.1069
▁кадр	-10.1069
вольн	-10.1076
▁смотрите	-10.1093
▁воздействи	-10.1105
▁депресси	-10.1105
▁кампани	-10.1105
▁животные	-10.1105
▁клиент	-10.1105
▁сектор	-10.1106
▁детьми	-10.1106
▁замен	-10.1108
▁отдельны	-10.1109
▁ноги	-10.1111
аты	-10.1125
▁хоть	-10.113
▁дыр	-10.1132
▁качества	-10.1143
▁обезьян	-10.1147
брасыва	-10.1148
▁умны	-10.1154
▁выступления	-10.1155
▁писать	-10.1158
▁счита	-10.116
▁вкус	-10.1167
▁дни	-10.1169
▁представител	-10.117
гна	-10.1174
▁режим	-10.1175
рин	-10.1176
▁живу	-10.1177
▁хирург	-10.1188
▁учёные	-10.1188
рак	-10.119
▁разработал	-10.1193
▁повсюду	-10.1199
бег	-10.12
▁цвета	-10.12
▁фон	-10.1202
гі	-10.121
джа	-10.1211
▁привлек	-10.1215
▁отношение	-10.1215
▁привести	-10.1216
▁отход	-10.1219
▁улице	-10.1223
▁случаев	-10.1227
▁среду	-10.1229
▁строительств	-10.123
▁описыва	-10.1231
▁наличи	-10.1233
▁направлении	-10.1234
▁хороший	-10.1235
▁городов	-10.1236
▁оказывает	-10.1241
▁торгов	-10.1255
помнить	-10.1256
платить	-10.1256
▁существу	-10.1266
▁наблюда	-10.1271
чк	-10.1272
▁сквоз	-10.1272
▁кос	-10.1276
▁сделано	-10.1276
▁числа	-10.1278
▁главны	-10.1281
▁облада	-10.129
▁наука	-10.1291
▁устойчиво	-10.1304
▁сбор	-10.1305
▁цивилизаци	-10.1314
▁приехал	-10.1315
▁неудач	-10.1315
▁родителей	-10.1315
▁коробк	-10.1315
▁способности	-10.1325
▁стоимость	-10.133
▁твор	-10.1337
▁занимает	-10.1344
▁море	-10.1349
частью	-10.1351
▁пищ	-10.1357
“	-10.1357
▁статистик	-10.1357
▁приобре	-10.1357
чна	-10.1358
ирование	-10.1358
▁организация	-10.1358
▁учиться	-10.1359
▁конц	-10.1365
▁планета	-10.1366
эк	-10.1379
▁развити	-10.1379
▁желез	-10.1382
▁конечном	-10.1384
▁мнение	-10.1386
▁облак	-10.1398
▁континент	-10.1399
▁сотрудничеств	-10.1399
▁появлени	-10.14
▁Хотя	-10.14
▁поводу	-10.1401
▁мост	-10.1408
▁предлага	-10.141
▁цикл	-10.1411
▁семье	-10.1416
▁процесса	-10.1426
▁остально	-10.143
▁следующее	-10.1432
нец	-10.1437
▁букв	-10.1441
▁динозавр	-10.1442
▁звёзд	-10.1442
▁придумал	-10.1442
гар	-10.1443
▁население	-10.1443
▁слеп	-10.1444
▁охран	-10.1444
▁веществ	-10.1449
▁лист	-10.1451
▁древ	-10.1458
▁учитыва	-10.1462
▁охот	-10.1464
▁сострадани	-10.1485
▁середин	-10.1485
▁творчески	-10.1486
▁выгод	-10.1487
▁брат	-10.1488
▁направлен	-10.1492
▁новым	-10.1504
,5	-10.1505
читаем	-10.1506
станут	-10.1508
▁важное	-10.1512
▁кино	-10.1519
▁контролирова	-10.1523
мон	-10.1525
▁деревья	-10.1528
▁дли	-10.1529
▁един	-10.1532
▁образц	-10.1532
▁почв	-10.1538
▁беспоко	-10.1544
жать	-10.1544
▁связанны	-10.1552
▁скрыт	-10.1554
▁настоящее	-10.1555
▁вероятность	-10.1557
▁операци	-10.1567
кер	-10.1568
▁Сам	-10.157
▁Оказывает	-10.1571
▁поможет	-10.1571
▁обязан	-10.1572
▁мяне	-10.1572
▁вершин	-10.1573
вел	-10.1575
▁богаты	-10.1585
▁первых	-10.159
▁слуша	-10.1594
▁вечер	-10.1595
кла	-10.1596
es	-10.1597
▁але	-10.1604
▁сельско	-10.1606
делаем	-10.1608
▁убива	-10.1609
re	-10.161
▁единственно	-10.1615
▁контекст	-10.1615
▁философ	-10.1615
▁лечение	-10.1615
▁книга	-10.1618
▁зову	-10.1619
▁осознал	-10.1622
▁сделала	-10.1632
▁24	-10.1643
▁отсутстви	-10.1659
▁бабушк	-10.1659
▁увеличени	-10.1659
бі	-10.1669
веч	-10.1671
▁провод	-10.1686
▁веке	-10.1689
▁женск	-10.1695
▁невероятны	-10.1695
ó	-10.1702
лены	-10.1708
▁потрясающе	-10.171
▁девочка	-10.1725
▁человеку	-10.1742
▁увеличи	-10.1742
▁одни	-10.1744
▁мусор	-10.1747
▁список	-10.1747
▁магнит	-10.1747
▁услышал	-10.1748
▁потерял	-10.1748
▁цифрово	-10.1757
▁знакомы	-10.1758
▁крыш	-10.1758
▁узнали	-10.1759
министр	-10.176
▁водой	-10.1762
изу	-10.1765
▁продолжает	-10.1768
▁проводил	-10.1773
▁Им	-10.1777
▁взят	-10.1779
om	-10.1781
▁Пра	-10.1786
▁способы	-10.1786
▁среде	-10.1786
▁традици	-10.1789
▁обучение	-10.1791
▁насчёт	-10.1793
▁предоставля	-10.1793
▁чисто	-10.1796
▁красивы	-10.1801
▁рэ	-10.1803
▁выступление	-10.1813
▁Пред	-10.1827
▁обязательно	-10.1835
▁специально	-10.1835
▁термин	-10.1835
▁область	-10.1836
печат	-10.1836
▁пришла	-10.1836
▁хими	-10.1837
ново	-10.1839
▁писал	-10.1839
амі	-10.1841
▁компьютеры	-10.1844
▁средств	-10.1851
коп	-10.1854
ённых	-10.1858
▁проник	-10.1868
стях	-10.1868
▁Само	-10.1869
ойти	-10.1874
▁заканчива	-10.188
▁еду	-10.1901
▁оказыва	-10.1901
▁показывают	-10.1904
▁получени	-10.1905
▁движени	-10.1921
▁заключен	-10.1923
▁директор	-10.1925
▁четырёх	-10.1925
▁владе	-10.1925
▁зависимости	-10.1925
▁представи	-10.1926
▁пустын	-10.1929
▁составляет	-10.193
▁Китае	-10.1932
▁ответственность	-10.1933
енной	-10.1934
▁усилия	-10.1937
▁зуб	-10.1942
▁студент	-10.1943
▁попал	-10.1943
st	-10.1944
плыв	-10.1946
▁изменил	-10.1946
▁комп	-10.1952
▁кро	-10.1956
▁количеств	-10.196
▁проста	-10.1961
▁полёт	-10.1962
нова	-10.1974
пон	-10.198
шая	-10.1989
▁закончил	-10.1995
▁вашу	-10.1998
бро	-10.2001
▁Мои	-10.2002
▁секунду	-10.2004
могло	-10.2006
▁основани	-10.2008
ари	-10.2009
истов	-10.201
начала	-10.2013
вым	-10.2015
▁неправильно	-10.2015
▁ощуща	-10.2015
▁Следующ	-10.2015
▁поменя	-10.2016
▁шести	-10.2016
▁относи	-10.2018
▁198	-10.2019
▁доказа	-10.202
▁языка	-10.2024
▁политическо	-10.2031
ic	-10.2037
▁куч	-10.2041
▁Лос	-10.2041
▁необходим	-10.2049
▁многое	-10.2052
рн	-10.206
▁контакт	-10.206
▁скажет	-10.2062
▁звучит	-10.2063
▁данном	-10.2064
▁успе	-10.2071
▁качество	-10.2071
▁понимаем	-10.2073
ните	-10.2079
▁бар	-10.2085
▁получится	-10.2087
пользова	-10.2088
▁які	-10.2089
▁прошлого	-10.209
▁добра	-10.2091
▁некоторо	-10.2093
▁богат	-10.2094
▁скоростью	-10.2095
чт	-10.2095
▁Эй	-10.21
рис	-10.21
▁оборудовани	-10.2106
▁увидим	-10.2106
▁государства	-10.2117
▁медицин	-10.2123
▁приложени	-10.2124
▁спасти	-10.2129
ходим	-10.2131
▁атак	-10.2132
▁чувствую	-10.2137
▁небольш	-10.2143
▁доллар	-10.2151
V	-10.2152
▁пункт	-10.2152
▁Видите	-10.2153
▁Одно	-10.2157
▁показали	-10.2159
▁строить	-10.2163
уществует	-10.2164
▁глобальны	-10.2166
важ	-10.2182
▁особо	-10.2193
▁ближе	-10.2196
ch	-10.2197
▁положение	-10.22
▁Северно	-10.22
пир	-10.2201
v	-10.2208
▁Эл	-10.2212
▁близко	-10.2213
▁задн	-10.2226
▁Нас	-10.2228
▁пальц	-10.2243
▁кислород	-10.2244
▁четвер	-10.2245
▁рос	-10.2252
вались	-10.2258
▁можа	-10.226
▁вопроса	-10.2265
дём	-10.227
▁путешествие	-10.2283
▁бело	-10.2284
▁ребята	-10.2288
▁берег	-10.2291
▁ответить	-10.2296
▁проходит	-10.2297
▁молекул	-10.2303
▁зло	-10.2305
▁наблюдал	-10.2308
▁средни	-10.231
бирать	-10.2313
зі	-10.2316
▁мин	-10.2322
▁столь	-10.2328
▁вклад	-10.2328
▁движ	-10.2334
▁тяжёл	-10.2338
▁пользоваться	-10.2338
▁насилия	-10.2339
▁начинал	-10.2339
▁действова	-10.2339
▁собственн	-10.2343
▁2000	-10.2352
лки	-10.2353
энд	-10.2353
▁тяжело	-10.236
▁времен	-10.2366
▁Дело	-10.237
ратор	-10.2371
вшего	-10.2372
▁третье	-10.2375
▁языке	-10.2376
▁общин	-10.2377
▁дали	-10.2379
▁попада	-10.238
▁Вопрос	-10.2385
▁ученик	-10.2387
▁включ	-10.2392
▁лекарств	-10.2394
▁срок	-10.2396
▁правительств	-10.2405
▁медицински	-10.2405
▁остаёт	-10.2407
добав	-10.2407
▁отлича	-10.2417
▁клетка	-10.2419
▁Аль	-10.242
▁альтернатив	-10.2432
▁наркотик	-10.2432
▁Люб	-10.2433
▁сделаю	-10.2436
▁волос	-10.2438
▁использую	-10.2438
▁Гл	-10.2439
гло	-10.244
чны	-10.2441
▁закрыт	-10.2444
▁вдох	-10.2446
▁опасност	-10.2449
▁жител	-10.2451
ирования	-10.2453
▁ниже	-10.2455
▁якія	-10.246
▁энергия	-10.2465
▁Ал	-10.2468
▁клетк	-10.247
▁тур	-10.2475
▁экологи	-10.2477
▁ключ	-10.2479
▁серьезн	-10.2479
▁улучшени	-10.2479
▁понрави	-10.2479
▁генетически	-10.2479
▁тонн	-10.2479
▁продаж	-10.2483
ливо	-10.2498
скольк	-10.2508
мню	-10.2511
нка	-10.2514
▁правильны	-10.2526
▁наверняка	-10.2527
▁телевизор	-10.2527
▁Пер	-10.2528
▁солнечны	-10.2529
▁затрат	-10.2531
▁звезд	-10.2534
▁тайн	-10.2535
▁рисова	-10.2535
ктивн	-10.254
вшим	-10.2544
▁400	-10.2544
▁роди	-10.2545
▁брать	-10.2548
▁ветр	-10.2554
▁политики	-10.256
овое	-10.2569
▁поезд	-10.2569
U	-10.2575
▁старше	-10.2576
▁ферм	-10.2576
▁пройти	-10.2577
▁цеп	-10.2581
▁отличны	-10.2582
▁близки	-10.2583
зон	-10.2583
ro	-10.2586
▁назвал	-10.2587
▁бомб	-10.2591
▁выбрать	-10.2606
▁расп	-10.2618
льна	-10.2619
▁ООН	-10.2623
▁эпидеми	-10.2623
▁онлайн	-10.2623
▁нему	-10.2625
▁искусств	-10.2631
▁погиб	-10.2635
▁победи	-10.264
носить	-10.2642
▁честно	-10.2649
▁материалы	-10.265
▁скорость	-10.2664
▁внутрь	-10.2671
▁математическ	-10.2671
▁попробовать	-10.2671
▁выглядят	-10.2671
▁инвестици	-10.2671
▁конференции	-10.2673
▁предостави	-10.2676
тек	-10.2677
▁красиво	-10.2678
▁пытался	-10.2683
▁гре	-10.2683
▁назвать	-10.2686
▁жизне	-10.2686
пан	-10.269
▁водо	-10.2691
▁конкретно	-10.2696
▁пользовател	-10.2711
▁любя	-10.2719
▁препарат	-10.272
▁решать	-10.272
▁зрител	-10.2721
▁визуальн	-10.2725
▁Япони	-10.2727
▁фраз	-10.2729
▁национально	-10.2739
▁доме	-10.274
▁важным	-10.2743
▁поведения	-10.2743
▁финанс	-10.2749
ступить	-10.275
▁хорош	-10.2753
▁молод	-10.2756
▁серьёзны	-10.2762
▁способов	-10.2763
ошёл	-10.2764
сен	-10.2765
L	-10.2767
▁прибор	-10.2767
▁взаимодействи	-10.2768
▁категори	-10.2768
▁преступлени	-10.2768
▁соединя	-10.2768
▁мисси	-10.2768
▁перес	-10.2768
▁сократи	-10.2769
▁редко	-10.2769
▁возможны	-10.2773
ажен	-10.2776
▁свободно	-10.278
▁дву	-10.2786
▁личност	-10.2787
▁Ган	-10.2791
▁наступ	-10.2794
▁жили	-10.28
▁собираем	-10.2804
▁приём	-10.2808
▁содержани	-10.2817
▁концепци	-10.2818
▁одежд	-10.2818
▁заставил	-10.2818
▁страну	-10.2819
▁дума	-10.2821
▁крупнейш	-10.2822
▁военны	-10.2825
▁скорост	-10.2826
▁фильма	-10.283
бол	-10.2833
дол	-10.2841
▁открыть	-10.2844
▁комнате	-10.2845
▁газа	-10.2847
▁фундамент	-10.2849
▁сестр	-10.2858
свет	-10.286
рад	-10.2865
▁вынужден	-10.2867
▁компонент	-10.2867
▁успешно	-10.2867
▁изменит	-10.2867
▁низко	-10.2868
▁роман	-10.287
▁предложил	-10.2879
▁испыта	-10.2883
▁связано	-10.2891
▁нашёл	-10.2893
▁настояще	-10.2901
▁естественны	-10.2903
▁каких	-10.2903
▁хочется	-10.291
▁Бразили	-10.2916
▁пещер	-10.2917
▁кофе	-10.2918
▁приближ	-10.2922
казать	-10.2922
▁живущи	-10.2923
ённые	-10.2924
▁контроль	-10.2931
▁оцени	-10.2932
▁стоял	-10.2939
▁утром	-10.2945
▁купил	-10.2949
▁толк	-10.2952
▁сери	-10.2955
ведения	-10.2959
ілі	-10.296
▁повлия	-10.2964
▁лев	-10.2964
▁веда	-10.2964
▁маляри	-10.2966
▁платформ	-10.2966
▁отца	-10.2967
X	-10.2967
▁доверя	-10.2969
▁городах	-10.2971
лучилось	-10.2975
▁Ги	-10.2978
▁ветер	-10.2979
доль	-10.2983
ированны	-10.2989
▁потрясающи	-10.299
▁продуктов	-10.2995
▁знак	-10.2997
▁кус	-10.2997
▁занял	-10.3001
▁обратить	-10.3002
▁закончи	-10.3014
▁рождения	-10.3016
▁сомнени	-10.3016
▁традиционны	-10.3017
▁Без	-10.3021
▁Такие	-10.3021
▁раб	-10.3023
▁смотрит	-10.3032
▁требует	-10.3035
▁еды	-10.3038
▁замет	-10.3043
▁отличие	-10.3044
▁методы	-10.3048
▁испытани	-10.305
▁средне	-10.305
▁рыбы	-10.3055
▁дают	-10.3063
▁мусульман	-10.3066
▁сильнее	-10.3066
▁экосистем	-10.3066
▁сохраня	-10.3066
▁кредит	-10.3066
▁пик	-10.3072
▁запас	-10.3072
очки	-10.3073
▁подобно	-10.3074
▁вернулся	-10.3076
▁броса	-10.3084
▁хороша	-10.3088
▁действий	-10.3089
▁углу	-10.3089
▁пожалуйста	-10.3091
▁роботов	-10.3093
▁благодар	-10.3096
▁огромные	-10.3096
▁веб	-10.3105
▁холод	-10.3108
▁потребител	-10.3109
▁раст	-10.311
▁гигантск	-10.3117
▁профессор	-10.3117
▁понимают	-10.3117
▁играет	-10.3119
▁пытается	-10.312
▁Земля	-10.3124
▁обман	-10.3127
▁окружающи	-10.313
▁корн	-10.3146
▁Великобритании	-10.3153
▁справ	-10.316
▁архитектор	-10.3167
▁интервью	-10.3167
▁людях	-10.3167
менить	-10.3167
▁предсказа	-10.3168
▁металл	-10.3169
▁игру	-10.3169
▁биологически	-10.317
▁Три	-10.3173
▁медицинско	-10.3177
▁открытия	-10.3179
▁справля	-10.319
▁плава	-10.3197
▁протест	-10.3198
is	-10.3199
▁находить	-10.3205
▁лекарство	-10.3206
▁таму	-10.3208
▁ап	-10.3213
▁привело	-10.3214
▁десятилети	-10.3215
▁понимал	-10.3216
кажите	-10.3218
▁ресторан	-10.3218
▁завтра	-10.3219
ложения	-10.3222
▁кит	-10.3222
▁сообщество	-10.3225
▁участник	-10.3227
дель	-10.3229
▁создава	-10.3231
▁используется	-10.3232
▁стимул	-10.3234
▁словно	-10.3245
▁ранни	-10.3248
лед	-10.3249
▁нижн	-10.325
▁сохранить	-10.3256
▁приходят	-10.3264
▁чу	-10.3265
▁посредств	-10.327
▁блог	-10.3273
th	-10.3289
▁страшно	-10.3289
▁списк	-10.3289
читыва	-10.33
▁заставляет	-10.3301
▁сознание	-10.3303
▁футбол	-10.3321
▁оружие	-10.3321
▁бог	-10.3322
▁химически	-10.3322
▁Идея	-10.3323
▁спектр	-10.3324
сор	-10.3326
▁знаний	-10.3328
el	-10.333
▁опер	-10.333
▁задать	-10.3333
▁Лад	-10.3334
▁ценности	-10.3336
▁получать	-10.3339
пред	-10.3341
▁обмен	-10.3342
овсе	-10.3352
▁сверх	-10.3364
▁жар	-10.3365
▁компьютера	-10.3367
▁письмо	-10.3373
▁медленно	-10.3373
▁Фр	-10.3373
▁китайск	-10.3373
▁экологически	-10.3374
▁точка	-10.3375
▁театр	-10.3376
Ф	-10.3378
▁бороться	-10.3379
▁опыта	-10.3381
▁полагаю	-10.3383
▁рыба	-10.3385
▁чита	-10.3394
▁общего	-10.3395
▁наблюдаем	-10.3397
▁социальн	-10.3407
▁революции	-10.341
реш	-10.341
▁забав	-10.3414
спор	-10.3414
▁решила	-10.3416
▁голоса	-10.3418
▁обнаружен	-10.3425
▁коралл	-10.3425
▁вещам	-10.3427
▁робота	-10.3431
▁пап	-10.3438
▁помогл	-10.344
▁понимания	-10.344
▁вызывает	-10.3444
▁безопасн	-10.3448
▁достижени	-10.3453
дневн	-10.3459
▁производство	-10.3462
▁представляют	-10.3468
▁требуется	-10.347
▁следи	-10.3471
▁вперед	-10.3474
фицирован	-10.3476
▁лежит	-10.3478
▁удоб	-10.3478
▁господ	-10.3478
▁связыва	-10.3478
▁сыгра	-10.348
▁Кита	-10.3483
▁огранич	-10.3484
остью	-10.3484
▁научить	-10.3488
▁ума	-10.3498
▁территории	-10.3498
▁преврати	-10.3501
▁сложные	-10.3502
▁ужасны	-10.3505
▁открытие	-10.3508
▁мен	-10.3509
▁отправил	-10.3516
▁видят	-10.3521
▁исполни	-10.353
▁размышля	-10.353
▁познакоми	-10.353
▁американско	-10.3531
▁смотрел	-10.3533
▁представления	-10.3534
У	-10.3541
сек	-10.3543
▁Гу	-10.3544
▁действие	-10.3546
▁контролиру	-10.3549
▁развивающих	-10.3551
▁воде	-10.3554
▁поднять	-10.3558
▁чувств	-10.3571
am	-10.3573
▁соглас	-10.3579
худ	-10.3583
▁заболеваний	-10.3583
▁событий	-10.3583
▁фокус	-10.3583
▁счастье	-10.3583
жима	-10.3583
▁попасть	-10.3583
▁прошло	-10.3584
▁давление	-10.3584
▁среднем	-10.3586
▁запуска	-10.3587
▁подар	-10.3588
▁150	-10.359
лучается	-10.3592
ключить	-10.3596
▁проверя	-10.3599
▁Ирак	-10.3607
порт	-10.3613
▁увеличива	-10.3628
▁собрали	-10.3632
▁обед	-10.3633
▁фотографию	-10.3637
▁хозяйств	-10.3641
▁раск	-10.3641
▁куп	-10.3643
▁изменило	-10.3644
▁оказался	-10.3654
▁новость	-10.3655
▁достижения	-10.3661
▁ценность	-10.3667
▁смерть	-10.3676
▁мета	-10.3678
▁молодо	-10.3682
▁процвета	-10.369
▁градус	-10.369
▁разрушен	-10.369
▁начиная	-10.3691
▁находимся	-10.3691
▁рабочих	-10.3691
▁мощны	-10.3693
▁важнее	-10.3694
крыл	-10.3695
▁гром	-10.3696
▁возник	-10.3699
▁хоч	-10.3703
▁мощно	-10.3707
▁различия	-10.371
▁обеспечива	-10.3729
▁экране	-10.373
скоп	-10.3731
▁имели	-10.3733
▁теория	-10.3743
▁информационн	-10.3743
▁деятельности	-10.3743
▁удовольствие	-10.3743
▁восемь	-10.3743
▁сообща	-10.3743
▁вновь	-10.3745
▁настоящ	-10.3748
▁поднял	-10.375
▁похож	-10.375
▁анти	-10.3754
▁плод	-10.3756
вшей	-10.3757
▁биологии	-10.3758
ленд	-10.3769
государств	-10.3769
▁плане	-10.3773
▁рынка	-10.3777
▁друзьями	-10.3781
▁чудес	-10.3783
▁упомина	-10.3786
▁женщинам	-10.3788
▁больны	-10.3791
вшая	-10.3794
▁чувствует	-10.3797
▁СПИД	-10.3797
▁солдат	-10.3797
лево	-10.3798
▁рамках	-10.3805
идеть	-10.381
▁горы	-10.3811
▁началось	-10.3816
▁читал	-10.3816
▁Перед	-10.382
▁название	-10.382
▁завод	-10.3827
▁занять	-10.3836
▁Зач	-10.3846
▁Facebook	-10.3852
▁тенденци	-10.3852
▁стресс	-10.3852
▁Германи	-10.3852
▁Мир	-10.3853
▁растёт	-10.3856
▁гос	-10.3861
▁Обычно	-10.3862
вис	-10.3863
▁солнечно	-10.3863
N	-10.3866
▁Ок	-10.3868
▁местно	-10.3868
▁белк	-10.3872
▁встрети	-10.3878
▁отвеча	-10.3884
ur	-10.3887
▁воздуха	-10.3889
одно	-10.3896
▁ё	-10.3899
▁поддерживать	-10.39
▁помог	-10.3903
▁науке	-10.3904
▁бюджет	-10.3906
▁указыва	-10.3907
▁взаимодействия	-10.3907
▁враща	-10.3908
▁подходит	-10.3908
▁реальном	-10.3909
▁Факт	-10.3909
▁существа	-10.3912
▁отдельно	-10.3915
іць	-10.3925
▁климат	-10.3926
▁парти	-10.3927
чайш	-10.3928
▁заказ	-10.3945
▁учат	-10.3948
▁отправить	-10.3949
▁защитить	-10.3949
▁физическо	-10.3951
▁самостоятельно	-10.396
▁триллион	-10.3961
▁рецепт	-10.3961
▁дерево	-10.3961
▁американцев	-10.3963
▁Ман	-10.3967
▁услови	-10.3969
▁контроля	-10.3969
▁зарабатыва	-10.397
▁счет	-10.3976
▁хватает	-10.3977
▁сторона	-10.398
▁сверху	-10.3981
▁команды	-10.3981
▁территори	-10.3994
телем	-10.3995
▁пределам	-10.3998
▁мимо	-10.4012
▁катастроф	-10.4017
▁разобраться	-10.4017
▁череп	-10.4017
▁туалет	-10.4017
▁разработан	-10.4017
▁успешны	-10.4017
▁спутник	-10.4022
▁понятие	-10.4024
▁работник	-10.4032
▁противо	-10.4032
▁научили	-10.4034
▁масштаба	-10.4042
▁восприятие	-10.4042
фил	-10.4043
▁превраща	-10.405
▁пле	-10.4053
▁гон	-10.4053
▁передать	-10.4053
▁здравоохранени	-10.4057
▁Штат	-10.406
30	-10.4062
▁планет	-10.4066
▁Вашингтон	-10.4072
▁внезапно	-10.4072
▁инфекци	-10.4072
легка	-10.4072
▁технически	-10.4073
▁арми	-10.4076
▁ман	-10.4082
▁верх	-10.4083
▁вещества	-10.4094
▁Калифорнии	-10.4097
▁вышл	-10.4099
▁данно	-10.41
▁опас	-10.4107
▁Кол	-10.4109
▁Значит	-10.4117
рд	-10.4117
▁нежел	-10.4122
▁учёных	-10.4128
▁неравенств	-10.4128
▁ткани	-10.4128
▁крови	-10.4135
▁гал	-10.4136
▁мировы	-10.4138
▁прошлое	-10.4141
▁измери	-10.4141
фон	-10.4143
▁служ	-10.4145
▁начну	-10.415
▁бесед	-10.415
▁чист	-10.4153
бес	-10.4154
▁единственн	-10.4155
▁группу	-10.4156
▁элементы	-10.416
▁одному	-10.4168
▁распозна	-10.4173
▁шимпанзе	-10.4184
▁Сколько	-10.4184
▁соедини	-10.4184
▁вещах	-10.4184
▁поставил	-10.4187
▁сложнее	-10.4189
▁сцене	-10.419
дова	-10.419
▁бумаги	-10.4193
▁Билл	-10.4193
▁проще	-10.4202
▁зачем	-10.4207
▁финансовы	-10.4208
мар	-10.4215
льмі	-10.4215
▁предположи	-10.4216
▁проводить	-10.4217
▁работающи	-10.4219
▁брак	-10.4225
▁тепло	-10.4227
браться	-10.4229
▁Ру	-10.4233
▁отношении	-10.4234
▁международны	-10.4235
▁выходит	-10.4239
▁общения	-10.4239
▁Вообще	-10.4241
▁добавить	-10.4241
▁Ответ	-10.4241
▁низки	-10.4241
▁трех	-10.4241
▁мышления	-10.4243
▁увеличить	-10.4244
▁склад	-10.4253
▁неделе	-10.4254
▁продолжал	-10.4255
▁Калі	-10.4255
▁провал	-10.4261
▁университета	-10.4263
nd	-10.4266
▁налог	-10.4269
▁утро	-10.427
рган	-10.4272
больш	-10.4279
▁безопасность	-10.4283
▁заключа	-10.4289
▁чёрны	-10.4292
▁минуту	-10.4294
▁крив	-10.4295
▁свин	-10.4297
▁сотруднича	-10.4298
▁хлеб	-10.4298
▁лёгки	-10.4298
▁лодк	-10.4298
▁предложение	-10.4303
▁пластик	-10.4307
▁нрави	-10.4331
▁преимуществ	-10.4333
▁построили	-10.4341
держать	-10.4342
▁Воз	-10.4346
▁персонаж	-10.4355
▁память	-10.4355
▁деятельность	-10.4355
▁зелен	-10.4361
▁заинтересован	-10.4365
лучится	-10.4368
▁гены	-10.4374
▁едино	-10.4377
части	-10.4381
▁Стр	-10.4381
▁сыр	-10.4384
▁акул	-10.4385
▁получит	-10.4388
▁историй	-10.4392
тика	-10.4394
чник	-10.4397
▁держа	-10.4401
▁бизнеса	-10.4403
▁вашим	-10.4404
▁активно	-10.4411
▁информацией	-10.4412
▁расстройств	-10.4412
▁памяти	-10.4412
▁приходилось	-10.4413
▁обработк	-10.4415
▁запах	-10.4415
▁Канад	-10.4419
▁ледник	-10.442
▁бесплатно	-10.4432
ством	-10.4432
▁компанию	-10.4437
чувств	-10.4437
▁сидя	-10.4456
▁ВВП	-10.447
▁девочек	-10.447
▁комплекс	-10.447
▁присоедини	-10.447
▁отрица	-10.447
▁ислам	-10.447
▁спроектирова	-10.4471
▁опрос	-10.4472
▁Зна	-10.448
мимо	-10.4486
▁опасно	-10.4498
▁материалов	-10.4508
▁окружающ	-10.4512
▁жителе	-10.4513
▁называемы	-10.4513
▁студенты	-10.4514
▁посыла	-10.4515
ремя	-10.4515
чение	-10.4522
▁перемеща	-10.4528
▁добавля	-10.4529
▁нефть	-10.4531
▁насилие	-10.4538
▁признать	-10.4539
▁выража	-10.4539
▁35	-10.454
▁продукты	-10.454
▁Мон	-10.4546
▁биологи	-10.4551
ступает	-10.4561
ёв	-10.4563
астую	-10.4564
▁изменили	-10.4566
бач	-10.4575
ck	-10.4582
▁принадлеж	-10.4582
▁удач	-10.4585
▁Кан	-10.4586
▁Австрали	-10.4587
▁задумыва	-10.4587
▁развивать	-10.4595
▁моря	-10.4597
▁прийти	-10.4606
▁любил	-10.4608
▁возможным	-10.461
▁детски	-10.4612
технологи	-10.4615
▁понят	-10.4617
▁проектов	-10.4617
ння	-10.4627
▁доступно	-10.4627
▁юг	-10.4636
▁множеств	-10.4637
▁зелёны	-10.4645
▁автобус	-10.4645
▁сделает	-10.4646
▁услышать	-10.4646
▁фигур	-10.4646
▁хлоп	-10.4646
▁ведёт	-10.4646
▁телескоп	-10.4646
▁международно	-10.4647
▁причинам	-10.4648
прежнем	-10.4654
жит	-10.4659
отен	-10.4659
нни	-10.4661
▁штата	-10.4664
▁стрел	-10.467
▁труб	-10.4673
▁частно	-10.4685
▁гражданско	-10.4685
▁долг	-10.4685
▁половина	-10.4688
▁сложност	-10.4689
▁распространен	-10.4692
▁заинтересова	-10.4694
▁окружени	-10.4702
▁завис	-10.4703
▁коротки	-10.4703
▁семи	-10.4703
▁останавлива	-10.4705
▁содержит	-10.4705
▁грипп	-10.4705
▁рацион	-10.4705
▁инвалид	-10.4705
▁свидетел	-10.4705
английски	-10.4705
▁отвечаю	-10.4708
▁южн	-10.4712
▁миф	-10.4715
▁Два	-10.4718
▁понятно	-10.4721
чел	-10.4722
▁камен	-10.4723
шедш	-10.4729
▁различи	-10.4742
▁идет	-10.4743
▁борьбе	-10.4749
▁любит	-10.4752
▁записыва	-10.4754
▁бумаг	-10.4756
▁Университет	-10.4764
▁феномен	-10.4764
▁благотворительн	-10.4764
▁позволь	-10.4764
▁баланс	-10.4764
▁предположени	-10.4764
▁здоровы	-10.4766
▁поехал	-10.4766
▁шоу	-10.4767
▁местност	-10.4769
телями	-10.4769
▁роли	-10.4772
▁маленьким	-10.4774
▁парня	-10.4775
▁простым	-10.4776
▁сообщение	-10.4787
▁участи	-10.4794
▁правил	-10.4804
▁ранне	-10.4813
▁речи	-10.4815
▁опасны	-10.4819
▁диск	-10.4819
▁годов	-10.4823
Анджелес	-10.4824
▁Соединённы	-10.4824
▁постепенно	-10.4824
▁сумасшедш	-10.4824
▁прозрачн	-10.4824
▁двер	-10.4826
▁измеря	-10.4826
▁провед	-10.4827
▁передвига	-10.4828
▁груди	-10.483
▁слух	-10.4831
▁поверну	-10.4835
▁существовал	-10.484
▁получал	-10.4842
▁слон	-10.4846
▁существова	-10.4847
▁Мил	-10.4855
▁изучал	-10.4862
▁глазами	-10.4872
▁отдал	-10.4877
чит	-10.4878
▁коррупци	-10.4884
▁учреждени	-10.4884
▁Джордж	-10.4884
et	-10.4886
▁зач	-10.4888
▁полны	-10.4888
▁заболе	-10.4888
▁культура	-10.4892
▁учителе	-10.4892
▁кусочк	-10.4895
▁отличается	-10.4895
▁линия	-10.4902
▁взросл	-10.491
▁электрически	-10.4911
селе	-10.4912
▁играл	-10.4914
▁полос	-10.4915
▁пищи	-10.4916
▁пласт	-10.4921
▁дорого	-10.493
▁кожи	-10.4935
▁террорист	-10.4938
нутри	-10.4938
ируя	-10.4939
▁ценност	-10.4943
▁вычислени	-10.4945
▁стабильн	-10.4945
▁гибк	-10.4945
▁отчёт	-10.4945
▁лекци	-10.4949
▁зараз	-10.4949
▁переговор	-10.4958
▁закончить	-10.4962
▁правы	-10.4964
▁игрок	-10.4968
▁результатов	-10.4974
▁явлени	-10.4979
▁оставля	-10.498
▁O	-10.4986
водят	-10.4991
строить	-10.4998
айн	-10.4999
сыла	-10.4999
казано	-10.5004
▁картина	-10.5005
▁коммуникаци	-10.5006
▁неожиданно	-10.5006
▁гряз	-10.5006
▁единиц	-10.5009
▁смотрю	-10.5009
▁десятилетия	-10.501
▁обнаружить	-10.5013
▁продолжительно	-10.5015
▁стволовы	-10.5018
▁здоров	-10.5023
▁массово	-10.5029
▁справить	-10.5032
▁мастер	-10.5034
▁малы	-10.5035
▁определен	-10.504
▁психологи	-10.505
▁третий	-10.5061
▁ближайши	-10.5067
▁удастся	-10.5067
▁фабрик	-10.5067
▁аутизм	-10.5067
▁установлен	-10.5067
▁поместить	-10.5068
▁запрет	-10.5069
▁личны	-10.507
▁Гор	-10.5071
▁75	-10.5076
▁тонк	-10.5077
▁смотрят	-10.508
▁просмотр	-10.508
▁исследовани	-10.5088
ёшь	-10.5094
фар	-10.5095
▁станци	-10.5096
▁призыв	-10.5102
▁продвину	-10.5112
▁препод	-10.5114
▁районе	-10.5115
▁сидит	-10.5118
десят	-10.5121
▁появил	-10.5124
пп	-10.5124
▁смотрели	-10.5127
▁бесконечно	-10.5129
▁исключение	-10.5129
▁симптом	-10.5129
▁прекрати	-10.5129
▁воспользова	-10.5129
▁помещени	-10.5129
инди	-10.513
▁устройств	-10.5134
▁полезно	-10.5137
▁искал	-10.514
▁относит	-10.5143
▁Поз	-10.5148
▁спец	-10.5153
▁материала	-10.5155
▁измерения	-10.5167
▁корм	-10.5169
▁честь	-10.517
скоре	-10.5175
дэ	-10.5175
▁горд	-10.5185
▁экстр	-10.5186
▁Ричард	-10.5191
▁библиотек	-10.5191
▁обсуждени	-10.5191
▁полицейск	-10.5191
▁Индия	-10.5191
▁рожда	-10.5192
▁спрашиваю	-10.5194
▁зеркал	-10.5195
▁класса	-10.5195
▁представлял	-10.5196
центр	-10.5199
▁Земл	-10.5199
▁лов	-10.52
▁напомина	-10.5202
фф	-10.5209
▁контрол	-10.5211
▁гул	-10.5217
▁другому	-10.5226
▁Наде	-10.5227
легче	-10.523
▁Африка	-10.5231
▁Хоч	-10.5234
▁оценива	-10.5239
▁ракет	-10.5243
▁родил	-10.5244
полне	-10.5248
▁конструкци	-10.5254
▁костюм	-10.5254
▁округ	-10.5254
▁проводим	-10.5256
▁самим	-10.5256
▁45	-10.5257
▁клиник	-10.5258
▁центральн	-10.526
▁признак	-10.5264
▁объекты	-10.5268
▁внутренне	-10.5273
▁предложи	-10.5275
▁выделя	-10.5286
ne	-10.5298
▁болезней	-10.5301
▁природа	-10.5302
▁огн	-10.5303
▁побед	-10.5304
ровать	-10.531
▁надея	-10.5311
▁ходил	-10.5313
▁чуж	-10.5317
▁микроскоп	-10.5317
▁достойн	-10.5318
▁судьб	-10.5318
▁малыш	-10.5321
▁оставил	-10.5325
▁вчера	-10.5326
▁ребёнком	-10.5335
стоит	-10.5342
▁раскры	-10.5344
▁взаимодейству	-10.5345
▁намерен	-10.5348
▁смертност	-10.5349
▁идеал	-10.535
йдём	-10.5354
li	-10.5364
начал	-10.5366
▁района	-10.537
▁деревьев	-10.538
▁отслежива	-10.538
▁реагиру	-10.538
▁сенсор	-10.538
▁фирм	-10.5381
▁десять	-10.5381
▁числе	-10.5382
▁достигл	-10.5384
▁пошли	-10.5386
▁финансово	-10.5387
▁пожар	-10.5388
▁определяет	-10.5389
▁двор	-10.5389
▁подпис	-10.5394
▁производить	-10.5398
▁чип	-10.5398
бирает	-10.5404
▁рассказывал	-10.5404
▁Иран	-10.5409
▁установить	-10.541
▁морско	-10.5415
▁сложн	-10.5415
▁Африк	-10.5439
веду	-10.5443
us	-10.5443
▁сообщи	-10.5443
▁Наконец	-10.5443
▁батаре	-10.5444
▁выполни	-10.5444
▁метафор	-10.5445
▁идеально	-10.5445
▁пишу	-10.5447
енность	-10.5451
▁кресл	-10.5451
бель	-10.5455
▁проявля	-10.5455
▁ПМ	-10.5457
▁плеч	-10.5459
изация	-10.546
▁внутренни	-10.5469
ключения	-10.5471
▁травм	-10.5477
▁отобра	-10.5478
▁важн	-10.548
▁взаимосвяз	-10.5488
▁Гре	-10.55
▁труда	-10.5506
▁убийств	-10.5508
▁иск	-10.5509
▁Бога	-10.551
▁езд	-10.5518
▁Бар	-10.552
▁мышц	-10.5529
▁проверить	-10.5532
▁слушать	-10.5532
режде	-10.5537
спа	-10.5538
▁сообщения	-10.5538
▁страха	-10.5541
▁справедливост	-10.5543
▁разнообразие	-10.5543
▁значения	-10.5544
▁продела	-10.5548
▁пригласил	-10.5549
▁экономика	-10.5555
▁образова	-10.5556
▁Человек	-10.5572
▁пчёл	-10.5572
▁Нигери	-10.5572
▁20-	-10.5573
▁исключительно	-10.5574
▁кровь	-10.5578
▁Друго	-10.5581
▁выставк	-10.5586
▁Хорош	-10.559
▁Боже	-10.5594
▁людз	-10.5597
▁Другим	-10.5605
▁системой	-10.5612
▁камер	-10.5636
▁предотврати	-10.5637
▁топлива	-10.5637
▁снижа	-10.5639
▁старо	-10.5641
▁чест	-10.5641
▁вход	-10.5653
▁едва	-10.5655
▁привел	-10.5657
веда	-10.5658
▁потребност	-10.5659
▁22	-10.5659
▁операции	-10.566
▁весел	-10.5667
▁снят	-10.5677
щение	-10.568
▁воск	-10.5681
▁политика	-10.5689
▁существующи	-10.569
▁ощущения	-10.569
▁преми	-10.5698
▁Конгресс	-10.5702
▁противоречи	-10.5702
▁диалог	-10.5702
▁улучша	-10.5702
▁одинаково	-10.5702
▁ўсё	-10.5702
▁автомат	-10.5705
▁протез	-10.5705
▁берёт	-10.5706
▁дверь	-10.5714
▁вызвал	-10.572
▁пресс	-10.5723
▁0	-10.5737
▁ядерно	-10.5743
▁комнату	-10.575
▁соответствую	-10.5768
▁Мужчин	-10.5768
▁минимум	-10.5768
▁потратил	-10.5768
▁публичн	-10.5768
▁скучн	-10.5769
▁вспомина	-10.5774
▁собрал	-10.5778
▁долги	-10.578
▁людзей	-10.5783
▁отвечает	-10.5791
▁Гар	-10.5799
▁принима	-10.5804
▁подверга	-10.5808
▁прожи	-10.5811
▁принял	-10.5813
▁прошли	-10.5816
▁удиви	-10.582
▁Много	-10.582
▁дочь	-10.5821
▁сини	-10.5826
ючы	-10.5832
▁глубоки	-10.5834
▁импульс	-10.5834
▁уязвим	-10.5834
▁потеплени	-10.5834
▁разруша	-10.5834
▁спр	-10.5835
▁уважени	-10.5836
▁племен	-10.5836
циальн	-10.5853
▁бывает	-10.5853
▁цифровы	-10.5855
пят	-10.5855
▁разбира	-10.5856
▁сознания	-10.5873
стоять	-10.5882
▁назвали	-10.5896
арт	-10.5898
▁предприяти	-10.5901
z	-10.5901
▁Эйнштейн	-10.5901
▁Израил	-10.5901
▁одинаковы	-10.5901
▁снижени	-10.5903
▁Азии	-10.5903
▁фотографий	-10.5904
▁карман	-10.5905
▁выживани	-10.5918
▁Штата	-10.5918
▁тёмн	-10.5923
▁суб	-10.5942
▁жир	-10.5944
▁поставить	-10.5944
▁бок	-10.5951
20	-10.5952
▁солнце	-10.5955
▁слома	-10.5957
Франциск	-10.5968
▁зарплат	-10.5968
▁распространи	-10.5968
▁повезло	-10.5968
▁критик	-10.5968
▁жестоко	-10.5969
участвовать	-10.5969
▁сегодняшне	-10.5969
▁питания	-10.5976
▁использован	-10.5983
бин	-10.5991
▁деталь	-10.5995
▁разрыв	-10.5996
▁сообществ	-10.6
▁рабоче	-10.6003
явить	-10.6012
▁песня	-10.6017
▁мно	-10.6024
активны	-10.6027
▁объясня	-10.6033
▁проектом	-10.6033
▁экономи	-10.6034
▁квартир	-10.6036
▁степень	-10.6036
▁кнопк	-10.6036
▁разб	-10.6036
▁производител	-10.604
льш	-10.604
ad	-10.6041
▁остановил	-10.6041
▁осуществи	-10.6041
▁улица	-10.6043
▁безумн	-10.6043
▁отража	-10.6043
▁приступ	-10.6048
▁ничто	-10.6054
▁рабоч	-10.6064
▁смен	-10.6069
▁произошл	-10.6072
ходили	-10.6092
нні	-10.6094
нном	-10.6099
▁основыва	-10.6102
▁горизонт	-10.6104
▁Очевидно	-10.6104
▁повседневн	-10.6104
▁сценари	-10.6104
▁расширя	-10.6104
▁участву	-10.6104
▁датчик	-10.6104
▁рисунк	-10.6104
▁мышлени	-10.6104
▁изучить	-10.6105
▁Правд	-10.6108
▁масса	-10.6111
клеточн	-10.6111
▁ждать	-10.6114
▁родителям	-10.6117
▁приняли	-10.6122
▁средство	-10.6128
▁электронны	-10.6128
▁Лун	-10.6133
хватил	-10.6133
▁превратить	-10.6136
бан	-10.6139
▁изображен	-10.6159
▁Пре	-10.616
▁Твиттер	-10.6172
▁дополнительны	-10.6172
▁корпораци	-10.6172
▁расширени	-10.6172
▁симметри	-10.6172
▁скульптур	-10.6172
▁событие	-10.6172
▁коллекци	-10.6172
▁инструментов	-10.6172
▁морски	-10.6173
ing	-10.6174
▁авари	-10.6174
▁поездк	-10.6177
▁национальны	-10.6179
▁промышленност	-10.6181
▁аналог	-10.6184
▁Дэн	-10.6189
▁коров	-10.6191
▁J	-10.62
▁течени	-10.62
▁уход	-10.62
▁виртуальн	-10.6203
▁производит	-10.6209
▁Европ	-10.6212
▁забыл	-10.6212
гри	-10.6213
▁вскоре	-10.622
▁вечером	-10.622
▁Сер	-10.6221
▁сетк	-10.6223
▁творчеств	-10.6226
▁лучшим	-10.6234
нцев	-10.624
▁демонстриру	-10.6241
Y	-10.6241
▁располага	-10.6241
▁уникальны	-10.6242
▁столети	-10.6243
▁реакция	-10.6243
▁мирового	-10.6245
▁революци	-10.6249
тремя	-10.6251
▁поколени	-10.6251
▁позна	-10.6251
бежал	-10.6252
▁друж	-10.6255
▁Отлично	-10.6257
▁непосредственно	-10.6258
▁природу	-10.6262
держал	-10.6268
▁сотрудник	-10.6268
▁пришло	-10.6272
▁Дети	-10.6273
▁K	-10.6276
связ	-10.6279
ставим	-10.628
▁торговл	-10.6285
▁луч	-10.6286
▁молекулы	-10.6289
долго	-10.629
даём	-10.6298
▁приходил	-10.6306
▁аплодисменты	-10.6311
▁ежедневно	-10.6311
▁исследу	-10.6311
▁литератур	-10.6311
▁оружия	-10.6311
▁прототип	-10.6311
▁письма	-10.6311
▁почувствовал	-10.6311
▁помеща	-10.6311
▁надежды	-10.6311
▁упаков	-10.6311
▁площад	-10.6311
▁животным	-10.6312
▁подготовк	-10.6312
▁Восток	-10.6312
▁работой	-10.6312
▁доклад	-10.6327
водить	-10.6327
ард	-10.6329
изирован	-10.6331
▁ведут	-10.6332
▁принимают	-10.6337
▁меж	-10.6342
▁безопасно	-10.6345
▁лед	-10.6349
растут	-10.6356
▁прош	-10.6359
▁знаменит	-10.6367
▁скач	-10.6372
▁убежден	-10.6377
▁Андерсон	-10.6381
▁Единственн	-10.6381
▁поразительно	-10.6381
▁потребова	-10.6381
▁посеща	-10.6381
▁Самы	-10.6381
▁Всемирн	-10.6381
▁портрет	-10.6381
▁распространения	-10.6382
▁враг	-10.6383
▁любую	-10.6383
▁хорошим	-10.6387
▁Эд	-10.639
▁камеры	-10.6396
▁верил	-10.6399
▁сексуально	-10.64
▁сентября	-10.6401
▁мяч	-10.6403
▁марк	-10.6404
▁колен	-10.6408
▁лидеров	-10.6416
мель	-10.6418
близи	-10.6429
▁атмосферу	-10.6432
▁праз	-10.6434
▁займ	-10.6438
▁компьютеров	-10.6441
Э	-10.6443
▁2010	-10.6451
▁антибиотик	-10.6451
▁родственник	-10.6451
▁установил	-10.6451
▁быстры	-10.6451
▁стремлени	-10.6452
▁выполнен	-10.6452
▁слышать	-10.6453
▁Причин	-10.6456
остр	-10.6458
▁поступил	-10.6458
▁Вас	-10.6462
▁будущи	-10.6463
носим	-10.6466
▁подел	-10.6468
▁погод	-10.6468
▁государство	-10.647
толог	-10.6476
▁эмоциональн	-10.6481
▁перемены	-10.649
▁управление	-10.6494
▁учит	-10.6497
▁американц	-10.6501
▁бур	-10.6502
виз	-10.6503
▁оказаться	-10.6504
▁служит	-10.6506
▁образовани	-10.6508
▁песн	-10.6509
▁Марк	-10.6512
▁пойма	-10.6512
▁запад	-10.6519
▁препятстви	-10.6522
▁Дэвид	-10.6522
▁значимо	-10.6522
▁пенси	-10.6522
▁хакер	-10.6523
▁гриб	-10.6524
▁избавиться	-10.6527
▁трав	-10.6531
▁Ниче	-10.6532
▁искусственно	-10.6535
▁комар	-10.6538
▁порт	-10.6538
▁постоянн	-10.6541
▁интересует	-10.6543
▁верит	-10.6545
▁общ	-10.6551
▁Фор	-10.6554
▁спрос	-10.6556
▁противостоя	-10.6557
▁маленькую	-10.6558
▁главным	-10.6561
стическ	-10.6562
▁новост	-10.6566
▁столкновени	-10.6593
▁захватывающ	-10.6593
▁счастья	-10.6593
▁характеристик	-10.6593
▁государственно	-10.6594
бросить	-10.6594
▁распа	-10.6601
▁детско	-10.6606
гружен	-10.6607
▁создаё	-10.6608
▁свойства	-10.6608
▁описан	-10.662
▁показывал	-10.6622
▁самолет	-10.6623
▁сложна	-10.6624
▁синтез	-10.6625
▁учеб	-10.6627
выше	-10.6637
▁орбит	-10.6638
▁вечно	-10.6638
▁производств	-10.6645
▁экономист	-10.6649
вист	-10.6656
▁финансировани	-10.6663
▁продемонстрир	-10.6665
▁Англии	-10.6665
▁загрязнен	-10.6665
▁универсальн	-10.6665
▁дельфин	-10.6665
▁установк	-10.6665
▁телевидени	-10.6665
▁цитат	-10.6665
▁внешни	-10.6665
▁патент	-10.6666
▁прибыль	-10.6666
шестви	-10.6666
нёс	-10.6666
▁выжив	-10.6669
▁рамк	-10.6669
▁терроризм	-10.667
▁плав	-10.667
▁2008	-10.667
▁направления	-10.667
▁коллектив	-10.6673
▁выражен	-10.6682
▁словар	-10.6682
коль	-10.6684
▁руководи	-10.6689
▁сосуд	-10.6692
подобн	-10.6699
▁приносит	-10.67
селенная	-10.6712
▁движет	-10.6712
▁картины	-10.6713
▁бедност	-10.6713
▁открывает	-10.6715
▁23	-10.6718
следствие	-10.6719
▁позволяю	-10.672
▁звуков	-10.6723
звать	-10.6726
йших	-10.6731
згляните	-10.6733
▁интерфейс	-10.6738
▁нынешн	-10.6738
▁гадоў	-10.6738
▁кажу	-10.6742
▁стекл	-10.6746
▁покупк	-10.6746
кормить	-10.6748
▁хранит	-10.675
▁арабск	-10.675
▁лун	-10.675
▁жизненно	-10.6756
▁напоминает	-10.676
▁планету	-10.6761
▁перестал	-10.6766
▁благ	-10.6776
▁привыкл	-10.6777
▁ката	-10.6782
▁соединен	-10.6808
▁наблюдени	-10.681
▁волшебн	-10.6811
▁порядка	-10.6811
▁медвед	-10.6811
▁наблюдения	-10.6811
▁сахар	-10.6813
▁нарисова	-10.6814
подростк	-10.6814
▁команду	-10.6814
▁давал	-10.6816
▁найден	-10.6817
▁замечательн	-10.6833
▁беженце	-10.6845
▁медицины	-10.6864
▁стены	-10.6865
▁позвонил	-10.6867
▁удивлени	-10.6882
▁космическо	-10.6884
▁космически	-10.6884
▁Разве	-10.6887
▁вырасти	-10.689
▁отрыв	-10.6899
▁человеческ	-10.69
▁явление	-10.6908
▁захотел	-10.6913
▁отличи	-10.6918
▁прожива	-10.6928
▁коротко	-10.6931
▁звезды	-10.6933
▁конкретны	-10.6936
▁квадрат	-10.6958
▁диагноз	-10.6958
▁преуспе	-10.6958
▁астроном	-10.6958
▁Интересно	-10.6958
▁внешне	-10.6958
▁найдёт	-10.6958
▁зрение	-10.6959
▁специальны	-10.6959
▁традиционно	-10.6959
▁длинны	-10.696
▁учитель	-10.696
▁слабо	-10.696
▁точне	-10.6962
▁99	-10.6963
валі	-10.6977
▁ребенка	-10.698
▁спросит	-10.7
▁красив	-10.7006
▁лучш	-10.702
▁спорт	-10.7029
▁автомобиля	-10.7033
▁достоинств	-10.7033
▁популяци	-10.7033
▁привлечь	-10.7033
▁трагеди	-10.7033
▁умирают	-10.7033
▁показатели	-10.7033
▁изначально	-10.7033
▁жанчын	-10.7033
▁реформ	-10.7033
▁Последни	-10.7034
▁мелки	-10.7035
▁приятно	-10.7036
▁авиа	-10.7038
▁принесл	-10.7046
вязать	-10.7051
▁порядо	-10.7055
▁огромным	-10.7058
▁древни	-10.7059
▁Кени	-10.7063
▁долин	-10.7067
аві	-10.7071
▁зим	-10.7093
▁уверенность	-10.71
мышленн	-10.7105
▁ландшафт	-10.7108
▁нравятся	-10.7108
▁презентаци	-10.7108
энергетическ	-10.7108
▁начнём	-10.7108
▁ритм	-10.7108
▁государственны	-10.7109
▁исследовательск	-10.7109
▁боли	-10.712
▁отсюда	-10.7123
▁восстановить	-10.7125
▁настроен	-10.7131
▁электричеств	-10.7137
▁194	-10.7137
жат	-10.7142
▁похожа	-10.7145
▁насекомых	-10.7151
▁рассказываю	-10.7153
ed	-10.7154
▁электричество	-10.7155
▁начальн	-10.7161
туда	-10.7177
▁действи	-10.7177
▁площадк	-10.7178
▁назван	-10.7178
▁возникл	-10.7181
▁восстановлен	-10.7183
▁астероид	-10.7184
▁подразумева	-10.7184
▁угрожа	-10.7184
▁плюс	-10.7184
▁Среди	-10.7185
▁развиты	-10.7187
▁выпуска	-10.719
▁определение	-10.7192
▁зданий	-10.7196
▁революция	-10.7197
▁воспоминания	-10.7203
жённ	-10.7204
▁некотором	-10.7206
изован	-10.7207
▁метра	-10.7213
▁растущ	-10.7218
▁держать	-10.7221
▁брал	-10.7232
▁частны	-10.724
▁демо	-10.7256
▁равны	-10.7257
▁недостатк	-10.726
▁дискусси	-10.726
▁религиозны	-10.726
▁бренд	-10.726
▁ключевы	-10.7262
▁ником	-10.7263
▁королев	-10.7264
▁поэт	-10.7266
▁стоят	-10.7266
Е	-10.7267
▁пача	-10.7268
▁196	-10.727
▁медиа	-10.7274
▁принимает	-10.7276
▁играю	-10.7277
▁красно	-10.728
звуч	-10.7284
▁всяки	-10.7288
▁помогаю	-10.7293
▁справедлив	-10.7295
▁Помнит	-10.7298
▁Калифорни	-10.7303
вращени	-10.7305
▁нормальны	-10.7315
▁последовательно	-10.7317
▁задание	-10.7318
влекательн	-10.7322
▁электронно	-10.7324
▁получен	-10.7325
▁захват	-10.7333
▁происхождени	-10.7337
▁Работа	-10.7337
▁гравитаци	-10.7337
▁подозрева	-10.7337
▁объединить	-10.7337
▁чётко	-10.7337
▁талант	-10.7337
▁чувствуют	-10.7337
▁спуска	-10.7342
▁общени	-10.7352
▁пыл	-10.7357
▁Мал	-10.736
▁парне	-10.736
▁посвящ	-10.7361
▁высше	-10.7372
▁обладает	-10.7372
▁песню	-10.7376
шку	-10.7382
▁разным	-10.7396
▁работников	-10.7396
▁отказыва	-10.7403
▁подходящ	-10.7407
▁сравн	-10.7411
▁Джеймс	-10.7415
▁сосредоточи	-10.7415
▁фрагмент	-10.7415
▁The	-10.7415
▁впечатля	-10.7415
мигрант	-10.7415
▁показатель	-10.7416
▁организован	-10.7416
▁резко	-10.7416
анцы	-10.7426
▁пищев	-10.7435
▁страст	-10.7446
▁залив	-10.7448
ставляют	-10.7458
волю	-10.746
▁состояния	-10.746
▁стул	-10.7461
▁активист	-10.7464
▁радость	-10.7464
двига	-10.7466
душн	-10.7466
▁среднего	-10.7469
▁объектов	-10.7471
▁способност	-10.7473
▁прорыв	-10.7474
▁задумать	-10.7488
сутствует	-10.7493
▁автомобилей	-10.7493
▁иллюзи	-10.7493
▁ноутбук	-10.7493
▁опухоль	-10.7493
▁уменьша	-10.7493
▁повыша	-10.7493
▁дыхани	-10.7493
▁продуктивн	-10.7494
▁африкански	-10.7495
▁замуж	-10.7497
G	-10.7502
▁крошечны	-10.7524
▁саб	-10.7527
▁компани	-10.7531
▁куб	-10.7542
▁Южн	-10.7546
▁80-	-10.7546
▁Каж	-10.7547
ap	-10.7552
▁крут	-10.7554
рэч	-10.7568
▁мёртв	-10.7572
▁оптимист	-10.7572
▁рейтинг	-10.7572
▁бутылк	-10.7572
▁Томас	-10.7572
▁необходимост	-10.7572
▁производят	-10.7573
▁разреши	-10.7573
▁лесов	-10.7577
▁арест	-10.7577
▁добавил	-10.7579
▁посчита	-10.758
▁простая	-10.7582
образить	-10.7588
насці	-10.7596
▁поражен	-10.7597
▁стоил	-10.7602
▁конференц	-10.7647
▁Мексик	-10.765
▁New	-10.7651
▁аргумент	-10.7651
▁начнёт	-10.7651
▁Голос	-10.7651
▁имена	-10.7652
▁объединен	-10.7653
com	-10.7654
▁2009	-10.7656
▁ярки	-10.7658
▁разрешение	-10.7661
против	-10.7663
▁жидкост	-10.7671
▁музыкант	-10.7673
▁наград	-10.7673
▁фундаментальны	-10.768
▁присутствующи	-10.7682
ходящих	-10.7686
▁бал	-10.7687
▁включает	-10.7701
ющегося	-10.7704
ладно	-10.771
▁представляю	-10.7716
трэба	-10.7717
моем	-10.7721
▁миг	-10.7729
▁Гарвард	-10.7731
▁Звук	-10.7731
▁квартал	-10.7731
▁неплохо	-10.7731
▁сочувстви	-10.7731
▁наследи	-10.7732
▁иностранн	-10.7732
▁частично	-10.7745
▁загляну	-10.7746
▁распространение	-10.7746
▁задавал	-10.7749
справить	-10.7754
▁изобрета	-10.7754
▁даст	-10.7758
▁позад	-10.7761
ладельц	-10.7765
▁верхне	-10.7765
▁круто	-10.7766
▁слышит	-10.7782
▁придет	-10.7784
▁ожидал	-10.7786
▁предлагаю	-10.7792
▁чувствуе	-10.7802
▁Дарвин	-10.7812
▁квантов	-10.7812
▁лестниц	-10.7812
▁потребления	-10.7812
▁заболевание	-10.7812
▁прошлы	-10.7815
▁добры	-10.7816
▁чтени	-10.7821
▁гол	-10.7822
▁крыс	-10.7828
▁проверк	-10.7828
▁плоск	-10.7829
ставляет	-10.7829
▁Роб	-10.7836
▁обстоятельства	-10.7853
▁мысля	-10.7854
▁путешествия	-10.7857
▁игрушк	-10.7863
▁камера	-10.7863
олнечн	-10.7872
вшее	-10.7879
▁крупно	-10.7885
▁1000	-10.7885
▁плох	-10.7891
▁неизвестно	-10.7893
▁чернокожи	-10.7893
▁хвост	-10.7893
▁Почти	-10.7893
▁трени	-10.7894
▁пляж	-10.7894
▁рабочие	-10.7898
▁чисты	-10.7901
▁мак	-10.7901
▁Европы	-10.7905
▁либерал	-10.7906
▁метро	-10.7906
▁полюс	-10.7907
▁направление	-10.7908
▁отличн	-10.7917
сан	-10.792
бирают	-10.7933
стараюсь	-10.7944
▁двигатель	-10.7947
ведение	-10.796
▁собираются	-10.7961
▁Майкл	-10.7962
▁опубликовал	-10.7962
изаци	-10.797
▁применения	-10.7975
▁мягк	-10.7975
▁величин	-10.7975
▁утверждаю	-10.7975
▁логик	-10.7975
▁подростков	-10.7977
▁пакет	-10.7978
▁значительны	-10.7978
▁кухн	-10.7978
▁стиле	-10.7982
опустим	-10.7982
▁600	-10.7983
▁идеальны	-10.7983
▁приведу	-10.7993
▁серьёзн	-10.7995
▁занимают	-10.801
▁упал	-10.8039
▁странам	-10.804
▁отправили	-10.8048
▁промышленно	-10.8049
70	-10.8049
▁популярны	-10.8053
▁запрос	-10.8057
▁гипотез	-10.8057
▁наслажда	-10.8057
▁поощр	-10.8057
▁палец	-10.8058
▁Восточн	-10.8058
▁выразить	-10.8058
▁далёк	-10.8058
▁избирател	-10.8061
▁подробно	-10.8063
▁риф	-10.8063
▁поместил	-10.8063
▁предложения	-10.8064
▁десяти	-10.8064
▁обществ	-10.8068
▁составляют	-10.8068
▁отличаются	-10.8069
▁камеру	-10.8079
▁сельск	-10.8081
In	-10.8087
▁политическ	-10.8091
▁ужин	-10.8098
▁подобного	-10.8115
▁человечество	-10.8118
чество	-10.8118
▁встретить	-10.8119
▁нужд	-10.8125
▁превращает	-10.814
▁абстрактн	-10.8141
▁млекопитающи	-10.8141
▁потребует	-10.8141
▁окончани	-10.8141
▁восторг	-10.8141
▁равенств	-10.8141
▁млн	-10.8141
▁Важно	-10.8141
▁Привет	-10.8141
▁Оказа	-10.8142
▁лечить	-10.8143
▁биологическо	-10.8143
▁груз	-10.8145
▁проходил	-10.8147
▁адзін	-10.8148
цыі	-10.8149
лизм	-10.8156
▁создает	-10.8178
убить	-10.8182
▁экономическ	-10.8188
▁панел	-10.8191
▁позволяющи	-10.8195
▁предпоч	-10.8196
▁рискова	-10.82
лететь	-10.8208
▁жук	-10.821
▁мудрост	-10.8215
▁студентам	-10.8216
▁отпуск	-10.8217
▁рукой	-10.8219
ализирова	-10.8221
▁кандидат	-10.8225
▁осуществля	-10.8225
▁процедур	-10.8225
▁твёрд	-10.8225
▁воссозда	-10.8225
▁вернёмся	-10.8225
▁навсегда	-10.8225
▁берут	-10.8225
▁Истори	-10.8226
▁заяв	-10.8228
▁товаров	-10.823
▁пчел	-10.823
ўні	-10.8236
стар	-10.824
верим	-10.8256
▁дальн	-10.8267
▁попадает	-10.8272
прям	-10.8277
▁попытать	-10.8283
▁уменьшить	-10.8286
▁компьютерны	-10.8288
▁запись	-10.8291
▁шутк	-10.8292
ошли	-10.8292
▁шок	-10.8303
африканск	-10.8307
▁гуманитарн	-10.831
▁iPhone	-10.831
▁Ён	-10.831
Z	-10.831
▁отметить	-10.831
▁мобильно	-10.831
▁обитания	-10.831
механическ	-10.831
▁грузовик	-10.831
▁останет	-10.831
▁Росси	-10.831
▁повыси	-10.831
▁лёгко	-10.831
▁закрыва	-10.831
▁состоял	-10.8311
▁исторически	-10.8312
▁географи	-10.8312
▁льда	-10.8321
▁Суд	-10.8328
▁задавать	-10.8328
▁старши	-10.8329
▁путе	-10.8331
▁рассматривать	-10.8334
▁толп	-10.834
▁учили	-10.8342
фин	-10.8347
▁чудо	-10.8357
▁живет	-10.8359
▁выключ	-10.8361
следняя	-10.8366
▁договор	-10.8368
новому	-10.8378
▁называть	-10.8379
▁осознава	-10.8386
ступают	-10.8389
▁Технологи	-10.8395
▁соответстви	-10.8395
▁утверждени	-10.8395
▁Возьмё	-10.8395
▁Пакистан	-10.8395
▁областях	-10.8395
▁ткань	-10.8395
▁дедушк	-10.8395
▁склонны	-10.8398
▁сцену	-10.8398
аньше	-10.84
▁трёхмерн	-10.8404
▁страсть	-10.8406
▁золот	-10.8406
▁темп	-10.8416
▁пройд	-10.8418
З	-10.8419
▁восприятия	-10.8424
▁технологиями	-10.843
▁спрашивал	-10.8431
▁стыд	-10.8432
строения	-10.8434
ткуда	-10.8436
▁сделанны	-10.8437
▁Кра	-10.844
▁близ	-10.8445
▁мух	-10.8449
▁активность	-10.8455
▁очевидны	-10.8458
▁основал	-10.8459
▁занимал	-10.8466
▁задал	-10.8472
европейск	-10.8481
▁Понимает	-10.8481
▁вдохновени	-10.8481
▁динамик	-10.8481
▁юмор	-10.8483
▁повышени	-10.8483
кладывать	-10.8484
▁адрес	-10.8486
▁хаос	-10.8487
▁английском	-10.8488
▁мэр	-10.8488
▁созданны	-10.8492
▁желания	-10.8494
▁выяснил	-10.85
▁меньш	-10.8505
F	-10.8507
▁ждал	-10.8512
▁окажет	-10.8515
▁Ma	-10.8515
национальн	-10.8525
▁умн	-10.8543
▁парол	-10.8551
▁участников	-10.8553
▁смело	-10.8556
▁спутников	-10.8559
▁заставля	-10.8563
id	-10.8563
▁Бен	-10.8564
ставлять	-10.8566
▁психо	-10.8568
▁Северн	-10.8568
▁внимательно	-10.8568
▁необычно	-10.8568
▁соглашени	-10.8568
▁углекисло	-10.8568
▁топливо	-10.8568
▁вдвое	-10.8568
▁аэропорт	-10.8568
▁студи	-10.8569
▁нищет	-10.8571
▁уходит	-10.8574
▁площадь	-10.8575
▁максимально	-10.8577
▁сравнива	-10.8578
▁чьи	-10.8583
▁ошибок	-10.8583
▁плач	-10.8589
▁существенно	-10.8602
▁городски	-10.861
▁проводят	-10.8614
▁планировани	-10.8614
▁достигнут	-10.8616
▁Стар	-10.8622
▁распространён	-10.8656
▁задействова	-10.8656
▁диаграмм	-10.8656
▁генетическо	-10.8656
▁произойт	-10.8656
▁жёлт	-10.8656
▁Доктор	-10.8656
▁домашни	-10.8656
▁восьми	-10.8659
▁27	-10.866
▁городско	-10.866
▁ламп	-10.866
▁2007	-10.8663
▁Примерн	-10.8663
▁продвига	-10.8668
тобой	-10.8671
счёт	-10.8681
▁изменила	-10.8685
▁целое	-10.8689
▁подверг	-10.8692
▁разнообрази	-10.8696
▁капитализм	-10.8698
▁никого	-10.8713
▁Стив	-10.8726
▁полученны	-10.8727
▁польз	-10.873
▁снег	-10.8735
▁спасени	-10.8741
$	-10.8744
▁YouTube	-10.8744
▁НАСА	-10.8744
▁пожертвова	-10.8744
▁рентген	-10.8744
▁путешеству	-10.8744
▁клинически	-10.8744
▁дерева	-10.8744
▁Спуст	-10.8745
▁описал	-10.8745
▁произведения	-10.8747
▁сезон	-10.8748
▁Речь	-10.8749
▁ребят	-10.8751
▁изобретение	-10.8756
работало	-10.8757
▁праздн	-10.8758
▁основно	-10.8772
▁выступлени	-10.8772
▁совместн	-10.8774
▁смертельн	-10.8791
▁проводит	-10.8796
джер	-10.8797
▁Какие	-10.8803
▁знание	-10.8805
▁всеобщ	-10.8813
рэс	-10.8813
▁Обам	-10.8817
▁Национальн	-10.882
▁Соединенны	-10.8834
▁участвовал	-10.8834
▁фантастическ	-10.8834
▁впечатление	-10.8834
▁Атлант	-10.8834
▁минимальн	-10.8834
▁расчёт	-10.8834
▁пишет	-10.8835
▁уважа	-10.8842
▁пожилы	-10.8842
▁занятия	-10.8842
▁окна	-10.8844
▁Созда	-10.8846
▁цепочк	-10.8846
▁боро	-10.8855
▁устойчивы	-10.8859
▁послуша	-10.8864
▁сотрудников	-10.8889
▁стоимост	-10.8891
▁задачей	-10.8899
▁ролик	-10.891
▁потряс	-10.8916
▁ежегодно	-10.8924
▁освещени	-10.8924
▁невидимы	-10.8924
▁положительны	-10.8924
▁реагирова	-10.8924
▁молодёж	-10.8924
▁положил	-10.8924
▁отклонени	-10.8925
▁Мартин	-10.8928
▁нарко	-10.893
▁следовать	-10.893
▁природны	-10.8935
писания	-10.894
▁прекрасна	-10.8941
▁ожидания	-10.8943
ойдёт	-10.8944
▁означа	-10.8955
▁преимущество	-10.8958
▁измерени	-10.8962
▁снизи	-10.8967
▁снизить	-10.8972
▁бесплатн	-10.8984
▁искусственны	-10.8985
зависимость	-10.8987
▁каково	-10.8988
▁слав	-10.9002
сайт	-10.9007
▁груд	-10.9013
▁присутстви	-10.9015
▁требовани	-10.9015
▁беспроводн	-10.9015
▁величайши	-10.9015
▁взаимоотношени	-10.9015
▁вспышк	-10.9015
▁комментари	-10.9015
▁высказыва	-10.9015
яшчэ	-10.9015
▁фильтр	-10.9015
▁Одним	-10.9015
▁радикально	-10.9015
▁предназначен	-10.9016
▁отражает	-10.9017
▁ведущи	-10.9017
▁убеждения	-10.9019
▁известна	-10.902
▁технологически	-10.9023
▁интенсивно	-10.9023
▁производительно	-10.9029
▁Париж	-10.903
▁встроен	-10.9044
▁муч	-10.9049
▁мега	-10.9056
рр	-10.9063
▁грани	-10.9064
▁250	-10.9078
▁слой	-10.9085
▁содержат	-10.9089
▁определенно	-10.9104
▁вмешательств	-10.9106
▁GPS	-10.9106
▁Солнце	-10.9106
▁взаимодействова	-10.9106
▁демонстраци	-10.9106
▁килограмм	-10.9106
▁времён	-10.9106
▁участок	-10.9106
▁необычны	-10.9107
▁статус	-10.9107
▁Говоря	-10.9107
▁сюжет	-10.9107
▁составляющи	-10.9107
▁Около	-10.9107
▁реали	-10.9108
▁Совет	-10.9115
▁красн	-10.9115
▁общее	-10.9117
▁танцева	-10.9118
▁будзе	-10.9119
▁родилась	-10.9119
▁творчество	-10.9127
▁англ	-10.9127
▁начне	-10.9133
▁разработать	-10.9133
▁молча	-10.9133
▁определенны	-10.9136
▁Смотрит	-10.9143
нтерес	-10.9143
▁гостин	-10.9147
▁Недавн	-10.9161
▁Оп	-10.9164
ve	-10.9182
одиночк	-10.9192
▁больно	-10.9199
▁устанавлива	-10.9199
▁Действительно	-10.9199
▁Женщины	-10.9199
▁обслужива	-10.9199
▁художественн	-10.9199
▁вертикальн	-10.9199
звлечь	-10.9199
▁шмат	-10.9199
▁январ	-10.9199
▁вызван	-10.92
▁безусловно	-10.92
▁лазер	-10.9203
ent	-10.9206
▁дне	-10.9215
▁мудр	-10.9215
▁холодно	-10.9215
▁последстви	-10.9223
▁биолог	-10.9227
▁явно	-10.923
▁удивительн	-10.923
▁шкал	-10.9231
центов	-10.9232
▁девять	-10.9234
▁троп	-10.9246
▁пусто	-10.926
любить	-10.9271
▁создавал	-10.9275
▁изобретен	-10.9283
▁помогал	-10.9286
▁внук	-10.929
▁Франции	-10.9292
▁карикатур	-10.9292
▁смартфон	-10.9292
▁четвёрт	-10.9292
▁диабет	-10.9292
▁непрерывн	-10.9292
▁Господ	-10.9292
▁младш	-10.9293
▁сочетани	-10.9293
▁моделей	-10.9293
▁подтвержда	-10.9293
▁снизу	-10.9293
▁яблок	-10.9293
▁клуб	-10.9296
вшую	-10.9307
▁Хар	-10.9316
лежащ	-10.9316
▁ответственны	-10.9318
▁индивидуально	-10.9321
▁осознани	-10.9332
берг	-10.9332
▁продолжают	-10.9342
▁балл	-10.9356
▁обход	-10.9375
▁особенны	-10.9382
▁персонал	-10.9383
▁Центр	-10.9384
▁частот	-10.9385
▁Жизнь	-10.9387
▁съёмк	-10.9387
▁Чикаго	-10.9387
▁Ближн	-10.9387
▁непросто	-10.9387
▁Опять	-10.9387
ss	-10.9387
▁терпе	-10.9388
▁автоматически	-10.939
▁решает	-10.9393
▁превратил	-10.9394
▁Весь	-10.9399
▁уделя	-10.9402
▁Адам	-10.9403
▁ограничения	-10.9404
▁темнот	-10.9405
спект	-10.9406
▁солнц	-10.9406
▁Стивен	-10.9417
▁военно	-10.9422
▁вовлечен	-10.9423
▁здани	-10.943
▁тяжел	-10.9435
▁схож	-10.9436
▁коллегами	-10.9439
▁американ	-10.9443
▁подошл	-10.9455
▁необходимость	-10.9465
▁объясняет	-10.9475
▁учить	-10.9479
▁пожалуй	-10.9479
▁понадоби	-10.9479
восстанавлива	-10.9482
▁1990	-10.9482
▁приведёт	-10.9482
▁тщательно	-10.9482
▁Бостон	-10.9483
▁плакат	-10.9483
▁понадобится	-10.9485
▁спокойно	-10.9485
▁днём	-10.9491
▁сража	-10.9492
няў	-10.9496
▁страдания	-10.95
▁лево	-10.9508
▁пользователей	-10.951
▁достигает	-10.9513
ранее	-10.9523
▁рул	-10.9524
▁заключённы	-10.953
▁отражен	-10.9533
▁скор	-10.9535
▁земно	-10.9536
▁личность	-10.9538
sh	-10.9538
▁адно	-10.9539
▁изобретател	-10.9543
▁точек	-10.9544
давая	-10.9548
de	-10.9551
▁эффективность	-10.9559
▁находя	-10.9565
▁незнакомц	-10.9566
▁Давай	-10.9571
▁заявил	-10.9574
▁видение	-10.9575
▁вычислительн	-10.9578
▁христиан	-10.9578
▁пингвин	-10.9578
▁повсеместн	-10.9578
▁заповед	-10.9578
▁поздно	-10.9578
▁управляет	-10.9578
▁Руанд	-10.9578
▁65	-10.9579
▁последующи	-10.9579
▁книж	-10.958
▁съед	-10.9584
▁избега	-10.9584
правительственн	-10.959
ошел	-10.9591
▁круж	-10.9601
▁донор	-10.9608
▁Пус	-10.9608
▁кроват	-10.961
верят	-10.9621
▁километр	-10.9633
▁обычн	-10.9633
▁эмоционально	-10.9634
▁напряму	-10.9637
▁выступ	-10.964
▁бедность	-10.9648
крытие	-10.9665
▁мульти	-10.9675
▁Женщина	-10.9675
▁учёным	-10.9675
▁скелет	-10.9676
▁тишин	-10.9676
▁учёт	-10.9676
▁переехал	-10.9676
тревож	-10.9676
▁снял	-10.9676
▁моральны	-10.9677
▁проигра	-10.9677
▁Будь	-10.9678
▁дешевле	-10.9678
▁изображений	-10.9678
▁актёр	-10.9679
▁потребление	-10.968
▁тесно	-10.9683
▁старени	-10.9684
▁ярко	-10.9685
▁велика	-10.969
▁палат	-10.9691
лёг	-10.9695
▁изучил	-10.9705
▁бросил	-10.9706
▁окно	-10.9717
▁Средн	-10.9719
▁принимаем	-10.972
сексуальн	-10.9723
очень	-10.9724
▁трудности	-10.9725
▁изучаю	-10.9734
▁потребность	-10.9741
ge	-10.9755
▁жизненны	-10.9762
▁коллективно	-10.9763
▁парни	-10.9768
▁образовательн	-10.977
▁Существую	-10.9773
▁взгляне	-10.9773
▁инициатив	-10.9773
▁упражнени	-10.9773
▁немноги	-10.9773
▁іншы	-10.9773
▁ощути	-10.9773
▁трюк	-10.9773
▁идеологи	-10.9774
▁двое	-10.9774
▁пыльц	-10.9774
▁вечеринк	-10.9774
▁гипер	-10.9774
▁ответственности	-10.9774
▁ритуал	-10.9776
▁поддержа	-10.9777
▁привет	-10.9777
▁побочны	-10.9778
▁двойн	-10.9782
▁свободны	-10.9784
следовани	-10.9793
▁Ново	-10.9801
▁следующ	-10.9819
▁выросла	-10.9821
K	-10.9823
▁шарик	-10.9835
▁ребенк	-10.9843
▁искр	-10.9855
▁Апплодисменты	-10.9872
▁глобализаци	-10.9872
▁долгосрочно	-10.9872
▁покупать	-10.9872
▁музей	-10.9872
▁водоросл	-10.9873
▁скромн	-10.9875
▁добыч	-10.9878
▁БД	-10.988
▁ўсе	-10.9881
▁выражение	-10.9884
▁агентств	-10.9886
▁компьютерно	-10.9892
▁лечени	-10.9904
▁опубликован	-10.9906
▁32	-10.992
▁ушл	-10.9923
▁раскрыва	-10.9928
▁сине	-10.9935
▁Мед	-10.9952
▁выиграл	-10.9958
▁восхища	-10.9972
▁опухоли	-10.9972
▁приблизительно	-10.9972
▁применение	-10.9972
▁стихотворени	-10.9972
▁предоставлен	-10.9972
▁приезжа	-10.9972
▁реактор	-10.9972
▁комфорт	-10.9973
▁случиться	-10.9973
▁Мэри	-10.9973
▁прибыли	-10.9973
▁учился	-10.9973
▁ребено	-10.9974
▁возможностям	-10.9974
▁отвечал	-10.9974
▁творческо	-10.9976
▁упомянул	-10.9978
▁2005	-10.998
▁груб	-10.9982
▁увеличивается	-10.9991
слушайте	-10.9992
▁элит	-11.0001
плен	-11.0034
▁Гер	-11.0037
▁поход	-11.0038
▁проведен	-11.0038
▁обрабатыва	-11.0045
разном	-11.0066
▁Международн	-11.0073
▁кусочек	-11.0073
▁организовать	-11.0073
▁профессиональны	-11.0073
▁поглоща	-11.0073
▁Исследовани	-11.0073
▁Чарльз	-11.0074
▁постройк	-11.0074
▁связей	-11.0074
▁струн	-11.0074
▁разрешения	-11.0074
▁определения	-11.0076
▁нагре	-11.0076
▁концерт	-11.0082
▁мертв	-11.0082
▁Никогда	-11.0082
▁смешно	-11.0085
▁массив	-11.0086
▁напечата	-11.0086
▁влияния	-11.009
▁сравнить	-11.0091
▁предприниматель	-11.0094
▁мотиваци	-11.0098
▁руководство	-11.0115
▁ребёнк	-11.0119
▁ядерны	-11.0124
▁ищет	-11.0129
▁мотор	-11.0132
▁принимал	-11.0144
▁формул	-11.0151
стрем	-11.0155
▁хозяйство	-11.0167
▁нарушен	-11.0172
▁поврежден	-11.0172
▁Apple	-11.0175
▁блестящ	-11.0175
▁полиомиелит	-11.0175
▁репутаци	-11.0175
▁сосредоточен	-11.0175
▁удовлетворен	-11.0175
▁энергетик	-11.0175
▁Огромн	-11.0175
▁интуици	-11.0175
▁идентичн	-11.0175
▁посетил	-11.0175
▁обращени	-11.0176
▁микрофон	-11.0177
▁рассчитыва	-11.0177
▁жажд	-11.0179
▁Наверно	-11.018
шер	-11.0181
▁школьны	-11.0183
▁Эрик	-11.0185
тянуть	-11.0196
▁пережил	-11.0205
▁сложность	-11.0212
▁облегч	-11.0213
▁японск	-11.0215
▁чалавек	-11.0228
▁интересовал	-11.0231
▁согласны	-11.0234
▁современн	-11.0246
op	-11.0253
работает	-11.0255
▁лент	-11.0259
▁предложен	-11.0266
▁формировани	-11.0269
▁Верно	-11.0269
▁распределен	-11.027
á	-11.0278
▁Прямо	-11.0278
▁приспособлен	-11.0278
▁соотношени	-11.0278
▁экспедици	-11.0278
▁оркестр	-11.0279
▁невролог	-11.0279
▁посреди	-11.0279
▁великолепны	-11.0279
▁загадк	-11.0279
▁Проект	-11.0279
▁кафе	-11.0279
▁сервис	-11.028
▁гидро	-11.028
▁пригород	-11.0284
поляр	-11.0292
▁удивля	-11.0292
▁важнейш	-11.0296
▁обладаю	-11.0311
▁уголк	-11.0313
▁случайны	-11.0341
▁девят	-11.0344
▁подключи	-11.0348
▁Мин	-11.035
▁скал	-11.035
жалуйста	-11.0353
▁находящи	-11.0359
▁интересна	-11.0363
переди	-11.0368
▁золото	-11.0369
▁этаж	-11.0371
▁предпринима	-11.0377
▁Солнца	-11.0383
▁автомобили	-11.0383
▁возьмём	-11.0383
▁инструкци	-11.0383
▁примитивн	-11.0383
▁соответствует	-11.0383
▁трущоб	-11.0383
▁юридическ	-11.0383
▁удержива	-11.0383
▁подвержен	-11.0383
▁сердечны	-11.0383
▁воздушны	-11.0383
▁домашне	-11.0383
▁пилот	-11.0384
▁устроен	-11.0386
▁повлиял	-11.0387
▁принадлежит	-11.0394
▁объектив	-11.0394
▁крич	-11.0396
▁тёмно	-11.0398
▁корол	-11.0403
нувши	-11.0403
▁Закон	-11.0411
▁разумно	-11.0411
▁чёрно	-11.0413
▁взаимосвязан	-11.0415
ig	-11.0421
▁летать	-11.0427
▁привык	-11.0435
дзіць	-11.0442
хранения	-11.0455
▁хвата	-11.0458
▁требуют	-11.0464
ождения	-11.0471
40	-11.0471
▁отзыв	-11.0472
▁беспилотн	-11.0488
▁возобновляем	-11.0488
▁придержива	-11.0488
▁шрифт	-11.0488
▁адаптирова	-11.0488
▁африканц	-11.0488
▁2011	-11.0488
▁гнезд	-11.0488
▁денежн	-11.0488
озьмите	-11.0488
▁вдохновил	-11.0488
▁флаг	-11.0489
▁опира	-11.049
пряжен	-11.0491
▁Центральн	-11.0491
▁богатства	-11.0492
▁башн	-11.0492
▁принятия	-11.0492
▁сцены	-11.0493
▁школьно	-11.0497
▁акци	-11.0501
кладывают	-11.0518
▁Суть	-11.0521
▁исключи	-11.0524
▁гарант	-11.0527
▁изобрел	-11.0546
▁снимал	-11.0546
▁стоп	-11.0548
▁глобальн	-11.0549
▁страшн	-11.0556
▁совершил	-11.056
▁воспоминани	-11.0568
▁жидк	-11.0568
▁Джим	-11.0573
▁французск	-11.0584
▁когнитивн	-11.0594
▁трансформаци	-11.0594
▁землетрясени	-11.0594
▁колоссальн	-11.0594
▁микроорганизм	-11.0594
▁организовал	-11.0594
▁стереотип	-11.0594
▁траектори	-11.0594
▁доказыва	-11.0594
▁берём	-11.0595
▁уменьшени	-11.0595
▁холм	-11.0596
▁возвращени	-11.0597
▁немало	-11.0599
прыклад	-11.0599
▁гормон	-11.06
▁проектировани	-11.0614
вучит	-11.0619
▁Могу	-11.0623
бар	-11.0628
▁музыкальны	-11.0628
следовательность	-11.0633
▁Западно	-11.0641
▁сериал	-11.0649
▁реальн	-11.0651
▁Стран	-11.0657
▁крупн	-11.0671
▁решит	-11.0674
▁шелк	-11.0683
озд	-11.0687
▁любител	-11.0688
▁воспроизв	-11.0701
▁Альцгеймер	-11.0702
▁Египт	-11.0702
▁вулкан	-11.0702
▁размышлени	-11.0702
▁состоящ	-11.0702
▁сканирова	-11.0703
▁Сахар	-11.0703
▁объединил	-11.0704
▁пересека	-11.0704
▁працу	-11.0704
▁редки	-11.0704
▁параметр	-11.0705
▁порожда	-11.0707
▁прекрасн	-11.0707
▁поразил	-11.0711
▁Мисс	-11.0712
НБ	-11.0723
▁колес	-11.0739
▁требу	-11.0742
▁Майк	-11.075
рочно	-11.0767
▁диагност	-11.0772
ствовать	-11.0777
▁просил	-11.0789
▁активност	-11.0791
▁чёрн	-11.0792
слыша	-11.0803
▁крест	-11.0809
▁благосостояни	-11.0811
▁несчастн	-11.0811
▁сантиметр	-11.0811
▁преподавател	-11.0811
▁таблиц	-11.0811
▁захочет	-11.0811
▁похорон	-11.0811
▁придумыва	-11.0811
▁требовал	-11.0811
▁широки	-11.0811
▁ожирени	-11.0811
▁музее	-11.0811
▁двадцат	-11.0811
▁мутаци	-11.0811
▁рыночн	-11.0811
▁заполни	-11.0811
піса	-11.0811
▁потенциально	-11.0813
▁изобретения	-11.0815
▁слышим	-11.0815
▁просьб	-11.0816
хватить	-11.0822
▁кожу	-11.0835
▁сохранен	-11.0845
▁скот	-11.0853
▁встречал	-11.0862
ледовательно	-11.0873
▁падени	-11.0893
▁поднимает	-11.091
▁популярно	-11.0919
▁Институт	-11.092
▁зразуме	-11.092
▁независимы	-11.092
▁предыдущи	-11.092
▁преступност	-11.092
▁эквивалент	-11.092
▁концентраци	-11.092
▁пейзаж	-11.092
▁младен	-11.092
▁шоколад	-11.092
статистически	-11.092
▁удаётся	-11.0921
▁рекорд	-11.0921
▁Библи	-11.0921
▁объем	-11.0921
▁поэзи	-11.0921
▁квадратны	-11.0921
▁ссылк	-11.0921
▁вселенн	-11.0921
▁Фонд	-11.0922
▁дочери	-11.0922
подобие	-11.0923
▁представлять	-11.0924
убийц	-11.0926
▁заявля	-11.0929
▁сябе	-11.0933
▁означало	-11.0934
▁Город	-11.0934
▁программировани	-11.0941
▁перевоз	-11.0942
▁выигра	-11.0942
▁День	-11.0947
излучени	-11.0964
▁обратн	-11.0967
▁выделен	-11.0969
просту	-11.097
▁перешл	-11.0971
un	-11.0972
▁головно	-11.0984
▁руководств	-11.0986
▁крошечн	-11.0987
▁двигател	-11.1005
▁пассажир	-11.1032
▁неизбежно	-11.1032
▁разнообразны	-11.1032
▁ущерб	-11.1032
▁хромосом	-11.1032
▁Похоже	-11.1032
▁учёб	-11.1032
▁значимы	-11.1032
▁Швеци	-11.1032
▁маршрут	-11.1032
▁держит	-11.1032
▁сваі	-11.1033
▁пойдёт	-11.1034
▁раствор	-11.1035
здор	-11.1035
▁дяд	-11.1038
▁способствуе	-11.104
▁глядя	-11.104
▁кибер	-11.1041
▁теряет	-11.1042
▁формируют	-11.1042
▁Сири	-11.1045
▁сохрани	-11.106
▁научн	-11.1061
▁изготовлен	-11.1065
▁беременн	-11.1071
▁создател	-11.1094
действуют	-11.11
ладить	-11.1105
кратно	-11.1127
▁жыцц	-11.113
▁комбинаци	-11.1144
▁приоритет	-11.1144
▁всевозможны	-11.1144
▁преступник	-11.1144
▁просматрива	-11.1144
▁хищник	-11.1144
▁извлека	-11.1144
,000	-11.1144
▁резерв	-11.1144
▁комикс	-11.1144
▁сомнева	-11.1144
▁обширн	-11.1144
▁Можем	-11.1145
▁гнев	-11.115
▁питательны	-11.1152
▁наблюдает	-11.1171
▁построил	-11.1172
▁95	-11.1185
▁виртуально	-11.1207
▁обозначен	-11.1226
▁обманыва	-11.1244
▁противоположно	-11.1257
▁иллюстраци	-11.1258
▁мероприяти	-11.1258
▁оптимизм	-11.1258
▁психически	-11.1258
▁сбережени	-11.1258
▁умирает	-11.1258
▁парниковы	-11.1258
▁положении	-11.1259
▁запустили	-11.126
▁тропически	-11.1261
▁Музе	-11.1263
▁28	-11.1273
страивает	-11.1273
▁обменива	-11.1276
авац	-11.1279
▁лоб	-11.1289
▁оказывают	-11.1289
▁поверхност	-11.1293
тянул	-11.1322
▁дисциплин	-11.1372
▁конкуренци	-11.1372
▁несомненно	-11.1372
▁объявил	-11.1372
▁парадокс	-11.1372
▁соревновани	-11.1372
▁сфокусирова	-11.1372
▁2012	-11.1372
▁изобража	-11.1372
▁поразительны	-11.1372
▁посвяти	-11.1372
▁превыша	-11.1372
▁сфотографирова	-11.1372
▁перемещени	-11.1373
▁лёд	-11.1373
▁проследи	-11.1373
▁противоположн	-11.1373
▁функциональн	-11.1373
▁уникально	-11.1373
▁неважно	-11.1373
▁промышленны	-11.1373
▁тратят	-11.1373
▁Будуч	-11.1374
▁климатически	-11.1378
▁пальцев	-11.1378
▁ткане	-11.1379
▁валют	-11.138
▁120	-11.1383
▁жыццё	-11.1387
▁натуральн	-11.1389
▁Национально	-11.1391
▁дипломат	-11.1391
▁иммунн	-11.1394
▁Обще	-11.1412
▁сухо	-11.1419
▁составил	-11.1419
▁Мес	-11.1438
культур	-11.1454
Ш	-11.1457
▁пятн	-11.1467
▁упомяну	-11.1482
▁республик	-11.1489
▁корабль	-11.1489
▁обсудить	-11.1489
▁тысячелети	-11.1489
▁пирамид	-11.1489
▁архив	-11.1489
▁продвижени	-11.1489
▁вдохновляю	-11.1489
Американск	-11.149
▁1960	-11.149
▁голосовани	-11.1491
▁опуска	-11.1495
▁покупател	-11.1496
▁желани	-11.1496
▁причё	-11.1498
▁заражен	-11.1518
▁чудесны	-11.1521
▁уменьши	-11.1521
▁диагностик	-11.1531
▁вырабатыва	-11.1541
▁заботить	-11.1548
▁можн	-11.1566
▁глин	-11.1567
▁Хан	-11.1588
пользуются	-11.159
▁спусти	-11.1596
▁лидерств	-11.1598
▁адвокат	-11.1606
▁бейсбол	-11.1606
▁самоубийств	-11.1606
▁Колумби	-11.1606
▁действует	-11.1606
▁затрагива	-11.1606
▁любопытств	-11.1606
▁определил	-11.1606
▁геометри	-11.1606
▁исполня	-11.1606
▁ступен	-11.1607
▁гольф	-11.1607
▁вымирани	-11.1607
▁предпочитаю	-11.1607
▁ждёт	-11.1607
▁догада	-11.1607
▁Роберт	-11.1607
▁рассмотри	-11.1608
▁родно	-11.1608
▁восстановления	-11.1608
▁Ch	-11.1613
▁неверно	-11.1617
вязал	-11.1619
▁оригинальн	-11.1619
▁добыва	-11.1629
▁700	-11.1647
▁Банк	-11.1655
▁устал	-11.1658
▁чис	-11.167
оход	-11.1677
▁ручк	-11.1683
правляю	-11.1691
▁западно	-11.1718
▁невероятн	-11.172
ive	-11.1722
Q	-11.1725
▁Результат	-11.1725
▁Эфиопи	-11.1725
▁благополучи	-11.1725
▁конкурс	-11.1725
▁обязательств	-11.1725
▁продолжени	-11.1725
▁Техас	-11.1726
▁инстинкт	-11.1726
▁ненавист	-11.1726
▁решают	-11.1726
▁огонь	-11.1727
▁засух	-11.1729
делайте	-11.1732
▁казн	-11.1732
▁2004	-11.1733
▁Пять	-11.1735
▁незнаком	-11.1741
▁овощ	-11.1742
▁операционн	-11.1748
▁начинаю	-11.1748
▁электроник	-11.1777
▁куск	-11.1785
сюда	-11.1799
▁управлени	-11.1816
H	-11.1819
▁Две	-11.1824
▁воспитани	-11.1826
▁уличн	-11.1827
влечение	-11.1827
Джер	-11.1832
▁переключ	-11.1845
▁инвестор	-11.1846
▁мгновенно	-11.1846
▁нейробиолог	-11.1846
▁посередине	-11.1846
▁психиатр	-11.1846
▁учёный	-11.1846
▁гламур	-11.1846
▁полушари	-11.1846
▁гармони	-11.1846
▁Британи	-11.1846
▁исчезновени	-11.1846
▁послуж	-11.1846
▁танцу	-11.1847
▁видеоигр	-11.1848
▁составлял	-11.1849
▁законодател	-11.1849
▁полноценн	-11.1852
▁подавлен	-11.1852
▁аренд	-11.1853
▁демократически	-11.1853
▁аэро	-11.1855
▁ідэ	-11.1856
▁2006	-11.1856
▁произведение	-11.1856
▁яйца	-11.1857
▁трети	-11.1859
▁плит	-11.1864
▁сообщени	-11.1865
▁занимаем	-11.1865
▁встал	-11.1887
▁состоят	-11.1895
▁записал	-11.1899
произвести	-11.1907
▁трубк	-11.1917
▁записан	-11.1927
▁800	-11.193
▁поддержани	-11.1933
потреблени	-11.1943
мощн	-11.1944
▁программист	-11.1944
▁York	-11.1968
▁маркетинг	-11.1968
▁Необходимо	-11.1968
▁дешёвы	-11.1968
▁нелегко	-11.1968
▁сопровожда	-11.1968
▁шаблон	-11.1968
▁Таймс	-11.1968
▁обстановк	-11.1968
▁бумажн	-11.1968
▁северно	-11.1968
▁кабинет	-11.1968
тягивает	-11.1968
▁нехватк	-11.1968
▁паразит	-11.1968
▁функционирова	-11.1969
▁шут	-11.1969
▁отцом	-11.197
▁предпочтени	-11.197
▁наруша	-11.1971
▁родитель	-11.1972
▁лыж	-11.1973
▁стиль	-11.1974
▁популяр	-11.1976
▁распределение	-11.1978
▁слушал	-11.1982
▁Wi	-11.1985
▁прояви	-11.1986
▁патрэб	-11.1989
▁психолог	-11.1999
▁совершенств	-11.2001
▁учим	-11.2002
▁распр	-11.2008
слать	-11.2024
БР	-11.2035
▁сознани	-11.2065
▁хит	-11.2068
емлёй	-11.2071
▁исследователе	-11.208
▁Компьютер	-11.2091
▁Особенно	-11.2091
▁Правительств	-11.2091
▁Стэнфорд	-11.2091
▁синдром	-11.2091
▁фрукт	-11.2091
▁фунтов	-11.2091
▁великолепно	-11.2091
▁преобразовани	-11.2091
▁зелёно	-11.2091
▁семьёй	-11.2092
▁адчува	-11.2092
▁покинул	-11.2092
▁тарелк	-11.2092
▁выпускник	-11.2093
▁заявление	-11.2093
▁выйдет	-11.2094
▁Будет	-11.2096
▁Питер	-11.2097
▁техническо	-11.2107
▁навуч	-11.2114
тверж	-11.2115
ложите	-11.2123
▁развивает	-11.2126
▁запомина	-11.2127
▁медицинск	-11.2128
▁обратил	-11.2129
звините	-11.2132
▁лежат	-11.2134
▁радиаци	-11.2142
дадим	-11.2146
▁взаимо	-11.2147
скольз	-11.2156
▁разочарован	-11.2186
Ж	-11.2194
остаточно	-11.2215
▁приход	-11.2216
антроп	-11.2216
▁MIT	-11.2216
▁визуализаци	-11.2216
▁дефицит	-11.2216
▁муравьи	-11.2216
▁неожиданны	-11.2216
▁редактор	-11.2216
▁Вероятно	-11.2216
▁муравьёв	-11.2216
▁проанализирова	-11.2216
▁механик	-11.2216
▁неудоб	-11.2216
▁ускоря	-11.2216
▁писатель	-11.2216
▁перечисл	-11.2216
▁дождь	-11.2217
▁лепш	-11.2219
▁1980	-11.2219
▁исследователи	-11.222
▁CO	-11.2221
▁Союз	-11.2223
▁названия	-11.2223
▁Эбол	-11.2227
▁генерал	-11.2232
казаў	-11.2234
▁Использу	-11.2235
▁выреза	-11.2235
▁наполнен	-11.2262
▁предсказыва	-11.2266
▁образуют	-11.2269
▁жилищ	-11.2269
▁умерл	-11.2277
▁берет	-11.2284
▁подсказ	-11.2285
▁геолог	-11.2297
▁случил	-11.2324
бивают	-11.2328
▁поведени	-11.2339
▁Википеди	-11.2343
▁Лучше	-11.2343
▁некоммерческ	-11.2343
▁повторить	-11.2343
▁разновидност	-11.2343
▁сердечно	-11.2343
▁холодильник	-11.2343
▁приглаша	-11.2343
▁худши	-11.2343
▁пересмотре	-11.2344
▁Джули	-11.2345
▁находитесь	-11.2347
▁психологически	-11.2348
▁забыть	-11.2348
▁повреждения	-11.2351
▁водород	-11.2353
▁поясн	-11.2355
думаешь	-11.236
▁власт	-11.2367
▁изобре	-11.2384
▁стимулирова	-11.2389
▁доск	-11.2389
▁семейны	-11.2394
▁потрясающ	-11.2397
▁беспокоит	-11.2416
▁путешестви	-11.2421
▁массовы	-11.2443
▁льв	-11.2449
▁поведенческ	-11.2471
▁магчыма	-11.2471
▁пистолет	-11.2471
▁премьер	-11.2471
▁дистанци	-11.2471
▁помощник	-11.2471
▁выстрел	-11.2471
▁юрист	-11.2471
▁заложен	-11.2471
▁поставлен	-11.2472
▁галере	-11.2472
▁жестоки	-11.2472
▁привычк	-11.2472
▁незаконн	-11.2472
▁Молод	-11.2473
▁бетон	-11.2475
▁Начнё	-11.2475
ect	-11.2475
▁открытий	-11.2479
▁шахт	-11.2492
▁взорва	-11.2497
▁деньгам	-11.2499
▁пластиковы	-11.2518
читать	-11.2537
▁разумеет	-11.2539
▁электрическ	-11.2543
▁учебник	-11.2543
▁предпринимателе	-11.2553
эффект	-11.2584
▁разрешен	-11.2586
▁английско	-11.2591
▁Между	-11.2601
▁бензин	-11.2601
▁диапазон	-11.2601
▁предотвращени	-11.2601
▁продовольственн	-11.2601
▁регулярно	-11.2601
▁сапраўд	-11.2601
▁сформировал	-11.2601
▁управляем	-11.2601
▁чрезмерн	-11.2601
▁энтузиазм	-11.2601
▁игнорирова	-11.2601
▁исполнени	-11.2601
▁барьер	-11.2601
▁обложк	-11.2601
▁приглашен	-11.2601
▁мясо	-11.2601
▁горячи	-11.2601
▁файл	-11.2602
▁генетик	-11.2603
,3	-11.2607
▁намерения	-11.2617
истическо	-11.263
▁Жив	-11.2634
▁Титан	-11.2638
▁превращ	-11.2643
ard	-11.265
▁оставши	-11.2652
чынам	-11.2665
▁способствова	-11.2698
▁убрать	-11.27
▁Сдела	-11.271
▁войск	-11.2718
далеко	-11.2718
▁мотив	-11.2718
▁входит	-11.2723
▁объед	-11.2727
молекулярн	-11.273
▁недостато	-11.2731
льскохозяйственн	-11.2733
▁ингредиент	-11.2733
▁компромисс	-11.2733
▁очереди	-11.2733
▁пропаганд	-11.2733
▁сэкономи	-11.2733
▁терапии	-11.2733
▁услышит	-11.2733
▁рассужда	-11.2733
▁Довольно	-11.2733
▁Электр	-11.2733
▁начинать	-11.2733
▁повторно	-11.2733
▁ураган	-11.2733
▁Маленьк	-11.2733
▁зрабіц	-11.2733
гласит	-11.2733
▁звучал	-11.2734
▁сжига	-11.2734
▁мелоч	-11.2735
▁обожаю	-11.2736
▁сравним	-11.2737
▁соединения	-11.2738
▁областе	-11.2742
▁распознавани	-11.2761
▁линз	-11.2761
▁восточно	-11.2762
▁мужско	-11.2771
▁имеющих	-11.2778
▁адказ	-11.2781
ld	-11.2782
▁выбран	-11.2783
▁покида	-11.2792
едят	-11.2813
▁возмож	-11.2845
▁уровн	-11.2846
▁Оксфорд	-11.2866
▁ископаемы	-11.2866
▁контракт	-11.2866
▁обеспокоен	-11.2866
▁передвижения	-11.2866
▁поблагодари	-11.2866
▁предубеждени	-11.2866
▁производим	-11.2866
▁хрупк	-11.2866
▁колебани	-11.2866
▁вооружен	-11.2866
▁диаметр	-11.2866
▁равновеси	-11.2866
▁мяса	-11.2866
▁Разумее	-11.2866
▁реализаци	-11.2866
▁фанат	-11.2866
▁роскош	-11.2866
▁дебат	-11.2867
▁анатоми	-11.2868
▁приземли	-11.2868
▁экологическо	-11.287
▁удален	-11.2871
▁западны	-11.2873
образован	-11.2878
несут	-11.2881
▁развить	-11.2884
▁Гугл	-11.2885
▁исчезл	-11.2904
двинуть	-11.2904
▁внутренн	-11.2906
▁никуд	-11.2922
цикл	-11.2927
▁гума	-11.2937
▁зависим	-11.2949
▁готовить	-11.2952
▁беременност	-11.2953
▁публикаци	-11.2964
▁погибл	-11.2969
▁Пожалуй	-11.2977
▁алкогол	-11.3001
▁аспирант	-11.3001
▁невозможны	-11.3001
▁окончательн	-11.3001
▁октябр	-11.3001
▁освобожден	-11.3001
▁працяг	-11.3001
▁привязан	-11.3001
▁распоряжени	-11.3001
▁корабля	-11.3001
▁парламент	-11.3001
РНК	-11.3001
▁Браун	-11.3001
▁Скоре	-11.3002
регулирован	-11.3002
▁грустн	-11.3002
▁показателе	-11.3002
▁удобрени	-11.3002
▁запечатле	-11.3003
▁Солнечно	-11.3007
▁пригодн	-11.3007
▁пропуска	-11.3007
▁нарушения	-11.3008
▁подводны	-11.3011
▁сложил	-11.3011
▁чашк	-11.3016
▁столиц	-11.3031
▁сопереживани	-11.3039
звонить	-11.3043
▁Дума	-11.3093
▁приключени	-11.3116
ездить	-11.3117
▁песк	-11.3117
проект	-11.3133
▁культ	-11.3136
▁Учёные	-11.3138
▁корпоративн	-11.3138
▁объявлен	-11.3138
+	-11.3138
▁Александр	-11.3138
▁Манхэттен	-11.3138
▁волонтёр	-11.3138
▁инвестировать	-11.3138
▁пешеход	-11.3138
▁потратить	-11.3138
▁таблетк	-11.3138
▁кошмар	-11.3138
▁переосмысли	-11.3138
▁убежда	-11.3138
▁улыбк	-11.3138
▁проповед	-11.3138
▁бедстви	-11.3138
▁первоначальн	-11.3138
▁субъективн	-11.3138
▁отклик	-11.3138
▁инвестиру	-11.3139
▁надпись	-11.3139
▁громадн	-11.3139
▁наилучш	-11.3139
▁Уганд	-11.3139
▁ученых	-11.3139
▁спортивн	-11.3139
▁Франк	-11.3139
▁остановк	-11.314
▁подсчита	-11.314
▁Велико	-11.3141
▁снимать	-11.3142
▁1,5	-11.3143
▁БФ	-11.3144
▁Машин	-11.3145
▁доставк	-11.3155
▁дур	-11.3167
▁читател	-11.3173
▁примат	-11.3175
di	-11.3225
▁позвон	-11.3229
▁тестировани	-11.3238
▁физическ	-11.3255
▁очевид	-11.3266
▁агент	-11.3266
летают	-11.3267
▁детск	-11.3277
▁взволнован	-11.3277
▁соответствова	-11.3277
▁академи	-11.3277
▁геноцид	-11.3277
▁предыдуще	-11.3277
▁содержащ	-11.3277
▁супруг	-11.3277
▁соглаша	-11.3277
▁замедлен	-11.3277
▁нагрузк	-11.3277
▁Сатурн	-11.3277
▁рыболов	-11.3277
▁колонии	-11.3277
▁отмеча	-11.3277
▁отчаяни	-11.3277
▁происходящее	-11.3277
нервнича	-11.3277
▁представляем	-11.3279
▁переработк	-11.328
▁смешива	-11.328
кручива	-11.328
▁билет	-11.328
▁эволюционно	-11.3281
▁сужден	-11.3286
ЭС	-11.3289
▁толст	-11.329
▁передаёт	-11.3296
▁ограниченны	-11.3296
▁усовершенствова	-11.3297
▁Неуж	-11.3305
▁паук	-11.3308
▁несправедлив	-11.3309
восточн	-11.3314
▁покажет	-11.3317
▁увлечен	-11.3327
▁начальник	-11.3332
▁сидящи	-11.3341
▁ствол	-11.337
▁преследова	-11.3374
▁произведен	-11.3405
ходишь	-11.3411
▁Microsoft	-11.3418
▁дискриминаци	-11.3418
▁послание	-11.3418
▁предпринять	-11.3418
▁фармацевт	-11.3418
▁феминист	-11.3418
▁легенд	-11.3418
▁электростанци	-11.3418
▁мелоди	-11.3418
▁совпада	-11.3418
▁отправлять	-11.3419
▁Супер	-11.3419
▁одиночеств	-11.3419
▁семена	-11.342
▁разумны	-11.3421
▁убиты	-11.3427
▁ехал	-11.3433
▁существенн	-11.3438
▁приятны	-11.3444
ороче	-11.3445
▁решающ	-11.3452
▁развивающ	-11.3453
▁ветрян	-11.3467
▁насекомы	-11.3479
▁мужчын	-11.3497
▁жыв	-11.3504
опытны	-11.3506
▁Флорид	-11.3561
▁зарегистрирова	-11.3561
▁кирпич	-11.3561
▁кукуруз	-11.3561
▁присоединя	-11.3561
▁присутствова	-11.3561
▁утверждает	-11.3561
▁церемони	-11.3561
▁Брайан	-11.3561
▁партнер	-11.3561
▁поворачива	-11.3561
▁погружа	-11.3561
▁удвои	-11.3561
▁размеща	-11.3561
▁Основн	-11.3561
▁глух	-11.3561
▁показателя	-11.3561
▁изолирован	-11.3561
▁Вспомни	-11.3562
▁кратко	-11.3562
дышать	-11.3565
▁разверну	-11.3567
ходящие	-11.3576
▁камне	-11.3579
▁ценны	-11.3622
▁имплант	-11.3639
вшем	-11.3657
▁мастерск	-11.3676
▁кабел	-11.3688
обеспечен	-11.3703
▁Хиггс	-11.3706
▁бассейн	-11.3706
▁любопытно	-11.3706
▁накаплива	-11.3706
▁попробуем	-11.3706
▁презерватив	-11.3706
▁супермаркет	-11.3706
▁Нобелевск	-11.3706
▁Прекрасн	-11.3706
▁замедли	-11.3706
▁критери	-11.3706
▁отвлека	-11.3706
▁затрону	-11.3706
▁действующ	-11.3706
▁известен	-11.3706
▁возьму	-11.3706
▁шприц	-11.3706
▁импери	-11.3707
▁худше	-11.3707
▁разреша	-11.3708
▁визит	-11.3709
▁съест	-11.371
▁ключево	-11.371
зовём	-11.3714
▁листья	-11.3716
недельн	-11.3716
▁беспокойств	-11.3717
▁лицензи	-11.3718
оедино	-11.372
американск	-11.3727
▁заполнен	-11.3733
послед	-11.3739
BM	-11.3796
▁трудны	-11.3799
▁краск	-11.3821
▁выдерж	-11.3821
▁базовы	-11.3827
▁избран	-11.3832
▁планирова	-11.3846
▁конкурент	-11.385
▁индивид	-11.3853
▁предупреждени	-11.3853
коричнев	-11.3853
▁2015	-11.3853
▁Четыре	-11.3853
▁кислот	-11.3853
▁освеща	-11.3853
▁побережья	-11.3853
▁соблазн	-11.3853
▁тревог	-11.3853
▁коридор	-11.3853
▁совмести	-11.3853
▁индивидуальны	-11.3853
▁ненавиде	-11.3853
удивительно	-11.3853
▁акцент	-11.3853
▁подготовить	-11.3853
▁экспорт	-11.3854
▁управляют	-11.3854
▁тверд	-11.3856
▁теряют	-11.3856
▁блюд	-11.3856
▁тихо	-11.3856
▁Красны	-11.3857
▁пожела	-11.3857
▁поселени	-11.3858
▁допуска	-11.3859
▁медуз	-11.386
▁разреза	-11.3861
▁парковк	-11.3867
▁носител	-11.3874
▁насыщен	-11.3892
модели	-11.391
▁раковы	-11.3915
▁маск	-11.3952
деляют	-11.3958
следовало	-11.3984
▁представл	-11.3986
▁финансирова	-11.3987
▁жителям	-11.3987
▁Массачусетс	-11.4002
▁Норвеги	-11.4002
▁немедленно	-11.4002
▁позитивно	-11.4002
▁запущен	-11.4002
▁лагерь	-11.4002
▁Гейтс	-11.4002
▁декабр	-11.4002
▁эволюционировал	-11.4002
▁монитор	-11.4002
▁сетчатк	-11.4002
▁заголовк	-11.4002
▁слежк	-11.4002
▁привилеги	-11.4002
▁Честно	-11.4002
▁мысленно	-11.4003
▁камня	-11.4003
▁Кевин	-11.4004
▁палочк	-11.4005
меньшинств	-11.4007
▁Готов	-11.4008
▁Игр	-11.401
▁Начина	-11.4017
▁располож	-11.403
▁линейн	-11.4057
▁Немног	-11.4096
нападени	-11.4124
▁несчасть	-11.4133
▁ориентир	-11.4153
=	-11.4153
▁беспрецедентн	-11.4153
▁необыкновенн	-11.4153
▁проигрыва	-11.4153
▁электроэнерги	-11.4153
▁спонсор	-11.4153
▁Искусств	-11.4153
▁подъём	-11.4153
▁администраци	-11.4153
▁детях	-11.4153
▁скрип	-11.4153
▁Индию	-11.4154
▁морально	-11.4154
▁Совсем	-11.4154
▁некалькі	-11.4154
▁оператор	-11.4154
▁Альберт	-11.4154
▁анимаци	-11.4154
▁хранил	-11.4154
▁привлекательны	-11.4155
▁уехал	-11.4157
меньше	-11.417
▁пугающ	-11.4171
стараться	-11.4177
▁змен	-11.4182
▁сумк	-11.4187
▁колод	-11.4211
▁духовно	-11.4211
▁культурны	-11.4244
▁исходит	-11.4271
▁избави	-11.43
пробуйте	-11.4307
▁Голливуд	-11.4307
▁Дзякуй	-11.4307
▁адаптаци	-11.4307
▁воплотить	-11.4307
▁выигрыва	-11.4307
▁запрограммирова	-11.4307
▁клавиатур	-11.4307
▁контейнер	-11.4307
▁парадигм	-11.4307
▁повествовани	-11.4307
▁подтверждени	-11.4307
▁позитивны	-11.4307
▁фантастик	-11.4307
▁феврал	-11.4307
▁Предположи	-11.4307
▁прослушива	-11.4307
▁закономерност	-11.4307
▁возглавля	-11.4307
▁Дизайн	-11.4307
▁религиозно	-11.4307
▁динамичн	-11.4307
▁напуган	-11.4307
▁протокол	-11.4307
▁дальнейше	-11.4307
▁изобили	-11.4308
▁паутин	-11.4308
▁решаем	-11.4308
▁эфир	-11.4308
▁земель	-11.4308
▁воплощен	-11.4309
▁протеин	-11.431
▁лампочк	-11.4319
крытия	-11.432
▁значил	-11.4322
месячн	-11.4341
▁стеклянн	-11.4349
▁увлек	-11.4364
ближе	-11.4364
▁человечеств	-11.4378
▁конечн	-11.4388
▁Тихо	-11.4397
бытия	-11.4403
▁Привед	-11.4403
читаю	-11.442
▁сожалени	-11.4432
▁аналогичн	-11.4437
▁Амазонк	-11.4463
▁Бангладеш	-11.4463
▁Министерств	-11.4463
▁ассоцииру	-11.4463
▁ископаемо	-11.4463
▁подключа	-11.4463
▁экзамен	-11.4463
▁эпизод	-11.4463
▁фантази	-11.4463
▁мембран	-11.4463
▁правосуди	-11.4463
▁индекс	-11.4463
▁сдержива	-11.4464
▁праблем	-11.4464
▁Генри	-11.4464
▁регистр	-11.4464
▁Каролин	-11.4464
▁погрузи	-11.4464
▁лежал	-11.4464
▁пульс	-11.4464
▁тренд	-11.4464
▁виноват	-11.4464
▁химикат	-11.4465
▁заполня	-11.4465
▁обвиня	-11.4465
▁храм	-11.4465
▁наполня	-11.4466
встреч	-11.4473
▁Чарл	-11.4473
▁Мирово	-11.448
▁отправляет	-11.4492
▁заходит	-11.4493
▁назначен	-11.45
▁сдвиг	-11.4501
▁заработал	-11.4502
▁последн	-11.4503
близнец	-11.4505
▁склонност	-11.4512
▁устроил	-11.4546
▁исчезаю	-11.4571
▁творени	-11.4577
прощения	-11.4585
▁Золото	-11.4622
▁путешествовал	-11.4622
▁тюрем	-11.4622
▁демографическ	-11.4622
▁дьявол	-11.4622
▁матерью	-11.4622
▁музея	-11.4622
▁продавц	-11.4622
▁лагеря	-11.4622
▁футов	-11.4622
▁подвижн	-11.4622
▁машын	-11.4622
▁судебны	-11.4622
▁непонят	-11.4622
▁лягуш	-11.4622
▁приготовлени	-11.4623
▁Дерек	-11.4623
▁камни	-11.4624
▁сваё	-11.4625
▁Обратит	-11.4625
▁подавля	-11.4625
▁отметк	-11.4625
нимаешь	-11.4625
▁высши	-11.4625
▁ослаб	-11.4626
▁побывал	-11.4627
▁отправляют	-11.4629
▁куриц	-11.463
▁дорожк	-11.4631
▁мрачн	-11.4633
миллион	-11.4635
▁кніг	-11.4644
▁звен	-11.4645
▁умнож	-11.4649
героев	-11.4696
▁беженц	-11.4708
масштабн	-11.4709
▁рассчита	-11.4711
▁гарантирова	-11.4725
▁Десят	-11.4749
ологов	-11.4752
Times	-11.4783
▁Президент	-11.4783
▁бессмысленн	-11.4783
▁многочисленны	-11.4783
▁попробовал	-11.4783
▁продукци	-11.4783
▁проявления	-11.4783
▁пузырь	-11.4783
▁реализовать	-11.4783
▁сооружени	-11.4783
▁физиологи	-11.4783
▁воспитыва	-11.4783
▁сопротивля	-11.4784
▁внедря	-11.4784
▁хроническ	-11.4784
▁внедрени	-11.4784
▁Скотт	-11.4784
▁дапамаг	-11.4784
▁прогулк	-11.4784
▁пересечени	-11.4784
▁внедри	-11.4784
утверждать	-11.4784
▁ловушк	-11.4784
▁токсичн	-11.4784
цтва	-11.4785
▁азот	-11.4785
▁численност	-11.4787
▁настаива	-11.4787
▁скоплени	-11.4789
▁предвиде	-11.4791
▁молекулярны	-11.4792
половин	-11.4799
значения	-11.4804
тащил	-11.4815
▁определённ	-11.4859
▁сделав	-11.486
ставляем	-11.4874
▁значени	-11.49
▁пригласи	-11.4902
▁восстанови	-11.491
▁абсолютн	-11.4918
вляется	-11.4933
▁Зрител	-11.4946
▁афроамерикан	-11.4947
▁беспорядо	-11.4947
▁волшебств	-11.4947
▁конфиденциально	-11.4947
▁окситоцин	-11.4947
▁аккумулятор	-11.4947
▁подчеркну	-11.4947
▁путешествовать	-11.4947
▁размножа	-11.4947
▁разработчик	-11.4947
▁реабилитаци	-11.4947
▁совокупност	-11.4947
▁шизофрени	-11.4947
▁зрелищ	-11.4947
▁этническ	-11.4947
▁менеджер	-11.4947
▁осторожно	-11.4947
▁здраво	-11.4947
▁искренне	-11.4947
▁Фрэнк	-11.4948
▁одобрен	-11.4948
оплеск	-11.4948
▁тунца	-11.4948
▁момант	-11.4948
▁теряем	-11.4948
▁оправдан	-11.4948
▁свидани	-11.4949
▁инвестирован	-11.4949
▁модифицирова	-11.495
▁поговорил	-11.4951
▁зрительны	-11.4952
компьютер	-11.4964
защит	-11.4966
▁злоупотреб	-11.4972
▁забрал	-11.4984
сегда	-11.4989
шэнн	-11.4998
▁привлечени	-11.5005
▁забира	-11.5005
▁сделк	-11.5028
▁посвящённ	-11.5063
▁правильн	-11.5086
▁обнаружит	-11.5098
▁Кембридж	-11.5114
▁замедля	-11.5114
▁захотите	-11.5114
▁иерархи	-11.5114
▁изнасилован	-11.5114
▁интуитивно	-11.5114
▁мгновение	-11.5114
▁информирова	-11.5114
▁альбом	-11.5114
▁Британск	-11.5114
▁артери	-11.5114
классник	-11.5114
▁молитв	-11.5114
▁ложь	-11.5114
▁возникновени	-11.5114
▁моделировани	-11.5114
▁прошедши	-11.5115
▁чемпион	-11.5115
▁провинци	-11.5115
▁звучат	-11.5119
▁нацелен	-11.5119
▁артист	-11.5124
▁гэту	-11.5125
▁посадк	-11.5127
атомов	-11.5138
безопас	-11.5148
реалистичн	-11.5159
гляну	-11.5165
▁ужасающ	-11.5195
▁выявля	-11.5198
Сити	-11.5205
▁Задумай	-11.521
серьёз	-11.5223
▁обитаю	-11.5233
чинить	-11.528
‐	-11.5284
▁Невозможно	-11.5284
▁бесконечны	-11.5284
▁беспорядк	-11.5284
▁краткосрочн	-11.5284
▁максимум	-11.5284
▁напомнил	-11.5284
▁недоступн	-11.5284
▁треугольник	-11.5284
▁необычайно	-11.5284
▁рубашк	-11.5284
▁употребля	-11.5284
▁эксплуатаци	-11.5284
▁Рождеств	-11.5284
▁медсестр	-11.5284
▁Нельсон	-11.5284
▁барабан	-11.5284
▁эффективне	-11.5284
▁парашют	-11.5284
▁положительно	-11.5284
▁Джефф	-11.5284
▁вырубк	-11.5284
▁чёрт	-11.5284
▁тренер	-11.5284
▁карыста	-11.5284
▁свежи	-11.5284
▁Иисус	-11.5284
▁Настоящ	-11.5284
▁социолог	-11.5284
▁свидетельство	-11.5284
▁насекомо	-11.5284
▁поистин	-11.5285
▁Уолл	-11.5285
▁вариаци	-11.5285
▁преподавани	-11.5286
▁шляп	-11.5286
▁голас	-11.5287
▁Хотит	-11.5287
▁колонн	-11.5287
▁полагать	-11.5288
▁кожны	-11.5289
▁наставник	-11.5289
▁попрош	-11.5298
▁идущи	-11.5328
▁своеобразн	-11.5329
▁протестирова	-11.5363
пользуемся	-11.5372
▁письме	-11.5456
консервативн	-11.5456
▁инсталляци	-11.5456
▁официально	-11.5456
▁фосфор	-11.5456
▁церковь	-11.5456
влёк	-11.5456
▁август	-11.5456
▁мотоцикл	-11.5456
▁неустойчив	-11.5456
▁разрушить	-11.5456
▁Движени	-11.5456
▁млрд	-11.5456
▁негативны	-11.5456
▁Организаци	-11.5456
▁рычаг	-11.5456
▁Главно	-11.5456
▁Поднимите	-11.5456
▁совпадени	-11.5456
▁логическ	-11.5456
▁авторитет	-11.5456
▁Италии	-11.5456
▁отметил	-11.5456
▁цензур	-11.5456
▁чувствительны	-11.5457
▁разместил	-11.5457
▁сказк	-11.5457
▁персональны	-11.5458
▁заслуживаю	-11.5461
▁молоко	-11.5462
▁трехмерн	-11.5464
▁марш	-11.5464
▁осадк	-11.5464
▁тренирова	-11.549
предпринимател	-11.5495
вежлив	-11.5501
братьев	-11.5503
▁засел	-11.5548
▁хватит	-11.558
▁сложен	-11.5611
▁произноси	-11.5615
▁Amazon	-11.5631
▁девушек	-11.5631
▁долгосрочны	-11.5631
▁зафиксирова	-11.5631
▁кристалл	-11.5631
▁продовольстви	-11.5631
▁разногласи	-11.5631
▁убеждён	-11.5631
▁бюрократ	-11.5631
▁враждебн	-11.5631
▁неотъемлем	-11.5631
▁тормоз	-11.5631
▁оптимальн	-11.5631
▁оранжев	-11.5631
▁дилемм	-11.5631
▁поставщик	-11.5631
▁утверждал	-11.5631
▁корабле	-11.5632
▁матерей	-11.5632
▁новшеств	-11.5632
▁лагере	-11.5632
▁Джейн	-11.5632
▁верхушк	-11.5632
▁очища	-11.5632
▁агрессивны	-11.5633
▁кожна	-11.5637
сажива	-11.5647
▁выявлен	-11.5656
▁направляет	-11.5676
становиться	-11.5682
▁прицел	-11.5722
▁четыр	-11.5742
▁практич	-11.5808
▁Life	-11.581
▁режиссёр	-11.581
▁1998	-11.581
▁Правильно	-11.581
▁Уильям	-11.581
▁абсурд	-11.581
▁детектор	-11.581
▁защищен	-11.581
▁интерпретаци	-11.581
▁лошадь	-11.581
▁свадьб	-11.581
▁сконцентрирова	-11.581
▁хозяин	-11.581
▁элегантн	-11.581
j	-11.581
▁Зеланди	-11.581
▁запрещен	-11.581
▁пчол	-11.581
▁ухажива	-11.581
▁негативно	-11.581
▁союзник	-11.581
▁Латинск	-11.581
▁выясня	-11.581
▁подчиня	-11.581
▁пугает	-11.581
▁свеже	-11.581
▁колония	-11.581
▁тренировк	-11.581
▁отрасли	-11.581
▁горяче	-11.581
▁тупик	-11.581
▁китайц	-11.5811
▁полагаем	-11.5811
▁элементарны	-11.5811
▁послал	-11.5811
▁зрительно	-11.5816
▁резин	-11.5817
▁Sta	-11.5818
▁изгиб	-11.5822
едаеце	-11.5825
тащить	-11.5827
▁специфическ	-11.5837
▁воспита	-11.5839
▁Врач	-11.584
W	-11.5842
звезд	-11.5845
▁избавля	-11.5855
▁гордост	-11.5879
семян	-11.5921
следователь	-11.5924
▁деятел	-11.5945
▁диплом	-11.5963
▁дешев	-11.5991
▁Twitter	-11.5992
▁Индонези	-11.5992
▁Швейцари	-11.5992
▁ориентаци	-11.5992
▁осторожны	-11.5992
▁посетител	-11.5992
▁преобразовать	-11.5992
▁синтетическ	-11.5992
▁сознательно	-11.5992
▁сюрприз	-11.5992
▁энтропи	-11.5992
▁Процесс	-11.5992
▁безразлич	-11.5992
▁клиническо	-11.5992
▁могущественн	-11.5992
▁успокои	-11.5992
▁Юпитер	-11.5992
▁индивидуум	-11.5992
▁решётк	-11.5992
▁впечатления	-11.5992
▁запутанн	-11.5992
▁писателе	-11.5992
▁загружа	-11.5992
▁локально	-11.5992
прыгнул	-11.5992
▁покончи	-11.5992
▁возьме	-11.5993
▁цирк	-11.5993
▁танца	-11.5994
▁сумел	-11.5995
▁птич	-11.5998
▁брош	-11.6004
можешь	-11.6028
▁способствую	-11.6035
▁подключен	-11.6046
▁добродетел	-11.6047
ответственно	-11.6146
▁оригинал	-11.6158
▁агресси	-11.6175
▁МРТ	-11.6177
▁Невероятно	-11.6177
▁Паркинсон	-11.6177
▁Филипп	-11.6177
▁ассоциаци	-11.6177
▁вертолёт	-11.6177
▁грандиозн	-11.6177
▁деревянн	-11.6177
▁недвижимост	-11.6177
▁очередно	-11.6177
▁священник	-11.6177
▁симуляци	-11.6177
▁сформировать	-11.6177
▁фестивал	-11.6177
▁еврейск	-11.6177
▁размножени	-11.6177
▁танцор	-11.6177
▁палестин	-11.6177
▁поздне	-11.6177
▁боевик	-11.6177
▁нелегальн	-11.6177
▁поиграть	-11.6177
▁богаче	-11.6177
▁немнож	-11.6177
▁Пекин	-11.6177
▁вибраци	-11.6178
▁царств	-11.6178
▁антрополог	-11.6178
▁працава	-11.6178
▁ложны	-11.6178
▁Скоро	-11.6178
▁вычисли	-11.6178
▁ширин	-11.6178
▁проделыва	-11.6178
▁стакан	-11.6182
▁атомно	-11.6183
▁услышан	-11.6184
▁привлекательно	-11.6185
ключите	-11.6187
хотеть	-11.6192
всюду	-11.6193
▁экспериментальн	-11.6243
▁отправлял	-11.6246
▁слушател	-11.6264
▁нахождени	-11.6296
▁спальн	-11.6304
▁Бруклин	-11.6366
▁Антарктик	-11.6366
▁Государств	-11.6366
▁Понятно	-11.6366
▁Эндрю	-11.6366
▁дешёво	-11.6366
▁дзяце	-11.6366
▁испытуем	-11.6366
▁кишечник	-11.6366
▁необязательно	-11.6366
▁сконструирова	-11.6366
▁сопротивление	-11.6366
▁углекислы	-11.6366
▁чудовищ	-11.6366
▁секвенирова	-11.6366
▁рубеж	-11.6366
▁загадочн	-11.6366
▁отмечен	-11.6366
▁ориентирован	-11.6366
▁впоследстви	-11.6366
▁воспроизвести	-11.6366
▁устаревш	-11.6366
▁обитател	-11.637
▁пиксел	-11.6371
▁переполнен	-11.6372
▁ощущени	-11.6372
▁духовны	-11.6384
Каид	-11.6399
▁издател	-11.6436
▁коротк	-11.6442
▁наследств	-11.6466
▁обследова	-11.6475
ходящего	-11.6505
рабатывает	-11.6525
▁принадлежност	-11.6551
▁поврежд	-11.6552
▁1999	-11.6558
▁Вьетнам	-11.6558
▁Сингапур	-11.6558
▁Танзани	-11.6558
▁верблюд	-11.6558
▁консультант	-11.6558
▁лихорадк	-11.6558
▁логотип	-11.6558
▁приспособи	-11.6558
▁размаўля	-11.6558
▁беспомощ	-11.6558
▁восхищен	-11.6558
▁миллиметр	-11.6558
▁Ребён	-11.6558
▁головоломк	-11.6558
▁конструирова	-11.6558
▁разворачива	-11.6558
▁чиновник	-11.6558
▁таракан	-11.6558
▁толщин	-11.6558
▁местоположени	-11.6558
▁нигде	-11.6558
▁щедро	-11.6558
▁Medi	-11.6558
▁оглядыва	-11.6558
▁кардинальн	-11.6558
▁питьев	-11.6559
▁плёнк	-11.6559
▁наибольше	-11.656
▁роботизированн	-11.656
▁паралич	-11.656
▁удивлен	-11.6564
▁Мозг	-11.6566
▁робіц	-11.6569
▁Тысяч	-11.657
▁повышенн	-11.6572
▁международн	-11.6573
▁минерал	-11.6574
▁развлека	-11.659
осозна	-11.6604
▁полагал	-11.662
▁совершенн	-11.6628
▁Помн	-11.6665
▁состояни	-11.6677
▁руководителе	-11.6691
▁морск	-11.6719
▁последовал	-11.6722
▁естественн	-11.674
▁Силиконов	-11.6754
▁гибрид	-11.6754
▁предвзято	-11.6754
▁транзистор	-11.6754
▁цяжка	-11.6754
▁Групп	-11.6754
▁возьмёт	-11.6754
▁галлюцинаци	-11.6754
▁джунгл	-11.6754
▁композици	-11.6754
▁нравственно	-11.6754
▁озабочен	-11.6754
▁потребляем	-11.6754
▁преследу	-11.6754
▁химиотерапи	-11.6754
редактирова	-11.6754
▁2014	-11.6754
▁симфони	-11.6754
▁Аристотел	-11.6754
▁очарован	-11.6754
▁глагол	-11.6754
▁Девочк	-11.6754
▁распределя	-11.6754
▁бирж	-11.6755
▁Подобны	-11.6755
▁ремонт	-11.6755
▁Рассказ	-11.6757
▁ускорени	-11.6758
▁увидев	-11.6762
▁провож	-11.6762
▁банан	-11.6765
старался	-11.6786
спокойн	-11.6789
означают	-11.6824
▁неопределённост	-11.6857
▁морали	-11.6893
▁сталкиваютс	-11.6905
сторонне	-11.6917
▁Хотел	-11.6931
▁Аудитори	-11.6954
▁Компании	-11.6954
▁Способ	-11.6954
▁Человеческ	-11.6954
▁баскетбол	-11.6954
▁консерватор	-11.6954
▁неандертальц	-11.6954
▁незначительны	-11.6954
▁ошеломляющ	-11.6954
▁парикмахер	-11.6954
▁позаботи	-11.6954
▁посчастливи	-11.6954
▁цилиндр	-11.6954
▁2013	-11.6954
▁вообража	-11.6954
▁пандеми	-11.6954
▁парализован	-11.6954
▁Клинтон	-11.6954
▁вырашы	-11.6954
▁обдумыва	-11.6954
▁коррект	-11.6954
▁подумает	-11.6954
▁привычно	-11.6954
▁бонобо	-11.6954
▁пьес	-11.6954
▁конфет	-11.6954
▁ступн	-11.6954
▁умственны	-11.6954
▁миграци	-11.6954
▁Габб	-11.6955
▁оболочк	-11.6955
ill	-11.6956
▁корзин	-11.6956
близости	-11.6956
▁благосл	-11.696
▁пьян	-11.6961
▁тигр	-11.6974
▁выделил	-11.6994
техническ	-11.7024
видимом	-11.7037
надцать	-11.7158
▁Аргентин	-11.7158
▁Лучши	-11.7158
▁британски	-11.7158
▁гісторы	-11.7158
▁джихад	-11.7158
▁медикамент	-11.7158
▁недооценива	-11.7158
▁полномочи	-11.7158
▁удовлетвори	-11.7158
▁выпущен	-11.7158
▁заслуживает	-11.7158
▁возврат	-11.7158
▁переезжа	-11.7158
▁Эдвард	-11.7158
▁резюм	-11.7158
▁волокна	-11.7158
▁изобрё	-11.7158
▁Сиэтл	-11.7158
▁замкнут	-11.7158
▁прислал	-11.7159
▁ненулево	-11.7159
▁азиат	-11.7159
▁месца	-11.7159
подробнее	-11.7159
▁челюст	-11.7159
▁мамонт	-11.7159
▁антенн	-11.7159
▁юнош	-11.716
▁вмешива	-11.716
▁Количеств	-11.7163
▁уникальна	-11.7164
ианино	-11.7178
▁француз	-11.7179
▁стимулиру	-11.723
▁коренны	-11.7232
▁виновн	-11.7278
▁Смотр	-11.7284
▁первичн	-11.7293
▁заслуж	-11.7361
°	-11.7366
▁Сноуден	-11.7366
▁Студент	-11.7366
▁археолог	-11.7366
▁жёстки	-11.7366
▁игнориру	-11.7366
▁интегрирован	-11.7366
▁итальянск	-11.7366
▁конституци	-11.7366
▁лошади	-11.7366
▁освободить	-11.7366
▁осуществлени	-11.7366
▁предупрежда	-11.7366
▁посредник	-11.7366
▁пешком	-11.7367
▁тротуар	-11.7367
▁амбици	-11.7367
▁отверстие	-11.7367
▁обоснован	-11.7367
▁потрачен	-11.7367
▁хранят	-11.7367
▁разрушил	-11.7367
▁стиральн	-11.7367
▁пересадк	-11.7368
▁движущи	-11.7369
▁бачыц	-11.7369
▁субсиди	-11.737
▁внешност	-11.7374
▁остановит	-11.7383
▁сражени	-11.739
▁знаменитост	-11.7407
ыглядит	-11.7412
▁качеств	-11.7439
▁пицц	-11.7445
▁оптическ	-11.7476
▁мышечн	-11.7507
▁Филадельфи	-11.7579
▁айсберг	-11.7579
▁возбужден	-11.7579
▁загрязня	-11.7579
▁содержимо	-11.7579
▁сопротивления	-11.7579
▁стипенди	-11.7579
▁сістэм	-11.7579
▁тэхналогі	-11.7579
▁Ирланди	-11.7579
▁бамбук	-11.7579
▁вдохновляет	-11.7579
▁олицетвор	-11.7579
▁расшифрова	-11.7579
▁Испании	-11.7579
▁Трудно	-11.7579
▁Управление	-11.7579
▁вступил	-11.7579
▁Цифр	-11.7579
▁гадзін	-11.7579
▁постановк	-11.7579
▁аромат	-11.7579
▁сложивш	-11.758
▁логичн	-11.758
▁повторил	-11.758
▁пропорци	-11.758
▁украшен	-11.758
▁привычны	-11.7581
▁усвоил	-11.7581
▁заглядыва	-11.7582
▁практическо	-11.7582
▁потолк	-11.7582
▁ангел	-11.7584
▁бацьк	-11.7586
▁мобилиз	-11.7592
▁согласован	-11.7602
маглі	-11.7616
▁анализиру	-11.7621
знавать	-11.7635
▁ответствен	-11.7656
▁желающи	-11.7665
азначае	-11.7713
▁конкретн	-11.775
▁устойчив	-11.7787
▁субъект	-11.7796
▁Возвраща	-11.7797
пладысмент	-11.7797
▁Антарктид	-11.7797
▁Гренланди	-11.7797
▁Леонардо	-11.7797
▁Республик	-11.7797
▁бесполезны	-11.7797
▁биоразнообраз	-11.7797
▁джентльмен	-11.7797
▁иероглиф	-11.7797
▁интеграци	-11.7797
▁приспосаблива	-11.7797
▁реконструкци	-11.7797
▁туберкулёз	-11.7797
▁благоприятн	-11.7797
▁заблуждени	-11.7797
▁милосерди	-11.7797
▁сегмент	-11.7797
▁Арктик	-11.7797
▁грамотност	-11.7797
▁сигарет	-11.7797
▁крохотн	-11.7797
▁колёс	-11.7797
▁радостн	-11.7797
▁расстроен	-11.7797
▁бездомны	-11.78
▁спарива	-11.7801
▁Остальн	-11.7802
▁божеств	-11.7803
гвозд	-11.7819
▁Арабск	-11.7833
▁рабіц	-11.7836
▁неспособ	-11.7899
моложе	-11.7934
пытался	-11.8002
▁положен	-11.801
▁Детройт	-11.8019
▁Линкольн	-11.8019
▁Пациент	-11.8019
▁бесчисленн	-11.8019
▁выигрыш	-11.8019
▁добровольц	-11.8019
▁мальчишк	-11.8019
▁муравей	-11.8019
▁параллельно	-11.8019
▁подтвердил	-11.8019
▁прибрежн	-11.8019
▁протоклетк	-11.8019
▁светодиод	-11.8019
▁человечност	-11.8019
▁комисси	-11.8019
▁психическо	-11.8019
▁вовлечь	-11.8019
▁запомнил	-11.8019
▁прямоугольн	-11.8019
▁издержк	-11.8019
▁перевернул	-11.8019
▁посещени	-11.8019
▁чувствительност	-11.8019
▁Последне	-11.802
▁завоева	-11.802
▁вернёт	-11.8021
▁чертовск	-11.8023
хватывают	-11.8025
▁Исследовател	-11.8039
нейтральн	-11.8062
▁опубликова	-11.8205
▁гомосексуал	-11.822
езусловно	-11.8243
▁Отличн	-11.8243
Second	-11.8246
▁Бенджамин	-11.8246
▁Здорово	-11.8246
▁Сьерра	-11.8246
▁Шекспир	-11.8246
▁импровизаци	-11.8246
▁исключа	-11.8246
▁конфигураци	-11.8246
▁оптимизаци	-11.8246
▁официальны	-11.8246
▁охлаждени	-11.8246
▁попробую	-11.8246
▁працэс	-11.8246
▁прикосновени	-11.8246
▁проявление	-11.8246
▁татуировк	-11.8246
▁темнокожи	-11.8246
▁факультет	-11.8246
▁Бронкс	-11.8246
▁Современн	-11.8246
▁безграничн	-11.8246
▁британско	-11.8246
Ч	-11.8566
é	-11.8961
Щ	-11.973
#	-12.1161
’	-12.1161
J	-12.3052
Я	-12.3438
_	-12.4403
І	-12.562
Ц	-12.6119
^	-12.6269
ý	-12.6795
@	-12.9945
Ы	-13.0714
‘	-13.3456
Ь	-13.5818
í	-13.5818
Ю	-13.7097
*	-13.7246
q	-13.8911
`	-13.8913
ö	-13.8913
ü	-13.8913
×	-13.8913
­	-14.0913
ò	-14.0913
è	-14.3413
ë	-14.3413
ō	-14.6746
′	-14.6746
~	-15.1746
	-15.1746
à	-15.1746
ย	-15.1746
ร	-15.1746
่	-15.1746
•	-15.1746
ä	-15.1746
ê	-16.1723
อ	-16.1724
©	-16.1725
Ў	-16.1726
\	-16.1727
⁄	-16.1728
‒	-16.1729
−	-16.173
―	-16.1731
Ё	-16.1732
/	-16.1733
”	-16.1734
♪	-16.1735
Й	-16.1736
%	-16.1737
!	-16.1738
♫	-16.1739
–	-16.174
)	-16.1741
»	-16.1742
?	-16.1743
—	-16.1744
:	-16.1745
ï	-16.1746
&	-16.1746
	-16.1746
¥	-16.1746
®	-16.1746
¿	-16.1746
Á	-16.1746
ã	-16.1746
ç	-16.1746
ñ	-16.1746
ā	-16.1746
ī	-16.1746
̊	-16.1746
̢	-16.1746
τ	-16.1746
χ	-16.1746
ό	-16.1746
՛	-16.1746
ش	-16.1746
ْ	-16.1746
‮	-16.1746
∇	-16.1746
