<unk>	0
<s>	0
</s>	0
<pad>	0
▁,	-2.98158
▁.	-3.14391
▁	-3.59917
і	-3.79869
я	-3.9873
й	-4.12946
е	-4.16791
ы	-4.18842
а	-4.27788
х	-4.38883
▁і	-4.4922
у	-4.52758
▁ў	-4.57573
▁на	-4.62078
м	-4.7232
▁у	-4.80219
▁з	-4.8173
▁—	-4.83889
(	-4.88547
▁)	-4.89966
ў	-5.06165
;	-5.0992
▁в	-5.10814
▁&	-5.15266
и	-5.16635
га	-5.18292
▁и	-5.27954
▁У	-5.3338
▁не	-5.34829
«	-5.39454
▁»	-5.39753
ць	-5.53098
цца	-5.59602
▁что	-5.64409
ю	-5.65623
ot	-5.68087
qu	-5.68442
▁да	-5.70122
ь	-5.71561
ся	-5.81704
зе	-5.82522
-	-5.83447
аў	-5.83625
▁с	-5.87541
▁:	-5.92477
▁па	-5.93171
▁год	-6.03169
▁за	-6.04541
apos	-6.05509
▁это	-6.15623
▁ад	-6.18323
▁я	-6.23027
▁года	-6.24952
▁для	-6.25975
▁а	-6.26706
▁мы	-6.28092
▁так	-6.33971
ую	-6.37616
▁по	-6.41119
▁19	-6.45393
о	-6.45483
▁быў	-6.49144
▁што	-6.49205
▁г	-6.49974
мі	-6.55212
▁как	-6.55298
ов	-6.58521
т	-6.58873
▁З	-6.59378
▁И	-6.59706
▁был	-6.60043
▁На	-6.61524
▁Я	-6.61825
го	-6.62774
▁вы	-6.65103
▁яго	-6.65174
ам	-6.68987
к	-6.70881
▁?	-6.73767
▁як	-6.74403
▁С	-6.7542
▁из	-6.76368
▁было	-6.77864
▁А	-6.81666
▁В	-6.82066
▁то	-6.8234
▁18	-6.83139
ла	-6.85557
▁к	-6.86831
▁была	-6.87337
ом	-6.8847
▁о	-6.89678
▁час	-6.91807
оў	-6.95362
ак	-6.95671
с	-6.96602
ўся	-6.96982
цы	-6.9713
▁Это	-6.97278
▁гэта	-6.97463
сама	-6.98746
▁які	-7.00808
то	-7.00903
▁аб	-7.02935
▁якія	-7.03036
ён	-7.03984
ем	-7.04461
▁км	-7.04684
▁бы	-7.09437
на	-7.09654
лі	-7.09691
▁пад	-7.11426
ага	-7.1185
▁2	-7.12211
▁от	-7.13818
ой	-7.14409
лася	-7.16069
▁они	-7.18018
▁-	-7.18191
ть	-7.21429
ка	-7.23681
ны	-7.2484
▁но	-7.29392
ва	-7.30078
▁17	-7.30511
▁Но	-7.30655
▁горад	-7.32188
в	-7.32328
▁Мы	-7.32743
ми	-7.33249
▁пры	-7.33615
ли	-7.33764
н	-7.34274
це	-7.34503
▁;	-7.34615
ах	-7.36043
▁чтобы	-7.3676
▁15	-7.37022
▁больш	-7.37624
▁але	-7.38392
▁3	-7.39979
▁раз	-7.41014
▁каля	-7.41669
▁Беларус	-7.42064
▁пасля	-7.42379
▁1	-7.42985
▁%	-7.44149
▁пра	-7.45222
▁вобласц	-7.47419
▁когда	-7.4888
▁якая	-7.49205
з	-7.49276
▁раён	-7.49553
амі	-7.50133
▁вайн	-7.50655
ле	-7.51104
́	-7.51158
ай	-7.51231
▁он	-7.52028
▁16	-7.529
▁или	-7.53186
д	-7.53817
▁іх	-7.54679
▁же	-7.54732
▁П	-7.54859
юць	-7.54954
ліся	-7.558
ет	-7.57471
▁нас	-7.57882
▁яўляе	-7.58003
▁эти	-7.58956
л	-7.59381
▁их	-7.60528
▁тольк	-7.60861
▁если	-7.60936
▁есть	-7.61089
за	-7.6112
▁все	-7.61428
▁м	-7.6194
▁гадоў	-7.62019
ных	-7.62316
▁іншы	-7.62321
▁Так	-7.62847
чы	-7.64058
▁до	-7.64909
▁очень	-7.65057
▁которые	-7.65219
но	-7.65296
ая	-7.65307
▁Да	-7.6636
▁при	-7.66552
▁Б	-7.66635
кі	-7.66785
▁ст	-7.66806
да	-7.66883
▁яе	-7.67241
▁меня	-7.68425
▁10	-7.69562
▁Пасля	-7.6978
▁дзе	-7.69789
▁его	-7.69826
▁краін	-7.70137
▁может	-7.73097
▁знаходзі	-7.73568
▁Па	-7.75302
▁тэрыторы	-7.75423
▁склад	-7.75469
▁20	-7.75624
▁лет	-7.77897
▁4	-7.77991
та	-7.78044
ами	-7.78287
▁том	-7.78788
ей	-7.79174
’	-7.79734
1	-7.80129
▁гэты	-7.80161
ССР	-7.80515
▁ім	-7.8146
▁мне	-7.82257
ную	-7.825
▁К	-7.84801
▁5	-7.85481
▁цэнтр	-7.8615
р	-7.8742
▁Смех	-7.87929
ку	-7.88429
▁всё	-7.89451
▁над	-7.90948
▁са	-7.91695
▁або	-7.91748
▁только	-7.91821
▁горада	-7.92398
▁об	-7.92509
▁чалавек	-7.92902
▁М	-7.9322
▁складае	-7.93661
▁14	-7.93677
▁калі	-7.95062
п	-7.95169
▁–	-7.95854
▁насельніцтва	-7.96062
▁тым	-7.96186
▁адзін	-7.9686
▁стаў	-7.97201
між	-7.98626
▁под	-7.98746
▁раёна	-7.99709
▁беларуска	-8.01144
▁про	-8.01212
ст	-8.0142
▁стагоддзя	-8.02004
юцца	-8.02486
▁со	-8.02566
час	-8.02569
▁12	-8.02678
▁I	-8.03759
▁людей	-8.03912
▁потому	-8.04101
▁того	-8.04201
▁чем	-8.04522
ж	-8.05243
▁быть	-8.05544
▁просто	-8.05767
▁пачатк	-8.05932
ло	-8.06168
ра	-8.06232
ль	-8.06237
▁некалькі	-8.0743
▁больше	-8.07876
таго	-8.08215
му	-8.08227
ки	-8.08301
ная	-8.08858
▁вам	-8.09278
▁месца	-8.09901
▁она	-8.10474
▁свет	-8.11393
▁частка	-8.11497
▁ці	-8.11549
ля	-8.12208
▁6	-8.124
ют	-8.12501
▁этого	-8.1273
▁во	-8.13296
ш	-8.1352
▁Вы	-8.13757
▁13	-8.13991
▁колькасц	-8.14044
▁стала	-8.14185
▁Они	-8.15376
▁ва	-8.16358
▁вынік	-8.16361
сць	-8.16813
▁За	-8.17142
▁нам	-8.17237
сці	-8.17331
▁розны	-8.1834
ен	-8.19081
не	-8.19573
▁Расі	-8.19628
ША	-8.19759
▁который	-8.19776
▁ты	-8.19846
▁захад	-8.19857
ться	-8.19959
▁першы	-8.20085
▁два	-8.20938
▁рак	-8.21255
▁мае	-8.21368
▁гг	-8.21679
▁вас	-8.21732
▁этом	-8.2174
гады	-8.21887
▁где	-8.22273
▁Он	-8.224
▁можно	-8.23814
▁Не	-8.23952
▁вот	-8.24194
II	-8.24393
▁8	-8.24471
▁без	-8.24631
▁время	-8.2471
ты	-8.24861
▁ли	-8.24916
▁праз	-8.25274
▁якіх	-8.2531
шы	-8.25615
ні	-8.26032
ч	-8.26098
▁беларускі	-8.26225
▁Д	-8.26529
ной	-8.2662
▁люди	-8.26756
▁част	-8.27051
▁студзен	-8.2745
▁новы	-8.27767
▁9	-8.27994
▁более	-8.28026
▁Вяліка	-8.28459
ц	-8.28611
▁гісторы	-8.28795
▁складзе	-8.29158
▁Адна	-8.29498
▁11	-8.2958
▁Гэта	-8.2967
▁якой	-8.29818
▁ещё	-8.29912
ные	-8.30147
▁7	-8.30185
▁там	-8.30253
▁которо	-8.30255
▁ж	-8.30583
▁культур	-8.30818
лись	-8.31167
▁Если	-8.31388
жо	-8.31845
▁атрымаў	-8.3201
▁будет	-8.32025
▁/	-8.32306
▁Мінска	-8.32435
▁перыяд	-8.32813
▁гэтым	-8.33243
▁тыс	-8.33306
▁сваё	-8.33437
▁По	-8.33463
ется	-8.33595
мовы	-8.33942
▁Р	-8.3416
▁этот	-8.34432
▁них	-8.3465
.	-8.351
▁частк	-8.35316
сь	-8.35413
▁б	-8.35772
▁перша	-8.35812
▁тысяч	-8.36086
▁её	-8.36599
▁некаторы	-8.36647
▁снежн	-8.37056
▁Ф	-8.37577
▁XI	-8.38067
▁жа	-8.38163
те	-8.38557
▁30	-8.3859
ок	-8.3963
яшчэ	-8.39828
▁гада	-8.40289
▁Вот	-8.40425
▁жыхар	-8.40525
▁ўсход	-8.40636
ца	-8.41401
▁♫	-8.42231
▁сакавік	-8.42284
скай	-8.42726
▁Пад	-8.42816
▁ліпен	-8.42955
▁много	-8.43254
▁Аплодисменты	-8.43255
▁Беларуска	-8.43432
▁Еўроп	-8.43784
ти	-8.44757
скі	-8.44762
▁І	-8.44769
ру	-8.45165
▁каб	-8.45324
ко	-8.46064
▁т	-8.46154
▁кастрычнік	-8.46673
▁адбы	-8.46904
▁супраць	-8.47192
▁царкв	-8.47236
▁нужно	-8.47296
▁даже	-8.47325
▁уже	-8.47326
г	-8.47559
най	-8.47603
▁Как	-8.47739
▁н	-8.47789
ным	-8.48016
яны	-8.48068
▁сделать	-8.48178
▁!	-8.48312
▁яна	-8.48543
ства	-8.48873
скага	-8.48946
▁назва	-8.49311
ры	-8.49384
▁Ён	-8.49488
▁кто	-8.50054
ста	-8.50168
▁Рэспублік	-8.50491
▁дзейнасц	-8.50532
▁інш	-8.50979
▁працяг	-8.51035
ча	-8.51073
▁права	-8.51127
▁вяліка	-8.51288
ф	-8.51321
▁размешчаны	-8.5191
▁лістапад	-8.5197
▁жизни	-8.52058
▁тем	-8.52576
▁тут	-8.5274
▁бо	-8.52961
▁можем	-8.53429
▁якога	-8.53436
▁Беларусь	-8.53685
▁здесь	-8.53836
▁сям	-8.53852
▁форм	-8.53907
▁возера	-8.54116
▁вёска	-8.54264
▁...	-8.54425
▁само	-8.54576
э	-8.54607
сіх	-8.54662
▁могу	-8.55168
▁імперы	-8.55191
▁можа	-8.55432
▁поўнач	-8.55544
▁дзяржав	-8.55544
▁нет	-8.55761
▁всего	-8.56169
же	-8.56412
▁чэрвен	-8.56519
ный	-8.56927
▁себя	-8.5722
ются	-8.57221
▁аднак	-8.57469
▁вядомы	-8.57947
ючы	-8.57948
▁Пры	-8.57957
▁один	-8.58659
▁мая	-8.58687
▁вель	-8.58878
▁Для	-8.59118
▁мора	-8.59262
▁вялікі	-8.59426
▁ўсё	-8.59519
▁сейчас	-8.59594
сти	-8.59596
▁ё	-8.59865
▁этой	-8.60185
▁сувяз	-8.60655
б	-8.60712
▁рух	-8.61578
▁двух	-8.61842
▁также	-8.6197
▁адным	-8.62218
маль	-8.62409
ого	-8.62718
▁якім	-8.62957
▁назад	-8.62993
▁п	-8.63101
ного	-8.63555
▁сказал	-8.63625
чынам	-8.63767
▁мова	-8.64555
▁род	-8.6509
▁свое	-8.6509
▁працы	-8.65224
▁канцы	-8.65312
▁жыцця	-8.6563
▁вёск	-8.65665
▁пасад	-8.6587
▁которая	-8.65885
▁25	-8.65939
▁навук	-8.66065
°	-8.6628
▁Але	-8.66285
жа	-8.66373
▁від	-8.6653
▁самом	-8.67094
▁павод	-8.67143
▁лічы	-8.67443
▁XVI	-8.67449
▁член	-8.67767
ни	-8.67807
▁свай	-8.67819
▁якасц	-8.67864
▁маю	-8.67916
▁сярод	-8.68057
тым	-8.68468
▁II	-8.68816
▁могут	-8.68862
ить	-8.69059
▁якое	-8.69069
▁твор	-8.69082
▁другой	-8.69332
▁вопрос	-8.69641
▁верасн	-8.69839
▁Что	-8.70006
▁Когда	-8.70145
лось	-8.70173
▁назв	-8.70385
▁100	-8.70499
▁лік	-8.70597
▁Пав	-8.70681
ша	-8.71132
▁должны	-8.71173
▁пере	-8.71366
X	-8.71893
сваю	-8.72175
одле	-8.72622
▁жніўн	-8.72626
▁чым	-8.72655
▁Польшч	-8.73074
▁найбольш	-8.73244
▁пачаў	-8.73329
разам	-8.73473
▁мастацтва	-8.73647
▁мир	-8.74459
▁000	-8.74495
▁Гэты	-8.74525
▁свой	-8.75049
са	-8.75144
крамя	-8.75174
▁всех	-8.75276
▁сельсавета	-8.75435
▁деле	-8.75575
▁сам	-8.75695
ит	-8.76005
▁кар	-8.76271
▁сама	-8.76484
прыклад	-8.76486
▁красавік	-8.76598
▁таму	-8.76854
ліку	-8.77468
▁шэраг	-8.77501
чи	-8.77532
▁думаю	-8.77707
▁плошч	-8.7784
▁груп	-8.77849
▁свои	-8.78745
▁войска	-8.78809
▁Германі	-8.7901
▁ліні	-8.79025
ин	-8.7912
▁хочу	-8.79389
▁C	-8.79416
▁кніг	-8.79646
▁Францы	-8.79818
▁вядома	-8.79897
▁пазней	-8.80136
▁Г	-8.80577
▁тып	-8.80594
▁смерці	-8.80975
▁эту	-8.81283
▁парты	-8.81622
можна	-8.81749
▁50	-8.82358
нага	-8.82784
па	-8.83074
▁Л	-8.83087
▁сусветна	-8.83205
▁Віцебска	-8.83276
▁яму	-8.83386
▁сваі	-8.83626
▁Маскв	-8.83673
▁сын	-8.83872
вы	-8.83906
▁яўляю	-8.83909
▁рака	-8.84342
2	-8.84372
▁млн	-8.84529
▁ц	-8.84639
▁мое	-8.85093
▁О	-8.85395
▁пера	-8.85421
▁Она	-8.85482
▁чалавека	-8.85584
▁месц	-8.85643
▁этим	-8.85727
мове	-8.85781
▁чал	-8.85922
вер	-8.86516
ре	-8.86541
▁слова	-8.86725
▁Итак	-8.86849
▁2008	-8.86914
▁дзяржаўны	-8.87006
ё	-8.8714
▁через	-8.87245
▁нацыянальна	-8.87424
▁дзеяч	-8.87683
▁самых	-8.87763
▁Плошч	-8.88071
ці	-8.8808
ри	-8.88129
▁агульна	-8.88839
▁сябе	-8.88843
▁сваім	-8.8893
▁значна	-8.89098
▁лют	-8.89272
▁Расійска	-8.89393
▁&#93;	-8.89696
▁літаратур	-8.89759
▁человек	-8.90151
▁&#9	-8.90215
працаваў	-8.90331
▁зямл	-8.90606
▁аснов	-8.9061
▁сабо	-8.90658
першын	-8.90766
▁которы	-8.90984
▁себе	-8.91131
от	-8.91152
▁адной	-8.91166
▁Заходня	-8.91249
▁ВКЛ	-8.91523
▁Е	-8.91683
или	-8.91692
ил	-8.91772
▁шмат	-8.92038
▁тры	-8.92149
ёй	-8.92243
▁сіл	-8.92399
лась	-8.92431
▁Паўночна	-8.92943
жи	-8.93146
▁жизнь	-8.93258
сельніцтва	-8.93382
▁адна	-8.93447
▁стагоддз	-8.93505
▁войск	-8.93677
▁многі	-8.93793
▁развіцц	-8.9382
асць	-8.93884
▁несколько	-8.94006
41	-8.94015
▁дзяржаўна	-8.94749
▁Э	-8.94779
▁цяпер	-8.95054
вал	-8.95252
▁делать	-8.95438
▁паўднёва	-8.95834
▁ни	-8.9604
▁менш	-8.96284
пример	-8.96416
▁паўночна	-8.96588
лся	-8.96597
▁Аб	-8.96686
ди	-8.9683
▁Т	-8.96848
▁Яго	-8.96925
▁лучше	-8.9693
▁после	-8.97147
▁працэс	-8.97588
▁вуліц	-8.97656
▁сучасна	-8.97831
92	-8.9792
▁году	-8.97933
▁день	-8.97941
▁пол	-8.98044
▁эта	-8.98145
▁мире	-8.98238
▁Спасибо	-8.98619
▁2007	-8.98928
e	-8.99099
▁самы	-8.99316
▁заста	-8.99427
ар	-8.99562
▁закон	-8.99807
▁поўдн	-9.00149
▁40	-9.00414
▁Уваходзі	-9.0044
▁пераважна	-9.00694
ное	-9.00702
▁действительно	-9.0096
▁см	-9.00985
▁звычайна	-9.01054
▁возможно	-9.01812
▁нават	-9.01836
▁Рэчы	-9.02077
▁армі	-9.02126
▁сталі	-9.02451
▁времени	-9.02463
▁часта	-9.02645
ал	-9.02914
ну	-9.02926
сяго	-9.03101
▁им	-9.03119
▁Яна	-9.03128
ня	-9.03137
▁2010	-9.03222
▁дзень	-9.03257
▁такой	-9.03572
ту	-9.03627
рэ	-9.03678
▁2006	-9.03775
▁2005	-9.03975
ши	-9.0401
▁мяж	-9.0403
▁часам	-9.04474
он	-9.04548
▁2009	-9.04722
ём	-9.04742
▁выгляд	-9.0475
▁арганізацы	-9.04874
▁яўля	-9.05123
▁асабліва	-9.05146
▁Калі	-9.05432
пачатк	-9.0544
▁атрымала	-9.05869
сть	-9.06023
▁между	-9.06159
▁канца	-9.0618
▁шматлікі	-9.06431
▁происходит	-9.06461
▁наш	-9.06577
▁некоторы	-9.06611
o	-9.06732
ор	-9.06949
▁палов	-9.0709
▁ваенны	-9.07109
▁свец	-9.0718
▁Ма	-9.07188
▁24	-9.07293
▁большасц	-9.07361
Р	-9.07492
▁Х	-9.07557
ход	-9.07585
▁самым	-9.07954
ыня	-9.08099
ды	-9.08246
▁мог	-9.08271
▁асноўным	-9.083
▁Паўднёва	-9.08305
▁сегодня	-9.08312
▁барацьб	-9.08573
16	-9.08609
▁межа	-9.08721
▁шырын	-9.08833
▁нова	-9.08889
▁такі	-9.09142
▁польска	-9.09142
▁те	-9.09363
▁Перша	-9.09425
▁тех	-9.0952
▁друг	-9.09526
63	-9.09541
▁Першы	-9.09552
▁колер	-9.09655
▁друго	-9.09847
▁сярэдзін	-9.09966
▁свае	-9.09973
▁хо	-9.10077
▁меў	-9.10159
▁образом	-9.10186
▁Мінску	-9.10251
▁буйны	-9.10438
s	-9.10817
во	-9.11049
▁апошні	-9.11193
▁момент	-9.11265
▁котор	-9.11419
▁рас	-9.11432
▁21	-9.1158
ба	-9.11689
▁Ян	-9.11731
67	-9.11752
▁каждый	-9.11981
▁вытворчасц	-9.1212
▁Ш	-9.12253
59	-9.12644
▁перед	-9.12712
▁першым	-9.12773
ец	-9.12787
▁бок	-9.12843
▁Паспаліта	-9.12844
ви	-9.13032
▁сістэм	-9.13472
цыі	-9.13585
▁дзве	-9.13647
ние	-9.137
▁Італі	-9.13708
▁22	-9.13754
▁Во	-9.13898
▁метра	-9.13943
21	-9.14023
▁28	-9.14145
▁адміністрацыйны	-9.14308
▁цэнтрам	-9.14618
▁школы	-9.14667
▁2000	-9.14685
▁галін	-9.14783
▁ўсе	-9.1497
▁сказать	-9.15005
▁аднаго	-9.15032
▁No	-9.15106
▁Украін	-9.15187
▁1918	-9.15516
▁паверхн	-9.159
че	-9.16041
a	-9.16076
ями	-9.16111
▁сістэмы	-9.1624
▁почему	-9.16367
▁Нью	-9.16417
▁гонар	-9.1665
▁Горад	-9.16708
▁краіна	-9.16762
ду	-9.1681
▁То	-9.1685
лося	-9.17266
▁сво	-9.17336
▁ер	-9.17371
до	-9.17439
▁именно	-9.17641
▁руска	-9.18035
дзень	-9.18089
алкам	-9.1844
ска	-9.18442
▁23	-9.18484
▁цела	-9.18508
ния	-9.18523
▁стварэнн	-9.18525
▁является	-9.18544
▁тэрмін	-9.18627
▁пример	-9.18629
▁асноўны	-9.18834
▁зноў	-9.18961
▁27	-9.19144
▁одна	-9.1918
▁павета	-9.19255
▁дэ	-9.19306
▁других	-9.19403
▁Як	-9.1951
▁наша	-9.19651
▁Там	-9.19731
▁шлях	-9.1977
▁теперь	-9.19802
▁караля	-9.19817
▁могли	-9.19875
▁палітычны	-9.19969
ёт	-9.20002
▁Даўж	-9.20095
ое	-9.20126
ро	-9.20127
▁наступны	-9.20269
▁детей	-9.2027
▁створаны	-9.20288
▁человека	-9.2039
▁Н	-9.20393
▁мой	-9.20445
▁мои	-9.20452
▁станцы	-9.20653
по	-9.20717
▁всегда	-9.2076
▁работы	-9.20875
▁1944	-9.20911
зна	-9.2092
ном	-9.20949
▁Поэтому	-9.21684
ще	-9.2171
▁людзей	-9.21727
▁губерні	-9.21744
▁наши	-9.2199
▁дом	-9.22059
i	-9.22086
вых	-9.22101
тор	-9.22155
▁трох	-9.22235
▁никогда	-9.2246
лен	-9.22587
▁Мінск	-9.22614
▁вместе	-9.22642
▁Ц	-9.22689
▁2004	-9.22789
стра	-9.22807
▁пункт	-9.2286
▁будаўніцтва	-9.22988
26	-9.23135
▁нашей	-9.23181
▁ваенна	-9.23337
▁пабудаваны	-9.23505
▁плошча	-9.2366
об	-9.2372
▁сярэдня	-9.23722
▁народа	-9.23831
42	-9.2384
▁прыток	-9.24053
ман	-9.24086
▁працу	-9.24194
▁мэта	-9.24231
▁Пра	-9.24244
мер	-9.24283
▁кіраўніцтва	-9.24447
▁часть	-9.24642
▁афіцыйна	-9.24756
▁займае	-9.24942
▁рэгіён	-9.24949
чу	-9.24977
▁пока	-9.25069
12	-9.25168
▁26	-9.2536
▁выкарыстоўва	-9.25488
▁план	-9.25606
▁артыкул	-9.25619
дзячы	-9.25668
▁паўночны	-9.25725
▁адбыва	-9.25809
▁Мне	-9.25914
▁будут	-9.25923
▁способ	-9.26139
мен	-9.2618
атым	-9.26231
▁три	-9.26276
▁пачалі	-9.26301
▁стал	-9.26313
▁момант	-9.26363
▁кампані	-9.26375
либо	-9.26381
▁сістэма	-9.2639
▁тое	-9.26513
▁Зямл	-9.26557
▁улад	-9.26561
▁дадзены	-9.26577
вод	-9.26672
74	-9.26742
лу	-9.26931
▁прамысловасц	-9.27061
▁использовать	-9.27175
▁2-	-9.27183
юсь	-9.27397
22	-9.27437
▁гульн	-9.27458
▁ект	-9.27663
▁жывёл	-9.2773
ными	-9.27791
▁паўднёвы	-9.27847
▁XX	-9.27922
▁200	-9.28026
▁шырока	-9.28119
48	-9.28207
▁зон	-9.28263
▁сезон	-9.28375
▁тогда	-9.2838
▁Ад	-9.2854
ком	-9.28557
ве	-9.28773
37	-9.28899
69	-9.28978
▁раслін	-9.29005
▁вёс	-9.29458
▁палітычна	-9.29769
ят	-9.30018
▁Вялікі	-9.30104
▁жыццё	-9.30165
▁такие	-9.30412
14	-9.30421
▁хотел	-9.30433
▁абарон	-9.30438
▁перад	-9.30484
▁Мо	-9.30551
ировать	-9.30623
▁Літв	-9.30645
▁новага	-9.30975
▁прадстаўнік	-9.31226
ролю	-9.31269
▁1939	-9.31338
▁нацыянальны	-9.31351
▁такое	-9.31517
▁2011	-9.3183
ение	-9.31846
▁суд	-9.31854
▁таварыства	-9.31855
▁вещи	-9.31931
▁адміністрацыйна	-9.32063
пи	-9.3207
IV	-9.32081
46	-9.32308
▁знаходзя	-9.32401
▁галоўным	-9.32605
си	-9.32641
▁ко	-9.32685
▁потом	-9.32716
енавіта	-9.3272
▁скончыў	-9.32725
вать	-9.32789
бы	-9.32884
▁добра	-9.32892
▁Беларускі	-9.33119
▁важно	-9.3313
▁него	-9.33138
▁лишь	-9.33383
▁эпох	-9.33452
▁ўдзел	-9.33454
мову	-9.33497
▁створана	-9.33518
забав	-9.33616
▁Одна	-9.33798
би	-9.33823
бо	-9.33914
ения	-9.33948
▁матэрыял	-9.34073
▁Праз	-9.34225
▁P	-9.34228
▁палітык	-9.34747
▁бера	-9.3495
▁знаю	-9.34999
▁структур	-9.35109
▁тот	-9.35117
▁рост	-9.35196
▁важны	-9.35291
▁рэк	-9.35368
вед	-9.35513
де	-9.35655
▁Літоўска	-9.3568
▁1919	-9.3575
▁незалежнасц	-9.35781
▁ўлад	-9.35835
58	-9.35857
GC	-9.36022
▁штат	-9.36054
▁збор	-9.36317
еще	-9.36394
▁Парыж	-9.36403
▁навуковы	-9.36627
▁1-	-9.36732
▁1917	-9.36795
▁вышын	-9.36819
▁народ	-9.36853
▁інша	-9.37116
▁нямецка	-9.3716
▁Мікала	-9.37186
▁выкарыстоўвае	-9.37196
81	-9.37383
▁рускі	-9.37542
▁наших	-9.37561
▁Друго	-9.3781
▁спадчын	-9.37874
▁Все	-9.3803
▁Азі	-9.38045
▁народна	-9.38173
▁немного	-9.38248
▁якую	-9.38259
▁Савета	-9.38292
▁ничего	-9.3831
▁войн	-9.38349
▁ўрад	-9.38352
▁XVII	-9.3846
▁Рым	-9.38561
▁дзяце	-9.3859
17	-9.38622
раз	-9.38778
▁акруг	-9.38917
23	-9.38958
▁басейн	-9.39002
32	-9.39079
▁ём	-9.39118
▁ре	-9.39192
▁Скончыў	-9.39229
▁затем	-9.39235
▁последни	-9.39322
▁говорит	-9.39462
▁ўніверсітэта	-9.39503
▁США	-9.3961
▁асобны	-9.39628
▁дома	-9.39701
▁ля	-9.39852
▁нарадзі	-9.39888
▁друга	-9.3997
ан	-9.4003
▁даўжын	-9.40078
▁хутка	-9.40103
▁галоўна	-9.40144
▁віда	-9.40258
▁сталіца	-9.40274
▁князя	-9.40343
▁размешчана	-9.40363
▁ма	-9.40451
06	-9.40453
▁Теперь	-9.40865
▁истории	-9.4087
У	-9.40923
▁хорошо	-9.40958
▁клуб	-9.41053
▁помнік	-9.41195
Б	-9.41196
▁мела	-9.41235
▁тэоры	-9.41246
ете	-9.41252
▁прэзідэнта	-9.41325
▁удзел	-9.41329
видите	-9.41382
ности	-9.41405
▁миллион	-9.41483
▁60	-9.41529
лю	-9.4153
▁выпадк	-9.4153
▁мира	-9.41721
плыў	-9.41739
▁1920	-9.41755
▁таким	-9.41757
▁моцна	-9.41759
▁змен	-9.41784
88	-9.41826
▁бацьк	-9.4184
+	-9.41949
▁прыкладна	-9.4199
34	-9.42049
▁конечно	-9.42121
▁понять	-9.42123
▁штата	-9.42131
▁Саюза	-9.42326
▁мозг	-9.4237
▁езд	-9.42532
▁чаго	-9.42616
▁мелі	-9.4268
▁таких	-9.42696
▁загад	-9.42697
ер	-9.42742
▁галоўны	-9.42824
▁буду	-9.42857
▁прыватна	-9.43004
▁N	-9.43029
▁раней	-9.43134
▁проблема	-9.4314
▁начал	-9.43151
▁цэнтральна	-9.43174
▁Адзін	-9.43278
▁нямецкі	-9.43292
▁около	-9.43488
▁узроўн	-9.43567
▁месяц	-9.43623
▁любо	-9.43691
▁та	-9.43698
▁работа	-9.43704
▁савецкі	-9.43841
▁княства	-9.43863
05	-9.44111
▁Дж	-9.44239
▁ўз	-9.44285
▁перш	-9.44446
▁поў	-9.44526
▁прэмі	-9.44544
▁прызначаны	-9.44609
узор	-9.44634
ова	-9.44692
▁правінцы	-9.44721
▁знаем	-9.44838
▁Айчынна	-9.44904
▁вад	-9.44913
▁знаете	-9.45127
▁аўтар	-9.45164
▁востра	-9.45476
▁школа	-9.45514
▁дзяржава	-9.45557
тер	-9.45564
▁Гомельска	-9.45757
▁мясцовы	-9.45763
▁тэрыторыя	-9.45793
▁1945	-9.45803
бі	-9.45995
гле	-9.46021
▁Савецка	-9.46143
▁развіццё	-9.46204
▁будын	-9.46269
▁дзён	-9.46528
▁памёр	-9.46571
▁оно	-9.46589
▁творчасц	-9.46626
ство	-9.46647
▁школу	-9.46698
эн	-9.46711
▁29	-9.46724
▁Быў	-9.46849
▁одной	-9.46951
▁2001	-9.46996
▁пред	-9.47
▁ответ	-9.47062
▁результат	-9.47199
▁праца	-9.47203
вой	-9.47209
▁польскі	-9.47247
▁другие	-9.47262
▁пачат	-9.47289
▁ступен	-9.47379
▁характар	-9.47403
▁1990	-9.47428
▁разны	-9.47443
▁кіраванн	-9.4763
▁Аўтар	-9.47634
▁гарадско	-9.47695
▁КП	-9.47828
А	-9.47869
▁проект	-9.4794
▁место	-9.4794
▁уваходзі	-9.47967
▁ні	-9.47994
ность	-9.48033
▁сцяг	-9.48039
▁падзе	-9.4811
емся	-9.48114
чных	-9.48133
_	-9.48173
▁поэтому	-9.48174
▁ўніверсітэт	-9.48178
▁выступа	-9.48184
▁войскам	-9.48206
▁высока	-9.48209
▁Нарадзі	-9.48251
ков	-9.48319
▁2002	-9.4851
чна	-9.4854
чно	-9.48589
▁усе	-9.48739
▁гор	-9.48938
амак	-9.49008
▁акадэмі	-9.49009
▁чего	-9.4903
▁будзе	-9.49055
▁правы	-9.49082
▁шлюб	-9.49106
▁прычын	-9.49124
36	-9.49132
бер	-9.49146
▁1991	-9.49263
▁долларов	-9.49446
▁сучасны	-9.49495
ння	-9.49613
▁завод	-9.4985
▁статус	-9.49875
▁такім	-9.49876
▁французска	-9.49893
▁земля	-9.49981
▁р	-9.50028
▁рэвалюцы	-9.50097
▁1943	-9.50113
▁перамог	-9.50165
▁усход	-9.50192
13	-9.50314
▁астрав	-9.50362
▁S	-9.50379
▁гарадо	-9.50435
▁бітв	-9.50547
▁помощью	-9.50557
▁пор	-9.50569
▁снова	-9.50618
из	-9.50644
▁мас	-9.50709
▁адносін	-9.50739
гі	-9.5085
ци	-9.50882
тоже	-9.50969
▁работу	-9.51023
▁возможность	-9.51249
ите	-9.51274
▁школе	-9.51296
▁беларус	-9.5131
08	-9.51326
▁идея	-9.5134
▁верш	-9.51386
▁Ва	-9.51447
▁80	-9.51504
бр	-9.5155
дзі	-9.51575
▁ему	-9.51578
▁архітэктур	-9.51608
▁гістарычны	-9.51624
вай	-9.51655
▁найти	-9.51668
▁Вільн	-9.51756
▁абраны	-9.51834
▁одно	-9.52019
▁чыгуначна	-9.52199
▁Найбольш	-9.52229
▁вярну	-9.52275
09	-9.52307
▁іншым	-9.52344
▁создать	-9.52386
▁магл	-9.52451
▁процесс	-9.52476
▁навукова	-9.52482
▁палац	-9.52646
род	-9.52707
▁Аляксандр	-9.52814
07	-9.5304
▁другі	-9.53095
цкі	-9.53432
▁значны	-9.53526
сколько	-9.53571
▁Чырвона	-9.53664
▁проблемы	-9.53668
▁Ле	-9.53728
ель	-9.5376
11	-9.53821
ярод	-9.53862
▁которым	-9.53888
▁паўночным	-9.53953
▁2003	-9.53996
▁маці	-9.54004
▁мм	-9.54025
▁Нацыянальна	-9.54067
▁V	-9.54123
▁дня	-9.54218
эр	-9.54222
▁касцёл	-9.54241
▁Лондан	-9.54316
▁група	-9.54388
▁значэнне	-9.54456
▁справа	-9.54493
▁1999	-9.54589
▁1940	-9.54678
▁старажытны	-9.5479
▁музей	-9.54883
ос	-9.54936
▁Потому	-9.54997
▁500	-9.5511
▁курс	-9.55267
▁1930	-9.55299
▁будынка	-9.55417
куль	-9.55449
сі	-9.55509
дзе	-9.5559
▁стать	-9.55603
скім	-9.55643
▁кожна	-9.55719
▁говорил	-9.56012
гра	-9.56015
▁кожны	-9.56026
▁брат	-9.56037
▁Вялікабрытані	-9.56129
▁заснаваны	-9.56166
▁э	-9.56208
▁Гродзенска	-9.56234
▁паселішча	-9.56272
▁карол	-9.56275
▁праблем	-9.56456
▁Цэнтральна	-9.56525
▁дзейніча	-9.56556
лов	-9.56585
▁праходзі	-9.566
▁падзел	-9.56621
▁факт	-9.56636
3	-9.56751
▁случае	-9.56799
пу	-9.56806
▁Англі	-9.56836
▁женщин	-9.56837
▁for	-9.56899
▁орган	-9.57019
▁первы	-9.57048
▁каждо	-9.57174
ги	-9.57306
▁Ч	-9.57309
▁магчыма	-9.57372
▁пре	-9.57487
▁нар	-9.57508
▁вострава	-9.57559
▁паход	-9.5756
▁мноства	-9.57681
▁замежны	-9.57695
▁мозга	-9.57696
▁ідэ	-9.57734
▁пісьменнік	-9.57801
юю	-9.57817
▁выбара	-9.5804
гл	-9.58076
ник	-9.58226
▁Эти	-9.58226
нне	-9.5826
▁гістарычна	-9.58364
93	-9.58454
▁Нова	-9.58484
▁Заснаван	-9.58619
▁Магілёўска	-9.58645
нибудь	-9.5886
▁працавал	-9.58928
▁ф	-9.5893
▁Больш	-9.58944
али	-9.58983
▁Почему	-9.59119
ически	-9.5915
ейчас	-9.5915
18	-9.59176
гу	-9.59198
96	-9.59238
▁данные	-9.59241
дер	-9.59268
льны	-9.59292
бач	-9.59401
▁дзеяння	-9.59556
▁дело	-9.59571
▁дапамога	-9.59592
▁работает	-9.59633
▁кра	-9.59653
▁моя	-9.5968
▁VI	-9.59692
боку	-9.59707
▁паўднёвым	-9.59801
▁делает	-9.59946
ать	-9.60076
ус	-9.60162
l	-9.60201
▁звязаны	-9.60221
▁замка	-9.60436
▁имеет	-9.60501
▁Ня	-9.60585
К	-9.60592
▁больша	-9.60748
▁крыніц	-9.6081
▁земл	-9.60885
рацэ	-9.60952
▁достаточно	-9.60972
04	-9.61062
▁савецка	-9.611
▁1924	-9.61112
▁течение	-9.61117
mula	-9.61124
лы	-9.61165
▁адносна	-9.61303
▁выбар	-9.61322
▁котором	-9.61347
скую	-9.61504
▁Лі	-9.61554
▁актыўна	-9.61604
ев	-9.61611
▁цяперашні	-9.61831
▁Са	-9.61854
▁бак	-9.6188
▁ляс	-9.61928
кой	-9.61931
▁Амерык	-9.62016
95	-9.62228
▁размяшча	-9.62259
▁почти	-9.62275
▁мір	-9.62295
кс	-9.62312
▁работать	-9.62354
▁вуліца	-9.62365
▁адкрыты	-9.62657
▁смысл	-9.62665
▁Пазней	-9.62722
год	-9.62736
▁При	-9.62796
▁дзяку	-9.62811
колькі	-9.62813
▁ста	-9.62815
▁прямо	-9.62832
▁грамадска	-9.62833
▁сад	-9.62856
нт	-9.62903
ава	-9.62915
▁адзінка	-9.63027
▁знак	-9.63171
▁увидеть	-9.6326
▁значит	-9.63324
▁должен	-9.6335
▁300	-9.63439
▁жыў	-9.63494
▁існавал	-9.63597
▁ЦК	-9.63631
▁Нам	-9.6364
▁Ты	-9.63752
▁2012	-9.63774
▁какой	-9.6378
▁каманд	-9.63783
вады	-9.63819
▁всем	-9.63858
▁технологии	-9.63863
▁імператара	-9.639
▁жанчын	-9.63925
▁сродк	-9.63981
▁сталіц	-9.63996
со	-9.64022
бра	-9.64192
▁апошня	-9.64221
рад	-9.64407
▁спіс	-9.64481
▁праводзі	-9.64555
кры	-9.64624
▁надо	-9.64737
▁даследавання	-9.64773
▁людз	-9.6482
▁сельска	-9.64917
нд	-9.65063
▁будынк	-9.65102
▁Ка	-9.65116
стро	-9.65177
▁складаю	-9.6533
ски	-9.6539
пол	-9.65459
▁количество	-9.65567
пад	-9.6557
ров	-9.6558
▁мясцова	-9.6564
▁31	-9.6565
▁выйшл	-9.65688
▁Гродн	-9.65812
▁Ну	-9.6586
▁азёр	-9.65904
▁Тут	-9.65936
▁вид	-9.65977
▁членам	-9.66004
сты	-9.66026
▁тытул	-9.66049
ешь	-9.66057
▁Такім	-9.66135
ясь	-9.6616
ыми	-9.66199
▁паходжанн	-9.66228
▁Некаторы	-9.66274
▁тэмпература	-9.66279
▁гарадскі	-9.66296
▁прыняў	-9.66325
▁прынцып	-9.6646
пе	-9.66523
▁паэт	-9.66523
▁Усходня	-9.66549
▁інстытут	-9.66664
таў	-9.66776
▁многие	-9.66832
▁Кар	-9.67008
▁крыніца	-9.67167
▁эканамічна	-9.6722
▁Віленска	-9.6724
▁кажет	-9.67395
▁англійска	-9.67524
▁называю	-9.67582
▁стали	-9.67592
Г	-9.6776
▁150	-9.67795
▁кіраўнік	-9.67826
▁кан	-9.67969
▁чатыр	-9.68144
▁невялікі	-9.68287
пл	-9.68364
▁адносі	-9.68396
▁народны	-9.68414
▁видим	-9.68418
▁гульня	-9.6853
▁быстро	-9.6859
▁групп	-9.6862
▁оста	-9.68637
▁карт	-9.68689
▁Іспані	-9.68728
▁Маскоўска	-9.68805
▁дзяржаў	-9.68835
▁проста	-9.68849
10	-9.68978
дел	-9.6899
▁Давайте	-9.69002
r	-9.6903
98	-9.69073
▁1998	-9.69157
▁пакінуў	-9.69251
▁Тольк	-9.69289
▁1994	-9.6952
▁князь	-9.69633
00	-9.69782
▁показать	-9.69784
раб	-9.6979
▁людям	-9.69861
тады	-9.6987
▁поўна	-9.699
▁часы	-9.69976
тся	-9.70039
▁музык	-9.70041
▁адрозніва	-9.70059
ает	-9.70155
▁вакол	-9.70196
▁перво	-9.70273
▁рэгіёна	-9.7043
▁тэатр	-9.70556
▁меньше	-9.70658
▁Брэсцка	-9.70669
бл	-9.70721
▁партыя	-9.70793
▁французскі	-9.7083
▁ее	-9.70848
G	-9.70903
▁планеты	-9.71059
▁апыну	-9.71118
▁весь	-9.71135
▁канал	-9.71203
▁застава	-9.71231
▁A	-9.7128
▁белы	-9.71341
▁праект	-9.71413
тар	-9.7142
▁правіла	-9.71431
▁станцыя	-9.71469
каў	-9.71617
▁Га	-9.71642
ол	-9.71662
▁справ	-9.71714
▁мор	-9.71738
▁імператар	-9.71762
▁Сярэдня	-9.71802
▁становішча	-9.71876
▁займаў	-9.71925
▁система	-9.71925
▁две	-9.71971
▁практычна	-9.72003
▁твора	-9.72083
▁2013	-9.7215
▁фронт	-9.72499
▁Хо	-9.72526
ваў	-9.72533
▁песн	-9.72543
шего	-9.72564
▁ўсім	-9.72615
▁думк	-9.72666
▁грамадскі	-9.72782
▁камун	-9.72803
▁право	-9.72965
▁акіяна	-9.73016
▁Ме	-9.73088
▁прынята	-9.73101
▁1989	-9.73139
▁прырод	-9.73296
▁размяшчае	-9.73305
▁рашэнне	-9.73309
▁прэм	-9.7343
y	-9.73578
▁міжнародны	-9.73583
▁альбо	-9.7361
▁1995	-9.73658
▁заснавана	-9.73665
▁няма	-9.73677
▁изменить	-9.7381
гр	-9.73833
▁гаспадарк	-9.7388
нос	-9.7396
▁1996	-9.73964
▁заходня	-9.73972
▁хто	-9.74009
▁Был	-9.74028
▁рэспублік	-9.74043
▁1938	-9.7405
d	-9.74057
▁начали	-9.74127
n	-9.74128
▁храм	-9.74164
▁фільм	-9.74189
▁часто	-9.74262
▁сялян	-9.74278
▁ўзроўн	-9.74396
▁всему	-9.74416
▁Член	-9.74495
▁усё	-9.74596
кор	-9.74615
▁паходзі	-9.74623
▁этому	-9.74685
тель	-9.74719
▁совершенно	-9.74786
▁існуе	-9.74786
▁расійскі	-9.74831
p	-9.74934
▁літоўска	-9.74935
▁прэзідэнт	-9.74971
▁Новы	-9.74997
▁Пятр	-9.75073
▁своё	-9.75147
▁1993	-9.75174
▁1997	-9.75279
89	-9.75314
▁стст	-9.75362
▁служб	-9.75384
▁ды	-9.75407
▁ме	-9.75463
▁мастак	-9.75567
ран	-9.75568
▁высокі	-9.75619
▁необходимо	-9.75625
▁ваше	-9.75666
▁Ла	-9.75678
▁генерал	-9.75685
▁выкарыстоўваю	-9.75768
▁карцін	-9.75892
▁жывапіс	-9.76005
▁Нет	-9.76012
▁пыта	-9.76043
▁БН	-9.76067
▁вярнуў	-9.76097
▁паўстання	-9.76189
▁пачынае	-9.76209
▁наше	-9.76211
▁B	-9.76233
▁слишком	-9.76312
▁месяца	-9.76534
▁конкурс	-9.76621
▁грамадства	-9.76825
▁ведь	-9.76839
▁Аляксандра	-9.76891
▁Асноўны	-9.76937
▁рэдакцы	-9.77031
▁люты	-9.77041
▁пачала	-9.77067
▁комплекс	-9.77074
▁говорить	-9.77203
▁выраб	-9.77229
▁сына	-9.77271
▁совсем	-9.77342
про	-9.77346
▁жыцц	-9.77428
▁основ	-9.77533
▁газеты	-9.77546
▁70	-9.77551
▁спраў	-9.77553
▁одного	-9.77562
▁чаргу	-9.77606
▁складала	-9.7769
▁філасофі	-9.7776
▁пачало	-9.77771
▁видео	-9.77808
ваны	-9.77845
▁заканчэнн	-9.77861
▁часопіс	-9.77912
пер	-9.77927
▁рук	-9.77992
▁части	-9.78099
▁кон	-9.78149
▁перапіс	-9.78173
роде	-9.782
она	-9.78211
▁саюз	-9.78263
▁Ю	-9.78281
▁карыста	-9.78333
▁гімназі	-9.78384
▁музея	-9.78486
бе	-9.78532
▁собой	-9.78594
нг	-9.786
▁гара	-9.78685
▁адукацыі	-9.78698
▁парк	-9.78711
▁праграм	-9.78712
сабе	-9.78736
V	-9.78788
▁примерно	-9.78899
▁ваяводства	-9.78909
▁сакратар	-9.7908
лад	-9.79111
▁зборна	-9.79114
▁стане	-9.79166
▁Інды	-9.79169
ведаў	-9.79196
▁значы	-9.79232
▁моў	-9.79254
кон	-9.79333
▁системы	-9.79339
▁амерыканскі	-9.79436
зы	-9.79656
▁велічын	-9.79701
▁Кіта	-9.79737
▁кошт	-9.79765
зи	-9.79834
▁видеть	-9.79834
веце	-9.79852
тры	-9.79992
▁Ж	-9.80131
▁звязана	-9.80216
▁гэту	-9.80263
▁довольно	-9.80291
▁л	-9.80332
▁страны	-9.80334
ща	-9.80381
ющие	-9.80409
ним	-9.80529
▁тэатра	-9.80577
▁сами	-9.80636
▁ўваходзіл	-9.80688
▁явілі	-9.80883
ностью	-9.80918
раж	-9.80963
▁слов	-9.80964
вали	-9.81011
▁адкрыта	-9.81035
▁Про	-9.81044
▁проблем	-9.81122
десь	-9.81126
▁форма	-9.81184
▁даследчык	-9.81202
▁асоб	-9.81214
ис	-9.81236
▁прадстаўніко	-9.8127
▁сабор	-9.81461
▁многих	-9.81465
▁вокруг	-9.81495
▁цэнтра	-9.81529
64	-9.8161
▁код	-9.8165
▁сделали	-9.81665
▁Княства	-9.81679
место	-9.81713
кую	-9.81768
▁Пачына	-9.8179
▁мало	-9.81794
даволі	-9.81807
▁миру	-9.8193
▁ўрада	-9.81951
▁атрымал	-9.821
пра	-9.82149
▁пытання	-9.82282
▁Эта	-9.82283
▁стан	-9.82388
ступіў	-9.82423
▁Сан	-9.8246
▁кірунк	-9.82483
94	-9.82515
лет	-9.82537
▁1929	-9.82555
▁Знаходзі	-9.8266
ают	-9.82681
▁Тым	-9.82729
ас	-9.82739
ская	-9.82755
вар	-9.82946
▁Рымска	-9.83079
▁залежнасц	-9.83097
▁герб	-9.83121
▁адначасов	-9.83126
▁вялікім	-9.8315
▁воды	-9.83181
тан	-9.83227
▁лес	-9.83251
▁внимание	-9.83317
▁Акадэмі	-9.83358
▁1927	-9.83413
▁Ко	-9.83498
▁Ест	-9.83518
весь	-9.83521
▁сход	-9.8353
доўж	-9.83604
▁стары	-9.83628
▁своим	-9.83679
▁причин	-9.8369
▁ново	-9.83795
30	-9.83938
▁говорят	-9.83959
пісаў	-9.84006
▁вялік	-9.84049
▁2014	-9.84053
▁функцы	-9.84111
ющих	-9.8424
П	-9.84301
▁падобны	-9.84319
78	-9.84341
▁этап	-9.84365
▁чэмпіянат	-9.84403
ской	-9.84455
▁подумал	-9.84534
ёр	-9.84578
t	-9.84684
▁Всё	-9.84698
▁информации	-9.84757
▁цен	-9.84771
▁явіла	-9.8491
▁Дзяржаўна	-9.84932
нят	-9.84938
▁де	-9.8494
хотим	-9.84954
▁каза	-9.84985
▁арганізацыя	-9.85034
▁атрад	-9.85048
бор	-9.85223
чны	-9.85284
▁гл	-9.853
▁конце	-9.85303
▁90	-9.8545
▁процент	-9.85499
тра	-9.85594
▁пісьменніка	-9.85594
▁населены	-9.85617
▁обычно	-9.85684
йти	-9.85692
▁інстытута	-9.85715
▁пабудавана	-9.85751
▁опер	-9.85785
▁жонка	-9.85854
С	-9.85871
▁Полацка	-9.85911
▁задач	-9.86106
▁мала	-9.86163
▁эксперимент	-9.86193
▁глыбін	-9.86288
ющий	-9.86306
▁внутри	-9.8633
▁крэпасц	-9.86335
▁стоит	-9.86357
▁1960	-9.86391
▁существует	-9.86412
▁делают	-9.86441
▁ба	-9.86481
▁создал	-9.86585
▁мяжу	-9.86588
▁св	-9.86702
він	-9.86704
▁вышынё	-9.86744
ально	-9.86837
▁уз	-9.8691
▁история	-9.87064
▁вострав	-9.87074
76	-9.87163
▁зрабіў	-9.87173
▁ўвайшл	-9.87284
▁акт	-9.87349
▁различны	-9.87359
ическо	-9.87374
▁каралё	-9.87443
▁гадзін	-9.87515
▁часткова	-9.87655
▁пару	-9.87682
“	-9.877
▁телефон	-9.877
означает	-9.87904
▁астравы	-9.87941
▁найбуйнейшы	-9.87942
▁поспех	-9.87969
дразу	-9.88018
▁сто	-9.88043
54	-9.88049
▁факультэт	-9.88061
▁стороны	-9.8807
▁получить	-9.88071
▁Мары	-9.88082
▁святы	-9.88098
эт	-9.88135
стаў	-9.88137
сельскагаспадарч	-9.88161
68	-9.88163
▁минут	-9.88235
▁доступ	-9.88308
▁выхад	-9.88352
вен	-9.88386
йте	-9.88428
ости	-9.88457
ист	-9.88472
▁1925	-9.8854
▁35	-9.88553
20	-9.88589
столько	-9.88613
82	-9.88626
▁находит	-9.8867
▁міжнародна	-9.88744
▁Каля	-9.8881
▁трэці	-9.88852
77	-9.88859
▁літоўскі	-9.88909
▁перайшоў	-9.8898
▁Уладзімір	-9.89037
▁исследования	-9.89144
▁кіраўніко	-9.89212
стан	-9.89292
▁компьютер	-9.8945
▁магчымасць	-9.89479
▁манастыр	-9.89517
▁ліпені	-9.89565
ирует	-9.89569
▁ўваходзі	-9.89604
▁сем	-9.8962
▁стылі	-9.89742
овать	-9.89865
▁рэлігійны	-9.89928
▁дынасты	-9.90046
▁Варшав	-9.9007
след	-9.90086
▁каталога	-9.90131
цтва	-9.90231
85	-9.90239
▁До	-9.90243
▁сделал	-9.90261
бу	-9.90308
▁праваслаўна	-9.90458
▁людьми	-9.90496
▁прыняты	-9.90538
▁дух	-9.90542
▁Св	-9.90643
▁доўгі	-9.90838
▁мястэчка	-9.90842
▁данных	-9.90882
▁арганізацый	-9.90886
▁храма	-9.90891
▁пазіцы	-9.90936
▁Гомел	-9.90995
ции	-9.91017
▁галактыка	-9.91027
▁энергии	-9.91138
▁сильно	-9.91182
▁Карл	-9.91194
иться	-9.91304
▁ліча	-9.91336
нии	-9.91364
рон	-9.91438
▁цар	-9.91523
▁1962	-9.91684
▁Расія	-9.91687
▁Афрык	-9.91702
▁адзіна	-9.91702
▁падтрымк	-9.9172
▁особенно	-9.91769
▁рассказать	-9.91808
эй	-9.91816
шчэ	-9.91856
авіч	-9.91962
▁пераход	-9.92012
99	-9.92035
▁дети	-9.92069
▁новые	-9.92078
▁бацька	-9.92095
▁распаўсюджаны	-9.92284
▁прац	-9.92325
▁историю	-9.92362
▁зборнік	-9.92387
▁начала	-9.92444
▁пасёл	-9.92454
▁бераг	-9.92555
лон	-9.92609
еж	-9.92637
▁Санк	-9.92684
▁адносяц	-9.92746
▁версі	-9.92763
66	-9.92764
▁воласц	-9.92793
▁места	-9.92892
▁Об	-9.92912
▁вод	-9.92954
▁камітэта	-9.92964
▁Нацыянальны	-9.9307
ирован	-9.93169
▁решения	-9.93223
▁рэформ	-9.93241
▁душ	-9.93244
▁1931	-9.9326
▁адлегласц	-9.93303
▁программ	-9.93332
▁эканомік	-9.9334
73	-9.93349
c	-9.93358
▁плане	-9.93423
▁банк	-9.93447
▁універсітэц	-9.93493
▁Ар	-9.93541
▁TED	-9.93615
▁Сегодня	-9.93615
▁Сусветна	-9.93831
▁стран	-9.93838
▁варыянт	-9.93858
▁прафесар	-9.93887
▁Люд	-9.93933
вид	-9.94097
▁Ба	-9.94115
нес	-9.94122
▁Карла	-9.94189
▁жніўні	-9.94196
нее	-9.94197
25	-9.94203
▁технологи	-9.9431
▁маі	-9.94324
▁X	-9.94328
▁ня	-9.94369
▁верхня	-9.94383
▁ген	-9.94498
▁АН	-9.94562
▁должно	-9.94599
▁против	-9.94622
ват	-9.94665
84	-9.94675
▁мастацка	-9.94719
лады	-9.94773
ёды	-9.94871
нь	-9.94884
▁працава	-9.94889
▁машын	-9.94967
▁выбор	-9.94994
▁хотя	-9.95082
▁павет	-9.95093
▁Усе	-9.95095
▁всю	-9.9511
▁берага	-9.95129
▁меж	-9.95136
▁клас	-9.95264
дава	-9.95284
▁губерня	-9.95293
▁пункта	-9.95297
▁стало	-9.95349
се	-9.95362
▁трэця	-9.95393
▁вами	-9.95567
▁беларуск	-9.95581
▁одну	-9.95709
▁ра	-9.95718
▁прадпрыемства	-9.95806
ёў	-9.95867
вую	-9.95948
▁рэчыва	-9.96005
▁сложно	-9.96013
кан	-9.96014
▁часопіса	-9.96025
▁Го	-9.96073
▁кафедр	-9.96236
15	-9.96237
▁газета	-9.96264
▁От	-9.96297
▁Польска	-9.96343
лежыць	-9.96422
▁поле	-9.96483
▁города	-9.96494
72	-9.96505
▁Аўстралі	-9.96584
▁чём	-9.96593
▁Дэ	-9.96617
сы	-9.96632
▁Ра	-9.96644
▁верасні	-9.96646
ского	-9.96661
▁павінна	-9.96676
▁расійска	-9.96703
▁еўрапейскі	-9.96716
▁становит	-9.96758
▁напісаў	-9.96797
▁тэкст	-9.96813
▁гандл	-9.96822
▁серы	-9.96841
ню	-9.96887
▁правёў	-9.96889
▁княз	-9.96924
▁раўнін	-9.97015
ровень	-9.97125
▁точно	-9.97215
▁Раз	-9.97226
▁Назва	-9.97269
▁выдання	-9.97295
▁атрыма	-9.97307
▁2015	-9.97383
▁Ха	-9.97435
▁названы	-9.97438
▁1980	-9.9744
▁незалежна	-9.97556
▁Со	-9.97776
ид	-9.97782
▁компании	-9.97814
▁смерц	-9.97872
▁Сярэдні	-9.97873
▁Больша	-9.97929
сел	-9.97951
▁1000	-9.97985
▁фонд	-9.97991
▁перайшл	-9.97991
9	-9.98082
▁постоянно	-9.98093
▁Пол	-9.98149
▁неё	-9.98158
▁сцяга	-9.98194
▁ос	-9.98378
75	-9.98413
▁ахов	-9.98431
▁літаратурна	-9.98469
▁ним	-9.98493
▁буд	-9.98563
▁следующи	-9.98567
▁правінцыя	-9.9859
▁400	-9.98633
▁XV	-9.98718
▁развіва	-9.98733
▁тэмператур	-9.9874
▁ноч	-9.98765
▁удзельніча	-9.98834
лер	-9.98923
▁кого	-9.98926
▁міністра	-9.98934
ость	-9.98957
▁Сцяг	-9.98999
Пецярбург	-9.99001
ись	-9.99047
▁павінны	-9.99065
ала	-9.99074
▁звук	-9.99101
фа	-9.99187
▁нумар	-9.99256
▁Андрэ	-9.9926
▁экспедыцы	-9.99335
▁астатні	-9.99385
▁такая	-9.99419
▁Можн	-9.99449
▁элемент	-9.99521
ому	-9.99523
▁інфармацы	-9.99535
▁адно	-9.99577
дать	-9.99704
▁Размешчан	-9.9971
▁увидел	-9.99776
▁вадазбор	-9.99845
▁гісторык	-9.99855
▁салдат	-9.99903
▁глеб	-9.99937
▁стварыў	-9.99961
▁пабудов	-10.0013
▁1970	-10.0014
▁канчаткова	-10.0016
▁помоч	-10.0016
нной	-10.0017
нка	-10.0021
▁паступова	-10.003
▁Рас	-10.0038
▁футбол	-10.0041
▁сказала	-10.0042
▁0	-10.0042
▁Адміністрацыйны	-10.0055
▁изменения	-10.0055
▁деньги	-10.0057
▁гаспадар	-10.0058
▁раман	-10.0064
▁Та	-10.0066
▁акцёр	-10.007
▁представить	-10.0072
▁БД	-10.0073
▁рода	-10.0075
u	-10.0077
▁большой	-10.0077
Ёрк	-10.0082
▁Царкв	-10.0082
жыць	-10.0085
ско	-10.0088
▁камп	-10.0092
▁выйшаў	-10.0095
▁1956	-10.0096
▁возможности	-10.01
дж	-10.0106
▁1928	-10.0108
▁ўдзельніча	-10.0114
▁канфлікт	-10.0115
▁45	-10.0122
▁яднання	-10.0124
▁уверен	-10.0138
▁згадвае	-10.0144
▁благодаря	-10.0144
▁зале	-10.0149
▁интерес	-10.0152
▁Вярхоўна	-10.016
▁Буда	-10.0177
▁свабод	-10.0183
▁кры	-10.0186
пор	-10.0186
▁памяц	-10.0194
▁зрения	-10.02
▁оп	-10.0202
▁Армі	-10.0205
тр	-10.0208
▁другім	-10.0214
▁раздзел	-10.023
▁1954	-10.0232
▁1986	-10.0238
ится	-10.0251
▁дела	-10.0258
▁Конечн	-10.0259
▁шляхам	-10.0275
▁вымушаны	-10.028
▁жанр	-10.0281
▁Францыя	-10.0288
вляются	-10.0288
▁сут	-10.0307
A	-10.0308
▁точки	-10.031
▁цвет	-10.031
▁мужчын	-10.0313
▁газ	-10.0316
▁начинает	-10.0319
сце	-10.0325
▁называет	-10.0325
▁кампанія	-10.0331
▁пераклад	-10.0333
▁вывуча	-10.0337
▁існаванн	-10.0343
▁мере	-10.0348
▁начать	-10.0362
▁плямён	-10.0363
▁размер	-10.0364
лом	-10.0365
ены	-10.0365
▁прав	-10.0369
▁опыт	-10.037
▁вышэйша	-10.0371
▁понял	-10.0385
▁Германія	-10.0387
▁супольнасц	-10.0391
▁азначае	-10.0395
▁вышыня	-10.0399
▁напрамк	-10.0407
▁цячэнн	-10.0408
▁адрозненне	-10.0409
кра	-10.0412
▁Нарвегі	-10.0414
▁футбаліст	-10.0414
▁Агульна	-10.0428
▁эканамічны	-10.044
▁музе	-10.0441
▁говорю	-10.0442
▁ордэна	-10.0448
ир	-10.045
учи	-10.0454
▁иметь	-10.0458
▁меры	-10.046
▁будем	-10.0466
▁Гомель	-10.047
▁мной	-10.0473
▁новым	-10.0475
▁город	-10.0481
▁фактычна	-10.0483
▁оказа	-10.0487
▁красавіку	-10.0491
▁явіў	-10.0491
▁ник	-10.0497
▁стварэнне	-10.0503
▁форму	-10.0511
65	-10.0511
▁фон	-10.0521
▁множество	-10.0525
▁1975	-10.0527
90	-10.0529
▁такого	-10.0538
▁ДНК	-10.0538
er	-10.0542
▁сімвал	-10.0553
▁выкарыстанн	-10.0555
▁рыс	-10.0558
▁армія	-10.0565
шча	-10.0575
▁павін	-10.0576
▁горазд	-10.0578
ант	-10.0597
▁Свято	-10.06
стве	-10.0602
▁информацию	-10.0606
▁праваслаўны	-10.061
▁решение	-10.0615
▁заўс	-10.0615
▁кг	-10.0617
Ф	-10.062
▁грамадзян	-10.0625
нс	-10.0625
▁камісі	-10.0642
ана	-10.0644
тельно	-10.0644
▁женщины	-10.0647
▁верагодна	-10.0647
▁сможем	-10.0647
▁афіцыйны	-10.0648
▁лагер	-10.065
83	-10.0651
цей	-10.0655
▁зараз	-10.0655
▁пост	-10.0655
▁тра	-10.066
▁адпаведна	-10.0661
▁арыгінальна	-10.0661
b	-10.0664
▁1,5	-10.0667
35	-10.0676
рат	-10.0682
▁каталіцка	-10.0684
▁лёгка	-10.069
лан	-10.0696
▁канферэнцы	-10.0697
тро	-10.0698
▁1950	-10.0698
▁большинство	-10.0699
▁палаца	-10.07
▁запас	-10.07
▁культурны	-10.0705
▁вучылішча	-10.0706
▁Таким	-10.0714
трэба	-10.0724
▁называе	-10.0724
▁воз	-10.0726
овой	-10.073
▁млрд	-10.0731
▁бібліятэк	-10.0732
▁1984	-10.0735
▁спросил	-10.0743
▁должна	-10.0745
▁клуба	-10.0746
▁займа	-10.0747
▁пяць	-10.0748
▁Згодн	-10.0761
55	-10.0766
▁Турцы	-10.0767
▁невяліка	-10.0768
▁гарады	-10.0775
▁загінул	-10.0775
▁рымска	-10.0775
▁кароткі	-10.0787
▁Сонца	-10.0801
▁рука	-10.0801
пал	-10.0802
60	-10.0808
▁перадач	-10.0812
▁вещей	-10.0818
▁мільёна	-10.0822
▁i	-10.0826
▁инструмент	-10.0829
нные	-10.083
▁ўсходня	-10.0837
5	-10.084
▁ком	-10.0841
▁Может	-10.0843
выя	-10.0849
▁асаблівасц	-10.0849
▁лета	-10.0855
▁працуе	-10.0862
▁чэрвені	-10.0865
▁хвароб	-10.0872
▁важна	-10.0872
▁дзейнічал	-10.0873
▁горны	-10.0873
▁старшыня	-10.0884
▁хуткасц	-10.0889
▁1966	-10.089
нов	-10.089
▁робі	-10.0891
▁дзеянн	-10.0898
▁подход	-10.0901
80	-10.0902
▁цяжка	-10.0902
піс	-10.0904
▁1985	-10.0905
льных	-10.0906
▁традыцы	-10.0908
чную	-10.0911
▁экономик	-10.0911
▁матэматык	-10.0917
▁расход	-10.0919
▁равно	-10.0925
▁1976	-10.0934
▁Грэцы	-10.0934
ось	-10.0935
▁марскі	-10.0941
▁тэм	-10.0942
▁чатырох	-10.0943
▁1978	-10.0949
нёс	-10.0957
▁Кольк	-10.0957
▁образ	-10.0961
▁адсутнасц	-10.0972
▁рамках	-10.0974
тельны	-10.0974
▁уплыва	-10.0975
▁аддзела	-10.0978
Х	-10.0984
ян	-10.0985
▁просты	-10.0986
▁идеи	-10.0986
▁Іван	-10.0991
▁палас	-10.0995
▁тысячагоддзя	-10.0995
▁Усход	-10.0995
косны	-10.1001
▁ними	-10.1005
▁1982	-10.1005
▁мост	-10.1009
▁пачынаю	-10.1014
▁Працава	-10.102
▁спроб	-10.1021
▁приходит	-10.1031
▁амерыканска	-10.1038
▁нашем	-10.1045
▁ліст	-10.1047
56	-10.1048
▁старшын	-10.1056
▁вывучэнн	-10.1059
▁транспарт	-10.1064
▁риск	-10.1068
▁туда	-10.1071
▁1961	-10.1072
▁жонк	-10.1085
▁Друг	-10.1086
▁нами	-10.1093
▁кіламетра	-10.1099
▁четыре	-10.11
▁станові	-10.1101
▁характэрны	-10.1101
так	-10.1107
падае	-10.1109
вала	-10.1113
▁абавязк	-10.1113
▁гарада	-10.1114
▁систему	-10.1114
▁ўнутраны	-10.1117
віч	-10.112
▁старажытна	-10.1121
D	-10.1122
▁взять	-10.1126
ень	-10.1127
▁левы	-10.1129
▁спасибо	-10.113
▁адказ	-10.1136
▁ваши	-10.1137
▁прынял	-10.1141
▁належа	-10.1142
▁выглядит	-10.1144
▁1935	-10.1147
▁слово	-10.1147
ция	-10.1148
кар	-10.1151
▁галав	-10.1154
сон	-10.1154
31	-10.1167
▁фізік	-10.1168
▁дарог	-10.1168
▁атрыманн	-10.1172
▁жить	-10.1176
▁званне	-10.1184
▁1957	-10.1186
ний	-10.1201
▁летапіс	-10.1207
▁рынк	-10.1209
▁дзеля	-10.1211
▁калгас	-10.1212
▁Бар	-10.1212
▁выкарыстанне	-10.1213
▁взгляд	-10.1218
▁сэнс	-10.1218
Д	-10.122
щи	-10.1224
при	-10.1229
ились	-10.1237
ден	-10.1239
▁наступ	-10.1246
▁нечто	-10.1248
▁1965	-10.1249
70	-10.1252
▁дробны	-10.1254
рок	-10.1255
▁стране	-10.1257
весці	-10.126
▁намного	-10.1264
▁доме	-10.1264
▁тур	-10.1272
▁1979	-10.1274
▁Или	-10.1276
▁помощи	-10.1291
▁раньше	-10.1291
▁нравит	-10.1295
▁заходні	-10.1295
проч	-10.1297
▁посмотреть	-10.1306
▁флот	-10.1306
▁лучши	-10.1308
▁странах	-10.1311
▁эры	-10.1318
▁1949	-10.1321
▁рабочы	-10.1324
▁1972	-10.1325
▁знал	-10.1328
▁сколько	-10.1329
▁центр	-10.1331
▁вообще	-10.1336
▁интересно	-10.1337
▁3-	-10.1341
▁далін	-10.1342
ван	-10.1347
▁Из	-10.1349
▁иног	-10.1349
▁пералічаны	-10.1351
▁называ	-10.1351
▁век	-10.1356
▁англійскі	-10.1364
кро	-10.1366
▁сацыяльна	-10.1367
▁работаю	-10.1371
▁работ	-10.1373
▁рыб	-10.1374
▁Рэспубліка	-10.1376
▁намеснік	-10.1378
ских	-10.1381
▁куда	-10.1383
▁XII	-10.1385
▁бизнес	-10.1388
▁нужны	-10.1391
▁месцам	-10.1393
▁першапачаткова	-10.1395
▁рэжым	-10.1395
▁принцип	-10.1395
смотря	-10.1395
▁водна	-10.1403
▁вусц	-10.1405
цаў	-10.1407
вёў	-10.1414
▁нашу	-10.1415
ятся	-10.1417
▁парадк	-10.1424
▁клетки	-10.1428
ский	-10.143
▁ніжэй	-10.1434
▁арыштаваны	-10.1435
▁голов	-10.144
▁пераеха	-10.1443
▁1968	-10.1446
ААН	-10.1464
▁второ	-10.1465
▁камітэт	-10.1466
▁пустын	-10.1481
▁края	-10.1488
▁считаю	-10.1489
▁глыбіня	-10.1491
▁грамадзянска	-10.1495
▁делаем	-10.1497
ели	-10.1497
▁назіра	-10.15
▁Народна	-10.1501
▁вышэйшы	-10.1505
29	-10.1507
,5	-10.1509
▁паэта	-10.151
▁Ин	-10.151
▁Японі	-10.1511
▁фильм	-10.1514
▁Джон	-10.1517
▁бібліятэка	-10.1517
▁сацыяльны	-10.1518
▁ес	-10.1522
▁другом	-10.1523
▁сайт	-10.1524
менно	-10.153
В	-10.1532
▁бела	-10.1532
▁бес	-10.1535
▁пар	-10.1536
ника	-10.1542
лин	-10.1544
служыў	-10.1552
▁заліва	-10.1561
▁Польшча	-10.1568
▁хотят	-10.157
▁роўна	-10.1574
▁Амеры	-10.1575
нта	-10.1579
уп	-10.1585
▁эффект	-10.1591
дут	-10.1592
будзь	-10.1592
▁собственно	-10.1592
▁Займае	-10.1607
▁пути	-10.1608
▁Хорошо	-10.161
▁имеют	-10.1614
▁подобны	-10.1615
▁яно	-10.1615
▁M	-10.1635
▁смогл	-10.1636
▁Гісторы	-10.1637
▁імкну	-10.1637
▁непасрэдна	-10.1637
▁пара	-10.164
▁моё	-10.1645
▁1971	-10.1653
▁традыцыйна	-10.1654
▁какие	-10.1655
тебя	-10.1656
▁каралеўства	-10.1659
▁звестк	-10.1663
19	-10.1666
кал	-10.1668
оп	-10.1674
▁ўяўляе	-10.1675
▁суб	-10.1676
▁океан	-10.1679
▁произошло	-10.1687
▁стагоддзяў	-10.1695
вин	-10.1697
▁італьянскі	-10.1697
▁касцёла	-10.1697
▁Гр	-10.1702
▁задача	-10.1716
▁еўрапейска	-10.172
▁думать	-10.1728
▁чырвона	-10.1728
▁тон	-10.1734
▁птуш	-10.1735
▁замк	-10.1742
▁зямель	-10.1743
▁дрэва	-10.1746
▁1915	-10.1749
▁дамен	-10.1749
▁заняў	-10.175
▁адпаведнасц	-10.1751
▁выклада	-10.1754
87	-10.1758
етесь	-10.176
▁паэзі	-10.1761
чат	-10.1763
▁ніко	-10.1765
▁маса	-10.1768
▁прайшл	-10.1769
фор	-10.1775
▁музычны	-10.1776
▁вышэй	-10.1782
▁думал	-10.1786
▁шчыльнасц	-10.1788
39	-10.1789
▁вызваленн	-10.179
▁1947	-10.1791
▁Швецы	-10.1792
▁кніга	-10.1793
▁музыка	-10.1799
▁фігур	-10.1807
▁1955	-10.1809
что	-10.1814
▁пэўны	-10.1823
▁Першапачаткова	-10.1838
▁жыву	-10.1839
▁сур	-10.184
ел	-10.1846
▁вода	-10.1853
▁интернет	-10.1854
▁Бог	-10.1858
▁дагавор	-10.1861
▁Наша	-10.1866
▁прыхільнік	-10.1869
говорим	-10.1873
▁праекта	-10.1875
▁баявы	-10.1875
рэш	-10.1876
нер	-10.1878
▁186	-10.1881
▁месте	-10.1881
▁выда	-10.1883
▁защит	-10.1888
▁ответил	-10.1889
▁1964	-10.1892
▁баз	-10.1895
▁1933	-10.19
▁д	-10.1903
▁след	-10.1903
▁значэння	-10.1905
▁лад	-10.1912
I	-10.1918
▁паветра	-10.1926
▁месяцев	-10.195
▁лічыў	-10.1953
▁Паўла	-10.1959
І	-10.1959
▁долго	-10.1961
▁кантракт	-10.1964
▁асобы	-10.1965
▁Аўстры	-10.1966
S	-10.1969
▁правядзенн	-10.1973
▁социальны	-10.1977
▁Кто	-10.1981
▁огромно	-10.1984
▁магутнасц	-10.1991
цка	-10.1993
▁источник	-10.1996
▁готов	-10.1997
▁итог	-10.1998
45	-10.2
жылі	-10.2
▁1973	-10.2
М	-10.2002
▁Папа	-10.2009
▁культура	-10.2013
▁аперацы	-10.2013
▁даследаванн	-10.2019
▁дні	-10.202
▁Ленін	-10.2027
▁перв	-10.2032
▁школ	-10.204
▁модель	-10.2044
▁сямейства	-10.2047
▁ўзбярэжжа	-10.2049
▁метад	-10.2049
28	-10.2051
▁наяўнасц	-10.2055
▁спустя	-10.2059
▁области	-10.2059
▁видели	-10.2061
▁ваш	-10.2072
нию	-10.2079
▁глаза	-10.2084
▁Зате	-10.2085
▁спорт	-10.2086
▁асабіста	-10.2086
▁адукацыю	-10.2091
▁нов	-10.2097
▁Гу	-10.2101
▁драўляны	-10.2102
▁Раза	-10.2118
▁дачк	-10.212
▁T	-10.2122
▁выклікал	-10.2122
метр	-10.2126
▁захаваліся	-10.2132
▁ставі	-10.2134
▁вучыў	-10.2137
▁класа	-10.2151
▁мясцовасц	-10.2151
▁Возможно	-10.2155
▁Рады	-10.2163
▁сустракае	-10.2163
▁занима	-10.2175
▁крайне	-10.2182
▁лаборатори	-10.2188
47	-10.2194
орак	-10.2195
▁былы	-10.2201
▁шаг	-10.2205
▁малы	-10.2216
▁дасягае	-10.2218
▁Саюз	-10.222
▁1987	-10.222
▁старо	-10.2223
▁Венгры	-10.2225
▁прысвечаны	-10.2228
▁доўга	-10.223
▁пытанн	-10.2235
▁Федэрацы	-10.2236
▁дос	-10.224
▁Сібір	-10.2241
▁мест	-10.2242
ог	-10.2247
дальше	-10.2251
▁Куб	-10.2255
▁невероятно	-10.2255
▁згодна	-10.2257
▁человеческо	-10.2258
▁гандлёвы	-10.226
33	-10.2262
усім	-10.2262
▁нізкі	-10.2269
▁норм	-10.2272
▁замест	-10.2275
▁памер	-10.228
▁ўзрос	-10.2281
▁среди	-10.2281
▁набор	-10.2285
▁грош	-10.2286
▁Дзяржаўны	-10.2286
▁блок	-10.229
▁рэлігі	-10.229
=	-10.2302
▁лінія	-10.2302
▁Те	-10.2302
▁далейшы	-10.2304
чная	-10.2306
▁ту	-10.2307
▁напісаны	-10.2311
▁прывяло	-10.2317
нул	-10.2319
▁яўрэя	-10.232
▁1977	-10.2324
▁уровень	-10.233
▁кампазіцы	-10.2334
▁магчымасц	-10.2335
▁званы	-10.234
40	-10.2345
▁прылад	-10.2363
нный	-10.2363
▁Галоўна	-10.2367
▁удзельнік	-10.2367
▁плохо	-10.2367
▁мастацкі	-10.2371
▁вызначае	-10.2378
▁герба	-10.238
▁малады	-10.2381
▁блізкі	-10.2384
пар	-10.2385
▁Купал	-10.2385
▁кол	-10.2388
▁стандарт	-10.2388
овая	-10.2391
▁уровне	-10.2391
дал	-10.2398
▁организм	-10.2405
▁Мі	-10.2413
шн	-10.2415
▁універсітэта	-10.2415
знать	-10.2415
▁Самы	-10.2415
ющая	-10.2418
▁стен	-10.2423
▁600	-10.2424
гор	-10.2432
▁забіты	-10.2435
ред	-10.2436
дин	-10.2448
▁животных	-10.245
вают	-10.2455
▁здольнасц	-10.2459
раст	-10.2462
▁прывял	-10.2463
▁Паўночны	-10.2464
▁князёў	-10.2467
▁важным	-10.2467
▁падстав	-10.2468
▁Апошні	-10.2483
вает	-10.2494
▁стыл	-10.2499
▁Мінскі	-10.2501
▁сельсавет	-10.2502
▁трыма	-10.2506
ваем	-10.2515
▁легко	-10.2518
▁собственны	-10.2524
нуть	-10.2524
цкага	-10.2526
▁1910	-10.2527
ряд	-10.2527
▁вучы	-10.2528
▁1953	-10.2531
▁вучоны	-10.2533
▁вопросы	-10.2534
▁1983	-10.2535
▁сярэднім	-10.2538
▁цел	-10.254
▁духоўна	-10.2543
▁асобна	-10.2543
▁Ні	-10.2545
▁працоўны	-10.2547
▁населения	-10.255
▁самастойна	-10.2554
▁каманда	-10.2555
▁наступным	-10.2557
▁сцян	-10.2559
▁клімат	-10.2566
▁Музыка	-10.2567
нём	-10.2571
▁Радзівіла	-10.2574
▁сустракаю	-10.2574
▁каралеўска	-10.2585
▁скульптур	-10.2586
▁друку	-10.2587
▁большое	-10.2589
▁справе	-10.2597
▁мал	-10.2601
▁ападка	-10.2601
▁Мар	-10.2603
шу	-10.2604
▁камен	-10.261
сень	-10.2612
▁Тогда	-10.2618
друг	-10.262
▁саюза	-10.262
▁говоря	-10.2624
▁вобраз	-10.2638
▁гук	-10.2639
▁пр	-10.264
▁яднанне	-10.264
▁спосаб	-10.2644
▁правильно	-10.2648
▁бедны	-10.265
▁рэдка	-10.2651
▁пачалас	-10.2657
▁кое	-10.2659
ней	-10.2661
▁тела	-10.2662
нут	-10.2665
▁рэштк	-10.2667
▁вежа	-10.267
▁маленьки	-10.2674
▁D	-10.2681
▁ўласны	-10.2683
▁хотите	-10.2685
▁суседні	-10.2685
▁Савет	-10.2689
▁пять	-10.2696
▁патрэб	-10.2697
▁збро	-10.2698
▁агульны	-10.27
▁хімічны	-10.27
щих	-10.2706
чер	-10.2718
▁прадстаўлены	-10.2719
▁Вучы	-10.2721
ота	-10.2723
▁зрабі	-10.2727
▁атмасфер	-10.2728
▁Неў	-10.2731
▁двар	-10.2735
▁дасягнул	-10.2735
▁культурна	-10.2743
44	-10.2748
▁рымскі	-10.2751
▁денег	-10.2753
▁Бела	-10.2754
▁хрысціянства	-10.2754
▁напр	-10.2757
▁Дом	-10.2757
h	-10.2759
▁дапамог	-10.2761
▁75	-10.2762
▁яднаны	-10.2762
▁адносіна	-10.2766
„	-10.277
▁одним	-10.2773
менее	-10.2775
▁улада	-10.2775
▁працягласц	-10.2776
▁32	-10.2778
▁E	-10.278
▁далей	-10.2783
▁склаў	-10.2787
▁вос	-10.2791
▁вяртанн	-10.2795
▁знать	-10.2799
▁элементы	-10.2799
▁горы	-10.2802
▁Канстытуцы	-10.2808
▁Святог	-10.2812
▁займаю	-10.2813
▁Ман	-10.282
▁The	-10.2822
▁вещь	-10.2822
▁решили	-10.2826
▁круг	-10.2826
▁вес	-10.2828
▁абвясціў	-10.2829
ющей	-10.283
▁супрацоўнік	-10.2832
▁заснаваў	-10.2834
▁існую	-10.2835
▁Асноўна	-10.2837
▁План	-10.2837
▁будущем	-10.284
▁После	-10.284
al	-10.2847
твор	-10.2854
▁пісьмовы	-10.2856
▁шырокі	-10.2861
▁работал	-10.2863
▁стол	-10.2864
▁літаратурны	-10.2866
▁пытанне	-10.2868
▁Интернет	-10.2874
▁кіраваў	-10.2882
три	-10.2885
▁грэчаска	-10.2886
▁общества	-10.2889
▁партрэт	-10.2891
▁савета	-10.2893
g	-10.2893
ась	-10.29
▁решил	-10.2919
▁зроблены	-10.2926
▁Вуліц	-10.2926
▁Маці	-10.2931
▁акіян	-10.2938
▁удалос	-10.2938
▁Один	-10.2945
тре	-10.2945
▁порт	-10.2947
▁Рэ	-10.2954
чески	-10.2954
▁Галоўны	-10.2955
▁создания	-10.2958
▁Партугалі	-10.2961
▁жыве	-10.2961
дз	-10.2963
▁Кон	-10.2964
▁период	-10.2964
▁вызнача	-10.2968
ген	-10.297
▁дазволіл	-10.2973
▁Афры	-10.2975
▁обо	-10.2979
▁Сама	-10.2984
ек	-10.2985
▁дазваляе	-10.2989
думать	-10.2995
▁дачыненн	-10.2996
▁календар	-10.2996
коў	-10.3001
ром	-10.3003
▁існава	-10.3018
▁свобод	-10.3028
▁аддзел	-10.3037
▁дыялект	-10.3043
льзя	-10.3047
▁моцны	-10.3054
▁Алімпійскі	-10.3058
▁наибол	-10.3063
▁класс	-10.3066
▁сетк	-10.3071
▁асноўна	-10.3073
▁Радзівіл	-10.3076
▁тип	-10.3081
▁склала	-10.3084
▁імі	-10.3086
ву	-10.3088
▁дакладна	-10.3098
ками	-10.3101
▁Ли	-10.3102
▁Павел	-10.3106
▁сабора	-10.3116
▁знойдзены	-10.3119
▁тавар	-10.3122
▁Юры	-10.3132
▁муж	-10.3134
▁каменны	-10.3139
▁цэлым	-10.314
▁ўжыва	-10.314
▁імперыя	-10.315
▁продаж	-10.3151
▁вер	-10.3152
▁наконец	-10.3155
▁Русі	-10.3157
▁сіла	-10.3158
▁запіс	-10.3158
лізна	-10.3161
▁Кор	-10.3163
▁чорна	-10.3164
чный	-10.3164
рэч	-10.3168
рт	-10.317
ина	-10.3171
▁Берлін	-10.3173
▁адпавяда	-10.3175
ары	-10.3177
▁пе	-10.3178
▁полно	-10.3179
овые	-10.318
ar	-10.3181
▁Ган	-10.3184
шла	-10.3187
▁фільма	-10.3187
ётр	-10.3188
53	-10.3194
▁1897	-10.3201
▁стара	-10.3202
давно	-10.3205
луча	-10.3208
▁развития	-10.3214
▁Африке	-10.3219
▁левым	-10.3223
▁нафт	-10.3226
▁Схіл	-10.3226
▁удар	-10.3228
ируют	-10.3229
▁нахіл	-10.323
▁Сам	-10.3237
розе	-10.3241
▁часов	-10.3241
чь	-10.3242
▁число	-10.3244
▁сойм	-10.325
▁выява	-10.3257
▁прошлом	-10.3259
▁калоні	-10.3262
▁Индии	-10.3262
▁двум	-10.3267
▁давайте	-10.328
▁складаны	-10.3282
▁гісторыя	-10.3282
▁доход	-10.3289
▁дизайн	-10.329
▁Бо	-10.329
▁VII	-10.329
▁4-	-10.3294
▁сум	-10.3295
стер	-10.3295
▁прамысловы	-10.3298
▁мадэл	-10.33
▁ордэнам	-10.3301
▁ўлада	-10.3311
▁археалагічны	-10.3316
27	-10.3317
▁трудно	-10.3317
97	-10.3318
▁Міністэрства	-10.3319
▁маёнтк	-10.3324
▁сярэдні	-10.3325
▁Буд	-10.3326
▁мо	-10.3331
▁найбольша	-10.3331
▁сцен	-10.3332
▁ўласна	-10.3333
▁идёт	-10.3334
▁путь	-10.3339
▁умова	-10.3339
▁био	-10.334
чным	-10.334
▁лепш	-10.3346
▁чырвоны	-10.3352
▁Фінлянды	-10.3352
▁абсолютно	-10.3352
24	-10.3356
▁используют	-10.3358
▁ўладанн	-10.3359
▁плын	-10.3365
ках	-10.3366
▁выпуска	-10.3367
▁связи	-10.3367
су	-10.3369
▁другим	-10.337
Т	-10.3377
▁харчова	-10.3389
фи	-10.3396
▁акупацы	-10.34
▁нескольки	-10.3407
▁Існу	-10.3421
▁папулярнасц	-10.3433
▁целы	-10.3435
ству	-10.3442
▁нашы	-10.3443
енне	-10.3449
▁вирус	-10.345
▁G	-10.3453
ставить	-10.3455
▁1990-	-10.3459
ходят	-10.346
ъ	-10.3463
стати	-10.3468
▁миллиардов	-10.347
▁прыход	-10.3475
▁ног	-10.348
▁турнір	-10.348
▁женщина	-10.3497
▁будущее	-10.3499
▁налічвае	-10.35
▁Ро	-10.3503
праўлення	-10.3505
▁дакумента	-10.3508
▁вылуча	-10.351
тел	-10.3512
▁нашим	-10.3514
▁міністр	-10.3515
▁Представь	-10.3517
▁прапанов	-10.3517
▁патрабаванн	-10.3519
▁выяўлены	-10.352
▁лацінска	-10.3523
▁лепшы	-10.3527
▁мед	-10.3527
мест	-10.3539
▁проб	-10.3551
▁Чтоб	-10.3551
▁брата	-10.3552
щие	-10.3553
▁пастаянна	-10.3554
▁отношения	-10.3556
жу	-10.3557
▁Бр	-10.3566
▁метод	-10.3569
▁служы	-10.3569
▁прыватны	-10.357
нных	-10.3574
▁арганізаваны	-10.3575
▁корпус	-10.3576
on	-10.3578
▁Кажды	-10.3579
▁існаванне	-10.3585
изм	-10.3592
▁вядзе	-10.3594
▁татар	-10.3594
ируем	-10.3601
▁кола	-10.3602
▁Івана	-10.361
▁Некоторы	-10.361
▁жылы	-10.361
▁дзесяцігоддзя	-10.3615
▁крыла	-10.3617
▁тэхнік	-10.3625
▁Тэрыторы	-10.3629
▁сферы	-10.3638
▁кажд	-10.3638
▁дэпутат	-10.3641
▁Америк	-10.3646
▁1952	-10.3647
57	-10.3648
79	-10.3649
▁екта	-10.365
езд	-10.3652
▁частью	-10.3663
▁фа	-10.3665
▁свята	-10.3667
▁ўмова	-10.3673
▁каштоўнасц	-10.3673
▁дваро	-10.3678
▁обратно	-10.3683
▁виду	-10.3683
▁платформ	-10.3685
▁верхні	-10.3685
▁ўваходз	-10.369
▁мастака	-10.3693
▁гісторыка	-10.3693
▁прыклад	-10.3693
▁работе	-10.3694
▁высоко	-10.3697
▁Цэнтр	-10.3704
▁аддзяленне	-10.3708
▁падпісаў	-10.371
▁архітэктар	-10.3711
ика	-10.3713
льнай	-10.3715
m	-10.3718
▁Бога	-10.3719
▁Дняпр	-10.3721
▁используем	-10.3722
▁звычайны	-10.3725
▁Першым	-10.373
▁сети	-10.3733
канец	-10.3737
▁Дзякую	-10.3741
▁дадзена	-10.3742
▁имею	-10.3746
43	-10.3761
▁параўнанн	-10.3761
▁мар	-10.3769
▁захавала	-10.3775
вагу	-10.378
▁ступень	-10.3785
▁сцэн	-10.3786
▁руки	-10.3791
▁службу	-10.3791
знают	-10.3794
▁качестве	-10.3794
вежы	-10.3798
▁радзім	-10.3798
роб	-10.3799
▁одном	-10.3803
ишь	-10.3807
▁Над	-10.3808
▁поля	-10.3811
образ	-10.3814
▁сялянска	-10.3816
▁адрознівае	-10.3816
▁ўсю	-10.3818
▁збіра	-10.382
▁секунд	-10.3823
▁Назв	-10.3826
▁турм	-10.3828
▁брытанскі	-10.3831
▁полу	-10.3833
▁каталіцкі	-10.3833
▁звест	-10.3836
▁сёння	-10.3836
▁известно	-10.3836
▁разговор	-10.3841
▁бар	-10.3848
▁паэм	-10.385
▁крытык	-10.3854
чит	-10.3854
▁предмет	-10.3855
▁прадукцы	-10.3856
▁рада	-10.3861
▁120	-10.3863
▁паспяхова	-10.3864
▁дней	-10.3866
▁разнастайны	-10.3874
▁сумесна	-10.3879
раў	-10.3884
▁актыўны	-10.3893
▁звыш	-10.3897
льнік	-10.3897
▁возер	-10.3897
▁літар	-10.3901
▁Большо	-10.3902
▁Пап	-10.3904
▁дэпутата	-10.3907
▁энергіі	-10.3908
86	-10.3911
▁знали	-10.3912
▁надежд	-10.3914
▁выдатны	-10.3915
▁нараджэння	-10.3915
▁блізка	-10.3918
▁уні	-10.3919
▁модели	-10.392
амёр	-10.3921
▁беларускім	-10.3922
▁ССР	-10.3926
ходзе	-10.3927
дэ	-10.393
▁падзяля	-10.3931
▁гуля	-10.3934
СС	-10.3935
▁выключна	-10.3942
▁партызан	-10.3948
▁язык	-10.3948
▁Іншы	-10.3951
▁сигнал	-10.3951
▁двор	-10.3952
▁абшчын	-10.3955
▁Вед	-10.3958
шка	-10.3959
ском	-10.3961
вол	-10.3979
▁Стары	-10.3986
▁газет	-10.3987
▁катлавін	-10.3988
стью	-10.3989
▁Сярге	-10.399
▁пахаваны	-10.399
▁знает	-10.3992
▁другими	-10.3994
k	-10.3995
▁дазвол	-10.3996
▁песен	-10.4002
▁ніжня	-10.4007
▁Мак	-10.4008
▁состоит	-10.401
▁урад	-10.4014
▁Смаленска	-10.4019
ление	-10.4019
▁урада	-10.4021
сво	-10.4022
дра	-10.4023
▁Ізраіл	-10.4029
▁устаноў	-10.4029
▁Мой	-10.4033
▁музычна	-10.404
нести	-10.404
▁манет	-10.405
▁позволяет	-10.4051
▁элемента	-10.4055
▁Уладзіміра	-10.4055
▁1900	-10.4061
▁сразу	-10.4069
ющее	-10.407
▁брытанска	-10.4076
▁валода	-10.4077
▁гра	-10.4082
▁прыб	-10.4083
▁ера	-10.4085
лізу	-10.4088
▁сястр	-10.4088
нава	-10.409
▁ўключае	-10.4094
жы	-10.4099
▁использовани	-10.4104
щё	-10.4106
▁правд	-10.4106
▁пришлось	-10.4107
▁глав	-10.4109
▁багаты	-10.4109
▁мужчин	-10.4112
▁Марыя	-10.4112
▁музыку	-10.4113
▁польскім	-10.4114
▁250	-10.4119
▁наступна	-10.412
▁технология	-10.4123
▁каротка	-10.4126
▁парод	-10.4141
▁ствара	-10.4142
▁Латві	-10.4154
▁фр	-10.4155
▁немц	-10.4155
▁галас	-10.4163
▁метрапалітэн	-10.4166
▁сведчы	-10.4166
▁чувство	-10.417
міністра	-10.4172
СР	-10.4174
▁нейрон	-10.4175
▁пабудава	-10.4175
▁парламента	-10.4176
▁Сол	-10.4178
▁накіраваны	-10.4181
▁пераваг	-10.4185
▁невозможно	-10.4185
▁роўны	-10.4186
▁1920-	-10.4186
▁ўзор	-10.419
▁аўтамабільна	-10.4192
тэр	-10.4192
▁выстав	-10.42
▁страх	-10.4204
▁перавыша	-10.4205
▁голос	-10.4219
▁ціск	-10.4224
▁мэт	-10.4231
▁бяспек	-10.4233
▁метро	-10.4234
▁создавать	-10.4235
▁назваў	-10.4236
▁пэўна	-10.4238
▁Многи	-10.4245
▁Бераг	-10.4246
▁хімі	-10.4256
▁ход	-10.4257
▁выходзі	-10.426
▁семінары	-10.4265
▁органа	-10.4266
ключаючы	-10.4275
▁слав	-10.4275
▁разуме	-10.428
▁аўтара	-10.428
▁масштаб	-10.4281
чик	-10.4284
▁матери	-10.4284
йшоў	-10.4293
быў	-10.4299
▁прычына	-10.43
УП	-10.4304
▁складалі	-10.4304
▁распаўсюджана	-10.4305
▁ініцыятыв	-10.4305
▁прычы	-10.4314
▁захоўвае	-10.4316
▁др	-10.4317
▁ролі	-10.4319
▁видов	-10.4322
▁написал	-10.4324
▁Ірланды	-10.4325
▁Вядомы	-10.4325
▁лёс	-10.4325
эл	-10.4329
▁акру	-10.4332
▁пласт	-10.4339
▁помніка	-10.434
50	-10.434
▁плат	-10.4345
▁Сербі	-10.4345
▁машины	-10.4345
▁адзіны	-10.4345
мат	-10.435
▁песня	-10.4363
▁выкарыстоўвалі	-10.4366
C	-10.437
▁вернуть	-10.4371
▁медыцынскі	-10.4375
an	-10.4375
▁паўвострава	-10.4382
▁Люксембург	-10.4385
▁фотографии	-10.4385
▁цыкл	-10.4385
▁прыродны	-10.4389
▁любы	-10.4395
▁Лічы	-10.4396
▁тело	-10.4398
in	-10.4404
▁мяч	-10.4404
▁двой	-10.4406
▁тво	-10.4407
▁традыцыйны	-10.4408
ился	-10.4409
▁2,5	-10.4416
▁800	-10.4416
▁слоў	-10.4423
▁яўрэйска	-10.4423
▁погляд	-10.4424
сан	-10.4425
▁Звычайна	-10.4425
▁маршрут	-10.4425
▁скорее	-10.4427
тон	-10.4428
▁движение	-10.4431
▁трон	-10.4433
▁рады	-10.4433
▁камандаванне	-10.4437
▁суда	-10.4437
▁паст	-10.4438
▁ўзнікл	-10.4439
▁будов	-10.444
▁границ	-10.4441
▁выше	-10.4441
▁еру	-10.4445
нного	-10.4447
▁пажар	-10.4448
▁похоже	-10.4452
▁дапамогу	-10.4452
▁молоды	-10.4455
▁вырашыў	-10.4459
▁раздел	-10.4459
▁бег	-10.4461
мент	-10.447
▁пас	-10.4472
▁стар	-10.4473
▁болезн	-10.4474
▁Оно	-10.4474
▁покажу	-10.4492
▁карыс	-10.4493
▁F	-10.4493
фер	-10.4494
▁дывізі	-10.4495
▁парламент	-10.4496
▁паўстанне	-10.4501
▁Кал	-10.4501
▁Паўднёвы	-10.4502
▁свято	-10.451
▁рыбы	-10.4511
▁решить	-10.4512
еры	-10.4515
▁дзвю	-10.4519
▁измен	-10.452
▁образование	-10.4523
▁супрацоўніцтв	-10.4527
▁аповесц	-10.4527
нно	-10.4528
▁включа	-10.4529
▁Каб	-10.453
лён	-10.4531
▁выкананн	-10.4532
илась	-10.4533
▁дагавора	-10.4538
▁протяжени	-10.4547
▁1951	-10.4547
▁Гор	-10.4551
▁1930-	-10.4558
▁лідар	-10.456
▁эволюци	-10.4563
тебе	-10.4563
▁190	-10.4566
▁Міжнародна	-10.4568
▁выдаў	-10.457
▁прапанаваў	-10.4574
вших	-10.4574
▁канцэрт	-10.4578
▁рукапіс	-10.4581
,8	-10.4582
могла	-10.4585
▁скончыла	-10.4585
▁Каўказ	-10.4587
▁ЮНЕСК	-10.4588
▁остальны	-10.4596
▁ажыццяўля	-10.4599
▁Ім	-10.4604
▁волн	-10.4608
▁Удзельнік	-10.4609
▁сп	-10.4609
▁палон	-10.4612
▁Тад	-10.4612
ики	-10.4617
▁домой	-10.4618
▁развіты	-10.4622
▁будучы	-10.4622
▁ранні	-10.4627
▁распаўсюджва	-10.4644
правда	-10.4645
▁тест	-10.4649
лек	-10.4649
▁Чорна	-10.465
▁врач	-10.465
▁Дзвін	-10.465
▁заключается	-10.465
▁проблему	-10.4651
▁вперв	-10.4652
▁последне	-10.4669
пло	-10.467
▁небольшо	-10.4677
▁Каралеўства	-10.4677
▁семьи	-10.4679
▁расліннасц	-10.4683
▁природ	-10.4684
вести	-10.4687
▁рабо	-10.4689
▁Многі	-10.4693
▁настоящи	-10.4699
▁паходжанне	-10.4702
▁пла	-10.4705
▁заключ	-10.4705
адну	-10.4708
заходня	-10.4709
▁станет	-10.471
▁хімічна	-10.4713
▁праходзіл	-10.4717
▁рядо	-10.4721
▁альбом	-10.4722
мысл	-10.4724
▁цара	-10.4726
▁L	-10.4731
▁Кам	-10.4733
▁насякомы	-10.4733
тически	-10.474
вижу	-10.4742
▁выніка	-10.4745
▁паступі	-10.4746
▁хвілін	-10.4754
▁речь	-10.4755
▁замацава	-10.4756
вит	-10.4761
▁Прэзідэнта	-10.4765
▁H	-10.4769
▁зала	-10.4773
▁сред	-10.4774
▁сюжэт	-10.4775
▁выса	-10.4779
▁навучанн	-10.4782
чай	-10.4783
▁зорна	-10.4786
▁хаце	-10.479
▁типа	-10.4794
▁ўнутрана	-10.4798
▁движения	-10.4803
▁падобна	-10.4804
▁ідзе	-10.4809
▁сфер	-10.4811
▁чорны	-10.4812
▁даўжынё	-10.4817
зноў	-10.4818
▁адзіным	-10.4829
▁дзіця	-10.4834
▁Бельгі	-10.4838
▁следует	-10.4838
▁гэтак	-10.4854
▁парад	-10.4854
▁вариант	-10.4859
▁вниз	-10.4859
▁неабходна	-10.4861
▁асоба	-10.4861
▁вероятно	-10.4861
▁басейна	-10.4862
▁половин	-10.4869
▁катэгоры	-10.4874
▁картин	-10.4875
▁мою	-10.4876
▁компания	-10.4878
▁доби	-10.4879
▁маскоўскі	-10.488
▁ніжні	-10.4882
▁вызвал	-10.4883
▁называем	-10.4885
▁Рыма	-10.4888
▁хрысціян	-10.489
▁каким	-10.4891
▁захава	-10.4891
▁атак	-10.4892
спе	-10.4898
▁практически	-10.4902
▁Ча	-10.4908
инг	-10.4916
▁схіл	-10.4921
▁Тры	-10.4923
▁высокім	-10.4926
▁адкрыў	-10.4928
▁самые	-10.4929
▁удивительно	-10.4937
▁пяці	-10.4941
▁Шмат	-10.4942
▁бактери	-10.4944
▁катастроф	-10.495
рол	-10.495
▁стая	-10.4956
▁Вядома	-10.4965
О	-10.4969
▁Меня	-10.497
▁хороши	-10.4974
▁гурт	-10.4978
▁кропка	-10.4978
▁цели	-10.4978
▁мысли	-10.498
▁собира	-10.4983
▁журналіст	-10.4984
▁Балгары	-10.4987
▁рэльеф	-10.4987
▁ей	-10.4987
▁дакумент	-10.4988
▁далеко	-10.4994
▁позволит	-10.5008
▁выключэнне	-10.5008
▁знакаміты	-10.5008
кат	-10.5012
▁прадпрыемств	-10.5013
вец	-10.5016
▁прасторы	-10.5019
рыв	-10.5021
▁канструкцы	-10.5021
▁Егіп	-10.5023
▁используя	-10.503
▁значн	-10.5031
▁выступ	-10.5036
ьте	-10.5037
▁Руска	-10.5037
жды	-10.5038
▁героя	-10.5038
▁мене	-10.5041
▁группа	-10.5041
▁плот	-10.5047
▁ряд	-10.505
▁працягваў	-10.5051
▁однажды	-10.5052
▁камуна	-10.5052
▁раза	-10.5055
▁1980-	-10.5058
▁кіраўніка	-10.5058
▁роля	-10.5059
▁мастако	-10.5059
▁перемен	-10.5064
▁Народны	-10.5073
▁рання	-10.5075
▁сынам	-10.5079
▁машин	-10.5084
▁связь	-10.5084
▁названием	-10.5088
▁рашэння	-10.5093
▁рэлігійна	-10.5098
▁старэйшы	-10.5105
▁Славакі	-10.5116
▁сяброў	-10.5117
▁Кліма	-10.5118
▁хрысціянска	-10.5125
▁напісана	-10.5131
воз	-10.5137
▁Аргенцін	-10.5138
▁паўнамоцтв	-10.5138
▁стварыць	-10.5138
мор	-10.5138
▁каждом	-10.514
ило	-10.5144
P	-10.5147
▁Віцебск	-10.5153
▁апублікаваны	-10.5156
▁ключ	-10.5159
▁Жлобін	-10.5159
▁Пецярбург	-10.5162
шар	-10.5162
▁дзяржаўным	-10.5166
лас	-10.5168
▁ажыццяўляе	-10.517
▁выданне	-10.5179
чные	-10.518
▁падрыхтоўк	-10.5181
печат	-10.5181
▁посмотрим	-10.5189
▁Аўгуста	-10.5189
алогіі	-10.5197
▁поскольк	-10.5198
▁Хрыста	-10.5203
▁дале	-10.5204
▁знешня	-10.5211
▁палат	-10.5216
▁канцэпцы	-10.5217
▁веры	-10.5223
▁человечески	-10.5225
мон	-10.5226
▁выход	-10.5227
▁роль	-10.5228
▁Вялікабрытанія	-10.5228
▁палос	-10.5235
▁уровня	-10.5235
▁абазначэнн	-10.5236
гэту	-10.5237
▁116	-10.524
▁кіраванне	-10.5241
▁Крым	-10.5243
▁абвешчана	-10.5247
▁паслуг	-10.5247
▁фото	-10.5247
▁іспанска	-10.5248
▁праведзены	-10.5248
▁демократи	-10.5249
▁інтэр	-10.5249
▁правым	-10.525
ческо	-10.5254
le	-10.5255
▁чыгунк	-10.5266
живут	-10.5266
▁культ	-10.5266
▁Нобелеўска	-10.5271
▁старшынё	-10.5273
хотелось	-10.5275
▁мястэчк	-10.5277
▁дамоў	-10.5279
▁загадчык	-10.5282
▁органы	-10.5288
▁Бразіліі	-10.5291
▁Чэхі	-10.5292
ера	-10.5301
▁правінцый	-10.5304
▁даёт	-10.5304
▁захаванн	-10.5305
▁Віцебску	-10.5308
часова	-10.5312
▁загінуў	-10.5313
▁мінулы	-10.5313
▁Божа	-10.5315
▁Аляксе	-10.532
ужен	-10.5324
▁Іх	-10.5324
▁математик	-10.5335
▁фальклор	-10.5335
▁лісце	-10.5335
▁анализ	-10.5343
оўка	-10.5354
▁фестывал	-10.5357
▁рэакцы	-10.5357
▁ажані	-10.5357
▁общество	-10.5358
цион	-10.5365
▁Літве	-10.5372
▁эксперт	-10.5379
рез	-10.538
▁здароў	-10.5382
лок	-10.5382
▁Вам	-10.5384
▁рэспубліка	-10.5384
▁выпадка	-10.5395
▁ч	-10.5398
анс	-10.5399
▁интересны	-10.5401
▁прежде	-10.5402
▁Бабруйск	-10.5407
▁пражыва	-10.541
▁жывы	-10.541
▁сілу	-10.5412
цэ	-10.5414
▁КА	-10.5417
▁способны	-10.5419
тивн	-10.542
▁займалі	-10.5422
▁цягнік	-10.5423
тели	-10.5423
▁шэсць	-10.5424
▁ўда	-10.5434
▁века	-10.5436
▁Вялік	-10.5437
▁памерла	-10.5442
▁партнёр	-10.5444
▁неабходнасц	-10.5447
▁света	-10.5451
▁33	-10.5454
первых	-10.5454
▁хотела	-10.5457
▁значэнн	-10.5457
верс	-10.5458
пуск	-10.5461
▁произ	-10.5464
▁инженер	-10.5469
▁падпарадкоўва	-10.5469
▁разум	-10.5473
вается	-10.5475
▁цель	-10.5478
▁схем	-10.5484
▁Тро	-10.5492
▁класічна	-10.5493
▁кампазітар	-10.5493
▁Інстытута	-10.5494
▁обнаружили	-10.5495
▁папулярны	-10.5497
▁масавы	-10.5501
▁Сын	-10.5506
▁36	-10.5509
▁решени	-10.5513
▁ин	-10.5514
,3	-10.5518
▁акцы	-10.5523
▁цячэ	-10.5526
▁Найбольша	-10.5528
▁бітва	-10.5529
▁уж	-10.553
щ	-10.553
▁воздух	-10.5533
▁палітыка	-10.5535
▁будаўнічы	-10.5536
▁стварыл	-10.5536
▁буквально	-10.5537
▁причина	-10.5541
▁студэнтаў	-10.5548
▁замен	-10.5551
▁Канад	-10.5553
▁Прусі	-10.5554
▁увидите	-10.5554
▁піса	-10.5555
▁могілка	-10.5555
летку	-10.5556
▁шляхт	-10.5559
▁професси	-10.5559
▁замуж	-10.5559
▁безопасности	-10.556
▁игра	-10.5561
▁названа	-10.5564
▁кні	-10.5565
▁Ник	-10.5566
▁крыж	-10.5568
▁кляштар	-10.5569
▁Ло	-10.5571
ими	-10.5572
▁арх	-10.5572
▁книги	-10.5572
▁адкрыццё	-10.5573
▁налічвала	-10.5576
▁маёнтка	-10.5576
▁правительство	-10.5576
▁масава	-10.5579
ўсходня	-10.558
▁пасёлка	-10.558
▁рэзка	-10.5582
▁характэрна	-10.5582
▁фізічна	-10.5584
▁асноўнай	-10.5588
▁радзе	-10.5588
▁прадмет	-10.5588
▁цифр	-10.5588
▁моим	-10.5595
▁імён	-10.5595
▁ідэя	-10.5603
▁ночь	-10.5604
▁Ісланды	-10.5604
▁дысертацы	-10.5604
нет	-10.5604
▁идею	-10.5605
▁материал	-10.5607
▁чалавеча	-10.5609
▁адмовіў	-10.5613
▁граф	-10.5615
▁заснаванн	-10.5615
▁Еўрапейска	-10.5615
▁случилось	-10.5618
▁планете	-10.5619
▁Удзельніча	-10.5627
▁лёд	-10.5627
▁сделан	-10.5634
▁складаў	-10.5637
▁працягвае	-10.5637
▁навучальны	-10.5639
▁рэдактар	-10.564
▁аэрапорт	-10.565
▁тлумачы	-10.565
▁сядзібна	-10.5667
▁160	-10.5671
▁здолеў	-10.5673
▁асяроддзя	-10.5679
▁обычны	-10.5682
льная	-10.5685
▁сутнасц	-10.5686
▁корпуса	-10.5691
▁зносін	-10.5696
▁брыгад	-10.5696
▁хутчэй	-10.5696
▁вучня	-10.57
▁Адам	-10.5703
▁хочет	-10.5712
▁моладз	-10.5716
▁игр	-10.5718
▁чыгуначны	-10.5719
говорили	-10.5725
шло	-10.573
38	-10.573
▁Другі	-10.5731
▁прозвішча	-10.5734
▁хороше	-10.5735
люблю	-10.5737
▁заснавальнік	-10.5742
смерти	-10.5743
▁дел	-10.5745
▁долара	-10.5745
▁социально	-10.5748
▁сюда	-10.5751
▁сетка	-10.5753
▁руку	-10.5754
▁55	-10.5757
▁спас	-10.5758
▁квартал	-10.5765
▁атрымлівае	-10.5768
▁кем	-10.5774
▁ситуаци	-10.5778
▁поиск	-10.5784
▁крызіс	-10.5788
▁падзяляе	-10.5789
▁рэканструкцы	-10.5789
▁прекрасно	-10.5795
▁увайш	-10.58
▁драўляна	-10.5802
ении	-10.5804
▁зорк	-10.5806
нска	-10.581
сё	-10.5813
▁Ге	-10.5814
▁належал	-10.5815
няў	-10.5821
▁аўтамабіля	-10.5829
▁Шатланды	-10.5834
▁паў	-10.5839
▁працяка	-10.584
▁пояс	-10.584
буд	-10.584
▁вул	-10.5841
▁паля	-10.5843
былі	-10.5846
f	-10.5849
▁700	-10.5857
▁поговорить	-10.5858
▁Скарын	-10.5858
▁Міхаіл	-10.5858
▁Швейцары	-10.5859
▁падзелены	-10.5861
▁ди	-10.5862
▁пач	-10.5864
аліў	-10.5869
▁чэмпіён	-10.5869
▁калон	-10.587
▁Цяпер	-10.5881
▁урок	-10.5881
▁Таварыства	-10.589
Л	-10.589
▁падтрым	-10.5891
▁Штат	-10.5892
ющим	-10.5894
▁Заслужан	-10.5905
▁глыбока	-10.5905
▁Эстоні	-10.5905
▁паводзін	-10.5905
писать	-10.5907
▁концов	-10.5912
▁появи	-10.5913
▁экран	-10.5914
▁партызанска	-10.5914
▁плана	-10.5916
▁дэпартамента	-10.5917
ники	-10.5919
▁канала	-10.5922
▁реально	-10.5923
роз	-10.5924
▁папярэдні	-10.5925
▁Пер	-10.5925
▁Вер	-10.5926
▁эміграцы	-10.5928
▁генерала	-10.5928
▁ўзвышша	-10.5929
▁теори	-10.5931
▁намеснікам	-10.5936
▁тэорыя	-10.5945
▁обще	-10.5948
▁созда	-10.5949
▁Рымскі	-10.595
▁энерги	-10.5953
гер	-10.5953
▁Іванавіч	-10.5953
▁начальніка	-10.5955
ладу	-10.5956
▁Цэнтральны	-10.5962
▁дачка	-10.5974
▁адсутніча	-10.5975
▁O	-10.5979
▁Кан	-10.5979
▁матчы	-10.598
▁неба	-10.5981
▁65	-10.5984
▁разы	-10.5985
▁стану	-10.5985
ёв	-10.5987
▁аднайменна	-10.5999
▁Мал	-10.5999
▁неаднаразов	-10.5999
▁Венецы	-10.6001
▁Два	-10.6002
▁Украіна	-10.6008
СФ	-10.6008
▁закона	-10.6012
▁спектр	-10.6013
▁газе	-10.6015
▁установ	-10.6015
▁яў	-10.6016
▁действия	-10.6017
▁кантроль	-10.602
▁1830	-10.6022
▁абодву	-10.6022
▁аспект	-10.6028
▁бая	-10.6031
▁сил	-10.6035
ному	-10.6036
▁планета	-10.6039
▁самого	-10.6043
▁понимает	-10.6046
▁0,5	-10.6047
▁значение	-10.6048
▁земле	-10.6048
зму	-10.6058
▁способность	-10.6061
част	-10.6061
ировали	-10.6062
▁спецыяльны	-10.6064
▁Бел	-10.6069
▁інстыту	-10.6076
міністр	-10.6078
янскім	-10.6082
▁бал	-10.609
▁основан	-10.609
▁фінансавы	-10.6091
▁трёх	-10.6093
▁Старшын	-10.6094
▁абрад	-10.6094
рам	-10.6095
▁Маскоўскі	-10.6095
▁кадр	-10.6096
ировал	-10.61
▁паб	-10.61
▁готовы	-10.6105
▁італьянска	-10.6107
▁змяшчае	-10.6112
▁местах	-10.6113
▁пары	-10.6115
▁Вен	-10.6117
▁инноваци	-10.6118
▁мірны	-10.6119
▁спецыяльна	-10.6121
думаем	-10.6122
▁сітуацы	-10.6124
▁Віцебскі	-10.6125
▁ўплыв	-10.6137
▁вядомым	-10.6139
▁призна	-10.614
ток	-10.614
▁версія	-10.6151
▁ограничен	-10.6154
▁здания	-10.6162
▁публікацы	-10.6166
▁семь	-10.6168
▁видел	-10.617
▁заняты	-10.617
▁адміністрацы	-10.617
▁паказвае	-10.6172
▁Жыгімонта	-10.6174
▁судна	-10.6175
▁гары	-10.6176
▁большие	-10.6176
▁пакіну	-10.6182
▁велічыня	-10.6185
▁ду	-10.6189
▁Google	-10.619
▁харчаванн	-10.619
▁сосед	-10.619
эла	-10.6192
▁боле	-10.6196
▁помощь	-10.6203
▁корм	-10.6204
смотр	-10.6204
▁исследование	-10.6212
▁астрава	-10.6212
▁получил	-10.6215
▁перададзены	-10.6215
шь	-10.622
▁прыём	-10.6222
▁зап	-10.6224
▁адкрыцця	-10.6224
▁тэхнічны	-10.6227
▁нужна	-10.6229
▁ўдзельнік	-10.6232
▁выступае	-10.6233
▁пакінул	-10.6237
▁зацверджаны	-10.6238
▁вялі	-10.6246
▁открыто	-10.6247
нова	-10.625
▁дырэктар	-10.6251
▁дорог	-10.6252
ЭС	-10.6253
▁адмові	-10.6259
▁Асманска	-10.6263
▁нагадва	-10.6263
▁Палесс	-10.6263
▁дату	-10.6274
годы	-10.6276
▁график	-10.6276
▁похожи	-10.6277
ёс	-10.628
▁Закон	-10.6281
▁рэсурс	-10.6287
▁пространство	-10.6287
▁лаўрэат	-10.6288
▁объект	-10.6291
▁нізін	-10.6295
▁дзец	-10.6299
▁ради	-10.63
▁абласц	-10.6301
▁падпарадкаванн	-10.6302
▁сторон	-10.6305
▁маёнт	-10.6307
▁чему	-10.631
▁гледжанн	-10.6311
▁нізка	-10.6311
▁знаходжанн	-10.6311
▁Злучаны	-10.6312
▁больниц	-10.6312
▁цяжкі	-10.6315
▁доктар	-10.6316
▁лева	-10.6316
▁Анд	-10.6328
▁арганізава	-10.6333
▁свабодна	-10.6333
▁Крис	-10.634
▁надею	-10.634
▁біскуп	-10.6341
лева	-10.6341
▁теле	-10.6351
вога	-10.6353
▁исследований	-10.6354
кай	-10.6358
шен	-10.6358
▁шанс	-10.636
▁вар	-10.6363
▁продукт	-10.6364
▁дзіцячы	-10.6366
▁славянскі	-10.6369
▁пераважа	-10.6375
▁Музей	-10.6377
▁апублікава	-10.6383
▁политик	-10.6385
▁цікавасц	-10.6386
▁асабісты	-10.6388
▁Земле	-10.6395
▁калекцы	-10.6396
▁окружающе	-10.6398
▁спор	-10.6401
▁партый	-10.6402
▁помн	-10.6404
▁вучоб	-10.6409
▁золата	-10.6409
▁расскажу	-10.641
▁цэнтральны	-10.641
▁1903	-10.641
▁перакладзе	-10.6411
Н	-10.6412
огул	-10.6413
▁край	-10.6413
▁акруга	-10.6415
нная	-10.6416
▁видит	-10.6417
▁чыгун	-10.6418
▁основном	-10.6423
▁змага	-10.6427
▁планет	-10.6428
▁братам	-10.6429
▁Ста	-10.643
▁граждан	-10.643
▁педагог	-10.6434
▁залежыць	-10.6435
▁страниц	-10.6437
▁манархі	-10.6439
▁42	-10.644
▁газа	-10.6441
▁Ру	-10.645
▁ахвяр	-10.6456
▁Станіслава	-10.6459
▁прадстаўлена	-10.6459
▁находятся	-10.646
▁здольны	-10.646
▁фрон	-10.6461
▁Напалеона	-10.6461
▁старажытнасц	-10.6462
▁зуб	-10.6471
дар	-10.6473
▁нос	-10.6474
овым	-10.6475
▁таког	-10.6477
▁ру	-10.6483
нак	-10.6486
щий	-10.6488
▁W	-10.6488
▁барок	-10.6489
▁няг	-10.649
▁начинают	-10.6493
▁выступал	-10.6499
▁уяўляе	-10.65
▁организации	-10.6509
▁Очень	-10.6509
▁святла	-10.6509
▁Знает	-10.6511
▁делали	-10.6513
▁ордэн	-10.6519
ления	-10.6519
▁предел	-10.6523
▁Перу	-10.6524
▁царства	-10.6528
▁чын	-10.6529
▁возника	-10.653
▁рассказ	-10.6531
▁Дзе	-10.6533
▁чар	-10.6533
▁Роберт	-10.6534
▁бур	-10.6542
▁пл	-10.6542
▁гаспадарка	-10.6546
▁неза	-10.6548
тки	-10.6553
▁нашчадк	-10.6563
гул	-10.6566
▁Ал	-10.6567
▁аднаўленн	-10.6568
▁зварот	-10.6568
▁легенд	-10.6569
▁Первы	-10.6571
▁Нёмана	-10.6573
ніка	-10.6574
▁вера	-10.6575
▁зона	-10.6576
▁транс	-10.6577
▁результаты	-10.658
▁единственны	-10.6581
▁асацыяцы	-10.6584
▁магазин	-10.6584
▁фрагмент	-10.6584
▁жаноча	-10.6584
▁быстрее	-10.6584
▁дастаткова	-10.6584
▁кап	-10.6584
▁столько	-10.6588
▁прымаў	-10.6588
▁хор	-10.6589
настоящему	-10.6591
▁скажу	-10.6593
▁делал	-10.6594
▁Кіеўска	-10.6594
▁царкоўны	-10.66
▁образования	-10.6602
▁германскі	-10.6609
▁філосаф	-10.6609
▁иначе	-10.6609
▁забеспячэнн	-10.6609
▁1500	-10.6611
▁падзелена	-10.6611
▁Прэзідэнт	-10.6621
▁уключа	-10.6624
говор	-10.6625
▁яўленне	-10.6626
▁хрысціянскі	-10.6627
▁дапамо	-10.6627
▁Грузі	-10.6634
▁важн	-10.6636
▁прызна	-10.6637
▁папа	-10.6638
▁Галі	-10.6639
▁памеры	-10.6642
▁прыйшоў	-10.6642
▁драм	-10.6642
▁ресурс	-10.6645
чет	-10.6649
▁выконва	-10.665
▁поддержк	-10.6659
▁известны	-10.6659
▁артыст	-10.666
▁газу	-10.6661
▁мяне	-10.6661
▁працягвала	-10.6664
▁трапічны	-10.667
▁виде	-10.668
▁ужыва	-10.6682
▁разниц	-10.6683
▁смотреть	-10.6684
▁стварае	-10.6686
▁злучае	-10.6686
▁10-	-10.6693
рик	-10.67
▁слышали	-10.6701
хотели	-10.6701
▁Потом	-10.6704
кер	-10.6705
▁показывает	-10.6707
▁бальніц	-10.671
▁паказчык	-10.671
▁маёмасц	-10.671
▁сложны	-10.6725
▁Заходні	-10.6725
▁кру	-10.6726
▁обща	-10.6727
▁Асабліва	-10.6732
▁реальность	-10.6733
B	-10.6734
▁кризис	-10.6735
▁спрабава	-10.6736
тур	-10.6737
▁вне	-10.6738
▁отец	-10.6749
рог	-10.6751
▁падзея	-10.6756
▁Ноўгарад	-10.6761
▁1950-	-10.6763
▁5-	-10.6764
▁Егіпта	-10.6766
▁Лу	-10.6767
вшие	-10.6772
▁прыводзі	-10.6773
евіч	-10.6774
▁агульным	-10.6775
▁спалі	-10.6775
▁38	-10.6777
▁казак	-10.6777
▁прыходзі	-10.6781
▁двара	-10.6781
▁каледж	-10.6786
▁Сталін	-10.6788
шёл	-10.6788
▁сказа	-10.6791
▁палка	-10.6792
▁выкананы	-10.6796
▁яв	-10.6799
▁нацыянальным	-10.6799
▁абласно	-10.6802
▁здорово	-10.6802
▁сер	-10.6806
▁факультэта	-10.6806
▁карал	-10.6806
▁1890	-10.6807
▁захаваў	-10.6807
ологи	-10.681
▁тюрьм	-10.6812
▁Просто	-10.6812
▁Перад	-10.6813
▁Антоні	-10.6813
▁ўваг	-10.6813
0	-10.6817
▁бога	-10.6817
▁схіла	-10.6819
▁Чы	-10.6822
▁выдадзены	-10.6825
▁метал	-10.6831
▁Лос	-10.6831
вез	-10.6831
сси	-10.6832
▁метров	-10.6833
▁другу	-10.6834
▁маленько	-10.6838
▁смог	-10.6839
▁Дзі	-10.6841
▁шесть	-10.6843
▁фасад	-10.6843
▁поведение	-10.6844
▁савет	-10.6848
пустил	-10.6848
▁штаб	-10.6857
пом	-10.6863
▁Біблі	-10.6863
▁температур	-10.6864
▁Грыгар	-10.6864
▁выраз	-10.6866
▁1902	-10.6876
▁1960-	-10.6879
щем	-10.6882
▁царкоўна	-10.6888
ур	-10.6888
стей	-10.689
Йорк	-10.6893
▁прекрасны	-10.69
▁прыйшл	-10.6902
▁поверхности	-10.6902
огда	-10.6903
▁дизайнер	-10.6904
▁настаўнікам	-10.6904
▁главно	-10.6905
▁занята	-10.6912
▁звана	-10.6913
▁попросил	-10.6915
чка	-10.6915
▁Васіль	-10.6917
▁Второ	-10.6917
▁прысутніча	-10.6919
▁ожида	-10.6923
▁раку	-10.6926
▁Мае	-10.6928
▁адпаведны	-10.6929
▁провел	-10.6934
▁сустрэч	-10.6942
▁клеток	-10.6943
▁возвраща	-10.6949
▁развитие	-10.6952
▁слаба	-10.6966
ников	-10.6966
▁расп	-10.6972
▁кур	-10.6983
▁абвясціл	-10.6985
▁ўзбярэжж	-10.6989
шта	-10.6992
▁Мала	-10.6993
▁архіпелаг	-10.6996
пре	-10.6996
▁доля	-10.6998
ваться	-10.6998
▁Даніі	-10.6999
▁грэчаскі	-10.7
▁начало	-10.7
нец	-10.7003
▁Само	-10.7004
▁Палац	-10.7004
▁славян	-10.701
зор	-10.7011
▁англ	-10.7012
▁зорка	-10.7017
▁драўляным	-10.7018
дзел	-10.7018
▁падыход	-10.7018
аўрэат	-10.7019
▁ландшафт	-10.702
▁посмотрите	-10.702
▁Сярэднегадав	-10.7021
вис	-10.7023
▁изучени	-10.7028
▁родна	-10.7031
▁верну	-10.7036
волі	-10.704
▁музыкант	-10.704
▁прамыслова	-10.7041
▁архитектур	-10.7046
▁религи	-10.7046
▁сможет	-10.7048
рбі	-10.7049
▁вадасховішча	-10.7051
ограф	-10.7055
шел	-10.7059
▁ўсходні	-10.7062
▁разгляда	-10.7062
▁называлі	-10.7064
▁Што	-10.7069
▁словами	-10.7071
▁прысвоен	-10.7072
▁выкладчык	-10.7072
▁война	-10.708
▁сапраўдна	-10.7084
▁дамы	-10.7091
▁заснавальніка	-10.7091
▁залаты	-10.7092
▁Позволь	-10.7099
▁степени	-10.7099
▁ўтвараюц	-10.7099
▁высот	-10.71
▁адстаўк	-10.71
▁большим	-10.7101
▁сравнени	-10.7104
▁мужа	-10.711
▁структура	-10.7114
▁37	-10.7119
▁вызначы	-10.7125
▁цывілізацы	-10.7125
ового	-10.7126
▁куды	-10.7126
▁апазіцы	-10.7126
▁счёт	-10.7133
▁журнал	-10.7133
▁будава	-10.7138
▁силы	-10.7138
▁осозна	-10.714
▁будуча	-10.7141
рос	-10.7142
граф	-10.7149
▁абвешчаны	-10.7151
▁прывіле	-10.7152
вор	-10.7153
▁нашли	-10.7157
▁проекта	-10.7157
▁прайшоў	-10.7159
▁Кра	-10.7171
▁труд	-10.7174
▁варта	-10.7175
▁правила	-10.7175
▁показал	-10.7177
▁пошук	-10.7177
▁Віктар	-10.7178
▁алтар	-10.7178
сен	-10.7179
▁заметил	-10.7181
▁выток	-10.7182
▁поняли	-10.7184
▁обе	-10.7185
▁таком	-10.7185
▁леса	-10.7186
▁сеть	-10.7188
▁мусульман	-10.7189
▁Штата	-10.7192
АТ	-10.7193
▁арганізма	-10.7203
сёлка	-10.7205
▁уласны	-10.7206
▁Колас	-10.7207
▁знайшл	-10.7207
ходить	-10.7209
пры	-10.7213
▁рад	-10.7216
▁трапіл	-10.7218
▁Чырвоны	-10.722
▁лично	-10.7222
▁радыё	-10.7226
▁каналізавана	-10.7231
▁пер	-10.7234
▁рэдкі	-10.7236
▁натуральны	-10.7239
▁неабходны	-10.7242
▁смех	-10.7244
▁Пар	-10.7245
▁адправіў	-10.7251
▁актив	-10.7254
▁іспанскі	-10.7255
▁супер	-10.7256
▁штук	-10.7258
▁жертв	-10.7258
▁памяшканн	-10.7261
▁миллиона	-10.7262
▁становят	-10.7262
▁нефт	-10.7264
▁Вітаўта	-10.7265
дадзены	-10.7268
▁ўзрост	-10.7269
▁невядома	-10.7272
▁Урад	-10.7274
▁заказ	-10.7275
▁француз	-10.7279
▁Румыні	-10.7285
▁глубоко	-10.7285
▁деревн	-10.7285
▁невядомы	-10.7285
▁получили	-10.7286
▁захоплены	-10.7288
▁інжынер	-10.7289
▁185	-10.729
жаны	-10.7294
O	-10.7305
▁водны	-10.7306
нное	-10.7306
▁фізічны	-10.7312
▁успех	-10.7312
▁Ніжня	-10.7312
▁звярта	-10.7312
▁вядучы	-10.7316
нук	-10.7317
▁системе	-10.7317
▁черт	-10.7318
▁асвет	-10.7319
зь	-10.7321
▁падарожжа	-10.7329
▁ўладам	-10.7335
вели	-10.7335
▁необходимы	-10.7336
▁Тэрмін	-10.7339
▁птиц	-10.734
▁дадатковы	-10.734
ізацы	-10.7345
▁напад	-10.7345
▁друкава	-10.7348
▁сторону	-10.7351
▁пашыраны	-10.7353
▁сімвалізу	-10.7366
▁знания	-10.7367
▁участк	-10.7371
▁палітычным	-10.7373
▁герцаг	-10.7374
▁сила	-10.7374
▁местны	-10.7382
▁складзены	-10.7388
▁политически	-10.7389
▁буйно	-10.7393
▁прызнаны	-10.7393
▁сябрам	-10.7396
▁маст	-10.7397
▁Будын	-10.7399
▁ребёнка	-10.7403
▁сцены	-10.7403
,6	-10.7406
▁натуральна	-10.7407
▁большинств	-10.7409
▁Рэспублі	-10.741
▁герцага	-10.7411
▁сотн	-10.7413
▁бра	-10.7414
▁секс	-10.742
▁дэпартамент	-10.7421
▁придёт	-10.7421
▁понимат	-10.7422
▁мысль	-10.7422
▁парку	-10.7424
8	-10.7424
дом	-10.743
▁знайсц	-10.7431
▁Ганна	-10.7433
▁езда	-10.7434
▁Тр	-10.7434
▁камандзір	-10.7437
▁видно	-10.7437
▁клетк	-10.7438
▁бальшавік	-10.7444
▁Карэ	-10.7446
‰	-10.7448
▁прода	-10.7448
▁заявіў	-10.7449
▁пуст	-10.745
▁марско	-10.7451
▁адзначы	-10.7451
▁Ісуса	-10.7454
▁природы	-10.7454
озера	-10.7457
▁изуча	-10.746
щая	-10.746
▁построен	-10.746
ским	-10.7465
▁аўтарам	-10.7466
▁галіна	-10.7466
▁спрыя	-10.7467
▁робот	-10.7467
▁мама	-10.7471
▁прама	-10.7473
▁Зеланды	-10.7475
▁Чэмпіён	-10.7475
or	-10.7476
▁місі	-10.7478
вест	-10.7479
▁лицо	-10.748
▁1970-	-10.7482
▁намер	-10.7487
▁захоп	-10.7488
щего	-10.7494
▁кв	-10.7498
зіць	-10.7501
▁пацярпел	-10.7501
▁игры	-10.7503
▁лидер	-10.7503
▁прэс	-10.7503
рен	-10.7504
З	-10.7504
▁общем	-10.7504
▁імператарам	-10.7506
▁ўласцівасц	-10.7507
вёл	-10.7516
▁вёў	-10.7517
▁Наш	-10.7522
▁драматург	-10.753
▁разбураны	-10.753
▁зялёны	-10.753
▁опять	-10.7531
▁хат	-10.7533
▁зрабіла	-10.7539
▁апошнім	-10.7539
▁встреча	-10.754
ланд	-10.7545
▁каштоўны	-10.7546
▁забойства	-10.7552
▁захапіл	-10.7554
льга	-10.7555
▁34	-10.7556
юль	-10.7557
лінейна	-10.7558
▁далейша	-10.7561
чувствовать	-10.7563
▁взял	-10.7568
▁мастацтв	-10.7577
летни	-10.7578
▁спрыял	-10.7582
ідаў	-10.7584
▁Казіміра	-10.7584
▁поступ	-10.7585
▁маленька	-10.7586
▁праведзена	-10.7586
▁художник	-10.7586
▁Брэст	-10.7586
▁заняпад	-10.7586
▁вусце	-10.7586
▁унутраны	-10.7587
▁Бацька	-10.7587
▁Думаю	-10.7588
бит	-10.759
▁абраз	-10.7591
▁Джордж	-10.7591
▁Род	-10.7592
▁хац	-10.7598
▁графа	-10.76
▁никако	-10.7601
▁добры	-10.7609
тэрытарыяльна	-10.761
ющихся	-10.7611
▁механизм	-10.7614
▁одновременно	-10.7614
▁изменени	-10.7614
▁істотна	-10.7618
▁навука	-10.7622
▁кандыдата	-10.7622
▁транспартны	-10.7623
▁человеком	-10.7625
▁дума	-10.7625
▁пут	-10.7626
▁Хар	-10.7628
124	-10.7634
эння	-10.7634
▁прымае	-10.7635
▁банка	-10.7641
▁угроз	-10.7641
▁мод	-10.7642
падзення	-10.7644
▁имени	-10.7648
рана	-10.7652
▁рассказал	-10.7654
▁далучыў	-10.7669
$	-10.7669
▁вылучы	-10.7669
▁глаз	-10.767
▁пал	-10.7671
▁пациент	-10.7671
▁Ці	-10.7672
▁рот	-10.7674
▁праводзілі	-10.7674
▁рэдактара	-10.7682
▁жил	-10.7686
▁роста	-10.7686
▁артылеры	-10.7694
▁знешні	-10.7694
▁конфликт	-10.7697
▁ўзначалі	-10.7697
▁прастол	-10.7697
▁Прыпяц	-10.7698
дали	-10.7699
▁база	-10.7699
▁Бярэзін	-10.7699
▁лічылі	-10.7703
вым	-10.7707
▁праводзя	-10.7707
▁зда	-10.771
▁лег	-10.771
▁дапамага	-10.7711
M	-10.772
▁170	-10.7722
▁вывучэнне	-10.7724
▁двига	-10.7725
▁Міжнародны	-10.7725
▁малодшы	-10.7725
▁пришли	-10.7726
▁экс	-10.773
▁выданн	-10.7731
▁ошибк	-10.7732
▁сусветн	-10.7733
▁праходзя	-10.7738
▁Земли	-10.7742
▁мужчины	-10.7746
x	-10.775
▁Італія	-10.775
▁камян	-10.7754
▁изображение	-10.7754
▁сельскі	-10.7758
▁будаўніцтв	-10.7761
▁свабодны	-10.7764
▁трапіў	-10.7764
▁глобально	-10.7765
думайте	-10.7765
▁Была	-10.7769
▁выяв	-10.7769
цяка	-10.7772
▁берагав	-10.7777
▁начальнік	-10.7778
▁больши	-10.7779
▁карон	-10.778
▁стату	-10.7781
▁Верхня	-10.7782
▁умер	-10.7783
▁вызвалены	-10.7783
уш	-10.7785
▁устройство	-10.7787
енные	-10.7792
▁Рака	-10.7797
▁верша	-10.7801
et	-10.7807
▁Африки	-10.7809
▁страціл	-10.781
▁Сёння	-10.781
ющего	-10.7815
казам	-10.7815
▁чэмпіяна	-10.7815
▁канстытуцы	-10.7817
▁Палат	-10.7817
▁падання	-10.7818
▁органам	-10.782
▁сучасным	-10.782
▁гаспадарчы	-10.7821
ванне	-10.7821
УС	-10.7827
рава	-10.783
▁1880	-10.7832
имся	-10.7832
▁ўзніка	-10.7833
оўскі	-10.7834
▁атрада	-10.7838
▁Іерусалім	-10.7839
▁Магілёв	-10.7839
▁фотография	-10.784
▁значительно	-10.7841
▁памера	-10.7844
ежы	-10.7845
▁мірна	-10.7852
▁складана	-10.7856
▁особ	-10.7857
▁Рад	-10.7862
▁вызначэнн	-10.7862
щей	-10.7867
▁Брытанска	-10.7867
▁святар	-10.7868
E	-10.7868
рова	-10.7868
▁шар	-10.7868
▁сонца	-10.7869
▁збудавання	-10.7871
▁идей	-10.7872
▁авто	-10.7873
▁заяв	-10.7874
▁Ку	-10.788
▁спадарожнік	-10.7887
▁Працягл	-10.7896
▁Транспартны	-10.7896
▁институт	-10.7896
▁падзялі	-10.7896
▁аўтаномна	-10.7896
▁росквіт	-10.7896
▁прыгарад	-10.7896
▁паняцце	-10.7897
▁Пахаван	-10.7899
▁картинк	-10.79
вел	-10.7903
▁построить	-10.7903
▁машина	-10.7904
▁состоянии	-10.7904
▁Америке	-10.7904
▁куб	-10.7907
▁багата	-10.791
▁Марк	-10.7913
▁Бер	-10.7918
▁бацькам	-10.7921
▁займала	-10.7921
нтэ	-10.7923
вес	-10.7923
▁потенциал	-10.7924
▁рамана	-10.7925
▁Вышын	-10.7925
▁арганізм	-10.7927
▁открыты	-10.793
▁незалежны	-10.7931
▁рыба	-10.7933
▁Уз	-10.7936
▁Кніг	-10.7937
▁аж	-10.7939
▁кажу	-10.794
сцю	-10.794
▁мил	-10.7949
ложить	-10.795
▁имел	-10.7951
▁ўстанов	-10.7951
▁кааліцы	-10.7953
▁мяса	-10.7954
▁традыцыя	-10.7955
▁ХХ	-10.7955
чан	-10.7959
▁вывод	-10.7961
▁мільён	-10.7969
▁de	-10.7971
▁лодк	-10.7973
ющую	-10.7974
▁ліг	-10.7975
▁дасягнуў	-10.7976
▁мадэль	-10.7977
▁Амундсен	-10.7982
▁Імперы	-10.7982
▁кроме	-10.7982
▁Востра	-10.7989
▁узрос	-10.799
оборот	-10.7992
▁Тур	-10.7992
▁адчува	-10.7997
телей	-10.8
▁организаци	-10.8003
вания	-10.8005
▁использовали	-10.8006
▁Ан	-10.801
▁Магчыма	-10.8011
▁знішчэнн	-10.8011
▁маленькі	-10.8011
▁зрабілі	-10.8012
it	-10.8014
▁расс	-10.8021
▁климата	-10.8027
▁птушк	-10.803
▁кому	-10.803
▁матч	-10.8031
▁Усходні	-10.8031
▁напісанн	-10.8032
▁нерв	-10.8033
илл	-10.8034
▁Сям	-10.8036
▁средства	-10.8037
▁злучэння	-10.8037
▁Сярэднявечч	-10.804
▁реклам	-10.804
▁прафесійны	-10.8041
фу	-10.8041
▁невыс	-10.8045
верить	-10.8046
▁Адраджэнн	-10.8048
▁Нідэрланда	-10.805
▁праблема	-10.8051
верху	-10.8056
▁борьб	-10.8059
люб	-10.8059
▁скоро	-10.8064
▁мінска	-10.8065
▁лесам	-10.8067
▁Нужн	-10.8072
▁завода	-10.8073
нцаў	-10.8077
▁миллиарда	-10.8082
▁прыня	-10.8085
▁мечта	-10.8091
сотни	-10.8092
суд	-10.8092
▁Ни	-10.8096
▁Видео	-10.8098
▁страціў	-10.8098
▁нічо	-10.8098
▁эксплуатацы	-10.8098
▁арабска	-10.81
удаўніцтва	-10.8101
ющиеся	-10.8102
▁маленькие	-10.8102
▁часціц	-10.8105
▁ектам	-10.8106
▁прэмія	-10.8107
ывает	-10.8109
беж	-10.8111
▁недалёк	-10.8118
▁любим	-10.8122
▁стады	-10.8122
▁пяти	-10.8124
▁Фларэнцы	-10.8127
▁зроблена	-10.8127
▁цяперашня	-10.8127
▁совет	-10.8129
▁змяніў	-10.8129
▁создание	-10.8133
▁хран	-10.8134
▁фермер	-10.8135
▁канц	-10.8136
ания	-10.8138
▁любом	-10.8141
▁абмен	-10.8143
▁прыняцц	-10.8144
▁лацінск	-10.8147
▁забіў	-10.8154
▁стагоддзе	-10.8154
▁сена	-10.8155
▁Ганн	-10.8156
▁Еўрабачанн	-10.8157
▁аудитори	-10.8157
▁сённяшні	-10.8157
▁пастаўлены	-10.8157
▁голас	-10.8158
воду	-10.8161
▁Бачн	-10.8161
▁Рэйн	-10.8165
▁квадрат	-10.817
▁ну	-10.817
▁духоўны	-10.8173
▁трав	-10.8173
▁архітэктурны	-10.8174
▁силу	-10.8175
аты	-10.8179
▁Марка	-10.8181
▁Сталіца	-10.8186
▁ВИЧ	-10.8186
▁велики	-10.8186
▁геаграфічны	-10.8189
▁вымярэння	-10.819
▁зямно	-10.8194
мір	-10.8194
▁здание	-10.8197
▁поделить	-10.8201
▁узнал	-10.8201
▁Эл	-10.8203
▁Французска	-10.8204
▁лица	-10.8209
аваны	-10.8214
▁аўтаномі	-10.8215
▁перакладчык	-10.8216
▁агент	-10.8216
▁сердце	-10.8217
▁явля	-10.8218
▁живы	-10.8218
▁принять	-10.8219
▁культуру	-10.822
▁абодва	-10.8225
▁куп	-10.8229
▁руха	-10.8232
вший	-10.8233
▁вызначаны	-10.8235
▁дол	-10.824
▁обнаружил	-10.824
нок	-10.8244
▁недахоп	-10.8245
▁склалі	-10.8245
▁Дз	-10.8246
▁праекц	-10.8246
▁140	-10.8247
нікі	-10.8249
▁групу	-10.8251
▁прамо	-10.8253
▁стадыён	-10.8254
▁паўстанц	-10.8257
нить	-10.8259
▁увайшл	-10.8261
план	-10.8262
▁абласця	-10.8263
▁Час	-10.8265
▁магутны	-10.8265
U	-10.8268
▁Нясвіж	-10.8271
▁удивительны	-10.8274
▁представляет	-10.8275
ізму	-10.8276
▁геном	-10.8276
▁чуть	-10.8276
ань	-10.8276
▁современно	-10.8279
бро	-10.828
▁научны	-10.8284
▁Размешчана	-10.8289
▁влияние	-10.829
▁балот	-10.8293
▁Аль	-10.8294
▁кост	-10.8295
дите	-10.8295
▁1870	-10.8297
▁Кен	-10.8309
▁очевидно	-10.8312
▁спадарожніка	-10.8313
▁Філіп	-10.8314
▁праграма	-10.8315
▁крытыка	-10.8321
▁узбярэжж	-10.8332
▁арыентацы	-10.8334
▁характер	-10.8334
▁секрет	-10.8334
▁Мало	-10.8336
▁времена	-10.8337
▁цягам	-10.8341
▁Брагін	-10.8342
▁цяжкасц	-10.8342
▁Парыжа	-10.8343
▁доўжы	-10.8346
▁лож	-10.8352
▁Шыр	-10.8353
могут	-10.8356
бачыў	-10.8357
▁сыр	-10.8358
▁бака	-10.8358
▁галерэ	-10.8358
▁абаронца	-10.8362
▁ситуация	-10.8362
▁семья	-10.8362
слав	-10.8362
▁Вашынгтон	-10.8364
▁ўзначальва	-10.8364
ліва	-10.8364
▁выступленн	-10.8364
▁рэспубліканска	-10.8365
▁какое	-10.8365
▁вверх	-10.8365
▁злучаны	-10.8366
▁заве	-10.8366
▁арбіт	-10.8367
тесь	-10.8368
чем	-10.8371
▁создан	-10.8372
▁аблог	-10.8373
▁Адным	-10.8374
КП	-10.8375
вое	-10.838
ёл	-10.838
▁сцвярджа	-10.8384
▁мер	-10.8387
▁187	-10.839
▁бачы	-10.839
И	-10.8391
at	-10.8391
▁эсперант	-10.8392
▁пераходзі	-10.8393
▁Дынама	-10.8394
▁существую	-10.8395
▁вида	-10.8399
▁R	-10.8399
▁адрозненн	-10.84
▁павялічы	-10.8401
сю	-10.8401
▁приводит	-10.8402
▁Полацк	-10.8409
▁нямецкім	-10.841
ранейша	-10.8415
над	-10.8416
▁рэзідэнцыя	-10.8417
▁вільготны	-10.8424
▁ускраін	-10.8424
▁лёгкі	-10.8425
▁Китай	-10.8426
пит	-10.8431
▁маладо	-10.844
▁называют	-10.8446
▁этнічна	-10.8447
▁друзья	-10.8448
▁медыцын	-10.8449
ница	-10.8453
▁друзей	-10.8455
▁распрацоў	-10.8455
▁дэтал	-10.8457
▁пясчаны	-10.8457
ации	-10.8459
▁сол	-10.8461
▁сожалению	-10.8461
пустить	-10.8462
вание	-10.8465
▁педагагічны	-10.8466
зо	-10.8469
▁физически	-10.8471
▁студы	-10.8471
▁архітэктара	-10.8472
▁20-	-10.8473
▁Кастрычніцка	-10.8477
▁магіл	-10.8478
▁сімвалам	-10.8479
▁распрацаваны	-10.8481
▁Ди	-10.8483
ПС	-10.8485
дро	-10.8487
▁мальчик	-10.8488
▁сухі	-10.8489
▁ваенн	-10.8492
▁кошк	-10.8493
▁экспедыцыя	-10.8497
гляд	-10.85
▁змяшча	-10.8503
▁медыцынска	-10.8506
▁Канады	-10.8507
▁рухавік	-10.8509
▁здабыч	-10.8514
▁Свяшчэнна	-10.8515
▁маштаб	-10.8515
▁получает	-10.8515
▁MC	-10.8516
▁дада	-10.8516
▁парушэнн	-10.8518
▁дзеянне	-10.8519
▁каралева	-10.8521
▁далёка	-10.8521
▁пакалення	-10.8522
свет	-10.8522
▁идее	-10.8523
▁прызнача	-10.8529
▁выпуск	-10.853
▁касает	-10.8532
▁будучын	-10.8532
▁думает	-10.8537
▁Пінск	-10.8538
зву	-10.854
,9	-10.854
▁Генрых	-10.8544
▁Посмотрите	-10.8546
▁адноўлены	-10.8546
▁Пашыран	-10.8546
▁школах	-10.8547
▁узор	-10.8549
▁каралеўскі	-10.855
▁міфалогі	-10.855
▁максімальна	-10.8551
es	-10.8551
бел	-10.8551
▁U	-10.8552
▁Ещ	-10.8553
▁атрымліва	-10.8562
▁Сар	-10.8562
▁шч	-10.8562
▁считают	-10.8563
en	-10.8564
▁гол	-10.8564
▁электрон	-10.8571
▁прызначэнн	-10.8571
▁словам	-10.8575
▁забалочаны	-10.8576
▁of	-10.8576
▁грамадзянскі	-10.8577
▁здыма	-10.8577
▁хатні	-10.8579
ячэ	-10.858
▁сяло	-10.8581
▁атрыманы	-10.8587
▁масів	-10.859
▁Сучасны	-10.8595
нием	-10.8602
▁фоне	-10.8603
несены	-10.8603
▁определени	-10.8603
lt	-10.8603
▁апавядання	-10.8607
▁Старажытна	-10.8607
▁адзначае	-10.861
кол	-10.8613
▁Джона	-10.8618
▁центре	-10.8619
▁Часам	-10.8623
▁сначала	-10.8626
▁продолжать	-10.8627
▁тэхналогі	-10.8629
▁недель	-10.8641
▁чака	-10.8641
▁поиска	-10.8644
▁манастыра	-10.8649
▁Вільгельм	-10.8651
гуляў	-10.8659
▁смогу	-10.866
▁кажды	-10.8662
,4	-10.8666
▁думали	-10.8666
▁эфект	-10.8668
▁вяршын	-10.8668
▁сапраўд	-10.8668
▁эмоци	-10.8669
▁ўтварае	-10.8669
▁Свабод	-10.8669
▁друкарн	-10.8669
▁угодно	-10.8669
▁навучанне	-10.867
▁футбольны	-10.867
▁ўклад	-10.867
▁Мір	-10.8672
▁пайшл	-10.8675
▁захапіў	-10.8679
▁НК	-10.8681
вно	-10.8681
▁араб	-10.8683
▁інтарэс	-10.8686
▁Універсітэт	-10.8688
жил	-10.8688
▁гар	-10.8691
▁геро	-10.8692
▁Вікіпеды	-10.87
▁наверное	-10.87
▁слайд	-10.87
▁лекцы	-10.8701
ьмі	-10.8715
▁Рэч	-10.8718
▁нейкі	-10.872
▁современны	-10.8723
▁микро	-10.8724
▁Дзмітры	-10.873
▁испытыва	-10.8731
▁использует	-10.8731
▁фактически	-10.8734
▁миллиард	-10.8734
▁аддзялення	-10.8736
душ	-10.8741
▁ўчастк	-10.8744
▁создаёт	-10.8746
▁объяснит	-10.8747
▁основны	-10.875
▁Под	-10.8751
▁запис	-10.8753
▁Віленскі	-10.8755
▁крама	-10.8755
▁рашэнн	-10.8755
▁целом	-10.8755
▁рабі	-10.8759
▁практик	-10.8762
▁Жамойц	-10.8762
▁аппарат	-10.8762
▁дрэў	-10.8762
▁глубин	-10.8762
▁представление	-10.8763
▁кін	-10.8764
▁пытаемся	-10.8764
тивно	-10.8765
▁ракет	-10.8766
▁зал	-10.8767
▁выкарыстоўваў	-10.8773
▁поток	-10.8774
▁арабскі	-10.8777
▁Европе	-10.8777
рэдка	-10.878
▁мясцовым	-10.878
▁шта	-10.8789
▁боль	-10.879
▁Сацыялістычна	-10.8791
▁праціўніка	-10.8791
▁пункту	-10.8792
▁объём	-10.8793
▁супрацоўніча	-10.8793
▁Героя	-10.8793
▁Васіл	-10.8794
РП	-10.8797
▁130	-10.8799
▁адзінства	-10.88
▁десятк	-10.8801
кая	-10.8801
▁бог	-10.8803
▁прыбыў	-10.8805
нными	-10.8814
▁мирово	-10.8822
▁правіл	-10.8822
▁ўнутр	-10.8824
▁Арганізацы	-10.8824
▁класіфікацы	-10.8824
▁ўніверсітэц	-10.8824
▁родители	-10.8824
▁Каралеўска	-10.8824
▁адмаўля	-10.8824
▁фармальна	-10.8825
▁власти	-10.8825
▁ранее	-10.8825
▁Акцябрскі	-10.8828
▁іграко	-10.8829
▁голову	-10.883
атэ	-10.883
▁горна	-10.883
▁скал	-10.883
▁змог	-10.8831
рн	-10.8833
▁зас	-10.8838
▁Вільню	-10.8839
▁ўдзельнічал	-10.8841
▁рассказыва	-10.8851
▁выступі	-10.8853
▁публіцыст	-10.8854
▁президент	-10.8856
▁транспорт	-10.8856
▁ярус	-10.8857
▁гал	-10.8857
▁распаўсюдзі	-10.8858
жать	-10.8858
▁абарані	-10.8861
▁K	-10.8861
▁надпіс	-10.8864
▁палёт	-10.8866
▁снег	-10.8867
▁спа	-10.8867
▁фарміравання	-10.8874
▁болезнь	-10.8876
▁растени	-10.8876
▁проблемой	-10.888
▁1860	-10.8881
▁недо	-10.8881
▁шум	-10.8882
▁далучэнн	-10.8883
▁зняволенн	-10.8887
▁характарыстык	-10.8887
▁рэгулярна	-10.8887
▁недостаточно	-10.8888
▁бярэ	-10.8888
▁распаду	-10.8888
▁Прэм	-10.8888
▁ваявод	-10.8889
▁часова	-10.8889
▁меркаванне	-10.889
камі	-10.8891
▁случая	-10.8894
▁чыта	-10.8895
▁делаю	-10.8897
▁счастлив	-10.8897
R	-10.8899
▁раскры	-10.89
▁захоўваю	-10.8909
▁Рус	-10.891
▁заняла	-10.8918
▁Слуцка	-10.8919
▁гіпотэз	-10.8919
▁Бавары	-10.8919
▁паранены	-10.8919
▁условия	-10.8919
▁характарызуе	-10.8919
▁млын	-10.892
▁прыхільнікам	-10.892
ниц	-10.8922
▁правительства	-10.8925
▁любовь	-10.8933
▁ваша	-10.8933
▁сведча	-10.894
▁Ген	-10.8941
▁ўжывае	-10.8941
▁виды	-10.8941
▁руча	-10.8945
▁Візанты	-10.8949
▁разнастайнасц	-10.8951
▁кантакт	-10.8951
▁піша	-10.8951
▁труп	-10.8951
▁геаграфічна	-10.8953
▁выразна	-10.8953
▁ЕС	-10.8955
▁заниматься	-10.8956
▁длин	-10.8959
▁работали	-10.8959
▁апарат	-10.8963
▁искусств	-10.8965
▁произойд	-10.8971
▁буйным	-10.8972
▁ляса	-10.8972
▁іслам	-10.898
▁00	-10.898
▁даследава	-10.8981
▁змешчаны	-10.8983
▁ўступіл	-10.8983
ехать	-10.8984
▁живёт	-10.8984
▁ўстанова	-10.8985
▁полк	-10.8987
▁существовани	-10.899
▁Где	-10.899
▁навуков	-10.8991
оби	-10.8991
джа	-10.8992
▁фар	-10.8994
▁Антон	-10.9003
▁Гара	-10.9003
▁вадаёма	-10.9006
▁искусства	-10.9009
▁капитал	-10.901
▁широко	-10.9015
▁ацэньва	-10.9015
▁уласна	-10.9015
▁груз	-10.9015
▁доступны	-10.9016
▁возможностей	-10.9016
стыль	-10.9022
▁океана	-10.9023
▁каралев	-10.9025
▁получается	-10.9025
▁всеми	-10.9029
▁Смаленск	-10.9031
▁аграгарад	-10.9031
яўлення	-10.9033
енный	-10.9034
▁Джо	-10.9034
▁заву	-10.9038
▁лечения	-10.9042
▁дыяметр	-10.9043
▁класічны	-10.9046
▁Большинство	-10.9047
▁грудз	-10.9047
▁экономически	-10.9048
▁законам	-10.9048
▁изобретен	-10.9052
айстар	-10.9053
▁огромны	-10.9064
▁рэчыв	-10.907
енных	-10.907
адварот	-10.9074
▁книгу	-10.9079
▁получают	-10.9079
▁десяти	-10.908
▁километров	-10.9083
▁процессе	-10.9085
▁расце	-10.9091
▁ўмацаванн	-10.9093
▁ше	-10.9094
крас	-10.9094
▁зарад	-10.9095
▁85	-10.9097
бар	-10.9104
▁дэмакраты	-10.9106
▁назвал	-10.9108
▁меркава	-10.9111
×	-10.9111
▁неделю	-10.9112
овали	-10.912
▁забот	-10.9121
▁оценк	-10.9122
▁вынікам	-10.9123
▁страт	-10.913
▁искусство	-10.9132
▁выеха	-10.9134
▁Мексік	-10.9135
▁отношени	-10.914
▁Дум	-10.9142
▁мужчынска	-10.9142
▁рос	-10.9142
▁использование	-10.9143
▁намаляваны	-10.9143
▁віленскі	-10.9143
▁здолел	-10.9143
▁узнагароджаны	-10.9144
▁Генеральна	-10.9144
▁мужчина	-10.9144
▁паступа	-10.9144
▁фактар	-10.9144
▁Балтыйска	-10.9145
▁калегі	-10.9145
7	-10.9147
эс	-10.9147
▁труб	-10.9154
▁змест	-10.9155
▁рынка	-10.9156
▁гурта	-10.9156
▁фінал	-10.9156
овіч	-10.9157
ur	-10.916
лёт	-10.9171
▁надзвычай	-10.9172
▁перада	-10.9175
▁условиях	-10.9175
▁Трэця	-10.9176
▁ахопліва	-10.9176
▁земляробства	-10.9176
▁рэпрэсі	-10.9176
▁операци	-10.9176
▁текст	-10.9177
віцэ	-10.9177
▁механізм	-10.9177
▁Казімір	-10.9177
▁манах	-10.9178
▁Сіры	-10.9179
▁заня	-10.9179
▁связан	-10.9181
▁Выступа	-10.9185
▁занялі	-10.9187
▁Кітай	-10.9189
▁камандзіра	-10.919
▁указ	-10.9191
▁Мес	-10.9194
▁дарога	-10.9201
▁навукоўца	-10.9202
пс	-10.9202
▁проз	-10.9205
фо	-10.9206
▁Благодар	-10.9208
▁Літоўскі	-10.9208
▁антычна	-10.9208
▁дысцыплін	-10.9208
▁Кожны	-10.9208
▁посмотрел	-10.9209
▁ліста	-10.921
▁Карал	-10.9218
▁последствия	-10.9218
▁состав	-10.9219
▁попыта	-10.9219
▁выявы	-10.9222
▁пастанов	-10.9223
готов	-10.9233
рг	-10.9233
▁моем	-10.9234
▁чалавецтв	-10.9241
▁турызм	-10.9242
▁участка	-10.9242
▁живём	-10.9242
▁общи	-10.9243
▁рэвалюцыйна	-10.9245
▁універсітэт	-10.9245
даваў	-10.9246
▁Фрыдрых	-10.9247
▁вярхоў	-10.9249
йтесь	-10.9253
▁усім	-10.9256
ежу	-10.9259
▁мол	-10.926
▁Аўгуст	-10.9261
▁пагадненне	-10.9261
▁появля	-10.9262
▁рэжысёр	-10.9263
▁отдел	-10.9263
▁прадукта	-10.9264
▁Нансен	-10.9265
▁ўзнагарод	-10.9266
пярэд	-10.9274
▁Сва	-10.9274
▁Вікторы	-10.9274
▁Кангрэс	-10.9274
▁момента	-10.9274
▁позже	-10.9275
▁участие	-10.9281
▁кандыдат	-10.9284
дна	-10.9287
▁спыні	-10.9295
▁выраша	-10.9296
▁Важн	-10.9296
▁зямля	-10.9296
▁полі	-10.9297
▁вывучае	-10.9298
овал	-10.9298
▁богат	-10.9298
▁43	-10.9299
v	-10.93
▁яўрэйскі	-10.93
емонт	-10.9301
▁немагчыма	-10.9302
▁детям	-10.9307
▁Марс	-10.9307
▁сустрэ	-10.9308
насці	-10.9311
▁научно	-10.9312
▁асуджаны	-10.9313
▁між	-10.9315
▁савецкім	-10.9315
▁180	-10.9318
▁пациентов	-10.9323
▁Сен	-10.9325
льше	-10.9326
▁создани	-10.933
цев	-10.933
▁радио	-10.9331
▁град	-10.9333
▁расту	-10.9334
▁чувствовал	-10.9337
▁Джэймс	-10.934
▁старэйша	-10.934
▁поўны	-10.934
▁команд	-10.934
▁валодае	-10.9342
▁Частка	-10.9346
▁бакавы	-10.935
▁39	-10.935
▁занятк	-10.935
▁здравоохранения	-10.9352
▁паселішч	-10.9355
▁вакзал	-10.936
▁выбраны	-10.9362
▁магістра	-10.9364
НК	-10.9364
▁замечательно	-10.9368
▁ясно	-10.9372
▁Вярхоўны	-10.9373
▁информация	-10.9373
▁расстояни	-10.9373
▁ўладальнік	-10.9374
▁самолёт	-10.9375
▁Інстыту	-10.9375
вил	-10.9376
▁Савецкі	-10.9376
▁Жы	-10.9376
▁прысвечана	-10.9376
▁каменна	-10.9398
▁працягвалі	-10.9398
▁пачаткова	-10.9399
▁сможете	-10.9403
ющими	-10.9405
▁внимания	-10.9406
▁символ	-10.9406
вторы	-10.9408
▁кухн	-10.9408
▁будете	-10.941
▁любимы	-10.9413
▁сильны	-10.9414
▁малюнк	-10.9414
▁Ордэна	-10.9415
▁Чырвон	-10.9419
▁рабоча	-10.942
▁Юр	-10.9425
▁стаял	-10.9429
▁прыма	-10.9436
▁аснова	-10.9436
▁Швецыя	-10.9438
▁перайменаван	-10.944
▁ўстаноўлен	-10.944
▁выконвае	-10.9443
абель	-10.9444
▁сухо	-10.9446
▁желание	-10.9447
▁бацькоў	-10.945
▁истин	-10.9453
нікаў	-10.9455
▁чалавечы	-10.9463
чкой	-10.9465
шей	-10.9466
▁цэлы	-10.9467
▁этнічны	-10.9468
▁Ліг	-10.9468
▁Нас	-10.947
▁плато	-10.9471
▁прогресс	-10.9473
▁Касцёл	-10.9473
▁галактик	-10.9473
▁Ленінград	-10.9473
▁чувства	-10.9475
,	-10.9476
▁матча	-10.9478
▁помогает	-10.9479
▁1,2	-10.948
▁беспоко	-10.948
шоў	-10.948
▁верніка	-10.9485
▁Нёман	-10.9487
▁пользу	-10.9488
▁шука	-10.9491
▁выбра	-10.9491
▁реальны	-10.9494
▁бако	-10.9499
▁Канстытуцыя	-10.95
▁кампазітара	-10.9503
▁утвораны	-10.9505
▁арышт	-10.9505
▁Чорны	-10.9507
▁Далей	-10.9509
▁Міс	-10.9512
▁ледз	-10.9518
▁мышц	-10.9519
▁исп	-10.9521
▁назірання	-10.9524
▁рэальна	-10.9525
▁фізі	-10.9527
▁Нідэрланд	-10.9528
▁общественно	-10.9529
▁довери	-10.953
стыя	-10.9536
▁действительност	-10.9538
▁рэстаўрацы	-10.954
▁зависит	-10.954
▁услуг	-10.954
▁адмысловы	-10.954
▁маскоўска	-10.954
▁заслуг	-10.954
▁обучения	-10.9541
▁малюнка	-10.9541
▁тыдня	-10.9541
▁парень	-10.9541
▁дасягнення	-10.9544
▁определить	-10.9547
▁44	-10.955
▁вада	-10.9552
▁згод	-10.9558
▁перадаў	-10.9559
▁задума	-10.9559
▁Асноўным	-10.9562
▁абсалютна	-10.9562
ётся	-10.9562
▁доктор	-10.957
,2	-10.9571
▁рабілі	-10.9572
кага	-10.9572
▁Сонечна	-10.9574
▁абвяшчэнн	-10.9574
▁фірм	-10.9574
▁исход	-10.9575
▁ядна	-10.9575
▁даліна	-10.9578
енным	-10.9579
▁Герой	-10.9582
нным	-10.9587
верю	-10.9588
▁лясны	-10.959
▁адлюстроўвае	-10.9593
▁земли	-10.9595
прост	-10.9598
▁прыйшло	-10.9599
дти	-10.96
▁вопыт	-10.9604
▁екты	-10.9606
▁вред	-10.9607
▁Аршанскі	-10.9608
▁гарнізон	-10.9608
▁расположен	-10.9608
▁бед	-10.9609
▁скрыжаванн	-10.9612
▁Суд	-10.9614
▁Карол	-10.9618
▁Выда	-10.9623
шэ	-10.963
▁бор	-10.9632
Йорке	-10.9637
▁лекарства	-10.9639
▁мнени	-10.9641
▁Югаславі	-10.9642
▁змяненн	-10.9642
▁космос	-10.9642
▁экспарт	-10.9642
▁карьер	-10.9642
▁палі	-10.9648
▁валас	-10.9649
▁страна	-10.9651
▁автор	-10.9652
▁создают	-10.9658
является	-10.9659
▁играть	-10.9667
▁юрыдычны	-10.967
лик	-10.9673
▁Атрымаў	-10.9676
▁адноўлена	-10.9676
▁навакольна	-10.9676
▁паражэнне	-10.9676
▁патрабуе	-10.9676
▁узначальва	-10.9676
▁Оскар	-10.9676
▁далучаны	-10.9676
▁умоў	-10.9678
▁Астрав	-10.9678
▁праваслаў	-10.9679
чки	-10.968
▁выяўлена	-10.968
▁аказала	-10.9683
▁Канстанцін	-10.9688
▁камісія	-10.969
▁понимание	-10.9693
▁механік	-10.9693
▁целью	-10.9695
таки	-10.9699
▁небольши	-10.9703
▁актрыса	-10.9705
▁Дон	-10.9707
▁улиц	-10.9707
▁развіта	-10.9709
T	-10.971
▁пейзаж	-10.971
▁ребёнок	-10.971
купить	-10.9719
▁швед	-10.9721
▁змяняе	-10.9723
льна	-10.9728
▁понимаю	-10.9728
рел	-10.9728
▁48	-10.973
▁масс	-10.9731
▁Менск	-10.9733
▁радовішч	-10.9735
▁доста	-10.974
▁Сапега	-10.9742
▁любі	-10.9743
▁змена	-10.9744
▁ледавік	-10.9744
▁гадз	-10.9744
▁Станіслаў	-10.9745
▁достичь	-10.9745
▁Пабудаван	-10.9745
▁парафі	-10.9745
▁собак	-10.9746
▁Сапег	-10.9748
▁уваг	-10.975
▁общественны	-10.9751
▁методы	-10.9751
▁студентов	-10.9755
▁клетка	-10.9759
▁изменение	-10.9761
▁верно	-10.9761
▁Слуцк	-10.9762
▁Іосіф	-10.9764
▁Стра	-10.9766
▁Дан	-10.9769
▁БА	-10.977
▁дата	-10.977
▁Генрыха	-10.9771
▁вполне	-10.9772
изации	-10.9773
▁сумм	-10.9777
▁тэлебачанн	-10.9779
▁інтэнсіўна	-10.9779
▁машину	-10.9779
▁относительно	-10.9779
▁здоровье	-10.978
▁дырэктарам	-10.978
▁паказал	-10.978
▁яднана	-10.9783
▁сним	-10.9785
▁провер	-10.9785
▁вперёд	-10.9787
▁ўтварэння	-10.979
▁Міністра	-10.9792
пала	-10.9792
▁обращ	-10.9792
щик	-10.9795
изма	-10.9802
▁всём	-10.9805
4	-10.9805
альная	-10.9807
▁летні	-10.9812
▁сапраўдны	-10.9813
▁Міхаіла	-10.9813
▁значным	-10.9813
▁Брытані	-10.9814
▁рэферэндум	-10.9814
▁ўзыходжанн	-10.9814
▁етнам	-10.9814
▁гармат	-10.9814
▁ужас	-10.9814
▁распрацоўк	-10.9814
▁жыло	-10.9815
▁прада	-10.9817
▁откуда	-10.9818
▁прафесара	-10.9819
▁стаіц	-10.9821
▁Рада	-10.9822
▁сялянскі	-10.9825
▁абараня	-10.9827
▁галоў	-10.9828
▁получи	-10.983
▁выконваў	-10.9831
▁спроба	-10.9833
▁46	-10.9841
▁крыві	-10.9841
▁ворага	-10.9841
▁вольны	-10.9843
▁дуб	-10.9846
▁выглядел	-10.9846
▁интеллект	-10.9848
▁федэральна	-10.9848
▁апісвае	-10.9858
▁ўтварэнн	-10.9859
▁Орш	-10.9859
▁полюса	-10.9861
оцен	-10.9864
▁пражывал	-10.9869
▁набыва	-10.9871
▁тэатральна	-10.9873
▁ХІ	-10.9873
▁крупны	-10.9874
▁количества	-10.9876
▁аўтадарог	-10.9878
верн	-10.9879
▁Картэс	-10.9883
▁ліквідацы	-10.9883
▁жаночы	-10.9883
▁палотн	-10.9883
▁жалеза	-10.9883
▁Рэй	-10.9884
▁Герб	-10.9885
▁пойма	-10.9885
▁выказаў	-10.9888
▁франта	-10.989
▁паказаў	-10.9891
▁руд	-10.9891
▁выпад	-10.9893
▁слабы	-10.9895
▁убедить	-10.9896
огласно	-10.9897
ремен	-10.9903
▁мянушк	-10.9908
▁возраста	-10.9908
пас	-10.9911
▁дваццац	-10.9912
▁ужасно	-10.9913
▁Аршанска	-10.9918
▁Перамог	-10.9918
▁спартыўны	-10.9918
▁сацыялістычна	-10.992
▁110	-10.9921
▁дасягну	-10.9923
▁просьб	-10.9923
▁самастойны	-10.9923
▁змяніла	-10.9924
▁графства	-10.9926
▁нужда	-10.9928
▁городе	-10.9933
▁лабараторы	-10.9933
▁непо	-10.9936
▁шырокім	-10.994
▁техник	-10.9943
▁высок	-10.9944
▁Бабруйска	-10.9944
▁восен	-10.9945
▁Вайн	-10.9946
▁партызанскі	-10.9946
▁вызначана	-10.9947
▁Янк	-10.9951
▁прадукт	-10.9952
▁спин	-10.9952
▁применени	-10.9953
▁конца	-10.9953
▁праводзіў	-10.9954
▁использовал	-10.9959
▁имеем	-10.9964
шки	-10.9968
▁веда	-10.9968
▁спецыяльнасц	-10.9969
▁жанчына	-10.9976
▁сообщества	-10.998
под	-10.9986
грамм	-10.9987
▁инфраструктур	-10.9989
▁класіцызм	-10.9989
▁чаще	-10.9989
▁генеральны	-10.999
▁ветр	-10.9993
▁асяроддз	-10.9994
другому	-10.9998
▁особенност	-11
▁происходя	-11.0002
чок	-11.0002
▁крам	-11.0003
▁змяня	-11.0004
▁прынесл	-11.0004
▁1850	-11.0008
коп	-11.0008
▁шчыт	-11.0013
ивши	-11.0013
▁Ціха	-11.0014
▁собираю	-11.0016
▁польск	-11.0018
▁сітуацыя	-11.0021
▁Грэ	-11.0023
▁Каліфорні	-11.0024
▁самакіраванн	-11.0024
▁каханн	-11.0024
нства	-11.0025
▁выбора	-11.0026
▁копі	-11.0026
▁пашырэнн	-11.0029
▁ўсталява	-11.0035
▁балота	-11.0038
▁Вол	-11.0039
лез	-11.0039
▁сфера	-11.0039
октар	-11.004
▁отлично	-11.0041
▁творча	-11.0044
▁Ша	-11.0045
▁мечт	-11.0045
▁баі	-11.0046
▁счастливы	-11.0049
▁Гродзенскі	-11.005
▁Аўстрыя	-11.005
▁зімо	-11.0053
▁здабы	-11.0053
▁суть	-11.0055
▁56	-11.0058
▁Інданезі	-11.0059
▁ансамбл	-11.0059
▁буйнейшы	-11.0059
ходим	-11.0062
думаете	-11.0062
▁состояние	-11.0064
▁верси	-11.0064
адні	-11.0066
▁статут	-11.0067
▁Марса	-11.0071
▁Скот	-11.0073
▁Слав	-11.0073
▁пациента	-11.0075
▁грамадств	-11.0077
▁Людовік	-11.0078
▁папулярна	-11.0081
▁пача	-11.0083
▁чыгунка	-11.0086
▁геаграфі	-11.0089
▁базы	-11.0089
▁педагагічна	-11.0091
▁доктара	-11.0092
▁Афіцыйна	-11.0095
▁ганаровы	-11.0097
▁меркавання	-11.0101
▁ферм	-11.0103
торая	-11.0103
▁паляк	-11.0107
▁армян	-11.0108
▁Антарктыд	-11.0108
▁Раман	-11.0109
▁вайсковы	-11.011
▁замечательны	-11.0112
▁Кур	-11.0112
▁пищ	-11.0114
могло	-11.0114
дня	-11.0116
▁СП	-11.0118
▁1840	-11.0118
▁Раён	-11.012
▁Луі	-11.0126
▁губернатара	-11.0127
▁собрать	-11.0129
▁позволил	-11.0131
▁колледж	-11.0131
▁позня	-11.0131
▁СМИ	-11.0131
▁аспірантур	-11.0131
▁обществе	-11.0137
▁ўспамін	-11.0138
▁далучы	-11.0138
▁караблё	-11.0141
▁брам	-11.0144
▁выказва	-11.0144
▁6-	-11.0149
▁Філіпа	-11.0149
▁карабл	-11.015
▁науки	-11.0151
ДР	-11.0155
▁мінскі	-11.0158
▁авіяцы	-11.0162
▁Уільям	-11.0165
▁какая	-11.0166
▁дэлегацы	-11.0166
▁цвёрды	-11.0166
▁сонечна	-11.0166
▁невялікім	-11.0167
▁бульб	-11.0167
▁взрыв	-11.0167
▁недели	-11.0168
учиться	-11.0168
▁штаба	-11.0169
▁традыцый	-11.017
▁пако	-11.0171
▁Гер	-11.0172
▁Стэфана	-11.0172
▁Магілёў	-11.0174
▁Лук	-11.0176
▁настаўніцк	-11.0178
▁бомб	-11.0178
▁ўдар	-11.0178
▁книг	-11.0179
искать	-11.0179
▁здзейсніў	-11.0182
▁Мяж	-11.0188
▁Пока	-11.0189
сенню	-11.0189
▁журналист	-11.0189
▁ваенным	-11.019
▁абарончы	-11.0193
▁помога	-11.0194
▁мысленн	-11.0194
▁перамов	-11.0194
▁Тако	-11.0198
▁производства	-11.02
▁параз	-11.02
▁вашем	-11.02
вядзення	-11.0202
▁населена	-11.0203
▁сабак	-11.0203
▁будущего	-11.0204
▁Святы	-11.0204
▁чаму	-11.0204
▁велізарны	-11.0208
кру	-11.0209
▁рэ	-11.0211
▁ваявода	-11.0211
▁зборніка	-11.0212
▁звыча	-11.0215
▁белым	-11.0217
▁устройства	-11.0221
▁чуж	-11.0223
▁усили	-11.0223
▁ўваход	-11.0224
▁абслугоўванн	-11.0228
авага	-11.0229
▁майстэрн	-11.0233
▁человечества	-11.0234
▁выключ	-11.0237
▁змагл	-11.0239
▁скасаваны	-11.0241
▁коллег	-11.0251
абудова	-11.0261
▁закліка	-11.0262
▁реакци	-11.0267
▁Вене	-11.0267
▁актыўнасц	-11.027
▁занимает	-11.0272
▁агн	-11.0274
▁тлумачэнн	-11.0275
▁штучны	-11.0275
тава	-11.0275
▁кітайска	-11.0275
▁прыналежнасц	-11.0276
▁курган	-11.0276
▁спе	-11.0277
▁паўстал	-11.0278
▁герцагства	-11.0278
▁нібы	-11.028
▁расти	-11.0283
▁ап	-11.0285
▁дарослы	-11.0285
▁двумя	-11.0287
▁чацвёрты	-11.0291
▁прысутнасц	-11.0294
▁высоки	-11.0294
▁распаўсюджванн	-11.0298
была	-11.0302
▁Інстытут	-11.0304
Кашалёўскі	-11.0311
▁падраздзяленн	-11.0312
▁племя	-11.0313
▁варот	-11.0314
▁определённы	-11.0317
▁стади	-11.0318
▁Земл	-11.0322
▁переход	-11.0325
конт	-11.0328
▁комплексу	-11.0329
▁Франц	-11.0331
▁апор	-11.0332
▁секунду	-11.0336
▁Кол	-11.0339
▁правял	-11.0342
▁Ваш	-11.0344
▁ран	-11.0345
▁Моцарт	-11.0348
▁пячор	-11.0348
▁Алжыр	-11.0348
▁абапіра	-11.0348
▁акупант	-11.0348
▁временем	-11.0348
ори	-11.0348
итесь	-11.0348
▁Перакла	-11.0348
▁пераехал	-11.0349
▁провести	-11.0354
▁своем	-11.0356
▁носіц	-11.0356
▁ядра	-11.0356
▁робя	-11.0358
ворот	-11.0358
▁морам	-11.036
▁паліты	-11.0376
▁Эдвард	-11.0377
▁мать	-11.0383
▁Старажытны	-11.0384
▁алгоритм	-11.0384
▁двухбакова	-11.0384
▁очередь	-11.0384
▁Атлантычна	-11.0384
▁офис	-11.0384
▁жоўты	-11.0385
▁меліярацыйны	-11.0385
▁Слова	-11.0387
▁паралельн	-11.0389
▁вось	-11.0392
▁шаш	-11.0394
▁заходнім	-11.0395
▁Южно	-11.0395
▁гімна	-11.0396
▁экономическо	-11.0396
▁согласи	-11.0397
ніца	-11.0398
▁назірае	-11.0399
▁рэч	-11.04
▁Вал	-11.0402
▁предлага	-11.0402
вые	-11.0407
▁аўстрыйскі	-11.0408
нкі	-11.0412
▁тэхнічна	-11.0412
рал	-11.0414
▁сложност	-11.0417
▁ланцуг	-11.0421
▁прапаганд	-11.0421
▁выкапн	-11.0421
▁філіял	-11.0421
▁Франс	-11.0421
▁калегіум	-11.0422
▁забарон	-11.0422
▁рынок	-11.0423
▁пространства	-11.0423
▁ўжыванн	-11.0426
цер	-11.0427
▁возраст	-11.0428
▁Мор	-11.0428
лл	-11.043
▁літара	-11.043
▁клет	-11.0431
▁Францыск	-11.0433
▁самі	-11.0434
водзя	-11.0434
▁рэлігія	-11.0435
▁забяспечвае	-11.0441
▁паліцы	-11.0441
▁Жыгімонт	-11.0446
▁Рос	-11.0447
▁французскім	-11.045
▁Мюнхен	-11.0458
▁хвалі	-11.0459
▁изображения	-11.0459
▁карціна	-11.0462
▁языка	-11.0465
▁снимк	-11.0466
▁рубл	-11.0467
▁знішчаны	-11.0467
▁дэкаратыўны	-11.0468
▁Склада	-11.0471
w	-11.0471
▁навучальна	-11.0472
▁спаборніцтва	-11.0474
▁настольк	-11.0475
▁усходня	-11.0479
▁шасці	-11.0481
тора	-11.0481
▁метады	-11.0481
▁гмін	-11.0481
▁нового	-11.0482
▁пик	-11.0486
▁вяду	-11.0488
▁адмен	-11.0488
▁написан	-11.0488
▁найлепшы	-11.0491
▁памяшкання	-11.0492
брос	-11.0493
▁многим	-11.0495
▁аднайменны	-11.0495
▁открыва	-11.0495
▁пастаянны	-11.0495
▁красот	-11.0495
▁хуже	-11.0495
▁Тацыт	-11.0495
▁развива	-11.0496
жить	-11.0503
▁графік	-11.0504
▁пралі	-11.0506
▁350	-11.0507
▁3000	-11.0508
▁систем	-11.0508
▁размяшчэнн	-11.0511
▁рэчышч	-11.0515
▁песню	-11.0515
▁кантрол	-11.0517
альным	-11.0517
ратор	-11.0517
▁манарха	-11.0519
▁Соф	-11.0521
▁Лета	-11.0525
▁арганізавана	-11.0525
▁Такі	-11.0527
▁поколение	-11.053
▁Стакгольм	-11.0532
▁камеды	-11.0532
▁вакцин	-11.0532
▁Вышэйша	-11.0532
▁углерод	-11.0532
▁Кроме	-11.0532
▁выснов	-11.0532
▁Беласток	-11.0532
▁сакратаро	-11.0545
▁памерам	-11.0546
▁работаем	-11.0546
▁Еўрапейскі	-11.0547
▁еха	-11.0552
эст	-11.0553
▁суп	-11.0553
▁руск	-11.0559
▁семей	-11.0561
▁сказаў	-11.0567
▁Названа	-11.0567
ческ	-11.0568
▁Касцюшк	-11.0569
▁епархі	-11.0569
▁гандлёва	-11.057
▁выбух	-11.057
▁сэрца	-11.0571
▁Сабор	-11.0572
андаль	-11.0572
мог	-11.0572
бежать	-11.0573
▁папярэдня	-11.0574
▁матэрыяльна	-11.0577
щую	-11.0579
▁Кіпр	-11.058
▁95	-11.058
▁Юпітэра	-11.058
▁случа	-11.0581
▁сусветны	-11.0581
▁ёзна	-11.0582
▁странно	-11.0584
▁літаратура	-11.0584
▁3,5	-11.0585
▁ніякі	-11.0587
▁Европ	-11.0588
▁Белы	-11.0589
▁адраджэнн	-11.0592
анцы	-11.0598
▁Дзев	-11.0599
▁документ	-11.0601
▁аўтамабільны	-11.0602
▁выкананне	-11.0605
▁мяркую	-11.0607
▁ўзаемадзеянн	-11.0607
▁цвёрда	-11.0607
▁простым	-11.0609
▁8-	-11.061
летне	-11.0612
▁лічба	-11.0612
▁абмежавана	-11.0612
▁жела	-11.0613
▁остава	-11.0613
▁пришёл	-11.0614
is	-11.0617
▁обеспечени	-11.0618
▁разв	-11.062
▁твар	-11.062
▁Зараз	-11.0623
▁дырэктара	-11.0624
▁навуча	-11.0626
▁179	-11.0627
▁52	-11.0627
▁случай	-11.0631
▁Запад	-11.0633
▁900	-11.0638
▁надвор	-11.0638
▁поп	-11.064
▁кісларод	-11.0645
▁малекул	-11.0645
▁хронік	-11.0645
▁пакрыты	-11.0645
▁прэзідэнцкі	-11.0645
▁Кіев	-11.0645
▁миллионы	-11.0646
▁дзяўчын	-11.0646
▁двигаться	-11.0648
▁первым	-11.0649
▁благо	-11.0649
▁рускім	-11.0655
02	-11.0658
▁оказывает	-11.0659
▁функцыя	-11.0661
▁s	-11.0662
▁палова	-11.0666
▁магчымы	-11.0672
N	-11.0673
▁здабыча	-11.0678
▁Перш	-11.0682
▁велосипед	-11.0682
▁прытрымліва	-11.0682
▁Ватыкан	-11.0682
▁склікання	-11.0683
▁Ране	-11.0684
▁астраном	-11.0684
▁злучэнн	-11.0686
▁мур	-11.0686
▁подверг	-11.0688
дают	-11.0689
▁адпачынк	-11.0689
▁Без	-11.0696
▁давно	-11.0697
узел	-11.0697
▁имя	-11.07
▁звярнуў	-11.0701
▁квадратны	-11.0703
▁1886	-11.0704
заходні	-11.0712
▁поколения	-11.0714
▁дэмакратычна	-11.0715
▁рыцар	-11.0715
▁Майкл	-11.0716
▁выпраменьванн	-11.072
▁перспектив	-11.072
▁получаем	-11.072
▁падтрымліваў	-11.0721
▁прафесійна	-11.0721
▁Ірак	-11.0722
▁пространстве	-11.0726
▁будуч	-11.0727
▁рек	-11.073
▁моста	-11.0735
выш	-11.0736
▁інтарэса	-11.0737
▁паспяховы	-11.0737
▁Людовіка	-11.0738
▁слышал	-11.0748
▁працоўна	-11.0749
▁вулкан	-11.0751
▁апостала	-11.0751
▁Чере	-11.0753
▁дизайна	-11.0754
▁частиц	-11.0755
▁суддз	-11.0755
▁0,2	-11.0759
▁чыста	-11.076
▁компаний	-11.0761
▁сукупнасц	-11.0761
▁кров	-11.0762
▁канфедэрацы	-11.0763
▁электронны	-11.0766
▁совместно	-11.0768
▁поверхность	-11.0769
▁Re	-11.0772
▁ўзброены	-11.0776
▁примеров	-11.0777
▁вугл	-11.0783
▁гімн	-11.0786
▁прыкмет	-11.0788
▁раскопк	-11.079
▁абмежаваны	-11.0791
▁медалё	-11.0793
▁адрас	-11.0797
▁зялёна	-11.0797
▁Англія	-11.0797
▁возрасте	-11.0798
▁май	-11.0799
▁групоўк	-11.0801
▁абавязкова	-11.0802
▁падпісаны	-11.0803
▁встретил	-11.0805
▁Эн	-11.0807
▁валют	-11.0808
▁апрацоўк	-11.0809
▁усходні	-11.081
▁Іспанія	-11.0818
▁Новага	-11.082
▁Эй	-11.0821
▁фасада	-11.0827
▁коп	-11.0827
▁загінула	-11.0828
▁Казахстан	-11.083
▁навакольны	-11.0835
▁найбуйнейша	-11.0835
▁Мярку	-11.0835
▁цесна	-11.0835
▁Армені	-11.0835
▁закрыты	-11.0835
ирование	-11.0836
▁спява	-11.0838
▁целе	-11.084
▁прызнаў	-11.084
▁нагляд	-11.0844
▁рымлян	-11.0846
▁інструмент	-11.0846
▁потер	-11.0846
▁Утворан	-11.0847
▁сілам	-11.0847
▁Прэзідыума	-11.0849
гне	-11.0849
▁філасофскі	-11.0858
▁формул	-11.0859
▁реальност	-11.086
▁разглядае	-11.0861
▁слыш	-11.0863
▁правадыр	-11.0868
хожу	-11.0868
энд	-11.0869
ніцтва	-11.0871
▁зброя	-11.0872
▁Проблем	-11.0873
▁воображени	-11.0873
▁ўтрыманн	-11.0873
▁эффективны	-11.0873
▁Наши	-11.0873
▁сердца	-11.0875
▁хуткім	-11.0876
▁вселенной	-11.0876
▁сабраны	-11.0876
▁выброс	-11.088
чэ	-11.0881
gt	-11.0882
▁заказнік	-11.0886
▁асобін	-11.089
▁Кіеў	-11.0895
▁выдавецтва	-11.0897
рны	-11.0902
▁карта	-11.0904
▁пита	-11.0907
▁программу	-11.0908
▁49	-11.0909
▁взяли	-11.091
▁новости	-11.091
▁спрабавал	-11.091
гна	-11.091
▁узнагарод	-11.0911
▁павышэнн	-11.0912
▁взрослы	-11.0912
▁естественно	-11.0914
▁ёзны	-11.0914
наешь	-11.0916
▁стратэгі	-11.092
▁ощущение	-11.0923
▁забяспечы	-11.0927
▁найважнейшы	-11.0929
▁гарадск	-11.0929
▁правило	-11.0931
▁ситуацию	-11.0932
▁команда	-11.0932
▁АЭС	-11.0932
▁фарміраванне	-11.0932
▁Перво	-11.0939
▁Вітаўт	-11.0941
ic	-11.0944
▁медал	-11.0949
▁представь	-11.095
▁мобильны	-11.095
▁понятия	-11.095
▁прыгажосц	-11.095
▁шведска	-11.0952
▁Віл	-11.0953
▁каталог	-11.0954
▁стимул	-11.0954
▁каса	-11.0959
наты	-11.096
▁панаванн	-11.0963
▁Альп	-11.0965
▁моц	-11.0966
▁глін	-11.0967
▁47	-11.097
вый	-11.097
▁начинае	-11.097
рэшт	-11.0973
▁паверхня	-11.0975
▁наведва	-11.0978
сек	-11.0981
▁жорстка	-11.0985
частью	-11.0985
▁абло	-11.0986
▁Дэмакратычна	-11.0989
▁штучна	-11.0989
▁пахавання	-11.099
▁лист	-11.0992
▁траўм	-11.0992
▁дороги	-11.0994
тельный	-11.0995
▁прост	-11.0996
▁абіра	-11.0997
▁рэзідэнцы	-11.0999
▁дзвюм	-11.1004
туль	-11.1005
▁перанос	-11.1005
▁Полацкі	-11.1007
▁перевод	-11.1008
▁люб	-11.1008
▁изучать	-11.1009
▁узяў	-11.101
▁пасла	-11.1012
▁дэпутатам	-11.1015
▁захворвання	-11.1016
▁сек	-11.1017
▁будь	-11.1018
▁цэркв	-11.102
▁защищ	-11.1028
▁Македоні	-11.1028
▁кукуруз	-11.1028
▁автомобиль	-11.1028
Кашалёўска	-11.1029
▁сидел	-11.103
▁выкліка	-11.103
▁никаки	-11.1038
▁істот	-11.1038
уют	-11.1038
▁слуша	-11.104
▁сектар	-11.1043
▁шведскі	-11.1048
▁калонія	-11.1049
▁Георгі	-11.1052
▁парка	-11.106
▁Стаў	-11.1061
ападобна	-11.1065
▁Наступны	-11.1068
▁германска	-11.1068
▁тэндэнцы	-11.1068
▁заболевания	-11.1068
▁перыядычна	-11.1068
▁сушы	-11.1068
▁Вільня	-11.1074
▁главны	-11.1081
▁пасада	-11.1087
▁аналізу	-11.1087
▁зло	-11.1088
▁ресурсов	-11.1089
доўга	-11.109
▁паўплывал	-11.1093
▁правах	-11.1095
глуб	-11.11
▁афіцэра	-11.1101
▁Вільнюс	-11.1103
▁паляка	-11.1105
▁знойдзена	-11.1107
▁сігнал	-11.1107
▁эвалюцы	-11.1107
▁адмыслова	-11.1107
▁Юзаф	-11.1107
▁хлоп	-11.1107
▁Кракав	-11.1107
▁нормально	-11.1108
губернатар	-11.1108
▁заняти	-11.111
▁уласнасц	-11.1112
▁Чем	-11.1117
▁альбома	-11.1117
▁спыніла	-11.112
re	-11.112
▁расліна	-11.1122
▁дзяцінства	-11.1123
▁1888	-11.1126
▁апісанне	-11.1131
▁вясн	-11.1131
▁славянска	-11.1136
▁следующе	-11.1139
пон	-11.1141
▁жив	-11.1143
▁Боле	-11.1145
оф	-11.1146
▁Узнагароджан	-11.1147
▁стромкі	-11.1147
▁баланс	-11.1147
▁определённо	-11.1148
▁Калумбі	-11.1149
▁кош	-11.115
,7	-11.115
▁отказ	-11.1152
▁номер	-11.1155
▁име	-11.1156
▁читать	-11.1158
▁убежден	-11.1158
▁рэвалюцыйны	-11.1162
▁выкарыстаны	-11.1163
▁пазнаёміў	-11.1164
▁нацыянальн	-11.1167
▁дайшл	-11.1168
▁управлять	-11.1168
▁побед	-11.1169
блюд	-11.1169
▁бою	-11.1171
▁тэма	-11.1173
▁Хойні	-11.1173
▁заметит	-11.1174
▁наблюда	-11.1178
▁Дзейніча	-11.1181
▁служа	-11.1181
▁ацэнк	-11.1182
▁кары	-11.1185
▁пераварот	-11.1186
▁пазбаві	-11.1186
▁азначэнн	-11.1186
▁знакаміта	-11.1186
▁віленска	-11.1186
▁Тураў	-11.1188
▁появилась	-11.1189
▁турыста	-11.119
▁развівае	-11.119
▁ими	-11.1192
▁школьны	-11.1192
дор	-11.1196
▁Хан	-11.1196
▁атмосфер	-11.1197
▁Сатурна	-11.1201
есс	-11.1202
▁университет	-11.1203
думают	-11.1208
▁пасло	-11.1215
ните	-11.1215
▁считать	-11.1216
▁восем	-11.1217
▁фотограф	-11.1223
▁Гар	-11.1224
▁Палесцін	-11.1226
▁канчатковы	-11.1226
▁происходил	-11.1226
▁федэрацы	-11.1226
▁Сувора	-11.1226
▁сущност	-11.1226
▁события	-11.1227
▁конец	-11.1234
▁цэрква	-11.1235
▁Грамадзянска	-11.1239
▁касмічны	-11.1242
тическо	-11.1245
▁полици	-11.1246
▁серьёзно	-11.1246
▁хвост	-11.1246
▁валоданне	-11.1248
работать	-11.1251
страты	-11.1251
▁спросит	-11.1251
▁представлен	-11.1255
▁окруж	-11.1256
▁дасяга	-11.1257
▁красны	-11.1257
▁паверх	-11.126
▁мэр	-11.1264
▁Афганістан	-11.1266
▁повторя	-11.1266
▁чвэрц	-11.1266
▁патэнцыял	-11.1266
келандж	-11.1266
▁Малдов	-11.1266
▁розум	-11.1266
▁карэнны	-11.1266
▁мінула	-11.1266
▁рассмотре	-11.1266
▁здоровья	-11.1266
▁чацвёрта	-11.1268
▁везде	-11.1268
▁линии	-11.1269
▁выглядеть	-11.1272
▁гаспадара	-11.1272
▁принимать	-11.1275
▁власть	-11.1275
▁микроб	-11.1275
▁накіравана	-11.1277
▁растения	-11.1282
вак	-11.1283
▁свецка	-11.1288
▁Венер	-11.1291
▁способом	-11.1293
▁район	-11.1293
▁вести	-11.1294
▁інструмента	-11.1295
▁пашыра	-11.1299
▁&#	-11.1299
▁адыход	-11.13
▁лиш	-11.1301
▁ноги	-11.1304
▁Лондон	-11.1306
▁цэгл	-11.1306
▁Мілан	-11.1308
▁краі	-11.1309
▁Груп	-11.1309
▁навуковым	-11.131
▁следующем	-11.1311
▁любв	-11.1312
▁аднаві	-11.1312
▁украінскі	-11.1312
▁Чар	-11.1316
▁остров	-11.1322
гры	-11.1323
▁мерапрыемства	-11.1323
▁насіл	-11.1326
▁стратеги	-11.133
▁забіл	-11.133
▁Малы	-11.1332
▁собираем	-11.1334
▁Эд	-11.1335
альный	-11.1338
▁порядке	-11.1338
▁комнат	-11.1339
▁Апошня	-11.1347
▁Нептун	-11.1347
▁можешь	-11.1347
▁афармленн	-11.1347
▁пагадзі	-11.1347
▁успеха	-11.1349
▁60-	-11.1351
▁культурным	-11.1351
▁пліт	-11.1354
▁вырашана	-11.1357
▁падрыхтоў	-11.1358
СД	-11.1359
▁звон	-11.136
▁Люб	-11.1366
цця	-11.1377
▁размаўля	-11.1378
▁переста	-11.1381
▁фінансава	-11.1381
▁Чэ	-11.1383
▁хава	-11.1384
▁падпісанн	-11.1386
▁работнік	-11.1387
▁Афганистан	-11.1387
▁Чэхаславакі	-11.1387
▁чрезвычайно	-11.1387
▁плохи	-11.1387
▁сегодняшни	-11.1387
▁американски	-11.1388
▁учителя	-11.1389
▁меншы	-11.1389
▁жыла	-11.139
▁падземны	-11.1392
▁моладзев	-11.1392
▁столь	-11.1397
▁працяглы	-11.1397
▁многое	-11.1398
рэдк	-11.1399
▁вызов	-11.1402
▁наблюдать	-11.1405
▁продолжа	-11.1407
Вт	-11.1408
▁представител	-11.1409
▁кино	-11.1417
▁агляд	-11.1418
▁выйграў	-11.1419
упак	-11.1419
▁Уладзісла	-11.1421
▁мозгу	-11.1421
▁фаз	-11.1426
▁выгод	-11.1427
реш	-11.1427
▁прогноз	-11.1428
▁алімпійск	-11.1428
▁мураваны	-11.1428
▁параўнальна	-11.1428
▁подобное	-11.1429
▁экспазіцы	-11.1429
▁афіцыйным	-11.1431
▁прыпада	-11.1431
▁пляцоўк	-11.1432
▁1800	-11.1433
стар	-11.1433
▁каком	-11.1436
▁узбярэжжа	-11.1437
▁программа	-11.1438
▁плям	-11.144
▁помнит	-11.1442
▁дзіцяча	-11.1446
▁Кры	-11.1446
▁выявіў	-11.1448
▁связаны	-11.1455
▁розна	-11.1459
ліні	-11.1461
авая	-11.1467
▁пражыванн	-11.1467
▁камуністычна	-11.1469
▁трагеды	-11.1469
▁влияет	-11.1469
▁Яўген	-11.1469
▁ядро	-11.1469
▁0,3	-11.147
▁управления	-11.1473
сер	-11.1478
▁64	-11.148
лікі	-11.1481
▁КН	-11.1483
▁важное	-11.1484
▁рассматрива	-11.1486
вялі	-11.149
▁расійскім	-11.1493
▁Цар	-11.1493
▁прызнал	-11.1495
▁Том	-11.1497
▁супада	-11.1498
▁фізіка	-11.1498
▁c	-11.1499
▁собран	-11.15
▁бюро	-11.1503
▁жизнью	-11.1503
▁сваяк	-11.1503
▁крыжа	-11.1503
▁кантынента	-11.1503
▁зрител	-11.1505
▁рэчы	-11.1506
▁мацерык	-11.1508
▁гістарыяграфі	-11.1509
▁распараджэнн	-11.1509
▁табліц	-11.1509
▁соверша	-11.151
▁літаральна	-11.151
▁двое	-11.151
▁покрыва	-11.1511
▁дваранства	-11.1512
▁шляхецка	-11.1514
▁Прыкладна	-11.1514
▁продка	-11.1514
▁эксперыментальн	-11.1516
▁афіцэр	-11.1516
▁54	-11.1518
▁Японія	-11.1522
▁ніяк	-11.1522
▁смотрите	-11.1524
▁Сафі	-11.1527
▁наука	-11.153
▁галактык	-11.153
▁лиц	-11.1531
▁Перв	-11.1534
▁чисто	-11.1534
▁столкну	-11.1535
▁лячэнн	-11.1535
▁вайскова	-11.1542
▁Каз	-11.1544
▁кватэр	-11.1546
▁чытанн	-11.1548
▁J	-11.1549
▁эпідэмі	-11.1551
▁Варшаўска	-11.1551
▁Кіраўнік	-11.1551
▁англічан	-11.1551
▁малодша	-11.1551
АТА	-11.1552
▁полезны	-11.1552
▁рэгістрацы	-11.1558
▁отношение	-11.1559
▁рэальны	-11.1559
▁Часта	-11.1561
▁нападнік	-11.1562
▁связанны	-11.1563
▁любя	-11.1564
▁усталяваны	-11.1571
▁99	-11.1574
▁павялічвае	-11.1576
ложения	-11.158
▁единственно	-11.1582
▁размера	-11.1583
▁Барыс	-11.1584
▁улице	-11.1585
▁Ленінградска	-11.1587
▁Вселенн	-11.1588
▁палітычн	-11.1588
▁электрычна	-11.1589
▁Тем	-11.1589
дала	-11.1589
▁секцы	-11.1591
▁Парламент	-11.1592
▁воздействи	-11.1592
▁кітайскі	-11.1592
▁детьми	-11.1592
▁клиент	-11.1592
▁животные	-11.1593
▁арганізатара	-11.1593
▁отдельны	-11.1594
▁дэмакратычны	-11.1595
▁добро	-11.1595
▁сектор	-11.1596
▁турэцка	-11.1601
▁регион	-11.1602
▁кампани	-11.1603
▁Марок	-11.1603
▁паўвостра	-11.1604
▁усю	-11.1608
▁хоть	-11.1609
▁Адной	-11.1609
▁выканаў	-11.1611
▁дваран	-11.1612
вання	-11.1619
овут	-11.162
▁аўтобус	-11.1622
▁Герман	-11.1625
▁случаев	-11.1625
▁моцным	-11.1625
▁качества	-11.1626
▁прыеха	-11.1626
▁обмен	-11.1626
▁пашырэнне	-11.1628
раш	-11.1632
помнить	-11.1633
▁Меркуры	-11.1633
▁обезьян	-11.1633
▁режим	-11.1634
▁городов	-11.1634
▁выдатк	-11.1634
▁вкус	-11.1638
▁дни	-11.164
адта	-11.1642
▁вс	-11.1645
▁прамы	-11.1648
▁Пере	-11.1652
отен	-11.1654
▁цвета	-11.1654
▁семье	-11.1655
▁ўласнасц	-11.1658
▁істотны	-11.1659
▁нарадзіла	-11.1661
▁продолжает	-11.1662
▁позици	-11.1666
▁ўзнікненн	-11.1666
▁Полацку	-11.1667
▁эксперымент	-11.1668
▁дыр	-11.1669
▁фактор	-11.167
▁Напалеон	-11.1671
ішча	-11.1673
▁хирург	-11.1675
▁непадалёк	-11.1675
▁потребител	-11.1675
▁учёные	-11.1675
▁гармон	-11.1676
▁племен	-11.1676
▁повсюду	-11.1679
▁меншасц	-11.1681
онны	-11.1681
▁Уладзіслава	-11.1682
▁привести	-11.1685
▁праграму	-11.1688
▁Кацярын	-11.1689
▁паведамленн	-11.1692
▁сбор	-11.1693
▁ФР	-11.1694
▁каран	-11.1694
▁выступления	-11.1695
▁открыт	-11.17
▁заканадаўчы	-11.17
▁сделано	-11.1704
▁проходит	-11.1708
▁Іран	-11.1714
▁эффективно	-11.1715
▁Мои	-11.1715
▁Свіслач	-11.1717
▁шахмат	-11.1717
▁пакрыта	-11.1717
▁направлении	-11.1717
▁понимал	-11.1717
▁наличи	-11.1718
▁іспанц	-11.1719
▁сельско	-11.1719
▁Афін	-11.1725
▁среду	-11.1725
гуле	-11.1727
▁камер	-11.173
▁разработал	-11.173
▁Краін	-11.1735
▁паўста	-11.1735
▁сделае	-11.1737
▁электрычны	-11.1738
▁падатк	-11.1738
▁способности	-11.174
▁палк	-11.1742
▁станаві	-11.1743
▁захоўва	-11.1746
▁отправ	-11.1747
▁забудов	-11.175
▁граматы	-11.1752
▁книга	-11.1753
▁элементам	-11.1756
▁Северно	-11.1757
▁Еўразі	-11.1759
▁спыненн	-11.1759
▁числа	-11.1759
▁саўгаса	-11.1759
▁сквоз	-11.1759
▁бронзавы	-11.1759
▁дому	-11.1759
▁разговарива	-11.1759
▁арганічны	-11.1759
▁Турын	-11.176
▁плава	-11.176
▁днём	-11.176
чил	-11.176
▁сюд	-11.1763
▁заснавал	-11.1764
▁утра	-11.1764
▁кангрэс	-11.1765
▁стоимость	-11.1774
▁ўсходнім	-11.1776
▁зразуме	-11.1777
олаг	-11.1786
▁прамавугольна	-11.1788
▁1700	-11.1789
▁Сусвет	-11.1796
▁тэрмінам	-11.18
▁гледач	-11.1801
▁драматычны	-11.1801
▁цивилизаци	-11.1801
▁родителей	-11.1801
▁коробк	-11.1801
▁Чарльз	-11.1801
▁приехал	-11.1802
▁Рыг	-11.1802
▁пласты	-11.1803
▁круглы	-11.1803
▁Твор	-11.1805
▁факультэ	-11.1806
▁строга	-11.1809
платить	-11.181
▁звязва	-11.1811
▁шкод	-11.1818
зілі	-11.1825
▁хороший	-11.1825
▁аднаўленне	-11.1828
▁прафесарам	-11.1828
▁политическо	-11.1828
▁пасёлк	-11.1828
бал	-11.1829
▁конечном	-11.1829
▁карысны	-11.1829
▁ро	-11.1835
▁рыхтава	-11.1836
▁следующее	-11.1841
▁служыл	-11.1841
▁Афіцыйны	-11.1844
▁мяркуе	-11.1844
▁спіральна	-11.1844
▁Міхайлавіч	-11.1844
▁статистик	-11.1844
▁ўведзена	-11.1844
▁желез	-11.1852
▁сіні	-11.1856
арты	-11.1856
▁Ірана	-11.1859
жка	-11.1861
▁уласцівасц	-11.1861
▁облак	-11.1864
▁угол	-11.1869
▁біскупа	-11.1869
▁писать	-11.1873
▁80-	-11.1874
▁b	-11.1875
▁уступіў	-11.1876
▁Аўстра	-11.1878
▁прымалі	-11.188
▁буйна	-11.188
▁Сала	-11.1881
▁Адама	-11.1883
▁скрыт	-11.1883
▁выступіл	-11.1886
▁Петраград	-11.1886
▁Ваўкавыск	-11.1886
▁Прадстаўнік	-11.1886
▁континент	-11.1886
▁Багдановіч	-11.1886
скажем	-11.1886
▁учитыва	-11.1887
▁кашталян	-11.1887
▁Хотя	-11.1888
▁осознал	-11.189
валіся	-11.1891
оставить	-11.1891
▁появлени	-11.1891
▁мяня	-11.1892
▁ішл	-11.1892
▁остально	-11.1892
▁вяртае	-11.1895
▁адказнасц	-11.1897
▁хороша	-11.1899
▁накіраваў	-11.1899
▁Захад	-11.1899
▁жыво	-11.1899
▁лідара	-11.1901
▁Сучасна	-11.1902
▁среде	-11.1905
▁пяхот	-11.1905
▁пазнача	-11.1908
▁позволя	-11.1908
▁закончил	-11.1908
▁калекцыя	-11.191
▁навык	-11.191
▁поводу	-11.1912
▁богаты	-11.1917
▁находить	-11.1917
▁достиг	-11.1918
▁Юлі	-11.192
▁маршал	-11.1928
▁куч	-11.1929
▁динозавр	-11.1929
▁манаграфі	-11.1929
▁придумал	-11.1929
▁сыравін	-11.1929
▁сцёк	-11.1929
▁звёзд	-11.1929
▁население	-11.1929
▁параметр	-11.193
▁станови	-11.1931
▁охран	-11.1931
▁лікам	-11.1932
▁цикл	-11.1932
▁цэла	-11.1932
▁перабудов	-11.1933
▁кажа	-11.1933
▁Порт	-11.1938
▁партыйны	-11.1938
▁прадстаўнікам	-11.1938
▁превращ	-11.194
▁пераможца	-11.1942
▁ранейшы	-11.1944
▁процесса	-11.1945
▁спрэчк	-11.1947
▁ярка	-11.1948
▁занесены	-11.195
▁ацэн	-11.1955
▁выканаўца	-11.1957
▁показыва	-11.1957
▁напо	-11.1959
▁охот	-11.1959
▁самалёт	-11.1959
▁ідэалогі	-11.1965
▁вероятность	-11.1967
▁живо	-11.1969
▁узнали	-11.197
▁Вышэйшы	-11.197
▁дыпламат	-11.197
адно	-11.197
шек	-11.1971
▁воспринима	-11.1971
▁паняцця	-11.1972
▁полацкі	-11.1972
▁знайшоў	-11.1972
▁падмур	-11.1972
вались	-11.1973
▁организация	-11.1973
▁паляванн	-11.1975
▁девочка	-11.1975
▁творчески	-11.1976
▁мнение	-11.1977
▁суадносін	-11.1979
▁развити	-11.1984
чэння	-11.1985
▁настоящее	-11.1985
▁абароне	-11.1995
▁практы	-11.1999
z	-11.2001
▁пасяджэнн	-11.2001
▁судова	-11.2006
▁вучылішч	-11.2006
▁учиться	-11.2011
▁1200	-11.2012
▁индустри	-11.2012
▁торгов	-11.2013
▁объясн	-11.2014
▁эканоміц	-11.2015
▁пушч	-11.2015
▁деревья	-11.2015
▁рэгіянальны	-11.2015
▁шырот	-11.2015
▁красивы	-11.2015
▁медыцыны	-11.2015
▁дацэнт	-11.2015
▁узяты	-11.2015
▁архіў	-11.2018
▁почв	-11.202
▁Залаты	-11.2023
лени	-11.2025
карэспандэнт	-11.2032
▁лечение	-11.2034
▁знакомы	-11.2034
▁направлен	-11.2035
▁аналіз	-11.2037
▁Максім	-11.2038
▁Заходн	-11.2038
▁распрацава	-11.2042
▁пунктам	-11.2043
смяротна	-11.2043
▁загадчыка	-11.2044
▁Месяца	-11.2045
▁бачны	-11.2053
▁старост	-11.2054
▁Дэбютава	-11.2058
▁пацвердзі	-11.2058
▁поможет	-11.2058
▁Вынік	-11.2058
▁аказаў	-11.2058
▁обязан	-11.2058
▁Оказывает	-11.2059
▁Паходзі	-11.206
▁фундаментальны	-11.206
▁Дру	-11.206
▁конц	-11.2061
лес	-11.2063
▁паказваю	-11.2063
▁глыбокі	-11.2067
▁дамам	-11.2072
▁букв	-11.2077
▁выдатна	-11.2078
нять	-11.2078
▁трэнера	-11.2079
▁трэнер	-11.2081
▁1600	-11.2083
▁невероятны	-11.2085
ическа	-11.2087
▁скульптар	-11.2089
щу	-11.2089
аступніка	-11.2092
▁вершин	-11.2092
▁вечер	-11.2094
▁абласны	-11.2094
Паўл	-11.2094
▁сельск	-11.2095
▁дыпламатычны	-11.2098
▁Бра	-11.2098
▁перашкод	-11.21
▁прадставі	-11.2102
▁прыцягва	-11.2102
▁философ	-11.2102
▁обратить	-11.2102
▁0,1	-11.2102
▁прызнанне	-11.2106
▁XXI	-11.2114
жыў	-11.2114
▁особо	-11.2115
▁становішч	-11.212
▁потрясающе	-11.2127
▁брал	-11.2127
▁папулярным	-11.2127
ВК	-11.2128
▁водой	-11.2133
▁дзесяцігоддз	-11.2135
кватэра	-11.2136
▁дакладны	-11.2136
▁асобнік	-11.214
гон	-11.2144
▁інтэлігенцы	-11.2145
▁вонкавы	-11.2145
▁цёмны	-11.2145
▁яркі	-11.2146
▁Польскі	-11.2146
▁Галоўным	-11.2147
▁пераведзен	-11.2151
▁сделала	-11.2151
ТЭ	-11.2153
▁Прамо	-11.2155
▁1,6	-11.2156
▁глуп	-11.2156
▁апісання	-11.2158
▁паданн	-11.2159
▁асаблівы	-11.216
▁інфармацыя	-11.2161
▁выраст	-11.2166
▁абазначэння	-11.2166
▁Музе	-11.2168
▁кірун	-11.2172
▁сустрака	-11.2173
бол	-11.2174
▁аперацыя	-11.2176
▁адказны	-11.2177
▁паўвострав	-11.2181
▁Бен	-11.2182
▁получал	-11.2183
▁прыбытк	-11.2186
▁анг	-11.2188
ó	-11.2189
▁Ніжні	-11.2189
▁скараці	-11.2189
▁утварае	-11.2189
▁дызайн	-11.2189
▁прызначыў	-11.2189
▁появил	-11.2189
▁Бітв	-11.219
▁спалуча	-11.219
▁базілік	-11.2191
▁дзядзьк	-11.2191
▁50-	-11.2191
▁цифрово	-11.2194
▁сцвярджае	-11.2195
▁паліва	-11.2195
▁знаком	-11.2197
▁распача	-11.2199
▁грун	-11.22
▁Далін	-11.2207
▁ўвайш	-11.2207
исты	-11.2208
▁Кір	-11.2209
▁працягла	-11.2209
НД	-11.2211
▁жада	-11.2212
F	-11.2214
▁Камен	-11.2215
▁лістоў	-11.2219
▁валодал	-11.2219
▁пагроз	-11.222
жели	-11.2224
▁основани	-11.2224
▁японскі	-11.2224
▁гаспадарча	-11.2224
▁полны	-11.2224
▁одни	-11.2226
шая	-11.2226
▁приложени	-11.2226
▁публічна	-11.2229
▁Калінкаві	-11.2233
▁список	-11.2233
▁услышал	-11.2233
▁магазін	-11.2233
▁рэалізацы	-11.2233
▁мусор	-11.2233
▁знакам	-11.2234
министр	-11.2237
▁сіня	-11.224
▁Прусія	-11.2242
▁препод	-11.2243
▁выступление	-11.2245
▁Азербайджана	-11.2248
▁тэатральны	-11.2249
▁насчёт	-11.2254
▁навукоўцы	-11.2257
▁экране	-11.226
▁меняет	-11.2261
▁падрыхтава	-11.2265
кама	-11.2266
▁медаль	-11.2271
▁каманду	-11.2274
▁традици	-11.2277
▁аргумент	-11.2277
▁превратил	-11.2277
▁узброены	-11.2277
▁Верагодн	-11.2277
▁предоставля	-11.2278
▁обучение	-11.2278
▁тэрытарыяльны	-11.2279
▁пацярпе	-11.228
▁пяты	-11.2281
▁Гол	-11.2286
▁пришла	-11.2291
давать	-11.2292
▁адкрыла	-11.2294
▁Китае	-11.2297
▁Льв	-11.2299
▁распаўсюджванне	-11.2307
МС	-11.2307
▁пашырана	-11.2308
▁ошиб	-11.231
ойти	-11.2311
волю	-11.2311
▁получени	-11.2312
▁бібліятэ	-11.2314
▁показали	-11.2314
▁крок	-11.2314
L	-11.2315
рес	-11.2318
▁порта	-11.2321
▁найстарэйшы	-11.2322
▁обязательно	-11.2322
▁халодна	-11.2322
▁штурм	-11.2322
▁Тэўтонск	-11.2322
▁специально	-11.2322
▁стралкова	-11.2322
▁термин	-11.2322
▁машынабудаванн	-11.2322
▁область	-11.2322
▁казк	-11.2322
▁тэарэтычна	-11.2323
▁Кракаў	-11.2323
▁суполк	-11.2324
▁установа	-11.2329
▁сан	-11.233
▁вярта	-11.2331
▁хими	-11.2334
▁ваколіц	-11.2341
▁веке	-11.2345
▁Томас	-11.2351
▁Свет	-11.2352
▁спін	-11.2352
▁рок	-11.2353
▁дазваляю	-11.2354
▁меркаванн	-11.2357
▁ўяўленн	-11.2357
▁майстр	-11.2358
▁студент	-11.2359
середине	-11.236
▁образц	-11.236
▁пыл	-11.236
▁распространя	-11.2362
▁хваля	-11.2362
кос	-11.2364
ирования	-11.2364
▁строи	-11.2365
▁выклікае	-11.2365
▁курса	-11.2365
▁стреми	-11.2366
▁Шэкспір	-11.2367
▁жорсткі	-11.2367
▁каардынат	-11.2367
▁Гвіне	-11.2367
▁еўра	-11.2367
▁Вас	-11.2367
▁третье	-11.2368
▁градус	-11.2371
▁фінанса	-11.2377
▁паветраны	-11.2378
▁показывают	-11.238
▁Тэ	-11.2385
стри	-11.2389
больш	-11.2389
▁уладання	-11.239
▁печ	-11.2394
▁Канстанціна	-11.2394
▁геаметры	-11.2395
льной	-11.2395
пир	-11.2396
▁замежн	-11.2396
▁вокн	-11.2396
▁апублікавана	-11.2397
▁провод	-11.2401
▁самім	-11.2401
▁мін	-11.2402
▁нему	-11.2404
ch	-11.2404
▁мужчынскі	-11.241
▁пачатковы	-11.241
▁выбрать	-11.241
▁Саксоні	-11.2411
▁директор	-11.2411
▁кантралява	-11.2411
▁четырёх	-11.2411
▁составляет	-11.2411
▁Камісі	-11.2411
▁зависимости	-11.2412
▁Літаратур	-11.2412
▁ответственность	-11.2414
▁считает	-11.2418
▁Значна	-11.2426
▁залів	-11.2427
▁владе	-11.2428
▁калгаса	-11.2428
▁доказ	-11.2436
рно	-11.2437
▁данном	-11.2442
ro	-11.2442
зон	-11.2442
▁полёт	-11.2444
▁Ісус	-11.2446
▁яўрэ	-11.2446
▁открыл	-11.245
▁нараджэнн	-11.2451
▁медицин	-11.2451
▁51	-11.2455
▁ВН	-11.2455
▁абмяжоўва	-11.2456
▁палажэнн	-11.2456
▁вперед	-11.2456
▁свядомасц	-11.2457
▁дадаткова	-11.2458
▁рис	-11.2463
▁средни	-11.2464
▁Жан	-11.2465
▁писал	-11.2467
▁вагон	-11.247
щение	-11.2473
▁плоскасц	-11.2473
▁дасягненн	-11.2474
▁міністэрства	-11.2476
▁выдае	-11.2478
▁умны	-11.248
▁погляды	-11.2481
▁асобным	-11.2482
таражытнагрэчаск	-11.2486
▁рэчаіснасц	-11.2488
▁движени	-11.249
▁качество	-11.2491
▁глобальны	-11.2492
▁разрабатыва	-11.2492
гран	-11.2495
▁125	-11.2495
▁заканадаўства	-11.2497
▁прыбыл	-11.2499
▁працягва	-11.2502
▁Яраслаў	-11.2502
▁неправильно	-11.2502
▁понимаем	-11.2502
▁сфармава	-11.2502
▁халодны	-11.2502
▁падвярга	-11.2502
▁рэкорд	-11.2502
▁таўшчын	-11.2502
▁перасяленца	-11.2502
▁завершана	-11.2502
▁абранн	-11.2503
▁языке	-11.2504
▁шести	-11.2504
▁Ніл	-11.2505
▁Радзім	-11.2505
▁сябра	-11.2505
▁завяршыў	-11.2507
▁остаёт	-11.2508
гранич	-11.2512
илось	-11.2513
делить	-11.2513
▁Турцыя	-11.2513
▁самцо	-11.2515
вшего	-11.252
▁прыкладам	-11.2523
▁узведзен	-11.2523
▁далі	-11.2523
▁задачу	-11.2528
▁Урал	-11.2529
▁90-	-11.2532
▁бел	-11.2532
истов	-11.2536
▁браў	-11.2536
▁мастацкім	-11.2536
▁показан	-11.2541
▁получится	-11.2541
▁ўключа	-11.2546
▁гараджан	-11.2547
▁контакт	-11.2547
▁скажет	-11.2547
▁аўтарытэт	-11.2547
▁Міжземнамор	-11.2547
▁хмызняко	-11.2547
▁0,4	-11.2548
▁пляж	-11.2549
▁контролирова	-11.2553
▁карабля	-11.2556
▁первых	-11.2557
▁чытач	-11.2559
▁адлюстрава	-11.256
▁рабочи	-11.2563
▁украінска	-11.2564
абралі	-11.2567
▁усилия	-11.2569
▁Стана	-11.2569
▁исследоват	-11.2574
▁відавочна	-11.2575
▁прывё	-11.2579
неслі	-11.2579
▁гістарычным	-11.258
▁скоростью	-11.2581
▁звучит	-11.2582
▁еду	-11.2582
▁Ягайла	-11.2585
▁30-	-11.2587
эд	-11.2587
▁захаванне	-11.2588
▁акул	-11.2588
▁компьютеры	-11.2593
▁псіхалогі	-11.2593
▁размеркаванн	-11.2593
▁увидим	-11.2593
▁честно	-11.2593
▁канадск	-11.2593
▁Атлантычны	-11.2593
▁слуп	-11.2593
amp	-11.2593
▁дэбютава	-11.2594
▁хворы	-11.2594
SO	-11.2595
▁гавора	-11.2595
станут	-11.2599
чел	-11.26
▁спасти	-11.26
▁вашу	-11.2601
▁Кірава	-11.2604
ваўся	-11.2604
▁1,3	-11.2606
▁крыш	-11.2607
▁государства	-11.2608
▁пагаднення	-11.2611
▁чырвоным	-11.2617
▁прызначана	-11.2621
▁общин	-11.2622
▁раўніна	-11.2625
▁сядзіб	-11.263
▁Свята	-11.2632
▁атама	-11.2634
▁прошлого	-11.2634
▁тайн	-11.2635
▁треть	-11.2636
▁New	-11.2639
▁Агінск	-11.2639
▁Выкарыстоўва	-11.2639
▁1891	-11.2639
▁Видите	-11.2639
▁заўважы	-11.2639
▁человеку	-11.2639
▁Франк	-11.264
▁дне	-11.264
▁ўтрымліва	-11.2642
▁строить	-11.2642
▁часця	-11.2642
▁Райт	-11.2646
▁чувствую	-11.2648
▁выканаўча	-11.2652
▁сведчанн	-11.2652
▁камандава	-11.2652
▁приобре	-11.2657
▁луг	-11.2658
▁некоторо	-11.2658
кова	-11.2658
▁галасаванн	-11.2659
▁паставіў	-11.2659
▁пастанова	-11.2664
▁эканамічным	-11.2664
▁случайно	-11.2667
▁считае	-11.2668
▁доллар	-11.2669
▁гонк	-11.2672
▁камандуючы	-11.2673
ошёл	-11.2678
начала	-11.268
▁Значн	-11.2682
▁лев	-11.2683
▁свецкі	-11.2683
▁Евангелл	-11.2683
▁пахаванн	-11.2684
▁близко	-11.2685
▁духавенства	-11.2685
▁цёплы	-11.2685
▁ўкраінскі	-11.2685
▁ўсеагульн	-11.2685
▁красиво	-11.2685
▁положение	-11.2685
▁тракт	-11.2686
▁Хуан	-11.2686
St	-11.2687
▁востры	-11.2687
▁дала	-11.2687
▁Палеска	-11.2689
▁выпушчаны	-11.269
лки	-11.2698
тара	-11.2698
▁пагроза	-11.2698
▁муніцыпалітэт	-11.2699
уществует	-11.2703
▁молекул	-11.2704
▁дасягаю	-11.2705
▁скульптура	-11.2707
▁Одно	-11.2709
▁няс	-11.271
▁спадчыннік	-11.2711
▁Вільгельма	-11.2711
▁сабраў	-11.2714
▁вадо	-11.2714
▁хлеб	-11.2715
▁попал	-11.2715
▁ближе	-11.2721
▁разработк	-11.2726
кроў	-11.2728
▁Від	-11.2728
▁кислород	-11.2731
▁ўздзеянн	-11.2731
▁мармур	-11.2731
ZW	-11.2733
un	-11.2733
▁слава	-11.2735
▁обсужда	-11.2736
▁Ігар	-11.2737
▁апавяданн	-11.2738
▁Сіл	-11.2738
▁Драгічынскі	-11.2738
▁капітана	-11.2741
▁брато	-11.2745
Э	-11.2747
▁Казан	-11.2748
▁военны	-11.2748
▁устойчиво	-11.2748
▁Генры	-11.2749
▁применя	-11.2749
▁Бор	-11.2752
ённые	-11.2752
▁рэвалюцыя	-11.2755
▁адправі	-11.2756
▁Гран	-11.2756
▁вольна	-11.2758
▁рачны	-11.2758
▁віна	-11.2758
▁контр	-11.2758
шчын	-11.2763
палкоўнік	-11.2764
▁Дуб	-11.2765
▁еўрапейца	-11.2766
▁веды	-11.2769
▁неудач	-11.277
▁Валын	-11.2771
▁море	-11.2773
▁средств	-11.2774
▁бліжэй	-11.2775
▁медицински	-11.2777
▁тяжело	-11.2778
▁цырымоні	-11.2778
▁каталіцтв	-11.2778
▁Кіева	-11.2778
▁улучшит	-11.2778
▁перес	-11.278
▁называў	-11.278
▁берег	-11.278
▁зан	-11.2782
▁сумес	-11.2782
▁сет	-11.2782
▁танца	-11.2784
▁паспрабава	-11.2785
▁невидим	-11.2786
▁сярэдн	-11.2787
▁ответить	-11.2788
▁53	-11.2789
▁Заснавана	-11.2789
▁политики	-11.2793
▁ребята	-11.2796
▁арыстакраты	-11.2797
▁фабрыка	-11.2798
▁способы	-11.2801
▁замет	-11.2806
▁прочи	-11.2807
▁пазнейшы	-11.2809
▁правядзенне	-11.2816
▁матэрыяльны	-11.2822
▁плод	-11.2822
▁Найвышэйша	-11.2824
▁действова	-11.2824
▁металургі	-11.2824
▁тяжёл	-11.2824
▁багін	-11.2824
▁Руанд	-11.2824
▁пользоваться	-11.2824
▁срок	-11.2825
▁мінеральны	-11.2825
▁начинал	-11.2825
▁насилия	-11.2825
▁разрыв	-11.2825
▁Дело	-11.2825
▁зліцц	-11.2827
абраў	-11.2827
▁Міхал	-11.2828
▁вылучае	-11.2831
▁алфавіт	-11.2832
▁свободно	-11.2833
▁галерэя	-11.2834
▁запісаў	-11.2834
▁определ	-11.2834
▁забаронена	-11.2835
двиг	-11.2836
▁ўплыва	-11.2837
▁аўтамабіль	-11.2839
▁необходим	-11.2842
ари	-11.2844
▁баб	-11.2846
▁вясно	-11.2847
▁путешествие	-11.2848
▁шкал	-11.2848
▁зімовы	-11.2852
▁пісьменнасц	-11.2852
6	-11.2854
▁Міжземна	-11.2854
ra	-11.2854
▁пасольства	-11.2861
▁Адэс	-11.2862
▁турк	-11.2865
▁інтэрв	-11.2865
▁70-	-11.2866
▁японска	-11.2867
ведалі	-11.2868
▁Камуністычна	-11.2869
▁Вопрос	-11.2871
▁бізнес	-11.2871
▁пазбаўлены	-11.2871
▁ядзерна	-11.2871
▁магнітна	-11.2871
▁Фонд	-11.2871
▁лідарам	-11.2873
▁велико	-11.2873
▁раскол	-11.2873
▁парламенцкі	-11.2875
аны	-11.2875
фт	-11.2875
▁фін	-11.2875
▁Земля	-11.2876
▁дало	-11.2877
▁Ягайл	-11.288
▁паляванне	-11.288
несла	-11.2882
▁падкрэсліва	-11.2885
▁отличны	-11.2886
▁ниже	-11.2892
▁заданн	-11.2896
▁1879	-11.2899
▁гарачы	-11.29
▁молодо	-11.2902
▁Праг	-11.2902
логи	-11.2904
▁крыты	-11.2906
▁взглянут	-11.2906
▁Індыя	-11.2907
▁дадат	-11.2908
▁отлича	-11.2914
▁княств	-11.2916
▁феадал	-11.2917
▁ўказ	-11.2918
▁Хрысто	-11.2918
▁Шэклтан	-11.2918
▁альтернатив	-11.2918
▁наркотик	-11.2918
▁предложил	-11.2918
▁выцягнута	-11.2918
▁керамік	-11.2918
▁Івацэвіцкі	-11.2919
▁палярны	-11.2919
чыльнасц	-11.2919
▁аказва	-11.292
▁сделаю	-11.2921
▁тэхнікум	-11.2921
▁радыус	-11.2921
▁вопроса	-11.2922
▁Максіма	-11.2923
▁васьмі	-11.2924
▁чысты	-11.2924
слаў	-11.2925
▁помогл	-11.2925
▁правильны	-11.2926
▁волос	-11.2931
▁41	-11.2936
▁взят	-11.2936
▁Парк	-11.2937
▁представи	-11.2938
▁адказва	-11.294
▁брать	-11.2944
▁дапамаг	-11.2945
▁камеры	-11.2948
ключить	-11.2948
▁Ордэн	-11.2953
▁конкретно	-11.2958
▁казн	-11.2964
▁калектыв	-11.2966
▁актывіст	-11.2966
▁астатня	-11.2966
▁понрави	-11.2966
▁тагачасна	-11.2966
▁шоу	-11.2966
▁улучшени	-11.2966
▁унутрана	-11.2968
▁Зорк	-11.2971
▁настояще	-11.2972
▁выдадзена	-11.2973
▁суперніка	-11.2976
la	-11.2979
▁генетически	-11.2979
▁археолаг	-11.298
▁звезд	-11.2982
▁надрукаваны	-11.2983
▁раніц	-11.2985
▁прыступ	-11.2986
лучилось	-11.2987
▁нуля	-11.2989
▁пальц	-11.2992
▁часовы	-11.2995
▁сталкива	-11.2996
▁желани	-11.2996
▁Кацярына	-11.2997
▁Кук	-11.2998
▁ученик	-11.2998
▁пароды	-11.2998
▁тэксты	-11.3001
▁фильма	-11.3002
ленд	-11.3003
▁58	-11.3003
▁физик	-11.3004
▁скач	-11.3008
▁обеспечит	-11.3009
▁даступны	-11.3013
▁наверняка	-11.3013
▁телевизор	-11.3013
▁солнечны	-11.3013
▁экзамен	-11.3013
▁Вілейскі	-11.3013
▁бачна	-11.3014
▁націск	-11.3014
моўна	-11.3014
зімку	-11.3014
▁вышл	-11.3014
▁вклад	-11.3015
▁Мікалаевіч	-11.3015
▁гадзіннік	-11.3015
▁падае	-11.3015
ндар	-11.3016
▁дзесяц	-11.3017
▁перадава	-11.3018
▁дыяметра	-11.3019
▁манер	-11.3019
▁адыгрыва	-11.302
ыццё	-11.3022
▁вяршыня	-11.3024
▁змяні	-11.3024
▁способов	-11.3025
▁пройти	-11.3029
▁Часов	-11.3031
▁чэшска	-11.3032
▁французск	-11.3036
▁сэр	-11.3036
▁настаўнік	-11.3037
▁скорост	-11.3037
▁личност	-11.3044
▁корн	-11.3045
▁использую	-11.305
▁Уво	-11.3051
▁намаганн	-11.3053
▁лекарств	-11.3055
сця	-11.306
▁объяснени	-11.3061
▁выкладчыкам	-11.3061
▁Кветк	-11.3061
▁Тадэвуш	-11.3061
▁ажыццяві	-11.3061
▁близки	-11.3061
▁камерцыйны	-11.3061
▁Харваты	-11.3061
▁Манголі	-11.3061
▁Маршал	-11.3061
▁медицинско	-11.3066
▁павелічэнн	-11.3067
▁Ньютан	-11.3067
▁Стаўбцоўскі	-11.3068
▁жили	-11.3071
▁покуп	-11.3073
овое	-11.3073
▁грэка	-11.3075
▁праўда	-11.3076
вши	-11.3079
▁ператварэнн	-11.3082
▁міфа	-11.3083
▁Марсе	-11.3083
▁сцена	-11.309
смотрим	-11.3092
▁распачаў	-11.3094
▁старше	-11.3096
▁возможны	-11.3097
▁серьёзны	-11.3101
▁противо	-11.3101
сад	-11.3102
▁пісьм	-11.3102
▁замеч	-11.3105
▁товар	-11.3105
▁скарб	-11.3105
анні	-11.3106
▁круга	-11.3108
▁фармірава	-11.3108
▁ООН	-11.3109
▁біялагічны	-11.3109
▁утрымліва	-11.3109
▁эпидеми	-11.3109
▁онлайн	-11.3109
▁архітэктарам	-11.3111
вшей	-11.3112
▁Аляксандравіч	-11.3114
зны	-11.3115
идеть	-11.3115
▁пытался	-11.3115
▁кіламетр	-11.3116
▁Парыжска	-11.3117
▁задать	-11.3118
▁дакладнасц	-11.3119
▁наступств	-11.3119
▁верх	-11.312
▁трапляе	-11.312
▁Стату	-11.312
▁прамавугольны	-11.3122
бла	-11.3125
▁7-	-11.3127
▁руб	-11.3128
▁затрат	-11.3132
▁Орша	-11.3133
▁статуя	-11.3137
▁Працу	-11.3141
зень	-11.3142
чал	-11.3142
▁адлюстраванне	-11.3144
▁пратэст	-11.3144
▁Ван	-11.3146
▁прадмета	-11.3147
▁Памер	-11.3148
▁ажыццяўленн	-11.3158
▁внутрь	-11.3158
▁испытани	-11.3158
▁пасажыра	-11.3158
▁попробовать	-11.3158
▁инвестици	-11.3158
▁ўтворана	-11.3158
▁вузка	-11.3158
▁Шырока	-11.3158
▁гавары	-11.3158
▁скорость	-11.3158
▁конференции	-11.3159
▁губернатар	-11.316
▁утвары	-11.3163
▁зняты	-11.3163
▁ПАР	-11.3165
▁аказалі	-11.3168
▁герой	-11.3168
▁выглядят	-11.3169
▁Кап	-11.3172
▁тэхналогіі	-11.3172
▁размясці	-11.3174
▁праўд	-11.3174
▁Лін	-11.3176
▁творчы	-11.3176
▁даклад	-11.3177
▁Нацы	-11.318
▁энергия	-11.3184
▁папер	-11.3187
зэ	-11.3189
▁разуменн	-11.3191
▁заключан	-11.3191
▁складанн	-11.3192
▁сери	-11.3193
▁малюн	-11.3196
родак	-11.32
▁адзначыў	-11.3201
▁выйсц	-11.3202
▁пользовател	-11.3202
▁Брун	-11.3203
▁трапля	-11.3203
▁ўкраінска	-11.3206
▁Далёк	-11.3206
▁препарат	-11.3206
▁рэспубліканскі	-11.3206
▁решать	-11.3206
▁приняти	-11.3206
▁Япони	-11.3207
▁выключан	-11.3207
▁даждж	-11.3211
▁сестр	-11.3213
▁166	-11.3215
▁выходит	-11.322
▁рыса	-11.3221
▁национально	-11.3222
▁ваганн	-11.3222
▁прадукты	-11.3222
▁відам	-11.3223
▁вучэнне	-11.3225
▁прибор	-11.3227
▁Ліст	-11.3229
▁жизне	-11.3234
▁соглас	-11.3236
▁быццам	-11.3236
▁поведения	-11.3241
▁стрэл	-11.3243
▁83	-11.3247
▁комнате	-11.3247
первы	-11.3252
▁приём	-11.3253
▁Чарнобыл	-11.3255
▁паражэння	-11.3255
▁преступлени	-11.3255
▁ўзбраенн	-11.3255
▁категори	-11.3255
▁міграцы	-11.3255
▁соединя	-11.3255
▁гаворы	-11.3255
▁бялк	-11.3255
▁мисси	-11.3255
▁редко	-11.3255
▁ткан	-11.3256
▁Шарл	-11.3256
верх	-11.326
▁теми	-11.3263
▁кіна	-11.3265
▁Глав	-11.3268
▁заключэнн	-11.3271
сярэдзін	-11.3275
▁дзесяцін	-11.3276
▁паўстанн	-11.328
▁стэп	-11.3281
▁ўбачы	-11.3283
▁факты	-11.3285
▁выпуску	-11.3285
▁тонкі	-11.3286
▁Украінска	-11.3289
▁адкрытым	-11.329
▁каких	-11.3291
▁материалы	-11.3291
▁Фрыдрыха	-11.3295
▁естественны	-11.3296
▁гварды	-11.3301
▁распрацавана	-11.3301
▁трас	-11.3302
▁квантава	-11.3303
▁протест	-11.3303
▁узначалі	-11.3304
▁знаходк	-11.3304
▁одежд	-11.3304
▁концепци	-11.3304
▁станаўленн	-11.3304
КД	-11.3305
▁поезд	-11.3311
▁адс	-11.3311
▁весці	-11.3312
▁Школ	-11.3313
▁фи	-11.332
▁думка	-11.3322
▁вырашылі	-11.3324
▁Дняпро	-11.3326
▁связано	-11.3328
▁путешестви	-11.3329
▁аднолькавы	-11.3331
▁живущи	-11.3332
▁изменит	-11.3334
▁дно	-11.334
▁назвать	-11.3343
▁открыть	-11.3343
скоп	-11.3344
▁лагера	-11.3345
▁нашёл	-11.3348
▁Гл	-11.3349
очки	-11.3349
▁вынужден	-11.3353
▁компонент	-11.3353
▁майстэрства	-11.3353
▁галосны	-11.3353
▁обеспечива	-11.3355
▁Якуба	-11.3356
▁независимо	-11.3357
▁размах	-11.3357
us	-11.336
ование	-11.336
▁паўабаронца	-11.3364
▁ката	-11.3365
▁выратава	-11.3365
▁Тан	-11.3366
▁хочется	-11.3369
▁низко	-11.3371
▁выгнанн	-11.3371
▁Вайніловіч	-11.3372
▁рисова	-11.3374
▁Тар	-11.3376
супраць	-11.3377
▁працягнуў	-11.3377
▁саюзніка	-11.3381
▁кантона	-11.3384
▁1887	-11.3388
слева	-11.339
рэал	-11.3391
▁Пала	-11.3392
▁іду	-11.3394
▁СМ	-11.3395
▁страну	-11.3396
▁еды	-11.3396
▁тонн	-11.3396
▁арыентавана	-11.3398
▁ўзяў	-11.34
▁Бразили	-11.3403
▁пасяленн	-11.3403
▁Сахары	-11.3403
▁Баторы	-11.3403
▁пещер	-11.3403
▁НАН	-11.3403
▁кофе	-11.3403
▁збудаваны	-11.3405
▁приближ	-11.3405
▁поўным	-11.3408
▁спектакл	-11.3415
легка	-11.3417
ПА	-11.3418
▁выпадае	-11.3419
▁Вель	-11.3425
▁сямі	-11.3427
▁Еўропа	-11.3429
▁утром	-11.3432
▁контроль	-11.3432
▁потрясающи	-11.3434
▁продуктов	-11.3435
▁Фёдар	-11.3437
▁Такие	-11.3439
▁паведамі	-11.3439
▁налічва	-11.344
▁рын	-11.3441
▁обман	-11.3444
▁дэкаратыўна	-11.3444
▁настроен	-11.3444
▁сыш	-11.3444
to	-11.3445
▁отличие	-11.3445
▁лічб	-11.3446
▁здзяйсня	-11.3447
▁прыродна	-11.3448
▁чувств	-11.3448
▁землетрасенн	-11.3448
льс	-11.345
▁успешно	-11.3452
▁выбітны	-11.3453
▁няўдала	-11.3453
▁прыгожы	-11.3453
▁маляри	-11.3453
▁жоўта	-11.3453
▁сонечны	-11.3453
▁візіт	-11.3453
▁феадальна	-11.3453
▁Гал	-11.3453
▁точка	-11.3456
доволь	-11.3458
▁вызваленне	-11.346
▁доверя	-11.346
▁развивать	-11.3461
▁отца	-11.3463
аліту	-11.3466
▁благодар	-11.3466
цягну	-11.3469
▁слоўнік	-11.3471
▁беру	-11.3473
шкі	-11.3474
▁ўведзены	-11.3475
▁разлік	-11.3475
рек	-11.3476
▁понимают	-11.3477
▁называлас	-11.3477
Заходня	-11.3479
▁Дуна	-11.348
▁адзначаны	-11.3483
▁сообщество	-11.3485
▁ядноўвае	-11.3485
▁полюс	-11.3485
▁пастаноўк	-11.3485
▁разрад	-11.3487
▁веб	-11.3492
▁выполня	-11.3493
▁рамк	-11.3495
▁Дэн	-11.3495
▁огромные	-11.3495
▁Будуч	-11.3497
▁філалагічны	-11.3498
▁паходз	-11.3499
▁вырабляе	-11.3501
атуры	-11.3501
▁Facebook	-11.3503
▁здагадк	-11.3503
▁прымяненн	-11.3503
▁эфір	-11.3503
▁сомнени	-11.3503
▁традиционны	-11.3503
▁танк	-11.3503
збегну	-11.3503
▁купил	-11.3506
▁данным	-11.3507
атлавіна	-11.3508
▁жителе	-11.3508
▁образов	-11.3511
▁верны	-11.3516
▁палавы	-11.3516
▁лекарство	-11.3516
▁Пачат	-11.3516
▁падтрымаў	-11.3516
▁даход	-11.3517
▁окружающи	-11.3517
▁Фра	-11.352
▁бой	-11.3526
▁требует	-11.3526
▁Горка	-11.3526
▁роботов	-11.3528
▁веру	-11.3528
▁рус	-11.3529
стаўшы	-11.3529
▁выказа	-11.353
▁паеха	-11.3532
▁88	-11.3534
▁немцам	-11.3534
▁9-	-11.3536
▁ван	-11.3545
▁захоўванн	-11.3547
ia	-11.3548
▁пашыры	-11.3552
~	-11.3553
▁Луцкевіч	-11.3553
▁перамагл	-11.3553
▁экосистем	-11.3553
▁Грэнланды	-11.3553
▁сохраня	-11.3553
▁тунэл	-11.3553
▁вонкава	-11.3553
▁кредит	-11.3553
▁ганарова	-11.3553
▁гібел	-11.3553
▁предполага	-11.3554
▁играет	-11.3554
▁сильнее	-11.3554
▁пожалуйста	-11.3555
▁вернулся	-11.3555
вазе	-11.3557
▁старшы	-11.3561
▁тканін	-11.3562
▁пытается	-11.3565
плыв	-11.3566
▁пяск	-11.3566
▁средне	-11.357
▁Войск	-11.3571
▁рождения	-11.3573
▁царскі	-11.3574
▁насенн	-11.3578
▁смотрит	-11.3587
▁голуб	-11.3588
▁броса	-11.3589
▁Навагрудска	-11.3589
▁плоска	-11.359
▁адышл	-11.3591
▁даследаванне	-11.3598
▁становя	-11.3599
чаў	-11.36
▁создава	-11.3601
▁ява	-11.3601
▁57	-11.3602
▁сканчэнн	-11.3603
▁кабінет	-11.3603
▁профессор	-11.3604
▁завершаны	-11.3604
▁прысвяці	-11.3605
енное	-11.3605
▁сесі	-11.3607
▁Бур	-11.3608
▁действий	-11.3609
▁уваход	-11.361
▁ўключаны	-11.3614
авання	-11.3614
▁Великобритании	-11.3614
▁юрыдычна	-11.3616
▁гетмана	-11.3619
▁спосабам	-11.3623
▁спалучэнн	-11.3623
▁сутк	-11.3627
▁городах	-11.363
бет	-11.3631
▁захопніка	-11.3631
▁вырос	-11.3632
▁кірава	-11.3633
▁падтрымлівае	-11.3633
▁ужасны	-11.3634
▁дзелі	-11.3637
▁запіса	-11.3637
▁хрыб	-11.3639
▁Рамана	-11.3639
▁сотня	-11.3642
▁паток	-11.3643
▁гарадам	-11.3644
▁выяснит	-11.3644
▁страшно	-11.3646
▁450	-11.3648
▁Марцін	-11.3652
вёр	-11.3653
▁Квіслінг	-11.3654
▁архитектор	-11.3654
▁интервью	-11.3654
▁людях	-11.3654
▁папуляцы	-11.3654
▁прыцягненн	-11.3654
▁рамонт	-11.3654
▁позні	-11.3654
▁получать	-11.3654
▁биологически	-11.3654
▁ранни	-11.3654
▁открытия	-11.3656
▁называемы	-11.3656
▁адценн	-11.3658
▁трактат	-11.3658
▁чита	-11.3658
альд	-11.3661
иваются	-11.3662
▁пабудова	-11.3665
▁шчыльна	-11.3665
▁арэн	-11.3665
▁валоданн	-11.3666
▁слой	-11.3667
▁небяспек	-11.3669
▁самалёта	-11.3672
▁выстаўк	-11.3672
▁привело	-11.3672
▁увеличива	-11.3676
▁компьютера	-11.3679
▁рабіў	-11.368
▁выканана	-11.3684
▁175	-11.3684
▁прадугледжва	-11.3686
▁сознание	-11.3687
▁судовы	-11.3696
▁шкл	-11.3696
▁лепшым	-11.3697
лучается	-11.3697
▁используется	-11.3704
▁Жыткаві	-11.3705
▁Найбуйнейшы	-11.3705
▁барабан	-11.3705
▁паштова	-11.3705
▁ресторан	-11.3705
▁Тэлефон	-11.3705
▁ценности	-11.3705
▁антычны	-11.3705
▁завтра	-11.3705
▁оставля	-11.3705
▁паўтара	-11.3706
▁Уэльс	-11.3706
▁забаронены	-11.3707
▁паездк	-11.3707
▁чарговы	-11.3708
▁нижн	-11.371
▁обратил	-11.3711
▁Самым	-11.3712
▁мінерал	-11.3713
▁сохранить	-11.3714
▁вулкана	-11.3716
▁155	-11.3717
▁приходят	-11.3718
доль	-11.3721
▁саступа	-11.3726
▁словно	-11.3728
▁повлия	-11.3729
▁выдава	-11.373
▁больны	-11.3733
▁Рух	-11.3735
▁62	-11.3738
▁ляжа	-11.3739
▁поспехам	-11.3739
▁пасялі	-11.374
▁участник	-11.3743
▁слон	-11.3751
▁местно	-11.3753
▁Волг	-11.3754
▁Албані	-11.3756
▁Прадпрыемств	-11.3756
▁заставляет	-11.3756
▁зняволены	-11.3756
▁перамяшчэнн	-11.3756
▁разнавіднасц	-11.3756
▁генацыд	-11.3756
▁Людвіг	-11.3756
▁посредств	-11.3756
▁Кожна	-11.3757
▁выдавец	-11.3757
▁списк	-11.3758
▁вадкасц	-11.3759
▁наведваў	-11.3759
▁ведае	-11.3762
▁производство	-11.3763
▁правительств	-11.3764
▁Галіле	-11.3768
▁едино	-11.3771
▁обед	-11.3771
▁подобно	-11.3772
эска	-11.3773
▁небе	-11.3775
▁прастора	-11.3775
▁кольц	-11.3776
▁грамадскім	-11.3777
▁выявілі	-11.3777
ард	-11.3778
▁вугал	-11.3779
▁падпісана	-11.3779
▁імкненне	-11.378
▁амерыканскім	-11.3784
▁ням	-11.3785
▁надае	-11.3786
▁работающи	-11.3786
▁выконваю	-11.3788
▁революции	-11.379
Ш	-11.3791
Венгры	-11.3792
▁утварэння	-11.3793
▁народам	-11.3794
▁турэцкі	-11.3795
бн	-11.3796
▁Планк	-11.3797
▁холод	-11.3799
▁развивающих	-11.38
▁биологи	-11.3802
▁кот	-11.3803
▁Ком	-11.3804
▁Кобрын	-11.3808
▁кансерваторы	-11.3808
▁оружие	-11.3808
▁талент	-11.3808
▁Заснавальнік	-11.3808
▁смерть	-11.3808
▁знаний	-11.3808
▁химически	-11.3808
▁перададзена	-11.3809
▁усталява	-11.3809
▁дзікі	-11.3809
▁драўнін	-11.381
▁Идея	-11.381
▁Лес	-11.3814
▁Захава	-11.3815
▁голоса	-11.3816
вестк	-11.3819
▁Нерон	-11.382
▁изменило	-11.3822
▁подходит	-11.3822
▁достижени	-11.3823
▁заставил	-11.3824
▁звярну	-11.3825
▁блог	-11.3829
▁изменил	-11.383
▁збудаванне	-11.3831
▁заменены	-11.3831
▁чум	-11.3832
▁Ваенна	-11.3836
▁матэматычны	-11.3836
▁Кубка	-11.3839
▁носьбіта	-11.384
▁вярнулі	-11.3844
▁странны	-11.3846
▁гул	-11.3848
▁павялічыла	-11.3849
▁справля	-11.3849
▁капліц	-11.3849
▁акадэмія	-11.385
▁маршалка	-11.3855
▁Мсціслаў	-11.386
▁письмо	-11.386
▁прапаноўва	-11.386
▁цёпла	-11.386
▁вызывает	-11.386
▁жалезна	-11.386
▁фракцы	-11.386
▁форум	-11.386
▁бяроз	-11.386
▁экологически	-11.386
▁Шлях	-11.386
▁географ	-11.386
▁территории	-11.3861
▁0,8	-11.3861
▁бороться	-11.3861
▁театр	-11.3862
▁Вёск	-11.3862
▁бліжэйшы	-11.3863
▁крыжак	-11.3864
▁Іаган	-11.3864
▁гуртк	-11.3865
▁сложные	-11.3866
аўна	-11.3867
аново	-11.3869
шаны	-11.387
▁служба	-11.3871
▁Партыя	-11.3872
▁действие	-11.3873
▁ўзнагароджан	-11.3873
тыка	-11.3873
▁наблюдаем	-11.3873
▁родны	-11.3875
▁отправил	-11.3875
▁опыта	-11.3877
▁наваколля	-11.3879
тельной	-11.3886
▁уведзен	-11.3887
▁атрымліваю	-11.3889
▁имели	-11.3889
▁жар	-11.389
званы	-11.3893
▁любым	-11.3896
▁общего	-11.3896
▁бело	-11.3905
▁фарміраванн	-11.3908
▁медленно	-11.3909
екалькі	-11.391
▁собрали	-11.3911
▁закладзены	-11.3911
▁Венесуэл	-11.3912
▁обнаружен	-11.3912
▁ніводна	-11.3912
▁здымк	-11.3912
▁пакарання	-11.3912
▁арыгінальны	-11.3912
▁Артур	-11.3913
▁рэжысёра	-11.3914
▁паэтычны	-11.3914
id	-11.3917
▁захапі	-11.3917
▁Аўстрыйска	-11.3918
▁никак	-11.3919
енная	-11.3919
▁граніц	-11.392
▁решила	-11.3921
▁полагаю	-11.3924
▁скасаванн	-11.3925
▁американско	-11.3925
▁представляют	-11.3926
▁требуется	-11.3945
▁адміністрацыя	-11.3949
▁стаўленне	-11.395
▁смертност	-11.3954
▁физическо	-11.3954
▁робота	-11.3954
▁Ту	-11.3955
фил	-11.3956
▁новость	-11.3958
▁176	-11.396
▁любую	-11.3962
▁данны	-11.3963
▁лінгвіст	-11.3964
▁Три	-11.3964
▁паляпшэнн	-11.3964
▁запрашэнн	-11.3964
▁кіруе	-11.3964
▁лежит	-11.3964
▁медз	-11.3965
▁пастаўлена	-11.3965
▁паведамля	-11.3966
▁скорасц	-11.3967
▁каталік	-11.3969
▁открытие	-11.397
▁супол	-11.397
▁1801	-11.3971
нном	-11.3972
▁знікл	-11.3972
▁намесніка	-11.3976
▁Існую	-11.3976
▁ценность	-11.3978
▁перамога	-11.3978
▁пята	-11.3981
▁видят	-11.3982
▁фабрык	-11.3989
▁унія	-11.3991
длегласц	-11.3994
▁найвышэйша	-11.3994
▁Чыкаг	-11.3995
▁дзевяц	-11.3996
▁прадстаўляе	-11.3997
элі	-11.3999
▁кольца	-11.4002
вшая	-11.4009
▁аўта	-11.4011
▁выяўляе	-11.4013
▁1820	-11.4013
▁мерыдыяна	-11.4017
▁размышля	-11.4017
▁познакоми	-11.4017
▁нязначн	-11.4017
▁ліцэ	-11.4017
▁прыносі	-11.4018
▁евіч	-11.4018
and	-11.4019
▁побыт	-11.4019
▁представления	-11.4019
▁ток	-11.4019
сол	-11.402
▁существа	-11.4022
▁наземны	-11.4023
▁Ирак	-11.4024
▁поднять	-11.4024
▁Сена	-11.4024
▁Імператар	-11.4026
▁среднем	-11.4026
▁падн	-11.4027
▁масштаба	-11.4034
▁заваявання	-11.4034
▁связыва	-11.4037
▁Мир	-11.404
▁включ	-11.4044
▁Кита	-11.4047
рин	-11.4052
▁кн	-11.4055
▁мёртвы	-11.4061
▁смен	-11.4063
▁прошло	-11.4066
▁дыск	-11.4066
▁астраномі	-11.4067
▁птушка	-11.4069
▁бюджэт	-11.407
▁заболеваний	-11.407
▁событий	-11.407
▁кінатэатр	-11.407
▁фокус	-11.407
▁місіянер	-11.407
▁счастье	-11.407
▁впечатлени	-11.407
▁небольш	-11.407
▁признать	-11.407
▁науке	-11.4071
▁езуіта	-11.4076
▁магутна	-11.4077
▁попасть	-11.4077
▁добавл	-11.4079
▁памылк	-11.408
▁перамо	-11.408
▁прадстаўніцтв	-11.4082
▁дорого	-11.4084
▁пабудо	-11.4084
▁4,5	-11.4085
▁радовішча	-11.4085
▁понимания	-11.4086
▁ўтрымлівае	-11.4088
▁дазваляла	-11.409
▁Ду	-11.4094
▁суш	-11.4095
ing	-11.4097
▁размяшчэнне	-11.41
▁асяроддзе	-11.4101
▁праяўля	-11.4106
▁пояса	-11.4109
▁душы	-11.4112
▁вырабля	-11.4112
ice	-11.4112
▁истори	-11.4112
▁поднял	-11.4116
вяшчанн	-11.4117
▁функци	-11.4119
849	-11.4122
▁Windows	-11.4123
▁павятовы	-11.4123
▁прымусіл	-11.4123
▁тагачасны	-11.4123
▁швейцарск	-11.4123
▁імператрыц	-11.4123
▁абалонк	-11.4123
▁фотографию	-11.4123
▁дэль	-11.4124
▁Паўночн	-11.4126
▁оказался	-11.4128
▁биологии	-11.4129
▁досвед	-11.4129
актически	-11.4131
▁апостал	-11.4133
▁маги	-11.4136
▁Пінска	-11.4138
▁применит	-11.4142
ший	-11.4142
лікам	-11.4146
▁нізіна	-11.4148
▁пісьмова	-11.4148
▁папярэдніка	-11.415
▁канстытуцыя	-11.4152
▁серб	-11.4154
▁смотрел	-11.4155
▁сувязя	-11.4156
▁Перед	-11.4156
магчы	-11.4156
▁насельніцтв	-11.4162
▁контролиру	-11.4166
▁воде	-11.4172
▁персанаж	-11.4175
▁пузыр	-11.4176
▁кіеўскі	-11.4176
▁Мадрыд	-11.4176
▁разрушен	-11.4176
▁абарот	-11.4176
▁хваста	-11.4176
▁начиная	-11.4177
▁находимся	-11.4177
▁бук	-11.4178
▁мощны	-11.4179
▁ніш	-11.418
▁важнее	-11.4181
дл	-11.4182
▁чувствует	-11.4182
▁назіранн	-11.4182
▁Ток	-11.4183
туды	-11.4185
▁Год	-11.4187
▁Жыв	-11.4187
▁матэматычна	-11.419
▁жук	-11.4191
▁Роз	-11.4192
▁прызнана	-11.4193
▁коле	-11.4194
▁руін	-11.4196
▁пачуцця	-11.4198
▁мощно	-11.42
вост	-11.4201
▁прысуд	-11.4202
▁планету	-11.4203
▁склон	-11.4205
держал	-11.4208
▁поддерживать	-11.4215
▁потеря	-11.4217
▁местност	-11.4218
▁скуры	-11.422
легче	-11.4224
▁существу	-11.4224
▁вучона	-11.423
▁деятельности	-11.423
▁информационн	-11.423
▁удовольствие	-11.423
▁рэгулярны	-11.423
▁сообща	-11.423
am	-11.4231
▁вновь	-11.4231
▁Маргар	-11.4232
▁дазволіў	-11.4234
кажите	-11.4235
▁пазіцыя	-11.4238
▁друзьями	-11.4243
▁напада	-11.4243
▁магчымым	-11.4244
▁суха	-11.4244
▁2000-	-11.4246
▁выкладанн	-11.4249
▁давление	-11.4252
▁Тор	-11.4252
▁атамны	-11.4252
▁спецыяліст	-11.4254
▁живу	-11.4257
▁залато	-11.4257
▁анти	-11.4263
▁движ	-11.4263
▁імперскі	-11.4264
▁отда	-11.4265
▁достижения	-11.4268
▁продолжал	-11.4269
браны	-11.4272
▁восемь	-11.4275
▁Пр	-11.4276
▁дзясятк	-11.428
▁калектыў	-11.4282
▁баго	-11.4283
▁Рычард	-11.4284
▁СПИД	-11.4284
▁святло	-11.4284
▁солдат	-11.4284
▁Барбар	-11.4285
▁найбол	-11.4286
▁пакет	-11.4286
▁обладаю	-11.4289
рис	-11.4291
▁началось	-11.4293
▁залежа	-11.4293
скоре	-11.4293
▁адкрыцц	-11.4293
▁страха	-11.4295
▁научили	-11.4297
ити	-11.4299
▁абслугоўва	-11.43
▁зычны	-11.4301
▁экологи	-11.4303
▁различия	-11.4303
▁дали	-11.4305
▁здабыва	-11.4305
▁66	-11.4306
▁реальном	-11.4309
▁собственн	-11.4312
▁залатым	-11.4313
кінуты	-11.4313
▁перабудаван	-11.4317
▁венгерскі	-11.4318
▁перакла	-11.432
▁отправить	-11.4321
▁даты	-11.4322
▁рабочих	-11.4324
▁название	-11.4325
даследчы	-11.4334
▁спыніў	-11.4334
▁разгляд	-11.4337
▁един	-11.4338
▁выпрабаванн	-11.4339
▁солнечно	-11.4339
▁тенденци	-11.4339
▁Фрэйд	-11.4339
▁цікаві	-11.4339
▁стресс	-11.4339
вызваленча	-11.4339
▁растёт	-11.4339
изирован	-11.4339
▁услови	-11.434
▁сцэны	-11.434
▁Грэцыя	-11.4341
маючы	-11.4341
▁Обычно	-11.4342
▁прамым	-11.4342
▁Месца	-11.4342
▁нагор	-11.4344
▁зарэгістравана	-11.4348
шчыка	-11.4351
▁плаванн	-11.4353
маёр	-11.4355
▁найвышэйшы	-11.4357
▁сродкам	-11.4359
▁узнікл	-11.4362
▁климат	-11.4363
▁афарбоўк	-11.4363
▁огромна	-11.4364
▁дойлідств	-11.4368
▁патрыярха	-11.4369
▁сацыял	-11.437
▁аперацый	-11.4371
▁Рыгор	-11.4372
▁взаимодействия	-11.4372
▁цеп	-11.4373
▁старым	-11.4379
▁Пецярбургска	-11.4381
▁провал	-11.4381
▁Аўстралія	-11.4383
▁закончи	-11.4385
чыні	-11.439
▁куст	-11.4391
▁паведамляе	-11.4391
▁вещества	-11.4392
▁найвялікшы	-11.4393
▁сярэднявечч	-11.4393
▁бюджет	-11.4393
▁пячатк	-11.4393
▁збег	-11.4393
▁враща	-11.4394
▁Ліві	-11.4394
▁задумать	-11.4394
▁Помнік	-11.4394
▁нядзел	-11.4395
▁Цела	-11.4395
▁персанажа	-11.4395
▁кветкі	-11.4398
▁отдельно	-11.44
▁ІІ	-11.4401
▁воздуха	-11.4402
▁парти	-11.4402
▁перабра	-11.4403
▁1,7	-11.4403
▁папы	-11.4406
▁брак	-11.4408
▁субтрапічны	-11.4411
▁уничтож	-11.4414
▁защитить	-11.4421
▁крови	-11.4421
▁счет	-11.4422
▁разве	-11.4423
▁будынкам	-11.4423
▁вовс	-11.4425
▁здравоохранени	-11.4427
▁сверх	-11.4428
правы	-11.4428
▁самостоятельно	-11.4428
▁университета	-11.443
начал	-11.4432
▁Крупскі	-11.4435
▁багацце	-11.4436
▁существ	-11.4438
▁раду	-11.4442
изация	-11.4444
▁Блізкі	-11.4445
▁продк	-11.4446
▁привлек	-11.4447
валь	-11.4447
▁вагона	-11.4448
▁дерево	-11.4448
▁кірмаш	-11.4448
▁падабенства	-11.4448
▁триллион	-11.4448
▁хватает	-11.4448
▁ўяўляю	-11.4448
таламе	-11.4448
▁Генеральны	-11.4448
▁перасялі	-11.4448
▁американцев	-11.4449
▁хваёвы	-11.4449
▁Вебер	-11.4449
Усходня	-11.445
▁Храм	-11.4451
▁мировы	-11.4455
▁умира	-11.4456
▁уладальнік	-11.4457
▁Пред	-11.4457
▁брамнік	-11.4459
▁імператарска	-11.4459
▁Статут	-11.4459
▁капліца	-11.446
▁памочніка	-11.4465
▁балета	-11.4465
▁вучэння	-11.4466
▁абедзв	-11.4468
▁позна	-11.4474
▁забеспячэнне	-11.4476
▁Тон	-11.4479
▁Менска	-11.4479
ФА	-11.4481
▁наваколл	-11.4483
▁надея	-11.4486
чего	-11.4486
▁Калифорнии	-11.4489
фф	-11.4489
▁скасавана	-11.449
▁отношении	-11.449
▁электро	-11.4491
▁Мех	-11.4492
▁распаўсюджанне	-11.4492
▁теория	-11.4499
▁супраціўленне	-11.45
▁Габсбурга	-11.45
эмпература	-11.4501
▁базу	-11.4502
прежнем	-11.4503
▁разбурана	-11.4503
▁сапрапел	-11.4503
▁сярэднявечна	-11.4503
▁ініцыятара	-11.4503
▁разобраться	-11.4503
▁понятие	-11.4503
▁туалет	-11.4503
▁череп	-11.4503
▁дают	-11.4505
▁разведк	-11.4505
▁грыб	-11.4506
▁найменша	-11.4506
▁міжнародным	-11.4507
ступить	-11.4507
▁получит	-11.4509
▁масіў	-11.4511
гета	-11.4512
▁5000	-11.4513
АК	-11.4514
▁разработан	-11.4518
▁передать	-11.4519
▁знішчана	-11.452
▁жаданн	-11.452
▁клубам	-11.4522
▁старонка	-11.4524
▁сторона	-11.4525
▁маркі	-11.4526
▁хорош	-11.4531
▁Мон	-11.4531
дол	-11.4536
▁пазіцый	-11.4538
▁опера	-11.4538
▁Гава	-11.4539
▁Яно	-11.454
▁феномен	-11.4543
▁ўмацавання	-11.4546
▁Джава	-11.4548
▁студэнт	-11.4553
▁слабо	-11.4554
▁Дар	-11.4554
▁прошлое	-11.4555
▁бумаги	-11.4556
▁публік	-11.4556
▁канцэнтрацы	-11.4556
▁Ор	-11.4558
▁Вашингтон	-11.4559
▁внезапно	-11.4559
▁инфекци	-11.4559
▁рыбалоўства	-11.4559
▁технически	-11.4559
ования	-11.4559
▁сверху	-11.4559
▁Значит	-11.4561
▁футбольна	-11.4562
▁арми	-11.4562
▁паказаны	-11.4565
▁зямельны	-11.4566
▁памерл	-11.4569
▁праём	-11.4569
▁успешны	-11.4572
▁Балкан	-11.4573
▁спрашиваю	-11.4573
▁контроля	-11.4574
▁86	-11.4575
▁земск	-11.4576
рычн	-11.4576
▁тычы	-11.4579
▁возник	-11.4579
▁вяртанне	-11.4588
▁команды	-11.4588
▁устойчив	-11.4594
▁чёрны	-11.4595
▁Створана	-11.4596
▁ветра	-11.4597
▁выстаў	-11.4601
▁злачынства	-11.4601
▁собирает	-11.4601
▁аблічча	-11.4602
▁мимо	-11.4604
НФ	-11.4611
▁международны	-11.4613
▁арганізатар	-11.4613
▁территори	-11.4614
▁мангол	-11.4615
­	-11.4615
▁Сталыпін	-11.4615
▁абмывае	-11.4615
▁учёных	-11.4615
▁распределен	-11.4615
▁логік	-11.4615
▁дрэвы	-11.4617
▁Вар	-11.4619
▁бесед	-11.462
эп	-11.462
▁относит	-11.4622
▁пят	-11.4624
▁понимани	-11.4625
▁поддержива	-11.4627
▁давала	-11.4627
▁увеличить	-11.4629
▁работник	-11.4631
▁72	-11.4632
▁нейка	-11.4633
лево	-11.4636
th	-11.4637
▁выбрал	-11.4638
▁дзеючы	-11.4641
▁восприятие	-11.4643
▁Эдуард	-11.4643
▁даказа	-11.4645
▁марак	-11.4649
▁сектара	-11.4651
шэсц	-11.4652
▁выкліканы	-11.4654
▁Канада	-11.4654
▁учат	-11.4655
▁Банк	-11.4657
▁атрымлівал	-11.4659
▁выкуп	-11.4661
▁север	-11.4661
▁позволяю	-11.4663
генов	-11.4666
▁Леанард	-11.4671
▁Сколько	-11.4671
▁блакітны	-11.4671
▁дыяпазон	-11.4671
▁млекакормячы	-11.4671
▁пясчана	-11.4671
▁фартэпіян	-11.4671
▁шимпанзе	-11.4671
▁вещах	-11.4671
▁археалогі	-11.4671
▁Брусел	-11.4671
▁0,7	-11.4672
▁Ападк	-11.4672
▁сложнее	-11.4672
▁грунту	-11.4673
▁общения	-11.4673
▁званіц	-11.4674
▁жон	-11.4674
▁сведчання	-11.4675
▁Уладзіміравіч	-11.4675
▁помог	-11.4675
▁захоўвалі	-11.4677
▁энергія	-11.4677
▁нападу	-11.4678
▁гены	-11.4679
▁файл	-11.4679
▁памятн	-11.468
▁кафедра	-11.468
▁ткани	-11.4681
▁ўсталяваны	-11.4682
om	-11.4682
▁Билл	-11.4683
лізе	-11.4685
▁контрол	-11.4686
▁Гомельскі	-11.4687
▁працягну	-11.4687
▁достигл	-11.469
▁пік	-11.4692
ad	-11.4694
▁праспекта	-11.4695
▁Браслаўскі	-11.4697
▁Уран	-11.4697
▁Прац	-11.4698
▁рэальнасц	-11.4699
▁гуч	-11.4701
▁Канстанцінопаль	-11.4702
▁проводить	-11.4702
▁адпраўлены	-11.471
носить	-11.4712
▁кас	-11.4713
▁Янка	-11.4716
▁Джорджа	-11.4717
▁рукой	-11.4717
▁распозна	-11.4719
▁філасофска	-11.472
▁зачем	-11.4721
▁будавалі	-11.4722
▁Пан	-11.4724
▁тепло	-11.4726
▁падтрымка	-11.4727
▁добавить	-11.4727
▁федэральны	-11.4727
▁Вообще	-11.4727
▁адпраўля	-11.4727
▁арнамент	-11.4727
▁Ответ	-11.4727
▁вяселл	-11.4728
▁Быхаў	-11.4728
▁шара	-11.4728
▁жаданне	-11.4729
▁низки	-11.473
▁торф	-11.4731
▁неделе	-11.4733
▁Ідэ	-11.4734
▁каф	-11.4734
▁паўстанца	-11.4734
▁активно	-11.4735
▁выяўля	-11.4735
▁01	-11.4736
▁Арабск	-11.4737
▁безопасность	-11.4738
▁трех	-11.4738
▁пределам	-11.4739
▁одному	-11.4739
▁крив	-11.474
▁капэл	-11.4742
▁похож	-11.4742
▁гон	-11.4742
▁апісанн	-11.4743
▁акун	-11.4745
▁палатн	-11.4746
▁международно	-11.4748
▁доступно	-11.475
▁Мура	-11.4752
▁задні	-11.4755
лейтэнант	-11.4756
▁дзевя	-11.4756
▁Сенат	-11.476
▁Старо	-11.4762
▁Варшава	-11.4762
▁формай	-11.4763
▁згадва	-11.4763
актычна	-11.4765
▁апісаны	-11.4768
▁животно	-11.4769
▁построили	-11.4769
▁Брагінскі	-11.477
▁Залато	-11.4772
▁давя	-11.4774
эма	-11.4777
▁личны	-11.4779
▁бесплатно	-11.4782
▁схава	-11.4783
правляем	-11.4784
▁Лацінска	-11.4784
▁Уругва	-11.4784
▁дыяцэзі	-11.4784
▁сотруднича	-11.4784
▁Туніс	-11.4784
▁дрэнна	-11.4784
▁жалезны	-11.4784
▁каляровы	-11.4785
▁лёгки	-11.4785
▁предложение	-11.4786
▁отвечаю	-11.4788
▁далёкі	-11.4789
▁грамата	-11.479
▁апарата	-11.479
▁коне	-11.4791
▁баяр	-11.4794
▁Густа	-11.4796
▁сейм	-11.4801
▁финансовы	-11.4801
▁Араві	-11.4803
▁Піса	-11.4805
▁какого	-11.4807
▁занимают	-11.4807
▁пластик	-11.4809
думы	-11.481
мимо	-11.4811
▁гарадскім	-11.4816
▁літоўскім	-11.4817
▁перакана	-11.4817
▁гарадзішча	-11.482
чувств	-11.4822
сток	-11.4823
▁ума	-11.4825
▁мышления	-11.4827
▁опасно	-11.483
▁Барыса	-11.4831
ПУ	-11.4831
▁вяла	-11.4831
▁ссылк	-11.4836
▁прызнання	-11.4836
▁Бон	-11.4837
▁падпарадкава	-11.4838
▁капітал	-11.4838
▁помести	-11.484
▁егіпецкі	-11.4841
▁тралейбус	-11.4841
▁эпізод	-11.4841
▁персонаж	-11.4841
▁дыскусі	-11.4841
▁деятельность	-11.4841
▁память	-11.4842
▁Васілевіч	-11.4842
▁Мэта	-11.4842
▁модул	-11.4846
▁кіруюча	-11.4847
▁шырок	-11.4847
▁идет	-11.4848
▁следства	-11.4849
▁Яму	-11.485
com	-11.4851
▁спутник	-11.4852
▁Міхала	-11.4853
дис	-11.4853
прэзідэнт	-11.4854
▁Пят	-11.4857
▁заверш	-11.4858
▁Глеб	-11.486
▁медалям	-11.4863
▁супрацоўнікам	-11.4863
энне	-11.4866
▁вылучаюц	-11.4868
▁стваралі	-11.4869
▁группу	-11.4877
казывает	-11.4877
▁проще	-11.4879
▁лац	-11.488
▁ледник	-11.4883
ируя	-11.4887
▁проектов	-11.4887
▁ядноўва	-11.4891
▁найбуйнейшым	-11.4893
▁англійск	-11.4894
▁разгром	-11.4898
шмат	-11.4899
▁НАСА	-11.4899
▁Пухавіцк	-11.4899
▁Трэці	-11.4899
▁Чыгуначн	-11.4899
▁информацией	-11.4899
▁каланізацы	-11.4899
▁міжваенн	-11.4899
▁нешматлікі	-11.4899
▁обработк	-11.4899
▁расстройств	-11.4899
▁абставін	-11.4899
▁мяккі	-11.4899
▁Доўгі	-11.4899
▁памяти	-11.4899
▁Лагойск	-11.4899
▁Парты	-11.4899
▁приходилось	-11.4899
▁Гапон	-11.49
▁историй	-11.4901
▁Персі	-11.4901
▁кіруючы	-11.4901
▁выделя	-11.4901
▁хатня	-11.4902
▁опрос	-11.4903
▁Север	-11.4904
▁определяет	-11.4905
▁дамаг	-11.4905
▁156	-11.4907
▁изменили	-11.4909
▁адклад	-11.4911
▁нефть	-11.4913
дэмакратычна	-11.4914
▁выкарыста	-11.4919
▁запах	-11.4922
▁нож	-11.4923
намс	-11.4924
▁компанию	-11.4925
▁бизнеса	-11.4927
ходзячы	-11.4927
▁материалов	-11.4928
▁спецыялістаў	-11.4931
▁плеч	-11.4932
лучится	-11.4932
▁Джонс	-11.4936
▁Африка	-11.4937
▁танкава	-11.4939
▁выяўленн	-11.494
вшим	-11.494
▁чуд	-11.494
▁существовал	-11.4941
▁зыход	-11.4941
▁паслан	-11.4942
▁перажы	-11.4942
▁пакаленн	-11.4945
▁вучн	-11.4945
▁сяр	-11.4949
▁настоящ	-11.4952
▁отвеча	-11.4954
ёк	-11.4956
▁присоедини	-11.4957
▁Брытанскі	-11.4957
▁ВВП	-11.4957
▁Дэпутат	-11.4957
▁авалода	-11.4957
▁забалочана	-11.4957
▁пацверджан	-11.4957
▁перашкаджа	-11.4957
▁скляпенн	-11.4957
▁візантыйска	-11.4957
▁дыплом	-11.4957
▁девочек	-11.4957
▁ислам	-11.4957
▁заинтересован	-11.4957
▁талант	-11.4957
▁ўздым	-11.4957
▁перадае	-11.4962
▁здоровы	-11.4964
▁опасны	-11.4964
▁погиб	-11.4965
▁вызначэнне	-11.4966
▁ютара	-11.4967
▁нямецк	-11.497
технологи	-11.4973
▁вашим	-11.4975
льян	-11.4979
▁минуту	-11.4979
▁Гала	-11.498
▁гражданско	-11.4983
▁яднанн	-11.4984
▁ацэнка	-11.4986
▁праве	-11.4986
▁уваходзіл	-11.4989
▁ютарны	-11.4991
▁шматлікім	-11.4992
рыштаваны	-11.4992
▁сидя	-11.4994
▁дар	-11.4995
▁танка	-11.4998
▁падрыхтоўка	-11.4998
арска	-11.4999
▁паслядоўнасц	-11.5003
▁ёмам	-11.5004
▁Песня	-11.5005
▁молод	-11.5007
▁заключае	-11.501
▁наведванн	-11.5013
части	-11.5013
▁хмызняк	-11.5014
▁Хрысціян	-11.5015
▁біялогі	-11.5015
▁рэйтынг	-11.5015
▁перемеща	-11.5015
▁ўтварыла	-11.5015
▁мясцін	-11.5015
▁Ганконг	-11.5015
▁далучана	-11.5015
▁рэдакцыя	-11.5015
▁Культур	-11.5015
▁оценива	-11.5016
▁кальц	-11.5016
▁Жыву	-11.5017
▁насилие	-11.5017
▁Рускі	-11.5018
▁чаргова	-11.5019
▁уваходзя	-11.5019
іжэй	-11.5021
▁ўжыт	-11.5023
▁окружени	-11.5024
▁старт	-11.5029
раўне	-11.503
▁заканадаўча	-11.5031
▁играл	-11.5032
▁сусвет	-11.5032
▁Оп	-11.5033
пэўна	-11.5033
палітычны	-11.5033
▁1802	-11.5034
▁прийти	-11.5041
▁детски	-11.5041
стическ	-11.5042
▁любил	-11.5043
▁ўпадзенн	-11.5044
▁зямны	-11.5049
▁97	-11.5051
▁Незалежнасц	-11.5052
▁партыйна	-11.5056
▁звання	-11.5056
▁полос	-11.5057
▁белк	-11.5058
ызацы	-11.506
▁тайны	-11.5061
▁другому	-11.5062
▁выходзіл	-11.5062
▁ператварыў	-11.5064
▁некатора	-11.5066
▁спадз	-11.5067
▁здароўе	-11.5067
▁трыццац	-11.5068
▁Анр	-11.507
▁размяшчалі	-11.507
▁выхаванн	-11.5071
▁спявачка	-11.5072
▁Австрали	-11.5073
▁вадаспад	-11.5073
▁выпушчана	-11.5073
▁перапын	-11.5073
▁разбіты	-11.5073
▁ўражанн	-11.5073
▁магнітны	-11.5073
▁франто	-11.5074
выканкам	-11.5074
▁Марціна	-11.5075
▁задумыва	-11.5077
▁акадэмік	-11.5078
▁даўні	-11.5079
▁вырасл	-11.5082
▁прыкметна	-11.5082
раект	-11.5085
▁вока	-11.5086
▁прамов	-11.5086
▁1,8	-11.5091
▁борьбе	-11.5093
▁прочита	-11.5095
▁студенты	-11.5097
тир	-11.5099
▁ўзведзен	-11.5099
▁возможным	-11.5111
▁различи	-11.5112
▁утро	-11.5114
гонь	-11.5118
эш	-11.5123
▁павелічэнне	-11.5125
▁любоў	-11.5125
▁исследовани	-11.5126
селены	-11.513
▁Праваслаўна	-11.5132
▁автобус	-11.5132
▁десятилетия	-11.5132
▁пляменнік	-11.5132
▁услышать	-11.5132
▁фигур	-11.5132
▁зелёны	-11.5132
▁понятно	-11.5132
▁телескоп	-11.5132
▁Служы	-11.5132
▁ведёт	-11.5134
▁важнае	-11.5134
▁прад	-11.5135
▁губля	-11.5135
▁пошука	-11.5135
▁Мін	-11.5136
▁сцягам	-11.5136
▁гандляр	-11.5139
вернуть	-11.514
▁сумесны	-11.514
▁складзена	-11.5142
▁Эміл	-11.5143
▁марш	-11.5148
▁Еж	-11.5154
▁коротки	-11.5154
▁Асобны	-11.5156
▁выве	-11.5157
▁причинам	-11.5158
▁61	-11.5158
▁стрел	-11.5159
шить	-11.516
▁знаёмы	-11.516
▁Экс	-11.5161
▁вечар	-11.5161
▁сцене	-11.5163
▁чэмпіёнам	-11.5163
▁соль	-11.5165
▁убеди	-11.5165
▁занимал	-11.5179
▁дадзеным	-11.518
▁сете	-11.518
▁класса	-11.5183
▁крыло	-11.5184
пред	-11.5185
▁прадметам	-11.5188
▁распространен	-11.5188
ваяваў	-11.5189
▁сінтэз	-11.519
▁грипп	-11.5191
▁содержит	-11.5191
английски	-11.5191
▁Адносі	-11.5191
▁перасякае	-11.5192
▁стоял	-11.5192
▁азот	-11.5193
▁спыня	-11.5195
▁Варта	-11.5196
▁збудаванн	-11.5197
▁сябр	-11.5197
▁хрыбта	-11.5197
▁105	-11.5198
▁миф	-11.5202
▁акупацыя	-11.5202
▁сило	-11.5203
▁продукты	-11.5203
▁половина	-11.5205
▁подходящ	-11.5205
▁зубр	-11.5207
▁записыва	-11.5211
▁плацін	-11.5212
▁паўднёв	-11.5212
▁Міжзем	-11.5213
▁Асвет	-11.5213
▁Маўр	-11.5214
▁бывае	-11.5214
▁павялічва	-11.5215
▁зарэгістраваны	-11.5215
подрост	-11.5215
весну	-11.5219
▁ранне	-11.522
▁падатка	-11.5221
▁груди	-11.5223
▁сделает	-11.5223
▁гандлёвым	-11.5224
▁сообщение	-11.5224
▁падтрымліва	-11.5226
▁Ваенн	-11.5233
▁вход	-11.5236
▁пищи	-11.5237
▁Африк	-11.5237
▁грудно	-11.5238
▁статусу	-11.5238
▁шляхта	-11.5239
▁результатов	-11.524
▁La	-11.5243
▁сложна	-11.5247
▁псеўданімам	-11.5248
▁Скірмунт	-11.5251
▁Университет	-11.5251
▁благотворительн	-11.5251
▁дэманстрацы	-11.5251
▁позволь	-11.5251
▁сцвярджэнн	-11.5251
▁славутасц	-11.5251
▁Верхні	-11.5251
▁вірус	-11.5251
▁Займаў	-11.5251
▁гатовы	-11.5251
▁Мэры	-11.5251
▁ўмераны	-11.5251
▁шахт	-11.5252
▁поехал	-11.5253
▁духоўн	-11.5255
▁причине	-11.5257
▁парня	-11.5258
▁энергі	-11.5259
▁касмічна	-11.5259
▁практыка	-11.526
▁пакут	-11.526
▁горд	-11.526
▁родил	-11.5262
▁забудавана	-11.5265
▁Каралін	-11.5265
▁речи	-11.5265
▁идеал	-11.5267
▁ўчаст	-11.5269
▁царска	-11.5269
▁предположени	-11.5273
▁роли	-11.5275
▁Берн	-11.5277
▁рознага	-11.528
▁останавлива	-11.5284
▁голод	-11.5286
▁глазами	-11.5287
▁Вмест	-11.5288
значаны	-11.529
▁остановить	-11.529
▁удач	-11.5293
▁адзнак	-11.5294
IA	-11.5296
▁частот	-11.5297
▁брама	-11.53
▁черн	-11.5301
▁рухавіко	-11.5302
▁азнача	-11.5302
▁трывала	-11.5302
лип	-11.5305
▁падтрымал	-11.5308
▁гарант	-11.5308
оскольк	-11.5309
▁арыгінал	-11.531
Анджелес	-11.5311
▁Барселон	-11.5311
▁Соединённы	-11.5311
▁курфюрст	-11.5311
▁постепенно	-11.5311
▁Босні	-11.5311
▁пярэдні	-11.5311
▁закончить	-11.5313
ческа	-11.5313
▁траўн	-11.5313
▁нів	-11.5314
▁розніц	-11.5314
▁раствор	-11.5315
▁дзіка	-11.5315
▁франка	-11.5316
▁Францішка	-11.5317
▁пераслед	-11.5318
▁Пачаў	-11.532
▁научить	-11.5321
▁дал	-11.5321
▁губ	-11.5324
▁абсталяванн	-11.5325
▁дахам	-11.5332
▁встреч	-11.5334
▁рэшт	-11.5336
▁района	-11.5339
строить	-11.5339
▁маленьким	-11.5342
бло	-11.5343
▁турыстычны	-11.5344
десят	-11.5344
▁дзяцінств	-11.5347
▁Міністр	-11.5349
▁грамад	-11.5351
▁моўна	-11.5352
▁электрически	-11.5355
▁уключан	-11.5355
▁завяршэння	-11.5359
▁велізарна	-11.5361
▁надрукава	-11.5361
▁атамна	-11.5362
▁множеств	-11.5363
▁девушк	-11.5365
▁прадстаўля	-11.5368
▁Швейцарыя	-11.5369
▁жывёлагадоўля	-11.537
▁прастор	-11.5371
▁акупіраван	-11.5371
▁вывяржэнн	-11.5371
▁коррупци	-11.5371
▁пірамід	-11.5371
▁спартыўна	-11.5371
▁харчовы	-11.5371
▁Лунінец	-11.5371
▁Старэйш	-11.5371
▁Адольф	-11.5371
▁хрышчэнн	-11.5371
▁ўзгорк	-11.5371
▁прынцэс	-11.5371
▁насельнік	-11.5372
▁0,6	-11.5372
▁гвалт	-11.5373
▁заболе	-11.5373
▁учителе	-11.5373
▁описыва	-11.5374
▁отличается	-11.5374
▁Добра	-11.5375
▁занять	-11.538
остью	-11.5383
▁кусочк	-11.5383
▁кожи	-11.5385
▁воск	-11.5385
▁матыва	-11.5388
▁адзнака	-11.5393
▁ўво	-11.5394
▁выходзя	-11.5396
▁рассказывал	-11.5397
▁сума	-11.5398
▁настаўнікаў	-11.5402
▁ваг	-11.5405
▁страў	-11.5406
▁серыял	-11.5407
▁любит	-11.5411
▁145	-11.5413
▁ваяводств	-11.5417
▁архітэктурна	-11.5417
▁эканоміка	-11.5418
▁районе	-11.5423
чак	-11.5423
▁інжынера	-11.5424
часце	-11.5426
Е	-11.5428
Анджэлес	-11.5432
▁вычислени	-11.5432
▁запрошаны	-11.5432
▁зарплат	-11.5432
▁недастаткова	-11.5432
▁паплечнік	-11.5432
▁превосход	-11.5432
▁отчёт	-11.5432
▁пераўтворан	-11.5432
▁the	-11.5432
▁цікавы	-11.5432
▁Пятровіч	-11.5433
▁переговор	-11.5436
▁лекци	-11.5436
▁генеральна	-11.5436
▁правил	-11.5438
▁складання	-11.5439
▁изучал	-11.544
▁квет	-11.5441
▁метан	-11.5442
▁Дзяржав	-11.5442
▁лыж	-11.5443
▁кратар	-11.5448
▁выклікаў	-11.5449
▁луч	-11.545
▁успаміна	-11.5454
▁своеасаблівы	-11.5456
▁бумаг	-11.5457
▁гульцо	-11.5457
▁смотрели	-11.5457
▁паяс	-11.5461
▁саветнік	-11.5462
▁аркестра	-11.5463
▁Аснов	-11.5463
▁планіроўк	-11.5464
▁Al	-11.5476
▁нрави	-11.5478
▁дынастыя	-11.5481
▁игрок	-11.5482
▁набыцц	-11.5487
нули	-11.549
азвіццё	-11.5492
▁социальн	-11.5492
▁Гістарычна	-11.5493
▁зніжэнн	-11.5493
▁коммуникаци	-11.5493
▁неожиданно	-11.5493
▁паслужыл	-11.5493
▁супярэчнасц	-11.5493
▁Дзяржынск	-11.5493
▁Мексик	-11.5493
▁Ігнат	-11.5493
▁негатыўн	-11.5493
▁тэалогі	-11.5493
▁намінацы	-11.5493
▁гряз	-11.5493
▁трацін	-11.5493
▁карчм	-11.5493
▁сенатара	-11.5493
▁металічны	-11.5494
▁единиц	-11.5494
▁смотрю	-11.5497
▁Ельск	-11.5499
▁стволовы	-11.5501
нутри	-11.5504
▁абарона	-11.5504
▁обнаружить	-11.5505
▁Эдварда	-11.5505
▁батальёна	-11.5505
▁раскоп	-11.5505
нтов	-11.5506
▁даруч	-11.5509
▁диск	-11.5511
▁Маст	-11.5513
▁аказвае	-11.5517
▁рукав	-11.5518
▁сядзіба	-11.5519
▁признак	-11.552
▁забудова	-11.552
▁Роб	-11.5523
чек	-11.5526
курс	-11.5526
▁трымае	-11.5528
меньше	-11.5528
▁накірава	-11.5536
▁линия	-11.5538
▁Джа	-11.5538
▁стольк	-11.5541
▁просмотр	-11.5543
▁заваяваны	-11.5548
▁фундамент	-11.5549
▁цукр	-11.5551
тремя	-11.5552
▁массово	-11.5554
▁Каралеўскі	-11.5554
▁Перыяд	-11.5554
▁Эфіопі	-11.5554
▁ближайши	-11.5554
▁візантыйскі	-11.5554
▁рэзерв	-11.5554
▁удастся	-11.5554
▁фабрик	-11.5554
▁аутизм	-11.5554
▁Традыцыйна	-11.5554
▁плюс	-11.5554
▁цёмна	-11.5554
▁ўраўненн	-11.5554
▁запрет	-11.5554
▁лесвіц	-11.5554
TC	-11.5556
▁захаваны	-11.5556
▁смотрят	-11.5558
▁рэформа	-11.5559
сіп	-11.5559
▁Тытан	-11.5559
▁шчасц	-11.5559
▁нарыс	-11.5561
▁сидит	-11.5561
▁дацкі	-11.5562
▁камуніста	-11.5563
▁Савец	-11.5567
▁аддаў	-11.5568
▁внутренне	-11.557
▁пратэсту	-11.557
▁изобре	-11.5572
▁мітрапаліта	-11.5572
▁участи	-11.5573
▁сини	-11.5574
▁третий	-11.5574
▁зерн	-11.5576
▁материала	-11.5577
▁искал	-11.5578
▁патрэбны	-11.5578
док	-11.5579
▁Месяц	-11.5583
▁ценност	-11.5587
▁знаём	-11.5588
▁гнязд	-11.559
▁Алена	-11.5598
▁узвышш	-11.5602
▁Альберта	-11.5606
▁сустрэў	-11.561
▁Хутка	-11.5616
*	-11.5616
▁Дэпартамент	-11.5616
▁рэгіянальна	-11.5616
▁Маладзечн	-11.5616
▁величайш	-11.5616
▁нацысцка	-11.5616
▁симптом	-11.5616
▁кнопк	-11.5616
▁помещени	-11.5616
▁наперад	-11.5616
явить	-11.5616
▁воспользова	-11.5616
▁асман	-11.5616
▁исключение	-11.5616
▁выконвалі	-11.5616
▁светлавы	-11.5617
▁честь	-11.5618
▁полезно	-11.5619
▁набег	-11.5621
▁вдох	-11.5624
▁выклікана	-11.5628
▁поместить	-11.5628
водят	-11.5628
▁музы	-11.563
▁спев	-11.563
▁граматык	-11.5632
▁паняцц	-11.5636
▁оказыва	-11.5638
▁ствараю	-11.5641
▁Вера	-11.5641
▁рушыл	-11.5645
▁прош	-11.5648
▁картина	-11.5648
▁кляштара	-11.5649
рослы	-11.5649
▁аднолькава	-11.565
▁перавага	-11.5653
каса	-11.566
▁рабства	-11.5662
▁выратаванн	-11.5663
▁школьна	-11.5665
азі	-11.5667
▁лясно	-11.5669
▁опас	-11.5669
▁семи	-11.5669
▁Кампані	-11.5678
▁Ричард	-11.5678
▁библиотек	-11.5678
▁маленькую	-11.5678
▁найперш	-11.5678
▁пригласил	-11.5678
▁рожда	-11.5678
▁сімфоні	-11.5678
▁обсуждени	-11.5678
▁Сіцылі	-11.5678
▁Карыбск	-11.5678
▁Платон	-11.5678
▁Индия	-11.5678
▁Неапал	-11.5678
▁срэбра	-11.5678
▁грама	-11.5679
▁UGC	-11.568
▁Лар	-11.568
▁зеркал	-11.568
центр	-11.5684
▁падрабязна	-11.5685
▁затрыма	-11.5685
▁планавала	-11.5685
▁Малады	-11.5687
▁цяжкім	-11.5688
▁представлял	-11.5689
▁несчаст	-11.5691
▁патрэбна	-11.5692
ведения	-11.5693
▁ходу	-11.5694
▁Карэлі	-11.5698
ЗБ	-11.5701
▁электронна	-11.5701
▁светлы	-11.5702
▁Рыгора	-11.5702
▁Максімальн	-11.5705
▁Латвія	-11.5706
▁Фердынанд	-11.5709
стоит	-11.571
▁агульн	-11.5711
▁рабоче	-11.5712
чение	-11.5712
гадова	-11.5715
▁станци	-11.5716
▁Эры	-11.5717
▁прылеглы	-11.5726
▁красн	-11.5726
▁пражываю	-11.5727
верен	-11.5731
▁апавяданне	-11.5732
▁перанесены	-11.5732
▁измерения	-11.5734
▁Германска	-11.5734
▁морско	-11.5736
▁пляц	-11.5736
▁Альбрэхт	-11.574
▁Асамбле	-11.574
▁Баранавічы	-11.574
▁Вішнявецк	-11.574
▁Пушкін	-11.574
▁зачынены	-11.574
▁конструкци	-11.574
▁хірург	-11.574
▁Абхазі	-11.574
▁паслядоўнік	-11.574
▁проводим	-11.5741
▁маральна	-11.5741
▁костюм	-11.5741
▁клиник	-11.5741
▁вадарод	-11.5742
▁падводны	-11.5742
▁Маг	-11.5743
▁Гары	-11.5748
▁воін	-11.5748
▁дывізія	-11.5749
▁пережива	-11.5754
▁поставил	-11.5756
▁метала	-11.5757
▁плануе	-11.5758
чешь	-11.5759
▁зацвердзіў	-11.576
▁болезней	-11.5761
▁абрана	-11.5767
▁Санта	-11.577
▁движет	-11.577
▁восприяти	-11.5772
▁Z	-11.5772
▁счита	-11.5773
▁ўварванн	-11.5773
▁рухам	-11.5774
▁метадам	-11.578
▁считал	-11.5785
▁літоўц	-11.5786
▁спалены	-11.5787
▁террорист	-11.5789
▁спуска	-11.5795
▁рухаў	-11.5796
▁360	-11.5797
дзесят	-11.5797
▁распрацоўка	-11.5799
▁связ	-11.5799
▁Справ	-11.5801
▁княгін	-11.5803
▁мінімум	-11.5803
▁інвентар	-11.5803
▁індыйска	-11.5803
▁Давід	-11.5803
▁пазначэнн	-11.5803
▁микроскоп	-11.5803
▁пратэстанта	-11.5803
▁даводзі	-11.5804
▁достойн	-11.5804
▁згадк	-11.5804
▁Эйнштэйна	-11.5804
▁літаратуразна	-11.5805
▁судьб	-11.5805
▁держа	-11.5806
▁вчера	-11.5808
▁тыдн	-11.5809
▁Егіпе	-11.5809
▁ребёнком	-11.581
ешч	-11.5811
▁зменены	-11.5811
тварэнне	-11.5811
▁выстаўка	-11.5811
▁аналог	-11.5812
▁Альберт	-11.5813
временно	-11.5816
▁Старог	-11.5818
▁выбарча	-11.5818
▁прыпісва	-11.5818
▁природа	-11.5818
▁округ	-11.5821
▁запісаны	-11.5822
адзення	-11.5823
▁прырода	-11.5824
▁забіва	-11.5825
▁Александры	-11.5825
▁единственн	-11.5828
▁тэмп	-11.5829
берг	-11.5831
▁Акт	-11.5831
▁взаимодейству	-11.5832
▁дзённік	-11.5832
▁біяграфі	-11.5833
▁самим	-11.5837
▁пераемнік	-11.5837
▁лёт	-11.5838
▁вырошчва	-11.584
▁ўпада	-11.584
▁детств	-11.584
танцы	-11.5841
▁льв	-11.5851
▁дабра	-11.5853
▁Знак	-11.5855
▁даведа	-11.5858
ёшь	-11.5859
▁4000	-11.5862
▁числе	-11.5865
▁сказ	-11.5865
▁алгебр	-11.5865
▁Талсто	-11.5866
▁варожы	-11.5866
▁деревьев	-11.5866
▁космас	-11.5866
▁мадыфікацы	-11.5866
▁отслежива	-11.5866
▁сенсор	-11.5866
▁литератур	-11.5866
▁экспанат	-11.5866
▁Буйны	-11.5866
▁гарызантальны	-11.5867
▁вулканічна	-11.5867
▁фирм	-11.5867
▁попыт	-11.5867
▁аналагічны	-11.5867
▁жнів	-11.5867
▁десять	-11.5867
▁плоскі	-11.5868
▁камбінат	-11.5868
вления	-11.5869
▁пожар	-11.5869
▁хутар	-11.5872
▁магістрал	-11.5872
▁психологи	-11.5874
▁людзям	-11.5878
▁машине	-11.5879
▁шыра	-11.5882
▁працягваю	-11.5882
▁Ашмянск	-11.5883
▁труда	-11.5884
▁устройств	-11.5885
▁вузкім	-11.5886
▁Альгерда	-11.5886
▁чип	-11.5889
класці	-11.589
тварыў	-11.5894
BM	-11.5894
▁производить	-11.5897
▁Канстанцінопал	-11.5897
▁вырашэння	-11.5899
▁весел	-11.5899
▁внутренни	-11.5901
▁существующи	-11.5905
▁асноўн	-11.5907
▁отдал	-11.5908
роп	-11.5909
йдём	-11.591
▁раённы	-11.591
▁предложен	-11.5911
▁вузкі	-11.5911
ляют	-11.5914
▁разнообразие	-11.5915
▁Астатні	-11.5915
▁заклік	-11.5916
▁специалист	-11.5916
▁Конкур	-11.5917
▁кровь	-11.5922
▁безопасно	-11.5922
▁университете	-11.5924
▁древн	-11.5924
▁Усходн	-11.5927
▁султана	-11.5928
▁тэрытарыяльна	-11.5929
▁Эйнштэйн	-11.5929
▁Альцгеймер	-11.593
▁Амстэрдам	-11.593
▁амерыканц	-11.593
▁археалагічна	-11.593
▁прыбярэжны	-11.593
▁тэлеканал	-11.593
▁Наконец	-11.593
▁пшаніц	-11.593
▁пярэдня	-11.593
▁батаре	-11.593
▁метафор	-11.593
▁ператвара	-11.593
▁флор	-11.5931
▁кресл	-11.5932
▁идеально	-11.5932
▁Маркс	-11.5933
▁пошли	-11.5933
▁установить	-11.5935
▁навучы	-11.5935
▁2-3	-11.5937
ступает	-11.5938
▁дробна	-11.5942
▁получила	-11.5945
▁объекты	-11.5946
▁слушать	-11.595
▁Антона	-11.5953
▁средство	-11.5953
▁прызначэнне	-11.5954
пользова	-11.5958
правлен	-11.5959
▁1780	-11.5961
▁вырошчванн	-11.5961
▁ідэал	-11.5965
▁пора	-11.5966
▁интересное	-11.5966
▁кантроле	-11.5966
▁тэхні	-11.5967
▁Меды	-11.5971
▁взаимосвяз	-11.5975
▁абмежавання	-11.5979
▁каго	-11.598
▁операции	-11.5981
▁невялік	-11.5985
▁аддзяленн	-11.5986
▁блізкасц	-11.5988
▁кантэкс	-11.5994
▁Стамбул	-11.5994
▁Чалавек	-11.5994
▁Эквадор	-11.5994
▁цагляны	-11.5994
▁шосты	-11.5994
▁бактэры	-11.5994
▁мякка	-11.5994
▁прыпын	-11.5994
▁убийств	-11.5994
▁гатычны	-11.5994
▁наву	-11.5995
▁вобл	-11.5995
▁выслана	-11.5996
▁творам	-11.5998
▁Пойма	-11.5999
▁дзесятк	-11.6001
▁небяспечны	-11.6001
▁крайні	-11.6002
жит	-11.6002
▁Фёдара	-11.6003
▁важнейш	-11.6003
▁роўнасц	-11.6005
▁азначала	-11.6005
▁адрознення	-11.6006
▁прапанавана	-11.6007
▁1,4	-11.6008
пиш	-11.6008
▁проверить	-11.6011
▁кода	-11.6011
▁окружающ	-11.6012
очку	-11.6013
▁умацавання	-11.6015
▁значения	-11.6017
▁пісьмо	-11.6018
▁Дзве	-11.6019
▁небо	-11.6021
▁Зборн	-11.6022
▁Троцкі	-11.6026
▁Дол	-11.6027
▁перенос	-11.6028
сель	-11.6029
▁роспіс	-11.6034
▁Вайніловіча	-11.6035
▁вызначыў	-11.6036
▁Рагачоўск	-11.6037
▁спрашива	-11.6038
▁падпісал	-11.6039
▁Стара	-11.604
▁грэк	-11.6044
▁бесконечно	-11.605
▁травм	-11.6053
▁старая	-11.6054
▁посуд	-11.6056
▁Рэчыцка	-11.6058
годдзя	-11.6058
▁Азербайджан	-11.6058
▁Microsoft	-11.6059
▁Нигери	-11.6059
▁Человек	-11.6059
▁абсерваторы	-11.6059
▁исключительно	-11.6059
▁пчёл	-11.6059
▁інфраструктур	-11.6059
▁паўторна	-11.6059
▁працэнт	-11.6059
▁вылучэнн	-11.6059
▁Скончы	-11.606
▁малыш	-11.6061
▁трохвугольнік	-11.6061
▁экономика	-11.6061
▁пэўным	-11.6064
▁Боже	-11.6066
▁знішчыл	-11.6071
▁системой	-11.6073
▁стваральнік	-11.6074
▁Бранск	-11.6075
▁улица	-11.6075
ожжа	-11.6078
▁книге	-11.6079
▁точк	-11.6082
▁рухавіка	-11.6082
▁Сусветны	-11.6082
▁сообщения	-11.6085
▁пашкоджан	-11.6085
▁староства	-11.6088
▁менять	-11.6088
▁крыштал	-11.609
▁влияни	-11.609
▁камера	-11.6094
▁Раб	-11.6098
▁Зал	-11.6101
глыб	-11.6101
▁задал	-11.6101
▁чэшскі	-11.6102
▁основно	-11.6104
▁прыз	-11.6104
▁сучасн	-11.6106
▁Хорош	-11.6108
▁приносит	-11.6109
▁Крыжа	-11.6112
▁звонк	-11.6118
▁даходзі	-11.6118
▁долги	-11.6121
▁Магілёўскі	-11.6121
▁Красна	-11.6124
кшталт	-11.6124
▁Хадкевіч	-11.6124
▁арганізоўва	-11.6124
▁вопратк	-11.6124
▁нарвежскі	-11.6124
▁потребля	-11.6124
▁прадзюсар	-11.6124
▁размнажэнн	-11.6124
▁топлива	-11.6124
▁энцыклапеды	-11.6124
▁Сенненск	-11.6124
▁прырост	-11.6124
▁дверь	-11.6124
▁Гарбачо	-11.6124
▁едва	-11.6124
▁Славені	-11.6124
▁злучы	-11.6124
▁элементарны	-11.6125
▁1,1	-11.6125
▁падполл	-11.6125
▁удзельнікам	-11.6126
▁Ціхі	-11.6131
▁превратить	-11.6131
стон	-11.6133
▁господ	-11.6134
▁празаі	-11.6134
▁прыцягну	-11.6135
▁кручэнн	-11.6138
▁дзесяці	-11.6141
▁ратуш	-11.6143
▁здоров	-11.6143
▁расстраляны	-11.6143
▁епіскапа	-11.6147
▁атрадам	-11.615
▁потребност	-11.6156
▁Брэсц	-11.616
▁плаці	-11.6161
▁легенда	-11.6162
▁забяспечваю	-11.6162
▁пакінуты	-11.6163
▁абедзвю	-11.6165
▁Створан	-11.6169
піва	-11.6169
▁падпольн	-11.6172
▁зліва	-11.6176
▁пераправ	-11.6176
▁установлен	-11.6177
▁доктарск	-11.6184
▁Оста	-11.6187
▁скончы	-11.6187
▁справедливост	-11.6188
▁Apple	-11.6189
▁iPhone	-11.6189
▁Бразілія	-11.6189
▁Конгресс	-11.6189
▁Хемінгуэ	-11.6189
▁адзначаю	-11.6189
▁справаздач	-11.6189
▁студэнцкі	-11.6189
▁улучша	-11.6189
▁противоречи	-11.6189
▁рамёств	-11.6189
амярза	-11.6189
▁автомат	-11.6189
▁ацані	-11.6189
▁одинаково	-11.6189
▁диалог	-11.6189
▁выяснил	-11.6189
▁протез	-11.619
▁лазер	-11.619
▁Евангелля	-11.6191
▁атрымана	-11.6192
▁берёт	-11.6192
▁забіта	-11.6193
▁купал	-11.6194
▁падзенне	-11.6195
▁жаб	-11.6195
бирать	-11.6196
▁святаро	-11.6197
важен	-11.6199
▁ядерно	-11.6199
▁абаронча	-11.6201
▁пле	-11.6202
▁меньш	-11.6203
▁прапанаваны	-11.6204
▁прыдворны	-11.6205
▁ўрач	-11.6206
▁Нансена	-11.6206
▁попытать	-11.6208
▁акадэмічна	-11.621
▁маладым	-11.6212
▁прададзен	-11.6213
долю	-11.6213
▁Ален	-11.6215
▁ощущения	-11.6216
▁Клецкі	-11.6219
▁старэйшым	-11.6222
▁11-	-11.6224
▁абяца	-11.6232
▁бронз	-11.6234
ходили	-11.6235
▁прошли	-11.6237
▁роман	-11.6239
вядзенне	-11.6239
▁запісва	-11.6243
▁паэма	-11.6244
K	-11.6245
▁просьба	-11.6247
▁выразны	-11.6247
▁Атлант	-11.6251
▁поставить	-11.6252
▁матэры	-11.6253
▁Кембрыдж	-11.6255
▁Мужчин	-11.6255
▁каланіяльны	-11.6255
▁минимум	-11.6255
▁сутыкну	-11.6255
▁канфіскава	-11.6255
▁Хронік	-11.6255
▁адчынен	-11.6255
▁украінц	-11.6255
▁смаленск	-11.6255
▁1803	-11.6256
▁падверг	-11.6257
▁пісьменніц	-11.6258
▁выканаўчы	-11.6263
▁отвечает	-11.6265
▁аўтадаро	-11.6265
▁сутыкненн	-11.6267
▁губернскі	-11.627
ждения	-11.627
▁паўночн	-11.627
el	-11.6272
▁Другим	-11.6273
▁дочь	-11.6273
▁перыядычны	-11.6273
▁солнце	-11.6276
следуе	-11.6277
▁Анатоль	-11.6279
▁вспомина	-11.6283
рение	-11.6285
▁ўзяцц	-11.6286
▁этнаграфі	-11.6289
▁цифровы	-11.6293
▁хво	-11.6294
▁путе	-11.6294
▁мусульманскі	-11.6297
▁политика	-11.6299
▁комнату	-11.63
▁матыв	-11.6303
▁дли	-11.6306
асцей	-11.6306
▁собирать	-11.6306
▁купц	-11.6307
▁справить	-11.6307
▁Пре	-11.6308
▁клад	-11.6309
▁мусульмане	-11.6309
▁помогаю	-11.6309
▁Стэфан	-11.631
▁арт	-11.6311
▁бывает	-11.6313
▁жен	-11.6318
▁Брат	-11.6319
▁камісара	-11.6321
▁уязвим	-11.6321
▁Крыштаф	-11.6321
▁глубоки	-11.6321
▁забруджванн	-11.6321
▁импульс	-11.6321
▁кандыдацк	-11.6321
▁потеплени	-11.6321
▁фатаграфі	-11.6321
▁Сістэм	-11.6321
▁разруша	-11.6321
▁Рэфармацы	-11.6321
▁удобн	-11.6321
▁уважени	-11.6322
пят	-11.6323
▁пройд	-11.6324
▁звалі	-11.6324
▁Кажд	-11.6326
▁Много	-11.6327
▁торговл	-11.6328
▁майстэрня	-11.6331
▁мячэц	-11.6334
▁финансово	-11.6335
▁завяршэнн	-11.6335
▁71	-11.6336
▁Каков	-11.634
▁игру	-11.6342
▁Иран	-11.6343
▁ставілі	-11.6344
▁проектом	-11.6344
лічаны	-11.6351
▁поездк	-11.6355
▁Слуцкі	-11.6356
▁220	-11.6363
▁венгерска	-11.6363
▁ўключаю	-11.6364
▁сексуальны	-11.6364
▁бул	-11.6366
▁аўстрыйска	-11.6371
▁оставил	-11.6374
▁геалагічны	-11.6375
▁палё	-11.6377
▁заваяваў	-11.6378
▁тэхналагічны	-11.6379
▁франк	-11.6382
▁выбира	-11.6383
▁выдаваў	-11.6384
▁могілк	-11.6385
▁рэг	-11.6386
▁Израил	-11.6388
▁Каталіцка	-11.6388
▁Смаргон	-11.6388
▁Эйнштейн	-11.6388
▁абумоўлена	-11.6388
▁дырыжор	-11.6388
▁камуністычны	-11.6388
▁паскарэнн	-11.6388
▁пратэктарат	-11.6388
▁предприяти	-11.6388
▁распавяда	-11.6388
▁снижени	-11.6388
▁узаемадзеянн	-11.6388
▁Леанід	-11.6388
▁Летні	-11.6388
▁ахоўва	-11.6388
▁трыбун	-11.6388
▁одинаковы	-11.6388
▁Азии	-11.6388
▁карыстальніка	-11.6388
▁фотографий	-11.6389
▁Існавал	-11.639
правлять	-11.639
остр	-11.639
▁пресс	-11.6391
▁літаратар	-11.6392
▁выживани	-11.6392
▁посыл	-11.6393
▁прызначае	-11.6394
▁привел	-11.6396
▁борт	-11.6398
▁подпис	-11.6398
▁забараня	-11.6399
▁производител	-11.64
▁кантынентальны	-11.64
▁ўчастка	-11.6401
▁детско	-11.6401
▁тонка	-11.6402
БМ	-11.6406
▁назвали	-11.6406
▁карман	-11.6406
▁находящи	-11.6409
▁рэктар	-11.641
▁фараона	-11.6411
▁Сал	-11.6413
▁стандартны	-11.6415
▁данін	-11.6416
▁дывізіён	-11.6417
▁застало	-11.6418
▁мух	-11.6419
▁сознания	-11.642
▁яўленн	-11.642
▁Хоч	-11.6421
▁Работа	-11.6423
▁жир	-11.6423
▁деталь	-11.6424
▁Дэл	-11.6424
▁выкарыстаў	-11.6428
▁Буш	-11.6429
▁принял	-11.6429
▁приняли	-11.643
▁Айчынн	-11.6432
▁длинны	-11.6433
▁волну	-11.6434
ed	-11.6435
▁продолжительно	-11.6436
▁адзначан	-11.6437
▁аўтамабіл	-11.6438
▁акадэмічны	-11.644
▁кит	-11.644
амарн	-11.6442
▁сцэнары	-11.6443
▁страта	-11.6448
▁дакументальны	-11.6452
▁насяля	-11.6452
▁магіла	-11.6452
▁заходн	-11.6453
▁нацыянальнасц	-11.6453
участвовать	-11.6455
▁Дэкларацы	-11.6455
▁Узброены	-11.6455
▁гравюр	-11.6455
▁критик	-11.6455
▁распасціра	-11.6455
▁повезло	-11.6455
▁Галанды	-11.6455
▁Пекін	-11.6455
▁сегодняшне	-11.6455
▁Гарэцк	-11.6455
▁хаос	-11.6455
▁Бунд	-11.6455
▁спрэч	-11.6455
▁адхілі	-11.6455
▁сквер	-11.6455
▁Сымон	-11.6456
▁питания	-11.6457
▁служит	-11.6457
▁цягне	-11.6457
▁ясна	-11.6459
▁польз	-11.6461
▁ўзялі	-11.6462
▁Берліна	-11.6462
▁пражы	-11.6463
▁грашова	-11.6464
▁саюзны	-11.6467
▁запаведнік	-11.6473
▁мышлени	-11.6473
▁хлопчыка	-11.6473
▁інфармацыйны	-11.6473
Франциск	-11.6475
▁промышленност	-11.6479
▁собрал	-11.648
станавіў	-11.6481
▁абмежаванн	-11.6484
▁цягну	-11.6485
государств	-11.6488
▁лап	-11.6491
▁1940-	-11.6492
▁Міцкевіча	-11.6494
▁коров	-11.6495
▁аднавіў	-11.6495
▁пасол	-11.6496
▁афрыканскі	-11.6497
▁Індыйскі	-11.6498
бин	-11.6499
▁запуска	-11.6499
ck	-11.65
▁сусветным	-11.6501
▁паверха	-11.6505
лівы	-11.6507
▁компьютерны	-11.6508
▁Ro	-11.6511
андыдат	-11.6512
▁кангрэса	-11.6513
▁верил	-11.6515
▁преодоле	-11.6515
▁праяві	-11.6519
▁сотрудничеств	-11.6519
▁инструментов	-11.6521
▁Яраслава	-11.6522
▁квартир	-11.6522
▁пасляваенны	-11.6522
▁степень	-11.6522
▁тэлефон	-11.6522
▁Штаб	-11.6522
▁открывает	-11.6526
▁прапанавал	-11.6527
▁камандаванн	-11.6527
▁пакіда	-11.6528
▁ничто	-11.6529
дзейнасц	-11.6531
▁вятрак	-11.6532
▁доклад	-11.6533
▁Данія	-11.6533
▁прынца	-11.6534
▁Прынят	-11.6535
▁Wi	-11.6535
▁адчуванн	-11.6537
▁адлюстроўваю	-11.6538
трэ	-11.654
▁приступ	-11.6542
▁перы	-11.6545
▁прызнае	-11.6546
▁Мад	-11.6548
▁вечна	-11.6548
▁ўключана	-11.6551
▁выраблены	-11.6552
▁детстве	-11.6553
▁сельсаве	-11.6554
▁Аснова	-11.6555
▁Запавет	-11.6556
▁240	-11.6558
▁видела	-11.6558
▁званн	-11.6561
▁мерапрыемств	-11.6561
▁Фор	-11.6564
▁вырас	-11.6565
Джэр	-11.6567
щут	-11.6567
▁трени	-11.6571
▁СІ	-11.6573
▁хадзі	-11.6574
▁основыва	-11.6576
▁святара	-11.6581
▁Ma	-11.6581
▁выращива	-11.6584
▁брытанскім	-11.6586
▁экстр	-11.6586
▁РК	-11.6587
▁прыняцце	-11.6588
▁произошл	-11.659
▁вял	-11.659
▁четверт	-11.659
▁Баліві	-11.659
▁Очевидно	-11.659
▁Рудольф	-11.659
▁вапняк	-11.659
▁гароднін	-11.659
▁горизонт	-11.659
▁кваліфікацы	-11.659
▁мікрараён	-11.659
▁накіроўва	-11.659
▁пасажырскі	-11.659
▁рассяленн	-11.659
▁расширя	-11.659
▁ўзмацні	-11.659
▁Клімент	-11.659
▁мэбл	-11.659
▁изучить	-11.659
▁Каліноўск	-11.659
▁латын	-11.6591
▁захват	-11.6591
▁Тышкевіч	-11.6591
▁родителям	-11.6591
▁Co	-11.6592
▁пазнанн	-11.6592
ведала	-11.6593
▁Правд	-11.6593
▁струн	-11.6593
▁ўсталяванн	-11.6594
режде	-11.6596
▁датчик	-11.6597
▁буры	-11.6598
▁вывад	-11.6598
▁вскоре	-11.6599
▁использован	-11.6602
▁перакладзены	-11.6603
▁паліцыя	-11.6603
▁зняў	-11.6604
▁ждать	-11.6604
яўляў	-11.6605
▁сценари	-11.6608
долго	-11.6609
▁цэн	-11.6609
слоў	-11.6609
▁долг	-11.6612
▁жена	-11.6612
▁кіравалі	-11.6613
▁Мазырска	-11.6617
▁Камітэта	-11.6619
▁оценит	-11.6621
▁магнит	-11.6625
щими	-11.663
▁Ок	-11.6632
▁спалучэнне	-11.6632
▁Рэк	-11.6633
▁Хац	-11.6636
твараючы	-11.6636
▁індзейца	-11.6637
ярнуўшыс	-11.6643
▁прыкметны	-11.665
ногі	-11.6654
▁изображен	-11.6655
▁кропк	-11.6657
▁выслан	-11.6657
▁Твиттер	-11.6659
▁агенцтва	-11.6659
▁корпораци	-11.6659
▁партугальска	-11.6659
▁прэстыж	-11.6659
▁расширени	-11.6659
▁симметри	-11.6659
▁событие	-11.6659
▁Агульны	-11.6659
▁дабрабыт	-11.6659
▁засяленн	-11.6659
▁коллекци	-11.6659
▁Амерыканска	-11.6659
▁адзіночны	-11.666
▁захапленн	-11.666
▁авари	-11.666
▁Садружнасц	-11.6661
▁Уільяма	-11.6662
▁Мядзельск	-11.6662
▁национальны	-11.6663
▁марка	-11.6664
▁помнікам	-11.6666
▁лини	-11.6669
▁Федэральн	-11.6669
#	-11.667
▁коран	-11.6672
▁праўленн	-11.6674
▁детал	-11.6674
▁вечером	-11.6675
▁эсэ	-11.6676
▁апек	-11.6676
▁экономи	-11.6677
▁механічны	-11.6678
▁ўрачыста	-11.668
▁праліва	-11.668
▁прымаю	-11.6682
▁показывал	-11.6682
▁Іаана	-11.6685
▁масса	-11.6685
▁вакзала	-11.6686
▁верит	-11.6688
▁месцазнаходжанн	-11.669
▁мирового	-11.6692
▁карыстанн	-11.6694
▁непосредственно	-11.6695
▁создаё	-11.6697
▁спаборніцтв	-11.6698
▁парламенц	-11.6698
▁бываю	-11.67
▁гора	-11.6702
▁потратил	-11.6704
▁принимают	-11.6705
▁перс	-11.6707
▁превращает	-11.671
▁абсталяванне	-11.6712
роўні	-11.6714
бирает	-11.6716
▁изобретател	-11.6722
стоять	-11.6723
▁приходил	-11.6724
▁фарб	-11.6726
▁агламерацы	-11.6728
▁демонстриру	-11.6728
▁драматычна	-11.6728
▁партугальц	-11.6728
▁касцюм	-11.6728
▁вадзяны	-11.6728
▁карпус	-11.6728
▁вінаград	-11.6728
▁располага	-11.6728
▁тэлескоп	-11.6728
▁Осла	-11.6728
▁столети	-11.6728
▁ўмерана	-11.6728
▁Тэатр	-11.6728
▁Спроб	-11.6728
▁уникальны	-11.6729
▁мысля	-11.6729
▁лінь	-11.6729
▁Дети	-11.673
▁суднаход	-11.6731
▁адыграл	-11.6731
▁кандыдатур	-11.6733
опыт	-11.6733
▁Отлично	-11.6733
▁готык	-11.6734
▁морски	-11.6735
▁синтез	-11.6738
▁Рашэнн	-11.6739
▁пришло	-11.674
▁крыжовы	-11.674
▁компьютеров	-11.6741
ыхаван	-11.6742
▁рымскім	-11.6743
▁текущ	-11.6745
▁задня	-11.6752
▁будущи	-11.6755
▁бедна	-11.6755
▁Сэр	-11.6758
▁прыбыт	-11.6759
▁1838	-11.676
▁образовани	-11.6761
▁вугла	-11.6764
▁пальм	-11.6767
▁практык	-11.6771
▁дополнительны	-11.6773
▁звуков	-11.6775
▁вспомнит	-11.6775
▁пошт	-11.6782
▁сотрудник	-11.6783
▁утвараю	-11.6786
сут	-11.6788
▁сыгра	-11.6789
▁чист	-11.6789
▁сплав	-11.679
▁прасі	-11.679
▁рисунк	-11.6795
рафесар	-11.6795
алог	-11.6796
▁абмеркаванн	-11.6797
▁аплодисменты	-11.6797
▁встретить	-11.6797
▁оружия	-11.6797
▁перасяленн	-11.6797
▁прототип	-11.6797
▁прыязджа	-11.6797
▁электрастанцы	-11.6797
▁ўскраін	-11.6797
▁письма	-11.6797
▁дзяр	-11.6797
▁няўдач	-11.6797
▁почувствовал	-11.6797
▁шлем	-11.6797
▁закрыта	-11.6797
▁канцлера	-11.6797
▁Друкава	-11.6798
▁исследу	-11.6798
▁подготовк	-11.6798
▁производит	-11.6799
▁Восток	-11.6799
▁паміра	-11.68
▁прыбыцц	-11.6801
▁падтрыманн	-11.6801
▁течени	-11.6804
ўшчы	-11.6805
▁здзяйсняе	-11.6806
▁выбірае	-11.6806
▁играю	-11.6806
▁управление	-11.6807
▁здары	-11.6807
▁физики	-11.6811
▁поколени	-11.6812
▁Зім	-11.6813
▁Між	-11.6814
▁рыбу	-11.6817
▁бронзава	-11.6819
▁заканчива	-11.6819
▁вартасц	-11.682
▁тыповы	-11.6822
▁ведут	-11.6823
▁Ленінска	-11.6824
фин	-11.6824
▁складанасц	-11.6828
wa	-11.683
▁иск	-11.6832
▁лидеров	-11.6833
▁дасягненне	-11.6833
▁работой	-11.6836
▁сообществ	-11.6839
▁перестал	-11.684
▁доказа	-11.685
▁знаменит	-11.6851
▁продела	-11.6851
▁Кот	-11.6853
▁голад	-11.6857
▁животным	-11.6857
▁лучшим	-11.6858
▁колерам	-11.6858
▁Пастаўскі	-11.6859
▁американц	-11.6861
били	-11.6861
рожден	-11.6863
▁фактарам	-11.6866
▁ежедневно	-11.6866
▁Лун	-11.6866
▁Адкрыты	-11.6867
▁Андерсон	-11.6867
▁Апостал	-11.6867
▁Единственн	-11.6867
▁Цікава	-11.6867
▁звіліста	-11.6867
▁нечакана	-11.6867
▁падарожніча	-11.6867
▁Слабад	-11.6867
▁прадмесц	-11.6867
▁пратакол	-11.6867
▁першапачатковы	-11.6867
▁портрет	-11.6867
▁посеща	-11.6867
▁дапаможны	-11.6867
▁Всемирн	-11.6867
▁Лідскі	-11.6867
▁спрос	-11.6867
▁мемарыяльна	-11.6868
▁наведвальніка	-11.6868
▁мембран	-11.6868
▁явление	-11.6868
▁распространения	-11.6868
▁адкрылі	-11.6872
▁выпусці	-11.6876
▁самак	-11.6876
▁пакладзен	-11.6877
▁природу	-11.6878
ow	-11.6879
▁багацц	-11.6883
▁доступа	-11.6887
▁молекулы	-11.6888
▁заснавальнікам	-11.6888
ge	-11.6888
▁кафедральны	-11.6889
▁дошка	-11.689
энца	-11.689
бежал	-11.6891
▁дев	-11.6893
▁арэал	-11.6893
▁адыш	-11.6894
▁ўсталявана	-11.6898
▁поступил	-11.6899
▁вышэйш	-11.6902
▁пераўтварэння	-11.6903
відэа	-11.6904
▁пазначае	-11.6906
▁змянілі	-11.6907
▁отража	-11.691
лить	-11.6913
▁существова	-11.6914
▁згуляў	-11.6915
бодва	-11.6915
далёк	-11.6918
▁рул	-11.6918
▁Гульня	-11.6919
▁сентября	-11.6921
▁задн	-11.6922
▁115	-11.6922
▁матэматы	-11.6922
▁скліка	-11.6923
▁праспект	-11.6929
▁доўгім	-11.6931
▁Лукашэнка	-11.6937
▁Аўтаномна	-11.6938
▁Леапольд	-11.6938
▁вымушана	-11.6938
▁спажыванн	-11.6938
▁справядлівасц	-11.6938
▁стремлени	-11.6938
▁уравнени	-11.6938
▁іерархі	-11.6938
▁камісар	-11.6938
▁мінімальн	-11.6938
▁Усебеларуска	-11.6938
▁Причин	-11.6939
▁слышать	-11.6939
▁снеж	-11.6939
чку	-11.6939
▁Княств	-11.6939
▁родственник	-11.6942
▁палата	-11.6942
▁ператвораны	-11.6943
▁эліт	-11.6946
▁Міндоўг	-11.6946
значительн	-11.6947
▁государство	-11.6947
▁Рэчыцкі	-11.6948
эдзі	-11.6949
▁цэнтральным	-11.6949
▁сложи	-11.6951
▁разбурэння	-11.6951
▁оказаться	-11.6952
▁хорошим	-11.6952
▁реакция	-11.6953
▁135	-11.6955
▁скрыва	-11.6955
▁арка	-11.6957
▁Дунай	-11.6958
▁детали	-11.6959
▁пытают	-11.6961
▁тысячагоддз	-11.6965
▁сустрэча	-11.6965
изаци	-11.697
▁разуменне	-11.697
▁творчеств	-11.6974
▁поразительно	-11.6975
ечен	-11.6976
▁предложит	-11.6976
▁финансировани	-11.6977
▁экалагічны	-11.698
▁кроп	-11.6981
▁кантынен	-11.6983
▁Вест	-11.6985
▁запрасі	-11.6987
▁атмосферу	-11.6989
▁рассказываю	-11.6994
▁магната	-11.7004
аступова	-11.7007
▁прагрэс	-11.7007
▁консул	-11.7008
▁Рузвельт	-11.7009
▁акупавана	-11.7009
▁дрэваапрацоўча	-11.7009
▁непасрэдны	-11.7009
▁прадстаўленн	-11.7009
▁препятстви	-11.7009
▁ўпрыгожан	-11.7009
▁Сустрака	-11.7009
▁арганічна	-11.7009
▁брытанц	-11.7009
▁пенси	-11.7009
▁захоплена	-11.7009
▁хакер	-11.7009
▁акружаны	-11.7009
▁Косав	-11.7009
▁гриб	-11.7009
▁враг	-11.701
▁избавиться	-11.701
▁Дэвид	-11.7011
▁Бат	-11.7013
▁Жак	-11.7013
▁паказа	-11.7014
▁искусственно	-11.7015
▁сведк	-11.7015
▁абвінавачванн	-11.7017
▁интересует	-11.7017
▁актыўным	-11.702
ЦР	-11.7023
▁льд	-11.7023
▁суверэнітэт	-11.7024
▁ником	-11.7025
▁сацыялізм	-11.7027
▁удзельнічал	-11.7028
▁моўны	-11.703
▁трое	-11.7032
▁быстры	-11.7034
▁Мана	-11.7035
▁Од	-11.7036
▁умени	-11.7041
▁Асіпові	-11.7041
віц	-11.7047
▁актыўн	-11.705
▁Нігеры	-11.7054
▁патрабавала	-11.7055
▁спектакля	-11.7062
ставляют	-11.7063
▁мел	-11.7067
интер	-11.7069
▁комар	-11.7071
▁пэўн	-11.7074
▁прафесі	-11.7076
▁Хол	-11.7077
няцце	-11.7078
▁165	-11.7078
▁креп	-11.7079
▁Лівоні	-11.708
▁Скандынаві	-11.708
▁мядзведз	-11.708
▁рэзалюцы	-11.708
▁столкновени	-11.708
▁пацвярджа	-11.708
▁счастья	-11.708
▁Алімпіяд	-11.708
▁захватывающ	-11.708
▁вымаўленн	-11.708
▁называл	-11.708
шедш	-11.7082
▁Шэра	-11.7083
▁механічна	-11.7084
▁пагорк	-11.7084
▁вечно	-11.7092
▁транспартна	-11.7094
▁самолет	-11.7095
▁привыкл	-11.7095
▁Аліс	-11.7096
▁меч	-11.7097
▁слуха	-11.7101
▁дзяржаўнасц	-11.7103
ключала	-11.7104
▁Y	-11.7104
▁прынц	-11.7108
▁змаганн	-11.7108
▁Працоўна	-11.7109
▁экономист	-11.711
▁памешчыка	-11.7111
▁уверенность	-11.7115
▁юг	-11.7117
▁пеш	-11.7119
▁вылучаны	-11.712
▁запар	-11.7121
нит	-11.7122
▁паляўнічы	-11.7126
▁рушы	-11.7128
▁вытворца	-11.7129
▁ўніз	-11.7131
▁ставя	-11.7132
зін	-11.7134
▁стваральніка	-11.7136
апроч	-11.7136
звать	-11.7137
▁пабудавал	-11.7138
▁держать	-11.7139
яўляе	-11.714
▁ператварыла	-11.7141
▁возникл	-11.7141
▁мин	-11.7142
▁натуральным	-11.7144
▁забыл	-11.7146
▁площад	-11.7146
▁заваявал	-11.7146
▁прожива	-11.7149
▁Ліс	-11.7149
▁дапамагл	-11.715
▁0,0	-11.7152
▁Свідрыгайл	-11.7152
▁акупаваны	-11.7152
▁рэпутацы	-11.7152
▁электраэнергі	-11.7152
▁ўтварылі	-11.7152
▁атрымоўва	-11.7152
▁дельфин	-11.7152
▁загрязнен	-11.7152
▁телевидени	-11.7152
▁универсальн	-11.7152
▁грашовы	-11.7152
▁аўтаматычна	-11.7152
▁цитат	-11.7152
▁внешни	-11.7152
▁Аповесц	-11.7152
▁прибыль	-11.7152
▁Крычаў	-11.7152
▁бухт	-11.7153
▁терроризм	-11.7153
▁патент	-11.7154
▁рамеснік	-11.7154
▁чыноўніка	-11.7155
▁наладзі	-11.7157
▁главным	-11.7157
▁прарока	-11.7157
▁абавязаны	-11.7158
▁саюзнік	-11.7158
▁выйграл	-11.716
▁вернуты	-11.716
▁прысуджан	-11.7161
▁абірае	-11.7162
▁Якава	-11.7162
▁журналістык	-11.7165
ачэй	-11.7166
▁унікальн	-11.7166
▁еўрапейскім	-11.7169
▁Англии	-11.7173
▁пасяджэння	-11.7175
▁луга	-11.7176
▁падпольна	-11.7176
▁дыска	-11.7177
▁парламенцка	-11.7178
▁Каж	-11.7178
бб	-11.7179
▁наблюдени	-11.7181
▁Пакістана	-11.7182
▁лед	-11.7184
▁забі	-11.7185
▁Каспійска	-11.7185
▁сексуально	-11.7186
▁пралівам	-11.7187
▁Эдуарда	-11.7188
▁Леон	-11.719
▁шпітал	-11.7191
очной	-11.7195
▁узнік	-11.7196
человеческ	-11.7198
▁коротко	-11.72
▁направления	-11.7201
▁стекл	-11.7202
▁спако	-11.7203
▁графічн	-11.7205
▁філ	-11.7206
▁эсэр	-11.7207
▁влият	-11.7207
▁Ниче	-11.7211
▁сучасніка	-11.7217
▁Рэспубліканска	-11.7217
▁выбіра	-11.7221
▁баяво	-11.7222
▁Характэрна	-11.7224
▁интерфейс	-11.7224
▁кіслат	-11.7224
▁нагрузк	-11.7224
▁неадкладна	-11.7224
▁спынена	-11.7224
▁прыдатны	-11.7224
▁выбрасыва	-11.7225
▁адмоўны	-11.7225
▁Права	-11.7226
▁ўстаноў	-11.7227
▁сямейны	-11.7228
▁постоянн	-11.723
▁напоминает	-11.723
▁Кірыл	-11.7232
права	-11.7234
▁жест	-11.7234
▁настаўніка	-11.7236
▁раслінны	-11.7238
▁жизненно	-11.7238
▁Пагон	-11.7238
▁выхаванне	-11.7239
▁похожа	-11.724
▁Гітлер	-11.7242
▁добрым	-11.7243
▁афарбоўка	-11.7243
▁Гарадоцк	-11.7243
▁палаво	-11.7243
▁марскім	-11.7245
▁публічны	-11.7246
▁преимуществ	-11.7248
▁читал	-11.7249
▁геаметрычн	-11.7251
▁содержание	-11.7254
▁адмоўна	-11.7256
▁пасяліў	-11.7257
кормить	-11.7258
▁архіва	-11.7258
▁аркестр	-11.726
▁потерял	-11.7265
▁Люблін	-11.7268
крылы	-11.7275
▁Жана	-11.7275
▁хата	-11.7278
▁Гітлера	-11.7279
▁164	-11.7284
▁Мазыр	-11.7284
править	-11.7285
фар	-11.7286
▁конкретны	-11.7292
▁Калумб	-11.7292
▁майстрам	-11.7293
▁отсутствие	-11.7293
очка	-11.7296
▁соединен	-11.7296
▁лун	-11.7296
▁сосуд	-11.7297
▁Альфрэд	-11.7297
▁Найвышэйшы	-11.7297
▁Плутон	-11.7297
▁волшебн	-11.7297
▁звольн	-11.7297
▁сярэбраны	-11.7297
▁захварэ	-11.7297
▁адтулін	-11.7297
▁дзюб	-11.7297
▁малітв	-11.7297
▁мовазнаўств	-11.7297
▁предпочита	-11.7298
▁устаноўлены	-11.7298
▁Бюро	-11.7298
▁рэклам	-11.7298
▁Давыд	-11.7299
▁фінансаванн	-11.7301
▁заключыў	-11.7301
▁тэматык	-11.7302
▁Слонім	-11.7302
▁нарисова	-11.7302
▁обнаружив	-11.7303
▁сахар	-11.7303
▁Макс	-11.7304
▁сильн	-11.7304
▁таварыств	-11.7305
▁патрапі	-11.7308
▁найден	-11.7309
чиков	-11.731
следствие	-11.7311
▁наступленн	-11.7316
бросить	-11.7317
H	-11.7317
▁існуючы	-11.7318
▁намерен	-11.7319
▁среда	-11.7319
▁удивлени	-11.7319
▁коллектив	-11.7319
▁хлеба	-11.7323
▁позвонил	-11.7326
▁задани	-11.7327
реки	-11.7328
віл	-11.7331
▁Фердынанда	-11.7333
▁электричество	-11.7337
▁оборудование	-11.7337
▁выставк	-11.7339
▁государственно	-11.734
▁камеру	-11.734
▁красно	-11.7341
▁бедност	-11.7345
циальн	-11.7346
▁погод	-11.7356
▁называемо	-11.736
▁влияю	-11.7365
▁мера	-11.7366
▁военно	-11.7367
▁порядка	-11.7367
▁захоўвала	-11.7367
▁команду	-11.7368
ation	-11.7371
▁словар	-11.7371
▁ветэрынар	-11.7371
▁муніцыпальны	-11.7371
▁партугальскі	-11.7371
▁перспектыв	-11.7371
▁предотвратит	-11.7371
▁экіпаж	-11.7371
▁Зялёны	-11.7371
▁Людвік	-11.7371
▁папраўк	-11.7371
▁Язэп	-11.7371
▁прымыка	-11.7371
▁садавін	-11.7371
▁паспеў	-11.7372
▁сокращен	-11.7372
▁Дамінік	-11.7372
рду	-11.7373
▁гасцініц	-11.7375
▁интересна	-11.7376
▁Ферм	-11.7376
▁пакараны	-11.7376
▁Аляск	-11.7378
▁разумны	-11.7384
ведзены	-11.7385
▁паслядоўна	-11.7386
▁этапа	-11.7387
▁космически	-11.7387
▁Гёт	-11.739
▁вадаём	-11.7394
▁завяршыла	-11.7395
▁армянска	-11.74
▁беженце	-11.7404
маш	-11.7405
▁вырашэнн	-11.7407
▁орбит	-11.7407
▁пераўтварэнн	-11.7407
▁пазнаёмі	-11.7412
▁сацыялістычны	-11.7413
▁производств	-11.7415
▁паведамленне	-11.7415
▁наблюдения	-11.7416
▁строительств	-11.7416
▁площадк	-11.7417
▁девочки	-11.742
▁Глеба	-11.7422
▁процілеглы	-11.7424
▁валюта	-11.7425
▁хлопчык	-11.7425
▁долин	-11.7434
▁исчез	-11.7437
дзялення	-11.7438
льш	-11.7441
Кашалё	-11.7444
▁Крысціян	-11.7445
▁Найсвяцейша	-11.7445
▁адступленн	-11.7445
▁беспрацоў	-11.7445
▁военачальнік	-11.7445
▁диагноз	-11.7445
▁паступленн	-11.7445
▁перамяшча	-11.7445
▁специальны	-11.7445
▁індывідуальны	-11.7445
▁Баранавіцка	-11.7445
▁Интересно	-11.7445
▁персідска	-11.7445
▁спартсмен	-11.7445
▁астроном	-11.7445
▁сінагог	-11.7445
▁перагавор	-11.7445
▁преуспе	-11.7445
▁внешне	-11.7445
▁найдёт	-11.7445
▁дадатк	-11.7445
▁британ	-11.7445
▁учитель	-11.7445
▁традиционно	-11.7445
▁De	-11.7446
▁Фёдаравіч	-11.7446
▁точне	-11.7446
▁Калінін	-11.7447
▁разгарну	-11.7447
▁банан	-11.7448
▁древни	-11.7453
лічваю	-11.7453
▁инвалид	-11.7455
▁Распаўсюджаны	-11.7456
▁Газет	-11.7457
▁отход	-11.7457
▁самка	-11.7457
▁цяпл	-11.7465
▁порядо	-11.7468
опасности	-11.7471
▁медицины	-11.7472
▁ребенка	-11.7475
▁Прыбалты	-11.7475
▁прафсаюза	-11.7477
▁карона	-11.7483
▁Камітэт	-11.7488
▁коллеги	-11.7488
▁збіраў	-11.7489
▁Скота	-11.7493
▁выбрали	-11.7494
▁Форд	-11.7497
▁поэт	-11.7503
▁прыведзены	-11.7505
▁губернска	-11.7506
вель	-11.7509
▁Франціш	-11.7514
▁жыццёвы	-11.7517
▁паказва	-11.7517
▁хуткі	-11.7518
▁экватар	-11.7519
▁Ізабел	-11.752
▁Арыстоцел	-11.752
▁Камарын	-11.752
▁автомобиля	-11.752
▁достоинств	-11.752
▁изначально	-11.752
▁показатели	-11.752
▁популяци	-11.752
▁привлечь	-11.752
▁тапонім	-11.752
▁трагеди	-11.752
▁бліскуч	-11.752
▁грабніц	-11.752
▁асвятленн	-11.752
▁суседзя	-11.752
▁Последни	-11.752
▁приятно	-11.752
▁незвычайна	-11.752
▁Буэн	-11.752
▁канечнасц	-11.752
▁падаўленн	-11.7521
▁авары	-11.7523
▁палец	-11.7524
▁умирают	-11.7524
▁мелки	-11.7524
▁арэнду	-11.7525
▁стоящ	-11.7527
▁компьютерно	-11.7528
▁кампанент	-11.7529
▁доктора	-11.7529
ошел	-11.7529
экономическ	-11.7529
▁отличи	-11.7531
▁перакладае	-11.7532
▁акупацыйны	-11.7533
▁уладанн	-11.7534
▁звезды	-11.7537
▁зрение	-11.7538
▁созданны	-11.7538
▁распространи	-11.7544
▁боли	-11.7545
▁отмеч	-11.7546
▁адраджэнне	-11.7548
▁отделени	-11.755
▁яйк	-11.7551
▁восстановить	-11.7552
▁ожидал	-11.7553
▁авиа	-11.7553
▁эмоциональн	-11.7553
▁далучаец	-11.7555
▁отправили	-11.7555
▁углу	-11.7557
▁грамадскасц	-11.7558
новому	-11.7559
▁крупнейши	-11.756
▁Асоб	-11.7565
▁дзіц	-11.7569
▁ўварва	-11.757
▁Лізавета	-11.7571
▁панаванне	-11.7574
▁выхадца	-11.7576
▁прадпрымальнік	-11.7577
▁огромным	-11.7578
кин	-11.7579
▁Судана	-11.758
▁малым	-11.758
▁Рыз	-11.7582
▁выпусціл	-11.7585
аходжанне	-11.7586
▁мільярда	-11.7586
▁Разве	-11.7589
▁чорным	-11.7591
▁космическо	-11.7594
▁Глыбок	-11.7595
▁Мадагаскар	-11.7595
▁абарачэнн	-11.7595
▁адгалінаванн	-11.7595
▁аздабленн	-11.7595
▁мяшчан	-11.7595
▁нарвежска	-11.7595
▁нравятся	-11.7595
▁паштовы	-11.7595
▁презентаци	-11.7595
▁індыйскі	-11.7595
▁рэзкі	-11.7595
▁Вывуча	-11.7595
▁Истори	-11.7595
▁начнём	-11.7595
▁міліцы	-11.7595
▁ритм	-11.7595
▁чарг	-11.7596
▁заключен	-11.7597
▁отсюда	-11.7598
верхня	-11.7599
▁трэц	-11.76
▁псеўданім	-11.76
▁Брэсцкі	-11.7601
полне	-11.7601
▁выплат	-11.7601
▁сёмы	-11.7602
▁парне	-11.7604
будавалі	-11.7605
▁Тул	-11.7608
▁остановил	-11.7609
▁относи	-11.7611
▁прыродазнаў	-11.7615
▁літоўца	-11.7616
▁вятр	-11.762
▁тэкстыльна	-11.7623
▁восп	-11.7626
▁падтрымлівалі	-11.7627
хваль	-11.7628
▁заявіл	-11.763
▁продемонстрир	-11.7632
▁Львов	-11.7633
▁благ	-11.7634
▁Сож	-11.7635
ўленне	-11.7642
▁міф	-11.7644
▁виртуальн	-11.7645
влекательн	-11.7646
▁принимает	-11.7647
▁государственны	-11.7648
верят	-11.765
▁наступленне	-11.7651
▁малако	-11.7653
▁сутыкнення	-11.7657
дзь	-11.7658
▁слоўніка	-11.766
▁Януш	-11.766
▁насекомых	-11.7661
▁дасягал	-11.7666
▁Какой	-11.7669
двери	-11.7669
конференци	-11.7669
▁восстановлен	-11.767
▁астероид	-11.7671
▁жидкост	-11.7671
▁канкрэтны	-11.7671
▁подразумева	-11.7671
▁сфармулява	-11.7671
▁уздзеянне	-11.7671
▁страчаны	-11.7671
▁угрожа	-11.7671
▁батанік	-11.7671
▁метры	-11.7671
▁Среди	-11.7671
▁развиты	-11.7671
▁некотором	-11.7677
▁всяки	-11.7678
▁фінальн	-11.7679
▁нужд	-11.7685
▁біскупам	-11.7685
▁Вось	-11.7687
▁Ост	-11.7688
▁депресси	-11.7689
▁считали	-11.7691
точку	-11.7695
▁Паўстанн	-11.7696
▁Праца	-11.7696
▁Каран	-11.7697
▁круто	-11.77
лететь	-11.77
▁уласн	-11.7703
▁дэльт	-11.771
▁крышталічн	-11.7711
▁клетку	-11.7712
▁праход	-11.7715
▁колен	-11.7715
▁паваг	-11.7719
▁Цэзара	-11.772
▁спецыфічны	-11.7721
▁зданий	-11.7721
▁насіў	-11.7721
грок	-11.7722
▁добр	-11.7723
юсты	-11.7725
▁гульц	-11.7726
▁2500	-11.7735
[...]
