<unk>	0
<s>	0
</s>	0
<pad>	0
▁,	-2.93157
▁.	-3.14643
▁	-3.55899
і	-3.8145
я	-3.99232
й	-4.15056
е	-4.17806
ы	-4.19564
а	-4.28616
х	-4.39696
▁і	-4.41307
у	-4.53517
▁ў	-4.60547
▁на	-4.62069
м	-4.75607
▁з	-4.77387
(	-4.8275
▁у	-4.82991
▁—	-4.84955
▁)	-4.8514
;	-5.01669
▁&	-5.07292
▁в	-5.11287
ў	-5.11387
и	-5.17093
га	-5.22574
▁и	-5.28092
«	-5.32212
▁»	-5.32656
▁не	-5.35253
▁У	-5.39509
ць	-5.50734
ot	-5.53595
qu	-5.53906
цца	-5.58086
▁что	-5.64644
ю	-5.65065
▁да	-5.69311
ь	-5.69865
аў	-5.78477
ся	-5.83445
▁:	-5.85198
-	-5.87568
▁с	-5.88209
▁па	-5.92135
зе	-5.93546
▁за	-6.06535
os	-6.0748
ap	-6.07722
▁год	-6.13519
▁это	-6.15922
▁ад	-6.18531
▁для	-6.21803
▁а	-6.23868
▁я	-6.24469
▁мы	-6.28113
▁так	-6.29865
▁года	-6.38268
ую	-6.38842
▁по	-6.4089
о	-6.44468
▁што	-6.44782
мі	-6.49106
▁быў	-6.54116
▁как	-6.55327
▁19	-6.57559
т	-6.58432
▁был	-6.58663
▁И	-6.59905
ов	-6.60576
▁г	-6.61636
го	-6.62145
▁Я	-6.6229
▁яго	-6.63336
▁На	-6.65025
▁вы	-6.6505
ам	-6.67286
▁як	-6.67292
▁З	-6.69025
к	-6.72344
▁?	-6.7384
▁из	-6.7647
▁А	-6.77208
▁было	-6.77778
▁С	-6.78178
▁то	-6.81001
▁В	-6.84101
▁к	-6.86636
▁была	-6.88107
ом	-6.89191
▁о	-6.8951
ла	-6.89587
▁18	-6.90047
сама	-6.9148
▁час	-6.93513
▁якія	-6.96718
оў	-6.97124
▁гэта	-6.97439
▁Это	-6.9753
▁які	-6.98121
ак	-6.98539
то	-7.01691
▁аб	-7.03623
ўся	-7.04126
ем	-7.0422
цы	-7.05568
ён	-7.0564
с	-7.06373
▁бы	-7.0768
▁пад	-7.08592
лі	-7.10152
на	-7.10669
▁от	-7.12766
ой	-7.16286
лася	-7.17603
▁они	-7.18269
ага	-7.19759
▁км	-7.20399
ть	-7.21251
▁;	-7.21671
ка	-7.22915
▁2	-7.23193
ны	-7.23679
▁-	-7.25224
▁пры	-7.25845
ва	-7.27449
▁но	-7.29824
ли	-7.30684
в	-7.3129
▁Но	-7.31375
▁Мы	-7.32754
ми	-7.34201
▁горад	-7.34623
▁чтобы	-7.37006
ах	-7.37078
▁%	-7.37447
з	-7.37895
це	-7.38274
▁17	-7.38596
▁але	-7.39152
▁больш	-7.40012
амі	-7.41846
н	-7.42779
́	-7.43202
▁раз	-7.43902
▁15	-7.44624
▁пасля	-7.4545
▁1	-7.45629
▁пра	-7.45702
▁якая	-7.45739
юць	-7.46212
▁3	-7.4674
▁каля	-7.47685
▁когда	-7.49132
▁іх	-7.49665
▁Беларус	-7.51303
▁он	-7.51807
ле	-7.53076
ет	-7.53136
▁или	-7.53264
▁же	-7.54875
ай	-7.55296
▁нас	-7.56506
ліся	-7.57608
▁яўляе	-7.57719
▁раён	-7.58348
▁тольк	-7.5904
▁вобласц	-7.5905
▁эти	-7.59233
л	-7.59354
▁П	-7.59893
▁вайн	-7.60222
▁их	-7.60593
▁іншы	-7.60882
▁если	-7.61188
▁есть	-7.6127
▁Так	-7.61666
▁все	-7.6167
▁при	-7.62275
ных	-7.62352
▁16	-7.6393
д	-7.64179
▁яе	-7.64666
▁очень	-7.6531
ая	-7.65394
▁которые	-7.65467
▁до	-7.66551
чы	-7.66686
▁або	-7.67631
за	-7.67751
▁гадоў	-7.68396
▁меня	-7.6866
но	-7.69658
▁Да	-7.6975
▁его	-7.69901
▁ст	-7.70446
ей	-7.71311
кі	-7.71753
▁краін	-7.72112
▁м	-7.73167
▁может	-7.73349
▁Б	-7.73576
да	-7.73686
▁дзе	-7.74264
▁10	-7.7623
▁Пасля	-7.77006
▁знаходзі	-7.77841
▁тэрыторы	-7.78066
ами	-7.78785
▁Па	-7.78912
▁лет	-7.78915
▁том	-7.78988
1	-7.7987
▁гэты	-7.80093
ную	-7.81879
▁мне	-7.81883
’	-7.81899
та	-7.8312
▁ім	-7.8365
▁склад	-7.83929
▁4	-7.85496
р	-7.86655
▁са	-7.87439
▁20	-7.8786
▁Смех	-7.88181
▁над	-7.89644
▁всё	-7.89732
▁К	-7.89777
між	-7.90652
▁цэнтр	-7.91459
▁5	-7.91539
▁только	-7.91999
▁калі	-7.92662
▁об	-7.92682
ку	-7.9366
▁–	-7.93887
ССР	-7.94596
▁М	-7.94882
▁тым	-7.95248
▁горада	-7.97255
п	-7.9812
юцца	-7.98384
▁ці	-7.98635
▁про	-7.98738
ра	-7.99572
ж	-7.99832
▁под	-8.00282
▁14	-8.00701
▁беларуска	-8.01193
ль	-8.01729
▁насельніцтва	-8.01805
▁адзін	-8.01909
▁раёна	-8.02687
▁чалавек	-8.03433
▁со	-8.03635
▁людей	-8.04037
му	-8.04224
▁потому	-8.04351
▁того	-8.04389
▁чем	-8.04789
ст	-8.05444
▁быть	-8.05725
▁просто	-8.06026
▁складае	-8.06784
час	-8.06903
таго	-8.07034
ная	-8.0753
▁стаў	-8.07628
▁12	-8.07743
▁больше	-8.08051
▁вам	-8.093
▁некалькі	-8.09517
▁частка	-8.10008
▁она	-8.10692
▁I	-8.10863
▁пачатк	-8.1091
▁стагоддзя	-8.11742
сць	-8.12154
▁этого	-8.12988
ло	-8.12995
ки	-8.13857
ют	-8.14011
▁свет	-8.14323
▁колькасц	-8.14336
▁Вы	-8.14916
▁месца	-8.15115
▁стала	-8.15311
▁вынік	-8.15444
▁Они	-8.15625
сці	-8.16106
▁розны	-8.16172
▁нам	-8.16237
▁во	-8.16499
ш	-8.17071
▁праз	-8.17522
ч	-8.17791
▁мае	-8.18075
ться	-8.18465
▁ты	-8.18914
▁13	-8.19045
▁6	-8.19743
▁который	-8.20011
▁два	-8.20142
▁без	-8.20182
▁вас	-8.20656
▁якіх	-8.21617
ен	-8.21675
▁этом	-8.21776
▁За	-8.22155
▁где	-8.22453
▁Он	-8.22665
▁/	-8.23221
не	-8.23297
▁першы	-8.23359
▁ва	-8.23405
▁Не	-8.23623
▁можно	-8.24066
▁Расі	-8.24274
▁інш	-8.24318
▁вот	-8.24444
ні	-8.2465
▁рак	-8.24926
▁время	-8.24939
ля	-8.2541
▁ли	-8.25524
▁люди	-8.27008
▁новы	-8.27155
ной	-8.2717
▁якой	-8.27587
▁более	-8.28279
гады	-8.28341
лись	-8.293
ные	-8.29347
▁сваё	-8.29857
▁8	-8.2989
▁Гэта	-8.30159
▁ещё	-8.30164
▁которо	-8.30499
▁Р	-8.3118
▁гэтым	-8.31366
▁Если	-8.3164
▁там	-8.32035
▁част	-8.32275
▁будет	-8.32294
▁частк	-8.32384
▁По	-8.32531
▁перыяд	-8.32717
▁11	-8.32999
мовы	-8.33464
жо	-8.33735
▁некаторы	-8.33878
▁тыс	-8.33942
ется	-8.34107
ты	-8.34111
▁Адна	-8.34126
ок	-8.34207
▁ж	-8.34239
▁этот	-8.34686
▁культур	-8.34885
▁них	-8.34899
шы	-8.35105
ША	-8.35178
.	-8.35237
те	-8.35328
▁9	-8.35373
II	-8.36192
▁её	-8.36852
сь	-8.37029
ца	-8.37071
▁Мінска	-8.37136
▁б	-8.37356
▁гісторы	-8.37523
▁7	-8.38686
▁беларускі	-8.38695
▁жа	-8.391
яшчэ	-8.3913
▁тысяч	-8.39178
▁перша	-8.39257
▁каб	-8.39388
▁Вот	-8.40672
▁атрымаў	-8.40748
▁Вяліка	-8.41374
▁І	-8.42362
▁Ф	-8.42364
▁♫	-8.42482
яны	-8.43216
▁Аплодисменты	-8.43507
▁много	-8.43518
▁!	-8.43534
ным	-8.43535
ства	-8.43678
▁назва	-8.43726
ц	-8.43847
▁складзе	-8.44082
скай	-8.44133
э	-8.44158
▁гг	-8.44285
ры	-8.44353
▁Д	-8.44887
ко	-8.4506
▁30	-8.45267
ча	-8.45404
▁студзен	-8.45839
ру	-8.4595
▁...	-8.46033
▁нужно	-8.47548
▁уже	-8.47553
▁даже	-8.47578
скі	-8.47748
▁вяліка	-8.47997
▁Как	-8.48026
най	-8.48034
▁супраць	-8.48278
▁Пад	-8.48355
▁сделать	-8.4843
▁можа	-8.48511
▁бо	-8.4872
▁могу	-8.48874
▁форм	-8.49398
▁т	-8.49991
▁Еўроп	-8.50225
▁кто	-8.50306
скага	-8.50366
▁яна	-8.50588
▁якога	-8.50732
▁права	-8.50987
г	-8.50997
ти	-8.51325
▁адбы	-8.51424
▁снежн	-8.51455
▁Беларуска	-8.51691
▁XI	-8.51755
▁ўсход	-8.51758
▁дзяржав	-8.51759
▁Ён	-8.51897
ф	-8.51901
ются	-8.52269
▁жизни	-8.5231
▁Пры	-8.52586
▁н	-8.52645
▁ліпен	-8.52868
▁тем	-8.53014
сіх	-8.53053
▁Для	-8.53411
▁размешчаны	-8.53561
▁дзейнасц	-8.53564
▁вель	-8.53598
▁жыхар	-8.53634
▁працяг	-8.5365
▁гада	-8.53657
▁можем	-8.53681
▁вядомы	-8.53804
ючы	-8.5391
▁здесь	-8.54098
▁само	-8.54502
▁сакавік	-8.54524
▁тут	-8.54984
ный	-8.55015
▁нет	-8.55925
▁ё	-8.56327
▁всего	-8.56423
ста	-8.56458
же	-8.5704
▁царкв	-8.57193
▁рух	-8.5731
▁себя	-8.57472
▁ўсё	-8.57592
▁вялікі	-8.57802
▁імперы	-8.57845
▁від	-8.58072
▁мора	-8.58337
▁поўнач	-8.5848
▁один	-8.5885
▁Рэспублік	-8.59045
▁маю	-8.59631
▁кастрычнік	-8.59836
▁сейчас	-8.59845
▁этой	-8.60031
жа	-8.60102
▁аднак	-8.60156
▁двух	-8.60315
сти	-8.60419
▁якім	-8.60454
▁также	-8.62229
▁якое	-8.62548
▁павод	-8.62603
чынам	-8.62626
▁сям	-8.62778
▁жыцця	-8.62804
▁мова	-8.62842
▁свай	-8.62886
ліку	-8.6293
маль	-8.63328
▁п	-8.63482
ого	-8.63575
▁сказал	-8.63861
▁назад	-8.63907
▁захад	-8.63916
▁лістапад	-8.63973
▁Беларусь	-8.64044
б	-8.6414
ного	-8.64189
▁сувяз	-8.64427
разам	-8.64622
тым	-8.65178
▁свое	-8.65283
▁которая	-8.66137
са	-8.66507
▁самом	-8.67168
прыклад	-8.67283
▁адным	-8.67451
▁Але	-8.67678
▁якасц	-8.67693
ить	-8.67729
▁возера	-8.67857
▁чэрвен	-8.68477
▁сам	-8.6887
▁сярод	-8.68943
▁твор	-8.69007
▁могут	-8.69139
лось	-8.6953
▁пере	-8.69672
▁чым	-8.69827
▁вопрос	-8.6988
▁Пав	-8.69887
°	-8.69932
ит	-8.70039
▁Что	-8.70313
▁Когда	-8.70397
▁вёска	-8.70406
▁канцы	-8.7041
▁свой	-8.7055
сваю	-8.7058
▁мая	-8.70594
▁вёск	-8.706
▁працы	-8.7065
▁должны	-8.71425
одле	-8.71643
можна	-8.71768
▁лічы	-8.71938
▁назв	-8.72146
крамя	-8.72341
▁пасад	-8.72542
▁войска	-8.7285
ша	-8.73207
▁25	-8.73211
ни	-8.73375
▁яўляю	-8.73424
▁Польшч	-8.74251
▁мир	-8.74383
▁другой	-8.74654
▁всех	-8.75235
▁член	-8.75303
▁деле	-8.75842
▁пачаў	-8.76156
▁100	-8.76464
▁&#9	-8.76646
▁таму	-8.76876
▁груп	-8.76983
чи	-8.77045
▁шэраг	-8.77066
▁сваі	-8.77101
▁II	-8.7719
▁&#93;	-8.77556
▁яму	-8.77642
▁C	-8.77759
▁парты	-8.77845
ре	-8.77892
▁думаю	-8.77986
ну	-8.78682
▁свои	-8.79028
▁найбольш	-8.79401
▁XVI	-8.79585
▁хочу	-8.79603
▁рака	-8.79815
▁сябе	-8.79873
▁000	-8.80072
ці	-8.80296
▁пазней	-8.80352
▁чалавека	-8.8046
▁Г	-8.80995
▁кар	-8.81063
s	-8.81371
▁эту	-8.81535
ин	-8.81575
▁сама	-8.81701
вер	-8.81928
▁О	-8.82479
▁верасн	-8.8308
▁жніўн	-8.83369
▁слова	-8.83487
▁кніг	-8.83651
▁сабо	-8.83854
▁навук	-8.8413
▁Т	-8.84414
▁ц	-8.84566
▁сваім	-8.84818
▁мое	-8.85384
▁Л	-8.85697
▁Она	-8.85712
ё	-8.8572
▁значна	-8.85783
▁этим	-8.85873
X	-8.86109
▁тып	-8.86138
мове	-8.8624
▁смерці	-8.86292
▁ліні	-8.86732
▁Германі	-8.86861
▁Итак	-8.87105
ал	-8.87288
▁через	-8.87562
▁млн	-8.87605
▁50	-8.87722
ар	-8.87727
▁зямл	-8.87769
▁сын	-8.87898
▁вядома	-8.88278
▁шмат	-8.88284
▁сіл	-8.88405
▁Францы	-8.88438
▁красавік	-8.88524
▁ВКЛ	-8.89175
▁род	-8.89282
лась	-8.89442
▁месц	-8.89602
от	-8.89665
▁сельсавета	-8.90099
▁человек	-8.90425
▁звычайна	-8.90641
▁часта	-8.90644
нага	-8.90723
▁нацыянальна	-8.90887
▁многі	-8.9121
▁которы	-8.91313
▁себе	-8.91383
▁аснов	-8.91485
першын	-8.91538
ри	-8.91857
▁Маскв	-8.91951
2	-8.92014
▁развіцц	-8.92177
▁працэс	-8.92184
▁Е	-8.92203
или	-8.92221
▁тры	-8.92308
▁літаратур	-8.92365
▁самых	-8.92537
▁войск	-8.9264
▁мастацтва	-8.9299
▁Э	-8.93021
▁чал	-8.93161
▁сусветна	-8.93175
▁жизнь	-8.93463
▁адной	-8.93518
▁менш	-8.93524
▁Расійска	-8.93812
▁выгляд	-8.93897
▁цяпер	-8.9404
▁плошч	-8.94202
ил	-8.94203
▁несколько	-8.94257
▁пера	-8.94547
▁нават	-8.94594
▁сталі	-8.94677
▁такі	-8.94787
ёй	-8.94981
▁Заходня	-8.9561
▁делать	-8.95696
▁ни	-8.95724
e	-8.96131
лся	-8.96434
пример	-8.96553
▁году	-8.966
▁лучше	-8.97187
▁часам	-8.97297
▁дзяржаўны	-8.97316
▁после	-8.97391
▁Яго	-8.97428
▁поўдн	-8.97753
▁асабліва	-8.97891
▁сучасна	-8.97971
▁день	-8.98197
ём	-8.98203
▁эта	-8.98306
▁мире	-8.98476
▁закон	-8.98507
ди	-8.98806
▁Спасибо	-8.98871
па	-8.99129
▁адна	-8.99316
▁пераважна	-8.99374
▁Гэты	-8.99391
вы	-8.99667
об	-8.99855
▁Паўночна	-9.00555
▁самы	-9.00576
▁Калі	-9.00857
▁заста	-9.01099
▁пол	-9.01104
▁дзеяч	-9.0111
ня	-9.01157
ное	-9.01184
▁действительно	-9.0122
▁паўночна	-9.01253
▁дзяржаўна	-9.01607
▁вытворчасц	-9.01704
▁сістэм	-9.01726
тор	-9.01963
▁возможно	-9.02064
▁им	-9.02073
▁такой	-9.02379
▁времени	-9.02715
▁лют	-9.02799
ход	-9.02951
▁2008	-9.03328
сть	-9.03577
▁сістэмы	-9.03802
▁Ма	-9.03837
ту	-9.04239
▁мяж	-9.04267
▁стагоддз	-9.0439
он	-9.04391
▁арганізацы	-9.04653
o	-9.04811
▁дэ	-9.04877
▁барацьб	-9.04944
▁дзень	-9.05358
▁Рэчы	-9.05367
▁колер	-9.05522
▁сістэма	-9.05658
жи	-9.05702
рэ	-9.05762
зна	-9.06079
▁шматлікі	-9.06114
▁Х	-9.06171
▁см	-9.06237
92	-9.06377
▁между	-9.06412
▁те	-9.06423
▁большасц	-9.06453
▁свае	-9.06542
ду	-9.06622
▁межа	-9.067
▁происходит	-9.06713
▁40	-9.06797
▁некоторы	-9.06814
сяго	-9.06822
ор	-9.06903
▁Плошч	-9.06968
асць	-9.07438
▁буйны	-9.07474
Р	-9.07752
ска	-9.07859
▁паўднёва	-9.08104
ды	-9.08261
ро	-9.08298
▁мог	-9.08329
працаваў	-9.08352
▁хо	-9.08392
▁сегодня	-9.08564
41	-9.08607
▁свец	-9.08831
▁Аб	-9.09048
▁2005	-9.09165
▁аднаго	-9.09346
▁нова	-9.09528
▁тех	-9.09805
▁бок	-9.09829
▁Яна	-9.1006
▁друг	-9.10197
▁образом	-9.10438
▁2007	-9.10688
▁атрымала	-9.10822
сельніцтва	-9.11491
▁дзве	-9.11517
▁момент	-9.11523
▁польска	-9.11565
a	-9.11587
▁котор	-9.11704
▁рас	-9.1176
▁канца	-9.11803
ец	-9.11894
▁2006	-9.11973
лен	-9.1204
▁самым	-9.12044
▁Ш	-9.12081
▁армі	-9.12097
▁вуліц	-9.12156
▁каждый	-9.12226
▁Ян	-9.12434
▁Віцебска	-9.12568
▁друго	-9.12656
▁асноўным	-9.12722
▁ваенны	-9.12732
▁меў	-9.12774
че	-9.12808
▁шлях	-9.12841
▁цела	-9.12943
▁апошні	-9.13263
▁Паўднёва	-9.13939
▁перед	-9.14046
по	-9.14139
▁цэнтрам	-9.14487
во	-9.14777
▁ўсе	-9.14809
пачатк	-9.14925
▁сказать	-9.15258
▁наш	-9.15446
▁сярэдзін	-9.15502
ями	-9.15505
▁першым	-9.15576
▁То	-9.15657
до	-9.15716
лу	-9.15906
алкам	-9.16193
▁яўля	-9.16219
ви	-9.16594
▁почему	-9.16619
ние	-9.16653
вал	-9.16658
i	-9.16788
▁Паспаліта	-9.16795
▁Першы	-9.16825
▁паверхн	-9.17004
▁2009	-9.17097
▁No	-9.17105
▁галін	-9.1724
▁Перша	-9.17253
▁сво	-9.17474
ния	-9.1756
▁завод	-9.1761
▁именно	-9.17892
▁стварэнн	-9.18174
▁агульна	-9.18249
21	-9.18307
▁адбыва	-9.18383
▁прамысловасц	-9.18401
▁асноўны	-9.18412
ое	-9.18422
▁палов	-9.185
цыі	-9.18633
▁является	-9.18818
▁Мінску	-9.18858
▁школы	-9.18929
▁жывёл	-9.18964
▁пример	-9.19031
▁работы	-9.19126
▁24	-9.19138
▁одна	-9.19431
▁людзей	-9.19517
ном	-9.19549
▁других	-9.19655
▁Ц	-9.19801
▁рэк	-9.19837
▁прыток	-9.19876
▁наша	-9.19909
▁руска	-9.19942
▁мой	-9.19971
ще	-9.19973
▁теперь	-9.20054
▁могли	-9.20129
▁краіна	-9.20221
▁пункт	-9.20364
▁детей	-9.20522
▁Во	-9.20545
▁человека	-9.20625
▁мои	-9.20746
▁Як	-9.20781
▁створаны	-9.20892
▁21	-9.20895
лося	-9.20898
ши	-9.20993
▁Горад	-9.20994
▁всегда	-9.21012
▁перад	-9.21054
▁палітычны	-9.21134
▁трох	-9.21243
▁Уваходзі	-9.21522
▁адміністрацыйны	-9.21525
▁Нью	-9.21574
▁наступны	-9.21645
▁ер	-9.2167
▁Там	-9.21717
▁Поэтому	-9.21936
▁зноў	-9.21976
▁наши	-9.22047
63	-9.2205
▁1918	-9.22138
ння	-9.22534
вых	-9.22574
▁мэта	-9.22673
▁никогда	-9.22712
▁кампані	-9.22842
▁вместе	-9.22893
▁народа	-9.22907
67	-9.22948
▁шырын	-9.22951
▁суд	-9.22969
▁зон	-9.23136
ба	-9.23184
▁нашей	-9.23416
ёт	-9.23795
▁выкарыстоўва	-9.23896
▁22	-9.24111
▁дом	-9.24122
▁гонар	-9.24279
▁дадзены	-9.24506
▁улад	-9.24529
▁Украін	-9.24709
▁працу	-9.2477
▁тое	-9.24773
▁часть	-9.24854
▁2010	-9.25092
▁пока	-9.25306
мен	-9.25362
▁кіраўніцтва	-9.25385
▁тэрмін	-9.25412
▁пачалі	-9.25418
▁28	-9.25599
▁павета	-9.2565
мер	-9.25786
▁Мне	-9.2579
▁займае	-9.26124
▁будут	-9.2618
▁шырока	-9.2626
▁Зямл	-9.26311
▁гульн	-9.2632
▁способ	-9.26392
▁добра	-9.26466
дзень	-9.26506
либо	-9.26593
▁знаходзя	-9.26691
▁матэрыял	-9.26782
чу	-9.2691
▁три	-9.26956
▁лік	-9.27154
▁использовать	-9.27427
юсь	-9.27497
▁ваенна	-9.27637
▁2000	-9.27896
▁жыццё	-9.279
вод	-9.2795
▁Мо	-9.28034
ными	-9.28261
▁план	-9.28305
▁артыкул	-9.28468
16	-9.28489
▁тогда	-9.28632
▁структур	-9.28678
ве	-9.28755
▁момант	-9.2888
▁23	-9.28906
▁афіцыйна	-9.29002
ыня	-9.29006
дзячы	-9.29139
ком	-9.29149
▁ко	-9.29206
▁будаўніцтва	-9.29374
ировать	-9.2942
▁губерні	-9.29565
би	-9.29629
26	-9.29701
▁станцы	-9.29729
ер	-9.29751
▁сярэдня	-9.3004
▁Вялікі	-9.30043
▁Н	-9.30104
▁27	-9.3029
стра	-9.30428
12	-9.30511
▁раслін	-9.3052
▁такое	-9.30546
▁палітычна	-9.3055
▁такие	-9.30669
▁якую	-9.31013
▁ўлад	-9.31053
ман	-9.31058
▁выкарыстоўвае	-9.31068
▁Літв	-9.31148
▁2004	-9.31224
тер	-9.31682
▁хотел	-9.31732
▁метра	-9.31881
енавіта	-9.32048
▁вещи	-9.32183
ение	-9.32373
▁Мінск	-9.32742
▁княства	-9.32915
▁потом	-9.32976
▁ля	-9.33229
лю	-9.33284
▁нацыянальны	-9.33296
▁важно	-9.33386
пи	-9.33388
▁него	-9.33419
▁рост	-9.33524
▁лишь	-9.33636
▁Одна	-9.34048
▁тэоры	-9.34068
бл	-9.34109
▁Праз	-9.34127
42	-9.3419
▁Пра	-9.34288
▁ўз	-9.34296
▁створана	-9.34306
▁караля	-9.34417
ролю	-9.34445
▁абарон	-9.3451
▁26	-9.34536
▁прадстаўнік	-9.34596
ят	-9.34657
59	-9.34679
▁моцна	-9.34737
▁палітык	-9.34739
ения	-9.34809
де	-9.35031
▁важны	-9.35258
58	-9.35408
▁тот	-9.3541
▁знаю	-9.35545
▁выпадк	-9.35584
▁рускі	-9.35616
▁пабудаваны	-9.35703
▁1944	-9.35716
74	-9.3586
ете	-9.35948
▁хутка	-9.36034
▁дома	-9.36131
▁200	-9.36183
▁Дж	-9.36225
▁плошча	-9.36301
▁раней	-9.36363
22	-9.36455
▁асобны	-9.36549
еще	-9.36666
мову	-9.36964
▁ма	-9.36973
▁сталіца	-9.37035
▁народна	-9.37046
▁дзяржава	-9.37077
▁2-	-9.37089
14	-9.37114
▁змен	-9.3722
▁народ	-9.37221
эр	-9.37272
си	-9.37324
▁ре	-9.3756
▁незалежнасц	-9.37579
▁Італі	-9.37612
▁вышын	-9.37794
▁наших	-9.378
▁галоўным	-9.37837
▁чаго	-9.37872
▁войн	-9.3797
69	-9.37991
▁рэгіён	-9.38082
▁Все	-9.38279
атым	-9.38477
▁такім	-9.38484
▁немного	-9.38499
▁Мікала	-9.38559
▁ничего	-9.38562
▁нямецка	-9.38902
▁аўтар	-9.39085
▁буду	-9.39124
вед	-9.39157
▁эпох	-9.39194
▁кан	-9.39319
▁ўдзел	-9.3938
▁затем	-9.39486
▁XX	-9.39491
▁таварыства	-9.39554
▁последни	-9.39574
▁говорит	-9.39709
▁паўднёвы	-9.39718
t	-9.39727
▁США	-9.39799
▁ўрад	-9.39853
видите	-9.39918
▁истории	-9.40049
забав	-9.40073
▁характар	-9.40115
▁іншым	-9.40242
▁р	-9.4027
▁прыватна	-9.40368
▁інша	-9.40708
▁бера	-9.40812
▁брат	-9.40909
▁высока	-9.41092
▁Теперь	-9.41117
▁князя	-9.41123
48	-9.4119
▁хорошо	-9.4121
▁дзяце	-9.41261
▁Даўж	-9.41262
▁мела	-9.41473
37	-9.41508
▁1919	-9.41538
▁стал	-9.41539
▁дапамога	-9.41582
▁прэзідэнта	-9.41726
▁миллион	-9.41729
▁месяц	-9.41791
бо	-9.41799
▁1939	-9.41826
▁мелі	-9.41905
▁мира	-9.41962
▁работа	-9.41986
▁паўночны	-9.42197
▁ём	-9.42257
▁таким	-9.42281
34	-9.42303
▁понять	-9.42375
▁конечно	-9.424
раз	-9.42507
▁мозг	-9.42541
пу	-9.42591
▁акруг	-9.42677
вать	-9.42694
▁Найбольш	-9.42741
ель	-9.42743
ков	-9.4284
▁любо	-9.42847
▁таких	-9.42953
▁гор	-9.4315
▁Азі	-9.43244
ан	-9.43255
▁перш	-9.43305
▁Літоўска	-9.43371
▁проблема	-9.43406
ство	-9.43424
▁начал	-9.43473
▁мясцовы	-9.43579
_	-9.4374
▁около	-9.4374
▁будзе	-9.43899
▁60	-9.4399
▁кіраванн	-9.44008
IV	-9.44059
▁басейн	-9.44103
▁Парыж	-9.44237
▁Ад	-9.4428
плыў	-9.4434
▁нарадзі	-9.44359
бы	-9.44579
▁друга	-9.44597
▁праца	-9.4472
ахадзе	-9.448
▁нар	-9.45006
▁знаем	-9.45091
ности	-9.45314
▁знаете	-9.45372
▁вёс	-9.45404
▁спадчын	-9.4548
▁развіццё	-9.4567
▁езд	-9.4568
▁творчасц	-9.4573
▁галоўна	-9.45806
▁прычын	-9.45825
▁тэрыторыя	-9.45831
▁штат	-9.45855
▁1917	-9.46107
▁адносін	-9.46121
▁размешчана	-9.46206
▁удзел	-9.46308
▁бацьк	-9.46395
06	-9.46533
81	-9.46612
▁нямецкі	-9.46833
▁оно	-9.46835
ярод	-9.46907
▁ні	-9.47012
А	-9.47016
23	-9.47061
чна	-9.47167
▁одной	-9.47169
▁Друго	-9.47202
емся	-9.47262
▁1-	-9.47278
▁ответ	-9.47302
▁прыкладна	-9.47318
▁Ка	-9.47394
▁результат	-9.47465
▁усе	-9.47476
▁другие	-9.47514
нне	-9.47514
▁разны	-9.47515
▁Беларускі	-9.47837
▁1920	-9.47847
▁азёр	-9.47885
▁гарадо	-9.4796
ос	-9.4803
▁польскі	-9.48048
гл	-9.48196
▁проект	-9.48202
цкі	-9.48231
▁место	-9.48273
К	-9.48283
▁поэтому	-9.48426
46	-9.48511
▁верш	-9.48521
гле	-9.48525
▁галоўны	-9.48531
ность	-9.48604
▁узроўн	-9.48896
▁ідэ	-9.48979
32	-9.49013
▁дзён	-9.49027
▁XVII	-9.49081
нт	-9.49137
▁бітв	-9.49186
▁ляс	-9.49252
▁чего	-9.49298
▁сучасны	-9.49361
▁беларус	-9.49404
▁маці	-9.49454
ус	-9.49461
амак	-9.49463
▁пред	-9.49476
▁вад	-9.49509
▁правы	-9.49613
▁альбо	-9.49694
▁долларов	-9.49698
▁цэнтральна	-9.49797
куль	-9.49818
▁войскам	-9.49989
▁ступен	-9.50042
▁называю	-9.50127
▁работу	-9.50149
▁правінцы	-9.50345
ите	-9.50414
▁віда	-9.50483
из	-9.50531
▁пор	-9.50634
▁ф	-9.50683
▁помощью	-9.5081
▁снова	-9.50873
тоже	-9.50904
▁падзе	-9.50936
▁прызначаны	-9.50939
▁помнік	-9.50999
▁звязаны	-9.51065
+	-9.51091
лы	-9.51131
▁даўжын	-9.51261
▁возможность	-9.515
▁справа	-9.51559
▁пачат	-9.51587
▁идея	-9.51592
▁кожна	-9.51655
▁паход	-9.51725
▁навуковы	-9.51777
▁група	-9.51825
▁ему	-9.51856
▁найти	-9.5192
гі	-9.52045
дзі	-9.52336
▁одно	-9.52344
▁значэнне	-9.52512
▁статус	-9.52625
▁создать	-9.52637
05	-9.52647
ически	-9.52655
▁кожны	-9.52667
▁старажытны	-9.52678
▁процесс	-9.52748
▁французска	-9.52836
▁савецкі	-9.5287
▁земл	-9.52896
▁усход	-9.52931
гра	-9.52932
▁ўніверсітэта	-9.5302
▁магчыма	-9.53077
▁скончыў	-9.53156
▁Адзін	-9.53191
▁поў	-9.53408
вой	-9.53569
▁орган	-9.53645
сколько	-9.53709
скім	-9.53835
▁проблемы	-9.53912
▁Аляксандр	-9.53925
▁дня	-9.53972
ци	-9.53981
▁значны	-9.54003
▁которым	-9.54076
▁Саюза	-9.5413
▁адміністрацыйна	-9.54245
▁та	-9.54313
▁адносна	-9.54323
▁перамог	-9.54392
▁земля	-9.54448
бра	-9.54479
▁мноства	-9.54591
▁Рым	-9.54822
88	-9.54828
▁прэмі	-9.5499
▁Потому	-9.55247
17	-9.55247
▁мм	-9.55296
▁рэвалюцы	-9.5539
▁другі	-9.55627
▁пре	-9.55735
08	-9.55849
▁стать	-9.55849
рацэ	-9.55889
▁for	-9.55893
▁загад	-9.55911
▁збор	-9.55964
▁праблем	-9.55967
боку	-9.55998
▁29	-9.56131
▁шлюб	-9.56145
▁памёр	-9.56151
▁жанчын	-9.56174
13	-9.56531
▁факт	-9.56573
бач	-9.56596
▁выбар	-9.56722
▁Быў	-9.56787
чных	-9.56882
▁складаю	-9.56924
▁КП	-9.56957
▁женщин	-9.57016
▁мас	-9.57029
▁случае	-9.57045
▁Савецка	-9.57106
▁гарадско	-9.57132
▁говорил	-9.57159
бр	-9.57179
льны	-9.57197
▁крыніц	-9.57235
пе	-9.5725
▁абраны	-9.57355
▁каждо	-9.57362
▁первы	-9.57391
▁дзеяння	-9.57411
▁дзейніча	-9.57482
▁знак	-9.57564
тар	-9.57568
▁1991	-9.57574
▁Савета	-9.57639
али	-9.57651
бер	-9.57927
▁2011	-9.57949
Б	-9.58095
▁курс	-9.58203
▁мір	-9.58416
вады	-9.58432
▁Эти	-9.58484
ник	-9.585
▁дзяку	-9.58511
▁При	-9.5853
▁1990	-9.58654
▁Лі	-9.58663
▁пісьменнік	-9.58718
▁школе	-9.58745
▁школа	-9.58781
ев	-9.58907
▁школу	-9.58924
▁Вільн	-9.59064
▁2001	-9.59083
нибудь	-9.59112
▁мозга	-9.5925
ги	-9.59272
▁ды	-9.59291
▁Почему	-9.59371
ейчас	-9.59404
▁гістарычны	-9.59405
дзе	-9.59467
▁данные	-9.59473
▁гістарычна	-9.59482
▁Цэнтральна	-9.59496
▁больша	-9.59549
▁Са	-9.59667
▁князь	-9.5973
▁заснаваны	-9.59803
▁акадэмі	-9.59813
▁дело	-9.59875
▁работает	-9.59902
▁моя	-9.59988
▁паўночным	-9.60003
▁клуб	-9.60081
▁навукова	-9.60187
▁сродк	-9.60193
▁делает	-9.6021
▁астрав	-9.60487
▁будын	-9.60553
▁80	-9.60626
▁сельска	-9.60685
▁имеет	-9.60756
▁2002	-9.60786
▁500	-9.60903
▁падзел	-9.60923
нд	-9.60954
▁выступа	-9.61078
юю	-9.61118
▁апошня	-9.61191
▁достаточно	-9.61224
▁выраб	-9.61268
▁течение	-9.61369
▁2003	-9.61383
▁ста	-9.61406
36	-9.61467
род	-9.61506
▁котором	-9.61595
У	-9.61607
▁Тут	-9.61641
▁выбара	-9.61708
▁ўніверсітэт	-9.61725
▁S	-9.61746
▁грамадска	-9.61792
▁праходзі	-9.61796
▁1945	-9.61801
▁ш	-9.61963
▁актыўна	-9.61988
▁Аўтар	-9.61995
▁проста	-9.62043
mula	-9.62083
▁вярну	-9.62105
гу	-9.62115
r	-9.62141
со	-9.62273
▁востра	-9.62274
эн	-9.62281
▁замежны	-9.6237
▁форма	-9.62385
▁почти	-9.62527
▁работать	-9.62634
сі	-9.62723
▁сталіц	-9.62765
▁вод	-9.62802
▁смысл	-9.6289
кой	-9.62954
07	-9.62972
96	-9.63044
▁прямо	-9.63082
▁прынцып	-9.63287
▁Гродзенска	-9.63314
▁бак	-9.63374
▁увидеть	-9.63512
▁адрозніва	-9.63521
▁всем	-9.63534
▁Нам	-9.63582
▁должен	-9.63602
▁значит	-9.63607
▁вакол	-9.63635
▁працавал	-9.63655
▁паўднёвым	-9.637
▁поўна	-9.63719
▁паэт	-9.63808
стро	-9.63826
▁Ч	-9.63841
вай	-9.63876
▁какой	-9.64003
▁технологии	-9.64113
скую	-9.64116
ает	-9.64156
09	-9.6431
▁Пазней	-9.64325
▁выкарыстоўваю	-9.64649
▁адзінка	-9.64789
▁Асноўны	-9.64841
11	-9.64883
▁касцёл	-9.64949
▁1999	-9.64974
ски	-9.64999
пол	-9.6504
▁кра	-9.65101
▁надо	-9.6511
тады	-9.65114
▁Ня	-9.65132
▁гарадскі	-9.65173
▁эканамічна	-9.65309
▁замка	-9.6532
▁існавал	-9.65421
▁людз	-9.65437
▁комплекс	-9.65449
▁становішча	-9.65475
▁Ну	-9.6556
▁чатыр	-9.65601
▁сялян	-9.65628
ваны	-9.65715
▁музык	-9.65778
▁количество	-9.6582
кс	-9.65833
пл	-9.65866
▁Вялікабрытані	-9.65968
ров	-9.66015
ясь	-9.66085
ешь	-9.66177
▁Ко	-9.66202
ыми	-9.66244
▁вид	-9.66294
▁планеты	-9.66322
▁даследавання	-9.66361
▁канал	-9.66445
год	-9.66459
▁паселішча	-9.66548
▁правіла	-9.6664
▁Ле	-9.66658
▁Нова	-9.66765
▁размяшча	-9.6683
93	-9.66926
▁паходжанн	-9.66927
▁кіраўнік	-9.67028
▁многие	-9.67084
▁Усходня	-9.67117
лов	-9.67123
▁Больш	-9.67153
▁праводзі	-9.67277
▁мор	-9.67437
▁1940	-9.67445
▁думк	-9.67476
▁цяперашні	-9.67551
▁музей	-9.67618
▁кажет	-9.67647
▁стали	-9.67716
▁Чырвона	-9.67808
▁Такім	-9.67829
▁будынка	-9.67981
▁Некаторы	-9.68021
▁1930	-9.68039
ол	-9.68058
▁Скончыў	-9.68085
▁карт	-9.68125
▁гара	-9.68189
дер	-9.68198
▁Віленска	-9.68204
▁усё	-9.68215
▁грамадства	-9.68455
▁1943	-9.68462
l	-9.68566
▁300	-9.68629
▁видим	-9.68673
▁сезон	-9.68683
▁быстро	-9.68843
▁Нацыянальна	-9.68881
▁групп	-9.68884
▁дзяржаў	-9.69002
▁тэмпература	-9.69191
кры	-9.69208
▁Давайте	-9.69254
▁прыняў	-9.69303
▁сямейства	-9.69326
95	-9.6933
▁Адміністрацыйны	-9.69347
▁невялікі	-9.69409
▁партыя	-9.69477
▁Заснаван	-9.69569
▁прырод	-9.69656
▁ўзроўн	-9.69742
▁ЦК	-9.69742
▁палац	-9.69775
сабе	-9.69799
▁жыў	-9.69848
Г	-9.69945
▁імператара	-9.69999
кор	-9.7001
▁ме	-9.70027
▁показать	-9.70036
▁людям	-9.70113
▁савецка	-9.70176
▁песн	-9.70192
▁карол	-9.70265
▁прэм	-9.70411
пад	-9.70493
▁чаргу	-9.70501
▁народны	-9.70565
▁будынк	-9.70641
▁перво	-9.70679
тся	-9.70766
▁меньше	-9.70933
04	-9.71047
лет	-9.71103
▁праграм	-9.71176
▁мясцова	-9.71189
▁камун	-9.71203
▁часы	-9.71246
▁архітэктур	-9.71263
ас	-9.71269
▁ее	-9.71339
▁практычна	-9.71473
▁оста	-9.71514
▁весь	-9.71524
▁выйшл	-9.7153
▁i	-9.71542
▁рэгіёна	-9.71552
▁адкрыты	-9.71558
ваў	-9.7164
▁пачынае	-9.71858
▁заснавана	-9.71956
▁сад	-9.71967
▁э	-9.71995
ова	-9.72007
▁две	-9.72047
▁Нарадзі	-9.72054
▁система	-9.72179
чны	-9.72189
▁лес	-9.72189
▁белы	-9.72253
▁Тольк	-9.72256
▁справ	-9.72332
▁адносі	-9.7255
▁Был	-9.72553
▁тытул	-9.72626
“	-9.72643
▁этап	-9.72687
▁VI	-9.72733
сты	-9.72734
▁штата	-9.72779
▁A	-9.72801
▁карыста	-9.72813
▁V	-9.72922
▁хто	-9.72981
▁філасофі	-9.73042
▁значы	-9.73047
▁прынята	-9.73054
▁рэспублік	-9.73118
▁чыгуначна	-9.73138
шего	-9.73146
▁сцяг	-9.73156
ать	-9.73166
гр	-9.73169
▁няма	-9.73329
▁існуе	-9.73336
▁ўсім	-9.7336
▁150	-9.73412
▁вуліца	-9.73482
▁кон	-9.735
▁застава	-9.73582
00	-9.73586
▁Кар	-9.73602
▁прэзідэнт	-9.73637
18	-9.7365
▁Про	-9.73713
доўж	-9.73791
▁изменить	-9.74062
▁звязана	-9.74071
▁начали	-9.74316
▁крыніца	-9.74372
▁часто	-9.74483
▁паходзі	-9.74484
▁1924	-9.74503
▁всему	-9.74673
▁право	-9.74676
раб	-9.74695
▁грамадскі	-9.74795
▁акіяна	-9.7481
3	-9.74824
▁Гродн	-9.74938
▁этому	-9.74941
▁месяца	-9.75001
p	-9.75004
▁Лондан	-9.75038
▁совершенно	-9.75038
▁рук	-9.75043
▁саюз	-9.75114
▁рашэнне	-9.75183
▁высокі	-9.75273
▁новага	-9.75351
▁Ты	-9.75356
▁заходня	-9.75475
▁своё	-9.75486
▁ваше	-9.75636
▁пыта	-9.75811
стан	-9.75838
▁необходимо	-9.75888
▁наше	-9.76128
▁слов	-9.76175
▁Нет	-9.76227
▁гаспадарк	-9.76269
▁цар	-9.76278
▁французскі	-9.7643
▁Інды	-9.7645
▁апыну	-9.76564
▁слишком	-9.76564
▁генерал	-9.76698
▁БН	-9.76795
▁P	-9.76824
нос	-9.76864
▁атрад	-9.76871
▁англійска	-9.76876
▁Гомельска	-9.7696
▁кірунк	-9.77055
▁вострава	-9.77066
ран	-9.77079
▁ведь	-9.77092
▁кошт	-9.77097
98	-9.7711
стаў	-9.77196
▁Ва	-9.77197
▁залежнасц	-9.77284
роде	-9.77286
ическо	-9.77367
тан	-9.77423
▁B	-9.77452
▁говорить	-9.77464
▁31	-9.77524
▁совсем	-9.77594
▁стане	-9.77685
▁паўстання	-9.77695
▁сына	-9.77717
▁станцыя	-9.7778
нь	-9.77802
▁основ	-9.7782
▁одного	-9.77822
ская	-9.7789
тельно	-9.77998
y	-9.77998
▁Амерык	-9.78001
▁членам	-9.78024
▁видео	-9.7807
▁пачала	-9.78093
▁функцы	-9.78113
▁пытання	-9.78173
▁часопіс	-9.78201
▁части	-9.78372
колькі	-9.78394
▁Сярэдня	-9.78413
▁жыцц	-9.78417
▁пачало	-9.78593
▁Маскоўска	-9.78634
▁расійскі	-9.78646
пісаў	-9.78721
▁Кіта	-9.78738
бі	-9.78809
▁собой	-9.78846
▁вялікім	-9.78902
▁спіс	-9.78938
▁мало	-9.78939
▁літоўска	-9.78941
▁займаў	-9.78961
▁герб	-9.79017
ист	-9.79126
▁примерно	-9.79147
▁Брэсцка	-9.79302
▁правінцыя	-9.79308
▁крэпасц	-9.79374
▁парк	-9.794
▁Новы	-9.7952
▁системы	-9.79587
зи	-9.79647
▁стары	-9.7969
▁вялік	-9.79708
▁Ж	-9.79762
▁твора	-9.79782
▁асоб	-9.80053
▁стан	-9.80056
▁видеть	-9.80086
ают	-9.80151
роду	-9.80159
▁спраў	-9.80221
▁гарады	-9.80231
▁Англі	-9.80246
▁гульня	-9.80266
▁княз	-9.80272
таў	-9.80328
▁воды	-9.80372
▁Магілёўска	-9.80431
ющие	-9.80451
▁магчымасць	-9.80497
▁Ю	-9.80515
▁довольно	-9.80543
▁страны	-9.80577
ис	-9.80577
даволі	-9.80641
▁варыянт	-9.80643
ща	-9.8066
▁1998	-9.80682
▁падобны	-9.80729
▁газеты	-9.80749
▁пару	-9.80852
▁атрымал	-9.80873
66	-9.80921
ведаў	-9.80934
▁де	-9.80967
▁фронт	-9.80976
▁сами	-9.8103
▁гэту	-9.81037
вали	-9.81236
раж	-9.8124
десь	-9.81341
▁тэатр	-9.81343
▁проблем	-9.81374
▁конкурс	-9.8161
вар	-9.81691
▁ўрада	-9.81713
▁многих	-9.81717
▁вокруг	-9.81747
лом	-9.81875
▁Ме	-9.81878
ностью	-9.81884
▁сделали	-9.81914
▁рэчыва	-9.81919
ала	-9.81953
▁Хо	-9.81978
▁Пачына	-9.82042
▁Аляксандра	-9.82066
место	-9.8211
▁явілі	-9.82117
▁миру	-9.82169
▁фільм	-9.82214
▁ваяводства	-9.82256
про	-9.82404
весь	-9.82422
▁Эта	-9.82647
V	-9.82792
▁міжнародны	-9.82899
▁1994	-9.82938
▁70	-9.82992
▁ліча	-9.83031
тель	-9.83073
ним	-9.83211
▁складала	-9.83257
▁зрабіў	-9.83288
▁серы	-9.8336
▁велічын	-9.8337
▁1989	-9.83377
ской	-9.83397
▁служб	-9.8341
72	-9.83434
▁ня	-9.83562
▁внимание	-9.83569
▁Ест	-9.83777
▁гімназі	-9.8379
▁своим	-9.83864
веце	-9.83945
▁причин	-9.83968
ющих	-9.83979
▁ново	-9.84068
▁1996	-9.84182
▁говорят	-9.84211
▁цен	-9.84224
▁адукацыі	-9.84342
▁раўнін	-9.84402
шча	-9.84443
▁задач	-9.84639
▁подумал	-9.84786
▁1995	-9.84838
▁Всё	-9.8495
▁меж	-9.84953
▁информации	-9.85009
▁сто	-9.8509
89	-9.85092
нг	-9.85106
▁края	-9.8511
▁1938	-9.85179
хотим	-9.85201
▁адначасов	-9.85225
▁арганізацыя	-9.85242
▁даследчык	-9.85388
▁трыма	-9.85401
дел	-9.8542
▁моў	-9.85457
йти	-9.85462
▁1993	-9.85512
▁дух	-9.85522
▁Айчынна	-9.85543
цтва	-9.85548
▁сакратар	-9.85572
▁конце	-9.85631
▁Іспані	-9.85707
▁гадзін	-9.85719
▁жонка	-9.85772
94	-9.85793
▁процент	-9.85843
▁імператар	-9.85845
▁часткова	-9.85863
ально	-9.85928
▁обычно	-9.85935
▁праект	-9.86024
ющий	-9.8611
▁ўваходзіл	-9.86262
▁тэкст	-9.86305
▁сабор	-9.86397
▁эксперимент	-9.8642
▁камп	-9.86489
▁храм	-9.8652
ёды	-9.86544
▁внутри	-9.86582
▁стоит	-9.8664
▁существует	-9.86664
▁делают	-9.86702
▁Тым	-9.86726
ёў	-9.86764
она	-9.8681
▁прав	-9.86831
▁создал	-9.8691
ян	-9.86914
▁Полацка	-9.86923
▁поле	-9.86933
▁Каля	-9.86952
▁опер	-9.86973
▁манастыр	-9.87056
▁клас	-9.87099
▁N	-9.87311
▁история	-9.87317
▁каманд	-9.87388
▁верхня	-9.87432
▁Усе	-9.87459
эт	-9.87521
▁губерня	-9.87545
▁1997	-9.87596
▁различны	-9.87611
▁Го	-9.87627
▁плямён	-9.87634
▁акт	-9.87764
▁Уладзімір	-9.87765
▁адносяц	-9.87858
▁доступ	-9.87882
▁телефон	-9.87952
▁інстытут	-9.88008
нят	-9.88097
дать	-9.88102
означает	-9.88156
▁пісьменніка	-9.88264
▁стороны	-9.88317
▁получить	-9.88328
▁прадстаўніко	-9.88399
ости	-9.8843
▁ект	-9.88455
▁запіс	-9.88463
▁минут	-9.88495
йте	-9.88564
▁шляхам	-9.88575
▁доўгі	-9.8862
10	-9.8865
▁элемент	-9.88687
▁называе	-9.88789
▁зборнік	-9.88801
лад	-9.88813
▁міжнародна	-9.88853
▁находит	-9.88918
ции	-9.88921
▁населены	-9.88926
ступіў	-9.89021
кон	-9.8908
вую	-9.8912
▁Люд	-9.89176
бе	-9.89225
столько	-9.89291
▁исследования	-9.89396
сел	-9.89418
дал	-9.89438
▁уз	-9.89479
тра	-9.89541
▁Га	-9.89568
▁мяжу	-9.89602
▁ўвайшл	-9.89637
▁компьютер	-9.89639
ирует	-9.89715
u	-9.89741
64	-9.89806
▁дынасты	-9.90069
▁фон	-9.90083
зы	-9.90124
▁До	-9.90236
▁магл	-9.90281
эй	-9.90335
▁кампанія	-9.90372
▁адзіна	-9.90382
▁банк	-9.90406
▁сход	-9.90426
▁бераг	-9.90438
▁Об	-9.90467
▁сделал	-9.90533
▁1927	-9.90601
30	-9.90689
дразу	-9.9074
▁людьми	-9.90748
▁арганізацый	-9.90837
овать	-9.90895
▁душ	-9.91037
▁данных	-9.91119
сельскагаспадарч	-9.91221
▁Княства	-9.91227
▁пакінуў	-9.91253
▁эканомік	-9.9128
▁Андрэ	-9.91343
▁энергии	-9.91389
▁явіла	-9.914
▁праваслаўна	-9.91432
▁сильно	-9.91434
▁амерыканскі	-9.91527
▁ра	-9.91536
▁мастак	-9.91574
▁карцін	-9.91629
▁стст	-9.91876
▁Пятр	-9.91971
пал	-9.9198
нии	-9.92025
▁особенно	-9.92028
20	-9.92047
▁рассказать	-9.92059
▁поспех	-9.92065
▁астравы	-9.92108
пер	-9.92194
▁90	-9.92295
▁Больша	-9.92307
▁Раз	-9.92309
▁новые	-9.92316
▁дети	-9.9232
П	-9.92332
▁адлегласц	-9.92345
▁распаўсюджаны	-9.92416
▁адкрыта	-9.92431
▁начала	-9.92433
▁выхад	-9.92506
▁Расія	-9.92519
▁бацька	-9.92591
▁историю	-9.92615
дава	-9.92684
тр	-9.92708
▁павінны	-9.92717
бор	-9.92758
▁падтрымк	-9.92954
▁места	-9.93041
▁трэці	-9.93078
▁Пол	-9.93185
ирован	-9.93192
▁гл	-9.93199
▁рэлігійны	-9.93264
вид	-9.93285
▁развіва	-9.93299
▁адно	-9.93338
▁Сан	-9.93424
▁решения	-9.93473
▁павінна	-9.93484
▁Ба	-9.93537
82	-9.93599
▁программ	-9.93605
▁напісаў	-9.93637
шчэ	-9.93654
▁сут	-9.93779
▁павет	-9.93822
▁TED	-9.93867
▁Сегодня	-9.93867
▁паступова	-9.93871
78	-9.9391
▁стран	-9.94053
се	-9.94059
▁кіраўніко	-9.9417
лежыць	-9.9418
вен	-9.94248
иться	-9.94285
ват	-9.94395
▁сем	-9.94415
▁Дзяржаўна	-9.94534
▁технологи	-9.94599
ровень	-9.9476
▁рэформ	-9.94822
▁против	-9.94828
▁мястэчка	-9.9483
▁должно	-9.94846
76	-9.94967
▁35	-9.94986
ана	-9.94995
ость	-9.95057
▁гаспадар	-9.9509
рад	-9.95144
каў	-9.95177
▁плане	-9.95298
▁выбор	-9.95304
▁стало	-9.95305
▁хотя	-9.95334
▁всю	-9.9534
▁мала	-9.95423
▁музея	-9.95424
99	-9.9543
след	-9.95472
▁прадпрыемства	-9.95488
кую	-9.95633
▁Мары	-9.95661
▁літоўскі	-9.95677
▁пабудавана	-9.95704
▁вами	-9.95736
нес	-9.95796
▁цячэнн	-9.95802
узор	-9.95855
▁города	-9.95862
▁одну	-9.95961
▁версі	-9.96019
▁Ла	-9.96038
▁глеб	-9.96065
▁M	-9.96097
▁ноч	-9.96196
▁сложно	-9.96269
дз	-9.96289
▁X	-9.96314
▁Знаходзі	-9.96335
▁лёгка	-9.96345
77	-9.96438
▁вострав	-9.96456
▁глыбін	-9.9649
▁От	-9.96521
▁расійска	-9.96536
▁тэмператур	-9.96544
▁смерц	-9.96618
ско	-9.96675
▁становит	-9.96676
▁вярнуў	-9.96692
фа	-9.9674
▁буд	-9.96788
▁чём	-9.96846
▁такая	-9.96851
ского	-9.96883
▁люты	-9.96909
▁Рымска	-9.96943
ёр	-9.96972
▁незалежна	-9.96983
▁каза	-9.9704
▁мужчын	-9.97098
▁тэатра	-9.9716
▁атрыма	-9.97183
▁Іван	-9.97289
▁точно	-9.97394
▁рода	-9.9747
▁Ар	-9.97611
▁фонд	-9.97628
▁1960	-9.97799
тро	-9.97809
ому	-9.97824
▁форму	-9.9786
▁воласц	-9.97876
▁Аўстралі	-9.97924
▁газета	-9.97962
ир	-9.97969
▁Гр	-9.97983
▁раман	-9.98043
▁компании	-9.98063
▁інфармацы	-9.98229
▁найбуйнейшы	-9.98231
▁памяц	-9.98267
▁Нацыянальны	-9.98296
▁постоянно	-9.98346
▁стварыў	-9.98381
73	-9.98423
▁неё	-9.98426
▁Акадэмі	-9.98482
▁канчаткова	-9.98482
▁пераход	-9.98553
▁гандл	-9.98595
68	-9.98597
▁Можн	-9.98601
трэба	-9.98635
▁літаратурна	-9.98647
▁ним	-9.98731
85	-9.98758
▁заўс	-9.9881
▁следующи	-9.9882
ены	-9.98853
▁Варшав	-9.98868
▁існаванн	-9.98951
АН	-9.99098
▁Афрык	-9.99121
▁кого	-9.99191
84	-9.99245
▁пабудов	-9.993
ид	-9.99303
▁азначае	-9.99309
▁грамадзян	-9.99316
нее	-9.99348
▁звук	-9.99359
▁перайшл	-9.99394
▁газ	-9.99508
▁2013	-9.99695
▁выкарыстанн	-9.99751
▁згадвае	-9.99768
тры	-9.99817
▁Дэ	-9.99837
льных	-9.99965
▁увидел	-10.0003
▁2012	-10.001
▁меры	-10.0011
▁летапіс	-10.0013
▁код	-10.0018
▁беларуск	-10.002
С	-10.0027
▁Та	-10.0029
він	-10.0031
c	-10.0034
▁помоч	-10.0042
▁1925	-10.0042
54	-10.0042
так	-10.0044
▁горны	-10.0049
▁ДНК	-10.0055
▁канфлікт	-10.0062
▁перадач	-10.0063
▁адпаведна	-10.0064
▁запас	-10.0064
▁Польска	-10.0069
▁сказала	-10.0075
▁изменения	-10.0081
▁деньги	-10.0082
▁ген	-10.0091
▁представить	-10.0097
▁большой	-10.0098
▁Со	-10.0108
▁Назва	-10.011
▁дрэва	-10.0115
er	-10.0117
рд	-10.0118
▁1929	-10.0119
▁галав	-10.0123
▁возможности	-10.0125
▁прыняты	-10.0126
▁зале	-10.0128
▁ніжэй	-10.0131
▁лідар	-10.0133
▁нумар	-10.0146
▁далін	-10.0147
▁дзеля	-10.0148
віч	-10.0159
▁стварэнне	-10.016
▁Сонца	-10.016
▁ба	-10.0161
▁уверен	-10.0167
▁благодаря	-10.0169
▁интерес	-10.0169
▁рыс	-10.0187
▁берага	-10.0189
▁размер	-10.0193
▁адрозненне	-10.0197
▁належа	-10.0201
▁супольнасц	-10.0213
▁машын	-10.0218
▁зрения	-10.0225
▁400	-10.0226
лог	-10.0234
▁пазіцы	-10.0241
бу	-10.0241
▁часопіса	-10.0254
сы	-10.0255
▁перапіс	-10.0279
▁Конечн	-10.0282
▁паветра	-10.0284
▁гісторык	-10.0288
▁дела	-10.0288
▁станові	-10.0292
▁раздзел	-10.0295
▁выкарыстанне	-10.0298
ится	-10.0298
нава	-10.0299
рат	-10.0305
▁Буд	-10.0306
▁новым	-10.0307
▁1000	-10.0312
▁Член	-10.032
▁армія	-10.0323
▁еўрапейскі	-10.0328
▁рэжым	-10.0332
▁Сярэдні	-10.0333
▁трэця	-10.0333
▁точки	-10.0335
▁зараз	-10.0337
▁цвет	-10.0339
▁ўваходзі	-10.0344
▁начинает	-10.0345
гор	-10.035
пор	-10.0355
▁характэрны	-10.0359
падае	-10.0359
цей	-10.0364
▁свабод	-10.0364
вляются	-10.0364
▁міністра	-10.0372
▁мере	-10.0376
▁вышынё	-10.0379
▁начать	-10.0387
жыць	-10.0393
сон	-10.0394
▁каралё	-10.0397
▁опыт	-10.0398
▁Сусветна	-10.04
▁названы	-10.04
▁называет	-10.0408
▁маі	-10.041
▁понял	-10.0411
▁паэта	-10.0413
▁мной	-10.0414
▁пераклад	-10.0414
▁Турцы	-10.0415
▁ту	-10.0417
▁цэнтра	-10.0422
весці	-10.0424
▁адсутнасц	-10.0427
ню	-10.043
▁асаблівасц	-10.0433
▁говорю	-10.0467
▁стылі	-10.0475
▁иметь	-10.0483
еж	-10.0485
▁будем	-10.0491
▁эканамічны	-10.0499
▁атрыманн	-10.0503
▁спроб	-10.0504
▁пара	-10.0507
▁просты	-10.0508
▁город	-10.0514
▁Карл	-10.0516
▁традыцы	-10.052
▁оказа	-10.0528
▁магутнасц	-10.0529
пра	-10.0531
▁ник	-10.0539
▁цяжка	-10.0543
▁1931	-10.0547
▁ўнутраны	-10.055
▁множество	-10.0551
▁факультэт	-10.0557
▁млрд	-10.0562
▁такого	-10.0566
▁працава	-10.058
▁выдання	-10.0582
▁граф	-10.0583
▁1962	-10.059
▁Ра	-10.0596
кан	-10.0596
▁Рас	-10.0597
▁горазд	-10.0604
учи	-10.0605
80	-10.0606
▁напрамк	-10.0608
нс	-10.0609
чно	-10.0625
▁информацию	-10.0631
ел	-10.0631
▁решение	-10.0641
▁жывапіс	-10.0645
▁робі	-10.0659
нной	-10.0666
▁женщины	-10.0671
▁заканчэнн	-10.0673
▁сможем	-10.0673
▁лагер	-10.0676
▁вывуча	-10.0683
25	-10.0683
оп	-10.0685
▁хуткасц	-10.0686
▁Карла	-10.069
▁Рэспубліка	-10.0691
▁правёў	-10.0693
лер	-10.0701
▁Ха	-10.0705
▁невяліка	-10.0712
▁фактычна	-10.0715
9	-10.0717
75	-10.0722
▁большинство	-10.0724
▁Берлін	-10.0727
▁займа	-10.0736
▁Таким	-10.0739
▁мастацка	-10.0747
▁0	-10.0753
▁прац	-10.0764
▁спросил	-10.0768
нёс	-10.077
▁должна	-10.077
▁ахов	-10.078
▁яднання	-10.078
▁1928	-10.0781
▁камітэта	-10.0784
▁культурны	-10.0788
▁гарада	-10.079
▁пачынаю	-10.0798
▁паэзі	-10.0799
▁метад	-10.0812
▁кароткі	-10.0812
▁выйшаў	-10.0812
▁суб	-10.0818
▁45	-10.0824
▁д	-10.0826
▁парадк	-10.0828
▁воз	-10.083
▁ліпені	-10.083
▁л	-10.0832
▁Францыя	-10.0834
▁храма	-10.0834
▁павін	-10.0835
▁кг	-10.0836
сце	-10.084
▁вещей	-10.0843
▁ос	-10.0848
▁важна	-10.0854
▁инструмент	-10.0855
▁оп	-10.086
▁дзеянн	-10.0866
▁Джон	-10.0866
=	-10.0868
▁Может	-10.0869
овой	-10.0869
▁жанр	-10.0871
▁пяць	-10.0872
▁порт	-10.0883
▁рамках	-10.0885
ятся	-10.0891
▁наяўнасц	-10.0893
ись	-10.0896
▁заходні	-10.0898
▁сацыяльна	-10.0899
▁зборна	-10.0901
▁універсітэц	-10.0911
▁рука	-10.0913
▁уплыва	-10.0915
▁дарог	-10.0921
▁подход	-10.093
▁экономик	-10.0935
▁каталіцка	-10.0939
▁The	-10.0939
проч	-10.094
▁Усход	-10.094
дж	-10.0941
вают	-10.0945
▁старажытна	-10.095
▁равно	-10.0952
▁інстытута	-10.0954
▁канферэнцы	-10.0963
Пецярбург	-10.0968
d	-10.0969
▁рынк	-10.0971
▁верасні	-10.0981
▁транспарт	-10.0988
▁пост	-10.0995
ний	-10.0999
▁ўдзельніча	-10.0999
▁Германія	-10.1
▁идеи	-10.1012
▁образ	-10.1015
ось	-10.1015
▁ком	-10.1017
▁роўна	-10.1022
▁князёў	-10.1026
косны	-10.1026
▁ними	-10.103
чат	-10.1032
▁Грэцы	-10.1047
▁сэнс	-10.1054
▁приходит	-10.1058
▁афіцыйны	-10.1059
D	-10.1061
▁нашем	-10.1069
▁традыцыйна	-10.107
тельны	-10.1078
мат	-10.1079
▁XV	-10.1081
▁непасрэдна	-10.1083
нка	-10.1083
▁явіў	-10.1092
▁риск	-10.1096
▁жонк	-10.1098
▁ордэна	-10.1098
▁туда	-10.1098
▁екта	-10.1099
▁стандарт	-10.11
▁размяшчае	-10.1102
▁удзельніча	-10.1107
▁нами	-10.1111
▁вышэйша	-10.1113
▁камісі	-10.1115
▁другім	-10.1119
▁зямель	-10.1121
▁четыре	-10.1125
Ёрк	-10.1126
▁систему	-10.1139
▁салдат	-10.1141
будзь	-10.1141
чную	-10.1146
▁сацыяльны	-10.1147
▁взять	-10.1151
▁спасибо	-10.1155
▁адпаведнасц	-10.1158
▁ваши	-10.1165
▁жніўні	-10.1166
▁выглядит	-10.117
▁гук	-10.1171
▁Санк	-10.1173
A	-10.1175
▁вышыня	-10.1178
▁абавязк	-10.1181
▁птуш	-10.1182
▁слово	-10.1188
90	-10.1196
▁вусц	-10.1198
▁перайшоў	-10.12
▁жить	-10.1206
▁вышэй	-10.1206
рон	-10.1208
▁уваходзі	-10.1213
▁называ	-10.1218
рэш	-10.1224
▁вымушаны	-10.1228
В	-10.1239
▁взгляд	-10.1243
щи	-10.1245
▁імкну	-10.1258
▁хвароб	-10.1263
вёў	-10.1268
▁грош	-10.1273
▁нечто	-10.1273
ских	-10.1274
▁Згодн	-10.1274
▁вывучэнн	-10.1278
▁стране	-10.1281
▁лічыў	-10.1282
▁намного	-10.1289
▁Из	-10.1289
▁тэм	-10.1296
▁звестк	-10.1298
▁верагодна	-10.1304
▁Или	-10.1308
▁помощи	-10.1317
▁раньше	-10.1317
▁Польшча	-10.132
▁замест	-10.132
▁нравит	-10.1322
кро	-10.1323
▁посмотреть	-10.1331
▁дзейнічал	-10.1333
▁странах	-10.1335
▁лучши	-10.1337
▁доме	-10.1339
▁Ленін	-10.1343
▁центр	-10.1352
▁знал	-10.1357
▁нашу	-10.1359
▁вообще	-10.1361
▁1980	-10.1363
▁интересно	-10.1363
▁сколько	-10.1375
▁баз	-10.1376
▁чатырох	-10.1376
▁музыка	-10.138
▁ўяўляе	-10.1381
ились	-10.1384
лады	-10.1384
▁эры	-10.1389
„	-10.1391
ция	-10.1393
ский	-10.1397
▁яно	-10.1402
▁куда	-10.1408
▁красавіку	-10.141
▁расход	-10.1411
фи	-10.1411
▁1,5	-10.1411
▁работаю	-10.1413
▁бизнес	-10.1415
▁магчымасц	-10.1415
▁нужны	-10.1417
▁заліва	-10.1418
▁пэўны	-10.1419
▁старшын	-10.1419
смотря	-10.142
▁принцип	-10.1421
▁здольнасц	-10.1426
▁класа	-10.1426
▁экспедыцы	-10.143
▁век	-10.143
▁1970	-10.1435
▁ўсходня	-10.1436
▁падстав	-10.1436
▁сайт	-10.1446
▁атмасфер	-10.1447
▁Размешчан	-10.1451
▁Св	-10.1451
▁вызначае	-10.1453
▁клетки	-10.1455
▁тысячагоддзя	-10.1457
▁ставі	-10.1457
▁адказ	-10.1458
b	-10.1462
▁прынял	-10.1476
▁норм	-10.148
ден	-10.1488
▁голов	-10.1491
▁сімвал	-10.1497
▁спосаб	-10.151
нов	-10.151
▁иног	-10.151
▁считаю	-10.1515
▁делаем	-10.1522
выя	-10.1522
▁ціск	-10.1525
▁вышэйшы	-10.1526
▁1954	-10.1527
▁Цэнтр	-10.153
▁другом	-10.1535
▁фильм	-10.1539
▁бібліятэк	-10.154
▁Бо	-10.1543
▁выклікал	-10.1547
65	-10.1547
▁дазваляе	-10.1552
ень	-10.1554
менно	-10.1555
етесь	-10.1555
▁1975	-10.1556
▁астатні	-10.1559
▁левы	-10.1569
▁фізік	-10.1571
▁1986	-10.1582
ника	-10.1588
▁водна	-10.1591
▁ліст	-10.1594
▁вадазбор	-10.1596
▁хотят	-10.1596
▁Бог	-10.1601
▁Царкв	-10.1602
▁далей	-10.161
▁вучылішча	-10.1614
▁эффект	-10.1617
▁чорна	-10.1617
▁собственно	-10.1619
ван	-10.162
▁святы	-10.1621
ственн	-10.1627
▁Раза	-10.1627
▁напр	-10.1628
▁марскі	-10.1632
▁пути	-10.1632
▁працуе	-10.1633
▁Хорошо	-10.1636
▁подобны	-10.164
▁имеют	-10.1641
ву	-10.1641
▁музычны	-10.1646
▁работ	-10.1648
▁выда	-10.165
▁матэматык	-10.1651
▁рыб	-10.1653
▁месцам	-10.1657
▁замк	-10.1658
▁БД	-10.1666
29	-10.1667
ели	-10.167
▁моё	-10.1677
дут	-10.1679
▁какие	-10.168
▁смогл	-10.168
тебя	-10.1681
▁малады	-10.1688
кра	-10.1688
▁першапачаткова	-10.1693
▁перв	-10.1695
▁блок	-10.1695
▁наступ	-10.1696
▁задача	-10.1698
▁каралеўства	-10.1699
▁лета	-10.1702
▁океан	-10.1704
▁Ин	-10.1704
▁второ	-10.1705
вин	-10.1708
▁кры	-10.1712
▁произошло	-10.1712
▁збро	-10.1725
▁Друг	-10.1729
▁літар	-10.1731
М	-10.1733
▁кніга	-10.1735
▁Народна	-10.1755
▁дагавор	-10.1759
▁думать	-10.1763
▁блізкі	-10.1771
▁бела	-10.1773
83	-10.1776
▁еўрапейска	-10.1777
чным	-10.1778
▁Рады	-10.178
▁прыхільнік	-10.1781
▁чырвона	-10.1786
▁асобы	-10.1788
35	-10.1794
▁мясцовасц	-10.1795
▁грамадзянска	-10.1795
▁Наша	-10.1796
▁1956	-10.1799
▁флот	-10.1801
▁сетк	-10.1805
31	-10.1809
цаў	-10.1815
▁думал	-10.1815
▁ніко	-10.182
усім	-10.1821
▁маса	-10.1823
▁XII	-10.1824
▁значэння	-10.183
▁асабіста	-10.1832
▁АН	-10.1833
метр	-10.1836
что	-10.1836
▁набор	-10.1837
▁старо	-10.1843
▁св	-10.1845
▁нов	-10.1846
97	-10.1851
▁пасёл	-10.1853
▁званы	-10.1856
▁кол	-10.1856
▁адпавяда	-10.1862
▁T	-10.1864
▁хімічны	-10.1873
▁ўжыва	-10.1877
▁интернет	-10.1879
▁фігур	-10.1879
▁лінія	-10.1883
▁згодна	-10.1883
▁малы	-10.1887
▁палас	-10.1889
▁Вярхоўна	-10.1895
▁Кольк	-10.1895
говорим	-10.1897
▁вобраз	-10.1904
▁ваш	-10.1905
▁месте	-10.1905
▁дос	-10.191
▁палаца	-10.191
▁сур	-10.1912
▁ответил	-10.1914
▁защит	-10.1915
▁Куб	-10.1919
47	-10.1933
▁гандлёвы	-10.1939
▁чэрвені	-10.195
▁школ	-10.1956
▁чэмпіянат	-10.1966
▁цел	-10.1972
▁прадстаўлены	-10.1973
▁акцёр	-10.1975
▁месяцев	-10.1975
▁дні	-10.1983
▁пр	-10.1986
▁долго	-10.1987
I	-10.1998
▁прайшл	-10.1998
▁Кто	-10.2001
▁социальны	-10.2002
▁огромно	-10.2009
▁рабочы	-10.2009
55	-10.2016
▁источник	-10.2021
▁кіламетра	-10.2021
▁жыву	-10.2021
▁итог	-10.2023
▁доўга	-10.2032
▁бес	-10.2032
▁Русі	-10.2033
▁готов	-10.2034
,5	-10.2034
▁1976	-10.2039
▁памер	-10.2048
▁маёнтк	-10.2056
▁старшыня	-10.2059
▁камітэт	-10.2073
▁ес	-10.2077
▁спустя	-10.2084
▁области	-10.2084
▁мост	-10.2085
▁модель	-10.2085
▁видели	-10.2086
40	-10.2088
дин	-10.2089
▁сустракае	-10.209
нию	-10.2091
цка	-10.21
▁тра	-10.2104
▁глаза	-10.2109
▁Зате	-10.211
нер	-10.2111
▁амерыканска	-10.2125
▁занима	-10.2125
▁баявы	-10.2129
▁Нарвегі	-10.2132
▁сіла	-10.2133
вала	-10.2139
▁Мар	-10.2143
▁метал	-10.2145
▁наступным	-10.2149
▁пытанн	-10.2161
▁1915	-10.2162
15	-10.217
▁дробны	-10.2175
▁Гомел	-10.2179
▁Возможно	-10.2181
▁след	-10.2181
нные	-10.2184
n	-10.2187
▁шырокі	-10.2191
▁вода	-10.2191
▁сустракаю	-10.2208
▁калгас	-10.2213
жылі	-10.2213
▁кола	-10.2218
орак	-10.222
▁стыл	-10.2221
▁Радзівіл	-10.2222
▁крайне	-10.2223
▁лаборатори	-10.2223
▁Самы	-10.2225
▁Агульна	-10.2229
▁татар	-10.2231
су	-10.2233
▁1966	-10.2234
▁2014	-10.2238
5	-10.2243
▁1950	-10.2244
▁патрэб	-10.2245
▁горы	-10.2245
▁канцэрт	-10.2245
дальше	-10.2256
▁мест	-10.2259
▁імі	-10.2265
▁музе	-10.2267
Ф	-10.2273
▁шаг	-10.2274
▁цэлым	-10.2274
▁прывял	-10.2276
▁элементы	-10.2276
▁аперацы	-10.2276
▁разнастайны	-10.2278
▁двум	-10.2279
▁невероятно	-10.228
▁человеческо	-10.2284
авіч	-10.2288
▁Бела	-10.2288
▁бедны	-10.229
▁среди	-10.2306
▁календар	-10.231
лек	-10.2315
70	-10.2316
▁забіты	-10.2317
▁Саюз	-10.2318
чная	-10.2322
▁Свято	-10.2323
▁Працава	-10.2325
▁сцяга	-10.2326
▁Музыка	-10.2327
S	-10.2328
▁дачк	-10.2331
▁рэлігі	-10.2331
▁Японі	-10.2338
▁Венгры	-10.2339
▁кампазіцы	-10.2343
▁1985	-10.2345
▁культура	-10.2347
60	-10.2349
▁уровень	-10.2355
ек	-10.2365
▁герба	-10.2366
▁яўрэя	-10.2366
▁3-	-10.2369
▁арыштаваны	-10.237
▁напісаны	-10.237
▁плын	-10.2371
лин	-10.2373
ющая	-10.2377
друг	-10.2378
▁намеснік	-10.2389
56	-10.2392
▁плохо	-10.2392
піс	-10.2398
ично	-10.2399
менее	-10.2401
▁Швецы	-10.2405
▁пытанне	-10.2406
▁Юры	-10.2406
▁даследаванн	-10.2413
▁уровне	-10.2417
▁аддзел	-10.2419
▁займаю	-10.2424
▁стагоддзяў	-10.2424
ред	-10.2424
▁клімат	-10.2425
▁организм	-10.243
знать	-10.2432
▁Те	-10.2437
▁зрабі	-10.2446
▁тон	-10.2446
▁стен	-10.2449
Х	-10.2455
▁1935	-10.2457
при	-10.2458
▁праекта	-10.2459
▁Івана	-10.2461
▁званне	-10.2463
▁дыялект	-10.247
▁сферы	-10.247
▁прывяло	-10.2475
▁животных	-10.2476
▁улада	-10.2478
▁Армі	-10.2481
on	-10.2481
▁служы	-10.2485
▁пераеха	-10.2489
19	-10.2491
▁ўласна	-10.252
▁вежа	-10.2526
▁дазволіл	-10.2536
▁Паўночны	-10.2537
▁пражыва	-10.2537
▁Кон	-10.2539
▁сельсавет	-10.2539
▁легко	-10.2543
▁адносіна	-10.2545
▁рэштк	-10.2546
▁удар	-10.2546
ряд	-10.2547
▁ўзбярэжжа	-10.2548
▁собственны	-10.2549
▁дывізі	-10.255
▁вопросы	-10.2554
▁моцны	-10.2554
m	-10.2558
коў	-10.2562
44	-10.2562
служыў	-10.2563
▁D	-10.2566
▁працягласц	-10.2568
▁1965	-10.2574
▁прафесар	-10.2574
▁населения	-10.2575
▁пастаянна	-10.2575
▁стол	-10.2577
▁правядзенн	-10.259
▁Гісторы	-10.2592
▁футбаліст	-10.2592
▁гра	-10.2597
▁асобна	-10.2598
уп	-10.2602
▁мільёна	-10.2611
▁большое	-10.2614
▁заняў	-10.2616
▁сярэднім	-10.2616
▁1957	-10.2621
▁мадэл	-10.2624
▁харчова	-10.2625
▁1933	-10.2639
ётр	-10.264
▁Тогда	-10.2643
▁1978	-10.2645
▁говоря	-10.2649
39	-10.2651
чер	-10.2653
▁адукацыю	-10.2659
нуть	-10.2664
▁правильно	-10.2674
нём	-10.2674
▁Галоўна	-10.2677
▁1982	-10.2679
▁тела	-10.2679
▁палат	-10.2681
▁рымска	-10.2687
▁клуба	-10.269
▁самастойна	-10.2692
▁Першапачаткова	-10.2693
▁Ган	-10.2694
▁1984	-10.2695
▁касцёла	-10.2696
▁маленьки	-10.2704
▁кое	-10.2705
▁мо	-10.2706
▁хотите	-10.271
▁параўнанн	-10.271
▁Федэрацы	-10.271
▁культурна	-10.2712
▁удалос	-10.2718
▁вылуча	-10.2721
▁пять	-10.2722
нул	-10.2724
▁зроблены	-10.2727
І	-10.2737
▁існую	-10.2741
щих	-10.2743
▁стара	-10.2743
▁186	-10.2746
▁аддзела	-10.2763
▁звычайны	-10.2763
45	-10.277
▁1979	-10.2773
▁дапамог	-10.2778
▁денег	-10.2778
▁заснаваў	-10.2778
▁яднанне	-10.2791
▁1968	-10.2797
▁одним	-10.2797
▁патрабаванн	-10.2798
▁далейшы	-10.2798
33	-10.2802
образ	-10.2808
▁круг	-10.2812
▁Апошні	-10.2813
▁валода	-10.2815
87	-10.2818
▁600	-10.2819
▁сум	-10.282
▁дасягае	-10.2824
▁Галоўны	-10.2825
шн	-10.2826
▁склаў	-10.283
▁Сама	-10.2832
▁багаты	-10.2834
▁агульны	-10.2835
▁знать	-10.2836
▁грэчаска	-10.2843
▁обо	-10.2845
▁вещь	-10.2847
пар	-10.2847
▁решили	-10.285
▁літаратурны	-10.285
▁1972	-10.2852
▁вес	-10.2853
▁гурт	-10.2855
▁энергіі	-10.2855
▁будущем	-10.2865
▁нафт	-10.2865
▁После	-10.2868
лізу	-10.2873
▁праваслаўны	-10.2878
▁ин	-10.2882
▁імперыя	-10.2882
▁друку	-10.2882
▁ўмова	-10.2887
▁работал	-10.2889
▁сцян	-10.289
▁дакладна	-10.2891
▁вызваленн	-10.2894
▁Интернет	-10.2899
▁дачыненн	-10.2899
ющей	-10.2899
▁загінул	-10.2903
▁пераваг	-10.2904
ваем	-10.2912
▁Асноўна	-10.2915
▁камен	-10.2916
▁общества	-10.2916
▁Аўстры	-10.292
▁G	-10.2922
▁Радзівіла	-10.2923
▁справе	-10.2926
▁ног	-10.2931
▁ўлада	-10.2933
няў	-10.2933
Д	-10.2945
▁решил	-10.2949
▁1949	-10.2951
▁яднаны	-10.2954
▁умова	-10.2957
▁сцен	-10.2964
тон	-10.2968
▁Один	-10.297
▁драўляны	-10.2971
▁песня	-10.2974
▁пачалас	-10.2975
▁создания	-10.2983
▁период	-10.2985
▁духоўна	-10.2985
▁цара	-10.299
▁складаны	-10.3004
думать	-10.301
▁Ман	-10.3013
▁прысвечаны	-10.3013
▁1961	-10.3021
▁склала	-10.3038
▁Купал	-10.3041
▁1964	-10.3042
▁свобод	-10.3048
▁выява	-10.305
ками	-10.3051
ления	-10.3055
▁падзяля	-10.3056
▁пункта	-10.306
▁лад	-10.3062
дар	-10.3071
льзя	-10.3073
▁важным	-10.3074
енне	-10.3082
▁захаваліся	-10.3082
▁класс	-10.309
▁прамысловы	-10.3091
▁сярэдні	-10.3096
кар	-10.3097
▁тип	-10.3103
▁італьянскі	-10.3106
▁Кор	-10.3109
GC	-10.3109
цкага	-10.311
▁2015	-10.3113
▁абвясціў	-10.3116
▁Дз	-10.3118
▁ўваходз	-10.312
▁вядзе	-10.3124
▁of	-10.3126
овая	-10.3129
28	-10.3134
▁ўда	-10.3136
▁пар	-10.3137
▁ўладанн	-10.3137
▁наибол	-10.3138
▁поля	-10.314
▁Ча	-10.3142
▁сёння	-10.3144
▁роўны	-10.3145
▁прадукцы	-10.3145
▁прадпрыемств	-10.3146
▁вос	-10.3146
нут	-10.3149
▁каменны	-10.3153
▁выключна	-10.3154
an	-10.3158
чный	-10.3158
▁парод	-10.3162
сень	-10.3168
▁Сібір	-10.3173
▁напад	-10.3176
▁цягнік	-10.3177
▁1947	-10.3178
▁наконец	-10.318
▁Дзякую	-10.318
▁дасягнул	-10.3184
овые	-10.3186
▁полно	-10.3196
▁прапанов	-10.3215
▁целы	-10.3216
▁чырвоны	-10.3219
давно	-10.3222
шла	-10.3226
▁універсітэта	-10.3229
▁адрознівае	-10.3232
▁знойдзены	-10.3233
ъ	-10.3235
▁1910	-10.3237
▁развития	-10.3238
▁пустын	-10.3241
▁Африке	-10.3244
▁часов	-10.3248
▁ніжня	-10.325
ируют	-10.3251
▁1971	-10.3251
ина	-10.3251
▁будов	-10.3254
▁гісторыя	-10.3257
▁спорт	-10.3258
▁число	-10.3269
▁Дзяржаўны	-10.327
▁ажыццяўля	-10.328
▁сп	-10.3281
k	-10.3281
▁прошлом	-10.3283
▁Индии	-10.3287
ота	-10.3295
▁продаж	-10.3298
▁чорны	-10.3299
▁рэдка	-10.33
▁давайте	-10.3306
▁геро	-10.3307
▁Мінскі	-10.3307
▁былы	-10.3312
▁міністр	-10.3316
▁дизайн	-10.3316
чь	-10.332
нный	-10.333
▁доход	-10.3332
▁элемента	-10.3332
▁існава	-10.3332
▁трудно	-10.334
▁футбол	-10.334
▁Сярге	-10.3341
▁выяўлены	-10.3344
▁Тэрыторы	-10.3359
▁идёт	-10.336
▁путь	-10.3364
▁вызнача	-10.3364
▁4-	-10.3369
▁абсолютно	-10.3378
▁1973	-10.3379
▁верхні	-10.338
▁дакумента	-10.3381
▁используют	-10.3383
▁існаванне	-10.3386
▁связи	-10.3392
▁прыклад	-10.3394
▁другим	-10.3395
▁выса	-10.3396
▁Савет	-10.34
шка	-10.341
▁паэм	-10.3422
▁нескольки	-10.3432
▁нізкі	-10.3432
▁тур	-10.3433
▁выклада	-10.3441
канец	-10.3449
g	-10.345
рас	-10.3451
▁75	-10.3451
▁дадзена	-10.3459
▁кіраваў	-10.3466
ходят	-10.347
▁манет	-10.347
▁Амеры	-10.3471
▁Дом	-10.3473
▁ўзрос	-10.3474
▁F	-10.3475
▁вирус	-10.3477
▁сумесна	-10.3478
▁Бр	-10.3479
ары	-10.3481
▁наступна	-10.3482
ставить	-10.349
▁мар	-10.3491
▁миллиардов	-10.3495
лён	-10.3498
▁Уладзіміра	-10.3498
▁пэўна	-10.3502
▁канструкцы	-10.3502
▁прыватны	-10.3505
▁працоўны	-10.3506
▁галас	-10.3508
in	-10.3509
▁двар	-10.351
стати	-10.351
▁нахіл	-10.351
▁бібліятэка	-10.3511
▁каштоўнасц	-10.3511
твор	-10.3512
▁будущее	-10.3524
27	-10.3525
знают	-10.3526
▁хрысціянства	-10.3526
▁нашим	-10.3529
три	-10.3534
▁музыку	-10.3538
щие	-10.354
▁женщина	-10.354
▁Представь	-10.3542
▁1977	-10.3545
▁Чтоб	-10.3546
▁прапанаваў	-10.3547
▁Паўла	-10.3549
чит	-10.355
▁рада	-10.3551
▁Вядомы	-10.3561
▁немц	-10.3571
▁лепш	-10.3577
▁отношения	-10.3581
ление	-10.3583
езд	-10.3585
▁рабо	-10.3591
▁саюза	-10.3593
▁вучыў	-10.3596
▁метод	-10.3596
▁Папа	-10.3596
▁насякомы	-10.3598
▁парад	-10.3599
▁Кажды	-10.3604
ируем	-10.3605
▁Бар	-10.3606
▁асноўна	-10.3606
▁дэпутат	-10.361
▁папулярнасц	-10.3612
▁цыкл	-10.3613
▁Сам	-10.3614
57	-10.3614
▁жыве	-10.3617
▁лацінска	-10.3621
▁Маці	-10.3623
▁Рэ	-10.3635
▁Некоторы	-10.3635
ходзе	-10.3639
УП	-10.364
▁Існу	-10.3647
▁вучы	-10.3647
дэ	-10.3651
▁акіян	-10.3659
▁качестве	-10.3663
сво	-10.3664
тэр	-10.3667
▁значэнн	-10.3672
▁супрацоўніцтв	-10.3673
▁ападка	-10.3674
▁кажд	-10.3675
▁др	-10.3676
53	-10.3677
▁выкананн	-10.3681
▁Америк	-10.3683
чески	-10.3689
▁рэльеф	-10.3692
▁частью	-10.3694
▁беларускім	-10.3704
маглі	-10.3705
▁виду	-10.3707
▁обратно	-10.3708
▁Каб	-10.3713
▁работе	-10.3713
▁савета	-10.3713
▁Бога	-10.3714
▁Дняпр	-10.3724
изм	-10.3727
▁муж	-10.3735
▁гэтак	-10.3738
▁прадукт	-10.3739
▁свята	-10.374
ключаючы	-10.3741
раст	-10.3742
▁бяспек	-10.3742
▁используем	-10.3748
▁Вуліц	-10.3748
▁падобна	-10.3751
▁сети	-10.3759
▁Сцяг	-10.3767
▁партрэт	-10.3767
▁имею	-10.3768
▁неабходна	-10.3768
ней	-10.377
▁абшчын	-10.377
▁язык	-10.3773
▁назіра	-10.3775
h	-10.3776
▁пласт	-10.3779
ром	-10.3782
▁Ро	-10.3784
ген	-10.3787
▁прычы	-10.3787
▁Першым	-10.3788
▁ствара	-10.379
ишь	-10.3795
лізна	-10.3796
▁Неў	-10.3799
▁1953	-10.38
▁корпус	-10.3802
▁назваў	-10.3804
▁Фінлянды	-10.3804
▁рэакцы	-10.3804
▁ўзор	-10.3806
▁ніжні	-10.3806
▁полу	-10.3808
▁брата	-10.3814
Т	-10.3817
▁руки	-10.3819
▁одном	-10.3821
стер	-10.3826
▁дапамогу	-10.3829
al	-10.3831
кал	-10.3834
былі	-10.3836
▁дзесяцігоддзя	-10.3847
▁паспяхова	-10.3853
▁блізка	-10.3855
▁вучоны	-10.3861
▁известно	-10.3862
▁прыродны	-10.3862
▁разговор	-10.3866
▁схіл	-10.3868
▁прылад	-10.3875
▁паўстанне	-10.3876
▁Чорна	-10.3881
▁предмет	-10.3881
▁Большо	-10.3886
жу	-10.3892
▁вяртанн	-10.3893
▁дней	-10.3895
▁1987	-10.3896
▁прычына	-10.3898
▁жылы	-10.39
▁фільма	-10.39
▁газет	-10.3905
▁верша	-10.3909
▁проб	-10.3911
▁глыбіня	-10.3914
▁Стары	-10.3921
▁Мі	-10.3926
ству	-10.3928
▁хат	-10.3936
▁знали	-10.3937
▁надежд	-10.3939
▁нашы	-10.3948
▁лёс	-10.3958
▁мастацкі	-10.3959
▁сцэн	-10.3961
▁акупацы	-10.3962
▁модели	-10.3964
▁любы	-10.3975
▁сигнал	-10.3976
▁Славакі	-10.3977
▁двор	-10.3977
стью	-10.3977
вол	-10.3982
▁калоні	-10.3984
▁прасторы	-10.3994
▁атак	-10.4
рок	-10.4017
ющее	-10.4017
АТ	-10.4018
▁знает	-10.4019
▁другими	-10.4019
▁супрацоўнік	-10.402
▁турм	-10.4025
▁развіты	-10.4031
▁радзім	-10.4035
нести	-10.4035
▁Мой	-10.4035
▁32	-10.4035
▁состоит	-10.4036
рт	-10.4036
▁карыс	-10.4049
▁звест	-10.4057
▁камандаванне	-10.4058
вагу	-10.4072
▁мяч	-10.4073
▁позволяет	-10.4077
▁дамен	-10.4086
▁сразу	-10.4094
▁1990-	-10.4098
▁уні	-10.41
▁высоко	-10.4102
▁плат	-10.4111
▁хімічна	-10.4113
▁выкарыстоўвалі	-10.4121
▁использовани	-10.4122
▁каманда	-10.4125
▁1955	-10.413
лева	-10.413
▁мужчин	-10.4131
▁пришлось	-10.4133
▁ўключае	-10.4133
▁каралеўска	-10.4134
▁удзельнік	-10.4138
▁H	-10.4139
ском	-10.4142
▁технология	-10.4147
ar	-10.4148
▁знакаміты	-10.4152
▁урада	-10.4152
фер	-10.4155
86	-10.4156
анс	-10.4159
▁Тад	-10.4165
▁1983	-10.4169
▁Назв	-10.4172
лон	-10.4177
▁Іншы	-10.4179
▁імён	-10.418
▁налічвае	-10.4185
▁песен	-10.4187
▁чувство	-10.42
ках	-10.4202
▁Вед	-10.4204
▁Мак	-10.4205
▁невозможно	-10.4211
▁сведчы	-10.4211
▁акру	-10.4218
▁Канстытуцы	-10.4223
▁лепшы	-10.4225
▁de	-10.4226
▁складалі	-10.4227
▁страх	-10.4227
▁захоўвае	-10.4228
▁голос	-10.4228
▁польскім	-10.4229
▁Афры	-10.423
▁крыла	-10.4235
▁органы	-10.4238
▁сынам	-10.424
▁левым	-10.4246
▁дзіця	-10.4248
фор	-10.425
▁крытык	-10.425
▁суда	-10.4254
▁нейрон	-10.4255
▁создавать	-10.426
▁Многи	-10.427
▁веры	-10.4271
▁пабудава	-10.4277
▁урад	-10.4283
▁спецыяльны	-10.4286
луча	-10.4289
▁Сол	-10.4291
міністра	-10.4295
▁Егіп	-10.4303
▁рады	-10.4304
▁масштаб	-10.4306
▁маршрут	-10.431
▁матери	-10.4313
▁зас	-10.432
чик	-10.4327
▁погляд	-10.4329
▁рашэння	-10.4339
▁видов	-10.4346
▁ідзе	-10.4348
▁написал	-10.4349
▁паводзін	-10.435
▁мэт	-10.4355
тически	-10.436
▁каталіцкі	-10.436
▁ход	-10.4362
мест	-10.4363
▁палон	-10.4368
▁машины	-10.4369
▁ініцыятыв	-10.437
▁Святог	-10.4375
▁разуме	-10.4376
правда	-10.4384
24	-10.4385
▁Люксембург	-10.439
мент	-10.4391
▁органа	-10.4392
еры	-10.4394
щё	-10.4394
▁нізін	-10.4395
▁ажыццяўляе	-10.4398
▁120	-10.4409
▁Ізраіл	-10.441
▁фотографии	-10.441
▁ўзнікл	-10.4413
▁слав	-10.4414
▁вернуть	-10.4419
ывает	-10.4423
▁Гор	-10.4423
▁сястр	-10.4423
▁апазіцы	-10.4426
▁тело	-10.4426
▁ўсю	-10.4427
▁даўжынё	-10.4427
▁слоў	-10.4428
▁устаноў	-10.443
эл	-10.4433
▁Смаленска	-10.4437
▁звыш	-10.4439
▁Ім	-10.4439
▁тво	-10.4444
▁шляхт	-10.4449
▁распаўсюджана	-10.445
▁скорее	-10.4452
▁вер	-10.4455
▁движение	-10.4458
▁границ	-10.4461
▁раздел	-10.4466
нта	-10.4467
▁героя	-10.4469
▁выше	-10.447
ась	-10.4473
▁рэлігійна	-10.4473
▁похоже	-10.4477
▁молоды	-10.448
▁глав	-10.4484
▁характэрна	-10.4491
▁аповесц	-10.4491
▁музычна	-10.4491
могла	-10.4495
▁Нобелеўска	-10.4497
▁Аляксе	-10.4499
▁Оно	-10.4501
▁болезн	-10.4503
рн	-10.4505
ог	-10.4505
▁сяброў	-10.4506
▁належал	-10.4508
ЭС	-10.451
▁Ісланды	-10.4511
▁выходзі	-10.4514
▁паўвострава	-10.4516
▁правд	-10.4517
▁покажу	-10.4517
▁Над	-10.4522
ился	-10.4523
▁паўстанц	-10.4526
▁Пецярбург	-10.4531
▁решить	-10.4537
▁яўрэйска	-10.4546
▁образование	-10.4549
▁Вучы	-10.4554
▁англійскі	-10.4554
▁чыгунк	-10.4555
▁пісьмовы	-10.4557
▁VII	-10.4559
▁зорна	-10.4562
▁измен	-10.4563
▁включа	-10.4568
ики	-10.4569
йшоў	-10.4569
▁протяжени	-10.4572
тебе	-10.4579
▁паходжанне	-10.4587
▁эволюци	-10.4587
▁службу	-10.4588
▁актыўны	-10.4589
▁прыход	-10.4591
▁эфект	-10.4593
▁Звычайна	-10.4593
▁выдаў	-10.4593
▁Многі	-10.4594
▁мастака	-10.4605
▁вырашыў	-10.4605
вших	-10.4608
▁остальны	-10.4623
▁дазвол	-10.4623
▁накіраваны	-10.4631
▁Шмат	-10.4632
▁био	-10.4632
▁ролі	-10.4635
▁волн	-10.4636
▁Міністэрства	-10.4637
▁нараджэння	-10.4637
▁вар	-10.4639
▁домой	-10.4642
43	-10.4651
вести	-10.4659
▁чар	-10.4668
▁дзвю	-10.4672
▁тест	-10.4672
▁проблему	-10.4675
▁заключается	-10.4676
▁рымскі	-10.4676
▁врач	-10.4676
▁вперв	-10.4685
▁ранні	-10.4687
▁последне	-10.4695
▁археалагічны	-10.4696
▁небольшо	-10.4702
нных	-10.4702
▁савет	-10.4704
▁семьи	-10.4704
зь	-10.4704
▁значн	-10.4717
▁парламента	-10.4718
▁ўласны	-10.472
▁настоящи	-10.4725
▁природ	-10.4725
лін	-10.4731
▁адзіны	-10.4734
▁захавала	-10.4735
▁ідэя	-10.4735
▁станет	-10.4738
жды	-10.4744
▁1897	-10.4751
▁Алімпійскі	-10.4758
▁семінары	-10.4758
вижу	-10.4764
▁вугл	-10.4768
▁прыб	-10.4768
ими	-10.4769
▁чалавеча	-10.4775
▁журналіст	-10.4778
▁рядо	-10.4778
сек	-10.4779
▁речь	-10.478
инг	-10.4789
дра	-10.479
50	-10.4791
▁пла	-10.4792
▁ўзвышша	-10.4792
▁сфер	-10.4793
▁доби	-10.4794
▁будучы	-10.4795
▁дагавора	-10.4795
▁мал	-10.4798
▁рэзка	-10.48
▁альбом	-10.48
▁Латві	-10.4801
▁кафедр	-10.4801
▁сред	-10.4803
▁метро	-10.481
79	-10.4811
уш	-10.4813
▁типа	-10.4819
▁движения	-10.4828
▁250	-10.4831
▁Марыя	-10.4832
▁сетка	-10.4834
▁ключ	-10.4842
▁1930-	-10.4842
▁Партугалі	-10.4842
▁хвілін	-10.4842
▁Каралеўства	-10.4845
▁навучанн	-10.4853
▁Крым	-10.4862
▁стварыць	-10.4863
▁следует	-10.4863
▁роля	-10.4871
▁катэгоры	-10.4879
▁моладз	-10.4883
▁глыбока	-10.4884
▁вариант	-10.4884
▁вниз	-10.4885
▁вероятно	-10.4887
▁Кал	-10.4891
▁дакумент	-10.4891
пло	-10.4892
▁половин	-10.4897
▁мою	-10.4906
▁картин	-10.4912
▁жывы	-10.4912
▁ч	-10.4913
▁собира	-10.4915
▁каким	-10.4916
▁расліннасц	-10.4918
▁бег	-10.4921
СР	-10.4926
▁будаўнічы	-10.4927
▁стар	-10.4927
▁практически	-10.4927
▁партызан	-10.4928
▁двой	-10.4928
▁Каўказ	-10.4932
▁захава	-10.4934
▁называем	-10.4934
▁кні	-10.4934
▁1900	-10.4935
▁самые	-10.4941
▁паст	-10.4947
▁дэпутата	-10.4948
▁аэрапорт	-10.4948
▁вакзал	-10.4948
▁метрапалітэн	-10.4948
▁стая	-10.4949
f	-10.4954
▁кіраванне	-10.4955
▁сутнасц	-10.4962
▁удивительно	-10.4964
▁палітыка	-10.4965
▁1980-	-10.4967
▁E	-10.4968
▁ўтвараюц	-10.4969
▁бактери	-10.4969
ило	-10.4979
О	-10.4983
▁ажані	-10.4991
▁Руска	-10.4992
▁Меня	-10.4995
▁ступень	-10.4996
илась	-10.4999
▁мысли	-10.5003
▁хороши	-10.5006
льнік	-10.5008
▁цели	-10.5008
воз	-10.5008
▁Вядома	-10.5012
▁радзе	-10.5016
▁далеко	-10.5021
▁заключ	-10.5026
▁царства	-10.5027
▁паслуг	-10.5033
▁позволит	-10.5033
▁190	-10.5037
▁Павел	-10.504
▁схем	-10.5049
▁змяшчае	-10.5055
▁используя	-10.5055
▁лёд	-10.5055
▁неабходнасц	-10.5057
▁ряд	-10.5059
▁працяка	-10.5059
▁сітуацы	-10.5063
▁пач	-10.5072
▁пояс	-10.5076
▁однажды	-10.5077
лок	-10.5078
▁брытанскі	-10.5078
▁падрыхтоўк	-10.5079
▁тэорыя	-10.5089
▁перемен	-10.509
▁ера	-10.5091
СС	-10.5093
le	-10.5093
зноў	-10.5094
годы	-10.5096
▁золата	-10.5098
▁пахаваны	-10.5098
▁перавыша	-10.5098
▁W	-10.5104
ьте	-10.5105
▁связь	-10.5109
▁машин	-10.511
▁названием	-10.5112
▁сялянска	-10.5112
▁группа	-10.5115
ивает	-10.5116
▁паўнамоцтв	-10.5119
▁Вер	-10.5121
▁захаванн	-10.5121
▁дапамо	-10.5125
▁L	-10.5126
▁прадмет	-10.5128
▁распаўсюджва	-10.5128
▁арганізаваны	-10.513
праўлення	-10.5133
аты	-10.5135
▁канала	-10.5136
▁выпадка	-10.514
▁скульптур	-10.5144
▁цячэ	-10.5148
▁мястэчк	-10.5148
▁дамоў	-10.5151
▁Дзвін	-10.5151
▁дваро	-10.5162
▁стварыл	-10.5163
▁знешня	-10.5165
▁каждом	-10.517
нного	-10.517
▁сабора	-10.5171
▁брытанска	-10.5171
▁адкрыццё	-10.5179
▁газа	-10.5182
▁ССР	-10.5184
▁шэсць	-10.5185
▁аўтара	-10.5193
спе	-10.5199
ладу	-10.52
печат	-10.5201
▁Вам	-10.521
чные	-10.5214
▁посмотрим	-10.5214
лас	-10.5222
,8	-10.5222
▁поскольк	-10.5223
вежы	-10.5223
▁напісана	-10.5224
▁рыбы	-10.5225
▁платформ	-10.5236
▁выключэнне	-10.524
вит	-10.5244
▁пераважа	-10.525
▁человечески	-10.5251
▁здольны	-10.5251
▁басейна	-10.5252
▁кіраўніка	-10.5253
▁роль	-10.5253
▁рання	-10.5253
▁дале	-10.5257
▁разум	-10.5257
▁уровня	-10.526
▁атрымлівае	-10.5266
▁фото	-10.5272
живут	-10.5284
▁пяці	-10.5291
▁аддзяленне	-10.5293
▁сюжэт	-10.5294
G	-10.5295
▁транс	-10.5295
▁ўнутрана	-10.5296
хотелось	-10.5297
адну	-10.5298
▁аспект	-10.5302
цион	-10.5303
▁2,5	-10.5304
▁демократи	-10.5305
кат	-10.5308
▁зорк	-10.5308
▁падзяляе	-10.531
▁Міжнародна	-10.5316
▁сер	-10.5319
рез	-10.5322
▁даёт	-10.5329
ужен	-10.533
▁закона	-10.5336
▁парламент	-10.5337
▁Ру	-10.5343
быў	-10.5354
▁Літве	-10.5356
▁рукапіс	-10.5357
▁зона	-10.5358
▁кляштар	-10.536
▁математик	-10.536
▁рэсурс	-10.536
▁высокім	-10.5362
▁света	-10.5362
▁зала	-10.5363
▁фізічна	-10.5363
▁анализ	-10.5371
▁раза	-10.5371
▁гары	-10.5373
▁ап	-10.5374
▁выданне	-10.5377
▁выстав	-10.5378
пуск	-10.5378
▁хімі	-10.5383
▁общество	-10.5387
▁маёнтка	-10.5389
▁Паўднёвы	-10.5399
▁Тро	-10.5404
щ	-10.5409
▁116	-10.5414
▁тр	-10.5415
ческо	-10.5417
▁ахвяр	-10.5419
▁1952	-10.5427
▁чыгуначны	-10.5427
▁лісце	-10.5427
▁прежде	-10.5427
▁прыводзі	-10.5429
▁выступ	-10.5433
▁Іх	-10.5434
▁збіра	-10.5437
▁интересны	-10.5438
▁маёнт	-10.544
▁палос	-10.5447
тивн	-10.5447
▁фальклор	-10.5449
▁способны	-10.545
▁века	-10.5452
рана	-10.5459
▁гісторыка	-10.5461
▁бар	-10.5462
▁абрад	-10.5466
первых	-10.5467
▁хотела	-10.5472
▁адзіным	-10.5472
▁трон	-10.5473
ес	-10.5476
▁працягвае	-10.548
▁Аль	-10.5485
▁Ли	-10.5487
▁ей	-10.5492
▁Палесс	-10.5494
▁фестывал	-10.5494
▁инженер	-10.5495
▁праведзены	-10.5496
▁адкрыў	-10.5499
▁800	-10.5503
▁веда	-10.5503
говорили	-10.5507
▁цель	-10.5508
▁мед	-10.5512
▁хрысціянска	-10.5515
▁мінулы	-10.5516
▁нізка	-10.5516
▁обнаружили	-10.552
▁решени	-10.5537
▁Бельгі	-10.5539
▁архітэктар	-10.5548
▁КА	-10.5549
▁Лічы	-10.5552
▁Міхаіл	-10.5552
▁выход	-10.5553
x	-10.5554
▁Аўгуста	-10.5557
▁воздух	-10.5559
рол	-10.5561
▁прадстаўлена	-10.5561
▁зносін	-10.5562
▁буквально	-10.5562
▁хутчэй	-10.5562
ток	-10.5565
▁спас	-10.5566
▁причина	-10.5566
▁сілу	-10.557
▁корм	-10.5575
▁Еўрапейска	-10.5577
▁увидите	-10.5577
▁масава	-10.5577
▁Кан	-10.5578
▁праходзіл	-10.5578
часова	-10.5583
▁професси	-10.5584
▁мяса	-10.5585
▁безопасности	-10.5586
▁кандыдата	-10.5586
▁Ник	-10.559
▁уж	-10.559
▁катастроф	-10.559
сё	-10.5593
▁фр	-10.5594
▁книги	-10.5597
▁пл	-10.5598
▁правительство	-10.5602
▁игра	-10.5602
▁крызіс	-10.5607
▁культ	-10.5607
ика	-10.561
▁дзяржаўным	-10.561
▁моим	-10.561
▁называлі	-10.561
▁цифр	-10.5614
▁прыём	-10.5619
▁скончыла	-10.5622
▁материал	-10.5629
▁Скарын	-10.563
▁идею	-10.563
▁ночь	-10.5632
чка	-10.5633
рава	-10.5637
▁займалі	-10.564
▁случилось	-10.5643
розе	-10.5645
▁Два	-10.5645
▁асяроддзя	-10.5648
▁нагадва	-10.5653
▁Схіл	-10.5653
▁свято	-10.5653
▁планете	-10.5653
ежы	-10.5654
▁сделан	-10.5654
▁вялі	-10.5657
▁мене	-10.5659
▁кампазітар	-10.5661
▁масавы	-10.5662
▁забеспячэнн	-10.5664
▁хрысціян	-10.5665
▁крыж	-10.5669
▁стану	-10.5671
▁Кам	-10.5671
▁кропка	-10.5674
▁тлумачы	-10.5675
▁Прэзідэнта	-10.568
▁дзец	-10.5682
▁свабодна	-10.5683
заходня	-10.5688
▁папулярны	-10.5691
▁бога	-10.5695
▁Прусі	-10.5696
▁планет	-10.5705
▁старэйшы	-10.5706
▁падтрым	-10.5706
▁обычны	-10.5707
▁класічна	-10.5709
▁дел	-10.5709
C	-10.571
▁генерала	-10.5711
▁паб	-10.5713
▁помніка	-10.5714
шло	-10.5717
люблю	-10.5717
рбі	-10.5733
▁игр	-10.5735
гэту	-10.5736
▁хочет	-10.5738
▁выніка	-10.5738
▁руку	-10.5739
▁версія	-10.574
▁тэхнік	-10.5742
▁адсутніча	-10.5744
▁Васіль	-10.5744
▁Сталін	-10.5745
▁працягваў	-10.5747
▁падзелены	-10.5747
▁пас	-10.5749
▁хороше	-10.5758
▁сцвярджа	-10.5759
▁жаноча	-10.5767
смерти	-10.5768
▁чыгун	-10.5768
▁социально	-10.5772
▁бітва	-10.5772
▁сюда	-10.5775
нет	-10.5776
▁Гарад	-10.5781
▁Пап	-10.5784
огул	-10.5784
▁Ірланды	-10.579
▁кем	-10.5799
шу	-10.5801
▁расп	-10.5803
▁дэпартамент	-10.5803
▁ситуаци	-10.5804
лікаў	-10.5805
▁урок	-10.5808
▁поиск	-10.5809
раў	-10.5811
▁замуж	-10.5814
▁прозвішча	-10.5815
▁прекрасно	-10.582
▁выпуска	-10.5824
▁Адам	-10.5832
▁спектр	-10.5833
ении	-10.5838
▁появи	-10.5839
▁заняты	-10.584
▁цяжкі	-10.584
міністр	-10.5841
▁складаў	-10.5841
нова	-10.5844
▁заснаванн	-10.5852
ющим	-10.5853
▁Чэхі	-10.5861
▁планета	-10.5862
▁спецыяльна	-10.5868
▁ду	-10.587
▁зварот	-10.5872
▁рэспубліка	-10.5877
▁адмовіў	-10.588
▁обще	-10.5881
▁поговорить	-10.5883
▁вядомым	-10.5884
▁велічыня	-10.5885
▁ўласцівасц	-10.589
▁ўплыв	-10.5895
▁таког	-10.5903
▁Сталіца	-10.5906
писать	-10.5917
янскім	-10.5918
▁Ло	-10.5921
▁край	-10.5925
▁долара	-10.5925
▁дачка	-10.5928
▁Жыгімонта	-10.5929
▁стварае	-10.5935
▁акцы	-10.5937
▁концов	-10.5937
▁асноўнай	-10.5944
овым	-10.5945
▁уключа	-10.5947
▁реально	-10.595
▁эксперт	-10.5953
▁каротка	-10.5953
▁теори	-10.5957
▁неаднаразов	-10.5957
рыв	-10.5958
▁правым	-10.5961
▁мод	-10.5969
▁адпаведны	-10.597
▁Аргенцін	-10.5977
▁харчаванн	-10.5977
▁пары	-10.5977
▁энерги	-10.5979
▁созда	-10.5979
▁каралеўскі	-10.5984
▁спрыя	-10.5985
▁заснавальнік	-10.5987
▁экран	-10.5988
▁апублікава	-10.5991
▁яв	-10.5995
▁Старшын	-10.6
▁абвешчана	-10.6
▁квартал	-10.6
▁кантроль	-10.6001
▁кур	-10.6012
▁адкрыцця	-10.6013
▁могілка	-10.602
тели	-10.6023
▁звана	-10.6024
▁адміністрацы	-10.6026
част	-10.6027
▁агульным	-10.6027
▁План	-10.6032
ники	-10.6038
▁зуб	-10.6038
▁папярэдні	-10.6039
▁действия	-10.6043
▁Земле	-10.6048
▁маёмасц	-10.6048
▁залежыць	-10.6049
лан	-10.6053
▁сил	-10.6055
▁абласц	-10.6058
▁братам	-10.6061
▁гаспадарка	-10.6069
▁самого	-10.607
ировали	-10.6071
▁Асманска	-10.6071
▁абодву	-10.6071
▁понимает	-10.6071
▁значение	-10.6073
▁Ге	-10.6081
волі	-10.6083
▁O	-10.6083
ировал	-10.6084
▁способность	-10.6086
▁традыцыйны	-10.6087
▁Бабруйск	-10.6093
▁рэдактар	-10.6094
▁дастаткова	-10.6095
▁лаўрэат	-10.6096
▁найбольша	-10.6096
▁пер	-10.6097
▁основан	-10.6112
▁трёх	-10.6118
▁ЮНЕСК	-10.6119
▁Вялікабрытанія	-10.612
▁боле	-10.6122
▁ру	-10.6124
▁Украіна	-10.6125
▁неба	-10.6127
▁готовы	-10.6129
▁рыцар	-10.613
▁местах	-10.6136
вец	-10.6138
ному	-10.6141
коп	-10.6141
▁инноваци	-10.6143
▁Грузі	-10.6143
▁1951	-10.6143
▁узрос	-10.6144
▁старшынё	-10.6145
▁структура	-10.6145
▁рухавік	-10.615
думаем	-10.6152
▁36	-10.6158
сан	-10.617
▁ограничен	-10.6173
▁названа	-10.6173
▁Пер	-10.6176
▁замацава	-10.6187
▁кошк	-10.6188
▁здания	-10.6188
▁замен	-10.6189
▁семь	-10.619
▁мяне	-10.6193
▁выраз	-10.6194
Л	-10.6196
▁видел	-10.6197
▁большие	-10.62
▁Вялік	-10.6203
джа	-10.6207
▁Штат	-10.6208
▁царкоўна	-10.621
▁аўтамабіля	-10.6212
▁гледжанн	-10.6215
▁ландшафт	-10.6215
▁сосед	-10.6215
▁камян	-10.6215
▁Народны	-10.6215
▁прыходзі	-10.6216
▁часціц	-10.6216
▁Ды	-10.6216
▁шчыльнасц	-10.6217
▁кадр	-10.6217
▁пе	-10.622
аліў	-10.6221
мор	-10.6221
▁нашчадк	-10.6222
▁падыход	-10.6224
▁іспанска	-10.6224
▁помощь	-10.6228
смотр	-10.6231
шар	-10.6231
▁исследование	-10.6237
шен	-10.6242
цэ	-10.6249
▁нужна	-10.6255
▁падарожжа	-10.6255
▁получил	-10.6261
▁Вен	-10.6262
▁Біблі	-10.6264
▁філосаф	-10.6264
▁знаходжанн	-10.6264
▁пошук	-10.6269
▁дорог	-10.6273
▁гуля	-10.6275
▁Вітаўта	-10.6276
▁Сын	-10.6276
мед	-10.6276
ёс	-10.6277
▁открыто	-10.6282
▁катлавін	-10.6284
▁Таварыства	-10.6288
▁злучае	-10.6289
▁ўваг	-10.6291
▁похожи	-10.6303
▁график	-10.6309
▁акруга	-10.6311
▁цывілізацы	-10.6312
▁турнір	-10.6312
▁Закон	-10.6312
▁пространство	-10.6313
,3	-10.6316
▁объект	-10.6317
▁сойм	-10.6319
▁газе	-10.6321
хотели	-10.6323
▁чему	-10.6325
▁ради	-10.6325
▁прамыслова	-10.6327
▁1920-	-10.6328
▁сторон	-10.6328
▁160	-10.633
▁неза	-10.6334
▁теле	-10.6337
▁больниц	-10.6338
шь	-10.6345
▁прыйшл	-10.6346
▁асоба	-10.6347
▁разгляда	-10.6348
▁натуральна	-10.6349
верс	-10.6349
▁царкоўны	-10.6352
▁Ста	-10.6357
рог	-10.636
▁Google	-10.6361
▁Цяпер	-10.6361
▁адчува	-10.6361
▁Крис	-10.6365
▁арганізма	-10.6365
▁біскуп	-10.6369
▁славянскі	-10.637
▁Мал	-10.6372
▁исследований	-10.6378
▁дату	-10.6378
щий	-10.6379
▁мусульман	-10.638
▁кап	-10.6385
▁шанс	-10.6386
▁куды	-10.6387
▁надею	-10.6388
▁продукт	-10.639
▁яў	-10.639
▁неабходны	-10.6396
▁апублікаваны	-10.6401
▁политик	-10.6406
летку	-10.6409
роз	-10.6409
▁загінуў	-10.641
▁помн	-10.6415
▁плана	-10.6417
льная	-10.642
ўсходня	-10.6421
▁рэдакцы	-10.6422
▁хрысціянскі	-10.6428
▁окружающе	-10.6432
алогіі	-10.6433
▁расскажу	-10.6435
▁захапіл	-10.6435
▁падзелена	-10.6437
M	-10.6438
▁дзеянне	-10.6438
зму	-10.6441
▁установ	-10.6445
P	-10.6446
▁яўленне	-10.6447
▁основном	-10.6447
ант	-10.6449
▁ўзрост	-10.6454
▁чын	-10.6455
▁граждан	-10.6455
▁брыгад	-10.646
▁пажар	-10.6462
▁страниц	-10.6463
▁Егіпта	-10.6465
▁газу	-10.6467
▁кру	-10.6471
тки	-10.648
▁Перад	-10.6485
▁находятся	-10.6485
▁аўтамабільна	-10.6487
▁дзіцячы	-10.649
▁Тры	-10.6498
▁студэнтаў	-10.6499
▁спор	-10.6501
▁разы	-10.6505
▁выступае	-10.6505
▁адмові	-10.6506
рик	-10.6516
▁начинают	-10.6518
▁Бел	-10.6524
▁произ	-10.6524
ізацы	-10.6526
▁дада	-10.653
▁700	-10.6532
▁организации	-10.6533
▁Бразіліі	-10.6534
▁Очень	-10.6534
▁злучаны	-10.6535
▁Знает	-10.6537
▁возер	-10.6537
▁делали	-10.6539
▁паказвае	-10.6544
▁предел	-10.6545
▁Швейцары	-10.6548
ера	-10.655
▁Кіеўска	-10.6553
▁дадатковы	-10.656
▁65	-10.6562
▁Божа	-10.6562
▁спрабава	-10.6564
▁возника	-10.6565
▁Дзе	-10.6572
▁дапамага	-10.658
▁вул	-10.6581
▁33	-10.6583
▁арганізава	-10.6585
▁перададзены	-10.6585
▁водны	-10.6585
нным	-10.6587
▁рассказ	-10.6589
▁навука	-10.659
▁захаваў	-10.659
▁прыйшоў	-10.6592
▁знайсц	-10.6594
▁Первы	-10.6596
▁результаты	-10.6601
▁руха	-10.6603
▁единственны	-10.6606
▁делал	-10.6608
▁магазин	-10.6609
▁Эстоні	-10.6609
▁быстрее	-10.6609
▁5-	-10.661
▁забойства	-10.6612
▁увайш	-10.6613
буд	-10.6615
настоящему	-10.6616
▁скажу	-10.6618
амёр	-10.6621
▁плот	-10.6624
▁образования	-10.6627
пом	-10.6627
▁иначе	-10.6634
▁столько	-10.6635
дор	-10.6635
▁доля	-10.664
▁партый	-10.6647
▁Мала	-10.665
говор	-10.6651
▁фінансавы	-10.6655
▁прывіле	-10.6659
▁лёгкі	-10.666
▁механізм	-10.666
▁корпуса	-10.6663
▁выток	-10.6663
▁асабісты	-10.6665
▁працягвала	-10.6668
▁Канад	-10.667
▁ресурс	-10.6671
lt	-10.6675
▁прысутніча	-10.6675
124	-10.6682
▁Вікіпеды	-10.6684
▁поддержк	-10.6684
▁паказчык	-10.6684
▁зялёны	-10.6684
▁Ку	-10.6685
▁известны	-10.6685
▁рэдкі	-10.6688
▁выдатны	-10.669
нак	-10.6691
ізму	-10.6694
стве	-10.6695
▁Цэнтральны	-10.6696
B	-10.6696
▁разниц	-10.6698
огда	-10.6702
▁выступал	-10.6708
▁мадэль	-10.671
▁смотреть	-10.671
▁дрэў	-10.671
▁виде	-10.6713
вели	-10.6724
▁показывает	-10.6725
▁слышали	-10.6726
▁вера	-10.6728
▁Потом	-10.673
▁ўзніка	-10.6732
▁Іерусалім	-10.6735
▁Займае	-10.6735
▁вучня	-10.6737
▁легенд	-10.6737
▁вне	-10.6741
шта	-10.6745
▁Заходні	-10.6746
▁пасёлка	-10.6749
▁зап	-10.6751
▁сложны	-10.6751
▁обща	-10.6753
еля	-10.6755
▁драм	-10.6756
▁реальность	-10.6758
▁сапраўдна	-10.6758
▁кризис	-10.676
▁фрагмент	-10.676
▁эміграцы	-10.6761
▁натуральны	-10.6768
▁цэнтральны	-10.6773
▁ордэнам	-10.6773
▁отец	-10.6775
▁Магілёў	-10.6777
вшие	-10.6777
▁старажытнасц	-10.6787
▁варта	-10.6794
▁памеры	-10.6798
▁занята	-10.6804
▁1950-	-10.6805
▁Асабліва	-10.6806
▁участк	-10.6808
▁слаба	-10.681
▁нос	-10.6811
▁Роберт	-10.6812
▁правінцый	-10.6812
▁секс	-10.6816
▁другу	-10.6818
▁еру	-10.6818
▁змага	-10.6822
▁складзены	-10.6822
шёл	-10.6825
▁здорово	-10.6826
чет	-10.683
верху	-10.6831
▁Маскоўскі	-10.6833
▁арганізм	-10.6833
▁рэчыв	-10.6834
▁смог	-10.6835
▁Інстытута	-10.6837
▁тюрьм	-10.6837
▁Просто	-10.6838
▁спрыял	-10.684
нная	-10.684
▁Кліма	-10.6841
▁драўляна	-10.6844
▁ран	-10.6849
▁багата	-10.6856
▁здароў	-10.6859
▁1830	-10.6859
▁маленько	-10.6863
▁падзея	-10.6864
▁рэканструкцы	-10.6865
нікі	-10.6866
▁рыба	-10.6866
▁сябрам	-10.6869
▁поведение	-10.687
▁шесть	-10.6872
▁намеснікам	-10.6874
пустил	-10.6879
▁схіла	-10.6884
▁температур	-10.6889
▁здолеў	-10.6889
▁0,5	-10.6889
▁ўсходні	-10.6891
▁памерла	-10.6895
▁залаты	-10.6896
▁істотна	-10.6897
▁мірны	-10.6898
▁палк	-10.69
▁выдадзены	-10.69
▁55	-10.6917
Йорк	-10.6918
▁будуча	-10.6919
▁главно	-10.692
▁42	-10.6922
стей	-10.6924
▁прекрасны	-10.6925
▁пуст	-10.6927
▁поверхности	-10.6927
▁метров	-10.6927
▁дизайнер	-10.6929
▁рад	-10.6931
▁балот	-10.6939
щем	-10.694
▁попросил	-10.694
▁Грыгар	-10.694
▁бальніц	-10.694
▁грэчаскі	-10.6948
▁Другі	-10.695
▁тэхнічны	-10.6952
▁ожида	-10.6953
Н	-10.6961
▁важн	-10.6963
▁Прыпяц	-10.6967
▁секунд	-10.6968
▁клеток	-10.6968
▁возвраща	-10.6968
▁Второ	-10.6969
юль	-10.6969
▁італьянска	-10.697
▁ўдзельнік	-10.6971
ограф	-10.6972
▁Рыма	-10.6973
▁клетк	-10.6973
шел	-10.6975
▁маскоўскі	-10.6979
▁верну	-10.6979
▁развитие	-10.698
▁налічвала	-10.6981
▁Прэзідэнт	-10.6987
▁провел	-10.6991
▁спадарожнік	-10.6997
▁1960-	-10.6998
СФ	-10.6998
▁папа	-10.7
вез	-10.7004
рэч	-10.7004
▁няг	-10.7009
граф	-10.701
рос	-10.7011
▁родна	-10.7013
▁знайшл	-10.7021
▁двига	-10.7026
▁масів	-10.7029
▁трав	-10.7032
ёв	-10.7032
▁начало	-10.7036
▁Лос	-10.7037
▁добры	-10.704
рен	-10.7041
вис	-10.7042
▁посмотрите	-10.7045
▁захоплены	-10.7048
▁изучени	-10.7053
▁видит	-10.7053
▁ўзбярэжж	-10.7066
▁паняцце	-10.7066
▁падпарадкаванн	-10.7067
зор	-10.707
▁архитектур	-10.7071
▁майстэрн	-10.7071
▁религи	-10.7071
▁земле	-10.7071
▁Іванавіч	-10.7072
▁святла	-10.7074
▁сможет	-10.7075
вога	-10.7075
▁выяв	-10.7076
нно	-10.7084
сен	-10.7084
ваться	-10.7087
▁раку	-10.7088
▁Чырвоны	-10.7092
▁фізічны	-10.7094
▁электрон	-10.7097
▁штук	-10.7097
▁зорка	-10.7098
▁Бераг	-10.7099
▁шука	-10.7099
▁словами	-10.71
▁сказа	-10.7101
▁арбіт	-10.7104
дро	-10.7105
▁меркава	-10.7106
▁хор	-10.711
▁перакладзе	-10.7114
мысл	-10.7114
▁дума	-10.7115
ников	-10.7118
▁Позволь	-10.7124
▁степени	-10.7124
▁вылучы	-10.7124
▁вадасховішча	-10.7125
▁высот	-10.7125
▁зрабілі	-10.7126
▁журнал	-10.713
▁сравнени	-10.7132
▁захоп	-10.7132
▁смех	-10.7136
▁Музей	-10.7136
▁дамы	-10.7137
▁большим	-10.7137
▁двара	-10.7141
▁Анд	-10.7148
▁Казахстан	-10.715
▁канцэпцы	-10.7151
▁англ	-10.7152
▁зямно	-10.7157
▁счёт	-10.7159
▁силы	-10.7162
et	-10.7166
▁вызначы	-10.7169
ску	-10.7169
▁сустрэч	-10.717
▁цікавасц	-10.717
▁будава	-10.7177
▁нашли	-10.7179
▁труд	-10.718
▁проекта	-10.7183
▁обе	-10.7186
▁Нёмана	-10.7187
▁бра	-10.7198
▁Што	-10.7203
38	-10.7205
▁правила	-10.7206
▁заметил	-10.7206
верн	-10.7209
▁поняли	-10.7209
▁сеть	-10.7214
▁пакіну	-10.7214
▁показал	-10.7215
▁фа	-10.7217
▁між	-10.7221
▁апошнім	-10.7227
‰	-10.723
▁Станіслава	-10.723
▁таком	-10.7231
▁унутраны	-10.7231
▁мужа	-10.7233
▁манархі	-10.7233
▁леса	-10.7233
▁Мае	-10.7238
▁лично	-10.7245
ходить	-10.7246
▁навучальны	-10.7247
▁осозна	-10.7249
▁стады	-10.7255
▁каналізавана	-10.7257
дом	-10.726
▁нефт	-10.726
▁сельскі	-10.7261
▁астрава	-10.7262
▁нацыянальным	-10.7263
ур	-10.7268
▁Само	-10.7268
ланд	-10.7274
▁партнёр	-10.7283
▁Удзельніча	-10.7283
▁жертв	-10.7284
▁сонца	-10.7288
гул	-10.7288
▁актив	-10.7289
▁миллиона	-10.7295
▁судна	-10.7297
▁радыё	-10.7298
▁каштоўны	-10.7299
▁суседні	-10.7302
▁становят	-10.7305
▁сол	-10.7308
▁палітычным	-10.7308
▁лічылі	-10.731
▁деревн	-10.731
▁глубоко	-10.731
▁лева	-10.7311
▁получили	-10.7312
▁хаце	-10.7315
▁уласны	-10.7319
▁Антоні	-10.732
ским	-10.7321
▁кажу	-10.7329
▁супер	-10.7334
▁штаб	-10.7334
▁Бацька	-10.7336
▁абвясціл	-10.7336
▁маленька	-10.7337
▁Жамойц	-10.7337
▁успех	-10.7338
▁системе	-10.7341
▁прымаў	-10.7341
▁черт	-10.7343
▁атрада	-10.7346
▁пашыраны	-10.7346
вання	-10.7346
ового	-10.7349
▁апарат	-10.7353
▁доказ	-10.7353
▁необходимы	-10.7361
7	-10.7364
▁Верхня	-10.7364
▁птиц	-10.7365
▁U	-10.7365
▁компания	-10.737
▁сторону	-10.7375
▁праходзя	-10.738
▁Найбольша	-10.7381
▁злучэння	-10.7382
▁1890	-10.7383
▁бацькам	-10.7386
▁Гомель	-10.7387
▁аднаўленн	-10.739
▁надзвычай	-10.7391
▁публікацы	-10.7392
▁знания	-10.7392
▁сила	-10.7402
▁пал	-10.7409
▁сцены	-10.7409
▁политически	-10.7415
▁местны	-10.7416
▁банка	-10.7417
▁пакінул	-10.7422
щая	-10.7428
▁ребёнка	-10.7428
▁чэмпіён	-10.7429
фу	-10.743
▁большинств	-10.7431
▁Усходні	-10.7432
▁Рымскі	-10.7435
▁придёт	-10.7446
▁1903	-10.7447
▁понимат	-10.7447
▁мысль	-10.7447
▁сухі	-10.745
▁асвет	-10.745
▁француз	-10.7452
▁Ди	-10.7456
▁Наш	-10.7458
▁казак	-10.7458
бро	-10.7461
▁абмен	-10.7461
▁видно	-10.7462
▁спалі	-10.7462
▁Тур	-10.7464
▁палі	-10.7467
▁Рад	-10.7468
▁38	-10.7471
▁заснавальніка	-10.7473
▁вучоб	-10.7473
▁Сярэднегадав	-10.7474
шэ	-10.7475
▁изуча	-10.7476
▁атрымліва	-10.7477
▁природы	-10.7478
▁атрыманы	-10.7483
▁построен	-10.7485
▁складана	-10.7487
▁Мяж	-10.7488
▁робот	-10.7488
▁паступі	-10.7491
▁Гу	-10.7495
▁заяв	-10.7497
▁іслам	-10.7497
▁інжынер	-10.7497
вёл	-10.7498
гна	-10.75
▁Румыні	-10.7501
▁прэс	-10.7501
▁валодае	-10.7502
▁праблема	-10.7503
▁лицо	-10.7511
▁встреча	-10.7513
кер	-10.7514
▁лидер	-10.7522
▁абласця	-10.7522
▁мама	-10.7523
щего	-10.7525
▁общем	-10.7528
▁характарызуе	-10.7528
ания	-10.7529
▁игры	-10.753
▁місі	-10.753
▁араб	-10.7533
▁пацярпел	-10.7535
▁Кніг	-10.754
▁ўчастк	-10.7541
▁лож	-10.7543
▁уяўляе	-10.7548
▁транспартны	-10.7548
▁1970-	-10.7552
▁завода	-10.7555
▁зроблена	-10.7556
▁невядомы	-10.7556
▁недахоп	-10.7556
▁адмысловы	-10.7556
▁аўтаномі	-10.7556
▁опять	-10.7556
▁Чы	-10.7562
▁Карэ	-10.7573
▁бал	-10.7574
ющихся	-10.7576
▁праграма	-10.758
▁вёў	-10.7583
чувствовать	-10.7584
▁далейша	-10.7587
▁война	-10.7591
▁паля	-10.7592
▁памяшканн	-10.7592
▁поступ	-10.7596
▁мірна	-10.7598
▁вывучэнне	-10.76
летни	-10.7605
▁вусце	-10.7605
▁взял	-10.7606
or	-10.761
▁асацыяцы	-10.7611
▁художник	-10.7611
▁Сёння	-10.7611
▁заявіў	-10.7612
▁Думаю	-10.7614
▁здабыч	-10.7616
▁сяло	-10.7619
▁никако	-10.762
вест	-10.7621
▁піса	-10.7622
▁нерв	-10.7622
▁Парыжа	-10.7622
▁ўстанов	-10.7624
нец	-10.7625
▁карал	-10.7632
▁аблог	-10.7634
▁изменени	-10.7636
▁прызна	-10.7637
▁механизм	-10.7639
▁праведзена	-10.7639
▁одновременно	-10.7639
▁голас	-10.764
▁Уз	-10.7642
▁трапіл	-10.7643
▁Лу	-10.7644
▁галіна	-10.7649
▁человеком	-10.7649
вор	-10.7657
▁прымае	-10.766
▁вызначэнн	-10.7662
▁намер	-10.7662
▁бур	-10.7663
▁маладо	-10.7666
▁угроз	-10.7667
▁адзначы	-10.7668
▁вядучы	-10.767
▁інтэр	-10.7673
▁имени	-10.7673
▁марско	-10.7675
▁падпісаў	-10.7676
▁калекцы	-10.7677
▁Рака	-10.7679
▁1500	-10.768
▁невядома	-10.7681
▁рассказал	-10.7682
▁пациент	-10.7683
▁медыцын	-10.7684
падзення	-10.7687
▁дырэктар	-10.7687
▁плато	-10.7688
дали	-10.769
▁глаз	-10.7693
▁аднайменна	-10.7695
▁езда	-10.7697
▁сучасным	-10.77
слав	-10.77
▁уласна	-10.7702
▁вывод	-10.7705
▁1902	-10.7706
▁Ці	-10.7708
▁дол	-10.7709
en	-10.771
▁Сен	-10.7711
▁заказ	-10.7712
▁жил	-10.7716
щей	-10.7716
▁распрацоў	-10.7719
▁Урад	-10.772
ющего	-10.772
▁185	-10.7722
▁конфликт	-10.7723
▁выконва	-10.7727
▁Нансен	-10.7727
▁начальніка	-10.7728
▁экс	-10.7729
▁рамана	-10.773
▁будучын	-10.7732
▁абодва	-10.7736
▁кампазітара	-10.774
▁ошибк	-10.7748
▁ракет	-10.7749
▁пришли	-10.7751
▁Брагін	-10.7753
▁адзначае	-10.7753
▁Земли	-10.7766
▁больши	-10.7769
▁мужчины	-10.777
вес	-10.7772
▁ўладам	-10.7773
▁сотн	-10.7775
▁пут	-10.7776
▁эксплуатацы	-10.7779
▁Ніжня	-10.7779
▁музыкант	-10.7779
▁изображение	-10.7779
лёт	-10.7781
▁меркаванне	-10.7783
▁квадрат	-10.7785
нок	-10.7788
▁арэн	-10.7788
эла	-10.7789
▁глобально	-10.779
нца	-10.779
▁пакалення	-10.7793
думайте	-10.7794
▁заве	-10.7795
▁імператарам	-10.7796
▁арабска	-10.7797
▁адправіў	-10.7802
▁умер	-10.7802
▁Імперы	-10.7807
▁адстаўк	-10.7809
▁друкава	-10.7813
▁устройство	-10.7814
▁Джона	-10.7814
▁органам	-10.7819
▁мил	-10.782
▁Африки	-10.7834
$	-10.7835
▁Картэс	-10.7835
▁знішчэнн	-10.7835
▁рэдактара	-10.7836
▁змест	-10.7841
нтэ	-10.7842
▁падання	-10.7843
ёл	-10.7844
▁праводзілі	-10.7847
дзел	-10.7853
▁аж	-10.7854
▁настаўнікам	-10.7857
▁мер	-10.786
▁Ан	-10.7862
▁зацверджаны	-10.7864
▁маленькі	-10.7864
▁нічо	-10.7864
▁фотография	-10.7865
▁Была	-10.7865
▁значительно	-10.7866
▁спадарожніка	-10.7871
▁Віцебску	-10.7873
▁крыві	-10.7877
▁особ	-10.7878
▁традыцыя	-10.7879
▁займала	-10.7879
енные	-10.7885
нцаў	-10.7885
▁парку	-10.7891
▁славян	-10.7892
▁Дзмітры	-10.7892
▁каледж	-10.7892
▁ўтварае	-10.7892
▁Кур	-10.7896
▁идей	-10.7897
▁выразна	-10.7898
▁авто	-10.79
▁прамо	-10.79
▁трапічны	-10.7901
▁Рус	-10.7901
▁ордэн	-10.7904
▁разб	-10.7905
▁Кры	-10.7911
▁картинк	-10.7911
▁іспанскі	-10.7915
▁институт	-10.7921
▁святар	-10.7926
▁Америке	-10.7926
▁построить	-10.7929
▁бачы	-10.7929
▁состоянии	-10.7929
дите	-10.7931
▁машина	-10.7932
▁выкананы	-10.7934
▁Рэйн	-10.7934
▁даліна	-10.7934
▁магутны	-10.794
бачыў	-10.794
сотни	-10.7946
▁правіл	-10.7948
O	-10.7948
▁потенциал	-10.7949
▁Нясвіж	-10.7949
▁пячор	-10.7949
▁бульб	-10.795
▁пастаўлены	-10.795
▁вызвалены	-10.795
▁міфалогі	-10.7953
▁открыты	-10.7955
▁роста	-10.7955
вания	-10.7956
▁гар	-10.7957
▁аўтарам	-10.7959
▁имел	-10.7961
▁обращ	-10.7963
▁Часам	-10.7964
▁Сербі	-10.7966
▁дзесяц	-10.7968
ющую	-10.797
▁кін	-10.7975
▁мастако	-10.7975
▁раскры	-10.7975
▁маштаб	-10.7978
▁Скот	-10.798
▁збудавання	-10.7983
▁прода	-10.7985
▁цягам	-10.7985
▁Ісуса	-10.7986
ложить	-10.7986
▁хран	-10.7986
▁карон	-10.7987
▁духоўны	-10.799
сси	-10.7993
▁крытыка	-10.7998
▁адрозненн	-10.7999
ологи	-10.8001
бар	-10.8002
УС	-10.8004
▁Шатланды	-10.8007
▁Віктар	-10.8007
▁кроме	-10.8007
▁Ні	-10.8008
▁архіпелаг	-10.801
▁свабодны	-10.8014
оборот	-10.8016
▁использовали	-10.802
▁нейкі	-10.8025
▁организаци	-10.8026
▁Палат	-10.8028
▁шар	-10.8028
▁ектам	-10.803
▁педагог	-10.8036
▁германскі	-10.8036
▁Дум	-10.8037
евіч	-10.8037
▁куп	-10.8038
▁будаўніцтв	-10.8045
▁мышц	-10.8045
▁руд	-10.8047
беж	-10.805
▁климата	-10.8051
▁кому	-10.8053
верить	-10.806
▁сімвалам	-10.8061
▁средства	-10.8064
▁характарыстык	-10.8065
▁кантакт	-10.8065
▁реклам	-10.8065
▁Мало	-10.8067
▁рот	-10.8071
▁захворвання	-10.8073
▁незалежны	-10.8074
суд	-10.8075
▁зрабіла	-10.8076
▁сапраўд	-10.8076
▁выданн	-10.8079
▁гурта	-10.808
▁борьб	-10.8086
▁Ни	-10.8089
рова	-10.809
▁скоро	-10.809
▁Чэмпіён	-10.8094
▁класіфікацы	-10.8094
▁падзялі	-10.8094
▁Нужн	-10.8097
▁Марк	-10.8098
▁узор	-10.81
▁далёка	-10.81
▁мечта	-10.8101
▁прайшоў	-10.8102
▁вымярэння	-10.8102
▁горна	-10.8104
▁Гар	-10.8106
▁Бачн	-10.8108
▁миллиарда	-10.8108
▁170	-10.8109
▁Мір	-10.8113
▁ўжывае	-10.8117
▁прада	-10.8119
▁Візанты	-10.8121
▁пераходзі	-10.8121
▁Видео	-10.8123
▁Тэрмін	-10.8123
▁галасаванн	-10.8123
▁словам	-10.8124
▁прафесійны	-10.8124
▁маленькие	-10.8124
ющиеся	-10.8126
▁Напалеона	-10.8127
▁Эл	-10.8127
▁фермер	-10.8131
▁захапіў	-10.8144
нікаў	-10.8147
▁любим	-10.8148
▁труб	-10.8148
▁этнічна	-10.8148
▁увайшл	-10.8149
▁Брэст	-10.8153
▁буйно	-10.8154
▁пяти	-10.8155
дав	-10.816
▁совет	-10.816
нска	-10.8163
▁создание	-10.8163
▁рабі	-10.8168
▁база	-10.817
▁любом	-10.8172
▁лацінск	-10.8175
▁Венецы	-10.8175
мір	-10.8177
▁усім	-10.818
▁ўнутр	-10.8181
▁аудитори	-10.8182
▁агент	-10.8182
▁навукоўца	-10.8185
▁Пінск	-10.8186
▁невыс	-10.8186
▁Даніі	-10.8187
▁фактар	-10.8189
ьмі	-10.8196
,6	-10.8198
▁силу	-10.82
бит	-10.82
кай	-10.8201
▁явля	-10.8205
▁хац	-10.8206
тэрытарыяльна	-10.8207
▁ВИЧ	-10.8211
▁жалеза	-10.8211
▁велики	-10.8211
▁інтарэс	-10.8219
▁Адным	-10.822
▁здание	-10.8221
▁гаспадарчы	-10.8222
цяка	-10.8224
▁Рэспублі	-10.8225
▁поделить	-10.8225
телей	-10.8227
мон	-10.8227
яўлення	-10.8228
▁узнал	-10.8228
▁аснова	-10.823
▁Віцебск	-10.823
нное	-10.823
ранейша	-10.8231
▁Балгары	-10.8233
▁лица	-10.8238
▁звярта	-10.8241
▁Пахаван	-10.8241
▁сердце	-10.8242
▁живы	-10.8243
▁принять	-10.8244
▁памера	-10.8247
▁арабскі	-10.8254
▁Сар	-10.8255
▁прыня	-10.8262
▁перада	-10.8262
вший	-10.8263
▁прызнаны	-10.8264
▁мільён	-10.8266
▁обнаружил	-10.8266
▁гіпотэз	-10.827
▁дысертацы	-10.827
▁склалі	-10.827
▁росквіт	-10.827
гон	-10.8272
бн	-10.8273
▁Ещ	-10.8277
▁лег	-10.8277
▁Перу	-10.8285
план	-10.8291
▁Джо	-10.8291
▁цяжкасц	-10.8292
▁забяспечвае	-10.8294
▁дэпартамента	-10.8297
тесь	-10.8298
▁удивительны	-10.8298
▁абвешчаны	-10.83
▁кааліцы	-10.83
▁представляет	-10.83
▁чуть	-10.8301
▁графа	-10.8304
▁современно	-10.8305
▁научны	-10.8305
чэ	-10.8308
▁прыхільнікам	-10.8309
▁вызначаны	-10.831
вое	-10.8312
▁выконвае	-10.8312
▁чыта	-10.8313
▁влияние	-10.8317
▁Мексік	-10.8317
▁1880	-10.8322
▁геном	-10.8328
▁Брытанска	-10.833
▁кухн	-10.8331
▁культуру	-10.8334
▁Джордж	-10.8336
▁очевидно	-10.8336
▁партызанска	-10.8338
▁боль	-10.8338
▁студы	-10.8347
▁дасягнуў	-10.8354
▁этнічны	-10.8356
▁ну	-10.8357
▁птушк	-10.8358
▁патрабуе	-10.8359
▁секрет	-10.8359
▁характер	-10.8359
▁страціл	-10.836
▁распрацаваны	-10.836
▁кв	-10.8361
▁времена	-10.8362
▁дэтал	-10.8362
▁радовішч	-10.837
▁создан	-10.8373
▁рэ	-10.8374
gt	-10.8377
▁тэхналогі	-10.8378
▁недалёк	-10.838
илл	-10.8381
▁ситуация	-10.8386
▁семья	-10.8388
▁драматург	-10.8389
▁заняпад	-10.839
▁сусветн	-10.8391
▁узбярэжж	-10.8391
▁какое	-10.8392
могут	-10.8393
▁снег	-10.8394
люб	-10.8397
▁буйным	-10.8397
гер	-10.8399
▁существую	-10.8403
И	-10.8405
▁Італія	-10.8408
чем	-10.8416
▁ди	-10.8419
×	-10.8419
▁здыма	-10.842
▁галактыка	-10.8422
▁ХХ	-10.8422
▁вада	-10.8424
▁R	-10.8425
▁вверх	-10.8425
▁армян	-10.8426
▁вывучае	-10.8427
▁цэлы	-10.8427
▁приводит	-10.8427
▁развіта	-10.8431
▁максімальна	-10.8433
▁вида	-10.8434
вание	-10.8445
▁полк	-10.8446
▁вяршын	-10.8446
▁законам	-10.8448
▁Китай	-10.8449
▁Удзельнік	-10.845
▁забяспечы	-10.845
▁Палац	-10.8455
▁проз	-10.8457
▁бая	-10.8458
▁палка	-10.8464
стыль	-10.8467
▁прыняцц	-10.8468
рэдка	-10.847
▁друзья	-10.8473
▁лясны	-10.8478
▁разбураны	-10.848
▁друзей	-10.848
▁Бярэзін	-10.8482
▁ЕС	-10.8483
▁ўмацаванн	-10.8484
думаете	-10.8484
▁сожалению	-10.8487
▁Час	-10.8489
▁участка	-10.849
пустить	-10.8491
▁физически	-10.8496
вел	-10.8499
▁грудз	-10.85
▁бальшавік	-10.8502
▁называют	-10.8507
▁гармат	-10.8511
▁далучэнн	-10.8513
▁мальчик	-10.8513
▁вынікам	-10.8514
▁маскоўска	-10.8515
жил	-10.8518
▁групу	-10.852
▁зямля	-10.8534
▁манастыра	-10.8535
фо	-10.8537
▁Хрыста	-10.854
▁Моцарт	-10.854
▁друкарн	-10.854
▁адмаўля	-10.854
▁фармальна	-10.8541
▁получает	-10.8541
▁адзінства	-10.8547
▁идее	-10.8548
▁разнастайнасц	-10.8562
▁страт	-10.8567
▁шум	-10.857
▁Посмотрите	-10.8571
▁піша	-10.8571
▁касает	-10.8579
▁ядра	-10.858
▁нямецкім	-10.8582
▁пайшл	-10.8584
▁ўтварэнн	-10.8585
пит	-10.8589
▁считают	-10.859
сю	-10.8599
▁геаграфічны	-10.8601
▁арыентацы	-10.8602
▁ускраін	-10.8602
z	-10.8602
▁шкод	-10.8603
▁Род	-10.861
нием	-10.8612
над	-10.8612
▁Дон	-10.8618
▁выпуск	-10.8621
дадзены	-10.8624
▁определени	-10.8629
▁расс	-10.8629
▁Пар	-10.8632
▁Арганізацы	-10.8632
▁кісларод	-10.8632
▁центре	-10.8641
▁140	-10.8642
▁бог	-10.8651
▁сначала	-10.8651
▁зарад	-10.8653
▁продолжать	-10.8656
▁канстытуцы	-10.8656
бел	-10.8661
▁смогу	-10.8662
▁Міжнародны	-10.8663
▁сонечна	-10.8663
▁недель	-10.8666
▁поиска	-10.8675
▁рэальна	-10.8684
▁фоне	-10.8684
▁10-	-10.8685
▁грамадзянскі	-10.8685
▁кажды	-10.8689
ПС	-10.869
▁школах	-10.8691
▁думали	-10.8691
▁эмоци	-10.8694
▁ўзначальва	-10.8694
▁ўзначалі	-10.8694
▁Сонечна	-10.8694
▁угодно	-10.8694
▁праціўніка	-10.87
▁назвал	-10.8704
▁Марс	-10.8709
вил	-10.8711
сцю	-10.8714
▁паказаў	-10.8719
▁змяніў	-10.872
нить	-10.8721
▁наверное	-10.8725
▁Злучаны	-10.8725
▁слайд	-10.8726
▁20-	-10.8738
▁запис	-10.874
вым	-10.8743
тур	-10.8744
▁1870	-10.8744
▁куб	-10.8747
▁современны	-10.8748
▁дэмакраты	-10.8749
▁Такі	-10.8753
▁назірання	-10.8753
▁агн	-10.8754
▁Ганна	-10.8756
▁Магчыма	-10.8756
▁ахопліва	-10.8756
▁змяненн	-10.8756
▁ланцуг	-10.8756
▁Магілёв	-10.8756
▁испытыва	-10.8756
▁вярхоў	-10.8756
▁микро	-10.8757
▁использует	-10.8757
▁заву	-10.8758
▁миллиард	-10.8758
▁фактически	-10.8759
вно	-10.8759
▁хатні	-10.876
▁доктар	-10.8765
it	-10.8769
▁доўжы	-10.8769
▁создаёт	-10.8772
▁объяснит	-10.8772
▁бака	-10.8778
ница	-10.8779
віцэ	-10.878
▁валас	-10.878
▁Ордэна	-10.8782
▁целом	-10.8782
▁вопыт	-10.8783
▁Акцябрскі	-10.8784
▁Кра	-10.8785
▁калон	-10.8786
пярэд	-10.8787
▁аппарат	-10.8787
▁практик	-10.8787
▁сэрца	-10.8787
▁представление	-10.8788
▁распаўсюдзі	-10.8788
▁пытаемся	-10.8789
▁чака	-10.879
▁глубин	-10.879
▁мясцовым	-10.879
▁літара	-10.8791
▁основны	-10.8792
▁трапіў	-10.8797
▁поток	-10.8801
▁Европе	-10.8806
тивно	-10.8806
▁Казіміра	-10.8807
▁маст	-10.8807
▁Раман	-10.8816
▁надпіс	-10.8817
аўрэат	-10.8818
▁объём	-10.8818
▁вал	-10.8819
▁змог	-10.882
▁матчы	-10.882
▁рассказыва	-10.8824
▁десятк	-10.8826
▁пункту	-10.8828
▁прызначэнн	-10.8836
▁выкліка	-10.8838
клон	-10.8846
▁екты	-10.8846
▁немагчыма	-10.8847
▁мирово	-10.8848
▁аўтаномна	-10.885
▁родители	-10.885
▁сённяшні	-10.885
▁праводзя	-10.885
▁рэспубліканска	-10.885
▁власти	-10.885
▁голову	-10.8853
▁ранее	-10.8855
▁барок	-10.8855
▁умоў	-10.8867
▁часова	-10.8868
▁34	-10.8871
▁выказаў	-10.8873
▁змешчаны	-10.8881
▁президент	-10.8881
▁транспорт	-10.8881
▁робя	-10.8881
▁груз	-10.8881
▁Балтыйска	-10.8882
▁Асноўным	-10.8884
▁перадаў	-10.8887
▁магістра	-10.8888
жать	-10.889
▁павялічы	-10.889
▁рабілі	-10.8894
озера	-10.8896
▁Марса	-10.8899
▁растени	-10.89
▁болезнь	-10.8902
▁каталога	-10.8902
▁проблемой	-10.8905
▁37	-10.8907
▁Ал	-10.8911
▁Інданезі	-10.8913
▁малекул	-10.8913
▁экспарт	-10.8913
▁недостаточно	-10.8913
▁фрон	-10.8914
▁труп	-10.8915
▁нібы	-10.8917
▁сухо	-10.8918
▁случая	-10.8918
▁счастлив	-10.8922
▁делаю	-10.8923
▁Штата	-10.8923
нными	-10.8924
▁ваша	-10.8928
под	-10.893
▁Французска	-10.8932
▁асяроддз	-10.8934
камі	-10.8934
▁механік	-10.8939
▁забіў	-10.894
▁мужчынска	-10.8943
▁выпраменьванн	-10.8944
▁кантракт	-10.8944
▁сімвалізу	-10.8944
▁условия	-10.8946
▁манах	-10.8946
▁правительства	-10.8947
▁недо	-10.895
▁навуков	-10.8953
▁крама	-10.8956
▁любовь	-10.8959
▁шырокім	-10.8959
▁электрычны	-10.8961
▁сведча	-10.8963
▁виды	-10.8963
▁Шыр	-10.8963
▁Смаленск	-10.8966
E	-10.8966
▁крам	-10.8967
▁Под	-10.8968
▁Ша	-10.8968
▁рэч	-10.8976
▁забалочаны	-10.8976
▁цвёрды	-10.8976
▁произойд	-10.8978
▁Частка	-10.898
▁заниматься	-10.8982
▁выкладчык	-10.8982
▁работали	-10.8985
▁бацькоў	-10.8987
▁искусств	-10.8988
▁длин	-10.8988
▁фарміравання	-10.8989
▁малюнка	-10.8991
▁набыва	-10.8995
▁абсалютна	-10.8996
▁Рэч	-10.8999
ехать	-10.9
▁Сучасны	-10.9
эст	-10.9004
▁Літоўскі	-10.9008
▁здолел	-10.9008
▁рос	-10.901
▁живёт	-10.901
▁Сіры	-10.9011
▁пастанов	-10.9011
▁существовани	-10.9014
▁Где	-10.9016
▁мысленн	-10.902
▁Полацк	-10.9021
рел	-10.9028
▁сапраўдны	-10.903
▁искусства	-10.9033
▁капитал	-10.9035
,9	-10.9035
▁Сва	-10.9036
▁Ген	-10.9038
▁ўжыванн	-10.9038
▁цяперашня	-10.904
▁Югаславі	-10.904
▁широко	-10.904
▁возможностей	-10.9041
▁стагоддзе	-10.9042
▁аднаві	-10.9046
▁океана	-10.9049
▁получается	-10.9049
фар	-10.9055
▁ветр	-10.9056
имся	-10.9061
▁доступны	-10.9061
цев	-10.9063
▁чыгунка	-10.9065
▁лечения	-10.9067
▁фасад	-10.9068
▁утвораны	-10.907
▁Трэця	-10.9072
▁Большинство	-10.9072
▁рэгулярна	-10.9072
▁віленскі	-10.9072
▁бярэ	-10.9072
▁экономически	-10.9073
▁клет	-10.9076
ежу	-10.9077
▁изобретен	-10.9077
▁факультэта	-10.9078
▁сустрэ	-10.908
▁шчыт	-10.9086
▁огромны	-10.9093
▁палёт	-10.9095
▁захоўваю	-10.9096
▁рашэнн	-10.9099
▁книгу	-10.9104
▁процессе	-10.9104
▁Старажытна	-10.9104
▁малодшы	-10.9104
▁рэпрэсі	-10.9104
▁пакрыты	-10.9104
▁получают	-10.9104
▁Вышын	-10.9105
▁хвалі	-10.9105
▁артыст	-10.9105
▁десяти	-10.9106
▁километров	-10.9109
▁прызнача	-10.911
▁інстыту	-10.912
▁Ленінград	-10.9121
▁НК	-10.9124
▁грамадств	-10.9127
▁прыйшло	-10.913
▁Гл	-10.9134
енный	-10.9135
▁Вашынгтон	-10.9136
▁паражэнне	-10.9136
▁чалавецтв	-10.9136
▁Свабод	-10.9136
▁паступа	-10.9136
▁неделю	-10.9137
льга	-10.9137
▁апавядання	-10.9138
▁ферм	-10.9141
оўка	-10.9143
▁Марка	-10.9143
▁папулярна	-10.9144
▁пясчаны	-10.9147
▁забот	-10.9148
▁оценк	-10.9148
▁Віленскі	-10.9152
▁1860	-10.9157
▁искусство	-10.9161
▁отношени	-10.9167
▁00	-10.9168
▁навакольна	-10.9169
▁вільготны	-10.9169
▁кітайска	-10.9169
▁каменна	-10.9169
▁рынка	-10.9172
▁мужчина	-10.918
▁использование	-10.918
▁обществе	-10.9182
▁Міхаіла	-10.9182
гне	-10.9183
жаны	-10.9185
▁всеми	-10.9187
▁Юр	-10.9189
▁поўны	-10.9191
▁спа	-10.9195
▁условиях	-10.9199
▁дуб	-10.92
▁перакладчык	-10.9201
▁текст	-10.9202
▁Тэ	-10.9203
▁связан	-10.9204
▁сыр	-10.9204
▁змена	-10.9205
ніцы	-10.9206
бил	-10.9208
▁Кітай	-10.9209
▁операци	-10.921
▁прыбыў	-10.9213
▁слабы	-10.9214
готов	-10.9216
▁попыта	-10.9216
8	-10.9216
овал	-10.9216
▁мол	-10.9217
▁гімн	-10.9218
зву	-10.9224
▁камісія	-10.9226
▁публіцыст	-10.9231
▁появля	-10.9232
▁Благодар	-10.9234
▁выкапн	-10.9234
▁посмотрел	-10.9234
дан	-10.9234
▁распаду	-10.9234
▁ледз	-10.9234
▁племя	-10.9236
андаль	-10.9236
▁турызм	-10.9241
▁состав	-10.9241
▁Мор	-10.9242
▁последствия	-10.9244
▁Нас	-10.9252
душ	-10.9257
енных	-10.9259
▁187	-10.9259
йтесь	-10.9264
▁тлумачэнн	-10.9266
▁ўзаемадзеянн	-10.9266
▁живём	-10.9267
▁общи	-10.9276
▁отдел	-10.9277
▁навучанне	-10.9277
▁апісвае	-10.9277
▁злучэнн	-10.9279
▁змяняе	-10.9285
пры	-10.9294
▁момента	-10.9295
▁буйнейшы	-10.9299
▁кампанент	-10.9299
▁Чорны	-10.9299
▁ўладальнік	-10.93
▁моем	-10.93
▁позже	-10.93
шей	-10.9302
▁участие	-10.9308
верю	-10.931
▁Карал	-10.931
▁Казімір	-10.9311
▁балота	-10.9321
▁130	-10.9324
▁дарога	-10.9324
▁занялі	-10.9326
▁паказал	-10.933
▁Канады	-10.9331
▁Працягл	-10.9332
▁детям	-10.9332
▁страціў	-10.9332
▁інтэнсіўна	-10.9332
▁ацэньва	-10.9332
▁научно	-10.9335
▁богат	-10.9336
▁сацыялістычна	-10.9336
▁выступі	-10.9336
насці	-10.9339
▁асуджаны	-10.934
▁аказала	-10.934
▁расце	-10.9343
▁пациентов	-10.9348
▁создани	-10.9349
▁абараня	-10.9352
▁радио	-10.9356
▁паселішч	-10.9357
прост	-10.936
▁класічны	-10.936
кру	-10.9361
▁чувствовал	-10.9361
альная	-10.9363
,4	-10.9364
▁&#	-10.9364
▁зняволенн	-10.9365
▁рымлян	-10.9365
▁жаночы	-10.9365
▁команд	-10.9366
▁ўдар	-10.9366
▁гол	-10.9367
▁Рада	-10.9367
▁Менск	-10.9372
ации	-10.9374
▁абавязкова	-10.9374
НК	-10.9375
▁здравоохранения	-10.9377
▁рэзідэнцыя	-10.9383
▁ясно	-10.9384
▁морам	-10.9385
▁магіл	-10.9388
▁дасягнення	-10.9391
▁замечательно	-10.9394
▁кош	-10.9394
▁вадаёма	-10.9397
▁информация	-10.9398
▁расстояни	-10.9398
▁самолёт	-10.94
льше	-10.9407
▁згод	-10.9408
▁праваслаў	-10.9411
▁будете	-10.9413
▁абласно	-10.9417
▁бор	-10.9419
▁вызначана	-10.9422
▁яўрэйскі	-10.9422
▁чалавечы	-10.9425
▁сможете	-10.9426
▁Васіл	-10.9428
▁кантрол	-10.9428
▁любі	-10.9428
▁Вярхоўны	-10.9431
▁внимания	-10.9431
▁символ	-10.9431
▁супрацоўніча	-10.9431
▁Генеральна	-10.9432
▁невялікім	-10.9433
▁зброя	-10.9433
шки	-10.9433
▁лекцы	-10.9434
v	-10.9435
▁далучыў	-10.9435
несены	-10.9436
▁белым	-10.9437
ющими	-10.9437
▁любимы	-10.9437
вторы	-10.9438
▁сильны	-10.9439
▁общественно	-10.9439
▁прыма	-10.944
▁малюнк	-10.9441
▁паляк	-10.9454
▁полюса	-10.9461
▁пачаткова	-10.9461
▁сена	-10.9463
▁Свяшчэнна	-10.9465
▁сігнал	-10.9465
▁Франс	-10.9465
кол	-10.9468
▁змяня	-10.9474
▁желание	-10.9474
▁Будын	-10.9474
▁Стр	-10.9474
▁истин	-10.9476
▁мастацтв	-10.9477
▁Эдвард	-10.9478
пс	-10.9483
▁дасягну	-10.9492
ань	-10.9492
▁прама	-10.9495
▁прогресс	-10.9498
▁галактик	-10.9498
▁Кожны	-10.9498
▁земляробства	-10.9499
удаўніцтва	-10.9499
▁чувства	-10.9502
▁скал	-10.9503
▁помогает	-10.9504
▁беспоко	-10.9508
▁занятк	-10.9511
▁пользу	-10.9516
▁выбра	-10.9517
▁думает	-10.9518
▁актыўнасц	-10.9519
▁реальны	-10.9521
▁звыча	-10.9529
▁настольк	-10.953
▁Сярэднявечч	-10.9532
▁розум	-10.9532
цер	-10.9535
▁Бер	-10.9536
▁Швецыя	-10.9539
▁пашырэнн	-10.9544
▁адкры	-10.9548
▁Юпітэра	-10.9549
▁медыцынскі	-10.9553
▁довери	-10.9554
▁действительност	-10.9557
▁метады	-10.956
овіч	-10.9561
▁прытрымліва	-10.9565
▁дысцыплін	-10.9565
▁епархі	-10.9565
▁зависит	-10.9565
▁услуг	-10.9565
▁ваенн	-10.9565
▁обучения	-10.9566
▁парень	-10.9566
▁спыні	-10.9571
цця	-10.9572
▁определить	-10.9573
▁стаіц	-10.9573
ётся	-10.9575
▁напісанн	-10.9581
овали	-10.9583
▁рэчышч	-10.9586
▁Раён	-10.9588
▁назірае	-10.9593
▁магчымы	-10.9594
▁ворага	-10.9596
▁кандыдат	-10.9598
▁Далей	-10.9601
▁Савецкі	-10.9602
чки	-10.9602
▁фабрыка	-10.9602
▁заня	-10.9602
▁праводзіў	-10.9603
▁задума	-10.9603
▁дарослы	-10.9604
▁прынесл	-10.9605
дала	-10.9607
▁доктор	-10.9608
казам	-10.9609
дти	-10.9612
▁исход	-10.9612
▁архітэктурны	-10.9613
▁інструмент	-10.9624
▁дыяметр	-10.9625
ниц	-10.9625
▁навуча	-10.9625
является	-10.963
оцен	-10.9631
лик	-10.9631
▁тыдня	-10.9632
▁вред	-10.9633
▁навакольны	-10.9633
▁камеды	-10.9633
▁прастол	-10.9633
▁расположен	-10.9633
▁покрыва	-10.9634
▁ўтварэння	-10.9634
▁ўспамін	-10.9636
▁Рэй	-10.9638
▁земли	-10.9638
▁распрацоўк	-10.9641
▁выказва	-10.9642
▁творча	-10.9643
▁паверхня	-10.9644
▁вайсковы	-10.9648
▁усходня	-10.9651
вядзення	-10.9651
З	-10.9654
▁электронны	-10.9654
▁вольны	-10.9656
вается	-10.966
▁шасці	-10.9661
Йорке	-10.9663
▁лекарства	-10.9665
▁арышт	-10.9667
▁космос	-10.9667
▁узначальва	-10.9667
▁карьер	-10.9667
шоў	-10.9668
▁Жыгімонт	-10.9669
торая	-10.967
тора	-10.9671
▁птушка	-10.9674
▁Кіпр	-10.9674
▁мнени	-10.9675
▁страна	-10.9678
▁автор	-10.9679
▁Універсітэт	-10.9685
▁галерэ	-10.9687
▁создают	-10.9691
▁тавар	-10.9691
чок	-10.9692
▁кост	-10.9694
КП	-10.9694
▁камандзір	-10.9695
▁играть	-10.9697
▁Зеланды	-10.9701
▁перайменаван	-10.9701
▁працягвалі	-10.9702
▁электрычна	-10.9702
▁надвор	-10.9706
▁меркавання	-10.9706
▁улиц	-10.9712
▁швед	-10.9716
▁понимание	-10.9719
▁целью	-10.9721
лл	-10.9721
▁Re	-10.9724
▁Важн	-10.9725
▁расту	-10.9726
▁небольши	-10.973
▁ядро	-10.973
▁Літаратур	-10.9735
▁дэлегацы	-10.9735
▁ребёнок	-10.9736
▁абслугоўванн	-10.9736
▁чыста	-10.9737
▁геаграфічна	-10.9738
пре	-10.9738
▁праяв	-10.9738
изма	-10.9738
▁бако	-10.9739
▁пліт	-10.9742
купить	-10.9743
▁Кастрычніцка	-10.9744
▁Франц	-10.9744
таки	-10.9746
▁общественны	-10.9747
▁апрацоўк	-10.9748
▁масс	-10.9749
▁фінал	-10.9749
▁значным	-10.975
▁понимаю	-10.9753
▁выраша	-10.9756
дна	-10.9759
▁верно	-10.976
▁всём	-10.9768
изации	-10.9769
▁достичь	-10.977
▁цвёрда	-10.977
▁собак	-10.9771
▁прыналежнасц	-10.9771
абель	-10.9772
▁сукупнасц	-10.9773
рг	-10.9775
▁Аўгуст	-10.9776
▁Ноўгарад	-10.9778
▁стаял	-10.978
▁студентов	-10.978
▁доста	-10.9782
▁істот	-10.9786
▁изменение	-10.979
▁адлюстроўвае	-10.9791
▁Лук	-10.9791
▁Тако	-10.9792
▁180	-10.9794
▁Слуцка	-10.9794
▁традыцый	-10.9795
гуляў	-10.9796
▁рэвалюцыйна	-10.9796
▁зімо	-10.9797
▁вполне	-10.9798
▁машину	-10.9803
▁тэлебачанн	-10.9804
▁етнам	-10.9804
▁выснов	-10.9804
▁относительно	-10.9805
▁здоровье	-10.9805
▁высок	-10.9805
▁аддзялення	-10.9806
▁генеральны	-10.9806
▁Герб	-10.9806
▁сним	-10.9807
дают	-10.9808
▁Астрав	-10.9812
▁вперёд	-10.9813
▁ван	-10.9814
▁сумм	-10.9815
▁бомб	-10.9816
▁статут	-10.9819
▁уваг	-10.9822
▁получи	-10.9823
▁кары	-10.9824
▁выявы	-10.9831
▁ужас	-10.9832
щик	-10.9833
▁адмен	-10.9833
▁вагон	-10.9838
▁ўзыходжанн	-10.9839
▁ўніверсітэц	-10.9839
▁адмыслова	-10.9839
▁млын	-10.9839
▁бед	-10.9842
▁мянушк	-10.9842
▁пазнаёміў	-10.9842
▁Колас	-10.9842
▁откуда	-10.9843
ческ	-10.9847
▁загадчык	-10.985
▁паліцы	-10.9852
▁Бен	-10.9855
▁сказаў	-10.9857
▁чуж	-10.9857
▁напо	-10.9859
▁герцаг	-10.986
▁функцыя	-10.9861
▁астраном	-10.9861
▁Антон	-10.987
анты	-10.9871
▁даследава	-10.9872
▁Размешчана	-10.9873
▁абмежавана	-10.9873
▁интеллект	-10.9874
▁абапіра	-10.9874
▁тэндэнцы	-10.9874
▁ядна	-10.9875
▁ўклад	-10.9875
▁ляса	-10.9882
▁Адраджэнн	-10.9883
огласно	-10.9889
▁выглядел	-10.989
▁крупны	-10.9899
▁мозгу	-10.9899
▁количества	-10.99
эс	-10.99
▁пагадненне	-10.9901
▁Вільню	-10.9901
▁здабы	-10.9901
▁Канстанцін	-10.9904
w	-10.9905
▁кукуруз	-10.9908
▁рэферэндум	-10.9908
▁гадз	-10.991
онны	-10.9912
▁рэлігія	-10.9919
ur	-10.9919
▁гімна	-10.9926
▁убедить	-10.9929
▁Ганн	-10.9931
▁прэмія	-10.9936
▁возраста	-10.9937
▁савецкім	-10.9937
T	-10.9937
▁ужасно	-10.9938
▁лесам	-10.9938
▁Суд	-10.994
▁калегі	-10.9943
▁6-	-10.9943
выш	-10.9946
▁фізі	-10.9948
▁методы	-10.9948
▁городе	-10.9953
▁нужда	-10.9955
альным	-10.9961
▁філасофскі	-10.9966
▁песню	-10.9967
▁техник	-10.9968
ремен	-10.997
▁спрабавал	-10.9971
▁глін	-10.9971
пала	-10.9975
▁пасла	-10.9978
▁ансамбл	-10.9979
▁гарнізон	-10.9979
▁старэйша	-10.9979
▁федэральна	-10.9979
▁паранены	-10.9979
▁применени	-10.9979
▁спин	-10.9979
▁конца	-10.998
▁вось	-10.9981
▁выяўлена	-10.9983
▁выкарыстоўваў	-10.9988
▁имеем	-10.9989
▁прысутнасц	-10.9995
▁использовал	-10.9997
▁Аўстрыя	-11.0001
▁Лета	-11.0004
▁інтарэса	-11.0005
▁сообщества	-11.0006
▁Нідэрланд	-11.0008
▁d	-11.0009
ивши	-11.001
▁губернатара	-11.001
▁групоўк	-11.0011
другому	-11.0012
▁паліты	-11.0012
▁Станіслаў	-11.0014
▁адноўлены	-11.0014
▁инфраструктур	-11.0014
▁парафі	-11.0014
▁чаще	-11.0014
▁ярус	-11.0015
грамм	-11.0017
▁секунду	-11.0018
▁карабл	-11.0019
▁самі	-11.002
▁непо	-11.0021
▁абраз	-11.0022
▁особенност	-11.0023
▁спроба	-11.0024
▁дваццац	-11.0024
▁происходя	-11.0027
▁узяў	-11.003
піл	-11.0034
▁полі	-11.0034
▁Жы	-11.0034
▁папярэдня	-11.0038
is	-11.0041
▁начальнік	-11.0042
▁спектакл	-11.0049
▁выбора	-11.005
▁падатк	-11.0057
▁велізарны	-11.0057
▁абаронца	-11.0059
▁рубл	-11.006
▁экспедыцыя	-11.0062
ходим	-11.0065
▁отлично	-11.0067
▁выеха	-11.0068
▁зал	-11.0069
могло	-11.0071
▁прыкмет	-11.0072
▁жанчына	-11.0072
▁счастливы	-11.0074
▁рускім	-11.0077
▁Слова	-11.0082
,2	-11.0083
▁Вікторы	-11.0085
▁ліквідацы	-11.0085
▁самакіраванн	-11.0085
▁the	-11.0085
▁Эн	-11.0085
▁пойма	-11.0087
▁Амундсен	-11.0089
▁верси	-11.0089
▁состояние	-11.0089
узел	-11.009
▁85	-11.009
▁суть	-11.0091
▁моц	-11.0091
▁мечт	-11.0092
▁Гер	-11.0098
▁жорстка	-11.0098
▁собираю	-11.01
▁Мес	-11.0101
▁Вільгельм	-11.0102
оф	-11.0108
▁Пока	-11.011
лез	-11.0111
▁ўдзельнічал	-11.0113
▁обмен	-11.0113
▁забарон	-11.0116
▁пациента	-11.0117
▁летні	-11.0117
валіся	-11.0119
▁выконваў	-11.012
▁Касцюшк	-11.012
▁абвяшчэнн	-11.012
▁штучны	-11.012
▁выбух	-11.0121
▁Ірак	-11.0122
▁прызнаў	-11.0134
▁замечательны	-11.0137
▁Вільня	-11.0137
▁пищ	-11.0139
▁СП	-11.0139
▁Сенат	-11.0141
учиться	-11.0144
чкой	-11.015
▁собрать	-11.015
▁K	-11.0151
▁39	-11.0153
два	-11.0153
▁яднана	-11.0154
▁ХІ	-11.0154
▁намаляваны	-11.0156
▁позволил	-11.0156
▁колледж	-11.0156
▁прыгажосц	-11.0156
▁СМИ	-11.0156
▁футбольны	-11.0157
▁заняла	-11.0158
▁параз	-11.0159
▁скрыжаванн	-11.0161
▁Ліг	-11.0161
▁паралельн	-11.0161
▁Кен	-11.0164
▁Малы	-11.0169
▁твар	-11.0169
▁сілам	-11.0174
▁Вайн	-11.0174
▁насіл	-11.0174
▁науки	-11.0175
▁лічба	-11.0176
▁арх	-11.0184
▁ідэалогі	-11.0186
▁какая	-11.0189
▁азначэнн	-11.0192
▁знайшоў	-11.0192
▁взрыв	-11.0192
▁зялёна	-11.0192
▁жоўты	-11.0192
▁недели	-11.0193
АТА	-11.0193
▁самастойны	-11.0193
искать	-11.0197
сенню	-11.02
▁здабыча	-11.0202
▁прысвечана	-11.0203
▁Фрыдрых	-11.0203
▁книг	-11.0205
▁Вітаўт	-11.021
▁Стэфана	-11.0212
▁хуткім	-11.0213
▁журналист	-11.0215
тара	-11.0218
▁правадыр	-11.022
▁помога	-11.0221
▁Ваш	-11.0222
▁производства	-11.0224
▁вашем	-11.0227
▁Сацыялістычна	-11.0227
▁Еўрабачанн	-11.0228
▁гандлёва	-11.0228
▁спалуча	-11.0228
▁алтар	-11.0229
▁будущего	-11.0229
▁паўстал	-11.0229
R	-11.0232
▁стату	-11.0236
адні	-11.0236
іка	-11.0237
▁універсітэт	-11.0237
▁педагагічны	-11.0239
▁стадыён	-11.0239
▁Галі	-11.0243
▁устройства	-11.0247
▁43	-11.0248
▁звярнуў	-11.025
▁перанос	-11.025
▁цэркв	-11.0251
▁усили	-11.0251
▁развівае	-11.0252
адварот	-11.0253
▁человечества	-11.0259
▁свядомасц	-11.0264
▁Грэ	-11.0265
▁праекц	-11.0265
▁Нідэрланда	-11.0269
▁1,2	-11.027
▁берагав	-11.0273
▁языка	-11.0276
▁коллег	-11.0276
▁аўтобус	-11.0276
▁медыцынска	-11.0277
,	-11.0284
▁гмін	-11.0286
▁просьб	-11.0286
кая	-11.0291
▁реакци	-11.0293
▁служа	-11.0295
▁артылеры	-11.0297
▁расти	-11.0306
▁Карол	-11.031
пас	-11.0311
▁занимает	-11.0313
▁краі	-11.0317
▁апісанне	-11.0321
▁караблё	-11.0323
▁высоки	-11.0323
▁Ціха	-11.0324
▁Янк	-11.0324
▁абло	-11.0325
▁абарончы	-11.0326
▁раўніна	-11.0328
▁заходнім	-11.0333
▁Алжыр	-11.0336
▁Заслужан	-11.0336
▁ўтрыманн	-11.0337
▁определённы	-11.0342
▁мур	-11.0342
▁стади	-11.0343
▁рэгістрацы	-11.0343
▁адзінк	-11.0344
▁свецка	-11.0344
▁перамов	-11.0346
▁Без	-11.0348
▁двумя	-11.035
▁мін	-11.035
▁прад	-11.0351
даваў	-11.0351
▁польск	-11.0352
▁Міс	-11.0352
▁Альп	-11.0352
▁гаспадара	-11.0353
▁согласи	-11.0362
▁факты	-11.0372
▁Кангрэс	-11.0373
▁адноўлена	-11.0373
Вт	-11.0373
▁временем	-11.0373
▁чаму	-11.0375
▁адпачынк	-11.0376
▁Кіеў	-11.0376
▁провести	-11.0379
ворот	-11.038
▁мінска	-11.0382
была	-11.0384
▁44	-11.0388
▁сфера	-11.0394
▁выбраны	-11.0397
▁далучы	-11.0397
▁восен	-11.0404
▁мать	-11.0405
гры	-11.0405
▁выклікае	-11.0405
оўскі	-11.0408
▁алгоритм	-11.0409
▁очередь	-11.0409
▁офис	-11.041
▁Беласток	-11.041
вые	-11.0411
▁сабраны	-11.0412
ори	-11.0412
▁Уільям	-11.0413
▁рабоча	-11.0414
▁своем	-11.0418
▁Южно	-11.0421
▁экономическо	-11.0422
▁аўтамабільны	-11.0425
▁Земл	-11.0425
▁предлага	-11.0426
▁розна	-11.0427
and	-11.0433
▁сітуацыя	-11.0437
▁кров	-11.0442
▁сложност	-11.0442
▁исп	-11.0442
▁переход	-11.0444
▁філіял	-11.0446
▁прысвоен	-11.0446
▁далучаны	-11.0447
▁рынок	-11.0448
▁пространства	-11.0448
▁возраст	-11.045
▁кантона	-11.0451
▁пача	-11.0451
▁звязва	-11.0452
▁дзвюм	-11.0453
▁гал	-11.0456
▁бакавы	-11.0457
▁усходні	-11.0459
▁лячэнн	-11.0461
энд	-11.0462
▁шведскі	-11.0465
▁хава	-11.0466
▁аўстрыйскі	-11.0469
▁АЭС	-11.047
▁Гродзенскі	-11.047
▁развива	-11.0471
▁Прац	-11.0473
▁матч	-11.0478
лікі	-11.0481
▁изображения	-11.0484
▁карысны	-11.0485
▁матэрыяльна	-11.0486
▁снимк	-11.0488
жить	-11.049
▁строга	-11.049
▁дзяўчын	-11.049
▁Кір	-11.0494
▁Слуцк	-11.0495
▁Хар	-11.0495
▁написан	-11.0499
▁Віцебскі	-11.0501
▁настаўніцк	-11.0504
▁пик	-11.0507
▁ніякі	-11.0508
▁нового	-11.051
▁простым	-11.0514
▁целе	-11.0514
▁аўта	-11.0515
▁открыва	-11.0517
льнай	-11.0518
▁дава	-11.0519
▁многим	-11.052
▁цесна	-11.052
▁перыядычна	-11.052
▁красот	-11.052
▁хуже	-11.0521
▁вяду	-11.0522
▁панаванн	-11.0522
▁ваявод	-11.0526
▁тканін	-11.0527
НД	-11.0527
▁адраджэнн	-11.0529
▁ро	-11.0531
▁систем	-11.0537
▁чацвёрты	-11.0537
▁формул	-11.054
▁Ін	-11.0546
наты	-11.0549
▁остава	-11.0556
▁поколение	-11.0557
▁Стакгольм	-11.0557
▁патэнцыял	-11.0557
▁вакцин	-11.0557
▁углерод	-11.0558
▁Кроме	-11.0558
▁тавары	-11.0561
▁шведска	-11.0562
щую	-11.0567
кага	-11.0568
▁размяшчэнн	-11.0568
▁Бра	-11.0569
▁герцага	-11.057
▁работаем	-11.0572
▁семей	-11.0581
▁спін	-11.0583
▁сялянскі	-11.0585
▁48	-11.0593
▁Старажытны	-11.0595
▁Бавары	-11.0595
▁пастаянны	-11.0595
▁баланс	-11.0595
▁Святы	-11.0596
▁разглядае	-11.0596
бежать	-11.0598
▁доктара	-11.0599
▁фаз	-11.0601
▁странно	-11.0603
▁случа	-11.0606
▁жела	-11.0609
▁Европ	-11.061
▁ваявода	-11.0613
▁аўтадарог	-11.0614
▁Цар	-11.0614
▁руск	-11.0616
▁памерам	-11.0617
летне	-11.062
▁документ	-11.0626
ячэ	-11.0627
▁расліна	-11.0628
▁знешні	-11.0629
▁сцёк	-11.0632
▁эвалюцы	-11.0632
▁працоўна	-11.0633
▁падраздзяленн	-11.0633
▁Жан	-11.0633
▁галоў	-11.0633
▁сла	-11.0633
▁архітэктара	-11.0635
ніцтва	-11.0638
▁пришёл	-11.0639
▁Часта	-11.0642
0	-11.0642
▁обеспечени	-11.0643
▁рэвалюцыйны	-11.0646
заходні	-11.0648
▁случай	-11.0649
▁Запад	-11.0655
▁кватэр	-11.0655
▁1840	-11.0656
▁сумес	-11.0656
брос	-11.066
доўга	-11.0661
▁первым	-11.0662
▁миллионы	-11.0665
▁Перамог	-11.067
▁запаведнік	-11.067
▁спартыўны	-11.067
▁ўстаноўлен	-11.067
▁скасаваны	-11.0672
▁двигаться	-11.0674
▁Вайніловіч	-11.0676
ніца	-11.0677
итесь	-11.0681
▁Канстытуцыя	-11.0683
▁Еўрапейскі	-11.0687
дол	-11.0688
▁хвост	-11.0691
▁пако	-11.0694
▁партызанскі	-11.0696
▁Апошня	-11.0707
▁велосипед	-11.0707
▁закрыты	-11.0708
▁дадаткова	-11.0711
▁подверг	-11.0713
▁имя	-11.0717
▁валют	-11.0718
▁Выступа	-11.0719
▁ранейшы	-11.0721
▁частиц	-11.0722
▁ёзна	-11.0723
▁здзейсніў	-11.0726
▁Нёман	-11.0731
▁абмежаваны	-11.0736
▁вадо	-11.0738
▁пяск	-11.0739
▁поколения	-11.074
▁мінскі	-11.0742
▁дэмакратычна	-11.0743
▁геаграфі	-11.0743
▁баі	-11.0743
▁перспектив	-11.0745
▁сыравін	-11.0745
▁получаем	-11.0745
▁суддз	-11.075
▁абарані	-11.0751
▁суадносін	-11.0751
▁пространстве	-11.0751
▁оказывает	-11.0752
▁фарміраванне	-11.0753
▁Кол	-11.0754
▁крыжа	-11.0755
губернатар	-11.0763
▁давно	-11.0764
▁Захад	-11.0764
▁вясн	-11.0764
гадова	-11.0768
▁8-	-11.0769
▁змяніла	-11.0772
▁Чере	-11.0773
▁56	-11.0774
▁слышал	-11.0776
▁брам	-11.0777
▁дизайна	-11.0777
▁зло	-11.0777
▁компаний	-11.0783
▁рэгіянальны	-11.0783
▁гармон	-11.0784
▁Райт	-11.0789
▁Белы	-11.0791
▁літаратура	-11.0791
▁совместно	-11.0792
▁знакам	-11.0793
▁поверхность	-11.0794
ДР	-11.0795
▁верніка	-11.0798
▁примеров	-11.08
▁плям	-11.0805
▁славянска	-11.0812
▁Майкл	-11.0816
шкі	-11.0817
▁коп	-11.0818
▁заснавал	-11.0821
▁Меркуры	-11.0822
▁канчатковы	-11.0822
▁ўзброены	-11.0822
▁хлоп	-11.0822
▁прэзідэнцкі	-11.0822
▁возрасте	-11.0822
▁жыло	-11.0822
▁каса	-11.0825
▁варот	-11.0825
▁графства	-11.083
▁чытанн	-11.083
▁называў	-11.0833
▁дата	-11.0833
ирование	-11.0833
родак	-11.0834
▁каралев	-11.0838
▁павялічвае	-11.0845
▁распрацава	-11.0846
▁апор	-11.0853
▁Інстытут	-11.0853
▁сектар	-11.0853
▁Ране	-11.0855
▁распаўсюджванн	-11.0856
рал	-11.0859
▁штучна	-11.086
▁каралева	-11.0861
▁хворы	-11.0862
▁дваранства	-11.0862
туль	-11.0863
▁Дзейніча	-11.0866
▁валоданне	-11.0867
▁аналіз	-11.0868
▁БА	-11.0868
▁Рыг	-11.0874
▁ток	-11.0874
▁Зараз	-11.0875
▁гарадск	-11.088
▁Наши	-11.0881
▁реальност	-11.0883
▁потер	-11.0884
▁слыш	-11.0886
▁клетка	-11.0891
▁Францыск	-11.0892
хожу	-11.0892
▁ваенным	-11.0895
▁Луі	-11.0896
▁Аршанскі	-11.0898
▁Проблем	-11.0898
▁воображени	-11.0898
▁эффективны	-11.0898
▁Прэм	-11.0899
▁сердца	-11.09
▁вселенной	-11.0901
▁спява	-11.0902
▁встретил	-11.0902
▁выброс	-11.0903
▁рек	-11.0907
▁дазваляю	-11.0907
конт	-11.091
▁95	-11.0911
▁выключ	-11.0912
▁пароды	-11.0914
▁1850	-11.0917
▁арэал	-11.0917
▁рэжысёр	-11.0917
▁пражывал	-11.0917
▁взяли	-11.092
наешь	-11.092
анцы	-11.092
▁пашырэнне	-11.0923
▁Соф	-11.0926
▁карта	-11.0927
▁турэцка	-11.093
▁захоўва	-11.093
▁программу	-11.093
▁ўзнікненн	-11.0932
▁пита	-11.0934
▁новости	-11.0935
▁Атлантычна	-11.0937
▁агляд	-11.0937
▁павышэнн	-11.0937
▁пакрыта	-11.0937
▁взрослы	-11.0937
▁естественно	-11.0939
▁Люб	-11.0939
▁тракт	-11.0945
▁адказнасц	-11.0947
▁вызвал	-11.0947
▁усю	-11.0947
▁ощущение	-11.0949
овай	-11.095
▁выкарыстаны	-11.0955
▁правило	-11.0957
▁ситуацию	-11.0957
▁люб	-11.0959
▁команда	-11.0959
▁пыл	-11.0961
▁Склада	-11.0963
▁памяшкання	-11.0963
▁Хойні	-11.0965
▁печ	-11.0968
ve	-11.0972
▁Афганістан	-11.0976
▁Нептун	-11.0976
▁представь	-11.0976
▁мобильны	-11.0976
▁понятия	-11.0976
▁антычна	-11.0976
▁стимул	-11.0976
▁будуч	-11.0978
▁ёзны	-11.0978
▁шляхецка	-11.098
айстар	-11.098
la	-11.0984
▁камер	-11.0984
▁Марок	-11.0986
▁каталог	-11.0989
▁дзяцінства	-11.0989
▁паспяховы	-11.0992
▁уласнасц	-11.0992
ическа	-11.0994
▁начинае	-11.0996
▁Дан	-11.0998
▁руча	-11.1
▁Выда	-11.1002
уют	-11.1005
▁меншы	-11.1008
▁Генрых	-11.1008
▁хваля	-11.1009
▁прыкладам	-11.101
▁прост	-11.1012
▁шч	-11.1012
▁Евангелл	-11.1015
▁падпарадкоўва	-11.1015
▁заслуг	-11.1015
▁J	-11.1016
▁заказнік	-11.1016
▁правял	-11.1016
▁сталы	-11.1017
▁дороги	-11.1021
▁інструмента	-11.1025
▁Адной	-11.1026
▁перевод	-11.1031
▁Іспанія	-11.1033
▁изучать	-11.1034
▁ўстанова	-11.1036
▁уласцівасц	-11.1036
частью	-11.1039
▁Перво	-11.1041
▁будь	-11.1042
▁юрыдычны	-11.1044
▁ўзнагарод	-11.1046
есс	-11.1047
▁сусветны	-11.105
▁сакратаро	-11.1052
▁защищ	-11.1053
▁Афіцыйна	-11.1054
▁автомобиль	-11.1054
▁пераварот	-11.1054
▁эпідэмі	-11.1054
▁Малдов	-11.1054
▁мінула	-11.1054
▁яркі	-11.1054
▁Дэмакратычна	-11.1054
▁сидел	-11.1055
▁ніяк	-11.1057
думают	-11.1058
вый	-11.106
▁никаки	-11.1063
▁працяглы	-11.1064
▁мінерал	-11.1076
▁слуша	-11.1085
▁авіяцы	-11.1088
▁паліва	-11.1092
▁арганізавана	-11.1092
▁Македоні	-11.1093
▁трагеды	-11.1093
▁Атрымаў	-11.1093
▁заболевания	-11.1093
▁Іран	-11.1099
▁сядзібна	-11.1102
▁главны	-11.1102
▁жыво	-11.1102
▁Сусвет	-11.1113
▁ресурсов	-11.1114
▁фінансава	-11.1115
тельный	-11.1115
▁жив	-11.1116
▁спрэчк	-11.1117
▁рачны	-11.112
▁калонія	-11.1121
▁загінула	-11.1124
▁Уладзісла	-11.1125
▁Фларэнцы	-11.1132
▁кітайскі	-11.1132
▁Багдановіч	-11.1132
▁арганічны	-11.1132
▁нормально	-11.1134
▁пушч	-11.1134
▁заняти	-11.1135
▁бел	-11.1136
льной	-11.1137
▁Чем	-11.1139
▁камандзіра	-11.1139
шек	-11.114
▁падтрымліваў	-11.1141
▁носіц	-11.1141
▁спе	-11.1143
▁Японія	-11.1144
▁Орш	-11.1148
▁выявіў	-11.1152
казаў	-11.1152
▁1886	-11.1153
▁110	-11.1153
▁сцвярджае	-11.1157
магла	-11.1161
▁супада	-11.1162
▁лист	-11.1164
▁Філіп	-11.1166
▁фірм	-11.1169
▁следующе	-11.117
▁перашкод	-11.1171
▁літаральна	-11.1172
▁прапаганд	-11.1172
▁Сувора	-11.1172
▁определённо	-11.1173
▁курган	-11.1174
▁Сабор	-11.1174
▁Боле	-11.1176
▁кажа	-11.1176
us	-11.1177
▁номер	-11.1179
▁убежден	-11.1182
▁читать	-11.1183
▁прамы	-11.1184
▁служыл	-11.1186
▁име	-11.1189
▁вулкан	-11.1192
▁анг	-11.1192
▁управлять	-11.1192
▁любя	-11.1193
▁валодал	-11.1194
▁палова	-11.1196
▁комплексу	-11.1199
▁заметит	-11.12
▁моцным	-11.1201
▁японскі	-11.1203
▁Міністра	-11.1205
крас	-11.1206
▁глыбокі	-11.1208
▁паўплывал	-11.1211
▁Свіслач	-11.1211
▁параўнальна	-11.1211
▁Каралеўска	-11.1211
▁появилась	-11.1214
▁Генрыха	-11.1215
▁Бабруйска	-11.1216
▁ўяўленн	-11.1217
▁эксперымент	-11.122
▁спросит	-11.122
▁кірун	-11.122
▁атмосфер	-11.1223
ліва	-11.1224
▁накіравана	-11.1225
▁параметр	-11.1225
▁Камен	-11.1225
▁Сатурна	-11.1226
▁университет	-11.123
▁побед	-11.123
▁Чырвон	-11.123
▁жорсткі	-11.1238
▁буйна	-11.124
▁Герман	-11.124
▁французскім	-11.1242
▁аналізу	-11.1243
▁палітычн	-11.1245
▁фотограф	-11.1249
▁считать	-11.1249
▁праграму	-11.125
▁мяркую	-11.1251
▁аднайменны	-11.1251
▁происходил	-11.1251
▁разнавіднасц	-11.1251
▁утварае	-11.1251
▁федэрацы	-11.1251
▁сущност	-11.1251
▁Чарльз	-11.1251
іста	-11.1252
▁события	-11.1252
▁мэр	-11.1253
▁станаві	-11.1254
▁конец	-11.1259
работать	-11.1263
▁красны	-11.1264
▁атама	-11.1267
▁дырэктарам	-11.1269
▁полици	-11.1272
▁тонкі	-11.1272
▁3000	-11.1272
▁серьёзно	-11.1273
▁становішч	-11.1275
▁рэчаіснасц	-11.1275
▁лиш	-11.1279
▁представлен	-11.128
▁окруж	-11.1281
▁закліка	-11.1288
▁феадал	-11.129
▁ими	-11.129
▁микроб	-11.1291
▁повторя	-11.1291
▁позня	-11.1291
▁рассмотре	-11.1292
▁здоровья	-11.1292
▁грыб	-11.1293
▁везде	-11.1293
▁линии	-11.1294
▁сваяк	-11.1296
▁выглядеть	-11.1297
▁Максім	-11.1298
ните	-11.1299
▁практы	-11.13
▁власть	-11.13
▁элементам	-11.13
▁принимать	-11.13
▁ўваход	-11.1304
▁3,5	-11.1306
▁Вене	-11.1306
▁Ягайла	-11.1308
▁растения	-11.1308
▁тэхнічна	-11.1309
▁Названа	-11.1311
▁способом	-11.1318
▁район	-11.1318
▁вайскова	-11.1319
верх	-11.132
4	-11.1322
▁акул	-11.1326
▁расійскім	-11.1326
▁пахавання	-11.133
▁Лондон	-11.1331
▁Найбуйнейшы	-11.1331
▁Палесцін	-11.1331
▁класіцызм	-11.1331
▁Кіраўнік	-11.1331
▁бялк	-11.1331
▁племен	-11.1333
▁выкананне	-11.1333
▁любв	-11.1333
▁ноги	-11.1335
▁следующем	-11.1336
▁продолжа	-11.1339
▁вольна	-11.1339
▁вести	-11.1344
▁самалёт	-11.1345
▁остров	-11.1347
тическо	-11.1347
оўвае	-11.1349
▁чэмпіяна	-11.135
▁наву	-11.1354
▁стратеги	-11.1355
сад	-11.1359
▁найважнейшы	-11.136
▁порядке	-11.1363
▁еха	-11.1367
▁комнат	-11.1367
ic	-11.1369
▁собираем	-11.137
▁паказваю	-11.1371
▁камуністычна	-11.1372
▁можешь	-11.1372
▁непадалёк	-11.1372
▁знакаміта	-11.1372
▁зборніка	-11.1372
amp	-11.1372
▁успеха	-11.1373
▁46	-11.1374
▁дэмакратычны	-11.1377
ндар	-11.1378
▁1888	-11.1381
▁самім	-11.1387
▁Сапега	-11.1387
рэшт	-11.1388
▁культурным	-11.1389
ленд	-11.1393
▁многое	-11.1398
▁аграгарад	-11.1398
▁дайшл	-11.1399
стой	-11.1399
▁Ісус	-11.1401
рода	-11.1402
▁пісьм	-11.1403
▁квадратны	-11.1403
▁веды	-11.1404
таражытнагрэчаск	-11.1405
▁княств	-11.1406
▁представител	-11.1407
▁звон	-11.1409
вак	-11.1409
арты	-11.141
U	-11.1411
▁Афганистан	-11.1412
▁ганаровы	-11.1412
▁чрезвычайно	-11.1412
▁плохи	-11.1412
▁сегодняшни	-11.1412
▁американски	-11.1413
▁учителя	-11.1414
▁фундаментальны	-11.1414
▁унутрана	-11.1414
▁часця	-11.1415
▁пунктам	-11.1419
▁Інстыту	-11.142
▁знішчаны	-11.1421
▁наблюдать	-11.1427
▁Хан	-11.1428
▁вызов	-11.1428
альный	-11.1434
▁паўста	-11.1435
▁Сапег	-11.1437
▁64	-11.1441
▁пашыра	-11.1445
▁переста	-11.1445
▁подобное	-11.1453
▁гістарыяграфі	-11.1453
▁найбуйнейша	-11.1453
▁рэстаўрацы	-11.1453
▁чвэрц	-11.1453
▁прогноз	-11.1453
▁ўведзена	-11.1453
▁Месяца	-11.1453
▁крок	-11.1453
▁адклад	-11.1455
▁круглы	-11.1455
▁выгод	-11.1458
▁каком	-11.1463
▁Перш	-11.1463
▁программа	-11.1464
▁спецыяльнасц	-11.1465
▁касмічны	-11.147
▁350	-11.1471
гуле	-11.1471
▁рэзідэнцы	-11.1472
▁Перв	-11.1473
▁Кіев	-11.1477
стыя	-11.1478
▁плава	-11.1478
▁связаны	-11.1479
альд	-11.1481
▁помнит	-11.1484
свет	-11.1484
▁Том	-11.1486
▁парка	-11.1488
▁Людовік	-11.1492
▁Мярку	-11.1494
▁Петраград	-11.1494
▁спыненн	-11.1494
▁Ватыкан	-11.1494
▁влияет	-11.1494
▁Оскар	-11.1494
▁вонкавы	-11.1494
▁c	-11.1495
▁баб	-11.1497
▁падпісанн	-11.1498
▁управления	-11.1498
▁важное	-11.1499
▁зразуме	-11.1499
▁179	-11.1503
▁папер	-11.1507
▁лиц	-11.1509
▁рассматрива	-11.1509
▁спалучэнн	-11.151
▁асобін	-11.151
▁размаўля	-11.1512
▁зрител	-11.1512
▁турыста	-11.1516
▁выдавецтва	-11.1521
▁скуры	-11.1523
▁собран	-11.1523
▁выпад	-11.1524
▁пралі	-11.1524
▁восем	-11.1525
▁ўсходнім	-11.1527
▁жизнью	-11.153
▁залів	-11.1534
▁Галоўным	-11.1534
▁акупант	-11.1535
▁рэалізацы	-11.1535
▁соверша	-11.1535
▁цёмны	-11.1535
▁сабак	-11.1535
▁цэла	-11.1538
▁канфедэрацы	-11.1539
▁фасада	-11.1539
▁падпісаны	-11.1542
адно	-11.1545
▁падземны	-11.1546
▁тэрмінам	-11.1548
▁наука	-11.1554
▁працягну	-11.1558
▁столкну	-11.1559
▁правах	-11.156
▁чисто	-11.156
▁асобным	-11.1562
▁смотрите	-11.1564
▁паток	-11.157
▁ўтрымліва	-11.157
~	-11.1576
▁Аршанска	-11.1576
▁размеркаванн	-11.1576
▁выслан	-11.1576
▁выдатк	-11.1577
▁днём	-11.1577
▁машынабудаванн	-11.1577
▁полезны	-11.1578
▁отношение	-11.1584
▁гарадам	-11.1585
лени	-11.1587
▁пяхот	-11.1587
▁Венер	-11.159
▁паняцця	-11.1593
▁связанны	-11.1594
▁единственно	-11.1607
▁улице	-11.161
▁Вселенн	-11.1614
▁Тем	-11.1615
ложения	-11.1616
▁сушы	-11.1617
▁пазбаві	-11.1617
▁Фердынанд	-11.1617
▁галосны	-11.1617
▁детьми	-11.1617
▁клиент	-11.1617
▁Яўген	-11.1617
▁сонечны	-11.1617
▁сектор	-11.1617
▁віленска	-11.1617
▁животные	-11.1618
▁отдельны	-11.1619
▁регион	-11.1625
▁добро	-11.1625
овут	-11.1628
▁кампани	-11.163
▁чырвоным	-11.1632
авая	-11.1632
▁размера	-11.1633
▁ўласнасц	-11.1634
▁вырабля	-11.1635
▁хоть	-11.1636
▁пласты	-11.1637
помнить	-11.1643
▁радовішча	-11.1645
▁манарха	-11.165
▁афіцыйным	-11.165
▁Аўстра	-11.1651
▁случаев	-11.1651
▁качества	-11.1652
,7	-11.1656
▁Вол	-11.1657
▁городов	-11.1658
▁знойдзена	-11.1659
▁обезьян	-11.1659
▁режим	-11.1659
▁заўважы	-11.1659
▁адрас	-11.1663
▁вкус	-11.1664
▁дни	-11.1665
▁бою	-11.1666
▁вырашана	-11.1669
▁цвета	-11.1678
▁усталяваны	-11.168
▁асаблівы	-11.168
▁Пере	-11.1681
▁семье	-11.1682
ia	-11.1683
▁стрэл	-11.1684
▁продолжает	-11.1692
▁фактор	-11.1695
▁позици	-11.1696
▁потребител	-11.17
▁духавенства	-11.17
▁тагачасна	-11.17
▁учёные	-11.17
▁хирург	-11.17
▁інтэлігенцы	-11.17
▁Героя	-11.1701
▁дзясятк	-11.1704
неслі	-11.1704
▁повсюду	-11.1705
▁дзіцяча	-11.1705
▁открыт	-11.1706
▁дасяга	-11.1707
▁привести	-11.171
▁Востра	-11.1711
▁сбор	-11.1717
▁выступления	-11.172
▁эканоміц	-11.1721
▁сделано	-11.173
▁падрыхтоў	-11.1733
▁японска	-11.1734
▁отправ	-11.1735
▁проходит	-11.1735
РП	-11.174
зны	-11.174
▁эффективно	-11.1742
▁Мюнхен	-11.1742
▁описыва	-11.1742
▁направлении	-11.1742
▁Бітв	-11.1743
▁понимал	-11.1743
▁наличи	-11.1743
▁гавора	-11.1744
▁жыла	-11.1745
▁ярка	-11.1747
▁среду	-11.1748
▁сельско	-11.1753
▁Афін	-11.1753
▁школьны	-11.1753
▁рэальны	-11.1753
▁Лін	-11.1754
▁каран	-11.1754
▁паветраны	-11.1755
▁Мои	-11.1755
▁малюн	-11.1755
▁пераехал	-11.1755
▁разработал	-11.1757
▁педагагічна	-11.1758
▁сделае	-11.176
мог	-11.1761
▁яўрэ	-11.1762
▁навукоўцы	-11.1766
▁способности	-11.1767
▁утра	-11.1767
▁забіл	-11.177
▁ацэнк	-11.1778
▁разговарива	-11.1779
02	-11.1779
▁книга	-11.178
пир	-11.1782
▁Северно	-11.1783
▁Чэхаславакі	-11.1784
▁числа	-11.1784
▁сквоз	-11.1784
▁вызвалі	-11.1785
▁востры	-11.1786
▁выдатна	-11.1787
▁Тар	-11.1788
▁раскол	-11.1789
▁Генры	-11.179
▁Рамана	-11.1791
▁провер	-11.1794
волю	-11.1794
▁900	-11.1798
▁паўвостра	-11.1798
▁Сафі	-11.18
▁стоимость	-11.18
чил	-11.1809
▁дыр	-11.181
▁задні	-11.1819
▁плод	-11.1825
бал	-11.1826
▁Томас	-11.1826
▁Выкарыстоўва	-11.1826
▁Тэўтонск	-11.1826
▁Яраслаў	-11.1826
▁цивилизаци	-11.1826
▁коробк	-11.1826
▁родителей	-11.1826
▁Армені	-11.1826
▁приехал	-11.1827
▁полацкі	-11.1827
▁прафесійна	-11.1828
▁выстаўк	-11.1829
▁спосабам	-11.1829
▁Груп	-11.183
▁52	-11.1832
▁сюд	-11.1832
▁конечном	-11.1838
▁навуковым	-11.1838
▁дзелі	-11.1841
платить	-11.1841
▁Англія	-11.1842
реш	-11.1843
▁хороший	-11.1844
▁Урал	-11.1847
▁политическо	-11.1853
▁Індыйск	-11.1853
моўна	-11.1855
▁пасёлк	-11.1856
▁май	-11.1857
▁турк	-11.1859
▁навык	-11.1861
чан	-11.1861
▁следующее	-11.1865
▁спаборніцтва	-11.1865
▁афіцэр	-11.1865
▁фабрык	-11.1866
больш	-11.1867
▁абмяжоўва	-11.1869
▁пейзаж	-11.1869
▁статистик	-11.1869
▁табліц	-11.1869
▁указ	-11.1873
▁матэрыяльны	-11.1873
▁дакладнасц	-11.1874
▁желез	-11.1877
▁запісаў	-11.1879
▁бюро	-11.1879
▁угол	-11.1881
▁суп	-11.1881
▁наведва	-11.1882
▁сябра	-11.1885
▁драўляным	-11.1886
▁Георгі	-11.1887
▁дне	-11.1888
▁облак	-11.1888
▁ваколіц	-11.1888
оставить	-11.1896
▁выступіл	-11.1897
▁кангрэс	-11.1897
▁альбома	-11.1899
▁скрыт	-11.1906
▁публічна	-11.1909
▁Ваўкавыск	-11.1911
▁континент	-11.1911
▁появлени	-11.1911
▁Кракав	-11.1911
скажем	-11.1912
▁учитыва	-11.1912
▁поводу	-11.1913
▁Хотя	-11.1913
▁Людовіка	-11.1913
▁осознал	-11.1916
▁сельск	-11.1917
▁остально	-11.1918
▁дыск	-11.1918
▁абароне	-11.1919
▁писать	-11.192
▁вяртае	-11.192
▁Утворан	-11.1924
▁хороша	-11.1924
▁пражыванн	-11.1925
▁среде	-11.1926
▁паўвострав	-11.1929
ызацы	-11.1931
▁Вынік	-11.1935
▁вясно	-11.1936
▁лодк	-11.1938
▁достиг	-11.1938
▁пагроз	-11.1938
смяротна	-11.1939
▁нарадзіла	-11.1939
сер	-11.194
давать	-11.1941
▁меншасц	-11.1944
▁находить	-11.1944
▁раскопк	-11.1946
▁рыхтава	-11.1947
▁богаты	-11.1948
▁Віл	-11.1949
▁куч	-11.1952
▁Бур	-11.1952
▁ліг	-11.1954
▁Калінкаві	-11.1954
▁аргумент	-11.1954
▁динозавр	-11.1954
▁придумал	-11.1954
▁халодны	-11.1954
▁Фрэйд	-11.1954
▁багін	-11.1954
▁звёзд	-11.1954
▁Планк	-11.1954
▁население	-11.1954
▁мінеральны	-11.1955
▁охран	-11.1956
▁Прыкладна	-11.1959
▁дакладны	-11.1963
▁превращ	-11.1965
▁процесса	-11.1968
▁цикл	-11.1968
▁прадстаўнікам	-11.1969
▁99	-11.1969
▁показыва	-11.1972
▁благо	-11.1972
▁вс	-11.1972
▁камбінат	-11.1972
▁позволя	-11.1972
▁Стаў	-11.1978
▁прыпада	-11.1981
▁охот	-11.1985
▁паляка	-11.1985
▁вылучае	-11.1985
▁дыпламатычны	-11.1988
▁вероятность	-11.1992
▁бачны	-11.1993
▁вадкасц	-11.1994
▁узнали	-11.1994
▁луг	-11.1995
▁Бор	-11.1995
▁воспринима	-11.1995
тава	-11.1997
▁ядзерна	-11.1997
▁ўзбраенн	-11.1997
▁бяроз	-11.1997
▁працягла	-11.1997
▁слава	-11.2
▁Палеска	-11.2001
▁творчески	-11.2001
▁организация	-11.2001
▁афіцэра	-11.2001
▁мнение	-11.2002
▁девочка	-11.2005
▁развити	-11.2006
▁палавы	-11.2008
▁настоящее	-11.2009
▁Дру	-11.2012
▁аперацыя	-11.2013
▁ваганн	-11.2014
▁ФР	-11.2015
рэдк	-11.2019
зон	-11.2023
▁Далін	-11.2023
▁Турцыя	-11.2027
▁торгов	-11.2028
▁Кацярын	-11.2033
▁суполк	-11.2034
▁Новага	-11.2034
▁объясн	-11.2039
▁Шэкспір	-11.204
▁деревья	-11.204
▁мяркуе	-11.204
▁пацвердзі	-11.204
▁стромкі	-11.204
▁индустри	-11.204
▁украінскі	-11.2041
▁паэтычны	-11.2042
▁красивы	-11.2042
▁Паходзі	-11.2042
▁ішл	-11.2042
▁зліцц	-11.2043
▁почв	-11.2046
▁Ірана	-11.2047
▁рэвалюцыя	-11.205
▁учиться	-11.2051
▁Вільнюс	-11.2053
▁спыніла	-11.2055
▁знакомы	-11.2059
▁лечение	-11.206
▁направлен	-11.2061
▁закончил	-11.2068
▁нізіна	-11.2068
▁відавочна	-11.2071
▁лікам	-11.2072
▁рэчы	-11.2072
▁пазнача	-11.2073
▁выраст	-11.2075
▁60-	-11.2077
▁конц	-11.2083
▁Оказывает	-11.2083
▁Брытані	-11.2083
▁поможет	-11.2083
▁распараджэнн	-11.2083
▁халодна	-11.2083
▁Верагодн	-11.2083
▁обязан	-11.2083
▁душы	-11.2083
▁бронзавы	-11.2084
▁узяты	-11.2084
▁прызнал	-11.2084
▁Ніжні	-11.2085
▁радыус	-11.2086
дня	-11.2086
▁Прусія	-11.2086
▁узбярэжжа	-11.2089
адта	-11.2093
▁карабля	-11.2094
▁танца	-11.2095
▁паданн	-11.2097
▁Краін	-11.2099
▁живо	-11.2102
▁брал	-11.2105
▁стэп	-11.2106
▁уладання	-11.2108
▁рок	-11.2109
▁ужыва	-11.211
▁абіра	-11.211
▁невероятны	-11.211
▁букв	-11.2113
▁атрымліваю	-11.2114
щу	-11.2115
▁вершин	-11.2118
▁вечер	-11.2119
▁бліжэй	-11.2124
▁прыцягва	-11.2127
▁Каліфорні	-11.2127
▁ажыццяўленн	-11.2127
▁философ	-11.2127
▁обратить	-11.2127
▁вонкава	-11.2127
▁пагадзі	-11.2128
▁0,2	-11.2128
▁прыеха	-11.2128
▁герцагства	-11.213
▁тэксты	-11.2133
▁Ігар	-11.2133
▁Уладзіслава	-11.2135
▁особо	-11.2139
▁паляванн	-11.2147
▁вучэнне	-11.2147
▁47	-11.2148
▁Дуб	-11.215
▁хлеб	-11.2152
▁потрясающе	-11.2153
▁зычны	-11.2153
исты	-11.2154
▁губернатар	-11.2154
нять	-11.2157
▁дзесяцігоддз	-11.2161
▁эксперыментальн	-11.2161
▁кот	-11.2162
иц	-11.2165
▁дала	-11.2166
▁водой	-11.2166
▁сделала	-11.217
▁падвярга	-11.217
▁прадставі	-11.217
▁канцэнтрацы	-11.217
▁цёплы	-11.217
▁ўздзеянн	-11.217
▁Юзаф	-11.2171
▁кантынента	-11.2171
▁склікання	-11.2171
▁найбол	-11.2172
▁аднаўленне	-11.2174
віц	-11.2176
▁Адама	-11.2177
▁глуп	-11.218
▁градус	-11.2182
▁фінанса	-11.2183
▁арганізатара	-11.2189
L	-11.2192
▁інфармацыя	-11.2193
▁заканадаўчы	-11.2194
▁погляды	-11.2195
▁называлас	-11.2201
▁дало	-11.2202
▁выканаўц	-11.2206
▁получал	-11.2206
▁Антарктыд	-11.2213
▁мужчынскі	-11.2214
ó	-11.2214
▁Афіцыйны	-11.2214
▁псіхалогі	-11.2214
▁штурм	-11.2214
▁ўспрыма	-11.2214
▁рабіў	-11.2215
▁палажэнн	-11.2215
▁лідарам	-11.2217
▁прафесара	-11.2218
▁цифрово	-11.2218
▁алфавіт	-11.2218
▁ПАР	-11.222
▁Валын	-11.2222
▁пачатковы	-11.2222
▁знаком	-11.2223
▁падрыхтава	-11.2225
▁падкрэсліва	-11.2226
▁Гол	-11.2229
▁разуменн	-11.2233
▁Вышэйша	-11.2235
▁далі	-11.2235
▁ўплыва	-11.2235
▁сямі	-11.2237
вялі	-11.2237
эль	-11.2238
▁1700	-11.2242
▁дому	-11.2244
▁Сучасна	-11.2245
▁основани	-11.2249
▁мацерык	-11.2249
▁одни	-11.2254
▁приложени	-11.2256
▁персанаж	-11.2256
▁германска	-11.2258
▁список	-11.2258
▁услышал	-11.2258
▁Пашыран	-11.2258
▁мусор	-11.2258
▁сет	-11.2259
▁Фонд	-11.2259
лінейна	-11.2259
ow	-11.226
министр	-11.226
середине	-11.2262
▁Канстанціна	-11.2263
▁выступление	-11.227
▁прыбытк	-11.227
▁прызнанне	-11.227
▁свеж	-11.2274
▁препод	-11.2275
▁Максіма	-11.2279
▁насчёт	-11.2279
▁накіраваў	-11.2279
▁Льв	-11.2279
▁пасло	-11.229
▁судова	-11.229
▁полны	-11.2293
жели	-11.2295
жка	-11.2295
▁шы	-11.2297
▁шчыльна	-11.23
▁адзначыў	-11.23
▁традици	-11.2302
▁калектыв	-11.2302
▁Наступны	-11.2303
▁Тадэвуш	-11.2303
▁ўкраінска	-11.2303
▁мураваны	-11.2303
▁узнагароджаны	-11.2303
▁предоставля	-11.2303
▁обучение	-11.2303
▁чацвёрта	-11.2304
▁ліста	-11.2304
▁моста	-11.2305
▁манер	-11.2308
▁Прамо	-11.2309
монт	-11.2313
ойти	-11.2315
▁град	-11.2315
▁пришла	-11.2317
▁Вас	-11.2319
▁падае	-11.232
▁распрацавана	-11.232
▁Китае	-11.2323
▁экране	-11.2325
▁меняет	-11.2327
▁Ягайл	-11.2329
▁пазнейшы	-11.233
▁дадат	-11.233
▁показали	-11.2334
▁получени	-11.2337
▁Брун	-11.234
▁нараджэнн	-11.234
▁сяр	-11.2342
▁забудов	-11.2344
▁апарата	-11.2345
▁прымалі	-11.2345
▁обязательно	-11.2347
▁специально	-11.2347
▁столь	-11.2347
▁термин	-11.2347
▁область	-11.2347
▁меліярацыйны	-11.2348
▁вярта	-11.2348
▁металічны	-11.2349
рид	-11.2349
▁ошиб	-11.2349
▁секцы	-11.235
отен	-11.2351
▁ацэн	-11.2353
▁рыса	-11.2353
▁базы	-11.2355
▁становя	-11.2358
▁хими	-11.2361
▁веке	-11.2364
▁лабараторы	-11.2365
▁пяты	-11.2365
ирования	-11.2369
▁крыты	-11.237
▁сан	-11.237
▁49	-11.2373
▁афарбоўк	-11.2376
▁выдае	-11.2376
▁лац	-11.2376
▁распространя	-11.2379
▁разрабатыва	-11.2386
▁студент	-11.2386
▁Камуністычна	-11.2388
▁появил	-11.2391
▁Прадпрыемств	-11.2392
▁дэкаратыўны	-11.2392
▁прымяненн	-11.2392
▁ўкраінскі	-11.2392
▁Камісі	-11.2392
▁адлюстрава	-11.2392
▁маршал	-11.2394
вернуты	-11.2396
▁мяня	-11.2399
▁третье	-11.2401
Э	-11.2401
▁провод	-11.2402
▁показывают	-11.2403
▁сведчанн	-11.2403
страты	-11.2404
▁80-	-11.2404
▁образц	-11.241
▁сустрака	-11.2412
▁нуля	-11.2413
▁Барыс	-11.2415
▁гарачы	-11.2421
▁тэатральна	-11.2421
▁меркаванн	-11.2425
▁гадзіннік	-11.2426
▁паставіў	-11.2434
▁директор	-11.2437
▁сфармава	-11.2437
▁четырёх	-11.2437
▁англічан	-11.2437
▁составляет	-11.2437
▁зависимости	-11.2437
▁Польскі	-11.2437
▁прадукты	-11.2437
▁тэарэтычна	-11.2437
▁націск	-11.2438
▁ответственность	-11.2439
▁багацце	-11.2439
▁владе	-11.2442
▁выбрать	-11.2442
▁камуна	-11.2445
▁считает	-11.2447
▁кольц	-11.2449
▁адс	-11.245
▁пагаднення	-11.2455
▁рын	-11.2456
кос	-11.2457
▁умны	-11.2458
▁нему	-11.2458
▁стреми	-11.2459
▁строи	-11.2459
▁медицин	-11.2463
▁аказаў	-11.2463
▁данном	-11.2464
▁міністэрства	-11.2465
▁полёт	-11.2473
▁паверх	-11.2474
▁камеры	-11.2476
щение	-11.2476
▁украінска	-11.2482
▁Парламент	-11.2482
▁таўшчын	-11.2482
▁жалезны	-11.2482
▁вперед	-11.2482
▁карэнны	-11.2482
▁двое	-11.2483
▁открыл	-11.2489
▁Эд	-11.249
▁средни	-11.249
▁прызначана	-11.2491
▁істотны	-11.2493
▁писал	-11.2496
▁Пабудаван	-11.2499
▁дэпутатам	-11.2499
▁пальц	-11.2507
▁здабыва	-11.2511
▁задачу	-11.2512
▁движени	-11.2513
▁глобальны	-11.2516
▁качество	-11.2517
▁заканадаўства	-11.2522
▁Полацкі	-11.2524
▁неправильно	-11.2527
▁пазбаўлены	-11.2527
▁понимаем	-11.2527
▁прыцягненн	-11.2527
▁1891	-11.2527
▁палярны	-11.2527
▁еўра	-11.2528
▁Кракаў	-11.2528
гранич	-11.2528
▁тэрытарыяльны	-11.2528
▁ляжа	-11.2529
▁остаёт	-11.253
истов	-11.2531
▁копі	-11.2531
▁языке	-11.2532
▁Драгічынскі	-11.2537
▁баяр	-11.2538
▁КН	-11.2542
▁цэрква	-11.2543
▁заключан	-11.2544
▁сродкам	-11.2544
▁крыш	-11.2546
▁рэальнасц	-11.2547
▁шкал	-11.2554
▁апавяданн	-11.2556
▁рис	-11.2556
▁шести	-11.2556
МС	-11.2558
▁правядзенне	-11.2558
▁Музе	-11.2559
▁Рос	-11.2561
▁получится	-11.2566
▁танк	-11.2568
▁Франк	-11.2569
▁крыжак	-11.257
▁актрыса	-11.257
делить	-11.2572
▁Грамадзянска	-11.2572
▁контакт	-11.2572
▁скажет	-11.2572
▁аўтарытэт	-11.2572
▁Гвіне	-11.2572
▁магнітна	-11.2572
▁геаметры	-11.2573
нас	-11.2573
▁Заходн	-11.2577
▁Ньютан	-11.2578
▁Твор	-11.2583
▁праўд	-11.2584
▁контролирова	-11.2585
▁исследоват	-11.2588
станут	-11.259
ch	-11.2591
▁страха	-11.2591
▁дваран	-11.2592
▁усилия	-11.2595
▁Марсе	-11.2596
▁дасягаю	-11.2596
вазе	-11.2596
▁первых	-11.26
▁графік	-11.2602
▁гуч	-11.2602
▁турэцкі	-11.2604
▁скоростью	-11.2606
▁настаўнік	-11.2607
▁лагера	-11.2607
▁звучит	-11.2609
▁контр	-11.2611
▁еду	-11.2612
▁компьютеры	-11.2614
▁7-	-11.2615
вшего	-11.2617
▁эсперант	-11.2618
▁прапаноўва	-11.2618
▁увидим	-11.2618
▁честно	-11.2618
▁позні	-11.2618
▁некоторо	-11.2619
▁нацыянальн	-11.262
▁прыродна	-11.262
▁апісання	-11.2622
▁взглянут	-11.2624
▁працягва	-11.2625
▁спасти	-11.2625
▁вашу	-11.2627
▁адкрытым	-11.2627
▁государства	-11.2634
▁Існую	-11.2636
▁масіў	-11.2639
▁Міжземна	-11.2644
▁захаванне	-11.2645
▁общин	-11.2646
▁Полацку	-11.2649
▁няс	-11.2652
▁Міхал	-11.2653
▁Янка	-11.2653
▁человеку	-11.2656
▁Самым	-11.2662
▁дыпламат	-11.2662
▁шахмат	-11.2664
▁мяккі	-11.2664
▁гаворы	-11.2664
▁палотн	-11.2664
▁Видите	-11.2664
▁прошлого	-11.2664
▁0,3	-11.2665
стар	-11.2667
▁треть	-11.2671
ie	-11.2672
▁чувствую	-11.2673
▁Значна	-11.2676
▁строить	-11.2677
▁навучальна	-11.2677
сол	-11.2677
▁вяршыня	-11.2678
▁50-	-11.2683
▁приобре	-11.2683
шчын	-11.2684
чел	-11.2684
▁пасада	-11.2688
▁Эй	-11.269
▁случайно	-11.2691
▁прадмета	-11.2691
ошёл	-11.2691
▁показан	-11.2692
▁астатня	-11.2693
начала	-11.2693
танцы	-11.2694
▁доллар	-11.2694
▁імкненне	-11.2694
▁граматы	-11.2695
▁свецкі	-11.2706
▁XXI	-11.2706
▁мерапрыемства	-11.2706
▁стаўленне	-11.2709
▁скараці	-11.271
▁близко	-11.271
▁талент	-11.271
▁положение	-11.271
ённые	-11.2711
▁пляж	-11.2712
▁скорасц	-11.2712
▁красиво	-11.2713
ыццё	-11.2715
▁полюс	-11.2717
▁работнік	-11.2717
▁Індыя	-11.2719
▁плоскасц	-11.2719
▁военны	-11.2721
▁Одно	-11.2723
▁попал	-11.2725
▁дапамаг	-11.2725
▁считае	-11.2726
▁вагона	-11.2727
уществует	-11.2728
▁54	-11.2738
▁штаба	-11.2739
▁быццам	-11.274
▁молекул	-11.2741
▁продка	-11.2744
ВК	-11.2744
▁купал	-11.2745
▁кино	-11.2748
абралі	-11.2749
F	-11.2749
▁Кук	-11.275
▁ближе	-11.275
▁разработк	-11.275
▁ўключа	-11.275
▁абслугоўва	-11.2755
▁Касцёл	-11.2756
▁кислород	-11.2756
▁паляпшэнн	-11.2756
▁ўяўляю	-11.2756
▁прызначыў	-11.2756
▁скарб	-11.2756
▁пасяджэнн	-11.2757
▁папулярным	-11.2757
▁перабудов	-11.2759
▁обсужда	-11.276
стри	-11.2763
ведалі	-11.2763
▁выяўляе	-11.2764
▁эканамічным	-11.2764
нки	-11.2767
▁применя	-11.2771
▁выканаў	-11.2782
▁тайн	-11.2785
▁улучшит	-11.2786
▁Мед	-11.2787
▁ткан	-11.2788
▁средств	-11.2789
▁устойчиво	-11.2791
▁лев	-11.2795
▁даход	-11.2799
абраў	-11.28
▁неудач	-11.28
▁установа	-11.2802
▁Варшаўска	-11.2803
▁кантралява	-11.2803
▁гледач	-11.2803
▁тяжело	-11.2803
▁гараджан	-11.2803
▁Атлантычны	-11.2803
зімку	-11.2803
▁медицински	-11.2804
▁Цела	-11.2804
▁Хуан	-11.2804
▁пахаванн	-11.2805
▁берег	-11.2805
▁пераведзен	-11.2805
▁уступіў	-11.2807
▁невидим	-11.2811
▁заключэнн	-11.2812
▁ответить	-11.2813
▁жада	-11.2814
▁квантава	-11.2814
▁паўстанн	-11.2817
▁политики	-11.2817
▁адказва	-11.2818
▁способы	-11.2818
▁пачуцця	-11.2824
▁ребята	-11.2824
▁надае	-11.2825
ванне	-11.283
▁замет	-11.2831
▁срок	-11.2832
▁калекцыя	-11.2832
▁прочи	-11.2833
▁самцо	-11.2833
▁распаўсюджванне	-11.2836
▁Свет	-11.2838
▁абласны	-11.284
▁дырэктара	-11.2842
▁море	-11.2846
▁Значн	-11.2848
▁действова	-11.2849
▁Харваты	-11.2849
▁тяжёл	-11.2849
▁тунэл	-11.285
▁пользоваться	-11.285
▁начинал	-11.285
▁Дело	-11.285
▁шоу	-11.285
▁насилия	-11.2851
▁определ	-11.2853
▁свободно	-11.2854
лки	-11.2861
▁сіні	-11.2863
▁пабудова	-11.2865
▁необходим	-11.2868
▁90-	-11.2868
▁арыстакраты	-11.2869
▁чум	-11.2871
▁путешествие	-11.2873
▁шта	-11.2874
рес	-11.2877
▁пісьменнасц	-11.2877
▁вылучаюц	-11.2881
▁вырабляе	-11.2886
▁Юлі	-11.2886
пон	-11.2889
N	-11.2894
сярэдзін	-11.2894
▁Вопрос	-11.2896
▁Прадстаўнік	-11.2896
▁ўтворана	-11.2896
▁гавары	-11.2897
▁слуп	-11.2897
▁забаронена	-11.2897
▁велико	-11.2898
▁Нацы	-11.2901
▁выдава	-11.2902
▁гаспадарча	-11.2905
▁прастора	-11.2906
▁наступств	-11.2906
▁захоўванн	-11.2907
▁51	-11.2907
▁медз	-11.2911
▁отличны	-11.2911
▁Войск	-11.2913
▁ниже	-11.2918
▁выявілі	-11.2918
глыб	-11.2919
▁выйграў	-11.2924
▁молодо	-11.2929
▁пратэст	-11.2929
▁здзяйсня	-11.2931
вались	-11.2932
▁утварэння	-11.2934
▁намаганн	-11.2934
▁склон	-11.2937
▁отлича	-11.2939
▁альтернатив	-11.2944
▁наркотик	-11.2944
▁предложил	-11.2944
▁Радзім	-11.2944
▁вузка	-11.2944
▁жоўта	-11.2944
▁кальц	-11.2944
▁сделаю	-11.2945
▁Калумбі	-11.2946
▁драўнін	-11.2946
▁біскупа	-11.2946
▁сцена	-11.2949
▁правильны	-11.2951
▁Гал	-11.2952
▁Еўропа	-11.2953
▁Порт	-11.2953
▁1,3	-11.2956
▁волос	-11.2956
▁Чэ	-11.2956
▁партыйны	-11.2958
▁взят	-11.2961
эма	-11.2962
▁ператварэнн	-11.2962
▁уваходзіл	-11.2963
▁лічб	-11.2964
▁помогл	-11.2966
▁2000-	-11.2966
▁слоўнік	-11.2966
▁аднолькавы	-11.2968
ra	-11.2971
▁La	-11.2973
▁паспрабава	-11.2977
▁вопроса	-11.2978
▁30-	-11.2979
▁пацярпе	-11.2979
▁Уво	-11.298
▁акадэмік	-11.2981
ключить	-11.2982
▁конкретно	-11.2983
▁Напалеон	-11.2985
▁представи	-11.2986
▁адлюстраванне	-11.2988
▁ажыццяві	-11.2991
▁New	-11.2991
▁афармленн	-11.2991
▁даступны	-11.2991
▁дзядзьк	-11.2991
▁кардынал	-11.2991
▁эфір	-11.2991
▁понрави	-11.2991
▁ўсеагульн	-11.2991
▁улучшени	-11.2991
▁калегіум	-11.2992
▁Земля	-11.2993
▁пакет	-11.2993
▁Галіле	-11.2998
▁выдадзена	-11.2999
▁аказалі	-11.3
▁1,6	-11.3001
▁генетически	-11.3004
лікам	-11.3005
▁сталкива	-11.3009
▁брать	-11.3011
▁звезд	-11.3012
▁настояще	-11.3012
лучилось	-11.3012
▁Вера	-11.3013
СД	-11.3019
▁желани	-11.3019
▁41	-11.3025
▁ученик	-11.3025
▁фильма	-11.3027
▁вклад	-11.3027
▁физик	-11.3029
▁обеспечит	-11.3032
▁іду	-11.3035
▁наверняка	-11.3039
▁телевизор	-11.3039
▁солнечны	-11.3039
▁Сахары	-11.3039
▁жалезна	-11.3039
▁арыгінальны	-11.3039
▁Вебер	-11.304
▁1800	-11.304
супраць	-11.304
▁абранн	-11.3041
▁прыцягну	-11.3043
▁вышл	-11.3044
▁Кацярына	-11.3047
▁способов	-11.3048
▁Герой	-11.3049
▁пройти	-11.3055
▁пагроза	-11.3056
▁атамны	-11.3059
▁скорост	-11.3061
▁граніц	-11.3064
▁личност	-11.3067
бет	-11.3067
▁Лес	-11.3068
▁рус	-11.3069
▁назіранн	-11.307
▁даклад	-11.307
▁прадугледжва	-11.3072
▁корн	-11.3072
▁млекакормячы	-11.3072
▁использую	-11.3074
▁шматлікім	-11.3077
валь	-11.3079
▁майстр	-11.3081
ари	-11.3083
▁лекарств	-11.3083
Паўл	-11.3083
▁объяснени	-11.3086
▁Дэбютава	-11.3086
▁Луцкевіч	-11.3086
▁близки	-11.3086
▁кіслат	-11.3086
▁узброены	-11.3086
▁цёпла	-11.3086
▁керамік	-11.3086
▁Вілейскі	-11.3087
овое	-11.3087
▁паражэння	-11.3087
збегну	-11.3087
▁Орша	-11.3088
▁прыбыл	-11.3089
▁медицинско	-11.3089
▁курса	-11.309
▁выступленн	-11.3093
▁Рух	-11.3094
▁жили	-11.3094
▁грэка	-11.3096
▁небяспек	-11.3101
▁надрукаваны	-11.3105
▁1879	-11.311
вшей	-11.3111
смотрим	-11.3111
▁старше	-11.3115
▁сабраў	-11.3117
▁весці	-11.3118
илось	-11.3119
▁ўтрымлівае	-11.3119
▁настроен	-11.3122
▁возможны	-11.3126
▁серьёзны	-11.3126
▁нагляд	-11.3127
▁усталява	-11.3128
▁пашырана	-11.3128
▁пастанова	-11.313
▁супраціўленне	-11.3131
▁товар	-11.3131
▁імперскі	-11.3132
▁ООН	-11.3135
▁онлайн	-11.3135
▁эпидеми	-11.3135
▁экзамен	-11.3135
▁цэгл	-11.3135
▁непр	-11.3135
▁ўсталява	-11.3135
▁раніц	-11.3137
▁пытался	-11.3141
идеть	-11.3141
▁Вал	-11.3146
▁задать	-11.3152
▁пераможца	-11.3155
туды	-11.3155
▁противо	-11.3155
▁замеч	-11.3156
▁затрат	-11.3157
▁узведзен	-11.3158
▁сутк	-11.3162
▁выключан	-11.3164
вши	-11.3164
олаг	-11.3169
▁Памер	-11.3174
▁падтрымлівае	-11.3175
▁фізіка	-11.3176
▁сядзіб	-11.3177
▁судовы	-11.3177
сёлка	-11.3179
раш	-11.3182
▁Жыткаві	-11.3183
▁актывіст	-11.3183
▁внутрь	-11.3183
▁испытани	-11.3183
▁попробовать	-11.3183
▁цырымоні	-11.3183
▁Грэнланды	-11.3183
▁инвестици	-11.3183
▁Манголі	-11.3183
▁скорость	-11.3184
▁дзікі	-11.3184
▁конференции	-11.3184
▁1200	-11.3184
▁бліжэйшы	-11.3186
▁досвед	-11.3188
рно	-11.3189
▁Від	-11.319
▁ўвайш	-11.3191
▁гістарычным	-11.3193
▁тэатральны	-11.3194
▁выглядят	-11.3195
▁суперніка	-11.3195
▁муніцыпалітэт	-11.3198
▁складанн	-11.3203
▁праўда	-11.3203
▁Кіева	-11.3204
▁энергия	-11.3207
▁разрад	-11.3207
кама	-11.3214
▁царскі	-11.3216
▁отказ	-11.3224
▁прывё	-11.3224
▁выходит	-11.3224
▁зан	-11.3225
▁пользовател	-11.3227
▁галактык	-11.3228
▁філасофска	-11.323
▁Сталыпін	-11.3231
▁майстэрства	-11.3231
▁препарат	-11.3231
▁пузыр	-11.3231
▁ўступіл	-11.3231
▁дызайн	-11.3231
▁решать	-11.3231
▁Баторы	-11.3231
▁приняти	-11.3232
▁сестр	-11.3232
▁юрыдычна	-11.3232
▁ўзяў	-11.3232
▁Япони	-11.3232
▁Мілан	-11.3233
▁сери	-11.3234
▁матча	-11.324
первы	-11.324
▁Стаўбцоўскі	-11.3241
▁слой	-11.3243
▁национально	-11.3248
▁трапля	-11.325
▁тэхналогіі	-11.325
▁прибор	-11.3252
▁перадава	-11.3254
▁руб	-11.3261
▁зімовы	-11.3262
▁разве	-11.3262
▁дасягненн	-11.3263
▁жизне	-11.3265
▁выкарыста	-11.3265
▁поведения	-11.3266
▁патрыярха	-11.3268
▁энергія	-11.3268
▁казн	-11.3268
▁веру	-11.3269
▁комнате	-11.3271
▁пола	-11.3277
▁павелічэнн	-11.3277
▁кірава	-11.3278
▁Заснавальнік	-11.328
▁малодша	-11.328
▁преступлени	-11.328
▁соединя	-11.328
▁категори	-11.328
▁міграцы	-11.328
▁мисси	-11.3281
▁редко	-11.3281
▁феадальна	-11.3281
▁Транспартны	-11.3282
▁приём	-11.3283
▁тэма	-11.3283
▁парламенцкі	-11.3283
▁теми	-11.3284
▁саступа	-11.3284
▁чысты	-11.3285
▁пояса	-11.329
▁небе	-11.3311
▁материалы	-11.3314
▁каких	-11.3315
▁естественны	-11.3321
сця	-11.3322
▁бук	-11.3323
▁разрыв	-11.3324
▁любую	-11.3327
▁протест	-11.3327
▁забеспячэнне	-11.3329
▁выпрабаванн	-11.3329
▁тагачасны	-11.3329
▁одежд	-11.3329
▁концепци	-11.3329
▁станаўленн	-11.3329
▁падмур	-11.3329
▁0,1	-11.333
▁каляровы	-11.333
▁экспазіцы	-11.3331
▁забаронены	-11.3332
▁размясці	-11.3332
▁нязначн	-11.3334
▁адказны	-11.3335
▁Парк	-11.3335
▁Ток	-11.3337
эння	-11.3339
▁b	-11.334
▁любым	-11.3342
▁рисова	-11.3343
▁дазваляла	-11.3343
▁сувязя	-11.3346
очки	-11.3347
▁Ду	-11.3352
▁поезд	-11.3352
▁путешестви	-11.3353
бок	-11.3353
▁связано	-11.3353
▁любоў	-11.3356
▁живущи	-11.3358
▁паведамі	-11.3358
кроў	-11.3359
▁изменит	-11.336
▁заданн	-11.3362
▁апублікавана	-11.3362
рэал	-11.3362
▁адправі	-11.3365
▁энергі	-11.3367
▁открыть	-11.3369
▁дрэвы	-11.3373
▁нашёл	-11.3373
▁капітал	-11.3375
▁назвать	-11.3375
▁тонн	-11.3376
▁найлепшы	-11.3376
▁фармірава	-11.3377
фашысцк	-11.3378
▁Саксоні	-11.3378
▁вынужден	-11.3378
▁драматычны	-11.3378
▁камерцыйны	-11.3378
▁компонент	-11.3378
▁імператрыц	-11.3378
▁кабінет	-11.3379
▁пярэдні	-11.3379
▁Маршал	-11.3379
▁Міжземнамор	-11.3379
▁хваёвы	-11.338
▁немцам	-11.338
▁независимо	-11.3381
▁складзена	-11.3385
▁Школ	-11.3387
▁кн	-11.3388
▁факультэ	-11.3388
▁Нерон	-11.3389
Венгры	-11.339
▁наваколл	-11.3391
▁выпадае	-11.3391
▁Гала	-11.3392
▁хочется	-11.3393
▁рамк	-11.3394
▁Анр	-11.3395
▁астраномі	-11.3397
▁низко	-11.3398
рек	-11.3404
▁знік	-11.3404
каса	-11.3406
▁лістоў	-11.3409
кова	-11.341
▁ява	-11.3416
▁Дуна	-11.3417
▁страну	-11.3418
несла	-11.3419
▁разгляд	-11.342
▁еды	-11.3423
▁чэшска	-11.3425
▁обеспечива	-11.3425
▁Сіл	-11.3426
▁ВН	-11.3428
▁Бразили	-11.3428
▁няўдала	-11.3428
▁пещер	-11.3428
▁здымк	-11.3428
▁кофе	-11.3429
▁Артур	-11.3429
▁приближ	-11.343
▁соглас	-11.343
▁выканаўча	-11.343
▁Глав	-11.3433
▁трактат	-11.3433
▁выпушчаны	-11.3434
▁мин	-11.3436
▁змяні	-11.3437
▁обман	-11.3444
▁Дэн	-11.3445
▁беру	-11.3447
▁вугал	-11.3448
▁Глеб	-11.3449
▁аперацый	-11.3451
▁Будуч	-11.3454
▁утром	-11.3455
▁венгерскі	-11.3456
▁Вель	-11.3457
▁контроль	-11.3458
▁потрясающи	-11.346
▁найвышэйша	-11.3461
▁продуктов	-11.3461
▁дно	-11.3461
▁Украінска	-11.3462
▁браў	-11.3463
▁Такие	-11.3464
▁гул	-11.3467
▁паходз	-11.3468
▁пасольства	-11.3469
▁Навагрудска	-11.347
▁отличие	-11.3471
▁чувств	-11.3473
▁покуп	-11.3474
▁памылк	-11.3476
▁успешно	-11.3477
▁узнагарод	-11.3478
▁точка	-11.3478
*	-11.3478
▁Кобрын	-11.3478
▁арнамент	-11.3478
▁узначалі	-11.3478
▁маляри	-11.3478
▁канадск	-11.3478
▁торф	-11.3482
▁пісьмо	-11.3483
▁выполня	-11.3485
▁зім	-11.3485
▁куст	-11.3485
▁доверя	-11.3486
▁Кірава	-11.3486
доволь	-11.3489
▁Вышэйшы	-11.3489
▁благодар	-11.3493
▁признать	-11.3494
▁отца	-11.3496
▁понимают	-11.3502
▁асяроддзе	-11.3503
▁камандуючы	-11.3503
НФ	-11.3505
▁Георг	-11.3507
▁развивать	-11.3507
▁перамагл	-11.3508
октар	-11.3508
▁Алі	-11.351
▁сообщество	-11.3513
▁завяршыў	-11.3514
▁веб	-11.3514
КД	-11.3516
▁образов	-11.3517
▁огромные	-11.3518
▁паведамляе	-11.3519
▁слан	-11.3521
▁уведзен	-11.3522
двиг	-11.3523
▁Facebook	-11.3528
▁Скірмунт	-11.3528
▁здагадк	-11.3528
▁найперш	-11.3528
▁перамяшчэнн	-11.3528
▁Мсціслаў	-11.3528
▁сомнени	-11.3528
келандж	-11.3528
▁Кожна	-11.3528
▁аспірантур	-11.3528
▁кіеўскі	-11.3528
▁традиционны	-11.3528
▁логік	-11.3529
▁жителе	-11.3533
▁купил	-11.3539
▁Дар	-11.3542
▁лекарство	-11.3544
▁окружающи	-11.3544
▁звярну	-11.3545
▁выкліканы	-11.3548
▁требует	-11.3552
▁1600	-11.3552
▁роботов	-11.3553
▁чытач	-11.3554
▁Ван	-11.3555
вёр	-11.3555
▁данным	-11.3564
▁голуб	-11.3567
▁бачна	-11.3569
▁наземны	-11.3573
▁Справ	-11.3575
▁предполага	-11.3577
▁двухбакова	-11.3578
▁егіпецкі	-11.3578
▁экосистем	-11.3578
▁сохраня	-11.3578
▁мякка	-11.3578
▁кредит	-11.3578
▁пастаноўк	-11.3578
▁0,4	-11.3579
▁сильнее	-11.358
▁пожалуйста	-11.358
▁вернулся	-11.358
▁играет	-11.3581
▁поўным	-11.3581
▁кветкі	-11.3582
▁сесі	-11.3582
▁зняты	-11.3584
▁васьмі	-11.3584
▁пакут	-11.3585
▁создава	-11.3588
▁пытается	-11.359
чаў	-11.359
▁смотрит	-11.3593
▁9-	-11.3594
Заходня	-11.3596
▁наблюда	-11.3596
▁заменены	-11.3598
▁падпісана	-11.3598
▁средне	-11.3598
▁ўключаю	-11.3598
▁рождения	-11.3598
▁пят	-11.3602
▁карціна	-11.3607
вестк	-11.3612
▁броса	-11.3616
▁паеха	-11.3624
легка	-11.3624
▁абсталяванн	-11.3625
▁слон	-11.3625
▁найбольшы	-11.3628
▁ўключаны	-11.3628
▁пірамід	-11.3628
▁каталіцтв	-11.3628
▁бактэры	-11.3629
▁профессор	-11.3629
▁падн	-11.3631
▁действий	-11.3632
▁Великобритании	-11.3639
▁ўбачы	-11.3647
▁адзначаны	-11.3649
▁выпуску	-11.3654
▁камандава	-11.3655
▁городах	-11.3655
▁Фёдар	-11.3658
▁70-	-11.366
▁верны	-11.3662
▁Фрыдрыха	-11.3663
▁грунту	-11.3665
▁данны	-11.3666
▁грудно	-11.3666
▁страшно	-11.3667
▁ужасны	-11.3668
▁выяснит	-11.3672
▁думка	-11.3676
▁саюзніка	-11.3676
▁французск	-11.3679
▁называемы	-11.3679
▁Венесуэл	-11.3679
▁Жлобін	-11.3679
▁Хемінгуэ	-11.3679
▁авалода	-11.3679
▁архитектор	-11.3679
▁интервью	-11.3679
▁людях	-11.3679
▁каардынат	-11.3679
▁кіруе	-11.3679
▁мармур	-11.3679
▁получать	-11.3679
▁гібел	-11.368
▁биологически	-11.368
▁перададзена	-11.368
▁Шарл	-11.368
▁открытия	-11.3681
анні	-11.3682
▁абсталяванне	-11.3683
▁файл	-11.3685
▁Гава	-11.3685
▁дробна	-11.3688
▁згадва	-11.3688
▁вадарод	-11.3689
▁Араві	-11.3689
абудова	-11.3691
▁вырашылі	-11.3696
▁привело	-11.3697
▁Яно	-11.3698
▁ранни	-11.3698
шчыка	-11.3699
▁вырос	-11.3701
▁узнікл	-11.3704
▁круга	-11.3705
▁захапі	-11.3709
▁грамадскім	-11.3711
енное	-11.3713
▁сознание	-11.3714
▁поп	-11.3714
▁увеличива	-11.3715
▁компьютера	-11.3719
▁жар	-11.372
▁кольца	-11.3722
рин	-11.3724
▁паляванне	-11.3724
лучается	-11.3724
▁Залаты	-11.3725
▁хан	-11.3725
▁чита	-11.3726
▁аказвае	-11.3727
▁используется	-11.3728
▁распачаў	-11.3729
▁ценности	-11.373
▁перашкаджа	-11.373
▁барабан	-11.373
▁кірмаш	-11.373
▁мадыфікацы	-11.373
▁ресторан	-11.373
▁адтулін	-11.373
▁сканчэнн	-11.373
▁завтра	-11.373
▁Шырока	-11.373
▁выдавец	-11.3731
эд	-11.3734
▁нижн	-11.3735
▁выратава	-11.3735
▁обратил	-11.3737
▁сохранить	-11.374
6	-11.374
▁125	-11.3741
плыв	-11.3741
▁оставля	-11.3743
▁приходят	-11.3744
re	-11.3748
▁галерэя	-11.3752
▁словно	-11.3753
▁залато	-11.3755
▁відам	-11.3761
id	-11.3763
часце	-11.3764
▁адыгрыва	-11.3764
▁верх	-11.3767
▁самалёта	-11.3768
▁155	-11.3768
▁участник	-11.3768
▁прамым	-11.3769
▁местно	-11.3771
▁сыш	-11.3771
▁Вайніловіча	-11.3773
▁Міхайлавіч	-11.3782
▁бізнес	-11.3782
▁дыяпазон	-11.3782
▁заставляет	-11.3782
▁посредств	-11.3782
▁прамавугольна	-11.3782
▁прыгожы	-11.3782
▁прымусіл	-11.3782
▁Агінск	-11.3782
▁наперад	-11.3782
▁Захава	-11.3783
▁прысвяці	-11.3783
▁списк	-11.3784
▁Ідэ	-11.3787
▁вучылішч	-11.379
▁производство	-11.379
▁залежа	-11.379
▁служба	-11.3792
▁выяўля	-11.3795
▁едино	-11.3797
▁колькі	-11.3799
▁подобно	-11.38
▁атрымлівал	-11.3801
доль	-11.3802
▁часовы	-11.3803
▁повлия	-11.3804
▁изменило	-11.3805
▁прыступ	-11.3805
▁сотня	-11.3806
▁Три	-11.381
▁прыпісва	-11.3813
▁Эдварда	-11.3813
▁даследаванне	-11.3813
▁революции	-11.3815
▁Абу	-11.3822
▁работающи	-11.3823
▁холод	-11.3824
▁Грэцыя	-11.3826
фил	-11.3826
▁обед	-11.3827
▁развивающих	-11.3828
слева	-11.3831
▁залатым	-11.3831
екалькі	-11.3832
▁Александр	-11.3833
▁трас	-11.3833
▁зняволены	-11.3833
▁найстарэйшы	-11.3833
▁оружие	-11.3833
▁падручнік	-11.3833
▁рэспубліканскі	-11.3833
▁смерть	-11.3833
▁химически	-11.3833
▁знаний	-11.3833
▁Идея	-11.3835
▁Роз	-11.3836
▁раствор	-11.3836
▁далёкі	-11.3838
▁больны	-11.3839
▁некатора	-11.384
▁голоса	-11.3841
был	-11.3841
▁подходит	-11.3842
▁трапляе	-11.3843
▁святло	-11.3843
▁заставил	-11.3846
▁достижени	-11.3848
▁дик	-11.3849
▁пазіцыя	-11.3851
▁студэнт	-11.3854
▁маркі	-11.3855
▁Праг	-11.3857
▁53	-11.3857
▁Мех	-11.386
▁перадае	-11.386
▁медаль	-11.3861
▁Канстанцінопаль	-11.3864
▁справля	-11.3864
▁Волг	-11.3866
▁Барыса	-11.3874
▁планету	-11.3875
слаў	-11.3884
▁Далёк	-11.3885
▁письмо	-11.3885
▁вызывает	-11.3885
▁знаходк	-11.3885
▁пасяленн	-11.3885
▁фракцы	-11.3885
▁экологически	-11.3885
▁рамонт	-11.3886
▁территории	-11.3886
▁бороться	-11.3886
▁театр	-11.3887
▁казк	-11.3887
▁сложные	-11.3888
▁епіскапа	-11.3889
нкі	-11.3891
аново	-11.3894
▁наблюдаем	-11.3895
▁модул	-11.3895
▁рухавіка	-11.3895
▁тыповы	-11.3896
▁собрали	-11.3897
▁адкрыцц	-11.3897
▁опыта	-11.3898
▁Еж	-11.39
▁действие	-11.3901
▁асобнік	-11.3904
▁странны	-11.3909
▁бой	-11.3914
▁ваг	-11.3914
▁имели	-11.3915
▁общего	-11.3922
зіць	-11.3922
▁абазначэння	-11.3923
▁1820	-11.3929
ший	-11.393
▁спев	-11.393
▁рухаў	-11.3932
▁магутна	-11.3932
▁прастор	-11.3933
▁станови	-11.3933
▁медленно	-11.3934
▁шляхта	-11.3935
▁решила	-11.3936
▁аўтамабіль	-11.3936
▁обнаружен	-11.3937
▁Найвышэйша	-11.3937
▁дрэнна	-11.3937
▁візіт	-11.3937
▁Буйны	-11.3937
▁паўтара	-11.3937
▁Казан	-11.3937
▁азот	-11.3938
▁пасажырскі	-11.394
▁Часов	-11.3942
▁соль	-11.3948
▁метан	-11.3951
▁американско	-11.3951
▁представляют	-11.3951
▁никак	-11.3954
▁збудаванне	-11.3955
▁падтрымаў	-11.3956
▁перес	-11.3957
▁лепшым	-11.3958
▁прыгарад	-11.3959
▁полагаю	-11.3967
▁требуется	-11.397
▁ідэал	-11.397
▁падтрымка	-11.3971
▁физическо	-11.3979
▁жон	-11.3979
▁метадам	-11.3983
▁смертност	-11.3984
▁новость	-11.3984
▁изменил	-11.3984
▁робота	-11.3987
▁жаб	-11.3987
вшая	-11.3989
▁падабенства	-11.3989
▁лежит	-11.3989
▁правительств	-11.399
▁географ	-11.399
▁Ліві	-11.399
▁архіў	-11.3991
▁супярэчнасц	-11.3992
▁залоз	-11.3993
▁размах	-11.3993
▁Аляксандравіч	-11.3994
▁открытие	-11.3995
▁хрыбта	-11.3997
▁памерл	-11.4001
▁ценность	-11.4003
▁88	-11.4007
▁творчы	-11.4008
▁видят	-11.4008
▁отправил	-11.4009
▁ўведзены	-11.4013
▁ІІ	-11.4013
▁Сям	-11.4015
▁рэдакцыя	-11.4016
▁коле	-11.4017
▁ядноўва	-11.4019
▁знікл	-11.4022
▁пакарання	-11.4026
▁супол	-11.4031
▁адміністрацыя	-11.4032
▁імператарска	-11.4032
▁адышл	-11.4033
▁амерыканскім	-11.4036
▁существа	-11.4036
▁Марцін	-11.4039
енная	-11.404
кшталт	-11.4042
▁мядзведз	-11.4042
▁папуляцы	-11.4042
▁тралейбус	-11.4042
▁вадаспад	-11.4042
▁размышля	-11.4042
▁познакоми	-11.4042
▁представления	-11.4044
▁давала	-11.4045
▁поднять	-11.4049
▁среднем	-11.4049
▁Джэймс	-11.4049
▁Ирак	-11.4049
▁прадстаўніцтв	-11.4053
▁вызваленне	-11.4058
▁Фёдара	-11.4058
▁включ	-11.4059
▁Ком	-11.4061
▁масштаба	-11.4063
тыка	-11.4065
▁Мир	-11.4067
шие	-11.4069
▁пакаленн	-11.4069
▁наведваў	-11.407
▁паслядоўнасц	-11.407
▁Кита	-11.4075
▁ўказ	-11.4076
▁выканана	-11.4076
▁смен	-11.408
▁бібліятэ	-11.4081
▁наваколля	-11.4081
▁связыва	-11.4084
▁прошло	-11.409
▁хво	-11.4091
▁небольш	-11.4094
▁Албані	-11.4095
▁выбітны	-11.4095
▁заболеваний	-11.4095
▁событий	-11.4095
▁фокус	-11.4095
▁счастье	-11.4095
▁впечатлени	-11.4095
▁тонка	-11.4096
▁науке	-11.4097
▁Вёск	-11.4097
▁дамена	-11.4099
▁прызнана	-11.4101
ПА	-11.4102
▁попасть	-11.4103
▁магчымым	-11.4103
намс	-11.4104
▁праяўля	-11.4105
▁дорого	-11.4107
▁понимания	-11.4111
▁дэль	-11.4112
▁радк	-11.4112
▁найвышэйшы	-11.4114
▁зямельны	-11.4116
▁суш	-11.4119
твараючы	-11.412
▁вузкі	-11.4121
▁выпускае	-11.4125
▁1887	-11.4126
піва	-11.4128
Ш	-11.4129
▁пісьмова	-11.4129
▁механічны	-11.4134
▁бело	-11.4135
ro	-11.4137
▁коне	-11.4137
▁выйсц	-11.414
▁опера	-11.414
▁заключае	-11.4141
▁истори	-11.4141
▁народам	-11.4142
▁функци	-11.4144
▁марш	-11.4146
▁поднял	-11.4148
▁адпраўля	-11.4148
▁Туніс	-11.4148
▁фартэпіян	-11.4148
▁шырот	-11.4148
▁абарот	-11.4148
▁кантэкс	-11.4148
▁Івацэвіцкі	-11.4148
▁фотографию	-11.4148
▁арыгінальна	-11.4148
▁прадметам	-11.4149
▁биологии	-11.4151
▁Іаган	-11.4152
▁оказался	-11.4153
▁нейка	-11.4154
▁уваходзя	-11.4154
▁кас	-11.4157
цов	-11.4158
▁жук	-11.4161
ТЭ	-11.4162
▁гарадзішча	-11.4162
▁маги	-11.4163
▁Пачат	-11.4163
▁унія	-11.4167
▁выклікаў	-11.417
▁спецыяліст	-11.417
▁применит	-11.4172
▁вучэння	-11.4173
▁блог	-11.4173
▁выходзя	-11.4174
▁нагор	-11.4175
шаны	-11.4176
om	-11.4176
▁Малер	-11.4176
▁Аўстралія	-11.4179
▁смотрел	-11.4182
▁родны	-11.4183
▁Перед	-11.4183
▁контролиру	-11.4184
▁размяшчэнне	-11.4186
▁павялічыла	-11.4187
▁Блізкі	-11.4191
▁рукой	-11.4192
▁Парыжска	-11.4195
▁Кап	-11.4197
▁пазіцый	-11.4197
вызваленча	-11.4202
▁паплечнік	-11.4202
▁сімфоні	-11.4202
▁разрушен	-11.4202
▁дыскусі	-11.4202
▁рабочих	-11.4202
▁пярэдня	-11.4202
▁збег	-11.4202
▁находимся	-11.4202
▁начиная	-11.4202
▁оказыва	-11.4203
▁мощны	-11.4204
▁гетмана	-11.4206
▁важнее	-11.4206
▁франта	-11.4209
▁чувствует	-11.4209
▁ням	-11.421
▁вызначэнне	-11.4211
▁базу	-11.4215
▁інтэрв	-11.4216
асцей	-11.4218
▁абедзв	-11.422
▁еўрапейца	-11.4223
▁мощно	-11.4227
держал	-11.4228
▁Уран	-11.4228
▁местност	-11.4228
▁ўмацавання	-11.4232
▁выклікана	-11.4232
▁шырок	-11.4235
▁уваход	-11.4236
▁закончи	-11.424
▁поддерживать	-11.4241
рис	-11.4244
▁Эйнштэйн	-11.4245
▁баго	-11.4248
▁ведае	-11.4248
легче	-11.4249
вяшчанн	-11.4249
▁падтрымліва	-11.425
▁сябр	-11.4253
▁мёртвы	-11.4254
▁бываю	-11.4254
▁лінгвіст	-11.4255
▁деятельности	-11.4255
▁информационн	-11.4255
▁негатыўн	-11.4255
▁удовольствие	-11.4255
▁сообща	-11.4255
▁Шлях	-11.4256
▁Мэры	-11.4256
▁вновь	-11.4256
чыльнасц	-11.4257
▁павелічэнне	-11.4259
▁воін	-11.4263
▁Ордэн	-11.4264
▁Эйнштэйна	-11.4266
▁друзьями	-11.4268
▁дыяметра	-11.4269
▁жаданне	-11.4275
▁глеба	-11.4278
▁найменша	-11.4278
▁существу	-11.4278
кажите	-11.428
▁Гам	-11.428
▁прытокам	-11.428
▁потеря	-11.4281
▁матэматычны	-11.4282
▁выяўленн	-11.4283
льк	-11.4284
▁падпарадкава	-11.4286
▁движ	-11.4288
▁Троцкі	-11.4289
▁достижения	-11.4294
▁зерн	-11.4296
▁живу	-11.4296
вост	-11.4299
▁пес	-11.4299
▁восемь	-11.43
▁прамов	-11.43
▁Нансена	-11.43
▁археолаг	-11.4303
▁продолжал	-11.4307
▁СПИД	-11.4309
▁біялагічны	-11.4309
▁солдат	-11.4309
▁зніжэнн	-11.431
▁завершана	-11.431
▁Мікалаевіч	-11.4311
▁слабо	-11.4313
▁Тытан	-11.4313
▁обладаю	-11.4314
▁брак	-11.4315
▁следства	-11.4317
▁султана	-11.4317
▁прылада	-11.4317
эш	-11.4318
▁началось	-11.4318
▁паняцц	-11.4319
▁зарэгістравана	-11.432
▁биологи	-11.432
▁Мон	-11.432
▁папы	-11.4322
▁давление	-11.4323
скоре	-11.4326
▁грамадзянін	-11.4326
▁научили	-11.4327
▁различия	-11.4328
▁реальном	-11.4328
▁собственн	-11.433
▁Статут	-11.4335
▁пабудо	-11.4336
изирован	-11.4336
▁рухавіко	-11.4338
▁скульптура	-11.4342
▁отправить	-11.4345
ити	-11.4346
▁літоўц	-11.4346
▁перамога	-11.4346
▁працягнуў	-11.435
▁провал	-11.4352
▁название	-11.4354
▁ўжыт	-11.4355
▁Месца	-11.4355
▁атамна	-11.4355
водзя	-11.4356
▁един	-11.4356
▁закладзены	-11.4359
▁ката	-11.4362
▁абсерваторы	-11.4364
▁солнечно	-11.4364
▁тенденци	-11.4364
▁стресс	-11.4364
▁растёт	-11.4364
▁выгнанн	-11.4364
▁Лагойск	-11.4364
▁услови	-11.4365
▁антычны	-11.4365
начал	-11.4365
▁паездк	-11.4366
▁Обычно	-11.4367
▁дазволіў	-11.4367
раўна	-11.4372
▁паведамля	-11.4374
▁гены	-11.4374
▁Мін	-11.4379
▁музы	-11.4381
▁занесены	-11.4387
▁воде	-11.4387
▁фарміраванн	-11.4388
▁огромна	-11.4388
▁климат	-11.4389
▁цеп	-11.4394
▁сыну	-11.4395
▁83	-11.4395
▁взаимодействия	-11.4397
▁жывёлагадоўля	-11.4405
▁перакла	-11.4405
пэўна	-11.4407
стаўшы	-11.4408
▁Банк	-11.4408
▁Пінска	-11.4411
▁поспехам	-11.4415
▁вещества	-11.4417
▁Рычард	-11.4418
▁бюджет	-11.4418
▁Хрысціян	-11.4418
▁цікаві	-11.4418
▁швейцарск	-11.4418
▁ўзгорк	-11.4418
▁враща	-11.4419
▁аддаў	-11.4419
▁воздуха	-11.4424
▁намесніка	-11.4425
▁отдельно	-11.4425
▁дали	-11.4426
▁скульптар	-11.4428
▁дэманстрацы	-11.4429
▁ютарны	-11.443
▁сінтэз	-11.443
▁экологи	-11.4431
▁заваявання	-11.4433
▁замежн	-11.4438
▁уничтож	-11.4439
▁165	-11.4441
▁защитить	-11.4446
▁Вільгельма	-11.4446
▁аказва	-11.4447
▁крови	-11.4449
▁вовс	-11.445
▁Z	-11.445
▁счет	-11.4452
▁здравоохранени	-11.4453
▁самостоятельно	-11.4454
▁университета	-11.4455
▁сверх	-11.446
▁вока	-11.4461
▁сустрэў	-11.4462
▁звалі	-11.4463
изация	-11.4464
▁задумать	-11.4464
генов	-11.4465
▁ствараю	-11.4465
▁ядноўвае	-11.4466
нства	-11.4469
▁плеч	-11.4471
▁привлек	-11.4472
▁старонка	-11.4472
▁прызнання	-11.4473
▁Праваслаўна	-11.4473
▁Хрысто	-11.4473
▁дерево	-11.4473
▁триллион	-11.4473
▁хватает	-11.4473
▁дэкаратыўна	-11.4473
▁рэгулярны	-11.4473
▁рэкорд	-11.4473
▁ўраўненн	-11.4474
▁американцев	-11.4474
▁Дзяржав	-11.4475
▁медалё	-11.4475
▁парти	-11.4479
▁умира	-11.448
▁Сямён	-11.4483
▁матэматычна	-11.4483
▁мировы	-11.4485
▁воск	-11.4488
▁знаём	-11.4489
▁бывае	-11.449
▁выбрал	-11.4491
▁хлеба	-11.4497
▁Пред	-11.4498
▁Стан	-11.4499
чего	-11.45
▁забяспечваю	-11.4502
кінуты	-11.4503
▁падрыхтоўка	-11.451
▁Калифорнии	-11.4514
культур	-11.4515
▁отношении	-11.4515
▁надея	-11.4516
абяца	-11.4516
ступить	-11.4522
▁теория	-11.4523
▁Рыгор	-11.4525
▁175	-11.4527
▁распрацоўка	-11.4527
прежнем	-11.4529
▁візантыйскі	-11.4529
▁павятовы	-11.4529
▁понятие	-11.4529
▁разобраться	-11.4529
▁хрышчэнн	-11.4529
▁туалет	-11.4529
▁хваста	-11.4529
▁череп	-11.4529
▁Быхаў	-11.4529
▁запрашэнн	-11.4529
▁тэрміна	-11.4529
▁нядзел	-11.453
▁признак	-11.4531
▁валоданн	-11.4532
віл	-11.4532
▁хатня	-11.4532
▁жаданн	-11.4533
▁гандляр	-11.4535
▁старым	-11.4536
лево	-11.4536
▁ўсталяваны	-11.4537
▁здароўе	-11.4537
▁евіч	-11.4539
▁гуртк	-11.4541
▁получит	-11.4541
▁разработан	-11.4542
▁прыкметна	-11.4542
пред	-11.4544
▁передать	-11.4544
▁выве	-11.4545
▁Яму	-11.4546
▁скасаванн	-11.4547
гета	-11.4547
am	-11.4547
▁злачынства	-11.4547
тика	-11.4547
▁медыцыны	-11.4551
▁Імператар	-11.4552
▁57	-11.4555
▁зямны	-11.4562
▁хорош	-11.4562
▁рухам	-11.4563
▁сторона	-11.4564
▁ссылк	-11.4571
▁прылеглы	-11.4572
▁Паўночн	-11.4576
▁электро	-11.4578
▁спадчыннік	-11.4578
▁прошлое	-11.4579
▁Працу	-11.458
▁бумаги	-11.4581
▁спрашиваю	-11.4582
▁візантыйска	-11.4584
▁Альцгеймер	-11.4584
▁Вашингтон	-11.4584
▁внезапно	-11.4584
▁инфекци	-11.4584
▁технически	-11.4584
▁гуманітарн	-11.4584
▁чарговы	-11.4584
▁пазначэнн	-11.4584
▁СМ	-11.4584
▁0,8	-11.4585
▁дают	-11.4586
▁псеўданімам	-11.4586
▁Значит	-11.4587
▁арми	-11.4587
▁Стана	-11.459
▁жен	-11.4591
▁Ельск	-11.4591
▁1801	-11.4591
▁сверху	-11.4591
▁сіня	-11.4592
▁позна	-11.4595
▁ветра	-11.4597
▁даруч	-11.4597
▁плоска	-11.4597
▁успешны	-11.4597
▁устойчив	-11.4598
▁контроля	-11.4599
▁гарант	-11.4605
▁возник	-11.4608
▁команды	-11.4611
▁Незалежнасц	-11.4615
▁Тор	-11.4615
▁Слав	-11.4615
▁спецыялістаў	-11.4617
▁паслан	-11.4619
▁чёрны	-11.462
дис	-11.4621
▁Канада	-11.4624
ad	-11.4626
▁дзевя	-11.4629
▁рукав	-11.4629
шмат	-11.463
▁Іосіф	-11.4635
▁относит	-11.4635
▁Брагінскі	-11.4636
▁эканоміка	-11.4637
▁существ	-11.4637
▁международны	-11.4638
▁территори	-11.4639
▁хмызняко	-11.4639
▁плоскі	-11.464
▁Трэці	-11.464
▁Уругва	-11.464
▁вапняк	-11.464
▁выпушчана	-11.464
▁сцвярджэнн	-11.464
▁учёных	-11.464
▁Кветк	-11.464
▁распределен	-11.464
▁магнітны	-11.464
▁Ганконг	-11.464
▁мимо	-11.4641
▁пастаўлена	-11.4641
▁Персі	-11.4642
▁перавага	-11.4642
▁налічва	-11.4642
▁персанажа	-11.4643
▁позволяю	-11.4643
▁раду	-11.4643
▁Добра	-11.4644
▁пляц	-11.4644
▁мук	-11.4645
▁бесед	-11.4645
чак	-11.4646
▁старт	-11.4647
▁поддержива	-11.4647
▁понимани	-11.465
▁собирает	-11.4651
▁губ	-11.4652
▁увеличить	-11.4654
▁работник	-11.4654
класці	-11.4655
▁сейм	-11.4656
▁Горка	-11.4657
▁грамад	-11.4658
▁аркестра	-11.4658
▁тэмп	-11.466
▁папярэдніка	-11.4661
▁восприятие	-11.4668
▁450	-11.4669
▁Прэзідыума	-11.4672
▁намінал	-11.4672
▁феномен	-11.4673
▁Год	-11.4677
▁север	-11.4686
▁ператварыў	-11.4688
th	-11.4693
▁учат	-11.4695
чыні	-11.4695
▁Еўразі	-11.4696
▁Сколько	-11.4696
▁княгін	-11.4696
▁шимпанзе	-11.4696
▁індыйска	-11.4696
▁вещах	-11.4696
▁вяселл	-11.4696
▁Менска	-11.4696
▁Генеральны	-11.4696
▁Сымон	-11.4697
▁сложнее	-11.4698
▁пазнанн	-11.4698
▁общения	-11.4699
▁базілік	-11.4699
▁Пят	-11.47
очку	-11.4702
▁формай	-11.4702
▁каталік	-11.4705
▁сектара	-11.4706
▁гнязд	-11.4706
слоў	-11.4706
▁Билл	-11.4707
▁ткани	-11.4709
▁ўчаст	-11.471
▁контрол	-11.4712
фф	-11.4712
▁Карэлі	-11.4713
▁тычы	-11.4714
гонь	-11.4715
▁мітрапаліта	-11.4717
▁выбира	-11.4717
▁выконвалі	-11.4718
▁светлы	-11.4719
▁пасялі	-11.4722
▁достигл	-11.4724
▁проводить	-11.4728
носить	-11.473
упак	-11.4737
ходзячы	-11.474
▁ўво	-11.4742
▁распозна	-11.4744
▁помог	-11.4745
▁зачем	-11.4745
ваўся	-11.4749
прэзідэнт	-11.475
▁Вішнявецк	-11.4753
▁Леанард	-11.4753
▁сярэднявечч	-11.4753
▁Вообще	-11.4753
▁дзяр	-11.4753
▁Ответ	-11.4753
▁добавить	-11.4754
▁низки	-11.4755
▁тепло	-11.4755
▁найменн	-11.4755
▁генеральна	-11.4757
▁неделе	-11.4757
▁трех	-11.4757
▁запісаны	-11.4758
▁активно	-11.4758
▁людзям	-11.4762
▁безопасность	-11.4763
▁одному	-11.4763
▁пределам	-11.4763
▁крив	-11.4764
ивается	-11.4765
▁похож	-11.4766
▁объединя	-11.4768
▁доступно	-11.4768
▁апостала	-11.4769
адзення	-11.4769
▁Y	-11.477
▁международно	-11.4773
▁добавл	-11.4777
▁машына	-11.4784
▁Вар	-11.4786
длегласц	-11.4786
▁патрэбны	-11.4786
▁вечар	-11.4788
▁грама	-11.4791
▁нів	-11.4793
▁построили	-11.4793
▁моўна	-11.4794
▁франк	-11.4794
▁животно	-11.4795
▁отвечаю	-11.4795
▁посуд	-11.4797
▁выкладчыкам	-11.4798
▁заваяваны	-11.4801
▁Ваенна	-11.4803
▁Габсбурга	-11.4805
▁распаўсюджанне	-11.4805
били	-11.4806
▁бесплатно	-11.4807
▁серб	-11.4807
▁разгром	-11.4808
чувств	-11.4809
▁Дынама	-11.4809
▁блакітны	-11.4809
▁рыбалоўства	-11.4809
▁сотруднича	-11.4809
▁ўражанн	-11.481
▁ўздым	-11.481
▁личны	-11.481
▁канечнасц	-11.481
остью	-11.481
▁галаўны	-11.481
▁лёгки	-11.481
▁предложение	-11.4811
▁побыт	-11.4811
▁уладальнік	-11.4814
▁каф	-11.4816
правляем	-11.4818
▁1,7	-11.4819
▁Арабск	-11.4819
▁азначала	-11.4819
▁рэшт	-11.482
▁лыж	-11.4821
▁касмічна	-11.4821
мимо	-11.4824
▁финансовы	-11.4826
▁знішчана	-11.4827
▁продк	-11.4828
▁буры	-11.483
▁какого	-11.483
леск	-11.4831
▁вяла	-11.4834
▁выказа	-11.4834
▁пластик	-11.4834
▁сок	-11.4839
▁рэжысёра	-11.4839
▁рознага	-11.4842
▁спалучэнне	-11.4844
▁дадзеным	-11.4845
▁прадстаўляе	-11.4846
▁мышления	-11.4852
▁опасно	-11.4858
▁Оп	-11.4861
▁помести	-11.4862
▁тая	-11.4862
▁ума	-11.4863
▁Гран	-11.4865
▁персонаж	-11.4867
▁деятельность	-11.4867
▁прытул	-11.4867
▁гатовы	-11.4867
▁память	-11.4867
▁преврати	-11.4867
▁дэбютава	-11.4868
▁кода	-11.4869
▁абмывае	-11.4871
▁цуд	-11.4873
▁идет	-11.4874
▁спутник	-11.4875
▁Мура	-11.4878
▁бол	-11.4881
▁спыніў	-11.4882
▁заверш	-11.4883
▁найвялікшы	-11.4886
▁Міжзем	-11.4891
▁задня	-11.4893
▁дзеючы	-11.4893
остр	-11.4893
▁прысуд	-11.4895
ируя	-11.4898
▁пасажыра	-11.4898
▁группу	-11.4899
▁Створана	-11.4899
▁изменили	-11.4903
▁дадатк	-11.4906
▁квет	-11.4908
▁ледник	-11.4909
▁проектов	-11.491
▁проще	-11.4911
▁пошука	-11.4913
▁грэк	-11.4915
нном	-11.4916
▁палё	-11.4918
▁патрэбна	-11.4922
▁историй	-11.4922
▁Чарнобыл	-11.4924
▁Крупскі	-11.4924
▁Узнагароджан	-11.4924
▁Чыгуначн	-11.4924
▁біялогі	-11.4924
▁информацией	-11.4924
▁обработк	-11.4924
▁прыбярэжны	-11.4924
▁расстройств	-11.4924
▁харчовы	-11.4924
▁землетрасенн	-11.4924
▁памяти	-11.4924
▁ніводна	-11.4924
▁велізарна	-11.4924
▁ператвара	-11.4924
▁приходилось	-11.4924
▁завершаны	-11.4924
▁перасякае	-11.4925
▁Філіпа	-11.4925
▁Барбар	-11.4925
▁выделя	-11.4926
▁опрос	-11.4927
сток	-11.4928
▁Север	-11.4929
▁определяет	-11.493
▁Залато	-11.4932
атуры	-11.4937
▁существовал	-11.4937
▁ютара	-11.4938
▁частот	-11.4938
▁нефть	-11.494
▁носьбіта	-11.4941
▁запах	-11.4946
▁бизнеса	-11.4947
▁занимают	-11.4947
▁компанию	-11.495
▁выходзіл	-11.495
▁Якуба	-11.495
▁перакана	-11.4952
▁материалов	-11.4954
▁чуд	-11.4955
лучится	-11.4959
▁настоящ	-11.496
вшим	-11.4961
▁Африка	-11.4963
▁нож	-11.4964
▁заинтересован	-11.4977
▁публік	-11.4979
▁пацверджан	-11.4982
▁ВВП	-11.4982
▁Лунінец	-11.4982
▁ганарова	-11.4982
▁присоедини	-11.4982
▁мэбл	-11.4982
▁паслядоўнік	-11.4982
▁Босні	-11.4982
▁девочек	-11.4982
▁ислам	-11.4982
▁мясцін	-11.4982
▁талант	-11.4982
▁аналагічны	-11.4982
▁царска	-11.4984
▁гвалт	-11.4984
▁струн	-11.4984
технологи	-11.4987
▁маральна	-11.4987
▁падтрымал	-11.4987
▁іспанц	-11.4988
▁пераслед	-11.4988
▁здоровы	-11.4989
▁отвеча	-11.499
▁вашим	-11.499
▁Пан	-11.499
▁камуніста	-11.4993
▁опасны	-11.4995
▁родил	-11.4996
▁погиб	-11.4998
▁трыццац	-11.4998
▁минуту	-11.5
▁сумесны	-11.5002
▁руін	-11.5004
▁утвараю	-11.5006
▁гражданско	-11.5007
▁адзнак	-11.5007
▁яйк	-11.5011
▁Чыкаг	-11.5011
▁Рэк	-11.5018
▁сидя	-11.5018
▁шаш	-11.502
▁Ор	-11.5023
▁запісва	-11.5024
▁дынастыя	-11.5026
▁молод	-11.5032
▁адкрыла	-11.5033
▁выхаванн	-11.5036
▁даты	-11.5037
▁Windows	-11.504
▁абставін	-11.504
▁рэзкі	-11.504
▁перемеща	-11.504
▁пшаніц	-11.504
▁вымаўленн	-11.504
▁франто	-11.504
▁Талсто	-11.5042
▁насилие	-11.5042
▁губля	-11.5043
▁спыня	-11.5043
▁оценива	-11.5045
▁цяжкім	-11.5045
▁Старог	-11.5046
еўскі	-11.5048
▁Малады	-11.5048
▁лясно	-11.5048
▁окружени	-11.5049
▁міжнародным	-11.505
▁збудаванн	-11.5054
▁дзённік	-11.5056
▁земск	-11.5057
маючы	-11.5057
▁просьба	-11.5063
▁вяртанне	-11.5065
▁детски	-11.5067
▁прийти	-11.5067
▁звонк	-11.5069
▁любил	-11.5069
▁перамо	-11.5072
▁играл	-11.508
▁Уэльс	-11.5082
▁капліца	-11.5082
▁захоўвалі	-11.5083
▁вярнулі	-11.5088
▁полос	-11.5092
жыў	-11.5094
▁разлік	-11.5095
части	-11.5095
▁Австрали	-11.5098
▁Барселон	-11.5098
▁Распаўсюджан	-11.5098
▁каланізацы	-11.5098
▁манаграфі	-11.5098
▁Хронік	-11.5099
▁Традыцыйна	-11.5099
▁вылучэнн	-11.5099
▁Гарбачо	-11.5099
▁цукр	-11.5101
▁задумыва	-11.5102
▁стваралі	-11.5103
палітычны	-11.5107
▁борьбе	-11.5115
▁паяс	-11.512
▁студенты	-11.5121
▁павялічва	-11.5121
▁пэўным	-11.5122
▁пята	-11.5123
▁Анатоль	-11.5123
▁выкладанн	-11.5125
▁прочита	-11.5125
▁перажы	-11.513
▁возможным	-11.5132
▁перс	-11.5132
▁апісаны	-11.5132
▁каханн	-11.5136
▁абедзвю	-11.5137
▁различи	-11.5137
▁Кубка	-11.5139
▁166	-11.5141
▁вял	-11.5145
вернуть	-11.5149
ападобна	-11.5151
▁исследовани	-11.5153
▁утро	-11.5157
▁Пухавіцк	-11.5157
▁автобус	-11.5157
▁десятилетия	-11.5157
▁паштова	-11.5157
▁услышать	-11.5157
▁фигур	-11.5157
▁телескоп	-11.5157
▁касцюм	-11.5157
▁тэалогі	-11.5157
▁зелёны	-11.5157
▁понятно	-11.5158
▁срэбра	-11.5158
▁карыстальніка	-11.5158
▁ведёт	-11.5159
▁праспекта	-11.516
▁гонк	-11.5161
▁убеди	-11.5161
▁другому	-11.5163
▁паказаны	-11.5163
▁176	-11.5164
▁сярэдн	-11.5165
▁Вмест	-11.5168
▁дабра	-11.5168
▁пік	-11.5169
▁Мана	-11.517
▁Браслаўскі	-11.5171
▁стрел	-11.5176
▁причинам	-11.5176
▁даждж	-11.5178
▁коротки	-11.518
▁Ленінградска	-11.5185
▁вядомасц	-11.5187
▁архітэктарам	-11.5189
▁стваральнік	-11.5192
▁белк	-11.5193
рыштаваны	-11.5193
▁будынкам	-11.5195
▁сцене	-11.5203
▁падатка	-11.5203
ing	-11.5204
правы	-11.5208
▁класса	-11.5209
▁Раб	-11.521
▁распространен	-11.5213
▁ніш	-11.5214
▁прафесарам	-11.5216
▁грипп	-11.5216
▁содержит	-11.5216
▁федэральны	-11.5216
английски	-11.5217
▁цёмна	-11.5217
▁Адносі	-11.5217
▁падводны	-11.5218
▁кіруючы	-11.5219
▁Уладзіміравіч	-11.522
▁Рускі	-11.522
▁давя	-11.522
▁розніц	-11.522
▁разбіты	-11.5221
▁наведванн	-11.5223
▁памятн	-11.5226
▁продукты	-11.5226
▁половина	-11.5227
дэмакратычна	-11.5228
▁миф	-11.5229
зэ	-11.523
▁подходящ	-11.523
▁пле	-11.5231
▁сило	-11.5236
подрост	-11.5241
▁Канстанцінопал	-11.5242
альнай	-11.5242
▁пераемнік	-11.5244
▁данін	-11.5245
▁груди	-11.5248
▁сообщение	-11.5249
▁сделает	-11.5252
▁записыва	-11.5252
▁удач	-11.5253
▁ранне	-11.5253
▁філалагічны	-11.5255
▁аблічча	-11.5259
▁пищи	-11.5262
▁результатов	-11.5263
зілі	-11.5263
бен	-11.5264
▁Африк	-11.5264
▁аматар	-11.5266
▁страта	-11.5268
▁фундамент	-11.527
▁выконваю	-11.527
▁сложна	-11.5272
▁причине	-11.5274
849	-11.5276
▁позволь	-11.5276
▁благотворительн	-11.5276
▁НАСА	-11.5276
▁Университет	-11.5276
▁размнажэнн	-11.5276
▁ініцыятара	-11.5276
▁украінц	-11.5276
▁Язэп	-11.5276
▁змяшчаюц	-11.5276
▁Ігнат	-11.5276
▁сете	-11.5276
▁насельніцтв	-11.5278
▁поехал	-11.5278
▁шахт	-11.5279
▁падзенне	-11.5282
▁стоял	-11.5283
▁крайні	-11.5283
▁парня	-11.5284
▁забарані	-11.5285
▁гандлёвым	-11.5286
▁речи	-11.5291
▁горд	-11.5293
шить	-11.5294
▁идеал	-11.5295
▁прадстаўля	-11.5296
▁предположени	-11.5298
▁зарэгістраваны	-11.5299
▁роли	-11.5299
▁выкарыстаў	-11.5302
▁занимал	-11.5303
кватэра	-11.5304
▁невялік	-11.5307
▁останавлива	-11.5308
▁ўпадзенн	-11.531
карэспандэнт	-11.5311
▁глазами	-11.5311
▁голод	-11.5312
▁шчасц	-11.5313
▁марак	-11.5313
▁змаганн	-11.5314
▁остановить	-11.5316
un	-11.5317
▁мусульманскі	-11.5318
▁стандартны	-11.5323
ПУ	-11.5325
магчы	-11.5326
▁86	-11.5328
Леон	-11.5329
▁вучн	-11.5331
тир	-11.5333
▁найбуйнейшым	-11.5334
▁мастацкім	-11.5334
оскольк	-11.5335
Анджелес	-11.5336
▁Соединённы	-11.5336
▁бюджэт	-11.5336
▁мінімум	-11.5336
▁сярэднявечна	-11.5336
▁эпізод	-11.5336
▁постепенно	-11.5336
▁разбурана	-11.5336
▁Мадрыд	-11.5336
▁кнопк	-11.5336
▁Людвіг	-11.5336
▁трацін	-11.5336
▁электрически	-11.5337
▁Давыд	-11.5337
▁стольк	-11.5338
▁закончить	-11.5341
▁2-3	-11.5341
▁літоўскім	-11.5343
▁вывад	-11.5343
▁Месяц	-11.5344
▁Міндоўг	-11.5344
▁выкуп	-11.5346
▁забараня	-11.5349
▁ходу	-11.5351
строить	-11.5352
▁Асвет	-11.5353
▁роўнасц	-11.5353
▁маленьким	-11.5356
▁нарыс	-11.5357
▁вечна	-11.5357
▁паўднёв	-11.5359
▁ваяводств	-11.5359
лип	-11.5361
▁плаванн	-11.5362
▁Сербія	-11.5362
десят	-11.5364
▁встреч	-11.5366
▁района	-11.5366
▁своеасаблівы	-11.5367
▁апісанн	-11.5368
▁арганізатар	-11.537
жит	-11.5371
▁сацыял	-11.5371
▁ставілі	-11.5371
роп	-11.5376
▁черн	-11.5376
▁тайны	-11.5379
▁сказ	-11.538
▁Аснов	-11.5381
▁множеств	-11.5385
▁отдал	-11.5385
▁девушк	-11.5388
верхня	-11.5388
▁заканадаўча	-11.5389
азвіццё	-11.5395
▁занять	-11.5396
▁Стамбул	-11.5396
▁зарплат	-11.5396
▁коррупци	-11.5396
▁недастаткова	-11.5396
▁рэйтынг	-11.5396
права	-11.5398
▁паведамленне	-11.5398
▁заболе	-11.5398
▁учителе	-11.5398
▁отличается	-11.5399
▁набег	-11.5401
▁Тра	-11.5401
▁ставя	-11.5403
▁кручэнн	-11.5405
нтов	-11.5405
▁научить	-11.5408
▁рэформа	-11.5408
▁кусочк	-11.5409
▁кожи	-11.5409
▁Дзев	-11.5409
▁ахоўва	-11.5414
актически	-11.5414
▁Гары	-11.5415
▁Савец	-11.5416
IA	-11.5418
▁паслядоўна	-11.5424
▁турыстычны	-11.5431
▁рассказывал	-11.5434
▁збудаваны	-11.544
▁тэрытарыяльна	-11.5445
▁районе	-11.5446
▁Латвія	-11.5447
▁легенда	-11.5451
▁любит	-11.5452
годдзя	-11.5456
▁Абхазі	-11.5457
▁вычислени	-11.5457
▁превосход	-11.5457
▁тэлескоп	-11.5457
▁электрастанцы	-11.5457
▁электраэнергі	-11.5457
▁Сістэм	-11.5457
▁отчёт	-11.5457
▁Доўгі	-11.5457
▁прырост	-11.5457
▁перасялі	-11.5457
▁далучана	-11.5457
▁канстытуцыя	-11.5457
▁згадк	-11.5458
▁кіруюча	-11.5458
▁Ападк	-11.5458
▁канцэпцыя	-11.5458
▁падверг	-11.5458
ice	-11.5459
▁переговор	-11.5461
▁правил	-11.5461
▁дал	-11.5462
▁Зорк	-11.5463
▁лекци	-11.5463
▁вырасл	-11.5464
▁кантроле	-11.5466
ed	-11.547
▁4,5	-11.5472
▁клад	-11.5472
▁палаво	-11.5472
▁прымаю	-11.5473
▁капліц	-11.5475
▁нямецк	-11.5478
▁бумаг	-11.5479
▁смотрели	-11.5481
▁Швейцарыя	-11.5482
▁изучал	-11.5486
▁360	-11.5487
▁прош	-11.549
▁заснавальнікам	-11.5491
▁акупацыя	-11.5494
▁партыйна	-11.5496
▁нрави	-11.5496
▁дзяцінств	-11.5497
▁вырашэння	-11.5501
▁игрок	-11.5502
▁Бон	-11.5502
▁школьна	-11.5503
▁Джорджа	-11.5504
▁каго	-11.5506
▁ісцін	-11.5506
▁ледавік	-11.5506
▁скасавана	-11.5507
▁сума	-11.5507
▁трэнера	-11.5509
центр	-11.551
бол	-11.5511
▁набыцц	-11.5512
▁практыка	-11.5514
▁неожиданно	-11.5518
▁Лацінска	-11.5518
▁Мексик	-11.5518
▁Пушкін	-11.5518
▁адзначаю	-11.5518
▁акупіраван	-11.5518
▁дойлідств	-11.5518
▁коммуникаци	-11.5518
▁пчол	-11.5518
▁спартыўна	-11.5518
▁пратакол	-11.5518
▁Леанід	-11.5518
▁Брусел	-11.5518
▁прыпын	-11.5518
▁чаргова	-11.5518
▁гряз	-11.5518
▁продолжительно	-11.5518
▁0,7	-11.5519
▁единиц	-11.5519
▁фарб	-11.5519
▁Маргар	-11.5519
▁танка	-11.552
▁социальн	-11.5521
▁смотрю	-11.5522
▁Францішка	-11.5524
▁навучы	-11.5525
▁стволовы	-11.5527
▁Роб	-11.5528
▁нападу	-11.5528
нутри	-11.5529
▁камера	-11.553
▁обнаружить	-11.553
долю	-11.553
▁прапанавана	-11.5531
▁вход	-11.5534
▁дзевяц	-11.5536
меньше	-11.5542
▁пазначае	-11.5545
АК	-11.5546
▁абрана	-11.5549
▁будавалі	-11.5552
▁хвароба	-11.5556
верен	-11.5558
▁плаці	-11.5559
▁загадчыка	-11.5559
▁скура	-11.5559
сни	-11.5562
▁знаёмы	-11.5563
▁Стату	-11.5564
▁спуска	-11.5564
▁матыв	-11.5564
▁линия	-11.5564
▁диск	-11.5566
▁Адрозніваюц	-11.5568
▁просмотр	-11.5569
чек	-11.5572
▁Экс	-11.5575
▁изобре	-11.5576
▁массово	-11.5576
▁продолжит	-11.5579
гітлераў	-11.5579
▁Кампані	-11.5579
▁Перыяд	-11.5579
▁ближайши	-11.5579
▁кулямёт	-11.5579
▁кіслот	-11.5579
▁маленькую	-11.5579
▁неафіцыйн	-11.5579
▁нешматлікі	-11.5579
▁удастся	-11.5579
▁узаемадзеянн	-11.5579
▁фабрик	-11.5579
▁аутизм	-11.5579
▁плюс	-11.5579
▁Платон	-11.5579
▁запрет	-11.5579
▁захапленн	-11.558
▁крыло	-11.558
▁Помнік	-11.5581
▁156	-11.5581
ck	-11.5582
▁патрон	-11.5582
▁пора	-11.5583
▁смотрят	-11.5583
▁трохвугольнік	-11.5583
▁затрыма	-11.5586
▁Егіпе	-11.5586
▁сидит	-11.5587
▁грашова	-11.5589
▁5000	-11.5589
▁вобл	-11.559
▁участи	-11.5591
▁выбарча	-11.5596
▁атрымана	-11.5597
▁дыска	-11.5597
▁третий	-11.5597
▁сини	-11.5599
▁внутренне	-11.5599
▁абаронча	-11.56
▁искал	-11.5602
▁Заснавана	-11.5603
апроч	-11.5603
▁Стэфан	-11.5607
▁материала	-11.5607
▁шара	-11.5608
▁Дняпро	-11.5612
▁ценност	-11.5612
весну	-11.5613
▁фараона	-11.5616
▁рул	-11.5618
te	-11.5622
▁надрукава	-11.5623
▁прасі	-11.5629
▁сцэны	-11.5629
▁зацвердзіў	-11.563
▁агульн	-11.563
▁кіравалі	-11.5635
ляют	-11.5637
нули	-11.564
▁симптом	-11.5641
▁справаздач	-11.5641
▁величайш	-11.5641
▁помещени	-11.5641
▁Пекін	-11.5641
▁воспользова	-11.5641
▁мембран	-11.5641
▁злучы	-11.5641
▁даводзі	-11.5641
▁хмызняк	-11.5642
▁исключение	-11.5642
▁хутар	-11.5642
▁честь	-11.5643
▁траўн	-11.5644
▁Марціна	-11.5644
▁полезно	-11.5644
▁хана	-11.5644
▁важнейш	-11.5649
▁вдох	-11.5649
▁мячэц	-11.5652
▁Эміл	-11.5653
▁Парты	-11.5655
▁несчаст	-11.5655
▁поместить	-11.5655
▁бул	-11.5656
▁мусульмане	-11.5657
com	-11.566
▁статусу	-11.5663
▁успаміна	-11.5663
думы	-11.5664
▁электронна	-11.5666
▁семи	-11.5666
▁Рэчыцка	-11.5668
▁картина	-11.567
▁нацыянальнасц	-11.5672
▁заклік	-11.568
▁счита	-11.568
▁адчуванн	-11.5682
▁Пре	-11.5684
стическ	-11.5687
▁опас	-11.5689
▁зыход	-11.569
▁сусвет	-11.5694
▁саюзнік	-11.5696
▁епіскап	-11.5698
ведения	-11.57
▁багацц	-11.57
▁Культур	-11.5703
▁Ричард	-11.5703
▁Старэйш	-11.5703
▁Эфіопі	-11.5703
▁архібіскуп	-11.5703
▁библиотек	-11.5703
▁вопратк	-11.5703
▁гравюр	-11.5703
▁забалочана	-11.5703
▁пригласил	-11.5703
▁інфраструктур	-11.5703
▁Маладзечн	-11.5703
▁обсуждени	-11.5703
▁рожда	-11.5703
▁Индия	-11.5703
▁форум	-11.5703
▁вірус	-11.5703
▁Лепш	-11.5703
▁Васілевіч	-11.5703
▁зеркал	-11.5706
▁арэх	-11.5706
▁пісьменніц	-11.5708
▁даўні	-11.5709
▁выразны	-11.5709
▁патрабавала	-11.5709
▁азнача	-11.571
водят	-11.571
▁загадз	-11.5714
ўшчы	-11.5715
▁представлял	-11.5715
аліту	-11.5715
▁Каралін	-11.5717
▁брама	-11.5718
▁франка	-11.572
▁венгерска	-11.5721
▁вызначыў	-11.5721
стоит	-11.5724
▁пакіда	-11.5725
▁вытворца	-11.5727
▁гарадскім	-11.573
▁Дол	-11.5732
ключала	-11.5734
явить	-11.5744
▁71	-11.5744
▁пустыня	-11.5747
▁адпраўлены	-11.5747
чение	-11.5747
▁рабоче	-11.5748
▁62	-11.575
маёр	-11.5756
▁станци	-11.5756
▁измерения	-11.576
▁рушыл	-11.576
браны	-11.576
▁аналог	-11.5761
▁абмежавання	-11.5762
▁хлопчыка	-11.5763
▁алгебр	-11.5765
▁Старо	-11.5765
▁Дзяржынск	-11.5765
▁Чалавек	-11.5765
▁конструкци	-11.5765
▁скляпенн	-11.5765
▁Верхні	-11.5766
▁Рэфармацы	-11.5766
▁костюм	-11.5766
▁проводим	-11.5766
▁клиник	-11.5766
▁тэхнікум	-11.5768
фин	-11.5771
пользова	-11.5771
▁трэнер	-11.5775
док	-11.5775
▁нападнік	-11.5775
▁цэн	-11.5782
▁субтрапічны	-11.5783
▁небяспечны	-11.5783
▁аўтаматычна	-11.5784
▁морско	-11.5784
тварэнне	-11.5786
▁болезней	-11.5787
▁адрознення	-11.5792
▁поставил	-11.5793
▁аднолькава	-11.5794
▁Завод	-11.5794
▁Варт	-11.5795
▁террорист	-11.5795
▁купц	-11.5796
▁восприяти	-11.5796
▁связ	-11.5797
▁глуб	-11.5803
Е	-11.5804
▁движет	-11.5805
чешь	-11.5808
▁Дэл	-11.5814
▁сядзе	-11.5816
▁духоўн	-11.5817
▁единственн	-11.5817
▁Германска	-11.5818
▁попыт	-11.5819
▁малако	-11.582
▁Пятро	-11.5823
▁Перакла	-11.5823
эмпература	-11.5826
▁важнае	-11.5827
▁Варшава	-11.5827
▁кіламетр	-11.5828
▁капітана	-11.5828
▁Арыстоцел	-11.5828
▁военачальнік	-11.5828
▁камуністычны	-11.5828
▁кінатэатр	-11.5828
▁микроскоп	-11.5828
▁міжваенн	-11.5828
▁паслужыл	-11.5828
▁прамавугольны	-11.5828
▁тэлефон	-11.5828
▁індыйскі	-11.5828
▁Лютэр	-11.5828
▁місіянер	-11.5828
▁адчынен	-11.5828
▁Uni	-11.5828
▁асвятленн	-11.5828
▁Давід	-11.5828
#	-11.5829
▁Бунд	-11.5829
▁Косав	-11.5829
▁элементарны	-11.5829
▁судьб	-11.5831
рение	-11.5833
▁вчера	-11.5833
▁достойн	-11.5834
▁ребёнком	-11.5835
▁літаратар	-11.5835
▁інжынера	-11.5836
▁Кірыл	-11.5836
временно	-11.5837
▁сведчання	-11.5839
▁дапамагл	-11.5843
▁держа	-11.5844
▁борт	-11.5844
▁абмежаванн	-11.5846
▁плануе	-11.5846
▁сацыялізм	-11.5846
▁природа	-11.5847
▁округ	-11.585
▁самим	-11.5852
▁праграмаванн	-11.5853
▁граматык	-11.5855
▁взаимодейству	-11.5857
▁віна	-11.5859
▁гора	-11.586
Усходня	-11.586
▁вулкана	-11.586
▁чыноўніка	-11.586
▁лап	-11.5861
▁считал	-11.5861
▁настаўнікаў	-11.5864
▁моўны	-11.5864
▁детств	-11.5867
▁гварды	-11.5868
▁туры	-11.5872
▁медал	-11.5872
▁накірава	-11.588
▁палатн	-11.5882
▁мера	-11.5883
ёшь	-11.5883
▁афарбоўка	-11.5888
▁числе	-11.589
▁Асамбле	-11.5892
▁Яраслава	-11.5892
▁деревьев	-11.5892
▁отслежива	-11.5892
▁паскарэнн	-11.5892
▁сенсор	-11.5892
▁литератур	-11.5892
▁Адольф	-11.5892
▁цыбул	-11.5892
▁фирм	-11.5892
▁Майсе	-11.5892
▁Храм	-11.5892
▁хаос	-11.5892
▁флор	-11.5892
▁падрабязна	-11.5893
▁десять	-11.5893
▁пожар	-11.5895
▁цягну	-11.5897
▁льв	-11.5898
▁машине	-11.5899
▁весел	-11.59
▁устройств	-11.5905
▁лёт	-11.5905
раект	-11.5907
▁1,8	-11.5909
▁труда	-11.5909
▁апавяданне	-11.5911
▁кратар	-11.5911
▁предложен	-11.5913
следовани	-11.5915
▁чип	-11.5916
▁производить	-11.5923
▁Міхала	-11.5926
▁прызначэнне	-11.5927
▁внутренни	-11.5927
▁карыстанн	-11.5928
▁вырошчванн	-11.5928
йдём	-11.5929
▁существующи	-11.5932
▁пераўтварэння	-11.5934
▁фактарам	-11.5935
▁захопніка	-11.5937
▁вугаль	-11.5938
▁старая	-11.5939
▁уключан	-11.5939
▁разнообразие	-11.5941
▁специалист	-11.5942
▁здольна	-11.5944
▁университете	-11.5946
▁безопасно	-11.5948
▁маршалка	-11.5948
▁древн	-11.5948
▁абарона	-11.595
дзесят	-11.595
▁кровь	-11.595
▁стралкова	-11.5955
▁ўзмацні	-11.5955
Анджэлес	-11.5955
▁Лівоні	-11.5955
▁кашталян	-11.5955
▁пляменнік	-11.5955
▁Наконец	-11.5955
▁сінагог	-11.5955
▁батаре	-11.5955
▁метафор	-11.5956
▁кресл	-11.5957
▁идеально	-11.5957
▁унутр	-11.5958
▁пошли	-11.5959
▁установить	-11.596
▁планавала	-11.5961
▁абавязаны	-11.5961
пиш	-11.5962
дзялення	-11.5964
▁Адэс	-11.5964
▁получила	-11.5964
▁тыдн	-11.5964
▁объекты	-11.5968
ступает	-11.5971
▁інфармацыйны	-11.5973
ходили	-11.5975
▁падпісал	-11.5975
▁слушать	-11.5976
▁пережива	-11.5978
▁ютар	-11.5978
▁каханне	-11.5979
▁планіроўк	-11.5981
▁интересное	-11.5984
▁мух	-11.5985
▁средство	-11.5988
▁психологи	-11.5992
чал	-11.5995
▁луч	-11.5995
▁сапр	-11.6001
▁механічна	-11.6002
▁заходн	-11.6003
▁взаимосвяз	-11.6004
▁операции	-11.6005
▁задн	-11.6007
правлен	-11.601
▁валюта	-11.601
▁окружающ	-11.6011
▁умацавання	-11.6013
▁небо	-11.6014
▁прапанавал	-11.6016
▁мангол	-11.6019
▁Красна	-11.6019
▁Свідрыгайл	-11.6019
▁пячатк	-11.6019
▁Летні	-11.6019
▁Карыбск	-11.6019
▁Служы	-11.602
▁Спроб	-11.602
▁убийств	-11.602
▁Мэта	-11.602
▁эліт	-11.6021
▁справядлівасц	-11.6021
▁Жыв	-11.6021
▁разведк	-11.6021
▁адыходз	-11.6023
▁плацін	-11.6032
▁дахам	-11.6032
▁проверить	-11.6034
▁матыва	-11.6036
▁тэкстыльна	-11.6038
▁паэма	-11.6038
▁езуіта	-11.6039
▁забіва	-11.6041
▁значения	-11.6042
▁хуткі	-11.6046
▁тэхніка	-11.605
▁блізкасц	-11.6051
актычна	-11.6053
▁праекту	-11.6053
▁спрэч	-11.6055
▁Брэсц	-11.6057
▁Буш	-11.6057
▁Клецкі	-11.6058
▁гаворка	-11.6058
▁аўтамабіл	-11.6059
▁афрыканскі	-11.6059
▁перенос	-11.6059
▁прыбор	-11.6062
▁спрашива	-11.607
▁электр	-11.6074
▁Уільяма	-11.6077
даследчы	-11.6079
▁памочніка	-11.608
▁бесконечно	-11.608
▁экономика	-11.6081
▁Сал	-11.6084
▁пчёл	-11.6084
▁ўскраін	-11.6084
▁Microsoft	-11.6084
▁Існавал	-11.6084
▁Нигери	-11.6084
▁Человек	-11.6084
▁арганізоўва	-11.6084
▁дзвяр	-11.6084
▁исключительно	-11.6084
▁славутасц	-11.6084
▁прадмесц	-11.6084
▁курорт	-11.6084
▁Займаў	-11.6084
▁Песня	-11.6084
TC	-11.6086
▁светлавы	-11.6086
▁цягне	-11.6086
▁практык	-11.6088
▁ўпада	-11.609
▁льд	-11.6091
▁Боже	-11.6092
▁малыш	-11.6094
▁стальц	-11.6094
▁меньш	-11.6095
▁Маркс	-11.6096
▁системой	-11.6098
▁книге	-11.6102
▁Оста	-11.6102
ge	-11.6105
▁каманду	-11.6109
зень	-11.6109
▁Маўр	-11.611
▁сообщения	-11.6111
▁ствала	-11.6112
значаны	-11.6112
▁Асобны	-11.6112
▁влияни	-11.6113
▁біяграфі	-11.6115
▁улица	-11.6126
▁меч	-11.613
▁прызнае	-11.613
▁супрацоўнікам	-11.6133
▁Хорош	-11.6133
▁ужыванн	-11.6136
▁основно	-11.614
▁менять	-11.614
спект	-11.614
▁травм	-11.6141
▁вырабляю	-11.6141
▁приносит	-11.6143
▁Атлант	-11.6145
▁долги	-11.6147
▁матэры	-11.6147
▁Слуцкі	-11.6148
▁бліскуч	-11.6149
▁потребля	-11.6149
­	-11.6149
▁Саудаўска	-11.6149
▁абумоўлена	-11.6149
▁арганічна	-11.6149
▁кансерваторы	-11.6149
▁сфармулява	-11.6149
▁топлива	-11.6149
▁дверь	-11.6149
▁0,6	-11.615
▁Людвік	-11.615
ожжа	-11.6151
▁маладым	-11.6151
▁дзіка	-11.6154
▁господ	-11.6156
▁пэўн	-11.6156
▁едва	-11.6157
▁магістрал	-11.6161
курс	-11.6165
▁здоров	-11.617
▁Ваенн	-11.617
▁Гомельскі	-11.6174
▁ўтварыла	-11.6178
▁потребност	-11.618
▁танкава	-11.6181
▁ўзведзен	-11.6184
▁хадзі	-11.6185
ждения	-11.6188
H	-11.6191
▁СІ	-11.6192
▁ані	-11.6194
▁насяля	-11.6197
стон	-11.62
аходжанне	-11.6205
▁сядзіба	-11.6208
▁Свята	-11.621
▁прырода	-11.621
▁справедливост	-11.6211
▁Партыя	-11.6213
▁Конгресс	-11.6214
▁абмеркаванн	-11.6214
▁студэнцкі	-11.6214
▁улучша	-11.6214
▁Агульны	-11.6214
▁малітв	-11.6214
▁противоречи	-11.6214
▁диалог	-11.6214
▁апсід	-11.6214
▁адмоўны	-11.6214
▁археалогі	-11.6214
▁одинаково	-11.6215
▁автомат	-11.6215
▁протез	-11.6215
тэк	-11.6217
▁берёт	-11.6217
▁прарока	-11.6219
▁дзесяцін	-11.622
▁Макс	-11.622
▁вырошчва	-11.6222
▁ядерно	-11.6223
▁ўніз	-11.6224
важен	-11.6228
▁Le	-11.623
▁Аснова	-11.6231
▁1802	-11.6233
▁дацкі	-11.624
▁дли	-11.6241
▁ощущения	-11.6241
льш	-11.6243
▁звання	-11.6247
▁даходзі	-11.625
▁творам	-11.6254
▁спалены	-11.6254
St	-11.6254
▁точк	-11.6255
▁Сэр	-11.6257
▁Рэн	-11.6258
▁Гульня	-11.6259
бирать	-11.626
▁абалонк	-11.6261
▁задал	-11.6262
▁роман	-11.6263
▁рабства	-11.6263
▁прошли	-11.6266
▁выяснил	-11.6269
▁гульцо	-11.6271
▁перы	-11.6273
▁сцягам	-11.6276
▁поставить	-11.6277
▁Альберта	-11.6278
▁ўсталяванн	-11.6278
▁персідска	-11.628
▁Астатні	-11.628
▁Мужчин	-11.628
▁гароднін	-11.628
▁минимум	-11.628
▁нацысцка	-11.628
▁мінімальн	-11.628
▁ліцэ	-11.6281
▁Co	-11.6281
ческа	-11.6281
▁рамеснік	-11.6282
▁Альберт	-11.6282
▁Каков	-11.6282
▁рыбу	-11.6283
▁сатыр	-11.6283
▁пагорк	-11.6284
▁скончы	-11.6285
▁Іосіфа	-11.6285
▁дзесятк	-11.6286
▁установлен	-11.6288
▁отвечает	-11.629
▁Міністр	-11.6291
ование	-11.6291
▁помогаю	-11.6292
▁саюзны	-11.6292
▁вектар	-11.6293
▁Бранск	-11.6295
▁прыдворны	-11.6296
▁дочь	-11.6298
▁перыядычны	-11.6298
▁попытать	-11.6299
▁Другим	-11.6299
▁апек	-11.6303
▁солнце	-11.6304
▁староства	-11.6305
▁вспомина	-11.6307
▁бывает	-11.6308
▁Ашмянск	-11.6309
менна	-11.6309
ёк	-11.631
▁кіна	-11.6311
▁саветнік	-11.6312
▁Міхас	-11.6313
ЗБ	-11.6315
▁Фор	-11.6316
▁паліцыя	-11.6316
▁цифровы	-11.6319
▁комнату	-11.6324
▁святара	-11.6324
пят	-11.6326
▁падпольн	-11.6329
▁справить	-11.6329
▁превратить	-11.633
▁прыкметны	-11.6334
▁политика	-11.6335
жэн	-11.6336
▁адклада	-11.6341
▁собирать	-11.6341
▁паведамлення	-11.6342
▁голад	-11.6343
▁уязвим	-11.6346
▁Linux	-11.6346
▁Баранавічы	-11.6346
▁импульс	-11.6346
▁потеплени	-11.6346
▁цагляны	-11.6346
▁грашовы	-11.6346
▁разруша	-11.6346
▁глубоки	-11.6346
▁латын	-11.6346
▁пратэстанта	-11.6346
▁уважени	-11.6347
▁адхілі	-11.6347
▁удобн	-11.6347
▁Глінск	-11.6347
▁падполл	-11.6348
▁Кажд	-11.6349
▁раслінны	-11.635
▁Много	-11.6351
▁61	-11.6351
▁глыбокім	-11.6351
▁мерапрыемств	-11.6352
▁дакументальны	-11.6355
▁игру	-11.6356
▁спажыванн	-11.6358
▁финансово	-11.6358
▁путе	-11.6358
▁поездк	-11.6359
▁празаі	-11.6359
▁сутыкненн	-11.6361
▁Конкур	-11.6362
▁добрым	-11.6364
▁захаваны	-11.6365
▁утвары	-11.6365
▁мел	-11.6366
▁службовы	-11.6367
▁Хоч	-11.6368
▁торговл	-11.6368
▁проектом	-11.6369
▁размяшчалі	-11.6372
▁1780	-11.6376
▁адмоўна	-11.6379
▁анти	-11.6382
▁насіў	-11.6383
▁Міцкевіча	-11.6384
бин	-11.6385
▁ўварванн	-11.6387
▁подпис	-11.6387
▁атрадам	-11.6393
▁камеру	-11.6397
▁Антона	-11.6398
▁праўленн	-11.6401
▁экстр	-11.6403
▁фін	-11.6404
▁Усходн	-11.6405
▁оставил	-11.6405
▁Бразілія	-11.6413
▁Израил	-11.6413
▁Эйнштейн	-11.6413
▁дрэваапрацоўча	-11.6413
▁дырыжор	-11.6413
▁забруджванн	-11.6413
▁предприяти	-11.6413
▁снижени	-11.6413
▁уздзеянне	-11.6413
▁бірж	-11.6413
▁одинаковы	-11.6413
▁лісця	-11.6413
▁Азии	-11.6413
▁акружаны	-11.6414
▁Тэтч	-11.6414
▁Мікол	-11.6414
▁фотографий	-11.6414
▁разуменне	-11.6415
▁Жак	-11.6416
правлять	-11.6417
▁падтрыманн	-11.6417
▁выживани	-11.6418
▁пресс	-11.6425
▁детско	-11.6427
▁капэл	-11.6427
▁доўгім	-11.6429
▁карман	-11.6429
▁производител	-11.643
▁выраблены	-11.6431
▁салон	-11.6433
▁находящи	-11.6434
▁посыл	-11.6435
▁працягваю	-11.6435
▁ратуш	-11.6438
▁Мазырска	-11.6441
▁кит	-11.6442
▁приняли	-11.6442
▁сознания	-11.6445
▁разбурэння	-11.6445
▁жир	-11.6446
▁кропк	-11.6447
▁аўстрыйска	-11.6448
▁стратэгі	-11.6448
▁плас	-11.6449
▁назвали	-11.645
▁деталь	-11.645
▁Акт	-11.6452
▁волну	-11.6453
▁спецыфічны	-11.6456
▁Работа	-11.6456
▁Берн	-11.6457
▁Дзве	-11.6459
▁углу	-11.6463
▁длинны	-11.6467
▁паўночн	-11.6468
▁принял	-11.6469
▁Вольг	-11.6471
▁парт	-11.6474
станавіў	-11.6475
▁уласн	-11.6477
▁прыняцце	-11.6479
участвовать	-11.648
▁Дэпартамент	-11.648
▁Плутон	-11.648
▁агенцтва	-11.648
▁мяшчан	-11.648
▁рамёств	-11.648
▁распространи	-11.648
▁перапын	-11.648
▁повезло	-11.648
▁критик	-11.648
▁сегодняшне	-11.648
▁жнів	-11.6481
▁сенатара	-11.6481
▁1,1	-11.6481
▁питания	-11.6482
▁служит	-11.6482
▁Шэра	-11.6483
▁даведа	-11.649
▁крыжовы	-11.6491
▁складання	-11.6495
▁Иран	-11.6496
▁Гёт	-11.6497
▁верил	-11.6498
▁промышленност	-11.6499
▁мышлени	-11.6499
▁архів	-11.6501
Франциск	-11.6501
▁Піса	-11.6503
▁Тураў	-11.6503
▁дэльт	-11.6504
государств	-11.6511
▁сучасніка	-11.6512
▁хронік	-11.6513
▁Ніл	-11.6514
▁пакінуты	-11.6519
▁привел	-11.6521
▁коров	-11.6522
▁жыццёвы	-11.6522
▁спако	-11.6525
▁Жыву	-11.6527
бодва	-11.6529
▁сучасн	-11.6529
▁пралівам	-11.653
бон	-11.6533
▁сцэнары	-11.6534
▁Каін	-11.6534
▁пашкоджан	-11.6536
▁преодоле	-11.654
▁сотрудничеств	-11.6543
шэсц	-11.6545
▁инструментов	-11.6545
▁ўтварылі	-11.6545
ваяваў	-11.6546
▁прагрэс	-11.6548
▁Гістарычна	-11.6548
▁Хутка	-11.6548
▁квартир	-11.6548
▁курфюрст	-11.6548
▁нарвежскі	-11.6548
▁прадстаўленн	-11.6548
▁пясчана	-11.6548
▁степень	-11.6548
▁тапонім	-11.6548
▁ўсталявана	-11.6548
▁Каралеўскі	-11.6548
▁адкрывае	-11.6548
сіп	-11.6548
▁Калінін	-11.6549
▁перабудаван	-11.6551
▁ничто	-11.6554
▁доклад	-11.6555
ачэй	-11.6556
▁скарачэнн	-11.6557
▁открывает	-11.6558
▁компьютерны	-11.656
▁собрал	-11.6562
▁Асіпові	-11.6562
▁выбірае	-11.6564
▁De	-11.6565
▁завяршэнн	-11.6566
▁абазначэнн	-11.6566
▁аддзяленн	-11.657
▁эсэ	-11.6575
▁детстве	-11.6577
▁видела	-11.6579
▁приступ	-11.6582
▁каналам	-11.6583
щут	-11.6584
▁кафедра	-11.6586
▁яднанн	-11.6587
▁зняў	-11.6588
▁запуска	-11.659
li	-11.6591
▁пасяліў	-11.6592
берг	-11.6594
▁240	-11.6596
▁забудова	-11.6598
▁основыва	-11.6599
▁выдаваў	-11.66
▁шыра	-11.6601
▁праход	-11.6605
▁четверт	-11.6608
▁захват	-11.6611
▁произошл	-11.6613
▁расширя	-11.6616
▁Очевидно	-11.6616
▁Слабад	-11.6616
▁горизонт	-11.6616
▁егіпецка	-11.6616
▁запрошаны	-11.6616
▁прэстыж	-11.6616
▁рассяленн	-11.6616
▁рэзерв	-11.6616
▁сапрапел	-11.6616
▁фатаграфі	-11.6616
▁іерархі	-11.6616
▁саўгаса	-11.6616
▁Сіцылі	-11.6616
▁изучить	-11.6616
▁Карпат	-11.6616
▁гарызантальны	-11.6616
▁пераўтворан	-11.6616
▁родителям	-11.6616
▁цікавы	-11.6617
▁Томаса	-11.6617
▁Правд	-11.6618
▁суднаход	-11.6619
▁разбіў	-11.6619
▁ясна	-11.6619
▁вадаём	-11.6621
▁Джава	-11.6621
▁указыва	-11.6621
▁датчик	-11.6622
▁вскоре	-11.6624
▁статуя	-11.6625
▁ёмам	-11.6626
▁использован	-11.6627
▁падыходзі	-11.6628
▁застало	-11.6628
▁Брат	-11.663
долго	-11.663
▁ждать	-11.663
режде	-11.6631
▁сценари	-11.6633
▁выбіра	-11.6633
▁пратэсту	-11.6637
▁святаро	-11.6643
▁трывала	-11.6644
▁пройд	-11.6644
▁оценит	-11.6648
▁называл	-11.6652
▁выращива	-11.6653
▁Іаана	-11.6654
▁магнит	-11.6655
щими	-11.6657
▁запуск	-11.6657
▁процілеглы	-11.6661
▁клетку	-11.6662
▁вятр	-11.6664
▁адыграл	-11.6667
▁прызначае	-11.6668
▁долг	-11.667
▁мысля	-11.6673
▁жена	-11.6677
опыт	-11.6678
ногі	-11.6679
▁лини	-11.6679
▁изображен	-11.668
▁бронз	-11.6682
▁распавяда	-11.6684
▁Твиттер	-11.6684
▁адзначаў	-11.6684
▁корпораци	-11.6684
▁расширени	-11.6684
▁симметри	-11.6684
▁событие	-11.6684
▁індывідуальны	-11.6684
амярза	-11.6684
▁карпус	-11.6684
▁коллекци	-11.6684
▁Каліноўск	-11.6684
el	-11.6685
▁авари	-11.6685
▁гучанн	-11.6686
SO	-11.6688
▁национальны	-11.6689
▁Пойма	-11.669
▁тэхні	-11.669
▁ўрачыста	-11.6691
▁выканаўчы	-11.6691
▁Эдуард	-11.6691
▁ўзялі	-11.6692
▁Між	-11.6699
▁вечером	-11.67
▁детал	-11.6702
▁Балгарыя	-11.6703
селены	-11.6704
реки	-11.6704
▁масса	-11.6708
▁Санта	-11.6712
▁верит	-11.6716
▁польз	-11.6717
▁мирового	-11.6718
▁показывал	-11.6718
▁непосредственно	-11.6721
▁экономи	-11.6722
▁сацыялістычны	-11.6725
▁Ок	-11.6725
men	-11.6726
далёк	-11.6729
▁принимают	-11.6733
стоять	-11.6733
▁завяршэння	-11.6734
▁потратил	-11.6734
▁превращает	-11.6736
▁Знак	-11.6736
▁адраджэнне	-11.6737
▁натур	-11.674
▁Створан	-11.6742
▁Стара	-11.6742
▁яўленн	-11.6744
▁шклян	-11.6746
▁220	-11.6746
▁изобретател	-11.6747
аступова	-11.6751
▁Альфрэд	-11.6753
▁Баліві	-11.6753
▁Рудольф	-11.6753
▁Фарадэ	-11.6753
▁демонстриру	-11.6753
▁патрабую	-11.6753
▁энцыклапеды	-11.6753
▁ядзерны	-11.6753
▁мікрараён	-11.6753
▁Усевалад	-11.6753
▁располага	-11.6753
▁шосты	-11.6753
▁прынцэс	-11.6753
▁Аповесц	-11.6753
▁столети	-11.6753
▁уникальны	-11.6754
ологии	-11.6754
▁ектыўна	-11.6755
▁Дети	-11.6755
▁забіта	-11.6758
▁Брэсцкі	-11.6758
▁Отлично	-11.6759
▁синтез	-11.6759
▁создаё	-11.6759
▁пляцоўк	-11.6762
лівы	-11.6763
▁компьютеров	-11.6764
▁пришло	-11.6766
▁настаўніка	-11.6766
▁1,4	-11.6766
▁прапанаваны	-11.6768
▁выраблялі	-11.6769
▁текущ	-11.677
▁морски	-11.677
▁пераўтварэнн	-11.6776
▁запрасі	-11.6777
▁паказва	-11.6778
▁англійск	-11.6781
▁образовани	-11.6785
▁узнік	-11.6786
дзейнасц	-11.6787
▁грады	-11.6788
▁Азербайджана	-11.6789
▁вспомнит	-11.679
▁будущи	-11.6791
▁шчыта	-11.6794
▁старэйшым	-11.6798
▁дополнительны	-11.6798
▁звуков	-11.6798
▁играю	-11.6799
▁здрад	-11.68
▁марскім	-11.6805
цягну	-11.6807
вядзенне	-11.6807
▁сутыкнення	-11.6807
▁сотрудник	-11.6809
▁секунды	-11.681
▁скарачэнне	-11.6813
▁приходил	-11.6814
▁чист	-11.6816
▁производит	-11.6818
▁рисунк	-11.6819
▁крон	-11.682
▁псеўданім	-11.6821
▁арыгінал	-11.6821
▁Крыжа	-11.6822
▁Амстэрдам	-11.6822
▁Брытанскі	-11.6822
▁аплодисменты	-11.6822
▁встретить	-11.6822
▁мерыдыяна	-11.6822
▁оружия	-11.6822
▁прототип	-11.6822
▁Гагарын	-11.6823
▁письма	-11.6823
▁пратэктарат	-11.6823
▁почувствовал	-11.6823
▁перагавор	-11.6823
▁трыбун	-11.6823
▁ацані	-11.6823
▁Лідскі	-11.6823
▁исследу	-11.6823
▁подготовк	-11.6823
▁злучана	-11.6824
▁рэклам	-11.6824
▁састав	-11.6824
▁Восток	-11.6824
▁авеч	-11.6825
▁тэматык	-11.6826
▁кандыдатур	-11.6827
▁выхаванне	-11.6828
▁течени	-11.6829
▁марка	-11.683
▁чорным	-11.6833
▁поколени	-11.6835
▁управление	-11.6835
▁физики	-11.6836
▁заканчива	-11.6836
▁складнік	-11.6842
няцце	-11.6844
▁вырашэнн	-11.6847
▁ведут	-11.6848
▁ўключана	-11.6848
▁сообществ	-11.6857
▁лидеров	-11.6857
▁ужывае	-11.6859
▁работой	-11.686
▁перестал	-11.686
▁сексуальны	-11.6863
ечен	-11.6865
▁парламенц	-11.6865
▁еўрапейскім	-11.6866
▁лучшим	-11.687
▁знаменит	-11.6873
▁заваяваў	-11.6875
▁міф	-11.6879
▁Пакістана	-11.688
▁спадз	-11.6884
▁животным	-11.6884
▁выратаванн	-11.6886
▁пазнаёмі	-11.6886
▁Франціш	-11.6887
▁американц	-11.6889
Рыка	-11.689
▁ежедневно	-11.6891
▁спрос	-11.6891
очной	-11.6891
▁Андерсон	-11.6892
▁Камарын	-11.6892
▁адукацыйны	-11.6892
▁вітамін	-11.6892
▁космас	-11.6892
▁перспектыв	-11.6892
▁прыязджа	-11.6892
▁светапогляд	-11.6892
▁Единственн	-11.6892
▁батанічн	-11.6892
▁выцягнута	-11.6892
▁Всемирн	-11.6892
▁працэнт	-11.6892
▁портрет	-11.6892
▁посеща	-11.6893
▁адзенне	-11.6893
▁явление	-11.6893
▁распространения	-11.6894
▁ацэнка	-11.6895
▁надпісам	-11.6897
▁траўм	-11.6898
▁грамата	-11.6899
▁разно	-11.6899
▁камандаванн	-11.69
▁продела	-11.6901
▁существова	-11.6901
▁Альгерда	-11.6901
▁эп	-11.6902
▁вораг	-11.6903
▁Алена	-11.6905
▁Пагон	-11.6908
▁зліва	-11.6909
▁молекулы	-11.6911
▁лічынк	-11.6913
▁пачуццё	-11.6918
▁дев	-11.6923
▁поступил	-11.6925
▁слуха	-11.6926
▁вузкім	-11.6928
▁Права	-11.6929
бежал	-11.6929
▁Хац	-11.6932
▁отража	-11.6933
▁природу	-11.6933
маш	-11.6934
▁карона	-11.6935
купа	-11.6936
даючы	-11.6938
▁платформа	-11.6939
▁зубр	-11.6939
▁удзельнікам	-11.6941
▁пошт	-11.6944
▁матэматы	-11.6945
▁Каран	-11.6946
▁геалагічны	-11.6946
▁сентября	-11.6946
значительн	-11.6947
сут	-11.6948
▁малым	-11.6956
▁помнікам	-11.6959
▁Характэрна	-11.6963
▁архіепіскап	-11.6963
▁вучона	-11.6963
▁канкрэтны	-11.6963
▁накіроўва	-11.6963
▁паступленн	-11.6963
▁уравнени	-11.6963
▁няўдач	-11.6963
▁пазбаўленн	-11.6963
▁Сенненск	-11.6963
▁захварэ	-11.6963
▁родственник	-11.6963
▁характарызуюц	-11.6963
▁вадзяны	-11.6963
▁закрыта	-11.6963
▁садавін	-11.6963
▁саслоўя	-11.6963
▁захоплена	-11.6963
▁Крычаў	-11.6963
▁стремлени	-11.6963
▁сквер	-11.6963
▁паваг	-11.6963
▁лірычн	-11.6964
▁прымуша	-11.6964
изаци	-11.6964
▁1940-	-11.6964
▁Причин	-11.6964
▁слышать	-11.6964
▁паміра	-11.6966
▁наладзі	-11.6966
▁трени	-11.6967
▁сложи	-11.6967
▁хорошим	-11.6968
▁Аўстрыйска	-11.697
▁государство	-11.6973
▁зменены	-11.6973
▁металургі	-11.6973
▁арт	-11.6974
▁перабра	-11.6975
▁скрыва	-11.6976
▁ніжэйшы	-11.6976
▁оказаться	-11.6977
▁реакция	-11.6978
▁раскоп	-11.6979
▁таварыств	-11.698
▁детали	-11.6981
▁предложит	-11.6981
яўляў	-11.6986
перац	-11.6987
▁творчеств	-11.6995
крылы	-11.6999
▁рассказываю	-11.6999
▁поразительно	-11.7
лейтэнант	-11.7002
▁финансировани	-11.7002
ведала	-11.7004
рослы	-11.7006
▁Хол	-11.7006
▁паляўнічы	-11.7007
▁доступа	-11.701
▁аркестр	-11.7011
▁Форд	-11.7012
▁Ліс	-11.7013
▁атмосферу	-11.7013
рожден	-11.7022
▁скліка	-11.7022
▁любов	-11.7029
▁пасяджэння	-11.7033
▁Рузвельт	-11.7034
▁абарачэнн	-11.7034
▁адгалінаванн	-11.7034
▁акупаваны	-11.7034
▁препятстви	-11.7034
▁рэгіянальна	-11.7034
▁ўзмацненн	-11.7034
▁паўторна	-11.7034
▁прыдатны	-11.7034
▁пенси	-11.7034
▁суседзя	-11.7034
▁Осла	-11.7034
▁Тон	-11.7034
▁ўмерана	-11.7034
▁хакер	-11.7034
▁гриб	-11.7035
▁избавиться	-11.7035
▁Дэвид	-11.7036
▁палец	-11.7038
▁враг	-11.7039
▁искусственно	-11.704
▁интересует	-11.7042
▁актыўным	-11.7044
▁Данія	-11.7044
▁Рашэнн	-11.7044
▁змяняю	-11.7045
▁умени	-11.7046
▁коран	-11.7046
▁гарача	-11.7051
▁ником	-11.7055
▁расстраляны	-11.7058
▁быстры	-11.7058
▁удзельнічал	-11.7059
▁самка	-11.706
▁баяво	-11.7065
▁Максімальн	-11.7066
▁Камітэта	-11.7066
▁тканк	-11.7068
ставляют	-11.707
▁выявіла	-11.7071
▁чэшскі	-11.7073
▁′	-11.7075
▁крыштал	-11.7079
▁парушэння	-11.7079
генера	-11.708
▁злучаю	-11.708
▁Ro	-11.7089
шедш	-11.7093
▁комар	-11.7093
▁признан	-11.7094
звычай	-11.7094
▁транспартна	-11.7095
▁Навук	-11.7101
▁креп	-11.7104
▁неадкладна	-11.7105
золісты	-11.7105
▁Найвышэйшы	-11.7105
▁амерыканц	-11.7105
▁канцлера	-11.7105
▁нагрузк	-11.7105
▁незадаволенасц	-11.7105
▁столкновени	-11.7105
▁дабрабыт	-11.7105
▁счастья	-11.7105
▁захватывающ	-11.7105
▁Руанд	-11.7105
▁тэрас	-11.7105
▁шэры	-11.7105
▁цукровы	-11.7105
▁незвычайна	-11.7106
▁складанасц	-11.7106
▁влият	-11.7107
▁Садружнасц	-11.7108
▁красн	-11.7108
▁адкрылі	-11.711
▁пеш	-11.711
▁НАН	-11.711
▁падтрымлівалі	-11.7111
▁вечно	-11.7113
▁іграко	-11.7116
▁105	-11.7117
▁Прынят	-11.7118
▁самолет	-11.7121
▁знішчыл	-11.7122
▁цяпл	-11.7122
ведзены	-11.7123
лічваю	-11.7124
▁здзяйсняе	-11.7124
▁парламенцка	-11.7128
▁экономист	-11.7133
▁возникл	-11.7134
▁уверенность	-11.7138
▁коз	-11.7139
▁Тул	-11.7139
▁бас	-11.714
▁забі	-11.7141
▁привыкл	-11.7143
перак	-11.7145
▁смак	-11.7148
▁Каж	-11.7149
▁свойства	-11.715
▁перанесены	-11.7151
очка	-11.7151
▁шэрагам	-11.7154
▁абірае	-11.7154
звать	-11.7156
▁кроп	-11.7157
▁Мад	-11.7159
▁воля	-11.716
▁Нігеры	-11.7161
▁Лун	-11.7161
▁пераправ	-11.7161
▁кавалеры	-11.7166
▁утварэнне	-11.7169
▁держать	-11.717
▁супольна	-11.7172
▁Грамад	-11.7172
▁прафесі	-11.7173
▁главным	-11.7174
▁сексуально	-11.7176
▁панаванне	-11.7177
▁Пецярбургска	-11.7177
▁Вальтэр	-11.7177
▁Паскевіч	-11.7177
▁Узброены	-11.7177
▁атрымоўва	-11.7177
▁дыктатур	-11.7177
▁дыяцэзі	-11.7177
▁загрязнен	-11.7177
▁змешчана	-11.7177
▁перамяшча	-11.7177
▁распасціра	-11.7177
▁тэарэм	-11.7177
▁универсальн	-11.7177
▁інвентар	-11.7177
▁Лорэнц	-11.7177
▁дельфин	-11.7177
▁телевидени	-11.7177
▁внешни	-11.7177
▁дыплом	-11.7177
▁цитат	-11.7177
▁вертыкальна	-11.7177
▁Славені	-11.7177
▁прибыль	-11.7177
▁гатычны	-11.7177
▁шлем	-11.7178
▁утрыманн	-11.7178
▁правільна	-11.7178
▁терроризм	-11.7179
▁патент	-11.7179
▁унікальн	-11.718
▁заключыў	-11.718
▁узніка	-11.718
▁Мядзельск	-11.7181
▁Ферм	-11.7183
▁чай	-11.7183
▁площад	-11.7183
▁колерам	-11.7184
званы	-11.7186
▁Рыгора	-11.7188
▁дакладн	-11.7189
▁выставк	-11.719
▁ўзнагароджан	-11.719
▁маральны	-11.7192
▁лед	-11.7194
▁суверэнітэт	-11.7194
▁Дунай	-11.7195
▁Англии	-11.7198
▁змянілі	-11.7198
▁Інтэрнэт	-11.7201
▁перакладзены	-11.7203
▁наблюдени	-11.7206
▁Al	-11.7215
▁жест	-11.7215
▁Асоб	-11.7219
человеческ	-11.7222
точку	-11.7222
▁дзяржаўнасц	-11.7223
▁коротко	-11.7225
▁направления	-11.7227
▁стекл	-11.7228
▁пабудавал	-11.723
▁старшы	-11.7231
▁захоўвала	-11.7234
▁Ниче	-11.7235
▁выступлення	-11.7239
▁адзначан	-11.7244
▁Калумб	-11.7246
▁красно	-11.7248
▁пальца	-11.7249
▁4000	-11.7249
▁праліва	-11.7249
▁Apple	-11.725
▁Аўтаномна	-11.725
▁Леапольд	-11.725
▁астранамічны	-11.725
▁варожы	-11.725
▁интерфейс	-11.725
▁каланіяльны	-11.725
▁нечакана	-11.725
▁Шылер	-11.725
▁выбрасыва	-11.725
▁Тышкевіч	-11.725
▁незвычайны	-11.725
▁бедна	-11.7251
▁постоянн	-11.7255
▁напоминает	-11.7255
▁жизненно	-11.7257
індзі	-11.7259
▁доўг	-11.7262
▁похожа	-11.7264
раўне	-11.7265
▁калярова	-11.7268
Дзін	-11.7271
▁долар	-11.7271
▁фінансаванн	-11.7272
ox	-11.7274
▁пытают	-11.7279
▁Сусветны	-11.7281
▁содержание	-11.7282
▁эфектыўна	-11.7282
▁малочны	-11.7283
▁потерял	-11.7285
кормить	-11.7285
чэння	-11.7287
▁шпітал	-11.7289
▁садзейніча	-11.7291
▁Глеба	-11.7293
▁преимуществ	-11.7295
▁выпусці	-11.7298
▁сустрэча	-11.73
▁сильн	-11.7301
▁натуральным	-11.7302
▁паверха	-11.7303
▁віла	-11.7303
▁Слонім	-11.7306
▁формула	-11.7308
хваль	-11.7309
▁гульца	-11.731
БМ	-11.7311
▁Амундсена	-11.7314
▁намерен	-11.7316
править	-11.7317
▁конкретны	-11.7317
▁сосуд	-11.7319
▁отсутствие	-11.7321
▁соединен	-11.7321
▁читал	-11.7321
▁аграрна	-11.7323
▁волшебн	-11.7323
▁пацвярджа	-11.7323
▁Вінцэнт	-11.7323
▁Запавет	-11.7323
▁агламерацы	-11.7323
▁месцазнаходжанн	-11.7323
▁экспансі	-11.7323
▁інвестыцы	-11.7323
▁БСГ	-11.7323
▁предпочита	-11.7323
▁Славацка	-11.7323
выканкам	-11.7323
▁далучылі	-11.7323
▁бухт	-11.7324
▁лазер	-11.7324
▁падрыхтаваны	-11.7324
▁падаўленн	-11.7325
▁сойма	-11.7325
▁пусто	-11.7327
▁юг	-11.7327
▁обнаружив	-11.7327
▁нарисова	-11.7327
▁сахар	-11.7329
▁сёмы	-11.7329
▁Ціхі	-11.7331
▁аперацыйна	-11.7331
▁штогадовы	-11.7332
▁найден	-11.7334
следствие	-11.7335
чиков	-11.7336
▁кантынентальны	-11.7336
▁среда	-11.7342
▁удивлени	-11.7344
▁парушэнне	-11.7344
▁прыкмета	-11.7345
бросить	-11.7347
▁Каір	-11.7347
▁наступленн	-11.7347
▁Эры	-11.7348
▁коллектив	-11.7349
▁лун	-11.7351
▁позвонил	-11.7352
▁бедност	-11.7353
сляды	-11.7356
▁супрацьстаянн	-11.7357
▁армянска	-11.7361
евая	-11.7364
▁государственно	-11.7365
▁оборудование	-11.7365
▁кіда	-11.7366
▁электричество	-11.7367
▁адзнака	-11.7371
▁сплав	-11.7371
▁пальм	-11.7372
▁разумны	-11.7376
▁ператварыла	-11.738
ent	-11.7384
▁грамадскасц	-11.7386
▁Мазыр	-11.7386
▁называемо	-11.7386
▁паказа	-11.7387
▁магіла	-11.7387
циальн	-11.7388
▁военно	-11.7388
▁влияю	-11.7391
▁команду	-11.7391
▁порядка	-11.7392
▁заключен	-11.7393
▁Нача	-11.7394
▁заканчвае	-11.7396
▁сутыкну	-11.7396
▁Ракасоўск	-11.7396
▁заможны	-11.7396
▁предотвратит	-11.7396
▁спрабуе	-11.7396
▁трамвайны	-11.7396
▁тэлеканал	-11.7396
▁энергетык	-11.7396
▁смаленск	-11.7396
▁дацэнт	-11.7396
▁дапаможны	-11.7396
▁мёд	-11.7397
▁сокращен	-11.7397
▁здары	-11.7403
K	-11.7406
▁хара	-11.7407
▁абвінавачванн	-11.7408
▁словар	-11.7408
▁космически	-11.7412
▁интересна	-11.7414
▁губернскі	-11.7414
▁Федэральн	-11.7415
▁літаратуразна	-11.7418
▁уладанн	-11.7419
▁прожива	-11.742
рэгуляванн	-11.7424
▁орбит	-11.7425
▁гаворк	-11.7426
▁трое	-11.7427
▁площадк	-11.7429
ўленне	-11.7431
▁погод	-11.7434
ation	-11.7436
▁строительств	-11.7439
▁беженце	-11.744
▁этнаграфі	-11.744
▁наблюдения	-11.7441
▁девочки	-11.7445
▁экалагічны	-11.7447
ования	-11.7447
ярнуўшыс	-11.7448
▁зрок	-11.745
▁Пала	-11.745
▁Ард	-11.7455
▁ствол	-11.7458
▁исчез	-11.7459
▁долин	-11.7459
▁Алег	-11.7462
▁Смерц	-11.7464
▁Джонс	-11.7469
краязнаўчы	-11.747
▁Intern	-11.747
▁Альбрэхт	-11.747
▁МТС	-11.747
▁вывяржэнн	-11.747
▁диагноз	-11.747
▁магазін	-11.747
▁специальны	-11.747
▁тлушч	-11.747
▁імавернасц	-11.747
▁Интересно	-11.747
▁крытэры	-11.747
▁разрабава	-11.747
▁астроном	-11.747
▁преуспе	-11.747
▁внешне	-11.747
▁Истори	-11.747
▁115	-11.747
▁найдёт	-11.747
▁Багушэвіч	-11.747
▁британ	-11.747
▁учитель	-11.747
▁прыносі	-11.747
▁традиционно	-11.747
▁1803	-11.7471
▁точне	-11.7471
▁выплат	-11.7473
▁хлопчык	-11.7473
▁нядаўна	-11.7473
▁сямейны	-11.7473
▁самак	-11.7474
▁сведк	-11.7476
▁сыгра	-11.7476
▁древни	-11.7479
▁закрыва	-11.7479
▁инвалид	-11.7485
▁перыядам	-11.7487
опасности	-11.7489
▁алфавіта	-11.749
▁існуючы	-11.7491
▁порядо	-11.7494
▁медицины	-11.7496
▁камісара	-11.7497
энне	-11.7499
▁ребенка	-11.7499
▁ўлічва	-11.75
▁стваральніка	-11.7503
следуе	-11.7506
▁разбурэнн	-11.7507
▁Люблін	-11.7509
▁отправили	-11.7509
▁Жана	-11.7512
▁цеплаво	-11.7513
▁коллеги	-11.7513
▁біскупам	-11.7517
▁бачыл	-11.7519
▁кантынен	-11.752
▁выбрали	-11.7524
▁доктора	-11.7525
▁апісваю	-11.7526
▁Каспійска	-11.7529
▁поэт	-11.7531
▁нашчадкам	-11.7534
влекательн	-11.7535
▁производств	-11.7538
▁Княств	-11.7541
ЦР	-11.7543
▁абсталяван	-11.7544
▁Валянцін	-11.7545
▁автомобиля	-11.7545
▁гарызонт	-11.7545
▁достоинств	-11.7545
▁изначально	-11.7545
▁муніцыпальны	-11.7545
▁показатели	-11.7545
▁популяци	-11.7545
▁привлечь	-11.7545
▁трагеди	-11.7545
▁мовазнаўств	-11.7545
▁дзюб	-11.7545
▁Последни	-11.7545
▁Гарэцк	-11.7545
▁банкнот	-11.7545
▁приятно	-11.7545
▁малак	-11.7545
▁разгарну	-11.7547
▁ключавы	-11.7548
▁парастк	-11.7548
▁умирают	-11.7549
▁мелки	-11.7549
▁густы	-11.755
экономическ	-11.755
нит	-11.7552
▁145	-11.7553
▁адценне	-11.7554
▁отличи	-11.7555
▁імперск	-11.7556
▁компьютерно	-11.7557
▁прыбыцц	-11.7557
▁Вось	-11.7557
▁звезды	-11.756
▁льда	-11.7561
▁стоящ	-11.7563
▁отход	-11.7564
▁ўчастка	-11.7565
▁страва	-11.7565
▁заключалас	-11.7568
▁отмеч	-11.7572
▁зрение	-11.7572
▁созданны	-11.7572
▁крышталічн	-11.7573
▁1838	-11.7573
▁отделени	-11.7575
ошел	-11.7576
▁авиа	-11.7576
новому	-11.7577
▁эмоциональн	-11.7577
▁благ	-11.7577
▁восстановить	-11.7578
арска	-11.7581
▁Сала	-11.7582
азнаўств	-11.7582
▁настаўні	-11.7584
▁крупнейши	-11.7586
▁тысячагоддз	-11.7586
полне	-11.7592
▁ожидал	-11.7592
▁наступленне	-11.7595
▁огромным	-11.7596
андр	-11.7597
▁вылучаны	-11.7598
▁тэхналагічны	-11.7605
▁Пастаўскі	-11.7607
▁практыку	-11.7614
▁вартасц	-11.7615
▁валадар	-11.7617
▁космическо	-11.7618
▁ўзнік	-11.7618
▁суправаджае	-11.762
▁Сустрака	-11.762
▁Вавілон	-11.762
▁нравятся	-11.762
▁палкоўніка	-11.762
▁паштовы	-11.762
▁перасяленн	-11.762
▁презентаци	-11.762
▁прыхільнасц	-11.762
▁растлумачы	-11.762
▁срэбны	-11.762
▁экіпаж	-11.762
▁засяленн	-11.762
▁начнём	-11.762
▁мадэрнізацы	-11.762
▁парне	-11.762
▁эмігранта	-11.762
▁паспеў	-11.7621
▁хрыб	-11.7621
▁аптычн	-11.7621
▁Пятровіч	-11.7622
▁Разве	-11.7622
▁банан	-11.7623
▁отсюда	-11.7624
▁традыцыйным	-11.7624
▁готык	-11.7627
▁канстытуцыйна	-11.7627
кин	-11.7631
▁вільготнасц	-11.7632
▁маскоўскім	-11.7635
▁выпадкова	-11.7642
▁Li	-11.7647
▁Гітлер	-11.7653
▁остановил	-11.7653
ha	-11.7657
▁относи	-11.7658
▁Кени	-11.7661
▁виртуальн	-11.7664
двери	-11.7664
▁паўабаронца	-11.7664
▁восп	-11.7666
▁чэмпіёнам	-11.7668
▁добр	-11.7669
▁Бат	-11.7672
▁продемонстрир	-11.7672
▁государственны	-11.7673
▁принимает	-11.7674
▁лучш	-11.7678
▁Лар	-11.7682
▁насекомых	-11.7686
▁могілк	-11.7688
▁Какой	-11.7691
тус	-11.7692
▁скарыста	-11.7694
конференци	-11.7694
▁некотором	-11.7694
▁восстановлен	-11.7695
▁пакідае	-11.7695
▁аналаг	-11.7696
▁астероид	-11.7696
▁вымушана	-11.7696
▁жидкост	-11.7696
▁камунікацы	-11.7696
▁карпарацы	-11.7696
▁лютэран	-11.7696
▁партугальска	-11.7696
▁подразумева	-11.7696
▁сярэбраны	-11.7696
▁спартсмен	-11.7696
▁угрожа	-11.7696
▁утворана	-11.7696
▁фермент	-11.7696
▁Камуна	-11.7696
▁Среди	-11.7696
▁развиты	-11.7696
▁Росси	-11.7698
▁футбольна	-11.7698
▁всяки	-11.7703
▁прыбыт	-11.7706
лететь	-11.7707
▁нужд	-11.7709
▁депресси	-11.7715
каталіцка	-11.7716
▁публічны	-11.7721
▁Рон	-11.7724
▁Крыніц	-11.7724
▁круто	-11.7725
▁считали	-11.7727
▁выхадца	-11.7729
▁індзейц	-11.7729
▁Цэзара	-11.773
▁стужка	-11.7732
▁колен	-11.7735
▁Камітэт	-11.7737
▁дасягненне	-11.7739
▁камісар	-11.7745
▁зданий	-11.7746
▁ўмоў	-11.7748
▁архітэктурна	-11.7749
▁Паб	-11.7754
▁темп	-11.7755
▁135	-11.7755
▁арыентавана	-11.7758
▁действи	-11.776
▁вокн	-11.7761
▁роспіс	-11.7762
▁навукоўцам	-11.7764
▁рымскім	-11.7767
▁прададзен	-11.777
верят	-11.777
▁Толкін	-11.7772
▁дискусси	-11.7772
▁ўрочышч	-11.7772
▁Хадкевіч	-11.7772
▁кваліфікацы	-11.7772
▁недостатк	-11.7772
[...]
