<unk>	0
<s>	0
</s>	0
<pad>	0
▁,	-2.78389
▁.	-3.02251
▁und	-3.78336
▁die	-3.8317
en	-3.88634
n	-4.19266
▁sie	-4.21502
▁das	-4.25858
s	-4.27185
▁ich	-4.29719
▁der	-4.3168
▁ist	-4.37988
▁es	-4.45679
▁wir	-4.46401
▁in	-4.48713
▁zu	-4.56448
▁ein	-4.82282
;	-4.85608
▁&	-4.87609
▁eine	-4.91711
quot	-4.94981
▁nicht	-5.03863
▁von	-5.04371
▁diese	-5.07608
▁dass	-5.12012
▁den	-5.15021
▁mit	-5.22626
e	-5.23775
▁	-5.23804
▁auf	-5.28088
▁wie	-5.31496
t	-5.39574
▁sich	-5.45218
▁man	-5.46938
▁sind	-5.48493
▁aber	-5.49785
▁?	-5.50294
▁:	-5.50892
▁an	-5.51247
-	-5.52267
▁haben	-5.52858
▁für	-5.52888
▁was	-5.54674
▁so	-5.56387
▁wenn	-5.56957
▁war	-5.66523
▁als	-5.66664
▁er	-5.66704
m	-5.71838
▁um	-5.72819
r	-5.73931
▁im	-5.82648
▁also	-5.87238
▁dem	-5.91393
▁aus	-5.93895
er	-5.96981
▁uns	-5.98633
▁hier	-5.98751
▁können	-5.99849
▁des	-6.02264
▁über	-6.03408
▁einen	-6.07398
▁werden	-6.07948
▁hat	-6.09542
▁oder	-6.11398
▁kann	-6.16321
▁auch	-6.19698
▁sehr	-6.23344
▁einer	-6.23896
▁dann	-6.25426
▁etwa	-6.26259
▁einem	-6.28642
▁nur	-6.28753
▁wird	-6.29935
▁–	-6.30374
▁sein	-6.31187
▁gibt	-6.33742
▁nach	-6.35328
▁mich	-6.35827
▁ihnen	-6.36039
▁menschen	-6.36342
▁da	-6.38477
▁ihre	-6.38566
▁meine	-6.39198
▁vor	-6.4231
▁sehen	-6.4246
▁habe	-6.47296
▁noch	-6.4827
▁bei	-6.55759
▁mir	-6.56363
▁alle	-6.60969
▁--	-6.61451
▁mehr	-6.6306
▁welt	-6.64303
▁ihr	-6.68139
▁unsere	-6.70835
▁nun	-6.71958
▁leben	-6.73202
▁wirklich	-6.74997
▁wurde	-6.75887
▁würde	-6.76235
▁weil	-6.76752
▁keine	-6.76815
▁machen	-6.7716
▁zum	-6.7825
▁durch	-6.79731
es	-6.84827
▁dies	-6.85081
▁viel	-6.85691
▁andere	-6.85741
▁immer	-6.86502
▁am	-6.87674
▁tun	-6.87811
▁wissen	-6.88296
▁jetzt	-6.88327
▁sagte	-6.89205
▁wo	-6.89888
.	-6.93205
▁hatte	-6.93774
▁zeit	-6.93813
▁-	-6.94742
▁dinge	-6.94831
▁viele	-6.96662
▁zwei	-6.96731
▁bis	-6.96807
▁einfach	-6.9705
▁leute	-6.98961
▁du	-7.00389
▁sagen	-7.06355
▁selbst	-7.07341
▁bin	-7.09557
▁alles	-7.11268
▁müssen	-7.11684
▁mein	-7.13232
▁art	-7.1411
▁jahren	-7.16381
▁denn	-7.16466
▁einige	-7.18341
▁waren	-7.1852
▁ganz	-7.18559
▁gut	-7.19698
▁damit	-7.21824
▁anderen	-7.22211
▁diesen	-7.234
▁vielleicht	-7.24194
ung	-7.24382
▁mal	-7.2646
st	-7.26841
▁geht	-7.28124
▁seine	-7.2871
▁zur	-7.29127
▁jahre	-7.29342
▁wieder	-7.29682
▁ob	-7.32506
▁ge	-7.32787
▁ja	-7.32804
▁muss	-7.33501
▁schon	-7.37705
▁warum	-7.37797
▁möchte	-7.37801
▁ab	-7.39477
▁all	-7.40594
▁tatsächlich	-7.41352
▁kleine	-7.4187
▁macht	-7.42479
▁kinder	-7.43421
▁geschichte	-7.4462
▁konnte	-7.45462
▁drei	-7.4717
ser	-7.47959
▁welche	-7.48455
▁davon	-7.49058
dem	-7.4919
▁dort	-7.49619
▁genau	-7.50464
▁kein	-7.51163
▁denken	-7.5295
apos	-7.53383
▁ihn	-7.54231
▁paar	-7.54505
d	-7.54734
▁unter	-7.55413
▁könnte	-7.55927
▁werde	-7.56064
▁jahr	-7.5675
▁hatten	-7.58148
▁gehen	-7.58731
▁zurück	-7.59288
▁ganze	-7.5931
▁darüber	-7.59847
▁lassen	-7.60286
▁weg	-7.60996
▁gab	-7.61395
▁beispiel	-7.61926
▁wollen	-7.6234
▁weiter	-7.62455
▁teil	-7.63026
▁problem	-7.64049
▁nie	-7.64063
▁je	-7.64105
▁wenig	-7.65098
▁meiner	-7.65369
▁wollte	-7.66436
▁natürlich	-7.67152
▁jeder	-7.6902
▁wurden	-7.70205
▁große	-7.70686
▁denke	-7.71075
▁während	-7.71278
▁!	-7.71489
▁weiß	-7.71622
▁neue	-7.72058
▁erste	-7.72548
▁frage	-7.72555
▁gemacht	-7.72662
▁glaube	-7.72695
▁zusammen	-7.73837
▁unser	-7.74253
▁kommen	-7.74283
te	-7.74448
▁dazu	-7.75724
▁wäre	-7.75944
▁jemand	-7.76935
▁zwischen	-7.77031
▁gerade	-7.77232
▁doch	-7.77252
▁will	-7.77583
▁vom	-7.7829
a	-7.78944
▁unserer	-7.78977
▁tag	-7.79374
▁sogar	-7.79587
ht	-7.79638
▁finden	-7.79741
▁ohne	-7.80274
▁einmal	-7.80492
▁sagt	-7.80686
▁ging	-7.80938
▁ersten	-7.81214
▁geben	-7.81919
▁prozent	-7.81986
▁arbeit	-7.82547
▁hätte	-7.82929
▁kommt	-7.83199
▁passiert	-7.84547
▁sondern	-7.84738
▁dafür	-7.84787
▁zeigen	-7.85158
▁ihrer	-7.86525
▁;	-7.88304
▁verstehen	-7.90034
in	-7.90055
▁wasser	-7.90587
▁meisten	-7.90628
▁land	-7.90779
▁s	-7.91071
▁millionen	-7.91479
heute	-7.91692
▁jede	-7.91797
▁daran	-7.92144
▁dachte	-7.92636
▁heut	-7.92682
▁eigene	-7.92736
▁sollte	-7.93568
▁heraus	-7.94043
▁bild	-7.94382
▁wichtig	-7.9439
▁ziemlich	-7.94504
▁idee	-7.94963
▁stellen	-7.95182
▁besser	-7.95212
em	-7.97533
▁vielen	-7.9767
▁geld	-7.97696
▁nehmen	-7.97766
▁letzten	-7.9977
▁sprechen	-8.00193
▁dabei	-8.00594
▁gehirn	-8.03275
▁frauen	-8.03487
▁nichts	-8.03785
▁sollten	-8.03949
▁danke	-8.03954
▁fragen	-8.04204
▁bekommen	-8.04316
▁gute	-8.04401
▁kam	-8.04698
▁möglich	-8.05216
▁könnten	-8.05351
k	-8.05553
▁ver	-8.05689
▁arbeiten	-8.06109
▁darauf	-8.06795
y	-8.0748
▁eigentlich	-8.0768
▁sache	-8.08053
▁daten	-8.08302
▁be	-8.08651
▁vier	-8.087
▁dollar	-8.10625
▁seit	-8.1091
▁technologie	-8.11645
▁lernen	-8.12608
▁richtig	-8.12748
▁gegen	-8.12748
▁pro	-8.13051
▁verschiedene	-8.13342
o	-8.13342
▁wahrscheinlich	-8.13773
▁grund	-8.13897
lich	-8.14021
▁begann	-8.14522
b	-8.15596
▁ende	-8.15809
▁bedeutet	-8.16106
▁raum	-8.17337
▁gesehen	-8.17575
▁ihm	-8.17723
▁glauben	-8.17851
▁brauchen	-8.18129
▁20	-8.18455
erweise	-8.18912
▁meinen	-8.19046
▁hin	-8.19052
▁seite	-8.19166
▁jedes	-8.19326
schen	-8.19715
▁sicher	-8.19843
h	-8.19915
▁nein	-8.20345
▁weise	-8.22259
▁menge	-8.22358
▁10	-8.22623
▁gleich	-8.22932
▁fünf	-8.2337
▁wissenschaft	-8.23587
▁möglichkeit	-8.2394
▁großen	-8.23944
▁bringen	-8.24089
▁beide	-8.24195
▁versuchen	-8.24652
keit	-8.25443
▁heiß	-8.26048
▁...	-8.26162
▁information	-8.26485
▁musste	-8.272
▁wer	-8.27626
▁zukunft	-8.27794
▁körper	-8.278
▁energie	-8.27805
▁frau	-8.27806
▁zeigt	-8.27939
▁gern	-8.27981
▁jeden	-8.28748
▁computer	-8.29972
▁sei	-8.30015
▁ort	-8.30775
▁unseren	-8.3133
▁fast	-8.31413
▁später	-8.31844
▁nutzen	-8.31869
ten	-8.32017
▁gesagt	-8.32198
▁system	-8.32457
▁lange	-8.3272
mals	-8.32949
▁einzige	-8.33468
▁ungefähr	-8.33616
den	-8.33793
▁funktioniert	-8.3418
▁erde	-8.34341
▁schnell	-8.34669
▁dank	-8.35733
▁lang	-8.35899
▁schauen	-8.36031
rum	-8.36191
▁mutter	-8.363
▁kind	-8.3683
▁un	-8.3732
▁beim	-8.37571
▁person	-8.37708
sten	-8.37986
▁schaffen	-8.38006
wohl	-8.38591
▁anfang	-8.38785
zu	-8.3961
▁natur	-8.39744
▁fall	-8.39777
▁seiner	-8.39898
▁anders	-8.40376
▁oft	-8.40969
▁probleme	-8.41101
▁essen	-8.41548
▁lebens	-8.41683
▁sah	-8.41944
▁hoch	-8.42005
▁spielen	-8.42362
▁licht	-8.42546
halb	-8.42552
▁erzählen	-8.42583
de	-8.43422
▁entwickelt	-8.43494
▁moment	-8.43875
▁liebe	-8.44573
us	-8.45296
▁genug	-8.4696
▁helfen	-8.46978
▁stadt	-8.47492
▁überall	-8.48504
g	-8.48868
▁her	-8.4911
▁nächsten	-8.49171
▁buch	-8.49909
chmal	-8.50246
▁ideen	-8.50468
▁weit	-8.50803
▁erst	-8.50827
▁bilder	-8.50852
▁okay	-8.50946
▁klar	-8.51006
▁form	-8.51056
▁hand	-8.51371
▁%	-8.52362
▁nächste	-8.52444
▁neuen	-8.52448
▁punkt	-8.5265
▁euch	-8.52682
▁200	-8.53119
▁afrika	-8.53139
▁projekt	-8.53266
▁ok	-8.53382
▁milliarden	-8.53492
▁kennen	-8.53917
▁reden	-8.54039
▁gleiche	-8.54289
▁bauen	-8.54529
▁gehört	-8.54709
▁niemand	-8.54772
l	-8.55026
▁besonder	-8.55198
z	-8.55237
▁bevor	-8.55877
▁planeten	-8.56744
▁design	-8.56746
▁braucht	-8.56766
▁tat	-8.56801
▁letzte	-8.56887
▁sechs	-8.57526
▁mädchen	-8.57598
▁kurz	-8.57939
▁verändern	-8.58556
▁schule	-8.5868
▁menschliche	-8.58831
liegt	-8.58846
▁internet	-8.58923
▁augen	-8.58942
▁mann	-8.59073
▁ted	-8.59192
i	-8.59267
▁neu	-8.59334
▁fähigkeit	-8.59629
▁nennen	-8.60033
▁gar	-8.60051
▁antwort	-8.61089
▁30	-8.61563
▁musik	-8.61584
▁herum	-8.62071
▁klein	-8.62258
▁new	-8.62709
▁usa	-8.6291
▁männer	-8.62921
▁kunst	-8.63571
1	-8.63838
▁allen	-8.63889
▁recht	-8.6396
▁minuten	-8.64091
▁hören	-8.64135
▁solche	-8.64142
▁leuten	-8.64176
▁machte	-8.64198
▁50	-8.64205
▁n	-8.6434
▁einzelne	-8.64612
▁arten	-8.65273
▁erreichen	-8.65275
▁namens	-8.65799
▁gesellschaft	-8.65908
▁benutzen	-8.65917
▁bereits	-8.6602
▁stehen	-8.66145
▁erfahrung	-8.66152
▁unglaublich	-8.66154
ge	-8.66856
▁kopf	-8.66919
um	-8.67267
▁beginn	-8.67371
▁familie	-8.67574
▁lösung	-8.6764
▁soll	-8.67657
▁weitere	-8.67963
▁halten	-8.68207
▁schwer	-8.68722
▁oh	-8.68873
▁indien	-8.68989
▁fest	-8.69198
▁steht	-8.69328
ern	-8.69383
▁gebäude	-8.69398
▁dich	-8.69841
▁versucht	-8.70132
▁gott	-8.70286
▁stellt	-8.70331
▁gefühl	-8.70416
▁auto	-8.70799
▁junge	-8.71197
heit	-8.7148
▁film	-8.71511
▁spiel	-8.72206
einander	-8.72709
▁wahr	-8.72975
▁bitte	-8.73099
▁teilen	-8.73154
▁unternehmen	-8.73257
▁haus	-8.73466
▁oben	-8.73493
▁dari	-8.73899
▁100	-8.74087
▁hinter	-8.74676
▁erkennen	-8.74725
▁irgendwie	-8.75054
▁normal	-8.75292
▁innerhalb	-8.75456
▁geschichten	-8.76453
▁groß	-8.76724
▁krankheit	-8.76782
▁gruppe	-8.77082
▁außer	-8.77449
▁verbindung	-8.77506
▁vorstell	-8.78221
▁vater	-8.78309
▁patienten	-8.78368
▁interessant	-8.78409
ig	-8.79173
▁besten	-8.79189
▁sprache	-8.79315
▁b	-8.79368
▁dir	-8.79377
▁nahm	-8.7941
▁bewegen	-8.79484
▁los	-8.7975
p	-8.79833
▁soziale	-8.80165
▁sage	-8.80296
geben	-8.80987
▁alt	-8.81024
▁glück	-8.81112
▁daher	-8.81263
▁china	-8.81278
▁verändert	-8.81918
▁treffen	-8.82052
ste	-8.82065
re	-8.82347
▁anzu	-8.82437
setzen	-8.82507
liche	-8.82678
▁erhalten	-8.82971
▁a	-8.83135
▁wert	-8.83416
▁hause	-8.8344
▁lage	-8.83559
▁verhalten	-8.83584
▁stück	-8.8432
▁falsch	-8.84522
ie	-8.84594
▁stunden	-8.8463
▁wegen	-8.84658
an	-8.8468
▁entwickeln	-8.84724
▁wort	-8.84956
▁sachen	-8.84993
zustellen	-8.85009
▁statt	-8.85265
▁ziel	-8.8538
▁ändern	-8.85572
lässt	-8.85736
▁acht	-8.85759
▁überhaupt	-8.85766
nach	-8.85937
▁beginnen	-8.85972
▁unterschiedlich	-8.8618
▁15	-8.86437
▁damals	-8.8649
▁mag	-8.86553
▁menschlichen	-8.86623
▁regel	-8.86635
▁universum	-8.86819
▁zweite	-8.87002
mal	-8.87097
f	-8.87117
▁lehrer	-8.87169
▁länder	-8.87199
▁2	-8.87441
▁eltern	-8.87539
▁bewegung	-8.87673
▁angst	-8.87833
▁na	-8.87847
▁roboter	-8.87865
▁manche	-8.88109
▁aller	-8.88158
▁schreiben	-8.88399
▁stand	-8.8849
chen	-8.88669
gebracht	-8.8889
▁entscheidung	-8.88935
▁fragte	-8.89078
▁tut	-8.89235
▁fand	-8.89623
▁struktur	-8.89656
▁verwenden	-8.89706
▁sinn	-8.89805
ämlich	-8.89824
▁krebs	-8.8998
as	-8.90001
▁regierung	-8.90068
▁glücklich	-8.90096
▁schön	-8.90485
▁kindern	-8.90642
▁luft	-8.91237
▁wohl	-8.91888
▁getan	-8.91941
▁beste	-8.92019
c	-8.92186
sch	-8.92392
▁word	-8.92661
be	-8.92845
▁bekannt	-8.92895
▁unterschied	-8.93112
▁führt	-8.93724
doch	-8.93783
▁wenige	-8.93975
▁freunde	-8.94252
▁video	-8.94609
▁unten	-8.94848
▁z	-8.94885
▁sieben	-8.95358
▁führen	-8.95608
▁gemeinschaft	-8.95836
▁nimm	-8.95951
el	-8.96083
▁direkt	-8.96717
▁fühlen	-8.97168
▁entwicklung	-8.9745
▁zweiten	-8.9768
▁auszu	-8.97871
▁bestimmt	-8.98156
▁3	-8.98272
▁zwa	-8.98306
▁lesen	-8.98511
▁eher	-8.98643
▁wissenschaftler	-8.98645
▁york	-8.98705
▁kultur	-8.98759
▁richtung	-8.98829
bringt	-8.98996
▁tiere	-8.99114
▁selbe	-8.99229
▁40	-8.99306
▁bereit	-8.99561
▁genannt	-9.00081
▁gedanken	-9.00185
▁betrachten	-9.00539
▁bekam	-9.0105
▁hilfe	-9.0145
▁frei	-9.01526
so	-9.02236
dessen	-9.0234
▁staaten	-9.02345
▁publikum	-9.02357
▁größte	-9.02395
▁schwierig	-9.02433
▁tage	-9.02666
▁genauso	-9.02922
on	-9.03078
▁deine	-9.03089
▁erinnern	-9.03128
to	-9.03162
▁schlecht	-9.03454
▁prozess	-9.03509
▁woche	-9.04035
▁vorstellung	-9.04048
▁allem	-9.04119
▁grunde	-9.04145
▁zehn	-9.04216
▁situation	-9.04504
al	-9.04877
▁reihe	-9.04936
▁boden	-9.05064
▁größer	-9.05218
▁kamen	-9.05248
▁typ	-9.053
ing	-9.05316
▁wusste	-9.0536
▁wirtschaft	-9.05428
erst	-9.05516
▁plötzlich	-9.05802
▁t	-9.05808
▁re	-9.05852
▁öl	-9.05951
schließlich	-9.05986
▁markt	-9.06017
▁kaufen	-9.06061
▁freund	-9.0633
▁zellen	-9.06598
▁herausforderung	-9.06614
▁zahlen	-9.0668
▁jene	-9.06778
▁co	-9.06863
▁richtige	-9.0729
▁leid	-9.07319
▁jungen	-9.07462
lichen	-9.07655
der	-9.07836
u	-9.08016
▁d	-9.08587
▁hast	-9.08858
▁zuvor	-9.08937
▁umwelt	-9.09477
▁jahrhundert	-9.09533
▁kosten	-9.09544
▁c	-9.09593
▁monate	-9.09612
▁&#9	-9.09661
▁globale	-9.09714
▁falls	-9.09722
▁sollen	-9.09807
le	-9.09825
▁entfernt	-9.09895
▁&#93;	-9.10225
▁hohe	-9.1024
▁ent	-9.10301
▁sterben	-9.10324
▁völlig	-9.10509
▁schrieb	-9.10544
▁thema	-9.10544
▁bereich	-9.1057
▁amerika	-9.10749
bringen	-9.10768
zeit	-9.11064
▁wochen	-9.11341
▁bleiben	-9.11644
▁gesundheit	-9.11776
▁meinung	-9.1192
▁schritt	-9.11923
▁lösen	-9.12041
▁de	-9.12167
▁amerikanische	-9.12215
2	-9.12378
ver	-9.1238
▁fliegen	-9.12404
▁stark	-9.12548
▁stellte	-9.12739
▁scheint	-9.13124
▁job	-9.13131
▁k	-9.13374
▁tages	-9.134
▁leicht	-9.13467
▁mache	-9.13598
▁herz	-9.13633
▁wahrheit	-9.13714
▁namen	-9.13739
▁mensch	-9.13758
▁erschaffen	-9.13762
▁modell	-9.13801
▁benutzt	-9.14205
▁funktionieren	-9.14223
▁besteht	-9.1432
▁gefunden	-9.14538
▁einfache	-9.1465
gehen	-9.14792
▁großartige	-9.14792
▁gewesen	-9.14894
▁wären	-9.1491
▁verwendet	-9.14978
▁tatsache	-9.15456
▁anderer	-9.15669
▁hab	-9.1578
▁neues	-9.15889
▁wichtigste	-9.15926
▁aussehen	-9.16514
▁verbunden	-9.16567
statt	-9.16769
▁foto	-9.16784
▁draußen	-9.16953
tage	-9.16987
▁kleiner	-9.17204
▁absolut	-9.1723
▁umgebung	-9.17305
▁ca	-9.17428
▁zahl	-9.17556
▁passier	-9.17712
▁m	-9.1784
.000	-9.17884
▁ding	-9.18508
▁stelle	-9.18643
selbe	-9.18746
▁weltweit	-9.18976
▁technik	-9.19242
▁guten	-9.19296
▁geworden	-9.19728
▁gemeinsam	-9.20008
▁bessere	-9.20071
▁laufen	-9.20353
▁e	-9.2036
▁reise	-9.20484
▁gebaut	-9.2061
▁autos	-9.20882
▁medien	-9.21002
▁gezeigt	-9.21018
▁labor	-9.21034
▁tier	-9.21046
▁sehe	-9.21097
▁größten	-9.21531
bar	-9.21627
▁bewusst	-9.2167
▁suchen	-9.21738
▁interessiert	-9.21776
▁neben	-9.21791
▁bist	-9.21882
▁muster	-9.21897
▁25	-9.22011
▁kraft	-9.22027
▁bücher	-9.22066
▁kurze	-9.22171
▁bildung	-9.22386
▁morgen	-9.2241
▁darau	-9.22532
▁anzahl	-9.22653
▁nachdenken	-9.22695
▁erklären	-9.2276
ö	-9.22875
▁platz	-9.22968
▁80	-9.22986
▁offensichtlich	-9.22996
7	-9.23002
▁riesige	-9.23149
▁komplett	-9.23301
▁alter	-9.23501
ität	-9.23538
▁gelernt	-9.2356
5	-9.23624
▁erreicht	-9.23694
▁fehler	-9.23775
mit	-9.2386
▁organisation	-9.23969
▁hände	-9.24175
▁möchten	-9.24176
▁ähnlich	-9.2423
▁früh	-9.24342
▁bedeutung	-9.24367
▁aufzu	-9.24589
▁egal	-9.24819
▁allein	-9.24971
9	-9.25001
w	-9.25004
▁stimme	-9.25024
▁haupt	-9.25446
▁krieg	-9.25453
▁bekommt	-9.25526
▁teile	-9.2565
▁erzählt	-9.26246
▁geboren	-9.26469
▁innovation	-9.26486
▁technologien	-9.26981
▁arbeitet	-9.27141
▁preis	-9.27275
▁sprach	-9.27332
▁vortrag	-9.27342
durch	-9.27578
▁studenten	-9.27744
▁material	-9.27887
iert	-9.27944
▁60	-9.27945
▁f	-9.27974
▁eis	-9.28113
▁dna	-9.28171
▁verloren	-9.28245
▁familien	-9.28499
▁nenn	-9.28729
▁findet	-9.2889
▁ländern	-9.28903
▁rolle	-9.29062
▁hoffnung	-9.29089
▁fahren	-9.29187
▁fing	-9.29259
▁forschung	-9.29287
▁brachte	-9.29438
▁dr	-9.29626
▁wahl	-9.29894
▁sonst	-9.3002
▁gegenüber	-9.30138
▁größe	-9.30154
▁team	-9.30193
▁gesamte	-9.30245
▁stimmt	-9.30305
▁vorher	-9.30655
▁mitte	-9.30861
▁hälfte	-9.30911
▁beziehung	-9.31323
et	-9.31332
▁lebt	-9.31404
system	-9.31472
▁erfolg	-9.31577
▁rest	-9.31602
▁zeige	-9.32285
▁5	-9.32285
▁vereinigte	-9.32356
▁früher	-9.32363
▁aufgabe	-9.32371
▁bestimmte	-9.32775
▁links	-9.32817
▁bewegt	-9.32983
▁1	-9.33023
▁formen	-9.33079
▁mögen	-9.33127
▁hoffe	-9.33207
▁fanden	-9.33348
▁h	-9.33498
▁gegeben	-9.33619
▁maschine	-9.33808
▁veränderung	-9.33823
▁raus	-9.34025
▁18	-9.3408
man	-9.3432
▁genommen	-9.34347
▁toll	-9.34359
ieren	-9.34466
▁nacht	-9.34584
isch	-9.34623
▁künstler	-9.34985
▁sicherheit	-9.34999
▁blick	-9.35084
▁städte	-9.35118
▁einzu	-9.35128
▁wann	-9.35163
▁langsam	-9.3523
▁alten	-9.355
▁übrigen	-9.35584
▁experiment	-9.3574
▁oberfläche	-9.35807
▁mittel	-9.36073
▁sofort	-9.3617
▁gesicht	-9.36395
▁theorie	-9.36495
▁offen	-9.3662
▁meter	-9.3663
ar	-9.36661
▁geschrieben	-9.36709
▁versuche	-9.37021
▁politische	-9.37024
▁alte	-9.3703
6	-9.37039
▁universität	-9.37158
▁online	-9.37357
▁traf	-9.37974
▁großartig	-9.38037
▁hiv	-9.38107
▁wichtige	-9.38361
▁realität	-9.38483
▁ansehen	-9.38745
▁r	-9.3891
▁ihres	-9.38913
▁kontrolle	-9.39063
▁g	-9.39135
▁sprich	-9.39228
▁lass	-9.39267
▁größere	-9.39299
ch	-9.39539
▁papier	-9.39595
▁arm	-9.3962
▁sonne	-9.39634
ungen	-9.39808
▁ziehen	-9.39812
▁generation	-9.39886
▁ließ	-9.40055
▁tragen	-9.40128
▁revolution	-9.40198
▁wachsen	-9.40251
▁bevölkerung	-9.40294
▁finde	-9.40317
▁aufmerksamkeit	-9.40757
▁überleben	-9.40759
▁länger	-9.40821
▁folgen	-9.40896
stellen	-9.40902
▁ozean	-9.40909
▁mitgefühl	-9.40958
▁versuchte	-9.41098
▁geschieht	-9.41138
bei	-9.41211
▁tod	-9.41219
▁firma	-9.4126
▁nachrichten	-9.41574
4	-9.41581
ische	-9.41624
▁gerät	-9.41743
▁vergessen	-9.41767
▁dritte	-9.41944
▁pflanzen	-9.41983
3	-9.42147
▁lieben	-9.42328
▁tausende	-9.42403
führen	-9.42447
▁unseres	-9.42564
▁interessante	-9.42655
▁region	-9.42738
▁gesprochen	-9.42752
▁schneller	-9.42799
▁ständig	-9.43121
▁sorgen	-9.43173
▁fertig	-9.4335
▁straßen	-9.43406
kt	-9.43472
▁rein	-9.43546
▁religion	-9.43892
▁hinein	-9.43944
jährige	-9.43998
▁ergebnis	-9.44007
▁straße	-9.44036
▁öffentliche	-9.44043
▁schüler	-9.44315
▁englisch	-9.44413
▁extrem	-9.44419
▁12	-9.44496
▁jung	-9.44502
▁spaß	-9.44677
▁dein	-9.44779
▁wind	-9.44791
▁passierte	-9.44833
▁hinaus	-9.44898
ter	-9.45163
▁90	-9.45255
ma	-9.45604
▁al	-9.45646
bald	-9.45744
▁produkt	-9.45758
▁leidenschaft	-9.45875
▁näher	-9.46006
▁bald	-9.46013
▁folgende	-9.46161
▁arbeitete	-9.46224
ß	-9.46468
▁rund	-9.46485
8	-9.46506
▁echt	-9.46526
▁karte	-9.4675
▁schaut	-9.46845
▁verlieren	-9.4685
▁u	-9.46883
▁liegen	-9.46968
▁gruppen	-9.47462
▁gleichzeitig	-9.47504
▁demokratie	-9.47521
▁europa	-9.47521
▁schulen	-9.4755
▁zeug	-9.47562
▁wichtiger	-9.47671
geht	-9.47852
▁evolution	-9.47863
▁—	-9.47913
▁google	-9.47913
▁gearbeitet	-9.47988
halten	-9.4854
ismus	-9.48678
▁beobachten	-9.48841
▁gewinnen	-9.49013
▁ange	-9.49083
▁eben	-9.49227
▁wussten	-9.49419
▁rechts	-9.49543
▁herauszufinden	-9.49578
▁dorf	-9.49622
▁schlechte	-9.49657
▁mo	-9.49707
▁unglaubliche	-9.49989
▁eigen	-9.5002
▁mehrere	-9.50094
▁monaten	-9.50115
▁programm	-9.50124
▁monat	-9.50204
▁objekt	-9.50278
▁strom	-9.50364
▁tolle	-9.50509
▁konzept	-9.50748
▁aussieh	-9.50855
▁echte	-9.50885
▁studie	-9.51094
▁behandlung	-9.51193
▁einfluss	-9.51278
vor	-9.51319
▁gebiet	-9.5139
▁hilf	-9.51418
▁trotzde	-9.51552
▁großer	-9.51648
▁betrachtet	-9.52096
▁verrückt	-9.52194
▁flugzeug	-9.52339
▁medizin	-9.52414
▁rede	-9.52491
▁haut	-9.52511
▁nenne	-9.52553
▁rot	-9.52575
▁blut	-9.52599
▁reaktion	-9.52624
▁ehrlich	-9.52636
▁seiten	-9.52734
▁the	-9.52965
▁orte	-9.52992
▁hielt	-9.53038
▁ebene	-9.53041
la	-9.53121
▁hundert	-9.53371
▁geschehen	-9.53434
▁menschheit	-9.53448
▁eigenschaft	-9.53478
▁bau	-9.537
satz	-9.53857
▁durchschnitt	-9.54268
▁verbesser	-9.54308
igen	-9.54353
▁diejenige	-9.54616
▁erlaubt	-9.54751
▁zumindest	-9.55181
▁amerikaner	-9.55262
▁ergebnisse	-9.5554
/	-9.55626
▁beispiele	-9.55817
ation	-9.55823
wegen	-9.55825
▁schöne	-9.56098
▁gewalt	-9.56239
▁unmöglich	-9.56601
▁wesentlich	-9.56709
▁nachricht	-9.5673
▁befinde	-9.56807
▁entdecken	-9.56973
ik	-9.57004
▁verlassen	-9.57106
▁spielt	-9.57259
▁versuch	-9.57414
▁david	-9.57425
▁irgendwo	-9.57427
▁vergangenheit	-9.57429
▁kau	-9.57439
ur	-9.57467
▁wirklichkeit	-9.57869
▁produzieren	-9.57969
▁entwicklungs	-9.57977
▁mathematik	-9.58038
nächst	-9.58301
▁nachzudenken	-9.58335
▁neun	-9.58345
▁bleibt	-9.58377
▁spezies	-9.58431
▁start	-9.58513
▁führte	-9.58615
di	-9.58848
▁auswirkung	-9.58859
▁blau	-9.58947
▁befinden	-9.58964
▁politik	-9.58986
▁voll	-9.58986
▁erstaunlich	-9.58998
▁designer	-9.59027
▁nummer	-9.59303
▁ordnung	-9.59433
▁name	-9.59641
▁vertrauen	-9.59902
▁wand	-9.60347
▁gekommen	-9.605
los	-9.60509
▁bewusstsein	-9.60729
▁lag	-9.60844
land	-9.60852
▁sahen	-9.60858
▁moderne	-9.60891
▁wunderbare	-9.60893
▁hört	-9.61125
▁sohn	-9.61182
ha	-9.61206
▁erzeugen	-9.61306
li	-9.61439
▁national	-9.61517
▁runter	-9.61593
▁tief	-9.61697
▁sitzen	-9.61781
▁us	-9.61861
▁taten	-9.61861
▁vorbei	-9.62111
▁bakterien	-9.62114
▁grün	-9.62203
▁sozial	-9.62303
▁finger	-9.62332
▁million	-9.62388
▁erfolgreich	-9.62487
▁worte	-9.62628
▁aufgrund	-9.62771
▁o	-9.62999
▁druck	-9.63166
▁handelt	-9.63243
is	-9.63322
▁beweis	-9.63343
▁spiele	-9.63372
▁verstand	-9.63385
aus	-9.63418
▁software	-9.63457
▁armut	-9.63505
▁tür	-9.63517
▁dieselbe	-9.63526
▁grenzen	-9.63559
▁sekunden	-9.63645
▁erfahren	-9.63682
▁nahrung	-9.63754
ischen	-9.63791
▁machten	-9.63795
▁gesundheits	-9.63807
▁fisch	-9.63901
▁starb	-9.64015
▁arzt	-9.64021
▁krankenhaus	-9.64027
▁messen	-9.64081
▁linie	-9.64108
▁sinne	-9.64109
▁zugang	-9.64229
▁entdeckt	-9.64231
▁hörte	-9.64248
▁sitz	-9.64346
▁»	-9.64469
welt	-9.64575
▁dritten	-9.64581
▁version	-9.64599
▁irgendwa	-9.64604
▁weiss	-9.64971
▁warten	-9.65005
▁studien	-9.65315
▁voller	-9.6532
▁70	-9.65438
▁prinzip	-9.65492
▁6	-9.65543
▁herstellen	-9.65543
▁feuer	-9.65612
▁lebe	-9.6562
▁gene	-9.65804
▁gefragt	-9.65942
▁schönheit	-9.65976
▁abzu	-9.66043
▁punkte	-9.66142
▁ressourcen	-9.66214
▁hält	-9.66319
▁geist	-9.66357
▁interesse	-9.66424
▁«	-9.66434
▁irgendeine	-9.66471
▁firmen	-9.66525
▁4	-9.66562
▁w	-9.66778
ko	-9.66871
▁arbeite	-9.66933
▁verbinden	-9.66935
▁architektur	-9.66973
▁medizinische	-9.6707
▁entschieden	-9.67197
▁läuf	-9.67257
▁leistung	-9.67383
▁ebenso	-9.67449
▁farbe	-9.67678
▁ermöglicht	-9.67884
▁of	-9.67923
▁bilden	-9.67985
ige	-9.68372
▁entweder	-9.68446
▁nahe	-9.68511
▁besitz	-9.68585
▁tagen	-9.68864
▁erklärt	-9.68914
▁bäume	-9.69009
▁artikel	-9.69023
▁trotz	-9.69167
▁handeln	-9.69198
▁gestellt	-9.69323
raum	-9.69354
it	-9.69596
▁himmel	-9.69617
ia	-9.69754
▁gründe	-9.69792
▁schul	-9.69889
▁fuß	-9.70029
▁untersuchen	-9.70103
▁mach	-9.70198
▁p	-9.70201
▁zeigte	-9.7025
▁musst	-9.70257
▁netz	-9.70419
▁zusammenarbeit	-9.70505
▁bio	-9.70509
▁landes	-9.70656
v	-9.70791
▁vergleich	-9.70869
▁bezug	-9.71019
▁erzählte	-9.71036
▁aktivität	-9.71104
▁l	-9.71135
▁verstanden	-9.71154
wesen	-9.71218
▁entscheiden	-9.71224
▁sprachen	-9.71243
▁fotos	-9.71354
▁orten	-9.71356
▁schwarze	-9.71464
▁ärzte	-9.71555
▁mars	-9.71592
▁freiheit	-9.71628
▁antworten	-9.71632
▁schluss	-9.71643
▁uhr	-9.71663
▁sammeln	-9.71686
▁ruf	-9.71772
▁hart	-9.71848
▁sex	-9.71868
▁personen	-9.71908
▁einander	-9.71929
▁leisten	-9.7205
▁saß	-9.72057
▁bühne	-9.72154
▁ebenfall	-9.72169
▁bisher	-9.72351
▁verkaufen	-9.72497
▁john	-9.72598
▁dar	-9.72717
▁auge	-9.72742
▁anschau	-9.73002
▁außergewöhnlich	-9.73103
▁nannte	-9.73104
▁retten	-9.73105
▁hunderte	-9.73171
▁chance	-9.73173
▁klasse	-9.73228
zusage	-9.73317
▁suche	-9.7341
▁getroffen	-9.73635
▁geschah	-9.73636
hin	-9.73651
▁netzwerk	-9.73908
▁herausfinde	-9.73942
▁kamera	-9.73958
▁tisch	-9.7397
os	-9.74103
▁abend	-9.74184
ra	-9.74215
▁außerhalb	-9.74228
ion	-9.74364
▁baby	-9.74422
ft	-9.74639
ul	-9.74674
▁gründen	-9.74719
▁geschaffen	-9.74761
▁lernte	-9.75006
▁wesen	-9.75148
▁entdeckung	-9.75249
▁geschäft	-9.75336
▁innere	-9.75415
▁methode	-9.75453
▁zeitpunkt	-9.75475
▁kollegen	-9.75538
▁wachstum	-9.75576
il	-9.75789
▁biologie	-9.7585
▁erwarten	-9.76017
▁projekte	-9.76189
▁zufällig	-9.76304
▁la	-9.76429
bau	-9.76439
▁wunder	-9.76461
▁grad	-9.76522
ab	-9.7666
▁digitale	-9.76733
▁16	-9.76748
▁per	-9.76768
▁verantwortung	-9.76782
▁ahnung	-9.76888
▁erinnere	-9.7689
▁wohin	-9.77009
▁grosse	-9.77018
▁meer	-9.77039
▁ernst	-9.77333
industrie	-9.77452
▁gelegenheit	-9.77485
ton	-9.77498
▁verständnis	-9.77514
▁operation	-9.77543
▁schützen	-9.77563
▁fragt	-9.77685
▁endlich	-9.77808
▁erfunden	-9.77996
▁mittler	-9.78293
▁gesamten	-9.78389
▁bezahl	-9.7843
▁gehe	-9.78614
▁stunde	-9.7881
▁werte	-9.78819
▁büro	-9.78878
▁industrie	-9.7893
▁keiner	-9.7898
▁eure	-9.79109
▁wörter	-9.79163
icht	-9.7929
▁schicken	-9.79353
▁wunderbar	-9.79401
▁nochmal	-9.79547
▁fühlt	-9.79642
▁rote	-9.79677
zunehmen	-9.79698
▁wirtschaftliche	-9.80314
habt	-9.80382
▁konzentrier	-9.80591
▁osten	-9.80776
▁behandeln	-9.80821
▁schafft	-9.8087
▁web	-9.80912
▁mond	-9.80936
▁grundlegende	-9.81214
▁reich	-9.81219
gen	-9.81291
stern	-9.8141
▁systeme	-9.8142
▁fühlte	-9.81435
▁beeinflusst	-9.81443
▁partner	-9.81471
▁zustand	-9.81519
▁gesetz	-9.81567
▁super	-9.81736
▁kampf	-9.81957
▁fällt	-9.82188
▁ha	-9.82351
▁ausdruck	-9.82556
▁angefangen	-9.82562
ziehen	-9.82563
▁brauchte	-9.82592
gefunden	-9.82599
▁entschied	-9.82829
▁verursacht	-9.8284
▁traum	-9.82859
nnen	-9.82864
▁perfekt	-9.82874
▁chris	-9.82883
▁liste	-9.8303
▁gedacht	-9.83146
▁elektrische	-9.83198
▁freude	-9.83257
▁anwendung	-9.83299
richten	-9.83483
ck	-9.83705
art	-9.8371
▁normale	-9.83898
ä	-9.83924
sweise	-9.84021
▁produziert	-9.84255
igkeit	-9.84429
▁erzeugt	-9.84602
▁benötigt	-9.8486
▁ähnliche	-9.8493
▁landwirtschaft	-9.84932
at	-9.85012
▁lief	-9.85029
▁ausge	-9.85035
▁existiert	-9.8505
▁westen	-9.8508
▁halbe	-9.85109
▁afrikanische	-9.85184
▁erleben	-9.85227
▁kostet	-9.85334
▁spitze	-9.85353
▁solch	-9.8538
▁gelang	-9.85558
▁materialien	-9.85647
▁aktiv	-9.85687
▁kern	-9.85727
▁j	-9.85751
▁halb	-9.86069
gibt	-9.86182
falt	-9.86199
▁km	-9.8621
▁persönliche	-9.86271
▁500	-9.86433
▁gegangen	-9.86493
▁komme	-9.86664
▁tochter	-9.8674
▁hey	-9.8674
▁tausend	-9.86766
▁unterschiede	-9.86839
▁öffnen	-9.86841
▁gebe	-9.86885
▁dunkle	-9.86929
▁8	-9.86951
▁fühle	-9.8696
▁geschwindigkeit	-9.87001
▁cool	-9.87011
▁risiko	-9.87035
▁dunkel	-9.87083
▁botschaft	-9.87092
▁produkte	-9.87149
▁klimawandel	-9.87332
▁stolz	-9.87347
▁notwendig	-9.87477
ro	-9.87533
▁arme	-9.87551
▁feld	-9.87743
son	-9.87819
fangen	-9.87837
▁plan	-9.87907
▁großbritannien	-9.87946
▁komplexität	-9.87953
▁infrastruktur	-9.8797
▁i	-9.88038
▁triff	-9.88054
▁14	-9.88102
▁laut	-9.88285
▁westliche	-9.88331
▁see	-9.8841
▁herr	-9.88611
▁hervor	-9.88647
▁wandel	-9.88654
▁virus	-9.88684
ende	-9.88781
▁dreht	-9.88872
gebaut	-9.8908
▁bego	-9.89112
▁afghanistan	-9.89189
▁umzu	-9.89224
▁dorthin	-9.89249
▁medikamente	-9.89301
▁erstaunliche	-9.89328
noch	-9.89484
▁sicht	-9.89524
▁sauerstoff	-9.89665
▁gefängnis	-9.89743
▁jahrhunderts	-9.898
▁sommer	-9.89872
▁kling	-9.89873
▁loch	-9.89909
▁natürliche	-9.90005
▁fortschritt	-9.90046
▁leiden	-9.90073
▁neuronen	-9.90179
▁unterstützen	-9.90205
▁fernsehen	-9.90206
▁position	-9.90469
▁starke	-9.90532
▁hinzu	-9.90582
punkt	-9.90677
▁schmerz	-9.90702
▁stimmen	-9.90713
▁bürger	-9.90775
▁physik	-9.9079
▁worten	-9.90807
▁band	-9.9083
▁wege	-9.9101
▁test	-9.9102
▁heutigen	-9.91047
▁plastik	-9.91055
▁darf	-9.91082
▁werkzeuge	-9.91128
kommen	-9.91161
▁erlaub	-9.91204
ed	-9.91267
▁spreche	-9.9137
▁verkauft	-9.9144
▁falsche	-9.9147
▁beine	-9.91519
▁ton	-9.91562
▁müsste	-9.91569
▁telefon	-9.91594
▁regierungen	-9.91676
▁werkzeug	-9.91771
▁institution	-9.91772
▁schlüssel	-9.91775
▁san	-9.91848
▁fluss	-9.91849
▁gewicht	-9.9188
▁setzt	-9.92054
▁herzen	-9.92183
kommt	-9.92186
▁nehme	-9.92186
or	-9.92193
▁spät	-9.92264
▁veröffentlicht	-9.92292
▁rechten	-9.92325
▁zusammenhang	-9.92358
▁genutzt	-9.92385
bedingt	-9.92452
▁verantwortlich	-9.92457
▁halte	-9.92535
seite	-9.92539
▁fort	-9.92556
ol	-9.92583
▁gil	-9.92611
▁gehirns	-9.92611
▁rechte	-9.92651
▁motor	-9.9292
▁gefühle	-9.92921
▁kontakt	-9.92982
▁kreativität	-9.93
▁hinsicht	-9.93003
▁opfer	-9.931
wa	-9.93101
▁höher	-9.9313
▁ansicht	-9.93158
▁11	-9.93171
▁älter	-9.93211
spiel	-9.93291
arbeit	-9.93465
▁moralische	-9.93526
▁v	-9.93632
▁zog	-9.93664
▁holz	-9.93774
▁konferenz	-9.93815
▁global	-9.94028
hand	-9.94057
ler	-9.94079
stand	-9.94265
▁aids	-9.94297
▁198	-9.94299
▁fenster	-9.94363
▁gegend	-9.94564
▁guter	-9.94575
▁bat	-9.94669
ut	-9.94732
▁sekunde	-9.94841
▁materie	-9.94951
▁böse	-9.95149
her	-9.95205
am	-9.95232
stehen	-9.95337
▁persönlich	-9.95348
▁gen	-9.9535
▁lebensmittel	-9.95426
zahl	-9.95444
▁null	-9.95617
▁beziehungen	-9.95617
▁entlang	-9.95621
▁allerding	-9.95623
▁fuhr	-9.95729
ta	-9.95735
▁verschieden	-9.95749
leben	-9.95854
▁legen	-9.95888
▁wählen	-9.95957
▁ändert	-9.95992
▁drin	-9.96048
▁aufgenommen	-9.96084
▁besondere	-9.96254
▁golf	-9.96282
▁vision	-9.96288
▁gewisse	-9.96311
▁glaubt	-9.96402
▁geschaff	-9.96413
▁qualität	-9.96448
▁fantastisch	-9.96694
▁300	-9.96806
▁begriff	-9.96899
▁außen	-9.96903
▁kommunikation	-9.96963
▁internationale	-9.97054
mo	-9.97096
▁temperatur	-9.97165
▁armen	-9.97186
▁objekte	-9.9726
▁fällen	-9.97331
▁chinesische	-9.97372
▁vollständig	-9.9743
▁tieren	-9.97455
▁farben	-9.97477
▁grüne	-9.9759
▁einsatz	-9.97633
▁karriere	-9.97643
▁architekt	-9.97654
▁ecke	-9.9778
▁schutz	-9.97788
▁nähe	-9.97791
dass	-9.97792
▁fang	-9.97835
▁drehen	-9.98067
▁lautet	-9.98182
ja	-9.98249
▁baum	-9.98287
▁behandelt	-9.98311
▁erinnerung	-9.98311
▁richard	-9.98311
▁intelligenz	-9.9832
▁benötig	-9.98328
▁sowie	-9.98392
▁st	-9.98628
▁deutlich	-9.98691
▁erinnert	-9.98765
▁veränderungen	-9.98842
▁kilometer	-9.98873
für	-9.98975
▁total	-9.99029
▁drittel	-9.99032
▁knochen	-9.99061
▁las	-9.99088
▁entstehen	-9.99152
▁verfüg	-9.99152
▁gewebe	-9.99189
▁gewinn	-9.99198
▁praktisch	-9.9924
▁wahre	-9.99269
▁zelle	-9.99306
▁weiterhi	-9.99495
▁neuer	-9.9962
▁vollkommen	-9.99693
plan	-9.99744
▁allgemein	-9.99821
▁wuchs	-9.99848
▁setze	-9.99871
hilfe	-9.99979
▁zentrum	-10.0002
▁fallen	-10.0004
▁x	-10.0007
▁phänomen	-10.001
▁reisen	-10.0015
▁komplexe	-10.0021
▁einfacher	-10.0024
▁klima	-10.0033
▁relativ	-10.0037
▁kontrollieren	-10.0039
▁wunsch	-10.0048
▁nutzt	-10.0054
▁basis	-10.0063
▁höhe	-10.0068
pa	-10.007
▁zeitung	-10.0107
▁interessiere	-10.0108
x	-10.0108
▁kenne	-10.0112
▁präsident	-10.0114
▁dagegen	-10.0116
▁positive	-10.0116
▁durchgeführt	-10.0118
▁verbracht	-10.012
▁masse	-10.0121
▁erforschen	-10.0123
hält	-10.0126
▁beschäftigt	-10.0136
▁bestehen	-10.0137
▁stecken	-10.0137
schauen	-10.0142
▁kunden	-10.0149
ti	-10.0151
lo	-10.0154
▁insekten	-10.0161
▁vermutlich	-10.0178
▁investieren	-10.0178
▁blieb	-10.0183
▁sterne	-10.0198
ber	-10.0201
▁ausbildung	-10.0205
gang	-10.0207
▁london	-10.0217
▁gemeinde	-10.0227
lassen	-10.0228
▁mütter	-10.0229
▁bedingungen	-10.0231
▁müll	-10.0254
▁reagier	-10.0262
▁berg	-10.027
▁begeistert	-10.0277
up	-10.0296
laden	-10.0298
▁letztendlich	-10.0321
▁polizei	-10.0323
go	-10.0324
▁frieden	-10.0326
▁brot	-10.0337
▁konflikt	-10.0342
▁park	-10.0347
pp	-10.0351
treten	-10.0351
▁maschinen	-10.0355
▁lokale	-10.0365
▁steckt	-10.0373
▁seines	-10.0384
wächst	-10.0392
▁000	-10.0393
▁dahin	-10.0394
▁fleisch	-10.0395
▁lernt	-10.0397
▁funktion	-10.0397
▁city	-10.0402
▁universums	-10.0411
▁genom	-10.0416
▁scheinen	-10.0429
▁mögliche	-10.0437
▁geräte	-10.0439
▁verbreitet	-10.046
▁zuhause	-10.0465
▁gewonnen	-10.0467
▁töten	-10.0469
genommen	-10.0476
schaft	-10.0517
▁täglich	-10.0537
▁hauptsächlich	-10.0538
▁ermöglichen	-10.0538
▁entwerfen	-10.0539
▁häuser	-10.0539
bewegung	-10.0541
▁großteil	-10.0541
▁bildschirm	-10.0545
projekt	-10.0553
▁bett	-10.0554
▁verdienen	-10.0555
▁klang	-10.0555
ga	-10.0562
▁kämpfen	-10.0565
▁irak	-10.0573
▁baut	-10.0578
co	-10.0586
▁20.	-10.0602
▁überzeugt	-10.0612
▁naj	-10.0612
▁titel	-10.0615
▁ansatz	-10.0616
▁erklärung	-10.0617
▁13	-10.0618
▁atmosphäre	-10.0619
▁real	-10.065
▁verbring	-10.0653
ka	-10.0669
▁diskussion	-10.0687
▁charakter	-10.069
▁seltsam	-10.0691
▁kreis	-10.0702
▁lachen	-10.0702
▁werfe	-10.0712
▁beschreiben	-10.0734
▁aufgaben	-10.0734
▁buchstäblich	-10.076
▁rätsel	-10.0765
▁flug	-10.077
ine	-10.0783
▁hund	-10.0785
▁anti	-10.079
▁code	-10.0799
▁gang	-10.0806
▁17	-10.0807
▁199	-10.081
▁erzähle	-10.0814
▁geführt	-10.0815
▁bitten	-10.082
▁herunter	-10.082
▁wahrnehmung	-10.0821
legen	-10.0825
▁milliarde	-10.0835
▁kontext	-10.0836
▁hängt	-10.0836
▁identität	-10.0837
weit	-10.0845
pf	-10.0851
▁faktor	-10.0852
▁kräfte	-10.0853
▁landschaft	-10.0858
▁traditionelle	-10.0858
▁gefährlich	-10.0866
▁linke	-10.0867
▁sch	-10.0885
ke	-10.0889
▁öffentlich	-10.0895
▁beweise	-10.0909
▁jahrzehnt	-10.0909
▁hergestellt	-10.0915
▁untersuchung	-10.0918
▁ka	-10.092
▁pa	-10.0926
▁kümmer	-10.0929
▁beeinflussen	-10.0929
fi	-10.0939
▁fantastische	-10.0941
▁hoffent	-10.0947
▁lebte	-10.0952
▁sand	-10.0957
bild	-10.0988
▁kommunizieren	-10.0989
▁hintergrund	-10.0991
▁professor	-10.0997
▁übertragen	-10.1
▁hirn	-10.1005
▁fabrik	-10.1009
▁betr	-10.1011
wissenschaft	-10.1012
rüber	-10.102
▁glas	-10.1022
▁affen	-10.1032
▁gewissen	-10.1049
▁enorme	-10.1053
▁finanz	-10.106
▁wiss	-10.1062
▁waffen	-10.1064
▁irgendetw	-10.1065
geführt	-10.1066
▁schwester	-10.1069
▁kennt	-10.1075
▁indische	-10.1075
▁hinweg	-10.1077
▁tiefe	-10.1086
tz	-10.1089
ah	-10.1092
id	-10.1101
▁rat	-10.1108
▁sport	-10.1112
▁voraus	-10.1117
▁gas	-10.1121
und	-10.1129
▁forscher	-10.1137
▁bloß	-10.1141
▁zivilisation	-10.1144
▁lektion	-10.1146
▁staat	-10.1149
▁umgehen	-10.1149
▁experimente	-10.1155
▁verfügbar	-10.1155
zeichen	-10.1164
▁tumor	-10.1171
ic	-10.1183
▁erwartet	-10.1183
▁riesigen	-10.1184
▁schrecklich	-10.1184
ein	-10.1191
▁geburt	-10.1198
▁lieblings	-10.1199
▁museum	-10.1204
▁erstellen	-10.1214
▁brust	-10.1219
▁facebook	-10.122
▁gesund	-10.1221
▁bi	-10.1222
▁unterstützung	-10.1222
ifft	-10.1244
▁mikro	-10.1244
▁laufe	-10.1251
▁lebende	-10.1254
▁gesellschaften	-10.1262
sche	-10.1273
▁ba	-10.1283
▁filme	-10.1284
▁überraschend	-10.1285
gestellt	-10.1288
▁getötet	-10.1299
▁anfing	-10.1299
▁karten	-10.1299
▁dinosaurier	-10.1302
▁go	-10.1312
▁dauert	-10.1328
▁komm	-10.1335
▁bill	-10.1341
▁kaffee	-10.138
▁sogenannte	-10.138
▁college	-10.138
▁po	-10.1382
machen	-10.1387
▁vögel	-10.1388
▁arbeits	-10.1392
denkt	-10.1393
▁laden	-10.1393
▁winzig	-10.1399
▁einkommen	-10.1402
▁bo	-10.1415
▁jo	-10.1416
des	-10.1417
▁wald	-10.1419
ley	-10.1423
▁meilen	-10.1424
ien	-10.1425
▁denk	-10.1435
▁könnt	-10.1439
▁entsteh	-10.1447
▁genetische	-10.1454
▁mund	-10.1461
▁2000	-10.1462
▁umstände	-10.1465
▁fiel	-10.1465
theorie	-10.1474
▁le	-10.1475
▁japan	-10.1481
▁brauche	-10.1482
▁speziell	-10.1486
auf	-10.1488
▁selten	-10.1503
▁behaupte	-10.1506
po	-10.1515
▁gemeinsame	-10.1525
▁militär	-10.1525
▁to	-10.1525
▁vorteil	-10.1531
ier	-10.1548
▁strategie	-10.1552
▁wow	-10.1564
▁bienen	-10.1566
▁schlimmer	-10.1573
▁angesehen	-10.1576
▁maus	-10.1577
▁heb	-10.158
▁setzte	-10.1591
▁150	-10.1616
▁high	-10.162
▁kürzlich	-10.162
▁verteilt	-10.162
▁politiker	-10.1624
▁mission	-10.1626
▁gestalten	-10.1629
▁perspektive	-10.164
▁gold	-10.166
▁24	-10.1661
form	-10.1661
▁entwickelte	-10.1667
▁meeres	-10.1682
▁alleine	-10.1685
sehen	-10.1686
weder	-10.1695
▁nützlich	-10.1695
▁fische	-10.1703
▁schaute	-10.1706
innen	-10.1706
▁themen	-10.171
ei	-10.1711
▁verhindern	-10.1717
▁genauer	-10.1718
▁zimmer	-10.1722
▁verfolgen	-10.1726
▁testen	-10.1726
▁gesetze	-10.1731
▁krank	-10.174
▁soldaten	-10.1748
▁tanz	-10.1752
ca	-10.1755
▁ma	-10.1776
tag	-10.1778
▁basiert	-10.1779
mittel	-10.1782
▁rücken	-10.1783
▁darwin	-10.1785
▁haufen	-10.1798
▁städten	-10.18
▁lieber	-10.1807
▁norden	-10.1816
▁7	-10.1843
▁abge	-10.1851
▁paul	-10.1853
▁unternehmer	-10.1856
schlag	-10.1862
▁400	-10.1863
▁aufhör	-10.1864
▁investition	-10.1873
▁laptop	-10.1874
▁kalt	-10.1874
▁biologische	-10.1876
▁märkte	-10.1882
ssystem	-10.1896
▁absicht	-10.1896
▁1.	-10.1904
▁gefahr	-10.1918
▁vergleichen	-10.1921
▁komplex	-10.1928
haft	-10.1932
▁elemente	-10.1933
▁hunde	-10.1934
▁ameisen	-10.1936
▁dürf	-10.1937
▁moleküle	-10.1955
denken	-10.1957
▁emotionale	-10.1958
▁bezahlt	-10.1965
▁träg	-10.1969
tra	-10.1971
▁satz	-10.1973
▁überzeugen	-10.1973
▁kulturelle	-10.1979
▁blaue	-10.1981
▁galaxien	-10.1987
▁zucker	-10.1992
▁schließen	-10.1995
▁morgens	-10.1999
▁ta	-10.2004
▁stamm	-10.2008
▁zeichen	-10.2011
▁erkannte	-10.2019
▁gross	-10.2019
▁schwarz	-10.2022
▁reichen	-10.2026
▁blog	-10.2033
▁nah	-10.2035
▁unterscheid	-10.2035
▁verlangen	-10.2037
▁kohlenstoff	-10.2039
▁tue	-10.2039
▁metapher	-10.2042
▁interagieren	-10.2043
▁erster	-10.2047
he	-10.2057
▁modelle	-10.2057
▁höhere	-10.2062
▁bauern	-10.2064
▁boot	-10.207
▁folge	-10.2072
▁do	-10.2078
▁überrascht	-10.209
▁spezielle	-10.2093
▁bank	-10.21
▁privat	-10.2107
▁twitter	-10.2122
washington	-10.2123
▁kalifornien	-10.2124
sie	-10.2133
▁insel	-10.2134
▁wirkung	-10.2136
▁soviel	-10.2138
mail	-10.2153
stadt	-10.2153
da	-10.2155
▁stein	-10.2161
▁anstelle	-10.2172
▁experten	-10.2173
▁räume	-10.2183
▁erd	-10.2183
geschichte	-10.2184
▁augenblick	-10.2189
▁beobachtet	-10.2198
▁individu	-10.22
skraft	-10.2208
▁organismen	-10.2211
▁grafik	-10.2214
▁erhielt	-10.2215
▁gehalten	-10.2216
▁kindheit	-10.222
▁fäng	-10.2229
gegangen	-10.2243
▁hi	-10.2245
▁holen	-10.2248
▁ehe	-10.2255
▁baute	-10.2258
buch	-10.2258
▁zerstört	-10.2268
▁nord	-10.2268
io	-10.2292
▁tradition	-10.2295
▁gestorben	-10.2296
▁unterstützt	-10.2297
▁definition	-10.2297
▁verschwinden	-10.2301
▁bemerkt	-10.2301
▁10.000	-10.2304
▁inhalt	-10.232
▁nation	-10.2333
▁teilchen	-10.2334
▁erkenntnis	-10.2338
▁drogen	-10.2344
▁handy	-10.2348
▁and	-10.2351
▁sonnen	-10.2356
▁einiger	-10.2362
▁wirtschafts	-10.2375
▁erwachsene	-10.2379
▁perfekte	-10.2387
▁meiste	-10.2389
▁unabhängig	-10.239
was	-10.2398
▁erhält	-10.24
▁schnitt	-10.2407
▁garten	-10.2414
lange	-10.2422
holen	-10.2424
▁35	-10.2428
▁sparen	-10.243
▁schau	-10.2433
▁vertraut	-10.2436
▁babys	-10.2437
▁bedeuten	-10.2438
▁änderung	-10.2447
▁kontinent	-10.2455
sp	-10.2462
▁falt	-10.2463
▁kohle	-10.2466
▁charles	-10.2472
▁website	-10.2474
▁handlung	-10.2475
▁unglücklich	-10.2477
▁si	-10.2478
▁viren	-10.2479
ce	-10.2481
getragen	-10.2485
feld	-10.2489
▁regen	-10.2489
▁mindesten	-10.2492
struktur	-10.2506
▁gesamt	-10.2521
▁ko	-10.2521
▁inspiriert	-10.2525
▁häufig	-10.2531
▁jahres	-10.2532
▁drübe	-10.2539
pe	-10.2544
com	-10.2552
▁lager	-10.2552
▁verbreiten	-10.2561
▁verwandeln	-10.2562
▁aktuelle	-10.2573
▁molekül	-10.258
▁annehmen	-10.2583
▁untersucht	-10.2584
gesehen	-10.2585
▁minute	-10.259
▁erscheinen	-10.2592
▁annahme	-10.2593
▁erfinden	-10.2596
▁forschungs	-10.2598
th	-10.2599
▁aufge	-10.2601
weg	-10.2602
schaut	-10.2611
▁mi	-10.2616
▁verbessert	-10.2632
▁verbrachte	-10.2637
▁$	-10.2651
▁bruder	-10.2651
▁sichtbar	-10.2653
▁gegenteil	-10.2653
▁heisst	-10.2656
▁fett	-10.2658
▁enorm	-10.2665
▁berührt	-10.2666
▁rahmen	-10.2666
▁zeitalter	-10.2668
gezogen	-10.267
kam	-10.2672
▁massen	-10.2675
▁eingesetzt	-10.2677
▁gesichter	-10.2679
▁mitten	-10.268
gesundheitswesen	-10.2684
▁schien	-10.2694
▁wein	-10.2695
▁bereiche	-10.2702
rin	-10.2705
▁visuelle	-10.2712
▁versteh	-10.2712
▁erlebt	-10.2713
fall	-10.2717
ging	-10.2718
▁existieren	-10.2724
▁videos	-10.273
mus	-10.2736
▁füße	-10.2742
▁öffentlichkeit	-10.2745
▁england	-10.2745
▁dran	-10.2746
▁folgt	-10.2747
▁stammt	-10.2754
▁zerstören	-10.2755
▁passt	-10.2757
▁aspekt	-10.2765
▁biete	-10.2767
erlich	-10.2779
▁west	-10.2783
▁aufregend	-10.2797
▁süd	-10.2813
▁lustig	-10.2815
▁bedenk	-10.282
zi	-10.2822
▁kompliziert	-10.2828
▁chemische	-10.2828
ierte	-10.2829
▁entworfen	-10.2834
▁zugänglich	-10.2834
▁y	-10.2835
▁teuer	-10.284
▁ah	-10.2842
drücken	-10.2842
▁besuch	-10.2842
▁berechnung	-10.2856
▁link	-10.2859
▁gras	-10.2868
ell	-10.2869
▁steuern	-10.2869
fahren	-10.287
▁mitarbeiter	-10.2871
▁lokal	-10.2874
▁emotionen	-10.2878
▁erstellt	-10.2881
▁angenommen	-10.2885
▁gehirne	-10.2892
▁kerl	-10.2918
▁politisch	-10.2919
ry	-10.292
▁betroffen	-10.2926
▁elektrizität	-10.2926
▁george	-10.2927
▁bestimmen	-10.2927
▁malaria	-10.2927
ri	-10.2928
▁usw	-10.2928
▁werbung	-10.2935
▁britische	-10.295
▁erschein	-10.2953
▁produktion	-10.2957
▁ursprünglich	-10.2958
do	-10.2958
▁seltsame	-10.2961
gekommen	-10.2963
▁spielte	-10.2967
▁tot	-10.2968
▁text	-10.297
▁grundsätzlich	-10.2984
nd	-10.2993
▁ziele	-10.2999
▁gebrauch	-10.3002
▁weißt	-10.3015
▁september	-10.3021
ku	-10.3022
▁hallo	-10.3024
▁hunger	-10.3025
▁patient	-10.3029
▁el	-10.3037
▁erwähnt	-10.3039
▁bedürfnisse	-10.3041
▁lehren	-10.3042
▁gebraucht	-10.3043
▁schicht	-10.3056
▁gedanke	-10.3057
▁9	-10.3058
▁beinhaltet	-10.3058
bahn	-10.3058
▁reicht	-10.3062
▁kriegen	-10.3066
▁wunderschöne	-10.3076
▁zweck	-10.3083
▁einsetzen	-10.3094
kraft	-10.3095
nde	-10.3097
▁übrig	-10.3097
▁wild	-10.3098
▁interaktion	-10.311
▁irgendjemand	-10.3114
▁quasi	-10.3114
▁chemie	-10.3118
▁kochen	-10.313
▁rand	-10.313
▁vorhanden	-10.3141
▁lauf	-10.3156
op	-10.3157
▁geräusch	-10.3158
▁erwachsenen	-10.3159
▁radio	-10.3165
▁eindruck	-10.3166
▁ernsthaft	-10.3178
▁sucht	-10.3184
ster	-10.3191
▁45	-10.3197
▁nigeria	-10.32
fe	-10.3204
▁werk	-10.3204
▁zukünftige	-10.3207
zukommen	-10.3207
▁sag	-10.3208
▁anwend	-10.3208
▁kannte	-10.321
▁abhängig	-10.3216
licher	-10.3217
▁live	-10.3217
▁entspr	-10.3218
▁ökosystem	-10.322
▁künstliche	-10.3222
▁medikament	-10.3233
arten	-10.3235
▁gegenseitig	-10.3249
▁träume	-10.325
daten	-10.3255
▁legt	-10.326
▁post	-10.326
mann	-10.3267
▁bar	-10.3272
bi	-10.3278
▁me	-10.3281
▁schwimmen	-10.3284
gruppe	-10.3284
▁entstanden	-10.3291
▁bieten	-10.3293
▁muskel	-10.3297
ki	-10.3298
▁details	-10.3299
▁positiv	-10.33
▁solar	-10.3303
▁beschäftige	-10.3306
▁beantworten	-10.3312
▁zauber	-10.3313
▁batterie	-10.3314
▁iran	-10.3321
▁behalten	-10.3323
▁physische	-10.3329
▁zählen	-10.3333
▁schwierigkeit	-10.3337
▁weiße	-10.3338
▁innen	-10.3342
▁kreative	-10.3342
effekt	-10.3347
▁zurückzu	-10.3351
▁spür	-10.3352
ick	-10.3353
▁trink	-10.336
▁klassische	-10.3364
▁fähig	-10.3366
ba	-10.3367
▁99	-10.3367
▁feststell	-10.3369
▁einrichtung	-10.3375
▁gespräch	-10.3386
enden	-10.3386
▁rief	-10.3392
▁unterhaltung	-10.3412
▁wurzel	-10.3416
▁vorfahr	-10.3417
▁weltraum	-10.3426
▁nötig	-10.3434
▁wenigsten	-10.344
verständlich	-10.3444
▁einheit	-10.3447
band	-10.3448
▁times	-10.3459
▁19	-10.346
▁nachbarn	-10.3461
▁zeiten	-10.3461
▁einstein	-10.3463
▁gefahren	-10.3471
▁wagen	-10.3482
▁geändert	-10.3501
▁gäbe	-10.3501
▁zitat	-10.3501
▁theater	-10.3504
rlei	-10.3507
▁gelesen	-10.351
▁gelöst	-10.3512
▁studieren	-10.3513
▁ki	-10.3517
▁konzentriert	-10.3527
▁beitrag	-10.3532
▁netzwerke	-10.3536
▁brachten	-10.3546
immt	-10.3546
▁ed	-10.3558
▁einge	-10.3566
▁quelle	-10.3573
▁aufbauen	-10.3589
▁begrenzt	-10.36
▁jahrzehnte	-10.3603
bereich	-10.3603
▁gefällt	-10.3604
▁aussage	-10.3608
▁köpfe	-10.3609
▁löcher	-10.3609
▁viertel	-10.3613
▁glaubte	-10.3618
▁geschickt	-10.3623
▁schönen	-10.363
▁auseinander	-10.3634
▁nationen	-10.3636
▁dach	-10.3637
▁stufe	-10.3647
▁moral	-10.3663
iger	-10.369
▁beschlossen	-10.3691
▁krise	-10.3695
▁schlagen	-10.3696
▁besessen	-10.37
▁komponente	-10.3708
▁car	-10.3709
▁abschluss	-10.3713
▁wettbewerb	-10.3718
▁reduzieren	-10.3725
▁ober	-10.3731
▁schlechter	-10.3733
▁schwarzen	-10.3735
▁tiefer	-10.3742
kopf	-10.3748
berg	-10.3763
▁ach	-10.3763
▁digital	-10.3771
vi	-10.3778
ken	-10.3789
▁planet	-10.3799
▁verbindet	-10.3801
▁vermitteln	-10.3801
▁school	-10.3806
gleich	-10.3813
▁gespielt	-10.3814
▁kapital	-10.3814
▁still	-10.3824
▁schimpansen	-10.3828
▁mut	-10.3831
0.000	-10.3841
▁gefangen	-10.3846
lage	-10.3883
▁grenze	-10.3885
▁stärker	-10.3895
▁hoffen	-10.3898
▁effekt	-10.3899
▁mexiko	-10.3903
▁korruption	-10.3903
▁kreativ	-10.3905
▁wohlstand	-10.3905
00	-10.3905
▁ball	-10.3909
tion	-10.3921
▁heran	-10.3922
▁ra	-10.3933
▁ne	-10.3937
▁volk	-10.3942
▁vorne	-10.3945
▁wundervolle	-10.3949
ze	-10.3954
▁gehören	-10.3962
▁freundin	-10.3968
▁entdeckte	-10.3977
▁zusätzlich	-10.3986
haus	-10.3987
au	-10.399
▁effektiv	-10.3993
▁faszinierend	-10.4005
▁extra	-10.4005
▁michael	-10.4006
▁beinahe	-10.4011
schließen	-10.4011
▁klick	-10.4014
▁bestand	-10.4014
un	-10.4027
▁technische	-10.4028
▁damen	-10.4032
test	-10.4035
▁körpers	-10.4036
▁besorgt	-10.4045
ir	-10.4054
▁gelb	-10.4079
▁diagramm	-10.4083
▁unterrichten	-10.409
unternehmen	-10.4102
erkennung	-10.4102
▁israel	-10.4107
▁heimat	-10.4111
▁schulter	-10.4112
▁kombination	-10.4113
▁angesicht	-10.4114
▁wieviel	-10.4114
maschine	-10.4115
▁potential	-10.4115
▁definieren	-10.4118
▁momentan	-10.4122
▁lo	-10.4124
▁ausmaß	-10.4127
▁anruf	-10.4129
▁heim	-10.4133
▁zähne	-10.4136
fa	-10.4139
▁weiteren	-10.4139
▁nett	-10.4144
▁arbeiter	-10.4152
▁herren	-10.4155
zug	-10.4163
weile	-10.4166
▁vogel	-10.4168
▁meinte	-10.418
▁schlaf	-10.4196
▁ältere	-10.4196
ph	-10.4198
▁international	-10.42
grund	-10.4203
▁steigen	-10.4208
▁fälle	-10.4209
schein	-10.4213
▁schatten	-10.4216
▁james	-10.4216
▁ledig	-10.4216
▁nasa	-10.4217
ierung	-10.4217
▁großmutter	-10.4218
▁präsentation	-10.422
▁zweifel	-10.4224
▁äußerst	-10.4224
▁trug	-10.4225
▁aufnahme	-10.4227
▁aktion	-10.4235
ere	-10.4242
▁schaden	-10.4243
▁weibliche	-10.4263
wissenschaftler	-10.427
ale	-10.4272
▁folie	-10.4279
tel	-10.4286
▁winzige	-10.4294
▁passen	-10.4301
äh	-10.4302
▁zer	-10.4302
▁spieler	-10.4304
▁nieder	-10.4307
▁instrument	-10.4315
▁methoden	-10.4318
▁gesunde	-10.4318
▁verfolgt	-10.4322
▁symmetrie	-10.4323
▁bedrohung	-10.4326
tisch	-10.4335
▁kenia	-10.4336
▁australien	-10.4348
▁zieht	-10.4349
▁ausstellung	-10.4354
▁ereignisse	-10.4354
▁statistiken	-10.4363
▁merk	-10.4365
▁generationen	-10.4369
▁überlegen	-10.4372
▁feier	-10.4379
▁offene	-10.4381
problem	-10.4382
▁galaxie	-10.4385
▁helden	-10.4385
▁schätzen	-10.439
▁lied	-10.4406
▁einstellung	-10.441
▁geschäfts	-10.4411
▁anteil	-10.442
▁kapitel	-10.4429
▁196	-10.443
▁grundlegend	-10.4438
▁beschloss	-10.444
▁thom	-10.4448
▁belohnung	-10.445
▁kulturen	-10.4453
▁gefallen	-10.447
▁gemeinden	-10.4476
ak	-10.4478
▁zeichnen	-10.4479
▁schwieriger	-10.4486
▁verlauf	-10.4488
mehr	-10.4491
▁fern	-10.45
maßen	-10.4523
weise	-10.4524
isten	-10.4527
ist	-10.4528
steigt	-10.4535
▁seht	-10.4537
▁fasziniert	-10.4538
▁wikipedia	-10.4538
stellung	-10.4541
▁darstellung	-10.4542
▁erfindung	-10.4554
▁reduziert	-10.4555
▁interview	-10.4564
▁schuhe	-10.4569
▁unge	-10.4573
▁derselbe	-10.4577
▁wa	-10.4581
▁vorzu	-10.4581
▁derzeit	-10.4581
▁drauf	-10.4587
technologie	-10.4588
▁zuhören	-10.4591
j	-10.4605
▁ideal	-10.4606
▁ersetzen	-10.4608
▁schwierige	-10.4613
▁jedenfall	-10.4624
▁gebet	-10.4626
ant	-10.4636
▁geheimnis	-10.4638
▁ozeane	-10.4643
▁kreieren	-10.4648
▁winter	-10.4648
▁half	-10.4648
▁atem	-10.4649
▁maßstab	-10.4651
▁depression	-10.4652
▁bedarf	-10.4654
▁21.	-10.4656
▁erhöht	-10.4662
▁nachts	-10.4663
▁end	-10.4665
▁standard	-10.4671
▁linien	-10.4678
▁hinten	-10.4681
material	-10.4704
▁anschaut	-10.4705
▁is	-10.4715
▁rück	-10.4715
▁tor	-10.4716
▁berichten	-10.4724
▁mehrheit	-10.4729
▁hai	-10.4733
2-	-10.4737
är	-10.4738
ländern	-10.4741
▁em	-10.4749
▁gleichung	-10.4753
▁gekauft	-10.4759
▁existenz	-10.4761
▁gewählt	-10.4762
ger	-10.4763
▁pol	-10.4764
▁2008	-10.4764
▁haar	-10.4765
▁stuhl	-10.4768
▁entstand	-10.4778
zen	-10.4779
▁ohren	-10.4788
▁meist	-10.479
▁lebendig	-10.4792
▁liefer	-10.4793
▁führer	-10.4794
▁schlafen	-10.4796
▁schreckliche	-10.4799
▁langer	-10.4805
▁nationale	-10.4809
markt	-10.4814
zentrum	-10.4816
▁wundervoll	-10.4821
lose	-10.4822
▁wüste	-10.4822
▁verhältnis	-10.4826
▁fo	-10.4827
▁islam	-10.4838
▁cent	-10.4839
zellen	-10.4846
▁teenager	-10.4871
▁streit	-10.4873
▁schuld	-10.4875
▁europäische	-10.4878
wo	-10.4882
▁verglich	-10.4883
▁organ	-10.4886
▁klinik	-10.4887
▁entfernung	-10.4892
▁toten	-10.4894
▁süden	-10.4898
▁handel	-10.4899
▁musiker	-10.4904
▁mc	-10.4907
▁verbesserung	-10.4934
sa	-10.4934
▁dick	-10.4941
▁se	-10.495
team	-10.4955
▁pakistan	-10.4957
▁bekomme	-10.4961
tro	-10.4963
▁kaufte	-10.4966
▁südafrika	-10.4977
▁signal	-10.4984
▁brasilien	-10.4985
▁gelebt	-10.4985
▁marketing	-10.4985
▁gegenwart	-10.4985
▁entfern	-10.4985
▁pfund	-10.4985
▁gemälde	-10.4986
▁lächeln	-10.4986
▁darstellen	-10.4987
▁erforscht	-10.499
▁su	-10.4997
▁automatisch	-10.4998
ich	-10.5005
▁metall	-10.501
▁stopp	-10.5011
▁verwandelt	-10.5012
▁ausnahme	-10.5012
▁unfall	-10.5013
▁tonnen	-10.5016
▁aufzubauen	-10.5016
▁wetter	-10.502
▁fördern	-10.5022
▁hierher	-10.5028
▁fach	-10.5033
versorgung	-10.5045
bücher	-10.5045
programm	-10.5051
▁zentral	-10.506
▁webseite	-10.5067
▁fa	-10.507
▁fu	-10.5074
▁verbrauch	-10.5092
si	-10.5099
▁gegründet	-10.51
▁kanada	-10.51
▁blätter	-10.511
▁versteckt	-10.5113
▁stücke	-10.5116
▁stammzellen	-10.512
▁leer	-10.512
▁mangel	-10.5121
bare	-10.5127
▁infiziert	-10.513
▁gesichts	-10.5143
▁grippe	-10.515
amp	-10.5158
platz	-10.5159
▁spiegel	-10.5163
ll	-10.517
▁erhöh	-10.517
▁ar	-10.5171
▁könig	-10.5179
holfen	-10.5184
▁br	-10.5187
▁dumm	-10.5192
▁neuro	-10.5194
▁beruf	-10.5203
▁vermute	-10.5208
▁kurs	-10.5216
▁197	-10.5216
▁nachbarschaft	-10.5216
▁froh	-10.5216
▁etc	-10.5216
▁echtzeit	-10.5219
du	-10.5219
▁bibliothek	-10.522
▁höre	-10.522
▁industrielle	-10.5224
▁chemikalien	-10.5241
▁seid	-10.5248
▁show	-10.5249
▁verstehe	-10.5249
▁kontrolliert	-10.5256
▁he	-10.5257
▁ho	-10.5261
zwischen	-10.5263
▁tom	-10.5267
▁tee	-10.5271
▁blumen	-10.5279
geschwindigkeit	-10.528
politik	-10.528
▁gottes	-10.5287
▁kostenlos	-10.5287
laufen	-10.5289
▁verrückte	-10.5319
▁momente	-10.5322
▁schicksal	-10.5331
▁kabel	-10.5333
▁protein	-10.5333
▁irgendwelche	-10.5334
▁wüsste	-10.5334
▁erweitern	-10.5334
ort	-10.5336
▁afrikaner	-10.5338
▁verlust	-10.5338
▁proteine	-10.5341
▁weltkrieg	-10.5344
▁19.	-10.5346
▁75	-10.5346
▁gericht	-10.5348
▁allgemeine	-10.5355
▁einzigartig	-10.5356
▁blatt	-10.5357
schrift	-10.5361
▁erkannt	-10.5365
▁fährt	-10.5368
▁pflege	-10.5369
▁bemerken	-10.537
pi	-10.537
▁vorhersagen	-10.5386
▁weile	-10.5393
▁nerven	-10.5404
▁informations	-10.541
▁sa	-10.5418
▁maß	-10.5418
▁steve	-10.5419
▁chines	-10.5434
▁aufnehmen	-10.5434
▁ur	-10.5435
▁wovo	-10.5437
▁stahl	-10.5453
▁akzeptieren	-10.5453
▁überraschung	-10.5453
▁deutschland	-10.5455
▁dauerte	-10.5456
▁sms	-10.5461
▁elektronische	-10.5462
len	-10.5465
▁religiöse	-10.5471
▁solcher	-10.5472
▁eng	-10.5476
▁mr	-10.5477
end	-10.5487
▁knapp	-10.5494
▁vi	-10.55
gel	-10.5509
▁geschenk	-10.5517
weite	-10.5522
▁halt	-10.5524
▁reale	-10.5541
▁600	-10.5543
▁nase	-10.5545
▁stern	-10.5551
▁hotel	-10.5556
▁ingenieur	-10.5556
▁vereint	-10.5557
▁schiff	-10.5559
wert	-10.5559
▁phase	-10.5561
▁zug	-10.5568
▁my	-10.5571
▁erkennt	-10.5573
▁eindeutig	-10.5573
▁definiert	-10.5573
▁fahrrad	-10.5573
▁darunter	-10.5574
▁atmen	-10.5574
▁doktor	-10.5576
▁bibel	-10.5578
▁darstellt	-10.5578
▁100.000	-10.5583
▁signale	-10.5585
all	-10.5586
▁plattform	-10.5588
▁interessantes	-10.5594
sein	-10.5595
▁lern	-10.56
▁wohnung	-10.56
▁erkrankung	-10.5606
▁besitzt	-10.5621
▁besagt	-10.5623
▁herein	-10.5625
▁verhaltens	-10.5626
▁bemerkenswert	-10.5627
▁pinguine	-10.5631
▁staats	-10.564
▁physiker	-10.5648
▁veränderte	-10.5654
▁wärme	-10.5656
gemacht	-10.566
▁sh	-10.5665
▁kirche	-10.5665
▁kon	-10.5668
▁kr	-10.5672
bo	-10.5674
voll	-10.5687
▁wünschte	-10.5689
▁zuschauer	-10.5695
▁ländlich	-10.5695
▁harvard	-10.5695
▁insbesonder	-10.5695
▁youtube	-10.5695
▁klassenzimmer	-10.5695
▁worauf	-10.5696
▁robert	-10.5696
▁hinauf	-10.5701
▁prinzipien	-10.5705
▁schwere	-10.5707
macht	-10.5708
▁geh	-10.5709
forschung	-10.571
▁vermeiden	-10.5712
▁wora	-10.5712
▁doppelt	-10.5712
▁11.	-10.5714
▁fortschritte	-10.5715
▁persönlichkeit	-10.5716
5.000	-10.5722
▁antwortete	-10.5725
▁übernehmen	-10.5725
▁leichter	-10.5725
▁zusammenzu	-10.5729
▁durchführen	-10.5731
▁wen	-10.5733
▁element	-10.5743
we	-10.5747
▁ben	-10.5751
ete	-10.5773
▁ingenieure	-10.5779
▁fakten	-10.5783
▁staatliche	-10.5785
▁programmier	-10.5786
über	-10.5788
▁afrikas	-10.5791
▁ökonom	-10.5797
▁sorge	-10.5799
▁witz	-10.58
▁berühmt	-10.5808
äu	-10.5814
▁fokus	-10.5818
▁inspiration	-10.5819
▁älteste	-10.5819
▁hieß	-10.5819
▁stieg	-10.5819
▁vorbereitet	-10.5821
ment	-10.5824
▁literatur	-10.5825
▁singen	-10.5832
gruppen	-10.584
▁technisch	-10.584
▁tanzen	-10.5863
rseit	-10.5868
▁rad	-10.5868
endlich	-10.5883
0	-10.5886
▁modern	-10.5891
heim	-10.5892
▁mathematische	-10.5901
▁prozesse	-10.5925
ho	-10.5926
▁durfte	-10.5944
▁mikroben	-10.5944
ill	-10.5945
▁organisiert	-10.5946
▁geruch	-10.5948
▁traurig	-10.595
▁verbreitung	-10.5952
▁aufgewachsen	-10.5954
▁flog	-10.5965
▁kugel	-10.5967
kl	-10.5969
▁symbol	-10.5982
▁ernährung	-10.5985
teilen	-10.5988
▁liebte	-10.599
▁bezieh	-10.5992
▁student	-10.5992
ek	-10.5994
▁wunderschön	-10.5994
modell	-10.5995
gegeben	-10.5996
rei	-10.6006
▁durchzu	-10.601
▁tu	-10.6011
▁bemerkenswerte	-10.6014
gabe	-10.6016
dollar	-10.6016
▁willen	-10.6023
fach	-10.6028
▁mathematiker	-10.6034
▁21	-10.6036
▁li	-10.6036
▁anzeige	-10.6039
▁feind	-10.6044
▁seil	-10.6046
im	-10.6048
▁uni	-10.6048
▁mu	-10.6049
lin	-10.6053
▁entscheidend	-10.6054
▁glücklicher	-10.6058
eln	-10.6062
▁küste	-10.6064
▁noten	-10.6065
▁ursache	-10.607
▁riesen	-10.607
▁überwinden	-10.6071
greifen	-10.6078
emissionen	-10.6082
▁budget	-10.6082
▁studio	-10.6087
▁austausch	-10.6089
▁flügel	-10.6091
▁population	-10.6091
▁speicher	-10.6094
▁therapie	-10.6099
▁kampagne	-10.61
krise	-10.6106
▁entscheidende	-10.6107
▁beteiligt	-10.6113
verhalten	-10.6147
▁schritte	-10.615
▁wolken	-10.6152
mi	-10.6152
▁zentrale	-10.6156
▁auswahl	-10.6163
▁billig	-10.6164
▁bildet	-10.6182
▁erlebnis	-10.6184
wei	-10.6185
▁brücke	-10.6187
▁lügen	-10.6188
▁begreif	-10.6191
▁langweilig	-10.6192
arm	-10.6193
▁besucht	-10.6195
▁alternative	-10.6196
männchen	-10.6198
▁world	-10.6198
▁gewann	-10.6199
▁verschwunden	-10.6199
▁option	-10.6199
▁üblich	-10.6199
▁pollen	-10.6199
▁paris	-10.6199
▁geburtstag	-10.6201
▁stehe	-10.6202
▁beenden	-10.6203
▁wirkt	-10.6206
▁verbrechen	-10.6206
▁asien	-10.6206
▁beschreib	-10.621
▁milch	-10.6212
▁ad	-10.6213
▁basierend	-10.6213
▁wände	-10.6216
▁mittels	-10.6223
▁filter	-10.6224
▁buchstaben	-10.6225
▁akt	-10.6228
▁top	-10.6236
▁geistes	-10.6247
▁bus	-10.6247
spieler	-10.6247
▁videospiele	-10.6259
▁eier	-10.6269
▁konsequenzen	-10.6271
▁intelligente	-10.6276
ug	-10.6276
▁jugend	-10.6278
▁führung	-10.6284
schlagen	-10.6285
station	-10.6285
▁resultat	-10.6287
▁rum	-10.6289
▁weiterer	-10.6294
▁farb	-10.6299
▁enden	-10.6306
▁armee	-10.631
▁schrift	-10.6313
wirtschaft	-10.6313
▁organisieren	-10.6315
▁zwang	-10.632
▁typisch	-10.6328
▁aufgeregt	-10.6328
▁getrennt	-10.6328
▁iphone	-10.6328
▁investiert	-10.6329
▁knie	-10.6329
▁island	-10.6329
▁schuf	-10.6329
▁neuigkeit	-10.6332
▁fernseh	-10.6333
iv	-10.6336
▁wahrnehmen	-10.6337
▁beliebt	-10.6337
▁gebiete	-10.6338
▁debatte	-10.6339
führung	-10.6344
▁fläche	-10.6351
▁gewisser	-10.6354
▁sp	-10.6376
▁gewaltige	-10.6382
▁gedicht	-10.64
▁genügen	-10.64
cht	-10.6404
regierung	-10.6406
▁app	-10.6411
▁berühmte	-10.6411
▁private	-10.6413
▁betreiben	-10.6415
▁geräusche	-10.6421
▁bring	-10.6423
▁langsamer	-10.6425
▁virtuelle	-10.6427
ang	-10.6432
▁grundlage	-10.6443
▁stift	-10.6457
▁open	-10.646
▁gemüse	-10.646
▁nachgedacht	-10.646
▁university	-10.646
▁schweden	-10.646
▁chaos	-10.646
▁weshalb	-10.6461
▁mama	-10.6462
▁teilnehmer	-10.6465
▁hu	-10.6467
▁einzel	-10.6467
ve	-10.6472
▁woh	-10.6477
▁geteilt	-10.6478
▁ph	-10.648
▁frank	-10.6483
▁wal	-10.649
▁betrieben	-10.6495
sprache	-10.6496
▁zufall	-10.6503
▁tiefen	-10.6506
tin	-10.6517
stein	-10.6518
▁öffnet	-10.6529
▁dichte	-10.6531
▁mächtig	-10.6534
▁0	-10.6535
▁beschrieben	-10.6537
▁zunehmend	-10.6538
tja	-10.654
gi	-10.6547
▁todes	-10.6548
▁verdient	-10.6551
▁konsum	-10.6556
▁schickte	-10.6556
▁liefert	-10.6564
▁letzter	-10.6567
▁einzigartige	-10.6568
▁pferd	-10.6576
▁th	-10.6586
▁nano	-10.6588
▁nachhaltige	-10.6592
▁kaputt	-10.6593
▁ursprung	-10.6593
▁boston	-10.6594
▁nadel	-10.6594
▁eingeladen	-10.6594
▁di	-10.6594
▁kleidung	-10.6595
▁ansieh	-10.6599
▁status	-10.6604
▁vorträge	-10.6604
▁genetisch	-10.661
▁widerstand	-10.6613
▁anführer	-10.6614
▁polio	-10.6614
▁zusätzliche	-10.6619
▁nutzung	-10.6623
▁kreuz	-10.664
▁tests	-10.6645
▁jugendliche	-10.6645
▁versorg	-10.6648
▁trat	-10.6654
▁respekt	-10.6654
▁herstellung	-10.6655
ly	-10.6657
ischer	-10.6663
▁mitglieder	-10.6664
▁general	-10.6664
if	-10.6668
kultur	-10.6672
funktion	-10.6674
▁wirkliche	-10.6677
▁treib	-10.6679
▁fliege	-10.668
▁not	-10.6683
▁stärke	-10.6684
▁ereignis	-10.669
▁mai	-10.6692
ät	-10.6694
▁ernähr	-10.6698
▁dichter	-10.6708
▁eröffnet	-10.6711
▁erfinder	-10.6724
▁chicago	-10.6728
▁francisco	-10.6729
▁sonnenlicht	-10.6729
▁beachten	-10.673
▁verließ	-10.673
▁medium	-10.6733
▁beobachtung	-10.6733
▁flüssigkeit	-10.6734
▁hinterlassen	-10.6739
▁ruhe	-10.674
▁heißen	-10.6742
▁identifizier	-10.6743
▁23	-10.6745
systeme	-10.6746
▁instrumente	-10.675
▁übung	-10.6754
▁dreidimensional	-10.6755
▁steuer	-10.676
▁negative	-10.6761
▁wechseln	-10.6767
▁bezeichnen	-10.6767
▁fehl	-10.6775
stück	-10.6776
▁umfeld	-10.6779
▁hängen	-10.6779
▁vergangen	-10.679
ator	-10.6793
linie	-10.6796
bildung	-10.6796
50	-10.681
▁bedien	-10.6814
▁seele	-10.682
▁risik	-10.682
▁sicherheits	-10.6829
leg	-10.683
▁fi	-10.6831
gerät	-10.6839
organisation	-10.6841
▁küche	-10.685
▁kriege	-10.6855
▁geschäfte	-10.6856
▁hör	-10.6863
▁lebenserwartung	-10.6865
▁obama	-10.6865
▁kongress	-10.6866
▁1990	-10.6866
▁hinzufügen	-10.6867
▁gedächtnis	-10.6869
▁berge	-10.6869
▁1.000	-10.6869
▁weisheit	-10.6871
▁individuelle	-10.6873
cken	-10.6874
▁interessen	-10.6875
▁höchst	-10.6876
▁teilweise	-10.6877
▁versagen	-10.6878
▁restaurant	-10.6879
▁sektor	-10.6889
▁interessanter	-10.6906
bezüglich	-10.6906
▁au	-10.6911
▁center	-10.6912
oll	-10.6927
▁aufrecht	-10.6928
▁bemerkte	-10.6932
lie	-10.6935
▁klug	-10.6943
▁dh	-10.6954
▁freie	-10.6954
reich	-10.6958
▁teure	-10.696
▁gib	-10.6961
▁vierte	-10.6961
▁27	-10.6965
▁funktionierte	-10.6968
▁lese	-10.6975
teil	-10.699
▁fehlt	-10.6993
▁rennen	-10.6996
▁fange	-10.6997
▁blind	-10.7
▁kurve	-10.7003
▁folgenden	-10.7004
▁verliert	-10.7004
▁ägypten	-10.7004
▁überzeugung	-10.7004
▁zerstörung	-10.7004
▁erneut	-10.7004
▁scheinbar	-10.7004
fressen	-10.7005
▁gleichgewicht	-10.7005
▁niedrig	-10.7006
▁hinunter	-10.7006
▁geschmack	-10.7008
▁gerechtigkeit	-10.701
ac	-10.7013
▁for	-10.7014
▁psychologie	-10.7015
▁mode	-10.7015
▁peter	-10.7018
▁achse	-10.7021
▁scheitern	-10.7021
technik	-10.7023
▁spenden	-10.7024
▁verfahren	-10.7026
,000	-10.7026
▁verursachen	-10.7027
og	-10.7028
▁level	-10.7032
▁wartet	-10.7037
▁berühren	-10.7046
▁weh	-10.7046
▁wirtschaftlich	-10.7054
reichen	-10.7055
its	-10.7063
scheinend	-10.7068
per	-10.7069
▁bezeichnet	-10.7069
oberfläche	-10.707
▁angriff	-10.7076
▁biolog	-10.7095
▁gründete	-10.7096
▁weltweite	-10.7097
▁finanzielle	-10.7098
▁schweine	-10.711
▁aspekte	-10.7118
▁stille	-10.7119
ya	-10.7121
▁unterricht	-10.7122
▁kindes	-10.7122
gewiesen	-10.7127
▁gehör	-10.7141
▁taschen	-10.7143
▁physikalische	-10.7145
▁2010	-10.7146
▁ruhig	-10.7149
▁unsichtbar	-10.715
▁potenzial	-10.715
▁täuschung	-10.7151
▁adam	-10.7157
▁zeichnung	-10.7161
▁streben	-10.7162
▁har	-10.7172
▁beizu	-10.7177
▁dauern	-10.7186
nder	-10.7187
▁philosophie	-10.719
eck	-10.7197
▁wollt	-10.7199
▁resultate	-10.72
▁kognitive	-10.7207
karte	-10.7225
gesamt	-10.7234
▁besuchte	-10.7251
▁dramatisch	-10.726
▁magie	-10.7264
▁22	-10.7265
▁sternen	-10.7272
▁algorithmen	-10.7286
▁1960	-10.7288
▁circ	-10.7289
▁gesammelt	-10.7291
▁harte	-10.7292
▁teufel	-10.7297
▁quellen	-10.7298
licht	-10.7298
ud	-10.7304
▁serie	-10.7312
breite	-10.7313
▁erzählung	-10.7314
▁analyse	-10.7318
▁müsst	-10.7319
▁studiert	-10.733
lichkeit	-10.7333
▁mauer	-10.7333
▁leere	-10.7335
▁moralisch	-10.734
▁schlimm	-10.7342
▁relevant	-10.7342
muster	-10.7348
▁wohn	-10.735
▁typische	-10.735
▁billionen	-10.7357
▁einfachheit	-10.7359
bricht	-10.736
än	-10.7361
▁vorschlag	-10.7365
▁schließ	-10.7374
ana	-10.7381
▁ergeben	-10.7383
▁fülle	-10.7386
▁vorteile	-10.7396
▁schlag	-10.7401
▁inner	-10.7407
▁vers	-10.7413
▁chancen	-10.7422
▁1000	-10.7424
▁griff	-10.7425
▁mengen	-10.7429
▁zufrieden	-10.743
▁verwendung	-10.7431
▁begegnen	-10.7433
▁strand	-10.7433
▁schnee	-10.7433
▁haiti	-10.7434
▁original	-10.7434
▁heirat	-10.7438
▁kommentar	-10.744
werfen	-10.7443
▁exakt	-10.7448
▁konfrontiert	-10.7449
▁schreibt	-10.7452
▁epidemie	-10.7453
▁quer	-10.7454
▁zählt	-10.7458
▁berechn	-10.7461
▁van	-10.7461
▁ju	-10.7463
▁dimensionen	-10.7464
film	-10.7472
▁anpassen	-10.7472
▁gelehrt	-10.7484
tragen	-10.7485
▁stoff	-10.7487
▁regierungs	-10.7492
▁biologisch	-10.7498
ium	-10.751
tun	-10.7516
▁ex	-10.7518
▁stress	-10.7536
▁arabisch	-10.7538
sprozess	-10.754
▁no	-10.7545
▁negativ	-10.7548
▁nahen	-10.7549
gegen	-10.7558
istische	-10.7558
▁technologische	-10.7563
▁brief	-10.7565
▁umgeben	-10.7565
ff	-10.7568
ach	-10.7576
▁hitze	-10.758
▁berücksichtig	-10.758
▁motivation	-10.758
▁überlebt	-10.758
▁bewahre	-10.758
▁nervös	-10.758
▁street	-10.758
▁kuh	-10.7582
ära	-10.7582
▁enthalten	-10.7584
▁sichtweise	-10.7584
▁deiner	-10.7585
▁optimistisch	-10.7587
▁gemein	-10.7587
▁bord	-10.7588
▁hass	-10.7589
▁goldene	-10.759
▁bekannte	-10.7595
werk	-10.7597
lu	-10.7598
schule	-10.7599
▁haare	-10.7601
▁saubere	-10.7602
rb	-10.7604
▁anzusehen	-10.7609
▁abfall	-10.7624
▁verkehr	-10.7631
▁marke	-10.7634
steigen	-10.7637
druck	-10.764
▁ausgebildet	-10.7645
arbeiten	-10.7648
kosten	-10.7654
na	-10.7655
▁inspirieren	-10.7658
▁suchte	-10.7661
▁transport	-10.7665
▁wesentliche	-10.7667
rgestellt	-10.7671
▁jährlich	-10.7672
größe	-10.7674
▁statistik	-10.768
▁brustkrebs	-10.7704
▁berichtet	-10.7704
▁ballon	-10.7712
▁wende	-10.7725
▁wünsche	-10.7727
ebene	-10.7729
▁erdbeben	-10.7729
▁ghana	-10.7729
▁veröffentlichen	-10.7729
▁trick	-10.773
▁dahinter	-10.7731
▁kongo	-10.7732
▁finanziert	-10.7734
▁tätigkeit	-10.7736
▁angelegenheit	-10.7738
▁detail	-10.774
sam	-10.7741
▁eu	-10.7743
▁erfuhr	-10.7745
▁erfüllen	-10.7747
▁spektrum	-10.7749
lager	-10.775
▁ausgesetzt	-10.7753
▁wem	-10.7761
sätze	-10.7779
▁lungen	-10.7786
▁atom	-10.7798
▁frühe	-10.7798
▁ro	-10.7804
▁programme	-10.7815
▁wichtiges	-10.782
▁gu	-10.7821
▁entgegen	-10.7825
▁planen	-10.7826
▁hall	-10.7832
▁sequenz	-10.7834
▁ei	-10.7834
passen	-10.7836
▁legte	-10.7837
▁illusion	-10.7852
ker	-10.7855
▁autor	-10.7856
ran	-10.7858
kreis	-10.7867
▁neugier	-10.7867
ierten	-10.787
▁bedauern	-10.7881
▁stirb	-10.7881
▁gipfel	-10.7881
▁summe	-10.7882
▁krankenhäuser	-10.7882
▁apple	-10.7883
▁unterwegs	-10.7884
▁erfand	-10.7886
▁leiten	-10.7891
▁erfüllt	-10.7892
▁spannung	-10.7893
behörde	-10.7893
ad	-10.7894
▁coole	-10.7894
▁umher	-10.7895
rie	-10.7895
▁weltall	-10.7897
▁aufnahmen	-10.7898
hafte	-10.7898
ina	-10.7902
▁vorhin	-10.7906
▁störung	-10.7907
▁stil	-10.7913
▁stiftung	-10.7915
▁erstmal	-10.7916
▁genießen	-10.7926
▁250	-10.7933
richtung	-10.7945
▁komisch	-10.7951
▁wider	-10.7952
▁höchsten	-10.7952
schutz	-10.7966
▁chinesisch	-10.7967
▁schmerzen	-10.7971
▁gezogen	-10.7975
fälle	-10.7979
handel	-10.798
unwahrscheinlich	-10.7982
▁schwach	-10.7984
▁faszinierende	-10.7988
menge	-10.7989
▁kopie	-10.7992
▁teams	-10.8008
▁fahrzeug	-10.801
▁preise	-10.8011
gebiet	-10.8014
▁joe	-10.8029
▁wachsende	-10.8034
▁aufstieg	-10.8035
▁höhepunkt	-10.8039
▁nahrungsmittel	-10.8041
▁disziplin	-10.8041
▁schätzung	-10.8041
▁dörfer	-10.8042
▁vorsichtig	-10.8044
▁anstieg	-10.8044
▁wiederholt	-10.8046
▁haie	-10.8048
▁unbekannte	-10.8048
uch	-10.8053
ep	-10.8056
▁wirken	-10.8057
▁rollen	-10.8061
▁ungewöhnlich	-10.8071
▁rock	-10.8076
▁islamische	-10.8079
▁schriftsteller	-10.809
▁inter	-10.8093
▁trete	-10.8093
▁gesetzt	-10.8098
▁sam	-10.8105
▁repräsentiert	-10.8112
▁auftrag	-10.8112
▁kriegs	-10.8114
▁kauft	-10.8118
▁bedeutete	-10.8121
sinn	-10.813
fläche	-10.813
tische	-10.8131
tausend	-10.8134
wasser	-10.8134
▁anfäng	-10.8136
ice	-10.8136
geschäft	-10.8137
▁mächtige	-10.8143
▁dia	-10.8146
▁schaue	-10.815
▁satelliten	-10.8152
zone	-10.8153
▁werbe	-10.8161
che	-10.8169
▁aufbau	-10.8172
sterblichkeit	-10.8173
▁kreatur	-10.8191
▁bekämpfen	-10.8191
▁vagina	-10.8191
▁regelmäßig	-10.8192
▁schlacht	-10.8193
▁traditionell	-10.8195
▁städtische	-10.8197
▁kategorie	-10.8201
▁schlug	-10.8203
burg	-10.8205
▁gewöhnt	-10.8206
srate	-10.8215
▁drehte	-10.8215
▁trend	-10.8218
▁box	-10.8221
▁kl	-10.8222
▁stock	-10.8224
▁komplizierte	-10.8227
▁mechanism	-10.8228
500	-10.8228
krieg	-10.8229
▁antrieb	-10.8234
res	-10.8234
▁amp	-10.8235
▁erwähnen	-10.8236
▁ausmachen	-10.8244
▁samen	-10.8245
▁fotografiert	-10.8249
rad	-10.8254
sel	-10.8258
▁bur	-10.8262
▁höchste	-10.8266
▁intellektuelle	-10.8267
▁kümmert	-10.8267
▁wachstums	-10.8269
▁last	-10.8273
eg	-10.8287
▁organe	-10.8293
▁bewirk	-10.8294
▁ursprüngliche	-10.8295
▁strecke	-10.8303
va	-10.8309
▁ausgaben	-10.8312
▁schlau	-10.8318
arbeiter	-10.8318
▁verdammt	-10.8323
flu	-10.8323
zelle	-10.8328
▁gr	-10.8332
sonst	-10.8334
▁patent	-10.8336
▁verbrenn	-10.8339
▁verschwinde	-10.834
▁air	-10.8343
▁proben	-10.8345
▁higgs	-10.835
▁inklusive	-10.835
▁frankreich	-10.835
▁blickwinkel	-10.835
ue	-10.8351
▁ausgewählt	-10.8352
▁bush	-10.8353
▁science	-10.8354
▁präsentiert	-10.8354
▁magische	-10.8355
▁könne	-10.8358
fallen	-10.8359
▁willkommen	-10.836
▁neugierig	-10.8365
▁brach	-10.8365
▁entstehung	-10.8365
▁ausrüstung	-10.8366
▁ladung	-10.8366
▁mark	-10.8367
▁mar	-10.8367
▁effizienz	-10.837
▁zurückgehen	-10.8373
▁aß	-10.8374
▁ehre	-10.8377
ow	-10.8378
▁neigen	-10.8384
▁tasche	-10.8385
produktion	-10.8385
▁nachhaltig	-10.8387
gefallen	-10.839
▁gelassen	-10.8398
▁sätze	-10.8407
▁korallen	-10.8413
▁rauch	-10.8413
▁drücke	-10.8418
▁tote	-10.8418
▁lasse	-10.8421
▁elefanten	-10.8423
▁landete	-10.8428
lauf	-10.8429
▁bericht	-10.8433
▁kollektive	-10.8443
fällt	-10.845
▁trenn	-10.8454
nis	-10.8461
▁pan	-10.8467
▁presse	-10.8473
▁lenk	-10.848
letztlich	-10.8481
▁intelligent	-10.8483
cher	-10.8483
ive	-10.8496
▁pe	-10.8496
▁wellen	-10.8502
ney	-10.8504
▁wette	-10.8506
é	-10.8511
▁ungeheuer	-10.8511
▁vergnügen	-10.8511
▁ängste	-10.8511
▁brown	-10.8511
▁oxford	-10.8511
▁befand	-10.8511
▁denkweise	-10.8513
▁käfer	-10.8514
▁kilo	-10.8515
▁cm	-10.8516
▁angeles	-10.8516
sta	-10.8521
▁argument	-10.8527
▁beibring	-10.8533
▁standpunkt	-10.8534
▁erklärte	-10.8535
graben	-10.8536
▁stoß	-10.8541
rat	-10.8544
gelegt	-10.8544
▁ausmacht	-10.8546
sh	-10.8547
▁zell	-10.8555
▁beschränkt	-10.8555
▁marken	-10.8558
▁jim	-10.8566
alt	-10.8588
lösung	-10.859
▁aufregende	-10.8591
▁südlich	-10.8591
▁heilen	-10.8594
▁empfinden	-10.8598
▁kleinste	-10.8599
▁flach	-10.8603
del	-10.8604
▁kritische	-10.8618
kurs	-10.8621
▁teilt	-10.8624
gezwungen	-10.8631
▁reform	-10.8632
essen	-10.8633
▁pu	-10.8636
kom	-10.8636
▁massive	-10.864
tritt	-10.8646
wellen	-10.8652
▁tim	-10.8655
ron	-10.8659
▁verbraucht	-10.866
▁länge	-10.8661
nden	-10.8667
einhalb	-10.8673
▁training	-10.8674
▁dialog	-10.8675
▁entschuldigung	-10.8675
▁kreiert	-10.8675
▁gps	-10.8675
▁plus	-10.8675
▁jegliche	-10.8675
▁mäuse	-10.8675
▁aussah	-10.8676
▁papa	-10.8676
▁globalisierung	-10.8676
▁altern	-10.8676
▁wasserstoff	-10.8676
▁geschützt	-10.8677
▁jense	-10.8677
▁hinblick	-10.8677
ard	-10.8682
har	-10.8685
▁quadrat	-10.8687
▁hell	-10.8687
▁katze	-10.8687
▁anschaue	-10.8688
▁psychologe	-10.8689
folge	-10.87
ding	-10.8702
▁versorgung	-10.8709
▁süß	-10.8713
▁ausgegeben	-10.8714
▁kleinere	-10.872
▁verletzung	-10.8722
▁gespräche	-10.8724
ap	-10.8727
org	-10.8728
▁star	-10.8729
▁krieges	-10.8736
ordnung	-10.8746
▁poster	-10.8746
▁rate	-10.875
▁ausdrücke	-10.8751
leistung	-10.8755
fisch	-10.8757
design	-10.8759
stellungskraft	-10.8762
▁miss	-10.8764
▁gewöhnlich	-10.8769
▁wach	-10.8773
▁kb	-10.8776
▁freundlich	-10.8779
▁einzig	-10.8785
and	-10.8791
▁fließ	-10.8798
▁2.	-10.8799
▁physisch	-10.88
reise	-10.8807
organismus	-10.8808
▁konflikte	-10.8809
▁angebot	-10.8811
▁tauchen	-10.8812
ub	-10.8821
▁schock	-10.8822
▁benutze	-10.8823
▁lehre	-10.8826
▁irgendein	-10.8829
▁präsidenten	-10.8834
wand	-10.8837
▁gerettet	-10.8841
▁intuition	-10.8841
▁wütend	-10.8841
▁befreien	-10.8842
stoff	-10.8842
▁gemessen	-10.8844
▁abenteuer	-10.8846
▁väter	-10.8847
▁lärm	-10.8847
▁weltbevölkerung	-10.8848
▁king	-10.8849
▁fliegt	-10.8851
▁futter	-10.8851
▁schwanz	-10.8853
▁schlechtes	-10.8857
stelle	-10.8872
haltung	-10.8876
▁verteilung	-10.8878
nehmen	-10.8879
zugeh	-10.8906
▁gelbe	-10.8907
▁bier	-10.8907
▁symptome	-10.8912
▁wiederholen	-10.8913
▁molekulare	-10.8913
▁historische	-10.8916
▁umgang	-10.8918
▁ohr	-10.8923
▁schnelle	-10.8924
▁dinger	-10.8924
körper	-10.8925
▁stärken	-10.8925
firma	-10.8929
▁che	-10.8938
▁lichter	-10.8941
▁handys	-10.8944
▁geschlossen	-10.8948
zustand	-10.8963
▁unmittelbar	-10.8971
▁einst	-10.8975
▁dankbar	-10.8977
▁jeweil	-10.8979
▁nordamerika	-10.8984
▁liebt	-10.8988
▁unsichtbare	-10.9001
▁einwohner	-10.9011
▁gestartet	-10.9011
▁tendenz	-10.9011
▁transparenz	-10.9011
gedreht	-10.9011
▁vorwärts	-10.9011
▁onkel	-10.9011
▁verschwand	-10.9011
▁musikalische	-10.9011
▁russland	-10.9011
▁lohn	-10.9012
▁green	-10.9012
▁zufriedenheit	-10.9021
einheit	-10.9023
▁brüder	-10.9024
▁übersetzt	-10.9025
▁abhängigkeit	-10.9025
▁chef	-10.9028
▁ignorieren	-10.9028
▁fotografie	-10.9028
boot	-10.903
▁erfassen	-10.9035
ani	-10.9036
▁waffe	-10.9041
▁heutige	-10.9042
▁mitzu	-10.9043
▁bip	-10.9045
▁frequenz	-10.9046
▁meister	-10.9049
▁benutzte	-10.905
▁male	-10.9052
ok	-10.9055
▁dame	-10.906
▁eingebaut	-10.9065
▁vorgang	-10.9065
gas	-10.9066
▁anbieten	-10.9069
▁steig	-10.907
▁seh	-10.9086
▁gebildet	-10.9094
▁profitier	-10.9102
▁unendlich	-10.9111
▁träumen	-10.9113
▁flugzeuge	-10.9122
▁treiben	-10.9125
wissenschaftlich	-10.9129
temperatur	-10.9129
wagen	-10.9131
stunden	-10.9143
▁ungewöhnliche	-10.9143
▁üb	-10.9147
▁erneuerbare	-10.9147
▁gefährliche	-10.9147
▁skulptur	-10.9156
▁partei	-10.9161
recht	-10.9161
▁sub	-10.9168
▁rational	-10.9174
▁hinweis	-10.9175
▁überprüf	-10.9176
▁zahn	-10.9177
▁kar	-10.9178
▁such	-10.9183
▁babies	-10.9183
▁januar	-10.9183
▁polizist	-10.9183
▁texas	-10.9183
▁tragödie	-10.9183
▁wohlbefinden	-10.9183
▁benzin	-10.9183
▁stanford	-10.9183
▁treibstoff	-10.9185
▁bedeckt	-10.9185
▁sonnensystem	-10.9188
▁züchte	-10.919
▁geraten	-10.919
▁redet	-10.9191
▁gestaltet	-10.9192
▁nahezu	-10.9192
▁orchester	-10.9196
▁dynamik	-10.9198
▁dienstleistung	-10.9202
▁felder	-10.9202
▁staub	-10.9203
▁ersetzt	-10.9204
▁roman	-10.9204
▁verlangt	-10.9204
▁derek	-10.9205
entwicklung	-10.9208
▁dazwischen	-10.9209
▁umso	-10.921
▁wieviele	-10.9218
▁pflanze	-10.9219
ling	-10.9222
▁or	-10.9225
▁militärische	-10.9226
▁demokratische	-10.9256
▁verschiedener	-10.9257
▁lächerlich	-10.9258
▁schläg	-10.9262
▁nachfrage	-10.9263
▁120	-10.9265
▁nette	-10.9265
reicht	-10.9266
▁entschlossen	-10.9282
fache	-10.9285
▁raketen	-10.9285
▁warf	-10.9293
▁ag	-10.9295
▁talent	-10.9297
▁bla	-10.9299
▁komplette	-10.9301
▁weitermache	-10.9302
▁schwerer	-10.9303
▁chirurg	-10.9306
ble	-10.9308
▁männliche	-10.9309
▁fehlen	-10.932
treiben	-10.9326
▁katastrophen	-10.9338
▁ausschließlich	-10.9355
▁verbringe	-10.9356
▁mitglied	-10.9356
▁microsoft	-10.9359
▁uganda	-10.9359
▁öfter	-10.9359
▁zwölf	-10.9359
▁saturn	-10.9359
▁bedroht	-10.9359
▁schädel	-10.936
▁trage	-10.9361
▁logik	-10.9362
▁computern	-10.9363
▁spannend	-10.9363
ag	-10.9363
▁angepasst	-10.9363
▁diagnose	-10.9365
▁tempo	-10.9365
▁skelett	-10.9366
▁ru	-10.9366
war	-10.937
▁vermögen	-10.9378
▁gefüllt	-10.9378
▁2001	-10.9379
▁metern	-10.9384
▁reis	-10.939
▁eigentliche	-10.939
▁springen	-10.9393
▁nachhaltigkeit	-10.9395
▁saal	-10.9395
▁pläne	-10.9396
▁gebrochen	-10.9398
▁fremde	-10.9399
▁fair	-10.9399
▁ke	-10.9402
züge	-10.9413
▁195	-10.9415
bett	-10.9417
▁tritt	-10.9418
▁pat	-10.9421
▁analysier	-10.9422
▁leber	-10.9427
▁hindurch	-10.9428
▁arabische	-10.9428
▁fan	-10.9432
▁steine	-10.9434
▁kan	-10.9441
▁hasse	-10.9448
▁volle	-10.9451
▁65	-10.9453
▁bildungs	-10.9463
▁laser	-10.9464
energie	-10.9491
▁herauszu	-10.9499
▁jack	-10.9502
▁spezifische	-10.9503
ball	-10.9505
▁bescheid	-10.9508
▁magazin	-10.9513
▁32	-10.9515
▁spring	-10.9526
▁gegessen	-10.9537
▁urknall	-10.9537
▁ärmste	-10.9537
▁autismus	-10.9537
▁fantasie	-10.9537
▁valley	-10.9537
▁bürgermeister	-10.9538
▁media	-10.9538
▁zurückkehren	-10.9542
▁geeignet	-10.9544
▁behinderung	-10.9544
▁gore	-10.9544
▁anpassung	-10.9545
▁funk	-10.9545
▁ausser	-10.9547
▁homo	-10.9549
▁stapel	-10.9551
▁okto	-10.9551
▁sexuelle	-10.9551
▁verurteilt	-10.9552
▁trocken	-10.9553
▁explosion	-10.9554
losen	-10.9554
▁verliebt	-10.9557
▁dutzend	-10.9561
▁beschreibung	-10.9566
▁faser	-10.9566
▁scham	-10.957
▁szene	-10.9577
▁song	-10.9586
punkte	-10.9596
▁verbraucher	-10.9596
▁übergang	-10.9598
alen	-10.9599
▁klinische	-10.9601
flogen	-10.9608
▁bu	-10.9609
heiten	-10.9611
▁asteroiden	-10.9616
▁unterhalten	-10.9619
▁greifen	-10.9619
▁mitnehme	-10.962
▁oel	-10.9628
ng	-10.9629
▁probe	-10.9631
▁teleskop	-10.9633
tier	-10.9641
▁anbau	-10.9643
▁oberflächen	-10.9645
bf	-10.9659
elle	-10.966
letzt	-10.966
▁194	-10.9661
source	-10.9664
▁ring	-10.9664
▁obere	-10.9666
▁rüber	-10.9667
▁mikroskop	-10.9681
▁angestellte	-10.9684
unterricht	-10.9693
leute	-10.9693
▁prototyp	-10.9694
ring	-10.9696
▁lkw	-10.9719
▁hollywood	-10.9719
▁abendessen	-10.9721
nahme	-10.9722
▁ehemalige	-10.9723
▁anhänger	-10.9727
▁origami	-10.9735
▁wälder	-10.9737
▁präsentiere	-10.9737
▁party	-10.974
▁durchschnitts	-10.9742
▁dringend	-10.9744
app	-10.9752
▁stämme	-10.9754
▁schauspieler	-10.9761
▁herstellt	-10.9764
▁wut	-10.9765
▁reagiert	-10.9765
ty	-10.9767
▁pr	-10.9775
▁verein	-10.9783
▁echtes	-10.9784
▁reiche	-10.9802
▁führende	-10.9804
▁erwartungen	-10.9807
▁schöner	-10.9811
▁beeindruckend	-10.9812
▁wechsel	-10.9817
iges	-10.983
▁löst	-10.9835
▁gesch	-10.9837
▁kameras	-10.9838
▁kombiniert	-10.9839
kar	-10.9844
▁erledig	-10.9844
▁örtliche	-10.9845
gemeinschaft	-10.985
▁mais	-10.9851
12	-10.9855
▁startete	-10.9855
raten	-10.9857
▁sir	-10.9861
▁schild	-10.9861
▁umfrage	-10.9876
▁steh	-10.9876
schicht	-10.9882
▁fischer	-10.9883
schalt	-10.9884
▁unabhängige	-10.9891
erei	-10.9892
▁wertvoll	-10.9893
▁scha	-10.9894
▁dicht	-10.9894
▁figur	-10.99
▁titan	-10.9904
▁hingeh	-10.9904
▁cambridge	-10.9904
▁geöffnet	-10.9904
▁optimismus	-10.9904
▁reparieren	-10.9904
▁baseball	-10.9904
▁besonderen	-10.9907
▁bauch	-10.9908
▁festgestellt	-10.9908
▁einschränkung	-10.991
▁diabetes	-10.9911
▁hügel	-10.9911
que	-10.9911
▁simulation	-10.9914
basierte	-10.9915
▁meere	-10.9916
▁entsprechend	-10.992
▁geb	-10.9923
▁kuchen	-10.9924
▁niveau	-10.9926
griffen	-10.9928
▁gewaltig	-10.9929
▁strahlung	-10.9932
▁pause	-10.9936
getreten	-10.9951
▁vorder	-10.9952
▁schlimmste	-10.9952
▁beträg	-10.9955
▁gebieten	-10.9958
▁meme	-10.9958
reist	-10.9961
▁flasche	-10.9961
▁blase	-10.9965
▁schw	-10.9966
▁geo	-10.9978
fragen	-10.9981
▁schreibe	-10.9985
▁abhäng	-10.9986
▁unbe	-10.9987
▁hyper	-10.9987
▁leiter	-10.9991
▁verknüpft	-11.0004
▁entwurf	-11.0006
▁geheim	-11.0013
achse	-11.0015
▁pla	-11.0017
flug	-11.0019
▁elektronen	-11.0026
▁einkommens	-11.0028
treffen	-11.003
produkt	-11.0032
▁nest	-11.0034
wenden	-11.004
▁reicher	-11.0045
▁visuell	-11.0046
ville	-11.0052
▁komplizierter	-11.0055
rechnet	-11.0056
▁güte	-11.006
▁schlimmsten	-11.0061
▁dimension	-11.0076
▁farm	-11.0083
fl	-11.0093
▁ignoriert	-11.0093
▁variation	-11.0093
▁ruanda	-11.0093
▁humor	-11.0093
▁martin	-11.0093
▁1970	-11.0094
▁pocken	-11.0094
▁1980	-11.0094
▁spur	-11.0094
▁ungleichheit	-11.0095
▁wünschen	-11.0096
▁sal	-11.0099
▁begleitet	-11.0099
zubauen	-11.0102
▁dns	-11.0108
▁zurückkommen	-11.0108
▁mess	-11.0108
jahr	-11.0109
▁sammlung	-11.0111
▁jüngste	-11.0113
▁anreize	-11.0114
zahlen	-11.0115
▁sozialer	-11.0115
▁angetrieben	-11.0117
gebiete	-11.0122
▁gering	-11.0128
▁nutzer	-11.0128
▁umgekehrt	-11.0135
▁spuren	-11.0138
fer	-11.0139
▁katastrophe	-11.0144
▁bob	-11.0145
programme	-11.0153
brechen	-11.0155
▁fahrzeuge	-11.016
▁kombinier	-11.016
ax	-11.0173
▁gelangt	-11.0181
▁ratten	-11.0189
▁änderte	-11.0189
▁tötet	-11.0193
▁ni	-11.0197
▁geschlechts	-11.0199
▁verdoppelt	-11.02
▁dienst	-11.021
▁quanten	-11.0213
▁hans	-11.022
▁formel	-11.0221
computer	-11.0231
gewebe	-11.0231
▁korrekt	-11.0234
tor	-11.0235
▁führungs	-11.0237
▁bedürfnis	-11.0249
▁stet	-11.0264
artige	-11.0268
hu	-11.0271
sort	-11.0274
▁schwestern	-11.0281
▁alkohol	-11.0285
▁außerordentlich	-11.0285
▁diskutieren	-11.0285
▁feedback	-11.0285
▁getestet	-11.0285
▁größenordnung	-11.0285
▁1950	-11.0286
▁schall	-11.0286
▁geliebt	-11.0287
▁partnerschaft	-11.0287
▁analogie	-11.0289
▁draus	-11.0289
krankenschwester	-11.0289
▁individuum	-11.0289
▁mutation	-11.0295
▁tony	-11.0295
▁verteidigung	-11.0296
▁erziehung	-11.0297
▁trans	-11.0297
▁involviert	-11.0297
▁schmerzhaft	-11.0298
▁rezept	-11.03
▁erfordert	-11.03
▁anweisung	-11.0306
▁designs	-11.0306
▁20.000	-11.0306
▁salz	-11.0311
▁ray	-11.0312
▁sprung	-11.0314
▁winkel	-11.0316
▁flächen	-11.0319
probieren	-11.0322
dichte	-11.0322
▁vorgestellt	-11.0326
preis	-11.033
▁dreimal	-11.0335
▁tal	-11.0339
▁erledigt	-11.0349
lang	-11.0351
▁zurecht	-11.0363
▁ga	-11.0365
▁maße	-11.0366
▁konsumenten	-11.0366
▁niedrige	-11.0378
▁gebete	-11.0386
▁angehen	-11.0387
▁wi	-11.0391
▁fried	-11.0409
bank	-11.0412
▁erkenntnisse	-11.0413
▁95	-11.0416
▁chip	-11.042
▁heil	-11.0423
▁intensiv	-11.0426
fabrik	-11.0427
last	-11.0431
▁eingehen	-11.0436
▁offenbar	-11.0442
blick	-11.0445
▁französische	-11.0447
▁techniken	-11.0451
cy	-11.0451
▁gift	-11.0466
▁3.	-11.0472
▁te	-11.0472
▁kreise	-11.0474
griff	-11.0478
durchschnittlich	-11.048
▁getreide	-11.0481
▁anstrengung	-11.0481
▁erfasst	-11.0481
▁glamourös	-11.0481
▁geplant	-11.0482
▁herausfand	-11.0482
▁tedtalk	-11.0482
▁bewusstseins	-11.0483
▁möbel	-11.0483
▁leise	-11.0483
▁unterscheidet	-11.0484
▁präzise	-11.0484
▁gletscher	-11.0487
▁unterwasser	-11.0488
▁installation	-11.0488
▁knopf	-11.0488
▁ethnische	-11.0489
amerikanische	-11.0489
▁business	-11.0491
▁initiative	-11.0491
▁gegenstand	-11.0491
▁trainieren	-11.0492
▁währung	-11.0494
▁50.000	-11.0495
▁kredit	-11.0496
▁schaffte	-11.0498
▁betrieb	-11.0499
▁impfstoff	-11.05
▁gefolg	-11.0507
▁kal	-11.0513
▁tricks	-11.0513
▁euer	-11.0516
▁bot	-11.0518
▁streiten	-11.0523
▁pre	-11.0524
▁nachzu	-11.0524
▁mochte	-11.0526
▁schlange	-11.0528
▁güter	-11.0532
▁sprecher	-11.0542
▁alters	-11.0542
▁kopieren	-11.0545
▁erinnerte	-11.0548
▁it	-11.0555
tschaftswachstum	-11.0557
▁grau	-11.0557
bezogen	-11.0558
▁fahrer	-11.0571
▁abstrakte	-11.0578
▁repräsentier	-11.0582
energieverbrauch	-11.0588
▁hinweise	-11.0593
nischen	-11.0593
▁nick	-11.0604
terrorismus	-11.0612
▁dis	-11.0615
▁straf	-11.0619
gebäude	-11.0627
strom	-11.0629
▁logisch	-11.0633
spruch	-11.064
▁bell	-11.0641
▁reiste	-11.0643
sfähigkeit	-11.0647
spanne	-11.0647
mäßig	-11.0648
▁front	-11.0651
▁irgend	-11.0658
▁ger	-11.0662
▁pi	-11.0674
fahrt	-11.0675
▁glamour	-11.0681
▁außerirdische	-11.0681
▁bakterium	-11.0681
▁definitiv	-11.0681
▁glühbirne	-11.0681
▁kohlendioxid	-11.0681
▁taliban	-11.0681
▁probiert	-11.0682
▁gerede	-11.0682
▁hilfsmittel	-11.0682
▁frühling	-11.0683
leitung	-11.0683
▁ausreichend	-11.0683
▁led	-11.0684
▁abgeschlossen	-11.0685
▁sing	-11.0686
▁human	-11.0687
▁verleih	-11.0688
▁glückliche	-11.0688
▁schwamm	-11.0689
▁wahlen	-11.069
▁erschien	-11.0691
well	-11.0694
▁kapitalismus	-11.0695
▁verwandten	-11.0696
▁übersetzung	-11.0698
▁erwärmung	-11.0698
mischung	-11.0698
bauen	-11.07
▁bedeutende	-11.07
▁konstruktion	-11.0701
▁fundamentale	-11.0703
▁auftauchen	-11.0704
gesellschaft	-11.0705
▁professionelle	-11.0707
▁prüfung	-11.0709
▁eröffne	-11.0709
▁prototypen	-11.0712
ember	-11.0712
▁hut	-11.0712
▁ch	-11.0715
▁liter	-11.0719
▁aufzeichnung	-11.072
▁weiterentwickel	-11.0726
▁sinnvoll	-11.0728
▁lud	-11.0733
show	-11.0734
▁rechnen	-11.0734
▁weisen	-11.0737
▁dient	-11.0737
▁sauber	-11.0738
▁heilige	-11.0739
▁neueste	-11.074
▁par	-11.0743
▁unterrichtet	-11.0744
öl	-11.0751
▁mathe	-11.0751
▁gerecht	-11.0761
▁fe	-11.0761
▁ökonomische	-11.0763
▁allzu	-11.0771
lesen	-11.0772
▁breite	-11.0774
▁gewöhnliche	-11.0775
▁verblüffend	-11.0775
▁verb	-11.0781
▁radikal	-11.0783
▁komische	-11.0791
▁schief	-11.0795
▁finanzier	-11.0803
▁effizient	-11.0803
▁richter	-11.0805
▁bahn	-11.0805
▁englische	-11.0808
▁abends	-11.0809
▁stabil	-11.081
▁künstlerische	-11.081
▁versprechen	-11.081
▁aufeinander	-11.0811
schön	-11.0826
squalität	-11.0828
▁ausgehen	-11.0828
▁koch	-11.083
▁26	-11.0831
konferenz	-11.0831
ay	-11.0831
version	-11.0832
▁leser	-11.0841
q	-11.0847
liches	-11.0847
▁inhalte	-11.0849
ies	-11.085
kette	-11.085
lösen	-11.0855
▁einig	-11.0857
▁künstlich	-11.0859
▁funktionen	-11.086
▁block	-11.0861
je	-11.0867
▁schießen	-11.0869
▁erzähl	-11.0877
▁abraham	-11.0886
▁alzheimer	-11.0886
▁diskutiert	-11.0886
▁manhattan	-11.0886
▁phosphor	-11.0886
▁simple	-11.0886
mitten	-11.0886
▁liest	-11.0886
▁widerspruch	-11.0886
▁erkunden	-11.0886
▁supermarkt	-11.0887
▁profit	-11.0887
▁litt	-11.089
▁hilfreich	-11.089
▁reichtum	-11.089
▁verarbeiten	-11.089
▁durchmesser	-11.0891
▁rio	-11.0892
▁praxis	-11.0892
▁konzentration	-11.0893
▁aussterben	-11.0893
▁zentimeter	-11.0894
park	-11.0897
▁kg	-11.09
▁kunststoff	-11.0901
▁yea	-11.0903
▁abschnitt	-11.0904
▁dez	-11.0908
▁kanal	-11.091
▁zuzu	-11.091
▁geworfen	-11.0911
▁leder	-11.0915
off	-11.0917
ven	-11.092
▁ski	-11.0924
▁fremden	-11.0925
▁yorker	-11.0925
▁pferde	-11.0929
▁gelände	-11.0932
▁fahr	-11.094
▁institute	-11.0944
▁befass	-11.0946
▁verteilen	-11.0947
▁konzepte	-11.0947
viel	-11.095
▁auftritt	-11.095
▁körperliche	-11.0953
▁merkwürdig	-11.0954
artig	-11.0958
mat	-11.0966
▁billiger	-11.0973
▁nahrungs	-11.0973
▁gerüst	-11.0974
sicht	-11.0975
▁mittlere	-11.0983
▁brechen	-11.0984
formen	-11.0985
▁terror	-11.1001
▁jüngere	-11.1003
▁leuchten	-11.101
▁niedriger	-11.1013
▁fahrt	-11.1021
▁ausschnitt	-11.1031
mpel	-11.1031
▁autoren	-11.1034
ai	-11.1034
▁widme	-11.1049
▁erwähnte	-11.1051
gleichen	-11.1058
▁mad	-11.1062
▁sowjet	-11.1067
▁günstig	-11.1068
hal	-11.1069
▁dreh	-11.1071
ari	-11.1072
▁mannes	-11.1074
▁freiwillige	-11.1075
▁katzen	-11.1075
▁rechner	-11.1079
▁anreiz	-11.1081
rate	-11.1088
leh	-11.1088
unter	-11.1091
▁spielzeug	-11.1091
▁infektion	-11.1093
▁erweitert	-11.1093
▁florida	-11.1094
▁fortgeschritten	-11.1094
▁kalorien	-11.1094
▁klavier	-11.1094
▁nirgendwo	-11.1094
▁unklar	-11.1094
▁smith	-11.1094
▁cousin	-11.1094
▁howard	-11.1094
▁balance	-11.1094
▁vermittelt	-11.1094
▁mittagessen	-11.1094
▁brian	-11.1094
▁gates	-11.1094
▁solarenergie	-11.1094
▁tränen	-11.1094
▁ehemann	-11.1095
eten	-11.1096
schau	-11.1097
▁schwerkraft	-11.1098
bor	-11.1098
▁paradox	-11.1099
▁unabhängigkeit	-11.1101
▁inseln	-11.1102
▁selektion	-11.1103
▁chor	-11.1103
▁brit	-11.1104
▁hill	-11.1104
▁datenbank	-11.1105
▁feucht	-11.1105
▁kev	-11.1108
▁senke	-11.1109
▁verbreitete	-11.1109
▁berechnet	-11.1109
▁wahnsinnig	-11.111
▁watt	-11.1111
▁beginne	-11.1112
▁op	-11.1113
▁veranstaltung	-11.1115
▁studium	-11.1116
▁gewissermaß	-11.1116
▁tv	-11.1119
alter	-11.1119
▁algorithm	-11.112
▁hacker	-11.112
▁33	-11.1122
▁eisen	-11.113
▁grob	-11.1135
▁qu	-11.1136
ou	-11.1138
▁voraussagen	-11.1139
bu	-11.1141
▁überraschende	-11.1151
▁toilette	-11.1161
▁komplexer	-11.1166
isches	-11.1179
bilder	-11.1192
▁teilnehmen	-11.1193
isierung	-11.1194
geräte	-11.1196
▁vernetzt	-11.1199
bruch	-11.1205
▁kauf	-11.1211
▁einfachste	-11.1228
gänge	-11.1228
gerufen	-11.1239
▁versch	-11.1241
▁anhalten	-11.1245
lon	-11.1247
▁tode	-11.1248
barkeit	-11.1251
age	-11.1254
▁heiße	-11.1257
pl	-11.1257
meister	-11.1258
▁dünn	-11.127
▁ford	-11.127
▁trends	-11.1284
bedingungen	-11.1287
▁mühe	-11.1298
▁korea	-11.1303
pflanzen	-11.1304
▁sw	-11.1304
▁dopamin	-11.1306
▁kühe	-11.1307
▁oxytocin	-11.1307
▁transparent	-11.1307
▁weibchen	-11.1307
▁äthiopien	-11.1307
▁methan	-11.1307
▁stoffwechsel	-11.1307
▁automobil	-11.1307
▁1,5	-11.1307
▁koran	-11.1307
▁materielle	-11.1307
▁tinte	-11.1308
▁euro	-11.1308
▁ri	-11.1308
▁autorität	-11.1308
▁zelt	-11.1308
▁verletzlichkeit	-11.1308
▁erlangen	-11.1309
▁unrecht	-11.131
▁meeting	-11.131
▁enkel	-11.1312
▁expedition	-11.1313
▁betrachtung	-11.1314
▁anonym	-11.1314
▁gigantische	-11.1314
▁festhalten	-11.1315
▁verlor	-11.1316
▁muslimische	-11.1316
▁auswählen	-11.1316
▁geling	-11.1316
▁betreten	-11.1317
▁gegenstände	-11.1317
▁animation	-11.1318
▁teppich	-11.132
▁kommunikations	-11.132
▁töne	-11.1322
▁alpha	-11.1324
ica	-11.1325
▁olympische	-11.1325
▁kleider	-11.1325
▁direktor	-11.1328
▁löwen	-11.1332
wendet	-11.1332
▁graph	-11.1336
▁integriert	-11.1337
▁verringern	-11.1342
▁bewohner	-11.1343
weist	-11.1344
▁gel	-11.135
▁dünne	-11.1352
▁kühl	-11.1353
▁handels	-11.1358
▁organische	-11.1358
cker	-11.1362
▁schalt	-11.1364
▁beendet	-11.1364
▁überqueren	-11.1364
▁bewegte	-11.1367
▁ameise	-11.1371
▁send	-11.1371
▁schienen	-11.1373
schreiben	-11.1376
▁55	-11.1379
alität	-11.138
ami	-11.1384
▁auftreten	-11.1389
▁magnet	-11.1389
schnitt	-11.1389
▁sang	-11.1391
▁vierten	-11.14
▁ehren	-11.14
▁sicherer	-11.1403
▁verletzt	-11.1407
wachsen	-11.1411
▁erziel	-11.1414
ellen	-11.1417
szeit	-11.1423
▁durcheinander	-11.1432
▁lieg	-11.1447
▁poe	-11.1452
tiere	-11.1452
▁pilz	-11.1453
rechnung	-11.1465
bekommen	-11.1466
▁evolutionäre	-11.1467
kamera	-11.1468
▁restliche	-11.1471
boden	-11.1474
▁cha	-11.1477
geschrieben	-11.1479
▁besitzer	-11.1485
▁exponentiell	-11.1488
freie	-11.1492
▁erfindungen	-11.1503
achtet	-11.1507
▁800	-11.1508
▁stattfinden	-11.152
▁sicherstell	-11.152
▁can	-11.1521
▁multi	-11.1522
▁lehrt	-11.1524
▁völker	-11.1524
▁akzeptiert	-11.1524
▁besaß	-11.1524
▁flughafen	-11.1524
▁substanz	-11.1524
▁verzweiflung	-11.1524
▁stieß	-11.1524
▁trainiert	-11.1524
foundation	-11.1524
▁treppe	-11.1524
▁entropi	-11.1524
▁kooperation	-11.1524
▁produktivität	-11.1525
▁besuche	-11.1526
▁tiger	-11.1527
▁geistige	-11.1527
▁menschlichkeit	-11.1528
▁anwälte	-11.1528
▁verschmutz	-11.1529
▁interpretation	-11.1529
▁verfügen	-11.1531
▁heilung	-11.1532
qualität	-11.1532
▁rechen	-11.1532
landschaft	-11.1533
▁voraussetzung	-11.1534
▁käme	-11.1534
▁lebensraum	-11.1534
▁zweieinhalb	-11.1537
▁weltbank	-11.1539
▁aufwuchs	-11.1539
▁geblieben	-11.154
▁hindernisse	-11.1541
gefühl	-11.1542
schneiden	-11.1542
▁blitz	-11.1542
▁graben	-11.1542
räume	-11.1543
line	-11.1546
▁kapazität	-11.1549
maschinen	-11.155
▁tafel	-11.1554
▁ak	-11.1554
▁voran	-11.1562
▁erscheinung	-11.1565
▁tri	-11.1569
▁terroristen	-11.1571
▁jagen	-11.1572
▁vorkommen	-11.158
▁erforschung	-11.1587
ade	-11.159
▁drucken	-11.1592
▁lieder	-11.1597
15	-11.1598
▁fund	-11.1601
▁bohr	-11.1601
▁fokussier	-11.1604
▁vergrößer	-11.1605
▁kolonie	-11.1606
▁bären	-11.1606
▁illegal	-11.1608
▁drüber	-11.161
▁einsicht	-11.1614
▁kluge	-11.1622
▁hals	-11.1622
teile	-11.1624
▁radikale	-11.1628
ähnliche	-11.1634
▁fein	-11.1639
▁journal	-11.1646
▁nährstoffe	-11.1647
▁ausland	-11.165
▁bomben	-11.165
▁werke	-11.1654
▁praktische	-11.1667
kontrolle	-11.167
▁psychologische	-11.1683
gehört	-11.1684
lehrer	-11.1688
zimmer	-11.169
branche	-11.1691
luft	-11.1692
▁bl	-11.1695
netzwerk	-11.1701
▁äußere	-11.1702
▁parallel	-11.1706
tech	-11.1707
▁big	-11.1707
▁fossil	-11.1708
tum	-11.1712
▁sende	-11.1715
▁weinen	-11.1716
lf	-11.1724
▁verrate	-11.173
weisen	-11.1735
▁mentale	-11.174
▁beton	-11.1745
▁juni	-11.1746
▁phantom	-11.1746
▁entschuldige	-11.1746
▁geometrie	-11.1746
▁lincoln	-11.1746
▁shanghai	-11.1746
▁atheist	-11.1746
▁zehen	-11.1747
▁biosphäre	-11.1747
▁panik	-11.1747
▁herkunft	-11.1747
▁türke	-11.1748
▁ausgezeichnet	-11.175
▁synthetische	-11.175
▁apfel	-11.1754
▁verhält	-11.1756
▁fürchte	-11.1757
▁klappt	-11.1759
▁gestaltung	-11.1761
▁fels	-11.1764
▁fischerei	-11.1765
▁brand	-11.1767
▁bogen	-11.1767
▁pyramide	-11.1768
▁trainings	-11.1772
▁diagnostiziert	-11.1772
▁isoliert	-11.1776
▁erheblich	-11.178
karten	-11.1781
kel	-11.1788
▁höhen	-11.1789
rechte	-11.179
▁verboten	-11.1792
see	-11.1797
▁gemeinnützige	-11.1804
▁romantische	-11.181
▁wilde	-11.181
▁wüsten	-11.1811
anda	-11.1812
rand	-11.1816
▁lehrerin	-11.1819
▁hypothese	-11.182
dig	-11.1832
▁newton	-11.1835
ex	-11.1843
▁endet	-11.1844
▁menschlich	-11.1846
ebru	-11.1846
▁kostenlose	-11.185
▁ewig	-11.185
▁theoretisch	-11.1858
atom	-11.1861
▁indiens	-11.1866
11	-11.1868
▁erfolgreiche	-11.1872
▁historisch	-11.1872
▁freiwilligen	-11.1873
▁öffnete	-11.1876
▁eingriff	-11.1896
ance	-11.1897
gan	-11.1906
▁distanz	-11.1911
straße	-11.1918
▁wall	-11.1918
revolution	-11.1919
▁entdeckten	-11.1921
▁spitzen	-11.1923
▁tödlich	-11.1923
▁bürgerkrieg	-11.1923
bereiten	-11.1923
▁wale	-11.1927
▁photo	-11.1933
zentr	-11.1936
▁versorgt	-11.1944
wechsel	-11.1946
▁religiös	-11.1946
ci	-11.1946
▁tanzt	-11.1946
ram	-11.1955
▁con	-11.1956
sprechen	-11.1957
▁weite	-11.1958
▁horizont	-11.1958
▁emotional	-11.1959
▁brenn	-11.1959
▁deutsch	-11.196
▁blasen	-11.1965
▁geringe	-11.1969
▁karikatur	-11.197
fähig	-11.1971
▁cyber	-11.1973
▁feynman	-11.1973
▁hungrig	-11.1973
▁gestohlen	-11.1974
▁henry	-11.1974
▁generell	-11.1974
▁einschließlich	-11.1974
▁tiefsee	-11.1974
▁fettleibigkeit	-11.1975
▁königin	-11.1978
▁dynamisch	-11.1979
▁antarktis	-11.198
▁regime	-11.1982
▁galerie	-11.1982
▁großvater	-11.1983
▁markiert	-11.1984
▁unfälle	-11.1985
▁wandern	-11.1986
▁streich	-11.1987
regel	-11.1989
krankheiten	-11.1993
▁beschützen	-11.1995
▁auffassung	-11.1997
▁küchen	-11.1999
▁schreibtisch	-11.2
zuwenden	-11.2002
tischen	-11.2004
▁eric	-11.2006
ori	-11.2006
zusehen	-11.2006
▁planung	-11.2008
▁giftige	-11.2008
▁berührung	-11.2008
▁700	-11.2009
▁funktionierende	-11.2011
▁zweiter	-11.2012
inseln	-11.2012
▁lehr	-11.2013
chten	-11.2014
▁nützliche	-11.2014
▁cola	-11.2017
bot	-11.2017
▁vortrags	-11.2021
▁klingen	-11.2021
▁verstärkt	-11.2026
sgeschichte	-11.2026
▁tipp	-11.2027
▁bewert	-11.2028
▁fernseher	-11.2028
▁zerbrechlich	-11.2036
▁interaktiv	-11.2037
▁schwein	-11.2039
auto	-11.2046
▁seide	-11.2048
spielen	-11.2049
produkte	-11.205
prozess	-11.2051
autor	-11.2051
▁lücke	-11.2051
keiten	-11.2054
▁unendliche	-11.2071
▁mitteilen	-11.2077
▁stau	-11.2079
heben	-11.2082
▁wohnen	-11.2084
▁kranken	-11.2087
▁ökologische	-11.2089
▁japanisch	-11.2091
lag	-11.2092
▁jh	-11.2094
▁schafe	-11.2099
ian	-11.2099
▁füg	-11.21
▁zwanzig	-11.21
jo	-11.2103
▁vergrößert	-11.2107
ala	-11.2108
bel	-11.2113
▁pm	-11.2123
zeug	-11.2127
▁oper	-11.2136
▁bewirkt	-11.214
äre	-11.2144
▁herzlich	-11.2146
▁gra	-11.2148
▁kontroll	-11.2148
▁sorgt	-11.2149
volle	-11.215
kräfte	-11.215
▁blicken	-11.2151
kampagne	-11.2152
teilchen	-11.2154
▁darm	-11.2154
▁fliegende	-11.2157
▁gestalt	-11.2162
▁unteren	-11.2165
▁vulkan	-11.2167
▁clever	-11.2168
ey	-11.217
▁grösse	-11.217
▁hä	-11.2174
▁optische	-11.2176
▁frisch	-11.2182
▁hob	-11.2186
▁blinde	-11.2187
▁psychische	-11.219
▁folgte	-11.2194
▁ve	-11.2194
▁south	-11.2195
▁astronom	-11.2195
frage	-11.2196
▁betonen	-11.2201
▁aufmerksam	-11.2203
▁falle	-11.2205
▁antibiotika	-11.2206
▁dschihad	-11.2206
▁empathie	-11.2206
▁gewohnt	-11.2206
▁konversation	-11.2206
▁kosmische	-11.2206
▁pazifik	-11.2206
▁republikaner	-11.2206
▁verheiratet	-11.2206
▁architektonisch	-11.2206
▁atomenergie	-11.2206
▁immunsystem	-11.2207
▁gelähmt	-11.2207
▁flut	-11.2207
▁versagt	-11.2207
▁primaten	-11.2208
▁ruder	-11.2208
▁gewässer	-11.2208
▁beschaffen	-11.2208
▁tägliche	-11.2208
▁stattfinde	-11.2211
▁ueber	-11.2214
▁freizeit	-11.2216
▁portrait	-11.2217
▁mio	-11.2217
dienst	-11.2217
▁deutsche	-11.2219
ierende	-11.2226
▁bedeutsam	-11.2234
▁schenken	-11.2236
▁rob	-11.2238
▁stammes	-11.2243
▁akademische	-11.2247
▁manager	-11.2249
▁bevölkerungs	-11.2251
▁sendung	-11.2252
▁angeboten	-11.2264
▁bewegungs	-11.2269
▁motivieren	-11.2271
▁aktiviert	-11.2272
▁messer	-11.2279
union	-11.2285
▁schokolade	-11.2291
▁programmierer	-11.2295
▁rom	-11.2296
▁ost	-11.2302
▁warte	-11.2304
▁einblick	-11.2305
▁begriffen	-11.2308
▁verwandt	-11.2309
▁sonder	-11.2309
▁kiste	-11.2316
wort	-11.2316
smöglichkeit	-11.2316
▁derzeitige	-11.2318
▁fließen	-11.2325
▁gebäudes	-11.2326
▁beschleunigt	-11.233
▁wolke	-11.2331
wir	-11.2333
▁unerwartete	-11.2341
schluss	-11.2341
▁furchtbar	-11.2343
▁decke	-11.2348
ris	-11.2354
netz	-11.2356
▁analysiert	-11.2359
▁abschließen	-11.2359
▁unternehmens	-11.2362
herrschaft	-11.2365
möglich	-11.2368
▁brennstoff	-11.2369
strahl	-11.2377
▁angestellt	-11.2384
▁extreme	-11.2386
region	-11.239
▁rose	-11.239
▁fehlende	-11.2394
▁italien	-11.2396
▁japanische	-11.2399
istisch	-11.24
▁pass	-11.2403
gelaufen	-11.2403
projekte	-11.2406
▁lösch	-11.2409
agen	-11.2409
▁institut	-11.2413
äch	-11.2416
▁systematisch	-11.2418
▁zehntausende	-11.242
inner	-11.2426
les	-11.2427
▁riech	-11.2427
▁privileg	-11.2428
▁mt	-11.243
▁auseinandersetz	-11.2431
länder	-11.2434
▁grausam	-11.2438
lson	-11.2439
▁friedens	-11.244
▁muslime	-11.244
▁merkmale	-11.2443
‹	-11.2444
›	-11.2444
▁beeindruckt	-11.2444
▁behauptung	-11.2444
▁nördlich	-11.2444
▁verwirrt	-11.2444
▁knoten	-11.2444
▁universal	-11.2444
▁motiviert	-11.2444
▁eingeschränkt	-11.2444
▁wörterbuch	-11.2446
▁versetzt	-11.2447
▁sturm	-11.2448
▁anliegen	-11.245
▁töchter	-11.245
▁jeff	-11.2452
▁ethik	-11.2453
pri	-11.2453
▁beantwortet	-11.2454
▁3.000	-11.2454
▁elektronik	-11.2455
▁jedermann	-11.2456
förmige	-11.2456
▁rhythmus	-11.2456
▁autobahn	-11.2457
▁richtlinie	-11.2458
▁ufer	-11.2465
▁partikel	-11.2465
▁hol	-11.2466
▁bewiesen	-11.2472
▁schlimme	-11.2473
▁wahrhaftig	-11.2474
▁bildungssystem	-11.2475
▁17.	-11.2476
▁konzentrierte	-11.2477
▁we	-11.2479
ial	-11.2482
▁grundlagen	-11.2482
▁mac	-11.2488
▁chirurgen	-11.2489
fern	-11.2489
falls	-11.2489
▁zustimmen	-11.249
▁landet	-11.2492
▁rasch	-11.2492
▁beliebige	-11.2495
▁kreislauf	-11.2496
▁rechnung	-11.2504
fluss	-11.2504
▁steven	-11.2512
▁hinterher	-11.2517
ory	-11.252
▁existierende	-11.2521
▁verkauf	-11.2524
▁internets	-11.2524
rennen	-11.2524
▁tiefste	-11.2525
▁finanziell	-11.2526
rich	-11.2526
▁mott	-11.2532
▁prüfen	-11.2534
topf	-11.2536
▁nervenzellen	-11.2541
▁breit	-11.2545
▁albert	-11.2547
▁problems	-11.2551
teilung	-11.2552
▁haltung	-11.2552
▁sorte	-11.2559
▁merkt	-11.2567
nahmen	-11.2571
ände	-11.2571
▁archiv	-11.2572
▁umsetzen	-11.2577
therapie	-11.2579
▁verständlich	-11.2579
▁pinguin	-11.258
issen	-11.2591
▁experimentieren	-11.2592
atur	-11.2593
▁beschäftigte	-11.2595
▁medikamenten	-11.2597
nutzung	-11.2602
gh	-11.2605
asse	-11.2619
▁langfristige	-11.2621
▁herrscht	-11.2624
▁av	-11.2627
▁herab	-11.2627
▁misst	-11.2629
▁pri	-11.2629
syndrom	-11.2632
mechanism	-11.2634
▁verwirklich	-11.2634
erfahrung	-11.2634
▁röntgen	-11.2635
abteilung	-11.2635
haut	-11.2636
▁gefährdet	-11.2637
schuss	-11.2638
klang	-11.2639
od	-11.2641
mut	-11.2641
▁kulturell	-11.2642
trag	-11.2643
▁lu	-11.2644
▁beeindruckende	-11.2651
▁herauskomm	-11.2657
fliegen	-11.2665
▁konsumier	-11.2667
▁schwimm	-11.267
müde	-11.2688
▁beschleunigen	-11.2688
▁clip	-11.2688
▁fröhlich	-11.2688
▁gesünder	-11.2688
▁konstruiert	-11.2688
▁melodie	-11.2688
▁rückwärts	-11.2688
▁sorgfältig	-11.2688
▁ultraschall	-11.2688
▁verpflichtung	-11.2688
▁erstaunt	-11.2688
▁verzweifelt	-11.2688
▁schizophren	-11.2688
▁redwood	-11.2688
▁weizen	-11.2688
▁barriere	-11.2688
▁schlicht	-11.2689
▁peinlich	-11.2689
▁alex	-11.2689
▁kluft	-11.2689
▁kino	-11.269
▁fotografieren	-11.269
▁halluzination	-11.269
▁long	-11.269
▁benutzer	-11.2691
▁steigern	-11.2691
▁gravitation	-11.2692
hst	-11.2692
▁freundschaft	-11.2692
▁ausländische	-11.2694
▁norm	-11.2695
▁anwalt	-11.2698
▁regal	-11.2698
▁pandemie	-11.27
tu	-11.27
▁redner	-11.27
▁durchbruch	-11.2701
▁geschäftsmodell	-11.2703
▁stabilität	-11.2703
fassen	-11.2705
▁management	-11.2708
▁absolute	-11.2709
▁garage	-11.2709
sahara	-11.2709
wah	-11.271
▁finanzierung	-11.2715
▁gewachsen	-11.2716
▁28	-11.2717
▁elite	-11.2719
lief	-11.272
▁elektromagnet	-11.2721
▁ultimative	-11.2721
▁elektroden	-11.2723
▁zahlreiche	-11.2724
▁erbe	-11.2726
▁bescheiden	-11.2728
▁para	-11.2734
▁brücken	-11.2736
▁eingeschlossen	-11.2738
▁ber	-11.2744
vo	-11.275
menschen	-11.2753
studie	-11.2759
▁zustände	-11.2767
▁wertvolle	-11.2775
▁journalist	-11.2775
▁feinde	-11.2776
▁stich	-11.2776
▁schuldig	-11.2777
▁roh	-11.2778
▁hölle	-11.278
▁abschließend	-11.2791
aja	-11.2795
▁sendet	-11.2797
▁verdoppel	-11.2798
my	-11.2798
▁ankam	-11.2801
▁welle	-11.2819
▁freiwillig	-11.2821
nische	-11.2824
ity	-11.2828
achtung	-11.2833
▁effekte	-11.2834
▁impuls	-11.2837
▁säugetiere	-11.2837
▁riesig	-11.2838
▁erreichte	-11.285
▁sammelt	-11.2854
▁ausgabe	-11.2854
räumen	-11.2855
geld	-11.2856
▁verkaufte	-11.286
stücke	-11.2867
din	-11.287
▁genial	-11.2878
leiter	-11.2879
verkehr	-11.2883
faktor	-11.2883
spiegel	-11.2883
sorganisation	-11.2884
▁ku	-11.2884
motor	-11.2885
▁ärger	-11.2886
die	-11.289
labor	-11.2892
kunst	-11.2897
▁ausprobieren	-11.2901
tanz	-11.292
▁sank	-11.293
▁sitze	-11.2937
▁ausgestorben	-11.2938
▁gandhi	-11.2938
▁hühner	-11.2938
▁kriminelle	-11.2938
▁silicon	-11.2938
▁wohlhabend	-11.2938
▁connectome	-11.2938
▁gelegentlich	-11.2938
▁geformt	-11.2938
▁larry	-11.2938
▁benjamin	-11.2938
▁königreich	-11.2939
▁erlaubnis	-11.2939
▁neutral	-11.2939
▁logo	-11.2939
▁hong	-11.2939
▁spanisch	-11.2941
▁götter	-11.2942
▁handelte	-11.2942
▁unsicherheit	-11.2942
▁intuitiv	-11.2942
▁rasse	-11.2943
▁übel	-11.2944
▁hässlich	-11.2944
▁cricket	-11.2945
▁produktions	-11.2945
▁künstlerin	-11.2945
träger	-11.2949
▁unschuldig	-11.2949
▁lab	-11.2952
geheimnisse	-11.2954
ase	-11.2956
▁organisierte	-11.2957
▁schweizer	-11.2958
▁direkte	-11.2958
▁detektor	-11.296
▁abstand	-11.2962
▁geschlecht	-11.2962
▁bindung	-11.2963
▁aufhört	-11.2963
vis	-11.2966
▁vertrag	-11.2967
▁krähen	-11.2968
▁sea	-11.2969
gie	-11.2969
▁verstecken	-11.297
▁geleitet	-11.2971
▁route	-11.2972
▁wörtlich	-11.2974
▁greif	-11.2975
▁meint	-11.2977
▁französisch	-11.2983
▁marine	-11.2985
▁kürzer	-11.2987
▁gleichheit	-11.2991
taste	-11.2992
ark	-11.2993
▁geringer	-11.2993
▁fassen	-11.2994
▁36	-11.2995
▁wartete	-11.3007
anlagen	-11.3009
▁dauer	-11.301
▁züge	-11.3014
▁gehalt	-11.3014
▁schnellste	-11.3016
▁geburts	-11.3018
the	-11.302
▁juli	-11.3021
▁bewertung	-11.3033
nfolge	-11.3034
▁jünger	-11.3049
ita	-11.305
▁zone	-11.3051
▁effektiver	-11.3055
▁comics	-11.3056
▁cd	-11.3057
▁studierenden	-11.3061
fahrer	-11.3064
▁holte	-11.3067
▁braun	-11.3069
einkommen	-11.3071
▁klare	-11.3072
▁mischen	-11.3075
▁verkehrs	-11.3079
▁schrei	-11.3082
▁spart	-11.3087
kind	-11.3089
gelassen	-11.3092
designer	-11.3094
▁abbau	-11.3096
▁einführung	-11.3097
▁schieb	-11.3102
kul	-11.3107
▁ausführen	-11.3113
scan	-11.3116
information	-11.3119
▁studierte	-11.312
▁ernte	-11.3121
▁toiletten	-11.3123
▁sche	-11.3123
tür	-11.3123
▁verfügt	-11.3125
analyse	-11.3125
isieren	-11.3126
▁atome	-11.3129
▁grundschul	-11.3134
erkrankung	-11.3138
▁gemeint	-11.3138
kreislauf	-11.314
stock	-11.3141
materialien	-11.3141
▁rohstoffe	-11.3147
▁zunge	-11.3149
▁identisch	-11.3158
flüge	-11.3161
▁versuchs	-11.3162
▁impf	-11.3167
▁großzügig	-11.317
musik	-11.317
▁behindert	-11.3171
▁programmiert	-11.3174
▁charaktere	-11.3179
▁taucht	-11.3182
tive	-11.3182
▁bringe	-11.3186
ippe	-11.3194
°	-11.3194
▁bewältigen	-11.3194
▁earth	-11.3194
▁engagement	-11.3194
▁geprägt	-11.3194
▁hektar	-11.3194
▁leinwand	-11.3194
▁pizza	-11.3194
▁spanien	-11.3194
▁jazz	-11.3194
▁stachel	-11.3195
▁orbit	-11.3195
▁arbeitsplätze	-11.3195
▁wohnzimmer	-11.3195
▁ansteckend	-11.3195
▁regenwald	-11.3195
▁entwarf	-11.3195
▁fox	-11.3196
▁vieh	-11.3196
▁rückseite	-11.3196
▁seti	-11.3197
▁wirksam	-11.3198
▁zusammenfassen	-11.3199
▁rollstuhl	-11.3201
▁ausgedrückt	-11.3202
▁pc	-11.3202
▁versehen	-11.3205
▁ironisch	-11.3205
▁rannte	-11.3205
▁mutig	-11.3206
▁durchlauf	-11.3208
ania	-11.3209
▁tropfen	-11.3211
▁verhindert	-11.3211
▁tour	-11.3211
▁benötigte	-11.3212
▁mini	-11.3215
▁flüsse	-11.3215
▁gebunden	-11.3215
rey	-11.3217
▁elf	-11.3218
▁herausstellt	-11.3219
typ	-11.3219
▁agieren	-11.3221
▁pumpe	-11.3223
ßt	-11.3223
▁nachbar	-11.3226
sucht	-11.3227
▁leidet	-11.323
▁hersteller	-11.3231
▁realisier	-11.3232
ky	-11.3235
▁fossile	-11.3238
▁frische	-11.3238
▁2002	-11.3239
▁ran	-11.324
▁techniker	-11.3241
▁freitag	-11.3242
▁stärkste	-11.3242
▁trauer	-11.3245
▁bay	-11.3245
▁geschlagen	-11.3251
▁getrieben	-11.3252
▁za	-11.3255
▁profil	-11.3261
▁wählt	-11.3261
▁beschädigt	-11.3263
▁alternativen	-11.3263
▁schwanger	-11.3271
lai	-11.3273
▁zuzuhören	-11.3275
▁schickt	-11.3276
mitglieder	-11.3278
▁teurer	-11.3278
▁freue	-11.3282
zieht	-11.3283
▁grösser	-11.3286
▁traurige	-11.3287
rufen	-11.3287
▁anlage	-11.3288
▁zueinander	-11.3298
schiff	-11.3299
▁texte	-11.3301
▁bewerb	-11.3302
▁meile	-11.3305
pol	-11.3306
▁zivil	-11.3322
ini	-11.3323
▁transportiert	-11.3327
▁alltag	-11.3334
wind	-11.3338
▁sc	-11.3343
▁gleicher	-11.3344
▁hang	-11.3345
▁symbole	-11.3346
qui	-11.3355
▁mobile	-11.3361
▁erwachsen	-11.3376
▁unver	-11.3377
▁personal	-11.3377
▁william	-11.3379
▁fundament	-11.3384
▁dicke	-11.3395
▁at	-11.3396
▁schneiden	-11.3401
▁mist	-11.3402
▁malte	-11.3403
frequenz	-11.3403
schäd	-11.3403
experiment	-11.3404
probleme	-11.3406
▁gewinner	-11.3409
▁brillante	-11.3411
▁guck	-11.3423
▁gegner	-11.3424
▁jahrelang	-11.3429
▁bedeutend	-11.3431
▁spirituelle	-11.3434
▁felsen	-11.3436
verteilung	-11.3437
▁redete	-11.3439
dra	-11.3442
▁rosa	-11.3442
▁einnehmen	-11.3444
▁flaschen	-11.3444
▁spontan	-11.3445
▁hervorragend	-11.3451
▁hinweisen	-11.3452
stellt	-11.3458
▁käse	-11.3458
▁benannt	-11.3458
▁bräuchte	-11.3458
▁dilemma	-11.3458
▁luxus	-11.3458
▁stephen	-11.3458
▁tsunami	-11.3458
▁transformation	-11.3458
▁virginia	-11.3458
▁wohltätigkeit	-11.3458
▁daneben	-11.3458
▁stirn	-11.3458
▁stattfand	-11.3458
▁meeresspiegel	-11.3458
▁north	-11.3458
▁leih	-11.3458
▁kandidaten	-11.3458
▁hemd	-11.3458
▁jesus	-11.3459
▁geographic	-11.3459
▁demonstration	-11.346
▁johnson	-11.346
▁cloud	-11.3461
▁konkurrenz	-11.3461
sammeln	-11.3463
▁bang	-11.3463
▁selbstmord	-11.3463
▁variable	-11.3464
▁restaurants	-11.3464
▁pfad	-11.3465
▁monster	-11.3465
▁who	-11.3465
▁genen	-11.3465
▁frühstück	-11.3466
sauce	-11.3471
▁jäger	-11.3472
▁erschafft	-11.3473
masse	-11.3474
▁pf	-11.3475
▁weich	-11.3476
isiert	-11.3477
herangehensweise	-11.3479
▁urteil	-11.348
▁mike	-11.3483
▁russische	-11.3486
▁elend	-11.3486
▁brille	-11.3487
▁anfällig	-11.3487
▁plätze	-11.3489
▁7.	-11.349
▁schieß	-11.3494
▁spe	-11.3498
▁schloss	-11.3498
▁mitleid	-11.3503
▁rauf	-11.3503
▁gramm	-11.3505
tiefst	-11.3509
▁gelenk	-11.351
▁sink	-11.352
enz	-11.3521
▁suchten	-11.3521
ehr	-11.3522
▁rande	-11.3529
führer	-11.3532
▁vollständige	-11.3537
brachte	-11.3537
▁häufiger	-11.354
▁interpretier	-11.3553
▁läd	-11.3555
▁betrag	-11.3555
▁lustige	-11.356
▁mitgebracht	-11.356
▁formt	-11.3561
▁pet	-11.3561
▁mrt	-11.3562
▁inspirierend	-11.3567
sprochen	-11.3568
▁entscheide	-11.3569
▁behauptet	-11.3569
▁kommerzielle	-11.3574
▁natürlicher	-11.3575
▁fundamental	-11.3576
möglichkeit	-11.3579
▁schätze	-11.3585
▁jane	-11.3589
wander	-11.3592
▁täte	-11.3593
af	-11.36
▁überwach	-11.3603
forscher	-11.3605
▁wes	-11.3608
▁fla	-11.3608
▁bombe	-11.3613
▁krebszelle	-11.3614
▁drahtlose	-11.3615
▁lauter	-11.3619
▁teilte	-11.3628
▁stufen	-11.3629
▁gründer	-11.3631
▁aufgestellt	-11.3634
gründe	-11.364
xi	-11.3641
▁genie	-11.3641
▁umfassende	-11.3647
trieb	-11.3655
nte	-11.3656
▁kamel	-11.3664
▁amy	-11.3664
▁85	-11.3665
fährt	-11.3667
level	-11.3673
filter	-11.3674
▁grenz	-11.3674
▁filmen	-11.3675
▁fischen	-11.368
▁berufs	-11.3682
▁rauchen	-11.3682
▁psycho	-11.3683
zität	-11.3684
rus	-11.3684
▁pilze	-11.3684
▁folgender	-11.3684
▁hy	-11.3686
regung	-11.3692
▁aktuell	-11.3693
▁fußball	-11.3698
▁august	-11.3705
lappen	-11.3712
gehoben	-11.3715
▁körperlich	-11.3717
▁sher	-11.3719
▁loszu	-11.3726
▁unsicher	-11.3728
▁republik	-11.3728
füllung	-11.3728
▁aggressiv	-11.3728
▁bzw	-11.3728
▁eventuell	-11.3728
▁früchte	-11.3728
▁schwefel	-11.3728
▁joshua	-11.3728
▁herbst	-11.3728
▁charlie	-11.3728
▁mandela	-11.3728
▁myzel	-11.3728
▁klänge	-11.3729
▁county	-11.3729
▁tempel	-11.3729
▁zuhörer	-11.3732
▁zusammenbruch	-11.3734
▁balk	-11.3734
▁tedx	-11.3735
▁panzer	-11.3736
ärz	-11.3737
▁aufgezeichnet	-11.3737
▁uralte	-11.3737
▁vorbild	-11.3737
▁elektro	-11.3738
▁lg	-11.3739
▁schläf	-11.3739
▁betrug	-11.374
▁29	-11.374
▁nebeneinander	-11.3742
▁verläuf	-11.3743
▁hervorruf	-11.3744
▁markieren	-11.3744
▁beleuchtung	-11.3745
rg	-11.3746
▁daniel	-11.3748
▁schale	-11.375
▁bausteine	-11.3751
▁veröffentlichte	-11.3752
▁hmm	-11.3752
▁gesucht	-11.3753
▁einkauf	-11.3756
führt	-11.3757
▁reaktor	-11.3757
zeichnen	-11.3759
▁angewandt	-11.3759
ate	-11.3762
▁übliche	-11.3762
▁übertragung	-11.3769
▁einladung	-11.377
läuf	-11.3772
▁zuständig	-11.378
▁red	-11.378
▁milo	-11.378
▁penn	-11.3781
▁briefe	-11.3783
bal	-11.3783
▁18.	-11.3792
▁innovativ	-11.3794
▁spazier	-11.3796
aufnahme	-11.3796
▁insekt	-11.3797
▁effizienter	-11.3797
▁langfristig	-11.3803
▁treu	-11.3807
▁verhandlung	-11.3807
▁pilot	-11.3812
▁speichern	-11.3816
vers	-11.3819
▁gelegt	-11.382
virus	-11.3828
akt	-11.3829
▁heiligen	-11.3831
▁pop	-11.3834
ford	-11.3838
▁sensoren	-11.3849
▁banken	-11.385
▁zutaten	-11.385
▁brutal	-11.3859
shirt	-11.3862
▁grab	-11.3865
▁linsen	-11.3866
▁manipulier	-11.3868
baum	-11.3872
▁held	-11.3873
▁verpasst	-11.3873
▁einfallen	-11.3878
▁37	-11.3883
einrichtung	-11.3886
▁geringste	-11.3891
▁befestigt	-11.3892
▁time	-11.3892
▁klebe	-11.3895
▁demokrat	-11.3896
▁wertschätz	-11.3899
▁moore	-11.3902
▁probiere	-11.3914
saal	-11.3919
▁kolonien	-11.392
4.000	-11.3928
schrei	-11.3929
▁ankommen	-11.393
▁poly	-11.393
bereit	-11.3931
fon	-11.3934
▁genome	-11.3937
▁generier	-11.394
gesetzt	-11.3942
▁existierte	-11.3942
fiel	-11.3947
ther	-11.3949
by	-11.395
holz	-11.395
künstler	-11.3952
blatt	-11.3952
geist	-11.3956
roboter	-11.3957
▁empfindlich	-11.3962
▁stimm	-11.3966
▁universelle	-11.3966
ino	-11.397
▁ökosysteme	-11.3974
▁aktivier	-11.3978
isst	-11.3982
▁unbekannt	-11.3982
▁sexuell	-11.3984
▁identifiziert	-11.3988
merkt	-11.3988
▁grossartige	-11.399
par	-11.4002
▁amazon	-11.4004
zyklus	-11.4005
▁feuerwehr	-11.4006
▁bemühung	-11.4006
▁transistor	-11.4006
▁beängstigend	-11.4006
▁cartoon	-11.4006
▁fledermäuse	-11.4006
▁kopenhagen	-11.4006
▁lebensunterhalt	-11.4006
▁ordentlich	-11.4006
▁vitamin	-11.4006
▁woanders	-11.4006
▁gespeichert	-11.4006
▁föt	-11.4006
▁erschwinglich	-11.4006
▁blue	-11.4006
▁investoren	-11.4006
▁großeltern	-11.4006
▁antikörper	-11.4006
pro	-11.4007
▁arbeitsplatz	-11.4007
▁lewi	-11.4007
▁nervensystem	-11.4008
▁coca	-11.401
▁minen	-11.401
▁häufigste	-11.401
▁frosch	-11.4012
▁roy	-11.4012
▁priester	-11.4013
▁jones	-11.4013
▁andrew	-11.4014
▁lego	-11.4014
▁pen	-11.4015
▁scott	-11.4018
kinder	-11.4019
▁nebel	-11.4019
▁jahreszeit	-11.4019
▁bislang	-11.4019
▁produzent	-11.4022
▁beratung	-11.4023
▁kritiker	-11.4024
▁reporter	-11.4024
bänder	-11.4025
eis	-11.4025
▁schütteln	-11.4027
▁vergewaltigt	-11.4027
▁abweichung	-11.4027
▁riechen	-11.4027
▁hebel	-11.4029
▁algen	-11.403
▁hervorzu	-11.403
▁anwesenheit	-11.4032
▁kopiert	-11.4034
▁behälter	-11.404
▁service	-11.4041
▁aussicht	-11.4043
▁pflicht	-11.4044
▁rettung	-11.4045
▁langzeit	-11.4046
▁fütter	-11.4056
▁back	-11.4058
▁6.	-11.4063
▁parteien	-11.4064
▁skulpturen	-11.4064
▁witzig	-11.4065
▁sil	-11.407
▁anfühlt	-11.4074
▁schlagzeilen	-11.4074
▁zwingen	-11.4075
▁12.	-11.4076
▁verschreib	-11.4078
za	-11.408
▁tätig	-11.4084
▁intim	-11.4085
▁vielfältig	-11.4085
▁maßnahmen	-11.4089
▁spezifisch	-11.409
▁brennstoffe	-11.4092
ziel	-11.4092
deckt	-11.4092
▁auflösung	-11.4095
▁dauerhaft	-11.4097
lock	-11.4097
▁lebensform	-11.41
▁slums	-11.4105
▁oberste	-11.4106
▁ideale	-11.4114
▁ermutigen	-11.4114
▁wärmer	-11.4117
▁befehl	-11.4117
▁merkte	-11.4129
▁bevorzug	-11.4133
▁trau	-11.4133
▁geheime	-11.4135
▁bewunder	-11.4138
sache	-11.4138
chel	-11.4144
▁strassen	-11.4145
▁vermischt	-11.4145
lte	-11.4146
▁ci	-11.4146
▁blume	-11.4148
▁schneide	-11.4149
▁empfinde	-11.4151
▁comic	-11.4155
▁48	-11.4155
kehren	-11.4158
▁erb	-11.4159
▁schliess	-11.4163
▁platten	-11.4169
haben	-11.4173
▁hervorbring	-11.4173
▁runde	-11.4174
▁sinken	-11.418
▁einsam	-11.418
▁offensichtliche	-11.4181
▁illegale	-11.4182
krebs	-11.4199
▁aufweis	-11.42
yl	-11.4201
sicher	-11.4202
lla	-11.4204
▁ernten	-11.4211
▁brauch	-11.4212
▁tänzer	-11.4214
▁schlangen	-11.422
eben	-11.4223
▁patientin	-11.4225
▁produktiv	-11.4229
▁camp	-11.4231
groß	-11.4236
▁nutzte	-11.4236
situation	-11.4237
kugel	-11.4238
box	-11.4238
iss	-11.4244
▁reine	-11.425
▁schuh	-11.4251
marke	-11.4252
▁schreib	-11.4254
▁delfine	-11.4254
▁genetik	-11.4257
▁basieren	-11.4259
net	-11.4261
verschwendung	-11.4262
sphäre	-11.4263
code	-11.4264
hängen	-11.4265
▁schl	-11.4266
staat	-11.4269
trat	-11.427
▁schulden	-11.4274
egel	-11.4275
▁fallschirm	-11.4276
▁glücks	-11.4278
schlüsse	-11.4282
▁aktive	-11.4287
▁dynamische	-11.4291
▁mytho	-11.4291
kortex	-11.4291
▁angiogenese	-11.4291
▁asthma	-11.4291
▁everest	-11.4291
▁fiktion	-11.4291
▁hüfte	-11.4291
▁premierminister	-11.4291
▁schmeckt	-11.4291
▁sprang	-11.4291
▁verdeutlich	-11.4291
▁verletzen	-11.4291
▁harmonie	-11.4291
▁indonesi	-11.4291
▁östlich	-11.4291
▁beseitigen	-11.4291
▁hardware	-11.4291
▁joseph	-11.4291
▁erleichter	-11.4292
▁teller	-11.4292
▁nordpol	-11.4292
▁trinkwasser	-11.4292
▁erdgas	-11.4292
▁prä	-11.4292
▁2,5	-11.4292
▁gewöhnlichen	-11.4293
▁carolina	-11.4293
▁louis	-11.4293
▁ansah	-11.4294
▁sklaverei	-11.4294
▁beunruhigend	-11.4295
▁wiederaufbau	-11.4295
▁bieg	-11.4296
▁wiegt	-11.4296
nerzähler	-11.4296
▁daumen	-11.4297
▁project	-11.4297
▁forschen	-11.4297
▁april	-11.4299
sitz	-11.4301
▁eingestellt	-11.4301
holt	-11.4301
▁umfasst	-11.4303
▁gezeichnet	-11.4304
▁platzier	-11.4305
▁übernommen	-11.4305
▁hinab	-11.4306
▁bergen	-11.4307
patienten	-11.4309
▁belastung	-11.4309
▁anschließend	-11.4311
▁fakt	-11.4312
▁chirurgie	-11.4312
▁vorlesen	-11.4315
nah	-11.4315
werten	-11.4316
▁enge	-11.4317
▁weiterzu	-11.4317
▁brems	-11.4322
▁lateinamerika	-11.4322
▁neigung	-11.4326
dauert	-11.4327
▁merkmal	-11.433
▁decken	-11.4334
▁begeben	-11.4334
▁aufruf	-11.4335
▁alltägliche	-11.4336
▁ähnlichkeit	-11.4337
▁kommun	-11.4341
▁antike	-11.4342
▁schreien	-11.4344
setzung	-11.4348
▁anspruch	-11.4351
▁jami	-11.4353
▁truppen	-11.4353
rollen	-11.4358
▁ausprobier	-11.4375
▁one	-11.4375
anlage	-11.4377
▁erwischt	-11.4382
▁kid	-11.4385
▁kol	-11.4398
▁jahrhunderte	-11.4406
▁friedlich	-11.4408
day	-11.441
medizin	-11.4411
hang	-11.4412
logen	-11.4412
▁gerichtet	-11.4416
▁sha	-11.442
firmen	-11.4421
▁15.	-11.4421
▁überprüft	-11.4422
▁derjenige	-11.4423
▁haft	-11.4425
▁höhlen	-11.4426
ira	-11.4428
▁volks	-11.443
werden	-11.4432
▁on	-11.4432
▁ressource	-11.4433
▁wortes	-11.4433
▁ähnelt	-11.4434
stoß	-11.4436
▁pink	-11.4438
▁rakete	-11.4439
▁inder	-11.4449
▁klettern	-11.4454
▁kalte	-11.4462
▁han	-11.4464
▁umwandel	-11.4464
▁einerseit	-11.4467
▁beteilig	-11.4476
▁chr	-11.4478
tod	-11.4481
win	-11.4486
▁freuen	-11.4486
regen	-11.4487
▁ozeans	-11.449
▁chinas	-11.449
▁beruflich	-11.4492
tiert	-11.4497
▁süße	-11.4516
notwendigkeit	-11.4519
ib	-11.4526
red	-11.4528
wald	-11.453
männer	-11.4531
spitze	-11.4531
operation	-11.4531
pläne	-11.4531
liefert	-11.4531
gearbeitet	-11.4531
familie	-11.4532
▁binde	-11.4532
▁respektier	-11.4532
▁journalisten	-11.4536
▁erlern	-11.454
cha	-11.454
▁cl	-11.4542
▁erlaubte	-11.4543
uk	-11.4545
▁zusammensetz	-11.4546
ult	-11.4548
▁lee	-11.4561
▁bearbeit	-11.4562
▁hunderttausende	-11.4567
▁les	-11.4572
▁liebst	-11.4573
▁verwalt	-11.4576
▁individuell	-11.4579
▁externe	-11.4581
▁atlant	-11.4584
▁fordert	-11.4585
▁kontinuierlich	-11.4585
▁chaotisch	-11.4586
▁demonstrieren	-11.4586
▁dvd	-11.4586
▁ermutigt	-11.4586
▁gänse	-11.4586
▁mammographie	-11.4586
▁transformieren	-11.4586
▁zuverlässig	-11.4586
▁agenda	-11.4586
▁angeblich	-11.4586
▁ipod	-11.4586
▁filmemacher	-11.4586
▁scherz	-11.4586
▁vorgehensweise	-11.4586
▁erdöl	-11.4586
▁atlantik	-11.4586
position	-11.4587
▁innenstadt	-11.4587
▁frustriert	-11.4587
▁biomasse	-11.4588
▁mix	-11.4588
▁minus	-11.4588
▁2020	-11.4588
▁begegnung	-11.4588
▁konstruieren	-11.4588
▁primzahl	-11.4588
▁raumschiff	-11.4589
▁best	-11.4589
▁standort	-11.4589
▁vorlesung	-11.4589
▁hühnchen	-11.459
▁min	-11.4594
▁visualisierung	-11.4595
▁pionier	-11.4596
▁trommel	-11.4596
▁schachtel	-11.4596
springen	-11.4597
▁raster	-11.4603
▁wähler	-11.4603
▁model	-11.4605
▁feder	-11.4606
▁palm	-11.4607
▁30.000	-11.4607
▁mord	-11.4608
▁interface	-11.4609
▁gesteuert	-11.461
▁gestiegen	-11.4611
▁gewohnheit	-11.4611
aktiv	-11.4613
quelle	-11.4613
▁200.000	-11.4613
▁zero	-11.4615
▁oma	-11.4615
▁master	-11.4623
▁auslösen	-11.4624
teils	-11.4626
▁blinden	-11.463
block	-11.4631
häng	-11.4632
wegs	-11.4635
▁vieler	-11.4636
▁lä	-11.4638
▁hausaufgabe	-11.4639
▁dramatische	-11.4645
▁wochenende	-11.4646
▁verpflichtet	-11.4648
▁farmer	-11.4648
▁küsten	-11.4648
▁figuren	-11.4653
▁gemeinsamkeit	-11.4653
füllen	-11.4655
▁rente	-11.4659
▁gegenwärtige	-11.4659
technologien	-11.4661
jenige	-11.4664
methode	-11.4665
chte	-11.4665
eur	-11.4669
▁messung	-11.4672
▁übersehen	-11.4674
▁notiz	-11.4676
ison	-11.4676
setzt	-11.4685
▁192	-11.4687
▁treffe	-11.4694
▁spinnen	-11.4694
▁rettet	-11.4695
dose	-11.4697
▁mechanisch	-11.4699
port	-11.4699
▁prioritäten	-11.4702
schi	-11.4703
lia	-11.4707
▁strafe	-11.4708
aktivität	-11.4712
▁hof	-11.4718
▁10-	-11.4719
▁netze	-11.4719
bb	-11.4723
chi	-11.4724
▁grundstück	-11.4725
▁netzwerken	-11.4725
▁vergleichbar	-11.4727
▁haushalt	-11.4728
▁gay	-11.4733
▁richtet	-11.4735
▁tötete	-11.4738
▁begeister	-11.4742
grün	-11.4743
▁parlament	-11.4744
▁wär	-11.4745
▁verblüffende	-11.4748
▁42	-11.4752
▁potentielle	-11.4754
▁scheibe	-11.4757
▁befolg	-11.4763
▁betreffen	-11.4766
▁hochzeit	-11.4767
▁zweig	-11.4775
▁herde	-11.4777
▁überlegt	-11.478
risiko	-11.4781
▁dunkler	-11.4784
ilität	-11.4786
▁mechanische	-11.4793
▁wegzu	-11.4801
▁chi	-11.4803
▁abläuf	-11.4805
▁kap	-11.4808
▁kante	-11.4811
▁treibhausgase	-11.4815
▁packen	-11.4817
▁russ	-11.482
bert	-11.4822
▁kehr	-11.4824
ec	-11.4827
▁kurse	-11.4827
▁ökologi	-11.4828
kapital	-11.4833
händler	-11.4833
generation	-11.4834
glaubt	-11.4834
kanal	-11.4835
aktion	-11.4835
becken	-11.4836
gerissen	-11.4837
▁transportier	-11.4839
▁10.	-11.484
▁schlage	-11.484
ließ	-11.4846
ado	-11.4847
▁diplomat	-11.4848
▁urbane	-11.4858
ish	-11.4858
liste	-11.4859
▁port	-11.4861
▁wahnsinn	-11.4864
schaffung	-11.4866
▁cap	-11.4867
▁kur	-11.4869
tri	-11.4874
▁zugrunde	-11.4876
lan	-11.4879
herum	-11.4881
gestoßen	-11.4882
▁spannende	-11.4885
studenten	-11.4885
▁ego	-11.4887
▁hawaii	-11.4889
▁allgegenwärtig	-11.4889
▁auslöst	-11.4889
▁bemühen	-11.4889
▁beurteilen	-11.4889
▁demonstriert	-11.4889
▁drastisch	-11.4889
▁errichtet	-11.4889
▁gesunken	-11.4889
▁singapur	-11.4889
▁tendieren	-11.4889
▁zeitgenössische	-11.4889
▁bestätigt	-11.4889
▁schätzt	-11.4889
▁tattoo	-11.4889
▁arthur	-11.4889
▁verbrannt	-11.4889
▁andauernd	-11.4889
▁sexual	-11.4889
▁schweigen	-11.4889
▁schwangerschaft	-11.4889
▁klatschen	-11.4889
▁kondome	-11.4889
▁iq	-11.4889
▁leonardo	-11.4889
▁robotik	-11.489
▁1900	-11.489
▁notfall	-11.489
▁behörden	-11.489
▁gefroren	-11.4891
▁koffer	-11.4892
▁fasst	-11.4892
▁email	-11.4893
▁künste	-11.4894
▁wahrgenommen	-11.4895
▁indus	-11.4897
▁termin	-11.4898
▁schöpfung	-11.4899
▁dächer	-11.49
▁millimeter	-11.49
▁act	-11.49
▁gedruckt	-11.4902
▁zeitspanne	-11.4904
▁bestimmung	-11.4905
▁boom	-11.4908
▁heftig	-11.4909
▁philosophische	-11.4913
▁hütte	-11.4913
▁bronx	-11.4915
▁schockiert	-11.4916
▁beunruhigt	-11.4917
▁mega	-11.4919
▁ökonomie	-11.4921
uck	-11.4922
lenken	-11.4923
▁bunt	-11.4927
▁lama	-11.4928
▁montag	-11.4928
▁fotograf	-11.4929
gramm	-11.4934
▁eigenartig	-11.4936
paar	-11.4937
▁hübsche	-11.4941
▁43	-11.4951
▁beobachtete	-11.4957
grad	-11.4957
twicklungsländer	-11.4958
quellen	-11.4959
▁nachweis	-11.4962
▁virtuell	-11.4966
val	-11.4967
▁rauschen	-11.4971
verbrauch	-11.4973
drehen	-11.4977
▁durchfall	-11.4986
▁weihnachts	-11.4988
▁worau	-11.499
isse	-11.4992
▁schi	-11.5002
▁vornehm	-11.5002
▁sach	-11.5008
▁nieren	-11.5011
▁fortsetz	-11.5014
▁innovative	-11.5016
▁abschneide	-11.502
von	-11.5021
▁angemessen	-11.5023
▁größen	-11.5029
wandeln	-11.5032
▁kipp	-11.5032
phase	-11.5032
▁gewalttätig	-11.5034
celsi	-11.5035
note	-11.5042
▁linse	-11.5047
▁amerikanisch	-11.5049
▁sk	-11.505
▁sitzung	-11.505
▁lunge	-11.5051
▁sonntag	-11.5056
felder	-11.5058
▁nachmittag	-11.5068
▁eigentum	-11.507
▁doppel	-11.507
▁strasse	-11.5071
ito	-11.5073
ise	-11.5086
▁pur	-11.5086
▁130	-11.5086
of	-11.5098
▁mas	-11.5105
▁steigende	-11.5114
▁offiziell	-11.5116
▁tumore	-11.5118
liebe	-11.5125
ada	-11.5131
▁nackt	-11.5132
▁carl	-11.5134
▁vorschlagen	-11.5135
ette	-11.5135
ologie	-11.5135
▁nuklear	-11.5138
▁gro	-11.514
gewicht	-11.5142
turm	-11.5145
▁kram	-11.5145
behandlung	-11.5146
sektor	-11.5146
▁hübsch	-11.5147
ics	-11.5148
▁beute	-11.515
▁boy	-11.5152
▁herumzu	-11.5154
▁hormon	-11.5155
meter	-11.5157
ong	-11.516
▁gewinne	-11.516
▁mat	-11.5171
▁versteckte	-11.518
ritt	-11.5183
ui	-11.5184
▁protest	-11.5184
▁hingeg	-11.5192
+	-11.5201
▁1⁄2	-11.5201
▁ausgestattet	-11.5201
▁clinton	-11.5201
▁craig	-11.5201
▁kambodscha	-11.5201
▁kyros	-11.5201
▁mcdonald	-11.5201
▁mumbai	-11.5201
▁reduktion	-11.5201
▁verstorben	-11.5201
▁walmart	-11.5201
▁verarbeitet	-11.5201
▁tesla	-11.5201
▁wußte	-11.5201
▁waschmaschine	-11.5201
▁befreit	-11.5201
▁ibm	-11.5201
▁koennen	-11.5201
▁älterwerden	-11.5202
▁tibet	-11.5202
▁wildnis	-11.5202
▁hefe	-11.5202
▁motorrad	-11.5202
▁söhne	-11.5202
hen	-11.5202
▁leg	-11.5202
▁argumentieren	-11.5203
▁philosoph	-11.5203
▁verschaffen	-11.5204
▁spass	-11.5205
▁instinktiv	-11.5205
▁äußer	-11.5205
▁entkommen	-11.5207
▁erweiterung	-11.5207
▁scharf	-11.5208
▁vakuum	-11.5209
▁erwerb	-11.5209
▁lehm	-11.5212
▁erschienen	-11.5212
▁schach	-11.5215
▁überlebens	-11.5218
▁unsinn	-11.522
▁lizenz	-11.522
bruchteil	-11.5221
▁hülle	-11.5221
▁nagel	-11.5222
▁angefertigt	-11.5225
▁würfel	-11.5226
▁lust	-11.5228
▁rekord	-11.5228
▁überwältigend	-11.5229
▁gehst	-11.5229
▁menschenrechte	-11.523
▁überfluss	-11.5233
▁verhaltensweise	-11.5236
▁wohnt	-11.5236
▁schwelle	-11.5237
losigkeit	-11.5238
farben	-11.5238
ank	-11.5238
▁umgesetzt	-11.5239
▁stört	-11.5239
▁überblick	-11.524
▁talk	-11.5242
▁auszusehen	-11.5243
oh	-11.5244
wege	-11.5246
namen	-11.5247
▁einladen	-11.5248
▁chirurgische	-11.5253
▁elementar	-11.5253
▁versicher	-11.5256
▁schiffe	-11.5257
▁16.	-11.5258
▁überwachung	-11.5259
▁gefängnisse	-11.5259
▁fin	-11.5263
▁hoffnungslos	-11.5273
zufügen	-11.5276
▁pra	-11.528
bleiben	-11.5282
▁steckte	-11.5286
▁musikstück	-11.5287
▁riff	-11.5288
verbindung	-11.529
▁energien	-11.5294
ett	-11.5294
▁überein	-11.5296
decke	-11.53
▁säulen	-11.5303
▁reiß	-11.5307
▁dauernd	-11.5308
bus	-11.5308
▁tödliche	-11.5309
▁verwende	-11.531
tauch	-11.5314
▁raub	-11.5317
bewusstsein	-11.5318
▁unmögliche	-11.5325
▁verschieben	-11.5326
▁passend	-11.5329
▁unerwartet	-11.5339
studien	-11.5344
▁nutze	-11.5355
frei	-11.5355
▁ernste	-11.5356
▁lin	-11.5359
▁sterbe	-11.5365
▁gedichte	-11.5366
▁steuert	-11.5367
▁erhöhte	-11.5371
▁kämpft	-11.5378
▁kontroverse	-11.5378
wie	-11.5379
ckel	-11.5379
▁wechselt	-11.5381
▁hilfs	-11.5395
▁videospiel	-11.5399
▁baue	-11.54
iker	-11.5401
▁platziert	-11.5406
strategie	-11.5409
▁komplexes	-11.5411
▁erzielt	-11.5412
▁philosophen	-11.5413
▁bereitet	-11.5413
▁bestandteil	-11.5426
lei	-11.5428
▁schreit	-11.5432
fuhr	-11.5435
spalten	-11.5442
ingenieur	-11.5444
▁branche	-11.5445
person	-11.5451
▁angebracht	-11.5462
▁genaue	-11.5463
titel	-11.5466
märkte	-11.5469
wolke	-11.5469
kreuz	-11.5469
gezeigt	-11.547
mädchen	-11.547
moment	-11.5471
▁ansprechen	-11.5473
landet	-11.5477
schichten	-11.548
kasten	-11.548
▁drucker	-11.5486
rahmen	-11.5487
▁macher	-11.5487
lyn	-11.5488
▁aristotel	-11.5491
▁klassen	-11.5492
▁kommend	-11.5492
▁vernünftige	-11.5496
▁befriedig	-11.5496
bati	-11.5498
▁bad	-11.5504
▁technolog	-11.5512
dung	-11.5514
ille	-11.5514
▁geste	-11.5517
▁ekel	-11.552
▁350	-11.552
▁schaf	-11.5521
zykl	-11.5521
▁verletzlich	-11.5521
▁fuss	-11.5522
ovember	-11.5523
▁moskito	-11.5523
▁child	-11.5524
▁beruht	-11.5524
▁gescheitert	-11.5524
▁jupiter	-11.5524
▁referenz	-11.5524
▁rezession	-11.5524
▁seattle	-11.5524
▁shakespeare	-11.5524
▁stewart	-11.5524
▁verpackung	-11.5524
▁applau	-11.5524
▁subtil	-11.5524
▁sänger	-11.5524
▁stickstoff	-11.5524
▁honig	-11.5524
▁bonobo	-11.5524
▁hafen	-11.5524
search	-11.5524
▁urlaub	-11.5524
▁leistet	-11.5524
▁wright	-11.5524
▁bangladesch	-11.5525
▁gitter	-11.5526
▁impfstoffe	-11.5527
erung	-11.5528
▁faul	-11.553
▁tastatur	-11.553
▁fusion	-11.553
▁bündel	-11.5532
▁hervorragende	-11.5532
▁schockierend	-11.5532
▁benenn	-11.5535
▁jagd	-11.5541
▁ausgelöst	-11.5543
▁bearbeitet	-11.5544
▁tunnel	-11.5545
▁doppelte	-11.5545
▁wurm	-11.5545
▁alan	-11.5545
▁bezirk	-11.555
methoden	-11.555
▁persönlicher	-11.5552
▁trennung	-11.5552
▁heiz	-11.5553
▁anhör	-11.5554
▁schnapp	-11.5555
▁angeschlossen	-11.5557
▁umfang	-11.5558
amerikaner	-11.5559
▁fördert	-11.5559
▁mobilisier	-11.556
▁state	-11.5562
schließ	-11.5563
▁rechtfertig	-11.5564
▁delfin	-11.5566
▁vorgänge	-11.5568
▁verringert	-11.5568
▁eintreten	-11.5571
▁beherrschen	-11.5571
▁zeichnete	-11.5574
▁brett	-11.5575
tasche	-11.558
krankheit	-11.5583
▁jeweilige	-11.5584
triff	-11.5585
▁rohstoff	-11.5585
dom	-11.5587
▁ferne	-11.5588
▁up	-11.5589
▁simulier	-11.559
gefordert	-11.5591
▁massiv	-11.5592
lagert	-11.5592
▁ungleich	-11.5596
▁trieb	-11.5597
▁bos	-11.5601
▁46	-11.5606
▁serviert	-11.5612
▁flüchtig	-11.5614
▁life	-11.5614
tan	-11.5616
tests	-11.5616
▁5.	-11.5617
▁fleck	-11.562
▁fri	-11.562
kan	-11.5622
▁bach	-11.5628
▁loswerde	-11.5631
star	-11.5635
▁blockiert	-11.5647
▁vergess	-11.5647
are	-11.5653
▁sammelte	-11.5653
▁leitet	-11.5657
▁kollektiv	-11.5665
▁belegt	-11.5669
▁interessierte	-11.5672
pal	-11.5674
neu	-11.5677
▁renn	-11.5682
swert	-11.5683
▁etabliert	-11.5686
decken	-11.5692
skosten	-11.5695
▁zusehen	-11.5698
▁vergangene	-11.57
way	-11.5704
▁kollege	-11.5704
▁besucher	-11.5704
geschlagen	-11.5711
▁allererste	-11.5712
▁verknüpf	-11.572
▁experte	-11.572
▁matt	-11.5722
▁31	-11.573
verarbeitung	-11.5733
format	-11.5733
▁höhle	-11.5735
chu	-11.5736
rechnen	-11.5736
▁fokussiert	-11.5736
lein	-11.5739
▁überlasse	-11.5739
▁tauschen	-11.5739
▁mittag	-11.5742
▁mel	-11.5743
▁apparat	-11.5744
▁optimier	-11.5744
▁konstant	-11.5745
▁jay	-11.5746
▁studierende	-11.5749
nny	-11.5751
post	-11.5757
▁absichtlich	-11.5761
▁ökologisch	-11.5761
gefahren	-11.5763
▁ausgehend	-11.5766
zählt	-11.5768
freund	-11.5772
▁ratte	-11.5776
ition	-11.5777
▁unangenehm	-11.5779
▁lebendige	-11.5779
▁mau	-11.5784
▁seiden	-11.5786
▁verwendete	-11.5789
▁spinne	-11.579
▁krisen	-11.5794
▁mathematisch	-11.5798
▁drückt	-11.5799
ströme	-11.58
▁schott	-11.5801
zettel	-11.5801
küste	-11.5802
fleisch	-11.5802
population	-11.5803
bühne	-11.5803
haufen	-11.5803
weiß	-11.5805
▁begeh	-11.5808
pause	-11.5808
▁zentr	-11.581
▁elektron	-11.5812
▁dutzende	-11.5813
▁mem	-11.5814
etze	-11.5816
einsatz	-11.5816
▁integrier	-11.582
▁beach	-11.5824
▁passiv	-11.5832
▁ap	-11.5836
pflanzt	-11.5839
▁streitgespräch	-11.5841
rückkehr	-11.5851
genoss	-11.5851
▁reiz	-11.5851
flügel	-11.5855
▁vietnam	-11.5857
▁1,2	-11.5857
▁audio	-11.5857
▁doodle	-11.5857
▁enttäuscht	-11.5857
▁folter	-11.5857
▁jerusalem	-11.5857
▁sylvia	-11.5857
▁veranschaulich	-11.5857
▁verzeih	-11.5857
▁ägypter	-11.5857
bombenzielgerät	-11.5857
▁vorbereitung	-11.5857
▁begründet	-11.5857
▁gattung	-11.5857
▁puls	-11.5857
▁gezielt	-11.5857
▁johnny	-11.5857
▁problematisch	-11.5857
▁helium	-11.5857
▁jungfrau	-11.5858
▁190	-11.5858
▁rechenschaft	-11.5858
▁killer	-11.5858
▁nebenwirkung	-11.5858
▁harry	-11.5858
▁ts	-11.5858
▁gelungen	-11.5859
▁zusammengefasst	-11.5859
gepackt	-11.5859
witz	-11.5859
square	-11.586
▁1994	-11.5861
▁ironi	-11.5861
▁beschäftigung	-11.5862
▁kollision	-11.5862
▁raumfahrt	-11.5862
▁paradigma	-11.5864
▁provinz	-11.5864
▁dirigent	-11.5864
▁artenvielf	-11.5865
▁gecko	-11.5865
▁dj	-11.5866
▁keller	-11.5866
▁zeichnet	-11.5866
▁bedient	-11.5869
▁marathon	-11.5871
▁vereinbarung	-11.5873
▁anwesend	-11.5873
▁40.000	-11.5873
▁grand	-11.5875
▁festival	-11.5875
▁vorliebe	-11.5875
▁bananen	-11.5876
▁heilig	-11.5876
▁ausgerichtet	-11.588
▁schaltet	-11.588
▁ansammlung	-11.5881
ula	-11.5881
▁home	-11.5882
locken	-11.5882
▁sammler	-11.5883
▁überholt	-11.5886
▁authentisch	-11.5886
▁abkommen	-11.589
▁erschaffung	-11.5896
▁dokument	-11.5896
▁tauchte	-11.5897
▁spin	-11.59
▁verluste	-11.59
cola	-11.5904
onie	-11.5904
affen	-11.5904
▁irrational	-11.5905
▁interaktive	-11.5906
▁verlässt	-11.5906
▁fünfte	-11.5907
▁nathan	-11.5908
▁flucht	-11.5909
▁stimmung	-11.591
platten	-11.5911
▁wachte	-11.5913
▁durchgehen	-11.5914
▁98	-11.5914
▁dürfte	-11.5918
▁american	-11.5918
▁rufe	-11.5923
▁landkarte	-11.5926
▁betracht	-11.5931
▁schulsystem	-11.5932
▁empfangen	-11.5932
▁berater	-11.5932
tzt	-11.5935
▁fertigkeit	-11.5935
▁kla	-11.5936
▁kilometern	-11.5939
▁geniale	-11.594
▁versetze	-11.5942
schritten	-11.5942
campus	-11.5947
▁magazine	-11.5948
▁tauch	-11.596
▁bildes	-11.5968
▁bestandteile	-11.5974
▁auftauchte	-11.5974
▁bewegende	-11.5975
packen	-11.5976
schul	-11.5977
▁dreieck	-11.598
rotten	-11.598
▁ernsthafte	-11.5981
zuhören	-11.5981
▁kim	-11.5981
▁don	-11.5983
▁schilder	-11.5985
▁verpass	-11.5985
schlussfolgerung	-11.5988
▁jährliche	-11.5992
▁sender	-11.5992
▁beten	-11.5993
▁säugetier	-11.5993
▁alltags	-11.5995
▁sel	-11.6003
▁schwache	-11.6004
▁betrachte	-11.6004
ßen	-11.6007
swachstum	-11.601
▁juden	-11.6012
▁nerv	-11.6015
▁ham	-11.6017
▁reifen	-11.602
▁südamerika	-11.6021
rolle	-11.6022
▁herkommen	-11.6023
yo	-11.6035
gesetze	-11.6036
▁büros	-11.6037
▁flagge	-11.6044
▁vorhersage	-11.6053
▁sun	-11.6056
▁gal	-11.6067
▁aufwach	-11.6068
▁breiten	-11.6071
▁klinisch	-11.608
klebe	-11.608
▁besorg	-11.6085
▁tele	-11.6088
▁voranzu	-11.6099
leistungen	-11.6101
▁untere	-11.6104
▁eurer	-11.6108
▁unheimlich	-11.6109
verhältnis	-11.6116
▁black	-11.6116
eit	-11.6118
omi	-11.6119
▁himmels	-11.6121
▁wegwerf	-11.6122
▁missbrauch	-11.6129
▁dokumente	-11.6131
▁ir	-11.6133
sey	-11.6133
bevölkerung	-11.6134
▁schmi	-11.6136
serie	-11.6137
opfer	-11.614
ehe	-11.6145
trick	-11.6146
gelöscht	-11.6146
institut	-11.6147
mutter	-11.6147
verlust	-11.6148
winkel	-11.6148
chip	-11.6149
▁38	-11.6149
reaktion	-11.615
▁ertrag	-11.6151
ausrottung	-11.6156
▁5000	-11.6165
filme	-11.6166
▁organisch	-11.6175
▁mm	-11.6177
▁spezial	-11.6192
▁vorherige	-11.6192
trupp	-11.6195
▁schaltkreise	-11.6197
ästhetik	-11.6198
▁koordinier	-11.6202
▁allmählich	-11.6202
▁buddha	-11.6202
▁dominiert	-11.6202
▁geschwister	-11.6202
▁gespannt	-11.6202
▁health	-11.6202
▁insulin	-11.6202
▁kartoffel	-11.6202
▁minderheit	-11.6202
▁neuseeland	-11.6202
▁reflektieren	-11.6202
▁tansania	-11.6202
▁verdächtig	-11.6202
▁intensität	-11.6202
▁tugend	-11.6202
▁bestechung	-11.6202
▁bewaffnet	-11.6202
▁comedy	-11.6202
▁annähernd	-11.6202
▁bestätigen	-11.6202
▁social	-11.6202
▁zitiere	-11.6202
▁kosov	-11.6202
▁absorbier	-11.6202
▁trank	-11.6202
▁erwecken	-11.6202
▁berlin	-11.6202
▁entschlüssel	-11.6202
▁story	-11.6203
▁verschmelz	-11.6203
▁saudi	-11.6203
▁ausbreiten	-11.6203
▁2030	-11.6203
▁sarah	-11.6204
▁lebensstil	-11.6204
▁193	-11.6204
▁chile	-11.6205
nachrichten	-11.6205
▁chemotherapie	-11.6207
▁niedlich	-11.6207
▁afghanische	-11.6208
▁primär	-11.6208
▁intensive	-11.6208
▁bergsteiger	-11.6209
▁angenehm	-11.621
▁verschwendet	-11.6211
dimensionale	-11.6211
▁pik	-11.6215
▁mörder	-11.6216
▁vertreten	-11.6218
▁freut	-11.6223
▁grossartig	-11.6223
▁maske	-11.6226
▁spiels	-11.6226
▁totale	-11.6228
▁szenario	-11.6229
moleküle	-11.6229
▁hierarchie	-11.6231
feier	-11.6231
▁bit	-11.6232
zapf	-11.6232
▁bewegliche	-11.6238
▁strich	-11.6238
gefügt	-11.6239
▁evolutions	-11.6241
wissen	-11.6244
▁ast	-11.6244
▁saug	-11.6244
▁ausschalte	-11.6254
▁streifen	-11.6255
▁bewerkstelligen	-11.6259
▁spann	-11.6263
▁spezialisten	-11.6264
▁jüdische	-11.6266
sitzen	-11.6267
20	-11.6273
▁informiert	-11.6274
schläg	-11.6276
▁lüg	-11.6279
▁farbige	-11.6281
▁belohn	-11.6282
grenze	-11.6284
▁leit	-11.6285
▁lecker	-11.6287
▁mücken	-11.6293
▁gew	-11.6295
▁einsetzt	-11.6297
▁sterblichkeit	-11.6298
▁roll	-11.6299
▁offizielle	-11.6303
rinde	-11.6307
▁erlebte	-11.6313
iff	-11.6317
geschaltet	-11.6319
▁tan	-11.6323
▁einflussreich	-11.6325
▁statistisch	-11.6326
▁verlangsamt	-11.6326
▁kompromiss	-11.6326
▁billige	-11.6329
ssig	-11.633
▁pfeifen	-11.6333
stil	-11.6334
▁übernahm	-11.6337
stunde	-11.6338
▁beschrieb	-11.6349
ile	-11.6352
boote	-11.6353
▁befragt	-11.6355
▁tragbare	-11.6356
▁ethische	-11.6357
▁verstärken	-11.6361
▁angezogen	-11.6363
▁fortschrittlich	-11.6366
▁schönste	-11.6368
▁mobiltelefone	-11.6369
▁vertikale	-11.6374
▁thunfisch	-11.6378
▁sound	-11.6379
▁glatt	-11.6383
▁projekts	-11.6386
▁wirbel	-11.6391
▁kürze	-11.6392
▁non	-11.6394
störung	-11.6396
gebrochen	-11.6398
ju	-11.6409
brüche	-11.6409
▁versammelt	-11.6414
ary	-11.6417
▁72	-11.642
rot	-11.6422
träge	-11.6425
▁affe	-11.6425
▁station	-11.6426
oni	-11.6429
▁lücken	-11.6438
▁diplomati	-11.6439
▁merkwürdige	-11.644
▁schoss	-11.6442
▁zäh	-11.6443
▁fotografen	-11.6443
▁ram	-11.6444
halle	-11.6444
dach	-11.645
sicherheit	-11.6454
▁eve	-11.6456
typen	-11.646
▁sichere	-11.646
▁kunde	-11.6462
▁standards	-11.6464
▁entsprechen	-11.6465
▁abspiel	-11.6465
▁platte	-11.6466
▁ablauf	-11.6469
▁gegenwärtig	-11.647
eurowissenschaft	-11.6471
gebildet	-11.6472
▁flüssige	-11.6472
▁kälte	-11.6472
▁linear	-11.6473
▁münze	-11.6477
▁mentor	-11.6479
zogen	-11.6481
höhe	-11.6481
ante	-11.6482
▁ii	-11.6488
ernährung	-11.649
wahl	-11.649
nathan	-11.649
laub	-11.6492
▁argumente	-11.6493
▁unbewusst	-11.6494
▁philip	-11.6497
loch	-11.6498
mächtig	-11.6498
schloss	-11.6498
gemäß	-11.6498
artikel	-11.6501
▁tatsächliche	-11.6504
geschnitten	-11.6504
übertragung	-11.6504
brett	-11.6507
unfall	-11.6508
▁leistungsfähig	-11.6513
▁telefone	-11.6518
▁einbringen	-11.6518
▁begleit	-11.6521
gewandt	-11.6525
▁abbild	-11.6525
▁schließe	-11.6527
▁perspektiven	-11.6529
▁ordn	-11.6529
▁schweiz	-11.653
▁kunstwerk	-11.6532
▁attraktiv	-11.6532
▁beinhalte	-11.6539
▁endete	-11.6542
gar	-11.6542
dienste	-11.6543
▁glob	-11.6548
▁teufels	-11.6554
▁rezeptor	-11.6555
gestimmt	-11.6555
unterbrochen	-11.6557
fühlungsvermögen	-11.6559
▁anderthalb	-11.6559
▁apollo	-11.6559
▁errungenschaft	-11.6559
▁favorit	-11.6559
▁lähmung	-11.6559
▁reputation	-11.6559
▁unzählige	-11.6559
▁akzent	-11.6559
▁empor	-11.6559
▁permanent	-11.6559
▁remix	-11.6559
▁ultra	-11.6559
▁wohlergehen	-11.6559
▁aufrichtig	-11.6559
▁lippen	-11.6559
▁völkermord	-11.6559
▁garantiert	-11.6559
▁drachen	-11.6559
▁unterhaltsam	-11.6559
▁highschool	-11.6559
▁kelly	-11.6559
▁ostküste	-11.6559
▁prinz	-11.6559
▁gründlich	-11.6559
▁vorsitzende	-11.6559
▁probanden	-11.6559
▁quadratmeter	-11.6559
stimulation	-11.6559
▁regulierung	-11.6559
▁schüchtern	-11.656
▁gesten	-11.656
▁albern	-11.656
▁schützt	-11.656
▁schwul	-11.656
▁meerwasser	-11.656
▁weitgehend	-11.6561
▁silber	-11.6561
▁solide	-11.6561
▁umweltschutz	-11.6562
barrel	-11.6562
▁zusammenfassung	-11.6562
▁sierra	-11.6562
▁rover	-11.6562
▁bedecken	-11.6562
▁bloße	-11.6562
▁uv	-11.6563
▁kindergarten	-11.6565
▁lausch	-11.6565
▁teilhaben	-11.6565
▁law	-11.6565
▁brad	-11.6566
▁vernetzung	-11.6566
▁3000	-11.6567
▁karo	-11.6568
▁gewehr	-11.657
▁spender	-11.657
▁34	-11.6571
▁messbar	-11.6572
▁rick	-11.6572
▁deuten	-11.6572
▁projektion	-11.6573
▁überlebende	-11.6573
▁liess	-11.6573
▁längere	-11.6573
▁statue	-11.6574
▁matrix	-11.6576
▁bestimmtes	-11.6576
▁ausüben	-11.6577
▁geschätzt	-11.6578
▁stränge	-11.658
▁food	-11.658
▁psychisch	-11.6584
▁libellen	-11.6585
ath	-11.6586
▁muschel	-11.6588
▁ngo	-11.6589
hose	-11.659
▁nigerianische	-11.6591
▁becher	-11.6593
▁ermöglichte	-11.6595
▁impfung	-11.6599
linge	-11.66
▁stundenlang	-11.6602
▁tank	-11.6603
▁mall	-11.6604
▁fordern	-11.6605
▁kath	-11.6607
▁schwierigste	-11.6608
▁out	-11.6609
▁club	-11.661
filmt	-11.6616
▁binden	-11.662
gestanden	-11.6621
igung	-11.6622
▁entwickler	-11.6626
▁schwimmt	-11.6626
▁herzkrankheit	-11.6629
▁inne	-11.663
▁anleitung	-11.6633
▁kehrte	-11.6636
▁frontal	-11.6637
▁mitteln	-11.6638
▁erlebnisse	-11.6639
sprung	-11.6641
▁anerkennen	-11.6643
▁mustern	-11.6645
▁kristall	-11.6647
streifen	-11.665
▁angelegt	-11.6651
▁betreib	-11.6654
▁reichlich	-11.6654
▁nachher	-11.6656
▁gespür	-11.6659
link	-11.6659
▁liebste	-11.666
▁landung	-11.666
▁leichte	-11.6664
▁scheiße	-11.6666
▁aktivisten	-11.6667
▁verschiedenste	-11.6668
isation	-11.6678
▁30-	-11.6683
▁ausgestellt	-11.6687
▁brennen	-11.6688
▁startet	-11.6692
▁installiert	-11.6713
▁verlegen	-11.6713
▁umkehr	-11.6715
▁erfolgs	-11.6716
▁entschloss	-11.672
▁konsequenz	-11.672
▁beleg	-11.6725
▁tedster	-11.6728
häuser	-11.6731
▁minister	-11.6732
▁manipuliert	-11.6739
insel	-11.6739
gaben	-11.6741
▁pharma	-11.6742
▁konkrete	-11.6744
▁umdreh	-11.6747
▁note	-11.6748
▁erwartete	-11.6751
▁julian	-11.6752
▁dienste	-11.6758
old	-11.6767
▁konventionelle	-11.6768
schuh	-11.6773
▁verliere	-11.6777
ima	-11.6777
stechnologie	-11.6778
feuer	-11.6778
▁erkläre	-11.6778
▁gegenseitige	-11.6779
▁pille	-11.6779
hof	-11.6785
▁normaler	-11.6786
▁konzert	-11.6787
▁universitäts	-11.6789
mach	-11.679
▁zwecke	-11.6792
▁verlangsam	-11.6797
betrieb	-11.6801
▁auftaucht	-11.6801
lzt	-11.6802
▁gebilde	-11.6805
▁20-	-11.681
▁mitmachen	-11.6813
läufe	-11.6814
▁umge	-11.682
sex	-11.682
▁warme	-11.6823
▁hal	-11.6824
zuarbeiten	-11.6831
▁ersatz	-11.6833
▁polar	-11.6834
▁übernimm	-11.684
bombe	-11.6844
▁meldet	-11.6845
▁erfolgreicher	-11.6845
▁essens	-11.6846
▁wiederverwend	-11.6847
tieren	-11.6847
▁bro	-11.6847
wirkung	-11.6847
bericht	-11.6848
▁stu	-11.6853
▁ökonomisch	-11.6853
hol	-11.6854
zel	-11.6859
▁berat	-11.686
▁experimentelle	-11.6866
slosigkeit	-11.6869
▁syn	-11.687
▁beliebig	-11.6873
schild	-11.6874
positiv	-11.6875
verkauf	-11.6875
▁bundes	-11.6878
▁string	-11.6879
ata	-11.688
▁heu	-11.688
garten	-11.6881
▁wiederher	-11.6883
▁taxi	-11.6884
steht	-11.6884
▁stimmte	-11.6886
▁richte	-11.6886
▁verborgen	-11.6889
▁wissenschafts	-11.6891
zeitalter	-11.6893
▁vaters	-11.6894
üsse	-11.6894
suchen	-11.6899
▁alphabet	-11.6899
▁zuge	-11.6904
konzern	-11.6918
stamm	-11.6923
,5	-11.6924
scheide	-11.6926
leuchtung	-11.6926
▁96	-11.6927
▁griechen	-11.6929
▁action	-11.6929
▁embryo	-11.6929
blöcke	-11.6929
gesperrt	-11.6929
▁abschied	-11.6929
▁alexander	-11.6929
▁ausgerottet	-11.6929
▁chemiker	-11.6929
▁empfindung	-11.6929
▁komponist	-11.6929
▁namibia	-11.6929
▁phoenix	-11.6929
▁psychiater	-11.6929
▁smartphone	-11.6929
▁unterdrückt	-11.6929
▁ursprünge	-11.6929
▁ideologie	-11.6929
▁infrarot	-11.6929
▁rabbi	-11.6929
▁spaghetti	-11.6929
▁vermächtnis	-11.6929
▁kennedy	-11.6929
▁maximal	-11.6929
▁tomaten	-11.6929
▁verhaftet	-11.6929
veröffentlichung	-11.6929
▁gefeiert	-11.6929
▁essentiell	-11.6929
▁arzneimittel	-11.6929
▁wuerde	-11.6929
▁thailand	-11.693
▁geschäftsführer	-11.693
▁überschreite	-11.693
▁keim	-11.693
▁dienstag	-11.693
▁recycling	-11.693
▁einbeziehen	-11.693
▁barmherzigkeit	-11.693
▁netzhaut	-11.693
▁ausgangspunkt	-11.6931
▁windenergie	-11.6931
▁abgelegen	-11.6931
▁entnehmen	-11.6932
gehängt	-11.6932
▁tageslicht	-11.6932
nullsummen	-11.6933
▁unternommen	-11.6933
▁hybrid	-11.6934
▁busch	-11.6934
▁neuartige	-11.6935
▁jahrtausende	-11.6935
greif	-11.6935
▁wendepunkt	-11.6937
▁oliver	-11.6938
▁primitiv	-11.6938
▁rückgang	-11.6938
▁operiert	-11.6939
▁umgewandelt	-11.6939
gesellschaften	-11.694
▁mary	-11.694
▁dokumentiert	-11.694
▁delhi	-11.6941
▁schwingung	-11.6941
▁magnetische	-11.6941
▁verband	-11.6942
▁strang	-11.6949
▁gläser	-11.6949
▁trainer	-11.6949
imi	-11.6951
▁draht	-11.6952
▁dean	-11.6952
▁cro	-11.6953
▁räder	-11.6954
▁schaltkreis	-11.6954
▁würmer	-11.6956
▁integrierte	-11.6956
▁abnehmen	-11.6957
▁ernährungs	-11.6958
öhn	-11.6961
▁horizontal	-11.6966
▁witze	-11.6967
▁taucher	-11.6968
▁ankunft	-11.6968
▁zusammenspiel	-11.6968
▁skala	-11.6969
▁comp	-11.697
ros	-11.697
ore	-11.6973
▁leuchtet	-11.6975
▁betrügen	-11.6975
▁spezialisiert	-11.6976
▁naiv	-11.6977
▁drum	-11.6982
zy	-11.6986
▁taub	-11.6986
▁stetig	-11.6987
▁arktische	-11.6989
▁verarbeitung	-11.6991
▁günstiger	-11.6992
▁turm	-11.6995
mmer	-11.6997
▁zigaretten	-11.6997
press	-11.7001
▁fügt	-11.7004
▁bahnbrechende	-11.7007
spuren	-11.7009
▁bestehende	-11.701
▁schalter	-11.7011
▁tante	-11.7012
orientiert	-11.7019
▁phasen	-11.7034
▁bezogen	-11.7037
▁union	-11.7038
▁zusammenge	-11.7039
▁beauftragt	-11.7039
▁lehrte	-11.704
zeitig	-11.7042
▁ris	-11.7043
able	-11.7043
ografie	-11.7049
▁lautete	-11.705
aufnahmen	-11.7051
▁kocht	-11.7058
▁kritisch	-11.7066
sprogramm	-11.707
irland	-11.7072
▁aufwand	-11.7082
▁verlager	-11.7083
▁seltener	-11.7083
▁befestig	-11.7084
werte	-11.7086
▁aussuche	-11.7092
▁führe	-11.71
fähigkeit	-11.7101
imitieren	-11.7103
▁ari	-11.7106
▁christen	-11.7108
▁besch	-11.7109
▁ps	-11.711
hy	-11.7118
▁aufbaut	-11.7121
▁herkömmliche	-11.7128
▁mobiltelefon	-11.7131
finden	-11.7131
▁irre	-11.7141
▁offener	-11.7142
▁massa	-11.7143
▁starr	-11.7144
▁galt	-11.7146
▁schmelzen	-11.7146
▁befasst	-11.7149
▁unfähig	-11.7151
▁letzt	-11.7152
shi	-11.7158
▁nervenzelle	-11.716
▁ausschau	-11.7164
▁koralle	-11.717
car	-11.7172
▁47	-11.7175
▁these	-11.7177
partner	-11.7178
▁rollt	-11.7179
▁welch	-11.7182
▁kontrollierte	-11.7186
prozentige	-11.7188
▁anfangs	-11.7194
▁engagier	-11.7194
strahlung	-11.7206
▁orange	-11.7209
▁orangen	-11.7209
▁produkten	-11.721
▁fahre	-11.7214
▁lichts	-11.7215
ager	-11.7218
sdauer	-11.7222
▁untersuchte	-11.7222
▁helle	-11.7222
▁erfolge	-11.7223
bereiche	-11.7224
läufer	-11.7224
▁effektive	-11.7224
▁begegnet	-11.7229
▁endes	-11.7229
gerichtet	-11.723
lung	-11.723
▁bart	-11.7234
▁gesetzen	-11.7244
▁alltäglich	-11.7253
▁patente	-11.7255
suche	-11.7255
apparat	-11.7257
wörtlich	-11.7258
marsch	-11.7259
club	-11.7259
ux	-11.7259
epidemie	-11.726
klinik	-11.726
komplex	-11.726
millionen	-11.726
text	-11.7261
▁hm	-11.7265
entzündung	-11.7274
▁antreiben	-11.7276
▁tippen	-11.7278
weisung	-11.7279
▁beständig	-11.7279
ups	-11.728
▁effiziente	-11.728
klären	-11.7281
▁gi	-11.7281
▁laufende	-11.7282
speis	-11.7294
cs	-11.7298
▁miete	-11.7298
ansatz	-11.7303
rett	-11.7305
versuch	-11.7305
▁frustr	-11.7306
werke	-11.731
experten	-11.7312
▁agrar	-11.7313
▁bequem	-11.7314
cortex	-11.7314
▁analysis	-11.7314
▁athlet	-11.7314
▁bemüht	-11.7314
▁berkeley	-11.7314
▁cholera	-11.7314
▁depressiv	-11.7314
▁diktator	-11.7314
▁ebay	-11.7314
▁eingebettet	-11.7314
▁erschuf	-11.7314
▁gänzlich	-11.7314
▁helikopter	-11.7314
▁indirekt	-11.7314
▁intervention	-11.7314
▁lotterie	-11.7314
▁mönch	-11.7314
▁natasha	-11.7314
▁pittsburgh	-11.7314
▁schlamm	-11.7314
▁tiefgründige	-11.7314
▁unfair	-11.7314
▁ungeheure	-11.7314
▁banjo	-11.7314
▁kokain	-11.7314
▁rosling	-11.7314
▁anatomie	-11.7314
▁geleistet	-11.7314
▁veraltet	-11.7314
▁informieren	-11.7314
▁wolfram	-11.7314
▁ethanol	-11.7314
▁krater	-11.7314
sylv	-11.7314
▁todesfälle	-11.7315
▁meeresboden	-11.7315
▁nike	-11.7315
▁terra	-11.7315
ough	-11.7315
▁handgelenk	-11.7315
▁genossen	-11.7315
▁hirte	-11.7315
▁parkplatz	-11.7315
▁abhandlung	-11.7316
▁verschafft	-11.7316
▁niederlande	-11.7316
steuern	-11.7316
▁river	-11.7317
▁propaganda	-11.7317
▁geschossen	-11.7317
▁überwältigt	-11.7319
▁putz	-11.7319
▁1995	-11.7319
▁knöpfe	-11.7319
▁susan	-11.7319
▁ross	-11.732
▁garantiere	-11.7321
▁grundsätze	-11.7322
▁schadstoffe	-11.7322
stätte	-11.7322
▁kriteri	-11.7324
▁öffnung	-11.7324
▁gesang	-11.7324
▁nachahmen	-11.7325
▁instinkt	-11.7325
▁karikaturist	-11.7327
▁korallenriff	-11.7328
▁versammlung	-11.7328
▁lebenslange	-11.7328
▁60.000	-11.7329
▁schn	-11.7329
▁praktik	-11.733
▁sechsjährige	-11.7333
schulen	-11.7333
▁vorgeschlagen	-11.7333
▁stoffe	-11.7334
▁fortzu	-11.7336
▁ampel	-11.7337
drucker	-11.7338
ome	-11.7339
▁kriminalität	-11.7339
▁ausgesprochen	-11.734
▁kong	-11.734
▁stühle	-11.7343
▁vorbereiten	-11.7343
▁elternteil	-11.7345
▁neurologische	-11.7346
▁belege	-11.7347
▁förderung	-11.7352
▁erheben	-11.7354
prall	-11.7354
▁würdig	-11.7356
▁umsetzung	-11.7359
▁kanäle	-11.7359
▁teig	-11.736
▁sklaven	-11.7362
▁erholt	-11.7362
▁liebling	-11.7364
ähnlich	-11.7369
▁schnittstelle	-11.7372
▁solarzellen	-11.7374
▁kreuzung	-11.7376
▁ausbruch	-11.7378
▁ofen	-11.7383
▁mer	-11.7384
▁anziehen	-11.7384
▁gerissen	-11.7385
▁osteurop	-11.7396
▁verhandel	-11.7396
ain	-11.7397
alisch	-11.7404
▁peer	-11.7404
krat	-11.7404
▁technologisch	-11.7404
▁gefühlt	-11.7405
▁kenn	-11.7407
▁schmale	-11.7407
breitet	-11.7408
▁kriegt	-11.7409
bieten	-11.7409
denkst	-11.7416
släufig	-11.7419
▁ziegen	-11.7422
maß	-11.7424
▁yo	-11.7424
eilt	-11.7425
▁engagiert	-11.7426
▁einnahm	-11.7426
dämmer	-11.7432
▁mikroskopisch	-11.7432
graph	-11.7443
▁rod	-11.7449
▁gründet	-11.7451
gesetz	-11.7454
▁fä	-11.7455
schieben	-11.7456
▁scanne	-11.7456
▁ron	-11.7458
▁quantenmechani	-11.7462
▁liebend	-11.7474
▁baumwolle	-11.7477
▁angriffe	-11.7486
▁potentiell	-11.7488
▁hack	-11.7492
hauen	-11.7492
scher	-11.7499
▁mahlzeit	-11.7502
blase	-11.7504
folgsgeschichte	-11.7504
▁ze	-11.7505
▁glaubens	-11.7508
▁eintritt	-11.7512
och	-11.7512
▁banker	-11.7512
▁bundesstaat	-11.7513
▁ähnel	-11.7516
▁vergeben	-11.752
uel	-11.7526
museum	-11.7527
geschlossen	-11.7533
▁lade	-11.7538
▁free	-11.7546
▁ethisch	-11.7547
ake	-11.7549
▁julia	-11.755
wirken	-11.7554
ara	-11.7554
▁interne	-11.7555
▁penis	-11.7556
▁zeile	-11.7558
kunft	-11.7561
▁wolle	-11.7561
▁dumme	-11.7571
▁slum	-11.7571
papier	-11.7572
▁wandert	-11.7576
▁8.	-11.7576
▁weinte	-11.7578
▁sanft	-11.7581
ov	-11.7584
▁geister	-11.7588
▁mari	-11.7591
▁machbar	-11.7596
▁beck	-11.76
▁bizarre	-11.7605
▁schlaue	-11.7607
▁ritual	-11.7609
gut	-11.761
▁lege	-11.7612
thema	-11.7613
▁abholz	-11.7619
geteilt	-11.762
mission	-11.7623
▁brilliant	-11.7626
▁neuron	-11.7627
ssysteme	-11.763
▁wählte	-11.7631
rock	-11.7632
▁naturschutz	-11.7635
▁carol	-11.7644
▁teilnahme	-11.7645
sgrad	-11.7645
▁kratz	-11.7648
▁irren	-11.7649
stände	-11.765
kampf	-11.7652
bit	-11.7653
weitaus	-11.7653
abel	-11.7653
▁möglichst	-11.7654
pflicht	-11.7657
gebühr	-11.7657
sensor	-11.7659
wurzel	-11.7659
wettbewerb	-11.7659
verständnis	-11.766
objekt	-11.766
fehler	-11.766
▁packte	-11.7661
sack	-11.7661
wände	-11.7661
▁dreck	-11.7661
vorstellung	-11.7663
▁gewiss	-11.7665
gelernt	-11.7669
tafel	-11.7675
▁beweg	-11.7677
▁zusammenkomm	-11.7688
archie	-11.7689
200	-11.7689
▁hindernis	-11.769
reden	-11.7694
programmier	-11.7695
verhältnisse	-11.7695
▁dokumentier	-11.77
▁verabschied	-11.7701
▁cyberkriminelle	-11.7714
▁dürre	-11.7714
▁empfand	-11.7714
▁exemplar	-11.7714
▁favela	-11.7714
▁football	-11.7714
▁frösche	-11.7714
▁gespendet	-11.7714
▁gewünscht	-11.7714
▁jefferson	-11.7714
▁libanon	-11.7714
▁sebastian	-11.7714
▁selbständig	-11.7714
▁äquator	-11.7714
▁übereinstimmt	-11.7714
schraube	-11.7714
▁absurd	-11.7714
▁gummi	-11.7714
▁symphonie	-11.7714
▁veteranen	-11.7714
▁prophet	-11.7714
▁undeutlich	-11.7714
▁syri	-11.7714
▁powerpoint	-11.7714
▁michigan	-11.7714
▁vogelgrippe	-11.7714
▁gefaltet	-11.7714
▁monterey	-11.7714
▁klischee	-11.7714
▁nordkorea	-11.7714
▁harmlos	-11.7714
▁herzinfarkt	-11.7714
▁wechselwirkung	-11.7714
▁stimuliert	-11.7714
▁führungskräfte	-11.7714
▁schlafzimmer	-11.7714
▁südpol	-11.7714
▁hinzugefügt	-11.7715
▁regenerieren	-11.7715
▁skeptisch	-11.7715
▁schlief	-11.7715
100	-11.7715
▁enthielt	-11.7715
▁jackson	-11.7715
▁mobilität	-11.7715
▁eva	-11.7716
▁stillstand	-11.7716
▁notaufnahme	-11.7716
▁tausch	-11.7716
▁luftfahrt	-11.7717
▁rachel	-11.7717
▁zoll	-11.7718
▁ideo	-11.7718
▁verehr	-11.7719
▁fledermaus	-11.772
▁recherche	-11.772
▁entlegen	-11.772
▁zusammengesetzt	-11.7721
▁frustrierend	-11.7721
▁abgestimmt	-11.7721
▁ausgangs	-11.7721
▁anziehung	-11.7722
▁power	-11.7722
▁café	-11.7724
▁saurier	-11.7724
▁vergewaltigung	-11.7725
▁schöpfer	-11.7726
▁huhn	-11.7726
▁ferien	-11.7727
▁schlachtfeld	-11.7727
▁holt	-11.7727
▁dreieinhalb	-11.7728
▁abwasser	-11.773
wachstum	-11.7731
▁sähe	-11.7732
▁dor	-11.7732
let	-11.7733
▁verfassung	-11.7733
▁seltene	-11.7736
▁institutionelle	-11.7736
▁wolf	-11.7736
▁flow	-11.7738
▁diät	-11.7738
▁moderner	-11.7739
▁baumkronen	-11.774
▁protokoll	-11.7742
▁verwirrend	-11.7742
▁beschränkung	-11.7743
▁reist	-11.7745
▁periode	-11.7747
leiden	-11.7748
▁kraftwerk	-11.7749
▁helm	-11.775
gesagt	-11.775
▁suppe	-11.7751
▁beherrscht	-11.7753
▁besprechung	-11.7757
tauschen	-11.7759
▁assoziiert	-11.7763
▁regnet	-11.7767
▁regulieren	-11.7767
swerte	-11.7767
▁empfänger	-11.7769
▁universell	-11.7772
▁absatz	-11.7773
▁kammer	-11.7774
tis	-11.7774
▁187	-11.7776
▁zoom	-11.7777
▁tragische	-11.7778
▁mehrfach	-11.7779
▁exponentielle	-11.7781
▁anzug	-11.7781
▁einhundert	-11.7784
lling	-11.7784
▁4.	-11.7797
uhr	-11.7797
wahlmöglichkeit	-11.7803
▁interviewer	-11.7813
schritt	-11.7813
▁blüten	-11.7814
seiten	-11.7815
▁packt	-11.7817
blasen	-11.7817
▁rau	-11.7818
▁arbeitslos	-11.7818
hören	-11.7819
▁festzu	-11.7821
ncer	-11.7822
▁tra	-11.7824
▁bekannter	-11.7826
▁varianten	-11.7827
▁tiefgreifende	-11.7827
elemente	-11.7829
▁aha	-11.7832
▁wu	-11.7833
wi	-11.7835
▁formuliert	-11.7836
▁2.0	-11.7839
onen	-11.7849
▁stützen	-11.7849
▁talente	-11.7851
▁bud	-11.7852
▁autonome	-11.7854
ivan	-11.7856
▁tierart	-11.7865
gesprochen	-11.7868
klasse	-11.787
ati	-11.7874
▁mitfühlend	-11.7875
▁play	-11.7876
reißen	-11.7878
▁geistig	-11.7879
▁hunt	-11.788
eins	-11.7881
▁inspirierte	-11.7883
▁zugelassen	-11.7885
▁minimal	-11.7885
▁furchtbare	-11.7888
▁aufgegeben	-11.7889
▁phänomene	-11.7891
video	-11.7893
▁ausbild	-11.7895
pack	-11.7895
▁minerali	-11.7898
▁folien	-11.7899
gger	-11.7899
▁realisiert	-11.7906
▁glücklichste	-11.7906
▁siebte	-11.791
▁alien	-11.7913
länge	-11.7914
geber	-11.7916
▁nachteil	-11.7916
▁israelische	-11.7919
▁flache	-11.7923
messer	-11.7932
▁zahlt	-11.7934
▁liberale	-11.7934
smodell	-11.7938
▁bedingung	-11.7939
▁schweben	-11.7941
▁vorgehen	-11.7947
zog	-11.7949
spiele	-11.7949
▁zusammenbring	-11.7957
macher	-11.7959
▁kreativer	-11.796
▁khan	-11.7961
▁vollen	-11.7967
wärt	-11.797
▁kämpfe	-11.797
▁obst	-11.7971
ji	-11.7973
▁set	-11.7975
sprobleme	-11.7979
▁weihnacht	-11.7988
mont	-11.7988
▁verricht	-11.7996
▁ziehe	-11.7999
▁streng	-11.8001
▁designt	-11.8002
▁berufe	-11.8009
don	-11.8011
▁win	-11.8019
▁wag	-11.8023
▁regionale	-11.8023
▁verwandelte	-11.8032
welle	-11.8034
sport	-11.8035
anti	-11.8036
▁mochten	-11.8037
▁lieb	-11.8047
▁instabil	-11.8048
▁irgendw	-11.8053
▁realisierte	-11.8053
▁anlagen	-11.8053
▁spritz	-11.8054
sse	-11.8055
▁bewege	-11.8055
▁id	-11.8058
▁uh	-11.8061
▁450	-11.8062
▁hineinzu	-11.8063
▁tierische	-11.8063
▁älterer	-11.8064
entlassen	-11.8066
sequenz	-11.807
gericht	-11.807
widmet	-11.8075
maßnahmen	-11.8076
magazin	-11.8076
studio	-11.8076
kontakt	-11.8076
professor	-11.8076
entscheidung	-11.8077
▁angel	-11.8077
sekunde	-11.8077
kabel	-11.8077
gehirn	-11.8078
▁rap	-11.8078
ausdruck	-11.8078
läd	-11.8082
▁greifbar	-11.8083
▁maria	-11.8085
pest	-11.8085
gespielt	-11.809
▁intelligenter	-11.8093
▁derartige	-11.8094
speicher	-11.8095
▁lande	-11.8101
▁trost	-11.8101
▁blockier	-11.8102
▁integr	-11.8107
schütz	-11.8112
▁unterhaltungs	-11.8112
▁you	-11.8112
begriff	-11.8115
▁nähert	-11.8115
▁geduld	-11.8116
linien	-11.8121
▁analog	-11.8124
▁parks	-11.8124
stellige	-11.8127
▁solle	-11.8128
▁disney	-11.813
▁nobelpreis	-11.813
▁vernunft	-11.813
gestützt	-11.8131
▁aluminium	-11.8131
▁babbage	-11.8131
▁brokkoli	-11.8131
▁canyon	-11.8131
▁eliminier	-11.8131
▁entspannt	-11.8131
▁ermordet	-11.8131
▁fakultät	-11.8131
▁humanitäre	-11.8131
▁korrigieren	-11.8131
▁legitim	-11.8131
▁mikrobielle	-11.8131
▁neanderthaler	-11.8131
▁parkinson	-11.8131
▁phantasie	-11.8131
▁signifikant	-11.8131
▁sputnik	-11.8131
▁unterirdisch	-11.8131
▁verwundbar	-11.8131
▁höflich	-11.8131
▁kontrast	-11.8131
▁watson	-11.8131
▁folglich	-11.8131
▁kühlschrank	-11.8131
▁erachten	-11.8131
▁vernichten	-11.8131
▁kollaborative	-11.8131
▁museen	-11.8131
▁input	-11.8131
▁francis	-11.8131
▁skelettmuskel	-11.8131
▁sehvermögen	-11.8131
▁columbia	-11.8131
▁informatik	-11.8131
▁wellenlänge	-11.8131
▁kilogramm	-11.8131
▁nahrungskette	-11.8131
▁smart	-11.8131
▁milchstraße	-11.8131
ua	-11.8131
▁schweiß	-11.8131
▁vermehren	-11.8131
▁liberia	-11.8131
▁mikrofon	-11.8131
▁palästina	-11.8131
▁fossilien	-11.8131
▁mittelklasse	-11.8131
▁damalige	-11.8132
▁chop	-11.8132
▁anthropologe	-11.8132
▁freigesetzt	-11.8132
▁barry	-11.8132
▁moschee	-11.8133
▁amazonas	-11.8133
▁hinterließ	-11.8133
▁rekonstruier	-11.8133
▁schema	-11.8133
▁geldgeber	-11.8134
▁reflektiert	-11.8134
▁rna	-11.8134
▁erbaut	-11.8134
▁titelseite	-11.8135
▁kooperative	-11.8135
▁tool	-11.8135
▁festgelegt	-11.8135
▁fda	-11.8135
▁rechenmaschine	-11.8136
▁prognose	-11.8136
▁parameter	-11.8137
▁nachdachte	-11.8138
▁dampf	-11.8138
stellte	-11.8139
▁raubtier	-11.8139
▁1991	-11.8141
▁gefiel	-11.8141
▁jordan	-11.8141
▁implantat	-11.8141
▁geheimdienst	-11.8142
▁bestanden	-11.8143
▁integration	-11.8144
▁cocktail	-11.8146
▁sortier	-11.8148
▁schildkröte	-11.815
▁binär	-11.815
▁etikett	-11.8151
▁zylinder	-11.8151
▁tourist	-11.8151
▁engel	-11.8152
▁vertreter	-11.8153
smuster	-11.8155
▁vorhaben	-11.8155
▁verspür	-11.8156
▁schatz	-11.8158
▁universen	-11.8161
▁betrüger	-11.8161
▁zuhört	-11.8162
▁geringere	-11.8162
litz	-11.8162
▁gieß	-11.8163
▁begrüßt	-11.8166
schaffen	-11.8167
▁schirm	-11.8167
▁aufzeigen	-11.8168
▁abbildung	-11.8169
-2	-11.8169
modelle	-11.817
▁detailliert	-11.8173
▁mono	-11.8173
▁verbrennung	-11.8174
▁jemen	-11.8175
gestürzt	-11.8175
▁space	-11.8177
iel	-11.8181
▁vorzug	-11.8184
▁dreckig	-11.8189
▁wahlmöglichkeit	-11.8189
▁ingenieurs	-11.8191
▁pier	-11.8191
▁ken	-11.8192
proben	-11.8194
tta	-11.8197
city	-11.8197
▁14.	-11.82
▁intakt	-11.82
▁nukleare	-11.8201
▁ergab	-11.8201
▁endlos	-11.8202
▁verlegt	-11.8203
▁betrachter	-11.8204
cca	-11.8205
▁registriert	-11.8208
▁glaub	-11.8212
▁hormone	-11.8218
▁spürt	-11.8221
▁stabile	-11.8226
brach	-11.8227
▁quallen	-11.8228
▁zufällige	-11.8237
▁abteilung	-11.8237
▁flüssig	-11.8241
▁rituale	-11.8241
▁vorbilder	-11.8242
▁dosen	-11.8243
▁yu	-11.8252
▁lebensweise	-11.8253
▁char	-11.8254
▁schlauer	-11.8255
liegende	-11.8255
▁computerspiele	-11.8255
▁übermittel	-11.8257
▁bekomm	-11.8257
▁iranische	-11.8258
effizienz	-11.8259
▁source	-11.826
▁fingern	-11.8261
▁verfasst	-11.8267
▁warnung	-11.8269
▁herzens	-11.8274
▁webseiten	-11.8278
unterschied	-11.8284
▁sinnlos	-11.8291
▁löste	-11.8291
▁plant	-11.8291
▁sprech	-11.8293
▁evan	-11.8293
mitglied	-11.8294
▁akteur	-11.8297
▁entsetzlich	-11.8301
▁enthüllt	-11.8303
▁nass	-11.8304
▁nasen	-11.8307
▁kostete	-11.8307
▁mächtigste	-11.8309
▁impulse	-11.8314
force	-11.8314
▁veranstalte	-11.8315
▁veranlasst	-11.8321
erregend	-11.8323
▁chromosomen	-11.8329
tank	-11.833
ammen	-11.833
ington	-11.8332
▁ehr	-11.8333
▁denker	-11.834
fan	-11.834
▁erwarte	-11.8343
▁misch	-11.8348
häusern	-11.8349
▁trennt	-11.835
▁emotion	-11.8352
scheu	-11.8354
▁white	-11.8354
▁erwartung	-11.8354
▁soldat	-11.8356
▁verträge	-11.8359
▁billion	-11.8359
▁robust	-11.8359
▁verursachte	-11.8368
▁iraner	-11.8368
fügen	-11.8369
▁anlegen	-11.8369
▁israeli	-11.8372
▁kognitiv	-11.8374
▁biologischer	-11.8378
▁sauberer	-11.8379
▁differenzier	-11.8379
▁shir	-11.8379
▁generiert	-11.838
dimensionen	-11.8381
isierte	-11.8385
▁wettbewerbs	-11.8385
▁pin	-11.8393
übergreifende	-11.8396
▁visueller	-11.8402
any	-11.8409
kern	-11.8413
▁beschleunigung	-11.8417
▁urheberrecht	-11.8423
mlich	-11.8428
▁notizen	-11.8432
▁gebot	-11.8433
verletzungen	-11.8434
duk	-11.8443
nett	-11.8445
▁urban	-11.8447
bär	-11.8449
▁leitete	-11.8449
▁heimlich	-11.8452
erte	-11.8452
▁neo	-11.8452
fertig	-11.8454
▁steil	-11.8455
▁scan	-11.846
perspektive	-11.8462
▁flexible	-11.8463
▁flecken	-11.8468
glied	-11.8473
stadium	-11.8476
▁simuliert	-11.849
anzug	-11.8496
stimmung	-11.8499
vögel	-11.85
▁bedingt	-11.8501
drehung	-11.8502
▁beruhigen	-11.8503
geworfen	-11.8506
▁verdräng	-11.8509
säure	-11.851
paket	-11.851
wood	-11.851
service	-11.8511
restaurant	-11.8511
wunsch	-11.8511
bäume	-11.8511
helfen	-11.8511
kammer	-11.8511
umgebung	-11.8512
profil	-11.8513
ibera	-11.8513
▁immun	-11.8515
rauch	-11.8515
geleitet	-11.8518
ord	-11.8519
▁beheb	-11.8522
osphäre	-11.8522
uß	-11.8525
frau	-11.8525
▁überraschen	-11.8526
antrieb	-11.8526
▁trockene	-11.8527
▁olymp	-11.8528
▁berichte	-11.8528
stisch	-11.8531
▁glüh	-11.8533
▁spektakuläre	-11.8535
flaschen	-11.8537
wesenheit	-11.8539
abend	-11.8541
▁len	-11.8543
▁jean	-11.8545
▁bea	-11.8546
▁bühnen	-11.8547
back	-11.8549
▁korallenriffe	-11.855
kali	-11.855
▁sta	-11.8552
▁ruhige	-11.8552
▁steril	-11.8555
▁mil	-11.8557
▁ali	-11.8558
ryl	-11.856
▁barbar	-11.856
▁fettleibig	-11.8563
,3	-11.8563
oxid	-11.8565
▁vermisch	-11.8565
▁mount	-11.8565
=	-11.8565
engineering	-11.8565
▁alaska	-11.8565
▁beseitigt	-11.8565
▁brasilianische	-11.8565
▁deprimiert	-11.8565
▁dylan	-11.8565
▁explodieren	-11.8565
▁fluktuation	-11.8565
▁hamburger	-11.8565
▁himalaya	-11.8565
▁katholische	-11.8565
▁klüger	-11.8565
▁kühn	-11.8565
▁meditation	-11.8565
▁neandertaler	-11.8565
▁oktopus	-11.8565
▁portugal	-11.8565
▁resonanz	-11.8565
▁supraleiter	-11.8565
▁therapeut	-11.8565
▁unvermeidbar	-11.8565
▁ushahidi	-11.8565
▁zensur	-11.8565
▁historiker	-11.8565
▁kupfer	-11.8565
▁vermutung	-11.8565
äugige	-11.8565
▁klient	-11.8565
▁mythen	-11.8565
▁nutzlos	-11.8565
▁knall	-11.8565
▁vereinfachen	-11.8565
▁blutgefäße	-11.8565
▁brooklyn	-11.8565
▁aims	-11.8565
▁einverstande	-11.8565
▁biolumineszenz	-11.8565
▁maßstäbe	-11.8566
▁franzose	-11.8566
qaida	-11.8566
▁seriös	-11.8566
▁kooperieren	-11.8566
▁superheld	-11.8566
▁larven	-11.8566
▁begangen	-11.8566
▁transition	-11.8566
▁akademiker	-11.8566
▁keith	-11.8566
▁wilson	-11.8566
zucht	-11.8566
▁lehrplan	-11.8566
▁1,3	-11.8566
▁pendel	-11.8566
▁erweiterte	-11.8567
▁bekämpft	-11.8568
▁exotische	-11.8568
▁zack	-11.8568
▁east	-11.8568
▁lichtjahre	-11.8569
▁180	-11.8569
▁ästhetische	-11.857
grenzen	-11.857
▁zehntel	-11.8571
▁kahl	-11.8571
round	-11.8571
▁textil	-11.8572
▁ausgeglichen	-11.8572
▁checkliste	-11.8572
▁staunen	-11.8572
▁rena	-11.8572
▁eröffnung	-11.8573
▁doug	-11.8573
▁klimaanlage	-11.8573
▁handschrift	-11.8573
▁abgeschnitten	-11.8573
▁ewigkeit	-11.8573
▁meta	-11.8573
▁hunderttausend	-11.8574
▁schmuck	-11.8574
sharing	-11.8575
▁digitalisier	-11.8576
▁tabu	-11.8576
▁lächelt	-11.8576
▁winde	-11.8577
▁185	-11.8577
▁authenti	-11.8578
meldung	-11.8578
▁banal	-11.8579
▁kalender	-11.8579
▁wäsche	-11.858
▁tai	-11.8581
▁assistent	-11.8581
▁volt	-11.8581
▁talentierte	-11.8582
▁bewertet	-11.8582
out	-11.8582
▁abfolge	-11.8582
▁studentin	-11.8584
▁sensorische	-11.8584
▁weiche	-11.8585
▁kosmo	-11.8585
willig	-11.8586
▁deutet	-11.8587
▁beobachter	-11.8587
▁ruiniert	-11.8587
▁magnetfeld	-11.8588
▁umwandlung	-11.8588
vielversprechend	-11.8588
▁vorsicht	-11.8591
▁unterdrücken	-11.8591
▁verschwend	-11.8594
▁kleid	-11.8595
▁speise	-11.8595
▁ausbreitet	-11.8597
▁steigerung	-11.8599
▁positiver	-11.8599
▁gelegen	-11.8602
rücken	-11.8603
kündigt	-11.8603
▁prozessor	-11.8605
▁erzogen	-11.861
▁seg	-11.8613
▁unterscheidung	-11.8613
▁spritze	-11.8614
▁angehalten	-11.8614
▁vorhersehbar	-11.8618
▁neil	-11.862
▁stadium	-11.8621
▁steuerung	-11.8622
▁aufgeteilt	-11.8623
verfahren	-11.8625
▁täusche	-11.8626
shop	-11.8628
▁sauer	-11.8631
▁geschnitten	-11.8633
jing	-11.8634
▁gange	-11.8636
▁verkörpert	-11.864
zieren	-11.8644
meisterschaft	-11.8649
▁essenz	-11.865
▁aufspür	-11.8653
▁angreifen	-11.8654
▁kasten	-11.8656
▁kontinente	-11.866
▁sichtbare	-11.866
▁haushalte	-11.866
▁längst	-11.8669
▁unmittelbare	-11.867
▁unterbrech	-11.8673
prize	-11.8674
ody	-11.8681
▁eimer	-11.8684
▁landesweit	-11.8685
zähler	-11.8685
▁nachkommen	-11.869
▁männlich	-11.869
sproblem	-11.869
▁atemberaubend	-11.8695
▁willkürlich	-11.8701
▁ash	-11.8704
wertet	-11.871
▁flossen	-11.8715
▁freisetz	-11.8717
▁ya	-11.8718
seitige	-11.8718
▁berichtete	-11.8718
▁64	-11.8718
▁wanderte	-11.8721
▁mur	-11.8724
listen	-11.8727
techniken	-11.8728
▁diagramme	-11.8728
▁herunterlade	-11.8735
▁lampen	-11.8741
▁konservativen	-11.8748
▁data	-11.8751
nutzen	-11.8751
▁antreib	-11.8755
gedr	-11.8757
▁magen	-11.8758
staaten	-11.8762
stat	-11.8762
▁einschalt	-11.8763
▁pillen	-11.8766
▁zeitungs	-11.8775
▁weck	-11.8776
▁strategische	-11.8777
▁whit	-11.8781
gerie	-11.8783
▁zoo	-11.8785
▁riskier	-11.8787
hlen	-11.879
▁thunfische	-11.8791
▁erschreckend	-11.8794
probe	-11.8794
▁vertikal	-11.8797
▁nütz	-11.8797
elli	-11.8803
flasche	-11.8807
schicken	-11.8819
▁interviewt	-11.8819
▁weitest	-11.882
▁mahlzeiten	-11.8821
▁elefant	-11.8821
▁kleben	-11.8824
▁installier	-11.8826
▁geolog	-11.8829
▁enthüll	-11.883
▁elegante	-11.8837
▁chromosom	-11.8844
▁140	-11.8845
strecken	-11.8847
ola	-11.8849
▁akte	-11.8853
▁weggehen	-11.8853
▁befehle	-11.8862
▁image	-11.8864
▁125	-11.8871
▁grösste	-11.8872
messen	-11.8878
gelöst	-11.8886
▁mitgefühls	-11.8886
▁fürchtet	-11.8887
operieren	-11.889
▁chips	-11.8894
zählen	-11.8895
▁herkomm	-11.8902
streben	-11.8902
reisen	-11.8906
▁pfeil	-11.8907
▁dave	-11.8909
▁com	-11.8912
gespräch	-11.8913
right	-11.8916
▁früheste	-11.8917
dan	-11.8919
▁moskitonetze	-11.8922
stecken	-11.8924
strafe	-11.8927
fordert	-11.8933
llas	-11.8935
▁robotern	-11.8935
iti	-11.8935
erfassung	-11.8937
▁verwaltung	-11.8939
▁15-	-11.8945
▁rasen	-11.8945
▁arktis	-11.8946
gehalten	-11.8948
ware	-11.8953
▁tragisch	-11.8958
lern	-11.8962
plätze	-11.8964
tödliche	-11.8965
plattform	-11.8966
schüler	-11.8966
medien	-11.8966
niveau	-11.8966
neigung	-11.8966
eigenschaft	-11.8967
verlauf	-11.8972
▁präsent	-11.8972
▁physiologi	-11.8975
▁sensib	-11.8977
▁überwältigende	-11.898
stufen	-11.8986
angriff	-11.8995
▁schwa	-11.8996
▁hinterfrag	-11.9002
▁laur	-11.9006
▁enthusias	-11.9012
▁expo	-11.9014
trunken	-11.9017
▁bruc	-11.9018
kandidat	-11.9019
▁kondom	-11.9019
▁beerdigung	-11.902
▁illustrier	-11.902
▁membran	-11.902
▁schoß	-11.902
▁verheerend	-11.902
schmuggel	-11.902
stündige	-11.902
▁anekdote	-11.902
▁carnegie	-11.902
▁dänemark	-11.902
▁fortwährend	-11.902
▁happy	-11.902
▁hawking	-11.902
▁hubschrauber	-11.902
▁ignoran	-11.902
▁kapitän	-11.902
▁schmecken	-11.902
▁sämtliche	-11.902
▁taiwan	-11.902
▁tasmanische	-11.902
▁testosteron	-11.902
▁teszler	-11.902
▁tropische	-11.902
▁verärgert	-11.902
▁widersprüchlich	-11.902
▁afro	-11.902
▁cooper	-11.902
▁improvisation	-11.902
splitte	-11.902
▁nächte	-11.902
▁neigt	-11.902
▁bmw	-11.902
▁blutgefässe	-11.902
▁graham	-11.902
▁überwiegend	-11.902
▁irrtum	-11.902
▁südasien	-11.902
▁atombombe	-11.902
▁überlegung	-11.902
▁jetzige	-11.902
▁margar	-11.902
▁nordwest	-11.902
▁rückmeldung	-11.902
▁einzelperson	-11.902
▁ausgedacht	-11.902
▁gouverneur	-11.902
▁hummel	-11.902
▁wohnwagen	-11.9021
▁zaun	-11.9021
▁vorbehalt	-11.9021
▁leone	-11.9021
▁superstar	-11.9021
fieber	-11.9021
▁tami	-11.9021
▁good	-11.9021
▁übertrieben	-11.9021
▁begehren	-11.9021
▁zweitgrößte	-11.9021
sequenzierung	-11.9022
▁fixiert	-11.9022
▁nichol	-11.9022
▁blutdruck	-11.9022
▁langlebigkeit	-11.9022
▁bedanke	-11.9023
▁ostafrika	-11.9023
▁betriebs	-11.9023
▁fortpflanzung	-11.9023
▁verdanke	-11.9023
▁beliebteste	-11.9023
drohne	-11.9023
▁funktionsweise	-11.9023
▁santa	-11.9024
▁ausbreitung	-11.9024
▁zeuge	-11.9024
▁paradi	-11.9024
▁lichtstrahl	-11.9024
▁peng	-11.9024
▁97	-11.9025
▁flexibel	-11.9025
▁stick	-11.9025
▁zurückkehrt	-11.9025
▁wiki	-11.9026
▁handfläche	-11.9026
▁lila	-11.9026
▁pipeline	-11.9026
▁dreißig	-11.9026
▁86	-11.9027
▁verzerrung	-11.9027
▁emil	-11.9027
▁juan	-11.9028
▁enzyklopädie	-11.9029
▁kompetenz	-11.9029
▁schleim	-11.9029
sträger	-11.9029
awkins	-11.9029
▁lautsprecher	-11.9029
▁betrat	-11.903
▁rechteck	-11.903
▁erworben	-11.9031
▁mental	-11.9031
▁sudan	-11.9032
▁hindu	-11.9032
▁hosen	-11.9033
▁produktive	-11.9033
▁drängt	-11.9033
▁rasier	-11.9035
▁52	-11.9035
▁hemm	-11.9035
▁rassis	-11.9036
▁12-	-11.9036
▁kompliziertes	-11.9037
eckt	-11.9037
▁cia	-11.9037
▁kraftstoff	-11.9038
ronto	-11.9039
▁cluster	-11.9039
▁kaninchen	-11.9039
▁kiefer	-11.9039
geschickt	-11.904
▁einzelteile	-11.904
▁server	-11.904
▁egoistisch	-11.904
▁signatur	-11.9042
▁gründung	-11.9042
▁herrschen	-11.9042
▁andern	-11.9043
▁antwortet	-11.9043
hak	-11.9043
▁untergrund	-11.9043
▁einzelheit	-11.9047
▁abgrund	-11.9048
zulerne	-11.9049
leiten	-11.905
▁rinder	-11.9051
armstrong	-11.9052
abdruck	-11.9054
▁datensatz	-11.9054
▁improvisieren	-11.9056
▁anguck	-11.9057
▁verbündete	-11.9057
▁verteidig	-11.9059
▁vereinbar	-11.9059
▁vernünftig	-11.906
▁hervorheb	-11.9061
▁zehntausend	-11.9062
▁schmutzige	-11.9063
▁senioren	-11.9065
400	-11.9066
▁süchtig	-11.9066
▁toleranz	-11.9068
wich	-11.9068
rzeit	-11.9069
▁verblüfft	-11.907
fest	-11.9072
▁rechtliche	-11.9074
▁unterschätz	-11.9074
▁stab	-11.9078
▁vorführung	-11.9079
▁lob	-11.908
▁aufstände	-11.908
▁spreng	-11.9081
▁bettel	-11.9083
streif	-11.9083
▁glänzend	-11.9084
▁ernährt	-11.909
▁speer	-11.9093
▁zeig	-11.9096
glichkeit	-11.9097
▁erstaunlichste	-11.9099
▁duft	-11.9103
▁luth	-11.9104
▁versammel	-11.9104
▁noa	-11.9104
▁computers	-11.9108
▁stop	-11.9109
▁angerufen	-11.9112
▁maler	-11.9113
▁gedeihen	-11.9117
▁blickt	-11.9119
▁empfehlen	-11.9119
▁sonde	-11.912
▁parasiten	-11.9122
▁ketten	-11.9126
▁weitergehen	-11.9127
▁radiolog	-11.9132
▁ableg	-11.9132
▁bade	-11.9135
▁make	-11.9137
▁betrachtete	-11.9141
▁enc	-11.9143
▁schrecken	-11.9144
▁anordnung	-11.9147
▁full	-11.9148
▁busse	-11.9151
▁hinschau	-11.9156
▁stell	-11.9159
▁kamele	-11.916
▁populär	-11.9167
▁netter	-11.9172
▁synchron	-11.9173
▁format	-11.9174
▁sanfte	-11.9178
▁sorgte	-11.9182
massen	-11.9183
▁lebhafte	-11.9183
▁ao	-11.9189
▁soc	-11.9203
▁gegenstück	-11.9212
schwer	-11.9212
▁bestehend	-11.9223
▁lachte	-11.9225
lied	-11.9227
▁zeitschriften	-11.9227
▁zig	-11.9229
ahl	-11.923
▁nu	-11.9237
schläge	-11.9239
▁aufstand	-11.9242
▁gast	-11.925
▁entwicklungen	-11.925
▁et	-11.9251
▁konkret	-11.9253
füllt	-11.9253
chus	-11.9259
▁geschlossene	-11.9259
blätter	-11.926
▁abstrakt	-11.9261
▁besieg	-11.9263
fische	-11.9264
▁intellektuell	-11.9264
▁teleskope	-11.9264
basiert	-11.9266
▁hilflos	-11.9267
nsas	-11.9267
▁fehlte	-11.9268
bru	-11.9271
▁irr	-11.9274
▁elegant	-11.9275
hielt	-11.9281
▁ass	-11.9286
▁asteroid	-11.9286
farbe	-11.9287
platte	-11.9287
▁angemessene	-11.9288
sbereich	-11.9289
ano	-11.929
▁besprech	-11.9292
▁versicherungs	-11.9293
▁freud	-11.9296
▁belohnen	-11.9301
▁allererst	-11.9306
eans	-11.9308
menschliche	-11.9318
▁3-	-11.932
▁ringe	-11.9322
▁zeitschrift	-11.9323
▁umkreis	-11.9323
▁delphin	-11.9325
▁sensor	-11.933
▁160	-11.9332
▁verspreche	-11.9333
▁nötige	-11.9339
▁protozelle	-11.934
hundert	-11.934
▁zugegeben	-11.9344
▁zufälle	-11.9347
▁verkaufs	-11.9349
▁konkurrieren	-11.9353
▁säule	-11.9353
sministerium	-11.9356
▁röhre	-11.9363
▁funktional	-11.9363
▁autoritäre	-11.9364
▁börse	-11.9364
▁britis	-11.9367
▁wunde	-11.9372
▁schaffe	-11.9372
merk	-11.9374
▁luc	-11.9379
▁umsatz	-11.938
▁sinnvolle	-11.9392
▁nachhaltiger	-11.9394
messung	-11.9399
▁handwerk	-11.9403
▁begriffe	-11.9404
fordern	-11.9405
▁strahlen	-11.9405
gestalt	-11.9407
▁verabreich	-11.9409
besitz	-11.9411
fuß	-11.9417
stütze	-11.9419
▁stämmen	-11.9419
▁hierzu	-11.942
alor	-11.9421
▁blende	-11.9421
▁amateur	-11.9425
chef	-11.9428
werkzeug	-11.9433
zehn	-11.9436
▁verg	-11.9436
board	-11.9436
kleid	-11.9437
äfen	-11.9438
leuchtet	-11.9438
automat	-11.944
▁angenehme	-11.944
schleife	-11.944
bewohner	-11.9441
allererst	-11.9441
hersteller	-11.9441
kapazität	-11.9442
heiz	-11.9442
bürger	-11.9442
training	-11.9442
kanäle	-11.9442
büro	-11.9442
party	-11.9442
software	-11.9442
kostet	-11.9443
ausbildung	-11.9444
▁mutige	-11.9448
▁explodierte	-11.9448
▁zustande	-11.9449
tumor	-11.945
▁spiegelt	-11.9451
talk	-11.9451
▁elektrisch	-11.9456
▁herausstellte	-11.9462
▁kreation	-11.9467
deckung	-11.9468
schub	-11.9469
binden	-11.9471
▁spektrums	-11.9471
anstalt	-11.9473
▁kennenlern	-11.9474
mond	-11.9474
▁kraftvolle	-11.9474
▁fil	-11.9475
smittel	-11.9477
aufgaben	-11.9478
itten	-11.9479
how	-11.9482
▁gefäß	-11.9483
▁genoms	-11.9484
▁interessanteste	-11.9488
▁anpassungsfähig	-11.9489
waffen	-11.9492
▁langlebig	-11.9493
schüchter	-11.9495
▁atomen	-11.9495
▁astronaut	-11.9496
▁malediv	-11.9496
minütige	-11.9496
▁akustik	-11.9496
▁akzeptanz	-11.9496
▁asphalt	-11.9496
▁auswendig	-11.9496
▁butter	-11.9496
▁edinburgh	-11.9496
▁fibonacci	-11.9496
▁grönland	-11.9496
▁horror	-11.9496
▁hüte	-11.9496
▁immobilien	-11.9496
▁intrinsisch	-11.9496
▁jacque	-11.9496
▁kathedrale	-11.9496
▁knochenmark	-11.9496
▁köstlich	-11.9496
▁migräne	-11.9496
▁oecd	-11.9496
▁princeton	-11.9496
▁projiziert	-11.9496
▁raffinierte	-11.9496
▁reibung	-11.9496
▁resistent	-11.9496
▁räuber	-11.9496
▁sediment	-11.9496
▁silikon	-11.9496
▁tweet	-11.9496
▁unterdrückung	-11.9496
▁unvermeidlich	-11.9496
▁zeitraffer	-11.9496
▁zipcar	-11.9496
▁äquivalent	-11.9496
fiction	-11.9496
▁befreiung	-11.9496
▁bosnien	-11.9496
▁erstreckt	-11.9496
▁ärztin	-11.9496
▁wiederholung	-11.9496
▁verstreut	-11.9496
▁kommuniziert	-11.9496
▁romantik	-11.9496
▁ideologisch	-11.9496
▁übereinstimmen	-11.9496
▁geehrt	-11.9496
▁unbegrenzt	-11.9496
▁simon	-11.9496
▁gratis	-11.9496
▁korrelation	-11.9496
▁erlitt	-11.9496
▁lakota	-11.9496
▁bloss	-11.9496
▁mysterium	-11.9496
▁philanthropie	-11.9496
▁orgasmus	-11.9496
▁entgegengesetzt	-11.9496
▁hürde	-11.9497
▁fitness	-11.9497
▁westküste	-11.9497
▁ipad	-11.9497
▁fußgänger	-11.9497
▁norwegen	-11.9497
▁1930	-11.9497
▁nepal	-11.9497
▁geriet	-11.9497
▁stammbaum	-11.9497
▁verlässlich	-11.9497
▁eisbär	-11.9497
▁regenwasser	-11.9497
▁asiatische	-11.9498
▁sequenzier	-11.9498
▁sprichwort	-11.9498
▁festgehalten	-11.9498
▁titanic	-11.9498
▁villa	-11.9498
▁geometrische	-11.9498
▁senf	-11.9498
▁christus	-11.9498
▁frühjahr	-11.9499
▁äste	-11.9499
▁bedacht	-11.9499
▁selbstvertrauen	-11.9499
▁verschob	-11.9499
foot	-11.9499
▁betrunken	-11.9499
▁clay	-11.9499
▁norman	-11.95
▁synästhesi	-11.95
yves	-11.95
▁kult	-11.95
▁wehr	-11.95
▁stürme	-11.95
▁walter	-11.9501
▁kanadische	-11.9501
▁kran	-11.9501
▁waage	-11.9501
▁jura	-11.9502
▁teilchenphysik	-11.9502
▁herzschlag	-11.9503
▁subjektiv	-11.9503
▁kiri	-11.9503
▁aufklärung	-11.9504
▁realistisch	-11.9504
fly	-11.9505
▁beachtet	-11.9506
▁monsun	-11.9506
una	-11.9506
▁waisen	-11.9508
▁zittern	-11.9508
▁gesetzes	-11.9509
▁hammer	-11.9512
▁kündigte	-11.9512
▁plakat	-11.9514
▁charakteristik	-11.9514
▁kehrt	-11.9514
▁atmet	-11.9515
▁koreanisch	-11.9515
▁gemalt	-11.9515
▁blogger	-11.9516
▁herauskam	-11.9516
▁schrittweise	-11.9516
▁vorschläge	-11.9519
▁auszeichnung	-11.9523
▁orientierung	-11.9524
▁unterbrechung	-11.9525
▁gallone	-11.9526
beine	-11.9526
▁interessantere	-11.9527
▁aro	-11.9528
▁leib	-11.9529
▁friss	-11.9532
▁100-	-11.9534
▁begrüßen	-11.9534
▁puppen	-11.9535
▁bereitschaft	-11.9535
▁spar	-11.9535
api	-11.9537
▁cnn	-11.9537
▁weide	-11.9538
▁gesteckt	-11.9541
▁genauigkeit	-11.9542
▁begeistern	-11.9543
▁ahnen	-11.9544
▁pfleger	-11.9548
tauchen	-11.9549
▁transplantation	-11.9549
▁900	-11.955
gua	-11.9552
▁menschenmenge	-11.9552
▁regelrecht	-11.9556
▁bastel	-11.9556
▁vorurteile	-11.9557
▁paket	-11.9557
▁demokratisch	-11.9558
▁verzerrt	-11.9559
▁gewaltlose	-11.9559
▁44	-11.956
▁konn	-11.9561
infektionen	-11.9561
▁widersteh	-11.957
▁angreif	-11.9573
▁q	-11.9576
▁ausbeut	-11.9577
▁krabben	-11.9577
gewerbe	-11.9585
kante	-11.9586
▁dom	-11.9586
freiheit	-11.9589
trogen	-11.9597
▁med	-11.9599
▁mul	-11.9602
gehend	-11.9605
▁schuss	-11.9607
gehalt	-11.9612
▁materials	-11.9613
▁energiequelle	-11.9615
▁unvorstellbar	-11.9615
▁bereitstell	-11.9621
▁jon	-11.9624
▁ansteigen	-11.9625
▁gh	-11.9626
▁evolutionär	-11.963
▁verweiger	-11.9635
▁lehnte	-11.9637
▁50-	-11.9641
▁williams	-11.9642
▁demokratisier	-11.9645
▁erhältlich	-11.9648
sform	-11.9654
▁anschließen	-11.966
oid	-11.9661
▁museums	-11.9661
▁ansätze	-11.9662
▁lan	-11.9662
▁ablaufen	-11.9664
▁prim	-11.9664
▁vernachlässigt	-11.9665
▁italienische	-11.9669
▁ausgeführt	-11.9669
ute	-11.967
▁delphine	-11.967
▁überlegte	-11.9671
▁cla	-11.9678
sichtig	-11.9686
▁geheimnisvoll	-11.9686
zeichnung	-11.9687
▁übt	-11.969
▁cu	-11.9693
▁rang	-11.9696
▁marc	-11.9697
mensch	-11.9701
ix	-11.9704
etts	-11.9705
ides	-11.9705
grat	-11.9712
ivilgesellschaft	-11.9715
▁ec	-11.9719
▁leuchtende	-11.9724
▁hofft	-11.9724
fort	-11.9726
sparen	-11.9728
▁bleib	-11.9728
▁dosi	-11.9731
▁trinkt	-11.9732
▁nehm	-11.9735
kontroll	-11.9739
▁zusammenarbeite	-11.9742
▁vernetz	-11.9742
schwimmen	-11.9743
▁mittelalter	-11.9744
stau	-11.9747
▁scheiben	-11.9749
▁anhört	-11.975
▁reservat	-11.9753
versicherung	-11.9754
▁down	-11.9757
▁quadrate	-11.9758
▁respektiert	-11.9759
▁stan	-11.9762
▁mind	-11.9767
▁schiffs	-11.9773
▁50.	-11.9773
▁unternahm	-11.9779
▁erfinde	-11.9785
lampe	-11.9792
▁erleide	-11.9796
▁starren	-11.9799
yle	-11.9807
▁rettete	-11.9811
alisiert	-11.9812
reform	-11.9813
▁wett	-11.9815
fäde	-11.9824
aka	-11.9825
lebe	-11.9826
melde	-11.9833
▁dauerhafte	-11.9834
▁pflegen	-11.9835
▁gau	-11.9835
▁krieger	-11.9838
▁erneuer	-11.9838
▁lacht	-11.9838
▁tabelle	-11.9838
▁erstellte	-11.9845
▁stecke	-11.9845
▁müsse	-11.9845
guru	-11.9846
▁schicke	-11.9847
▁lauten	-11.9853
▁becken	-11.9857
▁experimentiert	-11.9859
▁endgültige	-11.9861
delt	-11.9866
▁spazieren	-11.9871
nommen	-11.9871
▁schlechteste	-11.9875
▁hing	-11.988
▁spektakulär	-11.988
▁radi	-11.9884
dauer	-11.9886
▁melde	-11.9889
bwe	-11.9893
▁listen	-11.9893
fund	-11.9902
▁berühmteste	-11.9908
▁artefakte	-11.9912
▁pestizide	-11.9912
▁ausrede	-11.9912
reaktor	-11.9913
dimensional	-11.9916
▁erheb	-11.9918
▁bursche	-11.9919
▁wei	-11.9922
▁szenen	-11.9924
jahre	-11.9931
minister	-11.9934
röhren	-11.9936
▁leugn	-11.9936
▁verkünde	-11.9937
würdig	-11.9938
kapsel	-11.994
▁gewöhn	-11.994
furcht	-11.9941
transplantation	-11.9941
studium	-11.9941
brille	-11.9941
algorithm	-11.9942
nummer	-11.9942
spezifische	-11.9942
erlebnis	-11.9942
persönlichkeit	-11.9942
diagramm	-11.9942
ameisen	-11.9942
sozial	-11.9942
abschluss	-11.9942
vortrag	-11.9944
morgen	-11.9944
korn	-11.9945
dorf	-11.9946
▁verlieb	-11.9946
fahr	-11.9947
stiftung	-11.9952
tour	-11.9955
center	-11.9955
erry	-11.9957
▁anrufe	-11.996
will	-11.996
▁christ	-11.9964
hing	-11.9965
türme	-11.9965
▁medica	-11.9968
fassung	-11.997
▁alarm	-11.9979
▁demütig	-11.9981
60	-11.9982
flo	-11.9983
▁überzeugend	-11.9983
▁plankton	-11.9986
▁herbei	-11.9987
stab	-11.9991
vermögen	-11.9993
gy	-11.9994
▁rhythm	-11.9994
flüster	-11.9994
▁bruttoinlands	-11.9996
▁nicole	-11.9996
▁pünktlich	-11.9996
▁analphabet	-11.9996
▁bambus	-11.9996
▁barack	-11.9996
▁basketball	-11.9996
▁bhutan	-11.9996
▁buckelwal	-11.9996
▁cassini	-11.9996
▁demografische	-11.9996
▁gekennzeichnet	-11.9996
▁gestört	-11.9996
▁interagiert	-11.9996
▁isolation	-11.9996
▁klebte	-11.9996
▁moslem	-11.9996
▁mythologie	-11.9996
▁oberflächlich	-11.9996
▁philadelphia	-11.9996
▁phtalate	-11.9996
▁prozedur	-11.9996
▁präfrontale	-11.9996
▁präzision	-11.9996
▁psyche	-11.9996
▁quantifizier	-11.9996
▁resultiert	-11.9996
▁serotonin	-11.9996
▁tropen	-11.9996
▁tuberkulose	-11.9996
▁unausweichlich	-11.9996
▁venezuela	-11.9996
▁abstammung	-11.9996
▁familienplanung	-11.9996
▁samstag	-11.9996
▁ungemein	-11.9996
▁ziffer	-11.9996
▁color	-11.9996
▁ruhm	-11.9996
▁synthese	-11.9996
▁beschützt	-11.9996
▁nutzbar	-11.9996
▁verbleibende	-11.9996
▁beschweren	-11.9996
▁desaster	-11.9996
▁übereinstimmung	-11.9996
murray	-11.9996
▁ränder	-11.9996
▁tennis	-11.9996
▁beschissen	-11.9996
▁edward	-11.9996
▁nordost	-11.9996
palästinensische	-11.9996
▁belastbar	-11.9996
▁schwellenländer	-11.9996
▁ermunter	-11.9996
▁linux	-11.9996
▁klippe	-11.9996
▁parabel	-11.9997
▁highway	-11.9997
▁süßwasser	-11.9997
▁mittelmeer	-11.9997
▁stink	-11.9997
▁grace	-11.9997
▁eisenbahn	-11.9997
▁entwürfe	-11.9997
▁nerd	-11.9997
▁dokumentation	-11.9997
▁einheimische	-11.9997
▁bekäme	-11.9997
▁bestreite	-11.9997
▁laune	-11.9998
sichtsausdrücke	-11.9998
▁riskant	-11.9998
▁nationalpark	-11.9998
▁graphik	-11.9998
▁3,5	-11.9998
▁hüpfen	-11.9998
▁diana	-11.9998
▁geographisch	-11.9999
▁angelang	-11.9999
▁schwitz	-11.9999
lly	-12
▁abkürzung	-12
▁überreste	-12
ctus	-12
▁eisberg	-12.0001
atraz	-12.0001
▁genuss	-12.0003
▁beleuchtet	-12.0003
▁betriebssystem	-12.0003
kunde	-12.0003
▁gelten	-12.0005
▁dünger	-12.0005
▁moma	-12.0006
▁gespart	-12.0006
▁einkaufszentr	-12.0006
▁pinsel	-12.0006
▁58	-12.0008
▁gefährt	-12.0009
▁aquari	-12.0009
▁ticket	-12.001
▁vergiss	-12.001
keln	-12.0011
▁laute	-12.0011
▁zukünftig	-12.0011
▁wegnehmen	-12.0012
▁verabschiedet	-12.0012
▁passende	-12.0013
süber	-12.0013
▁lol	-12.0013
▁ausgesucht	-12.0014
▁schrank	-12.0015
▁rebe	-12.0015
▁schwarm	-12.0015
▁kartier	-12.0016
▁andy	-12.0016
▁getränke	-12.0016
▁spule	-12.0017
banis	-12.0017
▁vereinigung	-12.0017
▁besetzt	-12.0019
▁surfe	-12.0019
▁marsch	-12.002
controller	-12.002
rdon	-12.002
nobelpreisträger	-12.0021
▁tankstelle	-12.0024
▁event	-12.0025
▁verschiebung	-12.0026
▁haustiere	-12.0026
▁vega	-12.0026
▁sony	-12.0027
▁kenntnisse	-12.0028
▁drama	-12.003
▁seife	-12.003
sorientierte	-12.003
▁improvisiert	-12.003
▁griechische	-12.0031
▁geologische	-12.0032
▁bemerkung	-12.0033
▁erfordern	-12.0034
lee	-12.0035
▁sandwich	-12.0038
▁verkäufer	-12.0038
▁widerleg	-12.0039
for	-12.004
▁spielzeuge	-12.0041
beispiel	-12.0041
kauf	-12.0041
herd	-12.0042
▁kunstwerke	-12.0043
ota	-12.0044
▁auffällig	-12.0044
▁vorzüge	-12.0044
▁takt	-12.0044
▁fesselnd	-12.0044
▁auszuwei	-12.0044
▁ehrgeizig	-12.0045
▁stürze	-12.0045
▁musikvideo	-12.0046
▁kerle	-12.0046
▁78	-12.0046
▁explodiert	-12.0046
▁erträge	-12.0047
stande	-12.0049
▁boote	-12.0051
transfer	-12.0052
▁wiegen	-12.0052
▁kurven	-12.0053
▁kopfschmerz	-12.0053
fra	-12.0056
▁kreisen	-12.0056
▁aneinander	-12.0058
lette	-12.0058
▁tempe	-12.0061
▁tb	-12.0063
▁leichen	-12.0065
ham	-12.0069
▁erfreut	-12.0069
▁fre	-12.0069
schüttet	-12.007
▁fünfzig	-12.0074
▁erobert	-12.0075
aufgabe	-12.0078
▁sass	-12.0082
book	-12.0084
▁unwohl	-12.0085
▁hochzu	-12.0085
▁händler	-12.0089
▁prothesen	-12.0089
▁hotels	-12.009
▁klappen	-12.0092
agnes	-12.0093
▁bali	-12.0093
▁entführt	-12.0097
eure	-12.0098
▁mak	-12.0099
alo	-12.0101
▁anblick	-12.0104
▁unglaublicher	-12.0109
▁bedeutendste	-12.0111
▁kerzen	-12.0115
stossen	-12.0116
▁jonglieren	-12.0116
▁mose	-12.0119
▁53	-12.0123
▁entsprechende	-12.0127
▁aufwachsen	-12.0128
▁missbraucht	-12.013
untergang	-12.0132
gurt	-12.0134
▁ente	-12.0134
▁kirchen	-12.0135
▁recherchiert	-12.0135
▁kürzeste	-12.0137
figuren	-12.0137
▁schwerpunkt	-12.0142
▁schäd	-12.0143
beugen	-12.0146
▁vorstellt	-12.0149
▁prima	-12.0149
sstörung	-12.015
sonderlich	-12.0154
fahrzeug	-12.0155
▁feine	-12.0158
▁zerstörte	-12.0161
▁mobil	-12.0162
▁protozellen	-12.0163
▁legal	-12.0164
▁reif	-12.0165
schneid	-12.0167
schutzgebiet	-12.0169
rwärmung	-12.017
läufig	-12.017
▁frag	-12.0171
▁grössten	-12.0171
▁fortfahre	-12.0173
▁freundes	-12.018
▁stärkere	-12.0189
bur	-12.0194
▁4,	-12.0196
▁zeilen	-12.0196
▁geschenkt	-12.0196
▁auswirk	-12.0196
▁kapier	-12.0199
▁poet	-12.02
▁großartigste	-12.0206
▁salat	-12.0215
dt	-12.0216
▁sequenziert	-12.0219
guck	-12.0221
▁konsumiert	-12.0227
▁fließend	-12.0228
▁füllt	-12.0234
▁kosmologi	-12.0246
ergebnisse	-12.0247
herstellung	-12.0249
bach	-12.0251
prinzip	-12.0251
zweck	-12.0255
▁etablier	-12.0261
▁entsetz	-12.0261
▁neuerung	-12.0263
▁base	-12.0265
▁ewige	-12.0267
▁bewundern	-12.0268
tree	-12.0269
▁verwechsel	-12.027
skala	-12.0272
sexy	-12.0274
rry	-12.0274
▁adresse	-12.0276
▁bemerkten	-12.0277
▁wachs	-12.0278
graphie	-12.0283
presse	-12.0287
element	-12.0289
▁kommerziell	-12.0291
▁bevorzugt	-12.0294
loh	-12.0298
▁hoffte	-12.0298
▁wähle	-12.0306
▁idiot	-12.0308
lehnen	-12.0308
kram	-12.0311
fang	-12.0316
▁erfolgt	-12.0316
▁akteure	-12.0316
▁rag	-12.0319
▁zusammenhänge	-12.0319
▁förder	-12.032
▁wendet	-12.0321
▁day	-12.0325
ladung	-12.0325
▁versicherung	-12.0327
▁streckt	-12.0328
▁besagte	-12.0328
▁sue	-12.0332
▁schokoladen	-12.0335
▁interpretiert	-12.0338
phon	-12.0339
▁vergleiche	-12.034
▁gegenübersteh	-12.034
getrieben	-12.0343
▁verlorene	-12.0344
▁aufnimm	-12.0345
▁modellier	-12.0346
entwickelt	-12.0351
▁bag	-12.0352
▁kisten	-12.0356
▁sara	-12.0359
▁bezahlbar	-12.0361
▁infolge	-12.0362
dämm	-12.0362
▁erkenne	-12.0366
▁erwähne	-12.0369
geschoss	-12.0373
sorgt	-12.0381
▁spielerisch	-12.0383
▁fünften	-12.0387
▁tru	-12.0393
anne	-12.04
tete	-12.0401
▁kont	-12.0403
zie	-12.0403
▁fraktale	-12.0412
orientierte	-12.0413
fä	-12.0414
▁sinnes	-12.0415
hnen	-12.042
▁durchführt	-12.0425
▁lampe	-12.0425
▁risse	-12.0433
ura	-12.0435
▁freizu	-12.0437
▁reichte	-12.0438
haupt	-12.0441
▁furcht	-12.0444
▁reformier	-12.0446
▁rettungs	-12.0448
▁taube	-12.045
▁hirns	-12.045
prüfung	-12.0454
▁schleuder	-12.0457
▁zeiträume	-12.0462
▁reinigen	-12.0462
▁professionell	-12.0463
schrecken	-12.0463
kiste	-12.0464
konflikt	-12.0464
▁verschick	-12.0466
beamte	-12.0466
toleranz	-12.0467
standard	-12.0467
▁niedrigste	-12.0467
brems	-12.0468
impfstoff	-12.0468
veranstaltung	-12.0468
▁orientiert	-12.0468
fenster	-12.0468
milch	-12.0468
atmosphäre	-12.0468
basis	-12.047
kuchen	-12.0471
gefertigt	-12.0471
mangel	-12.0472
behör	-12.0475
gesteuerte	-12.0476
salz	-12.0478
▁glass	-12.0478
stoppt	-12.048
▁schmutzig	-12.0482
▁äußert	-12.0484
ical	-12.0488
▁leo	-12.0488
trotz	-12.0488
▁zorn	-12.0489
▁zweidimensional	-12.0489
strich	-12.0489
brücke	-12.0491
▁erhalte	-12.0494
▁gelder	-12.0494
▁bra	-12.0495
umweltfreundlich	-12.0496
angst	-12.0499
erbt	-12.0502
▁klopf	-12.0503
▁entzieh	-12.0507
▁kritik	-12.0511
betriebene	-12.0515
▁amts	-12.0516
▁öko	-12.0518
plin	-12.0518
kriegen	-12.0519
wusst	-12.052
genau	-12.052
ektivität	-12.0522
▁bäcker	-12.0522
▁adoption	-12.0522
▁akkord	-12.0522
▁ansässig	-12.0522
▁beethoven	-12.0522
▁bewahrt	-12.0522
▁bildhauer	-12.0522
▁elfenbein	-12.0522
▁elisabeth	-12.0522
▁fassade	-12.0522
▁gefälscht	-12.0522
▁gesegnet	-12.0522
▁gruselig	-12.0522
▁hungersnot	-12.0522
▁häuptling	-12.0522
▁insulinresisten	-12.0522
▁katrina	-12.0522
▁kopfhörer	-12.0522
▁linksliberale	-12.0522
▁lithium	-12.0522
▁nairobi	-12.0522
▁nektar	-12.0522
▁nonverbale	-12.0522
▁odysse	-12.0522
▁plünder	-12.0522
▁replikator	-12.0522
▁transplantier	-12.0522
▁ultraviolett	-12.0522
▁verfeiner	-12.0522
▁ärmer	-12.0522
▁ausdrückt	-12.0522
▁great	-12.0522
▁hitler	-12.0522
▁nichtsdesto	-12.0522
▁oscar	-12.0522
▁einfallsreich	-12.0522
▁lady	-12.0522
▁zitiert	-12.0522
▁windows	-12.0522
▁gäste	-12.0522
guinea	-12.0522
▁glaubwürdig	-12.0522
▁kulisse	-12.0522
▁prostatakrebs	-12.0522
▁verwurzelt	-12.0522
▁franc	-12.0522
▁hospital	-12.0522
▁neocortex	-12.0522
▁druckerpresse	-12.0523
▁hosentasche	-12.0523
▁fairness	-12.0523
▁ballast	-12.0523
▁flöten	-12.0523
▁venter	-12.0523
▁vermehrt	-12.0523
▁adapti	-12.0523
▁pubert	-12.0523
▁eindrucksvoll	-12.0523
▁maximier	-12.0523
▁echo	-12.0523
▁diverse	-12.0523
▁neurale	-12.0523
▁abstraktion	-12.0523
▁lieferkette	-12.0523
▁nachthimmel	-12.0523
eladu	-12.0523
▁markierung	-12.0523
▁portion	-12.0523
▁roger	-12.0524
▁begrenzung	-12.0524
▁nanotechnologie	-12.0524
▁ungerechtigkeit	-12.0524
▁allerbeste	-12.0524
▁klimakrise	-12.0524
▁verwickelt	-12.0525
▁sterberate	-12.0525
▁mittelschicht	-12.0525
▁grundidee	-12.0525
▁teich	-12.0525
▁soziologe	-12.0526
▁uno	-12.0526
würfe	-12.0526
▁brother	-12.0526
stäb	-12.0526
gebrannt	-12.0526
▁buddhistische	-12.0527
ridge	-12.0527
▁präsenz	-12.0527
riegel	-12.0527
▁geschlafen	-12.0527
▁detro	-12.0528
▁indigene	-12.0528
▁jerry	-12.0528
▁heiratete	-12.0528
▁überflüssig	-12.0528
▁werkstatt	-12.0528
▁blindheit	-12.0529
▁gyr	-12.0529
bertie	-12.0529
▁reproduzieren	-12.053
▁murmel	-12.053
▁umfassen	-12.053
▁unmenge	-12.0531
▁vermarkt	-12.0531
▁viereinhalb	-12.0533
▁captcha	-12.0533
▁community	-12.0533
▁droht	-12.0533
▁young	-12.0533
▁datenmenge	-12.0534
▁beschwert	-12.0534
maxim	-12.0536
▁vorräte	-12.0536
▁indianer	-12.0536
▁replizieren	-12.0538
mbra	-12.054
▁hautfarbe	-12.0541
▁bond	-12.0545
▁forderung	-12.0546
▁berufung	-12.0546
istan	-12.0547
▁schäme	-12.0551
▁betont	-12.0551
signale	-12.0555
▁komp	-12.0555
▁beteiligung	-12.0556
▁datei	-12.0559
vorteil	-12.0561
schleu	-12.0563
▁sprüh	-12.0563
gesessen	-12.0563
änge	-12.0564
▁siedlung	-12.0564
▁vermutet	-12.0565
▁christliche	-12.0565
▁hip	-12.0567
▁locker	-12.0569
▁astronomische	-12.0569
▁kreditkarten	-12.057
▁gehörte	-12.0573
▁kometen	-12.0575
tief	-12.0576
▁cole	-12.0576
▁derart	-12.0577
▁sri	-12.058
▁systematische	-12.0581
▁verborgene	-12.0581
▁nachfolge	-12.0581
▁jagt	-12.0581
▁drang	-12.0582
▁areal	-12.0582
▁kunstform	-12.0582
dex	-12.0589
kappen	-12.0594
▁erwarteten	-12.0595
▁blöde	-12.0597
▁ölpreis	-12.0597
▁fügte	-12.0598
▁versende	-12.0599
▁nachforschung	-12.0601
▁vorort	-12.0602
▁qualifiziert	-12.0603
▁küssen	-12.0607
üben	-12.0612
▁verdammte	-12.0614
▁scanner	-12.0621
▁offenbart	-12.0621
▁erwiesen	-12.0622
▁cad	-12.0626
300	-12.0626
▁testet	-12.0639
lampen	-12.0644
▁beiträg	-12.0656
▁lebensjahr	-12.0657
▁wund	-12.0673
▁verwaltungs	-12.0681
kurve	-12.0683
zuschätzen	-12.0687
▁strenge	-12.0689
sergewöhnliche	-12.0692
▁grauen	-12.0693
▁rent	-12.0695
▁leitung	-12.0696
▁sau	-12.0696
▁rohe	-12.0697
▁verdiente	-12.0697
▁örtlich	-12.0697
horn	-12.07
preise	-12.0703
▁konstante	-12.0704
▁anwender	-12.0705
stoffe	-12.0705
▁lebensmitteln	-12.0709
▁vertrieben	-12.0711
▁110	-12.0712
hai	-12.0716
▁kümmerte	-12.0718
▁regional	-12.0719
▁centr	-12.0719
▁kletter	-12.0725
änderungen	-12.073
ausbrüche	-12.0732
▁fließende	-12.0736
▁eli	-12.0738
▁verbiete	-12.0739
▁aufführung	-12.074
▁lerne	-12.0742
blättern	-12.0744
▁bauer	-12.0753
▁schere	-12.0753
▁differenz	-12.0754
▁pack	-12.0754
▁graue	-12.0755
▁röhren	-12.0759
▁durchdringen	-12.0766
▁orl	-12.0772
süchtig	-12.0776
▁diplomatisch	-12.0777
▁verleg	-12.0783
▁besiegt	-12.0788
▁hinausgehen	-12.0791
werbung	-12.0793
▁autonomi	-12.0794
ria	-12.0799
▁theoretische	-12.0806
▁fer	-12.0808
figur	-12.081
▁anerkannt	-12.0811
▁hinbekomm	-12.0814
▁erläuter	-12.0815
hack	-12.0817
nest	-12.0819
▁press	-12.0824
▁weiblich	-12.0825
▁vergleichbare	-12.0826
▁imker	-12.0829
▁enger	-12.0834
▁personalisiert	-12.0834
amer	-12.0835
ibu	-12.0835
▁mine	-12.0836
dringen	-12.0837
▁umkreisen	-12.084
▁spielern	-12.0842
▁dreiecke	-12.0847
▁schä	-12.085
▁träger	-12.0851
onat	-12.0852
▁stürzt	-12.0853
▁vo	-12.0862
▁erziehen	-12.0864
▁priorität	-12.0867
▁zwing	-12.0868
reihe	-12.0871
chell	-12.0872
▁konsument	-12.0872
▁fotografierte	-12.0874
inhalt	-12.0879
ständig	-12.0889
fällig	-12.089
▁brennende	-12.0894
▁geduldige	-12.0895
sendung	-12.0899
olo	-12.0899
▁hypothesen	-12.0901
▁umkehren	-12.0903
stig	-12.0909
▁usd	-12.0911
▁profitiert	-12.0916
vertrauenswürdig	-12.0921
▁ziege	-12.0921
schränken	-12.0923
▁überträg	-12.0923
▁gewähr	-12.0925
▁schimpanse	-12.0925
▁kindersitze	-12.0925
▁ele	-12.0927
nuss	-12.0929
▁tau	-12.0935
▁erwisch	-12.0935
sprozesse	-12.0935
▁nordafrika	-12.0936
▁variante	-12.094
▁zurückgreif	-12.0941
▁heid	-12.0943
▁studiere	-12.0945
rine	-12.0945
▁ker	-12.0945
▁piloten	-12.0946
▁bär	-12.0946
▁network	-12.0948
▁breitet	-12.0954
▁braune	-12.0955
freude	-12.0955
wunden	-12.0956
▁nahrungssuche	-12.0962
einnahme	-12.0962
▁pure	-12.0964
bai	-12.0973
▁jüdisch	-12.0974
rückt	-12.0974
low	-12.0975
biologie	-12.0976
▁stockwerke	-12.0976
▁bleibe	-12.0984
▁separate	-12.0986
▁stabilisier	-12.0986
▁beeinträchtig	-12.0987
physik	-12.0989
▁bal	-12.0989
uro	-12.0991
▁relation	-12.0994
kins	-12.1008
▁räumliche	-12.101
▁far	-12.1013
dacht	-12.1015
pumpen	-12.1015
▁ol	-12.1016
zep	-12.1018
▁akademi	-12.1018
antwortet	-12.102
spül	-12.1021
übung	-12.1021
generator	-12.1022
fächer	-12.1022
getaucht	-12.1022
jagt	-12.1023
▁leitende	-12.1023
höhle	-12.1023
wälder	-12.1023
pyramide	-12.1023
konstruktion	-12.1023
wörter	-12.1024
▁wahrhaft	-12.1024
agentur	-12.1024
instrument	-12.1024
löcher	-12.1024
gewalt	-12.1024
wiegen	-12.1024
minuten	-12.1024
knochen	-12.1024
▁stoppt	-12.1025
brief	-12.1026
▁betreu	-12.1027
▁blutige	-12.1028
brot	-12.1028
▁wiederherstell	-12.1031
▁beschränk	-12.1036
▁teuerste	-12.104
▁flexib	-12.1043
▁drehe	-12.1047
▁auszeit	-12.1049
▁empir	-12.1053
▁robot	-12.1054
getränk	-12.1055
geordnet	-12.1062
faser	-12.1062
▁unglück	-12.1063
▁om	-12.1064
▁intuitive	-12.1069
invasiv	-12.107
▁einblicke	-12.1074
▁kuba	-12.1075
▁tyrann	-12.1078
‚	-12.1078
▁ablenkung	-12.1078
▁aktualisier	-12.1078
▁ausschlaggebend	-12.1078
▁bulgar	-12.1078
▁cameron	-12.1078
▁erforderlich	-12.1078
▁expansion	-12.1078
▁explizit	-12.1078
▁extrovertiert	-12.1078
▁galileo	-12.1078
▁gorilla	-12.1078
▁industrialisier	-12.1078
▁intellekt	-12.1078
▁karibik	-12.1078
▁kommando	-12.1078
▁komplikation	-12.1078
▁korrelier	-12.1078
▁kreide	-12.1078
▁lösbar	-12.1078
▁mahmo	-12.1078
▁metaphorisch	-12.1078
▁montana	-12.1078
▁multiversum	-12.1078
▁nirgends	-12.1078
▁paradigmen	-12.1078
▁pepsi	-12.1078
▁publikation	-12.1078
▁reagan	-12.1078
▁rehabilitation	-12.1078
▁reparatur	-12.1078
▁schleier	-12.1078
▁selektiv	-12.1078
▁steckdose	-12.1078
▁säugling	-12.1078
▁todesursache	-12.1078
▁unvorhersehbar	-12.1078
▁verdrahtet	-12.1078
▁vergaß	-12.1078
▁ägyptische	-12.1078
▁äusser	-12.1078
balancier	-12.1078
bügel	-12.1078
erschütterung	-12.1078
▁flatter	-12.1078
▁hartnäckig	-12.1078
▁pragmati	-12.1078
▁christoph	-12.1078
▁kyoto	-12.1078
▁regieren	-12.1078
▁verzicht	-12.1078
▁inflation	-12.1078
▁knack	-12.1078
▁bleistift	-12.1078
▁gezüchtet	-12.1078
▁regiert	-12.1078
▁multinationale	-12.1078
▁ostasien	-12.1078
▁schrott	-12.1078
gräb	-12.1078
▁flammen	-12.1078
▁schädigung	-12.1078
▁imitiert	-12.1078
▁bonus	-12.1078
▁misserfolg	-12.1078
▁miniatur	-12.1078
▁transaktion	-12.1078
▁ergänzen	-12.1078
▁kumpel	-12.1078
▁addier	-12.1078
▁prinzipiell	-12.1078
peace	-12.1078
▁venus	-12.1078
▁gezahlt	-12.1078
▁bono	-12.1079
▁piep	-12.1079
▁märchen	-12.1079
▁geschichts	-12.1079
▁rückblick	-12.1079
▁kachel	-12.1079
▁bedeutungsvoll	-12.1079
▁hirnregion	-12.1079
▁risikofaktor	-12.1079
▁bestmögliche	-12.1079
inhaber	-12.1079
▁bridge	-12.108
▁diamanten	-12.108
zona	-12.108
▁bowl	-12.108
▁aktien	-12.108
▁süßigkeit	-12.108
▁lead	-12.108
▁bäckerei	-12.108
▁lebensstandard	-12.1081
höfe	-12.1081
▁jill	-12.1081
▁ceo	-12.1081
▁kernkraft	-12.1081
▁biotechnologie	-12.1081
▁yale	-12.1081
▁gewissheit	-12.1082
▁couch	-12.1082
▁prävention	-12.1083
▁gefährlichste	-12.1083
▁neuronale	-12.1084
▁energ	-12.1084
▁darfur	-12.1084
iety	-12.1085
▁ablehnen	-12.1085
▁gleichmäßig	-12.1086
▁83	-12.1086
▁spielplatz	-12.1086
▁robbe	-12.1086
nullsummenspiel	-12.1087
▁tuch	-12.1087
▁flüchtlinge	-12.1088
▁autofahren	-12.1088
iller	-12.1089
▁sehnen	-12.1089
▁anästhesie	-12.1089
▁uran	-12.109
▁traurigkeit	-12.109
▁einhergeh	-12.1091
▁hinüber	-12.1091
▁härter	-12.1091
motiv	-12.1092
▁limonade	-12.1092
▁sponsor	-12.1092
▁entdecker	-12.1092
▁verbannt	-12.1094
▁einmalige	-12.1094
▁gesundheitliche	-12.1094
▁dys	-12.1095
▁predigt	-12.1095
▁schüttelt	-12.1096
▁kasse	-12.1097
▁atomar	-12.1097
▁häufigkeit	-12.1098
▁lenkt	-12.1098
▁erschossen	-12.1098
▁äpfel	-12.1102
▁umstritten	-12.1102
quadratkilometer	-12.1102
▁verdreifacht	-12.1104
▁enthüllung	-12.1104
▁verbrecher	-12.1105
▁bunker	-12.1105
▁plato	-12.1106
▁satt	-12.1107
▁dreifache	-12.1108
rüstet	-12.1109
▁uniform	-12.111
▁verbundenheit	-12.111
▁abu	-12.1111
▁durchbrechen	-12.1112
▁offenbarung	-12.1119
▁geografische	-12.1119
▁senkt	-12.112
scanner	-12.112
▁angeordnet	-12.112
▁fäkal	-12.112
▁einsparung	-12.1121
▁schwächer	-12.1122
gänger	-12.1123
rsw	-12.1124
▁rennt	-12.1126
▁bereichern	-12.1127
▁spirituell	-12.1129
▁australische	-12.1129
▁herrlich	-12.1131
▁erkrank	-12.1131
▁geladen	-12.1132
▁großzügige	-12.1133
▁passte	-12.1134
▁weltwirtschaft	-12.1136
ava	-12.1138
▁bauchspeichel	-12.114
sek	-12.1141
▁ji	-12.1144
▁beginnend	-12.1145
▁narben	-12.1146
▁räumlich	-12.1146
▁forderte	-12.1147
▁modifizier	-12.115
▁cal	-12.1152
▁seelen	-12.1158
▁identische	-12.1158
▁geheil	-12.116
▁erhob	-12.1161
▁angenehmer	-12.1161
▁mass	-12.1161
cal	-12.1161
▁grade	-12.1162
berichte	-12.1162
▁brauchbar	-12.1162
dosi	-12.1163
zubilden	-12.1166
videos	-12.1168
▁beeinträchtigt	-12.1169
▁regelwerk	-12.1171
▁revolutionäre	-12.1172
▁autonom	-12.1172
▁papiere	-12.1172
▁anschluss	-12.1178
▁introvertierte	-12.1178
▁riefen	-12.1178
sprach	-12.1179
▁leck	-12.1186
▁clevere	-12.1188
70	-12.1189
gefüllt	-12.1196
▁krokodil	-12.1205
▁durchführte	-12.1206
ple	-12.1207
▁modul	-12.1208
▁kent	-12.121
▁jenni	-12.1211
sgespräch	-12.1212
▁schluck	-12.1213
▁chad	-12.1214
▁verkündete	-12.1215
▁katastrophale	-12.1216
▁spalte	-12.1222
handschuh	-12.1224
▁herrschte	-12.1227
▁rührt	-12.1227
bewegen	-12.1228
kry	-12.1231
▁bizarr	-12.1232
▁anregend	-12.1232
▁anhaltend	-12.1234
▁beutel	-12.1234
hamas	-12.1237
monatige	-12.1238
▁pflanzt	-12.1239
▁isolieren	-12.1239
▁dod	-12.124
▁bucht	-12.1242
▁schwächen	-12.1243
▁medizinisch	-12.1244
▁grenzenlos	-12.1247
▁molekular	-12.1247
wägen	-12.1255
▁logische	-12.126
stift	-12.126
ness	-12.1261
▁schädliche	-12.1261
▁jeans	-12.1267
▁stunts	-12.1268
▁gefangenen	-12.1269
tral	-12.1271
ologe	-12.1271
▁sperr	-12.1273
▁vergeb	-12.1278
bc	-12.1278
▁liegende	-12.1278
▁andersartig	-12.1285
nutz	-12.1288
▁bel	-12.1289
▁kritisiert	-12.1289
sphase	-12.129
hälter	-12.129
samt	-12.1296
gewinnen	-12.1302
▁schlechtesten	-12.1303
▁zurücklehn	-12.1307
▁urbanisier	-12.1309
▁japaner	-12.131
rocken	-12.1313
▁kate	-12.1316
gewinn	-12.1323
▁objektiv	-12.1324
▁verschickt	-12.1326
▁intel	-12.1336
moor	-12.1339
▁versu	-12.1342
▁robuste	-12.1349
▁marker	-12.135
▁aufzug	-12.1352
▁mä	-12.1352
▁bö	-12.1362
▁spürte	-12.1362
▁bildete	-12.1365
▁zusammenhäng	-12.1365
▁eindring	-12.1366
▁entwurfs	-12.137
kartell	-12.1371
zuschlagen	-12.1372
▁umstand	-12.1375
▁kämpfte	-12.1388
lust	-12.1397
sammlung	-12.1402
rochen	-12.1404
rex	-12.1404
▁quell	-12.1405
▁zufalls	-12.1405
▁spiegeln	-12.1413
▁dung	-12.1413
tklässler	-12.1414
bewegt	-12.1418
▁baumwoll	-12.1419
▁73	-12.1423
▁leucht	-12.1424
grube	-12.1431
signal	-12.1431
▁bewohn	-12.1433
▁bor	-12.1436
sagt	-12.1437
8.000	-12.1439
erblichkeitsrate	-12.1439
▁deckt	-12.1447
▁zerleg	-12.1448
▁ausgebildete	-12.1449
saft	-12.1451
▁entsetzliche	-12.1455
▁kompromisse	-12.1455
▁statistische	-12.1456
▁umgebende	-12.1457
▁enzym	-12.1458
▁aktiver	-12.1459
▁albu	-12.146
▁prüf	-12.1464
▁verbesserte	-12.1468
▁stunt	-12.1469
fähige	-12.1471
bekämpfung	-12.1472
▁profi	-12.1478
▁zunehmen	-12.1484
▁intelligentes	-12.1485
aufwand	-12.1488
▁widerspiegel	-12.1489
▁maha	-12.1489
▁feiert	-12.1489
13	-12.15
augen	-12.1502
pass	-12.1505
▁romantisch	-12.1505
▁mücke	-12.1511
▁verlasse	-12.1514
abfälle	-12.1518
▁selbstbewusst	-12.1522
spur	-12.1532
▁überzeugende	-12.1533
▁hum	-12.1537
▁sti	-12.1539
▁optimale	-12.1543
zeigen	-12.1544
▁verhandelt	-12.1553
▁verfügbare	-12.1554
hatte	-12.1555
▁informierte	-12.1555
wasserstoff	-12.1558
▁reichste	-12.1562
▁kontaktiert	-12.1563
▁eigenständig	-12.1563
span	-12.1564
▁metalle	-12.1568
gewohnheit	-12.1569
▁rauskomm	-12.1572
wartet	-12.1577
▁export	-12.1582
tv	-12.1584
wählen	-12.1585
getan	-12.1588
▁verkündet	-12.1592
▁verlangte	-12.1593
kyo	-12.1594
▁mediziner	-12.1597
äuschen	-12.1598
▁unterrichte	-12.1601
wick	-12.1602
hirn	-12.1604
▁geschlechter	-12.1604
viertel	-12.1606
▁herausragende	-12.1607
afrika	-12.1607
hop	-12.1608
blut	-12.161
prothese	-12.161
defizit	-12.161
helfer	-12.161
saison	-12.161
gesteckt	-12.1611
verwaltung	-12.1611
suppe	-12.1611
aufbau	-12.1611
betracht	-12.1611
space	-12.1612
explosion	-12.1612
konsum	-12.1612
müll	-12.1612
budget	-12.1612
batterie	-12.1612
untersuchung	-12.1612
gemeinde	-12.1612
krankenhaus	-12.1612
universität	-12.1612
mikroskop	-12.1612
versagen	-12.1612
gras	-12.1613
werbe	-12.1613
zähne	-12.1613
master	-12.1617
▁strat	-12.1618
muskel	-12.1618
farm	-12.1619
dienstleistung	-12.162
▁aufsteigen	-12.1621
▁gebrochene	-12.1623
▁schubs	-12.1623
▁empfäng	-12.1626
▁stören	-12.1629
▁ergreifen	-12.1633
▁göttliche	-12.1638
reihen	-12.1639
bienen	-12.164
▁lehne	-12.164
alismus	-12.1641
▁schauspiel	-12.1641
anzeige	-12.1642
riss	-12.1643
▁bezahlte	-12.1644
treib	-12.1645
▁gla	-12.1647
▁hässliche	-12.1651
▁primitive	-12.1652
▁wahrer	-12.1653
mauer	-12.1653
▁wired	-12.1654
nehmer	-12.1655
oots	-12.1657
tüte	-12.1658
▁max	-12.1658
äß	-12.1659
▁realistische	-12.1659
palme	-12.1659
▁flüchtling	-12.166
▁aqua	-12.1663
▁perfektion	-12.1664
siedel	-12.1664
▁för	-12.1665
▁hindern	-12.1666
wickeln	-12.1666
▁varia	-12.1666
▁landwirt	-12.1666
▁pfeffer	-12.1666
beschleuniger	-12.1666
bürste	-12.1666
▁1,6	-12.1666
▁angeregt	-12.1666
▁appetit	-12.1666
▁argentinien	-12.1666
▁bedrohlich	-12.1666
▁bevölkert	-12.1666
▁buchhalter	-12.1666
▁europäer	-12.1666
▁extrahieren	-12.1666
▁fälschung	-12.1666
▁gefoltert	-12.1666
▁guardian	-12.1666
▁hadron	-12.1666
▁hochgeladen	-12.1666
▁hurrikan	-12.1666
▁kolibri	-12.1666
▁komposition	-12.1666
▁mitternacht	-12.1666
▁mozart	-12.1666
▁nollywood	-12.1666
▁nutzpflanzen	-12.1666
▁praktiziert	-12.1666
▁savanne	-12.1666
▁schnurrbart	-12.1666
▁schuppen	-12.1666
▁schwebt	-12.1666
▁skalierbar	-12.1666
▁skalieren	-12.1666
▁strände	-12.1666
▁stünde	-12.1666
▁sydney	-12.1666
▁tahrir	-12.1666
▁temporäre	-12.1666
schrumpft	-12.1666
wächter	-12.1666
▁bronze	-12.1666
▁eames	-12.1666
▁kästchen	-12.1666
▁schwedische	-12.1666
▁dänische	-12.1666
▁finnland	-12.1666
▁hypothek	-12.1666
▁starbucks	-12.1666
▁überflutet	-12.1666
navigation	-12.1666
▁hochwertige	-12.1666
▁entwirf	-12.1666
▁rebellen	-12.1666
▁verinnerlich	-12.1666
▁befördern	-12.1666
▁heroin	-12.1666
▁gefördert	-12.1666
▁sporen	-12.1666
▁verschlüsselt	-12.1666
drüsenkrebs	-12.1666
▁amsterdam	-12.1666
▁applikation	-12.1666
▁beruhen	-12.1666
▁ersparnisse	-12.1666
▁verschlossen	-12.1666
pulver	-12.1666
▁zahnarzt	-12.1666
▁1918	-12.1666
spray	-12.1666
▁broad	-12.1666
▁galois	-12.1666
▁keks	-12.1666
▁führungsperson	-12.1667
▁aufgeklärt	-12.1667
▁rückgrat	-12.1667
▁südwest	-12.1667
▁eiweiß	-12.1667
▁erotische	-12.1667
▁inhaltsstoff	-12.1667
▁verbergen	-12.1667
mehl	-12.1667
▁skype	-12.1667
▁nanometer	-12.1667
▁kurator	-12.1667
▁aufblühen	-12.1667
▁erkundet	-12.1667
▁modedesigner	-12.1667
▁stereotyp	-12.1667
▁aufrechterhalt	-12.1667
▁parkplätze	-12.1667
▁verschrieben	-12.1667
▁bauernhof	-12.1667
▁salzwasser	-12.1667
▁zimba	-12.1667
▁falken	-12.1667
▁stechen	-12.1667
▁ganzheitliche	-12.1667
▁aufwärts	-12.1667
▁erlangt	-12.1667
▁erreichbar	-12.1667
▁gleiten	-12.1667
▁sprichwörtlich	-12.1668
▁pipa	-12.1668
▁genesung	-12.1668
▁donner	-12.1668
▁ungläubig	-12.1668
▁lord	-12.1668
▁bbc	-12.1668
ößt	-12.1668
idee	-12.1668
▁loyal	-12.1668
▁karton	-12.1668
▁movember	-12.1669
▁gaga	-12.1669
▁staate	-12.1669
▁arka	-12.1669
▁grey	-12.1669
▁privatleben	-12.167
▁sars	-12.167
▁entsprach	-12.167
▁astronomie	-12.167
▁sprint	-12.167
▁radar	-12.1671
▁begrenzen	-12.1671
▁verwandlung	-12.1671
hex	-12.1671
▁auslöser	-12.1671
▁1975	-12.1671
▁lebenszyklus	-12.1671
▁tasse	-12.1672
▁darpa	-12.1672
screen	-12.1672
▁nebeneffekt	-12.1673
▁menschsein	-12.1673
▁ausgedehnt	-12.1674
▁unterkunft	-12.1674
▁tick	-12.1674
▁immigrant	-12.1674
▁sonnig	-12.1675
▁symbolisiert	-12.1675
▁dschungel	-12.1675
▁koordination	-12.1675
▁umlaufbahn	-12.1675
▁herumlaufen	-12.1676
geschoben	-12.1676
▁versklav	-12.1676
▁rotation	-12.1676
▁koma	-12.1677
▁display	-12.1678
▁herüber	-12.1679
▁unbeabsichtigte	-12.1679
▁hochhaus	-12.168
▁loslassen	-12.168
▁hoden	-12.168
▁proportional	-12.168
▁einkaufs	-12.168
▁1500	-12.168
▁fell	-12.1681
ianer	-12.1681
▁browser	-12.1681
▁map	-12.1681
▁kinn	-12.1682
▁over	-12.1682
▁tok	-12.1683
▁mikroorganism	-12.1683
▁nationalstaat	-12.1683
▁gläubige	-12.1685
▁erblind	-12.1685
▁gesendet	-12.1685
▁186	-12.1687
▁meisterwerk	-12.1687
▁flugh	-12.1687
▁nuklearen	-12.1687
ntagon	-12.1688
▁schüssel	-12.1688
evar	-12.1688
▁achtjährige	-12.1689
surf	-12.1689
▁abschalte	-12.1689
▁vorstädte	-12.169
aac	-12.169
▁muß	-12.169
▁gärt	-12.1691
▁bearbeitung	-12.1691
▁zugehörigkeit	-12.1691
▁implikation	-12.1691
▁zeremonie	-12.1691
▁stipendium	-12.1692
geräusche	-12.1693
▁walker	-12.1693
▁romo	-12.1694
▁lachs	-12.1695
west	-12.1697
▁mechanik	-12.1697
▁strömt	-12.1698
▁lh	-12.17
▁kay	-12.17
▁abstimmung	-12.1701
▁ministerium	-12.1701
▁volumen	-12.1702
▁ausnutzen	-12.1704
▁scheiterte	-12.1704
gier	-12.1704
führ	-12.1705
▁rutsche	-12.1706
▁inspirierende	-12.1707
▁eingangs	-12.1707
▁agent	-12.1708
▁überzogen	-12.1709
▁navigieren	-12.1712
besuch	-12.1718
▁röntgenbild	-12.172
▁abwehr	-12.1721
▁sensible	-12.1722
▁verdreht	-12.1722
▁pool	-12.1723
dank	-12.1724
▁flor	-12.1725
▁bj	-12.1725
▁globalisierte	-12.1726
eda	-12.1726
▁argumentiert	-12.173
▁horn	-12.173
▁9.	-12.1732
▁experti	-12.1735
▁aufgelöst	-12.1736
▁phil	-12.1736
▁einflüsse	-12.174
▁eingebunden	-12.174
▁formation	-12.1741
▁automatisier	-12.1743
▁erregung	-12.1746
▁ausblick	-12.175
track	-12.1751
▁weigerte	-12.1751
▁symmetrische	-12.1756
▁vertrieb	-12.1756
▁unterzeichnet	-12.1759
▁gemäß	-12.176
einigt	-12.1764
▁eth	-12.1764
▁synapsen	-12.1767
▁beamten	-12.1768
▁betätig	-12.1771
▁eintauchen	-12.1773
▁ausrichtung	-12.1774
▁beschäm	-12.1775
zwecken	-12.1781
▁benehme	-12.1783
▁drängen	-12.1783
▁sphäre	-12.1783
▁beha	-12.1784
▁philipp	-12.1787
sänderung	-12.1792
▁ausführung	-12.1793
▁umlauf	-12.1793
▁zerfallen	-12.1793
▁turn	-12.1794
▁verschlechtert	-12.1795
▁wür	-12.1796
▁treibende	-12.1797
▁strukturelle	-12.1797
▁antennen	-12.1798
▁brilliante	-12.1798
▁begegnete	-12.1799
▁nackte	-12.1799
▁herauf	-12.1801
schöpft	-12.1802
▁rückenmarks	-12.1804
▁werben	-12.1805
ögen	-12.181
▁wandelt	-12.1811
▁augenblicklich	-12.1811
▁trocknet	-12.1817
▁produktiver	-12.1824
aba	-12.1824
▁aufsicht	-12.1826
fordere	-12.1827
▁sho	-12.1829
800	-12.1832
weh	-12.1833
▁fortbeweg	-12.1833
▁polarisier	-12.1841
▁eh	-12.1845
wirtschaftskrise	-12.1846
▁wiederzu	-12.1848
▁gemütlich	-12.1849
▁fit	-12.185
hat	-12.1854
▁strahlend	-12.1856
▁erneuert	-12.1856
▁schwingen	-12.1858
▁erschieß	-12.1861
▁motorische	-12.1866
▁gefährdete	-12.1867
kühlung	-12.1867
▁überwacht	-12.1868
▁pfeile	-12.1868
▁gefangene	-12.187
path	-12.1871
schmied	-12.1874
wechseln	-12.1875
lisa	-12.1878
▁einfangen	-12.1885
life	-12.1885
▁inwie	-12.1886
▁anfertig	-12.1895
▁daseins	-12.1901
itis	-12.191
▁idioten	-12.1912
▁besonderheit	-12.1914
einstellung	-12.1915
▁vorfall	-12.1919
▁aufregendste	-12.1922
▁cur	-12.1926
sprungen	-12.1926
ago	-12.193
▁unterschätzt	-12.194
abad	-12.1945
▁eigentums	-12.1949
▁londoner	-12.1949
▁gb	-12.1949
▁komplexere	-12.1955
bbar	-12.1956
▁parlaments	-12.1958
ringt	-12.1962
▁mächtiger	-12.1963
▁glatte	-12.1968
▁innerlich	-12.1971
▁obdachlosen	-12.1973
▁geniess	-12.1973
zusammengestellt	-12.1976
▁riskiert	-12.1978
antwort	-12.1978
▁nor	-12.1987
reife	-12.1989
▁walk	-12.1991
▁bester	-12.1997
▁orang	-12.1997
▁brut	-12.1999
sender	-12.2002
▁pilzen	-12.2002
gewinnung	-12.2014
▁andeut	-12.2014
schafft	-12.2019
▁fremd	-12.202
▁objektive	-12.2028
▁minimale	-12.2031
beste	-12.2032
▁symptom	-12.2046
30	-12.2054
▁kritisier	-12.2058
ssinn	-12.206
▁dritt	-12.2061
lm	-12.2062
fühlen	-12.2068
▁hypothetische	-12.2071
▁eingabe	-12.2072
bleib	-12.2073
▁may	-12.2075
haltige	-12.2083
molekül	-12.2089
foto	-12.2092
▁eintrag	-12.2093
name	-12.2094
strecke	-12.2099
▁technischer	-12.2103
▁segel	-12.2106
▁atemberaubende	-12.2106
▁deck	-12.2111
▁mysteriöse	-12.2112
▁kit	-12.2112
mmen	-12.2112
▁vielfältige	-12.2113
▁tiefgreifend	-12.2116
▁anfänglich	-12.212
eimer	-12.2122
▁düstere	-12.2124
kost	-12.2124
player	-12.2124
erfolg	-12.2126
▁bots	-12.2126
dikt	-12.2127
▁konservative	-12.2127
▁phänomenale	-12.2129
▁gemischt	-12.2129
▁schlagzeile	-12.2137
▁nachdenke	-12.2139
▁untersuche	-12.2143
▁rückenmark	-12.2146
axe	-12.2151
knüpfen	-12.2153
▁festleg	-12.2155
▁verteidigt	-12.2163
▁reißen	-12.2164
▁grössere	-12.2165
▁genies	-12.217
▁nachhaltigkeits	-12.2171
▁chronisch	-12.2175
städte	-12.2175
▁erfolgreichste	-12.2178
▁blüte	-12.2179
▁zerr	-12.2183
▁gesetzgeb	-12.2192
prozesse	-12.2196
▁symmetrisch	-12.2197
ausgaben	-12.2197
rutsch	-12.2197
stärke	-12.2198
anor	-12.2199
▁bereis	-12.2206
▁anregen	-12.221
▁verdau	-12.221
▁eg	-12.2212
netzwerke	-12.2213
▁188	-12.2217
▁diagnostizier	-12.2222
rekord	-12.2222
▁lüge	-12.2226
▁detaillierte	-12.2227
stange	-12.2229
▁umarm	-12.223
schirm	-12.223
▁multiplizier	-12.2233
kämpft	-12.2233
▁immense	-12.2234
zweifel	-12.2234
▁zuversicht	-12.2234
▁elementare	-12.2235
gefäß	-12.2236
pfeil	-12.2236
bronx	-12.2236
gestiegen	-12.2236
schwärme	-12.2237
stuhl	-12.2237
detektor	-12.2237
güter	-12.2237
origami	-12.2237
debatte	-12.2237
charakter	-12.2237
ausrüstung	-12.2237
dunkel	-12.2237
käufer	-12.2237
bildschirm	-12.2237
bogen	-12.2237
gelände	-12.2237
personal	-12.2239
etera	-12.2239
▁schauspielerin	-12.2239
klima	-12.2239
pool	-12.224
partikel	-12.224
ifikation	-12.224
himmel	-12.2241
aa	-12.2241
vorgang	-12.2244
▁überquert	-12.2248
gelenk	-12.225
▁lasche	-12.2252
aktivist	-12.2252
▁wiederholte	-12.2257
▁beeindrucken	-12.2262
▁zusammenbau	-12.2263
▁statische	-12.2264
radio	-12.2267
top	-12.2267
mega	-12.2267
dl	-12.2268
▁aufwacht	-12.2268
stehende	-12.2269
▁giga	-12.2269
darm	-12.227
▁formal	-12.2278
▁bestraf	-12.2279
ogramm	-12.228
▁verwunder	-12.2281
besitzer	-12.2281
▁aminosäure	-12.2282
▁geläch	-12.2284
▁buddhis	-12.2286
▁verrät	-12.2291
container	-12.2291
fühlst	-12.2291
gürtel	-12.2291
mühle	-12.2291
pigmentierung	-12.2291
symbiose	-12.2291
▁algebra	-12.2291
▁annäherung	-12.2291
▁archimedes	-12.2291
▁deprimierend	-12.2291
▁economi	-12.2291
▁fernbedienung	-12.2291
▁gekleidet	-12.2291
▁genehmigt	-12.2291
▁glukose	-12.2291
▁graffiti	-12.2291
▁holocaust	-12.2291
▁ikea	-12.2291
▁immaterielle	-12.2291
▁injizieren	-12.2291
▁kepler	-12.2291
▁kompetent	-12.2291
▁kontaminier	-12.2291
▁krümmung	-12.2291
▁kuppel	-12.2291
▁köder	-12.2291
▁mexikaner	-12.2291
▁natalie	-12.2291
▁patriot	-12.2291
▁performance	-12.2291
▁prächtig	-12.2291
▁qatar	-12.2291
▁reguliert	-12.2291
▁schmetterlinge	-12.2291
▁skalierung	-12.2291
▁tennessee	-12.2291
▁ungeduldig	-12.2291
▁visualisieren	-12.2291
▁vorhersagbar	-12.2291
▁weltanschauung	-12.2291
▁zelebrier	-12.2291
▁östrogen	-12.2291
í	-12.2291
▁acumen	-12.2291
▁autistische	-12.2291
▁gitarre	-12.2291
▁kalkstein	-12.2291
▁krawatte	-12.2291
▁neugeborene	-12.2291
▁pflegt	-12.2291
▁pianist	-12.2291
▁senkrecht	-12.2291
▁stöcke	-12.2291
▁tornado	-12.2291
transzendenz	-12.2291
▁dekade	-12.2291
▁stefan	-12.2291
▁bakterielle	-12.2291
▁landminen	-12.2291
▁mammogramm	-12.2291
▁vermisst	-12.2291
▁weblog	-12.2291
▁mamma	-12.2291
geheiratet	-12.2291
▁megawatt	-12.2291
▁übergewichtig	-12.2291
erichterstattung	-12.2291
▁gastgeber	-12.2291
▁mexic	-12.2291
▁bösartig	-12.2291
▁fahrräder	-12.2291
▁auswertung	-12.2291
▁kollaboration	-12.2291
▁gehandelt	-12.2291
▁weltfrieden	-12.2291
▁konsens	-12.2291
▁assoziation	-12.2291
nägel	-12.2291
▁hyäne	-12.2291
▁schenkte	-12.2291
80	-12.2292
▁ertrinken	-12.2292
▁anthropologi	-12.2292
creme	-12.2292
▁informelle	-12.2292
▁eigeninteresse	-12.2292
▁marshall	-12.2292
jargon	-12.2292
▁apartment	-12.2292
▁ehefrau	-12.2292
kommission	-12.2292
▁lastwagen	-12.2292
▁makro	-12.2292
▁stimulieren	-12.2292
▁ratschläge	-12.2292
▁geschäftsleute	-12.2292
▁griechenland	-12.2292
▁unternehmertum	-12.2292
▁rupie	-12.2292
▁floh	-12.2292
▁arbeitskräfte	-12.2292
▁treibhaus	-12.2292
▁lamm	-12.2293
▁unbedeutend	-12.2293
▁ooh	-12.2293
▁begünstig	-12.2293
▁serge	-12.2293
▁wirkstoff	-12.2293
▁ziegel	-12.2294
▁harris	-12.2294
▁gleichberechtig	-12.2294
▁beibehalt	-12.2294
▁fruchtbarkeit	-12.2294
light	-12.2294
▁hinterhof	-12.2294
▁herbeizu	-12.2294
▁flugbahn	-12.2294
▁initiier	-12.2294
menschenverstand	-12.2295
▁eingefangen	-12.2295
affin	-12.2295
▁love	-12.2295
▁lester	-12.2295
▁arbeitsleben	-12.2296
▁timing	-12.2296
▁connect	-12.2296
▁tierreich	-12.2296
▁water	-12.2297
▁versprach	-12.2297
▁vergiftet	-12.2298
▁fbi	-12.2298
▁seth	-12.2298
▁gehirnaktivität	-12.2298
▁schleppte	-12.2299
echlich	-12.2299
▁ermitteln	-12.23
▁1992	-12.2301
▁auslösch	-12.2301
städt	-12.2301
lockt	-12.2302
flossen	-12.2302
▁abgebildet	-12.2303
[...]
