<unk>	0
<s>	0
</s>	0
▁,	-3.06781
s	-3.2227
▁.	-3.29407
▁the	-3.36981
;	-3.55691
▁&	-3.56877
▁to	-3.8985
▁a	-3.92648
apos	-4.00824
▁of	-4.03736
▁and	-4.10011
▁that	-4.27625
▁I	-4.35328
▁	-4.45123
▁in	-4.45575
ed	-4.57653
y	-4.57852
quot	-4.64293
▁is	-4.64344
ing	-4.65293
▁it	-4.66659
▁you	-4.68306
▁we	-4.74503
▁And	-5.05439
▁this	-5.08774
ly	-5.24578
t	-5.32003
▁was	-5.33511
▁on	-5.36173
▁for	-5.42027
▁are	-5.46933
▁have	-5.4781
▁with	-5.47981
▁can	-5.60239
▁—	-5.60358
▁be	-5.61637
d	-5.6382
▁what	-5.70512
▁So	-5.71551
▁?	-5.72068
-	-5.73651
▁about	-5.75302
re	-5.77604
▁The	-5.84633
n	-5.86219
▁not	-5.87811
▁my	-5.9052
▁at	-5.90559
▁all	-5.92454
▁an	-5.93095
▁do	-5.95223
▁like	-5.98131
▁one	-5.98414
▁people	-6.01053
▁there	-6.03249
▁from	-6.04614
▁so	-6.06114
▁It	-6.07881
▁)	-6.07982
(	-6.0804
▁our	-6.11148
▁but	-6.12307
▁:	-6.16295
▁as	-6.16589
▁or	-6.19082
▁us	-6.19967
▁just	-6.20081
▁We	-6.21806
r	-6.2253
▁But	-6.2411
▁me	-6.25229
e	-6.25837
▁these	-6.27078
▁if	-6.27557
▁out	-6.29915
▁see	-6.31843
m	-6.31901
▁by	-6.31931
very	-6.32832
▁know	-6.33534
▁up	-6.35039
▁when	-6.35946
▁them	-6.37105
▁more	-6.38541
▁had	-6.3919
▁because	-6.40756
▁going	-6.41251
▁he	-6.41722
ve	-6.41789
▁would	-6.44063
▁some	-6.44337
▁your	-6.4484
▁were	-6.45044
▁their	-6.4529
▁think	-6.46481
▁who	-6.46628
▁get	-6.48761
▁how	-6.49937
▁look	-6.52401
▁which	-6.52691
▁want	-6.54686
▁really	-6.55821
▁time	-6.56981
es	-6.6255
▁world	-6.63381
▁has	-6.63765
▁go	-6.66281
▁other	-6.66782
▁Laughte	-6.66916
▁could	-6.69598
▁here	-6.7086
▁Thi	-6.71008
▁into	-6.71219
▁You	-6.72709
ctually	-6.73036
▁way	-6.73118
ies	-6.7344
▁will	-6.73495
▁every	-6.74289
▁then	-6.75288
▁where	-6.76333
▁years	-6.77731
▁don	-6.78384
▁did	-6.79036
▁now	-6.79282
▁Now	-6.82991
▁make	-6.8354
▁things	-6.84613
▁t	-6.86539
ause	-6.88998
▁need	-6.90849
▁take	-6.91714
been	-6.91833
hose	-6.92215
▁start	-6.92583
▁work	-6.93833
▁no	-6.94037
▁right	-6.94725
▁say	-6.95113
▁said	-6.98514
▁than	-6.98832
▁something	-6.99023
▁much	-7.01089
▁first	-7.01509
▁two	-7.03648
▁call	-7.04966
lso	-7.05127
▁over	-7.06299
▁He	-7.08709
▁thing	-7.0919
▁come	-7.09418
▁kind	-7.09478
▁any	-7.09508
▁got	-7.10486
▁back	-7.1075
▁little	-7.11068
▁lot	-7.11951
▁most	-7.12556
▁even	-7.14456
▁life	-7.14652
▁she	-7.1579
▁That	-7.172
▁his	-7.17485
▁talk	-7.18396
▁What	-7.20447
▁In	-7.20535
.	-7.20615
▁new	-7.22117
▁many	-7.228
▁Appl	-7.25739
▁change	-7.26097
▁different	-7.27367
▁around	-7.28067
ll	-7.28651
▁through	-7.29928
▁her	-7.32069
▁good	-7.3303
▁does	-7.33172
▁♫	-7.34633
day	-7.35483
▁There	-7.3579
▁A	-7.35798
▁tell	-7.36222
▁use	-7.3634
▁mean	-7.36848
▁down	-7.38974
▁idea	-7.39435
▁same	-7.39808
▁being	-7.41816
▁show	-7.43111
▁human	-7.44202
▁may	-7.46175
▁problem	-7.46671
er	-7.46726
▁try	-7.47337
▁day	-7.47576
▁Well	-7.48497
▁If	-7.49073
ity	-7.49905
▁part	-7.51493
▁great	-7.51773
▁put	-7.52151
▁ask	-7.52396
▁place	-7.53141
▁three	-7.53396
self	-7.54559
▁percent	-7.56654
▁doing	-7.57282
one	-7.57682
a	-7.58655
▁made	-7.60223
▁well	-7.60751
▁find	-7.615
▁year	-7.6207
▁fact	-7.6334
▁own	-7.63551
▁e	-7.6638
▁happen	-7.67473
▁why	-7.68695
other	-7.68838
▁after	-7.698
▁turn	-7.71434
▁should	-7.73235
▁important	-7.73392
▁thought	-7.73931
▁might	-7.74793
▁him	-7.75761
▁last	-7.75888
▁let	-7.76074
▁help	-7.76677
▁before	-7.76876
▁Thank	-7.77125
▁better	-7.77196
▁never	-7.78052
▁end	-7.7851
▁together	-7.78877
▁able	-7.80446
▁few	-7.8123
body	-7.81425
▁give	-7.81839
▁system	-7.82097
▁example	-7.82637
▁big	-7.82913
▁brain	-7.83093
in	-7.83313
▁still	-7.83549
▁off	-7.8481
▁point	-7.85243
able	-7.85276
▁love	-7.85469
▁course	-7.85552
▁story	-7.86803
▁ago	-7.87025
▁million	-7.87239
al	-7.87325
▁next	-7.87835
each	-7.88205
l	-7.88588
▁When	-7.88805
▁long	-7.89137
▁learn	-7.89346
▁create	-7.89371
▁bit	-7.89813
▁school	-7.89849
▁came	-7.90229
thing	-7.90972
on	-7.91638
▁design	-7.91844
▁live	-7.92416
▁again	-7.92877
ther	-7.9331
▁question	-7.93337
▁kid	-7.93731
▁found	-7.94412
▁number	-7.95008
out	-7.95797
▁technology	-7.95799
▁between	-7.95939
▁women	-7.96037
▁sort	-7.96732
▁ever	-7.97061
▁How	-7.9799
▁water	-7.98076
▁understand	-7.98202
way	-7.985
▁too	-7.98599
▁become	-7.98611
▁feel	-7.98711
▁believe	-7.98919
ce	-7.99009
▁data	-7.9911
▁real	-8.01323
▁play	-8.01581
▁cell	-8.03642
went	-8.03923
ion	-8.05897
be	-8.05968
h	-8.06142
▁20	-8.06304
▁done	-8.0756
▁Bec	-8.07829
▁person	-8.07859
▁children	-8.09275
▁car	-8.09815
▁always	-8.10451
▁second	-8.11107
w	-8.11305
▁whole	-8.11856
▁old	-8.14762
o	-8.14837
▁light	-8.15576
▁country	-8.15646
▁power	-8.15923
▁information	-8.15957
▁small	-8.15972
ok	-8.16231
▁home	-8.16703
▁experience	-8.17029
▁four	-8.17066
▁building	-8.1707
▁space	-8.17168
▁reason	-8.17736
▁10	-8.17772
▁computer	-8.18409
▁working	-8.18923
ves	-8.20929
▁guy	-8.21755
▁picture	-8.22203
▁money	-8.22782
▁liv	-8.23266
▁move	-8.23952
▁future	-8.24624
▁high	-8.25007
▁My	-8.25467
▁thinking	-8.25793
▁case	-8.2619
▁One	-8.2649
▁moment	-8.26574
▁open	-8.26598
nough	-8.27002
▁sense	-8.27242
▁project	-8.27307
▁She	-8.28102
▁hard	-8.28677
▁man	-8.28923
▁group	-8.29196
▁five	-8.29664
▁best	-8.3029
▁social	-8.30689
▁left	-8.30743
▁form	-8.31161
ld	-8.31203
▁mak	-8.3163
▁bring	-8.31854
▁under	-8.33156
▁food	-8.33606
▁process	-8.34123
▁No	-8.34232
▁getting	-8.34276
▁energy	-8.34419
▁These	-8.34625
▁planet	-8.3497
ness	-8.35307
▁answer	-8.35347
▁countr	-8.35535
▁less	-8.35579
ever	-8.36081
cross	-8.36113
▁interesting	-8.36172
quite	-8.36336
▁matter	-8.36792
▁government	-8.37002
▁hand	-8.37131
▁job	-8.3725
▁For	-8.37284
▁billion	-8.37633
▁body	-8.38054
en	-8.38134
▁room	-8.38374
▁image	-8.38428
▁Wh	-8.38646
▁animal	-8.38694
▁grow	-8.38886
▁possibl	-8.39348
▁probabl	-8.39379
▁Let	-8.39644
▁family	-8.39727
▁build	-8.40016
▁face	-8.40621
▁such	-8.40669
▁allow	-8.40973
▁lives	-8.41038
▁simple	-8.41399
▁coming	-8.42595
▁science	-8.42621
▁name	-8.42835
▁prett	-8.42843
▁seem	-8.43266
▁week	-8.4377
▁saw	-8.43934
▁half	-8.44127
▁piece	-8.443
▁young	-8.44515
est	-8.45112
▁share	-8.45341
▁stuff	-8.45364
▁far	-8.45661
▁else	-8.45763
▁side	-8.45845
▁hav	-8.45925
▁dollars	-8.45984
▁keep	-8.4682
▁complete	-8.47457
▁societ	-8.47849
▁care	-8.47927
▁line	-8.48097
▁Africa	-8.48246
▁Earth	-8.48471
▁close	-8.48498
▁U	-8.48679
▁set	-8.48836
▁To	-8.4944
▁disease	-8.49667
▁business	-8.49714
▁men	-8.49722
ic	-8.50162
▁particular	-8.50502
▁while	-8.50532
▁later	-8.50586
▁New	-8.50679
▁student	-8.51063
91	-8.51145
▁almost	-8.51434
▁inside	-8.51705
▁single	-8.52337
▁am	-8.52648
▁health	-8.52781
▁thousand	-8.53181
▁All	-8.53224
▁un	-8.53646
▁machine	-8.54037
▁often	-8.54397
▁mind	-8.54521
▁remember	-8.54735
▁imagine	-8.55429
▁sure	-8.55711
▁age	-8.55727
93;	-8.56175
▁order	-8.5643
▁community	-8.56901
▁hope	-8.56989
▁B	-8.5727
▁study	-8.57299
▁times	-8.57351
▁global	-8.57675
▁level	-8.5787
▁watch	-8.58614
▁public	-8.58632
▁city	-8.58731
▁As	-8.58959
▁days	-8.59265
ation	-8.59437
▁already	-8.59498
▁amazing	-8.59559
▁nothing	-8.59802
▁book	-8.60132
▁girl	-8.60334
▁yet	-8.60363
▁histor	-8.60751
▁whe	-8.61336
▁bad	-8.61696
▁patient	-8.61904
▁minute	-8.62015
▁exact	-8.62072
▁both	-8.62073
▁months	-8.6209
▁child	-8.62297
th	-8.62457
▁happens	-8.62898
▁read	-8.63036
▁E	-8.63247
▁head	-8.63418
▁certain	-8.63573
▁test	-8.63623
▁wrong	-8.63892
▁large	-8.63904
▁language	-8.63983
▁interest	-8.64761
▁saying	-8.64857
▁beautiful	-8.65259
▁once	-8.65726
▁figure	-8.66176
▁control	-8.66817
▁C	-8.66869
▁self	-8.66923
▁entire	-8.67178
▁American	-8.67346
us	-8.67387
▁run	-8.6771
▁hundred	-8.6791
▁six	-8.67924
▁cost	-8.68246
▁creat	-8.68747
▁Unit	-8.68828
▁unti	-8.69356
▁top	-8.69539
▁stop	-8.69549
▁walk	-8.69576
▁challenge	-8.6963
▁final	-8.69664
▁words	-8.69664
▁T	-8.69683
▁market	-8.69909
▁heard	-8.70064
▁issue	-8.71364
▁research	-8.71682
▁art	-8.71779
▁video	-8.71956
▁couple	-8.7233
▁built	-8.72413
▁basically	-8.72437
▁kne	-8.72791
▁true	-8.7304
le	-8.73061
▁makes	-8.73099
▁cancer	-8.73172
▁difference	-8.73179
▁game	-8.73263
came	-8.73268
▁individual	-8.73339
▁ways	-8.7339
▁night	-8.73648
S	-8.73674
▁education	-8.73726
▁term	-8.74101
▁environment	-8.74595
▁stories	-8.74772
▁though	-8.75362
taking	-8.75508
▁friends	-8.7559
ything	-8.75616
▁past	-8.75688
▁speak	-8.75707
▁decided	-8.75881
▁sound	-8.76256
▁hear	-8.76717
▁...	-8.76749
▁discover	-8.76908
▁woman	-8.76932
▁word	-8.76989
▁S	-8.77274
▁30	-8.77318
▁universe	-8.77465
▁house	-8.78069
where	-8.78293
ally	-8.7843
▁must	-8.7852
▁leave	-8.78568
▁phone	-8.78621
▁stand	-8.78721
▁follow	-8.78735
▁heart	-8.79157
stead	-8.79203
▁Internet	-8.79322
▁Every	-8.79381
▁spend	-8.79606
▁realize	-8.79634
▁America	-8.79725
▁nature	-8.79777
▁plant	-8.79919
msel	-8.79981
▁model	-8.80341
▁ra	-8.80684
▁mother	-8.80703
▁States	-8.81023
▁music	-8.8105
▁species	-8.81123
▁since	-8.81735
▁company	-8.81809
▁black	-8.81926
▁quick	-8.82624
▁oursel	-8.8311
▁sometimes	-8.8328
▁culture	-8.83348
▁team	-8.83759
▁happening	-8.84059
▁50	-8.84278
▁network	-8.84723
▁economic	-8.84919
▁pay	-8.85055
▁war	-8.85465
▁bigge	-8.85532
▁200	-8.86254
rhaps	-8.86301
▁cause	-8.86706
▁huge	-8.87062
▁difficult	-8.87507
▁b	-8.88083
▁state	-8.88511
▁color	-8.88642
▁along	-8.88797
▁program	-8.88959
▁per	-8.89125
▁Some	-8.89131
▁object	-8.89297
▁front	-8.8966
▁force	-8.89723
▁structure	-8.8989
▁die	-8.90173
▁population	-8.90393
▁risk	-8.90483
▁questions	-8.90488
▁scientist	-8.90538
▁hours	-8.90702
▁air	-8.91634
▁experiment	-8.9164
▁least	-8.91687
▁free	-8.91866
▁Do	-8.92052
▁field	-8.92224
▁learning	-8.92293
▁God	-8.92507
ten	-8.92708
▁early	-8.92933
▁100	-8.93104
ment	-8.93306
▁land	-8.93419
▁ocean	-8.93569
▁Or	-8.93601
▁exist	-8.93835
▁death	-8.93841
▁tree	-8.94107
▁India	-8.94237
gan	-8.94291
▁15	-8.94642
▁listen	-8.94752
▁relationship	-8.95227
▁poor	-8.95354
▁Oka	-8.95355
▁amount	-8.95644
▁focus	-8.95749
▁simpl	-8.95766
▁pick	-8.95886
▁Oh	-8.96008
▁step	-8.96241
▁outside	-8.96307
▁pe	-8.9637
▁middle	-8.96435
▁compani	-8.9673
less	-8.96898
ability	-8.96956
▁choice	-8.97666
▁fly	-8.97965
▁physical	-8.98332
▁act	-8.98433
▁On	-8.98506
▁device	-8.98558
▁behavior	-8.99013
▁TED	-8.99119
▁effect	-8.99586
▁won	-8.99734
▁safe	-8.99828
▁common	-8.99863
▁natural	-9.0018
▁full	-9.00225
not	-9.0034
▁third	-9.00457
▁beginning	-9.00729
▁realit	-9.00918
▁teacher	-9.00975
▁drive	-9.01065
▁local	-9.01245
▁parents	-9.01328
▁friend	-9.01333
▁century	-9.01481
▁buy	-9.01681
▁size	-9.01857
▁feeling	-9.01993
▁view	-9.02132
▁support	-9.02166
▁powerful	-9.02335
▁stay	-9.02506
▁lead	-9.02567
▁engineer	-9.02762
▁explain	-9.02893
▁Then	-9.02955
▁father	-9.03191
▁OK	-9.033
▁dur	-9.03881
▁York	-9.03906
▁political	-9.04012
▁given	-9.04025
▁scale	-9.0414
▁robot	-9.04542
▁behind	-9.04729
▁eyes	-9.04938
▁pattern	-9.05341
year	-9.05588
▁major	-9.05647
▁near	-9.05694
▁deep	-9.05736
▁wait	-9.05739
▁happy	-9.05936
▁kill	-9.06122
▁paper	-9.0614
▁easy	-9.06241
▁media	-9.06289
felt	-9.06914
▁systems	-9.06981
▁seven	-9.07176
▁produce	-9.07183
▁personal	-9.07199
▁doctor	-9.07237
▁decision	-9.07344
▁works	-9.0753
▁rate	-9.07577
▁fish	-9.07622
▁deal	-9.0768
▁normal	-9.07822
▁At	-9.0805
▁reach	-9.08214
▁wonderful	-9.08222
▁save	-9.08385
▁area	-9.08387
▁generation	-9.08779
▁longer	-9.08974
▁surface	-9.09354
▁send	-9.10478
▁organization	-9.10637
▁begin	-9.11044
▁Our	-9.11369
▁movement	-9.11405
ither	-9.12088
▁travel	-9.12815
▁service	-9.12853
0	-9.129
▁absolute	-9.13182
▁China	-9.1332
▁w	-9.13413
▁ground	-9.13523
i	-9.1383
old	-9.14111
▁value	-9.14428
▁lost	-9.14432
▁center	-9.14442
▁protect	-9.14592
▁add	-9.14747
▁slow	-9.14896
▁seeing	-9.15029
▁growth	-9.15234
▁complex	-9.15395
▁oil	-9.15542
▁access	-9.15889
▁fear	-9.16398
▁message	-9.16485
▁map	-9.16539
▁eight	-9.16714
▁obvious	-9.16786
▁DNA	-9.16841
▁climate	-9.16841
▁low	-9.1694
▁write	-9.16944
▁born	-9.1695
▁record	-9.17041
▁present	-9.17107
▁increase	-9.1718
▁hands	-9.17481
▁blood	-9.17553
▁tried	-9.17591
▁film	-9.17658
nt	-9.17665
▁rest	-9.17679
▁People	-9.17794
▁spen	-9.17972
▁opportunity	-9.18037
▁impact	-9.18143
▁action	-9.18661
▁known	-9.18694
▁19	-9.1876
▁material	-9.18847
▁40	-9.1885
▁gone	-9.1886
▁Music	-9.19023
▁Just	-9.1913
▁condition	-9.19139
▁result	-9.19141
▁Yea	-9.19185
▁news	-9.19296
▁perfect	-9.19349
▁wall	-9.19496
▁white	-9.20331
▁resource	-9.20375
▁sitt	-9.20699
▁Right	-9.2071
▁fall	-9.20713
▁Yes	-9.20829
▁toward	-9.21017
▁citi	-9.21123
▁hold	-9.21597
▁red	-9.21632
giving	-9.21704
▁short	-9.21871
▁treat	-9.21944
▁movie	-9.21955
▁economy	-9.21993
aught	-9.22059
▁solve	-9.22088
▁expect	-9.22097
▁clear	-9.22248
▁extreme	-9.22348
▁de	-9.22425
▁blue	-9.2248
▁potential	-9.22631
alone	-9.22665
▁conversation	-9.2324
▁pass	-9.23245
▁voice	-9.23451
▁Can	-9.23657
▁approach	-9.23727
▁stage	-9.23943
▁camera	-9.24305
▁consider	-9.24645
5	-9.24829
rought	-9.24833
▁literal	-9.24884
▁boy	-9.25032
▁understanding	-9.25329
▁measure	-9.2591
▁similar	-9.26695
▁average	-9.26993
▁key	-9.27008
▁trust	-9.27122
▁developed	-9.27188
▁situation	-9.27562
▁chance	-9.27637
▁Not	-9.28162
▁morning	-9.28395
▁technologi	-9.28456
▁digital	-9.28483
▁cut	-9.28496
▁An	-9.28518
▁tin	-9.28641
▁continue	-9.28675
▁green	-9.28763
▁notice	-9.29156
ers	-9.29234
▁attention	-9.29252
▁train	-9.29454
▁sea	-9.2951
▁tools	-9.29891
▁CA	-9.29976
▁dark	-9.30115
▁M	-9.30225
▁eat	-9.30249
▁dream	-9.30271
▁meet	-9.30391
▁hit	-9.30505
▁incredibl	-9.3052
an	-9.30762
▁source	-9.31383
▁sudden	-9.31564
rote	-9.31575
▁D	-9.31602
▁knowledge	-9.31665
▁shape	-9.3176
▁essential	-9.31807
▁forward	-9.31853
ous	-9.31919
▁nice	-9.32037
▁raise	-9.3207
changing	-9.32079
D	-9.32096
▁development	-9.321
▁audience	-9.32118
▁lab	-9.32358
specially	-9.32415
▁pull	-9.32442
▁feet	-9.32518
▁artist	-9.32598
▁humans	-9.32673
▁gav	-9.32696
▁strong	-9.32706
▁African	-9.32728
▁forest	-9.32937
▁sign	-9.32992
▁1	-9.33002
um	-9.33033
▁push	-9.33227
▁photograph	-9.33367
man	-9.33409
▁met	-9.33461
▁bottom	-9.33483
▁fundamental	-9.33612
▁wonder	-9.33634
▁areas	-9.33878
▁innovation	-9.34432
▁bas	-9.34443
▁Europe	-9.34756
▁avail	-9.34853
▁studie	-9.35038
▁o	-9.35147
▁recently	-9.35459
▁books	-9.35543
▁truth	-9.3602
2	-9.36083
▁hospital	-9.36125
▁industry	-9.36225
▁serious	-9.36225
▁With	-9.36571
▁soon	-9.36631
▁miles	-9.36748
ry	-9.36873
▁specific	-9.37123
▁solution	-9.37394
▁electric	-9.37506
▁12	-9.37745
▁current	-9.38303
to	-9.38942
▁fast	-9.39014
▁late	-9.39068
credible	-9.39439
▁response	-9.39571
▁cool	-9.39577
▁worth	-9.39606
▁goal	-9.39732
▁eye	-9.39989
▁affect	-9.40316
▁attack	-9.4032
▁English	-9.40345
▁among	-9.40429
▁journey	-9.40769
▁law	-9.40876
▁code	-9.40903
▁thank	-9.40913
▁cover	-9.40932
▁spread	-9.4094
▁institution	-9.40948
▁sit	-9.41077
ism	-9.41185
▁runn	-9.4124
▁actual	-9.4135
▁product	-9.41536
▁medical	-9.41549
▁non	-9.41763
▁guess	-9.41895
or	-9.41982
▁break	-9.42031
▁role	-9.42069
c	-9.42189
▁site	-9.42201
▁touch	-9.42212
▁theory	-9.42349
▁plan	-9.42468
gainst	-9.42478
▁type	-9.42654
▁sex	-9.42897
▁special	-9.43171
▁smart	-9.43213
▁developing	-9.43219
▁effective	-9.43268
▁direct	-9.43331
▁connect	-9.43384
▁carbon	-9.43591
▁putting	-9.43595
▁dead	-9.4372
▁ice	-9.43865
▁somebod	-9.43886
▁drug	-9.44041
▁online	-9.44087
▁page	-9.44556
▁yes	-9.44575
▁general	-9.44663
▁equal	-9.44727
▁Google	-9.44978
up	-9.44987
▁baby	-9.44989
▁search	-9.4508
▁communit	-9.45223
▁modern	-9.45311
▁region	-9.45469
is	-9.45692
▁several	-9.45805
▁box	-9.45844
▁60	-9.46073
▁represent	-9.46079
ond	-9.46218
▁fun	-9.46699
▁basic	-9.46722
▁Where	-9.46742
▁provide	-9.46947
▁solar	-9.46985
▁main	-9.47095
▁3	-9.47095
▁teach	-9.47138
▁World	-9.47178
▁includ	-9.47341
▁violen	-9.47529
▁By	-9.47572
▁leaders	-9.47741
▁track	-9.47761
▁evidence	-9.47906
▁fire	-9.48084
▁song	-9.48267
▁re	-9.4863
▁First	-9.48658
▁leg	-9.48721
▁rich	-9.48772
▁11	-9.49311
▁connection	-9.49338
land	-9.49468
▁recognize	-9.49699
▁South	-9.49727
▁subject	-9.49957
▁street	-9.50079
▁village	-9.50233
▁perspective	-9.50245
▁develop	-9.50337
▁office	-9.50625
▁success	-9.50771
▁benefit	-9.51124
▁period	-9.51132
▁class	-9.51285
▁extraordinar	-9.51293
▁block	-9.51312
▁drugs	-9.51461
▁scientific	-9.51677
▁successful	-9.51821
▁join	-9.52054
▁favorite	-9.52253
▁function	-9.52262
▁nine	-9.52316
▁treatment	-9.52367
▁event	-9.52555
▁medicine	-9.52562
▁college	-9.52737
▁Look	-9.52741
▁degree	-9.52842
▁Even	-9.53068
▁mov	-9.53308
▁son	-9.53325
moving	-9.53379
▁After	-9.53515
▁G	-9.53603
ton	-9.5367
▁shows	-9.53769
ance	-9.53807
▁sell	-9.53897
▁month	-9.54279
▁molecule	-9.54498
▁realiz	-9.54612
▁fight	-9.54841
▁colleague	-9.54894
▁usual	-9.5495
more	-9.55005
▁character	-9.55039
▁di	-9.55269
▁writing	-9.55312
▁sun	-9.55336
,000	-9.55398
▁road	-9.55469
▁Maybe	-9.55493
▁flow	-9.55494
▁collect	-9.55522
cy	-9.55661
▁national	-9.55783
▁suggest	-9.5586
▁sounds	-9.55912
▁speed	-9.55921
▁creative	-9.55931
▁fair	-9.55957
▁list	-9.56218
▁securit	-9.56597
▁mass	-9.5662
▁vision	-9.5664
▁hole	-9.56662
▁choose	-9.56785
▁detail	-9.56898
▁store	-9.57159
▁80	-9.57201
▁secret	-9.57292
▁necessar	-9.57404
▁wear	-9.57578
▁connected	-9.57813
▁gre	-9.57928
▁clean	-9.58043
▁Mars	-9.5819
▁adult	-9.58367
▁rules	-9.58405
▁designer	-9.5862
▁table	-9.58623
against	-9.58741
▁invent	-9.58751
▁predict	-9.58845
▁require	-9.58862
▁further	-9.58946
▁concept	-9.58986
▁walking	-9.59024
▁nation	-9.592
▁visual	-9.59335
▁accept	-9.59362
time	-9.59422
▁transform	-9.59826
▁famili	-9.59846
▁higher	-9.59888
▁signal	-9.59934
▁skin	-9.60249
▁poverty	-9.60311
▁offer	-9.60586
▁throw	-9.60629
▁democracy	-9.60649
▁mental	-9.60655
▁price	-9.60749
▁J	-9.60827
▁worker	-9.60901
▁wish	-9.60903
▁remain	-9.61133
▁crazy	-9.61239
▁onto	-9.6133
▁18	-9.61331
▁practice	-9.61374
▁letter	-9.61443
▁gives	-9.61521
▁software	-9.6156
▁virus	-9.61592
▁lose	-9.61678
▁tend	-9.61751
▁surprise	-9.61875
▁position	-9.6204
▁genetic	-9.622
▁Of	-9.6232
▁tool	-9.62367
▁Who	-9.62478
▁visit	-9.62498
▁finish	-9.62502
▁fund	-9.62608
▁conflict	-9.62679
▁traditional	-9.6269
▁hour	-9.62752
▁mine	-9.6279
▁evolution	-9.62875
▁text	-9.63115
▁P	-9.63275
▁25	-9.63335
▁ready	-9.63404
▁bacteria	-9.63429
▁shift	-9.63488
9	-9.63687
▁Most	-9.63764
as	-9.63847
▁Don	-9.63867
▁finding	-9.63879
▁exciting	-9.64143
▁wife	-9.64473
▁address	-9.64474
▁co	-9.64616
▁faster	-9.64753
▁fuel	-9.64931
kay	-9.64941
▁2	-9.65034
▁results	-9.65056
▁eventual	-9.65291
▁immediate	-9.65337
how	-9.65402
▁door	-9.65755
▁return	-9.66
▁everywhere	-9.66173
▁stick	-9.66368
▁depend	-9.66438
▁screen	-9.665
▁involv	-9.66719
▁carry	-9.66738
▁led	-9.66756
▁fail	-9.66847
▁fit	-9.66874
▁galax	-9.6689
▁direction	-9.66998
▁revolution	-9.67004
▁daughter	-9.67013
▁inspire	-9.67138
▁launch	-9.67331
▁tru	-9.67354
▁arm	-9.6741
▁waste	-9.67562
▁police	-9.67635
▁publish	-9.6766
f	-9.67721
▁haven	-9.67729
▁meant	-9.67782
▁chemical	-9.68127
▁supposed	-9.68229
▁worse	-9.6824
▁sent	-9.68368
▁context	-9.68442
▁factor	-9.685
▁version	-9.68538
▁wind	-9.689
age	-9.68943
▁neurons	-9.68958
▁deliver	-9.69266
▁describe	-9.69292
▁possibilit	-9.69497
▁pain	-9.69558
▁quality	-9.69655
▁communication	-9.6973
▁invest	-9.69922
▁Video	-9.69954
▁easi	-9.70041
▁account	-9.70055
▁genes	-9.70134
by	-9.70168
▁90	-9.70347
▁religion	-9.70423
▁count	-9.70427
K	-9.70734
▁cold	-9.70777
▁fine	-9.70867
▁complicated	-9.70888
k	-9.70946
▁F	-9.7098
▁female	-9.71012
ily	-9.71037
▁progress	-9.71196
4	-9.71409
▁famous	-9.71416
▁lower	-9.71453
▁principle	-9.71581
▁above	-9.71582
▁card	-9.71706
▁materials	-9.71765
▁al	-9.71836
▁expert	-9.7194
▁post	-9.72124
▁fill	-9.72211
▁gas	-9.72304
▁sleep	-9.72525
▁War	-9.7264
▁compassion	-9.72644
▁earlie	-9.72775
▁crisis	-9.73003
head	-9.73022
▁North	-9.73149
▁intelligence	-9.73355
▁lesson	-9.73505
▁interact	-9.7374
▁aren	-9.73829
▁freedom	-9.73838
▁L	-9.74183
▁larger	-9.74189
▁nuclear	-9.74225
▁task	-9.7436
▁writ	-9.74428
▁memory	-9.74434
▁report	-9.74443
▁pressure	-9.74464
▁critical	-9.74614
▁meeting	-9.74709
▁appear	-9.74799
▁architecture	-9.75039
▁concern	-9.75048
▁standard	-9.75067
▁male	-9.75159
▁German	-9.75282
▁bodi	-9.75519
kept	-9.75533
▁larges	-9.75549
▁original	-9.75596
▁afford	-9.75853
▁target	-9.75906
▁West	-9.76072
▁unique	-9.76382
▁impossibl	-9.76385
▁improve	-9.76443
▁capital	-9.76536
▁respond	-9.7661
▁excited	-9.76626
▁R	-9.76807
▁positive	-9.76978
▁effort	-9.76985
▁bunch	-9.76999
▁enter	-9.7705
▁stars	-9.77055
though	-9.7709
▁floor	-9.77107
▁link	-9.77323
▁indeed	-9.77372
▁please	-9.77433
▁check	-9.7745
▁shot	-9.77486
▁increasing	-9.77502
▁total	-9.77545
▁path	-9.77547
▁cheap	-9.77618
▁private	-9.77644
▁activity	-9.77691
▁Chinese	-9.77743
▁policy	-9.77852
▁neighborhood	-9.77869
▁biolog	-9.78365
▁scar	-9.78375
▁press	-9.78464
▁bone	-9.78544
ood	-9.78595
▁products	-9.78625
▁models	-9.78704
3	-9.78748
▁moral	-9.78818
▁c	-9.78849
ist	-9.78961
▁stopp	-9.79068
▁element	-9.79119
▁range	-9.79142
▁smaller	-9.79164
▁emotion	-9.79199
▁massive	-9.79233
▁constant	-9.79261
▁Are	-9.79464
▁content	-9.79521
▁relative	-9.79612
▁ultimate	-9.79631
refore	-9.79847
▁citizens	-9.79877
▁plastic	-9.80093
▁square	-9.80184
▁rise	-9.80335
▁painting	-9.80341
▁dangerous	-9.80399
▁reading	-9.80447
▁zero	-9.80487
▁race	-9.80744
▁mention	-9.813
▁virtual	-9.81364
▁terribl	-9.81423
▁enjoy	-9.81553
▁wave	-9.81609
▁career	-9.81637
▁international	-9.81667
▁decades	-9.82179
▁email	-9.82205
▁star	-9.82581
▁healthy	-9.82638
▁prevent	-9.82968
▁meter	-9.82989
magine	-9.83257
▁perform	-9.83286
▁prison	-9.83318
▁purpose	-9.83435
▁trial	-9.83828
▁strange	-9.83845
▁decide	-9.84057
▁organism	-9.84075
▁communicate	-9.84109
▁politic	-9.84173
▁foot	-9.842
▁training	-9.8423
▁alive	-9.84449
▁hot	-9.84461
▁saving	-9.84611
▁particle	-9.84843
▁demand	-9.85011
▁W	-9.85196
like	-9.85209
▁blind	-9.85502
▁remind	-9.85611
▁base	-9.85795
▁feed	-9.85837
▁income	-9.85874
▁brother	-9.86062
▁park	-9.86095
▁dance	-9.86115
▁apply	-9.86173
▁H	-9.86229
▁Dr	-9.86238
▁clearly	-9.86245
▁super	-9.86308
▁TV	-9.86363
▁meaning	-9.86628
▁extra	-9.86733
▁temperature	-9.8688
▁financial	-9.86883
▁remarkabl	-9.87002
▁HIV	-9.87023
▁board	-9.87239
▁protein	-9.87417
▁survive	-9.8748
▁warm	-9.87562
▁series	-9.87564
▁military	-9.87692
▁user	-9.87707
▁unit	-9.8772
▁enormous	-9.87831
▁tissue	-9.87832
▁happiness	-9.87836
▁expensive	-9.87968
▁decade	-9.88131
▁creature	-9.88247
▁significant	-9.88356
▁draw	-9.88377
▁interview	-9.88386
▁wild	-9.88409
▁Universit	-9.88453
▁define	-9.88582
▁stress	-9.89175
▁21	-9.89233
▁typical	-9.89387
▁collective	-9.89503
▁physics	-9.89507
▁whose	-9.8953
▁driving	-9.89614
▁solutions	-9.8962
▁mom	-9.89642
▁genome	-9.89779
▁skills	-9.89855
▁website	-9.89919
▁fix	-9.90001
▁Like	-9.90061
▁mobile	-9.9028
▁slight	-9.90495
▁wealth	-9.90598
▁instance	-9.90626
A	-9.9066
▁Al	-9.90672
bility	-9.90696
tally	-9.90821
▁win	-9.90833
▁performance	-9.90848
▁East	-9.90876
side	-9.91082
▁manage	-9.91094
▁heat	-9.91308
▁production	-9.91434
▁brand	-9.91513
▁City	-9.9159
▁drop	-9.91693
▁consequence	-9.91766
▁achieve	-9.91805
▁strateg	-9.91988
▁honest	-9.92198
older	-9.92435
▁explore	-9.92483
▁teaching	-9.92549
▁beaut	-9.92766
▁Which	-9.92774
▁Man	-9.92789
▁rain	-9.92806
▁recent	-9.92827
▁becom	-9.9283
▁underst	-9.9291
▁paint	-9.9338
▁professional	-9.93408
▁atmosphere	-9.9341
▁yea	-9.93458
▁vehicle	-9.93647
▁expand	-9.93655
▁O	-9.93702
▁luck	-9.93953
▁respect	-9.94076
▁option	-9.94091
▁reduce	-9.94098
▁Many	-9.94107
▁document	-9.94123
▁Chris	-9.94132
▁Go	-9.94233
ful	-9.94314
stan	-9.94395
▁apart	-9.94497
▁speech	-9.94519
▁weight	-9.94527
▁Two	-9.94528
▁ga	-9.94559
▁familiar	-9.94569
▁summer	-9.94681
▁San	-9.94726
▁birth	-9.94824
▁landscape	-9.94972
▁breath	-9.95036
▁organ	-9.95073
▁drink	-9.95119
▁sister	-9.95122
▁wide	-9.95128
▁various	-9.95269
▁investment	-9.95284
▁math	-9.95364
▁dog	-9.95368
▁rule	-9.95395
▁neighbor	-9.95414
C	-9.96013
▁consciousness	-9.96029
▁fantastic	-9.96162
▁rock	-9.96306
8	-9.9634
▁14	-9.96502
▁interaction	-9.96802
▁surviv	-9.96812
▁technique	-9.96914
▁K	-9.97074
▁double	-9.9726
▁layer	-9.97348
wise	-9.97414
ia	-9.9743
▁forth	-9.97719
▁magic	-9.97769
▁convince	-9.97824
▁John	-9.97969
▁London	-9.97978
▁dy	-9.98102
▁sky	-9.98464
▁useful	-9.98528
▁failure	-9.98589
▁trade	-9.9898
▁mission	-9.98997
▁environmental	-9.99043
▁destroy	-9.99216
▁sentence	-9.99226
▁sustain	-9.99596
▁circle	-9.99646
▁trouble	-9.99666
▁infrastructure	-9.99672
▁none	-9.9968
▁finger	-9.99689
▁belief	-9.99698
▁Take	-9.9973
▁web	-9.99815
▁desire	-9.99954
▁satellite	-9.99979
▁gene	-10.0008
▁types	-10.0015
▁method	-10.0018
▁insect	-10.0029
▁peace	-10.0035
▁worst	-10.0045
▁pre	-10.0049
▁active	-10.0055
▁random	-10.0056
▁afraid	-10.006
water	-10.0068
▁bear	-10.0073
p	-10.0076
▁distance	-10.01
▁except	-10.0105
▁anyway	-10.0123
▁ran	-10.0128
▁separate	-10.0145
▁algorithm	-10.0191
▁dimension	-10.0202
▁giant	-10.0202
▁passion	-10.0207
▁release	-10.021
▁surprising	-10.0218
▁mistake	-10.0221
spite	-10.0231
▁serve	-10.0232
▁catch	-10.0233
▁charge	-10.0233
▁promise	-10.0234
▁urban	-10.0244
▁From	-10.0267
▁produc	-10.0276
▁brains	-10.028
▁ancient	-10.0282
▁capacity	-10.0284
▁loss	-10.0302
▁Think	-10.0314
▁16	-10.0315
▁cross	-10.0316
▁values	-10.0319
▁edge	-10.0345
▁forget	-10.035
▁profound	-10.0363
▁influence	-10.0368
the	-10.0371
▁hair	-10.0373
▁Facebook	-10.0379
▁campaign	-10.0379
▁highly	-10.0388
▁paid	-10.039
▁vast	-10.0395
ach	-10.0399
▁radio	-10.0399
▁sick	-10.0412
▁laws	-10.0416
▁bed	-10.0429
▁199	-10.0432
▁vote	-10.0444
▁damage	-10.0448
▁sample	-10.0451
▁noise	-10.0478
▁corner	-10.0486
▁disappear	-10.0492
▁rare	-10.0519
▁careful	-10.0519
▁Your	-10.0535
▁feature	-10.0568
▁California	-10.0575
▁tumor	-10.0591
▁roll	-10.0603
▁lack	-10.0608
▁sat	-10.0609
▁involve	-10.0633
▁vaccine	-10.0641
▁popular	-10.0647
▁rough	-10.0652
▁Second	-10.0658
▁spot	-10.066
▁worry	-10.0662
▁town	-10.0668
▁basi	-10.0669
▁sequence	-10.0671
▁contact	-10.0678
▁victim	-10.0681
ive	-10.0683
▁aid	-10.0684
▁aware	-10.0697
el	-10.0703
▁argument	-10.0708
▁photo	-10.072
▁consumer	-10.0722
▁threat	-10.0722
▁outcome	-10.0725
▁National	-10.0725
▁bank	-10.0744
▁match	-10.0789
▁babi	-10.0795
▁avoid	-10.0806
▁sexual	-10.0812
▁willing	-10.0812
▁slide	-10.0824
▁straight	-10.084
▁election	-10.0846
▁biological	-10.0859
▁cook	-10.0877
▁gap	-10.0879
▁tough	-10.088
▁claim	-10.0895
▁imagination	-10.0911
▁emotional	-10.0913
▁below	-10.0914
▁agree	-10.0925
▁border	-10.0932
▁Western	-10.0936
▁compare	-10.0941
▁net	-10.0956
▁station	-10.0969
▁streets	-10.0974
▁instrument	-10.0976
▁Indian	-10.0978
▁Over	-10.0983
▁members	-10.0983
b	-10.0985
▁cultural	-10.0999
▁Be	-10.1
▁print	-10.1004
▁driver	-10.102
▁Ver	-10.1025
▁television	-10.103
▁broken	-10.1037
▁definition	-10.1037
ne	-10.1043
▁bridge	-10.1049
▁husband	-10.1065
▁gain	-10.1087
▁accident	-10.1087
ch	-10.1095
▁scene	-10.1099
▁cycle	-10.1106
▁justice	-10.111
▁minds	-10.1117
▁jump	-10.1118
▁motion	-10.1122
▁Afghani	-10.1126
▁seat	-10.1129
▁smell	-10.1134
▁supply	-10.1153
▁reaction	-10.1154
N	-10.1174
▁surgery	-10.1183
▁Great	-10.1187
▁Muslim	-10.1192
▁generate	-10.1204
ized	-10.1206
▁sharing	-10.1218
▁responsibility	-10.1219
▁unfortunate	-10.1222
ian	-10.1232
▁core	-10.1236
▁emerg	-10.1258
u	-10.1261
▁kilometer	-10.1262
▁glass	-10.1265
ary	-10.1285
▁held	-10.1295
▁radical	-10.1296
▁window	-10.1301
▁muscle	-10.131
eath	-10.1327
▁continent	-10.1332
▁commercial	-10.1335
▁background	-10.1349
▁aspect	-10.1355
▁evolved	-10.1359
▁central	-10.1361
▁mechanism	-10.1363
▁hearing	-10.1364
▁limit	-10.1368
▁trip	-10.1374
▁stem	-10.1381
▁twice	-10.1381
▁missing	-10.139
▁European	-10.1406
▁con	-10.1416
▁plane	-10.1421
▁researcher	-10.1439
▁engage	-10.1451
▁sector	-10.1453
▁enable	-10.1454
▁Pe	-10.1456
bas	-10.1485
▁efficient	-10.1485
▁sing	-10.1497
▁hate	-10.1505
▁crime	-10.1507
▁express	-10.1518
▁platform	-10.1526
▁De	-10.1543
▁application	-10.1562
▁rapid	-10.1562
ish	-10.1571
▁coral	-10.158
▁fully	-10.1584
▁balance	-10.1602
▁ball	-10.1612
▁legal	-10.1613
▁detect	-10.1614
▁player	-10.1617
▁root	-10.162
▁include	-10.1637
▁dad	-10.1642
▁suffer	-10.1668
▁component	-10.1671
1	-10.1676
▁funny	-10.169
▁refugee	-10.1699
▁dramatic	-10.1703
▁cat	-10.1704
▁sub	-10.1707
▁His	-10.1735
▁opportunit	-10.1735
▁regular	-10.1745
▁classroom	-10.1745
▁flight	-10.175
▁climb	-10.1759
▁recover	-10.1764
▁diversit	-10.1779
▁mountain	-10.1779
▁tremendous	-10.1782
▁bar	-10.1783
▁Did	-10.1784
▁boat	-10.1789
▁bough	-10.1791
▁river	-10.18
▁ship	-10.1803
▁sand	-10.1805
▁500	-10.1805
▁capture	-10.1814
▁opposite	-10.182
▁soil	-10.1832
▁sustainabl	-10.1836
▁drawing	-10.1836
▁depression	-10.1839
▁suffering	-10.1842
nstead	-10.1849
▁religious	-10.1861
▁13	-10.1866
▁oh	-10.1884
term	-10.1895
▁1,000	-10.1897
▁dynamic	-10.1916
▁reflect	-10.1919
▁mouth	-10.1921
▁electronic	-10.1926
▁earth	-10.1933
▁creativ	-10.1941
it	-10.1948
▁Have	-10.1963
▁forever	-10.1964
▁alternative	-10.197
▁conference	-10.1972
▁notion	-10.1977
▁contain	-10.1996
▁fac	-10.2014
▁childhood	-10.2028
▁states	-10.2039
▁farmers	-10.2045
▁reveal	-10.2046
▁compar	-10.2049
▁invisibl	-10.2053
▁300	-10.207
▁David	-10.207
▁moon	-10.2071
▁10,000	-10.2072
▁cave	-10.2073
▁gender	-10.2085
▁advance	-10.2087
▁plann	-10.209
▁struggle	-10.2092
▁identify	-10.2126
la	-10.2141
▁French	-10.2142
▁leader	-10.2147
▁correct	-10.2152
6	-10.2153
▁prove	-10.2154
▁oxygen	-10.2159
▁See	-10.2164
▁identity	-10.2168
▁island	-10.2186
▁disorder	-10.22
▁pair	-10.2201
▁Japan	-10.222
▁stuck	-10.222
▁civilization	-10.222
▁tradition	-10.2229
▁technical	-10.2241
ble	-10.2248
▁coffee	-10.2258
▁dinosaur	-10.2259
▁Wom	-10.2279
▁transformation	-10.2285
▁encourage	-10.2296
▁airplane	-10.2298
▁bag	-10.2303
▁argue	-10.2313
▁24	-10.2317
▁attempt	-10.2317
▁More	-10.2318
▁flower	-10.2357
▁ecosystem	-10.2357
▁president	-10.2358
▁extend	-10.2359
▁cloud	-10.2395
▁Sometime	-10.2399
▁birds	-10.2404
▁chair	-10.2416
▁advantage	-10.2436
▁Once	-10.2448
▁malaria	-10.2449
▁eating	-10.2451
▁museum	-10.2456
▁leading	-10.2459
night	-10.2462
▁responsibl	-10.2476
▁graph	-10.2483
▁adopt	-10.2498
▁reward	-10.2516
▁engine	-10.2523
▁grand	-10.2531
▁monkey	-10.2536
▁estimate	-10.2538
▁multi	-10.2554
▁article	-10.2556
▁magazine	-10.2556
▁adapt	-10.2559
▁caus	-10.257
▁faith	-10.2572
▁crowd	-10.2581
▁exercise	-10.2581
▁hopeful	-10.2585
dimensional	-10.2617
▁farm	-10.2622
▁mathematics	-10.2636
▁British	-10.2636
▁labor	-10.2639
▁sad	-10.2647
▁desert	-10.2657
▁score	-10.2659
▁spirit	-10.2677
▁civil	-10.2696
▁Twitter	-10.2718
▁dozen	-10.2718
▁weird	-10.2718
▁f	-10.2723
▁Mr	-10.2729
▁proud	-10.2738
▁litera	-10.2742
▁Asia	-10.2751
▁marriage	-10.2761
▁location	-10.2765
▁fighting	-10.2771
▁parent	-10.2771
▁creation	-10.2777
▁9	-10.2778
▁hurt	-10.2779
▁receiv	-10.2785
▁operation	-10.2793
▁chose	-10.2796
▁bus	-10.2801
▁anti	-10.2814
▁fashion	-10.2818
▁bright	-10.2823
▁etc	-10.2824
▁holding	-10.285
▁curve	-10.2867
▁conscious	-10.2868
▁complexit	-10.2872
▁due	-10.2875
▁debate	-10.2881
▁succeed	-10.2883
▁Her	-10.2904
go	-10.2909
▁era	-10.2911
hand	-10.2924
▁traffic	-10.2938
▁hero	-10.2941
uar	-10.2956
▁date	-10.2963
▁architect	-10.2966
▁Would	-10.2966
▁politician	-10.2968
▁rid	-10.2975
▁master	-10.2977
▁Brazil	-10.2986
▁deeply	-10.3002
▁foundation	-10.3006
▁Audience	-10.3008
▁existence	-10.3029
▁phenomeno	-10.3029
▁stoo	-10.3039
▁cure	-10.3048
▁negative	-10.3058
orrow	-10.3066
▁fold	-10.3087
▁trick	-10.309
▁newspaper	-10.3092
▁controll	-10.3097
▁competition	-10.3135
▁marrie	-10.3137
▁stranger	-10.3146
▁fascinating	-10.3148
▁Sun	-10.3152
and	-10.3156
▁yellow	-10.3158
0,000	-10.3159
▁narrative	-10.3161
ta	-10.3165
ie	-10.3166
▁cry	-10.318
te	-10.3184
▁introduce	-10.3208
▁industrial	-10.3221
▁sold	-10.3232
▁strength	-10.324
▁beat	-10.3245
▁Any	-10.3263
▁honor	-10.3264
▁insight	-10.3279
▁soldier	-10.3287
▁miss	-10.3296
▁proper	-10.3303
▁epidemic	-10.3307
▁universal	-10.3307
▁sensor	-10.3314
▁odd	-10.3322
▁quote	-10.3323
▁expression	-10.3337
▁metal	-10.3361
▁perception	-10.3372
▁operat	-10.3374
z	-10.3383
▁grade	-10.34
▁writer	-10.3401
▁bubble	-10.3402
▁coast	-10.3402
▁discovery	-10.3408
▁Again	-10.3409
▁AIDS	-10.3442
▁Un	-10.3445
▁related	-10.345
▁spin	-10.345
▁zone	-10.3451
▁independent	-10.3459
▁bottle	-10.346
▁curious	-10.346
ization	-10.3481
▁Three	-10.3483
▁receive	-10.3488
▁equip	-10.3489
▁customer	-10.349
▁provid	-10.3491
▁party	-10.35
▁brilliant	-10.351
▁limited	-10.3512
▁partner	-10.3529
▁multiple	-10.3533
▁Big	-10.3535
▁Iraq	-10.3543
▁journalist	-10.3546
▁analys	-10.3548
▁mouse	-10.355
▁variet	-10.3552
▁CO	-10.356
▁closed	-10.3563
▁shock	-10.3566
tic	-10.3575
▁university	-10.3577
▁autism	-10.3593
▁manufactur	-10.3608
▁grandmother	-10.3618
▁capable	-10.3625
▁leaving	-10.3637
▁foreign	-10.3647
▁Washing	-10.3654
▁graduate	-10.3689
ership	-10.369
▁pounds	-10.3691
▁photos	-10.3701
▁dot	-10.3703
T	-10.3705
▁symbol	-10.3712
▁organic	-10.3715
▁quiet	-10.3727
▁Good	-10.373
▁198	-10.3749
▁dollar	-10.3769
▁suit	-10.3777
▁micro	-10.3782
▁frame	-10.3788
▁chip	-10.3788
▁switch	-10.3791
▁hidden	-10.3795
ur	-10.3796
▁soul	-10.3802
▁truck	-10.3813
▁fossil	-10.3814
▁interface	-10.3818
▁statistic	-10.3818
▁motor	-10.382
▁unlike	-10.3821
▁dreams	-10.3828
▁wisdom	-10.3864
▁harder	-10.3865
▁400	-10.3874
▁collection	-10.3874
▁bird	-10.3883
▁error	-10.3887
▁opinion	-10.3887
▁dinner	-10.391
▁employee	-10.391
▁copy	-10.3918
▁survey	-10.3933
▁gift	-10.3945
▁elephant	-10.3956
▁illness	-10.3957
▁solv	-10.3962
▁highest	-10.3975
▁Y	-10.3975
▁weather	-10.3979
▁lie	-10.3982
▁chain	-10.3998
▁volunteer	-10.4002
▁laugh	-10.4024
▁mirror	-10.4025
▁stream	-10.4039
▁precise	-10.4058
▁round	-10.406
▁grown	-10.4064
▁fresh	-10.4073
▁crop	-10.4075
▁occur	-10.4091
▁Middle	-10.4095
▁telescope	-10.4095
▁patent	-10.4095
▁display	-10.4096
▁equation	-10.4096
▁garden	-10.41
▁gold	-10.4105
▁resistan	-10.4116
▁meat	-10.4116
▁circuit	-10.4123
I	-10.4134
▁remote	-10.4136
▁Life	-10.4143
wood	-10.4145
▁discussion	-10.4145
▁mess	-10.4155
▁applie	-10.4159
▁fell	-10.4171
▁remove	-10.4179
▁Art	-10.4184
▁mathematical	-10.419
▁wake	-10.4194
▁wire	-10.4201
▁speaker	-10.4202
▁manag	-10.4212
▁gather	-10.4221
▁lung	-10.4221
▁ancestor	-10.4261
▁restaurant	-10.4261
▁channel	-10.4263
▁topic	-10.4273
▁organiz	-10.429
▁arms	-10.4295
▁click	-10.4314
▁row	-10.4322
▁US	-10.4332
▁orbit	-10.4333
▁exchange	-10.4342
▁therap	-10.4344
▁clinical	-10.4344
▁divide	-10.435
▁quantum	-10.4357
▁lift	-10.4357
▁poem	-10.4357
▁artificial	-10.4358
▁empower	-10.436
▁authorit	-10.4362
▁sorr	-10.4382
▁4	-10.4386
▁Einstein	-10.4405
▁Paul	-10.4405
▁stone	-10.442
▁doubt	-10.4434
▁Arab	-10.4439
▁credit	-10.4445
▁profit	-10.4446
▁whom	-10.4468
▁spoke	-10.4478
▁practical	-10.4487
▁feedback	-10.4502
▁dry	-10.4515
▁lunch	-10.4527
▁budget	-10.453
▁discuss	-10.4548
g	-10.4561
▁scan	-10.4573
▁app	-10.4584
▁seed	-10.4595
▁describ	-10.4597
▁tie	-10.4597
▁replace	-10.46
▁blow	-10.46
▁factory	-10.4605
▁taste	-10.4606
▁invention	-10.4608
▁judge	-10.4614
▁wood	-10.462
▁trillion	-10.4622
▁brief	-10.4625
▁infection	-10.4628
line	-10.463
▁Other	-10.4631
▁Australia	-10.4646
▁mix	-10.4646
▁pig	-10.4649
▁rural	-10.465
▁construction	-10.4653
00	-10.4656
▁measur	-10.4656
▁hell	-10.4656
▁shop	-10.4661
hip	-10.4665
▁Bill	-10.4669
▁criminal	-10.4683
daily	-10.4686
▁construct	-10.4699
▁roof	-10.4699
▁equivalent	-10.47
▁chemistr	-10.4706
▁coal	-10.4712
▁protection	-10.4737
▁terrorist	-10.4739
▁property	-10.474
▁agricultur	-10.4744
▁skill	-10.4748
▁combination	-10.4751
▁ordinar	-10.4771
▁nervous	-10.4775
▁determine	-10.4777
▁lifetime	-10.4797
▁belong	-10.48
▁volume	-10.4807
▁official	-10.4818
▁Come	-10.4818
men	-10.4821
▁govern	-10.4823
▁programm	-10.4824
▁President	-10.4825
▁convert	-10.4825
▁silence	-10.4825
▁surround	-10.483
sis	-10.4831
▁folks	-10.4837
▁comment	-10.4838
▁cartoon	-10.485
▁worri	-10.485
▁shark	-10.485
▁GDP	-10.4852
versus	-10.4854
▁hop	-10.4856
▁mid	-10.4867
▁flu	-10.4871
▁encounter	-10.4875
▁joy	-10.4881
▁Last	-10.4884
▁setting	-10.4884
▁inner	-10.4885
▁Does	-10.4892
▁diet	-10.4901
▁George	-10.4902
▁transition	-10.4903
▁occurr	-10.491
▁password	-10.4926
▁King	-10.4939
▁disaster	-10.4952
▁collapse	-10.4952
▁accurate	-10.4956
▁Re	-10.4959
▁challeng	-10.496
▁loud	-10.496
▁pocket	-10.4977
▁Could	-10.4977
▁crash	-10.4982
▁100,000	-10.4984
▁addition	-10.4986
▁killing	-10.4994
▁note	-10.4996
▁dealing	-10.5014
▁novel	-10.5033
▁invite	-10.5037
▁Web	-10.5041
▁symptom	-10.5054
▁assume	-10.5071
▁combine	-10.5078
▁bread	-10.5082
▁sight	-10.5083
▁metaphor	-10.5099
▁atom	-10.5111
▁peer	-10.5117
ver	-10.5119
▁Their	-10.512
▁threaten	-10.5121
▁invit	-10.5122
▁operate	-10.5134
▁maintain	-10.5158
▁intelligent	-10.5164
▁comfortabl	-10.5165
▁Mexic	-10.5184
▁puzzle	-10.5184
▁repair	-10.519
▁150	-10.5196
▁tens	-10.5196
▁lies	-10.5206
▁Los	-10.521
▁host	-10.522
▁continu	-10.5226
▁gun	-10.523
▁emissions	-10.5246
▁polic	-10.525
▁fellow	-10.5259
▁Amazon	-10.5263
▁Since	-10.5263
▁Brita	-10.5264
▁valuable	-10.5267
▁transport	-10.5288
ture	-10.5292
▁microbe	-10.5293
▁vulnerab	-10.5302
▁liquid	-10.5316
▁nurse	-10.5324
▁seek	-10.5324
▁shoes	-10.5327
▁electrical	-10.5333
▁band	-10.5337
▁privacy	-10.5342
▁N	-10.5343
▁economist	-10.5344
life	-10.5366
▁Kenya	-10.5367
▁jail	-10.5369
▁bill	-10.5387
▁explanation	-10.5396
▁initial	-10.5396
▁Richard	-10.5396
▁heavy	-10.5396
▁35	-10.5419
▁toilet	-10.5423
▁harm	-10.5424
▁battle	-10.5427
▁2,000	-10.5434
amp	-10.5442
▁Canad	-10.5443
▁stupid	-10.5449
▁balloon	-10.5449
▁broke	-10.5454
ial	-10.5463
▁string	-10.5464
▁quarter	-10.5465
▁professor	-10.5472
▁member	-10.5472
▁theater	-10.5472
▁intellectual	-10.5476
▁cutting	-10.5485
▁Times	-10.5487
ar	-10.5488
O	-10.55
▁fourth	-10.5501
am	-10.5505
▁la	-10.5512
▁gay	-10.5528
▁Street	-10.553
▁cognitive	-10.553
▁weapons	-10.553
▁MIT	-10.5557
▁talent	-10.5558
▁voices	-10.5559
▁button	-10.5568
son	-10.5581
▁mosquito	-10.5584
▁joke	-10.5584
▁surgeon	-10.5585
▁previous	-10.5586
▁bees	-10.5586
▁management	-10.5587
▁worldwide	-10.5589
▁facilit	-10.5591
▁France	-10.5595
▁north	-10.5601
▁actor	-10.5605
sumption	-10.5609
▁NASA	-10.5612
▁apartment	-10.5614
▁lay	-10.5621
▁director	-10.5624
▁flat	-10.5637
▁chicken	-10.5639
▁breast	-10.5647
▁2000	-10.5648
▁camp	-10.565
▁categor	-10.5655
▁empty	-10.5666
▁tear	-10.5667
▁historical	-10.5668
▁according	-10.5674
corruption	-10.5712
▁opening	-10.572
▁wheel	-10.5733
ling	-10.574
▁phrase	-10.5749
▁assumption	-10.5751
▁embrace	-10.5751
▁clip	-10.5754
losing	-10.5759
althcare	-10.5772
▁awesome	-10.5775
▁School	-10.5777
▁passionate	-10.5781
ine	-10.5789
▁pump	-10.5804
▁fruit	-10.5806
▁court	-10.5822
▁hum	-10.5828
▁enem	-10.5833
▁distribution	-10.5835
▁Iran	-10.5838
▁infect	-10.584
▁hide	-10.5852
▁medium	-10.5862
▁arriv	-10.5866
▁teenager	-10.5869
▁participate	-10.5879
▁undern	-10.5879
▁kick	-10.588
▁severe	-10.5895
▁pure	-10.5897
▁conduct	-10.5909
▁label	-10.5922
ging	-10.5923
erson	-10.5926
▁definite	-10.5945
▁Harvard	-10.5945
▁forgot	-10.5945
▁clinic	-10.5966
hi	-10.5972
▁vessel	-10.5973
away	-10.5977
▁exploration	-10.5977
▁pleasure	-10.5977
▁cup	-10.5979
▁importan	-10.5993
ware	-10.5998
▁librar	-10.6
▁smile	-10.6003
▁Tom	-10.6018
▁pack	-10.6018
▁abuse	-10.602
▁regard	-10.603
▁title	-10.603
▁transportation	-10.6032
▁visibl	-10.6033
▁analog	-10.6036
▁propert	-10.6048
▁load	-10.6051
▁privilege	-10.606
▁easie	-10.6076
▁evolve	-10.608
▁ride	-10.6084
▁awful	-10.6087
▁variation	-10.6087
of	-10.6098
R	-10.6102
▁physicist	-10.6115
▁2008	-10.6118
▁Jan	-10.6119
▁prime	-10.612
▁antibiotic	-10.6122
ma	-10.6124
co	-10.6142
▁England	-10.6144
▁conclusion	-10.6144
▁input	-10.6162
▁extract	-10.617
▁Yet	-10.6173
▁fiber	-10.6177
▁attract	-10.6198
▁danger	-10.6201
▁Talk	-10.6202
▁grandfather	-10.621
▁Angel	-10.6222
com	-10.6224
▁circumstance	-10.6231
▁teeth	-10.6231
▁Pleas	-10.6231
▁deserve	-10.6231
▁melt	-10.6232
ities	-10.6234
▁habit	-10.6237
▁organize	-10.6245
ical	-10.6253
▁yester	-10.6261
ber	-10.6267
▁robotic	-10.6267
▁inequalit	-10.6268
▁alien	-10.6272
▁ideal	-10.6277
▁secure	-10.6294
▁printing	-10.6305
▁dolphin	-10.6318
▁lawyer	-10.6319
▁gravity	-10.6323
▁translate	-10.6326
ter	-10.6339
▁spectrum	-10.6347
▁Francisco	-10.6347
▁primary	-10.6348
▁implication	-10.6348
▁observation	-10.6349
▁length	-10.6355
▁silk	-10.6377
▁advice	-10.6377
▁unknown	-10.6381
▁broad	-10.6403
▁contribute	-10.6413
▁south	-10.6425
▁figur	-10.6425
▁sweet	-10.6433
rtex	-10.6434
▁experienc	-10.6435
▁kitchen	-10.6436
▁Ri	-10.6436
American	-10.6437
▁evolutionary	-10.6437
▁fat	-10.6443
▁pop	-10.6445
▁La	-10.6452
▁Israel	-10.6455
▁origin	-10.6461
▁shapes	-10.6465
▁sugar	-10.6466
▁mechanical	-10.6466
▁meaningful	-10.647
▁molecular	-10.647
▁statement	-10.6473
▁prediction	-10.6475
▁Jam	-10.6476
▁YouTube	-10.6495
▁radiation	-10.6496
▁instruction	-10.6496
▁Nigeria	-10.6497
▁Park	-10.65
▁activist	-10.6506
▁bias	-10.6513
▁soft	-10.6531
▁Congress	-10.6555
▁prize	-10.6556
▁burn	-10.657
▁contract	-10.6584
▁handle	-10.6587
▁witness	-10.6587
▁protest	-10.6588
ha	-10.6609
▁notic	-10.6616
▁officer	-10.6618
▁king	-10.6631
▁Le	-10.6634
▁mothers	-10.6635
▁p	-10.6639
▁react	-10.6642
▁busy	-10.6645
▁nerve	-10.6646
▁Center	-10.6646
▁calculate	-10.6649
▁rat	-10.6655
▁solid	-10.666
▁stock	-10.6665
▁th	-10.6666
▁illegal	-10.6676
▁appreciate	-10.6678
▁thin	-10.6678
▁tape	-10.6686
x	-10.6688
▁violent	-10.6699
dom	-10.6701
▁engaged	-10.6702
▁bike	-10.6704
▁steel	-10.6711
▁zoom	-10.6712
▁relate	-10.6714
▁activit	-10.6725
▁arrive	-10.6726
scale	-10.673
▁Also	-10.6735
▁admit	-10.6736
▁lady	-10.6737
ier	-10.674
▁obes	-10.674
▁injur	-10.6758
▁Institute	-10.6768
truck	-10.6771
▁iron	-10.6773
▁bomb	-10.6774
▁II	-10.6777
▁memori	-10.6779
ng	-10.6782
▁spring	-10.6787
▁escape	-10.6792
▁names	-10.6795
▁ignore	-10.6796
▁Thanks	-10.6797
▁2010	-10.6798
▁poetry	-10.6799
▁church	-10.6801
▁Will	-10.6814
▁cit	-10.6815
▁concrete	-10.6829
▁earn	-10.683
▁firm	-10.6833
▁establish	-10.6834
ley	-10.6836
▁tall	-10.6836
▁grid	-10.6837
▁plate	-10.6838
▁PM	-10.6839
▁empath	-10.6844
▁pro	-10.6848
▁review	-10.685
▁droppe	-10.6851
▁shoulder	-10.6856
▁mammal	-10.6859
▁Paris	-10.686
▁mortality	-10.6861
▁trend	-10.6862
▁academic	-10.6863
▁ring	-10.6864
▁naturally	-10.6867
▁spaces	-10.6868
▁swim	-10.6872
▁former	-10.688
▁attach	-10.6884
▁prepared	-10.6884
▁economi	-10.6887
▁select	-10.6887
destruction	-10.6891
▁Bank	-10.6891
▁instant	-10.6892
▁calling	-10.6892
▁relevant	-10.6893
▁filter	-10.6897
▁inevitabl	-10.6922
▁GPS	-10.6922
▁hotel	-10.6923
▁grant	-10.6928
▁emerge	-10.6929
▁Am	-10.6934
▁habitat	-10.6944
▁repeat	-10.6944
▁chart	-10.6953
▁partners	-10.6953
▁hydrogen	-10.6953
▁clever	-10.6953
▁winter	-10.6953
▁icon	-10.6954
▁bio	-10.6965
▁sophisticate	-10.6984
▁Japanese	-10.6986
▁season	-10.6994
▁knowing	-10.6994
▁grain	-10.6995
at	-10.6998
▁battery	-10.6999
B	-10.7001
▁automatic	-10.7005
▁flie	-10.7009
▁status	-10.701
▁explor	-10.7013
▁chimpanzee	-10.7015
▁height	-10.7018
▁expectation	-10.7024
ium	-10.7027
▁45	-10.7038
▁terroris	-10.7044
▁dirt	-10.7047
▁file	-10.7047
▁collaboration	-10.7048
▁sphere	-10.7057
▁reverse	-10.7075
▁implement	-10.7078
▁department	-10.7078
▁biologist	-10.708
▁innovative	-10.708
▁Dan	-10.7094
▁participat	-10.7101
▁entertain	-10.7103
▁inform	-10.7107
▁centuries	-10.711
▁client	-10.711
▁staff	-10.711
▁infinite	-10.7113
▁limb	-10.7113
▁Hi	-10.7113
▁productive	-10.7119
▁reform	-10.712
▁Thom	-10.712
efore	-10.7122
▁ver	-10.7125
▁gentlem	-10.7138
▁agent	-10.7159
▁democratic	-10.7173
▁iPhone	-10.7174
▁mystery	-10.7174
ory	-10.7174
H	-10.7176
fish	-10.7181
▁entrepreneurs	-10.7187
▁State	-10.7191
▁grab	-10.7202
▁reef	-10.7206
▁reference	-10.7206
▁Wow	-10.7207
▁recording	-10.7207
▁awareness	-10.7219
▁false	-10.7237
▁aim	-10.7241
▁Me	-10.7255
L	-10.726
▁comfort	-10.7262
▁appropriate	-10.7273
▁Final	-10.728
▁Day	-10.729
▁confront	-10.73
▁spider	-10.7302
▁drill	-10.7304
▁beach	-10.7305
board	-10.731
▁Charles	-10.7316
▁dense	-10.7316
▁Green	-10.7316
▁pour	-10.7317
▁immune	-10.7367
▁panel	-10.7367
▁studio	-10.7368
▁fan	-10.737
▁Bang	-10.7371
▁swimm	-10.7379
▁loop	-10.738
▁shadow	-10.7404
▁attitude	-10.7408
11	-10.7424
▁celebrate	-10.7424
▁section	-10.7425
▁arrest	-10.7432
▁Michael	-10.7432
▁Real	-10.7442
▁cent	-10.7447
▁stronger	-10.7456
▁inspiration	-10.7457
▁comput	-10.7462
ship	-10.7463
E	-10.7476
▁apple	-10.7479
▁prototype	-10.748
▁plus	-10.7493
▁illusion	-10.7497
▁pregnan	-10.7499
▁harvest	-10.7501
▁monitor	-10.7505
▁bond	-10.7509
▁technological	-10.751
▁microscope	-10.7518
▁snow	-10.753
▁laptop	-10.7531
▁commitment	-10.7534
ard	-10.7536
▁Give	-10.7538
▁cluster	-10.7564
▁hang	-10.7568
▁loan	-10.7569
▁knee	-10.7573
ra	-10.7579
▁ingredient	-10.7597
▁Five	-10.7598
▁rational	-10.7606
▁Ten	-10.7612
▁shame	-10.7616
▁8	-10.7626
▁Darwin	-10.763
▁fortunate	-10.763
▁CEO	-10.7631
▁horse	-10.7632
▁efficienc	-10.7641
▁crack	-10.7642
▁heal	-10.7645
▁heads	-10.7649
▁danc	-10.7654
▁emergenc	-10.7654
▁Number	-10.7664
▁associat	-10.7665
▁objective	-10.7667
▁nose	-10.7671
▁exten	-10.7695
▁Science	-10.7697
▁liberal	-10.7697
▁evil	-10.7698
▁processe	-10.7715
▁tax	-10.7718
▁committ	-10.7721
▁roads	-10.7728
▁September	-10.7731
▁surveillance	-10.7731
▁afternoon	-10.7736
▁style	-10.7742
▁decline	-10.7743
▁22	-10.776
▁abstract	-10.7764
▁elder	-10.7767
▁196	-10.7769
▁Ne	-10.7777
▁Whil	-10.7783
▁sports	-10.7786
▁Apple	-10.7795
▁angry	-10.7799
▁physician	-10.78
ro	-10.7806
▁peak	-10.7808
▁pilot	-10.7809
▁logic	-10.7813
half	-10.7817
▁23	-10.7818
▁guide	-10.7828
▁barrier	-10.7833
▁advanc	-10.786
ni	-10.7861
▁unexpected	-10.7867
▁debt	-10.7867
▁contrast	-10.7867
▁script	-10.7874
▁rush	-10.7877
▁apparent	-10.7885
ant	-10.7899
heimer	-10.7902
io	-10.7902
▁Space	-10.791
▁sum	-10.7916
▁hunt	-10.792
▁employ	-10.7925
▁sheet	-10.7939
▁army	-10.7941
▁tap	-10.7955
▁imagin	-10.7956
W	-10.7963
▁internal	-10.7973
▁improvement	-10.7978
▁rely	-10.7979
rising	-10.7995
▁trace	-10.7996
▁mathematician	-10.8005
▁unusual	-10.8005
▁BG	-10.8007
▁99	-10.8014
▁pool	-10.8018
▁Ph	-10.8033
▁medication	-10.8039
▁frank	-10.804
▁genius	-10.804
▁pollution	-10.804
▁permanent	-10.8042
▁agreed	-10.8044
▁lecture	-10.8054
▁percentage	-10.8055
▁consume	-10.8056
▁exception	-10.8065
off	-10.8067
▁5	-10.8071
▁suicide	-10.8074
▁characteristic	-10.8075
▁Mary	-10.808
▁domestic	-10.8088
▁demonstrate	-10.809
12	-10.8095
▁counter	-10.8097
▁younger	-10.8108
▁reject	-10.8109
▁boring	-10.8109
▁burning	-10.8116
ise	-10.8119
▁mountains	-10.815
▁favor	-10.8151
▁asset	-10.8155
M	-10.8157
▁ear	-10.8165
surance	-10.8168
▁mile	-10.8175
▁Health	-10.8179
▁Greek	-10.818
G	-10.8181
▁V	-10.8181
▁1990	-10.8186
▁raw	-10.8202
▁hire	-10.8205
▁Higgs	-10.8215
▁sculpture	-10.8215
▁wireless	-10.8217
▁musician	-10.8222
▁prisoner	-10.8232
▁Swede	-10.8232
▁meal	-10.8236
▁musical	-10.8242
▁psychological	-10.8252
▁Valle	-10.8252
▁citizen	-10.8254
ification	-10.8257
▁license	-10.8261
▁confiden	-10.8269
▁mice	-10.8272
ility	-10.8278
▁cord	-10.8286
▁fake	-10.8287
▁1980	-10.8288
▁Anyway	-10.8291
▁Steve	-10.8293
▁breathe	-10.8302
▁expos	-10.8304
▁Sea	-10.8305
▁introduc	-10.8307
▁Chicago	-10.8322
▁trigger	-10.8322
▁greenhouse	-10.8322
il	-10.8322
▁fascinat	-10.8335
▁3,000	-10.8335
▁educational	-10.8335
▁asteroid	-10.8357
▁curiosity	-10.8357
▁phase	-10.8357
▁laboratory	-10.8358
▁videos	-10.8362
▁painful	-10.8364
call	-10.8365
▁Russia	-10.8365
▁presentation	-10.8367
ac	-10.837
▁angle	-10.8372
▁upper	-10.838
▁rescue	-10.8383
▁Obama	-10.8394
▁wound	-10.8394
▁framework	-10.8394
▁crucial	-10.8396
▁nest	-10.8398
▁engag	-10.8405
▁clothes	-10.8406
▁ritual	-10.8413
▁wine	-10.8418
▁lens	-10.8419
▁poster	-10.8421
▁Human	-10.8425
▁hall	-10.8426
▁Four	-10.8428
▁Egypt	-10.8429
▁Antarctic	-10.8429
▁fiction	-10.8435
▁ex	-10.8451
▁weigh	-10.8453
▁attend	-10.8454
▁Star	-10.8457
▁wondered	-10.8457
▁fle	-10.8463
▁pile	-10.8466
▁divers	-10.8473
▁hat	-10.8485
nfortunate	-10.8502
▁laser	-10.8503
▁vertical	-10.8503
▁exploit	-10.8504
llo	-10.8507
▁bicycle	-10.8509
▁myth	-10.8512
ground	-10.8519
▁prosper	-10.8539
▁finance	-10.8539
▁improv	-10.8557
▁drone	-10.8576
▁Pacific	-10.8579
▁weak	-10.8591
▁suck	-10.8596
▁storm	-10.86
▁da	-10.8601
foot	-10.8605
▁knock	-10.8612
▁leap	-10.8612
▁globe	-10.8612
▁recognition	-10.8612
▁narrow	-10.8612
▁install	-10.8614
▁stretch	-10.8622
▁homes	-10.8645
▁courage	-10.8648
▁confuse	-10.8649
▁Project	-10.8651
▁exhibition	-10.8652
ner	-10.8672
▁shut	-10.8686
▁intervention	-10.8686
▁tail	-10.8694
▁ugl	-10.8701
▁Sam	-10.871
▁behave	-10.8712
▁paradigm	-10.8723
▁rating	-10.8733
▁wash	-10.874
▁Rememb	-10.8743
ah	-10.8746
50	-10.8754
▁flood	-10.8761
▁horrible	-10.8762
ate	-10.877
▁presence	-10.8772
▁oppos	-10.8776
ors	-10.8777
▁Jun	-10.8783
▁tag	-10.8792
▁dogs	-10.8793
▁tip	-10.8796
▁tour	-10.8797
▁drove	-10.8798
▁silent	-10.8798
▁Bost	-10.8798
▁route	-10.8799
ri	-10.882
▁releas	-10.8821
▁download	-10.8837
▁parking	-10.8837
▁depth	-10.8838
▁desk	-10.8842
▁productivit	-10.887
▁accomplish	-10.8872
▁minister	-10.8873
▁plent	-10.8873
lz	-10.8878
▁shoot	-10.8894
▁split	-10.8894
ought	-10.8905
▁transplant	-10.8909
▁elect	-10.8911
▁feeding	-10.8914
▁Ma	-10.8918
▁anger	-10.8919
▁transfer	-10.8921
▁personalit	-10.8924
P	-10.8924
▁floating	-10.8932
▁gut	-10.8933
▁promote	-10.8938
▁resolution	-10.8944
▁conservation	-10.8949
▁appeal	-10.8949
▁defense	-10.8956
▁5,000	-10.896
▁gray	-10.8961
▁tank	-10.8969
▁database	-10.8988
▁manager	-10.8989
▁desperate	-10.8991
down	-10.8992
▁prepar	-10.9002
▁struggl	-10.901
art	-10.9017
▁predator	-10.9026
▁absorb	-10.903
▁frequenc	-10.9038
▁distribut	-10.9043
▁regime	-10.9063
▁sensitive	-10.9063
▁psychologist	-10.9065
▁1960	-10.9065
▁brown	-10.9066
▁classic	-10.9078
▁Centr	-10.9088
▁inter	-10.9093
▁neuron	-10.91
▁scenario	-10.9103
▁suspect	-10.9103
▁overall	-10.9109
▁rocket	-10.9128
raising	-10.9137
▁steal	-10.9139
century	-10.914
▁Next	-10.9141
▁corporation	-10.9141
▁hormone	-10.9141
▁Nobel	-10.9141
▁magnetic	-10.9142
▁humor	-10.9143
▁telephone	-10.9147
▁pit	-10.9151
▁authentic	-10.9152
▁photographer	-10.9163
▁pitch	-10.9172
oxide	-10.9178
▁interactive	-10.9182
▁vital	-10.9183
▁tea	-10.9187
▁cable	-10.9193
▁implant	-10.9195
▁pill	-10.9219
▁May	-10.9219
▁Museum	-10.9219
▁cheat	-10.922
▁obsess	-10.9221
▁ears	-10.9223
▁reduc	-10.9224
▁Ah	-10.9236
▁birthday	-10.9236
▁Latin	-10.9245
▁recogniz	-10.9253
▁boxe	-10.9255
▁identical	-10.9259
▁intense	-10.9259
▁pretend	-10.9261
▁philosoph	-10.9281
▁El	-10.929
▁simulation	-10.9299
▁Abou	-10.9303
rice	-10.9308
▁House	-10.9314
▁charit	-10.9326
▁revenue	-10.9338
▁plot	-10.9339
▁corporate	-10.9339
▁boss	-10.9341
▁ought	-10.9341
▁stor	-10.9351
▁Global	-10.9352
▁animation	-10.9353
mak	-10.9357
▁remov	-10.9361
▁author	-10.9362
▁candidate	-10.9377
▁International	-10.9377
work	-10.938
▁resist	-10.9383
rew	-10.9385
▁hack	-10.9395
▁fabric	-10.9409
▁Voice	-10.9417
▁scratch	-10.9417
▁uncomfortabl	-10.9417
▁renewable	-10.9418
▁lifestyle	-10.942
hood	-10.9427
▁quit	-10.9436
▁rocks	-10.9441
▁conventional	-10.9442
▁shipp	-10.9444
▁ensure	-10.9446
▁Pakistan	-10.9454
▁grass	-10.9457
▁penguin	-10.9457
▁mindset	-10.9458
▁whales	-10.9458
▁Adam	-10.946
▁cloth	-10.9466
ray	-10.9469
▁achievement	-10.947
▁adventure	-10.9475
▁reported	-10.9482
▁imag	-10.9484
▁request	-10.9497
▁fluid	-10.9497
▁footprint	-10.9501
▁fixed	-10.9508
▁eggs	-10.9521
▁nor	-10.9522
▁froze	-10.9539
what	-10.9542
▁smoke	-10.9561
▁Islam	-10.9575
▁distant	-10.9578
▁traged	-10.9578
▁acid	-10.9579
▁194	-10.9586
▁g	-10.9601
▁subtle	-10.9604
▁ladies	-10.9619
▁bare	-10.962
▁polle	-10.9625
▁accessibl	-10.9635
▁Get	-10.9638
▁analyze	-10.9646
▁beside	-10.9646
▁Frank	-10.9647
▁seal	-10.9653
▁smartphone	-10.966
gun	-10.9661
▁borrow	-10.9662
▁confident	-10.9663
▁Dur	-10.9671
▁integrat	-10.9677
▁stepp	-10.9678
▁St	-10.9681
▁deploy	-10.9699
▁Christmas	-10.97
▁essence	-10.97
▁procedure	-10.97
▁dust	-10.971
▁golf	-10.9711
▁excite	-10.9718
▁poet	-10.9718
▁electron	-10.973
▁afterward	-10.9737
▁Girl	-10.9745
▁selection	-10.9746
▁Pole	-10.975
▁portrait	-10.9755
▁consistent	-10.9755
▁symmetr	-10.976
▁Nor	-10.9776
▁High	-10.9779
▁trait	-10.9781
▁guilt	-10.9783
▁Stanford	-10.9783
▁hunger	-10.9785
▁generat	-10.9792
▁Wall	-10.9794
▁needle	-10.9805
▁believ	-10.9818
▁recruit	-10.9824
▁Prize	-10.9824
▁description	-10.9825
▁conservative	-10.9832
▁motivation	-10.9835
▁thanks	-10.9837
▁perceive	-10.9856
▁Foundation	-10.9866
▁hungry	-10.9866
▁marine	-10.9867
▁1950	-10.9868
town	-10.988
ice	-10.9899
▁Part	-10.99
▁prefer	-10.9904
▁Del	-10.9906
▁miracle	-10.9908
▁compound	-10.9908
▁session	-10.9908
▁elite	-10.9908
▁capitalis	-10.9909
▁Robert	-10.9909
▁disability	-10.9926
▁shooting	-10.993
ious	-10.9938
▁shall	-10.995
▁ridiculous	-10.995
▁judgment	-10.995
▁club	-10.9952
▁combin	-10.9952
▁skeleton	-10.9952
▁colony	-10.9952
▁output	-10.9954
▁discipline	-10.9962
▁brave	-10.9968
▁spiritual	-10.9977
▁toxic	-10.998
▁Russian	-10.9983
▁dictionar	-10.9987
▁proof	-10.9991
▁embedded	-10.9992
▁stack	-10.9992
▁measurement	-11
▁blog	-11.0007
source	-11.0014
ent	-11.0015
▁worm	-11.0018
▁polar	-11.0031
▁psycholog	-11.0034
▁grateful	-11.0034
▁tight	-11.0039
▁bump	-11.0042
▁educate	-11.0042
▁rent	-11.0046
▁optimistic	-11.0047
▁sides	-11.0061
▁additional	-11.0062
▁shake	-11.0067
ories	-11.007
nna	-11.007
▁ultra	-11.0077
▁airport	-11.0077
▁household	-11.0078
▁overcome	-11.0078
▁cute	-11.0083
▁Free	-11.0083
▁lion	-11.0084
▁ten	-11.0104
▁printer	-11.0105
▁smok	-11.0107
ivity	-11.011
▁Ben	-11.0116
▁cyber	-11.012
▁chest	-11.012
▁blame	-11.0137
▁observe	-11.0137
▁achiev	-11.0154
▁magnet	-11.0161
▁obstacle	-11.0163
▁announc	-11.0163
▁dignit	-11.0167
ize	-11.017
▁parallel	-11.017
▁headline	-11.0172
▁hous	-11.0173
dge	-11.0173
▁Tell	-11.0176
▁functional	-11.018
ho	-11.0184
▁observ	-11.0198
▁external	-11.0206
▁affair	-11.0209
▁choos	-11.021
power	-11.0217
▁anxiety	-11.0217
▁Holly	-11.0222
▁wo	-11.024
▁explosion	-11.0249
▁neural	-11.0249
▁assembl	-11.025
▁pink	-11.0252
▁suppose	-11.0257
▁item	-11.0273
▁breaking	-11.0277
▁Christian	-11.0286
▁River	-11.0295
▁advertis	-11.0299
▁representation	-11.0301
▁keeps	-11.031
▁65	-11.032
▁dedicat	-11.0322
▁murder	-11.0322
▁indicate	-11.0326
em	-11.0329
▁Black	-11.0336
▁mutation	-11.0336
▁passenger	-11.0336
tech	-11.0344
▁bend	-11.0361
▁illustrate	-11.0368
kind	-11.0372
▁sail	-11.0376
▁clue	-11.0379
▁diagram	-11.038
▁clouds	-11.0382
▁abandon	-11.0383
▁regret	-11.0386
▁tower	-11.0391
▁250	-11.0392
while	-11.0395
▁highway	-11.0395
▁inventor	-11.0414
▁Manhattan	-11.0424
▁skull	-11.0424
▁Revolution	-11.0424
▁football	-11.0424
▁hook	-11.0427
▁globalization	-11.0428
ative	-11.0431
▁fisher	-11.0432
▁flip	-11.0445
▁weapon	-11.0458
▁behavioral	-11.0467
▁Lu	-11.0468
▁dialogue	-11.0468
▁Congo	-11.0469
▁sunlight	-11.0469
ang	-11.0483
table	-11.0489
▁relie	-11.0493
▁stroke	-11.0497
▁Mi	-11.0501
ip	-11.0506
▁incentives	-11.0511
▁column	-11.0512
▁chaos	-11.0513
▁NGO	-11.0513
▁Olympic	-11.0513
▁White	-11.0527
▁windows	-11.0535
▁universit	-11.0544
ka	-11.0545
▁Jim	-11.0554
▁transparency	-11.0559
▁engagement	-11.0561
▁node	-11.0564
▁tired	-11.0564
▁Peter	-11.0569
▁farmer	-11.0576
▁orange	-11.0577
▁youth	-11.0586
▁recycl	-11.0587
▁defend	-11.0587
▁Thing	-11.0589
▁pray	-11.0602
▁agenda	-11.0603
▁marry	-11.0603
▁permission	-11.0603
▁intention	-11.0607
▁nutrient	-11.0608
▁mark	-11.0609
▁densit	-11.0616
▁magical	-11.0617
long	-11.062
▁breed	-11.0626
▁dress	-11.063
▁Martin	-11.0639
▁Ocean	-11.0647
▁chapter	-11.0647
▁flag	-11.0651
▁Arabic	-11.0651
▁currenc	-11.0651
▁survivor	-11.0657
▁mad	-11.0658
▁rap	-11.066
tta	-11.0679
15	-11.0683
▁whale	-11.0688
▁x	-11.0691
▁Friday	-11.0693
▁rainforest	-11.0693
▁intuition	-11.0693
▁probabilit	-11.0694
ndeed	-11.0695
▁chromosome	-11.0696
▁legacy	-11.0698
▁Nothing	-11.0704
▁Mo	-11.0708
▁Korea	-11.071
▁600	-11.072
▁profile	-11.0731
▁thick	-11.0733
▁yield	-11.0738
▁ceiling	-11.0738
▁diabetes	-11.0738
▁breakthrough	-11.0738
▁tunnel	-11.0739
▁march	-11.0749
▁flexibl	-11.0753
abilities	-11.0766
▁surrounding	-11.0774
▁refer	-11.0779
▁Nation	-11.0784
▁strike	-11.0784
▁earthquake	-11.0784
▁spectacular	-11.0784
hildren	-11.079
▁tackle	-11.0804
▁polio	-11.083
▁highlight	-11.0832
▁heaven	-11.0834
▁bits	-11.0837
▁conclude	-11.0843
▁shell	-11.0856
▁dis	-11.0859
▁carri	-11.0865
▁st	-11.0868
▁bother	-11.0873
▁mechanic	-11.0875
▁2.	-11.088
▁bla	-11.0882
▁dig	-11.0885
▁milk	-11.0888
▁rebuild	-11.0889
▁philosopher	-11.0892
▁cow	-11.0905
▁agenc	-11.0913
▁ticket	-11.0922
▁editor	-11.0925
▁6	-11.0928
gen	-11.0932
▁agency	-11.0941
▁Turk	-11.0947
▁tube	-11.0951
aking	-11.0958
▁li	-11.096
▁slum	-11.0965
▁globally	-11.0975
▁theme	-11.0986
▁diagnos	-11.0992
▁bind	-11.0993
▁Kan	-11.1002
▁Ca	-11.1007
▁cast	-11.1011
▁edit	-11.1012
▁norm	-11.1014
▁pioneer	-11.1015
▁senior	-11.1015
▁lake	-11.1015
▁glacier	-11.1018
▁sales	-11.102
▁Never	-11.102
▁Ya	-11.1024
▁compete	-11.1029
▁mate	-11.1031
▁backwards	-11.1032
▁tech	-11.1049
▁classe	-11.1056
▁extinct	-11.1061
▁cash	-11.1062
▁piano	-11.1062
▁pyramid	-11.1062
▁associate	-11.1062
▁entrepreneur	-11.1063
▁demonstration	-11.1064
▁underly	-11.1066
▁laid	-11.1074
▁donor	-11.1077
▁evening	-11.1085
level	-11.1085
▁Turn	-11.109
▁Boy	-11.1096
▁propose	-11.1098
▁capita	-11.1102
▁magn	-11.1109
▁concert	-11.1109
▁fabulous	-11.1109
▁voting	-11.111
▁immense	-11.111
▁banks	-11.1117
▁wage	-11.1117
▁welcome	-11.1125
dollar	-11.1134
rctic	-11.1142
▁Air	-11.1154
▁routine	-11.1157
▁expedition	-11.1157
▁Nature	-11.1157
▁unbelievabl	-11.1158
un	-11.117
▁Mom	-11.1176
▁trie	-11.1197
▁Put	-11.12
▁bug	-11.1204
▁guarantee	-11.1204
▁cousin	-11.1204
▁Egyptian	-11.1205
▁replicate	-11.1213
Something	-11.1249
bola	-11.1253
▁regulation	-11.1253
▁alter	-11.1261
▁intend	-11.127
▁killer	-11.1292
▁doors	-11.1297
▁ethical	-11.1299
▁Make	-11.1299
▁recipe	-11.13
▁synthetic	-11.1301
▁intuitive	-11.1305
▁utter	-11.1308
▁prepare	-11.131
▁refuse	-11.1312
▁fears	-11.1312
fare	-11.1313
▁priorit	-11.1329
▁95	-11.1331
hour	-11.1332
▁reserve	-11.1337
▁liver	-11.1341
▁Texas	-11.1349
▁prosthetic	-11.1349
▁shelter	-11.1349
▁bathroom	-11.1349
▁leak	-11.1349
▁salt	-11.1349
icity	-11.1351
▁Blue	-11.1353
▁50,000	-11.1356
▁repeated	-11.1362
ol	-11.1364
▁drawn	-11.1366
▁capabilit	-11.1368
▁southern	-11.1371
▁Time	-11.1376
▁axis	-11.1383
▁Joe	-11.1385
itude	-11.1386
▁nei	-11.1388
▁twin	-11.1392
▁complain	-11.1397
▁tweet	-11.1397
▁sink	-11.14
▁limitation	-11.1402
▁Atlantic	-11.1404
na	-11.1406
▁lock	-11.1408
▁spark	-11.142
▁Bob	-11.1426
▁combat	-11.1435
▁mayor	-11.1437
iness	-11.1444
▁federal	-11.1446
▁naked	-11.1446
▁array	-11.1447
▁domain	-11.1448
▁locked	-11.1452
▁gesture	-11.1455
▁wise	-11.1465
▁pen	-11.1478
children	-11.148
being	-11.148
▁colon	-11.1482
▁mere	-11.1485
▁trends	-11.149
▁Mother	-11.1491
▁Octo	-11.1495
▁replac	-11.1495
▁humanitarian	-11.1495
▁tragic	-11.1495
▁wheelchair	-11.1495
▁winner	-11.1496
▁demographic	-11.1496
▁Lab	-11.1501
▁Co	-11.1503
▁dive	-11.1503
tor	-11.1505
ua	-11.1507
▁diagnosi	-11.1513
ong	-11.153
▁32	-11.1531
BI	-11.1532
▁flash	-11.1543
▁participant	-11.1544
▁smooth	-11.1544
▁chocolate	-11.1544
▁spell	-11.1545
▁scann	-11.1551
▁marker	-11.1562
▁pulse	-11.1567
lf	-11.1569
▁relations	-11.1576
▁Haiti	-11.1593
▁Ghana	-11.1593
▁expansion	-11.1594
▁initiative	-11.1594
▁Microsoft	-11.1595
▁transparent	-11.1596
▁sacred	-11.16
▁darkness	-11.1609
▁Mark	-11.1614
cellular	-11.1614
house	-11.1624
▁Was	-11.1627
force	-11.1628
▁Dad	-11.1629
▁Red	-11.1634
▁Wikipedia	-11.1643
▁calculation	-11.1643
▁fragment	-11.1643
▁reputation	-11.1643
▁shout	-11.1645
▁clock	-11.1646
▁Ka	-11.1653
▁burst	-11.1659
▁isolat	-11.1661
▁Arm	-11.1664
right	-11.1664
▁Di	-11.1679
▁decrease	-11.1686
mo	-11.1687
op	-11.1687
▁garbage	-11.1693
▁convey	-11.1694
▁dancer	-11.1694
▁artistic	-11.1696
▁Mu	-11.1698
▁Unti	-11.17
▁mixed	-11.17
vi	-11.1714
▁educat	-11.1724
fi	-11.1728
▁Through	-11.1744
▁mushroom	-11.1744
▁simultaneous	-11.1744
▁hanging	-11.1744
▁happi	-11.1745
▁DH	-11.1745
▁kidney	-11.1747
uthern	-11.1747
▁ill	-11.1749
▁spoken	-11.1768
third	-11.1778
V	-11.1779
▁reduction	-11.1781
per	-11.1785
▁fraction	-11.1794
▁textbook	-11.1795
do	-11.1798
▁compell	-11.1798
▁pace	-11.18
▁tension	-11.18
▁determined	-11.1801
▁bat	-11.1802
▁agricultural	-11.1808
▁boundar	-11.1808
▁attribute	-11.1808
▁uncertaint	-11.1813
▁failing	-11.1822
▁district	-11.1845
▁depress	-11.1845
▁mask	-11.1845
▁dump	-11.1845
▁copyright	-11.1845
▁signature	-11.1845
▁Rome	-11.1846
▁partnership	-11.1846
▁stole	-11.1846
▁slave	-11.185
▁Spa	-11.1852
▁fusion	-11.1863
▁helpful	-11.1871
fully	-11.1871
▁Israeli	-11.1873
▁preserv	-11.1887
▁confirm	-11.1896
▁inherent	-11.1896
▁primari	-11.1897
▁neuroscien	-11.1906
▁coin	-11.1915
▁navigate	-11.1917
▁pause	-11.1923
▁Yorker	-11.1934
▁command	-11.1939
▁120	-11.1939
▁mode	-11.1944
▁recommend	-11.1945
▁vegetable	-11.1947
▁systematic	-11.1949
▁passive	-11.1954
▁fastest	-11.1961
▁mail	-11.197
▁mis	-11.1984
▁Jewish	-11.1999
▁contribution	-11.2002
▁hill	-11.2002
▁Law	-11.2005
▁punch	-11.2007
▁ski	-11.2009
▁wars	-11.2014
▁Act	-11.2023
id	-11.2023
▁SS	-11.2032
▁inject	-11.2043
▁Child	-11.2043
coming	-11.2046
▁burden	-11.2051
▁civic	-11.2051
▁assignment	-11.2052
▁Back	-11.2052
ably	-11.2053
▁gradual	-11.2057
▁extinction	-11.2059
▁argu	-11.2061
over	-11.2063
▁Rwanda	-11.2074
▁uncle	-11.2087
▁dat	-11.2095
▁Island	-11.2096
ex	-11.2099
▁bullet	-11.2103
▁contemporar	-11.2103
▁vacation	-11.2103
▁crush	-11.2103
▁retina	-11.2103
▁Palestinian	-11.2107
▁Up	-11.212
▁strip	-11.2126
ether	-11.2141
▁custom	-11.2153
▁Six	-11.2153
▁disabl	-11.2154
▁chief	-11.2155
▁ruin	-11.2155
▁pole	-11.2156
class	-11.2158
▁bee	-11.2159
▁tuna	-11.2159
▁till	-11.2164
▁inspiring	-11.2186
▁bang	-11.2195
▁opera	-11.22
▁identifi	-11.2206
▁encrypt	-11.2208
▁Uganda	-11.2208
▁comparison	-11.2208
▁Italian	-11.2208
▁trash	-11.2209
▁warning	-11.2209
▁viral	-11.2212
▁frustrat	-11.2215
▁genetically	-11.2215
▁sill	-11.2217
▁competitive	-11.2221
▁peaceful	-11.2222
▁occasional	-11.2231
▁motivat	-11.2237
▁Gates	-11.2255
▁trauma	-11.2257
▁crew	-11.2261
▁Bible	-11.2263
▁Moon	-11.2265
▁entit	-11.2283
▁leverage	-11.2283
▁journal	-11.2286
▁rape	-11.2287
▁shirt	-11.2288
▁mal	-11.2309
▁proportion	-11.2311
▁Should	-11.2314
▁primitive	-11.2314
▁trajector	-11.2314
▁biodivers	-11.2314
▁variable	-11.2316
▁automat	-11.232
▁detector	-11.2322
ped	-11.2322
▁anonymous	-11.2325
stage	-11.2329
▁package	-11.233
▁feminist	-11.2331
▁dependent	-11.2331
▁sanit	-11.2335
▁autonomous	-11.2337
▁investor	-11.2337
▁Age	-11.2339
▁branch	-11.2342
ap	-11.2345
▁shopp	-11.2348
istic	-11.2351
▁endless	-11.2354
▁freak	-11.2367
▁helicopter	-11.2367
▁oxytocin	-11.2367
▁twist	-11.2368
▁Islamic	-11.237
ible	-11.2374
▁advocate	-11.2374
▁pharmaceutical	-11.2375
▁meme	-11.2377
▁lett	-11.2381
▁plain	-11.2387
▁Jer	-11.2389
▁mold	-11.2391
▁Eric	-11.2393
▁rhythm	-11.2399
▁garage	-11.2421
▁east	-11.2421
▁collaborative	-11.2421
▁agreement	-11.2425
▁acknowledge	-11.243
▁profession	-11.2444
▁constraint	-11.2447
▁sacrifice	-11.2454
ca	-11.2455
▁contribut	-11.2456
▁corn	-11.2456
asically	-11.2473
▁beetle	-11.2475
▁microphone	-11.2475
▁Jesu	-11.2476
▁native	-11.2476
▁resident	-11.2476
▁2006	-11.248
▁projection	-11.2481
▁4,000	-11.2486
▁20,000	-11.2494
▁sel	-11.2494
▁realm	-11.25
▁hid	-11.2501
▁Scott	-11.2506
▁ignoran	-11.2516
▁10-	-11.2522
▁Spanish	-11.2529
▁northern	-11.2529
▁Little	-11.253
▁mysterious	-11.253
▁Pro	-11.253
▁lane	-11.2533
▁carrie	-11.2536
▁athlete	-11.2536
▁reactor	-11.2542
▁Ed	-11.2546
▁fee	-11.255
▁default	-11.2584
▁reinvent	-11.2584
▁slice	-11.2585
▁Technolog	-11.2585
▁terror	-11.2593
▁General	-11.2594
que	-11.2599
▁preserve	-11.2607
▁overwhelming	-11.2607
ile	-11.2619
▁interpret	-11.262
▁boom	-11.2621
▁farming	-11.2626
▁burie	-11.264
▁Long	-11.264
▁slavery	-11.2643
ir	-11.2645
▁vi	-11.2654
▁MRI	-11.2661
▁mentor	-11.2664
den	-11.2666
▁fifth	-11.2671
all	-11.2682
po	-11.2687
▁anatom	-11.2693
▁neat	-11.2694
▁audio	-11.2695
▁tune	-11.2695
▁joint	-11.2699
▁pathway	-11.2709
▁insist	-11.2715
▁van	-11.2726
▁activate	-11.2727
▁Cambri	-11.2728
▁Ever	-11.273
▁Asian	-11.2735
ied	-11.2741
▁balls	-11.2742
▁industri	-11.2743
▁intersection	-11.2747
state	-11.2747
▁awkward	-11.275
▁Virgin	-11.275
▁transaction	-11.2751
▁Vietnam	-11.2752
▁mood	-11.2755
▁2001	-11.2755
▁consum	-11.2759
▁resolve	-11.276
▁guns	-11.2766
▁homeless	-11.2779
▁delivery	-11.2805
▁December	-11.2806
▁astronomer	-11.2806
▁thrill	-11.2806
▁unclear	-11.2806
▁shin	-11.2806
ti	-11.281
▁mimic	-11.2812
▁palm	-11.2818
▁astonishing	-11.2837
▁falls	-11.2846
free	-11.2857
▁via	-11.2858
▁distinct	-11.2858
▁stake	-11.2865
▁damn	-11.2871
▁reflection	-11.2875
▁ratio	-11.2889
▁upset	-11.2899
car	-11.29
▁slides	-11.2901
▁hip	-11.2903
▁craft	-11.2904
▁ink	-11.2906
▁Love	-11.2908
ated	-11.2912
▁adjust	-11.2917
▁luxur	-11.2918
▁clar	-11.2918
▁extension	-11.2919
▁diagnostic	-11.2919
▁BF	-11.292
▁March	-11.292
▁resilience	-11.292
▁terrifying	-11.2923
ci	-11.2931
▁capabilities	-11.2932
▁crossing	-11.2946
li	-11.2947
▁pose	-11.2958
▁enabl	-11.2961
aging	-11.2962
▁programmer	-11.2963
▁sweat	-11.2969
ilicon	-11.2971
▁geo	-11.2972
▁coat	-11.2975
▁gear	-11.2975
▁baseball	-11.2976
ina	-11.2977
▁translation	-11.2977
fold	-11.298
▁fed	-11.2981
▁enterprise	-11.2985
▁orchestra	-11.2987
▁scanner	-11.2988
▁integrate	-11.299
▁owner	-11.2997
▁None	-11.2999
▁metha	-11.3004
▁creator	-11.3009
▁bold	-11.3014
▁kiss	-11.3025
▁exhibit	-11.3028
▁destin	-11.3031
▁immigrant	-11.3032
▁shrink	-11.3032
▁structural	-11.3032
▁substance	-11.3032
▁snake	-11.3032
▁Saturn	-11.3032
▁gathering	-11.3034
▁reliabl	-11.3035
▁astronaut	-11.3042
▁subway	-11.3043
14	-11.3065
▁port	-11.3067
▁cosm	-11.3072
▁computation	-11.3072
▁ho	-11.3073
▁thrive	-11.3078
▁beer	-11.308
▁rotate	-11.3082
clock	-11.3088
,500	-11.3089
▁furniture	-11.309
▁Obvious	-11.309
▁annual	-11.3091
▁collaborator	-11.3092
▁experimental	-11.3092
▁infant	-11.3092
▁register	-11.3096
▁26	-11.3096
▁faci	-11.3099
box	-11.3103
▁Sure	-11.3119
▁Research	-11.3124
▁logical	-11.314
▁graphic	-11.314
▁bow	-11.314
▁Oxford	-11.3148
▁Soviet	-11.3148
▁deforest	-11.3148
▁unprecedented	-11.3148
▁Brown	-11.3148
▁galler	-11.3148
▁Listen	-11.3148
▁spill	-11.3149
▁representative	-11.3149
▁disconnect	-11.3149
▁installation	-11.3151
ified	-11.3151
▁laughing	-11.3154
▁Syria	-11.3175
ba	-11.3175
▁hackers	-11.3198
▁i	-11.3201
▁reconstruct	-11.3203
▁ideolog	-11.3204
drew	-11.3204
▁intimate	-11.3206
▁compress	-11.3206
▁Gulf	-11.3206
▁exhaust	-11.3207
▁keyboard	-11.3207
▁concentration	-11.3208
▁wings	-11.3209
▁homework	-11.321
izing	-11.3222
place	-11.323
▁195	-11.3238
▁fool	-11.3264
▁Narrat	-11.3264
▁condom	-11.3265
▁golden	-11.327
▁exponential	-11.3275
ck	-11.3281
▁wider	-11.3285
▁pin	-11.3289
▁badly	-11.3299
ney	-11.3307
▁Jane	-11.3319
▁glad	-11.3323
▁robust	-11.3323
▁Minister	-11.3323
▁aircraft	-11.3323
▁woke	-11.3324
▁stabilit	-11.3326
▁Third	-11.333
▁Eastern	-11.3334
▁qualit	-11.3338
▁bound	-11.3343
▁sens	-11.3346
▁horizon	-11.3358
▁fate	-11.3376
▁alcohol	-11.338
▁consist	-11.3381
▁excuse	-11.3382
▁queen	-11.3382
▁transmission	-11.3382
▁dear	-11.3382
▁impression	-11.3388
▁compassionate	-11.3394
▁Sa	-11.3395
ge	-11.341
▁pant	-11.3431
▁format	-11.3435
▁Department	-11.3442
▁collision	-11.3442
▁generous	-11.3443
▁manner	-11.3446
▁upload	-11.3447
▁attractive	-11.3448
▁thumb	-11.346
stone	-11.3462
▁urge	-11.3464
▁alarm	-11.3466
▁reporter	-11.3468
▁producer	-11.3469
▁Ethiopia	-11.3473
▁paradox	-11.3494
▁precious	-11.3502
▁entrop	-11.3502
▁primate	-11.3502
▁magnificent	-11.3504
▁award	-11.3505
▁fragile	-11.3505
▁Wi	-11.3522
▁Ital	-11.3523
he	-11.3531
▁sport	-11.3539
▁wedding	-11.3546
light	-11.3552
tion	-11.3556
▁mobil	-11.3558
▁automobile	-11.3562
▁retirement	-11.3563
▁barrel	-11.3563
▁grasp	-11.3564
▁weekend	-11.3564
▁injustice	-11.3569
zi	-11.3577
▁pipe	-11.3584
▁Sorry	-11.359
me	-11.3611
▁delight	-11.362
▁Wal	-11.3622
▁supermarket	-11.3623
▁Academ	-11.3624
▁closing	-11.3624
▁transmit	-11.3625
▁grandparent	-11.3632
▁rivers	-11.3634
made	-11.364
▁captur	-11.3641
▁ambitio	-11.3655
▁Ta	-11.3659
tial	-11.3663
▁storytell	-11.367
▁tricks	-11.3672
▁jumped	-11.3676
▁Council	-11.3683
▁bulb	-11.3683
▁tattoo	-11.3683
▁origami	-11.3684
▁Northern	-11.3684
▁neck	-11.3684
▁uniform	-11.3684
▁friendship	-11.369
▁descend	-11.3692
▁Tony	-11.3692
▁romantic	-11.3697
der	-11.37
▁aesthetic	-11.3705
▁strand	-11.3706
▁Design	-11.3718
▁Tes	-11.3722
ig	-11.3724
▁Po	-11.3724
▁disagree	-11.3741
▁previously	-11.3742
▁dominant	-11.3745
▁paralyz	-11.3747
▁portion	-11.3748
▁hitting	-11.3749
▁expectanc	-11.3764
▁guid	-11.3772
▁comet	-11.3776
▁float	-11.3779
▁manipulate	-11.3781
▁coordinat	-11.3789
▁enhance	-11.3793
▁pigeon	-11.3807
▁cruel	-11.3807
Sahara	-11.3812
▁August	-11.3813
▁upside	-11.3822
▁analyz	-11.3828
ches	-11.3834
related	-11.3836
▁arrow	-11.3838
▁nuts	-11.3841
▁brutal	-11.3846
▁plug	-11.3858
▁bats	-11.3864
▁quest	-11.3866
▁Titan	-11.3867
▁dilemma	-11.3869
▁harness	-11.3869
▁jelly	-11.3869
▁electrode	-11.3869
▁civilian	-11.3871
▁Grand	-11.3873
▁Se	-11.3878
▁ego	-11.3879
▁shit	-11.3881
▁diagnose	-11.3885
▁MS	-11.3886
▁stands	-11.3903
▁optimis	-11.3915
▁pet	-11.3917
▁Bay	-11.3918
▁graduat	-11.3918
▁sensory	-11.3919
▁fanc	-11.3921
laughter	-11.3924
▁Febr	-11.3931
▁dumb	-11.3931
▁Bush	-11.3932
▁sharp	-11.3941
▁bedroom	-11.3941
▁cheese	-11.3945
▁glow	-11.3953
▁Sara	-11.396
RB	-11.3962
▁grave	-11.3967
▁gods	-11.3971
▁mo	-11.3981
▁trans	-11.399
▁leather	-11.3994
▁Square	-11.3994
▁aggressive	-11.3994
▁curriculum	-11.3994
▁receptor	-11.3994
▁veteran	-11.3994
▁venture	-11.3994
▁restore	-11.3999
▁pointed	-11.3999
▁valley	-11.4
▁healthie	-11.4003
▁celebrat	-11.4006
▁Afghan	-11.4024
▁serving	-11.4028
▁boil	-11.4031
▁broadcast	-11.4033
▁Islands	-11.4037
▁teenage	-11.4038
▁bored	-11.404
▁personaliz	-11.4044
▁wing	-11.4045
▁virtue	-11.4046
ut	-11.4051
▁Church	-11.4057
▁division	-11.4057
▁William	-11.4058
▁documentar	-11.4059
lo	-11.4059
ph	-11.4059
▁drought	-11.4061
so	-11.4065
▁Har	-11.4066
▁detection	-11.4068
known	-11.4069
▁shine	-11.4076
▁burned	-11.4084
▁winning	-11.4085
▁div	-11.4088
▁Con	-11.4092
▁occasion	-11.4093
▁CD	-11.4103
▁Bell	-11.4115
▁Ba	-11.4115
▁swing	-11.4116
▁33	-11.4116
▁outer	-11.4119
▁relax	-11.4121
▁theoretical	-11.4121
▁Parkinson	-11.4121
▁Lord	-11.4121
▁unconscious	-11.4122
▁interpretation	-11.4123
nforcement	-11.4126
▁chas	-11.4131
▁Sir	-11.4131
aday	-11.4133
▁accelerat	-11.4135
▁ethic	-11.4145
▁pot	-11.4151
▁gate	-11.4159
▁purchase	-11.4175
▁glue	-11.4179
vill	-11.4183
▁coach	-11.4183
▁min	-11.4184
▁bizarre	-11.4185
▁striking	-11.4185
▁drown	-11.4185
▁stunt	-11.4185
▁silver	-11.4185
▁marketplace	-11.4187
▁Mike	-11.4191
ese	-11.4196
▁continuous	-11.4199
▁comic	-11.4208
ero	-11.4209
▁precis	-11.4213
▁interior	-11.4222
▁statistical	-11.4246
▁ceremon	-11.4249
▁territor	-11.4249
▁Florid	-11.425
▁defeat	-11.425
▁prescription	-11.425
▁architectural	-11.425
▁ubiquitous	-11.425
▁calm	-11.425
▁manual	-11.4253
▁sensation	-11.4253
▁rope	-11.4253
▁appearance	-11.4254
▁fence	-11.4254
▁specialist	-11.4254
▁sheep	-11.4255
▁assum	-11.4255
▁selfish	-11.4256
▁Tim	-11.4257
▁blank	-11.4259
▁cooperate	-11.4268
▁Bo	-11.4269
▁suggestion	-11.427
▁dose	-11.4285
▁Has	-11.4291
▁Count	-11.4292
ite	-11.4293
▁export	-11.43
▁washing	-11.43
▁linear	-11.4301
▁EM	-11.4302
au	-11.4303
▁br	-11.4305
▁deaf	-11.4315
▁Out	-11.4315
▁Chile	-11.4315
back	-11.4315
▁outbreak	-11.4317
▁Mandel	-11.4317
▁intrigu	-11.4318
▁dial	-11.432
▁campus	-11.432
end	-11.432
▁Tu	-11.4325
▁28	-11.4325
point	-11.4326
▁Gore	-11.4327
lin	-11.4361
▁Brun	-11.4363
▁ironic	-11.4368
▁exam	-11.4376
▁Bot	-11.4379
▁Smith	-11.4379
▁quantit	-11.438
▁genuine	-11.438
▁flaw	-11.438
▁hypothesis	-11.438
▁Lego	-11.4381
▁formula	-11.4386
da	-11.4393
▁innocent	-11.4394
▁bite	-11.4397
▁Hill	-11.4397
▁bucks	-11.44
▁walks	-11.4401
▁trap	-11.4404
13	-11.4405
▁lit	-11.4405
▁vacuum	-11.4446
▁CRISPR	-11.4446
▁gravitational	-11.4446
▁Ro	-11.4447
▁offering	-11.4455
▁ignor	-11.4474
▁vary	-11.4476
▁soup	-11.4489
▁Lad	-11.449
Y	-11.4506
▁poll	-11.4507
▁pixel	-11.4512
▁principal	-11.4512
▁indigen	-11.4512
▁dawn	-11.4512
▁thread	-11.4512
▁episode	-11.4512
▁Josh	-11.4512
▁duck	-11.4513
▁mutual	-11.4513
▁assign	-11.4516
▁29	-11.4518
▁metric	-11.4522
▁fulfill	-11.4528
▁parasite	-11.4533
▁dressed	-11.4547
▁hardest	-11.4564
▁terrified	-11.4575
▁Taliban	-11.4579
▁align	-11.4579
▁stomach	-11.4579
▁hub	-11.4579
▁Stop	-11.458
makers	-11.4581
▁inclusive	-11.4585
▁ha	-11.4588
▁workplace	-11.459
▁mapping	-11.4593
olds	-11.46
▁85	-11.4603
▁loving	-11.4609
▁overwhelm	-11.4617
▁Carolin	-11.462
▁requir	-11.4621
▁Home	-11.4626
▁Nick	-11.463
▁wrap	-11.4633
▁accelerate	-11.4635
▁bin	-11.464
look	-11.464
inary	-11.4641
▁tribes	-11.4641
▁beating	-11.4642
▁guest	-11.4646
▁inherit	-11.4646
▁fraud	-11.4646
▁drift	-11.4646
▁Kid	-11.4648
▁calorie	-11.4649
▁flavor	-11.4651
▁probe	-11.4653
▁tribe	-11.4653
▁MR	-11.4655
▁incident	-11.4657
▁blindness	-11.4658
▁ecological	-11.4659
▁voter	-11.4661
▁propos	-11.4668
ga	-11.4669
▁motivate	-11.4669
▁eliminate	-11.467
▁deepest	-11.467
▁reasonable	-11.469
ternet	-11.4705
▁Lo	-11.4706
▁Neanderthal	-11.4713
▁Saudi	-11.4713
▁crawl	-11.4713
▁Leonard	-11.4713
▁hallucination	-11.4714
▁Jack	-11.4714
▁microbial	-11.4718
▁fortune	-11.4729
▁views	-11.4733
space	-11.474
▁soap	-11.4743
▁pursue	-11.4759
▁Fortun	-11.4777
▁cooperati	-11.4777
▁nano	-11.4779
▁crystal	-11.4781
▁Mountain	-11.4781
▁Sudden	-11.4781
▁threshold	-11.4781
▁tsunami	-11.4781
▁Court	-11.4781
▁spontaneous	-11.4781
▁Wait	-11.4782
▁devil	-11.4782
▁Brian	-11.4782
▁illustration	-11.4782
▁spacecraft	-11.4782
▁crap	-11.4784
▁unfold	-11.4784
▁explode	-11.4786
▁composition	-11.4792
▁ending	-11.4792
▁gase	-11.4795
led	-11.4801
zero	-11.4801
▁payment	-11.4813
▁correspond	-11.4822
▁lean	-11.4822
▁makers	-11.4823
some	-11.4824
▁sexy	-11.4829
▁communicat	-11.4838
▁collaborate	-11.4839
▁tongue	-11.4844
▁demo	-11.4848
▁Profess	-11.485
▁nonprofit	-11.4851
▁Media	-11.4852
▁requirement	-11.4859
▁hir	-11.486
▁barel	-11.4861
▁Newton	-11.487
▁Sunday	-11.4871
▁cake	-11.4871
▁staring	-11.4872
▁compromise	-11.4875
▁beam	-11.4877
▁dominat	-11.4879
▁branche	-11.4883
▁Medica	-11.4895
ping	-11.4896
▁jar	-11.4897
▁supplie	-11.4899
rapped	-11.4906
▁monitoring	-11.4912
▁embrac	-11.4913
▁arise	-11.4913
▁Jeff	-11.4919
▁Accord	-11.4919
▁Gandhi	-11.4919
▁Compan	-11.4919
▁artwork	-11.4922
▁Rather	-11.4922
▁par	-11.4925
tually	-11.493
▁Hall	-11.4936
▁log	-11.4937
ja	-11.4937
▁commit	-11.4938
▁server	-11.4939
▁Ki	-11.4939
org	-11.4947
▁pie	-11.4947
▁genocide	-11.4949
▁corrupt	-11.4952
▁36	-11.4963
ko	-11.4967
▁evolv	-11.4971
▁happie	-11.4984
▁historic	-11.4986
▁punish	-11.4987
▁Snow	-11.4988
▁deliberate	-11.4988
▁breakfast	-11.4988
▁altitude	-11.4989
▁mainstream	-11.4989
▁blink	-11.4989
▁hearts	-11.499
▁ongoing	-11.499
▁unlock	-11.499
▁wrapp	-11.499
▁lifespan	-11.499
▁commission	-11.4991
▁batter	-11.4992
▁lamp	-11.4993
▁tendency	-11.5001
▁Ra	-11.5002
▁tale	-11.501
book	-11.5012
▁strategic	-11.5017
▁institutional	-11.5023
▁entry	-11.5026
ology	-11.5036
▁assistan	-11.5037
▁drag	-11.504
▁chronic	-11.5044
▁Jul	-11.5046
sum	-11.5054
▁instinct	-11.5058
▁Dutch	-11.5058
▁frog	-11.5058
▁assault	-11.5058
▁ecolog	-11.5061
let	-11.5066
▁approve	-11.5069
▁perceiv	-11.5076
▁horizontal	-11.5087
▁hunter	-11.509
▁determin	-11.509
▁distribute	-11.5091
▁Ala	-11.5091
▁static	-11.5092
▁pr	-11.5093
▁jam	-11.51
▁proven	-11.5103
▁equit	-11.5112
▁Miss	-11.5121
▁NSA	-11.5129
▁manuscript	-11.5129
▁clay	-11.5129
▁sidewalk	-11.5129
▁mineral	-11.513
atrix	-11.5132
▁relation	-11.5142
gentleman	-11.5145
▁Ge	-11.5148
quality	-11.5151
▁lowest	-11.5152
drive	-11.5165
▁poison	-11.5176
col	-11.5179
▁Indonesia	-11.52
▁whisper	-11.52
▁fault	-11.52
▁Still	-11.52
▁foster	-11.52
ealand	-11.52
▁contradiction	-11.5201
▁Ken	-11.5201
▁Iranian	-11.5201
▁rethink	-11.5202
▁investigation	-11.5204
▁shower	-11.5205
▁contrar	-11.5209
▁leaf	-11.5209
▁downtown	-11.521
▁vibration	-11.5212
ana	-11.5212
stock	-11.5222
spring	-11.5227
▁egg	-11.523
▁Pan	-11.5239
▁Alexand	-11.5244
▁worrying	-11.5253
▁approache	-11.5257
▁bribe	-11.526
▁cod	-11.526
ak	-11.5261
▁distinguish	-11.5262
▁rose	-11.5264
▁shrimp	-11.5271
▁wrist	-11.5271
▁Disney	-11.5271
▁syndrome	-11.5271
▁prostate	-11.5271
▁wheat	-11.5276
▁fertilizer	-11.5281
▁west	-11.5281
▁elegant	-11.5285
▁reproduce	-11.5285
▁dragg	-11.5285
▁divid	-11.529
world	-11.5297
▁Alex	-11.5298
▁dish	-11.5299
▁Kev	-11.5302
▁referr	-11.5309
▁42	-11.5311
▁import	-11.5312
▁800	-11.5318
▁Ha	-11.5322
▁transmitt	-11.5326
▁Henr	-11.5332
▁visualize	-11.5336
rry	-11.5338
▁aspiration	-11.5339
▁Year	-11.5339
▁Ford	-11.5343
▁Absolute	-11.5343
▁cliff	-11.5343
▁minimum	-11.5343
▁pandemic	-11.5343
▁suppress	-11.5343
▁delay	-11.5343
▁banana	-11.5343
▁enzyme	-11.5343
▁impressive	-11.5343
▁Republican	-11.5344
▁workshop	-11.5344
▁Jew	-11.5344
▁knife	-11.5348
▁goat	-11.5353
▁useless	-11.5354
▁30,000	-11.5357
ler	-11.5358
loved	-11.5376
ide	-11.5377
▁realistic	-11.5383
▁connectiv	-11.5387
▁addict	-11.5389
tra	-11.54
▁phenomena	-11.5407
▁upward	-11.5408
▁landing	-11.5411
▁Singapore	-11.5415
▁System	-11.5415
▁unhapp	-11.5415
▁insulin	-11.5415
▁pride	-11.5415
▁antenna	-11.5416
F	-11.5421
▁singer	-11.5421
▁verb	-11.5429
▁sufficient	-11.5429
ogether	-11.5435
▁200,000	-11.5437
born	-11.544
▁ma	-11.5448
▁k	-11.545
▁independen	-11.5451
▁socially	-11.5456
▁separat	-11.5459
ola	-11.5463
▁formation	-11.5468
▁Na	-11.5472
grade	-11.5472
▁compet	-11.5486
▁augment	-11.5486
▁Jupiter	-11.5488
▁encouraging	-11.5488
▁swallow	-11.5488
▁exclusive	-11.5488
▁monster	-11.5488
▁cotton	-11.5488
▁Twenty	-11.5489
▁belt	-11.5495
▁executive	-11.5496
LT	-11.5503
ollege	-11.5527
▁anticipate	-11.5529
▁ape	-11.5536
▁devastating	-11.554
▁disabilit	-11.5557
▁confine	-11.5561
▁membrane	-11.5562
▁occupy	-11.5562
▁sibling	-11.5562
▁Social	-11.5562
▁Homo	-11.5562
▁introduction	-11.5562
▁geek	-11.5562
▁ooh	-11.5562
▁Open	-11.5564
▁rubber	-11.5565
▁sequenc	-11.5574
▁Canadian	-11.5575
▁grabb	-11.5576
ndustrial	-11.5585
▁momentum	-11.5586
▁jihad	-11.5587
cost	-11.5588
▁Nel	-11.5588
fall	-11.5599
▁Th	-11.5602
▁integr	-11.5608
▁prior	-11.5609
▁Roy	-11.5612
▁playful	-11.5615
▁pound	-11.5616
▁harmon	-11.5624
▁geometr	-11.5631
▁pregnanc	-11.5633
aa	-11.5634
▁15-	-11.5634
▁Stephen	-11.5636
▁exposure	-11.5636
▁redesign	-11.5636
ueen	-11.5638
▁frustration	-11.564
▁span	-11.5644
▁Moor	-11.5645
▁cube	-11.5646
▁accountability	-11.5649
▁Li	-11.566
xcept	-11.5666
▁fatal	-11.5667
▁Ray	-11.5668
▁Super	-11.5668
▁vulnerabilit	-11.5679
▁shore	-11.568
mer	-11.5691
▁hyper	-11.5698
▁seeming	-11.5703
▁graphics	-11.5704
▁Dere	-11.5705
▁Prince	-11.5706
▁germ	-11.571
▁accura	-11.571
▁despair	-11.5711
▁glimpse	-11.5711
▁diamond	-11.5711
▁LED	-11.5711
▁canopy	-11.5711
▁Sound	-11.5712
▁recall	-11.5713
▁separation	-11.5714
▁visualization	-11.5714
ki	-11.5714
▁sponsor	-11.5716
▁heel	-11.5718
▁chunk	-11.5719
▁Berli	-11.5724
▁forc	-11.5724
ating	-11.5733
▁indoor	-11.5734
▁traffick	-11.5735
▁retire	-11.5738
worth	-11.5742
▁Gree	-11.5757
▁cop	-11.5768
▁Che	-11.5779
▁Nigerian	-11.5783
▁geograph	-11.5783
▁criteri	-11.5786
▁Beij	-11.5786
▁nerd	-11.5787
▁2020	-11.5788
▁bombs	-11.5789
▁developer	-11.5793
▁centimeter	-11.5801
▁Vi	-11.5803
▁millimeter	-11.5803
lmost	-11.5809
▁pan	-11.5814
▁arter	-11.5815
▁starv	-11.5816
verse	-11.5822
▁democrac	-11.5835
▁wir	-11.5842
▁Young	-11.5859
▁cue	-11.586
▁scheme	-11.5862
▁steer	-11.5862
▁Brooklyn	-11.5862
no	-11.5862
▁straightforward	-11.5862
▁strict	-11.5862
▁pursuit	-11.5862
▁insert	-11.5864
▁loose	-11.5864
lock	-11.5868
aeda	-11.5876
▁Laugh	-11.588
▁filmmaker	-11.588
▁computational	-11.5889
vity	-11.59
tz	-11.5904
▁blend	-11.5912
▁Jo	-11.5914
▁container	-11.5922
▁archive	-11.5928
▁yoursel	-11.5937
▁absence	-11.5938
▁chamber	-11.5938
▁glucose	-11.5938
▁Sierra	-11.5938
▁diameter	-11.5938
▁libert	-11.5938
▁infectious	-11.5938
▁kingdom	-11.5938
▁endanger	-11.5939
▁manufacturer	-11.5941
▁miserable	-11.5942
▁armor	-11.5944
▁blast	-11.5951
▁Seattl	-11.5958
ger	-11.5959
▁approximate	-11.596
▁shak	-11.5965
▁acquire	-11.5967
▁tone	-11.5971
▁nonviolen	-11.5972
minute	-11.5974
▁Bee	-11.5981
▁locat	-11.5993
▁prov	-11.6008
▁excellen	-11.6011
▁Mc	-11.6013
tasi	-11.6014
▁Koran	-11.6015
▁Tanzania	-11.6015
▁suspend	-11.6015
▁insane	-11.6015
▁November	-11.6015
▁aggregate	-11.6015
▁flourish	-11.6015
▁Cal	-11.6015
▁Spring	-11.6015
▁Half	-11.6015
▁canvas	-11.6016
pox	-11.6017
▁proposal	-11.6019
▁Rose	-11.6023
▁phenomenal	-11.6023
▁intensit	-11.6024
▁neutral	-11.6024
blew	-11.6028
▁Eve	-11.6029
▁association	-11.6033
▁Play	-11.6035
▁shocking	-11.6038
▁Men	-11.6051
shirt	-11.6052
▁camps	-11.6061
▁screening	-11.6061
▁cosmo	-11.6061
▁Korean	-11.6067
▁screw	-11.6067
▁identit	-11.6067
▁journalis	-11.608
▁forgive	-11.609
▁stamp	-11.6091
▁smil	-11.6092
▁Swiss	-11.6092
▁amateur	-11.6092
▁warrior	-11.6092
▁Aristot	-11.6092
▁tribal	-11.6092
▁cigarette	-11.6092
▁cap	-11.6093
▁6,000	-11.6094
▁Phila	-11.6094
▁backyard	-11.6095
▁frontier	-11.6096
▁1900	-11.6097
▁Du	-11.6097
▁40,000	-11.6101
▁beaten	-11.6102
▁interconnected	-11.6109
▁intensive	-11.6113
▁Hav	-11.6117
ham	-11.612
▁planetary	-11.6133
▁Edi	-11.6141
▁administration	-11.6148
▁deposit	-11.6156
ul	-11.6158
▁innovate	-11.6163
▁mall	-11.6165
▁Detroit	-11.617
▁blockchain	-11.617
▁chef	-11.617
▁peculiar	-11.617
▁drain	-11.617
▁triangle	-11.617
▁troop	-11.617
▁Geographic	-11.6171
▁flesh	-11.6171
▁Apri	-11.6171
▁texture	-11.6171
▁destination	-11.6173
ela	-11.6182
together	-11.6184
▁broader	-11.6186
▁sale	-11.619
▁remembering	-11.619
kin	-11.6193
▁Far	-11.6198
▁injured	-11.6198
▁whistle	-11.621
▁bush	-11.6213
▁minority	-11.6213
▁translat	-11.6223
▁mat	-11.6231
▁spray	-11.6232
▁disrupt	-11.6232
▁jewel	-11.624
▁penis	-11.6247
▁panic	-11.6248
▁Telescope	-11.6249
▁accent	-11.6249
▁Organization	-11.6249
▁segment	-11.6249
▁unemploy	-11.6249
elphi	-11.625
▁punishment	-11.6251
▁minus	-11.6251
▁logg	-11.6252
▁distinction	-11.6253
▁Bali	-11.6267
▁Try	-11.6269
▁decid	-11.6277
▁mud	-11.6278
TI	-11.6278
▁taxe	-11.6279
arrow	-11.6282
ud	-11.6287
fin	-11.6296
▁chemist	-11.6309
▁scream	-11.6312
▁shoe	-11.6313
▁gra	-11.6319
▁atomic	-11.632
▁pad	-11.6326
▁TEDTalk	-11.6329
▁jealous	-11.6329
▁multiply	-11.6329
▁harbor	-11.6329
▁retreat	-11.6329
▁Nike	-11.6329
▁preference	-11.6329
▁Coke	-11.6329
▁harmful	-11.633
▁isolation	-11.6333
▁trustworth	-11.6335
SD	-11.6341
▁deck	-11.6342
▁modest	-11.6344
▁bath	-11.6352
▁prayer	-11.6354
▁Hans	-11.6356
▁convenient	-11.636
▁Pa	-11.6362
▁tri	-11.6365
▁nutrition	-11.6367
▁optical	-11.637
▁Cha	-11.6372
▁mapp	-11.6383
▁190	-11.6386
▁Penn	-11.6386
▁frightening	-11.6393
▁Pr	-11.64
▁transit	-11.6401
▁nam	-11.6404
liv	-11.6406
▁calculus	-11.6409
▁scaffold	-11.6409
▁temple	-11.6409
▁proposition	-11.6409
▁horror	-11.6409
▁salar	-11.6409
▁Late	-11.641
▁rank	-11.641
round	-11.6411
▁incentive	-11.6411
▁titan	-11.6411
▁Mexican	-11.6413
▁passage	-11.6415
than	-11.6416
▁shy	-11.6417
▁1.5	-11.6422
▁Mac	-11.6423
▁Car	-11.6428
wide	-11.6444
estate	-11.6449
gie	-11.6465
▁hydro	-11.6479
▁wi	-11.6483
▁explorer	-11.6486
▁impress	-11.6486
▁creep	-11.6489
▁cylinder	-11.6489
▁pedestrian	-11.6489
▁obtain	-11.6489
▁Catholic	-11.6489
▁protocol	-11.6489
▁immigration	-11.6489
▁Water	-11.649
▁Johnson	-11.6491
▁dopamine	-11.6492
▁logo	-11.6493
▁bleed	-11.6495
▁scare	-11.6501
▁philanthrop	-11.6504
pe	-11.6506
j	-11.6506
▁parachute	-11.6516
▁glasse	-11.652
eaten	-11.6525
▁Syrian	-11.6532
▁jet	-11.6533
▁SE	-11.6535
▁transferr	-11.6549
▁2030	-11.657
▁Securit	-11.657
▁abundance	-11.657
▁council	-11.657
▁iPod	-11.657
▁Peace	-11.657
▁correlation	-11.6571
▁sperm	-11.6571
▁refrigerator	-11.6572
▁migration	-11.6572
▁incarcerat	-11.6572
▁operator	-11.6578
▁cart	-11.6579
▁Yo	-11.6585
▁emotionally	-11.659
▁RNA	-11.6595
▁hybrid	-11.6613
nia	-11.6615
four	-11.6615
rich	-11.6617
▁Monte	-11.662
▁practic	-11.6627
▁Su	-11.6628
av	-11.6634
▁founder	-11.6637
▁Tur	-11.6647
▁Atlant	-11.665
▁Clinton	-11.6652
▁Jordan	-11.6652
▁diarrhea	-11.6652
▁pizza	-11.6652
▁protocell	-11.6652
▁potato	-11.6653
▁selective	-11.6654
▁Stage	-11.6654
▁heritage	-11.6656
▁delicio	-11.6656
▁Matt	-11.6658
▁60,000	-11.6659
ari	-11.666
▁diploma	-11.667
▁Ga	-11.6671
for	-11.6675
▁realization	-11.6679
▁formal	-11.6682
HC	-11.6682
▁emphasize	-11.6688
▁glamor	-11.6698
two	-11.6712
▁44	-11.6735
▁contest	-11.6735
▁jaw	-11.6735
▁proceed	-11.6735
▁naive	-11.6735
▁gallon	-11.6744
▁yell	-11.6752
▁algae	-11.6754
▁eradicat	-11.6762
form	-11.6765
amma	-11.6773
con	-11.6774
profit	-11.6782
▁bi	-11.6787
▁patch	-11.6792
▁Seven	-11.6793
▁ray	-11.6798
▁Roo	-11.6802
▁Bangladesh	-11.6816
▁Shanghai	-11.6818
▁harsh	-11.6818
▁Coast	-11.6818
▁substantial	-11.6818
▁funeral	-11.6818
▁reclaim	-11.6819
▁connectome	-11.6819
▁costume	-11.6819
▁iceberg	-11.6819
▁index	-11.6819
▁Grow	-11.6819
▁Computer	-11.682
▁therapist	-11.682
▁pencil	-11.682
▁denial	-11.6821
▁strain	-11.6821
▁adaptation	-11.6826
▁trailer	-11.6826
▁fever	-11.6828
▁overlook	-11.6829
ff	-11.6844
if	-11.6865
▁informal	-11.6865
▁Da	-11.6878
▁helpless	-11.6883
▁sew	-11.6885
bo	-11.689
▁embarrassing	-11.6891
▁readers	-11.6896
witzer	-11.6897
▁convict	-11.6899
▁drunk	-11.69
▁farms	-11.69
▁Apollo	-11.6902
▁configuration	-11.6902
▁remix	-11.6902
▁nightmare	-11.6902
▁Hope	-11.6903
▁kilogram	-11.6903
▁steam	-11.6903
▁mild	-11.6903
▁JF	-11.6903
▁hint	-11.6903
▁Education	-11.6903
▁dung	-11.6905
▁bust	-11.6908
▁cage	-11.6909
▁debri	-11.6913
▁belly	-11.6914
well	-11.6916
▁Show	-11.6916
use	-11.6918
▁im	-11.6918
▁chains	-11.6921
▁frequently	-11.6935
ically	-11.6937
U	-11.6938
▁ethnic	-11.6944
▁auto	-11.6949
▁update	-11.695
▁guard	-11.695
▁Steven	-11.6952
▁lo	-11.6953
income	-11.6955
lly	-11.6962
J	-11.6972
▁render	-11.6977
sha	-11.6982
ster	-11.6984
▁distort	-11.6984
chi	-11.6985
▁kilo	-11.6987
▁chew	-11.6987
▁chimp	-11.6987
▁Emma	-11.6987
▁basketball	-11.6987
▁forecast	-11.6987
▁volcano	-11.6989
▁translator	-11.6989
▁couch	-11.699
▁Mean	-11.6992
▁introvert	-11.6993
▁girlfriend	-11.6997
▁Argentin	-11.6998
band	-11.701
ius	-11.7012
▁copie	-11.7035
▁popp	-11.7039
ris	-11.7044
▁wipe	-11.7046
▁Jona	-11.7055
za	-11.7063
▁hoped	-11.7067
we	-11.7068
▁listener	-11.7068
▁Gene	-11.7071
▁Bitcoin	-11.7073
▁Saturday	-11.7073
▁Watson	-11.7073
▁impulse	-11.7073
▁Bronx	-11.7073
▁350	-11.7073
▁Government	-11.7073
▁Edward	-11.7073
▁synapse	-11.7074
▁ventilat	-11.7081
▁earning	-11.7082
▁divorce	-11.7091
▁storyteller	-11.7093
v	-11.7094
▁simulate	-11.7098
▁stare	-11.7104
▁performer	-11.7105
care	-11.7108
▁ambition	-11.7113
▁assemble	-11.7113
▁regenerate	-11.7116
▁concentrate	-11.712
▁Pat	-11.7123
▁Andrew	-11.7134
war	-11.7139
▁continuously	-11.7144
▁disgust	-11.715
▁skelet	-11.7155
▁schizophreni	-11.7158
▁Civil	-11.7159
▁satisfy	-11.7159
▁spiral	-11.7159
▁neuroscientist	-11.7159
▁carpet	-11.7159
▁modifi	-11.7159
gram	-11.716
▁Kong	-11.716
▁negotiation	-11.7161
▁Greenland	-11.7161
▁donation	-11.7161
ft	-11.7163
▁psychiatr	-11.7165
▁tiger	-11.7166
▁wow	-11.7166
▁integration	-11.7168
▁humble	-11.717
▁browser	-11.7171
▁dropping	-11.7171
▁controversial	-11.7173
▁sandwich	-11.7174
▁spare	-11.7175
sky	-11.7178
▁Ab	-11.7178
▁drama	-11.7182
▁Scot	-11.7197
▁persuade	-11.72
▁tick	-11.72
▁AK	-11.7207
▁shap	-11.7213
▁amaz	-11.7225
▁envelope	-11.723
▁admire	-11.7236
▁Way	-11.7238
▁negotiate	-11.724
uke	-11.7242
▁hierarch	-11.7244
▁bamboo	-11.7246
▁consensus	-11.7246
▁endeavor	-11.7246
▁explicit	-11.7246
▁vivid	-11.7246
▁mosque	-11.7246
▁warehouse	-11.7246
▁Keep	-11.7246
five	-11.7247
▁Charli	-11.7249
▁subjective	-11.725
▁fluorescent	-11.7256
▁55	-11.726
DI	-11.726
▁grocery	-11.7261
▁UK	-11.7261
16	-11.7263
law	-11.7264
▁RS	-11.7282
▁concentrat	-11.7287
▁grad	-11.7287
▁regulate	-11.7293
▁Albert	-11.7312
obi	-11.7313
▁Pretty	-11.7334
▁riot	-11.7334
▁consent	-11.7334
▁Brazilian	-11.7336
▁banker	-11.7338
▁settlement	-11.7341
▁Uni	-11.7362
▁tagg	-11.737
▁revolutionar	-11.7373
▁tent	-11.7377
▁bacteri	-11.7392
spread	-11.7393
▁Gar	-11.7397
▁prospect	-11.7405
▁vocal	-11.7409
▁spinn	-11.741
bacterial	-11.7413
▁sketch	-11.7415
▁semi	-11.7418
▁vent	-11.7421
▁Hawaii	-11.7421
▁Par	-11.7421
▁Business	-11.7422
▁Hospital	-11.7422
▁empire	-11.7422
▁gorgeous	-11.7422
▁Machine	-11.7422
▁priest	-11.7422
▁summit	-11.7422
▁Iceland	-11.7422
▁chase	-11.7427
▁addiction	-11.7427
▁Brother	-11.743
▁investigate	-11.7434
▁stimulation	-11.7436
▁hopeless	-11.7453
▁donat	-11.7461
▁pathogen	-11.7471
ab	-11.7471
▁inch	-11.7479
engineer	-11.7482
▁masse	-11.7484
▁emergence	-11.749
▁acre	-11.749
▁shorter	-11.7494
▁Too	-11.75
▁polariz	-11.7502
ami	-11.7509
▁specializ	-11.7511
▁obsole	-11.7511
▁helmet	-11.7511
▁intact	-11.7511
▁victor	-11.7511
▁festival	-11.7511
▁Thai	-11.7512
▁progressive	-11.7514
▁boundary	-11.7515
▁sake	-11.7515
oline	-11.7516
▁replacement	-11.7516
▁abundant	-11.7517
▁Ho	-11.7518
▁airline	-11.7518
▁decent	-11.7519
▁classical	-11.7523
▁Bat	-11.7526
▁screaming	-11.753
▁trivial	-11.7534
▁Te	-11.7549
▁Ask	-11.7553
▁Lake	-11.7561
▁Carl	-11.7568
▁typ	-11.7569
interest	-11.7572
sense	-11.7575
speed	-11.7579
hur	-11.7594
▁sp	-11.7596
▁Bhutan	-11.7601
▁anniversar	-11.7601
▁purple	-11.7601
▁terrain	-11.7601
▁deficit	-11.7601
▁angel	-11.7601
▁admitted	-11.7603
ke	-11.7614
▁torture	-11.7617
▁degrad	-11.7619
▁temporar	-11.762
▁1.2	-11.7621
▁spatial	-11.7622
han	-11.7623
▁honey	-11.7625
▁critic	-11.7627
▁Ven	-11.7648
▁expose	-11.7659
▁eliminat	-11.766
▁biase	-11.7661
▁Roman	-11.7672
▁owners	-11.7672
▁idiot	-11.7673
pa	-11.7674
BM	-11.7676
▁Under	-11.7691
▁provider	-11.7692
▁Watch	-11.7692
▁nitrogen	-11.7692
▁petition	-11.7692
▁vagina	-11.7692
▁legitimate	-11.7692
lvani	-11.7693
▁Development	-11.7693
▁stadium	-11.7693
▁arrangement	-11.7693
▁Audi	-11.7694
▁Santa	-11.7695
▁flute	-11.7696
▁empowerment	-11.7697
▁plac	-11.7699
▁differentiate	-11.771
▁quo	-11.7728
▁sixth	-11.7732
▁warmer	-11.7735
▁switched	-11.7751
▁Story	-11.7753
net	-11.7755
▁impos	-11.776
▁assistant	-11.7769
▁dispos	-11.7776
▁screens	-11.7777
▁artifact	-11.7784
▁immortal	-11.7784
▁jungle	-11.7784
▁vocabular	-11.7784
▁pirate	-11.7784
▁trunk	-11.7784
▁Simpl	-11.7784
▁generic	-11.7784
▁surgical	-11.7785
▁1930	-11.7785
▁1,500	-11.7786
BC	-11.7789
▁basement	-11.7794
▁sneaker	-11.78
▁historian	-11.7806
▁giver	-11.7813
▁justify	-11.7822
▁ward	-11.7825
▁cope	-11.7834
ai	-11.7853
▁Mar	-11.7861
▁ca	-11.7865
▁camel	-11.7876
▁Consider	-11.7877
▁Shakespeare	-11.7877
▁faint	-11.7877
▁migrant	-11.7877
▁pesticide	-11.7877
▁transistor	-11.7877
▁dragonfl	-11.7877
▁neurogenesis	-11.7877
▁enrich	-11.7877
▁desktop	-11.7877
▁Probab	-11.7877
▁blueprint	-11.7877
▁pipeline	-11.7878
▁lonel	-11.7879
▁psychopath	-11.7881
▁boost	-11.7882
▁stair	-11.7884
▁blade	-11.7886
▁lethal	-11.7886
▁Australian	-11.7894
▁sticker	-11.7896
▁mount	-11.7897
▁Gab	-11.7903
▁tolerance	-11.7904
ez	-11.7908
▁Sh	-11.7913
ropical	-11.7924
▁lap	-11.7931
▁seas	-11.7932
▁juice	-11.7934
▁optic	-11.7939
air	-11.7946
▁heavi	-11.7951
▁stimulate	-11.796
▁sh	-11.7967
▁tile	-11.7969
violet	-11.797
▁holiday	-11.797
▁imperative	-11.797
▁extensive	-11.797
▁maximum	-11.797
▁Histor	-11.797
▁resilien	-11.7972
▁SW	-11.7974
▁Berk	-11.7977
▁30-	-11.7981
▁cafe	-11.7984
▁summarize	-11.7985
onica	-11.7986
▁duty	-11.7992
▁Sal	-11.7999
▁Lin	-11.8009
▁demonstrat	-11.8015
▁legislati	-11.8021
▁tubes	-11.8031
▁rang	-11.8034
▁firing	-11.804
▁owe	-11.8041
▁31	-11.8045
▁tourist	-11.8047
▁tablet	-11.8047
ison	-11.805
▁Cyr	-11.8051
5,000	-11.8054
▁explod	-11.8057
▁spite	-11.8058
lihood	-11.8061
▁Power	-11.8061
▁soccer	-11.8064
▁collage	-11.8064
▁nasty	-11.8064
▁stagger	-11.8064
▁blob	-11.8065
▁Doctor	-11.8065
▁valve	-11.8065
ately	-11.8066
▁Gold	-11.8069
▁MK	-11.8072
oc	-11.8073
▁PT	-11.8073
▁Jones	-11.8076
▁maker	-11.8077
▁exot	-11.8079
▁junk	-11.8081
▁Fe	-11.8084
▁96	-11.809
▁mesh	-11.8102
ag	-11.8107
▁exceptional	-11.8109
▁cooperat	-11.8111
▁43	-11.8112
▁tide	-11.8113
▁divine	-11.8115
berg	-11.8117
▁aunt	-11.8118
▁193	-11.8119
▁disturbing	-11.8135
lit	-11.8137
course	-11.8138
month	-11.8139
▁dar	-11.8154
▁SP	-11.8154
▁flame	-11.8156
▁brush	-11.8157
▁Climate	-11.816
▁adolescent	-11.816
▁elaborate	-11.816
▁infra	-11.816
▁Interesting	-11.816
▁opposition	-11.816
▁gross	-11.816
▁minimal	-11.816
▁shatter	-11.816
▁scholarship	-11.816
▁exit	-11.8161
▁fetus	-11.8161
▁Milk	-11.8161
▁Michel	-11.8162
▁candle	-11.8163
▁crater	-11.8164
▁Food	-11.8164
▁Learn	-11.8167
▁glamo	-11.817
▁trad	-11.8172
▁conquer	-11.8176
▁lever	-11.8183
▁merc	-11.8185
▁Android	-11.8188
▁lawn	-11.819
▁mindful	-11.8209
▁anticipat	-11.821
▁dare	-11.8235
▁scaling	-11.8236
▁Pete	-11.8238
mile	-11.8242
▁Ali	-11.8242
▁nucle	-11.8243
▁trail	-11.825
▁psycho	-11.8255
rizon	-11.8256
▁unleash	-11.8256
▁polite	-11.8256
▁superpower	-11.8257
▁cellphone	-11.8257
tenance	-11.8258
▁Somalia	-11.8259
▁Sing	-11.826
▁atheist	-11.8261
▁friction	-11.8261
▁philosophical	-11.8262
▁invitation	-11.8262
▁skeptical	-11.8264
▁premise	-11.8265
▁stereotype	-11.8269
▁Sub	-11.827
▁lotter	-11.8286
▁coordinate	-11.8287
▁celebrity	-11.8294
▁Kir	-11.8294
wi	-11.8297
▁Dea	-11.8303
▁underestimate	-11.8304
▁capitalist	-11.8305
gar	-11.831
▁Say	-11.8325
▁Hubb	-11.8334
▁valid	-11.8337
▁album	-11.8353
▁circular	-11.8353
▁tuberc	-11.8353
▁defining	-11.8353
▁melod	-11.8353
▁revelation	-11.8353
▁crude	-11.8353
▁crab	-11.8353
▁headache	-11.8354
▁cartoonist	-11.8355
▁indicator	-11.8355
racing	-11.8358
▁Muh	-11.836
▁25,000	-11.836
▁rotat	-11.8361
▁spouse	-11.8363
▁impose	-11.8368
cut	-11.8379
▁Walk	-11.8383
▁pursu	-11.8384
▁Bas	-11.8392
▁microscop	-11.8394
▁taxi	-11.8395
▁conceive	-11.8397
lah	-11.8399
RA	-11.8399
friend	-11.8404
▁Op	-11.841
▁freez	-11.843
ot	-11.8437
▁passe	-11.844
▁foi	-11.8441
rum	-11.8442
▁brick	-11.8445
ulosi	-11.8451
promising	-11.8451
▁caregiver	-11.8451
▁unfair	-11.8451
▁Light	-11.8452
▁greet	-11.8452
▁Hawk	-11.8453
▁innovator	-11.8453
▁FDA	-11.8455
▁virgin	-11.8455
▁publicly	-11.8456
▁doom	-11.8457
set	-11.8462
▁vein	-11.8462
▁Force	-11.8467
▁symbolic	-11.8468
ually	-11.8478
▁gentle	-11.8479
▁48	-11.8482
bu	-11.8483
uck	-11.8483
▁Oo	-11.8489
▁Cat	-11.8495
▁Line	-11.8507
▁prey	-11.8511
▁brake	-11.8515
▁sole	-11.8516
thermal	-11.8531
▁acknowledg	-11.8534
ight	-11.8537
▁accidental	-11.8538
tangible	-11.8543
uff	-11.8545
ima	-11.8547
▁awake	-11.8548
▁lobby	-11.8549
rank	-11.855
▁ambulance	-11.855
▁astronomy	-11.855
▁expense	-11.855
▁maneuver	-11.855
▁specimen	-11.855
▁exquisite	-11.855
▁oyster	-11.855
openha	-11.855
▁mustache	-11.8551
▁worrie	-11.8557
▁terminal	-11.8558
ure	-11.8564
▁Earl	-11.8564
▁kit	-11.8565
ep	-11.8571
▁Live	-11.8572
▁prevention	-11.8573
▁transformati	-11.8575
▁examine	-11.8577
ow	-11.8583
▁acoustic	-11.8587
▁ES	-11.859
▁AI	-11.8591
▁receiver	-11.8594
▁corners	-11.86
▁significan	-11.8601
▁UN	-11.8603
▁ban	-11.8603
hu	-11.8604
▁vibrat	-11.8614
inch	-11.8618
▁settle	-11.8619
new	-11.8623
▁Brad	-11.863
▁schedule	-11.8631
eley	-11.8646
▁depict	-11.8647
▁Similar	-11.865
▁modification	-11.865
▁Garden	-11.865
▁retain	-11.865
▁Redwood	-11.8651
▁headquarter	-11.8651
▁inflation	-11.8651
▁legend	-11.8651
▁cardiac	-11.8652
▁Gius	-11.8652
▁Costa	-11.8654
▁cr	-11.8655
▁spine	-11.8656
ease	-11.8657
▁intrinsic	-11.8659
▁sin	-11.8667
▁charter	-11.867
▁racial	-11.8671
▁cleaner	-11.8672
▁Cheer	-11.8678
▁Cold	-11.8682
venge	-11.8683
▁utility	-11.8683
▁20-	-11.8685
▁Old	-11.8687
field	-11.8694
▁Die	-11.8704
▁constrain	-11.8712
▁squeeze	-11.8712
page	-11.8713
▁cows	-11.8716
▁declin	-11.8716
▁guards	-11.8724
▁conceptual	-11.8725
broad	-11.8735
▁settl	-11.8735
▁Mal	-11.8746
tail	-11.8749
▁Republic	-11.875
▁cheer	-11.875
▁janitor	-11.8751
▁velocit	-11.8751
▁ancestr	-11.8751
▁cream	-11.8751
▁ghost	-11.8751
▁grammar	-11.8751
▁suitcase	-11.8751
▁Recent	-11.8751
▁captain	-11.8751
▁Clear	-11.8751
▁entrance	-11.8751
▁fluctuation	-11.8751
▁elevator	-11.8752
▁alert	-11.8753
▁differ	-11.8753
▁anxious	-11.8755
▁intimacy	-11.8756
▁CR	-11.876
meter	-11.8765
gra	-11.8772
▁vice	-11.8772
▁Sp	-11.8772
▁apologize	-11.8773
▁fighter	-11.8775
▁Wo	-11.8778
di	-11.8782
ose	-11.8784
▁Find	-11.8786
▁erect	-11.8793
▁relativ	-11.8799
▁accumulat	-11.8808
ung	-11.8809
▁mic	-11.8814
▁peni	-11.8821
lves	-11.8823
▁observer	-11.8826
▁op	-11.883
▁freeze	-11.883
organiz	-11.8832
ram	-11.8837
pound	-11.8839
three	-11.8839
▁Mel	-11.8842
mi	-11.8843
▁manifest	-11.8848
▁odor	-11.8851
▁genero	-11.8853
▁laborator	-11.8853
▁resurrect	-11.8853
▁DVD	-11.8853
▁genomic	-11.8853
▁ladder	-11.8853
▁neglect	-11.8853
▁turtle	-11.8853
▁Gaza	-11.8853
▁towel	-11.8854
▁Movement	-11.8854
▁Lester	-11.8854
▁Daniel	-11.8855
▁restriction	-11.8857
▁Louis	-11.8857
▁triple	-11.8859
▁extrovert	-11.886
▁inhabit	-11.8861
▁MT	-11.8864
▁Fund	-11.887
▁Lot	-11.887
▁zoo	-11.8878
rous	-11.8883
▁eastern	-11.8894
uc	-11.8896
▁accumulate	-11.8901
▁fertil	-11.8906
▁specialize	-11.8908
LP	-11.8911
bro	-11.8912
▁blown	-11.8913
▁Arabia	-11.8919
▁hug	-11.8923
▁mar	-11.8926
ual	-11.8929
▁activat	-11.893
▁processor	-11.8932
▁convention	-11.8939
▁Ram	-11.8951
▁irrational	-11.8956
▁mammoth	-11.8956
▁propagand	-11.8956
▁sweep	-11.8956
▁enlighten	-11.8956
▁essay	-11.8956
▁taboo	-11.8956
▁feather	-11.8956
▁guitar	-11.8956
▁watt	-11.8956
▁courageous	-11.8959
▁Book	-11.8962
▁weakness	-11.8963
▁Librar	-11.8963
ark	-11.8967
▁h	-11.8971
▁bell	-11.8976
▁thriv	-11.8978
▁Hold	-11.8979
▁remotely	-11.8983
▁Wood	-11.8984
▁130	-11.8988
take	-11.899
eyed	-11.8992
▁flipp	-11.8992
tive	-11.9
▁awe	-11.9002
▁Amy	-11.9006
▁Ru	-11.9024
▁Band	-11.9026
▁painter	-11.903
▁refus	-11.9041
▁Columbia	-11.9045
▁chemotherap	-11.906
▁slogan	-11.906
▁syringe	-11.906
▁nail	-11.906
▁migrate	-11.9061
▁disk	-11.9062
▁accus	-11.9063
▁insult	-11.9063
▁conviction	-11.9064
▁gras	-11.9065
oto	-11.9065
▁Liberia	-11.9065
▁impair	-11.9066
▁vari	-11.9067
▁thus	-11.9068
ack	-11.907
▁packag	-11.9073
king	-11.9073
▁charg	-11.9073
▁rolled	-11.9082
▁progression	-11.9088
shape	-11.9098
▁longe	-11.9103
size	-11.9113
▁mega	-11.9114
▁racis	-11.9117
▁contaminat	-11.9119
pping	-11.9119
zo	-11.9127
▁Christ	-11.9131
▁Ko	-11.9135
▁inmate	-11.9135
▁grip	-11.9138
▁tomato	-11.9139
▁intervene	-11.914
word	-11.9147
▁arena	-11.9147
▁myceli	-11.9148
economic	-11.9154
seas	-11.9156
▁skeptic	-11.9156
▁ne	-11.9165
▁bioluminescen	-11.9166
▁asylum	-11.9166
▁catastrophe	-11.9166
▁catastrophic	-11.9166
▁cinema	-11.9166
▁cocktail	-11.9166
▁leopard	-11.9166
▁audaci	-11.9168
▁rings	-11.9169
▁lobe	-11.917
▁coverage	-11.9173
lan	-11.9174
▁wander	-11.9176
▁Moz	-11.9179
▁filling	-11.9179
▁arbitrar	-11.918
wa	-11.9183
▁longest	-11.9186
ek	-11.9187
face	-11.9188
▁Goal	-11.9193
▁46	-11.9205
▁rabbit	-11.9208
▁Start	-11.9209
▁fuse	-11.9212
▁visitor	-11.9214
▁34	-11.9223
▁reader	-11.9226
▁adequate	-11.9228
van	-11.9232
▁scrap	-11.9236
▁constitution	-11.9253
▁appreciat	-11.9258
▁mini	-11.9259
▁marks	-11.9265
▁excess	-11.9272
▁Public	-11.9272
▁Suppose	-11.9272
▁autistic	-11.9272
▁prophet	-11.9272
▁smash	-11.9272
▁suspicious	-11.9272
▁Craig	-11.9272
▁corridor	-11.9272
▁devise	-11.9272
▁Thirty	-11.9272
▁Nathan	-11.9272
▁eternal	-11.9272
▁toxin	-11.9272
▁prosecutor	-11.9273
▁Austria	-11.9273
▁economical	-11.9275
▁Sahara	-11.9278
▁Nepal	-11.928
▁Enc	-11.9282
▁adolescence	-11.9283
▁strengthen	-11.9283
▁singular	-11.9289
▁pos	-11.9296
een	-11.9297
person	-11.9299
▁bowl	-11.93
rus	-11.9303
▁nois	-11.9307
wards	-11.9311
▁Bol	-11.9313
▁stumbl	-11.9319
inum	-11.9326
erusal	-11.9336
▁900	-11.9337
fa	-11.9346
▁restrict	-11.9353
▁dishe	-11.9354
can	-11.9358
▁frustrating	-11.9359
sham	-11.9363
▁counted	-11.9364
mbo	-11.9368
degree	-11.937
▁pub	-11.9377
imbabwe	-11.9379
▁Benjam	-11.9379
▁Kepler	-11.9379
▁Medicine	-11.9379
▁Natural	-11.9379
▁absurd	-11.9379
▁cockroach	-11.9379
▁favela	-11.9379
▁jazz	-11.9379
▁postcard	-11.9379
▁fuzz	-11.9379
▁LG	-11.9381
▁flexibilit	-11.9382
▁terrifi	-11.9385
▁hemisphere	-11.9385
▁assess	-11.9388
▁silicon	-11.9388
▁AM	-11.9391
▁bitter	-11.9395
▁gang	-11.9409
▁Change	-11.9415
▁dominate	-11.9415
▁Harr	-11.942
▁manufacture	-11.9422
gh	-11.9427
▁legislat	-11.9429
ue	-11.9433
▁bounce	-11.9447
▁Ross	-11.9447
▁atmospher	-11.9448
▁Mos	-11.9451
▁Rob	-11.9451
▁dismiss	-11.9451
az	-11.9453
▁l	-11.9464
▁memorial	-11.9464
▁USA	-11.9465
▁acquir	-11.9466
▁moralit	-11.9466
▁warn	-11.9472
ank	-11.9472
standing	-11.9476
stair	-11.9481
▁maximize	-11.9482
▁announce	-11.9485
▁stigma	-11.9486
▁alum	-11.9487
▁marvel	-11.9487
▁millennia	-11.9488
▁Kennedy	-11.9488
▁calendar	-11.9488
▁defect	-11.9488
▁Small	-11.9488
▁Sudan	-11.9488
▁embodie	-11.9488
▁cybercriminal	-11.9488
▁cattle	-11.9488
▁Phoenix	-11.9488
▁undergraduate	-11.9488
▁multinational	-11.9488
▁shepherd	-11.9489
▁Rover	-11.949
▁adaptive	-11.949
▁extremist	-11.9492
▁assist	-11.9494
▁boots	-11.9499
Fi	-11.9517
▁Sad	-11.9518
sani	-11.9518
▁marked	-11.952
▁incremental	-11.9523
▁champion	-11.9526
assembl	-11.9534
▁su	-11.9539
▁warp	-11.9556
▁cur	-11.9556
▁module	-11.9556
ik	-11.9567
nce	-11.9568
▁admir	-11.9572
Col	-11.9573
▁Si	-11.9575
yon	-11.9586
▁reuse	-11.9587
Corps	-11.9588
▁Ar	-11.9597
scope	-11.9598
▁Know	-11.9598
▁embryo	-11.9598
▁Buddha	-11.9598
▁envision	-11.9598
▁fracture	-11.9598
▁satisfie	-11.9598
▁slope	-11.9598
▁carrot	-11.9598
▁Beatbox	-11.9598
▁polymer	-11.9598
▁authoritarian	-11.9598
▁butterfl	-11.9598
▁Christopher	-11.9599
▁obligation	-11.9599
▁incomplete	-11.9599
▁Venus	-11.96
▁gaze	-11.9602
lept	-11.9602
▁din	-11.9607
▁flee	-11.9607
▁hallway	-11.9608
▁intent	-11.9608
▁liberat	-11.961
▁embarrass	-11.9612
specific	-11.9612
▁hammer	-11.9615
▁Pre	-11.9618
pper	-11.9619
▁digg	-11.9623
▁Per	-11.9626
dus	-11.9633
▁Building	-11.9638
▁digest	-11.9639
▁closet	-11.9639
cu	-11.9641
▁bench	-11.9644
▁hotte	-11.9648
▁blessing	-11.9651
▁tropic	-11.9653
▁employer	-11.9658
▁quad	-11.966
generation	-11.9668
generat	-11.9674
▁photon	-11.9677
▁avatar	-11.9686
▁Office	-11.9689
▁optimize	-11.9693
gi	-11.9695
▁spike	-11.9696
▁drum	-11.9697
shift	-11.9703
percent	-11.9703
▁congesti	-11.9704
cillin	-11.9706
▁persist	-11.9707
angelo	-11.9707
▁suburb	-11.9708
▁controvers	-11.9709
▁Alaska	-11.9709
▁hollow	-11.9709
▁ultrasound	-11.9709
▁swarm	-11.9709
▁lesion	-11.9709
▁uninten	-11.9709
▁metabolic	-11.9709
▁checklist	-11.9709
▁CMU	-11.9709
▁gamma	-11.971
▁physiolog	-11.971
▁gigant	-11.971
▁Carne	-11.971
▁cement	-11.971
▁Wa	-11.9714
▁anthropologist	-11.9715
▁Lago	-11.9716
▁disrupti	-11.9718
therland	-11.9721
▁Trad	-11.9722
▁mature	-11.9725
▁wip	-11.9726
▁FO	-11.9726
▁Bi	-11.9727
▁52	-11.9729
▁tar	-11.9737
▁fires	-11.9739
▁Mind	-11.9742
▁midst	-11.9748
▁98	-11.9753
star	-11.9759
▁Pi	-11.9769
▁patien	-11.9772
▁Libya	-11.9793
ov	-11.9794
▁carve	-11.9794
airo	-11.9795
▁belonging	-11.9801
▁sauce	-11.9801
▁estimat	-11.981
▁Post	-11.9811
omb	-11.9811
▁reinforce	-11.9815
screen	-11.9816
▁sometime	-11.9816
upreme	-11.9817
▁pond	-11.9819
▁kite	-11.9821
▁Scientist	-11.9822
▁Siberia	-11.9822
▁famine	-11.9822
▁steep	-11.9822
▁timing	-11.9822
▁Societ	-11.9822
▁finite	-11.9822
▁reproductive	-11.9822
▁reproduction	-11.9822
▁Nair	-11.9822
▁crank	-11.9822
▁Help	-11.9822
▁scarce	-11.9822
▁fierce	-11.9822
▁TEDster	-11.9823
▁manifestation	-11.9824
▁urgent	-11.9824
▁pigment	-11.9826
▁glove	-11.9826
▁educator	-11.9831
▁dependenc	-11.9834
dia	-11.9836
▁stimul	-11.9836
▁blogs	-11.9836
ax	-11.9838
top	-11.9841
▁Stone	-11.9845
▁meta	-11.9847
▁destructive	-11.9848
cell	-11.9851
▁Fin	-11.9856
▁verbal	-11.9857
▁Fifty	-11.9858
▁Gi	-11.986
oh	-11.9866
▁obsession	-11.9869
▁authors	-11.9872
▁rigid	-11.9874
▁mum	-11.9874
▁wandering	-11.9875
minded	-11.9879
▁blessed	-11.9879
▁replicat	-11.988
▁sw	-11.9885
▁Philip	-11.9892
ake	-11.9892
▁pee	-11.991
Bay	-11.9932
▁Namibia	-11.9935
▁disadvantage	-11.9935
▁fractal	-11.9935
▁regain	-11.9935
▁Chuck	-11.9935
▁staircase	-11.9935
▁Monday	-11.9935
risk	-11.9935
▁Cancer	-11.9936
▁86	-11.9936
▁symphon	-11.9937
▁Johnny	-11.9937
▁manipulation	-11.9938
▁outrage	-11.9938
▁Laden	-11.994
▁discriminati	-11.9941
▁rear	-11.9942
▁toast	-11.9942
▁graffiti	-11.9943
heart	-11.9943
▁por	-11.9944
▁redefine	-11.9948
▁individually	-11.995
▁sir	-11.9952
▁Work	-11.9953
▁bann	-11.9954
▁doubling	-11.9957
lium	-11.9958
▁woods	-11.9961
▁heroic	-11.9962
▁undergo	-11.9969
CD	-11.9978
▁54	-11.9982
oven	-11.9987
titude	-11.9988
▁publication	-11.9991
▁numer	-11.9992
▁noble	-11.9993
▁boiling	-11.9994
▁Swed	-11.9994
ade	-11.9995
▁disappointed	-11.9997
▁emit	-12.0001
▁lime	-12.0003
rah	-12.0005
▁folk	-12.0007
▁deny	-12.0009
▁entitle	-12.0018
▁Euro	-12.0021
▁electro	-12.0022
▁damag	-12.0028
rief	-12.003
▁shade	-12.0039
▁ham	-12.0041
▁planner	-12.0049
▁competitor	-12.005
▁convincing	-12.005
▁hypothetical	-12.005
▁perceptual	-12.005
▁pleasant	-12.005
▁prejudice	-12.005
▁vitamin	-12.005
▁squid	-12.005
▁Wolf	-12.005
▁quantitative	-12.005
▁portray	-12.0051
▁acute	-12.0051
▁psychiatrist	-12.0051
▁1.3	-12.0051
▁horses	-12.0051
▁fade	-12.0054
ridge	-12.0055
▁JC	-12.0055
▁macro	-12.0056
▁Indus	-12.0058
▁radi	-12.0058
▁Evan	-12.006
94	-12.0061
kyo	-12.0062
▁Peru	-12.0064
▁interrupt	-12.0067
▁reply	-12.0068
▁powder	-12.0069
▁winds	-12.0071
uch	-12.0072
▁thermal	-12.0073
▁accompani	-12.0074
▁statue	-12.0077
▁facilitate	-12.0078
▁steady	-12.008
▁cooperative	-12.0084
cca	-12.0088
▁Uncle	-12.0093
▁stressed	-12.0105
▁compute	-12.0107
▁manipulat	-12.0107
iro	-12.0108
▁seize	-12.0108
ball	-12.0114
▁liter	-12.012
▁24-	-12.0126
▁regional	-12.0128
▁na	-12.0129
▁teache	-12.0133
▁overhead	-12.0134
va	-12.0141
▁bull	-12.0148
▁digit	-12.0151
ibility	-12.0157
▁humbl	-12.0161
ehind	-12.0166
sleep	-12.0166
arliament	-12.0166
▁buzz	-12.0166
▁Kosov	-12.0166
▁Ministr	-12.0166
▁fantasy	-12.0166
▁guerrilla	-12.0166
▁hamburger	-12.0166
▁iPad	-12.0166
▁institute	-12.0166
▁monsoon	-12.0166
▁stabilize	-12.0166
▁visceral	-12.0166
▁fingertip	-12.0166
▁secular	-12.0166
resistan	-12.0166
▁metabolism	-12.0166
▁bucket	-12.0166
▁throat	-12.0167
▁hostile	-12.0167
wear	-12.0167
▁hut	-12.0167
▁hatred	-12.0167
▁Data	-12.0168
▁Milo	-12.0169
▁elementary	-12.017
▁orientation	-12.0171
▁celebration	-12.0172
▁slime	-12.0173
▁oppress	-12.0174
▁chess	-12.0175
▁bombing	-12.0181
▁Gol	-12.0187
▁minor	-12.019
fire	-12.0195
▁potent	-12.0201
▁ALS	-12.0203
▁reli	-12.0203
▁Jenn	-12.0204
▁lik	-12.0208
▁Countr	-12.0208
▁viewing	-12.0211
▁Bear	-12.0212
du	-12.0219
nts	-12.0219
▁Down	-12.0221
istine	-12.0221
▁outward	-12.0223
▁Bett	-12.0223
▁dai	-12.0225
▁yard	-12.0228
▁reminder	-12.0233
▁submit	-12.0242
▁slip	-12.0244
▁beneficia	-12.0246
▁investigat	-12.0258
▁usage	-12.0259
▁Camp	-12.0264
vy	-12.0272
▁transcend	-12.0278
▁candy	-12.028
mart	-12.0282
▁Elizabeth	-12.0283
▁triumph	-12.0284
▁Mumbai	-12.0284
▁Student	-12.0284
▁Yellow	-12.0284
▁curator	-12.0284
▁epiphan	-12.0284
▁surrender	-12.0284
▁Leban	-12.0284
▁thrust	-12.0284
▁bypass	-12.0284
▁confusion	-12.0284
▁existential	-12.0284
▁scatter	-12.0284
▁lawsuit	-12.0284
▁Coca	-12.0284
litary	-12.0285
▁criticism	-12.0285
centric	-12.0286
iath	-12.0286
▁8,000	-12.0287
eval	-12.0288
▁encode	-12.0288
▁stratospher	-12.0288
▁oven	-12.0288
▁deni	-12.0289
▁pollinat	-12.0307
▁frighten	-12.0308
▁ag	-12.0313
▁Nata	-12.0315
▁vo	-12.0321
stream	-12.0326
▁blogg	-12.0327
▁behold	-12.0334
iful	-12.0336
▁Ger	-12.0338
dding	-12.0344
▁developmental	-12.0345
,	-12.0348
▁displac	-12.035
▁Inside	-12.0354
▁offshor	-12.0361
▁Ji	-12.0363
ylan	-12.0364
cal	-12.0365
GO	-12.0371
arity	-12.0371
▁donate	-12.0382
▁Net	-12.0385
pit	-12.0389
culture	-12.0391
▁lover	-12.0399
▁counsel	-12.0401
▁yards	-12.0403
▁Himalaya	-12.0403
▁sediment	-12.0403
▁thorough	-12.0403
▁Large	-12.0403
▁pancrea	-12.0403
▁Tower	-12.0403
▁neocort	-12.0403
▁deception	-12.0403
abbage	-12.0404
▁Danny	-12.0404
▁recession	-12.0404
▁wool	-12.0405
▁roommate	-12.0405
▁Marine	-12.0405
sensitive	-12.0405
▁medi	-12.0409
▁Vinc	-12.0414
▁invasion	-12.0415
type	-12.0415
▁modify	-12.0415
▁responsibilit	-12.042
▁scholars	-12.0426
▁Jean	-12.0432
▁climber	-12.0435
ature	-12.0435
▁imp	-12.0448
▁operational	-12.046
nformation	-12.0464
▁rail	-12.0468
▁Lama	-12.0471
har	-12.0474
▁isolate	-12.0474
play	-12.0475
▁Color	-12.0486
NG	-12.0487
▁lone	-12.0488
▁butter	-12.0503
alo	-12.0506
▁preach	-12.0523
▁consult	-12.0523
▁Orleans	-12.0524
▁approval	-12.0524
▁niece	-12.0524
▁prevalence	-12.0524
▁curtain	-12.0524
▁Moham	-12.0524
▁masterpiece	-12.0524
▁wax	-12.0525
▁uncover	-12.0525
▁circulation	-12.0526
▁Such	-12.0526
▁DP	-12.0526
▁neurological	-12.0529
▁cookie	-12.0531
▁injection	-12.0531
ept	-12.0532
▁geological	-12.0537
▁sync	-12.054
▁satisfaction	-12.0542
▁Lead	-12.0543
▁Station	-12.0546
▁64	-12.0548
▁amaze	-12.0548
▁disc	-12.0551
▁depriv	-12.0552
▁Simon	-12.0557
▁lips	-12.0567
▁endur	-12.0567
▁Dead	-12.057
▁lucki	-12.0572
nburg	-12.0578
▁prototyp	-12.0582
▁Swa	-12.0583
style	-12.0584
▁scal	-12.0585
▁visionar	-12.0595
▁ingenu	-12.0596
▁rabbi	-12.0596
▁gram	-12.0597
▁recycle	-12.0598
▁lighter	-12.0614
og	-12.0621
▁exponentially	-12.0634
▁Yemen	-12.064
eye	-12.0645
▁evaluate	-12.0645
▁mill	-12.0645
▁Service	-12.0646
▁Sylvi	-12.0646
▁Ultimate	-12.0646
▁benign	-12.0646
▁capsule	-12.0646
▁occupie	-12.0646
▁shield	-12.0646
▁voyage	-12.0646
▁Prime	-12.0646
▁Fried	-12.0646
▁lump	-12.0646
▁worn	-12.0646
▁Economic	-12.0646
▁mixture	-12.0647
proof	-12.0647
▁puff	-12.0648
▁encyclopedia	-12.0648
▁38	-12.065
▁accomplishment	-12.065
▁Hindu	-12.065
25	-12.0653
million	-12.0653
▁substitute	-12.0659
▁sadness	-12.066
▁Side	-12.0666
▁censor	-12.0667
▁Rand	-12.0678
▁Heart	-12.0683
▁CE	-12.0686
min	-12.0688
▁derive	-12.0701
AG	-12.0703
▁Tunisia	-12.074
▁socio	-12.0743
ibati	-12.0769
▁bulk	-12.0769
▁sensitivit	-12.0769
▁submarine	-12.0769
▁subsequent	-12.0769
▁rectangle	-12.0769
▁unacceptabl	-12.0769
▁cabinet	-12.0769
▁cholera	-12.0769
▁boson	-12.0769
▁flock	-12.077
▁wallet	-12.0771
▁Step	-12.0771
▁Holo	-12.0772
▁problematic	-12.0772
▁democratiz	-12.0774
▁mobilize	-12.0774
▁dispute	-12.0776
government	-12.0776
▁poop	-12.0777
▁legally	-12.0779
▁collaborat	-12.0781
ura	-12.0782
▁yeast	-12.0786
▁biologically	-12.0788
▁resemble	-12.0788
▁Sch	-12.0792
▁upgrade	-12.0799
ggle	-12.08
▁dough	-12.08
▁unsee	-12.0803
▁Add	-12.0809
ook	-12.081
oma	-12.0811
▁matern	-12.0815
▁Bio	-12.0817
▁learner	-12.082
▁recreate	-12.0821
▁racist	-12.0827
▁solo	-12.083
▁refine	-12.0831
▁poke	-12.0836
▁bomber	-12.0837
ward	-12.0838
▁Lee	-12.0839
▁viewer	-12.0846
▁rains	-12.0847
ala	-12.0853
▁simulat	-12.0854
▁continual	-12.0856
▁roller	-12.0857
▁fog	-12.0858
▁scholar	-12.087
▁rebel	-12.0873
▁DR	-12.0879
▁pric	-12.088
.5	-12.0883
▁obscure	-12.0892
▁Min	-12.0892
ending	-12.0893
▁violin	-12.0893
▁Michigan	-12.0894
▁Sydney	-12.0894
▁calculating	-12.0894
▁sermon	-12.0894
▁unnecessar	-12.0894
▁wreck	-12.0894
▁contagio	-12.0894
▁parameter	-12.0894
▁Joseph	-12.0894
▁cathedral	-12.0894
▁praise	-12.0894
▁fuck	-12.0894
▁classmate	-12.0895
▁Deep	-12.0895
▁electromagnetic	-12.0895
▁SMS	-12.0895
▁textile	-12.0895
▁temptation	-12.0896
▁Bridge	-12.0896
▁pillar	-12.0897
▁regulator	-12.0903
▁Glass	-12.0904
▁abstraction	-12.0905
▁rage	-12.0907
▁Jess	-12.0911
▁balanc	-12.0912
ome	-12.0918
▁dri	-12.0928
▁duration	-12.0933
▁Bud	-12.0933
sea	-12.0938
▁publisher	-12.0945
human	-12.0945
aged	-12.0947
▁menu	-12.0951
▁vest	-12.0952
step	-12.0958
tine	-12.0962
▁Whoa	-12.0965
▁traumatic	-12.0968
mark	-12.0969
▁shelve	-12.0973
▁companion	-12.098
ati	-12.0984
cha	-12.0988
velt	-12.0992
▁Rock	-12.0998
▁psyche	-12.0999
▁treasure	-12.1002
grow	-12.1003
▁fir	-12.1006
▁fin	-12.1016
▁Isa	-12.1017
▁hills	-12.1018
▁volcan	-12.1018
▁greed	-12.1019
▁Acc	-12.102
cover	-12.102
▁Modern	-12.1021
▁prevail	-12.1021
▁resonance	-12.1021
▁premature	-12.1021
▁glorious	-12.1021
▁pervasive	-12.1021
▁Linux	-12.1021
▁honeybee	-12.1021
▁Speak	-12.1021
▁battlefield	-12.1021
▁Night	-12.1021
▁Norden	-12.1021
▁Cuba	-12.1021
▁fame	-12.1021
▁keen	-12.1022
▁veil	-12.1022
▁Ground	-12.1022
Gowan	-12.1022
bar	-12.1022
▁indication	-12.1024
▁ideological	-12.1025
vascular	-12.1029
▁bricks	-12.1029
forward	-12.103
frontal	-12.1031
aker	-12.1032
▁paste	-12.1034
▁governor	-12.1034
▁bark	-12.1034
▁dome	-12.1034
▁disgusting	-12.1034
ze	-12.1034
▁Anna	-12.1036
▁sought	-12.1036
tention	-12.1037
▁collar	-12.1043
▁rig	-12.1043
ectar	-12.1062
▁upright	-12.1065
▁Call	-12.1067
▁prostituti	-12.1073
lic	-12.1077
▁planting	-12.1086
rays	-12.1097
▁unite	-12.1108
▁unimaginabl	-12.1114
q	-12.112
▁Map	-12.1125
▁Hous	-12.1127
ribbe	-12.113
▁Ol	-12.1132
▁outdoor	-12.1139
▁cultivate	-12.114
▁Brit	-12.1143
▁Hell	-12.1145
▁orphan	-12.1148
▁cardio	-12.1148
▁equilibr	-12.1149
▁Empire	-12.1149
▁adversit	-12.1149
▁romance	-12.1149
▁turbine	-12.1149
▁Certain	-12.1149
▁feminin	-12.1149
▁conspirac	-12.1149
▁confusing	-12.1149
▁Secretary	-12.1149
▁coincidence	-12.1149
▁Hmm	-12.1149
▁spade	-12.1149
▁abortion	-12.1149
▁comedian	-12.1149
▁mutant	-12.1149
▁committee	-12.115
▁Dick	-12.115
▁beef	-12.1151
▁baseline	-12.1152
▁strive	-12.1152
huh	-12.1153
▁Walter	-12.1154
▁thankful	-12.1154
▁Mall	-12.1156
▁Jas	-12.1156
▁mock	-12.1156
▁Victorian	-12.1158
▁basket	-12.116
▁intricate	-12.1161
▁temporal	-12.1163
▁eco	-12.1165
▁professors	-12.1171
▁baker	-12.1175
▁compos	-12.1178
▁province	-12.1189
▁hive	-12.119
▁disturb	-12.119
hold	-12.1193
▁FG	-12.1194
jo	-12.1199
18	-12.1201
▁western	-12.1201
▁tenth	-12.1205
ara	-12.1207
▁pale	-12.1212
▁execute	-12.1213
▁follower	-12.1219
▁tipp	-12.122
▁prioritize	-12.1223
lage	-12.1227
▁Tri	-12.1233
▁entrepreneuri	-12.1234
▁neuro	-12.1244
▁thinker	-12.1247
▁Fl	-12.1257
▁retail	-12.1262
teen	-12.1262
▁inhibit	-12.1265
▁12-	-12.1265
alai	-12.1267
▁induce	-12.1269
▁synthesi	-12.1274
symmetrical	-12.1275
▁Democrat	-12.1277
▁autonom	-12.1278
eopard	-12.1278
▁exhilarat	-12.1279
▁calculator	-12.1279
▁chaotic	-12.1279
▁elbow	-12.1279
▁provision	-12.1279
▁technician	-12.1279
▁delicate	-12.1279
▁puppet	-12.1279
▁Skype	-12.1279
▁distill	-12.1279
▁brainstorm	-12.128
▁horrific	-12.128
▁Sex	-12.128
▁Special	-12.128
▁liar	-12.1281
▁urbanization	-12.1282
▁Gala	-12.1282
viation	-12.1284
▁End	-12.1286
▁marathon	-12.1287
▁Universe	-12.1289
▁Cape	-12.1292
secure	-12.1292
fashion	-12.1292
▁newborn	-12.1292
▁warrant	-12.1292
▁Beyon	-12.1293
▁illuminat	-12.1295
▁nurtur	-12.1298
▁intangible	-12.1302
ink	-12.1303
▁53	-12.1304
▁Marc	-12.1305
▁promot	-12.131
rose	-12.1313
educat	-12.1314
▁cops	-12.1316
▁Cassi	-12.1316
▁correlate	-12.132
▁Iraqi	-12.1321
NN	-12.1323
▁surger	-12.1325
▁modeling	-12.1328
▁swo	-12.133
▁enthusias	-12.1331
ku	-12.1334
▁submitt	-12.1341
▁industrialize	-12.135
▁stripp	-12.1357
▁Maria	-12.1364
cent	-12.1367
▁influenc	-12.1368
▁Best	-12.1373
▁arc	-12.1374
▁assure	-12.1375
view	-12.1378
fu	-12.1385
wing	-12.139
▁Tru	-12.1393
▁amuse	-12.1404
▁plott	-12.1406
▁cease	-12.141
▁Digital	-12.141
▁Oklahoma	-12.141
▁choir	-12.141
▁commodity	-12.141
▁hurricane	-12.141
▁recipient	-12.141
▁unequal	-12.141
▁disparit	-12.141
▁surplus	-12.141
▁Stewar	-12.141
▁cocaine	-12.141
▁antidepressant	-12.141
▁larva	-12.141
▁Maldiv	-12.141
▁servant	-12.141
▁Click	-12.1411
▁superior	-12.1411
▁ballot	-12.1411
▁irre	-12.1411
▁marvelous	-12.1411
▁sensibl	-12.1412
▁novelty	-12.1413
▁compliment	-12.1413
▁PhD	-12.1414
▁Luck	-12.1414
▁backup	-12.1419
▁Death	-12.142
▁18-	-12.1421
▁Bar	-12.1421
▁worldview	-12.1424
▁Colli	-12.1427
▁Hol	-12.1432
▁Max	-12.1432
▁Had	-12.1435
▁vibrate	-12.1435
▁indirect	-12.1436
▁qualifie	-12.144
bot	-12.1442
bit	-12.1444
▁devoted	-12.1448
-2	-12.1448
▁seventh	-12.1449
▁conception	-12.145
▁criticiz	-12.1451
▁parliament	-12.1455
gging	-12.1461
▁reus	-12.1462
▁stunning	-12.1471
▁Fly	-12.1477
▁mytholog	-12.1478
ila	-12.1485
▁distracted	-12.149
▁sovereign	-12.1494
▁pur	-12.1496
▁140	-12.1498
ED	-12.1503
▁methodolog	-12.1504
▁sneak	-12.152
▁Ron	-12.1521
finish	-12.1523
eum	-12.1529
▁Mario	-12.153
▁grace	-12.1534
▁vegetati	-12.1541
▁asthma	-12.1543
▁imprison	-12.1544
▁Colombia	-12.1544
▁communal	-12.1544
▁crocodile	-12.1544
▁migraine	-12.1544
▁resort	-12.1544
▁Nav	-12.1544
▁Model	-12.1544
▁facult	-12.1544
▁tempt	-12.1544
▁Jefferson	-12.1544
pago	-12.1544
▁dug	-12.1544
▁hover	-12.1545
▁examin	-12.1545
▁assessment	-12.1545
▁Trust	-12.1546
▁violation	-12.1546
▁gland	-12.1546
▁unpredictabl	-12.1546
▁Golden	-12.1547
bra	-12.1548
▁TEDx	-12.1549
▁diminish	-12.1549
lerant	-12.1555
width	-12.1559
school	-12.156
resolution	-12.156
social	-12.156
▁nuclei	-12.1561
hop	-12.1577
▁paraly	-12.1577
▁devastat	-12.1579
▁Emil	-12.158
▁heck	-12.1582
▁locomoti	-12.159
▁gee	-12.159
ica	-12.1599
20	-12.1604
▁en	-12.1605
▁191	-12.1611
▁handwrit	-12.1612
▁Tit	-12.1612
uite	-12.1614
▁lightn	-12.162
▁forum	-12.1622
▁Test	-12.1625
▁Hy	-12.1627
lready	-12.1629
▁uncertain	-12.1629
blowing	-12.1632
▁Polic	-12.1634
▁Less	-12.1649
▁Got	-12.1651
▁crashe	-12.1656
train	-12.1659
▁minimize	-12.1665
ado	-12.1675
iger	-12.1677
▁mutilat	-12.1679
▁Odysse	-12.1679
▁altruism	-12.1679
▁certificate	-12.1679
▁equator	-12.1679
▁hippocamp	-12.1679
▁lesbian	-12.1679
▁nanoparticle	-12.1679
▁opponent	-12.1679
▁Exact	-12.1679
▁radar	-12.1679
▁calci	-12.1679
▁eager	-12.1679
▁wavelength	-12.1679
▁Guinea	-12.1679
▁dude	-12.1679
▁dentist	-12.1679
▁tapir	-12.1679
▁Solar	-12.1679
▁humid	-12.1679
▁Mount	-12.1679
▁constructive	-12.1681
▁PR	-12.1681
▁gait	-12.1682
▁bioma	-12.1683
▁Com	-12.1684
▁Ky	-12.1685
▁Journal	-12.1685
▁booth	-12.1692
▁herd	-12.1693
▁diplomat	-12.1696
weight	-12.1696
second	-12.1697
▁Buddhist	-12.1699
rhythm	-12.17
▁Dave	-12.1712
▁Eight	-12.1714
ended	-12.1715
▁cooling	-12.1716
▁declar	-12.1719
▁sock	-12.1737
▁epic	-12.1748
▁erase	-12.1757
▁160	-12.1758
ogue	-12.1758
▁void	-12.176
▁activis	-12.1767
ug	-12.1767
▁venue	-12.1768
ev	-12.1781
▁inefficient	-12.1786
tter	-12.1793
▁skip	-12.1804
▁rip	-12.1804
itch	-12.1805
▁presum	-12.1806
teem	-12.1812
▁Hundred	-12.1816
▁Magazine	-12.1816
▁chord	-12.1816
▁condemn	-12.1816
▁nuance	-12.1816
▁Excuse	-12.1816
▁Alpha	-12.1816
▁wetsuit	-12.1816
▁packet	-12.1816
▁Alright	-12.1817
▁midnight	-12.1818
▁iteration	-12.1818
▁Georgia	-12.1818
▁Mola	-12.1819
▁Notice	-12.1819
▁matche	-12.1822
▁Nine	-12.1822
▁cerebr	-12.1822
▁Palestine	-12.1825
▁biotechnolog	-12.1825
▁unst	-12.1826
▁Inter	-12.183
▁Kenyan	-12.1832
ronto	-12.1832
▁fungi	-12.1833
▁populat	-12.1834
▁cognition	-12.1834
▁morph	-12.1835
plus	-12.1836
▁conductor	-12.1837
▁spy	-12.1841
▁Mama	-12.1849
▁rubb	-12.1854
▁Face	-12.1858
MW	-12.1861
▁behav	-12.1867
▁Dam	-12.1872
ox	-12.1885
▁organizer	-12.1888
▁tender	-12.1894
▁frequent	-12.1901
cast	-12.1902
▁freeway	-12.1903
▁fled	-12.1903
▁Ni	-12.1905
▁Jay	-12.1917
▁occupation	-12.1917
▁incidental	-12.1932
▁pun	-12.1934
FL	-12.1941
▁mastery	-12.1945
▁hung	-12.1947
▁arrange	-12.1947
▁Use	-12.1948
▁lure	-12.1949
hen	-12.195
▁echo	-12.1952
▁sculpt	-12.1952
▁chat	-12.1953
▁Arduino	-12.1955
▁sulfide	-12.1955
▁irrelevan	-12.1955
▁extremism	-12.1955
▁consultant	-12.1955
▁supercomputer	-12.1955
▁verge	-12.1955
▁Among	-12.1955
▁instinctive	-12.1955
▁billboard	-12.1956
▁fung	-12.1956
▁execution	-12.1957
▁Lewi	-12.1958
▁magician	-12.196
▁swear	-12.196
▁reconstruction	-12.1962
▁embark	-12.1962
▁shortage	-12.1967
▁analytical	-12.1968
▁Allen	-12.1971
ament	-12.1975
▁Case	-12.1977
▁Pop	-12.1991
▁hacker	-12.1996
▁fundrais	-12.2001
▁Shi	-12.2001
▁ruler	-12.2002
▁accommodate	-12.2003
▁builder	-12.2004
rap	-12.2019
▁eighth	-12.2021
▁preferr	-12.2055
▁Rena	-12.2055
▁appl	-12.2067
▁environmentally	-12.2068
▁rehabilitati	-12.2075
▁Van	-12.2082
▁tooth	-12.2087
▁antibod	-12.2089
▁GG	-12.2089
genic	-12.2094
▁ISIS	-12.2095
▁Major	-12.2095
▁lamb	-12.2095
▁testimon	-12.2095
▁Common	-12.2095
▁Text	-12.2095
▁mortgage	-12.2095
▁urine	-12.2095
▁shuttle	-12.2095
▁Abraham	-12.2095
▁Spider	-12.2095
▁coworker	-12.2096
▁discard	-12.2096
▁Stay	-12.2096
▁Ninety	-12.2096
▁superhero	-12.2096
▁missile	-12.2096
▁Slow	-12.2097
▁mandate	-12.2098
▁Game	-12.2099
▁guideline	-12.2099
▁scaled	-12.21
▁misuse	-12.2101
▁overload	-12.2102
▁flags	-12.2103
▁posture	-12.2104
▁Uber	-12.2106
eur	-12.211
ao	-12.2111
▁rendering	-12.2114
▁innate	-12.2114
▁auditorium	-12.2114
massive	-12.212
driving	-12.212
▁sleeve	-12.2122
▁causal	-12.2122
▁Gall	-12.2123
▁escap	-12.2129
▁plasma	-12.2134
her	-12.2143
▁Happ	-12.2145
▁Nan	-12.2145
rick	-12.2148
▁Job	-12.2158
▁voluntary	-12.2159
▁bra	-12.216
▁logistic	-12.2171
▁token	-12.2184
▁traveler	-12.2184
▁KB	-12.219
▁grim	-12.2193
oriented	-12.2194
▁skie	-12.2194
pro	-12.22
▁carrier	-12.22
mino	-12.2203
▁invade	-12.2214
ru	-12.2217
▁Hel	-12.2218
▁loser	-12.2222
▁refin	-12.2228
▁revolutionize	-12.2232
story	-12.2237
▁Scratch	-12.2238
▁exclude	-12.2238
▁phosphorus	-12.2238
▁snapshot	-12.2238
▁decentraliz	-12.2238
▁Stein	-12.2238
▁monk	-12.2238
▁pollutant	-12.2238
▁blanket	-12.2238
▁shortcut	-12.224
▁beekeeper	-12.2241
▁cabin	-12.2242
▁93	-12.2242
disproportionate	-12.2242
▁waterfall	-12.2245
▁generator	-12.2248
▁grind	-12.2251
oo	-12.2251
▁playground	-12.2251
▁OE	-12.2252
▁Fox	-12.2253
▁meaningless	-12.2253
dental	-12.2255
▁tilt	-12.2259
▁radioactiv	-12.2259
▁prop	-12.2259
▁Code	-12.226
▁puncture	-12.226
▁purchas	-12.2261
▁glory	-12.2261
▁promotion	-12.2265
positive	-12.2265
polar	-12.2265
group	-12.2265
▁Han	-12.2268
▁towns	-12.2271
eith	-12.2271
▁wishe	-12.2275
▁Pal	-12.2276
-1	-12.2277
▁Bruc	-12.228
etic	-12.2282
▁exceed	-12.2287
▁rockets	-12.2287
cus	-12.2291
len	-12.2298
▁Mad	-12.2298
▁fec	-12.2305
▁poo	-12.2307
▁alliance	-12.2312
▁Rea	-12.2313
▁sexualit	-12.232
▁hypothes	-12.2325
▁Buy	-12.2333
▁lander	-12.2334
▁cooler	-12.2337
▁Pen	-12.2337
▁rides	-12.2338
▁50-	-12.2341
▁Baby	-12.2342
▁Davi	-12.2354
▁monument	-12.2363
▁invad	-12.2364
▁depressing	-12.2366
▁stat	-12.237
▁rag	-12.2377
code	-12.2379
peech	-12.2379
▁Nanopatch	-12.2383
▁Venezuela	-12.2383
▁respirator	-12.2383
▁sapien	-12.2383
▁vulture	-12.2383
▁Window	-12.2383
▁scroll	-12.2383
▁Portug	-12.2383
▁stiff	-12.2383
▁bloom	-12.2383
uddin	-12.2384
▁exile	-12.2384
▁shallow	-12.2384
▁suburban	-12.2384
▁distress	-12.2385
bama	-12.2385
counterintuitive	-12.2385
▁grassland	-12.2386
▁polls	-12.2387
▁ridge	-12.2388
▁nanotechnolog	-12.2388
▁stall	-12.2389
rosion	-12.2389
uk	-12.239
▁possession	-12.2391
▁refrigerat	-12.2393
▁enforce	-12.2394
▁troll	-12.2397
▁daylight	-12.2397
▁Europ	-12.2401
▁Forty	-12.2407
▁attraction	-12.2409
ndex	-12.241
great	-12.2412
week	-12.2412
▁spott	-12.2413
▁DM	-12.2413
▁GM	-12.2421
▁68	-12.2427
▁NA	-12.243
▁Bab	-12.2433
lcome	-12.2437
▁Jon	-12.244
ups	-12.2449
▁courts	-12.2451
▁AB	-12.2454
▁Cel	-12.2454
ill	-12.2456
ette	-12.2472
▁tackl	-12.2476
▁feeds	-12.2484
ER	-12.2484
▁decode	-12.2488
eague	-12.2494
▁heartbreak	-12.2502
▁susceptib	-12.2513
▁divergen	-12.2515
ograph	-12.2517
▁Save	-12.2524
▁straw	-12.2528
▁alphabet	-12.2528
▁tutor	-12.253
utheast	-12.253
▁Cameron	-12.253
▁Dallas	-12.253
▁juvenile	-12.253
▁nickname	-12.253
▁relevanc	-12.253
▁ruling	-12.253
▁meadow	-12.253
▁plague	-12.253
▁paragraph	-12.253
▁Depressio	-12.253
▁energetic	-12.253
▁seamless	-12.253
▁barbershop	-12.253
▁grape	-12.253
▁Roger	-12.253
▁Short	-12.2531
▁chore	-12.2531
▁admission	-12.2531
▁mama	-12.2531
▁Oak	-12.2531
▁claw	-12.2531
▁swamp	-12.2532
▁submersible	-12.2533
▁ac	-12.2533
▁Norman	-12.2534
▁stain	-12.2534
▁backpack	-12.2534
▁Harle	-12.2538
▁Den	-12.254
ear	-12.2541
py	-12.2541
▁cracked	-12.2542
▁Mayor	-12.2542
▁budd	-12.2545
thic	-12.2546
▁tuck	-12.2546
▁miner	-12.2551
▁pal	-12.2551
child	-12.2555
▁Ti	-12.2558
▁resonate	-12.2565
▁morally	-12.2565
▁composer	-12.2566
val	-12.2568
▁slipp	-12.2569
▁outlet	-12.2571
▁protecti	-12.2574
▁mysteri	-12.2574
▁Frankl	-12.2578
▁axe	-12.2582
▁haunt	-12.2582
▁welcom	-12.2584
▁bounc	-12.2587
efficient	-12.2593
▁bore	-12.2597
▁AT	-12.2597
mel	-12.2602
▁Carol	-12.2604
▁poetic	-12.261
▁dip	-12.2622
▁beard	-12.2626
low	-12.263
▁eradicate	-12.2631
▁AD	-12.2633
▁repli	-12.2633
▁Plan	-12.264
▁Port	-12.2649
▁worship	-12.2652
ira	-12.2655
▁incorporate	-12.2669
▁commoditi	-12.267
▁brin	-12.2674
▁Julian	-12.2677
▁fad	-12.2677
etween	-12.2678
▁thermo	-12.2678
▁Solomon	-12.2679
▁Ushahidi	-12.2679
▁burial	-12.2679
▁catalyst	-12.2679
▁concussion	-12.2679
▁kindergarten	-12.2679
▁remittance	-12.2679
▁inexpensive	-12.268
▁laundr	-12.268
▁vacan	-12.268
▁firefl	-12.268
▁58	-12.2682
▁humiliation	-12.2682
▁negotiat	-12.2683
▁expressive	-12.2683
▁cab	-12.2683
▁Margar	-12.2684
▁Bad	-12.269
▁pore	-12.2692
▁simplify	-12.2692
▁culturally	-12.2695
mar	-12.2696
quatic	-12.2704
▁northeast	-12.2705
section	-12.2705
▁Justine	-12.2706
sharing	-12.2707
era	-12.2708
▁se	-12.2712
▁coherent	-12.2713
▁emergen	-12.2714
edge	-12.2716
▁technologist	-12.2718
▁Citi	-12.272
▁rescu	-12.2724
ennis	-12.2731
▁experimentation	-12.2733
TO	-12.2733
▁blurr	-12.2738
▁corresponding	-12.274
▁margins	-12.2747
▁locate	-12.2747
▁patholog	-12.2759
▁pops	-12.276
▁immers	-12.2766
▁annoying	-12.2767
▁wel	-12.2774
▁runner	-12.2775
▁Top	-12.2775
▁articulate	-12.2781
▁generalize	-12.279
mine	-12.2792
▁Russe	-12.2799
▁unifie	-12.2801
▁Ban	-12.2801
▁Bosnia	-12.2802
▁daf	-12.2804
esday	-12.2808
▁emitt	-12.2809
▁nurture	-12.2809
▁185	-12.2816
▁cosmolog	-12.2817
▁improbab	-12.2822
zle	-12.2827
▁caps	-12.2827
▁chick	-12.2829
▁Copernic	-12.2831
▁Pixar	-12.2831
▁millisecond	-12.2831
▁timber	-12.2831
▁Control	-12.2831
▁Pittsburg	-12.2831
▁gadget	-12.2831
▁lettuce	-12.2831
▁Galile	-12.2831
▁tolerate	-12.2831
▁pinpoint	-12.2831
▁complication	-12.2831
▁supernova	-12.2831
▁Toyota	-12.2831
▁urgenc	-12.2832
▁counterpart	-12.2832
▁astronomical	-12.2832
▁Rick	-12.2832
▁delete	-12.2833
▁embarrassment	-12.2833
▁complaint	-12.2833
▁announcement	-12.2833
▁laz	-12.2833
▁Huh	-12.2834
ovember	-12.2834
▁hind	-12.2834
▁Titanic	-12.2836
▁livelihood	-12.2837
▁arrang	-12.2838
▁establishment	-12.2838
ew	-12.2839
solv	-12.284
▁comprehensive	-12.2842
▁disruption	-12.2842
▁slaughter	-12.2842
▁sketche	-12.2844
▁cheek	-12.2845
▁Alic	-12.2845
▁proton	-12.2846
▁collaps	-12.2847
▁attorney	-12.2848
▁superintelligen	-12.2852
▁plugg	-12.2858
▁subsid	-12.286
▁loyalt	-12.2861
Mart	-12.2866
bucks	-12.2866
▁Dear	-12.2868
nutrition	-12.287
▁partially	-12.288
▁MA	-12.2881
shi	-12.289
▁Missi	-12.2903
▁spit	-12.2904
oth	-12.2905
▁collide	-12.2905
▁penetrate	-12.2905
▁mobiliz	-12.2908
▁doodl	-12.291
gua	-12.2916
▁bent	-12.2916
▁constitute	-12.2919
press	-12.2937
▁SB	-12.2939
win	-12.2945
▁Ja	-12.2946
▁Eighty	-12.2947
▁declare	-12.2949
berry	-12.2951
imi	-12.2955
▁poly	-12.2961
▁union	-12.2964
▁flap	-12.2965
▁marginaliz	-12.2966
▁possess	-12.2982
▁compass	-12.2982
,200	-12.2984
▁Record	-12.2985
▁applaud	-12.2985
▁balcon	-12.2985
▁bureaucrac	-12.2985
▁metronome	-12.2985
▁Taiwan	-12.2985
▁Dream	-12.2985
▁ethanol	-12.2985
▁Saint	-12.2985
▁instantaneous	-12.2985
▁draft	-12.2985
▁Serious	-12.2985
▁Archimed	-12.2985
▁rigorous	-12.2985
▁bombsight	-12.2985
▁jean	-12.2985
▁vicious	-12.2986
▁rover	-12.2986
▁jur	-12.2986
▁Rule	-12.2987
▁Self	-12.2987
▁Father	-12.2988
▁chill	-12.2992
▁signing	-12.2992
▁joyful	-12.2993
▁auditor	-12.2994
flow	-12.2995
▁slamm	-12.2996
▁plankt	-12.2997
▁payoff	-12.2999
▁propeller	-12.2999
▁spaceship	-12.3001
▁Amand	-12.3001
▁500,000	-12.3002
▁Nu	-12.3005
▁dual	-12.3006
▁Cor	-12.3006
▁soar	-12.3008
▁Along	-12.3009
▁blogger	-12.3012
▁reasonabl	-12.3013
icious	-12.3015
▁algebra	-12.3015
▁unaware	-12.3015
▁Bu	-12.3017
▁imitate	-12.3022
▁reflectiv	-12.3023
eit	-12.3039
▁flush	-12.3044
ick	-12.3046
▁curv	-12.3052
▁Stor	-12.3055
▁Patient	-12.3055
▁po	-12.3055
▁Kal	-12.3063
cher	-12.3064
▁Fair	-12.3066
▁Lady	-12.3074
▁mentors	-12.3078
corn	-12.3084
ada	-12.31
▁animate	-12.3102
▁clon	-12.3105
▁compose	-12.3106
▁Ke	-12.3109
emost	-12.3111
▁fails	-12.3114
▁surge	-12.3116
▁reache	-12.3117
▁clone	-12.312
▁Vent	-12.3124
coli	-12.3135
▁va	-12.3136
▁corp	-12.3136
▁sentiment	-12.3137
fensive	-12.3141
▁functionalit	-12.3141
▁McDonald	-12.3141
▁PowerPoint	-12.3141
▁mundan	-12.3141
▁relentless	-12.3141
▁Hondura	-12.3141
▁bonobo	-12.3141
▁implicit	-12.3141
▁plaster	-12.3141
▁Desert	-12.3141
▁Armstrong	-12.3141
▁chalk	-12.3141
▁identification	-12.3141
▁excerpt	-12.3141
▁propell	-12.3142
▁reckless	-12.3142
▁perpetrator	-12.3142
▁obey	-12.3142
▁blam	-12.3142
acci	-12.3142
▁distinctive	-12.3142
▁Pink	-12.3142
▁Defen	-12.3143
▁Balti	-12.3143
▁breakdown	-12.3144
▁BJ	-12.3145
offs	-12.3145
▁explosive	-12.3146
ji	-12.3146
▁bay	-12.3146
Barack	-12.3148
▁sword	-12.3148
▁motorcycle	-12.3151
▁360	-12.3151
▁unthink	-12.3152
▁Politic	-12.3154
▁rib	-12.3154
▁optimal	-12.3155
▁improvise	-12.3166
found	-12.3169
▁paradi	-12.3172
▁tether	-12.3177
cumen	-12.3177
▁merg	-12.3179
apped	-12.318
▁consideration	-12.3181
everal	-12.3184
▁sting	-12.3186
speak	-12.3187
▁dedicate	-12.3193
In	-12.3196
▁Award	-12.3196
energy	-12.3198
own	-12.3206
ologist	-12.3211
▁unto	-12.3213
▁enthusiastic	-12.3228
▁supporti	-12.3232
▁hacked	-12.3234
▁virtu	-12.3242
▁Ell	-12.3242
genesis	-12.3243
▁merge	-12.3244
▁casual	-12.3251
▁Fo	-12.3253
▁13-	-12.3258
▁gam	-12.3266
▁memorize	-12.3267
▁mistaken	-12.3268
▁peaks	-12.3269
ale	-12.3273
nmark	-12.3275
▁brows	-12.3275
ement	-12.3276
▁controller	-12.3276
▁stereo	-12.3281
▁protester	-12.3285
bone	-12.3286
handed	-12.3287
▁MP	-12.3289
▁prescribe	-12.3297
▁Williams	-12.3297
▁reflex	-12.3299
▁sympath	-12.33
▁LGBT	-12.33
▁Norwegian	-12.33
▁ambiguit	-12.33
▁responsive	-12.33
▁unfamiliar	-12.33
▁monarch	-12.33
▁pivot	-12.33
▁gossip	-12.33
▁doctrine	-12.33
▁cris	-12.33
▁subtract	-12.33
▁orphanage	-12.3301
▁Olive	-12.3301
▁prox	-12.3301
▁knot	-12.3303
uver	-12.3303
▁modular	-12.3304
▁Strange	-12.3304
▁parade	-12.3305
▁deployment	-12.3305
▁physiological	-12.3306
▁bonus	-12.3306
onze	-12.331
▁placebo	-12.331
▁summar	-12.3315
ib	-12.3315
▁Often	-12.332
▁geographic	-12.3321
▁anchor	-12.3327
▁boyfriend	-12.3327
▁hence	-12.3327
▁keys	-12.333
▁bury	-12.3339
run	-12.3344
peer	-12.3356
▁teens	-12.3359
home	-12.336
▁porn	-12.3361
▁KA	-12.337
▁Forget	-12.3373
mate	-12.338
ou	-12.3381
▁invasive	-12.3383
▁ethnicit	-12.3403
▁visualiz	-12.3403
▁env	-12.3409
▁optimiz	-12.3409
▁feminis	-12.341
▁vet	-12.3415
los	-12.3417
print	-12.3418
nonymous	-12.3427
▁Teach	-12.3429
▁interfere	-12.3432
▁synthesize	-12.3435
▁dread	-12.3438
▁deer	-12.344
▁Wit	-12.344
▁believer	-12.3446
▁Type	-12.3447
saving	-12.3449
▁messag	-12.3452
▁arous	-12.3456
▁anecdote	-12.3461
▁apparatus	-12.3461
▁asphalt	-12.3461
▁convenience	-12.3461
▁hectare	-12.3461
▁mammogram	-12.3461
▁orangutan	-12.3461
▁serotonin	-12.3461
▁suicidal	-12.3461
▁sulfur	-12.3461
▁taxpayer	-12.3461
▁template	-12.3461
▁Convention	-12.3461
▁Radio	-12.3461
▁cemeter	-12.3461
▁conscience	-12.3461
▁cubic	-12.3461
▁biofuel	-12.3461
▁microwave	-12.3461
port	-12.3461
▁pension	-12.3462
▁CIA	-12.3462
▁dictator	-12.3462
▁preschool	-12.3462
▁notebook	-12.3462
▁instructor	-12.3462
▁font	-12.3463
▁Democratic	-12.3464
▁beast	-12.3465
▁slot	-12.3465
▁heroin	-12.3465
▁gel	-12.3466
▁Tasmanian	-12.3469
▁Eden	-12.3474
▁regulat	-12.3475
▁rally	-12.3476
▁100-	-12.3476
▁jacket	-12.3478
gas	-12.348
▁Cloud	-12.3481
▁efficac	-12.3491
▁Pass	-12.3492
▁intimidat	-12.3497
▁hike	-12.3498
▁elevat	-12.3505
▁lin	-12.3508
▁Aust	-12.351
food	-12.3515
▁Jacque	-12.3518
▁contemplat	-12.3524
▁Agenc	-12.3533
▁globaliz	-12.3535
▁infidel	-12.3536
▁loneli	-12.3537
▁evaporat	-12.3547
▁complet	-12.3549
▁laying	-12.3551
▁halve	-12.3551
reach	-12.3552
heid	-12.3553
huse	-12.3558
▁Hard	-12.3558
met	-12.3567
▁CC	-12.3569
▁permit	-12.3575
▁indicat	-12.3579
▁timeline	-12.3584
ase	-12.3588
▁seasonal	-12.3589
test	-12.3597
▁Lind	-12.3603
▁commands	-12.3606
▁Tor	-12.361
▁Abu	-12.3611
▁anesthesi	-12.3613
▁millenni	-12.3616
▁emphasi	-12.362
▁forbid	-12.3623
▁classifi	-12.3623
▁waist	-12.3625
▁DARPA	-12.3625
▁Jennifer	-12.3625
▁Netflix	-12.3625
▁Oregon	-12.3625
▁disparate	-12.3625
▁unpleasant	-12.3625
▁ingenious	-12.3625
▁redundan	-12.3625
▁toddler	-12.3625
▁Nichol	-12.3625
▁Conference	-12.3625
▁dictatorship	-12.3625
▁illiterate	-12.3625
elecommunication	-12.3625
▁censorship	-12.3625
▁variant	-12.3625
▁hurdle	-12.3626
▁Master	-12.3626
▁advertisement	-12.3626
▁payload	-12.3626
▁evaluation	-12.3627
▁Truth	-12.3627
▁Islamist	-12.3627
▁confession	-12.3628
▁electora	-12.3628
▁railway	-12.363
▁mantra	-12.3631
▁Fall	-12.3633
▁frontal	-12.3633
ult	-12.3639
RN	-12.364
▁loo	-12.3641
▁rotation	-12.3643
last	-12.3646
▁violat	-12.3653
▁hazard	-12.3658
▁Hud	-12.3658
controll	-12.3659
▁appreciati	-12.3668
▁dispers	-12.3669
▁ripped	-12.3673
protect	-12.3673
brew	-12.3673
bil	-12.368
▁Nic	-12.368
regulat	-12.3681
▁lense	-12.3681
▁surf	-12.3684
▁ballet	-12.3686
▁weave	-12.3695
▁annoy	-12.3696
linear	-12.3697
▁decorat	-12.3711
nel	-12.3713
▁visi	-12.3715
▁tactic	-12.3722
▁Um	-12.3723
▁cock	-12.3732
▁Hadr	-12.3733
eak	-12.3738
▁persever	-12.374
▁Forest	-12.3746
nal	-12.3752
▁verse	-12.3754
▁merit	-12.3756
▁fl	-12.3765
▁fleet	-12.377
▁partial	-12.3773
▁financially	-12.3777
▁lend	-12.3778
▁zip	-12.378
▁overlap	-12.378
▁numb	-12.378
▁Whit	-12.3781
breaking	-12.3782
▁82	-12.3783
▁Ted	-12.3785
▁Wonder	-12.3788
▁Tibet	-12.3791
▁Francis	-12.3792
▁Falcon	-12.3792
▁delusion	-12.3792
▁grassroots	-12.3792
▁miraculous	-12.3792
▁salmon	-12.3792
▁discomfort	-12.3792
▁swirl	-12.3792
▁seizure	-12.3792
▁reconciliation	-12.3792
▁Discover	-12.3792
▁Montana	-12.3792
▁charisma	-12.3792
▁exclusion	-12.3792
▁vector	-12.3792
explored	-12.3792
▁fingerprint	-12.3792
▁subset	-12.3792
▁ozone	-12.3792
▁bald	-12.3793
▁outrageous	-12.3793
▁immunit	-12.3794
▁scout	-12.3795
▁Image	-12.3795
▁16-	-12.3796
▁mash	-12.3798
▁attachment	-12.3799
▁memorabl	-12.3799
▁abusi	-12.3801
▁Darwinian	-12.3801
▁reluctant	-12.3805
▁crown	-12.3806
▁carti	-12.3808
▁Head	-12.3819
sterda	-12.382
inda	-12.382
▁acceleration	-12.3822
▁remark	-12.383
ford	-12.3833
▁Fast	-12.3842
eb	-12.3849
▁cri	-12.3852
▁divin	-12.3856
▁neo	-12.3859
aba	-12.3866
▁dictate	-12.387
▁evaporate	-12.3877
▁uprising	-12.3878
room	-12.3882
▁rubbl	-12.3883
oid	-12.3884
▁hatch	-12.3899
▁hostilit	-12.3901
▁originate	-12.3903
▁heated	-12.3903
▁fur	-12.3905
ata	-12.3906
▁emission	-12.3906
▁Stan	-12.3923
hat	-12.3925
▁temporari	-12.3927
▁00	-12.3931
zing	-12.3931
▁Rise	-12.3939
▁mediate	-12.3941
▁undermine	-12.3945
ctor	-12.3949
▁clap	-12.3949
▁Bel	-12.3955
▁mortal	-12.3956
▁stimulat	-12.3958
▁resign	-12.3959
▁Further	-12.3961
▁Lawrence	-12.3961
▁ambassador	-12.3961
▁cafeteria	-12.3961
▁rainbow	-12.3961
▁skyscraper	-12.3961
▁vegetarian	-12.3961
▁Federal	-12.3961
▁spawn	-12.3961
▁elastic	-12.3961
▁orgasm	-12.3961
▁Panama	-12.3961
▁neurologist	-12.3961
▁grit	-12.3961
▁Bono	-12.3961
▁tribute	-12.3961
▁squeak	-12.3962
▁Fire	-12.3962
▁biotech	-12.3962
▁pedal	-12.3962
ahren	-12.3962
▁carpenter	-12.3963
▁Dark	-12.3963
▁miser	-12.3964
▁Break	-12.3964
▁Fib	-12.3964
▁counselor	-12.3964
▁distraction	-12.3964
▁Susan	-12.3965
▁Million	-12.3965
▁simplistic	-12.3965
▁Near	-12.3969
▁forbidd	-12.397
▁dragon	-12.397
▁contributor	-12.3971
editerranea	-12.3972
▁Vanco	-12.3973
▁portal	-12.3973
▁Cross	-12.3974
▁Ap	-12.3976
▁measl	-12.3977
▁Anas	-12.3982
▁riches	-12.3983
▁commerc	-12.3987
▁socket	-12.3991
▁sho	-12.3992
perform	-12.3993
tability	-12.3995
▁Wire	-12.3997
▁Christians	-12.4
▁attacker	-12.4001
market	-12.4015
ureau	-12.4016
piece	-12.4017
liberation	-12.402
pr	-12.4021
▁distract	-12.4027
▁tun	-12.403
ibera	-12.4035
▁astonish	-12.4038
taller	-12.4043
bi	-12.4044
▁rival	-12.4052
▁nurs	-12.4053
▁liberate	-12.4055
▁offend	-12.406
▁curl	-12.4061
▁peel	-12.4062
▁participator	-12.4069
▁40-	-12.4083
▁Kent	-12.4084
▁correction	-12.4084
▁yog	-12.4084
▁circulat	-12.4093
▁nun	-12.4095
erial	-12.4097
▁tele	-12.4099
▁du	-12.4102
▁sav	-12.4106
mus	-12.4106
▁inspirational	-12.4106
▁hom	-12.4107
▁torn	-12.4116
▁swap	-12.4121
▁snap	-12.4121
▁mot	-12.4127
▁contradict	-12.4131
▁sta	-12.4131
scribe	-12.4132
diac	-12.4132
▁abnormal	-12.4133
▁dwarf	-12.4134
▁peanut	-12.4134
▁patriarch	-12.4134
▁Current	-12.4134
▁plaque	-12.4134
▁whistleblower	-12.4134
▁gorilla	-12.4134
▁holistic	-12.4134
▁biosphere	-12.4134
▁cosmetic	-12.4134
▁rooftop	-12.4134
▁unsustainabl	-12.4134
▁imaginative	-12.4134
▁crust	-12.4135
ctopus	-12.4135
▁Fear	-12.4135
▁bloodstream	-12.4135
▁reconnect	-12.4136
▁viewpoint	-12.4137
▁lightweight	-12.4137
▁1940	-12.4139
odd	-12.4139
▁reside	-12.4139
▁recommendation	-12.414
▁Intel	-12.4141
▁excellence	-12.4141
▁confrontation	-12.4144
▁gentl	-12.4146
▁princess	-12.4147
▁Tree	-12.4147
▁Julie	-12.4147
▁nin	-12.4148
▁contractor	-12.415
▁bully	-12.4151
▁composite	-12.4152
▁certifi	-12.4153
▁synchronize	-12.4154
axis	-12.4154
▁energiz	-12.4155
▁evident	-12.4166
▁Las	-12.4174
▁trillions	-12.4176
▁differential	-12.4179
ssociation	-12.4182
▁intercept	-12.4184
shine	-12.4192
▁collector	-12.4192
▁beep	-12.4197
math	-12.4198
▁Les	-12.4198
▁buck	-12.4202
▁450	-12.4213
olm	-12.4214
link	-12.4215
TA	-12.4222
▁skirt	-12.4223
▁dodo	-12.4231
ional	-12.4236
▁Luc	-12.424
▁initiat	-12.4243
inal	-12.4248
▁adjacen	-12.4251
log	-12.4253
.3	-12.4257
▁elevate	-12.4257
eddy	-12.4261
▁projector	-12.4262
▁backward	-12.4274
▁animat	-12.4279
▁LI	-12.428
▁Rica	-12.4281
▁boot	-12.4282
▁migrat	-12.4284
MF	-12.4286
▁deflect	-12.4288
▁width	-12.4288
ui	-12.4289
ambiguous	-12.4307
▁feat	-12.4309
▁epilep	-12.4309
▁Senat	-12.4309
▁Democracy	-12.4309
▁Dreyfus	-12.4309
▁filament	-12.4309
▁pneumo	-12.4309
▁sprawl	-12.4309
▁empirical	-12.4309
▁plural	-12.4309
▁prevalent	-12.4309
▁decease	-12.4309
▁homosexual	-12.4309
▁Proust	-12.4309
▁Shoot	-12.4309
▁Bonobo	-12.4309
▁appliance	-12.4309
▁scandal	-12.4309
▁microRNA	-12.4309
▁Group	-12.4309
▁uh	-12.4309
▁rediscover	-12.431
▁curb	-12.431
▁lava	-12.431
▁Native	-12.431
▁Irish	-12.4312
▁criticize	-12.4312
▁discriminat	-12.4312
▁lyric	-12.4313
ix	-12.4315
▁1982	-12.4316
▁Beck	-12.4316
▁clinician	-12.4317
▁Sri	-12.4317
▁navigation	-12.4319
▁shovel	-12.4321
▁clapp	-12.4321
▁Teacher	-12.4328
zoning	-12.4331
ambia	-12.4334
▁cultivat	-12.4335
▁Julia	-12.434
▁den	-12.4342
avian	-12.4345
▁persistent	-12.4351
ester	-12.4355
▁respectful	-12.4358
▁synchron	-12.436
▁casualt	-12.4364
▁83	-12.4366
bound	-12.4368
people	-12.4369
▁queue	-12.4369
bath	-12.437
▁floors	-12.4376
▁wearable	-12.4377
▁despi	-12.4379
▁charming	-12.4382
▁sponge	-12.4384
dor	-12.4392
paid	-12.4394
limited	-12.4395
▁Cooper	-12.4406
▁execut	-12.4407
▁improvisation	-12.441
sight	-12.4417
roll	-12.4418
ough	-12.4421
▁genital	-12.4423
ouri	-12.4435
▁mines	-12.4435
▁fram	-12.4436
▁brillian	-12.4439
▁rect	-12.444
stein	-12.4452
▁Cambodia	-12.4459
▁BC	-12.4459
ani	-12.4464
arm	-12.4469
scape	-12.4471
rill	-12.4473
▁strap	-12.4474
▁Living	-12.4475
▁Uh	-12.4475
▁192	-12.4477
▁stab	-12.4477
apping	-12.448
▁whip	-12.448
gon	-12.4486
▁renew	-12.4486
▁embed	-12.4487
▁tyrann	-12.4488
▁Grace	-12.4488
▁Murray	-12.4488
▁Sebastia	-12.4488
▁appetite	-12.4488
▁athletic	-12.4488
▁junior	-12.4488
▁spaghetti	-12.4488
▁Amazing	-12.4488
▁amplify	-12.4488
▁cereal	-12.4488
▁tweak	-12.4488
▁pornograph	-12.4488
▁solemn	-12.4488
▁erotic	-12.4488
▁sanctuar	-12.4488
▁Kelly	-12.4488
▁MBA	-12.4488
▁incubator	-12.4488
▁Motor	-12.4488
▁pronounce	-12.4488
▁unnatural	-12.4489
▁Magic	-12.4489
▁VR	-12.4489
▁ripple	-12.4489
▁cubicle	-12.449
▁Massac	-12.449
▁sterile	-12.449
▁89	-12.4491
▁gum	-12.4492
▁resin	-12.4492
▁Sandy	-12.4492
▁sprint	-12.4493
hrir	-12.4494
▁panick	-12.4494
▁peril	-12.4495
▁reconcile	-12.4496
▁twenty	-12.4497
▁Pol	-12.4498
▁Khan	-12.4499
▁fundamentalist	-12.45
▁Latino	-12.4501
built	-12.4503
▁Archi	-12.4504
▁irritat	-12.4504
ians	-12.4508
▁MM	-12.4508
▁RIS	-12.4509
▁intra	-12.4509
▁internationally	-12.451
09	-12.451
▁Mak	-12.451
▁Brand	-12.4511
▁14-	-12.4519
don	-12.4519
▁intestine	-12.4524
▁provoke	-12.4525
▁6.	-12.4526
del	-12.4529
venue	-12.4532
▁dropout	-12.4532
ury	-12.4534
▁archaeolog	-12.4539
▁supplier	-12.454
fund	-12.4549
▁kin	-12.455
Aid	-12.4551
ction	-12.4558
▁ensur	-12.4559
tting	-12.4567
qui	-12.4571
▁Chad	-12.4571
▁180	-12.4578
▁dunes	-12.4583
rado	-12.4587
ulation	-12.4588
▁infuse	-12.4589
▁para	-12.4593
MI	-12.4593
▁vapor	-12.4605
▁beds	-12.4611
tification	-12.4616
▁pessimist	-12.4621
▁Mill	-12.4624
▁Hu	-12.4629
▁whil	-12.4632
▁cha	-12.4639
▁copi	-12.4643
▁degrade	-12.4646
▁redefin	-12.4649
enture	-12.4649
▁perfection	-12.4661
▁cycl	-12.4662
▁theft	-12.4664
▁influen	-12.4665
▁startup	-12.4668
▁hobby	-12.4669
▁Ukrain	-12.4669
▁petrol	-12.4669
▁Freud	-12.4669
▁constellation	-12.4669
▁giraffe	-12.4669
▁prompt	-12.4669
▁uranium	-12.4669
▁plume	-12.4669
▁Virtual	-12.4669
▁Rachel	-12.4669
▁fibro	-12.467
▁roam	-12.467
▁thunder	-12.467
▁sentien	-12.467
▁courtyard	-12.467
▁Financial	-12.467
▁sociologist	-12.467
▁olive	-12.467
▁Mahat	-12.467
▁curse	-12.467
▁shaman	-12.467
▁disappointment	-12.4671
▁forehead	-12.4671
▁headphone	-12.4671
▁sunset	-12.4671
▁Normal	-12.4672
▁precipitat	-12.4672
▁dysfunctional	-12.4673
▁fatty	-12.4673
▁thigh	-12.4674
▁peek	-12.4674
▁quer	-12.4674
▁serial	-12.4675
▁forgiveness	-12.4675
mendment	-12.4676
▁jumps	-12.4677
▁wetland	-12.4678
lia	-12.4678
▁pheromone	-12.4681
▁Shake	-12.4683
▁fictional	-12.4689
▁mob	-12.4695
▁repurpos	-12.47
▁Ark	-12.47
▁rena	-12.4701
▁trickle	-12.4702
ella	-12.4703
▁hoo	-12.4703
hole	-12.4708
idden	-12.4708
bodie	-12.4709
▁reimagine	-12.4711
▁assured	-12.4721
ington	-12.4722
▁Lang	-12.4727
craft	-12.4729
pped	-12.4731
▁withdraw	-12.4732
white	-12.4736
▁digitiz	-12.4737
For	-12.4738
national	-12.474
▁qua	-12.474
llen	-12.4746
▁Bring	-12.4748
▁Guy	-12.4751
▁downside	-12.4753
▁secretar	-12.4759
nny	-12.4762
▁restor	-12.4763
▁125	-12.4767
She	-12.4768
▁200-	-12.4768
ged	-12.4772
▁insecurit	-12.4779
▁blur	-12.4783
▁compensat	-12.4783
▁Hot	-12.4787
▁plunge	-12.4788
unk	-12.4791
▁champions	-12.4792
tun	-12.4805
▁drip	-12.4806
▁Kim	-12.4809
OS	-12.481
▁Whitopia	-12.4826
▁Spin	-12.4838
iel	-12.4843
▁fet	-12.4845
cientific	-12.485
ijuana	-12.4853
▁quiz	-12.4853
istan	-12.4853
▁Fantastic	-12.4855
▁Perfect	-12.4855
▁acquisition	-12.4855
▁census	-12.4855
▁diabetic	-12.4855
▁mammograph	-12.4855
▁marshmallow	-12.4855
▁ribbon	-12.4855
▁utopia	-12.4855
▁widow	-12.4855
▁bruise	-12.4855
▁capaciti	-12.4855
▁railroad	-12.4855
▁bait	-12.4855
▁paranoi	-12.4855
▁vague	-12.4855
▁progeri	-12.4855
▁Wilson	-12.4855
▁unveil	-12.4855
▁Economist	-12.4855
▁metropolitan	-12.4855
▁biomaterial	-12.4855
▁frantic	-12.4855
▁diffuse	-12.4855
▁Left	-12.4855
▁marble	-12.4855
▁Sufi	-12.4855
▁superstar	-12.4856
▁Laborator	-12.4856
▁passport	-12.4856
▁Vienn	-12.4856
▁Mart	-12.4856
▁vendor	-12.4856
▁Getting	-12.4857
▁dislike	-12.4857
▁simulator	-12.4858
▁Marsha	-12.486
▁beg	-12.4861
▁castle	-12.4861
wana	-12.4863
shot	-12.4863
▁flatten	-12.4864
▁confess	-12.4864
▁halt	-12.4864
▁rode	-12.4866
▁astounding	-12.4868
▁dam	-12.4868
▁homicide	-12.4869
▁slipper	-12.487
▁Fey	-12.4871
▁cub	-12.4873
▁forager	-12.4874
▁1.4	-12.4874
cuba	-12.4878
bert	-12.4881
▁PC	-12.4882
▁linguistic	-12.4887
▁competent	-12.4888
▁cult	-12.4891
▁recreation	-12.4892
ithium	-12.4895
▁instrumental	-12.4897
gile	-12.4899
▁tomatoe	-12.4902
▁Hum	-12.4905
hran	-12.4913
▁Joy	-12.4921
▁spreads	-12.4921
▁touche	-12.4931
▁Samu	-12.4934
TEM	-12.4937
▁Coh	-12.4944
text	-12.4944
▁Connecti	-12.4952
▁buyer	-12.4957
cho	-12.4961
▁Mil	-12.4962
▁multipli	-12.4965
▁leaning	-12.4968
ife	-12.4968
▁alarming	-12.4969
anagement	-12.4997
ulu	-12.4999
▁crie	-12.5001
angular	-12.5007
nergy	-12.5017
▁smuggl	-12.5018
ater	-12.5021
▁84	-12.5023
▁Cars	-12.5027
▁widen	-12.5032
▁Fa	-12.5033
▁Challenge	-12.5043
▁Guatemala	-12.5043
▁Hurricane	-12.5043
▁Katrina	-12.5043
▁amygdala	-12.5043
▁hominid	-12.5043
▁precursor	-12.5043
▁qualify	-12.5043
▁repertoire	-12.5043
▁siege	-12.5043
▁snail	-12.5043
▁vibrant	-12.5043
▁prestig	-12.5043
▁birch	-12.5043
▁multitask	-12.5044
put	-12.5044
▁versa	-12.5044
▁nomad	-12.5044
▁inhabitant	-12.5044
▁Geoff	-12.5044
▁traumatiz	-12.5044
▁PRI	-12.5044
▁reception	-12.5045
▁Millenni	-12.5045
Channel	-12.5045
▁chop	-12.5045
▁56	-12.5045
ISA	-12.5046
▁tuition	-12.5047
▁doll	-12.5047
▁stance	-12.5047
▁deem	-12.5048
▁inclin	-12.5051
hypertensi	-12.5052
pirac	-12.5054
▁hygien	-12.5056
▁shove	-12.5057
▁Brain	-12.5062
▁mast	-12.5064
▁Beat	-12.5064
▁entr	-12.5066
▁Land	-12.5067
▁arrival	-12.5068
▁warmth	-12.5069
▁Juan	-12.507
▁posting	-12.5076
city	-12.5084
▁fitting	-12.509
▁commander	-12.5092
▁nourish	-12.5093
▁Rais	-12.5095
▁comb	-12.5096
▁immersi	-12.5103
▁inflate	-12.5104
▁dissolve	-12.5109
▁empathize	-12.511
▁beans	-12.5112
▁zo	-12.5115
worm	-12.5118
case	-12.5118
▁Hyper	-12.5122
sex	-12.5125
▁shave	-12.5126
▁NO	-12.5129
▁fairy	-12.513
▁disappoint	-12.5131
key	-12.5135
skill	-12.5138
▁opt	-12.5139
version	-12.5144
▁Je	-12.5156
▁aura	-12.5159
▁objection	-12.5159
lines	-12.5164
dec	-12.5168
▁Ju	-12.5175
▁pod	-12.5176
ino	-12.518
▁CT	-12.5181
▁leverag	-12.5181
▁escalat	-12.5184
▁sham	-12.5184
▁geometric	-12.5184
▁foreigner	-12.5196
▁Shar	-12.5198
▁intentional	-12.5199
structure	-12.5212
mega	-12.5212
▁MoM	-12.5218
▁flick	-12.5224
br	-12.5228
ock	-12.523
▁Ve	-12.5232
▁moderate	-12.5234
▁Club	-12.5236
▁DIY	-12.5236
▁Language	-12.5236
▁Voyage	-12.5236
▁Wednesday	-12.5236
▁insecticide	-12.5236
▁tectonic	-12.5236
▁Pearl	-12.5236
▁bargain	-12.5236
▁sniff	-12.5236
▁alleged	-12.5236
▁penalt	-12.5236
▁Survey	-12.5236
ker	-12.5236
▁Prison	-12.5236
▁Network	-12.5236
▁automo	-12.5236
▁residential	-12.5237
▁imam	-12.5237
▁bombard	-12.5237
▁handbag	-12.5237
▁clash	-12.5237
▁Stockh	-12.5237
▁audition	-12.5237
▁Tiger	-12.5238
▁Coch	-12.5239
▁brute	-12.5239
▁degradation	-12.524
▁summon	-12.524
▁Beep	-12.524
▁Understand	-12.5241
▁Pier	-12.5242
▁accelerator	-12.5243
▁fond	-12.5243
▁pollinator	-12.5244
▁underlie	-12.5244
▁Leave	-12.5247
▁arithmetic	-12.5249
▁anomal	-12.525
▁preacher	-12.5253
TC	-12.5253
gged	-12.5258
▁agnostic	-12.5263
wash	-12.5264
▁bladder	-12.5267
▁communist	-12.5268
▁graceful	-12.5269
▁relational	-12.5271
ali	-12.5275
▁Cart	-12.5276
▁characterize	-12.5278
▁66	-12.5282
▁Ida	-12.5284
▁wrestl	-12.5284
▁Nag	-12.5288
▁Jaw	-12.5288
▁Pay	-12.5288
▁metaphorical	-12.529
load	-12.5294
▁intentionally	-12.5296
▁chatt	-12.53
▁meditat	-12.5302
▁Leo	-12.5302
▁Ig	-12.5304
▁biomedic	-12.5305
mission	-12.5306
wall	-12.5312
▁hi	-12.5318
quarter	-12.5323
▁rhetoric	-12.5327
▁bearing	-12.5329
▁scarc	-12.5331
▁Westerner	-12.5333
▁plank	-12.5333
▁Veg	-12.5334
▁southwest	-12.534
working	-12.534
▁fertiliz	-12.5341
banish	-12.5343
▁Mou	-12.5351
▁ser	-12.5356
▁Laur	-12.5364
ju	-12.5369
▁Cap	-12.5374
ompassion	-12.5377
▁systemic	-12.5378
▁IT	-12.5378
ole	-12.5381
▁imitat	-12.5381
▁royal	-12.5381
atar	-12.5384
▁characteriz	-12.5387
range	-12.5391
eign	-12.5392
effective	-12.5394
securit	-12.5394
▁bo	-12.5397
zed	-12.5403
▁ador	-12.5405
party	-12.5405
▁convergen	-12.541
gatherer	-12.5415
▁Incredible	-12.5418
▁nudge	-12.5421
most	-12.5423
nterviewer	-12.5428
trude	-12.5429
▁untouch	-12.5429
▁misunderst	-12.5431
▁rhino	-12.5432
▁Corporation	-12.5432
▁Pantheon	-12.5432
▁feasib	-12.5432
▁lightbulb	-12.5432
▁necessit	-12.5432
▁plummet	-12.5432
▁practitioner	-12.5432
▁reservoir	-12.5432
▁suspicion	-12.5432
▁yogurt	-12.5432
▁inquiry	-12.5432
▁Essential	-12.5432
▁cherish	-12.5432
▁hurry	-12.5432
▁polish	-12.5432
elusive	-12.5432
▁offense	-12.5432
▁fission	-12.5432
▁garment	-12.5432
▁pledge	-12.5432
▁Point	-12.5432
▁hull	-12.5432
▁webcam	-12.5432
▁Martian	-12.5432
▁foolish	-12.5433
▁Scottish	-12.5433
▁billionaire	-12.5433
▁adverse	-12.5434
▁Gen	-12.5434
clusion	-12.5434
▁rodent	-12.5434
▁horrifi	-12.5434
▁pepper	-12.5434
▁Oil	-12.5434
▁Hanna	-12.5434
▁Engineer	-12.5434
▁ovari	-12.5437
▁byproduct	-12.5437
▁activation	-12.5437
▁lous	-12.5441
wire	-12.5441
aque	-12.5442
▁Farmer	-12.5442
▁eras	-12.5443
▁Clark	-12.5443
▁DC	-12.5444
▁mutate	-12.5444
▁allocate	-12.5445
caust	-12.5446
▁Soon	-12.5447
▁compatib	-12.545
▁mimick	-12.5452
▁adviser	-12.5461
▁v	-12.5465
bacc	-12.5467
▁Dai	-12.5469
row	-12.5471
▁drawer	-12.5472
▁fo	-12.5472
▁Kind	-12.5481
hire	-12.5484
▁Chi	-12.5488
ini	-12.5488
▁inspect	-12.549
▁strapp	-12.5493
▁Fat	-12.5494
▁pollut	-12.5495
▁Philippi	-12.5499
eduction	-12.55
lapse	-12.5507
adequate	-12.5513
famous	-12.5513
animate	-12.5517
▁INC	-12.5518
▁soda	-12.5523
▁Ready	-12.5525
▁Met	-12.5531
plan	-12.5533
healthy	-12.5536
▁SL	-12.5537
▁pine	-12.5538
saw	-12.5539
terior	-12.5541
ansa	-12.5542
▁intern	-12.5551
▁tease	-12.5562
▁summ	-12.5564
bal	-12.5572
▁Cod	-12.5577
▁forger	-12.558
aware	-12.558
chille	-12.5589
osphere	-12.5597
▁sober	-12.5597
▁devote	-12.5601
scal	-12.5604
▁analytic	-12.5612
▁standardize	-12.5618
▁Report	-12.5619
▁proportional	-12.5623
▁jets	-12.5624
▁Bern	-12.5628
▁savanna	-12.5628
▁coma	-12.563
▁intellect	-12.5631
▁Asperger	-12.5632
▁Senegal	-12.5632
▁biomolecule	-12.5632
▁discrete	-12.5632
▁exoplanet	-12.5632
▁isotope	-12.5632
▁laureate	-12.5632
▁misconception	-12.5632
▁primordial	-12.5632
▁transgender	-12.5632
▁Douglas	-12.5632
▁aspire	-12.5632
▁crochet	-12.5632
▁hijack	-12.5632
▁messenger	-12.5632
▁detach	-12.5632
▁hydrocarbon	-12.5632
▁segregat	-12.5632
▁rumor	-12.5632
▁Airport	-12.5632
▁dominance	-12.5632
▁centrifuge	-12.5632
▁eyebrow	-12.5632
▁Giant	-12.5632
▁latitude	-12.5632
▁clarify	-12.5632
▁Board	-12.5632
▁fridge	-12.5632
▁facade	-12.5632
▁Donald	-12.5633
▁schizophrenic	-12.5634
▁Brook	-12.5634
▁Hawaiian	-12.5634
▁DJ	-12.5634
▁verify	-12.5634
▁1920	-12.5634
▁HP	-12.5634
▁BMW	-12.5635
KE	-12.5635
▁restoration	-12.5635
unch	-12.5637
▁repetitive	-12.5638
▁dataset	-12.5639
▁39	-12.5639
▁classify	-12.5642
▁deadline	-12.5643
▁TR	-12.5644
▁Page	-12.5644
▁Road	-12.5645
tune	-12.5645
rock	-12.5646
▁Va	-12.5652
▁handl	-12.5652
▁prohibit	-12.5654
lec	-12.5657
00,000	-12.5658
▁reinforc	-12.566
▁carbonate	-12.5666
nity	-12.5666
▁pickle	-12.5667
▁Architectur	-12.5667
▁Kate	-12.568
▁dye	-12.568
psychotic	-12.5685
▁bless	-12.5689
▁awaken	-12.569
illa	-12.5693
PEC	-12.5698
▁haul	-12.5709
ister	-12.5713
aving	-12.5717
digit	-12.5717
fifth	-12.5717
▁bead	-12.572
▁IM	-12.5728
▁needles	-12.5729
▁slid	-12.5732
▁crisp	-12.5734
▁penetrat	-12.5736
ological	-12.5746
▁Hero	-12.5749
▁sc	-12.5756
▁outsider	-12.5759
▁exceeding	-12.5767
▁optimist	-12.5768
▁shuffle	-12.5775
▁competenc	-12.5778
▁Sue	-12.5786
▁encod	-12.5797
zone	-12.5801
clean	-12.5802
▁tortur	-12.5803
ucky	-12.5808
▁Phil	-12.5832
▁surfing	-12.5832
cle	-12.5833
▁enroll	-12.5835
ntelligence	-12.5836
▁Darfur	-12.5836
▁Progress	-12.5836
▁arrogan	-12.5836
▁blunt	-12.5836
▁discharge	-12.5836
▁gradient	-12.5836
▁intertwin	-12.5836
▁knob	-12.5836
▁prostitute	-12.5836
▁Traditional	-12.5836
▁evoke	-12.5836
▁notorious	-12.5836
▁papaya	-12.5836
▁uplift	-12.5836
▁Matthew	-12.5836
▁Mechanic	-12.5836
▁Village	-12.5836
▁bionic	-12.5836
▁enlist	-12.5836
▁crave	-12.5836
▁tapestr	-12.5836
▁Picture	-12.5836
▁compact	-12.5836
▁ATM	-12.5836
▁Guardian	-12.5836
▁refresh	-12.5836
▁rug	-12.5836
▁Protect	-12.5836
vantage	-12.5836
▁motive	-12.5837
▁championship	-12.5837
▁excessive	-12.5837
▁Grandma	-12.5837
▁litter	-12.5837
▁roost	-12.5837
▁Burm	-12.5837
▁informant	-12.5837
▁resume	-12.5837
▁ecologist	-12.5837
enberg	-12.5838
▁vaccination	-12.5838
▁buffer	-12.584
▁devastation	-12.5841
▁cling	-12.5841
▁embody	-12.5841
▁weep	-12.5842
▁tailor	-12.5845
onald	-12.5847
▁CB	-12.5847
▁plutocrat	-12.585
▁62	-12.5851
▁replica	-12.5852
ars	-12.5852
▁diver	-12.5858
induc	-12.5859
awa	-12.5863
▁Gla	-12.5868
▁surpass	-12.5869
oul	-12.5871
nar	-12.5871
▁jack	-12.5872
▁compris	-12.5877
bul	-12.5881
▁artificially	-12.5882
▁nitr	-12.5892
▁Main	-12.5893
▁minorit	-12.5893
▁Mau	-12.5893
▁Tro	-12.5894
▁begging	-12.5894
▁mitigate	-12.5896
▁shortest	-12.59
▁bon	-12.5901
die	-12.5903
▁affection	-12.5905
▁Sony	-12.5915
▁UV	-12.5916
▁initiate	-12.5916
active	-12.592
itis	-12.5921
▁Cro	-12.5921
wandering	-12.5925
organic	-12.5926
▁1,1	-12.5927
seven	-12.5927
▁displace	-12.5928
oil	-12.5931
▁Jur	-12.5932
brain	-12.5933
▁penni	-12.5935
▁88	-12.5935
▁Send	-12.5941
▁Sho	-12.5942
uestion	-12.5947
▁stunn	-12.5948
▁horn	-12.5948
▁alienat	-12.5954
IMS	-12.5957
▁Mov	-12.5958
▁rott	-12.596
bed	-12.5961
▁Run	-12.5963
▁medal	-12.5964
▁Fred	-12.5976
six	-12.5984
pur	-12.5987
teric	-12.5989
emia	-12.599
▁ramp	-12.5995
▁UCL	-12.5996
HO	-12.6003
fer	-12.6009
▁cruise	-12.6016
▁secondar	-12.6022
▁infer	-12.6025
▁prince	-12.6028
▁pollinate	-12.6029
hell	-12.6034
▁anthropolog	-12.6037
▁seeker	-12.6042
▁betray	-12.6043
▁investigati	-12.6043
▁Festival	-12.6044
▁Innovation	-12.6044
▁Portuguese	-12.6044
▁colonoscop	-12.6044
▁decipher	-12.6044
▁grizzl	-12.6044
▁jurisdiction	-12.6044
▁outweigh	-12.6044
▁seatbelt	-12.6044
▁stubborn	-12.6044
▁terrestrial	-12.6044
▁Disease	-12.6044
▁Picasso	-12.6044
▁Visual	-12.6044
▁wilderness	-12.6044
▁decay	-12.6044
▁bolt	-12.6044
▁disclose	-12.6044
▁cohesi	-12.6044
▁hunch	-12.6044
▁Rosling	-12.6044
▁subconscious	-12.6044
▁pediatrician	-12.6044
▁implie	-12.6045
▁campfire	-12.6045
▁mainframe	-12.6045
▁nanoscale	-12.6045
▁prolong	-12.6045
▁disturbance	-12.6045
▁mason	-12.6045
▁dragline	-12.6046
▁unpack	-12.6046
▁fluent	-12.6046
ith	-12.6046
▁Wild	-12.6047
▁slate	-12.6047
▁Director	-12.6047
▁orchard	-12.6048
▁Money	-12.6048
▁commandment	-12.605
▁supplement	-12.605
▁Marx	-12.6051
▁mono	-12.6051
▁humiliat	-12.6052
▁bundle	-12.6053
▁Plato	-12.6055
▁weaken	-12.6058
▁sued	-12.6058
▁Compare	-12.6062
lois	-12.6064
wesome	-12.6064
▁avenue	-12.6064
▁Tyle	-12.6064
▁dia	-12.6065
▁centi	-12.6066
▁incorporat	-12.6067
▁Ash	-12.6068
building	-12.6074
▁cynical	-12.6078
▁Pain	-12.6078
▁validate	-12.6078
▁pathetic	-12.608
▁fearless	-12.6084
▁sewer	-12.6091
▁Juda	-12.6092
▁loom	-12.6096
sippi	-12.6104
seek	-12.6111
▁memoriz	-12.6117
▁Drugs	-12.6121
▁persisten	-12.6121
▁boomer	-12.6123
▁Safe	-12.6124
▁Ag	-12.6124
▁Jud	-12.6127
▁Birds	-12.613
iv	-12.6132
▁guts	-12.6132
▁semina	-12.6132
consum	-12.6136
▁dim	-12.6137
design	-12.6137
▁Pope	-12.6138
▁wrinkle	-12.6139
osh	-12.6142
desirable	-12.6144
matic	-12.6146
▁Gill	-12.6147
▁LA	-12.6148
▁Mid	-12.6158
▁Baha	-12.6159
▁navigat	-12.6165
▁juggl	-12.6167
▁thoughtful	-12.6167
▁micron	-12.6168
▁toaster	-12.6172
▁retir	-12.6175
▁photosynthesi	-12.6175
▁92	-12.6178
▁diplomatic	-12.6183
▁pac	-12.6188
▁thumbs	-12.6193
▁Dar	-12.6197
position	-12.6203
hili	-12.6205
▁relat	-12.6213
▁Colo	-12.6223
▁Bert	-12.6226
dded	-12.6226
▁commute	-12.6226
▁Aid	-12.6227
lace	-12.6228
▁catalog	-12.6238
rane	-12.6241
kar	-12.6245
▁Patric	-12.6246
uran	-12.6247
▁Kit	-12.6248
▁Commission	-12.6249
▁harass	-12.6256
▁advent	-12.6256
aggression	-12.6257
ahedron	-12.6257
▁Circle	-12.6257
▁Morocc	-12.6257
▁Sputnik	-12.6257
▁Tamiflu	-12.6257
▁Tweet	-12.6257
▁angiogenesis	-12.6257
▁cochlea	-12.6257
▁detergent	-12.6257
▁expenditure	-12.6257
▁goddess	-12.6257
▁shrunk	-12.6257
borough	-12.6257
▁Malaysia	-12.6257
▁incision	-12.6257
▁lemon	-12.6257
▁seductive	-12.6257
▁indefinite	-12.6257
▁quark	-12.6257
▁Thursday	-12.6257
▁craving	-12.6257
▁influenza	-12.6257
▁mediocr	-12.6257
▁coalition	-12.6257
▁biograph	-12.6257
▁Potter	-12.6257
▁compulsive	-12.6257
▁Galax	-12.6257
▁stir	-12.6257
▁foreground	-12.6257
▁geologist	-12.6257
▁cough	-12.6258
▁pearl	-12.6258
▁landfill	-12.6258
▁heartbeat	-12.6258
▁editorial	-12.6258
▁Jackson	-12.6258
▁Fish	-12.6258
▁philanthropist	-12.6258
▁41	-12.6259
▁Baker	-12.626
▁complian	-12.6261
▁potter	-12.6261
▁disagreement	-12.6262
▁speculation	-12.6262
urg	-12.6262
▁browse	-12.6263
gur	-12.6264
▁prominent	-12.6265
▁supreme	-12.6266
▁Hungarian	-12.6266
▁thou	-12.6266
▁spam	-12.6267
▁Robot	-12.6267
▁Fourth	-12.6268
▁101	-12.6269
ene	-12.6269
▁dyslexi	-12.6275
▁em	-12.6277
▁fundamentalism	-12.6279
▁extraction	-12.6281
▁internalize	-12.6283
▁forage	-12.6286
▁Pakistani	-12.6292
Thousands	-12.6298
▁suite	-12.6301
CA	-12.6301
▁Midwest	-12.6302
▁Rebe	-12.6307
far	-12.6309
▁Eco	-12.631
▁Personal	-12.6315
▁tro	-12.6315
atic	-12.6316
▁Ber	-12.6316
▁Easter	-12.6317
▁Sit	-12.6317
▁rub	-12.632
▁Eye	-12.632
▁Stu	-12.6321
eight	-12.6327
fat	-12.6331
▁tur	-12.6332
▁poisoning	-12.6334
ike	-12.6335
▁inward	-12.6342
▁regenerati	-12.6349
▁jamm	-12.635
▁dr	-12.635
computer	-12.6355
focus	-12.6356
species	-12.6356
▁doodle	-12.6361
spora	-12.6363
ickr	-12.6366
▁Ly	-12.6371
▁palli	-12.6385
▁110	-12.6408
▁61	-12.6417
burg	-12.642
roid	-12.6422
▁Swee	-12.6424
▁Though	-12.6424
▁algorithmic	-12.6426
netary	-12.643
▁Cla	-12.643
▁pat	-12.6436
▁Jamaica	-12.6445
horn	-12.6446
▁Plu	-12.6446
▁frie	-12.6449
▁flowering	-12.6451
▁categorize	-12.6454
ire	-12.6456
▁vascular	-12.6462
EF	-12.6467
▁intersect	-12.6471
▁Trans	-12.6472
ilence	-12.6473
▁Laptop	-12.6474
▁clitoris	-12.6474
▁diffusion	-12.6474
▁fountain	-12.6474
▁menstruati	-12.6474
▁neutron	-12.6474
▁perfume	-12.6474
▁portfolio	-12.6474
▁predominant	-12.6474
▁privatiz	-12.6474
▁rehearsal	-12.6474
▁scoop	-12.6474
▁Summer	-12.6474
▁atrocit	-12.6474
▁puzzling	-12.6474
▁questionnaire	-12.6474
▁troubling	-12.6474
▁Aaron	-12.6474
▁carcass	-12.6474
▁oblivio	-12.6474
▁twentysomething	-12.6474
▁cumulative	-12.6474
▁moisture	-12.6474
▁hippie	-12.6474
▁kidnappe	-12.6474
▁cursor	-12.6474
▁flare	-12.6475
▁inequit	-12.6475
▁stink	-12.6475
▁Paper	-12.6475
▁pillow	-12.6475
▁superconductor	-12.6475
▁aisle	-12.6475
▁mailbox	-12.6475
▁Honey	-12.6475
▁Portland	-12.6475
▁Morgan	-12.6476
▁droplet	-12.6476
guel	-12.6476
▁cortic	-12.6477
▁Cup	-12.6478
ites	-12.6478
▁financ	-12.6478
▁Johannes	-12.6478
▁megacit	-12.6478
▁slash	-12.6479
▁mist	-12.648
▁undertake	-12.648
▁outlier	-12.648
▁geolog	-12.6481
▁Airbnb	-12.6481
▁pois	-12.6481
▁Mello	-12.6482
▁vase	-12.6482
▁dull	-12.6483
▁ponder	-12.6486
▁gateway	-12.6486
▁Grant	-12.6489
▁advancement	-12.649
▁Neil	-12.6493
▁IDE	-12.6494
actic	-12.6494
HE	-12.6497
▁mul	-12.6505
▁Gu	-12.6507
mira	-12.6509
▁bitch	-12.6509
▁Hal	-12.6513
▁digitize	-12.6517
add	-12.6521
lie	-12.6523
▁propulsi	-12.6525
▁temperat	-12.6528
vil	-12.6528
▁massage	-12.6532
viv	-12.6532
▁CP	-12.6533
▁touris	-12.6539
▁eel	-12.654
▁conserv	-12.6544
▁1,	-12.6545
▁murderer	-12.6546
gate	-12.6547
▁Plant	-12.6548
▁Clau	-12.6554
▁Financ	-12.6558
▁albe	-12.6559
▁therapeutic	-12.6561
▁plantation	-12.6563
ena	-12.6564
confiden	-12.657
tel	-12.6572
part	-12.6573
assem	-12.6577
track	-12.6577
conflict	-12.6578
machine	-12.6578
process	-12.6578
help	-12.6578
sexual	-12.6582
stick	-12.6593
▁soak	-12.6595
▁impo	-12.6597
▁wav	-12.6603
▁pest	-12.6605
▁ineffective	-12.6606
▁swell	-12.6611
void	-12.6612
centered	-12.6613
logy	-12.6623
data	-12.6634
▁Bra	-12.6638
▁Read	-12.6638
nine	-12.6647
▁spor	-12.6649
erty	-12.6651
ardo	-12.6652
DG	-12.6653
spen	-12.6653
RT	-12.6655
▁Working	-12.6661
▁AV	-12.6664
ngue	-12.6666
▁hood	-12.6672
▁desperat	-12.6677
thy	-12.6678
▁cancel	-12.6685
▁wrestle	-12.6688
▁undo	-12.669
▁fabricate	-12.669
▁vici	-12.6696
walk	-12.6696
▁Enlighten	-12.6696
▁Buffet	-12.6697
▁Photoshop	-12.6697
▁administrative	-12.6697
▁introspecti	-12.6697
▁leisure	-12.6697
▁pajama	-12.6697
▁reassure	-12.6697
▁semester	-12.6697
▁definitive	-12.6697
▁encompass	-12.6697
▁mangrove	-12.6697
▁salad	-12.6697
▁Constitution	-12.6697
▁gloom	-12.6697
▁Oscar	-12.6697
▁Barbie	-12.6697
▁husk	-12.6697
▁sushi	-12.6697
▁paleontologist	-12.6697
▁synonymous	-12.6697
▁furious	-12.6697
▁internship	-12.6697
▁interference	-12.6697
▁foam	-12.6697
▁beaver	-12.6697
▁misunderstand	-12.6697
▁spreadsheet	-12.6697
▁Easy	-12.6697
▁detain	-12.6697
▁horrify	-12.6697
▁Treat	-12.6697
▁cobra	-12.6698
▁Hugh	-12.6698
▁magnify	-12.6701
▁diaper	-12.6702
▁issu	-12.6703
▁Check	-12.6704
▁hump	-12.6704
▁Creative	-12.6705
▁levitat	-12.6706
▁outfit	-12.6706
▁marsh	-12.6707
▁stripe	-12.6708
▁millennial	-12.671
▁periodic	-12.671
▁anarch	-12.6714
▁batch	-12.6714
litude	-12.6714
agne	-12.6719
▁outdoors	-12.6725
DL	-12.6733
▁Ball	-12.6735
▁BP	-12.6743
▁flex	-12.6745
▁altar	-12.6749
ummy	-12.675
▁reverberat	-12.6759
▁Stand	-12.6769
ama	-12.677
▁prim	-12.6771
▁preced	-12.6772
▁Bur	-12.6773
▁Fun	-12.6781
▁squeez	-12.6783
gg	-12.679
▁lip	-12.6792
▁energ	-12.6792
▁enhanc	-12.6795
▁wove	-12.6797
traumatic	-12.6805
billion	-12.6807
▁whistl	-12.6808
growth	-12.6809
▁Close	-12.6814
▁Mor	-12.6818
▁z	-12.6818
▁cu	-12.6821
▁Move	-12.6822
ime	-12.6829
▁auction	-12.6836
▁interdependenc	-12.6837
performance	-12.6841
▁SAR	-12.6845
pont	-12.6858
iller	-12.6862
▁Area	-12.6865
▁customiz	-12.6865
▁psychotherap	-12.6872
▁coloniz	-12.6874
▁prima	-12.6879
▁plea	-12.6887
▁braver	-12.6897
riff	-12.6899
▁Serge	-12.6902
▁stretche	-12.6905
▁rod	-12.6907
▁slap	-12.6911
▁choreograph	-12.6912
▁emulate	-12.6918
▁dysfunction	-12.692
lash	-12.6921
▁Commun	-12.6923
▁persecut	-12.6924
▁administrator	-12.6924
▁contempt	-12.6924
▁dementia	-12.6924
▁embodiment	-12.6924
▁paraphras	-12.6924
▁quantify	-12.6924
▁reptile	-12.6924
▁Chernobyl	-12.6924
▁Cultural	-12.6924
▁disastrous	-12.6924
▁hummingbird	-12.6924
▁churn	-12.6924
▁Soldier	-12.6924
▁imbalance	-12.6924
▁stakeholder	-12.6924
azeera	-12.6924
▁niche	-12.6924
▁maze	-12.6924
▁multicultural	-12.6924
▁Ryan	-12.6924
▁dissent	-12.6924
▁pluck	-12.6924
▁Floren	-12.6924
▁Romo	-12.6924
▁revolt	-12.6924
hapel	-12.6925
▁underpin	-12.6926
▁milestone	-12.6926
▁Wide	-12.6926
▁Sixty	-12.6926
▁imitation	-12.6927
▁Oz	-12.6928
▁perpetual	-12.6928
▁TD	-12.6929
▁purse	-12.6929
▁coil	-12.6931
▁ignite	-12.6931
▁dreadful	-12.6931
▁1800	-12.6931
▁raft	-12.6932
▁twentie	-12.6933
▁directive	-12.6935
▁stark	-12.6935
▁Merc	-12.6935
▁Walker	-12.6939
▁grappl	-12.6939
▁Hand	-12.694
▁Bla	-12.694
▁sling	-12.6942
ush	-12.6945
environmentalist	-12.6945
▁synthesiz	-12.6946
SM	-12.6947
lbert	-12.6949
▁Mob	-12.695
▁groom	-12.695
AM	-12.6954
▁nap	-12.6957
maker	-12.6966
▁lineage	-12.6966
▁Rain	-12.6967
bling	-12.6967
▁Mada	-12.6968
▁neon	-12.6975
▁fearful	-12.6978
▁puppy	-12.6978
▁irregular	-12.6985
▁faithful	-12.699
dam	-12.6991
▁congress	-12.6993
▁Genev	-12.6996
▁Scr	-12.6998
▁unify	-12.7002
iffe	-12.7007
turn	-12.7012
▁knitt	-12.7016
grown	-12.702
ille	-12.703
skirt	-12.7037
blood	-12.7038
different	-12.7038
plankt	-12.7039
▁Mala	-12.7041
▁pave	-12.7041
▁mite	-12.7043
MG	-12.7046
▁vanish	-12.7046
▁cam	-12.7049
ache	-12.7051
▁nominate	-12.7053
▁cascade	-12.7057
▁dogma	-12.7061
▁Joan	-12.7061
rise	-12.7064
▁metro	-12.7065
▁invisib	-12.7076
▁charm	-12.7078
custom	-12.7081
tical	-12.709
▁Hai	-12.7098
▁innocen	-12.7107
▁violate	-12.7113
▁59	-12.7123
▁credi	-12.7131
▁Columb	-12.7133
sota	-12.7136
▁canal	-12.7137
eautiful	-12.7137
▁comprehensi	-12.714
▁moth	-12.714
fell	-12.7145
▁Gre	-12.7147
▁robb	-12.7147
boy	-12.7148
▁battl	-12.7149
▁infinit	-12.7152
▁wasp	-12.7152
▁champ	-12.7153
Me	-12.7155
▁Effect	-12.7156
clamation	-12.7156
▁Believe	-12.7156
▁Dragon	-12.7156
▁EEG	-12.7156
▁Nevada	-12.7156
▁Simpson	-12.7156
▁ceramic	-12.7156
▁desalinat	-12.7156
▁fatigue	-12.7156
▁gecko	-12.7156
▁handcuff	-12.7156
▁immoral	-12.7156
▁intermediar	-12.7156
▁prehistor	-12.7156
▁rude	-12.7156
▁rupee	-12.7156
▁semantic	-12.7156
▁spectacle	-12.7156
▁windmill	-12.7156
▁Nikola	-12.7156
▁artisan	-12.7156
▁embryonic	-12.7156
▁kettle	-12.7156
▁acronym	-12.7156
▁microorganism	-12.7156
▁venom	-12.7156
▁Negro	-12.7157
▁telecom	-12.7157
urora	-12.7157
▁Parent	-12.7157
▁bumblebee	-12.7157
▁Bloom	-12.7157
▁tidy	-12.7157
▁motel	-12.7157
▁hail	-12.7157
▁NP	-12.7158
▁harassment	-12.7158
▁neurosurgeon	-12.7158
▁sequester	-12.7158
▁typeface	-12.7158
▁comparative	-12.7158
▁stalk	-12.7158
▁penny	-12.7159
▁broc	-12.716
▁Poor	-12.716
▁replicator	-12.716
▁PH	-12.7161
▁cramm	-12.7161
▁Clean	-12.7161
▁Bowl	-12.7162
▁Cruz	-12.7163
verish	-12.7163
▁sunny	-12.7163
▁9,000	-12.7165
▁188	-12.7166
▁Mao	-12.7166
▁prosthes	-12.7169
▁anatomical	-12.7171
▁carcinogen	-12.7172
▁resourceful	-12.7173
▁spoil	-12.7175
▁testify	-12.7176
▁Twin	-12.7176
▁Box	-12.7181
atal	-12.7182
▁sweater	-12.7185
▁barre	-12.7185
▁flux	-12.7189
II	-12.7191
▁Parad	-12.7192
▁advertise	-12.7195
▁nurser	-12.7195
▁fist	-12.7195
▁premi	-12.7202
▁conform	-12.7209
▁eso	-12.721
▁speculate	-12.7214
ahoo	-12.7214
▁hyperactiv	-12.7216
mour	-12.7222
ika	-12.7227
base	-12.723
▁tire	-12.7239
▁holder	-12.7243
▁deepen	-12.7247
▁TS	-12.7247
▁Lis	-12.7248
▁Bach	-12.7259
▁judg	-12.7263
▁swin	-12.7264
▁Tal	-12.7266
▁relocat	-12.7273
munition	-12.7274
▁Justin	-12.7274
▁PS	-12.7277
▁advised	-12.7278
▁collid	-12.728
▁powerless	-12.728
▁Rif	-12.7281
▁KS	-12.7284
▁phy	-12.7287
▁tires	-12.7288
▁si	-12.7289
phone	-12.7289
nta	-12.729
itting	-12.7291
▁sincere	-12.7294
zz	-12.7302
▁eu	-12.7305
▁Bull	-12.7305
mas	-12.7305
von	-12.7311
MA	-12.7313
phil	-12.7313
▁secre	-12.7318
izard	-12.7321
▁stockpile	-12.7328
▁Shad	-12.7332
▁convers	-12.7334
▁Sab	-12.7336
hot	-12.7337
▁lid	-12.7346
▁momm	-12.7348
mite	-12.735
▁Architect	-12.7353
▁Jen	-12.7359
▁nutritio	-12.7366
dale	-12.7371
▁oppressi	-12.7375
▁Leader	-12.7375
▁miniaturiz	-12.7377
read	-12.7383
▁ranch	-12.7388
▁transcript	-12.7391
▁imperfect	-12.7391
▁dissect	-12.7391
▁erupt	-12.7391
▁Elv	-12.7393
▁Secret	-12.7394
percussion	-12.7394
▁Exxon	-12.7394
▁Illinois	-12.7394
▁Orchestra	-12.7394
▁aerodynamic	-12.7394
▁circus	-12.7394
▁hydrant	-12.7394
▁protagonist	-12.7394
▁testosterone	-12.7394
▁tremor	-12.7394
▁Blood	-12.7394
▁Maslow	-12.7394
▁embass	-12.7394
▁striving	-12.7394
▁estrogen	-12.7394
▁hologram	-12.7394
▁Barbara	-12.7394
▁frugal	-12.7395
▁monopol	-12.7395
▁benchmark	-12.7395
▁bookstore	-12.7395
▁decisive	-12.7395
▁mourn	-12.7395
▁Chair	-12.7395
▁Study	-12.7395
▁scripture	-12.7395
▁cyclist	-12.7395
▁archaeologist	-12.7395
▁Rush	-12.7395
▁NE	-12.7395
▁moons	-12.7395
feld	-12.7395
▁fax	-12.7396
▁SDR	-12.7396
▁Doc	-12.7396
▁Operation	-12.7396
▁stent	-12.7397
▁obsessive	-12.7397
nitiative	-12.7397
▁exaggeration	-12.7397
▁impairment	-12.7398
▁sculptor	-12.7398
▁demons	-12.7398
▁Town	-12.7399
▁hostage	-12.7401
▁residual	-12.7404
▁Cole	-12.7407
▁Planet	-12.7409
▁grandma	-12.7411
▁culminat	-12.7411
▁patriot	-12.7413
determin	-12.7414
▁malignan	-12.7414
▁SA	-12.7417
▁bagg	-12.7417
▁RG	-12.7419
▁oxide	-12.7421
▁ecsta	-12.7423
▁Pick	-12.7429
yard	-12.7431
▁worthless	-12.7431
▁Loca	-12.7431
▁offender	-12.7433
▁manu	-12.7436
▁Mai	-12.7437
▁withstand	-12.7439
▁dealer	-12.7441
hma	-12.7443
▁ingest	-12.7443
▁2,	-12.7444
▁noun	-12.7444
▁Dance	-12.7445
▁incorrect	-12.7451
▁biopsy	-12.7452
ficial	-12.7455
▁volt	-12.7458
▁overfish	-12.746
▁biodegrad	-12.7461
▁wealthie	-12.7463
▁splash	-12.7466
▁cone	-12.7471
rid	-12.7472
▁Nazi	-12.7474
itler	-12.7474
▁screwed	-12.7475
sari	-12.7477
atory	-12.7477
chu	-12.7482
▁qui	-12.7485
▁reframe	-12.7485
▁Rich	-12.7487
▁Biolog	-12.7489
▁packing	-12.749
▁recorder	-12.7492
lix	-12.7493
▁memo	-12.75
▁funder	-12.7505
▁interdependen	-12.7508
▁commentar	-12.7508
awi	-12.7512
pon	-12.7512
▁Film	-12.7515
ference	-12.7518
05	-12.7519
▁predictabl	-12.752
▁pav	-12.7521
▁je	-12.7529
▁treaty	-12.7529
AC	-12.753
▁piss	-12.7534
▁oppose	-12.7535
▁disbelie	-12.7541
order	-12.7541
sanitary	-12.7544
▁Evolution	-12.7547
▁rob	-12.7557
▁glance	-12.7557
ryl	-12.756
▁Bir	-12.7563
▁abus	-12.7568
▁gangs	-12.757
PA	-12.7573
AL	-12.7574
uri	-12.7574
literate	-12.7576
▁Conservati	-12.7576
cular	-12.7583
▁alley	-12.7585
ockey	-12.7587
▁runway	-12.759
drop	-12.7591
ump	-12.76
your	-12.7606
tica	-12.7606
▁stewards	-12.7612
▁Cut	-12.7614
▁slam	-12.7632
▁advise	-12.7633
▁loa	-12.7633
▁peripher	-12.7636
▁Babylon	-12.7638
▁flour	-12.7638
▁Choir	-12.7638
▁Hispanic	-12.7638
▁adrenalin	-12.7638
▁autobiograph	-12.7638
▁caution	-12.7638
▁clerk	-12.7638
▁coconut	-12.7638
▁comprehend	-12.7638
▁enact	-12.7638
▁palace	-12.7638
▁pluripotent	-12.7638
▁provocative	-12.7638
▁repositor	-12.7638
▁scissor	-12.7638
▁sophistication	-12.7638
▁staple	-12.7638
▁thirst	-12.7638
▁treadmill	-12.7638
▁duct	-12.7638
▁lexicon	-12.7638
▁Faiza	-12.7638
▁phthalate	-12.7638
▁phantom	-12.7638
▁pragmatic	-12.7638
▁endemic	-12.7638
▁owl	-12.7638
▁antiretroviral	-12.7638
▁relay	-12.7638
▁cowboy	-12.7638
▁crease	-12.7639
▁squish	-12.7639
▁detriment	-12.7639
▁PET	-12.7639
▁craftsman	-12.7639
▁qualitative	-12.7639
▁silo	-12.7639
▁1.6	-12.7639
▁Horse	-12.7639
▁Ahmed	-12.764
▁Holland	-12.764
▁Seventy	-12.764
itra	-12.764
▁shutter	-12.764
▁Reed	-12.764
▁Saul	-12.764
▁soundscape	-12.7641
▁Always	-12.7641
▁Place	-12.7641
▁humane	-12.7641
▁carriage	-12.7641
▁kitten	-12.7642
▁Orwell	-12.7642
▁Jose	-12.7643
▁cele	-12.7643
▁prescrib	-12.7643
▁Litera	-12.7644
▁crest	-12.7644
▁abyss	-12.7645
▁dadd	-12.7646
▁Gwe	-12.7646
▁Athen	-12.7646
▁regeneration	-12.7647
▁Jami	-12.7647
▁Carlo	-12.7649
elf	-12.765
▁kits	-12.7651
▁robber	-12.7651
theism	-12.7652
▁arthriti	-12.7652
▁saturate	-12.7655
▁coward	-12.7656
▁drums	-12.7656
▁TM	-12.7656
▁Meet	-12.7661
▁inappropriate	-12.7662
ndi	-12.7663
▁exo	-12.7666
▁warhead	-12.7668
▁SM	-12.7669
lk	-12.7671
▁daunting	-12.7671
▁Aim	-12.7674
▁Environmental	-12.7676
ALL	-12.7677
▁Independent	-12.7678
-3	-12.7678
iff	-12.768
▁canoe	-12.7685
▁Dol	-12.7686
▁sway	-12.7689
vatar	-12.7689
▁ranking	-12.7692
▁carb	-12.7696
▁Cool	-12.7707
▁highland	-12.7708
▁Tech	-12.7712
trophy	-12.7715
▁clicked	-12.7716
▁Diet	-12.7716
jev	-12.7717
▁DE	-12.7718
bule	-12.7718
▁Indiana	-12.772
phy	-12.7721
▁Friends	-12.7725
▁Gues	-12.773
tric	-12.7731
▁1,6	-12.7735
▁utilize	-12.7737
▁disguise	-12.7737
did	-12.7738
acco	-12.7739
omi	-12.7739
▁reunite	-12.774
▁gyr	-12.774
▁attain	-12.7745
▁outline	-12.7755
▁revers	-12.7759
raham	-12.776
▁Doug	-12.7761
after	-12.7766
carbon	-12.777
first	-12.777
▁cellulos	-12.7772
▁contaminate	-12.7774
orium	-12.7775
▁80-	-12.7776
▁Broad	-12.778
balone	-12.7785
▁Om	-12.7786
▁updat	-12.7786
atomic	-12.7786
▁curled	-12.7788
Man	-12.7792
▁TB	-12.7793
▁Bare	-12.7796
post	-12.7796
▁nanometers	-12.78
glasse	-12.7802
▁bake	-12.7805
▁deform	-12.7812
▁5.	-12.7812
▁dice	-12.7813
▁Trump	-12.7814
▁reshape	-12.7815
fill	-12.7816
▁gamer	-12.7821
▁diar	-12.7825
▁Cause	-12.7827
▁tense	-12.7828
dum	-12.7829
rried	-12.7832
▁Writ	-12.7838
▁advoca	-12.7838
▁photographic	-12.7838
▁loyal	-12.7839
▁elegan	-12.784
▁dresse	-12.7846
▁Environment	-12.785
▁crosse	-12.7851
▁Rap	-12.7853
PL	-12.7859
▁knit	-12.7862
Vision	-12.7863
▁converge	-12.7865
▁speculat	-12.7878
▁evaluat	-12.7886
▁Develop	-12.7887
▁defecat	-12.7888
▁Mongolia	-12.7888
▁Papua	-12.7888
▁Taylor	-12.7888
▁abolish	-12.7888
▁amputee	-12.7888
▁calligraph	-12.7888
▁inadvertent	-12.7888
▁inferior	-12.7888
▁pendulum	-12.7888
▁prophec	-12.7888
▁repetition	-12.7888
▁rifle	-12.7888
▁squirrel	-12.7888
▁teapot	-12.7888
▁toothbrush	-12.7888
▁Ecuador	-12.7888
▁Glenn	-12.7888
▁Sustainab	-12.7888
▁blossom	-12.7888
▁Anthon	-12.7888
▁occurrence	-12.7888
▁smack	-12.7888
▁Different	-12.7888
▁alpha	-12.7888
▁snack	-12.7888
▁Schwarz	-12.7888
▁immunize	-12.7888
▁Gehr	-12.7888
▁ankle	-12.7888
▁Standard	-12.7889
▁stitch	-12.7889
▁radiologist	-12.7889
▁lease	-12.7889
▁Nash	-12.7889
▁plow	-12.7889
▁mound	-12.7889
▁Hyde	-12.7889
▁UNI	-12.7889
▁unravel	-12.7889
▁CPU	-12.7889
▁Whistl	-12.7889
▁paycheck	-12.7889
▁clan	-12.789
▁tenure	-12.789
▁holographic	-12.789
▁Pitt	-12.789
▁rebound	-12.789
▁actress	-12.7891
▁annihilat	-12.7891
▁Barry	-12.7891
▁euro	-12.7891
▁crippl	-12.7892
▁accountant	-12.7893
▁indulge	-12.7895
▁Harbor	-12.7895
▁Typical	-12.7895
▁impatient	-12.7895
▁Persian	-12.7895
▁laparoscopic	-12.7897
▁generalization	-12.7898
▁moist	-12.7901
▁thickness	-12.7902
▁hawk	-12.7902
▁repressi	-12.7903
▁megawatt	-12.7905
▁advocat	-12.7906
▁char	-12.7906
▁Jarre	-12.7906
▁referen	-12.7907
▁administer	-12.7908
▁Worldchanging	-12.7913
elling	-12.7914
▁Search	-12.7914
▁delightful	-12.7915
▁conjure	-12.7916
▁curate	-12.7917
flection	-12.7917
zu	-12.7917
▁Mahmo	-12.7921
▁hugg	-12.7922
▁Cleve	-12.7925
▁el	-12.793
▁Alf	-12.7932
▁bac	-12.7933
▁immerse	-12.7934
chan	-12.7934
▁Kath	-12.7936
utum	-12.7938
▁transmitter	-12.7942
▁ridicule	-12.7944
fabricat	-12.7945
▁AO	-12.7949
▁bureaucratic	-12.7952
▁Pic	-12.7961
▁Homer	-12.7965
wn	-12.7967
produc	-12.7972
rat	-12.7981
▁IP	-12.7984
▁Br	-12.7987
cat	-12.7988
▁Az	-12.799
▁1.	-12.799
▁offset	-12.7995
▁nut	-12.8002
▁fisc	-12.8004
yana	-12.8007
acre	-12.8007
▁Warr	-12.8008
▁Fr	-12.8008
▁Grey	-12.801
keep	-12.8013
▁Pur	-12.8015
▁Hus	-12.8019
▁Gand	-12.8022
▁dorm	-12.8023
▁Canal	-12.8024
voice	-12.8026
fidel	-12.8027
▁Rwandan	-12.8029
▁Mine	-12.8031
HD	-12.8031
organization	-12.8031
▁sights	-12.8041
hou	-12.8047
luck	-12.8047
▁gli	-12.8052
▁Rub	-12.8056
▁gym	-12.8057
▁Fran	-12.8059
RS	-12.8067
NT	-12.8067
▁breasts	-12.807
▁Sto	-12.8072
▁NB	-12.8074
▁manic	-12.8077
rque	-12.8079
▁compost	-12.8081
▁deriv	-12.8082
LA	-12.8082
▁exchang	-12.809
leg	-12.8091
ean	-12.8096
▁inflat	-12.8099
▁Mass	-12.8102
▁Aren	-12.8105
tainment	-12.8106
▁exercis	-12.8109
▁pul	-12.8115
▁tails	-12.8118
▁Ear	-12.8131
▁Kar	-12.8132
▁considerabl	-12.8137
entagon	-12.8145
▁Curiosit	-12.8145
▁Dimitr	-12.8145
▁Hopkin	-12.8145
▁Kurzweil	-12.8145
▁Mitchell	-12.8145
▁Monkey	-12.8145
▁NIH	-12.8145
▁Neuman	-12.8145
▁adhesive	-12.8145
▁antidote	-12.8145
▁daydream	-12.8145
▁hashtag	-12.8145
▁hyena	-12.8145
▁latrine	-12.8145
▁neutrino	-12.8145
▁rhyme	-12.8145
▁skyrocket	-12.8145
▁Chief	-12.8145
▁Crime	-12.8145
▁contingen	-12.8145
▁sprout	-12.8145
▁appointment	-12.8145
▁leuk	-12.8145
▁Bryan	-12.8145
▁joking	-12.8145
▁napkin	-12.8145
▁mistrust	-12.8145
▁pupil	-12.8145
▁Electric	-12.8145
▁trench	-12.8145
▁defy	-12.8145
▁crunch	-12.8145
▁Bonne	-12.8145
▁Ranger	-12.8145
▁Poem	-12.8146
▁precedent	-12.8146
▁doorstep	-12.8146
▁attendant	-12.8146
▁Needles	-12.8147
▁landmine	-12.8147
▁Coach	-12.8147
▁sanction	-12.8147
▁bleach	-12.8147
▁Fuller	-12.8148
▁pacemaker	-12.8148
▁examination	-12.8148
▁99.9	-12.8148
▁seedling	-12.8148
SDA	-12.8149
▁ripe	-12.8149
▁pigmentation	-12.8149
▁firework	-12.815
▁49	-12.8152
▁decoration	-12.8153
▁Ann	-12.8155
▁Team	-12.8156
▁medicinal	-12.8156
▁Ferm	-12.8157
▁statistician	-12.8157
▁blackboard	-12.8157
▁innovat	-12.816
▁petal	-12.8162
▁tangle	-12.8163
▁inflict	-12.8165
▁dissection	-12.8166
frost	-12.8167
▁amber	-12.8167
▁enslav	-12.8168
▁Animal	-12.8173
▁Von	-12.8173
adi	-12.8175
▁turbulent	-12.8175
eller	-12.8176
lus	-12.8181
ides	-12.8181
▁responder	-12.8183
▁Pac	-12.8183
▁altruistic	-12.819
▁absent	-12.8194
▁lick	-12.8199
▁torch	-12.8207
▁spac	-12.8208
▁divert	-12.8208
▁Drum	-12.8214
▁relieve	-12.8221
▁Gut	-12.8225
▁Juli	-12.8233
▁Russ	-12.8239
▁malle	-12.8243
▁bombed	-12.8243
▁Sala	-12.8244
spar	-12.8248
▁nutritional	-12.8248
haired	-12.825
Ex	-12.825
▁Researcher	-12.8251
▁vaccinat	-12.8252
bble	-12.8253
100	-12.8254
iform	-12.8255
▁fu	-12.8257
ourne	-12.826
▁dock	-12.8263
▁dune	-12.827
connected	-12.8271
▁experimenter	-12.8276
▁trader	-12.8277
span	-12.8281
leen	-12.8281
spiring	-12.8287
pan	-12.8287
invasive	-12.8288
conceive	-12.8289
conventional	-12.8289
birth	-12.829
pour	-12.8291
tooth	-12.8291
▁colonize	-12.8291
▁stumble	-12.8292
industrial	-12.8293
letter	-12.8297
▁hay	-12.8301
vin	-12.8303
▁celebrit	-12.8304
rate	-12.8306
▁Basic	-12.8308
▁Kara	-12.8311
▁Build	-12.8312
▁measurabl	-12.8315
▁locomot	-12.8317
▁increment	-12.8324
▁Pian	-12.8331
icular	-12.8336
▁Math	-12.8341
▁Organ	-12.8357
▁colonial	-12.8358
▁Bina	-12.836
▁pharmac	-12.8361
culus	-12.8372
▁whiske	-12.8372
▁symbio	-12.8375
▁gravel	-12.8375
▁Lowe	-12.8376
▁Chang	-12.8376
▁Lanka	-12.8379
▁thro	-12.8384
▁herb	-12.8385
hhh	-12.8396
▁Rocke	-12.8399
▁swam	-12.8401
▁coup	-12.8403
▁deplet	-12.8405
▁fantasi	-12.8405
▁reverb	-12.8405
▁illuminate	-12.8408
▁Fla	-12.8408
▁Mozambi	-12.8408
neurotransmitter	-12.8408
▁Announcer	-12.8408
▁Kuwait	-12.8408
▁cadaver	-12.8408
▁clutter	-12.8408
▁cyborg	-12.8408
▁facilitator	-12.8408
▁salamander	-12.8408
▁snippet	-12.8408
▁synagogue	-12.8408
▁tadpole	-12.8408
▁thirty	-12.8408
▁Excellen	-12.8408
▁cymatic	-12.8408
▁monolith	-12.8408
▁denounce	-12.8408
▁binocular	-12.8408
▁DDT	-12.8408
▁proactive	-12.8408
▁sensual	-12.8408
▁leaflet	-12.8408
▁perimeter	-12.8408
▁caption	-12.8408
▁vertebrate	-12.8409
▁crane	-12.8409
▁hardwir	-12.8409
▁haircut	-12.8409
▁Feel	-12.8409
▁wizard	-12.8409
▁proliferation	-12.8409
▁pavement	-12.841
▁Alexandria	-12.841
▁teammate	-12.841
▁blindfold	-12.841
▁modulate	-12.8411
▁flatter	-12.8411
▁imperfection	-12.8411
▁Karl	-12.8412
▁elevation	-12.8413
▁Java	-12.8414
▁Woo	-12.8414
▁invert	-12.8414
▁Want	-12.8415
▁EC	-12.8415
▁accumulation	-12.8416
▁Beside	-12.8416
▁raid	-12.8416
▁advisor	-12.8418
▁Mona	-12.8419
▁McL	-12.842
▁sack	-12.842
▁tradeoff	-12.842
▁hyperbolic	-12.842
▁scarf	-12.8421
▁Row	-12.8424
Agnes	-12.8424
▁digesti	-12.8425
▁ascend	-12.8426
▁seller	-12.8427
uza	-12.8428
▁incompatib	-12.8432
▁sailor	-12.8433
▁Clap	-12.8433
▁merchant	-12.8434
▁volatile	-12.8434
▁rewrite	-12.844
Cash	-12.844
meer	-12.8441
▁undermin	-12.8444
▁applica	-12.8446
▁upstream	-12.8447
▁cargo	-12.8447
onary	-12.8453
och	-12.8456
▁spectra	-12.8457
▁yearning	-12.8459
▁needless	-12.8459
violent	-12.8461
AT	-12.8462
▁rearrange	-12.8462
▁centraliz	-12.8464
▁CG	-12.8466
▁analyst	-12.847
uga	-12.8481
▁Nano	-12.8483
pol	-12.8484
▁peacekeep	-12.8485
▁Robin	-12.8491
▁swimmer	-12.8496
▁rider	-12.8505
▁sovereignt	-12.8507
▁wholly	-12.8513
▁Gord	-12.8517
▁notation	-12.8518
▁dries	-12.852
fac	-12.852
▁Matter	-12.852
tted	-12.8521
▁fr	-12.8521
▁Clay	-12.8531
ander	-12.8533
▁cou	-12.8537
▁inference	-12.8537
▁Rum	-12.8539
▁Clo	-12.8542
list	-12.8548
▁IV	-12.8548
▁lust	-12.8549
▁Bin	-12.8549
▁malari	-12.8551
mail	-12.8556
▁persuad	-12.8556
aptain	-12.8557
arian	-12.8557
condition	-12.8559
definition	-12.856
▁congest	-12.8567
▁Made	-12.8568
held	-12.8569
▁rust	-12.8573
▁technologically	-12.8576
glo	-12.8579
heard	-12.8586
▁Bond	-12.859
USB	-12.8596
coat	-12.8597
▁Raise	-12.8598
ntu	-12.86
saver	-12.8605
▁AS	-12.8611
▁exaggerat	-12.8612
▁Rem	-12.8616
▁Malt	-12.8616
▁downward	-12.8617
▁acro	-12.8621
dah	-12.8625
▁oas	-12.8625
▁irrigati	-12.8626
▁scrutin	-12.8627
▁defi	-12.8631
▁Uru	-12.8631
▁geographical	-12.8632
rudi	-12.8632
ux	-12.8632
weav	-12.8633
▁resembl	-12.8637
▁Mont	-12.864
▁bid	-12.8643
mont	-12.8644
them	-12.865
▁Bro	-12.8657
▁battles	-12.8661
▁lesser	-12.8663
▁supporter	-12.867
hem	-12.8673
▁Flo	-12.8675
▁Ran	-12.8677
▁spear	-12.8678
appointed	-12.8678
▁Dubai	-12.8678
▁Elephant	-12.8678
▁Ferguson	-12.8678
▁Pandora	-12.8678
▁amputation	-12.8678
▁breeze	-12.8678
▁burglar	-12.8678
▁cassette	-12.8678
▁clutch	-12.8678
▁conceivabl	-12.8678
▁delegation	-12.8678
▁escort	-12.8678
▁monaster	-12.8678
▁nephew	-12.8678
▁precaution	-12.8678
▁probation	-12.8678
▁saint	-12.8678
▁soybean	-12.8678
▁succumb	-12.8678
▁ACE	-12.8678
▁interpersonal	-12.8678
▁litigation	-12.8678
▁drastic	-12.8678
▁Gabriel	-12.8678
▁sabbatical	-12.8678
▁Victor	-12.8678
▁kidnapping	-12.8678
▁proclaim	-12.8678
▁sledge	-12.8678
▁hysterical	-12.8678
▁banjo	-12.8678
▁palpabl	-12.8678
▁Sky	-12.8678
▁Stroma	-12.8678
▁crook	-12.8678
▁clunk	-12.8678
▁reservation	-12.8678
▁guru	-12.8679
▁Poet	-12.8679
▁republic	-12.8679
▁dexter	-12.8679
▁Wind	-12.8679
▁Boeing	-12.8679
▁boardroom	-12.8679
▁Commandment	-12.8679
▁airbag	-12.8679
▁Minne	-12.8679
▁Weather	-12.868
▁dividend	-12.868
▁fringe	-12.868
▁Isabel	-12.868
▁skydiv	-12.8681
▁chant	-12.8681
▁tractor	-12.8681
▁Robotic	-12.8681
▁replay	-12.8681
▁Fifth	-12.8681
assic	-12.8681
▁Emba	-12.8681
▁peripheral	-12.8682
▁mystic	-12.8683
▁vend	-12.8684
▁Enter	-12.8684
▁Kerr	-12.8685
▁investigator	-12.8686
▁latter	-12.8687
▁devour	-12.8689
▁sane	-12.8689
▁librarian	-12.869
▁clam	-12.8691
pin	-12.8692
▁poacher	-12.8693
▁Nar	-12.8695
mah	-12.8698
razy	-12.87
▁hardship	-12.8701
▁Race	-12.8703
▁valu	-12.8703
▁bugg	-12.8705
▁granddaughter	-12.8706
▁contraction	-12.8707
▁graft	-12.871
▁Market	-12.8713
▁redempti	-12.8716
▁tan	-12.8718
▁usher	-12.872
▁goose	-12.8721
▁Train	-12.8721
▁porch	-12.8721
OL	-12.8721
pad	-12.8723
▁replie	-12.8724
▁termite	-12.8726
▁fer	-12.8726
▁basin	-12.8735
▁geographically	-12.8735
gro	-12.8739
rana	-12.8739
▁wasteful	-12.874
▁ST	-12.874
▁orient	-12.8741
▁exaggerate	-12.8742
teau	-12.8751
▁meditati	-12.8753
▁quota	-12.8757
dministration	-12.8757
▁kn	-12.8763
master	-12.8765
▁miniatur	-12.8765
▁Form	-12.8769
▁dic	-12.8772
▁beneficiar	-12.8773
▁McCa	-12.8775
erine	-12.8778
▁LE	-12.8782
▁margin	-12.8797
▁Ei	-12.8798
▁plasticity	-12.88
▁plausibl	-12.88
▁Shir	-12.8801
▁Str	-12.8808
▁gifted	-12.881
▁Osa	-12.8813
▁folder	-12.8817
▁aquari	-12.8819
▁UC	-12.8823
▁varie	-12.8823
▁Cas	-12.8826
-20	-12.8828
▁Rat	-12.8832
▁switche	-12.8832
blown	-12.8837
credit	-12.8837
▁trainer	-12.8837
threaten	-12.8838
mouth	-12.8838
▁fleeting	-12.8838
Day	-12.8839
consistenc	-12.8843
uma	-12.8845
▁wond	-12.8847
bbing	-12.8848
▁mon	-12.885
▁moms	-12.8858
▁pu	-12.886
anger	-12.8864
▁oral	-12.8867
rmed	-12.887
▁Tar	-12.8875
xi	-12.8876
winning	-12.8877
▁hustle	-12.8885
▁cite	-12.8886
▁EB	-12.8891
eck	-12.8895
▁captiv	-12.8899
▁multiplicati	-12.8905
▁Pu	-12.8906
▁clicks	-12.8908
lvin	-12.8922
spiration	-12.8923
polis	-12.8927
▁Algeria	-12.8927
▁unknow	-12.8929
City	-12.8942
▁sip	-12.8944
▁ignit	-12.8947
▁chemo	-12.8949
ccasional	-12.8955
ipher	-12.8955
▁Fuku	-12.8956
▁Advanc	-12.8956
▁Ancient	-12.8956
▁Bueno	-12.8956
▁Studio	-12.8956
▁adversar	-12.8956
▁biblical	-12.8956
▁correspondence	-12.8956
▁emerald	-12.8956
▁orthopedic	-12.8956
▁steroid	-12.8956
▁truffle	-12.8956
▁umbrella	-12.8956
▁uncommon	-12.8956
▁unwilling	-12.8956
▁Jacob	-12.8956
▁downhill	-12.8956
▁Buzz	-12.8956
▁Stalin	-12.8956
▁stutter	-12.8956
▁Bilb	-12.8956
▁carving	-12.8956
▁tornado	-12.8956
▁discount	-12.8956
▁disclosure	-12.8956
▁Trek	-12.8956
▁floss	-12.8956
▁seduce	-12.8956
▁sequel	-12.8956
▁interval	-12.8956
▁Committe	-12.8956
mentary	-12.8956
▁1,800	-12.8957
▁safeguard	-12.8957
▁reacti	-12.8957
▁Studie	-12.8957
▁bailout	-12.8958
minent	-12.8958
▁landmark	-12.8959
▁RO	-12.8959
▁Kamen	-12.8959
▁63	-12.896
njunction	-12.896
▁Leg	-12.8961
shalt	-12.8961
ermaid	-12.8961
▁3.5	-12.8961
▁fulfillment	-12.8962
▁revive	-12.8964
▁Marco	-12.8966
▁humanoid	-12.8966
▁distortion	-12.8966
▁Genome	-12.8966
▁24,000	-12.8967
ception	-12.8967
▁rebellion	-12.8968
▁Increasing	-12.8968
▁tickle	-12.8969
legged	-12.897
▁geneticist	-12.8971
▁mammalian	-12.8972
▁Extreme	-12.8972
▁endorse	-12.8974
▁apprentice	-12.8976
▁coache	-12.8977
▁lymph	-12.8978
▁missionar	-12.898
▁heavier	-12.8981
ect	-12.8981
itzer	-12.8981
▁autopsy	-12.8984
▁foresee	-12.8985
▁endure	-12.8985
hik	-12.8987
▁permeate	-12.8988
▁Doro	-12.8992
▁rebuil	-12.8993
▁oat	-12.8997
ulate	-12.9001
▁Humanit	-12.9001
▁tripl	-12.9008
▁Pack	-12.9009
▁fossilize	-12.9011
▁procrastinat	-12.9015
▁circulate	-12.9018
▁mu	-12.9021
▁reuni	-12.9023
angle	-12.9029
▁inertia	-12.9031
quo	-12.9034
▁mug	-12.9035
▁Butler	-12.9037
▁Belt	-12.9039
▁decod	-12.9039
▁debat	-12.9045
▁Bart	-12.9047
▁Masa	-12.9048
▁advis	-12.9048
▁inert	-12.9053
▁blended	-12.9056
tran	-12.9056
▁rot	-12.9058
station	-12.906
shes	-12.9062
urance	-12.9066
▁recreat	-12.9067
▁Princes	-12.9071
▁unchang	-12.9073
▁spiritualit	-12.9073
▁democratize	-12.9074
beat	-12.9077
▁aqua	-12.9081
istence	-12.9086
nda	-12.9087
▁Ethiopian	-12.9093
▁orbital	-12.9096
▁HC	-12.9097
disciplinar	-12.9104
▁Vot	-12.9108
rbie	-12.9116
conscious	-12.9121
▁Patients	-12.9123
record	-12.9123
wind	-12.9123
▁shav	-12.9127
▁insulat	-12.9137
▁Dog	-12.9138
▁pok	-12.914
▁Ser	-12.914
death	-12.9141
▁Wars	-12.9154
cam	-12.9156
▁ID	-12.9156
▁Vas	-12.916
▁Bird	-12.9169
ellar	-12.9169
gli	-12.9172
▁Superma	-12.9177
erkat	-12.9177
▁gardener	-12.9188
uick	-12.9188
▁crani	-12.9189
vory	-12.919
nect	-12.9198
▁enforc	-12.9198
▁Ros	-12.9202
▁serv	-12.9205
▁str	-12.9207
▁ox	-12.9208
▁fertilize	-12.9209
burn	-12.9209
▁Auto	-12.921
▁hairs	-12.9213
▁anonym	-12.9217
▁interpla	-12.922
eating	-12.9225
▁proxim	-12.9225
▁alternate	-12.9226
▁plumb	-12.923
▁outperform	-12.923
▁Explor	-12.9233
bridge	-12.9235
▁Mari	-12.9237
▁persuasi	-12.9238
▁implicat	-12.9239
▁Roug	-12.9239
▁registr	-12.924
▁Hind	-12.9241
cautious	-12.9242
▁Liquid	-12.9242
▁alleviate	-12.9242
▁brochure	-12.9242
▁deceptive	-12.9242
▁minaret	-12.9242
▁nozzle	-12.9242
▁nugget	-12.9242
▁substrate	-12.9242
▁terabyte	-12.9242
▁Angola	-12.9242
▁Generation	-12.9242
▁militari	-12.9242
▁reckon	-12.9242
▁vigorous	-12.9242
▁LOLcat	-12.9242
▁dazzl	-12.9242
▁Bacteria	-12.9242
▁seaweed	-12.9242
▁pavilion	-12.9242
▁cricket	-12.9242
▁exhal	-12.9242
▁imprint	-12.9242
▁memoir	-12.9242
▁Blair	-12.9242
▁dashboard	-12.9242
▁homeowner	-12.9242
▁Champ	-12.9242
▁fragrance	-12.9242
▁cartograph	-12.9242
▁chainsaw	-12.9242
▁buffalo	-12.9242
▁almond	-12.9242
▁chole	-12.9242
▁Mosco	-12.9242
▁mountaintop	-12.9243
▁psychic	-12.9243
▁ginger	-12.9243
▁shoreline	-12.9243
rrogate	-12.9243
▁submission	-12.9243
▁interconnection	-12.9244
▁Bam	-12.9244
▁displacement	-12.9244
▁pinch	-12.9244
▁eruption	-12.9245
arbaric	-12.9246
▁Heather	-12.9246
▁equate	-12.9246
▁accusation	-12.9247
▁confinement	-12.9247
▁Communication	-12.9247
▁cartel	-12.9248
▁Artist	-12.9249
▁Explorer	-12.9251
▁Stac	-12.9252
▁Grove	-12.9252
▁remak	-12.9252
▁Tele	-12.9253
▁ambien	-12.9253
▁tenaci	-12.9253
▁Yemeni	-12.9254
▁eloquent	-12.9254
▁Hul	-12.9255
terol	-12.9255
▁Tel	-12.9256
electrifie	-12.9257
▁Edu	-12.9257
▁communicator	-12.9258
▁Alto	-12.9259
▁Peer	-12.926
▁Harrie	-12.926
▁Brigade	-12.9261
▁transducer	-12.9261
▁chin	-12.9261
▁Era	-12.9262
▁astrolabe	-12.9262
▁punctuat	-12.9263
▁limitless	-12.9263
▁spur	-12.9266
▁dash	-12.9267
▁grazing	-12.9268
▁sue	-12.9268
NES	-12.9274
▁Roll	-12.9275
▁Creat	-12.9276
▁smuggler	-12.928
▁manta	-12.928
▁glaci	-12.9281
▁monumental	-12.9281
▁shredd	-12.9282
wry	-12.9282
▁Holm	-12.9284
Bits	-12.9286
▁marking	-12.9288
▁antique	-12.9289
▁transcendent	-12.9292
reek	-12.9294
▁Week	-12.9295
pack	-12.9295
▁restless	-12.9297
▁spik	-12.9297
▁Kh	-12.9297
▁vitr	-12.93
▁identifie	-12.9301
▁Opera	-12.9309
▁Tunisian	-12.9309
▁shooter	-12.9311
IPP	-12.9314
loop	-12.9317
▁gripp	-12.9319
chai	-12.932
▁constitutional	-12.9321
▁Fine	-12.9321
doc	-12.9324
▁tract	-12.9324
▁overestimate	-12.9326
unge	-12.9328
▁Lib	-12.933
▁homeland	-12.9331
▁Reserv	-12.9337
▁pastor	-12.9339
bb	-12.9339
▁cru	-12.934
▁hype	-12.9344
▁marketer	-12.9351
nman	-12.9355
cycle	-12.9367
ode	-12.9367
▁Ley	-12.9369
ssex	-12.9375
▁arch	-12.9376
▁robe	-12.9377
▁Git	-12.9379
surfing	-12.9381
ugg	-12.9381
aka	-12.9382
▁reliev	-12.9388
ema	-12.939
eastern	-12.9393
lese	-12.9393
▁sampl	-12.9397
rop	-12.9408
▁Thor	-12.941
natural	-12.9416
evolution	-12.9417
convenient	-12.9417
infect	-12.9417
MRI	-12.9417
visual	-12.9417
discover	-12.9418
▁commercializ	-12.9419
capable	-12.9421
rial	-12.9423
▁Drug	-12.9429
green	-12.9432
▁dissolv	-12.9434
inister	-12.945
▁Aw	-12.9456
finance	-12.9459
enabl	-12.9464
▁brew	-12.9465
▁greener	-12.9468
▁Mag	-12.947
western	-12.947
▁descen	-12.947
▁Equal	-12.9489
▁Saga	-12.949
▁glu	-12.9492
▁utiliz	-12.9495
▁lapse	-12.9508
▁Jr	-12.951
▁unwa	-12.951
catch	-12.951
▁SR	-12.9513
strom	-12.9516
replicating	-12.9517
▁Pun	-12.9519
tree	-12.9519
▁badge	-12.952
▁Cous	-12.952
▁Ren	-12.9523
NH	-12.9529
▁reviv	-12.9529
ymphon	-12.9531
▁tacti	-12.9535
▁multimedia	-12.9536
▁Spirit	-12.9536
▁eleven	-12.9536
Baghdad	-12.9536
▁Frankenstein	-12.9536
▁Halloween	-12.9536
▁Instagram	-12.9536
▁Occupy	-12.9536
▁Pepsi	-12.9536
▁Sleep	-12.9536
▁clump	-12.9536
▁elicit	-12.9536
▁feast	-12.9536
▁hospice	-12.9536
▁kilowatt	-12.9536
▁paintbrush	-12.9536
▁remorse	-12.9536
▁windshield	-12.9536
▁Critic	-12.9536
▁attentive	-12.9536
▁grenade	-12.9536
▁Plastic	-12.9536
▁eternit	-12.9536
▁heterosexual	-12.9536
▁reminisc	-12.9536
▁shaft	-12.9536
▁forensic	-12.9536
▁caterpillar	-12.9536
▁taxonom	-12.9536
▁Blind	-12.9536
▁entrenche	-12.9536
▁Hiroshima	-12.9536
▁libertarian	-12.9536
▁ivory	-12.9536
▁beacon	-12.9536
▁fifty	-12.9536
▁league	-12.9536
▁orchid	-12.9536
▁Diamond	-12.9536
▁grandmaster	-12.9536
▁whack	-12.9536
▁noninvasive	-12.9537
▁evolutionarily	-12.9537
▁modalit	-12.9537
▁Shack	-12.9537
▁Infinit	-12.9537
▁unsafe	-12.9538
▁Erik	-12.9538
▁Milan	-12.9538
▁streak	-12.9539
▁assay	-12.9539
▁Shah	-12.9539
▁synerg	-12.954
▁persuasion	-12.954
▁strawberr	-12.954
▁Twa	-12.9541
▁Eat	-12.9543
▁dialect	-12.9544
dad	-12.9544
▁beheading	-12.9545
shore	-12.9545
▁setback	-12.9545
uitar	-12.9546
cutter	-12.9547
▁rex	-12.9548
▁cradle	-12.9548
▁dire	-12.9549
▁graze	-12.9549
▁thorn	-12.9551
getting	-12.9551
▁referral	-12.9552
itan	-12.9552
▁funk	-12.9557
▁RD	-12.9558
▁torment	-12.9559
▁Highway	-12.956
▁tracker	-12.9567
YU	-12.9567
▁breathtaking	-12.9568
▁Ashle	-12.9568
▁surfer	-12.9572
▁tug	-12.9572
▁villager	-12.9572
▁partisan	-12.9574
▁Fab	-12.9576
▁paradoxical	-12.9576
▁retailer	-12.9577
▁archetype	-12.958
▁Biospher	-12.9582
▁laborer	-12.9583
▁fork	-12.9589
▁synthesizer	-12.959
▁deteriorat	-12.9592
▁irrigat	-12.9593
▁outstanding	-12.9596
ndra	-12.9603
▁sorrow	-12.9604
▁Madam	-12.9606
▁Egg	-12.9621
owa	-12.9621
▁Dian	-12.9624
▁Speci	-12.9624
▁teen	-12.9624
▁circl	-12.9632
▁fellows	-12.9635
zhen	-12.9637
▁consol	-12.9643
▁sacrific	-12.9655
cep	-12.9656
nya	-12.9659
abi	-12.966
▁Runn	-12.966
▁compile	-12.9667
▁Naj	-12.9668
ascar	-12.9671
▁Lan	-12.9671
▁goof	-12.9673
▁tactical	-12.9678
▁Gil	-12.9679
▁solu	-12.9679
▁gig	-12.9681
▁readi	-12.9681
▁Connect	-12.9683
astro	-12.9689
technology	-12.9689
ois	-12.969
▁wag	-12.9696
erra	-12.9697
▁BR	-12.9702
▁vaccinate	-12.9705
▁compil	-12.9706
sein	-12.9707
ffer	-12.9708
morph	-12.9713
▁Multi	-12.9718
▁excavat	-12.9718
iling	-12.972
through	-12.972
distance	-12.9721
ocean	-12.9721
cene	-12.9722
oom	-12.9725
good	-12.9729
task	-12.973
▁barber	-12.9744
▁coating	-12.975
▁51	-12.9752
▁profitabl	-12.9757
rgh	-12.9758
▁Hands	-12.9762
▁contemplate	-12.9765
▁disseminat	-12.9769
▁pollute	-12.9771
spot	-12.9772
static	-12.9773
ague	-12.9777
ggy	-12.9779
planetary	-12.9785
▁extrapolate	-12.9792
ollock	-12.9797
hearted	-12.9807
▁conductiv	-12.9816
▁trawl	-12.9817
▁Sandr	-12.9818
▁amplifie	-12.9818
misphere	-12.9822
lux	-12.9823
▁propel	-12.9824
edible	-12.9825
▁neurologic	-12.9826
assemble	-12.9829
▁glide	-12.983
▁filmmak	-12.9832
▁formulate	-12.9833
▁simplifie	-12.9837
communica	-12.9838
▁legitima	-12.9838
▁commemorat	-12.9839
▁Affair	-12.9839
▁Balkan	-12.9839
▁Buckminster	-12.9839
▁Embrac	-12.9839
▁Future	-12.9839
▁Glacier	-12.9839
▁Urban	-12.9839
▁chirp	-12.9839
▁constituenc	-12.9839
▁debilitat	-12.9839
▁ghetto	-12.9839
▁gospel	-12.9839
▁jumble	-12.9839
▁obituar	-12.9839
▁pelvi	-12.9839
▁reassuring	-12.9839
▁misinterpret	-12.9839
▁pellet	-12.9839
▁sliver	-12.9839
▁compartment	-12.9839
▁unicorn	-12.9839
▁utilitarian	-12.9839
▁engulf	-12.9839
▁ballast	-12.9839
▁enclosure	-12.9839
▁pilgrimage	-12.9839
▁paw	-12.9839
▁wanna	-12.9839
▁probiotic	-12.9839
▁barbecue	-12.9839
▁Rabbi	-12.9839
▁rehearse	-12.9839
▁revisit	-12.9839
▁gloss	-12.9839
▁approximation	-12.9839
▁rack	-12.9839
▁Morning	-12.9839
▁agitat	-12.9839
▁typewriter	-12.9839
▁Mandar	-12.9839
▁boycott	-12.9839
▁wretche	-12.9839
▁Speed	-12.9839
▁opium	-12.984
▁flashlight	-12.984
▁exoskeleton	-12.984
▁quirk	-12.984
▁unchar	-12.984
▁recap	-12.984
Family	-12.984
▁linger	-12.984
▁cosmologist	-12.984
▁deput	-12.984
▁paddle	-12.984
▁spotlight	-12.9841
▁fascinate	-12.9841
▁shareholder	-12.9841
▁Senator	-12.9842
hotom	-12.9843
0-	-12.9843
▁suffocat	-12.9844
▁Jung	-12.9844
▁presumption	-12.9844
▁villain	-12.9844
▁spoofer	-12.9844
▁Michelle	-12.9844
oko	-12.9844
▁stigmatiz	-12.9844
osaurus	-12.9845
▁discriminate	-12.9845
anthrop	-12.9845
▁EU	-12.9845
▁nann	-12.9846
▁1850	-12.9847
▁magnifi	-12.9847
▁fisherm	-12.9849
▁octave	-12.9849
▁avert	-12.9852
▁gigawatt	-12.9852
▁nostalgi	-12.9852
icate	-12.9852
▁apprais	-12.9853
▁leftover	-12.9854
deal	-12.9855
▁demoraliz	-12.9855
▁CL	-12.9856
▁specialization	-12.9856
▁eject	-12.9859
▁reel	-12.9861
▁Noise	-12.9861
▁biochemistr	-12.9861
▁Billi	-12.9861
▁Manch	-12.9862
▁quarti	-12.9863
▁discourag	-12.9863
▁recurren	-12.9864
▁matur	-12.9864
▁Burk	-12.9865
▁whipp	-12.9867
hai	-12.9868
▁Bor	-12.9869
▁reciprocal	-12.9869
▁dumm	-12.9872
▁Adi	-12.9872
▁swapp	-12.9874
▁ply	-12.9875
▁glaze	-12.9881
▁Valentin	-12.9882
▁butcher	-12.9883
▁dressing	-12.9884
▁SC	-12.9885
oping	-12.9886
▁Blak	-12.9891
NC	-12.9892
▁fiddle	-12.9896
variabl	-12.9897
▁Hour	-12.9897
▁dangl	-12.9897
▁encoder	-12.9901
▁Rocket	-12.9905
stical	-12.9914
▁Words	-12.9914
▁Gee	-12.9915
▁Kite	-12.9917
harmonic	-12.9921
▁northwest	-12.9921
ano	-12.9924
▁Gor	-12.9937
shima	-12.9939
aire	-12.9942
tah	-12.9946
▁Beverl	-12.9953
▁Judi	-12.9959
change	-12.996
▁SH	-12.9963
La	-12.9972
meaning	-12.9973
spectr	-12.9979
nom	-12.9981
▁interrogat	-12.9981
states	-12.9988
▁aero	-12.999
glass	-12.9992
▁presume	-12.9994
value	-12.9995
▁deconstruct	-12.9996
▁Lion	-13
29	-13.0001
ique	-13.0005
fus	-13.0011
▁rejuvenat	-13.0024
DR	-13.0024
▁Cu	-13.0025
vant	-13.0027
▁60-	-13.0029
▁waterway	-13.0029
escent	-13.003
haul	-13.0033
implant	-13.0033
prepared	-13.0033
normal	-13.0033
▁allud	-13.0033
balance	-13.0034
▁rehabilitat	-13.0037
▁degenerati	-13.0038
feed	-13.0038
▁Inc	-13.0038
▁bubbl	-13.0039
▁Tak	-13.0039
etti	-13.0041
▁calve	-13.0045
▁utilit	-13.0048
▁Won	-13.005
ija	-13.0051
▁spher	-13.0053
plain	-13.0058
publishe	-13.0067
▁Happi	-13.0069
▁astrophysic	-13.0069
▁tub	-13.0071
layer	-13.0079
▁mi	-13.0087
24	-13.0088
lima	-13.0095
▁altruist	-13.0096
▁romanticiz	-13.0097
▁cog	-13.01
▁harden	-13.0103
▁Kai	-13.0104
▁Fold	-13.0106
▁starve	-13.0111
▁bot	-13.0116
▁prohibition	-13.0117
▁una	-13.012
untu	-13.0125
marin	-13.0128
▁instruct	-13.013
▁Ring	-13.013
▁reprogram	-13.0133
▁Mathematic	-13.0133
▁Him	-13.0139
▁Somali	-13.014
▁Hat	-13.0144
▁ub	-13.0146
▁unma	-13.0146
▁crowdsourc	-13.0147
▁tumbl	-13.0148
▁Contra	-13.0149
▁affirm	-13.0149
ampaign	-13.0151
▁prolif	-13.0151
▁circum	-13.0151
uantum	-13.0151
▁Agricultur	-13.0151
▁Cameroon	-13.0151
▁PDF	-13.0151
▁congregation	-13.0151
▁expir	-13.0151
▁filth	-13.0151
▁pianist	-13.0151
▁pinnacle	-13.0151
▁prairie	-13.0151
▁puddle	-13.0151
▁terrace	-13.0151
▁ruthless	-13.0151
▁Inuit	-13.0151
▁aristocra	-13.0151
▁Battle	-13.0151
▁humpback	-13.0151
▁sift	-13.0152
▁misinform	-13.0152
▁resent	-13.0152
▁fanatic	-13.0152
▁frail	-13.0152
▁hallmark	-13.0152
▁Stux	-13.0152
▁narrator	-13.0152
▁Kiva	-13.0152
▁Patent	-13.0152
▁flora	-13.0152
▁Double	-13.0152
▁futil	-13.0152
▁savage	-13.0152
▁fluke	-13.0153
mode	-13.0153
▁emperor	-13.0153
▁epoch	-13.0153
▁Christin	-13.0153
▁defensive	-13.0153
▁lurk	-13.0153
▁cocoon	-13.0153
▁harp	-13.0153
▁eyeball	-13.0154
▁waitress	-13.0154
▁reorganize	-13.0154
realistic	-13.0154
▁arrowhead	-13.0154
▁depletion	-13.0155
▁farthe	-13.0155
overty	-13.0155
▁Hamp	-13.0157
▁betrayal	-13.0157
▁hierarchical	-13.0158
▁empti	-13.0158
▁slug	-13.0159
▁Hunter	-13.0159
▁Knight	-13.0159
▁firefighter	-13.016
▁Ern	-13.016
▁commonalit	-13.016
▁sitcom	-13.016
▁trance	-13.0162
▁banal	-13.0164
▁Philipp	-13.0164
rahim	-13.0164
▁Sela	-13.0164
▁naught	-13.0166
▁snapp	-13.0168
▁Mathematica	-13.0168
▁Maurit	-13.0169
▁Hang	-13.0169
▁spru	-13.0171
▁Raja	-13.0172
alph	-13.0173
ifying	-13.0174
▁Mik	-13.0176
▁residence	-13.0176
▁broaden	-13.0176
▁verifi	-13.0179
▁salv	-13.0182
▁cavit	-13.0184
▁Ubu	-13.0185
▁sanct	-13.0187
▁revert	-13.0193
fast	-13.0194
▁commuter	-13.0195
▁Must	-13.0195
▁restraint	-13.0197
▁Stick	-13.0197
▁decreas	-13.0198
▁eagle	-13.0199
▁Rican	-13.0204
2,000	-13.0208
▁dismay	-13.0208
▁ze	-13.0211
▁fable	-13.0213
▁urg	-13.0213
▁orb	-13.0215
▁Mobil	-13.0217
▁roaring	-13.0221
leton	-13.0224
tzman	-13.0225
nder	-13.0227
▁Mali	-13.0229
chk	-13.0229
inson	-13.0233
▁Libyan	-13.0233
raba	-13.0234
▁Hur	-13.0234
▁noon	-13.0245
▁marginal	-13.0246
▁quotation	-13.0247
▁Burn	-13.0252
▁shorten	-13.0256
▁patche	-13.0257
suit	-13.0258
▁viewers	-13.0271
wave	-13.0272
iable	-13.0274
▁Natali	-13.0277
▁dimm	-13.0281
▁compensate	-13.0296
▁decorati	-13.0296
uction	-13.0302
under	-13.0312
▁munition	-13.0312
▁chok	-13.0315
enable	-13.0317
▁Cook	-13.0317
▁understate	-13.0319
max	-13.0333
boat	-13.0348
▁copulat	-13.0348
▁cliche	-13.035
▁bushe	-13.0353
safe	-13.0355
important	-13.0356
click	-13.0356
strand	-13.0359
▁recycler	-13.0359
▁Cam	-13.0362
▁typograph	-13.0363
ertie	-13.0364
ural	-13.0366
▁Fift	-13.0369
nese	-13.0371
▁HA	-13.0373
▁modes	-13.0375
SE	-13.0377
▁patron	-13.038
vich	-13.0382
trove	-13.0384
▁Word	-13.0395
gio	-13.0397
▁dent	-13.0401
▁philanthropic	-13.0413
cock	-13.0414
▁echoe	-13.0416
bara	-13.0419
▁slim	-13.0425
cop	-13.0425
▁Ham	-13.0428
▁Magn	-13.0428
▁Cur	-13.0429
▁converse	-13.0433
▁pl	-13.0436
▁remedi	-13.0437
▁Auguste	-13.044
IN	-13.0442
ocation	-13.0442
▁enslave	-13.0445
tick	-13.0449
01	-13.0449
etter	-13.0455
mination	-13.0456
▁illustrat	-13.0457
▁aspirin	-13.0461
▁coincide	-13.0464
akash	-13.0465
▁diverge	-13.0467
▁exert	-13.0471
▁recess	-13.0471
rilliant	-13.0472
▁advert	-13.0473
▁pedagog	-13.0474
▁sectarian	-13.0474
▁Culture	-13.0474
▁Kickstarter	-13.0474
▁Target	-13.0474
▁brittle	-13.0474
▁catheter	-13.0474
▁colossal	-13.0474
▁constituent	-13.0474
▁critique	-13.0474
▁delicac	-13.0474
▁dissident	-13.0474
▁frivolous	-13.0474
▁kiosk	-13.0474
▁logarithm	-13.0474
▁obedien	-13.0474
▁ominous	-13.0474
▁quartz	-13.0474
▁rudder	-13.0474
▁sausage	-13.0474
▁Cornell	-13.0474
▁complacen	-13.0474
▁Match	-13.0474
▁lobster	-13.0474
▁underdog	-13.0474
▁abduct	-13.0474
▁submerge	-13.0474
▁unconditional	-13.0474
▁archaic	-13.0474
▁mitochondria	-13.0474
▁Adult	-13.0474
▁departure	-13.0474
▁demolish	-13.0474
▁ministr	-13.0474
rexit	-13.0474
▁twitch	-13.0474
▁intermediate	-13.0474
▁vault	-13.0474
ett	-13.0474
▁salut	-13.0474
▁brigade	-13.0474
▁Resist	-13.0474
▁orthodox	-13.0475
▁ballroom	-13.0475
▁cobble	-13.0475
▁fox	-13.0475
▁jit	-13.0475
▁Capit	-13.0475
▁suburbia	-13.0475
▁crayon	-13.0475
▁suspension	-13.0475
▁ferment	-13.0476
▁ob	-13.0476
▁Owen	-13.0476
▁bride	-13.0476
▁ballistic	-13.0476
▁swoop	-13.0476
▁Nino	-13.0476
▁narcissist	-13.0477
▁Malari	-13.0477
▁guardian	-13.0477
▁topograph	-13.0477
▁Flight	-13.0477
▁Declar	-13.0478
▁Goul	-13.0478
▁Diver	-13.0478
▁clogg	-13.0478
▁inspector	-13.0479
▁Wang	-13.0479
RES	-13.0481
▁Allow	-13.0481
▁Gross	-13.0481
▁Hippocrat	-13.0481
▁headset	-13.0481
▁peck	-13.0482
izzy	-13.0482
ench	-13.0483
▁depiction	-13.0484
PS	-13.0485
▁Honor	-13.0486
▁damp	-13.0488
▁successive	-13.0488
▁Wint	-13.0488
efront	-13.049
▁warden	-13.0491
▁discretion	-13.0492
▁overlapp	-13.0498
abul	-13.0499
▁decoupl	-13.0503
▁truthful	-13.0505
ample	-13.0505
usie	-13.0507
▁diner	-13.0507
▁spat	-13.0508
readnought	-13.0512
pal	-13.0513
▁Gal	-13.0513
▁wiggle	-13.0519
geant	-13.0519
▁jig	-13.052
elle	-13.052
▁Song	-13.0522
▁enlarge	-13.0525
▁appalling	-13.053
▁bik	-13.0532
▁Rag	-13.0534
▁predictor	-13.0534
▁mania	-13.0535
▁Farm	-13.0535
▁insufficient	-13.0536
▁thermostat	-13.054
▁uter	-13.054
▁duplicate	-13.0541
listic	-13.0545
▁rhythmic	-13.0565
CR	-13.0566
nuck	-13.0568
erence	-13.0576
▁sever	-13.0579
etas	-13.058
▁momentous	-13.0584
▁Clar	-13.0585
▁skier	-13.0586
▁teeny	-13.0591
icha	-13.0592
▁plung	-13.0592
▁calv	-13.0593
cule	-13.0594
via	-13.0599
▁juic	-13.0604
▁hopp	-13.0608
nowledge	-13.0611
▁institutionaliz	-13.0614
▁pissed	-13.0614
uf	-13.0615
ken	-13.0617
▁Eh	-13.062
▁splitt	-13.062
-4	-13.0622
▁academi	-13.0627
▁padd	-13.0628
▁logistical	-13.0629
▁pointer	-13.0631
▁Colon	-13.0635
pecific	-13.0636
▁11-	-13.0642
zar	-13.0666
gger	-13.0671
▁Vivi	-13.0675
▁retrieve	-13.0678
▁crumbl	-13.0678
pool	-13.0681
holder	-13.0683
inous	-13.0684
▁epi	-13.0684
frame	-13.0688
cker	-13.0688
pie	-13.0689
square	-13.0689
igible	-13.0691
▁yo	-13.0693
▁retract	-13.0696
▁thousandth	-13.0702
▁accord	-13.0711
▁Drive	-13.0714
offend	-13.0714
plex	-13.0717
▁metastas	-13.0717
▁pals	-13.0718
▁acu	-13.0721
▁Fields	-13.0733
▁purposeful	-13.0734
▁Hart	-13.0739
▁deteriorate	-13.0744
bend	-13.0748
cap	-13.0753
▁Marl	-13.0756
▁Sim	-13.0757
▁Buddhis	-13.0758
▁Northwest	-13.076
curable	-13.0762
▁Gun	-13.0764
review	-13.0769
▁Mach	-13.0774
▁MB	-13.0775
▁Non	-13.0778
▁confer	-13.0779
600	-13.078
due	-13.0785
▁oceanograph	-13.0788
▁fragil	-13.0788
▁recurr	-13.0788
FC	-13.0792
▁Rod	-13.0798
▁speculati	-13.0799
▁transcenden	-13.0804
tenth	-13.0805
lever	-13.0806
▁Chen	-13.0807
▁reign	-13.0807
▁Guard	-13.0807
multipotentialit	-13.0807
▁Choice	-13.0807
▁Conscious	-13.0807
▁Entropi	-13.0807
▁Everglade	-13.0807
▁Explosi	-13.0807
▁Gaddafi	-13.0807
▁Scrapper	-13.0807
▁appendage	-13.0807
▁biomarker	-13.0807
▁calibrate	-13.0807
▁collateral	-13.0807
▁geyser	-13.0807
▁liminal	-13.0807
▁quadruple	-13.0807
▁reconsider	-13.0807
▁regress	-13.0807
bimetal	-13.0807
▁Feminist	-13.0807
▁myriad	-13.0807
▁razor	-13.0807
▁Complete	-13.0807
▁debut	-13.0807
▁propriet	-13.0807
▁aperture	-13.0807
▁maim	-13.0807
▁Nicole	-13.0807
▁critter	-13.0807
▁Immediate	-13.0807
▁biomimic	-13.0807
▁Igbo	-13.0807
▁sympathetic	-13.0807
▁ROV	-13.0807
▁anecdotal	-13.0808
▁impart	-13.0808
▁dizzy	-13.0808
▁courtroom	-13.0808
▁hotspot	-13.0808
▁infanc	-13.0808
▁lumber	-13.0808
▁jo	-13.0808
▁theorist	-13.0808
mingham	-13.0808
▁darling	-13.0808
▁dissonance	-13.0808
▁videotape	-13.0809
▁chronological	-13.0809
▁scalp	-13.0809
▁hoop	-13.0809
▁safari	-13.0809
▁Member	-13.0809
▁sonic	-13.0809
▁granular	-13.0809
▁pathologist	-13.081
▁hap	-13.081
▁reassemble	-13.081
sofa	-13.081
▁genre	-13.081
▁Dennis	-13.081
▁wiretapp	-13.0812
▁Smart	-13.0812
▁reversal	-13.0813
▁Denisovan	-13.0813
▁animator	-13.0813
▁Income	-13.0814
▁carpool	-13.0815
▁Huge	-13.0816
rian	-13.0816
▁geopolitical	-13.0816
▁creed	-13.0817
▁youngster	-13.0817
▁skinny	-13.0817
▁Gravit	-13.0818
▁skyline	-13.0818
▁aggregat	-13.0818
▁Gradua	-13.0819
▁ec	-13.0819
▁seren	-13.0821
scent	-13.0822
aries	-13.0822
▁16,000	-13.0822
▁crow	-13.0823
▁Diplomat	-13.0823
PO	-13.0823
▁backbone	-13.0825
▁oversight	-13.0825
▁archer	-13.0826
▁lord	-13.0826
▁Hama	-13.0827
▁105	-13.0829
▁aversion	-13.0829
fusion	-13.083
▁Lance	-13.0833
enesis	-13.0834
incidence	-13.0837
▁Action	-13.084
ometer	-13.0842
▁breakup	-13.0843
▁cello	-13.0849
▁comeback	-13.0851
▁Jamaican	-13.0852
▁faction	-13.0854
▁Beaut	-13.0854
▁freed	-13.0854
larges	-13.0855
▁captive	-13.0858
ibu	-13.086
extraterrestrial	-13.086
▁Press	-13.0861
▁Bye	-13.0862
▁kar	-13.0868
▁var	-13.087
▁Gaga	-13.0872
spective	-13.0872
ito	-13.0875
▁Billy	-13.0876
antha	-13.0876
SF	-13.0879
▁Martine	-13.0883
ante	-13.0884
uda	-13.0889
▁Kam	-13.0896
60	-13.0899
▁Authorit	-13.0899
▁Jet	-13.0908
troph	-13.0915
▁comp	-13.0918
creat	-13.0923
.8	-13.0926
▁colonialis	-13.0928
▁0.	-13.0931
vana	-13.0934
▁rusty	-13.0939
▁excavate	-13.0942
you	-13.0943
.6	-13.0943
▁puls	-13.0944
niz	-13.0952
imp	-13.0958
▁dignif	-13.0961
▁timescale	-13.0968
pple	-13.0968
▁bean	-13.0969
▁settler	-13.097
▁protector	-13.0972
fusing	-13.0974
gence	-13.0978
▁Journalist	-13.0983
▁Klei	-13.0983
uous	-13.0984
▁spu	-13.0988
rance	-13.0991
▁breeder	-13.0991
▁Aunt	-13.0992
▁Gas	-13.0992
▁Desc	-13.0999
▁Palm	-13.1
▁revolutioniz	-13.1005
▁Low	-13.1005
▁pup	-13.1007
som	-13.1015
▁domesticate	-13.1017
▁auntie	-13.1019
leigh	-13.1023
▁Rah	-13.1027
activat	-13.1027
300	-13.1029
▁brak	-13.103
fetch	-13.1031
paper	-13.1033
Prince	-13.1033
Global	-13.1034
practical	-13.1034
guide	-13.1034
business	-13.1034
bank	-13.1035
[...]
