<unk>	0
<s>	0
</s>	0
<pad>	0
▁	-3.07525
s	-3.14361
▁,	-3.16138
▁the	-3.23932
▁.	-3.36021
;	-3.67713
▁&	-3.71102
▁of	-3.85724
▁and	-4.02669
▁to	-4.05272
▁a	-4.07333
ed	-4.07399
▁in	-4.2973
quot	-4.36637
apos	-4.48232
ing	-4.63521
▁that	-4.6913
y	-4.70399
▁is	-4.77639
▁I	-5.03016
ly	-5.07006
▁it	-5.16124
▁was	-5.22158
▁The	-5.28813
▁for	-5.3589
▁with	-5.36527
▁on	-5.3727
▁you	-5.40899
▁we	-5.46847
▁are	-5.56026
d	-5.56847
▁as	-5.59912
▁this	-5.60444
(	-5.61267
▁)	-5.62358
▁be	-5.63057
▁by	-5.70311
t	-5.75181
▁And	-5.77778
▁have	-5.82182
-	-5.85874
▁from	-5.86758
e	-5.967
▁at	-5.97657
▁an	-6.02753
▁or	-6.04131
▁can	-6.05744
▁not	-6.07041
n	-6.16153
▁which	-6.22859
▁—	-6.24058
▁were	-6.24104
▁one	-6.28251
▁In	-6.28679
▁about	-6.29739
▁but	-6.33283
▁all	-6.33996
▁what	-6.36443
▁his	-6.38608
▁us	-6.4078
re	-6.41125
▁It	-6.41125
▁So	-6.41845
▁he	-6.43061
▁had	-6.43483
ies	-6.4471
▁has	-6.48404
▁their	-6.4867
▁there	-6.52741
▁people	-6.55876
▁like	-6.55957
▁do	-6.58093
r	-6.59036
▁so	-6.597
▁more	-6.60423
▁other	-6.61337
▁my	-6.6157
▁A	-6.6387
lso	-6.6388
es	-6.6678
▁who	-6.69356
▁some	-6.69725
▁these	-6.70783
▁when	-6.72259
m	-6.74268
been	-6.75744
▁would	-6.76315
▁out	-6.79674
▁our	-6.81818
▁time	-6.8216
▁if	-6.8228
▁up	-6.83118
▁first	-6.83233
▁into	-6.841
▁them	-6.84237
▁Thi	-6.84648
▁just	-6.85242
▁see	-6.86875
very	-6.88375
▁We	-6.89029
▁1	-6.89799
▁because	-6.92182
▁19	-6.92746
▁But	-6.93013
▁me	-6.96063
▁two	-6.97766
▁most	-6.98567
▁how	-6.992
▁than	-7.00553
▁know	-7.04087
a	-7.05685
ve	-7.06202
▁years	-7.0658
▁where	-7.08173
▁world	-7.09502
▁going	-7.1207
▁could	-7.13364
▁over	-7.15196
▁then	-7.1586
▁your	-7.16421
l	-7.16617
▁get	-7.17149
▁will	-7.17264
▁think	-7.17544
er	-7.18575
▁call	-7.19042
▁look	-7.19877
▁He	-7.19943
▁no	-7.19972
0	-7.20014
▁use	-7.20425
▁want	-7.21769
▁many	-7.22139
▁B	-7.22344
▁work	-7.22802
al	-7.22826
▁did	-7.2637
▁now	-7.27076
▁really	-7.27576
▁such	-7.27895
▁its	-7.28142
in	-7.28259
▁way	-7.29047
▁new	-7.29391
▁every	-7.3096
▁may	-7.30962
▁go	-7.32344
ou	-7.32367
▁through	-7.32936
hose	-7.34215
▁make	-7.35103
▁t	-7.36352
▁any	-7.3806
▁part	-7.3868
▁after	-7.39973
▁here	-7.40345
▁Laughte	-7.40411
▁start	-7.41059
9	-7.41424
actually	-7.43223
▁much	-7.43344
▁need	-7.43896
▁her	-7.45038
ity	-7.45137
on	-7.47942
▁said	-7.48999
▁don	-7.49293
▁between	-7.49432
▁take	-7.49906
▁number	-7.50699
▁being	-7.51825
5	-7.52382
▁things	-7.53117
▁right	-7.53557
o	-7.53605
▁even	-7.54244
▁Now	-7.54469
th	-7.55381
▁him	-7.55576
▁back	-7.55761
▁made	-7.5592
▁different	-7.56272
▁life	-7.56507
▁same	-7.57846
▁say	-7.5813
▁three	-7.59405
▁well	-7.60056
▁change	-7.60391
▁around	-7.60926
▁she	-7.61085
ever	-7.61119
▁form	-7.6135
▁There	-7.6208
▁200	-7.62617
▁C	-7.64023
ion	-7.64401
▁201	-7.64894
▁come	-7.65634
▁something	-7.66989
▁2	-7.69269
▁little	-7.70737
▁system	-7.71066
2	-7.7122
ce	-7.71413
ic	-7.7148
▁year	-7.71625
▁found	-7.71642
▁e	-7.71879
day	-7.73292
us	-7.73304
▁place	-7.73509
▁kind	-7.7391
▁great	-7.75063
self	-7.75217
▁example	-7.75461
▁show	-7.7785
▁does	-7.7847
▁got	-7.79534
▁own	-7.79687
▁thing	-7.80914
▁mean	-7.80918
out	-7.81268
▁That	-7.81356
each	-7.81548
▁lot	-7.82078
▁human	-7.82574
▁end	-7.82627
▁play	-7.82656
▁How	-7.83875
▁down	-7.84422
▁includ	-7.84442
▁before	-7.84734
▁under	-7.84947
▁good	-7.84985
nother	-7.85271
▁problem	-7.85418
1	-7.86356
.	-7.8647
▁talk	-7.86975
▁name	-7.87515
▁dur	-7.8774
▁group	-7.90059
▁What	-7.90133
▁idea	-7.90155
▁known	-7.90941
▁large	-7.91287
8	-7.91834
ll	-7.92205
▁day	-7.92477
▁both	-7.9283
▁point	-7.93016
▁later	-7.94298
came	-7.94736
▁If	-7.95919
le	-7.96016
able	-7.96113
nit	-7.96145
▁while	-7.96759
▁important	-7.97474
▁often	-7.97642
▁For	-7.97809
ause	-7.98211
▁Appl	-7.98408
▁city	-7.98726
▁design	-7.99382
▁18	-7.99616
one	-7.99686
▁last	-8.00577
▁million	-8.006
▁state	-8.00771
▁still	-8.0098
▁government	-8.01704
▁second	-8.01897
▁tell	-8.02804
▁long	-8.03013
▁American	-8.03708
ther	-8.0419
▁language	-8.05896
▁few	-8.06734
▁D	-8.07599
▁become	-8.07779
▁water	-8.07869
▁put	-8.08046
▁turn	-8.08105
▁century	-8.0858
▁high	-8.0892
▁New	-8.09072
▁country	-8.09609
▁game	-8.10093
▁When	-8.1027
▁ask	-8.10467
▁early	-8.10725
▁school	-8.11734
▁percent	-8.11847
▁w	-8.11854
▁should	-8.1223
▁try	-8.12307
▁small	-8.12339
▁On	-8.12489
▁case	-8.12731
▁help	-8.12805
▁set	-8.13514
▁fact	-8.14535
▁term	-8.15109
▁199	-8.16168
▁power	-8.16562
▁These	-8.16572
▁Well	-8.16682
▁common	-8.17023
▁four	-8.17462
ation	-8.17528
▁allow	-8.17649
▁never	-8.17766
▁find	-8.18033
▁include	-8.18834
▁thought	-8.1906
▁order	-8.19576
ok	-8.19958
▁10	-8.20995
▁E	-8.21313
▁T	-8.21704
▁off	-8.21753
▁film	-8.22767
▁S	-8.22839
▁together	-8.23014
▁might	-8.23319
against	-8.23438
▁home	-8.23815
▁since	-8.24208
ism	-8.24498
▁unti	-8.24927
▁20	-8.25348
▁doing	-8.25568
▁States	-8.25811
▁per	-8.25829
▁cell	-8.26107
went	-8.26412
▁next	-8.26599
▁data	-8.26855
en	-8.284
▁support	-8.2922
▁came	-8.29373
▁As	-8.2938
▁move	-8.29478
▁line	-8.29661
▁again	-8.29671
▁general	-8.29952
ry	-8.30361
▁computer	-8.30369
▁better	-8.30951
▁process	-8.31086
though	-8.31596
est	-8.32144
▁force	-8.3233
▁live	-8.32386
w	-8.32677
▁able	-8.32705
▁population	-8.33628
▁happen	-8.33646
i	-8.33727
▁light	-8.33814
▁give	-8.33897
▁create	-8.34098
S	-8.34104
▁several	-8.34427
▁result	-8.34451
▁women	-8.3464
▁de	-8.34754
▁why	-8.35198
▁story	-8.35649
▁team	-8.35797
▁open	-8.35817
st	-8.36141
▁particular	-8.36589
an	-8.36658
▁un	-8.3713
▁building	-8.37291
gan	-8.37469
▁consider	-8.37505
▁believe	-8.37809
▁One	-8.37878
▁person	-8.38268
▁course	-8.38998
▁left	-8.39216
▁real	-8.39408
▁brain	-8.40206
▁public	-8.40672
▁space	-8.40692
▁old	-8.40731
▁main	-8.41379
▁less	-8.41381
▁M	-8.41582
▁family	-8.42308
▁remain	-8.42482
▁children	-8.42601
▁countr	-8.43014
▁possibl	-8.43071
▁Some	-8.43109
▁let	-8.43393
91	-8.43678
land	-8.43993
u	-8.44023
▁To	-8.44204
▁single	-8.44942
▁area	-8.44961
▁five	-8.45611
▁near	-8.46263
▁German	-8.46457
▁war	-8.46768
▁technology	-8.46896
body	-8.47175
▁level	-8.47521
▁liv	-8.47561
▁question	-8.47639
▁major	-8.47721
▁too	-8.47769
▁close	-8.47808
▁death	-8.4798
▁5	-8.48346
▁learn	-8.48778
▁big	-8.48798
▁record	-8.48912
▁War	-8.49063
▁information	-8.49114
▁ago	-8.49392
▁car	-8.49598
▁Thank	-8.49901
▁complete	-8.50856
▁reason	-8.51378
▁control	-8.51584
▁love	-8.51596
▁British	-8.51756
▁always	-8.51771
▁service	-8.52082
▁along	-8.52432
▁body	-8.52529
▁social	-8.52551
▁project	-8.53419
▁hav	-8.53677
▁She	-8.54121
▁World	-8.54614
▁histor	-8.54774
▁experience	-8.54852
▁book	-8.54865
▁increase	-8.55308
▁mak	-8.55352
▁bit	-8.55615
▁ever	-8.55642
▁done	-8.56676
▁music	-8.57065
▁best	-8.57252
▁period	-8.5733
▁After	-8.5742
ecause	-8.57711
▁energy	-8.5795
▁among	-8.5856
▁creat	-8.58579
▁modern	-8.58696
▁age	-8.5881
▁198	-8.58841
▁species	-8.58875
▁sort	-8.59125
▁English	-8.59141
▁region	-8.59319
▁15	-8.5936
▁At	-8.5973
ment	-8.59768
ves	-8.59824
▁whole	-8.60147
be	-8.60175
▁animal	-8.60224
▁local	-8.60297
▁men	-8.60346
ness	-8.60458
▁man	-8.60494
▁working	-8.60762
▁food	-8.60878
▁original	-8.61032
▁Al	-8.61057
▁side	-8.61106
▁final	-8.61151
▁field	-8.61158
▁half	-8.61458
▁understand	-8.61505
▁art	-8.6183
▁effect	-8.61903
▁similar	-8.61947
▁bas	-8.6217
▁follow	-8.62261
▁study	-8.62713
ally	-8.62766
▁hand	-8.62814
▁appear	-8.63266
▁usual	-8.63532
h	-8.64047
▁hard	-8.64378
um	-8.64535
thing	-8.64615
▁feel	-8.64753
▁run	-8.64873
▁present	-8.65311
▁issue	-8.65475
▁given	-8.65642
across	-8.65658
▁kid	-8.65727
ither	-8.65875
▁program	-8.66156
▁student	-8.66485
▁political	-8.66492
▁function	-8.66495
▁P	-8.66546
▁individual	-8.66821
stead	-8.66974
▁times	-8.67162
▁America	-8.67177
▁sometimes	-8.67673
▁All	-8.68105
away	-8.68141
▁far	-8.68419
▁future	-8.68429
▁almost	-8.68555
▁structure	-8.68624
▁cause	-8.68937
▁b	-8.68967
▁market	-8.69043
▁built	-8.69046
▁No	-8.69538
▁direct	-8.69865
▁image	-8.69906
▁science	-8.69963
▁must	-8.70061
▁though	-8.70068
▁following	-8.70096
▁formula	-8.70232
▁matter	-8.70468
▁business	-8.70584
▁share	-8.70653
▁sense	-8.70683
▁exist	-8.71213
nough	-8.71233
▁certain	-8.71418
▁ra	-8.71538
▁money	-8.71708
ous	-8.71722
▁O	-8.71858
▁publish	-8.72006
▁head	-8.7214
▁developed	-8.7241
▁due	-8.72573
▁series	-8.72606
▁word	-8.73042
▁grow	-8.73044
▁development	-8.73116
▁test	-8.73237
▁plant	-8.73968
▁Africa	-8.74183
▁young	-8.74535
▁Earth	-8.7469
▁week	-8.75071
▁interest	-8.75432
▁led	-8.75576
▁saw	-8.76235
▁F	-8.76573
▁return	-8.76737
▁popular	-8.77
▁provide	-8.77162
▁economic	-8.77212
▁billion	-8.77367
▁air	-8.77545
▁contain	-8.77663
c	-8.77964
▁black	-8.78024
▁bring	-8.78039
00	-8.78203
ld	-8.78249
▁company	-8.7825
▁French	-8.78389
▁six	-8.78401
▁probabl	-8.78427
▁land	-8.78558
less	-8.78726
▁days	-8.78751
▁character	-8.79138
▁total	-8.79255
▁machine	-8.79272
▁simple	-8.79688
▁produce	-8.79749
▁societ	-8.79764
▁face	-8.79916
▁disease	-8.80169
▁research	-8.807
▁community	-8.8101
▁culture	-8.81029
▁By	-8.81298
▁God	-8.81699
▁entire	-8.8201
▁third	-8.82161
▁source	-8.82177
▁won	-8.82474
▁role	-8.82517
▁object	-8.82546
▁rate	-8.82664
▁late	-8.82825
▁seem	-8.82998
▁R	-8.83059
▁model	-8.83224
ton	-8.83269
▁current	-8.83362
▁systems	-8.83432
▁attack	-8.83439
▁wide	-8.83639
▁law	-8.8364
ork	-8.83656
▁act	-8.83706
▁element	-8.83897
▁Europe	-8.83941
▁reach	-8.84037
▁moment	-8.84153
▁position	-8.84609
▁South	-8.84927
▁once	-8.85197
rote	-8.85226
▁health	-8.85563
▁al	-8.86105
▁12	-8.86175
▁months	-8.86177
▁piece	-8.86255
▁military	-8.86694
▁add	-8.86977
▁short	-8.87019
▁cost	-8.87103
▁national	-8.8755
▁lead	-8.87586
▁keep	-8.87649
▁figure	-8.87692
▁color	-8.877
▁natural	-8.8773
▁establish	-8.87809
▁free	-8.87821
▁house	-8.87891
▁least	-8.87942
▁My	-8.88031
▁various	-8.88041
▁whe	-8.88269
▁size	-8.88307
▁top	-8.88546
ability	-8.88844
▁player	-8.89064
▁unit	-8.8927
▁discover	-8.89416
▁job	-8.89587
▁represent	-8.8963
quite	-8.89738
▁words	-8.90075
▁cit	-8.90132
▁room	-8.90564
▁theory	-8.9066
▁planet	-8.90775
▁view	-8.91222
▁thinking	-8.91235
▁De	-8.91627
▁event	-8.9163
▁Dur	-8.91633
▁His	-8.91635
▁season	-8.9172
▁build	-8.91944
▁areas	-8.9196
specially	-8.91977
▁With	-8.92175
▁version	-8.92294
▁claim	-8.92315
ohn	-8.92396
or	-8.92711
▁thousand	-8.92875
▁National	-8.92999
▁difference	-8.93022
▁difficult	-8.93266
▁strong	-8.93267
▁already	-8.93542
▁low	-8.93558
▁significant	-8.93767
▁An	-8.93768
▁guy	-8.93775
▁produc	-8.93976
▁condition	-8.94274
▁8	-8.9444
niversity	-8.94554
▁North	-8.9494
▁movement	-8.95247
▁network	-8.95421
▁European	-8.95423
▁education	-8.95508
▁answer	-8.95635
▁production	-8.95699
ritten	-8.95904
▁11	-8.96136
▁feature	-8.96272
man	-8.96586
▁suggest	-8.96641
▁standard	-8.96789
▁complex	-8.97114
▁amount	-8.9715
msel	-8.97338
▁China	-8.97382
▁G	-8.97394
▁father	-8.97462
▁range	-8.97553
▁read	-8.97662
ary	-8.97978
age	-8.98126
▁nature	-8.98134
▁full	-8.98177
▁else	-8.98404
▁sound	-8.98551
▁held	-8.99229
▁50	-8.99448
▁care	-8.99483
▁kill	-8.99547
▁members	-8.99708
▁inside	-8.99756
▁official	-8.99904
ers	-8.99953
▁yet	-9.00062
▁video	-9.00077
▁lives	-9.00294
▁c	-9.00303
▁action	-9.00356
▁getting	-9.00559
▁coming	-9.00769
▁works	-9.01115
▁specific	-9.01336
▁surface	-9.01341
▁pass	-9.01454
▁method	-9.01487
▁further	-9.01788
▁availab	-9.01997
▁type	-9.01999
▁value	-9.02147
▁global	-9.02323
gave	-9.02328
▁mother	-9.02915
▁influence	-9.02937
▁base	-9.02945
ian	-9.03037
▁son	-9.03162
p	-9.03255
▁minute	-9.03379
▁India	-9.03473
▁100	-9.03533
▁traditional	-9.03586
▁island	-9.03774
▁Let	-9.04005
▁outside	-9.04324
▁true	-9.04333
▁past	-9.04442
▁relationship	-9.04593
▁physical	-9.04851
▁interesting	-9.04917
▁average	-9.04986
▁toward	-9.0522
▁Church	-9.05226
▁II	-9.05236
▁mind	-9.05252
▁continu	-9.05569
▁child	-9.05599
▁Wh	-9.05785
▁tree	-9.05916
▁leave	-9.06215
▁lost	-9.06305
▁Roman	-9.06368
▁attempt	-9.0689
▁exact	-9.06978
▁earlie	-9.07008
▁device	-9.07038
▁capital	-9.07206
▁hundred	-9.07509
▁former	-9.0783
▁9	-9.07869
taking	-9.08073
ber	-9.08077
▁focus	-9.08196
▁Christian	-9.08277
▁quick	-9.08461
▁Many	-9.08701
▁decided	-9.08829
▁Here	-9.08873
▁site	-9.09229
▁perform	-9.09444
▁sign	-9.09498
▁typical	-9.09537
▁center	-9.09768
ance	-9.0979
▁studie	-9.10086
▁practice	-9.101
▁Most	-9.1025
▁material	-9.10253
taken	-9.10295
▁born	-9.10306
▁environment	-9.1057
▁rule	-9.10695
▁makes	-9.10861
▁organization	-9.10863
▁patient	-9.10883
▁beginning	-9.10883
▁picture	-9.11243
▁continue	-9.11306
▁personal	-9.11456
▁evidence	-9.11527
▁list	-9.11613
▁dollars	-9.11677
z	-9.11727
▁compani	-9.1187
▁song	-9.11887
▁higher	-9.12079
▁accept	-9.12083
▁risk	-9.12089
▁Other	-9.12101
▁above	-9.12372
▁stop	-9.1241
▁Greek	-9.12428
k	-9.12467
ive	-9.12941
▁white	-9.12943
▁speak	-9.13005
▁African	-9.13018
▁West	-9.13087
▁According	-9.13218
▁normal	-9.13437
▁am	-9.13829
▁title	-9.14058
▁nothing	-9.14089
▁subject	-9.14266
▁stories	-9.14327
▁prett	-9.14437
▁offer	-9.14779
▁simpl	-9.14817
▁heart	-9.14912
▁N	-9.14977
▁night	-9.15103
▁blue	-9.15391
▁growth	-9.15642
▁access	-9.15802
▁saying	-9.1591
▁stuff	-9.15938
▁decision	-9.16002
by	-9.16114
ything	-9.16293
▁poor	-9.16386
▁drive	-9.16611
▁media	-9.1662
▁hope	-9.16839
▁front	-9.17014
▁May	-9.1712
▁relative	-9.1727
▁church	-9.17341
▁universe	-9.17463
▁remember	-9.17504
D	-9.17575
▁watch	-9.17737
▁longer	-9.17774
▁industry	-9.18054
▁account	-9.18067
▁engineer	-9.18133
where	-9.18293
▁successful	-9.18385
▁letter	-9.18395
▁temperature	-9.18431
▁City	-9.18627
▁stage	-9.18687
▁fire	-9.18729
▁addition	-9.18739
▁sea	-9.18841
▁explain	-9.18925
way	-9.19122
▁key	-9.19238
▁experiment	-9.19248
is	-9.19591
▁couple	-9.19605
▁effective	-9.19705
▁cancer	-9.19848
▁ways	-9.19881
▁challenge	-9.19971
▁hold	-9.2
▁writing	-9.20198
▁protect	-9.20239
▁states	-9.20284
▁describ	-9.20565
▁ground	-9.20625
▁join	-9.20843
rought	-9.20847
▁receiv	-9.20971
▁lower	-9.21028
▁girl	-9.2103
▁larges	-9.21055
▁band	-9.21141
▁195	-9.21192
▁economy	-9.21229
▁pay	-9.21352
▁Chinese	-9.21501
▁seven	-9.21761
▁require	-9.21813
▁rest	-9.21828
▁cover	-9.21917
▁bad	-9.21944
▁fall	-9.22101
▁special	-9.22343
▁25	-9.22345
▁August	-9.22372
une	-9.22519
▁hours	-9.22523
▁woman	-9.22583
▁paper	-9.22592
▁potential	-9.22597
▁pattern	-9.22686
▁non	-9.23049
▁sure	-9.23068
as	-9.2316
▁blood	-9.23275
▁H	-9.23386
to	-9.23419
▁travel	-9.23721
spite	-9.24083
▁international	-9.24355
haps	-9.24424
▁artist	-9.24469
▁code	-9.24582
▁eventual	-9.24622
▁England	-9.24966
▁self	-9.25088
▁carbon	-9.25114
▁East	-9.25135
▁concept	-9.25462
▁L	-9.25638
▁approach	-9.25716
nion	-9.25716
▁September	-9.25905
▁describe	-9.25985
▁north	-9.26064
▁class	-9.26091
▁Whil	-9.26251
▁behind	-9.26638
▁oil	-9.26666
▁mass	-9.26801
▁wrong	-9.26888
▁degree	-9.26903
▁friends	-9.26912
▁safe	-9.2694
▁releas	-9.26967
▁office	-9.27166
▁walk	-9.27208
▁election	-9.27412
▁imagine	-9.27438
▁deal	-9.2746
▁heard	-9.27557
year	-9.27743
▁middle	-9.27754
▁behavior	-9.27855
▁fish	-9.27907
▁consist	-9.27968
▁release	-9.28002
g	-9.28031
▁scientist	-9.28045
▁nation	-9.28054
▁extreme	-9.28482
▁slow	-9.28566
▁red	-9.28698
▁BC	-9.28714
▁plan	-9.2913
▁style	-9.29174
▁beautiful	-9.29326
▁scale	-9.29716
▁eight	-9.2979
▁Internet	-9.29863
▁friend	-9.29882
▁write	-9.29883
▁success	-9.29885
▁separate	-9.30088
▁metal	-9.30099
,000	-9.30154
▁DNA	-9.30357
▁books	-9.30433
▁measure	-9.3054
▁spend	-9.30588
▁hit	-9.30756
anua	-9.30853
▁choice	-9.31109
▁London	-9.31146
▁clear	-9.31521
▁regard	-9.31635
▁happens	-9.3168
▁treatment	-9.31766
▁meaning	-9.32105
▁equal	-9.32178
▁trade	-9.32191
▁involv	-9.32251
▁amazing	-9.32252
refore	-9.32282
▁south	-9.32341
▁enter	-9.32358
▁introduc	-9.32389
▁text	-9.32519
▁St	-9.32564
▁larger	-9.32579
▁2010	-9.32832
ist	-9.33237
▁kne	-9.33248
▁wall	-9.33393
▁report	-9.33666
▁treat	-9.33728
▁Octo	-9.33961
▁count	-9.33979
▁Or	-9.3399
cy	-9.34023
▁co	-9.34082
▁affect	-9.34184
▁serve	-9.34514
▁December	-9.34541
▁occur	-9.34685
▁chemical	-9.34813
▁increasing	-9.34887
▁climate	-9.34983
▁factor	-9.35041
▁operation	-9.35195
▁begin	-9.3524
▁central	-9.35275
▁product	-9.35347
▁Since	-9.35398
ia	-9.35476
▁powerful	-9.35503
x	-9.35614
▁acid	-9.35817
time	-9.36013
▁March	-9.36426
▁ancient	-9.3646
▁response	-9.36579
▁France	-9.36915
▁Great	-9.3702
▁launch	-9.37056
▁stay	-9.37137
▁referr	-9.37168
▁soon	-9.37188
▁arm	-9.37851
died	-9.37923
▁Every	-9.3805
▁bigge	-9.38178
▁ship	-9.38193
▁speed	-9.38255
▁November	-9.38377
▁Western	-9.38488
▁Canad	-9.38572
▁visit	-9.38581
▁station	-9.38625
▁depend	-9.38693
▁met	-9.38766
▁whose	-9.38818
▁phone	-9.38997
▁learning	-9.39105
▁train	-9.39113
▁Do	-9.39262
▁concern	-9.3939
▁sent	-9.39676
▁Soviet	-9.3974
▁21	-9.39882
▁impact	-9.39921
▁191	-9.39928
▁effort	-9.39963
▁Arm	-9.40063
▁ocean	-9.40149
▁star	-9.40199
▁fly	-9.40355
moving	-9.40445
▁party	-9.40497
▁From	-9.4058
▁resource	-9.40615
▁huge	-9.40712
▁raise	-9.40714
▁easi	-9.40915
▁Apri	-9.4095
▁private	-9.40962
▁forest	-9.41018
▁president	-9.4104
▁deep	-9.41189
▁software	-9.41252
▁religious	-9.41316
▁provid	-9.4132
▁initial	-9.41364
▁hear	-9.41429
▁reaction	-9.41504
▁army	-9.41599
▁generation	-9.41711
▁basically	-9.41923
amp	-9.41924
▁album	-9.42031
▁...	-9.42037
▁necessar	-9.42157
ical	-9.42222
up	-9.42253
giving	-9.42324
▁signal	-9.42389
f	-9.42466
ish	-9.42499
▁pressure	-9.42705
▁technique	-9.42955
▁flow	-9.42971
▁2008	-9.4301
▁caus	-9.43046
b	-9.43052
▁variet	-9.4328
▁movie	-9.43296
▁situation	-9.43302
▁gas	-9.43389
ley	-9.43616
▁Indian	-9.4366
▁spread	-9.43901
▁Part	-9.43929
▁cut	-9.44007
▁0	-9.44015
aught	-9.44139
upon	-9.44262
▁tradition	-9.44286
▁according	-9.4446
▁spen	-9.44722
▁town	-9.44771
▁television	-9.44788
▁associat	-9.44858
▁prevent	-9.44955
▁voice	-9.4509
▁member	-9.4518
▁gain	-9.45218
▁institution	-9.45356
▁questions	-9.45384
▁map	-9.45408
▁locat	-9.45524
▁President	-9.45565
son	-9.45652
▁performance	-9.46066
▁parents	-9.46131
▁lack	-9.46217
▁track	-9.46309
▁date	-9.46575
felt	-9.46828
old	-9.46956
▁independent	-9.47097
▁types	-9.47173
▁First	-9.474
▁digital	-9.47443
▁pick	-9.47634
▁purpose	-9.48003
▁maintain	-9.48113
▁results	-9.48249
▁female	-9.48421
▁charge	-9.48426
▁essential	-9.48455
▁knowledge	-9.48509
▁refer	-9.48544
▁smaller	-9.48582
▁shape	-9.48583
▁River	-9.48598
▁thus	-9.48636
▁teacher	-9.48686
▁send	-9.48704
▁below	-9.48758
▁target	-9.48911
▁medical	-9.49053
▁campaign	-9.49091
▁application	-9.49315
▁aircraft	-9.4973
alone	-9.49754
▁Central	-9.49811
▁link	-9.49841
▁famous	-9.49924
▁detail	-9.49993
▁commercial	-9.5011
▁reported	-9.50167
▁block	-9.50175
▁save	-9.5037
▁related	-9.50406
▁Oh	-9.50524
▁regular	-9.50537
▁basic	-9.50804
▁mention	-9.50958
▁People	-9.51039
▁scientific	-9.51057
▁electric	-9.51161
▁principle	-9.51405
▁recent	-9.51419
eah	-9.51762
▁loss	-9.5184
side	-9.51947
▁adopt	-9.52037
▁products	-9.52048
▁double	-9.521
▁message	-9.52568
▁brother	-9.52961
▁absolute	-9.53123
▁male	-9.5321
▁post	-9.53357
▁engine	-9.53387
ium	-9.53496
▁1990	-9.53525
▁dark	-9.53593
▁Latin	-9.53627
▁buy	-9.53794
▁David	-9.53831
▁serious	-9.53869
▁International	-9.54058
▁oursel	-9.54065
▁fail	-9.54116
▁leading	-9.54152
ch	-9.54158
▁litera	-9.54273
▁molecule	-9.54501
▁1980	-9.54509
▁happening	-9.54562
▁tried	-9.54695
▁solution	-9.5473
▁recently	-9.54849
▁wife	-9.54873
▁2000	-9.54916
▁f	-9.54946
▁finish	-9.55037
▁college	-9.55055
▁conflict	-9.55156
▁immediate	-9.55244
▁rules	-9.55244
▁court	-9.5525
▁W	-9.55308
▁host	-9.55316
▁meet	-9.55317
▁doctor	-9.55393
▁career	-9.55422
▁leader	-9.55492
▁active	-9.55558
▁develop	-9.55597
▁attention	-9.55655
ond	-9.55718
▁battle	-9.55806
▁fund	-9.55829
▁involve	-9.55947
▁club	-9.5601
▁Even	-9.56188
▁coast	-9.562
▁compar	-9.56336
▁religion	-9.56396
▁understanding	-9.56495
▁green	-9.56755
▁policy	-9.56797
▁di	-9.56829
▁feeling	-9.56847
▁eyes	-9.56962
more	-9.57038
▁fear	-9.57146
▁direction	-9.57308
te	-9.57395
▁border	-9.57413
▁Charles	-9.57618
▁runn	-9.5767
▁defeat	-9.57806
▁Music	-9.57819
▁audience	-9.57855
▁authorit	-9.57874
▁constant	-9.57889
▁daughter	-9.57953
uar	-9.57955
▁distance	-9.58166
▁San	-9.58217
▁particle	-9.58247
▁break	-9.58473
▁die	-9.58513
▁definition	-9.58654
▁instrument	-9.58668
▁shows	-9.58706
▁memory	-9.5884
▁location	-9.59016
▁protein	-9.59111
▁Brita	-9.59193
▁table	-9.59264
▁realit	-9.59273
▁humans	-9.59392
▁step	-9.59462
▁communit	-9.5955
▁rise	-9.59731
▁realize	-9.59834
▁expand	-9.60133
▁listen	-9.60155
▁tend	-9.60235
▁wait	-9.60384
▁easy	-9.60486
▁win	-9.60562
▁requir	-9.60802
▁operat	-9.60917
▁construction	-9.60976
ial	-9.60977
▁hands	-9.61007
▁price	-9.61117
▁Febr	-9.61242
▁express	-9.61251
▁Australia	-9.61338
▁document	-9.61435
▁activity	-9.6148
▁carry	-9.61576
▁announc	-9.61604
ach	-9.61631
▁Catholic	-9.6175
▁benefit	-9.61854
▁month	-9.61867
▁length	-9.61878
ship	-9.61956
▁Then	-9.62109
▁historical	-9.6221
▁professional	-9.62517
▁village	-9.62584
▁perfect	-9.62643
▁highly	-9.62721
▁search	-9.62826
▁fuel	-9.62837
▁address	-9.62885
▁California	-9.63035
▁192	-9.63131
▁stand	-9.63149
▁stars	-9.63255
▁king	-9.63305
▁user	-9.63481
▁rare	-9.63509
▁context	-9.63583
▁State	-9.63661
▁boy	-9.63772
▁foreign	-9.63788
▁Republic	-9.63889
▁bear	-9.63986
▁reduce	-9.64106
▁demand	-9.64141
▁display	-9.64173
▁cultural	-9.64226
tic	-9.64428
▁highest	-9.64529
▁board	-9.64533
▁connect	-9.64684
▁radio	-9.64789
▁connection	-9.64797
▁rock	-9.64986
▁river	-9.65003
▁meeting	-9.65136
▁legal	-9.65213
▁primary	-9.65276
▁instance	-9.65381
▁territor	-9.65426
▁Not	-9.65442
▁limited	-9.65546
▁road	-9.65615
▁General	-9.65625
▁famili	-9.65629
▁dead	-9.65707
▁mission	-9.65789
▁positive	-9.65812
▁origin	-9.65947
▁component	-9.66122
▁forward	-9.66163
▁Park	-9.66287
▁fundamental	-9.66354
▁notice	-9.66463
▁Right	-9.66553
▁adult	-9.66588
▁Empire	-9.66602
▁card	-9.66665
▁replac	-9.66908
older	-9.66959
▁nuclear	-9.66995
▁content	-9.67029
el	-9.67116
ard	-9.67145
▁tour	-9.67317
▁Black	-9.67516
▁financial	-9.67532
▁atom	-9.67754
▁opportunity	-9.67785
▁camera	-9.67801
▁sold	-9.67826
▁Air	-9.67859
▁sequence	-9.67884
▁writer	-9.67932
▁rich	-9.68055
▁Council	-9.68056
▁award	-9.68149
the	-9.68172
▁flight	-9.68202
▁Thom	-9.68361
▁approximate	-9.6837
▁Oka	-9.68383
▁securit	-9.68425
▁League	-9.68438
wise	-9.68447
▁basi	-9.6845
▁materials	-9.68475
▁destroy	-9.68638
▁rights	-9.68673
▁multiple	-9.68682
▁Spanish	-9.68709
▁seat	-9.68917
▁canno	-9.69011
▁i	-9.69073
▁Act	-9.69138
▁rapid	-9.69258
▁Sea	-9.69457
▁limit	-9.69629
ust	-9.69659
▁race	-9.69671
▁wave	-9.69682
▁developing	-9.69822
▁division	-9.69863
▁fast	-9.69876
▁connected	-9.69958
▁critical	-9.70166
▁summer	-9.70167
▁literal	-9.70191
▁push	-9.70195
▁collect	-9.70205
▁80	-9.70218
▁vote	-9.70237
▁cross	-9.70347
et	-9.70568
▁happy	-9.70583
▁vehicle	-9.70583
▁chance	-9.70696
▁sell	-9.70723
▁leaders	-9.70777
▁era	-9.70847
▁elect	-9.70848
▁heat	-9.70915
▁robot	-9.70975
▁nine	-9.70989
▁drug	-9.71082
▁unique	-9.71085
▁employ	-9.71265
▁avoid	-9.71399
▁TED	-9.71468
our	-9.71667
▁hospital	-9.71671
▁obvious	-9.71702
▁190	-9.71754
▁surviv	-9.71963
▁expect	-9.72109
▁communication	-9.72273
ty	-9.72319
▁Paul	-9.72352
▁William	-9.72381
▁gre	-9.72412
▁training	-9.72436
▁tools	-9.72468
▁quality	-9.7254
▁belief	-9.72551
▁solve	-9.72741
▁majorit	-9.72745
▁George	-9.72856
▁gives	-9.72933
▁House	-9.7313
▁algorithm	-9.73159
changing	-9.73346
▁fight	-9.73478
▁bottom	-9.73625
ar	-9.73633
▁reduc	-9.73649
▁Two	-9.73691
▁pair	-9.73692
▁Asia	-9.73789
▁Afghan	-9.7383
▁civil	-9.73842
▁sex	-9.73876
▁More	-9.73916
▁birth	-9.74148
▁shift	-9.744
▁novel	-9.74776
▁mid	-9.74803
▁scene	-9.74918
▁press	-9.74947
▁electron	-9.7509
▁weight	-9.75174
▁medicine	-9.75297
apanese	-9.75488
▁Our	-9.75505
▁worker	-9.75529
▁collection	-9.7577
▁alternative	-9.75897
A	-9.76025
▁wear	-9.76209
▁photograph	-9.76222
ur	-9.76328
▁transform	-9.76443
▁secret	-9.76542
▁occurr	-9.76659
ames	-9.76699
▁School	-9.7678
▁section	-9.76983
▁gone	-9.77052
▁Of	-9.77154
▁damage	-9.77168
▁seeing	-9.77199
▁northern	-9.77374
▁feet	-9.77519
▁ice	-9.77675
ant	-9.77703
▁sexual	-9.77728
▁page	-9.77739
▁plann	-9.77775
▁except	-9.77803
▁Dr	-9.7784
▁hole	-9.7788
▁actual	-9.77904
▁whom	-9.78575
▁southern	-9.78632
▁reference	-9.78764
▁via	-9.78767
▁Muslim	-9.78854
▁online	-9.78896
▁eye	-9.79038
▁propos	-9.79063
▁tin	-9.79085
istan	-9.79327
▁slight	-9.79456
▁wonderful	-9.79488
▁painting	-9.79571
▁morning	-9.79784
at	-9.79838
▁square	-9.79886
▁models	-9.79935
▁symbol	-9.80015
▁throw	-9.80091
▁bone	-9.80097
▁box	-9.8017
▁task	-9.80326
▁propert	-9.80368
▁defin	-9.80511
▁article	-9.80519
ingdom	-9.80551
▁reflect	-9.80553
▁improve	-9.80569
▁anti	-9.80634
▁convert	-9.80703
▁dance	-9.8085
▁analysi	-9.80944
▁marri	-9.81003
it	-9.81009
▁deliver	-9.81031
▁technologi	-9.81034
▁speech	-9.81146
ture	-9.81184
▁inspire	-9.81208
▁truth	-9.81213
▁fair	-9.81311
▁store	-9.81336
▁heavy	-9.81382
▁recognize	-9.8158
▁define	-9.81614
▁Am	-9.81699
▁conduct	-9.81735
▁east	-9.81735
▁annual	-9.81759
▁Apple	-9.81896
▁rank	-9.81914
▁compound	-9.81942
▁match	-9.82088
▁director	-9.82117
▁conversation	-9.82129
▁bond	-9.82278
▁pull	-9.82309
▁2001	-9.82356
▁receive	-9.82373
▁police	-9.82622
▁previous	-9.82628
▁drugs	-9.82636
▁violen	-9.82646
▁values	-9.82755
▁architecture	-9.82762
kept	-9.82771
ate	-9.82937
▁ultimate	-9.83074
▁leg	-9.83115
▁marriage	-9.83146
▁additional	-9.83149
▁predict	-9.83337
ten	-9.83583
▁solar	-9.83662
▁subsequent	-9.83702
▁centre	-9.83714
▁sector	-9.83843
▁remov	-9.83876
▁trust	-9.83937
▁Middle	-9.8402
▁sitt	-9.84059
▁sudden	-9.84084
▁goal	-9.84124
▁genetic	-9.84188
▁p	-9.84401
▁root	-9.84466
▁innovation	-9.84531
▁string	-9.84592
▁decades	-9.84721
▁22	-9.8478
▁finding	-9.84805
▁skin	-9.84848
▁laws	-9.84931
▁teaching	-9.84971
▁creation	-9.85067
▁eat	-9.85075
▁meant	-9.8508
sis	-9.85121
▁rain	-9.85133
▁realiz	-9.85294
im	-9.85342
▁Second	-9.85559
▁Alexander	-9.85948
ham	-9.86026
▁citizens	-9.86093
▁fine	-9.86114
▁Can	-9.86179
▁argue	-9.86284
▁respect	-9.86298
▁trial	-9.86404
I	-9.86407
ily	-9.86436
▁transport	-9.86487
▁soldier	-9.8655
▁argument	-9.86613
▁construct	-9.86672
▁centuries	-9.86729
▁grant	-9.8674
▁worth	-9.8677
▁Don	-9.86984
▁Like	-9.86992
▁income	-9.87284
▁becom	-9.87284
apan	-9.87292
▁miles	-9.8735
▁vision	-9.87395
▁suffer	-9.87401
▁90	-9.87459
▁cycle	-9.87615
▁aspect	-9.87714
credible	-9.87781
▁news	-9.878
▁command	-9.87888
▁visual	-9.87959
ewish	-9.87981
▁onto	-9.88117
▁cool	-9.88396
▁evolution	-9.88466
▁drink	-9.88645
▁cold	-9.88727
▁Art	-9.88791
▁primari	-9.88844
▁troop	-9.89111
▁street	-9.89187
▁Court	-9.89312
0,000	-9.89317
▁invent	-9.89411
▁journey	-9.89513
▁Canadian	-9.89526
▁Force	-9.89625
▁Congress	-9.89715
▁College	-9.89722
▁numer	-9.89725
▁aid	-9.89789
▁Russian	-9.89803
▁status	-9.89896
▁reveal	-9.89918
▁divid	-9.89944
▁Be	-9.90022
▁pre	-9.9009
▁volume	-9.90241
▁estimate	-9.90249
▁route	-9.90352
▁motion	-9.90366
▁dream	-9.9043
▁responsibl	-9.90459
▁Robert	-9.90527
▁ten	-9.90647
▁democracy	-9.9071
▁west	-9.90717
▁path	-9.90755
▁urban	-9.90788
▁property	-9.90859
▁equation	-9.91075
ities	-9.91357
▁names	-9.91394
▁advantage	-9.91688
▁rough	-9.91745
▁fully	-9.91775
ful	-9.91825
▁moral	-9.9188
▁screen	-9.92098
▁possibilit	-9.9217
▁enjoy	-9.92239
▁obtain	-9.92308
water	-9.92335
▁respond	-9.92581
▁freedom	-9.92659
▁contract	-9.92681
▁negative	-9.92771
▁organism	-9.9292
▁print	-9.93212
▁magazine	-9.93351
▁contrast	-9.93425
▁progress	-9.93433
▁interview	-9.93497
▁useful	-9.93514
▁contact	-9.93631
▁recover	-9.93631
▁port	-9.93634
▁bacteria	-9.93674
▁mental	-9.93708
▁choose	-9.9377
head	-9.93919
▁Le	-9.93977
▁mechanism	-9.93983
▁Their	-9.94172
▁touch	-9.94173
▁industrial	-9.94207
▁competition	-9.94334
▁Man	-9.94376
▁Street	-9.94475
▁review	-9.94487
▁appearance	-9.94516
▁fill	-9.94719
▁Richard	-9.94758
▁reform	-9.94802
▁bridge	-9.94853
▁failure	-9.94902
▁shot	-9.95031
▁Spa	-9.95089
▁sun	-9.95203
▁park	-9.95285
▁CA	-9.95457
▁disorder	-9.95469
▁operate	-9.95543
▁combination	-9.95567
▁wind	-9.95688
▁wild	-9.95826
▁layer	-9.95862
nder	-9.95933
▁reading	-9.95984
▁lab	-9.96049
▁controll	-9.9617
▁Day	-9.96222
▁perspective	-9.96329
▁characteristic	-9.96339
▁score	-9.96417
▁zero	-9.96464
▁1950	-9.96471
▁sit	-9.96687
ized	-9.96758
▁victor	-9.96762
N	-9.96787
▁combin	-9.96872
▁carri	-9.96914
▁round	-9.97044
▁file	-9.97071
wood	-9.97115
ware	-9.97143
▁channel	-9.97269
▁showing	-9.97338
▁oppos	-9.97344
C	-9.97353
▁achieve	-9.97389
▁ball	-9.97411
▁peace	-9.97425
▁bar	-9.97425
▁officer	-9.97621
▁crisis	-9.97634
▁designer	-9.97682
▁virus	-9.97715
▁Washing	-9.97925
▁pain	-9.97958
▁supply	-9.98218
line	-9.98229
▁Where	-9.98241
▁proper	-9.98417
▁distribution	-9.98541
▁sample	-9.98573
▁wish	-9.98627
ood	-9.9865
not	-9.98684
▁university	-9.98699
▁apply	-9.9872
▁faster	-9.98761
▁fit	-9.98788
▁lose	-9.98897
▁oxygen	-9.98964
▁advance	-9.99004
▁province	-9.99029
▁formal	-9.99084
▁wealth	-9.99091
▁emerg	-9.99134
▁presence	-9.99193
▁Royal	-9.99336
▁foot	-9.99378
▁Red	-9.99421
▁Over	-9.99441
▁capacity	-9.99566
▁standing	-9.99711
ad	-9.99733
▁etc	-9.99825
▁sister	-9.99873
ent	-9.9989
▁phase	-9.99946
▁hot	-9.99949
▁existence	-9.99969
▁continent	-9.99975
▁poverty	-10.0007
▁con	-10.0014
▁Chicago	-10.0014
▁intelligence	-10.0014
▁supposed	-10.0018
▁internal	-10.0022
▁author	-10.0027
▁strateg	-10.0029
▁newspaper	-10.0037
▁La	-10.0037
▁bus	-10.0041
▁credit	-10.0043
▁consequence	-10.0059
▁interaction	-10.0078
▁Paris	-10.0092
▁brand	-10.0093
▁High	-10.0094
▁hour	-10.0096
▁bank	-10.0104
▁28	-10.0116
▁wonder	-10.0117
▁massive	-10.012
▁Arab	-10.0136
▁Rome	-10.0144
▁clean	-10.015
▁exchange	-10.015
▁categor	-10.0161
id	-10.0166
▁teach	-10.0171
▁Henr	-10.0172
▁succeed	-10.0173
▁threat	-10.0185
▁identifi	-10.0189
▁politic	-10.0192
▁correct	-10.0197
▁dimension	-10.02
ier	-10.021
▁equivalent	-10.0218
ro	-10.0224
▁Sun	-10.0225
▁district	-10.0226
▁appli	-10.0229
▁indicate	-10.0248
▁Count	-10.0256
▁putting	-10.0266
▁leaving	-10.0272
▁sub	-10.0282
▁sounds	-10.0297
▁galax	-10.0303
▁native	-10.0303
▁closed	-10.0304
▁tissue	-10.031
▁decade	-10.031
▁football	-10.0318
▁189	-10.0323
ews	-10.0331
▁extra	-10.0333
▁desire	-10.0352
▁circle	-10.0356
▁nice	-10.0357
▁Thu	-10.0358
▁argu	-10.0377
▁waste	-10.039
▁Apollo	-10.0402
▁virtual	-10.0406
▁resistan	-10.0415
▁expert	-10.0419
▁paint	-10.0425
▁episode	-10.0429
▁gold	-10.0441
men	-10.0445
▁philosoph	-10.0446
▁stress	-10.0472
▁plane	-10.0496
▁expression	-10.0499
▁Also	-10.0504
▁crime	-10.0505
▁statement	-10.0511
▁investment	-10.0514
▁Award	-10.0523
▁revolution	-10.0526
▁baby	-10.0528
▁draw	-10.0543
▁door	-10.0549
▁favorite	-10.056
▁floor	-10.0574
▁Ital	-10.0575
▁stone	-10.0578
▁Eastern	-10.0579
▁survive	-10.0596
▁mountain	-10.0612
▁setting	-10.0621
▁electronic	-10.0623
▁nam	-10.0623
▁Book	-10.0628
▁debate	-10.0629
ter	-10.063
▁colleague	-10.0639
▁Italian	-10.0649
▁select	-10.0668
▁Big	-10.067
▁Brazil	-10.067
▁fan	-10.0677
tial	-10.0677
▁vary	-10.0681
▁core	-10.069
▁AD	-10.0703
▁Peter	-10.0715
▁edge	-10.0719
▁latter	-10.0719
▁stopp	-10.0719
▁impossibl	-10.072
▁estimat	-10.0724
▁Both	-10.0724
▁strength	-10.0732
▁brief	-10.0735
▁Nav	-10.0736
▁hydrogen	-10.0739
▁note	-10.0752
▁arriv	-10.0754
▁Christ	-10.0765
▁paid	-10.077
▁atmosphere	-10.077
▁background	-10.077
▁188	-10.0783
▁super	-10.0787
▁Google	-10.0808
▁Russia	-10.0819
▁warm	-10.0822
▁Who	-10.083
▁believ	-10.0838
▁enem	-10.0857
▁script	-10.0859
▁tool	-10.0859
▁zone	-10.0866
▁formation	-10.0877
▁vast	-10.0889
▁creative	-10.0889
▁identity	-10.089
▁reject	-10.0892
▁genes	-10.0895
▁federal	-10.0905
▁environmental	-10.0908
▁broadcast	-10.091
▁ran	-10.0913
ization	-10.0913
▁observ	-10.0913
▁guess	-10.0922
▁physics	-10.0932
▁expensive	-10.0938
▁serv	-10.0939
ine	-10.0944
▁musical	-10.0948
▁Institute	-10.0948
▁Dutch	-10.0952
▁Mars	-10.0955
▁capture	-10.0972
▁activit	-10.0979
▁respective	-10.098
▁extraordinar	-10.0995
▁variable	-10.0997
▁historian	-10.1001
▁western	-10.1008
▁Battle	-10.1012
▁agreement	-10.1014
▁poem	-10.1037
▁govern	-10.1042
▁underst	-10.1055
▁honor	-10.1057
▁tax	-10.107
▁facilit	-10.1071
▁Hall	-10.1079
▁thank	-10.1093
▁option	-10.1107
▁technical	-10.1108
▁ready	-10.1109
▁somebod	-10.1123
▁cave	-10.1133
▁Blue	-10.1135
▁Albert	-10.1143
▁winter	-10.1154
▁fun	-10.1155
▁attend	-10.1155
▁fighting	-10.1157
▁chain	-10.1159
▁fell	-10.1161
▁aim	-10.117
▁manufactur	-10.1178
▁Common	-10.1179
▁roll	-10.1179
▁fourth	-10.118
ie	-10.1182
▁expansion	-10.1187
▁agent	-10.1189
▁organiz	-10.1199
▁severe	-10.1227
▁equip	-10.1228
▁Minister	-10.1229
▁Old	-10.1233
▁solid	-10.1245
▁Center	-10.1248
▁distinct	-10.1274
▁encourage	-10.1278
▁surprise	-10.128
▁Bill	-10.128
▁evolved	-10.1285
▁Egypt	-10.129
ir	-10.1292
▁White	-10.1297
▁crew	-10.1298
▁extensive	-10.1314
▁Australian	-10.1315
▁Ho	-10.1316
▁500	-10.132
▁balance	-10.1345
▁variation	-10.1349
▁smart	-10.135
▁orbit	-10.1355
▁Columbia	-10.1363
▁seek	-10.1364
▁Island	-10.1364
▁concentration	-10.1367
50	-10.1381
▁previously	-10.1382
▁Follow	-10.1399
▁compos	-10.14
▁classical	-10.1403
▁Islands	-10.1403
▁cat	-10.1407
▁sleep	-10.1413
B	-10.1428
▁walking	-10.1434
▁yes	-10.1443
▁sentence	-10.1444
▁identify	-10.1456
▁declar	-10.1457
▁biological	-10.1458
▁frequently	-10.146
▁detect	-10.1483
▁coin	-10.1484
▁dangerous	-10.1487
▁programm	-10.1492
▁neighborhood	-10.1503
▁curve	-10.1507
▁independen	-10.1526
▁mobile	-10.153
▁mine	-10.1531
night	-10.1538
am	-10.1544
▁Bank	-10.1549
▁densit	-10.1552
▁protection	-10.1557
▁apparent	-10.1563
▁soil	-10.1567
em	-10.1578
la	-10.1582
▁pictures	-10.1583
▁determine	-10.1601
ver	-10.1603
▁slave	-10.1605
▁complicated	-10.1605
▁birds	-10.1608
▁III	-10.162
▁liquid	-10.1625
▁worldwide	-10.1628
▁instruction	-10.1644
▁drawing	-10.1654
▁favor	-10.1659
▁interact	-10.1662
▁Angel	-10.1662
▁Northern	-10.1669
▁prison	-10.167
▁extend	-10.1678
▁suit	-10.1684
▁Museum	-10.1687
▁fac	-10.1693
▁researcher	-10.17
▁invest	-10.171
▁Scot	-10.171
▁collective	-10.1715
▁discuss	-10.1717
▁agreed	-10.1717
ership	-10.173
▁apart	-10.1731
▁error	-10.174
▁faith	-10.1747
ong	-10.1748
▁manag	-10.1758
▁twice	-10.1776
▁website	-10.1776
incredibly	-10.1776
▁opposite	-10.1776
▁exception	-10.1781
▁clearly	-10.1782
▁earth	-10.1788
▁adapt	-10.1791
▁implement	-10.18
▁upper	-10.1804
▁platform	-10.1806
▁recogniz	-10.1809
▁league	-10.1811
▁contemporar	-10.1811
▁bright	-10.1812
▁Science	-10.1829
▁Earl	-10.1834
▁mathematics	-10.1838
▁Christmas	-10.1838
term	-10.1841
▁museum	-10.1883
▁meter	-10.1884
▁frequenc	-10.1885
▁glass	-10.1893
▁29	-10.1902
▁Look	-10.1903
▁minor	-10.1915
▁stick	-10.1916
▁promise	-10.1919
▁confirm	-10.1919
▁request	-10.1919
▁dry	-10.1923
▁pure	-10.193
▁none	-10.1933
▁opening	-10.194
▁Compan	-10.194
▁settlement	-10.1947
▁deriv	-10.1952
▁Smith	-10.1955
▁indeed	-10.1956
▁Southern	-10.1965
▁unlike	-10.1985
▁Mexic	-10.199
▁Louis	-10.1997
▁neighbor	-10.2001
▁dramatic	-10.2001
▁magnitude	-10.2019
▁eastern	-10.2032
▁transition	-10.2033
▁Nation	-10.2038
▁Her	-10.204
▁attract	-10.205
▁husband	-10.2056
▁GDP	-10.2075
▁dog	-10.2077
▁hair	-10.2094
▁mathematical	-10.2102
ay	-10.2133
▁solutions	-10.2137
▁boat	-10.2139
▁check	-10.214
▁management	-10.2153
▁observation	-10.216
ah	-10.2171
▁chief	-10.2174
▁drop	-10.2186
▁plastic	-10.2198
▁universal	-10.2204
▁cheap	-10.2204
▁extended	-10.2204
▁Wal	-10.2205
▁skills	-10.2209
▁Saint	-10.2213
ta	-10.2214
▁import	-10.2226
▁Arabic	-10.2228
▁speaker	-10.223
▁master	-10.2231
ane	-10.2235
▁agree	-10.2236
▁label	-10.2239
ility	-10.2241
▁librar	-10.2249
▁retain	-10.2251
▁infrastructure	-10.2251
century	-10.2257
▁landscape	-10.2258
▁notion	-10.226
▁actor	-10.2265
▁efficient	-10.2275
▁tru	-10.2276
▁prominent	-10.2283
▁consumer	-10.2284
▁afford	-10.2286
ra	-10.229
▁relations	-10.2292
▁Sever	-10.2298
▁biolog	-10.231
▁organ	-10.231
▁Los	-10.2311
▁Bay	-10.2323
▁giant	-10.2349
▁See	-10.2351
▁input	-10.2357
▁practical	-10.2361
off	-10.2362
▁System	-10.2363
▁radical	-10.2365
▁random	-10.2378
ideo	-10.2385
▁Israel	-10.2395
▁net	-10.24
ul	-10.2405
▁council	-10.242
▁distinguish	-10.2423
▁Three	-10.243
dimensional	-10.2434
▁traffic	-10.2448
▁victim	-10.2449
▁consciousness	-10.245
▁ideal	-10.2451
▁satellite	-10.2458
▁Pacific	-10.2461
▁administration	-10.2472
▁neurons	-10.2473
▁regional	-10.248
▁generate	-10.2489
▁firm	-10.2491
▁prior	-10.2493
▁permanent	-10.2517
ng	-10.2518
v	-10.2529
▁feed	-10.2534
▁domestic	-10.2536
▁broad	-10.2539
▁straight	-10.2544
▁decide	-10.2557
▁polic	-10.2563
▁dialect	-10.2564
▁sustain	-10.2576
▁recording	-10.2583
▁mouth	-10.2593
▁Lord	-10.2603
▁judge	-10.2612
▁achiev	-10.2613
L	-10.262
▁replace	-10.2623
▁processe	-10.2626
life	-10.2627
ne	-10.2637
▁everywhere	-10.2642
co	-10.2651
▁foundation	-10.267
▁holding	-10.2671
▁Later	-10.2676
oxide	-10.2676
▁frame	-10.269
▁Berlin	-10.27
▁ratio	-10.2706
▁survey	-10.2719
▁symptom	-10.2719
ory	-10.273
▁output	-10.2731
▁prime	-10.2733
▁Michael	-10.2749
▁measur	-10.2759
▁export	-10.2764
▁capable	-10.2767
▁determined	-10.2767
▁discovery	-10.2768
▁spring	-10.2769
▁branch	-10.2777
▁Go	-10.2778
▁convince	-10.2778
how	-10.2794
▁genome	-10.2808
▁minister	-10.2808
▁participat	-10.281
▁comic	-10.2817
▁therap	-10.2822
▁defense	-10.2828
▁quantum	-10.2828
▁Maybe	-10.2833
▁185	-10.2842
▁x	-10.2849
▁overall	-10.2852
ought	-10.2864
▁conference	-10.2868
▁decline	-10.287
▁alcohol	-10.2873
▁tank	-10.2878
ean	-10.2884
▁exercise	-10.2887
▁g	-10.2895
▁desert	-10.2897
▁worse	-10.2906
▁familiar	-10.2908
efore	-10.2912
▁passenger	-10.2917
▁weapons	-10.2919
▁Academ	-10.2922
▁resident	-10.2927
▁producer	-10.2927
▁civilization	-10.2928
▁manage	-10.2945
▁lesson	-10.2947
▁candidate	-10.2947
▁creature	-10.2948
▁manager	-10.2955
esus	-10.2955
▁Mary	-10.2956
▁Revolution	-10.2957
▁surrounding	-10.297
▁improv	-10.2975
ble	-10.2979
E	-10.2994
▁enormous	-10.3008
▁Lake	-10.3009
▁depression	-10.3009
▁la	-10.3015
▁injur	-10.303
▁unknown	-10.3031
▁stor	-10.3036
▁appeal	-10.3038
▁profit	-10.3039
▁insect	-10.304
▁featur	-10.3045
▁gene	-10.305
▁portion	-10.3055
▁cook	-10.3057
▁belong	-10.3058
▁winning	-10.3072
▁labor	-10.3073
▁sky	-10.3077
▁web	-10.308
▁driving	-10.3087
ories	-10.3094
▁broken	-10.3094
▁fresh	-10.3099
▁staff	-10.3109
▁communicate	-10.3114
gen	-10.3118
▁substance	-10.3129
io	-10.3138
▁Frank	-10.314
ious	-10.3142
▁quarter	-10.3157
▁Once	-10.316
▁patent	-10.316
▁prove	-10.3163
daily	-10.3166
▁missile	-10.317
▁sports	-10.3179
da	-10.3186
▁crazy	-10.3191
▁infection	-10.3194
▁iron	-10.3196
▁defend	-10.3199
▁opinion	-10.3201
▁muscle	-10.3211
▁spirit	-10.3218
▁crop	-10.3221
▁Green	-10.3222
▁emotion	-10.3234
▁prov	-10.3242
▁stable	-10.3243
▁format	-10.3253
▁uniform	-10.3263
▁advanc	-10.3264
▁exciting	-10.3267
▁Martin	-10.328
ina	-10.3304
▁Government	-10.3305
▁alive	-10.3307
▁dispute	-10.331
▁vessel	-10.3315
▁trouble	-10.3315
▁coal	-10.3316
▁abandon	-10.3325
▁blind	-10.3334
▁organic	-10.3342
▁translation	-10.3371
▁edition	-10.338
▁arms	-10.3383
▁circuit	-10.3385
▁visibl	-10.339
▁fixed	-10.3394
▁comput	-10.3413
▁fashion	-10.3417
▁radiation	-10.342
fare	-10.3428
▁scholars	-10.343
▁Life	-10.3441
▁academic	-10.3441
▁quantit	-10.3458
▁description	-10.3462
alley	-10.3466
▁spot	-10.348
▁marked	-10.3492
▁enable	-10.3495
▁plate	-10.3497
▁spoken	-10.3502
▁agricultur	-10.3507
▁publication	-10.3513
▁differ	-10.3515
▁Atlantic	-10.3518
▁transfer	-10.3519
▁comment	-10.3525
▁complet	-10.3543
▁attach	-10.3545
▁parallel	-10.3548
▁haven	-10.3551
▁Association	-10.3568
▁trace	-10.3569
▁combat	-10.3578
▁remarkabl	-10.3581
▁driver	-10.3582
▁customer	-10.3586
▁electrical	-10.3589
▁Department	-10.3589
▁struggle	-10.3592
▁accurate	-10.3593
▁Game	-10.3593
▁Are	-10.3608
12	-10.361
▁outcome	-10.3611
▁broke	-10.3618
▁encounter	-10.3621
▁scar	-10.3627
▁Car	-10.3629
like	-10.3632
▁trip	-10.3633
▁responsibility	-10.3643
board	-10.3643
▁hunt	-10.3645
▁spiritual	-10.3647
▁steel	-10.3653
▁dynamic	-10.3665
▁grown	-10.3676
▁Bost	-10.368
▁Per	-10.368
▁discussion	-10.3691
▁split	-10.3695
▁refus	-10.3696
▁weak	-10.37
▁Turk	-10.3701
▁depict	-10.3703
▁classe	-10.3704
▁employee	-10.3709
▁wood	-10.3711
▁graph	-10.3718
▁sugar	-10.3729
▁beaut	-10.3729
▁murder	-10.3735
▁healthy	-10.3738
▁nor	-10.3741
▁angle	-10.3742
▁medium	-10.3747
▁bi	-10.3751
▁justice	-10.3756
▁multi	-10.3756
▁assembl	-10.3762
▁chart	-10.3768
▁phrase	-10.3768
▁spin	-10.377
▁mix	-10.3773
▁worst	-10.3783
▁lies	-10.3789
istic	-10.3789
▁HI	-10.3794
▁Colo	-10.3795
▁stock	-10.3799
▁partner	-10.3803
▁height	-10.3811
▁disappear	-10.3815
▁complexit	-10.3827
FL	-10.3831
▁procedure	-10.3836
P	-10.3836
▁promote	-10.3844
▁peak	-10.3846
▁Egyptian	-10.3861
▁interpretation	-10.3862
▁interface	-10.3864
▁importan	-10.3867
▁notable	-10.3877
▁gun	-10.3881
▁Emperor	-10.3882
▁opposition	-10.3893
▁fossil	-10.3894
▁breath	-10.3895
▁inner	-10.3896
▁150	-10.3918
▁captur	-10.3924
▁catch	-10.3947
▁register	-10.3948
appointed	-10.3952
▁weather	-10.396
▁department	-10.396
▁strip	-10.3965
▁Di	-10.3966
▁sales	-10.397
▁careful	-10.3971
▁bass	-10.3973
▁pitch	-10.3974
▁dat	-10.3976
▁precise	-10.3979
▁sport	-10.3981
▁cast	-10.3984
▁budget	-10.3987
▁please	-10.3995
▁earn	-10.3995
▁Adam	-10.3995
▁saving	-10.3997
ack	-10.4
▁accident	-10.4002
▁studio	-10.4007
ification	-10.4009
▁reign	-10.4015
▁ethnic	-10.4023
▁continuous	-10.4026
▁external	-10.4026
▁Bible	-10.4032
▁sand	-10.4041
▁collapse	-10.4042
▁divers	-10.4047
▁stem	-10.4048
H	-10.4055
▁flat	-10.406
bas	-10.4062
▁compassion	-10.4071
▁flower	-10.4079
▁fruit	-10.4082
▁extent	-10.4082
▁domain	-10.4083
▁mixed	-10.4087
▁fleet	-10.4094
▁transformation	-10.4094
▁bough	-10.4104
▁hero	-10.4127
▁Ma	-10.4136
▁streets	-10.4138
oung	-10.4141
▁soul	-10.4145
▁intend	-10.4148
▁reserve	-10.4154
ol	-10.4155
ius	-10.4156
▁heavi	-10.4159
▁excited	-10.416
▁load	-10.4166
▁Age	-10.4171
▁diet	-10.4172
ite	-10.4178
▁noise	-10.4186
▁Re	-10.4187
▁bound	-10.4189
▁contribut	-10.4193
▁arrest	-10.4195
▁yield	-10.4195
▁representation	-10.4196
▁artificial	-10.4199
▁Bell	-10.4211
▁threaten	-10.4216
▁principal	-10.4218
▁Brown	-10.4218
▁Among	-10.4241
▁odd	-10.4241
▁Constantin	-10.4249
▁Sir	-10.4252
▁Further	-10.4252
▁column	-10.4257
▁suffering	-10.4261
▁dinosaur	-10.4263
▁generat	-10.4273
▁theme	-10.4274
▁Societ	-10.4275
▁gradual	-10.4277
▁10,000	-10.4278
▁chosen	-10.4281
▁composition	-10.4283
▁1920	-10.4285
▁Parliament	-10.4298
over	-10.4298
▁mechanical	-10.4306
▁rural	-10.4309
▁yellow	-10.431
▁fix	-10.4311
M	-10.4334
▁commission	-10.4339
▁chemistr	-10.4343
▁Chris	-10.4348
▁occasional	-10.4353
hi	-10.4368
▁joint	-10.4371
▁Bo	-10.4372
▁Ire	-10.4373
▁strange	-10.4376
▁ancestor	-10.4378
▁Ro	-10.4384
▁critic	-10.4387
▁nav	-10.4388
▁escape	-10.4395
ill	-10.4396
▁El	-10.4397
▁criminal	-10.4398
eath	-10.4401
▁Ca	-10.4402
▁hearing	-10.4406
▁explore	-10.4411
▁constitution	-10.4411
▁email	-10.4414
▁dedicat	-10.4415
▁stream	-10.4419
G	-10.4433
▁Through	-10.4436
▁remind	-10.444
▁Serie	-10.4444
▁Cup	-10.4446
▁farm	-10.4464
▁Grand	-10.4467
oseph	-10.4472
km	-10.4477
what	-10.4478
▁shell	-10.4486
▁linear	-10.4488
▁Civil	-10.4506
▁empire	-10.4506
▁Francisco	-10.4518
▁liberal	-10.4519
▁switch	-10.452
▁vector	-10.4542
▁counter	-10.455
▁cable	-10.4559
ology	-10.4559
▁1,000	-10.4561
▁surround	-10.4562
▁jump	-10.4563
▁architect	-10.4565
▁explanation	-10.4565
▁consistent	-10.4569
SA	-10.4576
▁reverse	-10.4583
▁remove	-10.4584
-1	-10.4588
▁dy	-10.46
▁Einstein	-10.4601
ueen	-10.4602
▁acquir	-10.4605
▁ring	-10.4613
▁gift	-10.4624
▁terribl	-10.4624
▁conservative	-10.4625
▁dropp	-10.4626
▁pilot	-10.4639
▁beat	-10.4641
▁topic	-10.4644
▁corner	-10.4647
▁phenomeno	-10.4656
▁forth	-10.4666
ose	-10.4667
▁camp	-10.4669
▁gender	-10.4672
▁transportation	-10.4677
▁railway	-10.4685
▁airport	-10.4708
▁statistic	-10.472
▁combine	-10.472
▁dominat	-10.4733
ha	-10.4737
▁meat	-10.4738
losing	-10.474
▁coffee	-10.4744
▁maximum	-10.4744
▁killing	-10.475
▁Human	-10.4758
▁Irish	-10.4766
▁magic	-10.4769
ler	-10.477
spread	-10.4776
▁grand	-10.4776
▁prepared	-10.4779
▁Ocean	-10.478
▁copy	-10.4781
sumption	-10.4783
▁kingdom	-10.4793
▁Republican	-10.4794
na	-10.48
▁Amazon	-10.4804
▁dynast	-10.4804
▁sum	-10.4805
▁seed	-10.4806
▁crowd	-10.4812
▁engage	-10.4819
ohnson	-10.4821
▁fiction	-10.4823
▁bunch	-10.4828
ery	-10.4832
ey	-10.4835
▁requirement	-10.4835
▁secure	-10.4835
▁Hill	-10.4839
▁narrative	-10.4839
▁bodi	-10.4841
▁sick	-10.4849
▁Detroit	-10.4852
▁Ben	-10.4862
▁sufficient	-10.4863
▁Gree	-10.4864
▁protest	-10.4881
▁legislati	-10.4881
▁stoo	-10.4883
▁happiness	-10.4885
T	-10.4887
▁aware	-10.4893
▁lay	-10.4901
ated	-10.4904
▁Holly	-10.4905
ling	-10.4912
▁climb	-10.4924
▁executive	-10.4926
▁household	-10.4928
▁philosopher	-10.4929
▁gap	-10.4938
▁Sometime	-10.4944
▁Star	-10.4949
▁restaurant	-10.495
▁wherea	-10.4955
▁emotional	-10.4956
eval	-10.496
▁colour	-10.4962
▁moon	-10.4964
ative	-10.4967
▁Times	-10.4974
▁distribut	-10.4978
▁appropriate	-10.498
▁narrow	-10.4987
▁item	-10.4988
▁repeated	-10.4995
▁substantial	-10.4999
▁Darwin	-10.501
▁Texas	-10.5011
▁exhibit	-10.503
ackson	-10.5049
▁infinite	-10.5054
▁wound	-10.5061
▁Law	-10.5065
▁interpret	-10.5077
▁contribution	-10.5078
▁Love	-10.5079
▁concrete	-10.5085
▁Final	-10.5087
▁musician	-10.5094
▁Service	-10.5098
▁recommend	-10.5107
▁sides	-10.5114
▁Iraq	-10.5116
▁Pope	-10.5118
▁debt	-10.512
▁association	-10.5123
▁aren	-10.5129
▁divide	-10.513
▁solv	-10.5141
▁graduate	-10.5143
▁introduction	-10.5145
▁Olympic	-10.5148
den	-10.517
▁antibiotic	-10.5173
▁spoke	-10.5174
▁mistake	-10.5177
▁settl	-10.5177
▁unusual	-10.5185
▁representative	-10.5186
▁k	-10.519
tari	-10.5191
▁sought	-10.5197
▁fellow	-10.5197
▁baseball	-10.5199
▁BBC	-10.5202
▁diversit	-10.5205
▁assign	-10.5207
▁v	-10.5209
tended	-10.5211
▁occupie	-10.5221
▁analog	-10.5234
▁approve	-10.5235
▁brown	-10.5235
ear	-10.5237
▁Mountain	-10.5248
▁politician	-10.525
▁skill	-10.5251
▁fifth	-10.5257
▁affair	-10.5261
▁breed	-10.5261
▁medi	-10.5262
▁magnetic	-10.5263
▁pop	-10.5268
F	-10.5269
▁intellectual	-10.5273
▁improvement	-10.529
▁parent	-10.5292
▁Health	-10.5294
▁invasion	-10.5299
▁surgery	-10.5299
▁Ar	-10.53
▁poet	-10.5305
▁measurement	-10.5305
▁ordinar	-10.5305
▁doubt	-10.531
▁calculate	-10.5311
▁tons	-10.5315
▁farmers	-10.532
▁childhood	-10.5325
▁Modern	-10.5337
▁CP	-10.5344
▁decrease	-10.5348
▁lift	-10.5349
▁profound	-10.5349
▁molecular	-10.5362
▁clock	-10.5362
▁invit	-10.5367
▁carrier	-10.5383
▁binar	-10.5386
▁Asian	-10.5389
▁Croatia	-10.5392
▁ensure	-10.5393
▁journal	-10.5399
▁conclusion	-10.5401
▁Persian	-10.5407
▁introduce	-10.541
▁exclusive	-10.5414
▁willing	-10.5424
▁Edward	-10.5426
▁181	-10.5428
▁bill	-10.5432
and	-10.5434
▁Group	-10.5439
▁crystal	-10.544
known	-10.5443
▁Protestant	-10.5452
▁Such	-10.5455
▁prisoner	-10.5463
▁supplie	-10.5464
ig	-10.5465
▁perception	-10.5465
▁preserv	-10.5467
▁refugee	-10.5471
▁row	-10.5473
▁Dan	-10.5475
▁Czech	-10.5478
▁myth	-10.5478
▁dozen	-10.5479
▁contribute	-10.5484
▁missing	-10.5487
▁agricultural	-10.5487
▁younger	-10.5499
hand	-10.55
▁revenue	-10.5504
▁percentage	-10.5505
▁journalist	-10.5505
▁Prince	-10.5505
▁Orthodox	-10.5516
▁honest	-10.5516
▁Time	-10.552
O	-10.5539
▁opportunit	-10.5544
▁Islamic	-10.555
▁conventional	-10.5554
▁Research	-10.5576
▁illness	-10.5583
ma	-10.5586
▁Mark	-10.5593
▁temple	-10.5595
call	-10.56
▁grain	-10.56
▁cluster	-10.5608
▁react	-10.5613
▁bird	-10.5616
▁invention	-10.563
▁clinical	-10.563
▁committ	-10.5632
▁strike	-10.5634
▁functional	-10.5641
▁window	-10.5649
R	-10.5657
▁kilometer	-10.5662
drew	-10.5665
▁compare	-10.5682
▁mere	-10.5684
▁dot	-10.5691
▁gather	-10.5694
▁assume	-10.5698
▁guitar	-10.5699
▁luck	-10.5708
▁horse	-10.5718
▁union	-10.5719
▁circumstance	-10.5726
▁theorem	-10.5739
▁dominant	-10.5753
▁extension	-10.5753
▁colony	-10.5754
ietnam	-10.5766
▁regulation	-10.5768
ene	-10.5768
▁operator	-10.5775
▁chapter	-10.5779
▁Ottoman	-10.5779
▁reward	-10.5779
▁participate	-10.5781
▁atomic	-10.5786
▁Four	-10.5793
ang	-10.5793
magine	-10.5798
▁passion	-10.58
▁chair	-10.5805
▁Cuba	-10.5817
▁bishop	-10.5819
▁Lincoln	-10.5819
▁CO	-10.5819
ably	-10.5821
hire	-10.5834
▁Con	-10.5843
▁mom	-10.5848
▁lie	-10.5858
▁festival	-10.586
▁classic	-10.5861
iller	-10.5867
▁custom	-10.5868
▁flag	-10.5869
ri	-10.5872
▁surprising	-10.5873
▁recognition	-10.5886
▁Tom	-10.5894
▁indicat	-10.5898
▁identical	-10.59
▁governor	-10.5902
▁Suprem	-10.5913
▁diamond	-10.5913
ansa	-10.5924
▁Mr	-10.5936
▁Take	-10.5941
▁database	-10.5941
▁steps	-10.5944
▁wheel	-10.5945
▁illegal	-10.5954
▁disk	-10.5954
▁classifi	-10.5959
▁Ne	-10.5962
▁sharing	-10.5972
▁Cape	-10.5976
▁indigen	-10.5981
▁sat	-10.5986
▁rail	-10.5988
▁naturally	-10.5994
▁Similar	-10.5994
American	-10.5996
▁photo	-10.6002
nd	-10.6004
uch	-10.6005
▁install	-10.6006
▁tumor	-10.6008
destruction	-10.6009
▁absorb	-10.6016
▁guns	-10.6017
▁sight	-10.6019
▁proof	-10.602
▁hop	-10.6023
▁poetry	-10.6024
▁influen	-10.6029
▁ne	-10.6034
▁abuse	-10.6035
▁chose	-10.6035
▁priest	-10.6047
▁Committee	-10.6049
▁restrict	-10.6049
▁mount	-10.6061
▁coach	-10.6093
▁Good	-10.61
▁emperor	-10.6102
▁valley	-10.6104
▁array	-10.6112
▁false	-10.6117
bean	-10.6121
▁CD	-10.6131
▁opponent	-10.6131
▁reduction	-10.6132
▁assum	-10.6133
rich	-10.6134
▁100,000	-10.6135
▁Pakistan	-10.6138
▁client	-10.6145
▁thin	-10.6146
▁spectrum	-10.6147
▁Columb	-10.6149
▁concert	-10.6153
▁Phil	-10.6175
▁Mo	-10.6181
▁fold	-10.6191
▁roads	-10.6205
▁tourist	-10.6209
▁extract	-10.621
▁Boy	-10.6212
▁Iran	-10.6214
▁professor	-10.6216
▁Space	-10.622
▁inform	-10.6221
▁universit	-10.6221
▁crash	-10.6221
ground	-10.6223
▁exploit	-10.6223
▁vertical	-10.6223
▁Which	-10.6243
scale	-10.6245
▁views	-10.6245
▁authors	-10.625
▁math	-10.6253
▁variant	-10.6256
▁derive	-10.6257
gun	-10.626
▁Co	-10.6263
han	-10.6271
▁usage	-10.6271
▁Alexandria	-10.6273
▁theater	-10.6279
▁monitor	-10.6285
▁Wom	-10.6289
▁tough	-10.629
▁logic	-10.6294
▁manufacturer	-10.6302
▁objective	-10.6308
▁Best	-10.6311
▁expedition	-10.6312
▁deeply	-10.6315
▁micro	-10.6318
za	-10.6327
▁manner	-10.633
▁Islam	-10.6336
ors	-10.6339
▁engaged	-10.6343
il	-10.6346
▁convention	-10.6351
▁vaccine	-10.6354
li	-10.6369
▁tall	-10.6372
▁plot	-10.6373
▁fantastic	-10.6382
▁garden	-10.639
▁1982	-10.6391
▁Li	-10.6395
▁alter	-10.6397
▁lifetime	-10.6401
▁lake	-10.6411
▁census	-10.6411
▁wire	-10.6413
▁grade	-10.6418
ible	-10.6424
▁alphabet	-10.6424
▁integrat	-10.6424
▁mineral	-10.6427
▁automatic	-10.6432
▁citizen	-10.6436
▁Me	-10.6438
▁Lab	-10.6441
▁Major	-10.6446
▁spaces	-10.6447
▁discipline	-10.6448
▁genre	-10.6454
▁sphere	-10.6465
▁dense	-10.6468
▁Will	-10.6476
▁fluid	-10.6482
▁Batm	-10.6483
▁tribes	-10.6492
▁filter	-10.6493
▁handle	-10.6494
▁violent	-10.6497
▁mark	-10.6497
▁modifi	-10.6498
▁180	-10.6508
▁mirror	-10.6511
▁coral	-10.6511
▁strict	-10.6511
▁Costa	-10.6512
▁coordinate	-10.6519
▁Rock	-10.6521
▁repair	-10.6523
▁Duke	-10.6526
▁resolution	-10.6527
▁snow	-10.653
▁passage	-10.6531
ford	-10.6533
▁assumption	-10.6536
▁headquarter	-10.654
▁campus	-10.6545
▁nucle	-10.6548
▁Carib	-10.6554
pper	-10.656
▁afraid	-10.6568
▁drawn	-10.6575
▁Never	-10.6577
▁rational	-10.6589
▁Christians	-10.6591
▁factory	-10.6592
▁soft	-10.6592
▁pioneer	-10.6597
▁Prime	-10.6597
▁flood	-10.6597
▁NASA	-10.6611
▁slide	-10.6613
oe	-10.6613
▁mountains	-10.6618
ize	-10.6619
▁Po	-10.662
ca	-10.6622
▁sail	-10.6624
▁eating	-10.6625
▁silver	-10.6627
▁forc	-10.6633
▁promot	-10.6636
▁Again	-10.6642
▁cloud	-10.6644
▁copie	-10.6648
▁Prize	-10.6655
▁isolat	-10.6657
while	-10.6659
▁shock	-10.6674
▁mode	-10.6676
openha	-10.6684
ington	-10.6692
▁cavalry	-10.6699
▁Any	-10.6699
▁advertis	-10.67
▁occasion	-10.6716
▁anyway	-10.6728
truck	-10.6731
▁ritual	-10.6757
▁Gold	-10.6765
▁secondar	-10.677
▁mammal	-10.6771
▁Airport	-10.6772
cut	-10.6783
rado	-10.6784
▁volunteer	-10.6786
▁shop	-10.6792
▁inter	-10.6792
ustin	-10.6799
▁burn	-10.6799
▁pump	-10.6801
▁corporation	-10.6801
▁fiber	-10.6801
▁182	-10.6803
bit	-10.6805
▁Did	-10.6806
ip	-10.6809
go	-10.6811
▁cognitive	-10.6816
▁mouse	-10.6816
▁smell	-10.6816
▁powers	-10.6822
▁resist	-10.6824
▁Due	-10.6825
▁Facebook	-10.6831
▁motor	-10.6833
▁miss	-10.6838
▁taste	-10.6846
▁regime	-10.6854
▁abstract	-10.6855
▁Portuguese	-10.686
▁selection	-10.6873
▁depth	-10.6881
▁Chile	-10.689
▁codice	-10.689
ealand	-10.6891
▁expos	-10.6892
▁van	-10.6892
ni	-10.6892
don	-10.6894
▁Mi	-10.6898
▁remote	-10.6901
▁scheme	-10.692
▁translat	-10.6925
▁distinction	-10.6928
▁habitat	-10.693
▁Though	-10.6933
▁Th	-10.6933
▁membrane	-10.6935
▁Senat	-10.6945
▁declin	-10.6945
▁Constitution	-10.695
▁bubble	-10.6956
po	-10.6966
▁brains	-10.6979
▁administrative	-10.6979
ner	-10.6987
▁transferr	-10.6989
▁successor	-10.699
bury	-10.6992
▁Think	-10.6995
▁Sweden	-10.6997
▁Have	-10.7003
▁doctrine	-10.7004
▁colonial	-10.7005
▁inhabitant	-10.701
▁sculpture	-10.701
▁probabilit	-10.7017
▁forget	-10.7018
▁Bar	-10.702
▁Andrew	-10.7025
▁winner	-10.7025
▁rid	-10.7031
▁Super	-10.7034
expected	-10.7041
▁Division	-10.7055
▁imagination	-10.7057
▁Nor	-10.7063
▁disaster	-10.707
▁ecosystem	-10.707
▁hidden	-10.707
▁assault	-10.707
▁bag	-10.7071
▁relation	-10.7072
▁beer	-10.7072
▁senior	-10.7073
▁proportion	-10.7079
▁reputation	-10.7085
▁gay	-10.7088
▁varie	-10.7093
▁lowest	-10.71
▁mixture	-10.7101
▁civilian	-10.7103
un	-10.7109
▁bicycle	-10.7111
▁Buddha	-10.7115
▁compress	-10.7121
▁bomb	-10.7122
▁ceremon	-10.713
▁derivative	-10.7131
▁truck	-10.714
▁decay	-10.7161
▁legend	-10.7162
▁fat	-10.7164
▁Ba	-10.7172
▁hous	-10.7177
com	-10.7177
▁plus	-10.7185
▁incident	-10.7187
▁Championship	-10.7192
▁telescope	-10.721
▁witness	-10.7211
▁purchase	-10.7222
▁serving	-10.7223
▁tape	-10.7223
▁lung	-10.7225
▁toxic	-10.7237
▁constellation	-10.7238
▁Doctor	-10.7238
▁rely	-10.7239
▁mathematician	-10.7253
▁prize	-10.7258
▁criticism	-10.7261
round	-10.7262
▁minds	-10.7263
▁telephone	-10.7268
▁minimum	-10.7269
▁comparison	-10.7269
▁experienc	-10.7269
▁lawyer	-10.727
▁conscious	-10.7271
▁democratic	-10.7282
▁currenc	-10.7284
▁talent	-10.7285
▁marine	-10.7288
▁Sam	-10.7291
▁wine	-10.7293
▁delay	-10.73
▁cloth	-10.7301
hood	-10.7302
▁Cleve	-10.7303
▁exhibition	-10.7306
ese	-10.7307
▁min	-10.7312
▁deploy	-10.7313
▁royal	-10.7315
▁pack	-10.7316
▁efficienc	-10.7326
▁challeng	-10.7327
bodie	-10.7328
▁tail	-10.7329
▁bottle	-10.7329
etween	-10.7329
▁session	-10.7331
▁classification	-10.7332
▁evil	-10.7332
▁server	-10.7338
BM	-10.7341
▁deposit	-10.7342
▁intervention	-10.7346
▁experimental	-10.7347
▁Den	-10.7358
▁fragment	-10.7362
▁manuscript	-10.7362
coming	-10.7365
ci	-10.7371
▁theoretical	-10.7377
▁nervous	-10.7377
▁educational	-10.7392
uda	-10.7392
▁roof	-10.7393
▁Project	-10.7393
▁panel	-10.7393
▁incorporat	-10.7395
▁Steve	-10.7403
nlike	-10.7408
▁ending	-10.7411
▁insight	-10.7413
▁historic	-10.7413
▁Moon	-10.7416
▁attribute	-10.742
▁babi	-10.7421
▁singer	-10.7422
▁notabl	-10.7431
▁rival	-10.7434
▁valuable	-10.7446
▁loop	-10.7449
▁node	-10.7449
▁finger	-10.7449
▁worry	-10.7453
▁arrangement	-10.7456
▁dollar	-10.746
▁correspond	-10.7468
▁Coast	-10.7471
▁buri	-10.7481
▁immigrant	-10.7487
▁Nobel	-10.7487
▁Sunday	-10.7496
ge	-10.7498
▁demonstrat	-10.7513
▁invisibl	-10.7514
if	-10.7518
▁tremendous	-10.7519
▁monarch	-10.7519
▁weapon	-10.7528
▁sole	-10.7532
▁corresponding	-10.7537
▁Aristot	-10.7538
▁march	-10.7541
▁tunnel	-10.7542
▁danger	-10.7549
▁audio	-10.7551
▁hate	-10.7552
▁founder	-10.7554
que	-10.7556
▁Wall	-10.7564
▁empty	-10.758
▁trend	-10.7581
▁demonstrate	-10.7584
▁harm	-10.7586
▁storm	-10.7593
▁laid	-10.7595
▁tie	-10.7598
▁ingredient	-10.7598
▁disc	-10.76
▁pro	-10.7607
▁hall	-10.761
corruption	-10.7613
bility	-10.7614
▁Congo	-10.7631
II	-10.7633
▁committee	-10.7633
▁relate	-10.7633
▁Film	-10.7646
▁stored	-10.7649
▁proposal	-10.7649
▁Mac	-10.7655
▁simultaneous	-10.7663
▁tower	-10.7666
▁Pr	-10.7667
▁goals	-10.7686
▁portray	-10.7688
loved	-10.7692
aging	-10.7693
▁teeth	-10.7695
▁plain	-10.7695
▁commander	-10.7697
▁stretch	-10.7702
▁assist	-10.7705
▁Harvard	-10.7711
versus	-10.7711
▁enzyme	-10.7717
▁controvers	-10.7726
▁compete	-10.7736
▁sensor	-10.7736
▁salt	-10.7743
▁Foundation	-10.7744
▁shipp	-10.7748
▁Additional	-10.775
▁Syria	-10.7753
au	-10.7757
▁printing	-10.7759
▁Netherland	-10.7759
▁autism	-10.7759
op	-10.776
▁Radio	-10.7767
▁cartoon	-10.7775
▁Technolog	-10.7776
ray	-10.7776
▁Roger	-10.7776
▁verb	-10.7777
▁Del	-10.7779
▁landing	-10.7787
▁vulnerab	-10.7789
▁wo	-10.7789
▁sustainabl	-10.7797
▁Treat	-10.7797
▁vowel	-10.7808
▁loan	-10.781
▁composer	-10.7811
▁Democratic	-10.7812
▁dealing	-10.7823
▁airplane	-10.7825
▁cent	-10.7835
▁privilege	-10.7841
▁suicide	-10.7841
▁transmission	-10.7841
rew	-10.7848
▁conclud	-10.7853
▁preferr	-10.7855
▁Ruth	-10.7856
▁Public	-10.7857
▁structural	-10.7857
▁rising	-10.7867
▁attitude	-10.7873
▁branche	-10.7876
▁animation	-10.7883
▁Atlant	-10.7893
war	-10.7894
▁dubb	-10.79
gt	-10.791
▁tension	-10.7911
▁Miss	-10.7917
▁AIDS	-10.7923
▁advice	-10.7923
▁hotel	-10.7924
▁opera	-10.7929
▁chromosome	-10.7932
▁Bob	-10.7932
▁implementation	-10.7945
▁seal	-10.7956
▁unfortunate	-10.7956
▁classroom	-10.7956
▁license	-10.7957
▁cult	-10.7962
aking	-10.7965
▁trick	-10.7969
▁diameter	-10.7972
ntil	-10.7985
lt	-10.7986
▁inherit	-10.7989
▁Anglican	-10.8006
▁controversial	-10.8006
lo	-10.8007
fall	-10.801
▁owner	-10.8016
▁calculation	-10.8022
▁inspiration	-10.8024
▁Turke	-10.8025
▁calling	-10.8026
▁rivers	-10.803
▁cutting	-10.8036
▁trad	-10.8041
state	-10.8066
▁Microsoft	-10.8072
▁Alaska	-10.8073
▁Turing	-10.8073
▁Scottish	-10.8073
▁conservation	-10.8078
half	-10.808
▁evolutionary	-10.8092
ti	-10.8096
▁bare	-10.8098
▁malaria	-10.8101
fish	-10.811
▁Celt	-10.811
▁banks	-10.812
▁recruit	-10.8123
▁Commission	-10.8129
▁quiet	-10.814
▁originat	-10.8142
▁elder	-10.8143
▁Sch	-10.8146
▁Scott	-10.8151
▁suspect	-10.8156
▁establishment	-10.8169
▁Ark	-10.8175
▁rat	-10.8181
▁youth	-10.8181
▁interior	-10.8187
▁comet	-10.8196
▁physician	-10.8207
▁fraction	-10.8207
▁industri	-10.8209
▁slavery	-10.821
▁investigation	-10.8211
hol	-10.8213
▁arrive	-10.822
▁framework	-10.8224
▁Hindu	-10.8231
▁bread	-10.8236
▁infect	-10.8237
▁stronger	-10.824
▁Last	-10.8242
▁Mu	-10.8244
▁Club	-10.8258
▁processor	-10.8268
▁strategic	-10.8274
▁funny	-10.8276
▁monkey	-10.8276
erusal	-10.8278
▁draft	-10.8292
▁exposure	-10.8293
▁armour	-10.8295
▁epidemic	-10.8309
▁relevant	-10.8309
▁imperial	-10.831
▁ride	-10.8322
▁conquer	-10.8323
▁Cambridge	-10.8327
▁velocit	-10.8327
editerranea	-10.8328
▁nest	-10.8329
▁Secretary	-10.8344
▁estate	-10.835
surance	-10.8351
▁emergenc	-10.8354
▁Colombia	-10.8357
▁rating	-10.8361
▁dependent	-10.8373
▁asset	-10.8376
▁apartment	-10.8382
▁repeat	-10.8383
▁celebrat	-10.8389
▁prototype	-10.8392
▁explicit	-10.8395
▁physicist	-10.8395
▁Oxford	-10.8396
▁cure	-10.8406
▁reli	-10.8407
▁prediction	-10.8408
▁Real	-10.841
▁Little	-10.8413
▁hypothesis	-10.8413
▁achievement	-10.8419
▁calendar	-10.843
▁proud	-10.843
ap	-10.844
▁sheet	-10.8447
▁segment	-10.8447
▁definite	-10.8448
▁Carl	-10.8456
▁comed	-10.846
stan	-10.8461
▁intelligent	-10.8463
▁dad	-10.8463
▁Assembl	-10.8465
▁finite	-10.8465
▁pool	-10.847
▁breast	-10.847
▁corporate	-10.8482
▁stuck	-10.8482
▁lecture	-10.8486
ak	-10.8498
▁Convention	-10.85
▁criticiz	-10.8503
▁Athen	-10.8512
▁artistic	-10.8513
▁rotation	-10.8514
▁mechanic	-10.8515
▁sweet	-10.8517
▁psychological	-10.8518
▁intention	-10.8529
▁Histor	-10.8531
▁celebrate	-10.8537
▁2,000	-10.8538
▁weigh	-10.8545
▁emissions	-10.8548
well	-10.855
▁habit	-10.856
atrix	-10.8561
q	-10.8568
▁harder	-10.8569
▁icon	-10.8569
▁asteroid	-10.857
▁jurisdiction	-10.857
▁Librar	-10.857
▁Hebrew	-10.857
▁Gulf	-10.857
▁mainstream	-10.8571
▁nerve	-10.8571
▁superior	-10.8573
▁activist	-10.8577
▁gravity	-10.8578
end	-10.8579
▁integer	-10.8588
▁collaboration	-10.8589
▁documentar	-10.8603
rtex	-10.8605
▁Camp	-10.8617
▁systematic	-10.8626
▁enabl	-10.8626
▁courts	-10.8628
▁adaptation	-10.8628
▁Ch	-10.8633
wa	-10.8638
▁sad	-10.8639
▁considerabl	-10.8647
▁accus	-10.8653
ale	-10.8659
▁mayor	-10.8663
▁plac	-10.8669
▁contest	-10.8676
▁alumin	-10.8677
▁afterward	-10.8678
▁Su	-10.8678
▁valid	-10.8691
▁hurt	-10.8694
▁Clinton	-10.8694
▁characteriz	-10.8698
▁Anderson	-10.8711
▁Office	-10.8716
00,000	-10.8717
▁pig	-10.8722
▁forever	-10.8726
▁absence	-10.8729
▁tube	-10.8729
▁dogs	-10.8731
▁h	-10.8731
tion	-10.8735
▁Abou	-10.8737
▁Frankl	-10.874
▁ex	-10.8742
▁anxiety	-10.8745
▁retir	-10.8745
town	-10.8748
▁hir	-10.875
▁Five	-10.8756
▁finance	-10.8757
▁highway	-10.8758
▁Lo	-10.8761
▁Standard	-10.8765
▁wisdom	-10.8766
▁wake	-10.8768
▁guide	-10.8773
▁geometr	-10.8778
▁guid	-10.8781
▁Lewis	-10.8783
▁god	-10.8789
ph	-10.8801
▁mortality	-10.8803
▁programme	-10.881
▁barrier	-10.8819
no	-10.8823
▁click	-10.8833
▁raw	-10.8836
▁prosper	-10.8837
▁vocal	-10.8838
▁Town	-10.8839
▁cup	-10.885
▁sharp	-10.8853
▁pocket	-10.8855
▁tone	-10.8858
▁tip	-10.8865
rice	-10.8867
ide	-10.8873
▁intense	-10.8873
▁medication	-10.8874
▁Lee	-10.8877
▁Hi	-10.8884
▁minority	-10.8885
▁Open	-10.8893
j	-10.8897
▁partners	-10.8901
▁Azerbaijan	-10.8905
pon	-10.8905
▁conversion	-10.891
▁feedback	-10.891
irginia	-10.8914
▁advocate	-10.8914
▁brilliant	-10.8914
▁Lu	-10.8917
of	-10.8918
▁statue	-10.8919
▁trigger	-10.8928
▁exploration	-10.8937
▁bits	-10.8943
▁smooth	-10.8946
▁guilt	-10.8946
▁voting	-10.8946
▁championship	-10.8947
og	-10.8948
▁Ph	-10.8951
▁airline	-10.8955
vi	-10.8959
▁Actual	-10.8968
ac	-10.8976
▁button	-10.8976
▁Bulgaria	-10.898
work	-10.8981
▁accomplish	-10.8981
▁infantry	-10.8985
▁economist	-10.8986
▁Hum	-10.8998
▁hell	-10.8999
▁isotope	-10.9001
▁consum	-10.9001
▁kick	-10.9002
▁milk	-10.9003
▁renam	-10.9003
▁blow	-10.9013
▁Free	-10.9019
▁Festival	-10.902
▁Twitter	-10.902
▁Federal	-10.902
▁axis	-10.9026
ivity	-10.9034
▁Cypr	-10.9038
▁elephant	-10.9038
▁trillion	-10.9039
▁norm	-10.9041
▁tune	-10.9041
▁separation	-10.9043
▁visitor	-10.9046
▁laboratory	-10.9047
▁Reform	-10.9051
di	-10.9055
▁debut	-10.9057
▁Buddhist	-10.9057
▁Water	-10.9058
▁cry	-10.9058
▁stranger	-10.906
▁bet	-10.9065
▁grammar	-10.9075
▁Computer	-10.9077
▁conclude	-10.908
▁scan	-10.908
ester	-10.908
▁accompanie	-10.9084
▁crown	-10.9094
▁commitment	-10.9094
▁Bridge	-10.9095
▁dose	-10.91
▁Web	-10.9105
▁tea	-10.9113
▁Liberal	-10.9114
▁peer	-10.913
▁distant	-10.9131
▁crack	-10.9131
▁purchas	-10.9131
▁Brian	-10.9132
▁destination	-10.9132
▁logo	-10.9134
▁boundar	-10.9134
▁Native	-10.9136
5,000	-10.9139
▁Out	-10.9139
place	-10.914
▁offering	-10.9142
nmark	-10.9145
▁Mar	-10.9151
cellular	-10.9157
▁solo	-10.9162
▁associate	-10.9165
▁emphasis	-10.9168
▁pounds	-10.9176
▁execut	-10.9176
▁Dominican	-10.919
▁burning	-10.9199
▁alien	-10.9199
field	-10.9201
▁Austria	-10.9203
▁Mc	-10.9204
▁scholar	-10.9204
▁crucial	-10.9205
▁confuse	-10.9205
▁rang	-10.9209
▁proceed	-10.9221
▁implication	-10.9225
▁Ala	-10.9226
▁stroke	-10.9228
▁entitle	-10.9234
ney	-10.9238
▁stands	-10.9241
▁Alfred	-10.9243
▁Corporation	-10.9243
▁heads	-10.9247
▁wing	-10.9252
▁fle	-10.9255
let	-10.9274
▁photos	-10.9277
▁predator	-10.9283
▁bias	-10.9287
▁ill	-10.9293
▁eliminat	-10.9294
▁extinct	-10.9295
▁elite	-10.9298
▁Governor	-10.9299
▁hopeful	-10.9304
▁Philip	-10.9307
▁Bang	-10.9308
▁Antarctic	-10.9318
▁franchise	-10.9318
▁Stephen	-10.9318
▁Ten	-10.932
▁translate	-10.932
▁Arthur	-10.9326
me	-10.933
▁folk	-10.9332
▁Communist	-10.9333
ow	-10.9335
▁District	-10.9337
▁separat	-10.9339
▁keyboard	-10.9339
▁linguistic	-10.934
OS	-10.9343
art	-10.9344
▁bow	-10.9345
nel	-10.9345
▁Marine	-10.9346
▁Cal	-10.9346
▁configuration	-10.9357
▁raid	-10.9358
sea	-10.9372
▁emerge	-10.9373
▁attribut	-10.9377
▁Audi	-10.9379
▁dinner	-10.9395
▁recall	-10.9396
▁pleasure	-10.9399
▁outer	-10.9408
▁Give	-10.9411
▁Record	-10.9412
▁neutron	-10.9414
▁terrorist	-10.9415
▁synthetic	-10.9415
▁towns	-10.9422
▁momentum	-10.9428
▁Field	-10.9433
▁batter	-10.9443
▁initiat	-10.9446
▁favour	-10.9449
▁chamber	-10.9452
▁harvest	-10.9452
▁printer	-10.9457
▁99	-10.9465
▁thick	-10.9467
▁Pe	-10.947
▁shooting	-10.9471
▁beetle	-10.9471
▁breaking	-10.9479
ot	-10.948
▁120	-10.9484
▁oh	-10.9486
▁arrival	-10.9488
▁participant	-10.949
orea	-10.9491
▁Chad	-10.9494
anda	-10.9497
▁influenc	-10.9507
▁horizontal	-10.951
▁quote	-10.9515
althcare	-10.9519
▁grandmother	-10.952
▁vital	-10.9529
▁colon	-10.9531
dium	-10.9532
▁95	-10.9545
back	-10.9545
▁metaphor	-10.9548
▁concentrat	-10.9548
▁receptor	-10.9548
▁specializ	-10.955
▁Chief	-10.9551
ag	-10.9551
angular	-10.9555
▁Ages	-10.9556
▁poll	-10.9556
▁hide	-10.9564
▁exile	-10.9568
▁arise	-10.9574
▁Bol	-10.9576
▁observer	-10.9586
▁CEO	-10.9588
sterda	-10.959
▁Ra	-10.9591
▁relief	-10.9607
▁eggs	-10.9612
▁shoot	-10.9617
▁possess	-10.9617
▁ti	-10.9618
▁Florid	-10.9626
▁synthesis	-10.9626
▁Development	-10.9627
▁comfortabl	-10.9629
ung	-10.9629
von	-10.9633
third	-10.9635
power	-10.9636
ence	-10.9643
▁limb	-10.9646
▁lens	-10.9646
▁Carolina	-10.9647
▁entry	-10.9648
▁creativ	-10.9649
▁Berkel	-10.9649
▁municipalit	-10.9655
▁stabilit	-10.9662
▁supporter	-10.9663
▁prefer	-10.9665
▁descendant	-10.9666
▁Road	-10.9666
▁competitive	-10.9666
ola	-10.9667
▁twenty	-10.9667
▁newly	-10.9673
▁expectation	-10.9675
mino	-10.9682
▁inequalit	-10.9684
▁joke	-10.9686
▁chip	-10.969
▁charit	-10.9698
▁nickname	-10.9705
▁guest	-10.9705
▁awareness	-10.9705
▁sale	-10.9711
▁battery	-10.9719
▁amateur	-10.9725
▁conquest	-10.9725
most	-10.9731
▁sophisticat	-10.9731
▁imagin	-10.9733
▁heal	-10.9748
▁shoulder	-10.9749
orrow	-10.9757
▁wider	-10.9764
▁Organization	-10.9764
▁shadow	-10.9767
▁insist	-10.9773
▁curious	-10.9784
▁Long	-10.9787
▁Sa	-10.9789
▁adventure	-10.9791
▁astronomer	-10.9804
▁weird	-10.9805
▁psycholog	-10.9805
▁economi	-10.9818
▁condom	-10.9824
▁par	-10.9832
W	-10.9836
▁statistical	-10.9842
▁Board	-10.9845
▁Operation	-10.9846
▁divine	-10.9851
▁shapes	-10.9857
▁grandfather	-10.9858
level	-10.9863
▁retreat	-10.9864
▁execution	-10.9869
▁Third	-10.9877
point	-10.9885
▁partial	-10.9886
CE	-10.9891
▁Bangladesh	-10.9901
▁Pro	-10.9901
▁mutual	-10.9905
▁skull	-10.9906
▁manual	-10.9907
▁Newton	-10.991
▁vi	-10.9922
▁surrender	-10.9924
▁monk	-10.9924
▁orbital	-10.9928
uth	-10.993
▁approache	-10.994
▁guarantee	-10.9944
▁copyright	-10.9945
▁dual	-10.9945
▁Brazilian	-10.9947
ster	-10.9951
▁Conservative	-10.9952
▁starr	-10.996
▁Bosnia	-10.9962
▁compet	-10.9965
▁Ari	-10.9979
all	-10.9981
▁confront	-10.9982
lic	-10.9982
▁chocolate	-10.9985
▁Golden	-10.9988
▁restriction	-10.9992
▁flu	-10.9999
▁Democrat	-11
▁assert	-11
▁loud	-11.0001
▁PC	-11.0003
▁whale	-11.0003
▁Audience	-11.0005
▁organize	-11.0009
▁undergo	-11.0018
▁whales	-11.0019
▁hence	-11.002
▁frequent	-11.0023
ise	-11.0025
▁graphics	-11.0026
▁Global	-11.0033
▁Come	-11.0046
▁cinema	-11.0046
▁editor	-11.0048
▁fusion	-11.0052
▁alleged	-11.0054
▁worri	-11.0061
▁Square	-11.0066
▁drain	-11.0066
▁immune	-11.0066
▁dreams	-11.0075
▁treaty	-11.0077
▁Baptist	-11.008
▁1900	-11.0082
▁Se	-11.0084
▁Would	-11.0086
▁replacement	-11.0091
ew	-11.0093
▁vegetable	-11.0107
▁routine	-11.0107
▁chicken	-11.0107
▁index	-11.0108
▁Santa	-11.0112
ootball	-11.0115
▁pollution	-11.0129
▁Tiger	-11.0129
▁graduat	-11.0133
▁swimm	-11.014
▁tag	-11.0142
▁fighter	-11.0144
▁preserve	-11.0145
▁syndrome	-11.0149
Channel	-11.0149
▁highlight	-11.015
▁initiative	-11.015
▁Mean	-11.0157
▁observe	-11.016
▁scor	-11.0163
▁technological	-11.0168
▁jail	-11.0169
▁specimen	-11.0169
▁compact	-11.0169
ustice	-11.0169
▁partnership	-11.017
▁sensitive	-11.0178
▁voter	-11.0179
▁suppress	-11.0189
▁shut	-11.0189
▁marry	-11.0191
▁lyric	-11.0196
tech	-11.0196
▁perceiv	-11.0205
ight	-11.0209
▁Education	-11.021
▁Daniel	-11.021
▁judgment	-11.021
▁Mike	-11.0218
▁rescue	-11.022
BC	-11.0222
▁punishment	-11.0232
▁migration	-11.0233
▁rebel	-11.0239
class	-11.024
▁Land	-11.0242
▁Tim	-11.0243
▁sacrifice	-11.0247
▁laugh	-11.0251
▁dust	-11.0262
▁melt	-11.0263
IC	-11.0265
tra	-11.0265
▁trait	-11.0269
▁cattle	-11.0273
▁coat	-11.0273
BA	-11.0276
▁Ali	-11.0282
▁sin	-11.0285
▁Bel	-11.0292
▁chloroplast	-11.0293
▁Home	-11.0298
▁agency	-11.03
ab	-11.0303
▁Ministr	-11.0314
▁Sara	-11.0321
▁tear	-11.0323
▁apple	-11.0323
▁arrang	-11.0326
▁capita	-11.0327
ied	-11.0331
▁designat	-11.0331
▁stack	-11.0336
▁Alpha	-11.0336
▁constitutional	-11.0336
▁philosophical	-11.0337
▁farming	-11.0343
▁prey	-11.0344
▁Cold	-11.0348
▁agenc	-11.035
▁app	-11.035
▁fascinating	-11.0353
▁empower	-11.0354
▁polar	-11.0355
▁cardinal	-11.0356
▁constitute	-11.0357
▁surgeon	-11.0361
▁bann	-11.0361
▁package	-11.0363
ure	-11.0365
▁doors	-11.0366
▁stadium	-11.0374
▁puzzle	-11.0377
do	-11.0382
▁cruiser	-11.0386
▁logical	-11.0387
▁prayer	-11.0389
▁portrait	-11.0391
▁dictionar	-11.0398
▁cash	-11.0399
▁clip	-11.0404
▁Port	-11.0406
▁Wood	-11.0407
rose	-11.0416
▁heaven	-11.0419
▁terminal	-11.0422
▁silence	-11.0423
▁tight	-11.0425
nt	-11.0432
▁grass	-11.0435
adelphia	-11.0441
▁dialogue	-11.0441
▁cousin	-11.0441
▁Mount	-11.0441
▁bronze	-11.0442
▁cord	-11.0443
▁cement	-11.0443
▁craft	-11.0448
▁rose	-11.0455
▁criteri	-11.0462
▁neck	-11.0462
▁tournament	-11.0463
▁inflation	-11.0463
▁laser	-11.0463
▁longest	-11.0471
▁presentation	-11.0471
house	-11.0473
ric	-11.0479
▁ski	-11.048
▁Belgi	-11.0481
cus	-11.0482
▁Captain	-11.0483
▁reef	-11.0483
▁gods	-11.0485
▁downtown	-11.0488
▁possession	-11.0488
▁Show	-11.0491
kay	-11.0494
▁mile	-11.05
▁productive	-11.0501
▁Number	-11.0504
▁holiday	-11.0504
▁lunch	-11.0505
▁Nigeria	-11.0505
▁silk	-11.0505
▁accessibl	-11.0507
▁nurse	-11.0515
pa	-11.0516
tts	-11.0525
▁cuisine	-11.0526
▁shark	-11.0526
raising	-11.0527
ex	-11.0528
▁instant	-11.0541
▁pen	-11.0541
▁monaster	-11.0547
cher	-11.055
▁entertainment	-11.0551
down	-11.0559
▁wage	-11.0562
▁sorr	-11.0565
▁tens	-11.0568
▁ancestr	-11.0569
▁shall	-11.0572
▁danc	-11.0589
▁Byzantine	-11.059
western	-11.0602
▁descend	-11.0603
▁computation	-11.0608
▁shore	-11.061
▁dismiss	-11.0612
▁innovative	-11.0612
▁Commodore	-11.0612
▁admit	-11.062
dom	-11.0628
▁MIT	-11.0633
▁Window	-11.0633
▁rocks	-11.0636
bama	-11.0656
▁meal	-11.0658
ut	-11.066
▁alliance	-11.067
▁parliament	-11.0673
▁Inde	-11.0675
▁bike	-11.0676
▁Ancient	-11.0677
▁consonant	-11.0677
▁dolphin	-11.0677
▁ruling	-11.0677
▁Massac	-11.0678
▁negotiation	-11.0679
▁ignor	-11.0681
▁demonstration	-11.0683
stone	-11.0683
▁teenager	-11.0683
enya	-11.0686
▁altitude	-11.0687
▁Conference	-11.0699
ennedy	-11.0699
▁Corps	-11.0701
▁embrace	-11.0702
▁nose	-11.0703
▁meaningful	-11.0706
▁guard	-11.0712
▁Napoleon	-11.072
▁mystery	-11.0721
▁sponsor	-11.0723
▁notation	-11.0723
▁membership	-11.0725
▁rocket	-11.0727
▁grid	-11.0733
▁optical	-11.0734
kin	-11.0739
racing	-11.074
▁inhabit	-11.0742
ob	-11.0742
▁shoes	-11.0753
▁crossing	-11.0755
gar	-11.076
▁Securit	-11.0764
▁Polic	-11.0766
▁hang	-11.0769
▁lands	-11.0769
▁confiden	-11.078
▁follower	-11.0781
▁spark	-11.0786
▁Testament	-11.0786
win	-11.0787
▁Har	-11.0793
gie	-11.0794
▁pit	-11.0795
▁entit	-11.08
▁restor	-11.0802
▁resign	-11.0805
▁hum	-11.0807
▁drove	-11.0808
▁coalition	-11.0808
▁joy	-11.0808
▁partially	-11.0811
ropical	-11.0814
▁edit	-11.0816
ke	-11.0827
ka	-11.0829
▁orange	-11.083
▁permission	-11.0831
▁inventor	-11.0831
▁Sh	-11.0834
▁digit	-11.0835
▁underly	-11.0837
▁fee	-11.084
▁birthday	-11.0847
▁boundary	-11.0852
▁Obama	-11.0854
▁evolve	-11.087
▁Forest	-11.0872
▁inevitabl	-11.0874
▁skeleton	-11.0876
ava	-11.0877
▁unexpected	-11.0878
▁Childre	-11.088
▁explor	-11.088
▁da	-11.0881
▁sixth	-11.0882
▁mice	-11.0884
▁fled	-11.0886
▁ethical	-11.0886
▁Augustin	-11.0888
▁borrow	-11.089
▁tale	-11.089
▁bees	-11.0892
▁fabric	-11.0892
rd	-11.0895
▁educat	-11.0896
▁balloon	-11.0897
▁predominant	-11.0898
long	-11.0904
▁Wi	-11.0908
▁Ha	-11.0916
▁axiom	-11.0918
▁prompt	-11.0918
▁sacred	-11.0919
ana	-11.0919
▁Countr	-11.0921
▁Rod	-11.0925
▁worship	-11.0931
▁steal	-11.0936
▁Hav	-11.0939
▁aesthetic	-11.0941
▁scatter	-11.0941
▁modification	-11.0941
▁implie	-11.0941
▁55	-11.0944
▁Clark	-11.0944
vill	-11.0944
▁hat	-11.0945
▁strain	-11.0948
▁Live	-11.0959
▁nitrogen	-11.0963
ga	-11.0964
▁luna	-11.0964
▁engagement	-11.0967
▁extinction	-11.0969
▁matche	-11.0976
cal	-11.0982
▁realm	-11.0983
pe	-11.0983
▁chimpanzee	-11.0985
80	-11.0987
▁legacy	-11.0991
▁Line	-11.0992
▁ban	-11.0996
▁captain	-11.1008
▁pregnan	-11.1009
▁trans	-11.1024
▁privacy	-11.103
▁knock	-11.103
▁preparation	-11.1033
▁pour	-11.1037
▁pitcher	-11.1038
▁thermal	-11.1049
▁neutral	-11.1053
▁inherent	-11.1053
▁earthquake	-11.1053
▁hub	-11.1053
▁br	-11.1055
▁transmitt	-11.1055
▁distinctive	-11.1056
ez	-11.1057
▁rear	-11.1057
▁cosm	-11.1065
▁coordinat	-11.1068
▁piano	-11.1075
▁Example	-11.1075
▁feeding	-11.1078
▁forgot	-11.1082
▁armor	-11.1085
▁5,000	-11.1086
▁Balti	-11.1088
▁ethic	-11.1089
sance	-11.109
▁astronaut	-11.1098
▁vacuum	-11.1098
▁Portug	-11.1098
▁spacecraft	-11.11
▁heritage	-11.1107
▁applie	-11.1109
▁Hu	-11.1118
▁supplement	-11.1121
▁throne	-11.1121
▁Abraham	-11.1121
▁capabilit	-11.1131
▁Building	-11.1134
▁Muhamm	-11.1143
▁dis	-11.1146
▁calci	-11.1146
accurac	-11.115
▁Beck	-11.1152
▁approval	-11.1152
eastern	-11.1155
wide	-11.1156
hip	-11.1156
▁anchor	-11.1166
▁operational	-11.1173
▁grave	-11.1175
unk	-11.1177
▁verse	-11.1178
▁resemble	-11.1178
▁Defens	-11.1183
▁prohibit	-11.1191
▁52	-11.1192
▁profile	-11.1193
▁ongoing	-11.12
▁significan	-11.1203
▁struggl	-11.1205
▁ammoni	-11.1207
▁resolve	-11.121
▁adjust	-11.121
▁propose	-11.1211
▁ear	-11.1212
ictoria	-11.1212
▁mild	-11.1213
▁personalit	-11.1213
▁lifestyle	-11.1214
▁Special	-11.1215
▁diplomatic	-11.1215
▁microbe	-11.1215
▁carrie	-11.1216
▁provision	-11.1222
▁consume	-11.1227
▁250	-11.1229
▁exceed	-11.1229
▁anniversar	-11.1231
▁ruin	-11.1235
▁Russel	-11.1235
▁signature	-11.1235
▁reactor	-11.1241
▁hip	-11.1251
▁Social	-11.1257
▁profession	-11.1261
▁Bear	-11.1267
▁Polan	-11.1277
▁mess	-11.1278
atre	-11.1279
▁organisation	-11.1283
▁Bowl	-11.1285
▁symmetr	-11.1287
lu	-11.1288
▁penalt	-11.1292
▁phenomena	-11.1296
▁genu	-11.1297
▁render	-11.1302
▁ruler	-11.1303
BI	-11.1312
▁knee	-11.1313
▁metric	-11.1316
▁memori	-11.1318
▁voices	-11.1323
▁strand	-11.1333
▁golden	-11.1335
▁occupation	-11.1336
▁arrow	-11.1344
▁republic	-11.1348
lan	-11.135
▁password	-11.1351
▁gray	-11.1351
▁Communit	-11.1368
▁rush	-11.1368
eus	-11.1373
▁offensive	-11.1374
▁jazz	-11.1374
▁subset	-11.1374
▁unclear	-11.1374
▁illustrate	-11.1377
▁warning	-11.138
▁gate	-11.1382
▁algebraic	-11.1387
latest	-11.1391
▁autonomous	-11.1394
tenance	-11.14
▁Stone	-11.141
▁Gar	-11.1414
▁drum	-11.1415
▁rhythm	-11.1424
▁Polis	-11.1428
▁computational	-11.1431
▁floating	-11.1431
▁Han	-11.1436
eign	-11.1444
▁Hugh	-11.1445
▁passionate	-11.1446
▁shorter	-11.1447
▁auto	-11.145
wealth	-11.1451
▁clinic	-11.1451
▁Mass	-11.1453
▁None	-11.1457
▁restore	-11.1457
▁diagnosi	-11.1459
▁gase	-11.1461
▁Ed	-11.1467
▁circular	-11.1467
▁rebellion	-11.1471
▁beside	-11.1477
▁mail	-11.1485
▁adjacen	-11.1491
▁drill	-11.1494
▁knowing	-11.1504
▁bio	-11.1506
▁capabilities	-11.1507
▁wings	-11.1508
▁protocol	-11.1514
▁primitive	-11.1514
▁loose	-11.1515
▁obes	-11.1517
▁Mexican	-11.152
▁Fin	-11.1522
▁wars	-11.1528
play	-11.153
▁robotic	-11.1537
▁hormone	-11.1538
▁Base	-11.1548
▁Moor	-11.1552
▁suburb	-11.1558
▁Eisen	-11.1562
▁authentic	-11.1563
▁Bush	-11.1566
rine	-11.1567
▁Thanks	-11.1569
▁Bot	-11.1569
aeda	-11.1574
▁AI	-11.1576
▁Aja	-11.1579
▁Pennsylvania	-11.1585
▁Argentin	-11.1588
AM	-11.1589
stock	-11.1595
▁payment	-11.1598
▁anger	-11.16
speak	-11.1601
▁rap	-11.1604
▁charter	-11.1607
▁administer	-11.1609
▁Railway	-11.161
▁Basque	-11.1612
▁Walter	-11.1613
▁undern	-11.1614
▁Serbia	-11.1615
▁taxe	-11.1621
▁Br	-11.163
esse	-11.1631
▁Swedish	-11.1633
▁temporar	-11.1633
▁busy	-11.1638
▁promotion	-11.1639
▁Bruc	-11.1639
▁liver	-11.1643
▁covering	-11.1644
lbert	-11.1644
▁limitation	-11.1645
▁vice	-11.1645
▁Pan	-11.1647
▁cur	-11.165
▁bind	-11.1654
▁infant	-11.1655
▁thanks	-11.1655
▁cyber	-11.1657
▁toilet	-11.1658
tadium	-11.166
01	-11.1665
huse	-11.167
▁51	-11.1677
▁deliberate	-11.1681
▁prophet	-11.1681
▁essence	-11.1681
▁homes	-11.1686
▁tri	-11.1687
▁Talk	-11.1687
wana	-11.1688
anish	-11.1692
20	-11.1699
▁Profess	-11.1705
▁suspend	-11.1705
▁Swiss	-11.1705
▁Current	-11.1705
▁overcome	-11.1705
▁hill	-11.1707
▁pole	-11.1707
▁Max	-11.1708
▁golf	-11.1711
▁Area	-11.1711
port	-11.1721
▁drama	-11.1728
▁behave	-11.173
▁crush	-11.173
▁dress	-11.1731
▁proton	-11.1735
▁pathway	-11.1736
▁prepare	-11.174
▁publicly	-11.1741
▁coloni	-11.1743
▁gut	-11.1743
▁ignore	-11.1745
▁Dublin	-11.1753
▁Father	-11.1753
▁Croatian	-11.1754
▁deck	-11.1756
▁Dartmo	-11.1759
▁Guard	-11.1763
▁denote	-11.177
▁Gi	-11.1775
▁afternoon	-11.1777
▁architectural	-11.1778
▁unemploy	-11.1778
he	-11.1781
▁permitt	-11.1785
▁Mont	-11.1792
▁controller	-11.1793
▁binding	-11.1801
▁revolt	-11.1802
▁defect	-11.1802
▁explosion	-11.1802
▁veteran	-11.1802
▁racial	-11.1802
▁bomber	-11.1811
▁swim	-11.1815
▁nutrient	-11.1815
witzer	-11.1821
▁Territor	-11.1826
▁mosquito	-11.1826
▁deserve	-11.1826
▁ACL	-11.1826
liv	-11.1828
▁Near	-11.183
ile	-11.1833
▁tribe	-11.1835
▁Cor	-11.1839
▁Ea	-11.1841
▁Elizabeth	-11.1848
▁owners	-11.1852
nce	-11.1856
▁engag	-11.1859
▁invite	-11.186
▁delivery	-11.1867
▁merchant	-11.1875
▁Austrian	-11.1878
▁Bulgarian	-11.1879
▁ideolog	-11.188
▁peaceful	-11.1885
▁playoff	-11.1885
▁Top	-11.1889
▁comprise	-11.1891
▁Ray	-11.1892
,500	-11.1895
▁developer	-11.1898
▁determin	-11.1899
▁stupid	-11.1899
▁Natural	-11.19
▁mutation	-11.19
▁abortion	-11.19
▁retirement	-11.1901
▁Miller	-11.1908
sky	-11.191
ik	-11.192
▁th	-11.1921
▁Tony	-11.1921
BS	-11.1922
▁Caesar	-11.1924
▁ticket	-11.1924
▁Could	-11.1928
▁orchestra	-11.1928
▁Hell	-11.1929
iego	-11.193
▁Does	-11.1935
rctic	-11.1935
oc	-11.1945
▁erect	-11.1947
▁archaeolog	-11.1948
▁parameter	-11.1949
▁Light	-11.195
▁Fame	-11.195
▁exhaust	-11.1952
25	-11.1956
▁ca	-11.1956
▁noun	-11.196
▁smoke	-11.1966
▁vari	-11.1966
hower	-11.1973
▁embedded	-11.1973
▁85	-11.1977
▁emphasize	-11.1987
eff	-11.1991
berg	-11.1995
▁clothes	-11.1996
▁semi	-11.1999
▁progressive	-11.2002
▁assistant	-11.2003
▁eliminate	-11.2006
▁strengthen	-11.2006
tually	-11.2009
▁Coca	-11.2013
ake	-11.2022
nna	-11.2022
▁steam	-11.2023
▁twelve	-11.2023
▁Dave	-11.2024
▁enterprise	-11.2029
om	-11.2029
▁indirect	-11.2029
▁programmer	-11.203
▁elaborate	-11.2042
per	-11.2042
▁hybrid	-11.2048
▁kitchen	-11.2048
▁Tru	-11.2048
▁wireless	-11.205
va	-11.2051
▁preced	-11.2053
▁Director	-11.2056
▁Rose	-11.2061
▁mis	-11.2064
▁permit	-11.2066
▁impos	-11.2068
▁Brussels	-11.2073
▁transaction	-11.2073
bo	-11.2076
▁priorit	-11.2082
▁virtue	-11.2085
▁Bengal	-11.2093
▁Barcelon	-11.2098
▁Angola	-11.2098
▁silent	-11.2098
▁boom	-11.2098
▁Post	-11.2098
▁Boeing	-11.2098
aide	-11.21
▁Deb	-11.21
ai	-11.21
▁creator	-11.211
▁proven	-11.2114
illa	-11.2117
▁Cameroon	-11.2123
▁fascinat	-11.2126
▁alternate	-11.2135
▁Eric	-11.2135
▁twin	-11.2135
▁beach	-11.2137
▁evening	-11.2147
▁helicopter	-11.2148
▁aggressive	-11.2148
▁compromise	-11.2148
▁admitted	-11.215
sh	-11.2156
erry	-11.2157
▁publisher	-11.2163
▁arbitrar	-11.2164
▁Da	-11.2165
ho	-11.217
zona	-11.2171
▁Hospital	-11.2173
▁abolish	-11.2173
▁miracle	-11.2173
▁Nature	-11.2174
▁Economic	-11.2174
▁decreas	-11.2176
▁Cooper	-11.2182
▁informal	-11.2188
▁champion	-11.2196
rot	-11.2197
space	-11.2198
▁Mississippi	-11.2198
▁Prior	-11.2198
▁iPhone	-11.2198
▁convey	-11.2199
▁preference	-11.2199
98	-11.2199
lf	-11.2204
▁automat	-11.2206
▁Amiga	-11.2224
▁Next	-11.2224
▁Lion	-11.2228
▁oxide	-11.2228
▁celebration	-11.223
od	-11.2233
▁Six	-11.2244
polar	-11.2246
▁diagram	-11.2249
▁Short	-11.2249
▁entrance	-11.225
nia	-11.225
▁Rena	-11.2254
▁algebra	-11.2258
▁incorporate	-11.2261
▁appoint	-11.2265
▁Alan	-11.2272
▁orientation	-11.2275
▁beam	-11.2276
▁biologist	-11.2277
▁battleship	-11.2278
▁Brother	-11.2281
▁Note	-11.2281
▁impression	-11.2285
▁descen	-11.2286
▁Cross	-11.2295
▁comfort	-11.2297
▁tomb	-11.2297
▁obstacle	-11.23
▁Cornwall	-11.23
▁essay	-11.23
▁Brave	-11.23
▁illusion	-11.23
▁chest	-11.2301
▁baptism	-11.2301
▁manufacture	-11.2308
▁equipp	-11.2308
▁imp	-11.231
CC	-11.2316
▁cannon	-11.2319
▁Gates	-11.232
▁merg	-11.2321
▁pursue	-11.2322
▁deni	-11.2323
ud	-11.2326
▁worn	-11.2327
▁chemist	-11.2327
▁Ta	-11.2329
▁Assyrian	-11.2331
▁Media	-11.2331
▁coverage	-11.2335
▁Abu	-11.2336
▁mm	-11.2336
▁fingers	-11.2337
uan	-11.2346
▁scenario	-11.2351
▁lady	-11.2352
ified	-11.2357
▁Pole	-11.2358
▁Israeli	-11.2363
▁burned	-11.2365
▁corn	-11.2374
▁Imperial	-11.2377
▁Michigan	-11.2377
▁abundant	-11.2377
▁Peace	-11.2377
▁spectra	-11.238
▁Georgia	-11.2382
roadway	-11.2388
▁refuse	-11.239
▁sp	-11.2393
mon	-11.2395
▁Beat	-11.2399
▁Tower	-11.2403
▁inscription	-11.2403
▁gear	-11.2405
▁Connecti	-11.2406
▁duty	-11.2412
▁flie	-11.2418
▁Main	-11.242
▁reliabl	-11.2427
ouTube	-11.2429
▁globe	-11.2429
▁spider	-11.2429
▁chaos	-11.2429
▁Pleas	-11.2429
▁canal	-11.243
▁Historical	-11.2444
▁schedule	-11.2447
▁tendency	-11.2449
▁Turn	-11.2449
▁folks	-11.2453
upiter	-11.2454
▁Brunei	-11.2455
▁painter	-11.2456
▁simulation	-11.2456
orean	-11.2457
▁leak	-11.2458
▁20,000	-11.2465
▁invad	-11.2469
▁suggestion	-11.2474
▁defence	-11.248
▁flash	-11.248
▁shelter	-11.248
▁mood	-11.2482
▁Donald	-11.2483
▁travell	-11.2484
▁handl	-11.2485
▁assistan	-11.2489
ople	-11.2492
▁Hol	-11.2493
▁denomination	-11.2495
▁Shah	-11.2495
pp	-11.2496
▁Command	-11.2497
▁renew	-11.2503
▁imag	-11.2505
▁surveillance	-11.2506
▁stole	-11.2507
▁Stanford	-11.2507
▁gross	-11.2507
▁download	-11.2508
▁Chapl	-11.2518
▁uncle	-11.253
▁imprison	-11.2533
▁outbreak	-11.2534
▁Dead	-11.2537
ersey	-11.2538
▁smok	-11.2541
▁Way	-11.2542
▁Rio	-11.2543
ee	-11.2547
▁damag	-11.2548
RA	-11.2551
▁recycl	-11.2553
▁goddess	-11.2559
ck	-11.256
▁Pi	-11.2572
▁50,000	-11.2574
ick	-11.2577
▁Samuel	-11.2585
stating	-11.2591
▁Rica	-11.2592
▁duti	-11.2593
▁Alli	-11.2598
abilities	-11.2598
▁Hey	-11.2603
cock	-11.2604
▁Catalan	-11.2612
▁balls	-11.2614
▁subtle	-11.2615
▁Song	-11.2616
sium	-11.2623
ren	-11.2629
▁Hungarian	-11.2629
▁excess	-11.2637
▁confusion	-11.2638
▁Wilson	-11.2638
gger	-11.264
onic	-11.2649
▁Cub	-11.2656
ice	-11.2658
irgin	-11.2664
▁Aberdeen	-11.2664
▁encode	-11.2664
▁angry	-11.2665
▁greenhouse	-11.2665
▁Design	-11.2666
▁Basic	-11.2666
▁integral	-11.2669
▁radiu	-11.267
▁basin	-11.2673
▁poison	-11.2674
▁detection	-11.2679
▁chronic	-11.2682
▁noble	-11.2687
▁productivit	-11.2689
▁cotton	-11.2691
car	-11.2695
▁Code	-11.2695
▁rebuild	-11.2698
▁Hungar	-11.2701
▁investigat	-11.2703
▁microscope	-11.271
▁Armenian	-11.2711
voted	-11.2711
▁Power	-11.2715
▁cocaine	-11.2717
▁barrel	-11.2719
▁revolutionar	-11.272
▁lock	-11.2721
▁tap	-11.2729
▁belt	-11.2729
▁remark	-11.274
az	-11.2743
▁Williams	-11.2744
▁settler	-11.2744
▁Manhattan	-11.2744
▁siege	-11.2744
▁Cayman	-11.2744
▁rent	-11.2746
▁Confederate	-11.2746
▁Letter	-11.2752
tory	-11.2753
▁analyz	-11.2754
▁acoustic	-11.2771
▁thumb	-11.2771
▁venue	-11.2771
▁automobile	-11.2771
▁genius	-11.2771
▁consent	-11.2771
▁Christopher	-11.2771
▁Mel	-11.2772
▁psychologist	-11.2772
▁ultra	-11.2774
▁readers	-11.2777
▁fastest	-11.2783
▁motivation	-11.2787
▁mytholog	-11.279
▁Wallac	-11.2793
▁happi	-11.2796
viation	-11.2797
▁palace	-11.2797
▁equilibri	-11.2798
▁Corn	-11.2804
▁algae	-11.2806
▁paradigm	-11.2807
▁Medica	-11.2809
▁earning	-11.2817
▁occupy	-11.2824
▁patron	-11.2824
▁interval	-11.2824
▁neural	-11.2824
▁intermediate	-11.2824
▁encrypt	-11.2825
▁venture	-11.2825
▁interactive	-11.2828
▁Stan	-11.2833
▁Gregor	-11.2835
▁wash	-11.2835
osaurus	-11.2841
▁poster	-11.2845
hu	-11.2847
▁athlete	-11.2851
▁plague	-11.2851
▁demographic	-11.2852
▁metropolitan	-11.2852
▁sink	-11.2853
▁falls	-11.2854
▁monument	-11.2866
ft	-11.2868
▁fulfill	-11.2878
▁congregation	-11.2878
▁Play	-11.2881
▁elevation	-11.2882
▁acknowledg	-11.2885
▁Death	-11.2886
▁romantic	-11.289
ero	-11.289
▁hack	-11.2897
▁Men	-11.2898
▁awesome	-11.29
▁succession	-11.2902
▁dive	-11.2905
▁Friday	-11.2905
▁flexibl	-11.2905
▁Business	-11.2905
▁Barry	-11.2909
born	-11.2909
stable	-11.2913
▁appreciate	-11.2915
▁Chi	-11.2918
▁worm	-11.2919
▁projection	-11.2919
heimer	-11.2922
▁replicate	-11.2923
▁investor	-11.2923
▁Abd	-11.2928
▁insert	-11.2929
▁humor	-11.2932
▁consensus	-11.2933
▁Saturn	-11.2933
▁costume	-11.2935
▁Station	-11.2936
▁smile	-11.2938
▁performer	-11.2945
▁fertil	-11.295
▁cultivat	-11.2958
▁Benjam	-11.296
▁polynomial	-11.296
▁facult	-11.296
hen	-11.296
▁behavioral	-11.2966
▁marks	-11.2972
▁Tor	-11.2976
▁lion	-11.298
▁800	-11.298
▁magnet	-11.2982
▁pronounc	-11.2984
▁Bishop	-11.2987
▁transplant	-11.2987
▁leap	-11.2987
▁labour	-11.299
ilitary	-11.299
worth	-11.2991
▁Nazi	-11.2993
elecommunication	-11.3015
▁immense	-11.3015
▁Master	-11.3015
▁overwhelming	-11.3017
▁Che	-11.3021
▁stepp	-11.3021
▁Ford	-11.3024
▁li	-11.3033
▁lit	-11.3036
foot	-11.3038
▁Trade	-11.3042
▁mask	-11.3042
▁queen	-11.3042
ankee	-11.3043
▁pulse	-11.3044
▁painful	-11.3046
▁moderate	-11.3048
free	-11.3053
che	-11.3055
▁Ever	-11.3055
air	-11.3058
▁triangle	-11.307
▁choos	-11.307
▁immigration	-11.307
▁Ann	-11.3071
▁Test	-11.3075
▁installation	-11.3075
▁symbolic	-11.308
▁pin	-11.3089
▁minimal	-11.3097
▁Order	-11.3098
▁awful	-11.3098
▁differential	-11.3098
▁enhance	-11.3105
ax	-11.3109
▁divorce	-11.3116
▁Night	-11.312
▁neuron	-11.312
▁situat	-11.3121
ja	-11.3122
▁Bah	-11.3125
▁warrior	-11.3125
▁funeral	-11.3125
▁laptop	-11.3125
▁assignment	-11.3129
▁Far	-11.3134
▁coup	-11.3143
▁survivor	-11.3147
▁Gene	-11.3147
▁condemn	-11.3153
▁rainforest	-11.3153
▁Claudi	-11.3153
▁fake	-11.3156
▁pr	-11.3158
mer	-11.316
▁settle	-11.3169
▁analyze	-11.317
ordan	-11.3176
▁reflection	-11.3177
▁intensit	-11.3179
▁judicia	-11.3181
▁coefficient	-11.3181
▁punch	-11.3181
▁Bernard	-11.3181
▁fame	-11.3183
▁Armenia	-11.3187
aseball	-11.3197
lin	-11.3197
atic	-11.3206
▁Girl	-11.3209
▁combusti	-11.3209
▁drone	-11.3209
▁GPS	-11.321
▁desperate	-11.3213
▁theatre	-11.3213
iana	-11.3214
▁trie	-11.3215
MT	-11.3217
broad	-11.3224
▁attraction	-11.3229
▁mate	-11.3229
▁Singapore	-11.3237
▁Anglo	-11.3237
▁shame	-11.3239
000	-11.3239
kind	-11.3241
▁Cuban	-11.3255
▁Cair	-11.3256
▁complain	-11.3261
▁pregnanc	-11.3264
▁clever	-11.3265
▁tongue	-11.3265
▁Fran	-11.3266
▁illustration	-11.3267
▁Fair	-11.3273
▁mothers	-11.3275
▁Inter	-11.3276
Col	-11.3278
ept	-11.3291
▁consecutive	-11.3293
▁traged	-11.3293
▁Finn	-11.3294
ari	-11.3297
arious	-11.3297
▁yester	-11.3301
NP	-11.3314
▁reconstruct	-11.3316
▁chips	-11.3317
▁Recent	-11.3321
▁Maria	-11.3321
▁slope	-11.3323
▁pile	-11.3325
▁Mother	-11.3327
▁ma	-11.333
▁acknowledge	-11.3342
after	-11.3347
▁clay	-11.3349
▁basketball	-11.335
▁froze	-11.3354
▁diagnos	-11.3365
▁Bern	-11.3366
▁Te	-11.3371
▁qualit	-11.3372
▁consideration	-11.3375
con	-11.3378
▁libert	-11.3378
▁bulk	-11.3378
▁textbook	-11.3379
▁northeast	-11.3379
▁perceive	-11.3385
▁proclaim	-11.3395
▁spell	-11.3395
▁windows	-11.3402
nfortunate	-11.3406
▁collision	-11.3406
▁naked	-11.3406
▁Centaur	-11.3406
force	-11.3408
▁Centre	-11.3411
▁Low	-11.3411
▁Germanic	-11.3429
▁punish	-11.3433
▁Concord	-11.3435
▁expense	-11.3435
▁plent	-11.3435
▁pursu	-11.3438
eum	-11.3446
▁accord	-11.3448
▁motivat	-11.3448
▁relativ	-11.3458
▁disability	-11.3461
▁personne	-11.3463
▁striking	-11.3463
▁BMW	-11.3466
▁galler	-11.3468
▁Tu	-11.3476
▁Seven	-11.3484
▁Ri	-11.3488
▁leather	-11.3492
▁Digital	-11.3492
▁unsuccessful	-11.3492
▁accent	-11.3492
▁kings	-11.3494
diff	-11.3499
▁residence	-11.35
ogether	-11.3502
▁spelling	-11.3504
▁pot	-11.3509
▁communist	-11.3513
▁uncertaint	-11.3516
▁decimal	-11.352
mir	-11.3522
▁precipitat	-11.3525
▁nominat	-11.3529
▁Report	-11.3532
lsh	-11.3544
▁facilitate	-11.3548
amaic	-11.3549
▁oxidati	-11.355
▁deficit	-11.355
▁plural	-11.355
▁deforest	-11.355
▁hook	-11.3551
▁trapp	-11.3551
▁ink	-11.3554
▁intersection	-11.3556
▁suck	-11.3564
▁rotat	-11.3565
▁En	-11.3566
▁blame	-11.3569
▁antibod	-11.3571
▁Along	-11.3573
▁Col	-11.3575
anc	-11.3576
▁remainder	-11.358
▁alpha	-11.358
▁Carne	-11.358
ronze	-11.3581
▁Brad	-11.3585
tz	-11.3585
▁friendship	-11.3585
▁1000	-11.3586
▁marker	-11.359
▁lane	-11.3593
▁Fort	-11.3602
▁convict	-11.3603
▁Late	-11.3604
▁secular	-11.3608
▁pace	-11.3608
▁Garden	-11.3608
▁prepar	-11.3609
▁terrain	-11.3609
▁sheep	-11.3612
▁triple	-11.3615
▁bombing	-11.3618
▁integration	-11.3619
▁Albanian	-11.3628
oice	-11.3629
▁attain	-11.3634
▁predecessor	-11.3637
▁renewable	-11.3641
▁mobil	-11.3643
▁fisher	-11.3654
har	-11.3655
▁58	-11.3656
▁Food	-11.3658
▁disagree	-11.3659
▁Original	-11.3664
FC	-11.3666
▁arithmetic	-11.3666
▁flourish	-11.3667
▁chess	-11.3667
ib	-11.3671
▁swing	-11.3678
▁mat	-11.368
▁photographer	-11.3681
▁pray	-11.3682
ball	-11.3682
▁animat	-11.3689
▁du	-11.3695
▁Transport	-11.3696
▁j	-11.3696
▁disrupt	-11.3699
opper	-11.3703
▁alloy	-11.3704
book	-11.3709
▁pet	-11.3711
▁pharmaceutical	-11.3712
▁constraint	-11.3714
▁fate	-11.3715
▁ray	-11.3718
15	-11.3719
hour	-11.3722
▁Bermud	-11.3724
▁Balkan	-11.3725
▁Language	-11.3725
▁honour	-11.3725
▁Spear	-11.3725
▁Chrys	-11.3725
abul	-11.3735
▁faction	-11.3737
▁cap	-11.3737
▁empath	-11.3742
ich	-11.3744
▁continuously	-11.3744
gne	-11.3751
▁radar	-11.3755
▁discrete	-11.3755
▁Down	-11.3755
▁endanger	-11.3755
▁DH	-11.3756
▁lamp	-11.3758
▁dominate	-11.3759
▁excellen	-11.3765
▁Adel	-11.3765
▁compris	-11.3765
▁Rand	-11.377
▁videos	-11.3773
▁Palac	-11.3773
▁charg	-11.378
▁bat	-11.378
▁contrar	-11.3783
▁eagle	-11.3784
▁internet	-11.3785
▁arsen	-11.3788
▁Cambodia	-11.3793
▁boxe	-11.3795
▁dancer	-11.3795
▁Sal	-11.3796
SD	-11.3807
▁hierarch	-11.3813
▁Movement	-11.3814
▁arc	-11.3815
▁PM	-11.382
▁Large	-11.3822
▁Calvin	-11.383
▁trail	-11.3833
▁acupunctur	-11.3835
▁grab	-11.384
▁mapping	-11.384
▁twist	-11.3844
▁jersey	-11.3844
▁Stalin	-11.3844
▁kidney	-11.3846
▁regiment	-11.3849
▁Roll	-11.3853
▁municipal	-11.386
▁nuclei	-11.3861
some	-11.3864
▁Mose	-11.3864
▁default	-11.3873
▁harsh	-11.3874
▁Freedom	-11.3874
▁sunlight	-11.3874
▁deem	-11.3882
▁destroyer	-11.3883
▁gathering	-11.3884
▁Sound	-11.3888
▁donor	-11.3888
▁bug	-11.3895
▁Ge	-11.3897
right	-11.3902
▁horizon	-11.3903
ears	-11.3904
▁undergraduate	-11.3904
▁Crow	-11.3904
▁fuse	-11.3912
▁Par	-11.3915
▁firing	-11.3916
▁disabl	-11.3917
eaten	-11.3923
▁attractive	-11.3931
▁flavor	-11.3933
▁vegetati	-11.3933
seas	-11.3936
ox	-11.3939
era	-11.3946
▁ears	-11.3956
▁mo	-11.3958
▁tactic	-11.3963
▁satisfy	-11.3964
▁gravitational	-11.3964
▁homosexual	-11.3964
▁legislature	-11.3964
▁stamp	-11.3965
br	-11.3967
▁compell	-11.3967
▁Shar	-11.3968
▁transit	-11.397
▁Ballar	-11.3974
▁fictional	-11.3982
▁Ram	-11.3984
▁scratch	-11.3994
▁Small	-11.3994
▁Taliban	-11.3994
▁jewel	-11.3994
▁pixel	-11.3994
▁Belgian	-11.3997
▁passive	-11.4005
▁Harr	-11.4006
▁stake	-11.4006
▁hire	-11.4008
made	-11.4016
▁div	-11.4018
▁Buddhis	-11.4023
▁lawsuit	-11.4024
▁catalyst	-11.4026
▁mentor	-11.4028
▁issu	-11.4037
sraeli	-11.4039
▁parking	-11.4044
olic	-11.4046
▁recognis	-11.4052
▁Douglas	-11.4054
▁shield	-11.4054
▁trajector	-11.4054
▁feather	-11.4055
▁Network	-11.4055
▁tribute	-11.4055
▁closing	-11.4058
▁Hous	-11.4058
▁Carol	-11.4061
▁figur	-11.4062
▁zoom	-11.4062
▁pretend	-11.4063
▁bowl	-11.4064
▁entrepreneur	-11.4071
▁periodic	-11.4072
▁failing	-11.4073
▁Welles	-11.4076
▁Crown	-11.4076
tro	-11.4081
▁devoted	-11.4082
abbage	-11.4084
▁dispers	-11.4084
uffalo	-11.4084
▁Choctaw	-11.4085
▁Croy	-11.4085
▁railroad	-11.4085
set	-11.4086
▁Cook	-11.4087
▁passe	-11.4094
▁arter	-11.4097
▁drought	-11.4102
▁specialist	-11.4104
udge	-11.4107
▁courage	-11.4114
▁Schwarz	-11.4116
▁defensive	-11.4116
▁agenda	-11.4116
▁astronomy	-11.4116
▁boss	-11.4117
▁uncertain	-11.412
▁northwest	-11.4122
▁specifi	-11.4126
▁presum	-11.4127
▁Lama	-11.4128
▁anonymous	-11.4131
acob	-11.4141
▁neighbour	-11.4146
▁Palestinian	-11.4146
▁distill	-11.4146
▁counterpart	-11.4146
ienna	-11.4148
▁Agenc	-11.4154
▁cylinder	-11.4162
▁Fund	-11.4163
▁Tenn	-11.4169
▁bend	-11.417
tooth	-11.4173
▁dishe	-11.4174
▁modest	-11.4176
▁Cap	-11.4177
▁breakthrough	-11.4177
▁Fox	-11.4179
▁rubber	-11.418
▁parliamentar	-11.4183
▁Inc	-11.4183
▁Athena	-11.4185
bacterial	-11.4187
▁mal	-11.4188
▁SS	-11.4188
▁detector	-11.419
▁module	-11.4201
▁Edi	-11.4204
▁pipe	-11.4207
icity	-11.4211
▁Anne	-11.4212
▁dragon	-11.4213
▁Tour	-11.4217
▁borough	-11.4217
▁hunter	-11.4231
owie	-11.4234
ea	-11.4234
▁pyramid	-11.4239
▁recipe	-11.4239
▁resort	-11.4239
▁scope	-11.4239
▁Federation	-11.424
▁Bron	-11.424
▁oral	-11.425
▁terroris	-11.4254
wi	-11.4254
▁Charle	-11.4255
▁harmon	-11.4257
▁dissolv	-11.4257
▁receiver	-11.4261
▁fl	-11.4265
▁Band	-11.4265
▁warn	-11.4266
hus	-11.4267
▁cheese	-11.427
▁saint	-11.427
▁Stock	-11.4271
▁hitting	-11.4273
▁artwork	-11.4273
▁Tell	-11.4273
▁Dayton	-11.4276
▁compiler	-11.4286
▁implant	-11.4286
▁flee	-11.4292
▁decisive	-11.4295
▁organis	-11.4297
▁Haiti	-11.4299
▁Disney	-11.4301
▁Machine	-11.4301
▁ecological	-11.4302
▁cheat	-11.4302
▁Devon	-11.4303
uchy	-11.4304
ating	-11.4305
▁terror	-11.4307
▁weekend	-11.4308
▁submitt	-11.4321
▁acquire	-11.4321
▁Southeast	-11.4323
▁Si	-11.4325
▁Traditional	-11.4326
▁filmmaker	-11.4326
▁mad	-11.4327
▁prevail	-11.4332
▁decorat	-11.4333
▁Thai	-11.4333
▁trends	-11.4335
▁Iranian	-11.4335
▁headline	-11.434
▁dignit	-11.4341
▁instrumental	-11.4344
ect	-11.4349
▁clouds	-11.4356
▁Saturday	-11.4364
▁abundance	-11.4364
▁ceiling	-11.4364
▁sensation	-11.4365
alai	-11.4367
▁frontier	-11.437
▁Classical	-11.4371
▁shopp	-11.4372
▁canon	-11.4373
▁globally	-11.4376
▁chains	-11.4378
▁casualt	-11.4379
▁boring	-11.4386
▁blend	-11.439
▁Bee	-11.4392
bell	-11.4393
▁autonom	-11.4393
▁Gro	-11.4393
aba	-11.4394
▁fortunate	-11.4395
▁Summer	-11.4395
▁tribal	-11.4395
▁curiosity	-11.44
▁revival	-11.44
venge	-11.44
▁precis	-11.4401
▁retail	-11.4402
▁regulate	-11.4404
▁gland	-11.441
ndustrial	-11.4421
▁breathe	-11.4422
▁Fried	-11.4423
▁entrepreneurs	-11.4423
▁transparent	-11.4427
▁Fr	-11.4427
▁reporter	-11.4429
▁Dick	-11.4431
▁defining	-11.4445
-2	-11.4448
▁burst	-11.4449
▁pant	-11.4451
light	-11.4453
▁torture	-11.446
▁medal	-11.4465
▁Albania	-11.4469
inches	-11.4475
▁Ban	-11.4475
▁dig	-11.4478
▁accelerat	-11.4479
ami	-11.4489
▁static	-11.449
▁exclud	-11.4491
▁camps	-11.4494
▁Grant	-11.4494
▁Plan	-11.4497
▁98	-11.4497
▁merger	-11.4513
erg	-11.452
▁furniture	-11.4522
▁onward	-11.4522
▁aggregate	-11.4524
▁Nel	-11.4524
▁rivalr	-11.4535
▁gentlem	-11.4535
▁mold	-11.4539
▁presiden	-11.4539
▁southwest	-11.4541
▁Direct	-11.4543
▁RNA	-11.4549
▁chas	-11.4549
▁Labor	-11.4552
▁calculus	-11.4554
▁Bak	-11.4554
▁wavelength	-11.4554
▁flaw	-11.4555
▁et	-11.4555
▁Wow	-11.4555
18	-11.4556
▁bitter	-11.4562
▁1929	-11.4564
▁Pass	-11.4566
▁Back	-11.4569
▁cow	-11.457
▁Dela	-11.4571
fa	-11.4572
cos	-11.4572
▁Bali	-11.4573
▁Nova	-11.4574
▁atmospher	-11.4575
▁provider	-11.4576
arl	-11.458
▁Child	-11.458
▁integrate	-11.4583
▁Typical	-11.4586
▁explosive	-11.4586
▁frank	-11.4586
▁Sab	-11.4586
▁southeast	-11.4587
▁hoped	-11.4588
▁Airline	-11.4589
▁cease	-11.4589
▁palm	-11.459
▁flame	-11.4591
02	-11.4596
▁Indonesia	-11.4597
▁Na	-11.4597
▁radioactiv	-11.4597
▁heir	-11.4599
▁anatom	-11.4605
magne	-11.4615
▁burden	-11.4618
▁frog	-11.4618
▁Lynch	-11.4618
▁specification	-11.4618
▁boil	-11.4619
tor	-11.4619
▁cargo	-11.4622
▁shirt	-11.4623
▁pose	-11.463
▁autobiograph	-11.4632
▁biograph	-11.4636
▁fortune	-11.4643
▁magical	-11.4643
▁Avenue	-11.465
▁Sultan	-11.465
▁spontaneous	-11.465
▁thread	-11.465
▁identification	-11.4651
▁masse	-11.4651
▁selective	-11.4657
▁wheat	-11.4658
▁readi	-11.4663
▁reasonable	-11.4664
▁wedding	-11.4669
▁Sho	-11.4671
related	-11.4675
▁span	-11.4681
▁culminat	-11.4683
rzego	-11.4683
▁cipher	-11.4683
▁valve	-11.4683
99	-11.4685
oh	-11.4686
▁Engineer	-11.4689
-19	-11.4694
▁Bat	-11.4705
▁Has	-11.4711
PL	-11.4716
▁correspondence	-11.4716
▁diagnostic	-11.4716
▁Damas	-11.4716
▁1910	-11.4717
▁Rule	-11.4718
▁Often	-11.4718
▁needle	-11.472
ency	-11.4723
▁tubes	-11.4723
▁assess	-11.4727
▁quit	-11.4729
itler	-11.4733
lah	-11.4743
▁rifle	-11.4748
▁snake	-11.4748
▁Bret	-11.4748
cott	-11.4753
ournal	-11.4754
▁Wolf	-11.4757
▁genetically	-11.4757
▁schedul	-11.4758
▁console	-11.4762
▁pink	-11.4762
source	-11.4767
08	-11.4777
▁leaf	-11.478
▁boiling	-11.4781
vina	-11.4782
▁Athenian	-11.4783
▁violation	-11.4783
▁generic	-11.4784
▁Marshal	-11.4786
entity	-11.4786
▁singular	-11.4787
▁legally	-11.4789
▁ambitio	-11.4792
▁slot	-11.4794
▁lighter	-11.48
▁Bond	-11.4801
fast	-11.4801
▁Control	-11.4804
▁MP	-11.4805
zo	-11.4806
▁container	-11.4811
▁Put	-11.4812
▁Castle	-11.4813
▁clergy	-11.4813
▁relax	-11.4813
▁exit	-11.4814
▁CIA	-11.4815
▁scholarship	-11.4815
▁desk	-11.4819
ronto	-11.4821
▁cosmolog	-11.4827
▁Francis	-11.4828
▁seventh	-11.4831
▁powder	-11.4832
hem	-11.4833
▁belonging	-11.4833
▁ranking	-11.4838
▁Soon	-11.484
▁dye	-11.484
▁fed	-11.4843
▁Student	-11.4846
▁behaviour	-11.4846
▁robust	-11.4846
▁enforce	-11.4846
▁Cat	-11.4847
▁comparative	-11.4848
▁contaminat	-11.4849
▁Rather	-11.4851
▁Ab	-11.4856
▁prince	-11.486
▁Slav	-11.4868
MD	-11.4871
holy	-11.4873
▁Simon	-11.4879
phrodi	-11.4879
▁Peninsula	-11.4879
▁petrol	-11.4879
▁dispos	-11.488
▁Model	-11.4881
▁convenient	-11.4881
▁polymer	-11.4883
▁proportional	-11.4887
ids	-11.4887
uk	-11.4888
speed	-11.4891
▁dish	-11.4895
▁chloride	-11.4896
izing	-11.4909
▁vocabular	-11.4912
▁clue	-11.4912
▁conspirac	-11.4912
▁spectacular	-11.4913
▁1890	-11.4914
▁weaken	-11.492
▁Burk	-11.4923
▁killer	-11.4927
▁decid	-11.4928
▁fatal	-11.4929
▁donat	-11.493
▁Rum	-11.493
craft	-11.4931
▁emergence	-11.4934
together	-11.4936
▁scann	-11.4936
▁bid	-11.4936
▁bod	-11.4936
ouri	-11.4937
▁suppose	-11.494
hmer	-11.494
aday	-11.4941
▁meta	-11.4943
▁luxur	-11.4945
▁migrant	-11.4945
▁practitioner	-11.4945
▁Dragon	-11.4946
▁excite	-11.4948
▁hunger	-11.4949
world	-11.495
▁declaration	-11.4957
ually	-11.4963
▁Cave	-11.4963
▁Start	-11.4969
▁pill	-11.497
▁Region	-11.4973
▁CE	-11.4974
▁regain	-11.4979
▁Winter	-11.4979
▁pointed	-11.4979
▁examin	-11.499
season	-11.4995
▁graphic	-11.4999
▁Dar	-11.5008
sburg	-11.5011
▁Nichol	-11.5012
▁Temple	-11.5012
▁biodivers	-11.5012
▁competitor	-11.5012
▁garbage	-11.5012
▁Mosco	-11.5012
▁riot	-11.5012
▁Cyril	-11.5014
▁Andalusia	-11.5014
awa	-11.5015
▁rape	-11.5017
▁Spring	-11.5022
ep	-11.5027
▁update	-11.5031
▁horses	-11.5033
▁cube	-11.5034
▁Rememb	-11.5039
▁pursuit	-11.5046
▁1880	-11.5048
▁dependenc	-11.5058
▁confident	-11.5061
law	-11.5066
▁compatible	-11.5067
▁missionar	-11.5067
ura	-11.5072
▁Illinois	-11.5079
▁fantasy	-11.5079
▁Cowboy	-11.5079
▁outdoor	-11.5079
▁squadron	-11.5079
▁submarine	-11.508
▁diesel	-11.508
▁memorial	-11.5082
use	-11.5084
DI	-11.5084
▁camel	-11.5084
▁AOL	-11.5092
wing	-11.5093
▁hid	-11.5093
ague	-11.5094
▁isolation	-11.51
▁uncomfortabl	-11.5113
▁Initial	-11.5113
▁legitimate	-11.5114
▁designation	-11.5114
oid	-11.5114
ank	-11.5114
▁upward	-11.5121
▁Defen	-11.5122
▁emission	-11.5124
▁Eve	-11.5128
▁practic	-11.5132
▁keys	-11.5136
▁Manch	-11.5136
▁regulator	-11.5141
▁regulat	-11.5142
▁gesture	-11.5147
oven	-11.5148
▁Ru	-11.5159
▁cele	-11.5161
▁burial	-11.5163
▁alkali	-11.5171
▁inject	-11.5174
▁eleven	-11.5181
▁cream	-11.5181
▁cabinet	-11.5182
▁im	-11.5183
▁Compa	-11.5188
▁screening	-11.5189
▁castle	-11.5192
▁sensory	-11.5202
EC	-11.5212
▁Wild	-11.5214
▁Mormon	-11.5215
▁horror	-11.5215
▁fault	-11.5215
▁grounds	-11.5216
▁Data	-11.5217
▁BAS	-11.5217
▁attendance	-11.522
▁Canal	-11.522
▁servant	-11.5221
▁carve	-11.5222
PA	-11.5226
▁Marc	-11.5228
▁BG	-11.523
▁Front	-11.5249
▁civic	-11.5249
▁discharge	-11.5249
▁Modul	-11.525
▁Nick	-11.525
▁populat	-11.525
▁Lady	-11.5251
▁corrupt	-11.5256
▁feminist	-11.526
▁Ethiopia	-11.5263
▁intuitive	-11.5264
▁impress	-11.5269
▁suitabl	-11.5269
▁horn	-11.527
▁rotate	-11.5273
▁lineage	-11.5282
▁manipulate	-11.5282
▁reproduction	-11.5284
▁genuine	-11.5284
▁acute	-11.5285
▁residential	-11.5286
▁plasma	-11.5287
92	-11.5287
▁comprehensive	-11.5287
▁farmer	-11.5289
iv	-11.5297
▁AB	-11.53
09	-11.5301
tat	-11.5307
▁broader	-11.5311
▁diabetes	-11.5318
▁Dallas	-11.5318
▁brutal	-11.5318
▁adequate	-11.5318
▁Medicine	-11.5318
▁Studie	-11.5318
▁angel	-11.5319
▁transmit	-11.532
▁Pa	-11.5332
▁millenni	-11.5337
▁Woma	-11.5338
▁methan	-11.5341
▁praise	-11.5348
▁viral	-11.5353
▁mysterious	-11.5354
▁horrible	-11.5355
▁Higgs	-11.5355
▁texture	-11.5356
▁assassination	-11.5357
▁withdrawal	-11.536
▁2020	-11.536
meter	-11.5361
▁59	-11.5368
▁originate	-11.5369
▁eighth	-11.537
▁elementary	-11.5372
▁inhibit	-11.5373
▁injured	-11.5374
▁ugl	-11.5377
▁Stein	-11.5379
▁sword	-11.538
▁declare	-11.5385
▁internationally	-11.5387
▁bin	-11.5387
▁prospect	-11.5388
▁Aar	-11.5388
▁footprint	-11.5388
▁capitalist	-11.5389
▁ought	-11.5389
▁Fall	-11.5391
ki	-11.5392
▁supervis	-11.5394
doption	-11.5398
▁Solar	-11.5398
ator	-11.54
▁Minor	-11.5401
▁88	-11.5407
▁flip	-11.541
ron	-11.5412
scent	-11.5414
▁switched	-11.5415
▁destin	-11.542
▁endur	-11.5422
▁pirate	-11.5422
▁larva	-11.5423
▁unifi	-11.5428
▁1951	-11.5433
und	-11.5435
ade	-11.5436
▁sel	-11.5439
▁jur	-11.5439
▁volcan	-11.5448
ttle	-11.5449
▁tropic	-11.5454
▁paradox	-11.5457
▁artifact	-11.5457
▁fraud	-11.5457
▁glacier	-11.5457
▁Saudi	-11.5458
▁Ches	-11.5458
pro	-11.5459
▁chairman	-11.5461
▁restoration	-11.5462
▁probe	-11.5462
▁badly	-11.5472
▁shots	-11.5483
▁Cha	-11.5483
▁egg	-11.5484
▁Get	-11.5485
▁Nothing	-11.5489
▁smartphone	-11.5493
▁adverse	-11.5493
▁pigment	-11.5493
▁Barn	-11.5495
▁Anyway	-11.5495
▁substitute	-11.5502
▁Fire	-11.5502
▁incentives	-11.5509
▁accidental	-11.5512
90	-11.5513
▁rulers	-11.5514
evin	-11.5519
spring	-11.5525
▁locked	-11.5525
European	-11.5525
▁AL	-11.5526
▁humanitarian	-11.5528
▁Taiwan	-11.5528
▁affiliate	-11.5528
▁Leonard	-11.5528
▁terrestrial	-11.5529
▁circulation	-11.5531
▁nomination	-11.5533
▁vibration	-11.5536
eb	-11.5549
▁MS	-11.5553
▁utility	-11.556
▁intuition	-11.5563
▁helmet	-11.5563
▁annex	-11.5563
▁Motor	-11.5563
▁foster	-11.5564
▁dump	-11.5564
▁trap	-11.5567
▁lesser	-11.5568
▁investigate	-11.5568
▁accommodate	-11.5569
▁reconstruction	-11.5569
▁successive	-11.5573
▁Poi	-11.5576
itu	-11.5579
▁refin	-11.5582
profit	-11.5595
promising	-11.5599
▁sulfur	-11.5601
▁welcome	-11.5604
▁Abbe	-11.5605
▁2.	-11.5605
own	-11.5607
21	-11.561
▁lone	-11.5611
▁Chian	-11.5622
▁concentrate	-11.5629
▁utter	-11.5633
ellar	-11.5634
▁Agricultur	-11.5634
▁grace	-11.5634
▁optimistic	-11.5636
▁Still	-11.5637
▁commentar	-11.5638
11	-11.5646
▁tech	-11.566
▁bead	-11.5662
▁trauma	-11.5669
▁unprecedented	-11.567
▁sediment	-11.567
OL	-11.5671
▁depress	-11.5672
▁Matt	-11.5673
▁explorer	-11.5674
▁Norman	-11.5678
▁tolerance	-11.5691
dah	-11.5693
▁log	-11.5694
ov	-11.5702
boron	-11.5703
▁200,000	-11.5705
▁acquisition	-11.5706
▁provinc	-11.5706
aux	-11.5707
eep	-11.5707
bath	-11.5707
▁goat	-11.5708
TP	-11.5712
▁Plato	-11.5714
▁antisemiti	-11.5718
50,000	-11.5722
▁dri	-11.5722
▁reproduce	-11.5734
▁realistic	-11.5734
▁Ah	-11.5736
ko	-11.5737
▁bats	-11.5739
▁diminish	-11.5742
▁Cardinal	-11.5742
▁astronomical	-11.5742
feld	-11.5742
▁Sudan	-11.5743
▁battlefield	-11.5743
▁examination	-11.5745
▁Comic	-11.5746
▁wondered	-11.5749
▁bath	-11.5754
▁Province	-11.5755
▁tackle	-11.5755
avier	-11.5758
▁1.	-11.5762
ix	-11.5763
▁hydro	-11.5767
▁Cre	-11.5768
▁Fas	-11.5769
▁obsess	-11.577
cation	-11.577
▁employer	-11.5772
▁Sydney	-11.5778
▁coyote	-11.5778
▁penguin	-11.5778
▁potato	-11.5778
▁transparency	-11.5779
▁bankruptc	-11.5779
▁mandate	-11.578
▁blog	-11.578
▁regret	-11.5782
▁1,	-11.5783
▁Cool	-11.5783
▁Laborator	-11.5784
▁Baku	-11.5784
▁sw	-11.5787
▁Bau	-11.5791
▁darkness	-11.5792
▁Ci	-11.5795
▁vapor	-11.5797
▁spray	-11.5799
harma	-11.5799
▁ha	-11.58
▁archive	-11.5801
▁educate	-11.5804
88	-11.5809
▁brigade	-11.5814
▁Article	-11.5814
▁mosque	-11.5814
▁Frederick	-11.5814
▁entrop	-11.5814
▁ab	-11.5818
▁dice	-11.5823
▁ASC	-11.5825
▁hanging	-11.583
▁bell	-11.5831
▁Robin	-11.5833
▁Monte	-11.5838
box	-11.5844
▁align	-11.5846
▁calculator	-11.585
▁Bohemia	-11.585
▁Philippine	-11.5851
▁decree	-11.5851
nformation	-11.5852
▁Pat	-11.5852
81	-11.5852
▁numeral	-11.5853
,	-11.5855
iness	-11.5858
▁exceptional	-11.5859
▁consult	-11.586
▁spare	-11.5864
uli	-11.5877
▁Alex	-11.5877
▁Allen	-11.588
▁bullet	-11.5881
▁shap	-11.5885
▁plug	-11.5886
▁pupil	-11.5887
▁ladies	-11.5887
▁drift	-11.5888
▁fears	-11.589
▁heavier	-11.5891
▁discontinu	-11.5893
▁frustrat	-11.5894
▁licens	-11.5895
ional	-11.5903
lia	-11.5906
▁Gra	-11.5909
▁tired	-11.591
▁withdraw	-11.5911
▁backwards	-11.5914
▁NP	-11.5919
▁prestig	-11.5923
▁thirty	-11.5923
▁proposition	-11.5924
▁parish	-11.5925
▁hazard	-11.5927
▁anticipat	-11.5927
▁institute	-11.5927
▁globalization	-11.593
▁composite	-11.5933
enic	-11.5935
▁conception	-11.5936
▁premier	-11.594
▁tile	-11.5942
▁shake	-11.5943
▁curl	-11.5951
▁Critic	-11.596
▁Diamond	-11.596
▁Electric	-11.596
▁Point	-11.5962
▁Canter	-11.5963
▁bearing	-11.5963
▁commit	-11.5963
▁Oak	-11.5964
▁bold	-11.5965
▁mill	-11.5974
PS	-11.5975
ple	-11.5976
▁admir	-11.5977
▁brave	-11.5977
oque	-11.5977
▁seiz	-11.5979
▁Af	-11.5987
▁Steven	-11.599
dos	-11.5993
▁cooperati	-11.5994
▁intent	-11.5997
▁glucose	-11.5997
▁temporari	-11.5997
▁departure	-11.5997
▁epic	-11.5997
▁syllable	-11.5997
▁Wayne	-11.5998
▁Milan	-11.5999
▁fever	-11.6001
▁diploma	-11.6002
▁Highway	-11.6003
▁elector	-11.6008
▁disco	-11.6015
oriented	-11.6018
ole	-11.602
▁boost	-11.6021
▁elevat	-11.6023
▁Ce	-11.6032
▁Goth	-11.6033
▁Morris	-11.6034
▁Carbon	-11.6034
▁redesign	-11.6034
▁halt	-11.6035
▁NGO	-11.6035
▁winds	-11.6039
ook	-11.6039
▁Bud	-11.604
▁polle	-11.6044
▁rings	-11.6044
▁helpful	-11.6055
ue	-11.6055
▁boot	-11.6058
och	-11.6063
▁demo	-11.6066
ury	-11.6069
▁Ti	-11.607
▁mimic	-11.607
▁disadvantage	-11.6071
▁NATO	-11.6071
▁Gaul	-11.6072
▁humid	-11.6072
▁appointment	-11.6074
▁territorial	-11.6076
▁Beside	-11.6076
CP	-11.6076
▁Davis	-11.6077
▁homeless	-11.6079
uke	-11.6084
▁drag	-11.6097
▁battles	-11.6107
▁Agripp	-11.6109
▁precursor	-11.6109
▁mud	-11.6109
chev	-11.6111
▁Warner	-11.6114
▁duration	-11.6114
▁geograph	-11.6123
NS	-11.6146
▁Shakespeare	-11.6146
▁stomach	-11.6146
▁pronunciation	-11.6146
▁crater	-11.6146
▁kg	-11.6149
ensus	-11.6151
▁injection	-11.6151
MI	-11.6153
▁farms	-11.6156
▁beating	-11.6157
alen	-11.6159
▁merc	-11.6161
ois	-11.6168
▁byte	-11.6177
▁Palestine	-11.6184
▁Anthon	-11.6189
bal	-11.6189
▁upgrade	-11.6193
▁Was	-11.6194
pend	-11.6194
▁exponential	-11.6196
89	-11.6197
▁depiction	-11.62
▁sh	-11.6202
▁sanit	-11.6207
nforcement	-11.6208
▁reactiv	-11.6209
▁upset	-11.621
rick	-11.6213
hop	-11.6216
▁Player	-11.622
▁antidepressant	-11.6221
▁encoding	-11.6222
mb	-11.6227
▁navigation	-11.6228
ba	-11.6229
▁chord	-11.623
▁reache	-11.6234
ger	-11.6234
▁tablet	-11.6238
95	-11.6238
chi	-11.6239
▁sovereign	-11.6239
▁Whe	-11.6245
▁persist	-11.6246
▁persuade	-11.6246
▁geographic	-11.6255
▁constituent	-11.6259
▁latitude	-11.6259
▁summit	-11.626
▁flesh	-11.626
▁expectanc	-11.626
▁Snow	-11.626
▁hungry	-11.6261
▁retire	-11.6262
▁delight	-11.6262
▁weakness	-11.6266
▁Case	-11.6274
▁albe	-11.6278
▁socialist	-11.6279
▁woode	-11.6285
▁Dioc	-11.6289
▁potas	-11.629
▁rope	-11.6294
▁Alp	-11.6295
▁pur	-11.6295
▁hills	-11.6297
▁Studio	-11.6297
▁knife	-11.6297
▁Agassi	-11.6297
▁Isaac	-11.6297
▁buffer	-11.6297
▁glue	-11.6298
stein	-11.6299
▁Dark	-11.6302
larges	-11.6303
▁geological	-11.6306
net	-11.6309
▁Syrian	-11.6312
Something	-11.6318
▁Lar	-11.6318
▁bombs	-11.6329
▁resurrect	-11.6333
ibn	-11.6335
▁monster	-11.6336
▁spatial	-11.6336
▁cardiac	-11.6336
▁impressive	-11.6337
▁blade	-11.6339
▁indication	-11.635
▁revis	-11.6353
rsenal	-11.6353
▁cavit	-11.6353
▁parasite	-11.6355
▁intensive	-11.6356
▁surpass	-11.6361
▁aspiration	-11.6369
▁negotiat	-11.6369
▁Ghana	-11.6373
▁intimate	-11.6374
▁militia	-11.6374
▁shrink	-11.6374
▁electrode	-11.6374
▁bump	-11.6375
▁Orange	-11.6375
▁kiss	-11.6375
▁dodo	-11.6378
▁evident	-11.6379
▁cello	-11.638
▁inning	-11.6382
▁soup	-11.6385
▁displac	-11.6385
▁Whit	-11.6386
▁microscop	-11.6387
▁relat	-11.6387
gom	-11.6387
▁End	-11.6388
▁seeming	-11.6388
▁silicon	-11.6391
bar	-11.6398
▁till	-11.6402
▁Harris	-11.6403
▁AM	-11.6405
▁Seattl	-11.6405
▁qualifi	-11.6408
▁IT	-11.6412
▁prevalent	-11.6412
munition	-11.6412
▁curriculum	-11.6412
▁Belize	-11.6413
clock	-11.6417
▁amber	-11.6418
zi	-11.6422
fully	-11.6423
are	-11.6423
▁Dam	-11.6425
▁incomplete	-11.6426
ui	-11.6432
▁Admiral	-11.6434
dministration	-11.6435
▁interrupt	-11.6435
▁Ross	-11.6437
▁examine	-11.6441
▁Titan	-11.6448
▁Belarus	-11.645
▁threshold	-11.6451
▁bore	-11.6456
▁Iron	-11.6457
▁Indo	-11.6461
being	-11.6463
▁gram	-11.6464
▁emitt	-11.6468
▁pause	-11.6475
▁brick	-11.6475
▁Mayor	-11.6477
▁Isle	-11.6482
▁marking	-11.6485
found	-11.6485
niverse	-11.649
▁ridiculous	-11.649
▁grasp	-11.649
▁voyage	-11.6491
▁mature	-11.6493
▁fur	-11.6499
▁penetrat	-11.6505
qui	-11.6511
▁secur	-11.6514
▁Hans	-11.6514
ario	-11.652
iki	-11.6521
▁preach	-11.6522
▁standardiz	-11.6524
▁activat	-11.6526
▁mon	-11.6527
idge	-11.6529
▁Bolivia	-11.6529
▁intact	-11.6529
▁Bach	-11.6529
▁Production	-11.6531
▁defendant	-11.6531
▁Hubb	-11.6531
▁del	-11.6532
▁mindset	-11.6532
▁contradiction	-11.6533
▁signing	-11.6537
stage	-11.6537
af	-11.6547
▁acre	-11.6547
▁serial	-11.6549
▁photon	-11.655
▁Memori	-11.6555
▁Rea	-11.6559
▁secretar	-11.656
ylan	-11.6561
▁depart	-11.6567
niversal	-11.6568
▁Beij	-11.6568
▁limestone	-11.6568
▁indoor	-11.6568
▁Alfons	-11.6568
▁yeast	-11.657
▁ease	-11.6572
▁conviction	-11.6574
▁Aaron	-11.6574
▁Cathe	-11.6581
▁cliff	-11.6588
▁sovereignt	-11.6589
0-	-11.6595
quality	-11.6595
witz	-11.66
▁embrac	-11.66
ureau	-11.6607
▁Artemis	-11.6607
▁obligation	-11.661
ram	-11.6612
▁Lenin	-11.6615
pit	-11.6615
▁recommendation	-11.6616
Sahara	-11.6616
▁Ni	-11.6619
CO	-11.6622
onald	-11.6623
anime	-11.6623
ett	-11.6627
▁starv	-11.664
▁augment	-11.6643
▁Balt	-11.6644
▁Phoenix	-11.6646
▁Taylor	-11.6646
▁drown	-11.6646
▁petition	-11.6646
▁sweep	-11.6646
▁jaw	-11.6646
▁Giant	-11.6647
▁retina	-11.6647
▁Euro	-11.6649
mm	-11.6651
▁inhibitor	-11.6657
pun	-11.6658
▁Carlo	-11.6659
▁urg	-11.6661
aff	-11.6663
mi	-11.6666
▁Arabia	-11.6669
▁correlation	-11.6675
oon	-11.6675
▁rigid	-11.6676
▁cop	-11.6678
rad	-11.6679
▁keeps	-11.6679
▁companion	-11.6681
children	-11.6682
▁Wil	-11.6683
▁monitoring	-11.6684
▁Symp	-11.6684
▁Sierra	-11.6686
▁dominance	-11.6686
▁torpedo	-11.6686
▁tragic	-11.6686
▁sperm	-11.6686
▁antenna	-11.6686
▁Communication	-11.6686
▁interference	-11.6686
icero	-11.6687
▁shout	-11.669
▁Pittsburg	-11.6691
▁indicator	-11.6698
white	-11.6701
▁activate	-11.6703
▁Corona	-11.6705
▁Cali	-11.6716
▁Pen	-11.6716
ock	-11.6724
▁Lawrence	-11.6725
▁spiral	-11.6725
efferson	-11.6726
▁primate	-11.6726
▁multiplication	-11.6727
▁collaborator	-11.6729
▁Gord	-11.6729
▁cooling	-11.6751
▁pie	-11.6755
▁float	-11.6759
▁antiquit	-11.6761
burgh	-11.6762
▁Fe	-11.6764
▁condens	-11.6765
▁anthropolog	-11.6765
▁Norwegian	-11.6765
▁precious	-11.6765
▁eternal	-11.6765
▁harmful	-11.6766
▁relie	-11.6767
▁bull	-11.6767
▁deny	-11.6768
▁fragile	-11.677
melting	-11.6771
▁com	-11.6773
▁communicat	-11.6777
▁innocent	-11.6778
▁rect	-11.6778
▁Bur	-11.6779
onso	-11.678
▁pav	-11.6782
IOS	-11.6786
▁obsole	-11.6796
▁mystic	-11.6799
▁friction	-11.6805
▁grateful	-11.6805
▁propagand	-11.6805
▁crude	-11.6805
▁workshop	-11.6807
▁Merc	-11.6807
▁Call	-11.6809
▁manipulation	-11.6809
▁blindness	-11.6812
▁Com	-11.6824
▁fence	-11.6826
party	-11.6831
band	-11.6832
▁contradict	-11.6841
▁revelation	-11.6845
▁dressed	-11.6853
▁vagina	-11.6857
▁ROM	-11.6864
▁escap	-11.6869
▁Program	-11.6873
▁melod	-11.6881
▁encouraging	-11.6886
▁mushroom	-11.6886
▁collage	-11.6886
▁Clear	-11.6886
▁Local	-11.6886
▁reinforc	-11.6887
▁guideline	-11.6887
▁cathedral	-11.6887
▁steady	-11.6891
enus	-11.6895
iro	-11.6901
irce	-11.6903
▁Peru	-11.6905
ark	-11.6907
05	-11.6915
▁mar	-11.6922
▁senator	-11.6926
▁garage	-11.6926
▁microphone	-11.6926
uck	-11.6933
▁counted	-11.6937
aged	-11.6945
▁Intel	-11.6945
▁Algeria	-11.6946
▁navigate	-11.6948
ellow	-11.6951
▁donation	-11.6958
ionic	-11.6962
▁distribute	-11.6963
saw	-11.6965
▁Consider	-11.6967
▁depriv	-11.6967
▁empirical	-11.6967
▁fierce	-11.6967
▁modify	-11.6967
▁Parkinson	-11.6967
▁battalion	-11.6967
▁Wright	-11.6968
▁excessive	-11.6969
▁expell	-11.6969
▁patch	-11.697
pson	-11.6972
ulian	-11.6986
▁conceptual	-11.6988
▁topolog	-11.6988
AF	-11.699
ori	-11.6992
▁Hand	-11.6993
▁dial	-11.6994
▁soap	-11.6999
▁nationalist	-11.7003
▁socially	-11.7005
elling	-11.7005
linear	-11.7006
velt	-11.7007
▁autumn	-11.7008
▁voltage	-11.7008
▁sequel	-11.7008
▁Chronicle	-11.7008
▁hostile	-11.7009
ison	-11.7011
lmost	-11.7012
▁loyalt	-11.7012
▁acceleration	-11.7014
▁analogous	-11.7014
▁tiger	-11.7014
▁nin	-11.7022
▁para	-11.7023
▁SI	-11.7024
▁monopol	-11.7025
▁Patric	-11.7027
▁accumulat	-11.7028
DSM	-11.7038
▁seasonal	-11.7044
ictorian	-11.7046
▁widow	-11.7049
▁emigrat	-11.7049
▁vacation	-11.7049
▁bulb	-11.7049
▁ministr	-11.7049
▁Murray	-11.7049
Beginning	-11.7049
▁reader	-11.705
▁authoriz	-11.705
▁der	-11.7052
form	-11.7055
ache	-11.7057
▁Regional	-11.7058
▁Head	-11.7066
mar	-11.7068
▁sketch	-11.7068
icular	-11.7068
SM	-11.7068
ives	-11.7073
▁alarm	-11.7076
▁Dre	-11.7076
▁geographical	-11.7076
▁inspiring	-11.7078
▁proxim	-11.7078
III	-11.7084
▁economical	-11.7086
▁makers	-11.7086
▁Babylon	-11.7088
▁Tri	-11.7089
▁Archbishop	-11.709
▁absorpti	-11.709
▁biblical	-11.709
▁pride	-11.709
▁Lutheran	-11.7092
ette	-11.7098
▁volcano	-11.7101
▁jet	-11.7108
▁Sports	-11.7108
isation	-11.7111
▁clone	-11.7113
▁slice	-11.7119
oo	-11.7119
ame	-11.712
▁enhanc	-11.712
▁Baham	-11.7122
85	-11.7125
fold	-11.713
ltimate	-11.7131
▁circumcis	-11.7131
▁thorough	-11.7131
▁conjunction	-11.7131
▁generous	-11.7132
▁axon	-11.7133
▁clar	-11.7133
▁migrat	-11.7137
▁Senator	-11.7138
▁Desert	-11.714
▁Independen	-11.7141
math	-11.7145
▁Canto	-11.7151
FA	-11.7152
elly	-11.7158
phi	-11.7166
dollar	-11.7168
SF	-11.717
▁psychiatr	-11.7172
liyah	-11.7172
▁advent	-11.7172
▁institutional	-11.7173
▁maneuver	-11.7173
▁Falcon	-11.7173
▁Shanghai	-11.7173
▁prescription	-11.7173
▁uranium	-11.7173
▁premise	-11.7173
▁steep	-11.7173
▁unconscious	-11.7173
▁collaborative	-11.7174
▁pH	-11.7175
▁bother	-11.7178
lium	-11.7184
▁width	-11.7187
uer	-11.7187
▁DC	-11.7191
▁Charli	-11.72
▁Week	-11.7204
▁quest	-11.7207
▁Ga	-11.7211
▁Spirit	-11.7212
caffein	-11.7214
▁Citizen	-11.7214
▁peasant	-11.7214
▁Brook	-11.7214
▁Picture	-11.7214
▁Story	-11.7214
▁Chapter	-11.7215
▁Plant	-11.7215
▁geo	-11.7215
▁Catalo	-11.7215
▁symphon	-11.7215
▁lett	-11.7224
▁Prussian	-11.7227
▁ego	-11.723
▁Press	-11.7236
▁Ex	-11.7238
▁commerc	-11.7238
rbert	-11.724
▁Op	-11.7249
onne	-11.725
▁planetary	-11.7254
▁Aa	-11.7256
uebec	-11.7256
▁nominal	-11.7256
▁casino	-11.7256
▁cruel	-11.7257
▁ferment	-11.7257
▁uprising	-11.7262
ain	-11.7265
fi	-11.7269
▁induce	-11.7269
▁bay	-11.7269
▁incorrect	-11.727
▁revision	-11.7272
ritage	-11.7282
▁92	-11.7283
iking	-11.7285
▁accelerate	-11.7286
▁actress	-11.7286
ucky	-11.7286
cene	-11.7287
▁vulnerabilit	-11.7289
▁Classic	-11.7293
▁Ash	-11.7295
▁Bald	-11.7298
▁Ptolem	-11.7298
▁ceramic	-11.7298
▁ubiquitous	-11.7298
▁memoir	-11.7298
▁Form	-11.73
▁shower	-11.7306
NES	-11.7308
DA	-11.7308
tta	-11.7312
lle	-11.7312
▁pound	-11.7313
▁Less	-11.7317
▁Rwanda	-11.7319
▁151	-11.732
▁ward	-11.7324
▁mines	-11.7336
ji	-11.7336
▁chiropract	-11.734
▁Agreement	-11.734
▁scandal	-11.734
▁pipeline	-11.7341
▁anthropologist	-11.7341
▁wrapp	-11.7345
▁overlook	-11.7346
▁spine	-11.7347
RC	-11.7349
▁heated	-11.7355
▁devastating	-11.7372
▁Babylonian	-11.7375
28	-11.7376
▁shin	-11.7376
▁relocat	-11.7377
rays	-11.7378
enezuela	-11.7383
▁Representative	-11.7383
▁wheelchair	-11.7383
▁pagan	-11.7383
▁textile	-11.7384
▁evaluation	-11.7386
▁Luther	-11.7388
▁Achille	-11.7388
phy	-11.739
ranch	-11.7393
▁Born	-11.7397
▁carbonate	-11.7405
▁Sue	-11.7406
▁cycl	-11.7414
AC	-11.7419
▁blank	-11.7425
▁acclaim	-11.7425
▁Word	-11.7425
▁Iceland	-11.7427
▁advocat	-11.7428
▁Mart	-11.7429
▁Homer	-11.7431
mony	-11.7433
▁execute	-11.7434
▁ensu	-11.7438
erson	-11.7438
ater	-11.7439
ase	-11.7439
ictor	-11.7443
▁compil	-11.7443
▁thrive	-11.7444
▁beta	-11.7449
▁equator	-11.7451
▁manifest	-11.746
omb	-11.7462
▁Emil	-11.7466
▁enact	-11.7466
▁fool	-11.7467
▁Mitchell	-11.7468
▁dopamine	-11.7468
▁screw	-11.7468
▁Different	-11.7468
▁inclusion	-11.7468
▁absent	-11.7468
▁vitamin	-11.7468
▁harbor	-11.7468
▁Consequen	-11.7468
▁Linux	-11.7468
▁Danub	-11.7469
▁electromagnetic	-11.7469
▁Flight	-11.747
▁differentiat	-11.7473
▁1850	-11.7475
▁Watt	-11.7478
continent	-11.7481
tis	-11.7481
eur	-11.7482
▁imply	-11.7487
CA	-11.7492
generation	-11.7493
▁Powel	-11.7496
een	-11.7498
ndex	-11.7498
▁treasure	-11.75
bourn	-11.75
▁exam	-11.7504
▁utiliz	-11.7508
▁Steel	-11.7511
▁pigeon	-11.7511
▁jelly	-11.7511
▁fox	-11.7512
▁geometric	-11.7514
ganda	-11.7517
▁rendering	-11.752
▁Authorit	-11.752
▁pad	-11.7522
ila	-11.7523
▁layout	-11.7526
▁bite	-11.7528
▁integr	-11.7536
▁sil	-11.7537
▁Era	-11.7537
10	-11.7537
▁vein	-11.7546
▁accompany	-11.7554
▁sibling	-11.7554
▁landmark	-11.7555
▁devil	-11.7556
▁Milk	-11.7556
arrow	-11.7556
▁List	-11.7559
▁Bab	-11.7562
Fi	-11.7565
▁psycho	-11.7568
▁clon	-11.7573
▁beneficia	-11.7575
▁chlorin	-11.7584
▁AA	-11.7586
▁Mid	-11.7588
▁cancel	-11.7588
▁identit	-11.7594
▁Michel	-11.7594
▁violin	-11.7596
▁IP	-11.7597
▁Alternative	-11.7597
▁Depressio	-11.7597
▁Tanzania	-11.7597
▁surplus	-11.7597
▁testimon	-11.7597
▁Brooklyn	-11.7597
▁marble	-11.7598
▁cue	-11.76
▁transcription	-11.7603
▁confin	-11.7606
▁Stra	-11.7608
▁tonne	-11.7611
▁MT	-11.7616
iel	-11.7616
▁Hitch	-11.7617
▁Euclid	-11.7619
ways	-11.762
▁compute	-11.7625
▁runner	-11.7626
▁assessment	-11.7628
▁sew	-11.7629
▁gel	-11.763
terol	-11.7634
gula	-11.7638
▁neglect	-11.7641
▁Gospel	-11.7641
▁Cheer	-11.7641
▁macro	-11.7641
▁Fres	-11.7643
▁ballot	-11.7643
▁resolv	-11.7646
▁cute	-11.7657
minute	-11.766
▁irregular	-11.7668
ilicon	-11.7669
▁Mom	-11.7673
▁prais	-11.7674
▁lend	-11.7674
▁endless	-11.7676
▁envelope	-11.7681
▁slum	-11.7684
▁dwarf	-11.7684
▁peninsula	-11.7684
▁timber	-11.7684
▁tuna	-11.7685
▁Floren	-11.7685
▁persecution	-11.7686
▁cartoonist	-11.7687
▁cake	-11.7687
▁Antoni	-11.769
▁atheist	-11.7691
arm	-11.7692
mp	-11.7696
orker	-11.7701
▁circulat	-11.7704
▁sweat	-11.772
athan	-11.7726
owing	-11.7728
▁dawn	-11.7728
▁polio	-11.7729
▁metabolism	-11.7729
▁spill	-11.7729
▁amendment	-11.773
▁beryl	-11.7733
▁Cros	-11.7738
▁lover	-11.7739
▁metre	-11.7742
tention	-11.7747
▁Basel	-11.7754
▁cooperat	-11.7755
run	-11.7762
▁conceiv	-11.7764
▁Raven	-11.7765
▁Make	-11.777
▁justify	-11.7771
▁embryo	-11.7772
▁neuroscien	-11.7772
▁Magazine	-11.7772
▁Rhine	-11.7772
▁Wikipedia	-11.7772
▁prosthetic	-11.7772
▁sensitivit	-11.7772
▁recipient	-11.7772
▁shallow	-11.7773
▁admission	-11.7773
▁Had	-11.7776
▁duck	-11.7777
CM	-11.7778
▁speculation	-11.7778
▁Spee	-11.778
bul	-11.7797
▁genocide	-11.7806
▁Northwest	-11.7806
▁yards	-11.7807
▁inverse	-11.7807
▁bleed	-11.7809
▁Heart	-11.781
▁responsibilit	-11.7815
▁negotiate	-11.7816
▁Cypriot	-11.7817
▁clarinet	-11.7817
▁Dickens	-11.7817
▁cholera	-11.7817
▁determinant	-11.7818
▁Linnae	-11.7818
▁Laden	-11.7818
▁AS	-11.7824
SC	-11.7825
▁termin	-11.7825
▁anarchist	-11.7827
▁beaten	-11.7829
▁accumulate	-11.7834
enter	-11.7834
▁urge	-11.7837
▁Brun	-11.7839
▁reside	-11.7839
▁rebuil	-11.7839
▁chemotherap	-11.7847
▁attest	-11.7851
ES	-11.7852
▁Independent	-11.7854
▁twentieth	-11.7855
▁lith	-11.7856
▁loyal	-11.7856
▁verbal	-11.786
▁Anatolia	-11.7861
▁ambassador	-11.7861
▁Place	-11.7861
▁bathroom	-11.7861
kraine	-11.7861
▁anthem	-11.7862
▁Mandel	-11.7862
▁Candid	-11.7863
▁Alexi	-11.7863
▁disagreement	-11.7864
▁Guinea	-11.7865
▁complaint	-11.7867
▁stressed	-11.7869
▁discriminat	-11.787
▁outward	-11.7872
CD	-11.7877
standing	-11.7878
rban	-11.7879
▁Saga	-11.7884
▁ironic	-11.7886
elian	-11.7889
width	-11.789
▁Auto	-11.7892
▁Certain	-11.7906
▁Continent	-11.7906
▁emphasiz	-11.7906
▁Train	-11.7907
▁Christie	-11.7908
▁guards	-11.7909
ough	-11.7909
▁abbreviation	-11.7909
▁Trust	-11.7912
pox	-11.7913
▁whil	-11.7918
▁brass	-11.7921
▁beef	-11.7925
posed	-11.7929
▁axe	-11.793
▁impose	-11.7931
uff	-11.7931
▁ambition	-11.7935
▁Ball	-11.7935
▁Brand	-11.7937
handed	-11.7938
grad	-11.7941
ouver	-11.7942
▁qualify	-11.7951
▁Double	-11.7951
▁theological	-11.7951
▁scripture	-11.7952
▁deaf	-11.7953
▁Rail	-11.7955
▁oversee	-11.7963
▁Class	-11.7963
▁forbidd	-11.7964
▁subjective	-11.7966
▁outline	-11.7967
MA	-11.7969
▁devis	-11.7981
var	-11.7982
aw	-11.7982
dus	-11.7989
▁distort	-11.7991
▁specify	-11.7996
▁attorney	-11.7996
▁fabulous	-11.7996
▁oppose	-11.7996
▁Margar	-11.7997
▁reception	-11.7997
▁solub	-11.8007
▁owe	-11.8008
▁workplace	-11.8013
▁Daily	-11.8016
▁Bavaria	-11.802
▁blast	-11.8023
▁Dund	-11.803
inu	-11.8031
ev	-11.8033
▁Subsequent	-11.8041
▁Oriole	-11.8041
▁cricket	-11.8041
▁Monday	-11.8041
▁Oscar	-11.8041
▁flank	-11.8041
▁desktop	-11.8041
▁approximation	-11.8041
ides	-11.8041
▁Phillip	-11.8041
▁tricks	-11.8043
oshu	-11.8044
▁leverage	-11.8054
▁Pasc	-11.8062
▁equit	-11.8062
▁beache	-11.8065
▁Side	-11.8068
▁updat	-11.8071
▁Walk	-11.8073
▁efficac	-11.8075
▁evolv	-11.8081
▁Dal	-11.8082
▁Matthew	-11.8086
▁shrimp	-11.8086
▁stunt	-11.8086
▁Craig	-11.8087
nese	-11.8088
base	-11.8088
sex	-11.8089
▁1800	-11.8094
▁summar	-11.8096
▁intrinsic	-11.8101
▁gang	-11.8103
▁lo	-11.8107
▁shortage	-11.811
▁25,000	-11.811
▁beans	-11.8111
▁Mill	-11.8113
rix	-11.8119
▁ext	-11.8125
pped	-11.8126
▁voluntary	-11.8128
▁sympath	-11.8132
▁Archimede	-11.8132
▁Executive	-11.8132
▁certificate	-11.8132
▁subsidiar	-11.8132
▁warehouse	-11.8132
▁purple	-11.8132
▁Druze	-11.8132
violet	-11.8132
▁juice	-11.8132
▁benzodiazepine	-11.8132
▁renown	-11.8132
▁Contra	-11.8133
urosa	-11.8134
▁900	-11.8135
▁browser	-11.8141
▁germ	-11.8153
bola	-11.8162
▁subsid	-11.8166
▁Bru	-11.8174
▁conform	-11.8176
quatic	-11.8177
▁Eagle	-11.8178
▁evacuat	-11.8178
▁bundle	-11.8178
▁pathogen	-11.8178
▁vertebrate	-11.8179
▁Marx	-11.8179
▁discriminati	-11.8179
▁pope	-11.818
▁peripheral	-11.818
▁trash	-11.8181
▁cabin	-11.8182
▁DEC	-11.8183
hov	-11.8184
▁problematic	-11.8184
▁ignoran	-11.8185
can	-11.8186
▁Hope	-11.819
nergy	-11.8192
immy	-11.8201
▁vest	-11.8201
▁astrolog	-11.8201
ze	-11.8203
▁Nine	-11.8203
▁ridge	-11.8205
athedral	-11.8206
outh	-11.8208
holm	-11.8208
▁teenage	-11.8211
▁collector	-11.8213
55	-11.8215
▁enroll	-11.8222
▁overlap	-11.8223
▁cubic	-11.8224
▁remnant	-11.8224
▁Television	-11.8224
▁Spider	-11.8224
▁athletic	-11.8224
▁steer	-11.8224
▁cache	-11.8226
▁sanction	-11.8226
ohnny	-11.8228
screen	-11.8229
▁pan	-11.8229
▁stimulation	-11.8231
▁batt	-11.8232
▁consolidat	-11.8232
▁freez	-11.8233
▁Leo	-11.8237
▁Mission	-11.8239
▁sampl	-11.8239
▁Except	-11.8243
▁Tibetan	-11.8245
▁Hart	-11.8247
▁fortress	-11.8249
lit	-11.8251
▁assisted	-11.8253
▁pond	-11.8257
▁81	-11.8265
bacc	-11.8266
▁alchem	-11.827
▁Affair	-11.827
▁theologian	-11.827
▁multiply	-11.827
▁honey	-11.827
▁correlate	-11.827
▁Watson	-11.8271
▁calorie	-11.8271
▁breakfast	-11.8271
▁announcement	-11.8272
▁calm	-11.8272
▁Panama	-11.8272
▁addiction	-11.8276
▁rod	-11.8277
range	-11.8279
▁translator	-11.8279
▁zoo	-11.8281
▁emit	-11.8284
▁upright	-11.8287
makers	-11.8295
▁Reds	-11.8304
ita	-11.8306
▁overwhelm	-11.8313
ssex	-11.8314
▁Card	-11.8316
Baghdad	-11.8317
▁Orleans	-11.8317
▁Reserve	-11.8317
▁massacre	-11.8317
▁font	-11.8317
▁Type	-11.8317
▁Hotel	-11.8317
▁advertisement	-11.8317
▁disconnect	-11.8319
▁surgical	-11.8319
action	-11.832
▁Fuller	-11.832
ward	-11.832
▁Team	-11.8321
▁subway	-11.8324
▁proceeding	-11.8325
▁hostilit	-11.8327
▁dropping	-11.8327
▁Ada	-11.8334
▁cruise	-11.8341
lock	-11.8343
▁Santo	-11.8346
▁diagnose	-11.8347
mel	-11.8347
▁entertain	-11.8348
▁populariz	-11.8348
▁socio	-11.8359
▁chole	-11.8363
▁Oregon	-11.8363
▁Should	-11.8363
▁flexibilit	-11.8363
▁metabolic	-11.8363
▁remix	-11.8363
▁inclusive	-11.8363
▁stance	-11.8367
grade	-11.8369
Saxon	-11.837
▁Tale	-11.8372
▁damn	-11.8375
order	-11.8378
▁Mad	-11.8378
▁gam	-11.8378
▁harmonic	-11.838
▁glow	-11.8382
roque	-11.8386
▁insufficient	-11.839
nny	-11.8391
▁Rick	-11.8395
▁sauce	-11.8397
▁optic	-11.84
▁Hawaii	-11.8408
▁Patriot	-11.841
▁ambiguit	-11.841
▁awkward	-11.841
▁magnificent	-11.8411
▁banana	-11.8411
▁timing	-11.8411
itzer	-11.8412
▁lifespan	-11.8413
▁reluctant	-11.8418
▁salts	-11.8418
▁collaborat	-11.842
▁logg	-11.8421
▁minus	-11.8425
rat	-11.8427
▁catho	-11.8429
▁cooperate	-11.8447
eolith	-11.8447
▁tract	-11.845
▁packag	-11.8451
▁Ana	-11.8452
▁bang	-11.8456
▁Survey	-11.8458
▁peculiar	-11.8458
▁unbelievabl	-11.8458
▁hydrocarbon	-11.8458
▁supermarket	-11.8458
▁clitoris	-11.8458
▁Bir	-11.8458
▁Eight	-11.8468
▁elegant	-11.8468
cular	-11.8471
ason	-11.8471
▁bust	-11.8474
▁walks	-11.8475
▁meme	-11.8476
▁bricks	-11.8476
▁1,500	-11.8478
▁holder	-11.8483
ris	-11.8485
▁dear	-11.8485
▁89	-11.8491
dia	-11.8496
▁necessit	-11.8499
▁Confuci	-11.8503
log	-11.8503
▁correction	-11.8503
▁Cultural	-11.8505
▁thrust	-11.8505
▁escalat	-11.8505
▁reproductive	-11.8505
▁Bronx	-11.8506
▁Athanasi	-11.8506
▁treatise	-11.8509
▁Helen	-11.8509
▁analyse	-11.8509
▁Litera	-11.8509
▁upload	-11.8511
▁dragg	-11.8512
skri	-11.8514
▁Roma	-11.8515
▁invitation	-11.8515
lliance	-11.8516
▁Convers	-11.8517
▁stimul	-11.8525
▁induc	-11.8529
▁illuminat	-11.8535
▁stimulate	-11.8541
▁sake	-11.8544
▁Anders	-11.8551
▁referendum	-11.8553
▁cervi	-11.8553
▁tuberc	-11.8553
▁soundtrack	-11.8553
▁statute	-11.8554
▁fluctuation	-11.8555
▁overthrow	-11.8555
▁immers	-11.8556
▁Malaysia	-11.8556
hony	-11.8557
▁bassist	-11.8557
▁suburban	-11.8559
▁obscure	-11.8562
▁criticis	-11.8562
▁trader	-11.857
▁conductor	-11.8572
human	-11.8575
▁satisfi	-11.8581
uous	-11.8583
▁Gore	-11.8585
▁Sant	-11.8585
▁diplomat	-11.8588
ister	-11.859
arch	-11.8591
▁drunk	-11.8598
▁nephew	-11.86
▁Morgan	-11.86
▁unveil	-11.86
▁trunk	-11.86
▁clause	-11.8601
ulosi	-11.8601
▁Plain	-11.8602
▁occurrence	-11.8602
▁shorten	-11.8604
kyo	-11.8604
▁hyper	-11.8606
take	-11.8606
▁liturg	-11.8609
▁sens	-11.8612
ulf	-11.8624
▁outlet	-11.8629
▁divergen	-11.863
▁thrill	-11.8634
▁pub	-11.8635
irk	-11.8635
▁wel	-11.8635
▁tenth	-11.8641
ntertainment	-11.8643
▁Confucian	-11.8646
▁Leban	-11.8648
▁Guatemala	-11.8649
▁pedestrian	-11.8649
Family	-11.8649
▁corridor	-11.8649
▁Hard	-11.865
▁offshor	-11.865
nomial	-11.8651
bot	-11.8653
verse	-11.8658
▁Ib	-11.8658
aving	-11.8659
▁wolf	-11.866
government	-11.8671
▁reviv	-11.8673
heart	-11.8679
top	-11.8682
optic	-11.8684
▁kit	-11.8686
▁Teach	-11.8687
chan	-11.8688
22	-11.8691
room	-11.8694
▁counsel	-11.8694
rop	-11.8694
▁consul	-11.8694
HO	-11.8695
▁disciple	-11.8697
▁turtle	-11.8697
▁straightforward	-11.8697
▁tuning	-11.8697
▁Blood	-11.8697
▁Monet	-11.8698
▁pillar	-11.8698
ological	-11.8698
▁panic	-11.87
▁Moz	-11.8703
▁interfere	-11.8703
dirty	-11.8706
▁jar	-11.8711
LA	-11.8712
▁Clement	-11.8712
▁plantation	-11.8713
▁Basin	-11.8713
▁subordinate	-11.8717
GC	-11.8717
▁modul	-11.8717
▁exot	-11.8727
HC	-11.8735
▁migrate	-11.8737
reek	-11.8741
▁salv	-11.8743
▁lobby	-11.8744
ntelligence	-11.8745
▁embark	-11.8745
▁congress	-11.8745
▁tweet	-11.8745
▁convex	-11.8745
▁wrist	-11.8745
▁dilemma	-11.8745
▁CPC	-11.8749
▁Grace	-11.8751
ski	-11.8755
iate	-11.8756
▁Son	-11.8762
▁generator	-11.8763
▁fracture	-11.8765
▁differentiate	-11.8768
act	-11.8772
▁Luc	-11.8778
▁storytell	-11.8778
DT	-11.8784
▁sack	-11.8784
for	-11.8788
▁believer	-11.8791
▁Mir	-11.8791
▁faint	-11.8794
▁hollow	-11.8794
▁excuse	-11.8794
▁tutor	-11.8794
▁exert	-11.8794
▁trivial	-11.8795
▁alert	-11.8797
▁Horse	-11.8798
▁wool	-11.8798
▁prevention	-11.8799
▁fungi	-11.8801
▁MRI	-11.8801
▁dome	-11.8802
▁disabilit	-11.8808
lves	-11.8808
vity	-11.881
▁celebrity	-11.8813
nati	-11.8815
▁op	-11.8815
▁cooperative	-11.8815
58	-11.8821
species	-11.8823
▁Billy	-11.8826
erial	-11.8827
▁Lan	-11.8836
four	-11.8837
▁manipulat	-11.8841
▁calculating	-11.8843
▁delegate	-11.8843
▁respirator	-11.8843
▁immortal	-11.8843
▁feast	-11.8844
▁complication	-11.8844
▁knight	-11.8845
▁penis	-11.8847
▁Anna	-11.8847
▁coastline	-11.8848
▁LD	-11.8848
▁Nile	-11.885
tu	-11.8851
▁Sri	-11.8852
▁plea	-11.8852
▁fertilizer	-11.8855
tah	-11.8855
hot	-11.8855
▁taxi	-11.8856
▁ensur	-11.8856
▁asphalt	-11.8859
52	-11.8862
▁dissolve	-11.8863
▁Gate	-11.8865
▁refuge	-11.8867
cientific	-11.8873
▁freight	-11.8875
▁po	-11.8877
▁glasse	-11.8878
▁Mara	-11.8885
terior	-11.8886
▁linguist	-11.8886
▁sentiment	-11.8887
▁enlighten	-11.8892
▁Solomon	-11.8892
▁guerrilla	-11.8892
▁injustice	-11.8892
▁Czechoslovak	-11.8892
▁slogan	-11.8892
▁cartridge	-11.8892
▁hint	-11.8893
▁famine	-11.8893
▁Dream	-11.8893
▁ideological	-11.8894
▁Sel	-11.8894
▁immunit	-11.8894
ennis	-11.8895
fu	-11.8898
▁Berber	-11.8898
TI	-11.89
ohann	-11.8901
▁recreational	-11.8904
▁thinker	-11.8909
▁encompass	-11.8914
▁Gu	-11.8917
▁Dance	-11.8929
▁tram	-11.8932
▁analytical	-11.8933
▁poly	-11.8934
inus	-11.8936
▁reclaim	-11.8942
▁suffix	-11.8942
▁parachute	-11.8942
▁Review	-11.8942
▁caesium	-11.8942
▁toxin	-11.8943
▁pest	-11.8944
▁FDA	-11.8944
▁NSA	-11.8946
▁FM	-11.8949
face	-11.8953
▁statu	-11.8954
kara	-11.8956
▁rally	-11.8961
cost	-11.8962
▁screens	-11.8966
stream	-11.897
▁grandparent	-11.8975
▁progression	-11.8975
▁speculat	-11.898
▁Members	-11.8983
▁intercept	-11.8984
▁rug	-11.8986
▁nutrition	-11.8988
▁censor	-11.8991
▁embass	-11.8992
▁Prayer	-11.8992
▁freak	-11.8992
▁triumph	-11.8992
▁enrich	-11.8992
▁Ginsb	-11.8993
▁Olive	-11.8994
▁Capp	-11.8995
▁shuttle	-11.8996
▁Casa	-11.8996
▁tactical	-11.8999
▁Simpl	-11.9001
▁NL	-11.9002
ode	-11.9004
▁matern	-11.9005
▁genera	-11.9005
dental	-11.901
▁optimis	-11.9014
▁violat	-11.9014
org	-11.9026
hl	-11.903
▁viewing	-11.9031
motive	-11.9031
▁determination	-11.9032
▁Amendment	-11.9042
▁ambiguous	-11.9042
▁debri	-11.9042
▁bypass	-11.9042
laughter	-11.9044
▁Market	-11.9044
defin	-11.9045
▁solvent	-11.9045
▁anarch	-11.9046
▁simplifie	-11.9047
▁125	-11.9058
▁cancell	-11.9068
ire	-11.9069
▁Libya	-11.9071
tian	-11.9074
ftware	-11.9079
▁shine	-11.9081
▁Dio	-11.9082
▁mono	-11.9085
▁grip	-11.9085
▁cad	-11.9087
minent	-11.9089
▁simulate	-11.9089
▁impair	-11.909
▁Odysse	-11.9092
▁offense	-11.9092
▁infra	-11.9092
▁forecast	-11.9092
▁cheer	-11.9093
▁Twenty	-11.9093
▁envision	-11.9093
▁CRT	-11.9093
▁neuro	-11.9094
▁NBC	-11.9095
▁manifestation	-11.9095
wan	-11.9096
oga	-11.91
Man	-11.9101
▁accusation	-11.9102
▁Bl	-11.9103
▁drums	-11.9104
▁Rob	-11.9105
▁denial	-11.9107
▁void	-11.9111
▁wise	-11.9115
aker	-11.9115
▁Der	-11.9116
▁popul	-11.9127
▁connectiv	-11.9128
mus	-11.9129
▁Honor	-11.9133
ending	-11.9138
▁personaliz	-11.9138
▁Bal	-11.9139
rbor	-11.9141
▁bizarre	-11.9142
▁swallow	-11.9142
▁endemic	-11.9142
▁Safe	-11.9143
▁Colon	-11.9144
▁Stewar	-11.9146
▁minimize	-11.9149
▁assassinat	-11.9152
tze	-11.9156
▁lean	-11.9158
▁contributor	-11.9158
▁abstraction	-11.9159
▁constrain	-11.9161
▁upside	-11.9163
▁scanner	-11.9164
▁racis	-11.917
▁Chel	-11.9173
ara	-11.918
▁nuts	-11.9182
▁certifi	-11.9183
▁shoe	-11.9183
▁Hot	-11.9185
▁consequent	-11.9185
▁reinforce	-11.919
dec	-11.9192
rate	-11.9192
▁Oklahoma	-11.9193
▁microbial	-11.9193
▁tattoo	-11.9193
▁slides	-11.9194
▁Tupper	-11.9194
▁Watch	-11.9195
▁dub	-11.9196
▁DDT	-11.9196
enberg	-11.9197
▁archer	-11.9198
incin	-11.9198
dobe	-11.9199
▁Apart	-11.9202
▁wishe	-11.9202
▁optimal	-11.9202
ugoslavia	-11.9203
▁jumped	-11.9204
▁Domitia	-11.9209
▁faci	-11.921
▁illustrat	-11.9212
▁explode	-11.9212
▁merit	-11.9214
▁aqua	-11.9216
uran	-11.9219
▁repli	-11.9219
▁bribe	-11.9227
▁continual	-11.923
▁subtract	-11.9231
▁filling	-11.9234
▁Fortun	-11.9234
obi	-11.9237
▁editors	-11.9241
▁numerical	-11.9241
eclaration	-11.9242
▁Cret	-11.9243
piece	-11.9243
▁expenditure	-11.9244
▁glad	-11.9244
▁reply	-11.9244
▁Nike	-11.9244
▁virgin	-11.9245
▁gamma	-11.9245
▁amphibian	-11.9245
▁quantitative	-11.9246
▁Nathan	-11.9246
▁Octavia	-11.9246
▁packet	-11.9246
▁ceremonial	-11.9247
▁Spino	-11.9248
▁Animal	-11.9248
▁candle	-11.9249
▁overhead	-11.925
▁Oil	-11.9251
SSR	-11.9252
▁detective	-11.9252
▁complement	-11.926
ual	-11.926
▁coloniz	-11.9261
▁extraction	-11.9262
▁Rosa	-11.9263
▁helium	-11.9264
▁prescrib	-11.9272
▁Sala	-11.9276
▁dealer	-11.9277
▁poisoning	-11.9279
pping	-11.928
▁instruct	-11.9283
▁Fred	-11.9285
▁dirt	-11.9286
ore	-11.9287
▁astonishing	-11.9287
▁Mongol	-11.9288
held	-11.9291
▁Burm	-11.9294
osh	-11.9295
▁hypothetical	-11.9296
▁impulse	-11.9296
▁feminin	-11.9296
▁reorganiz	-11.9296
▁theorist	-11.9296
▁displacement	-11.9297
arro	-11.9298
▁corona	-11.9298
▁ecolog	-11.9298
▁Ground	-11.93
oran	-11.9301
▁Deep	-11.9302
▁tick	-11.931
▁Commander	-11.9311
▁salar	-11.9311
▁submit	-11.9315
five	-11.932
uba	-11.9324
▁collaborate	-11.9326
▁prop	-11.933
astern	-11.9334
▁appreciat	-11.9338
▁Antony	-11.9338
▁Tit	-11.9342
▁affirm	-11.9344
▁Tibet	-11.9345
lihood	-11.9345
▁Armstrong	-11.9347
▁Culture	-11.9347
▁Pearl	-11.9347
▁terrifying	-11.9348
▁Coke	-11.9348
▁neat	-11.9349
▁fitted	-11.9351
▁Leader	-11.9352
burg	-11.9353
▁causal	-11.9353
meric	-11.9362
syn	-11.9363
▁beverage	-11.9365
▁Hawk	-11.937
▁useless	-11.9371
▁Bos	-11.9372
▁laughing	-11.9382
view	-11.9383
rosion	-11.9384
▁tide	-11.9385
▁modes	-11.9389
ump	-11.9398
▁resonance	-11.9399
▁Dynast	-11.9399
▁reinvent	-11.9399
▁motif	-11.9399
▁infectious	-11.94
▁unhapp	-11.9401
▁brush	-11.9401
▁alcoholic	-11.9402
▁compilation	-11.9402
▁canonical	-11.9405
▁Dean	-11.9405
▁advisor	-11.9405
▁Comor	-11.9407
zero	-11.9408
▁auction	-11.941
▁outstanding	-11.9412
▁mapp	-11.943
▁deepest	-11.943
▁Ladi	-11.9433
▁typ	-11.9436
▁BT	-11.9438
coding	-11.9441
oil	-11.9442
▁82	-11.9442
▁Sub	-11.9448
▁invade	-11.9449
▁Morocc	-11.9449
PP	-11.9451
▁ghost	-11.9451
▁nanotube	-11.9451
▁Hopkin	-11.9451
▁residue	-11.9451
▁bedroom	-11.9451
▁nonprofit	-11.9452
▁breakdown	-11.9453
▁objection	-11.9453
▁crust	-11.9454
▁unfold	-11.9454
▁fin	-11.9456
▁Panther	-11.9458
▁entr	-11.9458
BT	-11.9461
▁152	-11.9462
anus	-11.9463
▁Colombian	-11.9463
mula	-11.9464
TC	-11.9468
acques	-11.9468
ulie	-11.9472
▁Political	-11.9473
OF	-11.9474
▁blam	-11.9477
▁Capital	-11.9479
▁thriv	-11.948
▁sang	-11.9481
▁opt	-11.9481
▁Easter	-11.949
▁locate	-11.9493
▁Charl	-11.9497
▁Afrika	-11.9503
▁convincing	-11.9503
▁transistor	-11.9503
▁Gauss	-11.9504
rus	-11.9504
▁aunt	-11.9507
▁marketplace	-11.9508
▁utilize	-11.9509
▁activation	-11.9509
▁jam	-11.9511
▁conscript	-11.9513
▁Beyon	-11.9516
▁Grow	-11.9516
▁parade	-11.9517
▁compensat	-11.9517
▁hardest	-11.9519
▁10-	-11.9519
▁tar	-11.9522
▁8,000	-11.9524
▁evaluate	-11.9525
▁merge	-11.9529
ek	-11.9529
2,000	-11.9532
▁Guy	-11.9534
▁identifie	-11.9537
▁Nu	-11.9538
misphere	-11.954
▁Springs	-11.954
row	-11.9541
obs	-11.9543
▁Serb	-11.9544
astro	-11.9547
▁freed	-11.9553
▁HD	-11.9554
▁closure	-11.9556
▁denounc	-11.9556
▁prophec	-11.9556
▁Siberia	-11.9556
▁shaft	-11.9556
▁Rhode	-11.9556
▁ordain	-11.9556
▁matur	-11.9556
▁commentator	-11.9556
▁enclos	-11.9557
▁sculptor	-11.9558
▁resin	-11.956
▁Medal	-11.956
mont	-11.9565
▁heading	-11.9567
▁Historian	-11.9568
▁sequenc	-11.9568
enne	-11.9575
▁mg	-11.9576
▁slaughter	-11.9577
ell	-11.9578
bound	-11.958
▁hackers	-11.959
▁scarce	-11.959
▁Hud	-11.9591
▁bored	-11.9594
▁mistaken	-11.9595
ockey	-11.9605
▁na	-11.9605
▁supreme	-11.9609
▁Hamilton	-11.9609
▁Charlotte	-11.9609
▁Gandhi	-11.9609
▁Artist	-11.9609
▁dictatorship	-11.9609
▁Ger	-11.961
▁LED	-11.961
▁Staff	-11.961
▁lord	-11.961
▁PhD	-11.9612
▁semiconductor	-11.9612
▁hatch	-11.9612
▁bald	-11.9612
▁Centur	-11.9614
▁deployment	-11.9615
▁bra	-11.9616
▁AC	-11.9617
▁formulation	-11.9618
▁decoration	-11.9621
oster	-11.9621
▁spott	-11.9623
CS	-11.9627
lix	-11.9629
▁sailor	-11.9629
▁facto	-11.9631
▁alternat	-11.9631
nnett	-11.9631
▁Alic	-11.9639
nix	-11.9639
▁Work	-11.9645
explored	-11.9648
▁Medi	-11.9655
pine	-11.9658
▁lap	-11.966
path	-11.9661
▁scrap	-11.9661
logy	-11.9661
▁grandson	-11.9661
▁definitive	-11.9662
▁escort	-11.9662
▁constituenc	-11.9662
▁kilogram	-11.9662
▁banjo	-11.9662
▁fifteen	-11.9662
▁seizure	-11.9662
▁lethal	-11.9663
▁CPR	-11.9663
▁tenure	-11.9664
▁topological	-11.9665
mium	-11.9665
▁Saxon	-11.9666
▁convergen	-11.9666
▁compassionate	-11.9667
▁vs	-11.9667
▁spinn	-11.967
▁Puer	-11.967
▁Ol	-11.9675
rush	-11.9675
▁ascend	-11.9677
▁spur	-11.9677
▁democrac	-11.9678
▁hemisphere	-11.9678
▁peaks	-11.9682
▁altar	-11.9683
▁Geographic	-11.9684
▁Roy	-11.9687
▁margin	-11.9689
▁collaps	-11.9692
rman	-11.9692
▁pale	-11.9695
atory	-11.9697
▁infinit	-11.9697
▁prehistor	-11.9702
▁beds	-11.9703
ound	-11.9705
ken	-11.9705
▁Mur	-11.9708
▁skelet	-11.971
▁HP	-11.9711
▁highland	-11.9713
▁oxytocin	-11.9716
▁tsunami	-11.9716
▁Chamber	-11.9716
▁Financial	-11.9716
▁rigorous	-11.9716
▁resilience	-11.9718
▁wax	-11.9722
▁Mobil	-11.9727
▁NH	-11.9728
▁backup	-11.9729
▁temperat	-11.9731
▁Les	-11.9733
▁listener	-11.9737
▁500,000	-11.9738
far	-11.9739
▁Iraqi	-11.9742
▁Persia	-11.9748
▁Cani	-11.975
▁chase	-11.9751
sine	-11.9751
GB	-11.9753
idd	-11.9756
▁ratifi	-11.976
anagement	-11.9762
lli	-11.9763
▁Indiana	-11.9763
▁Communi	-11.9766
▁Hellen	-11.9767
▁jihad	-11.9769
▁subtitle	-11.977
▁washing	-11.977
focal	-11.9771
▁discard	-11.9771
▁vanish	-11.9773
▁Chilean	-11.9778
▁Walker	-11.9779
▁Lin	-11.9785
ception	-11.979
course	-11.9795
▁LM	-11.9798
person	-11.98
▁crap	-11.98
vil	-11.9806
zinc	-11.9806
▁intervene	-11.9806
▁Sand	-11.9807
osity	-11.9809
▁amphetamine	-11.981
inch	-11.9813
ath	-11.9816
erek	-11.9817
▁Pete	-11.9819
▁Benedict	-11.9823
▁Djibouti	-11.9823
▁implicit	-11.9823
▁Biblical	-11.9823
▁Progress	-11.9823
▁tributar	-11.9823
▁financ	-11.9823
▁Castil	-11.9823
▁junior	-11.9823
▁Lanka	-11.9824
▁gr	-11.9824
▁monet	-11.9825
▁uncover	-11.9825
▁Apostle	-11.9825
▁den	-11.9826
▁sometime	-11.9827
bed	-11.9827
▁soccer	-11.9827
illage	-11.983
▁Industr	-11.983
▁spher	-11.9833
▁Lt	-11.9837
▁cr	-11.9838
vascular	-11.9849
Rahm	-11.985
emen	-11.9856
▁bacteri	-11.9858
▁addict	-11.9859
▁bush	-11.986
▁cows	-11.9864
▁Bart	-11.9864
▁clash	-11.9875
▁administrator	-11.9878
▁hurricane	-11.9878
▁premature	-11.9878
▁spawn	-11.9878
▁substrate	-11.9878
▁Evan	-11.9878
▁cigarette	-11.9878
▁decease	-11.9878
▁motorcycle	-11.9878
▁Chuck	-11.9878
mate	-11.988
fire	-11.988
▁warmer	-11.988
▁Luna	-11.9881
▁Narrat	-11.9882
▁accomplishment	-11.9883
▁classify	-11.9887
▁Color	-11.9887
▁Baby	-11.9888
▁fires	-11.989
gged	-11.9891
▁Brigade	-11.9892
ration	-11.9907
▁Terr	-11.9912
▁din	-11.9922
▁Baron	-11.9923
▁Mughal	-11.9932
▁Orchestra	-11.9932
▁battlecruiser	-11.9932
▁gradient	-11.9932
▁affinit	-11.9932
▁doubling	-11.9932
▁reservoir	-11.9932
▁Ashoka	-11.9933
axis	-11.9937
▁AT	-11.9943
▁Burn	-11.9943
▁Greenland	-11.9944
aritime	-11.9944
ff	-11.9945
▁Somalia	-11.9945
▁Robins	-11.995
▁adjective	-11.9952
▁hom	-11.9952
sota	-11.9956
SB	-11.996
thel	-11.996
▁rabbit	-11.9964
establish	-11.9968
▁teache	-11.997
▁realization	-11.997
symmetrical	-11.9975
▁intake	-11.9977
▁Pop	-11.998
▁Gun	-11.9982
▁cyan	-11.9985
▁Nigerian	-11.9987
▁grammatical	-11.9987
imbabwe	-11.9987
▁diffusion	-11.9987
▁shareholder	-11.9987
▁Potter	-11.9987
▁salmon	-11.9987
▁chromium	-11.9988
▁Lisp	-11.9988
fin	-11.9989
▁canvas	-11.999
▁Sure	-11.999
▁verifi	-11.9991
▁Change	-11.9991
nium	-11.9991
▁rolled	-11.9993
dona	-11.9995
▁instabilit	-11.9998
▁ST	-12
▁OS	-12.0004
▁induct	-12.0013
▁biographer	-12.0013
▁Nan	-12.002
▁shooter	-12.002
▁stimulat	-12.0025
iger	-12.004
pter	-12.0042
▁Chiapa	-12.0043
▁endeavor	-12.0043
▁protagonist	-12.0043
▁segregat	-12.0043
▁Dictionar	-12.0043
▁Aragon	-12.0043
▁headache	-12.0045
▁Dennis	-12.0046
wich	-12.0048
star	-12.0053
▁initiate	-12.0053
▁chlor	-12.006
▁rabbi	-12.0066
▁beaver	-12.0066
TA	-12.0071
roll	-12.0072
▁viewers	-12.0074
▁advised	-12.0075
▁mall	-12.008
▁mini	-12.008
case	-12.0083
▁Hunt	-12.0087
▁Mah	-12.0088
▁Creta	-12.0088
eller	-12.0093
▁Trinit	-12.0094
▁brake	-12.0098
▁cerebr	-12.0098
▁Scientist	-12.0098
▁thermodynamic	-12.0098
▁harbour	-12.0098
▁Austro	-12.0098
▁prevalence	-12.0098
▁Minne	-12.0098
▁Homo	-12.0098
▁Half	-12.0099
▁Fly	-12.01
▁deput	-12.01
▁cact	-12.0104
▁summon	-12.0104
▁traffick	-12.0104
▁por	-12.0106
▁ju	-12.0108
▁devastat	-12.0108
▁poetic	-12.0116
▁Galler	-12.0121
▁characterize	-12.0129
▁shade	-12.0133
▁blessing	-12.0135
▁dunes	-12.0136
▁155	-12.0139
▁wrap	-12.0151
▁basket	-12.0154
▁Heaven	-12.0154
▁Premier	-12.0154
▁Specific	-12.0154
▁additive	-12.0154
▁chaotic	-12.0154
▁uncommon	-12.0154
▁partition	-12.0154
▁embodie	-12.0154
▁harness	-12.0154
▁supplier	-12.0158
▁lease	-12.0158
hra	-12.0163
▁Lowe	-12.0166
▁Fish	-12.0167
▁susceptib	-12.0171
▁foreigner	-12.0177
DS	-12.0179
▁EM	-12.018
▁Las	-12.0181
▁oppress	-12.0181
▁Barba	-12.0184
▁Commissioner	-12.019
▁Ivor	-12.0192
▁denot	-12.0193
▁Arian	-12.0197
▁wrestl	-12.0202
▁Express	-12.0204
oline	-12.0205
her	-12.0205
▁instinct	-12.0209
▁adolescent	-12.021
▁choir	-12.021
▁diarrhea	-12.021
▁pandemic	-12.021
▁temporal	-12.021
▁ornament	-12.021
▁plaque	-12.021
▁inferior	-12.021
▁diaspora	-12.021
▁trademark	-12.0211
▁AIM	-12.0211
osov	-12.0211
▁hallucination	-12.0211
▁suspension	-12.0211
▁plateau	-12.0212
▁insult	-12.0213
▁Listen	-12.0214
▁adhesive	-12.0216
▁fisc	-12.0216
SAF	-12.0218
int	-12.0218
▁homework	-12.0218
▁woke	-12.0222
asi	-12.0224
▁expose	-12.0224
▁corners	-12.0233
▁intrigu	-12.0237
owa	-12.0239
oint	-12.0242
▁Mesopotamia	-12.0245
del	-12.0246
▁Aca	-12.0247
▁Ming	-12.0252
▁orthodox	-12.0256
language	-12.0258
▁contra	-12.0259
ohnston	-12.0259
▁fanc	-12.0259
hou	-12.0259
▁maker	-12.0261
DP	-12.0262
▁bench	-12.0265
▁Athletic	-12.0267
▁communal	-12.0267
▁notorious	-12.0267
▁Emma	-12.0267
▁microwave	-12.0267
▁urine	-12.0267
▁Geoff	-12.0267
▁distress	-12.0268
▁loving	-12.0268
nta	-12.027
▁nano	-12.027
▁frustration	-12.0274
▁bark	-12.0277
▁Eugen	-12.0283
▁heroic	-12.0294
▁arena	-12.0294
▁evaluat	-12.0295
ira	-12.0303
▁insane	-12.0304
▁clan	-12.0306
▁degrad	-12.0306
▁Sahara	-12.031
▁lowland	-12.0314
look	-12.0321
▁Official	-12.0323
▁bamboo	-12.0323
▁enlist	-12.0323
▁paralyz	-12.0323
▁demolish	-12.0324
▁proponent	-12.0324
▁vivid	-12.0324
rank	-12.0324
▁hull	-12.0324
▁Carthag	-12.0325
▁Munic	-12.0329
▁cooler	-12.0332
active	-12.0334
▁colonist	-12.0336
▁Allah	-12.0337
▁isolate	-12.0339
▁marsh	-12.0339
▁selfish	-12.034
position	-12.034
▁Say	-12.0351
▁interconnected	-12.0354
ctor	-12.0358
.5	-12.0362
▁volatile	-12.0366
▁ape	-12.037
▁Hind	-12.037
wear	-12.0372
▁seize	-12.0373
▁juvenile	-12.0381
▁junction	-12.0381
▁Andorra	-12.0381
▁discourse	-12.0381
▁subgroup	-12.0381
two	-12.0381
▁flora	-12.0381
▁censorship	-12.0381
▁vendor	-12.0382
▁swamp	-12.0382
▁Dad	-12.0385
▁ceas	-12.0385
▁focuse	-12.0386
▁Mohamm	-12.0387
▁resignation	-12.0388
▁skeptical	-12.0391
month	-12.0391
▁shit	-12.0392
▁exceeding	-12.0395
▁Liber	-12.041
culture	-12.0414
phe	-12.0414
▁Luk	-12.0415
▁explod	-12.0417
uri	-12.0426
▁Romania	-12.0434
▁cardio	-12.0435
▁Leon	-12.0435
▁stripe	-12.0437
child	-12.0437
▁Obvious	-12.0438
▁indefinite	-12.0438
▁oxidiz	-12.0438
▁semantic	-12.0438
▁unnecessar	-12.0438
ashmir	-12.0438
▁Aege	-12.0438
▁Elder	-12.0438
▁Ahmed	-12.0438
▁butterfl	-12.0438
▁fetus	-12.0439
▁dumb	-12.0439
mingham	-12.0439
put	-12.0439
gentleman	-12.044
▁metallic	-12.0441
▁excavation	-12.0443
▁therapist	-12.0443
▁Planet	-12.0445
▁millennia	-12.0445
▁Learn	-12.045
▁ferr	-12.0451
▁forty	-12.0451
eith	-12.0452
59	-12.0457
▁Advanc	-12.046
▁Fourth	-12.0461
▁manga	-12.0461
▁Constanti	-12.0462
▁Alame	-12.0463
▁moralit	-12.0467
▁incentive	-12.0469
▁mega	-12.047
▁Pierre	-12.0472
ugh	-12.0474
▁SE	-12.0475
game	-12.0476
▁basement	-12.0479
▁Climate	-12.0496
▁Eurasia	-12.0496
▁jungle	-12.0496
▁hammer	-12.0496
▁masterpiece	-12.0496
▁sanctuar	-12.0496
▁110	-12.0497
▁Nash	-12.0497
▁comedian	-12.05
▁sermon	-12.0502
▁Stop	-12.0502
▁Bengali	-12.0506
ander	-12.0509
▁propagat	-12.0513
▁hypothes	-12.0514
zeb	-12.0515
▁spite	-12.0518
helm	-12.0518
▁cage	-12.0531
▁Assyria	-12.0533
▁motivate	-12.0533
▁kin	-12.0534
▁fung	-12.0536
mouth	-12.0543
▁prejudice	-12.0543
tern	-12.0545
▁addresse	-12.0547
▁ac	-12.0549
egas	-12.055
▁heel	-12.055
▁schizophreni	-12.0552
▁fifty	-12.0554
▁theatrical	-12.0554
▁garrison	-12.0554
▁nomad	-12.0554
▁streak	-12.0556
▁wir	-12.0559
▁ethnicit	-12.056
▁Portland	-12.056
text	-12.0563
▁butter	-12.0563
▁potter	-12.0565
▁sulfide	-12.0568
elli	-12.0577
▁deer	-12.0582
▁Ron	-12.0583
▁Herod	-12.0596
▁unchang	-12.0596
▁inference	-12.0597
▁Treasur	-12.0612
▁authoritarian	-12.0612
▁baptiz	-12.0612
▁inexpensive	-12.0612
▁pencil	-12.0612
▁terrified	-12.0613
▁Text	-12.0613
▁adrenal	-12.0613
▁regenerate	-12.0613
▁delta	-12.0613
▁therapeutic	-12.0614
▁Heracle	-12.0615
▁cosmo	-12.0624
▁confession	-12.0629
▁trailer	-12.0637
▁digest	-12.064
▁Herman	-12.0641
cca	-12.0642
▁dock	-12.0644
urt	-12.0646
▁rejection	-12.0646
▁visualize	-12.0649
hard	-12.0649
liberation	-12.065
▁confess	-12.0655
▁Collin	-12.0657
▁developmental	-12.0661
▁skeptic	-12.0661
▁Iberia	-12.0662
unning	-12.0668
▁apparatus	-12.0671
▁thirteen	-12.0671
▁ISO	-12.0671
▁destructive	-12.0671
▁obey	-12.0671
▁Wait	-12.0672
▁titan	-12.0672
▁claw	-12.0674
▁substitution	-12.0674
▁assemble	-12.0676
▁stiff	-12.0677
▁toad	-12.0679
att	-12.0679
▁Mao	-12.0679
weight	-12.0681
▁Nepal	-12.0681
▁glove	-12.0682
▁Chek	-12.0684
interest	-12.0685
▁Eli	-12.0687
▁Former	-12.0689
ido	-12.0691
▁persuad	-12.0692
rum	-12.0692
▁eligib	-12.0694
▁Boh	-12.0694
▁Cra	-12.0698
▁Name	-12.0701
▁gentle	-12.0706
edited	-12.0709
▁Actor	-12.071
▁wip	-12.0719
▁Browns	-12.0727
▁Chemical	-12.073
▁hymn	-12.073
▁sleeve	-12.073
▁turbine	-12.073
▁pesticide	-12.0731
▁smash	-12.0731
▁ladder	-12.0731
▁Cancer	-12.0731
▁crab	-12.0731
▁mutant	-12.0731
▁diode	-12.0731
▁disturbance	-12.0731
▁Danny	-12.0732
▁sidewalk	-12.0732
▁Strange	-12.0732
▁recession	-12.0733
▁elevator	-12.0735
▁confrontation	-12.0739
▁faithful	-12.0744
years	-12.0744
alph	-12.0747
rov	-12.0759
▁Troy	-12.076
▁suite	-12.076
▁methodolog	-12.0767
usch	-12.077
▁cone	-12.0777
▁corps	-12.0781
▁articulat	-12.0782
▁Min	-12.0783
▁abbreviat	-12.0785
▁Hurricane	-12.079
▁crochet	-12.079
▁deflect	-12.079
▁despair	-12.079
▁unfair	-12.079
▁Twelve	-12.079
▁qualification	-12.079
▁scout	-12.079
▁inaugurat	-12.0796
rnhard	-12.0798
▁Superma	-12.0801
▁Neil	-12.0802
▁steadi	-12.0802
▁Hold	-12.0802
rug	-12.0803
▁commuter	-12.0805
aft	-12.0805
▁derivation	-12.0808
▁Nin	-12.0808
east	-12.081
▁ref	-12.0812
urd	-12.0813
▁echo	-12.0817
▁unlock	-12.0819
▁sued	-12.0822
▁Hispanic	-12.0828
▁inquiry	-12.0839
unity	-12.0841
▁anticipate	-12.0844
▁forgive	-12.0848
▁Stoke	-12.085
▁Absolute	-12.085
▁crawl	-12.085
▁Telescope	-12.085
▁Period	-12.085
▁Slovak	-12.085
▁polish	-12.085
hawk	-12.085
▁lumino	-12.085
▁prolong	-12.085
▁payload	-12.0851
▁prostate	-12.0851
matic	-12.0851
▁Element	-12.0852
▁synthesiz	-12.0852
▁lense	-12.0853
▁flute	-12.0853
vy	-12.0855
ML	-12.0855
▁rever	-12.0861
▁Mann	-12.0862
▁contend	-12.0865
▁MR	-12.0865
,200	-12.0867
west	-12.0873
▁arrange	-12.0874
▁tooth	-12.0874
▁laborator	-12.088
▁banker	-12.0883
azz	-12.0887
▁euro	-12.0889
▁quo	-12.0894
▁captive	-12.0896
ash	-12.0897
▁Map	-12.0899
arity	-12.09
▁excavat	-12.0905
▁Ferdinand	-12.091
▁imperative	-12.091
▁lesbian	-12.091
▁jealous	-12.091
▁affiliation	-12.091
▁cocktail	-12.091
▁insulin	-12.091
▁monastic	-12.091
▁Chrono	-12.091
▁certification	-12.091
▁cemeter	-12.091
▁oath	-12.0911
▁grape	-12.0911
▁Sorry	-12.0911
▁mock	-12.0911
▁ethanol	-12.0912
▁editorial	-12.0912
▁archaeologist	-12.0912
▁champions	-12.0916
▁needles	-12.0917
▁101	-12.0918
▁Susan	-12.0919
▁Brit	-12.0919
▁announce	-12.0919
▁defender	-12.0921
▁lever	-12.0924
▁adviser	-12.0929
▁liberat	-12.0929
▁Stage	-12.093
▁gambl	-12.0932
▁archipelago	-12.0933
▁starch	-12.0934
▁CH	-12.0936
▁welcom	-12.0939
rani	-12.0943
ograph	-12.0944
▁Inside	-12.0947
ala	-12.0948
rak	-12.0954
▁nineteenth	-12.0957
▁deficienc	-12.0959
▁Neanderthal	-12.0971
▁ensemble	-12.0971
▁gospel	-12.0971
▁syntax	-12.0971
▁patriarch	-12.0971
▁Montreal	-12.0971
▁stall	-12.0971
▁Delphi	-12.0972
▁papa	-12.0972
▁Devil	-12.0972
▁Hux	-12.0973
▁rumor	-12.0973
▁Tree	-12.0979
▁allegiance	-12.0983
▁persistent	-12.0985
▁deuter	-12.0988
economic	-12.0997
bus	-12.0999
▁resembl	-12.0999
▁prominen	-12.1
rque	-12.1
▁cope	-12.1005
ER	-12.101
▁checks	-12.1015
▁brew	-12.1016
▁Ful	-12.102
▁ag	-12.1026
51	-12.1026
▁feat	-12.1031
▁clade	-12.1031
▁Aurang	-12.1032
▁drastic	-12.1032
▁origami	-12.1032
▁Hundred	-12.1032
▁lattice	-12.1032
▁synapse	-12.1032
▁Fleet	-12.1032
▁apopto	-12.1032
▁Serge	-12.1032
▁warrant	-12.1032
▁Ivan	-12.1032
AND	-12.1033
▁reinforcement	-12.1034
▁tolerate	-12.1034
▁Bras	-12.1042
▁energ	-12.1043
▁adaptive	-12.1049
▁freeze	-12.105
▁phenomenal	-12.1054
LP	-12.1066
engineer	-12.107
heim	-12.1071
▁reunit	-12.1074
▁exo	-12.1076
▁stair	-12.1077
die	-12.1078
▁cellulos	-12.108
▁exaggerat	-12.1088
▁staple	-12.1093
▁relay	-12.1093
▁chef	-12.1093
▁Return	-12.1093
▁wreck	-12.1094
▁McL	-12.1094
▁midnight	-12.1097
▁enlarg	-12.1097
▁chant	-12.1099
▁dictator	-12.1103
▁donate	-12.1105
▁Lang	-12.1106
▁Palmer	-12.1106
▁Dun	-12.1112
▁brewer	-12.1116
hold	-12.1117
ethle	-12.1118
▁accountability	-12.1119
bout	-12.1119
▁vent	-12.1124
▁doom	-12.1124
amount	-12.1129
▁Travel	-12.1129
▁Madr	-12.113
▁specialize	-12.1131
tting	-12.1134
▁formulate	-12.1136
▁Mind	-12.1137
▁complian	-12.1139
▁commands	-12.1141
▁centimeter	-12.1142
▁replicati	-12.1144
▁hind	-12.1146
▁Cyr	-12.1148
▁fi	-12.1151
▁individually	-12.1152
▁eager	-12.1154
▁versa	-12.1154
▁Challenge	-12.1155
▁Regiment	-12.1155
▁whisper	-12.1155
lumni	-12.1155
▁precedent	-12.1156
▁Burr	-12.1158
▁Tram	-12.1159
▁Total	-12.1159
▁fluorescent	-12.1167
▁treasur	-12.1171
▁102	-12.1174
▁coco	-12.1176
airy	-12.1177
▁menu	-12.118
▁Borg	-12.1182
▁spice	-12.1183
▁popp	-12.1185
▁128	-12.1186
▁asylum	-12.1187
train	-12.1187
income	-12.1191
▁Hale	-12.1192
▁eradicat	-12.1192
▁Conservati	-12.1193
▁Tar	-12.1197
▁optional	-12.1198
rap	-12.1199
▁shak	-12.1212
▁Ly	-12.1215
▁Lead	-12.1215
▁Nevada	-12.1217
▁crossbow	-12.1217
▁iPod	-12.1217
▁abbot	-12.1217
▁Silver	-12.1219
▁intentionally	-12.122
▁hail	-12.1221
▁Arn	-12.1222
rah	-12.1225
ula	-12.1225
▁summ	-12.1228
▁Bonn	-12.1229
rna	-12.123
lapse	-12.1231
▁captiv	-12.1233
ug	-12.1233
▁pointer	-12.1234
iction	-12.124
▁balanc	-12.1243
plat	-12.125
▁Hawke	-12.1252
akov	-12.1254
▁mitochondria	-12.1254
▁Wings	-12.126
▁plott	-12.126
live	-12.1267
ante	-12.1269
illboard	-12.1272
▁fr	-12.1275
▁satisfaction	-12.1277
▁commoditi	-12.1279
▁exclusion	-12.1279
▁besieg	-12.1279
▁carpet	-12.1279
▁niche	-12.1279
▁messenger	-12.128
▁almond	-12.1281
▁synonymous	-12.1281
▁prosecutor	-12.1286
▁tense	-12.1286
▁playful	-12.1287
iful	-12.1289
blew	-12.1289
▁enthusiastic	-12.1289
▁Works	-12.1292
▁Bobb	-12.1295
▁Box	-12.1299
▁enforc	-12.1301
▁communi	-12.1304
▁Rabbi	-12.1309
▁amend	-12.131
-20	-12.1313
▁Alg	-12.1315
section	-12.1317
ether	-12.1321
ologist	-12.1322
▁Berg	-12.1323
rius	-12.1327
amma	-12.133
lop	-12.1331
▁Luci	-12.1334
▁Speci	-12.1335
▁prohibition	-12.1338
orf	-12.134
▁Fifth	-12.1342
▁colloquial	-12.1342
▁dessert	-12.1342
▁bikini	-12.1342
▁chunk	-12.1342
▁rediscover	-12.1343
pm	-12.1344
▁Doom	-12.1344
▁Otto	-12.1344
▁coil	-12.1348
▁conjecture	-12.1349
▁stain	-12.1349
iago	-12.135
▁cart	-12.1351
▁Runn	-12.1353
▁breach	-12.1355
▁motive	-12.1359
▁Azerbaijani	-12.136
▁warhead	-12.1361
▁105	-12.1366
▁stabilize	-12.1369
▁pl	-12.1369
▁Baker	-12.1371
▁sever	-12.1374
▁patrol	-12.1374
▁tender	-12.1375
▁premiere	-12.1376
ech	-12.1377
▁honorar	-12.138
▁folklor	-12.1382
▁LT	-12.1389
▁abnormal	-12.139
▁15-	-12.139
racula	-12.1392
▁Scholars	-12.1392
▁0.	-12.1394
▁sexy	-12.1397
ulia	-12.14
desirable	-12.14
▁functionalit	-12.1401
ampaign	-12.1404
▁Bull	-12.1405
▁unanimous	-12.1406
▁chapel	-12.1406
▁covalent	-12.1406
▁critique	-12.1406
▁disguise	-12.1406
▁repeal	-12.1406
▁fission	-12.1406
▁irrational	-12.1406
▁Tiberi	-12.1406
▁Revel	-12.1406
▁Methodist	-12.1406
▁keen	-12.1406
▁refrigerator	-12.1408
▁genital	-12.1409
▁waterway	-12.1409
style	-12.141
▁grabb	-12.1413
▁evaporat	-12.1415
▁dies	-12.1417
lva	-12.1419
▁Environmental	-12.1419
▁hotte	-12.1422
▁cub	-12.1424
▁potent	-12.1433
ulation	-12.1434
▁Male	-12.1441
▁rode	-12.1441
▁Barks	-12.1443
dmin	-12.1445
▁midst	-12.1446
etropolitan	-12.1446
MF	-12.1447
▁connector	-12.145
▁inch	-12.1451
▁deteriorat	-12.1458
amaica	-12.1467
▁Deco	-12.1468
▁etymolog	-12.1468
▁tangent	-12.1469
cumen	-12.1469
▁Associate	-12.1469
▁CRISPR	-12.1469
▁Cameron	-12.1469
▁Crystal	-12.1469
▁dispatch	-12.1469
▁dissolut	-12.1469
▁technician	-12.1469
▁Akkad	-12.1469
▁steroid	-12.1469
▁yard	-12.1469
▁flopp	-12.1469
▁ecclesiastic	-12.1469
▁Sudden	-12.1469
▁Ahmad	-12.1469
▁Strait	-12.147
▁hatred	-12.147
▁Nat	-12.1471
▁Holoc	-12.1471
▁Lego	-12.1471
▁Bent	-12.1471
▁gallon	-12.1472
▁Rover	-12.1482
▁customar	-12.1485
▁Cl	-12.1485
▁fad	-12.1487
bn	-12.149
▁Confedera	-12.1491
▁backward	-12.1493
▁Plu	-12.1493
▁flipp	-12.1494
▁traveler	-12.1494
▁commemorate	-12.15
▁builder	-12.1503
▁contractor	-12.1503
▁fir	-12.1507
ao	-12.1509
tery	-12.1512
▁Arabian	-12.1514
▁Rac	-12.1522
▁surge	-12.1526
resumed	-12.1527
burn	-12.1528
▁cataly	-12.1528
▁mortal	-12.1528
▁millimeter	-12.153
▁inadequate	-12.1533
▁dentist	-12.1533
▁aerodynamic	-12.1533
▁penicillin	-12.1533
▁Professional	-12.1534
▁shrine	-12.1534
▁canopy	-12.1534
▁polarization	-12.1537
▁Charter	-12.1537
▁viewpoint	-12.1538
▁accumulation	-12.1541
any	-12.1541
▁Hero	-12.1542
▁RB	-12.1544
▁Norse	-12.1545
lam	-12.1547
▁slip	-12.1547
anu	-12.1548
▁Edd	-12.1549
▁Site	-12.1552
▁MH	-12.1552
ieri	-12.1557
▁Cole	-12.156
▁Pl	-12.1562
ini	-12.1565
▁summarize	-12.1575
▁hearts	-12.1575
▁complementar	-12.1578
▁ignit	-12.1581
▁Pres	-12.1585
thermal	-12.159
▁runway	-12.1591
▁coincide	-12.1591
low	-12.1591
▁tent	-12.1595
niz	-12.1596
shirt	-12.1596
▁Secret	-12.1596
ogue	-12.1598
▁Race	-12.1598
▁squad	-12.1598
▁romance	-12.1598
▁suspicion	-12.1598
▁Adventure	-12.1598
▁Stuart	-12.1598
▁elastic	-12.1598
▁energetic	-12.1598
▁Hercule	-12.1598
▁Galile	-12.1598
▁odor	-12.1598
▁Action	-12.1599
▁vol	-12.1599
boat	-12.1599
▁Normal	-12.16
▁spike	-12.1604
▁Israelite	-12.1604
▁Rem	-12.1604
▁ramp	-12.1612
▁reconcile	-12.1616
▁Holm	-12.1616
▁mi	-12.1619
new	-12.1619
balone	-12.1633
▁Macedonia	-12.1642
▁attacker	-12.1645
▁lightn	-12.1645
▁Mala	-12.1647
erber	-12.1648
▁elde	-12.1649
organic	-12.1657
▁generaliz	-12.1658
▁contemplat	-12.1659
iers	-12.1662
▁Individual	-12.1663
▁delegation	-12.1663
▁glimpse	-12.1663
▁incarcerat	-12.1663
▁repertoire	-12.1663
▁serotonin	-12.1663
▁unpopular	-12.1663
▁Limit	-12.1663
▁Android	-12.1663
▁ventilat	-12.1663
▁lesion	-12.1664
▁psychiatrist	-12.1664
▁Deput	-12.1664
▁Electronic	-12.1665
▁Hobbes	-12.1666
▁visualization	-12.1669
▁Marie	-12.1669
▁laying	-12.1669
▁stereotype	-12.1676
▁forum	-12.1677
▁herb	-12.1678
fax	-12.168
▁woods	-12.1682
vice	-12.1684
▁grey	-12.1689
▁synthesize	-12.1691
▁caps	-12.1691
▁analytic	-12.1695
▁resid	-12.1695
▁periodical	-12.1696
▁belly	-12.1699
▁characteris	-12.1703
jo	-12.171
onica	-12.1723
▁exclude	-12.1727
antu	-12.1728
▁disseminat	-12.1728
▁Democracy	-12.1728
▁logarithm	-12.1728
▁propriet	-12.1728
▁spectroscop	-12.1728
▁meditation	-12.1728
trophy	-12.1728
▁throat	-12.1728
▁leopard	-12.1728
▁mound	-12.1729
link	-12.1729
▁neurological	-12.1731
▁invert	-12.1732
▁Diet	-12.1735
▁flock	-12.1735
▁Bi	-12.1739
▁omitt	-12.174
Bah	-12.1743
▁transcend	-12.1743
▁blown	-12.1745
oan	-12.1745
▁applicab	-12.1748
loy	-12.1748
▁mediate	-12.1748
last	-12.1753
▁Comp	-12.1755
▁Henri	-12.1761
▁visi	-12.1767
▁celebrit	-12.1769
▁shocking	-12.1774
▁industrializ	-12.1775
icode	-12.1775
rner	-12.1777
▁Bio	-12.1783
nom	-12.1783
▁Row	-12.1785
▁158	-12.1785
itch	-12.1788
▁modeling	-12.179
▁Too	-12.1791
▁stigma	-12.1793
▁sacrament	-12.1794
▁suspicious	-12.1794
▁Bhutan	-12.1794
▁Domingo	-12.1794
▁contempt	-12.1794
▁psyche	-12.1794
▁cereal	-12.1794
▁spouse	-12.1794
▁hydroxide	-12.1794
▁Section	-12.1794
▁Negro	-12.1794
▁cannibal	-12.1795
▁franc	-12.1795
▁chew	-12.1795
▁Sicil	-12.1796
▁iteration	-12.1797
tune	-12.1798
▁Barbara	-12.1799
▁Fl	-12.1801
gate	-12.1801
▁creed	-12.1802
▁arous	-12.1805
▁Highland	-12.1813
▁wholly	-12.1814
▁Anti	-12.1819
etic	-12.1821
▁inertia	-12.1821
▁commissioner	-12.1822
▁whistle	-12.1824
▁financially	-12.184
▁Find	-12.1842
nam	-12.1846
▁shelve	-12.185
▁catastrophic	-12.186
▁corpus	-12.186
▁taboo	-12.186
▁glory	-12.186
▁Suppose	-12.186
▁pension	-12.1861
uay	-12.1861
▁physiological	-12.1861
▁lawn	-12.1865
▁offset	-12.1866
▁Mil	-12.1867
▁grassland	-12.1867
▁Mongolia	-12.187
▁Burt	-12.187
AN	-12.1873
▁replica	-12.1874
bro	-12.1877
▁bucks	-12.1878
▁emotionally	-12.1882
▁Libert	-12.189
▁intentional	-12.1891
▁Wa	-12.1901
▁Nicaragua	-12.1906
aiko	-12.1906
▁roller	-12.1911
▁humble	-12.1912
▁Gal	-12.1913
▁nights	-12.1921
▁commodity	-12.1927
▁intimidat	-12.1927
▁reptile	-12.1927
▁mandatory	-12.1927
▁stumbl	-12.1927
▁Found	-12.1927
▁creep	-12.1927
▁Cricket	-12.1927
▁nail	-12.1928
▁impairment	-12.1929
▁Socialist	-12.1929
▁fatty	-12.1931
▁guitarist	-12.1931
▁CM	-12.1933
▁Blak	-12.1935
▁maximize	-12.1935
▁Member	-12.1939
▁SP	-12.194
▁BF	-12.1942
▁simplify	-12.1944
▁Ap	-12.1952
▁tire	-12.1952
▁aspirin	-12.1954
▁Pain	-12.1956
▁ineffective	-12.1964
eck	-12.1965
▁Glas	-12.1966
▁Ethiopian	-12.1968
▁Ant	-12.1975
▁feasib	-12.198
▁Borde	-12.1985
▁prefix	-12.1988
▁domesticat	-12.1988
▁Caucas	-12.1993
▁kilo	-12.1994
▁Patriarch	-12.1994
▁strait	-12.1994
▁Witness	-12.1994
▁pepper	-12.1994
▁patriot	-12.1994
▁ligand	-12.1994
▁multinational	-12.1994
▁Thirty	-12.1994
▁Regard	-12.1994
▁Continu	-12.1994
▁girlfriend	-12.1995
▁Agent	-12.1996
▁Gael	-12.1996
▁Bosnian	-12.1997
▁crest	-12.1997
▁Guardian	-12.1997
▁Sol	-12.1998
▁vow	-12.1998
▁Guide	-12.2
▁Britt	-12.2001
▁curry	-12.2001
▁Sche	-12.2001
▁carriage	-12.2005
▁worrying	-12.2007
otus	-12.2013
RM	-12.2013
ail	-12.2016
▁storyline	-12.2016
▁coma	-12.202
▁placement	-12.2021
home	-12.2027
lain	-12.2028
▁alignment	-12.203
▁shy	-12.2031
▁copula	-12.2031
▁disgust	-12.2031
▁penetrate	-12.2034
mann	-12.2035
▁1500	-12.2035
ussy	-12.2036
▁spann	-12.2039
FI	-12.2048
▁hung	-12.2052
▁Pu	-12.2055
▁Willi	-12.2055
apping	-12.2057
▁Dog	-12.2059
▁Protocol	-12.2062
▁manifold	-12.2062
▁MLB	-12.2062
▁criticize	-12.2062
connais	-12.2062
▁socket	-12.2062
▁Bloom	-12.2062
▁glamor	-12.2062
▁allegation	-12.2063
ncle	-12.2063
▁posture	-12.2064
▁synagogue	-12.2065
▁Dav	-12.207
vid	-12.2077
▁auditor	-12.208
shes	-12.2082
▁BBS	-12.2082
ude	-12.2083
▁McCa	-12.2085
▁bonus	-12.2085
▁generalization	-12.2086
cross	-12.2086
▁metro	-12.2088
▁enslav	-12.2089
▁interpreter	-12.209
▁Cars	-12.2091
▁handwrit	-12.2094
▁demons	-12.2098
▁rhetoric	-12.2099
AL	-12.2099
▁Nice	-12.2101
▁DM	-12.2105
▁contraction	-12.2108
▁Lyn	-12.2112
▁Andr	-12.2113
▁incremental	-12.2114
▁Range	-12.2116
▁Bor	-12.2117
▁Butler	-12.2119
▁coherent	-12.2124
▁Bayer	-12.2127
▁simulat	-12.213
▁Support	-12.213
▁Lieutenant	-12.213
▁carcinogen	-12.213
▁Lavo	-12.213
▁nightmare	-12.213
▁incarnation	-12.213
minster	-12.213
▁Horn	-12.213
▁grind	-12.213
▁gig	-12.213
▁Diab	-12.2131
▁Numer	-12.2131
▁naive	-12.2131
ridge	-12.2132
▁Civilization	-12.2132
▁Wins	-12.2133
▁miserable	-12.2135
▁downward	-12.2135
boriginal	-12.2135
flow	-12.2137
▁cab	-12.2146
▁diocese	-12.2148
nfluence	-12.2148
▁ballet	-12.215
coli	-12.2152
isi	-12.2153
▁inmate	-12.2163
▁Sina	-12.2163
▁sung	-12.2166
iah	-12.2167
▁pine	-12.2172
▁sketche	-12.2172
uta	-12.2191
▁vigorous	-12.2198
▁Namibia	-12.2198
▁shatter	-12.2198
▁camouflage	-12.2198
▁Ell	-12.2198
▁lamb	-12.2199
▁trustworth	-12.2199
▁ballistic	-12.2201
▁degradation	-12.2201
▁photosynthesi	-12.2201
▁rite	-12.2202
▁intestine	-12.2203
▁arch	-12.2203
▁crank	-12.2205
▁Fisher	-12.2208
incent	-12.2208
ush	-12.2218
master	-12.2218
limited	-12.2219
▁tan	-12.2221
▁dar	-12.2223
▁Pur	-12.2223
drive	-12.2224
met	-12.2225
Barack	-12.2226
final	-12.2227
▁Princes	-12.2228
cartes	-12.2233
▁depos	-12.2234
▁Belt	-12.2237
▁Confederat	-12.2237
▁armament	-12.2238
▁disturb	-12.224
▁boots	-12.2242
ella	-12.2243
▁desir	-12.2244
▁viewer	-12.2245
anach	-12.2245
▁constitut	-12.226
▁adhere	-12.2266
ani	-12.2266
▁Himalaya	-12.2267
▁Skinner	-12.2267
▁cognition	-12.2267
▁fractal	-12.2267
▁gauge	-12.2267
▁Owen	-12.2267
▁Cartesian	-12.2267
▁stagger	-12.2267
▁Antioch	-12.2267
▁pivot	-12.2267
▁resent	-12.2267
▁Clay	-12.2268
▁superhero	-12.2268
▁registration	-12.2269
▁Maritime	-12.2271
▁ballad	-12.2271
▁couch	-12.2272
ision	-12.2273
pen	-12.2274
▁chronicle	-12.2275
▁compose	-12.2277
▁Farm	-12.2278
litary	-12.2278
▁philanthrop	-12.2283
▁slipp	-12.2284
▁advancement	-12.2285
▁Gen	-12.2286
▁agnostic	-12.2286
▁unite	-12.2286
▁restructur	-12.2287
▁Mario	-12.2289
▁stretche	-12.2289
organiz	-12.2289
▁outlaw	-12.2291
▁Pedr	-12.2291
finish	-12.2295
terim	-12.2296
▁Poet	-12.2297
xchange	-12.2304
▁Duch	-12.2306
late	-12.2309
▁martia	-12.231
▁Living	-12.2311
▁Amy	-12.2314
▁homeland	-12.2314
▁Protect	-12.2319
▁Sony	-12.2321
▁ft	-12.2324
▁Mau	-12.2324
▁Agne	-12.2324
▁plead	-12.2324
▁stripped	-12.2325
▁compensate	-12.233
▁COB	-12.2334
▁Ask	-12.2334
▁Legislati	-12.2336
▁recount	-12.2336
▁Latter	-12.2337
▁analyst	-12.2337
▁Harbor	-12.2337
▁Probab	-12.2337
▁braille	-12.2338
aguar	-12.2339
▁antigen	-12.234
▁smil	-12.2342
▁adjustment	-12.2342
▁biotechnolog	-12.2342
▁grad	-12.2342
▁wetland	-12.2342
▁culturally	-12.2345
▁Harle	-12.2349
▁paste	-12.2349
cell	-12.2353
▁commenc	-12.2358
▁Mather	-12.2362
▁locomotive	-12.2363
▁FA	-12.2375
▁radial	-12.2384
▁Drug	-12.2385
compatible	-12.2398
gro	-12.2401
▁Europ	-12.2403
▁Nixon	-12.2406
▁Technical	-12.2406
▁monsoon	-12.2406
▁conceal	-12.2406
▁Popular	-12.2406
▁Eviden	-12.2407
▁Route	-12.2407
▁Galax	-12.2407
▁mourn	-12.2407
gli	-12.2407
▁consultant	-12.2407
Raymond	-12.2409
▁lobe	-12.241
▁Micro	-12.241
▁mint	-12.2412
▁lu	-12.2412
aggression	-12.2413
▁Price	-12.2414
▁motherboard	-12.2414
▁offence	-12.2416
▁sandwich	-12.2416
ozo	-12.242
▁Sear	-12.2422
▁arid	-12.2423
grow	-12.2423
▁centraliz	-12.2424
▁morpholog	-12.2424
tega	-12.2425
ulu	-12.2428
▁Macedonian	-12.243
▁pore	-12.243
▁pul	-12.2432
pus	-12.2437
▁auxiliar	-12.2438
▁hopeless	-12.244
▁logistic	-12.2441
FT	-12.2443
▁Bris	-12.2444
▁enthusias	-12.2444
▁Clause	-12.2447
▁mesh	-12.245
iform	-12.2456
▁arthriti	-12.2457
▁ATA	-12.2463
chrom	-12.2464
ddar	-12.2476
▁scaling	-12.2476
▁Enlighten	-12.2477
▁Female	-12.2477
▁Macintosh	-12.2477
▁bipedal	-12.2477
▁caution	-12.2477
▁incidence	-12.2477
▁Hondura	-12.2477
▁Trojan	-12.2477
▁amplitude	-12.2477
▁Brandenburg	-12.2477
▁jack	-12.2477
▁oracle	-12.2477
▁Economist	-12.2477
▁Atkins	-12.2477
▁vague	-12.2477
▁lipid	-12.2478
▁Ag	-12.2478
▁pizza	-12.2479
ontemporar	-12.2479
▁humorous	-12.2482
▁Try	-12.2484
▁Comed	-12.2486
▁attachment	-12.2489
▁disruption	-12.2492
▁Ambros	-12.2498
▁Indus	-12.2509
cast	-12.2512
famous	-12.2512
ruba	-12.2518
▁scream	-12.2521
▁floors	-12.2524
▁pric	-12.2525
menc	-12.2527
▁remembering	-12.2533
▁Sale	-12.2535
▁Lind	-12.2536
▁induction	-12.2546
entagon	-12.2547
▁Patient	-12.2548
▁alkaloid	-12.2548
▁boast	-12.2548
▁posthumous	-12.2548
▁aberration	-12.2548
▁existential	-12.2548
▁delicate	-12.2548
▁Doroth	-12.2548
▁Capitol	-12.2549
▁rethink	-12.2549
oto	-12.255
▁halve	-12.255
tangible	-12.2553
▁climber	-12.2554
▁Pra	-12.2554
▁outrage	-12.2557
▁lateral	-12.2562
▁upgrad	-12.2564
tric	-12.257
sensitive	-12.2577
▁Rohr	-12.2577
▁thermo	-12.2582
dding	-12.2582
▁alkane	-12.2582
▁Pakistani	-12.2583
▁Atlanti	-12.2586
shine	-12.2588
▁princess	-12.2588
▁Rai	-12.2594
▁Prussia	-12.2598
▁flowering	-12.2599
erome	-12.2614
▁erupt	-12.2614
▁fec	-12.2615
▁royalt	-12.2615
Abdu	-12.2618
▁Tac	-12.2618
▁Laws	-12.2619
▁Disease	-12.2619
▁carbohydrate	-12.2619
▁spectator	-12.2619
▁Squadron	-12.2619
▁chimp	-12.2619
▁niece	-12.2619
▁Study	-12.2619
▁haunt	-12.2619
▁unofficial	-12.2619
▁urgent	-12.262
▁phosphorus	-12.2621
▁stabiliz	-12.2621
▁lightweight	-12.2622
▁compuls	-12.2623
▁frightening	-12.2625
▁Ceme	-12.2632
ascar	-12.2632
▁physiolog	-12.2633
AP	-12.2636
▁Aster	-12.2637
▁Ac	-12.2641
▁fortifi	-12.2643
▁unaware	-12.2645
▁archaic	-12.2645
▁warship	-12.265
ival	-12.2657
▁synthesizer	-12.2658
SS	-12.2664
stri	-12.2665
▁conservat	-12.2665
▁LP	-12.2666
▁Malay	-12.267
▁optimize	-12.2674
▁greet	-12.2674
▁compressi	-12.2687
▁OE	-12.2689
▁amaz	-12.269
▁Approximate	-12.2691
▁Lombard	-12.2691
▁genomic	-12.2691
▁taxonom	-12.2691
▁Amazing	-12.2691
▁martyr	-12.2691
▁moisture	-12.2691
▁watershed	-12.2691
▁diffuse	-12.2691
▁ret	-12.2692
▁anxious	-12.2692
▁Ernest	-12.2694
▁endors	-12.2694
▁teammate	-12.2694
▁Guin	-12.2695
▁prosecution	-12.2696
▁instructor	-12.2696
▁inefficient	-12.2697
▁tilt	-12.2698
▁dung	-12.2699
elect	-12.2701
▁realis	-12.2705
▁innovate	-12.2705
▁Opera	-12.2708
asis	-12.2709
▁nut	-12.2714
winning	-12.2714
▁DSM	-12.2717
▁auro	-12.272
▁converge	-12.272
aunt	-12.2721
▁generalize	-12.2724
emost	-12.2725
ohannes	-12.2727
▁revert	-12.2728
natural	-12.2735
ovan	-12.274
▁disappointed	-12.2745
mberg	-12.2748
lining	-12.2758
▁vertebra	-12.2762
ijuana	-12.2764
▁archbishop	-12.2764
▁scaffold	-12.2764
▁redundan	-12.2764
▁secession	-12.2764
▁granite	-12.2764
▁Trump	-12.2764
▁Cathar	-12.2764
▁rodent	-12.2765
▁Millenni	-12.2765
▁embarrassing	-12.2768
▁blockade	-12.277
▁Diane	-12.2772
▁Decca	-12.2774
▁marginal	-12.2779
esla	-12.278
lerant	-12.2782
▁scare	-12.2784
▁Mach	-12.2788
▁wipe	-12.2794
ggle	-12.2796
▁qui	-12.2802
ption	-12.2803
▁bombard	-12.2803
▁cite	-12.2804
blowing	-12.2806
▁divinit	-12.2808
lept	-12.2815
food	-12.2821
▁Du	-12.2826
IN	-12.2826
▁reasonabl	-12.2827
▁Eri	-12.2827
▁cha	-12.2828
▁sculpt	-12.2833
▁commemorat	-12.2835
▁char	-12.2836
ailroad	-12.2836
▁celiba	-12.2837
▁circa	-12.2837
▁convenience	-12.2837
▁scroll	-12.2837
▁Complex	-12.2837
▁puppet	-12.2837
▁drummer	-12.2837
▁ASL	-12.2837
▁backyard	-12.2837
▁vici	-12.2838
▁Saul	-12.2838
▁catalogue	-12.2839
▁anatomical	-12.2839
▁dug	-12.2841
▁Oriental	-12.2841
gram	-12.2841
▁tagg	-12.2841
▁thickness	-12.2844
▁shepherd	-12.2844
heid	-12.2847
▁yell	-12.2849
▁Block	-12.2849
▁geolog	-12.285
▁Depend	-12.2852
▁Twin	-12.2854
▁Mya	-12.286
▁helpless	-12.2861
▁cri	-12.2865
▁disturbing	-12.2868
▁Glass	-12.2869
▁Bit	-12.2873
▁spy	-12.2878
code	-12.2878
▁Hat	-12.288
▁Canar	-12.2884
gue	-12.2891
▁Mari	-12.2892
▁mot	-12.2894
▁flux	-12.2895
▁intersect	-12.2896
▁digg	-12.2897
▁Wire	-12.2898
▁resume	-12.2903
▁legitima	-12.2909
▁annihilat	-12.291
▁altruism	-12.291
▁pennant	-12.291
▁salamander	-12.291
▁serpent	-12.291
▁epoch	-12.291
▁boomerang	-12.291
▁Sky	-12.291
▁geek	-12.2911
▁ooh	-12.2911
▁Principle	-12.2912
▁submission	-12.2913
▁loot	-12.2915
▁widen	-12.2915
▁Briton	-12.2917
▁Hear	-12.2918
▁prose	-12.2918
uz	-12.2918
▁grocery	-12.2921
▁Heath	-12.2922
▁interst	-12.2922
tag	-12.2923
DC	-12.2924
▁caste	-12.2925
▁fret	-12.2926
asca	-12.2927
▁unrest	-12.2927
epler	-12.293
avian	-12.2931
▁Gius	-12.2933
▁nonviolen	-12.2942
aph	-12.2945
dot	-12.2946
▁conven	-12.2952
▁Mile	-12.2953
lature	-12.2956
▁agar	-12.2958
▁Scots	-12.2965
urus	-12.2965
▁undertake	-12.2968
▁Engine	-12.297
olis	-12.2972
ular	-12.2972
▁Bai	-12.2978
▁Faith	-12.2984
▁Presbyterian	-12.2984
▁Spence	-12.2984
▁covenant	-12.2984
▁skyscraper	-12.2984
▁rectangle	-12.2984
▁Bad	-12.2984
▁erotic	-12.2984
▁Atlas	-12.2985
▁quarterback	-12.2985
▁cyclist	-12.2986
▁Fellow	-12.2987
▁Holland	-12.299
loo	-12.2992
mile	-12.2992
▁bounce	-12.2993
▁doctorate	-12.2993
▁Beta	-12.2993
▁daylight	-12.2993
▁adherent	-12.2996
▁Marlboro	-12.3002
care	-12.3005
▁Ice	-12.3017
▁perfection	-12.3025
ME	-12.3026
▁grie	-12.3028
▁Hein	-12.3036
imi	-12.3037
▁Rey	-12.304
annon	-12.304
▁rockets	-12.3045
▁Aberd	-12.3046
consistent	-12.3046
▁prosecut	-12.3047
▁Alb	-12.3048
▁PT	-12.3051
▁posit	-12.3052
▁fade	-12.3052
▁blurr	-12.3057
▁lips	-12.3058
conclusive	-12.3059
▁Covenant	-12.3059
▁Writing	-12.3059
▁militant	-12.3059
▁unacceptabl	-12.3059
assembl	-12.3059
▁olive	-12.3059
▁Monteverd	-12.306
▁NCA	-12.3061
▁mac	-12.3061
▁Bros	-12.3062
▁Laugh	-12.3064
▁Clair	-12.3065
▁phoneme	-12.3066
guel	-12.3069
wick	-12.307
▁miner	-12.3074
anuel	-12.3076
▁relieve	-12.3077
SP	-12.308
▁democratiz	-12.3082
▁Care	-12.3082
ldred	-12.3084
▁harden	-12.3084
▁cock	-12.3085
▁screaming	-12.3087
▁Franco	-12.3091
mark	-12.3093
▁fertiliz	-12.3093
▁dim	-12.3095
▁homogeneous	-12.3098
▁Touris	-12.3102
▁Digi	-12.3107
▁rider	-12.3109
genic	-12.3109
▁triangula	-12.3111
acci	-12.3112
▁cleaner	-12.3115
▁PR	-12.3119
▁experimentation	-12.3122
▁anal	-12.3122
▁Carm	-12.3123
solub	-12.3125
▁Constan	-12.3126
▁professors	-12.3128
▁Griffi	-12.3129
▁hectare	-12.3134
▁Evangelical	-12.3134
▁Corsica	-12.3134
▁Habsburg	-12.3134
▁Grammy	-12.3134
▁facade	-12.3135
▁convolution	-12.3137
▁absurd	-12.314
▁nerd	-12.3145
▁imitate	-12.3156
▁obsession	-12.3172
▁Metro	-12.3173
▁rescu	-12.3175
▁Carte	-12.318
▁Au	-12.3182
etter	-12.3183
▁1820	-12.3183
▁Rich	-12.3188
▁fluoride	-12.3192
▁Rub	-12.3193
krainian	-12.321
▁commune	-12.321
▁diacritic	-12.321
▁relevanc	-12.321
▁mortar	-12.321
▁oyster	-12.321
▁miniature	-12.321
▁tariff	-12.321
▁confusing	-12.321
▁reconciliation	-12.321
▁Paper	-12.321
▁disband	-12.321
▁peacekeep	-12.321
▁sock	-12.3211
▁Boole	-12.3211
▁bioma	-12.3211
▁resemblance	-12.3211
▁innovator	-12.3211
▁Rush	-12.3212
▁lime	-12.3212
▁sync	-12.3213
▁intern	-12.3213
▁IC	-12.3214
▁encompasse	-12.3216
▁Whig	-12.3216
▁topograph	-12.322
aust	-12.322
▁novelist	-12.3221
▁uninten	-12.3223
▁placebo	-12.3223
▁remotely	-12.3228
▁Fine	-12.3237
29	-12.3244
▁yoursel	-12.3246
ogen	-12.3248
▁recreate	-12.325
kh	-12.3251
friend	-12.3251
▁sunk	-12.3252
Pack	-12.3254
▁Happ	-12.3255
▁Ski	-12.3259
▁exponentially	-12.3261
▁AG	-12.3262
▁ACE	-12.3262
utu	-12.3265
osa	-12.3265
▁Environment	-12.327
▁unpredictabl	-12.3271
▁cafe	-12.3273
part	-12.3276
bane	-12.3277
▁eject	-12.3284
publish	-12.3284
length	-12.3284
zh	-12.3284
▁housed	-12.3285
ennial	-12.3285
▁Chancellor	-12.3286
▁Previous	-12.3286
▁antioxidant	-12.3286
▁consecrat	-12.3286
▁cytoplasm	-12.3286
▁kernel	-12.3286
▁superficial	-12.3286
▁Broadcast	-12.3286
▁aperture	-12.3286
esteem	-12.3286
▁bolt	-12.3286
▁entail	-12.3286
▁carving	-12.3286
▁ATM	-12.3287
▁gym	-12.3287
▁nun	-12.3287
▁aristocra	-12.3287
▁stir	-12.3288
▁Room	-12.3289
exist	-12.3294
▁Lester	-12.3294
▁cyclic	-12.3297
▁phonetic	-12.3299
▁conceive	-12.3301
▁newborn	-12.3305
string	-12.3307
▁oblig	-12.3308
▁cyto	-12.3325
▁Physic	-12.3326
▁crosse	-12.3329
▁racist	-12.3334
▁Shi	-12.3335
▁Ring	-12.3336
GO	-12.3341
▁Rican	-12.335
▁motors	-12.335
▁Hay	-12.3355
berry	-12.3357
▁saturat	-12.3358
▁clutch	-12.336
▁Lockheed	-12.3363
▁irrelevan	-12.3363
▁telegraph	-12.3363
▁fauna	-12.3363
▁residual	-12.3363
▁Ryan	-12.3364
▁Carava	-12.3364
▁Chaos	-12.3364
▁superpower	-12.3365
▁fringe	-12.3365
▁decent	-12.3365
uixot	-12.3366
brick	-12.3366
▁fitting	-12.3367
Semit	-12.3368
▁allocat	-12.337
▁Cruz	-12.337
▁prefixe	-12.337
▁distortion	-12.3371
▁contingent	-12.3372
▁worsen	-12.3372
▁20-	-12.3372
▁Pac	-12.3376
▁chat	-12.3378
▁Gray	-12.3381
▁sneaker	-12.3381
▁presid	-12.3383
▁Aston	-12.3388
ggio	-12.3389
▁flags	-12.339
▁Disc	-12.3393
ida	-12.3394
▁Buck	-12.3395
nyl	-12.3395
▁communis	-12.3396
▁Hug	-12.3396
▁savanna	-12.3396
▁Compar	-12.3398
▁Bath	-12.3405
▁maxim	-12.3415
▁polite	-12.3416
▁awake	-12.342
▁creditor	-12.3422
▁staring	-12.3422
▁wander	-12.3425
▁Table	-12.3426
▁Ern	-12.3428
▁swor	-12.3429
▁duo	-12.3436
▁Abdul	-12.3437
▁Loyalist	-12.3441
▁Mumbai	-12.3441
▁Nuclear	-12.3441
▁Pretty	-12.3441
▁Reconstruction	-12.3441
▁Riemann	-12.3441
▁Thursday	-12.3441
▁bloom	-12.3441
▁chalk	-12.3441
▁iPad	-12.3441
▁intricate	-12.3441
▁neuroscientist	-12.3441
▁Satan	-12.3441
▁bucket	-12.3441
▁Future	-12.3441
▁foul	-12.3441
▁Pirate	-12.3441
▁bassoon	-12.3441
▁Schwe	-12.3442
▁Aene	-12.3443
pulc	-12.3443
▁Mik	-12.3445
▁recurr	-12.3445
▁planner	-12.3446
▁Geno	-12.3447
▁seas	-12.3448
cci	-12.3448
▁republican	-12.3448
▁Glad	-12.3451
▁cookie	-12.3454
▁Gaza	-12.3456
asha	-12.3457
▁Proto	-12.3459
keep	-12.3461
▁HM	-12.3463
▁innate	-12.3464
▁digesti	-12.3465
rgon	-12.3466
▁deposition	-12.3467
ovsk	-12.3468
▁gener	-12.3469
▁Lot	-12.347
▁rust	-12.3472
▁Discover	-12.3474
ista	-12.3475
▁Gol	-12.3475
drop	-12.3478
▁amine	-12.3479
then	-12.3481
building	-12.3486
▁recit	-12.3493
▁warp	-12.3496
val	-12.3497
▁Tunisia	-12.3498
▁admire	-12.3499
▁Romanian	-12.3501
▁invasive	-12.3505
▁badge	-12.3507
gon	-12.3508
▁asthma	-12.3508
eager	-12.3509
▁Ren	-12.351
▁Fun	-12.3511
▁bent	-12.3515
▁blockchain	-12.3519
▁bureaucrac	-12.3519
▁evangelical	-12.3519
▁filament	-12.3519
▁privatiz	-12.3519
▁Engel	-12.3519
▁autistic	-12.3519
azakh	-12.3519
▁Angu	-12.3519
▁Fla	-12.352
▁optimization	-12.352
▁Belarusian	-12.3521
▁cod	-12.3523
▁Fernand	-12.3526
kos	-12.3527
▁Beast	-12.3528
▁blessed	-12.3529
▁Palma	-12.353
ference	-12.3531
three	-12.3534
▁Caliph	-12.3537
romatic	-12.3539
NT	-12.3539
mov	-12.354
mpress	-12.3548
▁specifie	-12.3549
▁Mrs	-12.3553
▁Harve	-12.3556
tail	-12.3559
bart	-12.3564
▁violate	-12.3565
▁polls	-12.3566
▁activis	-12.3566
▁Step	-12.3571
reach	-12.3572
energy	-12.3572
shap	-12.3582
▁categoriz	-12.3583
▁transmitter	-12.3585
unnel	-12.3586
▁electro	-12.3587
▁circum	-12.3591
▁Grey	-12.3592
▁coron	-12.3595
▁justification	-12.3596
▁exponent	-12.3597
mayyad	-12.3597
▁Talmud	-12.3597
▁sparse	-12.3597
▁supernova	-12.3597
▁Bolshevik	-12.3597
▁wilderness	-12.3597
▁Combin	-12.3597
▁Abbot	-12.3598
▁righteous	-12.3598
▁coache	-12.3598
▁rib	-12.36
▁Arena	-12.36
▁spear	-12.36
▁Wide	-12.3601
▁mobiliz	-12.3602
▁eruption	-12.3603
▁hut	-12.3603
orba	-12.3604
▁Gran	-12.3604
▁overflow	-12.3606
iscons	-12.3607
▁Arct	-12.361
▁constructive	-12.361
▁subt	-12.3617
▁memorabl	-12.3619
mail	-12.3622
▁orchestral	-12.3623
rock	-12.3638
▁Foo	-12.3639
▁Tomb	-12.364
▁nationally	-12.364
▁inflict	-12.3642
▁Notabl	-12.3642
▁Lou	-12.3643
▁buyer	-12.3646
▁Sport	-12.3651
▁clicks	-12.3652
▁Philosoph	-12.3656
▁Rap	-12.3657
abinet	-12.366
▁Chen	-12.3673
▁Archaeo	-12.3674
▁Shu	-12.3675
▁Globe	-12.3677
▁playwright	-12.3677
▁turret	-12.3677
▁grizzl	-12.3677
▁transcrib	-12.3677
▁TEDTalk	-12.3677
▁liter	-12.3678
▁Cru	-12.3678
▁classmate	-12.3678
▁pedal	-12.3678
DB	-12.3679
▁Woll	-12.3679
▁audition	-12.368
▁devotion	-12.368
▁passport	-12.3681
▁GM	-12.3685
▁amplifier	-12.3688
▁Latino	-12.3689
poli	-12.3691
iable	-12.3691
LC	-12.3691
lash	-12.3694
▁slit	-12.3698
▁Bac	-12.3701
▁tipp	-12.3701
enny	-12.3702
▁Tark	-12.3704
▁Derri	-12.3709
ku	-12.3711
▁broadcaster	-12.3714
▁Algerian	-12.3718
▁Statistic	-12.3718
cover	-12.373
▁compost	-12.373
▁radi	-12.3734
▁dams	-12.3737
▁amuse	-12.3743
▁Working	-12.3744
▁Stand	-12.3745
cela	-12.3748
▁conserv	-12.3749
▁CI	-12.3752
▁Ig	-12.3753
▁Set	-12.3753
colleg	-12.3753
word	-12.3755
▁Gabriel	-12.3757
▁Thousand	-12.3757
▁Wednesday	-12.3757
▁conscience	-12.3757
▁dyslexi	-12.3757
▁nickel	-12.3757
▁pervasive	-12.3757
▁prolific	-12.3757
▁quark	-12.3757
▁introvert	-12.3757
▁kinetic	-12.3757
▁relegat	-12.3757
▁multipli	-12.3758
▁Album	-12.3759
▁planting	-12.3759
ristol	-12.3759
▁overlapp	-12.3759
▁Drex	-12.3761
▁Orwell	-12.3761
aver	-12.3762
▁deviation	-12.3764
▁beast	-12.3764
▁Gab	-12.3766
▁villain	-12.3766
▁corpse	-12.3769
▁bitum	-12.3772
▁alteration	-12.3773
OC	-12.3774
▁upstream	-12.3774
▁2,	-12.3777
▁Tech	-12.3778
▁Rug	-12.378
drawn	-12.3783
flux	-12.3785
▁theft	-12.3787
stair	-12.3791
guard	-12.3793
▁Nur	-12.38
erland	-12.38
▁Gross	-12.3804
beth	-12.3806
inium	-12.381
▁1.5	-12.381
▁Page	-12.381
▁Run	-12.381
▁phosphate	-12.3813
▁apologize	-12.3819
udi	-12.3828
▁inaugura	-12.3829
▁Hamps	-12.383
zbek	-12.3837
▁catastrophe	-12.3837
▁chromatograph	-12.3837
▁episcopa	-12.3837
▁lieutenant	-12.3837
▁primordial	-12.3837
▁artisan	-12.3837
▁capsule	-12.3837
▁Rudol	-12.3837
▁mutilat	-12.3837
▁waist	-12.3838
▁Montana	-12.3838
▁query	-12.3838
▁strive	-12.3838
▁Lago	-12.3841
ova	-12.3842
▁canton	-12.3842
ibility	-12.3843
▁recognise	-12.3843
uarter	-12.3844
pirac	-12.3844
AS	-12.3845
fri	-12.3845
▁Ferr	-12.3849
actic	-12.3849
election	-12.385
▁Gas	-12.3851
number	-12.3852
▁Aime	-12.3852
▁Institution	-12.3853
▁Walt	-12.3853
▁misuse	-12.3854
▁Mahm	-12.3855
▁Fear	-12.3855
specific	-12.3863
composition	-12.3864
▁undermine	-12.3864
▁ANS	-12.3866
▁mast	-12.3868
▁arbitrat	-12.3869
▁Personal	-12.3871
▁Tang	-12.3871
▁portrayal	-12.3874
▁worshipp	-12.3874
▁Physical	-12.3876
generat	-12.388
▁Mali	-12.3881
erot	-12.3884
▁neo	-12.3886
▁torn	-12.3888
▁Tan	-12.3891
▁Eden	-12.3897
minary	-12.3897
▁Adria	-12.3898
▁nm	-12.3899
▁studios	-12.39
rink	-12.3902
NFC	-12.3903
▁Hayd	-12.3905
lage	-12.3905
ural	-12.3906
▁congesti	-12.3912
▁Fact	-12.3915
▁compatib	-12.3915
▁Wonder	-12.3917
▁sticker	-12.3918
▁coconut	-12.3919
▁plunder	-12.3919
▁pneumonia	-12.3919
▁surname	-12.3919
▁Euler	-12.3919
▁decentraliz	-12.3919
▁pleasant	-12.3919
▁microorganism	-12.3919
▁Magic	-12.3919
▁emblem	-12.3919
▁Relations	-12.3919
▁converse	-12.3919
▁disappointment	-12.392
▁improvisation	-12.3921
▁Nap	-12.3922
▁preli	-12.3922
▁deception	-12.3922
▁batch	-12.3922
▁Liberia	-12.3923
▁collar	-12.3926
gainst	-12.3928
▁Birth	-12.3928
▁Spin	-12.3928
breaking	-12.3929
▁dissect	-12.393
▁worldview	-12.3932
▁polariz	-12.3936
mnon	-12.3937
▁hostage	-12.394
▁Grana	-12.3947
▁spa	-12.3947
▁storyteller	-12.3947
General	-12.3949
social	-12.3949
Hungarian	-12.3949
phasi	-12.395
▁alienat	-12.3951
▁rage	-12.3952
avail	-12.3952
sleep	-12.3956
abil	-12.3957
▁junk	-12.3957
lar	-12.3962
▁Brig	-12.3963
▁Gib	-12.3964
▁Olympia	-12.3965
▁refusal	-12.3972
▁Gai	-12.3973
parte	-12.3975
▁Mat	-12.3978
▁Emer	-12.3979
▁biase	-12.3985
housi	-12.3991
itude	-12.3992
▁Canon	-12.3994
▁compass	-12.3996
▁grat	-12.3997
lor	-12.3999
ehind	-12.3999
▁Birds	-12.4
▁abrupt	-12.4001
▁Scripture	-12.4001
▁Wagner	-12.4001
▁adolescence	-12.4001
▁ambulance	-12.4001
▁repetitive	-12.4001
▁protocell	-12.4001
▁sympathetic	-12.4001
jev	-12.4001
▁Benedictine	-12.4001
▁oak	-12.4002
▁orthograph	-12.4002
▁Leib	-12.4002
▁boycott	-12.4002
▁casual	-12.4003
▁veil	-12.4003
▁Cloud	-12.4003
▁witch	-12.4005
▁Rachel	-12.4006
▁screenplay	-12.4006
▁diar	-12.4007
▁carrot	-12.4008
▁Sey	-12.4011
▁fails	-12.4012
▁121	-12.4014
▁propeller	-12.4016
▁educator	-12.4018
▁Mauri	-12.4019
▁orphan	-12.4026
oel	-12.4026
ladi	-12.4031
▁202	-12.4032
ome	-12.4033
negative	-12.4034
▁Mall	-12.4034
▁recurren	-12.4037
▁su	-12.4038
▁magne	-12.4039
rassic	-12.4047
▁lure	-12.4049
▁devote	-12.4052
▁Sandy	-12.4054
▁basal	-12.4058
▁banner	-12.406
▁coating	-12.406
▁Mes	-12.4062
▁Fat	-12.4063
▁inscribe	-12.4063
rise	-12.4064
▁rubb	-12.4064
▁witnesse	-12.4065
▁Goal	-12.4065
▁judg	-12.4067
▁pi	-12.4068
irtual	-12.4069
ith	-12.407
produc	-12.407
▁vacan	-12.4076
▁Laur	-12.4083
▁Punjab	-12.4083
▁ambien	-12.4083
▁cassette	-12.4083
▁crankshaft	-12.4083
▁mammoth	-12.4083
▁pseudonym	-12.4083
▁template	-12.4083
▁Legend	-12.4083
▁mercenar	-12.4083
▁paragraph	-12.4083
▁Speed	-12.4084
▁Trigger	-12.4084
▁swarm	-12.4084
dwig	-12.4084
▁mural	-12.4084
▁Androni	-12.4084
doba	-12.4085
emia	-12.4086
▁skip	-12.4087
▁backbone	-12.4088
▁Barne	-12.4088
▁Luis	-12.4088
▁urbanization	-12.409
▁trench	-12.4092
aque	-12.4095
▁academ	-12.4097
▁fond	-12.4097
▁Cran	-12.4102
tress	-12.4103
MW	-12.4105
▁Andrea	-12.4109
▁biologically	-12.411
orus	-12.4112
cia	-12.4117
lese	-12.4119
▁mob	-12.412
▁peptide	-12.412
▁Rain	-12.4121
RI	-12.4124
▁Architectur	-12.4128
▁wandering	-12.413
raham	-12.4135
▁longe	-12.4136
▁sect	-12.4136
▁Greg	-12.4137
▁Historic	-12.4143
▁decorati	-12.4147
▁capacit	-12.4156
▁delicio	-12.4161
▁Boi	-12.4162
▁pollut	-12.4162
▁fog	-12.4163
▁Casi	-12.4163
▁Chemist	-12.4167
▁disastrous	-12.4167
▁unequal	-12.4167
▁pornograph	-12.4167
▁Simpson	-12.4167
▁acetyl	-12.4167
▁companions	-12.4167
▁Garcia	-12.4167
ueensland	-12.4167
▁connectome	-12.4167
▁Gy	-12.4168
▁bachelor	-12.4168
▁ES	-12.4168
▁Marxist	-12.4168
▁iceberg	-12.4169
▁Chester	-12.4169
▁depressive	-12.4169
▁switche	-12.417
▁attendant	-12.4172
▁Haitian	-12.4173
▁Duck	-12.4173
anti	-12.4175
▁lip	-12.4177
eisel	-12.4177
▁Myster	-12.418
▁advise	-12.4184
▁Neo	-12.4185
size	-12.419
▁enthusiast	-12.4193
▁excret	-12.4196
▁Drum	-12.4196
▁Beer	-12.4202
gers	-12.4203
▁fundrais	-12.4203
cha	-12.4205
▁8-	-12.4205
▁Bavarian	-12.4206
▁Met	-12.4207
▁Bett	-12.421
▁Mauriti	-12.421
▁Pier	-12.4214
▁Mack	-12.4216
olds	-12.422
▁domino	-12.4226
▁Somali	-12.4231
▁Author	-12.4232
▁recreation	-12.4233
EM	-12.4238
▁dynamical	-12.4245
▁Bus	-12.4246
▁humiliat	-12.4246
▁Dune	-12.4247
▁catalog	-12.4248
▁inward	-12.4249
olta	-12.4249
angelo	-12.4251
▁Circle	-12.4251
▁kilometre	-12.4251
▁lexical	-12.4251
▁plutonium	-12.4251
▁unpleasant	-12.4251
▁Adult	-12.4251
▁garment	-12.4251
▁Selig	-12.4251
▁Perform	-12.4251
▁governors	-12.4251
rising	-12.4253
▁portal	-12.4255
▁masculine	-12.4256
▁feudal	-12.4257
▁empowerment	-12.4258
▁Tel	-12.4258
▁dismantl	-12.4259
▁virtu	-12.4259
leg	-12.426
▁Friedman	-12.4261
▁Lao	-12.4264
atti	-12.4268
▁morally	-12.4268
▁Truth	-12.4268
▁Camu	-12.4273
▁prostituti	-12.4275
▁interven	-12.4277
▁118	-12.4281
▁heredit	-12.4284
amine	-12.4285
▁relational	-12.4291
owl	-12.4301
▁aspirat	-12.4302
▁curse	-12.4302
mine	-12.4303
▁recorder	-12.4311
▁DR	-12.4313
▁interchangeabl	-12.4327
ction	-12.4328
▁Mob	-12.4331
▁FIF	-12.4331
▁feeds	-12.4331
oyle	-12.4334
▁abolition	-12.4335
oalition	-12.4335
acea	-12.4335
nowledge	-12.4335
▁benign	-12.4335
▁disintegrat	-12.4335
▁esoteric	-12.4335
▁intimacy	-12.4335
▁polyhedr	-12.4335
▁tectonic	-12.4335
▁Morning	-12.4335
▁unreliab	-12.4335
▁subdivid	-12.4335
▁platinum	-12.4336
weh	-12.4336
▁concession	-12.4336
▁crane	-12.4336
▁neighbourhood	-12.4336
▁jacket	-12.4336
▁gigant	-12.4337
▁harassment	-12.4337
▁stronghold	-12.4337
▁discount	-12.4338
▁hierarchical	-12.4338
▁temptation	-12.4338
▁paternal	-12.4338
▁Ridge	-12.4339
▁prox	-12.434
▁relic	-12.4346
ali	-12.4347
▁outnumber	-12.4347
▁Sex	-12.4348
▁Malt	-12.4348
▁Cron	-12.4348
▁Arno	-12.4349
▁token	-12.435
▁investigator	-12.435
▁Flo	-12.4355
▁antipsychotic	-12.4358
▁stereo	-12.4358
▁Wy	-12.4359
cent	-12.4359
som	-12.4362
▁Hills	-12.4365
load	-12.4367
▁Archive	-12.4369
▁MA	-12.4369
▁observable	-12.4371
err	-12.4371
▁preacher	-12.4372
▁terminate	-12.4374
▁delete	-12.4374
▁Teacher	-12.4377
appella	-12.4377
▁Mode	-12.4387
▁Rev	-12.4394
▁Factor	-12.4396
onia	-12.4397
▁159	-12.4401
▁stitch	-12.4409
iath	-12.4412
▁Eye	-12.4414
release	-12.4419
▁NT	-12.4419
▁Bitcoin	-12.4421
▁Episcopal	-12.4421
▁Strateg	-12.4421
▁exquisite	-12.4421
▁reinstate	-12.4421
▁unleash	-12.4421
▁vegetarian	-12.4421
▁Fleming	-12.4421
▁idiot	-12.4421
▁Elector	-12.4421
▁dissent	-12.4422
▁pilgrimage	-12.4422
▁reservation	-12.4423
▁Toward	-12.4425
▁imitation	-12.4425
▁watt	-12.4426
▁kite	-12.443
▁intra	-12.4431
▁Anabaptist	-12.4431
▁redevelop	-12.4432
▁traumatic	-12.4432
itis	-12.4433
▁apprentice	-12.4435
▁baseline	-12.4436
▁modular	-12.444
▁variance	-12.4445
▁resilien	-12.4447
▁Bug	-12.4449
82	-12.445
▁Mans	-12.4451
apolis	-12.4452
hims	-12.4453
▁Winds	-12.4454
▁borrowing	-12.4454
▁dedication	-12.4455
value	-12.4456
anyon	-12.446
▁biochemistr	-12.4461
▁divisib	-12.4464
▁offend	-12.4466
TO	-12.4467
elief	-12.4475
distance	-12.4478
▁moderat	-12.4478
atar	-12.4482
▁Scandinavia	-12.4486
▁Officer	-12.4488
▁Crusade	-12.4493
version	-12.4493
▁mysteri	-12.4494
Men	-12.4494
▁Argentine	-12.4498
▁pronoun	-12.4501
▁eu	-12.4503
ately	-12.4506
▁reflex	-12.4506
▁Appeal	-12.4507
▁Essential	-12.4507
▁Salvador	-12.4507
▁unfamiliar	-12.4507
▁ultrasound	-12.4507
▁staircase	-12.4507
▁nominee	-12.4507
▁barrister	-12.4507
▁dagger	-12.4508
▁blueprint	-12.4508
▁bromin	-12.4508
bat	-12.4508
▁Annual	-12.4508
▁fortification	-12.4508
▁reus	-12.451
TS	-12.451
disproportionate	-12.451
▁Organ	-12.4511
▁mic	-12.4512
▁reuse	-12.4512
▁Powers	-12.4514
▁projector	-12.4516
▁Sebastia	-12.4517
▁favorabl	-12.4517
▁excellence	-12.452
▁blink	-12.4524
ef	-12.4525
▁credi	-12.4527
▁concubine	-12.4532
▁wow	-12.4534
▁emulate	-12.4536
▁tomato	-12.4536
▁revive	-12.4538
▁Thorn	-12.4538
mnest	-12.4541
▁anim	-12.4543
▁Win	-12.4545
▁squeeze	-12.4547
▁Gott	-12.4552
▁vascular	-12.4552
▁candy	-12.4555
▁Got	-12.4557
▁frie	-12.4559
▁hypothesiz	-12.4566
shift	-12.4566
folk	-12.4568
walk	-12.4574
▁Nazis	-12.4577
▁stare	-12.4581
▁institut	-12.4582
▁Bird	-12.4583
▁Brab	-12.4583
▁stag	-12.4583
▁symmetric	-12.4585
▁comprehensi	-12.4585
▁Blu	-12.4586
▁Cochran	-12.4594
▁Slovenia	-12.4594
▁unwilling	-12.4594
▁disparit	-12.4594
▁Aleut	-12.4594
▁Soldier	-12.4594
▁nasty	-12.4594
▁slang	-12.4594
▁12-	-12.4594
adesh	-12.4595
▁litter	-12.4596
▁recursive	-12.4598
▁Creat	-12.4598
▁gateway	-12.4599
▁Borne	-12.46
▁Face	-12.46
▁SW	-12.4602
▁octave	-12.4602
Crisis	-12.4603
▁insulat	-12.4604
▁rack	-12.4605
taller	-12.4616
▁dam	-12.4623
▁awe	-12.4623
▁predat	-12.4624
dell	-12.4625
orn	-12.4628
▁mindful	-12.4629
▁prescribe	-12.4635
acco	-12.4635
▁Ariane	-12.4636
NN	-12.4637
▁retract	-12.4637
▁jets	-12.4643
etus	-12.4647
▁CR	-12.4648
▁cultivate	-12.4649
▁patien	-12.465
agre	-12.4657
▁Mail	-12.4659
iang	-12.4665
▁forbid	-12.4666
▁Speak	-12.467
chu	-12.4672
▁Ammoni	-12.4681
▁confiscat	-12.4682
▁Antigua	-12.4682
▁Criminal	-12.4682
▁Nikola	-12.4682
▁Okinawa	-12.4682
▁extremist	-12.4682
▁litigation	-12.4682
▁libertarian	-12.4682
▁cohesi	-12.4682
▁courtyard	-12.4682
▁Adventist	-12.4682
▁Private	-12.4682
▁satire	-12.4682
▁sixteen	-12.4682
▁Left	-12.4683
▁bombardment	-12.4684
▁mash	-12.4684
terti	-12.4684
▁steppe	-12.4685
▁ingest	-12.4685
ectar	-12.4685
▁Writer	-12.4686
▁dictate	-12.4686
corn	-12.4686
▁Bryan	-12.4687
▁Access	-12.4687
▁Sister	-12.4687
▁regeneration	-12.4687
buro	-12.4687
▁margins	-12.469
utland	-12.469
▁API	-12.4692
▁Hadr	-12.4694
▁Hanna	-12.4698
▁robber	-12.47
▁expressive	-12.47
▁Religion	-12.4702
effective	-12.4703
▁awaken	-12.4706
▁competent	-12.4708
▁organizer	-12.4713
▁distributor	-12.4713
▁Friends	-12.4715
beck	-12.4715
▁specialis	-12.4717
▁Researcher	-12.4718
▁meaningless	-12.4719
omi	-12.4722
▁RD	-12.4722
▁Oz	-12.4726
▁Mol	-12.4726
▁Soul	-12.4728
▁Stevens	-12.4731
▁muc	-12.4733
▁imitat	-12.474
▁Barb	-12.4741
▁aspart	-12.4742
▁Rat	-12.4743
▁Hour	-12.4745
operation	-12.4746
▁vibrat	-12.4747
skirt	-12.4751
▁underestimate	-12.4751
fiction	-12.4754
▁indic	-12.4755
gill	-12.4757
▁defi	-12.4761
▁greed	-12.4762
urge	-12.4763
intestin	-12.4764
octrine	-12.4769
▁eco	-12.4769
▁elbow	-12.477
▁mortgage	-12.477
▁perceptual	-12.477
▁umbrella	-12.477
▁fatigue	-12.477
▁ribbon	-12.477
▁Shadow	-12.477
▁ravag	-12.477
▁bilingual	-12.477
▁denominator	-12.4771
▁arcade	-12.4771
▁curtain	-12.4771
blanc	-12.4771
▁Palm	-12.4771
▁bilateral	-12.4771
▁gorgeous	-12.4771
▁notebook	-12.4772
▁budd	-12.4772
▁Cadi	-12.4772
▁apostle	-12.4772
▁Getty	-12.4773
risk	-12.4774
▁vocalist	-12.4775
▁Cut	-12.4776
▁allocation	-12.4776
▁stalk	-12.4777
▁Airb	-12.4783
▁Seventh	-12.4786
GS	-12.4789
▁crocodile	-12.4793
▁Gang	-12.4795
ilwa	-12.4796
▁Genev	-12.4798
Mille	-12.48
▁vertic	-12.4801
▁swear	-12.4802
▁Attic	-12.4803
▁supersede	-12.4807
▁debat	-12.4807
▁morphological	-12.4808
leth	-12.4811
▁Banda	-12.4817
oltai	-12.4821
▁tele	-12.4825
▁Ward	-12.4826
▁smuggl	-12.4829
▁Salt	-12.4832
▁semina	-12.4834
eit	-12.4843
nutrition	-12.4843
edge	-12.4845
resolution	-12.4846
positive	-12.4846
▁Clo	-12.4846
▁fairy	-12.4848
asketball	-12.4858
▁Bubble	-12.486
▁Edmund	-12.486
▁Fifty	-12.486
▁fountain	-12.486
▁obedien	-12.486
▁dipole	-12.486
▁coincidence	-12.486
▁pluck	-12.486
▁osteo	-12.486
▁Doll	-12.486
▁Archaeolog	-12.4861
▁verna	-12.4861
▁cellphone	-12.4862
▁eclipse	-12.4864
▁gentl	-12.4866
▁pal	-12.4867
▁deadline	-12.4867
animate	-12.4872
istine	-12.4875
hab	-12.4883
purpose	-12.4885
▁Cam	-12.4885
hasa	-12.4891
▁liabilit	-12.4891
▁Laurent	-12.4892
▁slate	-12.4897
▁assured	-12.4899
▁teen	-12.4906
▁Champions	-12.4913
▁swo	-12.4914
▁poke	-12.4915
▁protester	-12.492
▁breasts	-12.4922
▁temper	-12.4923
▁conditional	-12.4923
▁Cambodian	-12.4924
lzhe	-12.4925
▁Lamb	-12.4925
▁Ambrosi	-12.4925
▁qua	-12.4928
▁nois	-12.4929
apest	-12.493
aucer	-12.493
ado	-12.493
acker	-12.4931
▁pearl	-12.4933
immer	-12.4936
phone	-12.4939
week	-12.4941
▁nobles	-12.4942
iev	-12.4942
▁frighten	-12.4944
▁Read	-12.4944
1990	-12.4944
▁fourteen	-12.4944
▁invok	-12.4945
group	-12.4946
rigg	-12.4948
▁detach	-12.4948
▁reintroduc	-12.4949
unior	-12.495
▁Bodhi	-12.495
▁Instrument	-12.495
▁caregiver	-12.495
▁clown	-12.495
▁conjugate	-12.495
▁leisure	-12.495
▁plaster	-12.495
▁acronym	-12.495
▁supersonic	-12.495
▁Guthr	-12.495
▁Moravia	-12.495
icillin	-12.495
▁cleric	-12.495
▁Pike	-12.495
▁Patent	-12.4951
▁Acadia	-12.4951
▁perpetrator	-12.4951
▁moth	-12.4951
▁blanket	-12.4951
▁Reich	-12.4951
▁Toulo	-12.4951
▁flare	-12.4952
▁Drive	-12.4952
▁fibro	-12.4953
▁mustache	-12.4954
▁guardian	-12.4955
▁conspir	-12.4956
▁Griffith	-12.4956
Chapel	-12.4958
▁Peak	-12.4959
▁learner	-12.496
▁Few	-12.4962
▁Abba	-12.4963
ama	-12.4964
▁admiral	-12.4967
▁Lancast	-12.4969
reason	-12.497
▁Pon	-12.4971
▁toast	-12.4972
▁Corp	-12.4978
iya	-12.498
▁propulsi	-12.498
dorf	-12.4987
▁uni	-12.4991
▁artificially	-12.5001
▁Pun	-12.5003
▁freeway	-12.5004
▁Worker	-12.5004
▁systemic	-12.5009
▁mol	-12.5012
▁giver	-12.5012
▁1.2	-12.5016
ature	-12.5019
▁reminder	-12.5022
▁Save	-12.5027
▁dispens	-12.5028
hel	-12.5029
▁feud	-12.5033
tree	-12.5034
▁Mayan	-12.5036
▁spac	-12.5039
▁Innovation	-12.5041
▁sulfate	-12.5041
▁cartilag	-12.5041
▁queue	-12.5041
▁LGBT	-12.5041
▁alkene	-12.5041
▁Population	-12.5041
▁Source	-12.5041
▁gaze	-12.5041
▁dhole	-12.5041
▁dragoon	-12.5041
-1980	-12.5041
▁reopen	-12.5041
▁filing	-12.5041
▁pardon	-12.5042
▁Casp	-12.5042
▁Phoenician	-12.5043
▁Archi	-12.5043
▁Lugo	-12.5043
▁wagon	-12.5044
▁Barr	-12.5045
▁Hawaiian	-12.5045
▁motorway	-12.5051
▁veto	-12.5051
▁conferr	-12.5055
▁Lex	-12.5056
pac	-12.5059
▁unsee	-12.5061
delai	-12.5063
▁runners	-12.5064
▁Mood	-12.507
▁ash	-12.508
▁monumental	-12.5081
tine	-12.5083
▁militari	-12.5084
▁timeline	-12.5086
mbled	-12.5086
stop	-12.5087
▁dare	-12.5089
▁Abi	-12.509
esc	-12.5096
mitt	-12.5097
mart	-12.51
educat	-12.51
parable	-12.5101
▁hacker	-12.5104
▁sponge	-12.5105
▁Bori	-12.5107
▁Made	-12.5109
▁legion	-12.5109
▁cheerlead	-12.5109
▁checker	-12.5112
▁CS	-12.5113
nterior	-12.5114
bac	-12.5115
▁customiz	-12.5116
▁directive	-12.5124
▁embarrass	-12.5125
▁digitiz	-12.5127
▁imperfect	-12.5128
▁deplet	-12.5128
▁synonym	-12.513
▁Method	-12.5131
▁unify	-12.5132
▁Attorney	-12.5132
▁Gustav	-12.5132
▁microprocessor	-12.5132
▁glyco	-12.5132
▁carcass	-12.5132
▁phylogenetic	-12.5132
▁Cotton	-12.5132
▁Emergenc	-12.5132
▁actinide	-12.5132
▁garner	-12.5132
▁Alhaz	-12.5132
▁Antoine	-12.5132
▁concurrent	-12.5132
▁Mandar	-12.5132
▁Cher	-12.5133
▁chronological	-12.5133
▁sunset	-12.5134
rift	-12.5134
▁chorus	-12.5135
▁Sunni	-12.5135
▁Boer	-12.5138
▁flush	-12.5139
▁airfield	-12.514
▁mansion	-12.5143
▁Fur	-12.5144
▁laz	-12.5145
▁novelty	-12.5147
▁Chair	-12.5152
▁Pash	-12.5157
▁Wend	-12.5159
enzie	-12.5159
▁Cart	-12.5165
GM	-12.5166
▁lik	-12.5166
▁Hank	-12.5167
rno	-12.517
▁Canton	-12.517
lley	-12.5173
regulat	-12.5174
GP	-12.5177
▁neutrino	-12.5179
▁listing	-12.519
▁Piss	-12.5193
nance	-12.5194
utonomous	-12.5195
▁Dock	-12.5199
▁Sparta	-12.5204
▁sincere	-12.5204
▁Wu	-12.521
▁antagonist	-12.5211
nos	-12.5212
pur	-12.5215
haus	-12.5217
nity	-12.5218
▁nurs	-12.5218
▁bankrupt	-12.5222
▁straw	-12.5223
▁Hal	-12.5224
▁mislead	-12.5225
▁intelligib	-12.5225
eptuag	-12.5225
▁Curtis	-12.5225
▁Mycenae	-12.5225
▁chalcogen	-12.5225
▁custod	-12.5225
▁diagonal	-12.5225
▁pamphlet	-12.5225
▁neurogenesis	-12.5225
▁piston	-12.5225
▁verge	-12.5225
▁psychopath	-12.5225
▁squid	-12.5225
▁boson	-12.5225
asiatic	-12.5225
▁dragonfl	-12.5225
▁nitride	-12.5225
▁CN	-12.5225
▁Divin	-12.5225
enetian	-12.5225
▁McDonald	-12.5226
▁clarify	-12.5226
isual	-12.5226
▁salad	-12.5227
▁Cosm	-12.5228
▁Lisb	-12.5229
▁Apat	-12.523
▁Islamist	-12.5231
page	-12.5232
tank	-12.5233
▁Fre	-12.5237
▁Rico	-12.5238
▁Mada	-12.5241
GI	-12.5242
fabricat	-12.5242
▁Farmer	-12.5253
▁byproduct	-12.5253
itting	-12.5254
▁Marco	-12.5258
▁Bam	-12.5262
egal	-12.5263
oker	-12.5266
▁beard	-12.5271
▁inert	-12.5273
▁outfield	-12.5281
▁Howe	-12.5283
▁Politic	-12.5283
▁assure	-12.5286
▁frustrating	-12.5287
AO	-12.5287
▁Bona	-12.529
▁Non	-12.5297
▁Religio	-12.5297
▁Nord	-12.5298
▁redefine	-12.5298
Aid	-12.5304
▁quotation	-12.5305
anna	-12.5307
▁pledge	-12.5314
▁tempt	-12.5316
▁behav	-12.5317
egitimate	-12.5318
▁tyrann	-12.5318
neurotransmitter	-12.5318
▁Concert	-12.5318
▁Copernic	-12.5318
▁Dravidian	-12.5318
▁cairn	-12.5318
▁mangrove	-12.5318
▁Primar	-12.5318
▁Freud	-12.5319
▁insecticide	-12.5319
▁outfit	-12.5319
▁geologist	-12.5319
▁favourite	-12.532
▁Shaw	-12.5321
▁Product	-12.5322
▁moor	-12.5323
▁Cels	-12.5323
▁flatten	-12.5323
▁lotter	-12.5323
▁humiliation	-12.5324
▁courageous	-12.5324
▁ANC	-12.5325
▁encyclopedia	-12.5325
lux	-12.5328
▁tailor	-12.5329
erde	-12.533
▁inappropriate	-12.5333
▁Basta	-12.5333
▁dislike	-12.5333
▁curva	-12.5337
▁Close	-12.5337
type	-12.5337
▁speculate	-12.5338
▁rhyme	-12.5339
▁DP	-12.5339
▁posts	-12.5339
yx	-12.5342
▁divert	-12.5348
▁inhal	-12.5351
graph	-12.5352
maker	-12.5353
▁Grove	-12.5355
▁cater	-12.5355
▁Champion	-12.5356
kel	-12.5358
▁Sid	-12.5359
▁rehabilitati	-12.5362
▁terminat	-12.5367
city	-12.5367
▁geographically	-12.5373
▁Rom	-12.5377
ED	-12.5383
▁Pul	-12.5389
▁avatar	-12.5391
▁graphical	-12.5392
BN	-12.5399
▁alga	-12.5404
ambia	-12.5406
▁Trans	-12.541
rill	-12.5411
▁cylindr	-12.5413
▁irritat	-12.5413
▁Publish	-12.5413
▁connotation	-12.5413
▁fuzz	-12.5413
▁blob	-12.5413
▁abbey	-12.5413
▁ordinance	-12.5413
▁gait	-12.5413
▁multitask	-12.5413
▁Edition	-12.5413
▁foreground	-12.5414
▁tails	-12.5414
▁subdivision	-12.5415
▁fluent	-12.5415
▁Agath	-12.5416
▁herald	-12.5418
▁Redwood	-12.5419
▁rover	-12.5419
▁consultation	-12.5421
▁booth	-12.5422
uestion	-12.5424
▁Accr	-12.543
▁skirt	-12.5434
▁alkalin	-12.5442
acin	-12.5443
▁environmentally	-12.5444
yi	-12.5447
▁salarie	-12.545
▁bake	-12.5451
▁CER	-12.5453
▁cheek	-12.5454
▁Div	-12.5455
nold	-12.5458
▁jumps	-12.5462
▁coupl	-12.5462
▁Ashes	-12.5464
▁Break	-12.5464
ief	-12.5465
▁vibrate	-12.5467
▁Sophi	-12.547
rahim	-12.547
▁mobilize	-12.5472
▁Him	-12.5476
▁Maya	-12.5477
emise	-12.5487
hairman	-12.5488
▁withstand	-12.5489
SE	-12.5495
▁robe	-12.5495
▁Hor	-12.5498
▁Southwest	-12.55
▁Cori	-12.5501
▁Mak	-12.5503
▁Ferm	-12.5505
▁Hoo	-12.5506
▁ascrib	-12.5508
▁Chernobyl	-12.5508
▁Cossack	-12.5508
▁Effect	-12.5508
▁Elliot	-12.5508
▁Occasional	-12.5508
▁Spaniard	-12.5508
▁Wizard	-12.5508
▁reminiscen	-12.5508
▁iodine	-12.5508
▁orgasm	-12.5508
▁Toyota	-12.5508
▁Tribun	-12.5508
▁ivory	-12.5508
▁graffiti	-12.5508
▁instantaneous	-12.5508
▁yarn	-12.5508
▁carboxyl	-12.5508
▁ozone	-12.5508
▁clerk	-12.5508
▁flour	-12.5509
▁westward	-12.5509
▁safeguard	-12.5509
▁Cyber	-12.5509
▁blur	-12.551
dad	-12.551
▁rehearsal	-12.5512
▁Legal	-12.5515
▁mammalian	-12.5516
▁PDP	-12.5516
synchronous	-12.5522
▁Syn	-12.5523
gone	-12.5525
▁pickup	-12.5526
▁inflat	-12.5526
▁affection	-12.5526
massive	-12.5526
▁Ranger	-12.5528
secure	-12.5532
▁dough	-12.5535
emp	-12.5537
▁Million	-12.5543
▁nutritional	-12.5543
nfantry	-12.5548
quo	-12.555
▁copi	-12.5551
▁demon	-12.5551
national	-12.5554
▁kn	-12.5557
▁Interesting	-12.5559
▁dwelling	-12.5563
▁barr	-12.5572
▁pp	-12.5573
hitter	-12.5574
▁paralys	-12.5575
▁substitut	-12.5578
▁surf	-12.5579
▁decode	-12.558
▁postulate	-12.558
oma	-12.5581
▁retailer	-12.5582
▁sur	-12.5583
▁pod	-12.5584
▁Luck	-12.5585
▁RCA	-12.5585
▁provok	-12.5586
developed	-12.5586
ommi	-12.5587
orium	-12.5599
eating	-12.5599
obb	-12.5599
▁configur	-12.5601
▁chick	-12.5602
▁compile	-12.5603
▁swap	-12.5603
▁glam	-12.5604
alcol	-12.5604
▁tempo	-12.5604
▁Brunswick	-12.5604
▁exacerbat	-12.5604
▁flavour	-12.5604
▁miraculous	-12.5604
▁misconception	-12.5604
▁Consumer	-12.5604
▁meadow	-12.5604
▁quartz	-12.5604
▁Neuman	-12.5604
▁delusion	-12.5604
▁Help	-12.5604
▁cosmetic	-12.5604
▁verify	-12.5604
▁biosphere	-12.5604
▁curator	-12.5604
▁councillor	-12.5605
▁Movie	-12.5605
▁charisma	-12.5605
▁pollutant	-12.5605
▁lump	-12.5605
▁Off	-12.5605
▁narrator	-12.5606
▁Luft	-12.5607
▁Image	-12.5607
▁subdu	-12.561
▁trustee	-12.5613
▁magician	-12.5614
▁coincid	-12.5614
▁Programme	-12.5622
gow	-12.5623
Hungar	-12.5625
▁reproduc	-12.5626
fashion	-12.5627
capable	-12.5627
iocese	-12.5628
▁conductiv	-12.5629
Bay	-12.5632
▁moderately	-12.5634
aircraft	-12.5634
▁Cygn	-12.5635
▁9,000	-12.5641
NI	-12.5641
▁cru	-12.566
▁diverg	-12.5667
▁manne	-12.5675
pler	-12.5675
▁forge	-12.5678
▁Lithuania	-12.568
mond	-12.568
ubl	-12.5687
▁reliev	-12.5694
▁dysfunction	-12.5694
▁lodge	-12.5696
▁compartment	-12.5701
▁sequential	-12.5701
ennifer	-12.5701
▁Nintendo	-12.5701
▁avenue	-12.5701
▁epithet	-12.5701
▁infinitesimal	-12.5701
▁receipt	-12.5701
▁vassal	-12.5701
▁brute	-12.5701
▁homicide	-12.5701
▁imbalance	-12.5701
▁Estonia	-12.5701
▁Blade	-12.5701
▁bracket	-12.5701
rmal	-12.5702
esuit	-12.5703
▁Darius	-12.5704
▁Single	-12.5704
▁Folk	-12.5705
▁photographic	-12.5705
▁caliph	-12.5706
▁1200	-12.5709
▁kidnapp	-12.571
lga	-12.5712
▁unto	-12.5714
ammon	-12.5715
quarter	-12.5718
anner	-12.572
▁debtor	-12.5721
▁Pal	-12.5721
▁Hunter	-12.5722
▁biomedic	-12.5724
emon	-12.5726
▁disappoint	-12.5727
birth	-12.5728
record	-12.5729
olonel	-12.573
▁degrade	-12.5739
▁Hai	-12.574
▁closet	-12.5742
▁Gradua	-12.5743
800	-12.5746
▁ioniz	-12.5748
▁Dear	-12.575
▁rehabilitat	-12.5754
▁Chas	-12.5754
▁trio	-12.5757
▁Perr	-12.5758
cite	-12.5759
▁Georg	-12.5759
▁Papa	-12.576
ersion	-12.5766
▁innocen	-12.5767
▁oven	-12.5767
▁Bean	-12.5768
▁sensibl	-12.5771
▁allerg	-12.5772
data	-12.5772
▁bows	-12.5776
▁mum	-12.5779
peer	-12.5788
built	-12.5789
▁sanct	-12.5794
BCD	-12.5796
▁refrigerat	-12.5796
▁betray	-12.5796
▁Hispani	-12.5798
▁abscess	-12.5799
▁hexagon	-12.5799
▁mosaic	-12.5799
▁repetition	-12.5799
▁tuition	-12.5799
▁vomit	-12.5799
▁decipher	-12.5799
▁syringe	-12.5799
▁Mosque	-12.5799
▁crucifix	-12.58
▁mainframe	-12.58
▁analogue	-12.58
recht	-12.58
▁Net	-12.5801
▁northward	-12.5801
▁proliferation	-12.5801
▁Sevill	-12.5802
▁Ricard	-12.5802
▁sitcom	-12.5802
▁Honey	-12.5802
▁Nair	-12.5804
▁Arch	-12.5806
▁knot	-12.5806
▁Cell	-12.5809
▁rallie	-12.581
▁modulat	-12.5813
▁reg	-12.5815
inci	-12.5815
▁accordion	-12.5815
llac	-12.5816
▁appellat	-12.5816
▁Pont	-12.5817
▁pronounce	-12.5817
stick	-12.5818
▁Antonin	-12.582
eka	-12.5821
▁Bront	-12.5825
million	-12.5826
▁cris	-12.5827
Star	-12.5828
▁rhythmic	-12.5831
algebra	-12.5832
uite	-12.5832
practical	-12.5835
▁Rid	-12.5835
▁gras	-12.5839
▁Aber	-12.5839
▁vase	-12.5843
shore	-12.5846
doo	-12.5846
▁shipment	-12.5846
frontal	-12.5847
▁aque	-12.5848
pound	-12.5856
MC	-12.5856
idden	-12.5857
▁discourag	-12.5857
lore	-12.5863
▁combinatori	-12.5865
▁undermin	-12.5871
DR	-12.5871
▁commute	-12.5876
▁Shir	-12.5876
▁turm	-12.5877
▁Die	-12.5881
▁compensati	-12.5881
NG	-12.5888
▁scal	-12.5891
▁scaled	-12.5891
▁blogs	-12.5892
disciplinar	-12.5893
▁rig	-12.5893
▁Daw	-12.5893
▁exempt	-12.5894
▁registr	-12.5895
▁Develop	-12.5896
▁terrif	-12.5897
▁Immediate	-12.5898
▁bargain	-12.5898
▁erroneous	-12.5898
▁Alcohol	-12.5898
▁Ferguson	-12.5898
▁Guild	-12.5898
▁anecdote	-12.5898
▁lagoon	-12.5898
▁prairie	-12.5898
▁thylakoid	-12.5898
▁dementia	-12.5898
▁quotient	-12.5898
▁Abbasid	-12.5898
▁joystick	-12.5898
▁trumpet	-12.5899
▁Boreal	-12.5899
▁Herald	-12.5901
▁moist	-12.5901
▁chipset	-12.5901
▁livelihood	-12.5903
▁Tak	-12.5904
▁Nicola	-12.5905
ii	-12.5905
▁anomal	-12.5907
▁CCD	-12.5909
▁Sylvi	-12.5911
▁splitt	-12.5912
▁articulate	-12.5913
▁setback	-12.5913
rench	-12.5914
▁Tomm	-12.5914
print	-12.5914
▁neglig	-12.5916
olar	-12.5917
▁infer	-12.5919
▁Bone	-12.592
sani	-12.592
▁Sw	-12.5921
ropolis	-12.5923
▁Dew	-12.5926
ASE	-12.5926
▁algorithmic	-12.5928
ionist	-12.5928
lready	-12.5928
▁hive	-12.5928
▁partisan	-12.5932
▁reformer	-12.5937
▁synchroniz	-12.5937
▁heroin	-12.594
market	-12.594
▁lent	-12.594
etal	-12.5942
▁nitr	-12.5943
minded	-12.5945
▁Hamm	-12.5945
▁distracted	-12.5952
▁Coco	-12.5958
▁lineup	-12.5959
▁formaliz	-12.5962
▁Cord	-12.5973
▁Francesc	-12.5973
▁assimilat	-12.5977
▁equ	-12.5981
▁fuck	-12.5982
▁erase	-12.5986
▁diffracti	-12.5988
▁Diese	-12.5989
▁designate	-12.5989
▁Marath	-12.5991
ophyll	-12.5995
▁Croat	-12.5996
▁lymph	-12.5996
HS	-12.5997
▁Chang	-12.5997
▁berkelium	-12.5998
▁boulder	-12.5998
▁burrow	-12.5998
▁visceral	-12.5998
▁cognate	-12.5998
▁cumulative	-12.5998
▁herbivor	-12.5998
▁heterosexual	-12.5998
▁medicinal	-12.5998
fetch	-12.5998
▁balcon	-12.5998
▁hydraulic	-12.5998
▁improper	-12.5998
▁immoral	-12.5998
▁polygon	-12.5998
▁Borough	-12.5998
▁multimedia	-12.5998
▁spoil	-12.5998
▁agitat	-12.5999
▁locus	-12.5999
▁Commercial	-12.5999
▁Levant	-12.5999
▁Trail	-12.6
▁Marvel	-12.6
▁Psycholog	-12.6
▁estuar	-12.6001
▁Lucas	-12.6001
▁vicious	-12.6001
▁shortest	-12.6002
PM	-12.6002
▁Aby	-12.6004
nitarian	-12.6004
▁averag	-12.6005
▁Coach	-12.6006
▁emulat	-12.6008
complete	-12.6008
▁utilit	-12.6008
▁fo	-12.601
▁foi	-12.6011
▁appliance	-12.6013
▁Brew	-12.6014
▁insertion	-12.6016
▁mitigate	-12.6018
atomic	-12.6022
▁audaci	-12.6022
▁Municipal	-12.6028
▁surger	-12.603
▁Gala	-12.6032
upp	-12.6033
iff	-12.6034
ST	-12.6035
addy	-12.6037
▁Swa	-12.6038
▁Elvi	-12.6038
▁Milo	-12.6039
powder	-12.6041
osi	-12.6041
conventional	-12.6042
ago	-12.6042
▁Azo	-12.6048
▁mania	-12.6049
▁purported	-12.6049
▁labell	-12.605
spiration	-12.6051
creat	-12.6054
▁Midwest	-12.6056
▁Comet	-12.6058
▁Ric	-12.6063
▁behold	-12.6064
▁Financ	-12.6066
▁Trac	-12.6073
▁phage	-12.6076
cardi	-12.6076
▁Merri	-12.6077
▁Memor	-12.6079
▁memo	-12.608
▁Mei	-12.6087
▁loser	-12.6089
peg	-12.6096
▁practis	-12.6096
▁hobby	-12.6098
▁Fantas	-12.6099
▁Account	-12.6099
▁Ambassador	-12.6099
▁Chicano	-12.6099
▁Ecuador	-12.6099
▁Ezra	-12.6099
▁Lovelace	-12.6099
▁Settlement	-12.6099
▁dominion	-12.6099
▁furnace	-12.6099
▁invertebrate	-12.6099
▁Burundi	-12.6099
▁janitor	-12.6099
▁misunderst	-12.6099
▁punctuat	-12.6099
▁comply	-12.6099
▁expulsion	-12.6099
▁impurit	-12.6099
▁await	-12.6099
▁submerge	-12.61
▁pancrea	-12.61
▁suitcase	-12.61
▁isomer	-12.61
▁Search	-12.6101
▁landfill	-12.6101
▁bloodstream	-12.6101
▁plugg	-12.6102
▁edict	-12.6103
▁Round	-12.6103
▁Sign	-12.6104
▁stemm	-12.6105
▁stratospher	-12.6107
▁Hammer	-12.6107
▁112	-12.6113
▁Bangladeshi	-12.6114
▁Glenn	-12.6115
▁Nevi	-12.6115
aki	-12.6115
▁Crime	-12.6116
▁inferr	-12.6117
▁Dada	-12.6117
▁Birk	-12.6119
▁Spartan	-12.6122
▁Protecti	-12.6126
▁diatom	-12.6131
▁Nationalist	-12.6134
▁nonsens	-12.6134
enture	-12.6141
▁Pale	-12.6144
▁startup	-12.6146
ider	-12.6148
▁crashe	-12.6151
▁Coal	-12.6152
woman	-12.6153
ulli	-12.6157
▁propell	-12.6157
▁RS	-12.6157
▁Metal	-12.6161
▁tackl	-12.6162
▁Hera	-12.6166
▁displace	-12.617
▁Cent	-12.6175
▁Core	-12.6175
▁airliner	-12.6177
▁hypo	-12.6178
▁prioritize	-12.6178
gging	-12.6188
cle	-12.6189
llen	-12.6189
▁bounc	-12.619
ilt	-12.6193
▁inspect	-12.6193
▁expir	-12.6196
rypto	-12.6197
▁siz	-12.6198
span	-12.6198
onymous	-12.62
[...]
