<unk>	0
<s>	0
</s>	0
<pad>	0
s	-3.11276
▁,	-3.15448
▁the	-3.2283
▁.	-3.3034
;	-3.69007
▁&	-3.7288
▁of	-3.84513
▁a	-3.97037
▁and	-4.01949
ed	-4.02036
▁to	-4.02561
▁in	-4.27854
quot	-4.40674
▁	-4.43436
apos	-4.44445
ing	-4.61029
y	-4.64486
▁that	-4.6606
▁is	-4.73198
▁I	-4.98081
ly	-5.05153
▁it	-5.11917
▁was	-5.18849
▁The	-5.23688
▁for	-5.33751
▁on	-5.34398
▁with	-5.35055
▁you	-5.35351
▁we	-5.41046
▁are	-5.51694
▁this	-5.55687
▁be	-5.57361
▁as	-5.63529
d	-5.65126
(	-5.67717
▁)	-5.68928
▁by	-5.6988
t	-5.70769
▁And	-5.72332
▁have	-5.78206
-	-5.83425
▁from	-5.85669
e	-5.94635
▁at	-5.95675
▁an	-5.9903
▁can	-6.00957
▁not	-6.04238
▁or	-6.04366
n	-6.09444
▁—	-6.1988
▁were	-6.21274
▁one	-6.24276
▁which	-6.24282
▁about	-6.2482
▁In	-6.24832
▁all	-6.30252
▁but	-6.3129
▁what	-6.31335
▁:	-6.33858
▁It	-6.35226
▁us	-6.35451
▁So	-6.36207
▁his	-6.38554
▁?	-6.38692
ies	-6.40081
▁he	-6.41141
▁had	-6.41558
re	-6.43048
▁has	-6.44087
▁their	-6.46164
▁there	-6.48106
▁people	-6.51177
▁like	-6.51772
▁do	-6.53152
▁so	-6.55748
r	-6.55861
▁my	-6.56217
▁more	-6.5697
▁other	-6.59072
lso	-6.60579
▁A	-6.61305
▁these	-6.66101
▁some	-6.66798
es	-6.67225
▁who	-6.68663
▁when	-6.69272
▁up	-6.72018
m	-6.73155
▁would	-6.73674
▁out	-6.74166
▁our	-6.76317
▁Thi	-6.7755
▁if	-6.78512
▁time	-6.78797
▁them	-6.80125
▁just	-6.80222
been	-6.80875
▁into	-6.80968
▁first	-6.8097
▁see	-6.82233
▁We	-6.83727
very	-6.85333
▁But	-6.87322
▁because	-6.88651
▁me	-6.90571
▁how	-6.9451
▁two	-6.95341
▁most	-6.96304
▁than	-6.98431
▁know	-6.98597
ve	-7.01397
▁years	-7.02142
l	-7.0392
▁world	-7.04906
▁where	-7.05344
▁going	-7.067
a	-7.0772
▁could	-7.09608
▁your	-7.10941
▁get	-7.11692
▁over	-7.11745
▁think	-7.11972
▁then	-7.12463
▁will	-7.13216
er	-7.13871
▁He	-7.14181
▁look	-7.14729
▁no	-7.16175
▁call	-7.16409
▁want	-7.16497
▁t	-7.16715
▁work	-7.18223
▁many	-7.18811
▁use	-7.20346
▁really	-7.22012
▁did	-7.2224
▁B	-7.23064
▁now	-7.23148
▁way	-7.24103
in	-7.25119
▁every	-7.26039
▁new	-7.26332
al	-7.26524
▁go	-7.26896
▁may	-7.27989
▁its	-7.29144
▁through	-7.29374
▁make	-7.30622
hose	-7.3078
▁such	-7.31522
▁take	-7.33823
▁here	-7.34745
▁Laughte	-7.34768
▁any	-7.35405
▁start	-7.36219
▁part	-7.37382
▁You	-7.37663
ctually	-7.37968
on	-7.38121
▁need	-7.39162
▁after	-7.39324
▁much	-7.39822
▁her	-7.41732
▁don	-7.43714
ity	-7.44906
▁said	-7.44941
▁between	-7.47419
▁things	-7.48136
▁Now	-7.4893
▁right	-7.48934
▁e	-7.49252
▁number	-7.49682
1	-7.49932
▁even	-7.50794
▁being	-7.51359
▁life	-7.51424
▁back	-7.51743
▁different	-7.51852
▁say	-7.53379
th	-7.5377
▁made	-7.53869
▁him	-7.54468
▁same	-7.54991
▁change	-7.55562
▁There	-7.55581
o	-7.56337
▁around	-7.56617
▁three	-7.56857
▁she	-7.57094
▁well	-7.59188
▁form	-7.59518
ever	-7.61274
▁come	-7.6142
▁something	-7.61812
▁201	-7.62191
ion	-7.64259
▁little	-7.65821
▁year	-7.66219
▁system	-7.67579
▁kind	-7.68504
ce	-7.68975
▁C	-7.69874
▁found	-7.70348
▁place	-7.71029
ic	-7.71517
▁great	-7.72285
day	-7.72456
▁example	-7.72673
5	-7.7277
▁thing	-7.73712
▁got	-7.73971
▁does	-7.74324
▁200	-7.74867
▁show	-7.7501
–	-7.75411
▁That	-7.75814
self	-7.75965
▁lot	-7.76496
▁own	-7.76496
▁mean	-7.76857
▁How	-7.77933
▁human	-7.78541
2	-7.78618
▁end	-7.79139
4	-7.79226
▁good	-7.79374
each	-7.79461
▁down	-7.80416
▁play	-7.8043
▁problem	-7.80653
out	-7.8071
▁talk	-7.81614
nother	-7.81638
us	-7.82308
3	-7.82768
▁before	-7.82829
%	-7.8346
▁day	-7.83942
.	-7.84317
▁under	-7.84339
▁What	-7.84573
▁idea	-7.85901
9	-7.86332
ll	-7.8687
▁dur	-7.87485
7	-7.88394
▁group	-7.88812
▁includ	-7.89134
▁large	-7.90343
▁point	-7.90715
▁If	-7.9079
▁known	-7.9149
▁both	-7.91863
le	-7.91906
ause	-7.92409
▁For	-7.92714
▁Appl	-7.9281
▁name	-7.93207
▁important	-7.93273
▁later	-7.93485
▁million	-7.94194
able	-7.94341
came	-7.94491
▁city	-7.94618
ther	-7.95283
▁often	-7.95487
▁design	-7.95621
▁last	-7.96817
▁government	-7.9752
▁tell	-7.9795
▁second	-7.98017
▁still	-7.98068
en	-7.98949
8	-7.99088
▁while	-7.9936
▁long	-7.99715
▁Unit	-8.00113
6	-8.00281
▁♫	-8.02473
▁language	-8.02527
▁few	-8.02814
▁put	-8.03141
▁water	-8.03623
▁become	-8.04028
▁American	-8.04458
▁state	-8.04593
▁turn	-8.04608
▁199	-8.04765
▁country	-8.05044
one	-8.05276
▁When	-8.05702
▁ask	-8.06052
▁school	-8.06328
▁high	-8.0639
▁percent	-8.06475
▁try	-8.06885
▁1	-8.07596
▁century	-8.08041
▁U	-8.08083
▁help	-8.08457
▁small	-8.08913
▁should	-8.09049
▁On	-8.09245
▁New	-8.09927
▁w	-8.09974
▁early	-8.1002
▁These	-8.10146
▁case	-8.10574
▁set	-8.10881
▁fact	-8.10979
▁game	-8.11516
▁power	-8.11627
▁Well	-8.11635
ation	-8.12579
▁term	-8.12967
▁E	-8.13019
▁find	-8.131
▁never	-8.13703
▁four	-8.14602
▁thought	-8.15128
▁common	-8.15327
▁allow	-8.1605
▁off	-8.17182
way	-8.17562
▁together	-8.18903
▁might	-8.19921
▁doing	-8.20028
▁order	-8.20044
▁came	-8.20381
▁cell	-8.2055
w	-8.2094
▁home	-8.21021
▁per	-8.22416
ism	-8.22459
▁next	-8.22538
▁10	-8.22562
▁since	-8.22902
▁unti	-8.23018
▁As	-8.23369
▁include	-8.23577
ok	-8.23617
▁film	-8.23746
▁able	-8.23962
▁data	-8.24018
gainst	-8.24106
h	-8.24118
▁again	-8.24146
▁20	-8.25271
▁States	-8.25727
▁population	-8.2598
went	-8.26137
▁better	-8.26397
▁process	-8.2656
▁line	-8.28057
▁general	-8.28124
▁happen	-8.28131
▁computer	-8.28161
▁live	-8.2817
▁S	-8.28404
▁support	-8.28914
▁2	-8.29227
/	-8.29498
▁light	-8.29717
▁give	-8.29795
▁why	-8.29887
▁force	-8.30363
est	-8.30779
▁old	-8.31228
▁building	-8.31463
▁women	-8.3147
i	-8.3185
▁D	-8.32037
▁open	-8.32166
ary	-8.32233
▁story	-8.32437
▁several	-8.32561
▁create	-8.32632
▁result	-8.3305
gan	-8.33701
▁course	-8.33872
▁un	-8.339
▁One	-8.34125
▁real	-8.342
▁particular	-8.35035
▁de	-8.35438
▁space	-8.35534
▁left	-8.35758
▁person	-8.35885
▁brain	-8.35926
▁consider	-8.36386
▁countr	-8.36487
▁less	-8.36832
▁children	-8.37258
▁Some	-8.37313
▁public	-8.37648
▁believe	-8.37857
▁team	-8.37859
▁let	-8.38026
though	-8.38379
▁To	-8.3847
st	-8.38725
▁family	-8.38938
▁remain	-8.4017
▁main	-8.40287
▁love	-8.4048
▁3	-8.40735
▁liv	-8.40979
▁possibl	-8.41183
▁technology	-8.41386
▁area	-8.42035
▁five	-8.42393
▁question	-8.42516
▁ever	-8.42526
▁single	-8.42816
▁level	-8.42916
▁big	-8.4298
▁learn	-8.4307
▁too	-8.43421
▁war	-8.4346
▁T	-8.4348
▁ago	-8.43586
▁Thank	-8.44206
▁car	-8.44952
▁information	-8.45035
▁major	-8.45982
body	-8.46426
▁German	-8.46457
land	-8.4646
▁close	-8.46486
▁near	-8.46604
▁death	-8.46792
▁M	-8.46898
▁body	-8.47198
▁energy	-8.47226
▁always	-8.47598
▁project	-8.47719
▁record	-8.47787
▁reason	-8.48072
▁social	-8.48107
▁She	-8.48286
ous	-8.48883
▁control	-8.49018
▁service	-8.49111
▁complete	-8.49661
▁age	-8.50189
▁creat	-8.50196
▁War	-8.50318
▁increase	-8.50761
▁bit	-8.50827
▁experience	-8.5178
ecause	-8.52285
▁done	-8.52635
▁hav	-8.529
▁mak	-8.52902
▁along	-8.52995
▁World	-8.53544
▁British	-8.53575
▁histor	-8.53634
▁At	-8.53824
▁book	-8.53881
▁species	-8.53888
▁After	-8.53954
ment	-8.54027
▁bas	-8.54168
▁best	-8.54173
▁sort	-8.54179
▁field	-8.54543
▁music	-8.54635
ves	-8.55384
an	-8.55747
▁man	-8.56014
▁animal	-8.56032
▁whole	-8.56195
▁understand	-8.56236
▁197	-8.56446
▁working	-8.56591
▁period	-8.56675
ness	-8.5692
be	-8.5702
cross	-8.57125
▁food	-8.57208
▁half	-8.57377
▁side	-8.57612
▁men	-8.58057
▁among	-8.5815
▁local	-8.58416
▁study	-8.5873
▁modern	-8.58846
▁effect	-8.58884
▁region	-8.59135
▁final	-8.59351
▁feel	-8.59459
um	-8.59723
▁5	-8.59728
▁English	-8.59851
▁hand	-8.59912
▁follow	-8.60008
▁kid	-8.60215
ally	-8.60502
▁similar	-8.60797
▁Al	-8.60814
▁hard	-8.60882
▁formula	-8.61428
▁art	-8.61505
c	-8.61509
▁move	-8.61548
▁student	-8.6181
thing	-8.61911
▁market	-8.61973
▁usual	-8.62172
▁appear	-8.62535
▁function	-8.62758
▁future	-8.63048
▁issue	-8.63063
▁original	-8.63265
▁individual	-8.6347
▁All	-8.63496
▁No	-8.63534
▁present	-8.63536
▁run	-8.63713
▁political	-8.64234
▁di	-8.64256
stead	-8.64402
▁times	-8.64746
▁far	-8.64837
▁business	-8.649
▁science	-8.6492
▁program	-8.64956
▁almost	-8.65139
▁given	-8.65255
▁built	-8.65451
▁though	-8.65639
▁structure	-8.65752
▁must	-8.66108
▁America	-8.6612
▁sometimes	-8.66274
▁following	-8.66439
▁share	-8.66526
▁matter	-8.66584
▁4	-8.66658
▁money	-8.66667
▁image	-8.67026
▁sense	-8.67036
▁&#93;	-8.67148
▁Earth	-8.67199
▁&#9	-8.674
▁F	-8.67479
nough	-8.67571
▁development	-8.67778
▁198	-8.68167
▁15	-8.68314
▁b	-8.68381
▁head	-8.68386
▁exist	-8.68594
▁cause	-8.68739
▁developed	-8.69078
▁grow	-8.69085
▁mov	-8.69351
▁certain	-8.69454
▁week	-8.69687
▁interest	-8.69859
▁land	-8.69944
▁direct	-8.69949
▁test	-8.69967
▁economic	-8.69983
▁196	-8.70043
▁Africa	-8.70206
▁billion	-8.70249
▁young	-8.7037
▁ra	-8.70393
▁plant	-8.70949
▁publish	-8.7108
_	-8.71574
▁saw	-8.71988
▁al	-8.72709
▁due	-8.72814
▁!	-8.73139
▁word	-8.73235
▁series	-8.73829
▁total	-8.74039
▁return	-8.74122
▁company	-8.74189
▁bring	-8.7422
ld	-8.74449
▁P	-8.74477
▁popular	-8.74487
▁led	-8.74498
▁simple	-8.74707
▁30	-8.74761
$	-8.74774
▁machine	-8.74813
▁rate	-8.74851
▁days	-8.7505
▁research	-8.75154
▁probabl	-8.75545
▁six	-8.75715
▁air	-8.76006
ry	-8.76045
▁By	-8.76129
▁disease	-8.76322
▁societ	-8.76574
▁contain	-8.76596
▁provide	-8.76705
less	-8.76835
▁face	-8.77371
▁black	-8.77483
▁Europe	-8.77839
▁current	-8.77925
▁community	-8.78247
▁culture	-8.78359
▁systems	-8.79027
▁entire	-8.79065
▁moment	-8.79193
▁seem	-8.7939
▁R	-8.79708
▁source	-8.79745
▁character	-8.79785
ither	-8.79959
▁reach	-8.80131
▁wide	-8.80142
▁act	-8.80313
▁French	-8.80331
▁late	-8.80338
▁object	-8.80545
▁model	-8.8057
▁role	-8.81017
▁third	-8.81039
▁won	-8.81317
▁months	-8.81372
▁cost	-8.81525
▁European	-8.81744
▁health	-8.81983
▁law	-8.81998
▁produce	-8.82037
▁once	-8.82109
▁piece	-8.82207
▁c	-8.82661
▁national	-8.82853
ton	-8.83014
▁element	-8.83032
▁De	-8.83124
▁natural	-8.8359
▁My	-8.83761
▁free	-8.83783
▁keep	-8.83879
▁attack	-8.84108
▁short	-8.84231
▁lead	-8.84295
▁job	-8.8449
▁figure	-8.84641
▁planet	-8.84742
▁position	-8.84769
▁military	-8.84801
▁God	-8.84968
▁house	-8.85004
▁theory	-8.85083
rote	-8.85187
▁size	-8.854
▁top	-8.85456
▁add	-8.85556
▁education	-8.8585
▁thinking	-8.85879
▁room	-8.86029
▁establish	-8.86378
quite	-8.86394
▁York	-8.86427
▁unit	-8.86455
▁discover	-8.86469
▁least	-8.86585
▁build	-8.86661
▁South	-8.86856
▁whe	-8.86922
▁With	-8.87118
▁cit	-8.87122
▁His	-8.87169
▁words	-8.87369
▁represent	-8.87669
▁various	-8.87806
▁produc	-8.8782
▁areas	-8.87934
▁Dur	-8.88084
ers	-8.88185
▁guy	-8.88191
▁thousand	-8.88228
▁color	-8.8829
▁difference	-8.89217
▁12	-8.89753
▁An	-8.89816
▁difficult	-8.89831
▁condition	-8.89957
▁low	-8.90349
▁network	-8.90622
▁already	-8.90725
or	-8.9086
▁event	-8.90871
▁view	-8.90993
▁answer	-8.91005
▁strong	-8.91045
▁Universit	-8.91099
▁player	-8.91193
▁production	-8.9156
▁significant	-8.91794
▁amount	-8.91943
▁version	-8.92312
▁National	-8.92962
▁movement	-8.93058
▁0	-8.93433
msel	-8.93508
▁complex	-8.93543
▁claim	-8.93899
▁50	-8.9392
specially	-8.94096
▁nature	-8.94424
▁season	-8.94487
▁read	-8.94628
▁else	-8.94699
▁6	-8.94895
▁father	-8.95002
▁care	-8.95105
▁John	-8.95162
▁sound	-8.95253
▁getting	-8.9537
▁full	-8.95429
▁value	-8.95432
▁standard	-8.95476
▁North	-8.95715
▁inside	-8.95772
▁lives	-8.95901
ian	-8.95962
▁coming	-8.96323
▁range	-8.96541
▁194	-8.96618
▁held	-8.96887
▁yet	-8.96932
▁global	-8.97094
▁suggest	-8.97248
▁method	-8.97725
▁availab	-8.9779
▁kill	-8.97818
age	-8.97836
man	-8.97838
▁action	-8.97938
ritten	-8.97947
▁members	-8.9795
▁video	-8.97966
gave	-8.97976
▁Let	-8.98044
▁China	-8.98291
▁feature	-8.9849
▁mother	-8.98659
▁average	-8.987
▁surface	-8.98768
▁minute	-8.98964
▁specific	-8.99139
▁official	-8.99387
▁true	-8.99499
▁interesting	-8.99622
▁type	-8.99902
▁100	-8.99996
▁G	-9.00107
▁pass	-9.00114
▁relationship	-9.00253
▁child	-9.00592
▁further	-9.00752
▁continu	-9.01037
▁US	-9.01045
▁physical	-9.01129
▁son	-9.01244
▁past	-9.01316
▁7	-9.01382
▁mind	-9.01396
▁11	-9.0183
▁outside	-9.01914
ive	-9.01927
▁works	-9.02059
▁device	-9.02521
▁leave	-9.0261
▁India	-9.02634
▁Wh	-9.02751
▁exact	-9.02819
▁Many	-9.02942
▁environment	-9.03065
▁Here	-9.03196
▁traditional	-9.03217
▁focus	-9.03374
▁lost	-9.03423
▁Most	-9.03672
▁capital	-9.03746
▁quick	-9.03871
▁toward	-9.04051
▁18	-9.04469
▁tree	-9.04482
▁hundred	-9.04659
▁decided	-9.05023
▁island	-9.05026
▁re	-9.05369
taking	-9.05506
ber	-9.05732
▁19	-9.05735
▁compani	-9.05883
▁picture	-9.05938
▁studie	-9.05979
▁self	-9.06169
’	-9.06255
▁attempt	-9.0641
▁dollars	-9.06496
ance	-9.06558
▁born	-9.06721
▁typical	-9.06831
▁patient	-9.07056
▁list	-9.07066
▁center	-9.07121
▁II	-9.07286
▁sign	-9.07333
▁site	-9.07425
▁engineer	-9.07444
▁makes	-9.07536
▁influence	-9.07557
▁earlie	-9.07563
▁material	-9.07787
▁perform	-9.07796
▁8	-9.0788
▁beginning	-9.0832
▁speak	-9.08366
▁am	-9.08438
▁practice	-9.08438
▁offer	-9.08467
▁stop	-9.08527
▁organization	-9.08773
▁night	-9.08947
▁risk	-9.0896
▁prett	-9.08985
▁J	-9.09447
▁nothing	-9.09563
▁stories	-9.09607
▁accept	-9.09685
▁personal	-9.09717
▁sea	-9.09943
▁subject	-9.1009
▁growth	-9.10145
▁African	-9.1041
▁Roman	-9.10439
▁above	-9.10602
▁rule	-9.10616
▁continue	-9.10623
ything	-9.10646
▁stuff	-9.1065
▁heart	-9.10705
▁higher	-9.1078
▁Christian	-9.10835
▁normal	-9.10928
▁former	-9.10967
▁experiment	-9.11373
▁Other	-9.11429
▁song	-9.1169
▁According	-9.11868
▁white	-9.11878
▁simpl	-9.11887
▁Church	-9.12345
▁hope	-9.12357
▁May	-9.12368
▁remember	-9.12467
▁evidence	-9.12609
▁industry	-9.12741
▁watch	-9.12926
▁decision	-9.13071
▁saying	-9.13216
▁poor	-9.13276
▁media	-9.13463
▁195	-9.13706
▁universe	-9.13769
▁relative	-9.13804
▁access	-9.14027
▁couple	-9.14082
▁West	-9.14163
▁drive	-9.14335
▁larges	-9.144
▁base	-9.14445
▁stage	-9.14497
▁temperature	-9.14522
▁front	-9.14656
▁longer	-9.14696
▁economy	-9.14809
▁explain	-9.15193
▁9	-9.15324
▁describ	-9.15332
▁ways	-9.15366
▁account	-9.15438
S	-9.15504
▁cancer	-9.15521
▁states	-9.15636
▁H	-9.15644
▁blue	-9.15654
▁receiv	-9.15714
▁successful	-9.15856
k	-9.16149
▁pay	-9.16282
▁girl	-9.16389
▁challenge	-9.16472
▁hold	-9.16514
▁L	-9.1682
▁letter	-9.169
▁key	-9.16904
▁bad	-9.17228
▁join	-9.17313
▁City	-9.17521
▁protect	-9.17739
▁sure	-9.1782
rought	-9.17826
by	-9.17965
▁title	-9.17976
where	-9.17993
▁potential	-9.18028
▁ground	-9.18047
▁addition	-9.1827
z	-9.18325
▁international	-9.18397
ist	-9.18418
▁releas	-9.18443
▁effective	-9.18547
▁O	-9.1861
▁non	-9.18654
▁fall	-9.18769
▁hours	-9.18831
ia	-9.18866
▁woman	-9.18941
▁Greek	-9.1901
▁paper	-9.19021
▁seven	-9.19044
▁special	-9.19241
g	-9.19568
▁pattern	-9.19592
▁travel	-9.19682
▁rest	-9.19711
▁25	-9.20034
▁cover	-9.2011
▁concept	-9.20456
▁40	-9.20577
▁fire	-9.20627
▁17	-9.20718
▁writing	-9.20756
▁band	-9.20771
▁oil	-9.20819
▁church	-9.21114
▁lower	-9.21143
▁behavior	-9.21238
▁wrong	-9.21389
▁carbon	-9.21418
▁England	-9.21425
▁approach	-9.21702
▁blood	-9.21734
is	-9.22012
▁election	-9.22015
▁August	-9.22073
▁deal	-9.22112
▁friends	-9.22163
▁DNA	-9.22164
▁walk	-9.22166
▁require	-9.22374
▁imagine	-9.22558
u	-9.22727
▁behind	-9.22767
haps	-9.22783
▁eventual	-9.22798
▁heard	-9.22884
▁193	-9.22959
▁Internet	-9.23169
▁plan	-9.23279
to	-9.23334
▁Union	-9.23411
▁scientist	-9.23462
▁September	-9.23541
▁safe	-9.2361
▁14	-9.23765
p	-9.23802
▁Janu	-9.23819
▁fish	-9.23994
▁16	-9.24003
▁beautiful	-9.24164
▁code	-9.24443
▁K	-9.2461
▁artist	-9.24683
▁middle	-9.24757
▁191	-9.2485
▁degree	-9.24872
▁extreme	-9.25018
▁slow	-9.25096
▁scale	-9.25235
▁spend	-9.25262
▁office	-9.25338
▁Chinese	-9.25354
▁mass	-9.25374
spite	-9.25704
▁nation	-9.25762
▁East	-9.25783
▁involv	-9.26015
▁happens	-9.26128
▁class	-9.26479
▁red	-9.26517
▁Whil	-9.26522
▁St	-9.26577
▁friend	-9.26577
▁amazing	-9.26611
▁eight	-9.26726
year	-9.26743
▁success	-9.26828
▁N	-9.26949
▁choice	-9.27092
▁June	-9.27322
▁climate	-9.27449
▁equal	-9.2774
▁kne	-9.27885
cy	-9.28028
▁trade	-9.28129
▁consist	-9.28355
▁affect	-9.28386
▁clear	-9.28437
▁introduc	-9.28446
▁measure	-9.28593
▁write	-9.28599
▁13	-9.2866
▁enter	-9.28834
▁north	-9.29214
▁Or	-9.2935
▁style	-9.29459
▁occur	-9.29551
▁2010	-9.29568
▁Since	-9.29639
ability	-9.29786
▁treat	-9.29831
▁regard	-9.29873
▁treatment	-9.29932
▁describe	-9.30063
▁London	-9.30266
ley	-9.30281
▁wall	-9.30353
refore	-9.30472
▁hit	-9.30689
▁factor	-9.30693
▁metal	-9.30721
▁chemical	-9.30857
▁begin	-9.31053
▁books	-9.31177
▁separate	-9.3118
▁Octo	-9.31214
▁larger	-9.31358
▁product	-9.31787
▁central	-9.31806
▁December	-9.31971
▁increasing	-9.32099
▁electric	-9.32212
▁Do	-9.32292
▁count	-9.32481
▁Every	-9.32496
▁stay	-9.32574
▁learning	-9.32634
▁report	-9.32744
▁powerful	-9.32922
▁speed	-9.33147
▁ocean	-9.33478
▁resource	-9.335
▁phone	-9.3361
▁response	-9.34033
▁March	-9.34041
▁operation	-9.34093
▁depend	-9.34108
▁private	-9.34249
▁release	-9.34252
▁bigge	-9.34275
▁met	-9.34456
▁soon	-9.34537
▁launch	-9.34739
▁south	-9.34759
▁text	-9.34898
▁expect	-9.34906
▁21	-9.34934
▁From	-9.34936
▁train	-9.34952
▁France	-9.35123
▁flow	-9.35145
▁visit	-9.35263
▁arm	-9.3564
▁provid	-9.3564
▁meaning	-9.35686
▁reaction	-9.35862
▁fly	-9.35895
▁huge	-9.35898
▁BC	-9.35919
▁station	-9.35952
▁November	-9.36013
▁hear	-9.36044
D	-9.36152
▁impact	-9.36556
▁basically	-9.36573
▁generation	-9.36734
▁president	-9.36859
▁raise	-9.37248
▁caus	-9.37308
▁concern	-9.37439
as	-9.37626
▁Arm	-9.37656
time	-9.37667
▁deep	-9.37676
▁effort	-9.37949
▁...	-9.38167
▁ship	-9.38272
▁Western	-9.385
▁forest	-9.38527
▁member	-9.3856
▁2008	-9.38847
▁Jul	-9.38936
▁acid	-9.38972
▁ancient	-9.39015
▁initial	-9.39144
▁Great	-9.39191
▁sent	-9.39208
▁spread	-9.3932
▁easi	-9.39336
▁signal	-9.39425
▁gas	-9.39434
▁President	-9.39519
▁knowledge	-9.39575
▁situation	-9.39583
▁institution	-9.39587
ish	-9.39732
up	-9.398
▁referr	-9.39898
▁cut	-9.39918
▁spen	-9.39977
x	-9.40127
▁pressure	-9.40225
▁Apri	-9.40269
▁Canad	-9.40431
▁star	-9.405
▁questions	-9.40528
▁software	-9.40629
▁necessar	-9.40922
aught	-9.40961
▁gain	-9.41098
▁parents	-9.41148
▁party	-9.41318
▁map	-9.41326
b	-9.4144
giving	-9.41581
▁voice	-9.41645
▁co	-9.41722
f	-9.41746
▁performance	-9.41772
bility	-9.41816
▁religious	-9.41841
▁town	-9.42
▁serve	-9.42034
▁television	-9.42156
▁technique	-9.42199
ical	-9.42503
▁female	-9.4252
▁whose	-9.42589
▁album	-9.42688
▁teacher	-9.42792
▁army	-9.42873
ch	-9.4289
▁variet	-9.42971
▁results	-9.43178
▁associat	-9.43347
▁below	-9.43529
▁independent	-9.43547
▁types	-9.43613
felt	-9.43629
▁Soviet	-9.43689
▁digital	-9.43803
▁Indian	-9.44035
▁pick	-9.44062
▁charge	-9.44309
▁movie	-9.44588
▁send	-9.44614
▁application	-9.44712
▁locat	-9.44744
▁track	-9.44918
▁tradition	-9.45122
ium	-9.45272
▁prevent	-9.45303
▁commercial	-9.45426
tic	-9.45438
▁purpose	-9.4558
▁smaller	-9.45617
▁essential	-9.45681
▁First	-9.45948
▁maintain	-9.45993
▁Oh	-9.46046
▁according	-9.46098
▁save	-9.46105
▁link	-9.46105
▁post	-9.4631
▁basic	-9.46457
▁lack	-9.46733
▁date	-9.46956
▁engine	-9.47294
▁medical	-9.47406
▁solution	-9.4742
▁shape	-9.47447
▁principle	-9.47523
▁products	-9.4757
▁People	-9.4757
▁related	-9.47944
▁detail	-9.48181
▁vote	-9.48254
▁message	-9.48279
▁target	-9.4851
▁recent	-9.48625
▁scientific	-9.48845
▁192	-9.4888
▁actual	-9.48971
old	-9.48975
▁Central	-9.48983
▁oursel	-9.4899
▁regular	-9.4903
ial	-9.49083
▁60	-9.49092
▁buy	-9.4913
▁absolute	-9.49176
▁male	-9.49184
▁loss	-9.49209
▁famous	-9.4925
▁V	-9.49321
▁die	-9.49341
▁card	-9.49413
▁Part	-9.49429
▁happening	-9.49518
▁X	-9.49541
▁tend	-9.49612
▁block	-9.4965
▁price	-9.49722
▁2000	-9.49813
▁develop	-9.49879
▁tried	-9.49892
alone	-9.49901
▁dark	-9.50163
amp	-9.50189
▁adopt	-9.50253
▁River	-9.50368
▁brother	-9.5051
▁fail	-9.50712
▁doctor	-9.50712
▁campaign	-9.50754
▁aircraft	-9.50784
▁serious	-9.50802
▁attention	-9.51217
▁mention	-9.51246
▁Even	-9.51369
▁refer	-9.51381
▁recently	-9.51556
▁1990	-9.51587
▁active	-9.51597
▁meet	-9.51664
▁David	-9.51773
▁particle	-9.52065
▁host	-9.52161
▁fund	-9.52162
▁190	-9.52165
▁molecule	-9.52174
▁humans	-9.52197
▁understanding	-9.52219
▁feeling	-9.52231
ond	-9.52261
▁finish	-9.52296
▁immediate	-9.5231
▁thus	-9.5239
,000	-9.52463
▁policy	-9.52543
▁career	-9.52553
▁King	-9.52587
▁eyes	-9.52653
▁reported	-9.52668
▁wife	-9.52726
▁i	-9.52753
▁W	-9.52904
▁conflict	-9.52927
▁Music	-9.53018
▁border	-9.53178
▁canno	-9.53181
▁rules	-9.53279
son	-9.53348
side	-9.53403
▁college	-9.53468
▁constant	-9.53543
▁1980	-9.53745
▁coast	-9.5375
▁green	-9.53868
▁f	-9.53868
▁realit	-9.53938
▁fear	-9.53944
▁leading	-9.54094
▁compar	-9.54195
▁step	-9.54266
▁audience	-9.54341
▁International	-9.54541
▁direction	-9.54581
▁double	-9.54618
▁listen	-9.54698
▁break	-9.54719
ach	-9.54928
uar	-9.5508
▁requir	-9.55106
▁court	-9.55281
▁religion	-9.55347
▁definition	-9.55385
▁runn	-9.55425
▁communit	-9.55567
▁easy	-9.55601
▁wait	-9.55802
▁2006	-9.55956
▁Charles	-9.56072
▁instrument	-9.56139
▁daughter	-9.56363
▁litera	-9.5643
▁rise	-9.56431
▁month	-9.56891
more	-9.569
▁table	-9.56901
▁shows	-9.56907
▁hands	-9.56973
▁distance	-9.57042
▁foreign	-9.57073
▁Then	-9.57087
▁express	-9.57334
▁m	-9.57353
▁involve	-9.57462
▁expand	-9.57596
▁location	-9.57688
▁Febr	-9.57803
▁benefit	-9.57868
▁Latin	-9.57958
▁construction	-9.57996
▁activity	-9.58077
▁leader	-9.58169
▁gre	-9.58174
▁memory	-9.58688
▁protein	-9.59106
▁highly	-9.59121
▁defeat	-9.59369
▁fuel	-9.59369
▁Brita	-9.59375
▁stand	-9.59394
▁24	-9.59443
▁authorit	-9.59486
▁San	-9.59517
▁carry	-9.59527
▁perfect	-9.59532
▁operat	-9.59538
▁battle	-9.59697
▁electron	-9.59854
▁adult	-9.60009
▁demand	-9.60073
▁primary	-9.60163
▁boy	-9.60323
▁fundamental	-9.60389
▁positive	-9.60443
▁connect	-9.60493
▁announc	-9.60576
▁financial	-9.60636
▁display	-9.60693
▁Not	-9.60695
▁professional	-9.60861
▁village	-9.6087
▁radio	-9.6108
▁forward	-9.61121
▁document	-9.61153
▁rare	-9.61154
▁win	-9.61224
▁Council	-9.61228
▁meeting	-9.61305
▁wave	-9.61374
▁club	-9.61389
▁search	-9.61389
▁river	-9.615
▁highest	-9.61527
▁approximate	-9.61527
▁realize	-9.61552
▁connection	-9.616
▁road	-9.61804
▁component	-9.61927
▁cultural	-9.61929
▁State	-9.61969
▁address	-9.62001
▁historical	-9.62014
▁heat	-9.62113
el	-9.62116
▁context	-9.62125
▁elect	-9.62582
▁rock	-9.62601
▁Australia	-9.62625
▁notice	-9.62633
▁board	-9.62652
▁legal	-9.62752
▁Oka	-9.62786
▁tour	-9.62875
te	-9.62931
▁1970	-9.63116
▁California	-9.63125
▁Right	-9.63126
▁opportunity	-9.63201
▁replac	-9.63216
▁80	-9.63355
▁famili	-9.63372
▁sold	-9.63621
▁limited	-9.63789
▁securit	-9.63949
▁stars	-9.63962
▁dead	-9.64064
▁1960	-9.64154
▁rich	-9.64154
▁length	-9.64267
▁reduce	-9.64311
▁Catholic	-9.64386
▁nuclear	-9.64417
▁equation	-9.645
▁atom	-9.64564
▁user	-9.64618
▁mission	-9.64737
▁Spanish	-9.6483
it	-9.64832
the	-9.64948
▁camera	-9.64976
▁origin	-9.65145
▁nam	-9.65343
▁Dr	-9.65468
▁happy	-9.65611
▁communication	-9.65673
▁fast	-9.65699
▁TED	-9.65825
▁General	-9.65849
▁seat	-9.6597
▁materials	-9.65983
▁robot	-9.66005
▁push	-9.66116
▁content	-9.66118
▁Republic	-9.66266
▁developing	-9.66273
▁More	-9.66349
▁award	-9.66353
▁basi	-9.66496
▁destroy	-9.66528
▁limit	-9.66545
▁rapid	-9.66795
▁connected	-9.66876
▁multiple	-9.6688
▁collect	-9.66971
▁Park	-9.6699
▁instance	-9.67022
▁summer	-9.6705
▁obvious	-9.67078
▁surviv	-9.67101
▁territor	-9.67184
▁bear	-9.67254
▁race	-9.67487
▁sell	-9.67495
▁nine	-9.67502
ship	-9.67587
▁chance	-9.67648
▁Thom	-9.67803
▁sequence	-9.67839
▁Sea	-9.67845
▁Empire	-9.67934
▁hospital	-9.67962
▁king	-9.6802
▁critical	-9.68067
▁solve	-9.68126
▁unique	-9.68165
▁tools	-9.68192
▁flight	-9.68268
wise	-9.68305
▁literal	-9.68472
▁drug	-9.68679
▁employ	-9.68766
▁reduc	-9.68992
▁writer	-9.69176
changing	-9.69351
▁era	-9.69426
▁sex	-9.69568
▁leaders	-9.69593
▁gives	-9.69662
▁training	-9.69853
▁defin	-9.70001
ard	-9.70023
▁cross	-9.70238
▁shift	-9.70273
▁press	-9.70483
▁avoid	-9.70526
▁vehicle	-9.70606
▁OK	-9.70613
▁belief	-9.70725
▁Afghan	-9.70732
▁Two	-9.70842
▁quality	-9.70846
▁majorit	-9.70963
▁bottom	-9.71031
▁Our	-9.71032
▁pair	-9.71079
▁Air	-9.71121
▁online	-9.7127
▁division	-9.71553
▁Act	-9.71654
▁realiz	-9.71764
▁rights	-9.72049
▁transform	-9.72163
▁William	-9.72166
▁ice	-9.72219
▁Of	-9.723
▁birth	-9.72352
▁worker	-9.72447
▁gone	-9.72505
▁League	-9.72629
▁George	-9.7265
▁fight	-9.72782
▁weight	-9.72813
▁Muslim	-9.73104
▁Black	-9.7317
▁alternative	-9.73172
▁photograph	-9.73192
▁secret	-9.73294
▁novel	-9.73464
▁medicine	-9.73484
ty	-9.73614
▁feet	-9.73807
▁Asia	-9.73838
ie	-9.7392
▁House	-9.74083
▁wonderful	-9.74088
▁p	-9.74099
▁algorithm	-9.74189
▁seeing	-9.74224
▁plann	-9.7443
▁wear	-9.74446
▁civil	-9.74485
▁morning	-9.74631
▁occurr	-9.74776
▁tin	-9.74812
▁School	-9.74937
▁propert	-9.75099
▁technologi	-9.75205
▁section	-9.75358
▁Paul	-9.75477
▁scene	-9.75481
▁eye	-9.75827
▁painting	-9.75839
▁leg	-9.75887
▁propos	-9.75993
▁square	-9.76068
▁page	-9.76076
▁genetic	-9.76088
▁annual	-9.7618
▁mid	-9.76321
▁sexual	-9.76391
▁collection	-9.76539
▁via	-9.76554
▁marri	-9.76604
▁sector	-9.76616
▁task	-9.7664
▁analysi	-9.76727
▁store	-9.76836
▁Can	-9.77021
▁slight	-9.77061
▁models	-9.77233
▁bond	-9.77285
▁deliver	-9.77474
▁fair	-9.77548
▁dance	-9.77777
▁symbol	-9.77788
▁solar	-9.77819
▁box	-9.77854
▁except	-9.77948
▁predict	-9.77984
ture	-9.78003
▁hole	-9.78158
istan	-9.78237
▁damage	-9.78313
▁organism	-9.78324
▁conversation	-9.78377
▁rain	-9.78396
▁Just	-9.78403
▁truth	-9.78462
▁pull	-9.78514
▁2001	-9.78547
▁conduct	-9.7857
▁eat	-9.78622
▁evolution	-9.78674
▁sitt	-9.78804
▁southern	-9.78824
▁northern	-9.78824
▁convert	-9.78888
▁bone	-9.79019
▁architecture	-9.79096
▁article	-9.79208
ar	-9.79238
▁reference	-9.79296
▁improve	-9.79443
▁innovation	-9.7966
▁violen	-9.79686
▁Kingdom	-9.79789
▁70	-9.79832
▁inspire	-9.79833
▁sudden	-9.79981
▁reflect	-9.80001
▁values	-9.80062
▁trust	-9.80092
▁TV	-9.80156
▁throw	-9.8024
▁remov	-9.80312
▁22	-9.80325
▁police	-9.80371
▁ultimate	-9.80458
ten	-9.80465
kept	-9.80492
at	-9.80534
▁Yea	-9.8061
▁186	-9.8078
▁skin	-9.80791
ate	-9.80819
▁90	-9.80864
▁speech	-9.80893
▁finding	-9.80934
▁goal	-9.81014
▁drugs	-9.81091
▁Don	-9.8115
▁income	-9.81209
sis	-9.81303
la	-9.81305
▁Am	-9.81367
▁transport	-9.81385
▁rank	-9.81388
▁Like	-9.81415
▁anti	-9.81451
▁heavy	-9.81479
▁compound	-9.8148
▁worth	-9.81606
▁bacteria	-9.81677
ily	-9.81741
▁Japanese	-9.81765
▁cool	-9.81855
credible	-9.81876
▁meant	-9.8191
▁James	-9.81949
A	-9.82179
▁whom	-9.82238
like	-9.82321
▁recognize	-9.82446
▁Be	-9.8251
▁respect	-9.82581
id	-9.82597
▁construct	-9.82741
▁decades	-9.82831
▁trial	-9.82992
▁becom	-9.83086
▁additional	-9.83337
▁23	-9.83359
▁divid	-9.83385
▁miles	-9.83476
▁marriage	-9.83632
▁citizens	-9.83753
▁vision	-9.83842
▁Middle	-9.83872
▁cycle	-9.83893
▁news	-9.84003
▁teaching	-9.84013
▁match	-9.84081
▁centre	-9.84085
▁subsequent	-9.8414
▁Second	-9.84208
▁street	-9.84244
▁fine	-9.84285
▁laws	-9.84304
▁suffer	-9.8436
▁invent	-9.84655
▁pre	-9.84696
▁receive	-9.84744
▁onto	-9.8482
▁previous	-9.84922
▁root	-9.84952
▁east	-9.85159
ta	-9.85173
▁argument	-9.8524
▁soldier	-9.85311
▁moral	-9.85715
▁Man	-9.85778
▁journey	-9.8584
▁dream	-9.85917
▁visual	-9.85965
▁aspect	-9.85977
▁grant	-9.85977
▁define	-9.86059
▁cold	-9.86067
▁Their	-9.86174
▁189	-9.8627
older	-9.86309
▁ten	-9.86412
▁centuries	-9.86459
▁aid	-9.86462
▁electronic	-9.8653
▁director	-9.86653
▁drink	-9.86874
▁Apple	-9.8693
▁volume	-9.86992
▁enjoy	-9.87012
▁primari	-9.87082
▁Yes	-9.87127
▁motion	-9.87219
▁reform	-9.87418
▁freedom	-9.87643
ities	-9.87979
▁believ	-9.87985
▁responsibl	-9.87988
▁Court	-9.87988
▁Congress	-9.88058
▁troop	-9.88058
▁progress	-9.88069
▁UK	-9.88084
▁creation	-9.88093
▁democracy	-9.88184
▁serv	-9.88189
ur	-9.88204
▁mechanism	-9.88271
▁respond	-9.88407
▁contract	-9.88472
▁Japan	-9.88477
▁command	-9.88571
▁string	-9.88576
▁possibilit	-9.88621
▁rough	-9.88652
▁advantage	-9.88691
▁industrial	-9.88706
▁status	-9.89134
▁mental	-9.8914
▁negative	-9.89146
▁useful	-9.89269
▁estimat	-9.89277
▁screen	-9.8931
▁touch	-9.89363
▁Le	-9.8945
▁urban	-9.8945
▁reveal	-9.89541
▁competition	-9.89684
▁obtain	-9.89826
▁College	-9.89833
▁CA	-9.89871
▁port	-9.89965
▁argue	-9.90004
▁path	-9.90028
▁con	-9.90121
▁choose	-9.90178
ized	-9.90266
▁numer	-9.90347
▁wind	-9.9044
▁property	-9.90594
▁formal	-9.90612
▁print	-9.90822
▁fully	-9.9085
▁park	-9.90922
▁sit	-9.9095
▁operate	-9.90958
▁contrast	-9.91051
▁interaction	-9.91087
▁route	-9.91094
ne	-9.91132
▁lab	-9.91142
▁fill	-9.91209
▁recover	-9.91265
▁Robert	-9.91409
▁Art	-9.9146
▁Alexander	-9.91481
▁layer	-9.91508
▁perspective	-9.91626
▁sun	-9.91696
▁zero	-9.91786
▁contact	-9.9199
▁1950	-9.92104
▁crisis	-9.92284
▁Force	-9.92338
▁west	-9.92371
ro	-9.92405
▁fit	-9.92424
▁bank	-9.92431
▁Canadian	-9.9254
▁supply	-9.92597
▁appearance	-9.92617
▁failure	-9.92651
▁intend	-9.92733
▁Russian	-9.92782
▁bridge	-9.92856
▁wild	-9.92942
▁estimate	-9.92948
▁Over	-9.9304
▁university	-9.93074
▁wealth	-9.93189
ood	-9.93219
▁interview	-9.93244
▁Street	-9.93311
▁carri	-9.93456
▁distribution	-9.93489
▁strateg	-9.93527
▁magazine	-9.93681
water	-9.93686
▁Jewish	-9.93807
▁controll	-9.93829
▁ball	-9.93876
ful	-9.93906
▁shot	-9.93922
▁Where	-9.93939
▁foot	-9.94057
▁names	-9.9406
▁bar	-9.94087
▁Egypt	-9.94114
▁27	-9.94209
▁credit	-9.94223
▁round	-9.94234
▁Paris	-9.94273
▁apply	-9.9428
▁investment	-9.94367
▁26	-9.94602
▁designer	-9.9466
▁pain	-9.94752
ier	-9.94874
▁combin	-9.94952
▁Spa	-9.94969
▁review	-9.95181
▁reading	-9.95187
▁appli	-9.95192
▁faster	-9.95208
▁oxygen	-9.95216
▁clean	-9.95233
▁characteristic	-9.95412
▁sample	-9.95436
▁poverty	-9.95477
ham	-9.95498
▁wonder	-9.95571
▁hour	-9.95616
00	-9.95786
▁continent	-9.95817
▁showing	-9.95895
▁lose	-9.95949
▁peace	-9.96049
▁28	-9.96073
▁♪	-9.96083
▁existence	-9.96133
▁phase	-9.9616
ine	-9.96221
▁wish	-9.96242
▁virus	-9.96295
▁emerg	-9.96312
▁standing	-9.96442
▁combination	-9.9657
▁exchange	-9.96587
▁teach	-9.96697
▁disorder	-9.96769
▁channel	-9.96922
▁Washing	-9.96923
ware	-9.96994
head	-9.97006
▁High	-9.97092
▁massive	-9.97108
line	-9.97274
▁internal	-9.97406
▁Ro	-9.97421
▁bus	-9.97423
▁Sun	-9.97448
▁intelligence	-9.97461
▁brand	-9.97461
▁Thu	-9.97469
▁sister	-9.97546
▁187	-9.97709
▁dimension	-9.97775
▁sounds	-9.97812
▁o	-9.97818
▁victor	-9.97846
▁hot	-9.97861
▁capacity	-9.97958
▁floor	-9.98061
▁achieve	-9.98119
▁officer	-9.98217
▁nice	-9.98316
▁Richard	-9.98544
▁score	-9.98576
▁politic	-9.98673
▁categor	-9.98718
▁consequence	-9.98777
▁La	-9.98827
▁putting	-9.98879
▁supposed	-9.98939
▁presence	-9.98958
▁188	-9.98968
▁revolution	-9.99034
▁Day	-9.9912
▁proper	-9.99231
▁circle	-9.99491
▁etc	-9.99636
▁newspaper	-9.9964
▁decade	-9.99761
▁district	-9.99797
▁threat	-9.99842
▁Chicago	-9.99876
▁tissue	-9.99876
▁oppos	-9.99938
=	-9.99955
▁author	-9.99998
▁closed	-10
▁Also	-10.0003
▁Both	-10.0021
▁file	-10.0022
▁paint	-10.0033
▁galax	-10.0035
▁somebod	-10.0045
▁virtual	-10.0045
▁favorite	-10.0075
▁genes	-10.0081
▁philosoph	-10.0085
▁identifi	-10.0085
wood	-10.0092
▁arriv	-10.01
ng	-10.0104
▁equivalent	-10.0107
▁waste	-10.0111
▁attend	-10.0122
▁extra	-10.0123
▁physics	-10.0157
▁expert	-10.0163
▁Red	-10.0182
▁atmosphere	-10.0189
▁stress	-10.0202
▁baby	-10.0203
▁appoint	-10.0209
▁succeed	-10.0219
▁native	-10.0219
▁draw	-10.0224
▁leaving	-10.0227
▁variable	-10.0228
▁expression	-10.0235
▁province	-10.0241
▁environmental	-10.0241
▁resistan	-10.0242
▁plane	-10.0251
▁Jew	-10.0251
▁mountain	-10.0251
▁vary	-10.0259
▁correct	-10.026
▁debate	-10.0261
▁door	-10.0266
▁gold	-10.0266
▁colleague	-10.0292
▁observ	-10.0295
▁Arab	-10.0296
▁Count	-10.0298
▁activit	-10.0302
▁Google	-10.0316
▁football	-10.0317
▁Who	-10.0334
▁Ital	-10.0341
▁core	-10.0355
▁survive	-10.0355
▁tool	-10.0355
▁stopp	-10.0362
▁warm	-10.0363
▁agreement	-10.0375
▁Henr	-10.0383
ization	-10.0388
▁paid	-10.0388
▁crime	-10.0407
▁sub	-10.0409
▁statement	-10.0421
▁indicate	-10.0423
▁impossibl	-10.0424
▁setting	-10.0425
▁guess	-10.0439
▁Mars	-10.045
▁Royal	-10.0456
▁poem	-10.0456
▁creative	-10.0456
men	-10.0457
▁desire	-10.0464
▁argu	-10.0475
▁Rome	-10.0476
▁advance	-10.0481
▁Italian	-10.0491
▁reject	-10.0493
▁thank	-10.0502
▁brief	-10.0514
▁expensive	-10.0539
▁option	-10.0559
▁facilit	-10.0564
▁stone	-10.0569
▁underst	-10.0571
K	-10.0607
▁fell	-10.0615
▁strength	-10.0619
▁extraordinar	-10.0623
▁wood	-10.0626
▁identity	-10.0642
▁manufactur	-10.0651
▁edge	-10.0651
▁evolved	-10.0653
▁select	-10.066
▁equip	-10.0672
▁ready	-10.0672
▁Apollo	-10.0682
▁fun	-10.0683
▁super	-10.0684
▁govern	-10.0686
▁soil	-10.0686
▁zone	-10.0688
▁surprise	-10.0699
▁hydrogen	-10.0704
▁Brazil	-10.0706
▁feed	-10.0707
▁Award	-10.0727
▁episode	-10.0727
▁Russia	-10.0736
▁smart	-10.075
▁mobile	-10.0754
tial	-10.0764
▁ran	-10.0782
▁broadcast	-10.0785
▁technical	-10.0787
▁yes	-10.0787
▁vast	-10.0802
▁organiz	-10.0807
▁Big	-10.0815
▁Eastern	-10.0817
▁fac	-10.0824
▁compos	-10.0828
▁background	-10.083
▁recogniz	-10.083
▁Nav	-10.0838
▁interact	-10.0843
▁honor	-10.0846
+	-10.0852
▁tax	-10.0854
▁encourage	-10.0868
▁note	-10.0875
▁biological	-10.0884
▁variation	-10.0914
▁Institute	-10.0914
▁mathematics	-10.093
▁roll	-10.0933
▁sleep	-10.0942
▁extensive	-10.0947
▁federal	-10.0947
▁walking	-10.0969
▁chain	-10.0973
▁Peter	-10.0985
▁El	-10.0989
▁solid	-10.1
▁winter	-10.1
▁severe	-10.1008
▁enem	-10.1009
am	-10.1022
▁fighting	-10.1025
▁GDP	-10.1026
▁Bank	-10.1037
▁dangerous	-10.1044
▁sentence	-10.1046
▁balance	-10.1047
▁western	-10.105
▁musical	-10.1064
▁fan	-10.1065
ca	-10.1066
▁detect	-10.107
▁Hall	-10.1077
▁mine	-10.108
▁fourth	-10.1081
▁manag	-10.1092
▁script	-10.1096
▁solutions	-10.1099
▁formation	-10.1102
ad	-10.1102
▁orbit	-10.112
▁neighborhood	-10.1123
▁Parliament	-10.1132
▁distinct	-10.1134
▁complicated	-10.1139
▁stick	-10.1139
▁Center	-10.115
▁worldwide	-10.1152
▁determine	-10.1156
▁aim	-10.1159
▁programm	-10.1162
▁expansion	-10.1167
▁slave	-10.1178
▁invest	-10.118
▁independen	-10.1181
▁implement	-10.1182
▁Re	-10.119
▁adapt	-10.121
▁frequently	-10.1212
0,000	-10.1214
▁agent	-10.1214
▁identify	-10.1215
▁pictures	-10.1223
▁latter	-10.1229
▁capture	-10.123
▁prison	-10.1236
▁seek	-10.1238
▁cat	-10.1241
▁AD	-10.1244
▁website	-10.1247
▁Common	-10.1247
incredibly	-10.1248
▁plastic	-10.1256
▁500	-10.1268
ership	-10.1275
▁researcher	-10.1294
▁measur	-10.1304
▁declar	-10.1313
▁coin	-10.1316
▁Look	-10.133
▁extend	-10.133
é	-10.1334
▁Minister	-10.1346
▁35	-10.1347
▁respective	-10.1372
ius	-10.1373
▁clearly	-10.1379
▁meter	-10.1379
▁discuss	-10.138
▁drawing	-10.1385
▁classical	-10.1395
▁Bill	-10.14
▁apparent	-10.141
▁cave	-10.1411
▁curve	-10.1422
▁previously	-10.1423
▁consumer	-10.1424
▁Follow	-10.1428
▁suit	-10.1436
▁mathematical	-10.1437
▁random	-10.1438
▁Dutch	-10.1448
▁Island	-10.1461
▁drop	-10.1469
▁liquid	-10.1473
▁densit	-10.1476
▁Her	-10.1483
▁collective	-10.1485
▁platform	-10.1485
▁attract	-10.1486
▁Scot	-10.1488
▁skills	-10.1498
▁White	-10.151
▁biolog	-10.1525
▁historian	-10.1526
▁speaker	-10.1527
▁crew	-10.1529
▁glass	-10.1533
▁concentration	-10.154
▁promise	-10.1547
▁Albert	-10.1549
▁opposite	-10.1566
▁frequenc	-10.157
▁processe	-10.1575
▁Blue	-10.1582
▁protection	-10.1596
▁twice	-10.1602
▁apart	-10.1603
▁Ba	-10.1608
▁See	-10.1609
▁relations	-10.161
▁neighbor	-10.1611
▁museum	-10.1612
▁Louis	-10.1616
▁none	-10.163
▁Book	-10.1634
▁Columbia	-10.1643
▁Northern	-10.1649
▁birds	-10.1651
▁import	-10.1656
▁net	-10.1663
▁transition	-10.1663
▁Battle	-10.1668
▁dry	-10.1669
▁agreed	-10.1674
▁29	-10.1676
▁universal	-10.1686
▁deriv	-10.1689
▁Nation	-10.1696
▁infrastructure	-10.1705
▁favor	-10.1712
▁pure	-10.1724
▁indeed	-10.1724
term	-10.1725
▁management	-10.1731
▁Christ	-10.1737
▁185	-10.1745
▁bright	-10.1747
▁tru	-10.1749
▁Islands	-10.1749
▁error	-10.1752
▁31	-10.1759
▁boat	-10.1768
▁check	-10.177
▁electrical	-10.1771
▁Earl	-10.1785
▁earth	-10.1787
▁Angel	-10.1803
em	-10.1806
▁efficient	-10.1807
▁dramatic	-10.1809
▁upper	-10.1821
▁III	-10.1825
▁request	-10.1837
N	-10.184
▁export	-10.1841
▁Sever	-10.1842
▁contemporar	-10.1851
▁magnitude	-10.1856
▁cheap	-10.1865
▁radical	-10.1865
▁observation	-10.1869
▁achiev	-10.1877
▁Bay	-10.1885
▁husband	-10.1894
▁settlement	-10.1895
▁firm	-10.1901
ble	-10.1902
▁Museum	-10.1913
▁quantum	-10.1913
▁afford	-10.1918
▁landscape	-10.1924
▁faith	-10.193
▁notion	-10.1939
▁Christmas	-10.1942
▁hair	-10.1942
ter	-10.1945
▁organ	-10.1951
▁permanent	-10.1954
▁dog	-10.1957
▁exception	-10.197
▁complet	-10.1973
▁advanc	-10.1978
▁satellite	-10.199
▁Ho	-10.1993
na	-10.2002
▁Pacific	-10.2012
▁neurons	-10.2013
▁domestic	-10.202
▁Australian	-10.202
▁Smith	-10.2028
▁council	-10.2038
▁Old	-10.2051
▁extended	-10.2056
▁instruction	-10.2059
▁unlike	-10.2061
▁opening	-10.2063
▁decide	-10.2073
▁agree	-10.2078
▁eastern	-10.2092
▁Science	-10.2097
▁recording	-10.2104
not	-10.2105
▁practical	-10.2109
▁librar	-10.2115
▁everywhere	-10.2116
▁Video	-10.2126
▁Un	-10.2126
ories	-10.2128
▁sustain	-10.2141
▁broad	-10.2143
ility	-10.2145
▁bodi	-10.2151
taken	-10.2168
ant	-10.2171
▁Mexic	-10.2182
▁radiation	-10.2195
▁consciousness	-10.2196
▁minor	-10.2199
▁circuit	-10.2226
▁polic	-10.2227
C	-10.223
▁generate	-10.2231
▁chief	-10.2241
ra	-10.2254
▁184	-10.2257
▁Three	-10.2264
▁Z	-10.2264
▁Maybe	-10.2269
▁master	-10.2274
▁giant	-10.2287
et	-10.2288
io	-10.2297
▁ideal	-10.2307
▁distinguish	-10.2307
▁Compan	-10.231
▁improv	-10.2315
▁branch	-10.2316
▁league	-10.2318
▁label	-10.232
▁regional	-10.2321
▁300	-10.2337
▁Later	-10.2341
▁Go	-10.2347
▁genome	-10.2363
▁retain	-10.2363
▁confirm	-10.2363
▁traffic	-10.2363
▁input	-10.2367
▁output	-10.2375
▁worse	-10.238
▁straight	-10.2383
▁prov	-10.2393
▁Southern	-10.2403
▁foundation	-10.2403
gen	-10.2413
▁Mary	-10.2416
▁actor	-10.2426
▁prominent	-10.2428
efore	-10.2433
life	-10.2434
ious	-10.2439
▁gene	-10.2439
▁mouth	-10.2451
▁Wal	-10.2452
▁Once	-10.2453
▁convince	-10.2454
▁overall	-10.2457
ory	-10.246
ver	-10.2461
il	-10.2462
▁administration	-10.2466
▁Arabic	-10.2469
▁familiar	-10.2483
▁victim	-10.2494
▁spring	-10.25
▁183	-10.2507
oxide	-10.2515
▁Israel	-10.2521
▁Los	-10.2521
▁frame	-10.2524
▁jump	-10.2529
▁System	-10.2535
▁desert	-10.2535
▁communicate	-10.2571
▁Revolution	-10.2575
▁conference	-10.2576
▁lesson	-10.2577
▁web	-10.2592
▁profit	-10.2596
▁holding	-10.2597
▁depression	-10.2597
how	-10.261
▁capable	-10.262
▁sky	-10.262
I	-10.2625
▁Mo	-10.2626
▁unknown	-10.263
▁participat	-10.2645
▁enormous	-10.2647
▁customer	-10.2657
▁insect	-10.2657
▁resident	-10.2667
▁crazy	-10.2668
▁Berlin	-10.2678
▁Under	-10.2679
▁civilization	-10.2679
▁prime	-10.2689
▁judge	-10.2694
▁minister	-10.2699
▁emotion	-10.2701
▁stable	-10.2701
▁driving	-10.2708
▁organic	-10.2713
▁symptom	-10.272
▁belong	-10.272
▁creature	-10.2721
▁alcohol	-10.2725
▁tank	-10.2752
▁survey	-10.2758
▁manage	-10.2765
ma	-10.277
▁dispute	-10.2782
▁exciting	-10.2787
▁discovery	-10.2794
▁ratio	-10.2797
▁candidate	-10.2803
▁45	-10.2803
▁staff	-10.2813
▁determined	-10.2815
▁cook	-10.2822
°	-10.2824
▁edition	-10.2858
ga	-10.2863
▁passenger	-10.2866
▁patent	-10.2866
▁budget	-10.2881
▁appeal	-10.2887
▁decline	-10.2888
▁replace	-10.2899
▁defense	-10.2902
▁broken	-10.2903
▁comic	-10.2917
▁captur	-10.2917
▁weapons	-10.2917
▁trouble	-10.2929
▁crop	-10.2936
▁driver	-10.2942
▁agricultur	-10.2953
▁fresh	-10.2961
▁Egyptian	-10.2963
▁therap	-10.2966
century	-10.297
▁visibl	-10.2973
▁coal	-10.2976
▁Academ	-10.2977
▁alive	-10.2978
▁muscle	-10.2982
▁outcome	-10.2982
▁la	-10.2991
▁fixed	-10.2996
▁blind	-10.3001
▁opinion	-10.3003
▁producer	-10.301
▁x	-10.3016
v	-10.3019
▁manager	-10.3021
▁iron	-10.3032
ification	-10.3036
▁labor	-10.3037
▁surrounding	-10.3038
▁angle	-10.3047
▁bi	-10.3058
▁Government	-10.3068
▁multi	-10.3083
▁abandon	-10.3089
▁Lord	-10.3089
▁responsibility	-10.309
▁sports	-10.309
▁fashion	-10.3091
▁Ma	-10.3091
▁academic	-10.3112
▁featur	-10.3122
da	-10.3126
kay	-10.3139
▁scar	-10.314
dimensional	-10.3143
▁remarkabl	-10.3145
▁haven	-10.3148
▁Michael	-10.3165
▁arms	-10.3165
▁spot	-10.3166
▁infection	-10.3168
▁injur	-10.3171
▁Lake	-10.3177
ina	-10.3179
▁dynamic	-10.3181
co	-10.3186
▁exercise	-10.319
▁quantit	-10.3196
▁marked	-10.3196
▁enable	-10.3196
▁stor	-10.3198
▁Green	-10.3206
ought	-10.3207
▁accurate	-10.3208
▁transfer	-10.3213
▁stock	-10.3217
▁quarter	-10.3221
▁trip	-10.3225
▁lies	-10.3244
▁Frank	-10.3244
▁Are	-10.3245
▁graph	-10.325
▁generat	-10.3255
▁healthy	-10.3257
▁Saint	-10.3263
▁Ca	-10.3265
▁steel	-10.3274
▁spoken	-10.3279
▁spirit	-10.3284
▁1930	-10.3285
▁procedure	-10.3292
▁grown	-10.33
▁dialect	-10.3307
▁refus	-10.3324
▁broke	-10.3325
▁encounter	-10.3351
▁plate	-10.3363
▁classe	-10.3364
▁beaut	-10.3366
▁discussion	-10.3368
▁75	-10.3372
▁prove	-10.3373
▁mix	-10.3375
▁150	-10.3384
▁struggle	-10.3384
▁Martin	-10.3384
▁medium	-10.3391
▁attach	-10.3393
▁worst	-10.3406
▁saving	-10.3407
▁transformation	-10.3414
▁comment	-10.3424
▁studio	-10.3427
▁Life	-10.3428
ite	-10.3435
▁publication	-10.3438
▁differ	-10.3451
▁prior	-10.3456
▁dy	-10.3461
▁earn	-10.3476
▁portion	-10.348
▁department	-10.3485
▁hunt	-10.3486
▁disappear	-10.3494
▁employee	-10.3497
▁height	-10.3501
▁weak	-10.3503
▁contribut	-10.3505
▁bough	-10.3506
nt	-10.3507
▁Department	-10.3518
▁comput	-10.3521
▁compassion	-10.354
▁Jesu	-10.354
▁Bost	-10.3541
▁fossil	-10.3542
▁please	-10.355
▁g	-10.3557
▁interpretation	-10.3565
▁peak	-10.3569
▁sugar	-10.3574
▁justice	-10.3575
▁substance	-10.3585
▁HIV	-10.3586
▁colon	-10.3596
▁uniform	-10.3597
▁winning	-10.3602
over	-10.3609
▁sales	-10.3615
▁trace	-10.362
▁linear	-10.3621
▁partner	-10.3621
▁sand	-10.3624
▁1,000	-10.3627
▁breath	-10.3627
▁excited	-10.363
lo	-10.3631
▁weather	-10.3631
▁format	-10.3634
▁importan	-10.3634
▁parallel	-10.3636
▁vessel	-10.3642
▁chart	-10.3648
▁stem	-10.3653
B	-10.3657
▁accident	-10.3666
▁external	-10.3676
▁complexit	-10.3678
▁gun	-10.3693
▁assembl	-10.3697
▁collapse	-10.3706
▁description	-10.3711
▁catch	-10.3714
▁noise	-10.3725
▁inner	-10.3726
▁mechanical	-10.3727
▁Association	-10.3733
istic	-10.3745
▁explore	-10.3747
▁careful	-10.3765
▁spin	-10.3767
▁rural	-10.3768
▁translation	-10.3784
▁10,000	-10.379
▁interface	-10.3791
▁heavi	-10.3793
▁defend	-10.3799
▁Di	-10.3813
ah	-10.3815
▁scholars	-10.3825
▁Further	-10.3826
▁continuous	-10.3827
▁Per	-10.3842
▁Young	-10.3848
▁criminal	-10.3849
▁ethnic	-10.3855
▁split	-10.386
▁precise	-10.3861
board	-10.3867
▁mixed	-10.3874
▁depict	-10.3879
▁combat	-10.3885
▁fix	-10.3888
▁Atlantic	-10.3904
▁yield	-10.3907
▁sport	-10.3908
▁Colo	-10.3919
ize	-10.3928
▁fruit	-10.393
▁promote	-10.3945
▁streets	-10.3948
▁artificial	-10.3948
▁strange	-10.3951
▁principal	-10.3954
▁magnetic	-10.3956
▁load	-10.3957
▁moon	-10.3958
▁phrase	-10.3961
▁flower	-10.3961
▁Through	-10.3966
▁Bo	-10.3976
▁chemistr	-10.3992
▁Ver	-10.3994
▁sing	-10.3994
▁solv	-10.3994
▁constitution	-10.3998
▁Age	-10.3998
▁notable	-10.4003
▁stream	-10.4011
off	-10.4018
▁suffering	-10.4021
▁hero	-10.4023
▁email	-10.4025
▁representation	-10.4026
▁occasional	-10.4028
▁threaten	-10.4028
▁composition	-10.4031
▁diet	-10.4034
▁cast	-10.4034
▁register	-10.4036
▁dropp	-10.4037
▁legislati	-10.4037
▁Game	-10.4038
bas	-10.4039
▁Brown	-10.404
▁domain	-10.4048
▁spiritual	-10.4049
▁Societ	-10.406
▁coffee	-10.4072
▁terribl	-10.4072
▁Sir	-10.4074
sumption	-10.4077
hi	-10.4078
▁grand	-10.4083
▁Emperor	-10.4084
▁extent	-10.4084
▁remind	-10.4088
▁missile	-10.4096
▁household	-10.4098
▁arrest	-10.4108
▁opposition	-10.4108
eath	-10.4109
▁Ire	-10.412
▁dat	-10.4129
▁murder	-10.4137
▁switch	-10.4143
▁Chris	-10.4152
▁hearing	-10.4154
▁Einstein	-10.4155
▁liberal	-10.4155
▁farm	-10.4156
▁topic	-10.4162
▁chosen	-10.4162
▁ancestor	-10.4167
▁ring	-10.4174
▁1920	-10.418
▁Adam	-10.4182
▁dedicat	-10.4187
▁bound	-10.419
▁Darwin	-10.419
▁reserve	-10.4193
▁Dan	-10.4199
▁airport	-10.4204
▁k	-10.4207
fare	-10.4209
▁phenomeno	-10.4223
▁odd	-10.4238
▁nor	-10.424
▁surround	-10.4249
▁vector	-10.4252
km	-10.4254
▁Co	-10.4271
▁acquir	-10.4275
▁cable	-10.4282
▁philosopher	-10.4283
▁architect	-10.4288
▁divers	-10.4291
▁transportation	-10.4293
▁bunch	-10.43
▁gradual	-10.4303
▁Sometime	-10.4307
▁Amazon	-10.4324
▁strip	-10.4337
▁prepared	-10.4339
▁Civil	-10.4348
▁yellow	-10.4349
▁Valley	-10.4349
▁magic	-10.4363
▁commission	-10.4367
▁soul	-10.437
▁corner	-10.4371
▁dinosaur	-10.4373
▁statistic	-10.4375
▁pilot	-10.4377
▁ecosystem	-10.4385
▁Car	-10.4388
▁32	-10.439
▁Turk	-10.4395
▁reverse	-10.4397
▁happiness	-10.4401
▁fiction	-10.4407
▁sum	-10.4416
▁distribut	-10.4417
▁flat	-10.4421
▁Among	-10.4423
▁Human	-10.4424
▁Such	-10.4437
op	-10.4439
▁meat	-10.4442
R	-10.4442
au	-10.4447
▁gift	-10.4447
▁aware	-10.4453
▁restaurant	-10.4459
H	-10.4463
▁Final	-10.4464
▁joint	-10.4467
▁crowd	-10.4468
▁executive	-10.4472
▁escape	-10.4476
▁gender	-10.4484
▁forth	-10.4484
▁maximum	-10.4496
▁gap	-10.4496
▁engage	-10.4504
▁counter	-10.4506
▁explanation	-10.4509
▁shell	-10.4514
▁Bible	-10.4514
▁pitch	-10.4527
▁debt	-10.4531
▁killing	-10.4534
▁conservative	-10.4534
▁seed	-10.4546
▁sick	-10.4548
▁400	-10.4553
▁stoo	-10.4555
▁critic	-10.4555
▁column	-10.4557
▁beat	-10.4568
▁camp	-10.4574
▁theme	-10.4575
▁infinite	-10.4576
▁dominat	-10.4583
▁sides	-10.4585
▁nav	-10.4588
▁protest	-10.4596
▁emotional	-10.4602
uch	-10.4632
▁Francisco	-10.4633
▁reign	-10.4646
▁fleet	-10.4659
▁diversit	-10.4659
▁Bell	-10.4659
▁railway	-10.4661
▁Con	-10.467
▁Cup	-10.4679
▁climb	-10.468
nd	-10.4686
losing	-10.4694
▁narrow	-10.4696
ology	-10.4697
▁appropriate	-10.4698
▁mistake	-10.4699
▁181	-10.4706
▁mom	-10.4707
▁parent	-10.4716
ative	-10.472
▁Joseph	-10.4734
▁representative	-10.4748
▁Irish	-10.4752
▁exhibit	-10.4754
▁copy	-10.4756
▁remove	-10.4758
▁secure	-10.476
▁ion	-10.4769
▁profound	-10.4772
ated	-10.4782
▁bass	-10.4789
▁agricultural	-10.4794
▁substantial	-10.4798
▁aren	-10.4803
▁consistent	-10.4805
▁recommend	-10.4808
▁wound	-10.4812
▁Ocean	-10.4823
▁revenue	-10.4823
▁spoke	-10.4832
▁childhood	-10.4837
▁Ju	-10.4842
▁180	-10.4845
▁combine	-10.4862
▁Republican	-10.4868
▁requirement	-10.4869
▁lift	-10.4875
▁Queen	-10.4877
▁Asian	-10.4878
▁lay	-10.4881
magine	-10.4888
▁Constantin	-10.4891
▁invention	-10.4897
ling	-10.49
▁conclusion	-10.4901
▁concrete	-10.4901
▁graduate	-10.4902
▁narrative	-10.4904
▁invit	-10.4906
▁musician	-10.4909
▁kingdom	-10.4914
▁opportunit	-10.4921
▁Up	-10.4921
▁surgery	-10.4926
▁intellectual	-10.4926
▁approve	-10.4935
▁operator	-10.4936
▁skill	-10.4943
▁supplie	-10.4951
▁elephant	-10.4952
▁Grand	-10.4955
▁missing	-10.4961
▁Gree	-10.4964
po	-10.4965
▁dot	-10.4966
▁settl	-10.4969
▁182	-10.4969
▁contribution	-10.4971
▁sufficient	-10.4978
▁association	-10.4979
▁33	-10.4993
▁ex	-10.5
▁introduction	-10.5005
▁tons	-10.5013
▁item	-10.5015
▁decrease	-10.5019
▁Iraq	-10.5024
what	-10.5029
▁calculate	-10.503
▁honest	-10.503
▁perception	-10.5031
▁journal	-10.5032
▁kilometer	-10.5034
T	-10.5035
daily	-10.5041
▁stat	-10.5042
spread	-10.5042
▁row	-10.5043
▁Olympic	-10.5044
▁farmers	-10.5044
▁Holly	-10.5046
▁fellow	-10.5048
▁preserv	-10.5053
▁Star	-10.506
▁improvement	-10.5061
G	-10.5064
▁empire	-10.507
▁Johnson	-10.5087
▁Detroit	-10.5096
▁1940	-10.5096
▁analog	-10.5107
▁antibiotic	-10.5109
▁molecular	-10.5109
▁repeated	-10.5111
▁politician	-10.5111
▁Ben	-10.5115
eval	-10.5117
▁journalist	-10.512
▁indigen	-10.5135
our	-10.5136
drew	-10.5136
▁refugee	-10.5137
▁assign	-10.5143
hand	-10.5149
▁interpret	-10.5152
▁Law	-10.5153
▁selection	-10.5157
▁affair	-10.5162
▁Hill	-10.5175
ig	-10.5176
▁doubt	-10.5178
▁sat	-10.5186
▁Lincoln	-10.5188
▁unusual	-10.5189
▁percentage	-10.519
▁custom	-10.5197
FL	-10.5201
▁luck	-10.521
▁occupie	-10.5218
ri	-10.5222
▁willing	-10.5225
▁Jackson	-10.5229
▁prisoner	-10.5232
▁react	-10.5236
▁window	-10.5237
▁younger	-10.5238
L	-10.5247
▁chair	-10.5254
▁dozen	-10.5255
▁ordinar	-10.5264
▁invasion	-10.5268
and	-10.527
▁divide	-10.5272
▁Islamic	-10.5279
▁Group	-10.5282
▁illness	-10.5283
▁measurement	-10.5288
▁photo	-10.5294
▁Texas	-10.5295
▁sought	-10.5302
▁bird	-10.5304
▁functional	-10.5315
▁Mr	-10.5319
▁65	-10.5333
▁fifth	-10.5334
▁Y	-10.5335
▁pop	-10.5344
▁baseball	-10.535
▁passion	-10.5356
▁install	-10.5364
▁gather	-10.5367
▁compress	-10.5377
▁contribute	-10.5381
▁Serie	-10.5382
▁cluster	-10.5389
▁participate	-10.54
▁copie	-10.5402
den	-10.5414
▁Times	-10.5416
▁colour	-10.5417
▁rational	-10.5423
▁concert	-10.5425
▁breed	-10.5436
▁clock	-10.5443
▁Modern	-10.5444
▁tall	-10.5452
▁dominant	-10.5457
▁conventional	-10.5458
▁bill	-10.5463
▁Health	-10.5467
▁committ	-10.5469
▁reward	-10.5471
▁poet	-10.5475
▁100,000	-10.5479
▁dynast	-10.5485
▁assume	-10.5487
▁grain	-10.5496
▁CO	-10.5497
▁math	-10.5505
▁ensure	-10.551
ler	-10.551
▁classic	-10.5513
ors	-10.5519
▁sharing	-10.5523
▁clinical	-10.5524
▁Take	-10.5528
▁Ar	-10.5528
ably	-10.5537
▁union	-10.5539
▁Protestant	-10.5539
▁surprising	-10.5539
▁Time	-10.5541
▁Similar	-10.5553
▁tumor	-10.5553
▁reduction	-10.5554
▁poetry	-10.5555
▁colony	-10.5557
▁roads	-10.5561
let	-10.5562
▁forc	-10.5563
▁Service	-10.5567
▁crystal	-10.5581
▁flag	-10.5592
▁exclusive	-10.5595
▁carrier	-10.5605
▁introduce	-10.5605
▁integrat	-10.5606
▁recognition	-10.5608
▁brown	-10.5608
▁lie	-10.5619
▁regulation	-10.5638
▁wire	-10.5641
▁Research	-10.5641
▁crash	-10.5648
▁proof	-10.565
▁mere	-10.5653
▁pro	-10.5657
▁thin	-10.5659
▁regime	-10.5664
▁circumstance	-10.5664
▁steps	-10.5671
O	-10.5671
▁currenc	-10.5678
▁myth	-10.5679
go	-10.5685
▁festival	-10.5692
▁objective	-10.5701
▁discipline	-10.5702
▁Love	-10.5705
▁Tom	-10.5706
▁absorb	-10.5706
▁exploit	-10.5706
E	-10.5713
▁binar	-10.5716
▁wheel	-10.5723
▁Your	-10.5731
▁tourist	-10.5743
▁Four	-10.5746
▁extension	-10.5748
▁Edward	-10.5748
▁spectrum	-10.5748
▁Which	-10.5748
known	-10.5754
ol	-10.5757
za	-10.5759
▁illegal	-10.5762
▁theorem	-10.5764
▁grade	-10.5767
▁compare	-10.5779
▁enzyme	-10.5781
▁Croatia	-10.5782
▁guitar	-10.5789
▁naturally	-10.579
▁identical	-10.5804
▁variant	-10.5804
▁false	-10.5818
▁Wom	-10.5819
▁chose	-10.5821
▁professor	-10.5826
▁fold	-10.5829
▁Prince	-10.583
▁fantastic	-10.5832
▁census	-10.5833
call	-10.5834
▁universit	-10.5835
▁Mark	-10.5839
▁Me	-10.584
hire	-10.5843
ha	-10.5846
▁Mountain	-10.5847
▁Orthodox	-10.5847
▁database	-10.5847
▁classifi	-10.5848
▁BBC	-10.5851
▁Good	-10.5854
destruction	-10.5861
▁Year	-10.5863
▁sight	-10.5864
tion	-10.5867
▁wherea	-10.5868
ray	-10.5879
▁tail	-10.5879
▁hop	-10.5884
▁tough	-10.5891
▁extract	-10.5899
▁indicat	-10.5899
▁horse	-10.59
▁evolutionary	-10.5909
▁views	-10.5916
▁Did	-10.5917
▁vaccine	-10.5918
▁Never	-10.5922
▁abuse	-10.5923
▁assum	-10.593
▁coordinate	-10.5946
▁flood	-10.5946
▁Mar	-10.5948
▁coral	-10.5961
▁logic	-10.5986
▁lake	-10.599
▁tape	-10.599
▁atomic	-10.5991
▁entit	-10.5992
▁Doctor	-10.6004
ner	-10.6008
▁garden	-10.6011
▁afraid	-10.6018
▁strike	-10.6018
▁monitor	-10.6019
▁slide	-10.602
▁lifetime	-10.6022
▁repair	-10.6025
▁inform	-10.6027
▁assumption	-10.6029
▁relation	-10.6029
ti	-10.6043
▁citizen	-10.6043
▁declin	-10.6045
▁mineral	-10.605
tari	-10.605
▁Any	-10.6051
▁inter	-10.6058
▁headquarter	-10.6063
▁deeply	-10.6064
▁Suprem	-10.6076
▁spaces	-10.6076
▁influenc	-10.6085
▁client	-10.609
▁governor	-10.6094
▁cloud	-10.6096
P	-10.6096
▁Cuba	-10.6101
▁experienc	-10.6119
▁diamond	-10.612
▁sphere	-10.613
▁eating	-10.6132
▁Vietnam	-10.6134
▁cognitive	-10.6134
ba	-10.6135
▁tower	-10.6137
▁Phil	-10.6142
▁Pope	-10.6143
▁yea	-10.6145
▁Ottoman	-10.6149
▁manner	-10.6153
▁influen	-10.6157
▁automatic	-10.6157
iller	-10.616
▁priest	-10.6163
▁rail	-10.6172
▁melt	-10.6173
ent	-10.6174
▁Czech	-10.6178
▁mirror	-10.6178
▁theater	-10.6184
▁mount	-10.6188
▁coach	-10.6191
▁micro	-10.6192
▁modifi	-10.6196
▁shop	-10.6197
▁motor	-10.6204
▁temple	-10.6207
▁Islam	-10.6218
▁soft	-10.6219
▁engaged	-10.6221
▁derivative	-10.6222
▁anyway	-10.6225
▁restrict	-10.6226
▁mammal	-10.6236
▁habitat	-10.6247
▁educational	-10.625
▁array	-10.6258
▁Due	-10.6263
American	-10.6266
▁alter	-10.6267
▁mountains	-10.6267
▁medi	-10.6269
▁Will	-10.6269
▁isolat	-10.6272
▁Space	-10.6275
▁vertical	-10.6276
▁efficienc	-10.6276
▁volunteer	-10.6281
▁guns	-10.6285
▁banks	-10.6285
▁resolution	-10.6285
▁promot	-10.6291
▁fluid	-10.6311
▁handle	-10.6322
▁expedition	-10.6326
▁Facebook	-10.6326
▁dense	-10.6326
▁campus	-10.6336
▁Boy	-10.6336
▁v	-10.6338
▁Treat	-10.6339
▁alphabet	-10.634
▁smell	-10.634
▁valley	-10.634
▁usage	-10.6342
▁factory	-10.6351
▁van	-10.6356
scale	-10.636
▁Ne	-10.6367
▁NASA	-10.637
▁Alexandria	-10.6374
▁violent	-10.6384
▁convention	-10.6386
▁telephone	-10.6393
▁Committee	-10.64
▁Cape	-10.6402
▁snow	-10.6415
▁Iran	-10.6419
gun	-10.6423
▁Persian	-10.6424
▁shock	-10.6436
▁manufacturer	-10.6439
▁1982	-10.6445
▁corporation	-10.6445
▁genre	-10.6446
▁Pakistan	-10.6454
▁fiber	-10.6461
▁purchase	-10.6469
▁remote	-10.6471
▁opponent	-10.6475
▁mark	-10.6477
▁pioneer	-10.649
▁EU	-10.6492
▁forget	-10.6493
▁th	-10.6496
ford	-10.6498
▁reputation	-10.6506
▁Prize	-10.6506
▁drawn	-10.6507
▁resist	-10.6509
▁plot	-10.6511
▁Del	-10.6521
▁Costa	-10.6521
▁filter	-10.6524
▁advertis	-10.653
ground	-10.653
▁authors	-10.6535
▁taste	-10.6536
▁Think	-10.6536
▁Airport	-10.6536
ge	-10.6538
▁bomb	-10.6546
▁empty	-10.6546
▁occasion	-10.6547
▁36	-10.6549
do	-10.6564
▁challeng	-10.6567
▁expos	-10.657
night	-10.6571
▁truck	-10.6579
▁lowest	-10.6581
▁burn	-10.6586
ivity	-10.6586
ose	-10.6587
ci	-10.6588
▁Mi	-10.6588
▁rid	-10.6589
▁bag	-10.6591
com	-10.6593
etween	-10.6595
▁inhabitant	-10.6597
▁Nor	-10.66
bean	-10.6602
▁bubble	-10.6606
▁disk	-10.6613
rich	-10.6614
▁imagination	-10.6615
▁Li	-10.6621
▁bishop	-10.6627
▁ver	-10.664
▁brains	-10.6649
ster	-10.6652
▁strict	-10.6658
▁powers	-10.6667
▁mode	-10.667
▁miss	-10.667
openha	-10.6674
▁conscious	-10.668
▁tribes	-10.6684
▁mouse	-10.6689
while	-10.6694
▁depth	-10.6694
ger	-10.6698
▁Pe	-10.6701
opper	-10.6701
▁march	-10.6707
▁Major	-10.6713
▁Have	-10.6718
▁ritual	-10.6735
▁session	-10.6735
▁pump	-10.6735
▁Lab	-10.6739
▁incorporat	-10.674
M	-10.6743
no	-10.6747
▁dollar	-10.675
▁Carib	-10.6751
▁disaster	-10.6766
▁Ra	-10.6782
▁breast	-10.6782
▁Prime	-10.6782
▁hidden	-10.6782
#	-10.679
▁nei	-10.6793
truck	-10.6797
▁proportion	-10.6797
▁chapter	-10.6798
ph	-10.6798
surance	-10.6798
ho	-10.6807
▁varie	-10.6811
ible	-10.6817
▁bottle	-10.6822
▁hous	-10.6824
▁babi	-10.6825
ese	-10.6827
▁comparison	-10.6829
▁proposal	-10.6831
▁CD	-10.6833
▁toxic	-10.6842
▁mathematician	-10.6844
▁lung	-10.6845
don	-10.6846
▁emperor	-10.6848
▁sail	-10.6854
▁worry	-10.6854
▁demonstrat	-10.686
▁telescope	-10.686
▁decay	-10.686
▁Sweden	-10.6862
▁Abou	-10.6878
▁transferr	-10.6885
▁scheme	-10.6891
▁Rock	-10.6893
▁distinction	-10.69
▁abstract	-10.6902
▁experimental	-10.6904
▁Though	-10.6905
▁sculpture	-10.6923
▁Commission	-10.6926
▁Best	-10.6934
▁Columb	-10.6938
▁Duke	-10.694
▁silver	-10.6941
ill	-10.6953
▁criticism	-10.6961
▁fat	-10.6963
▁colonial	-10.6964
▁bicycle	-10.6969
▁roof	-10.697
▁marine	-10.6971
▁senior	-10.6971
▁insight	-10.6976
▁dolphin	-10.6986
▁tremendous	-10.6986
▁witness	-10.6989
ck	-10.6993
▁Christians	-10.6994
▁democratic	-10.7
▁minimum	-10.7002
▁theoretical	-10.7002
▁Gold	-10.701
bit	-10.7012
▁nucle	-10.7015
▁nervous	-10.7018
▁probabilit	-10.7025
▁winner	-10.7035
▁minds	-10.7036
▁civilian	-10.7037
▁Camp	-10.7041
▁valuable	-10.705
▁Andrew	-10.7051
▁translat	-10.7051
round	-10.7054
▁exhibition	-10.7057
▁Division	-10.7066
▁delay	-10.7066
▁min	-10.7067
if	-10.707
▁incident	-10.7075
▁Sunday	-10.7075
▁Moon	-10.7076
▁ceremon	-10.7081
▁Nobel	-10.7082
▁buri	-10.7092
▁plus	-10.7097
▁Chile	-10.7098
▁Portuguese	-10.7098
▁prize	-10.7104
▁bod	-10.7107
▁talent	-10.7115
▁rely	-10.712
▁cloth	-10.7121
▁deploy	-10.7128
▁classification	-10.7132
▁administrative	-10.7146
▁Constitution	-10.7147
▁Lu	-10.7148
▁passage	-10.7153
▁panel	-10.7163
▁hate	-10.7163
▁mo	-10.7174
▁trend	-10.7186
ington	-10.7187
▁pack	-10.7189
▁derive	-10.7201
▁Zealand	-10.7211
cut	-10.722
▁Technolog	-10.7228
▁intervention	-10.7228
▁invisibl	-10.7238
rado	-10.724
▁disc	-10.7242
▁fragment	-10.7244
▁tunnel	-10.7255
▁deposit	-10.7256
▁monarch	-10.726
▁Mac	-10.7266
▁classroom	-10.7277
▁sustainabl	-10.7277
▁1987	-10.7289
ot	-10.729
▁correspond	-10.7291
▁airplane	-10.7293
▁harm	-10.7296
▁adaptation	-10.7298
▁loop	-10.7303
▁membrane	-10.7309
▁loan	-10.731
▁serving	-10.7312
▁Assembl	-10.7326
▁mixture	-10.7326
corruption	-10.7328
▁royal	-10.733
▁Hi	-10.7336
▁commander	-10.7347
▁slavery	-10.7356
versus	-10.7357
▁lawyer	-10.736
▁hotel	-10.736
▁gay	-10.736
▁sensor	-10.7365
▁geometr	-10.737
▁Project	-10.7375
▁immigrant	-10.7375
well	-10.7382
▁blow	-10.7383
▁Super	-10.7389
▁entertainment	-10.7394
▁wine	-10.7395
▁weapon	-10.7397
▁Additional	-10.74
▁dealing	-10.74
▁asset	-10.7404
▁danger	-10.7406
▁suicide	-10.7408
▁transmission	-10.7408
▁assault	-10.7408
▁evil	-10.741
▁Jones	-10.7412
▁ride	-10.7414
▁goals	-10.742
▁Netherland	-10.7425
▁teeth	-10.7425
▁Sam	-10.7447
▁storm	-10.7454
▁Senat	-10.7457
▁hall	-10.7458
▁Harvard	-10.7458
▁Championship	-10.7458
▁Hu	-10.7464
▁cent	-10.7472
▁conservation	-10.7476
▁ending	-10.7477
▁Bob	-10.7483
▁printing	-10.7489
▁inherit	-10.7491
▁structural	-10.7491
▁cavalry	-10.7492
▁prototype	-10.7502
▁Steve	-10.7502
▁cartoon	-10.7507
▁controvers	-10.7507
▁unfortunate	-10.7508
▁salt	-10.7508
▁arrangement	-10.7509
▁legend	-10.7509
▁node	-10.751
▁trick	-10.7512
▁tension	-10.7513
▁Den	-10.7516
▁vulnerab	-10.7516
▁bow	-10.7524
▁autism	-10.7525
▁Alaska	-10.7525
▁framework	-10.7525
▁relate	-10.7527
▁shipp	-10.7535
▁quote	-10.7549
▁finger	-10.755
om	-10.7553
▁mechanic	-10.7554
▁diameter	-10.7558
▁plain	-10.7558
▁compete	-10.7571
▁constellation	-10.7575
▁codice	-10.7575
▁advice	-10.7575
▁Foundation	-10.7576
▁corresponding	-10.7577
▁Lo	-10.7584
▁server	-10.7587
▁historic	-10.7591
▁dad	-10.7595
▁controversial	-10.7596
▁audio	-10.7616
▁rating	-10.7624
fall	-10.7624
▁physicist	-10.7626
▁manuscript	-10.7626
▁attitude	-10.7626
▁committee	-10.763
▁trad	-10.7633
▁doctrine	-10.7633
▁rising	-10.7636
▁rivers	-10.7638
▁stretch	-10.764
▁sole	-10.7641
▁physician	-10.7643
▁license	-10.7643
▁psychological	-10.7644
▁implementation	-10.7649
▁successor	-10.7655
▁Wall	-10.7656
▁calculation	-10.766
▁laid	-10.7661
▁malaria	-10.7663
▁42	-10.7667
▁dependent	-10.7685
▁chromosome	-10.7686
▁ingredient	-10.7694
▁Scottish	-10.7695
▁conclud	-10.7695
▁34	-10.7696
▁Again	-10.7707
coming	-10.7714
▁Coast	-10.7728
ip	-10.7728
ney	-10.7733
▁Ruth	-10.774
▁bare	-10.7743
▁privilege	-10.7745
▁quiet	-10.7745
▁edit	-10.7746
▁Sch	-10.775
end	-10.7753
▁wo	-10.7756
rew	-10.7762
▁AIDS	-10.7762
▁psycholog	-10.7763
lt	-10.7764
▁industri	-10.7765
▁inspiration	-10.7767
“	-10.7779
▁Buddha	-10.778
▁eggs	-10.778
ez	-10.779
▁singer	-10.7791
▁preferr	-10.7794
▁stored	-10.7801
▁interior	-10.7813
▁funny	-10.7814
▁Aristot	-10.7818
▁37	-10.7818
▁epidemic	-10.7831
▁relevant	-10.7831
▁monkey	-10.7831
▁animation	-10.7841
▁branche	-10.7844
▁landing	-10.7848
ene	-10.7851
▁drum	-10.7854
▁Sa	-10.7858
▁cutting	-10.7861
me	-10.7862
▁apartment	-10.787
▁bread	-10.7878
▁founder	-10.79
▁lecture	-10.7904
▁64	-10.7906
▁st	-10.7914
▁rat	-10.7914
▁kick	-10.7918
ov	-10.792
▁originat	-10.7921
▁enabl	-10.7932
▁pocket	-10.7935
▁Congo	-10.7936
▁characteriz	-10.7938
ap	-10.7942
▁177	-10.7942
▁separat	-10.7945
▁Miss	-10.795
▁celebrat	-10.796
▁Ta	-10.7963
▁sheet	-10.7964
£	-10.797
▁Microsoft	-10.797
▁trillion	-10.7974
▁estate	-10.7976
▁beer	-10.7981
▁pool	-10.7986
▁simultaneous	-10.7988
state	-10.7992
▁Cleve	-10.7993
▁youth	-10.7993
▁habit	-10.7995
▁demonstrate	-10.8
▁Colombia	-10.8001
▁emissions	-10.8011
▁2,000	-10.8015
▁Pres	-10.8018
▁prediction	-10.8019
▁recruit	-10.8023
▁Film	-10.8023
▁proud	-10.8023
▁rival	-10.8023
▁harder	-10.8024
hood	-10.8027
▁repeat	-10.8039
▁stuck	-10.8041
▁mayor	-10.8049
▁portray	-10.8052
▁verb	-10.8055
▁stronger	-10.8059
▁Last	-10.8059
va	-10.8068
▁Cambridge	-10.8076
▁seal	-10.8083
▁cure	-10.8088
▁calendar	-10.8094
▁Eric	-10.81
▁emergenc	-10.8108
▁icon	-10.8112
▁Carl	-10.8114
▁plac	-10.8115
▁Hindu	-10.8116
▁infect	-10.8116
▁Radio	-10.812
rtex	-10.8121
▁conquer	-10.8125
▁strategic	-10.8128
tra	-10.813
▁definite	-10.813
▁nest	-10.8133
▁exploration	-10.8134
▁ski	-10.8134
▁forever	-10.8135
▁assist	-10.8137
▁sad	-10.8153
▁Syria	-10.8159
▁Club	-10.8165
▁fraction	-10.8165
▁feedback	-10.8166
un	-10.8181
▁Unti	-10.8182
▁explicit	-10.8183
▁hurt	-10.8183
▁hir	-10.8188
ean	-10.8194
▁cry	-10.8196
▁draft	-10.8201
▁hypothesis	-10.8201
▁gravity	-10.8203
ence	-10.821
▁reli	-10.8214
editerranea	-10.8216
▁segment	-10.8219
▁suspect	-10.8219
war	-10.8225
BM	-10.8227
he	-10.823
▁retir	-10.823
▁weigh	-10.824
▁attribute	-10.824
▁Turke	-10.8241
▁composer	-10.8245
▁Joe	-10.8245
▁Scott	-10.825
▁Ed	-10.8262
▁purchas	-10.8263
▁integer	-10.8273
▁Pro	-10.8273
▁investigation	-10.8277
▁secondar	-10.8277
▁Se	-10.829
▁Anderson	-10.8291
▁finite	-10.8291
pa	-10.8296
atrix	-10.8305
”	-10.8309
▁sweet	-10.8309
▁economist	-10.8313
▁elder	-10.8313
▁achievement	-10.8318
▁isotope	-10.8327
▁38	-10.8329
▁intelligent	-10.8331
▁Atlant	-10.8334
▁comet	-10.8341
▁asteroid	-10.8346
▁guide	-10.8353
▁cult	-10.8353
▁considerabl	-10.8354
▁Real	-10.8356
▁ill	-10.8357
▁Public	-10.8361
▁dubb	-10.8365
▁Out	-10.8369
▁opera	-10.8373
fish	-10.8377
▁pig	-10.8381
▁corporate	-10.8382
▁Roger	-10.8383
▁afterward	-10.8384
▁visitor	-10.8392
▁calling	-10.8399
▁contest	-10.84
▁finance	-10.8402
half	-10.841
▁laboratory	-10.8411
▁wisdom	-10.8419
▁armour	-10.842
▁wake	-10.8421
▁click	-10.8438
▁celebrate	-10.8443
▁Yet	-10.8446
▁178	-10.8449
▁owner	-10.8454
▁vowel	-10.8455
▁brilliant	-10.846
▁Mu	-10.8466
▁ti	-10.8467
▁arrive	-10.8472
▁accus	-10.8472
▁criticiz	-10.8473
▁collaboration	-10.8476
▁pen	-10.8476
▁Su	-10.8484
▁barrier	-10.8492
j	-10.85
ging	-10.8504
▁Twitter	-10.8511
▁Little	-10.8511
▁tie	-10.8521
▁artistic	-10.8523
▁specializ	-10.8524
▁nerve	-10.853
▁Native	-10.8534
▁Water	-10.8548
▁Secretary	-10.8548
▁44	-10.8548
▁Town	-10.8549
▁179	-10.8549
▁activist	-10.8555
▁Ten	-10.8566
▁technological	-10.8567
▁systematic	-10.8569
▁stands	-10.8576
▁vocal	-10.8584
▁prosper	-10.8585
▁mortality	-10.8587
▁Democratic	-10.8589
▁medication	-10.8604
▁voting	-10.8604
▁alumin	-10.8604
bury	-10.861
▁courts	-10.8619
▁Clinton	-10.8623
▁Ph	-10.8625
▁intention	-10.8636
▁notabl	-10.8638
▁intense	-10.8641
▁pleasure	-10.8645
▁Five	-10.8652
▁establishment	-10.8656
▁hell	-10.8657
▁Oxford	-10.866
▁Virginia	-10.8662
▁stranger	-10.8664
▁partners	-10.8665
▁99	-10.8674
▁accomplish	-10.8677
▁boundar	-10.8677
▁rotation	-10.8678
▁concentrat	-10.8682
ir	-10.8686
▁explor	-10.8697
▁trigger	-10.8698
▁Ark	-10.8699
▁sponsor	-10.8701
▁cup	-10.8704
▁button	-10.8707
▁oh	-10.8708
ise	-10.8714
▁axis	-10.8716
▁Antarctic	-10.8716
▁exposure	-10.8717
▁dogs	-10.8726
▁tube	-10.8727
▁Convention	-10.8735
▁Celt	-10.8738
▁eliminat	-10.8748
erusal	-10.8749
▁smooth	-10.8754
▁Lewis	-10.8754
▁mainstream	-10.8755
▁Office	-10.8759
▁ethic	-10.876
▁highway	-10.8763
▁hopeful	-10.8771
▁Jack	-10.8773
▁Turing	-10.8773
▁outer	-10.8782
▁pounds	-10.8787
▁absence	-10.8792
▁Frankl	-10.8794
stan	-10.8798
▁peer	-10.88
▁distant	-10.8811
▁Development	-10.8811
▁documentar	-10.8812
▁Gulf	-10.8812
▁imagin	-10.8814
▁logo	-10.8814
work	-10.8818
▁48	-10.8823
▁h	-10.8823
▁raw	-10.8825
gar	-10.8826
▁Web	-10.8828
▁velocit	-10.883
▁tip	-10.8832
▁crack	-10.8842
▁separation	-10.8855
▁processor	-10.8864
▁synthesis	-10.8866
▁Librar	-10.8869
▁dinner	-10.8869
▁arise	-10.8873
▁tea	-10.8878
▁accompanie	-10.8879
▁economi	-10.8882
▁comed	-10.8882
▁anxiety	-10.8887
althcare	-10.8887
▁renam	-10.8889
ow	-10.8893
▁minority	-10.8899
ak	-10.8902
per	-10.8904
▁bias	-10.8904
▁guid	-10.891
rice	-10.8911
▁execut	-10.8917
▁expectation	-10.8921
ana	-10.8922
▁trait	-10.8923
▁scan	-10.8925
▁commitment	-10.8927
▁predator	-10.8929
▁Th	-10.894
▁milk	-10.8951
▁photos	-10.8953
ure	-10.8954
▁wing	-10.8954
▁airline	-10.8955
▁norm	-10.8956
▁alien	-10.8957
ight	-10.8958
▁elite	-10.8962
▁crucial	-10.8965
▁ear	-10.8976
▁Histor	-10.8979
▁programme	-10.898
▁inequalit	-10.8981
▁Cal	-10.8982
▁grandmother	-10.8987
▁Philip	-10.8988
▁comfortabl	-10.9002
▁destination	-10.9005
▁Open	-10.9006
im	-10.9017
▁Anglican	-10.9023
▁guilt	-10.9023
▁confuse	-10.9023
▁implication	-10.9024
▁battery	-10.9034
mer	-10.9037
▁momentum	-10.9038
▁flu	-10.9039
▁Give	-10.9041
▁terrorist	-10.9044
▁god	-10.9048
▁emerge	-10.9051
cellular	-10.9063
▁recall	-10.9064
▁95	-10.9072
▁valid	-10.9076
▁hide	-10.9076
▁cash	-10.9082
▁imperial	-10.9082
▁heads	-10.9083
▁statue	-10.9084
▁possess	-10.9086
▁competitive	-10.9087
▁tone	-10.9089
▁sharp	-10.9098
▁Bulgaria	-10.9098
▁fle	-10.91
▁harvest	-10.9101
▁grammar	-10.9101
▁Bang	-10.9109
▁tune	-10.9113
town	-10.9116
▁consum	-10.912
▁extinct	-10.9121
▁configuration	-10.9122
▁stroke	-10.9122
q	-10.9126
▁Batm	-10.9132
▁polar	-10.9135
orrow	-10.9136
▁sophisticat	-10.9137
▁participant	-10.9141
▁Austria	-10.9158
▁superior	-10.9161
▁sale	-10.9168
▁advocate	-10.9179
▁Federal	-10.9181
most	-10.9181
▁Communit	-10.919
▁conversion	-10.92
▁Standard	-10.92
▁limb	-10.9201
▁Computer	-10.9202
nmark	-10.9203
▁poll	-10.9205
▁burning	-10.9211
▁Azerbaijan	-10.9214
▁thick	-10.9215
▁Lee	-10.9215
gt	-10.9219
▁Festival	-10.922
field	-10.9226
▁rang	-10.9226
▁shoot	-10.9227
▁Field	-10.924
▁jurisdiction	-10.924
▁Free	-10.924
▁120	-10.924
▁breaking	-10.9243
▁admit	-10.9244
▁shoulder	-10.925
▁metaphor	-10.9259
▁vital	-10.926
▁curious	-10.926
▁Corporation	-10.926
▁synthetic	-10.926
▁wage	-10.9263
ong	-10.9268
▁Arthur	-10.9271
▁weird	-10.928
ised	-10.9287
▁shadow	-10.929
▁da	-10.9296
cus	-10.9296
▁Buddhist	-10.93
▁proceed	-10.93
▁solo	-10.9303
place	-10.9304
í	-10.9314
▁raid	-10.9332
ka	-10.9337
▁joke	-10.9341
▁linguistic	-10.9342
▁prefer	-10.9348
▁worri	-10.9348
▁Edi	-10.935
sterda	-10.9358
▁Alfred	-10.936
▁Reform	-10.936
nna	-10.9361
third	-10.9362
▁chip	-10.9364
▁app	-10.9371
▁capita	-10.9371
ag	-10.9374
▁CEO	-10.938
▁Audience	-10.938
▁stabilit	-10.9396
▁debut	-10.94
▁shooting	-10.94
▁chicken	-10.9401
▁Bridge	-10.9402
que	-10.9405
▁rose	-10.9405
mmel	-10.9406
▁printer	-10.9415
▁bits	-10.9417
▁offering	-10.9433
▁favour	-10.9436
▁retreat	-10.9441
▁scholar	-10.9442
▁graduat	-10.9443
ile	-10.9454
▁Education	-10.9461
▁Audi	-10.9461
▁championship	-10.9461
▁insist	-10.9481
▁Ages	-10.9481
▁horizontal	-10.9481
▁wider	-10.9483
F	-10.9484
power	-10.9484
▁observer	-10.9487
▁whales	-10.9489
▁loud	-10.9495
▁towns	-10.95
▁Cypr	-10.9502
▁initiat	-10.951
▁statistical	-10.9517
▁emphasis	-10.9522
▁Long	-10.9524
▁philosophical	-10.9524
▁dose	-10.9525
▁associate	-10.9529
▁swimm	-10.9531
▁District	-10.9543
▁transaction	-10.9543
▁whale	-10.9544
▁1900	-10.9546
▁39	-10.9548
▁grandfather	-10.9551
▁shapes	-10.9553
▁charit	-10.9557
▁compet	-10.956
▁Would	-10.9563
▁franchise	-10.9563
▁keyboard	-10.9565
▁Berkel	-10.9572
▁Bol	-10.9577
▁Athen	-10.9578
▁Florid	-10.9584
▁Brian	-10.9585
vill	-10.9586
▁Ethiopia	-10.9603
▁Marine	-10.9605
▁Jean	-10.9606
vi	-10.9607
▁Dominican	-10.9609
of	-10.9613
▁chamber	-10.9625
▁Stephen	-10.9625
▁pollution	-10.9626
▁instant	-10.9629
bo	-10.9631
▁43	-10.9632
▁IV	-10.9649
wa	-10.9657
▁attribut	-10.9658
▁awareness	-10.9662
▁dreams	-10.9664
ric	-10.9666
▁neutron	-10.9667
▁surrender	-10.9667
▁relief	-10.9667
▁Du	-10.9681
rd	-10.9684
▁puzzle	-10.9687
▁condom	-10.9688
▁infantry	-10.9689
▁Bel	-10.9708
▁immune	-10.9708
▁Ministr	-10.9708
▁supporter	-10.9714
▁ignor	-10.9714
▁longest	-10.9717
▁editor	-10.9717
ab	-10.9717
▁newly	-10.9719
▁Te	-10.972
▁sensitive	-10.972
ex	-10.9724
▁heal	-10.9728
▁suppress	-10.9729
▁jail	-10.9729
▁crown	-10.9729
▁specimen	-10.9729
▁inflation	-10.973
▁approache	-10.9736
▁constitute	-10.9738
▁organize	-10.9741
▁perceiv	-10.9745
▁laugh	-10.9746
▁vi	-10.9746
▁frequent	-10.9749
▁Hebrew	-10.975
▁guarantee	-10.975
▁Justice	-10.975
▁exile	-10.9751
▁initiative	-10.9752
▁Record	-10.9755
▁Come	-10.9767
▁astronomer	-10.9771
▁Governor	-10.9771
▁copyright	-10.9771
▁Carolina	-10.9772
▁Hum	-10.9773
▁highlight	-10.9773
▁Liberal	-10.9773
▁Global	-10.9778
▁Chief	-10.9782
Channel	-10.9794
▁undergo	-10.98
cher	-10.9804
▁fighter	-10.9812
▁fascinating	-10.9812
▁beetle	-10.9813
▁municipalit	-10.9816
▁surgeon	-10.9816
▁mutual	-10.9816
▁Mean	-10.9819
▁ethical	-10.9823
▁treaty	-10.9825
▁arrival	-10.9831
▁Korea	-10.9833
▁amateur	-10.9834
▁nickname	-10.9834
▁scor	-10.9837
▁mile	-10.9848
mino	-10.9853
▁conclude	-10.9854
▁vegetable	-10.9855
▁cousin	-10.9855
▁Organization	-10.9855
▁Board	-10.9856
▁strand	-10.9857
▁partnership	-10.9857
▁dress	-10.986
di	-10.9861
▁adventure	-10.9864
▁batter	-10.987
▁danc	-10.9878
▁translate	-10.9883
▁Port	-10.9892
▁Bangladesh	-10.9895
▁confront	-10.9895
▁shut	-10.9898
▁chocolate	-10.9898
▁CPU	-10.9898
▁silence	-10.9898
▁membership	-10.9902
▁entry	-10.9908
▁Democrat	-10.9915
▁Nigeria	-10.9918
▁Newton	-10.9924
dium	-10.9926
▁par	-10.9927
▁farming	-10.9927
▁portrait	-10.9928
▁Ala	-10.9929
▁Chad	-10.9932
V	-10.9932
win	-10.9933
▁tear	-10.9935
▁skull	-10.9941
▁Road	-10.9941
▁twenty	-10.9941
▁orbital	-10.9943
▁execution	-10.9945
▁tag	-10.9951
▁receptor	-10.9962
▁guest	-10.9962
▁Operation	-10.9964
pe	-10.9976
▁lunch	-10.9983
▁Communist	-10.9988
▁restriction	-10.999
▁evolve	-11.0001
▁empower	-11.0003
▁55	-11.0005
▁migration	-11.0007
angular	-11.0007
▁dust	-11.0008
▁ma	-11.0009
▁600	-11.001
back	-11.0018
▁Inde	-11.0018
▁Third	-11.002
ett	-11.0022
▁thermal	-11.0025
▁sorr	-11.0026
▁marry	-11.0027
X	-11.0034
▁grid	-11.0035
▁grass	-11.0035
▁Building	-11.0037
▁payment	-11.0038
▁coat	-11.004
▁drain	-11.0048
▁routine	-11.0048
▁descendant	-11.0048
level	-11.0058
▁productive	-11.0068
▁holiday	-11.0069
▁reef	-11.0069
▁voter	-11.007
ropical	-11.0072
▁downtown	-11.0074
▁parliament	-11.0075
▁craft	-11.0077
▁5,000	-11.0077
▁logical	-11.0078
raising	-11.0082
▁preserve	-11.0086
▁tens	-11.0087
▁conquest	-11.0091
liv	-11.0095
▁Aust	-11.0097
▁agency	-11.01
ja	-11.0102
ke	-11.0103
▁MIT	-11.0112
▁Napoleon	-11.0112
▁shark	-11.0113
▁agenc	-11.0125
▁nurse	-11.0129
▁terminal	-11.013
▁rocks	-11.0131
▁PC	-11.0132
▁educat	-11.0134
−	-11.0134
▁underly	-11.0141
▁sin	-11.0149
▁assert	-11.0152
▁dictionar	-11.0156
▁negotiation	-11.0159
▁hat	-11.016
▁rebel	-11.0164
▁manual	-11.0166
point	-11.0166
▁restor	-11.0167
▁judgment	-11.0178
▁bike	-11.0179
▁nose	-11.0181
▁package	-11.0189
▁Tiger	-11.0201
▁bet	-11.0205
▁fee	-11.0211
▁Tim	-11.0212
▁fusion	-11.0221
▁Securit	-11.0222
▁innovative	-11.0222
▁lens	-11.0226
▁Balti	-11.0227
▁apple	-11.0232
ootball	-11.0233
▁inventor	-11.0242
▁Square	-11.0244
▁compact	-11.0244
▁silk	-11.0244
▁tight	-11.0249
▁meaningful	-11.025
▁Eugen	-11.025
▁crossing	-11.0257
▁creativ	-11.0258
▁folk	-11.0265
sea	-11.0268
▁cord	-11.0268
con	-11.0279
▁Pr	-11.0284
▁Number	-11.0288
▁designat	-11.0288
▁mystery	-11.0288
▁Kent	-11.0292
▁doors	-11.0292
▁bann	-11.0293
▁Wi	-11.0293
▁divine	-11.0295
▁partial	-11.0297
▁descend	-11.0297
▁presentation	-11.0298
▁altitude	-11.0303
▁laser	-11.0311
▁prey	-11.0315
▁teenager	-11.0317
▁alleged	-11.0318
▁dialogue	-11.0332
▁Juda	-11.0334
▁Golden	-11.0337
▁Ha	-11.0345
▁hum	-11.0353
▁Kenya	-11.0354
▁joy	-11.0354
SA	-11.0357
▁entitle	-11.0358
▁stadium	-11.0358
tech	-11.0376
OS	-11.0376
▁authentic	-11.0377
▁hormone	-11.0377
▁ancestr	-11.0377
▁criteri	-11.0377
▁index	-11.0377
▁Childre	-11.038
▁personalit	-11.039
burgh	-11.0397
▁nitrogen	-11.0399
▁unemploy	-11.0399
▁Donald	-11.04
▁demonstration	-11.0406
▁Ki	-11.0407
▁3,000	-11.0409
▁shoes	-11.0411
▁arrang	-11.0417
sh	-11.0417
ide	-11.0417
há	-11.0418
▁constitutional	-11.0421
▁drove	-11.0421
▁inevitabl	-11.0421
▁jazz	-11.0421
▁accessibl	-11.0425
▁meal	-11.0434
▁inhabit	-11.0443
▁heaven	-11.0444
▁chloroplast	-11.0444
▁pole	-11.0445
▁Ari	-11.045
▁prayer	-11.0457
▁confiden	-11.0462
▁Elizabeth	-11.0464
lic	-11.0466
▁shore	-11.0471
▁hence	-11.048
▁alliance	-11.0482
house	-11.0484
▁resign	-11.0486
▁unexpected	-11.0489
▁balloon	-11.0489
▁transmitt	-11.0489
▁microbe	-11.0492
▁replacement	-11.0493
ccurac	-11.0511
▁piano	-11.0511
▁spark	-11.0511
▁stack	-11.0511
▁pregnan	-11.0512
▁borrow	-11.0526
long	-11.0528
▁embrace	-11.0529
▁Bosnia	-11.0535
▁punishment	-11.0535
▁rocket	-11.0543
▁phenomena	-11.0547
▁Baptist	-11.0548
▁gods	-11.0551
▁ray	-11.0552
▁observe	-11.0553
rose	-11.0553
adelphia	-11.0556
▁syndrome	-11.0557
▁struggl	-11.0557
▁Obama	-11.0558
▁preparation	-11.0559
▁extinction	-11.0562
▁possession	-11.0562
ied	-11.0562
▁forgot	-11.0563
▁Wood	-11.0565
▁Cold	-11.0568
▁hang	-11.0571
eign	-11.0577
▁distinctive	-11.0582
▁Jim	-11.0604
▁rescue	-11.0612
nel	-11.0614
oven	-11.0614
▁birthday	-11.0619
▁cuisine	-11.0625
▁privacy	-11.0625
▁earthquake	-11.0625
▁permission	-11.0626
▁organisation	-11.0627
class	-11.0636
50	-11.0638
▁oxide	-11.0641
▁graphics	-11.0646
▁chimpanzee	-11.0648
▁Massac	-11.0649
▁Max	-11.0651
▁Hav	-11.0661
▁Cha	-11.0663
all	-11.0664
▁bees	-11.0664
▁Home	-11.0668
▁cinema	-11.0671
▁implie	-11.0671
▁Ka	-11.0672
▁li	-11.0679
▁optical	-11.0685
▁infant	-11.0692
▁operational	-11.0692
▁vacuum	-11.0694
▁Daniel	-11.0694
▁Polic	-11.0697
▁Conservative	-11.0702
▁ongoing	-11.0704
▁computation	-11.0715
ik	-11.0715
▁scatter	-11.0717
▁predominant	-11.0719
bama	-11.0719
▁Brazilian	-11.072
▁dual	-11.0723
▁sacrifice	-11.0724
▁Bat	-11.0724
▁Mike	-11.0725
▁Show	-11.0725
▁None	-11.0725
von	-11.0727
▁feeding	-11.0733
▁adjust	-11.0738
▁coordinat	-11.0738
▁dismiss	-11.074
▁tournament	-11.0741
▁strain	-11.0742
▁Sara	-11.075
▁Land	-11.075
▁Van	-11.0756
▁Gi	-11.0761
▁cattle	-11.0763
▁signature	-11.0763
▁Santa	-11.0767
▁legacy	-11.0769
▁pronounc	-11.077
▁starr	-11.078
▁knee	-11.0785
▁Belgi	-11.0785
▁ruling	-11.0786
▁spacecraft	-11.0788
▁lyric	-11.0788
▁Pan	-11.0788
▁engagement	-11.079
▁Allen	-11.079
▁boundary	-11.0793
tts	-11.0799
▁monaster	-11.0809
▁ruin	-11.0809
▁modification	-11.0809
▁neck	-11.0809
▁41	-11.081
▁clinic	-11.0818
BC	-11.0825
▁Window	-11.0833
▁password	-11.0833
▁coalition	-11.0833
▁gase	-11.084
▁pit	-11.0843
▁notation	-11.0849
▁52	-11.0851
down	-11.0852
▁rush	-11.0854
▁hub	-11.0856
▁monk	-11.0856
▁metric	-11.0861
W	-11.0861
▁Tu	-11.0876
▁br	-11.0877
▁Kennedy	-11.088
▁mice	-11.0889
▁Corps	-11.0892
gie	-11.0897
▁mess	-11.0898
car	-11.0901
▁Ali	-11.0901
art	-11.0902
▁voices	-11.0904
▁mild	-11.0904
▁consume	-11.0904
▁shall	-11.0904
sance	-11.0905
▁Sh	-11.0906
▁51	-11.091
▁profile	-11.0923
▁realm	-11.0925
▁knock	-11.0926
▁cement	-11.0927
▁Economic	-11.0927
▁damag	-11.0929
▁guard	-11.0931
▁vice	-11.094
▁pour	-11.0945
▁neutral	-11.0945
▁fled	-11.095
▁inherent	-11.095
▁Conference	-11.095
▁Commodore	-11.095
▁skeleton	-11.0953
▁reactor	-11.0957
▁swim	-11.0962
▁bomber	-11.0962
▁robotic	-11.0973
▁aesthetic	-11.0974
▁approval	-11.0983
racing	-11.0983
▁partially	-11.0995
▁Ecuador	-11.0996
▁orange	-11.0998
▁drill	-11.1
▁diplomatic	-11.1
▁bio	-11.1001
▁digit	-11.1002
▁cur	-11.1013
▁steal	-11.1016
▁symmetr	-11.1017
▁axiom	-11.1021
▁primitive	-11.1021
▁passionate	-11.1024
▁hip	-11.1027
▁Gar	-11.1037
▁algebra	-11.104
port	-11.1043
▁Current	-11.1045
▁grave	-11.1045
▁mutation	-11.1046
▁lifestyle	-11.1047
▁nutrient	-11.1048
▁rap	-11.105
▁provision	-11.1058
▁Fin	-11.1067
▁suburb	-11.1067
▁Social	-11.1068
▁supplement	-11.1069
▁unclear	-11.1069
▁Alpha	-11.1069
▁sixth	-11.1077
tor	-11.1078
▁250	-11.1081
▁verse	-11.1086
▁microscope	-11.1092
▁charg	-11.1093
▁Design	-11.1093
U	-11.1094
▁vari	-11.111
▁knowing	-11.1111
▁clip	-11.1112
ang	-11.1115
▁toilet	-11.1118
▁behave	-11.1123
dom	-11.113
▁85	-11.1131
▁Talk	-11.1132
▁cosm	-11.1135
▁follower	-11.1135
ola	-11.1136
*	-11.1141
▁prompt	-11.1141
▁Mount	-11.1141
▁obes	-11.1141
▁psychologist	-11.1142
▁Moor	-11.1148
▁Defens	-11.1158
▁memori	-11.1158
CE	-11.1163
rctic	-11.1165
▁beside	-11.1171
▁ban	-11.1172
▁heritage	-11.1174
▁rhythm	-11.1179
▁diagnosi	-11.118
▁capabilities	-11.1181
▁exceed	-11.1186
▁Countr	-11.1197
▁1947	-11.1197
▁occupation	-11.1199
▁undern	-11.1206
▁Captain	-11.1213
▁Forest	-11.1229
▁lands	-11.1231
▁erect	-11.1233
▁steam	-11.1237
▁merchant	-11.1238
▁parameter	-11.124
▁Polan	-11.124
▁49	-11.125
▁busy	-11.125
▁Live	-11.1258
wide	-11.126
▁scenario	-11.1262
▁sacred	-11.1262
▁Portug	-11.1262
▁labour	-11.1263
tually	-11.1264
▁profession	-11.1266
▁Bar	-11.1266
▁Thanks	-11.1272
▁Line	-11.1278
▁Ancient	-11.1286
▁afternoon	-11.1286
▁luna	-11.1287
▁calci	-11.1287
▁bronze	-11.1288
▁Knight	-11.1288
▁mail	-11.1296
ating	-11.1305
▁deserve	-11.1311
▁auto	-11.1316
ame	-11.1318
▁wings	-11.1319
▁capabilit	-11.1322
▁anger	-11.1327
▁Rod	-11.1332
▁protocol	-11.1335
▁gray	-11.1336
▁temporar	-11.1336
▁covering	-11.1336
▁Special	-11.1338
▁deck	-11.1339
▁tale	-11.1341
BI	-11.1341
▁delivery	-11.1341
▁bind	-11.135
ua	-11.1357
▁captain	-11.136
▁suspend	-11.136
▁Stone	-11.1366
▁liver	-11.1371
▁Does	-11.1371
▁resemble	-11.1372
▁arrow	-11.1373
▁astronaut	-11.1384
▁equilibri	-11.1384
▁hybrid	-11.1384
▁mosquito	-11.1384
▁Railway	-11.1386
▁floating	-11.1395
▁illustrate	-11.14
▁facilitate	-11.1401
▁republic	-11.1407
▁Russel	-11.1409
▁gut	-11.1411
▁gate	-11.1412
▁pathway	-11.1419
▁limitation	-11.1422
▁significan	-11.1425
▁applie	-11.1429
aba	-11.143
▁stupid	-11.1434
▁offensive	-11.1434
▁loose	-11.1434
▁leak	-11.1434
ko	-11.1435
▁Could	-11.1437
ansa	-11.1445
stock	-11.1448
▁prepare	-11.1453
▁anniversar	-11.1453
▁homes	-11.1455
▁autonomous	-11.1458
▁Example	-11.1459
▁administer	-11.1459
▁Natural	-11.1459
▁kitchen	-11.1459
▁Hugh	-11.1461
▁enterprise	-11.1464
rine	-11.1467
▁armor	-11.147
▁algebraic	-11.1472
▁Ya	-11.1476
▁clothes	-11.148
▁Brussels	-11.1484
▁explosion	-11.1484
▁essence	-11.1484
▁Byzantine	-11.1484
▁architectural	-11.1484
▁rebellion	-11.1488
▁beach	-11.1488
▁Clark	-11.1489
▁peaceful	-11.1493
▁ignore	-11.1495
unk	-11.1511
▁wireless	-11.1511
tenance	-11.1512
▁determin	-11.1512
▁ammoni	-11.1513
▁rear	-11.1514
▁golf	-11.1514
▁computational	-11.1517
lbert	-11.152
▁matche	-11.1526
▁prohibit	-11.1529
▁taxe	-11.1529
▁Bear	-11.1531
▁UN	-11.1531
▁behaviour	-11.1533
▁diagram	-11.1533
▁throne	-11.1533
CLU	-11.1534
▁Testament	-11.1534
▁Near	-11.1536
▁resolve	-11.1538
▁virtue	-11.154
▁47	-11.1543
▁cruiser	-11.1544
▁investigat	-11.1551
▁cardinal	-11.1559
▁Bush	-11.156
▁Light	-11.156
▁shorter	-11.1564
space	-11.1576
ung	-11.1577
▁replicat	-11.1577
▁priorit	-11.1579
▁adjacen	-11.1584
▁circular	-11.1584
▁gross	-11.1584
▁embedded	-11.1584
▁overcome	-11.1584
▁160	-11.1584
▁fascinat	-11.1585
▁Area	-11.1587
▁Har	-11.1588
▁smoke	-11.1592
▁propose	-11.1604
,500	-11.1606
▁consonant	-11.1609
▁arbitrar	-11.161
▁publicly	-11.1614
▁twin	-11.1621
▁racial	-11.1621
▁Che	-11.1624
▁Da	-11.1624
atre	-11.1624
stone	-11.163
▁decreas	-11.1631
▁ticket	-11.1634
▁assistan	-11.1635
▁sh	-11.1644
cal	-11.1651
▁anchor	-11.1659
▁Abraham	-11.1659
▁cyber	-11.166
▁mis	-11.1662
▁orchestra	-11.1663
▁informal	-11.1666
▁elaborate	-11.1666
▁Col	-11.1672
huse	-11.1678
western	-11.1679
▁descen	-11.168
▁ideolog	-11.1684
▁silent	-11.1685
▁46	-11.1686
▁engag	-11.1691
witzer	-11.1698
▁Mc	-11.17
▁restore	-11.1705
▁Tony	-11.171
▁Manhattan	-11.171
▁DJ	-11.1712
▁Mass	-11.1713
onic	-11.1721
▁Sp	-11.1721
ester	-11.1724
itler	-11.1725
▁semi	-11.1726
▁warning	-11.1734
▁exhaust	-11.1736
▁Hospital	-11.1736
▁Swedish	-11.1736
▁subset	-11.1736
▁crush	-11.1737
▁Alli	-11.1742
▁Ea	-11.1749
▁hill	-11.1753
▁deliberate	-11.1761
▁biologist	-11.1764
▁render	-11.1764
▁strengthen	-11.1772
lin	-11.1776
play	-11.1782
og	-11.1783
▁hol	-11.1785
▁Next	-11.1787
▁penalt	-11.1787
▁illusion	-11.1787
▁proton	-11.179
▁Dead	-11.1792
▁indirect	-11.1793
pp	-11.1794
▁evening	-11.1797
▁owners	-11.1801
▁promotion	-11.1802
▁investor	-11.1805
▁Bot	-11.1808
▁comprise	-11.1809
▁charter	-11.181
▁boom	-11.181
▁convey	-11.1813
▁ultra	-11.1814
▁Coca	-11.1814
▁Mexican	-11.1818
IC	-11.1822
AF	-11.1828
▁YouTube	-11.1838
▁Eisen	-11.1838
▁lady	-11.1839
▁dirt	-11.184
▁proven	-11.184
▁175	-11.184
▁ruler	-11.1842
▁Augustin	-11.1842
-1	-11.1844
▁permitt	-11.1846
▁binding	-11.1846
▁50,000	-11.1851
▁imp	-11.1852
anda	-11.1852
▁fabric	-11.1854
▁magnet	-11.1856
▁Po	-11.1859
▁Argentin	-11.1859
▁Han	-11.1859
▁20,000	-11.186
▁iPhone	-11.1864
▁integral	-11.1868
wana	-11.1872
▁golden	-11.1875
ack	-11.1884
▁flash	-11.189
elecommunication	-11.189
▁Dublin	-11.189
bell	-11.1893
▁Pole	-11.1895
▁folks	-11.1897
▁celebration	-11.1897
▁AI	-11.1897
▁Hell	-11.1902
▁impos	-11.1911
▁abolish	-11.1916
▁venue	-11.1916
▁globe	-11.1916
▁Muhamm	-11.1916
▁Short	-11.1916
▁Pleas	-11.1916
▁genu	-11.1919
▁manufacture	-11.192
▁Ko	-11.1922
▁assistant	-11.1925
▁Khan	-11.1933
▁developer	-11.1934
▁Cross	-11.1937
gger	-11.1937
▁Ze	-11.1939
▁surveillance	-11.1942
▁greenhouse	-11.1943
▁retirement	-11.1943
▁simulation	-11.1944
▁tap	-11.1956
▁mate	-11.1956
▁trans	-11.1957
▁Tru	-11.196
▁stepp	-11.1968
▁Profess	-11.1968
▁Cameroon	-11.1968
▁Swiss	-11.1968
▁ecological	-11.1969
▁download	-11.1969
▁carrie	-11.197
▁handl	-11.1972
▁equipp	-11.1979
▁invad	-11.1981
▁wars	-11.1988
ul	-11.1993
▁aggressive	-11.1994
▁venture	-11.1995
▁admitted	-11.1995
▁Walter	-11.1999
▁burned	-11.2014
▁gear	-11.2021
▁cotton	-11.2021
▁abortion	-11.2022
▁Nature	-11.2022
▁Dave	-11.2025
▁automat	-11.2029
▁Rio	-11.2032
than	-11.2032
▁tri	-11.2033
▁Beck	-11.2039
▁motivation	-11.2039
▁thanks	-11.204
▁mm	-11.2041
▁Note	-11.2042
ank	-11.2046
▁Pennsylvania	-11.2047
▁helicopter	-11.2047
▁schedule	-11.2053
▁integration	-11.2058
▁beam	-11.206
▁worship	-11.2062
▁deni	-11.2064
▁Historical	-11.2071
▁Friday	-11.2073
▁acoustic	-11.2073
▁defect	-11.2073
▁obstacle	-11.2073
▁Jane	-11.2074
▁recycl	-11.2075
▁comfort	-11.2076
▁Director	-11.2081
▁Dartmo	-11.2083
▁paradigm	-11.2086
▁flie	-11.2089
▁Ever	-11.2089
▁controller	-11.2097
▁Aja	-11.2097
Qaeda	-11.21
▁revolt	-11.21
▁Bowl	-11.2102
▁Mont	-11.2115
▁creator	-11.2119
▁permit	-11.212
▁tendency	-11.2121
▁coup	-11.2124
▁Imperial	-11.2126
▁Trade	-11.2126
▁spider	-11.2126
▁Connecti	-11.2127
▁entrance	-11.2127
▁Rena	-11.2133
hu	-11.2135
▁54	-11.2136
▁invite	-11.2137
▁noun	-11.2138
▁issu	-11.2141
▁programmer	-11.2142
▁pursue	-11.2145
▁uncle	-11.2146
▁Post	-11.2147
▁analyz	-11.2152
▁Bern	-11.2153
▁happi	-11.2154
▁elevation	-11.2156
▁painter	-11.2158
▁rent	-11.2158
▁72	-11.2166
▁fingers	-11.2166
net	-11.2174
▁corn	-11.2174
▁Six	-11.2175
▁imag	-11.2178
▁Croatian	-11.2179
▁denote	-11.2181
▁defence	-11.2187
▁spectra	-11.2187
▁tribe	-11.2191
hower	-11.2195
▁smok	-11.2198
▁merg	-11.2198
▁renew	-11.2203
▁lo	-11.2205
▁Territor	-11.2206
▁miracle	-11.2206
▁genius	-11.2206
▁Vienn	-11.2208
▁Austrian	-11.221
▁Bron	-11.221
▁170	-11.2212
wealth	-11.2222
▁Ab	-11.2224
▁Media	-11.2227
▁Basic	-11.2228
berg	-11.2232
▁twelve	-11.2233
▁encrypt	-11.2233
▁publisher	-11.2235
▁Ray	-11.2236
▁Euclid	-11.2239
▁DC	-11.2242
▁Gates	-11.2243
▁productivit	-11.2256
▁abundant	-11.226
▁judicia	-11.226
▁Master	-11.2261
▁Pass	-11.2273
▁reliabl	-11.2279
▁earning	-11.2285
eastern	-11.2286
▁veteran	-11.2287
▁Tower	-11.2287
▁chaos	-11.2287
▁Shah	-11.2288
▁champion	-11.23
abilities	-11.2301
sky	-11.2303
che	-11.2304
▁Serbia	-11.2305
▁Bengal	-11.2309
▁Mississippi	-11.2314
▁Prior	-11.2314
▁Victoria	-11.2319
▁Medica	-11.2321
▁preced	-11.2327
speak	-11.2331
▁awesome	-11.2338
▁drama	-11.2339
▁stole	-11.2341
▁balls	-11.2344
▁Bulgarian	-11.2345
▁subtle	-11.2345
iego	-11.2349
▁eliminate	-11.2351
▁flexibl	-11.2353
▁Bruc	-11.2355
▁dancer	-11.2356
▁siege	-11.2368
▁demographic	-11.2368
▁prophet	-11.2368
▁Stanford	-11.2369
▁poster	-11.2373
▁progressive	-11.2373
▁Top	-11.2378
▁coverage	-11.2378
▁Israeli	-11.238
▁dai	-11.2391
▁falls	-11.2391
▁lock	-11.2395
▁Michigan	-11.2396
▁occupy	-11.2396
▁essay	-11.2396
▁angry	-11.2396
▁preference	-11.2396
▁Peace	-11.2396
▁Guard	-11.2397
▁Vari	-11.2399
heimer	-11.2403
▁Miller	-11.2405
▁smile	-11.2405
form	-11.2418
▁Turn	-11.2418
▁Nazi	-11.2422
▁archaeolog	-11.2422
▁encode	-11.2423
▁worn	-11.2423
▁chest	-11.2423
▁impression	-11.2427
▁differential	-11.2427
izing	-11.2431
▁playoff	-11.2432
▁attraction	-11.2442
ake	-11.245
▁Chian	-11.2451
▁Hey	-11.2452
▁outbreak	-11.2452
▁mood	-11.2453
▁Rica	-11.2457
▁rebuild	-11.246
▁personne	-11.2467
▁Si	-11.247
10	-11.2472
▁basin	-11.2473
▁emphasize	-11.2474
▁funeral	-11.2478
▁pitcher	-11.2485
▁denomination	-11.2487
▁Pi	-11.2501
▁Ru	-11.2503
▁Fame	-11.2508
BS	-11.2516
▁quit	-11.252
▁travell	-11.2522
▁Father	-11.2533
▁facult	-11.2533
▁fertil	-11.2536
▁presum	-11.2536
▁belt	-11.2548
▁Jupiter	-11.2561
▁interactive	-11.2565
▁behavioral	-11.2567
▁duty	-11.257
▁humor	-11.2588
▁patron	-11.2588
▁automobile	-11.2588
▁triangle	-11.2588
▁orientation	-11.259
▁j	-11.2592
▁installation	-11.2595
▁worm	-11.2597
▁Ri	-11.26
▁fastest	-11.2601
▁figur	-11.2613
▁Ge	-11.2613
▁neural	-11.2616
▁Recent	-11.2616
▁awful	-11.2617
▁Brunei	-11.2617
▁painful	-11.262
▁Chapl	-11.2627
ire	-11.263
▁hack	-11.2635
▁projection	-11.2637
▁chemist	-11.2639
▁Salvador	-11.2642
▁shelter	-11.2644
▁laptop	-11.2644
ni	-11.2644
▁Boeing	-11.2645
▁Guinea	-11.2645
▁canal	-11.2646
▁alternate	-11.2655
▁theatre	-11.2667
▁excess	-11.2671
▁fulfill	-11.2672
nfortunate	-11.2672
▁clever	-11.2672
▁leap	-11.2672
▁metropolitan	-11.2673
▁electromagnetic	-11.2674
▁Georgia	-11.2678
▁settler	-11.268
▁diagnos	-11.2687
▁detection	-11.2687
▁refuse	-11.2697
▁Play	-11.2699
▁Hol	-11.27
▁consensus	-11.27
tz	-11.2701
▁GPS	-11.2701
▁Tor	-11.2702
▁yester	-11.2703
▁fake	-11.2704
▁motivat	-11.2705
▁gland	-11.2711
roque	-11.2711
▁radiu	-11.2714
▁wash	-11.2718
▁suggestion	-11.2719
▁athlete	-11.2729
▁oxidati	-11.2729
▁00	-11.2729
ft	-11.2729
▁choos	-11.2731
▁tomb	-11.2738
AM	-11.274
▁cannon	-11.2742
▁Na	-11.2745
▁constraint	-11.2746
tory	-11.2753
▁Rose	-11.2754
▁Cair	-11.2755
▁Benjam	-11.2757
▁Amiga	-11.2757
▁immigration	-11.2757
▁analyze	-11.2758
fi	-11.2765
▁Mother	-11.2766
▁cultivat	-11.2783
▁pile	-11.2787
▁Korean	-11.2787
▁Power	-11.2793
▁incorporate	-11.2802
▁chronic	-11.2804
▁empath	-11.2806
▁Par	-11.2807
zona	-11.2809
▁Men	-11.281
▁precipitat	-11.2813
▁imprison	-11.2814
▁Angola	-11.2814
▁rainforest	-11.2814
▁textbook	-11.2814
▁intensit	-11.2821
▁duti	-11.2822
▁Easter	-11.2823
tadium	-11.2825
▁800	-11.2831
▁dive	-11.2835
▁situat	-11.2837
▁trie	-11.2837
polar	-11.2839
▁transplant	-11.2842
▁Business	-11.2842
▁pin	-11.2842
▁drone	-11.2843
▁readers	-11.2843
▁ears	-11.2843
▁overwhelming	-11.2844
▁romantic	-11.2848
▁Hungarian	-11.2851
▁Ann	-11.2859
▁moderate	-11.286
▁mytholog	-11.2865
▁reflection	-11.2867
▁Barcelon	-11.2871
▁Cornwall	-11.2871
▁polynomial	-11.2871
▁coefficient	-11.2871
▁Basque	-11.2871
▁Christopher	-11.2871
▁pr	-11.2874
▁desperate	-11.2875
▁symbolic	-11.2878
eb	-11.2889
▁noble	-11.2893
worth	-11.2895
▁Brother	-11.2895
▁collision	-11.2899
▁thumb	-11.2899
▁queen	-11.2899
▁interval	-11.2899
▁Wilson	-11.29
▁enhance	-11.29
▁pulse	-11.2901
▁Lion	-11.2905
▁algae	-11.2908
▁Hungar	-11.2908
▁Way	-11.2908
▁Alan	-11.2912
▁shame	-11.2913
▁Code	-11.2913
▁Ku	-11.2914
▁poison	-11.2916
▁Pat	-11.2916
▁monument	-11.2916
▁complain	-11.2923
▁appreciate	-11.2926
▁goddess	-11.2928
▁traged	-11.2928
▁mask	-11.2928
▁DVD	-11.2928
▁costume	-11.2931
▁lion	-11.2941
ix	-11.2942
▁USA	-11.2952
▁deficit	-11.2957
▁performer	-11.2962
RA	-11.2969
▁prepar	-11.2971
▁Main	-11.2976
▁survivor	-11.2982
cock	-11.2984
▁neuron	-11.2986
×	-11.2986
▁consent	-11.2986
▁plent	-11.2986
▁renewable	-11.299
▁sink	-11.299
▁remark	-11.2991
▁Engineer	-11.2991
▁mothers	-11.2992
ren	-11.2995
aide	-11.3002
▁Station	-11.301
▁Abu	-11.3012
▁Samuel	-11.3015
▁deforest	-11.3015
▁internet	-11.3015
▁Confederate	-11.3015
▁Low	-11.3016
▁fame	-11.3018
ogether	-11.3021
▁DH	-11.3021
▁divorce	-11.3024
▁windows	-11.3026
-2	-11.3028
foot	-11.3029
▁compromise	-11.3031
▁terror	-11.3038
kin	-11.3038
▁reconstruct	-11.3039
▁palace	-11.3044
▁combusti	-11.3044
ome	-11.3045
▁froze	-11.3048
▁Inter	-11.305
ept	-11.3052
▁revolutionar	-11.3057
▁continuously	-11.306
air	-11.306
▁fuse	-11.3062
unt	-11.3063
▁Khme	-11.3068
▁Bas	-11.3069
▁insert	-11.3069
▁Caesar	-11.3073
▁Aberdeen	-11.3073
▁Cayman	-11.3073
▁cocaine	-11.3073
▁illustration	-11.3076
▁assignment	-11.3077
▁Far	-11.3078
ersey	-11.3084
tro	-11.3089
SU	-11.309
▁uncertaint	-11.3093
▁Down	-11.3093
▁qualit	-11.3094
▁pot	-11.3097
▁bulk	-11.3102
▁plague	-11.3102
▁Girl	-11.3102
▁Brave	-11.3102
▁sunlight	-11.3103
▁galler	-11.3104
viation	-11.3104
und	-11.3105
▁suck	-11.3107
▁Ken	-11.311
▁slope	-11.311
▁swing	-11.3113
▁settle	-11.3114
▁excellen	-11.3127
▁disrupt	-11.3128
ilitary	-11.3129
▁Corn	-11.3131
▁immense	-11.3131
▁warrior	-11.3131
▁unsuccessful	-11.3131
▁Inc	-11.3131
abbage	-11.3132
▁baptism	-11.3133
▁friendship	-11.3137
▁intersection	-11.3138
br	-11.3138
▁cod	-11.3139
▁Williams	-11.3152
▁acknowledg	-11.3155
▁pregnanc	-11.316
▁pace	-11.316
▁minimal	-11.3161
icity	-11.3168
▁marker	-11.3174
mak	-11.3175
▁sp	-11.3179
▁relativ	-11.3179
ami	-11.318
▁Test	-11.3184
▁78	-11.3186
eum	-11.3188
nia	-11.3188
free	-11.3189
▁congregation	-11.319
▁confusion	-11.319
▁flourish	-11.3191
▁lane	-11.3195
▁56	-11.3206
▁Cooper	-11.3206
▁trail	-11.3207
▁triple	-11.321
▁rotat	-11.3211
▁scratch	-11.322
▁expense	-11.322
▁gravitational	-11.322
▁lit	-11.3221
book	-11.3222
▁sheep	-11.3223
▁ink	-11.3225
▁Gene	-11.3225
stable	-11.3236
▁Mel	-11.3236
▁Ford	-11.3239
▁spell	-11.324
▁Has	-11.3241
▁Abd	-11.3244
▁disability	-11.3247
▁naked	-11.325
▁punch	-11.3254
▁residence	-11.3259
hus	-11.3265
▁marks	-11.3267
set	-11.3267
▁Stan	-11.3269
▁vegetati	-11.3279
▁Saturn	-11.3279
▁basketball	-11.328
▁Letter	-11.3288
nce	-11.3294
▁fate	-11.3297
▁Beat	-11.3298
▁Large	-11.3302
▁consideration	-11.3307
▁hierarch	-11.3308
▁default	-11.3309
▁striking	-11.3309
broad	-11.331
▁fl	-11.3317
▁pursu	-11.3318
▁entrepreneur	-11.3318
▁Wallac	-11.332
▁passive	-11.3322
▁58	-11.3327
▁Command	-11.3329
▁grab	-11.3336
▁disagree	-11.3337
▁succession	-11.3339
▁98	-11.3339
▁Singapore	-11.3339
▁remainder	-11.334
ball	-11.3343
away	-11.3357
ople	-11.3357
▁Along	-11.336
▁photographer	-11.3361
▁176	-11.3369
▁Language	-11.3369
▁barrel	-11.3371
roadway	-11.3371
▁Kong	-11.3371
force	-11.3374
mp	-11.3397
▁mat	-11.3398
▁scope	-11.34
▁Bernard	-11.34
▁Death	-11.3406
sium	-11.3406
▁videos	-11.341
▁Gregor	-11.3416
▁accord	-11.3416
▁hire	-11.3419
▁northeast	-11.3422
illa	-11.3429
▁Small	-11.343
▁leather	-11.343
▁alpha	-11.343
▁hook	-11.343
▁trapp	-11.3432
▁Report	-11.3438
▁1000	-11.3441
▁Fort	-11.3459
▁exponential	-11.3459
▁attain	-11.346
▁Freedom	-11.346
▁tongue	-11.3462
▁harmon	-11.3466
chi	-11.347
▁accelerat	-11.3485
▁animat	-11.3489
▁Virgin	-11.3492
▁Original	-11.3493
after	-11.3493
▁Davis	-11.3494
▁pharmaceutical	-11.3494
kind	-11.3495
▁module	-11.3497
▁zoom	-11.3498
▁boxe	-11.3506
mir	-11.3507
▁Cor	-11.3509
▁du	-11.3515
▁harsh	-11.3521
▁plural	-11.3521
▁Catalan	-11.3521
▁proclaim	-11.3525
▁recognis	-11.3526
▁fisher	-11.3531
DS	-11.3533
▁Jona	-11.3533
▁Ram	-11.3534
II	-11.3535
▁defining	-11.3539
▁Q	-11.3539
▁dissolv	-11.3539
▁Barry	-11.3541
J	-11.3542
▁Armenian	-11.3543
▁62	-11.3545
hip	-11.3549
▁Ban	-11.3549
▁consecutive	-11.3551
▁inscription	-11.3551
▁clay	-11.3551
▁legislature	-11.3551
▁intermediate	-11.3551
▁Order	-11.3552
▁terrain	-11.3552
▁700	-11.3552
▁gentlem	-11.3553
▁Night	-11.3553
▁catalyst	-11.3553
▁battleship	-11.3555
▁compris	-11.3556
▁Wil	-11.3561
▁clouds	-11.3571
▁Seven	-11.3574
ndustrial	-11.3577
▁twist	-11.3582
▁donor	-11.3583
▁mentor	-11.3585
ru	-11.359
▁attractive	-11.3591
▁Finn	-11.3594
fa	-11.3607
ency	-11.361
▁specifi	-11.3611
▁condemn	-11.3613
▁agenda	-11.3613
▁breakthrough	-11.3613
▁bend	-11.3614
▁Carne	-11.3614
▁Fair	-11.3615
seas	-11.362
▁4,000	-11.3624
▁nuclei	-11.3625
▁pray	-11.3627
▁Cuban	-11.3632
▁arc	-11.3633
gi	-11.3637
▁parking	-11.3638
▁pet	-11.3641
▁shopp	-11.3643
▁Esperant	-11.3644
▁Palestinian	-11.3644
▁predecessor	-11.3644
▁chips	-11.3646
▁Comic	-11.3647
▁kidney	-11.3647
▁Armenia	-11.3652
▁cap	-11.3656
▁nominat	-11.3658
▁communist	-11.3659
▁bombing	-11.3661
af	-11.3663
▁bat	-11.3669
▁courage	-11.3672
▁punish	-11.3673
▁Saturday	-11.3675
▁Digital	-11.3675
▁discrete	-11.3675
▁Garden	-11.3675
▁Anglo	-11.3675
▁blame	-11.3678
ou	-11.368
▁164	-11.368
▁span	-11.3683
hour	-11.3697
see	-11.3699
▁Jeff	-11.3706
▁satisfy	-11.3706
▁drought	-11.371
▁Centre	-11.371
▁acknowledge	-11.3712
light	-11.3715
▁gathering	-11.3717
▁implant	-11.3717
aseball	-11.3727
▁sw	-11.3729
▁municipal	-11.3733
▁Voice	-11.3737
▁Disney	-11.3737
▁53	-11.3738
▁66	-11.3745
▁Fund	-11.3751
▁globally	-11.376
▁euro	-11.376
▁BMW	-11.3768
▁abundance	-11.3768
▁arithmetic	-11.3768
▁honour	-11.3768
▁libert	-11.3768
▁pixel	-11.3768
▁trajector	-11.3768
▁pretend	-11.3768
▁Transport	-11.3768
▁endanger	-11.3769
▁stamp	-11.377
▁rubber	-11.3772
▁pose	-11.3774
▁spelling	-11.3779
▁trends	-11.3785
▁specialist	-11.3788
▁Sound	-11.3789
▁failing	-11.3789
▁Maria	-11.3792
▁SS	-11.3794
ified	-11.3795
▁Jordan	-11.3798
▁transparent	-11.3799
▁Network	-11.3799
▁cheat	-11.3799
▁radioactiv	-11.3801
top	-11.3802
▁stake	-11.3803
made	-11.3805
BA	-11.3812
▁Rand	-11.3813
born	-11.3813
▁Roll	-11.3815
▁entrepreneurs	-11.3817
▁Late	-11.3818
▁Vi	-11.382
▁atmospher	-11.382
▁inject	-11.3825
▁1929	-11.3825
▁En	-11.3829
▁curiosity	-11.3831
▁resort	-11.3831
▁boss	-11.3831
▁Tenn	-11.3832
▁aggregate	-11.3841
▁detector	-11.3845
▁Whe	-11.3847
▁fictional	-11.3849
▁anonymous	-11.3851
▁Charle	-11.3859
▁Balkan	-11.3862
▁undergraduate	-11.3863
▁pad	-11.3865
▁Agenc	-11.3869
▁Sab	-11.387
lf	-11.387
▁perceive	-11.387
▁breathe	-11.3872
▁PM	-11.3874
▁static	-11.3875
▁Jr	-11.3877
▁ought	-11.3892
▁egg	-11.3894
▁Taliban	-11.3894
▁fortunate	-11.3894
▁jewel	-11.3894
▁Chrys	-11.3894
latest	-11.3898
▁chains	-11.3899
▁passe	-11.39
ually	-11.3911
▁boring	-11.3918
▁convict	-11.3921
▁contrar	-11.3923
bul	-11.3924
▁ceiling	-11.3926
▁counterpart	-11.3926
▁Stock	-11.3926
▁retail	-11.3928
▁closing	-11.393
▁Mose	-11.3931
▁dignit	-11.3932
▁96	-11.3933
▁headline	-11.3934
▁alloy	-11.3935
▁uncertain	-11.3935
▁dig	-11.3936
▁arter	-11.3939
rah	-11.3939
▁Food	-11.394
▁faction	-11.394
▁Assyrian	-11.3943
▁dominate	-11.3943
Col	-11.3944
ronze	-11.3951
▁Bishop	-11.3958
▁radar	-11.3958
▁railroad	-11.3958
alai	-11.396
▁Cub	-11.3961
▁Brad	-11.3964
▁shap	-11.3973
ki	-11.3984
▁accent	-11.399
▁lawsuit	-11.399
▁Wow	-11.3991
▁bug	-11.3992
▁compell	-11.3993
▁precis	-11.3995
ut	-11.4
▁77	-11.4001
ud	-11.4002
▁terroris	-11.4005
ook	-11.4005
▁killer	-11.4008
▁disabl	-11.401
▁decimal	-11.4012
▁photon	-11.4016
osaurus	-11.4021
▁pyramid	-11.4022
▁recipe	-11.4022
▁Morris	-11.4022
▁periodic	-11.4029
▁Grant	-11.4032
source	-11.4037
tu	-11.4037
▁dishe	-11.4038
▁mapping	-11.405
▁modest	-11.4051
▁Yankee	-11.4054
▁biodivers	-11.4054
▁thread	-11.4054
▁Dalek	-11.4054
▁flaw	-11.4054
▁Polis	-11.4056
▁cylinder	-11.4065
▁antibod	-11.4065
NP	-11.4066
▁provider	-11.4067
▁transit	-11.4067
▁Ch	-11.4068
▁decorat	-11.4077
▁RNA	-11.4082
▁im	-11.4084
▁burden	-11.4086
▁flavor	-11.4086
▁petrol	-11.4086
▁burst	-11.4086
▁tribal	-11.4086
▁mad	-11.4087
▁alarm	-11.4087
▁hitting	-11.4089
▁div	-11.409
▁chess	-11.4091
abul	-11.4093
▁needle	-11.4095
▁Harr	-11.4095
▁Song	-11.4099
▁ha	-11.4109
▁Qu	-11.4111
▁devoted	-11.4112
▁Sho	-11.4113
▁autonom	-11.4116
▁Bermud	-11.4117
▁Centaur	-11.4118
▁secular	-11.4118
▁61	-11.4121
▁weekend	-11.4126
▁frontier	-11.4126
▁wheat	-11.4126
▁pipe	-11.4128
lsh	-11.4129
▁Palac	-11.413
▁flee	-11.4134
▁regulate	-11.4136
▁submitt	-11.4138
▁Germanic	-11.4139
▁horizon	-11.4151
▁calculus	-11.4151
▁medal	-11.4158
▁et	-11.4169
▁anatom	-11.4179
▁Typical	-11.4183
▁wavelength	-11.4184
▁frank	-11.4184
▁sensation	-11.4185
▁Often	-11.4187
▁decisive	-11.419
▁arsen	-11.4192
▁Shar	-11.4198
▁Plan	-11.4212
▁boil	-11.4216
▁defensive	-11.4216
▁Jacob	-11.4216
▁Stalin	-11.4216
▁artwork	-11.4219
▁dispers	-11.4219
▁restoration	-11.422
▁Soon	-11.4224
uck	-11.4228
▁desk	-11.4232
hen	-11.4233
▁firing	-11.4237
▁emergence	-11.4237
▁Aa	-11.4238
▁mold	-11.4238
▁parliamentar	-11.424
▁Buddhis	-11.4249
▁Choctaw	-11.4249
▁furniture	-11.4249
▁regiment	-11.425
▁Rather	-11.4256
▁deem	-11.4258
ick	-11.427
▁oral	-11.427
▁hoped	-11.4271
uth	-11.4275
▁pant	-11.4277
▁organis	-11.4279
▁Concord	-11.4282
▁Spear	-11.4282
▁Summer	-11.4282
▁diagnostic	-11.4283
▁Nick	-11.4287
▁excite	-11.4289
▁masse	-11.4289
▁Tell	-11.4297
bu	-11.4302
▁Carol	-11.4306
right	-11.4309
▁Haiti	-11.4313
▁prevail	-11.4315
▁Electric	-11.4315
▁Dar	-11.4316
▁palm	-11.4321
▁Cambodia	-11.4325
▁receiver	-11.4325
▁ambitio	-11.4326
TV	-11.4327
▁pink	-11.4329
▁practic	-11.4332
▁compiler	-11.4333
▁Rememb	-11.4333
ches	-11.4335
MT	-11.434
▁shirt	-11.434
▁Bali	-11.4342
▁Put	-11.4345
▁cheese	-11.4348
▁proposition	-11.4348
▁electrode	-11.4348
▁Machine	-11.4348
▁Fox	-11.435
▁hunger	-11.4352
▁Dayton	-11.4354
▁Op	-11.4355
▁Deb	-11.4361
▁bowl	-11.4361
world	-11.4362
▁casualt	-11.4365
spring	-11.4365
▁wedding	-11.4369
▁Traditional	-11.437
▁fortune	-11.4372
▁schedul	-11.4373
▁methan	-11.4374
▁Child	-11.4378
▁migrant	-11.4381
▁regain	-11.4381
▁1910	-11.4383
▁onward	-11.4383
▁acquire	-11.4384
▁cow	-11.4384
▁Dam	-11.4384
related	-11.4395
▁scann	-11.4405
▁magical	-11.4406
▁filmmaker	-11.4406
ari	-11.4406
20	-11.4409
▁Hous	-11.4414
▁distill	-11.4415
▁Cook	-11.4416
▁comparative	-11.4416
▁Belgian	-11.4417
▁polymer	-11.4419
▁selective	-11.442
ob	-11.4422
▁Ballar	-11.4423
qui	-11.4425
▁Adel	-11.4426
▁donat	-11.4428
▁ca	-11.4441
▁hunter	-11.4444
▁clue	-11.4448
▁eagle	-11.4448
▁intuition	-11.4448
▁relax	-11.4448
▁Movement	-11.4448
▁tribute	-11.4448
▁Crow	-11.4458
▁Tour	-11.4465
▁Welles	-11.4467
ax	-11.4469
▁astronomy	-11.4471
▁acupunctur	-11.4472
▁pill	-11.4475
▁saint	-11.4481
▁pursuit	-11.4482
▁dye	-11.4491
rop	-11.4496
▁Marshal	-11.4504
▁camps	-11.4505
▁proportional	-11.451
▁luxur	-11.4515
▁spontaneous	-11.4515
▁Initial	-11.4515
▁reproduction	-11.4516
▁powder	-11.4516
▁outdoor	-11.4518
hol	-11.4519
ional	-11.4519
gne	-11.4529
▁readi	-11.453
▁pav	-11.4537
ouri	-11.4537
▁southeast	-11.4544
some	-11.4547
▁elementary	-11.4549
▁riot	-11.4549
▁feather	-11.4549
▁horror	-11.4549
▁assess	-11.4558
CC	-11.4565
▁seventh	-11.4566
▁Br	-11.4569
iv	-11.4571
▁Direct	-11.4573
▁regulat	-11.4573
▁blend	-11.4573
▁merger	-11.4574
aday	-11.458
▁suppose	-11.4581
▁borough	-11.4581
▁paradox	-11.4582
▁leaf	-11.4583
▁neighbour	-11.4583
▁culminat	-11.4583
▁shield	-11.4583
▁specification	-11.4584
▁scholarship	-11.4584
▁legally	-11.4586
uk	-11.4586
▁Back	-11.4593
▁instrumental	-11.4596
▁confident	-11.4598
▁fatal	-11.4599
▁reporter	-11.4601
cott	-11.4608
▁volcan	-11.4612
▁dispos	-11.4617
▁contaminat	-11.4617
▁Schwarz	-11.4617
▁glacier	-11.4617
▁Douglas	-11.4617
▁cabinet	-11.4618
awa	-11.462
▁Warner	-11.4622
▁kings	-11.4624
▁Solar	-11.4627
▁genetically	-11.4627
▁isolation	-11.4628
▁Albania	-11.4629
▁reasonable	-11.4631
▁BG	-11.4631
▁Ga	-11.4646
▁Sal	-11.465
▁Winter	-11.4651
▁northwest	-11.4651
▁1890	-11.4652
▁Dick	-11.4654
▁dis	-11.4658
▁Devon	-11.4659
▁ranking	-11.4659
▁examin	-11.4664
▁presiden	-11.4666
▁decid	-11.4667
▁convenient	-11.4669
▁chas	-11.4674
▁garbage	-11.4685
▁frog	-11.4685
▁spectacular	-11.4685
▁Cat	-11.4687
▁cargo	-11.469
oid	-11.4695
▁cooperati	-11.4698
▁30,000	-11.4705
▁Woma	-11.4707
▁Southeast	-11.4707
▁ugl	-11.4718
uffalo	-11.4719
▁vocabular	-11.472
▁diabetes	-11.472
▁jersey	-11.472
▁correspondence	-11.472
▁Classical	-11.4727
venge	-11.4727
▁dish	-11.4727
-17	-11.473
▁fed	-11.4731
fast	-11.4733
▁Dela	-11.4741
▁tubes	-11.4742
▁Nel	-11.4744
▁lighter	-11.4748
▁cube	-11.4748
▁farmer	-11.4748
▁impress	-11.4748
▁Bee	-11.4749
▁Control	-11.4752
▁rivalr	-11.4754
▁competitor	-11.4754
▁discharge	-11.4754
▁Sudan	-11.4755
▁tactic	-11.4755
▁CIA	-11.4755
▁tropic	-11.4761
▁castle	-11.4765
▁Cap	-11.4769
▁op	-11.4775
▁graphic	-11.4775
anish	-11.4778
▁Saudi	-11.4789
▁fraud	-11.4789
▁robust	-11.4789
▁Sultan	-11.4789
▁fault	-11.4789
▁valve	-11.4789
▁Higgs	-11.4789
amaic	-11.4791
▁hid	-11.4792
▁tech	-11.48
▁Athena	-11.4804
▁Crown	-11.4812
ator	-11.4814
▁regulator	-11.4816
▁Nothing	-11.4821
▁acquisition	-11.4823
▁sulfur	-11.4824
▁horrible	-11.4826
▁servant	-11.4826
▁Iranian	-11.4826
ox	-11.4826
á	-11.4829
▁Band	-11.4831
▁feminist	-11.4834
▁Gro	-11.4845
▁belonging	-11.4845
▁integrate	-11.4846
▁Albanian	-11.4847
▁en	-11.4847
▁plug	-11.4852
▁suitabl	-11.4852
▁Fried	-11.4856
ich	-11.4856
▁Student	-11.4858
▁snake	-11.4858
▁Thai	-11.4858
▁identification	-11.4859
▁Anne	-11.4864
▁Get	-11.487
▁flame	-11.4874
▁injured	-11.4875
▁biograph	-11.4877
▁compatible	-11.4879
▁badly	-11.488
▁Spring	-11.488
▁Start	-11.488
▁Josh	-11.4888
ris	-11.489
▁86	-11.4891
▁gesture	-11.4893
▁rifle	-11.4893
▁uncomfortabl	-11.4893
▁smartphone	-11.4893
▁circulation	-11.4897
▁generic	-11.4897
sburg	-11.4897
▁cosmolog	-11.4898
▁Defen	-11.4905
ib	-11.4909
▁southwest	-11.4913
sraeli	-11.4915
▁1951	-11.4916
▁console	-11.4919
PL	-11.4925
▁incentives	-11.4927
lan	-11.4928
▁civic	-11.4928
▁homosexual	-11.4928
▁drift	-11.4928
▁footprint	-11.4928
rosion	-11.4933
▁sel	-11.494
▁Indonesia	-11.4941
ura	-11.4942
▁rotate	-11.4948
▁Bond	-11.4948
tooth	-11.495
PA	-11.4952
▁destroyer	-11.4953
wi	-11.4954
▁camel	-11.4957
▁Avenue	-11.4963
▁unprecedented	-11.4963
▁sediment	-11.4963
▁viral	-11.4964
▁Croy	-11.4964
▁1880	-11.4965
▁transmit	-11.4965
▁exit	-11.4965
▁populat	-11.4967
▁reconstruction	-11.4969
▁Anyway	-11.4971
▁appreciat	-11.4972
▁weaken	-11.4974
124	-11.4983
▁Plato	-11.4984
▁hydro	-11.4997
▁Confedera	-11.4998
owie	-11.4998
▁legitimate	-11.4999
▁foster	-11.4999
▁terrestrial	-11.5
▁2020	-11.5002
ensus	-11.5004
▁88	-11.5008
▁singular	-11.5018
▁Ni	-11.5021
han	-11.5021
▁Bak	-11.5024
▁warn	-11.5026
▁intuitive	-11.5034
▁submarine	-11.5034
▁cease	-11.5037
▁Mor	-11.5038
▁bitter	-11.5043
▁horses	-11.5044
▁enforce	-11.5044
▁Claudi	-11.5046
▁chloride	-11.5046
▁flip	-11.5049
together	-11.5049
cene	-11.5052
▁exclud	-11.5053
code	-11.5057
▁sensory	-11.5064
▁destin	-11.5067
eaten	-11.5068
▁eleven	-11.507
▁Nichol	-11.507
▁conspirac	-11.507
▁Mosco	-11.507
ff	-11.507
▁mysterious	-11.5071
▁transparency	-11.5071
FC	-11.5072
▁cop	-11.5074
▁Rule	-11.5075
▁upward	-11.5079
▁refin	-11.5083
▁40,000	-11.5084
▁corrupt	-11.5085
▁prince	-11.5086
▁Simon	-11.5097
▁explosive	-11.5106
▁cipher	-11.5106
▁boiling	-11.5107
▁Canal	-11.511
ronto	-11.5113
▁AOL	-11.5118
▁supervis	-11.5129
▁Hans	-11.5131
▁obsess	-11.5131
▁broader	-11.5135
▁Lama	-11.514
▁humanitarian	-11.5141
▁practitioner	-11.5141
▁dump	-11.5142
▁Federation	-11.5142
▁Kansa	-11.5143
▁cele	-11.5146
▁manipulate	-11.5153
▁Burk	-11.5155
doption	-11.5156
▁switched	-11.5157
▁dependenc	-11.5157
▁sword	-11.516
▁container	-11.5162
▁vapor	-11.517
magne	-11.517
▁Model	-11.5175
▁Front	-11.5177
▁pirate	-11.5177
▁voltage	-11.5178
▁entrop	-11.5178
▁Cyril	-11.5179
▁screening	-11.518
atic	-11.5201
▁locked	-11.5203
▁emission	-11.5204
▁Calvin	-11.5207
▁Illinois	-11.5213
▁diminish	-11.5213
▁brutal	-11.5213
▁Studie	-11.5214
▁augment	-11.5214
▁expectanc	-11.5214
▁optimistic	-11.5214
▁1860	-11.5215
erg	-11.5215
▁regret	-11.5216
▁bath	-11.5218
▁update	-11.5219
▁substitute	-11.5227
▁burial	-11.5229
European	-11.524
▁memorial	-11.524
ound	-11.5241
▁Damas	-11.5251
▁trap	-11.5251
▁Still	-11.5252
▁withdrawal	-11.5257
▁capitalist	-11.5258
▁sovereign	-11.5265
,	-11.5265
▁spray	-11.5271
▁Upp	-11.5274
zo	-11.5281
▁depress	-11.5284
▁penguin	-11.5286
▁Eve	-11.5287
▁genuine	-11.5287
▁pigment	-11.5287
▁probe	-11.5292
▁lone	-11.5292
▁jur	-11.5293
▁backwards	-11.5299
diff	-11.5301
▁anticipat	-11.5306
law	-11.5308
▁Cave	-11.531
uchy	-11.5312
▁Ghana	-11.5323
▁adequate	-11.5323
▁Wolf	-11.5323
▁ladies	-11.5323
▁residential	-11.5325
▁violation	-11.5326
▁59	-11.5326
boron	-11.5327
▁dragon	-11.5328
▁Francis	-11.5338
▁wondered	-11.5346
▁Marc	-11.535
MD	-11.5353
▁negotiat	-11.5353
▁73	-11.5356
▁heir	-11.5357
▁Medicine	-11.5359
▁Data	-11.536
▁Airline	-11.5362
▁pointed	-11.5363
▁texture	-11.5363
▁200,000	-11.5365
cos	-11.5379
▁tired	-11.5383
▁ab	-11.5384
▁eighth	-11.5385
▁commun	-11.5385
▁rape	-11.539
▁Ah	-11.5391
▁prospect	-11.5396
▁Leonard	-11.5396
▁Veni	-11.5397
▁mandate	-11.5398
▁withdraw	-11.5407
▁internationally	-11.5411
▁unifi	-11.5413
▁autobiograph	-11.5413
▁affiliate	-11.5418
▁68	-11.5418
▁Manch	-11.5423
▁canon	-11.5432
▁trauma	-11.5432
▁Agricultur	-11.5433
▁Castle	-11.5433
▁annex	-11.5433
▁spatial	-11.5433
▁admir	-11.5437
aging	-11.544
▁165	-11.544
▁plasma	-11.5443
▁hanging	-11.5447
▁intensive	-11.5447
▁ag	-11.545
own	-11.5458
lit	-11.5464
▁realistic	-11.5464
▁log	-11.5465
▁utter	-11.5469
▁potato	-11.547
▁Dallas	-11.547
▁antenna	-11.547
▁NGO	-11.547
▁Lynch	-11.547
▁Er	-11.5472
▁Euro	-11.5475
▁revival	-11.5475
▁globalization	-11.5476
▁Journal	-11.5479
▁Fire	-11.548
▁rulers	-11.548
▁Whit	-11.548
▁welcome	-11.5482
▁successive	-11.5482
▁Ja	-11.5482
▁blog	-11.5488
▁bid	-11.5488
▁persist	-11.5489
▁exceptional	-11.55
oc	-11.5502
▁consult	-11.5505
▁utility	-11.5507
▁bankruptc	-11.5507
▁thirty	-11.5507
▁upset	-11.5509
▁slot	-11.5511
▁nomination	-11.5513
speed	-11.5514
▁Gra	-11.5516
can	-11.5521
▁darkness	-11.5522
▁brave	-11.5524
▁helpful	-11.5527
▁Bret	-11.5537
▁curriculum	-11.5544
▁fever	-11.5545
▁Andalusia	-11.5545
▁diesel	-11.5545
▁ecolog	-11.5545
▁57	-11.5547
▁Fall	-11.5547
▁comprehensive	-11.5548
▁chairman	-11.5548
▁mon	-11.5552
▁bin	-11.5555
▁Peru	-11.5556
▁spare	-11.5561
oh	-11.5565
▁carve	-11.5566
▁accommodate	-11.5567
▁escap	-11.5569
▁mal	-11.5572
▁archive	-11.5577
▁dri	-11.5578
▁tackle	-11.5584
▁shake	-11.5585
▁attendance	-11.5587
▁institute	-11.559
▁Point	-11.5591
▁seiz	-11.5592
▁6,000	-11.5592
▁bold	-11.5593
▁Kh	-11.5595
▁Nova	-11.56
ough	-11.5609
▁replicate	-11.5612
▁Labor	-11.5618
▁Sierra	-11.5619
▁artifact	-11.5619
▁disadvantage	-11.5619
▁fantasy	-11.5619
▁wise	-11.5619
▁adverse	-11.562
▁Nile	-11.5625
▁weakness	-11.5626
▁provinc	-11.563
▁bell	-11.563
ugh	-11.5634
▁ego	-11.5635
▁VI	-11.5637
▁sanit	-11.5637
▁bats	-11.5637
▁inhibit	-11.5643
▁MP	-11.5646
▁bullet	-11.565
▁investigate	-11.5653
▁Critic	-11.5657
▁Dragon	-11.5657
▁Peninsula	-11.5657
▁stomach	-11.5657
▁summit	-11.5658
▁missionar	-11.5658
▁humid	-11.5658
▁epic	-11.5658
▁commit	-11.566
▁Fas	-11.5661
▁assassination	-11.5661
▁Wild	-11.5663
▁appointment	-11.5666
▁employer	-11.5668
OL	-11.5668
▁align	-11.5675
▁fears	-11.5675
iana	-11.5678
▁tile	-11.5681
▁Region	-11.5688
▁Carbon	-11.5695
▁Motor	-11.5696
▁1870	-11.5696
▁endur	-11.5698
▁examination	-11.5698
▁diploma	-11.5699
▁designation	-11.57
▁frustrat	-11.5704
▁declaration	-11.5708
band	-11.5708
▁tolerance	-11.5718
▁demo	-11.5722
lmost	-11.5722
▁Bur	-11.5725
▁CE	-11.5728
▁intent	-11.5732
▁clergy	-11.5733
▁cream	-11.5733
▁mosque	-11.5733
▁larva	-11.5733
king	-11.5733
▁acute	-11.5734
▁Oak	-11.5735
▁Cool	-11.5743
▁licens	-11.5745
▁farms	-11.5752
▁Alp	-11.5754
MI	-11.5755
▁reproduce	-11.5757
▁Dav	-11.576
▁Stein	-11.5762
▁educate	-11.5764
ug	-11.5765
▁Va	-11.5766
▁shots	-11.5769
▁lamp	-11.5769
nformation	-11.5771
▁empirical	-11.5771
▁halt	-11.5772
▁End	-11.5772
▁Kev	-11.5774
▁indicator	-11.5783
▁tablet	-11.579
▁MS	-11.5798
▁till	-11.5799
omb	-11.5808
▁helmet	-11.581
▁bump	-11.581
▁Athenian	-11.5812
▁chord	-11.5816
▁winds	-11.5817
rot	-11.5819
▁activat	-11.5825
▁explorer	-11.5827
▁mature	-11.5827
ping	-11.5829
▁drag	-11.5831
▁pause	-11.5833
uff	-11.5837
▁mimic	-11.584
▁hills	-11.5844
▁Cowboy	-11.5848
▁Frederick	-11.5848
▁hungry	-11.5849
▁Kane	-11.5849
▁microscop	-11.585
tant	-11.5853
season	-11.5854
▁geological	-11.5856
▁geograph	-11.586
▁seeming	-11.5869
rick	-11.587
▁bead	-11.5871
bal	-11.5877
ü	-11.5882
▁Monte	-11.5883
▁kit	-11.5883
▁Gu	-11.5884
olic	-11.5884
▁temporari	-11.5885
▁numeral	-11.5886
▁Agripp	-11.5887
▁petition	-11.5887
▁precursor	-11.5887
▁consolidat	-11.5887
▁redesign	-11.5887
▁impressive	-11.5888
▁Lady	-11.5888
▁Dark	-11.589
▁equit	-11.5891
▁Beside	-11.5892
▁conceptual	-11.5894
▁vibration	-11.5897
craft	-11.5899
▁&#	-11.59
▁mud	-11.5901
mon	-11.5901
▁accidental	-11.5901
aking	-11.5905
▁steady	-11.5908
▁millenni	-11.591
▁boost	-11.5912
▁geographic	-11.5921
▁praise	-11.5921
▁63	-11.5922
▁goat	-11.5924
▁Ky	-11.5924
▁Ches	-11.5925
▁Temple	-11.5925
▁shrink	-11.5925
▁monster	-11.5926
▁Was	-11.5929
bar	-11.5935
▁conception	-11.5939
oud	-11.594
▁Barn	-11.5942
▁displac	-11.5945
▁Slav	-11.5946
▁Ti	-11.5947
▁fo	-11.5956
▁Steven	-11.5957
phrodi	-11.5964
▁latitude	-11.5964
▁homeless	-11.5972
▁navigation	-11.5972
▁embrac	-11.5972
▁keys	-11.598
▁93	-11.5983
▁Arabia	-11.5986
bath	-11.5986
▁mill	-11.5987
ime	-11.5993
ron	-11.5997
▁Cardinal	-11.6003
▁threshold	-11.6003
▁Diamond	-11.6003
▁sperm	-11.6003
▁squadron	-11.6003
ureau	-11.6004
▁elevat	-11.6005
▁obligation	-11.6006
▁kg	-11.6007
▁Ethiopian	-11.6007
▁cavit	-11.6008
▁Karl	-11.6008
▁97	-11.601
▁communicat	-11.6011
▁serial	-11.6013
▁168	-11.6014
jo	-11.6014
▁bombs	-11.6015
▁parasite	-11.6016
▁beating	-11.6027
▁socialist	-11.6027
pro	-11.6027
nforcement	-11.6033
▁Seattl	-11.6034
▁Norman	-11.6034
▁lineage	-11.6039
▁Chi	-11.6041
▁calculator	-11.6043
▁propagand	-11.6043
▁ridiculous	-11.6043
▁kiss	-11.6043
▁mindset	-11.6046
▁Bau	-11.6047
▁Job	-11.6048
▁duration	-11.6049
▁lesser	-11.6051
use	-11.6055
▁Ci	-11.6062
▁AL	-11.6064
iness	-11.6068
▁Af	-11.607
▁BAS	-11.6072
ague	-11.6077
▁Rum	-11.6079
Sahara	-11.6081
▁intimate	-11.6082
aux	-11.6082
▁astronomical	-11.6082
▁Article	-11.6082
rzego	-11.6082
▁Mormon	-11.6082
▁Abbe	-11.6085
▁hazard	-11.6092
▁originate	-11.6094
▁bull	-11.6102
▁standardiz	-11.6113
▁optimis	-11.6115
▁keeps	-11.6121
▁prestig	-11.6121
▁Consider	-11.6121
▁Sydney	-11.6121
▁crater	-11.6121
▁Snow	-11.6121
being	-11.6123
▁brick	-11.6124
▁Alex	-11.6125
larges	-11.6128
▁evident	-11.6133
mar	-11.6135
ase	-11.614
SD	-11.614
▁revis	-11.6145
▁concentrate	-11.6148
▁Wa	-11.6155
▁indoor	-11.6158
wing	-11.616
▁tragic	-11.6161
▁coyote	-11.6161
▁limestone	-11.6161
▁departure	-11.6161
▁Belize	-11.6162
▁battlefield	-11.6163
▁parish	-11.6163
▁Player	-11.6164
▁territorial	-11.6166
▁injection	-11.6167
▁qualifi	-11.617
▁angel	-11.6171
ó	-11.6174
▁merc	-11.6175
▁pos	-11.6177
80	-11.6181
▁relie	-11.6182
▁Pol	-11.6183
▁upgrade	-11.6193
▁Compa	-11.6194
▁bearing	-11.6197
▁Titan	-11.6198
profit	-11.6201
▁Shakespeare	-11.6201
▁Studio	-11.6201
▁Taiwan	-11.6201
▁enact	-11.6201
▁heavier	-11.6205
▁Baku	-11.6206
▁Laborator	-11.6206
vina	-11.6207
▁Fr	-11.6212
▁yeast	-11.6212
dus	-11.6213
▁rings	-11.6216
▁CP	-11.6216
▁Eritrea	-11.6218
▁Poi	-11.623
▁Jer	-11.6231
▁Goth	-11.6232
▁acre	-11.6237
▁glucose	-11.6241
▁glue	-11.6241
▁microphone	-11.6241
▁Local	-11.6241
▁grasp	-11.6242
▁premier	-11.6248
ellar	-11.6253
▁Authorit	-11.6254
▁reactiv	-11.6254
TP	-11.6257
▁dice	-11.6258
▁emitt	-11.6259
▁equator	-11.6272
▁AB	-11.6273
mont	-11.6276
▁discontinu	-11.6277
▁spite	-11.6278
▁geo	-11.6279
▁emigrat	-11.6281
▁bulb	-11.6281
▁grateful	-11.6281
▁Modul	-11.6281
▁decree	-11.6281
▁Matt	-11.6286
▁contradiction	-11.6286
▁commerc	-11.6287
hop	-11.629
▁aspiration	-11.6291
▁Yu	-11.6299
nny	-11.63
▁154	-11.6304
avier	-11.6308
▁numerical	-11.6312
▁gram	-11.6313
▁Agassi	-11.6321
▁drown	-11.6322
▁Universe	-11.6322
▁primate	-11.6322
▁amber	-11.6322
▁Milan	-11.6323
▁penetrat	-11.6326
▁incomplete	-11.6327
children	-11.633
▁Make	-11.6331
▁declare	-11.6333
▁grounds	-11.6333
idge	-11.6351
▁curl	-11.6351
▁secur	-11.6358
▁alkali	-11.6361
▁psychiatr	-11.6361
▁monopol	-11.6362
feld	-11.6362
▁Wayne	-11.6363
ole	-11.6364
box	-11.6366
▁pur	-11.6366
▁volcano	-11.6368
▁surpass	-11.6369
stage	-11.6373
▁rope	-11.638
▁battles	-11.6383
▁accumulat	-11.639
▁Norwegian	-11.6403
▁prevalent	-11.6403
▁harmful	-11.6404
▁workshop	-11.6404
▁silicon	-11.6407
▁cooling	-11.6408
▁reader	-11.641
▁rigid	-11.641
▁NP	-11.6413
▁ASC	-11.6413
▁Ash	-11.6421
▁sil	-11.6427
▁marking	-11.6428
▁migrat	-11.6431
▁float	-11.6438
▁Dioc	-11.6443
€	-11.6443
▁constituent	-11.6443
▁knife	-11.6443
▁Different	-11.6443
▁cathedral	-11.6445
meter	-11.6445
dos	-11.6446
▁shout	-11.645
clock	-11.6451
▁ward	-11.6455
▁interrupt	-11.6455
action	-11.6457
▁Highway	-11.6458
▁companion	-11.646
▁makers	-11.6461
▁Estonia	-11.6462
DI	-11.6466
▁Ce	-11.6476
▁condens	-11.6484
▁steep	-11.6484
▁friction	-11.6484
▁Consequen	-11.6485
▁seasonal	-11.6487
ttle	-11.649
▁Anthon	-11.649
▁cliff	-11.6496
▁polle	-11.6499
▁Less	-11.6499
▁correlation	-11.6502
▁Indo	-11.6502
▁clon	-11.6503
▁commentar	-11.6504
saw	-11.6513
▁Bud	-11.6521
ison	-11.6524
▁Wikipedia	-11.6526
▁mushroom	-11.6526
▁spiral	-11.6526
▁vacation	-11.6526
▁Hubb	-11.6526
▁unconscious	-11.6526
▁retina	-11.6527
▁Canter	-11.6528
▁dealer	-11.6529
▁manipulation	-11.653
90	-11.654
▁Case	-11.654
▁Ross	-11.6549
▁planetary	-11.655
▁Tri	-11.6551
▁jet	-11.6556
▁confin	-11.6559
▁navigate	-11.6563
▁monitoring	-11.6563
5,000	-11.6563
promising	-11.6563
▁NATO	-11.6567
▁Oregon	-11.6567
▁Plant	-11.6568
▁Production	-11.6569
▁ease	-11.657
erson	-11.6576
▁Syrian	-11.6582
▁91	-11.6585
▁resurrect	-11.6593
▁Mayor	-11.6596
▁horn	-11.6599
▁soap	-11.6601
▁depart	-11.6608
▁encouraging	-11.6608
▁Beij	-11.6608
▁garage	-11.6608
▁trunk	-11.6608
▁pride	-11.6609
dia	-11.6612
▁fragile	-11.6616
CO	-11.6618
▁soup	-11.6621
linear	-11.6621
▁71	-11.6624
▁depiction	-11.6625
▁counted	-11.6625
▁pound	-11.6626
▁Rea	-11.6629
▁com	-11.6629
▁inspiring	-11.6635
CM	-11.6639
▁signing	-11.6645
▁buffer	-11.665
▁cardiac	-11.665
▁uranium	-11.665
violet	-11.665
▁pronunciation	-11.665
▁Jefferson	-11.665
▁pupil	-11.665
▁ubiquitous	-11.665
▁intact	-11.665
▁flesh	-11.6651
▁dial	-11.6651
Beginning	-11.6653
▁collaborator	-11.6654
pox	-11.6658
▁Iron	-11.6658
▁albe	-11.6661
▁fur	-11.6664
party	-11.6664
▁Lar	-11.667
uke	-11.6671
▁width	-11.6675
▁examine	-11.668
rim	-11.6686
▁relat	-11.6686
▁Victorian	-11.6686
▁anthropolog	-11.669
Ā	-11.6692
▁Taylor	-11.6692
▁Universal	-11.6692
▁widow	-11.6692
▁antidepressant	-11.6692
▁Gaul	-11.6692
▁Philippine	-11.6693
ji	-11.6693
▁textile	-11.6694
▁pH	-11.6694
iate	-11.6695
▁174	-11.6698
▁starv	-11.67
▁deny	-11.6702
▁enhanc	-11.6708
▁topolog	-11.6708
▁bother	-11.6713
▁antiquit	-11.6718
▁dressed	-11.6719
▁Lan	-11.6723
▁ba	-11.6726
▁obsole	-11.6727
▁Pen	-11.6728
ndex	-11.6729
▁163	-11.6731
▁Lawrence	-11.6734
▁Palestine	-11.6734
▁precious	-11.6734
▁1850	-11.6736
▁Kid	-11.6738
▁blade	-11.6739
0	-11.674
▁blindness	-11.6741
ario	-11.6744
▁brigade	-11.6749
▁cooperat	-11.675
▁sovereignt	-11.6758
▁Card	-11.6759
itzer	-11.6761
▁carbonate	-11.6767
▁lett	-11.6768
▁reinforc	-11.6769
▁proxim	-11.677
▁rect	-11.6775
pit	-11.6775
▁modify	-11.6776
▁cue	-11.6778
▁multiplication	-11.6778
standing	-11.6789
▁indication	-11.6791
▁Baham	-11.6796
▁67	-11.6796
▁patch	-11.6802
▁Julian	-11.6812
▁Jan	-11.6812
▁contradict	-11.6814
▁embryo	-11.6818
▁Isaac	-11.6818
▁neglect	-11.6818
▁Com	-11.6819
▁Call	-11.682
▁composite	-11.682
quality	-11.6821
CP	-11.6821
▁activate	-11.6821
▁sketch	-11.6824
▁FM	-11.6824
▁conviction	-11.6825
▁List	-11.6827
▁entertain	-11.6836
▁clar	-11.6836
▁Jay	-11.6839
▁Program	-11.6847
▁Des	-11.6854
▁Eight	-11.6856
ury	-11.6856
▁mystic	-11.6857
velt	-11.6861
▁Symp	-11.6861
▁encoding	-11.6861
▁jaw	-11.6861
▁spill	-11.6861
▁Iceland	-11.6863
▁potas	-11.6863
▁revision	-11.6866
fer	-11.6867
▁pie	-11.6867
▁Aaron	-11.6867
▁tiger	-11.6867
▁acceleration	-11.6868
▁Regional	-11.6869
▁economical	-11.6869
chan	-11.6869
▁slice	-11.687
ea	-11.6874
▁Province	-11.6876
stein	-11.6884
isation	-11.6893
rad	-11.6893
▁melod	-11.6899
▁reache	-11.69
▁bay	-11.6902
▁cello	-11.6903
▁Britannic	-11.6904
▁Depressio	-11.6904
▁militia	-11.6904
▁screw	-11.6904
▁Bohemia	-11.6904
▁fierce	-11.6905
▁inverse	-11.6905
▁donation	-11.6906
▁AM	-11.6907
▁uprising	-11.6911
▁Desert	-11.6911
▁institutional	-11.6914
rank	-11.6916
log	-11.6917
▁retire	-11.6917
nergy	-11.6917
harma	-11.6923
▁Algeria	-11.6924
gom	-11.6925
▁Harris	-11.6929
ritage	-11.6931
▁inning	-11.6933
▁identit	-11.6937
▁preach	-11.6939
▁referendum	-11.6947
▁wheelchair	-11.6947
▁tuna	-11.6947
▁sequel	-11.6947
▁crude	-11.6947
▁collaborative	-11.6948
▁accelerate	-11.6949
▁vagina	-11.6953
▁Cathe	-11.6953
▁Robin	-11.6953
▁analogous	-11.6953
▁electora	-11.6954
▁92	-11.6956
▁inhibitor	-11.6958
▁innocent	-11.6961
▁advocat	-11.6963
▁Bach	-11.6969
har	-11.6982
▁87	-11.6982
▁exam	-11.6983
▁shower	-11.6983
▁nin	-11.6985
ater	-11.6987
▁absorpti	-11.699
▁collage	-11.699
▁conjunction	-11.699
▁voyage	-11.699
▁reproductive	-11.699
▁symphon	-11.6991
▁Bru	-11.6993
▁thrive	-11.6993
▁overlook	-11.6996
▁wrapp	-11.6997
▁geometric	-11.7001
dollar	-11.7001
white	-11.7001
▁torture	-11.7006
▁Cali	-11.7007
ucky	-11.7007
owa	-11.7008
▁persuade	-11.7009
onso	-11.701
iro	-11.7017
▁Use	-11.7018
▁secretar	-11.7024
▁pan	-11.7027
▁autumn	-11.7032
▁prosthetic	-11.7033
▁Communication	-11.7033
▁harbor	-11.7033
▁Spirit	-11.7033
▁interference	-11.7033
▁pipeline	-11.7034
▁generous	-11.7034
▁fence	-11.7035
▁updat	-11.7036
▁psycho	-11.7039
▁socially	-11.7041
▁Luther	-11.7041
ark	-11.7043
ylan	-11.7059
rate	-11.7061
▁bite	-11.7065
▁130	-11.7065
▁gang	-11.7068
▁Sue	-11.7071
▁Clear	-11.7077
▁dominance	-11.7077
▁dwarf	-11.7077
▁sweep	-11.7077
▁thorough	-11.7077
▁Parkinson	-11.7077
▁cruel	-11.7077
▁loyalt	-11.7078
▁Corona	-11.7081
▁dodo	-11.7086
▁recommendation	-11.7087
▁para	-11.7088
▁beneficia	-11.709
▁cute	-11.7092
ois	-11.7093
▁quest	-11.7102
ery	-11.711
▁mines	-11.7114
▁Mill	-11.7117
▁Cre	-11.7117
NES	-11.7118
tus	-11.7119
▁advent	-11.712
▁Representative	-11.712
▁depriv	-11.712
▁dawn	-11.712
▁eternal	-11.712
▁polio	-11.712
▁Brooklyn	-11.712
▁premise	-11.7121
▁ferment	-11.7121
▁1830	-11.7122
▁shin	-11.7123
az	-11.7133
▁lend	-11.7133
▁intrinsic	-11.7135
▁heated	-11.7137
pson	-11.7138
▁151	-11.7139
▁Rwanda	-11.7141
bacterial	-11.7148
▁drums	-11.7151
▁Had	-11.7155
▁ju	-11.7159
▁Sel	-11.716
▁Ptolem	-11.7164
▁torpedo	-11.7164
▁Uganda	-11.7164
▁ceramic	-11.7164
▁Phoenix	-11.7164
▁Wright	-11.7165
irce	-11.7166
▁speculation	-11.717
▁Pittsburg	-11.7171
▁meta	-11.7172
▁boot	-11.7173
▁Head	-11.7176
ev	-11.7179
▁antisemiti	-11.718
▁differentiat	-11.7185
▁162	-11.7188
▁bore	-11.7188
▁vulnerabilit	-11.7194
▁devastating	-11.7198
▁Hand	-11.7199
▁Belarus	-11.7207
▁slum	-11.7207
▁Certain	-11.7208
▁Picture	-11.7208
▁bathroom	-11.7208
▁Word	-11.7208
▁duck	-11.721
itu	-11.7213
math	-11.7218
chev	-11.7225
fold	-11.7227
▁geographical	-11.7241
▁manifest	-11.7244
▁resolv	-11.7245
rsenal	-11.7251
▁Subsequent	-11.7252
▁qualify	-11.7252
▁Bolivia	-11.7252
▁pigeon	-11.7252
▁ministr	-11.7252
▁Alfons	-11.7253
▁guideline	-11.7254
▁SI	-11.7255
▁Isle	-11.7256
▁Story	-11.7261
▁25,000	-11.7264
▁disco	-11.7265
▁2.	-11.7267
erry	-11.7269
hem	-11.7272
▁sampl	-11.7276
nta	-11.7277
▁ambition	-11.7283
avi	-11.7283
onald	-11.7287
▁conceiv	-11.7291
▁enroll	-11.7295
▁blank	-11.7296
▁urg	-11.7296
grad	-11.7297
▁sibling	-11.7297
▁expell	-11.7299
▁Husse	-11.73
▁emit	-11.7308
▁cycl	-11.7309
▁Mom	-11.7309
▁devis	-11.731
▁neuroscien	-11.7314
▁generator	-11.7316
▁oversee	-11.7318
▁compil	-11.7318
▁discriminati	-11.7319
▁Week	-11.7321
hou	-11.7321
▁sew	-11.7321
▁distribute	-11.7325
▁plea	-11.733
icero	-11.733
dministration	-11.7332
▁Yorker	-11.7336
▁lover	-11.7337
▁fool	-11.7341
▁jelly	-11.7341
▁prescription	-11.7341
▁revelation	-11.7341
▁nominal	-11.7341
▁Venus	-11.7341
▁recipient	-11.7342
▁justify	-11.7342
▁cholera	-11.7342
▁shallow	-11.7342
▁Orange	-11.7342
▁landmark	-11.7342
▁Milk	-11.7343
▁ballot	-11.7343
found	-11.7347
face	-11.7348
ock	-11.735
eur	-11.7351
▁beta	-11.7351
generation	-11.7353
▁ensu	-11.7356
▁166	-11.7358
rus	-11.7364
▁76	-11.7365
ual	-11.7365
ives	-11.7373
ade	-11.7374
▁sweat	-11.7377
▁endless	-11.7378
▁urge	-11.7381
▁Victor	-11.7384
▁Artemis	-11.7386
▁Venezuela	-11.7386
▁Floren	-11.7387
mi	-11.7388
▁atheist	-11.7394
▁Base	-11.7398
▁Merc	-11.74
▁tonne	-11.74
tention	-11.7402
▁incorrect	-11.7402
▁spine	-11.7402
▁Born	-11.7403
ward	-11.7404
▁vest	-11.741
▁relocat	-11.7419
▁Ana	-11.7422
▁Pa	-11.7425
▁Patric	-11.7425
▁Ol	-11.743
caffein	-11.7431
▁Falcon	-11.7431
▁Shanghai	-11.7431
▁maneuver	-11.7431
▁timber	-11.7431
▁telegraph	-11.7431
▁Linux	-11.7432
▁marble	-11.7432
▁approximation	-11.7432
▁Linnae	-11.7432
▁crap	-11.7432
▁hostile	-11.7433
▁circulat	-11.7435
▁evaluation	-11.7435
▁byte	-11.7444
▁Lind	-11.7463
dah	-11.7466
▁cancel	-11.7467
ilicon	-11.7475
▁Magazine	-11.7477
▁metabolism	-11.7477
▁shrimp	-11.7477
▁peasant	-11.7477
▁Monday	-11.7477
▁anthropologist	-11.7478
▁excessive	-11.7479
▁173	-11.7482
▁Dance	-11.7483
▁1800	-11.7484
SM	-11.7486
▁Memori	-11.7488
▁83	-11.7491
▁conductor	-11.7496
▁350	-11.7497
▁140	-11.75
lium	-11.7508
NS	-11.7514
ulli	-11.7515
▁impose	-11.7516
▁forbidd	-11.7516
ep	-11.7517
▁172	-11.7517
▁Archbishop	-11.7522
▁peninsula	-11.7522
▁axon	-11.7523
quatic	-11.7524
▁negotiate	-11.7524
SF	-11.7526
▁fitted	-11.7526
four	-11.7526
nya	-11.7531
▁Cheer	-11.7535
▁germ	-11.7538
▁catho	-11.7542
▁Lenin	-11.7542
▁voluntary	-11.7546
▁mar	-11.7547
ón	-11.7548
▁tricks	-11.755
▁compute	-11.7552
▁Dad	-11.7555
▁Dre	-11.7557
▁Dai	-11.7562
▁Emil	-11.7562
▁loyal	-11.7566
▁Hawaii	-11.7566
▁Guatemala	-11.7568
▁Should	-11.7568
▁fabulous	-11.7568
▁accompany	-11.7568
▁Charli	-11.7568
▁casino	-11.7568
▁syllable	-11.7568
▁Mandel	-11.7568
▁calm	-11.7568
▁Giant	-11.7569
▁Raven	-11.757
▁lifespan	-11.757
verse	-11.7574
vo	-11.7576
▁vein	-11.7578
▁emphasiz	-11.758
pped	-11.7581
▁immers	-11.7583
▁Hart	-11.7585
▁subjective	-11.7585
▁zoo	-11.7588
▁clone	-11.7593
bola	-11.7596
▁Aar	-11.7597
ode	-11.7598
▁prais	-11.7598
▁freez	-11.7602
▁Heart	-11.7603
▁Walk	-11.7604
elling	-11.7612
▁substrate	-11.7614
▁surplus	-11.7614
▁Steel	-11.7614
▁multiply	-11.7614
▁glow	-11.7614
▁devil	-11.7616
▁subsid	-11.7616
▁packag	-11.7616
onne	-11.7618
▁cabin	-11.7618
▁axe	-11.7621
▁Classic	-11.7621
▁nationalist	-11.7622
ides	-11.7622
▁accumulate	-11.7623
▁Minor	-11.7631
width	-11.7633
▁verbal	-11.7635
▁shortage	-11.7637
▁actress	-11.7642
▁leverage	-11.7643
CD	-11.7643
aged	-11.7645
ette	-11.7648
▁pathogen	-11.7651
witz	-11.7651
▁Bald	-11.7653
▁reside	-11.7655
iel	-11.7655
mb	-11.7658
▁z	-11.7659
▁Agreement	-11.766
▁Alternative	-11.766
▁absent	-11.766
▁Chapter	-11.766
▁Phillip	-11.766
uver	-11.7665
lock	-11.7666
▁stressed	-11.7668
ram	-11.7671
ell	-11.7672
▁layout	-11.7675
▁EM	-11.7675
▁Catalo	-11.7678
rbert	-11.7678
▁stimul	-11.7679
▁collaps	-11.7679
▁solub	-11.7684
▁rebuil	-11.7684
▁Convers	-11.7689
▁Northwest	-11.7692
▁irregular	-11.7693
▁900	-11.7694
▁chlorin	-11.7701
ue	-11.7701
▁evolv	-11.7702
▁cooperate	-11.7705
▁Admiral	-11.7706
▁Tanzania	-11.7706
▁ambassador	-11.7706
▁dopamine	-11.7706
▁scandal	-11.7706
▁banana	-11.7706
▁battalion	-11.7707
▁amendment	-11.7707
▁Lutheran	-11.7708
▁cake	-11.7709
▁disagreement	-11.7709
take	-11.7712
rl	-11.7715
▁twentieth	-11.7715
▁84	-11.7724
▁Powel	-11.7727
arrow	-11.7731
▁authoriz	-11.7738
fully	-11.7744
▁Sports	-11.7747
▁responsibilit	-11.775
▁violin	-11.7751
▁Equator	-11.7752
▁Watson	-11.7752
▁evacuat	-11.7752
▁Craig	-11.7753
▁dictatorship	-11.7753
▁Brook	-11.7754
▁defendant	-11.7754
▁trash	-11.7756
▁coastline	-11.7757
▁outward	-11.7765
▁senator	-11.7768
▁Intel	-11.7768
▁beaten	-11.7768
▁Mid	-11.7771
▁81	-11.7777
▁Nine	-11.778
▁assessment	-11.7784
▁induce	-11.7791
▁genocide	-11.7792
ister	-11.7794
▁rendering	-11.7794
▁distort	-11.7794
grade	-11.7796
▁Jen	-11.7797
▁Citizen	-11.7799
▁Ultimate	-11.7799
▁sensitivit	-11.7799
▁inclusive	-11.7799
▁Murray	-11.7799
▁calorie	-11.7799
▁soundtrack	-11.78
▁determinant	-11.78
▁breakfast	-11.78
▁sanction	-11.7801
▁Senator	-11.7807
▁induc	-11.7807
▁bleed	-11.7811
▁Independen	-11.7813
▁Homer	-11.7815
▁workplace	-11.7817
▁envelope	-11.7819
minute	-11.7821
▁poly	-11.7822
▁chemotherap	-11.7825
▁collaborat	-11.7826
▁Gord	-11.7826
▁Carlo	-11.7829
▁Press	-11.7829
▁161	-11.783
▁reviv	-11.7832
▁teenage	-11.7833
▁ROM	-11.7837
for	-11.7837
▁Basel	-11.7838
▁Za	-11.7839
▁Type	-11.7839
▁utiliz	-11.7841
uer	-11.7845
▁circumcis	-11.7846
▁Know	-11.7846
▁admission	-11.7847
▁disconnect	-11.7848
▁blast	-11.7848
▁assisted	-11.7849
▁pub	-11.785
▁Vanco	-11.7854
Y	-11.7867
▁ironic	-11.7868
athedral	-11.7875
▁Juan	-11.7878
▁termin	-11.7878
gula	-11.7884
▁IP	-11.7885
▁logg	-11.7893
liyah	-11.7893
▁awkward	-11.7893
▁unbelievabl	-11.7893
▁inclusion	-11.7893
▁stunt	-11.7894
▁beef	-11.7895
▁fox	-11.7895
▁cartoonist	-11.7896
▁Fuller	-11.7897
▁Johnny	-11.7897
▁problematic	-11.7899
▁damn	-11.7906
▁94	-11.7906
▁holder	-11.7908
▁meme	-11.7915
terior	-11.7915
▁Jimm	-11.7919
▁den	-11.7923
▁optic	-11.7924
▁Stra	-11.7925
▁Babylon	-11.7938
▁biblical	-11.7941
▁certificate	-11.7941
▁desktop	-11.7941
▁Monet	-11.7942
▁flexibilit	-11.7942
▁1840	-11.7942
▁Bronx	-11.7942
▁persecution	-11.7942
▁delight	-11.7943
▁Ex	-11.7944
▁Medal	-11.7944
▁deaf	-11.7944
ionic	-11.7944
▁Michel	-11.7945
▁efficac	-11.795
▁Babylonian	-11.7954
▁beans	-11.7954
▁tract	-11.7957
▁del	-11.7965
mony	-11.7967
fin	-11.7967
continent	-11.7968
▁89	-11.7975
▁ridge	-11.7978
▁overlap	-11.7979
▁Gate	-11.7982
▁Matthew	-11.7988
▁acclaim	-11.7988
▁thrust	-11.7988
▁Mitchell	-11.7988
▁subsidiar	-11.7988
▁purple	-11.7988
▁1,500	-11.7994
▁addiction	-11.7995
▁populariz	-11.7997
AC	-11.7998
▁Except	-11.8002
ration	-11.8011
low	-11.8011
▁Bavaria	-11.8014
▁rod	-11.8015
▁Min	-11.8021
▁Canto	-11.8025
▁overwhelm	-11.8032
▁Achille	-11.8032
▁hydrocarbon	-11.8036
▁tuberc	-11.8036
▁André	-11.8036
▁corridor	-11.8037
▁timing	-11.8037
▁Hotel	-11.8037
▁Market	-11.8038
▁Margar	-11.8038
▁execute	-11.8043
loved	-11.8047
▁Hope	-11.8048
ibn	-11.8058
▁MRI	-11.8062
▁Ball	-11.8064
▁Fe	-11.8065
▁thrill	-11.8068
EC	-11.8073
▁simplifie	-11.8073
▁Brun	-11.8076
▁yards	-11.8078
ulosi	-11.8084
▁Executive	-11.8084
▁cricket	-11.8084
▁expenditure	-11.8084
▁metabolic	-11.8084
▁microbial	-11.8084
▁overthrow	-11.8084
▁memoir	-11.8084
▁juice	-11.8084
▁drummer	-11.8085
▁surgical	-11.8085
hony	-11.8085
▁announcement	-11.8086
▁Fran	-11.8087
▁Train	-11.8087
aving	-11.8088
▁gel	-11.809
▁upload	-11.8091
▁complaint	-11.8092
▁browser	-11.8094
pend	-11.8095
▁sens	-11.8097
7,000	-11.8105
vil	-11.8106
▁vs	-11.8108
▁Side	-11.8109
DSM	-11.8111
▁Spee	-11.8112
▁lith	-11.8113
▁ensur	-11.8125
▁beache	-11.8132
▁cubic	-11.8132
▁Archimede	-11.8133
▁Orleans	-11.8133
▁remix	-11.8133
▁Place	-11.8133
▁Television	-11.8133
▁infra	-11.8133
▁supermarket	-11.8133
▁dilemma	-11.8133
▁vertebrate	-11.8133
▁knight	-11.8134
▁Laden	-11.8134
▁crust	-11.8135
▁hom	-11.814
act	-11.8142
▁translator	-11.8142
▁elegant	-11.8144
▁minus	-11.8146
makers	-11.8147
▁plantation	-11.8151
▁dear	-11.8157
▁storytell	-11.8163
▁Form	-11.8169
holm	-11.817
▁Poe	-11.8174
fu	-11.8174
ndee	-11.8176
▁VII	-11.8176
ö	-11.8178
▁integr	-11.818
▁peculiar	-11.8181
▁tweet	-11.8181
▁warehouse	-11.8181
▁athletic	-11.8181
▁escalat	-11.8181
▁pagan	-11.8181
▁steer	-11.8181
▁straightforward	-11.8181
▁magnificent	-11.8181
▁massacre	-11.8181
▁pillar	-11.8182
▁quantitative	-11.8182
▁Watt	-11.8183
▁beryl	-11.8185
▁stimulation	-11.8188
▁metre	-11.819
▁Prussian	-11.8197
▁cooperative	-11.8203
▁Viking	-11.8209
▁guards	-11.8228
▁ceas	-11.8229
▁Quebec	-11.823
▁transistor	-11.823
▁vitamin	-11.823
▁Spider	-11.823
▁macro	-11.823
▁Hitch	-11.8231
▁Drug	-11.8231
▁treasure	-11.8231
▁Bio	-11.8231
▁Marx	-11.8232
▁fluctuation	-11.8232
▁analyse	-11.8232
▁reception	-11.8232
▁Trust	-11.8236
hl	-11.8237
▁summar	-11.8244
▁Mission	-11.8244
▁subway	-11.8247
terol	-11.8251
▁AK	-11.826
▁fortress	-11.8264
are	-11.8265
▁determination	-11.8266
▁Honor	-11.8269
▁collector	-11.827
▁Balt	-11.827
▁highland	-11.8272
▁bang	-11.8274
▁drunk	-11.8276
▁reclaim	-11.8279
▁specify	-11.8279
▁Continent	-11.8279
▁rug	-11.8279
▁advertisement	-11.828
▁Olive	-11.8287
▁invitation	-11.829
▁fertilizer	-11.8292
▁60,000	-11.8294
▁speculat	-11.8296
FA	-11.83
▁dropping	-11.8301
▁hi	-11.8302
▁Class	-11.8306
▁cruise	-11.8309
▁Nan	-11.831
▁gamma	-11.831
room	-11.8313
RC	-11.8318
CS	-11.8319
▁Cultural	-11.8328
▁Gospel	-11.8328
▁honey	-11.8328
▁Java	-11.8328
▁debri	-11.833
▁diagnose	-11.833
▁bust	-11.8331
▁hyper	-11.8333
▁Gore	-11.8333
▁AA	-11.8335
▁reluctant	-11.8335
reek	-11.8338
▁illuminat	-11.834
nati	-11.835
▁Simpl	-11.8352
ski	-11.8353
zi	-11.8356
▁manipulat	-11.8356
▁viewing	-11.8357
▁Casa	-11.8363
▁analytical	-11.8364
▁79	-11.8366
▁tenth	-11.8369
iz	-11.837
▁Ada	-11.8372
▁outlet	-11.8372
▁lobby	-11.8377
60	-11.8377
▁Rhine	-11.8378
▁Reserve	-11.8378
▁embark	-11.8378
▁testimon	-11.8378
▁insufficient	-11.8378
▁fungi	-11.8379
▁Bi	-11.8381
▁jar	-11.8381
▁Mad	-11.8383
run	-11.8385
▁stimulate	-11.8385
burg	-11.8387
arch	-11.8401
▁trivial	-11.8406
government	-11.8409
▁popul	-11.8411
iki	-11.8418
▁attest	-11.842
▁dome	-11.8421
alen	-11.8426
▁sympath	-11.8427
▁congress	-11.8427
▁excuse	-11.8428
▁freak	-11.8428
▁Danub	-11.8428
▁anthem	-11.8428
▁panic	-11.8429
▁Christie	-11.8431
▁wool	-11.8431
▁offshor	-11.8432
ze	-11.8434
▁grandparent	-11.8436
70	-11.8439
▁financ	-11.8441
▁migrate	-11.8442
▁temperat	-11.8444
▁walks	-11.8445
▁imply	-11.8451
ju	-11.8452
screen	-11.8459
▁gam	-11.8459
▁hostilit	-11.8465
▁freed	-11.8468
Man	-11.8469
▁Alexi	-11.8472
▁Ukrain	-11.8476
▁Cl	-11.8477
▁injustice	-11.8477
▁Survey	-11.8477
▁tutor	-11.8478
▁wrist	-11.8478
▁Judge	-11.8478
▁peripheral	-11.848
▁Oil	-11.8483
IOS	-11.8484
een	-11.8484
▁Pasc	-11.8487
▁sang	-11.8489
▁dragg	-11.849
▁developmental	-11.8495
▁Brand	-11.8498
▁Daily	-11.8499
▁Hem	-11.8503
pine	-11.8505
▁lowland	-11.8518
tha	-11.852
▁necessit	-11.852
▁taxi	-11.852
ntertainment	-11.8522
▁Sant	-11.8523
▁attorney	-11.8528
▁faint	-11.8528
▁pedestrian	-11.8528
▁Oscar	-11.8528
▁forecast	-11.8528
▁Volta	-11.8528
▁famine	-11.8528
▁Twenty	-11.8528
▁monet	-11.8529
▁Panama	-11.853
▁lean	-11.8531
▁suburban	-11.8532
▁Litera	-11.8532
▁differentiate	-11.8534
▁se	-11.8534
nic	-11.8536
oriented	-11.854
▁ignoran	-11.8542
▁pl	-11.8546
▁scanner	-11.8552
▁ellipse	-11.856
▁sauce	-11.8564
TI	-11.8566
▁Independent	-11.8567
sex	-11.8573
▁conform	-11.8576
Baghdad	-11.8578
▁Djibouti	-11.8578
▁chiropract	-11.8578
▁constituenc	-11.8578
▁guerrilla	-11.8578
▁immortal	-11.8578
▁unveil	-11.8578
▁bundle	-11.8578
▁nutrition	-11.8579
▁Johann	-11.8581
▁penis	-11.8583
▁transcription	-11.8585
▁oppose	-11.8587
valu	-11.8587
▁sake	-11.8588
▁Basin	-11.8589
▁Fortun	-11.859
▁whil	-11.8593
▁ratifi	-11.8594
▁Cros	-11.8595
▁brass	-11.8597
▁shorten	-11.8597
bot	-11.8598
▁bored	-11.8598
bourn	-11.8599
▁Bir	-11.86
▁Antoni	-11.8606
▁Jo	-11.8614
▁personaliz	-11.8616
▁fracture	-11.8618
▁theologian	-11.8629
▁Dickens	-11.8629
▁packet	-11.863
▁NSA	-11.8631
▁slides	-11.8632
▁Flight	-11.8632
▁DEC	-11.8635
dental	-11.8639
▁Rick	-11.8639
▁formulation	-11.864
lam	-11.8641
tis	-11.8642
MA	-11.8646
▁Clement	-11.8646
▁contributor	-11.8647
▁upright	-11.8648
▁der	-11.865
nese	-11.8658
▁progression	-11.8664
▁shine	-11.8665
human	-11.8666
▁illustrat	-11.8666
▁diplomat	-11.8668
▁astonishing	-11.8672
icular	-11.8676
SC	-11.8677
vity	-11.8678
▁alchem	-11.8679
▁Affair	-11.868
▁ambiguit	-11.868
▁clarinet	-11.868
▁merit	-11.868
▁hint	-11.8681
▁Rob	-11.8682
▁alert	-11.8683
▁stance	-11.8684
▁Team	-11.8685
▁Beth	-11.8688
▁Greenland	-11.869
▁disabilit	-11.869
▁batt	-11.8693
▁satisfi	-11.8694
▁glad	-11.8694
▁bricks	-11.8696
▁cad	-11.8696
ending	-11.8698
var	-11.8699
laughter	-11.87
▁74	-11.8705
pr	-11.8706
▁82	-11.8717
▁Jenn	-11.8718
cost	-11.8719
▁Auto	-11.872
lves	-11.8723
▁intercept	-11.8724
▁unhapp	-11.8728
▁Armstrong	-11.8731
▁Eagle	-11.8731
▁Oriole	-11.8731
▁Patriot	-11.8731
▁contemplat	-11.8731
▁swallow	-11.8731
▁convex	-11.8731
▁slogan	-11.8731
▁neat	-11.8731
▁Double	-11.8731
▁Contra	-11.8733
▁manifestation	-11.8735
▁Luc	-11.8742
▁useless	-11.8746
▁celebrity	-11.8751
lliance	-11.8759
▁trader	-11.8763
▁Roma	-11.8773
lah	-11.8777
▁outline	-11.8777
Something	-11.8778
obi	-11.8779
▁counsel	-11.878
▁pest	-11.8781
▁proceeding	-11.8782
▁Cypriot	-11.8783
▁remnant	-11.8783
▁tattoo	-11.8783
▁Siberia	-11.8783
▁hollow	-11.8783
▁bypass	-11.8783
▁LED	-11.8784
▁Candid	-11.8784
▁resilience	-11.8786
▁solvent	-11.8788
ssex	-11.8788
▁candle	-11.8788
▁optimal	-11.8792
▁certifi	-11.8793
▁recreational	-11.8794
▁abstraction	-11.8798
era	-11.8799
erial	-11.8799
ore	-11.88
inu	-11.8805
mium	-11.881
▁jumped	-11.8813
▁Ger	-11.8814
▁freight	-11.8814
▁shoe	-11.8818
▁Alic	-11.8819
▁tide	-11.8819
motive	-11.882
▁minimize	-11.8821
▁laughing	-11.8822
▁obscure	-11.8823
ote	-11.8824
▁refuge	-11.8827
▁exot	-11.8828
▁10-	-11.883
▁thriv	-11.8831
▁triumph	-11.8834
▁Kelly	-11.8835
▁reinvent	-11.8835
▁Dream	-11.8835
▁font	-11.8835
▁Element	-11.8836
nomial	-11.8837
▁tactical	-11.8838
▁socio	-11.8839
▁Leo	-11.8841
▁assassinat	-11.8843
▁Kay	-11.8845
▁Dal	-11.8845
▁interfere	-11.8846
▁Hawk	-11.8848
▁typ	-11.8853
▁renown	-11.8853
ori	-11.8861
▁Libya	-11.8864
▁anim	-11.8871
ran	-11.8874
▁wir	-11.8875
▁Members	-11.8879
rbor	-11.8885
▁asphalt	-11.8887
▁bizarre	-11.8887
▁embass	-11.8887
▁cartridge	-11.8887
▁benzodiazepine	-11.8887
▁cheer	-11.8887
▁Financial	-11.8887
ras	-11.8887
▁terrifying	-11.8887
▁theorist	-11.8888
▁chole	-11.8888
▁rotor	-11.8888
▁Deep	-11.8889
kyo	-11.8889
▁fisc	-11.889
▁Malaysia	-11.889
▁abbreviation	-11.889
▁Ladi	-11.8891
▁Stewar	-11.8891
▁157	-11.8893
▁correction	-11.8897
▁subordinate	-11.89
▁tick	-11.8901
▁Mara	-11.8909
▁Political	-11.891
▁tram	-11.8912
▁aunt	-11.8913
▁screens	-11.8915
heart	-11.8926
▁glasse	-11.8929
▁Vice	-11.8933
cientific	-11.8934
▁calculating	-11.8939
▁turtle	-11.8939
▁kilogram	-11.8939
▁bedroom	-11.8939
▁toxin	-11.8941
▁Yang	-11.8941
▁FDA	-11.8941
▁salts	-11.8941
▁Rail	-11.8944
▁blam	-11.8945
▁collaborate	-11.895
▁sack	-11.895
▁harmonic	-11.8952
▁helium	-11.8958
▁Sub	-11.8963
▁Tale	-11.8969
▁believer	-11.8969
▁Saga	-11.8971
▁Hard	-11.8973
rat	-11.898
▁NL	-11.8982
▁Ac	-11.8982
▁theological	-11.8982
▁explode	-11.8985
ini	-11.8986
▁liturg	-11.8987
lihood	-11.8989
ntelligence	-11.8991
▁censor	-11.8991
▁Anatolia	-11.8992
▁fin	-11.8992
▁enrich	-11.8992
TC	-11.8993
▁semiconductor	-11.8993
▁immunit	-11.8994
▁treatise	-11.8994
▁unfold	-11.8995
▁Morgan	-11.8995
▁encompass	-11.8997
▁anarchist	-11.9002
▁Sri	-11.9002
ander	-11.9002
▁152	-11.9009
▁149	-11.9013
▁subtract	-11.9014
▁upside	-11.9017
▁Pu	-11.9018
▁Win	-11.9022
▁lap	-11.9026
ulf	-11.9026
▁mini	-11.9036
inus	-11.9037
▁sentiment	-11.9038
▁repli	-11.9039
eolith	-11.9044
ã	-11.9045
▁delegate	-11.9045
▁cervi	-11.9045
▁flank	-11.9045
▁tuning	-11.9045
▁Nike	-11.9045
▁reorganiz	-11.9046
▁vendor	-11.9046
▁occurrence	-11.9046
ES	-11.9046
▁cache	-11.9047
▁Safe	-11.9048
▁Grace	-11.9051
skri	-11.9054
▁Grow	-11.9056
▁runner	-11.9056
▁Cu	-11.9057
▁astrolog	-11.9072
range	-11.9073
elian	-11.9073
▁grip	-11.9083
bacc	-11.9088
▁objection	-11.9097
▁definitive	-11.9098
▁hypothetical	-11.9098
▁nephew	-11.9098
▁shaft	-11.9098
▁Watch	-11.9098
▁reservoir	-11.9098
▁Blood	-11.9098
▁clitoris	-11.9098
▁Nash	-11.9098
▁complication	-11.9099
▁scripture	-11.9099
▁brush	-11.9099
▁ideological	-11.91
▁Teach	-11.9101
▁bassist	-11.9104
▁Helen	-11.9104
▁warmer	-11.9105
bro	-11.9105
▁democrac	-11.9108
▁500,000	-11.911
▁matern	-11.911
▁outstanding	-11.9113
▁denial	-11.9113
▁Uni	-11.9115
▁extraction	-11.9116
▁Geographic	-11.9118
▁aqua	-11.912
▁complement	-11.9124
64	-11.9124
▁nuts	-11.9124
▁cancell	-11.9128
▁connectiv	-11.9128
▁deepest	-11.913
▁pope	-11.9134
▁filling	-11.9141
▁mapp	-11.9142
▁hypothes	-11.9142
▁bush	-11.9144
▁impair	-11.915
▁instinct	-11.915
▁Leban	-11.9151
▁ambiguous	-11.9151
▁impulse	-11.9151
▁oxytocin	-11.9151
▁thermodynamic	-11.9151
▁oxidiz	-11.9151
▁Druze	-11.9152
▁exert	-11.9152
ila	-11.9152
▁modul	-11.9152
▁disturbance	-11.9152
▁envision	-11.9152
▁evaluate	-11.9153
▁elevator	-11.9156
▁Work	-11.9156
▁compassionate	-11.9156
▁rally	-11.9158
dobe	-11.9159
pping	-11.9159
▁Somalia	-11.9162
ple	-11.9167
stream	-11.9178
▁Anna	-11.9182
hole	-11.9185
tern	-11.9189
▁addict	-11.9198
PP	-11.9202
▁convergen	-11.9202
▁Morocc	-11.9203
▁Zimbabwe	-11.9205
▁respirator	-11.9205
▁offense	-11.9205
▁microwave	-11.9205
▁salar	-11.9206
CA	-11.9206
▁infectious	-11.9206
▁ceremonial	-11.9208
▁CPC	-11.9208
▁Animal	-11.9209
▁advisor	-11.9211
gged	-11.9211
▁activation	-11.9212
▁tar	-11.9213
▁accusation	-11.9216
▁hardest	-11.922
▁Ib	-11.9222
▁Fl	-11.9222
▁Fres	-11.9224
tah	-11.9225
▁margin	-11.9227
▁AC	-11.9227
▁poisoning	-11.923
ctor	-11.9231
▁auction	-11.9234
▁hackers	-11.9234
▁Nu	-11.9235
▁editors	-11.9239
▁Santo	-11.924
del	-11.924
▁canonical	-11.9241
▁bacteri	-11.9242
▁bribe	-11.9244
defin	-11.9244
zero	-11.9248
▁simulate	-11.925
▁invade	-11.9251
▁grace	-11.9253
▁jam	-11.9254
astern	-11.9259
▁Amendment	-11.9259
▁Scientist	-11.9259
▁Solomon	-11.9259
▁Specific	-11.9259
▁enlighten	-11.9259
▁Vega	-11.9259
▁Barba	-11.9259
▁Chronicle	-11.926
▁Plain	-11.926
position	-11.926
▁su	-11.9261
▁beds	-11.9261
▁tenure	-11.9261
▁resin	-11.9266
▁Commander	-11.9274
▁Beyon	-11.9275
▁divergen	-11.9279
▁constrain	-11.928
five	-11.9281
▁Colon	-11.9282
▁HD	-11.9282
▁induct	-11.9283
ockey	-11.9287
▁racis	-11.9291
▁wishe	-11.9292
▁sequenc	-11.9295
cation	-11.9296
▁linguist	-11.9307
▁bra	-11.9308
▁Urban	-11.9313
▁jihad	-11.9313
▁supreme	-11.9313
ros	-11.9314
▁lethal	-11.9314
▁sandwich	-11.9314
▁caesium	-11.9314
▁rigorous	-11.9314
▁feast	-11.9314
▁Coke	-11.9315
▁NBC	-11.9316
▁Electronic	-11.9316
▁Ground	-11.9318
handed	-11.9326
her	-11.9326
▁continual	-11.9328
▁stimulat	-11.9331
▁dissolve	-11.9335
▁Moz	-11.934
▁peaks	-11.9341
▁scarce	-11.9352
gu	-11.9355
species	-11.9359
▁salv	-11.936
▁Burr	-11.9361
▁Reds	-11.9361
▁criticis	-11.9364
ala	-11.9365
▁schizophreni	-11.9366
▁Yellow	-11.9368
▁ghost	-11.9368
▁junior	-11.9368
▁parachute	-11.9368
▁chase	-11.9369
▁statute	-11.9369
▁nonprofit	-11.937
▁breakdown	-11.937
▁prevention	-11.937
▁marketplace	-11.9373
▁deployment	-11.9375
▁125	-11.9385
view	-11.9386
▁Sand	-11.9395
ennis	-11.9398
vy	-11.9402
▁mono	-11.9408
▁archer	-11.941
▁washing	-11.9421
▁suffix	-11.9423
▁endemic	-11.9423
▁reply	-11.9423
▁enclos	-11.9424
▁Ap	-11.9431
▁Comor	-11.9434
order	-11.9434
Fi	-11.9434
▁denot	-11.9435
▁parade	-11.9435
▁spinn	-11.9437
▁alternat	-11.9451
Q	-11.9456
▁matur	-11.9456
▁undertake	-11.9459
▁Europ	-11.9466
Saxon	-11.947
▁Lyn	-11.9472
optic	-11.9474
bed	-11.9475
▁Dean	-11.9475
▁Hamilton	-11.9478
▁resonance	-11.9478
▁tsunami	-11.9478
▁clause	-11.9478
▁Gandhi	-11.9478
▁conscript	-11.9479
▁Hopkin	-11.9479
▁Geoff	-11.9479
▁displacement	-11.9479
▁shuttle	-11.9479
▁focuse	-11.948
▁plateau	-11.948
▁Narrat	-11.9484
▁accomplishment	-11.9484
▁Apart	-11.9488
zinc	-11.9491
▁8,000	-11.9492
▁backup	-11.9493
▁causal	-11.9493
▁selfish	-11.9494
▁Sure	-11.9496
▁hatch	-11.9506
▁fires	-11.9508
▁rolled	-11.9515
▁scrap	-11.9517
anagement	-11.9519
ftware	-11.9521
▁Octavia	-11.9521
▁Commissioner	-11.9522
scent	-11.9526
▁energ	-11.9526
erek	-11.9528
▁spott	-11.953
osity	-11.9531
▁virgin	-11.9534
▁Homo	-11.9534
▁Zu	-11.9534
▁Tibetan	-11.9536
▁LM	-11.9538
▁adaptive	-11.9541
▁wolf	-11.9551
▁instabilit	-11.9557
DA	-11.9557
ular	-11.9559
▁Yal	-11.9561
▁Guy	-11.9561
att	-11.9562
▁advised	-11.9563
▁cows	-11.9567
▁discriminat	-11.957
rov	-11.957
▁merge	-11.957
▁violat	-11.9571
▁statu	-11.9573
▁Lt	-11.9575
▁realization	-11.9577
▁155	-11.9578
▁opt	-11.958
▁sometime	-11.9586
▁listener	-11.9588
▁traffick	-11.9588
▁Terr	-11.9589
▁teache	-11.9589
▁segregat	-11.959
▁spawn	-11.959
▁classify	-11.959
▁Fred	-11.959
▁Nathan	-11.959
▁Change	-11.9591
▁Half	-11.9591
▁PhD	-11.9592
▁incentive	-11.9592
▁void	-11.9593
▁Mohamm	-11.9596
oline	-11.9596
▁captiv	-11.9597
▁thinker	-11.9597
▁Historian	-11.9602
▁Confucian	-11.9602
▁Cur	-11.9605
▁Capital	-11.961
▁Burm	-11.9619
▁persuad	-11.9621
far	-11.9627
amma	-11.9628
misphere	-11.9629
è	-11.9629
▁entr	-11.9632
▁153	-11.9638
▁Nin	-11.9641
30	-11.9642
▁Express	-11.9645
▁Sala	-11.9645
▁Afrika	-11.9646
▁convincing	-11.9646
▁logarithm	-11.9646
▁Period	-11.9646
▁prevalence	-11.9646
▁prescrib	-11.9646
kara	-11.9646
▁Sahara	-11.9647
▁moralit	-11.9647
▁headache	-11.9648
▁DDT	-11.9648
▁substitution	-11.9649
▁soccer	-11.9649
▁overhead	-11.9649
▁canvas	-11.9649
▁Key	-11.965
▁Listen	-11.9651
▁Berber	-11.9651
▁supplier	-11.9651
▁homework	-11.9654
▁devastat	-11.9654
▁woke	-11.9657
▁dictator	-11.9658
▁heading	-11.9661
▁fanc	-11.9662
▁hemisphere	-11.9662
▁anarch	-11.9663
▁submit	-11.9669
▁Iraqi	-11.9673
▁SE	-11.9677
Z	-11.9683
base	-11.9689
▁wrap	-11.9695
piece	-11.9696
held	-11.9697
▁Spino	-11.9698
né	-11.9699
▁affirm	-11.9699
▁nano	-11.9699
▁Oklahoma	-11.9702
▁feminin	-11.9702
▁shareholder	-11.9702
▁Chamber	-11.9702
▁Emma	-11.9702
▁paralyz	-11.9702
▁Pearl	-11.9702
▁harness	-11.9702
▁partition	-11.9702
▁Gauss	-11.9703
▁Lisp	-11.9703
▁Tupper	-11.9703
Family	-11.9704
▁discard	-11.9705
▁Ginsb	-11.9706
▁NH	-11.9707
glo	-11.9708
▁slaughter	-11.9708
▁summon	-11.9709
▁decoration	-11.9714
▁OS	-11.9719
▁Colombian	-11.9719
▁facto	-11.9719
▁Stage	-11.9721
▁susceptib	-11.9722
▁ape	-11.9723
▁Medi	-11.9733
▁Bart	-11.9733
▁intrigu	-11.9734
▁Justin	-11.974
▁kin	-11.9745
ines	-11.9747
▁Antony	-11.975
eus	-11.9752
▁skelet	-11.9753
▁Quit	-11.9754
▁Cret	-11.9756
▁Confuci	-11.9757
▁endeavor	-11.9759
▁enlist	-11.9759
▁pandemic	-11.9759
▁premature	-11.9759
▁turbine	-11.9759
▁Kurosa	-11.9759
▁motif	-11.9759
▁fifteen	-11.9759
star	-11.976
▁amphibian	-11.976
▁mock	-11.9761
▁butter	-11.9761
▁topological	-11.9762
▁Nigerian	-11.9763
ku	-11.9765
▁Chilean	-11.9766
▁detective	-11.9769
▁Carte	-11.977
▁Leader	-11.9772
▁desir	-11.9774
▁ascend	-11.9775
▁pale	-11.9775
▁spher	-11.9777
▁doubling	-11.979
▁poetic	-11.9791
RP	-11.9792
cular	-11.9792
matic	-11.9799
▁Pop	-11.9801
▁skeptic	-11.9806
▁Climate	-11.9816
▁diarrhea	-11.9816
▁escort	-11.9816
▁uncommon	-11.9816
▁cigarette	-11.9816
▁temporal	-11.9816
▁maker	-11.9817
▁Review	-11.9817
▁intake	-11.9817
▁uncover	-11.9818
▁Horse	-11.9819
▁insult	-11.9819
▁compilation	-11.982
▁compensat	-11.9821
▁wax	-11.9822
▁mall	-11.9823
▁fir	-11.9823
▁reinforce	-11.9823
rays	-11.9823
▁modes	-11.9829
▁mg	-11.983
▁consequent	-11.984
▁initiate	-11.9846
▁basement	-11.9851
▁Tit	-11.9853
aker	-11.9859
▁degrad	-11.9862
flow	-11.9863
▁por	-11.9866
▁shit	-11.9867
friend	-11.9869
▁HP	-11.9871
bound	-11.9872
▁Odysse	-11.9874
▁Obvious	-11.9874
▁chaotic	-11.9874
▁denounc	-11.9874
▁garrison	-11.9874
▁implicit	-11.9874
▁Dynast	-11.9874
▁equivalenc	-11.9874
▁vivid	-11.9874
▁hallucination	-11.9875
course	-11.9876
put	-11.9877
aust	-11.9878
▁Run	-11.988
▁Athanasi	-11.9881
▁explod	-11.9881
hold	-11.9883
▁Panther	-11.9883
▁Anders	-11.9889
▁na	-11.989
▁beverage	-11.9895
▁Male	-11.9896
▁synthesiz	-11.9904
cast	-11.9905
▁intervene	-11.9906
▁Baby	-11.9911
▁infinit	-11.9915
▁mistaken	-11.992
oster	-11.9925
▁brake	-11.9926
GC	-11.9927
▁din	-11.9927
▁Bal	-11.9929
▁cri	-11.993
▁liter	-11.9932
▁Chiapa	-11.9932
▁disciple	-11.9932
▁destructive	-11.9932
▁Euler	-11.9932
▁insane	-11.9932
▁swamp	-11.9933
▁Artist	-11.9934
▁vanish	-11.9935
▁Centur	-11.9936
enberg	-11.9937
▁Industr	-11.9938
▁stiff	-11.9939
▁urine	-11.9941
▁consul	-11.9943
▁grandson	-11.9949
▁derivation	-11.995
▁motors	-11.9951
▁169	-11.9959
▁neuro	-11.9962
▁steadi	-11.9964
▁tire	-11.9964
▁wip	-11.9965
▁alcoholic	-11.9965
atory	-11.9966
▁Hot	-11.9967
▁Color	-11.9967
DT	-11.9977
meric	-11.9982
▁Gall	-11.9982
▁evaluat	-11.9983
▁coron	-11.9984
▁Mur	-11.9987
▁Era	-11.9989
▁Benedict	-11.9989
▁protagonist	-11.999
▁loving	-11.999
▁Charlotte	-11.999
▁Culture	-11.999
▁obey	-11.999
▁Chuck	-11.999
▁seizure	-11.999
ological	-11.9992
▁bald	-11.9993
▁Julie	-11.9998
▁dub	-12.0011
▁utilize	-12.0011
▁Hispanic	-12.0015
symmetrical	-12.0017
east	-12.0019
▁360	-12.0021
▁shade	-12.0022
rman	-12.0031
▁oppress	-12.0031
itude	-12.0033
▁ac	-12.0034
▁instruct	-12.0034
▁101	-12.0039
▁coloniz	-12.0042
▁propagat	-12.0042
fire	-12.0046
mula	-12.0046
▁Tibet	-12.0046
▁adolescent	-12.0048
▁bamboo	-12.0048
▁choir	-12.0048
▁embodie	-12.0048
▁hurricane	-12.0048
▁demolish	-12.0048
▁motorcycle	-12.0048
▁CPR	-12.0049
▁Staff	-12.0049
lix	-12.005
▁Pra	-12.005
▁glove	-12.0052
och	-12.0054
▁frustration	-12.0056
▁Walker	-12.0059
lle	-12.0059
▁Galler	-12.0065
▁ferr	-12.0069
▁sailor	-12.0072
▁arena	-12.0073
▁interconnected	-12.0084
▁Indiana	-12.0087
▁blessing	-12.0088
▁dunes	-12.009
▁Rhode	-12.0107
▁insulin	-12.0107
▁Kosov	-12.0107
▁niche	-12.0107
▁residue	-12.0107
▁Lanka	-12.0107
▁fetus	-12.0107
▁dumb	-12.0107
▁masterpiece	-12.0107
▁stall	-12.0108
▁Billy	-12.0108
▁sculptor	-12.011
▁Gor	-12.0115
rix	-12.0118
▁sever	-12.0121
tter	-12.0122
▁Serb	-12.0128
▁heroic	-12.0134
▁Comp	-12.0136
▁unchang	-12.0142
▁addresse	-12.0145
▁Ivor	-12.015
bur	-12.0158
▁Mobil	-12.0162
interest	-12.0166
→	-12.0166
▁Czechoslovak	-12.0166
▁administrator	-12.0166
▁crawl	-12.0166
▁despair	-12.0166
▁lattice	-12.0166
▁harbour	-12.0166
▁terrified	-12.0166
▁titan	-12.0167
▁cyan	-12.0167
▁dislike	-12.0168
aritime	-12.0169
▁Total	-12.0171
▁Learn	-12.0177
▁communal	-12.0178
▁sulfide	-12.0182
▁welcom	-12.0183
▁Bras	-12.0186
▁accountability	-12.0192
▁Domitia	-12.0196
ologist	-12.02
▁Communi	-12.0203
plan	-12.0203
▁faci	-12.0206
▁assemble	-12.0207
inch	-12.0209
▁cataly	-12.022
▁prehistor	-12.0222
▁Orchestra	-12.0226
▁closure	-12.0226
▁commoditi	-12.0226
▁deflect	-12.0226
▁diffusion	-12.0226
▁jungle	-12.0226
▁tributar	-12.0226
▁ornament	-12.0226
▁plaque	-12.0226
▁banjo	-12.0226
▁presid	-12.0228
▁midnight	-12.0228
▁prostate	-12.0228
TA	-12.0228
▁millennia	-12.023
▁exceeding	-12.0233
▁Stop	-12.0235
▁wel	-12.0237
▁fluorescent	-12.0238
▁cooler	-12.0239
▁Capp	-12.024
▁Brigade	-12.0243
▁liberat	-12.0243
▁eligib	-12.0244
ker	-12.0248
▁echo	-12.025
▁beaver	-12.0252
ken	-12.0254
▁rabbit	-12.0256
▁corners	-12.0258
▁′	-12.0259
▁rejection	-12.026
org	-12.0262
▁clash	-12.0263
▁cage	-12.0264
cca	-12.0266
hra	-12.0266
▁contra	-12.0269
▁methodolog	-12.0273
▁clan	-12.0275
logy	-12.0279
▁basket	-12.0286
▁Neanderthal	-12.0286
▁prophec	-12.0286
▁salmon	-12.0286
▁jealous	-12.0286
▁decease	-12.0286
▁authoritarian	-12.0286
▁commentator	-12.0286
▁Wait	-12.0287
▁comedian	-12.029
▁chlor	-12.0293
▁heel	-12.0293
▁digest	-12.0295
▁Advanc	-12.0297
▁bla	-12.0298
▁Tar	-12.0298
▁wrestl	-12.0298
▁genera	-12.0309
hon	-12.031
▁altar	-12.0311
path	-12.0312
iger	-12.0317
▁Saxon	-12.0317
nnett	-12.0323
▁Leon	-12.0327
▁deteriorat	-12.0333
▁cerebr	-12.0346
▁Individual	-12.0346
▁cymbal	-12.0346
▁smash	-12.0346
▁hull	-12.0346
▁subtitle	-12.0346
ograph	-12.0346
▁Sorry	-12.0347
▁trademark	-12.0347
▁regenerate	-12.0347
▁deput	-12.0348
gentleman	-12.0353
▁cact	-12.0357
oni	-12.0358
▁gentle	-12.0359
▁foreigner	-12.0361
look	-12.0366
▁bark	-12.0367
▁Springs	-12.0369
▁Barr	-12.0371
▁unlock	-12.0374
▁coco	-12.0384
▁Robins	-12.0385
▁tooth	-12.0386
▁surge	-12.0388
axis	-12.0391
▁balanc	-12.04
▁captive	-12.0401
▁dock	-12.0402
▁Athletic	-12.0406
▁indefinite	-12.0406
▁juvenile	-12.0406
▁nanotube	-12.0406
▁Progress	-12.0406
▁Potter	-12.0407
▁mutant	-12.0407
▁payload	-12.0407
▁Carthag	-12.0408
munition	-12.0409
▁Hunt	-12.0409
▁recession	-12.0409
▁photosynthesi	-12.0409
▁Luna	-12.0411
person	-12.0413
▁Portland	-12.0413
two	-12.0413
iff	-12.0419
▁Horn	-12.042
▁therapeutic	-12.0421
▁cone	-12.0425
▁fung	-12.0426
▁Former	-12.0428
▁Rosa	-12.043
incin	-12.043
▁stair	-12.0434
▁bench	-12.0434
▁lu	-12.0435
ico	-12.0435
▁167	-12.0439
▁Jos	-12.0444
▁whistle	-12.0444
▁Persia	-12.0445
▁Johnston	-12.0454
▁Bett	-12.0456
▁Pete	-12.0456
Ba	-12.046
IV	-12.0461
▁existential	-12.0466
▁Hondura	-12.0467
▁Hundred	-12.0467
▁Mughal	-12.0467
▁grammatical	-12.0467
▁origami	-12.0467
▁pencil	-12.0467
▁chef	-12.0467
▁banker	-12.0468
▁lord	-12.0468
,200	-12.0469
▁ethanol	-12.0469
▁Apostle	-12.0469
▁grat	-12.0469
establish	-12.047
▁ir	-12.047
▁diode	-12.047
▁Hux	-12.047
vascular	-12.047
▁MR	-12.0472
▁quo	-12.0472
▁Cole	-12.0474
▁adhesive	-12.0474
▁resignation	-12.0476
▁confrontation	-12.0476
▁eradicat	-12.0477
▁tangent	-12.0482
▁Hold	-12.0483
▁isolate	-12.0486
▁Roy	-12.0488
iers	-12.0491
▁laborator	-12.0495
▁Pierre	-12.0495
loy	-12.0497
▁Yemen	-12.0501
▁Dio	-12.0502
▁synthesizer	-12.0503
40	-12.0513
▁Trinit	-12.0516
▁Chel	-12.0523
▁Constanti	-12.0524
wear	-12.0529
▁Hurricane	-12.0529
▁Official	-12.0529
▁Telescope	-12.0529
▁additive	-12.0529
▁gospel	-12.0529
▁gradient	-12.0529
▁inferior	-12.0529
▁whisper	-12.0529
▁ladder	-12.0529
▁Village	-12.0529
▁proponent	-12.0529
▁discourse	-12.0529
▁versa	-12.0529
▁chromium	-12.053
▁Danny	-12.053
Rahm	-12.0534
▁cosmo	-12.054
BT	-12.0541
▁resid	-12.0541
▁visualize	-12.0545
▁Jas	-12.0547
oil	-12.0547
dmin	-12.0548
▁Works	-12.0552
▁anticipate	-12.0557
▁trailer	-12.0558
▁rever	-12.056
▁toad	-12.0566
sota	-12.0567
row	-12.0572
iful	-12.0574
▁viewers	-12.0578
▁Mind	-12.0578
▁ST	-12.0581
▁Cra	-12.0583
▁69	-12.0587
▁forgive	-12.0589
▁Ashoka	-12.0591
▁Chemical	-12.0591
▁inexpensive	-12.0591
▁prejudice	-12.0591
▁besieg	-12.0591
▁warrant	-12.0591
▁Planet	-12.0591
▁butterfl	-12.0591
▁delta	-12.0591
▁sidewalk	-12.0592
▁Lego	-12.0593
culture	-12.0593
▁Dennis	-12.0593
▁Charter	-12.0594
▁Burn	-12.0594
▁Sony	-12.0596
▁owe	-12.0596
▁spur	-12.06
▁Herman	-12.0605
▁Fish	-12.0607
▁marsh	-12.0607
month	-12.0609
ache	-12.0609
▁adjective	-12.0611
▁stripe	-12.0616
▁Baker	-12.0616
mise	-12.0617
▁Las	-12.0618
▁orthodox	-12.0619
▁deer	-12.0619
▁volatile	-12.0624
▁waterway	-12.0624
▁Bab	-12.0626
▁flipp	-12.0627
▁affinit	-12.0627
86	-12.0628
anuel	-12.0632
▁Gal	-12.0633
▁ow	-12.0648
style	-12.0649
▁lever	-12.0652
▁enforc	-12.0652
▁Absolute	-12.0653
▁syntax	-12.0653
▁unnecessar	-12.0653
▁ordain	-12.0653
▁crab	-12.0653
▁inch	-12.0653
▁suspension	-12.0654
▁metallic	-12.0655
helm	-12.0656
MF	-12.0657
▁excavation	-12.0658
▁skeptical	-12.0664
▁Hud	-12.0664
▁cardio	-12.0665
case	-12.0666
▁forty	-12.0669
mbo	-12.0672
tze	-12.0673
▁intentional	-12.0674
▁seize	-12.0674
game	-12.0675
GB	-12.0676
asi	-12.0676
▁105	-12.0677
train	-12.0681
▁biographer	-12.0682
blew	-12.0684
phi	-12.0689
▁sued	-12.0689
▁shooter	-12.0693
rush	-12.07
▁tender	-12.0701
▁Ant	-12.0703
illboard	-12.0704
▁cart	-12.0712
active	-12.0712
▁ethnicit	-12.0715
▁Evan	-12.0715
▁Treasur	-12.0715
▁apparatus	-12.0715
▁etymolog	-12.0715
▁fifty	-12.0715
▁imperative	-12.0715
▁semantic	-12.0715
▁streak	-12.0715
▁unfair	-12.0715
▁fission	-12.0715
▁pesticide	-12.0715
▁certification	-12.0715
▁sermon	-12.0715
▁hammer	-12.0715
▁irrational	-12.0715
▁Andorra	-12.0716
▁oath	-12.0716
▁Minne	-12.0716
▁editorial	-12.0718
weight	-12.072
▁therapist	-12.0721
hard	-12.0724
▁Member	-12.0725
▁Bengali	-12.0726
text	-12.0726
▁millimeter	-12.073
▁Hellen	-12.073
focal	-12.0732
▁Say	-12.0734
▁motivate	-12.0735
▁Jacques	-12.0739
▁phenomenal	-12.0741
unning	-12.0743
▁Gun	-12.0751
▁plott	-12.0755
▁freeze	-12.0759
▁Neil	-12.076
▁inquiry	-12.0763
▁Der	-12.0764
▁inaugurat	-12.0764
▁hotte	-12.0765
▁Dun	-12.0767
▁stain	-12.0777
connais	-12.0778
▁Biblical	-12.0778
▁synapse	-12.0778
▁theatrical	-12.0778
▁Eurasia	-12.0778
▁Dictionar	-12.0778
▁Castil	-12.0778
▁qualification	-12.0778
▁relay	-12.0778
▁Cancer	-12.0778
▁subgroup	-12.0778
▁McL	-12.0779
▁flora	-12.0779
▁censorship	-12.0779
▁tolerate	-12.0781
mingham	-12.0782
rani	-12.0782
▁Ron	-12.0783
language	-12.0785
▁Yugoslavia	-12.0787
▁Pl	-12.0787
▁commands	-12.0788
arm	-12.079
▁centimeter	-12.0791
▁É	-12.0799
▁CH	-12.0801
▁Mongol	-12.081
▁locate	-12.0811
▁reunit	-12.0813
gate	-12.0819
astro	-12.0821
▁Creta	-12.0829
▁Luci	-12.083
▁158	-12.0834
▁individually	-12.0835
▁exaggerat	-12.0837
▁menu	-12.0837
▁Romania	-12.0839
▁Declar	-12.0841
▁baptiz	-12.0841
▁iPod	-12.0841
▁staple	-12.0841
▁chunk	-12.0841
▁Sudden	-12.0841
▁lumino	-12.0842
▁ATM	-12.0842
▁nomad	-12.0842
▁pond	-12.0842
▁Trans	-12.0843
▁playful	-12.0843
▁2030	-12.0844
▁characterize	-12.0847
▁grabb	-12.0849
engineer	-12.0852
▁eu	-12.0854
▁shak	-12.0855
▁Nepal	-12.0856
-20	-12.0858
▁Site	-12.0859
▁motive	-12.0862
▁Eli	-12.0864
▁vent	-12.0866
▁exo	-12.0876
▁asylum	-12.0876
anni	-12.0877
▁Dog	-12.0877
▁Baron	-12.0878
▁lightn	-12.0878
▁Nat	-12.0884
chen	-12.0888
▁CRT	-12.089
▁premiere	-12.0893
▁hind	-12.0896
▁15-	-12.0897
▁tense	-12.0898
▁functionalit	-12.0901
▁CRISPR	-12.0905
▁Heaven	-12.0905
▁satisfaction	-12.0905
▁sleeve	-12.0905
▁drastic	-12.0905
▁polish	-12.0905
▁ISO	-12.0905
▁energetic	-12.0905
▁cemeter	-12.0905
▁distress	-12.0905
years	-12.0907
▁102	-12.0908
▁cope	-12.0909
▁accumulation	-12.0912
▁nineteenth	-12.0917
▁caps	-12.0919
▁commuter	-12.0922
▁Box	-12.0923
▁Ve	-12.0924
▁Fourth	-12.0929
▁gambl	-12.0929
▁110	-12.093
▁Cani	-12.0933
▁Name	-12.0937
▁champions	-12.0937
▁contend	-12.0946
▁manga	-12.0949
new	-12.0951
▁Gol	-12.0952
▁Arian	-12.0955
▁expose	-12.0955
▁popp	-12.0956
▁Len	-12.0958
ER	-12.0958
dec	-12.0961
▁starch	-12.0962
▁Speci	-12.0962
▁corps	-12.0968
~	-12.0969
▁Premier	-12.0969
▁amphetamine	-12.0969
▁covalent	-12.0969
▁crochet	-12.0969
▁grape	-12.0969
▁thirteen	-12.0969
▁notorious	-12.0969
▁wreck	-12.0969
▁simplify	-12.0969
▁diaspora	-12.0969
▁Text	-12.0969
▁Elder	-12.097
▁keen	-12.097
▁u	-12.097
▁canopy	-12.097
▁Strange	-12.0971
▁refrigerator	-12.0971
▁reinforcement	-12.0971
▁archaeologist	-12.0972
▁Susan	-12.0972
▁fad	-12.0974
▁cub	-12.0976
▁RB	-12.0977
▁potter	-12.098
▁Austro	-12.098
▁needles	-12.098
▁conjecture	-12.0982
▁defender	-12.0986
▁Stoke	-12.0988
▁va	-12.099
▁cellulos	-12.0993
▁deficienc	-12.0995
▁patrol	-12.1002
ek	-12.1005
▁sexy	-12.1005
zeb	-12.1013
rnhard	-12.1018
▁commemorate	-12.1022
▁Lead	-12.1023
▁doom	-12.1027
▁commodity	-12.1034
▁Prayer	-12.1034
▁eager	-12.1034
▁chew	-12.1034
▁girlfriend	-12.1035
▁gallon	-12.1036
▁compuls	-12.1036
▁claw	-12.1036
▁rumor	-12.1037
▁Lowe	-12.1037
▁Tree	-12.104
▁prosecutor	-12.1041
▁prop	-12.1041
wich	-12.1042
income	-12.1044
thermal	-12.1045
▁faithful	-12.1046
▁stabilize	-12.1046
roll	-12.1054
▁yard	-12.1055
dona	-12.1055
▁Fly	-12.1057
▁Yo	-12.1062
pter	-12.1062
MS	-12.1062
DP	-12.1065
▁amend	-12.1082
▁inference	-12.1085
▁lense	-12.1086
▁brew	-12.1089
▁Superma	-12.1096
▁suite	-12.1096
▁Associate	-12.1099
▁Regiment	-12.1099
▁manifold	-12.1099
▁carpet	-12.1099
hawk	-12.1099
▁odor	-12.1099
lapse	-12.11
▁synonymous	-12.11
▁Elvi	-12.11
▁flute	-12.1103
▁enlarg	-12.1104
etropolitan	-12.1106
▁intentionally	-12.1107
▁enthusiastic	-12.1108
▁arrange	-12.1109
▁slip	-12.111
▁Sina	-12.1117
▁Bent	-12.1118
▁adviser	-12.1119
▁Joan	-12.112
▁AT	-12.1122
▁Inside	-12.1124
▁mitochondria	-12.1126
▁dies	-12.1127
▁Troy	-12.1129
▁dynamical	-12.1129
eck	-12.1136
▁contractor	-12.1136
usch	-12.114
▁bucks	-12.1144
▁transcend	-12.1145
▁complian	-12.1147
nigma	-12.1158
▁intimidat	-12.1164
▁Challenge	-12.1164
▁glimpse	-12.1164
▁inadequate	-12.1164
▁dentist	-12.1164
▁junction	-12.1164
▁Ahmed	-12.1164
▁psychiatrist	-12.1166
▁visualization	-12.117
▁Join	-12.1173
▁industrializ	-12.1174
▁LT	-12.1175
▁Puer	-12.1176
rque	-12.1177
▁checks	-12.1185
cles	-12.1187
▁Disc	-12.1197
▁analytic	-12.1198
west	-12.1199
▁rescu	-12.12
▁belly	-12.1203
▁LP	-12.1208
OF	-12.1213
▁confess	-12.1213
▁Borg	-12.1216
▁Butler	-12.1216
▁PR	-12.1217
▁pun	-12.1219
▁donate	-12.1225
▁evaporat	-12.1229
▁critique	-12.123
▁delegation	-12.123
▁hymn	-12.123
▁apopto	-12.123
▁Serge	-12.123
▁leopard	-12.123
▁ventilat	-12.123
▁Android	-12.123
▁Numer	-12.1231
▁articulat	-12.1232
▁polarization	-12.1233
▁Scholars	-12.1234
▁Shi	-12.1235
ido	-12.1236
▁arous	-12.1242
▁omitt	-12.1242
▁persistent	-12.1243
organic	-12.1243
cent	-12.1244
▁summ	-12.1244
▁Environmental	-12.1245
nium	-12.1245
▁confession	-12.1246
▁emotionally	-12.1251
▁rabbi	-12.1262
▁constitut	-12.1262
▁complementar	-12.1264
grow	-12.1267
▁156	-12.1271
▁grad	-12.1271
▁Mesopotamia	-12.1273
gram	-12.1287
▁blown	-12.1289
▁mortal	-12.129
▁nights	-12.1293
▁ft	-12.1295
▁Keep	-12.1296
▁Namibia	-12.1296
▁ensemble	-12.1296
▁lesbian	-12.1296
▁throat	-12.1296
▁stumbl	-12.1296
▁cocktail	-12.1296
▁scout	-12.1296
▁Suppose	-12.1296
▁Cricket	-12.1296
▁penicillin	-12.1296
▁Action	-12.1296
▁pension	-12.1297
▁feasib	-12.1299
▁Map	-12.1301
▁maximize	-12.1307
▁prohibition	-12.1309
ulation	-12.1309
▁Allah	-12.1309
▁Palmer	-12.1311
▁warhead	-12.1315
▁applicab	-12.1318
▁periodical	-12.1325
▁attachment	-12.1328
▁resembl	-12.1328
acco	-12.1338
▁Agne	-12.1341
▁Boh	-12.1343
▁resume	-12.1344
▁modeling	-12.1345
tune	-12.1346
▁shy	-12.135
▁Plu	-12.1357
▁excavat	-12.1358
▁Liber	-12.136
poli	-12.1361
▁pointer	-12.1363
▁incarcerat	-12.1363
▁Bhutan	-12.1363
▁Democracy	-12.1363
▁Nevada	-12.1363
▁chapel	-12.1363
▁gauge	-12.1363
▁unanimous	-12.1363
▁monastic	-12.1363
▁spouse	-12.1363
▁hydroxide	-12.1363
▁Quran	-12.1363
▁Return	-12.1363
▁messenger	-12.1363
▁sanctuar	-12.1363
▁nail	-12.1363
▁Ivan	-12.1363
▁saturat	-12.1363
▁naive	-12.1364
ception	-12.1365
▁neurological	-12.1366
▁BF	-12.1366
▁Julia	-12.1368
▁Kei	-12.1368
▁Mao	-12.137
child	-12.1372
▁spice	-12.1372
rink	-12.1376
▁potent	-12.1386
itch	-12.1387
ima	-12.1393
▁prominen	-12.1396
▁disgust	-12.1397
vid	-12.1399
▁Travel	-12.1399
▁builder	-12.1401
▁cock	-12.1403
▁Vincen	-12.1411
▁generaliz	-12.1413
▁Ker	-12.1429
▁propriet	-12.143
▁cognition	-12.143
▁creep	-12.143
▁crossbow	-12.143
▁suspicion	-12.143
▁taboo	-12.143
▁steroid	-12.143
▁aerodynamic	-12.143
▁Mau	-12.143
▁Negro	-12.143
▁Aege	-12.143
▁multinational	-12.143
▁lamb	-12.143
▁prolong	-12.1431
▁Holoc	-12.1431
▁Normal	-12.1431
▁degradation	-12.1433
▁viewpoint	-12.1434
▁po	-12.1434
▁encyclopedia	-12.1435
section	-12.1438
▁simulat	-12.1438
shirt	-12.1446
▁brewer	-12.1447
▁resum	-12.1448
▁Cyr	-12.1453
▁generalization	-12.1453
▁realis	-12.1471
ction	-12.1472
▁Conservati	-12.1473
▁contraction	-12.1476
▁Berg	-12.1477
HC	-12.1478
rius	-12.1479
▁shelve	-12.1481
ridge	-12.1482
▁Lang	-12.1483
▁pal	-12.1483
▁specialize	-12.1487
mouth	-12.1491
▁Approximate	-12.1497
▁Aurang	-12.1497
▁Kashmir	-12.1497
▁Legislati	-12.1497
▁Limit	-12.1497
▁battlecruiser	-12.1497
▁catastrophic	-12.1497
▁dissolut	-12.1497
▁technician	-12.1497
▁patriot	-12.1497
▁Galile	-12.1497
▁Hind	-12.1498
▁Strait	-12.1498
▁outrage	-12.1499
▁Delphi	-12.1499
mus	-12.1503
▁homogeneous	-12.1506
▁glamor	-12.1507
▁worrying	-12.1522
▁tent	-12.1525
▁abnormal	-12.1526
▁correlate	-12.1529
▁Chek	-12.1535
▁Vent	-12.1535
▁shocking	-12.1541
liberation	-12.1541
heim	-12.1542
▁Val	-12.1543
▁MH	-12.1544
▁Tram	-12.1547
▁Hawke	-12.1547
▁disturb	-12.1548
▁Living	-12.1553
uous	-12.1554
▁Ming	-12.1555
▁copula	-12.1556
▁abbreviat	-12.1561
ampaign	-12.1564
▁exponent	-12.1565
▁feat	-12.1565
aggression	-12.1565
▁Twelve	-12.1565
▁allegiance	-12.1565
▁altruism	-12.1565
▁shatter	-12.1565
▁suspicious	-12.1565
▁Montreal	-12.1565
lumni	-12.1566
▁lesion	-12.1566
▁justifi	-12.1566
▁physiological	-12.1566
▁mound	-12.1567
▁genital	-12.1569
▁guitarist	-12.157
▁financially	-12.1571
▁humble	-12.1573
▁offset	-12.1576
arity	-12.158
▁Rover	-12.1582
▁Kings	-12.1583
▁midst	-12.1584
tta	-12.1584
▁archipelago	-12.1585
boat	-12.1585
▁wholly	-12.1588
▁runway	-12.1592
▁Gen	-12.1595
▁Glas	-12.16
▁DSM	-12.1601
acia	-12.1606
tric	-12.1607
▁elde	-12.1608
▁pric	-12.1611
cartes	-12.1616
niz	-12.1617
▁stereotype	-12.1619
▁roller	-12.1623
▁IT	-12.1624
▁Wings	-12.1625
▁hail	-12.1628
▁kilo	-12.1634
▁Cameron	-12.1634
▁Fifth	-12.1634
▁contempt	-12.1634
▁romance	-12.1634
▁affiliation	-12.1634
▁folklor	-12.1634
▁hatred	-12.1635
▁trustworth	-12.1635
▁Otto	-12.1636
▁iteration	-12.1638
▁Charl	-12.1638
▁Touris	-12.164
▁colonist	-12.164
▁MW	-12.164
▁grassland	-12.1641
▁coil	-12.1641
▁Too	-12.1642
▁physiolog	-12.1648
tress	-12.1648
▁Pain	-12.1651
lux	-12.1652
▁announce	-12.166
▁Jon	-12.1662
▁flux	-12.1662
▁scream	-12.1672
▁Mann	-12.1674
▁Mile	-12.1682
desirable	-12.1683
▁Pre	-12.1684
▁inmate	-12.1693
▁Iberia	-12.1694
▁penetrate	-12.1695
▁domesticat	-12.1695
▁hearts	-12.1696
shes	-12.17
‘	-12.1703
▁Crystal	-12.1703
▁exclusion	-12.1703
▁strait	-12.1703
▁superhero	-12.1703
▁mandatory	-12.1703
▁patriarch	-12.1703
cumen	-12.1703
▁bikini	-12.1703
▁elastic	-12.1703
▁Hercule	-12.1703
▁Professional	-12.1703
▁Economist	-12.1703
▁Revel	-12.1703
▁precedent	-12.1704
▁halve	-12.1705
▁Ernest	-12.1705
▁Socialist	-12.1706
▁inefficient	-12.1706
▁Barks	-12.1709
balone	-12.1711
▁philanthrop	-12.1715
▁identifie	-12.172
▁categoriz	-12.1721
cell	-12.1721
▁mesh	-12.1725
▁lawn	-12.1725
▁lease	-12.1727
▁Ful	-12.173
▁coherent	-12.1732
▁Holm	-12.1733
GP	-12.1734
▁exclude	-12.1735
▁ineffective	-12.1736
▁Collin	-12.1745
▁optional	-12.1749
▁Jamaica	-12.175
▁spann	-12.1754
▁mi	-12.176
gue	-12.1765
▁franc	-12.1766
▁sync	-12.1769
▁treasur	-12.1771
▁Skinner	-12.1772
▁Regard	-12.1772
▁Witness	-12.1772
▁kinetic	-12.1772
▁Bonn	-12.1773
▁Heracle	-12.1773
▁blink	-12.1774
▁invert	-12.1776
▁adjustment	-12.1778
ella	-12.1782
▁traveler	-12.1782
▁customar	-12.1783
▁ramp	-12.1789
economic	-12.1793
▁auditor	-12.1793
AN	-12.1795
onica	-12.18
▁Au	-12.1801
▁Runn	-12.1802
▁Munic	-12.1802
▁Bull	-12.1804
nfluence	-12.1805
▁commenc	-12.1805
▁interpreter	-12.1807
plat	-12.1809
▁floors	-12.1814
▁visi	-12.1814
▁celebrit	-12.1816
▁smil	-12.1823
▁backward	-12.1825
▁honorar	-12.1826
ogue	-12.1826
▁forum	-12.183
▁laying	-12.1832
▁scaling	-12.1836
▁BT	-12.1837
finish	-12.1839
▁summarize	-12.1839
▁Secret	-12.184
▁Construct	-12.1842
boriginal	-12.1842
▁Enlighten	-12.1842
▁chimp	-12.1842
▁dessert	-12.1842
▁disguise	-12.1842
▁monsoon	-12.1842
▁nightmare	-12.1842
▁Stuart	-12.1842
▁Cartesian	-12.1842
▁Probab	-12.1842
▁junk	-12.1843
▁consultant	-12.1843
▁tilt	-12.1843
▁bioma	-12.1844
▁Silver	-12.1844
gli	-12.1845
▁vow	-12.1846
ita	-12.1848
▁downward	-12.1849
▁flock	-12.185
Raymond	-12.185
▁lin	-12.1851
▁sla	-12.1853
bil	-12.1853
tery	-12.1853
▁boots	-12.1853
▁Ask	-12.1856
▁induction	-12.1857
▁cab	-12.1858
▁ballet	-12.1861
iction	-12.1866
▁Cars	-12.1869
▁mediate	-12.1869
alph	-12.1871
etic	-12.1875
Barack	-12.1875
▁restructur	-12.1876
▁enthusias	-12.1878
▁rode	-12.1881
litary	-12.1886
▁747	-12.1888
▁Assyria	-12.189
rna	-12.189
fax	-12.1895
ali	-12.1897
▁Hal	-12.1898
▁viewer	-12.1902
▁Mala	-12.1903
▁sketche	-12.1906
▁culturally	-12.1908
▁Ferdinand	-12.1913
▁Technical	-12.1913
▁disseminat	-12.1913
▁psyche	-12.1913
▁repertoire	-12.1913
▁grind	-12.1913
▁stagger	-12.1913
▁attacker	-12.1913
▁allegation	-12.1914
▁meditation	-12.1915
▁marginal	-12.1915
▁formulate	-12.1916
▁fatty	-12.1917
▁miserable	-12.1918
drive	-12.1918
▁yell	-12.1919
iago	-12.1921
▁Micro	-12.1922
link	-12.1931
▁Bobb	-12.1932
▁Madr	-12.1933
▁remembering	-12.1936
▁Zone	-12.1936
▁replica	-12.1936
▁dar	-12.1938
▁Anti	-12.1939
met	-12.1939
▁verifi	-12.1945
▁incremental	-12.1961
mile	-12.1966
▁ref	-12.1966
▁Hale	-12.1969
300	-12.1971
▁hung	-12.1974
▁Deco	-12.1977
▁Ether	-12.1978
▁transmitter	-12.1979
▁stigma	-12.1983
▁dispatch	-12.1984
▁privatiz	-12.1984
▁reptile	-12.1984
▁rethink	-12.1984
▁spectroscop	-12.1984
▁Tiberi	-12.1984
▁socket	-12.1984
▁shrine	-12.1984
▁cannibal	-12.1984
▁foul	-12.1984
▁Bloom	-12.1984
▁papa	-12.1985
▁almond	-12.1985
▁Rac	-12.1985
▁Deput	-12.1985
▁Try	-12.1986
▁couch	-12.1988
cha	-12.1989
gon	-12.1991
▁pore	-12.1992
amount	-12.1992
▁Fisher	-12.1993
▁Mir	-12.1993
ith	-12.1995
▁Shu	-12.1996
die	-12.1999
wan	-12.2
▁coma	-12.2
▁Bros	-12.2001
▁Azerbaijani	-12.2003
zone	-12.2005
▁pea	-12.2007
▁Bor	-12.2007
xchange	-12.2013
▁Edd	-12.2015
▁auxiliar	-12.2017
▁handwrit	-12.2018
▁logistic	-12.2019
▁commissioner	-12.2021
▁Find	-12.2022
tting	-12.2036
▁characteris	-12.204
ique	-12.2041
▁squad	-12.2055
▁Patient	-12.2055
▁ecclesiastic	-12.2055
▁fractal	-12.2055
▁Chrono	-12.2055
▁microorganism	-12.2055
▁Thirty	-12.2055
▁rediscover	-12.2055
burn	-12.2056
▁phosphorus	-12.2057
ira	-12.2057
▁Guardian	-12.2058
▁posture	-12.2059
tangible	-12.2059
▁instructor	-12.2059
▁lobe	-12.206
▁biotechnolog	-12.2061
▁frightening	-12.2061
▁767	-12.2061
▁wetland	-12.2061
▁Israelite	-12.2061
▁creed	-12.2064
▁Kant	-12.2064
DU	-12.2065
▁Hat	-12.2069
▁breach	-12.2069
▁stabiliz	-12.207
▁barr	-12.207
▁1500	-12.2072
rap	-12.2072
▁fr	-12.2077
▁apologize	-12.2079
▁herb	-12.208
cop	-12.2082
▁amaz	-12.2082
olis	-12.2083
▁Highland	-12.2085
oyle	-12.2088
▁Mongolia	-12.2091
▁Herod	-12.2092
▁Britt	-12.2092
ggle	-12.2103
▁Nicaragua	-12.2104
▁Hero	-12.2104
▁Macedonia	-12.2105
▁Kar	-12.2105
last	-12.2107
▁upgrad	-12.2108
▁Environment	-12.2111
▁Ceme	-12.2112
▁Range	-12.2113
▁ham	-12.2114
▁Sche	-12.2114
▁intestine	-12.2115
▁Libert	-12.2116
▁Etruscan	-12.2127
▁Protocol	-12.2127
▁carcinogen	-12.2127
▁pivot	-12.2127
▁unpopular	-12.2127
▁pizza	-12.2128
▁Unix	-12.2129
▁topograph	-12.2129
▁Harle	-12.2129
▁impairment	-12.213
▁justification	-12.213
▁embarrassing	-12.2131
▁compensate	-12.2132
▁Farm	-12.2135
lerant	-12.2141
▁disruption	-12.2142
▁agnostic	-12.2148
▁Mal	-12.215
▁climber	-12.215
rum	-12.2154
▁commemorat	-12.216
▁mot	-12.2164
▁SP	-12.2166
▁ser	-12.2169
▁orient	-12.217
oto	-12.2173
▁Prussia	-12.2177
▁Rem	-12.2178
▁mobiliz	-12.2178
▁Henri	-12.2184
▁disappointed	-12.2187
▁bonus	-12.2188
▁erupt	-12.2195
▁Race	-12.2195
SSR	-12.2196
▁niece	-12.2199
▁skyscraper	-12.2199
▁Continu	-12.2199
trophy	-12.2199
▁Harbor	-12.22
▁lipid	-12.22
▁pedal	-12.2201
▁crank	-12.2202
▁chant	-12.2202
▁Gael	-12.2203
▁Piza	-12.2204
orf	-12.2204
▁Price	-12.2206
▁Duck	-12.2206
▁anomal	-12.2207
AS	-12.2208
▁criticize	-12.221
▁Depend	-12.2221
organiz	-12.2226
▁alignment	-12.2229
▁deuter	-12.2239
▁armament	-12.2243
▁Aragon	-12.2248
lept	-12.225
▁royalt	-12.225
▁Nice	-12.2263
▁Karma	-12.2266
▁Joy	-12.2267
.5	-12.2267
▁innovate	-12.2271
▁colloquial	-12.2272
▁Female	-12.2272
▁repeal	-12.2272
▁scaffold	-12.2272
▁Complex	-12.2272
▁cafe	-12.2272
▁rectangle	-12.2272
▁Ahmad	-12.2272
▁haunt	-12.2273
▁puppet	-12.2273
▁Found	-12.2273
▁Capitol	-12.2273
▁Methodist	-12.2273
▁anxious	-12.2273
▁urgent	-12.2273
▁synagogue	-12.2273
▁COB	-12.2275
▁lightweight	-12.2275
▁JF	-12.2276
▁innate	-12.228
▁mob	-12.2283
▁Doll	-12.2285
▁Les	-12.2286
▁Kat	-12.2286
akov	-12.2287
▁Mario	-12.2294
▁helpless	-12.2298
▁carriage	-12.2298
▁Ig	-12.23
famous	-12.23
▁disturbing	-12.2307
▁hopeless	-12.2307
▁Bus	-12.231
▁Indus	-12.2311
▁converge	-12.2312
vice	-12.2312
▁rhetoric	-12.2315
ozo	-12.2316
▁enslav	-12.2319
▁Actor	-12.2323
▁arid	-12.2335
dding	-12.2337
▁clade	-12.2338
▁synthesize	-12.2338
▁Bayer	-12.2339
▁pine	-12.2339
▁depos	-12.2346
▁Domingo	-12.2346
▁delicate	-12.2346
▁hectare	-12.2346
▁posthumous	-12.2346
▁spectator	-12.2346
▁Slovak	-12.2346
▁cereal	-12.2346
▁dementia	-12.2346
▁Koran	-12.2346
▁Latino	-12.2346
▁rodent	-12.2347
▁geek	-12.2347
▁ooh	-12.2347
▁dung	-12.2348
▁OE	-12.2349
▁Dü	-12.2351
▁Amy	-12.2351
▁Blak	-12.2353
▁pul	-12.2355
▁ES	-12.236
FI	-12.236
▁Viol	-12.2373
▁nonviolen	-12.2373
▁arch	-12.2377
▁arthriti	-12.2377
▁absurd	-12.2383
▁Compar	-12.2384
▁Nap	-12.2388
▁centraliz	-12.2393
▁polite	-12.2394
▁rockets	-12.2397
▁paste	-12.2398
▁Browns	-12.2399
▁woods	-12.2399
▁Arabian	-12.24
▁CC	-12.2403
uction	-12.2405
ét	-12.2406
▁unpredictabl	-12.2407
▁Borde	-12.2411
▁encompasse	-12.2412
▁coincide	-12.2412
▁experimentation	-12.2414
▁ignit	-12.2416
▁convenience	-12.242
▁mourn	-12.242
▁crest	-12.242
▁resent	-12.242
▁peacekeep	-12.242
▁Ryan	-12.2421
▁backyard	-12.2421
▁Route	-12.2421
▁Sicil	-12.2422
minster	-12.2422
▁Barbara	-12.2424
ontemporar	-12.2426
▁mint	-12.2428
any	-12.2429
▁qui	-12.2434
▁advancement	-12.2438
▁vo	-12.2445
-19	-12.2448
limited	-12.245
▁mega	-12.2452
▁Rai	-12.2452
home	-12.2459
▁slipp	-12.2459
▁conven	-12.2461
▁Sale	-12.2465
▁Ski	-12.2466
master	-12.2474
▁connector	-12.2477
▁savanna	-12.2485
▁perfection	-12.2487
▁sculpt	-12.2491
▁Arn	-12.2492
LP	-12.2492
▁Himalaya	-12.2495
▁vigorous	-12.2495
▁Squadron	-12.2495
▁fourteen	-12.2495
▁tariff	-12.2495
▁Uncle	-12.2495
▁Gran	-12.2495
▁Zero	-12.2496
▁Devil	-12.2497
▁Marie	-12.2497
▁recurr	-12.2497
▁Sol	-12.25
▁thickness	-12.2502
▁geolog	-12.2502
▁sung	-12.2505
▁optimize	-12.2505
▁Laugh	-12.2512
án	-12.2514
imi	-12.2515
aiko	-12.2516
sensitive	-12.2516
elect	-12.2519
▁outlaw	-12.2519
▁stretche	-12.2519
▁deposition	-12.252
rising	-12.252
▁Drum	-12.2522
▁Historic	-12.2523
▁Gas	-12.2527
▁screaming	-12.2528
▁Pakistani	-12.2528
▁debi	-12.2529
DC	-12.2531
racula	-12.2539
▁homeland	-12.254
▁fertiliz	-12.2543
▁Franco	-12.2545
▁Tunisia	-12.2547
▁Kim	-12.2551
anach	-12.2561
▁bombard	-12.2562
▁circum	-12.2566
▁corpus	-12.257
▁granite	-12.257
▁redundan	-12.257
▁taxonom	-12.257
▁unacceptabl	-12.257
▁analyst	-12.257
▁Adventure	-12.257
▁ligand	-12.257
▁gig	-12.257
▁unofficial	-12.257
▁Trump	-12.257
▁registration	-12.2572
▁nerd	-12.2572
▁Leib	-12.2572
▁Brit	-12.2573
▁Diet	-12.2575
oma	-12.2575
▁humorous	-12.2575
▁endors	-12.2575
ometric	-12.2576
▁daylight	-12.2579
▁grocery	-12.2582
rak	-12.2586
▁lateral	-12.2586
▁Row	-12.2587
▁morpholog	-12.2588
▁spike	-12.2597
▁cha	-12.2598
▁glory	-12.26
▁miner	-12.2602
▁adhere	-12.2602
▁aspirin	-12.2603
uz	-12.2603
mberg	-12.2608
▁planner	-12.2608
▁450	-12.2608
▁Poet	-12.2613
▁rubb	-12.2613
▁grey	-12.2613
▁bounce	-12.2614
mark	-12.2614
▁inertia	-12.2624
mate	-12.2629
esla	-12.264
▁cleaner	-12.2642
▁Fact	-12.2644
▁qua	-12.2644
▁jack	-12.2645
▁Lieutenant	-12.2646
▁Macintosh	-12.2646
▁genomic	-12.2646
▁tectonic	-12.2646
▁Fleet	-12.2646
▁oyster	-12.2646
▁Combin	-12.2646
▁secession	-12.2646
▁Antioch	-12.2646
▁Population	-12.2646
▁moisture	-12.2646
▁abbot	-12.2646
▁reconciliation	-12.2646
▁Spence	-12.2646
▁Clay	-12.2646
▁EC	-12.2646
▁facade	-12.2646
▁1820	-12.2649
▁Aca	-12.265
▁prose	-12.2654
▁democratiz	-12.2657
aph	-12.2657
▁1600	-12.2658
terim	-12.2659
▁newborn	-12.2663
▁reasonabl	-12.2667
▁tagg	-12.2671
▁USD	-12.2673
▁yoursel	-12.2676
▁Johannes	-12.268
▁placement	-12.2681
bay	-12.2681
▁compose	-12.2684
▁Glass	-12.2685
▁flowering	-12.2686
▁metro	-12.2688
loo	-12.2693
nity	-12.2694
▁radi	-12.2694
rner	-12.2696
▁greet	-12.2705
▁martia	-12.2705
▁unite	-12.2708
▁Liberia	-12.2712
▁Lou	-12.2712
ennial	-12.272
▁amine	-12.2721
▁Kepler	-12.2722
▁Thursday	-12.2722
▁filament	-12.2722
▁kernel	-12.2722
▁serotonin	-12.2722
▁template	-12.2722
ijuana	-12.2722
▁ASL	-12.2722
▁amplitude	-12.2722
▁martyr	-12.2722
▁Akkad	-12.2722
▁Elephant	-12.2722
esteem	-12.2722
▁loot	-12.2723
▁innovator	-12.2724
▁shepherd	-12.2724
▁decent	-12.2725
▁dug	-12.2725
▁Hobbes	-12.2726
energy	-12.2726
antu	-12.2727
▁Norse	-12.2728
▁constructive	-12.2736
▁Hear	-12.2736
▁McCa	-12.2738
▁electro	-12.2738
▁sunk	-12.2739
▁allocat	-12.2739
▁unrest	-12.2743
▁fortifi	-12.2744
▁chat	-12.2744
phy	-12.2745
▁Mach	-12.2751
▁Rug	-12.2751
▁scare	-12.2752
▁Guide	-12.2754
▁Rain	-12.2755
▁professors	-12.2756
▁Rabbi	-12.2764
▁princess	-12.2765
▁Princes	-12.2765
▁obsession	-12.2766
▁wipe	-12.2769
rgon	-12.2769
▁unaware	-12.2774
minent	-12.2779
▁AIM	-12.2779
▁digg	-12.2779
▁128	-12.2781
▁stripped	-12.2784
gro	-12.2786
▁Step	-12.2788
▁amuse	-12.2789
▁conserv	-12.2789
▁Sapi	-12.2789
▁lips	-12.2791
▁Rey	-12.2792
▁staring	-12.2794
compatible	-12.2797
sson	-12.2797
▁Ner	-12.2797
▁Wonder	-12.2797
▁Comed	-12.2798
▁legitima	-12.2798
`	-12.2799
▁adolescence	-12.2799
▁bloom	-12.2799
▁incidence	-12.2799
▁mammoth	-12.2799
▁salamander	-12.2799
▁scroll	-12.2799
▁Support	-12.2799
▁Trojan	-12.2799
▁incarnation	-12.2799
▁Eviden	-12.2799
▁fec	-12.2799
▁vague	-12.2799
▁Discover	-12.28
▁Lavo	-12.28
▁discount	-12.28
▁optimization	-12.28
▁ballad	-12.2803
▁eruption	-12.2804
▁Lester	-12.2806
ruba	-12.2808
▁exponentially	-12.2808
▁demons	-12.2812
▁fog	-12.2814
▁sneaker	-12.2819
▁Hor	-12.282
▁20-	-12.2821
ova	-12.2828
▁fluoride	-12.2832
assembl	-12.2842
▁Rid	-12.2844
apping	-12.2845
▁aristocra	-12.2847
▁relieve	-12.2859
▁intersect	-12.286
▁Alg	-12.2863
▁buyer	-12.2872
asis	-12.2872
entagon	-12.2876
▁Bosnian	-12.2876
▁admire	-12.2876
▁Nixon	-12.2876
▁sparse	-12.2876
▁Study	-12.2876
▁diffuse	-12.2876
▁camouflage	-12.2876
▁Section	-12.2877
▁Atlas	-12.2877
▁anatomical	-12.2878
▁Atkins	-12.2879
▁Agent	-12.2879
▁Doom	-12.288
▁antigen	-12.2881
▁watt	-12.2881
ference	-12.2882
▁Opera	-12.2883
▁blockade	-12.2884
▁gener	-12.2888
▁housed	-12.2888
▁Hein	-12.2889
▁Ambros	-12.2892
▁educator	-12.2894
▁diocese	-12.2895
▁Alame	-12.2905
tree	-12.2907
▁Creat	-12.291
nom	-12.2914
composition	-12.2915
minary	-12.2916
▁nut	-12.2918
▁variance	-12.2921
▁hijack	-12.2922
▁Fre	-12.2922
▁switche	-12.2923
asca	-12.2928
▁Scots	-12.293
▁subt	-12.2938
emost	-12.2946
▁rider	-12.2949
▁triangula	-12.2949
▁Arno	-12.295
indh	-12.2954
rieg	-12.2954
▁Dolphin	-12.2954
▁Patriarch	-12.2954
▁blockchain	-12.2954
▁epoch	-12.2954
▁Disease	-12.2954
▁intricate	-12.2954
▁flopp	-12.2954
▁Popular	-12.2955
▁confusing	-12.2955
▁disband	-12.2955
▁vici	-12.2955
▁rite	-12.2956
▁braille	-12.2956
▁ballistic	-12.2958
▁token	-12.2958
▁Wire	-12.2958
▁bent	-12.2959
▁curry	-12.296
▁Yah	-12.2967
▁Rohr	-12.2967
▁Twin	-12.2972
▁ret	-12.2974
lage	-12.2976
statin	-12.2976
CB	-12.2977
menc	-12.2978
▁locomotive	-12.2984
solub	-12.2993
consistent	-12.2993
▁thermo	-12.2994
▁Pedr	-12.2994
▁Statistic	-12.2997
▁neo	-12.2999
cela	-12.2999
iath	-12.3006
annon	-12.3011
▁radial	-12.3011
▁Burt	-12.3013
ump	-12.3014
▁Pun	-12.3015
▁Willi	-12.3017
heid	-12.3018
▁plead	-12.3018
▁PT	-12.302
▁recreate	-12.3024
pus	-12.3026
▁divinit	-12.3027
▁retailer	-12.3028
▁governors	-12.3029
▁narrat	-12.303
▁Bit	-12.3031
▁Caucas	-12.3032
▁reflex	-12.3032
▁Fellow	-12.3033
▁Mumbai	-12.3033
▁annihilat	-12.3033
▁carbohydrate	-12.3033
▁iPad	-12.3033
▁mortar	-12.3033
▁relevanc	-12.3033
▁neuroscientist	-12.3033
▁Brandenburg	-12.3033
ailroad	-12.3033
▁erotic	-12.3033
▁Doroth	-12.3033
▁Glad	-12.3033
nowledge	-12.3033
▁Elector	-12.3034
▁classmate	-12.3034
▁Metro	-12.3034
▁quarterback	-12.3034
▁superpower	-12.3035
▁Lago	-12.3036
▁Mya	-12.3038
▁deviation	-12.304
▁rust	-12.304
▁Whig	-12.304
ussy	-12.3041
▁Airb	-12.3041
▁corona	-12.3042
tte	-12.3046
▁Ferr	-12.3048
PS	-12.305
AL	-12.3051
▁BBS	-12.3054
▁storyline	-12.3058
▁Tech	-12.306
25	-12.3064
operation	-12.3065
▁Mather	-12.3065
-40	-12.3068
▁invasive	-12.3069
▁alkane	-12.3072
shine	-12.3075
▁revert	-12.3076
▁Bris	-12.3082
anus	-12.3083
HO	-12.309
▁Philosoph	-12.3091
▁Care	-12.3092
ogen	-12.3097
▁AG	-12.3098
▁mac	-12.3105
▁Tac	-12.3108
▁30-	-12.3111
▁Presbyterian	-12.3113
▁Previous	-12.3113
▁archbishop	-12.3113
▁caution	-12.3113
▁introvert	-12.3113
▁irrelevan	-12.3113
▁militant	-12.3113
▁prolific	-12.3113
▁Amazing	-12.3113
▁conceal	-12.3113
▁olive	-12.3113
▁TEDTalk	-12.3113
▁Millenni	-12.3115
▁Pac	-12.3119
▁Gaza	-12.3122
▁remotely	-12.3134
▁148	-12.3136
utu	-12.314
▁imitate	-12.3147
▁warp	-12.315
.0	-12.3156
▁phosphate	-12.3158
ddar	-12.3158
▁Sear	-12.3159
▁blurr	-12.3162
▁nm	-12.3167
lature	-12.3168
care	-12.3173
▁Gai	-12.3179
▁Malt	-12.3182
▁oblig	-12.3184
▁Hamps	-12.3185
▁fi	-12.3186
FT	-12.3189
▁swap	-12.3189
▁auro	-12.3192
▁Mosquito	-12.3193
▁Writing	-12.3193
▁ambulance	-12.3193
▁sacrament	-12.3193
▁Pretty	-12.3193
▁celiba	-12.3193
▁uninten	-12.3193
▁pleasant	-12.3193
▁watershed	-12.3193
▁prefix	-12.3194
▁teammate	-12.3195
▁prosecution	-12.3197
▁generalize	-12.3199
▁Beta	-12.32
rassic	-12.3202
▁fade	-12.3205
▁nitr	-12.3207
guel	-12.3207
GO	-12.3208
▁1.5	-12.3209
ascar	-12.3209
▁placebo	-12.321
▁judg	-12.3214
▁validat	-12.3215
▁spy	-12.3216
▁Rub	-12.3221
▁Ring	-12.3222
erber	-12.3224
val	-12.3227
▁digesti	-12.3228
▁crosse	-12.3228
▁magne	-12.3229
▁rag	-12.3232
length	-12.3234
▁Ern	-12.3242
▁Bath	-12.3249
▁awake	-12.3251
▁grie	-12.3255
▁swor	-12.3256
▁ATA	-12.3257
unnel	-12.3258
▁wander	-12.3259
part	-12.3264
▁compass	-12.3268
ehind	-12.3272
▁boast	-12.3273
▁capsule	-12.3273
▁Owen	-12.3273
▁autistic	-12.3273
▁strive	-12.3273
▁Aleut	-12.3273
▁Virtual	-12.3273
▁decentraliz	-12.3273
▁Clair	-12.3274
▁Annual	-12.3274
▁stir	-12.3274
▁NCA	-12.3275
▁resemblance	-12.3275
▁Album	-12.3275
▁Lot	-12.3275
ristol	-12.3276
▁improvisation	-12.3276
▁caste	-12.3276
lash	-12.3277
▁fitting	-12.3277
▁Friedman	-12.3279
▁Vol	-12.328
▁distortion	-12.3281
▁motherboard	-12.3282
IN	-12.3283
▁chronicle	-12.3286
iscons	-12.3289
▁propeller	-12.329
▁inaugura	-12.3291
▁FIF	-12.3292
▁Guin	-12.3292
▁Sha	-12.3296
▁sticker	-12.3297
gua	-12.3299
▁Gius	-12.3299
▁FA	-12.3299
▁Mul	-12.3305
avian	-12.3308
print	-12.3308
kins	-12.331
▁IU	-12.3311
▁Olympia	-12.3311
▁batch	-12.3312
winning	-12.3314
▁Physical	-12.3315
social	-12.3317
▁interst	-12.3324
food	-12.3326
bra	-12.3328
▁Goal	-12.3331
▁asthma	-12.3339
▁debat	-12.334
▁memorabl	-12.334
▁121	-12.3344
▁char	-12.3346
▁Constan	-12.3347
▁Wins	-12.3349
ldi	-12.3351
▁Nuclear	-12.3354
▁Wednesday	-12.3354
▁catastrophe	-12.3354
▁pennant	-12.3354
▁quotient	-12.3354
▁Mahm	-12.3355
▁dipole	-12.3355
▁entail	-12.3355
▁Sky	-12.3355
▁Future	-12.3355
▁Saul	-12.3355
▁multipli	-12.3356
▁Decca	-12.3357
▁spa	-12.3357
bn	-12.3357
▁Laws	-12.3358
▁Room	-12.3358
▁passport	-12.3359
▁Rebe	-12.336
tega	-12.336
▁contingent	-12.3365
▁ranch	-12.3366
▁worldview	-12.3367
▁Marlboro	-12.3369
▁blessed	-12.3371
▁Diane	-12.3374
▁flags	-12.3376
▁Atlanti	-12.3383
mpress	-12.3385
▁storyteller	-12.3386
▁interven	-12.339
roclamation	-12.3396
▁ACE	-12.3401
▁Stand	-12.3403
▁racist	-12.3405
mple	-12.3407
▁Lisb	-12.342
▁Engine	-12.3421
▁prosecut	-12.3422
▁tele	-12.3423
▁Happ	-12.3435
▁circa	-12.3436
▁mortgage	-12.3436
▁protocell	-12.3436
▁wilderness	-12.3436
▁subdivid	-12.3436
▁query	-12.3437
dwig	-12.3437
▁sock	-12.3437
▁mural	-12.3437
▁biase	-12.3437
▁gym	-12.3437
▁Heath	-12.3437
▁Perform	-12.3437
▁hut	-12.3438
▁cyclist	-12.3438
▁Ice	-12.3438
▁Civilization	-12.3439
▁Arena	-12.344
▁audition	-12.344
election	-12.3442
▁doctorate	-12.3446
▁Sex	-12.3449
SP	-12.3449
▁offence	-12.3449
▁Block	-12.345
▁phonetic	-12.3453
▁modular	-12.3453
olds	-12.3455
▁clicks	-12.3462
otus	-12.3468
▁archaic	-12.3469
▁academ	-12.3476
▁orphan	-12.3479
▁Thor	-12.348
▁polls	-12.3481
leg	-12.3483
▁activis	-12.3487
vin	-12.3491
▁exercis	-12.3491
ante	-12.3493
▁mast	-12.3494
lley	-12.3495
▁harden	-12.3498
▁Working	-12.3508
stair	-12.351
▁congesti	-12.3511
▁Grey	-12.3512
emia	-12.3512
▁cyto	-12.3513
▁pollut	-12.3514
▁casual	-12.3515
▁Chancellor	-12.3519
▁Gabriel	-12.3519
▁MLB	-12.3519
▁Thousand	-12.3519
▁playwright	-12.3519
▁Kazakh	-12.3519
▁Magic	-12.3519
▁rib	-12.352
▁submission	-12.3522
▁convolution	-12.3523
▁phoneme	-12.3528
▁electronegativ	-12.3528
▁novelist	-12.3533
▁Mack	-12.3535
▁collar	-12.3544
ldred	-12.3544
▁warship	-12.3551
▁Personal	-12.3555
ovsk	-12.3555
▁fundrais	-12.3555
▁nun	-12.3555
▁Rich	-12.3558
▁Physic	-12.3558
▁kits	-12.3565
three	-12.3572
▁Walt	-12.3573
▁Gale	-12.3576
▁delicio	-12.3577
drop	-12.3578
▁cyclic	-12.3579
▁tipp	-12.358
cardi	-12.358
▁Blu	-12.3584
pen	-12.3585
▁intern	-12.359
arro	-12.3599
asha	-12.36
▁vertebra	-12.3601
▁portal	-12.3601
}	-12.3602
▁Loyalist	-12.3602
▁antioxidant	-12.3602
▁intimacy	-12.3602
▁lieutenant	-12.3602
▁pervasive	-12.3602
▁pneumonia	-12.3602
▁recount	-12.3602
▁Habsburg	-12.3602
▁boomerang	-12.3602
▁Broadcast	-12.3602
▁Grammy	-12.3602
▁conscience	-12.3603
▁Quix	-12.3603
▁Galax	-12.3603
▁reintroduc	-12.3603
▁corpse	-12.3604
▁Archaeolog	-12.3604
▁disappointment	-12.3604
▁iceberg	-12.3604
▁connectome	-12.3604
▁deception	-12.3605
▁GM	-12.3605
▁Ecuadorian	-12.3607
▁Oriental	-12.3608
▁undermine	-12.3608
▁rack	-12.3612
▁Hay	-12.3614
▁eject	-12.3615
▁fails	-12.3615
▁Maxim	-12.3617
▁Kenne	-12.3619
▁UE	-12.3621
uda	-12.3623
▁MK	-12.3624
▁worsen	-12.3624
▁oracle	-12.3625
▁Ell	-12.363
▁Luk	-12.3632
late	-12.3636
▁morally	-12.3637
▁interchangeabl	-12.3638
▁Fine	-12.3638
▁CI	-12.3646
▁widen	-12.3646
iah	-12.3648
▁commune	-12.365
cover	-12.3653
▁Alb	-12.3654
irk	-12.3655
▁symmetric	-12.3656
▁conceive	-12.3657
egal	-12.3657
▁coating	-12.3659
▁emulate	-12.3659
gow	-12.366
▁pp	-12.3661
▁pronoun	-12.3662
▁Derr	-12.3667
▁creditor	-12.3674
▁skip	-12.3684
▁spear	-12.3686
▁abrupt	-12.3686
▁chalk	-12.3686
▁cytoplasm	-12.3686
▁diacritic	-12.3686
▁repetitive	-12.3686
▁preli	-12.3686
▁mutilat	-12.3687
▁Geno	-12.3689
▁Holland	-12.3693
▁trench	-12.3693
▁empowerment	-12.3694
▁inflict	-12.3698
▁Clar	-12.3701
▁Institution	-12.3702
▁overlapp	-12.3703
▁canton	-12.3703
▁misuse	-12.3705
▁longe	-12.3721
▁Eden	-12.3721
▁RCA	-12.3722
▁apost	-12.3723
natural	-12.3735
tail	-12.3736
▁Page	-12.3737
ieri	-12.3739
▁Researcher	-12.3739
reach	-12.3739
▁Tang	-12.3739
▁stereo	-12.3747
▁Jet	-12.3749
ural	-12.3749
▁capacit	-12.3756
erot	-12.3756
▁cookie	-12.3756
▁dams	-12.376
▁Duch	-12.3764
▁Griffi	-12.3766
▁16-	-12.3768
Abdu	-12.3771
▁bipedal	-12.3771
▁Circle	-12.3771
▁crankshaft	-12.3771
▁pepper	-12.3771
▁perceptual	-12.3771
▁primordial	-12.3771
▁turret	-12.3771
▁artisan	-12.3771
▁excret	-12.3771
▁Corsica	-12.3771
▁miniature	-12.3771
▁carving	-12.3771
▁fauna	-12.3771
▁concession	-12.3772
▁Electron	-12.3772
pulc	-12.3772
▁Rush	-12.3772
▁veil	-12.3772
▁Relations	-12.3772
▁Wide	-12.3774
▁Hawaiian	-12.3775
▁Drex	-12.3775
▁Orwell	-12.3776
▁urbanization	-12.3778
▁republican	-12.3778
▁Birth	-12.378
atti	-12.3782
disproportionate	-12.3782
▁amplifier	-12.3784
▁Mak	-12.3784
tag	-12.3785
building	-12.3785
cci	-12.3789
▁conservat	-12.3793
▁coache	-12.3796
▁Nazis	-12.38
▁orchestral	-12.3801
▁flap	-12.3802
▁Hills	-12.3802
▁Nord	-12.381
bane	-12.3812
▁graphical	-12.3816
unity	-12.3818
▁Mrs	-12.3821
▁Aberd	-12.3836
▁recreation	-12.3841
▁Bad	-12.3843
▁compost	-12.3846
thanasia	-12.3846
dorf	-12.385
▁Vinc	-12.385
▁humiliat	-12.3852
▁catalog	-12.3855
▁Bitcoin	-12.3857
▁Covenant	-12.3857
▁Essential	-12.3857
▁Lombard	-12.3857
▁Riemann	-12.3857
▁alkaloid	-12.3857
▁bureaucrac	-12.3857
▁consecrat	-12.3857
▁disintegrat	-12.3857
▁disparit	-12.3857
▁kilometre	-12.3857
▁supernova	-12.3857
▁unleash	-12.3857
▁mercenar	-12.3857
▁nasty	-12.3857
▁Source	-12.3857
▁waist	-12.3857
▁swarm	-12.3857
▁Fernand	-12.3857
▁stare	-12.3858
▁boycott	-12.3858
▁Principle	-12.3858
▁Marxist	-12.3858
▁reservation	-12.3859
▁oak	-12.3859
▁temptation	-12.3859
rock	-12.3861
▁stratospher	-12.3862
▁carrot	-12.3862
▁Bai	-12.3862
▁allocation	-12.3863
▁Arct	-12.3864
ibility	-12.3867
▁Emer	-12.3868
▁hypothesize	-12.387
▁fond	-12.3871
hel	-12.3872
shape	-12.3875
VA	-12.3876
inium	-12.3878
▁inscribe	-12.3889
mnest	-12.3894
▁cite	-12.3896
▁traumatic	-12.3904
▁reconcile	-12.3906
▁lure	-12.3907
▁ANS	-12.391
publish	-12.391
mail	-12.3916
▁Fat	-12.3916
abinet	-12.3919
▁Scandinavia	-12.392
▁Flo	-12.3923
▁Carm	-12.3924
acle	-12.3925
▁Somali	-12.3926
▁wandering	-12.3926
▁SW	-12.3926
▁broadcaster	-12.3927
▁Rican	-12.393
▁Aene	-12.393
rill	-12.3937
▁Diab	-12.3941
▁Speed	-12.3942
▁Mik	-12.3942
▁Umayyad	-12.3943
▁ambien	-12.3943
▁covenant	-12.3943
▁idiot	-12.3943
▁nickel	-12.3943
▁quark	-12.3943
▁unequal	-12.3943
▁unreliab	-12.3943
▁Adult	-12.3943
▁staircase	-12.3943
▁garment	-12.3943
▁bucket	-12.3943
▁Paper	-12.3943
▁Latter	-12.3944
▁Ukrainian	-12.3945
▁hierarchical	-12.3945
alf	-12.3945
▁Belarusian	-12.3945
▁Angu	-12.3946
▁backbone	-12.3947
▁planting	-12.3948
ullah	-12.3948
▁Wend	-12.3949
▁Salvadoran	-12.3949
▁excellence	-12.3956
▁Zo	-12.3958
▁resilien	-12.3961
romatic	-12.3961
▁Caliph	-12.3963
owing	-12.3967
▁wow	-12.3971
AP	-12.3971
▁duo	-12.3971
▁Archi	-12.3971
aver	-12.3972
▁Ye	-12.3973
surrection	-12.3976
▁Tark	-12.3976
▁worshipp	-12.3979
▁Harve	-12.398
▁fer	-12.3981
▁Teacher	-12.3986
▁prostituti	-12.3987
word	-12.3988
▁clutch	-12.399
▁learner	-12.3994
▁CR	-12.3996
keep	-12.3997
amine	-12.3999
▁Organ	-12.4
▁Inca	-12.4004
▁banner	-12.4005
▁Clause	-12.4008
▁Chen	-12.4017
etal	-12.4018
LC	-12.4019
version	-12.402
string	-12.402
orium	-12.4023
▁vacan	-12.4029
▁abolition	-12.4029
angelo	-12.403
▁Lockheed	-12.403
▁benign	-12.403
▁plutonium	-12.403
▁serpent	-12.403
▁emblem	-12.403
▁ultrasound	-12.403
▁chromatograph	-12.403
▁pornograph	-12.403
▁Cathar	-12.403
-130	-12.403
▁residual	-12.403
▁Montana	-12.403
▁bilateral	-12.403
▁righteous	-12.4031
▁gigant	-12.4031
▁Fear	-12.4031
▁blueprint	-12.4031
▁Chaos	-12.4032
▁liabilit	-12.4033
▁Maritime	-12.4034
national	-12.4035
▁rub	-12.4037
▁Briton	-12.4037
▁gr	-12.4038
ulu	-12.4042
▁robber	-12.4042
parte	-12.4043
eisel	-12.4045
▁fret	-12.4052
▁enthusiast	-12.406
▁offend	-12.406
aque	-12.406
▁recorder	-12.4061
EA	-12.4063
▁Aime	-12.4064
ada	-12.4064
flux	-12.4066
▁arbitrat	-12.407
▁badge	-12.4071
iffe	-12.4074
▁Rap	-12.4076
avail	-12.4077
▁competent	-12.4079
▁DR	-12.408
▁Gross	-12.408
▁24-	-12.4081
▁torn	-12.4084
specific	-12.4086
negative	-12.4087
sleep	-12.4088
▁devote	-12.4092
▁institut	-12.4094
▁Gab	-12.4101
▁Malay	-12.4101
▁dam	-12.4111
▁postulate	-12.4111
▁Mari	-12.4111
▁Jose	-12.4112
▁vascular	-12.4113
{	-12.4118
▁Reconstruction	-12.4118
▁disastrous	-12.4118
▁surname	-12.4118
▁unpleasant	-12.4118
▁aberration	-12.4118
▁platinum	-12.4118
▁curtain	-12.4118
▁Selig	-12.4118
▁Mauri	-12.412
▁Cloud	-12.412
▁flare	-12.412
▁lip	-12.4121
▁villain	-12.4122
▁Toward	-12.4122
▁lime	-12.4123
▁feudal	-12.4124
▁Eu	-12.4126
▁Rachel	-12.4126
▁dismantl	-12.4127
ano	-12.4129
▁baseline	-12.413
▁advise	-12.4132
▁reus	-12.4137
▁forbid	-12.4138
▁rage	-12.4141
▁Cycl	-12.4141
▁Macedonian	-12.4146
▁adrenal	-12.4147
▁Aston	-12.4149
▁mindful	-12.415
▁awe	-12.4151
▁polariz	-12.4151
▁candy	-12.4153
lese	-12.4155
▁observable	-12.4156
▁alienat	-12.4157
OR	-12.4158
▁propulsi	-12.4159
▁relational	-12.4161
▁ascribe	-12.4162
▁recit	-12.4163
▁Derri	-12.4165
▁tomato	-12.4166
▁Pier	-12.4173
ME	-12.4174
mann	-12.4175
shift	-12.4175
brick	-12.4178
RS	-12.418
III	-12.4181
▁cru	-12.4181
▁Adria	-12.4183
▁Set	-12.4195
▁ingest	-12.4198
▁mic	-12.4203
▁Globe	-12.4206
▁Jaguar	-12.4206
▁cassette	-12.4206
▁exquisite	-12.4206
▁superficial	-12.4206
▁Boöt	-12.4206
▁actinide	-12.4206
▁paragraph	-12.4206
▁sympathetic	-12.4206
▁relegat	-12.4206
▁coincidence	-12.4206
▁gorgeous	-12.4207
▁catalogue	-12.4207
▁notebook	-12.4207
▁litter	-12.4208
▁cellphone	-12.4209
▁MT	-12.4212
▁mash	-12.4213
▁Cruz	-12.4214
▁gateway	-12.4216
▁outnumber	-12.4217
▁studios	-12.4218
▁Close	-12.4218
▁overflow	-12.4219
▁Mali	-12.4223
▁Table	-12.4223
▁motorway	-12.4223
▁retract	-12.4223
▁investigator	-12.4223
▁12-	-12.4225
▁crocodile	-12.4225
▁favorabl	-12.4226
graph	-12.4241
▁Mat	-12.4245
OC	-12.4256
▁Pack	-12.4257
esc	-12.4259
▁Buck	-12.426
▁kite	-12.4261
▁patien	-12.4262
uta	-12.4264
▁poke	-12.4269
▁recurren	-12.4271
▁ci	-12.4272
iable	-12.4275
▁Sandy	-12.4279
inary	-12.4281
▁Proto	-12.4293
▁prefixe	-12.4293
▁Consumer	-12.4295
▁Innovation	-12.4295
▁Spaniard	-12.4295
▁sulfate	-12.4295
▁Vladi	-12.4295
▁Bolshevik	-12.4295
▁ivory	-12.4295
▁crane	-12.4295
▁aperture	-12.4295
▁bolt	-12.4295
▁cohesi	-12.4295
▁Freud	-12.4295
▁reopen	-12.4296
▁Boole	-12.4296
▁bachelor	-12.4296
▁protester	-12.4296
▁fortification	-12.4297
▁fringe	-12.4298
▁Brig	-12.4298
▁swear	-12.4303
▁bitum	-12.4306
▁rhyme	-12.4306
▁mysteri	-12.431
▁upstream	-12.4316
▁expressive	-12.4316
istine	-12.4316
ppen	-12.4319
▁heredit	-12.432
▁byproduct	-12.4321
▁Farmer	-12.4325
ucer	-12.4329
▁Semi	-12.433
▁meaningless	-12.4331
▁virtu	-12.4332
▁rum	-12.4333
ption	-12.4335
breaking	-12.4341
▁Fun	-12.4348
enter	-12.4349
▁Beer	-12.4351
▁EP	-12.4352
▁temper	-12.4354
▁Broad	-12.4355
▁cultivate	-12.4355
▁Read	-12.4357
AT	-12.4359
▁Bac	-12.4364
NFC	-12.4365
▁118	-12.4366
wick	-12.4367
▁Pur	-12.4368
▁Sebastia	-12.4369
housi	-12.4374
▁Mail	-12.4376
▁directive	-12.4379
▁Archaeo	-12.4384
▁caregiver	-12.4385
▁dyslexi	-12.4385
▁esoteric	-12.4385
▁evangelical	-12.4385
▁extremist	-12.4385
▁grizzl	-12.4385
▁leisure	-12.4385
▁plunder	-12.4385
▁unfamiliar	-12.4385
▁vegetarian	-12.4385
▁episcopa	-12.4385
▁Evangelical	-12.4385
▁reinstate	-12.4385
▁Woll	-12.4385
▁Rudol	-12.4385
▁jacket	-12.4386
▁Pirate	-12.4386
▁qualitative	-12.4386
▁Benedictine	-12.4387
▁Schwe	-12.4387
▁Marvel	-12.4387
▁CN	-12.4387
▁screenplay	-12.4388
▁1.2	-12.439
▁prox	-12.4391
▁Camu	-12.4391
▁beast	-12.4394
▁inward	-12.4395
▁Palma	-12.4397
▁adherent	-12.4398
▁freeway	-12.4398
hims	-12.44
mara	-12.4403
▁redevelop	-12.4403
kel	-12.4403
mnon	-12.4405
▁awaken	-12.4411
orus	-12.4413
▁theft	-12.4414
pirac	-12.4417
▁reuse	-12.4419
▁violate	-12.4419
▁vertic	-12.4422
lva	-12.4423
▁biologically	-12.4428
▁invok	-12.4429
▁agar	-12.4429
▁imitat	-12.4432
▁vibrat	-12.4434
▁Gray	-12.4434
▁Mes	-12.4436
▁companions	-12.4445
▁Author	-12.4448
elief	-12.4448
▁Laur	-12.4449
▁Cru	-12.445
release	-12.4452
▁Birds	-12.4453
furt	-12.4456
▁Cam	-12.4457
▁specifie	-12.4459
EM	-12.446
▁recognise	-12.446
▁nationally	-12.4461
16	-12.4464
▁giver	-12.4467
▁JC	-12.4467
▁DP	-12.4475
▁flour	-12.4476
▁circus	-12.4476
▁Edmund	-12.4476
▁Faith	-12.4476
▁Fifty	-12.4476
▁Voyage	-12.4476
▁mangrove	-12.4476
▁pseudonym	-12.4476
▁transcrib	-12.4476
Jazz	-12.4476
extraterrestrial	-12.4476
▁pancrea	-12.4477
▁Abbot	-12.4477
nold	-12.4477
▁biosphere	-12.4477
▁dissent	-12.4477
weh	-12.4477
▁blanket	-12.4477
▁converse	-12.4477
▁Monteverd	-12.4478
▁mustache	-12.4479
▁recursive	-12.448
▁Dune	-12.448
▁attendant	-12.4481
pago	-12.4481
▁imitation	-12.4481
eller	-12.4482
exist	-12.4482
▁Luis	-12.4483
▁Eo	-12.4484
▁Rat	-12.4488
▁Truth	-12.4495
ani	-12.4496
ML	-12.4497
▁Sport	-12.4498
▁hostage	-12.45
▁teen	-12.4503
▁Aster	-12.4509
▁pod	-12.451
pac	-12.4511
acea	-12.4512
▁borrowing	-12.4514
▁timeline	-12.452
▁Architectur	-12.4525
▁gentl	-12.4537
▁Factor	-12.4539
resolution	-12.4541
▁KB	-12.4541
▁Cher	-12.4541
positive	-12.4541
fiction	-12.4542
▁Bard	-12.4554
▁Protect	-12.4555
final	-12.4555
▁comprehensi	-12.4559
▁Pal	-12.4561
▁frighten	-12.4562
▁Mil	-12.4563
spiration	-12.4564
NT	-12.4566
▁straw	-12.4566
▁Concert	-12.4568
▁Instrument	-12.4568
▁Occasional	-12.4568
▁coconut	-12.4568
▁conjugate	-12.4568
▁plaster	-12.4568
▁bassoon	-12.4568
▁fatigue	-12.4568
▁Emergenc	-12.4568
▁Satan	-12.4568
▁Soldier	-12.4568
▁unify	-12.4568
▁carboxyl	-12.4568
▁Private	-12.4568
▁verge	-12.4569
▁Palm	-12.4571
▁Ridge	-12.4572
▁semina	-12.4572
▁insulat	-12.4573
▁veto	-12.4574
terti	-12.4574
▁courageous	-12.4574
▁masculine	-12.4574
▁Islamist	-12.4575
▁octave	-12.4576
▁laz	-12.4578
▁boo	-12.4578
▁mansion	-12.4579
acci	-12.4584
▁Met	-12.4584
▁modulat	-12.4586
▁alteration	-12.4587
▁budd	-12.4588
ggio	-12.4589
▁antipsychotic	-12.4594
▁divisib	-12.4594
▁Qing	-12.4595
▁rehabilitat	-12.4596
produc	-12.4598
RM	-12.46
▁Sey	-12.4604
▁uni	-12.4607
▁preacher	-12.4608
load	-12.4611
ender	-12.4615
▁Got	-12.4616
▁Algerian	-12.4617
▁nois	-12.4622
▁moderat	-12.4628
▁conditional	-12.4628
walk	-12.4633
▁Wy	-12.4635
▁Romanian	-12.4638
SR	-12.4646
▁Mall	-12.4649
▁Barne	-12.4651
▁Ag	-12.4655
▁posit	-12.4655
▁Genev	-12.4659
itis	-12.466
▁Nintendo	-12.4661
▁Punjab	-12.4661
▁elbow	-12.4661
▁phylogenetic	-12.4661
▁neurogenesis	-12.4661
▁gaze	-12.4661
▁acetyl	-12.4661
▁boson	-12.4661
▁psychopath	-12.4661
▁dragonfl	-12.4661
▁denominator	-12.4661
▁harassment	-12.4662
▁liar	-12.4663
▁bombardment	-12.4663
▁depressive	-12.4664
▁devotion	-12.4666
actic	-12.4666
▁Sister	-12.4667
▁Anabaptist	-12.4669
▁outlin	-12.4673
▁Banda	-12.4676
risk	-12.4677
▁siz	-12.4678
▁toast	-12.468
▁apprentice	-12.4681
▁unwa	-12.4683
▁oven	-12.4683
ectar	-12.4684
▁Him	-12.4693
zig	-12.4695
▁141	-12.47
▁Nur	-12.4705
▁artificially	-12.4707
▁Stevens	-12.471
▁Eritrean	-12.4713
▁Cran	-12.4715
▁05	-12.4715
▁frustrating	-12.472
anyon	-12.472
▁eco	-12.4723
▁irrigat	-12.4727
▁Mob	-12.4728
▁Barb	-12.4728
market	-12.4729
▁Kra	-12.4729
Hungarian	-12.473
▁CER	-12.4733
purpose	-12.4733
▁dictate	-12.4734
▁squeeze	-12.4735
▁jets	-12.4738
▁reminder	-12.4739
rez	-12.474
▁underestimate	-12.4743
▁feud	-12.4747
▁slate	-12.4749
▁compatib	-12.475
▁dimensional	-12.4751
▁tempt	-12.4751
biotic	-12.4752
▁Carava	-12.4754
▁fountain	-12.4754
▁litigation	-12.4754
▁microprocessor	-12.4754
▁Garcia	-12.4754
▁queue	-12.4754
▁Chemist	-12.4754
▁Legend	-12.4754
▁repris	-12.4754
▁squid	-12.4754
▁concurrent	-12.4754
▁bilingual	-12.4754
▁Primar	-12.4754
▁Morning	-12.4755
▁ozone	-12.4755
▁Left	-12.4756
▁Pyth	-12.4756
▁sunset	-12.4756
▁stronghold	-12.4756
generat	-12.4757
▁flatten	-12.4758
▁Few	-12.476
▁deport	-12.4763
▁Hanna	-12.4764
▁morphological	-12.4766
▁unsee	-12.4766
apped	-12.4767
apest	-12.4768
▁revive	-12.4769
ado	-12.4769
DE	-12.4772
▁tan	-12.4773
drawn	-12.4775
▁Friends	-12.4776
oul	-12.4777
hov	-12.4778
parable	-12.4778
effective	-12.4779
▁Save	-12.478
▁projector	-12.4781
▁concubine	-12.4782
▁Face	-12.4782
▁lik	-12.4784
▁supersede	-12.4786
▁aspirat	-12.4787
▁Neo	-12.4788
▁650	-12.4791
▁peptide	-12.4792
▁Digi	-12.4793
LA	-12.4798
▁Liv	-12.4803
SI	-12.4807
▁slit	-12.4811
▁sensibl	-12.4816
▁Char	-12.4816
▁divorc	-12.4816
▁Tak	-12.4817
▁withstand	-12.4817
ately	-12.4818
chrom	-12.4818
▁organizer	-12.4821
▁paralys	-12.4821
▁assure	-12.4822
skirt	-12.4824
nutrition	-12.4824
▁Winds	-12.4824
distance	-12.4824
▁behav	-12.4826
▁dare	-12.4826
▁Mode	-12.4827
▁Tel	-12.4828
▁Eri	-12.4829
▁Cell	-12.4831
kos	-12.484
▁embarrass	-12.4841
▁exempt	-12.4844
▁Kai	-12.4844
▁Bird	-12.4846
▁predat	-12.4847
▁blob	-12.4848
▁remittance	-12.4848
▁ribbon	-12.4848
▁invariabl	-12.4848
▁Simpson	-12.4849
▁alkene	-12.4849
▁acronym	-12.4849
▁supersonic	-12.4849
▁Androni	-12.4849
▁lamps	-12.4849
blanc	-12.485
mbled	-12.485
▁orthograph	-12.485
olonel	-12.485
▁Sunni	-12.485
▁Writer	-12.4852
▁Eye	-12.4853
▁Redwood	-12.4854
▁regeneration	-12.4856
▁Hayd	-12.4856
▁Div	-12.4856
▁mammalian	-12.4857
beth	-12.4859
▁conferr	-12.4861
▁1700	-12.4861
▁novelty	-12.4863
▁terminate	-12.4869
rise	-12.4871
▁lotter	-12.4872
▁Hai	-12.4874
▁bromin	-12.4875
▁reg	-12.4875
▁Hug	-12.4875
▁Gott	-12.4882
lar	-12.4885
▁dedication	-12.4886
▁procession	-12.4888
built	-12.4891
▁Bavarian	-12.4893
▁Ward	-12.4897
▁perpetu	-12.4904
▁Access	-12.4904
▁Politic	-12.4905
▁Casi	-12.4907
▁Gib	-12.4908
page	-12.4909
▁sponge	-12.4909
▁eclipse	-12.4911
▁domino	-12.4914
reason	-12.4918
folk	-12.492
General	-12.492
week	-12.492
▁bon	-12.4926
▁avatar	-12.4928
▁UC	-12.4929
nfantry	-12.4929
▁witnesse	-12.4929
atomic	-12.4934
▁McG	-12.4934
▁beard	-12.4939
▁imperfect	-12.4939
asketball	-12.4942
▁customiz	-12.4943
oalition	-12.4943
▁Copernic	-12.4944
▁Cochran	-12.4944
▁Junior	-12.4944
▁Nikola	-12.4944
▁Strateg	-12.4944
▁fuzz	-12.4944
▁nominee	-12.4944
▁Visual	-12.4944
▁garner	-12.4944
▁Cotton	-12.4944
▁graffiti	-12.4944
▁homicide	-12.4944
ília	-12.4944
Crisis	-12.4944
▁chronological	-12.4944
▁outfit	-12.4944
▁satire	-12.4945
▁redefine	-12.4945
▁fluent	-12.4945
▁bankrupt	-12.4945
▁rover	-12.4946
▁Kö	-12.4946
▁proliferation	-12.4946
adesh	-12.4946
▁sect	-12.4946
▁paternal	-12.4947
▁Product	-12.4947
▁vaccination	-12.4947
ranch	-12.4948
front	-12.4948
▁Jesuit	-12.4949
▁Brab	-12.4949
▁Haitian	-12.4949
▁Bryan	-12.495
▁Drive	-12.495
▁tailor	-12.4956
enzie	-12.496
▁Myster	-12.496
▁Seventh	-12.496
meth	-12.4961
▁Boi	-12.4969
▁skirt	-12.4969
▁Andrea	-12.497
▁biochemistr	-12.4971
hat	-12.4978
▁Spin	-12.498
▁assured	-12.4981
▁NT	-12.4981
▁Canar	-12.4984
TO	-12.4985
elli	-12.4986
▁Dew	-12.4989
obb	-12.4991
▁specialis	-12.4991
phasi	-12.4996
▁Interesting	-12.4997
▁Coal	-12.4999
▁IC	-12.4999
▁smuggl	-12.5005
▁credi	-12.5005
▁Cambodian	-12.5009
▁8-	-12.501
▁Powers	-12.5014
▁Officer	-12.5016
secure	-12.5018
▁basal	-12.502
▁dim	-12.5021
kar	-12.5022
▁Ric	-12.5023
nted	-12.503
▁photographic	-12.5031
plane	-12.5034
▁undermin	-12.5035
▁inert	-12.5037
▁prescribe	-12.5039
▁compartment	-12.504
▁cumulative	-12.504
▁diagonal	-12.504
▁nucleotide	-12.504
▁polyhedr	-12.504
▁scrutin	-12.504
▁Béz	-12.504
▁Fleming	-12.504
▁Quarter	-12.504
▁halide	-12.504
▁cartilag	-12.504
▁gait	-12.504
▁barrister	-12.504
▁ravag	-12.504
▁fibro	-12.504
▁Adventist	-12.504
▁pollutant	-12.504
▁dhole	-12.5041
▁Pike	-12.5041
▁Toulo	-12.5041
▁Viva	-12.5041
mart	-12.5041
▁osteo	-12.5041
icillin	-12.5042
▁Terror	-12.5042
▁147	-12.5043
doba	-12.5044
▁curva	-12.5045
▁humiliation	-12.5045
▁Mauriti	-12.5046
▁flush	-12.5048
▁booth	-12.5051
▁accelerator	-12.5052
▁conductiv	-12.5054
▁inhal	-12.5056
aki	-12.5057
▁affection	-12.5059
ET	-12.506
▁Sylvi	-12.506
▁Bug	-12.5065
▁Bona	-12.5066
▁Mood	-12.5068
▁divert	-12.5069
▁fairy	-12.5069
Chapel	-12.5074
▁BA	-12.5077
▁reproduc	-12.5078
▁Ferma	-12.508
osphere	-12.5084
▁Statistical	-12.5085
▁Abi	-12.5088
educat	-12.5089
▁averag	-12.509
▁Salt	-12.5093
▁vibrate	-12.5094
▁substitut	-12.5096
▁132	-12.5103
▁digitiz	-12.5106
ilwa	-12.5107
▁surf	-12.5108
apolis	-12.5109
bati	-12.5113
▁reliev	-12.5113
disciplinar	-12.5115
▁hacker	-12.5117
▁slid	-12.5122
▁Speak	-12.5124
▁Sali	-12.5125
ature	-12.5126
▁chick	-12.5134
▁configur	-12.5134
▁Bubble	-12.5137
▁Okinawa	-12.5137
▁antagonist	-12.5137
▁confiscat	-12.5137
▁lexical	-12.5137
▁punctuat	-12.5137
▁Uzbek	-12.5137
▁clarify	-12.5137
▁hydraulic	-12.5137
▁LGBT	-12.5137
▁courtyard	-12.5137
▁filing	-12.5137
▁pilgrimage	-12.5138
▁proclamation	-12.5138
▁pardon	-12.5138
▁utilit	-12.5138
▁Edition	-12.5138
▁Cyber	-12.5138
▁stalk	-12.5139
jev	-12.5139
▁Image	-12.514
▁Cadi	-12.5141
▁rehearsal	-12.5141
▁herald	-12.5141
▁Pon	-12.5143
▁moist	-12.5143
lready	-12.5144
▁sincere	-12.5144
▁deadline	-12.5145
▁decorati	-12.5148
▁neutrino	-12.5148
▁Rahm	-12.515
▁disappoint	-12.5151
▁inappropriate	-12.5152
then	-12.5154
▁Lancast	-12.5155
▁verna	-12.5156
▁quotation	-12.5157
cid	-12.5157
ulate	-12.5159
▁witch	-12.5161
▁moderately	-12.5162
▁Programme	-12.5168
rahim	-12.5171
▁eclip	-12.5171
unch	-12.5173
▁stitch	-12.5173
etti	-12.5175
▁scaled	-12.5181
▁combinatori	-12.5181
▁Mol	-12.5187
▁134	-12.5188
▁Understand	-12.519
▁systemic	-12.5191
▁nurs	-12.5191
▁environmentally	-12.5195
bart	-12.5196
▁Hour	-12.5198
dell	-12.5199
▁curse	-12.5203
phone	-12.5205
NG	-12.5206
▁Thorn	-12.521
▁Tin	-12.5211
▁Religio	-12.5212
mitt	-12.5216
utonomous	-12.5221
▁109	-12.5224
▁Fur	-12.5226
delai	-12.5226
▁Rif	-12.523
enous	-12.5232
tine	-12.5233
▁Borne	-12.5233
▁Kath	-12.5234
egitimate	-12.5235
▁tyrann	-12.5235
▁Wagner	-12.5235
▁mosaic	-12.5235
▁sequential	-12.5235
▁tuition	-12.5235
▁unwilling	-12.5235
▁piston	-12.5235
▁verify	-12.5235
▁Toyota	-12.5235
▁Question	-12.5235
▁instantaneous	-12.5235
▁Engel	-12.5235
▁Help	-12.5235
▁insecticide	-12.5235
▁charisma	-12.5235
▁cleric	-12.5235
▁subdivision	-12.5235
▁pluck	-12.5236
▁Queensland	-12.5236
▁geologist	-12.5236
▁chorus	-12.5237
nits	-12.5239
▁Nair	-12.5239
▁livelihood	-12.524
▁guardian	-12.524
▁conspir	-12.5241
haus	-12.5242
▁intra	-12.5243
▁moor	-12.5244
PM	-12.5246
▁Protecti	-12.5248
▁Argentine	-12.5256
▁Rise	-12.5259
▁gras	-12.5261
▁margins	-12.5262
▁cheek	-12.5268
genesis	-12.5271
orta	-12.5272
▁dough	-12.5274
▁abusi	-12.5275
▁patche	-12.5276
▁106	-12.5278
lander	-12.5284
▁Jain	-12.5291
▁closet	-12.5294
▁stag	-12.5295
clamation	-12.5295
▁mitigate	-12.5296
DR	-12.5299
NN	-12.5301
▁Lamb	-12.5302
number	-12.5303
▁Greg	-12.5307
guard	-12.5313
quarter	-12.5314
capable	-12.5314
▁Grove	-12.5315
▁Mayan	-12.5317
GM	-12.5319
phis	-12.5319
▁epi	-12.532
GS	-12.5323
▁patholog	-12.5325
▁Origin	-12.5329
▁terrif	-12.5333
▁Adolf	-12.5334
▁Attorney	-12.5334
▁Sumerian	-12.5334
▁Venetian	-12.5334
▁avenue	-12.5334
▁dissatisf	-12.5334
▁umbrella	-12.5334
▁clown	-12.5334
▁carcass	-12.5334
▁Antigua	-12.5334
▁multitask	-12.5334
▁bracket	-12.5334
▁submerge	-12.5334
▁expir	-12.5334
▁Qatar	-12.5335
▁pearl	-12.5335
▁dagger	-12.5335
▁McDonald	-12.5335
▁westward	-12.5335
▁favourite	-12.5336
▁northward	-12.5336
▁Getty	-12.5337
▁Canon	-12.5339
▁EFT	-12.5339
▁apostle	-12.5339
▁delete	-12.5339
▁Notabl	-12.5342
▁TR	-12.5343
▁commute	-12.5343
▁allele	-12.5344
▁magician	-12.5344
▁Dock	-12.5346
▁alga	-12.5348
▁appliance	-12.5349
▁admiral	-12.5353
edge	-12.5354
▁9,000	-12.5356
▁Dear	-12.5358
▁salarie	-12.536
▁Franç	-12.5361
▁mobilize	-12.5363
▁DK	-12.5363
skille	-12.5365
city	-12.5368
▁Archive	-12.5372
▁Corp	-12.5375
▁Ariane	-12.5375
▁monumental	-12.5376
▁Sw	-12.5381
▁Hank	-12.5382
▁startup	-12.5382
▁emulat	-12.5382
▁propell	-12.5383
▁geographically	-12.5384
▁sur	-12.5384
sani	-12.5398
▁Sparta	-12.5411
group	-12.5415
olar	-12.5415
▁Sid	-12.5417
▁ash	-12.5424
▁Gay	-12.5425
▁tackl	-12.5428
▁defi	-12.5429
▁deplet	-12.5429
▁detach	-12.5432
▁Method	-12.5433
▁obedien	-12.5434
▁Alhaz	-12.5434
▁Tribun	-12.5434
▁glacia	-12.5434
▁Chernobyl	-12.5434
▁Gustav	-12.5434
▁Sustainab	-12.5434
▁chalcogen	-12.5434
▁pamphlet	-12.5434
▁mislead	-12.5434
▁delusion	-12.5434
▁libertarian	-12.5434
▁arcade	-12.5434
▁lump	-12.5434
▁curator	-12.5434
▁neighbourhood	-12.5435
▁foreground	-12.5435
▁safeguard	-12.5435
▁Psycholog	-12.5435
▁Kurt	-12.5436
▁Reich	-12.5436
▁Shaw	-12.5437
▁slang	-12.5438
esday	-12.544
▁airfield	-12.5442
▁blogs	-12.5443
▁audaci	-12.5443
▁Million	-12.5444
▁kidnapp	-12.5445
▁practis	-12.5446
gel	-12.5447
▁irritat	-12.5452
▁Pul	-12.5452
▁Hunter	-12.5455
▁reformer	-12.5455
▁Religion	-12.5457
▁Sum	-12.5459
▁Divin	-12.546
▁Maya	-12.5464
▁Rev	-12.5468
▁Hamm	-12.5474
▁bounc	-12.5476
▁Fan	-12.5477
Mille	-12.5478
ncyclopedia	-12.5478
▁Gradua	-12.5478
▁bury	-12.548
regulat	-12.5482
▁fuck	-12.5482
vor	-12.5482
▁trainer	-12.5483
acker	-12.5484
dad	-12.5484
▁Estonian	-12.549
ogo	-12.5492
▁allud	-12.5493
▁zip	-12.5495
▁UV	-12.5495
▁Sla	-12.5496
▁LG	-12.5498
ía	-12.5499
urus	-12.5501
▁Kerr	-12.5506
▁aque	-12.5507
▁indic	-12.5514
emon	-12.5516
▁Ambrosi	-12.5518
▁sir	-12.5518
▁hive	-12.5521
▁legislat	-12.5521
▁Benn	-12.5522
ogram	-12.5522
▁ether	-12.5522
glass	-12.5527
type	-12.5528
▁Cori	-12.553
▁mol	-12.5531
▁sixteen	-12.5532
▁Ammoni	-12.5534
▁Appeal	-12.5535
▁Scripture	-12.5535
▁cylindr	-12.5535
▁janitor	-12.5535
▁miraculous	-12.5535
▁Effect	-12.5535
▁Publish	-12.5535
▁syringe	-12.5535
▁Neuman	-12.5535
▁utilitarian	-12.5535
▁spoil	-12.5535
▁multimedia	-12.5535
▁Trigger	-12.5535
▁neocort	-12.5535
▁salad	-12.5535
▁suitcase	-12.5536
▁mainframe	-12.5536
▁Patent	-12.5536
▁glyco	-12.5538
▁rallie	-12.5539
▁Money	-12.5539
▁Cels	-12.554
ED	-12.5542
▁Axi	-12.5542
▁infidel	-12.5543
▁subscriber	-12.5544
hase	-12.5545
▁Net	-12.5546
▁biomedic	-12.5549
▁relic	-12.5552
▁Casp	-12.5552
▁crashe	-12.5554
▁Ranger	-12.5555
▁Lie	-12.5556
▁algorithmic	-12.5557
▁ram	-12.5562
▁decode	-12.5571
▁portrayal	-12.5576
ief	-12.5576
minded	-12.5581
▁prioritize	-12.5583
▁spac	-12.5586
▁dispens	-12.5587
▁Carr	-12.5597
llen	-12.5598
▁refusal	-12.56
rench	-12.56
▁Luck	-12.5602
maker	-12.5605
▁discourag	-12.5606
▁runners	-12.5613
▁dr	-12.5614
ommi	-12.5616
▁135	-12.5618
centric	-12.5618
fashion	-12.5621
commerc	-12.5621
record	-12.5621
▁compensati	-12.5621
▁Crusade	-12.5623
lzhe	-12.5626
▁fabricat	-12.5632
GI	-12.5633
▁Slovenia	-12.5637
▁anecdote	-12.5637
▁elliptic	-12.5637
▁extrovert	-12.5637
▁medicinal	-12.5637
▁receipt	-12.5637
▁visceral	-12.5637
▁boulder	-12.5637
▁Mandar	-12.5637
▁cosmetic	-12.5637
▁clerk	-12.5638
▁towel	-12.5638
▁Apat	-12.5639
▁perpetrator	-12.5639
Men	-12.5643
▁Beast	-12.565
▁diverg	-12.565
▁setback	-12.5651
▁Gala	-12.5652
▁Peak	-12.5652
▁Grana	-12.5652
▁waterfall	-12.5657
▁peel	-12.5657
▁Hadr	-12.5658
▁Milo	-12.5665
▁surger	-12.5668
▁Non	-12.5669
▁cater	-12.567
▁MA	-12.5673
▁nutritional	-12.5674
span	-12.5679
Bay	-12.5679
▁scarc	-12.5685
▁Swa	-12.5685
▁Memor	-12.5687
▁provok	-12.5689
mond	-12.5689
▁distracted	-12.5691
▁dwelling	-12.5693
▁erase	-12.5693
▁Perr	-12.5694
▁observator	-12.5695
▁Diese	-12.5695
▁designate	-12.5698
▁beg	-12.5701
▁allerg	-12.5704
▁hug	-12.5704
berry	-12.5705
▁militari	-12.5706
▁innocen	-12.5707
▁Champion	-12.5708
key	-12.5708
▁seminar	-12.571
▁synchroniz	-12.5711
▁acet	-12.5711
▁Oz	-12.5713
tank	-12.5714
stick	-12.5715
▁behold	-12.5717
▁lymph	-12.5721
urge	-12.5721
Hungar	-12.5723
million	-12.5725
▁Curr	-12.5728
▁loser	-12.5732
▁inspect	-12.5732
chu	-12.5734
quo	-12.5735
▁articulate	-12.5738
▁Bodhi	-12.574
▁Cossack	-12.574
▁Sikh	-12.574
▁custod	-12.574
▁decipher	-12.574
▁exacerbat	-12.574
▁hominid	-12.574
▁infinitesimal	-12.574
▁merchandis	-12.574
▁repetition	-12.574
▁uplift	-12.574
▁Folk	-12.574
▁imbalance	-12.574
▁supremac	-12.574
▁hexagon	-12.574
▁puncture	-12.574
▁Jutland	-12.574
▁await	-12.574
▁polygon	-12.574
▁glorious	-12.574
▁Curtis	-12.574
[...]
