<unk>	0
<s>	0
</s>	0
<pad>	0
▁,	-3.09358
▁the	-3.1134
▁.	-3.23592
s	-3.25754
;	-3.62704
▁&	-3.66593
▁of	-3.72994
▁to	-3.92465
▁a	-3.9309
▁and	-3.98275
ed	-4.13324
▁in	-4.18481
quot	-4.33602
apos	-4.38833
▁	-4.40162
▁that	-4.5591
▁is	-4.63217
y	-4.67634
ing	-4.74381
▁I	-4.92041
▁it	-5.01621
▁was	-5.06658
ly	-5.08223
▁The	-5.15219
▁on	-5.2413
▁for	-5.25273
▁you	-5.28341
▁with	-5.30564
▁we	-5.34345
▁be	-5.45151
▁this	-5.45321
▁are	-5.46412
▁as	-5.51262
d	-5.54476
▁by	-5.65547
▁And	-5.65712
(	-5.67083
▁)	-5.68339
▁have	-5.68981
▁an	-5.7841
▁from	-5.79246
t	-5.84953
▁not	-5.87883
▁at	-5.88313
▁can	-5.90503
▁or	-5.98435
▁were	-6.09519
▁one	-6.12398
▁—	-6.12635
▁which	-6.13835
▁about	-6.16246
▁In	-6.17007
▁but	-6.18963
n	-6.19126
▁all	-6.19901
▁what	-6.23099
▁It	-6.2364
e	-6.2507
▁:	-6.25629
▁he	-6.27032
▁had	-6.2794
▁So	-6.28572
-	-6.28713
▁his	-6.29765
▁us	-6.31119
▁has	-6.31457
▁?	-6.31936
re	-6.36087
▁there	-6.36821
▁their	-6.37302
▁people	-6.40555
▁more	-6.44824
▁do	-6.45606
▁like	-6.4622
▁so	-6.47475
▁other	-6.4784
▁my	-6.49541
lso	-6.54325
ies	-6.54978
▁these	-6.55717
▁some	-6.56555
▁would	-6.60576
▁when	-6.60851
been	-6.6161
▁who	-6.61651
▁time	-6.62494
▁Thi	-6.6288
▁up	-6.63527
▁first	-6.67021
▁out	-6.67411
▁if	-6.67583
▁our	-6.68708
r	-6.70749
▁them	-6.71262
▁see	-6.72244
▁just	-6.72346
▁into	-6.73977
very	-6.74949
es	-6.75153
▁We	-6.79004
▁because	-6.79394
▁But	-6.80109
▁most	-6.82044
▁how	-6.83203
▁than	-6.84039
▁me	-6.8424
▁years	-6.85976
m	-6.8622
▁two	-6.87527
▁He	-6.87856
▁A	-6.88611
▁world	-6.90984
▁know	-6.91409
▁where	-6.96958
▁going	-6.99212
▁could	-6.99267
▁will	-7.02366
▁over	-7.02596
▁then	-7.033
▁no	-7.03567
▁your	-7.03845
▁get	-7.04693
ve	-7.04732
▁think	-7.0506
▁many	-7.05252
▁its	-7.06098
▁look	-7.07921
▁work	-7.08601
▁want	-7.0894
▁did	-7.09204
▁use	-7.09205
▁call	-7.11138
▁t	-7.12076
▁new	-7.12579
▁way	-7.14295
▁really	-7.14863
▁now	-7.15347
▁every	-7.18203
▁may	-7.18416
▁go	-7.19363
hose	-7.20009
▁any	-7.21032
▁through	-7.21806
▁make	-7.23559
▁take	-7.2371
▁part	-7.23963
l	-7.27073
▁start	-7.27343
▁after	-7.27971
▁here	-7.27981
▁Laughte	-7.28007
▁much	-7.28233
▁need	-7.28862
▁number	-7.29751
▁You	-7.31444
ctually	-7.32328
▁such	-7.32374
▁said	-7.3468
▁between	-7.35729
▁don	-7.36598
in	-7.37735
▁being	-7.38969
▁things	-7.39251
▁change	-7.39519
▁her	-7.39815
▁same	-7.3991
▁different	-7.40568
▁life	-7.40665
on	-7.40771
▁right	-7.41
ever	-7.41313
▁even	-7.41375
▁e	-7.41755
▁Now	-7.41904
▁There	-7.43914
▁201	-7.4392
▁say	-7.44905
▁made	-7.45244
▁B	-7.45922
%	-7.47117
▁him	-7.47698
▁back	-7.47777
▁around	-7.47882
▁three	-7.48591
▁she	-7.49935
th	-7.50569
▁year	-7.51016
▁form	-7.51626
▁come	-7.51938
▁system	-7.52689
▁well	-7.52799
ity	-7.53505
▁something	-7.53721
▁show	-7.55643
▁little	-7.56146
al	-7.56531
▁place	-7.56819
▁great	-7.58979
a	-7.60149
▁How	-7.60496
▁200	-7.60651
▁kind	-7.60797
1	-7.61026
▁end	-7.61058
▁example	-7.61627
ce	-7.62174
▁found	-7.62936
er	-7.6353
▁own	-7.63666
▁does	-7.63748
▁mean	-7.63797
each	-7.64608
▁thing	-7.66381
self	-7.671
▁got	-7.67197
▁good	-7.68251
▁That	-7.68272
day	-7.68438
▁human	-7.68497
▁government	-7.6879
▁lot	-7.70074
other	-7.70468
▁name	-7.70612
▁Unit	-7.70843
▁problem	-7.71134
▁play	-7.71338
▁before	-7.71515
▁day	-7.72086
out	-7.72644
▁idea	-7.73469
–	-7.73476
▁million	-7.73625
▁down	-7.74776
▁follow	-7.74974
▁dur	-7.75515
came	-7.75814
▁group	-7.76006
▁century	-7.76171
▁If	-7.7685
▁point	-7.76851
▁language	-7.77096
▁state	-7.77181
▁talk	-7.77396
▁What	-7.77568
▁large	-7.77782
▁important	-7.79935
▁later	-7.80628
▁For	-7.8078
▁under	-7.80974
.	-7.81247
▁both	-7.81555
▁last	-7.823
▁country	-7.82331
▁known	-7.8242
5	-7.83195
▁1	-7.83329
▁still	-7.83811
▁city	-7.85631
ause	-7.8621
ther	-7.86805
▁Appl	-7.86856
▁second	-7.878
▁often	-7.87916
ll	-7.88088
▁term	-7.89605
▁few	-7.89935
▁design	-7.90177
▁includ	-7.90461
4	-7.90526
▁school	-7.909
▁case	-7.9095
▁199	-7.91162
▁German	-7.91877
▁tell	-7.9196
▁become	-7.92317
▁early	-7.9269
▁percent	-7.92965
▁American	-7.9335
▁put	-7.9462
▁power	-7.94821
▁set	-7.94944
▁long	-7.95037
▁States	-7.95111
▁while	-7.95353
▁♫	-7.95725
▁turn	-7.96083
▁should	-7.96216
▁When	-7.96723
▁New	-7.96826
2	-7.97664
▁On	-7.98194
3	-7.98783
▁try	-7.98935
▁population	-7.98958
▁film	-7.99562
▁These	-7.9957
▁water	-8.00488
▁major	-8.00635
7	-8.00853
▁fact	-8.01328
▁As	-8.0155
▁never	-8.0166
▁unti	-8.02004
▁game	-8.02066
▁since	-8.02105
▁ask	-8.02624
9	-8.02837
▁help	-8.03105
▁small	-8.03113
▁find	-8.03601
▁allow	-8.03932
▁force	-8.0529
▁came	-8.05826
▁thought	-8.0589
▁four	-8.05915
▁common	-8.06435
▁high	-8.06683
▁10	-8.08018
one	-8.08422
▁U	-8.08929
▁order	-8.09099
▁Well	-8.09486
▁might	-8.09701
▁countr	-8.09963
▁next	-8.10102
▁together	-8.10478
▁data	-8.11042
▁doing	-8.11273
▁general	-8.1187
▁2	-8.12486
▁20	-8.12545
▁able	-8.12845
▁remain	-8.13055
ok	-8.13284
▁home	-8.13476
▁again	-8.14104
▁per	-8.14181
though	-8.14648
▁off	-8.14663
▁consider	-8.14714
▁result	-8.14969
▁believe	-8.15108
▁support	-8.15129
6	-8.15356
went	-8.15446
▁process	-8.16962
▁women	-8.17126
gan	-8.17328
▁war	-8.17683
▁computer	-8.17686
▁better	-8.177
land	-8.18443
▁particular	-8.18795
▁create	-8.18904
▁line	-8.19121
▁cell	-8.19625
▁C	-8.20042
▁public	-8.20107
8	-8.20132
▁several	-8.20212
▁why	-8.21683
▁old	-8.22355
▁live	-8.22407
▁give	-8.22725
▁person	-8.22814
▁children	-8.23262
▁happen	-8.23287
▁building	-8.24026
way	-8.24108
▁War	-8.24126
▁less	-8.24307
▁course	-8.24366
▁story	-8.248
▁possibl	-8.25045
▁left	-8.2515
▁information	-8.25253
▁level	-8.25939
▁One	-8.26084
▁age	-8.26418
▁space	-8.26429
le	-8.26455
▁team	-8.26947
▁3	-8.26976
▁family	-8.2726
▁area	-8.27693
▁open	-8.27948
▁real	-8.28072
▁histor	-8.28182
▁main	-8.283
▁liv	-8.29029
▁period	-8.29114
▁too	-8.30083
▁let	-8.30496
▁ever	-8.30613
▁increase	-8.30789
▁control	-8.31062
▁technology	-8.3142
▁energy	-8.31621
▁brain	-8.32134
▁political	-8.32162
▁reason	-8.32402
▁death	-8.3246
▁field	-8.32488
▁World	-8.32814
▁single	-8.32916
able	-8.33242
▁social	-8.33452
▁British	-8.33486
▁five	-8.33606
▁service	-8.33851
▁love	-8.33911
▁Some	-8.34056
▁learn	-8.34294
▁always	-8.34451
▁close	-8.34479
▁complete	-8.34591
▁light	-8.3471
▁experience	-8.35437
/	-8.35472
▁big	-8.35623
▁formula	-8.36009
_	-8.36258
w	-8.36378
▁body	-8.3651
▁ago	-8.36599
▁record	-8.36733
▁question	-8.36875
▁English	-8.37466
▁Thank	-8.38355
▁197	-8.38894
▁5	-8.39396
▁music	-8.39561
▁move	-8.39851
▁project	-8.40086
st	-8.40731
▁done	-8.41499
▁mak	-8.41851
▁E	-8.41855
▁hav	-8.41962
▁After	-8.42008
ecause	-8.42058
▁given	-8.42501
▁An	-8.4274
▁economic	-8.42744
▁study	-8.42797
▁issue	-8.42798
▁To	-8.42802
body	-8.42941
▁car	-8.43259
▁bit	-8.43613
▁times	-8.4411
▁include	-8.44285
ves	-8.44291
▁science	-8.44407
▁function	-8.44628
▁whole	-8.44941
▁By	-8.44954
uar	-8.44986
▁Europe	-8.45022
▁individual	-8.45175
▁must	-8.45424
▁At	-8.45569
▁region	-8.46117
▁working	-8.46189
▁development	-8.46497
▁best	-8.46962
▁effect	-8.47079
▁local	-8.47139
▁European	-8.47278
▁final	-8.47547
▁book	-8.47588
▁understand	-8.47755
▁men	-8.47802
▁among	-8.48055
▁food	-8.48255
▁modern	-8.48724
▁exist	-8.49009
▁original	-8.49017
cross	-8.49493
▁market	-8.49597
▁half	-8.49916
▁though	-8.49917
▁198	-8.50005
▁sort	-8.50005
h	-8.50062
▁She	-8.50121
▁near	-8.50166
▁b	-8.50815
▁creat	-8.51098
▁man	-8.51391
▁interest	-8.51419
▁almost	-8.51448
▁usual	-8.5169
▁side	-8.51742
▁art	-8.51869
▁4	-8.51912
▁student	-8.52034
▁present	-8.52081
▁share	-8.52136
▁future	-8.52323
▁word	-8.52443
▁along	-8.52794
▁program	-8.52801
▁matter	-8.53042
ten	-8.53125
▁feel	-8.53129
▁America	-8.53264
▁animal	-8.53293
▁military	-8.53588
est	-8.53633
▁Africa	-8.53756
▁billion	-8.53892
▁law	-8.54201
▁196	-8.5453
▁appear	-8.54543
▁rate	-8.54806
▁kid	-8.54824
▁return	-8.55042
stead	-8.55537
▁money	-8.55699
▁business	-8.55746
▁certain	-8.55759
▁Earth	-8.56025
▁hard	-8.56193
nough	-8.56241
▁developed	-8.56443
$	-8.5646
▁far	-8.56505
▁bas	-8.56883
▁series	-8.56986
▁sense	-8.57263
▁culture	-8.57614
▁French	-8.57736
▁days	-8.57757
▁&#93;	-8.57981
▁cause	-8.5821
▁total	-8.5822
▁structure	-8.583
▁land	-8.58398
▁test	-8.58658
o	-8.58744
▁members	-8.58981
▁&#9	-8.59007
▁societ	-8.59069
▁saw	-8.59167
▁popular	-8.59175
▁sometimes	-8.59202
▁provide	-8.59202
ic	-8.59289
▁similar	-8.59448
▁ra	-8.59459
▁run	-8.59491
▁hand	-8.59538
▁direct	-8.59678
▁due	-8.59913
▁species	-8.59994
▁15	-8.60025
thing	-8.60027
▁late	-8.60045
▁grow	-8.60516
▁source	-8.60659
▁week	-8.60801
▁image	-8.60881
▁head	-8.61239
▁research	-8.61496
▁India	-8.61693
▁company	-8.61832
▁role	-8.62792
▁publish	-8.62909
▁theory	-8.63044
▁No	-8.63199
en	-8.63486
▁education	-8.63715
▁reach	-8.63743
▁led	-8.63848
▁establish	-8.63922
▁built	-8.64144
▁months	-8.64171
▁entire	-8.64173
us	-8.64384
▁systems	-8.64492
▁All	-8.64695
▁community	-8.6484
▁God	-8.64845
▁194	-8.65088
▁national	-8.65194
▁wide	-8.65256
▁six	-8.65554
▁seem	-8.66509
▁official	-8.66703
▁least	-8.66971
▁King	-8.67113
▁Al	-8.67262
▁picture	-8.67443
▁30	-8.67463
▁young	-8.67613
▁represent	-8.67679
▁!	-8.67756
▁bring	-8.67956
▁element	-8.68002
▁words	-8.68252
▁unit	-8.68715
be	-8.69055
▁current	-8.69093
▁S	-8.69119
▁position	-8.69175
▁de	-8.6924
▁influence	-8.69269
▁cost	-8.69413
▁simple	-8.69584
▁object	-8.698
▁act	-8.69844
▁probabl	-8.69918
▁third	-8.70044
▁machine	-8.70323
ither	-8.70623
▁whe	-8.70683
▁job	-8.71102
▁w	-8.71117
▁health	-8.7115
ment	-8.71164
▁won	-8.71216
▁character	-8.71236
▁areas	-8.71237
▁once	-8.71489
▁figure	-8.71666
▁significant	-8.71748
▁event	-8.71766
▁al	-8.71774
▁free	-8.71848
▁His	-8.72031
▁face	-8.72086
▁movement	-8.72178
▁size	-8.72225
ld	-8.72261
▁natural	-8.72461
▁model	-8.72471
▁network	-8.7251
▁6	-8.72663
▁house	-8.72735
▁difference	-8.72772
▁keep	-8.72793
▁held	-8.72875
▁view	-8.73397
▁York	-8.75067
▁difficult	-8.75138
▁planet	-8.75208
▁disease	-8.75284
▁piece	-8.75473
▁plant	-8.75653
▁cit	-8.75737
▁moment	-8.76072
quite	-8.7612
▁Dur	-8.76158
▁thousand	-8.76358
▁already	-8.76564
▁produce	-8.76715
▁top	-8.76717
▁thinking	-8.77287
▁value	-8.77321
▁lead	-8.77344
▁island	-8.7739
▁player	-8.77459
▁attack	-8.77545
ion	-8.78417
▁writ	-8.78596
▁South	-8.7874
▁With	-8.78745
▁air	-8.7884
▁19	-8.78864
▁nature	-8.78868
▁claim	-8.78871
▁production	-8.78989
▁standard	-8.79227
▁My	-8.79231
▁un	-8.79393
▁amount	-8.79797
rote	-8.79898
▁works	-8.79914
ation	-8.80054
▁action	-8.80326
▁condition	-8.80452
▁version	-8.80591
specially	-8.80682
▁various	-8.80749
▁election	-8.80812
▁continue	-8.80825
▁states	-8.81003
▁build	-8.81258
▁12	-8.81334
▁black	-8.81499
msel	-8.81588
▁7	-8.81591
▁Roman	-8.82042
▁short	-8.82202
▁contain	-8.82221
▁room	-8.82811
▁guy	-8.82847
▁yet	-8.83004
▁strong	-8.83013
▁pass	-8.83063
▁8	-8.83264
▁average	-8.83332
▁global	-8.83445
▁define	-8.83492
▁father	-8.83641
▁specific	-8.83765
▁China	-8.83824
▁18	-8.83914
▁else	-8.84085
▁outside	-8.84239
▁care	-8.84727
▁di	-8.84918
▁add	-8.85009
against	-8.8513
▁international	-8.85467
▁lives	-8.85575
▁season	-8.85598
▁relationship	-8.85881
▁true	-8.8618
▁coming	-8.86233
▁practice	-8.8629
▁National	-8.86301
▁rule	-8.86328
▁economy	-8.8653
▁method	-8.86717
▁Universit	-8.86871
▁further	-8.86937
▁answer	-8.86944
▁getting	-8.87019
▁lost	-8.87183
▁exact	-8.87483
ous	-8.87534
▁base	-8.87666
▁availab	-8.87768
▁50	-8.88398
▁0	-8.88538
▁color	-8.88792
▁sound	-8.88807
▁US	-8.88865
▁Greek	-8.88922
▁191	-8.88979
▁11	-8.89045
▁North	-8.89098
▁193	-8.8918
▁list	-8.89506
▁inside	-8.89568
▁full	-8.89612
▁suggest	-8.89771
▁past	-8.89813
▁child	-8.90005
▁earlie	-8.90015
▁feature	-8.9004
▁read	-8.90054
▁gav	-8.90134
▁larges	-8.90196
▁subject	-8.90233
▁T	-8.90256
▁complex	-8.90256
▁growth	-8.90298
▁Let	-8.90508
▁mother	-8.9063
▁decided	-8.90667
▁Christian	-8.90843
▁industry	-8.90887
▁195	-8.90935
▁beginning	-8.91144
▁range	-8.91261
▁traditional	-8.91267
▁France	-8.91405
▁environment	-8.91595
▁attempt	-8.91771
▁organization	-8.92104
▁L	-8.92276
▁England	-8.92374
▁mind	-8.92575
▁physical	-8.92662
▁mov	-8.92781
▁low	-8.9296
▁hundred	-8.92986
▁100	-8.93001
▁compani	-8.93123
▁Many	-8.9315
gainst	-8.93644
▁sign	-8.93663
▁letter	-8.9411
▁D	-8.9419
▁minute	-8.9437
▁relative	-8.94753
▁personal	-8.94807
ything	-8.95058
’	-8.95089
is	-8.9538
▁video	-8.95472
▁makes	-8.95574
▁surface	-8.95752
▁higher	-8.95772
taking	-8.96066
▁longer	-8.96118
▁above	-8.96131
▁studie	-8.96148
▁9	-8.96243
▁discover	-8.9626
▁focus	-8.96387
▁type	-8.96625
▁P	-8.96656
▁Accord	-8.96821
▁require	-8.97091
▁decision	-8.97092
▁produc	-8.97176
▁II	-8.97225
▁Most	-8.97239
▁nation	-8.97493
ness	-8.97564
▁speak	-8.97615
▁Jan	-8.97631
▁dollars	-8.9779
not	-8.97848
▁device	-8.97911
▁interesting	-8.97925
▁ways	-8.98099
▁class	-8.98259
▁leave	-8.98277
▁cover	-8.98304
▁normal	-8.98599
▁toward	-8.98638
▁release	-8.98972
▁nothing	-8.99129
▁evidence	-8.99198
▁East	-8.99217
▁engineer	-8.99314
▁accept	-8.99354
▁concept	-8.99356
▁kill	-8.99413
▁stories	-8.99592
▁Internet	-8.9991
▁quick	-9.00097
▁John	-9.00217
▁material	-9.00223
▁Wh	-9.00289
▁site	-9.00424
▁office	-9.0082
▁writing	-9.00939
▁successful	-9.00994
▁measure	-9.01044
▁May	-9.01165
▁August	-9.01381
▁offer	-9.01472
▁son	-9.01603
▁patient	-9.01618
less	-9.018
▁West	-9.01884
▁M	-9.01939
▁temperature	-9.02015
▁hold	-9.02129
▁perform	-9.02846
▁church	-9.02877
▁member	-9.03046
▁Since	-9.03129
▁am	-9.03164
▁Uni	-9.03232
▁typical	-9.03361
▁saying	-9.03383
▁night	-9.03522
▁center	-9.03619
▁receiv	-9.0366
▁fall	-9.03901
▁prett	-9.03935
rought	-9.04021
▁capital	-9.04203
▁tree	-9.04651
▁September	-9.04681
ber	-9.04718
▁universe	-9.04779
▁Jun	-9.04916
▁born	-9.05
▁title	-9.05269
▁poor	-9.05343
▁stage	-9.05366
▁trade	-9.05521
▁hours	-9.0569
▁continu	-9.05731
▁16	-9.05748
▁simpl	-9.05973
▁stand	-9.06046
spite	-9.06142
▁explain	-9.06229
▁stuff	-9.06456
▁hope	-9.07115
▁Church	-9.07188
▁song	-9.07301
▁De	-9.0746
▁equal	-9.07592
▁paper	-9.07702
▁woman	-9.07869
ally	-9.07872
▁step	-9.0789
▁describe	-9.08088
▁join	-9.08145
▁addition	-9.08266
▁code	-9.08565
▁risk	-9.08601
▁mass	-9.08802
▁special	-9.08874
▁plan	-9.09
▁stop	-9.09033
▁seven	-9.09076
▁separate	-9.0911
▁Whil	-9.09135
▁key	-9.09626
▁City	-9.09735
▁drive	-9.09807
▁December	-9.09863
▁increasing	-9.10002
▁operation	-9.10056
▁rest	-9.10062
▁regard	-9.10107
▁25	-9.10293
▁F	-9.10394
▁heart	-9.10443
▁bad	-9.10479
▁Octo	-9.10545
▁serve	-9.10548
▁degree	-9.10625
refore	-9.10659
▁friends	-9.10729
▁potential	-9.10898
▁experiment	-9.10931
▁2010	-9.10974
▁former	-9.11094
▁London	-9.11245
ton	-9.11288
▁front	-9.11332
▁access	-9.11368
▁scientist	-9.11841
▁March	-9.12154
▁African	-9.12571
▁14	-9.12708
▁17	-9.12838
▁challenge	-9.12866
▁vote	-9.12921
▁media	-9.13039
▁party	-9.13198
ish	-9.1339
▁pay	-9.13522
▁November	-9.13532
▁success	-9.13691
▁heard	-9.14133
▁concern	-9.14213
▁factor	-9.14294
▁pattern	-9.1436
▁text	-9.14554
▁account	-9.14629
▁wrong	-9.14673
▁describ	-9.14688
▁middle	-9.14749
▁product	-9.14857
▁couple	-9.14894
▁cancer	-9.14932
▁fire	-9.15519
▁behind	-9.15619
▁remember	-9.15912
▁From	-9.15982
▁write	-9.16247
▁effective	-9.16267
▁religious	-9.16428
▁40	-9.16552
▁date	-9.16617
▁white	-9.16701
▁sure	-9.16796
▁Empire	-9.16825
▁imagine	-9.16923
▁13	-9.17058
▁independent	-9.17077
▁depend	-9.17114
▁president	-9.17283
▁beautiful	-9.17489
▁lower	-9.17552
▁eight	-9.1764
dom	-9.17785
▁travel	-9.17881
▁kne	-9.17896
▁books	-9.17897
▁Western	-9.18051
▁eventual	-9.18066
▁charge	-9.18088
▁O	-9.18207
▁report	-9.18427
▁sea	-9.18517
▁Jul	-9.18618
▁Apri	-9.18681
haps	-9.18879
▁extreme	-9.18908
▁safe	-9.18995
▁ground	-9.19079
▁oil	-9.19083
▁institution	-9.19244
▁involv	-9.1938
▁actual	-9.19471
▁speed	-9.19561
▁met	-9.19571
▁Chinese	-9.19584
▁larger	-9.19637
▁scale	-9.19675
▁watch	-9.19707
▁begin	-9.19847
▁enter	-9.20087
▁necessar	-9.20153
▁protect	-9.20186
▁Other	-9.20306
▁2008	-9.20403
▁powerful	-9.2048
▁approach	-9.2056
▁192	-9.20563
▁amazing	-9.20649
▁Indian	-9.20699
▁generation	-9.20707
▁meaning	-9.20805
▁knowledge	-9.20813
▁hit	-9.20904
where	-9.21066
▁central	-9.21117
▁private	-9.21155
▁referr	-9.21327
▁situation	-9.21341
▁girl	-9.21427
an	-9.21452
▁effort	-9.21674
▁learning	-9.21768
▁style	-9.21814
▁foreign	-9.21886
▁choice	-9.22001
▁c	-9.22003
▁clear	-9.22033
▁soon	-9.22106
▁behavior	-9.2226
▁blue	-9.22264
▁spend	-9.22402
▁policy	-9.22537
▁Great	-9.22657
▁expect	-9.22665
▁electric	-9.22719
▁tradition	-9.22802
▁blood	-9.22948
▁maintain	-9.23439
▁artist	-9.23652
▁climate	-9.23793
▁Brita	-9.23916
▁occur	-9.24072
▁band	-9.24115
▁happens	-9.24208
▁President	-9.24347
▁adopt	-9.24347
▁religion	-9.2451
▁Soviet	-9.24546
▁goal	-9.24751
▁refer	-9.24781
▁fish	-9.24809
▁below	-9.24913
▁deal	-9.25086
▁1990	-9.25271
▁21	-9.25456
▁consist	-9.2639
▁arm	-9.26411
▁performance	-9.26461
▁die	-9.26495
▁bigge	-9.26585
▁Every	-9.26631
▁spen	-9.26894
▁ship	-9.27043
▁software	-9.27123
▁response	-9.27162
▁stay	-9.27222
▁purpose	-9.27292
▁recent	-9.27315
▁parents	-9.27474
▁launch	-9.27489
▁principle	-9.27571
▁fund	-9.27622
▁initial	-9.28041
um	-9.28163
▁results	-9.28168
▁DNA	-9.28229
▁questions	-9.28335
▁introduc	-9.28643
ry	-9.28682
▁application	-9.28683
▁resource	-9.28735
▁map	-9.29048
▁spread	-9.29057
▁phone	-9.29067
▁sent	-9.29149
▁rights	-9.29252
▁First	-9.29394
▁rules	-9.29467
▁train	-9.29521
▁fly	-9.29664
▁visit	-9.29702
▁wall	-9.29713
▁ancient	-9.29724
▁slow	-9.29725
▁affect	-9.29754
▁huge	-9.29774
▁variet	-9.29781
▁litera	-9.29851
▁definition	-9.29869
▁Canad	-9.2994
▁...	-9.29983
▁provid	-9.30016
▁television	-9.3006
▁H	-9.30341
▁self	-9.30599
▁Febr	-9.30607
▁basic	-9.30635
▁scientific	-9.30692
▁related	-9.30696
felt	-9.30734
▁walk	-9.30918
▁easi	-9.30927
▁message	-9.31188
▁extend	-9.31215
▁1980	-9.31414
▁conflict	-9.31436
▁friend	-9.31536
▁movie	-9.3162
▁impact	-9.31757
▁leaders	-9.31783
▁town	-9.31798
▁according	-9.31932
▁price	-9.31945
▁teacher	-9.32329
▁releas	-9.32371
▁red	-9.32453
▁territor	-9.32477
▁army	-9.32561
▁2000	-9.32574
▁Republic	-9.32644
▁St	-9.32798
▁Arm	-9.32801
▁J	-9.32958
▁types	-9.33086
▁gas	-9.33098
▁authorit	-9.33297
▁basically	-9.33535
▁People	-9.33564
▁active	-9.33596
aught	-9.33903
▁gain	-9.34003
▁smaller	-9.34135
▁carbon	-9.3419
▁essential	-9.34617
▁shape	-9.34768
ism	-9.34774
▁Latin	-9.34946
▁station	-9.35036
▁commercial	-9.35092
ability	-9.35092
▁chemical	-9.35318
▁whose	-9.35444
▁audience	-9.35808
▁financial	-9.36023
▁detail	-9.3603
giving	-9.36031
▁female	-9.36302
▁understanding	-9.36397
▁i	-9.36461
▁medical	-9.36611
▁historical	-9.36832
▁tried	-9.36967
S	-9.37083
▁Council	-9.37104
▁attention	-9.37205
▁particle	-9.3724
▁pressure	-9.37252
▁serious	-9.37375
▁thus	-9.37515
▁signal	-9.37686
▁solution	-9.37744
▁deep	-9.3781
▁album	-9.37828
▁hear	-9.37923
▁court	-9.37998
▁loss	-9.38066
▁ocean	-9.38119
▁immediate	-9.38237
▁expand	-9.38285
▁absolute	-9.38329
▁location	-9.38355
▁2006	-9.38362
▁link	-9.38446
▁1970	-9.38514
▁legal	-9.38546
▁leading	-9.38608
▁count	-9.38661
▁cultural	-9.38673
▁limited	-9.38713
▁reaction	-9.38834
▁humans	-9.38912
▁career	-9.38925
▁user	-9.39124
▁Catholic	-9.39153
▁associat	-9.39186
▁Centr	-9.39442
▁treat	-9.39643
▁fail	-9.39666
▁male	-9.39992
▁metal	-9.40013
▁wave	-9.40031
▁involve	-9.40188
▁send	-9.40227
▁flow	-9.40288
▁digital	-9.40421
▁House	-9.406
▁Spanish	-9.40682
▁aircraft	-9.40682
▁cut	-9.40744
▁technique	-9.40822
▁treatment	-9.40839
alone	-9.41189
▁products	-9.41198
▁Oh	-9.41228
▁distance	-9.41266
▁college	-9.41344
▁realit	-9.41463
▁molecule	-9.41573
▁address	-9.41817
▁north	-9.41832
▁basi	-9.41898
▁king	-9.41959
▁shows	-9.42545
▁border	-9.42869
▁1960	-9.42951
▁gre	-9.43026
▁highest	-9.43075
▁communit	-9.43332
▁reported	-9.43474
▁fundamental	-9.4356
▁Even	-9.43585
▁Part	-9.43778
▁State	-9.43873
▁Australia	-9.44042
▁equation	-9.44054
▁positive	-9.44096
▁oursel	-9.44201
▁meeting	-9.44449
▁primary	-9.44586
▁sector	-9.44781
▁lack	-9.44781
▁International	-9.44878
▁announc	-9.4489
▁forest	-9.44908
▁month	-9.44994
▁happening	-9.45035
▁estimate	-9.45055
▁citizens	-9.4512
▁compar	-9.45161
▁easy	-9.45269
▁securit	-9.45299
▁campaign	-9.45562
▁elect	-9.4561
▁recently	-9.45772
▁coast	-9.45819
▁mention	-9.45862
▁60	-9.4593
▁develop	-9.45944
▁hands	-9.45997
▁buy	-9.46059
▁belief	-9.46064
▁Then	-9.46135
▁caus	-9.46151
▁construction	-9.46358
▁BC	-9.46411
▁regular	-9.46498
▁south	-9.46504
▁origin	-9.46631
▁instrument	-9.46747
▁wife	-9.46802
▁demand	-9.47008
▁operat	-9.47207
▁applie	-9.47227
▁connection	-9.47256
▁locat	-9.47291
▁requir	-9.47417
▁eyes	-9.47477
▁realize	-9.47555
▁communication	-9.47845
▁card	-9.47891
ond	-9.47927
▁brother	-9.48005
▁civil	-9.48187
▁runn	-9.48259
▁rise	-9.48279
▁meet	-9.48749
▁seat	-9.48801
▁carry	-9.48942
▁sold	-9.49208
▁memory	-9.49462
▁opportunity	-9.49648
▁component	-9.49666
▁Muslim	-9.49733
▁famili	-9.49807
▁table	-9.49861
▁constant	-9.50029
▁direction	-9.50194
▁ice	-9.50231
▁track	-9.5029
▁Japan	-9.50434
▁club	-9.50589
▁green	-9.50683
▁feeling	-9.5078
▁24	-9.5086
▁centuries	-9.51003
▁activity	-9.51009
▁Asia	-9.51077
▁instance	-9.51159
▁document	-9.51182
ach	-9.51276
▁voice	-9.51386
▁host	-9.514
▁benefit	-9.51432
▁nuclear	-9.51589
▁target	-9.5205
▁save	-9.52103
▁G	-9.52121
▁forward	-9.52363
▁article	-9.52477
▁sequence	-9.5267
▁developing	-9.52711
eague	-9.52806
▁fear	-9.52853
▁Or	-9.5288
▁limit	-9.52933
▁era	-9.5308
▁famous	-9.53181
▁mission	-9.5321
▁express	-9.5324
▁rapid	-9.53254
▁Do	-9.53281
▁Ital	-9.53403
▁Music	-9.53461
▁radio	-9.53574
▁highly	-9.54055
▁village	-9.54088
▁receive	-9.54741
▁training	-9.549
▁road	-9.55179
▁race	-9.55199
▁Israel	-9.5532
▁plann	-9.55339
▁values	-9.55736
▁tend	-9.55759
▁store	-9.55768
▁block	-9.5584
▁listen	-9.55927
▁dark	-9.56016
▁star	-9.56155
▁income	-9.56204
▁engine	-9.56243
▁rare	-9.56285
▁laws	-9.56299
▁tools	-9.56321
▁More	-9.56458
▁approximate	-9.56594
▁perfect	-9.56686
▁Oka	-9.56761
▁writer	-9.5679
▁connected	-9.56797
▁Right	-9.56977
▁pick	-9.56984
▁gives	-9.57247
▁rank	-9.57388
▁unique	-9.57417
▁Jewish	-9.5748
▁quality	-9.576
▁symbol	-9.57677
▁novel	-9.57821
▁adult	-9.5792
▁occurr	-9.57923
▁prevent	-9.58127
more	-9.5817
▁dead	-9.58274
▁R	-9.58385
▁algorithm	-9.5843
▁sell	-9.58508
▁fuel	-9.58545
▁Middle	-9.58751
▁atom	-9.58788
▁break	-9.58842
▁award	-9.59061
▁professional	-9.59429
▁improve	-9.59445
▁nine	-9.59628
▁length	-9.59666
▁worker	-9.59739
▁analys	-9.59989
▁Spa	-9.60102
▁battle	-9.6018
▁TED	-9.60212
▁status	-9.60257
▁painting	-9.603
▁stars	-9.60318
▁critical	-9.6036
▁solve	-9.60607
▁lab	-9.60694
▁decades	-9.60757
▁California	-9.60842
▁obvious	-9.60968
changing	-9.61064
▁search	-9.61071
▁property	-9.61136
▁materials	-9.61209
older	-9.61373
▁vehicle	-9.61588
▁previous	-9.61596
▁aspect	-9.61761
▁chose	-9.61816
▁context	-9.61865
▁division	-9.61876
▁online	-9.62061
▁annual	-9.62225
▁page	-9.62235
▁Of	-9.62259
▁defeat	-9.62455
▁electron	-9.62485
▁80	-9.62552
▁Not	-9.62628
▁gone	-9.62644
▁becom	-9.62716
▁score	-9.62837
▁formal	-9.62841
▁replac	-9.62893
▁chance	-9.63154
▁Henr	-9.63156
▁destroy	-9.63159
▁except	-9.63436
▁UK	-9.63697
▁flight	-9.63699
▁George	-9.63741
▁Japanese	-9.63744
▁evolution	-9.63758
▁f	-9.63806
▁medicine	-9.6387
▁Italian	-9.63978
▁reference	-9.63987
▁recognize	-9.64043
▁technologi	-9.64064
▁multiple	-9.64101
▁section	-9.64145
▁fair	-9.64217
▁shift	-9.64218
▁rock	-9.64361
▁OK	-9.64395
▁win	-9.64531
▁birth	-9.64548
▁meant	-9.64588
▁reduc	-9.64695
▁volume	-9.64701
▁summer	-9.64806
▁Charles	-9.64846
▁seeing	-9.65086
▁argue	-9.65087
▁2001	-9.65366
by	-9.65471
▁police	-9.65501
▁subsequent	-9.6552
▁propos	-9.65584
▁robot	-9.65637
▁board	-9.65693
▁ultimate	-9.65701
▁freedom	-9.66027
▁speech	-9.66062
▁drug	-9.66078
▁advance	-9.66116
▁finish	-9.66176
▁collection	-9.66204
▁argument	-9.66312
▁task	-9.66386
▁teaching	-9.66392
▁bottom	-9.66435
▁boy	-9.66476
year	-9.66625
ance	-9.66816
▁sex	-9.6685
▁wait	-9.66854
hip	-9.66883
▁morning	-9.66907
▁happy	-9.67028
kept	-9.6716
▁heat	-9.67182
▁Russia	-9.67189
▁Act	-9.67213
▁scene	-9.67394
▁display	-9.67454
▁violen	-9.67486
▁reduce	-9.6752
▁models	-9.67573
▁protein	-9.67577
▁feet	-9.67621
our	-9.67682
▁Two	-9.67699
▁genetic	-9.67757
▁river	-9.67856
▁camera	-9.68012
▁literal	-9.6804
▁fast	-9.68083
▁Age	-9.68192
▁David	-9.68275
▁fight	-9.6828
▁doctor	-9.68325
▁William	-9.68371
▁Congress	-9.68436
▁solar	-9.68634
▁leader	-9.68651
▁propert	-9.68799
▁competition	-9.6893
as	-9.68954
▁trial	-9.6896
▁responsibl	-9.68992
cy	-9.69137
▁hole	-9.69164
▁Court	-9.69178
▁connect	-9.69219
▁organism	-9.69296
▁heavy	-9.69307
▁wonderful	-9.69308
▁rich	-9.69375
▁Just	-9.69452
ture	-9.69562
▁crisis	-9.69617
▁content	-9.69748
▁architecture	-9.69801
▁finding	-9.69897
▁River	-9.70053
▁names	-9.70061
to	-9.70142
▁politic	-9.70326
▁reform	-9.70551
▁northern	-9.70806
▁divid	-9.70979
▁1950	-9.70999
▁achieve	-9.71042
▁implement	-9.71122
▁daughter	-9.71445
▁General	-9.7145
▁GDP	-9.71508
▁news	-9.71635
▁W	-9.71641
▁22	-9.71665
▁Jam	-9.71757
▁marriage	-9.71768
▁truth	-9.71783
▁agreement	-9.71886
▁surviv	-9.71888
▁worth	-9.71918
▁Force	-9.71962
▁Sea	-9.72023
▁Eastern	-9.7219
▁urban	-9.72289
▁hospital	-9.7232
▁Second	-9.72399
▁Our	-9.72468
▁Russian	-9.72676
arliament	-9.72713
▁eye	-9.72724
▁90	-9.72737
▁shot	-9.72836
▁Washing	-9.72992
▁additional	-9.73033
▁root	-9.7304
▁Art	-9.73047
▁Ire	-9.73079
▁oppos	-9.73142
▁interaction	-9.73241
▁weight	-9.73297
▁TV	-9.73384
▁existence	-9.73427
▁emerg	-9.73475
▁Thu	-9.7358
▁box	-9.73768
▁motion	-9.73956
▁peace	-9.74
man	-9.74201
▁K	-9.74581
▁damage	-9.74668
▁alternative	-9.74797
▁zero	-9.74916
▁southern	-9.74962
▁press	-9.75041
▁creation	-9.75121
▁director	-9.75121
▁democracy	-9.75141
▁centre	-9.75396
▁primari	-9.75457
▁push	-9.75589
▁independen	-9.75702
▁miles	-9.75783
▁transform	-9.75787
▁industrial	-9.75836
▁Dutch	-9.75854
▁equip	-9.75873
▁Rome	-9.75922
▁bodi	-9.76019
▁Egypt	-9.7605
▁N	-9.76236
old	-9.76332
▁whom	-9.76416
▁Air	-9.76469
▁inspire	-9.76602
▁wealth	-9.76752
▁string	-9.76821
▁categor	-9.7683
▁bear	-9.76885
▁eat	-9.769
▁double	-9.77078
age	-9.77102
▁negative	-9.77485
▁raise	-9.77565
▁Thom	-9.77612
▁indicate	-9.77717
▁secret	-9.77767
▁Bo	-9.77937
▁east	-9.78001
▁intelligence	-9.78137
▁federal	-9.7834
▁consequence	-9.78408
▁Their	-9.78487
▁troop	-9.78818
▁crime	-9.78818
▁poverty	-9.7883
▁70	-9.78986
▁ten	-9.79033
▁sexual	-9.79067
▁journey	-9.79092
▁fully	-9.7912
▁moral	-9.79121
▁choose	-9.79144
▁wear	-9.7919
▁vision	-9.79292
▁realiz	-9.79314
ood	-9.79388
▁drugs	-9.79427
▁pair	-9.79436
amp	-9.79475
▁190	-9.79605
▁slight	-9.79647
c	-9.7989
▁decline	-9.79943
▁university	-9.79979
▁west	-9.79995
▁street	-9.80042
▁Paul	-9.80056
▁district	-9.80125
▁statement	-9.80182
▁mental	-9.80204
▁conduct	-9.80239
▁operate	-9.8026
▁square	-9.8029
▁physics	-9.80338
▁channel	-9.80339
▁Yea	-9.80354
▁collect	-9.80504
▁intend	-9.80508
▁employ	-9.80582
▁magazine	-9.80751
▁relations	-9.80862
▁cross	-9.80986
▁ball	-9.81053
ia	-9.81099
▁football	-9.81103
▁23	-9.81476
▁numer	-9.81518
▁Paris	-9.81522
▁San	-9.81534
▁sitt	-9.81678
▁officer	-9.81725
▁mathematics	-9.81732
stan	-9.81779
▁carri	-9.81787
▁province	-9.81837
▁settlement	-9.8188
▁decade	-9.81978
▁philosoph	-9.81981
▁file	-9.82015
▁frequenc	-9.82038
▁Yes	-9.82065
▁investment	-9.82306
▁possibilit	-9.82369
▁capacity	-9.82415
▁useful	-9.82486
▁circle	-9.82719
▁visual	-9.82727
▁marri	-9.8286
▁characteristic	-9.82867
▁soldier	-9.83014
▁distribution	-9.83087
▁faster	-9.83135
▁dance	-9.83165
▁Arab	-9.83241
▁failure	-9.83294
▁paid	-9.83346
▁identity	-9.83378
▁internal	-9.83388
▁closed	-9.83461
▁aid	-9.83554
▁Ne	-9.83632
▁respect	-9.83863
▁grant	-9.84087
▁progress	-9.84135
▁perspective	-9.84227
▁mechanism	-9.84299
▁conversation	-9.84317
▁activit	-9.84379
▁supply	-9.84443
▁environmental	-9.84578
▁layer	-9.84591
credible	-9.84738
▁galax	-9.84805
▁School	-9.84805
▁proper	-9.84808
▁expert	-9.85028
or	-9.85124
▁variable	-9.85174
▁bacteria	-9.852
▁revolution	-9.85243
▁screen	-9.85485
ily	-9.85734
▁Can	-9.85898
▁reflect	-9.86014
▁match	-9.86032
▁print	-9.86634
▁acid	-9.86638
▁avoid	-9.86718
▁m	-9.8678
▁Jew	-9.86849
▁gold	-9.86863
▁remov	-9.86962
▁Irish	-9.87009
▁Dr	-9.872
▁hour	-9.87214
▁cycle	-9.87245
▁desire	-9.87279
▁equivalent	-9.87305
▁continent	-9.87324
bility	-9.87329
▁sounds	-9.87333
▁dimension	-9.87404
=	-9.87454
▁Over	-9.87552
▁onto	-9.87571
▁fell	-9.87575
▁post	-9.87587
▁rough	-9.8765
▁cold	-9.8784
▁oxygen	-9.87878
▁obtain	-9.87977
▁path	-9.88042
k	-9.8818
▁park	-9.88184
▁trust	-9.88225
▁massive	-9.88576
▁Like	-9.88579
▁deliver	-9.88627
▁underst	-9.88641
▁newspaper	-9.88729
▁virtual	-9.88768
▁manufactur	-9.88783
▁Lord	-9.88813
▁invent	-9.88814
▁presence	-9.88829
▁agreed	-9.88892
▁27	-9.89036
▁apply	-9.89197
▁♪	-9.89335
▁rain	-9.89347
▁appearance	-9.89435
▁bone	-9.89632
▁credit	-9.89683
▁leg	-9.89784
▁impossibl	-9.89796
▁Black	-9.89868
▁command	-9.89874
▁worldwide	-9.89877
▁predict	-9.89987
like	-9.90011
▁reading	-9.90039
▁sun	-9.90128
▁Afghani	-9.90134
▁suffer	-9.90224
▁Roy	-9.90347
▁vary	-9.90503
▁X	-9.90644
▁26	-9.90713
▁exchange	-9.90807
▁Common	-9.90943
▁bus	-9.9104
▁bond	-9.91065
▁CA	-9.91169
▁Minister	-9.91175
▁contact	-9.91348
▁controll	-9.91525
▁setting	-9.9153
▁dream	-9.9157
▁transport	-9.91703
▁tool	-9.91871
▁Turk	-9.91999
▁fit	-9.92001
▁Iraq	-9.92011
▁latter	-9.92031
▁Nav	-9.92076
▁Chicago	-9.92186
▁variation	-9.92189
▁fourth	-9.92244
▁contrast	-9.92264
▁historian	-9.9237
▁skin	-9.9245
▁advantage	-9.92577
wise	-9.92597
▁sudden	-9.92656
▁via	-9.92684
▁Also	-9.92703
ial	-9.92733
▁28	-9.92747
▁wind	-9.92759
▁Man	-9.92774
▁Ho	-9.92856
▁review	-9.92877
i	-9.92888
▁compound	-9.92891
▁nice	-9.93129
▁floor	-9.93228
▁genes	-9.93244
▁core	-9.9326
▁Gree	-9.93394
▁pull	-9.93522
▁Sun	-9.93589
▁expansion	-9.93602
▁debate	-9.93644
▁tin	-9.9369
▁route	-9.93716
▁Iran	-9.93732
▁extensive	-9.93761
▁Nation	-9.93808
▁hydrogen	-9.93841
▁sample	-9.9389
▁expensive	-9.9392
▁creative	-9.93953
▁zone	-9.93969
▁attend	-9.94037
▁importan	-9.94074
▁episode	-9.94159
▁wonder	-9.94187
▁stor	-9.9422
▁port	-9.94269
▁Late	-9.94383
ollege	-9.9448
▁atmosphere	-9.945
▁photograph	-9.94502
▁lose	-9.94518
▁o	-9.94564
▁western	-9.94671
▁leaving	-9.94718
▁Ca	-9.94735
▁convert	-9.94959
▁faith	-9.95186
D	-9.95245
▁notice	-9.95265
▁innovation	-9.95524
▁declar	-9.95671
▁enem	-9.95685
▁exception	-9.95827
▁recover	-9.95847
▁enjoy	-9.95928
▁brief	-9.95929
▁Government	-9.96009
▁electronic	-9.96155
▁encourage	-9.96236
▁ran	-9.96316
▁minister	-9.96335
▁classical	-9.96389
ership	-9.96427
▁capture	-9.96468
▁Northern	-9.96498
▁evolved	-9.96641
▁etc	-9.96969
▁identifi	-9.97003
▁Fin	-9.97096
▁distinct	-9.97216
▁domestic	-9.97218
▁fighting	-9.97246
+	-9.97317
▁error	-9.97317
▁combin	-9.97405
▁regional	-9.97464
▁Brazil	-9.97644
▁ready	-9.97684
▁musical	-9.97725
ine	-9.97736
▁estimat	-9.97759
▁bank	-9.98009
▁spoken	-9.98065
▁survive	-9.98197
▁Revolution	-9.98233
▁strateg	-9.98286
▁quantum	-9.98392
▁Bank	-9.98396
▁Don	-9.9852
▁administration	-9.98551
▁arriv	-9.98671
▁tax	-9.98819
▁scholars	-9.99042
▁note	-9.99084
▁door	-9.99085
▁prime	-9.99096
▁technical	-9.99152
▁mobile	-9.99275
▁legislati	-9.99302
▁stopp	-9.99365
▁vast	-9.99398
ur	-9.99429
▁threat	-9.99461
▁drink	-9.99648
▁poem	-9.99648
▁supposed	-9.99653
▁densit	-9.99674
▁frequently	-9.99707
▁infrastructure	-9.99818
▁biological	-9.99959
▁mathematical	-9.99985
▁bridge	-10.0014
▁Follow	-10.0015
▁strength	-10.0022
appointed	-10.0024
▁fine	-10.0032
▁facilit	-10.0034
the	-10.004
▁slave	-10.0041
▁native	-10.0049
▁Who	-10.0063
▁determined	-10.0075
▁cool	-10.0076
▁previously	-10.0108
▁Mars	-10.0114
▁dispute	-10.0118
▁interview	-10.0118
▁management	-10.0119
▁severe	-10.0119
▁rais	-10.0123
▁determine	-10.0128
▁expression	-10.0131
▁clearly	-10.0144
▁Old	-10.0149
▁pain	-10.0156
▁overall	-10.0179
▁Alexand	-10.0181
▁complicated	-10.0187
▁twice	-10.0195
▁Canadian	-10.0197
▁fill	-10.0208
▁High	-10.0218
▁programm	-10.0229
▁Robert	-10.023
▁thank	-10.0231
▁500	-10.0247
▁Red	-10.0253
▁sit	-10.0262
▁protection	-10.0267
▁somebod	-10.0274
▁apparent	-10.0277
▁Islands	-10.0281
▁respond	-10.0284
▁weapons	-10.0288
▁skills	-10.0288
▁Park	-10.029
▁edition	-10.0291
▁prison	-10.0293
▁guess	-10.0299
▁hot	-10.0313
▁waste	-10.0314
▁extra	-10.0316
ers	-10.0323
▁Pacific	-10.0334
▁author	-10.0339
BC	-10.0341
▁biolog	-10.0344
▁observ	-10.035
taken	-10.035
▁resistan	-10.0352
▁background	-10.0354
▁con	-10.0363
▁touch	-10.0364
▁solutions	-10.0367
▁non	-10.037
▁draw	-10.0383
▁dangerous	-10.0404
▁Street	-10.0413
▁organiz	-10.0416
▁balance	-10.0424
▁smart	-10.0431
▁Scot	-10.0436
▁foot	-10.0442
▁stress	-10.045
▁Day	-10.046
▁fiction	-10.0463
▁opposition	-10.0465
▁putting	-10.0468
head	-10.0471
▁arms	-10.0495
▁seek	-10.0497
▁speaker	-10.0514
▁phase	-10.0519
▁plane	-10.052
▁Apple	-10.0522
side	-10.0539
▁designer	-10.0547
▁combination	-10.0565
▁sister	-10.0573
▁indeed	-10.0573
▁yes	-10.0579
▁Jesu	-10.0581
▁pure	-10.0581
▁prove	-10.0582
▁baby	-10.0608
▁Google	-10.0619
▁net	-10.0624
▁Game	-10.0628
mperor	-10.0629
▁disorder	-10.0635
▁V	-10.0641
▁29	-10.0646
▁argu	-10.0654
▁agricultur	-10.0693
up	-10.0738
▁budget	-10.0745
▁wild	-10.0745
▁reject	-10.0753
▁concentration	-10.0754
▁responsibility	-10.076
▁candidate	-10.0762
▁x	-10.0764
▁Science	-10.0771
▁fun	-10.0774
▁Where	-10.0787
▁instruction	-10.0808
▁Un	-10.081
▁traffic	-10.0812
incredibly	-10.0817
▁Island	-10.0827
▁1930	-10.0845
▁none	-10.0853
▁unknown	-10.0855
▁judge	-10.0862
▁stone	-10.0871
▁universal	-10.0872
▁observation	-10.0874
▁compos	-10.0887
▁output	-10.09
▁teach	-10.0904
▁reveal	-10.0909
▁labor	-10.0926
▁chain	-10.0931
▁construct	-10.0945
▁Richard	-10.0946
▁generate	-10.0966
▁powers	-10.0966
▁iron	-10.0979
▁export	-10.0983
▁Institute	-10.0984
▁Christ	-10.0985
▁opposite	-10.0993
▁Once	-10.0996
▁opening	-10.1
▁govern	-10.1001
▁website	-10.1002
▁correct	-10.1002
▁gene	-10.1007
▁researcher	-10.101
▁fac	-10.1024
▁constitution	-10.1024
▁drop	-10.1024
▁processe	-10.103
▁notion	-10.1046
▁victor	-10.1068
▁check	-10.1068
▁kingdom	-10.1079
▁recording	-10.1083
▁apart	-10.1084
▁actor	-10.1104
ought	-10.1113
▁Mexic	-10.1123
▁winter	-10.1124
▁earth	-10.1145
▁tour	-10.1149
▁Arabic	-10.1165
▁husband	-10.1172
▁sleep	-10.1201
▁publication	-10.1229
▁extraordinar	-10.1238
▁request	-10.1238
▁deriv	-10.1241
▁round	-10.1242
▁respective	-10.1252
▁succeed	-10.1267
▁hair	-10.1287
▁rural	-10.1296
▁identify	-10.1298
▁practical	-10.1303
▁satellite	-10.1305
▁Islamic	-10.1307
▁See	-10.1334
▁favorite	-10.1334
▁Austria	-10.1345
▁Berli	-10.1346
▁branch	-10.1353
▁Australian	-10.1356
▁fan	-10.1361
▁Ro	-10.1372
▁discovery	-10.1374
efore	-10.1378
▁empire	-10.1383
▁Look	-10.1383
▁random	-10.1385
▁brand	-10.1395
▁300	-10.1396
▁1920	-10.1412
▁household	-10.1422
▁consciousness	-10.1422
▁ethnic	-10.1423
▁sentence	-10.1425
▁eastern	-10.1426
▁p	-10.144
°	-10.1441
▁marked	-10.1449
▁edge	-10.1453
▁quantit	-10.1463
▁passenger	-10.1471
▁ratio	-10.1472
▁manag	-10.1473
▁topic	-10.1473
▁fixed	-10.1474
▁agent	-10.1476
▁EU	-10.1481
▁wish	-10.1495
ories	-10.1507
▁classe	-10.1522
▁radiation	-10.153
▁exten	-10.1546
▁Christmas	-10.1549
▁White	-10.1551
▁contemporar	-10.1559
▁glass	-10.1559
▁contract	-10.1567
▁broke	-10.1578
▁council	-10.1579
▁AD	-10.1581
▁colleague	-10.1599
▁efficient	-10.1617
▁procedure	-10.1618
▁31	-10.1619
▁sports	-10.1624
▁representative	-10.1629
▁aim	-10.1638
▁permanent	-10.1639
▁refus	-10.1645
▁Maybe	-10.1664
▁Further	-10.1668
▁external	-10.1678
▁Hall	-10.169
tial	-10.1693
▁meter	-10.1713
▁producer	-10.172
▁Her	-10.1727
table	-10.1742
therland	-10.1743
▁familiar	-10.1751
▁dialect	-10.1759
▁Academ	-10.1779
▁Department	-10.1789
▁collective	-10.1789
▁replace	-10.1792
▁prior	-10.1796
▁driving	-10.1798
▁Sever	-10.1806
rthodox	-10.1819
▁soil	-10.1833
▁critic	-10.185
▁Po	-10.1854
▁35	-10.1859
▁option	-10.186
▁resident	-10.1869
▁web	-10.1877
▁foundation	-10.1889
▁agree	-10.1895
▁warm	-10.1897
▁contribution	-10.1912
▁composition	-10.1912
▁clean	-10.1919
uthern	-10.1927
▁Under	-10.1929
▁academic	-10.1932
▁recogniz	-10.1939
▁electrical	-10.1947
▁conference	-10.1952
▁gender	-10.1962
▁enormous	-10.1962
▁distinguish	-10.1965
▁plastic	-10.1968
▁broadcast	-10.1969
▁tissue	-10.1973
▁paint	-10.1976
▁transition	-10.1983
▁Award	-10.1985
▁re	-10.1989
▁walking	-10.1991
▁secure	-10.1992
▁Battle	-10.1993
▁holding	-10.2038
▁precise	-10.2039
▁capable	-10.2039
▁Smith	-10.2044
▁staff	-10.2055
▁sides	-10.2063
daily	-10.2074
II	-10.2078
▁drawing	-10.2085
▁formation	-10.2089
▁broken	-10.2091
time	-10.2091
▁worst	-10.2097
▁Center	-10.2118
▁adapt	-10.2119
▁visibl	-10.2124
▁landscape	-10.2128
▁1,000	-10.2141
▁genre	-10.2149
▁wood	-10.2161
▁Du	-10.2161
▁upper	-10.2165
▁museum	-10.217
▁throw	-10.2173
▁Count	-10.2178
▁algebra	-10.218
▁Free	-10.2181
▁mountain	-10.2183
▁input	-10.2189
▁Museum	-10.2191
ium	-10.2193
▁opinion	-10.2201
▁continuous	-10.2206
▁straight	-10.2221
▁crazy	-10.2233
▁Los	-10.224
▁Big	-10.2245
▁Three	-10.2255
▁nor	-10.2259
▁translation	-10.2266
▁virus	-10.2269
▁surprise	-10.2297
▁maximum	-10.2297
▁feed	-10.2306
▁Civil	-10.2307
▁phenomeno	-10.2318
▁league	-10.2318
▁co	-10.2337
▁fashion	-10.2339
▁agricultural	-10.2346
▁frame	-10.2351
▁consumer	-10.2355
▁dog	-10.236
▁Earl	-10.236
▁studio	-10.2361
moving	-10.2363
▁complexit	-10.2364
▁sales	-10.2366
▁executive	-10.2394
▁defense	-10.2406
▁Olympic	-10.2425
▁grown	-10.2428
ant	-10.2438
▁chemistr	-10.2451
▁split	-10.2457
▁promise	-10.2457
▁sky	-10.2471
▁script	-10.2482
▁struggle	-10.2484
▁height	-10.249
▁Such	-10.249
▁mine	-10.2495
ware	-10.2495
▁ancestor	-10.2501
▁spring	-10.2509
▁discuss	-10.2521
▁exciting	-10.2523
▁representation	-10.2541
▁theme	-10.2542
▁winning	-10.2549
▁flag	-10.2553
▁neighbor	-10.2555
▁Atlantic	-10.2558
sumption	-10.2561
▁requirement	-10.2562
▁Through	-10.2566
▁roll	-10.2584
▁convince	-10.2588
kay	-10.2599
▁justice	-10.2636
▁birds	-10.264
term	-10.2642
▁10,000	-10.2648
how	-10.2649
wood	-10.2653
▁Pakistan	-10.2667
▁custom	-10.2671
▁arrest	-10.2676
▁improvement	-10.2681
▁Cup	-10.269
▁enable	-10.2719
▁everywhere	-10.272
▁Bible	-10.2721
▁1940	-10.2732
▁Bill	-10.2733
tude	-10.2748
▁droppe	-10.2749
▁stick	-10.2751
▁transportation	-10.2756
ive	-10.2757
▁dominant	-10.2776
codice	-10.2777
▁orbit	-10.2807
▁magni	-10.2813
▁Final	-10.282
▁civilization	-10.2832
▁outcome	-10.2832
spread	-10.2843
▁Angel	-10.2844
▁collapse	-10.2845
▁medium	-10.2846
▁tru	-10.2847
▁sum	-10.2851
▁linear	-10.2852
▁convention	-10.2857
▁aware	-10.2871
▁transfer	-10.2871
▁Wom	-10.2874
▁bar	-10.2875
▁varie	-10.2876
▁civilian	-10.2889
▁invasion	-10.2889
▁tank	-10.2899
▁substance	-10.2899
▁dry	-10.2901
▁select	-10.2909
▁lies	-10.2913
▁honor	-10.2922
▁crew	-10.2922
▁worse	-10.2933
K	-10.2942
▁curve	-10.2945
▁radical	-10.2952
▁organic	-10.2954
▁Mary	-10.2967
▁prominent	-10.2968
▁regulation	-10.2968
▁statistic	-10.2974
▁reserve	-10.2986
▁platform	-10.2991
▁neurons	-10.3001
▁haven	-10.3021
▁giant	-10.3024
▁retain	-10.3024
▁dramatic	-10.3036
ty	-10.3044
▁45	-10.3048
▁master	-10.3062
▁measurement	-10.3076
▁bough	-10.3091
▁combat	-10.3093
▁participate	-10.3096
▁Asian	-10.3097
▁minor	-10.31
▁reign	-10.3104
▁invest	-10.3104
▁Video	-10.3105
▁integer	-10.3105
▁weather	-10.3105
▁Peter	-10.3109
▁depression	-10.3117
▁coal	-10.3118
▁mouth	-10.3121
▁trip	-10.313
▁injur	-10.3133
▁organ	-10.3137
▁liquid	-10.3139
▁Croatia	-10.3151
▁Prime	-10.3151
▁ordinar	-10.3162
▁dedicat	-10.3192
▁promote	-10.3194
▁magnetic	-10.3197
▁Swede	-10.3206
▁Egyptian	-10.3209
▁Columbia	-10.3217
▁confirm	-10.3221
▁nav	-10.3229
▁employee	-10.3233
▁transformation	-10.3237
▁repeated	-10.3256
▁streets	-10.3258
▁suffering	-10.326
▁Times	-10.3264
▁spirit	-10.328
▁mechanical	-10.3292
▁chief	-10.3303
▁relation	-10.3313
▁percentage	-10.3321
▁unlike	-10.3328
▁ideal	-10.3329
▁Compan	-10.3338
▁universit	-10.3339
drew	-10.335
▁operator	-10.3353
▁sought	-10.3356
▁farmers	-10.3369
▁Assembl	-10.3373
inary	-10.3375
▁spoke	-10.3379
▁compassion	-10.3379
losing	-10.3387
▁Queen	-10.3388
▁victim	-10.3388
▁Life	-10.3397
▁heavi	-10.3404
▁census	-10.3409
▁solid	-10.3425
▁librar	-10.3432
▁survey	-10.3445
em	-10.3449
▁Martin	-10.3456
▁Einstein	-10.3457
▁Apollo	-10.3469
▁circuit	-10.3471
▁partner	-10.3471
upreme	-10.3476
▁interact	-10.3484
▁lesson	-10.3495
▁diversit	-10.3498
▁phrase	-10.3504
▁abandon	-10.3504
▁introduction	-10.3505
▁discussion	-10.353
▁emotional	-10.3531
▁Dan	-10.3531
▁criminal	-10.3539
▁debt	-10.3541
▁surrounding	-10.3543
▁supplie	-10.3552
▁broad	-10.3556
▁mixed	-10.3562
▁remove	-10.3564
▁interface	-10.3577
▁75	-10.3577
▁decrease	-10.3581
▁philosopher	-10.3581
▁spot	-10.3584
▁approv	-10.3585
▁intellectual	-10.3589
▁dynamic	-10.359
▁roads	-10.3616
▁inner	-10.362
▁distribut	-10.3623
▁suit	-10.3628
▁stoo	-10.364
▁opportunit	-10.3642
▁weak	-10.3642
▁gradual	-10.365
▁artificial	-10.3651
▁driver	-10.3659
▁exercise	-10.3666
▁indigen	-10.3674
▁dat	-10.3675
▁accurate	-10.3676
▁serv	-10.3678
▁Societ	-10.3686
▁afford	-10.3692
▁partie	-10.3692
▁domain	-10.3698
▁settl	-10.3704
▁appropriate	-10.3712
▁100,000	-10.3714
▁interpretation	-10.3724
▁engage	-10.3726
▁Sometime	-10.3738
▁moon	-10.3739
▁Islam	-10.3757
▁circumstance	-10.376
▁Wal	-10.376
▁authors	-10.3768
▁excited	-10.3774
▁coin	-10.3779
▁quarter	-10.378
▁infinite	-10.3785
▁steel	-10.3786
▁stock	-10.3806
▁occupie	-10.3809
▁festival	-10.3809
▁bunch	-10.3809
▁carrier	-10.3829
▁forth	-10.3832
▁Bost	-10.3832
▁description	-10.3834
brew	-10.3836
▁400	-10.3837
▁please	-10.3854
▁camp	-10.3857
▁currenc	-10.386
▁65	-10.3862
▁cheap	-10.3872
▁Book	-10.3877
ssociation	-10.3879
▁ring	-10.3881
▁copy	-10.3886
▁lowest	-10.3892
▁neighborhood	-10.3896
▁recognition	-10.3896
▁poetry	-10.3897
▁Mr	-10.3907
▁prov	-10.3918
ley	-10.3918
▁regime	-10.3921
▁El	-10.3925
▁Treat	-10.3933
▁usage	-10.3955
▁calendar	-10.3959
▁childhood	-10.3959
▁parent	-10.3961
▁younger	-10.3961
▁narrative	-10.3962
▁assume	-10.3964
▁influen	-10.3966
▁accident	-10.3972
▁divers	-10.3979
▁administrative	-10.3984
▁fifth	-10.3991
▁banks	-10.3993
▁gun	-10.3998
▁cast	-10.4003
▁sport	-10.4005
▁hearing	-10.4011
▁scar	-10.4015
▁secondar	-10.4015
▁emotion	-10.4028
▁therap	-10.4031
▁register	-10.4048
▁lifetime	-10.4056
▁earn	-10.4058
▁comment	-10.4063
▁graph	-10.4065
▁Human	-10.4073
▁spiritual	-10.411
▁colony	-10.4156
▁Never	-10.4161
▁illegal	-10.4161
▁conservative	-10.4164
▁Commission	-10.4168
▁symptom	-10.4174
▁selection	-10.4176
▁n	-10.4182
ist	-10.4184
▁democratic	-10.4186
▁Law	-10.4189
▁spaces	-10.4192
what	-10.4192
▁farm	-10.4194
▁aren	-10.4198
▁probabilit	-10.42
x	-10.4215
▁views	-10.4232
▁flat	-10.4236
▁identical	-10.4239
▁affair	-10.424
▁Committe	-10.4252
▁terribl	-10.4252
▁dominat	-10.4263
▁Though	-10.4266
▁La	-10.4269
▁attract	-10.4276
▁functional	-10.4277
▁educational	-10.428
▁chair	-10.429
▁attach	-10.4292
▁immigrant	-10.4303
▁Are	-10.4304
▁soul	-10.4306
▁contribute	-10.4308
▁boat	-10.4308
▁Hungar	-10.4317
▁Defen	-10.4329
▁email	-10.433
▁bishop	-10.433
▁peak	-10.4333
▁1982	-10.434
▁entit	-10.4342
▁Time	-10.4342
▁explanation	-10.4342
▁grand	-10.4355
destruction	-10.4356
▁prepared	-10.436
▁committ	-10.4361
ification	-10.4375
▁exclusive	-10.4382
▁portion	-10.4384
▁Francisco	-10.4395
▁parallel	-10.4397
▁customer	-10.4411
▁commission	-10.4417
▁Year	-10.4419
▁detect	-10.442
▁Ocean	-10.4421
▁royal	-10.4421
▁Israeli	-10.4428
▁monarch	-10.4434
▁spectrum	-10.4434
▁Republican	-10.445
▁Modern	-10.4461
▁yellow	-10.4475
▁colonial	-10.448
▁occasion	-10.4498
▁assign	-10.45
▁coffee	-10.45
▁Constantin	-10.45
▁strange	-10.4501
▁atomic	-10.4502
▁decide	-10.4508
▁missile	-10.4514
▁achiev	-10.4515
▁healthy	-10.4521
▁Constitution	-10.4527
▁liberal	-10.4527
▁favor	-10.4528
magine	-10.4547
▁Michael	-10.4553
▁alive	-10.4556
▁communicate	-10.4556
▁complet	-10.4557
▁Portuguese	-10.4567
▁molecular	-10.4569
col	-10.4569
▁saving	-10.457
▁believ	-10.4584
▁bill	-10.4609
▁professor	-10.4618
▁variant	-10.462
▁ensure	-10.4622
▁manager	-10.4623
▁Louis	-10.4634
▁Adam	-10.4635
▁illness	-10.4648
▁logic	-10.4657
▁g	-10.4659
▁blind	-10.4661
▁principal	-10.4661
▁remind	-10.467
f	-10.4673
▁theorem	-10.4674
▁crop	-10.4676
▁efficienc	-10.4678
▁invit	-10.4688
▁cave	-10.4691
▁minimum	-10.4701
▁defend	-10.4703
▁150	-10.4728
▁lay	-10.4738
z	-10.4739
▁super	-10.4741
▁desert	-10.4742
▁Green	-10.4748
▁Darwin	-10.4755
▁Zealand	-10.4755
▁Research	-10.4755
▁remarkabl	-10.4756
▁format	-10.4763
▁Test	-10.4772
▁drawn	-10.4778
▁purchase	-10.4783
▁finite	-10.4783
▁engaged	-10.4794
▁hero	-10.48
▁medi	-10.4811
▁HIV	-10.4812
▁32	-10.4817
▁vowel	-10.4824
▁opponent	-10.4837
▁angle	-10.4843
surance	-10.4847
▁appeal	-10.4851
▁tribes	-10.4856
▁Lin	-10.4856
▁prisoner	-10.486
▁Senat	-10.4864
▁strict	-10.4865
▁vector	-10.4865
▁ruler	-10.4872
eval	-10.4872
ng	-10.4874
▁promot	-10.4882
▁happiness	-10.4894
▁stat	-10.4915
▁comput	-10.4918
▁graduate	-10.4918
▁Brown	-10.492
▁Persian	-10.492
▁calculate	-10.4921
▁fix	-10.4929
gun	-10.4933
▁creature	-10.4934
▁extension	-10.4948
▁Am	-10.4948
▁Bay	-10.4952
▁firm	-10.4954
▁invention	-10.4964
▁Health	-10.4975
▁patent	-10.4975
el	-10.4984
▁department	-10.4989
▁ion	-10.5002
▁Ottoman	-10.5003
▁sugar	-10.5003
▁Grand	-10.5005
▁assembl	-10.5017
call	-10.5017
▁baseball	-10.5018
BM	-10.5023
▁meat	-10.5025
▁Edward	-10.5031
▁perception	-10.5031
io	-10.5035
▁switch	-10.5042
▁Among	-10.5045
▁lie	-10.5047
▁copie	-10.505
▁sing	-10.5053
▁Texas	-10.5059
▁revenue	-10.5059
▁architect	-10.5087
▁genome	-10.5087
▁proof	-10.5087
▁manner	-10.5089
▁surround	-10.5099
▁Any	-10.51
▁airport	-10.5101
▁Hindu	-10.5115
▁inhabitant	-10.5115
▁remote	-10.5123
▁conclusion	-10.5129
▁wherea	-10.513
▁mom	-10.5139
▁lake	-10.5143
▁Holly	-10.5149
ver	-10.5151
▁killing	-10.5174
▁acquir	-10.5179
▁manage	-10.5193
▁rational	-10.5197
▁false	-10.5214
▁row	-10.5221
▁trend	-10.5228
▁cognitive	-10.5229
▁Boy	-10.5229
km	-10.5233
▁minority	-10.5235
▁union	-10.5237
▁alcohol	-10.5241
▁Federal	-10.5243
▁Christians	-10.5252
▁fossil	-10.5253
▁substantial	-10.5257
ey	-10.5259
▁horse	-10.5273
▁deeply	-10.5282
▁beat	-10.5283
▁distinction	-10.5303
▁bird	-10.5304
▁contribut	-10.5306
▁Four	-10.5312
▁Indonesia	-10.5314
▁Abou	-10.5318
▁threaten	-10.5324
▁honest	-10.533
▁guitar	-10.5343
▁conventional	-10.5346
▁clinical	-10.5356
▁notabl	-10.5356
▁nei	-10.5372
▁beaut	-10.5386
▁Which	-10.5387
▁industri	-10.5394
▁mechanic	-10.54
▁psycholog	-10.5401
▁integrat	-10.5403
rising	-10.5405
▁Prince	-10.5406
▁escape	-10.5412
▁Johnson	-10.5417
▁label	-10.5418
▁dependent	-10.5421
etween	-10.5428
▁mark	-10.5428
▁concrete	-10.543
▁Prize	-10.543
▁fellow	-10.5433
▁Scottish	-10.5445
▁resolution	-10.5458
▁System	-10.5459
▁Kong	-10.546
▁explore	-10.546
▁yea	-10.5462
nmark	-10.5467
▁cable	-10.5469
▁evolutionary	-10.5476
▁mix	-10.5477
▁naturally	-10.5481
▁belong	-10.5488
▁sufficient	-10.5491
▁controversial	-10.5506
▁improv	-10.5509
▁luck	-10.5542
▁fresh	-10.5547
▁Valle	-10.5549
▁parliament	-10.5567
▁empty	-10.5577
▁math	-10.558
▁entertain	-10.5591
▁Y	-10.5593
▁breath	-10.5598
▁motor	-10.5607
▁Democratic	-10.5622
▁mode	-10.5629
▁emperor	-10.5631
▁Chris	-10.5633
▁classifi	-10.5634
▁fleet	-10.5641
▁considerabl	-10.5645
▁reputation	-10.5651
▁Lake	-10.5653
▁Bush	-10.5666
▁factory	-10.5667
ful	-10.5667
▁consistent	-10.5671
▁modifi	-10.5681
▁1987	-10.5692
der	-10.5695
▁Young	-10.5718
▁advice	-10.5725
▁manuscript	-10.5725
▁measur	-10.5726
▁telephone	-10.5741
▁proportion	-10.5744
▁evil	-10.5756
▁pilot	-10.576
▁NASA	-10.577
▁mountains	-10.5782
▁Go	-10.5782
▁relevant	-10.5787
▁stream	-10.581
▁Sir	-10.5813
▁advanc	-10.5827
▁Gulf	-10.5831
▁classic	-10.5848
▁gravity	-10.5848
▁abstract	-10.586
▁sphere	-10.5864
▁violent	-10.5864
▁occasional	-10.5864
▁Joseph	-10.5876
▁unusual	-10.5876
▁translat	-10.588
▁pop	-10.5894
▁magic	-10.5902
te	-10.5902
▁skill	-10.5903
corruption	-10.5905
▁item	-10.5906
▁Nobel	-10.5907
▁hidden	-10.5907
▁hous	-10.5907
▁hunt	-10.5912
▁framework	-10.5922
▁governor	-10.5938
▁alphabet	-10.5952
▁vessel	-10.5953
▁Moon	-10.5954
▁objective	-10.5955
▁encounter	-10.5968
▁criticism	-10.5969
▁establishment	-10.598
▁fantastic	-10.5996
▁intelligent	-10.6003
▁dy	-10.6015
▁Saint	-10.603
▁valuable	-10.6032
▁courts	-10.6035
onze	-10.6046
▁railway	-10.6048
▁analog	-10.6049
▁sole	-10.6052
▁senior	-10.6061
▁momentum	-10.6066
▁trouble	-10.6076
▁finger	-10.6078
▁Take	-10.6081
oxide	-10.6092
▁Space	-10.6092
▁dealing	-10.612
▁trad	-10.612
▁Elizabeth	-10.6122
▁rail	-10.6127
▁insect	-10.6139
▁transferr	-10.6146
fare	-10.6161
▁afraid	-10.617
water	-10.6172
▁reduction	-10.6178
▁doubt	-10.6189
▁generat	-10.6199
▁association	-10.6201
▁reverse	-10.6205
▁corresponding	-10.6211
▁plus	-10.6215
▁interpret	-10.6216
▁Unti	-10.6217
▁manufacturer	-10.6232
▁plot	-10.6235
▁anyway	-10.6251
▁printing	-10.626
▁diet	-10.626
▁experimental	-10.6262
▁slavery	-10.6266
▁Balti	-10.6273
ical	-10.6275
▁Pope	-10.6282
£	-10.6296
▁Nor	-10.6307
▁chart	-10.6308
▁serving	-10.6309
▁controvers	-10.6311
▁passion	-10.632
▁Detroit	-10.6327
▁surprising	-10.6327
▁mistake	-10.6339
“	-10.6343
▁catch	-10.6345
▁treaty	-10.6346
▁joint	-10.6352
▁ending	-10.6363
▁boundar	-10.6371
▁Amazon	-10.6375
▁folk	-10.6375
▁psychological	-10.6376
▁infection	-10.6376
▁Good	-10.6383
ribbe	-10.6384
▁gather	-10.6389
▁cent	-10.6406
▁imperial	-10.6423
▁Think	-10.6423
▁towns	-10.6426
▁pre	-10.6433
▁Lab	-10.6439
▁Your	-10.6444
▁entrop	-10.6456
▁Cleve	-10.6456
▁assum	-10.646
▁profound	-10.6472
▁bound	-10.6472
▁Harvard	-10.6488
▁Facebook	-10.6488
▁Vietnam	-10.6488
▁isolat	-10.6497
▁Ghana	-10.6504
▁theoretical	-10.6504
▁transmission	-10.6504
▁forget	-10.6511
▁bits	-10.6512
erusal	-10.6513
▁demonstrate	-10.6519
▁priest	-10.652
editerranea	-10.652
▁Cuba	-10.652
▁sick	-10.6521
▁branche	-10.6522
▁capita	-10.6529
scale	-10.6547
▁load	-10.6549
▁Convention	-10.6553
▁calling	-10.6568
▁suicide	-10.6569
truck	-10.6584
▁client	-10.6585
▁noise	-10.6586
▁laid	-10.6588
▁handle	-10.6591
▁careful	-10.6593
▁stronger	-10.6599
▁disappear	-10.6601
▁voting	-10.6602
▁corner	-10.6609
▁pitch	-10.6615
▁guns	-10.6632
▁comparison	-10.6635
▁33	-10.6641
▁entry	-10.6642
▁fluid	-10.6651
▁mere	-10.6654
▁fighter	-10.6663
▁geometr	-10.6664
▁brown	-10.6667
▁discipline	-10.6672
▁Film	-10.6673
▁Finn	-10.6692
ized	-10.67
▁tumor	-10.6701
▁polic	-10.6708
▁Star	-10.6709
▁intervention	-10.6717
▁corporate	-10.6718
▁brains	-10.673
▁conservation	-10.6733
▁gay	-10.6737
▁vaccine	-10.675
▁organis	-10.6758
▁indicat	-10.6766
▁Chile	-10.6767
▁abuse	-10.6767
▁sustain	-10.6777
▁worry	-10.6779
▁sat	-10.6787
0,000	-10.6808
▁Haiti	-10.6815
▁Le	-10.6816
▁burie	-10.6817
▁strategic	-10.6837
▁Histor	-10.6843
ninsula	-10.6848
▁Czech	-10.685
▁strike	-10.685
▁Virgin	-10.685
▁uniform	-10.6851
▁photo	-10.6854
▁Korea	-10.6863
▁Similar	-10.6867
▁k	-10.6873
ac	-10.6887
dge	-10.6887
▁Protest	-10.69
▁editor	-10.6901
▁install	-10.6901
▁mineral	-10.6901
▁Hungarian	-10.6901
▁Newton	-10.6901
▁wine	-10.6902
▁babi	-10.6906
▁incorporat	-10.6911
▁vertical	-10.6918
▁rose	-10.692
▁advertis	-10.6923
▁featur	-10.6934
▁comic	-10.6934
▁Nazi	-10.6935
▁silver	-10.6938
▁rivers	-10.6944
▁constitutional	-10.6946
▁slide	-10.6952
uke	-10.6956
▁cook	-10.6974
,000	-10.6975
▁recommend	-10.6984
”	-10.6985
▁historic	-10.6986
▁diplomatic	-10.6986
▁gap	-10.6988
▁partners	-10.6988
▁conclud	-10.6992
▁emergenc	-10.6994
▁tough	-10.6998
▁committee	-10.7002
▁Swed	-10.7007
▁musician	-10.7009
▁database	-10.7019
▁imagination	-10.702
▁depth	-10.702
▁compare	-10.7022
▁Secretary	-10.7036
▁campus	-10.7039
▁youth	-10.7047
atrix	-10.7052
velt	-10.7053
▁disk	-10.7053
▁sale	-10.7068
▁laboratory	-10.7069
ose	-10.7077
A	-10.7088
▁composer	-10.7089
ground	-10.7109
▁inform	-10.7127
▁polici	-10.7137
▁headquarter	-10.7139
over	-10.7148
▁sustainabl	-10.7153
▁concert	-10.7156
▁min	-10.7163
▁stabilit	-10.7169
▁occupation	-10.7171
−	-10.7174
▁dynast	-10.7174
▁prize	-10.7174
▁Oxford	-10.7191
▁coalition	-10.7191
▁narrow	-10.7191
▁mainstream	-10.7191
▁Iranian	-10.7192
▁jump	-10.7193
▁bomb	-10.7197
▁Polis	-10.7225
▁fruit	-10.7227
▁Sunday	-10.7236
▁expos	-10.724
▁smell	-10.7243
▁Jackson	-10.7243
▁compete	-10.7248
▁tape	-10.7282
▁surgery	-10.7291
▁artistic	-10.7292
▁separation	-10.7296
▁sharing	-10.7328
▁unfortunate	-10.7331
▁raw	-10.7333
▁95	-10.7335
▁inspiration	-10.7342
▁characteriz	-10.7346
▁Belgi	-10.7347
▁Bell	-10.7348
▁velocit	-10.7348
▁Love	-10.7352
N	-10.7353
ament	-10.736
▁danger	-10.7365
▁Best	-10.7369
▁kilometer	-10.7371
it	-10.738
▁weapon	-10.7401
▁Mark	-10.7404
▁license	-10.7407
▁murder	-10.741
▁muscle	-10.7419
▁immigration	-10.7419
▁window	-10.7424
ary	-10.7426
▁99	-10.7426
▁Coast	-10.7455
▁Guinea	-10.7455
eign	-10.7456
▁asset	-10.7464
▁snow	-10.7472
▁restrict	-10.7473
▁absorb	-10.7475
▁grain	-10.7478
▁rely	-10.7479
▁36	-10.749
bas	-10.749
▁philosophical	-10.7492
▁missing	-10.7492
▁plate	-10.7495
erson	-10.7504
▁coloni	-10.751
▁clock	-10.7529
ootball	-10.7538
▁interior	-10.7541
▁Airport	-10.7544
▁array	-10.7544
eath	-10.7548
▁finance	-10.7548
▁v	-10.7565
▁noun	-10.7565
▁Frank	-10.7568
#	-10.7576
▁agenc	-10.7577
while	-10.7583
▁Seri	-10.759
▁crucial	-10.7599
▁assistan	-10.7615
▁Doctor	-10.7634
▁hypothesis	-10.7635
ard	-10.7636
▁willing	-10.7649
▁minds	-10.765
▁Public	-10.7653
▁thin	-10.7653
ian	-10.7664
half	-10.7675
▁Office	-10.7689
▁coral	-10.7689
▁soft	-10.769
▁perceiv	-10.7693
▁Securit	-10.7707
▁inflation	-10.7707
C	-10.7712
▁agency	-10.7714
▁absence	-10.7725
▁mammal	-10.7725
▁Foundation	-10.7726
▁captur	-10.7732
▁preferr	-10.7733
▁wider	-10.7736
itler	-10.7745
▁dad	-10.7747
▁Aristot	-10.7762
▁Blue	-10.7764
▁citizen	-10.7764
▁accus	-10.7772
▁column	-10.778
▁Divisi	-10.7781
▁underly	-10.7781
▁forc	-10.7786
witzer	-10.779
▁lands	-10.7795
▁proposal	-10.7796
▁doctrine	-10.7799
▁audio	-10.7799
▁Microsoft	-10.7799
▁funny	-10.7799
▁refugee	-10.7808
▁Ministr	-10.7817
▁session	-10.7817
▁distant	-10.7817
gen	-10.7818
▁Cambri	-10.7819
▁approache	-10.7823
▁stem	-10.7825
▁nucle	-10.7826
▁Albert	-10.7827
▁hate	-10.7829
▁sub	-10.7837
▁passage	-10.784
▁Justi	-10.7846
▁cat	-10.7848
▁Additional	-10.7854
▁classroom	-10.7854
▁Project	-10.7856
▁strip	-10.7861
ner	-10.7864
ch	-10.787
▁retir	-10.7871
▁Alexandria	-10.7873
▁differ	-10.7873
▁counter	-10.7874
▁climb	-10.7878
▁criticiz	-10.7879
▁heads	-10.7885
▁tremendous	-10.7892
▁Ala	-10.7901
▁Did	-10.7904
▁collaboration	-10.791
▁sand	-10.7914
▁celebrat	-10.7921
ology	-10.7921
▁Ver	-10.7925
▁Group	-10.7929
▁Georgia	-10.7929
▁Armenia	-10.7929
▁spell	-10.7929
▁64	-10.794
▁Wall	-10.7941
▁deploy	-10.7946
▁Festival	-10.7947
▁unemploy	-10.7948
▁exhibition	-10.7949
▁Radio	-10.7958
▁expedition	-10.7966
▁1900	-10.7985
▁breaking	-10.799
▁preserve	-10.7991
CE	-10.8002
▁Major	-10.8004
▁Service	-10.8004
▁oh	-10.8011
▁parliamentar	-10.8017
▁newly	-10.802
▁simultaneous	-10.8023
▁wars	-10.8025
▁bind	-10.8041
▁vital	-10.8041
▁merchant	-10.8043
▁coach	-10.8043
▁Up	-10.8046
▁gods	-10.805
▁1947	-10.8051
▁Albania	-10.8059
▁chapter	-10.806
▁shipp	-10.8061
▁ceremon	-10.8079
▁tail	-10.8083
▁bass	-10.8097
▁immune	-10.8098
▁elite	-10.8098
▁Have	-10.8115
▁Clinton	-10.8117
▁myth	-10.8122
▁48	-10.8126
▁verb	-10.8131
▁confuse	-10.8136
▁Palestinian	-10.8138
▁cooperati	-10.8141
▁approval	-10.8144
▁commitment	-10.8157
▁Hill	-10.8158
▁winner	-10.8175
▁Be	-10.8177
▁UN	-10.8189
▁la	-10.8192
▁negotiation	-10.8194
ble	-10.8195
▁Five	-10.8196
▁divine	-10.8198
▁invisibl	-10.8207
▁Imperial	-10.8213
▁br	-10.8215
▁tower	-10.8217
▁visitor	-10.8227
▁Syria	-10.8228
▁poet	-10.8232
▁ongoing	-10.8254
▁statistical	-10.8258
▁Organization	-10.8271
▁attitude	-10.8271
round	-10.8279
▁34	-10.8282
▁documentar	-10.8287
▁Frankl	-10.8303
▁axis	-10.8304
▁personne	-10.8308
▁scheme	-10.8309
▁Little	-10.8309
▁Hous	-10.8319
▁afterward	-10.8322
▁creativ	-10.8324
▁Tom	-10.8329
▁stuck	-10.8329
▁44	-10.8337
▁Berk	-10.835
▁prepar	-10.8354
▁dinosaur	-10.8368
▁Education	-10.8368
tion	-10.8369
▁shooting	-10.8374
▁opera	-10.8376
na	-10.8381
▁conquer	-10.8384
▁diameter	-10.8387
▁intense	-10.8387
▁Native	-10.8388
▁Cape	-10.8389
▁airplane	-10.8407
▁bag	-10.8414
▁god	-10.8415
▁extinct	-10.8426
▁dogs	-10.8426
▁Jones	-10.8429
▁import	-10.8435
▁dot	-10.8437
▁multi	-10.8456
▁ecosystem	-10.8466
▁shall	-10.8466
▁flower	-10.8485
▁throne	-10.8486
▁partial	-10.85
▁Alaska	-10.8505
▁structural	-10.8505
eley	-10.8507
▁intention	-10.8509
▁cloud	-10.8515
▁mayor	-10.852
wealth	-10.852
▁index	-10.8545
▁investigation	-10.8546
▁originat	-10.8549
▁malaria	-10.855
▁taxe	-10.8552
▁bann	-10.8552
▁concentrat	-10.8555
▁arrival	-10.8557
night	-10.8564
▁Window	-10.8565
▁Lewi	-10.8565
▁eating	-10.8574
▁competitive	-10.859
▁animation	-10.8593
▁incident	-10.8599
▁teeth	-10.8605
▁Librar	-10.8606
▁republic	-10.8625
▁reward	-10.8626
▁hopeful	-10.8635
▁Technolog	-10.8645
▁monkey	-10.8645
▁Development	-10.8645
▁Fox	-10.8665
▁marine	-10.8665
▁node	-10.8665
▁server	-10.8668
▁accessibl	-10.868
▁cash	-10.8685
▁crowd	-10.8691
▁operational	-10.8699
▁introduce	-10.8704
▁42	-10.8716
▁derive	-10.8723
▁homes	-10.8736
▁sad	-10.874
▁wound	-10.8746
▁Ford	-10.8755
dimensional	-10.8759
▁Commun	-10.8766
ities	-10.8776
▁sixth	-10.8776
ado	-10.8776
▁Philip	-10.8785
▁Conference	-10.8786
▁infantry	-10.8787
▁Golden	-10.8787
▁Atlant	-10.8805
▁burning	-10.8805
▁challeng	-10.8823
▁owner	-10.8826
Channel	-10.8827
▁Twitter	-10.8827
▁salt	-10.8827
▁dozen	-10.8828
▁educat	-10.8829
hand	-10.8829
▁emphasi	-10.8845
▁proud	-10.8847
▁migration	-10.8848
▁extinction	-10.8851
▁accomplish	-10.8866
▁unclear	-10.8868
FL	-10.887
can	-10.8871
▁Social	-10.8888
▁mathematician	-10.8888
▁accompani	-10.8888
▁hurt	-10.8889
▁specializ	-10.8894
▁integration	-10.8912
▁Color	-10.8913
▁alter	-10.8913
▁bright	-10.8935
▁logical	-10.8935
▁journal	-10.8939
▁significan	-10.8942
▁anti	-10.8946
▁landing	-10.8954
▁ritual	-10.8961
p	-10.8967
▁execut	-10.897
▁tie	-10.8973
▁conscious	-10.8978
▁Tur	-10.8982
estate	-10.899
▁Colombia	-10.8992
▁fraction	-10.8992
▁hence	-10.8996
▁restriction	-10.9014
▁cloth	-10.9025
▁Third	-10.9025
▁tube	-10.9027
▁Bob	-10.9027
and	-10.9031
▁Economic	-10.9033
▁mixture	-10.9034
▁metric	-10.9036
▁rena	-10.9045
▁valid	-10.9047
▁37	-10.9049
▁permission	-10.9055
▁legacy	-10.9056
▁experienc	-10.9062
▁autonomous	-10.9064
een	-10.907
▁38	-10.9074
▁Ancient	-10.9075
▁Would	-10.9075
▁equilibr	-10.9075
hur	-10.9076
▁systematic	-10.9076
▁politician	-10.9077
▁weird	-10.9094
▁preserv	-10.9095
BI	-10.9106
▁Audience	-10.9117
▁participant	-10.9117
▁600	-10.9118
▁cult	-10.9119
broad	-10.912
▁fusion	-10.9125
▁phenomena	-10.913
▁rid	-10.9147
▁farming	-10.9155
▁franchise	-10.9159
▁golden	-10.9164
▁attribut	-10.9165
▁tone	-10.9167
▁cry	-10.917
orrow	-10.9175
▁longest	-10.9178
▁explicit	-10.918
▁caval	-10.918
▁plac	-10.9181
▁55	-10.9186
▁fold	-10.9203
ization	-10.9207
tra	-10.9212
▁coordinate	-10.9217
▁Communist	-10.9223
fall	-10.9224
▁trick	-10.9234
▁stranger	-10.9242
▁cure	-10.9243
▁derivative	-10.9244
▁fascinating	-10.9253
▁Home	-10.9253
▁Illinois	-10.9287
▁consensus	-10.9287
▁ethical	-10.9288
▁Me	-10.9302
▁decay	-10.9308
▁Bulgaria	-10.9309
▁ethic	-10.9314
▁succession	-10.932
▁wing	-10.9321
▁District	-10.933
▁ruling	-10.933
▁Edi	-10.9333
▁stroke	-10.934
ship	-10.9344
right	-10.9348
▁cinema	-10.9351
▁spacecraft	-10.9351
zant	-10.9352
▁conque	-10.9357
▁Bangladesh	-10.9369
ped	-10.9375
▁fantasy	-10.938
▁insight	-10.9393
▁guilt	-10.9394
▁Hondura	-10.9394
▁miss	-10.9395
▁logo	-10.9395
▁sensitive	-10.9395
▁Athen	-10.9395
tic	-10.9396
▁restor	-10.9409
▁boundary	-10.9413
▁designate	-10.9415
▁epidemic	-10.9416
▁Steve	-10.9417
▁odd	-10.9431
▁sensor	-10.9432
▁outer	-10.9439
▁Greenland	-10.9442
▁forever	-10.9447
▁birthday	-10.9455
▁tension	-10.9461
▁Az	-10.9464
ore	-10.9473
▁temple	-10.9481
▁Board	-10.9482
▁admitted	-10.9503
▁participat	-10.9511
▁bubble	-10.9516
▁Kenya	-10.9526
▁successor	-10.9528
sterda	-10.953
▁Scott	-10.9531
▁reliabl	-10.9533
iller	-10.9537
bed	-10.9539
▁grade	-10.954
▁owners	-10.9542
▁piano	-10.9547
▁conversi	-10.9551
▁AIDS	-10.9552
▁coup	-10.956
▁spin	-10.9565
▁synthesi	-10.9567
▁Argentin	-10.9568
▁bottle	-10.9569
▁curious	-10.9569
▁voter	-10.9579
▁poll	-10.9585
ie	-10.9586
▁Jer	-10.9587
▁depict	-10.9589
▁Again	-10.959
▁Standard	-10.9591
▁Ethiopia	-10.9592
▁Peace	-10.9596
▁anxiety	-10.9597
▁shell	-10.9602
seas	-10.9602
▁quote	-10.9605
▁exposure	-10.9613
▁pronounce	-10.9613
▁brilliant	-10.9617
▁PC	-10.9618
▁matche	-10.962
▁determin	-10.9623
▁Celt	-10.9628
▁marry	-10.9635
▁Buddhist	-10.9637
▁neutral	-10.9642
▁Trad	-10.9644
ija	-10.9647
▁journalist	-10.9648
▁Dublin	-10.9657
▁mouse	-10.9657
▁Town	-10.9657
▁Afghan	-10.9669
▁alliance	-10.9672
▁cu	-10.9673
▁CO	-10.9674
▁Lee	-10.9676
▁dialogue	-10.9679
▁entitle	-10.9681
▁shock	-10.9684
▁duty	-10.9685
▁ill	-10.9701
▁Napoleon	-10.9702
▁autism	-10.9702
▁Pe	-10.9713
▁accura	-10.9724
▁arrangement	-10.9724
▁grandmother	-10.9727
▁stands	-10.973
▁eggs	-10.9733
known	-10.9734
▁camps	-10.9746
▁funeral	-10.9746
▁Portug	-10.9746
▁micro	-10.9775
▁photos	-10.979
▁pounds	-10.9796
▁temporar	-10.9803
▁notation	-10.9814
▁execution	-10.9815
▁proven	-10.983
▁Columb	-10.9833
▁quiet	-10.9836
▁horror	-10.9836
▁heaven	-10.9839
▁founder	-10.9839
▁adaptation	-10.984
▁Francis	-10.9859
▁Buddha	-10.9859
▁Florid	-10.9859
▁toxic	-10.9859
▁touris	-10.9877
▁drum	-10.9878
▁defen	-10.9883
▁Mean	-10.9885
▁dreams	-10.9894
▁dollar	-10.9895
hildren	-10.9901
▁chip	-10.9903
▁partially	-10.9908
▁Per	-10.9916
▁Democrat	-10.9925
▁edit	-10.9927
erba	-10.9946
▁sorr	-10.9949
▁mount	-10.9957
▁wisdom	-10.9973
▁harder	-10.9983
▁specifi	-10.9988
▁Batm	-10.999
▁gift	-10.9998
▁truck	-11.0018
▁Chief	-11.0019
▁dinner	-11.0019
▁divide	-11.0024
▁Global	-11.0027
▁realm	-11.004
fensive	-11.004
▁Hawaii	-11.0041
▁synthetic	-11.0042
▁solv	-11.0043
▁transmitt	-11.0047
▁frequent	-11.0049
▁settler	-11.0052
▁elephant	-11.0065
▁vacuum	-11.0065
▁Governor	-11.0065
▁deni	-11.0077
▁Computer	-11.0088
ndustrial	-11.0091
▁Intel	-11.0092
lt	-11.0096
▁insist	-11.0098
u	-11.0105
▁NA	-11.0108
TO	-11.0111
▁volunteer	-11.0111
▁inherit	-11.0111
▁retirement	-11.0112
▁85	-11.0121
▁Cold	-11.0122
▁programme	-11.0128
▁descen	-11.0131
▁supporter	-11.0131
▁assault	-11.0135
▁mirror	-11.0135
▁yield	-11.0135
▁abolish	-11.0135
▁Cypr	-11.0135
▁twelve	-11.0135
▁Iceland	-11.0135
▁ti	-11.0145
▁laugh	-11.0153
▁sacred	-11.0158
▁rotation	-11.0158
▁compet	-11.0174
▁h	-11.0177
tari	-11.0178
▁coverage	-11.0186
▁rang	-11.0188
▁evening	-11.0198
openha	-11.0205
▁grammar	-11.0205
▁telescope	-11.0205
▁electromagnetic	-11.0205
▁rocks	-11.0206
atre	-11.021
tually	-11.0212
▁garden	-11.0217
▁mess	-11.0224
▁arithmetic	-11.0228
▁jurisdiction	-11.0228
▁IV	-11.023
▁valley	-11.023
▁delivery	-11.026
▁falls	-11.0273
▁worship	-11.0275
▁destination	-11.0276
▁heritage	-11.0276
▁downtown	-11.0278
gt	-11.0279
▁capabilities	-11.0289
▁hir	-11.0294
▁Corporation	-11.0299
▁wake	-11.0303
▁offering	-11.0314
▁Kennedy	-11.0323
▁Gaza	-11.0323
▁lung	-11.0323
▁beer	-11.0323
tenance	-11.0328
▁correspond	-11.033
▁configuration	-11.0346
▁Phila	-11.0347
▁readers	-11.0357
▁hierarch	-11.0369
▁restaurant	-11.037
▁Stephen	-11.037
▁Rena	-11.0372
▁Penn	-11.0374
▁click	-11.0381
▁capabilit	-11.0386
▁Super	-11.0386
▁presiden	-11.0392
▁46	-11.0393
elphi	-11.0394
▁partnership	-11.0395
▁Note	-11.0397
▁Record	-11.0418
▁Swiss	-11.0418
▁jazz	-11.0418
▁dub	-11.042
▁Alli	-11.0431
rose	-11.0437
la	-11.044
▁draft	-11.0442
▁fled	-11.0445
▁revolutionar	-11.0447
▁43	-11.0452
▁publicly	-11.0458
▁participati	-11.0462
▁lift	-11.0466
▁horizontal	-11.0466
▁empower	-11.0467
▁elementary	-11.0468
▁comed	-11.047
▁Ba	-11.0473
▁recogni	-11.0488
▁demonstrat	-11.0491
▁solo	-11.0496
▁anniversar	-11.0514
▁penalt	-11.0514
▁cousin	-11.0514
▁tourist	-11.0535
▁criteri	-11.0538
▁permitt	-11.0544
line	-11.0547
▁arrang	-11.0556
▁initiat	-11.0557
▁Square	-11.0563
▁glucose	-11.0563
▁neck	-11.0563
▁wire	-11.0566
▁worri	-11.0572
▁duti	-11.0576
nburg	-11.0577
T	-11.0598
▁declin	-11.0603
ean	-11.0609
▁feedback	-11.0612
▁possession	-11.0613
▁Korean	-11.0617
rice	-11.0629
▁Prior	-11.0636
▁tendency	-11.064
▁CE	-11.0643
▁defining	-11.066
▁poly	-11.0674
ternet	-11.0682
▁tournament	-11.0685
▁Carolin	-11.0686
▁scan	-11.0695
▁commander	-11.0702
am	-11.0708
▁comfortabl	-11.071
▁taste	-11.0717
▁Corps	-11.0737
b	-11.0739
▁graphics	-11.0744
▁personalit	-11.0745
▁pig	-11.0758
▁metropolitan	-11.0759
lvani	-11.0759
▁punishment	-11.076
isine	-11.0767
▁shop	-11.0775
▁r	-11.0779
g	-11.078
▁deposit	-11.0781
▁Father	-11.0784
▁replacement	-11.0788
▁Andrew	-11.0788
▁app	-11.0793
▁combine	-11.0806
▁exhibit	-11.0807
▁roof	-11.0809
▁lunch	-11.0809
▁Guatemala	-11.0809
▁chamber	-11.0809
▁holiday	-11.0809
▁membrane	-11.0809
▁Juda	-11.081
sey	-11.0814
▁crossing	-11.0817
▁blow	-11.0817
▁terrorist	-11.0831
▁smooth	-11.0834
▁Dead	-11.0834
▁plain	-11.0843
▁tribe	-11.085
▁radi	-11.0858
▁inhabit	-11.086
▁trillion	-11.0876
▁nervous	-11.0884
▁Fort	-11.0895
▁41	-11.09
hampionship	-11.0908
▁hoped	-11.091
▁hop	-11.0928
▁Jack	-11.0934
▁amateur	-11.0934
▁theatre	-11.0934
▁mutual	-11.0934
▁silence	-11.0935
▁Palestine	-11.0936
▁ban	-11.0937
▁profit	-11.0941
▁hell	-11.0953
▁cartoon	-11.0959
▁shark	-11.0959
versus	-11.0959
▁distinctive	-11.096
▁stadium	-11.0963
▁Come	-11.0965
▁52	-11.0977
▁Hugh	-11.0985
▁Costa	-11.0985
▁Last	-11.0991
▁joy	-11.0993
▁Building	-11.0993
▁Does	-11.0994
▁Ruth	-11.0999
▁follower	-11.1001
▁Jupiter	-11.101
ong	-11.1027
▁differential	-11.103
▁1929	-11.1032
▁suspend	-11.1035
▁legislature	-11.1035
▁password	-11.1036
▁championship	-11.1037
▁flu	-11.1059
▁disaster	-11.1061
▁Brian	-11.1062
dum	-11.1065
▁vice	-11.1065
▁col	-11.1069
▁loud	-11.107
▁bare	-11.1073
▁Could	-11.1087
▁ancestr	-11.1087
▁pocket	-11.1087
men	-11.1088
▁crash	-11.1092
▁thermal	-11.1093
scope	-11.1111
▁Club	-11.1112
▁Jim	-11.1113
▁arbitrar	-11.1116
▁impos	-11.1119
▁Web	-11.1129
▁referen	-11.1133
▁notic	-11.1137
angular	-11.1141
▁Hum	-11.1142
▁mid	-11.1142
▁51	-11.1151
*	-11.1164
▁Michigan	-11.1164
▁Vienn	-11.1164
▁peer	-11.1169
▁sight	-11.117
▁Br	-11.1174
▁geometric	-11.1186
▁bread	-11.1189
▁territorial	-11.1192
▁milk	-11.1197
▁metaphor	-11.1211
▁Ar	-11.1212
▁shorter	-11.1212
▁Mountain	-11.1215
▁protocol	-11.1215
▁1000	-11.1217
▁Ben	-11.1219
▁implie	-11.1241
▁Crown	-11.1242
▁47	-11.1254
▁wings	-11.1269
▁800	-11.128
▁puzzle	-11.1294
▁superior	-11.1294
▁Open	-11.1294
▁Iron	-11.1297
▁ho	-11.1298
▁repair	-11.13
pper	-11.1303
▁luna	-11.1321
▁Long	-11.1321
▁rival	-11.1346
▁Frederic	-11.1346
▁Orde	-11.1352
▁emissions	-11.1353
sance	-11.1357
russel	-11.1372
▁linguistic	-11.1374
▁Esperan	-11.1399
▁Wilson	-11.1399
▁cabinet	-11.1399
huse	-11.14
▁microbe	-11.1401
dor	-11.1413
▁moderate	-11.1414
▁vulnerab	-11.1415
▁horses	-11.1423
€	-11.1425
▁compact	-11.1425
▁nurse	-11.1428
▁Russe	-11.1432
mino	-11.1436
▁shoes	-11.1438
▁privacy	-11.1452
▁economist	-11.1455
▁Iraqi	-11.1461
▁devoted	-11.1461
▁reviv	-11.1466
▁favo	-11.1466
▁Medica	-11.1467
▁jail	-11.1478
▁Dominican	-11.1478
▁confusion	-11.1478
▁folks	-11.1481
▁racial	-11.1484
▁burned	-11.1485
▁54	-11.1485
ta	-11.1492
amma	-11.1495
▁judicia	-11.1503
▁segment	-11.1505
▁Liberal	-11.1505
▁sharp	-11.1509
nt	-11.1527
▁resign	-11.153
▁toilet	-11.1532
▁recall	-11.1533
▁electora	-11.1534
▁digit	-11.1535
▁municipal	-11.1536
▁harm	-11.1539
▁Land	-11.154
▁singer	-11.1547
R	-11.1551
▁invite	-11.1555
▁stupid	-11.1558
▁Massac	-11.1558
▁balloon	-11.1558
▁2,000	-11.1561
▁39	-11.157
▁minimal	-11.1585
▁keyboard	-11.1586
▁adjacen	-11.1588
▁van	-11.1593
▁cutting	-11.1595
▁theater	-11.1605
▁Buddhis	-11.161
▁Movement	-11.1612
▁contest	-11.1639
life	-11.164
▁contrar	-11.1643
▁Muc	-11.1655
▁MIT	-11.1666
▁talent	-11.1666
▁Brazilian	-11.1667
ople	-11.1677
▁legally	-11.1689
▁autonom	-11.1692
▁drama	-11.1693
▁mosquito	-11.1694
▁joke	-11.1694
▁surgeon	-11.1695
▁twenty	-11.1695
▁prayer	-11.1697
tts	-11.1702
▁payment	-11.1712
▁apartment	-11.1726
▁chicken	-11.1748
▁Hama	-11.175
althcare	-11.1763
▁breast	-11.177
▁Euclid	-11.1776
▁exile	-11.1776
▁tear	-11.1776
▁button	-11.1779
▁observer	-11.1803
▁bulk	-11.1803
scendant	-11.1809
▁wo	-11.1811
▁manufacture	-11.1816
▁Cross	-11.1833
▁Show	-11.1835
▁Victoria	-11.1838
▁schedul	-11.1843
▁wheel	-11.1844
▁proportional	-11.1848
racing	-11.1855
▁guest	-11.1858
▁secular	-11.1858
▁clip	-11.1866
▁marks	-11.1872
▁assist	-11.1875
▁Seven	-11.1876
▁awesome	-11.1884
▁Singapore	-11.1886
▁circular	-11.1886
▁orientation	-11.1886
▁dissolv	-11.1886
▁passionate	-11.1888
▁Re	-11.1888
▁Allen	-11.1889
▁sovereignt	-11.1895
▁sovereign	-11.1905
▁eliminat	-11.1906
▁uncertain	-11.1909
▁Field	-11.1914
▁predominant	-11.1914
▁pump	-11.1914
▁Road	-11.1914
▁Mexican	-11.1917
▁unifie	-11.192
▁hum	-11.1934
▁rebel	-11.1936
▁Ecuador	-11.1942
▁infect	-11.1951
▁assumption	-11.1953
ilitary	-11.1956
▁hide	-11.196
▁Saturday	-11.1969
ropical	-11.197
▁teenager	-11.1975
▁Aust	-11.1977
▁kick	-11.1991
▁terminal	-11.1998
▁Muh	-11.1999
▁invad	-11.2009
I	-11.2016
ecutive	-11.2025
▁astronomy	-11.2026
▁subset	-11.2026
▁Angli	-11.2026
▁embrace	-11.2033
▁pe	-11.2038
▁disc	-11.204
▁definite	-11.2054
▁forgot	-11.2054
▁portray	-11.2054
▁rebellion	-11.2055
▁Harr	-11.2061
▁Easter	-11.2078
▁Pres	-11.2078
▁pleasure	-11.2085
▁exploration	-11.2086
▁clinic	-11.2093
ockey	-11.2094
mmel	-11.2109
▁cup	-11.2113
▁Missi	-11.2128
▁decimal	-11.2139
▁legend	-11.2139
▁pack	-11.2142
▁Alf	-11.2148
▁gase	-11.2152
▁nitrogen	-11.2167
▁communist	-11.2168
ar	-11.2169
rd	-11.2172
▁evolve	-11.2182
▁smile	-11.2183
▁translate	-11.2185
▁renew	-11.2194
▁awful	-11.2196
▁Bridge	-11.2197
FA	-11.2198
▁voices	-11.2199
▁verse	-11.2216
▁ride	-11.2219
▁Joe	-11.2221
▁physicist	-11.2224
▁antibiotic	-11.2231
▁celebrate	-11.2234
ier	-11.2238
O	-11.2252
▁optical	-11.2258
▁Countr	-11.2259
▁extract	-11.228
▁Jordan	-11.2282
▁Yet	-11.2282
▁progressive	-11.2283
▁organize	-11.2285
▁fiber	-11.2286
▁habit	-11.2305
▁worn	-11.2311
▁Special	-11.2311
▁Talk	-11.2311
▁Rock	-11.2316
▁grandfather	-11.2319
▁USA	-11.2324
▁merg	-11.2325
▁undern	-11.2328
▁enabl	-11.2339
▁alien	-11.234
▁Pleas	-11.234
▁deserve	-11.234
▁inverse	-11.2342
▁Forest	-11.2343
of	-11.2349
▁melt	-11.2355
▁1951	-11.2362
▁privilege	-11.2366
▁DVD	-11.2369
▁yester	-11.237
▁robotic	-11.2376
▁inequalit	-11.2381
ging	-11.2383
▁symbolic	-11.2388
▁Hav	-11.2389
▁cotton	-11.2398
▁consent	-11.2398
▁dual	-11.2401
nformation	-11.2409
ility	-11.2412
▁Guard	-11.2427
▁dolphin	-11.2427
▁Mount	-11.2427
▁Operation	-11.2427
▁lawyer	-11.2429
▁assistant	-11.2449
opper	-11.2454
▁implication	-11.2457
▁deem	-11.2461
com	-11.2466
▁49	-11.2478
▁excess	-11.2486
▁crystal	-11.2486
▁Profess	-11.2486
▁silk	-11.2486
▁Den	-11.249
▁romantic	-11.2519
co	-11.2531
American	-11.254
▁sweet	-11.2543
rtex	-11.2544
▁kitchen	-11.2545
▁crown	-11.2547
▁Mike	-11.2547
rich	-11.2548
▁submitt	-11.2553
▁constitute	-11.2556
▁fat	-11.256
▁Natural	-11.2575
▁prediction	-11.2581
▁meaningful	-11.2581
▁Bruc	-11.2583
▁rat	-11.2585
▁processor	-11.2591
▁bias	-11.2592
▁Fam	-11.2594
▁react	-11.2604
▁YouTube	-11.2605
▁00	-11.2606
▁activist	-11.2611
▁Nigeria	-11.2614
nomi	-11.2629
▁Port	-11.2633
▁burn	-11.2635
▁scholar	-11.2638
B	-11.2642
▁Carl	-11.2655
▁Thanks	-11.2656
bama	-11.2664
×	-11.2664
▁captain	-11.2665
▁cons	-11.2666
▁colon	-11.2666
▁tens	-11.2668
utheast	-11.2679
away	-11.2683
▁witness	-11.2684
▁knowing	-11.2687
▁revis	-11.2693
▁Salva	-11.2694
▁protest	-11.2709
▁proclaim	-11.2725
▁provision	-11.2725
▁CPU	-11.2725
▁northeast	-11.2731
▁appreciate	-11.2732
▁Camp	-11.2737
▁acknowledg	-11.2747
▁nerve	-11.2755
▁Polic	-11.2759
hi	-11.2777
▁Hoove	-11.2781
▁discrete	-11.2785
▁entrance	-11.2785
E	-11.2785
▁Davi	-11.2808
▁bike	-11.2814
▁Genev	-11.2817
▁relate	-11.2817
▁chess	-11.2818
▁explor	-11.2818
▁zoom	-11.2818
▁millenni	-11.2836
▁pro	-11.2836
▁admit	-11.2846
▁dismiss	-11.2846
▁lady	-11.2847
▁obes	-11.2848
▁Bosnia	-11.2856
▁emerge	-11.2857
aseball	-11.2875
▁comprehensive	-11.2878
▁Food	-11.2883
▁entrepreneurs	-11.2895
▁Gold	-11.2898
▁memori	-11.2899
▁siege	-11.2907
▁residence	-11.2908
▁debut	-11.2938
▁Tower	-11.2938
▁identification	-11.2938
▁Daniel	-11.2938
▁grid	-11.2947
▁shoulder	-11.2957
▁empath	-11.2959
▁orbital	-11.2963
ological	-11.2969
▁pronunciation	-11.2969
▁radar	-11.2969
▁mortality	-11.297
▁busy	-11.2971
▁tall	-11.2979
▁Will	-11.2984
▁Historical	-11.2986
▁swim	-11.2989
▁Way	-11.2995
▁economi	-11.2996
▁suitabl	-11.2996
▁repeat	-11.2998
▁archaeolog	-11.3
▁instant	-11.3002
▁FI	-11.3003
▁filter	-11.3006
▁promotion	-11.3006
at	-11.3024
▁geographical	-11.3031
▁inevitabl	-11.3031
▁GPS	-11.3031
▁hotel	-11.3032
died	-11.3036
▁Ali	-11.3054
▁Eisen	-11.3062
▁clever	-11.3062
▁icon	-11.3064
▁Top	-11.3091
▁Hospital	-11.3093
▁correspondence	-11.3093
▁sophisticate	-11.3093
▁instrumental	-11.3095
▁Marine	-11.3095
▁Ten	-11.3098
▁PM	-11.3098
▁habitat	-11.3099
▁automatic	-11.3103
▁battery	-11.3104
▁gentlem	-11.3108
▁nominat	-11.3113
▁Tony	-11.3114
▁56	-11.3116
▁chimpanzee	-11.3125
▁flie	-11.3134
▁expectation	-11.3137
▁ignore	-11.3152
▁intermediate	-11.3156
▁arrive	-11.3158
▁internationally	-11.3164
▁comb	-11.3166
▁starr	-11.318
▁Mosco	-11.3188
▁innovative	-11.319
▁biologist	-11.3193
▁seventh	-11.3207
▁vocal	-11.3211
roadway	-11.3219
▁limb	-11.3225
▁tri	-11.3225
▁productive	-11.3231
▁Isa	-11.3238
▁Spirit	-11.3251
▁alleged	-11.3251
▁Kan	-11.3268
▁Fire	-11.3283
▁iPhone	-11.3283
▁Short	-11.3283
▁mystery	-11.3283
▁Death	-11.3285
hower	-11.3292
▁mytholog	-11.3302
fish	-11.3305
▁grab	-11.3307
▁Abraham	-11.3315
▁Executive	-11.3315
▁Norwegian	-11.3315
▁Prussia	-11.3315
▁reef	-11.3315
▁essay	-11.3315
▁Wow	-11.3315
▁Indiana	-11.3328
▁awareness	-11.3328
sippi	-11.3332
ter	-11.3338
▁integra	-11.3339
▁Isle	-11.3343
▁defensive	-11.3349
▁Ari	-11.3357
▁enzyme	-11.3379
▁dirt	-11.3385
▁Post	-11.3391
▁66	-11.3393
▁Power	-11.3409
▁Bulgarian	-11.341
▁confront	-11.341
▁spider	-11.3411
▁syndrome	-11.3411
▁drill	-11.3412
board	-11.3413
ureau	-11.3413
▁administer	-11.3414
▁terroris	-11.3417
▁dense	-11.3426
▁pour	-11.3429
▁Arabia	-11.343
ise	-11.343
▁regulat	-11.3435
tadium	-11.3441
▁cattle	-11.3444
▁alumin	-11.3444
▁CIA	-11.3444
▁Real	-11.3458
▁provinc	-11.346
▁passe	-11.3469
▁Ju	-11.347
▁Commod	-11.3476
▁Benjam	-11.3476
▁elaborate	-11.3476
▁panel	-11.3476
H	-11.3479
▁swimm	-11.3484
▁Bang	-11.3487
▁loop	-11.349
▁firing	-11.3505
▁fame	-11.3509
▁withdrawal	-11.3509
▁Agenc	-11.3511
▁shadow	-11.3513
▁hire	-11.3539
▁Front	-11.3541
▁revolt	-11.3574
▁Donald	-11.3574
▁Vari	-11.3575
iji	-11.3577
▁apple	-11.3587
▁Station	-11.359
▁bees	-11.3604
▁illusion	-11.3607
▁Labor	-11.3607
▁Christopher	-11.3607
bell	-11.3608
▁technological	-11.361
▁harvest	-11.361
▁pregnan	-11.3612
▁monitor	-11.3623
▁grounds	-11.3626
▁microscope	-11.3626
▁mm	-11.3632
▁figur	-11.3638
▁Eugen	-11.364
▁Hi	-11.364
▁Aaron	-11.364
▁laptop	-11.364
▁prototype	-11.3641
▁genu	-11.3641
▁Give	-11.3646
▁cluster	-11.3673
▁lyric	-11.3673
▁Santa	-11.3674
▁beach	-11.3676
▁loan	-11.3676
▁permit	-11.3677
▁socialist	-11.3679
▁hang	-11.3686
▁Area	-11.3688
▁st	-11.3692
▁ingredient	-11.3706
▁interference	-11.3706
▁Bengal	-11.3707
▁crack	-11.3707
▁statue	-11.3709
▁Albanian	-11.3709
▁Along	-11.3716
▁fictional	-11.3726
▁behavio	-11.3728
▁fortunate	-11.374
▁CEO	-11.374
▁shame	-11.3741
▁battles	-11.3743
▁shapes	-11.3753
▁oxid	-11.3755
ma	-11.3763
▁knee	-11.3769
▁Number	-11.3773
▁Night	-11.3773
▁Walter	-11.3774
after	-11.3774
go	-11.3788
▁masse	-11.3797
▁Stone	-11.3818
▁Men	-11.3824
▁periodic	-11.3826
▁nose	-11.3837
▁surveillance	-11.384
▁purchas	-11.384
▁Soon	-11.3845
▁afternoon	-11.3845
▁Light	-11.3875
▁elder	-11.3876
▁compatib	-11.3877
ory	-11.3882
zona	-11.3896
▁Territor	-11.3908
▁angry	-11.3908
Beginning	-11.3909
▁Plato	-11.3909
▁physician	-11.391
▁Line	-11.3911
iego	-11.3921
▁danc	-11.394
▁Summer	-11.3942
▁barrier	-11.3942
▁Kent	-11.3956
▁pointed	-11.397
lsh	-11.3971
pson	-11.3974
▁unexpected	-11.3976
▁Miller	-11.3979
▁Rea	-11.398
▁declaration	-11.3982
▁rush	-11.3986
ra	-11.3998
▁canal	-11.4006
▁isotope	-11.401
heimer	-11.4011
▁basin	-11.4015
▁ceas	-11.4019
▁Code	-11.4039
▁sheet	-11.4048
▁Stan	-11.4063
▁Classical	-11.408
▁Conservative	-11.4081
▁guide	-11.4082
▁Reserv	-11.4084
▁comfort	-11.4113
▁trace	-11.4116
▁BG	-11.4119
▁IP	-11.4128
▁pool	-11.4128
▁keys	-11.413
▁situat	-11.4147
▁Example	-11.4149
▁unsuccessful	-11.4149
▁medication	-11.4149
▁genius	-11.4149
▁frank	-11.4149
▁pollution	-11.4149
ha	-11.415
▁tap	-11.4158
SO	-11.416
off	-11.4167
▁lecture	-11.4171
▁Basqu	-11.4176
▁prohibit	-11.4182
▁vari	-11.4211
▁prey	-11.4212
▁boring	-11.4219
▁restoration	-11.4221
▁hat	-11.4225
▁lesser	-11.4231
▁Canal	-11.4243
▁belonging	-11.4252
▁Fried	-11.4254
llo	-11.4281
▁bio	-11.4284
▁rear	-11.429
▁Gregor	-11.4295
▁ear	-11.4295
▁mile	-11.4301
▁integr	-11.4307
▁Original	-11.4307
▁Higgs	-11.4324
▁sculpture	-11.4324
▁wireless	-11.4326
▁fascinat	-11.4333
▁heal	-11.4335
▁animat	-11.4351
▁confiden	-11.4352
▁clergy	-11.4359
▁Belgian	-11.4362
▁Wood	-11.4369
▁oral	-11.4374
▁mice	-11.4379
▁Pala	-11.4379
zill	-11.4382
▁Federation	-11.4395
▁fake	-11.4395
▁cord	-11.4396
▁Anyway	-11.4402
von	-11.4406
▁southwest	-11.4413
owa	-11.4428
▁greenhouse	-11.4431
▁mothers	-11.4432
▁trigger	-11.4433
▁breathe	-11.4448
▁3,000	-11.4458
▁engag	-11.4463
▁publisher	-11.4464
▁asteroid	-11.4467
▁bapti	-11.4467
▁constellation	-11.4467
▁curiosity	-11.4467
▁eleven	-11.4467
▁Alpha	-11.4467
▁painful	-11.4471
aptain	-11.4475
▁hall	-11.4476
▁meal	-11.4491
▁presentation	-11.4495
▁Obama	-11.4504
▁consume	-11.451
▁nest	-11.4516
▁clothes	-11.4524
▁poster	-11.4528
▁Anne	-11.4532
▁Antarctic	-11.4539
▁imag	-11.454
▁lens	-11.4549
erine	-11.4574
▁pile	-11.4576
▁fle	-11.4576
▁Sina	-11.4576
▁weigh	-11.4582
nfortunate	-11.4611
▁laser	-11.4612
▁exploit	-11.4614
▁bicycle	-11.462
▁prosper	-11.4648
▁Bowl	-11.4648
▁tribute	-11.4651
arcelo	-11.4659
▁imagin	-11.4672
rew	-11.4676
Baptist	-11.4684
▁Studie	-11.4684
▁drone	-11.4684
▁Milan	-11.4685
▁southeast	-11.4686
▁stretch	-11.4687
▁hon	-11.4693
▁conclude	-11.4706
▁suck	-11.4712
▁knock	-11.4721
▁nickname	-11.4721
▁globe	-11.4721
▁leap	-11.4721
amaic	-11.4722
esar	-11.473
▁storm	-11.4738
▁alternate	-11.4746
▁Centre	-11.4751
▁courage	-11.4757
▁Catalan	-11.4758
▁Simon	-11.476
▁Independen	-11.4766
elief	-11.478
▁Goth	-11.4789
▁Java	-11.4795
rticle	-11.48
mak	-11.48
▁Samu	-11.48
▁Authorit	-11.4803
▁shut	-11.4803
foot	-11.4812
W	-11.4815
▁compressi	-11.4817
ably	-11.482
▁wondered	-11.482
▁Walla	-11.4824
▁Cath	-11.4824
▁northwest	-11.4826
▁possess	-11.4831
▁paradigm	-11.4832
▁rating	-11.4834
▁VI	-11.4836
▁Rememb	-11.4844
▁Inc	-11.4851
▁Cook	-11.4855
▁palace	-11.487
▁flood	-11.487
▁horrible	-11.4872
▁epic	-11.4873
▁Mos	-11.4878
▁tip	-11.4904
▁tag	-11.4905
▁Ph	-11.4905
▁rescue	-11.4906
▁appointment	-11.4907
▁silent	-11.4907
▁drove	-11.4909
▁Pol	-11.4919
▁behave	-11.4931
ious	-11.494
▁addresse	-11.4943
▁Temple	-11.4945
▁download	-11.4945
ize	-11.4946
▁desk	-11.4952
▁Sam	-11.4965
▁travelle	-11.4969
▁plent	-11.4982
▁productivit	-11.5012
▁anger	-11.5013
▁shoot	-11.5015
▁transplant	-11.5019
▁Kant	-11.5021
▁da	-11.5032
▁gray	-11.5033
▁ugl	-11.5034
▁floating	-11.5036
▁observe	-11.5055
▁Master	-11.5058
▁feeding	-11.5066
0	-11.5069
▁desperate	-11.51
▁parking	-11.512
▁5,000	-11.5125
he	-11.5132
▁Van	-11.5134
▁Language	-11.5135
▁Network	-11.5135
▁predator	-11.5135
▁Knight	-11.5136
▁Aber	-11.5143
▁plural	-11.5173
▁psychologist	-11.5174
124	-11.5175
▁tea	-11.5195
▁scenario	-11.5212
▁suspect	-11.5212
▁Floren	-11.5212
▁neuron	-11.522
▁Lady	-11.5228
▁dishe	-11.523
century	-11.5244
▁steal	-11.5245
M	-11.525
▁corporation	-11.5251
▁hormone	-11.5251
▁Next	-11.5251
▁photographer	-11.5251
▁humor	-11.5251
▁rocket	-11.5252
▁cargo	-11.5253
▁authentic	-11.5261
▁DC	-11.5274
▁jur	-11.5291
down	-11.5292
▁interactive	-11.5294
▁vs	-11.53
▁implant	-11.5305
ah	-11.531
▁ears	-11.5316
▁Douglas	-11.5329
▁pill	-11.5329
▁cheat	-11.5329
▁Journal	-11.5335
▁obsess	-11.534
▁Ah	-11.5341
L	-11.5357
▁Hamburg	-11.5368
▁departure	-11.5368
▁pretend	-11.537
▁Con	-11.5376
▁secretar	-11.5383
▁simulation	-11.5408
▁wash	-11.5422
▁struggl	-11.5428
ors	-11.5435
▁charit	-11.5437
▁boss	-11.5449
▁hack	-11.545
▁Wayne	-11.5487
▁Roger	-11.5487
dministration	-11.549
▁Co	-11.5495
work	-11.5497
▁whales	-11.55
▁perceive	-11.5516
▁accord	-11.5519
▁fabric	-11.5523
▁Voice	-11.5526
▁scratch	-11.5526
▁uncomfortabl	-11.5526
▁lifestyle	-11.5528
▁renewable	-11.553
art	-11.5531
▁Maria	-11.5535
▁grass	-11.5558
▁penguin	-11.5566
▁mindset	-11.5567
greement	-11.5571
▁achievement	-11.5587
▁attribute	-11.5593
▁ex	-11.5596
▁quit	-11.5608
▁footprint	-11.561
▁th	-11.5635
▁condemn	-11.5647
▁froze	-11.5648
▁Norman	-11.5648
ray	-11.5656
▁Song	-11.5666
▁Ma	-11.5675
▁traged	-11.5687
▁Khan	-11.5689
▁readi	-11.5708
▁subtle	-11.571
▁pit	-11.5723
ario	-11.5727
▁ladies	-11.5728
▁smartphone	-11.5769
▁borrow	-11.5773
ative	-11.5775
▁Get	-11.5776
coming	-11.5796
▁confident	-11.5801
▁seal	-11.5807
▁essence	-11.581
▁stepp	-11.5811
▁excite	-11.5811
▁golf	-11.5816
tta	-11.5823
▁beside	-11.5845
▁gut	-11.5845
ate	-11.5847
▁Hamil	-11.5851
▁Girl	-11.5854
▁ought	-11.5856
ivity	-11.5857
▁portrait	-11.5864
hood	-11.5869
▁thanks	-11.5876
▁symmetr	-11.5881
▁Report	-11.5884
▁resist	-11.589
▁trait	-11.5891
▁Stanford	-11.5892
▁Director	-11.5892
▁assassination	-11.5892
▁FM	-11.5893
▁hunger	-11.5894
▁boxe	-11.5896
town	-11.5896
▁Pole	-11.5904
▁videos	-11.591
▁Command	-11.5932
▁recruit	-11.5934
▁Region	-11.5934
▁motivation	-11.5937
▁advocate	-11.5939
G	-11.5945
▁onward	-11.5975
▁hungry	-11.5976
ne	-11.5982
lliance	-11.5987
▁inter	-11.6001
▁alpha	-11.6017
▁miracle	-11.6017
▁needle	-11.602
▁disability	-11.603
▁dust	-11.6031
50	-11.6035
▁prefer	-11.6042
P	-11.6047
▁analyze	-11.6051
▁Lawrence	-11.6059
▁goddess	-11.6059
▁Yugoslav	-11.6059
▁ridiculous	-11.6059
▁judgment	-11.6059
▁smoke	-11.606
▁skeleton	-11.6062
▁&#	-11.6065
▁brave	-11.6068
▁dictionar	-11.609
▁canon	-11.6095
▁stack	-11.6101
▁embedded	-11.6101
▁Th	-11.6116
▁worm	-11.6129
▁educate	-11.6131
▁blog	-11.6136
▁grateful	-11.6144
▁tight	-11.6147
▁rent	-11.6149
▁bump	-11.6152
▁optimistic	-11.6154
source	-11.6167
▁Hol	-11.618
▁shake	-11.6182
▁ultra	-11.6186
▁Control	-11.6186
▁overcome	-11.6187
▁Williams	-11.6188
▁adventure	-11.6191
▁lion	-11.6194
▁Julian	-11.6201
▁Del	-11.6207
▁Ri	-11.6215
▁cyber	-11.6229
▁chest	-11.6229
▁printer	-11.623
▁Jean	-11.6237
que	-11.625
▁magnet	-11.627
▁obstacle	-11.6272
▁dignit	-11.6273
▁propose	-11.6282
▁Tell	-11.6283
▁headline	-11.6286
▁heir	-11.6288
▁tomb	-11.6303
▁cute	-11.6308
uffalo	-11.6313
▁Taylor	-11.6315
▁Niet	-11.6315
power	-11.6321
▁choos	-11.6325
▁compil	-11.633
vi	-11.6336
▁polar	-11.6338
ham	-11.635
▁explosion	-11.6358
▁neural	-11.6358
▁suppose	-11.636
▁pink	-11.6361
▁Harris	-11.6365
varia	-11.638
▁Bernard	-11.6402
▁blame	-11.6411
▁relie	-11.6414
tech	-11.642
▁Inde	-11.6441
ent	-11.6444
▁mutation	-11.6445
▁Shah	-11.6446
▁regret	-11.6447
▁clouds	-11.6468
▁diagnos	-11.6471
▁smok	-11.6476
▁bend	-11.6479
kind	-11.6479
▁clue	-11.6488
▁diagram	-11.6489
zsch	-11.6489
▁Stalin	-11.649
▁nomination	-11.6492
▁sail	-11.6506
▁rap	-11.6518
▁inventor	-11.6528
▁Manhattan	-11.6533
▁skull	-11.6533
▁globalization	-11.6537
▁hook	-11.6539
▁highway	-11.6544
▁flip	-11.6564
▁illustrate	-11.6574
▁recycl	-11.6576
▁Confedera	-11.6578
▁Gospel	-11.6578
▁Congo	-11.6578
▁sunlight	-11.6578
▁87	-11.6591
▁behavioral	-11.6602
▁windows	-11.6609
▁incentives	-11.6613
▁Castle	-11.6622
▁chaos	-11.6622
▁NGO	-11.6622
nna	-11.6659
▁Rail	-11.6666
ishop	-11.6667
▁Max	-11.6668
▁transparency	-11.6668
▁engagement	-11.6673
▁tired	-11.6675
▁magical	-11.6681
il	-11.6689
▁orange	-11.6702
▁farmer	-11.6704
10	-11.6706
▁dress	-11.6707
▁agenda	-11.6713
▁pray	-11.6718
▁nutrient	-11.6718
▁Z	-11.6732
▁seiz	-11.6744
▁breed	-11.675
▁Clark	-11.6757
ho	-11.6759
▁mad	-11.6765
▁survivor	-11.677
▁Nothing	-11.6797
▁Friday	-11.6802
▁rainforest	-11.6802
▁intuition	-11.6802
▁chromosome	-11.6805
▁Gord	-11.6806
uch	-11.6807
▁Mi	-11.6828
long	-11.6839
▁thick	-11.6844
▁Matthew	-11.6847
▁ceiling	-11.6847
▁diabetes	-11.6847
▁breakthrough	-11.6847
▁tunnel	-11.6848
▁flexibl	-11.6857
▁profile	-11.686
▁march	-11.6864
▁whale	-11.6871
lah	-11.6883
venue	-11.6891
▁earthquake	-11.6893
▁spectacular	-11.6893
▁refuse	-11.6908
▁nam	-11.6912
▁spark	-11.6927
▁polio	-11.6939
▁highlight	-11.6941
rbert	-11.6943
▁norm	-11.6967
abilities	-11.6993
▁prais	-11.6995
▁rebuild	-11.6996
▁tackle	-11.7007
▁dig	-11.7015
▁polle	-11.7018
▁cow	-11.7026
▁ticket	-11.7031
ro	-11.7039
▁acknowledge	-11.7043
ol	-11.7049
▁Lu	-11.7067
▁slum	-11.7075
▁donor	-11.7103
▁pioneer	-11.7124
▁glacier	-11.7126
▁backwards	-11.7139
▁tech	-11.714
▁Ya	-11.7151
▁mate	-11.716
▁Jr	-11.7164
▁pyramid	-11.7171
▁demonstration	-11.7174
▁fisher	-11.7187
level	-11.7189
ang	-11.7193
▁250	-11.7193
asically	-11.7216
▁separat	-11.7218
▁fabulous	-11.7219
▁immense	-11.722
rctic	-11.7229
istic	-11.7236
dollar	-11.7237
ri	-11.7244
▁li	-11.7245
▁bother	-11.7246
▁unbelievabl	-11.7247
dium	-11.7256
▁routine	-11.7266
▁Nature	-11.7266
▁Turn	-11.7272
ua	-11.7275
▁Mom	-11.7275
house	-11.7285
▁wage	-11.7285
▁et	-11.7299
▁guarantee	-11.7314
▁bug	-11.7317
5,000	-11.7348
▁Assyrian	-11.7361
bola	-11.7362
▁pen	-11.7363
being	-11.7367
▁recipe	-11.741
ka	-11.7411
▁intuitive	-11.7415
▁utter	-11.7417
▁liver	-11.742
▁Make	-11.7421
▁Memori	-11.7429
▁killer	-11.7432
▁welcome	-11.7443
hour	-11.7449
▁prosthetic	-11.7458
▁bathroom	-11.7458
▁shelter	-11.7458
▁leak	-11.7458
▁50,000	-11.7468
▁lock	-11.7469
▁prepare	-11.7496
▁twin	-11.7501
▁tweet	-11.7506
▁Boeing	-11.7508
▁sink	-11.7509
mo	-11.7516
icity	-11.7519
▁limitation	-11.752
▁complain	-11.7526
▁entrepreneur	-11.7539
▁globally	-11.7543
▁oxide	-11.7544
▁replicate	-11.7545
▁naked	-11.7555
▁gesture	-11.7564
▁Ta	-11.7581
children	-11.7583
▁humanitarian	-11.7604
▁tragic	-11.7604
▁wheelchair	-11.7604
▁demographic	-11.7605
▁locked	-11.7618
lf	-11.7629
▁diagnosi	-11.7636
▁happi	-11.7637
▁Mother	-11.7644
▁scann	-11.7648
▁chocolate	-11.7653
▁flash	-11.7672
▁pulse	-11.7675
ir	-11.7683
▁marker	-11.7687
▁initiative	-11.7704
▁transparent	-11.7706
▁darkness	-11.7714
cellular	-11.7725
▁Dad	-11.7728
force	-11.7733
▁dive	-11.7733
▁Was	-11.7738
▁Wikipedia	-11.7753
▁calculation	-11.7753
▁fragment	-11.7754
▁shout	-11.7755
▁burst	-11.7762
▁garbage	-11.7803
▁convey	-11.7803
▁dancer	-11.7805
▁motivat	-11.784
▁hanging	-11.7841
▁mushroom	-11.7853
▁calci	-11.7853
▁kidney	-11.7855
▁DH	-11.7855
▁Put	-11.7855
▁Abb	-11.7858
▁doors	-11.7877
third	-11.7881
▁pace	-11.7903
▁textbook	-11.7904
▁compell	-11.7904
iness	-11.7913
▁lett	-11.7924
▁bat	-11.7932
▁sil	-11.7952
▁advocat	-11.7953
▁mask	-11.7954
▁stole	-11.7954
▁signature	-11.7954
▁copyright	-11.7955
▁dump	-11.796
▁depress	-11.7963
▁helpful	-11.7972
▁wise	-11.7973
hane	-11.7981
▁mis	-11.799
▁inherent	-11.8005
▁neuroscien	-11.8009
▁uncertaint	-11.8013
class	-11.8035
▁pause	-11.8037
▁vegetable	-11.8056
▁associate	-11.806
▁passive	-11.8067
▁ignoran	-11.807
▁fastest	-11.8073
▁mail	-11.8081
▁hill	-11.8104
▁restore	-11.8104
▁Yorker	-11.8105
ina	-11.811
▁punch	-11.8116
▁fears	-11.8126
▁navigate	-11.8138
▁ski	-11.8139
▁inject	-11.8156
▁burden	-11.816
▁civic	-11.816
▁Back	-11.8163
▁assignment	-11.8166
aking	-11.8171
▁uncle	-11.8189
▁Rwanda	-11.8191
▁disabl	-11.8198
▁bullet	-11.8212
▁vacation	-11.8212
▁crush	-11.8212
▁retina	-11.8213
▁Abu	-11.8235
▁Six	-11.8259
izing	-11.8263
▁ruin	-11.8264
▁pole	-11.8266
▁tuna	-11.8268
▁till	-11.828
▁SS	-11.8291
wards	-11.8298
▁inspiring	-11.8303
▁bang	-11.8303
▁terror	-11.831
▁warning	-11.8314
▁Uganda	-11.8317
▁trash	-11.8318
▁trends	-11.8319
▁viral	-11.8323
tor	-11.8324
▁genetically	-11.8327
▁peaceful	-11.8332
▁frustrat	-11.8334
▁Gates	-11.8363
▁consum	-11.8364
▁trauma	-11.8367
▁Karl	-11.8371
per	-11.8377
▁automat	-11.8382
▁shirt	-11.8402
▁120	-11.8403
▁trajector	-11.8423
▁Should	-11.8423
▁biodivers	-11.8423
▁primitive	-11.8423
▁Child	-11.8428
▁detector	-11.8429
▁feminist	-11.8433
▁anonymous	-11.8434
▁Di	-11.8435
▁investor	-11.8436
V	-11.8445
▁shopp	-11.845
un	-11.8456
▁meme	-11.8457
▁sanit	-11.8463
▁leverage	-11.8468
▁failing	-11.8469
stage	-11.8471
▁freak	-11.8475
▁helicopter	-11.8476
▁oxytocin	-11.8476
▁twist	-11.8477
▁pharmaceutical	-11.8484
▁mal	-11.8499
ible	-11.8506
▁endless	-11.8507
▁rhythm	-11.8513
▁keeps	-11.8524
▁garage	-11.853
▁collaborative	-11.853
F	-11.8532
▁constraint	-11.8546
▁Ever	-11.8551
▁Robins	-11.8558
▁profession	-11.8573
▁Mu	-11.8574
▁mold	-11.8574
▁corn	-11.8578
▁projection	-11.8579
ide	-11.8581
▁Mitchell	-11.8584
▁beetle	-11.8584
▁microphone	-11.8584
▁sel	-11.8591
▁20,000	-11.8603
▁4,000	-11.8608
▁hid	-11.8613
▁sacrifice	-11.8631
▁mysterious	-11.8639
▁lane	-11.8642
▁athlete	-11.8646
▁reactor	-11.8649
▁Eric	-11.8657
▁package	-11.8669
▁fee	-11.8673
ni	-11.8684
▁default	-11.8693
▁reinvent	-11.8693
▁slice	-11.8694
▁overwhelming	-11.871
▁cosm	-11.8737
▁boom	-11.8738
▁rape	-11.8743
▁10-	-11.8751
▁compress	-11.8772
▁MRI	-11.8772
state	-11.8776
ca	-11.8793
▁Calvin	-11.8804
▁neat	-11.8804
▁pathway	-11.8823
▁intersection	-11.8854
▁anatom	-11.8857
▁awkward	-11.8859
▁transaction	-11.8859
▁mood	-11.8867
▁resolve	-11.8869
▁mentor	-11.8874
ice	-11.8893
▁comet	-11.8904
den	-11.8908
▁homeless	-11.8911
▁astronomer	-11.8915
▁thrill	-11.8915
▁palm	-11.8918
ex	-11.8918
▁mimic	-11.8924
▁Sa	-11.8932
▁Mo	-11.8939
▁astonishing	-11.8943
free	-11.896
▁slides	-11.8962
ated	-11.8967
▁stake	-11.8974
▁damn	-11.8977
▁shin	-11.8978
▁reflection	-11.8986
op	-11.8996
▁integrate	-11.8996
▁Roo	-11.9004
do	-11.9004
ified	-11.9019
▁adjust	-11.9026
▁luxur	-11.9027
▁diagnostic	-11.9028
▁clar	-11.9028
▁terrifying	-11.9028
▁resilience	-11.9031
▁BF	-11.9034
▁craft	-11.9035
▁orchestra	-11.906
fold	-11.9068
Something	-11.9069
▁upset	-11.9077
▁sweat	-11.9079
ilicon	-11.9081
▁gear	-11.9085
▁coat	-11.9085
▁scanner	-11.9093
▁enterprise	-11.9094
ether	-11.9108
all	-11.9111
▁None	-11.9118
▁creator	-11.9125
po	-11.9128
▁programmer	-11.9134
▁destin	-11.914
▁snake	-11.9142
▁Saturn	-11.9142
▁shrink	-11.9142
▁kiss	-11.9144
ga	-11.9148
▁subway	-11.915
▁astronaut	-11.9151
▁Pro	-11.917
▁computation	-11.9189
clock	-11.9192
,500	-11.9195
aging	-11.9196
▁Obvious	-11.9199
▁furniture	-11.9199
▁collaborator	-11.92
fully	-11.921
▁pot	-11.9211
oh	-11.9216
▁Sure	-11.9216
▁priorit	-11.9217
ci	-11.922
▁gathering	-11.9225
▁infant	-11.9228
▁tune	-11.9235
▁laughing	-11.9242
▁bow	-11.9253
▁unprecedented	-11.9257
▁deforest	-11.9257
▁disconnect	-11.9257
▁galler	-11.9257
▁spill	-11.9257
▁Listen	-11.9258
▁installation	-11.9262
▁thrive	-11.9263
ut	-11.9278
▁activate	-11.9287
▁rotate	-11.9292
▁hackers	-11.9301
▁reconstruct	-11.9313
▁ideolog	-11.9314
▁homework	-11.9319
▁exhaust	-11.932
▁intimate	-11.9324
▁bold	-11.9327
ile	-11.936
▁fool	-11.9372
▁Narrat	-11.9374
▁exponential	-11.9375
place	-11.9377
▁condom	-11.938
▁Har	-11.942
▁pose	-11.9427
▁glad	-11.9432
▁robust	-11.9432
▁woke	-11.9434
▁qualit	-11.9457
▁fate	-11.9488
▁horizon	-11.9491
▁excuse	-11.9491
▁queen	-11.9491
▁dear	-11.9493
▁impression	-11.9496
▁sens	-11.9497
▁compassionate	-11.95
▁analyz	-11.9502
▁eliminate	-11.9508
▁pant	-11.9526
▁influenc	-11.9536
▁collision	-11.9551
id	-11.9552
▁generous	-11.9552
ping	-11.9555
▁upload	-11.9555
▁attractive	-11.9558
▁pet	-11.9564
▁thumb	-11.9583
▁alarm	-11.9584
▁paradox	-11.9606
▁precious	-11.9611
▁primate	-11.9611
▁magnificent	-11.9613
▁fragile	-11.9614
▁ink	-11.9618
▁guid	-11.9627
▁pin	-11.9628
stone	-11.9637
▁wedding	-11.9643
light	-11.9653
é	-11.9657
▁reporter	-11.9661
▁urge	-11.9669
▁automobile	-11.9671
▁grasp	-11.9672
▁weekend	-11.9673
▁barrel	-11.9673
▁Sorry	-11.9677
▁badly	-11.9679
▁injustice	-11.9681
ap	-11.9682
▁graphic	-11.9687
▁mobil	-11.9687
▁geo	-11.9705
▁pipe	-11.9713
ig	-11.9714
ches	-11.9728
▁supermarket	-11.9732
▁delight	-11.9732
▁closing	-11.9737
▁tricks	-11.9738
made	-11.9739
▁grandparent	-11.9742
▁du	-11.9748
▁par	-11.9749
▁transmit	-11.9753
li	-11.9756
▁ambitio	-11.9772
box	-11.9782
▁storytell	-11.9784
▁tattoo	-11.9793
▁bulb	-11.9793
▁origami	-11.9793
▁friendship	-11.9807
car	-11.9816
▁strand	-11.9816
▁Design	-11.9839
lo	-11.9841
▁trans	-11.9852
▁damag	-11.9854
▁paralyz	-11.9855
▁hitting	-11.9858
▁aesthetic	-11.9865
▁hip	-11.9867
ke	-11.9882
▁expectanc	-11.9887
▁Tes	-11.989
▁float	-11.9897
ure	-11.9906
Sahara	-11.9915
▁pigeon	-11.9916
▁cruel	-11.9916
ck	-11.9919
RB	-11.992
▁Jane	-11.9923
related	-11.9933
▁disagree	-11.9941
▁upside	-11.9946
▁nuts	-11.9946
▁bats	-11.9956
▁arrow	-11.9958
▁plug	-11.9972
▁quest	-11.9977
▁Titan	-11.9977
▁dilemma	-11.9978
▁harness	-11.9978
▁jelly	-11.9978
▁electrode	-11.9978
▁jumped	-11.9982
▁ego	-11.9986
▁brutal	-11.9999
▁sensory	-12
laughter	-12.0002
▁accelerat	-12.0007
ney	-12.0013
▁grave	-12.0026
▁Sara	-12.0027
▁cheese	-12.0049
asi	-12.005
▁bedroom	-12.0051
▁dumb	-12.0052
vill	-12.0054
▁glow	-12.0063
▁personaliz	-12.0083
▁optimis	-12.0083
▁ape	-12.0099
▁leather	-12.0103
▁aggressive	-12.0103
▁curriculum	-12.0103
▁receptor	-12.0103
▁veteran	-12.0103
▁venture	-12.0103
▁manipulate	-12.0104
▁Nick	-12.0104
▁bored	-12.0118
▁shap	-12.0118
nforcement	-12.0136
▁Carte	-12.0149
▁boil	-12.0149
▁virtue	-12.0152
▁teenage	-12.0154
▁tropic	-12.0166
▁enhance	-12.0166
▁detection	-12.0174
▁drought	-12.0177
▁shine	-12.0202
▁swing	-12.0219
▁gate	-12.0219
▁relax	-12.023
▁Parkinson	-12.023
▁lit	-12.023
▁unconscious	-12.0231
▁decreas	-12.0274
▁walks	-12.0289
▁drown	-12.0294
▁bizarre	-12.0294
▁striking	-12.0294
▁stunt	-12.0294
▁marketplace	-12.0297
▁Ed	-12.0313
▁precis	-12.0313
▁manual	-12.033
▁div	-12.0336
▁Wi	-12.0338
▁carrie	-12.034
aday	-12.0342
▁cooperate	-12.0347
▁prescription	-12.0359
▁architectural	-12.0359
▁Stewar	-12.0359
▁ubiquitous	-12.0359
▁calm	-12.0359
▁fanc	-12.036
▁sensation	-12.036
▁sheep	-12.0362
▁fence	-12.0363
▁rope	-12.0363
▁specialist	-12.0365
▁blank	-12.0369
▁Gore	-12.0373
▁selfish	-12.0377
▁intrigu	-12.038
▁washing	-12.0392
▁suggestion	-12.0395
▁fed	-12.0405
▁dose	-12.0405
▁Has	-12.0419
back	-12.042
▁Brun	-12.0422
▁Mandel	-12.0425
▁deaf	-12.0425
▁Out	-12.0425
▁outbreak	-12.0425
point	-12.0429
▁EM	-12.0433
▁glue	-12.0438
▁Tu	-12.0441
▁chas	-12.0456
ically	-12.0468
▁Se	-12.0477
▁exam	-12.0483
▁charg	-12.0483
me	-12.0484
▁jihad	-12.0489
▁flaw	-12.049
▁Lego	-12.049
▁genuine	-12.049
▁innocent	-12.0497
▁bucks	-12.0504
▁Son	-12.0509
standing	-12.0527
olds	-12.0536
▁soup	-12.0538
ph	-12.0545
▁Tim	-12.0548
▁CRISPR	-12.0555
▁gravitational	-12.0555
▁bite	-12.0559
▁dial	-12.0585
▁embrac	-12.0604
▁communicat	-12.0614
▁trap	-12.0614
▁MS	-12.062
▁Jacob	-12.0621
▁pixel	-12.0621
▁dawn	-12.0621
▁terrified	-12.0621
▁thread	-12.0621
▁Josh	-12.0622
▁duck	-12.0622
▁fulfill	-12.0638
▁parasite	-12.0641
ite	-12.0655
makers	-12.0656
▁healthie	-12.067
▁Pa	-12.0676
▁Taliban	-12.0688
▁stomach	-12.0688
▁align	-12.0688
▁hardest	-12.0688
▁hub	-12.0688
▁Stop	-12.069
▁spray	-12.0694
▁mapping	-12.0695
▁inclusive	-12.0697
▁workplace	-12.0697
▁loving	-12.0718
ti	-12.0734
▁overwhelm	-12.0735
▁dressed	-12.0741
▁wrap	-12.0745
▁Lad	-12.0749
▁ignor	-12.0751
look	-12.0752
▁fraud	-12.0755
▁drift	-12.0755
▁calorie	-12.0758
▁ecological	-12.0759
▁probe	-12.076
▁flavor	-12.0761
▁blindness	-12.0761
▁Kid	-12.0782
▁deepest	-12.0785
▁MR	-12.0798
▁reasonable	-12.0799
org	-12.0807
▁Neanderthal	-12.0823
▁Saudi	-12.0823
▁crawl	-12.0823
▁hallucination	-12.0823
▁Leonard	-12.0823
▁microbial	-12.0827
▁graduat	-12.0838
▁soap	-12.084
▁fortune	-12.0841
space	-12.085
▁beating	-12.0866
▁diagnose	-12.0885
▁encrypt	-12.0885
▁nano	-12.0888
▁Sudden	-12.0891
▁threshold	-12.0891
▁tsunami	-12.0891
▁spontaneous	-12.0891
▁Wait	-12.0891
▁illustration	-12.0891
▁devil	-12.0891
▁unfold	-12.0892
ge	-12.0896
▁balls	-12.0903
zero	-12.0904
▁makers	-12.092
some	-12.0936
▁Jamaica	-12.0938
▁lean	-12.0942
▁tongue	-12.0952
▁nonprofit	-12.0959
▁Media	-12.0963
▁demo	-12.0968
▁pursue	-12.0974
ius	-12.098
▁Fortun	-12.0983
▁accelerate	-12.1003
▁monitoring	-12.1003
▁beam	-12.1014
▁jar	-12.1015
▁pr	-12.1021
▁mo	-12.1024
▁wrapp	-12.1026
▁Jeff	-12.1028
▁Gandhi	-12.1028
▁evolv	-12.1029
▁Rather	-12.1031
▁artwork	-12.1031
▁arise	-12.1034
▁trapp	-12.104
▁shit	-12.1045
▁batter	-12.1054
▁practic	-12.1056
▁log	-12.1064
▁genocide	-12.1066
born	-12.1067
▁commit	-12.1067
▁lamp	-12.1084
ud	-12.1086
▁collaborate	-12.1089
▁punish	-12.1096
▁Snow	-12.1097
▁deliberate	-12.1097
▁breakfast	-12.1098
▁blink	-12.1098
▁unlock	-12.1099
▁lifespan	-12.1099
▁altitude	-12.1106
book	-12.1114
▁tale	-12.1121
▁connectiv	-12.1129
▁drag	-12.1153
▁chronic	-12.1154
▁wir	-12.1156
▁instinct	-12.1167
▁frog	-12.1167
▁ecolog	-12.1172
▁corrupt	-12.119
▁sexy	-12.1195
▁compromise	-12.1199
▁hunter	-12.1212
▁lo	-12.1215
▁jam	-12.1219
for	-12.1223
▁static	-12.1234
▁clay	-12.1238
▁NSA	-12.1238
▁sidewalk	-12.1238
gentleman	-12.1242
end	-12.1248
▁ironic	-12.1269
▁poison	-12.1294
quality	-12.1305
▁whisper	-12.1309
▁fault	-12.1309
▁foster	-12.1309
▁contradiction	-12.1309
▁Still	-12.1309
▁rethink	-12.131
▁vibration	-12.1313
▁leaf	-12.1319
▁ha	-12.1321
▁worrying	-12.1326
▁explode	-12.1326
▁Ken	-12.1327
spring	-12.133
▁institutional	-12.1332
stock	-12.1334
▁cake	-12.1337
▁addict	-12.1348
▁egg	-12.1354
▁acquire	-12.1357
▁descend	-12.1372
ki	-12.1373
▁aspiration	-12.1373
▁Disney	-12.138
▁shrimp	-12.138
▁wrist	-12.138
▁prostate	-12.138
▁Kev	-12.1381
▁wheat	-12.1384
▁fertilizer	-12.1387
▁elegant	-12.1388
▁dragg	-12.1388
worth	-12.14
world	-12.14
▁happie	-12.1402
▁shower	-12.141
▁goat	-12.1414
▁Alex	-12.1427
▁dish	-12.1431
▁pie	-12.145
▁Absolute	-12.1452
▁cliff	-12.1452
▁pandemic	-12.1452
▁suppress	-12.1452
▁delay	-12.1452
▁banana	-12.1452
▁impressive	-12.1452
▁workshop	-12.1453
▁bribe	-12.1455
▁knife	-12.1457
au	-12.1459
▁retire	-12.1461
▁30,000	-12.1471
▁motivate	-12.1476
mer	-12.1479
▁disabilit	-12.1487
▁reproduce	-12.1489
▁realistic	-12.1492
▁700	-12.1508
▁visualize	-12.1511
▁insulin	-12.1525
▁pride	-12.1525
▁antenna	-12.1525
ogether	-12.1552
▁200,000	-12.1559
▁useless	-12.1576
▁augment	-12.1596
▁swallow	-12.1598
▁encouraging	-12.1598
▁monster	-12.1598
▁equit	-12.1598
▁Twenty	-12.1598
▁staring	-12.1599
arrow	-12.1607
verse	-12.1609
▁upward	-12.1611
grade	-12.1621
ese	-12.1627
▁devastating	-12.1645
▁cop	-12.1662
▁confine	-12.1671
▁occupy	-12.1671
▁sibling	-12.1671
▁geek	-12.1671
▁ooh	-12.1672
▁Homo	-12.1672
▁rubber	-12.1674
▁Li	-12.1677
▁grabb	-12.1695
LT	-12.1714
▁playful	-12.1731
▁pregnanc	-12.1734
▁cod	-12.1736
▁pound	-12.1744
▁redesign	-12.1745
▁span	-12.1747
▁frustration	-12.1747
▁Ray	-12.1749
▁belt	-12.1751
cost	-12.1753
xcept	-12.1755
▁fatal	-12.1758
▁accountability	-12.1772
▁vulnerabilit	-12.1776
▁shore	-12.1783
▁cube	-12.1783
▁harmon	-12.1802
▁imp	-12.1813
▁hyper	-12.1817
▁germ	-12.1818
▁despair	-12.182
▁diamond	-12.182
▁glimpse	-12.182
▁Sound	-12.182
▁canopy	-12.182
▁LED	-12.1821
▁visualization	-12.1822
▁cr	-12.1823
▁sponsor	-12.1826
▁chunk	-12.1829
▁indoor	-12.1852
▁Moor	-12.186
▁anticipate	-12.186
▁traffick	-12.1861
▁heel	-12.1861
▁Nigerian	-12.1871
▁geograph	-12.1893
‘	-12.1895
▁Beij	-12.1895
▁2020	-12.1897
▁nerd	-12.1897
▁starv	-12.1906
▁centimeter	-12.1911
form	-12.1912
▁millimeter	-12.1913
Y	-12.1925
▁developer	-12.1925
.5	-12.1945
▁democrac	-12.1954
▁blend	-12.1964
▁15-	-12.1968
▁Brooklyn	-12.1971
▁steer	-12.1971
▁pursuit	-12.1971
▁straightforward	-12.1971
▁insert	-12.1978
fi	-12.1992
▁computational	-12.1992
▁smil	-12.2009
▁Laugh	-12.2015
▁arter	-12.2019
▁filmmaker	-12.2021
ied	-12.2043
▁Sierra	-12.2047
▁libert	-12.2047
▁infectious	-12.2047
liv	-12.2048
▁endanger	-12.2048
▁miserable	-12.2051
▁Far	-12.2052
▁blast	-12.2055
▁armor	-12.2057
vity	-12.2059
▁shak	-12.206
minute	-12.2077
▁nonviolen	-12.2079
▁yoursel	-12.2087
▁unhapp	-12.2087
▁Dere	-12.209
▁Seattl	-12.211
▁Mc	-12.2112
▁pad	-12.2115
▁shocking	-12.2118
▁excellen	-12.2119
▁remembering	-12.2119
▁screw	-12.212
▁archive	-12.2122
▁Tanzania	-12.2124
▁Koran	-12.2124
▁Spring	-12.2124
▁Half	-12.2124
▁insane	-12.2124
▁flourish	-12.2124
▁canvas	-12.2125
▁distribute	-12.2127
pox	-12.2127
lan	-12.2131
blew	-12.2136
▁intensit	-12.2144
▁Play	-12.2149
ana	-12.2149
▁ne	-12.215
▁Bee	-12.2151
▁Rose	-12.2151
▁phenomenal	-12.2152
shirt	-12.2155
ip	-12.2173
no	-12.2179
▁identit	-12.2186
▁regulate	-12.2187
▁disrupt	-12.2196
▁forgive	-12.22
▁stamp	-12.2201
▁warrior	-12.2201
▁tribal	-12.2202
▁cigarette	-12.2202
▁backyard	-12.2203
▁frontier	-12.2204
▁6,000	-12.2209
▁beaten	-12.2214
▁40,000	-12.2216
▁mall	-12.2221
drive	-12.2222
▁intensive	-12.2224
gie	-12.2225
▁interconnected	-12.2227
▁Eve	-12.2232
▁planetary	-12.2241
▁aggregate	-12.2245
▁container	-12.2248
hen	-12.2263
▁Geographic	-12.228
▁blockchain	-12.228
▁chef	-12.228
▁drain	-12.228
▁peculiar	-12.228
▁flesh	-12.228
together	-12.2282
▁triangle	-12.2283
▁texture	-12.2283
▁cosmo	-12.2284
lin	-12.2296
▁cart	-12.2298
▁donat	-12.2303
▁broader	-12.2312
▁Ka	-12.2323
ating	-12.2329
cent	-12.2337
▁decid	-12.2337
ab	-12.2343
▁penis	-12.2349
▁jewel	-12.2355
▁glamor	-12.2355
▁accent	-12.2358
▁panic	-12.2358
▁Telescope	-12.2358
▁logg	-12.236
▁innovate	-12.2362
▁whistle	-12.2362
lock	-12.2363
▁minus	-12.2367
TI	-12.2374
let	-12.2379
▁Try	-12.2388
▁mud	-12.2388
▁mat	-12.2388
lmost	-12.2392
eaten	-12.2395
nia	-12.2396
▁chemist	-12.2407
▁Hans	-12.241
SD	-12.2413
fin	-12.2414
▁shoe	-12.2417
▁scream	-12.243
▁bath	-12.2431
▁bush	-12.2433
▁screening	-12.2434
▁TEDTalk	-12.2438
▁harbor	-12.2438
▁jealous	-12.2438
▁multiply	-12.2438
▁retreat	-12.2438
▁preference	-12.2438
ru	-12.2438
▁cap	-12.2438
▁Nike	-12.2438
▁trustworth	-12.2438
▁Coke	-12.2438
▁harmful	-12.2438
▁isolation	-12.2445
▁deck	-12.2454
▁modest	-12.2456
kin	-12.2459
▁convenient	-12.2471
▁nutrition	-12.2486
▁Cha	-12.2491
▁frightening	-12.2496
ul	-12.2505
▁bla	-12.251
▁shy	-12.2515
▁transit	-12.2516
▁calculus	-12.2518
▁scaffold	-12.2518
▁proposition	-12.2518
▁salar	-12.2519
▁titan	-12.252
▁1.5	-12.2531
▁explorer	-12.2534
▁incentive	-12.2535
wide	-12.255
▁Mac	-12.2557
ler	-12.2558
▁seeming	-12.2559
▁cue	-12.2572
▁mapp	-12.2574
▁Cal	-12.259
▁impress	-12.2597
▁creep	-12.2598
▁cylinder	-12.2598
▁pedestrian	-12.2598
▁dopamine	-12.2598
▁Water	-12.2599
▁bleed	-12.2608
▁Ha	-12.2617
▁bombs	-12.2618
▁philanthrop	-12.2626
▁parachute	-12.2632
▁jet	-12.2648
▁SE	-12.267
Qaeda	-12.268
▁2030	-12.268
▁abundance	-12.268
▁iPod	-12.268
▁correlation	-12.268
▁refrigerator	-12.268
▁sperm	-12.2681
HC	-12.2687
▁Syrian	-12.2697
▁pan	-12.2699
▁RNA	-12.2706
▁amaz	-12.2711
four	-12.2719
well	-12.2723
band	-12.2724
bn	-12.2744
va	-12.2746
▁Lo	-12.2749
▁Monte	-12.2751
▁diarrhea	-12.2762
▁pizza	-12.2762
▁protocell	-12.2762
▁potato	-12.2762
▁selective	-12.2764
pe	-12.2766
ko	-12.2767
▁Stage	-12.2773
▁60,000	-12.2774
▁Matt	-12.2775
▁bin	-12.2777
▁realization	-12.2787
Q	-12.2812
two	-12.2813
▁diploma	-12.2814
▁hybrid	-12.2815
▁jaw	-12.2844
▁naive	-12.2844
▁proceed	-12.2844
▁sequenc	-12.285
▁gallon	-12.2854
▁delicio	-12.2856
▁yell	-12.2861
▁algae	-12.2863
▁emotionally	-12.287
profit	-12.2887
▁patch	-12.2908
▁Shanghai	-12.2928
▁harsh	-12.2928
▁reclaim	-12.2928
▁connectome	-12.2928
▁iceberg	-12.2928
▁Grow	-12.2928
▁costume	-12.2929
▁therapist	-12.293
▁strain	-12.2931
▁trailer	-12.2933
▁overlook	-12.2939
▁pencil	-12.294
▁denial	-12.2946
▁scare	-12.2955
▁emphasize	-12.2963
▁sew	-12.2964
▁concentrate	-12.2969
▁Miss	-12.2987
▁belly	-12.2988
▁embarrassing	-12.2994
▁informal	-12.2994
▁CD	-12.2999
▁drunk	-12.301
▁convict	-12.301
▁remix	-12.3012
▁nightmare	-12.3012
▁kilogram	-12.3012
▁mild	-12.3012
▁hint	-12.3012
▁Hope	-12.3012
▁JF	-12.3013
▁helpless	-12.3015
▁fever	-12.3015
▁dung	-12.3015
DI	-12.3016
▁steam	-12.3016
▁debri	-12.3027
▁cage	-12.3027
▁hearts	-12.3031
income	-12.3059
ris	-12.3062
ft	-12.3067
▁po	-12.3067
▁auto	-12.3073
▁guard	-12.3075
▁listener	-12.3082
▁render	-12.3094
▁distort	-12.3095
▁kilo	-12.3096
▁chew	-12.3096
▁chimp	-12.3096
▁introvert	-12.3096
▁Emma	-12.3096
▁basketball	-12.3096
▁forecast	-12.3096
▁volcano	-12.3098
▁couch	-12.3098
▁translator	-12.3103
▁girlfriend	-12.3106
loved	-12.3119
U	-12.3123
▁der	-12.3125
▁sin	-12.314
▁Pan	-12.3144
▁bust	-12.3145
▁injured	-12.3146
▁discriminati	-12.316
▁faci	-12.3162
▁loose	-12.3162
ark	-12.3166
▁Pr	-12.3169
▁Na	-12.317
▁popp	-12.3171
ub	-12.3181
▁Bitcoin	-12.3182
▁Bronx	-12.3182
▁Watson	-12.3182
▁impulse	-12.3182
▁synapse	-12.3183
▁72	-12.3186
ot	-12.3191
▁storyteller	-12.3195
▁socially	-12.3199
▁polariz	-12.321
▁ambition	-12.3211
▁donation	-12.3227
▁ag	-12.3227
▁por	-12.3228
▁ca	-12.3257
▁skelet	-12.3262
▁disgust	-12.3267
ami	-12.3267
▁schizophreni	-12.3268
▁carpet	-12.3268
▁satisfy	-12.3268
▁spiral	-12.3268
▁neuroscientist	-12.3268
▁tiger	-12.3274
▁psychiatr	-12.3274
▁browser	-12.3276
▁wow	-12.3277
▁Ge	-12.328
▁dropping	-12.3281
▁spare	-12.3285
sky	-12.3285
▁grad	-12.3299
▁crap	-12.3301
▁sandwich	-12.3302
J	-12.331
▁Jona	-12.3311
7,000	-12.3327
con	-12.3328
five	-12.3331
▁regenerate	-12.3335
war	-12.3336
tz	-12.3339
generation	-12.3341
▁hydro	-12.3343
▁AK	-12.3346
▁Jo	-12.335
▁Keep	-12.3355
▁bamboo	-12.3355
▁endeavor	-12.3355
▁vivid	-12.3355
▁prospect	-12.3355
▁warehouse	-12.3355
▁mosque	-12.3355
▁Charli	-12.3355
▁350	-12.3355
▁update	-12.336
▁fluorescent	-12.3361
▁subjective	-12.3366
▁grocery	-12.3369
dded	-12.3382
▁performer	-12.339
▁ma	-12.3391
▁Steven	-12.3394
▁humble	-12.3395
▁En	-12.3395
uart	-12.3401
rank	-12.3405
▁Fe	-12.3414
▁tagg	-12.3422
▁tick	-12.3422
▁triple	-12.3423
▁Gene	-12.3434
▁Ra	-12.3437
▁bacteri	-12.3438
▁envelope	-12.3439
▁Pretty	-12.3443
▁riot	-12.3443
▁banker	-12.3468
▁degrad	-12.3472
wi	-12.3474
gra	-12.3475
▁wi	-12.3476
▁negotiate	-12.3481
law	-12.3488
▁divorce	-12.3494
ja	-12.3494
X	-12.3496
▁spinn	-12.3506
▁earning	-12.352
air	-12.3521
▁vent	-12.3527
▁Business	-12.3531
▁gorgeous	-12.3531
▁summit	-12.3531
▁Machine	-12.3531
▁sketch	-12.3534
▁addiction	-12.3543
▁stimulation	-12.3544
▁hopeless	-12.3564
pa	-12.3564
▁persuade	-12.3577
care	-12.3581
engineer	-12.3586
ak	-12.3586
▁acre	-12.3588
▁pathogen	-12.3592
▁explod	-12.3598
ster	-12.3613
▁admire	-12.3614
use	-12.3619
▁impose	-12.362
▁helmet	-12.3621
▁intact	-12.3621
▁obsole	-12.3621
▁Thai	-12.3621
▁decent	-12.3622
▁maker	-12.3623
▁sake	-12.3624
ger	-12.3625
▁abundant	-12.3627
▁screaming	-12.3629
▁airline	-12.363
▁semi	-12.3635
▁emergence	-12.3661
bo	-12.3661
ada	-12.3662
▁chase	-12.3666
▁giver	-12.367
interest	-12.3676
▁trivial	-12.3678
sense	-12.3679
▁fir	-12.368
speed	-12.3684
▁continuously	-12.3706
▁Bhutan	-12.3711
▁purple	-12.3711
▁terrain	-12.3711
▁deficit	-12.3711
▁1.2	-12.3712
▁angel	-12.3715
▁settle	-12.3717
▁spatial	-12.3722
▁honey	-12.3728
▁simulate	-12.3735
we	-12.3739
▁Ask	-12.375
▁Too	-12.3751
▁idiot	-12.3754
▁tent	-12.3763
▁investigate	-12.3771
▁ga	-12.3779
▁wipe	-12.3785
▁bi	-12.3785
▁glasse	-12.3788
▁petition	-12.3802
▁Kuwait	-12.3802
▁Watch	-12.3802
▁vagina	-12.3802
▁legitimate	-12.3802
▁Bat	-12.3804
▁flute	-12.3804
▁Story	-12.3804
▁Audi	-12.3805
▁empowerment	-12.3808
▁differentiate	-12.382
ov	-12.3821
▁quo	-12.384
▁Bali	-12.3842
.0	-12.3848
▁warmer	-12.3851
oline	-12.3852
▁exot	-12.3855
▁dispos	-12.3861
▁biase	-12.3867
fa	-12.3868
RA	-12.3886
▁immortal	-12.3893
▁artifact	-12.3893
▁jungle	-12.3893
▁vocabular	-12.3893
▁pirate	-12.3893
▁trunk	-12.3893
▁Simpl	-12.3893
▁surgical	-12.3894
▁stare	-12.3896
▁1,500	-12.39
av	-12.3901
▁sneaker	-12.3902
▁farms	-12.3916
▁generic	-12.3916
▁justify	-12.3926
za	-12.3931
ag	-12.3936
▁schedule	-12.3949
▁basement	-12.3956
rad	-12.3961
▁sticker	-12.3966
ez	-12.3968
▁Ki	-12.3973
dding	-12.3974
net	-12.3974
▁cope	-12.3978
▁congesti	-12.3985
▁Consider	-12.3986
▁Shakespeare	-12.3986
▁faint	-12.3986
▁migrant	-12.3986
▁pesticide	-12.3986
▁transistor	-12.3986
▁neurogenesis	-12.3986
▁dragonfl	-12.3986
▁Probab	-12.3986
▁desktop	-12.3986
▁enrich	-12.3986
▁blueprint	-12.3986
▁pipeline	-12.3986
▁boost	-12.399
▁psychopath	-12.399
▁lone	-12.3991
▁blade	-12.3995
▁lethal	-12.3996
▁stair	-12.3999
osity	-12.3999
▁tolerance	-12.4015
▁Gab	-12.4015
uck	-12.4024
▁anticipat	-12.4036
▁lap	-12.4038
ung	-12.4041
▁juice	-12.406
ari	-12.4065
▁typ	-12.4067
▁tile	-12.4078
violet	-12.4079
▁imperative	-12.4079
▁cafe	-12.4079
▁optic	-12.408
▁resilien	-12.4085
▁summarize	-12.4087
onica	-12.4098
▁inch	-12.4101
▁expose	-12.4103
▁Su	-12.411
▁SW	-12.4119
▁Ven	-12.4126
new	-12.4129
▁junk	-12.4152
▁Gar	-12.4154
▁mesh	-12.417
lihood	-12.4171
▁soccer	-12.4174
▁blob	-12.4174
▁nasty	-12.4174
▁stagger	-12.4174
▁collage	-12.4174
▁owe	-12.4174
▁valve	-12.4174
▁MK	-12.4184
▁tide	-12.4191
than	-12.4194
▁30-	-12.4204
▁Cyr	-12.4209
ow	-12.421
▁reli	-12.4215
▁aunt	-12.4222
▁disturbing	-12.4238
▁tablet	-12.424
month	-12.4242
▁merc	-12.4243
human	-12.4253
▁activat	-12.4255
▁PT	-12.426
▁Climate	-12.4269
▁Interesting	-12.4269
▁adolescent	-12.4269
▁infra	-12.4269
▁gross	-12.4269
▁exit	-12.4269
▁Milk	-12.427
▁fetus	-12.427
▁Michel	-12.427
▁crater	-12.4272
▁brush	-12.4273
▁SP	-12.4273
▁lever	-12.4274
▁shatter	-12.4274
▁Learn	-12.4275
▁flame	-12.4276
▁scholarship	-12.4277
▁candle	-12.4277
▁Android	-12.4285
▁mindful	-12.4297
meter	-12.4303
▁rotat	-12.4306
▁Brother	-12.4312
▁Ga	-12.4322
▁provider	-12.4323
▁assemble	-12.433
▁scaling	-12.4338
ately	-12.4342
▁pursu	-12.4344
ram	-12.4347
▁camel	-12.4351
▁torture	-12.4357
▁Pete	-12.4361
▁trail	-12.4361
▁Kazak	-12.4365
▁unleash	-12.4365
▁polite	-12.4365
▁superpower	-12.4366
▁cellphone	-12.4366
▁Somalia	-12.4369
▁capitalist	-12.437
▁friction	-12.437
▁atheist	-12.4371
▁psycho	-12.4372
▁skeptical	-12.4373
▁invitation	-12.4375
▁premise	-12.4377
▁lotter	-12.4381
▁Hubb	-12.4385
mi	-12.4392
oc	-12.4396
▁Kir	-12.4398
▁celebrity	-12.4399
▁dare	-12.44
▁seize	-12.4403
ison	-12.4407
obi	-12.4408
▁Madi	-12.441
mile	-12.4412
▁exceptional	-12.4414
▁Sub	-12.4417
▁stimulate	-12.4419
▁Say	-12.4429
▁stereotype	-12.4437
▁Si	-12.4457
▁spouse	-12.4462
▁tuberc	-12.4462
▁melod	-12.4462
▁revelation	-12.4462
▁foi	-12.4463
▁crab	-12.4463
▁cartoonist	-12.4463
▁headache	-12.4463
▁crude	-12.4464
▁indicator	-12.4475
▁25,000	-12.4475
▁Da	-12.4477
▁switched	-12.4485
▁accumulat	-12.4486
▁conceive	-12.4487
▁microscop	-12.4507
friend	-12.451
uff	-12.4512
▁96	-12.452
ba	-12.4521
ola	-12.4522
pping	-12.4533
▁cease	-12.4537
▁sh	-12.4544
take	-12.4545
▁taxi	-12.4547
ulosi	-12.456
promising	-12.456
▁caregiver	-12.456
▁unfair	-12.456
▁Hawk	-12.4561
▁innovator	-12.4561
▁greet	-12.4561
▁Walk	-12.4563
▁accidental	-12.4564
▁FDA	-12.4565
▁virgin	-12.4565
▁brick	-12.4569
▁freez	-12.457
▁doom	-12.4575
▁vein	-12.4578
chi	-12.4581
hstan	-12.4588
tangible	-12.4618
inch	-12.4619
▁brake	-12.462
▁corners	-12.4621
▁announce	-12.4632
thermal	-12.4636
▁Op	-12.4648
rah	-12.4658
▁terrif	-12.4658
▁lobby	-12.4659
▁ambulance	-12.4659
▁expense	-12.4659
▁exquisite	-12.4659
▁maneuver	-12.4659
▁specimen	-12.4659
▁oyster	-12.4659
▁mustache	-12.466
▁awake	-12.4666
uring	-12.4672
ack	-12.468
▁Live	-12.4684
▁gener	-12.4685
▁prevention	-12.4687
▁kit	-12.4697
set	-12.47
gar	-12.4717
▁mar	-12.472
▁packag	-12.4726
▁vibrat	-12.4729
▁sp	-12.4735
▁cleaner	-12.4739
ai	-12.4743
field	-12.4743
▁spine	-12.4747
▁acoustic	-12.4749
▁Garden	-12.4759
▁modification	-12.4759
▁cardiac	-12.476
venge	-12.4761
▁Gius	-12.4762
▁Redwood	-12.4763
▁AI	-12.4764
▁Cheer	-12.4768
▁intrinsic	-12.4771
▁peni	-12.4775
▁Brad	-12.4779
ight	-12.4789
▁utility	-12.4789
▁charter	-12.4792
▁cows	-12.4794
▁20-	-12.4796
cut	-12.4799
▁underestimate	-12.4805
▁gras	-12.4808
▁guards	-12.4816
▁constrain	-12.4842
tail	-12.4846
▁glamo	-12.4852
▁cheer	-12.486
▁Clear	-12.486
▁janitor	-12.486
▁cream	-12.486
▁suitcase	-12.486
▁Recent	-12.486
▁fluctuation	-12.486
▁elevator	-12.4861
▁alert	-12.4862
▁anxious	-12.4864
▁intimacy	-12.4865
page	-12.4865
ease	-12.4873
▁vo	-12.4876
▁relativ	-12.4879
ill	-12.4891
▁2.	-12.4893
face	-12.4898
▁Pat	-12.4908
▁op	-12.491
▁conceptual	-12.4911
▁im	-12.4912
▁apologize	-12.493
▁gr	-12.4935
lit	-12.4941
▁freeze	-12.4941
pound	-12.4942
three	-12.4946
▁Sal	-12.4947
▁thriv	-12.4951
▁squeeze	-12.4955
▁manifest	-12.4959
▁odor	-12.496
▁genomic	-12.4962
▁neglect	-12.4962
▁turtle	-12.4962
▁ladder	-12.4962
▁towel	-12.4963
▁extrovert	-12.4964
▁Lester	-12.4965
▁laborator	-12.4972
▁Fund	-12.4977
ually	-12.4981
▁mic	-12.4989
▁blown	-12.499
ual	-12.4992
▁examine	-12.5002
▁lawn	-12.5006
100	-12.5009
▁Lot	-12.5019
▁receiver	-12.5027
▁hug	-12.5038
▁pos	-12.5059
LP	-12.5064
▁contaminat	-12.5065
▁enlighten	-12.5065
▁irrational	-12.5065
▁sweep	-12.5065
▁taboo	-12.5065
▁feather	-12.5065
▁propagand	-12.5065
▁watt	-12.5065
▁mammoth	-12.5069
▁courageous	-12.5069
▁admir	-12.5073
▁weakness	-12.5076
▁wip	-12.5077
▁flipp	-12.5086
▁journalis	-12.5088
cela	-12.509
▁awe	-12.5097
▁ghost	-12.5102
▁Ram	-12.5114
fu	-12.5117
▁tubes	-12.5127
gi	-12.5128
han	-12.5133
▁painter	-12.5137
iro	-12.5156
shape	-12.5156
▁ray	-12.5159
van	-12.5167
▁chemotherap	-12.5169
▁slogan	-12.5169
▁syringe	-12.5169
▁nail	-12.517
▁conviction	-12.5171
Col	-12.5173
▁insult	-12.5174
▁impair	-12.5175
▁zoo	-12.5179
oven	-12.5184
▁mega	-12.5184
▁gentle	-12.5184
▁Car	-12.5188
▁stumbl	-12.519
▁progression	-12.5192
▁Nat	-12.5202
ff	-12.5219
▁Vi	-12.5221
▁fertil	-12.5223
▁myceli	-12.5234
berg	-12.5241
▁racis	-12.5248
word	-12.525
ila	-12.5251
size	-12.5254
▁grip	-12.5255
lves	-12.5255
economic	-12.5257
▁skeptic	-12.5266
▁scrap	-12.5269
▁Hold	-12.5271
▁tomato	-12.5272
Fi	-12.5272
▁catastrophe	-12.5275
▁catastrophic	-12.5275
▁asylum	-12.5275
▁cocktail	-12.5275
▁leopard	-12.5275
▁bioluminescen	-12.5275
▁audaci	-12.5276
▁Moz	-12.5277
▁lobe	-12.5277
▁mini	-12.5278
▁inmate	-12.5283
▁Band	-12.5286
▁97	-12.5291
▁wander	-12.5294
▁appreciati	-12.5294
▁rabbit	-12.53
▁Ab	-12.5308
▁Goal	-12.5312
▁dominate	-12.5317
20	-12.5318
▁remotely	-12.5322
▁fuse	-12.5335
▁erect	-12.5336
▁adequate	-12.5341
▁chains	-12.5342
▁transformati	-12.5351
Z	-12.5364
▁Johann	-12.5364
▁Start	-12.5367
nda	-12.5369
im	-12.5374
bro	-12.5375
▁singular	-12.5377
▁smash	-12.5381
▁autistic	-12.5381
▁prophet	-12.5381
▁suspicious	-12.5381
▁Craig	-12.5381
▁corridor	-12.5381
▁Nathan	-12.5381
▁Thirty	-12.5381
▁devise	-12.5381
▁eternal	-12.5382
▁prosecutor	-12.5382
▁toxin	-12.5382
▁reader	-12.5385
▁Nepal	-12.5389
▁intervene	-12.539
▁adolescence	-12.5393
▁Sahara	-12.5395
▁arena	-12.5395
▁cur	-12.5403
▁strengthen	-12.5404
▁bowl	-12.5406
▁Te	-12.541
person	-12.5415
rus	-12.5416
ake	-12.5433
▁locomoti	-12.5437
bi	-12.5438
▁Mar	-12.5439
▁dai	-12.5445
▁Find	-12.5449
▁frustrating	-12.5451
▁130	-12.5453
▁Suppose	-12.5458
▁accumulate	-12.5467
organiz	-12.5468
degree	-12.5473
▁Zimbabwe	-12.5488
▁absurd	-12.5489
▁Kepler	-12.5489
▁Medicine	-12.5489
▁cockroach	-12.5489
▁favela	-12.5489
▁postcard	-12.5489
▁fuzz	-12.5489
▁Amy	-12.549
▁migrate	-12.549
▁flexibilit	-12.549
▁LG	-12.5492
▁CR	-12.5493
▁hemisphere	-12.5495
▁bitter	-12.5497
ole	-12.5497
▁silicon	-12.5498
▁filling	-12.5503
hu	-12.5506
▁Zero	-12.5511
▁assess	-12.5512
▁Change	-12.5522
▁su	-12.5539
ren	-12.555
▁Ross	-12.5558
▁pee	-12.5559
▁gang	-12.556
▁atmospher	-12.5567
▁screens	-12.5577
stair	-12.5586
cca	-12.5587
▁marvel	-12.5596
▁stigma	-12.5597
▁Small	-12.5597
▁defect	-12.5597
▁Sudan	-12.5597
▁embodie	-12.5597
▁cybercriminal	-12.5597
▁extremist	-12.5597
▁multinational	-12.5597
▁Phoenix	-12.5598
▁undergraduate	-12.5598
▁shepherd	-12.5598
▁memorial	-12.5601
▁adaptive	-12.5601
▁hotte	-12.5603
▁Rover	-12.5605
▁thinker	-12.5606
▁millennia	-12.5608
assembl	-12.5608
▁incremental	-12.5618
▁boots	-12.5619
style	-12.5624
▁nois	-12.5626
lept	-12.5627
▁liberat	-12.5632
▁champion	-12.5649
▁maximize	-12.5654
▁module	-12.5656
▁pub	-12.566
ep	-12.566
▁cri	-12.5675
generat	-12.5677
af	-12.5682
▁Cat	-12.5689
sani	-12.5691
Corps	-12.5694
bit	-12.5698
▁Know	-12.5707
▁embryo	-12.5707
▁envision	-12.5707
▁incomplete	-12.5707
▁satisfie	-12.5707
▁slope	-12.5707
▁Beatbox	-12.5707
▁butterfl	-12.5707
▁carrot	-12.5707
▁obligation	-12.5708
▁polymer	-12.5708
▁Venus	-12.5709
▁gaze	-12.571
specific	-12.5713
▁hallway	-12.5715
▁authoritarian	-12.5717
▁bounce	-12.5719
▁900	-12.5722
▁carve	-12.5723
▁hammer	-12.5725
▁dar	-12.5725
▁embarrass	-12.5729
▁intent	-12.5732
▁photon	-12.5732
▁flee	-12.5737
▁vi	-12.5745
▁bench	-12.5754
v	-12.5755
▁blessing	-12.5755
▁digg	-12.5771
▁warp	-12.5772
ept	-12.5776
▁praise	-12.5795
▁avatar	-12.5795
cillin	-12.5802
shift	-12.5806
percent	-12.5807
▁replicat	-12.5813
▁suburb	-12.5817
▁persist	-12.5817
angelo	-12.5818
▁ultrasound	-12.5818
▁hollow	-12.5818
▁swarm	-12.5818
▁lesion	-12.5818
▁metabolic	-12.5819
▁checklist	-12.5819
▁Carne	-12.5819
▁CMU	-12.5819
▁gigant	-12.5819
▁gamma	-12.582
▁cement	-12.5821
▁physiolog	-12.5821
▁manipulat	-12.5823
▁uninten	-12.5823
▁anthropologist	-12.5824
▁Lago	-12.5824
▁AM	-12.5831
▁Par	-12.5832
▁specialize	-12.5833
▁reuse	-12.5833
▁Wa	-12.5838
▁midst	-12.5865
▁scarce	-12.5866
ook	-12.5866
▁Ni	-12.5884
▁mature	-12.5885
▁employer	-12.5885
▁patien	-12.5902
▁Libya	-12.591
▁sauce	-12.5918
▁blogs	-12.5919
▁sometime	-12.5919
screen	-12.592
▁kite	-12.5924
▁98	-12.5925
▁investigat	-12.5928
▁Scientist	-12.5931
▁Siberia	-12.5931
▁famine	-12.5931
▁fierce	-12.5931
▁steep	-12.5931
▁Help	-12.5931
▁reproductive	-12.5931
▁reproduction	-12.5931
▁urgent	-12.5931
▁timing	-12.5931
▁TEDster	-12.5932
▁Nair	-12.5932
▁crank	-12.5932
▁manifestation	-12.5932
mart	-12.5935
▁pond	-12.5936
▁glove	-12.5936
▁pigment	-12.5937
▁displac	-12.5941
▁optimize	-12.5942
▁educator	-12.5943
▁Qui	-12.5952
▁destructive	-12.5959
▁teache	-12.596
▁dependenc	-12.5961
▁Fifty	-12.5964
▁rigid	-12.5967
mine	-12.5971
▁stimul	-12.5973
vy	-12.5973
CD	-12.5978
▁wandering	-12.5979
heart	-12.5989
▁obsession	-12.5997
▁Sp	-12.6006
▁blessed	-12.602
minded	-12.602
▁spike	-12.6023
▁Sad	-12.6031
▁Rob	-12.6035
Bay	-12.6035
▁disrupti	-12.604
▁sw	-12.6041
▁Namibia	-12.6044
▁disadvantage	-12.6044
▁fractal	-12.6044
▁regain	-12.6044
▁Chuck	-12.6044
▁staircase	-12.6044
▁Monday	-12.6044
▁outrage	-12.6045
▁Cancer	-12.6045
▁manipulation	-12.6046
▁symphon	-12.6046
▁Laden	-12.6048
▁Johnny	-12.6051
▁graffiti	-12.6052
▁sir	-12.6059
▁doubling	-12.606
▁toast	-12.606
tive	-12.6069
▁Work	-12.6072
top	-12.6072
▁rolled	-12.6086
▁boiling	-12.6088
▁noble	-12.6098
▁lime	-12.6102
▁MT	-12.6103
▁deny	-12.6108
▁humbl	-12.6111
▁heroic	-12.6117
pit	-12.6118
▁meta	-12.6121
▁rehabilitati	-12.6122
▁lover	-12.6125
▁mum	-12.6127
rief	-12.6127
▁emit	-12.613
▁verbal	-12.6135
▁disappointed	-12.614
▁longe	-12.6142
ax	-12.6146
▁closet	-12.6151
▁competitor	-12.6159
▁convincing	-12.6159
▁hypothetical	-12.6159
▁perceptual	-12.6159
▁prejudice	-12.6159
▁vitamin	-12.6159
▁pleasant	-12.6159
▁squid	-12.6159
▁Wolf	-12.6159
▁psychiatrist	-12.616
ime	-12.616
▁acute	-12.616
▁quantitative	-12.616
kyo	-12.6161
▁Evan	-12.6162
▁Gi	-12.6162
▁1.3	-12.6163
▁Jenn	-12.6163
▁macro	-12.6163
▁JC	-12.6165
▁86	-12.6174
▁interrupt	-12.6177
▁reply	-12.6177
▁powder	-12.6179
▁Indus	-12.6183
▁Peru	-12.6189
▁facilitate	-12.6202
▁offshor	-12.6217
▁Sing	-12.622
▁cooperative	-12.622
▁Gol	-12.6224
stream	-12.6225
▁steady	-12.6227
ima	-12.6232
▁simulat	-12.6242
uc	-12.625
▁bull	-12.6258
▁Yo	-12.6259
wear	-12.6268
resistan	-12.627
sleep	-12.627
▁lik	-12.6275
▁Kosov	-12.6276
▁buzz	-12.6276
▁guerrilla	-12.6276
▁hamburger	-12.6276
▁institute	-12.6276
▁monsoon	-12.6276
▁stabilize	-12.6276
▁visceral	-12.6276
▁metabolism	-12.6276
▁bucket	-12.6276
▁fingertip	-12.6276
▁throat	-12.6276
▁iPad	-12.6276
▁flush	-12.6276
▁hut	-12.6276
▁hatred	-12.6276
▁Data	-12.6277
▁overhead	-12.6277
▁hostile	-12.6277
▁Milo	-12.6277
▁Mind	-12.628
▁slime	-12.6283
ehind	-12.6283
▁celebration	-12.6285
▁planner	-12.6289
▁quad	-12.6293
▁Down	-12.6295
▁issu	-12.6299
rum	-12.6301
▁potent	-12.6301
▁ham	-12.6303
asha	-12.6304
▁Euro	-12.6309
▁Ger	-12.6311
▁Bear	-12.6316
▁bell	-12.6318
king	-12.6322
▁reminder	-12.6326
▁redefine	-12.6334
▁shade	-12.634
ibility	-12.6347
▁worrie	-12.6353
▁yard	-12.6354
▁beneficia	-12.6357
▁ALS	-12.6364
▁submit	-12.6364
▁lucki	-12.6377
▁transcend	-12.6388
ura	-12.6388
az	-12.6389
▁triumph	-12.6393
million	-12.6393
▁Yellow	-12.6393
▁scatter	-12.6393
▁surrender	-12.6393
▁Mumbai	-12.6393
▁Student	-12.6393
▁curator	-12.6393
▁epiphan	-12.6393
▁thrust	-12.6393
▁bypass	-12.6393
▁Leban	-12.6393
▁Lead	-12.6393
▁Coca	-12.6393
▁existential	-12.6393
▁lawsuit	-12.6394
▁stratospher	-12.6394
centric	-12.6395
▁8,000	-12.6404
ade	-12.6413
▁slip	-12.6413
▁ventilat	-12.6415
▁oven	-12.6416
▁blogg	-12.6418
▁outward	-12.6421
▁frighten	-12.6425
▁compute	-12.6434
▁fade	-12.6439
▁fracture	-12.6449
omb	-12.6466
▁24-	-12.6467
GO	-12.6477
▁climber	-12.648
istine	-12.6486
▁candy	-12.6492
▁yards	-12.6498
▁behold	-12.6499
culture	-12.6501
aged	-12.6502
▁prototyp	-12.6506
sensitive	-12.6508
▁counsel	-12.6511
▁Himalaya	-12.6512
▁thorough	-12.6512
▁sediment	-12.6512
▁Large	-12.6512
▁pancrea	-12.6512
▁neocort	-12.6512
▁recession	-12.6513
▁deception	-12.6513
▁wool	-12.6513
▁roommate	-12.6514
▁Danny	-12.6514
▁bombing	-12.6517
lium	-12.6517
▁reinforce	-12.6519
▁digest	-12.6525
▁modify	-12.6525
star	-12.6528
type	-12.6529
▁responsibilit	-12.6539
▁Vinc	-12.654
abbage	-12.6556
du	-12.6557
▁incorporate	-12.6561
q	-12.6567
arity	-12.6588
play	-12.659
▁Sh	-12.659
▁depriv	-12.6595
NG	-12.6597
▁butter	-12.6599
▁learner	-12.6602
ear	-12.6612
▁gram	-12.6627
iful	-12.6629
▁consult	-12.6629
ew	-12.6632
▁Orleans	-12.6633
▁niece	-12.6633
▁prevalence	-12.6633
▁curtain	-12.6633
▁Moham	-12.6633
▁masterpiece	-12.6633
▁circulation	-12.6634
▁uncover	-12.6634
▁wax	-12.6635
▁injection	-12.6636
▁DP	-12.6637
har	-12.6637
▁neurological	-12.6638
▁tar	-12.6639
▁preach	-12.664
▁Lama	-12.6641
▁geological	-12.6641
▁collaborat	-12.6644
▁visionar	-12.6648
ball	-12.6649
▁sync	-12.665
▁satisfaction	-12.6652
▁warn	-12.6655
▁scal	-12.666
tro	-12.6674
▁undergo	-12.6678
▁lips	-12.6681
▁Inside	-12.6681
▁ingenu	-12.6681
ylan	-12.6683
▁Jas	-12.6687
dia	-12.6719
▁rabbi	-12.6726
▁Liberia	-12.6734
▁cookie	-12.6736
▁democratiz	-12.6746
▁Yemen	-12.6747
ue	-12.675
proof	-12.675
lines	-12.6755
▁Sylvi	-12.6755
▁Ultimate	-12.6755
▁benign	-12.6755
▁capsule	-12.6755
▁shield	-12.6755
▁voyage	-12.6755
▁lump	-12.6755
▁puff	-12.6756
▁encyclopedia	-12.6758
▁sadness	-12.6762
▁exponentially	-12.6763
▁accomplishment	-12.6765
▁Rand	-12.6768
▁Side	-12.6772
cell	-12.6776
▁censor	-12.6777
▁lonel	-12.6777
wa	-12.6779
dus	-12.6791
▁Heart	-12.6793
▁substitute	-12.6793
▁lighter	-12.6794
j	-12.6795
▁din	-12.6798
▁Bas	-12.6801
om	-12.6801
▁Bol	-12.6806
▁Tunisia	-12.6858
len	-12.6866
ibati	-12.6877
▁FOX	-12.6878
▁sensitivit	-12.6878
▁submarine	-12.6878
▁rectangle	-12.6878
▁unacceptabl	-12.6878
▁cholera	-12.6878
▁boson	-12.6878
▁execute	-12.6879
government	-12.6879
▁wallet	-12.688
▁problematic	-12.6881
▁dough	-12.6882
fire	-12.6882
▁poop	-12.6883
▁Ko	-12.6886
▁flock	-12.6891
▁Step	-12.6891
▁matern	-12.6894
▁upgrade	-12.6901
▁yeast	-12.6907
airo	-12.6909
▁racist	-12.6912
▁arc	-12.6913
▁vegetati	-12.6924
▁Uncle	-12.6941
▁bomber	-12.6952
▁Whoa	-12.6952
ou	-12.6958
▁roller	-12.6967
risk	-12.6971
▁Mad	-12.6982
ency	-12.6984
bar	-12.6984
▁socio	-12.6997
▁violin	-12.7003
▁Sydney	-12.7003
▁calculating	-12.7003
▁sermon	-12.7003
▁unnecessar	-12.7003
▁wreck	-12.7003
▁contagio	-12.7003
▁parameter	-12.7003
▁cathedral	-12.7003
▁resemble	-12.7003
▁fuck	-12.7004
ending	-12.7004
▁SMS	-12.7004
▁classmate	-12.7004
▁pillar	-12.7005
▁temptation	-12.7005
▁Deep	-12.7005
▁textile	-12.7005
▁evaluate	-12.7007
▁Glass	-12.7012
▁Acc	-12.7014
▁abstraction	-12.7016
ansa	-12.7018
▁Bio	-12.7021
▁donate	-12.7023
▁encode	-12.7028
▁regulator	-12.7029
ggle	-12.7034
▁vet	-12.7043
▁rage	-12.7044
▁isolate	-12.7046
bra	-12.7047
▁shelve	-12.7048
▁unsee	-12.705
▁developmental	-12.705
▁Min	-12.7057
ek	-12.7064
▁Holo	-12.7067
ED	-12.7068
▁Anna	-12.7072
ica	-12.7077
▁recycle	-12.7078
▁traumatic	-12.7078
▁vest	-12.7079
iath	-12.708
▁unimaginabl	-12.7083
▁recreate	-12.7091
▁coordinati	-12.7094
▁Jess	-12.7096
ank	-12.7097
step	-12.7104
tention	-12.7104
cover	-12.7106
▁Bot	-12.7108
grow	-12.7109
▁thankful	-12.711
▁del	-12.7111
▁viewer	-12.7113
▁bricks	-12.712
eyed	-12.7122
▁dome	-12.7122
▁dri	-12.7124
▁volcan	-12.7128
▁pervasive	-12.713
▁premature	-12.713
▁prevail	-12.713
▁resonance	-12.713
▁honeybee	-12.713
▁glorious	-12.713
▁Linux	-12.713
▁Speak	-12.713
ectar	-12.713
▁veil	-12.713
train	-12.713
▁Norden	-12.713
▁battlefield	-12.7131
▁disgusting	-12.7131
▁keen	-12.7131
vascular	-12.7132
▁ideological	-12.7133
forward	-12.7133
▁Ground	-12.7135
frontal	-12.7135
ome	-12.7135
Gowan	-12.7136
▁indication	-12.7141
▁hills	-12.7144
▁bark	-12.7145
▁prostituti	-12.7152
▁collar	-12.7153
▁rig	-12.7155
▁mobilize	-12.7167
▁Ru	-12.7198
▁Marc	-12.7207
▁upright	-12.7208
▁Call	-12.7213
corn	-12.7214
▁duration	-12.7218
▁Va	-12.7223
▁pric	-12.7233
▁Map	-12.7241
▁Com	-12.7249
▁examin	-12.7251
▁treasure	-12.7254
▁orphan	-12.7257
▁nurtur	-12.7258
▁Certain	-12.7258
▁romance	-12.7258
▁turbine	-12.7258
▁adversit	-12.7258
▁feminin	-12.7258
▁mutant	-12.7258
▁coincidence	-12.7258
▁confusing	-12.7258
▁abortion	-12.7258
▁conspirac	-12.7258
▁Hmm	-12.7258
▁spade	-12.7258
▁Dick	-12.7259
▁beef	-12.7259
▁psyche	-12.7259
▁strive	-12.726
huh	-12.726
▁comedian	-12.726
▁rescu	-12.7261
▁outdoor	-12.7261
▁mock	-12.7263
▁cardio	-12.7264
▁baseline	-12.7267
▁companion	-12.727
▁basket	-12.727
jo	-12.7273
▁temporal	-12.7273
▁intricate	-12.7274
▁obscure	-12.7277
▁baker	-12.7282
▁poke	-12.7286
▁hive	-12.7288
AG	-12.7289
blowing	-12.7296
▁prioritize	-12.7301
▁disturb	-12.7308
▁pale	-12.7314
▁tipp	-12.7319
▁Brit	-12.7347
sea	-12.7351
▁Victorian	-12.7355
▁eco	-12.7367
▁retail	-12.7378
▁cultivate	-12.7379
▁inhibit	-12.738
symmetrical	-12.7381
▁Tri	-12.7382
eopard	-12.7386
▁calculator	-12.7388
▁chaotic	-12.7388
▁elbow	-12.7388
▁exhilarat	-12.7388
▁puppet	-12.7388
▁technician	-12.7388
▁delicate	-12.7388
▁Skype	-12.7388
▁brainstorm	-12.7388
▁distill	-12.7389
▁liar	-12.7389
▁horrific	-12.7389
▁paste	-12.7389
▁Gala	-12.7391
▁Sex	-12.7391
viation	-12.7392
▁urbanization	-12.7392
▁refin	-12.7393
▁invade	-12.7393
secure	-12.7395
fashion	-12.7395
▁menu	-12.7397
▁marathon	-12.7397
▁Beyon	-12.7399
▁Universe	-12.74
▁warrant	-12.7402
▁newborn	-12.7403
▁reus	-12.7407
▁ramp	-12.7413
▁tenth	-12.7414
▁cops	-12.7414
▁Bud	-12.742
▁arrange	-12.7423
▁rings	-12.7424
▁induce	-12.7425
▁surger	-12.7437
ward	-12.7442
▁biologically	-12.7446
tel	-12.7447
educat	-12.7447
nce	-12.745
▁electro	-12.7453
▁rubb	-12.7457
▁sensibl	-12.7459
▁intangible	-12.746
lage	-12.7468
▁enthusias	-12.747
▁swo	-12.7472
▁stab	-12.7478
▁assure	-12.7481
▁backup	-12.7484
ani	-12.7486
▁Tru	-12.7493
gging	-12.7495
view	-12.75
▁stressed	-12.7502
▁End	-12.7504
▁Ze	-12.7507
oto	-12.7511
arry	-12.7515
▁liter	-12.7515
▁Digital	-12.7519
▁Oklahoma	-12.7519
▁choir	-12.7519
▁commodity	-12.7519
▁hurricane	-12.7519
▁recipient	-12.7519
▁surplus	-12.7519
▁disparit	-12.7519
▁antidepressant	-12.7519
▁Maldiv	-12.7519
▁cocaine	-12.7519
▁unequal	-12.7519
▁Click	-12.752
▁ballot	-12.752
▁Less	-12.7521
▁PhD	-12.7521
▁marvelous	-12.7521
▁larva	-12.7522
▁compliment	-12.7522
▁servant	-12.7522
▁Colli	-12.7525
▁Luck	-12.7527
▁worldview	-12.7529
gh	-12.753
▁neuro	-12.7533
NN	-12.7534
cal	-12.7534
▁novelty	-12.7535
▁stripp	-12.7535
▁merge	-12.7536
▁amuse	-12.7544
▁Mall	-12.7545
rays	-12.755
▁qualifie	-12.755
▁vibrate	-12.7551
▁indirect	-12.7554
▁Add	-12.7557
▁dispers	-12.7557
alai	-12.7574
▁stunning	-12.7575
hop	-12.7578
▁DR	-12.7579
▁behav	-12.7579
eum	-12.7585
▁conception	-12.7586
lerant	-12.7591
▁amaze	-12.7602
rous	-12.7631
▁Had	-12.7632
▁plott	-12.7633
▁refine	-12.7635
▁sneak	-12.7639
▁Mario	-12.764
ette	-12.7642
▁distracted	-12.7642
mark	-12.7643
▁grace	-12.7649
▁Tit	-12.7651
▁pave	-12.7653
▁crocodile	-12.7653
▁imprison	-12.7653
▁migraine	-12.7653
▁asthma	-12.7653
▁Model	-12.7653
▁resort	-12.7653
▁tempt	-12.7653
pago	-12.7653
▁facult	-12.7653
▁Jefferson	-12.7653
▁dug	-12.7654
▁violation	-12.7654
▁assessment	-12.7655
▁communal	-12.7655
itch	-12.7655
▁hover	-12.7656
▁Trust	-12.7656
eith	-12.7657
▁diminish	-12.7659
▁TEDx	-12.766
▁lure	-12.7661
teem	-12.7662
width	-12.7662
school	-12.7663
resolution	-12.7664
social	-12.7664
▁spite	-12.7676
▁gland	-12.7681
iger	-12.7688
▁cooling	-12.769
▁paraly	-12.7691
▁gee	-12.7691
▁heck	-12.7695
▁Emil	-12.7696
▁devastat	-12.7699
▁fog	-12.7705
▁handwrit	-12.7712
lic	-12.7719
bacterial	-12.7747
▁crashe	-12.776
bot	-12.7763
bu	-12.777
▁equator	-12.7788
▁mutilat	-12.7788
▁Exact	-12.7788
▁altruism	-12.7788
▁certificate	-12.7788
▁lesbian	-12.7788
▁nanoparticle	-12.7788
▁Odysse	-12.7788
▁hippocamp	-12.7788
▁eager	-12.7788
▁Solar	-12.7788
▁wavelength	-12.7788
▁tapir	-12.7788
▁gait	-12.7788
▁dentist	-12.7788
▁unpredictabl	-12.7789
▁dude	-12.7789
▁bioma	-12.779
▁constructive	-12.7793
▁minimize	-12.7794
▁PR	-12.7794
▁mill	-12.7797
finish	-12.7797
weight	-12.78
second	-12.78
rhythm	-12.7802
▁booth	-12.7803
▁Dave	-12.7807
▁industrialize	-12.7808
▁presum	-12.7808
gram	-12.7809
▁humid	-12.7816
▁sock	-12.7825
zo	-12.7828
▁diplomat	-12.7829
▁Eight	-12.7834
▁fur	-12.7834
▁fin	-12.7836
▁Ron	-12.784
hold	-12.7852
etter	-12.7853
▁correlate	-12.7853
eye	-12.7854
ough	-12.7855
▁prop	-12.7872
▁lightn	-12.7876
▁Got	-12.7879
▁void	-12.7883
cus	-12.7886
rick	-12.7894
▁activis	-12.7896
▁53	-12.7898
ira	-12.7911
▁spy	-12.7915
2,000	-12.7915
▁skip	-12.7916
▁RS	-12.7919
▁Kenyan	-12.7922
▁Hundred	-12.7925
▁Magazine	-12.7925
▁chord	-12.7925
▁nuance	-12.7925
▁Excuse	-12.7925
▁cognition	-12.7925
▁wetsuit	-12.7925
▁packet	-12.7925
▁midnight	-12.7926
▁iteration	-12.7927
▁Notice	-12.7927
▁Mola	-12.7927
▁inefficient	-12.793
▁Zip	-12.793
▁biotechnolog	-12.793
▁fungi	-12.7931
genic	-12.7935
▁Alright	-12.7936
▁Nine	-12.7937
plus	-12.7939
▁cerebr	-12.794
▁morph	-12.7941
▁populat	-12.7944
▁antibod	-12.7945
▁Mama	-12.7954
▁conductor	-12.7958
▁12-	-12.7961
ros	-12.7973
▁winds	-12.7973
ssini	-12.7974
▁Face	-12.7974
▁Jay	-12.7985
.3	-12.7988
▁fundrais	-12.7989
▁builder	-12.7993
▁rip	-12.7997
▁nuclei	-12.7998
ug	-12.8008
MW	-12.8008
port	-12.8012
▁Inter	-12.8016
▁welcom	-12.8019
oma	-12.8028
▁organizer	-12.8032
ronto	-12.8036
▁entrepreneuri	-12.8039
▁Dam	-12.8043
▁chat	-12.8053
▁tender	-12.8056
▁echo	-12.8056
▁hung	-12.8058
▁repli	-12.806
▁pur	-12.8061
▁sculpt	-12.8063
▁Arduino	-12.8064
▁sulfide	-12.8064
▁verge	-12.8064
▁supercomputer	-12.8064
▁extremism	-12.8064
▁irrelevan	-12.8064
▁consultant	-12.8064
▁instinctive	-12.8064
▁billboard	-12.8065
▁magician	-12.8067
▁reconstruction	-12.8067
▁swear	-12.807
▁embark	-12.8072
▁appl	-12.8074
▁analytical	-12.8074
▁18-	-12.8075
▁balanc	-12.8077
▁freeway	-12.8079
▁fung	-12.8083
▁shortage	-12.8095
etic	-12.8109
▁hacker	-12.8116
ox	-12.8121
story	-12.8123
▁eighth	-12.8141
lready	-12.8144
tine	-12.8158
▁160	-12.8161
▁venue	-12.8165
if	-12.8174
mate	-12.8176
version	-12.8181
▁Gall	-12.8194
▁Jon	-12.8194
▁ISIS	-12.8205
▁lamb	-12.8205
▁testimon	-12.8205
▁Text	-12.8205
▁shuttle	-12.8205
▁mortgage	-12.8205
▁Spider	-12.8205
▁coworker	-12.8205
▁urine	-12.8205
▁Ninety	-12.8205
▁superhero	-12.8205
▁halve	-12.8205
▁discard	-12.8206
▁Slow	-12.8206
▁Stay	-12.8206
▁posture	-12.8207
▁mandate	-12.8207
▁guideline	-12.8208
▁rendering	-12.8209
▁accommodate	-12.8209
▁overload	-12.8211
▁misuse	-12.8212
▁economical	-12.8218
▁innate	-12.8219
ase	-12.8223
driving	-12.8223
massive	-12.8223
▁auditorium	-12.8223
▁Job	-12.8226
▁erase	-12.8228
▁sleeve	-12.8229
▁GG	-12.8241
ect	-12.8242
▁Case	-12.8243
▁plasma	-12.8245
▁Net	-12.8251
25	-12.8252
▁140	-12.8269
▁voluntary	-12.8271
ick	-12.8276
▁tackl	-12.8281
▁loser	-12.8282
▁token	-12.8284
▁Use	-12.8286
▁Europ	-12.8288
cast	-12.8296
▁logistic	-12.8302
ups	-12.8309
▁grim	-12.8313
▁Happ	-12.832
▁traveler	-12.832
▁skie	-12.8338
▁Uber	-12.834
▁KB	-12.8341
▁rockets	-12.8343
▁monk	-12.8347
▁Scratch	-12.8347
▁exclude	-12.8347
▁glory	-12.8347
▁phosphorus	-12.8347
▁snapshot	-12.8347
▁decentraliz	-12.8348
▁blanket	-12.8348
▁pollutant	-12.8348
▁beekeeper	-12.8349
▁shortcut	-12.835
disproportionate	-12.835
▁cabin	-12.8353
▁declare	-12.8354
▁tilt	-12.8361
▁generator	-12.8361
▁rides	-12.8363
▁tooth	-12.8363
▁grind	-12.8365
polar	-12.8368
positive	-12.8368
group	-12.8368
▁puncture	-12.837
▁waterfall	-12.837
▁Save	-12.8374
section	-12.8382
ridge	-12.8385
▁playground	-12.8385
▁eradicate	-12.8388
600	-12.8394
cho	-12.8395
▁meaningless	-12.8396
▁exceed	-12.8404
▁mobiliz	-12.8414
dental	-12.8414
▁Buy	-12.842
▁Baby	-12.8423
▁cooler	-12.843
eur	-12.8432
zle	-12.8432
▁fad	-12.8439
▁depressing	-12.8451
▁spott	-12.846
aba	-12.846
▁hypothes	-12.8462
bour	-12.8463
▁fec	-12.8466
▁Pop	-12.8469
▁ridge	-12.8473
▁monument	-12.8477
▁bounc	-12.8478
▁radioactiv	-12.8482
▁emergen	-12.8484
ult	-12.8485
peech	-12.8488
▁Venezuela	-12.8492
▁respirator	-12.8492
▁sapien	-12.8492
▁scroll	-12.8492
▁vulture	-12.8492
▁Nanopatch	-12.8492
▁stiff	-12.8493
▁bloom	-12.8493
▁shallow	-12.8494
▁suburban	-12.8494
rosion	-12.8494
▁distress	-12.8494
counterintuitive	-12.8495
uddin	-12.8495
▁nanotechnolog	-12.8495
▁stall	-12.8496
▁troll	-12.8499
▁grassland	-12.8503
▁daylight	-12.8503
code	-12.8513
great	-12.8515
week	-12.8515
▁mastery	-12.8516
▁93	-12.8518
▁attraction	-12.852
▁bent	-12.852
▁refrigerat	-12.8528
manda	-12.853
▁Ji	-12.8545
▁gentl	-12.8546
ze	-12.855
▁Cel	-12.8552
▁divergen	-12.8554
OS	-12.8555
▁negotiat	-12.8572
▁va	-12.8579
lcome	-12.8583
▁heartbreak	-12.859
▁poo	-12.859
apped	-12.8601
▁miner	-12.8605
▁slipp	-12.8607
▁Kin	-12.8607
ink	-12.8608
val	-12.8615
ER	-12.8621
▁mystic	-12.8625
▁susceptib	-12.8627
▁blam	-12.8628
▁straw	-12.8639
▁tutor	-12.8639
▁Cameron	-12.8639
▁Dallas	-12.8639
▁juvenile	-12.8639
▁plague	-12.8639
▁relevanc	-12.8639
▁submersible	-12.8639
▁meadow	-12.8639
▁energetic	-12.8639
▁paragraph	-12.8639
▁grape	-12.8639
▁seamless	-12.8639
▁Depressio	-12.864
▁barbershop	-12.864
▁chore	-12.864
▁admission	-12.864
▁mama	-12.864
▁swamp	-12.8641
▁ES	-12.8641
▁Oak	-12.8641
▁claw	-12.8641
▁counted	-12.8642
▁backpack	-12.8642
▁rag	-12.8644
▁causal	-12.8645
▁stain	-12.8645
▁Harle	-12.8653
▁tuck	-12.8653
▁compose	-12.8653
▁budd	-12.8657
child	-12.8658
efficient	-12.8659
▁lander	-12.8663
oriented	-12.8665
▁outlet	-12.8667
▁mysteri	-12.867
cha	-12.867
▁incidental	-12.868
▁Mayor	-12.8689
▁pun	-12.8699
▁haunt	-12.87
▁Hell	-12.8702
▁revolutionize	-12.8703
ndex	-12.8713
▁axe	-12.8721
▁clon	-12.873
▁50-	-12.8732
▁forum	-12.8753
▁Stein	-12.8759
▁Plan	-12.877
▁poetic	-12.878
▁bore	-12.8784
▁commoditi	-12.8784
▁Carol	-12.8786
▁Solomon	-12.8789
▁Ushahidi	-12.8789
▁burial	-12.8789
▁catalyst	-12.8789
▁concussion	-12.8789
▁kindergarten	-12.8789
▁remittance	-12.8789
▁inexpensive	-12.8789
▁laundr	-12.8789
▁vacan	-12.8789
▁humiliation	-12.879
▁firefl	-12.879
▁oppress	-12.8791
▁Margar	-12.8791
▁Fair	-12.8792
▁methodolog	-12.8792
quatic	-12.8798
▁expressive	-12.8798
▁simplify	-12.8803
▁woods	-12.8813
sharing	-12.8814
▁generalize	-12.8814
▁eradicat	-12.8814
mbo	-12.8814
▁Justine	-12.8822
▁coherent	-12.8827
▁elevat	-12.8827
▁dip	-12.8828
▁Ell	-12.8833
TA	-12.8843
▁blurr	-12.8847
▁decode	-12.8847
▁margins	-12.8848
▁experimentation	-12.8855
litary	-12.886
▁penetrate	-12.8867
▁annoying	-12.8868
▁technologist	-12.8875
▁resonate	-12.8877
▁complaint	-12.8879
▁Ky	-12.8881
ib	-12.8882
▁emitt	-12.8883
▁Pi	-12.8884
pro	-12.8888
▁cracked	-12.8901
▁daf	-12.8905
▁mentors	-12.8905
▁AB	-12.8908
▁cab	-12.8908
▁caps	-12.8908
▁pore	-12.8911
▁tun	-12.8914
▁runner	-12.8921
▁beds	-12.8925
▁improbab	-12.8933
▁Fl	-12.8934
ennis	-12.8937
▁sketche	-12.8938
▁chick	-12.8938
▁Copernic	-12.894
▁Pittsburg	-12.894
▁Pixar	-12.894
▁gadget	-12.894
▁lettuce	-12.894
▁millisecond	-12.894
▁timber	-12.894
▁Galile	-12.894
▁tolerate	-12.894
▁pinpoint	-12.894
▁complication	-12.894
▁supernova	-12.8941
▁Toyota	-12.8941
▁hind	-12.8941
▁counterpart	-12.8941
▁astronomical	-12.8941
▁Rick	-12.8941
▁Huh	-12.8942
▁urgenc	-12.8942
▁embarrassment	-12.8942
▁laz	-12.8943
▁68	-12.8943
▁announcement	-12.8944
▁delete	-12.8944
▁livelihood	-12.8945
▁Titanic	-12.8945
▁OE	-12.8946
ovember	-12.8947
▁Dear	-12.8948
▁disruption	-12.8951
▁slaughter	-12.8952
▁proton	-12.8954
▁environmentally	-12.8954
▁plugg	-12.8955
▁attorney	-12.8957
▁superintelligen	-12.8959
Mart	-12.8969
bucks	-12.8969
nutrition	-12.8971
▁subsid	-12.8976
press	-12.8977
▁loyalt	-12.8979
di	-12.8979
▁Vent	-12.8982
▁spit	-12.8994
icious	-12.8996
▁globaliz	-12.9002
▁Shi	-12.9004
▁doodl	-12.9016
ged	-12.9018
▁articulate	-12.9029
▁marginaliz	-12.903
▁58	-12.9042
▁DM	-12.9043
scape	-12.9043
▁viewing	-12.9045
▁Eighty	-12.9046
▁Bar	-12.9047
▁soar	-12.9053
▁Pen	-12.9073
▁locate	-12.9076
▁scaled	-12.9079
▁flap	-12.9081
▁individually	-12.9084
,200	-12.9091
▁compass	-12.9093
▁SB	-12.9093
▁balcon	-12.9094
▁Taiwan	-12.9094
▁applaud	-12.9094
▁bureaucrac	-12.9094
▁metronome	-12.9094
▁Dream	-12.9094
▁ethanol	-12.9094
▁instantaneous	-12.9094
▁Archimed	-12.9094
▁bombsight	-12.9094
▁rigorous	-12.9095
▁jean	-12.9095
▁vicious	-12.9095
▁Self	-12.9096
▁rover	-12.9097
▁Rule	-12.9097
▁joyful	-12.9098
▁plankt	-12.9098
▁auditor	-12.9099
▁slamm	-12.9101
▁chill	-12.9101
In	-12.9103
▁propeller	-12.9103
▁payoff	-12.9105
flow	-12.9105
▁Serious	-12.9106
▁blogger	-12.911
▁nurture	-12.9111
▁500,000	-12.9111
▁patholog	-12.9112
solv	-12.9117
offs	-12.9122
▁Han	-12.9126
▁spaceship	-12.9126
▁Div	-12.9138
▁Forty	-12.9154
▁paradi	-12.9162
▁dedicate	-12.9167
istan	-12.9169
▁Q	-12.9171
▁Patient	-12.9179
▁Za	-12.9183
▁unaware	-12.9184
00	-12.9184
oid	-12.9186
▁enforce	-12.9188
▁Kal	-12.9191
her	-12.9203
▁animate	-12.9204
edge	-12.9208
met	-12.9208
▁Bad	-12.9209
▁unto	-12.9212
▁surge	-12.9231
ran	-12.924
own	-12.924
▁Cart	-12.9245
▁sentiment	-12.9245
▁optimiz	-12.9245
▁thermo	-12.9247
▁propell	-12.9247
▁gam	-12.9247
▁McDonald	-12.925
▁PowerPoint	-12.925
▁chalk	-12.925
▁implicit	-12.925
▁mundan	-12.925
▁plaster	-12.925
ã	-12.925
▁bonobo	-12.925
▁Desert	-12.925
▁relentless	-12.925
▁Armstrong	-12.9251
▁excerpt	-12.9251
▁perpetrator	-12.9251
▁obey	-12.9251
▁reckless	-12.9251
acci	-12.9252
▁breakdown	-12.9253
Barack	-12.9253
▁Pink	-12.9253
▁explosive	-12.9255
▁bay	-12.9256
▁sword	-12.9258
idden	-12.9259
▁unthink	-12.926
▁motorcycle	-12.926
▁corp	-12.926
▁BJ	-12.9261
-2	-12.9263
cumen	-12.9264
▁Politic	-12.9266
▁optimal	-12.9267
run	-12.9268
▁criticize	-12.9273
▁professors	-12.9275
▁rib	-12.9277
▁tether	-12.9277
▁imitate	-12.9284
speak	-12.9289
▁mistaken	-12.9298
energy	-12.9301
esday	-12.9301
▁185	-12.931
▁enthusiastic	-12.9325
▁visualiz	-12.9328
saw	-12.9331
▁protester	-12.9331
▁collide	-12.9338
▁doll	-12.9342
rap	-12.9349
▁na	-12.9355
▁Wit	-12.936
▁virtu	-12.9365
▁casual	-12.9373
mar	-12.9374
og	-12.9377
▁violat	-12.9383
▁reasonabl	-12.9386
▁brows	-12.9386
▁Qu	-12.9389
▁IQ	-12.9391
▁planting	-12.9401
▁stereo	-12.9402
banish	-12.9404
win	-12.9404
eak	-12.9406
▁Pal	-12.9407
▁loneli	-12.9407
ibn	-12.9408
▁reflex	-12.9409
▁sympath	-12.9409
▁ambiguit	-12.9409
▁responsive	-12.9409
▁unfamiliar	-12.9409
▁gossip	-12.9409
▁pivot	-12.9409
▁orphanage	-12.941
▁Olive	-12.941
▁prox	-12.9411
▁modular	-12.9411
▁stimulat	-12.9412
uver	-12.9412
▁physiological	-12.9413
▁parade	-12.9415
▁Ti	-12.9415
▁placebo	-12.9418
▁summar	-12.9421
▁knot	-12.9422
▁deployment	-12.9423
▁geographic	-12.943
▁Lind	-12.943
tter	-12.9432
▁bonus	-12.9432
▁consideration	-12.9432
▁morally	-12.9436
▁anchor	-12.9436
▁boyfriend	-12.9437
peer	-12.9457
ibera	-12.9459
▁teens	-12.9461
▁controller	-12.9463
▁Ber	-12.9464
▁Often	-12.9464
▁bury	-12.9465
▁Ban	-12.9465
▁porn	-12.947
▁improvise	-12.9478
▁invasive	-12.9485
home	-12.9492
▁arous	-12.9499
▁env	-12.9502
▁messag	-12.9518
▁91	-12.953
nonymous	-12.9536
▁feminis	-12.954
▁Forget	-12.954
▁incarcerat	-12.9541
nar	-12.9559
▁dread	-12.9562
▁Mel	-12.9565
▁believer	-12.9567
▁hacked	-12.9569
▁cubic	-12.9569
▁anecdote	-12.957
▁apparatus	-12.957
▁convenience	-12.957
▁hectare	-12.957
▁mammogram	-12.957
▁orangutan	-12.957
▁serotonin	-12.957
▁suicidal	-12.957
▁sulfur	-12.957
▁taxpayer	-12.957
▁template	-12.957
▁asphalt	-12.957
▁biofuel	-12.957
▁conscience	-12.957
▁microwave	-12.957
▁cemeter	-12.957
▁dictator	-12.9571
▁pension	-12.9571
▁preschool	-12.9571
▁font	-12.9571
▁instructor	-12.9571
▁notebook	-12.9572
▁Tasmanian	-12.9576
▁beast	-12.9577
▁slot	-12.9577
qui	-12.9577
▁Eden	-12.9582
▁beard	-12.9582
▁Type	-12.9585
▁intimidat	-12.9586
▁jacket	-12.9588
▁Cloud	-12.9591
▁rally	-12.9592
ograph	-12.9594
▁KA	-12.9597
found	-12.9602
▁efficac	-12.9602
▁gel	-12.9605
▁Pass	-12.9607
determin	-12.961
▁immers	-12.9616
food	-12.9616
▁hike	-12.962
▁Jacque	-12.9623
cher	-12.9625
log	-12.963
▁heroin	-12.9631
▁feeds	-12.9633
uk	-12.9634
ev	-12.9637
ata	-12.9642
▁cris	-12.9645
▁100-	-12.9647
▁fl	-12.9652
taller	-12.9656
regulat	-12.9656
▁Fly	-12.9657
▁neo	-12.9662
ithium	-12.9664
▁360	-12.9666
▁infidel	-12.9668
▁MP	-12.9675
▁Teach	-12.9677
▁decorat	-12.9678
emost	-12.968
▁lense	-12.9693
▁FG	-12.9696
▁Hard	-12.9698
▁timeline	-12.9704
print	-12.9705
heid	-12.9709
saving	-12.971
▁anesthesi	-12.971
▁interfere	-12.9725
cle	-12.9729
▁oppressi	-12.9731
▁waist	-12.9734
▁DARPA	-12.9734
▁Jennifer	-12.9734
▁Netflix	-12.9734
▁Nichol	-12.9734
▁Oregon	-12.9734
▁disparate	-12.9734
▁redundan	-12.9734
▁toddler	-12.9734
▁unpleasant	-12.9734
▁ingenious	-12.9734
▁illiterate	-12.9734
elecommunication	-12.9734
▁dictatorship	-12.9734
▁censorship	-12.9735
▁hurdle	-12.9735
▁payload	-12.9735
▁evaluation	-12.9735
▁advertisement	-12.9735
▁confession	-12.9736
▁Islamist	-12.9738
▁Fall	-12.9741
▁Truth	-12.9741
▁Gen	-12.9744
atitude	-12.9744
▁clone	-12.975
▁mantra	-12.975
▁loo	-12.9751
▁hazard	-12.9756
▁sho	-12.9757
ji	-12.9759
RN	-12.976
▁incarcerati	-12.9764
controll	-12.9767
▁memorize	-12.9768
▁meditati	-12.977
▁Hud	-12.9771
▁genital	-12.9773
protect	-12.9777
▁deer	-12.9781
▁prescribe	-12.9783
▁escap	-12.9785
ater	-12.9785
▁weave	-12.9785
▁Bi	-12.9788
linear	-12.9791
scribe	-12.9793
▁surf	-12.9801
▁visi	-12.9803
▁CC	-12.9806
▁ripped	-12.9808
▁annoy	-12.9814
▁ballet	-12.9821
▁Hadr	-12.9835
▁persever	-12.9844
▁Nan	-12.9847
▁MA	-12.9847
▁tactic	-12.9854
▁frontal	-12.9863
▁synthesize	-12.9863
arm	-12.9864
ix	-12.9866
▁merit	-12.9872
▁forbid	-12.9878
coli	-12.9885
▁migrat	-12.9886
most	-12.9891
▁zip	-12.9892
▁overlap	-12.9892
▁Whit	-12.9893
▁numb	-12.9893
▁lend	-12.9894
▁dissolve	-12.9897
▁Wonder	-12.9899
▁Tibet	-12.99
breaking	-12.9901
▁Falcon	-12.9901
▁delusion	-12.9901
▁grassroots	-12.9901
▁miraculous	-12.9901
▁salmon	-12.9901
▁swirl	-12.9901
▁Discover	-12.9901
▁Montana	-12.9901
▁discomfort	-12.9901
▁reconciliation	-12.9901
▁scout	-12.9901
▁exclusion	-12.9901
▁charisma	-12.9901
▁seizure	-12.9901
▁fingerprint	-12.9901
▁ozone	-12.9901
▁immunit	-12.9902
▁Image	-12.9903
▁outrageous	-12.9903
▁bald	-12.9903
▁modeling	-12.9906
▁memorabl	-12.9907
▁reluctant	-12.9909
▁carti	-12.991
▁Head	-12.9911
▁Darwinian	-12.9912
▁13-	-12.9917
▁cheek	-12.9917
liberation	-12.9922
▁attachment	-12.9922
▁mash	-12.9927
▁acceleration	-12.9927
▁forbidd	-12.9928
▁evaporate	-12.9952
▁abusi	-12.9955
iel	-12.9957
▁cosmolog	-12.9961
▁desir	-12.9971
▁Pre	-12.9972
pon	-12.9984
▁Fast	-12.9995
▁immersi	-13.0001
ati	-13.0007
▁Rise	-13.0009
ford	-13.0022
▁Hy	-13.0023
▁emission	-13.0031
▁divin	-13.0032
▁Wire	-13.004
▁uprising	-13.0056
▁Ve	-13.0056
▁clap	-13.0062
▁82	-13.0064
▁mortal	-13.0065
▁Swa	-13.0066
▁ambassador	-13.007
▁cafeteria	-13.007
▁rainbow	-13.007
▁skyscraper	-13.007
▁spawn	-13.007
▁vegetarian	-13.007
▁orgasm	-13.007
▁elastic	-13.007
▁neurologist	-13.007
▁biotech	-13.0071
▁Panama	-13.0071
ahren	-13.0071
▁squeak	-13.0071
▁carpenter	-13.0071
▁distraction	-13.0072
▁Bono	-13.0072
▁counselor	-13.0072
▁Susan	-13.0072
▁pedal	-13.0073
▁Dark	-13.0073
▁miser	-13.0074
▁simplistic	-13.0075
▁Fib	-13.0075
▁offend	-13.0076
▁sav	-13.008
▁circulat	-13.0081
▁distract	-13.0082
▁dragon	-13.0085
▁contributor	-13.009
▁measl	-13.0091
▁socket	-13.0091
▁Near	-13.0093
▁commerc	-13.0097
sight	-13.0099
perform	-13.0101
▁correction	-13.0104
▁Vanco	-13.0107
cation	-13.0112
market	-13.0119
piece	-13.012
handed	-13.0126
ella	-13.0148
▁trillions	-13.0151
MI	-13.0151
▁astonish	-13.0156
▁Anas	-13.0156
▁laying	-13.0156
▁participator	-13.0157
▁nurs	-13.0167
▁lin	-13.017
▁peel	-13.017
▁torn	-13.017
▁resurrect	-13.0182
▁portal	-13.0183
▁Ap	-13.019
▁undermine	-13.0193
▁appreciat	-13.02
rink	-13.0212
▁rains	-13.0219
▁snap	-13.0233
▁swap	-13.0234
▁contradict	-13.0241
diac	-13.0242
▁Current	-13.0243
▁dwarf	-13.0243
▁holistic	-13.0243
▁patriarch	-13.0243
▁peanut	-13.0243
▁plaque	-13.0243
▁whistleblower	-13.0243
▁gorilla	-13.0243
▁biosphere	-13.0243
▁cosmetic	-13.0243
▁rooftop	-13.0243
▁imaginative	-13.0243
▁unsustainabl	-13.0243
▁reconnect	-13.0244
▁bloodstream	-13.0244
▁Fear	-13.0245
▁crust	-13.0245
▁lightweight	-13.0246
▁bully	-13.0247
▁viewpoint	-13.0247
▁Mil	-13.0248
▁Julie	-13.0251
▁confrontation	-13.0251
▁energiz	-13.0252
▁Tree	-13.0253
▁excellence	-13.0254
▁princess	-13.0255
▁Beck	-13.0256
▁recommendation	-13.0258
▁40-	-13.0263
▁Ear	-13.0263
▁certifi	-13.0264
▁composite	-13.0265
▁Che	-13.0267
axis	-13.0267
▁inspirational	-13.0269
▁cultivat	-13.0269
▁dictate	-13.027
▁reside	-13.027
▁contractor	-13.0271
▁abnormal	-13.0275
ctopus	-13.0276
▁evident	-13.0277
upp	-13.0286
vin	-13.0286
▁collector	-13.029
shine	-13.0295
▁intercept	-13.0295
▁dodo	-13.0296
bil	-13.0298
▁nun	-13.0303
▁hostilit	-13.0304
far	-13.0304
▁illuminat	-13.0307
▁curl	-13.0309
▁beep	-13.031
▁yog	-13.0314
ians	-13.0315
link	-13.0318
math	-13.032
▁continual	-13.0331
▁redefin	-13.0331
▁skirt	-13.0337
▁buck	-13.0338
tainment	-13.0345
▁seasonal	-13.0352
gua	-13.0352
▁Zo	-13.0353
ama	-13.0356
▁Cars	-13.0359
▁polls	-13.036
▁projector	-13.0363
olm	-13.0368
genesis	-13.0372
▁78	-13.0378
bath	-13.038
▁nin	-13.0381
tun	-13.0389
▁backward	-13.0393
unk	-13.0397
▁boot	-13.0397
▁Rica	-13.0398
▁attacker	-13.0399
▁width	-13.0406
ended	-13.0414
roll	-13.0415
▁feat	-13.0415
ambiguous	-13.0417
eb	-13.0418
▁epilep	-13.0418
@	-13.0418
▁Democracy	-13.0418
▁Dreyfus	-13.0418
▁empirical	-13.0418
▁filament	-13.0418
▁homosexual	-13.0418
▁prevalent	-13.0418
▁sprawl	-13.0418
▁pneumo	-13.0418
▁Proust	-13.0418
▁Bonobo	-13.0418
▁appliance	-13.0418
▁microRNA	-13.0418
▁decease	-13.0418
▁scandal	-13.0418
▁Shoot	-13.0418
▁uh	-13.0418
▁rediscover	-13.0419
▁curb	-13.0419
▁lava	-13.0419
▁Million	-13.0421
▁cock	-13.0422
▁navigation	-13.0422
▁clinician	-13.0422
▁shovel	-13.0425
ister	-13.0427
MF	-13.0427
▁clapp	-13.0427
▁Teacher	-13.043
zoning	-13.0435
bor	-13.0436
avian	-13.0438
▁Sri	-13.0438
erial	-13.0441
▁persistent	-13.0443
▁Gri	-13.0445
▁mediate	-13.0446
▁mines	-13.0449
▁casualt	-13.0458
▁respectful	-13.0461
void	-13.0461
ouri	-13.0464
fit	-13.0469
bound	-13.0472
people	-13.0473
▁greed	-13.0473
▁Mou	-13.0474
▁wearable	-13.0481
▁charming	-13.0485
▁queue	-13.0488
▁sponge	-13.0488
paid	-13.0502
▁capacit	-13.0503
▁contemplat	-13.0506
limited	-13.0512
▁liberate	-13.0516
▁rect	-13.0517
300	-13.052
▁pessimist	-13.0522
ctor	-13.0533
▁improvisation	-13.0543
▁16-	-13.0543
▁Rat	-13.0547
explored	-13.0553
▁culturally	-13.0553
reach	-13.0562
▁synchronize	-13.0568
▁brillian	-13.0568
▁jumps	-13.0569
▁Julia	-13.0572
▁Cambodia	-13.0576
lé	-13.0576
ulation	-13.0577
▁rubbl	-13.0578
▁strap	-13.0586
▁Ida	-13.0587
▁Mal	-13.0589
▁Living	-13.059
▁AT	-13.0595
▁Um	-13.0596
▁embed	-13.0596
▁Amazing	-13.0597
▁Grace	-13.0597
▁Murray	-13.0597
▁Sebastia	-13.0597
▁amplify	-13.0597
▁appetite	-13.0597
▁athletic	-13.0597
▁junior	-13.0597
▁spaghetti	-13.0597
▁tweak	-13.0597
▁tyrann	-13.0597
▁erotic	-13.0597
▁pornograph	-13.0597
▁cereal	-13.0597
▁Kelly	-13.0597
▁Motor	-13.0597
▁solemn	-13.0597
▁incubator	-13.0597
▁unnatural	-13.0598
▁MBA	-13.0598
▁Magic	-13.0598
▁sanctuar	-13.0598
▁ripple	-13.0599
▁sterile	-13.0599
▁Mala	-13.0599
▁cubicle	-13.06
▁VR	-13.06
hrir	-13.06
▁panick	-13.0601
▁sprint	-13.0602
▁resin	-13.0604
▁Sandy	-13.0607
▁fundamentalist	-13.0608
▁reconcile	-13.0608
▁peril	-13.0609
▁gum	-13.0609
mus	-13.0614
▁infuse	-13.0615
▁synchron	-13.0616
apping	-13.0616
▁tortur	-13.0618
▁RIS	-13.0623
▁MM	-13.0623
▁remark	-13.0626
stein	-13.0627
▁Luc	-13.063
▁intestine	-13.0631
▁whip	-13.0631
built	-13.0633
▁180	-13.0633
▁irritat	-13.0639
▁initiate	-13.0644
▁deflect	-13.0644
rate	-13.0647
ju	-13.065
fund	-13.065
Aid	-13.0654
▁Cooper	-13.0656
fer	-13.0657
▁Latino	-13.0674
▁startup	-13.0676
test	-13.0682
▁dunes	-13.0682
▁dropout	-13.0683
llen	-13.0684
▁temporari	-13.0686
▁provoke	-13.0687
▁Mak	-13.0687
▁Chad	-13.0693
▁Uh	-13.071
▁Kim	-13.0723
▁kin	-13.0724
▁vapor	-13.0747
▁whil	-13.0752
▁Lang	-13.0752
bodie	-13.0753
ogue	-13.0754
▁LI	-13.0756
bone	-13.0762
▁fertiliz	-13.0765
▁perfection	-13.0765
▁endure	-13.0772
▁Connecti	-13.0772
▁hobby	-13.0778
▁Financial	-13.0779
▁giraffe	-13.0779
▁plume	-13.0779
▁prompt	-13.0779
▁uranium	-13.0779
▁Freud	-13.0779
▁petrol	-13.0779
▁Rachel	-13.0779
▁roam	-13.0779
▁thunder	-13.0779
▁sociologist	-13.0779
▁olive	-13.0779
▁Mahat	-13.0779
▁courtyard	-13.0779
▁sunset	-13.078
▁shaman	-13.078
▁headphone	-13.078
▁disappointment	-13.078
▁Virtual	-13.078
▁Normal	-13.0781
▁peek	-13.0781
▁forehead	-13.0781
▁precipitat	-13.0781
▁forgiveness	-13.0782
▁thigh	-13.0782
▁fatty	-13.0782
▁dysfunctional	-13.0783
▁supplier	-13.0783
▁serial	-13.0784
▁reinforc	-13.0785
▁quer	-13.0785
mendment	-13.0788
▁pheromone	-13.0789
▁SL	-13.0792
▁repurpos	-13.0795
▁wetland	-13.0797
▁Kara	-13.0799
▁trickle	-13.0813
▁Ark	-13.0814
▁MoM	-13.0818
▁curse	-13.0819
▁compensat	-13.0822
pines	-13.0829
ik	-13.0829
▁89	-13.083
craft	-13.0833
▁zo	-13.0833
▁Guy	-13.0834
▁450	-13.0838
▁assured	-13.0839
white	-13.084
national	-13.0841
For	-13.0841
mel	-13.0846
▁Sch	-13.0846
▁touche	-13.0858
▁unite	-13.0862
▁pops	-13.0864
osh	-13.0868
▁downside	-13.0869
▁champions	-13.0876
She	-13.0878
▁blur	-13.0892
▁drip	-13.0894
rmed	-13.0904
▁reimagine	-13.091
▁encod	-13.0914
▁mob	-13.0915
▁insecurit	-13.0923
▁Whitopia	-13.0943
▁sentien	-13.0946
▁buyer	-13.0947
ife	-13.0948
hole	-13.0951
cuba	-13.0955
cientific	-13.0959
ijuana	-13.0962
▁quiz	-13.0963
▁Break	-13.0964
▁Fantastic	-13.0964
▁Perfect	-13.0964
▁acquisition	-13.0964
▁diabetic	-13.0964
▁mammograph	-13.0964
▁marshmallow	-13.0964
▁ribbon	-13.0964
▁utopia	-13.0964
▁widow	-13.0964
▁bruise	-13.0964
▁unveil	-13.0964
▁paranoi	-13.0964
▁progeri	-13.0964
▁railroad	-13.0964
▁bait	-13.0964
▁Economist	-13.0964
▁biomaterial	-13.0964
▁frantic	-13.0964
▁vague	-13.0964
▁1.4	-13.0964
▁diffuse	-13.0964
▁marble	-13.0964
▁superstar	-13.0964
▁Left	-13.0964
▁Sufi	-13.0965
▁vendor	-13.0965
▁Getting	-13.0965
▁dislike	-13.0965
▁passport	-13.0966
▁IT	-13.0966
▁simulator	-13.0966
▁tomatoe	-13.0968
▁sham	-13.0968
▁Laborator	-13.0971
▁slipper	-13.0974
▁Ukrain	-13.0975
▁confess	-13.0975
▁forager	-13.0976
▁recreation	-13.0976
▁astounding	-13.0976
▁homicide	-13.0977
▁rode	-13.0978
▁Joy	-13.0979
▁theft	-13.0982
gile	-13.0984
anagement	-13.0986
▁halt	-13.0987
▁Fey	-13.099
odd	-13.0993
▁flatten	-13.0993
▁competent	-13.0996
▁cycl	-13.1001
▁j	-13.1004
▁leverag	-13.1007
▁wrestl	-13.1008
▁Veg	-13.101
TEM	-13.101
▁ac	-13.1013
uba	-13.1022
ini	-13.1033
wing	-13.1035
text	-13.104
put	-13.1043
shot	-13.1043
▁beg	-13.1044
▁beans	-13.1047
▁alarming	-13.1051
▁discour	-13.1053
▁leaning	-13.1056
▁pal	-13.1061
terior	-13.1065
hire	-13.1065
sex	-13.107
▁castle	-13.1071
enture	-13.1072
och	-13.1081
chu	-13.1083
▁Bu	-13.109
▁multipli	-13.1092
▁entr	-13.1094
▁scarc	-13.1094
▁Mill	-13.1095
▁handl	-13.1096
▁bra	-13.1105
▁cub	-13.1106
wall	-13.1108
oil	-13.1109
nergy	-13.1126
▁tele	-13.1131
▁smuggl	-13.1138
last	-13.1145
▁versa	-13.1152
▁Hurricane	-13.1153
▁Katrina	-13.1153
▁amygdala	-13.1153
▁hominid	-13.1153
▁hygien	-13.1153
▁precursor	-13.1153
▁prestig	-13.1153
▁qualify	-13.1153
▁repertoire	-13.1153
▁snail	-13.1153
▁vibrant	-13.1153
▁birch	-13.1153
▁multitask	-13.1153
▁traumatiz	-13.1153
▁nomad	-13.1153
▁Geoff	-13.1153
pirac	-13.1153
▁Millenni	-13.1153
▁PRI	-13.1154
▁reception	-13.1154
▁tuition	-13.1155
hypertensi	-13.1156
▁stance	-13.1159
▁inclin	-13.116
▁shove	-13.1164
▁Bab	-13.117
▁Brain	-13.1173
▁legislat	-13.1173
TC	-13.1181
▁disappoint	-13.1184
▁Beat	-13.1189
▁escalat	-13.1195
▁Challenge	-13.1199
▁fitting	-13.12
wana	-13.1201
▁nourish	-13.1204
▁14-	-13.1215
▁mast	-13.1216
▁Pier	-13.1217
ISA	-13.1218
room	-13.1218
worm	-13.122
case	-13.1221
gon	-13.1222
▁biomedic	-13.1229
aque	-13.1229
skill	-13.1233
low	-13.1238
▁opt	-13.1239
bat	-13.124
lbert	-13.1241
bal	-13.1244
▁125	-13.125
▁Chi	-13.1251
zing	-13.1253
▁empathize	-13.1254
▁warmth	-13.1257
hat	-13.1266
▁chop	-13.1279
▁objection	-13.1282
▁aura	-13.1282
▁Shar	-13.1282
▁hatch	-13.1288
▁elevate	-13.1293
ón	-13.1299
70	-13.13
▁degrade	-13.13
▁imitat	-13.1302
▁Rais	-13.1311
shi	-13.1318
á	-13.1318
▁reflectiv	-13.1325
osphere	-13.1333
▁intentional	-13.1333
▁hoo	-13.1337
▁flick	-13.1337
▁IM	-13.1344
▁Brand	-13.1344
▁DIY	-13.1345
▁Pearl	-13.1345
▁Voyage	-13.1345
▁Wednesday	-13.1345
▁bargain	-13.1345
▁insecticide	-13.1345
▁tectonic	-13.1345
▁sniff	-13.1345
▁Survey	-13.1345
▁Prison	-13.1345
▁Stockh	-13.1345
▁imam	-13.1345
▁handbag	-13.1346
▁audition	-13.1346
▁pollinator	-13.1347
▁Tiger	-13.1347
▁bombard	-13.1347
▁clash	-13.1347
▁Beep	-13.1348
▁degradation	-13.1348
▁brute	-13.1348
▁Coch	-13.1349
▁accelerator	-13.1349
▁summon	-13.1351
ench	-13.1352
▁Leave	-13.1352
▁residential	-13.1354
wash	-13.1355
▁preacher	-13.1356
structure	-13.1361
▁Dai	-13.1362
▁Laur	-13.1363
▁anomal	-13.1364
▁graceful	-13.1364
▁fond	-13.1373
▁agnostic	-13.1374
▁bladder	-13.1378
appy	-13.1379
▁metaphorical	-13.138
▁ser	-13.1382
▁chatt	-13.1383
▁underlie	-13.139
▁pollut	-13.1395
▁Nu	-13.1396
▁Understand	-13.1397
▁automo	-13.1401
ompassion	-13.1403
▁Jaw	-13.1406
mission	-13.1407
▁convergen	-13.1407
load	-13.1407
working	-13.1409
▁compris	-13.1418
▁intentionally	-13.142
urg	-13.142
quarter	-13.1421
▁Pay	-13.1425
▁relational	-13.1432
▁Bett	-13.1433
▁hom	-13.1435
vil	-13.144
▁eradicati	-13.1452
▁Ig	-13.1454
▁Bring	-13.1456
effective	-13.1459
securit	-13.146
▁rhetoric	-13.147
▁plank	-13.1476
gatherer	-13.1486
▁CT	-13.1487
hhh	-13.1499
▁Nag	-13.1499
party	-13.1502
mas	-13.1511
wire	-13.1515
course	-13.1521
nterviewer	-13.1523
▁Mart	-13.1525
unch	-13.1526
▁Strange	-13.1529
▁Met	-13.153
▁inflate	-13.1531
▁ensur	-13.1532
▁dam	-13.1533
▁Marsha	-13.1534
▁84	-13.1538
▁inspect	-13.1538
▁untouch	-13.1539
clusion	-13.154
▁horrifi	-13.154
▁misunderst	-13.1541
▁rhino	-13.1541
▁feasib	-13.1541
▁necessit	-13.1541
ö	-13.1541
▁Essential	-13.1541
▁Pantheon	-13.1541
▁lightbulb	-13.1541
▁plummet	-13.1541
▁practitioner	-13.1541
▁reservoir	-13.1541
▁suspicion	-13.1541
▁yogurt	-13.1541
▁inquiry	-13.1541
▁cherish	-13.1541
▁fission	-13.1541
▁garment	-13.1541
▁offense	-13.1541
▁polish	-13.1541
elusive	-13.1541
▁hull	-13.1541
trude	-13.1541
▁hurry	-13.1541
▁pledge	-13.1541
▁webcam	-13.1541
hran	-13.1541
▁rodent	-13.1541
▁Martian	-13.1541
oul	-13.1541
▁billionaire	-13.1541
▁Point	-13.1542
▁pepper	-13.1542
caust	-13.1542
▁Hanna	-13.1542
▁Engineer	-13.1543
▁adverse	-13.1543
▁activation	-13.1544
▁foolish	-13.1545
▁Oil	-13.1546
▁Farmer	-13.1547
▁nap	-13.1548
awa	-13.1548
▁Cap	-13.1549
▁mutate	-13.155
▁byproduct	-13.1551
▁mimick	-13.1553
▁lous	-13.1554
▁strapp	-13.1554
▁adviser	-13.1559
ologist	-13.1571
▁76	-13.1571
▁ovari	-13.1572
▁soda	-13.1573
▁drawer	-13.1574
▁INC	-13.1585
▁bead	-13.1589
hili	-13.1589
▁replica	-13.1592
▁NO	-13.1597
▁fram	-13.1598
▁shave	-13.1599
lapse	-13.1612
▁plunge	-13.1613
rise	-13.1616
adequate	-13.1616
▁GM	-13.1616
famous	-13.1617
▁sta	-13.1618
▁nudge	-13.1619
icular	-13.1621
▁se	-13.1622
▁Ready	-13.1625
▁intern	-13.163
▁Kind	-13.1631
animate	-13.1632
▁prima	-13.1633
healthy	-13.1637
▁Fla	-13.1641
▁Nic	-13.1644
ois	-13.1647
range	-13.1648
eduction	-13.1648
rock	-13.1661
▁Cor	-13.1679
▁forger	-13.1685
scal	-13.1687
▁foreigner	-13.1693
ker	-13.1695
▁Fa	-13.1696
▁jets	-13.1698
▁fibro	-13.1701
▁devote	-13.1705
▁Burm	-13.1708
▁Sue	-13.171
▁Wo	-13.1712
▁memoriz	-13.1712
matic	-13.1714
sari	-13.1714
▁analytic	-13.1726
chille	-13.1727
▁digitiz	-13.1729
ucky	-13.1731
▁dia	-13.1734
aving	-13.1735
▁59	-13.1738
▁coma	-13.1738
▁savanna	-13.1739
aware	-13.174
▁intellect	-13.1741
▁transgender	-13.1741
▁Asperger	-13.1741
▁Senegal	-13.1741
▁biomolecule	-13.1741
▁crochet	-13.1741
▁exoplanet	-13.1741
▁laureate	-13.1741
▁misconception	-13.1741
▁primordial	-13.1741
▁aspire	-13.1741
▁hijack	-13.1741
▁segregat	-13.1741
▁hydrocarbon	-13.1741
▁messenger	-13.1741
▁verify	-13.1741
▁latitude	-13.1741
▁dominance	-13.1741
▁rumor	-13.1741
▁Brook	-13.1741
▁detach	-13.1741
▁eyebrow	-13.1741
▁clarify	-13.1741
▁centrifuge	-13.1741
▁Giant	-13.1742
▁facade	-13.1742
▁fridge	-13.1742
▁Archi	-13.1742
▁schizophrenic	-13.1742
▁DJ	-13.1744
▁Bern	-13.1745
▁HP	-13.1745
▁repetitive	-13.1747
▁dataset	-13.1747
▁BMW	-13.1749
▁Hawaiian	-13.175
▁Fat	-13.1752
▁deadline	-13.1754
▁pickle	-13.1757
▁humiliat	-13.1762
▁classify	-13.1763
▁Architectur	-13.1768
3,000	-13.1768
▁financially	-13.1768
rat	-13.1769
psychotic	-13.1769
era	-13.1773
▁carbonate	-13.1774
▁allocate	-13.1775
▁Page	-13.1781
▁awaken	-13.1783
PEC	-13.1789
▁saturat	-13.179
▁Kate	-13.1791
▁needles	-13.1797
▁83	-13.1799
▁crisp	-13.1803
▁summ	-13.1803
▁nominate	-13.1804
▁optimist	-13.1812
iv	-13.1812
▁pollinate	-13.1812
▁slid	-13.1818
▁Hu	-13.1819
fifth	-13.1821
digit	-13.1821
▁haul	-13.1822
▁systemic	-13.1827
▁bless	-13.1829
▁cooperat	-13.1831
▁navigat	-13.1832
▁characterize	-13.1836
▁irrigati	-13.1838
rid	-13.1839
▁rott	-13.1843
▁weep	-13.1851
ester	-13.1852
▁coordinat	-13.1859
▁Patric	-13.1861
▁Hero	-13.1864
▁exceeding	-13.1864
▁dye	-13.1868
ury	-13.1873
bacc	-13.1876
▁tease	-13.1876
tric	-13.1886
tune	-13.1889
rill	-13.1894
▁posting	-13.1894
zone	-13.1898
pp	-13.1898
induc	-13.1898
gur	-13.1904
active	-13.1904
itude	-13.1916
▁Mau	-13.1919
emia	-13.1925
▁Westerner	-13.1927
▁Incredible	-13.1931
clean	-13.1931
▁surfing	-13.1935
▁Qatar	-13.1938
hapel	-13.1938
rane	-13.194
▁Phil	-13.1941
enberg	-13.1942
▁enroll	-13.1943
ntelligence	-13.1944
▁LGBT	-13.1945
▁intertwin	-13.1945
▁uplift	-13.1945
▁Darfur	-13.1945
▁Mechanic	-13.1945
▁Progress	-13.1945
▁Traditional	-13.1945
▁arrogan	-13.1945
▁blunt	-13.1945
▁discharge	-13.1945
▁prostitute	-13.1945
▁knob	-13.1945
▁notorious	-13.1945
▁papaya	-13.1945
▁evoke	-13.1945
▁Village	-13.1945
▁gradient	-13.1945
▁enlist	-13.1945
▁bionic	-13.1945
▁crave	-13.1945
▁ATM	-13.1945
▁refresh	-13.1945
saurus	-13.1945
▁tapestr	-13.1945
▁motive	-13.1945
▁rug	-13.1945
▁Picture	-13.1945
▁litter	-13.1946
▁resume	-13.1946
vantage	-13.1946
▁roost	-13.1946
▁ecologist	-13.1946
▁vaccination	-13.1946
▁embody	-13.1946
▁Guardian	-13.1947
▁Grandma	-13.1947
▁devastation	-13.1947
▁excessive	-13.1947
▁buffer	-13.1948
▁cling	-13.1948
▁nitr	-13.1949
▁informant	-13.1949
▁competenc	-13.1953
▁plutocrat	-13.1953
▁tailor	-13.1956
▁surpass	-13.1959
▁hi	-13.1963
▁CB	-13.1964
city	-13.1969
▁soak	-13.1973
▁jack	-13.1983
▁profitabl	-13.1987
▁enhanc	-13.1994
▁semina	-13.1995
gli	-13.2001
▁begging	-13.2014
▁affection	-13.2019
▁Mov	-13.2021
▁diver	-13.2023
key	-13.2027
wandering	-13.2028
organic	-13.2029
seven	-13.203
▁guts	-13.2033
▁penni	-13.2039
brain	-13.204
▁Gla	-13.2045
▁pine	-13.2052
▁den	-13.2065
▁horn	-13.2065
▁stunn	-13.2065
▁thoughtful	-13.207
▁Send	-13.2073
▁mitigate	-13.2074
▁Run	-13.2077
▁TR	-13.2078
▁outsider	-13.2081
▁57	-13.2083
eddy	-13.2083
▁Marx	-13.2085
ogen	-13.2088
▁medal	-13.2089
six	-13.2091
▁shuffle	-13.2092
onald	-13.2096
▁evaporat	-13.2105
▁shortest	-13.2106
teric	-13.2107
▁Fred	-13.2109
▁Tro	-13.211
ulu	-13.2127
▁palli	-13.2129
▁cruise	-13.2131
IMS	-13.2137
▁prince	-13.2138
ascar	-13.2145
▁anthropolog	-13.2149
▁betray	-13.2153
▁colonoscop	-13.2153
▁Innovation	-13.2153
▁Picasso	-13.2153
▁Visual	-13.2153
▁bundle	-13.2153
▁grizzl	-13.2153
▁outweigh	-13.2153
▁seatbelt	-13.2153
▁stubborn	-13.2153
▁terrestrial	-13.2153
▁Disease	-13.2153
▁decipher	-13.2153
▁wilderness	-13.2153
▁cohesi	-13.2153
▁Rosling	-13.2153
▁disclose	-13.2153
▁micron	-13.2153
▁subconscious	-13.2153
▁bolt	-13.2154
▁pediatrician	-13.2154
▁hunch	-13.2154
▁Wild	-13.2154
▁campfire	-13.2154
▁prolong	-13.2154
▁Trans	-13.2154
▁mason	-13.2154
▁nanoscale	-13.2154
▁fluent	-13.2154
▁dragline	-13.2154
▁disturbance	-13.2154
▁unpack	-13.2154
▁mainframe	-13.2155
▁slate	-13.2157
▁orchard	-13.2158
▁supplement	-13.2159
▁Money	-13.216
▁centi	-13.2171
wesome	-13.2173
▁Pain	-13.2173
hell	-13.2176
▁cynical	-13.2176
building	-13.2178
▁Tyle	-13.2179
▁sewer	-13.2182
▁Main	-13.2182
▁UCL	-13.2183
▁weaken	-13.2185
▁pathetic	-13.2191
▁loom	-13.2196
▁para	-13.2198
▁commandment	-13.2199
▁boomer	-13.22
▁fearless	-13.2203
illa	-13.2205
▁Cro	-13.2217
▁Drugs	-13.222
▁validate	-13.2228
▁Birds	-13.2231
consum	-13.2237
▁Sony	-13.2237
design	-13.2241
▁thumbs	-13.2251
▁Safe	-13.2255
▁cha	-13.226
inal	-13.2275
▁mono	-13.2278
▁seeker	-13.2279
▁sued	-13.2281
▁juggl	-13.2283
▁toaster	-13.2287
position	-13.2292
▁complian	-13.2292
▁braver	-13.2293
itting	-13.2294
▁Dar	-13.2298
▁persisten	-13.2299
▁photosynthesi	-13.2305
▁wrinkle	-13.2306
seek	-13.2313
fat	-13.2314
▁spor	-13.2314
jan	-13.2318
▁infer	-13.2324
▁Baha	-13.2337
desirable	-13.2349
▁Midwest	-13.2351
RT	-13.2354
part	-13.2356
▁catalog	-13.2358
▁sq	-13.2358
▁harass	-13.2364
▁advent	-13.2366
▁Aid	-13.2366
^	-13.2366
ahedron	-13.2366
▁Circle	-13.2366
▁Morocc	-13.2366
▁Sputnik	-13.2366
▁Tamiflu	-13.2366
▁Tweet	-13.2366
▁angiogenesis	-13.2366
▁cochlea	-13.2366
▁detergent	-13.2366
▁dyslexi	-13.2366
▁expenditure	-13.2366
▁incision	-13.2366
▁indefinite	-13.2366
▁shrunk	-13.2366
▁Malaysia	-13.2366
▁Question	-13.2366
▁Thursday	-13.2366
▁seductive	-13.2366
▁lemon	-13.2366
▁quark	-13.2366
borough	-13.2366
▁craving	-13.2366
▁biograph	-13.2366
▁Baker	-13.2366
▁geologist	-13.2366
▁mediocr	-13.2366
▁Galax	-13.2367
▁pearl	-13.2367
▁stir	-13.2367
▁influenza	-13.2367
▁Potter	-13.2367
▁philanthropist	-13.2367
▁heartbeat	-13.2367
▁foreground	-13.2367
▁landfill	-13.2368
▁cough	-13.2368
▁alienat	-13.2368
▁potter	-13.237
▁signing	-13.2371
▁speculation	-13.2371
▁spam	-13.2372
▁pest	-13.2372
▁disagreement	-13.2372
▁editorial	-13.2372
▁thou	-13.2373
▁fairy	-13.2373
▁fet	-13.2374
▁Robot	-13.2377
▁extraction	-13.2378
▁browse	-13.238
aggression	-13.238
▁compulsive	-13.2381
▁commute	-13.2384
rry	-13.239
▁fisherm	-13.239
▁relat	-13.2393
▁Personal	-13.2404
Thousands	-13.2405
▁fundamentalism	-13.2406
uri	-13.241
horn	-13.2412
▁Leo	-13.2412
▁poisoning	-13.2417
▁Compare	-13.242
HO	-13.2421
▁jamm	-13.2425
▁Fish	-13.2431
▁investigati	-13.2431
▁pollinati	-13.2432
▁Jur	-13.2435
▁propulsi	-13.2439
▁dim	-13.2446
spora	-13.2449
▁Fourth	-13.2449
▁supreme	-13.2453
▁Fo	-13.2455
computer	-13.2459
focus	-13.2459
species	-13.2459
ire	-13.246
uga	-13.2461
▁Rebe	-13.2463
▁flowering	-13.2466
ars	-13.2473
▁doodle	-13.2476
▁subtract	-13.248
roid	-13.2484
▁Eye	-13.2488
▁Sho	-13.2489
▁kidnapp	-13.249
tting	-13.2491
viv	-13.2493
gate	-13.2508
▁bitch	-13.2509
ike	-13.251
bao	-13.2521
▁regenerati	-13.2528
▁Mid	-13.2528
tability	-13.2534
▁Ash	-13.2536
▁sober	-13.2538
▁Jud	-13.2552
▁Pakistani	-13.2552
▁Swee	-13.2554
▁UV	-13.2557
DL	-13.2561
pac	-13.2561
▁tur	-13.2564
gged	-13.2575
▁vascular	-13.258
▁intersect	-13.2582
ilence	-13.2582
▁Laptop	-13.2583
▁atrocit	-13.2583
▁clitoris	-13.2583
▁fountain	-13.2583
▁inequit	-13.2583
▁neutron	-13.2583
▁oblivio	-13.2583
▁portfolio	-13.2583
▁privatiz	-13.2583
▁puzzling	-13.2583
▁questionnaire	-13.2583
▁scoop	-13.2583
▁troubling	-13.2583
▁cumulative	-13.2583
▁diffusion	-13.2583
▁carcass	-13.2583
▁hippie	-13.2584
▁moisture	-13.2584
▁twentysomething	-13.2584
▁cursor	-13.2584
▁flare	-13.2584
▁Paper	-13.2584
▁pillow	-13.2584
▁stink	-13.2584
▁mailbox	-13.2584
▁superconductor	-13.2584
▁cortic	-13.2584
▁rehearsal	-13.2585
▁droplet	-13.2585
▁geolog	-13.2585
ickr	-13.2585
▁megacit	-13.2586
▁Morgan	-13.2586
▁Honey	-13.2587
▁aisle	-13.2587
▁slash	-13.2588
▁pois	-13.2588
guel	-13.259
▁Airbnb	-13.259
▁outlier	-13.2591
▁vase	-13.2592
▁frie	-13.2592
▁Grant	-13.2592
▁gateway	-13.2592
▁ponder	-13.2593
▁ador	-13.2593
▁Mello	-13.2596
▁dull	-13.2597
▁pat	-13.2598
▁squeez	-13.26
▁110	-13.26
▁Neil	-13.2604
▁Portland	-13.2604
culus	-13.2606
▁temperat	-13.261
▁6.	-13.2613
umi	-13.2616
▁mist	-13.2616
▁momm	-13.2618
▁Johannes	-13.2618
▁92	-13.262
ancy	-13.262
plan	-13.262
▁Bil	-13.2622
▁artificially	-13.2624
▁rub	-13.2625
▁Plant	-13.2626
▁77	-13.2628
assem	-13.2636
ction	-13.2639
actic	-13.2644
▁synthesiz	-13.2648
▁advancement	-13.2649
▁CP	-13.2649
▁Cod	-13.2651
br	-13.2655
▁stewards	-13.2658
▁invisib	-13.266
▁widen	-13.2669
AL	-13.2675
track	-13.2681
conflict	-13.2681
machine	-13.2681
help	-13.2681
process	-13.2682
▁Juan	-13.2682
▁preced	-13.2683
sexual	-13.2683
▁massage	-13.2683
▁eel	-13.2688
bla	-13.2692
▁murderer	-13.2696
▁therapeutic	-13.2697
400	-13.2699
CA	-13.2703
ional	-13.2706
▁fabricate	-13.2706
iffe	-13.2714
▁plantation	-13.2722
hot	-13.2729
▁swell	-13.273
stick	-13.2731
list	-13.2736
eight	-13.2739
ngue	-13.274
spen	-13.2746
▁peaks	-13.2747
data	-13.2748
▁Eco	-13.2749
▁grit	-13.2749
▁Working	-13.2754
▁ineffective	-13.2757
ify	-13.2766
ena	-13.2768
▁irre	-13.2785
▁albe	-13.2786
▁desperat	-13.2786
▁hood	-13.279
▁outfit	-13.2792
▁collaps	-13.2794
▁whistl	-13.2794
▁71	-13.2803
ummy	-13.2804
▁Buffet	-13.2806
▁Enlighten	-13.2806
▁Photoshop	-13.2806
▁definitive	-13.2806
▁encompass	-13.2806
▁leisure	-13.2806
▁mangrove	-13.2806
▁pajama	-13.2806
▁reassure	-13.2806
▁salad	-13.2806
▁semester	-13.2806
▁introspecti	-13.2806
▁husk	-13.2806
▁sushi	-13.2806
▁gloom	-13.2806
▁paleontologist	-13.2806
▁diaper	-13.2806
▁Barbie	-13.2806
▁foam	-13.2806
▁Oscar	-13.2806
▁misunderstand	-13.2806
▁marsh	-13.2806
▁internship	-13.2806
▁synonymous	-13.2806
▁furious	-13.2806
▁spreadsheet	-13.2806
▁beaver	-13.2806
▁horrify	-13.2806
▁cobra	-13.2806
▁magnify	-13.2806
▁Easy	-13.2807
▁detain	-13.2807
▁Check	-13.2808
▁outdoors	-13.2809
▁vici	-13.2811
litude	-13.2815
▁Creative	-13.2815
▁batch	-13.2816
▁101	-13.2817
▁lip	-13.2819
DG	-13.282
agne	-13.2827
▁predictabl	-13.2828
HE	-13.2829
▁AV	-13.2831
▁digitize	-13.2833
▁Serge	-13.2835
ving	-13.284
ahoo	-13.2846
▁hump	-13.2849
▁plea	-13.285
fell	-13.2858
▁impo	-13.2859
▁millennial	-13.2859
▁altar	-13.2859
▁cancel	-13.2869
▁coloniz	-13.2869
▁Plu	-13.287
▁suite	-13.2872
▁avenue	-13.2875
▁flex	-13.2879
▁Clau	-13.289
12	-13.2893
AM	-13.2893
traumatic	-13.2908
billion	-13.2909
▁bearing	-13.2913
▁collid	-13.2915
growth	-13.2919
▁Hand	-13.2919
▁Move	-13.2919
▁emulate	-13.2921
▁categorize	-13.2927
▁energ	-13.2927
▁Kit	-13.2928
▁digesti	-13.2928
atic	-13.2931
▁vanish	-13.2941
▁Close	-13.2945
mega	-13.2946
▁auction	-13.2946
▁SAR	-13.295
performance	-13.2953
▁interdependen	-13.2956
▁defi	-13.2965
pont	-13.2968
SM	-13.2976
centered	-13.2981
▁reverberat	-13.2986
▁Read	-13.2988
riff	-13.2989
▁internalize	-13.2994
▁mul	-13.3007
▁displace	-13.301
los	-13.3013
▁rod	-13.3016
ara	-13.3021
maker	-13.3021
▁slap	-13.3023
▁choreograph	-13.3025
▁170	-13.3027
▁dysfunction	-13.3028
▁Cultural	-13.3033
▁administrator	-13.3033
▁contempt	-13.3033
▁disastrous	-13.3033
▁embodiment	-13.3033
▁hummingbird	-13.3033
▁paraphras	-13.3033
▁reptile	-13.3033
▁Chernobyl	-13.3033
▁dementia	-13.3033
▁persecut	-13.3033
▁Soldier	-13.3033
▁churn	-13.3033
▁imbalance	-13.3033
▁niche	-13.3033
▁quantify	-13.3033
▁stakeholder	-13.3033
▁maze	-13.3033
▁dissent	-13.3033
▁multicultural	-13.3033
azeera	-13.3033
▁pluck	-13.3033
▁Ryan	-13.3033
▁milestone	-13.3034
▁imitation	-13.3035
ode	-13.3035
▁grappl	-13.3035
▁1800	-13.3035
▁Sixty	-13.3036
▁Wide	-13.3036
▁dreadful	-13.3036
▁coil	-13.3036
▁perpetual	-13.3036
▁underpin	-13.3036
▁purse	-13.3038
▁700,000	-13.3042
▁repressi	-13.3045
▁Walker	-13.3045
▁twentie	-13.3046
Me	-13.3047
tical	-13.3047
▁updat	-13.3047
▁TD	-13.3048
í	-13.3049
▁Ball	-13.305
▁Oz	-13.3051
▁bot	-13.3051
▁sling	-13.3052
▁stark	-13.3055
▁Ag	-13.306
▁groom	-13.3061
▁fearful	-13.3065
▁withdraw	-13.3065
eautiful	-13.3068
▁directive	-13.3071
▁relocat	-13.3075
▁IDE	-13.3075
▁Rain	-13.3079
▁Mob	-13.3081
turn	-13.3082
▁miniaturiz	-13.3082
▁puppy	-13.3082
▁dec	-13.3086
▁inward	-13.3087
▁knitt	-13.3088
▁raft	-13.3093
▁magn	-13.3095
▁67	-13.3097
▁wav	-13.3097
▁Verm	-13.31
▁faithful	-13.3102
▁unify	-13.3108
▁Loca	-13.3113
▁disbelie	-13.3118
▁irregular	-13.3118
MG	-13.3119
environmentalist	-13.312
▁en	-13.312
ardo	-13.3121
grown	-13.3127
▁lineage	-13.313
urance	-13.3138
plankt	-13.3139
▁Bel	-13.314
skirt	-13.314
▁multiplicati	-13.3141
blood	-13.3141
different	-13.3141
▁mite	-13.3163
pher	-13.3166
▁cascade	-13.3181
▁congress	-13.3185
▁dogma	-13.3187
▁charm	-13.3189
▁Sit	-13.3189
▁prescrib	-13.3197
ith	-13.3197
▁Ib	-13.3209
▁88	-13.3209
izard	-13.3209
itis	-13.3211
▁algorithmic	-13.3215
lec	-13.3222
adi	-13.3223
▁innocen	-13.3237
▁Scr	-13.3246
boy	-13.3248
iff	-13.3249
▁wasp	-13.3249
▁Shake	-13.3253
▁Stand	-13.3255
▁flags	-13.3257
▁comprehensi	-13.3257
sota	-13.3257
▁Hai	-13.3258
▁approve	-13.3259
▁Dol	-13.326
▁undo	-13.326
▁moth	-13.3263
▁wrestle	-13.3263
▁robb	-13.3264
▁champ	-13.3264
▁Effect	-13.3265
clamation	-13.3265
▁Nikola	-13.3266
▁intermediar	-13.3266
urora	-13.3266
▁EEG	-13.3266
▁Nevada	-13.3266
▁ceramic	-13.3266
▁fatigue	-13.3266
▁gecko	-13.3266
▁handcuff	-13.3266
▁immoral	-13.3266
▁kettle	-13.3266
▁rupee	-13.3266
▁semantic	-13.3266
▁spectacle	-13.3266
▁windmill	-13.3266
▁Believe	-13.3266
▁embryonic	-13.3266
▁prehistor	-13.3266
▁rude	-13.3266
▁artisan	-13.3266
▁desalinat	-13.3266
▁venom	-13.3266
▁Simpson	-13.3266
▁microorganism	-13.3266
▁acronym	-13.3266
▁telecom	-13.3266
▁Parent	-13.3266
▁hail	-13.3266
▁Negro	-13.3266
▁motel	-13.3266
▁bumblebee	-13.3266
▁penny	-13.3266
▁sequester	-13.3267
▁Bloom	-13.3267
▁Diet	-13.3267
▁harassment	-13.3267
▁stalk	-13.3268
▁neurosurgeon	-13.3268
▁replicator	-13.3268
▁Cruz	-13.3268
▁cramm	-13.3268
▁typeface	-13.3269
▁NP	-13.3269
▁tidy	-13.327
▁broc	-13.327
▁comparative	-13.327
▁credi	-13.327
▁prosthes	-13.327
▁infinit	-13.3271
▁sunny	-13.3272
▁Clean	-13.3274
▁anatomical	-13.3275
▁Twin	-13.328
▁resourceful	-13.328
▁Poor	-13.3281
▁carcinogen	-13.3282
▁Joan	-13.3283
▁9,000	-13.3284
del	-13.3285
▁spoil	-13.3285
▁encrypti	-13.3285
▁ignite	-13.3288
▁sweater	-13.3288
▁Parad	-13.329
▁testify	-13.3292
▁stretche	-13.3294
▁speculat	-13.3296
▁PH	-13.3296
▁fist	-13.3297
▁premi	-13.3298
▁hyperactiv	-13.3299
▁flux	-13.33
▁forage	-13.3304
erty	-13.3305
▁Mao	-13.3306
▁Box	-13.3308
▁eso	-13.331
▁Gre	-13.3317
ali	-13.3318
pr	-13.3319
▁ID	-13.3323
verish	-13.3331
▁tinie	-13.3338
▁nurser	-13.3343
▁Rif	-13.3344
▁Pur	-13.3352
▁deepen	-13.3359
BA	-13.3377
munition	-13.3377
rim	-13.3378
▁tires	-13.3382
DC	-13.3383
phone	-13.3385
▁cam	-13.3396
▁battl	-13.3399
mite	-13.3414
▁Shad	-13.3414
▁phy	-13.3418
dam	-13.3436
▁advised	-13.344
zz	-13.3445
pur	-13.3464
raham	-13.3464
▁financ	-13.3465
▁KS	-13.347
▁BP	-13.347
▁secre	-13.3471
▁Architect	-13.3472
▁Hal	-13.3473
tica	-13.3474
▁lid	-13.3481
▁Cla	-13.3481
▁Zambia	-13.3483
▁nutritio	-13.3483
ett	-13.3492
▁standardize	-13.3493
▁ecsta	-13.3495
▁evaluat	-13.3496
LA	-13.3496
▁Doc	-13.3497
eaving	-13.3499
▁transcript	-13.3502
▁dissect	-13.3502
▁imperfect	-13.3502
▁erupt	-13.3502
▁conform	-13.3502
nitiative	-13.3503
ficial	-13.3503
▁Secret	-13.3503
percussion	-13.3504
▁Exxon	-13.3504
▁Maslow	-13.3504
▁Orchestra	-13.3504
▁aerodynamic	-13.3504
▁circus	-13.3504
▁embass	-13.3504
▁hydrant	-13.3504
▁protagonist	-13.3504
▁tremor	-13.3504
▁hologram	-13.3504
▁striving	-13.3504
▁testosterone	-13.3504
▁Barbara	-13.3504
▁estrogen	-13.3504
▁Study	-13.3504
▁monopol	-13.3504
▁benchmark	-13.3504
▁Blood	-13.3504
▁bookstore	-13.3504
▁frugal	-13.3504
▁decisive	-13.3504
▁Chair	-13.3504
▁mourn	-13.3504
▁cyclist	-13.3504
read	-13.3504
▁SDR	-13.3504
▁Rush	-13.3504
▁exaggeration	-13.3505
▁scripture	-13.3505
▁sculptor	-13.3506
▁fax	-13.3506
▁obsessive	-13.3506
feld	-13.3506
▁archaeologist	-13.3506
▁stent	-13.3506
▁demons	-13.3507
▁impairment	-13.3507
▁residual	-13.3511
lix	-13.3514
▁culminat	-13.3515
▁188	-13.3516
▁bagg	-13.3517
▁grandma	-13.352
▁tire	-13.3523
▁patriot	-13.3523
▁Pick	-13.3525
▁offender	-13.3525
▁packing	-13.3527
▁Planet	-13.3527
▁Cole	-13.3528
▁hostage	-13.3531
▁powerless	-13.3536
▁61	-13.3538
▁Creat	-13.3539
▁Rich	-13.3544
▁ranch	-13.3547
▁worthless	-13.355
▁malignan	-13.3552
▁neon	-13.3553
▁biopsy	-13.3555
▁withstand	-13.3555
▁splash	-13.3558
▁memo	-13.3564
▁vaccinat	-13.3572
▁overfish	-13.3572
▁volt	-13.3572
▁biodegrad	-13.3577
▁incorrect	-13.3578
▁dorm	-13.358
sanitary	-13.3581
▁Sab	-13.359
▁holder	-13.3591
▁stockpile	-13.3591
▁swin	-13.3593
die	-13.3594
▁piss	-13.3597
▁interdependenc	-13.3601
▁RG	-13.3617
▁barre	-13.362
▁Bir	-13.3623
▁ingest	-13.3626
▁metro	-13.3627
60	-13.363
berry	-13.3631
▁dealer	-13.3641
▁gangs	-13.3645
▁Chen	-13.3647
▁Friends	-13.3649
order	-13.3652
ache	-13.3658
▁Dance	-13.366
ku	-13.3663
▁jo	-13.3668
▁Bull	-13.3669
ference	-13.3669
▁Bach	-13.3674
span	-13.3677
elf	-13.3682
▁advertise	-13.3682
bul	-13.3683
▁commentar	-13.3684
▁reframe	-13.3687
flection	-13.369
▁Barn	-13.3697
burg	-13.3698
▁Elv	-13.3706
▁Evolution	-13.3707
▁rob	-13.3717
▁kits	-13.3725
gue	-13.373
▁Conservati	-13.3736
▁qua	-13.3739
▁advise	-13.3741
▁peripher	-13.3742
▁slam	-13.3744
▁Babylon	-13.3747
▁flour	-13.3747
▁duct	-13.3748
▁enact	-13.3748
▁Choir	-13.3748
▁Hispanic	-13.3748
▁adrenalin	-13.3748
▁autobiograph	-13.3748
▁caution	-13.3748
▁clerk	-13.3748
▁coconut	-13.3748
▁comprehend	-13.3748
▁lexicon	-13.3748
▁pluripotent	-13.3748
▁provocative	-13.3748
▁repositor	-13.3748
▁scissor	-13.3748
▁sophistication	-13.3748
▁squish	-13.3748
▁staple	-13.3748
▁thirst	-13.3748
▁treadmill	-13.3748
▁Faiza	-13.3748
▁Tal	-13.3748
▁phthalate	-13.3748
▁relay	-13.3748
▁phantom	-13.3748
▁antiretroviral	-13.3748
▁cowboy	-13.3748
▁pragmatic	-13.3748
▁Horse	-13.3748
▁crease	-13.3748
▁detriment	-13.3748
▁owl	-13.3748
▁endemic	-13.3748
▁qualitative	-13.3748
▁craftsman	-13.3748
▁Meet	-13.3748
▁Cool	-13.3748
▁shutter	-13.3748
▁PET	-13.3749
▁Ahmed	-13.3749
▁Saul	-13.3749
atomic	-13.375
▁Orwell	-13.375
▁soundscape	-13.375
▁1.6	-13.3751
▁nanometers	-13.3751
▁Place	-13.3751
▁Litera	-13.3752
▁kitten	-13.3752
▁Seventy	-13.3753
▁crest	-13.3755
▁regeneration	-13.3757
▁silo	-13.3757
▁robber	-13.3757
▁Gwe	-13.3758
▁Always	-13.3759
▁abyss	-13.376
▁Justin	-13.376
▁screwed	-13.3761
▁arthriti	-13.3762
▁cele	-13.3762
▁Holland	-13.3763
▁Carlo	-13.3764
▁heated	-13.3765
▁Jose	-13.3765
▁carb	-13.3766
▁carriage	-13.3767
▁coward	-13.3769
▁Environmental	-13.3774
theism	-13.3775
▁daunting	-13.3777
▁inappropriate	-13.3778
dale	-13.3783
▁violate	-13.3786
▁canoe	-13.3786
▁enslav	-13.3792
▁Romo	-13.3794
▁inflat	-13.3799
vatar	-13.3799
ALL	-13.3804
▁mot	-13.3806
▁runway	-13.3812
▁outline	-13.3812
trophy	-13.3816
▁reunite	-13.3817
omi	-13.3821
▁wove	-13.3821
▁Tech	-13.3825
▁warhead	-13.3827
cular	-13.3836
▁originate	-13.3837
▁dadd	-13.3839
▁SM	-13.384
▁glance	-13.3841
imi	-13.3843
▁speculate	-13.3845
▁Hyper	-13.3848
▁Gues	-13.3848
▁intra	-13.3857
▁dresse	-13.3863
▁Mai	-13.387
carbon	-13.3873
first	-13.3873
▁persuad	-13.3877
Man	-13.3881
▁cellulos	-13.3882
glasse	-13.3882
je	-13.3884
▁attain	-13.3886
▁je	-13.3898
▁funder	-13.3909
ano	-13.3911
▁bake	-13.3912
ington	-13.3912
▁Gand	-13.3914
▁photographic	-13.3917
▁bon	-13.3923
▁TS	-13.3924
▁Lis	-13.3926
cat	-13.3929
PL	-13.3932
▁si	-13.3932
▁gyr	-13.3932
▁loyal	-13.3933
▁80-	-13.3936
▁tense	-13.3937
▁Citi	-13.3947
raising	-13.3949
post	-13.3959
▁Independent	-13.3959
hma	-13.3961
▁Bare	-13.3965
▁advoca	-13.3966
orium	-13.3967
fill	-13.3968
▁elegan	-13.3969
▁Environment	-13.397
▁curled	-13.3974
▁deform	-13.3978
▁innovat	-13.3981
▁cru	-13.3985
▁Doug	-13.3989
ient	-13.3989
lash	-13.3993
▁Writ	-13.3994
▁Develop	-13.3996
▁Glenn	-13.3998
▁Mongolia	-13.3998
▁Papua	-13.3998
▁Sustainab	-13.3998
▁amputee	-13.3998
▁blossom	-13.3998
▁calligraph	-13.3998
▁holographic	-13.3998
▁inadvertent	-13.3998
▁inferior	-13.3998
▁mound	-13.3998
▁pendulum	-13.3998
▁prophec	-13.3998
▁repetition	-13.3998
▁rifle	-13.3998
▁squirrel	-13.3998
▁teapot	-13.3998
▁smack	-13.3998
▁Different	-13.3998
▁Schwarz	-13.3998
▁snack	-13.3998
▁immunize	-13.3998
▁occurrence	-13.3998
▁Gehr	-13.3998
▁Harbor	-13.3998
▁Nash	-13.3998
▁radiologist	-13.3998
▁stitch	-13.3998
▁toothbrush	-13.3998
▁ankle	-13.3998
▁Anthon	-13.3998
▁plow	-13.3998
▁unravel	-13.3998
▁lease	-13.3998
▁Whistl	-13.3998
▁paycheck	-13.3998
▁euro	-13.3998
▁rebound	-13.3998
▁Hyde	-13.3999
▁UNI	-13.3999
▁crippl	-13.4
▁actress	-13.4
▁clan	-13.4001
▁Typical	-13.4002
▁impatient	-13.4002
▁thickness	-13.4005
▁annihilat	-13.4005
▁laparoscopic	-13.4006
▁Jarre	-13.4008
nal	-13.4009
▁Barry	-13.401
▁curate	-13.4011
▁tenure	-13.4011
▁hawk	-13.4012
▁Leader	-13.4013
▁knit	-13.4014
▁megawatt	-13.4015
▁hugg	-13.4017
▁moist	-13.4017
▁Pitt	-13.4017
▁delightful	-13.4018
NT	-13.4018
▁sights	-13.4023
▁accountant	-13.4023
▁Mahmo	-13.4023
▁Search	-13.4025
▁char	-13.4028
▁Kath	-13.4028
▁Cause	-13.4029
▁menstruati	-13.4032
▁generalization	-13.4034
▁pharmac	-13.4035
▁fisc	-13.4037
▁breasts	-13.4045
▁utilize	-13.4048
utum	-13.4052
▁bac	-13.4053
bule	-13.4055
Vision	-13.4056
▁sway	-13.4057
yard	-13.4058
yana	-13.4062
▁bureaucratic	-13.4062
▁SA	-13.4075
▁resurrecti	-13.4087
▁Trump	-13.4088
▁AO	-13.4089
atal	-13.4091
produc	-13.4092
▁Rap	-13.4095
▁Rwandan	-13.4098
fidel	-13.4099
▁transmitter	-13.4102
▁Grey	-13.4105
▁Worldchanging	-13.4106
acco	-13.4118
keep	-13.4121
▁Rub	-13.4121
leg	-13.4125
▁nut	-13.4129
voice	-13.413
HD	-13.4131
▁Mor	-13.4132
row	-13.4137
acre	-13.414
RS	-13.4147
▁Homer	-13.4148
▁alley	-13.4165
▁Reed	-13.4167
▁Aren	-13.4171
▁redempti	-13.4172
lace	-13.4177
▁offset	-13.418
▁conjure	-13.4184
▁responder	-13.4184
▁ripe	-13.4185
pin	-13.4191
▁Mass	-13.4194
usse	-13.4195
PA	-13.4196
zi	-13.4196
▁Bra	-13.4197
abul	-13.4208
▁reshape	-13.4219
▁gym	-13.4228
▁orient	-13.4231
drop	-13.4242
osa	-13.4243
▁Spec	-13.4247
▁manic	-13.425
▁Dragon	-13.4252
entagon	-13.4254
▁skyrocket	-13.4254
▁Curiosit	-13.4254
▁Dimitr	-13.4254
▁Hopkin	-13.4254
▁Kurzweil	-13.4254
▁Monkey	-13.4254
▁NIH	-13.4254
▁Neuman	-13.4254
▁adhesive	-13.4254
▁antidote	-13.4254
▁daydream	-13.4254
▁hashtag	-13.4254
▁hyena	-13.4254
▁latrine	-13.4254
▁neutrino	-13.4254
▁rhyme	-13.4254
▁sprout	-13.4254
▁leuk	-13.4254
▁pupil	-13.4254
▁Electric	-13.4254
▁napkin	-13.4254
▁joking	-13.4254
▁trench	-13.4254
▁contingen	-13.4254
▁precedent	-13.4254
▁mistrust	-13.4254
▁Crime	-13.4254
▁pul	-13.4254
▁bleach	-13.4255
▁crunch	-13.4255
▁Ranger	-13.4255
▁doorstep	-13.4255
▁Bryan	-13.4255
▁sanction	-13.4255
▁pacemaker	-13.4256
▁Fuller	-13.4257
▁coerci	-13.4257
▁examination	-13.4257
▁pigmentation	-13.4257
SDA	-13.4258
▁Bonne	-13.4258
▁landmine	-13.4258
▁Coach	-13.4259
pped	-13.4259
▁Team	-13.426
▁firework	-13.4261
▁decoration	-13.4261
▁Poem	-13.4263
▁Gal	-13.4264
▁seedling	-13.4265
▁medicinal	-13.4266
▁attendant	-13.4266
▁blackboard	-13.4266
▁tangle	-13.4266
▁statistician	-13.4268
▁Woo	-13.4269
▁Needles	-13.4271
▁turbulent	-13.4272
▁Animal	-13.4273
▁dissection	-13.4274
▁converge	-13.4275
▁inflict	-13.4275
▁petal	-13.4277
▁contaminate	-13.4284
▁indulge	-13.4286
▁measurabl	-13.4287
▁divert	-13.4291
▁defy	-13.4292
frost	-13.4294
thic	-13.4297
▁altruistic	-13.4297
▁torch	-13.4297
jev	-13.4301
▁Gut	-13.4302
▁exaggerat	-13.4303
▁absent	-13.4304
▁Rem	-13.4309
▁lick	-13.4312
eff	-13.4314
▁99.9	-13.4318
▁189	-13.4319
mat	-13.432
▁dock	-13.4322
▁Uru	-13.4328
▁nutritional	-13.433
▁highland	-13.4335
▁undermin	-13.434
▁hay	-13.4342
luck	-13.4342
spiring	-13.4346
▁disguise	-13.4347
▁spac	-13.435
▁dice	-13.4352
ertie	-13.4358
mour	-13.4359
▁ridicule	-13.436
▁amber	-13.4369
▁Mine	-13.4371
connected	-13.4388
invasive	-13.4391
anzi	-13.4392
conventional	-13.4393
birth	-13.4393
▁dune	-13.4393
AC	-13.4395
tooth	-13.4396
industrial	-13.4398
haired	-13.44
▁fantas	-13.4404
score	-13.4405
▁Pian	-13.4409
letter	-13.4411
pour	-13.4415
▁clicked	-13.4419
▁celebrit	-13.4423
eller	-13.4423
itra	-13.4426
▁Build	-13.443
▁thro	-13.443
▁Von	-13.4432
spar	-13.4442
ites	-13.4442
▁experimenter	-13.4443
▁exercis	-13.4446
▁LA	-13.4448
Cash	-13.4448
▁Clap	-13.4451
▁Bur	-13.446
balone	-13.4464
▁Drum	-13.4465
▁increment	-13.4466
▁fo	-13.4469
▁scor	-13.4471
▁rider	-13.4473
▁psychotherap	-13.4473
▁illuminate	-13.4473
▁Russ	-13.448
▁enforc	-13.4483
▁Math	-13.4485
▁symbio	-13.4494
▁Lanka	-13.4496
▁Meli	-13.4497
phy	-13.45
15	-13.4502
literate	-13.4503
▁recorder	-13.4506
▁reverb	-13.4507
anger	-13.4507
▁swam	-13.4509
▁Researcher	-13.4516
▁resembl	-13.4517
neurotransmitter	-13.4517
▁Announcer	-13.4517
▁Mozambi	-13.4517
▁cadaver	-13.4517
▁clutter	-13.4517
▁cyborg	-13.4517
▁facilitator	-13.4517
▁résumé	-13.4517
▁salamander	-13.4517
▁snippet	-13.4517
▁synagogue	-13.4517
▁tadpole	-13.4517
▁thirty	-13.4517
▁binocular	-13.4517
▁cymatic	-13.4517
▁denounce	-13.4517
▁monolith	-13.4517
▁Excellen	-13.4517
▁DDT	-13.4517
▁proactive	-13.4517
▁sensual	-13.4517
▁leaflet	-13.4517
▁vertebrate	-13.4517
▁hardwir	-13.4518
▁caption	-13.4518
▁Chang	-13.4518
▁proliferation	-13.4518
▁Feel	-13.4518
▁perimeter	-13.4518
▁haircut	-13.4518
▁modulate	-13.4518
▁blindfold	-13.4518
▁crane	-13.4518
▁imperfection	-13.4519
rque	-13.4519
▁wizard	-13.4519
▁elevation	-13.452
▁flatter	-13.452
▁pavement	-13.452
▁accumulation	-13.4521
▁teammate	-13.4522
▁advisor	-13.4523
▁scarf	-13.4523
▁Beside	-13.4524
▁McL	-13.4526
▁invert	-13.4526
▁raid	-13.4526
▁hyperbolic	-13.4529
▁sack	-13.453
▁deplet	-13.453
netary	-13.453
▁sailor	-13.4531
▁Want	-13.4533
rried	-13.4534
▁colonize	-13.4535
Agnes	-13.4535
lois	-13.4536
▁herb	-13.4539
▁SC	-13.454
▁Mona	-13.4541
▁volatile	-13.4542
▁Bina	-13.4544
▁upstream	-13.4547
▁rewrite	-13.4547
▁incompatib	-13.4549
▁tradeoff	-13.455
▁Fr	-13.4555
▁applica	-13.4556
▁spectra	-13.4557
violent	-13.4563
chan	-13.4565
▁Nano	-13.4568
bus	-13.457
▁immerse	-13.457
▁pok	-13.4572
AT	-13.4575
▁swimmer	-13.4577
escent	-13.4581
▁CG	-13.4585
▁yearning	-13.4586
▁Malt	-13.4588
▁Pic	-13.459
▁wholly	-13.4591
▁Row	-13.4596
▁gravel	-13.4596
▁seller	-13.4597
ush	-13.46
▁Dian	-13.4614
ock	-13.4615
▁Clay	-13.462
▁z	-13.4621
getting	-13.4621
▁prim	-13.4631
rop	-13.4634
▁Mont	-13.4641
▁needless	-13.4644
enabl	-13.4648
▁Matter	-13.4655
▁moms	-13.4655
mail	-13.4656
dah	-13.4657
condition	-13.4663
definition	-13.4663
▁Rocke	-13.4668
▁rot	-13.4669
▁stripe	-13.467
-20	-13.4672
held	-13.4674
rahim	-13.4676
coat	-13.4676
saver	-13.4678
mah	-13.4681
▁decod	-13.4684
▁inference	-13.4687
▁lust	-13.4687
▁rust	-13.4691
atory	-13.4693
▁rearrange	-13.4693
▁Made	-13.4696
▁peacekeep	-13.4698
base	-13.4699
ob	-13.4705
▁shav	-13.4714
▁whiske	-13.4716
hik	-13.4719
▁Raise	-13.4728
rudi	-13.4729
▁wealthie	-13.4734
▁bo	-13.4749
▁scrutin	-13.4759
▁TM	-13.4759
▁ignit	-13.4762
▁malari	-13.4762
▁technologically	-13.4765
ception	-13.477
▁dries	-13.4786
▁acro	-13.4787
uza	-13.4787
▁spear	-13.4787
▁Victor	-13.4787
▁clutch	-13.4787
▁Dubai	-13.4787
▁Elephant	-13.4787
▁Ferguson	-13.4787
▁Pandora	-13.4787
▁breeze	-13.4787
▁burglar	-13.4787
▁cassette	-13.4787
▁conceivabl	-13.4787
▁delegation	-13.4787
▁drastic	-13.4787
▁escort	-13.4787
▁monaster	-13.4787
▁nephew	-13.4787
▁precaution	-13.4787
▁probation	-13.4787
▁saint	-13.4787
▁soybean	-13.4787
▁succumb	-13.4787
▁Gabriel	-13.4787
▁litigation	-13.4787
▁palpabl	-13.4787
▁sabbatical	-13.4787
▁interpersonal	-13.4787
▁sledge	-13.4787
▁hysterical	-13.4787
▁crook	-13.4787
▁reservation	-13.4788
▁Stroma	-13.4788
▁Minne	-13.4788
▁banjo	-13.4788
▁clunk	-13.4788
▁Sky	-13.4788
▁guru	-13.4788
▁Quant	-13.4788
▁amputation	-13.4788
▁chant	-13.4788
▁airbag	-13.4788
▁boardroom	-13.4788
▁dexter	-13.4788
▁fringe	-13.4789
▁tractor	-13.4789
▁replay	-13.4789
▁Wind	-13.4789
▁Poet	-13.4789
▁Weather	-13.4789
▁Fifth	-13.4789
vor	-13.479
▁Robotic	-13.479
▁Emba	-13.479
▁skydiv	-13.4791
▁Kerr	-13.4791
▁Isabel	-13.4791
▁dividend	-13.4791
▁Enter	-13.4791
▁investigator	-13.4792
▁aquari	-13.4792
assic	-13.4792
▁peripheral	-13.4793
▁devour	-13.4794
▁poacher	-13.4796
▁Commandment	-13.4798
▁Nar	-13.4801
razy	-13.4801
▁bugg	-13.4802
elling	-13.4803
▁librarian	-13.4804
▁dro	-13.4807
▁judg	-13.4809
▁Train	-13.4809
▁bid	-13.481
▁Pet	-13.4813
▁Race	-13.4814
▁granddaughter	-13.4817
▁sane	-13.4819
▁hardship	-13.482
▁graft	-13.482
mira	-13.4821
.8	-13.4821
▁usher	-13.4821
▁wasteful	-13.4823
▁porch	-13.4823
nu	-13.4824
▁Market	-13.4825
▁175	-13.4825
uf	-13.4829
▁reliev	-13.4829
▁contraction	-13.4831
▁McCa	-13.4832
▁vend	-13.4833
master	-13.4845
▁downward	-13.485
▁TB	-13.4854
▁revers	-13.4854
▁recreat	-13.4855
▁spik	-13.4859
▁Shir	-13.4861
ui	-13.4865
▁fossilize	-13.4866
▁beneficiar	-13.4873
▁200-	-13.4873
▁Flo	-13.4873
▁clicks	-13.4875
▁termite	-13.4883
▁LE	-13.4898
▁kidnapping	-13.4899
▁pu	-13.4902
▁qui	-13.4904
heard	-13.4909
▁folder	-13.4912
▁Que	-13.4919
▁Mada	-13.4927
▁plasticity	-13.4933
▁goose	-13.4934
▁margin	-13.4937
them	-13.4939
▁pollinat	-13.4939
blown	-13.494
▁ACE	-13.494
credit	-13.4941
threaten	-13.4941
vory	-13.4942
Day	-13.4942
mouth	-13.4943
tain	-13.4955
▁glu	-13.496
beat	-13.4966
ggy	-13.4967
winning	-13.4984
▁relieve	-13.4987
▁eu	-13.4993
spiration	-13.4996
▁Gee	-13.5001
ellar	-13.5003
▁stumble	-13.5009
▁captiv	-13.5018
▁centraliz	-13.5021
City	-13.5024
teau	-13.5029
station	-13.5033
▁trainer	-13.5043
OL	-13.5043
▁Algeria	-13.5044
▁unknow	-13.5046
glo	-13.5046
ilia	-13.5049
▁Merc	-13.5055
▁rebuil	-13.5056
▁chemo	-13.5058
▁73	-13.5059
mentary	-13.5062
burn	-13.5064
ccasional	-13.5065
▁patron	-13.5065
▁Advanc	-13.5065
▁Bueno	-13.5065
▁Increasing	-13.5065
▁Studio	-13.5065
▁adversar	-13.5065
▁biblical	-13.5065
▁emerald	-13.5065
▁orthopedic	-13.5065
▁steroid	-13.5065
▁truffle	-13.5065
▁umbrella	-13.5065
▁uncommon	-13.5065
▁unwilling	-13.5065
▁downhill	-13.5065
▁discount	-13.5065
▁Buzz	-13.5065
▁disclosure	-13.5065
▁stutter	-13.5065
▁Trek	-13.5065
▁floss	-13.5065
▁Fuku	-13.5065
▁sequel	-13.5065
▁seduce	-13.5065
▁tornado	-13.5065
njunction	-13.5065
▁interval	-13.5066
▁safeguard	-13.5066
▁Kamen	-13.5068
▁1,800	-13.5068
▁carving	-13.5068
ermaid	-13.5068
▁bailout	-13.5068
▁fer	-13.5068
minent	-13.5068
shalt	-13.5069
▁landmark	-13.5069
▁distortion	-13.507
mun	-13.507
▁RO	-13.5072
▁fulfillment	-13.5072
▁humanoid	-13.5073
▁Genome	-13.5076
legged	-13.5077
unge	-13.5077
▁EB	-13.5078
▁geneticist	-13.5079
▁24,000	-13.508
▁Extreme	-13.508
▁hustle	-13.508
▁mammalian	-13.5081
▁apprentice	-13.5085
ote	-13.5086
▁anarch	-13.5086
▁Doro	-13.5087
▁Pack	-13.5087
uma	-13.509
▁autopsy	-13.5091
EC	-13.5091
▁permeate	-13.5091
▁endorse	-13.5092
▁aero	-13.5097
▁oas	-13.5098
erkat	-13.51
▁Belt	-13.5104
▁Kam	-13.5108
▁Butler	-13.511
▁advis	-13.5116
▁Masa	-13.5119
ema	-13.512
▁Bart	-13.5136
istence	-13.5141
▁clam	-13.5142
▁3.5	-13.5142
▁Dog	-13.5156
eck	-13.5164
quo	-13.5168
80	-13.5174
▁procrastinat	-13.5176
pu	-13.5178
▁62	-13.5181
▁plausibl	-13.5181
▁heavier	-13.5191
▁inert	-13.5195
▁Marco	-13.5196
▁gardener	-13.5204
▁Patients	-13.5206
▁Vot	-13.5207
▁trader	-13.5212
▁Peer	-13.5213
nine	-13.5214
disciplinar	-13.5216
itzer	-13.5217
rana	-13.5218
▁mon	-13.5219
▁inertia	-13.5221
▁kn	-13.5221
ifying	-13.5222
▁Sala	-13.5223
bling	-13.5225
record	-13.5227
▁exchang	-13.5229
▁conserv	-13.523
▁foresee	-13.5231
wind	-13.5231
erra	-13.524
ander	-13.5245
replicating	-13.5247
▁mug	-13.5251
▁sip	-13.526
organization	-13.5261
▁Clo	-13.5267
▁Robin	-13.5268
oko	-13.5273
rgh	-13.5277
oli	-13.5281
▁tickle	-13.5291
loop	-13.5292
▁Organ	-13.5293
▁exaggerate	-13.5295
▁Bird	-13.5295
▁dic	-13.5298
▁EC	-13.5299
GM	-13.53
▁miniatur	-13.5306
▁abus	-13.5312
▁hype	-13.5312
rado	-13.5315
▁outperform	-13.5318
reek	-13.5319
▁ox	-13.5327
▁fr	-13.5328
▁circulate	-13.533
▁Ethiopian	-13.5333
▁anonym	-13.5338
▁aqua	-13.5338
death	-13.5339
▁proxim	-13.5343
▁Explor	-13.5344
▁persuasi	-13.5345
▁plumb	-13.5348
▁Hind	-13.5349
▁implicat	-13.5349
▁registr	-13.5349
▁Roug	-13.535
Bits	-13.535
▁Liquid	-13.5351
cautious	-13.5351
▁LOLcat	-13.5351
▁alleviate	-13.5351
▁brochure	-13.5351
▁dazzl	-13.5351
▁deceptive	-13.5351
▁minaret	-13.5351
▁nozzle	-13.5351
▁nugget	-13.5351
▁reckon	-13.5351
▁substrate	-13.5351
▁terabyte	-13.5351
▁vigorous	-13.5351
▁Bacteria	-13.5351
▁Generation	-13.5351
▁Angola	-13.5351
▁Quran	-13.5351
rrogate	-13.5351
▁seaweed	-13.5351
▁imprint	-13.5351
▁mismatch	-13.5351
▁cricket	-13.5351
▁pavilion	-13.5351
▁memoir	-13.5351
▁dashboard	-13.5351
▁cartograph	-13.5351
▁homeowner	-13.5351
▁fragrance	-13.5351
▁dash	-13.5352
▁chainsaw	-13.5352
▁interconnection	-13.5352
▁mountaintop	-13.5352
▁psychic	-13.5352
▁shoreline	-13.5352
arbaric	-13.5352
▁Champ	-13.5352
▁almond	-13.5352
▁ginger	-13.5352
▁chole	-13.5352
▁equate	-13.5352
▁eruption	-13.5353
▁pinch	-13.5353
▁Blair	-13.5353
▁displacement	-13.5353
▁submission	-13.5353
▁Heather	-13.5356
▁remak	-13.5356
▁Communication	-13.5356
▁cartel	-13.5357
▁Explorer	-13.5357
▁confinement	-13.5357
▁UC	-13.536
▁communicator	-13.536
▁ambien	-13.5361
pack	-13.5361
ndi	-13.5362
terol	-13.5363
▁Grove	-13.5363
▁geographically	-13.5364
▁eloquent	-13.5364
▁buffalo	-13.5365
▁Artist	-13.5365
▁chin	-13.5366
▁valu	-13.5367
▁Non	-13.5368
▁Tel	-13.5368
▁Yemeni	-13.5368
▁spur	-13.5368
▁utiliz	-13.5371
▁Brigade	-13.5371
▁transducer	-13.5371
▁astrolabe	-13.5371
▁smuggler	-13.5373
▁Tele	-13.5374
▁accusation	-13.5375
▁Week	-13.5376
▁manta	-13.5377
▁blended	-13.5377
▁grazing	-13.5379
▁monumental	-13.5382
electrifie	-13.5383
▁transcendent	-13.5384
▁sue	-13.5384
▁unchang	-13.5386
NES	-13.5386
▁sacrific	-13.539
rbie	-13.5393
▁antique	-13.5395
▁analyst	-13.5395
▁Stac	-13.5398
▁glaci	-13.5399
▁Tunisian	-13.5399
▁shooter	-13.5401
▁Edu	-13.5403
▁Lib	-13.5403
▁tenaci	-13.5405
USB	-13.5408
▁gripp	-13.5408
▁lymph	-13.5412
▁shredd	-13.5416
hou	-13.5418
▁limitless	-13.5419
IPP	-13.542
mont	-13.542
▁Kar	-13.5424
cker	-13.5425
▁levitat	-13.5426
▁Ren	-13.5427
▁Harrie	-13.5428
▁Git	-13.5432
▁excavat	-13.5433
▁Alto	-13.5433
cam	-13.5435
▁fu	-13.5438
▁Om	-13.5438
bara	-13.5444
▁ascend	-13.5444
▁pastor	-13.5444
▁Low	-13.5452
▁Era	-13.5454
▁AS	-13.5455
▁restless	-13.5455
eating	-13.5458
▁democratize	-13.5461
▁arch	-13.5465
ssex	-13.5473
▁Roll	-13.5475
nman	-13.5478
quin	-13.548
aries	-13.5482
▁Opera	-13.5486
ntu	-13.5489
surfing	-13.549
▁gig	-13.5493
▁63	-13.5493
cycle	-13.5495
▁punctuat	-13.5497
dad	-13.5501
▁interpla	-13.5503
▁siz	-13.5504
inister	-13.5506
▁missionar	-13.551
natural	-13.5519
virus	-13.5519
▁ple	-13.5519
▁overestimate	-13.552
convenient	-13.552
MRI	-13.552
visual	-13.5521
green	-13.5521
discover	-13.5521
capable	-13.5523
hem	-13.5524
▁robe	-13.5526
▁Sto	-13.5531
▁plung	-13.5537
▁tract	-13.5542
▁Holm	-13.5545
▁Ran	-13.5549
▁deteriorat	-13.5552
▁Drug	-13.5553
hai	-13.5558
iz	-13.5563
▁teen	-13.5576
ozo	-13.5579
▁perfume	-13.5581
chai	-13.5588
catch	-13.5594
cutter	-13.5599
eastern	-13.5602
▁Bond	-13.5604
▁Leg	-13.5605
▁gifted	-13.5612
▁Bage	-13.5615
conscious	-13.5617
▁Gamb	-13.562
▁localize	-13.5621
lux	-13.5624
▁simplifie	-13.5632
▁badge	-13.5635
tree	-13.5636
▁greener	-13.5637
▁Equal	-13.5639
zu	-13.564
ymphon	-13.564
▁tacti	-13.5644
▁modalit	-13.5645
▁multimedia	-13.5645
▁Halloween	-13.5645
▁clump	-13.5645
▁cradle	-13.5645
▁elicit	-13.5645
Baghdad	-13.5645
▁Critic	-13.5645
▁Frankenstein	-13.5645
▁Instagram	-13.5645
▁Occupy	-13.5645
▁Pepsi	-13.5645
▁Plastic	-13.5645
▁Sleep	-13.5645
▁feast	-13.5645
▁grenade	-13.5645
▁hospice	-13.5645
▁kilowatt	-13.5645
▁paintbrush	-13.5645
▁reminisc	-13.5645
▁remorse	-13.5645
▁shaft	-13.5645
▁windshield	-13.5645
▁heterosexual	-13.5645
▁attentive	-13.5645
▁eternit	-13.5645
▁marrie	-13.5645
▁Hiroshima	-13.5645
▁libertarian	-13.5645
▁forensic	-13.5645
▁streak	-13.5645
▁caterpillar	-13.5645
▁entrenche	-13.5645
▁verifi	-13.5645
▁Blind	-13.5645
▁taxonom	-13.5645
▁Diamond	-13.5645
▁orchid	-13.5645
▁fifty	-13.5645
▁grandmaster	-13.5645
▁noninvasive	-13.5646
▁beacon	-13.5646
▁Erik	-13.5646
finance	-13.5646
▁whack	-13.5646
▁ivory	-13.5646
▁Shack	-13.5646
▁evolutionarily	-13.5646
▁unsafe	-13.5646
▁graze	-13.5647
zhen	-13.5647
▁strawberr	-13.5649
▁synerg	-13.5649
▁Infinit	-13.5649
▁Twa	-13.5649
▁tan	-13.565
▁persuasion	-13.5651
▁assay	-13.5653
▁sincere	-13.5655
▁thorn	-13.5657
▁consol	-13.5657
▁beheading	-13.5658
ural	-13.5659
YU	-13.5659
▁setback	-13.5661
▁Biospher	-13.5662
▁funk	-13.5663
▁surfer	-13.5666
▁Cous	-13.5667
▁paradoxical	-13.567
▁retailer	-13.567
▁breathtaking	-13.5671
▁torment	-13.5677
▁wag	-13.5678
▁Madam	-13.5678
▁synthesizer	-13.5679
▁Invest	-13.5682
▁partisan	-13.5685
▁archetype	-13.5687
planetary	-13.5687
static	-13.5692
zed	-13.5695
▁Ashle	-13.5696
▁lapse	-13.57
▁RD	-13.5701
▁ST	-13.5713
▁sorrow	-13.5714
▁outstanding	-13.5718
▁Vivi	-13.5724
▁Egg	-13.5724
▁goof	-13.5724
uitar	-13.573
▁Lan	-13.573
▁Naj	-13.5731
▁discriminate	-13.5732
▁ze	-13.5734
▁Highway	-13.5736
▁discourag	-13.574
▁tactical	-13.5741
▁villager	-13.5742
ugg	-13.5743
29	-13.5755
western	-13.5756
▁vitr	-13.5757
▁exo	-13.5758
▁tracker	-13.5758
▁Ang	-13.576
▁solu	-13.5765
aka	-13.5766
▁oppose	-13.5766
▁magnifi	-13.5768
walk	-13.577
▁rex	-13.5771
enesis	-13.5774
▁Eat	-13.5776
▁matur	-13.5778
▁Runn	-13.5781
▁laborer	-13.5784
morph	-13.5793
rail	-13.5793
significant	-13.5797
roa	-13.5799
▁illustrat	-13.58
technology	-13.5806
▁Sonn	-13.5807
Ex	-13.5812
▁coating	-13.5813
▁fertilize	-13.5814
▁Jami	-13.5816
through	-13.5823
distance	-13.5824
ocean	-13.5824
spot	-13.5825
task	-13.5829
▁Cra	-13.5839
shima	-13.5841
good	-13.5841
▁Gu	-13.5846
▁urg	-13.5852
▁quota	-13.5859
▁Hands	-13.5862
▁mos	-13.5866
MA	-13.5867
▁tug	-13.5869
ulate	-13.5873
▁Kai	-13.5876
pan	-13.5883
owing	-13.589
want	-13.5893
▁Multi	-13.5894
▁barber	-13.5897
▁Fun	-13.5897
RC	-13.5897
leton	-13.5901
harmonic	-13.5902
spectr	-13.5904
doc	-13.5905
cene	-13.5905
bbing	-13.5907
lese	-13.591
▁Lowe	-13.5918
rut	-13.5919
▁marketer	-13.5924
kar	-13.5927
misphere	-13.5929
▁Mathematica	-13.593
▁trawl	-13.5935
▁amplifie	-13.5935
▁glide	-13.5936
▁neurologic	-13.5937
▁dressing	-13.5938
▁contemplate	-13.5941
▁Cur	-13.5941
iable	-13.5943
▁propel	-13.5943
▁extrapolate	-13.5946
ketch	-13.5947
▁legitima	-13.5948
▁constituenc	-13.5948
▁obituar	-13.5948
▁Affair	-13.5948
▁Balkan	-13.5948
▁Buckminster	-13.5948
▁Embrac	-13.5948
▁Future	-13.5948
▁Glacier	-13.5948
▁Urban	-13.5948
▁boycott	-13.5948
▁chirp	-13.5948
▁commemorat	-13.5948
▁debilitat	-13.5948
▁ghetto	-13.5948
▁gospel	-13.5948
▁jumble	-13.5948
▁misinterpret	-13.5948
▁pellet	-13.5948
▁pelvi	-13.5948
▁reassuring	-13.5948
▁wretche	-13.5948
▁sliver	-13.5948
▁utilitarian	-13.5948
▁wanna	-13.5948
▁unicorn	-13.5948
▁enclosure	-13.5948
▁engulf	-13.5948
▁cliche	-13.5948
▁probiotic	-13.5948
▁pilgrimage	-13.5948
▁approximation	-13.5948
▁paw	-13.5948
▁ballast	-13.5948
▁nann	-13.5948
▁Morning	-13.5948
▁gloss	-13.5948
▁compartment	-13.5948
hotom	-13.5948
▁Mandar	-13.5948
▁flashlight	-13.5948
▁quirk	-13.5948
▁agitat	-13.5948
▁recap	-13.5949
▁cosmologist	-13.5949
▁unchar	-13.5949
▁typewriter	-13.5949
▁Speed	-13.5949
▁Spino	-13.5949
▁opium	-13.5949
▁exoskeleton	-13.5949
states	-13.5949
▁apprais	-13.595
▁spotlight	-13.595
▁villain	-13.595
▁stigmatiz	-13.595
▁revisit	-13.595
▁paddle	-13.595
▁shareholder	-13.5951
▁deput	-13.5951
▁spoofer	-13.5952
▁suffocat	-13.5953
▁rack	-13.5954
▁octave	-13.5955
▁presumption	-13.5955
▁debat	-13.5956
▁Michelle	-13.5956
▁Ja	-13.5957
▁1850	-13.5959
monar	-13.5961
path	-13.5961
▁avert	-13.5961
▁reel	-13.5961
▁gigawatt	-13.5962
▁nostalgi	-13.5962
▁Noise	-13.5966
▁Valentin	-13.5966
▁Burk	-13.5968
▁filmmak	-13.5969
▁reciprocal	-13.5969
▁recurren	-13.5969
▁eject	-13.597
nta	-13.597
▁whipp	-13.5971
▁Manch	-13.5971
▁biochemistr	-13.5972
▁Tak	-13.5972
▁swapp	-13.5972
▁Senator	-13.5972
vich	-13.5974
▁quarti	-13.5975
▁demoraliz	-13.5977
▁bombed	-13.5979
▁Blak	-13.5983
▁specialization	-13.5987
▁butcher	-13.5987
▁encoder	-13.5988
▁Sandr	-13.5989
▁phi	-13.5992
ature	-13.5993
▁dumm	-13.5995
▁leftover	-13.5995
▁homeland	-13.5999
▁dangl	-13.5999
NH	-13.6
▁Judi	-13.6002
otto	-13.6004
▁glaze	-13.6007
▁Words	-13.6009
▁Terr	-13.601
▁Bam	-13.601
▁compost	-13.6011
▁CL	-13.6014
deal	-13.6014
▁circl	-13.6019
variabl	-13.6019
▁linger	-13.602
meaning	-13.6021
▁BR	-13.6023
▁Kite	-13.6023
▁Rocket	-13.6027
▁str	-13.6034
anthrop	-13.6044
▁SH	-13.6048
custom	-13.6049
▁bushe	-13.6055
▁revolutioniz	-13.6057
▁referral	-13.6062
assemble	-13.6062
▁Marl	-13.6064
▁sampl	-13.6069
hearted	-13.607
value	-13.6071
▁chok	-13.6072
▁bubbl	-13.6076
change	-13.6082
▁Fran	-13.6087
▁Hour	-13.6091
lima	-13.6096
▁revive	-13.6097
confiden	-13.6099
▁Zu	-13.6107
▁tumbl	-13.6113
▁barbecue	-13.6114
rade	-13.6119
layer	-13.612
glass	-13.6122
▁Mik	-13.6127
▁tub	-13.6128
haul	-13.6135
▁deconstruct	-13.6136
implant	-13.6136
prepared	-13.6136
normal	-13.6136
publish	-13.6136
▁institutionaliz	-13.6137
balance	-13.6138
feed	-13.6143
▁Happi	-13.6149
▁calve	-13.6149
▁replie	-13.6152
La	-13.6157
▁utilit	-13.6166
EA	-13.617
tah	-13.6173
.6	-13.6177
plain	-13.6178
▁crowdsourc	-13.6182
▁Mag	-13.6186
flu	-13.619
ndra	-13.6196
▁Ley	-13.6197
ffer	-13.6203
▁astrophysic	-13.6205
▁altruist	-13.6208
▁60-	-13.621
▁spher	-13.6213
abi	-13.6213
▁pollute	-13.6216
▁romanticiz	-13.6218
▁Por	-13.622
SI	-13.6221
▁presume	-13.623
realistic	-13.623
untu	-13.6231
▁ventilati	-13.6235
wave	-13.6236
▁harden	-13.6237
▁Fold	-13.6238
▁instruct	-13.624
▁Somali	-13.6246
▁Lion	-13.6246
fast	-13.6248
▁reprogram	-13.625
edible	-13.6251
▁prohibition	-13.6255
chk	-13.6256
▁sanct	-13.6257
▁acu	-13.6258
▁affirm	-13.6259
ampaign	-13.6259
▁Contra	-13.626
ü	-13.626
▁circum	-13.626
▁prolif	-13.626
▁Agricultur	-13.6261
▁Cameroon	-13.6261
▁Double	-13.6261
▁PDF	-13.6261
▁congregation	-13.6261
▁filth	-13.6261
▁lurk	-13.6261
▁narrator	-13.6261
▁pianist	-13.6261
▁pinnacle	-13.6261
▁prairie	-13.6261
▁puddle	-13.6261
▁ruthless	-13.6261
▁terrace	-13.6261
▁dismay	-13.6261
▁aristocra	-13.6261
▁humpback	-13.6261
▁sift	-13.6261
▁allud	-13.6261
▁resent	-13.6261
▁hallmark	-13.6261
▁misinform	-13.6261
▁expir	-13.6261
▁futil	-13.6261
▁Patent	-13.6261
▁Kiva	-13.6261
▁fanatic	-13.6261
▁frail	-13.6261
▁Stux	-13.6261
▁savage	-13.6261
▁fluke	-13.6262
▁waitress	-13.6262
▁eyeball	-13.6262
▁harp	-13.6262
▁epoch	-13.6262
▁depletion	-13.6262
▁Natali	-13.6263
▁arrowhead	-13.6263
▁cocoon	-13.6264
▁sitcom	-13.6265
▁firefighter	-13.6266
▁Hunter	-13.6266
▁spru	-13.6266
▁empti	-13.6269
▁betrayal	-13.6269
▁orb	-13.6269
▁trance	-13.6269
▁Connect	-13.6273
▁snapp	-13.6273
▁Ern	-13.6273
▁Colon	-13.6274
▁Hang	-13.6275
▁Fine	-13.6275
▁hierarchical	-13.6275
overty	-13.6276
▁Maurit	-13.6277
▁Inuit	-13.6278
▁flora	-13.6283
▁revert	-13.6285
▁cavit	-13.6287
▁Raja	-13.6287
▁restraint	-13.6287
▁commuter	-13.6287
alph	-13.6288
▁Must	-13.6289
▁Billi	-13.629
▁slug	-13.629
▁reuni	-13.6291
marin	-13.6296
▁Ubu	-13.6297
▁DE	-13.6298
▁Rican	-13.6299
▁naught	-13.6301
nguish	-13.6301
▁Hamp	-13.6302
late	-13.6304
▁Burn	-13.6308
▁broaden	-13.6308
▁salv	-13.6309
▁eagle	-13.631
▁dent	-13.6312
uction	-13.6312
▁Hur	-13.6318
▁narcissist	-13.6319
▁commonalit	-13.6319
▁Libyan	-13.6319
▁roaring	-13.6324
▁banal	-13.6327
▁Stick	-13.6328
gg	-13.6332
SE	-13.6336
polis	-13.6337
▁patche	-13.6337
▁waterway	-13.6349
▁viewers	-13.6358
▁Sela	-13.636
unity	-13.6374
ille	-13.6374
Family	-13.6379
▁una	-13.6379
▁recycler	-13.6383
▁dimm	-13.6388
▁fable	-13.6394
dling	-13.6398
vant	-13.6399
▁customiz	-13.6404
raba	-13.6407
max	-13.6414
▁aggregat	-13.6416
usie	-13.6418
▁Ol	-13.6426
▁munition	-13.6429
▁marginal	-13.6432
▁understate	-13.6434
▁Clar	-13.6436
▁Thor	-13.644
infect	-13.6444
▁converse	-13.645
boat	-13.6452
▁truthful	-13.6454
▁starve	-13.6455
avail	-13.6456
▁compile	-13.6459
important	-13.6459
click	-13.6459
tzman	-13.646
ige	-13.6465
▁quotation	-13.6467
▁copulat	-13.647
▁philanthropic	-13.6472
▁typograph	-13.6477
▁spat	-13.6479
athan	-13.6481
▁shorten	-13.6483
shore	-13.6485
▁Fift	-13.6487
logy	-13.6488
▁Palm	-13.649
inson	-13.6492
communica	-13.6492
suit	-13.6494
exist	-13.6507
IN	-13.6508
▁lov	-13.6509
▁Won	-13.6521
cock	-13.6524
ifi	-13.6524
▁compensate	-13.6528
pecific	-13.6533
▁Cent	-13.6543
wry	-13.6546
under	-13.6547
▁slim	-13.6549
bend	-13.6552
▁Word	-13.6553
▁fleeting	-13.6566
▁reacti	-13.6568
▁dire	-13.657
hmer	-13.6574
akash	-13.6575
▁aspirin	-13.6576
▁Male	-13.6578
rilliant	-13.6581
▁exert	-13.6582
▁advert	-13.6582
▁recess	-13.6582
SG	-13.6582
iki	-13.6583
▁Target	-13.6583
▁coincide	-13.6583
▁sectarian	-13.6583
▁Cornell	-13.6583
▁Culture	-13.6583
▁Kickstarter	-13.6583
▁brittle	-13.6583
▁catheter	-13.6583
▁colossal	-13.6583
▁complacen	-13.6583
▁constituent	-13.6583
▁critique	-13.6583
▁delicac	-13.6583
▁dissident	-13.6583
▁frivolous	-13.6583
▁kiosk	-13.6583
▁logarithm	-13.6583
▁ominous	-13.6583
▁pedagog	-13.6583
▁quartz	-13.6583
▁rudder	-13.6583
▁sausage	-13.6583
▁twitch	-13.6583
▁Match	-13.6583
▁unconditional	-13.6583
▁abduct	-13.6583
▁lobster	-13.6583
▁archaic	-13.6583
▁demolish	-13.6583
▁obedien	-13.6583
▁underdog	-13.6583
▁vault	-13.6583
▁Adult	-13.6583
▁ministr	-13.6583
▁mitochondria	-13.6583
rexit	-13.6583
▁brigade	-13.6583
▁salut	-13.6583
▁Nino	-13.6583
▁Cut	-13.6583
▁Resist	-13.6583
▁cobble	-13.6584
▁suspension	-13.6584
▁jit	-13.6584
▁ballroom	-13.6584
▁clogg	-13.6584
▁peck	-13.6584
▁swoop	-13.6585
▁Owen	-13.6585
▁suburbia	-13.6585
▁bride	-13.6585
▁guardian	-13.6585
▁fox	-13.6585
▁inspector	-13.6585
▁ferment	-13.6585
▁crayon	-13.6585
RES	-13.6585
▁Capit	-13.6585
▁Goul	-13.6586
▁topograph	-13.6586
▁submerge	-13.6586
▁747	-13.6587
izzy	-13.6587
▁ballistic	-13.6587
ops	-13.6587
▁Hippocrat	-13.6587
▁Gross	-13.6588
▁Wang	-13.6589
▁Flight	-13.6589
▁headset	-13.659
▁quadran	-13.6591
▁echoe	-13.6591
▁Honor	-13.6591
▁Wint	-13.6593
▁Ham	-13.6595
efront	-13.6598
readnought	-13.6599
▁orthodox	-13.66
▁overlapp	-13.6601
▁Mathematic	-13.6601
▁warden	-13.6601
▁discretion	-13.6602
▁Allow	-13.6606
▁depiction	-13.6606
▁marking	-13.6609
▁Imagin	-13.6609
▁Mali	-13.6612
uous	-13.6613
▁pals	-13.6615
zen	-13.6615
▁successive	-13.6615
▁Rag	-13.662
▁Malari	-13.662
▁Farm	-13.662
▁wiggle	-13.6625
▁diner	-13.6625
curable	-13.6625
▁fork	-13.6626
▁bik	-13.6627
▁cog	-13.6627
▁jig	-13.6629
▁predictor	-13.6631
▁decoupl	-13.6634
▁appalling	-13.6634
tification	-13.6645
mir	-13.665
▁juic	-13.6652
nuck	-13.6655
▁rhythmic	-13.6656
ET	-13.6656
▁skier	-13.6657
safe	-13.6657
cap	-13.6661
▁insufficient	-13.6664
▁thermostat	-13.6669
▁metastas	-13.667
PO	-13.6676
igible	-13.6677
SW	-13.668
uda	-13.6684
▁mania	-13.6685
▁decorati	-13.6686
▁crumbl	-13.6687
▁79	-13.6688
▁logistical	-13.6689
icha	-13.6689
▁teeny	-13.669
▁74	-13.6696
holder	-13.6697
ryl	-13.6699
▁Fra	-13.6701
▁faction	-13.6705
▁calv	-13.6707
▁ub	-13.6708
ollock	-13.6719
▁Biolog	-13.6721
tick	-13.6722
strand	-13.6728
gro	-13.6732
omic	-13.6741
ample	-13.6742
▁curva	-13.6742
▁Tra	-13.6743
dict	-13.6753
▁Hart	-13.6755
▁Mobil	-13.6762
itz	-13.6762
▁underestimat	-13.6764
▁compromis	-13.6767
▁Kh	-13.6767
ega	-13.6769
plat	-13.6769
bridge	-13.6773
▁momentous	-13.6776
▁commun	-13.6779
pool	-13.6789
frame	-13.679
▁Magn	-13.6791
square	-13.6792
rset	-13.68
▁pissed	-13.6801
offend	-13.6804
▁shad	-13.6806
nowledge	-13.6807
▁Hat	-13.6808
umber	-13.6808
▁retract	-13.6812
iation	-13.6812
creat	-13.6812
▁vaccinate	-13.6816
aux	-13.6822
ometer	-13.6824
▁Gas	-13.6829
review	-13.6836
[...]
