<unk>	0
<s>	0
</s>	0
<pad>	0
s	-3.11789
▁,	-3.13859
▁the	-3.21642
▁.	-3.33704
;	-3.68359
▁&	-3.70349
▁of	-3.83442
▁a	-3.97226
▁and	-4.0038
ed	-4.01811
▁to	-4.02956
▁in	-4.27329
quot	-4.34404
▁	-4.44659
apos	-4.45998
ing	-4.60732
y	-4.65368
▁that	-4.66851
▁is	-4.7532
▁I	-5.0088
ly	-5.05392
▁it	-5.13686
▁was	-5.19818
▁The	-5.26529
▁for	-5.3359
▁with	-5.34253
▁on	-5.34571
▁you	-5.38606
▁we	-5.44188
▁are	-5.53756
▁be	-5.57946
▁this	-5.58165
(	-5.58989
▁as	-5.59477
▁)	-5.6008
d	-5.65108
▁by	-5.67925
t	-5.7427
▁And	-5.75605
▁have	-5.79892
-	-5.84143
▁from	-5.8448
▁at	-5.9552
e	-5.95819
▁an	-5.99701
▁or	-6.01624
▁can	-6.03722
▁not	-6.04672
n	-6.11483
▁which	-6.20581
▁—	-6.21779
▁were	-6.21814
▁one	-6.25336
▁In	-6.26298
▁about	-6.27455
▁but	-6.30904
▁all	-6.31596
▁:	-6.3375
▁what	-6.34106
▁his	-6.36333
▁us	-6.36598
▁It	-6.38893
▁So	-6.39469
▁he	-6.40695
▁had	-6.41205
ies	-6.41544
▁?	-6.41757
re	-6.44917
▁has	-6.46129
▁their	-6.46343
▁there	-6.50313
▁people	-6.5359
▁like	-6.53621
▁do	-6.55748
r	-6.55875
▁so	-6.57325
▁more	-6.57967
▁other	-6.5906
▁my	-6.59455
▁A	-6.6068
lso	-6.61604
▁who	-6.67076
es	-6.67489
▁some	-6.67584
▁these	-6.6852
▁when	-6.69982
▁up	-6.73676
▁would	-6.74037
m	-6.74746
▁out	-6.75922
▁our	-6.79311
▁time	-6.79484
▁if	-6.79937
▁first	-6.80949
been	-6.81354
▁into	-6.81828
▁them	-6.81952
▁Thi	-6.82297
▁just	-6.82946
▁see	-6.84495
▁We	-6.86347
very	-6.8774
▁because	-6.89904
▁But	-6.90735
▁me	-6.93636
▁two	-6.95466
▁most	-6.96227
▁how	-6.96792
▁than	-6.98291
▁know	-7.01771
ve	-7.04072
▁years	-7.04349
l	-7.04387
a	-7.05005
▁where	-7.05442
▁world	-7.07181
▁going	-7.098
▁could	-7.11085
er	-7.12299
▁over	-7.12652
▁then	-7.14147
▁your	-7.14161
▁get	-7.14871
▁will	-7.14958
▁think	-7.15195
▁call	-7.16616
▁He	-7.17255
▁no	-7.17373
▁t	-7.17463
▁look	-7.17571
▁want	-7.19491
▁many	-7.19874
▁use	-7.20114
▁work	-7.20225
▁B	-7.23248
▁did	-7.24137
▁now	-7.24777
al	-7.2491
in	-7.25025
▁really	-7.25303
▁such	-7.25612
▁way	-7.26409
▁its	-7.26919
▁new	-7.26979
▁may	-7.28689
▁every	-7.28826
▁go	-7.29979
▁through	-7.3065
hose	-7.31797
on	-7.31883
▁make	-7.32677
▁take	-7.35894
▁any	-7.36104
▁part	-7.36336
▁after	-7.37627
▁here	-7.37768
▁Laughte	-7.38134
▁start	-7.38416
▁You	-7.40478
ctually	-7.41021
▁much	-7.41066
▁need	-7.41543
▁her	-7.42519
ity	-7.45455
1	-7.46322
▁said	-7.46721
▁don	-7.46856
▁between	-7.47153
▁number	-7.48394
▁;	-7.4842
▁e	-7.49765
▁being	-7.4984
th	-7.50685
▁things	-7.50933
▁right	-7.51083
▁even	-7.51934
▁Now	-7.52191
▁him	-7.53298
▁back	-7.53366
▁made	-7.53567
▁different	-7.53975
▁life	-7.53995
▁same	-7.55566
▁say	-7.5581
▁three	-7.57097
▁well	-7.57661
▁change	-7.581
▁around	-7.58653
▁she	-7.58786
▁form	-7.59051
o	-7.59387
▁There	-7.59743
▁201	-7.61739
ever	-7.62611
▁come	-7.63392
–	-7.64525
▁C	-7.64546
▁something	-7.6471
ion	-7.65195
ce	-7.66742
▁year	-7.68184
▁little	-7.68458
▁system	-7.68648
▁found	-7.69277
ic	-7.70432
▁kind	-7.71535
▁place	-7.71646
5	-7.72392
▁great	-7.72767
▁example	-7.73183
day	-7.74421
▁200	-7.75348
▁show	-7.75386
▁does	-7.76188
self	-7.76484
▁thing	-7.77
▁got	-7.77075
us	-7.77176
▁own	-7.77305
4	-7.77525
2	-7.78026
▁mean	-7.78623
▁That	-7.79077
▁lot	-7.79782
each	-7.79955
▁human	-7.80105
▁end	-7.80136
▁play	-7.80223
▁How	-7.80686
▁includ	-7.8151
out	-7.8177
▁down	-7.82005
3	-7.82101
▁before	-7.82455
▁good	-7.82689
nother	-7.82994
▁problem	-7.83141
▁under	-7.8334
9	-7.84513
▁talk	-7.84685
▁dur	-7.85457
▁day	-7.85955
7	-7.87118
▁group	-7.87746
▁What	-7.87855
▁idea	-7.87872
.	-7.87954
▁known	-7.8844
▁large	-7.88677
ll	-7.88947
%	-7.89571
▁name	-7.89862
▁point	-7.90269
le	-7.90326
▁both	-7.90543
▁later	-7.92022
ther	-7.9326
▁If	-7.93632
▁while	-7.94247
▁important	-7.95178
▁often	-7.95373
able	-7.95384
▁For	-7.9543
ause	-7.95934
came	-7.95987
▁Appl	-7.96126
▁city	-7.96448
6	-7.96843
▁design	-7.97035
en	-7.97184
▁Unit	-7.98163
▁last	-7.98244
▁million	-7.98287
▁second	-7.98479
8	-7.9862
▁still	-7.98702
▁government	-7.99352
▁tell	-8.00523
▁long	-8.00608
▁American	-8.01169
▁199	-8.03337
▁language	-8.03552
▁state	-8.0365
▁few	-8.04455
▁water	-8.05038
▁become	-8.05499
▁put	-8.05705
▁turn	-8.05802
▁♫	-8.05838
▁century	-8.05894
▁high	-8.06601
▁New	-8.06794
▁1	-8.07295
▁country	-8.07335
one	-8.0738
ation	-8.07408
▁w	-8.07736
▁game	-8.07747
▁When	-8.07997
▁ask	-8.08332
▁early	-8.0845
▁school	-8.09419
▁percent	-8.09532
▁try	-8.09796
▁should	-8.09932
▁U	-8.09975
▁small	-8.10056
▁On	-8.10165
▁case	-8.1038
▁help	-8.10493
▁set	-8.11043
▁fact	-8.12223
▁term	-8.1232
▁power	-8.1394
▁These	-8.14294
▁Well	-8.14412
▁common	-8.14745
▁four	-8.151
▁allow	-8.15255
▁never	-8.1548
▁find	-8.15726
▁thought	-8.16785
▁order	-8.17207
▁include	-8.17486
▁off	-8.19043
/	-8.19245
gainst	-8.19548
▁film	-8.20475
▁together	-8.20603
way	-8.20674
h	-8.20813
▁might	-8.21041
▁home	-8.21356
▁since	-8.21936
▁came	-8.22289
▁unti	-8.22551
▁per	-8.22664
ism	-8.22993
▁E	-8.23015
▁doing	-8.23436
i	-8.23453
▁States	-8.23564
▁cell	-8.23738
▁10	-8.24263
▁next	-8.24321
▁data	-8.2453
ok	-8.24532
w	-8.24541
▁able	-8.25674
▁S	-8.2568
▁again	-8.26149
▁20	-8.26175
▁D	-8.26661
▁support	-8.26875
▁line	-8.26937
▁general	-8.27663
▁computer	-8.28073
▁As	-8.28223
▁better	-8.2868
▁process	-8.28873
▁2	-8.28971
went	-8.3026
▁de	-8.30385
est	-8.30589
▁live	-8.30989
▁happen	-8.31217
▁population	-8.31332
▁light	-8.31368
▁give	-8.31478
▁force	-8.31602
▁old	-8.32033
▁result	-8.32051
▁several	-8.32149
▁women	-8.32362
though	-8.32859
▁why	-8.3292
▁un	-8.33106
▁story	-8.33371
▁open	-8.33479
▁team	-8.33519
ary	-8.33597
▁particular	-8.34311
gan	-8.34743
▁building	-8.34964
▁create	-8.35032
▁consider	-8.35237
st	-8.35337
▁One	-8.35605
▁person	-8.36166
▁course	-8.36624
▁less	-8.36751
▁left	-8.36908
▁real	-8.37115
▁brain	-8.37777
▁space	-8.38095
▁public	-8.38339
▁main	-8.39069
▁believe	-8.39389
▁Some	-8.39768
▁family	-8.4001
▁children	-8.40188
▁remain	-8.40204
▁countr	-8.4069
▁possibl	-8.40794
▁let	-8.40841
▁To	-8.41901
▁3	-8.42557
▁area	-8.42563
▁love	-8.42584
▁single	-8.42667
▁five	-8.43225
▁liv	-8.43931
▁M	-8.43944
▁near	-8.43983
▁war	-8.44002
▁German	-8.44179
▁ever	-8.44366
▁technology	-8.44588
▁level	-8.44961
▁too	-8.45196
▁question	-8.45239
land	-8.4546
▁close	-8.45569
▁death	-8.457
▁major	-8.45815
▁big	-8.46193
▁learn	-8.46436
▁record	-8.46525
▁car	-8.46632
▁body	-8.46685
▁information	-8.46836
▁ago	-8.46914
▁Thank	-8.4749
▁War	-8.47597
▁T	-8.4797
ous	-8.48794
▁reason	-8.49032
▁control	-8.49248
▁British	-8.49463
▁always	-8.49493
body	-8.495
▁service	-8.49787
▁social	-8.50147
▁along	-8.50163
▁complete	-8.50206
▁project	-8.51152
▁creat	-8.51374
▁hav	-8.51384
an	-8.51395
▁She	-8.51761
▁book	-8.52273
▁World	-8.52305
▁197	-8.52317
▁histor	-8.52528
▁bit	-8.52774
ness	-8.52892
▁increase	-8.5303
▁mak	-8.53113
▁age	-8.53688
▁bas	-8.53692
▁experience	-8.53799
ment	-8.53828
▁done	-8.54399
▁music	-8.54787
▁best	-8.55021
▁period	-8.55048
▁After	-8.55142
ecause	-8.55433
▁man	-8.55573
▁energy	-8.55594
▁modern	-8.56182
▁among	-8.56281
▁species	-8.56469
▁At	-8.56617
▁side	-8.56647
▁Al	-8.56729
▁sort	-8.56847
▁English	-8.56848
▁region	-8.57042
▁men	-8.57315
ves	-8.57705
▁whole	-8.57882
▁animal	-8.57947
▁local	-8.57995
▁food	-8.58512
▁field	-8.58538
▁working	-8.586
▁final	-8.58734
▁original	-8.58756
▁half	-8.58793
▁understand	-8.592
▁art	-8.59293
cross	-8.59493
▁effect	-8.59569
▁similar	-8.59632
▁hand	-8.59659
▁follow	-8.59893
▁&#93;	-8.60185
▁&#9	-8.6028
▁study	-8.60435
be	-8.60476
ally	-8.60696
▁appear	-8.60987
▁5	-8.6113
▁usual	-8.61339
um	-8.61612
▁present	-8.61784
▁hard	-8.61972
▁feel	-8.62449
▁F	-8.6261
▁though	-8.62803
▁run	-8.63366
▁given	-8.63379
▁kid	-8.63444
▁move	-8.63454
▁program	-8.63833
▁198	-8.63972
▁function	-8.64177
▁political	-8.64184
▁student	-8.64207
▁issue	-8.6444
▁individual	-8.64531
stead	-8.64758
▁America	-8.64888
▁b	-8.65202
▁sometimes	-8.65399
▁far	-8.65523
▁All	-8.65574
▁times	-8.65682
thing	-8.65862
▁future	-8.66151
▁al	-8.66199
▁almost	-8.66284
▁structure	-8.6629
▁di	-8.66504
▁4	-8.66575
▁market	-8.66695
▁built	-8.66697
▁No	-8.66969
▁direct	-8.67504
▁image	-8.67635
▁science	-8.67685
▁ra	-8.67764
▁formula	-8.67765
▁196	-8.67773
▁must	-8.67782
▁following	-8.67849
▁head	-8.68035
▁matter	-8.68132
▁business	-8.68284
▁share	-8.68359
▁sense	-8.68372
▁P	-8.68439
▁exist	-8.68816
▁due	-8.68945
nough	-8.68988
▁certain	-8.6914
▁cause	-8.69275
ry	-8.69417
▁money	-8.6943
▁publish	-8.69607
c	-8.70062
▁developed	-8.70106
▁15	-8.70118
▁series	-8.70282
▁word	-8.70553
▁grow	-8.70651
▁development	-8.70838
▁test	-8.70924
▁land	-8.71313
▁mov	-8.71412
▁week	-8.71435
▁young	-8.7156
▁plant	-8.71661
▁Africa	-8.7186
▁led	-8.7226
▁Earth	-8.7238
▁!	-8.72947
▁interest	-8.73002
▁saw	-8.73766
▁contain	-8.74227
▁black	-8.74252
▁return	-8.74459
▁popular	-8.74673
▁economic	-8.7479
▁air	-8.74799
▁billion	-8.75048
ld	-8.75386
▁30	-8.75566
▁bring	-8.75758
▁company	-8.75972
_	-8.76016
▁six	-8.76023
▁French	-8.7609
▁probabl	-8.76149
▁character	-8.76576
▁days	-8.76777
▁machine	-8.76964
▁total	-8.76979
$	-8.77128
less	-8.77424
▁simple	-8.77454
▁societ	-8.77486
ither	-8.77517
▁provide	-8.77646
▁disease	-8.77891
▁late	-8.78042
▁research	-8.78374
▁face	-8.78514
▁culture	-8.78614
▁community	-8.78754
▁R	-8.78996
▁God	-8.79426
▁By	-8.79443
▁third	-8.79475
▁source	-8.79656
▁entire	-8.79732
▁won	-8.8022
▁role	-8.80238
▁object	-8.80267
▁rate	-8.80439
ton	-8.80526
▁seem	-8.8069
▁model	-8.8076
▁law	-8.80986
▁wide	-8.8099
▁current	-8.81057
▁attack	-8.81094
▁act	-8.81244
▁reach	-8.81517
▁systems	-8.81532
▁element	-8.81607
▁Europe	-8.81666
▁produce	-8.81693
▁moment	-8.81876
▁position	-8.82198
▁South	-8.82642
rote	-8.82894
▁c	-8.8297
▁once	-8.82987
▁health	-8.83248
▁piece	-8.83814
▁months	-8.83956
▁military	-8.84418
▁De	-8.84529
▁cost	-8.84653
▁short	-8.84726
▁lead	-8.84761
▁York	-8.84812
▁add	-8.84818
▁keep	-8.85119
▁national	-8.85166
▁house	-8.85258
▁free	-8.85274
▁natural	-8.8532
▁color	-8.85348
▁establish	-8.85378
▁My	-8.85598
▁top	-8.85641
▁least	-8.85671
▁size	-8.85757
▁various	-8.85763
▁whe	-8.85984
ers	-8.86092
▁figure	-8.86139
▁unit	-8.86142
▁cit	-8.86296
▁player	-8.86797
▁produc	-8.86877
▁discover	-8.87039
▁job	-8.87308
▁represent	-8.87349
or	-8.87436
▁words	-8.8794
▁room	-8.8812
▁theory	-8.88407
▁planet	-8.88483
▁view	-8.88616
quite	-8.89084
▁thinking	-8.89091
▁season	-8.89177
▁Dur	-8.89325
▁event	-8.89356
▁12	-8.89424
▁His	-8.89441
▁build	-8.89609
▁areas	-8.8984
▁Universit	-8.8989
▁With	-8.89897
▁version	-8.89925
▁claim	-8.90039
▁thousand	-8.90564
▁difference	-8.90697
▁National	-8.90718
▁strong	-8.90984
▁difficult	-8.90988
▁low	-8.9116
▁already	-8.91268
▁John	-8.91416
▁significant	-8.9143
▁guy	-8.91504
▁condition	-8.91969
▁An	-8.92063
specially	-8.92208
▁North	-8.92663
▁European	-8.92883
▁movement	-8.92959
▁network	-8.93143
▁education	-8.9323
▁answer	-8.93314
▁production	-8.93336
man	-8.93993
ritten	-8.94263
▁suggest	-8.94363
▁standard	-8.94439
▁50	-8.9461
▁amount	-8.94706
msel	-8.95075
▁China	-8.95104
▁father	-8.95184
▁complex	-8.95201
▁range	-8.95225
▁read	-8.95298
▁6	-8.95445
▁nature	-8.95856
▁feature	-8.95949
ian	-8.9607
▁else	-8.96125
age	-8.96145
▁sound	-8.96148
▁full	-8.9642
▁held	-8.96772
▁care	-8.97157
▁194	-8.97185
▁kill	-8.97227
▁son	-8.97306
▁inside	-8.97457
▁members	-8.97507
▁official	-8.97609
▁video	-8.97669
▁yet	-8.97764
▁coming	-8.97857
▁action	-8.97908
▁US	-8.97974
▁lives	-8.98132
▁getting	-8.98236
▁0	-8.98331
▁specific	-8.98936
▁pass	-8.98963
▁surface	-8.99019
▁value	-8.99197
▁method	-8.99205
▁further	-8.99511
▁type	-8.99554
▁G	-8.99561
▁availab	-8.99575
▁works	-8.99605
▁global	-8.99996
gave	-9.00066
▁continu	-9.00092
▁mother	-9.00441
▁minute	-9.00875
▁100	-9.00978
▁11	-9.01097
▁India	-9.01184
ive	-9.01268
▁traditional	-9.01284
▁island	-9.01556
▁7	-9.01602
▁Let	-9.01775
▁past	-9.0195
▁outside	-9.0204
▁true	-9.02057
▁II	-9.02134
▁relationship	-9.02315
▁physical	-9.02573
▁interesting	-9.02675
▁average	-9.02767
▁mind	-9.02803
▁toward	-9.02942
▁Church	-9.02948
▁child	-9.03146
▁tree	-9.03526
▁leave	-9.03937
▁Roman	-9.04015
▁lost	-9.04029
▁attempt	-9.04611
▁Wh	-9.04617
▁19	-9.0466
▁exact	-9.047
▁earlie	-9.0473
▁device	-9.0476
▁capital	-9.04785
’	-9.04906
▁hundred	-9.05231
▁former	-9.05603
▁Christian	-9.0578
▁focus	-9.05826
taking	-9.0601
ance	-9.06102
▁re	-9.06163
▁influence	-9.06168
▁quick	-9.06183
▁Many	-9.06484
▁Here	-9.06544
▁decided	-9.06547
▁site	-9.06931
▁perform	-9.07052
▁center	-9.07118
▁typical	-9.07194
▁sign	-9.07231
▁born	-9.0764
▁material	-9.07781
▁studie	-9.07783
▁Most	-9.07972
ber	-9.08167
▁rule	-9.08183
▁J	-9.08216
▁environment	-9.08275
▁self	-9.08316
▁practice	-9.08333
▁base	-9.08451
▁18	-9.08549
▁patient	-9.08566
▁organization	-9.08586
▁beginning	-9.08605
▁picture	-9.08843
▁evidence	-9.09249
▁list	-9.09297
▁makes	-9.09404
▁dollars	-9.09423
▁personal	-9.09539
▁song	-9.0957
▁compani	-9.09583
▁risk	-9.0969
▁accept	-9.09805
▁Other	-9.09808
▁higher	-9.09816
▁stop	-9.09983
▁above	-9.10098
▁Greek	-9.1015
▁speak	-9.10232
▁West	-9.10332
▁white	-9.10391
▁sea	-9.1062
▁8	-9.10716
▁night	-9.10752
▁African	-9.10756
▁According	-9.10941
▁normal	-9.11055
▁am	-9.11684
is	-9.11713
▁title	-9.11732
▁nothing	-9.11813
▁subject	-9.11986
▁stories	-9.12051
ything	-9.12085
▁195	-9.12126
▁prett	-9.12159
▁heart	-9.12189
▁continue	-9.12412
▁simpl	-9.12503
▁offer	-9.12514
▁blue	-9.13113
▁describ	-9.13196
▁growth	-9.13288
▁access	-9.13499
▁stuff	-9.1366
▁decision	-9.13724
▁saying	-9.13763
▁media	-9.14032
▁poor	-9.14052
▁drive	-9.14168
▁hope	-9.14615
▁front	-9.14635
▁May	-9.14945
▁relative	-9.14991
▁church	-9.15032
▁experiment	-9.15111
▁universe	-9.15185
▁remember	-9.15199
▁watch	-9.15401
▁L	-9.15501
▁longer	-9.15512
▁O	-9.15663
▁engineer	-9.15684
▁industry	-9.15776
▁account	-9.15796
▁key	-9.15804
▁receiv	-9.16001
▁letter	-9.16055
▁temperature	-9.16092
▁successful	-9.16102
by	-9.16212
▁stage	-9.16257
▁City	-9.16338
▁addition	-9.16461
▁explain	-9.16613
▁fire	-9.16949
▁effective	-9.17298
▁ground	-9.17377
▁couple	-9.17501
▁9	-9.17541
▁hold	-9.17549
▁cancer	-9.1757
▁releas	-9.17673
▁states	-9.17749
▁H	-9.17848
▁writing	-9.17875
▁protect	-9.17926
▁ways	-9.18116
rought	-9.18333
S	-9.18402
▁challenge	-9.18414
▁join	-9.18562
▁band	-9.18577
▁14	-9.18582
▁girl	-9.18697
▁lower	-9.18757
▁economy	-9.18951
▁fall	-9.18969
▁pay	-9.19066
ist	-9.19094
▁Chinese	-9.19223
▁seven	-9.19392
▁cover	-9.19461
▁bad	-9.19504
where	-9.19558
▁rest	-9.19558
▁August	-9.19563
▁N	-9.19612
▁larges	-9.19615
▁pattern	-9.19814
▁special	-9.19884
▁25	-9.20175
▁woman	-9.20188
▁paper	-9.20264
▁K	-9.203
▁hours	-9.20301
▁potential	-9.20319
z	-9.2033
▁17	-9.20548
▁sure	-9.20767
▁non	-9.20806
▁blood	-9.20994
to	-9.21065
▁travel	-9.21383
k	-9.21608
▁international	-9.21904
▁40	-9.21925
haps	-9.22142
▁artist	-9.22193
▁eventual	-9.22361
▁England	-9.22688
▁carbon	-9.22748
p	-9.22764
▁East	-9.22805
▁191	-9.23047
▁code	-9.23059
▁concept	-9.23184
▁class	-9.23319
▁approach	-9.23452
▁September	-9.23613
▁193	-9.23656
▁16	-9.2367
▁north	-9.23805
▁Whil	-9.24141
▁oil	-9.24155
▁behind	-9.24359
g	-9.24475
▁degree	-9.24505
ia	-9.24545
▁walk	-9.24597
▁wrong	-9.2461
▁safe	-9.2461
▁mass	-9.2462
▁friends	-9.24751
▁Janu	-9.24782
▁office	-9.24842
▁fish	-9.24917
▁election	-9.24989
▁deal	-9.25086
▁13	-9.25163
▁heard	-9.25164
▁require	-9.25206
spite	-9.25312
▁middle	-9.25476
▁plan	-9.25535
▁behavior	-9.25578
▁consist	-9.25692
▁scientist	-9.25767
▁nation	-9.25768
▁red	-9.25783
▁imagine	-9.25943
▁BC	-9.26111
▁extreme	-9.26204
▁slow	-9.26281
▁involv	-9.26307
▁scale	-9.26563
▁Union	-9.2662
▁style	-9.26844
▁beautiful	-9.27048
▁friend	-9.27339
▁eight	-9.274
▁write	-9.27561
▁Internet	-9.27564
▁success	-9.27605
▁metal	-9.2781
▁June	-9.279
▁DNA	-9.28026
▁spend	-9.28257
▁introduc	-9.28339
▁books	-9.28387
▁hit	-9.28549
year	-9.2859
▁choice	-9.28831
▁London	-9.28868
▁clear	-9.29232
▁describe	-9.29346
▁regard	-9.29357
▁treatment	-9.29489
▁happens	-9.2973
▁enter	-9.29748
▁meaning	-9.29898
▁equal	-9.29906
▁text	-9.2997
▁amazing	-9.29978
▁south	-9.30078
▁St	-9.30098
▁2010	-9.30159
refore	-9.30194
▁separate	-9.30225
u	-9.30264
▁larger	-9.30317
cy	-9.30399
▁trade	-9.30403
ability	-9.30709
▁kne	-9.30745
▁measure	-9.30847
▁wall	-9.31
▁report	-9.31244
▁count	-9.31391
▁treat	-9.31401
▁Or	-9.31619
▁Octo	-9.31683
▁Do	-9.31825
▁affect	-9.31906
▁December	-9.32263
▁occur	-9.32409
▁chemical	-9.32535
▁increasing	-9.32582
▁factor	-9.32693
▁climate	-9.32705
▁operation	-9.32766
▁product	-9.32824
▁central	-9.32928
▁begin	-9.32959
▁Since	-9.3312
▁release	-9.33205
▁powerful	-9.33224
▁ship	-9.33304
▁acid	-9.33547
▁provid	-9.33947
▁March	-9.34151
▁ancient	-9.34182
▁response	-9.34301
b	-9.34407
as	-9.34484
▁France	-9.34544
▁Great	-9.34742
▁launch	-9.34746
▁stay	-9.34857
▁referr	-9.34888
▁soon	-9.35031
▁caus	-9.35476
▁speed	-9.35554
▁Every	-9.35829
▁November	-9.36099
▁Western	-9.36113
▁private	-9.36272
D	-9.3628
▁depend	-9.36294
▁visit	-9.36297
▁station	-9.36367
x	-9.36501
▁met	-9.36512
▁whose	-9.36551
▁train	-9.36572
▁phone	-9.36574
▁Canad	-9.36592
▁bigge	-9.36708
ish	-9.36734
time	-9.36841
▁learning	-9.36895
ical	-9.37016
▁arm	-9.37032
▁concern	-9.37112
▁sent	-9.37293
▁star	-9.37298
▁Soviet	-9.37413
▁21	-9.37483
▁easi	-9.37598
▁impact	-9.37643
▁effort	-9.37685
▁ocean	-9.37822
▁Arm	-9.37916
▁fly	-9.38113
▁party	-9.3822
▁expect	-9.38227
▁From	-9.38301
▁resource	-9.38338
up	-9.38394
▁huge	-9.38434
▁raise	-9.38452
▁president	-9.38655
▁Apri	-9.38672
▁forest	-9.38679
▁deep	-9.38889
▁religious	-9.38918
▁software	-9.38974
▁co	-9.39045
▁initial	-9.39086
▁generation	-9.39096
▁reaction	-9.39227
▁hear	-9.39252
▁army	-9.39352
amp	-9.39446
ley	-9.39623
bility	-9.39638
▁basically	-9.39645
▁Jul	-9.39702
▁album	-9.39753
▁...	-9.39759
▁necessar	-9.39878
giving	-9.40046
▁signal	-9.40071
▁pressure	-9.40299
▁spread	-9.404
▁flow	-9.4047
▁V	-9.40599
▁technique	-9.40677
▁gas	-9.40677
▁2008	-9.40686
▁associat	-9.40706
▁cut	-9.40733
▁variet	-9.40985
▁situation	-9.41024
▁Indian	-9.41399
▁town	-9.41541
f	-9.41672
▁Part	-9.41692
ch	-9.41778
aught	-9.41818
▁tradition	-9.42006
▁serve	-9.42134
▁according	-9.42186
▁spen	-9.4236
▁locat	-9.42427
▁television	-9.4251
▁voice	-9.42617
▁prevent	-9.42676
▁member	-9.42708
▁gain	-9.4294
▁institution	-9.4308
▁map	-9.43123
▁President	-9.43243
▁movie	-9.43364
▁questions	-9.4343
▁performance	-9.43651
▁parents	-9.43894
▁lack	-9.43938
▁track	-9.4396
felt	-9.44552
▁f	-9.44696
▁independent	-9.44819
▁First	-9.45122
▁types	-9.4515
▁digital	-9.45164
▁date	-9.45251
▁pick	-9.45328
▁purpose	-9.45561
▁maintain	-9.4583
▁X	-9.46083
▁send	-9.46098
▁female	-9.46108
▁essential	-9.4615
▁post	-9.46215
▁knowledge	-9.46231
▁refer	-9.4626
▁River	-9.4632
▁smaller	-9.46324
▁thus	-9.4635
▁results	-9.46352
▁teacher	-9.46427
▁below	-9.46493
▁target	-9.46633
ship	-9.46687
▁medical	-9.46702
▁campaign	-9.46813
▁application	-9.47037
▁192	-9.47067
▁aircraft	-9.47297
▁link	-9.47329
▁famous	-9.47424
▁actual	-9.47435
▁Central	-9.47533
▁related	-9.47643
▁detail	-9.47715
▁commercial	-9.4779
▁block	-9.47896
▁save	-9.47915
▁shape	-9.4794
▁reported	-9.47967
▁Oh	-9.48224
▁regular	-9.48258
▁basic	-9.48541
▁leader	-9.48622
▁mention	-9.48676
▁electric	-9.48758
▁People	-9.48761
▁scientific	-9.48765
▁charge	-9.48951
▁vote	-9.491
▁dark	-9.49114
▁principle	-9.49127
▁recent	-9.49131
▁King	-9.49167
▁loss	-9.49574
old	-9.49814
▁products	-9.49913
▁60	-9.49972
▁adopt	-9.5
▁message	-9.50288
el	-9.50587
▁brother	-9.50614
▁requir	-9.50696
▁1990	-9.50764
▁court	-9.50834
▁absolute	-9.50845
▁male	-9.50904
tic	-9.51002
▁engine	-9.5103
ium	-9.51075
▁die	-9.5119
ond	-9.51332
▁Latin	-9.51353
▁double	-9.51412
▁buy	-9.51483
▁190	-9.51499
▁David	-9.51545
▁serious	-9.51592
son	-9.5162
▁tend	-9.51658
▁International	-9.5178
▁oursel	-9.51788
▁leading	-9.51946
▁fail	-9.51979
▁1980	-9.52019
▁2000	-9.52086
▁molecule	-9.52174
▁m	-9.52175
alone	-9.52259
▁compar	-9.52304
▁solution	-9.5233
▁happening	-9.52379
▁tried	-9.52468
▁wife	-9.52516
▁finish	-9.52521
▁recently	-9.52581
▁conflict	-9.528
▁college	-9.52801
▁immediate	-9.52966
▁meet	-9.52983
▁active	-9.52991
▁host	-9.53047
▁doctor	-9.53117
▁develop	-9.53135
▁career	-9.53161
▁rules	-9.53163
▁fund	-9.53364
▁attention	-9.53377
▁canno	-9.53429
▁battle	-9.53441
▁Music	-9.53469
side	-9.53655
▁club	-9.53732
▁W	-9.53869
▁coast	-9.53884
▁Even	-9.53915
▁religion	-9.5412
▁litera	-9.54127
▁understanding	-9.54287
▁i	-9.543
▁green	-9.54341
▁policy	-9.54545
▁feeling	-9.54637
▁eyes	-9.54777
▁fear	-9.54875
ach	-9.54894
▁2006	-9.54956
▁direction	-9.55031
▁border	-9.55064
▁runn	-9.55365
▁Charles	-9.55392
,000	-9.55395
▁authorit	-9.55449
▁San	-9.55523
▁defeat	-9.55527
▁constant	-9.55576
▁audience	-9.55577
▁daughter	-9.55674
▁distance	-9.5569
▁realit	-9.55888
▁particle	-9.55969
▁break	-9.56073
uar	-9.56235
▁definition	-9.56255
▁instrument	-9.56391
▁memory	-9.56562
▁location	-9.56702
▁protein	-9.56777
▁Brita	-9.56815
▁express	-9.56877
▁step	-9.56897
▁table	-9.5699
▁shows	-9.57208
▁communit	-9.57226
▁rise	-9.57227
▁win	-9.57583
▁expand	-9.57855
▁listen	-9.57857
▁humans	-9.57874
▁document	-9.58079
▁wait	-9.58106
▁operat	-9.5811
▁easy	-9.58208
more	-9.58363
▁hands	-9.58463
▁announc	-9.58464
▁involve	-9.58518
te	-9.58612
▁construction	-9.58697
▁Febr	-9.58964
▁price	-9.58978
▁Australia	-9.5905
▁month	-9.5916
▁activity	-9.59171
▁carry	-9.59274
▁length	-9.5936
▁Catholic	-9.59421
▁benefit	-9.59536
▁historical	-9.59934
ial	-9.60164
▁professional	-9.60197
▁village	-9.60302
▁highly	-9.60493
▁fuel	-9.60496
▁search	-9.60548
▁board	-9.60611
▁address	-9.60628
▁stand	-9.60746
▁California	-9.60756
▁perfect	-9.60758
▁Then	-9.60769
▁king	-9.60877
▁gre	-9.60949
▁1970	-9.60959
▁24	-9.61052
▁rare	-9.61217
▁stars	-9.61246
▁State	-9.6126
▁context	-9.61305
▁boy	-9.61325
▁foreign	-9.61464
▁connect	-9.61554
▁Republic	-9.61614
▁bear	-9.61719
▁cultural	-9.61775
▁demand	-9.61808
▁display	-9.61895
▁replac	-9.6208
▁user	-9.62156
▁highest	-9.62191
▁rock	-9.62361
▁river	-9.62473
▁connection	-9.6252
▁radio	-9.62551
▁mission	-9.62707
▁meeting	-9.62887
▁legal	-9.62912
▁road	-9.62956
▁primary	-9.62998
▁instance	-9.63103
▁General	-9.63123
▁Not	-9.63134
▁territor	-9.63148
▁limited	-9.63153
▁famili	-9.63284
▁positive	-9.63329
▁dead	-9.63431
▁origin	-9.63628
▁forward	-9.63735
the	-9.638
▁component	-9.63844
▁Park	-9.64029
▁1960	-9.64049
▁fundamental	-9.64073
▁card	-9.64194
▁Right	-9.64275
▁Empire	-9.64324
▁rich	-9.64387
▁adult	-9.64487
▁realize	-9.64501
▁notice	-9.64537
▁nuclear	-9.64625
▁80	-9.64648
▁content	-9.6475
▁limit	-9.64812
▁reduce	-9.64843
▁Air	-9.64992
▁sold	-9.65081
▁tour	-9.65146
▁financial	-9.65244
▁opportunity	-9.65526
▁camera	-9.65527
▁writer	-9.65547
▁atom	-9.65588
▁flight	-9.65774
▁Council	-9.65778
▁sequence	-9.65819
▁heat	-9.65822
▁elect	-9.65866
▁award	-9.65887
▁securit	-9.66044
▁Thom	-9.66082
▁Oka	-9.66118
▁approximate	-9.66125
▁League	-9.6616
▁Act	-9.66189
▁basi	-9.6629
▁destroy	-9.66322
▁p	-9.66361
▁multiple	-9.66405
▁materials	-9.66418
▁Spanish	-9.66432
▁seat	-9.66614
▁Black	-9.66814
▁rapid	-9.6698
▁fast	-9.67007
▁Sea	-9.67206
▁race	-9.67223
▁wave	-9.6724
▁rights	-9.67488
▁developing	-9.67578
▁division	-9.67585
▁sell	-9.67643
▁connected	-9.67654
▁era	-9.6768
▁summer	-9.67835
▁critical	-9.67889
▁push	-9.67916
▁collect	-9.67922
▁nam	-9.68007
▁literal	-9.68011
▁reduc	-9.68157
▁happy	-9.68305
▁vehicle	-9.68306
▁chance	-9.68417
▁Paul	-9.68417
▁nine	-9.68515
▁drug	-9.6868
▁robot	-9.68696
▁surviv	-9.6876
▁unique	-9.68809
▁employ	-9.6882
ar	-9.68863
ard	-9.68894
▁majorit	-9.69104
▁avoid	-9.69127
▁TED	-9.69189
▁defin	-9.69204
▁hospital	-9.69394
▁obvious	-9.69424
wise	-9.69723
▁quality	-9.69775
▁communication	-9.69995
▁William	-9.70062
▁training	-9.70195
▁tools	-9.70251
▁belief	-9.70273
▁sex	-9.70315
▁novel	-9.70547
▁George	-9.70578
▁House	-9.70849
ty	-9.7086
▁algorithm	-9.70879
changing	-9.7103
▁fight	-9.71138
▁gives	-9.71156
▁Asia	-9.71159
▁cross	-9.71189
▁bottom	-9.7131
▁Two	-9.71413
▁pair	-9.71414
▁Afghan	-9.71527
▁civil	-9.71562
▁birth	-9.71666
▁More	-9.71796
▁shift	-9.71893
▁solve	-9.72114
▁weight	-9.7257
▁mid	-9.72589
▁scene	-9.72615
▁press	-9.72684
▁electron	-9.72812
▁medicine	-9.72974
▁Our	-9.73223
▁page	-9.73235
▁Dr	-9.73244
▁secret	-9.73346
▁collection	-9.73492
▁alternative	-9.73619
▁worker	-9.73856
▁wear	-9.73856
▁photograph	-9.73924
▁OK	-9.73978
ur	-9.74021
▁transform	-9.74061
▁ice	-9.74222
▁occurr	-9.74347
it	-9.74362
▁section	-9.74374
▁School	-9.74502
▁via	-9.74509
▁gone	-9.74561
▁realiz	-9.74734
▁Am	-9.74838
la	-9.74856
▁Of	-9.74864
▁propos	-9.74917
▁Japanese	-9.74939
▁northern	-9.75096
ie	-9.75185
▁feet	-9.75241
▁leaders	-9.75379
▁sexual	-9.75419
▁seeing	-9.75428
▁plann	-9.7548
▁except	-9.75525
▁hole	-9.75986
▁whom	-9.76286
▁southern	-9.76354
istan	-9.7641
▁Muslim	-9.76454
▁eye	-9.76467
ture	-9.76529
▁online	-9.76611
▁reference	-9.7665
▁tin	-9.76794
▁slight	-9.77151
▁wonderful	-9.77209
▁painting	-9.77315
▁box	-9.77371
▁morning	-9.77506
▁bone	-9.7761
▁damage	-9.77643
▁reflect	-9.77667
▁square	-9.7767
▁symbol	-9.77707
▁throw	-9.77812
▁task	-9.77962
▁models	-9.77991
▁propert	-9.78045
▁anti	-9.7808
▁Kingdom	-9.7812
▁TV	-9.7824
▁article	-9.7824
▁convert	-9.78425
▁analysi	-9.78489
▁conduct	-9.78621
▁inspire	-9.78653
▁Le	-9.78654
▁leg	-9.78675
▁deliver	-9.78706
▁marri	-9.78726
▁technologi	-9.78755
▁dance	-9.78773
▁speech	-9.78859
▁truth	-9.78939
▁fair	-9.78968
▁store	-9.79091
▁heavy	-9.79104
▁east	-9.79139
▁rank	-9.79264
▁annual	-9.79482
▁match	-9.79608
▁Can	-9.79637
▁Apple	-9.79642
▁compound	-9.79664
▁remov	-9.79697
▁conversation	-9.79851
▁director	-9.79893
▁pull	-9.79982
▁bond	-9.8
▁police	-9.8004
id	-9.80064
sis	-9.80085
▁22	-9.80117
▁violen	-9.80131
▁2001	-9.8017
ate	-9.80289
▁previous	-9.80339
▁architecture	-9.80432
▁drugs	-9.80496
▁eat	-9.80541
kept	-9.80544
▁70	-9.80761
▁values	-9.80779
▁ultimate	-9.80813
▁sitt	-9.80814
▁marriage	-9.80868
▁additional	-9.80871
▁skin	-9.80911
▁Just	-9.80924
▁predict	-9.80975
▁improve	-9.81245
▁solar	-9.81374
▁subsequent	-9.81424
▁centre	-9.81436
▁sector	-9.81556
▁trust	-9.81593
▁goal	-9.81721
▁Don	-9.81734
▁Middle	-9.81742
▁Man	-9.81782
▁sudden	-9.81806
▁genetic	-9.81909
▁string	-9.82028
▁root	-9.82188
▁innovation	-9.82253
ine	-9.82417
▁decades	-9.82543
▁meant	-9.82665
▁finding	-9.8267
▁teaching	-9.82716
▁James	-9.82774
▁creation	-9.82799
▁186	-9.82846
▁rain	-9.82862
▁90	-9.82867
▁laws	-9.83
ily	-9.83061
ten	-9.83149
▁Second	-9.83281
like	-9.8338
▁pre	-9.83429
▁ten	-9.83432
▁fine	-9.83581
▁worth	-9.83664
▁Alexander	-9.83669
▁Yea	-9.83783
ro	-9.83921
▁respect	-9.83975
▁trial	-9.83994
ne	-9.83998
▁vision	-9.84039
▁transport	-9.84186
▁divid	-9.84194
▁recognize	-9.84223
▁soldier	-9.84274
▁argument	-9.84337
▁construct	-9.84392
▁invent	-9.84399
▁becom	-9.84449
▁centuries	-9.84451
▁grant	-9.84451
at	-9.84516
▁income	-9.84639
▁Like	-9.84714
▁Be	-9.84855
▁suffer	-9.85095
▁onto	-9.85096
▁miles	-9.8511
▁receive	-9.85221
▁cycle	-9.85248
▁189	-9.85322
▁23	-9.85323
▁Japan	-9.85368
▁command	-9.85374
▁aspect	-9.85436
credible	-9.85504
▁UK	-9.85527
ta	-9.85531
▁visual	-9.85535
▁bacteria	-9.85625
00	-9.85756
▁evolution	-9.86011
▁cool	-9.86085
▁cold	-9.86273
▁drink	-9.86366
▁primari	-9.86566
older	-9.86636
▁street	-9.86687
▁news	-9.8679
▁troop	-9.86833
▁Court	-9.87034
▁believ	-9.87099
ham	-9.87169
▁Canadian	-9.87204
▁journey	-9.87235
ized	-9.87246
▁aid	-9.87307
▁Force	-9.87363
▁argue	-9.87423
▁Congress	-9.87437
▁College	-9.87444
▁numer	-9.87447
▁Russian	-9.87498
▁Art	-9.87552
▁reveal	-9.8764
▁status	-9.87648
▁volume	-9.87821
▁motion	-9.87908
▁path	-9.88005
▁dream	-9.8802
▁responsibl	-9.88181
▁west	-9.88212
▁Robert	-9.88249
▁route	-9.88295
▁urban	-9.88349
▁democracy	-9.88438
▁property	-9.88634
▁names	-9.88644
▁define	-9.88664
▁serv	-9.88672
▁equation	-9.88797
▁fully	-9.88982
▁intend	-9.89009
▁screen	-9.89225
▁Jewish	-9.89324
▁advantage	-9.8941
ities	-9.89424
▁rough	-9.8944
▁moral	-9.89873
▁possibilit	-9.89892
▁enjoy	-9.89961
▁obtain	-9.9003
▁negative	-9.902
▁respond	-9.90305
▁Yes	-9.90367
▁contract	-9.90368
▁port	-9.90369
▁freedom	-9.90381
ier	-9.90438
▁organism	-9.9053
▁print	-9.90665
▁magazine	-9.91073
=	-9.91142
▁contrast	-9.91147
▁progress	-9.91153
▁interview	-9.91219
▁useful	-9.91229
▁contact	-9.91353
▁recover	-9.91354
▁mental	-9.91378
▁choose	-9.91492
▁citizens	-9.91502
▁carri	-9.91518
▁Their	-9.91695
▁mechanism	-9.91705
▁industrial	-9.91889
▁combin	-9.91943
▁touch	-9.91954
▁competition	-9.92055
▁review	-9.92059
▁Jew	-9.92118
▁Street	-9.92197
▁fill	-9.922
▁appearance	-9.9224
▁wind	-9.92447
▁Richard	-9.9248
▁reform	-9.92488
▁bridge	-9.92598
▁shot	-9.92599
▁failure	-9.92624
▁sun	-9.92705
▁Spa	-9.92745
▁26	-9.92839
▁park	-9.92981
▁round	-9.93143
▁disorder	-9.93191
▁combination	-9.93293
▁layer	-9.93442
ful	-9.93528
▁CA	-9.93536
▁wild	-9.93548
▁lab	-9.93585
water	-9.93598
▁zero	-9.93704
▁controll	-9.93712
▁reading	-9.93781
▁Day	-9.93813
▁1950	-9.93871
▁formal	-9.9394
▁La	-9.93966
▁sit	-9.94022
▁perspective	-9.94051
▁characteristic	-9.94062
▁estimat	-9.94095
▁ball	-9.94193
▁bar	-9.94292
▁oppos	-9.94308
▁operate	-9.94345
▁foot	-9.94346
▁victor	-9.94483
ood	-9.94566
▁file	-9.9479
▁27	-9.94883
▁channel	-9.9499
ware	-9.9503
▁peace	-9.95103
head	-9.95168
ng	-9.95218
▁virus	-9.95266
▁showing	-9.95319
▁officer	-9.95351
▁crisis	-9.95356
A	-9.95428
▁wealth	-9.95578
▁Washing	-9.95647
▁designer	-9.95654
▁pain	-9.95676
▁supply	-9.95962
▁Where	-9.95977
▁proper	-9.96135
▁score	-9.96175
▁clean	-9.96211
▁fit	-9.96229
▁distribution	-9.96264
▁wish	-9.96351
▁oxygen	-9.96415
▁university	-9.96443
▁apply	-9.9646
▁faster	-9.96489
▁lose	-9.96615
▁emerg	-9.96648
▁province	-9.96743
▁28	-9.96743
▁sample	-9.96782
▁presence	-9.96846
▁standing	-9.96924
▁hot	-9.96953
▁Red	-9.9701
▁Royal	-9.97056
▁appli	-9.9706
▁continent	-9.97093
▁Over	-9.97148
▁author	-9.97165
▁capacity	-9.97226
▁etc	-9.97398
▁existence	-9.97544
▁bus	-9.97553
▁argu	-9.97562
▁phase	-9.97567
▁sister	-9.97575
▁hour	-9.9767
▁internal	-9.97771
▁poverty	-9.9779
▁188	-9.97845
▁Chicago	-9.97865
▁intelligence	-9.97866
▁supposed	-9.9789
▁categor	-9.97911
▁identifi	-9.97923
▁credit	-9.97965
▁strateg	-9.98007
▁newspaper	-9.9809
▁estimate	-9.98145
▁consequence	-9.98314
▁bank	-9.98381
wood	-9.98421
▁interaction	-9.98505
▁Paris	-9.98573
▁o	-9.98577
▁brand	-9.98617
▁High	-9.98626
▁massive	-9.98654
▁wonder	-9.98777
▁Henr	-9.98894
+	-9.98917
▁Arab	-9.99022
▁Rome	-9.99108
▁achieve	-9.99155
▁succeed	-9.99447
▁♪	-9.99447
▁Sun	-9.99499
▁teach	-9.99509
▁threat	-9.99564
▁correct	-9.99614
▁exchange	-9.99633
▁politic	-9.99643
▁dimension	-9.99832
▁equivalent	-9.99904
▁district	-9.9998
line	-10.003
▁putting	-10.0039
▁leaving	-10.0044
▁closed	-10.0048
▁187	-10.0053
▁decade	-10.0071
▁galax	-10.0075
▁native	-10.0075
▁Thu	-10.0078
▁tissue	-10.0082
▁football	-10.0091
▁sounds	-10.0103
▁Count	-10.0104
▁extra	-10.0106
▁circle	-10.0127
▁nice	-10.0129
▁con	-10.0147
▁resistan	-10.0157
▁Apollo	-10.0173
▁virtual	-10.0179
▁appoint	-10.0181
▁sub	-10.0186
▁expert	-10.0191
▁revolution	-10.0192
▁paint	-10.0193
▁indicate	-10.02
▁episode	-10.0201
▁gold	-10.0212
▁philosoph	-10.0216
▁waste	-10.0219
▁stone	-10.0226
▁stress	-10.0231
▁plane	-10.0246
▁expression	-10.0256
▁Both	-10.026
▁advance	-10.0264
▁crime	-10.0277
▁statement	-10.0283
▁door	-10.0284
▁investment	-10.0286
▁arriv	-10.0287
▁Also	-10.0289
▁Award	-10.0295
▁draw	-10.0309
▁floor	-10.0325
▁favorite	-10.0332
ad	-10.0344
▁Ital	-10.035
▁Eastern	-10.0352
▁mountain	-10.0372
▁setting	-10.0382
▁electronic	-10.0395
▁somebod	-10.0395
▁Book	-10.0399
▁colleague	-10.0411
▁attend	-10.0418
▁Italian	-10.0421
▁fan	-10.0433
▁select	-10.0438
▁Big	-10.044
▁Brazil	-10.0442
▁AD	-10.0442
tial	-10.0443
▁vary	-10.0453
▁edge	-10.0454
▁core	-10.0458
▁wood	-10.0464
▁baby	-10.0467
▁debate	-10.0472
▁Christ	-10.0483
ization	-10.0484
▁Peter	-10.0485
nt	-10.0487
▁note	-10.0488
▁observ	-10.0488
▁latter	-10.0491
▁impossibl	-10.0492
▁stopp	-10.0496
▁survive	-10.0499
▁hydrogen	-10.0502
▁desire	-10.0503
▁strength	-10.0504
▁brief	-10.0507
▁Nav	-10.0514
▁paid	-10.0528
▁atmosphere	-10.0542
▁background	-10.0542
▁Hall	-10.0556
▁Google	-10.058
▁Russia	-10.059
▁warm	-10.0593
▁environmental	-10.061
▁tool	-10.0612
▁zone	-10.0613
▁script	-10.062
▁genes	-10.0628
▁enem	-10.0629
▁western	-10.0647
ra	-10.0653
▁formation	-10.0653
▁Who	-10.0654
▁creative	-10.0661
▁vast	-10.0662
▁identity	-10.0663
▁reject	-10.0664
▁federal	-10.0677
▁broadcast	-10.0679
▁super	-10.0684
▁guess	-10.0694
▁physics	-10.0696
men	-10.0697
ius	-10.0699
K	-10.0705
▁expensive	-10.071
▁honor	-10.0718
▁musical	-10.0719
▁Dutch	-10.072
▁Institute	-10.072
▁organiz	-10.0732
▁respective	-10.0734
▁Ba	-10.074
▁activit	-10.0746
▁ran	-10.0767
▁extraordinar	-10.0768
▁variable	-10.0769
▁historian	-10.0774
▁Battle	-10.0784
▁agreement	-10.0786
▁govern	-10.0789
▁poem	-10.0809
▁Mars	-10.0813
▁Bay	-10.0833
▁aim	-10.0837
▁facilit	-10.0842
▁underst	-10.0844
▁tax	-10.0848
▁thank	-10.0857
▁recogniz	-10.0861
▁technical	-10.087
▁option	-10.0879
▁roll	-10.0886
▁ready	-10.0897
▁cave	-10.0903
▁manufactur	-10.0905
▁Blue	-10.0907
▁fell	-10.0909
▁chain	-10.0919
▁Albert	-10.0919
▁fighting	-10.0924
▁winter	-10.0926
▁fun	-10.0931
▁Bill	-10.0938
▁fourth	-10.0939
▁Ho	-10.0946
▁Common	-10.0951
▁Egypt	-10.0958
▁expansion	-10.0959
▁agent	-10.0962
▁fac	-10.0994
▁equip	-10.1
▁Minister	-10.1001
▁Old	-10.1004
▁Columbia	-10.1007
▁solid	-10.1014
▁Center	-10.1019
▁severe	-10.1028
▁distinct	-10.1046
▁encourage	-10.105
▁surprise	-10.1052
▁evolved	-10.1057
▁White	-10.1069
▁crew	-10.107
▁compos	-10.1081
▁declar	-10.1082
▁extensive	-10.1086
▁Australian	-10.1089
▁yes	-10.1107
▁manag	-10.111
▁smart	-10.1121
▁Island	-10.1121
▁variation	-10.1121
▁cat	-10.1125
▁orbit	-10.1127
▁concentration	-10.114
▁sleep	-10.1149
▁classical	-10.1149
▁previously	-10.1156
▁Follow	-10.1172
▁seek	-10.1179
▁Islands	-10.1188
▁Z	-10.1212
▁walking	-10.1213
v	-10.1218
▁identify	-10.1218
▁biological	-10.1229
▁deriv	-10.1231
▁frequently	-10.1233
▁balance	-10.1241
▁programm	-10.1241
▁detect	-10.1249
▁coin	-10.1255
▁dangerous	-10.1259
▁curve	-10.1269
▁capture	-10.1272
▁neighborhood	-10.1275
▁mobile	-10.128
▁sentence	-10.1289
▁mine	-10.129
▁independen	-10.129
▁III	-10.1292
▁densit	-10.1305
▁protection	-10.1313
ter	-10.1315
ership	-10.1317
▁Bank	-10.1321
▁apparent	-10.1336
em	-10.1337
▁soil	-10.1339
▁500	-10.1348
▁determine	-10.1377
▁complicated	-10.1378
▁slave	-10.1378
▁birds	-10.1388
taken	-10.139
▁pictures	-10.139
▁liquid	-10.1397
▁worldwide	-10.1401
▁35	-10.1411
0,000	-10.1411
▁instruction	-10.1417
▁measur	-10.1417
▁suit	-10.142
▁favor	-10.1425
▁drawing	-10.143
▁interact	-10.1433
▁prison	-10.1438
▁extend	-10.1439
▁Northern	-10.1441
▁Museum	-10.1459
▁Scot	-10.1469
▁31	-10.1469
▁discuss	-10.1474
▁invest	-10.1481
▁agreed	-10.1485
▁collective	-10.1488
▁researcher	-10.1491
et	-10.1493
co	-10.1507
▁apart	-10.151
▁error	-10.1512
▁faith	-10.1519
▁Angel	-10.1534
▁plastic	-10.1539
▁twice	-10.1548
▁website	-10.1548
▁opposite	-10.1548
incredibly	-10.1548
▁exception	-10.1553
▁adapt	-10.1554
▁clearly	-10.1557
ah	-10.156
▁earth	-10.156
▁upper	-10.156
▁platform	-10.1569
▁league	-10.157
▁bright	-10.1571
▁implement	-10.1571
▁meter	-10.1575
▁contemporar	-10.158
▁Go	-10.1596
▁Science	-10.1601
▁Earl	-10.1606
▁mathematics	-10.161
▁Christmas	-10.161
▁29	-10.1639
▁frequenc	-10.1642
▁stick	-10.1654
▁museum	-10.1655
▁Wal	-10.1657
▁glass	-10.1662
▁eastern	-10.1665
▁Look	-10.1675
▁minor	-10.1687
▁confirm	-10.1692
▁promise	-10.1692
▁request	-10.1692
▁dry	-10.1694
▁Compan	-10.1698
▁pure	-10.1702
▁none	-10.1704
▁settlement	-10.1719
▁Smith	-10.1727
▁indeed	-10.1728
▁opening	-10.1729
▁Southern	-10.1737
ble	-10.1758
▁unlike	-10.1758
▁Louis	-10.1759
▁Mexic	-10.1762
▁neighbor	-10.1773
▁dramatic	-10.1774
▁Re	-10.178
▁x	-10.1782
▁magnitude	-10.1792
▁feed	-10.18
▁transition	-10.1806
▁Nation	-10.1811
▁attract	-10.1822
▁Her	-10.1825
▁husband	-10.1828
▁dog	-10.183
▁See	-10.1843
▁GDP	-10.1847
▁185	-10.1849
▁boat	-10.1863
▁hair	-10.1865
▁achiev	-10.187
▁mathematical	-10.1874
▁check	-10.1883
▁management	-10.1909
▁radical	-10.1911
▁drop	-10.1916
▁chief	-10.1926
▁solutions	-10.1933
▁observation	-10.1933
▁master	-10.1953
term	-10.1968
▁universal	-10.1976
▁cheap	-10.1976
▁Saint	-10.1985
▁extended	-10.1988
▁skills	-10.1991
▁Arabic	-10.2
▁import	-10.2006
▁label	-10.201
▁tru	-10.2011
▁net	-10.2011
▁agree	-10.2012
▁speaker	-10.2013
▁librar	-10.2021
▁efficient	-10.2022
▁retain	-10.2023
▁landscape	-10.2023
▁infrastructure	-10.2023
▁notion	-10.2035
▁actor	-10.2046
▁afford	-10.2051
▁prominent	-10.2056
▁consumer	-10.2058
▁biolog	-10.206
▁Sever	-10.2067
N	-10.2069
▁relations	-10.2072
▁organ	-10.2081
▁practical	-10.2101
▁featur	-10.2103
▁giant	-10.2111
▁ratio	-10.2113
▁Los	-10.2121
▁input	-10.2131
▁System	-10.2135
▁random	-10.2143
▁184	-10.2148
▁distinguish	-10.2153
▁Israel	-10.216
ious	-10.2174
ility	-10.2182
▁broad	-10.2191
▁bodi	-10.2191
▁council	-10.2192
▁Three	-10.2202
é	-10.2213
▁traffic	-10.2213
▁victim	-10.2221
▁consciousness	-10.2222
▁ideal	-10.2224
▁Pacific	-10.2224
▁satellite	-10.223
▁firm	-10.2248
▁administration	-10.2248
▁neurons	-10.225
▁regional	-10.2252
▁advanc	-10.2263
ver	-10.2267
not	-10.2274
▁permanent	-10.2281
▁improv	-10.2282
▁Video	-10.2297
▁prior	-10.2298
▁domestic	-10.2301
▁mouth	-10.2307
▁complet	-10.2309
▁straight	-10.2317
ories	-10.2329
▁decide	-10.2333
▁processe	-10.2333
▁dialect	-10.2336
▁sustain	-10.2342
ory	-10.2353
B	-10.2357
▁Un	-10.2371
▁recording	-10.2371
▁Lord	-10.2375
▁polic	-10.2376
century	-10.2383
▁everywhere	-10.2414
▁spring	-10.2445
▁foundation	-10.2446
▁holding	-10.2451
▁Later	-10.2451
ant	-10.2456
io	-10.2467
▁Berlin	-10.2472
▁prime	-10.2475
▁survey	-10.2492
▁symptom	-10.2492
▁participat	-10.2495
▁judge	-10.2499
▁frame	-10.25
▁output	-10.2503
▁capable	-10.2504
▁determined	-10.2514
▁Michael	-10.2521
▁300	-10.2526
▁export	-10.2534
▁Under	-10.2537
da	-10.2541
▁prov	-10.2549
▁convince	-10.2551
▁branch	-10.2552
▁discovery	-10.256
▁genome	-10.258
▁minister	-10.258
▁defense	-10.2585
▁comic	-10.2589
▁therap	-10.2589
▁generate	-10.26
▁quantum	-10.26
▁Maybe	-10.2605
▁tank	-10.261
▁jump	-10.262
▁overall	-10.2624
▁conference	-10.264
▁alcohol	-10.2645
▁Jesu	-10.2669
°	-10.267
▁desert	-10.267
▁worse	-10.2677
▁familiar	-10.268
efore	-10.2688
▁passenger	-10.2689
gen	-10.2693
▁Academ	-10.2695
▁resident	-10.2699
▁weapons	-10.2699
▁civilization	-10.27
▁sky	-10.2705
▁profit	-10.2711
▁producer	-10.2712
▁183	-10.2713
▁candidate	-10.272
na	-10.272
▁creature	-10.2721
▁Ca	-10.2724
▁lesson	-10.2725
▁Revolution	-10.273
ca	-10.2731
ina	-10.2732
▁manager	-10.2733
am	-10.2743
▁surrounding	-10.2744
life	-10.2755
▁Mary	-10.2758
▁stor	-10.2777
▁enormous	-10.278
▁Lake	-10.2781
▁depression	-10.2781
▁injur	-10.2783
▁gene	-10.2786
▁winning	-10.2796
oxide	-10.2801
▁unknown	-10.2803
▁insect	-10.281
▁appeal	-10.281
▁cook	-10.2824
▁portion	-10.2827
▁belong	-10.2828
▁driving	-10.283
▁Frank	-10.2839
▁labor	-10.284
▁broken	-10.2848
▁Car	-10.2851
ma	-10.2857
▁web	-10.2868
▁fresh	-10.2871
▁replace	-10.2874
▁staff	-10.2881
▁stable	-10.2884
▁la	-10.2886
▁45	-10.2893
▁quarter	-10.2893
▁substance	-10.2902
▁decline	-10.2928
▁communicate	-10.293
▁patent	-10.2932
▁Once	-10.2934
how	-10.294
▁missile	-10.2943
▁sports	-10.2962
▁crazy	-10.2963
▁infection	-10.2966
▁defend	-10.2968
▁iron	-10.2968
▁opinion	-10.2973
▁muscle	-10.2984
▁crop	-10.299
▁spirit	-10.2993
▁Green	-10.2998
ification	-10.3
▁emotion	-10.3006
▁format	-10.3023
▁captur	-10.3029
▁uniform	-10.3035
▁exciting	-10.304
▁Martin	-10.3046
▁coal	-10.3053
▁dispute	-10.3056
▁organic	-10.3059
▁Government	-10.3077
▁alive	-10.3082
▁vessel	-10.3087
▁trouble	-10.3087
ought	-10.3091
▁abandon	-10.3098
▁bi	-10.3102
▁blind	-10.3106
▁translation	-10.3144
▁fashion	-10.3151
▁circuit	-10.3152
▁edition	-10.3153
ite	-10.3161
▁visibl	-10.3164
▁arms	-10.3168
▁comput	-10.3171
▁g	-10.3173
▁fixed	-10.3185
▁manage	-10.3186
▁radiation	-10.3192
▁refus	-10.3207
▁comment	-10.3208
▁scholars	-10.3209
▁Life	-10.3213
▁academic	-10.3214
▁quantit	-10.3228
▁150	-10.3234
▁1930	-10.3234
▁description	-10.3234
▁dedicat	-10.324
▁spoken	-10.325
▁spot	-10.3254
▁plate	-10.3267
▁marked	-10.3272
▁Atlantic	-10.3274
▁exercise	-10.3276
▁agricultur	-10.3279
▁differ	-10.3287
▁publication	-10.3287
▁transfer	-10.3291
▁Young	-10.3297
board	-10.3298
▁parallel	-10.3303
▁attach	-10.3317
▁accurate	-10.333
▁Association	-10.334
▁trace	-10.3341
▁remarkabl	-10.3342
▁Game	-10.3343
▁trip	-10.3343
▁gun	-10.3347
dimensional	-10.335
▁driver	-10.3355
▁scar	-10.3359
▁customer	-10.3361
▁electrical	-10.3361
▁Department	-10.3361
off	-10.3373
▁Are	-10.3376
▁dat	-10.3376
▁outcome	-10.3383
▁n	-10.3383
▁broke	-10.3389
▁encounter	-10.3393
C	-10.3396
▁weak	-10.3399
▁stock	-10.3412
▁hunt	-10.3415
▁spiritual	-10.3416
▁responsibility	-10.3416
▁steel	-10.3426
▁prove	-10.3426
▁Bost	-10.3428
▁grown	-10.3429
▁Colo	-10.343
▁stat	-10.3431
▁divers	-10.3432
kay	-10.3433
▁dynamic	-10.3436
▁haven	-10.3447
▁classe	-10.3447
▁complexit	-10.3451
▁graph	-10.3457
▁assembl	-10.3458
fare	-10.3462
▁discussion	-10.3464
▁split	-10.3467
▁Turk	-10.347
▁depict	-10.3475
▁Ma	-10.3475
▁angle	-10.3481
▁employee	-10.3481
istic	-10.3484
▁Sir	-10.3485
▁spin	-10.3487
▁struggle	-10.3492
▁sugar	-10.3501
▁healthy	-10.3502
▁beaut	-10.3505
▁murder	-10.3505
▁enable	-10.3512
▁75	-10.3513
▁medium	-10.3519
▁phrase	-10.3519
▁justice	-10.3524
▁multi	-10.3528
▁mix	-10.3531
▁chart	-10.3539
▁Di	-10.3554
▁lies	-10.3555
▁worst	-10.3556
▁partner	-10.3564
▁fix	-10.3573
▁k	-10.3574
▁height	-10.3583
▁disappear	-10.3587
▁generat	-10.3602
▁peak	-10.3605
▁procedure	-10.3608
▁El	-10.3611
ga	-10.3621
▁importan	-10.363
▁interface	-10.3632
▁Egyptian	-10.3634
▁interpretation	-10.3635
▁inner	-10.3649
▁notable	-10.3653
▁Emperor	-10.3654
▁fossil	-10.366
▁breath	-10.366
▁criminal	-10.3665
▁opposition	-10.3665
▁contribut	-10.3668
▁Per	-10.3685
FL	-10.3702
▁catch	-10.3712
▁register	-10.372
▁strip	-10.3726
▁cast	-10.3728
▁weather	-10.3732
▁department	-10.3732
▁sport	-10.3735
▁pitch	-10.3737
▁careful	-10.3739
▁precise	-10.3743
▁sand	-10.3747
▁budget	-10.3747
▁sales	-10.3749
▁HIV	-10.3754
▁saving	-10.3766
▁studio	-10.3766
▁earn	-10.3766
▁Adam	-10.3768
▁dy	-10.3768
▁accident	-10.3773
▁Dan	-10.3774
▁please	-10.378
eath	-10.3782
▁reign	-10.3787
nd	-10.3789
▁continuous	-10.3798
▁external	-10.3798
▁Bible	-10.3804
▁ethnic	-10.3808
▁stem	-10.382
▁compassion	-10.3843
▁hero	-10.3844
▁extent	-10.3854
▁fruit	-10.3854
▁domain	-10.3855
▁flower	-10.3857
▁bough	-10.386
▁transformation	-10.3862
▁fleet	-10.3866
▁bound	-10.3867
▁mixed	-10.3871
▁load	-10.3892
bas	-10.3894
ology	-10.3895
un	-10.3898
▁promote	-10.3899
▁Parliament	-10.3906
▁1,000	-10.3907
▁soul	-10.3911
I	-10.3915
▁nor	-10.3919
▁nav	-10.3925
lo	-10.3927
▁streets	-10.393
▁heavi	-10.393
▁excited	-10.3932
ray	-10.3935
▁Age	-10.3936
▁diet	-10.3946
ri	-10.3953
▁noise	-10.3959
▁threaten	-10.396
▁arrest	-10.3967
▁yield	-10.3967
▁combat	-10.3968
▁representation	-10.397
▁artificial	-10.3971
▁Brown	-10.3978
ize	-10.3987
▁principal	-10.399
▁Ire	-10.4
▁composition	-10.4006
▁explore	-10.4007
▁odd	-10.4013
▁Among	-10.4013
il	-10.4016
ated	-10.402
▁column	-10.4023
▁Further	-10.4025
▁Constantin	-10.403
▁10,000	-10.4034
▁dinosaur	-10.4036
▁1920	-10.4036
▁suffering	-10.4037
▁Societ	-10.4047
▁liberal	-10.4047
▁gradual	-10.4049
▁chosen	-10.4054
T	-10.4057
▁mechanical	-10.4071
▁chemistr	-10.4072
▁rural	-10.4081
▁yellow	-10.4081
▁bass	-10.4087
▁Ro	-10.4094
ha	-10.4107
▁commission	-10.4109
▁theme	-10.411
▁stream	-10.4114
▁Chris	-10.4119
▁occasional	-10.4126
▁critic	-10.4138
▁sing	-10.4143
▁moon	-10.4144
▁joint	-10.4145
▁strange	-10.4148
▁ancestor	-10.4151
▁linear	-10.4162
▁collapse	-10.4167
▁acquir	-10.417
go	-10.4174
▁constitution	-10.4184
▁hearing	-10.4186
▁email	-10.4186
▁reserve	-10.4205
▁ring	-10.4206
▁Through	-10.4209
▁remind	-10.4213
▁Serie	-10.4215
▁Cup	-10.4217
▁farm	-10.4219
▁Valley	-10.422
▁shell	-10.4226
▁181	-10.4238
▁Grand	-10.4245
over	-10.4254
▁Civil	-10.4278
▁empire	-10.4279
▁consistent	-10.4285
▁Francisco	-10.429
▁Bell	-10.429
▁switch	-10.4292
▁grand	-10.4313
▁vector	-10.4314
▁dominat	-10.4316
▁Ten	-10.4329
▁surround	-10.4332
▁counter	-10.4332
▁cable	-10.4332
▁architect	-10.4337
▁explanation	-10.4337
▁Joseph	-10.4349
▁Ver	-10.4371
▁Einstein	-10.4373
▁32	-10.4376
▁reverse	-10.4381
▁gift	-10.4396
▁terribl	-10.4396
▁conservative	-10.4397
▁dropp	-10.4397
▁pilot	-10.44
▁corner	-10.4407
▁beat	-10.4412
▁topic	-10.4416
L	-10.4423
▁escape	-10.4423
▁phenomeno	-10.4428
▁camp	-10.4429
H	-10.4434
▁seed	-10.4442
▁gender	-10.4444
▁transportation	-10.445
▁railway	-10.4458
▁forth	-10.4468
▁airport	-10.4481
▁sum	-10.4485
▁statistic	-10.4492
▁solv	-10.45
▁meat	-10.4511
▁flat	-10.4515
za	-10.4516
▁coffee	-10.4516
▁maximum	-10.4516
▁Irish	-10.4521
▁Human	-10.453
▁prepared	-10.4531
▁killing	-10.4534
▁magic	-10.4541
▁400	-10.4546
▁fiction	-10.4548
▁Ocean	-10.4552
▁Republican	-10.4559
▁copy	-10.4561
▁kingdom	-10.4564
▁distribut	-10.4574
▁myth	-10.4575
▁Amazon	-10.4576
▁dynast	-10.4576
▁Queen	-10.4578
▁crowd	-10.4584
▁Johnson	-10.4593
▁engage	-10.4595
▁Hill	-10.4599
hi	-10.4599
▁bunch	-10.46
▁narrative	-10.4603
what	-10.4604
▁requirement	-10.4607
▁sufficient	-10.4612
▁sick	-10.4614
▁Detroit	-10.4624
▁Gree	-10.4632
G	-10.4632
▁protest	-10.4647
▁lay	-10.4648
losing	-10.4649
▁happiness	-10.4652
▁Star	-10.4671
▁Holly	-10.4678
▁remove	-10.4678
▁Ben	-10.4691
▁climb	-10.4692
▁legislati	-10.4693
▁aware	-10.4695
▁stoo	-10.4698
▁executive	-10.4698
▁household	-10.4699
▁philosopher	-10.4705
▁citizen	-10.4708
▁gap	-10.471
▁settl	-10.4712
▁Sometime	-10.4716
▁restaurant	-10.4722
eval	-10.4724
▁emotional	-10.4727
▁colour	-10.4734
▁appropriate	-10.4748
▁Times	-10.4758
▁narrow	-10.4759
▁item	-10.4762
sumption	-10.4764
▁substantial	-10.4771
ling	-10.4771
▁secure	-10.4774
▁repeated	-10.4776
▁Darwin	-10.4782
▁Texas	-10.4783
our	-10.4795
▁exhibit	-10.4803
▁wherea	-10.4811
▁Jackson	-10.4821
▁infinite	-10.4826
po	-10.4832
▁wound	-10.4834
▁forc	-10.4835
▁Law	-10.4838
▁invit	-10.4839
▁interpret	-10.4847
▁Love	-10.4849
▁contribution	-10.485
▁concrete	-10.4858
▁Final	-10.4861
▁Ar	-10.4861
▁musician	-10.4866
▁Service	-10.487
R	-10.4873
▁recommend	-10.4879
▁Iraq	-10.4888
▁Pope	-10.489
▁debt	-10.4892
▁association	-10.4896
spread	-10.4902
▁spoke	-10.4904
▁introduction	-10.4908
▁Olympic	-10.492
▁approve	-10.4932
▁Con	-10.4933
▁antibiotic	-10.4945
▁mistake	-10.4948
▁sought	-10.4951
▁unusual	-10.4958
▁representative	-10.4959
▁180	-10.4961
▁diversit	-10.4965
▁assign	-10.4965
▁baseball	-10.4971
▁compress	-10.4971
▁fellow	-10.4973
▁skill	-10.4973
▁BBC	-10.4974
▁combine	-10.4976
▁occupie	-10.4985
▁sides	-10.4986
▁fifth	-10.4994
▁analog	-10.5006
▁brown	-10.5008
▁clock	-10.502
▁Mountain	-10.502
▁politician	-10.5022
km	-10.5028
▁breed	-10.5029
▁affair	-10.5033
▁magnetic	-10.5035
▁pop	-10.5037
▁parent	-10.5042
▁mom	-10.5043
▁intellectual	-10.5045
▁tons	-10.5059
▁improvement	-10.5062
den	-10.5065
▁Health	-10.5066
▁ion	-10.5067
▁aren	-10.5069
▁invasion	-10.5071
▁surgery	-10.5071
▁doubt	-10.5074
▁poet	-10.5074
▁Ju	-10.5075
▁preserv	-10.5076
▁measurement	-10.5077
▁ordinar	-10.5078
▁calculate	-10.5083
▁graduate	-10.5091
▁farmers	-10.5096
▁childhood	-10.5097
▁Modern	-10.5109
▁33	-10.5121
▁lift	-10.5122
▁profound	-10.5122
ler	-10.5126
ho	-10.5133
▁molecular	-10.5134
▁Co	-10.5145
▁carrier	-10.5147
▁Up	-10.515
▁row	-10.5161
▁Croatia	-10.5163
▁Asian	-10.5165
▁Persian	-10.5169
▁journal	-10.5171
▁conclusion	-10.5173
▁exclusive	-10.5186
▁bill	-10.5187
▁Edward	-10.5198
▁binar	-10.5205
daily	-10.5208
▁crystal	-10.5211
▁Group	-10.5212
▁182	-10.5222
▁Protestant	-10.5224
▁Such	-10.5227
▁supplie	-10.5236
magine	-10.5236
▁perception	-10.5238
▁prisoner	-10.5241
▁ensure	-10.5242
▁refugee	-10.5242
▁Prince	-10.525
▁Czech	-10.525
▁dozen	-10.525
▁agricultural	-10.5259
▁missing	-10.5262
▁Time	-10.5266
▁younger	-10.5274
▁revenue	-10.5276
▁willing	-10.5277
▁percentage	-10.5277
▁journalist	-10.5278
▁conventional	-10.5281
E	-10.5282
▁Orthodox	-10.5289
▁honest	-10.5289
ative	-10.5292
▁Islamic	-10.53
▁1940	-10.5302
▁copie	-10.5303
▁opportunit	-10.5311
▁Year	-10.533
▁indicat	-10.5335
▁react	-10.5337
▁grain	-10.5339
▁Research	-10.5343
▁Bo	-10.5346
▁bird	-10.535
▁illness	-10.5355
▁decrease	-10.5359
▁temple	-10.5367
P	-10.5373
▁Mark	-10.5374
▁ex	-10.5376
▁cluster	-10.538
▁clinical	-10.5391
ably	-10.5401
▁invention	-10.5402
▁sat	-10.5404
▁committ	-10.5404
hand	-10.5405
▁strike	-10.5406
▁window	-10.5409
▁dot	-10.5413
▁mere	-10.5417
▁kilometer	-10.5423
▁gather	-10.5432
drew	-10.5433
▁union	-10.5437
▁Y	-10.5439
▁luck	-10.544
▁Ne	-10.5443
▁functional	-10.5453
▁guitar	-10.5471
▁CO	-10.5472
▁Tom	-10.5473
▁horse	-10.5478
tari	-10.5492
▁Mar	-10.5493
▁circumstance	-10.5498
▁theorem	-10.5512
▁atomic	-10.5514
▁tail	-10.5516
▁assum	-10.5521
▁dominant	-10.5525
▁garden	-10.5525
▁extension	-10.5525
▁custom	-10.5527
▁flag	-10.5537
▁regulation	-10.554
▁Mu	-10.5547
▁operator	-10.5548
▁colony	-10.555
▁chapter	-10.5551
▁Ottoman	-10.5552
▁reward	-10.5552
▁Four	-10.5563
known	-10.5565
▁passion	-10.5572
▁divide	-10.5577
▁chair	-10.5577
▁Vietnam	-10.5578
▁Mo	-10.5586
▁Cuba	-10.5587
▁bishop	-10.5591
▁Lincoln	-10.5591
▁contribute	-10.5604
▁tall	-10.5609
iller	-10.5614
ford	-10.5618
call	-10.5629
▁festival	-10.5632
▁governor	-10.5632
▁classic	-10.5633
▁surprising	-10.5645
▁hop	-10.5654
uch	-10.5654
▁recognition	-10.5658
▁participate	-10.5671
▁identical	-10.5672
▁wheel	-10.5676
▁Suprem	-10.5685
▁diamond	-10.5685
▁Mi	-10.569
ors	-10.5691
▁lie	-10.5693
▁Mr	-10.5693
▁classifi	-10.5706
▁sharing	-10.571
▁database	-10.5713
▁Take	-10.5716
▁illegal	-10.5726
▁disk	-10.5727
▁rail	-10.5733
▁steps	-10.5742
▁Cape	-10.5748
▁proof	-10.5753
▁indigen	-10.5753
▁entit	-10.5756
▁v	-10.576
▁photo	-10.5763
▁Similar	-10.5767
▁install	-10.5769
▁naturally	-10.5772
▁sight	-10.5779
▁absorb	-10.578
▁tumor	-10.578
destruction	-10.578
▁abuse	-10.5786
ey	-10.5793
▁poetry	-10.5796
▁restrict	-10.5797
▁introduce	-10.5798
▁burn	-10.5798
▁influen	-10.5801
▁guns	-10.5805
▁mount	-10.5807
▁chose	-10.581
▁priest	-10.582
▁Committee	-10.5821
▁regime	-10.5834
▁fold	-10.5845
ee	-10.5851
▁assume	-10.5853
▁array	-10.5863
▁emperor	-10.5865
▁coach	-10.587
▁Good	-10.5874
▁valley	-10.5876
▁false	-10.589
▁100,000	-10.5897
▁Li	-10.5903
▁opponent	-10.5903
▁math	-10.5904
▁reduction	-10.5904
▁Pakistan	-10.591
▁65	-10.5913
▁thin	-10.5914
▁Columb	-10.5914
▁client	-10.5917
▁spectrum	-10.5918
M	-10.5919
▁concert	-10.5926
▁exploit	-10.5934
▁Phil	-10.5939
▁Po	-10.5943
hire	-10.5944
▁compare	-10.5948
▁Your	-10.5958
▁Boy	-10.5958
▁professor	-10.5958
▁grade	-10.5963
▁extract	-10.5982
▁Space	-10.5982
▁tourist	-10.5982
▁universit	-10.5988
▁crash	-10.599
▁vertical	-10.5996
▁inter	-10.6001
▁Iran	-10.6004
▁integrat	-10.6006
▁roads	-10.6013
▁Which	-10.6015
▁experienc	-10.602
▁variant	-10.6028
▁inform	-10.6033
▁medi	-10.6034
▁promot	-10.6038
and	-10.6044
▁Alexandria	-10.6046
▁usage	-10.6047
▁monitor	-10.6054
ph	-10.6055
au	-10.6055
▁theater	-10.6056
▁logic	-10.6066
▁Lab	-10.6075
▁manufacturer	-10.608
▁objective	-10.608
▁Best	-10.6082
▁views	-10.6084
▁expedition	-10.6084
▁tough	-10.6087
▁deeply	-10.609
▁manner	-10.6103
▁Islam	-10.6108
▁pro	-10.6109
▁engaged	-10.6117
American	-10.6122
▁convention	-10.6123
▁Me	-10.6124
▁vaccine	-10.6126
▁plot	-10.6146
op	-10.6153
▁fantastic	-10.6155
▁influenc	-10.6155
▁1982	-10.6157
▁micro	-10.6159
O	-10.6159
▁alter	-10.6169
▁lifetime	-10.6173
▁authors	-10.6178
▁mark	-10.6182
▁lake	-10.6183
▁census	-10.6184
▁discipline	-10.6192
▁alphabet	-10.6196
▁rational	-10.6197
▁mineral	-10.62
▁automatic	-10.6206
ill	-10.6211
▁Major	-10.6216
▁genre	-10.6226
bean	-10.6228
▁Will	-10.623
ner	-10.6231
▁sphere	-10.6237
▁violent	-10.6238
▁handle	-10.6243
▁Wom	-10.6243
▁resolution	-10.6244
▁dense	-10.6244
#	-10.625
▁melt	-10.625
▁translat	-10.6253
▁fluid	-10.6255
▁filter	-10.6257
▁modifi	-10.6258
▁Rock	-10.6261
▁tribes	-10.6271
▁Pe	-10.6271
▁isolat	-10.6275
▁repair	-10.6276
▁wire	-10.6278
▁mirror	-10.6283
▁strict	-10.6283
▁coral	-10.6283
▁Costa	-10.6284
▁drawn	-10.6285
im	-10.6291
▁snow	-10.6297
▁Duke	-10.6298
▁declin	-10.6303
▁passage	-10.6304
▁campus	-10.6306
▁assumption	-10.6308
▁headquarter	-10.6313
if	-10.6323
▁Carib	-10.6326
▁nucle	-10.6332
▁spaces	-10.6339
▁soft	-10.6339
▁afraid	-10.634
▁eating	-10.6342
▁van	-10.6342
ese	-10.6342
▁slide	-10.6342
▁Never	-10.6347
ground	-10.635
rich	-10.6367
▁pioneer	-10.6369
▁flood	-10.6369
▁Prime	-10.6371
scale	-10.6371
gun	-10.638
▁factory	-10.6381
▁NASA	-10.6383
▁sail	-10.6392
▁silver	-10.6399
▁coordinate	-10.6404
▁cloud	-10.6404
▁mountains	-10.6411
▁Christians	-10.6424
▁Prize	-10.6427
▁shock	-10.6443
openha	-10.6456
▁tape	-10.6462
▁advertis	-10.6463
▁cavalry	-10.6471
▁mode	-10.6478
▁yea	-10.6485
▁occasion	-10.6486
ig	-10.6492
▁Any	-10.6499
opper	-10.6503
rado	-10.6509
▁expos	-10.6515
ti	-10.6528
▁ritual	-10.6529
▁Gold	-10.6537
▁mammal	-10.6543
▁Airport	-10.6544
▁anyway	-10.6546
▁shop	-10.6548
▁36	-10.6549
ci	-10.6549
▁motor	-10.6554
▁truck	-10.6555
▁volunteer	-10.6558
▁Did	-10.6571
▁pump	-10.6573
▁corporation	-10.6573
▁fiber	-10.6573
▁cognitive	-10.6588
▁smell	-10.6588
▁mouse	-10.6588
▁Due	-10.6599
▁Senat	-10.6601
▁Facebook	-10.6603
▁resist	-10.6608
▁royal	-10.6616
▁taste	-10.6618
▁miss	-10.6621
▁abstract	-10.6628
▁Portuguese	-10.6632
▁march	-10.6635
▁depth	-10.6637
▁th	-10.6639
▁selection	-10.6642
▁Super	-10.6643
▁ver	-10.6654
▁Chile	-10.6662
▁Zealand	-10.6662
▁codice	-10.6662
ol	-10.6667
▁remote	-10.6672
don	-10.6674
▁colon	-10.6674
▁nei	-10.6684
▁CD	-10.6685
▁scheme	-10.6692
▁Ra	-10.67
▁distinction	-10.67
▁habitat	-10.6702
▁Though	-10.6704
▁membrane	-10.6707
▁Constitution	-10.6722
▁bubble	-10.673
▁Del	-10.6737
cut	-10.6739
night	-10.674
▁rid	-10.6741
▁colonial	-10.6749
▁administrative	-10.6752
▁powers	-10.676
▁transferr	-10.6761
▁successor	-10.6763
▁challeng	-10.6764
▁Think	-10.6767
▁Sweden	-10.6769
ot	-10.6771
▁doctrine	-10.6775
▁sculpture	-10.6782
▁inhabitant	-10.6782
while	-10.6785
▁forget	-10.6786
▁probabilit	-10.6789
ible	-10.6793
▁toxic	-10.6795
▁Andrew	-10.6797
▁winner	-10.6798
ington	-10.6804
▁Have	-10.6809
ivity	-10.6813
ck	-10.6815
▁Division	-10.6827
▁imagination	-10.6829
▁relation	-10.6832
▁bow	-10.6838
▁derive	-10.6839
▁demonstrat	-10.6839
▁disaster	-10.6842
▁ecosystem	-10.6842
▁hidden	-10.6842
▁assault	-10.6842
▁senior	-10.6843
▁Nor	-10.6846
▁proportion	-10.6851
▁reputation	-10.6857
▁brains	-10.6858
▁gay	-10.6859
▁bomb	-10.6866
ose	-10.6867
▁bag	-10.6867
▁lowest	-10.6872
▁mixture	-10.6873
▁civilian	-10.6876
▁incorporat	-10.6881
▁bicycle	-10.6884
▁1987	-10.6887
▁Buddha	-10.6888
truck	-10.6888
▁mo	-10.6891
▁fat	-10.6892
▁ceremon	-10.6902
▁derivative	-10.6903
▁plus	-10.6917
▁min	-10.6932
▁decay	-10.6933
▁legend	-10.6934
ster	-10.6934
▁hous	-10.6939
bit	-10.6952
▁witness	-10.6954
▁incident	-10.6957
▁Championship	-10.6964
▁lung	-10.6964
no	-10.6978
▁telescope	-10.6982
▁Treat	-10.6993
lt	-10.6999
▁constellation	-10.701
▁Doctor	-10.701
▁marine	-10.7011
▁conscious	-10.7017
▁serving	-10.7019
ge	-10.7023
▁mathematician	-10.7025
▁prize	-10.703
▁criticism	-10.7033
▁minimum	-10.7041
▁comparison	-10.7041
vi	-10.7042
▁lawyer	-10.7042
com	-10.7044
▁telephone	-10.7046
▁democratic	-10.7055
▁currenc	-10.7056
▁talent	-10.7057
▁cloth	-10.7062
▁wine	-10.7062
▁efficienc	-10.7067
▁delay	-10.7072
surance	-10.7072
▁Cleve	-10.7076
▁pack	-10.7076
▁disc	-10.7078
▁exhibition	-10.7079
▁beer	-10.7081
▁deploy	-10.7085
▁conclud	-10.7087
▁dollar	-10.7089
etween	-10.7101
▁session	-10.7103
▁evil	-10.7105
▁classification	-10.7105
▁minds	-10.7107
▁Sam	-10.7112
BM	-10.7113
▁deposit	-10.7114
▁server	-10.7117
▁intervention	-10.7118
▁experimental	-10.7123
▁bottle	-10.7129
▁fragment	-10.7134
▁manuscript	-10.7134
▁ending	-10.7139
▁nervous	-10.715
▁theoretical	-10.715
▁babi	-10.7152
▁educational	-10.7163
▁roof	-10.7165
“	-10.7165
▁Project	-10.7165
▁panel	-10.7165
▁Den	-10.7171
▁Steve	-10.7174
▁historic	-10.7175
▁rely	-10.7178
▁insight	-10.7186
▁Moon	-10.7189
▁loop	-10.7191
▁valuable	-10.7197
▁singer	-10.7208
▁finger	-10.7209
▁Sch	-10.722
▁worry	-10.7222
▁plac	-10.7225
▁node	-10.7228
▁arrangement	-10.7228
▁Mac	-10.7237
▁correspond	-10.7238
▁Coast	-10.7244
▁notabl	-10.7251
▁buri	-10.7253
▁Lu	-10.7256
▁immigrant	-10.7259
▁Nobel	-10.7259
▁varie	-10.7261
▁Sunday	-10.7268
▁weapon	-10.7278
▁rival	-10.7281
▁bod	-10.7283
▁tunnel	-10.7286
▁tremendous	-10.7291
▁monarch	-10.7291
▁invisibl	-10.7292
▁Aristot	-10.7311
▁corresponding	-10.7312
▁sole	-10.7313
▁empty	-10.7318
▁danger	-10.7321
▁founder	-10.7325
▁audio	-10.7328
▁storm	-10.7336
▁hall	-10.7338
▁laid	-10.734
▁trend	-10.734
▁harm	-10.7357
▁Abou	-10.7359
ene	-10.7361
▁ingredient	-10.7371
£	-10.7387
▁purchase	-10.7389
▁committee	-10.7392
▁Wall	-10.74
▁Congo	-10.7403
me	-10.7406
round	-10.7406
▁relate	-10.7409
▁Film	-10.7419
▁proposal	-10.7422
▁stored	-10.7428
▁simultaneous	-10.7435
▁tower	-10.7438
▁stretch	-10.744
▁Hi	-10.7444
▁portray	-10.746
▁teeth	-10.7467
▁plain	-10.7467
▁hate	-10.7474
▁commander	-10.7474
▁Harvard	-10.7483
▁goals	-10.7486
▁enzyme	-10.7489
▁controvers	-10.7498
versus	-10.7499
▁wo	-10.7502
▁salt	-10.7503
▁compete	-10.7504
▁sensor	-10.7505
▁Additional	-10.7515
▁Foundation	-10.7516
pa	-10.7521
▁Syria	-10.7524
corruption	-10.753
▁Netherland	-10.7531
▁autism	-10.7531
▁printing	-10.7537
▁Radio	-10.754
▁cent	-10.7545
▁shipp	-10.7545
▁cartoon	-10.7547
▁sustainabl	-10.7548
▁Technolog	-10.7548
▁Roger	-10.7548
▁blow	-10.7553
▁vulnerab	-10.7555
▁Su	-10.7561
ent	-10.7565
▁rising	-10.7575
▁37	-10.7578
▁vowel	-10.758
▁loan	-10.7581
▁landing	-10.7582
▁Democratic	-10.7584
▁composer	-10.7587
end	-10.7589
▁trad	-10.7592
he	-10.7594
▁airplane	-10.7597
▁Miss	-10.7605
▁dealing	-10.7608
▁privilege	-10.7613
▁suicide	-10.7613
▁transmission	-10.7613
▁preferr	-10.7627
▁Public	-10.7629
▁structural	-10.7629
▁branche	-10.7643
coming	-10.7645
▁attitude	-10.7646
▁animation	-10.7656
ez	-10.7659
▁Atlant	-10.7663
▁dubb	-10.7664
▁assist	-10.7669
▁Batm	-10.7669
▁64	-10.7672
▁tension	-10.7683
va	-10.7689
▁AIDS	-10.7695
▁advice	-10.7695
▁hotel	-10.7697
▁opera	-10.7697
▁34	-10.7698
▁originat	-10.7699
▁Ruth	-10.7702
▁chromosome	-10.7704
▁Joe	-10.7704
ow	-10.7704
▁Bob	-10.7705
▁owner	-10.7713
▁quote	-10.7715
▁implementation	-10.7717
▁unfortunate	-10.7728
▁classroom	-10.7728
▁trick	-10.7729
▁cult	-10.7735
▁seal	-10.7738
▁diameter	-10.7745
▁Carl	-10.776
▁inherit	-10.7761
▁cutting	-10.7774
▁verb	-10.7778
”	-10.7778
▁Anglican	-10.7778
▁controversial	-10.7781
▁Turke	-10.7792
▁calculation	-10.7794
▁inspiration	-10.7797
ence	-10.78
▁celebrat	-10.7823
▁demonstrate	-10.7825
▁attribute	-10.7826
tion	-10.7828
▁42	-10.7829
do	-10.784
▁rivers	-10.784
ip	-10.7841
▁Microsoft	-10.7844
▁edit	-10.7845
▁Alaska	-10.7845
▁Turing	-10.7845
▁Scottish	-10.7845
▁conservation	-10.7846
▁rat	-10.7866
▁evolutionary	-10.7867
▁Celt	-10.7869
▁bare	-10.7871
▁st	-10.788
▁malaria	-10.7881
▁h	-10.7893
▁recruit	-10.7895
▁Commission	-10.79
▁dad	-10.7901
▁Real	-10.7902
▁calling	-10.7903
▁quiet	-10.7912
▁elder	-10.7915
▁Again	-10.7919
▁banks	-10.7919
▁Scott	-10.7924
▁suspect	-10.7929
gt	-10.7936
wa	-10.7939
▁establishment	-10.7942
▁Ark	-10.7947
▁Jones	-10.795
▁license	-10.7951
▁slavery	-10.7957
▁separat	-10.7958
▁interior	-10.7963
atrix	-10.7969
▁177	-10.7971
▁enabl	-10.7975
▁comet	-10.7976
▁physician	-10.7979
▁fraction	-10.7979
▁industri	-10.7982
▁infect	-10.7983
▁investigation	-10.7983
war	-10.7996
▁framework	-10.7997
▁Hindu	-10.8001
▁bread	-10.8008
▁characteriz	-10.8015
▁Last	-10.8015
▁stronger	-10.8016
▁youth	-10.8024
ul	-10.8025
▁Lo	-10.8029
▁Club	-10.803
▁processor	-10.8044
▁strategic	-10.8047
▁funny	-10.8048
▁monkey	-10.8048
rew	-10.8055
▁38	-10.8061
▁draft	-10.8065
▁exposure	-10.8065
▁armour	-10.8066
erusal	-10.8066
well	-10.8077
▁epidemic	-10.8082
▁relevant	-10.8082
▁imperial	-10.8082
▁nest	-10.809
▁ride	-10.8091
▁conquer	-10.8094
▁Cambridge	-10.8099
▁velocit	-10.8099
editerranea	-10.8099
▁Secretary	-10.8117
▁comed	-10.8119
▁estate	-10.8122
▁dependent	-10.8123
▁Colombia	-10.8128
▁emergenc	-10.8129
▁criticiz	-10.8131
▁Jack	-10.8133
▁rating	-10.8135
fall	-10.8135
▁consum	-10.8138
▁2,000	-10.8142
▁repeat	-10.8144
▁asset	-10.8148
▁ti	-10.8148
▁apartment	-10.8154
▁explicit	-10.8168
▁physicist	-10.8168
▁Oxford	-10.8168
▁prediction	-10.8181
▁prototype	-10.8182
▁hir	-10.8182
▁Little	-10.8185
▁hypothesis	-10.8185
bury	-10.819
▁achievement	-10.8193
state	-10.8195
▁calendar	-10.8202
▁proud	-10.8202
▁reli	-10.8206
▁pool	-10.8206
half	-10.8207
▁ski	-10.8214
▁sheet	-10.8214
▁segment	-10.822
▁definite	-10.8221
▁intelligent	-10.8224
▁breast	-10.8228
▁par	-10.8229
fish	-10.823
▁retir	-10.8236
▁Assembl	-10.8237
▁finite	-10.8237
▁cure	-10.8237
let	-10.8245
ac	-10.825
▁178	-10.8253
▁vocal	-10.8253
▁corporate	-10.8255
▁stuck	-10.8255
ak	-10.8256
▁secondar	-10.8258
▁lecture	-10.8258
▁Out	-10.826
▁icon	-10.826
▁Se	-10.8269
▁Convention	-10.8272
▁accus	-10.8281
▁Athen	-10.8284
▁artistic	-10.8286
▁mechanic	-10.8287
▁rotation	-10.8288
▁sweet	-10.8289
▁psychological	-10.829
▁intention	-10.8303
▁Histor	-10.8306
▁weigh	-10.832
▁emissions	-10.8326
▁habit	-10.8332
ise	-10.8341
▁Hebrew	-10.8342
▁asteroid	-10.8342
▁jurisdiction	-10.8342
▁Librar	-10.8342
▁gravity	-10.8342
▁nerve	-10.8342
▁Gulf	-10.8343
▁superior	-10.8343
▁mainstream	-10.8343
▁harder	-10.8346
▁entitle	-10.8346
▁tie	-10.8349
▁activist	-10.8349
▁integer	-10.836
▁collaboration	-10.8361
F	-10.8365
▁god	-10.838
▁sad	-10.8381
rtex	-10.8385
▁Camp	-10.8391
▁systematic	-10.8397
▁pen	-10.8399
▁adaptation	-10.8401
▁guid	-10.8402
▁considerabl	-10.8403
▁Pro	-10.8403
▁cry	-10.8409
▁Sa	-10.842
▁attribut	-10.8428
▁mayor	-10.8442
▁purchas	-10.8446
▁contest	-10.8448
▁alumin	-10.8449
▁afterward	-10.845
stan	-10.8461
om	-10.8462
▁hurt	-10.8466
▁Clinton	-10.8466
▁valid	-10.8468
▁forever	-10.848
▁Anderson	-10.8483
ong	-10.8486
▁Office	-10.8487
▁ill	-10.8488
▁tube	-10.849
per	-10.8501
▁absence	-10.8502
▁anxiety	-10.8516
▁arrive	-10.8517
▁dogs	-10.8528
▁Five	-10.8531
▁courts	-10.8534
q	-10.8537
▁Standard	-10.8538
▁wisdom	-10.8538
▁wake	-10.854
▁Unti	-10.8541
▁pig	-10.8543
▁highway	-10.8546
▁geometr	-10.855
▁Lewis	-10.8555
▁44	-10.8558
▁raw	-10.8566
▁click	-10.8567
▁mortality	-10.8575
▁sponsor	-10.8577
▁outer	-10.8579
hood	-10.8582
rd	-10.8591
▁barrier	-10.8592
▁prosper	-10.8609
▁technological	-10.861
▁Town	-10.8611
▁cup	-10.8616
▁sharp	-10.8624
▁Cal	-10.8626
▁finance	-10.8627
▁pocket	-10.8628
▁tip	-10.863
▁179	-10.863
▁programme	-10.8632
▁Frankl	-10.8638
▁intense	-10.8646
▁medication	-10.8646
ir	-10.8653
▁minority	-10.8657
▁Lee	-10.8661
▁celebrate	-10.8664
▁Open	-10.8665
▁guide	-10.8666
rice	-10.8675
▁Azerbaijan	-10.8676
▁conversion	-10.8682
▁feedback	-10.8682
▁tune	-10.8684
▁axis	-10.8684
▁Virginia	-10.8686
▁brilliant	-10.8686
▁statue	-10.8689
X	-10.8691
▁partners	-10.8693
di	-10.8694
▁explor	-10.8695
▁Free	-10.8699
▁trigger	-10.87
▁exploration	-10.8705
▁48	-10.8712
▁guilt	-10.8718
▁smooth	-10.8718
▁voting	-10.8718
▁championship	-10.8719
▁documentar	-10.8722
▁airline	-10.8726
▁possess	-10.8738
▁Bulgaria	-10.8751
▁accomplish	-10.8753
▁button	-10.8754
▁infantry	-10.8757
▁economist	-10.8759
▁execut	-10.8759
▁milk	-10.876
▁isotope	-10.8773
▁kick	-10.8774
▁renam	-10.8776
▁tea	-10.8776
▁hell	-10.8783
town	-10.879
▁Festival	-10.8792
▁Twitter	-10.8792
▁Federal	-10.8792
▁tone	-10.8797
most	-10.88
cus	-10.8802
ney	-10.8803
▁elephant	-10.881
▁Cypr	-10.881
▁Reform	-10.881
ke	-10.8812
▁separation	-10.8815
▁norm	-10.8815
▁da	-10.8815
▁poll	-10.8817
▁laboratory	-10.8821
▁visitor	-10.8821
ap	-10.8823
▁debut	-10.8829
▁Buddhist	-10.883
▁Water	-10.883
▁logo	-10.8832
▁stranger	-10.8833
▁trillion	-10.8834
▁peer	-10.8837
▁Web	-10.884
▁scan	-10.8846
▁grammar	-10.8847
mer	-10.8848
▁CPU	-10.8848
▁bits	-10.8849
▁Computer	-10.8849
gar	-10.885
▁accompanie	-10.8858
▁wing	-10.8863
▁crown	-10.8866
▁dose	-10.8866
▁commitment	-10.8867
▁Bridge	-10.8868
▁Liberal	-10.8886
▁crack	-10.889
▁distant	-10.8903
▁Brian	-10.8904
▁destination	-10.8904
▁Native	-10.8908
▁rang	-10.8915
▁eliminat	-10.8918
ging	-10.8921
▁Jean	-10.8922
▁sin	-10.8924
▁offering	-10.8929
▁Yet	-10.893
▁Ala	-10.8934
▁boundar	-10.8935
▁Ph	-10.8938
▁emphasis	-10.894
▁stroke	-10.8941
▁solo	-10.8943
▁alien	-10.8944
▁advocate	-10.895
▁pounds	-10.8954
▁Dominican	-10.8963
▁scholar	-10.8965
cellular	-10.8965
nmark	-10.8971
▁Austria	-10.8974
▁crucial	-10.8977
▁confuse	-10.8977
▁burning	-10.8983
cher	-10.8986
▁proceed	-10.899
▁implication	-10.8997
í	-10.9003
▁bias	-10.9003
▁120	-10.9006
▁elite	-10.9014
▁Alfred	-10.9015
▁Corporation	-10.9015
▁folk	-10.9017
work	-10.9022
dium	-10.9022
▁concentrat	-10.9027
ag	-10.9042
▁oh	-10.9045
▁stands	-10.9047
▁99	-10.9051
▁imagin	-10.9052
▁extinct	-10.9053
▁predator	-10.9055
▁Juda	-10.906
ger	-10.9061
sh	-10.9062
sterda	-10.9064
▁Arthur	-10.9064
▁Philip	-10.9065
▁photos	-10.9068
▁hopeful	-10.9068
▁Governor	-10.9072
▁Antarctic	-10.9091
▁franchise	-10.9091
▁Stephen	-10.9091
▁Communist	-10.9095
▁Th	-10.9097
▁initiat	-10.9098
nel	-10.9102
▁Bang	-10.9106
▁specializ	-10.9109
▁District	-10.911
▁keyboard	-10.9111
▁linguistic	-10.9112
▁Hum	-10.912
▁Marine	-10.9122
▁raid	-10.9123
▁Give	-10.9125
▁configuration	-10.9129
ja	-10.9131
−	-10.9148
▁Audi	-10.9148
of	-10.9149
nna	-10.9157
▁bet	-10.9163
▁dinner	-10.9167
▁recall	-10.9169
▁pleasure	-10.9171
▁breaking	-10.918
▁Record	-10.9181
▁neutron	-10.9186
▁synthetic	-10.9186
▁terrorist	-10.9187
▁momentum	-10.9201
▁printer	-10.9204
▁Field	-10.9205
▁Pr	-10.9208
▁batter	-10.921
tra	-10.9211
▁IV	-10.9212
ide	-10.9216
▁heads	-10.9218
▁favour	-10.9219
bo	-10.9223
▁chamber	-10.9224
▁harvest	-10.9224
▁flu	-10.9229
ight	-10.9235
▁thick	-10.9238
▁beetle	-10.9243
▁shooting	-10.9246
▁towns	-10.925
▁arrival	-10.9261
▁participant	-10.9263
▁95	-10.927
▁scor	-10.9271
hol	-10.9275
▁Chad	-10.9276
althcare	-10.9281
*	-10.9282
▁grandmother	-10.9282
▁horizontal	-10.9282
▁Chief	-10.9292
▁emerge	-10.9292
▁vital	-10.9301
angular	-10.9319
▁metaphor	-10.932
▁receptor	-10.9321
▁Te	-10.9322
field	-10.9325
▁hide	-10.9335
▁synthesis	-10.934
▁exile	-10.9341
▁Ages	-10.9347
▁arise	-10.9347
▁ear	-10.935
▁Bol	-10.935
▁Bar	-10.9354
▁CEO	-10.936
▁observer	-10.9366
▁Aust	-10.9367
▁entry	-10.9371
▁compet	-10.9372
▁Ed	-10.9372
▁relief	-10.938
▁shoot	-10.9383
▁39	-10.9384
▁eggs	-10.9391
▁comfortabl	-10.9394
▁Florid	-10.9399
▁Development	-10.9399
▁municipalit	-10.9412
▁limb	-10.9419
▁Carolina	-10.942
▁Berkel	-10.9421
▁stabilit	-10.9422
▁ma	-10.9422
▁competitive	-10.9423
▁lens	-10.9427
OS	-10.9429
▁chip	-10.943
▁descendant	-10.9438
▁prefer	-10.9439
▁Road	-10.9439
▁twenty	-10.9439
▁awareness	-10.945
▁expectation	-10.9453
▁inequalit	-10.9454
mino	-10.9455
há	-10.9457
▁joke	-10.9458
▁charit	-10.9464
sea	-10.9464
▁sale	-10.9465
▁undergo	-10.9467
V	-10.9467
orrow	-10.9473
▁nickname	-10.9477
▁guest	-10.9478
▁newly	-10.949
▁sophisticat	-10.9493
▁battery	-10.9496
▁amateur	-10.9497
▁conclude	-10.9497
▁conquest	-10.9497
▁supporter	-10.9502
▁insist	-10.9507
▁shadow	-10.9507
▁heal	-10.9511
▁Organization	-10.9536
▁wider	-10.9539
▁shoulder	-10.9541
▁Kent	-10.9541
▁perceiv	-10.9554
▁curious	-10.9556
▁Long	-10.9558
que	-10.9572
▁adventure	-10.9572
▁astronomer	-10.9576
▁weird	-10.9577
▁psycholog	-10.9578
pe	-10.9583
▁graduat	-10.9589
▁economi	-10.959
▁Korea	-10.9594
▁condom	-10.9596
aba	-10.9602
▁grandfather	-10.9604
▁statistical	-10.9614
▁worri	-10.9616
▁Board	-10.9617
▁Operation	-10.9618
▁divine	-10.9624
▁app	-10.9624
▁retreat	-10.9636
▁execution	-10.9641
▁Third	-10.9651
▁shapes	-10.9652
▁partial	-10.9657
j	-10.9666
back	-10.9667
▁Ari	-10.9668
▁PC	-10.9668
▁Bangladesh	-10.9673
ile	-10.9675
▁skull	-10.9677
▁starr	-10.9678
▁orbital	-10.9679
▁mutual	-10.968
▁manual	-10.9681
▁dual	-10.9682
▁Newton	-10.9684
▁translate	-10.9685
▁vi	-10.9694
▁surrender	-10.9696
▁monk	-10.9696
▁fle	-10.9698
▁approache	-10.9705
▁guarantee	-10.9716
▁copyright	-10.9717
▁Brazilian	-10.972
▁Conservative	-10.9724
▁loud	-10.973
CE	-10.9733
▁Bosnia	-10.9734
▁whale	-10.974
▁1900	-10.9741
ester	-10.9747
▁confront	-10.9754
▁chocolate	-10.9757
power	-10.9761
third	-10.9761
▁Golden	-10.9762
▁restriction	-10.9764
▁Democrat	-10.9773
▁assert	-10.9773
▁Audience	-10.9777
▁editor	-10.9781
▁Global	-10.9784
▁associate	-10.9784
▁43	-10.9785
▁hence	-10.979
SA	-10.9792
▁frequent	-10.9794
point	-10.98
▁fusion	-10.9804
▁graphics	-10.9806
▁tag	-10.9811
▁cinema	-10.9818
▁Come	-10.9824
▁Tim	-10.9827
▁alleged	-10.9829
▁Baptist	-10.9831
▁drain	-10.9838
▁Square	-10.9838
▁immune	-10.9838
▁whales	-10.9838
▁polar	-10.9839
▁sensitive	-10.985
▁Would	-10.9859
▁replacement	-10.9863
▁dress	-10.9867
▁treaty	-10.9875
▁vegetable	-10.9879
▁routine	-10.9879
▁chicken	-10.988
▁index	-10.988
▁arrang	-10.9882
▁rose	-10.9886
▁dreams	-10.9887
ric	-10.9892
place	-10.9895
▁pollution	-10.9901
▁Tiger	-10.9901
ure	-10.9902
▁55	-10.9903
▁swimm	-10.9909
▁syndrome	-10.992
▁highlight	-10.9922
▁initiative	-10.9922
Channel	-10.9923
▁Mean	-10.9926
▁600	-10.9927
▁fighter	-10.9928
art	-10.9934
▁jail	-10.9941
▁specimen	-10.9941
▁compact	-10.9941
▁partnership	-10.9942
▁instant	-10.9945
▁Sara	-10.9947
▁suppress	-10.9962
▁shut	-10.9962
▁marry	-10.9962
▁lyric	-10.9963
▁voter	-10.9964
▁Ali	-10.9969
ootball	-10.9974
▁designat	-10.9975
▁Ta	-10.9978
win	-10.998
▁Education	-10.9982
▁Daniel	-10.9982
▁judgment	-10.9983
level	-10.9989
▁Land	-10.9989
▁Mike	-10.999
▁laugh	-10.9996
▁punishment	-11.0004
▁migration	-11.0005
▁rebel	-11.001
▁coat	-11.0014
▁craft	-11.0018
▁tear	-11.0019
▁Bel	-11.0027
▁dust	-11.0027
▁trait	-11.0041
▁cattle	-11.0045
▁constitutional	-11.0064
▁Home	-11.0064
▁chloroplast	-11.0066
▁Santa	-11.0072
▁agency	-11.0077
▁Ministr	-11.0086
▁apple	-11.0095
▁capita	-11.0099
▁Van	-11.0101
▁sacrifice	-11.0102
tts	-11.0103
▁stack	-11.0108
▁Alpha	-11.0108
▁philosophical	-11.011
▁ignor	-11.0112
▁agenc	-11.0117
▁farming	-11.0121
▁Cold	-11.0123
▁empower	-11.0126
▁fascinating	-11.0128
▁cardinal	-11.0128
▁surgeon	-11.0131
▁bann	-11.0133
▁stadium	-11.0133
▁portrait	-11.0137
▁prey	-11.0145
▁puzzle	-11.015
▁preserve	-11.0151
▁grass	-11.0158
▁cruiser	-11.0159
▁logical	-11.0159
▁mile	-11.0161
▁prayer	-11.0162
▁Jim	-11.0165
▁terminal	-11.0168
▁clip	-11.017
▁dictionar	-11.0171
▁Justice	-11.0171
▁cash	-11.0171
▁doors	-11.0175
lic	-11.0176
▁Wood	-11.0178
▁Port	-11.018
▁restor	-11.019
▁heaven	-11.0192
▁silence	-11.0193
▁tight	-11.0197
tech	-11.0209
▁Br	-11.0211
adelphia	-11.0213
▁dialogue	-11.0213
▁cousin	-11.0213
▁Mount	-11.0213
stone	-11.0213
▁cement	-11.0214
▁bronze	-11.0214
▁cord	-11.0216
▁ray	-11.0217
▁productive	-11.0233
▁criteri	-11.0234
▁neck	-11.0234
▁tournament	-11.0235
▁inflation	-11.0235
▁laser	-11.0235
▁package	-11.0241
▁longest	-11.0244
▁presentation	-11.0247
▁Belgi	-11.0254
▁Captain	-11.0255
▁reef	-11.0256
▁tens	-11.0259
▁downtown	-11.026
▁possession	-11.0261
▁Show	-11.0263
▁accessibl	-11.0267
▁organize	-11.0269
▁danc	-11.0275
▁Nigeria	-11.0276
▁Number	-11.0277
▁holiday	-11.0277
▁lunch	-11.0277
▁silk	-11.0277
▁gods	-11.0278
▁Jo	-11.0284
von	-11.0295
▁cuisine	-11.0298
▁shark	-11.0298
BC	-11.0302
▁educat	-11.0303
▁shore	-11.0305
ka	-11.0312
raising	-11.0312
▁monaster	-11.0319
▁sorr	-11.0322
▁parliament	-11.0322
▁entertainment	-11.0323
ied	-11.0324
W	-11.0332
ropical	-11.0338
▁ancestr	-11.0341
▁shall	-11.0342
▁Byzantine	-11.0363
▁nurse	-11.0363
▁pit	-11.0364
class	-11.0366
▁5,000	-11.0369
▁descend	-11.0372
▁constitute	-11.0373
ab	-11.0377
▁guard	-11.0378
▁computation	-11.0381
▁Balti	-11.0383
▁dismiss	-11.0384
▁innovative	-11.0384
▁Commodore	-11.0384
▁admit	-11.0393
▁3,000	-11.0394
▁hat	-11.0395
lin	-11.0403
▁MIT	-11.0406
▁Window	-11.0406
▁lands	-11.0414
▁Ha	-11.0416
▁altitude	-11.0419
▁meal	-11.0427
▁rescue	-11.0427
bama	-11.043
▁observe	-11.0436
▁Corps	-11.044
▁Wi	-11.0441
▁alliance	-11.0448
▁Ancient	-11.0449
▁consonant	-11.0449
▁dolphin	-11.0449
▁ruling	-11.0449
▁Inde	-11.045
▁Massac	-11.045
▁bike	-11.0451
▁negotiation	-11.0452
car	-11.0456
▁demonstration	-11.0456
▁teenager	-11.0456
▁tri	-11.0458
▁rocks	-11.0458
▁Conference	-11.0471
▁Countr	-11.0474
▁nose	-11.0475
ean	-11.0477
▁meaningful	-11.0478
▁grid	-11.0479
▁hang	-11.048
▁rocket	-11.0486
▁li	-11.0486
▁confiden	-11.0492
▁Napoleon	-11.0492
▁mystery	-11.0493
▁creativ	-11.0495
▁membership	-11.0496
onic	-11.0506
▁optical	-11.0506
▁wage	-11.0514
▁inhabit	-11.0514
▁Kenya	-11.0514
ccurac	-11.0514
▁Kennedy	-11.0514
racing	-11.0523
▁shoes	-11.053
▁Securit	-11.0536
▁hip	-11.0537
▁crossing	-11.0538
▁Polic	-11.0538
▁notation	-11.0543
▁spark	-11.0558
▁Testament	-11.0558
▁digit	-11.0561
ex	-11.0562
▁coordinat	-11.0569
▁resign	-11.0577
▁hum	-11.0578
▁joy	-11.058
▁drove	-11.058
▁coalition	-11.058
rose	-11.0581
▁partially	-11.0584
house	-11.0596
▁orange	-11.0603
▁permission	-11.0603
▁inventor	-11.0606
▁ethical	-11.0607
▁51	-11.0609
▁follower	-11.0614
▁fee	-11.0616
▁birthday	-11.0619
▁suburb	-11.0622
▁Obama	-11.0625
▁underly	-11.063
▁boundary	-11.0631
▁Forest	-11.0632
og	-11.0638
gie	-11.0642
▁Che	-11.0644
▁evolve	-11.0646
▁inevitabl	-11.0646
▁unexpected	-11.0646
▁thermal	-11.0647
▁skeleton	-11.0649
▁tale	-11.0651
▁Childre	-11.0652
▁fled	-11.0653
▁mice	-11.0655
▁sixth	-11.0657
▁borrow	-11.0659
▁embrace	-11.0665
▁balloon	-11.0668
▁Cha	-11.067
▁predominant	-11.067
ung	-11.0672
ola	-11.0679
down	-11.0682
▁axiom	-11.0691
▁authentic	-11.0691
▁prompt	-11.0691
▁sacred	-11.0691
▁worship	-11.0699
▁steal	-11.0707
▁struggl	-11.071
▁Rod	-11.0712
▁aesthetic	-11.0713
▁scatter	-11.0713
▁modification	-11.0713
▁implie	-11.0713
▁strain	-11.0715
▁personalit	-11.0716
▁bees	-11.0717
▁Clark	-11.0719
anda	-11.0721
▁41	-11.0732
▁Hav	-11.0734
▁nitrogen	-11.0735
▁luna	-11.0736
all	-11.0738
▁engagement	-11.0739
▁extinction	-11.0741
▁Cor	-11.0742
western	-11.0745
▁Live	-11.0749
▁Line	-11.0751
▁ban	-11.0752
▁realm	-11.0754
▁chimpanzee	-11.0758
▁legacy	-11.0758
vill	-11.0758
▁1947	-11.0767
▁Pan	-11.0767
▁matche	-11.0774
▁pour	-11.0777
▁captain	-11.078
▁DJ	-11.0782
▁pregnan	-11.0783
▁privacy	-11.0803
▁knock	-11.0803
▁preparation	-11.0805
▁pitcher	-11.0814
▁verse	-11.0819
▁neutral	-11.0819
ni	-11.082
▁Hu	-11.082
▁transmitt	-11.0825
▁inherent	-11.0825
▁hub	-11.0825
▁earthquake	-11.0825
▁distinctive	-11.0828
▁boom	-11.083
▁rear	-11.083
form	-11.0834
ansa	-11.084
▁Example	-11.0848
▁piano	-11.0848
▁forgot	-11.0855
▁armor	-11.0857
▁ethic	-11.086
▁capabilit	-11.0862
▁feeding	-11.0868
▁astronaut	-11.087
▁vacuum	-11.087
▁Portug	-11.087
▁spacecraft	-11.0872
▁cosm	-11.0876
long	-11.0878
▁heritage	-11.0879
unk	-11.0892
▁supplement	-11.0893
▁throne	-11.0893
▁Abraham	-11.0893
▁Col	-11.0899
▁Building	-11.0906
▁profile	-11.0912
IC	-11.0914
▁Muhamm	-11.0916
CLU	-11.0916
▁calci	-11.0916
▁Beck	-11.0918
▁approval	-11.0925
▁Ka	-11.0929
▁vice	-11.093
▁arrow	-11.0931
▁anchor	-11.0938
▁Da	-11.0943
▁operational	-11.0945
▁grave	-11.095
dom	-11.0955
▁Bear	-11.0956
▁Defens	-11.0963
▁ammoni	-11.0966
▁ongoing	-11.0972
▁significan	-11.0975
▁Tu	-11.0979
▁prohibit	-11.0979
▁adjust	-11.0982
▁mild	-11.0985
▁lifestyle	-11.0986
▁Special	-11.0987
▁microbe	-11.0987
▁diplomatic	-11.0987
▁rush	-11.0989
▁provision	-11.0994
▁exceed	-11.0999
▁Augustin	-11.1002
▁250	-11.1003
▁anniversar	-11.1005
▁bio	-11.1007
▁ruin	-11.1007
▁Russel	-11.1007
▁signature	-11.1007
▁Knight	-11.1009
▁reactor	-11.1014
sance	-11.1016
▁symmetr	-11.102
▁metric	-11.1021
▁52	-11.1028
▁Social	-11.1029
▁strand	-11.1031
▁gate	-11.1032
▁profession	-11.1033
▁ruler	-11.1035
▁Ya	-11.104
atre	-11.1045
▁Ea	-11.1046
▁Sh	-11.1047
▁resemble	-11.1053
▁penalt	-11.1053
▁Bowl	-11.1055
▁genu	-11.1055
▁organisation	-11.1056
▁Gar	-11.1058
▁phenomena	-11.1067
▁160	-11.1067
▁render	-11.1069
▁knee	-11.1078
▁85	-11.1087
▁memori	-11.1092
rine	-11.1097
pp	-11.11
▁49	-11.1108
▁occupation	-11.1109
▁golden	-11.111
BI	-11.1111
▁republic	-11.1121
▁password	-11.1123
▁gray	-11.1123
▁rap	-11.1128
▁vari	-11.113
▁mess	-11.1131
▁rhythm	-11.1135
▁oxide	-11.1138
▁Communit	-11.114
▁erect	-11.1141
▁jazz	-11.1146
▁offensive	-11.1146
▁subset	-11.1146
▁unclear	-11.1146
▁warning	-11.1154
▁mail	-11.1156
▁algebraic	-11.116
▁voices	-11.1168
50	-11.1168
▁drum	-11.117
▁Coca	-11.117
▁Stone	-11.1171
▁autonomous	-11.1172
tenance	-11.1172
▁Khan	-11.1185
▁damag	-11.1189
ft	-11.1195
▁gase	-11.1195
▁Polis	-11.1198
▁Han	-11.1202
▁computational	-11.1203
▁floating	-11.1205
ov	-11.1211
▁investigat	-11.1212
eign	-11.1215
▁divorce	-11.1216
▁auto	-11.1218
▁passionate	-11.1218
▁Hugh	-11.1219
▁clinic	-11.1223
▁shorter	-11.1224
▁None	-11.1228
▁diagnosi	-11.1233
than	-11.1236
bu	-11.1239
▁circular	-11.1239
▁rebellion	-11.1243
▁beside	-11.125
▁Bron	-11.126
▁adjacen	-11.1263
▁drill	-11.1266
▁hol	-11.1269
▁Polan	-11.127
▁Fin	-11.1274
port	-11.1279
▁capabilities	-11.128
▁AI	-11.1283
wide	-11.1283
▁protocol	-11.1287
▁primitive	-11.1287
▁loose	-11.1287
▁obes	-11.1287
▁sp	-11.129
▁Mexican	-11.1292
ua	-11.1293
▁wings	-11.1296
eastern	-11.1297
▁Mass	-11.1306
▁robotic	-11.131
▁hormone	-11.131
▁Moor	-11.1322
▁Eisen	-11.1334
▁Bush	-11.1335
-1	-11.1337
space	-11.1345
▁Bot	-11.1345
▁liver	-11.1351
▁Aja	-11.1356
▁Pennsylvania	-11.1358
▁consume	-11.1367
▁payment	-11.1371
▁taxe	-11.1377
▁charter	-11.1381
▁administer	-11.1381
▁Design	-11.1382
▁leak	-11.1382
▁Railway	-11.1383
▁Basque	-11.1384
▁Argentin	-11.1385
▁Walter	-11.1386
▁Shah	-11.1387
▁Serbia	-11.139
▁anger	-11.139
▁Talk	-11.1401
▁temporar	-11.1405
▁Swedish	-11.1405
▁undern	-11.1412
▁limitation	-11.1419
▁bind	-11.1419
▁promotion	-11.142
lbert	-11.1421
▁busy	-11.1425
hu	-11.1427
▁infant	-11.1427
▁cyber	-11.1429
▁toilet	-11.143
▁covering	-11.1436
▁rent	-11.145
tadium	-11.1452
▁deliberate	-11.1453
▁prophet	-11.1453
▁essence	-11.1453
▁knowing	-11.1453
wana	-11.1459
▁thanks	-11.1462
▁hill	-11.1468
▁Top	-11.147
▁Profess	-11.1477
▁suspend	-11.1477
▁Swiss	-11.1477
▁Current	-11.1477
▁overcome	-11.1477
▁pole	-11.1479
▁Max	-11.1481
▁Area	-11.1482
▁golf	-11.1483
izing	-11.1488
▁decreas	-11.1491
▁Guard	-11.1491
▁br	-11.1493
▁drama	-11.1499
▁crush	-11.1502
▁wars	-11.1503
▁Croatian	-11.1503
▁proton	-11.1506
lu	-11.1507
▁pathway	-11.1511
▁prepare	-11.152
▁gut	-11.1525
▁Dublin	-11.1525
▁Father	-11.1526
▁deck	-11.153
▁publicly	-11.1531
▁Thanks	-11.1532
▁resolve	-11.1534
▁Dartmo	-11.1535
▁racial	-11.1537
huse	-11.1538
▁Ze	-11.1538
Qaeda	-11.155
▁afternoon	-11.155
▁architectural	-11.155
▁unemploy	-11.155
▁Jane	-11.1551
nia	-11.1556
▁permitt	-11.1557
▁binding	-11.156
▁mis	-11.1567
▁controller	-11.1574
▁explosion	-11.1574
▁revolt	-11.1574
▁veteran	-11.1574
▁defect	-11.1574
▁tomb	-11.1574
▁behave	-11.1575
witzer	-11.1576
▁nutrient	-11.1577
wealth	-11.1578
▁illustrate	-11.1584
▁Ch	-11.1585
▁swim	-11.1587
▁impos	-11.1587
▁bomber	-11.1589
▁cur	-11.1594
▁tribe	-11.1596
▁Bruc	-11.1596
▁Territor	-11.1598
▁mosquito	-11.1598
▁deserve	-11.1598
▁Mont	-11.1601
▁Near	-11.1602
AM	-11.1604
▁engag	-11.162
▁Elizabeth	-11.1621
▁47	-11.1629
▁determin	-11.1646
▁ideolog	-11.1647
▁merchant	-11.1647
▁Austrian	-11.1652
▁Bulgarian	-11.1652
play	-11.1655
▁peaceful	-11.1656
▁restore	-11.1656
▁playoff	-11.1657
▁delivery	-11.1658
▁fabric	-11.166
▁46	-11.1661
▁priorit	-11.1668
,500	-11.1669
▁stupid	-11.1672
▁Natural	-11.1672
▁mutation	-11.1672
▁abortion	-11.1673
▁retirement	-11.1673
▁Victoria	-11.1675
▁Bat	-11.1676
▁Miller	-11.168
▁homes	-11.1682
▁developer	-11.169
▁Tony	-11.1695
▁Caesar	-11.1696
▁ticket	-11.1696
▁labour	-11.1697
▁orchestra	-11.1698
rctic	-11.1699
▁Could	-11.1699
▁Ray	-11.1705
▁Chian	-11.1706
▁trans	-11.171
▁Does	-11.171
stock	-11.1714
▁propose	-11.1716
▁preced	-11.1718
▁archaeolog	-11.172
▁exhaust	-11.1721
▁parameter	-11.1721
▁Light	-11.1722
▁Fame	-11.1723
speak	-11.1727
▁Si	-11.1731
▁Hell	-11.1732
ix	-11.1732
▁noun	-11.1738
ang	-11.1743
▁embedded	-11.1746
▁175	-11.1759
▁semi	-11.176
hower	-11.176
ut	-11.1764
▁clothes	-11.1768
ou	-11.177
af	-11.1772
▁progressive	-11.1775
▁assistant	-11.1777
▁strengthen	-11.1781
tually	-11.1793
▁steam	-11.1795
▁twelve	-11.1795
▁enterprise	-11.1801
iego	-11.1802
▁indirect	-11.1802
▁Tru	-11.1803
berg	-11.1809
▁programmer	-11.1814
▁smoke	-11.1814
▁owners	-11.1816
▁hybrid	-11.182
▁kitchen	-11.182
▁applie	-11.182
▁00	-11.1821
▁wireless	-11.1823
eb	-11.1827
▁Director	-11.1828
▁Har	-11.1831
▁permit	-11.1838
▁comprise	-11.1842
▁ignore	-11.1843
▁Brussels	-11.1845
▁transaction	-11.1846
▁proven	-11.185
▁Rena	-11.185
▁virtue	-11.1856
▁descen	-11.1861
▁Eric	-11.1865
▁Bengal	-11.1865
▁charg	-11.1868
▁mm	-11.1869
▁Barcelon	-11.187
▁Angola	-11.187
▁silent	-11.187
▁Boeing	-11.187
▁Post	-11.1871
▁imp	-11.1878
▁Men	-11.1878
▁handl	-11.188
liv	-11.1881
▁creator	-11.1889
▁Cameroon	-11.1895
▁fascinat	-11.1895
▁dirt	-11.1896
▁merg	-11.1901
▁elaborate	-11.1904
▁Dave	-11.1907
▁twin	-11.1907
▁aggressive	-11.192
▁helicopter	-11.192
▁arbitrar	-11.1923
▁admitted	-11.1924
▁Rose	-11.1927
▁deni	-11.1928
▁beach	-11.1932
▁Cooper	-11.1938
▁algebra	-11.1941
zona	-11.1943
▁alternate	-11.1945
▁Hospital	-11.1945
▁abolish	-11.1945
▁miracle	-11.1945
cal	-11.1946
▁Economic	-11.1946
▁Nature	-11.1946
▁assistan	-11.1952
▁denote	-11.1954
▁champion	-11.1956
con	-11.196
▁informal	-11.1961
▁publisher	-11.1968
▁Mississippi	-11.1971
▁Prior	-11.1971
▁iPhone	-11.1971
▁convey	-11.1971
▁preference	-11.1971
▁eliminate	-11.1975
▁automat	-11.1977
ating	-11.1984
▁Amiga	-11.1996
▁Next	-11.1996
▁Lion	-11.2003
▁celebration	-11.2003
▁Deb	-11.2003
▁issu	-11.2005
▁50,000	-11.2008
▁Six	-11.2016
▁diagram	-11.2021
▁Short	-11.2021
▁entrance	-11.2022
▁evening	-11.2029
▁invad	-11.2033
▁carrie	-11.2034
▁Alan	-11.204
▁170	-11.2042
▁corn	-11.2042
▁beam	-11.2044
▁orientation	-11.2048
▁biologist	-11.205
▁impression	-11.205
▁battleship	-11.2051
▁Note	-11.2054
▁equipp	-11.2058
▁emphasize	-11.2059
tro	-11.2062
AF	-11.2064
▁tap	-11.207
▁obstacle	-11.2072
▁essay	-11.2072
▁Cornwall	-11.2072
▁Brave	-11.2072
▁illusion	-11.2072
▁chest	-11.2073
sky	-11.2073
▁baptism	-11.2074
▁Cross	-11.2074
▁presum	-11.2075
▁comfort	-11.2078
10	-11.2078
▁Brother	-11.208
ified	-11.208
▁Assyrian	-11.2087
▁Ku	-11.2089
▁UN	-11.2097
▁worn	-11.2098
▁Gates	-11.2098
▁Media	-11.21
▁EU	-11.21
▁coverage	-11.2108
▁72	-11.2108
▁cannon	-11.2112
▁Tor	-11.2112
▁Abu	-11.2122
▁scenario	-11.2123
ana	-11.2124
▁lady	-11.2124
▁fingers	-11.2129
▁spectra	-11.2131
▁Pole	-11.2132
▁Israeli	-11.2141
ik	-11.2144
▁Imperial	-11.2149
▁Michigan	-11.2149
▁abundant	-11.2149
▁Peace	-11.2149
▁duty	-11.215
▁canal	-11.2152
▁Georgia	-11.2153
U	-11.2165
▁Ge	-11.2166
▁Connecti	-11.2173
aide	-11.2175
▁gear	-11.2175
▁inscription	-11.2175
▁Tower	-11.2175
▁burned	-11.2178
▁Far	-11.2178
▁Bern	-11.2178
▁Beat	-11.2192
▁chemist	-11.2195
▁manufacture	-11.2198
▁YouTube	-11.2201
▁globe	-11.2201
▁spider	-11.2201
▁chaos	-11.2201
▁Pleas	-11.2201
▁flie	-11.2203
▁USA	-11.2204
▁Vari	-11.2205
▁Historical	-11.2216
▁20,000	-11.2222
▁tendency	-11.2222
▁Hol	-11.2224
▁Turn	-11.2225
▁Jupiter	-11.2227
▁Brunei	-11.2227
▁Main	-11.2228
▁simulation	-11.2229
▁reliabl	-11.2229
▁smok	-11.2233
▁defence	-11.2233
▁invite	-11.2233
sium	-11.2235
▁painter	-11.2236
▁denomination	-11.2237
▁folks	-11.2242
▁suggestion	-11.2247
▁flash	-11.2253
▁shelter	-11.2253
▁Donald	-11.2254
▁mood	-11.2256
▁recycl	-11.2258
ople	-11.2265
▁Ram	-11.2268
▁Command	-11.2269
▁travell	-11.227
▁pursue	-11.2273
▁analyz	-11.2275
▁renew	-11.2276
▁surveillance	-11.2279
▁gross	-11.2279
▁Stanford	-11.2279
▁stole	-11.2279
▁download	-11.228
▁Hungarian	-11.229
▁lock	-11.2293
gger	-11.2301
BS	-11.2302
▁imag	-11.2303
▁imprison	-11.2305
▁outbreak	-11.2306
▁uncle	-11.2308
▁Dead	-11.231
▁Rio	-11.2317
▁Way	-11.2326
▁goddess	-11.2331
▁Chapl	-11.2333
▁Ab	-11.2333
▁Korean	-11.2334
▁acknowledg	-11.2337
▁Alli	-11.2351
▁Samuel	-11.2357
▁Rica	-11.2363
abilities	-11.2365
▁duti	-11.2368
polar	-11.2373
ank	-11.2376
▁Catalan	-11.2384
▁subtle	-11.2387
▁54	-11.2388
▁Hungar	-11.2392
RA	-11.2398
▁Song	-11.24
▁excess	-11.2409
▁confusion	-11.241
▁Wilson	-11.2411
▁Ko	-11.2413
tory	-11.2426
▁balls	-11.2427
▁Aberdeen	-11.2436
▁encode	-11.2436
▁angry	-11.2437
▁greenhouse	-11.2437
▁Basic	-11.2439
▁integral	-11.2441
▁radiu	-11.2441
▁poison	-11.2443
▁noble	-11.2448
▁Cub	-11.245
▁detection	-11.2451
▁chronic	-11.2452
▁cotton	-11.2463
▁basin	-11.2463
ome	-11.2464
▁Power	-11.247
▁dai	-11.2473
▁rebuild	-11.2474
▁Code	-11.2476
▁microscope	-11.2481
▁Armenian	-11.2484
ersey	-11.2484
▁Base	-11.2485
▁productivit	-11.2487
▁cocaine	-11.249
▁Night	-11.2491
▁barrel	-11.2491
▁incorporate	-11.2499
BA	-11.2508
▁belt	-11.251
▁Mel	-11.2512
▁du	-11.2512
▁Par	-11.2512
▁Manhattan	-11.2516
▁siege	-11.2516
▁Cayman	-11.2516
▁Confederate	-11.2518
▁mytholog	-11.2519
▁remark	-11.252
▁Letter	-11.2524
▁settler	-11.253
▁Williams	-11.2535
▁et	-11.254
▁Virgin	-11.2542
▁acoustic	-11.2543
▁thumb	-11.2543
▁venue	-11.2543
▁genius	-11.2543
▁automobile	-11.2543
▁consent	-11.2543
▁Christopher	-11.2544
▁ultra	-11.2544
▁psychologist	-11.2544
▁Abd	-11.2551
▁Wallac	-11.2552
▁Medica	-11.2554
▁fastest	-11.2555
▁motivation	-11.2561
▁happi	-11.2568
▁equilibri	-11.257
▁palace	-11.257
viation	-11.257
▁algae	-11.2578
▁Khme	-11.2579
▁readers	-11.2582
▁paradigm	-11.2583
▁Gregor	-11.2586
▁earning	-11.2596
▁neural	-11.2597
▁occupy	-11.2597
▁patron	-11.2597
▁interval	-11.2597
▁intermediate	-11.2597
▁venture	-11.2597
▁encrypt	-11.2597
▁DVD	-11.2597
▁quit	-11.2597
▁Corn	-11.2597
▁interactive	-11.2601
▁worm	-11.2605
▁Stan	-11.2611
▁Ri	-11.2618
▁Station	-11.2621
▁pronounc	-11.2623
▁athlete	-11.2624
▁demographic	-11.2624
▁plague	-11.2624
▁metropolitan	-11.2624
▁sink	-11.2628
▁poster	-11.2634
▁monument	-11.2639
▁Play	-11.2649
▁coup	-11.2649
▁fulfill	-11.265
▁congregation	-11.2651
▁romantic	-11.2653
▁elevation	-11.2654
▁Death	-11.2657
ren	-11.2667
▁hack	-11.2668
▁lit	-11.267
▁projection	-11.267
▁cultivat	-11.2674
▁Ford	-11.2674
▁awesome	-11.2675
▁succession	-11.2676
▁Friday	-11.2678
▁Business	-11.2678
▁Barry	-11.2683
heimer	-11.269
▁flexibl	-11.269
-2	-11.2691
▁investor	-11.2696
▁replicate	-11.2698
▁Hey	-11.2699
▁insert	-11.2701
▁cod	-11.2704
▁humor	-11.2705
×	-11.2705
▁consensus	-11.2705
▁Saturn	-11.2705
▁costume	-11.2708
air	-11.2712
▁personne	-11.2722
▁stepp	-11.2722
▁800	-11.2726
cock	-11.273
▁Benjam	-11.2732
▁polynomial	-11.2732
▁facult	-11.2732
▁pin	-11.2733
ire	-11.2734
▁behavioral	-11.2737
▁falls	-11.2739
▁schedule	-11.2742
▁lion	-11.2745
▁smile	-11.2746
br	-11.2747
▁magnet	-11.2749
▁performer	-11.275
▁Bishop	-11.2759
▁transplant	-11.2759
▁leap	-11.2759
ake	-11.276
▁Nazi	-11.2761
▁fertil	-11.2768
▁marks	-11.2768
osaurus	-11.2776
▁Ever	-11.2778
elecommunication	-11.2787
▁immense	-11.2787
▁Master	-11.2787
▁diagnos	-11.2788
▁Vienn	-11.2788
▁Ken	-11.2789
▁overwhelming	-11.2791
▁sh	-11.2793
▁dive	-11.2794
ept	-11.2802
▁Pi	-11.2806
▁compromise	-11.2808
▁refuse	-11.2814
▁Yankee	-11.2814
▁Trade	-11.2814
▁queen	-11.2814
▁mask	-11.2814
▁pulse	-11.2816
▁painful	-11.2818
ilitary	-11.2819
▁Gene	-11.283
▁Low	-11.2834
tz	-11.2835
▁Test	-11.2836
▁mate	-11.2836
▁triangle	-11.2842
▁choos	-11.2842
▁immigration	-11.2842
▁installation	-11.2848
▁revolutionar	-11.2853
▁symbolic	-11.2853
ami	-11.2854
SU	-11.2856
▁appreciate	-11.2863
▁Na	-11.2865
▁minimal	-11.2869
▁Order	-11.287
▁awful	-11.287
▁differential	-11.2871
▁moderate	-11.2874
▁Ann	-11.2877
II	-11.2882
▁neuron	-11.2883
▁situat	-11.2891
mp	-11.2891
che	-11.2892
▁warrior	-11.2897
▁funeral	-11.2897
▁laptop	-11.2897
▁assignment	-11.2901
124	-11.292
▁survivor	-11.2922
▁condemn	-11.2925
▁rainforest	-11.2925
▁fake	-11.2928
▁intensit	-11.2933
▁animat	-11.2949
▁reflection	-11.295
▁Ban	-11.295
▁judicia	-11.2953
▁coefficient	-11.2953
▁Bernard	-11.2953
▁En	-11.2954
▁fame	-11.2956
▁punch	-11.2956
aseball	-11.2957
▁Armenia	-11.2959
roadway	-11.2959
▁figur	-11.2966
▁motivat	-11.2967
▁Girl	-11.2981
▁combusti	-11.2981
▁GPS	-11.2981
▁drone	-11.2982
▁Kong	-11.2983
▁desperate	-11.2985
born	-11.2992
▁theatre	-11.2995
▁attraction	-11.3001
▁disagree	-11.3007
▁Singapore	-11.3009
▁Anglo	-11.3009
▁pursu	-11.3014
▁shame	-11.3021
▁trie	-11.3022
▁78	-11.3024
▁Cuban	-11.3029
▁complain	-11.3033
▁pregnanc	-11.3033
▁clever	-11.3037
▁tongue	-11.3037
▁Fair	-11.3039
▁illustration	-11.304
ick	-11.3045
▁Maria	-11.3052
illa	-11.3054
DS	-11.3063
▁wash	-11.3063
▁consecutive	-11.3065
▁traged	-11.3065
▁yester	-11.3068
▁Finn	-11.3069
▁Inter	-11.3072
▁Jer	-11.3076
od	-11.3086
tor	-11.3086
▁reconstruct	-11.3088
▁slope	-11.3093
▁Recent	-11.3093
▁pile	-11.3095
▁Mother	-11.3101
▁chips	-11.3109
▁entrepreneur	-11.3111
▁Aa	-11.3115
worth	-11.3117
▁62	-11.3121
▁clay	-11.3122
▁basketball	-11.3122
▁froze	-11.3126
▁Pass	-11.3135
▁qualit	-11.314
▁empath	-11.3142
▁nominat	-11.3143
▁northeast	-11.3144
▁libert	-11.315
▁bulk	-11.315
▁textbook	-11.3151
▁consideration	-11.3153
▁proclaim	-11.3154
▁Sho	-11.3156
▁Cair	-11.3161
foot	-11.3164
▁spell	-11.3165
ko	-11.3168
mak	-11.317
hus	-11.3172
free	-11.3177
nfortunate	-11.3178
▁collision	-11.3178
▁mothers	-11.3178
▁Centaur	-11.3178
▁naked	-11.3178
Col	-11.3179
▁lo	-11.318
▁Centre	-11.3183
▁im	-11.3185
▁windows	-11.3201
▁Germanic	-11.3202
▁punish	-11.3205
▁Concord	-11.3207
▁expense	-11.3207
▁plent	-11.3207
▁analyze	-11.3211
▁accord	-11.3217
▁decimal	-11.3228
ame	-11.3229
▁disability	-11.3236
▁striking	-11.3236
oid	-11.3236
▁communist	-11.3236
▁BMW	-11.3238
▁galler	-11.3238
▁58	-11.3245
▁1000	-11.3248
▁Seven	-11.3256
▁disrupt	-11.3257
hen	-11.326
▁relativ	-11.3263
▁leather	-11.3264
▁Digital	-11.3264
▁unsuccessful	-11.3264
▁accent	-11.3264
▁enhance	-11.3266
amaic	-11.3266
ogether	-11.3271
▁cap	-11.3272
▁residence	-11.3272
▁Mc	-11.3272
mir	-11.3273
▁rotat	-11.3273
▁spelling	-11.3279
▁precipitat	-11.328
▁53	-11.3284
▁uncertaint	-11.3287
▁pot	-11.3291
▁Report	-11.3302
▁antibod	-11.3303
▁Sab	-11.3315
▁deficit	-11.3322
▁plural	-11.3322
▁oxidati	-11.3322
▁deforest	-11.3322
▁hook	-11.3323
ency	-11.3325
▁trapp	-11.3325
▁compris	-11.3325
MT	-11.3327
▁suck	-11.3327
▁intersection	-11.3328
▁Along	-11.3342
▁ears	-11.3347
broad	-11.335
▁remainder	-11.3352
▁alpha	-11.3352
kind	-11.3352
▁Carne	-11.3353
▁lane	-11.3356
▁friendship	-11.3357
▁Brad	-11.3357
▁66	-11.336
J	-11.3361
stable	-11.3363
ron	-11.3364
▁prepar	-11.3365
▁Late	-11.3367
▁bat	-11.3368
▁marker	-11.3368
▁terror	-11.3369
▁Down	-11.3371
▁56	-11.3371
▁convict	-11.3375
▁pace	-11.338
▁secular	-11.338
ronze	-11.338
▁attain	-11.338
▁Garden	-11.3381
▁terrain	-11.3381
▁sheep	-11.3383
▁DH	-11.3387
▁integration	-11.3392
▁triple	-11.3395
▁Jona	-11.3397
▁bombing	-11.3397
lsh	-11.3398
set	-11.3399
▁Albanian	-11.3401
diff	-11.3407
▁predecessor	-11.3409
▁Ru	-11.341
NP	-11.3411
▁renewable	-11.3413
▁kings	-11.3418
▁Food	-11.3423
away	-11.3428
▁Q	-11.343
▁Original	-11.3436
▁arithmetic	-11.3439
▁flourish	-11.3439
▁chess	-11.3443
▁boxe	-11.3449
▁pray	-11.3452
▁swing	-11.3454
▁acknowledge	-11.3461
▁photographer	-11.3463
▁176	-11.3465
▁Transport	-11.3468
▁pharmaceutical	-11.3472
▁alloy	-11.3476
▁settle	-11.3477
uck	-11.348
▁ink	-11.3484
▁constraint	-11.3486
▁fate	-11.3488
▁Bermud	-11.3496
▁Jeff	-11.3497
▁Balkan	-11.3497
▁Language	-11.3497
▁Spear	-11.3497
▁honour	-11.3497
▁Chrys	-11.3497
uth	-11.3501
▁Palac	-11.3502
▁contrar	-11.3506
ball	-11.3507
▁continuously	-11.3519
▁excellen	-11.3522
▁faction	-11.3524
alai	-11.3526
▁discrete	-11.3527
▁radar	-11.3527
▁endanger	-11.3528
after	-11.3528
force	-11.3531
▁Charle	-11.3532
▁Adel	-11.3537
▁Rand	-11.3539
▁j	-11.3545
▁Fort	-11.3554
▁Jordan	-11.3555
▁arsen	-11.3556
▁700	-11.3556
▁eagle	-11.3556
▁internet	-11.3557
▁Cambodia	-11.3564
▁dancer	-11.3574
▁facilitate	-11.3578
▁hierarch	-11.3585
▁Movement	-11.3586
▁Calvin	-11.3601
▁Large	-11.3603
▁trail	-11.3603
▁nuclei	-11.3606
▁acupunctur	-11.3609
▁Sp	-11.3611
▁grab	-11.3612
▁mapping	-11.3615
▁twist	-11.3616
▁jersey	-11.3616
▁Stalin	-11.3616
▁regiment	-11.3617
▁kidney	-11.3619
▁Harr	-11.3619
nce	-11.3625
▁Roll	-11.3626
▁Sal	-11.3628
▁recognis	-11.3628
▁pet	-11.3628
▁specifi	-11.3628
▁Mose	-11.3634
rick	-11.3637
▁hire	-11.3643
▁bug	-11.3644
▁default	-11.3646
▁harsh	-11.3646
▁Freedom	-11.3646
▁sunlight	-11.3646
▁deem	-11.3655
▁municipal	-11.3655
▁Sound	-11.3664
▁gathering	-11.3664
eum	-11.3673
▁horizon	-11.3675
▁destroyer	-11.3676
▁undergraduate	-11.3676
▁donor	-11.3676
▁blame	-11.3678
▁fuse	-11.3679
▁Crow	-11.3679
▁transit	-11.3681
▁attractive	-11.3685
▁videos	-11.3686
▁disabl	-11.3693
▁dissolv	-11.3696
▁firing	-11.3697
▁sw	-11.3704
▁flavor	-11.3706
▁vegetati	-11.3706
▁arter	-11.3707
iv	-11.371
▁lamp	-11.373
▁tactic	-11.3735
lf	-11.3735
▁Voice	-11.3736
▁homosexual	-11.3736
▁satisfy	-11.3736
▁gravitational	-11.3736
▁legislature	-11.3736
▁stamp	-11.3738
▁compell	-11.374
▁&#	-11.374
▁Ballar	-11.3745
▁fictional	-11.3754
▁Small	-11.3766
▁Taliban	-11.3766
▁jewel	-11.3766
▁pixel	-11.3766
▁scratch	-11.3766
▁Belgian	-11.3769
▁gentlem	-11.3769
▁perceive	-11.3769
▁stake	-11.3769
light	-11.3772
▁Carol	-11.3773
icity	-11.3774
TV	-11.3778
anish	-11.3778
▁passive	-11.3779
itler	-11.3784
▁Buddhis	-11.3795
▁lawsuit	-11.3797
▁catalyst	-11.3798
▁98	-11.3798
▁mentor	-11.3799
aday	-11.3803
▁Shar	-11.3803
▁fisher	-11.3808
▁dispers	-11.3811
▁astronomy	-11.3819
▁ca	-11.3822
▁Hous	-11.3826
▁shield	-11.3827
▁trajector	-11.3827
▁Douglas	-11.3827
▁feather	-11.3827
▁Network	-11.3827
▁pretend	-11.3827
▁tribute	-11.3827
▁parking	-11.3828
▁closing	-11.383
book	-11.3834
▁zoom	-11.3834
▁devoted	-11.384
▁pipe	-11.3842
sraeli	-11.3843
▁bowl	-11.3845
▁Welles	-11.3845
▁div	-11.3846
▁arc	-11.3846
▁periodic	-11.3847
▁Crown	-11.3849
hour	-11.385
20	-11.3853
abbage	-11.3856
uffalo	-11.3856
▁Choctaw	-11.3857
▁railroad	-11.3857
▁Croy	-11.3857
▁Cook	-11.3858
ru	-11.386
▁drought	-11.3861
▁failing	-11.3862
▁decorat	-11.3863
▁SS	-11.387
▁specialist	-11.3877
ett	-11.3879
▁courage	-11.3886
▁northwest	-11.3887
▁Schwarz	-11.3888
▁defensive	-11.3888
▁Jacob	-11.3888
▁agenda	-11.3888
▁boss	-11.3888
▁borough	-11.3889
▁bend	-11.3894
▁uncertain	-11.3894
chi	-11.3894
▁164	-11.3895
▁4,000	-11.3899
▁cylinder	-11.3899
▁Dar	-11.3899
▁schedul	-11.3907
▁anonymous	-11.3908
▁neighbour	-11.3918
▁Palestinian	-11.3918
▁distill	-11.3918
▁counterpart	-11.3919
▁Anne	-11.3921
kin	-11.3923
▁Plan	-11.3924
▁Agenc	-11.3926
▁ha	-11.3931
▁Fund	-11.3934
▁Tell	-11.3941
▁dishe	-11.3948
▁modest	-11.3948
▁breakthrough	-11.3949
▁Fox	-11.3951
▁rubber	-11.3953
latest	-11.3955
▁Athena	-11.3959
▁dominate	-11.396
▁detector	-11.3963
seas	-11.397
▁module	-11.3971
▁Lama	-11.3977
▁pose	-11.3984
qui	-11.3985
▁dragon	-11.3986
▁Cap	-11.3988
▁Inc	-11.3997
▁Gu	-11.3998
▁pyramid	-11.4011
▁recipe	-11.4011
▁resort	-11.4011
▁scope	-11.4011
▁hunter	-11.4011
▁Federation	-11.4012
▁harmon	-11.4018
▁ought	-11.4021
▁implant	-11.4023
▁Whe	-11.4024
right	-11.4024
▁oral	-11.4029
▁cheese	-11.4042
▁saint	-11.4042
▁Stock	-11.4043
▁hitting	-11.4045
▁artwork	-11.4045
▁decisive	-11.4048
▁Dayton	-11.4049
▁receiver	-11.4055
▁instrumental	-11.4056
▁flee	-11.4056
▁accelerat	-11.4056
▁warn	-11.4057
▁77	-11.4059
▁compiler	-11.406
az	-11.4063
▁Haiti	-11.4071
▁Disney	-11.4073
▁cheat	-11.4073
▁Machine	-11.4073
▁ecological	-11.4074
▁Nick	-11.4075
owie	-11.4075
▁Devon	-11.4075
▁organis	-11.4081
▁weekend	-11.4081
▁Gro	-11.4088
ax	-11.4093
▁submitt	-11.4093
▁Southeast	-11.4094
▁filmmaker	-11.4098
▁Traditional	-11.4098
▁passe	-11.41
▁prevail	-11.4104
▁Thai	-11.4105
▁Iranian	-11.4107
▁mill	-11.4109
ram	-11.4109
▁mad	-11.411
▁dignit	-11.4111
▁headline	-11.4112
-17	-11.4116
ich	-11.4123
▁parliamentar	-11.4132
▁trends	-11.4134
▁Saturday	-11.4136
▁abundance	-11.4136
▁ceiling	-11.4136
▁sensation	-11.4138
made	-11.4139
gne	-11.4139
▁exclud	-11.4141
▁Classical	-11.4143
▁frontier	-11.4143
▁blend	-11.4145
▁Qu	-11.4151
▁casualt	-11.4151
▁Tour	-11.4154
▁clouds	-11.4154
▁rivalr	-11.4155
ib	-11.4158
▁boring	-11.4161
▁globally	-11.4161
▁autonom	-11.4165
▁fortunate	-11.4167
▁Summer	-11.4167
▁tribal	-11.4167
▁shopp	-11.4167
▁retail	-11.4171
▁curiosity	-11.4172
▁revival	-11.4172
▁precis	-11.4172
▁mat	-11.4173
venge	-11.4175
▁gland	-11.4181
▁Gi	-11.4186
▁terroris	-11.419
ndustrial	-11.4192
▁Band	-11.4193
▁Fried	-11.4195
▁chains	-11.4197
▁burst	-11.4199
▁transparent	-11.4199
▁Dick	-11.4202
ook	-11.4208
▁breathe	-11.4213
▁Bee	-11.4215
▁shap	-11.4216
fa	-11.422
▁Jr	-11.422
▁PM	-11.422
▁shirt	-11.4223
▁pant	-11.4224
▁reporter	-11.4226
mon	-11.4228
▁RNA	-11.4229
▁dig	-11.423
▁medal	-11.4237
▁Albania	-11.424
▁Bak	-11.4245
ator	-11.4248
ime	-11.426
▁Grant	-11.4263
▁61	-11.4266
uchy	-11.4269
▁aggregate	-11.4273
▁static	-11.4278
▁merger	-11.4286
▁furniture	-11.4294
▁onward	-11.4295
▁practic	-11.4298
ki	-11.43
▁camps	-11.4303
▁chas	-11.4304
tooth	-11.4304
▁defining	-11.4306
▁southwest	-11.4307
▁Direct	-11.4315
▁mold	-11.4317
▁1929	-11.4322
▁pr	-11.4323
▁Labor	-11.4324
▁calculus	-11.4326
▁wavelength	-11.4326
▁flaw	-11.4327
▁Wow	-11.4327
▁CE	-11.4331
▁Back	-11.4334
▁bitter	-11.4334
▁hoped	-11.4344
▁span	-11.4345
▁masse	-11.4345
CC	-11.4346
▁cow	-11.4347
▁Nova	-11.4347
▁atmospher	-11.4348
▁Bali	-11.435
▁southeast	-11.4351
▁Marc	-11.4351
▁Child	-11.4352
▁explosive	-11.4358
▁Typical	-11.4358
▁heir	-11.4358
▁frank	-11.4359
▁Airline	-11.4361
▁palm	-11.4364
▁radioactiv	-11.4367
▁Indonesia	-11.4368
▁Slav	-11.4371
▁Kh	-11.4372
und	-11.4377
▁anatom	-11.4384
▁boil	-11.4388
▁provider	-11.4389
▁burden	-11.439
▁frog	-11.439
▁alarm	-11.439
▁Lynch	-11.4391
▁specification	-11.4394
▁cargo	-11.4396
▁biograph	-11.4406
▁autobiograph	-11.4406
▁Fr	-11.4407
▁regulat	-11.441
▁fortune	-11.4415
▁magical	-11.4416
ud	-11.4417
▁dis	-11.4419
▁presiden	-11.4422
▁Avenue	-11.4422
▁Sultan	-11.4422
▁spontaneous	-11.4422
▁thread	-11.4422
▁identification	-11.4423
▁readi	-11.4423
▁1910	-11.4425
lan	-11.4426
▁selective	-11.4428
ari	-11.4428
▁wheat	-11.443
itu	-11.4434
▁Ki	-11.4435
▁reasonable	-11.4437
á	-11.4443
▁wedding	-11.4444
▁pav	-11.4445
▁canon	-11.4449
source	-11.445
pro	-11.4452
▁culminat	-11.4455
rzego	-11.4455
▁cipher	-11.4455
▁valve	-11.4455
▁Engineer	-11.4462
▁flame	-11.4474
▁Bret	-11.4487
▁correspondence	-11.4488
▁diagnostic	-11.4488
▁Damas	-11.4488
▁Often	-11.449
▁powder	-11.4491
▁Rule	-11.4492
▁Has	-11.4497
▁assess	-11.4497
▁96	-11.4498
PL	-11.4498
▁Nel	-11.4505
▁needle	-11.4507
▁bell	-11.4516
▁tubes	-11.4517
▁examin	-11.4519
▁rifle	-11.452
▁snake	-11.452
▁Vi	-11.4522
bell	-11.4522
▁ranking	-11.4524
▁genetically	-11.4529
▁Dela	-11.453
▁Woma	-11.453
▁Wolf	-11.4532
▁pink	-11.4536
▁desk	-11.4538
▁Edi	-11.4541
▁regulate	-11.4541
▁Gra	-11.4543
▁console	-11.4544
▁Marshal	-11.4544
ack	-11.4545
cott	-11.4549
▁leaf	-11.4552
▁Athenian	-11.4555
▁violation	-11.4556
▁boiling	-11.4556
▁generic	-11.4556
▁slot	-11.4556
vina	-11.4558
han	-11.4559
ouri	-11.456
▁ambitio	-11.4563
ually	-11.4564
▁legally	-11.4568
▁donat	-11.4571
code	-11.4572
▁Control	-11.4572
▁Bond	-11.4573
▁op	-11.4575
▁dish	-11.4584
▁Castle	-11.4585
▁clergy	-11.4585
▁relax	-11.4585
▁lighter	-11.4586
abul	-11.4587
▁CIA	-11.4587
▁scholarship	-11.4587
▁exit	-11.4587
▁singular	-11.4591
▁Journal	-11.4592
▁Poi	-11.4592
ronto	-11.4592
▁convenient	-11.4602
▁Francis	-11.4603
▁seventh	-11.4606
MD	-11.4607
oc	-11.4611
▁cosmolog	-11.4611
▁belonging	-11.4614
▁behaviour	-11.4618
▁contaminat	-11.4618
▁Student	-11.4618
▁robust	-11.4618
▁comparative	-11.462
▁container	-11.4624
▁Put	-11.4625
▁Rather	-11.4626
▁chloride	-11.4631
▁prince	-11.4632
▁dye	-11.4637
▁Model	-11.4643
▁Simon	-11.4645
▁dispos	-11.4651
phrodi	-11.4651
▁Peninsula	-11.4651
▁petrol	-11.4651
▁1890	-11.4653
▁ab	-11.4654
▁Cat	-11.4656
▁polymer	-11.4656
▁proportional	-11.4659
▁graphic	-11.466
▁acquire	-11.4663
▁Claudi	-11.4666
▁compatible	-11.4673
fi	-11.4681
▁vocabular	-11.4684
▁clue	-11.4684
▁conspirac	-11.4684
▁spectacular	-11.4685
▁Josh	-11.4688
▁decid	-11.4691
▁weaken	-11.4695
▁bid	-11.4696
▁Burk	-11.4698
▁Rum	-11.4704
▁MP	-11.4706
▁emergence	-11.4707
▁scann	-11.4708
olic	-11.4715
▁suppose	-11.4716
▁killer	-11.4717
▁luxur	-11.4717
▁Dragon	-11.4718
▁migrant	-11.4718
▁practitioner	-11.4718
zo	-11.4721
▁hunger	-11.4722
▁fatal	-11.4722
▁excite	-11.4724
▁declaration	-11.473
▁Pat	-11.4733
▁disco	-11.4736
magne	-11.4737
▁corrupt	-11.4741
▁Start	-11.4742
▁Cave	-11.4745
▁Region	-11.4745
▁pill	-11.4745
▁regain	-11.4751
▁Winter	-11.4751
ura	-11.4753
▁pad	-11.4756
▁fed	-11.4756
▁Soon	-11.4756
cos	-11.4768
▁Nichol	-11.4784
▁competitor	-11.4784
▁riot	-11.4784
▁biodivers	-11.4784
▁garbage	-11.4784
▁Mosco	-11.4784
▁Temple	-11.4784
▁Andalusia	-11.4785
▁Veni	-11.4785
▁1880	-11.4786
▁Kansa	-11.4786
▁Cyril	-11.4786
▁Spring	-11.4786
▁kit	-11.479
▁integrate	-11.4793
sburg	-11.48
related	-11.4801
eaten	-11.4801
some	-11.4809
▁cube	-11.4811
▁73	-11.4814
▁pursuit	-11.4819
▁Rememb	-11.4827
▁isolation	-11.4829
▁Wil	-11.4833
▁confident	-11.4833
▁memorial	-11.4834
▁tech	-11.4836
▁horses	-11.4836
▁Cowboy	-11.4852
▁Illinois	-11.4852
▁fantasy	-11.4852
▁squadron	-11.4852
▁submarine	-11.4852
▁diesel	-11.4852
▁outdoor	-11.4854
▁AOL	-11.4864
▁alkali	-11.4867
▁30,000	-11.4871
▁hid	-11.4877
▁camel	-11.4882
▁Defen	-11.4883
▁emission	-11.4884
▁uncomfortabl	-11.4885
▁Initial	-11.4885
▁legitimate	-11.4886
▁Eve	-11.4893
▁upward	-11.4894
▁Va	-11.4895
▁designation	-11.4897
erg	-11.4904
▁entrepreneurs	-11.4906
▁regulator	-11.4914
▁rape	-11.4917
▁gesture	-11.4919
▁cele	-11.4924
▁59	-11.4928
fast	-11.4928
▁Upp	-11.4929
▁dependenc	-11.4929
net	-11.4932
rot	-11.4933
▁burial	-11.4935
▁inject	-11.4942
▁eleven	-11.4953
▁cream	-11.4953
▁cabinet	-11.4954
▁cooperati	-11.4956
▁fl	-11.4964
▁castle	-11.4965
▁Compa	-11.4968
▁Hans	-11.4973
▁screening	-11.4974
uk	-11.4978
▁Manch	-11.498
▁horn	-11.498
ping	-11.498
▁sensory	-11.4984
▁Mormon	-11.4988
▁horror	-11.4988
▁fault	-11.4988
▁Wild	-11.4988
▁Data	-11.4988
▁servant	-11.499
doption	-11.499
▁attendance	-11.4992
▁Canal	-11.4993
▁BG	-11.5004
▁en	-11.5007
▁carve	-11.5009
ional	-11.5011
▁Front	-11.5021
speed	-11.5021
▁Ghana	-11.5022
▁civic	-11.5022
▁discharge	-11.5022
▁intuitive	-11.5022
▁Modul	-11.5022
▁Lady	-11.5023
▁populat	-11.5024
▁bin	-11.5027
▁plasma	-11.5031
▁enforce	-11.5032
▁feminist	-11.5032
▁Ethiopia	-11.5034
▁ugl	-11.5038
▁AL	-11.5043
uff	-11.5044
▁impress	-11.505
▁farmer	-11.5052
▁cop	-11.5053
▁lineage	-11.5054
▁reproduction	-11.5057
▁genuine	-11.5057
▁Kane	-11.5057
▁acute	-11.5057
▁residential	-11.5058
▁suitabl	-11.5059
▁comprehensive	-11.506
PA	-11.5062
tu	-11.5063
together	-11.5068
world	-11.5077
▁Ky	-11.5082
craft	-11.5085
▁broader	-11.5086
wi	-11.5087
▁BAS	-11.5087
▁brutal	-11.509
▁diabetes	-11.509
▁Dallas	-11.5091
▁adequate	-11.5091
▁augment	-11.5091
▁Studie	-11.5091
▁Medicine	-11.5091
▁transmit	-11.5092
▁angel	-11.5096
▁keys	-11.5098
▁capitalist	-11.5099
▁millenni	-11.5109
▁grounds	-11.5121
season	-11.5121
▁viral	-11.5125
▁rotate	-11.5125
▁Higgs	-11.5126
▁mysterious	-11.5126
▁horrible	-11.5128
▁2020	-11.5128
▁texture	-11.5129
▁assassination	-11.5129
▁withdrawal	-11.5132
▁AB	-11.5134
▁methan	-11.5139
▁sword	-11.5144
▁inhibit	-11.5145
▁jur	-11.5149
▁eighth	-11.5151
▁Stein	-11.5151
▁supervis	-11.5159
▁licens	-11.5159
▁prospect	-11.516
▁footprint	-11.516
▁elementary	-11.5161
▁endur	-11.5161
▁Fall	-11.5163
▁Chi	-11.5166
▁Solar	-11.517
▁internationally	-11.5171
▁flip	-11.5174
▁Minor	-11.5175
▁bath	-11.5181
▁injured	-11.5186
▁Mor	-11.5188
▁destin	-11.5192
▁locked	-11.5195
▁pirate	-11.5195
▁larva	-11.5195
▁86	-11.5199
▁165	-11.5203
▁sel	-11.5203
law	-11.5204
▁unifi	-11.5206
▁Barn	-11.5209
ole	-11.521
▁Aar	-11.5211
ox	-11.5211
▁manipulate	-11.5217
▁Yu	-11.5219
▁switched	-11.5219
aging	-11.522
▁1951	-11.5223
▁88	-11.5223
▁volcan	-11.5225
▁paradox	-11.5229
▁Saudi	-11.523
▁artifact	-11.523
▁fraud	-11.523
▁glacier	-11.523
oud	-11.523
▁1860	-11.5231
▁chairman	-11.5234
▁probe	-11.5235
▁restoration	-11.5235
ó	-11.5238
▁cease	-11.5242
▁refin	-11.5242
▁ag	-11.5242
▁egg	-11.5244
▁log	-11.5249
▁affiliate	-11.525
▁pointed	-11.525
▁badly	-11.5257
▁Get	-11.5257
▁missionar	-11.5259
▁Nothing	-11.5261
▁smartphone	-11.5265
▁adverse	-11.5265
▁pigment	-11.5265
▁Anyway	-11.5272
▁Fire	-11.5274
▁update	-11.5278
▁incentives	-11.5288
▁accidental	-11.529
▁NP	-11.5299
▁Taiwan	-11.53
▁humanitarian	-11.53
▁Leonard	-11.53
▁terrestrial	-11.5301
▁Kev	-11.5301
▁circulation	-11.5304
▁nomination	-11.5306
▁vibration	-11.5311
iana	-11.5314
▁shots	-11.5317
oven	-11.5326
▁utility	-11.5333
▁intuition	-11.5335
▁helmet	-11.5335
▁annex	-11.5335
▁dump	-11.5335
▁Motor	-11.5336
▁foster	-11.5336
▁trap	-11.5337
▁Ti	-11.5338
▁reconstruction	-11.5341
▁successive	-11.5347
▁rulers	-11.5351
▁lesser	-11.5352
▁Ga	-11.5366
▁sulfur	-11.5371
▁Abbe	-11.5373
bal	-11.5374
▁lone	-11.5376
▁Job	-11.5379
▁Cre	-11.5383
▁Ches	-11.5386
▁tropic	-11.5389
nny	-11.5393
▁tolerance	-11.5393
▁upset	-11.5403
▁utter	-11.5405
▁Agricultur	-11.5406
▁optimistic	-11.5407
▁Still	-11.5409
▁accommodate	-11.5411
▁seiz	-11.5422
OL	-11.5436
▁realistic	-11.5437
▁depress	-11.5438
wing	-11.5439
▁trauma	-11.5441
▁VI	-11.5441
▁unprecedented	-11.5442
▁sediment	-11.5442
▁Matt	-11.5444
▁bead	-11.5445
▁200,000	-11.5448
▁substitute	-11.5455
found	-11.5458
▁explorer	-11.5461
▁Norman	-11.5461
TP	-11.5466
▁mud	-11.5466
▁goat	-11.5472
▁mal	-11.5476
▁acquisition	-11.5478
aux	-11.5479
▁provinc	-11.5481
▁dealer	-11.5484
▁Plato	-11.5488
▁antisemiti	-11.5492
▁MS	-11.5492
ob	-11.5495
▁withdraw	-11.5505
▁obsess	-11.5505
ague	-11.551
▁Cardinal	-11.5514
▁astronomical	-11.5514
▁diminish	-11.5514
feld	-11.5514
▁hydro	-11.5514
▁Sudan	-11.5515
▁battlefield	-11.5515
CM	-11.5517
▁examination	-11.5517
▁Fas	-11.5518
▁Comic	-11.5518
▁blog	-11.552
gi	-11.5522
▁bats	-11.5527
▁Province	-11.5527
avier	-11.553
dus	-11.5537
▁anticipat	-11.5549
▁Sydney	-11.555
▁penguin	-11.555
▁coyote	-11.555
▁potato	-11.555
▁bankruptc	-11.555
▁transparency	-11.5551
▁mandate	-11.5552
harma	-11.5553
▁regret	-11.5554
▁Cool	-11.5555
▁Laborator	-11.5556
▁Baku	-11.5556
▁Ah	-11.5558
▁Monte	-11.5558
▁Ci	-11.5561
roque	-11.5563
▁Alex	-11.5563
▁employer	-11.5565
▁darkness	-11.5566
▁align	-11.5566
▁spray	-11.5572
ff	-11.5574
mar	-11.5575
▁wondered	-11.5577
MI	-11.5578
ison	-11.558
bath	-11.558
▁Article	-11.5586
▁mosque	-11.5586
▁Frederick	-11.5586
▁entrop	-11.5587
▁premier	-11.5587
▁ASC	-11.5593
▁57	-11.5594
▁vapor	-11.5598
▁brigade	-11.56
▁40,000	-11.5601
▁elevat	-11.5604
boron	-11.5604
▁68	-11.5605
▁hanging	-11.5608
▁secur	-11.5617
▁tackle	-11.5618
▁consult	-11.5618
▁originate	-11.5622
nformation	-11.5622
▁calculator	-11.5623
▁Bohemia	-11.5623
▁decree	-11.5623
▁Philippine	-11.5623
▁numeral	-11.5625
▁Karl	-11.5627
▁Af	-11.5631
▁CP	-11.5632
▁exceptional	-11.5633
▁End	-11.5634
▁archive	-11.5635
▁spare	-11.5639
▁dice	-11.564
▁admir	-11.5645
European	-11.5651
▁bullet	-11.5652
▁plug	-11.5653
▁Bud	-11.5654
spring	-11.5654
▁fears	-11.5655
band	-11.5658
▁praise	-11.5658
Ā	-11.5659
▁pupil	-11.5659
▁drift	-11.5659
▁ladies	-11.5659
▁frustrat	-11.5664
▁154	-11.5664
▁heavier	-11.5665
▁hazard	-11.5669
▁ow	-11.5671
SD	-11.5674
▁Bau	-11.5676
▁discontinu	-11.5679
▁tired	-11.5684
▁Ja	-11.5686
ugh	-11.5686
▁investigate	-11.5686
▁reproduce	-11.5687
mb	-11.5689
▁Goth	-11.569
▁backwards	-11.5693
▁welcome	-11.5695
ches	-11.5696
▁prestig	-11.5696
▁thirty	-11.5696
▁proposition	-11.5696
▁parish	-11.5697
▁globalization	-11.5702
▁composite	-11.5705
▁dri	-11.5706
▁conception	-11.5708
▁bold	-11.571
dos	-11.5711
iness	-11.5711
▁Allen	-11.5714
▁commentar	-11.5716
▁bearing	-11.5717
▁tile	-11.5719
▁curl	-11.5724
profit	-11.5724
▁Ex	-11.573
▁Critic	-11.5732
▁Diamond	-11.5732
▁Electric	-11.5732
▁Point	-11.5733
awa	-11.5734
▁Oak	-11.5735
▁Canter	-11.5735
▁commit	-11.5735
own	-11.5737
▁6,000	-11.5742
▁shake	-11.5744
▁dial	-11.5747
lit	-11.5747
oh	-11.575
▁spite	-11.576
▁intent	-11.5768
▁glucose	-11.5769
▁departure	-11.5769
▁temporari	-11.577
▁syllable	-11.577
▁Wayne	-11.577
▁Milan	-11.5771
▁epic	-11.5772
▁declare	-11.5772
▁diploma	-11.5773
▁Davis	-11.5774
aking	-11.5774
▁fever	-11.5774
rsenal	-11.5782
▁Highway	-11.5783
▁boost	-11.5792
▁Ce	-11.5796
▁Robin	-11.5798
▁escap	-11.5798
rop	-11.5801
▁Steven	-11.5805
▁Carbon	-11.5806
▁Morris	-11.5807
▁redesign	-11.5807
▁halt	-11.5807
▁NGO	-11.5807
▁1870	-11.5808
▁brave	-11.5815
▁demo	-11.5819
▁sanit	-11.582
▁boot	-11.5821
▁helpful	-11.5826
▁activat	-11.5826
pit	-11.5831
▁mimic	-11.5838
▁disadvantage	-11.5844
▁NATO	-11.5844
▁Gaul	-11.5844
▁humid	-11.5844
ea	-11.5848
▁territorial	-11.5848
▁Beside	-11.5848
▁homeless	-11.5852
▁appointment	-11.5853
▁rings	-11.5855
▁drag	-11.5862
ound	-11.5863
▁pur	-11.5866
▁coloni	-11.5878
▁Ni	-11.5879
▁Agripp	-11.5881
▁precursor	-11.5881
chev	-11.5881
▁Warner	-11.5887
▁63	-11.5888
▁geograph	-11.5893
▁Jan	-11.5898
▁duration	-11.5899
▁negotiat	-11.5907
▁winds	-11.5909
▁Was	-11.591
nforcement	-11.5915
▁Shakespeare	-11.5918
▁crater	-11.5918
▁stomach	-11.5918
▁pronunciation	-11.5918
▁mon	-11.5922
▁kg	-11.5922
▁injection	-11.5923
ensus	-11.5925
▁merc	-11.5932
iro	-11.5932
▁persist	-11.5937
▁Dioc	-11.5939
▁pos	-11.5947
▁beating	-11.5954
▁byte	-11.5955
▁Palestine	-11.5956
▁displac	-11.596
▁Anthon	-11.5962
▁concentrate	-11.5964
ellar	-11.5967
▁farms	-11.5968
▁revis	-11.5968
▁exponential	-11.5971
▁depiction	-11.5972
ttle	-11.5973
▁battles	-11.5977
ario	-11.5979
▁Alp	-11.5985
▁till	-11.5986
▁encoding	-11.5994
▁antidepressant	-11.5994
▁Player	-11.5998
▁navigation	-11.6001
atic	-11.6001
▁chord	-11.6001
mic	-11.6005
▁tablet	-11.6012
▁sovereign	-11.6013
▁geographic	-11.6027
▁hills	-11.6029
▁Snow	-11.6032
▁constituent	-11.6032
▁latitude	-11.6032
▁expectanc	-11.6032
▁summit	-11.6032
▁flesh	-11.6032
▁hungry	-11.6033
▁potas	-11.6033
▁embrac	-11.6038
▁weakness	-11.6039
▁albe	-11.6046
▁168	-11.6046
▁rope	-11.6046
▁Case	-11.6047
▁71	-11.6051
▁educate	-11.6052
▁socialist	-11.6054
ark	-11.6055
▁brick	-11.6063
uke	-11.6065
▁Studio	-11.607
▁buffer	-11.607
▁knife	-11.607
▁Agassi	-11.607
▁Isaac	-11.607
▁glue	-11.607
▁gram	-11.6071
▁Dark	-11.6073
▁97	-11.6077
▁wise	-11.6077
▁geological	-11.6078
▁Jay	-11.6081
meter	-11.6081
▁intensive	-11.6084
▁Syrian	-11.6087
▁relat	-11.6095
ois	-11.6095
use	-11.6099
▁surpass	-11.6108
▁spatial	-11.6108
▁monster	-11.6108
▁cardiac	-11.6108
▁impressive	-11.6109
▁blade	-11.6112
90	-11.6113
bul	-11.6114
▁evident	-11.6118
can	-11.612
▁indication	-11.6123
▁cavit	-11.6124
▁parasite	-11.6125
▁93	-11.6128
▁Kid	-11.6132
ibn	-11.6135
▁Harris	-11.6139
▁cello	-11.6141
▁intimate	-11.6146
▁militia	-11.6146
▁shrink	-11.6146
rate	-11.6146
▁electrode	-11.6146
▁bump	-11.6147
▁kiss	-11.6147
▁Orange	-11.6147
▁aspiration	-11.6149
▁silicon	-11.6151
▁bombs	-11.6153
▁qualifi	-11.6154
▁interrupt	-11.6158
▁dodo	-11.6158
▁Whit	-11.6159
▁soup	-11.6162
▁Seattl	-11.6162
▁microscop	-11.6162
▁Rea	-11.6167
▁amber	-11.6171
mi	-11.6177
▁inning	-11.618
▁urg	-11.6182
tant	-11.6183
▁Ross	-11.6183
▁curriculum	-11.6184
▁prevalent	-11.6185
▁Belize	-11.6185
hem	-11.6187
dministration	-11.6189
▁Dam	-11.619
▁Admiral	-11.619
▁Catalo	-11.619
▁incomplete	-11.6198
iki	-11.6198
▁Cathe	-11.6201
▁seeming	-11.6205
▁institute	-11.621
▁reache	-11.6216
▁Titan	-11.622
▁Belarus	-11.6222
▁threshold	-11.6223
stein	-11.6228
▁penetrat	-11.6228
▁conceptual	-11.6238
▁emitt	-11.6238
saw	-11.6241
▁reactiv	-11.6248
▁Iron	-11.6248
▁pause	-11.6248
▁Mayor	-11.6251
jo	-11.6256
CP	-11.6258
promising	-11.6258
▁voyage	-11.6262
▁Universe	-11.6262
▁monopol	-11.6262
▁ridiculous	-11.6262
▁grasp	-11.6263
▁marking	-11.6265
▁Isle	-11.6265
▁fur	-11.6268
▁Bur	-11.6274
hop	-11.6275
▁enhanc	-11.6276
idge	-11.6279
chan	-11.6285
hou	-11.6286
▁den	-11.6287
▁pie	-11.6287
RC	-11.629
▁preach	-11.6291
▁reinforc	-11.6294
▁standardiz	-11.6297
ylan	-11.6298
math	-11.6299
▁Bolivia	-11.6301
phi	-11.6301
▁intact	-11.6301
▁Hubb	-11.6301
▁defendant	-11.6302
▁Bach	-11.6302
▁Production	-11.6303
▁mindset	-11.6304
▁contradiction	-11.6305
▁serial	-11.631
▁mature	-11.6311
▁cliff	-11.6315
▁acre	-11.6318
FC	-11.6323
▁photon	-11.6325
▁companion	-11.6329
▁upgrade	-11.633
▁166	-11.6333
▁depart	-11.6339
▁Beij	-11.634
▁limestone	-11.634
▁Alfons	-11.634
standing	-11.6342
▁ease	-11.6342
▁signing	-11.6344
▁conviction	-11.6346
▁Memori	-11.6347
▁Aaron	-11.6348
▁Euro	-11.635
icero	-11.6351
▁yeast	-11.6351
▁sovereignt	-11.6359
▁indoor	-11.6374
▁communicat	-11.6376
▁Artemis	-11.6379
ureau	-11.6379
▁Lenin	-11.638
▁obligation	-11.6382
▁Make	-11.6383
ury	-11.6383
gom	-11.6387
▁recommendation	-11.6389
onald	-11.639
▁correlation	-11.6397
witz	-11.6411
▁numerical	-11.6411
▁starv	-11.6414
▁Phoenix	-11.6418
▁Taylor	-11.6418
▁petition	-11.6418
▁sweep	-11.6418
▁drown	-11.6418
▁jaw	-11.6418
▁Giant	-11.6419
80	-11.6419
▁retina	-11.6419
▁inhibitor	-11.6429
▁Carlo	-11.6432
bar	-11.6433
larges	-11.6435
▁Arabia	-11.6441
▁resolv	-11.6446
▁Symp	-11.6458
▁Sierra	-11.6458
▁Universal	-11.6458
▁dominance	-11.6458
▁torpedo	-11.6458
▁tragic	-11.6458
▁antenna	-11.6458
▁sperm	-11.6458
▁Communication	-11.6458
▁interference	-11.6458
▁Pittsburg	-11.6461
▁monitoring	-11.6464
▁shout	-11.6464
▁indicator	-11.6472
ock	-11.6478
▁rigid	-11.6487
▁151	-11.6489
▁float	-11.649
▁Cali	-11.6494
▁Corona	-11.6495
▁Lawrence	-11.6498
▁spiral	-11.6498
▁Jefferson	-11.6498
▁primate	-11.6498
▁multiplication	-11.65
onso	-11.6501
box	-11.6501
▁Gord	-11.6502
▁collaborator	-11.6502
▁examine	-11.6502
▁resurrect	-11.6508
▁Indo	-11.6508
▁Lar	-11.6512
▁bore	-11.6513
▁optimis	-11.6514
▁Call	-11.6514
NS	-11.6517
▁Dre	-11.6522
rad	-11.653
▁ROM	-11.6532
▁antiquit	-11.6532
▁AM	-11.6535
▁ward	-11.6535
burgh	-11.6536
▁anthropolog	-11.6537
▁condens	-11.6537
▁Norwegian	-11.6537
▁precious	-11.6537
▁eternal	-11.6537
▁harmful	-11.6539
▁cooling	-11.6539
▁fragile	-11.6542
IOS	-11.6543
clock	-11.6543
SF	-11.6548
▁accumulat	-11.655
▁innocent	-11.6551
▁67	-11.6553
▁bull	-11.6559
▁makers	-11.6561
int	-11.6563
▁persuade	-11.6565
▁deny	-11.6565
▁obsole	-11.657
▁mystic	-11.6575
▁vagina	-11.6577
▁grateful	-11.6577
▁friction	-11.6577
▁propagand	-11.6578
ucky	-11.6578
▁Merc	-11.6578
▁crude	-11.6578
▁workshop	-11.6579
▁Pen	-11.658
▁manipulation	-11.6581
▁blindness	-11.6585
▁steady	-11.66
▁92	-11.6602
▁migrat	-11.6604
▁163	-11.6605
▁advocat	-11.6609
▁rect	-11.6609
▁contradict	-11.6613
▁revelation	-11.6618
▁SI	-11.6618
▁fence	-11.6624
▁Lan	-11.6632
▁width	-11.6639
▁Program	-11.6644
irce	-11.6653
▁melod	-11.6653
▁retire	-11.6657
▁collage	-11.6658
▁encouraging	-11.6658
▁mushroom	-11.6658
▁Clear	-11.6658
▁Local	-11.6658
▁guideline	-11.6659
▁cathedral	-11.6659
ery	-11.6671
▁Peru	-11.6672
stage	-11.6674
▁keeps	-11.6694
▁dressed	-11.6696
▁garage	-11.6698
▁microphone	-11.6699
▁André	-11.6699
▁relie	-11.6704
being	-11.6713
▁senator	-11.6716
▁Algeria	-11.6717
quality	-11.6722
▁Hand	-11.6729
▁empirical	-11.6739
▁modify	-11.6739
▁Consider	-11.6739
▁depriv	-11.6739
▁Parkinson	-11.6739
▁battalion	-11.674
▁fierce	-11.674
▁Wright	-11.674
▁patch	-11.674
▁excessive	-11.6741
▁expell	-11.6741
Sahara	-11.6744
ris	-11.6745
pson	-11.675
▁donation	-11.6752
var	-11.6752
▁sil	-11.6753
▁nin	-11.6761
▁topolog	-11.6766
▁polle	-11.6768
▁soap	-11.6771
uer	-11.6778
▁sequel	-11.678
▁voltage	-11.678
▁Chronicle	-11.6781
▁hostile	-11.6781
velt	-11.6782
▁loyalt	-11.6783
▁autumn	-11.6784
CO	-11.6785
▁nationalist	-11.6785
▁acceleration	-11.6786
▁130	-11.6786
children	-11.6786
▁analogous	-11.6787
▁tiger	-11.6787
action	-11.6789
▁Head	-11.6793
▁socially	-11.6803
▁prais	-11.6804
▁authoriz	-11.6805
▁reader	-11.6806
▁jet	-11.6807
▁navigate	-11.681
▁proxim	-11.6812
▁seasonal	-11.6818
▁sketch	-11.6818
▁emigrat	-11.6821
Beginning	-11.6821
▁widow	-11.6821
▁Venus	-11.6821
▁bulb	-11.6821
▁vacation	-11.6821
▁ministr	-11.6821
log	-11.6821
▁Murray	-11.6821
ater	-11.6821
white	-11.6827
▁DC	-11.6829
▁Regional	-11.683
▁counted	-11.6843
▁geographical	-11.6848
▁inspiring	-11.685
ji	-11.6854
▁Bru	-11.6856
▁Babylon	-11.686
▁Archbishop	-11.6862
▁biblical	-11.6862
▁absorpti	-11.6862
▁pride	-11.6862
▁Lutheran	-11.6864
▁volcano	-11.6868
▁174	-11.6871
▁slice	-11.6871
onne	-11.6874
▁clar	-11.6885
▁Baham	-11.6885
▁Sports	-11.6886
▁quest	-11.6887
▁87	-11.6887
▁economical	-11.6894
▁activate	-11.6901
▁meta	-11.6902
▁thorough	-11.6903
▁conjunction	-11.6903
▁circumcis	-11.6903
▁generous	-11.6904
▁axon	-11.6905
▁Op	-11.6906
▁Senator	-11.6911
▁Independen	-11.6913
▁Desert	-11.6913
▁pound	-11.6921
lium	-11.6924
▁Victorian	-11.6942
▁Intel	-11.6943
▁psychiatr	-11.6944
▁Julian	-11.6944
▁advent	-11.6944
liyah	-11.6945
▁Falcon	-11.6945
▁Shanghai	-11.6945
▁maneuver	-11.6945
▁prescription	-11.6945
▁steep	-11.6945
▁uranium	-11.6945
▁premise	-11.6945
▁unconscious	-11.6946
▁collaborative	-11.6946
▁Week	-11.6947
▁pH	-11.6947
▁del	-11.6947
▁z	-11.6948
▁Story	-11.6953
▁institutional	-11.6957
▁commerc	-11.6961
▁secretar	-11.6962
▁Com	-11.6962
▁planetary	-11.6968
▁Juan	-11.6972
party	-11.6973
▁geo	-11.6982
lle	-11.6983
▁Spirit	-11.6986
caffein	-11.6987
▁Citizen	-11.6987
▁peasant	-11.6987
▁Picture	-11.6987
▁Brook	-11.6987
▁Chapter	-11.6987
▁torture	-11.6987
▁symphon	-11.6988
▁1830	-11.6988
▁Plant	-11.6989
▁bother	-11.6992
▁lett	-11.6994
▁Prussian	-11.7
rbert	-11.7001
▁ego	-11.7008
lmost	-11.7014
5,000	-11.7017
▁compil	-11.7017
▁Charli	-11.7018
▁Use	-11.7019
▁clone	-11.7028
▁Quebec	-11.7028
▁nominal	-11.7028
▁casino	-11.7029
▁cruel	-11.7029
▁ferment	-11.7029
▁confin	-11.7033
▁revision	-11.7034
▁uprising	-11.7036
mony	-11.7037
▁incorrect	-11.7042
▁91	-11.7045
rov	-11.7051
ritage	-11.7054
ade	-11.7058
▁vulnerabilit	-11.7058
▁actress	-11.706
▁162	-11.7066
▁Less	-11.7067
▁Bald	-11.7068
▁carbonate	-11.707
▁Ptolem	-11.707
▁ceramic	-11.707
▁memoir	-11.707
▁ubiquitous	-11.7071
▁Press	-11.7074
▁differentiat	-11.7079
▁Classic	-11.7083
DI	-11.7085
▁Rwanda	-11.709
▁spine	-11.7094
▁conceiv	-11.7098
▁bay	-11.7105
▁utiliz	-11.7105
obi	-11.7105
▁Ash	-11.7112
▁Agreement	-11.7113
▁chiropract	-11.7113
▁scandal	-11.7113
▁pipeline	-11.7113
▁anthropologist	-11.7114
▁overlook	-11.7118
▁wrapp	-11.712
top	-11.712
▁172	-11.712
▁electora	-11.7121
▁cycl	-11.7124
▁Babylonian	-11.7127
linear	-11.713
▁Canto	-11.7136
▁emphasiz	-11.714
grad	-11.7142
▁shower	-11.7144
▁devastating	-11.7146
▁Patric	-11.7149
▁shin	-11.715
four	-11.7153
▁Representative	-11.7155
▁Venezuela	-11.7155
▁wheelchair	-11.7155
▁pagan	-11.7155
▁textile	-11.7157
▁Achille	-11.7157
▁evaluation	-11.7159
▁Luther	-11.7163
DSM	-11.7166
▁83	-11.7169
▁Born	-11.7174
▁der	-11.7174
ulf	-11.7178
▁mines	-11.7182
▁Form	-11.7184
isation	-11.7193
▁Eight	-11.7194
▁blank	-11.7197
▁acclaim	-11.7197
▁Word	-11.7198
▁clon	-11.7198
▁Iceland	-11.72
▁1850	-11.72
▁IP	-11.7202
▁se	-11.7204
▁relocat	-11.7206
▁ensu	-11.721
0	-11.7218
▁Spee	-11.7219
inu	-11.7221
▁Homer	-11.7224
dah	-11.7228
▁Fres	-11.7229
▁manifest	-11.7232
▁updat	-11.7234
▁Emil	-11.7235
▁enact	-11.7238
▁equator	-11.7239
▁fool	-11.724
▁Mitchell	-11.724
▁dopamine	-11.724
▁screw	-11.724
▁vitamin	-11.724
▁absent	-11.724
▁Different	-11.724
▁inclusion	-11.724
▁harbor	-11.724
▁Consequen	-11.724
▁Linux	-11.724
▁Danub	-11.724
▁electromagnetic	-11.7241
▁Flight	-11.7243
ndex	-11.7247
▁Watt	-11.7251
fold	-11.7256
▁heated	-11.7257
att	-11.7259
▁350	-11.7262
▁imply	-11.7264
▁Authorit	-11.7275
▁exam	-11.7277
,	-11.728
FA	-11.7283
▁Uganda	-11.7283
▁jelly	-11.7283
▁pigeon	-11.7283
▁Steel	-11.7283
▁fox	-11.7285
▁geometric	-11.7286
▁bite	-11.7288
low	-11.729
▁psycho	-11.7291
▁vein	-11.7292
dollar	-11.7295
▁rendering	-11.7297
▁layout	-11.7298
▁beta	-11.7299
▁accelerate	-11.7301
bourn	-11.7302
▁Era	-11.7304
▁thrive	-11.7304
▁para	-11.7311
▁ju	-11.7312
inus	-11.7312
▁discriminati	-11.7315
▁integr	-11.7318
▁treasure	-11.7322
▁accompany	-11.7326
▁sibling	-11.7326
▁landmark	-11.7327
▁Milk	-11.7328
▁devil	-11.7328
▁Stra	-11.7333
▁lend	-11.7335
eur	-11.7336
▁Powel	-11.7338
▁Lind	-11.734
▁mar	-11.734
▁distribute	-11.7341
▁List	-11.7343
▁gel	-11.7344
▁Der	-11.7346
bacterial	-11.735
▁sew	-11.735
▁Mid	-11.7358
▁cancel	-11.736
▁identit	-11.7361
iel	-11.7361
ette	-11.7365
▁Michel	-11.7366
erson	-11.7367
▁violin	-11.7368
▁Alternative	-11.737
▁Depressio	-11.737
▁Tanzania	-11.737
▁surplus	-11.737
▁testimon	-11.737
▁Brooklyn	-11.737
▁marble	-11.737
▁Hitch	-11.737
▁cue	-11.7371
▁Euclid	-11.7375
▁transcription	-11.7375
▁beneficia	-11.7379
▁tonne	-11.7384
gula	-11.7389
▁140	-11.739
▁runner	-11.7391
▁Jimm	-11.7394
▁chlorin	-11.7398
iate	-11.7402
terol	-11.7403
▁assessment	-11.7403
▁circulat	-11.7406
▁Ol	-11.7407
NES	-11.7408
▁Gospel	-11.7413
▁neglect	-11.7413
▁macro	-11.7413
▁ballot	-11.7414
arrow	-11.7418
▁Bab	-11.7431
▁Cheer	-11.7433
cene	-11.7434
▁cute	-11.7435
▁Ana	-11.7436
▁compute	-11.7447
▁Balt	-11.7448
▁endless	-11.745
▁Victor	-11.7455
▁slum	-11.7456
pend	-11.7456
ilicon	-11.7456
▁dwarf	-11.7457
▁peninsula	-11.7457
▁timber	-11.7457
▁tuna	-11.7457
▁Pa	-11.7457
▁Floren	-11.7457
▁persecution	-11.7458
▁cake	-11.7459
▁cartoonist	-11.7459
▁irregular	-11.7464
room	-11.7464
▁atheist	-11.7464
lah	-11.7471
pine	-11.7471
range	-11.7472
▁devis	-11.7476
▁Mom	-11.7488
▁sweat	-11.7491
▁com	-11.7491
▁induce	-11.7497
▁Cros	-11.7498
▁dawn	-11.7501
▁polio	-11.7501
▁justify	-11.7501
▁spill	-11.7501
▁metabolism	-11.7501
elling	-11.7501
▁Antoni	-11.7501
▁amendment	-11.7502
▁beryl	-11.7504
▁Raven	-11.7504
▁metre	-11.7507
▁Basel	-11.751
tention	-11.7515
▁Mill	-11.7518
ón	-11.7528
era	-11.7536
▁envelope	-11.7537
▁Had	-11.7537
ister	-11.7539
▁neuro	-11.7543
▁neuroscien	-11.7545
▁embryo	-11.7545
▁Magazine	-11.7545
▁Rhine	-11.7545
▁Wikipedia	-11.7545
▁prosthetic	-11.7545
▁sensitivit	-11.7545
▁recipient	-11.7545
▁shallow	-11.7545
▁lover	-11.7545
▁admission	-11.7545
▁duck	-11.7546
▁speculation	-11.7551
generation	-11.7552
▁bleed	-11.7556
ives	-11.7558
▁verbal	-11.7565
ES	-11.7576
▁lith	-11.7576
▁Northwest	-11.7577
iz	-11.7579
▁Heart	-11.7581
▁responsibilit	-11.7582
▁genocide	-11.7582
nta	-11.7582
▁solub	-11.7584
▁yards	-11.7587
▁Cypriot	-11.7589
▁clarinet	-11.7589
▁Dickens	-11.7589
▁cholera	-11.7589
▁determinant	-11.7589
▁Linnae	-11.759
▁Laden	-11.7591
▁attest	-11.7592
▁inverse	-11.7593
uver	-11.7593
▁Yorker	-11.7595
▁anarchist	-11.7599
▁twentieth	-11.7599
CD	-11.7604
▁beaten	-11.7605
continent	-11.7607
▁2.	-11.7608
▁81	-11.761
▁chemotherap	-11.7613
▁Tri	-11.7623
▁Independent	-11.7626
▁forbidd	-11.7628
▁loyal	-11.7629
▁stressed	-11.763
▁Anatolia	-11.7633
▁ambassador	-11.7633
▁Place	-11.7633
▁bathroom	-11.7633
▁anthem	-11.7634
▁Mandel	-11.7634
▁Candid	-11.7634
▁crap	-11.7634
▁Guinea	-11.7635
▁disagreement	-11.7636
▁complaint	-11.764
▁outward	-11.7644
▁pan	-11.7647
▁AA	-11.7648
▁76	-11.7649
GC	-11.7653
▁execute	-11.7653
▁ironic	-11.7661
▁Class	-11.7664
ides	-11.7675
▁Certain	-11.7678
▁Continent	-11.7678
▁Mad	-11.7678
▁Train	-11.7678
▁Ac	-11.768
▁blast	-11.768
CS	-11.7681
▁Christie	-11.7681
▁abbreviation	-11.7681
▁Trust	-11.7684
ionic	-11.7684
▁Ball	-11.7685
▁whil	-11.7688
▁Auto	-11.7689
▁axe	-11.7689
▁poly	-11.769
▁rebuil	-11.7695
▁brass	-11.7695
pox	-11.7696
▁sampl	-11.7703
▁Brand	-11.7705
▁guards	-11.7706
▁ambition	-11.7708
▁induc	-11.7708
▁beef	-11.7709
▁reside	-11.7713
▁Dad	-11.772
▁Double	-11.7723
▁qualify	-11.7723
▁Know	-11.7723
▁urge	-11.7724
▁scripture	-11.7724
▁Rail	-11.7726
▁anim	-11.7727
▁deaf	-11.7727
▁oversee	-11.7735
fu	-11.7736
▁Alexi	-11.7738
▁Sue	-11.7739
▁subjective	-11.774
▁ridge	-11.7754
▁theological	-11.7757
▁distort	-11.7763
▁Sel	-11.7763
▁attorney	-11.7768
▁fabulous	-11.7768
▁specify	-11.7768
vo	-11.7769
▁Margar	-11.777
▁reception	-11.777
ü	-11.7773
elian	-11.7774
▁Vanco	-11.7776
▁1800	-11.7776
▁workplace	-11.7784
minute	-11.7786
▁Nan	-11.7789
▁Bavaria	-11.7791
▁Daily	-11.7792
▁voluntary	-11.7796
▁Dund	-11.78
▁evolv	-11.7801
verse	-11.7802
▁equit	-11.7806
▁gang	-11.7809
▁Brun	-11.7811
▁termin	-11.7813
▁Oriole	-11.7813
▁Subsequent	-11.7813
▁cricket	-11.7813
▁Oscar	-11.7813
▁Monday	-11.7813
▁desktop	-11.7813
▁flank	-11.7813
▁approximation	-11.7813
▁Phillip	-11.7814
▁beache	-11.7814
▁Uni	-11.7816
▁efficac	-11.7821
▁beans	-11.7829
▁84	-11.7829
▁Pasc	-11.783
▁VII	-11.7832
gue	-11.7842
▁Side	-11.7842
▁Walk	-11.7848
▁tricks	-11.785
ode	-11.7851
▁optic	-11.7851
▁Matthew	-11.7859
▁shrimp	-11.7859
▁stunt	-11.7859
▁Craig	-11.7859
▁161	-11.7863
AC	-11.7866
▁Fran	-11.7867
▁negotiate	-11.7867
▁25,000	-11.7871
▁intrinsic	-11.7874
ps	-11.7875
▁pope	-11.7882
▁shortage	-11.7883
▁accumulate	-11.7885
▁89	-11.7892
▁leverage	-11.7899
terior	-11.7902
▁Ukrain	-11.7903
▁sympath	-11.7904
▁Archimede	-11.7904
▁Executive	-11.7904
▁Ultimate	-11.7904
▁certificate	-11.7904
violet	-11.7904
▁Kurosa	-11.7904
▁warehouse	-11.7904
▁subsidiar	-11.7904
▁purple	-11.7904
▁juice	-11.7904
▁Judge	-11.7904
▁Druze	-11.7904
alen	-11.7904
▁benzodiazepine	-11.7904
▁Contra	-11.7905
ological	-11.7907
▁Sant	-11.7909
▁subsid	-11.7909
▁173	-11.7912
▁browser	-11.7914
ell	-11.7915
▁germ	-11.7917
ough	-11.7919
▁renown	-11.7919
lam	-11.7921
▁consolidat	-11.7926
▁vest	-11.7928
▁collaps	-11.7931
▁summar	-11.7932
60	-11.7933
bola	-11.7933
east	-11.7938
rank	-11.7943
▁Card	-11.7943
▁conform	-11.7948
▁tract	-11.7949
▁pathogen	-11.7949
ã	-11.795
€	-11.795
▁Eagle	-11.795
▁evacuat	-11.795
▁bundle	-11.795
▁vertebrate	-11.7951
▁1840	-11.7951
▁trash	-11.7952
▁Marx	-11.7952
▁peripheral	-11.7953
quatic	-11.7954
▁cabin	-11.7954
▁problematic	-11.7955
▁DEC	-11.7955
▁collaborat	-11.7955
▁Hope	-11.7963
▁packag	-11.7963
rus	-11.7968
nergy	-11.7969
▁astrolog	-11.797
▁900	-11.7974
vity	-11.7976
icular	-11.7977
are	-11.7978
tus	-11.7979
athedral	-11.798
▁Nine	-11.7982
▁teenage	-11.7983
▁Leo	-11.7986
▁overlap	-11.7986
▁freez	-11.7986
▁collector	-11.7988
▁Type	-11.7991
itzer	-11.7991
ö	-11.7993
▁enroll	-11.7994
▁cubic	-11.7996
▁remnant	-11.7996
▁Television	-11.7996
▁athletic	-11.7996
▁Spider	-11.7996
▁steer	-11.7996
▁Tibetan	-11.7998
▁cache	-11.7998
▁sanction	-11.7998
▁batt	-11.8
▁Johnny	-11.8
▁Beth	-11.8002
▁stimulation	-11.8003
nese	-11.8005
7,000	-11.8006
▁Mission	-11.8011
▁Hart	-11.8012
width	-11.8017
▁Saga	-11.8019
▁Except	-11.8019
▁immers	-11.8022
▁rod	-11.8023
▁fortress	-11.8032
ase	-11.8033
▁assisted	-11.804
▁alchem	-11.8041
CA	-11.8042
▁Affair	-11.8042
▁theologian	-11.8042
▁multiply	-11.8042
▁honey	-11.8042
▁Kelly	-11.8042
▁calorie	-11.8043
▁Watson	-11.8043
▁calm	-11.8043
▁breakfast	-11.8044
▁announcement	-11.8044
▁Yang	-11.8044
▁Panama	-11.8044
▁addiction	-11.8049
▁translator	-11.8053
▁harmonic	-11.8055
▁emit	-11.8056
▁upright	-11.806
Y	-11.8063
ssex	-11.8063
▁fo	-11.8066
▁Yo	-11.8072
act	-11.8077
ulli	-11.8078
run	-11.8081
▁Luc	-11.8081
▁impose	-11.8082
▁overwhelm	-11.8082
▁ignoran	-11.8083
▁illustrat	-11.8085
▁gam	-11.8088
▁hostilit	-11.8089
Baghdad	-11.8089
▁Orleans	-11.8089
▁Reserve	-11.8089
▁massacre	-11.8089
▁Dal	-11.8089
▁glow	-11.8089
▁advertisement	-11.809
▁surgical	-11.809
▁Hotel	-11.809
▁font	-11.809
▁disconnect	-11.8091
▁Fuller	-11.8093
▁Team	-11.8094
▁60,000	-11.8103
▁proceeding	-11.8104
▁logg	-11.8105
▁subway	-11.8105
▁Tale	-11.811
▁dropping	-11.811
fully	-11.8111
▁entertain	-11.8112
▁cruise	-11.8115
▁Santo	-11.8119
Man	-11.8122
▁Ada	-11.8124
grade	-11.8127
▁satisfi	-11.8127
▁grace	-11.813
▁socio	-11.8131
▁reviv	-11.8134
▁chole	-11.8135
▁Oregon	-11.8136
▁Should	-11.8136
▁metabolic	-11.8136
▁remix	-11.8136
▁inclusive	-11.8136
▁insufficient	-11.8136
▁flexibilit	-11.8137
▁stance	-11.814
▁Min	-11.8141
ote	-11.8145
▁Bir	-11.8146
▁damn	-11.8148
holm	-11.815
▁speculat	-11.8151
▁Reds	-11.8154
▁zoo	-11.8154
▁74	-11.8157
een	-11.8157
▁Viking	-11.8163
▁Rick	-11.8168
▁sauce	-11.8168
▁Hawaii	-11.8181
▁Patriot	-11.8183
▁ambiguit	-11.8183
▁awkward	-11.8183
▁magnificent	-11.8183
▁banana	-11.8183
▁timing	-11.8183
▁lifespan	-11.8185
loved	-11.819
▁reluctant	-11.819
her	-11.8191
70	-11.8197
▁minus	-11.8197
▁populariz	-11.82
▁Za	-11.8204
▁catho	-11.8207
ward	-11.8207
▁salts	-11.8221
eolith	-11.8226
▁bang	-11.8229
▁Survey	-11.823
▁peculiar	-11.823
▁unbelievabl	-11.823
▁hydrocarbon	-11.823
▁supermarket	-11.823
▁clitoris	-11.823
▁bust	-11.8231
▁delight	-11.8232
▁1,500	-11.8236
▁elegant	-11.8241
mont	-11.8243
▁Bos	-11.8244
▁illuminat	-11.8247
▁oppose	-11.8248
▁cooperate	-11.8248
▁dear	-11.8252
▁meme	-11.8254
▁bricks	-11.8264
ple	-11.8268
▁necessit	-11.8268
▁modul	-11.8274
▁Confuci	-11.8275
▁thrust	-11.8277
▁Cultural	-11.8277
▁escalat	-11.8277
▁Volta	-11.8278
▁reproductive	-11.8278
▁Athanasi	-11.8279
▁Bronx	-11.8279
▁treatise	-11.828
▁correction	-11.8281
▁Litera	-11.8282
▁Helen	-11.8282
▁analyse	-11.8282
▁upload	-11.8284
skri	-11.8284
▁sake	-11.8286
▁discriminat	-11.8287
▁invitation	-11.8289
▁Roma	-11.829
▁dragg	-11.8292
▁Jen	-11.8297
▁stimul	-11.8299
▁holder	-11.8303
▁Convers	-11.8308
▁Ve	-11.8314
30	-11.8318
▁overthrow	-11.8325
▁referendum	-11.8325
▁cervi	-11.8325
▁tuberc	-11.8325
▁Java	-11.8325
▁soundtrack	-11.8325
▁statute	-11.8326
▁fluctuation	-11.8327
▁Malaysia	-11.8329
▁suburban	-11.833
▁bassist	-11.833
▁pl	-11.8331
▁outline	-11.8337
▁criticis	-11.8338
▁sens	-11.8338
▁ensur	-11.8341
▁aqua	-11.8343
mula	-11.8343
▁conductor	-11.8346
hony	-11.8348
▁94	-11.835
screen	-11.8351
ending	-11.8353
▁hom	-11.8354
▁diplomat	-11.8361
aving	-11.8361
▁trader	-11.8362
▁pub	-11.8363
▁Gore	-11.8363
▁drunk	-11.8369
ulosi	-11.8373
▁nephew	-11.8373
▁unveil	-11.8373
▁trunk	-11.8373
▁clause	-11.8373
▁rug	-11.8373
▁Plain	-11.8374
▁157	-11.8374
▁occurrence	-11.8374
lliance	-11.8374
kyo	-11.8375
▁liturg	-11.8376
▁Morgan	-11.8376
▁hyper	-11.8376
▁Cl	-11.8379
▁Confucian	-11.8385
sex	-11.8385
▁manipulat	-11.8385
▁wolf	-11.8388
▁shorten	-11.8394
▁cooperat	-11.8403
▁thrill	-11.8404
▁Hard	-11.8404
▁outlet	-11.8406
▁divergen	-11.8411
ntertainment	-11.8415
lves	-11.8416
▁tenth	-11.8416
▁Teach	-11.8419
MA	-11.842
▁Leban	-11.842
▁offshor	-11.8421
▁Guatemala	-11.8421
▁pedestrian	-11.8421
▁corridor	-11.8421
Family	-11.8422
nomial	-11.8423
omb	-11.8433
▁149	-11.8442
makers	-11.8445
▁Vice	-11.8445
cular	-11.8451
▁Anders	-11.8453
▁Colon	-11.8458
▁79	-11.8461
▁walks	-11.8463
▁counsel	-11.8466
▁Urban	-11.8469
▁Yellow	-11.8469
▁disciple	-11.8469
▁turtle	-11.8469
▁straightforward	-11.8469
▁tuning	-11.8469
▁Blood	-11.847
▁Monet	-11.847
▁pillar	-11.847
▁panic	-11.8471
▁Moz	-11.8472
▁sack	-11.8477
lock	-11.848
▁subordinate	-11.8481
▁Clement	-11.8485
▁obscure	-11.8485
▁plantation	-11.8492
▁MRI	-11.8495
▁glasse	-11.8496
Saxon	-11.8497
▁Basin	-11.8499
order	-11.8507
▁salv	-11.851
▁lobby	-11.8517
reek	-11.8517
ntelligence	-11.8517
▁congress	-11.8518
▁embark	-11.8518
▁tweet	-11.8518
▁convex	-11.8518
▁wrist	-11.8518
▁dilemma	-11.8518
rat	-11.8519
▁CPC	-11.852
▁Anna	-11.8524
▁Grace	-11.8525
▁Alic	-11.8532
oriented	-11.8533
▁FA	-11.8534
▁generator	-11.8538
▁cad	-11.8539
DA	-11.8539
ju	-11.8548
▁storytell	-11.8548
▁stimulate	-11.8552
▁tar	-11.8553
TI	-11.8555
▁dome	-11.8559
bacc	-11.8565
▁faint	-11.8566
▁excuse	-11.8566
▁tutor	-11.8566
▁hollow	-11.8567
▁exert	-11.8567
▁nutrition	-11.8567
▁Horse	-11.8568
▁fungi	-11.8569
▁alert	-11.8569
▁wool	-11.857
▁interfere	-11.857
▁prevention	-11.8571
▁plea	-11.8574
▁NL	-11.8576
zi	-11.8578
▁disabilit	-11.8581
▁violat	-11.8584
▁cooperative	-11.8588
▁celebrity	-11.8589
▁HD	-11.8591
▁trivial	-11.8592
eus	-11.8593
▁Honor	-11.8595
bot	-11.8599
▁Fe	-11.8605
▁Nin	-11.8606
▁152	-11.861
▁shine	-11.8613
▁believer	-11.8614
▁calculating	-11.8615
▁delegate	-11.8615
▁immortal	-11.8615
▁respirator	-11.8615
▁merit	-11.8616
▁feast	-11.8616
▁complication	-11.8616
▁knight	-11.8617
erial	-11.8617
▁coastline	-11.862
▁penis	-11.8621
▁Nile	-11.8623
▁Gate	-11.8626
▁taxi	-11.8626
▁encompass	-11.8626
▁Sri	-11.8627
tah	-11.8628
▁fertilizer	-11.8629
▁asphalt	-11.8633
scent	-11.8634
▁freight	-11.8645
▁refuge	-11.8646
▁repli	-11.8653
▁Billy	-11.8655
ennis	-11.8658
▁sentiment	-11.8658
▁linguist	-11.8658
cientific	-11.8659
for	-11.8664
▁Solomon	-11.8665
▁enlighten	-11.8665
▁guerrilla	-11.8665
▁injustice	-11.8665
▁Czechoslovak	-11.8665
▁slogan	-11.8665
▁cartridge	-11.8665
▁famine	-11.8665
▁Dream	-11.8665
▁Johann	-11.8665
▁hint	-11.8666
▁ideological	-11.8666
▁immunit	-11.8667
▁Berber	-11.867
▁blam	-11.8673
▁recreational	-11.8676
▁Mara	-11.8678
▁diagnose	-11.8685
▁tram	-11.8685
▁differentiate	-11.8698
human	-11.8698
ockey	-11.87
▁determination	-11.8704
▁Fortun	-11.8704
▁exot	-11.8711
tha	-11.8711
▁analytical	-11.8712
▁appreciat	-11.8714
▁reclaim	-11.8714
▁suffix	-11.8714
▁parachute	-11.8714
▁caesium	-11.8714
▁Review	-11.8714
▁toxin	-11.8716
▁FDA	-11.8716
▁NSA	-11.8717
▁void	-11.8719
▁pest	-11.8719
▁rally	-11.8721
▁anarch	-11.8722
▁FM	-11.8722
▁grandparent	-11.8722
ico	-11.8725
▁Dance	-11.8725
nati	-11.8729
ander	-11.8731
▁progression	-11.8748
▁ceas	-11.8748
take	-11.8748
ini	-11.875
▁intercept	-11.8756
▁Ginsb	-11.8763
▁censor	-11.8763
▁triumph	-11.8764
▁Olive	-11.8764
▁embass	-11.8764
▁freak	-11.8764
▁Prayer	-11.8764
▁enrich	-11.8764
▁shuttle	-11.8765
▁fisc	-11.8765
▁fracture	-11.8766
EC	-11.8766
▁tactical	-11.8771
▁Casa	-11.8773
▁Sand	-11.8776
▁matern	-11.8776
▁genera	-11.8777
▁dub	-11.878
▁screens	-11.8785
dental	-11.8785
▁Capp	-11.8785
▁Simpl	-11.879
arch	-11.8794
▁prescrib	-11.8796
heart	-11.8797
government	-11.8797
optic	-11.88
▁82	-11.8801
▁AC	-11.8812
▁Amendment	-11.8814
▁ambiguous	-11.8814
▁contemplat	-11.8814
▁debri	-11.8814
▁bypass	-11.8814
aged	-11.8816
▁Market	-11.8816
▁solvent	-11.8819
▁u	-11.8822
ug	-11.8824
logy	-11.8828
▁popul	-11.8829
▁Spino	-11.8831
▁mono	-11.8837
▁cancell	-11.8842
▁Libya	-11.8842
▁grip	-11.885
▁mini	-11.885
handed	-11.885
ftware	-11.8851
▁viewing	-11.886
▁impair	-11.8862
▁Odysse	-11.8864
▁offense	-11.8864
▁infra	-11.8864
▁forecast	-11.8864
▁cheer	-11.8864
▁Twenty	-11.8865
▁envision	-11.8865
▁NBC	-11.8867
▁manifestation	-11.8868
base	-11.8872
▁accusation	-11.8875
ski	-11.8877
▁migrate	-11.8878
▁denial	-11.8879
▁simplifie	-11.8881
kara	-11.8882
▁125	-11.8886
▁155	-11.889
laughter	-11.889
▁′	-11.8903
hl	-11.8909
▁Rob	-11.891
▁statu	-11.8913
rbor	-11.8913
▁drums	-11.8914
▁bizarre	-11.8915
▁swallow	-11.8915
▁endemic	-11.8915
▁Safe	-11.8915
▁lean	-11.8918
▁Stewar	-11.8919
enberg	-11.892
▁certifi	-11.8924
▁desir	-11.8924
▁assassinat	-11.8924
▁personaliz	-11.8926
▁complement	-11.8928
▁bra	-11.8929
▁abstraction	-11.8931
▁CRT	-11.8931
▁contributor	-11.8932
▁constrain	-11.8933
▁consequent	-11.8935
▁scanner	-11.8939
▁upside	-11.8941
▁shoe	-11.8942
▁racis	-11.8943
▁Sala	-11.8943
▁Pu	-11.8947
species	-11.895
cation	-11.8953
▁archer	-11.8956
▁Domitia	-11.896
ual	-11.896
▁Chel	-11.8961
▁nuts	-11.8962
▁Hot	-11.8964
▁Declar	-11.8965
▁Oklahoma	-11.8965
▁microbial	-11.8965
▁tattoo	-11.8965
▁Tupper	-11.8966
▁Watch	-11.8967
▁DDT	-11.8968
▁aunt	-11.8968
bro	-11.897
▁minimize	-11.8972
dobe	-11.8972
▁Octavia	-11.8972
▁optimal	-11.8974
▁wishe	-11.8974
▁Yugoslavia	-11.8975
▁AK	-11.8976
▁Apart	-11.8976
▁Ap	-11.8997
cost	-11.8997
▁bored	-11.8997
▁subtract	-11.8999
▁slides	-11.9013
▁Ger	-11.9014
cle	-11.9014
▁expenditure	-11.9016
▁virgin	-11.9016
▁reply	-11.9017
▁Nike	-11.9017
▁Nathan	-11.9017
▁amphibian	-11.9017
▁quantitative	-11.9018
▁packet	-11.9018
▁ceremonial	-11.9019
▁Zu	-11.9019
▁Animal	-11.902
▁candle	-11.9021
▁Oil	-11.9021
▁overhead	-11.9022
▁Du	-11.9023
▁Key	-11.9024
▁filling	-11.9025
▁detective	-11.9025
▁glad	-11.9031
▁Leader	-11.9032
▁extraction	-11.9034
▁helium	-11.9037
▁Bal	-11.9043
▁Saxon	-11.9044
face	-11.9044
▁Fred	-11.9048
▁gamma	-11.9054
▁instruct	-11.9054
▁Cur	-11.9056
▁Mongol	-11.9056
▁poisoning	-11.9056
▁bribe	-11.9056
▁canonical	-11.9057
▁salar	-11.9057
▁Cret	-11.9058
▁astonishing	-11.9061
▁denot	-11.9064
▁Dean	-11.9067
→	-11.9068
▁feminin	-11.9068
▁hypothetical	-11.9068
▁impulse	-11.9068
▁conscript	-11.9068
▁displacement	-11.9069
▁reorganiz	-11.9069
▁theorist	-11.9069
▁Deep	-11.9069
▁ecolog	-11.907
▁Ground	-11.9072
▁NH	-11.9072
▁Ant	-11.9081
▁tick	-11.9083
▁Commander	-11.9084
▁fin	-11.9086
▁submit	-11.9087
gli	-11.9089
stream	-11.909
ctor	-11.9092
Ba	-11.9097
burg	-11.9101
nium	-11.9102
▁Rosa	-11.9109
▁Hawk	-11.911
▁editors	-11.9112
cca	-11.9112
▁typ	-11.9113
▁Antony	-11.9114
▁affirm	-11.9116
lihood	-11.9117
astern	-11.9117
▁Tibet	-11.9117
▁Armstrong	-11.9119
▁Pearl	-11.9119
▁Culture	-11.9119
▁neat	-11.9119
▁terrifying	-11.912
▁Coke	-11.9121
rosion	-11.9121
▁Nu	-11.9122
▁fitted	-11.9123
▁LM	-11.9124
ran	-11.9126
meric	-11.913
▁sequenc	-11.9133
tern	-11.9134
▁Dav	-11.9135
▁beverage	-11.9138
▁useless	-11.9139
▁alcoholic	-11.9143
DT	-11.9144
▁thriv	-11.9146
TC	-11.9147
▁causal	-11.9149
▁bacteri	-11.915
incin	-11.9152
▁Wa	-11.9157
motive	-11.9158
▁tide	-11.9158
▁laughing	-11.9162
ori	-11.9163
▁jumped	-11.9169
▁reinvent	-11.9171
▁resonance	-11.9171
▁Dynast	-11.9171
▁motif	-11.9171
▁Vega	-11.9171
▁infectious	-11.9172
▁brush	-11.9173
▁thinker	-11.9173
▁compilation	-11.9175
▁unhapp	-11.9176
▁Cani	-11.9177
▁advisor	-11.9177
▁sang	-11.9182
▁Comor	-11.9186
▁outstanding	-11.9187
▁dissolve	-11.9187
ze	-11.9188
▁continual	-11.9189
▁Capital	-11.9191
▁wel	-11.9193
▁cact	-11.9194
▁Burm	-11.9195
▁Ladi	-11.92
▁modes	-11.9201
▁deepest	-11.9203
▁lap	-11.9204
▁Sub	-11.9205
defin	-11.9206
mium	-11.9207
▁Lyn	-11.9208
▁Dio	-11.9208
▁simulate	-11.921
▁mapp	-11.9211
▁matur	-11.9213
tis	-11.9218
fire	-11.9221
▁Morocc	-11.9221
▁ghost	-11.9223
▁nanotube	-11.9223
▁residue	-11.9223
▁bedroom	-11.9223
▁Hopkin	-11.9224
▁nonprofit	-11.9225
▁breakdown	-11.9225
▁objection	-11.9225
▁crust	-11.9226
▁unfold	-11.9226
▁10-	-11.9229
king	-11.923
▁Julie	-11.9231
▁Panther	-11.9232
valu	-11.9237
▁Colombian	-11.9238
Something	-11.9239
arro	-11.9243
▁financ	-11.9245
▁Political	-11.9246
è	-11.9259
DP	-11.926
OF	-11.9264
▁opt	-11.9266
▁Trinit	-11.9267
▁auction	-11.9269
▁Easter	-11.9269
▁jam	-11.927
▁153	-11.9275
▁explode	-11.9275
▁Afrika	-11.9275
▁convincing	-11.9276
▁transistor	-11.9276
▁Gauss	-11.9276
▁Members	-11.9279
▁marketplace	-11.928
▁activation	-11.9282
▁vs	-11.9287
▁8,000	-11.9288
▁Grow	-11.9289
▁parade	-11.929
▁Beyon	-11.9291
▁hardest	-11.9292
▁Communi	-11.9293
▁Terr	-11.9304
▁Justin	-11.9309
▁Serb	-11.9311
misphere	-11.9312
▁alternat	-11.9323
▁Springs	-11.9326
och	-11.9327
▁Rhode	-11.9328
▁closure	-11.9328
▁denounc	-11.9328
▁prophec	-11.9328
▁shaft	-11.9328
▁Siberia	-11.9328
▁ordain	-11.9328
▁commentator	-11.9329
▁enclos	-11.9329
▁sculptor	-11.9331
▁Medal	-11.9332
▁slaughter	-11.9334
amma	-11.9335
▁resin	-11.9335
▁Roy	-11.9336
▁Medi	-11.9337
▁OS	-11.9337
▁Tit	-11.9338
ila	-11.9339
▁mg	-11.934
▁Historian	-11.9341
pter	-11.9345
▁coloniz	-11.9356
▁Bart	-11.9359
▁Hud	-11.9362
▁scarce	-11.9362
▁collaborate	-11.9363
▁Tar	-11.9367
piece	-11.9369
▁mistaken	-11.937
rix	-11.937
▁hackers	-11.9371
▁Hamilton	-11.9381
▁supreme	-11.9381
▁Charlotte	-11.9381
▁Gandhi	-11.9381
▁Mur	-11.9381
▁lord	-11.9382
▁Staff	-11.9382
▁dictatorship	-11.9382
▁LED	-11.9382
▁semiconductor	-11.9382
▁bald	-11.9382
▁PhD	-11.9384
▁Work	-11.9385
▁Centur	-11.9386
▁Artist	-11.9387
▁spott	-11.9388
▁deployment	-11.9388
▁formulation	-11.9391
▁decoration	-11.9393
▁beds	-11.9396
▁grandson	-11.9397
plan	-11.9399
▁sailor	-11.9404
▁hatch	-11.9405
▁faci	-11.9424
pped	-11.9425
held	-11.9427
▁addict	-11.9428
▁scrap	-11.9432
▁Robins	-11.9433
▁convergen	-11.9434
▁constituenc	-11.9434
▁definitive	-11.9434
▁escort	-11.9434
▁kilogram	-11.9434
▁banjo	-11.9434
▁fifteen	-11.9434
▁lethal	-11.9434
▁seizure	-11.9434
▁CPR	-11.9435
▁tenure	-11.9437
▁topological	-11.9437
vy	-11.9439
▁compassionate	-11.9439
▁reinforce	-11.9442
▁spur	-11.9443
▁heading	-11.9444
▁Puer	-11.9445
▁democrac	-11.9446
▁Hellen	-11.9448
▁margin	-11.9449
▁ascend	-11.945
▁hemisphere	-11.9451
▁facto	-11.9451
▁spinn	-11.9452
five	-11.9453
▁utilize	-11.9457
▁Geographic	-11.9457
▁altar	-11.9463
rush	-11.9465
▁infinit	-11.9469
▁prehistor	-11.9477
▁skelet	-11.9481
▁highland	-11.9484
▁oxytocin	-11.9488
▁tsunami	-11.9488
▁Chamber	-11.9488
▁Financial	-11.9488
▁rigorous	-11.9488
▁resilience	-11.9491
▁Carte	-11.9491
▁wax	-11.9493
▁Pl	-11.9499
▁500,000	-11.95
▁backup	-11.9504
view	-11.9504
hra	-11.9508
▁temperat	-11.9508
PP	-11.9509
sota	-11.951
▁peaks	-11.9515
▁Pres	-11.9516
▁compensat	-11.9517
▁Iraqi	-11.9517
Q	-11.9518
▁Persia	-11.952
▁HP	-11.9522
▁stimulat	-11.9524
osity	-11.9525
anagement	-11.9527
zero	-11.9531
▁pale	-11.9531
▁Indiana	-11.9535
ception	-11.9538
▁washing	-11.9541
▁jihad	-11.9541
▁subtitle	-11.9542
▁discard	-11.9544
▁vanish	-11.9545
▁listener	-11.9547
▁Chilean	-11.9549
▁amphetamine	-11.9551
▁Walker	-11.9552
focal	-11.9553
Fi	-11.9553
▁evaluate	-11.9557
nnett	-11.9557
▁entr	-11.9576
astro	-11.9577
▁Pete	-11.9584
▁sometime	-11.9585
BT	-11.9588
▁bush	-11.9589
▁Sahara	-11.959
▁ratifi	-11.959
vil	-11.9591
▁mu	-11.9593
▁Benedict	-11.9595
▁Biblical	-11.9596
▁Djibouti	-11.9596
▁Progress	-11.9596
▁etymolog	-11.9596
▁implicit	-11.9596
▁junior	-11.9596
▁tributar	-11.9596
▁Castil	-11.9596
▁Lanka	-11.9596
▁monet	-11.9597
▁uncover	-11.9597
▁Apostle	-11.9597
▁soccer	-11.9599
▁consul	-11.96
▁clash	-11.9602
hold	-11.9602
ue	-11.9603
▁Industr	-11.9603
▁chase	-11.9605
▁spher	-11.9608
▁kin	-11.9609
▁undertake	-11.9612
fin	-11.9618
▁connectiv	-11.9622
▁Bl	-11.9622
oil	-11.9635
▁Eli	-11.9636
▁invade	-11.964
▁Lt	-11.9643
tze	-11.9647
far	-11.965
▁administrator	-11.965
▁hurricane	-11.965
▁premature	-11.965
▁spawn	-11.965
▁substrate	-11.965
▁Evan	-11.965
▁cigarette	-11.965
▁classify	-11.965
▁motorcycle	-11.965
▁decease	-11.965
▁Chuck	-11.965
▁Narrat	-11.9651
zinc	-11.9651
▁cows	-11.9653
▁Luna	-11.9654
▁accomplishment	-11.9656
▁sever	-11.9658
▁warmer	-11.9659
oster	-11.9663
▁teache	-11.9663
▁Brigade	-11.9664
▁persuad	-11.9668
▁Baby	-11.9668
gged	-11.9681
erek	-11.9686
▁Baron	-11.9694
bound	-11.9698
atory	-11.9701
▁Ashoka	-11.9705
▁Mughal	-11.9705
▁Orchestra	-11.9705
▁battlecruiser	-11.9705
▁gradient	-11.9705
▁reservoir	-11.9705
dia	-11.9705
▁sandwich	-11.9705
▁merge	-11.9708
nted	-11.971
64	-11.9712
▁Pop	-11.9713
inch	-11.9713
▁Greenland	-11.9716
▁Somalia	-11.9716
▁adjective	-11.9723
path	-11.9724
▁167	-11.9726
▁instabilit	-11.9731
▁rabbit	-11.9736
▁liter	-11.9737
▁doubling	-11.9737
▁Burn	-11.9741
▁169	-11.9742
▁por	-11.9748
▁realization	-11.9749
▁intake	-11.975
▁Bi	-11.9751
amount	-11.9752
▁cyan	-11.9756
dona	-11.9758
▁fir	-11.9758
▁Zimbabwe	-11.9759
▁diffusion	-11.9759
▁grammatical	-11.9759
▁salmon	-11.9759
▁shareholder	-11.9759
▁Lisp	-11.976
▁Potter	-11.976
▁chromium	-11.976
▁Change	-11.9762
▁Nigerian	-11.9762
▁canvas	-11.9763
▁Sure	-11.9766
lix	-11.977
▁Advanc	-11.977
▁Son	-11.9771
▁coron	-11.9771
put	-11.9773
▁chlor	-11.9778
▁360	-11.9782
▁intervene	-11.9786
▁wir	-11.9787
▁biographer	-11.9788
▁Ib	-11.9791
▁evaluat	-11.9794
▁shooter	-11.9796
▁Aragon	-11.9797
flow	-11.9801
▁jar	-11.9804
▁induct	-11.981
▁Chiapa	-11.9815
▁endeavor	-11.9815
▁protagonist	-11.9815
▁segregat	-11.9815
▁Dictionar	-11.9815
▁headache	-11.9817
ograph	-11.9817
▁Dennis	-11.9818
wich	-11.9822
vid	-11.9826
itch	-11.9827
bed	-11.983
▁rabbi	-11.9837
▁Gun	-11.984
▁beaver	-11.9841
▁rolled	-11.9843
▁advised	-11.9849
▁ST	-11.9854
ek	-11.9857
86	-11.9859
▁Creta	-11.9859
▁brake	-11.9868
▁fires	-11.987
▁Guy	-11.987
▁Scientist	-11.987
▁thermodynamic	-11.987
▁cerebr	-11.987
▁Homo	-11.987
▁harbour	-11.987
▁Village	-11.987
▁prevalence	-11.9871
▁explod	-11.9871
▁Minne	-11.9871
▁Half	-11.9872
▁deput	-11.9873
▁devastat	-11.9877
▁viewers	-11.9877
▁summon	-11.9877
▁affinit	-11.9877
▁Galler	-11.9879
▁Austro	-11.9883
▁mega	-11.989
aker	-11.9891
▁Hunt	-11.99
▁poetic	-11.9902
▁moralit	-11.9903
tian	-11.9908
▁blessing	-11.9908
axis	-11.9913
▁degrad	-11.9913
▁dunes	-11.9914
▁traffick	-11.9919
▁wrap	-11.9919
course	-11.9921
person	-11.9924
▁Jas	-11.9925
▁basket	-11.9926
▁Heaven	-11.9926
▁Premier	-11.9926
▁Specific	-11.9926
▁additive	-11.9926
▁chaotic	-11.9926
▁uncommon	-11.9926
▁harness	-11.9926
▁embodie	-11.9926
▁partition	-11.9926
▁dislike	-11.9928
▁supplier	-11.9932
▁Mobil	-11.9933
▁wrestl	-11.9938
▁Barba	-11.9941
▁Fish	-11.9943
▁susceptib	-11.9945
▁Comp	-11.9945
▁intrigu	-11.9947
ker	-11.9949
▁mall	-11.995
▁maker	-11.995
▁orthodox	-11.9951
▁oppress	-11.996
▁ac	-11.996
TA	-11.9962
rgon	-11.9967
▁Commissioner	-11.9967
▁Arian	-11.9968
▁Ivor	-11.9969
vascular	-11.9977
Rahm	-11.9978
chen	-11.9981
▁instinct	-11.9981
▁Express	-11.9982
▁adolescent	-11.9982
▁choir	-11.9982
▁diarrhea	-11.9982
▁pandemic	-11.9982
▁temporal	-11.9982
▁diaspora	-11.9982
▁inferior	-11.9982
▁plaque	-11.9982
▁ornament	-11.9982
▁trademark	-11.9983
▁hallucination	-11.9983
▁suspension	-11.9983
▁plateau	-11.9984
owa	-11.9985
▁insult	-11.9986
▁Listen	-11.9987
▁BT	-11.9988
▁adhesive	-11.9988
▁tooth	-11.9989
▁homework	-11.999
▁woke	-11.9994
▁foreigner	-12.0001
MS	-12.0001
▁bench	-12.0004
▁din	-12.0012
▁tire	-12.0015
▁shade	-12.0016
▁Mesopotamia	-12.0017
row	-12.0018
▁Ming	-12.0024
▁fanc	-12.0026
position	-12.0028
▁cri	-12.003
oline	-12.0032
▁Johnston	-12.0032
▁nano	-12.0037
▁Athletic	-12.0039
▁communal	-12.0039
▁Emma	-12.0039
▁notorious	-12.0039
▁microwave	-12.0039
▁distress	-12.0039
▁loving	-12.0039
ef	-12.0039
▁insane	-12.0039
▁Geoff	-12.004
symmetrical	-12.0043
▁Charl	-12.0045
▁frustration	-12.0046
cast	-12.0047
▁urine	-12.0049
iger	-12.005
▁Eugen	-12.0052
▁Fly	-12.0055
▁bark	-12.0056
▁SE	-12.006
▁corners	-12.0064
rman	-12.0066
▁heroic	-12.0066
▁volatile	-12.0074
▁wip	-12.0078
▁ferr	-12.008
▁clan	-12.0085
▁lowland	-12.0086
▁Tr	-12.0086
establish	-12.0091
mus	-12.0095
▁Official	-12.0096
▁bamboo	-12.0096
▁enlist	-12.0096
▁paralyz	-12.0096
▁Kosov	-12.0096
▁hull	-12.0096
▁demolish	-12.0096
▁proponent	-12.0096
▁vivid	-12.0096
▁Carthag	-12.0097
▁Munic	-12.01
▁Yal	-12.0105
▁colonist	-12.0106
▁balanc	-12.0108
▁arena	-12.0108
▁cooler	-12.0108
▁Allah	-12.0109
▁marsh	-12.0111
▁selfish	-12.0113
▁Kim	-12.0117
aritime	-12.0122
▁interconnected	-12.0129
▁Planet	-12.0131
pr	-12.0135
mise	-12.0137
itude	-12.0137
▁shit	-12.0143
▁contra	-12.0147
▁hypothes	-12.0151
▁Hind	-12.0151
‘	-12.0153
▁juvenile	-12.0153
▁junction	-12.0153
▁discourse	-12.0153
▁subgroup	-12.0153
▁Andorra	-12.0153
▁flora	-12.0153
▁censorship	-12.0154
▁vendor	-12.0154
▁Say	-12.0155
▁swamp	-12.0155
▁Mohamm	-12.016
▁ethnicit	-12.016
▁resignation	-12.0161
star	-12.0162
▁skeptical	-12.0163
ologist	-12.0166
▁exceeding	-12.0174
▁Dog	-12.0179
▁initiate	-12.0181
new	-12.0181
▁Liber	-12.0183
▁Pierre	-12.0183
ui	-12.0184
▁welcom	-12.0188
▁156	-12.0189
▁Constanti	-12.0191
▁stripe	-12.0191
friend	-12.0206
▁Romania	-12.0207
▁cardio	-12.0209
▁Kashmir	-12.021
▁Obvious	-12.021
▁prejudice	-12.021
▁semantic	-12.021
▁unnecessar	-12.021
▁oxidiz	-12.021
▁indefinite	-12.021
▁Aege	-12.021
▁Ahmed	-12.0211
▁Elder	-12.0211
▁butterfl	-12.0211
▁dumb	-12.0211
▁fetus	-12.0211
mingham	-12.0211
case	-12.0213
▁metallic	-12.0213
▁excavation	-12.0215
▁millennia	-12.0216
▁therapist	-12.0216
▁Learn	-12.0221
▁Las	-12.0224
▁incentive	-12.0229
▁synthesiz	-12.023
▁Fourth	-12.0234
▁158	-12.0234
eck	-12.0237
▁Alame	-12.0238
▁focuse	-12.024
▁Color	-12.0242
▁propagat	-12.0242
▁EM	-12.0243
▁manga	-12.0245
▁basement	-12.0248
▁forty	-12.025
▁Bett	-12.0253
▁liberat	-12.026
▁na	-12.0266
▁Climate	-12.0268
▁jungle	-12.0268
▁Eurasia	-12.0268
▁sermon	-12.0268
▁hammer	-12.0268
▁masterpiece	-12.0268
▁sanctuar	-12.0268
▁Nash	-12.0269
▁locate	-12.0272
▁comedian	-12.0273
▁Stop	-12.0275
▁ape	-12.0277
ku	-12.0278
▁Bengali	-12.028
▁sulfide	-12.0286
nam	-12.0293
▁addresse	-12.0294
▁Assyria	-12.0304
zeb	-12.0305
▁cage	-12.0306
game	-12.0312
▁Mao	-12.0313
▁fung	-12.0316
iers	-12.0319
active	-12.0322
▁schizophreni	-12.0325
gram	-12.0325
▁fifty	-12.0326
▁garrison	-12.0326
▁streak	-12.0326
▁theatrical	-12.0326
▁nomad	-12.0326
▁grat	-12.0328
▁Portland	-12.0333
▁potter	-12.0336
helm	-12.034
▁butter	-12.034
▁therapeutic	-12.0341
SM	-12.0342
▁Stoke	-12.0343
▁101	-12.0348
-20	-12.035
▁Herod	-12.0361
▁heel	-12.0362
▁Les	-12.0368
ore	-12.037
▁inference	-12.0372
ken	-12.0372
▁unchang	-12.0372
munition	-12.0384
ular	-12.0384
language	-12.0385
▁Treasur	-12.0385
▁inexpensive	-12.0385
▁pencil	-12.0385
▁baptiz	-12.0385
▁Text	-12.0385
▁terrified	-12.0385
▁Quran	-12.0385
▁authoritarian	-12.0385
▁delta	-12.0385
▁regenerate	-12.0386
▁deer	-12.0386
▁Heracle	-12.0387
▁cosmo	-12.0395
▁Map	-12.04
▁confession	-12.0403
▁eligib	-12.0405
▁identifie	-12.0409
▁Herman	-12.041
▁trailer	-12.0412
▁Name	-12.0414
▁rejection	-12.0419
▁confess	-12.0426
IV	-12.043
▁enforc	-12.0431
▁Neil	-12.0432
▁developmental	-12.0432
▁skeptic	-12.0433
▁articulat	-12.0433
▁Iberia	-12.0436
▁Ron	-12.0436
▁dock	-12.0437
▁apparatus	-12.0443
▁thirteen	-12.0443
▁destructive	-12.0444
▁ISO	-12.0444
▁obey	-12.0444
▁titan	-12.0444
▁Wait	-12.0444
▁rever	-12.0446
▁claw	-12.0446
▁substitution	-12.0447
▁glove	-12.0447
anuel	-12.0448
▁quo	-12.045
▁digest	-12.0451
▁Joan	-12.0451
▁stiff	-12.0452
▁Nepal	-12.0455
▁Collin	-12.0458
look	-12.046
▁Former	-12.0466
▁Leon	-12.0468
ache	-12.0471
▁steadi	-12.0477
▁Chek	-12.0477
Z	-12.0482
▁Boh	-12.0484
▁Actor	-12.0487
wear	-12.05
culture	-12.05
▁expose	-12.0501
▁resembl	-12.0502
▁Chemical	-12.0503
▁hymn	-12.0503
▁sleeve	-12.0503
▁turbine	-12.0503
▁smash	-12.0503
▁pesticide	-12.0503
▁ladder	-12.0503
▁crab	-12.0503
▁Cancer	-12.0503
▁mutant	-12.0503
entagon	-12.0503
▁disturbance	-12.0504
▁sidewalk	-12.0504
▁Danny	-12.0504
▁Strange	-12.0505
▁diode	-12.0505
▁recession	-12.0505
two	-12.0506
▁elevator	-12.0507
▁Mir	-12.051
▁Hold	-12.0511
▁confrontation	-12.0512
▁110	-12.0513
▁faithful	-12.0515
▁echo	-12.0515
month	-12.0518
▁cone	-12.0519
unning	-12.0525
▁Hispanic	-12.0527
▁Troy	-12.0529
gentleman	-12.0531
usch	-12.0535
▁Vincen	-12.0542
ira	-12.0544
▁methodolog	-12.0547
▁visualize	-12.0549
phy	-12.055
▁corps	-12.0557
▁toad	-12.0557
▁abbreviat	-12.0557
child	-12.0558
▁Hurricane	-12.0562
▁crochet	-12.0562
▁despair	-12.0562
▁unfair	-12.0562
▁Twelve	-12.0562
▁deflect	-12.0562
▁scout	-12.0562
▁qualification	-12.0562
▁eager	-12.0562
▁Browns	-12.0564
▁Kei	-12.0567
né	-12.0567
rna	-12.0568
▁suite	-12.0577
▁Sha	-12.0577
▁commuter	-12.0578
▁inaugurat	-12.058
▁assemble	-12.0582
rnhard	-12.0582
▁derivation	-12.0584
▁inch	-12.0585
matic	-12.0585
▁stair	-12.0589
▁unlock	-12.059
▁lense	-12.0595
▁Britt	-12.0595
▁contend	-12.0598
mouth	-12.0602
▁inquiry	-12.0614
▁forgive	-12.062
▁Absolute	-12.0622
▁Telescope	-12.0622
▁crawl	-12.0622
▁polish	-12.0622
▁Period	-12.0622
▁Slovak	-12.0622
hawk	-12.0622
▁lumino	-12.0622
▁prolong	-12.0623
▁payload	-12.0623
▁Element	-12.0623
,200	-12.0623
▁prostate	-12.0625
▁Mann	-12.0625
▁flute	-12.0626
pping	-12.0626
▁Superma	-12.0628
▁sued	-12.0628
org	-12.0631
▁Kings	-12.0635
▁laborator	-12.0648
rque	-12.0652
tta	-12.0654
▁captive	-12.0666
▁needles	-12.0669
▁MR	-12.0673
▁excavat	-12.0678
▁banker	-12.0678
▁lever	-12.0681
▁Ferdinand	-12.0682
▁imperative	-12.0682
▁lesbian	-12.0682
▁affiliation	-12.0682
▁grape	-12.0682
▁insulin	-12.0682
▁jealous	-12.0682
▁cocktail	-12.0682
▁Chrono	-12.0682
▁monastic	-12.0682
▁certification	-12.0682
▁cemeter	-12.0682
▁oath	-12.0683
▁pond	-12.0683
▁Sorry	-12.0683
▁euro	-12.0684
▁ethanol	-12.0684
▁editorial	-12.0684
▁mock	-12.0685
▁Susan	-12.0685
▁archaeologist	-12.0685
▁AT	-12.0687
text	-12.0689
▁nineteenth	-12.0695
▁seize	-12.0699
▁motive	-12.07
▁Lowe	-12.0702
▁adviser	-12.0702
▁Stage	-12.0703
▁gambl	-12.0705
▁CH	-12.0706
▁deficienc	-12.071
▁Inside	-12.0713
▁archipelago	-12.0714
▁defender	-12.0715
▁champions	-12.0717
▁Dun	-12.0728
▁deuter	-12.0732
liberation	-12.0733
asi	-12.0733
▁characterize	-12.074
▁Neanderthal	-12.0743
▁allegiance	-12.0743
▁ensemble	-12.0743
▁gospel	-12.0743
▁syntax	-12.0743
▁patriarch	-12.0743
▁Montreal	-12.0743
▁Ful	-12.0744
▁stall	-12.0744
▁papa	-12.0744
▁Delphi	-12.0745
▁Devil	-12.0745
▁Hux	-12.0745
▁rumor	-12.0746
▁Tree	-12.0749
ido	-12.0751
▁va	-12.0753
▁persistent	-12.0756
▁exo	-12.0757
▁cellulos	-12.0768
▁Jenn	-12.0771
▁prominen	-12.0772
▁ref	-12.0788
▁freed	-12.0793
▁brew	-12.0795
genic	-12.0796
▁communi	-12.0801
▁clade	-12.0802
▁motivate	-12.0802
▁feat	-12.0803
▁Aurang	-12.0804
▁apopto	-12.0804
▁origami	-12.0804
▁Fleet	-12.0804
▁Hundred	-12.0804
▁drastic	-12.0804
▁lattice	-12.0804
▁Serge	-12.0804
▁warrant	-12.0804
▁hail	-12.0804
▁Ivan	-12.0805
▁69	-12.0806
▁reinforcement	-12.0806
▁tolerate	-12.0807
▁synapse	-12.0807
▁energ	-12.0807
weight	-12.0808
▁cope	-12.0808
interest	-12.0809
▁adaptive	-12.0812
▁isolate	-12.0819
train	-12.0828
▁phenomenal	-12.0829
▁replicati	-12.084
del	-12.0841
▁freeze	-12.0844
▁mitochondria	-12.0844
▁coco	-12.0844
▁menu	-12.0845
▁owe	-12.0846
heim	-12.0846
▁reunit	-12.0847
▁Ker	-12.0853
▁Kat	-12.0856
rani	-12.0858
▁Borg	-12.086
▁exaggerat	-12.0861
▁eradicat	-12.0863
▁staple	-12.0865
▁chef	-12.0865
▁wreck	-12.0865
▁Return	-12.0865
▁relay	-12.0865
▁McL	-12.0866
▁Travel	-12.0867
▁anticipate	-12.0867
▁midnight	-12.0868
▁chant	-12.0868
▁ir	-12.087
▁enlarg	-12.087
▁treasur	-12.0872
▁checks	-12.0873
rink	-12.0875
▁centimeter	-12.0877
▁Palmer	-12.088
▁brewer	-12.0882
▁vent	-12.0882
▁dictator	-12.0882
▁accountability	-12.0883
▁complian	-12.0897
▁Burr	-12.09
mate	-12.0901
▁Cyr	-12.0903
etic	-12.0904
▁starch	-12.0907
ano	-12.0913
▁summ	-12.0916
▁Mind	-12.0916
▁generaliz	-12.0917
▁hind	-12.0918
▁doom	-12.0919
sé	-12.0921
▁Madr	-12.0923
▁shak	-12.0924
▁Challenge	-12.0927
▁Regiment	-12.0927
▁satisfaction	-12.0927
▁whisper	-12.0927
lumni	-12.0927
▁versa	-12.0928
▁precedent	-12.0928
-19	-12.0928
▁Total	-12.0932
▁Lang	-12.0937
years	-12.0939
▁Bras	-12.0939
▁fluorescent	-12.094
▁Shi	-12.0947
▁Jacques	-12.0954
▁Join	-12.0954
▁Gal	-12.0955
▁Pra	-12.0958
blew	-12.0959
▁Nat	-12.0961
▁asylum	-12.0962
▁individually	-12.0962
▁Conservati	-12.0966
▁qui	-12.0966
ep	-12.0966
▁realis	-12.0967
▁spice	-12.097
▁optional	-12.0971
ita	-12.0972
▁Hale	-12.0976
▁popp	-12.098
▁functionalit	-12.0989
▁Nevada	-12.0989
▁crossbow	-12.0989
▁iPod	-12.0989
▁abbot	-12.0989
▁saturat	-12.099
▁Silver	-12.0991
▁intentionally	-12.0993
hard	-12.1002
▁captiv	-12.1008
late	-12.1012
tting	-12.1014
west	-12.1016
▁Bonn	-12.1017
▁plott	-12.103
ption	-12.1032
AS	-12.1038
▁Wings	-12.1039
▁Cole	-12.1042
▁Member	-12.1048
▁stain	-12.105
▁gentle	-12.1051
▁commoditi	-12.1052
▁exclusion	-12.1052
▁besieg	-12.1052
▁carpet	-12.1052
▁niche	-12.1052
▁messenger	-12.1052
▁15-	-12.1052
▁almond	-12.1053
▁synonymous	-12.1053
▁playful	-12.1054
▁102	-12.1056
▁tense	-12.1058
rak	-12.1058
▁Bobb	-12.106
▁prosecutor	-12.106
▁enthusiastic	-12.1062
▁Hawke	-12.1063
▁commands	-12.1063
▁Yemen	-12.1065
▁prohibition	-12.1065
▁Box	-12.1069
▁Gol	-12.1073
akov	-12.1074
kel	-12.1074
▁Works	-12.1074
tress	-12.1075
▁midst	-12.1076
ulation	-12.1077
iful	-12.1077
▁105	-12.108
▁Rabbi	-12.1081
▁fad	-12.1083
▁Berg	-12.1089
▁Runn	-12.109
grow	-12.1091
▁cart	-12.1091
▁evaporat	-12.1096
▁amend	-12.1099
▁Lead	-12.11
▁Speci	-12.1107
die	-12.1108
▁Fifth	-12.1114
▁colloquial	-12.1114
▁dessert	-12.1114
▁Keep	-12.1114
▁chunk	-12.1115
▁bikini	-12.1115
▁rediscover	-12.1115
▁Otto	-12.1116
▁Doom	-12.1118
▁coil	-12.1121
iago	-12.1122
economic	-12.1123
iction	-12.1125
▁breach	-12.1127
▁warhead	-12.1133
▁Azerbaijani	-12.1134
▁potent	-12.1137
dec	-12.114
▁pointer	-12.1141
▁Mala	-12.1143
▁Baker	-12.1143
▁patrol	-12.1146
racula	-12.1149
▁folklor	-12.1153
▁deteriorat	-12.1156
part	-12.116
▁tender	-12.1166
bn	-12.1167
▁Bent	-12.1171
ampaign	-12.1176
▁chapel	-12.1178
▁critique	-12.1178
▁disguise	-12.1178
▁repeal	-12.1178
▁unanimous	-12.1178
▁fission	-12.1178
▁Tiberi	-12.1178
▁irrational	-12.1178
▁covalent	-12.1178
▁Revel	-12.1178
▁keen	-12.1178
▁Methodist	-12.1178
▁refrigerator	-12.118
▁genital	-12.1181
▁abnormal	-12.1182
▁caps	-12.1184
▁grabb	-12.1185
▁cub	-12.1186
engineer	-12.119
▁Environmental	-12.1191
▁stereotype	-12.1193
▁yard	-12.1193
▁tangent	-12.1193
FI	-12.1197
▁Bull	-12.1201
orf	-12.1203
▁Male	-12.1207
▁su	-12.1207
▁waterway	-12.1211
tune	-12.1211
▁Confedera	-12.1212
▁rode	-12.1213
▁Barks	-12.1213
▁747	-12.1217
▁Jamaica	-12.1219
etropolitan	-12.122
▁grad	-12.1226
▁connector	-12.1227
dmin	-12.123
ía	-12.1232
lapse	-12.1232
▁sexy	-12.1232
▁Associate	-12.1241
▁CRISPR	-12.1241
▁Cameron	-12.1241
▁Crystal	-12.1241
▁dispatch	-12.1241
▁dissolut	-12.1241
▁technician	-12.1241
▁steroid	-12.1241
▁Akkad	-12.1241
cumen	-12.1242
▁flopp	-12.1242
▁Ahmad	-12.1242
▁ecclesiastic	-12.1242
▁Sudden	-12.1242
▁Strait	-12.1242
▁hatred	-12.1242
▁Holoc	-12.1243
▁gallon	-12.1244
▁Lego	-12.1245
ER	-12.1247
▁LT	-12.125
▁resum	-12.1251
▁backward	-12.1253
▁Rover	-12.1254
▁Deco	-12.1255
▁hotte	-12.1256
▁millimeter	-12.1256
MF	-12.1261
▁constitut	-12.127
▁Plu	-12.1271
▁contractor	-12.1279
▁flipp	-12.1279
illboard	-12.1283
▁transcend	-12.1286
▁surge	-12.1287
▁Arabian	-12.1288
▁ignit	-12.1292
alph	-12.1292
LP	-12.1295
▁arrange	-12.1296
▁donate	-12.1298
▁cataly	-12.13
▁mortal	-12.13
▁dentist	-12.1306
▁inadequate	-12.1306
▁aerodynamic	-12.1306
▁penicillin	-12.1306
▁Professional	-12.1306
▁shrine	-12.1306
▁canopy	-12.1307
▁polarization	-12.1309
▁Charter	-12.131
▁viewpoint	-12.131
▁Norse	-12.1311
▁Libert	-12.1311
▁Edd	-12.1312
▁accumulation	-12.1313
▁conjecture	-12.1314
lux	-12.1314
▁RB	-12.1315
income	-12.1317
▁slip	-12.1318
▁stabilize	-12.132
▁MH	-12.1322
▁Site	-12.1325
▁coincide	-12.1326
▁resid	-12.1326
▁visi	-12.1328
▁traveler	-12.1333
▁Rac	-12.1334
▁Hero	-12.1335
▁tent	-12.1338
▁pric	-12.1344
▁Val	-12.1347
▁Mile	-12.1349
▁builder	-12.1349
ieri	-12.1352
▁Gran	-12.1359
▁Arn	-12.1366
▁Secret	-12.1366
▁premiere	-12.1366
▁squad	-12.137
▁romance	-12.137
▁suspicion	-12.137
▁Adventure	-12.137
▁Stuart	-12.137
▁elastic	-12.137
▁energetic	-12.137
▁Hercule	-12.137
▁odor	-12.137
▁Galile	-12.137
▁Normal	-12.1372
▁Julia	-12.1373
▁Action	-12.1373
▁2030	-12.1374
oque	-12.1374
▁Race	-12.1375
▁Israelite	-12.1376
▁ramp	-12.1378
▁Kay	-12.1383
▁Kar	-12.1383
▁runway	-12.1396
▁Holm	-12.1403
15	-12.1411
erber	-12.1411
▁elde	-12.1412
▁Macedonia	-12.1413
▁blown	-12.1427
roll	-12.1428
▁Cra	-12.143
▁bla	-12.1432
`	-12.1435
▁Individual	-12.1435
▁Limit	-12.1435
▁delegation	-12.1435
▁glimpse	-12.1435
▁incarcerat	-12.1435
▁serotonin	-12.1435
▁unpopular	-12.1435
▁repertoire	-12.1435
▁ventilat	-12.1435
▁Android	-12.1435
▁lesion	-12.1435
▁psychiatrist	-12.1437
▁Deput	-12.1437
▁Unix	-12.1437
▁Electronic	-12.1438
▁Hobbes	-12.1438
gate	-12.1439
▁visualization	-12.1441
▁simulat	-12.1448
▁herb	-12.1448
desirable	-12.1456
▁laying	-12.1456
▁analytic	-12.1467
cci	-12.1468
▁Mau	-12.1468
▁commemorate	-12.147
uction	-12.1471
▁lightn	-12.1472
▁periodical	-12.1472
▁IT	-12.1474
▁Too	-12.1474
▁industrializ	-12.1476
▁attacker	-12.1479
▁characteris	-12.1479
▁bucks	-12.1479
▁complementar	-12.1483
▁128	-12.1485
fax	-12.1488
▁Row	-12.149
▁formulate	-12.1498
▁belly	-12.1498
▁Sche	-12.1499
▁feasib	-12.1499
▁Democracy	-12.15
▁logarithm	-12.15
▁propriet	-12.15
▁spectroscop	-12.15
▁throat	-12.15
▁disseminat	-12.15
trophy	-12.15
▁leopard	-12.15
▁rescu	-12.15
▁mound	-12.1502
▁meditation	-12.1503
▁neurological	-12.1503
▁invert	-12.1504
▁pal	-12.1504
▁flock	-12.1507
▁Rohr	-12.1509
balone	-12.1509
▁offset	-12.151
▁omitt	-12.1512
▁forum	-12.1516
▁ft	-12.1518
▁Diet	-12.1519
án	-12.152
▁applicab	-12.152
40	-12.1525
▁pine	-12.1527
▁Nice	-12.1529
▁arch	-12.1529
niz	-12.1534
▁prop	-12.1536
▁celebrit	-12.1536
▁dies	-12.154
▁SP	-12.1541
style	-12.1543
▁lu	-12.1554
▁inertia	-12.1556
▁pun	-12.1557
▁shocking	-12.1558
▁Micro	-12.1559
▁Marie	-12.1563
▁stigma	-12.1565
nfluence	-12.1565
▁Bhutan	-12.1566
▁Domingo	-12.1566
▁cereal	-12.1566
▁contempt	-12.1566
▁psyche	-12.1566
▁sacrament	-12.1566
▁suspicious	-12.1566
▁spouse	-12.1566
▁hydroxide	-12.1566
▁Section	-12.1566
▁Negro	-12.1566
▁chew	-12.1567
▁cannibal	-12.1567
▁Karma	-12.1567
plat	-12.1568
▁Sicil	-12.1568
rius	-12.1568
ruba	-12.1569
▁iteration	-12.157
▁Barbara	-12.1571
▁verifi	-12.1573
▁creed	-12.1574
▁Jon	-12.1574
▁arous	-12.1579
▁wholly	-12.1588
▁É	-12.1589
▁grey	-12.1589
▁enslav	-12.1596
▁Highland	-12.16
▁Find	-12.1603
▁cha	-12.1606
▁commissioner	-12.1607
anus	-12.1615
bay	-12.1618
▁whistle	-12.1619
▁resume	-12.162
met	-12.1621
▁Alg	-12.1622
▁shelve	-12.1623
▁financially	-12.1626
▁franc	-12.1626
arity	-12.1631
▁catastrophic	-12.1632
▁corpus	-12.1632
▁taboo	-12.1632
▁Suppose	-12.1632
▁pension	-12.1633
▁physiological	-12.1633
▁specialize	-12.1635
▁replica	-12.1635
▁grassland	-12.1639
▁modeling	-12.1646
▁Mongolia	-12.1648
▁coma	-12.1648
tery	-12.1651
▁450	-12.1652
aust	-12.1655
burn	-12.1655
▁Shu	-12.1657
bra	-12.1657
▁Zone	-12.1657
any	-12.1658
▁glory	-12.166
▁emotionally	-12.166
▁intentional	-12.1662
▁lawn	-12.1669
▁Nicaragua	-12.1677
boriginal	-12.1679
▁upgrad	-12.1685
▁hearts	-12.1685
▁Blak	-12.1698
▁roller	-12.1699
▁Cricket	-12.1699
▁commodity	-12.1699
▁creep	-12.1699
▁reptile	-12.1699
▁intimidat	-12.1699
▁mandatory	-12.1699
▁stumbl	-12.1699
▁simplify	-12.1699
▁Found	-12.1699
▁nail	-12.1699
section	-12.1701
▁impairment	-12.1702
▁Socialist	-12.1702
▁fatty	-12.1703
▁guitarist	-12.1704
▁767	-12.1705
▁Gai	-12.1707
▁maximize	-12.1709
shes	-12.1712
▁BF	-12.1713
thermal	-12.1716
aiko	-12.1716
▁1500	-12.1716
300	-12.1717
boat	-12.1717
loy	-12.1718
ussy	-12.1719
▁Vent	-12.1719
▁customar	-12.1723
shirt	-12.1724
▁aspirin	-12.1726
▁Glas	-12.1726
▁alignment	-12.1727
▁dar	-12.1733
▁ineffective	-12.1735
▁Bor	-12.1737
litary	-12.174
▁Luci	-12.174
ogue	-12.1743
▁Ethiopian	-12.1743
link	-12.1743
▁prefix	-12.1744
▁Pain	-12.1752
▁commenc	-12.1752
▁ret	-12.1753
▁exclude	-12.1755
▁Borde	-12.1757
▁announce	-12.1758
▁Burt	-12.1759
▁tan	-12.1762
▁humble	-12.1763
▁Caucas	-12.1765
▁kilo	-12.1766
▁Continu	-12.1766
▁Patriarch	-12.1766
▁expir	-12.1766
▁pepper	-12.1766
▁strait	-12.1766
▁Witness	-12.1766
▁patriot	-12.1766
▁ligand	-12.1766
▁multinational	-12.1766
▁Thirty	-12.1766
▁crest	-12.1766
▁Regard	-12.1766
▁girlfriend	-12.1767
▁vow	-12.1769
▁Gael	-12.1769
▁Agent	-12.177
▁Guardian	-12.177
▁mediate	-12.177
▁curry	-12.1771
▁Bosnian	-12.1773
▁Bio	-12.1778
▁carriage	-12.1778
organic	-12.1784
▁storyline	-12.1788
▁mi	-12.1791
▁worrying	-12.1791
otus	-12.1793
onica	-12.1794
▁categoriz	-12.1796
▁coherent	-12.1798
vice	-12.1799
▁disgust	-12.1801
▁correlate	-12.1801
▁Cars	-12.1802
▁placement	-12.1802
rner	-12.1808
▁domesticat	-12.1812
▁spann	-12.1813
rum	-12.1815
▁Tac	-12.1818
▁hung	-12.1824
lain	-12.1824
connais	-12.1834
▁MLB	-12.1834
▁Protocol	-12.1834
▁manifold	-12.1834
▁depos	-12.1834
▁socket	-12.1834
▁Bloom	-12.1835
▁synagogue	-12.1835
▁allegation	-12.1836
▁posture	-12.1837
▁Guide	-12.184
▁glamor	-12.1843
SSR	-12.1845
▁McCa	-12.1849
GP	-12.1849
▁BBS	-12.1853
live	-12.1854
▁auditor	-12.1855
▁copula	-12.1857
▁handwrit	-12.1857
▁generalization	-12.1859
-40	-12.186
▁metro	-12.1865
▁bonus	-12.1867
▁rhetoric	-12.1871
▁shy	-12.1871
rap	-12.1871
▁interpreter	-12.1876
▁armament	-12.1877
▁Corp	-12.1879
dding	-12.1879
▁contraction	-12.188
cent	-12.1886
▁Gen	-12.1886
▁incremental	-12.1886
▁Range	-12.1888
▁DSM	-12.1889
▁Butler	-12.189
ali	-12.1892
olis	-12.1893
▁penetrate	-12.1893
cha	-12.1898
▁Brit	-12.1901
▁Lieutenant	-12.1902
▁Support	-12.1902
▁carcinogen	-12.1902
▁fourteen	-12.1902
▁nightmare	-12.1902
▁grind	-12.1902
▁incarnation	-12.1902
▁Lavo	-12.1903
▁Numer	-12.1903
▁Diab	-12.1903
▁naive	-12.1903
minster	-12.1904
▁sung	-12.1904
▁Civilization	-12.1904
▁Bayer	-12.1905
▁synthesize	-12.1905
▁miserable	-12.1907
▁downward	-12.1908
ella	-12.1911
▁diocese	-12.1918
▁ballet	-12.1921
last	-12.1921
▁inmate	-12.1923
▁Sina	-12.1924
ldi	-12.1924
▁cock	-12.1929
▁cab	-12.1933
▁Ambros	-12.1935
▁mobiliz	-12.1937
▁Horn	-12.194
terim	-12.1944
▁demons	-12.1947
▁Gio	-12.1948
▁Anti	-12.1951
▁vibrat	-12.1953
▁martia	-12.1954
▁disturb	-12.1955
▁Protect	-12.1958
▁Wins	-12.1963
▁Construct	-12.197
▁Namibia	-12.197
▁shatter	-12.197
▁vigorous	-12.197
▁camouflage	-12.197
▁lamb	-12.1971
▁rite	-12.1971
▁trustworth	-12.1972
▁crank	-12.1973
▁ballistic	-12.1973
▁photosynthesi	-12.1974
▁degradation	-12.1974
▁Yah	-12.1974
▁sketche	-12.1976
▁Fisher	-12.198
▁Duch	-12.1981
▁summarize	-12.1981
▁lin	-12.1985
▁Henri	-12.1992
▁nights	-12.2001
Barack	-12.2003
▁ser	-12.2007
▁smil	-12.2008
▁viewer	-12.2013
uous	-12.2015
DC	-12.2018
▁Dü	-12.2021
rmed	-12.2026
▁intestine	-12.203
▁arid	-12.203
▁LP	-12.2034
▁boots	-12.2037
▁pivot	-12.2039
▁Himalaya	-12.2039
▁Skinner	-12.2039
▁cognition	-12.2039
▁fractal	-12.2039
▁gauge	-12.2039
▁superhero	-12.2039
▁Owen	-12.2039
▁Antioch	-12.2039
▁Cartesian	-12.2039
▁stagger	-12.2039
▁resent	-12.2039
▁junk	-12.204
▁Clay	-12.204
▁registration	-12.2041
▁Maritime	-12.2043
▁Aca	-12.2044
▁couch	-12.2044
▁ballad	-12.2044
▁honorar	-12.2044
▁apost	-12.2045
▁Farm	-12.2047
▁philanthrop	-12.2052
▁chronicle	-12.2052
HC	-12.2054
▁advancement	-12.2057
▁agnostic	-12.206
▁outlaw	-12.2062
▁Willi	-12.2066
▁Princes	-12.2067
▁Confederat	-12.2067
▁Rai	-12.2068
▁restructur	-12.2072
▁apologize	-12.2072
▁slipp	-12.2072
▁mac	-12.2079
▁homeland	-12.2086
▁Living	-12.2087
▁Poet	-12.2089
▁unite	-12.2091
▁plead	-12.2091
cartes	-12.2092
▁Agne	-12.2094
▁Sony	-12.2096
▁ATA	-12.2098
▁stripped	-12.2099
xchange	-12.2101
▁COB	-12.2104
▁Legislati	-12.2109
▁recount	-12.2109
▁analyst	-12.2109
▁Harbor	-12.2109
▁Probab	-12.2109
▁Latter	-12.2109
▁outrage	-12.211
▁braille	-12.211
▁blink	-12.2111
▁Harle	-12.2112
▁antigen	-12.2113
▁JF	-12.2113
tega	-12.2114
▁biotechnolog	-12.2114
ique	-12.2115
▁wetland	-12.2115
▁adjustment	-12.2115
▁Sol	-12.2122
nity	-12.2123
▁amaz	-12.2125
▁Pur	-12.2131
▁culturally	-12.2131
▁locomotive	-12.2136
▁Alb	-12.2137
▁Mather	-12.2137
▁arthriti	-12.2138
▁ham	-12.2139
▁Rem	-12.2139
▁Drug	-12.2145
▁Scholars	-12.2145
▁commemorat	-12.215
▁mob	-12.2151
▁radial	-12.2156
▁Sear	-12.2161
▁Ask	-12.2164
▁stretche	-12.2167
PS	-12.2171
rising	-12.2172
aggression	-12.2179
▁Nixon	-12.2179
▁Technical	-12.2179
▁monsoon	-12.2179
▁conceal	-12.2179
▁Popular	-12.2179
▁Eviden	-12.2179
▁mourn	-12.2179
mberg	-12.2179
▁Galax	-12.2179
▁consultant	-12.2179
▁Route	-12.218
▁lobe	-12.2183
▁Price	-12.2185
▁motherboard	-12.2187
Raymond	-12.2188
▁stabiliz	-12.219
▁mint	-12.219
▁offence	-12.219
▁OE	-12.2192
▁yell	-12.2193
▁pore	-12.2195
oto	-12.2196
▁Macedonian	-12.2203
▁morpholog	-12.2205
▁centraliz	-12.2209
▁Mario	-12.221
▁Amy	-12.221
▁hopeless	-12.2212
▁logistic	-12.2213
▁auxiliar	-12.2213
▁Joy	-12.2213
▁orient	-12.2215
▁enthusias	-12.2216
▁Bris	-12.2222
▁compensate	-12.2223
▁paste	-12.2225
▁Clause	-12.2228
▁po	-12.2228
▁endors	-12.2235
▁pul	-12.2239
▁Gy	-12.2243
▁perfection	-12.2243
▁scaling	-12.2245
▁jack	-12.2249
▁Female	-12.2249
▁Hondura	-12.2249
▁Macintosh	-12.2249
▁bipedal	-12.2249
▁incidence	-12.2249
▁Trojan	-12.2249
▁amplitude	-12.2249
▁caution	-12.2249
▁Enlighten	-12.2249
▁Brandenburg	-12.2249
▁oracle	-12.2249
▁Quix	-12.2249
▁Economist	-12.2249
▁lipid	-12.225
▁vague	-12.225
▁Hat	-12.225
▁gig	-12.225
▁pizza	-12.2251
▁Atkins	-12.2251
ridge	-12.2253
▁humorous	-12.2254
ontemporar	-12.2255
▁Comed	-12.2257
▁Kant	-12.2259
▁1600	-12.226
▁attachment	-12.2262
▁disruption	-12.2264
▁Tram	-12.2265
drive	-12.2269
lec	-12.2271
chrom	-12.2272
▁Pedr	-12.2273
▁Kenne	-12.2276
ova	-12.2276
cell	-12.2281
▁Indus	-12.2289
▁savanna	-12.229
▁scream	-12.2291
ddar	-12.2292
▁Sale	-12.2298
▁Europ	-12.23
▁Try	-12.2301
tter	-12.2303
▁mesh	-12.2305
FT	-12.2305
▁Ceme	-12.231
▁narrat	-12.2316
~	-12.232
▁Patient	-12.232
▁aberration	-12.232
▁alkaloid	-12.232
▁boast	-12.232
▁delicate	-12.232
▁posthumous	-12.232
▁rethink	-12.232
▁existential	-12.232
▁Doroth	-12.232
▁Capitol	-12.2321
tangible	-12.2322
▁halve	-12.2322
▁lease	-12.2323
loo	-12.2323
uz	-12.2329
▁Pun	-12.2332
▁adhere	-12.2334
▁UE	-12.2336
▁AIM	-12.2337
▁lateral	-12.2339
ima	-12.234
▁induction	-12.2342
limited	-12.2345
▁climber	-12.235
▁flux	-12.2354
home	-12.2354
final	-12.2355
▁alkane	-12.2358
▁Pakistani	-12.2358
▁princess	-12.2362
▁remembering	-12.2364
▁Atlanti	-12.2367
▁Prussia	-12.2369
master	-12.237
▁fr	-12.237
ét	-12.237
menc	-12.2374
pus	-12.2377
▁corona	-12.2378
election	-12.2382
▁erupt	-12.2387
AL	-12.2387
▁flowering	-12.2387
▁Laws	-12.2387
Abdu	-12.2391
▁Disease	-12.2391
▁carbohydrate	-12.2391
▁chimp	-12.2391
▁haunt	-12.2391
▁niece	-12.2391
▁spectator	-12.2391
▁Squadron	-12.2391
▁Study	-12.2391
▁unofficial	-12.2392
ozo	-12.2392
▁urgent	-12.2393
iath	-12.2393
▁Archaeolog	-12.2393
▁phosphorus	-12.2393
▁lightweight	-12.2394
▁compuls	-12.2395
finish	-12.2398
▁royalt	-12.2398
▁frightening	-12.2399
▁fec	-12.24
ala	-12.24
▁woods	-12.2403
▁physiolog	-12.2405
▁floors	-12.2411
▁unaware	-12.2411
▁fortifi	-12.2415
organiz	-12.2417
ascar	-12.2418
▁archaic	-12.242
▁Aster	-12.242
▁warship	-12.2426
▁criticize	-12.2427
▁CC	-12.2427
▁auro	-12.2431
ggle	-12.2434
▁synthesizer	-12.2435
▁greet	-12.2441
▁Rey	-12.2444
▁grie	-12.2446
tte	-12.2456
▁conservat	-12.2459
▁Approximate	-12.2463
▁Lombard	-12.2463
▁genomic	-12.2463
▁martyr	-12.2463
▁Amazing	-12.2463
▁taxonom	-12.2463
▁diffuse	-12.2463
▁moisture	-12.2463
▁watershed	-12.2464
▁anxious	-12.2464
▁tilt	-12.2465
▁Zero	-12.2465
▁Ernest	-12.2466
▁dung	-12.2466
▁teammate	-12.2466
▁Opera	-12.2467
▁prosecution	-12.2468
bil	-12.2468
▁inefficient	-12.2468
▁instructor	-12.2468
▁Touris	-12.2471
▁nut	-12.2472
▁Guin	-12.2477
▁Malay	-12.2493
gro	-12.2494
anach	-12.2497
▁Johannes	-12.2498
▁revert	-12.2503
emost	-12.2522
▁Ell	-12.2523
▁disappointed	-12.2524
compatible	-12.2527
▁innovate	-12.2533
▁vertebra	-12.2534
▁scaffold	-12.2536
ijuana	-12.2536
▁archbishop	-12.2536
▁granite	-12.2536
▁Cathar	-12.2536
▁redundan	-12.2536
▁secession	-12.2536
▁Trump	-12.2536
▁rodent	-12.2537
lerant	-12.2537
▁Millenni	-12.2538
▁embarrassing	-12.2542
▁blockade	-12.2543
▁bombard	-12.2544
▁Decca	-12.2553
lva	-12.2554
▁nitr	-12.2559
▁marginal	-12.2559
▁Bit	-12.256
▁divinit	-12.2566
AP	-12.2573
imi	-12.2574
statin	-12.258
DU	-12.2584
lept	-12.2584
heid	-12.2589
▁Eri	-12.2595
ME	-12.2596
▁converge	-12.2605
▁sculpt	-12.2605
▁celiba	-12.2609
▁circa	-12.2609
▁convenience	-12.2609
▁scroll	-12.2609
▁ASL	-12.2609
▁Complex	-12.2609
ailroad	-12.2609
▁puppet	-12.2609
▁drummer	-12.2609
▁backyard	-12.2609
▁vici	-12.261
▁catalogue	-12.261
▁Saul	-12.261
▁reasonabl	-12.261
▁shepherd	-12.2611
▁anatomical	-12.2611
▁dug	-12.2612
▁Oriental	-12.2613
.5	-12.2614
▁thickness	-12.2616
▁geolog	-12.2618
▁Block	-12.262
▁char	-12.2622
lature	-12.2623
▁Twin	-12.2625
antu	-12.2631
▁tagg	-12.2633
▁Mya	-12.2633
▁Depend	-12.2635
▁helpless	-12.2635
famous	-12.2638
▁disturbing	-12.2643
▁Glass	-12.2654
▁Franco	-12.2663
▁intersect	-12.2667
ogen	-12.2673
▁caste	-12.2681
▁legitima	-12.2682
▁Kepler	-12.2682
▁altruism	-12.2682
▁annihilat	-12.2682
▁boomerang	-12.2682
▁pennant	-12.2682
▁salamander	-12.2682
▁serpent	-12.2682
▁epoch	-12.2682
▁Heath	-12.2682
▁geek	-12.2683
▁Koran	-12.2683
▁ooh	-12.2683
▁loot	-12.2683
▁Principle	-12.2684
▁submission	-12.2685
▁spy	-12.2686
▁Wire	-12.2687
▁Briton	-12.269
▁interst	-12.269
▁prose	-12.2691
▁grocery	-12.2694
▁Luk	-12.2699
▁fret	-12.27
▁Hear	-12.2701
▁Gius	-12.2704
sensitive	-12.2704
▁unrest	-12.2707
▁nonviolen	-12.2713
▁fertiliz	-12.2714
shine	-12.2716
▁Qing	-12.2716
HO	-12.272
▁widen	-12.2724
▁conven	-12.2724
asca	-12.2726
mann	-12.2735
▁optimize	-12.2737
▁Sky	-12.274
▁Engine	-12.2741
▁Bus	-12.2743
plane	-12.2745
▁Mach	-12.2745
hel	-12.2749
▁Fellow	-12.2756
▁Faith	-12.2756
▁Presbyterian	-12.2756
▁covenant	-12.2756
▁skyscraper	-12.2756
▁rectangle	-12.2756
▁erotic	-12.2756
▁Spence	-12.2757
▁Atlas	-12.2758
▁quarterback	-12.2758
▁cyclist	-12.2758
▁mot	-12.2759
▁scare	-12.2759
▁Holland	-12.2762
▁Beta	-12.2763
▁doctorate	-12.2765
▁Sign	-12.2766
▁daylight	-12.2766
▁allocat	-12.2768
▁adherent	-12.2768
▁presid	-12.277
▁Marlboro	-12.2772
▁compose	-12.2777
ith	-12.2779
elect	-12.2787
▁spike	-12.2791
aph	-12.2795
▁amine	-12.2802
▁blurr	-12.2808
avian	-12.2812
▁prosecut	-12.2816
▁digg	-12.2818
▁Aberd	-12.2819
▁validat	-12.2821
▁posit	-12.2825
▁PT	-12.2826
▁circum	-12.2827
mark	-12.2829
▁Laugh	-12.2831
▁Covenant	-12.2831
▁Writing	-12.2831
▁militant	-12.2831
▁unacceptabl	-12.2831
▁uninten	-12.2831
▁Clair	-12.2831
▁olive	-12.2832
▁Monteverd	-12.2832
▁Compar	-12.2834
SR	-12.2834
▁Bros	-12.2836
▁NCA	-12.2836
▁lips	-12.2837
▁phoneme	-12.2839
▁sunk	-12.284
▁homogeneous	-12.2841
▁anal	-12.2841
winning	-12.2842
▁democratiz	-12.2845
▁Scots	-12.2845
rassic	-12.2849
guel	-12.285
ldred	-12.2853
▁bounce	-12.2854
▁rockets	-12.2859
natural	-12.2861
▁screaming	-12.2862
▁fluoride	-12.2864
▁Digi	-12.2868
▁miner	-12.2873
▁Care	-12.2882
igh	-12.2891
▁harden	-12.2893
▁rider	-12.2894
▁Constan	-12.2897
▁aristocra	-12.2898
▁Griffi	-12.2901
▁experimentation	-12.2903
▁judg	-12.2906
▁hectare	-12.2906
▁Evangelical	-12.2906
▁Corsica	-12.2906
▁Habsburg	-12.2906
▁Grammy	-12.2906
▁Uncle	-12.2907
▁facade	-12.2907
▁cleaner	-12.2908
▁nerd	-12.2909
▁1820	-12.2909
▁convolution	-12.291
▁qua	-12.2914
▁triangula	-12.2916
▁Rich	-12.2926
▁Diane	-12.2928
bane	-12.293
▁Neo	-12.294
▁Metro	-12.2943
▁obsession	-12.2947
SC	-12.2947
food	-12.2949
▁KB	-12.2949
▁absurd	-12.2953
▁Creat	-12.2955
cardi	-12.2957
▁magne	-12.2962
annon	-12.2962
▁swor	-12.2966
ction	-12.2969
▁cyclic	-12.2971
▁housed	-12.2974
▁sync	-12.2978
VA	-12.298
{	-12.2982
▁commune	-12.2982
▁diacritic	-12.2982
▁mortar	-12.2982
▁relevanc	-12.2982
▁oyster	-12.2982
▁miniature	-12.2982
▁tariff	-12.2982
▁cafe	-12.2982
▁confusing	-12.2982
▁reconciliation	-12.2982
▁Paper	-12.2982
▁disband	-12.2982
▁peacekeep	-12.2982
▁Boole	-12.2983
▁Rush	-12.2983
▁bioma	-12.2984
▁resemblance	-12.2984
▁innovator	-12.2984
▁sock	-12.2984
▁Ukrainian	-12.2984
▁topograph	-12.2985
▁Rebe	-12.2986
▁lime	-12.2987
▁Whig	-12.2988
▁Hein	-12.2991
▁121	-12.2995
▁novelist	-12.2996
bac	-12.2999
▁placebo	-12.3
▁remotely	-12.3006
▁yoursel	-12.3012
▁Fine	-12.3018
▁pea	-12.3026
esla	-12.3028
▁cite	-12.3028
▁thermo	-12.303
▁fade	-12.3031
acia	-12.3032
▁ACE	-12.3034
▁Happ	-12.3035
▁exponentially	-12.3036
▁nun	-12.3038
▁eject	-12.3042
▁Environment	-12.3042
▁encompasse	-12.3051
▁unpredictabl	-12.3051
▁Rub	-12.3053
▁memorabl	-12.3053
wick	-12.3054
ennial	-12.3056
▁Chancellor	-12.3058
▁Previous	-12.3058
▁antioxidant	-12.3058
▁cytoplasm	-12.3058
▁kernel	-12.3058
▁superficial	-12.3058
▁consecrat	-12.3058
▁Broadcast	-12.3058
▁aperture	-12.3058
▁bolt	-12.3058
esteem	-12.3058
▁Glad	-12.3058
▁entail	-12.3058
▁carving	-12.3059
▁ATM	-12.3059
▁gym	-12.3059
▁stir	-12.3059
tag	-12.306
▁Win	-12.3061
▁professors	-12.3061
▁imitate	-12.3066
▁Lester	-12.3067
unity	-12.3067
▁Run	-12.3067
▁phonetic	-12.3073
▁Au	-12.3074
▁intern	-12.3075
▁30-	-12.3076
▁newborn	-12.3077
▁Bad	-12.3083
▁148	-12.3083
ante	-12.3085
▁oblig	-12.3086
minent	-12.309
wan	-12.3092
▁crosse	-12.3098
▁Physic	-12.3098
▁wipe	-12.3098
▁AG	-12.3102
▁racist	-12.3107
▁GM	-12.3109
▁20-	-12.311
▁Jet	-12.3112
▁Cru	-12.3113
asis	-12.3119
▁Mari	-12.3121
▁Rican	-12.3125
▁recit	-12.3126
▁ES	-12.3127
OC	-12.3128
}	-12.3135
▁Carava	-12.3135
▁Lockheed	-12.3135
▁irrelevan	-12.3135
▁fauna	-12.3136
▁telegraph	-12.3136
▁residual	-12.3136
▁Ryan	-12.3136
▁superpower	-12.3137
▁fringe	-12.3137
▁Chaos	-12.3137
▁PR	-12.3138
▁decent	-12.3138
▁fitting	-12.3139
▁duo	-12.314
▁IU	-12.314
▁Ski	-12.314
▁clutch	-12.3141
▁Cruz	-12.3142
▁innate	-12.3143
▁distortion	-12.3143
▁contingent	-12.3144
▁Buck	-12.3145
▁Table	-12.3146
ggio	-12.3147
▁worsen	-12.3153
mile	-12.3153
▁conserv	-12.3153
▁sneaker	-12.3156
SP	-12.3157
▁chat	-12.3158
▁prefixe	-12.3161
▁Ice	-12.3163
▁generalize	-12.3163
▁Aston	-12.3165
IN	-12.3165
▁recreate	-12.3166
ovsk	-12.3167
tine	-12.3169
▁invasive	-12.317
▁Room	-12.3171
▁Tan	-12.3172
consistent	-12.3173
▁Geno	-12.3175
assembl	-12.3179
▁maxim	-12.3185
▁polite	-12.3188
aff	-12.3189
▁congesti	-12.3191
▁awake	-12.3191
▁wander	-12.3195
▁Bath	-12.3196
▁Gray	-12.3197
▁communis	-12.3199
▁creditor	-12.32
▁Ern	-12.3201
▁Aene	-12.3207
emia	-12.3209
▁bent	-12.3211
▁Loyalist	-12.3213
▁Mumbai	-12.3213
▁Nuclear	-12.3213
▁Pretty	-12.3213
▁Reconstruction	-12.3213
▁Riemann	-12.3213
▁Thursday	-12.3213
▁bloom	-12.3213
▁chalk	-12.3213
▁iPad	-12.3213
▁intricate	-12.3213
▁neuroscientist	-12.3213
▁bassoon	-12.3213
▁Satan	-12.3213
▁bucket	-12.3213
▁Pirate	-12.3214
pulc	-12.3214
▁Viva	-12.3214
▁foul	-12.3214
▁Schwe	-12.3214
▁Future	-12.3219
▁republican	-12.322
▁rust	-12.3221
▁motors	-12.3223
▁Gaza	-12.3224
▁relieve	-12.3225
▁Ring	-12.3225
abinet	-12.3228
▁Lou	-12.323
▁recurr	-12.3234
▁institut	-12.3235
uda	-12.3237
▁Discover	-12.3237
elli	-12.3238
▁cookie	-12.3239
▁deposition	-12.324
▁Trans	-12.3241
nom	-12.3245
▁Mil	-12.3245
hov	-12.3246
solub	-12.3251
irk	-12.3253
▁ascribe	-12.3255
▁staring	-12.3257
ML	-12.3258
▁gener	-12.3259
▁eu	-12.3263
▁Proto	-12.3269
▁Tunisia	-12.3269
▁planner	-12.327
▁Mik	-12.3271
▁tipp	-12.3271
▁Romanian	-12.3277
▁asthma	-12.3278
GO	-12.3279
▁Step	-12.3281
▁Clar	-12.3288
▁privatiz	-12.3291
▁Jaguar	-12.3291
▁Kazakh	-12.3291
▁blockchain	-12.3291
▁bureaucrac	-12.3291
▁evangelical	-12.3291
▁filament	-12.3291
▁autistic	-12.3291
▁Engel	-12.3291
▁Fernand	-12.3292
▁Angu	-12.3292
▁optimization	-12.3293
▁Belarusian	-12.3293
▁Lot	-12.3297
ference	-12.3298
ée	-12.3301
▁Palma	-12.3302
▁Beast	-12.3303
mple	-12.3304
▁Chen	-12.3304
erot	-12.3304
▁blessed	-12.3307
▁Caliph	-12.3308
▁Airb	-12.3313
poli	-12.3315
▁Hay	-12.3317
mpress	-12.3321
▁ranch	-12.3323
▁Harve	-12.3325
▁electro	-12.3326
▁Disc	-12.3326
▁agar	-12.3329
▁reg	-12.333
lash	-12.3331
SI	-12.3333
romatic	-12.3333
bart	-12.3334
▁activis	-12.3338
iah	-12.3339
▁coache	-12.3339
mbo	-12.3348
▁demon	-12.3348
▁digesti	-12.3351
care	-12.3352
eller	-12.3355
unnel	-12.3356
▁transmitter	-12.3367
▁Grey	-12.3367
▁warp	-12.3368
▁exponent	-12.3369
▁spear	-12.3369
▁Umayyad	-12.337
▁sparse	-12.337
▁supernova	-12.337
▁Talmud	-12.337
▁Bolshevik	-12.337
▁wilderness	-12.337
▁Combin	-12.337
▁Abbot	-12.337
-130	-12.337
▁rib	-12.337
▁righteous	-12.337
▁hut	-12.3372
▁Arena	-12.3372
▁Wide	-12.3373
▁justification	-12.3374
▁eruption	-12.3375
▁inflict	-12.338
ometric	-12.3381
▁overflow	-12.3381
iscons	-12.3383
▁constructive	-12.3384
▁subt	-12.3385
▁Ferr	-12.339
▁Mrs	-12.3394
▁orchestral	-12.3398
▁CI	-12.3399
▁slit	-12.3409
length	-12.341
publish	-12.3411
▁Sport	-12.3411
▁Pac	-12.3413
graph	-12.3421
▁phosphate	-12.3422
▁Maxim	-12.3423
▁Philosoph	-12.3425
▁Brig	-12.3428
string	-12.3431
LC	-12.3438
▁Arct	-12.3441
▁Notabl	-12.3441
uta	-12.3442
▁nm	-12.3443
▁Archaeo	-12.3447
▁Globe	-12.3449
▁devotion	-12.3449
▁grizzl	-12.3449
▁playwright	-12.3449
▁turret	-12.3449
▁transcrib	-12.3449
▁TEDTalk	-12.3449
▁Prison	-12.3449
25	-12.345
▁classmate	-12.345
▁Rap	-12.3451
▁pedal	-12.3451
▁Woll	-12.3452
▁audition	-12.3453
▁nationally	-12.3453
▁passport	-12.3453
▁Derri	-12.3454
▁Latino	-12.3455
▁amplifier	-12.3461
▁16-	-12.3466
inium	-12.3468
.0	-12.3471
ural	-12.3472
▁radi	-12.3473
▁Tech	-12.3476
▁buyer	-12.3476
▁Tark	-12.3479
▁Jose	-12.348
SE	-12.3483
▁admire	-12.3489
▁Statistic	-12.349
▁Algerian	-12.3493
brick	-12.3494
▁fails	-12.3494
▁cru	-12.3494
▁132	-12.3495
tric	-12.3497
▁Nur	-12.3503
▁clicks	-12.3505
▁Mack	-12.3506
▁Stand	-12.3506
▁compost	-12.3511
▁Mak	-12.3512
kos	-12.3513
▁broadcaster	-12.3517
▁badge	-12.3517
▁dams	-12.3518
kins	-12.3519
▁Working	-12.352
▁multipli	-12.3527
▁Gabriel	-12.3529
▁Thousand	-12.3529
▁Wednesday	-12.3529
▁conscience	-12.3529
▁dyslexi	-12.3529
▁introvert	-12.3529
▁nickel	-12.3529
▁pervasive	-12.3529
▁prolific	-12.3529
▁quark	-12.3529
▁kinetic	-12.3529
▁relegat	-12.3529
▁Album	-12.3531
▁Gö	-12.3531
ristol	-12.3532
▁polls	-12.3532
▁Drex	-12.3533
▁Orwell	-12.3533
▁deviation	-12.3536
▁corpse	-12.3537
▁bitum	-12.3537
▁beast	-12.3537
▁villain	-12.3538
▁Gab	-12.3541
▁spa	-12.3541
ucer	-12.3541
▁Ag	-12.3545
▁1.5	-12.3545
▁overlapp	-12.3547
▁alteration	-12.3547
▁upstream	-12.3548
cela	-12.355
▁amuse	-12.3555
▁Hayd	-12.3559
▁Rug	-12.3562
print	-12.3565
▁Fun	-12.3568
keep	-12.3571
vin	-12.3575
leg	-12.3577
▁Gross	-12.358
▁Zo	-12.358
▁Page	-12.3581
▁longe	-12.3582
lander	-12.3583
▁inaugura	-12.3586
beth	-12.3588
▁neo	-12.3591
drop	-12.3595
asha	-12.3596
▁Set	-12.3597
building	-12.3601
▁Hamps	-12.3603
RS	-12.3607
▁Uzbek	-12.361
▁Quarter	-12.361
▁catastrophe	-12.361
▁chromatograph	-12.361
▁episcopa	-12.361
▁lieutenant	-12.361
▁primordial	-12.361
▁artisan	-12.361
▁capsule	-12.361
▁strive	-12.361
▁Rudol	-12.361
▁query	-12.361
▁mutilat	-12.361
▁waist	-12.361
▁Montana	-12.361
▁Fear	-12.3611
▁Lago	-12.3614
▁Mahm	-12.3615
▁Vol	-12.3617
▁Institution	-12.3626
▁misuse	-12.3628
▁academ	-12.3629
▁collar	-12.3631
oni	-12.3632
▁Mali	-12.3638
pirac	-12.3639
▁Eden	-12.3641
▁Personal	-12.3643
▁planting	-12.3643
▁portrayal	-12.3646
▁graphical	-12.3647
III	-12.3648
▁Physical	-12.3648
▁Aime	-12.3649
▁canton	-12.3651
tail	-12.3653
▁Abdul	-12.3653
▁orphan	-12.3655
▁ci	-12.3656
three	-12.366
▁worshipp	-12.366
▁mast	-12.366
▁torn	-12.3661
▁violate	-12.3665
▁ANS	-12.3667
▁Adria	-12.3669
aver	-12.3669
NT	-12.3671
▁Walt	-12.3675
▁arbitrat	-12.3675
▁Kai	-12.3678
osa	-12.3678
minary	-12.3679
RM	-12.3682
▁conceive	-12.3684
val	-12.3685
▁compatib	-12.3687
▁Wonder	-12.369
▁Fact	-12.3691
▁coconut	-12.3691
▁pneumonia	-12.3691
▁surname	-12.3691
▁Euler	-12.3691
▁plunder	-12.3691
▁emblem	-12.3691
▁pleasant	-12.3691
▁decentraliz	-12.3691
▁microorganism	-12.3691
▁Brahm	-12.3691
▁Magic	-12.3691
▁preli	-12.3691
▁converse	-12.3692
phasi	-12.3692
▁disappointment	-12.3693
▁improvisation	-12.3694
▁deception	-12.3695
▁Franç	-12.3696
▁Liberia	-12.3698
▁Birth	-12.3701
energy	-12.3701
▁worldview	-12.3704
▁Emer	-12.3712
▁sticker	-12.3713
▁hostage	-12.3713
mnon	-12.3714
▁rage	-12.372
▁polariz	-12.372
▁storyteller	-12.3723
actic	-12.3726
▁batch	-12.3727
▁Nap	-12.3727
mail	-12.3731
▁USD	-12.3733
▁interven	-12.3733
▁rag	-12.3734
▁Tang	-12.3735
▁Gib	-12.3736
▁Olympia	-12.3738
▁Carm	-12.3741
▁Mat	-12.3742
▁8-	-12.3746
▁refusal	-12.3746
apping	-12.3747
iable	-12.3753
iff	-12.3755
▁rub	-12.3759
▁wandering	-12.3761
▁Hug	-12.3762
▁rubb	-12.3762
▁studios	-12.3765
stair	-12.3765
▁compass	-12.3768
▁exercis	-12.3771
ehind	-12.3772
acco	-12.3773
▁Scripture	-12.3773
▁Wagner	-12.3773
▁abrupt	-12.3773
▁adolescence	-12.3773
▁ambulance	-12.3773
▁repetitive	-12.3773
▁Boöt	-12.3773
▁protocell	-12.3773
▁Virtual	-12.3773
▁sympathetic	-12.3773
▁veil	-12.3774
▁Benedictine	-12.3774
▁reintroduc	-12.3774
▁orthograph	-12.3774
jev	-12.3774
▁boycott	-12.3775
▁Mes	-12.3775
▁casual	-12.3775
▁oak	-12.3775
▁Cloud	-12.3775
▁screenplay	-12.3776
▁Leib	-12.3776
▁Arno	-12.3777
▁carrot	-12.3778
▁plung	-12.3779
▁Rachel	-12.378
▁vascular	-12.3781
▁Canon	-12.3782
▁Birds	-12.3784
rock	-12.3786
▁propeller	-12.379
▁witch	-12.3792
▁educator	-12.3792
parte	-12.3792
▁Mall	-12.3792
ump	-12.3794
▁undermine	-12.3798
▁Casi	-12.3802
housi	-12.3803
▁flags	-12.3804
▁apolog	-12.3805
▁inscribe	-12.3806
▁debat	-12.3814
▁biase	-12.3816
NFC	-12.3816
▁Mauri	-12.3818
▁devote	-12.3819
▁lure	-12.3819
▁NT	-12.382
▁Boi	-12.3821
▁recurren	-12.3822
▁moderat	-12.3838
▁Goal	-12.3839
▁banner	-12.384
orus	-12.3841
▁coating	-12.3844
▁alienat	-12.3844
eye	-12.3845
cover	-12.3851
▁vacan	-12.3851
▁skip	-12.3853
▁Sandy	-12.3853
▁basal	-12.3855
▁Punjab	-12.3856
▁ambien	-12.3856
▁cassette	-12.3856
▁crankshaft	-12.3856
▁mammoth	-12.3856
▁pseudonym	-12.3856
▁template	-12.3856
▁Legend	-12.3856
▁swarm	-12.3856
▁mercenar	-12.3856
▁paragraph	-12.3856
dwig	-12.3856
▁Trigger	-12.3856
▁Androni	-12.3856
doba	-12.3856
▁mural	-12.3856
▁sect	-12.3857
reach	-12.3859
▁backbone	-12.386
▁fog	-12.3861
▁Luis	-12.3862
▁trench	-12.3862
▁urbanization	-12.3862
▁Abi	-12.3864
▁switche	-12.3868
▁Speed	-12.3869
▁Ye	-12.387
▁fond	-12.3871
bat	-12.3871
▁Andrea	-12.3879
▁650	-12.388
▁DR	-12.3883
etal	-12.3884
▁Canar	-12.3887
▁peptide	-12.3891
▁Bac	-12.3892
▁biologically	-12.3892
word	-12.3895
flux	-12.39
▁Pier	-12.39
▁Architectur	-12.3902
guard	-12.3902
▁Cran	-12.3902
▁Fat	-12.3902
lese	-12.3906
hase	-12.391
▁Greg	-12.391
▁Historic	-12.3914
▁Sey	-12.3917
▁theft	-12.3922
▁capacit	-12.3923
▁Laur	-12.3924
▁delicio	-12.3928
▁Barne	-12.3929
▁Tora	-12.3932
▁pollut	-12.3934
▁Kerr	-12.3935
▁Chemist	-12.3939
▁Garcia	-12.3939
▁disastrous	-12.3939
▁unequal	-12.3939
▁excret	-12.3939
▁pornograph	-12.3939
▁Simpson	-12.3939
▁acetyl	-12.3939
▁Queensland	-12.394
▁bachelor	-12.394
▁Marxist	-12.3941
▁iceberg	-12.3941
▁connectome	-12.3941
▁Chester	-12.3941
▁depressive	-12.3942
▁attendant	-12.3943
▁Dune	-12.3943
PG	-12.3944
▁Haitian	-12.3944
▁Duck	-12.3947
GB	-12.3949
▁Myster	-12.3953
▁pp	-12.3955
eisel	-12.3956
▁advise	-12.3958
olds	-12.3962
ibility	-12.3963
▁Rain	-12.3965
▁enthusiast	-12.3965
▁Drum	-12.3968
▁aspirat	-12.3971
chu	-12.3972
▁fundrais	-12.3973
number	-12.3978
▁Bavarian	-12.398
▁Mauriti	-12.3984
specific	-12.3989
composition	-12.3991
▁Gas	-12.3991
▁witnesse	-12.3992
ani	-12.3996
▁Pal	-12.3997
▁domino	-12.4
▁Beer	-12.4
▁stag	-12.4001
▁118	-12.4004
▁Somali	-12.4005
▁recreation	-12.4006
▁stitch	-12.4012
▁Flo	-12.4015
▁humiliat	-12.4018
▁inward	-12.4021
▁catalog	-12.4022
angelo	-12.4023
▁Circle	-12.4023
▁kilometre	-12.4023
▁lexical	-12.4023
▁plutonium	-12.4023
▁unpleasant	-12.4023
▁Béz	-12.4023
▁Adult	-12.4023
▁garment	-12.4023
▁Selig	-12.4023
▁Perform	-12.4024
▁portal	-12.4026
▁dynamical	-12.4028
▁masculine	-12.4028
▁feudal	-12.4029
▁empowerment	-12.4031
▁dismantl	-12.4031
▁Spin	-12.4031
▁Friedman	-12.4033
▁virtu	-12.4033
▁Camu	-12.4034
▁Author	-12.4039
▁Truth	-12.4042
▁prostituti	-12.4047
▁morally	-12.405
▁heredit	-12.405
▁FIF	-12.4051
▁specifie	-12.4052
breaking	-12.4062
▁symmetric	-12.4062
▁relational	-12.4063
▁CR	-12.4067
▁traumatic	-12.4069
ET	-12.4071
▁lip	-12.4072
General	-12.4075
social	-12.4075
Hungarian	-12.4076
▁Tel	-12.4076
sleep	-12.4076
gow	-12.408
generat	-12.4089
aki	-12.409
▁interchangeabl	-12.4097
▁MT	-12.4103
▁Vinc	-12.4105
mbled	-12.4106
▁Mob	-12.4106
▁abolition	-12.4107
oalition	-12.4107
·	-12.4108
▁benign	-12.4108
▁esoteric	-12.4108
▁intimacy	-12.4108
▁tectonic	-12.4108
▁disintegrat	-12.4108
▁polyhedr	-12.4108
▁unreliab	-12.4108
▁crane	-12.4108
▁subdivid	-12.4108
▁discount	-12.4108
ília	-12.4108
▁platinum	-12.4108
nowledge	-12.4108
▁concession	-12.4108
weh	-12.4108
▁Morning	-12.4108
▁jacket	-12.4108
▁neighbourhood	-12.4108
▁gigant	-12.4109
▁harassment	-12.4109
▁stronghold	-12.411
▁hierarchical	-12.411
▁paternal	-12.411
▁temptation	-12.411
▁Ridge	-12.4111
▁prox	-12.4113
▁token	-12.4117
▁outnumber	-12.4119
▁Sex	-12.4121
▁relic	-12.4121
▁offend	-12.4122
▁Cher	-12.4122
gran	-12.4122
▁Cron	-12.4123
▁Malt	-12.4124
▁investigator	-12.4126
▁MK	-12.413
▁antipsychotic	-12.4133
▁Bard	-12.4135
inary	-12.4136
aque	-12.4139
▁Archive	-12.4141
▁Relations	-12.4144
▁observable	-12.4145
▁ox	-12.4146
▁preacher	-12.415
▁variance	-12.4152
esc	-12.4152
avail	-12.4155
▁Teacher	-12.4156
▁recognise	-12.4159
negative	-12.4161
▁reus	-12.4161
▁Banda	-12.4162
▁hi	-12.4163
▁Factor	-12.4171
orba	-12.4177
▁Mode	-12.4179
▁SW	-12.418
▁Argentine	-12.418
▁Eye	-12.4183
▁Wy	-12.4186
à	-12.4193
▁Bitcoin	-12.4193
▁Episcopal	-12.4193
▁Fleming	-12.4193
▁Strateg	-12.4193
▁Vladi	-12.4193
▁exquisite	-12.4193
▁reinstate	-12.4193
▁vegetarian	-12.4193
▁idiot	-12.4193
▁unleash	-12.4193
▁Elector	-12.4193
▁dissent	-12.4194
▁pilgrimage	-12.4194
appella	-12.4194
▁reservation	-12.4196
▁Barr	-12.4197
▁Toward	-12.4197
▁imitation	-12.4198
▁watt	-12.42
▁deport	-12.4202
▁Anabaptist	-12.4203
▁recorder	-12.4203
▁baseline	-12.4206
▁apprentice	-12.4209
hims	-12.421
shape	-12.421
▁resilien	-12.421
▁redevelop	-12.4211
▁modular	-12.4211
▁Bug	-12.4212
produc	-12.4213
version	-12.4215
acea	-12.4216
▁divisib	-12.4218
▁biochemistr	-12.422
▁Hills	-12.4222
▁dedication	-12.4232
▁companions	-12.4232
▁Winds	-12.4234
apolis	-12.4236
▁borrowing	-12.4238
▁Sebastia	-12.4239
▁curse	-12.4241
▁credi	-12.4245
▁24-	-12.4249
elief	-12.4249
▁stereo	-12.4253
▁Scandinavia	-12.4257
itis	-12.426
▁ingest	-12.4262
▁Officer	-12.4262
▁Crusade	-12.4265
▁Met	-12.4272
▁kite	-12.4273
▁pronoun	-12.4273
▁Organ	-12.4275
▁intra	-12.4277
▁adrenal	-12.4278
▁reflex	-12.4278
▁Appeal	-12.4279
▁Essential	-12.4279
▁Salvador	-12.4279
▁nominee	-12.4279
▁unfamiliar	-12.4279
▁ultrasound	-12.4279
▁staircase	-12.4279
▁barrister	-12.428
▁dagger	-12.428
▁Annual	-12.428
▁blueprint	-12.428
▁fortification	-12.4281
▁Ward	-12.4288
▁mysteri	-12.4291
▁governors	-12.4292
disproportionate	-12.4292
▁excellence	-12.4293
▁Ig	-12.4297
▁Bai	-12.4297
▁concubine	-12.4304
▁projector	-12.4306
▁Gott	-12.431
▁wow	-12.431
▁candy	-12.4313
mnest	-12.4316
▁Broad	-12.4319
▁tomato	-12.432
▁12-	-12.4328
▁competent	-12.4331
shift	-12.4335
▁Bird	-12.4335
▁Thorn	-12.434
drawn	-12.4341
▁Powers	-12.4341
NC	-12.4345
▁Blu	-12.4345
▁favorabl	-12.4348
▁Add	-12.435
▁predat	-12.4351
EM	-12.4352
▁imitat	-12.4352
▁Perr	-12.4356
amine	-12.4357
▁stare	-12.4357
▁Borne	-12.4357
▁comprehensi	-12.4357
▁feeds	-12.4358
▁JC	-12.4359
▁Got	-12.436
nits	-12.4365
▁BA	-12.4365
▁dimensional	-12.4366
▁Cochran	-12.4366
▁Slovenia	-12.4366
▁Voyage	-12.4366
▁disparit	-12.4366
▁unwilling	-12.4366
▁slang	-12.4366
Jazz	-12.4366
▁Aleut	-12.4366
▁nasty	-12.4366
▁Soldier	-12.4366
▁Mail	-12.4368
▁litter	-12.4368
adesh	-12.4368
▁recursive	-12.437
colo	-12.437
▁octave	-12.4374
▁Oz	-12.4375
▁rack	-12.4376
▁gateway	-12.4377
▁vo	-12.4377
meth	-12.4378
vann	-12.4379
▁dam	-12.4384
▁Nazis	-12.4389
▁Cut	-12.4389
▁bromin	-12.4396
▁awe	-12.4399
▁mindful	-12.4399
MW	-12.4399
▁flap	-12.4406
▁Ariane	-12.4407
▁Stevens	-12.4407
Crisis	-12.4407
▁emulate	-12.4422
▁patien	-12.4422
▁Face	-12.4422
▁terminate	-12.4434
▁invok	-12.4435
rise	-12.444
▁Speak	-12.4441
▁jets	-12.4441
▁reconcile	-12.4444
oma	-12.4448
▁sixteen	-12.445
▁Ammoni	-12.4453
▁Criminal	-12.4454
▁Nikola	-12.4454
▁Okinawa	-12.4454
▁confiscat	-12.4454
▁extremist	-12.4454
▁litigation	-12.4454
▁boo	-12.4454
▁Antigua	-12.4454
▁Jutland	-12.4454
▁courtyard	-12.4454
▁cohesi	-12.4454
▁libertarian	-12.4454
▁Adventist	-12.4454
▁Private	-12.4454
yana	-12.4455
▁satire	-12.4455
▁Left	-12.4456
▁bombardment	-12.4456
▁Bryan	-12.4457
▁squeeze	-12.4457
▁Writer	-12.4458
terti	-12.446
▁Sister	-12.446
glo	-12.4461
▁regeneration	-12.4461
▁Access	-12.4461
▁reuse	-12.4462
▁Barb	-12.4464
▁Kidd	-12.4465
▁mash	-12.4465
▁API	-12.4465
▁Hanna	-12.4466
▁robber	-12.4467
▁Religion	-12.4475
▁Rev	-12.4475
▁expressive	-12.4476
ada	-12.4477
▁awaken	-12.4479
▁margins	-12.4482
▁Hadr	-12.4483
▁distributor	-12.4489
load	-12.449
▁meaningless	-12.4492
▁Sid	-12.4495
▁Char	-12.4504
▁Hour	-12.4504
▁Pack	-12.4506
▁Jud	-12.4507
buro	-12.4507
ectar	-12.4509
release	-12.4517
▁rum	-12.4518
▁poke	-12.452
▁aspart	-12.452
▁insulat	-12.4521
TO	-12.4523
▁specialis	-12.4524
▁indic	-12.4524
▁Researcher	-12.4528
▁organizer	-12.4528
▁Brab	-12.4534
▁defi	-12.4536
ranch	-12.4537
pac	-12.454
▁Beg	-12.4541
▁Shadow	-12.4542
▁elbow	-12.4542
▁mortgage	-12.4542
▁perceptual	-12.4542
▁ribbon	-12.4542
▁umbrella	-12.4542
▁fatigue	-12.4543
▁ravag	-12.4543
▁bilingual	-12.4543
▁arcade	-12.4543
▁denominator	-12.4543
▁curtain	-12.4543
octrine	-12.4543
▁bilateral	-12.4543
blanc	-12.4543
▁gorgeous	-12.4543
▁morphological	-12.4544
▁hypothesize	-12.4544
▁notebook	-12.4544
▁stalk	-12.4544
▁Getty	-12.4545
▁fer	-12.4546
▁Cadi	-12.4547
▁vocalist	-12.4548
▁apostle	-12.4548
▁allocation	-12.4549
▁swear	-12.455
▁Palm	-12.4551
▁DP	-12.4555
enter	-12.4556
▁Seventh	-12.456
▁budd	-12.4562
▁crocodile	-12.4564
▁liabilit	-12.4566
▁Gang	-12.4568
ature	-12.457
alf	-12.4571
▁barr	-12.4573
▁oven	-12.4573
▁Soul	-12.4574
▁vertic	-12.4577
exist	-12.4578
▁Attic	-12.4581
▁eco	-12.4582
▁Rat	-12.4584
▁Mol	-12.459
DE	-12.4591
▁smuggl	-12.4596
▁tele	-12.4596
▁decorati	-12.4598
distance	-12.4604
▁Salt	-12.4605
▁cultivate	-12.4611
▁Casp	-12.4612
ilwa	-12.4623
Men	-12.4626
then	-12.4626
▁unwa	-12.4629
asketball	-12.463
▁dr	-12.4631
▁semina	-12.4631
▁obedien	-12.4632
▁Bubble	-12.4632
▁Edmund	-12.4632
▁fountain	-12.4632
▁Fifty	-12.4632
▁1⁄	-12.4632
▁dipole	-12.4632
▁coincidence	-12.4632
▁pearl	-12.4632
▁pluck	-12.4632
▁osteo	-12.4633
hasa	-12.4634
▁cellphone	-12.4634
leth	-12.4639
▁deadline	-12.464
▁slate	-12.4643
▁verna	-12.4646
▁Doll	-12.4647
▁forbid	-12.4651
▁teen	-12.4653
istine	-12.4657
▁Thor	-12.4661
▁mic	-12.4661
▁assured	-12.4667
▁supersede	-12.4669
▁Laurent	-12.467
▁dispens	-12.4672
▁Lao	-12.4673
▁fairy	-12.4673
▁Tak	-12.4679
▁coupl	-12.4681
lar	-12.4682
▁morph	-12.4684
▁spac	-12.4686
▁temper	-12.4687
walk	-12.4693
folk	-12.4695
▁conditional	-12.4695
▁Champions	-12.4697
▁Cambodian	-12.4699
▁Read	-12.4701
▁eclipse	-12.4703
lzhe	-12.4704
▁nois	-12.4711
▁Lamb	-12.4711
▁frighten	-12.4713
dorf	-12.4717
▁detach	-12.472
▁Canton	-12.472
▁Instrument	-12.4722
▁Junior	-12.4722
▁caregiver	-12.4722
▁conjugate	-12.4722
▁leisure	-12.4722
▁plaster	-12.4722
▁Bodhi	-12.4722
▁clown	-12.4722
▁acronym	-12.4722
▁fibro	-12.4722
▁supersonic	-12.4722
▁Guthr	-12.4722
icillin	-12.4722
▁cleric	-12.4722
▁Patent	-12.4722
▁Pike	-12.4723
▁Acadia	-12.4723
▁blanket	-12.4723
▁Toulo	-12.4723
▁perpetrator	-12.4723
▁Reich	-12.4724
▁flare	-12.4724
▁mustache	-12.4725
rahim	-12.4725
lley	-12.4726
▁1.2	-12.4726
▁Drive	-12.4726
▁Few	-12.4727
▁guardian	-12.4727
▁conspir	-12.4728
▁Griffith	-12.4728
apest	-12.4732
▁dim	-12.4733
▁Peak	-12.4733
▁Abba	-12.4733
▁Chair	-12.4733
▁protester	-12.4735
▁Lancast	-12.4739
▁admiral	-12.474
▁Moravia	-12.4742
▁toast	-12.4742
▁moth	-12.4742
▁gu	-12.4749
▁customiz	-12.475
▁Pon	-12.4752
▁quotation	-12.4756
▁propulsi	-12.4757
▁steppe	-12.4759
▁nobles	-12.476
atti	-12.4762
▁retract	-12.4762
Chapel	-12.4765
▁perpetu	-12.477
▁breasts	-12.4772
▁artificially	-12.4782
▁IC	-12.4783
▁Worker	-12.4783
▁systemic	-12.479
▁uni	-12.4797
▁Mayan	-12.48
▁reminder	-12.48
▁Made	-12.4801
▁Sla	-12.4801
delai	-12.4804
▁feud	-12.4806
ffle	-12.4807
▁behav	-12.4809
llen	-12.481
▁Innovation	-12.4813
▁queue	-12.4813
▁sulfate	-12.4813
▁dragoon	-12.4813
▁sponge	-12.4813
▁dhole	-12.4813
▁LGBT	-12.4813
▁alkene	-12.4813
▁cartilag	-12.4813
▁Population	-12.4813
▁gaze	-12.4813
-1980	-12.4813
▁Source	-12.4813
▁unify	-12.4813
▁filing	-12.4813
▁Wend	-12.4813
▁reopen	-12.4814
▁pardon	-12.4814
▁Lugo	-12.4814
▁Kö	-12.4815
▁Phoenician	-12.4815
▁Hawaiian	-12.4817
▁lik	-12.4817
▁giver	-12.4818
▁wagon	-12.4819
▁veto	-12.4819
▁Verde	-12.4819
▁freeway	-12.4825
▁Pash	-12.4825
▁conferr	-12.4826
▁unsee	-12.4827
▁Save	-12.483
▁motorway	-12.483
▁Lex	-12.483
effective	-12.4831
mitt	-12.4834
▁terminat	-12.4835
▁skirt	-12.4839
ère	-12.4841
▁Mood	-12.4841
oyle	-12.4844
▁prescribe	-12.4845
gua	-12.485
▁monumental	-12.4853
▁gentl	-12.4855
▁timeline	-12.4856
▁Die	-12.4856
▁Archi	-12.4857
▁hacker	-12.4863
▁runners	-12.4867
▁substitut	-12.4868
▁delete	-12.487
▁digitiz	-12.4877
▁Genev	-12.4878
▁cheerlead	-12.4878
skirt	-12.4878
▁Bori	-12.488
fiction	-12.488
anyon	-12.4881
▁Hal	-12.4881
▁legion	-12.4883
▁outlin	-12.4888
▁embarrass	-12.4894
▁revive	-12.4895
▁epi	-12.4896
▁Dec	-12.4898
▁directive	-12.4899
▁imperfect	-12.49
▁deplet	-12.49
▁synonym	-12.4902
▁Method	-12.4903
▁Alhaz	-12.4905
▁Antoine	-12.4905
▁Attorney	-12.4905
▁Gustav	-12.4905
▁microprocessor	-12.4905
sparag	-12.4905
▁garner	-12.4905
▁glyco	-12.4905
▁phylogenetic	-12.4905
▁Cotton	-12.4905
▁Emergenc	-12.4905
▁actinide	-12.4905
▁carcass	-12.4905
▁Mandar	-12.4905
▁concurrent	-12.4905
▁chronological	-12.4905
▁lymph	-12.4905
▁Kurt	-12.4906
▁sunset	-12.4906
▁Sunni	-12.4906
▁chorus	-12.4907
▁Boer	-12.491
▁airfield	-12.4912
▁flush	-12.4913
▁Fur	-12.4913
▁laz	-12.4914
▁mansion	-12.4915
urge	-12.4916
▁neutrino	-12.4916
risk	-12.4916
▁Cam	-12.4919
▁novelty	-12.492
▁checker	-12.4928
▁dictate	-12.4928
▁reproduc	-12.4928
enzie	-12.4932
AN	-12.4932
▁learner	-12.4935
acker	-12.4936
▁sincere	-12.4939
utonomous	-12.494
▁Pul	-12.4953
▁134	-12.4954
nutrition	-12.4972
resolution	-12.4972
▁Piss	-12.4973
positive	-12.4973
surrection	-12.4973
▁Dock	-12.4974
▁Sparta	-12.4975
purpose	-12.4976
▁dare	-12.4977
▁beard	-12.498
▁135	-12.4982
▁nurs	-12.4985
▁reliev	-12.4988
▁MA	-12.499
obb	-12.4992
▁Lisb	-12.4994
▁antagonist	-12.4994
utu	-12.4995
▁combinatori	-12.4995
▁straw	-12.4995
▁bankrupt	-12.4997
▁Hank	-12.4997
▁mislead	-12.4997
▁Mycenae	-12.4997
▁Venetian	-12.4997
▁chalcogen	-12.4997
▁clarify	-12.4997
▁custod	-12.4997
▁diagonal	-12.4997
▁pamphlet	-12.4997
▁scrutin	-12.4997
▁Visual	-12.4997
▁piston	-12.4997
▁neurogenesis	-12.4997
▁squid	-12.4997
▁psychopath	-12.4997
▁boson	-12.4997
▁Curtis	-12.4997
▁dragonfl	-12.4997
▁salad	-12.4998
▁nitride	-12.4998
asiatic	-12.4998
haus	-12.4998
▁McDonald	-12.4998
▁verge	-12.4998
▁Apat	-12.4999
▁Terror	-12.5
▁Islamist	-12.5004
▁147	-12.501
▁alga	-12.501
som	-12.5012
▁Rico	-12.5014
▁aero	-12.5015
▁CER	-12.5017
rez	-12.5018
1990	-12.502
▁militari	-12.5022
▁pod	-12.5024
▁Cosm	-12.5025
▁byproduct	-12.5025
▁Farmer	-12.503
gers	-12.5033
eptuag	-12.5038
▁rehabilitat	-12.504
▁lotter	-12.5041
▁provok	-12.5042
▁Nord	-12.5043
▁listing	-12.5045
▁abusi	-12.5046
▁Divin	-12.5046
▁Clo	-12.5048
nterior	-12.5053
▁outfield	-12.5053
▁Politic	-12.5055
NN	-12.5056
▁Bona	-12.5058
▁underestimate	-12.506
phone	-12.5061
▁withstand	-12.5062
▁assure	-12.5064
reason	-12.5065
▁frustrating	-12.5066
group	-12.5066
week	-12.5067
▁Religio	-12.5068
▁compensati	-12.5074
▁diverg	-12.508
ult	-12.5083
▁Kath	-12.5085
▁tempt	-12.5087
egitimate	-12.509
▁tyrann	-12.5091
neurotransmitter	-12.5091
▁Dravidian	-12.5091
▁dissatisf	-12.5091
▁Concert	-12.5091
▁Copernic	-12.5091
▁cairn	-12.5091
▁mangrove	-12.5091
▁Freud	-12.5091
▁insecticide	-12.5091
▁outfit	-12.5091
▁geologist	-12.5092
▁favourite	-12.5092
▁inert	-12.5093
▁Product	-12.5094
▁Shaw	-12.5095
▁flatten	-12.5095
▁curva	-12.5096
▁humiliation	-12.5096
▁Cels	-12.5096
▁inhal	-12.5097
▁courageous	-12.5097
▁encyclopedia	-12.5097
▁Pad	-12.5099
▁moor	-12.51
▁tailor	-12.5104
▁inappropriate	-12.5105
▁ANC	-12.5105
▁Grove	-12.5112
▁Basta	-12.5115
▁Champion	-12.5116
▁DK	-12.512
▁divert	-12.512
▁Close	-12.5122
▁cheek	-12.5124
tree	-12.5124
yx	-12.5125
▁Non	-12.5125
emon	-12.5129
▁Friends	-12.5133
nold	-12.5135
▁Div	-12.5138
educat	-12.5139
nyl	-12.514
▁cater	-12.5141
▁Ambrosi	-12.5142
▁Jain	-12.5144
▁sur	-12.5146
ylon	-12.5148
▁geographically	-12.5148
▁Rom	-12.5149
▁rhyme	-12.5156
beck	-12.5157
▁Grana	-12.5166
operation	-12.517
▁avatar	-12.5171
▁aque	-12.5173
ately	-12.5174
GS	-12.5174
▁Semi	-12.5175
city	-12.5176
shore	-12.518
▁acet	-12.5182
▁Publish	-12.5185
▁blob	-12.5185
▁connotation	-12.5185
▁cylindr	-12.5185
▁fuzz	-12.5185
▁abbey	-12.5185
▁gait	-12.5185
▁multitask	-12.5185
▁ordinance	-12.5185
▁subdivision	-12.5185
▁Edition	-12.5186
▁Agath	-12.5186
▁foreground	-12.5186
▁fluent	-12.5186
▁rover	-12.5187
▁Hai	-12.5188
▁herald	-12.5189
▁Primar	-12.519
▁deceiv	-12.5191
▁Redwood	-12.5191
hari	-12.5192
▁consultation	-12.5194
GM	-12.5194
▁booth	-12.5198
▁Mani	-12.5204
parable	-12.5209
egal	-12.5211
▁Ric	-12.5214
rno	-12.5217
atomic	-12.5218
MC	-12.5218
▁inflat	-12.5221
▁Maya	-12.5226
▁Accr	-12.5228
▁salarie	-12.5231
▁Break	-12.5233
▁environmentally	-12.5235
▁Ashes	-12.5236
▁106	-12.5238
lage	-12.5243
▁Sophi	-12.5254
vor	-12.527
▁Southwest	-12.5271
▁117	-12.5271
▁vibrate	-12.5273
▁Lev	-12.5275
nfantry	-12.5276
▁flour	-12.528
▁Chernobyl	-12.528
▁Cossack	-12.528
▁Effect	-12.528
▁Elliot	-12.528
▁Occasional	-12.528
▁Spaniard	-12.528
▁Toyota	-12.528
▁Tribun	-12.528
▁Wizard	-12.528
▁clerk	-12.528
▁iodine	-12.528
▁reminiscen	-12.528
▁orgasm	-12.528
▁ivory	-12.528
▁Question	-12.528
▁graffiti	-12.528
▁yarn	-12.528
▁instantaneous	-12.528
▁carboxyl	-12.528
▁ozone	-12.5281
▁diffracti	-12.5281
▁westward	-12.5281
▁safeguard	-12.5281
▁Cyber	-12.5282
▁irritat	-12.5282
▁rehearsal	-12.5284
▁Cori	-12.5285
▁Legal	-12.5288
▁mammalian	-12.5289
▁PDP	-12.5289
▁robe	-12.5293
▁Syn	-12.5295
▁redefine	-12.5297
▁pickup	-12.5298
▁affection	-12.5299
▁Ranger	-12.53
▁Tin	-12.53
▁mol	-12.5303
PM	-12.5305
▁blur	-12.531
▁discourag	-12.5312
▁nutritional	-12.5315
edge	-12.5316
▁DA	-12.5316
▁dough	-12.5318
regulat	-12.532
arian	-12.5322
opp	-12.5322
ender	-12.5323
▁RCA	-12.5329
Mille	-12.5331
▁Interesting	-12.5332
unch	-12.5336
▁dwelling	-12.5337
stop	-12.5338
▁Understand	-12.5338
▁manne	-12.5343
▁surf	-12.5344
▁paralys	-12.5345
▁Him	-12.5354
▁Cygn	-12.536
page	-12.5362
▁retailer	-12.5367
tila	-12.5367
▁CN	-12.5371
▁swap	-12.5373
▁chick	-12.5373
▁configur	-12.5373
▁tempo	-12.5376
alcol	-12.5376
▁Brunswick	-12.5376
▁exacerbat	-12.5376
▁flavour	-12.5376
▁meadow	-12.5376
▁miraculous	-12.5376
▁misconception	-12.5376
▁Consumer	-12.5376
▁quartz	-12.5376
▁Neuman	-12.5376
▁verify	-12.5376
▁councillor	-12.5376
▁delusion	-12.5376
▁cosmetic	-12.5377
▁Help	-12.5377
▁biosphere	-12.5377
▁lump	-12.5377
▁charisma	-12.5377
▁pollutant	-12.5377
▁curator	-12.5377
▁fabricat	-12.5377
▁Movie	-12.5378
▁Luft	-12.5379
bati	-12.5379
▁Image	-12.5379
▁narrator	-12.5379
▁Hor	-12.5381
▁Off	-12.5384
▁Million	-12.5386
▁trustee	-12.5386
▁magician	-12.5387
funct	-12.5391
urus	-12.5394
▁1200	-12.5397
▁9,000	-12.5398
▁lodge	-12.5399
▁Wu	-12.5401
▁moderately	-12.5408
▁Programme	-12.5416
▁Marco	-12.5417
▁subdu	-12.5417
rill	-12.542
maker	-12.5424
▁alkalin	-12.5429
▁05	-12.5431
▁Net	-12.5434
tank	-12.5436
apped	-12.544
▁coincid	-12.5443
▁undermin	-12.5445
▁Shir	-12.5446
▁Lithuania	-12.5451
atura	-12.5452
▁133	-12.5452
orium	-12.5454
hairman	-12.5461
▁Kir	-12.5463
type	-12.5464
pler	-12.5465
▁dysfunction	-12.5466
iat	-12.5466
▁biomedic	-12.5467
mond	-12.5468
▁turm	-12.5469
▁photographic	-12.5469
▁Folk	-12.5473
▁Jennifer	-12.5473
▁Nintendo	-12.5473
▁avenue	-12.5473
▁brute	-12.5473
▁compartment	-12.5473
▁epithet	-12.5473
▁infinitesimal	-12.5473
▁receipt	-12.5473
▁sequential	-12.5473
▁imbalance	-12.5473
▁vassal	-12.5473
▁homicide	-12.5473
▁Estonia	-12.5473
▁Blade	-12.5474
▁bracket	-12.5474
▁Qatar	-12.5474
▁Cell	-12.5474
▁Darius	-12.5475
▁Single	-12.5476
▁caliph	-12.5478
▁Jesuit	-12.5479
▁kidnapp	-12.5481
▁Papa	-12.5482
dad	-12.5482
▁unto	-12.5482
▁disappoint	-12.5487
▁Daw	-12.5491
▁Mada	-12.5492
GI	-12.5492
▁DM	-12.5494
▁debtor	-12.5495
▁Hunter	-12.5496
▁Curr	-12.5499
▁Dear	-12.55
▁Dian	-12.5506
▁muc	-12.5507
▁Ferm	-12.551
▁siz	-12.5514
▁Gradua	-12.5516
▁mobilize	-12.5521
▁synchroniz	-12.5527
▁Georg	-12.5531
ulu	-12.5532
▁allerg	-12.5539
▁innocen	-12.5539
▁sensibl	-12.554
ammon	-12.5543
▁scaled	-12.5543
▁closet	-12.5547
corn	-12.5547
▁Kate	-12.555
▁pollinati	-12.5552
▁Luck	-12.5554
▁bury	-12.5557
▁Arch	-12.5559
national	-12.5562
▁sanct	-12.5566
▁trio	-12.5567
▁refrigerat	-12.5568
▁betray	-12.5569
▁Hispani	-12.557
▁109	-12.557
▁abscess	-12.5571
▁decipher	-12.5571
▁hexagon	-12.5571
▁mosaic	-12.5571
▁repetition	-12.5571
▁syringe	-12.5571
▁tuition	-12.5571
▁vomit	-12.5571
▁partisan	-12.5571
▁Mosque	-12.5571
▁crucifix	-12.5572
▁analogue	-12.5572
▁mainframe	-12.5572
recht	-12.5573
▁northward	-12.5573
▁Elvi	-12.5573
▁proliferation	-12.5573
▁Sevill	-12.5574
▁sitcom	-12.5575
▁Honey	-12.5575
▁Ricard	-12.5575
▁rallie	-12.5575
▁Nair	-12.5576
▁appellat	-12.5576
key	-12.5577
▁knot	-12.5577
▁practis	-12.5579
▁Pont	-12.558
▁averag	-12.5581
mart	-12.5583
dell	-12.5584
▁accordion	-12.5588
llac	-12.5591
▁decode	-12.5593
▁gras	-12.5598
▁Perse	-12.5602
sani	-12.5603
▁Rid	-12.5604
▁rhythmic	-12.5604
▁Bone	-12.5612
▁fuck	-12.5618
▁shipment	-12.5622
▁Fan	-12.5622
▁rehabilitati	-12.5624
▁emulat	-12.5625
ogo	-12.5626
▁RS	-12.5627
mour	-12.5631
berry	-12.5632
▁Jam	-12.5635
wak	-12.5638
▁flam	-12.5646
disciplinar	-12.5649
raham	-12.5651
massive	-12.5652
secure	-12.5653
▁Antonin	-12.5655
▁Vog	-12.5657
quo	-12.5657
glass	-12.5663
▁infer	-12.5665
▁exempt	-12.5666
ropolis	-12.5666
BN	-12.5667
▁registr	-12.5667
▁Develop	-12.5668
▁terrif	-12.5669
▁Alcohol	-12.567
▁Ferguson	-12.567
▁Guild	-12.567
▁Immediate	-12.567
▁anecdote	-12.567
▁bargain	-12.567
▁erroneous	-12.567
▁prairie	-12.567
▁quotient	-12.567
▁thylakoid	-12.567
▁dementia	-12.567
▁lagoon	-12.567
▁Abbasid	-12.567
▁phage	-12.5671
▁neglig	-12.5671
▁joystick	-12.5671
▁Boreal	-12.5671
▁trumpet	-12.5671
▁Nicola	-12.5671
▁Herald	-12.5672
[...]
