<unk>	0
<s>	0
</s>	0
<pad>	0
▁	-2.86082
s	-3.13721
,	-3.15633
▁.	-3.20517
▁the	-3.31727
;	-3.68045
▁&	-3.71646
▁and	-3.82394
▁to	-3.95675
apos	-3.9681
▁a	-4.02736
▁of	-4.08582
▁that	-4.29515
▁i	-4.33183
▁it	-4.42211
▁in	-4.44148
▁you	-4.52783
y	-4.59974
▁we	-4.60621
▁is	-4.65381
ed	-4.70053
ing	-4.74329
▁thi	-4.86446
ly	-4.99019
▁so	-5.1525
quot	-5.22466
▁be	-5.24783
▁was	-5.35966
t	-5.36824
▁on	-5.38036
▁for	-5.41995
▁what	-5.48544
▁have	-5.48956
▁are	-5.49735
▁but	-5.53581
▁--	-5.55505
▁with	-5.56884
▁can	-5.59339
d	-5.61231
▁?	-5.62421
-	-5.73083
▁about	-5.74468
▁there	-5.75895
re	-5.80978
▁do	-5.84515
▁all	-5.85638
▁at	-5.86452
▁one	-5.88255
▁not	-5.89639
n	-5.95918
▁an	-5.96283
▁my	-5.9707
▁people	-6.01529
▁like	-6.01817
▁he	-6.05088
▁from	-6.0713
▁if	-6.07637
▁now	-6.09887
▁these	-6.15799
▁just	-6.16425
▁as	-6.18425
:	-6.2002
cause	-6.21567
▁our	-6.2448
very	-6.26866
▁or	-6.27291
▁when	-6.27723
▁think	-6.28587
▁how	-6.29415
▁know	-6.29862
▁out	-6.31149
▁me	-6.3174
m	-6.34963
▁us	-6.37247
▁up	-6.37445
▁by	-6.37524
▁some	-6.39624
▁going	-6.41224
▁here	-6.41706
▁see	-6.41948
▁them	-6.43057
▁get	-6.43644
▁more	-6.46105
▁had	-6.46819
ve	-6.47285
▁look	-6.47334
▁which	-6.49577
▁your	-6.50108
▁would	-6.51259
▁want	-6.53069
▁who	-6.5446
▁were	-6.55577
▁their	-6.58166
▁time	-6.62882
▁world	-6.63728
▁then	-6.64602
▁actual	-6.64893
▁has	-6.6655
▁don	-6.68375
▁no	-6.68494
▁other	-6.71405
▁into	-6.73239
▁go	-6.74533
e	-6.74676
▁way	-6.7556
▁did	-6.75665
▁could	-6.76311
▁well	-6.76768
▁will	-6.77801
▁things	-6.80557
▁where	-6.80855
▁every	-6.84955
▁make	-6.86458
▁right	-6.87002
▁said	-6.87599
▁say	-6.88287
▁year	-6.90136
▁she	-6.92705
▁start	-6.93437
been	-6.93911
▁two	-6.94431
▁need	-6.9548
something	-6.95641
▁first	-6.975
▁work	-6.98017
▁real	-7.01855
▁take	-7.02027
▁reall	-7.02269
▁got	-7.03084
▁thing	-7.03151
▁call	-7.04871
▁new	-7.05
▁little	-7.05628
▁kind	-7.05825
▁over	-7.06631
▁than	-7.06636
.	-7.07133
lso	-7.07412
▁come	-7.07783
▁his	-7.1068
▁most	-7.1072
▁much	-7.11218
▁back	-7.11443
▁lot	-7.12671
▁talk	-7.1293
▁life	-7.15188
▁any	-7.17998
▁good	-7.19944
es	-7.2003
▁even	-7.21508
ll	-7.22277
▁does	-7.23839
ies	-7.24579
▁many	-7.26648
▁why	-7.30132
▁different	-7.31577
▁use	-7.31878
▁let	-7.3233
▁down	-7.32762
around	-7.3296
day	-7.35221
▁through	-7.36112
▁change	-7.36228
▁mean	-7.3889
▁show	-7.39041
▁great	-7.39872
▁her	-7.40981
▁three	-7.43284
▁th	-7.4491
▁put	-7.45093
years	-7.46161
▁same	-7.46437
er	-7.48668
▁try	-7.48744
▁being	-7.50485
▁tell	-7.51116
ose	-7.53991
▁doing	-7.54297
▁give	-7.56025
▁part	-7.57126
▁percent	-7.59489
▁day	-7.59686
▁made	-7.6243
▁human	-7.63265
other	-7.63323
▁after	-7.6442
▁happen	-7.64575
one	-7.65346
a	-7.65484
▁big	-7.68593
▁should	-7.69101
▁fact	-7.70262
▁last	-7.70512
▁find	-7.70889
▁him	-7.71313
▁own	-7.71403
body	-7.7241
▁ask	-7.72763
▁thought	-7.72966
▁idea	-7.72992
▁thank	-7.75918
▁important	-7.76268
went	-7.77201
▁before	-7.77615
▁never	-7.77866
▁t	-7.7803
▁problem	-7.79711
▁course	-7.79751
▁again	-7.81667
▁story	-7.82616
▁off	-7.83286
▁point	-7.83837
▁design	-7.84799
▁bit	-7.85247
▁system	-7.85291
r	-7.85311
▁million	-7.85374
▁better	-7.85451
▁example	-7.86337
▁long	-7.86448
▁live	-7.86489
▁next	-7.86753
▁brain	-7.87286
in	-7.87323
ally	-7.87712
▁love	-7.88899
▁help	-7.88904
▁place	-7.88926
▁sort	-7.88952
▁end	-7.89035
▁play	-7.89228
▁ago	-7.8934
hose	-7.89344
▁few	-7.9046
▁still	-7.90867
▁might	-7.90975
al	-7.92507
▁technology	-7.92849
▁each	-7.93416
▁together	-7.9342
▁came	-7.93941
▁question	-7.94523
able	-7.95116
▁water	-7.95163
▁second	-7.96169
▁learn	-7.99025
▁between	-7.9967
▁found	-8.00838
▁too	-8.01766
▁school	-8.02256
▁able	-8.03713
▁become	-8.03956
▁done	-8.04761
▁believe	-8.0511
l	-8.05123
▁understand	-8.05132
▁whole	-8.05645
▁four	-8.05723
▁maybe	-8.05946
▁guy	-8.0676
▁create	-8.06893
▁light	-8.06942
▁children	-8.07627
▁data	-8.08841
o	-8.1134
▁feel	-8.12585
▁may	-8.126
▁building	-8.13054
▁five	-8.1326
▁power	-8.14357
▁always	-8.14375
▁picture	-8.15129
▁20	-8.15172
▁space	-8.15748
▁everything	-8.15864
▁cell	-8.15927
▁al	-8.16005
▁10	-8.16266
▁money	-8.16706
ok	-8.16848
▁person	-8.17404
on	-8.17951
▁project	-8.18025
▁women	-8.18092
▁small	-8.18557
▁reason	-8.18633
▁number	-8.18796
▁basic	-8.19088
▁ever	-8.19799
▁food	-8.20495
▁kids	-8.21276
▁country	-8.2138
▁working	-8.22064
h	-8.22151
▁old	-8.23246
▁!	-8.23642
▁move	-8.24005
▁man	-8.24613
▁high	-8.24726
away	-8.24849
▁home	-8.2554
▁&#9	-8.25583
▁hard	-8.2627
quite	-8.2708
▁information	-8.27888
▁health	-8.27994
▁interesting	-8.28132
▁form	-8.28193
ity	-8.28233
▁left	-8.28667
▁experience	-8.28977
▁future	-8.29384
▁probabl	-8.29583
making	-8.30391
▁sense	-8.30493
▁energy	-8.31408
▁open	-8.31417
▁enough	-8.31647
▁b	-8.32114
▁best	-8.32162
▁car	-8.32527
▁case	-8.32624
▁without	-8.33541
▁bring	-8.33629
▁under	-8.33845
ever	-8.34138
▁africa	-8.34726
▁stuff	-8.3499
▁moment	-8.36274
▁simple	-8.36588
▁earth	-8.3722
▁develop	-8.37254
▁large	-8.37691
▁half	-8.37815
▁science	-8.37906
▁turn	-8.38343
▁group	-8.38657
▁else	-8.39269
▁dollars	-8.39473
▁pretty	-8.39507
▁answer	-8.3965
where	-8.39764
▁less	-8.39862
▁anything	-8.4022
▁social	-8.4079
ion	-8.40848
▁room	-8.41037
▁billion	-8.41761
▁side	-8.41863
▁image	-8.42813
▁imagine	-8.43118
▁grow	-8.43209
ld	-8.43619
▁hand	-8.43671
▁am	-8.44063
▁build	-8.44107
▁keep	-8.44667
▁process	-8.4486
▁coming	-8.45082
▁business	-8.45667
▁name	-8.45778
▁gett	-8.46382
▁seem	-8.46412
▁piece	-8.46498
▁face	-8.46666
▁week	-8.47663
▁yet	-8.47922
▁across	-8.48041
▁student	-8.48181
▁line	-8.48267
▁bad	-8.48325
▁area	-8.48563
▁un	-8.48674
▁living	-8.48783
ther	-8.48882
▁saw	-8.4946
est	-8.49549
▁once	-8.49745
▁oka	-8.49781
▁complete	-8.49792
▁model	-8.49935
▁mind	-8.50136
▁times	-8.50393
ic	-8.50461
▁six	-8.5072
th	-8.50738
▁countries	-8.50789
▁close	-8.50869
▁city	-8.51022
▁seen	-8.51168
3	-8.51518
▁such	-8.51893
▁inside	-8.51935
▁set	-8.52338
▁body	-8.53079
▁allow	-8.53097
▁family	-8.53219
w	-8.53305
▁far	-8.53438
▁remember	-8.54004
▁care	-8.5408
▁hav	-8.5413
▁computer	-8.54179
▁interest	-8.54603
▁particular	-8.54852
▁government	-8.55132
1	-8.55357
▁video	-8.55405
▁global	-8.5541
▁u	-8.55777
▁book	-8.56294
ness	-8.56512
▁lives	-8.56954
▁watch	-8.5696
▁young	-8.56997
▁planet	-8.57019
▁war	-8.57049
▁later	-8.57123
is	-8.57563
▁single	-8.57801
▁while	-8.57888
ready	-8.57899
▁almost	-8.5794
▁nothing	-8.57949
▁machine	-8.58052
▁walk	-8.58148
▁goe	-8.58947
▁happens	-8.59045
▁wrong	-8.59624
▁both	-8.59869
▁certain	-8.60685
▁language	-8.60685
▁cancer	-8.60726
▁child	-8.60728
▁head	-8.60905
▁sure	-8.61013
▁top	-8.61045
▁patient	-8.6114
ce	-8.6155
▁hope	-8.62654
▁matter	-8.63181
▁american	-8.63184
▁art	-8.63241
▁read	-8.63259
▁states	-8.63544
▁true	-8.64169
▁study	-8.64286
▁problems	-8.6431
▁figure	-8.64455
▁history	-8.64875
▁unit	-8.65053
▁oh	-8.65071
▁final	-8.65075
▁level	-8.65157
▁beautiful	-8.6518
▁age	-8.65371
us	-8.65411
▁cost	-8.6556
▁music	-8.65845
▁ideas	-8.6609
▁exact	-8.66259
▁disease	-8.66414
▁makes	-8.66578
▁days	-8.66725
▁amazing	-8.66915
▁god	-8.67121
▁universe	-8.67349
le	-8.67416
▁self	-8.67575
▁yes	-8.68043
▁run	-8.68455
▁possible	-8.68959
▁ok	-8.69051
▁mov	-8.69108
▁nature	-8.69136
▁heard	-8.69703
▁saying	-8.69847
▁house	-8.69867
▁order	-8.69965
▁control	-8.702
ation	-8.70347
▁often	-8.70579
▁difference	-8.70739
▁test	-8.7119
▁mother	-8.71532
▁india	-8.71998
▁couple	-8.73325
▁sometimes	-8.7338
▁months	-8.73644
▁since	-8.73836
stead	-8.73841
▁environment	-8.74254
▁market	-8.74454
▁share	-8.74596
▁built	-8.7505
▁discover	-8.75082
▁middle	-8.75201
▁decided	-8.75317
▁whe	-8.7544
▁force	-8.75561
▁state	-8.75746
▁research	-8.75835
▁30	-8.75943
▁education	-8.76496
▁...	-8.76719
▁yea	-8.76722
▁myself	-8.76842
▁stop	-8.76861
▁entire	-8.76872
▁50	-8.76894
▁realize	-8.76978
▁spend	-8.77137
▁job	-8.7718
▁men	-8.77289
▁natural	-8.77464
▁third	-8.7749
▁hundred	-8.77722
▁heart	-8.78141
taking	-8.78222
▁must	-8.78528
▁issue	-8.78558
▁species	-8.78964
▁sound	-8.79043
▁e	-8.79064
came	-8.79075
▁quick	-8.79674
ment	-8.79838
▁unti	-8.79961
▁public	-8.80268
▁follow	-8.80555
▁ways	-8.80597
▁stories	-8.80743
▁community	-8.80928
▁word	-8.80995
▁words	-8.81193
▁oil	-8.8191
▁internet	-8.82411
▁ted	-8.82446
▁individual	-8.82626
▁ourselves	-8.82739
▁per	-8.82924
▁w	-8.82943
▁though	-8.82946
▁leave	-8.83038
▁200	-8.83152
▁huge	-8.83282
▁america	-8.83571
▁result	-8.83642
▁itself	-8.83805
▁pe	-8.83954
▁minutes	-8.84632
▁buy	-8.85404
ry	-8.85936
▁air	-8.86279
▁game	-8.86373
▁hear	-8.86375
▁woman	-8.86391
▁turns	-8.86604
▁themselves	-8.86649
▁term	-8.8668
▁happy	-8.86836
▁clear	-8.87048
st	-8.87058
▁rather	-8.8721
▁company	-8.87406
▁along	-8.87414
▁night	-8.87495
k	-8.87732
▁free	-8.87999
▁structure	-8.88153
▁china	-8.88362
▁pay	-8.88661
▁animals	-8.88824
▁won	-8.88936
um	-8.89282
▁focus	-8.89527
▁past	-8.89549
▁happening	-8.89571
▁color	-8.90116
▁ocean	-8.90588
▁dur	-8.90952
▁front	-8.91149
▁teacher	-8.91627
▁societ	-8.92031
▁view	-8.9218
i	-8.9234
▁challenge	-8.92363
ability	-8.92473
▁100	-8.92892
▁lead	-8.93092
▁green	-8.93172
▁places	-8.93236
▁center	-8.9325
not	-8.93414
▁thousand	-8.93516
▁wonderful	-8.93724
▁gave	-8.93929
▁listen	-8.93987
▁act	-8.94386
▁population	-8.94478
▁experiment	-8.94684
rhaps	-8.94743
▁seven	-8.94808
▁learning	-8.94915
▁obvious	-8.95007
▁bigge	-8.95224
▁hours	-8.95341
▁opportunit	-8.95401
▁team	-8.9562
▁friends	-8.95721
▁object	-8.96206
against	-8.96529
▁explain	-8.96673
▁rule	-8.96769
▁15	-8.97178
▁full	-8.97214
less	-8.97222
▁kill	-8.9724
▁difficult	-8.97254
▁land	-8.97513
▁early	-8.97583
gan	-8.97863
▁fish	-8.97944
▁wait	-8.98094
▁paper	-8.9819
en	-8.99148
▁common	-8.99267
▁death	-8.99316
▁amount	-8.99432
▁program	-8.99863
▁short	-9.00219
▁least	-9.00465
▁eight	-9.00709
ten	-9.01292
▁plant	-9.01312
▁century	-9.01375
▁k	-9.01621
▁black	-9.01806
▁outside	-9.01983
▁behavior	-9.0268
▁beginning	-9.02896
▁pick	-9.03036
▁father	-9.03344
▁local	-9.03479
▁culture	-9.03505
▁audience	-9.03588
▁deep	-9.04242
old	-9.04328
▁feeling	-9.04602
▁works	-9.04605
▁easy	-9.04698
▁poor	-9.04724
▁relationship	-9.05174
▁tree	-9.05287
▁film	-9.05481
▁pattern	-9.05523
▁sea	-9.05854
▁deal	-9.05924
▁blue	-9.06307
▁drive	-9.06792
▁questions	-9.06859
▁produce	-9.06929
▁media	-9.0709
▁exist	-9.07101
▁size	-9.07253
▁scale	-9.07923
year	-9.08011
▁yourself	-9.08128
▁surface	-9.08279
▁wall	-9.08684
▁economic	-9.08817
▁york	-9.08838
▁behind	-9.08888
▁perfect	-9.09342
▁friend	-9.09395
▁co	-9.09581
▁begin	-9.09595
▁device	-9.09602
▁red	-9.09909
▁absolute	-9.10073
▁c	-9.1016
▁stage	-9.10507
▁doctor	-9.10582
▁personal	-9.10964
▁powerful	-9.11133
▁normal	-9.11173
▁de	-9.11384
▁news	-9.11399
▁eyes	-9.11727
▁present	-9.11971
▁simpl	-9.12364
▁phone	-9.12623
c	-9.12718
▁near	-9.12755
▁save	-9.12783
▁longer	-9.13192
▁choice	-9.13244
▁stay	-9.13363
▁tried	-9.13581
▁notice	-9.13814
▁nice	-9.13918
▁value	-9.13958
▁movement	-9.14068
▁rest	-9.14122
▁eat	-9.14301
▁slow	-9.14477
▁support	-9.14479
gone	-9.1513
▁girl	-9.15636
▁shape	-9.1573
▁die	-9.15937
▁complex	-9.16051
▁add	-9.16108
▁parents	-9.16288
▁incredible	-9.16298
▁risk	-9.16488
▁fall	-9.1668
▁ground	-9.1672
▁extreme	-9.1678
▁animal	-9.17189
▁stand	-9.17233
▁40	-9.17313
▁national	-9.17334
▁physical	-9.17559
▁reach	-9.17586
▁systems	-9.17951
▁feet	-9.18401
▁south	-9.18632
▁resource	-9.18872
▁born	-9.18964
▁spen	-9.19422
▁condition	-9.19422
▁cities	-9.19465
ous	-9.19855
▁white	-9.20015
▁speak	-9.20537
man	-9.20677
▁sun	-9.20989
▁growth	-9.20999
▁treat	-9.21062
▁field	-9.2107
▁step	-9.21334
▁safe	-9.21385
▁write	-9.21488
▁toward	-9.21509
▁fun	-9.22241
▁hands	-9.22279
▁sudden	-9.22317
▁organization	-9.23091
▁political	-9.23107
▁dna	-9.23137
▁low	-9.23332
▁wonder	-9.23405
▁situation	-9.23409
▁service	-9.23501
▁generation	-9.23814
▁hold	-9.23917
▁product	-9.2443
▁seeing	-9.245
▁strong	-9.24556
▁compani	-9.24757
▁street	-9.24838
created	-9.24936
▁reality	-9.25079
▁travel	-9.25178
lost	-9.25185
rote	-9.25282
▁pull	-9.25395
▁non	-9.25423
▁felt	-9.25442
▁g	-9.25466
▁known	-9.25868
▁general	-9.25981
▁bottom	-9.26023
▁material	-9.26252
▁rate	-9.26271
land	-9.26824
▁photograph	-9.26859
▁record	-9.27201
▁cut	-9.27496
▁send	-9.27827
▁average	-9.27969
▁pass	-9.2822
▁universit	-9.28762
▁theory	-9.29237
▁economy	-9.2937
▁creat	-9.29879
aught	-9.29923
▁fly	-9.3007
given	-9.30336
▁page	-9.30474
▁blood	-9.30621
▁hospital	-9.30765
,000	-9.30955
▁literal	-9.31086
▁technologies	-9.31115
▁shows	-9.31256
rought	-9.31357
▁dark	-9.31379
▁north	-9.31517
giving	-9.31704
tention	-9.31959
▁innovation	-9.32009
▁lab	-9.32067
▁similar	-9.32222
▁cool	-9.32286
▁train	-9.3233
▁action	-9.32529
▁solve	-9.32576
▁morning	-9.32608
▁continue	-9.3266
using	-9.32679
▁guess	-9.32909
▁increase	-9.33201
▁essential	-9.33229
▁cover	-9.33242
▁fast	-9.33252
▁books	-9.33323
▁access	-9.33416
▁miles	-9.33429
way	-9.33999
▁fight	-9.3405
▁english	-9.34123
▁map	-9.343
▁please	-9.34355
▁protect	-9.34561
▁12	-9.3473
ither	-9.34905
▁village	-9.3496
▁message	-9.35066
self	-9.35116
▁climate	-9.3512
2	-9.35208
▁scientists	-9.35571
▁potential	-9.35651
turned	-9.35653
▁runn	-9.35768
▁revolution	-9.35779
▁forward	-9.35803
▁meet	-9.36099
▁network	-9.36187
ought	-9.36197
▁measure	-9.36232
▁hit	-9.36457
▁consider	-9.36511
▁studie	-9.36654
▁kid	-9.36732
▁modern	-9.3681
▁movie	-9.3685
▁knowledge	-9.37359
▁smart	-9.37563
▁african	-9.37689
▁recently	-9.37881
▁sitt	-9.37954
▁impact	-9.38193
▁key	-9.38356
▁connect	-9.38362
▁office	-9.38423
▁touch	-9.38474
▁web	-9.38479
▁ice	-9.38489
▁expect	-9.38939
▁humans	-9.39038
▁kne	-9.3907
▁main	-9.39188
▁sell	-9.39316
incredibly	-9.39443
▁25	-9.39573
▁dead	-9.39752
▁effect	-9.39757
▁break	-9.40403
▁industry	-9.40425
▁development	-9.40556
▁law	-9.4069
▁arm	-9.40793
▁activit	-9.41146
an	-9.41336
▁special	-9.41441
▁type	-9.41543
▁class	-9.41586
▁chinese	-9.42053
▁late	-9.42151
out	-9.42283
▁major	-9.42428
▁park	-9.42439
▁approach	-9.42693
▁chance	-9.42725
▁easi	-9.42742
to	-9.429
▁plan	-9.4301
▁sit	-9.43192
▁voice	-9.43218
▁nation	-9.43276
▁telling	-9.43547
▁invent	-9.43709
▁compassion	-9.43732
▁solution	-9.43897
▁fear	-9.44056
▁truth	-9.44096
▁met	-9.44418
▁current	-9.44419
alone	-9.44745
▁usual	-9.44754
▁camera	-9.4479
▁wish	-9.45112
▁fire	-9.4515
▁numbers	-9.45162
▁teach	-9.45467
▁boy	-9.45506
taken	-9.45638
▁eye	-9.46133
changing	-9.4627
▁mass	-9.46382
▁fundamental	-9.46422
▁18	-9.46469
▁digital	-9.46515
▁affect	-9.46618
▁sign	-9.46626
up	-9.46728
▁source	-9.4681
▁medical	-9.47068
▁60	-9.47107
specially	-9.47333
▁rich	-9.47506
▁count	-9.47525
▁evolution	-9.47558
▁fair	-9.47754
▁understanding	-9.47924
▁direct	-9.48164
▁europe	-9.48178
▁beyond	-9.48188
▁track	-9.48279
▁tools	-9.48398
▁worth	-9.48601
▁manage	-9.48859
▁gas	-9.489
▁happiness	-9.49015
▁online	-9.49096
▁evidence	-9.49248
▁month	-9.49347
▁robot	-9.49387
tiny	-9.49435
▁cars	-9.49516
▁nine	-9.49806
▁among	-9.49962
▁soon	-9.50163
▁dog	-9.50489
▁girls	-9.50542
▁region	-9.50842
▁vision	-9.5095
▁hiv	-9.50958
▁several	-9.51041
▁hole	-9.5105
▁price	-9.51245
▁scientific	-9.51251
▁push	-9.51256
▁provide	-9.51283
▁wind	-9.51313
▁suggest	-9.51376
▁solar	-9.51566
▁east	-9.51595
▁fail	-9.51643
ton	-9.51761
▁benefit	-9.51934
▁baby	-9.52118
▁represent	-9.52149
▁80	-9.52217
▁dream	-9.52329
▁skin	-9.52374
▁writing	-9.52463
▁subject	-9.5274
▁games	-9.52964
deed	-9.52973
ance	-9.53187
▁further	-9.53607
▁star	-9.5382
▁event	-9.53824
▁somebod	-9.54118
▁college	-9.54349
ism	-9.54439
▁putting	-9.54458
▁road	-9.54658
▁moral	-9.54661
▁function	-9.55064
▁concept	-9.55078
▁molecule	-9.55173
▁medicine	-9.55211
▁effective	-9.55269
▁specific	-9.55489
▁anyway	-9.55595
▁led	-9.55634
▁speed	-9.55762
▁character	-9.55796
▁extraordinar	-9.56239
▁table	-9.5634
▁journey	-9.56618
▁treatment	-9.56639
▁visual	-9.56768
▁west	-9.56938
▁successful	-9.57016
▁search	-9.57046
how	-9.57096
▁raise	-9.57114
cy	-9.57144
▁mom	-9.5791
▁connection	-9.58193
▁period	-9.584
▁exciting	-9.58549
▁box	-9.58569
▁lose	-9.5865
▁google	-9.58833
▁direction	-9.58863
▁sex	-9.59014
▁dr	-9.59018
▁recognize	-9.59155
▁religion	-9.59348
▁success	-9.60047
▁necessar	-9.6012
▁response	-9.60134
▁security	-9.60138
▁describe	-9.60184
▁positive	-9.60224
5	-9.60253
▁square	-9.60287
▁draw	-9.60379
▁zero	-9.6053
▁throw	-9.60577
▁plastic	-9.60578
more	-9.60657
▁list	-9.60868
▁store	-9.60907
▁perspective	-9.60915
▁carbon	-9.61195
▁code	-9.61283
▁remain	-9.61315
▁version	-9.61423
▁quality	-9.61644
▁stick	-9.61697
▁position	-9.62195
▁carry	-9.62201
▁block	-9.6228
▁bas	-9.62294
▁favorite	-9.62542
▁trust	-9.62686
▁involve	-9.62707
▁offer	-9.62822
▁11	-9.62973
▁conversation	-9.62989
▁institution	-9.63086
▁tend	-9.63295
▁software	-9.6334
died	-9.63341
▁serious	-9.63498
▁finish	-9.63498
ers	-9.63512
▁computers	-9.6354
▁hour	-9.63586
▁sounds	-9.63687
▁onto	-9.63691
age	-9.63705
▁materials	-9.63726
▁predict	-9.63932
▁base	-9.63976
▁bacteria	-9.64017
▁role	-9.64035
▁asking	-9.64225
▁practice	-9.64503
▁trial	-9.64587
▁mine	-9.6461
▁traditional	-9.649
▁collect	-9.64989
▁earlie	-9.65174
▁song	-9.65195
▁transform	-9.65299
▁appear	-9.65401
▁aren	-9.65822
▁principle	-9.65824
▁nuclear	-9.65993
eries	-9.66014
▁equal	-9.66029
▁clean	-9.66042
▁fine	-9.66239
▁join	-9.66258
▁adult	-9.66648
7	-9.67011
▁require	-9.67145
▁goal	-9.67384
▁attack	-9.67409
▁emotion	-9.67439
▁post	-9.67462
▁fuel	-9.67741
▁door	-9.6785
▁agree	-9.67959
▁pre	-9.68048
▁depend	-9.68083
time	-9.68191
▁rise	-9.68229
9	-9.6842
▁artist	-9.6848
▁fantastic	-9.68569
ar	-9.68707
▁immediate	-9.68803
▁galax	-9.68806
▁japan	-9.68818
▁flow	-9.68872
▁international	-9.68969
▁wear	-9.69208
rry	-9.6936
▁foot	-9.69371
▁typical	-9.6939
▁connected	-9.694
▁memor	-9.69801
▁democracy	-9.69811
▁larger	-9.69833
▁peace	-9.69852
▁return	-9.69877
▁card	-9.69905
▁possibilit	-9.70112
▁poverty	-9.70149
▁creative	-9.70233
▁fund	-9.70404
▁spread	-9.70442
▁electricity	-9.70562
▁total	-9.70783
▁strange	-9.70924
▁except	-9.70959
▁famous	-9.71163
▁higher	-9.71222
▁shot	-9.7143
▁sleep	-9.71543
▁account	-9.71834
▁context	-9.71873
▁eventual	-9.71874
▁hot	-9.71923
▁finding	-9.72069
▁site	-9.72081
▁bank	-9.72187
▁progress	-9.72295
▁element	-9.72314
▁david	-9.72341
▁lesson	-9.72445
▁writ	-9.72608
▁enjoy	-9.72768
▁supposed	-9.72979
▁surprise	-9.73147
▁mental	-9.73152
head	-9.73174
▁unfortunate	-9.73219
new	-9.73235
▁genetic	-9.73265
▁crazy	-9.73672
▁beauty	-9.73672
▁19	-9.73743
▁content	-9.73918
▁meeting	-9.74018
▁architecture	-9.74127
▁impossibl	-9.74142
▁biology	-9.74173
▁tru	-9.74342
▁secret	-9.7448
▁screen	-9.74737
▁minute	-9.74793
▁particle	-9.74822
4	-9.74977
▁above	-9.75042
ting	-9.75089
▁central	-9.75174
▁90	-9.75299
▁waste	-9.75305
▁tool	-9.75502
▁son	-9.75548
▁signal	-9.75592
▁wife	-9.75628
▁president	-9.75898
▁website	-9.75965
▁pain	-9.7634
▁interact	-9.76418
/	-9.7643
ily	-9.7644
▁mention	-9.76907
▁drug	-9.76962
▁none	-9.77382
▁military	-9.77419
▁heat	-9.77733
▁choose	-9.77839
▁expensive	-9.77856
▁policy	-9.78032
▁gre	-9.78265
▁task	-9.78313
▁ready	-9.78342
▁charge	-9.78414
▁70	-9.78441
▁excited	-9.78457
kept	-9.78503
▁forest	-9.78522
▁schools	-9.7853
▁leaders	-9.78565
▁visit	-9.7876
older	-9.78777
ary	-9.78921
refore	-9.79281
▁brother	-9.79284
▁worse	-9.79383
▁alive	-9.79477
▁cook	-9.79737
—	-9.79748
▁ultimate	-9.79749
▁check	-9.79776
▁meaning	-9.79812
▁warm	-9.79863
▁letter	-9.79946
▁availab	-9.80143
▁remarkabl	-9.80181
▁museum	-9.80249
▁lower	-9.80332
▁faster	-9.80364
▁crisis	-9.80395
▁neurons	-9.80582
▁dangerous	-9.8072
▁argument	-9.80721
▁publish	-9.80744
▁terribl	-9.81041
▁enormous	-9.81205
▁super	-9.81212
▁includ	-9.81329
though	-9.81388
▁sent	-9.81548
▁bill	-9.81566
▁creature	-9.81696
▁factor	-9.82162
▁communication	-9.82192
▁invest	-9.82203
▁physics	-9.82205
▁re	-9.82429
▁genes	-9.82597
▁standard	-9.82612
▁straight	-9.82649
▁reading	-9.82692
▁forget	-9.82716
▁accept	-9.82729
▁dance	-9.82754
▁wide	-9.82765
▁199	-9.8304
▁press	-9.83052
▁training	-9.83118
▁original	-9.83174
▁bunch	-9.83181
▁purpose	-9.83203
▁report	-9.83233
▁daughter	-9.83288
▁drugs	-9.83448
▁rock	-9.8346
▁communit	-9.83468
▁fill	-9.83531
▁products	-9.83614
▁deliver	-9.83712
▁temperature	-9.83727
▁critical	-9.83915
▁stars	-9.8394
▁organism	-9.84296
▁board	-9.84314
▁x	-9.84344
▁famili	-9.84595
▁genome	-9.84687
▁cheap	-9.8477
▁significant	-9.84888
▁shift	-9.84894
▁western	-9.85092
▁freedom	-9.85213
▁slight	-9.85262
▁launch	-9.85278
▁john	-9.85285
▁trade	-9.8533
▁slide	-9.85396
▁tv	-9.85406
▁smaller	-9.85483
te	-9.85555
▁extra	-9.85682
▁protein	-9.85728
▁passion	-9.85744
▁path	-9.85754
▁income	-9.85784
▁relative	-9.85804
▁concern	-9.85816
▁finger	-9.85878
▁range	-9.85939
▁cold	-9.86023
▁familiar	-9.86108
▁wild	-9.86201
▁colleague	-9.86218
▁expert	-9.86218
▁unique	-9.86218
▁increasing	-9.86266
▁production	-9.86338
▁indian	-9.86548
▁foundation	-9.86919
or	-9.87168
▁magic	-9.87245
▁math	-9.87247
▁floor	-9.8727
▁bone	-9.87494
▁fit	-9.875
▁jobs	-9.87885
▁cap	-9.87903
▁legs	-9.88278
▁meant	-9.88649
▁survive	-9.89105
▁prevent	-9.89283
▁town	-9.89416
▁surprising	-9.89466
▁virus	-9.89472
▁massive	-9.8949
▁win	-9.89608
▁luck	-9.8967
▁reduce	-9.89825
▁private	-9.89933
▁conference	-9.8994
by	-9.90029
▁p	-9.90713
▁weight	-9.90726
thousands	-9.90768
▁aid	-9.90926
ood	-9.90958
▁intelligence	-9.90975
▁driving	-9.91085
▁circle	-9.91378
▁constant	-9.91516
▁useful	-9.9157
▁cross	-9.91579
▁gene	-9.91954
ese	-9.92012
▁micro	-9.92174
▁surgery	-9.92237
like	-9.92384
▁performance	-9.92398
▁conflict	-9.92408
▁drop	-9.9247
▁saving	-9.92512
▁address	-9.92566
▁disappear	-9.92586
▁tissue	-9.92588
▁16	-9.92678
▁breath	-9.92849
▁skills	-9.92873
▁explore	-9.93112
▁vehicle	-9.93136
▁television	-9.93136
▁instance	-9.93136
▁influence	-9.93147
▁sub	-9.93155
▁walked	-9.93165
▁sad	-9.93197
▁virtual	-9.93211
and	-9.93257
▁link	-9.93594
▁active	-9.93757
▁decision	-9.93901
▁dad	-9.93924
▁enter	-9.94135
upon	-9.9428
▁user	-9.9433
▁achieve	-9.9434
▁police	-9.94376
▁humanity	-9.94516
▁solutions	-9.94533
▁environmental	-9.94546
▁double	-9.94628
▁improve	-9.94783
▁babies	-9.94802
▁teaching	-9.95123
▁effort	-9.9535
▁financial	-9.95366
▁trouble	-9.95414
▁shark	-9.9543
▁mars	-9.95628
▁afford	-9.95712
▁robots	-9.95854
▁meter	-9.95861
▁engine	-9.9592
▁german	-9.95982
▁scar	-9.9622
wise	-9.96237
▁perform	-9.96274
▁interview	-9.96471
▁dynamic	-9.96518
▁urban	-9.9655
▁bar	-9.96789
▁f	-9.96792
▁ran	-9.9695
the	-9.9698
▁infrastructure	-9.97071
▁glass	-9.97345
▁decisions	-9.97477
▁21	-9.97481
▁respect	-9.97682
▁sky	-9.9774
▁politic	-9.97741
▁j	-9.97762
▁pressure	-9.97875
▁paint	-9.97925
go	-9.98093
▁drink	-9.98206
▁various	-9.98224
▁creativity	-9.98228
▁feed	-9.9825
▁consumer	-9.98273
▁seat	-9.98293
▁compare	-9.98319
▁14	-9.98524
▁male	-9.98615
▁moon	-9.98754
▁decade	-9.98773
▁insect	-9.98803
▁sister	-9.98805
▁flying	-9.98965
▁catch	-9.99141
▁fix	-9.99239
▁produc	-9.99417
▁island	-9.99515
tally	-9.99679
▁fold	-9.99681
▁career	-9.99683
▁text	-9.998
▁prison	-9.99819
standing	-9.99934
aid	-9.99946
▁convince	-9.99976
▁transport	-9.99976
▁edge	-10.0003
▁remind	-10.0003
▁violence	-10.0014
▁underst	-10.005
▁spot	-10.0054
▁muscle	-10.0057
▁twice	-10.0057
▁desert	-10.0059
▁tumor	-10.0059
▁demand	-10.007
▁cultural	-10.0111
▁profound	-10.0116
▁funny	-10.0117
▁gain	-10.0117
▁stopp	-10.0126
▁chris	-10.0131
▁dimension	-10.017
▁expand	-10.0176
▁summer	-10.0178
▁yellow	-10.0189
▁sequence	-10.0205
▁brand	-10.0214
▁blind	-10.0216
▁mr	-10.0217
▁component	-10.0236
▁female	-10.0236
▁consciousness	-10.0243
▁decide	-10.0262
▁wealth	-10.0282
▁possibl	-10.0285
▁recent	-10.0292
▁airplane	-10.0297
▁sat	-10.0318
▁bridge	-10.0339
▁random	-10.0349
▁separate	-10.0359
▁responsibilit	-10.036
▁sand	-10.0375
▁instrument	-10.0413
▁tremendous	-10.0419
▁technique	-10.0419
▁afghanistan	-10.0419
▁smell	-10.0421
▁civilization	-10.0422
▁apart	-10.0437
▁thanks	-10.0441
▁capacity	-10.0442
▁accident	-10.0446
▁mission	-10.0452
▁layer	-10.0455
▁respond	-10.0459
▁capital	-10.0464
▁destroy	-10.0473
▁o	-10.0474
▁poet	-10.0477
▁station	-10.0502
▁societies	-10.0503
▁bear	-10.051
▁campaign	-10.0532
▁complexit	-10.0533
▁balance	-10.0533
▁17	-10.0537
▁supply	-10.0543
▁article	-10.0543
▁ancient	-10.0545
▁500	-10.0546
ember	-10.0549
▁eating	-10.0549
▁wave	-10.056
▁chemical	-10.0575
▁worry	-10.0582
▁etc	-10.059
▁below	-10.061
▁photo	-10.0618
▁scientist	-10.0622
▁boat	-10.0632
▁shared	-10.0655
▁values	-10.0658
▁engineer	-10.0665
▁architect	-10.0668
▁chair	-10.0669
8	-10.0671
▁atmosphere	-10.0671
▁target	-10.0678
▁introduce	-10.0709
▁london	-10.0712
▁washing	-10.0727
▁radio	-10.0728
▁interaction	-10.0735
▁flight	-10.075
▁birds	-10.0756
▁professional	-10.0765
▁birth	-10.0778
▁communicate	-10.0781
▁farm	-10.0784
▁noise	-10.0812
▁shar	-10.0831
tic	-10.0841
▁oxygen	-10.0845
▁apply	-10.0848
▁aware	-10.0849
▁sector	-10.086
▁emotional	-10.0863
▁designers	-10.0864
▁degrees	-10.0867
amp	-10.0882
▁brains	-10.0891
▁coast	-10.0892
▁popular	-10.0922
▁hair	-10.0928
▁feature	-10.0933
▁speaking	-10.0965
▁honest	-10.0989
▁mobile	-10.1008
▁option	-10.101
▁aids	-10.1011
▁river	-10.1021
▁mid	-10.1028
▁industrial	-10.1041
▁king	-10.1047
▁neighbor	-10.1054
▁race	-10.1062
▁rare	-10.1064
▁graph	-10.1066
▁careful	-10.1072
▁contain	-10.1113
▁prize	-10.1121
▁investment	-10.1122
▁cycle	-10.1123
▁biological	-10.1126
▁hopeful	-10.1143
▁engineering	-10.1149
▁window	-10.1162
▁document	-10.1168
▁realiz	-10.117
▁laugh	-10.1184
▁california	-10.1186
▁giant	-10.1193
▁forth	-10.1214
▁inspired	-10.1228
▁mountain	-10.1233
▁types	-10.1234
▁distance	-10.1236
$	-10.1253
▁neighborhood	-10.1253
▁richard	-10.1254
▁failure	-10.1256
▁rain	-10.1258
▁roll	-10.1261
▁ne	-10.1281
▁sample	-10.1284
▁networks	-10.1287
▁rough	-10.1288
▁belief	-10.1292
▁grand	-10.1301
▁corner	-10.1311
▁worst	-10.1321
▁continent	-10.1342
▁sentence	-10.1357
eath	-10.1382
▁commercial	-10.1382
▁tough	-10.1382
▁miss	-10.1385
▁3	-10.1385
▁classroom	-10.1388
▁ship	-10.1391
▁plane	-10.1412
▁damage	-10.1418
▁paid	-10.1419
▁reward	-10.146
▁apple	-10.1465
▁mouth	-10.15
▁method	-10.1512
▁threat	-10.1521
▁argue	-10.1523
▁magazine	-10.1524
▁imagination	-10.1525
▁dramatic	-10.1528
▁anti	-10.1536
▁grade	-10.155
▁10,000	-10.156
▁hearing	-10.1562
▁pop	-10.1564
water	-10.157
▁artists	-10.1576
hand	-10.1577
▁workers	-10.1583
▁newspaper	-10.1593
▁phenomeno	-10.1596
ble	-10.1601
▁print	-10.1602
▁notion	-10.1623
▁broken	-10.1629
▁bottle	-10.1632
▁2	-10.1637
▁basi	-10.1647
▁detail	-10.1659
▁application	-10.1663
▁coral	-10.1663
▁soldier	-10.1665
▁300	-10.1667
▁desire	-10.1672
ada	-10.1679
ine	-10.1697
▁highly	-10.1705
▁electric	-10.1707
▁flu	-10.1716
▁motor	-10.1731
▁competition	-10.1733
dimensional	-10.1747
▁match	-10.1767
▁di	-10.1768
ian	-10.1775
▁express	-10.1786
▁prove	-10.1793
▁coffee	-10.1802
▁ecosystem	-10.1803
▁email	-10.1803
b	-10.1824
▁hell	-10.1825
▁minds	-10.1825
▁generate	-10.1837
▁surviv	-10.1839
▁loss	-10.1868
▁define	-10.1868
▁technical	-10.1881
▁breast	-10.1886
▁boys	-10.1895
▁negative	-10.1903
▁involv	-10.1913
▁emerg	-10.1937
▁designer	-10.1941
▁advance	-10.1941
▁identit	-10.1945
▁lack	-10.1947
▁unlike	-10.1948
▁arab	-10.195
▁professor	-10.1961
0,000	-10.1973
▁sick	-10.1994
▁burn	-10.2003
▁garden	-10.2007
▁gold	-10.201
▁rid	-10.2012
▁civil	-10.2019
ful	-10.202
▁authorit	-10.2026
▁recover	-10.2029
▁landscape	-10.2031
▁decades	-10.2036
▁jump	-10.2039
▁definition	-10.206
▁iraq	-10.2062
▁trip	-10.2079
▁release	-10.208
▁hate	-10.2086
▁french	-10.209
▁crime	-10.209
▁brilliant	-10.2093
▁outcome	-10.2094
▁dying	-10.2095
▁effects	-10.2102
▁farmers	-10.2108
▁laws	-10.2118
▁stem	-10.2129
ized	-10.2134
▁controll	-10.214
▁leg	-10.2148
▁metaphor	-10.2157
▁efficient	-10.216
▁universal	-10.2163
▁collective	-10.2163
▁missing	-10.2184
all	-10.2185
▁include	-10.2192
▁sexual	-10.2192
▁copy	-10.2198
▁fashion	-10.2237
▁contact	-10.2239
▁operat	-10.2276
▁radical	-10.2284
▁cloud	-10.2295
▁related	-10.2301
▁legal	-10.2316
▁fac	-10.2333
diversity	-10.2333
wood	-10.2358
▁expression	-10.2361
▁willing	-10.2363
z	-10.237
▁suffering	-10.2391
▁drawing	-10.2398
▁mouse	-10.2409
▁becom	-10.243
▁sustainabl	-10.2441
▁stone	-10.2441
▁husband	-10.246
▁religious	-10.2481
▁meat	-10.2485
▁evolv	-10.2493
▁camp	-10.25
▁fully	-10.2514
▁capture	-10.2529
▁aspect	-10.2536
▁laptop	-10.2536
▁dollar	-10.2536
▁speech	-10.2539
▁economist	-10.2539
▁vote	-10.2539
▁24	-10.2541
▁spirit	-10.2543
▁gap	-10.2546
▁asia	-10.2554
ivity	-10.2554
▁13	-10.2597
▁ball	-10.261
▁display	-10.2612
▁paul	-10.2613
f	-10.2644
▁citizens	-10.2646
term	-10.2651
night	-10.2653
as	-10.2655
ty	-10.2671
▁bang	-10.2681
ne	-10.2688
▁british	-10.2689
▁budget	-10.2697
▁chose	-10.2703
▁scene	-10.2706
side	-10.2707
▁jam	-10.2712
▁afr	-10.2721
x	-10.2723
▁algorithm	-10.2724
▁plann	-10.2736
▁reflect	-10.2737
▁trick	-10.2765
▁painting	-10.2768
▁reaction	-10.2769
▁mathematics	-10.2769
▁operation	-10.2769
▁fresh	-10.2771
▁according	-10.2773
▁vast	-10.2773
▁avoid	-10.2776
▁tradition	-10.2786
▁adapt	-10.2786
▁bread	-10.2792
▁1,000	-10.2808
▁bright	-10.281
▁location	-10.2829
▁honor	-10.283
▁researcher	-10.2849
it	-10.2864
▁bubble	-10.2871
▁date	-10.2901
▁graduate	-10.2917
▁forever	-10.292
▁background	-10.2929
▁error	-10.2931
▁profit	-10.2943
▁fat	-10.2979
▁labor	-10.2987
▁198	-10.299
▁core	-10.2992
▁horse	-10.2992
▁traffic	-10.2995
▁curve	-10.2998
▁row	-10.3002
▁remote	-10.3003
▁rapid	-10.3003
▁suffer	-10.3004
▁wow	-10.3004
▁chicken	-10.3006
▁facebook	-10.3006
▁george	-10.3023
▁channel	-10.3025
▁extend	-10.3027
▁note	-10.3042
▁evolve	-10.3051
▁writer	-10.3058
▁organic	-10.3063
▁mit	-10.3065
6	-10.3075
▁attempt	-10.3083
▁wisdom	-10.3083
▁opposite	-10.3083
▁patent	-10.3083
▁san	-10.3086
▁sugar	-10.3086
▁disaster	-10.3086
▁transformation	-10.3087
g	-10.3096
▁soil	-10.3117
▁fourth	-10.3124
line	-10.3136
▁engineers	-10.3144
▁weird	-10.3155
▁proud	-10.3164
▁complicat	-10.3165
▁odd	-10.3166
▁responsibl	-10.3167
▁grandmother	-10.3167
▁bird	-10.3169
▁church	-10.3176
▁beat	-10.3178
▁metal	-10.32
▁nurse	-10.3213
▁debate	-10.3228
▁statistics	-10.324
▁independent	-10.3243
▁advantage	-10.3245
▁dinner	-10.3245
▁ring	-10.3248
▁interface	-10.3249
▁diet	-10.3252
▁taste	-10.3252
▁insight	-10.3261
▁members	-10.3277
▁party	-10.328
▁muslim	-10.3283
▁spin	-10.3287
ish	-10.3299
▁foreign	-10.3312
▁continu	-10.3326
▁vaccine	-10.333
▁spring	-10.3337
▁shock	-10.3346
▁border	-10.335
▁holding	-10.3351
▁seriously	-10.3381
▁mad	-10.3392
▁net	-10.3402
ial	-10.3405
▁folk	-10.3413
▁pro	-10.3434
u	-10.344
ization	-10.3445
▁quote	-10.3448
▁degree	-10.3465
▁engage	-10.3471
▁combine	-10.3486
▁enable	-10.3491
▁mechanism	-10.3493
▁alternative	-10.3493
▁equivalent	-10.3496
▁stuck	-10.35
▁pocket	-10.3502
▁institute	-10.3502
▁symbol	-10.3521
▁survey	-10.3529
▁proper	-10.3542
▁400	-10.3543
▁practical	-10.3552
▁hall	-10.3552
ra	-10.3561
▁agricultur	-10.3565
▁regular	-10.3577
▁correct	-10.3581
▁factory	-10.3581
▁european	-10.3603
▁leav	-10.3608
▁dan	-10.3644
▁dolphin	-10.3662
▁reveal	-10.3662
▁childhood	-10.3662
▁justice	-10.3665
▁crash	-10.3672
▁prime	-10.3677
▁fascinating	-10.3685
▁distribution	-10.3689
▁kilometer	-10.3691
▁conscious	-10.3694
▁divide	-10.37
▁atom	-10.3701
▁motion	-10.3701
▁harder	-10.3707
▁occur	-10.3723
▁invite	-10.3724
p	-10.3741
▁discovery	-10.3743
▁opinion	-10.3747
▁roof	-10.3747
▁volunteer	-10.375
▁satellite	-10.3755
▁quiet	-10.3755
▁election	-10.3756
ta	-10.3782
▁shoes	-10.38
▁stream	-10.3806
▁equip	-10.3811
▁unite	-10.3823
▁shop	-10.3832
versus	-10.3834
▁tomorrow	-10.3834
▁yester	-10.3835
▁encourage	-10.3836
▁fortunate	-10.3836
▁platform	-10.3842
▁lie	-10.3857
▁frank	-10.3865
▁brown	-10.3865
▁topic	-10.3875
▁electrical	-10.3875
▁sold	-10.3888
▁estimate	-10.3901
rew	-10.3904
▁pair	-10.3917
▁streets	-10.3919
▁malaria	-10.3923
▁peak	-10.3923
▁theater	-10.3924
▁replace	-10.3927
▁string	-10.3942
▁crowd	-10.3945
▁cry	-10.395
▁arrive	-10.3954
ship	-10.3964
▁creation	-10.3965
ley	-10.3973
▁serve	-10.3989
▁truck	-10.4005
▁mirror	-10.4008
▁awful	-10.4008
▁invisible	-10.4014
▁switch	-10.4016
▁intellectual	-10.4016
▁mark	-10.4042
▁adopt	-10.405
▁joy	-10.4064
▁due	-10.4093
▁hop	-10.4097
▁cognitive	-10.4098
▁equation	-10.4105
▁wood	-10.4105
▁clip	-10.4107
▁solv	-10.4119
▁claim	-10.4137
▁consumption	-10.4138
▁translate	-10.4146
▁receive	-10.4165
▁bed	-10.4178
▁pig	-10.4184
▁entertain	-10.4186
▁dis	-10.4187
▁wheel	-10.4189
▁gift	-10.419
▁lift	-10.4199
▁master	-10.4209
▁pounds	-10.421
▁promise	-10.4216
▁beach	-10.4237
▁collapse	-10.4238
▁climb	-10.4264
▁lunch	-10.4266
▁spider	-10.4276
▁ancestor	-10.4276
▁employee	-10.4276
▁brief	-10.4276
▁politician	-10.4276
▁flat	-10.4277
▁evil	-10.4279
▁perception	-10.4279
▁pole	-10.4283
▁charles	-10.4286
▁milk	-10.4324
▁weapons	-10.4327
▁score	-10.434
▁mess	-10.4341
▁deeply	-10.4366
▁click	-10.4368
▁talent	-10.437
▁telescope	-10.437
▁fossil	-10.4385
▁joke	-10.4394
▁nobod	-10.4397
loved	-10.4403
▁actor	-10.4408
▁intelligent	-10.4414
▁suppose	-10.4422
▁ma	-10.4423
▁limited	-10.4423
▁fellow	-10.4435
▁kenya	-10.4435
▁determine	-10.4437
▁hurt	-10.4459
▁department	-10.4459
▁valley	-10.446
▁transition	-10.446
▁construction	-10.4461
▁heavy	-10.4473
▁150	-10.4473
▁era	-10.4476
▁dinosaurs	-10.4485
ities	-10.4491
▁fell	-10.4516
▁fields	-10.4518
▁hidden	-10.4551
▁minister	-10.4551
▁bush	-10.4556
▁shoot	-10.4564
▁load	-10.4565
▁monitor	-10.4566
▁empower	-10.4566
▁highest	-10.4573
▁occurr	-10.4577
▁measur	-10.4577
▁ordinar	-10.4591
▁lad	-10.4611
of	-10.4623
▁struggle	-10.4624
▁pack	-10.4625
▁35	-10.4635
▁vessel	-10.4645
▁teeth	-10.4645
▁leadership	-10.4646
▁depression	-10.4646
▁discussion	-10.4647
▁title	-10.4653
▁court	-10.4662
▁litera	-10.4667
▁round	-10.4674
▁extract	-10.47
▁dry	-10.4709
▁mo	-10.471
▁losing	-10.4718
▁operate	-10.4719
▁leader	-10.4721
▁ba	-10.4721
▁sweet	-10.4734
held	-10.4735
men	-10.4738
▁multiple	-10.4739
▁einstein	-10.4739
▁incentive	-10.4739
▁curious	-10.4739
▁dirt	-10.4739
▁pleasure	-10.4741
▁variet	-10.4754
▁lay	-10.4755
▁precise	-10.4762
▁viruses	-10.4764
▁smile	-10.4764
ended	-10.4769
▁dreams	-10.4783
▁mexic	-10.4785
▁studio	-10.4804
▁nigeria	-10.4808
▁injur	-10.4824
▁nervous	-10.4834
▁strategy	-10.4834
▁twitter	-10.4834
▁weather	-10.4835
▁explanation	-10.4838
▁applie	-10.4849
▁limit	-10.4855
▁infect	-10.486
▁iron	-10.4889
▁band	-10.4892
▁partner	-10.4893
▁lung	-10.4914
bodie	-10.4927
▁symmetr	-10.4927
ie	-10.4928
▁skill	-10.4929
▁protection	-10.493
▁sculpture	-10.493
▁rural	-10.493
▁hotel	-10.493
▁mix	-10.4933
▁worldwide	-10.4933
▁planets	-10.4938
▁steel	-10.4969
▁bag	-10.4979
▁suit	-10.4981
▁bus	-10.4986
▁aging	-10.5
▁remove	-10.5018
▁2,000	-10.5019
▁novel	-10.5026
▁mortality	-10.5032
▁zone	-10.5034
▁closed	-10.5034
▁harm	-10.5037
▁surround	-10.5038
▁status	-10.5047
dp	-10.5059
▁exchange	-10.5067
▁speaker	-10.5083
▁photos	-10.5099
▁spoke	-10.5103
▁l	-10.5105
▁elephant	-10.5125
▁definite	-10.5126
▁enem	-10.5126
▁silk	-10.5126
▁initial	-10.5127
ch	-10.5132
▁narrative	-10.5136
▁caus	-10.5138
▁brita	-10.5145
▁majorit	-10.5146
▁fiber	-10.5156
▁undern	-10.5157
▁artificial	-10.5158
▁opening	-10.5162
▁grown	-10.5178
▁angel	-10.5185
▁exercise	-10.5196
bas	-10.52
▁grain	-10.522
▁northern	-10.5225
▁quarter	-10.5226
▁empty	-10.5228
life	-10.5231
▁govern	-10.5232
▁efficienc	-10.5234
▁nasa	-10.525
▁rat	-10.5256
▁matters	-10.5259
▁obes	-10.5265
▁frame	-10.5277
▁100,000	-10.5297
▁australia	-10.5298
▁strength	-10.5324
▁pump	-10.5325
▁property	-10.5326
▁multi	-10.5326
▁darwin	-10.5328
▁killing	-10.533
ive	-10.5332
▁stoo	-10.5337
▁tens	-10.5343
▁battle	-10.535
▁arms	-10.5366
▁iran	-10.5371
▁inter	-10.5415
▁inner	-10.5417
▁invention	-10.5419
▁complicate	-10.5422
▁england	-10.5426
▁kitchen	-10.5426
▁client	-10.5426
▁oceans	-10.5427
▁tag	-10.5428
▁liquid	-10.5429
▁library	-10.5429
▁chip	-10.5434
▁clinic	-10.5434
▁float	-10.5435
▁em	-10.5435
▁marriage	-10.5436
▁detect	-10.5438
▁corruption	-10.5448
▁lifetime	-10.545
▁tail	-10.5455
▁consequences	-10.5464
▁prototype	-10.5474
▁clinical	-10.5477
ical	-10.5485
ber	-10.5488
▁ei	-10.5505
▁player	-10.5512
▁v	-10.5515
▁michael	-10.5528
▁poem	-10.5528
▁reef	-10.5528
▁maintain	-10.5528
▁physicist	-10.5535
▁winter	-10.5544
▁nor	-10.5553
▁rais	-10.5554
▁director	-10.5564
▁setting	-10.5578
nt	-10.5608
▁crack	-10.561
▁sustain	-10.5613
▁parent	-10.5624
▁tall	-10.563
▁emergenc	-10.5631
▁stupid	-10.5631
▁chapter	-10.5631
▁lawyer	-10.5631
ard	-10.5634
▁chain	-10.5634
▁calculate	-10.5634
▁chemistry	-10.5635
▁lady	-10.5637
▁lake	-10.5637
▁identify	-10.564
▁feels	-10.5642
▁daily	-10.5646
▁appropriate	-10.5651
▁union	-10.5653
ants	-10.5655
▁cutting	-10.5658
▁pure	-10.5667
▁therap	-10.5667
▁israel	-10.5674
▁stress	-10.5674
▁plate	-10.569
com	-10.5697
▁plus	-10.5698
▁mistake	-10.5702
▁rocket	-10.5711
▁cure	-10.5715
▁celebrate	-10.5716
ier	-10.5724
▁brazil	-10.5734
▁epidemic	-10.5735
▁encounter	-10.5735
▁feedback	-10.5735
▁robotic	-10.5736
▁root	-10.5741
▁marri	-10.5744
▁sphere	-10.5747
▁faith	-10.5749
▁steps	-10.575
▁accurate	-10.5758
▁conduct	-10.5759
▁sheet	-10.5762
▁button	-10.5765
▁dozen	-10.5765
▁club	-10.5771
▁mathematical	-10.5775
▁addition	-10.5781
▁fake	-10.5784
▁99	-10.5791
ant	-10.5792
▁economics	-10.5815
ma	-10.5833
▁facilit	-10.5836
▁combination	-10.5841
▁medium	-10.5842
▁quant	-10.5857
▁molecul	-10.586
▁spectrum	-10.5863
▁wake	-10.5877
▁credit	-10.5892
▁counter	-10.5892
▁member	-10.5911
▁attract	-10.5946
▁blow	-10.5946
▁southern	-10.5947
▁infinite	-10.5951
▁flies	-10.5954
▁cat	-10.5972
▁tear	-10.5974
▁whom	-10.5993
▁voices	-10.6004
▁analys	-10.6006
▁wine	-10.6008
▁shapes	-10.6008
▁ten	-10.6013
▁eastern	-10.6017
▁relate	-10.6017
▁gun	-10.6024
▁compar	-10.6025
off	-10.6051
▁musician	-10.6057
▁restaurant	-10.6063
▁succeed	-10.6072
▁demonstrate	-10.6075
▁regard	-10.6077
▁avail	-10.6093
▁organize	-10.6107
▁assume	-10.6112
▁lin	-10.6112
▁orbit	-10.6115
▁hero	-10.6119
foot	-10.6128
▁dealing	-10.6134
▁ideal	-10.6137
▁197	-10.6155
▁valuable	-10.6167
▁wire	-10.6182
▁mothers	-10.6184
▁filter	-10.6185
▁primar	-10.6217
▁ph	-10.6236
▁broke	-10.6241
board	-10.6242
▁sites	-10.6244
▁organs	-10.6248
▁comfort	-10.6249
▁penguins	-10.6265
▁uncle	-10.6271
▁wikipedia	-10.6273
▁unusual	-10.6273
▁computation	-10.6273
▁lecture	-10.6275
▁balloon	-10.6276
▁radiation	-10.6278
▁presentation	-10.628
▁prediction	-10.6281
▁pile	-10.6286
ver	-10.6288
▁van	-10.6295
▁gay	-10.6297
▁swim	-10.6301
▁reverse	-10.6306
▁collection	-10.6309
▁ignore	-10.6326
▁bare	-10.6335
▁196	-10.6339
▁fan	-10.6346
scale	-10.6352
▁gather	-10.6358
▁chemicals	-10.6358
▁seed	-10.6365
▁democratic	-10.6383
▁conclusion	-10.6384
▁nerve	-10.6384
▁observation	-10.6385
▁toilet	-10.6385
▁historical	-10.6386
▁marketing	-10.6398
▁gravity	-10.6408
ey	-10.6418
▁mountains	-10.642
▁loud	-10.6423
▁cup	-10.6427
▁tour	-10.6438
▁upper	-10.644
▁emerge	-10.6441
▁fe	-10.6455
▁lock	-10.6464
ia	-10.6466
▁judge	-10.6478
▁alien	-10.6486
▁circumstance	-10.6496
▁psychology	-10.6496
▁official	-10.6497
se	-10.6497
▁illness	-10.6497
▁clever	-10.6497
▁chart	-10.6497
▁sir	-10.6505
▁percentage	-10.651
▁ha	-10.6526
▁electronic	-10.6531
▁shoulder	-10.6539
▁review	-10.6545
bility	-10.6547
▁peer	-10.6564
▁organ	-10.6573
▁journalist	-10.6574
▁soft	-10.6574
▁prepared	-10.6577
▁driver	-10.6583
▁associate	-10.6593
▁section	-10.6604
son	-10.6608
▁chimpanzee	-10.661
▁genius	-10.661
▁variation	-10.661
▁analog	-10.6614
▁battery	-10.6616
▁evolutionary	-10.6616
▁existence	-10.6621
▁nest	-10.663
▁drill	-10.663
▁illusion	-10.6632
▁2008	-10.6637
▁hill	-10.6639
▁pr	-10.664
▁1990	-10.6649
▁properti	-10.6658
▁hi	-10.6672
▁former	-10.6678
▁tape	-10.6681
▁reserve	-10.669
▁knowing	-10.6697
▁gulf	-10.6725
▁pollution	-10.6725
▁collaboration	-10.6725
▁mile	-10.6726
▁apartment	-10.6727
▁limb	-10.6729
▁height	-10.673
om	-10.6731
▁details	-10.6732
▁solid	-10.6735
▁customer	-10.6736
ha	-10.6737
▁organiz	-10.6737
▁coal	-10.6742
▁length	-10.6743
▁players	-10.676
▁statement	-10.6772
▁sing	-10.6783
▁marine	-10.6795
▁ex	-10.6818
▁season	-10.6822
▁ingredient	-10.6841
▁cheat	-10.6843
▁hydrogen	-10.6845
▁zoom	-10.6847
▁mistakes	-10.6848
▁label	-10.6853
▁soul	-10.6858
▁visible	-10.686
▁icon	-10.6862
▁la	-10.6869
▁r	-10.688
▁severe	-10.689
▁inform	-10.6891
▁bio	-10.6891
▁bomb	-10.6903
▁mechanical	-10.6903
▁aim	-10.6926
▁resistan	-10.6957
▁congress	-10.6959
▁convert	-10.6959
▁sunlight	-10.6959
▁symptom	-10.6963
tech	-10.6964
▁birthday	-10.6971
▁decline	-10.6982
▁embrace	-10.6983
▁seek	-10.6988
▁bor	-10.6999
▁pen	-10.7006
▁charit	-10.7013
▁grid	-10.7021
10	-10.7023
▁trend	-10.7029
▁phase	-10.7038
▁jan	-10.7038
▁doubt	-10.7045
▁circuit	-10.7049
▁talks	-10.705
▁steve	-10.7052
▁tank	-10.7055
▁app	-10.7071
▁discuss	-10.7075
▁grab	-10.7077
▁heaven	-10.7078
▁mathematician	-10.7078
▁mushroom	-10.7078
▁1960	-10.7078
▁implication	-10.7078
▁transplant	-10.7082
▁paradigm	-10.7082
▁robert	-10.7082
▁exploration	-10.709
ground	-10.7095
▁sensor	-10.7098
▁worrie	-10.7099
▁consume	-10.7103
▁75	-10.7106
▁reference	-10.711
▁afterward	-10.7113
▁tower	-10.712
▁regret	-10.713
▁ride	-10.7141
▁nose	-10.7143
▁belong	-10.7145
▁emissions	-10.715
ling	-10.7151
▁march	-10.7156
▁trillion	-10.7158
▁apparent	-10.7198
▁mosquito	-10.7198
destruction	-10.7198
▁polio	-10.7198
▁panel	-10.7198
▁elder	-10.7199
▁assumption	-10.7199
▁healthcare	-10.7199
▁recording	-10.7201
▁biologist	-10.7202
▁intense	-10.7206
▁academic	-10.7206
▁empathy	-10.7207
▁input	-10.7209
▁forgot	-10.7213
▁heads	-10.722
▁ho	-10.7221
ray	-10.7225
▁reform	-10.723
▁rush	-10.7232
▁burning	-10.7233
▁automatic	-10.7242
▁carrie	-10.7264
▁45	-10.7268
▁kick	-10.7269
▁script	-10.7271
▁style	-10.7276
▁ray	-10.7287
▁tube	-10.7295
▁manufactur	-10.7298
▁puzzle	-10.7299
▁categor	-10.7301
▁danger	-10.7319
▁lies	-10.732
▁revenue	-10.732
▁harvard	-10.732
▁firm	-10.7321
▁shall	-10.7322
▁wireless	-10.7322
▁islam	-10.7326
▁youtube	-10.7326
ware	-10.7332
▁privilege	-10.7339
▁sight	-10.7345
▁importan	-10.7356
▁seal	-10.7361
▁cent	-10.7363
▁witness	-10.7365
▁knee	-10.7367
▁se	-10.7371
rtex	-10.7381
▁los	-10.741
omas	-10.7416
being	-10.7417
▁ah	-10.7419
▁polle	-10.7421
▁tie	-10.7427
▁tea	-10.7435
so	-10.7435
▁construct	-10.744
▁abstract	-10.7441
▁vulnerab	-10.7443
▁predator	-10.7444
▁passionate	-10.7444
▁instruction	-10.7444
▁bike	-10.7447
▁teenager	-10.7447
▁acid	-10.7448
▁sophisticated	-10.7459
▁laboratory	-10.7464
▁theme	-10.7469
▁mal	-10.7476
▁melt	-10.748
▁el	-10.7487
half	-10.7491
▁technological	-10.7498
▁comment	-10.7509
▁volume	-10.7512
▁broad	-10.7527
▁internal	-10.7528
▁author	-10.7552
▁attach	-10.7561
▁francisc	-10.7568
▁framework	-10.7569
▁2000	-10.757
▁paris	-10.7582
▁select	-10.7586
▁boundar	-10.7592
▁cable	-10.7595
▁productive	-10.7597
▁fle	-10.7625
▁cultures	-10.7626
▁ear	-10.7627
▁scan	-10.7632
▁dropp	-10.7635
▁hire	-10.764
▁maps	-10.7654
▁danc	-10.7659
▁names	-10.7662
▁7	-10.7666
▁pakistan	-10.767
▁dense	-10.7674
▁del	-10.7683
▁explor	-10.7683
▁bost	-10.769
▁shut	-10.7695
▁advice	-10.7695
▁instant	-10.7695
▁commitment	-10.7696
▁liberal	-10.7701
▁handle	-10.7702
▁3,000	-10.7707
▁comfortabl	-10.7722
▁poster	-10.7727
▁conventional	-10.7739
▁arts	-10.7752
what	-10.7753
▁split	-10.7754
▁previous	-10.7755
▁ears	-10.7765
▁gentlem	-10.7794
▁appreciate	-10.7795
▁behave	-10.7805
▁implant	-10.782
▁hyper	-10.7822
▁chocolate	-10.7823
▁inevitabl	-10.7823
▁horrible	-10.7825
▁snow	-10.7825
▁telephone	-10.7827
tion	-10.7834
▁relevant	-10.7835
▁pilot	-10.7843
▁suck	-10.7848
▁participate	-10.785
▁react	-10.787
▁hang	-10.7874
▁philosoph	-10.7886
▁finance	-10.7904
▁5,000	-10.792
▁boom	-10.7934
▁programm	-10.7942
▁behavioral	-10.7947
ium	-10.7948
▁joe	-10.7953
▁blog	-10.7953
▁excuse	-10.7954
▁christian	-10.7954
▁unexpected	-10.7955
▁characteristic	-10.7955
ture	-10.7957
▁phrase	-10.7958
▁improvement	-10.7961
▁microbes	-10.7962
▁iphone	-10.7964
▁computing	-10.797
▁shame	-10.7973
▁shake	-10.7978
▁defense	-10.7982
▁threaten	-10.7987
▁9	-10.7988
▁musical	-10.7992
▁cow	-10.7992
▁pour	-10.7997
▁staff	-10.7998
▁photographer	-10.8005
▁inspiration	-10.8021
▁frequenc	-10.8022
▁establish	-10.8026
▁rational	-10.8053
▁linked	-10.8066
▁queen	-10.8067
▁wash	-10.8073
▁frighten	-10.8085
▁illegal	-10.8085
▁electron	-10.8087
▁meaningful	-10.8087
▁welcome	-10.8089
▁session	-10.8089
▁clock	-10.8102
▁pacific	-10.8113
▁gut	-10.8115
▁younger	-10.8136
▁criminal	-10.8148
▁earn	-10.8156
point	-10.8176
▁23	-10.8176
▁license	-10.8182
▁contribute	-10.8196
wired	-10.8216
▁implement	-10.8218
▁silence	-10.8218
▁steal	-10.8218
▁simplicity	-10.8218
▁magnetic	-10.822
▁lifestyle	-10.8221
▁selection	-10.8221
▁excellen	-10.8221
▁attitude	-10.8223
▁fortune	-10.8225
▁chica	-10.8225
▁contract	-10.8234
▁bees	-10.8245
▁prisoner	-10.8254
▁violent	-10.8282
▁awareness	-10.8284
▁min	-10.829
ated	-10.8294
hi	-10.8299
▁4	-10.8301
▁meal	-10.8312
▁monkeys	-10.8316
▁po	-10.8317
truck	-10.8329
▁advertis	-10.8333
▁surgeon	-10.8337
▁goals	-10.8343
▁bible	-10.8343
▁raw	-10.8346
▁wherea	-10.8349
▁origami	-10.8353
▁fluid	-10.8354
▁vegetable	-10.8354
▁spiritual	-10.8358
▁mystery	-10.8358
▁permanent	-10.8358
▁reduc	-10.8368
▁deserve	-10.8375
▁grass	-10.838
▁swede	-10.8383
▁bi	-10.8386
▁frog	-10.839
ification	-10.8396
▁habitat	-10.8397
▁islands	-10.8402
▁windows	-10.8404
▁partners	-10.8408
▁admit	-10.8426
▁pan	-10.8471
▁command	-10.848
▁greenhouse	-10.8491
▁provid	-10.8491
▁exhibition	-10.8491
▁install	-10.8493
▁afternoon	-10.8495
▁pill	-10.8499
▁bond	-10.85
▁psychologist	-10.8512
▁cam	-10.8514
▁educational	-10.8518
▁densit	-10.8519
▁liver	-10.8526
▁capabilit	-10.8538
▁loop	-10.8538
▁hous	-10.8543
▁perceive	-10.8549
▁figur	-10.8557
▁bodi	-10.8567
▁backward	-10.857
▁weigh	-10.8586
▁dh	-10.8593
▁romantic	-10.8597
▁identical	-10.8629
▁depth	-10.8629
▁diagram	-10.8629
▁airport	-10.863
▁globe	-10.863
▁sustainability	-10.8631
▁motivation	-10.8631
▁golden	-10.8632
▁dig	-10.8632
▁swimm	-10.8635
▁roots	-10.8635
▁france	-10.8636
▁unknown	-10.8637
▁microscope	-10.8638
▁receiv	-10.8641
▁flash	-10.8642
▁shadow	-10.8642
▁philosopher	-10.8643
▁clothes	-10.8647
▁lion	-10.8649
▁hide	-10.8651
hour	-10.8657
▁habit	-10.8673
▁wars	-10.8678
▁boxes	-10.8684
▁parallel	-10.8685
table	-10.8687
▁600	-10.8688
▁discipline	-10.8704
▁feeding	-10.8711
▁inspire	-10.8729
▁sensitive	-10.8737
ory	-10.8743
▁victims	-10.8748
am	-10.8761
▁entrepreneurs	-10.8762
▁egypt	-10.877
▁tedtalk	-10.877
▁demographic	-10.877
▁till	-10.8771
▁obama	-10.8775
▁whale	-10.8776
▁trigger	-10.8783
▁bias	-10.8787
▁innovative	-10.8792
▁obsess	-10.8798
▁suspect	-10.8801
▁eggs	-10.883
▁adam	-10.8831
▁presence	-10.8836
▁breathe	-10.8849
▁sum	-10.8855
▁agent	-10.8857
▁rescue	-10.8865
▁regime	-10.8877
▁classic	-10.8896
power	-10.8898
▁traged	-10.8913
▁haiti	-10.8913
▁orange	-10.8914
▁painful	-10.8915
▁silicon	-10.8918
▁kingdom	-10.8918
▁sheep	-10.892
▁22	-10.8922
▁physician	-10.8926
▁1980	-10.8927
▁interactive	-10.8927
▁rebuild	-10.8928
▁breed	-10.894
▁desk	-10.8953
▁bend	-10.8958
▁flower	-10.896
▁gray	-10.897
▁pian	-10.8973
▁observ	-10.8976
▁orchestra	-10.8979
▁immun	-10.8997
▁spaces	-10.9
▁ca	-10.9003
▁axis	-10.9003
▁beside	-10.9016
▁korea	-10.9032
▁engaged	-10.9046
▁false	-10.9058
▁furniture	-10.9058
▁procedure	-10.9058
▁reputation	-10.9058
christmas	-10.9058
▁vertical	-10.9058
art	-10.9058
▁plent	-10.9058
▁curiosity	-10.9059
▁bicycle	-10.9059
▁continuous	-10.9059
▁busy	-10.9059
▁hunger	-10.906
▁congo	-10.906
▁stack	-10.906
▁economies	-10.9063
▁probabilit	-10.9065
▁expectation	-10.9065
▁divers	-10.9065
▁sept	-10.9066
town	-10.9066
▁cast	-10.9066
▁favor	-10.9071
ility	-10.9071
▁bulb	-10.9071
▁peter	-10.9077
hai	-10.9079
▁cluster	-10.908
▁printing	-10.9095
▁salt	-10.9096
▁clouds	-10.9098
▁cloth	-10.9103
▁gang	-10.9111
pox	-10.9111
▁gender	-10.9118
call	-10.9121
ter	-10.9134
▁conclude	-10.914
▁stock	-10.9149
▁logic	-10.915
▁host	-10.9152
▁despi	-10.916
▁challeng	-10.9165
▁chest	-10.9198
▁weak	-10.9198
▁h	-10.92
▁shell	-10.9204
▁scratch	-10.9205
▁hook	-10.9209
▁strike	-10.921
▁bug	-10.9217
▁disorder	-10.9225
▁entrepreneur	-10.9226
▁lens	-10.9273
▁reduction	-10.9283
▁confidence	-10.9291
▁portrait	-10.9292
▁1	-10.9297
▁pregnan	-10.93
uar	-10.93
▁exception	-10.9301
▁secure	-10.9313
▁prefer	-10.9316
▁frustrat	-10.9352
▁calculation	-10.9354
▁silent	-10.9354
▁psychological	-10.9354
▁improv	-10.9355
ger	-10.9356
▁optimistic	-10.9357
▁happier	-10.9358
spite	-10.9362
▁judgment	-10.9365
rising	-10.9378
▁propose	-10.938
▁bat	-10.9395
▁lying	-10.9398
▁recycl	-10.9408
ible	-10.9412
▁dress	-10.9422
▁tap	-10.9423
▁personalit	-10.9428
bf	-10.9429
▁smoke	-10.9431
▁escape	-10.9475
▁processe	-10.948
▁flowers	-10.9501
▁explosion	-10.9506
▁ridiculous	-10.9506
▁greek	-10.9506
▁skeleton	-10.9507
▁contrast	-10.9508
▁soviet	-10.9511
▁knock	-10.9511
▁protest	-10.9513
▁astonishing	-10.9519
▁fiction	-10.9529
▁footprint	-10.9529
▁inventor	-10.9532
bel	-10.9538
▁cartoon	-10.9538
▁whales	-10.9552
kind	-10.9552
▁worm	-10.9553
▁granted	-10.9563
▁terrorist	-10.9566
heroes	-10.9586
oxide	-10.96
▁trace	-10.9609
▁murder	-10.9649
▁spreading	-10.9654
▁centuries	-10.9659
▁higgs	-10.9659
▁vagina	-10.9659
▁awesome	-10.9659
▁concrete	-10.9659
▁golf	-10.9661
▁synthetic	-10.9664
▁1970	-10.9665
▁islamic	-10.9668
▁distant	-10.9674
▁stretch	-10.9692
▁toxic	-10.9694
iness	-10.9697
▁mate	-10.97
dollar	-10.9702
▁monkey	-10.9702
▁journal	-10.9702
▁pool	-10.9703
▁invit	-10.9704
▁rope	-10.9716
▁neuron	-10.9716
▁paintings	-10.9738
▁functional	-10.9742
▁dere	-10.9751
soft	-10.9757
▁tuna	-10.9761
ories	-10.9783
▁generat	-10.9797
▁ben	-10.9814
▁yield	-10.9816
▁oxford	-10.9816
▁wound	-10.9816
▁devil	-10.9816
▁froze	-10.9816
▁pretend	-10.9819
▁flood	-10.9821
▁olympic	-10.9821
▁1950	-10.9822
▁pink	-10.9822
▁extinct	-10.9828
▁myth	-10.9835
▁unbelievabl	-10.9843
▁cute	-10.9847
bridge	-10.9856
class	-10.9873
▁highway	-10.988
▁harvest	-10.9886
▁repeat	-10.9887
▁cave	-10.9906
col	-10.9915
▁angle	-10.9927
▁killer	-10.9939
▁prepar	-10.9951
▁tax	-10.9952
▁item	-10.9954
▁ghana	-10.9974
▁empire	-10.9974
▁barrier	-10.9974
▁intuition	-10.9975
▁ticket	-10.9975
▁skull	-10.9975
▁coca	-10.9976
▁sw	-10.9977
▁gesture	-10.9978
▁currenc	-10.9981
▁activist	-10.9988
▁exploit	-10.999
▁ugl	-10.9992
▁headline	-10.9994
▁absorb	-10.9995
▁camel	-10.9999
▁geographic	-11.0012
▁repair	-11.0019
▁preserve	-11.0019
el	-11.0025
▁slides	-11.0028
▁port	-11.0028
▁jail	-11.0032
▁jim	-11.0039
▁fed	-11.0044
ol	-11.006
▁27	-11.0064
▁intend	-11.0079
do	-11.0081
▁exten	-11.0096
▁mall	-11.0101
▁russia	-11.011
▁bin	-11.0115
▁argu	-11.0126
▁scal	-11.0126
▁accelerat	-11.0134
▁pyramid	-11.0136
▁shelter	-11.0136
▁transparency	-11.0136
▁miracle	-11.0136
▁narrow	-11.0136
▁earthquake	-11.0136
▁chao	-11.0136
▁partnership	-11.0136
▁latin	-11.0137
▁laser	-11.0138
▁texas	-11.0141
▁capitalism	-11.0143
▁darkness	-11.0146
▁clay	-11.0154
▁fulfill	-11.0161
▁russian	-11.0162
▁coin	-11.0163
▁bell	-11.0166
▁plot	-11.0168
▁authentic	-11.0171
▁corn	-11.0184
▁aside	-11.0197
▁strand	-11.0201
▁spoken	-11.0224
▁opera	-11.0241
well	-11.0258
la	-11.0271
▁corporate	-11.03
▁arrest	-11.03
▁candidate	-11.03
▁embedded	-11.03
▁breakthrough	-11.03
▁agenda	-11.03
▁loan	-11.0301
▁amazon	-11.0301
▁download	-11.0302
▁vital	-11.0303
▁intervention	-11.0305
▁smooth	-11.0306
▁hormone	-11.0306
▁asset	-11.0315
▁native	-11.0315
▁holly	-11.033
▁guide	-11.0355
▁distribute	-11.036
▁lo	-11.0371
▁sport	-11.038
▁indicate	-11.0381
▁humor	-11.0381
▁fixed	-11.0382
▁vent	-11.0382
▁ski	-11.039
ng	-11.039
▁jo	-11.0412
▁gates	-11.0432
▁sales	-11.0437
work	-11.0453
▁dictionar	-11.0461
▁ultra	-11.0466
▁autism	-11.0466
▁fabulous	-11.0466
▁rwanda	-11.0466
▁systematic	-11.0467
▁condom	-11.0468
▁naked	-11.0471
▁vulnerability	-11.0478
▁pray	-11.0482
▁abuse	-11.0486
▁copyright	-11.0493
▁intuitive	-11.05
▁struggl	-11.0503
▁pitch	-11.0506
▁anger	-11.0508
▁senses	-11.0509
▁jack	-11.053
▁inspiring	-11.0534
gun	-11.055
▁fifth	-11.0565
third	-11.0569
▁palm	-11.058
▁illustrate	-11.0586
coming	-11.0594
▁uganda	-11.0606
j	-11.0607
▁homes	-11.061
▁disorders	-11.0612
▁le	-11.0618
▁wise	-11.0627
▁stanford	-11.0636
▁description	-11.0636
▁compound	-11.0636
▁mutation	-11.0636
▁limitation	-11.0639
▁adventure	-11.064
▁column	-11.0641
▁tired	-11.0644
▁glad	-11.0648
▁conservation	-11.0651
▁tight	-11.0651
▁chief	-11.0656
▁colony	-11.0662
▁nets	-11.0683
▁ju	-11.0687
▁pace	-11.0694
▁weapon	-11.0696
▁stair	-11.0704
ex	-11.0711
▁stands	-11.0717
▁deni	-11.073
▁fruit	-11.0732
▁occasional	-11.0737
▁slice	-11.0741
forward	-11.0749
▁defin	-11.0759
▁sharp	-11.0772
▁195	-11.0774
▁agency	-11.0774
▁confront	-11.0781
ua	-11.08
▁determined	-11.08
▁council	-11.0808
▁guilt	-11.0808
▁senior	-11.0808
▁pandemic	-11.0808
▁household	-11.0808
▁translation	-11.081
▁gear	-11.0812
▁ngo	-11.0813
▁plain	-11.083
bru	-11.0831
▁thick	-11.0832
▁officer	-11.0841
▁par	-11.0846
▁cord	-11.0851
rice	-11.0854
▁committ	-11.0865
▁crop	-11.0866
▁subtle	-11.0873
▁promote	-11.0878
rs	-11.0879
▁origin	-11.0882
▁angr	-11.0883
▁194	-11.0884
▁rap	-11.0902
▁bow	-11.0948
▁terrifi	-11.0951
ham	-11.0957
▁ritual	-11.0981
▁obstacle	-11.0984
▁rainforest	-11.0984
▁vacuum	-11.0984
▁saturn	-11.0984
▁participant	-11.0984
▁textbook	-11.0984
▁gps	-11.0984
▁drove	-11.0984
▁dump	-11.0986
▁suicide	-11.0986
▁falls	-11.0986
▁portion	-11.0986
▁ceo	-11.0987
▁database	-11.0988
▁shooting	-11.0988
▁tune	-11.0989
▁borrow	-11.099
dependent	-11.0991
▁impression	-11.0994
▁globalization	-11.0994
▁250	-11.0996
▁diabetes	-11.1
▁route	-11.1006
▁printer	-11.1009
▁blame	-11.1013
▁oppos	-11.1015
▁grandfather	-11.1022
▁stroke	-11.103
▁dancer	-11.1031
▁wing	-11.1041
▁hungr	-11.1042
over	-11.1042
▁kb	-11.1044
▁dish	-11.1045
▁32	-11.1048
▁moo	-11.1063
▁flip	-11.1078
▁analyze	-11.1083
▁consistent	-11.1085
▁consequence	-11.1095
▁z	-11.1103
▁motivate	-11.1117
▁domestic	-11.1117
▁rhythm	-11.1119
▁resist	-11.1122
▁mere	-11.1131
made	-11.1132
▁50,000	-11.1135
▁ethiopia	-11.1135
▁storm	-11.1135
▁65	-11.1141
state	-11.1143
▁deploy	-11.1161
▁accomplish	-11.1161
▁clue	-11.1161
▁district	-11.1162
▁expedition	-11.1162
▁fragment	-11.1162
▁pioneer	-11.1162
▁recipe	-11.1162
▁substance	-11.1162
▁request	-11.1162
▁appeal	-11.1163
▁simulation	-11.1163
▁pause	-11.1163
▁ruin	-11.1163
arctic	-11.1164
▁achievement	-11.1167
▁cash	-11.1169
ious	-11.1172
rb	-11.1175
▁domain	-11.1179
▁chromosome	-11.118
▁output	-11.1182
▁mount	-11.1182
▁atlantic	-11.1191
▁agricultural	-11.1192
▁2006	-11.1194
▁manager	-11.1197
▁sh	-11.1205
▁profile	-11.1206
▁manag	-11.1215
▁yo	-11.1218
▁prince	-11.1225
▁leak	-11.1226
▁vi	-11.1234
▁amp	-11.1236
▁integrate	-11.1243
at	-11.1246
▁stor	-11.1252
▁photography	-11.1259
▁tim	-11.1261
▁dust	-11.1262
long	-11.1267
▁refer	-11.1269
▁citizen	-11.1271
▁stepp	-11.1275
▁realm	-11.1278
▁worker	-11.1281
▁asteroid	-11.1286
▁spell	-11.1291
▁complain	-11.1297
▁formula	-11.1297
look	-11.1315
century	-11.1316
▁hat	-11.1321
▁20,000	-11.1325
▁federal	-11.1344
▁beetle	-11.1344
▁sandwich	-11.1344
▁architectural	-11.1344
▁relax	-11.1344
▁aircraft	-11.1345
▁installation	-11.1346
▁martin	-11.1346
▁crucial	-11.1347
▁transparent	-11.135
▁vietnam	-11.135
▁abandon	-11.135
▁antarctic	-11.135
▁creator	-11.1355
▁iranian	-11.1362
▁mayor	-11.1363
he	-11.1371
▁laid	-11.1374
▁tribes	-11.138
▁hip	-11.1398
▁rose	-11.1404
▁utter	-11.1405
ah	-11.143
▁dec	-11.1438
▁copie	-11.1453
▁acquire	-11.1456
▁leverage	-11.1458
light	-11.1476
▁breaking	-11.1481
▁sides	-11.1481
▁dinosaur	-11.1483
tries	-11.1494
▁mis	-11.1503
▁glamor	-11.1514
▁trait	-11.1528
▁spectacular	-11.1529
▁aesthetic	-11.1529
▁diamond	-11.1529
▁neural	-11.1529
▁jewish	-11.1529
▁stunt	-11.1529
▁animation	-11.1529
▁fraction	-11.153
▁cheese	-11.1531
▁desperate	-11.1532
▁variable	-11.1532
▁objective	-11.1534
▁mice	-11.1535
▁initiative	-11.1536
▁fisher	-11.1542
▁imagin	-11.1544
▁2001	-11.1555
▁bay	-11.156
▁roads	-11.1572
▁sports	-11.1576
▁ink	-11.158
▁extinction	-11.1584
▁sixth	-11.1586
▁beer	-11.1605
lf	-11.1623
▁scann	-11.1623
▁decrease	-11.1626
▁repeated	-11.1633
▁interpret	-11.1634
▁bee	-11.1637
▁jun	-11.1675
▁farmer	-11.1689
▁describ	-11.1694
▁torture	-11.1696
▁defend	-11.1698
craft	-11.1702
▁sensory	-11.1705
ville	-11.1708
zero	-11.1712
▁encourag	-11.1713
▁freak	-11.1713
▁concert	-11.1713
▁adjust	-11.1716
▁courage	-11.1717
▁upset	-11.1718
▁glamour	-11.1718
▁scenario	-11.1718
▁shrimp	-11.1718
▁trajector	-11.1718
▁neuroscience	-11.1718
▁robust	-11.1718
▁cousin	-11.1718
▁guarantee	-11.1718
▁comparison	-11.1718
▁leap	-11.1718
▁elite	-11.1719
▁demonstration	-11.1719
▁rotate	-11.172
▁highlight	-11.1721
▁redwood	-11.1721
▁detector	-11.1721
▁br	-11.1722
down	-11.1722
ors	-11.1724
▁trash	-11.1724
▁combin	-11.1726
▁refugee	-11.1727
▁hans	-11.1735
▁tunnel	-11.1736
▁proof	-11.1743
▁26	-11.1745
▁capita	-11.1745
▁mimic	-11.1749
▁projection	-11.1756
▁dear	-11.1762
▁shopp	-11.1768
house	-11.1782
▁95	-11.1782
ping	-11.1784
▁classical	-11.1785
▁file	-11.1815
▁octo	-11.1818
▁poison	-11.1821
▁crossing	-11.1832
▁strategi	-11.1842
▁proportion	-11.186
50	-11.1862
▁digni	-11.1865
▁gathering	-11.1867
▁excite	-11.187
▁tribe	-11.1872
▁participat	-11.1873
▁concentrate	-11.1874
▁shirt	-11.1891
▁6	-11.1899
▁sam	-11.1899
▁hunt	-11.19
▁climbing	-11.1902
▁burst	-11.1905
ied	-11.1906
▁evening	-11.1908
▁dopamine	-11.191
▁manhattan	-11.191
▁automobile	-11.191
▁essence	-11.191
▁antibiotic	-11.191
▁optimism	-11.191
▁primate	-11.191
▁fool	-11.1911
▁sweat	-11.1911
▁boil	-11.1911
▁neat	-11.1911
sahara	-11.1912
▁subway	-11.1914
▁medication	-11.1917
▁egyptian	-11.1917
▁autonomous	-11.1918
▁honey	-11.1921
▁magnet	-11.1923
▁burie	-11.1926
▁triangle	-11.1929
▁watt	-11.1935
▁manual	-11.1942
▁mammals	-11.1954
▁newton	-11.1957
▁linear	-11.1975
▁introduc	-11.1981
▁tricks	-11.1989
▁mat	-11.1989
▁depress	-11.2015
▁correspond	-11.2017
base	-11.202
▁trends	-11.2021
army	-11.2034
▁ensure	-11.2035
▁hanging	-11.204
▁recogni	-11.2056
▁tech	-11.2064
▁bribe	-11.2067
▁dive	-11.2069
▁worri	-11.2071
llo	-11.2084
▁mri	-11.2085
▁transfer	-11.209
▁edit	-11.2099
▁reject	-11.2104
▁mu	-11.2104
▁helicopter	-11.2106
▁garbage	-11.2106
▁signature	-11.2107
▁theoretical	-11.2107
▁republican	-11.2107
▁thrill	-11.2107
▁association	-11.2108
▁bump	-11.2108
▁tendenc	-11.2109
▁contemporar	-11.2111
▁pathway	-11.2112
▁debt	-11.2113
▁tropic	-11.2113
surance	-11.2114
▁representation	-11.2115
▁passenger	-11.2125
▁barrel	-11.2125
▁hack	-11.2126
fish	-11.213
his	-11.2132
▁bob	-11.2132
▁ethical	-11.2132
▁tile	-11.214
gentleman	-11.2143
▁norm	-11.2147
▁neck	-11.2172
▁pm	-11.2181
em	-11.2182
▁fin	-11.2198
▁observe	-11.2204
▁ethic	-11.2209
▁5	-11.2226
▁experienc	-11.2236
free	-11.2245
▁terroris	-11.2262
▁strip	-11.2264
▁external	-11.2266
▁experimental	-11.2272
▁football	-11.2293
▁horizon	-11.2294
▁nano	-11.2304
zheimer	-11.2306
▁bizarre	-11.2306
▁bronx	-11.2306
▁leather	-11.2306
▁gradual	-11.2306
▁turkey	-11.2306
▁supermarket	-11.2306
▁taliban	-11.2306
▁permission	-11.2307
▁baseball	-11.2307
▁twist	-11.2307
▁cooperation	-11.2307
▁keyboard	-11.2308
▁duck	-11.2308
▁crew	-11.231
▁cotton	-11.2313
▁snake	-11.2314
kyo	-11.2314
▁convey	-11.2315
▁array	-11.2315
▁dumb	-11.2315
▁magical	-11.2315
▁hunter	-11.2319
▁bother	-11.2323
▁mode	-11.2328
level	-11.2337
▁marker	-11.2339
▁detection	-11.2342
ir	-11.2346
▁nutrient	-11.235
▁compete	-11.2353
source	-11.2357
▁alter	-11.2366
▁priorit	-11.2374
▁expos	-11.2382
▁approv	-11.2394
▁pipe	-11.2402
▁engag	-11.2403
▁replicate	-11.2405
▁dose	-11.2414
▁qualit	-11.2417
▁penn	-11.2432
▁du	-11.2432
id	-11.2434
▁producer	-11.2437
▁tension	-11.2442
▁pie	-11.2443
▁rely	-11.2452
▁trans	-11.2452
ler	-11.2476
▁restore	-11.2476
▁ratio	-11.2481
▁surrounding	-11.2487
▁damn	-11.2499
▁happi	-11.2503
▁abraham	-11.251
▁tattoo	-11.251
▁annual	-11.251
▁delight	-11.251
▁collaborative	-11.251
▁dawn	-11.2511
▁electrode	-11.2511
▁compell	-11.2512
▁interpretation	-11.2512
▁contribution	-11.2513
▁florid	-11.2515
▁cats	-11.2517
▁expectanc	-11.2518
▁twin	-11.2518
▁rio	-11.2523
,500	-11.2525
▁suggestion	-11.2525
▁flag	-11.2526
▁troop	-11.2529
▁imag	-11.253
▁calm	-11.253
istic	-11.2531
▁grasp	-11.2531
▁kev	-11.2533
▁tagg	-11.2533
▁pit	-11.2537
▁resolve	-11.2538
▁basket	-11.2543
▁quest	-11.2543
▁oxy	-11.2549
▁quit	-11.255
minute	-11.2551
▁graphics	-11.2552
▁branch	-11.2553
▁associat	-11.2553
▁intention	-11.2555
▁scott	-11.2573
▁vot	-11.2581
itting	-11.2586
▁warning	-11.2591
▁moralit	-11.2599
▁industri	-11.2602
▁da	-11.2603
ches	-11.2603
▁10-	-11.2614
glasses	-11.2621
▁educate	-11.2622
acy	-11.2648
▁statistical	-11.2651
▁fate	-11.2653
▁poll	-11.2669
▁polic	-11.2675
ged	-11.2679
▁compromise	-11.2682
▁resolution	-11.2684
▁lucki	-11.2684
▁ka	-11.2687
olds	-11.2691
▁fabric	-11.2693
▁mixed	-11.2705
▁employ	-11.2707
▁sauce	-11.2712
ota	-11.2712
▁spill	-11.2713
▁attend	-11.2716
▁graphic	-11.2717
ocin	-11.2718
▁dilemma	-11.2719
▁extension	-11.2719
▁phant	-11.2719
▁coke	-11.2719
▁kidney	-11.2719
▁fence	-11.272
▁assignment	-11.272
▁hypothesis	-11.272
▁slavery	-11.272
▁twenty	-11.2721
▁elementary	-11.2722
▁sacred	-11.2723
▁cyber	-11.2729
▁plug	-11.2729
▁methan	-11.2731
▁rent	-11.2736
▁smith	-11.2739
▁programmer	-11.2746
▁contribut	-11.2748
▁contra	-11.2748
▁virgin	-11.276
▁sunday	-11.277
▁educat	-11.2787
▁confus	-11.2791
▁chas	-11.2792
ise	-11.2808
▁fo	-11.2808
▁cal	-11.2817
▁titan	-11.2824
▁mail	-11.2836
▁comic	-11.2837
▁activate	-11.284
ership	-11.2845
▁arriv	-11.2848
▁tent	-11.2848
▁needle	-11.2856
▁dedicat	-11.2858
▁tip	-11.2859
▁exponential	-11.2863
▁achiev	-11.2888
▁resident	-11.2894
▁overcom	-11.2899
▁integrat	-11.291
hood	-11.2915
▁egg	-11.2926
▁export	-11.2928
▁hub	-11.293
▁immense	-11.2931
▁neanderthal	-11.2931
▁august	-11.2931
▁defeat	-11.2931
▁breakfast	-11.2932
▁primitive	-11.2932
▁drift	-11.2932
▁stole	-11.2932
▁marketplace	-11.2933
▁editor	-11.2933
▁cosm	-11.2935
▁tiger	-11.2935
▁appearance	-11.2935
▁calorie	-11.2935
▁shang	-11.2938
▁wheelchair	-11.2939
▁syndrome	-11.2939
▁jesu	-11.2939
▁compassionate	-11.294
▁measurement	-11.2942
▁terror	-11.2942
▁brian	-11.2945
▁4,000	-11.2945
▁joint	-11.2952
▁package	-11.2957
▁goat	-11.296
▁award	-11.2961
▁st	-11.2962
▁interior	-11.2963
▁faci	-11.2966
▁supplie	-11.2981
▁shipp	-11.2982
▁electro	-11.299
▁sa	-11.3003
▁elect	-11.3014
eaten	-11.3019
▁occasion	-11.302
drew	-11.3022
▁cake	-11.3031
▁cod	-11.304
▁shit	-11.3047
▁smok	-11.3053
expected	-11.3062
▁pad	-11.307
stage	-11.3078
▁tooth	-11.3085
▁120	-11.3096
▁independen	-11.3103
▁sensation	-11.311
▁electronics	-11.3112
▁ta	-11.3129
▁polar	-11.3137
▁blogs	-11.314
▁recommend	-11.3147
▁uncomfortabl	-11.3149
▁dominant	-11.3149
▁tragic	-11.3149
▁grateful	-11.3149
▁jellyfish	-11.3149
▁dialogue	-11.3149
▁endanger	-11.3149
▁phosphorus	-11.3149
▁biosphere	-11.3149
▁biodiversity	-11.3149
▁collaborator	-11.315
▁engagement	-11.3153
tz	-11.3154
▁specialist	-11.3158
▁passive	-11.3161
▁28	-11.3162
▁penguin	-11.3164
▁jaw	-11.3183
▁eliminate	-11.3183
▁bath	-11.3184
▁inject	-11.319
▁bowl	-11.3191
▁steven	-11.3197
▁commission	-11.3198
▁owner	-11.3206
▁josh	-11.3215
sha	-11.3216
▁kiss	-11.3221
▁altitude	-11.3225
▁punch	-11.3226
▁henr	-11.3227
▁wings	-11.3231
while	-11.3236
▁rocks	-11.3237
mart	-11.3237
force	-11.3238
▁believ	-11.3247
▁import	-11.3249
▁div	-11.325
▁li	-11.325
▁pa	-11.3263
▁incident	-11.3264
▁winn	-11.3296
▁8	-11.3303
▁bless	-11.3314
▁mt	-11.3316
pa	-11.333
▁bound	-11.3332
▁profession	-11.3336
▁compet	-11.3339
▁pursue	-11.3341
12	-11.3341
place	-11.3347
▁wrap	-11.3359
ow	-11.3362
q	-11.3367
▁geometr	-11.3367
▁alcohol	-11.3369
▁beam	-11.3371
▁feynman	-11.3371
▁insulin	-11.3371
▁potato	-11.3371
▁spontaneous	-11.3371
entropy	-11.3371
▁steer	-11.3371
▁summit	-11.3371
▁harbor	-11.3371
▁anonymous	-11.3371
▁garage	-11.3371
▁concentration	-11.3372
▁chamber	-11.3372
▁wheat	-11.3375
▁selfish	-11.3376
▁homo	-11.3378
▁blank	-11.3378
▁reported	-11.3379
▁inequalit	-11.3379
▁italian	-11.3379
▁frequent	-11.3379
▁innocent	-11.338
▁glacier	-11.338
▁gorge	-11.3381
▁winner	-11.3384
▁prayer	-11.3387
▁glue	-11.339
▁fears	-11.3391
▁mask	-11.3392
▁flavor	-11.3392
▁fox	-11.3392
▁boss	-11.34
▁comedy	-11.34
▁coat	-11.3402
▁hitting	-11.3405
▁gonn	-11.3406
▁regulation	-11.3408
▁assembl	-11.3417
ate	-11.3418
▁wedding	-11.3424
▁hid	-11.3431
▁hunting	-11.3432
hong	-11.3436
▁tackle	-11.3437
bc	-11.3442
▁serving	-11.345
fold	-11.3453
▁flexibl	-11.3457
tail	-11.346
▁urge	-11.3474
▁refuse	-11.3474
▁geo	-11.3482
bye	-11.3491
▁carolin	-11.35
▁psycho	-11.3504
fusion	-11.3537
▁manipulate	-11.3537
▁diagnose	-11.3548
▁announc	-11.3553
▁bats	-11.3572
▁prepare	-11.3574
▁israeli	-11.3584
▁instinct	-11.3598
▁mysterious	-11.3598
▁ceiling	-11.3598
▁protocell	-11.3598
▁administration	-11.3598
▁ooh	-11.3599
ana	-11.3602
▁underly	-11.3605
▁fragile	-11.3609
▁sink	-11.3609
▁scanner	-11.3609
▁loose	-11.3615
▁mineral	-11.3615
▁remov	-11.3621
▁op	-11.3632
▁eric	-11.3633
▁disturb	-11.3633
▁victim	-11.3634
served	-11.3636
▁formation	-11.3637
▁infection	-11.3638
▁woke	-11.364
ean	-11.364
▁pulse	-11.3643
▁reliabl	-11.3645
▁arise	-11.3646
esis	-11.3678
▁retina	-11.3687
me	-11.3688
led	-11.3695
▁bucks	-11.3699
▁tri	-11.37
▁bacteri	-11.3701
▁wal	-11.3707
grade	-11.3711
some	-11.3722
ison	-11.3739
▁grant	-11.3748
sia	-11.3749
▁wolf	-11.3753
▁memes	-11.3779
clear	-11.3796
▁intrigu	-11.3797
▁pant	-11.3806
pain	-11.3808
▁recruit	-11.3809
▁ab	-11.3824
▁wage	-11.3827
▁heal	-11.3827
ball	-11.3827
▁audio	-11.383
▁despair	-11.3831
▁expansion	-11.3831
▁hierarch	-11.3831
▁jihad	-11.3831
▁simultaneous	-11.3831
▁swiss	-11.3831
▁generous	-11.3832
▁friday	-11.3832
▁mindset	-11.3833
▁atheist	-11.3838
▁enlighten	-11.3839
▁crab	-11.384
▁bite	-11.3841
▁pharmaceutical	-11.3853
itude	-11.3859
har	-11.3861
▁homeless	-11.3861
▁jewel	-11.3867
interest	-11.3875
▁renewable	-11.3876
▁tar	-11.3889
▁singer	-11.3891
ck	-11.3893
▁overwhelming	-11.3904
▁venture	-11.3914
na	-11.3925
▁censor	-11.3928
▁static	-11.393
▁sil	-11.3932
ties	-11.3932
os	-11.3935
▁node	-11.3938
▁bo	-11.3946
▁fanc	-11.3965
▁coach	-11.3966
american	-11.3969
▁mechanic	-11.3974
fi	-11.3975
▁1,	-11.3985
ram	-11.3988
▁ecological	-11.3998
▁conflicts	-11.4
▁sacrifice	-11.4005
▁soup	-11.4007
▁divid	-11.4007
▁rape	-11.4011
▁distribut	-11.403
▁liter	-11.4051
▁sail	-11.4053
▁700	-11.4054
▁meme	-11.4057
▁nov	-11.4057
▁sale	-11.4057
▁lu	-11.406
▁gate	-11.4066
▁distinct	-11.4066
▁exhibit	-11.4067
▁benjam	-11.4069
▁choosing	-11.4069
▁dutch	-11.4069
▁inherent	-11.4069
▁pizza	-11.4069
▁prosthetic	-11.4069
▁carpet	-11.4069
▁jeff	-11.4069
▁connectome	-11.4069
▁hallucination	-11.4069
▁guid	-11.4071
▁logo	-11.4072
▁flowing	-11.4072
▁insane	-11.4073
▁filmmaker	-11.4076
▁nuts	-11.4078
▁investor	-11.4085
▁expose	-11.4087
▁33	-11.4088
▁enhance	-11.4093
▁fastest	-11.4094
▁uncertaint	-11.4095
▁marry	-11.4097
▁unhapp	-11.4098
ot	-11.4103
children	-11.4108
sense	-11.4113
▁korean	-11.4121
▁tongue	-11.4123
▁gore	-11.413
▁uh	-11.415
▁mapping	-11.4151
▁simulate	-11.4158
▁parliament	-11.4175
use	-11.4179
▁gt	-11.4211
▁albert	-11.4214
▁pet	-11.4224
▁harmon	-11.423
▁spray	-11.4234
il	-11.4239
ent	-11.4247
▁recogniz	-11.4266
v	-11.4267
▁resilienc	-11.4268
▁infections	-11.4276
▁bangladesh	-11.4279
▁broadcast	-11.429
▁strangers	-11.4293
▁roman	-11.4296
space	-11.4302
▁pond	-11.4308
▁makers	-11.431
▁galler	-11.431
▁disagree	-11.4311
▁beij	-11.4313
▁curriculum	-11.4313
▁glimpse	-11.4313
▁threshold	-11.4313
▁tsunami	-11.4313
▁privacy	-11.4313
▁pencil	-11.4313
▁proposition	-11.4313
▁unemploy	-11.4313
▁festival	-11.4313
▁alpha	-11.4313
▁intimate	-11.4313
▁chef	-11.4313
jazz	-11.4313
▁tweet	-11.4314
▁lt	-11.4314
▁den	-11.4316
▁terrifying	-11.4316
▁homework	-11.4317
▁delivery	-11.4317
▁miserable	-11.4317
▁ecolog	-11.4318
▁disconnect	-11.4318
▁apri	-11.4319
▁temple	-11.4321
▁crush	-11.4322
▁prevention	-11.4323
▁aggressive	-11.4325
▁intrinsic	-11.4326
▁lego	-11.4329
▁guns	-11.4335
▁anxiet	-11.4336
▁routine	-11.4336
▁confident	-11.4342
▁glow	-11.4352
▁historic	-11.4357
▁jumped	-11.4363
▁frankl	-11.4365
▁deception	-11.4367
▁reporter	-11.437
▁cube	-11.4375
▁reflection	-11.4379
▁attribute	-11.4383
entered	-11.4393
▁sketch	-11.4417
▁shoe	-11.4419
▁55	-11.4422
▁analyz	-11.4423
▁wa	-11.4426
▁youth	-11.4426
▁toleran	-11.4427
▁tubes	-11.4435
▁800	-11.4446
▁agenc	-11.4462
▁shine	-11.4474
▁impressi	-11.4481
drive	-11.4484
▁mc	-11.4489
▁ethnic	-11.4491
ists	-11.4503
▁tone	-11.4504
▁cows	-11.4505
ure	-11.4519
▁archive	-11.4536
▁spike	-11.4546
▁cricket	-11.4547
▁drag	-11.4547
ney	-11.4551
▁entit	-11.4555
▁phenomena	-11.4556
▁republic	-11.4562
▁cigarette	-11.4563
▁philanthropy	-11.4563
▁multiply	-11.4563
▁division	-11.4563
▁flourish	-11.4563
▁marvel	-11.4563
▁choir	-11.4563
▁canopy	-11.4563
▁delicious	-11.4563
▁spanish	-11.4563
▁delay	-11.4563
▁lg	-11.4565
▁steam	-11.4565
▁unfold	-11.4565
▁frontier	-11.4566
▁mike	-11.4567
▁helium	-11.4569
▁phenomenal	-11.457
▁amateur	-11.4572
▁transmission	-11.4572
▁casual	-11.4572
ab	-11.4572
▁downtown	-11.4574
▁shocking	-11.4576
cost	-11.4582
▁lowest	-11.4582
▁thai	-11.4586
▁gandhi	-11.4588
▁playful	-11.4592
▁surgeons	-11.4596
▁planetary	-11.4604
▁lamp	-11.4624
▁approximate	-11.4625
0	-11.4628
▁disability	-11.463
▁locate	-11.4634
▁bind	-11.4638
▁bold	-11.4644
▁chase	-11.4649
▁prior	-11.4667
co	-11.4675
▁fascinat	-11.469
▁puzzles	-11.4691
▁radi	-11.47
▁critic	-11.4702
round	-11.4704
▁jet	-11.4705
▁additional	-11.4706
vity	-11.472
▁proven	-11.4729
▁jean	-11.4738
case	-11.4752
que	-11.4755
▁ra	-11.4759
▁virgini	-11.4768
▁wipe	-11.4792
ook	-11.4797
ology	-11.4807
▁paradox	-11.481
▁teenage	-11.4812
▁neutral	-11.4813
▁bullet	-11.4815
▁alex	-11.4817
▁microbi	-11.4818
▁crystal	-11.4819
▁territor	-11.4819
▁absence	-11.4819
▁receptor	-11.4819
▁shrink	-11.4819
▁tanzania	-11.4819
▁burden	-11.4819
▁matrix	-11.4819
▁genuine	-11.4819
▁monster	-11.4819
▁unconscious	-11.482
▁prostate	-11.482
▁surgical	-11.482
▁alexand	-11.482
▁pipeline	-11.482
▁comics	-11.4821
▁dung	-11.4823
▁tedster	-11.4824
▁passage	-11.4825
▁palestinian	-11.4828
▁diameter	-11.4828
▁storyteller	-11.4828
▁agreement	-11.4828
cellular	-11.4829
▁magician	-11.483
▁infant	-11.4831
▁craft	-11.4839
▁summarize	-11.484
▁mold	-11.4841
▁genetically	-11.4844
▁psychopath	-11.4844
▁elegant	-11.4852
▁viral	-11.4852
▁offering	-11.4854
▁attractive	-11.486
selves	-11.4861
▁beating	-11.4872
▁lotter	-11.4877
den	-11.488
▁hum	-11.4893
▁cart	-11.4896
▁banks	-11.4901
▁academ	-11.4902
▁chunk	-11.4908
▁banker	-11.491
▁lane	-11.491
▁nigerian	-11.4916
▁eve	-11.4922
cal	-11.4924
▁deaf	-11.4925
▁vo	-11.4929
agen	-11.4931
▁sponsor	-11.4943
▁harr	-11.496
▁compute	-11.4961
▁thus	-11.497
▁vari	-11.4973
ba	-11.4982
ac	-11.4984
▁impress	-11.4993
▁pose	-11.5006
▁ham	-11.5009
▁crows	-11.5015
▁embrac	-11.5028
▁shore	-11.5028
▁branche	-11.5029
▁diploma	-11.5029
▁starv	-11.503
worth	-11.5036
▁shin	-11.5045
▁convention	-11.5048
▁odor	-11.5055
▁replac	-11.506
▁william	-11.5068
▁dial	-11.507
▁wi	-11.508
▁structural	-11.5082
▁collision	-11.5082
▁koran	-11.5083
▁priest	-11.5083
▁pride	-11.5083
▁silver	-11.5083
▁santa	-11.5084
▁shout	-11.5084
▁uniform	-11.5085
▁nerd	-11.5085
▁visualization	-11.5085
▁milo	-11.5085
▁asthma	-11.5086
▁smiling	-11.5087
▁backyard	-11.5087
▁grave	-11.5087
▁probe	-11.5088
▁vice	-11.509
▁louis	-11.5094
▁interconnected	-11.5098
▁gras	-11.5098
end	-11.5107
▁retirement	-11.5109
▁jur	-11.5112
▁arrow	-11.5116
be	-11.5117
▁baker	-11.5122
▁leaf	-11.5124
▁grandparents	-11.5131
▁purchase	-11.5139
▁register	-11.5141
cut	-11.5143
▁distinguish	-11.5152
▁optical	-11.5161
▁communicat	-11.5168
▁included	-11.5185
▁worrying	-11.5186
▁binar	-11.5186
▁millimeter	-11.5191
▁ro	-11.5203
▁navigate	-11.5204
▁rob	-11.5217
penh	-11.5225
▁gram	-11.5234
▁mar	-11.524
rous	-11.526
▁commit	-11.5262
arian	-11.5263
▁visualize	-11.5265
▁shy	-11.5266
▁lee	-11.528
▁85	-11.5281
▁primari	-11.5282
▁assum	-11.5283
▁drivers	-11.5286
▁donation	-11.5292
▁monte	-11.5304
▁stamp	-11.5309
▁chemo	-11.5319
clock	-11.532
known	-11.5324
▁pin	-11.5324
▁restaurants	-11.5331
therap	-11.534
▁insist	-11.5341
lihood	-11.5349
▁founder	-11.535
▁afghan	-11.5353
▁aristot	-11.5353
▁artifact	-11.5353
▁captain	-11.5353
▁commodity	-11.5353
▁stomach	-11.5353
▁storytelling	-11.5353
▁leban	-11.5353
▁ultrasound	-11.5353
▁cooperative	-11.5353
▁horror	-11.5353
▁strict	-11.5353
▁myceli	-11.5353
▁parachute	-11.5353
▁nonprofit	-11.5354
▁canvas	-11.5354
▁redesign	-11.5354
▁mandela	-11.5354
▁pirate	-11.5354
▁lifespan	-11.5355
▁hemisphere	-11.5356
▁investigation	-11.5356
▁volcano	-11.5358
assembl	-11.5359
▁germ	-11.536
▁iceland	-11.5361
▁upload	-11.5362
▁genocide	-11.5362
▁calculus	-11.5362
▁impulse	-11.5362
▁cylinder	-11.5362
▁brutal	-11.5363
é	-11.5363
▁astronomer	-11.5365
▁sang	-11.5365
▁surger	-11.5369
rich	-11.5373
▁verb	-11.5379
▁indoor	-11.5381
▁lord	-11.5382
▁diagnos	-11.5385
▁lega	-11.539
berg	-11.5394
▁format	-11.5394
▁helpful	-11.5394
▁confirm	-11.5395
▁whistle	-11.5399
▁30,000	-11.5401
▁olive	-11.5404
der	-11.5404
ak	-11.5412
▁accelerate	-11.5414
▁overhead	-11.5415
▁mood	-11.5418
▁jane	-11.5428
▁knife	-11.5429
▁gallon	-11.5436
ize	-11.5439
▁dar	-11.5441
fall	-11.5443
ca	-11.5447
▁ti	-11.5454
▁metric	-11.5459
▁wrapp	-11.5466
▁hug	-11.5471
▁interrupt	-11.5472
▁mary	-11.5476
▁minim	-11.5479
▁lar	-11.5479
org	-11.5481
▁origins	-11.5485
▁dominat	-11.549
▁relations	-11.5491
▁foi	-11.5499
▁previously	-11.55
▁atomic	-11.5503
▁institutional	-11.5506
▁20-	-11.551
▁circuits	-11.5511
▁conservative	-11.5521
▁stabilit	-11.5527
▁mentor	-11.5528
▁acknowledge	-11.5528
▁overwhelm	-11.5543
▁clar	-11.5544
▁36	-11.5547
▁walks	-11.5556
▁donor	-11.5558
▁asian	-11.5562
▁inch	-11.5562
▁pot	-11.5569
ron	-11.5571
▁johns	-11.558
▁cop	-11.5585
▁masse	-11.5593
digit	-11.5606
▁legislati	-11.5608
▁mutual	-11.5609
▁preserv	-11.5609
▁30-	-11.561
world	-11.5611
▁consist	-11.5617
▁exam	-11.5627
▁tutor	-11.563
▁civic	-11.563
▁divorce	-11.563
▁heritage	-11.563
▁occupy	-11.563
▁prescription	-11.563
▁shakespeare	-11.563
▁transistor	-11.563
▁unprecedented	-11.563
▁welfare	-11.563
▁vitamin	-11.563
▁spiral	-11.563
▁striking	-11.563
▁banana	-11.5631
▁foster	-11.5631
▁cruel	-11.5631
▁annoy	-11.5631
▁diagnostic	-11.5631
▁rethink	-11.5631
▁ministr	-11.5631
▁stephen	-11.5631
▁index	-11.5631
▁weekend	-11.5633
▁distinction	-11.5633
▁compress	-11.5633
▁philosophical	-11.5633
▁valve	-11.5634
▁diarrhea	-11.5636
▁adaptation	-11.5636
▁campus	-11.5639
▁peaceful	-11.5639
▁psychiatr	-11.564
▁daniel	-11.564
▁geek	-11.5641
▁bioma	-11.5643
▁proposal	-11.5643
▁grabb	-11.5644
stock	-11.5644
▁sake	-11.5644
▁bored	-11.5644
▁virtue	-11.5645
▁ongoing	-11.5645
▁strain	-11.5646
▁jones	-11.5647
▁democrat	-11.5649
▁jar	-11.5659
▁minus	-11.5662
▁acre	-11.5662
▁ironic	-11.5664
▁via	-11.5666
▁destiny	-11.5676
et	-11.5676
▁releas	-11.5679
▁formal	-11.568
▁deposit	-11.5681
bm	-11.5684
▁composition	-11.569
▁celebrat	-11.5691
▁cookie	-11.5698
▁harness	-11.5698
▁logical	-11.5713
▁intens	-11.5714
▁paralyz	-11.5736
▁relation	-11.576
▁accumulate	-11.5769
▁cliff	-11.5771
ner	-11.5793
▁transmit	-11.5794
▁assemble	-11.5796
▁bust	-11.5808
▁rivers	-11.5842
ttle	-11.5845
sky	-11.585
▁cartoons	-11.5852
▁2.	-11.5858
▁dressed	-11.5866
▁quantit	-11.5873
▁custom	-11.5879
organiz	-11.5882
▁rena	-11.5891
▁200,000	-11.5899
▁maxim	-11.5899
▁sue	-11.5902
▁mola	-11.5908
ntact	-11.5911
▁mac	-11.5915
▁autonom	-11.5915
▁luxur	-11.5916
▁crawl	-11.5916
▁awkward	-11.5916
▁warrior	-11.5916
▁joseph	-11.5916
▁precious	-11.5916
▁scheme	-11.5916
▁turtle	-11.5916
▁ubiquitous	-11.5916
▁antenna	-11.5916
▁norden	-11.5917
▁puppet	-11.5917
▁recession	-11.5917
▁1900	-11.5917
▁destination	-11.5917
▁gross	-11.5917
▁batteries	-11.5917
▁spine	-11.5919
▁nail	-11.5919
second	-11.592
▁libert	-11.592
▁candle	-11.592
▁intent	-11.5921
▁dropping	-11.5926
▁40,000	-11.5927
▁descend	-11.5928
▁broader	-11.5929
▁ridge	-11.593
▁parasite	-11.5935
▁devastating	-11.5937
▁rubber	-11.5938
▁bombs	-11.5942
▁deepest	-11.5943
▁controversial	-11.5944
▁girlfriend	-11.5944
▁kong	-11.5946
▁brad	-11.5952
▁cens	-11.5956
▁terra	-11.5958
▁athlete	-11.5958
▁processor	-11.5959
▁angiogen	-11.596
▁reproduce	-11.5962
▁ceremon	-11.5966
▁pi	-11.5967
▁zeal	-11.5967
izing	-11.5969
▁container	-11.5974
15	-11.5975
▁climber	-11.5977
▁badly	-11.5978
▁jer	-11.5979
▁everest	-11.5981
▁upside	-11.5982
▁berk	-11.5982
▁scare	-11.5992
▁rome	-11.6006
oline	-11.601
ral	-11.6015
ai	-11.6021
▁suppress	-11.6022
▁charli	-11.603
▁huh	-11.6036
ur	-11.6036
▁juice	-11.6047
▁realistic	-11.6067
▁sequenc	-11.6069
red	-11.608
▁hearts	-11.6083
▁kindness	-11.6099
▁cape	-11.61
▁mi	-11.6102
▁hybrid	-11.6105
▁explode	-11.6121
▁accessib	-11.6124
▁drum	-11.6132
law	-11.6144
▁transformati	-11.6155
▁ag	-11.6155
▁chronic	-11.6156
▁6,000	-11.6168
▁tick	-11.6177
▁boot	-11.6188
▁wires	-11.6191
▁nick	-11.6198
ped	-11.6204
▁enzyme	-11.621
▁symphon	-11.621
▁unfair	-11.621
▁dvd	-11.621
▁famine	-11.621
▁elevator	-11.6211
▁leonardo	-11.6211
▁legend	-11.6211
▁cellphone	-11.6211
▁mainstream	-11.6211
▁fault	-11.6211
▁jew	-11.6212
▁bonus	-11.6212
▁hint	-11.6213
▁flick	-11.6213
▁2020	-11.6213
▁lobe	-11.6214
▁lester	-11.6216
▁practic	-11.6217
▁slums	-11.6218
▁chimp	-11.6221
▁diplomat	-11.6222
▁workplace	-11.6223
▁strategic	-11.6223
▁slave	-11.6224
▁bud	-11.6226
▁laden	-11.6226
▁vivid	-11.6226
▁antibod	-11.6228
▁horizontal	-11.6229
spring	-11.6231
▁loving	-11.6239
▁marathon	-11.6239
▁bedroom	-11.6239
▁mild	-11.624
cer	-11.6241
▁manufacturer	-11.6256
▁gase	-11.6256
▁centimeter	-11.6257
▁announce	-11.6275
▁warn	-11.6284
▁notic	-11.6287
ane	-11.6289
▁embarrassing	-11.6293
▁triple	-11.6295
osphere	-11.6299
▁aspiration	-11.631
▁dough	-11.6322
▁temporar	-11.6339
▁nata	-11.6351
▁translat	-11.6353
▁spark	-11.6355
▁competitive	-11.6369
coli	-11.6383
▁negotiate	-11.6384
▁andrew	-11.6391
20	-11.6401
▁carri	-11.6402
▁rag	-11.6404
▁disgust	-11.6425
▁treasure	-11.6429
take	-11.643
▁wo	-11.643
▁filling	-11.643
▁emphasize	-11.6444
▁fa	-11.6448
▁screw	-11.6451
rselves	-11.6454
▁convenient	-11.6469
▁reactor	-11.6489
▁retire	-11.6506
▁chemist	-11.6512
▁punish	-11.6512
▁victor	-11.6513
▁scaffold	-11.6513
surveillance	-11.6513
▁calendar	-11.6513
▁veteran	-11.6513
▁explicit	-11.6513
▁mumbai	-11.6513
▁leopard	-11.6513
▁clinton	-11.6513
▁grape	-11.6513
▁encyclopedia	-11.6513
▁exposure	-11.6513
▁relief	-11.6513
▁introduction	-11.6514
▁historian	-11.6514
▁ipod	-11.6514
▁representative	-11.6514
▁chole	-11.6514
▁closing	-11.6514
▁algae	-11.6514
▁dragonfl	-11.6515
▁separation	-11.6515
▁sp	-11.6515
▁settlement	-11.6515
▁ethan	-11.6515
▁trunk	-11.6515
▁friendship	-11.6518
▁obtain	-11.652
▁coverage	-11.652
▁skelet	-11.6521
▁statue	-11.6522
▁mexican	-11.6523
▁devote	-11.6524
▁inherit	-11.6524
▁calculator	-11.6524
▁texture	-11.6525
▁airline	-11.6529
▁propos	-11.6531
▁enterprise	-11.6534
▁tide	-11.6535
back	-11.6539
▁soap	-11.655
▁spare	-11.6554
▁ver	-11.6563
ri	-11.6569
▁settle	-11.657
▁neuro	-11.658
▁intensive	-11.6581
▁realization	-11.6581
▁ending	-11.6582
▁yeast	-11.6582
▁persuade	-11.6602
▁37	-11.6622
▁farming	-11.6629
sum	-11.6647
▁healing	-11.665
ga	-11.666
ina	-11.666
io	-11.6663
▁texting	-11.6664
▁sole	-11.6665
▁upward	-11.6667
lson	-11.6671
▁ward	-11.668
▁indus	-11.6684
▁cyr	-11.6711
ted	-11.6713
▁brave	-11.672
▁cue	-11.6723
fin	-11.6734
▁embarrass	-11.6737
▁isolat	-11.6737
page	-11.6782
▁spinn	-11.6784
▁stewar	-11.6785
▁stake	-11.6789
▁shak	-11.6793
▁indonesia	-11.6796
▁lewi	-11.6801
▁contest	-11.6822
▁reconstruct	-11.6824
▁singapore	-11.6825
▁hawaii	-11.6825
▁craig	-11.6826
▁satisfy	-11.6826
▁juvenile	-11.6826
▁mcdonald	-11.6826
▁technician	-11.6826
▁contagio	-11.6826
▁substantial	-11.6826
▁criteri	-11.6826
▁cocktail	-11.6826
▁cream	-11.6826
▁guitar	-11.6826
▁cabinet	-11.6826
▁premise	-11.6826
▁disney	-11.6826
▁blade	-11.6827
▁flesh	-11.6827
▁translator	-11.6827
▁flock	-11.6827
arthur	-11.6827
▁fetus	-11.6827
▁purple	-11.6827
▁potter	-11.6827
▁progressive	-11.6828
▁negotiation	-11.6828
▁panic	-11.6828
▁confine	-11.6829
▁frustration	-11.6831
▁magnificent	-11.6831
▁recall	-11.6832
▁operator	-11.6834
▁advanc	-11.6837
▁towel	-11.6837
▁unlock	-11.6839
▁sometime	-11.684
da	-11.6847
wright	-11.6848
we	-11.6851
▁hopeless	-11.6854
▁approache	-11.6859
▁mesh	-11.6869
▁pearl	-11.6872
▁warmer	-11.6878
▁remix	-11.6881
shirt	-11.6883
social	-11.6887
▁seventh	-11.6887
speed	-11.6888
▁fried	-11.6888
income	-11.689
▁digg	-11.6893
▁landing	-11.69
five	-11.691
▁consum	-11.691
▁dependenc	-11.6917
▁pun	-11.6918
▁riot	-11.692
shape	-11.6923
▁secretar	-11.6926
▁scot	-11.6926
▁salar	-11.6928
▁38	-11.6932
▁dedicate	-11.6935
▁displace	-11.694
▁squeeze	-11.6942
▁48	-11.6942
▁fertil	-11.6954
▁assist	-11.6965
war	-11.6966
▁cd	-11.6992
▁patch	-11.6994
▁yards	-11.7001
▁abilit	-11.7006
unles	-11.7008
▁balls	-11.7015
▁camps	-11.7015
nburg	-11.7023
▁mor	-11.7035
▁demo	-11.7036
▁corporation	-11.7043
bi	-11.705
▁philip	-11.7052
▁junk	-11.7055
▁update	-11.7056
▁alarm	-11.7059
▁scream	-11.706
ew	-11.7068
▁acoustic	-11.7075
▁stimulate	-11.7075
▁enabl	-11.7085
▁reinvent	-11.7085
▁secular	-11.71
▁broc	-11.7104
▁ignor	-11.7104
▁eliminat	-11.7108
▁stare	-11.7117
▁skeptic	-11.7118
▁anesthesi	-11.7128
oven	-11.7129
▁heavi	-11.7138
▁summar	-11.7145
▁distract	-11.7146
▁exquisite	-11.7148
▁favela	-11.7148
▁intimacy	-11.7148
▁jupiter	-11.7148
▁maneuver	-11.7148
▁neuroscientist	-11.7148
▁shepherd	-11.7148
▁holiday	-11.7148
▁funeral	-11.7148
▁marrow	-11.7148
▁desktop	-11.7149
▁microphone	-11.7149
▁committee	-11.7149
▁retreat	-11.7149
▁lump	-11.7149
▁wrist	-11.7149
▁persist	-11.7149
▁outbreak	-11.7149
▁contradiction	-11.7149
▁synapse	-11.7149
▁dentist	-11.7149
▁brazilian	-11.715
▁punishment	-11.715
▁civilian	-11.715
▁selective	-11.715
▁cartoonist	-11.715
▁slope	-11.7151
▁rover	-11.7152
▁membrane	-11.7153
▁disk	-11.7154
▁portug	-11.7155
▁kilo	-11.7157
▁60,000	-11.7158
▁carrot	-11.716
▁whisper	-11.716
▁swallow	-11.716
▁segment	-11.716
▁fifty	-11.716
▁vibration	-11.716
▁composer	-11.7161
▁beef	-11.7164
▁manner	-11.7165
▁sylvi	-11.7168
▁server	-11.717
▁hawk	-11.7173
cola	-11.7175
witzer	-11.7182
▁mini	-11.7184
▁carl	-11.7184
▁unsee	-11.7185
erial	-11.7186
▁tomato	-11.7188
▁auto	-11.7197
profit	-11.7202
▁vary	-11.7203
▁maker	-11.7205
▁irrational	-11.7218
▁cha	-11.7227
▁taxe	-11.7235
box	-11.724
▁equit	-11.7242
▁yell	-11.7247
erusal	-11.7249
▁winds	-11.7252
▁heel	-11.7274
▁nucle	-11.7279
▁nin	-11.7286
▁hostil	-11.7294
book	-11.7296
▁developer	-11.7298
▁octop	-11.7306
nik	-11.7314
▁nei	-11.7317
▁trad	-11.7319
ki	-11.7329
▁pleasant	-11.7344
▁42	-11.7348
uel	-11.7358
▁mari	-11.7379
▁render	-11.7394
▁lean	-11.7398
▁coloni	-11.7406
▁investigate	-11.7411
▁29	-11.7413
▁landscapes	-11.7419
▁erect	-11.7422
▁longe	-11.7431
▁teache	-11.7436
▁72	-11.7439
▁whoa	-11.7441
▁zoo	-11.7443
tenance	-11.7457
▁yemen	-11.7458
▁bla	-11.7461
▁ambitio	-11.7469
▁tale	-11.7474
▁transcend	-11.7481
▁affair	-11.7482
▁catholic	-11.7482
▁friction	-11.7482
▁principal	-11.7482
▁propagand	-11.7482
▁thylacine	-11.7482
▁vocabular	-11.7482
▁abundance	-11.7482
▁expense	-11.7482
▁squid	-11.7482
viole	-11.7482
▁vacation	-11.7482
▁kosov	-11.7482
▁pancrea	-11.7482
▁saint	-11.7482
▁bombsight	-11.7482
▁chile	-11.7482
diac	-11.7483
▁johnny	-11.7483
▁sierra	-11.7484
▁align	-11.7484
▁minority	-11.7484
▁invitation	-11.7485
▁chew	-11.7485
▁swarm	-11.7486
▁generator	-11.7486
▁fertilizer	-11.7487
▁convict	-11.7491
▁thread	-11.7491
▁deficit	-11.7494
▁cattle	-11.7494
▁gra	-11.7495
▁comprehensi	-11.7496
▁shredd	-11.7499
▁31	-11.7502
▁switched	-11.7502
▁jh	-11.7502
▁blindness	-11.7505
▁mud	-11.7506
▁12-	-11.7509
▁celebrity	-11.7511
▁corrupt	-11.7512
▁genomic	-11.7514
▁assign	-11.7515
step	-11.7516
▁constraint	-11.7516
▁artwork	-11.7518
▁hol	-11.7519
▁scrap	-11.7519
play	-11.7522
▁referr	-11.7523
▁heroic	-11.7529
▁belt	-11.7531
▁grace	-11.7532
▁woode	-11.7533
▁identifi	-11.7534
▁canadian	-11.7535
▁hills	-11.7537
▁shower	-11.7539
▁deck	-11.7541
▁symbolic	-11.7543
▁kite	-11.7546
▁regenerate	-11.7547
▁ego	-11.7549
▁integration	-11.755
▁passe	-11.7551
▁coordinate	-11.7553
estate	-11.7553
▁modest	-11.7562
stream	-11.7585
▁cleaner	-11.7588
erson	-11.7594
inch	-11.7602
▁scans	-11.7604
▁brush	-11.7607
100	-11.7613
▁201	-11.7613
▁electromagnet	-11.7618
gie	-11.7619
mile	-11.7623
▁arena	-11.7625
ren	-11.7627
▁documentar	-11.7629
▁bask	-11.7636
▁deny	-11.764
▁divergen	-11.7641
▁timing	-11.7646
ux	-11.766
een	-11.7667
nett	-11.7668
▁valid	-11.7672
▁span	-11.7689
▁socially	-11.7693
▁addict	-11.7698
▁dominate	-11.7699
▁pric	-11.7706
▁sew	-11.7714
▁amy	-11.7714
ale	-11.7721
▁nathan	-11.7723
▁optic	-11.7729
▁swing	-11.7731
▁350	-11.7732
▁jay	-11.7736
▁semi	-11.7757
▁mammal	-11.776
▁declin	-11.7772
▁lap	-11.7775
net	-11.7778
▁ross	-11.778
▁significan	-11.7781
▁ki	-11.7783
▁cope	-11.7783
▁rating	-11.7786
▁accent	-11.7788
njo	-11.7794
▁bro	-11.7796
▁awe	-11.7799
▁trivial	-11.7805
▁43	-11.7809
▁ken	-11.7813
▁millenni	-11.7818
lly	-11.7824
▁2030	-11.7827
▁convincing	-11.7827
▁depict	-11.7827
▁peculiar	-11.7827
▁cybercriminal	-11.7827
▁manuscript	-11.7827
▁pigeon	-11.7827
▁metabolism	-11.7827
▁bathroom	-11.7827
▁controvers	-11.7827
▁checklist	-11.7827
▁blob	-11.7827
▁innovator	-11.7827
▁sarah	-11.7827
▁mixture	-11.7827
▁intersection	-11.7827
▁constitution	-11.7828
▁saudi	-11.7828
▁utilit	-11.7829
▁celebration	-11.7829
▁neocort	-11.7832
▁province	-11.7833
▁blown	-11.7834
▁fungi	-11.7836
▁buddhist	-11.7837
▁tasmanian	-11.7837
▁prospect	-11.7839
▁1930	-11.7839
▁executive	-11.7839
▁aggregate	-11.7842
rlin	-11.7843
▁dragg	-11.7843
▁crank	-11.7844
▁charter	-11.7846
▁manufacture	-11.7847
▁exhaust	-11.7848
▁tourist	-11.7849
lice	-11.7858
▁decent	-11.7861
▁rabbit	-11.7864
▁na	-11.7865
▁sweep	-11.7865
▁firing	-11.7871
▁momentum	-11.7881
▁pursui	-11.789
▁resilien	-11.789
▁entry	-11.7892
▁debr	-11.7893
▁ge	-11.7893
▁admir	-11.7905
▁cafe	-11.7905
▁lever	-11.7917
▁australian	-11.7919
▁gecko	-11.7926
▁graduat	-11.7932
▁horses	-11.7932
un	-11.7945
bati	-11.7949
▁humanitarian	-11.7951
kans	-11.7954
pound	-11.7958
▁kidd	-11.7959
▁flap	-11.7959
▁pregnanc	-11.7959
▁bounce	-11.7961
▁pound	-11.7961
▁examine	-11.7964
▁mines	-11.7965
▁anticipat	-11.7969
▁diagnosi	-11.7969
▁medit	-11.7988
▁gentle	-11.7992
ania	-11.7992
▁usa	-11.8016
▁typ	-11.8017
care	-11.8043
▁confuse	-11.8056
ars	-11.8059
▁fee	-11.8067
▁delete	-11.8072
▁hydro	-11.8092
▁chop	-11.8092
▁stimul	-11.8103
sburg	-11.8104
hen	-11.8109
▁fur	-11.8119
osity	-11.8121
▁schedule	-11.8121
▁correlation	-11.8126
▁wir	-11.8139
▁innovate	-11.8142
fer	-11.8147
▁eco	-11.8151
▁animate	-11.8161
▁sanit	-11.8162
▁98	-11.817
▁smash	-11.8172
▁survived	-11.8181
▁crap	-11.8181
▁reader	-11.8182
▁accura	-11.8183
▁synesthe	-11.8184
▁configuration	-11.8184
▁consensu	-11.8184
▁crocodile	-11.8184
▁mammograph	-11.8184
▁namibia	-11.8184
▁peanut	-11.8184
▁neglect	-11.8184
▁phoenix	-11.8184
▁creep	-11.8184
▁calci	-11.8184
▁kelly	-11.8184
▁anthropologist	-11.8184
▁monk	-11.8184
▁infectious	-11.8184
▁headache	-11.8185
▁arrangement	-11.8185
▁breakdown	-11.8185
▁guest	-11.8185
▁pollutant	-11.8186
▁nightmare	-11.8187
▁spouse	-11.8188
▁commandment	-11.8188
▁dating	-11.8188
▁carib	-11.8188
▁replacement	-11.819
therland	-11.819
▁naive	-11.8191
▁adolescent	-11.8196
▁grocer	-11.8196
▁kilogram	-11.8196
▁addiction	-11.82
▁marc	-11.82
▁canyon	-11.82
▁fantasy	-11.82
▁blink	-11.8202
▁upright	-11.8202
▁fever	-11.8202
▁carne	-11.821
▁transit	-11.8213
▁gadget	-11.8218
▁fda	-11.8219
▁prosperity	-11.822
▁stunning	-11.8224
▁marks	-11.8226
▁royal	-11.8226
▁enforce	-11.8227
size	-11.8227
sea	-11.8232
▁eighth	-11.8242
▁columbia	-11.8243
▁eradicat	-11.8243
right	-11.8249
au	-11.8251
tues	-11.8255
▁dub	-11.8259
▁readers	-11.8262
▁behold	-11.827
ria	-11.8276
lin	-11.8283
▁performer	-11.8285
▁exponentially	-11.8301
▁corporations	-11.8302
▁provider	-11.8302
▁nurtur	-11.8304
▁philipp	-11.8305
▁1.2	-11.8306
school	-11.8317
shift	-11.8317
▁rubb	-11.8337
▁redefine	-11.835
▁melod	-11.8357
▁ban	-11.8359
bo	-11.838
stone	-11.8385
symmetrical	-11.8388
▁candy	-11.8394
▁130	-11.84
city	-11.8405
▁owe	-11.841
bean	-11.8432
blowing	-11.8434
▁oven	-11.8449
▁rang	-11.8453
▁blend	-11.8454
▁relativ	-11.8456
▁fires	-11.8461
▁seeming	-11.8467
▁investigat	-11.8467
▁lit	-11.8468
▁gener	-11.8472
▁kinder	-11.8478
▁christ	-11.8488
▁carve	-11.8491
▁congesti	-11.8494
▁combat	-11.851
▁conductor	-11.8512
▁assure	-11.8514
▁stir	-11.8517
▁capitalist	-11.8517
▁crashe	-11.852
▁axe	-11.8527
oh	-11.8528
▁determin	-11.8535
human	-11.8538
▁guard	-11.8541
▁infinit	-11.8543
▁alphabet	-11.8545
▁geograph	-11.8549
▁distort	-11.8552
▁96	-11.8552
▁tempt	-11.8552
▁calculating	-11.8554
▁helmet	-11.8554
▁nitrogen	-11.8554
▁steep	-11.8554
▁exclusive	-11.8554
▁imperative	-11.8554
▁parameter	-11.8554
▁tribal	-11.8554
▁appliance	-11.8554
▁consent	-11.8554
▁deforest	-11.8554
▁prevalence	-11.8554
▁fractal	-11.8554
▁faint	-11.8554
▁sudan	-11.8554
▁catastrophic	-11.8554
▁visceral	-11.8554
▁textile	-11.8555
▁toxin	-11.8555
▁acute	-11.8555
▁manifestation	-11.8555
▁workshop	-11.8556
▁sch	-11.8556
▁billboard	-11.8556
▁indigen	-11.8556
▁crater	-11.8557
▁claw	-11.8557
▁alert	-11.8557
▁equator	-11.8557
▁novelty	-11.8558
▁frontal	-11.8558
▁flute	-11.856
▁idiot	-11.856
▁seawater	-11.856
▁couch	-11.8561
▁regulate	-11.8563
▁clapp	-11.8566
▁monsoon	-11.8567
▁satisfact	-11.8567
blew	-11.8568
▁eternal	-11.8568
▁basement	-11.857
▁larva	-11.8573
▁packag	-11.8577
▁susan	-11.8583
▁8,000	-11.8589
▁solo	-11.8591
▁rear	-11.8594
eley	-11.8596
▁equi	-11.86
▁feminist	-11.86
▁spatial	-11.8608
▁su	-11.8617
▁stimulation	-11.8617
▁digit	-11.8617
▁helpless	-11.8625
▁cuba	-11.8629
▁feeds	-11.8639
▁queens	-11.8642
▁log	-11.865
▁cr	-11.8651
▁painter	-11.8651
▁dishe	-11.8661
▁payment	-11.8663
▁rod	-11.8666
▁explod	-11.8668
▁amaz	-11.8672
▁mega	-11.8675
▁emitt	-11.8676
gram	-11.8677
de	-11.8677
▁pat	-11.8679
▁rick	-11.8682
view	-11.8697
▁slip	-11.8709
ntil	-11.8719
▁dick	-11.8722
▁seas	-11.8726
lethal	-11.8729
▁derive	-11.873
▁advocate	-11.8732
▁kit	-11.8746
▁copp	-11.8753
▁dare	-11.8769
▁accidental	-11.8773
▁whistl	-11.8782
minded	-11.8782
▁underestimate	-11.8783
stair	-11.8784
▁belly	-11.8798
▁opens	-11.8807
adu	-11.8808
▁ignoran	-11.8815
ically	-11.8824
▁aqua	-11.8827
▁logg	-11.8828
▁lighter	-11.8831
▁pitt	-11.8832
▁193	-11.8842
▁professors	-11.8856
▁hal	-11.8862
form	-11.8863
▁glor	-11.8882
generation	-11.8883
▁greet	-11.8883
med	-11.8896
▁1,500	-11.8896
▁screening	-11.8896
▁125	-11.8897
▁soc	-11.8903
ris	-11.8904
tra	-11.8914
rah	-11.8928
emia	-11.8931
bed	-11.8936
▁lobby	-11.8936
▁forgive	-11.8937
▁elizabeth	-11.8938
▁schizophreni	-11.8938
makers	-11.8938
▁ambiguit	-11.8939
▁endeavor	-11.8939
▁hurricane	-11.8939
▁immigrant	-11.8939
▁intricate	-11.8939
▁mammogram	-11.8939
▁pesticide	-11.8939
▁spaghetti	-11.8939
▁orgasm	-11.8939
▁snail	-11.8939
▁kennedy	-11.8939
▁rosling	-11.8939
▁justify	-11.8939
▁preference	-11.8939
▁stadium	-11.8939
▁supreme	-11.8939
▁reproduction	-11.8939
▁blueprint	-11.8939
▁missile	-11.8939
▁ideolog	-11.8939
▁illustration	-11.894
▁jungle	-11.894
▁extensive	-11.894
▁psychiatrist	-11.894
▁slim	-11.8941
▁exit	-11.8941
▁millennia	-11.8941
▁ancestr	-11.8942
▁alright	-11.8942
▁chord	-11.8942
per	-11.8944
▁baseline	-11.8944
▁eba	-11.8945
rdon	-11.8947
▁francis	-11.8949
▁fr	-11.8949
▁cage	-11.8951
▁impair	-11.8951
▁fuck	-11.8952
▁suspend	-11.8952
▁submersible	-11.8952
▁shield	-11.8952
ause	-11.8953
▁alumin	-11.8953
▁requirement	-11.8953
▁crude	-11.8953
▁conceive	-11.8956
▁overlap	-11.8957
▁pathogen	-11.8961
▁lang	-11.8961
fa	-11.8962
▁linguistic	-11.8963
▁julian	-11.8965
▁hy	-11.8965
▁hut	-11.8967
▁mama	-11.8972
▁shatter	-11.8976
▁phil	-11.8978
▁ambition	-11.8983
▁disappointed	-11.8993
▁gi	-11.8995
▁blast	-11.8997
▁freeze	-11.9
▁abundant	-11.9
▁max	-11.9003
nike	-11.9009
garte	-11.901
▁penis	-11.9011
▁endless	-11.9011
▁obsession	-11.902
▁intervene	-11.9025
eo	-11.9027
▁dome	-11.9029
▁fog	-11.9029
mate	-11.9032
▁publisher	-11.9035
▁degrad	-11.9038
▁alan	-11.9049
▁hmm	-11.9051
▁humble	-11.9056
▁taxi	-11.9077
00	-11.9099
▁24-	-11.911
▁thin	-11.9111
nia	-11.9114
▁collaborate	-11.9122
axis	-11.9124
cent	-11.9131
▁mature	-11.9139
▁jona	-11.9141
▁sensibl	-11.9156
▁connecti	-11.916
effective	-11.9161
track	-11.9166
▁restrict	-11.9168
▁donors	-11.9176
no	-11.918
ile	-11.9186
▁anticipate	-11.9188
▁scarce	-11.9196
▁imp	-11.92
▁polici	-11.92
come	-11.9201
▁reache	-11.9202
tangible	-11.922
▁thankful	-11.9221
▁gar	-11.9236
▁disabilit	-11.9237
▁dadd	-11.9237
▁mytholog	-11.9238
▁unleash	-11.9242
related	-11.9243
▁demonstrat	-11.926
face	-11.9267
ud	-11.9269
▁renewables	-11.9277
▁lim	-11.9283
▁developmental	-11.9285
nce	-11.9288
▁grim	-11.9294
▁thumb	-11.9296
aware	-11.9301
▁needles	-11.9303
▁identifie	-11.9304
▁cambodia	-11.9311
▁rebel	-11.9316
▁astronom	-11.9316
▁worship	-11.9316
▁ac	-11.9317
▁nois	-11.9317
▁pursu	-11.9322
po	-11.9325
▁swap	-11.9327
▁bj	-11.9327
▁viewer	-11.9331
▁192	-11.9332
zler	-11.9332
▁commoditi	-11.9335
▁digest	-11.9336
▁rotat	-11.9337
▁tibet	-11.9338
▁minor	-11.9338
▁infra	-11.9339
▁cathedral	-11.9339
▁dismiss	-11.9339
▁guinea	-11.9339
▁michigan	-11.9339
▁specimen	-11.9339
▁anniversar	-11.9339
▁forecast	-11.9339
▁himalaya	-11.9339
▁laundr	-11.9339
▁surplus	-11.9339
▁unveil	-11.9339
▁watson	-11.9339
▁alaska	-11.9339
▁dwarf	-11.9339
▁protocol	-11.9339
▁brooklyn	-11.9339
▁mosque	-11.9339
▁tesla	-11.9339
▁jefferson	-11.9339
▁auditorium	-11.9339
▁entrance	-11.9339
▁2.0	-11.9339
▁bucket	-11.9339
▁radar	-11.9339
▁suitcase	-11.9339
▁pepper	-11.9339
▁fluctuation	-11.934
▁refrigerator	-11.934
▁drain	-11.934
▁migration	-11.934
▁sidewalk	-11.934
▁hamburger	-11.934
▁catastrophe	-11.9341
▁sensitivit	-11.9341
▁gigant	-11.9341
▁rachel	-11.9342
▁lover	-11.9344
▁insert	-11.9344
▁monday	-11.9344
▁tunisia	-11.9345
▁tedx	-11.9345
▁jacque	-11.9346
▁trailer	-11.9348
▁shap	-11.9349
▁gravitational	-11.935
▁sebastia	-11.935
▁elbow	-11.9353
▁delusion	-11.9353
▁alliance	-11.9354
▁episode	-11.9354
▁boost	-11.9358
▁progression	-11.9359
▁generic	-11.9359
▁sput	-11.9359
▁flipp	-11.9361
▁assistant	-11.9361
▁eradicate	-11.9365
▁anatomy	-11.9368
▁lamb	-11.9368
▁rockets	-11.9368
▁paraly	-11.9373
set	-11.9373
▁enrich	-11.9374
pago	-11.9375
▁observer	-11.9377
▁dave	-11.9377
▁potent	-11.9378
▁league	-11.9378
▁drought	-11.938
▁gala	-11.938
▁glove	-11.9381
▁lama	-11.9383
▁barry	-11.9385
▁nutrition	-11.9389
▁jas	-11.9389
▁evaluate	-11.9391
istine	-11.9393
▁traffick	-11.9396
▁impose	-11.9397
▁pub	-11.9399
▁prescribe	-11.9404
nel	-11.9405
▁ja	-11.9409
▁improvise	-11.9409
▁paste	-11.9412
▁noble	-11.9417
▁oop	-11.9419
style	-11.9425
▁magn	-11.9425
▁voter	-11.9427
▁minimal	-11.9428
▁sufficient	-11.943
▁inhabit	-11.9431
▁rand	-11.9441
▁rendering	-11.9446
▁resemble	-11.9449
▁pc	-11.9454
▁powder	-11.9454
▁bolt	-11.9458
promised	-11.9462
▁forum	-11.947
▁stabilize	-11.9472
master	-11.9475
▁1.5	-11.9476
▁isolation	-11.9478
▁conceptual	-11.948
▁promis	-11.9486
▁transmitt	-11.9501
wa	-11.9502
▁voluntar	-11.9506
▁authors	-11.9513
▁matt	-11.9519
▁yorker	-11.9527
▁motivat	-11.9533
▁oz	-11.954
▁environmentally	-11.9542
▁encode	-11.9546
▁je	-11.9558
▁hind	-11.9559
▁cheer	-11.956
▁recycle	-11.956
ire	-11.9566
▁dai	-11.9572
▁47	-11.9572
▁15-	-11.9576
hill	-11.9582
▁menu	-11.9584
conflict	-11.9592
▁poke	-11.9592
▁bl	-11.9592
▁beneficia	-11.9595
natural	-11.9595
food	-11.9599
▁matche	-11.9599
▁slum	-11.9602
▁mist	-11.9603
▁con	-11.9605
enberg	-11.9605
▁nu	-11.9616
▁promot	-11.9621
rose	-11.9628
ik	-11.9643
▁criticize	-11.9653
▁incorporate	-11.9657
▁edi	-11.9658
▁bloom	-11.966
▁fatal	-11.9668
▁contaminat	-11.967
▁correlate	-11.9673
▁submit	-11.9674
sh	-11.9674
▁lawn	-11.9675
air	-11.9687
▁resonate	-11.9694
▁hackers	-11.9705
▁bosnia	-11.9728
▁trail	-11.9749
sylv	-11.9752
▁voyage	-11.9752
▁babb	-11.9753
▁obsole	-11.9754
▁elaborate	-11.9755
▁embryo	-11.9755
▁saturday	-11.9755
▁prophet	-11.9755
▁serge	-11.9755
▁stagger	-11.9755
▁technologist	-11.9755
▁multinational	-11.9756
▁deliberate	-11.9756
▁undergraduate	-11.9756
▁glorious	-11.9756
▁lemon	-11.9756
▁instinctive	-11.9756
▁coincidence	-11.9756
▁embodie	-11.9756
▁differ	-11.9756
▁jackson	-11.9756
▁rna	-11.9756
▁mutant	-11.9756
▁criticism	-11.9757
▁album	-11.9757
▁puff	-11.9757
▁headquarter	-11.9757
▁adaptive	-11.9757
▁unifie	-11.9757
▁manipulation	-11.9757
▁butterfl	-11.9758
agile	-11.9758
▁cereb	-11.9758
▁blogg	-11.9758
▁astronomical	-11.9758
▁anxious	-11.976
▁sync	-11.976
▁educator	-11.9761
▁pillar	-11.9761
▁pigment	-11.9761
▁brick	-11.9762
▁mustard	-11.9763
▁sheer	-11.9768
▁galleries	-11.9768
▁evan	-11.9768
▁bra	-11.9769
▁delicate	-11.977
▁circular	-11.977
▁scroll	-11.977
▁terminal	-11.9772
entrepreneurship	-11.9773
▁microscop	-11.9774
lept	-11.9775
▁nast	-11.9776
▁visitor	-11.9782
▁jami	-11.9783
▁grey	-11.9785
▁freez	-11.9788
▁harsh	-11.9789
▁fuzz	-11.9799
▁biase	-11.9799
ko	-11.9801
▁mapp	-11.9807
▁captur	-11.9807
▁proton	-11.981
lines	-11.9812
▁chess	-11.9823
▁temporal	-11.9823
▁emotionally	-11.9828
▁slate	-11.9842
▁forc	-11.9848
▁remark	-11.9849
▁hammer	-11.985
▁digitize	-11.9853
▁190	-11.9867
▁reasonabl	-11.9869
▁tales	-11.988
▁wip	-11.9882
▁longest	-11.9889
▁fade	-11.9892
▁gee	-11.9893
▁rolled	-11.9896
aged	-11.9912
▁ron	-11.9917
▁flame	-11.992
▁kim	-11.992
▁sens	-11.9922
▁pier	-11.9925
▁cooperate	-11.9926
ide	-11.9929
▁plankton	-11.993
▁divine	-11.9933
▁97	-11.9936
▁miser	-11.994
▁disabl	-11.9945
▁doors	-11.9948
▁upgrade	-11.9954
▁fruits	-11.996
▁apes	-11.996
▁customiz	-11.9973
▁stereotype	-11.9974
▁keen	-11.9983
▁din	-12.0001
nmark	-12.0007
generat	-12.0011
▁fighter	-12.0014
▁disrupt	-12.0016
▁optimize	-12.0026
wear	-12.0027
fire	-12.0031
flow	-12.0037
▁mm	-12.0039
▁caves	-12.0039
▁52	-12.004
▁rank	-12.0041
▁arous	-12.0042
bucks	-12.0048
course	-12.005
person	-12.0051
child	-12.0053
▁sms	-12.0055
▁admire	-12.0059
▁decid	-12.0067
▁angles	-12.0067
lit	-12.0067
rays	-12.0072
▁dug	-12.0082
▁democrac	-12.009
▁prop	-12.0096
libr	-12.0098
corn	-12.0105
▁mil	-12.0121
▁brun	-12.0121
▁prototyp	-12.013
▁horn	-12.0131
▁hir	-12.0134
▁cooling	-12.0143
▁cosmo	-12.0143
▁depriv	-12.016
▁inhibit	-12.0177
▁compos	-12.0179
▁juggl	-12.018
▁beck	-12.018
inson	-12.0181
▁separat	-12.0182
▁buddha	-12.0184
▁rabbi	-12.0184
▁apollo	-12.0186
▁counsel	-12.0188
▁sahara	-12.0189
▁whit	-12.0189
▁drunk	-12.0189
▁orphan	-12.0189
▁catalog	-12.0189
▁competitor	-12.019
▁default	-12.019
▁ushahidi	-12.019
▁sibling	-12.019
▁tectonic	-12.019
▁conscience	-12.019
▁oyster	-12.019
burg	-12.019
▁biofuel	-12.019
▁polymer	-12.019
▁reservation	-12.019
▁apparatus	-12.019
▁penalt	-12.019
▁rigid	-12.019
▁vector	-12.019
▁execution	-12.0191
▁obligation	-12.0191
▁sterile	-12.0191
▁mustache	-12.0191
▁flexibilit	-12.0191
▁problematic	-12.0192
▁distress	-12.0192
▁spade	-12.0193
▁courageous	-12.0193
▁velocit	-12.0193
▁regenerati	-12.0193
▁titanic	-12.0195
▁attachment	-12.0195
▁env	-12.0196
▁julie	-12.0197
ibera	-12.0197
hatred	-12.0198
▁cochlea	-12.0198
▁chaotic	-12.02
▁numer	-12.0201
▁agnostic	-12.0203
▁freud	-12.0206
▁submarine	-12.0206
▁wilson	-12.0206
▁blogger	-12.0207
▁conquer	-12.0208
▁eager	-12.0208
▁slaughter	-12.021
▁collector	-12.021
▁unst	-12.0212
▁declare	-12.0214
▁queue	-12.0217
huse	-12.0219
▁exot	-12.022
▁hence	-12.0223
ylan	-12.0228
▁publication	-12.0232
tu	-12.0233
bar	-12.0234
ronto	-12.0236
▁envelope	-12.0241
▁undergo	-12.0243
▁transferr	-12.0244
▁patholog	-12.0251
▁budd	-12.0251
banish	-12.0253
▁guards	-12.0256
▁bench	-12.0257
▁characterize	-12.0259
▁culturally	-12.0262
▁thermal	-12.0262
fg	-12.0266
▁inventions	-12.0268
▁consideration	-12.0269
▁len	-12.0273
▁rea	-12.0282
bit	-12.0283
▁fascinate	-12.0289
▁incremental	-12.03
dding	-12.0311
▁dam	-12.0318
▁dissolve	-12.0319
▁clone	-12.0327
▁apologize	-12.0335
▁pakistani	-12.0337
▁butter	-12.0341
king	-12.0355
▁sin	-12.0365
▁appreciati	-12.0365
▁stimulat	-12.0375
▁eg	-12.0375
▁fib	-12.038
▁tele	-12.038
ague	-12.0388
▁depressing	-12.0391
▁informal	-12.0394
▁bol	-12.0399
▁zo	-12.0419
▁hung	-12.0419
▁survivors	-12.0425
▁sticky	-12.0427
▁illitera	-12.0428
▁asteroids	-12.0431
▁conservatives	-12.0437
▁rig	-12.0449
▁jon	-12.045
▁chang	-12.0466
▁collaps	-12.0473
▁walker	-12.0482
aging	-12.0492
▁bann	-12.0503
broad	-12.0503
train	-12.0509
▁har	-12.051
ami	-12.0513
▁arrange	-12.0517
four	-12.0524
positive	-12.0526
sleep	-12.0527
massive	-12.053
▁syria	-12.0538
wide	-12.0541
▁continual	-12.0546
built	-12.055
▁proceed	-12.0554
▁peel	-12.0561
▁personaliz	-12.0562
▁heck	-12.0562
▁drama	-12.0574
▁donate	-12.0583
▁quo	-12.0601
▁wishe	-12.0602
▁superhero	-12.0604
▁ads	-12.0606
▁liberia	-12.0615
▁nurture	-12.062
ature	-12.0622
version	-12.0623
op	-12.0625
ives	-12.0625
les	-12.0632
▁cooper	-12.0632
band	-12.0634
▁volcan	-12.0636
▁manifest	-12.064
▁fuse	-12.064
delphi	-12.0645
▁ambassador	-12.0645
▁anecdote	-12.0645
▁bamboo	-12.0645
▁benign	-12.0645
▁cockroach	-12.0645
▁falcon	-12.0645
▁migraine	-12.0645
▁sediment	-12.0645
▁superior	-12.0645
▁tamiflu	-12.0645
▁testosterone	-12.0645
▁venezuela	-12.0645
▁capsule	-12.0645
▁darfur	-12.0645
▁railroad	-12.0645
▁resurrect	-12.0645
▁acquisition	-12.0645
▁bulk	-12.0645
▁chalk	-12.0645
▁taiwan	-12.0645
▁wavelength	-12.0645
▁modify	-12.0645
▁armstrong	-12.0645
▁horrifi	-12.0645
▁pervasive	-12.0645
▁thrive	-12.0645
▁mysteries	-12.0645
▁graham	-12.0645
▁polish	-12.0645
▁smartphone	-12.0645
▁guardian	-12.0645
▁thirty	-12.0645
▁touche	-12.0646
▁suburban	-12.0646
▁bypass	-12.0646
▁bioluminescence	-12.0646
▁metabolic	-12.0646
▁lesion	-12.0647
▁retain	-12.0648
illa	-12.0648
▁employment	-12.0648
▁beast	-12.065
▁browser	-12.065
▁contractor	-12.0652
▁margar	-12.0652
▁mutate	-12.0653
▁kiri	-12.0654
▁orphanage	-12.0655
▁hindu	-12.0656
▁norman	-12.0656
▁polite	-12.0657
▁daylight	-12.0658
▁dispute	-12.0659
▁playground	-12.0659
▁spaceship	-12.066
▁palestine	-12.0661
▁phthalate	-12.0661
▁revelation	-12.0661
▁ideological	-12.0662
▁circulation	-12.0662
▁attraction	-12.0664
▁arbitrar	-12.0665
▁biologically	-12.0665
▁memorial	-12.0668
▁awake	-12.0668
▁vibrat	-12.0672
mino	-12.0679
▁augmented	-12.068
▁chains	-12.0681
▁numb	-12.0683
▁overlook	-12.0683
▁knot	-12.0686
▁skeptical	-12.0688
▁dune	-12.0688
pe	-12.0694
▁wax	-12.0694
▁governor	-12.0697
▁constrain	-12.07
▁drone	-12.0703
▁ipad	-12.0712
▁token	-12.0713
▁migrate	-12.0715
▁trap	-12.0716
▁revers	-12.0718
ado	-12.0719
▁shifts	-12.0722
collider	-12.0724
▁stranger	-12.0726
▁drip	-12.0728
month	-12.0728
▁concentrat	-12.0729
than	-12.073
▁optimal	-12.073
ira	-12.0732
▁argentin	-12.0733
cell	-12.0747
▁kn	-12.0748
▁86	-12.0749
▁han	-12.0755
▁nav	-12.076
▁gods	-12.076
▁loser	-12.077
▁cia	-12.0771
▁screaming	-12.0771
▁34	-12.079
▁180	-12.0791
▁gluc	-12.0795
▁demos	-12.08
▁warp	-12.08
▁woods	-12.0801
▁cosmolog	-12.081
▁cu	-12.0814
▁disrupti	-12.0822
sex	-12.0822
▁mill	-12.0825
▁statistic	-12.0827
can	-12.083
▁macro	-12.0834
▁dispos	-12.0849
▁fisherm	-12.0855
▁negotiat	-12.0856
▁cri	-12.0862
▁illuminat	-12.0862
▁stumbl	-12.0863
vian	-12.0864
▁incidental	-12.087
▁rail	-12.0885
▁appl	-12.0889
ene	-12.0893
▁execute	-12.0894
▁lethal	-12.0902
▁regional	-12.0903
▁lonel	-12.0928
▁46	-12.0939
▁affordabl	-12.0944
tial	-12.0965
▁lone	-12.0972
▁treaty	-12.0974
▁liberat	-12.0976
her	-12.0978
grow	-12.0985
crops	-12.0988
born	-12.0989
erran	-12.0991
▁bore	-12.0992
▁yard	-12.0997
▁lips	-12.0998
yard	-12.1003
▁improvisation	-12.1003
frontal	-12.1011
nutrition	-12.1016
▁compose	-12.1018
intuitive	-12.1023
together	-12.1025
▁memorize	-12.1025
▁cuts	-12.103
▁brit	-12.1032
text	-12.1038
▁globaliz	-12.1041
▁automat	-12.1052
▁northwest	-12.1056
▁prioritize	-12.1061
▁pest	-12.1081
▁dud	-12.1083
▁dies	-12.1083
▁owners	-12.1085
quality	-12.1086
fu	-12.1089
let	-12.1095
▁ventilat	-12.1097
aba	-12.11
rus	-12.1101
▁plac	-12.1108
▁appreciat	-12.1112
▁suburb	-12.112
▁excess	-12.1121
▁sovereign	-12.1121
▁avenue	-12.1121
▁disadvantage	-12.1121
▁grassroots	-12.1121
▁meadow	-12.1121
▁metropolitan	-12.1121
▁mortgage	-12.1121
▁rehabilitat	-12.1121
acci	-12.1121
▁zipcar	-12.1121
▁feather	-12.1121
▁homosexual	-12.1121
▁murray	-12.1121
▁decentraliz	-12.1121
▁incubator	-12.1121
▁holoc	-12.1121
▁arrogan	-12.1121
▁siberia	-12.1121
▁motorcycle	-12.1121
▁scholarship	-12.1121
▁bmw	-12.1121
▁roger	-12.1121
▁versa	-12.1121
▁resonance	-12.1121
▁transaction	-12.1121
▁doctrine	-12.1121
▁lago	-12.1122
▁maldiv	-12.1122
▁iceberg	-12.1122
▁1.3	-12.1122
▁simon	-12.1122
▁worthwhile	-12.1123
▁superpower	-12.1123
▁template	-12.1123
▁ease	-12.1123
▁nepal	-12.1124
▁injustice	-12.1125
▁veil	-12.1125
▁injection	-12.1126
▁regulator	-12.1126
▁wallet	-12.1128
cher	-12.113
▁doug	-12.1132
▁adolescence	-12.1138
▁thrust	-12.1138
▁opposition	-12.1139
wards	-12.114
▁vocal	-12.1141
▁librari	-12.1142
▁plugg	-12.1144
▁cubic	-12.1145
▁slogan	-12.1146
alai	-12.1148
▁williams	-12.1151
▁tilt	-12.1151
story	-12.1151
hitler	-12.1156
▁journalis	-12.1157
▁gel	-12.1159
▁physiolog	-12.1163
▁techno	-12.1165
▁bono	-12.1166
▁darwinian	-12.1169
▁riches	-12.1174
▁metaphorical	-12.1177
▁fame	-12.1178
▁edward	-12.1183
▁forbid	-12.1187
▁reminder	-12.1189
▁marked	-12.119
▁receiver	-12.1191
▁hacker	-12.1194
▁endur	-12.1197
ectar	-12.1202
▁fus	-12.1202
▁follower	-12.1203
300	-12.1206
▁wins	-12.1207
▁arabia	-12.1208
▁nut	-12.1212
agnes	-12.1213
18	-12.1214
▁roller	-12.1215
neil	-12.1225
rd	-12.1225
▁abu	-12.1229
▁certificate	-12.123
▁wid	-12.1234
ase	-12.1239
▁devise	-12.1249
▁doom	-12.1251
▁chat	-12.1251
▁64	-12.1259
▁impos	-12.1259
▁stan	-12.1263
▁spreads	-12.1265
▁dj	-12.1278
▁swed	-12.1286
▁cad	-12.1288
▁doodl	-12.1294
ruce	-12.1301
▁outward	-12.1307
ssini	-12.1315
nan	-12.1324
▁khan	-12.1329
.5	-12.133
▁oak	-12.1334
▁coordinat	-12.1335
▁theft	-12.1352
balone	-12.1361
▁coordinati	-12.1369
▁fil	-12.1371
▁linu	-12.1373
gen	-12.1381
▁elevate	-12.1384
▁synthesize	-12.1385
▁precis	-12.139
edited	-12.1397
▁che	-12.1398
▁ze	-12.1407
▁dye	-12.1414
▁450	-12.1416
▁nuclei	-12.142
▁iq	-12.1422
ative	-12.1426
▁opt	-12.1433
▁penetrate	-12.1433
▁refin	-12.1435
▁verbal	-12.1443
▁acquir	-12.1448
▁58	-12.1451
▁tes	-12.1453
▁spite	-12.1453
heart	-12.1455
▁biotechnolog	-12.1461
▁controller	-12.1469
aving	-12.1488
ila	-12.1504
▁settl	-12.1511
▁mp	-12.1512
▁herd	-12.1513
▁200-	-12.1514
▁occupation	-12.152
ster	-12.1524
load	-12.1525
vascular	-12.1525
▁rip	-12.1532
ecd	-12.1532
sight	-12.1538
thermal	-12.1541
94	-12.1543
pont	-12.1543
cha	-12.1544
angiogen	-12.1545
▁bre	-12.1545
mail	-12.1547
arpa	-12.1547
▁monument	-12.1548
▁integr	-12.155
complete	-12.1551
▁wander	-12.1552
▁morally	-12.1554
▁pets	-12.1555
▁detected	-12.1556
▁por	-12.1557
▁towns	-12.1559
million	-12.1559
cover	-12.1559
diana	-12.1561
▁enthusias	-12.1565
secure	-12.1574
▁massac	-12.1589
▁cole	-12.1594
▁wandering	-12.1599
▁verse	-12.1607
racing	-12.161
▁ideo	-12.162
▁preach	-12.162
▁spear	-12.1621
▁repetiti	-12.1621
▁astronaut	-12.1621
▁bhutan	-12.1621
▁charcoal	-12.1621
▁corridor	-12.1621
▁dallas	-12.1621
▁pentagon	-12.1621
▁pivot	-12.1621
▁syringe	-12.1621
▁tadpole	-12.1621
▁zimbabwe	-12.1621
▁encrypt	-12.1621
▁gorilla	-12.1621
▁regain	-12.1621
▁sermon	-12.1621
▁oscar	-12.1621
▁sulfur	-12.1621
▁essay	-12.1621
▁respirator	-12.1621
▁tuberc	-12.1621
▁holistic	-12.1621
▁masterpiece	-12.1621
▁superstar	-12.1621
▁superconductor	-12.1621
▁notebook	-12.1621
▁shallow	-12.1621
▁distinctive	-12.1621
▁nicole	-12.1621
▁forehead	-12.1622
▁cease	-12.1622
▁guru	-12.1622
▁curator	-12.1622
▁stereo	-12.1622
▁ladder	-12.1622
▁splash	-12.1622
▁inflation	-12.1622
▁reclaim	-12.1622
▁replicator	-12.1622
▁indicator	-12.1622
▁flaw	-12.1622
▁georgia	-12.1623
▁orientation	-12.1623
▁indication	-12.1623
▁possession	-12.1623
▁immerse	-12.1624
▁paradi	-12.1624
encel	-12.1624
▁grassland	-12.1625
▁walter	-12.1625
▁inexpensive	-12.1625
▁galil	-12.1625
gar	-12.1625
▁juni	-12.1626
▁dysfunction	-12.1626
▁placebo	-12.1626
▁detro	-12.1627
▁nanotechnolog	-12.1627
▁thunder	-12.1627
▁posture	-12.1628
▁biograph	-12.1628
ul	-12.1629
ge	-12.1629
▁inclusive	-12.163
▁ghost	-12.163
▁reconnect	-12.163
▁compact	-12.1632
▁abstraction	-12.1632
▁respectful	-12.1632
tor	-12.1633
▁consultant	-12.1633
▁autist	-12.1633
▁complication	-12.1634
▁lightning	-12.1635
▁doubling	-12.1639
▁strengthen	-12.1639
▁worldview	-12.1639
▁laureate	-12.1639
▁luc	-12.1641
zi	-12.1642
▁operational	-12.1645
▁indirect	-12.1645
▁admitted	-12.1647
▁phila	-12.1648
proof	-12.1652
▁grind	-12.1653
▁grip	-12.1656
▁jess	-12.1656
nches	-12.1659
▁isolate	-12.166
▁brake	-12.1668
▁geographical	-12.1673
▁utopia	-12.1674
lanta	-12.1674
▁neurological	-12.1675
aust	-12.1679
▁moma	-12.1691
risd	-12.1691
for	-12.1692
▁champion	-12.1692
▁patien	-12.1704
▁duty	-12.1705
▁pip	-12.1716
▁sal	-12.1719
▁inefficient	-12.1726
cca	-12.1731
predictabl	-12.1731
600	-12.1731
▁chad	-12.1731
▁coma	-12.1732
▁fred	-12.1739
▁jordan	-12.1742
▁grad	-12.1747
va	-12.1756
▁hotte	-12.1758
▁reinventing	-12.176
▁moist	-12.1772
▁ruler	-12.1776
▁crust	-12.1777
▁arc	-12.1777
▁tan	-12.178
tune	-12.1781
▁53	-12.1789
▁gyr	-12.1792
▁tur	-12.1795
▁uninten	-12.1819
far	-12.182
kay	-12.1822
▁hive	-12.1831
eye	-12.1836
▁tinie	-12.1842
scope	-12.1849
▁bali	-12.1849
▁replicat	-12.185
▁pu	-12.1861
▁forty	-12.1889
▁specializ	-12.189
ions	-12.1894
▁secondar	-12.1894
▁interfere	-12.1895
▁collaborat	-12.1896
▁neo	-12.1901
ka	-12.191
▁900	-12.193
ax	-12.1931
▁chap	-12.1943
▁carol	-12.1951
▁paralyze	-12.1955
▁perceiv	-12.1968
▁colon	-12.197
-2	-12.1989
▁individually	-12.1996
▁basin	-12.2007
▁ec	-12.2012
▁tenth	-12.2013
▁evaporate	-12.2017
▁shade	-12.2019
▁hud	-12.2025
active	-12.2028
▁specialize	-12.2028
▁mai	-12.2036
▁explorers	-12.2041
▁buyer	-12.2043
ima	-12.2043
breaking	-12.2043
di	-12.2051
meter	-12.2055
rapped	-12.206
▁oppose	-12.2062
▁gu	-12.2065
▁aunt	-12.2066
▁187	-12.2068
▁articulate	-12.2076
rg	-12.2079
culture	-12.2088
▁bid	-12.209
▁orient	-12.209
cultural	-12.2094
orient	-12.2098
▁outline	-12.2098
▁invade	-12.2098
▁believer	-12.2102
brain	-12.2104
percent	-12.2105
weight	-12.2105
specific	-12.2107
lie	-12.2108
▁dunes	-12.2111
▁requir	-12.2111
▁partial	-12.2113
▁rub	-12.2114
▁atmospher	-12.2126
▁skip	-12.2136
▁retail	-12.2138
aking	-12.2138
▁consult	-12.214
razine	-12.2144
▁stigma	-12.2146
▁shir	-12.2146
▁existential	-12.2147
▁copernic	-12.2147
▁odysse	-12.2147
▁astrolabe	-12.2147
▁captcha	-12.2147
▁ceramic	-12.2147
▁christoph	-12.2147
▁hypothetical	-12.2147
▁ingenuity	-12.2147
▁katrina	-12.2147
▁lithium	-12.2147
▁pedestrian	-12.2147
▁pragmati	-12.2147
▁satisfie	-12.2147
▁subsequent	-12.2147
▁surrender	-12.2147
▁relevanc	-12.2147
▁snapshot	-12.2147
▁biomimic	-12.2147
▁unacceptabl	-12.2147
▁caregiver	-12.2147
▁administrator	-12.2147
▁exceed	-12.2147
▁quantitative	-12.2147
▁pepsi	-12.2147
▁serotonin	-12.2147
▁carcinogen	-12.2147
▁cobra	-12.2147
▁lawsuit	-12.2147
▁distill	-12.2148
▁discard	-12.2148
▁supplement	-12.2148
▁rectangle	-12.2148
▁supercomputer	-12.2148
▁counterpart	-12.2148
▁blanket	-12.2148
rizon	-12.2148
▁pedal	-12.2148
▁assessment	-12.2148
▁mantis	-12.2149
▁urgent	-12.2149
▁verge	-12.2149
▁warehouse	-12.2149
▁degradation	-12.2149
▁shortcut	-12.215
▁rediscover	-12.215
ulosi	-12.2151
barack	-12.2151
▁packet	-12.2151
▁cement	-12.2151
▁austria	-12.2152
▁distraction	-12.2152
▁communal	-12.2155
▁audaci	-12.2156
▁vanish	-12.2157
▁gaze	-12.2157
▁ballet	-12.2162
▁140	-12.2164
▁erotic	-12.2166
▁envision	-12.2166
▁algebra	-12.2166
▁arithmetic	-12.2166
▁straw	-12.2166
▁immortal	-12.2166
▁shave	-12.2167
▁finite	-12.2167
▁merge	-12.2169
▁physiological	-12.2169
ep	-12.217
▁191	-12.2171
▁centi	-12.2176
▁popp	-12.2177
manda	-12.2177
▁swear	-12.2179
11	-12.2185
engineering	-12.2186
▁clon	-12.219
▁sri	-12.2192
▁57	-12.2195
▁poly	-12.2198
▁commerc	-12.2199
▁scatter	-12.2199
live	-12.2217
▁steward	-12.2217
ag	-12.2219
▁tips	-12.2221
▁bark	-12.2222
▁builder	-12.2223
▁revolutionar	-12.2226
▁legitimate	-12.2231
▁humbl	-12.2231
▁jacket	-12.2234
▁erase	-12.2239
▁chin	-12.2246
mo	-12.2249
▁corners	-12.2266
▁collar	-12.2268
▁cru	-12.2272
▁industrialize	-12.2274
▁carbonate	-12.2274
▁consol	-12.2274
ani	-12.2275
▁0.	-12.2287
dg	-12.2289
▁bald	-12.229
▁disgusting	-12.2305
▁forger	-12.2314
▁booth	-12.2315
▁mund	-12.232
▁explorer	-12.2324
▁slipp	-12.2325
▁ecsta	-12.2336
▁qualifie	-12.2337
▁montan	-12.2341
estone	-12.2345
▁storms	-12.2361
▁beard	-12.2375
see	-12.2385
ni	-12.2386
omb	-12.2387
hama	-12.239
▁amaze	-12.2398
▁sank	-12.24
▁pore	-12.2401
▁mau	-12.2408
tta	-12.2414
▁emba	-12.2415
▁commentar	-12.2416
▁jumps	-12.242
▁midst	-12.2436
▁gam	-12.2442
▁radioactiv	-12.2443
▁mon	-12.2447
▁balanc	-12.2448
▁causal	-12.2453
▁kar	-12.2454
▁fi	-12.2457
▁sober	-12.2467
▁bu	-12.2475
sperm	-12.2475
▁gentl	-12.2489
ake	-12.2492
▁mite	-12.2496
▁cultivate	-12.2502
av	-12.2503
▁harvesting	-12.2505
rief	-12.2512
ica	-12.2512
tude	-12.2522
uspicious	-12.2545
▁notation	-12.2546
▁heroin	-12.2547
iest	-12.2547
yves	-12.2557
▁visualiz	-12.2561
▁kin	-12.2564
controlle	-12.2565
ridge	-12.2566
▁earning	-12.2569
▁northeast	-12.2574
eka	-12.2581
▁maximize	-12.2581
▁185	-12.2583
▁initiate	-12.2585
▁44	-12.2595
▁thinker	-12.2606
▁stat	-12.2608
akota	-12.2614
▁drown	-12.2615
▁sill	-12.2629
▁slot	-12.2631
▁periodic	-12.2644
▁roy	-12.2646
▁qa	-12.2647
▁emil	-12.2653
odd	-12.2658
▁plato	-12.2662
brew	-12.2666
▁flush	-12.2667
▁julia	-12.267
▁rains	-12.2676
▁trek	-12.2687
▁kidnapp	-12.2687
polar	-12.2688
front	-12.2689
▁fundrais	-12.2692
field	-12.2692
spread	-12.2692
quarter	-12.2694
fashion	-12.2695
patient	-12.2695
government	-12.2696
bound	-12.2696
species	-12.2696
green	-12.2697
global	-12.2697
economic	-12.2698
▁absurd	-12.2699
▁chick	-12.2701
▁excerpt	-12.2703
▁exhilarat	-12.2703
▁jealous	-12.2703
▁opponent	-12.2703
▁orleans	-12.2703
▁sydney	-12.2703
▁tempest	-12.2703
▁windmill	-12.2703
▁balcon	-12.2703
▁cumulative	-12.2703
▁millisecond	-12.2703
▁testimon	-12.2703
▁monopol	-12.2703
▁vibran	-12.2703
esteem	-12.2703
▁biomaterial	-12.2703
▁plague	-12.2703
▁prevail	-12.2703
▁humpback	-12.2703
▁venus	-12.2703
▁imbalance	-12.2703
▁interference	-12.2703
▁facult	-12.2703
▁multiverse	-12.2703
▁gehr	-12.2703
▁gamma	-12.2703
▁rigorous	-12.2703
▁quark	-12.2703
▁senator	-12.2703
▁palace	-12.2703
▁ivory	-12.2703
▁headphone	-12.2703
▁hurry	-12.2703
▁landfill	-12.2704
transcendence	-12.2704
▁dreadful	-12.2704
▁nuance	-12.2704
▁tidy	-12.2704
▁simulator	-12.2704
▁boson	-12.2704
▁coch	-12.2704
▁mahmo	-12.2704
▁fingertip	-12.2704
▁microwave	-12.2705
▁servant	-12.2705
▁cinema	-12.2705
▁swamp	-12.2705
▁timber	-12.2706
▁therapist	-12.2707
▁navigation	-12.2708
▁galo	-12.2708
▁fond	-12.2708
▁accelerator	-12.2708
leg	-12.2709
▁1982	-12.2709
▁beekeeper	-12.271
▁gaga	-12.2711
▁nomad	-12.2711
▁guideline	-12.2711
▁contributor	-12.2711
▁cameron	-12.2712
▁ap	-12.2712
laughter	-12.2713
▁merc	-12.2713
▁islamist	-12.2715
▁adviser	-12.2716
▁ninety	-12.2717
▁sculpt	-12.2722
▁bitter	-12.2723
▁embark	-12.2723
▁sulfide	-12.2723
▁mason	-12.2724
▁spills	-12.2725
▁moz	-12.2726
rsw	-12.2727
▁reptile	-12.2728
▁manipulat	-12.2729
▁invasion	-12.273
▁stressed	-12.273
▁salad	-12.2735
▁conception	-12.2736
owing	-12.2737
▁dece	-12.2739
▁geneticist	-12.2742
tive	-12.2743
▁enthusiastic	-12.2744
▁intel	-12.2744
▁geological	-12.2746
▁sponge	-12.2747
▁pale	-12.2748
▁matern	-12.2749
▁experimentation	-12.275
▁rib	-12.2752
jill	-12.2753
▁carrier	-12.2757
▁caps	-12.2757
ue	-12.2758
▁ramp	-12.2759
ade	-12.276
▁tapestr	-12.2762
gill	-12.2764
security	-12.2764
▁inmates	-12.2768
atory	-12.2785
▁sanitar	-12.2788
▁correction	-12.2788
▁mandate	-12.279
▁boomer	-12.2792
▁drowning	-12.2792
ran	-12.2793
▁entitle	-12.2793
▁apprentice	-12.2794
▁kare	-12.2798
▁juan	-12.2799
▁diffuse	-12.2802
▁beau	-12.2803
▁nonviolen	-12.2806
apped	-12.2807
▁bc	-12.2809
▁cooler	-12.281
▁constitute	-12.2815
▁submitt	-12.2819
rane	-12.2819
ette	-12.2825
▁aero	-12.2834
▁pur	-12.2836
▁dictator	-12.2842
▁tablet	-12.2845
▁complaint	-12.2851
▁chuck	-12.2854
▁sock	-12.2856
▁femini	-12.286
▁destructive	-12.2866
▁evident	-12.2867
▁ash	-12.2869
▁crow	-12.287
if	-12.2872
▁40-	-12.2873
▁mastery	-12.2873
▁ar	-12.2874
▁volt	-12.2876
▁intangible	-12.2877
▁3.	-12.2877
ap	-12.2878
▁lure	-12.2883
maker	-12.2893
mi	-12.2897
waves	-12.2908
▁gal	-12.2912
▁experimenter	-12.2917
tification	-12.2918
▁synchronize	-12.292
▁blessing	-12.2931
nze	-12.2934
▁warfar	-12.2936
▁exceptional	-12.2944
▁reactors	-12.2948
chester	-12.2948
▁rider	-12.296
▁buzz	-12.2963
▁contemplat	-12.2965
▁companion	-12.2966
▁lense	-12.2971
▁intra	-12.2989
▁economical	-12.2996
▁accumulat	-12.2998
▁dip	-12.3004
▁canal	-12.3008
▁altruis	-12.3012
▁ram	-12.3022
iful	-12.3025
ating	-12.3029
▁tin	-12.303
▁mob	-12.3033
▁mos	-12.3037
tha	-12.3037
▁tables	-12.3043
▁eu	-12.3046
▁damag	-12.3055
▁refine	-12.3059
▁kep	-12.3072
▁charg	-12.3073
▁nichol	-12.3076
▁sands	-12.3085
▁mathematically	-12.3087
▁rage	-12.3095
▁auditor	-12.3098
then	-12.3107
▁rem	-12.3107
▁scholars	-12.3113
▁belonging	-12.3131
edge	-12.3133
hc	-12.3136
industrial	-12.3138
zo	-12.3139
▁bombing	-12.3141
aten	-12.3141
▁differentiate	-12.3146
▁seri	-12.3147
▁accompanie	-12.3151
▁bandw	-12.3165
▁publicly	-12.3174
sighted	-12.3178
▁emit	-12.3186
ivan	-12.3186
▁kh	-12.3186
efficient	-12.3188
▁laborator	-12.319
ft	-12.3199
▁arter	-12.3201
▁romo	-12.3202
▁110	-12.3215
▁meditati	-12.322
ngest	-12.322
▁convergen	-12.3224
▁rut	-12.3226
▁liv	-12.3229
shot	-12.3231
engineer	-12.3232
▁beg	-12.324
lisa	-12.3241
kin	-12.3244
▁barbar	-12.3245
zk	-12.3248
▁hatch	-12.3251
offs	-12.3257
witz	-12.3262
▁socio	-12.3262
ro	-12.3263
hrir	-12.3264
▁sympath	-12.3266
▁southeast	-12.3267
▁southwest	-12.3272
▁vega	-12.3274
tine	-12.328
▁tactic	-12.328
▁cite	-12.3282
▁whip	-12.3286
▁gifted	-12.3286
▁synthesi	-12.3287
▁trauma	-12.3287
ambiguous	-12.3289
▁compass	-12.329
▁jenni	-12.329
▁quiz	-12.329
▁cardio	-12.329
▁violin	-12.3291
▁triumph	-12.3291
▁mum	-12.3291
▁accommodate	-12.3291
▁aerodynamic	-12.3291
▁antidote	-12.3291
▁epiphan	-12.3291
▁extrovert	-12.3291
▁hominid	-12.3291
▁mermaid	-12.3291
▁prejudice	-12.3291
▁treadmill	-12.3291
▁unnecessar	-12.3291
▁crochet	-12.3291
▁energetic	-12.3291
▁implicit	-12.3291
▁ingenious	-12.3291
▁rouge	-12.3291
▁spawn	-12.3291
▁thorough	-12.3291
▁turbine	-12.3291
▁curtain	-12.3291
▁goliath	-12.3291
▁suspens	-12.3291
▁wreck	-12.3291
▁zambia	-12.3291
fifteen	-12.3291
▁plaque	-12.3291
▁tornado	-12.3291
▁resort	-12.3291
▁cereal	-12.3291
▁bookstore	-12.3291
▁telecom	-12.3291
▁fraud	-12.3291
▁pinpoint	-12.3291
▁unsustainabl	-12.3292
▁scripture	-12.3292
▁1940	-12.3292
▁skype	-12.3292
▁sociologist	-12.3292
▁marble	-12.3292
▁shoreline	-12.3292
▁pension	-12.3292
▁pianist	-12.3292
▁tweak	-12.3292
▁imitation	-12.3293
word	-12.3293
▁flags	-12.3293
▁temptation	-12.3294
▁insult	-12.3294
▁bioluminescen	-12.3294
▁forgiveness	-12.3294
▁peek	-12.3294
▁exclude	-12.3295
▁reckless	-12.3295
▁announcement	-12.3295
▁knob	-12.3295
▁aisle	-12.3296
▁kings	-12.3296
▁hyperbolic	-12.3298
▁weakness	-12.3299
▁lyric	-12.3299
adequate	-12.3302
▁cair	-12.3303
cumen	-12.3303
section	-12.3305
hou	-12.3306
▁rotation	-12.3306
▁analytical	-12.3307
▁payoff	-12.3307
▁thou	-12.3309
▁shortage	-12.3309
▁saddle	-12.3311
▁paradoxical	-12.3311
▁teapot	-12.3312
▁hectare	-12.3312
▁responsive	-12.3312
▁rupee	-12.3312
▁turkish	-12.3313
▁1800	-12.3313
piece	-12.3315
▁simplistic	-12.3316
▁lightweight	-12.3316
▁praise	-12.3316
▁cruise	-12.3318
▁sword	-12.3318
great	-12.3318
▁avatar	-12.3319
▁marketer	-12.332
week	-12.332
market	-12.3321
square	-12.3321
▁propulsi	-12.3321
▁rott	-12.3321
rock	-12.3324
ung	-12.3324
growth	-12.3325
rial	-12.3325
finish	-12.3326
▁awaken	-12.3326
▁invad	-12.3326
sterda	-12.3328
stein	-12.333
▁commander	-12.333
▁83	-12.3334
▁firefl	-12.3338
grain	-12.3338
dam	-12.334
▁wil	-12.3341
home	-12.3341
linear	-12.3343
▁pup	-12.3347
▁megawatt	-12.335
fred	-12.3357
▁bully	-12.3362
▁uprising	-12.3362
▁gha	-12.3363
▁intimidat	-12.3365
▁kam	-12.3368
▁irrigati	-12.3372
▁vein	-12.3373
▁restor	-12.3374
wick	-12.3377
peer	-12.3382
▁certifi	-12.3386
▁herbi	-12.3388
juan	-12.3391
hearted	-12.34
archie	-12.3404
▁originate	-12.3413
▁wilder	-12.3414
▁73	-12.3421
▁93	-12.3422
▁mobilize	-12.3423
▁paw	-12.3426
▁euros	-12.343
▁grove	-12.3438
▁taboo	-12.3439
▁reconcile	-12.3445
▁cou	-12.3445
rin	-12.3451
af	-12.3464
▁personalize	-12.3464
▁bladder	-12.3465
ura	-12.3468
▁hazard	-12.3469
pp	-12.347
▁bonobo	-12.3471
▁scholar	-12.3472
▁mello	-12.3475
▁kenyan	-12.349
▁fisc	-12.3494
▁pra	-12.3496
top	-12.3503
ou	-12.3507
win	-12.3509
▁marsha	-12.3522
▁lous	-12.3525
▁medi	-12.3529
▁usage	-12.3545
▁nam	-12.3546
▁photon	-12.3551
tts	-12.3555
bai	-12.357
eval	-12.3575
▁gr	-12.3579
▁supporti	-12.3603
ola	-12.3616
ulu	-12.3617
oid	-12.3621
▁moss	-12.3629
▁widen	-12.3629
▁bots	-12.3641
ford	-12.3642
▁cel	-12.3648
structure	-12.3653
hmer	-12.3653
▁sketche	-12.3658
saw	-12.3665
▁iraqi	-12.3668
▁spit	-12.3668
ell	-12.3678
▁sag	-12.3681
▁simulat	-12.3681
▁ark	-12.3682
bad	-12.3702
uck	-12.3706
ama	-12.3706
▁va	-12.3709
▁bp	-12.3711
tivity	-12.3714
▁unt	-12.372
▁pal	-12.3724
ites	-12.3726
▁photographic	-12.3728
▁degrade	-12.374
▁suite	-12.3748
moor	-12.3753
▁purchas	-12.3758
▁psyche	-12.376
ibo	-12.376
ending	-12.3779
▁crowds	-12.3781
lves	-12.3784
▁sus	-12.3785
▁tenne	-12.3792
rageous	-12.3793
▁plott	-12.3796
▁synchron	-12.3809
▁destin	-12.3813
▁stain	-12.3824
▁disappoint	-12.3825
▁mash	-12.3828
▁capacit	-12.3836
▁geometric	-12.3843
vinci	-12.3847
▁echo	-12.3849
▁greed	-12.385
▁hypothes	-12.3851
▁fleet	-12.3854
▁chari	-12.3856
▁intentional	-12.3856
▁diver	-12.3857
▁bake	-12.3861
▁modes	-12.3879
cc	-12.3879
▁mic	-12.3881
▁tack	-12.3887
▁reconcili	-12.3887
▁patric	-12.389
▁surge	-12.3894
istan	-12.39
▁snap	-12.3904
▁zin	-12.3909
▁fl	-12.391
▁offshor	-12.3915
bertie	-12.3915
▁reflex	-12.3916
europa	-12.3916
▁intellect	-12.3916
▁ambulance	-12.3916
▁cowboy	-12.3916
▁estrogen	-12.3916
▁fierce	-12.3916
▁hiroshi	-12.3916
▁inferior	-12.3916
▁marshmallow	-12.3916
▁miraculous	-12.3916
▁pavilion	-12.3916
▁perceptual	-12.3916
▁practitioner	-12.3916
▁squirrel	-12.3916
▁hummingbird	-12.3916
▁staple	-12.3916
▁epilep	-12.3916
▁hyena	-12.3916
▁oregon	-12.3916
▁venue	-12.3916
▁reperto	-12.3916
▁elusive	-12.3916
▁maggot	-12.3916
▁nanotube	-12.3916
▁honeybee	-12.3916
▁unimaginabl	-12.3916
▁hydrocarbon	-12.3916
▁adjacen	-12.3916
▁tribute	-12.3916
▁premature	-12.3916
▁provision	-12.3916
▁rainbow	-12.3916
▁sprawl	-12.3916
▁appointment	-12.3916
▁hollow	-12.3916
▁monarch	-12.3916
▁battlefield	-12.3916
▁persistent	-12.3916
▁archimedes	-12.3916
▁rooftop	-12.3916
▁fungus	-12.3916
▁excessive	-12.3916
▁obey	-12.3916
▁conspirac	-12.3916
▁buffet	-12.3917
▁decisive	-12.3917
▁draft	-12.3917
▁revolt	-12.3917
▁costume	-12.3917
▁facade	-12.3917
▁wiki	-12.3917
▁brainstorm	-12.3917
▁extremist	-12.3917
▁eames	-12.3917
▁collage	-12.3917
rift	-12.3917
▁portray	-12.3917
▁ecologist	-12.3917
▁advertisement	-12.3918
▁dividend	-12.3918
▁ahmed	-12.3918
▁trustworth	-12.3918
▁railway	-12.3918
▁champa	-12.3918
▁kamen	-12.3918
▁pigmentation	-12.3919
▁stefan	-12.3919
▁kitten	-12.3919
▁latitude	-12.3919
▁tolerate	-12.392
▁fascination	-12.3921
▁accomplishment	-12.3922
▁deployment	-12.3922
▁cab	-12.3922
▁anomal	-12.3922
▁tailor	-12.3923
▁sciss	-12.3923
▁waterfall	-12.3923
▁liar	-12.3923
▁clap	-12.3923
▁charisma	-12.3924
▁spore	-12.3924
▁graceful	-12.3924
▁somalia	-12.3925
▁achill	-12.3925
▁tuck	-12.3925
▁zip	-12.3926
▁wetland	-12.3926
▁sack	-12.3927
awkins	-12.3927
touch	-12.3928
▁hike	-12.393
wana	-12.3931
ogue	-12.3931
▁reply	-12.3931
▁automo	-12.3932
galactic	-12.3932
▁inflate	-12.3932
homa	-12.3934
▁victorian	-12.3935
▁flare	-12.3936
▁seren	-12.3936
▁slipper	-12.3937
▁activat	-12.3937
▁clark	-12.3938
▁cradle	-12.3939
▁photoshop	-12.3939
▁michel	-12.3943
▁warmth	-12.3944
▁restriction	-12.3945
lage	-12.3946
▁flatten	-12.3947
▁gaz	-12.395
two	-12.3951
han	-12.3958
▁freeway	-12.3958
liberation	-12.3961
▁laur	-12.3961
▁employer	-12.3963
perform	-12.3963
▁defect	-12.3968
ite	-12.3973
▁accountant	-12.3973
cuba	-12.3975
▁mimick	-12.3977
▁decipher	-12.3978
▁throat	-12.3979
▁twentie	-12.3979
▁groom	-12.3979
▁patriot	-12.3981
large	-12.3981
health	-12.3981
▁prosthes	-12.3982
▁bleeding	-12.3982
▁pissed	-12.3983
pit	-12.3984
▁charming	-12.3988
daf	-12.3992
▁gall	-12.3995
brush	-12.3996
▁erik	-12.4001
▁lip	-12.4002
▁keys	-12.4006
▁brin	-12.4008
convenient	-12.4009
acre	-12.4012
▁swo	-12.4013
▁cur	-12.4014
rank	-12.4015
▁harris	-12.4017
▁turk	-12.4018
▁nanometer	-12.4019
▁methodolog	-12.402
▁boyfriend	-12.402
▁popped	-12.4021
▁competent	-12.4022
▁diplomatic	-12.4022
▁coherent	-12.4024
▁brook	-12.4028
skies	-12.4028
risk	-12.403
▁duration	-12.4034
▁surfing	-12.4034
▁nitr	-12.4036
▁preferr	-12.4042
▁poetic	-12.4054
star	-12.4056
spen	-12.406
▁diminish	-12.4065
▁liberate	-12.4066
▁vaccinate	-12.4075
bao	-12.4078
▁russe	-12.4082
▁soda	-12.4086
hip	-12.409
▁porc	-12.4093
▁irrelevan	-12.4093
▁hu	-12.4097
▁ador	-12.4105
bone	-12.4107
▁reflectiv	-12.4108
▁minimize	-12.411
▁estimat	-12.4112
shar	-12.4119
gne	-12.4128
▁rotte	-12.4137
▁seasonal	-12.4138
▁outdoor	-12.414
posed	-12.4142
▁tun	-12.4168
die	-12.4173
▁uni	-12.4174
▁sling	-12.4187
▁78	-12.419
erence	-12.4196
▁nazi	-12.4198
▁prostitute	-12.4203
▁startup	-12.4203
▁nurs	-12.4208
▁corresponding	-12.4211
sio	-12.4212
▁contemplate	-12.4215
▁mentors	-12.4217
▁kan	-12.4225
▁tel	-12.4225
▁gamer	-12.4241
▁robin	-12.4243
▁wool	-12.4251
▁focuse	-12.4257
▁reinforce	-12.4258
aque	-12.4259
alo	-12.4265
ff	-12.4266
▁erupt	-12.428
▁accus	-12.4284
▁whiske	-12.4298
▁mediate	-12.4305
▁learner	-12.4311
gatherer	-12.4319
▁evaluat	-12.4323
hem	-12.4326
iff	-12.4327
▁needless	-12.4337
van	-12.4343
▁160	-12.435
▁ridicule	-12.4363
▁mach	-12.4364
▁pickle	-12.4369
▁bonobos	-12.4382
hili	-12.4395
▁possess	-12.4398
▁resembl	-12.4399
evel	-12.4401
▁anton	-12.4413
rex	-12.4414
argon	-12.4419
▁imitat	-12.4425
▁euro	-12.4427
▁mop	-12.443
▁50-	-12.4436
▁increment	-12.4444
▁bern	-12.4446
convenience	-12.4457
▁para	-12.4458
▁mobiliz	-12.4464
▁cub	-12.4466
▁facilitate	-12.4467
▁curl	-12.4477
qa	-12.4493
▁obscure	-12.4494
▁hom	-12.4507
▁graf	-12.4508
▁cock	-12.4518
wing	-12.4523
fiti	-12.4528
sumabl	-12.4535
▁av	-12.4536
▁360	-12.4538
are	-12.4543
▁blam	-12.4545
riving	-12.4547
eith	-12.4551
parate	-12.4552
▁collide	-12.4552
ubun	-12.4559
▁optimist	-12.4568
▁pessimist	-12.4571
▁influenc	-12.4572
▁galva	-12.4576
proving	-12.4579
pack	-12.4579
▁flex	-12.458
▁adore	-12.4581
▁strap	-12.4581
jazeera	-12.4583
▁bumblebee	-12.4583
▁fountain	-12.4583
▁kurzweil	-12.4583
▁mockingbird	-12.4583
▁monologue	-12.4583
▁nevada	-12.4583
▁orangutan	-12.4583
▁picasso	-12.4583
▁fission	-12.4583
▁cucumber	-12.4583
▁paragraph	-12.4583
▁snack	-12.4583
▁wizard	-12.4583
fahren	-12.4583
▁immoral	-12.4583
▁coalition	-12.4583
▁hijack	-12.4583
▁discount	-12.4583
▁matthew	-12.4583
▁napkin	-12.4583
▁dominance	-12.4583
▁pediatrician	-12.4583
▁eyebrow	-12.4583
▁atheism	-12.4583
▁interval	-12.4583
▁schwarz	-12.4583
▁imaginative	-12.4583
▁uranium	-12.4583
▁prevalent	-12.4583
▁mound	-12.4583
▁elastic	-12.4583
▁fingerprint	-12.4583
▁comedian	-12.4583
▁paintbrush	-12.4583
▁blunt	-12.4583
▁refresh	-12.4583
▁stink	-12.4583
▁nanoscale	-12.4584
▁sniff	-12.4584
▁spectroscop	-12.4584
▁clash	-12.4584
▁parade	-12.4584
viation	-12.4584
▁geologist	-12.4584
eanor	-12.4584
▁haunt	-12.4584
▁passport	-12.4584
▁shah	-12.4585
▁schizophrenic	-12.4585
▁shuttle	-12.4585
▁accumulation	-12.4585
▁decoration	-12.4586
▁carpenter	-12.4586
▁uncover	-12.4586
▁uplift	-12.4586
▁cabin	-12.4586
▁unrelated	-12.4586
▁delightful	-12.4587
leuk	-12.4587
▁bride	-12.4587
ikea	-12.4587
▁unequal	-12.4588
▁queer	-12.4588
▁strive	-12.4588
▁confusion	-12.4589
▁converge	-12.4589
▁multitask	-12.459
▁prick	-12.4591
▁plumb	-12.4592
emost	-12.4592
▁livelihood	-12.4593
▁miller	-12.4593
▁promotion	-12.4593
▁armor	-12.4595
▁newborn	-12.4596
▁siege	-12.4598
▁bricks	-12.4598
▁backpack	-12.4598
▁portal	-12.4598
▁forager	-12.4598
▁wav	-12.46
▁cb	-12.4601
ascar	-12.4601
▁slash	-12.4602
▁atlas	-12.4602
▁mindful	-12.4603
▁roughness	-12.4603
almon	-12.4606
▁identification	-12.4607
▁hippie	-12.4607
▁vegetarian	-12.4607
▁assault	-12.4607
▁propell	-12.4609
▁innate	-12.4609
▁fearless	-12.461
▁packing	-12.461
hran	-12.4612
▁vel	-12.4612
▁fatty	-12.4615
kahn	-12.462
▁seque	-12.4621
▁publishe	-12.4625
▁renew	-12.4626
▁maria	-12.4627
▁ascend	-12.4628
▁toast	-12.4628
nki	-12.4629
mf	-12.4632
▁yemeni	-12.4633
▁communist	-12.4641
▁heap	-12.4644
▁differential	-12.4644
▁module	-12.4644
▁allen	-12.4647
▁juda	-12.4647
▁compatib	-12.4647
▁cheek	-12.465
▁gree	-12.465
▁loyalt	-12.465
▁grandma	-12.4652
▁murderer	-12.4655
crony	-12.4656
grader	-12.4656
▁nutritional	-12.4658
▁easter	-12.4663
▁cult	-12.467
venge	-12.4673
▁rode	-12.4674
▁objection	-12.4676
▁bent	-12.4676
▁assess	-12.4679
▁plank	-12.4679
▁ranger	-12.468
▁pneumo	-12.4685
▁swam	-12.4686
▁penic	-12.4686
lasting	-12.469
▁deceive	-12.4692
▁auction	-12.4695
screen	-12.4696
▁judg	-12.4699
resolution	-12.4701
birth	-12.4702
▁levin	-12.4702
carbon	-12.4702
safe	-12.4703
fund	-12.4707
shine	-12.4707
ennis	-12.4707
eight	-12.4708
centric	-12.471
▁considerabl	-12.471
clean	-12.4714
▁modifi	-12.4716
card	-12.4716
▁outrage	-12.4717
▁feasib	-12.4719
organization	-12.4737
▁beaver	-12.4739
▁expo	-12.4741
type	-12.4741
▁initiat	-12.4741
▁whistles	-12.4746
▁1.7	-12.4746
shore	-12.4748
400	-12.4748
cepti	-12.475
▁stripe	-12.4751
▁gb	-12.4754
▁villager	-12.4771
▁alarming	-12.4773
▁indicat	-12.4775
rit	-12.4775
▁planner	-12.4775
▁abnormal	-12.478
horn	-12.4786
▁behav	-12.4787
ery	-12.4793
jan	-12.4794
▁uv	-12.4801
▁pac	-12.4805
erty	-12.4808
▁aura	-12.4808
ries	-12.4816
▁trac	-12.4818
▁buck	-12.4824
▁morph	-12.483
▁ali	-12.4831
obi	-12.484
▁rot	-12.484
▁chatt	-12.4845
lbert	-12.4845
▁prehistor	-12.4848
▁copi	-12.4848
▁reliev	-12.485
▁teens	-12.4859
▁41	-12.4859
▁refrigerat	-12.4861
western	-12.4863
▁replica	-12.4864
ncy	-12.4872
▁chill	-12.4873
▁der	-12.4877
ay	-12.4878
▁haul	-12.488
▁gand	-12.4884
▁84	-12.4886
▁mystic	-12.4891
▁nun	-12.4891
urgenc	-12.4892
▁kath	-12.4893
ight	-12.4899
▁participati	-12.4901
friend	-12.4902
▁poisoning	-12.4905
▁nudge	-12.4908
▁monet	-12.4911
▁oxide	-12.4917
▁epic	-12.4924
▁poo	-12.4924
dah	-12.4927
▁emission	-12.4937
▁compil	-12.4941
▁leo	-12.4946
room	-12.4946
▁prosper	-12.495
▁introverts	-12.4951
ith	-12.4956
▁signing	-12.4957
ja	-12.4961
▁refus	-12.4967
ez	-12.4969
edible	-12.4979
iger	-12.498
▁aime	-12.4983
▁ope	-12.4985
tten	-12.499
visually	-12.4991
▁margins	-12.4992
▁eighty	-12.4995
▁roos	-12.4999
hex	-12.5001
▁aquari	-12.5005
▁disable	-12.5011
ii	-12.5019
lateral	-12.5043
▁foam	-12.5045
▁dispers	-12.5046
▁dia	-12.5049
mer	-12.5052
ept	-12.5054
▁170	-12.5062
▁sneak	-12.507
ek	-12.507
aker	-12.5082
ieu	-12.5087
lix	-12.5098
▁oppress	-12.5107
▁provoke	-12.5113
▁revolutionize	-12.5121
▁multipli	-12.5124
▁aspire	-12.5126
pped	-12.5131
▁permit	-12.5135
▁rhetoric	-12.5138
▁examin	-12.5162
▁cellulos	-12.5162
oga	-12.5164
▁doodle	-12.5181
▁circulat	-12.5184
xon	-12.5186
▁listener	-12.5189
▁reuse	-12.5197
▁mott	-12.522
▁gangs	-12.523
▁natal	-12.5236
▁racis	-12.5245
▁prostitut	-12.5245
dad	-12.5248
reach	-12.525
▁inspect	-12.525
▁merg	-12.5272
wan	-12.5275
ence	-12.5276
illin	-12.5277
▁sentiment	-12.5277
▁spa	-12.5278
▁shal	-12.5283
▁greg	-12.5285
▁occupie	-12.5286
plan	-12.5289
chai	-12.5289
▁emphasi	-12.5292
▁savanna	-12.5294
▁dissect	-12.5295
sippi	-12.5296
▁oblivio	-12.5297
▁unravel	-12.5297
)	-12.5297
▁cafeteria	-12.5297
▁leisure	-12.5297
▁lucifer	-12.5297
▁merchant	-12.5297
▁quantify	-12.5297
▁repositor	-12.5297
▁squirt	-12.5297
▁verify	-12.5297
▁disparit	-12.5297
▁embryonic	-12.5297
▁lawrence	-12.5297
▁maslow	-12.5297
▁simplify	-12.5297
▁imprison	-12.5297
▁microprocessor	-12.5297
▁crease	-12.5297
▁sensual	-12.5297
▁ballast	-12.5297
▁prestig	-12.5297
▁stakeholder	-12.5297
▁pixel	-12.5297
▁antidepressant	-12.5297
▁sabbatical	-12.5297
▁denominator	-12.5297
▁concussion	-12.5297
▁sequester	-12.5297
▁cherish	-12.5297
▁affluen	-12.5297
▁antiretroviral	-12.5297
▁ezra	-12.5297
▁churn	-12.5297
▁subconscious	-12.5297
▁bleach	-12.5297
▁comparative	-12.5297
▁74	-12.5297
▁savage	-12.5297
▁dictatorship	-12.5297
▁extremism	-12.5297
▁vienn	-12.5297
▁glance	-12.5297
▁asphalt	-12.5298
▁frack	-12.5298
▁immigrat	-12.5298
▁crises	-12.5298
▁nonverbal	-12.5298
▁pluto	-12.5298
▁reproductive	-12.5298
elecommunication	-12.5298
▁exile	-12.5298
▁glenn	-12.5298
▁modular	-12.5298
▁cynic	-12.5298
▁reception	-12.5298
▁constructive	-12.5299
▁latter	-12.5299
▁violation	-12.5299
▁fringe	-12.5299
▁payload	-12.5299
▁hanna	-12.5299
▁appetite	-12.5299
▁dragline	-12.5299
▁squatter	-12.53
▁burger	-12.53
▁lexico	-12.53
▁laz	-12.5301
▁motivator	-12.5301
▁saul	-12.5301
▁karl	-12.5302
▁browse	-12.5302
▁reluctant	-12.5302
▁recommendation	-12.5303
▁troll	-12.5304
▁voyager	-12.5305
ky	-12.5305
▁establishment	-12.5305
▁medal	-12.5306
▁novelist	-12.5306
▁impatient	-12.5306
▁persian	-12.5307
▁variant	-12.5307
▁daunting	-12.5307
▁hallway	-12.5307
▁limitless	-12.5307
▁nino	-12.5308
▁pastor	-12.5308
▁substitute	-12.5308
▁crane	-12.5308
▁illi	-12.5309
▁ddt	-12.5309
▁petal	-12.5309
▁stall	-12.531
erick	-12.5313
▁badge	-12.5315
▁coloniz	-12.5315
▁recreation	-12.5317
▁burk	-12.5318
▁luca	-12.5319
▁astounding	-12.532
▁dimitr	-12.532
verme	-12.5321
▁inappropriate	-12.5322
▁conform	-12.5322
▁flour	-12.5323
▁explosive	-12.5323
▁supernova	-12.5323
▁diffusion	-12.5323
▁fluorescent	-12.5323
▁juggler	-12.5324
▁radiologist	-12.5324
▁composite	-12.5324
▁spoil	-12.5325
▁inquiry	-12.5325
▁attain	-12.5326
▁eruption	-12.5326
▁expressive	-12.5326
▁cancel	-12.5328
read	-12.5328
▁crunch	-12.5329
▁dragon	-12.533
▁relational	-12.5331
▁embody	-12.5332
▁stripped	-12.5333
▁toaster	-12.5333
▁colli	-12.5336
▁naught	-12.5336
eur	-12.5337
▁anthropolog	-12.5337
▁burial	-12.5337
▁goldi	-12.5338
▁trawl	-12.5339
▁affection	-12.5345
▁commute	-12.5347
▁iteration	-12.535
▁banal	-12.536
▁dried	-12.5365
▁dementi	-12.5368
▁recipient	-12.5369
▁swa	-12.5372
▁sleeve	-12.5374
▁escalat	-12.5376
▁cling	-12.5377
▁defender	-12.5378
▁tipping	-12.5379
▁auro	-12.538
▁brigade	-12.5388
heid	-12.5388
▁idol	-12.5393
▁elegan	-12.5394
▁partially	-12.5394
▁thoughtful	-12.5395
▁folder	-12.5395
withstand	-12.5395
▁mahat	-12.5398
anzi	-12.5405
lapse	-12.5409
▁advertise	-12.541
▁blurr	-12.5412
▁confess	-12.5413
▁remembering	-12.5415
▁airb	-12.5416
▁halve	-12.5417
▁conserve	-12.542
saving	-12.5421
rgio	-12.5424
▁unexplo	-12.5425
▁coup	-12.5426
▁organizer	-12.544
200	-12.5441
jad	-12.5446
▁utiliz	-12.5449
▁cymatics	-12.5451
▁amuse	-12.5458
gue	-12.5458
▁pisa	-12.546
wandering	-12.5461
blown	-12.5462
walk	-12.5462
▁spectra	-12.5467
solv	-12.5467
usie	-12.5468
sensitive	-12.5469
energy	-12.547
degree	-12.547
▁weep	-12.547
machine	-12.547
billion	-12.5471
national	-12.5474
ington	-12.5474
resistan	-12.5475
ti	-12.5478
▁las	-12.5481
hole	-12.5481
▁classifi	-12.5484
▁accompani	-12.5491
kate	-12.5492
ways	-12.5498
inal	-12.5522
▁backup	-12.5526
▁bombers	-12.5526
ad	-12.553
▁uter	-12.553
nny	-12.5536
ache	-12.5538
▁ape	-12.5541
disciplinar	-12.5543
location	-12.5544
nyu	-12.5545
hey	-12.5547
▁miniatur	-12.5548
▁lymph	-12.5561
▁predictabl	-12.5565
▁margin	-12.5572
▁unchang	-12.5584
athan	-12.5587
▁shiny	-12.5588
▁prim	-12.5589
▁cello	-12.5592
▁seller	-12.5607
▁pine	-12.5612
▁bod	-12.563
▁westerner	-12.5633
▁q	-12.564
usa	-12.5645
itra	-12.5651
▁ya	-12.5654
▁plea	-12.5658
mbi	-12.5661
▁bart	-12.5663
ig	-12.5667
▁castle	-12.5668
-3	-12.5674
▁moderate	-12.5676
▁lands	-12.5677
▁marco	-12.5678
▁synthesiz	-12.5682
ong	-12.5691
▁hyde	-12.57
▁pollut	-12.57
▁discharge	-12.5702
▁stumble	-12.5703
▁redefin	-12.5703
▁mutilat	-12.5705
▁sala	-12.5707
▁visionar	-12.5708
▁algorithmic	-12.5709
▁curv	-12.571
lan	-12.571
environmentalist	-12.5717
▁invasive	-12.5721
mond	-12.5726
▁spott	-12.5728
▁vegetati	-12.5735
stick	-12.5737
▁starr	-12.5738
lah	-12.5745
elli	-12.5746
▁humane	-12.5749
▁mel	-12.5776
▁funder	-12.5776
▁inspirational	-12.5782
▁magni	-12.5798
▁bam	-12.5798
▁hay	-12.5804
zman	-12.5805
eric	-12.5807
▁4.	-12.5813
▁interdependenc	-12.5813
▁systemic	-12.582
▁rug	-12.5825
bert	-12.5826
▁meditat	-12.5855
ome	-12.5855
▁awards	-12.5857
▁rides	-12.5869
▁curate	-12.5872
▁cone	-12.588
nium	-12.5886
▁retrofit	-12.5904
▁starch	-12.5906
▁clarif	-12.5906
▁polls	-12.5922
▁thro	-12.5926
▁merit	-12.594
▁imitate	-12.5941
lee	-12.5948
▁mul	-12.5952
▁improvis	-12.5954
▁switche	-12.5954
▁qui	-12.5955
bot	-12.5958
▁lik	-12.5964
▁canary	-12.5967
▁blur	-12.597
▁aye	-12.5971
▁82	-12.5974
umar	-12.5974
▁runner	-12.5978
▁stunn	-12.5979
▁repli	-12.5985
gi	-12.5987
own	-12.5989
▁charm	-12.5995
lic	-12.5998
▁compliment	-12.5999
▁measurabl	-12.6004
▁186	-12.6009
▁fairy	-12.6011
urine	-12.6016
▁qatar	-12.603
ouver	-12.6035
▁lanka	-12.6037
nathan	-12.6041
▁petition	-12.6047
orta	-12.6049
▁acu	-12.6053
▁18-	-12.606
▁shack	-12.6064
▁rhino	-12.6064
▁deplet	-12.6064
incidence	-12.6065
abul	-12.6066
▁autobiograph	-12.6066
▁skyrocket	-12.6066
▁diabetic	-12.6066
▁embodiment	-12.6066
▁giraffe	-12.6066
▁gossip	-12.6066
▁gradient	-12.6066
▁niece	-12.6066
▁parrot	-12.6066
▁persuasive	-12.6066
▁pinnacle	-12.6066
▁plummet	-12.6066
▁sapien	-12.6066
▁twelve	-12.6066
▁buffalo	-12.6066
▁deconstruct	-12.6066
▁fracture	-12.6066
▁redundan	-12.6066
▁detergent	-12.6066
▁improbabl	-12.6066
▁negro	-12.6066
▁snob	-12.6066
▁cursor	-12.6066
▁enlist	-12.6066
▁absent	-12.6066
▁chimney	-12.6066
▁sanctuar	-12.6066
▁gridlock	-12.6066
▁jeep	-12.6066
▁sutherland	-12.6066
tanbu	-12.6066
▁valentine	-12.6066
▁fragrance	-12.6066
▁hirsh	-12.6066
▁paleontologist	-12.6066
▁subscribe	-12.6067
▁atrocit	-12.6067
▁mangrove	-12.6067
▁deceptive	-12.6067
▁boeing	-12.6067
▁martian	-12.6067
▁naj	-12.6067
▁championship	-12.6067
▁colombia	-12.6067
▁mainframe	-12.6067
▁scoop	-12.6067
▁audition	-12.6067
▁eeg	-12.6067
▁submission	-12.6067
▁handbag	-12.6067
▁rehearsal	-12.6067
▁subset	-12.6067
▁instructor	-12.6067
extraterrestrial	-12.6067
▁cor	-12.6067
▁bruise	-12.6068
▁hoop	-12.6068
▁ballot	-12.6068
▁devastation	-12.6068
▁blindfold	-12.6068
▁56	-12.6068
▁cough	-12.6068
▁immunization	-12.6068
▁plow	-12.6068
▁trickster	-12.6068
▁petrol	-12.6068
▁confession	-12.6069
▁ryan	-12.6069
▁clinician	-12.6069
▁pinch	-12.6069
▁nonviolence	-12.6069
▁sudh	-12.6069
▁squeak	-12.6069
▁hail	-12.607
▁byproduct	-12.607
▁embarrassment	-12.607
▁soundscape	-12.607
▁hostage	-12.6071
▁portland	-12.6071
▁disagreement	-12.6071
ain	-12.6071
▁landmine	-12.6071
▁anchor	-12.6072
▁reconstruction	-12.6072
▁peril	-12.6072
▁converse	-12.6073
▁conviction	-12.6073
▁telegraph	-12.6073
▁rodent	-12.6073
▁dyslexi	-12.6073
▁caution	-12.6074
▁coil	-12.6074
▁sprint	-12.6074
▁viewpoint	-12.6075
▁debut	-12.6075
luke	-12.6075
▁helen	-12.6075
▁subsid	-12.6076
▁appall	-12.6077
▁android	-12.6077
▁withdraw	-12.6077
▁pornograph	-12.6077
▁dropout	-12.6079
▁overload	-12.608
▁knight	-12.6081
▁lust	-12.6081
▁mba	-12.6081
▁molt	-12.6082
borne	-12.6082
▁skydiv	-12.6082
protect	-12.6083
▁advancement	-12.6084
▁mania	-12.6086
▁intestine	-12.6088
▁hunch	-12.6088
▁youngster	-12.6089
▁cogniti	-12.6091
▁porn	-12.6091
▁perpetual	-12.6092
▁hostilit	-12.6094
▁detach	-12.6095
▁cheetah	-12.6095
▁prompt	-12.6095
▁ribbon	-12.6095
▁transcendent	-12.6095
▁sweater	-12.6096
▁puppy	-12.6096
▁supplier	-12.6097
▁pacemaker	-12.6097
▁immersion	-12.6098
chard	-12.6099
▁muse	-12.61
▁overfish	-12.6101
▁sewer	-12.6102
▁strangeness	-12.6102
▁crown	-12.6104
▁bayes	-12.6107
dental	-12.6107
▁klein	-12.6109
▁1.4	-12.6109
▁saturat	-12.6112
▁stu	-12.6114
▁gyre	-12.6118
05	-12.6122
▁accuse	-12.6125
guay	-12.6126
uk	-12.6127
▁cp	-12.6127
▁kal	-12.6127
lanes	-12.6127
▁plantation	-12.6128
▁begging	-12.6129
▁participator	-12.6129
nois	-12.6132
▁infer	-12.6133
▁smiley	-12.6136
▁eagle	-12.6138
netra	-12.6138
turn	-12.6138
▁pork	-12.6139
▁downside	-12.6139
▁chant	-12.614
▁irish	-12.6141
▁eleven	-12.6144
▁terrestrial	-12.6144
▁77	-12.6144
▁wh	-12.6144
▁ferment	-12.6145
cern	-12.6146
▁summ	-12.6155
▁alto	-12.6156
▁robber	-12.6156
▁bur	-12.6157
ardo	-12.6157
achi	-12.6157
▁jelly	-12.6157
▁divert	-12.6159
▁princess	-12.6161
▁assured	-12.6161
▁lava	-12.6168
▁immersi	-12.617
▁instill	-12.6172
▁reassur	-12.6182
▁kent	-12.6183
▁poise	-12.6186
▁powerless	-12.6186
▁mir	-12.6186
▁sadd	-12.6187
▁lick	-12.6191
▁reformer	-12.6192
randi	-12.6198
92	-12.6199
▁insurgenc	-12.6201
▁jerk	-12.6202
doc	-12.6203
vanc	-12.6211
▁arch	-12.6225
ups	-12.6232
gging	-12.6233
▁holder	-12.6234
▁oceanograph	-12.6236
▁bobb	-12.6236
▁influen	-12.6237
troy	-12.6239
▁contaminate	-12.6251
nice	-12.6252
▁canoe	-12.6254
▁tickle	-12.6256
▁archiv	-12.6258
▁shad	-12.6269
▁edu	-12.6274
defy	-12.6274
▁68	-12.6274
seek	-12.6277
▁shaw	-12.6283
tool	-12.6283
▁compost	-12.6284
help	-12.6288
wheel	-12.6289
design	-12.6296
▁miner	-12.6296
▁gill	-12.6298
group	-12.63
test	-12.63
▁ga	-12.6301
familiar	-12.6304
distance	-12.6304
population	-12.6304
white	-12.6305
▁mast	-12.6306
ru	-12.6306
cycle	-12.6307
woman	-12.6307
▁oppressi	-12.6311
▁tails	-12.6312
infect	-12.6313
wire	-12.6322
▁vest	-12.6322
▁tense	-12.6324
limited	-12.6324
▁decode	-12.6326
▁outsider	-12.6333
ov	-12.6334
map	-12.6336
vis	-12.6338
▁deflect	-12.634
itis	-12.6343
▁fellows	-12.6349
▁beep	-12.6354
▁si	-12.6354
▁loo	-12.6357
tenth	-12.6369
du	-12.6376
lash	-12.6378
lace	-12.6385
real	-12.639
▁bil	-12.6404
fat	-12.641
▁deadline	-12.6414
▁gen	-12.6414
▁convuls	-12.6418
▁mont	-12.6418
▁subjectiv	-12.6419
▁municipal	-12.6425
▁medica	-12.6434
mri	-12.6435
▁pran	-12.6436
▁humid	-12.6443
rum	-12.6443
trey	-12.6452
▁introvert	-12.6454
muddi	-12.6457
▁survivor	-12.6465
ct	-12.6471
seas	-12.6472
▁leverag	-12.6473
▁beverl	-12.6484
▁dodg	-12.6484
▁curse	-12.649
▁palms	-12.6501
east	-12.6506
uc	-12.6521
ubert	-12.6539
▁14-	-12.6544
▁liabilit	-12.6545
▁inward	-12.6557
wid	-12.6559
▁screens	-12.6564
▁lays	-12.657
alman	-12.6572
▁16-	-12.6574
▁bounc	-12.6577
flection	-12.6577
▁dislike	-12.6578
ev	-12.6579
six	-12.658
▁nair	-12.6586
titude	-12.6593
▁emergen	-12.6604
▁optimiz	-12.6607
▁mosc	-12.6608
▁3-	-12.6614
▁puzzl	-12.6619
16	-12.6623
▁complet	-12.6627
▁recorder	-12.6629
▁exo	-12.6631
▁rica	-12.6636
▁kei	-12.6638
▁adh	-12.6639
▁cops	-12.6643
▁nai	-12.6646
ased	-12.6648
▁reframe	-12.6653
▁ch	-12.6657
▁communis	-12.6686
▁bearing	-12.6698
▁eradicati	-12.6704
▁rival	-12.6728
▁seth	-12.6731
,200	-12.6732
▁healthie	-12.6732
sol	-12.6734
port	-12.6736
ps	-12.6774
▁migrat	-12.6779
rid	-12.6784
credible	-12.6789
esot	-12.6799
mann	-12.6799
▁uncertain	-12.6806
estial	-12.6811
▁perfume	-12.6816
▁biblical	-12.6822
death	-12.6825
▁tire	-12.6834
▁lid	-12.6835
▁petri	-12.6843
▁trappe	-12.6847
▁brew	-12.6853
▁preced	-12.6856
don	-12.6861
▁bulgaria	-12.6871
▁tasmania	-12.6873
nk	-12.6876
49	-12.6877
▁advise	-12.6877
zu	-12.6878
▁bleed	-12.6879
▁subsidize	-12.6882
▁piss	-12.6882
low	-12.6884
▁cliche	-12.6894
ho	-12.6895
▁peripher	-12.6896
#	-12.6898
fensive	-12.6898
▁babylon	-12.6899
▁prolif	-12.6899
▁vodka	-12.6899
▁alligator	-12.69
▁amputation	-12.69
▁applaud	-12.69
▁athletic	-12.69
▁charlotte	-12.69
▁chernobyl	-12.69
▁empirical	-12.69
▁excruciating	-12.69
▁expenditure	-12.69
▁lesbian	-12.69
▁majest	-12.69
▁messenger	-12.69
▁mitochondria	-12.69
▁netflix	-12.69
▁norwegian	-12.69
▁outweigh	-12.69
▁persuasion	-12.69
▁privatiz	-12.69
▁synerg	-12.69
▁thursday	-12.69
▁modification	-12.69
▁neutron	-12.69
▁pilgrim	-12.69
▁seatbelt	-12.69
▁troubling	-12.69
▁volvo	-12.69
▁classify	-12.69
▁influenza	-12.69
▁lettuce	-12.69
▁mismatch	-12.69
▁await	-12.69
▁creek	-12.69
▁nickname	-12.69
▁arthriti	-12.69
▁cosmetic	-12.69
▁frown	-12.69
▁sultan	-12.69
▁proteomic	-12.69
▁scandal	-12.69
▁bonnie	-12.69
▁squash	-12.69
▁sunflower	-12.69
▁sho	-12.69
▁utilitarian	-12.69
▁stalin	-12.69
▁neurologist	-12.69
▁suburbia	-12.69
▁seduce	-12.69
▁anthon	-12.69
▁paycheck	-12.69
▁decay	-12.69
▁webcam	-12.69
▁persistence	-12.69
▁statistician	-12.69
▁postcard	-12.69
▁okapi	-12.69
▁nash	-12.6901
▁balkan	-12.6901
▁pollinator	-12.6901
▁milestone	-12.6901
▁obsessive	-12.6901
▁librarian	-12.6901
▁3.5	-12.6901
▁preview	-12.6901
▁disappointment	-12.6902
▁hurdle	-12.6902
▁gait	-12.6902
▁1920	-12.6902
▁speculation	-12.6902
▁activation	-12.6902
▁eyeball	-12.6902
▁89	-12.6903
▁minne	-12.6903
▁hump	-12.6903
▁actress	-12.6903
▁janitor	-12.6903
▁sorrow	-12.6904
▁sushi	-12.6904
▁mommy	-12.6904
▁ruf	-12.6904
▁teme	-12.6904
▁hover	-12.6904
uke	-12.6905
▁bandage	-12.6905
▁yang	-12.6906
▁volatile	-12.6906
▁glider	-12.6906
▁humanoid	-12.6906
▁9,000	-12.6907
▁anna	-12.6907
▁thirst	-12.6908
▁abyss	-12.6908
▁avert	-12.6908
▁cramm	-12.6909
▁stiff	-12.6909
▁blackboard	-12.691
▁thickness	-12.691
▁poop	-12.691
▁theatre	-12.691
▁inhabitant	-12.6911
zzar	-12.6911
▁faithful	-12.6911
▁salut	-12.6912
▁vow	-12.6912
▁davi	-12.6913
▁poacher	-12.6913
▁moham	-12.6913
▁prox	-12.6914
▁hospi	-12.6914
▁toolbox	-12.6914
▁foresee	-12.6915
▁serbia	-12.6916
▁missou	-12.6916
▁broaden	-12.6917
▁lbs	-12.6917
▁creationist	-12.6918
▁ponder	-12.692
▁synthesizer	-12.692
▁nann	-12.6922
▁messag	-12.6922
▁whack	-12.6922
▁husk	-12.6923
▁oas	-12.6926
▁slamm	-12.6927
▁lynn	-12.6928
▁symbiotic	-12.6929
▁qualify	-12.6931
▁dashboard	-12.6931
▁unaid	-12.6932
▁vocation	-12.6934
▁dissection	-12.6934
▁bundle	-12.6935
76	-12.6935
▁dull	-12.6936
ltan	-12.6937
▁mao	-12.6937
ylon	-12.6941
▁reside	-12.6941
ifi	-12.6944
teful	-12.6944
▁pollinate	-12.6947
▁golfer	-12.6949
▁samar	-12.6951
iller	-12.6952
▁polariz	-12.6952
▁generalize	-12.6955
▁styr	-12.6955
▁throwaway	-12.6956
▁mortal	-12.6958
▁massacre	-12.696
ink	-12.6961
part	-12.6962
▁accentu	-12.6963
▁yearning	-12.6968
▁perfection	-12.6975
▁hungarian	-12.6985
.8	-12.6992
doh	-12.6992
▁hardwir	-12.6997
▁hyperactiv	-12.6998
▁lend	-12.7001
▁mayan	-12.7005
▁recurren	-12.701
▁ariel	-12.7013
▁flor	-12.7015
zing	-12.7016
▁blo	-12.7019
▁ru	-12.702
▁vet	-12.7022
oc	-12.7027
▁handwrit	-12.7031
▁beans	-12.7034
eau	-12.7035
confrontation	-12.7036
▁git	-12.7037
omi	-12.7042
una	-12.7042
▁fluent	-12.7043
▁senat	-12.7044
▁tara	-12.7045
▁skinn	-12.7046
▁restorati	-12.7047
stero	-12.7047
▁deepen	-12.7051
▁pathetic	-12.7064
▁vascular	-12.7065
▁diar	-12.7065
run	-12.7067
▁peeling	-12.707
▁downward	-12.7071
▁marginaliz	-12.7072
▁conducti	-12.7072
gh	-12.7075
▁heartbreak	-12.7079
ji	-12.7083
▁bac	-12.7083
▁ger	-12.7085
▁stockpile	-12.7095
▁incarcerat	-12.7097
▁strapp	-12.7107
▁semina	-12.7107
building	-12.7111
▁39	-12.7113
▁allocate	-12.7117
produc	-12.7124
▁genu	-12.7128
▁mistaken	-12.713
uous	-12.7131
rise	-12.7134
▁undermine	-12.7136
▁carti	-12.7138
▁ripple	-12.7141
▁mut	-12.7144
▁lance	-12.7151
▁histori	-12.7155
huma	-12.7155
▁ol	-12.7158
aki	-12.7162
connected	-12.7163
07	-12.7163
▁bull	-12.7166
▁utilize	-12.7166
skirt	-12.7167
ipped	-12.7167
▁drums	-12.7172
people	-12.7177
linger	-12.7178
▁knit	-12.7179
▁mag	-12.718
umann	-12.7186
▁deform	-12.719
most	-12.7193
▁reus	-12.7201
first	-12.7201
▁fails	-12.7205
catch	-12.7206
▁biomedic	-12.7206
foam	-12.7208
ethical	-12.7209
ocean	-12.721
organic	-12.7213
expression	-12.7213
pattern	-12.7213
mouth	-12.7213
plus	-12.7214
performance	-12.7214
glass	-12.7216
three	-12.7218
tension	-12.7219
nd	-12.7225
▁shuffle	-12.7227
oul	-12.723
pping	-12.7232
▁criticiz	-12.7236
rail	-12.7241
▁pushe	-12.7248
▁dun	-12.7256
▁yak	-12.7257
▁penetrat	-12.7262
▁elv	-12.7263
▁evaporat	-12.7265
29	-12.7268
▁emma	-12.7273
ang	-12.7287
car	-12.7289
▁sued	-12.7291
uda	-12.7292
▁analyst	-12.7293
span	-12.7297
▁cycl	-12.7298
▁bloodline	-12.7299
ggle	-12.73
▁plural	-12.732
llen	-12.7333
▁lesser	-12.7336
lette	-12.7343
▁alternate	-12.7343
▁swell	-12.7346
5,000	-12.7353
ollock	-12.7357
▁populat	-12.7363
bp	-12.7374
▁vivi	-12.7381
orist	-12.7382
▁void	-12.7385
verse	-12.7393
▁divin	-12.7396
sale	-12.7404
▁91	-12.7405
ode	-12.7406
▁clicks	-12.7413
▁80-	-12.7414
▁lander	-12.7426
ut	-12.7431
hard	-12.7439
working	-12.7439
▁flee	-12.7443
▁democratiz	-12.7446
vin	-12.7457
ological	-12.7457
▁dorm	-12.7458
▁pollute	-12.7462
▁evolves	-12.7469
▁bon	-12.7479
▁advocat	-12.7483
rates	-12.7484
eastern	-12.7485
▁burnt	-12.7493
pad	-12.7496
▁feminis	-12.7505
▁finn	-12.7513
▁corti	-12.7514
emman	-12.7517
▁genital	-12.7517
pr	-12.7519
defin	-12.7524
chi	-12.753
▁artificially	-12.7537
▁iv	-12.7538
▁gym	-12.7538
▁persuad	-12.7539
▁scarc	-12.7542
ngue	-12.755
roll	-12.7559
▁malt	-12.7565
▁logistic	-12.7581
▁dictators	-12.7582
lam	-12.7587
▁nazis	-12.7595
ku	-12.7613
▁gil	-12.7616
thic	-12.7617
mon	-12.7618
rate	-12.7633
▁violate	-12.7633
▁soak	-12.7637
tro	-12.7652
▁undo	-12.7652
▁ros	-12.7652
▁fossilize	-12.7656
▁pitche	-12.7657
▁advis	-12.7668
▁fork	-12.767
▁conduc	-12.767
▁echoe	-12.7679
▁peru	-12.7681
▁cla	-12.7682
▁forbidd	-12.7685
steroids	-12.7686
▁chok	-12.7687
▁carb	-12.7692
▁symbolize	-12.7693
ore	-12.7697
▁synchroniz	-12.7698
ilia	-12.7702
▁rex	-12.7706
▁jets	-12.7709
▁neurologic	-12.7712
▁com	-12.7718
▁teas	-12.7719
▁astonish	-12.772
▁sophisticat	-12.7721
▁emulate	-12.7726
▁meta	-12.7727
nity	-12.7733
▁christin	-12.7742
▁launche	-12.7751
▁stretche	-12.7753
iv	-12.7755
hop	-12.7756
ogra	-12.7757
zed	-12.7757
fo	-12.7763
▁brillian	-12.7763
▁activis	-12.7763
▁marginal	-12.7764
bes	-12.7779
▁swee	-12.7779
▁rust	-12.7781
▁recreate	-12.7782
▁linguist	-12.7782
▁victoria	-12.7783
▁bureaucrat	-12.7785
ement	-12.7788
▁biotech	-12.7792
aylo	-12.7794
▁shelv	-12.7797
▁adequate	-12.7798
shire	-12.7799
▁les	-12.7799
▁symbio	-12.78
▁columb	-12.7803
▁mathematica	-12.7805
▁singular	-12.7806
▁gamble	-12.7806
▁advent	-12.7807
▁epidemiolog	-12.7807
▁invisib	-12.7807
▁tacti	-12.7807
▁recess	-12.7807
▁serendipit	-12.7808
▁anonym	-12.7808
▁misunderst	-12.7808
▁bargain	-12.7809
▁bureaucrac	-12.7809
▁cameroon	-12.7809
▁contempt	-12.7809
▁cyborg	-12.7809
▁definitive	-12.7809
▁discomfort	-12.7809
▁encompass	-12.7809
▁intertwine	-12.7809
▁kuwait	-12.7809
▁mcluhan	-12.7809
▁migrant	-12.7809
▁potassium	-12.7809
▁prairie	-12.7809
▁questionnaire	-12.7809
▁reckon	-12.7809
▁reminisc	-12.7809
▁taxpayer	-12.7809
▁therapeutic	-12.7809
▁umbrella	-12.7809
▁whirlwind	-12.7809
▁yogurt	-12.7809
▁administrative	-12.7809
▁circus	-12.7809
▁dominican	-12.7809
▁imperfect	-12.7809
▁kilowatt	-12.7809
▁muffin	-12.7809
▁plume	-12.7809
▁forensic	-12.7809
▁motorbike	-12.7809
▁simpson	-12.7809
▁breeze	-12.7809
▁filament	-12.7809
▁igbo	-12.7809
▁multimedia	-12.7809
▁asylum	-12.7809
▁orchid	-12.7809
▁predominant	-12.7809
▁spreadsheet	-12.7809
▁unicorn	-12.7809
▁toddler	-12.7809
▁scrot	-12.7809
▁sympathetic	-12.7809
▁hilarious	-12.7809
▁recursive	-12.7809
▁craving	-12.7809
▁goddess	-12.7809
▁autops	-12.7809
▁blackberr	-12.7809
▁bottleneck	-12.7809
▁microorganism	-12.7809
▁reddit	-12.7809
▁ominous	-12.7809
meister	-12.7809
▁dissent	-12.7809
▁earring	-12.7809
▁notorious	-12.7809
▁ruling	-12.7809
▁evolutionarily	-12.7809
▁aboriginal	-12.7809
▁admission	-12.7809
▁dizzy	-12.7809
▁nominate	-12.7809
▁vicious	-12.7809
▁torch	-12.7809
▁pavement	-12.7809
▁underpin	-12.781
▁mammalian	-12.781
▁crutch	-12.781
▁situat	-12.781
▁catalyst	-12.781
▁relocate	-12.781
▁tractor	-12.781
▁exaggeration	-12.781
▁soybean	-12.781
▁heartbeat	-12.781
▁vendor	-12.781
▁unthink	-12.781
▁dread	-12.781
▁tenure	-12.781
▁classmate	-12.7811
▁ufo	-12.7811
▁bombard	-12.7811
▁droplet	-12.7811
▁niche	-12.7811
▁enroll	-12.7811
▁vc	-12.7811
▁memetic	-12.7811
▁sunset	-12.7811
▁wack	-12.7811
▁relay	-12.7811
percussion	-12.7812
▁dennis	-12.7812
▁garment	-12.7812
▁shareholder	-12.7812
▁rebellion	-12.7813
▁cubicle	-12.7813
▁weave	-12.7813
▁hap	-12.7813
▁parabola	-12.7813
ipur	-12.7814
xter	-12.7814
▁harass	-12.7814
▁restoration	-12.7815
▁snapp	-12.7815
▁hopkin	-12.7815
▁smack	-12.7815
▁trump	-12.7815
▁manifesto	-12.7815
▁brink	-12.7816
▁sopho	-12.7816
▁underlie	-12.7817
▁bunker	-12.7817
▁grill	-12.7818
▁misuse	-12.7818
▁crest	-12.7818
▁purse	-12.782
▁harle	-12.7821
▁bliss	-12.7821
▁segregat	-12.7821
▁arrival	-12.7821
murdo	-12.7822
▁reformation	-12.7822
▁joyful	-12.7825
▁adage	-12.7826
▁paddle	-12.7826
▁mandar	-12.7827
▁alaba	-12.7829
▁welcom	-12.783
▁shove	-12.7831
▁graze	-12.7832
▁numerical	-12.7832
▁jenn	-12.7833
illion	-12.7833
▁revert	-12.7836
▁heighten	-12.7836
▁worn	-12.7837
▁retailer	-12.7837
▁flop	-12.784
▁verifi	-12.7841
▁tata	-12.7842
▁lease	-12.7842
▁gland	-12.7843
▁surpass	-12.7843
▁seizure	-12.7843
▁neutrino	-12.7843
▁briquette	-12.7843
▁bailout	-12.7843
sek	-12.7843
▁gell	-12.7844
▁cushion	-12.7844
▁ginger	-12.7844
▁irritat	-12.7844
▁prominen	-12.7845
▁strat	-12.7845
▁ambien	-12.7847
▁spam	-12.7847
▁wales	-12.7848
▁cargo	-12.7849
▁mock	-12.7849
▁huss	-12.785
dnes	-12.7852
▁crapp	-12.7853
▁sach	-12.7853
▁malay	-12.7854
▁dumm	-12.7854
▁termite	-12.7855
▁beatle	-12.7855
▁ovari	-12.7857
▁empathiz	-12.7858
▁thermo	-12.7858
▁desperat	-12.7859
▁joking	-12.7859
leigh	-12.786
▁posting	-12.786
▁compensate	-12.7861
still	-12.7862
iro	-12.7863
▁solu	-12.7864
▁tinkering	-12.7865
▁viking	-12.7866
quo	-12.7867
▁doc	-12.7868
▁uru	-12.7869
▁syn	-12.7869
▁vibrate	-12.7872
▁handout	-12.7875
duk	-12.7876
▁lumber	-12.7881
▁peacekeep	-12.7881
▁crowdsource	-12.7884
▁instruct	-12.7889
▁batch	-12.7895
▁tal	-12.7895
▁butcher	-12.7896
▁highland	-12.7898
▁teeny	-12.7899
▁steak	-12.7902
▁nugget	-12.7902
▁lauren	-12.7906
li	-12.7907
▁massage	-12.7908
uld	-12.7909
▁comparabl	-12.7913
▁thigh	-12.7914
ular	-12.7915
▁fibro	-12.7919
▁inflat	-12.7923
bon	-12.7924
assic	-12.7927
▁inertia	-12.7929
ernes	-12.7931
▁vend	-12.7939
▁indiana	-12.794
▁fitting	-12.7949
▁54	-12.7949
▁rum	-12.7949
▁devastat	-12.795
▁beds	-12.7951
▁ethiopian	-12.7953
ucky	-12.7956
fell	-12.7958
▁101	-12.7962
▁fitted	-12.7966
▁fras	-12.7966
▁delegat	-12.7967
▁ri	-12.7969
▁lan	-12.797
▁seize	-12.7981
gate	-12.7984
▁sane	-12.7985
mah	-12.7986
▁wholly	-12.7987
▁sta	-12.7989
▁qua	-12.799
▁tender	-12.7992
▁wond	-12.8
▁dart	-12.8002
▁locke	-12.8008
asia	-12.8009
▁dives	-12.8011
▁hangers	-12.8016
▁0.1	-12.8017
▁foreigner	-12.8021
residents	-12.8025
▁ripe	-12.8046
▁reli	-12.805
▁woo	-12.8051
▁debat	-12.8051
▁domesticate	-12.8051
ines	-12.8057
uba	-12.8061
▁dries	-12.8062
mour	-12.8063
fully	-12.8065
▁disseminate	-12.8075
terior	-12.8076
▁suspicio	-12.8078
▁sticker	-12.8081
iel	-12.8082
▁hairs	-12.8085
ripped	-12.809
viv	-12.809
rak	-12.8093
nish	-12.8097
▁temperat	-12.8097
▁rearrange	-12.8102
▁orb	-12.811
▁manu	-12.8112
fauna	-12.8114
oma	-12.8119
rium	-12.8126
25	-12.813
▁touris	-12.8139
thousand	-12.814
ini	-12.8148
tress	-12.815
glob	-12.8156
▁tb	-12.8157
ening	-12.8157
▁leaning	-12.8165
▁ply	-12.8175
▁locomot	-12.8175
met	-12.8176
after	-12.8178
▁regulat	-12.8184
eller	-12.8185
beat	-12.8186
itan	-12.8188
▁cultivat	-12.8189
scape	-12.8189
▁fu	-12.8192
cock	-12.8196
eater	-12.8197
cus	-12.8201
different	-12.8204
pleasant	-12.8205
action	-12.8207
▁tub	-12.8207
computer	-12.8208
clinical	-12.8208
click	-12.8208
fifth	-12.821
cho	-12.8211
script	-12.8211
portrait	-12.8211
normal	-12.8211
women	-12.8213
belief	-12.8213
scientific	-12.8214
important	-12.8214
▁stockhol	-12.8216
▁recline	-12.8217
finance	-12.8217
bonne	-12.8221
harmonic	-12.8221
rais	-12.8225
definition	-12.8226
consistent	-12.8226
bright	-12.8228
tering	-12.8228
rani	-12.8229
handler	-12.8237
▁immunize	-12.8237
koko	-12.8243
confidence	-12.8245
▁gh	-12.8248
fill	-12.825
▁evoke	-12.825
▁ferm	-12.8252
▁qu	-12.8255
manage	-12.8255
▁articulat	-12.8258
▁prima	-12.8259
heim	-12.8261
living	-12.8269
▁reinforc	-12.8273
opening	-12.8273
unny	-12.8276
▁decreas	-12.8281
▁ob	-12.8282
▁sentien	-12.8283
marin	-12.8283
imply	-12.8285
celsi	-12.8287
cast	-12.8295
▁seism	-12.8297
▁pos	-12.8304
mber	-12.8305
▁hood	-12.8311
key	-12.8312
review	-12.8313
locks	-12.8315
ike	-12.8316
spora	-12.8323
▁navigat	-12.8333
▁cl	-12.8334
etti	-12.8337
▁relie	-12.834
ugh	-12.834
▁summon	-12.8341
rm	-12.8343
▁dual	-12.8343
mish	-12.8349
▁traumatic	-12.8351
▁irregular	-12.8354
hold	-12.836
▁technologically	-12.8361
ward	-12.8366
▁karma	-12.8374
▁pitts	-12.8375
avers	-12.8376
plication	-12.8378
▁reset	-12.8386
▁squeez	-12.8386
▁bett	-12.8393
tting	-12.8396
▁mandat	-12.8396
▁slap	-12.8397
lb	-12.8398
▁recharge	-12.8398
mala	-12.8398
▁outlet	-12.8401
▁entr	-12.8402
▁marsh	-12.8409
▁assistan	-12.8414
▁starve	-12.8427
assemble	-12.8427
▁incentivize	-12.8431
▁electromagneti	-12.8435
ads	-12.844
▁complian	-12.844
▁matur	-12.844
▁preferabl	-12.8443
▁pic	-12.8446
▁academi	-12.8451
▁te	-12.8458
▁closet	-12.8459
onald	-12.8459
wash	-12.8464
▁49	-12.8468
www	-12.847
▁dodge	-12.8472
▁insulat	-12.8472
▁100-	-12.8483
▁infuse	-12.8489
▁cli	-12.8496
▁claus	-12.8512
ets	-12.8513
▁photosynthesi	-12.8516
cap	-12.8518
▁breasts	-12.853
centered	-12.8536
▁sampl	-12.8536
▁eva	-12.8548
▁disc	-12.8553
▁tackl	-12.8556
zone	-12.8559
rv	-12.8562
▁temper	-12.8564
▁autos	-12.8578
▁interven	-12.858
oth	-12.8593
▁750	-12.8595
foli	-12.8596
▁bach	-12.8596
▁burm	-12.8597
▁mills	-12.8597
▁alley	-12.8608
aca	-12.8615
▁forage	-12.8615
▁76	-12.8616
▁fet	-12.8619
▁sparkl	-12.8632
▁financ	-12.8638
anna	-12.864
mbra	-12.8647
cynth	-12.8647
▁eur	-12.8652
▁62	-12.8653
▁pharmac	-12.8657
▁kera	-12.8658
activat	-12.866
aph	-12.8672
▁slid	-12.8677
sama	-12.8689
▁battles	-12.8691
▁nikola	-12.8699
▁correlat	-12.8699
▁aggressi	-12.871
▁surf	-12.8712
í	-12.8717
▁empti	-12.8719
void	-12.8721
educat	-12.8727
▁175	-12.8731
▁rocke	-12.8733
▁supporter	-12.874
▁eras	-12.8741
▁sincere	-12.8741
▁carv	-12.8743
▁ripp	-12.8744
▁hocke	-12.875
▁spong	-12.875
▁spher	-12.8751
range	-12.8755
zer	-12.8755
▁fad	-12.8756
▁hoo	-12.8758
▁midwest	-12.8761
▁chen	-12.8763
dale	-12.8767
▁whil	-12.8769
utum	-12.879
▁quadr	-12.8794
▁loga	-12.8795
▁gig	-12.8795
elimina	-12.8796
▁induc	-12.8796
▁aggregat	-12.8803
▁philanthropi	-12.8805
▁excavat	-12.8805
geria	-12.8806
▁preoccup	-12.8807
inister	-12.8808
▁slam	-12.8808
▁legitima	-12.8808
▁necessit	-12.8808
clamation	-12.8808
▁cybercrim	-12.8809
rithmic	-12.8809
▁beehive	-12.8809
▁camouflage	-12.8809
▁coconut	-12.8809
▁constellation	-12.8809
▁derivative	-12.8809
▁ecuador	-12.8809
▁gapminder	-12.8809
▁groove	-12.8809
▁nozzle	-12.8809
▁orthopedic	-12.8809
▁primordial	-12.8809
▁prophec	-12.8809
▁receipt	-12.8809
▁rehab	-12.8809
▁remorse	-12.8809
▁reservoir	-12.8809
▁senegal	-12.8809
▁stomatopod	-12.8809
▁terabyte	-12.8809
▁urchin	-12.8809
▁yugoslav	-12.8809
▁dazzling	-12.8809
▁engulf	-12.8809
▁heterosexual	-12.8809
▁sargass	-12.8809
▁bullshit	-12.8809
▁complement	-12.8809
▁doughnut	-12.8809
▁emancipat	-12.8809
▁impoverish	-12.8809
▁intractable	-12.8809
▁macintosh	-12.8809
▁pajama	-12.8809
▁sausage	-12.8809
▁swirl	-12.8809
▁yahoo	-12.8809
▁aphid	-12.8809
▁douglas	-12.8809
▁lattice	-12.8809
▁squawk	-12.8809
▁benchmark	-12.8809
▁critter	-12.8809
▁dismay	-12.8809
▁paranoi	-12.8809
▁amplify	-12.8809
▁compartment	-12.8809
▁crisp	-12.8809
▁instantaneous	-12.8809
▁framing	-12.8809
▁perimeter	-12.8809
▁presumption	-12.8809
▁combusti	-12.8809
▁crave	-12.8809
▁horrify	-12.8809
agogue	-12.8809
▁biochemical	-12.8809
▁wingsuit	-12.8809
▁intermediate	-12.8809
▁lolcat	-12.8809
▁discrete	-12.8809
▁depart	-12.8809
▁flake	-12.8809
▁widow	-12.8809
▁imprint	-12.8809
▁myriad	-12.8809
menopaus	-12.8809
▁dissonance	-12.8809
▁fiji	-12.8809
▁devotion	-12.8809
▁grammar	-12.8809
▁pebble	-12.8809
▁occurrence	-12.8809
▁leatherback	-12.8809
▁drastic	-12.8809
▁crayon	-12.8809
▁arsenal	-12.8809
▁inequit	-12.8809
▁eisen	-12.8809
▁scout	-12.8809
▁uninhabit	-12.8809
▁airbag	-12.8809
▁litter	-12.8809
▁jig	-12.881
▁kiva	-12.881
▁declaration	-12.881
▁pollination	-12.881
▁quarrie	-12.881
▁pillow	-12.881
▁sandstone	-12.881
▁furious	-12.881
▁editorial	-12.881
▁carriage	-12.881
▁elevation	-12.8811
▁buffer	-12.8811
▁babylonian	-12.8811
▁deliberation	-12.8811
▁shutter	-12.8811
▁crook	-12.8811
▁examination	-12.8811
▁leah	-12.8811
▁spook	-12.8811
▁papua	-12.8811
▁refuel	-12.8811
▁jung	-12.8811
▁singularity	-12.8812
▁lurk	-12.8812
▁sculptor	-12.8812
▁rebe	-12.8812
▁nih	-12.8812
▁hawaiian	-12.8812
▁roam	-12.8812
▁discusse	-12.8812
emper	-12.8812
▁owl	-12.8812
▁adhesive	-12.8813
▁filth	-12.8813
ein	-12.8813
▁payback	-12.8814
▁caption	-12.8814
▁betray	-12.8814
▁motive	-12.8815
ignment	-12.8815
▁distortion	-12.8816
▁enhancement	-12.8816
▁wur	-12.8816
ausch	-12.8816
▁integral	-12.8816
▁headset	-12.8816
▁concoct	-12.8817
▁dogma	-12.8817
guate	-12.8817
▁choreographer	-12.8817
austin	-12.8818
▁stent	-12.8818
▁handl	-12.8819
▁kickstart	-12.8819
▁landmark	-12.8819
▁headlight	-12.882
▁crate	-12.882
▁offset	-12.8821
▁savor	-12.8821
▁disruption	-12.8822
▁barber	-12.8823
▁mono	-12.8823
▁archetype	-12.8823
▁mug	-12.8823
wheeler	-12.8824
▁yawn	-12.8824
▁stance	-12.8825
▁hull	-12.8825
▁backbone	-12.8825
▁retriev	-12.8827
▁resin	-12.8828
án	-12.8828
▁thorn	-12.8828
vi	-12.8828
▁tomb	-12.8829
▁bik	-12.883
▁jabb	-12.8831
▁mmm	-12.8831
eating	-12.8832
balance	-12.8833
▁turbulent	-12.8837
▁ferris	-12.8837
▁breadth	-12.8837
atops	-12.8838
▁inert	-12.8839
dictionarie	-12.884
▁bagh	-12.8841
▁51	-12.8842
▁transmitter	-12.8843
▁modalit	-12.8846
▁billionaire	-12.8847
▁tasty	-12.8847
▁transducer	-12.8847
▁nixon	-12.8847
▁bureau	-12.8847
▁virulen	-12.8847
▁whipp	-12.8847
▁socket	-12.8847
▁gloom	-12.8847
▁bunk	-12.8848
stop	-12.8849
▁simplifie	-12.8849
▁seminar	-12.885
▁advisor	-12.885
▁albe	-12.8852
▁flatter	-12.8853
▁geolog	-12.8853
▁inference	-12.8853
▁condense	-12.8857
ett	-12.8858
▁offend	-12.886
▁dwell	-12.8862
▁lineage	-12.8863
▁offender	-12.8865
mal	-12.8868
▁functionalit	-12.8871
▁morocc	-12.8878
▁skipp	-12.888
▁gabriel	-12.888
▁bands	-12.888
▁protecti	-12.8888
▁jr	-12.8888
▁zap	-12.8891
▁chopp	-12.8897
▁hobby	-12.8902
▁litigat	-12.8903
pun	-12.8905
▁gum	-12.8905
▁fischer	-12.8909
▁pul	-12.891
▁lush	-12.891
▁luna	-12.8912
▁effic	-12.8913
▁grazing	-12.8913
▁incision	-12.8913
▁disclosure	-12.8913
▁idealis	-12.8914
ano	-12.8918
▁shaft	-12.8921
robic	-12.8922
▁cog	-12.8924
▁stitch	-12.8924
▁reciprocal	-12.8927
▁levitat	-12.893
▁viewers	-12.893
▁translucen	-12.8932
▁correctness	-12.8934
▁brows	-12.8938
▁arno	-12.8945
▁gasse	-12.8945
▁wrestle	-12.8946
iki	-12.8947
▁dock	-12.8947
▁instrumental	-12.8947
▁interrogat	-12.8952
▁quadruple	-12.8953
▁reviewer	-12.8955
▁herb	-12.8958
▁monumental	-12.8959
▁yum	-12.897
▁gasp	-12.8973
strate	-12.8974
ala	-12.8975
lima	-12.8977
▁wield	-12.898
▁curt	-12.8981
dium	-12.8986
▁attribut	-12.9001
,700	-12.9001
▁violat	-12.9004
▁attendan	-12.9015
▁projector	-12.9021
oling	-12.9026
▁graft	-12.9028
ill	-12.9031
evolv	-12.9033
▁doll	-12.904
write	-12.9041
nb	-12.9044
▁lak	-12.9053
icha	-12.9055
nta	-12.9059
uri	-12.9064
▁randomize	-12.9064
lain	-12.9071
▁trainer	-12.9078
▁ep	-12.908
robi	-12.908
▁rom	-12.9085
▁meditate	-12.9088
ult	-12.9092
▁proportional	-12.9106
▁bead	-12.9108
▁45-	-12.9109
▁lumin	-12.9111
▁tab	-12.9115
▁til	-12.9116
idi	-12.9117
▁registr	-12.912
mar	-12.9127
rite	-12.9129
▁screwed	-12.9129
val	-12.914
▁bureaucratic	-12.9148
▁discriminati	-12.9149
▁zen	-12.9158
▁formulate	-12.9167
ryl	-12.9175
▁stride	-12.9178
▁undertake	-12.9181
alike	-12.919
▁orthodox	-12.9191
▁accord	-12.9191
▁bathe	-12.9195
spot	-12.9196
▁unto	-12.9197
▁exercis	-12.9198
▁rehearse	-12.92
▁pronounce	-12.92
▁styl	-12.9203
tched	-12.9212
ata	-12.9213
▁sage	-12.922
▁sway	-12.9227
▁handshak	-12.9228
▁phd	-12.9231
ava	-12.9232
▁robb	-12.9234
▁discriminate	-12.9238
▁homer	-12.9248
▁fro	-12.9251
▁disperse	-12.9255
rners	-12.926
▁investigati	-12.9264
▁urbaniz	-12.9266
▁abus	-12.9266
consum	-12.9267
control	-12.9269
▁rad	-12.9271
ipping	-12.9273
technology	-12.9275
▁comprise	-12.929
tcom	-12.9291
ounce	-12.9291
▁13-	-12.9293
traumatic	-12.9295
▁descen	-12.9296
▁59	-12.9296
print	-12.9298
alti	-12.9301
invasive	-12.9302
▁fiddle	-12.9304
verbal	-12.9309
▁adhere	-12.9312
competitive	-12.9317
sharp	-12.9319
▁interfer	-12.932
founder	-12.932
frequenc	-12.9322
frame	-12.9323
fuel	-12.9323
condition	-12.9323
milk	-12.9324
focus	-12.9324
particle	-12.9325
peace	-12.9325
orbit	-12.9325
process	-12.9326
common	-12.9326
controller	-12.9326
sceni	-12.9327
utilize	-12.9341
ari	-12.9341
mega	-12.9343
model	-12.9343
intelligent	-12.9351
dded	-12.9359
dust	-12.9361
math	-12.9363
gam	-12.9364
coast	-12.9375
wall	-12.938
chan	-12.9385
mont	-12.9392
iable	-12.9396
▁cartel	-12.9403
▁ounce	-12.9405
chu	-12.941
mca	-12.9412
▁turnaround	-12.9416
nner	-12.9418
nanc	-12.9419
icious	-12.9422
▁prioriti	-12.9423
▁banne	-12.9425
▁digitiz	-12.9433
▁oral	-12.9434
▁67	-12.9438
che	-12.944
▁macho	-12.9442
kins	-12.9447
▁tenaci	-12.9448
▁bury	-12.9453
▁burt	-12.9454
▁pee	-12.9477
▁internationally	-12.9478
▁pas	-12.9481
▁lol	-12.9485
literate	-12.9486
escent	-12.9488
rne	-12.9491
▁ingest	-12.9493
▁giga	-12.9496
ates	-12.9504
▁displac	-12.951
▁ni	-12.9526
ui	-12.9526
▁handy	-12.9531
erry	-12.9531
▁spy	-12.9535
dong	-12.9536
▁outdoors	-12.9543
▁goose	-12.9543
cker	-12.9546
▁intern	-12.9549
atic	-12.9551
▁counteract	-12.9551
▁deng	-12.9552
hat	-12.9557
cro	-12.9559
share	-12.9562
taka	-12.9565
▁wit	-12.9579
grid	-12.958
steps	-12.9584
uction	-12.9584
mor	-12.9584
▁dissolv	-12.9587
atitude	-12.9595
▁disseminat	-12.96
▁sensi	-12.9604
gola	-12.9605
▁reverberat	-12.9609
▁tracker	-12.9609
eb	-12.961
▁undermin	-12.9614
ual	-12.9615
▁650	-12.9617
▁subtract	-12.9619
75	-12.9623
▁barb	-12.9623
berto	-12.9628
classifie	-12.963
tung	-12.9641
kar	-12.9649
58	-12.9655
▁joll	-12.9659
iform	-12.9667
lo	-12.9677
tric	-12.9692
skill	-12.97
▁succeeding	-12.9723
▁188	-12.9733
▁miniaturiz	-12.9734
grass	-12.9736
▁jose	-12.975
ole	-12.9752
▁desir	-12.9759
shell	-12.9762
itch	-12.9773
▁energ	-12.9775
▁colonial	-12.9782
amie	-12.9783
▁uk	-12.9788
▁reciproc	-12.9789
llusion	-12.9798
ellar	-12.9798
amer	-12.9805
▁loyal	-12.9806
▁spect	-12.9806
▁lexicograph	-12.9808
▁dictate	-12.981
▁halt	-12.9816
tie	-12.9819
trenche	-12.9822
▁augment	-12.9829
▁hobb	-12.9829
▁jud	-12.9833
▁courts	-12.9836
▁cadaver	-12.9838
▁muti	-12.9838
nine	-12.9841
04	-12.9844
mad	-12.9845
rosion	-12.9847
▁epa	-12.9847
hal	-12.9852
▁credi	-12.9854
▁padd	-12.9861
▁cannibal	-12.9862
▁missionar	-12.9863
▁mik	-12.9866
▁prep	-12.9867
▁celebrit	-12.9867
uza	-12.9869
▁teen	-12.9871
▁66	-12.9873
stern	-12.9876
▁proto	-12.9876
zac	-12.9879
ef	-12.9879
▁patron	-12.9879
augh	-12.988
▁speeds	-12.9881
▁repel	-12.9883
▁topograph	-12.9885
hoe	-12.9885
▁ucl	-12.9887
yx	-12.9887
▁libya	-12.9889
angular	-12.9895
▁extrem	-12.9896
▁malignan	-12.9897
▁precipi	-12.9902
▁fluctu	-12.9906
▁fragil	-12.9908
▁horribl	-12.9908
▁tho	-12.9911
▁choreograph	-12.9911
▁glas	-12.9912
▁salv	-12.9912
▁turbo	-12.9913
▁slug	-12.9914
▁latch	-12.9915
apest	-12.9915
▁reign	-12.9917
▁contradict	-12.9917
▁haw	-12.9917
▁prosecut	-12.9918
▁cleve	-12.9918
▁waist	-12.9919
quake	-12.9919
▁retrospect	-12.9919
▁circum	-12.992
▁buckminster	-12.992
▁jurisdiction	-12.992
▁precaution	-12.992
ahedron	-12.992
–	-12.992
▁adrenalin	-12.992
▁allegiance	-12.992
▁amplification	-12.992
▁annihilat	-12.992
▁attorney	-12.992
▁barbecue	-12.992
▁bedouin	-12.992
▁bilingual	-12.992
▁brochure	-12.992
▁bueno	-12.992
▁centrifuge	-12.992
▁contaminant	-12.992
▁critique	-12.992
▁culprit	-12.992
▁enrique	-12.992
▁grizzl	-12.992
▁homicide	-12.992
▁jeopard	-12.992
▁juxtaposition	-12.992
▁merchandis	-12.992
▁murmur	-12.992
▁petrochemical	-12.992
▁precursor	-12.992
▁relentless	-12.992
▁replenish	-12.992
▁rifle	-12.992
▁soprano	-12.992
▁superficial	-12.992
▁synonymous	-12.992
▁thermodynamic	-12.992
▁vibrio	-12.992
▁xerox	-12.992
▁constituent	-12.992
▁coyote	-12.992
▁ghetto	-12.992
▁schematic	-12.992
▁strawberr	-12.992
trophy	-12.992
▁cassette	-12.992
▁snatch	-12.992
▁tentacle	-12.992
▁ulcer	-12.992
▁constituenc	-12.992
▁cunning	-12.992
▁hexagon	-12.992
▁uncann	-12.992
▁conceal	-12.992
▁hulk	-12.992
▁zebra	-12.992
▁plausib	-12.992
▁pluripoten	-12.992
▁roundabout	-12.992
▁semester	-12.992
▁agonizing	-12.992
▁squish	-12.992
▁tamil	-12.992
▁offense	-12.992
cartes	-12.992
▁memoir	-12.992
▁rudder	-12.992
▁mistrust	-12.992
▁mediocr	-12.992
▁burrow	-12.992
▁seamless	-12.992
▁antelope	-12.992
▁commentator	-12.992
▁contingen	-12.992
▁strait	-12.992
▁pelvi	-12.992
▁bracket	-12.992
▁retard	-12.992
geist	-12.992
▁ahmad	-12.992
▁roast	-12.992
▁1,800	-12.992
▁typewriter	-12.992
▁venom	-12.992
▁motel	-12.992
▁garret	-12.992
▁1890	-12.992
▁abdomen	-12.992
▁joystick	-12.992
▁demolish	-12.992
▁embed	-12.992
▁ottoman	-12.992
▁sophi	-12.992
▁java	-12.992
▁pluck	-12.992
▁striving	-12.992
▁stereotypical	-12.9921
▁vaccination	-12.9921
▁coarse	-12.9921
▁resign	-12.9921
▁boardroom	-12.9921
▁glaze	-12.9921
▁quirk	-12.9921
▁perpetrator	-12.9921
▁747	-12.9921
▁geoff	-12.9921
▁craftsman	-12.9921
▁opium	-12.9921
▁tabletop	-12.9921
▁fluke	-12.9921
▁zeta	-12.9921
▁genealog	-12.9922
litary	-12.9922
▁pcb	-12.9922
▁coincident	-12.9922
▁exert	-12.9922
▁epidemiologist	-12.9922
▁stainless	-12.9922
▁interconnection	-12.9922
▁1600	-12.9922
▁feat	-12.9923
▁epidemics	-12.9923
▁tibetan	-12.9923
▁funnel	-12.9923
▁skylight	-12.9923
▁cork	-12.9923
▁shackle	-12.9923
▁mourn	-12.9924
▁cosmologist	-12.9924
▁cornell	-12.9924
▁investigator	-12.9924
▁ukrain	-12.9924
▁teammate	-12.9924
pong	-12.9924
▁formulation	-12.9924
▁slack	-12.9924
▁rotor	-12.9924
iowa	-12.9924
▁herald	-12.9924
▁impairment	-12.9924
▁peripheral	-12.9925
▁airstream	-12.9925
▁trance	-12.9925
▁heather	-12.9925
▁firework	-12.9926
▁1500	-12.9926
▁ellen	-12.9926
▁johannes	-12.9926
▁jumble	-12.9926
▁spoofer	-12.9926
lar	-12.9926
▁expend	-12.9927
▁lobbyist	-12.9927
▁retrain	-12.9927
▁palin	-12.9927
▁miz	-12.9928
▁assay	-12.9928
▁hippo	-12.9928
▁waterproof	-12.9928
▁poignant	-12.9928
▁devour	-12.9929
▁45,000	-12.9929
▁tedious	-12.9929
▁outlier	-12.993
▁mailbox	-12.9931
▁semen	-12.9931
▁mckin	-12.9933
▁skyline	-12.9933
▁rejection	-12.9934
▁encoder	-12.9934
▁caval	-12.9934
▁panick	-12.9934
rapture	-12.9934
▁herring	-12.9934
▁stove	-12.9935
▁anarch	-12.9935
▁diverge	-12.9935
▁tyrannosaur	-12.9938
▁preacher	-12.9938
▁resume	-12.9938
emic	-12.994
▁matth	-12.994
▁stalk	-12.9942
▁barbie	-12.9942
▁pulley	-12.9942
▁stewards	-12.9944
▁grann	-12.9945
▁restraint	-12.9946
▁hedge	-12.9946
▁hurd	-12.9947
▁tribun	-12.9948
▁tether	-12.9948
▁marking	-12.995
libi	-12.9951
▁actua	-12.9951
ali	-12.9952
▁sneaker	-12.9954
▁antique	-12.9955
▁abort	-12.9955
▁retir	-12.9957
▁apathy	-12.9957
▁saucer	-12.9957
▁gobble	-12.9959
▁electora	-12.9961
▁amplifie	-12.9962
▁inflict	-12.9962
▁latrine	-12.9962
▁zig	-12.9963
▁admin	-12.9963
▁capric	-12.9964
▁idle	-12.9965
▁holland	-12.9965
▁bugg	-12.9966
▁applica	-12.9966
chell	-12.9966
▁gail	-12.9967
▁db	-12.9968
times	-12.997
▁declar	-12.9972
▁chim	-12.9973
▁kara	-12.9976
▁mango	-12.9977
▁rabi	-12.9978
▁gour	-12.9978
▁palpabl	-12.9978
▁intercept	-12.9981
▁freezer	-12.9982
▁cox	-12.9982
▁wasp	-12.9983
▁allowance	-12.9985
▁dys	-12.9987
ogram	-12.9988
▁25-	-12.999
▁contraction	-12.999
▁barbaria	-12.9992
hov	-12.9995
▁bosnian	-12.9996
▁maze	-12.9998
▁siren	-13.0004
▁innocen	-13.0006
▁griev	-13.0007
▁wink	-13.0013
▁interpla	-13.0014
▁asper	-13.0022
tyler	-13.0023
▁paula	-13.0025
▁kob	-13.0027
▁vase	-13.0027
▁grue	-13.0028
▁nir	-13.0028
anda	-13.0029
▁tib	-13.003
▁disclos	-13.0032
neous	-13.0032
▁magne	-13.0033
▁endow	-13.0035
▁muck	-13.0036
▁administer	-13.0037
▁granddaughter	-13.0037
▁deprive	-13.0039
▁rally	-13.004
rap	-13.0041
▁intro	-13.0048
heard	-13.0049
elect	-13.0054
▁myco	-13.0059
▁6.	-13.0061
▁swimmer	-13.0062
▁sociolog	-13.0062
shrine	-13.0064
▁metastas	-13.0067
▁raid	-13.0073
▁radiate	-13.0074
▁onion	-13.0078
▁jams	-13.0079
▁pathogenic	-13.0084
▁calibrate	-13.0085
▁reviv	-13.0087
jo	-13.0087
▁acro	-13.0088
▁noon	-13.0092
▁tires	-13.0093
ace	-13.0093
▁advised	-13.0095
mine	-13.0095
▁gavag	-13.0095
▁authoriz	-13.0096
▁adria	-13.0099
▁goof	-13.0102
17	-13.0103
▁kant	-13.0106
▁sk	-13.011
▁legislat	-13.0111
▁hustle	-13.0113
▁millionaire	-13.0114
▁1.	-13.0116
▁rewire	-13.0117
▁funk	-13.0118
gras	-13.0118
▁wade	-13.0119
atrice	-13.0124
▁biodegrad	-13.0126
enable	-13.0131
▁baba	-13.0135
▁inconvenience	-13.0138
▁marcel	-13.0139
▁liz	-13.0146
▁proceeding	-13.0154
quire	-13.0157
mento	-13.0161
▁escap	-13.0163
dom	-13.0166
era	-13.0166
▁multiplic	-13.0167
▁parkin	-13.017
▁laborer	-13.017
▁clam	-13.0171
▁corps	-13.0187
▁reveren	-13.0188
▁bidd	-13.0189
▁cracker	-13.0192
stonia	-13.0192
▁racial	-13.0193
▁diy	-13.0195
▁dim	-13.0196
▁abusi	-13.0199
rat	-13.0201
▁wobbl	-13.0201
▁dol	-13.0206
▁gla	-13.0208
▁harrie	-13.0209
▁dilute	-13.021
▁lenn	-13.0211
▁prohibit	-13.0213
indberg	-13.0215
ninsula	-13.0222
▁grower	-13.0227
rugg	-13.0235
scribe	-13.0238
▁tumbl	-13.0246
▁inversion	-13.0248
▁treasur	-13.0249
olyn	-13.025
.7	-13.0253
▁gymn	-13.0258
▁raft	-13.0262
▁expresse	-13.0268
▁untie	-13.027
▁presidents	-13.0275
▁eh	-13.0276
▁ecologically	-13.0277
jay	-13.0281
▁interst	-13.0292
▁democratize	-13.0296
▁presenter	-13.0302
▁ethnicit	-13.0303
ury	-13.0304
▁barn	-13.0307
▁dissipate	-13.0317
lings	-13.0319
ago	-13.0333
violent	-13.0334
▁precipitat	-13.0335
loa	-13.0338
▁thom	-13.0347
acco	-13.035
pent	-13.0354
▁ow	-13.0354
▁acknowledg	-13.0356
▁hygien	-13.0364
▁sc	-13.0369
▁torn	-13.0371
▁coron	-13.0371
▁dent	-13.0371
▁loom	-13.0375
▁smuggl	-13.0377
ju	-13.0385
ros	-13.0389
▁worldchanging	-13.0393
code	-13.0394
▁moderat	-13.0402
▁underestimat	-13.0402
▁speculate	-13.0402
paid	-13.041
▁mona	-13.041
sophist	-13.0413
mmunity	-13.0421
▁1.1	-13.0421
▁greener	-13.0422
tree	-13.0422
bur	-13.0423
▁pol	-13.0428
exist	-13.0431
▁barre	-13.0434
setting	-13.0437
▁barcode	-13.0446
going	-13.0447
eductive	-13.0461
feld	-13.0462
▁outlets	-13.0464
rp	-13.0468
▁et	-13.047
▁elevat	-13.048
misunderstanding	-13.0486
igma	-13.0489
▁orion	-13.0494
▁hc	-13.0498
borough	-13.0499
▁disco	-13.0502
▁roth	-13.0503
▁atlant	-13.0504
shel	-13.0507
▁col	-13.051
▁sacra	-13.0513
▁tee	-13.0515
sch	-13.0521
earle	-13.053
▁fertiliz	-13.0539
think	-13.054
door	-13.0541
▁mali	-13.0544
▁addicti	-13.0546
found	-13.0549
ivo	-13.055
runner	-13.0551
castle	-13.0555
scot	-13.0556
rca	-13.0557
mov	-13.0558
through	-13.0562
▁mongol	-13.0563
var	-13.0564
prince	-13.0568
cloth	-13.0569
creation	-13.0571
bath	-13.0572
motion	-13.0572
▁chi	-13.0573
paper	-13.0573
presence	-13.0573
consumption	-13.0574
knowledge	-13.0574
muslim	-13.0574
surface	-13.0574
benefit	-13.0574
ella	-13.0575
left	-13.0575
layer	-13.0576
seven	-13.0577
awareness	-13.0579
animate	-13.0579
claim	-13.0579
▁dire	-13.0581
▁fled	-13.0581
cake	-13.0582
meaning	-13.0584
interrupt	-13.0593
derive	-13.0593
▁gin	-13.0596
midst	-13.0603
▁reassure	-13.0604
▁arable	-13.0606
▁mobs	-13.0607
▁splitt	-13.0609
▁farthe	-13.0609
upper	-13.0611
▁decorat	-13.0612
dia	-13.0614
▁broadb	-13.0617
bach	-13.0619
▁esp	-13.062
och	-13.062
plin	-13.0633
kew	-13.0633
▁sufi	-13.0639
▁profitabl	-13.0643
hrai	-13.0677
▁remed	-13.0686
▁val	-13.0686
due	-13.0687
ona	-13.0694
▁witnesse	-13.0694
▁congratulat	-13.0698
▁kelle	-13.0699
ames	-13.0701
ug	-13.0703
axe	-13.0704
▁mann	-13.0705
▁nar	-13.0711
eum	-13.0715
▁cas	-13.0717
▁imperial	-13.0723
hu	-13.0733
rque	-13.0736
doubted	-13.074
ographic	-13.0747
▁duplicate	-13.0749
▁365	-13.0749
pu	-13.075
▁pins	-13.0754
▁lau	-13.0758
▁defi	-13.0759
realistic	-13.0761
intention	-13.0764
marie	-13.0765
▁que	-13.0802
lips	-13.081
trick	-13.0811
roy	-13.0816
▁desalinat	-13.0825
▁uc	-13.0825
gender	-13.0828
▁conjure	-13.0828
98	-13.0836
▁kisse	-13.0837
▁levi	-13.0844
iam	-13.0849
cam	-13.0869
▁crumbl	-13.087
im	-13.087
▁tempo	-13.0872
oil	-13.0878
pelle	-13.0882
▁overtake	-13.0892
70	-13.0896
ography	-13.0901
▁memoriz	-13.0905
▁scrambl	-13.0911
▁overestimat	-13.092
▁marx	-13.0929
mission	-13.093
▁bubbl	-13.0939
▁relieve	-13.0941
▁sip	-13.0942
▁blush	-13.0944
▁nova	-13.0944
▁aw	-13.0946
▁modifie	-13.0948
ough	-13.0949
▁ye	-13.0954
oca	-13.0954
▁barr	-13.0961
▁dealer	-13.0962
▁empath	-13.0964
teen	-13.0965
sari	-13.097
imi	-13.0975
▁jordans	-13.0986
▁champions	-13.0987
ena	-13.0987
▁tah	-13.0987
▁featur	-13.0989
dor	-13.0989
tical	-13.0997
lp	-13.1005
▁advoca	-13.101
▁pok	-13.1012
bend	-13.1015
traction	-13.1019
eiffe	-13.1021
▁standardiz	-13.1025
▁robins	-13.103
▁grouper	-13.1032
eman	-13.1036
▁typograph	-13.1038
start	-13.1038
▁tw	-13.1039
99	-13.1043
lma	-13.1047
▁commut	-13.1049
▁asha	-13.1053
▁glu	-13.1054
▁pear	-13.1055
estro	-13.1057
ino	-13.1057
ndon	-13.1058
inuit	-13.106
▁eeri	-13.1065
▁sina	-13.1066
ides	-13.107
▁zapp	-13.1075
▁parasit	-13.1082
icular	-13.1085
▁collid	-13.1085
▁dow	-13.1097
sustain	-13.1101
▁klei	-13.1102
▁conserv	-13.1104
consistenc	-13.111
▁bankrupt	-13.1114
▁hype	-13.1116
▁etern	-13.1121
▁fluorescen	-13.1122
▁hoove	-13.1123
igue	-13.1127
▁spi	-13.1131
▁secre	-13.1131
▁tease	-13.1133
▁humiliat	-13.1135
nato	-13.1135
▁incorrect	-13.1136
ravag	-13.1137
aron	-13.1138
▁jamaica	-13.1139
▁183	-13.1142
▁twi	-13.1143
▁nutritio	-13.1143
▁contextual	-13.1145
▁zon	-13.1146
▁confer	-13.1148
▁conc	-13.115
hasa	-13.1153
▁hyperbol	-13.1155
holder	-13.1157
▁disast	-13.116
▁60-	-13.1162
▁cala	-13.1163
▁decomp	-13.1164
▁advert	-13.1165
▁provocati	-13.1166
▁extrapolat	-13.1166
▁corrosi	-13.1166
▁propriet	-13.1167
▁communica	-13.1168
▁malawi	-13.1168
dehyd	-13.1168
▁affirm	-13.117
▁hippocamp	-13.117
▁peripet	-13.117
▁commemorat	-13.117
▁dissertation	-13.117
▁mozambi	-13.117
▁sisyph	-13.117
▁taskrabbit	-13.117
munition	-13.117
▁astroturf	-13.117
▁burglar	-13.117
▁condemn	-13.117
▁furnace	-13.117
▁gratuitous	-13.117
▁hispanic	-13.117
▁hypothermi	-13.117
▁inadvertent	-13.117
▁kiosk	-13.117
▁malthus	-13.117
▁microfluidic	-13.117
▁pygm	-13.117
▁reiterate	-13.117
▁semantic	-13.117
▁sinclair	-13.117
▁snippet	-13.117
▁specify	-13.117
▁splendid	-13.117
▁sprout	-13.117
▁stethoscope	-13.117
▁submerge	-13.117
▁succumb	-13.117
▁transcript	-13.117
▁vampire	-13.117
▁conceit	-13.117
▁lovin	-13.117
▁pundit	-13.117
▁rejuvenat	-13.117
▁accompany	-13.117
▁jacobs	-13.117
▁serpent	-13.117
▁spectator	-13.117
▁swift	-13.117
▁xiao	-13.117
▁gourmet	-13.117
▁tremor	-13.117
▁dialog	-13.117
▁kelp	-13.117
▁sculptural	-13.117
▁evangelical	-13.117
▁plunge	-13.117
▁99.9	-13.117
▁beverage	-13.117
▁windshield	-13.117
▁affirmative	-13.117
▁clown	-13.117
▁enclosure	-13.117
▁gatekeeper	-13.117
▁saliva	-13.117
▁subtitle	-13.117
▁cheeto	-13.117
▁hypersonic	-13.117
▁kazak	-13.117
▁ferocious	-13.117
▁nephew	-13.117
▁proliferation	-13.117
▁correspondence	-13.117
▁patriarch	-13.117
▁superorganism	-13.117
▁pupil	-13.117
vantage	-13.117
▁revisit	-13.117
▁viagra	-13.117
▁illustrator	-13.117
▁qualitative	-13.117
▁implie	-13.117
▁trumpet	-13.117
▁airstrip	-13.117
▁colonel	-13.117
▁selig	-13.117
▁facilitator	-13.117
cutta	-13.117
▁draco	-13.117
▁proclamation	-13.117
▁seamount	-13.117
▁unwilling	-13.117
shmi	-13.117
▁alleged	-13.117
▁chute	-13.117
▁retrospective	-13.117
▁entail	-13.117
▁precedent	-13.117
▁13.7	-13.117
▁weblog	-13.117
▁loung	-13.117
▁ballroom	-13.117
▁1.6	-13.117
▁deflation	-13.117
▁poach	-13.117
iscons	-13.117
▁calamit	-13.1171
ethos	-13.1171
▁undergrad	-13.1171
▁firewall	-13.1171
▁psychic	-13.1171
▁deput	-13.1171
▁campfire	-13.1171
▁crick	-13.1171
▁oval	-13.1171
▁fridge	-13.1171
▁vishn	-13.1171
elope	-13.1171
▁multicellular	-13.1171
avidian	-13.1171
▁defensive	-13.1171
▁sunscreen	-13.1172
▁gluten	-13.1172
▁bionicle	-13.1172
▁youthful	-13.1172
▁humiliation	-13.1172
▁amphibian	-13.1172
▁twinkl	-13.1172
▁mush	-13.1172
▁hallmark	-13.1172
▁adventist	-13.1172
▁playstation	-13.1173
▁brute	-13.1173
▁parch	-13.1173
▁rumor	-13.1173
▁deviation	-13.1173
▁subtraction	-13.1173
▁eloquent	-13.1173
▁bloodstream	-13.1173
▁lag	-13.1173
▁pv	-13.1174
▁depletion	-13.1174
▁deathbed	-13.1174
▁coloss	-13.1174
▁starck	-13.1174
▁disturbance	-13.1174
▁macc	-13.1174
▁fidel	-13.1175
▁meditator	-13.1175
▁font	-13.1175
▁unbearabl	-13.1175
▁clogg	-13.1175
▁capit	-13.1175
▁jake	-13.1175
▁dakota	-13.1176
▁1850	-13.1176
▁torment	-13.1176
▁futurist	-13.1176
adema	-13.1177
▁relic	-13.1177
▁sunfish	-13.1177
▁civilized	-13.1177
▁firefighter	-13.1177
▁damas	-13.1178
▁tnc	-13.1178
▁glide	-13.1178
▁imam	-13.1178
▁terrace	-13.1178
▁schul	-13.1178
▁setback	-13.1179
▁coworker	-13.1179
▁sailor	-13.118
▁newfound	-13.118
▁slick	-13.118
▁unpack	-13.1181
▁dataset	-13.1181
▁replay	-13.1182
▁wolve	-13.1182
▁grandios	-13.1183
▁epiphyte	-13.1185
▁geopolitic	-13.1186
bola	-13.1186
▁playwright	-13.1186
▁generalization	-13.1186
▁hippocrat	-13.1187
▁63	-13.1187
▁compiler	-13.1189
▁occupi	-13.119
okoll	-13.119
▁necrop	-13.119
▁surfer	-13.119
▁edition	-13.119
endgame	-13.1191
▁weaken	-13.1196
▁migrator	-13.1197
▁hitch	-13.1197
▁invert	-13.1197
▁strategist	-13.1197
▁reel	-13.1197
▁napo	-13.1198
mmy	-13.1199
▁blender	-13.1199
alph	-13.12
▁guin	-13.12
▁luxe	-13.1201
▁juggle	-13.1202
▁effortless	-13.1203
▁theremin	-13.1204
▁weightless	-13.1205
▁cherry	-13.1207
▁cannon	-13.1208
▁rung	-13.1208
▁realist	-13.1209
▁superma	-13.1211
▁kapu	-13.1214
▁saga	-13.1214
▁ensl	-13.1215
▁diversif	-13.1215
▁justifie	-13.1216
▁fearful	-13.1216
▁dispense	-13.1216
▁brak	-13.1217
▁intensif	-13.1217
▁euclid	-13.1219
▁krishna	-13.1219
▁mafia	-13.1219
▁serendipitous	-13.122
eplay	-13.1222
▁blackout	-13.1222
mination	-13.1222
▁fascis	-13.1222
adesh	-13.1224
nuck	-13.1227
▁anatomical	-13.1229
▁warhead	-13.1229
▁wrinkle	-13.123
▁seventy	-13.123
▁communicator	-13.1232
▁commonalit	-13.1234
eeming	-13.1237
▁nand	-13.1237
▁usher	-13.1238
evic	-13.1239
▁sq	-13.124
▁residence	-13.1241
▁raja	-13.1242
▁perish	-13.1244
hio	-13.1244
dept	-13.1248
▁truce	-13.1249
▁filtered	-13.125
ieber	-13.1252
ional	-13.1254
▁vis	-13.1257
▁steppe	-13.1258
▁jp	-13.1258
love	-13.1262
▁outfit	-13.1263
grown	-13.1264
▁sixty	-13.1264
▁wikileaks	-13.1265
▁whims	-13.1265
isine	-13.1268
▁mauriti	-13.1269
▁protector	-13.1269
▁gripp	-13.1272
▁grader	-13.1272
▁ricard	-13.1274
▁irreveren	-13.1275
▁truthful	-13.128
▁creed	-13.1281
▁dice	-13.1282
▁fable	-13.1284
▁pete	-13.1284
▁zeit	-13.1287
▁parse	-13.1291
▁adjustment	-13.1292
odoo	-13.1293
▁hypothesize	-13.1295
rudi	-13.1295
▁shorten	-13.1298
▁cess	-13.1299
▁justin	-13.13
▁underdog	-13.1305
▁inflammat	-13.1306
▁apt	-13.131
▁mindless	-13.1311
▁valuation	-13.1312
▁lunches	-13.1313
▁duct	-13.1314
▁relat	-13.1315
▁tric	-13.1316
▁fertilize	-13.1317
racy	-13.1318
▁weirdo	-13.1319
▁ipc	-13.1325
atomic	-13.1331
tendent	-13.1335
▁shooter	-13.1335
iving	-13.1335
astery	-13.1336
▁persever	-13.1338
▁raisin	-13.1338
▁shaker	-13.1343
▁geometrical	-13.1344
▁alba	-13.1346
hower	-13.1347
plate	-13.1349
▁nap	-13.1353
▁intentionally	-13.1354
▁addresse	-13.1356
▁locker	-13.136
-20	-13.1368
▁tortur	-13.1373
stoy	-13.1375
▁revolv	-13.138
▁inverse	-13.1382
▁surprises	-13.1383
▁duti	-13.139
▁nostalgi	-13.1392
ament	-13.1394
▁tray	-13.1395
▁prune	-13.1398
ix	-13.1401
▁haze	-13.1403
emise	-13.1404
▁arguer	-13.1404
▁sled	-13.1416
stopp	-13.1421
▁outsourc	-13.1421
▁foil	-13.1425
▁sham	-13.1428
buster	-13.1432
▁dian	-13.1436
rital	-13.1438
▁auntie	-13.1443
▁stru	-13.1453
ario	-13.1454
▁fabricate	-13.1455
▁trader	-13.1457
ulation	-13.1461
▁dee	-13.1468
esco	-13.147
▁categorize	-13.1474
▁8-	-13.1478
▁borg	-13.1479
mato	-13.1479
▁hamp	-13.1483
▁spina	-13.1487
nage	-13.1487
▁greeting	-13.1488
gger	-13.1491
▁bagg	-13.1499
▁rov	-13.1501
▁andrea	-13.1504
▁attacker	-13.1508
ennial	-13.1508
▁revision	-13.1509
mus	-13.1515
▁assurance	-13.152
▁copulat	-13.1521
▁audi	-13.153
ocular	-13.1531
ample	-13.1541
▁rosi	-13.1547
scal	-13.1553
appointed	-13.1554
▁kerm	-13.1556
▁dine	-13.1558
kill	-13.157
▁conceivabl	-13.1572
akash	-13.1575
enia	-13.1585
▁skyscrapers	-13.1587
ologist	-13.1587
ken	-13.1593
pl	-13.1593
▁blai	-13.1597
hr	-13.1604
▁soar	-13.1606
▁sari	-13.1609
▁malleab	-13.1615
▁dependency	-13.1616
replicat	-13.1617
sses	-13.1618
▁junkie	-13.1619
cision	-13.1625
ito	-13.1625
▁ambi	-13.1631
▁bitch	-13.1631
▁crafts	-13.1634
▁crosse	-13.1635
▁fatalit	-13.1636
▁attache	-13.1644
▁voil	-13.165
oscope	-13.1658
▁phar	-13.166
▁chev	-13.1661
▁fetch	-13.1661
▁layma	-13.1666
▁internalize	-13.1667
lots	-13.1671
▁stigmatiz	-13.1672
▁varie	-13.1679
liv	-13.1681
▁fare	-13.1682
rado	-13.1691
▁kins	-13.1691
burn	-13.1695
sters	-13.1698
▁energiz	-13.1703
ngalo	-13.1711
▁fer	-13.1712
▁rhe	-13.1715
▁sol	-13.1717
mode	-13.172
fe	-13.1726
▁diatom	-13.1727
▁deteriorat	-13.1734
▁commun	-13.1735
▁rescu	-13.176
▁gallo	-13.1764
81	-13.1774
▁siz	-13.1784
pant	-13.1784
▁todd	-13.1784
▁recap	-13.1786
ometric	-13.1788
▁sur	-13.179
▁punt	-13.1793
eg	-13.1796
▁anne	-13.1796
▁illuminate	-13.1798
aries	-13.1808
elian	-13.181
▁insignifican	-13.1819
▁vitr	-13.1829
lock	-13.1834
tub	-13.1835
▁keene	-13.1837
uron	-13.1852
▁patt	-13.1867
▁erode	-13.1872
put	-13.1875
eal	-13.188
ee	-13.1888
sai	-13.189
▁excel	-13.1891
▁scaveng	-13.1893
cat	-13.1894
electrifie	-13.19
knit	-13.1911
habi	-13.1913
▁adversar	-13.1914
▁coache	-13.1915
▁fiddl	-13.1916
anish	-13.1922
▁clo	-13.1923
▁rama	-13.1925
▁conne	-13.1944
uter	-13.1948
▁archaeolog	-13.1948
▁juic	-13.1951
▁infiltrate	-13.1952
link	-13.1954
▁finishe	-13.1957
tron	-13.1957
nourish	-13.1958
regulat	-13.1962
▁temporari	-13.1967
respective	-13.1968
▁lac	-13.1969
talk	-13.1969
otic	-13.1972
author	-13.1972
▁gravel	-13.1973
cane	-13.1977
▁dispose	-13.1978
list	-13.1981
▁cre	-13.1982
▁procession	-13.1984
visual	-13.1984
gel	-13.1985
▁71	-13.1985
haul	-13.1986
virus	-13.199
plankton	-13.1992
voluntar	-13.1993
boat	-13.1994
conscious	-13.1997
shoulder	-13.1997
millimeter	-13.1997
▁pate	-13.1998
deaf	-13.1998
science	-13.1999
club	-13.1999
bring	-13.2
huh	-13.2001
parallel	-13.2001
business	-13.2001
sexual	-13.2001
moment	-13.2002
order	-13.2002
steel	-13.2002
bottom	-13.2003
negative	-13.2003
pressure	-13.2003
famous	-13.2003
nuclear	-13.2003
blood	-13.2003
▁accr	-13.2003
solar	-13.2005
support	-13.2006
fight	-13.2007
▁acry	-13.2007
agency	-13.2008
ach	-13.2012
fast	-13.2024
rma	-13.2029
natal	-13.2034
strand	-13.2035
▁uneas	-13.2039
witt	-13.204
▁cooperat	-13.2041
▁comp	-13.2041
▁adopti	-13.2043
impos	-13.2044
ke	-13.2045
speaking	-13.2045
block	-13.2046
bury	-13.2057
vard	-13.2063
mite	-13.2068
eff	-13.2069
induce	-13.2073
▁breaker	-13.2077
▁shek	-13.208
▁rhode	-13.208
lider	-13.2084
▁titani	-13.2086
bart	-13.2096
tted	-13.2105
▁aria	-13.2106
▁cubes	-13.2106
▁bb	-13.2116
endo	-13.2118
▁narco	-13.2118
▁beta	-13.2131
static	-13.2136
▁skyscraper	-13.2138
uva	-13.2138
▁overstate	-13.2144
▁kurd	-13.2144
lux	-13.2149
annie	-13.2168
▁modernis	-13.217
▁viv	-13.2175
▁stresse	-13.2177
kara	-13.2177
boggl	-13.2179
mud	-13.2181
▁dew	-13.2182
tax	-13.2186
▁intolera	-13.2187
party	-13.2201
▁limp	-13.2203
▁boon	-13.2208
cles	-13.2211
▁bli	-13.2226
▁volu	-13.2228
uv	-13.2241
▁archi	-13.2242
▁endure	-13.2248
▁rim	-13.2251
▁dicke	-13.2251
▁robe	-13.2252
sel	-13.2262
▁devastate	-13.2263
▁trice	-13.2263
▁bomber	-13.2269
aku	-13.2276
dder	-13.2277
▁convers	-13.2295
▁spec	-13.2303
▁exacerbate	-13.2305
▁102	-13.2313
▁joan	-13.2313
angle	-13.2316
unes	-13.2319
▁heli	-13.2325
udge	-13.2326
▁capp	-13.2331
elling	-13.2338
▁humanize	-13.2338
▁suv	-13.2339
hair	-13.2347
pus	-13.2355
▁reproduc	-13.2365
▁vie	-13.2369
▁stac	-13.237
▁olde	-13.2374
hacked	-13.2375
▁evacuate	-13.238
gur	-13.2387
▁apolog	-13.24
▁battl	-13.24
arawa	-13.2401
score	-13.2403
rump	-13.2412
reason	-13.2412
ctor	-13.2415
gli	-13.2419
▁wor	-13.2421
24	-13.2422
▁terr	-13.2423
▁amen	-13.2425
▁recreat	-13.2427
▁deb	-13.2427
ulli	-13.2428
▁dialect	-13.2432
▁dilut	-13.2433
▁pri	-13.2441
ges	-13.2444
hil	-13.2445
lind	-13.2447
roa	-13.245
▁wrestl	-13.2452
▁exaggerat	-13.2453
metric	-13.2453
▁crippl	-13.2455
bab	-13.246
▁mitch	-13.2472
▁jai	-13.2473
▁olymp	-13.2473
▁enslave	-13.2475
▁alp	-13.2476
rmer	-13.2479
▁rive	-13.2483
rse	-13.2483
zy	-13.2483
▁lunat	-13.2486
▁microscopi	-13.249
▁recurr	-13.249
▁geologic	-13.2492
rman	-13.2501
exhausti	-13.2503
▁calv	-13.2506
▁interconnect	-13.2506
▁skat	-13.2507
▁tinker	-13.2508
▁adventur	-13.2509
▁meritocrat	-13.2509
▁epi	-13.2517
▁solidari	-13.2521
mat	-13.2521
ception	-13.2521
▁vik	-13.2522
▁shred	-13.2523
▁understate	-13.2527
▁visi	-13.2529
nect	-13.2534
▁indulge	-13.2536
ath	-13.2541
▁ko	-13.2545
▁patrol	-13.2547
▁buddhis	-13.2557
▁analytic	-13.2558
py	-13.2559
ime	-13.2567
▁pleasur	-13.2567
á	-13.257
▁squea	-13.257
▁swat	-13.2571
▁zan	-13.2573
▁dyna	-13.2579
▁handicap	-13.2581
▁trespass	-13.2584
ometer	-13.2593
sala	-13.2594
▁proxim	-13.2594
▁implicat	-13.2595
▁fig	-13.2595
▁ellip	-13.2595
▁mandel	-13.2595
▁enric	-13.2595
▁intersect	-13.2596
▁glee	-13.2596
▁enact	-13.2597
▁yad	-13.2597
artu	-13.2597
▁vertebra	-13.2597
▁superconduct	-13.2597
curiti	-13.2598
nfl	-13.2598
retroviral	-13.2598
brot	-13.2598
,800	-13.2598
▁embroi	-13.2598
▁undesir	-13.2598
%	-13.2598
=	-13.2598
bilitat	-13.2598
▁additive	-13.2598
▁amputee	-13.2598
▁anagnoris	-13.2598
▁anesthetic	-13.2598
▁blossom	-13.2598
▁carnivor	-13.2598
▁catapult	-13.2598
▁cataract	-13.2598
▁catheter	-13.2598
▁confuci	-13.2598
▁consorti	-13.2598
▁cosmopolitan	-13.2598
▁denisovan	-13.2598
▁dessert	-13.2598
▁deutsch	-13.2598
▁disguise	-13.2598
▁dissident	-13.2598
▁ensemble	-13.2598
▁expansive	-13.2598
▁eyewitness	-13.2598
▁fingernail	-13.2598
▁guerrilla	-13.2598
▁hitchhik	-13.2598
▁incessant	-13.2598
▁incredul	-13.2598
▁indefinite	-13.2598
▁indiscriminate	-13.2598
▁isotope	-13.2598
▁masculin	-13.2598
▁metronome	-13.2598
▁mosaic	-13.2598
▁nostril	-13.2598
▁pedagog	-13.2598
▁pendulum	-13.2598
▁photoreceptor	-13.2598
▁preconception	-13.2598
▁raindrop	-13.2598
▁rebreather	-13.2598
▁receptacle	-13.2598
▁ruthless	-13.2598
▁résumé	-13.2598
▁scandinavia	-13.2598
▁snowflake	-13.2598
▁spinneret	-13.2598
▁trojan	-13.2598
▁unprepared	-13.2598
▁vomit	-13.2598
▁bitcoin	-13.2598
▁impossibilit	-13.2598
▁improbabilit	-13.2598
▁mechanistic	-13.2598
▁parainfluenza	-13.2598
▁pseudo	-13.2598
▁afflict	-13.2598
▁agitat	-13.2598
▁branson	-13.2598
▁casino	-13.2598
▁climax	-13.2598
▁decibel	-13.2598
▁decimal	-13.2598
▁diagonal	-13.2598
▁griffi	-13.2598
▁peacock	-13.2598
▁puddle	-13.2598
▁qualification	-13.2598
▁seldom	-13.2598
profe	-13.2598
▁chirp	-13.2598
▁clutter	-13.2598
▁granular	-13.2598
▁lobster	-13.2598
▁vigil	-13.2598
▁dystonia	-13.2598
▁hewlett	-13.2598
▁milligram	-13.2598
▁vigorous	-13.2598
▁yacht	-13.2598
▁remnant	-13.2598
▁carcass	-13.2598
▁geyser	-13.2598
▁unconditional	-13.2598
▁videotape	-13.2598
▁bleep	-13.2598
▁chemokine	-13.2598
▁frostbit	-13.2598
▁gyps	-13.2598
▁seaweed	-13.2598
▁lichen	-13.2598
▁braille	-13.2598
▁brittle	-13.2598
▁plaster	-13.2598
▁regress	-13.2598
▁scourge	-13.2598
▁tulle	-13.2598
▁desolate	-13.2598
▁intricac	-13.2598
▁landmass	-13.2598
▁paraplegic	-13.2598
▁confound	-13.2598
▁capillar	-13.2598
▁crossroad	-13.2598
▁meteorite	-13.2598
▁mislead	-13.2598
▁delicac	-13.2598
bourne	-13.2598
▁veterinarian	-13.2598
▁clump	-13.2598
▁chopstick	-13.2598
▁probiotic	-13.2598
▁razor	-13.2599
▁oncologist	-13.2599
▁shanty	-13.2599
▁recapitulate	-13.2599
▁cesar	-13.2599
▁hemlock	-13.2599
▁belgi	-13.2599
▁overheat	-13.2599
▁cemeter	-13.2599
▁supersonic	-13.2599
▁traumatiz	-13.2599
▁narrator	-13.2599
▁morris	-13.2599
▁quantifie	-13.2599
▁clerk	-13.2599
▁virtuoso	-13.2599
▁zach	-13.2599
▁fanatic	-13.2599
▁catalyze	-13.2599
▁loft	-13.2599
▁bastard	-13.2599
hstan	-13.2599
▁grub	-13.2599
▁isabel	-13.2599
▁neurosurgeon	-13.2599
▁ritz	-13.2599
▁artisan	-13.2599
▁lightbulb	-13.2599
▁nineteen	-13.2599
▁bount	-13.2599
▁precondition	-13.2599
▁skycar	-13.2599
▁shuk	-13.2599
▁dissatisf	-13.2599
runk	-13.2599
▁fluff	-13.2599
▁magnify	-13.2599
▁violinist	-13.2599
▁chronological	-13.2599
▁coauthor	-13.26
skoll	-13.26
▁avid	-13.26
▁deletion	-13.26
▁montage	-13.26
▁captive	-13.26
▁noninvasive	-13.26
▁twig	-13.26
opter	-13.26
▁untouch	-13.26
▁suffic	-13.26
partisan	-13.26
▁screenshot	-13.26
▁shaman	-13.26
▁syllabus	-13.26
▁acoustician	-13.26
▁croatia	-13.26
▁maiden	-13.26
▁brenda	-13.26
▁spearhead	-13.26
anesthesiologist	-13.26
▁quarry	-13.2601
▁snor	-13.2601
▁augmentation	-13.2601
▁leash	-13.2601
▁hush	-13.2601
▁paraphras	-13.2601
uchin	-13.2601
▁mashup	-13.2601
▁rutan	-13.2601
▁boast	-13.2601
▁ballistic	-13.2601
▁anthr	-13.2601
ofi	-13.2601
▁streamlin	-13.2601
▁scold	-13.2602
▁smithson	-13.2602
▁twitch	-13.2602
▁watershed	-13.2602
▁taint	-13.2602
▁moonlight	-13.2602
disproportionate	-13.2602
▁cdc	-13.2603
▁unrel	-13.2603
▁frill	-13.2603
▁amazement	-13.2603
▁chore	-13.2603
▁escalator	-13.2603
▁robbin	-13.2603
▁polynesia	-13.2604
▁savannah	-13.2604
▁barge	-13.2604
▁papa	-13.2604
▁flopp	-13.2605
▁eighteen	-13.2605
▁steriliz	-13.2605
▁tombo	-13.2605
schel	-13.2605
▁bulldozer	-13.2605
▁bragg	-13.2605
▁agri	-13.2605
▁wilkins	-13.2605
▁psa	-13.2606
▁laminate	-13.2607
▁grenade	-13.2607
▁elude	-13.2607
▁babysitter	-13.2607
▁repurpos	-13.2607
▁regrow	-13.2608
▁apocalyp	-13.2608
▁impoten	-13.2608
interdisciplinar	-13.2608
▁dispersant	-13.2608
▁1910	-13.2608
▁casa	-13.2609
▁prism	-13.2609
▁successive	-13.2609
▁gooseb	-13.2609
▁equate	-13.2611
▁sitcom	-13.2611
▁jf	-13.2612
▁overdose	-13.2612
▁frantic	-13.2613
▁carlo	-13.2613
pelag	-13.2614
bule	-13.2615
▁juli	-13.2615
▁stephan	-13.2615
▁pomp	-13.2615
▁breastfeed	-13.2615
▁gymnas	-13.2616
▁regiment	-13.2617
▁puer	-13.2617
▁moan	-13.2618
▁braun	-13.2618
evo	-13.2619
▁crescen	-13.2619
desic	-13.2619
▁bait	-13.262
▁chatter	-13.262
▁papercutting	-13.262
▁headscar	-13.262
▁tradeoff	-13.2621
▁resourceful	-13.2622
▁eel	-13.2622
▁dime	-13.2625
▁ergo	-13.2626
▁heavier	-13.2626
▁bloodsh	-13.2628
▁kook	-13.2628
▁incompatib	-13.2629
▁plumber	-13.2631
▁concerto	-13.2633
▁spice	-13.2634
-47	-13.2636
toris	-13.2636
▁ahh	-13.2636
▁geron	-13.2637
▁exuberan	-13.2638
▁bulge	-13.2639
▁retro	-13.264
▁permeate	-13.2642
vo	-13.2644
▁inhibitor	-13.2644
▁stirring	-13.2645
▁siste	-13.2646
araj	-13.2647
▁merger	-13.2647
▁seams	-13.2652
▁flipper	-13.2653
▁smother	-13.2653
▁astrolog	-13.2654
mentary	-13.2654
▁absorpti	-13.2655
▁gigabyte	-13.2655
▁megabyte	-13.2655
▁hydrant	-13.2655
▁preschool	-13.2658
▁partition	-13.2658
▁salien	-13.266
illi	-13.2662
▁bog	-13.2663
▁pil	-13.2667
▁apop	-13.2668
▁qatari	-13.2669
▁specification	-13.267
tv	-13.267
▁noun	-13.2671
▁evaluati	-13.2672
▁tenn	-13.2672
▁biopsy	-13.2674
▁thicken	-13.2675
▁louv	-13.2675
dan	-13.2675
▁hyp	-13.2677
nya	-13.2679
orium	-13.2679
▁healer	-13.2681
▁barbaric	-13.2682
▁polo	-13.2682
▁driveway	-13.2683
bale	-13.2685
▁cher	-13.2686
▁eclipse	-13.2688
▁ashes	-13.269
▁fist	-13.2691
▁gho	-13.2692
▁gregor	-13.2693
▁stubb	-13.2697
▁prose	-13.2697
mostat	-13.2703
▁swapp	-13.2704
▁cambodian	-13.2704
▁eros	-13.2704
▁ankle	-13.2704
▁enthusiast	-13.2709
hman	-13.2714
ara	-13.2715
date	-13.2717
▁meyer	-13.2717
▁scent	-13.2719
nim	-13.272
rity	-13.2722
wak	-13.2723
▁mcca	-13.2723
▁abid	-13.2731
▁recite	-13.2731
▁pett	-13.2733
trap	-13.2739
▁fide	-13.2747
otto	-13.2749
ear	-13.275
▁maid	-13.2751
mv	-13.2755
▁storyline	-13.2761
lore	-13.2762
▁darken	-13.2769
▁dweller	-13.277
▁somber	-13.2776
▁bomba	-13.2777
quer	-13.2795
▁militari	-13.2798
▁brainwaves	-13.2801
▁platoni	-13.2802
▁rake	-13.2804
valent	-13.2806
orn	-13.2806
▁lifesav	-13.2811
ensibl	-13.2813
▁hart	-13.2815
uther	-13.2815
▁grimm	-13.2816
▁gelatin	-13.2819
▁idealiz	-13.282
▁melani	-13.2821
▁intrigue	-13.2821
annon	-13.2834
▁motorize	-13.2835
tivo	-13.2838
▁illuminati	-13.2841
ango	-13.2842
▁delve	-13.2843
▁enro	-13.2846
▁villa	-13.2846
▁hundredth	-13.2849
▁sanct	-13.2854
▁brewer	-13.2855
▁dunl	-13.2857
▁tasting	-13.2858
▁eminent	-13.2858
▁correlations	-13.2861
lazar	-13.2864
erk	-13.2865
▁scalp	-13.2865
▁triangula	-13.2873
▁grum	-13.2876
snick	-13.2877
▁misse	-13.2878
▁cavit	-13.2879
▁fusi	-13.288
▁digesti	-13.2884
▁ke	-13.2886
▁shim	-13.2887
▁rack	-13.2892
via	-13.2893
ionist	-13.2893
▁robbi	-13.2895
▁sav	-13.2896
▁marian	-13.2897
saver	-13.2897
▁drumm	-13.2902
▁tanker	-13.2903
▁eli	-13.2906
▁calve	-13.2911
lation	-13.2912
▁veld	-13.2914
▁madam	-13.2915
▁quotation	-13.2916
▁retrofitt	-13.2918
▁schedul	-13.2921
▁grappl	-13.2928
▁decompose	-13.2929
afari	-13.2929
doo	-13.2932
▁hemo	-13.2933
▁enhanc	-13.2946
▁placement	-13.2951
nica	-13.2953
▁skim	-13.2953
▁incorporat	-13.296
▁inhale	-13.2963
▁manic	-13.2963
bank	-13.2967
pend	-13.2967
▁chops	-13.2968
▁insula	-13.297
gow	-13.2979
njunction	-13.2986
▁subtl	-13.299
ether	-13.299
▁pharmacolog	-13.2994
▁scribble	-13.2995
▁swan	-13.2995
begg	-13.2996
pool	-13.2998
mbe	-13.3005
lor	-13.3013
▁spac	-13.3014
▁presto	-13.3014
phone	-13.3016
▁tam	-13.3019
▁ric	-13.3019
▁3,000-	-13.303
guan	-13.3035
ging	-13.3036
▁bren	-13.3038
ozo	-13.3043
ulate	-13.3049
▁kerr	-13.3066
▁psyched	-13.3068
credit	-13.3069
▁licens	-13.3071
▁induce	-13.3074
ural	-13.308
pal	-13.3082
▁genitali	-13.309
hours	-13.3102
▁yu	-13.3107
ock	-13.3116
▁7-	-13.3116
kh	-13.3122
▁rhythmic	-13.3123
uters	-13.3124
▁nico	-13.3127
▁mur	-13.3131
ansk	-13.3131
▁wolfe	-13.3134
ndura	-13.3137
▁irrigat	-13.3142
▁rube	-13.3143
bell	-13.3153
▁blended	-13.3154
ailing	-13.3158
▁standardize	-13.3167
logy	-13.3175
arily	-13.3176
uper	-13.3183
idden	-13.3186
▁frost	-13.3187
▁polyp	-13.3198
▁medic	-13.3198
▁ensur	-13.3201
▁beneficiar	-13.3201
▁sprayed	-13.3202
▁presume	-13.3203
▁soot	-13.3206
wine	-13.3208
▁bala	-13.3209
▁shi	-13.3211
hog	-13.3214
eva	-13.3214
▁lud	-13.3215
▁rect	-13.3216
▁flips	-13.3217
▁tort	-13.3219
▁rejoice	-13.322
▁differentiat	-13.3222
▁cortic	-13.3224
▁engel	-13.3227
fits	-13.3228
13	-13.3235
▁vir	-13.3241
▁bir	-13.3245
▁fre	-13.3248
rt	-13.3249
teres	-13.3252
cit	-13.3253
▁lou	-13.326
▁admitt	-13.3263
bucha	-13.3267
▁fal	-13.3268
oni	-13.327
alam	-13.3273
▁ibu	-13.3276
cide	-13.328
▁merry	-13.3282
▁nourish	-13.3283
▁87	-13.3285
▁circl	-13.3288
▁atten	-13.3295
unit	-13.3298
.6	-13.33
▁restricti	-13.3308
▁trim	-13.3313
▁valu	-13.332
uick	-13.3322
▁irreducibl	-13.3324
▁damned	-13.3324
aw	-13.3327
▁peg	-13.3328
luck	-13.3338
▁kinet	-13.3338
▁execut	-13.3345
hua	-13.3345
▁hone	-13.3346
▁comb	-13.3351
▁compile	-13.3351
▁paol	-13.3357
▁archae	-13.3358
▁orchestrate	-13.3363
▁atala	-13.3366
▁alleviate	-13.337
▁periodical	-13.3372
▁lapse	-13.3372
▁forge	-13.3372
▁trillions	-13.3372
hiza	-13.3379
▁slic	-13.3379
▁pea	-13.3382
▁bale	-13.3386
tically	-13.3386
▁fab	-13.3395
arable	-13.3399
heir	-13.34
sium	-13.3405
▁bou	-13.3406
▁sto	-13.3406
▁micron	-13.3408
▁bulls	-13.341
▁virtu	-13.3411
za	-13.3416
know	-13.3417
▁cred	-13.3418
▁cul	-13.3419
cular	-13.3419
▁ranking	-13.3427
ator	-13.3435
▁speculat	-13.3439
ker	-13.3441
dropping	-13.3449
▁csi	-13.3452
open	-13.3455
aya	-13.3466
graph	-13.347
▁asymmetrical	-13.347
▁sear	-13.3471
▁fla	-13.3474
▁animat	-13.3476
wake	-13.349
▁hua	-13.3493
▁135	-13.3495
▁mint	-13.3496
▁premier	-13.3504
▁localiz	-13.3504
▁punctuat	-13.3505
erin	-13.3517
will	-13.3519
▁patche	-13.3531
▁fen	-13.3535
▁zul	-13.3547
▁tr	-13.3559
▁prit	-13.3563
ogen	-13.3568
.2	-13.3572
doubt	-13.3575
▁ordinari	-13.3577
friendl	-13.3583
upp	-13.3584
want	-13.3587
▁sen	-13.3592
phy	-13.3596
▁issu	-13.3599
▁stagna	-13.3614
frost	-13.3618
plasma	-13.3619
vor	-13.362
publish	-13.3629
approv	-13.3629
igger	-13.363
ravin	-13.3631
spoke	-13.3637
orthodox	-13.3639
ades	-13.3639
typical	-13.3642
▁interdependen	-13.3642
laho	-13.3643
fetch	-13.3644
chev	-13.3649
keep	-13.3652
tel	-13.3654
qualifie	-13.3654
bearing	-13.3658
frai	-13.3658
jet	-13.3662
▁tai	-13.3663
bomb	-13.3663
fuller	-13.3663
majorit	-13.3663
country	-13.3665
chunk	-13.3666
discipline	-13.3667
function	-13.3667
tower	-13.3668
scann	-13.3668
yourself	-13.3669
kilometer	-13.3669
inspired	-13.3669
professional	-13.3669
color	-13.3669
crisis	-13.367
felt	-13.367
1990	-13.367
bread	-13.367
dense	-13.3671
inspiring	-13.3671
pick	-13.3671
▁narrati	-13.3672
gai	-13.3673
altitude	-13.3673
powerful	-13.3673
pour	-13.3674
▁disintegrate	-13.3675
▁colonize	-13.3676
killer	-13.3677
circuit	-13.3678
rill	-13.3679
loop	-13.3681
guide	-13.3688
reactor	-13.3689
finger	-13.369
▁vapor	-13.3691
paste	-13.3692
▁whal	-13.3696
letter	-13.3697
▁optional	-13.37
▁linger	-13.371
articulate	-13.3712
06	-13.3724
dough	-13.3724
diagnose	-13.3726
▁skirt	-13.3729
flying	-13.3732
bill	-13.3736
driver	-13.3738
damn	-13.3742
winn	-13.3744
izer	-13.3748
▁sim	-13.3756
▁chan	-13.3763
▁abnormalit	-13.3764
▁monstro	-13.3768
▁sec	-13.3769
▁ignite	-13.3774
▁rete	-13.3775
meal	-13.3776
▁webb	-13.3777
▁fak	-13.3784
▁rf	-13.3786
▁perpetuate	-13.3787
▁wag	-13.3788
▁revive	-13.379
corr	-13.3792
▁kun	-13.3793
coat	-13.3794
▁phi	-13.3796
stay	-13.3796
uca	-13.3798
▁testic	-13.3809
tick	-13.3811
▁cones	-13.3811
▁customize	-13.3819
▁approximat	-13.3828
haram	-13.3829
sava	-13.3834
▁secur	-13.3835
data	-13.3835
▁unw	-13.3837
▁persona	-13.3838
emed	-13.3839
mos	-13.3843
▁wobble	-13.3845
olo	-13.3854
arko	-13.3855
utu	-13.386
▁humm	-13.3868
inja	-13.3882
▁bash	-13.3887
.0	-13.3888
▁maha	-13.3888
▁dhara	-13.3897
plant	-13.3905
▁lateral	-13.3907
osa	-13.3913
▁profan	-13.3915
▁boo	-13.3918
kov	-13.3921
▁argentine	-13.3927
▁madd	-13.394
rative	-13.3944
▁crazi	-13.3945
ween	-13.3947
ci	-13.3948
bby	-13.395
▁mak	-13.3971
▁caricature	-13.3971
pan	-13.3984
▁revolve	-13.3987
ack	-13.3991
▁revis	-13.3994
▁org	-13.4004
▁tier	-13.4006
actic	-13.4007
onic	-13.4007
otta	-13.4009
anga	-13.4011
core	-13.4012
▁harden	-13.4016
▁fixate	-13.4016
▁condo	-13.4017
▁perpetuat	-13.4019
▁surreal	-13.4019
tson	-13.402
▁rebuil	-13.4021
rval	-13.4023
arcelo	-13.4044
▁venge	-13.4044
▁suss	-13.4045
rel	-13.4049
apping	-13.4055
▁thug	-13.4058
continent	-13.4059
enabl	-13.4064
▁presiden	-13.4067
▁royalt	-13.4067
▁fran	-13.4068
▁remedi	-13.407
osh	-13.4072
▁colonialis	-13.4077
▁governors	-13.4078
40	-13.4081
zhen	-13.4083
favorabl	-13.4088
alisa	-13.4091
è	-13.4092
▁merci	-13.4093
▁assert	-13.4093
park	-13.4096
▁inactiv	-13.4098
▁devi	-13.4103
iva	-13.4103
66	-13.4105
▁fau	-13.4106
▁localize	-13.4115
marks	-13.4115
▁franchise	-13.4116
▁inaugurat	-13.4118
▁sourc	-13.4121
▁michoac	-13.4123
▁irrever	-13.4123
▁char	-13.4124
▁crowdsourc	-13.4125
▁tyrann	-13.4126
station	-13.4135
▁approve	-13.4136
▁rev	-13.4141
▁lynch	-13.4151
▁maverick	-13.4154
ón	-13.4155
▁vas	-13.4157
ank	-13.4159
▁hubb	-13.416
▁dads	-13.4167
▁tailing	-13.4167
cule	-13.417
47	-13.4173
▁reconfigur	-13.4173
los	-13.4178
minent	-13.4182
▁flux	-13.4183
▁wig	-13.4184
▁euthan	-13.4188
▁distinguishe	-13.4192
▁ji	-13.4194
▁preten	-13.4195
ronym	-13.4203
▁anthrop	-13.4206
▁luth	-13.4206
omics	-13.4206
▁malign	-13.4209
▁leake	-13.421
▁turbulen	-13.4217
▁eject	-13.422
▁scrutin	-13.4221
ckel	-13.4222
▁gib	-13.4226
▁plutocra	-13.4227
▁galactic	-13.4228
▁induct	-13.4229
▁envelop	-13.4229
▁disintegrat	-13.4229
▁ensu	-13.423
vy	-13.4232
▁grie	-13.4233
▁batter	-13.4235
▁albania	-13.4236
▁suicid	-13.4242
▁beekeep	-13.4244
▁pl	-13.4245
▁clunk	-13.4246
kipp	-13.4246
▁gui	-13.4246
ketch	-13.4246
▁incline	-13.4248
▁miserabl	-13.4248
▁propel	-13.425
[...]
