<unk>	0
<s>	0
</s>	0
<pad>	0
▁,	-3.06602
s	-3.22014
▁.	-3.29223
▁the	-3.36803
;	-3.55512
▁&	-3.58067
▁to	-3.89664
▁a	-3.91788
apos	-4.00645
▁of	-4.03556
▁and	-4.09831
▁that	-4.27446
▁I	-4.35181
▁in	-4.45382
y	-4.57284
ed	-4.57353
quot	-4.64117
▁is	-4.64163
ing	-4.64747
▁it	-4.66479
▁you	-4.68126
▁we	-4.73228
▁	-4.73291
▁And	-5.05276
▁this	-5.08595
ly	-5.24463
t	-5.31949
▁was	-5.3333
▁on	-5.35971
▁for	-5.41849
▁are	-5.46767
▁have	-5.47631
▁with	-5.47802
▁can	-5.60059
▁—	-5.60179
▁be	-5.60398
d	-5.64035
▁what	-5.70332
▁So	-5.71382
▁?	-5.71889
-	-5.73511
▁about	-5.75123
re	-5.77645
▁The	-5.84454
n	-5.86072
▁not	-5.87621
▁my	-5.90347
▁at	-5.90428
▁all	-5.92279
▁an	-5.929
▁do	-5.95015
▁like	-5.97946
▁one	-5.98174
▁people	-6.00873
▁there	-6.03069
▁from	-6.04436
▁so	-6.0591
▁It	-6.07706
▁)	-6.07803
(	-6.07862
▁our	-6.10969
▁but	-6.12128
▁:	-6.16116
▁as	-6.16925
▁or	-6.18888
▁us	-6.19757
▁just	-6.19902
▁We	-6.21626
r	-6.22368
▁But	-6.23931
▁me	-6.25028
e	-6.26263
▁these	-6.26899
▁if	-6.27376
▁out	-6.29682
▁see	-6.31661
▁by	-6.31743
m	-6.32953
▁know	-6.3335
very	-6.34673
▁up	-6.34847
▁when	-6.35767
▁them	-6.36894
▁more	-6.3835
▁had	-6.39011
▁because	-6.40577
▁going	-6.41077
ve	-6.41604
▁he	-6.41686
▁would	-6.43884
▁some	-6.4418
▁your	-6.44663
▁were	-6.4488
▁their	-6.45109
▁think	-6.46298
▁who	-6.46451
▁get	-6.48582
▁how	-6.49746
▁look	-6.5222
▁which	-6.52512
▁want	-6.54507
▁really	-6.55642
▁time	-6.56849
es	-6.6228
▁world	-6.632
▁has	-6.63586
▁go	-6.6591
▁other	-6.66499
▁Laughte	-6.66737
▁could	-6.69419
▁here	-6.7068
▁Thi	-6.70829
▁into	-6.71041
ctually	-6.72473
▁You	-6.72529
▁way	-6.72865
ies	-6.73224
▁will	-6.73312
▁every	-6.7411
▁then	-6.75122
▁where	-6.76116
▁years	-6.77557
▁don	-6.78202
▁did	-6.78857
▁now	-6.79103
▁Now	-6.82812
▁make	-6.83349
▁things	-6.84443
▁t	-6.84838
ause	-6.88818
▁need	-6.9067
▁take	-6.91535
hose	-6.92037
▁start	-6.92404
▁work	-6.93633
▁no	-6.93842
▁right	-6.94542
▁say	-6.94929
been	-6.95669
▁said	-6.98335
▁than	-6.9865
▁something	-6.98843
▁much	-7.00911
▁first	-7.0133
▁two	-7.03466
▁call	-7.04776
lso	-7.04925
▁over	-7.06115
▁He	-7.08534
▁thing	-7.08875
▁come	-7.09238
▁kind	-7.09293
▁any	-7.0934
▁got	-7.10323
▁back	-7.10567
▁little	-7.10889
▁lot	-7.11771
▁most	-7.12376
▁even	-7.14272
▁life	-7.14464
▁she	-7.15609
▁That	-7.17021
▁his	-7.17307
▁talk	-7.18217
▁What	-7.20268
▁In	-7.20359
.	-7.21069
▁new	-7.21925
▁many	-7.22622
▁Appl	-7.25561
▁change	-7.25916
▁different	-7.27187
▁around	-7.27888
ll	-7.28217
▁through	-7.29748
▁her	-7.31868
▁good	-7.32849
▁does	-7.32994
▁♫	-7.34454
day	-7.35596
▁There	-7.35611
▁A	-7.35643
▁tell	-7.36043
▁use	-7.36178
▁mean	-7.36573
▁down	-7.38787
▁idea	-7.39256
▁same	-7.39628
▁being	-7.41712
▁show	-7.4292
▁human	-7.4401
er	-7.45574
▁may	-7.45996
▁problem	-7.46492
▁day	-7.47059
▁try	-7.47158
▁Well	-7.48319
▁If	-7.48904
ity	-7.50545
▁part	-7.51308
▁great	-7.51592
▁put	-7.5197
▁ask	-7.52215
▁place	-7.52957
▁three	-7.53213
self	-7.54649
▁percent	-7.56471
▁doing	-7.57128
one	-7.57962
▁made	-7.60038
a	-7.60066
▁well	-7.60584
▁find	-7.61316
▁year	-7.61811
▁fact	-7.63159
▁own	-7.63368
▁e	-7.64516
▁happen	-7.67278
▁why	-7.68517
other	-7.68949
▁after	-7.69619
▁turn	-7.71253
▁should	-7.73056
▁important	-7.73212
▁thought	-7.73752
▁might	-7.74613
▁him	-7.75582
▁last	-7.75706
▁let	-7.75888
▁help	-7.76496
▁before	-7.76697
▁Thank	-7.76936
▁better	-7.77017
▁never	-7.77873
▁end	-7.78264
▁together	-7.78692
▁able	-7.80007
▁few	-7.81051
body	-7.81632
▁give	-7.81648
▁system	-7.81906
▁example	-7.82458
▁big	-7.82728
▁brain	-7.82901
▁still	-7.8337
in	-7.83558
able	-7.84428
▁off	-7.84635
▁love	-7.84912
▁point	-7.85052
▁course	-7.85368
▁story	-7.8662
▁ago	-7.86844
▁million	-7.87056
al	-7.87454
▁next	-7.87656
each	-7.88188
▁When	-7.88628
l	-7.8863
▁long	-7.88947
▁learn	-7.89162
▁create	-7.8925
▁bit	-7.89621
▁school	-7.89666
▁came	-7.89924
thing	-7.90673
▁design	-7.91663
▁live	-7.9225
on	-7.92656
▁again	-7.92988
ther	-7.9299
▁question	-7.93147
▁kid	-7.93552
▁found	-7.9423
way	-7.94663
▁number	-7.94829
▁technology	-7.95619
▁between	-7.95758
▁women	-7.95857
out	-7.9591
▁sort	-7.96553
▁ever	-7.96687
▁How	-7.97812
▁water	-7.97857
▁understand	-7.98018
▁become	-7.98432
▁too	-7.98509
▁feel	-7.98526
ce	-7.98546
▁believe	-7.98745
▁data	-7.98928
▁real	-8.01195
▁play	-8.01397
▁cell	-8.03454
ion	-8.05325
be	-8.06036
▁done	-8.07376
▁Bec	-8.07646
▁person	-8.07653
h	-8.07765
▁children	-8.09082
o	-8.09168
▁car	-8.09611
▁always	-8.10272
▁second	-8.10921
▁whole	-8.11677
w	-8.11696
▁old	-8.12924
▁light	-8.15384
▁country	-8.1547
▁power	-8.15727
▁information	-8.15778
▁small	-8.15792
ok	-8.16021
▁home	-8.16509
▁experience	-8.16858
▁four	-8.16878
▁building	-8.16891
▁space	-8.16968
▁10	-8.17377
▁reason	-8.17555
▁computer	-8.18227
▁working	-8.18757
ves	-8.20803
▁guy	-8.21576
▁picture	-8.22024
▁20	-8.22135
en	-8.22363
▁!	-8.22365
▁money	-8.22603
▁liv	-8.23045
1	-8.23429
▁future	-8.24445
▁high	-8.24824
▁My	-8.25279
▁thinking	-8.25641
▁case	-8.26007
▁One	-8.2631
▁moment	-8.26393
▁open	-8.26413
▁move	-8.26737
nough	-8.26821
▁sense	-8.27055
▁project	-8.27127
▁She	-8.27916
▁hard	-8.28492
▁man	-8.28633
▁group	-8.29011
▁five	-8.29475
▁best	-8.30115
▁social	-8.30501
▁left	-8.30562
ld	-8.30781
▁form	-8.30943
▁mak	-8.31441
▁bring	-8.31674
▁under	-8.32959
▁food	-8.33422
▁process	-8.3394
▁No	-8.34044
▁getting	-8.34094
▁energy	-8.34235
▁These	-8.34446
▁planet	-8.34791
ness	-8.35124
▁answer	-8.35166
▁less	-8.35249
▁countr	-8.35351
▁interesting	-8.35997
cross	-8.36187
ever	-8.36203
▁matter	-8.36612
quite	-8.36632
▁government	-8.36816
▁hand	-8.3686
▁job	-8.3707
▁For	-8.3712
▁body	-8.37365
▁billion	-8.37451
▁room	-8.3819
▁image	-8.3825
▁animal	-8.38515
▁Wh	-8.38614
▁grow	-8.38699
went	-8.38837
▁possibl	-8.39169
▁probabl	-8.392
▁Let	-8.39466
▁family	-8.39547
▁build	-8.39832
▁face	-8.40445
▁such	-8.4049
▁allow	-8.40795
▁lives	-8.40877
▁simple	-8.41223
▁coming	-8.42398
▁science	-8.42441
▁prett	-8.42664
▁name	-8.42667
▁seem	-8.43068
▁week	-8.43584
▁saw	-8.43755
▁half	-8.4392
▁piece	-8.44115
▁young	-8.4434
est	-8.44882
▁share	-8.45159
▁stuff	-8.45185
▁far	-8.45454
▁else	-8.45584
▁side	-8.45589
▁hav	-8.45741
▁dollars	-8.45807
▁keep	-8.46622
▁complete	-8.47279
▁societ	-8.4767
▁care	-8.47738
▁line	-8.47843
▁Africa	-8.48065
▁Earth	-8.4829
▁close	-8.48319
nt	-8.48329
▁set	-8.48466
▁U	-8.48542
▁To	-8.48974
▁disease	-8.49488
▁men	-8.49507
▁business	-8.49532
▁particular	-8.50323
▁while	-8.5033
▁later	-8.50407
▁New	-8.50495
▁student	-8.50884
▁almost	-8.51256
▁inside	-8.51526
▁am	-8.52009
▁single	-8.52158
▁health	-8.52544
▁thousand	-8.53
▁All	-8.53047
ic	-8.53341
▁un	-8.53641
▁machine	-8.53854
▁often	-8.54218
▁mind	-8.54329
▁remember	-8.54552
▁imagine	-8.5526
▁age	-8.55424
▁sure	-8.55532
▁&#9	-8.5559
▁&#93;	-8.55996
▁order	-8.56251
▁community	-8.56722
▁hope	-8.56811
▁study	-8.57117
▁B	-8.57168
▁times	-8.57231
▁global	-8.57492
▁level	-8.57668
▁watch	-8.58433
▁public	-8.58451
▁As	-8.58483
▁city	-8.58547
▁days	-8.59123
▁already	-8.59319
▁amazing	-8.5938
▁nothing	-8.59621
▁book	-8.59926
ation	-8.59978
▁girl	-8.60152
▁yet	-8.60184
▁histor	-8.60571
th	-8.60955
▁whe	-8.61157
▁bad	-8.61518
▁patient	-8.61722
▁minute	-8.61821
▁exact	-8.61893
▁both	-8.61894
▁months	-8.61916
▁child	-8.6211
▁happens	-8.62748
▁read	-8.62839
▁E	-8.62911
▁head	-8.63132
▁certain	-8.63394
▁test	-8.63437
▁large	-8.63713
▁wrong	-8.63713
▁language	-8.63801
▁interest	-8.64565
▁saying	-8.64704
▁beautiful	-8.6508
▁once	-8.65551
▁self	-8.65856
▁figure	-8.66019
▁C	-8.66529
▁control	-8.66629
▁entire	-8.66999
▁American	-8.67127
▁run	-8.67523
us	-8.67663
▁hundred	-8.6773
▁six	-8.67739
▁cost	-8.68051
▁T	-8.68184
▁creat	-8.68374
▁Unit	-8.68649
▁unti	-8.69177
▁stop	-8.69366
▁top	-8.69375
▁walk	-8.69376
▁challenge	-8.69457
▁final	-8.69485
▁words	-8.69508
▁market	-8.69723
▁heard	-8.6988
▁issue	-8.71184
▁research	-8.71504
▁art	-8.71572
▁video	-8.71754
▁couple	-8.72151
▁built	-8.72227
▁basically	-8.72258
▁kne	-8.72616
▁true	-8.72862
le	-8.72986
▁cancer	-8.72993
▁makes	-8.72993
▁difference	-8.72998
▁game	-8.73082
▁individual	-8.73161
▁ways	-8.7329
came	-8.73378
▁night	-8.73406
▁education	-8.73547
S	-8.73757
▁term	-8.73854
▁environment	-8.74416
▁stories	-8.74593
▁though	-8.75078
▁friends	-8.7542
ything	-8.75466
▁past	-8.75516
▁speak	-8.7552
taking	-8.75663
▁decided	-8.75702
▁sound	-8.76058
▁word	-8.76365
▁hear	-8.7655
▁...	-8.7657
▁discover	-8.7672
▁woman	-8.76749
▁S	-8.76924
▁30	-8.77148
▁universe	-8.77286
▁stand	-8.77393
▁house	-8.77864
ally	-8.78337
▁must	-8.78341
▁leave	-8.78389
where	-8.78404
▁phone	-8.78437
▁follow	-8.78555
▁heart	-8.78941
stead	-8.79074
▁Internet	-8.79141
▁Every	-8.79199
▁spend	-8.79427
▁America	-8.79546
▁nature	-8.79598
▁realize	-8.79646
▁plant	-8.79733
msel	-8.79801
gainst	-8.79928
▁model	-8.80146
▁mother	-8.80519
▁ra	-8.8079
▁States	-8.80845
▁music	-8.80862
▁species	-8.80937
▁since	-8.81557
▁company	-8.8163
▁black	-8.81744
▁quick	-8.82445
▁oursel	-8.82931
▁sometimes	-8.83102
▁culture	-8.83157
▁team	-8.8358
▁happening	-8.83896
▁50	-8.84027
▁network	-8.84543
▁economic	-8.84727
▁pay	-8.84888
▁war	-8.85249
▁bigge	-8.8537
rhaps	-8.86122
▁cause	-8.86576
▁huge	-8.86883
▁200	-8.87304
▁difficult	-8.87328
▁Some	-8.87998
▁b	-8.88068
▁state	-8.88297
▁color	-8.88458
▁along	-8.8862
▁program	-8.88783
▁per	-8.88907
▁object	-8.89118
▁front	-8.89477
▁force	-8.8954
▁structure	-8.89704
▁die	-8.9014
▁population	-8.9021
▁risk	-8.90291
▁questions	-8.90338
▁scientist	-8.90358
▁hours	-8.90529
▁air	-8.91428
▁experiment	-8.9146
▁least	-8.91508
▁Do	-8.91574
▁free	-8.91657
▁field	-8.9203
▁learning	-8.92126
▁God	-8.92328
▁early	-8.92755
ment	-8.92827
ten	-8.92891
▁land	-8.9307
▁ocean	-8.93385
▁100	-8.93404
▁Or	-8.93429
▁exist	-8.93652
▁death	-8.93656
▁tree	-8.93923
▁India	-8.94058
gan	-8.94149
▁15	-8.94206
▁listen	-8.94575
▁relationship	-8.95049
▁poor	-8.95168
▁Oka	-8.95189
▁amount	-8.95462
▁focus	-8.95563
▁simpl	-8.95581
▁pick	-8.95704
less	-8.95729
▁Oh	-8.95997
▁step	-8.96041
▁pe	-8.96089
▁outside	-8.96128
▁middle	-8.96257
▁compani	-8.96551
▁choice	-8.97485
▁fly	-8.97771
▁physical	-8.98153
▁act	-8.98256
▁On	-8.9834
▁device	-8.98379
▁behavior	-8.98834
▁TED	-8.9894
▁effect	-8.99404
▁won	-8.99555
▁safe	-8.99644
▁common	-8.99666
not	-8.9996
▁natural	-8.99995
▁full	-9.00039
▁third	-9.00245
▁beginning	-9.0055
▁realit	-9.00622
▁teacher	-9.00793
▁drive	-9.0086
▁local	-9.01059
▁friend	-9.01126
▁parents	-9.01152
▁century	-9.01259
▁buy	-9.01502
▁size	-9.01662
▁feeling	-9.01827
▁view	-9.01924
▁support	-9.01969
▁powerful	-9.02154
▁stay	-9.02328
▁lead	-9.02343
▁engineer	-9.02564
▁explain	-9.02711
▁Then	-9.02788
▁father	-9.03009
▁OK	-9.03121
▁dur	-9.03703
▁York	-9.03727
▁political	-9.03832
▁given	-9.03849
▁scale	-9.03905
▁robot	-9.0436
▁behind	-9.0455
▁eyes	-9.04762
’	-9.05151
▁pattern	-9.05157
▁major	-9.05464
▁near	-9.05515
▁deep	-9.05552
▁wait	-9.05559
year	-9.05699
▁happy	-9.05757
▁kill	-9.05933
▁paper	-9.05955
▁easy	-9.06062
▁media	-9.06097
felt	-9.06735
▁systems	-9.0684
▁seven	-9.06988
▁produce	-9.07055
▁doctor	-9.07057
▁personal	-9.07059
▁decision	-9.07165
▁fish	-9.07387
▁rate	-9.07394
▁At	-9.07431
▁works	-9.07451
▁deal	-9.07489
▁normal	-9.07633
▁reach	-9.0802
▁wonderful	-9.08043
▁area	-9.08169
▁save	-9.0821
▁generation	-9.08584
▁longer	-9.08797
▁surface	-9.09171
▁send	-9.10282
▁organization	-9.10451
▁begin	-9.10865
▁Our	-9.11191
▁movement	-9.11225
ither	-9.1188
▁mov	-9.12127
▁w	-9.12273
▁travel	-9.12636
▁service	-9.12669
▁absolute	-9.13003
▁China	-9.13139
▁ground	-9.13292
old	-9.13772
▁value	-9.14233
▁center	-9.14233
▁lost	-9.14253
▁protect	-9.14387
▁add	-9.146
▁slow	-9.14717
i	-9.14921
▁seeing	-9.1493
▁growth	-9.15047
▁complex	-9.15267
▁oil	-9.15356
▁access	-9.15703
▁fear	-9.16204
▁message	-9.16306
▁map	-9.16356
▁eight	-9.16526
▁obvious	-9.16604
▁DNA	-9.16662
▁climate	-9.16662
ability	-9.1671
▁born	-9.16745
▁low	-9.16748
▁write	-9.1676
▁record	-9.16851
▁present	-9.16925
▁increase	-9.17001
▁hands	-9.17347
▁blood	-9.17366
▁tried	-9.1741
▁film	-9.17474
▁rest	-9.17496
▁People	-9.17615
▁spen	-9.1779
▁opportunity	-9.1786
▁impact	-9.17963
▁action	-9.18488
▁known	-9.18493
▁material	-9.18587
▁gone	-9.18679
▁40	-9.18736
▁Music	-9.18844
▁result	-9.18951
▁Just	-9.18951
▁condition	-9.18953
▁Yea	-9.19006
▁perfect	-9.1917
▁news	-9.19195
▁wall	-9.19307
▁white	-9.20141
▁resource	-9.20191
▁sitt	-9.20482
▁fall	-9.20494
▁Right	-9.20531
▁Yes	-9.20649
▁toward	-9.20803
▁citi	-9.20976
▁red	-9.21392
▁hold	-9.21398
giving	-9.21526
▁short	-9.21688
▁treat	-9.21758
▁economy	-9.21813
aught	-9.21881
▁expect	-9.21917
▁solve	-9.21934
▁movie	-9.22045
▁clear	-9.22066
▁extreme	-9.22169
▁blue	-9.22301
▁potential	-9.22452
▁pass	-9.23061
▁conversation	-9.23061
▁voice	-9.23253
▁Can	-9.23453
alone	-9.2346
▁approach	-9.23547
▁stage	-9.23725
▁de	-9.23894
▁camera	-9.24127
▁consider	-9.24462
rought	-9.24691
▁literal	-9.24708
▁boy	-9.24844
▁understanding	-9.25166
▁measure	-9.25766
▁similar	-9.26508
▁key	-9.26806
▁average	-9.26811
▁trust	-9.26944
▁developed	-9.27002
▁situation	-9.27383
▁chance	-9.27458
▁Not	-9.27993
▁♪	-9.28064
▁morning	-9.28216
▁cut	-9.28274
▁technologi	-9.28276
▁digital	-9.28304
▁An	-9.28314
▁tin	-9.28462
▁continue	-9.28521
▁green	-9.28579
an	-9.28584
▁notice	-9.29073
▁attention	-9.29073
▁eat	-9.29107
▁train	-9.29254
▁sea	-9.29298
ers	-9.29555
ous	-9.29596
▁tools	-9.2972
▁CA	-9.29787
▁dark	-9.29932
▁dream	-9.30081
▁meet	-9.30207
▁hit	-9.30322
um	-9.30364
▁incredibl	-9.30428
▁source	-9.31151
▁sudden	-9.31385
rote	-9.3142
▁knowledge	-9.3148
▁D	-9.31518
▁shape	-9.31563
▁essential	-9.31627
▁forward	-9.31656
▁nice	-9.31858
▁raise	-9.31888
changing	-9.31901
▁development	-9.31917
▁audience	-9.31938
▁lab	-9.32176
▁pull	-9.32264
▁feet	-9.32335
specially	-9.324
▁artist	-9.32416
▁o	-9.32423
▁strong	-9.32522
▁African	-9.32545
▁humans	-9.32566
▁forest	-9.32758
▁M	-9.32801
▁sign	-9.32808
D	-9.32945
▁push	-9.33048
▁photograph	-9.3318
▁gav	-9.33216
man	-9.33243
▁bottom	-9.333
▁met	-9.33309
▁fundamental	-9.33433
▁wonder	-9.33452
▁areas	-9.33716
▁bas	-9.33974
▁innovation	-9.34253
▁Europe	-9.34577
2	-9.34649
▁avail	-9.3467
▁studie	-9.34856
▁recently	-9.3528
ry	-9.35357
▁books	-9.35388
▁truth	-9.35838
▁hospital	-9.35943
▁industry	-9.36046
▁serious	-9.36046
▁With	-9.36392
▁soon	-9.36436
▁miles	-9.36572
▁re	-9.36844
▁specific	-9.36922
▁12	-9.3718
▁solution	-9.37204
▁electric	-9.37325
▁current	-9.38124
or	-9.38267
▁fast	-9.38826
▁late	-9.38882
c	-9.38883
credible	-9.39165
to	-9.39188
▁response	-9.39392
▁cool	-9.39392
▁worth	-9.39395
▁goal	-9.39553
▁eye	-9.39774
▁affect	-9.40135
▁attack	-9.40141
▁English	-9.40165
▁among	-9.4025
▁journey	-9.4059
▁law	-9.40657
▁code	-9.40706
▁thank	-9.40722
▁spread	-9.40723
▁cover	-9.40734
▁institution	-9.40769
▁sit	-9.4089
ism	-9.40929
▁runn	-9.41061
▁product	-9.4133
▁medical	-9.4137
▁non	-9.41691
▁guess	-9.41716
▁break	-9.41791
▁role	-9.4189
▁site	-9.42017
▁touch	-9.42032
▁theory	-9.42176
▁plan	-9.42276
▁type	-9.42445
▁sex	-9.42691
▁special	-9.42805
▁smart	-9.43033
▁developing	-9.43044
▁effective	-9.43077
▁direct	-9.43149
▁connect	-9.4315
▁somebod	-9.43227
▁carbon	-9.43401
▁putting	-9.43416
▁dead	-9.43539
▁ice	-9.43614
▁general	-9.43812
▁drug	-9.43847
▁online	-9.43908
▁yes	-9.44344
▁page	-9.44352
▁equal	-9.44584
▁Google	-9.44793
▁baby	-9.4481
▁search	-9.44901
▁communit	-9.45039
▁modern	-9.45117
▁region	-9.4529
up	-9.4534
is	-9.45523
ond	-9.45526
▁box	-9.45611
▁several	-9.45625
▁represent	-9.45894
▁60	-9.45961
▁fun	-9.4652
▁basic	-9.46542
▁Where	-9.46564
▁provide	-9.46801
▁solar	-9.46807
▁main	-9.46912
▁teach	-9.46956
▁actual	-9.46967
▁World	-9.46994
▁includ	-9.47153
▁violen	-9.47344
▁By	-9.47401
▁track	-9.47569
▁leaders	-9.47593
▁evidence	-9.47727
▁fire	-9.47878
▁11	-9.48065
▁song	-9.48089
▁First	-9.48476
▁leg	-9.48529
▁rich	-9.48558
5	-9.48803
▁connection	-9.49159
land	-9.49443
▁South	-9.49548
▁recognize	-9.49559
▁subject	-9.49778
▁street	-9.49889
▁village	-9.50053
▁perspective	-9.50066
▁develop	-9.50151
▁office	-9.50446
▁success	-9.50604
▁benefit	-9.50939
▁period	-9.50948
▁class	-9.51053
▁extraordinar	-9.51114
▁block	-9.51127
▁drugs	-9.51294
▁scientific	-9.51497
,000	-9.51613
▁successful	-9.51642
bility	-9.51738
cy	-9.51792
▁join	-9.51875
▁function	-9.5205
▁favorite	-9.52074
▁nine	-9.52124
▁treatment	-9.52188
▁medicine	-9.52378
▁event	-9.52383
ance	-9.52425
▁college	-9.52558
▁Look	-9.52562
▁degree	-9.52637
▁Even	-9.52889
▁son	-9.52919
▁After	-9.53336
▁shows	-9.53679
▁sell	-9.53704
▁realiz	-9.54045
▁month	-9.54059
▁molecule	-9.54319
▁G	-9.54524
▁road	-9.54582
▁fight	-9.5465
▁di	-9.54655
▁colleague	-9.54715
▁usual	-9.54763
▁character	-9.54767
▁flow	-9.54898
ton	-9.55055
▁sun	-9.55091
▁writing	-9.5513
more	-9.55134
▁Maybe	-9.55314
▁collect	-9.55342
▁national	-9.55598
▁suggest	-9.55681
▁speed	-9.5571
▁creative	-9.55748
▁sounds	-9.55758
▁fair	-9.55774
▁list	-9.56024
▁securit	-9.56403
▁mass	-9.56442
▁hole	-9.56467
▁vision	-9.5647
▁choose	-9.56606
▁detail	-9.56719
▁80	-9.5693
▁store	-9.57001
▁gre	-9.57085
▁secret	-9.57113
▁necessar	-9.57225
▁wear	-9.57399
▁connected	-9.57626
▁clean	-9.5785
▁Mars	-9.57972
9	-9.58138
▁adult	-9.58187
▁rules	-9.58234
▁table	-9.58325
▁designer	-9.5844
▁invent	-9.58568
▁predict	-9.58598
▁require	-9.58747
▁further	-9.58767
▁concept	-9.58807
▁walking	-9.5885
▁3	-9.58875
▁nation	-9.59006
▁visual	-9.59141
▁accept	-9.59181
time	-9.59514
▁famili	-9.59667
▁transform	-9.5967
▁higher	-9.59711
▁signal	-9.59753
▁skin	-9.60068
▁poverty	-9.60127
▁offer	-9.60404
▁throw	-9.60447
▁democracy	-9.60466
▁mental	-9.60476
▁price	-9.60566
▁worker	-9.60708
▁wish	-9.60723
▁remain	-9.60955
▁crazy	-9.6106
▁onto	-9.61153
▁practice	-9.61202
f	-9.61206
▁letter	-9.61253
▁software	-9.61382
▁virus	-9.61404
▁gives	-9.61408
▁lose	-9.61499
▁tend	-9.61569
▁surprise	-9.61696
▁Who	-9.61717
4	-9.6184
▁position	-9.61846
▁P	-9.61877
▁genetic	-9.62015
▁25	-9.62112
▁Of	-9.6214
▁J	-9.6222
▁tool	-9.62271
▁finish	-9.623
▁visit	-9.62318
▁bacteria	-9.62361
▁fund	-9.62413
▁conflict	-9.62486
▁hour	-9.62498
▁traditional	-9.62509
▁mine	-9.62579
as	-9.62586
▁evolution	-9.62686
▁text	-9.62919
▁ready	-9.6323
▁shift	-9.63282
▁Most	-9.63588
▁Don	-9.6369
▁finding	-9.63731
▁exciting	-9.63965
how	-9.64003
▁wife	-9.64291
▁address	-9.64292
▁faster	-9.64575
▁co	-9.64673
kay	-9.64683
▁fuel	-9.64744
K	-9.64783
▁results	-9.64895
▁eventual	-9.65117
▁immediate	-9.65158
▁launch	-9.65489
▁door	-9.65567
▁return	-9.65821
▁everywhere	-9.65994
▁stick	-9.66175
▁depend	-9.66258
▁screen	-9.66277
▁involv	-9.66371
▁led	-9.66533
▁carry	-9.66554
▁fit	-9.66593
▁direction	-9.66614
▁tru	-9.66629
▁fail	-9.66653
▁galax	-9.66711
▁revolution	-9.66819
▁daughter	-9.66831
▁inspire	-9.66953
▁arm	-9.67216
▁police	-9.67457
▁publish	-9.67474
▁waste	-9.67483
▁haven	-9.67591
▁meant	-9.6761
▁chemical	-9.67948
▁supposed	-9.6805
▁worse	-9.68061
▁sent	-9.68187
▁context	-9.68264
▁al	-9.68268
▁factor	-9.68328
▁version	-9.68343
▁18	-9.68597
▁wind	-9.68698
▁neurons	-9.68782
age	-9.68801
▁deliver	-9.69082
▁describe	-9.69201
▁possibilit	-9.69318
▁pain	-9.69379
▁quality	-9.6943
▁communication	-9.69551
▁easi	-9.69635
▁invest	-9.69743
▁Video	-9.69776
▁90	-9.69829
▁genes	-9.69863
▁account	-9.69878
▁count	-9.70238
▁religion	-9.70242
by	-9.70362
▁cold	-9.70567
▁F	-9.7067
▁fine	-9.70688
▁complicated	-9.70709
▁female	-9.70829
ily	-9.70844
▁progress	-9.71017
▁famous	-9.7122
▁lower	-9.71276
▁compassion	-9.71392
▁principle	-9.71403
▁above	-9.71403
▁card	-9.71562
▁materials	-9.71609
▁expert	-9.71759
▁post	-9.71922
▁fill	-9.72014
▁gas	-9.72146
▁sleep	-9.72317
▁earlie	-9.72597
▁crisis	-9.72819
▁War	-9.72956
▁North	-9.7297
k	-9.73069
head	-9.73133
▁intelligence	-9.73176
▁lesson	-9.73325
▁interact	-9.73557
▁freedom	-9.73659
▁aren	-9.73682
▁larger	-9.74011
▁nuclear	-9.74039
▁task	-9.74169
▁writ	-9.7424
▁memory	-9.74255
▁report	-9.74261
▁pressure	-9.74278
▁critical	-9.74432
▁meeting	-9.74538
▁appear	-9.74618
▁bodi	-9.74631
▁c	-9.74747
▁architecture	-9.7486
▁concern	-9.74866
▁standard	-9.74876
▁male	-9.74979
▁ver	-9.75021
▁German	-9.75103
kept	-9.75358
▁larges	-9.75394
▁original	-9.75416
▁afford	-9.75667
▁70	-9.75668
▁target	-9.75724
▁West	-9.75895
▁L	-9.7594
7	-9.76178
▁unique	-9.76203
▁impossibl	-9.76206
▁capital	-9.76273
▁improve	-9.76291
▁respond	-9.76432
▁excited	-9.76447
▁positive	-9.76775
▁effort	-9.76806
▁bunch	-9.7682
▁enter	-9.76869
▁stars	-9.76887
▁floor	-9.7691
▁link	-9.77124
▁indeed	-9.77193
though	-9.77201
▁please	-9.77254
▁check	-9.77262
▁shot	-9.77287
▁increasing	-9.77321
▁path	-9.77365
▁total	-9.77423
▁cheap	-9.77439
▁private	-9.77459
▁activity	-9.77508
▁Chinese	-9.77564
▁R	-9.77596
▁policy	-9.77675
▁neighborhood	-9.7769
ist	-9.78108
▁scar	-9.78151
▁biolog	-9.78187
▁press	-9.78262
▁bone	-9.78342
3	-9.78351
ood	-9.78396
▁products	-9.78463
▁models	-9.78556
▁moral	-9.78675
▁stopp	-9.7889
▁element	-9.7894
▁range	-9.78946
▁smaller	-9.78988
▁emotion	-9.7902
▁massive	-9.79028
▁constant	-9.79079
▁Are	-9.79276
▁content	-9.79342
▁relative	-9.7943
▁ultimate	-9.79452
refore	-9.7967
▁citizens	-9.79696
▁plastic	-9.79912
▁square	-9.79994
▁rise	-9.8014
▁painting	-9.80167
▁dangerous	-9.8022
▁zero	-9.80254
▁reading	-9.80273
▁race	-9.80928
▁mention	-9.81122
▁virtual	-9.81185
▁terribl	-9.81245
▁enjoy	-9.81374
▁wave	-9.81419
▁career	-9.81459
▁international	-9.81488
▁decades	-9.8201
▁email	-9.82026
▁star	-9.82351
▁healthy	-9.82458
▁meter	-9.82771
▁prevent	-9.82786
magine	-9.83079
▁perform	-9.83085
▁prison	-9.83139
▁purpose	-9.8325
▁trial	-9.83639
▁W	-9.83643
▁strange	-9.83665
▁decide	-9.83879
▁organism	-9.8389
▁foot	-9.83916
▁communicate	-9.83935
▁politic	-9.83994
▁training	-9.84059
▁alive	-9.8427
▁hot	-9.84277
▁saving	-9.84408
▁particle	-9.84664
▁demand	-9.84824
like	-9.85283
▁blind	-9.8532
▁remind	-9.85431
▁feed	-9.85629
▁income	-9.85649
▁base	-9.85862
▁brother	-9.85883
▁super	-9.85894
▁park	-9.859
▁dance	-9.85941
▁apply	-9.85995
▁Dr	-9.86039
▁clearly	-9.86065
▁TV	-9.86176
/	-9.86282
▁meaning	-9.86503
▁extra	-9.86554
▁temperature	-9.86699
▁financial	-9.86704
▁remarkabl	-9.86836
▁HIV	-9.8684
▁board	-9.86937
▁H	-9.87093
▁protein	-9.87238
▁survive	-9.87326
▁warm	-9.87378
▁series	-9.87385
▁unit	-9.87461
▁military	-9.87513
▁O	-9.87524
▁user	-9.87525
▁enormous	-9.87652
▁tissue	-9.87653
▁happiness	-9.87657
▁expensive	-9.87789
▁decade	-9.87948
▁creature	-9.88068
▁significant	-9.88167
▁draw	-9.8819
▁interview	-9.88207
▁wild	-9.88224
▁Universit	-9.88272
▁define	-9.88393
▁fix	-9.88396
▁199	-9.88703
▁stress	-9.88993
▁typical	-9.89204
▁collective	-9.89325
▁physics	-9.89326
▁whose	-9.89351
▁driving	-9.89406
▁2	-9.8941
▁mom	-9.8944
▁solutions	-9.8946
▁genome	-9.896
▁skills	-9.89682
▁website	-9.8974
▁21	-9.89787
▁Like	-9.89882
▁mobile	-9.90091
▁slight	-9.90313
▁wealth	-9.90374
▁instance	-9.90447
▁Al	-9.90584
▁win	-9.90637
▁performance	-9.90651
tally	-9.90671
▁East	-9.90696
▁manage	-9.9108
▁heat	-9.91132
side	-9.91231
▁production	-9.91244
▁brand	-9.91326
▁City	-9.91395
▁drop	-9.91496
▁consequence	-9.91587
▁achieve	-9.91678
▁strateg	-9.918
▁honest	-9.92019
▁explore	-9.92117
8	-9.92144
▁teaching	-9.92378
▁Man	-9.92586
▁beaut	-9.92587
▁Which	-9.92595
▁rain	-9.92611
▁recent	-9.92649
▁becom	-9.9269
▁underst	-9.92712
▁ga	-9.93158
▁paint	-9.93191
▁professional	-9.93218
▁atmosphere	-9.9323
▁yea	-9.93271
ful	-9.93376
▁vehicle	-9.93468
▁expand	-9.93474
▁luck	-9.9375
▁respect	-9.93889
▁option	-9.93912
▁document	-9.93932
▁Many	-9.93933
▁reduce	-9.93955
▁Chris	-9.9397
▁Go	-9.94031
stan	-9.94237
▁weight	-9.94319
▁apart	-9.94319
▁speech	-9.94339
▁Two	-9.94349
▁familiar	-9.94389
▁summer	-9.94502
▁San	-9.94535
▁birth	-9.94629
▁K	-9.94762
▁landscape	-9.94793
▁breath	-9.94855
▁organ	-9.94883
▁wide	-9.94895
▁drink	-9.9494
▁sister	-9.94943
▁various	-9.9509
▁investment	-9.95105
▁dog	-9.95142
▁math	-9.95203
▁rule	-9.95205
▁neighbor	-9.95235
p	-9.95523
C	-9.95552
▁consciousness	-9.95851
ia	-9.95906
▁fantastic	-9.95983
▁rock	-9.96094
▁surviv	-9.96605
▁interaction	-9.96623
▁technique	-9.96735
▁14	-9.97046
▁double	-9.97086
▁layer	-9.97155
b	-9.97282
wise	-9.97526
▁forth	-9.97562
▁magic	-9.9759
▁convince	-9.97645
▁dy	-9.97691
▁John	-9.9779
▁London	-9.97797
▁sky	-9.98235
▁201	-9.98263
▁useful	-9.98346
▁17	-9.98383
▁failure	-9.98411
▁environmental	-9.98702
▁mission	-9.98794
▁trade	-9.98801
▁destroy	-9.99025
▁sentence	-9.99046
▁sustain	-9.99171
▁circle	-9.99461
▁trouble	-9.99485
▁none	-9.9949
▁infrastructure	-9.99493
▁finger	-9.99509
▁belief	-9.99511
▁Take	-9.99552
▁web	-9.9976
▁desire	-9.99779
▁satellite	-9.998
▁gene	-9.99844
▁types	-9.99992
▁method	-10
▁insect	-10.0011
▁ran	-10.0015
▁peace	-10.0017
▁worst	-10.0027
▁pre	-10.0029
▁active	-10.0035
▁random	-10.0037
▁afraid	-10.0042
▁bear	-10.0046
water	-10.008
▁distance	-10.008
▁except	-10.0087
▁anyway	-10.0109
▁separate	-10.0131
▁dimension	-10.0148
▁hair	-10.0159
▁cross	-10.0167
▁algorithm	-10.0171
▁giant	-10.0184
▁passion	-10.0189
▁surprising	-10.02
▁release	-10.0203
▁mistake	-10.0204
▁catch	-10.0213
▁promise	-10.0216
▁serve	-10.0218
▁charge	-10.0218
older	-10.0224
▁urban	-10.0225
▁produc	-10.0245
▁From	-10.0248
▁ancient	-10.0264
▁capacity	-10.0266
▁brains	-10.0272
▁16	-10.0281
▁loss	-10.0284
▁disappear	-10.0296
▁Think	-10.0296
▁values	-10.0304
ach	-10.032
▁edge	-10.0324
▁forget	-10.0332
▁profound	-10.0345
▁influence	-10.0353
▁Facebook	-10.0361
▁campaign	-10.0361
▁paid	-10.0369
▁highly	-10.037
the	-10.0374
▁vast	-10.0377
▁radio	-10.0382
moving	-10.0393
▁sick	-10.0394
▁laws	-10.04
▁vote	-10.0426
te	-10.0433
▁damage	-10.0433
▁sample	-10.0434
▁bed	-10.0438
▁noise	-10.046
▁corner	-10.0467
▁rare	-10.0501
▁careful	-10.0501
▁Your	-10.0518
A	-10.0536
▁feature	-10.0551
▁California	-10.0557
▁tumor	-10.0574
▁roll	-10.0583
▁lack	-10.059
ive	-10.0606
▁vaccine	-10.0623
▁popular	-10.0628
▁sat	-10.0631
▁rough	-10.0633
▁town	-10.0638
▁Second	-10.064
▁involve	-10.064
▁spot	-10.0641
▁worry	-10.0643
▁basi	-10.0651
▁sequence	-10.0655
▁contact	-10.0659
▁victim	-10.0662
▁aid	-10.0668
▁aware	-10.0678
▁argument	-10.069
▁photo	-10.0702
▁threat	-10.0704
▁consumer	-10.0704
▁outcome	-10.0707
▁National	-10.0708
▁bank	-10.0723
▁19	-10.0742
▁match	-10.077
▁babi	-10.0776
▁avoid	-10.0788
▁sexual	-10.0797
▁slide	-10.0805
▁willing	-10.0808
▁straight	-10.0821
▁election	-10.0828
▁biological	-10.084
▁cook	-10.0858
▁gap	-10.0861
▁tough	-10.0862
▁claim	-10.0877
▁imagination	-10.0893
▁emotional	-10.0895
▁below	-10.0896
▁agree	-10.0907
▁border	-10.0913
▁Western	-10.0918
▁net	-10.0932
▁compare	-10.0935
▁station	-10.095
el	-10.095
▁instrument	-10.0957
▁streets	-10.0958
▁Indian	-10.096
▁Over	-10.0965
▁members	-10.0965
▁cultural	-10.098
▁print	-10.0983
spite	-10.099
▁driver	-10.1002
▁Ver	-10.1007
▁television	-10.1012
▁broken	-10.1017
▁definition	-10.1018
▁bridge	-10.1029
▁Be	-10.1031
▁husband	-10.1047
N	-10.1064
▁accident	-10.1069
▁gain	-10.1069
▁scene	-10.1082
▁cycle	-10.1087
▁justice	-10.1092
ne	-10.1094
ized	-10.1098
▁jump	-10.1099
▁motion	-10.1103
▁minds	-10.1104
▁Afghani	-10.1107
▁seat	-10.111
▁smell	-10.1116
▁supply	-10.1134
▁reaction	-10.1136
ary	-10.1155
▁surgery	-10.1165
▁Great	-10.1169
▁Muslim	-10.1173
▁generate	-10.1194
▁sharing	-10.1196
▁responsibility	-10.1201
▁unfortunate	-10.1204
▁sing	-10.1208
▁core	-10.1218
▁kilometer	-10.1243
▁emerg	-10.1245
▁glass	-10.1246
▁held	-10.1275
▁radical	-10.1277
▁window	-10.1282
▁muscle	-10.1292
ian	-10.1292
▁continent	-10.1313
▁commercial	-10.132
▁background	-10.1332
▁con	-10.1334
▁aspect	-10.1337
▁evolved	-10.1341
▁central	-10.1342
▁mechanism	-10.1345
▁hearing	-10.1348
▁limit	-10.1349
▁trip	-10.1352
▁stem	-10.1363
▁twice	-10.1363
▁missing	-10.1372
ish	-10.1373
▁European	-10.1387
▁plane	-10.1403
▁researcher	-10.1421
▁engage	-10.1432
▁sector	-10.1435
▁enable	-10.1439
eath	-10.1463
▁efficient	-10.1464
▁crime	-10.1489
▁hate	-10.149
▁express	-10.1499
▁platform	-10.1508
bas	-10.1513
ch	-10.1516
▁De	-10.152
6	-10.1543
▁application	-10.1544
▁rapid	-10.1544
▁fully	-10.1557
▁coral	-10.1562
▁balance	-10.1584
▁ball	-10.1589
▁legal	-10.1594
▁detect	-10.1595
▁player	-10.1598
▁root	-10.1601
it	-10.1618
▁include	-10.1621
▁dad	-10.1622
▁suffer	-10.165
▁component	-10.1653
▁sand	-10.1656
▁funny	-10.1672
▁refugee	-10.1681
▁cat	-10.1684
▁dramatic	-10.1685
▁sub	-10.1689
▁His	-10.172
▁opportunit	-10.1722
▁regular	-10.1727
▁classroom	-10.1727
▁flight	-10.1731
▁climb	-10.1741
▁recover	-10.1746
▁diversit	-10.1758
▁mountain	-10.176
▁bar	-10.1762
▁tremendous	-10.1764
▁ship	-10.1766
▁Did	-10.1767
▁boat	-10.177
▁bough	-10.1773
▁river	-10.1781
▁500	-10.1783
▁13	-10.18
▁opposite	-10.1802
▁capture	-10.1805
▁soil	-10.1816
▁drawing	-10.1819
▁depression	-10.1822
▁suffering	-10.1824
▁Pe	-10.1825
nstead	-10.183
▁religious	-10.1842
▁sustainabl	-10.1846
▁oh	-10.1862
▁1,000	-10.1878
▁dynamic	-10.1898
▁reflect	-10.1899
▁mouth	-10.1902
term	-10.1906
▁electronic	-10.1908
▁earth	-10.1916
▁forever	-10.1946
▁Have	-10.1947
▁creativ	-10.195
▁alternative	-10.1952
▁conference	-10.1954
▁notion	-10.1961
▁fac	-10.1976
▁contain	-10.1977
▁300	-10.1995
$	-10.2009
▁childhood	-10.201
▁compar	-10.2018
▁states	-10.2024
▁farmers	-10.2028
▁reveal	-10.2028
▁invisibl	-10.2036
▁moon	-10.205
▁David	-10.2052
▁10,000	-10.2053
▁cave	-10.2055
▁gender	-10.2067
▁plann	-10.2072
▁struggle	-10.2077
▁advance	-10.2087
▁identify	-10.2108
▁French	-10.2124
▁correct	-10.2134
▁leader	-10.2135
▁oxygen	-10.2141
▁prove	-10.2145
▁identity	-10.215
▁See	-10.215
▁island	-10.2169
▁disorder	-10.2182
▁pair	-10.2183
ble	-10.2196
▁Japan	-10.2202
▁stuck	-10.2202
▁civilization	-10.2202
▁tradition	-10.2211
▁Wom	-10.2214
▁technical	-10.2223
▁coffee	-10.2241
▁dinosaur	-10.2241
▁transformation	-10.2266
▁encourage	-10.2278
▁airplane	-10.228
▁bag	-10.2283
▁24	-10.2297
▁argue	-10.2297
▁attempt	-10.2299
▁More	-10.2301
▁flower	-10.2338
▁multi	-10.2339
▁ecosystem	-10.2339
▁president	-10.2339
▁extend	-10.2341
la	-10.2375
▁cloud	-10.2377
▁Sometime	-10.2381
▁birds	-10.2387
▁chair	-10.2398
▁advantage	-10.2418
▁malaria	-10.243
▁Once	-10.243
▁eating	-10.2434
▁museum	-10.2438
▁leading	-10.2443
▁responsibl	-10.2458
night	-10.2473
▁adopt	-10.248
▁graph	-10.2487
▁reward	-10.2499
▁engine	-10.2505
▁grand	-10.2512
▁caus	-10.2513
▁monkey	-10.2518
▁estimate	-10.2525
▁X	-10.2531
▁article	-10.2538
▁magazine	-10.2538
▁adapt	-10.254
▁faith	-10.2554
▁crowd	-10.256
▁exercise	-10.2563
▁hopeful	-10.2567
▁farm	-10.2602
▁mathematics	-10.2618
▁British	-10.2619
▁labor	-10.262
▁f	-10.2626
▁sad	-10.2628
▁desert	-10.2639
▁score	-10.2641
dimensional	-10.2645
▁spirit	-10.2659
▁civil	-10.2678
▁litera	-10.2696
▁Twitter	-10.27
▁dozen	-10.27
▁weird	-10.27
▁Mr	-10.271
▁proud	-10.272
▁Asia	-10.2733
▁marriage	-10.2742
▁location	-10.2746
▁parent	-10.2751
▁fighting	-10.2755
▁receiv	-10.2755
hand	-10.2757
▁creation	-10.2758
▁hurt	-10.2761
▁operation	-10.2775
▁chose	-10.2778
▁bus	-10.2781
▁fashion	-10.2796
▁anti	-10.2797
▁bright	-10.2804
▁etc	-10.2807
u	-10.2809
▁holding	-10.2833
▁complexit	-10.2838
▁conscious	-10.2848
▁curve	-10.285
▁due	-10.2855
▁debate	-10.2864
▁succeed	-10.2865
▁era	-10.2887
▁Her	-10.2894
▁traffic	-10.2921
▁hero	-10.2924
ie	-10.293
▁rid	-10.2945
▁date	-10.2945
▁architect	-10.2948
▁Would	-10.2948
▁politician	-10.295
▁master	-10.2957
▁Brazil	-10.2969
▁deeply	-10.2984
▁foundation	-10.2988
▁Audience	-10.299
uar	-10.3003
go	-10.301
▁existence	-10.3011
▁phenomeno	-10.3011
▁cure	-10.3034
▁negative	-10.3039
▁stoo	-10.3039
orrow	-10.3049
ta	-10.3055
▁fold	-10.3058
▁trick	-10.3066
▁newspaper	-10.3075
▁controll	-10.3078
ur	-10.3091
▁competition	-10.3117
▁marrie	-10.3119
▁stranger	-10.3128
▁fascinating	-10.3131
▁Sun	-10.3134
▁yellow	-10.3139
▁narrative	-10.3142
and	-10.3153
▁cry	-10.3155
▁sold	-10.3183
▁industrial	-10.3199
▁introduce	-10.3202
▁strength	-10.3221
▁beat	-10.3226
▁quote	-10.3233
▁honor	-10.3246
▁Any	-10.3247
▁insight	-10.3261
▁soldier	-10.3267
▁miss	-10.3277
▁proper	-10.3285
▁epidemic	-10.3289
▁universal	-10.3289
▁sensor	-10.3295
▁odd	-10.33
▁expression	-10.3318
▁metal	-10.3343
▁perception	-10.3354
▁operat	-10.3355
▁grade	-10.3374
▁writer	-10.3382
▁coast	-10.3383
▁bubble	-10.3384
▁discovery	-10.3392
▁Un	-10.3402
▁related	-10.3422
▁AIDS	-10.3423
▁zone	-10.343
▁spin	-10.3433
▁independent	-10.3441
▁bottle	-10.3442
▁curious	-10.3442
ization	-10.3444
tic	-10.345
▁Again	-10.3455
▁Three	-10.3464
▁provid	-10.3465
▁equip	-10.3471
▁customer	-10.3472
▁receive	-10.3483
▁party	-10.3487
▁limited	-10.3491
▁brilliant	-10.3492
▁multiple	-10.3509
▁partner	-10.351
▁Big	-10.3518
▁Iraq	-10.3524
▁journalist	-10.3528
▁analys	-10.3529
▁mouse	-10.353
▁variet	-10.3534
▁CO	-10.3538
▁closed	-10.3545
▁shock	-10.3547
T	-10.3549
▁university	-10.3559
▁autism	-10.3575
▁manufactur	-10.3589
▁grandmother	-10.3599
▁capable	-10.3605
▁leaving	-10.3619
▁Washing	-10.3619
▁foreign	-10.3629
ership	-10.3657
▁pounds	-10.3674
▁graduate	-10.3675
▁photos	-10.3684
▁dot	-10.3686
z	-10.3686
▁symbol	-10.3692
▁organic	-10.3695
▁quiet	-10.3709
▁Good	-10.3713
▁dollar	-10.3736
▁suit	-10.3759
▁micro	-10.3764
▁frame	-10.3769
▁chip	-10.3769
▁switch	-10.3773
▁truck	-10.3774
▁hidden	-10.3777
▁soul	-10.3784
▁400	-10.3791
▁fossil	-10.3795
▁interface	-10.38
▁statistic	-10.38
▁motor	-10.3801
▁unlike	-10.3803
▁dreams	-10.3813
I	-10.3814
▁wisdom	-10.3846
▁harder	-10.3847
▁collection	-10.3856
▁bird	-10.3864
▁error	-10.3869
▁opinion	-10.3869
▁Y	-10.3879
▁dinner	-10.3892
▁employee	-10.3892
▁copy	-10.39
▁survey	-10.3915
▁gift	-10.3927
▁solv	-10.3931
▁elephant	-10.3938
▁illness	-10.3939
▁highest	-10.3957
▁lie	-10.3961
▁weather	-10.3962
▁chain	-10.3978
▁volunteer	-10.3984
ging	-10.3997
▁laugh	-10.3998
▁mirror	-10.4007
▁stream	-10.4015
▁round	-10.4033
▁precise	-10.404
▁grown	-10.4044
▁fresh	-10.4054
▁crop	-10.4056
▁occur	-10.4073
▁Middle	-10.4078
▁telescope	-10.4078
▁patent	-10.4078
▁display	-10.4078
▁equation	-10.4078
▁garden	-10.4082
0,000	-10.4087
▁gold	-10.4087
▁meat	-10.4098
▁resistan	-10.4098
▁circuit	-10.4104
▁remote	-10.4118
▁Life	-10.4125
▁discussion	-10.4128
▁applie	-10.4142
▁mess	-10.4147
▁N	-10.4149
▁fell	-10.415
wood	-10.4156
▁manag	-10.4158
▁Art	-10.4165
▁mathematical	-10.4172
▁wake	-10.4175
▁remove	-10.418
▁wire	-10.4184
▁speaker	-10.4184
▁gather	-10.4192
▁lung	-10.4201
▁ancestor	-10.4243
▁restaurant	-10.4243
▁channel	-10.4244
▁organiz	-10.4255
▁topic	-10.4255
▁arms	-10.4279
▁click	-10.4293
▁row	-10.43
▁US	-10.4312
g	-10.4315
▁orbit	-10.4315
▁clinical	-10.4325
▁exchange	-10.4325
▁therap	-10.4326
▁quantum	-10.4339
▁poem	-10.4339
▁lift	-10.4339
▁artificial	-10.4341
▁empower	-10.4341
▁authorit	-10.4342
▁divide	-10.4345
▁sorr	-10.4362
▁Einstein	-10.4387
▁Paul	-10.4387
▁stone	-10.4389
▁fellow	-10.4391
▁profit	-10.441
▁doubt	-10.4415
▁Arab	-10.442
▁credit	-10.4425
▁blow	-10.4429
▁whom	-10.4442
▁spoke	-10.4459
▁practical	-10.4467
▁feedback	-10.4485
▁dry	-10.4497
▁lunch	-10.4509
▁budget	-10.4512
▁discuss	-10.453
▁scan	-10.4555
▁describ	-10.4559
▁app	-10.4569
▁wood	-10.457
▁seed	-10.4575
▁tie	-10.4575
▁replace	-10.4587
▁taste	-10.4588
▁factory	-10.4588
▁invention	-10.459
▁judge	-10.4597
▁brief	-10.4607
▁infection	-10.461
▁Other	-10.4614
▁measur	-10.4618
▁Australia	-10.4628
▁mix	-10.4628
▁hell	-10.4628
▁pig	-10.4631
▁rural	-10.4632
▁construction	-10.4635
line	-10.4636
▁shop	-10.4641
▁Bill	-10.4646
▁trillion	-10.4648
hip	-10.4654
▁198	-10.4656
▁criminal	-10.4663
▁construct	-10.468
▁roof	-10.4682
▁equivalent	-10.4682
▁chemistr	-10.4688
▁coal	-10.4693
▁protection	-10.4719
▁terrorist	-10.4721
▁property	-10.4723
▁skill	-10.4725
▁agricultur	-10.4726
▁combination	-10.4733
▁ordinar	-10.4753
▁Re	-10.4755
▁nervous	-10.4757
▁determine	-10.4759
▁lifetime	-10.4779
▁belong	-10.4781
▁volume	-10.4788
▁official	-10.48
▁programm	-10.4803
▁govern	-10.4805
▁President	-10.4807
▁convert	-10.4807
▁silence	-10.4807
▁Come	-10.481
▁surround	-10.4812
▁folks	-10.4819
▁comment	-10.482
▁worri	-10.4821
▁cartoon	-10.4832
▁shark	-10.4832
▁hop	-10.4832
▁GDP	-10.4834
versus	-10.4845
▁encounter	-10.4858
▁joy	-10.4863
▁setting	-10.4865
▁Last	-10.4866
▁inner	-10.4869
▁Does	-10.4875
▁1	-10.4877
▁diet	-10.488
▁George	-10.4884
▁mid	-10.4884
▁transition	-10.4885
▁occurr	-10.4891
▁password	-10.4909
▁King	-10.4924
▁flu	-10.4929
▁disaster	-10.4934
▁accurate	-10.4937
▁challeng	-10.4938
▁collapse	-10.4939
▁loud	-10.494
▁pocket	-10.4959
▁Could	-10.496
▁crash	-10.4963
sis	-10.4965
▁100,000	-10.4966
▁addition	-10.4967
▁note	-10.4975
▁killing	-10.4979
▁dealing	-10.4998
▁novel	-10.5015
▁Web	-10.5027
▁sight	-10.5031
ar	-10.5035
men	-10.5035
▁symptom	-10.5037
▁invite	-10.5038
ture	-10.5047
▁combine	-10.5056
▁assume	-10.5057
▁bread	-10.5063
▁metaphor	-10.5081
▁invit	-10.5086
▁peer	-10.5095
▁threaten	-10.5101
▁atom	-10.5101
▁Their	-10.5101
▁150	-10.5106
▁operate	-10.5116
ver	-10.5123
▁maintain	-10.514
▁intelligent	-10.5145
▁Mexic	-10.5166
▁puzzle	-10.5166
▁comfortabl	-10.5167
▁repair	-10.5171
▁tens	-10.5179
ling	-10.5184
▁lies	-10.5189
▁gun	-10.5194
▁Los	-10.5195
▁continu	-10.5199
▁host	-10.5202
daily	-10.5215
▁emissions	-10.5228
▁polic	-10.5232
▁Amazon	-10.5245
▁Since	-10.5245
▁Brita	-10.5246
▁valuable	-10.5248
▁35	-10.5253
▁transport	-10.527
▁microbe	-10.5275
▁vulnerab	-10.5283
ial	-10.5288
▁liquid	-10.5298
▁seek	-10.53
▁nurse	-10.5305
▁shoes	-10.5309
▁band	-10.5312
▁electrical	-10.5315
▁privacy	-10.5325
▁economist	-10.5326
▁Kenya	-10.5349
▁jail	-10.5351
▁197	-10.5352
ine	-10.5362
▁bill	-10.5363
amp	-10.5371
▁explanation	-10.5378
▁initial	-10.5378
▁Richard	-10.5378
▁heavy	-10.5378
life	-10.5385
▁harm	-10.5402
▁toilet	-10.5405
▁battle	-10.5408
▁2,000	-10.5411
▁stupid	-10.5431
▁balloon	-10.5431
▁Canad	-10.5432
▁string	-10.5436
▁broke	-10.5436
▁quarter	-10.5443
▁professor	-10.5453
▁member	-10.5453
▁theater	-10.5454
▁intellectual	-10.5458
▁cutting	-10.5466
O	-10.547
▁Times	-10.547
▁la	-10.5475
▁fourth	-10.5482
▁Street	-10.5512
▁cognitive	-10.5512
▁gay	-10.5513
▁weapons	-10.5513
▁MIT	-10.5539
▁talent	-10.554
▁voices	-10.5546
▁button	-10.5548
▁75	-10.556
▁lay	-10.5564
▁mosquito	-10.5566
▁joke	-10.5567
▁surgeon	-10.5567
▁previous	-10.5568
▁management	-10.5569
▁worldwide	-10.5571
▁facilit	-10.5573
▁France	-10.5577
▁north	-10.5585
▁actor	-10.559
sumption	-10.5592
▁NASA	-10.5594
▁apartment	-10.5596
▁director	-10.5606
▁flat	-10.5619
▁chicken	-10.5622
▁2000	-10.5622
▁bees	-10.5624
▁breast	-10.5628
x	-10.5631
▁camp	-10.5632
▁empty	-10.5648
▁tear	-10.5649
▁historical	-10.5651
▁according	-10.5656
co	-10.5662
▁9	-10.5664
com	-10.5681
son	-10.5691
▁opening	-10.5705
▁wheel	-10.5713
corruption	-10.5729
▁phrase	-10.5731
▁assumption	-10.5733
▁clip	-10.5735
▁embrace	-10.5736
althcare	-10.5754
▁awesome	-10.5757
▁School	-10.5759
▁passionate	-10.5765
losing	-10.5779
▁pump	-10.5787
▁fruit	-10.5788
▁court	-10.5803
▁hum	-10.5804
am	-10.581
▁enem	-10.5815
▁distribution	-10.5817
▁Iran	-10.5819
▁infect	-10.582
▁arriv	-10.5831
▁hide	-10.5834
▁medium	-10.5844
▁teenager	-10.5851
▁participate	-10.5862
▁kick	-10.5862
▁undern	-10.5862
▁severe	-10.5878
▁pure	-10.5879
▁conduct	-10.5887
▁categor	-10.5895
▁label	-10.5903
erson	-10.5909
▁Harvard	-10.5927
▁definite	-10.5927
▁forgot	-10.5927
▁clinic	-10.5948
▁vessel	-10.5955
▁exploration	-10.5958
▁pleasure	-10.5959
▁cup	-10.5961
▁importan	-10.5981
▁librar	-10.5982
ware	-10.5985
▁smile	-10.5986
hi	-10.5988
▁pack	-10.5999
▁abuse	-10.6005
ma	-10.6009
▁regard	-10.6012
▁title	-10.6012
▁transportation	-10.6014
▁visibl	-10.6015
▁analog	-10.6019
▁4	-10.6023
▁load	-10.6029
▁propert	-10.603
R	-10.6032
▁privilege	-10.6045
ier	-10.6048
▁evolve	-10.6062
▁ride	-10.6065
▁awful	-10.6069
▁variation	-10.6069
▁physicist	-10.6097
▁prime	-10.61
▁2008	-10.61
▁Jan	-10.6102
▁antibiotic	-10.6103
▁easie	-10.6109
of	-10.6123
▁England	-10.6126
▁conclusion	-10.6126
▁input	-10.6144
▁extract	-10.6152
▁Yet	-10.6155
▁fiber	-10.6158
▁attract	-10.618
▁danger	-10.6183
▁Talk	-10.6184
▁grandfather	-10.619
▁Angel	-10.6202
▁circumstance	-10.6213
▁teeth	-10.6213
▁Pleas	-10.6213
▁deserve	-10.6213
▁melt	-10.6214
▁habit	-10.622
▁organize	-10.6241
▁th	-10.6242
▁yester	-10.6243
ities	-10.6249
▁robotic	-10.6249
▁inequalit	-10.625
▁alien	-10.6254
▁ideal	-10.6254
▁secure	-10.6269
▁printing	-10.6288
▁dolphin	-10.63
▁lawyer	-10.6301
▁gravity	-10.6304
ical	-10.6311
▁translate	-10.6319
▁spectrum	-10.633
▁Francisco	-10.633
▁primary	-10.633
▁implication	-10.633
▁observation	-10.6331
ter	-10.6334
▁length	-10.6335
▁Tom	-10.6345
▁La	-10.6357
▁silk	-10.6359
▁advice	-10.6359
▁unknown	-10.6363
▁Le	-10.6369
▁broad	-10.6376
▁figur	-10.6389
ng	-10.6393
▁contribute	-10.64
▁Ri	-10.6401
▁south	-10.6406
▁experienc	-10.6406
▁sweet	-10.6415
rtex	-10.6417
▁kitchen	-10.6418
▁evolutionary	-10.6419
▁fat	-10.6421
▁pop	-10.6425
▁Israel	-10.6437
▁origin	-10.6442
▁earn	-10.6447
▁sugar	-10.6448
American	-10.6448
▁mechanical	-10.6448
▁molecular	-10.6451
▁shapes	-10.6451
▁meaningful	-10.6452
▁Jam	-10.6453
▁statement	-10.6455
▁prediction	-10.6457
ber	-10.6463
▁YouTube	-10.6477
▁radiation	-10.6478
▁instruction	-10.6478
▁Nigeria	-10.6479
▁Park	-10.6481
▁activist	-10.6488
▁bias	-10.6493
▁soft	-10.6512
▁Congress	-10.6537
▁prize	-10.6538
▁handle	-10.6539
▁burn	-10.6548
▁notic	-10.6552
▁contract	-10.6565
▁witness	-10.6569
▁protest	-10.657
at	-10.6574
▁officer	-10.66
▁king	-10.6605
▁react	-10.6622
▁mothers	-10.6624
▁nerve	-10.6628
▁rat	-10.6628
▁busy	-10.6628
▁Center	-10.6628
▁calculate	-10.663
▁stock	-10.6635
▁swim	-10.664
▁solid	-10.6642
▁tall	-10.6648
▁illegal	-10.6658
▁thin	-10.6658
ha	-10.6659
▁appreciate	-10.6661
▁tape	-10.6668
▁violent	-10.6678
▁engaged	-10.6684
▁bike	-10.6686
▁steel	-10.6692
▁zoom	-10.6694
▁relate	-10.6697
▁activit	-10.6707
▁Also	-10.6717
▁admit	-10.6718
▁lady	-10.6719
▁obes	-10.6722
▁emerge	-10.6727
▁arrive	-10.6727
il	-10.6732
▁injur	-10.6739
scale	-10.6741
▁iron	-10.6748
▁Institute	-10.675
▁bomb	-10.6751
B	-10.6753
▁spring	-10.6757
▁II	-10.676
▁memori	-10.6761
▁escape	-10.6777
truck	-10.6777
▁2010	-10.678
▁poetry	-10.6781
▁church	-10.6783
▁ignore	-10.6785
▁names	-10.6787
ley	-10.6787
▁cit	-10.6791
▁Will	-10.6792
▁Thanks	-10.6798
▁concrete	-10.6811
▁establish	-10.6814
▁firm	-10.6815
▁grid	-10.6817
▁plate	-10.6818
▁ring	-10.6822
▁PM	-10.6822
▁empath	-10.6825
▁review	-10.6829
▁pro	-10.6833
▁droppe	-10.6834
▁shoulder	-10.6836
▁mammal	-10.6842
▁Paris	-10.6842
▁mortality	-10.6843
▁trend	-10.6843
▁academic	-10.6846
▁naturally	-10.6849
▁former	-10.6861
▁spaces	-10.6863
▁attach	-10.6863
▁prepared	-10.6864
▁economi	-10.6869
▁select	-10.6869
destruction	-10.6873
▁Bank	-10.6873
▁instant	-10.6874
▁relevant	-10.6874
▁filter	-10.6877
▁calling	-10.6892
▁inevitabl	-10.6904
▁GPS	-10.6904
▁hotel	-10.6905
▁Am	-10.6909
▁grant	-10.691
ra	-10.6918
▁habitat	-10.6925
▁explor	-10.6925
▁repeat	-10.6926
▁chart	-10.6935
▁clever	-10.6935
▁hydrogen	-10.6935
▁winter	-10.6935
▁partners	-10.6936
▁icon	-10.6942
▁45	-10.6942
▁bio	-10.6946
▁sophisticate	-10.6966
▁Japanese	-10.6967
▁season	-10.6973
▁Hi	-10.6974
▁grain	-10.6975
▁battery	-10.6981
▁flie	-10.6991
▁status	-10.6992
▁automatic	-10.6996
▁chimpanzee	-10.6997
▁height	-10.7
▁expectation	-10.7006
▁knowing	-10.7011
▁terroris	-10.7028
▁dirt	-10.7029
▁file	-10.7029
▁collaboration	-10.703
▁gentlem	-10.703
▁sphere	-10.7039
▁reverse	-10.7059
▁implement	-10.706
▁department	-10.7061
▁biologist	-10.7062
▁innovative	-10.7062
▁Dan	-10.7068
▁participat	-10.7082
▁entertain	-10.7084
▁inform	-10.7087
▁centuries	-10.7092
▁client	-10.7092
▁staff	-10.7092
▁infinite	-10.7095
▁limb	-10.7098
▁productive	-10.71
▁Thom	-10.7101
▁reform	-10.7102
efore	-10.7104
H	-10.7117
ium	-10.7117
▁agent	-10.7142
▁democratic	-10.7155
▁iPhone	-10.7156
▁mystery	-10.7156
ory	-10.7168
▁entrepreneurs	-10.7169
▁State	-10.7172
▁grab	-10.7184
▁reef	-10.7188
▁reference	-10.7188
▁Wow	-10.7189
▁recording	-10.7192
fish	-10.7192
▁Me	-10.7193
▁awareness	-10.7199
dom	-10.7212
▁comfort	-10.7219
▁false	-10.722
▁aim	-10.7223
▁shame	-10.7238
▁appropriate	-10.7254
▁Final	-10.7263
▁Day	-10.7269
▁confront	-10.7282
▁spider	-10.7284
▁drill	-10.7286
▁beach	-10.7288
▁pour	-10.7295
▁dense	-10.7296
▁Green	-10.7299
▁Charles	-10.73
L	-10.7308
board	-10.7321
▁immune	-10.7349
▁panel	-10.7349
▁fan	-10.735
▁studio	-10.735
▁Bang	-10.7353
▁loop	-10.7356
▁swimm	-10.736
▁shadow	-10.7385
▁attitude	-10.739
▁section	-10.7401
▁celebrate	-10.7411
▁arrest	-10.7414
▁Michael	-10.7415
▁cent	-10.7422
▁Real	-10.7432
▁stronger	-10.7438
▁inspiration	-10.7439
▁comput	-10.7444
E	-10.7461
▁apple	-10.7462
▁prototype	-10.7463
▁plus	-10.7468
▁pregnan	-10.7479
▁illusion	-10.7479
▁harvest	-10.7482
▁Ma	-10.7483
▁monitor	-10.7486
▁bond	-10.7491
▁technological	-10.7493
ship	-10.7496
▁microscope	-10.75
▁snow	-10.7513
▁laptop	-10.7513
▁commitment	-10.7515
ard	-10.7518
▁Give	-10.7522
▁cluster	-10.7546
▁hang	-10.7549
▁loan	-10.7551
▁knee	-10.7554
▁ingredient	-10.7579
▁196	-10.758
▁Five	-10.758
▁rational	-10.7587
▁Ne	-10.7591
▁Ten	-10.7597
▁Darwin	-10.7612
▁fortunate	-10.7613
▁CEO	-10.7613
▁horse	-10.7613
▁efficienc	-10.762
▁crack	-10.7623
▁associat	-10.7624
▁heal	-10.7624
▁danc	-10.7633
▁emergenc	-10.7636
▁heads	-10.7641
▁Number	-10.7646
▁objective	-10.7649
▁nose	-10.7654
▁exten	-10.7677
▁Science	-10.768
▁liberal	-10.768
▁evil	-10.768
▁processe	-10.7697
▁tax	-10.77
▁committ	-10.7703
▁22	-10.7712
▁September	-10.7713
▁surveillance	-10.7713
▁style	-10.7716
▁afternoon	-10.7718
io	-10.772
▁roads	-10.7723
▁m	-10.7725
▁decline	-10.7727
▁abstract	-10.7746
▁elder	-10.7749
▁sports	-10.7769
▁Apple	-10.7775
▁23	-10.7777
▁angry	-10.7781
▁physician	-10.7782
▁Whil	-10.7782
ni	-10.7784
▁peak	-10.7789
▁pilot	-10.7789
▁logic	-10.7795
▁guide	-10.781
▁advanc	-10.781
▁barrier	-10.7815
half	-10.7828
▁unexpected	-10.7849
▁debt	-10.7849
▁contrast	-10.7849
▁script	-10.7855
▁rush	-10.7856
▁sum	-10.7867
▁apparent	-10.7867
heimer	-10.7884
▁Space	-10.789
▁99	-10.79
▁hunt	-10.7902
▁employ	-10.7905
▁sheet	-10.7921
▁tap	-10.7924
▁army	-10.7924
▁imagin	-10.7925
W	-10.7926
▁internal	-10.7955
▁improvement	-10.7959
▁rely	-10.7963
▁trace	-10.7979
rising	-10.798
▁mathematician	-10.7987
▁unusual	-10.7987
▁BG	-10.7989
▁pool	-10.7997
G	-10.7999
▁Ph	-10.8013
▁medication	-10.8022
▁frank	-10.8022
▁genius	-10.8022
▁pollution	-10.8022
▁permanent	-10.8023
▁agreed	-10.8026
ac	-10.8029
▁lecture	-10.8036
▁percentage	-10.8037
▁exception	-10.8047
▁consume	-10.8047
▁suicide	-10.8056
▁characteristic	-10.8057
▁Mary	-10.806
▁domestic	-10.8069
off	-10.8077
▁counter	-10.8078
▁demonstrate	-10.808
ate	-10.8083
▁younger	-10.809
▁reject	-10.8091
▁boring	-10.8091
ise	-10.8097
▁burning	-10.8098
▁st	-10.8104
▁favor	-10.8124
▁mountains	-10.8134
▁asset	-10.8137
▁clothes	-10.8139
▁ear	-10.8139
▁mile	-10.8146
surance	-10.815
▁p	-10.8153
▁Health	-10.816
▁Greek	-10.8162
▁1990	-10.8165
ification	-10.8171
▁raw	-10.8184
ant	-10.8188
▁hire	-10.8192
▁Higgs	-10.8197
▁sculpture	-10.8197
▁V	-10.8197
▁wireless	-10.8199
▁musician	-10.8204
▁prisoner	-10.8214
▁meal	-10.8216
▁ex	-10.8227
▁musical	-10.823
▁psychological	-10.8234
▁Valle	-10.8235
▁citizen	-10.8236
▁license	-10.8244
▁confiden	-10.8248
▁Swede	-10.8249
▁mice	-10.8254
ility	-10.8268
▁1980	-10.8268
▁cord	-10.8268
▁fake	-10.8269
▁introduc	-10.8269
▁Anyway	-10.8274
▁Steve	-10.8275
▁expos	-10.828
▁breathe	-10.8285
▁Sea	-10.829
▁Chicago	-10.8304
▁trigger	-10.8304
▁greenhouse	-10.8304
▁3,000	-10.8313
▁fascinat	-10.8313
▁educational	-10.8318
▁hall	-10.8334
▁asteroid	-10.834
▁curiosity	-10.834
▁phase	-10.834
▁laboratory	-10.834
▁painful	-10.8346
▁Russia	-10.8347
▁presentation	-10.8349
▁angle	-10.8351
▁videos	-10.8353
▁upper	-10.836
▁rescue	-10.8372
ner	-10.8376
▁Obama	-10.8376
▁wound	-10.8376
▁framework	-10.8376
call	-10.8377
▁crucial	-10.8378
▁nest	-10.838
▁engag	-10.8387
▁ritual	-10.8389
▁wine	-10.84
▁lens	-10.84
▁poster	-10.8403
▁Four	-10.841
▁Egypt	-10.8411
▁Antarctic	-10.8412
▁Human	-10.8412
▁fiction	-10.8414
▁weigh	-10.8435
▁attend	-10.8436
llo	-10.8436
▁Star	-10.8437
▁wondered	-10.844
art	-10.8448
▁pile	-10.8449
▁hat	-10.8454
▁divers	-10.8463
▁fle	-10.8464
nfortunate	-10.8484
▁laser	-10.8485
▁exploit	-10.8486
▁vertical	-10.8486
▁bicycle	-10.8491
▁myth	-10.8501
ro	-10.852
▁prosper	-10.8521
ground	-10.853
▁improv	-10.853
▁drone	-10.8558
▁Pacific	-10.856
▁finance	-10.8567
▁weak	-10.8576
▁suck	-10.8577
ors	-10.8581
▁storm	-10.8582
▁da	-10.8587
▁globe	-10.8594
▁knock	-10.8594
▁leap	-10.8594
▁recognition	-10.8594
▁narrow	-10.8594
▁install	-10.8596
▁stretch	-10.8601
M	-10.8603
foot	-10.8618
▁courage	-10.863
▁confuse	-10.8631
▁Project	-10.8633
▁exhibition	-10.8634
▁homes	-10.8643
▁tail	-10.8664
▁shut	-10.8668
▁intervention	-10.8668
▁ugl	-10.8679
▁behave	-10.8696
▁paradigm	-10.8705
▁wash	-10.8714
▁rating	-10.8715
▁Rememb	-10.8725
▁Sam	-10.8729
▁flood	-10.8743
▁horrible	-10.8745
▁presence	-10.8751
▁oppos	-10.8755
▁Jun	-10.8763
▁tag	-10.8771
▁tip	-10.8772
▁releas	-10.8777
▁dogs	-10.8778
▁drove	-10.878
▁silent	-10.878
▁route	-10.8781
▁Bost	-10.8782
lz	-10.8786
▁tour	-10.8794
▁quit	-10.8815
▁download	-10.8819
▁depth	-10.8819
▁parking	-10.8821
▁desk	-10.8823
▁productivit	-10.8852
▁accomplish	-10.8854
▁minister	-10.8855
▁plent	-10.8855
▁shoot	-10.8873
▁split	-10.8876
▁elect	-10.889
▁transplant	-10.8891
▁feeding	-10.8897
▁anger	-10.8897
ought	-10.8901
▁transfer	-10.8903
▁5,000	-10.8912
▁personalit	-10.8913
▁gut	-10.8914
▁floating	-10.8914
P	-10.8915
▁resolution	-10.8918
▁promote	-10.8922
ri	-10.8926
▁conservation	-10.8931
▁appeal	-10.8932
▁defense	-10.8936
▁gray	-10.8943
ah	-10.8949
▁tank	-10.8952
▁manager	-10.897
▁database	-10.897
▁desperate	-10.8973
▁prepar	-10.8984
▁struggl	-10.8988
down	-10.9003
▁predator	-10.9008
▁absorb	-10.9011
▁distribut	-10.9012
▁Ah	-10.9014
▁frequenc	-10.9017
▁sensitive	-10.9036
▁regime	-10.9044
▁1960	-10.9046
▁psychologist	-10.9047
▁brown	-10.9048
▁classic	-10.906
▁Centr	-10.9071
▁neuron	-10.9081
▁scenario	-10.9085
▁suspect	-10.9085
▁g	-10.9089
▁overall	-10.9091
▁rocket	-10.9109
▁pit	-10.9114
▁inter	-10.9121
▁steal	-10.9122
raising	-10.9122
▁Next	-10.9124
▁corporation	-10.9124
▁hormone	-10.9124
▁Nobel	-10.9124
▁magnetic	-10.9124
▁humor	-10.9125
▁telephone	-10.9129
▁authentic	-10.9134
▁photographer	-10.9145
century	-10.9151
▁pitch	-10.9152
▁interactive	-10.9164
▁vital	-10.9165
▁27	-10.9167
▁tea	-10.9167
▁implant	-10.9173
▁cable	-10.9176
oxide	-10.9189
▁reduc	-10.9196
▁pill	-10.9201
▁Museum	-10.9201
▁obsess	-10.9202
▁cheat	-10.9202
▁ears	-10.9206
▁recogniz	-10.9216
▁May	-10.9217
▁birthday	-10.9218
▁8	-10.9219
▁Latin	-10.9227
▁boxe	-10.9233
▁identical	-10.9241
▁intense	-10.9241
▁pretend	-10.9243
▁philosoph	-10.9263
▁remov	-10.9276
▁simulation	-10.9281
▁Abou	-10.9285
rice	-10.929
▁ought	-10.9293
▁House	-10.9295
▁charit	-10.9307
▁revenue	-10.932
▁corporate	-10.9321
▁plot	-10.9321
▁stor	-10.9323
▁boss	-10.9323
▁Global	-10.933
rew	-10.9332
▁animation	-10.9335
▁author	-10.9342
▁El	-10.9352
ray	-10.9354
▁resist	-10.9355
▁candidate	-10.9359
▁International	-10.9359
▁hack	-10.9375
▁fabric	-10.9382
work	-10.939
▁Voice	-10.9399
▁scratch	-10.9399
▁uncomfortabl	-10.9399
▁renewable	-10.94
▁lifestyle	-10.9402
mak	-10.9414
▁conventional	-10.9419
▁rocks	-10.9427
ious	-10.9428
▁shipp	-10.9429
▁ensure	-10.9429
▁Pakistan	-10.9435
hood	-10.9439
▁penguin	-10.9439
▁grass	-10.9439
▁mindset	-10.944
▁whales	-10.9441
▁Adam	-10.9442
▁cloth	-10.9446
▁achievement	-10.9452
▁adventure	-10.9456
▁reported	-10.9464
▁imag	-10.9465
▁request	-10.9479
▁fluid	-10.9479
▁footprint	-10.9482
▁fixed	-10.9494
▁eggs	-10.9504
▁nor	-10.9506
▁froze	-10.9521
▁smoke	-10.9544
ent	-10.9548
what	-10.9553
▁Islam	-10.9558
▁distant	-10.956
▁traged	-10.956
▁acid	-10.9561
▁subtle	-10.9586
▁ladies	-10.9601
▁Get	-10.9616
▁accessibl	-10.9618
▁bare	-10.962
▁7	-10.962
▁St	-10.9627
▁beside	-10.9629
▁Frank	-10.963
▁analyze	-10.9633
▁seal	-10.9636
▁Dur	-10.9636
▁smartphone	-10.9642
▁1970	-10.9642
▁confident	-10.9644
▁borrow	-10.9644
▁integrat	-10.9648
▁stepp	-10.9667
gun	-10.9672
▁deploy	-10.9681
▁essence	-10.9683
▁procedure	-10.9683
▁Christmas	-10.9683
▁polle	-10.9688
▁dust	-10.969
▁golf	-10.9693
▁excite	-10.97
▁poet	-10.97
▁electron	-10.9711
▁symmetr	-10.9718
▁afterward	-10.9719
▁Girl	-10.9726
▁selection	-10.9728
▁Pole	-10.9732
▁portrait	-10.9734
▁consistent	-10.9741
▁generat	-10.9744
ol	-10.9759
▁High	-10.9761
▁Nor	-10.9762
▁trait	-10.9764
▁guilt	-10.9765
▁Stanford	-10.9765
▁hunger	-10.9767
▁Wall	-10.9776
▁needle	-10.9786
▁believ	-10.9787
▁recruit	-10.9807
▁Prize	-10.9807
▁description	-10.9807
▁conservative	-10.9813
▁motivation	-10.9817
▁thanks	-10.9824
▁Foundation	-10.9848
▁hungry	-10.9848
▁1950	-10.9849
▁perceive	-10.9849
▁marine	-10.985
ize	-10.986
ice	-10.9862
▁ten	-10.9872
▁Part	-10.9883
▁prefer	-10.9886
▁Del	-10.9886
▁miracle	-10.989
▁compound	-10.989
▁session	-10.989
▁elite	-10.989
town	-10.9891
▁Robert	-10.9892
▁disability	-10.9908
▁capitalis	-10.9909
▁shooting	-10.9912
ivity	-10.992
▁shall	-10.9932
▁ridiculous	-10.9932
▁judgment	-10.9932
▁club	-10.9933
▁skeleton	-10.9934
▁colony	-10.9935
▁output	-10.9936
▁combin	-10.994
▁discipline	-10.9941
▁brave	-10.995
▁dictionar	-10.9959
▁toxic	-10.996
▁proof	-10.9963
▁spiritual	-10.9964
▁Russian	-10.9966
▁embedded	-10.9974
▁stack	-10.9974
▁measurement	-10.9982
▁blog	-10.9983
▁5	-10.9988
▁worm	-10.9994
▁polar	-10.9998
▁psycholog	-11.0016
▁grateful	-11.0017
▁tight	-11.0021
▁bump	-11.0023
source	-11.0026
▁optimistic	-11.0029
ka	-11.0031
▁rent	-11.0033
▁educate	-11.0037
▁additional	-11.0047
ories	-11.005
▁shake	-11.0052
▁sides	-11.0055
▁ultra	-11.0059
▁airport	-11.0059
▁household	-11.006
▁overcome	-11.006
▁cute	-11.0065
▁Free	-11.0066
▁lion	-11.0067
▁Mi	-11.0081
nna	-11.0084
▁smok	-11.0086
▁printer	-11.0087
▁cyber	-11.0102
▁chest	-11.0102
▁achiev	-11.0119
▁blame	-11.0121
▁observe	-11.0126
▁announc	-11.0138
▁magnet	-11.0143
dge	-11.0144
▁obstacle	-11.0145
▁dignit	-11.0149
▁parallel	-11.015
▁hous	-11.0154
▁headline	-11.0154
▁Tell	-11.0158
▁functional	-11.0165
▁observ	-11.0173
▁wo	-11.0185
▁external	-11.0188
▁affair	-11.019
▁choos	-11.0193
▁anxiety	-11.0197
▁Holly	-11.0204
▁assembl	-11.0218
power	-11.0228
▁explosion	-11.0231
▁neural	-11.0231
▁pink	-11.0234
tta	-11.0235
em	-11.0235
▁suppose	-11.0239
▁breaking	-11.0254
▁item	-11.0257
▁65	-11.0258
▁Christian	-11.0266
▁River	-11.0277
▁advertis	-11.0281
▁representation	-11.0284
▁dedicat	-11.0298
▁murder	-11.0304
▁250	-11.0304
▁keeps	-11.0306
▁indicate	-11.031
▁Black	-11.0318
▁passenger	-11.0318
▁mutation	-11.0318
▁bend	-11.0341
▁illustrate	-11.0352
tech	-11.0356
▁sail	-11.0358
▁clue	-11.0361
▁diagram	-11.0362
▁abandon	-11.0362
▁clouds	-11.0365
▁tower	-11.0371
▁regret	-11.0375
▁highway	-11.0379
kind	-11.0383
▁inventor	-11.0396
50	-11.0404
while	-11.0406
▁Manhattan	-11.0406
▁skull	-11.0406
▁Revolution	-11.0406
▁football	-11.0406
▁hook	-11.0409
▁globalization	-11.0411
▁Lu	-11.0424
▁flip	-11.0426
▁weapon	-11.0436
▁behavioral	-11.0449
▁dialogue	-11.0451
▁Congo	-11.0451
▁sunlight	-11.0451
gen	-11.0462
▁194	-11.0468
▁Ben	-11.0476
▁relie	-11.0477
▁stroke	-11.0478
▁incentives	-11.0494
▁column	-11.0494
▁chaos	-11.0495
▁NGO	-11.0495
▁Olympic	-11.0495
▁White	-11.0508
▁Mo	-11.0515
▁windows	-11.052
▁universit	-11.0526
ang	-11.0527
fi	-11.0528
▁Jim	-11.0536
▁dig	-11.0541
▁transparency	-11.0541
▁bind	-11.0541
▁engagement	-11.0543
▁node	-11.0546
▁tired	-11.0547
▁Peter	-11.0551
▁farmer	-11.0557
▁orange	-11.0559
▁recycl	-11.0567
▁defend	-11.0569
▁Thing	-11.0574
▁fisher	-11.0575
▁mark	-11.058
▁youth	-11.058
▁pray	-11.0584
▁agenda	-11.0585
▁marry	-11.0585
▁permission	-11.0585
▁intention	-11.0586
aking	-11.0588
▁nutrient	-11.0589
▁bee	-11.0594
▁densit	-11.0596
▁magical	-11.0599
▁breed	-11.0608
▁dress	-11.0611
▁Martin	-11.0618
▁rap	-11.062
▁Ocean	-11.0629
▁chapter	-11.063
▁flag	-11.0631
▁currenc	-11.0633
▁Arabic	-11.0633
▁survivor	-11.064
▁mad	-11.064
long	-11.0651
ative	-11.0653
▁600	-11.0655
▁whale	-11.0669
▁rainforest	-11.0675
▁intuition	-11.0675
▁Friday	-11.0676
▁probabilit	-11.0676
ndeed	-11.0677
▁chromosome	-11.0678
▁legacy	-11.068
▁Nothing	-11.0686
▁Korea	-11.0692
▁profile	-11.0712
▁thick	-11.0715
▁Air	-11.0719
▁yield	-11.072
▁ceiling	-11.072
▁diabetes	-11.072
▁breakthrough	-11.072
▁tunnel	-11.0721
▁march	-11.0731
▁flexibl	-11.0735
abilities	-11.0748
▁surrounding	-11.0757
▁refer	-11.0761
▁strike	-11.0766
▁earthquake	-11.0766
▁spectacular	-11.0766
▁Nation	-11.0766
hildren	-11.0775
▁x	-11.0776
▁Mu	-11.0777
▁tackle	-11.0788
▁spark	-11.0799
▁polio	-11.0812
na	-11.0812
▁highlight	-11.0814
▁heaven	-11.0815
▁carri	-11.082
▁conclude	-11.0828
ho	-11.0828
▁shell	-11.084
▁bits	-11.0843
▁bother	-11.0855
▁mechanic	-11.0857
▁milk	-11.0867
▁rebuild	-11.0871
▁philosopher	-11.0874
▁cow	-11.0886
▁agenc	-11.0894
▁ticket	-11.0904
▁editor	-11.0907
▁dis	-11.0909
▁agency	-11.0922
▁li	-11.0926
▁Turk	-11.0927
▁tube	-11.093
▁bla	-11.0932
▁slum	-11.0948
▁globally	-11.0957
▁diagnos	-11.0959
▁theme	-11.0963
▁cast	-11.0984
mo	-11.0991
▁Z	-11.0993
▁edit	-11.0994
▁norm	-11.0996
▁pioneer	-11.0997
▁senior	-11.0997
▁lake	-11.0998
▁glacier	-11.1
▁tech	-11.1
▁sales	-11.1002
▁Never	-11.1002
▁mate	-11.1005
▁compete	-11.1012
▁Kan	-11.1014
▁backwards	-11.1014
▁entrepreneur	-11.1029
▁Was	-11.1032
▁classe	-11.1038
▁cash	-11.1044
▁piano	-11.1044
▁pyramid	-11.1044
he	-11.1045
▁demonstration	-11.1046
▁extinct	-11.1046
▁underly	-11.1047
▁Ca	-11.105
▁laid	-11.1053
▁donor	-11.1063
▁Turn	-11.1072
▁associate	-11.1076
▁capita	-11.1084
▁magn	-11.109
▁propose	-11.1091
▁evening	-11.1091
▁concert	-11.1091
▁fabulous	-11.1091
▁voting	-11.1092
▁immense	-11.1092
▁Boy	-11.1093
level	-11.1096
▁wage	-11.1099
▁banks	-11.1102
▁welcome	-11.1111
rctic	-11.1124
▁routine	-11.1139
▁expedition	-11.1139
▁Nature	-11.1139
▁unbelievabl	-11.1141
dollar	-11.1145
▁Mom	-11.1158
▁trie	-11.1174
▁bug	-11.1184
▁Put	-11.1186
▁guarantee	-11.1186
▁cousin	-11.1186
▁Egyptian	-11.1188
bola	-11.1235
▁regulation	-11.1235
▁alter	-11.1241
▁replicate	-11.1248
▁Ya	-11.1251
▁intend	-11.1252
▁killer	-11.1272
▁ethical	-11.1277
▁priorit	-11.1278
▁Make	-11.1281
▁recipe	-11.1282
▁synthetic	-11.1283
▁doors	-11.1284
▁intuitive	-11.1286
▁utter	-11.1288
▁prepare	-11.1292
que	-11.1297
▁fears	-11.1304
▁refuse	-11.1307
▁reserve	-11.132
▁liver	-11.1325
icity	-11.133
▁Texas	-11.1331
▁prosthetic	-11.1331
▁shelter	-11.1331
▁bathroom	-11.1331
▁leak	-11.1331
▁salt	-11.1331
fare	-11.1333
▁Blue	-11.1335
▁capabilit	-11.1337
▁50,000	-11.1338
hour	-11.1343
▁drawn	-11.1344
▁repeated	-11.1345
▁Time	-11.1353
▁wise	-11.1353
▁southern	-11.1353
▁axis	-11.1355
▁Joe	-11.1363
itude	-11.1366
▁lock	-11.1372
▁twin	-11.1374
▁complain	-11.1379
▁tweet	-11.1379
▁nei	-11.138
▁95	-11.1382
▁sink	-11.1382
▁limitation	-11.1384
▁Atlantic	-11.1385
▁Bob	-11.1409
tor	-11.1409
▁combat	-11.1414
▁mayor	-11.1419
▁naked	-11.1428
▁federal	-11.1428
▁array	-11.1429
▁domain	-11.143
ba	-11.1431
iness	-11.1432
▁pen	-11.1434
▁locked	-11.1434
▁gesture	-11.1438
▁colon	-11.146
▁replac	-11.1465
▁mere	-11.1467
▁32	-11.1471
▁Mother	-11.1472
▁trends	-11.1474
▁Octo	-11.1477
▁humanitarian	-11.1477
▁tragic	-11.1477
▁wheelchair	-11.1477
▁demographic	-11.1478
▁winner	-11.1478
▁Lab	-11.1481
▁dive	-11.1487
children	-11.149
▁diagnosi	-11.1495
being	-11.1502
BI	-11.152
▁flash	-11.1525
▁participant	-11.1526
▁smooth	-11.1526
▁chocolate	-11.1526
▁spell	-11.1527
▁scann	-11.1531
▁marker	-11.1544
▁pulse	-11.1548
▁relations	-11.1559
▁Ka	-11.1569
lf	-11.157
▁Haiti	-11.1575
▁Ghana	-11.1575
▁expansion	-11.1576
▁initiative	-11.1576
▁Microsoft	-11.1576
▁transparent	-11.1578
▁sacred	-11.1582
▁darkness	-11.1591
▁Mark	-11.1594
▁clock	-11.1603
cellular	-11.1604
▁Dad	-11.1611
▁Red	-11.1615
▁Arm	-11.1618
▁Wikipedia	-11.1626
▁calculation	-11.1626
▁fragment	-11.1626
▁reputation	-11.1626
▁shout	-11.1627
id	-11.163
▁isolat	-11.1633
▁Co	-11.1635
house	-11.1635
▁burst	-11.1637
force	-11.1639
▁decrease	-11.167
right	-11.1675
▁garbage	-11.1676
▁convey	-11.1676
▁dancer	-11.1676
▁educat	-11.168
▁artistic	-11.168
un	-11.1681
▁mixed	-11.1683
▁Unti	-11.1683
ong	-11.1696
per	-11.1703
▁happi	-11.1708
▁hanging	-11.1725
▁Through	-11.1726
▁mushroom	-11.1726
▁simultaneous	-11.1726
▁DH	-11.1727
▁ill	-11.1728
▁bat	-11.1728
▁kidney	-11.1729
uthern	-11.1729
▁spoken	-11.1746
▁reduction	-11.176
▁fraction	-11.1776
▁textbook	-11.1777
▁compell	-11.178
▁determined	-11.1781
V	-11.1781
▁tension	-11.1782
▁pace	-11.1783
third	-11.1789
▁boundar	-11.1789
▁agricultural	-11.179
▁Ta	-11.1791
▁attribute	-11.1792
▁uncertaint	-11.1795
do	-11.1796
▁Di	-11.1797
▁failing	-11.1806
▁Spa	-11.1817
▁depress	-11.1826
▁district	-11.1827
▁mask	-11.1827
▁dump	-11.1827
▁copyright	-11.1827
▁signature	-11.1827
▁Rome	-11.1828
▁partnership	-11.1828
▁stole	-11.1828
▁slave	-11.1832
▁fusion	-11.184
▁Israeli	-11.1852
▁helpful	-11.1853
▁preserv	-11.1863
▁confirm	-11.1878
▁inherent	-11.1878
▁primari	-11.1879
fully	-11.1885
▁neuroscien	-11.1888
▁coin	-11.1897
▁navigate	-11.19
▁pause	-11.1902
▁Yorker	-11.1917
▁command	-11.192
▁mode	-11.1921
▁recommend	-11.1928
ex	-11.1929
▁vegetable	-11.1929
▁systematic	-11.1932
▁passive	-11.1935
▁120	-11.1938
▁fastest	-11.1943
▁mail	-11.1946
▁mis	-11.1981
▁Jewish	-11.1981
▁contribution	-11.1984
▁hill	-11.1984
ably	-11.1985
vi	-11.1986
▁Law	-11.1987
▁ski	-11.1987
▁punch	-11.1987
▁mo	-11.1992
▁Up	-11.2
▁wars	-11.2008
▁SS	-11.2011
▁Act	-11.2018
▁Child	-11.2022
▁inject	-11.2025
▁burden	-11.2033
▁civic	-11.2033
▁assignment	-11.2034
▁Back	-11.2034
▁dat	-11.2035
▁extinction	-11.2036
▁argu	-11.2037
▁gradual	-11.2039
▁Rwanda	-11.2056
coming	-11.2069
▁uncle	-11.2069
over	-11.2071
op	-11.2074
▁Island	-11.2077
▁bullet	-11.2085
▁contemporar	-11.2085
▁vacation	-11.2085
▁crush	-11.2085
▁retina	-11.2086
▁Palestinian	-11.2088
ua	-11.2102
▁strip	-11.2107
▁custom	-11.2121
▁Six	-11.2135
▁disabl	-11.2137
▁chief	-11.2137
▁ruin	-11.2137
▁pole	-11.2138
▁tuna	-11.2141
▁i	-11.2147
▁till	-11.2148
tion	-11.2149
po	-11.2162
▁inspiring	-11.2166
Something	-11.2168
class	-11.2169
▁bang	-11.2175
▁identifi	-11.2176
▁opera	-11.2181
▁Uganda	-11.219
▁encrypt	-11.219
▁warning	-11.219
▁comparison	-11.219
▁Italian	-11.219
▁trash	-11.2191
▁viral	-11.2193
▁frustrat	-11.2196
▁genetically	-11.2198
▁sill	-11.2199
▁competitive	-11.22
▁peaceful	-11.2204
▁motivat	-11.2206
▁occasional	-11.2213
den	-11.2225
ether	-11.2231
▁Gates	-11.2237
▁trauma	-11.2239
▁crew	-11.2244
▁Bible	-11.2245
▁Moon	-11.2247
▁shirt	-11.2251
▁journal	-11.2262
▁entit	-11.2264
▁leverage	-11.2266
▁26	-11.2272
▁rape	-11.2276
▁automat	-11.2285
▁proportion	-11.229
▁Should	-11.2296
▁primitive	-11.2296
▁trajector	-11.2296
▁biodivers	-11.2296
▁variable	-11.2298
▁detector	-11.2304
istic	-11.2305
▁sanit	-11.2306
▁anonymous	-11.2308
▁dependent	-11.2309
▁mal	-11.231
▁feminist	-11.2313
▁autonomous	-11.2316
▁package	-11.2317
▁Age	-11.2319
▁investor	-11.232
▁branch	-11.2324
▁shopp	-11.2335
▁endless	-11.2337
stage	-11.2343
ped	-11.2347
▁Jer	-11.2349
▁freak	-11.2349
▁helicopter	-11.2349
▁oxytocin	-11.2349
▁twist	-11.235
▁Islamic	-11.2352
▁Pro	-11.2353
▁pharmaceutical	-11.2355
ible	-11.2356
▁advocate	-11.2357
▁meme	-11.2359
▁lett	-11.2364
▁plain	-11.2367
▁rhythm	-11.2368
▁Eric	-11.2384
▁mold	-11.2385
▁garage	-11.2403
▁east	-11.2403
▁collaborative	-11.2403
▁agreement	-11.2407
▁acknowledge	-11.2415
▁profession	-11.2426
▁contribut	-11.2429
▁constraint	-11.2429
▁corn	-11.2431
▁sacrifice	-11.2437
ile	-11.2439
asically	-11.245
▁beetle	-11.2457
▁microphone	-11.2457
▁native	-11.2458
▁resident	-11.2458
▁Jesu	-11.2458
▁4,000	-11.2459
▁2006	-11.2462
▁projection	-11.2464
ated	-11.2468
▁20,000	-11.2474
▁sel	-11.2477
▁realm	-11.2477
▁hid	-11.2483
▁Scott	-11.2488
▁10-	-11.2506
▁Ed	-11.2507
▁ignoran	-11.251
▁Spanish	-11.2512
▁northern	-11.2512
▁Little	-11.2512
▁mysterious	-11.2512
▁lane	-11.2515
▁athlete	-11.2517
▁reactor	-11.2522
▁fee	-11.2532
▁carrie	-11.2551
car	-11.2559
▁default	-11.2566
▁reinvent	-11.2566
▁slice	-11.2567
▁Technolog	-11.2567
▁terror	-11.2568
12	-11.257
▁General	-11.2573
ied	-11.2587
▁overwhelming	-11.259
▁preserve	-11.2593
▁interpret	-11.2603
▁boom	-11.2603
▁farming	-11.261
state	-11.262
▁clar	-11.2621
▁burie	-11.2622
▁Long	-11.2622
▁slavery	-11.2625
away	-11.2634
▁MRI	-11.2638
▁fifth	-11.2645
▁mentor	-11.2645
▁195	-11.2648
▁anatom	-11.2663
ca	-11.2664
▁via	-11.2664
ap	-11.267
▁neat	-11.2677
▁audio	-11.2677
▁tune	-11.2677
▁van	-11.2681
▁joint	-11.2682
▁pathway	-11.2692
▁insist	-11.2698
▁intersection	-11.2706
▁Cambri	-11.271
▁Ever	-11.2711
ci	-11.2714
▁activate	-11.2717
▁Asian	-11.2718
▁consum	-11.2719
▁industri	-11.2725
▁balls	-11.2728
▁Virgin	-11.2732
▁awkward	-11.2732
▁transaction	-11.2733
▁Vietnam	-11.2733
▁mood	-11.2734
▁resolve	-11.274
ck	-11.2748
▁guns	-11.275
izing	-11.2759
▁homeless	-11.2761
▁2001	-11.2761
all	-11.2769
▁shin	-11.2784
▁December	-11.2788
▁astronomer	-11.2788
▁thrill	-11.2788
▁unclear	-11.2788
▁delivery	-11.279
▁mimic	-11.2791
▁palm	-11.2795
▁astonishing	-11.2819
▁hip	-11.282
der	-11.2833
▁falls	-11.2837
▁distinct	-11.284
▁stake	-11.2846
▁damn	-11.2853
▁reflection	-11.2857
▁6	-11.2859
▁ink	-11.2861
free	-11.2868
▁ratio	-11.2872
▁upset	-11.288
▁craft	-11.2885
▁slides	-11.2887
▁Love	-11.289
▁adjust	-11.2899
▁luxur	-11.29
▁extension	-11.2901
▁diagnostic	-11.2901
▁BF	-11.2902
▁March	-11.2902
▁resilience	-11.2903
▁terrifying	-11.2905
▁capabilities	-11.2915
▁crossing	-11.2924
▁enabl	-11.2925
▁ho	-11.293
▁programmer	-11.2945
▁pose	-11.2948
▁sweat	-11.2951
▁coat	-11.2951
▁geo	-11.2954
ilicon	-11.2954
▁gear	-11.2957
▁baseball	-11.2958
ti	-11.2959
▁translation	-11.2959
▁fed	-11.2965
▁orchestra	-11.2965
▁Sa	-11.2966
▁enterprise	-11.2968
▁scanner	-11.297
▁bold	-11.2981
▁owner	-11.2981
▁None	-11.2982
▁metha	-11.2984
▁integrate	-11.2986
▁creator	-11.2992
fold	-11.2992
▁kiss	-11.3007
▁exhibit	-11.301
▁destin	-11.3013
▁immigrant	-11.3014
▁shrink	-11.3014
▁structural	-11.3014
▁substance	-11.3014
▁snake	-11.3014
▁Saturn	-11.3014
▁port	-11.3017
▁gathering	-11.3017
▁astronaut	-11.3024
▁subway	-11.3025
▁reliabl	-11.3029
▁cosm	-11.3051
▁computation	-11.3054
▁thrive	-11.3061
▁rotate	-11.3065
0	-11.3072
,500	-11.3072
▁Obvious	-11.3072
▁furniture	-11.3072
▁infant	-11.3073
▁annual	-11.3073
▁collaborator	-11.3074
▁experimental	-11.3074
▁register	-11.3076
▁bored	-11.308
▁vi	-11.3084
▁beer	-11.3098
clock	-11.31
▁Sure	-11.3101
▁Research	-11.3106
▁faci	-11.3117
ified	-11.3118
▁logical	-11.3119
▁bow	-11.3122
▁Oxford	-11.313
▁Soviet	-11.313
▁deforest	-11.313
▁unprecedented	-11.313
▁Brown	-11.313
▁galler	-11.313
▁Listen	-11.3131
▁spill	-11.3131
▁representative	-11.3131
▁disconnect	-11.3131
▁installation	-11.3133
▁laughing	-11.3137
ping	-11.3147
ph	-11.3153
▁Syria	-11.3157
ir	-11.3177
▁hackers	-11.3181
▁reconstruct	-11.3185
▁ideolog	-11.3186
drew	-11.3187
▁intimate	-11.3188
▁compress	-11.3188
▁Gulf	-11.3188
▁exhaust	-11.3189
▁keyboard	-11.319
▁concentration	-11.319
▁homework	-11.3192
▁wings	-11.3192
place	-11.3239
ina	-11.3245
▁fool	-11.3246
▁Narrat	-11.3247
▁condom	-11.3247
▁golden	-11.3253
▁exponential	-11.3256
▁wider	-11.3267
▁badly	-11.3281
▁stabilit	-11.3285
ney	-11.3294
▁Jane	-11.3299
▁glad	-11.3305
▁robust	-11.3305
▁Minister	-11.3305
▁aircraft	-11.3306
▁woke	-11.3307
▁Third	-11.3313
▁Eastern	-11.3313
▁bound	-11.3315
▁qualit	-11.332
▁Po	-11.3326
▁sens	-11.3327
▁horizon	-11.334
me	-11.3357
▁fate	-11.3358
▁consist	-11.3362
▁alcohol	-11.3362
▁excuse	-11.3364
▁queen	-11.3364
▁transmission	-11.3364
▁dear	-11.3365
▁Wi	-11.3367
▁impression	-11.3369
▁compassionate	-11.3371
▁pin	-11.3382
▁pant	-11.341
▁format	-11.3415
▁Department	-11.3424
▁collision	-11.3424
▁generous	-11.3425
▁manner	-11.3428
▁attractive	-11.3429
▁upload	-11.3429
▁thumb	-11.3441
▁urge	-11.3447
▁alarm	-11.3447
▁reporter	-11.345
▁producer	-11.3452
▁Ethiopia	-11.3455
stone	-11.3472
▁paradox	-11.3475
▁precious	-11.3484
▁entrop	-11.3484
▁primate	-11.3484
▁award	-11.3486
▁magnificent	-11.3487
▁fragile	-11.3487
▁graphic	-11.3488
▁Ital	-11.3495
ite	-11.3496
▁sport	-11.352
▁wedding	-11.3529
▁Se	-11.3542
▁automobile	-11.3544
▁retirement	-11.3545
▁barrel	-11.3545
▁grasp	-11.3546
▁weekend	-11.3546
▁Bo	-11.3551
▁injustice	-11.3552
light	-11.3565
▁pipe	-11.3567
▁Sorry	-11.3572
▁captur	-11.3596
▁Ba	-11.3602
▁delight	-11.3602
▁supermarket	-11.3605
▁Academ	-11.3605
▁Wal	-11.3606
▁closing	-11.3606
▁transmit	-11.3609
▁grandparent	-11.3612
vill	-11.3618
▁rivers	-11.3619
▁1,	-11.3622
▁ambitio	-11.3637
made	-11.3651
▁storytell	-11.3652
▁disagree	-11.3653
▁tricks	-11.3657
▁jumped	-11.3659
▁Council	-11.3666
▁bulb	-11.3666
▁tattoo	-11.3666
▁origami	-11.3666
▁neck	-11.3666
▁Northern	-11.3666
▁uniform	-11.3666
tial	-11.367
▁Tony	-11.3672
▁friendship	-11.3672
▁descend	-11.3674
▁romantic	-11.3679
▁strand	-11.3682
box	-11.3685
▁aesthetic	-11.3687
▁Design	-11.3701
▁Tes	-11.3707
table	-11.3709
▁previously	-11.3724
▁dominant	-11.3727
▁paralyz	-11.3729
▁portion	-11.373
▁hitting	-11.3731
▁expectanc	-11.3746
▁guid	-11.375
▁Con	-11.3753
▁float	-11.3759
▁comet	-11.3761
▁coordinat	-11.3769
▁enhance	-11.378
ko	-11.3788
▁pigeon	-11.3789
▁cruel	-11.3789
▁August	-11.3791
▁arrow	-11.3799
▁analyz	-11.3802
li	-11.3803
▁upside	-11.3804
ches	-11.3814
Sahara	-11.3823
▁nuts	-11.3824
▁brutal	-11.3828
ut	-11.3833
▁manipulate	-11.3835
▁plug	-11.3838
related	-11.3848
▁quest	-11.3848
▁Titan	-11.385
▁bats	-11.385
▁dilemma	-11.3851
▁harness	-11.3851
▁jelly	-11.3851
▁electrode	-11.3851
▁civilian	-11.3853
▁MS	-11.3855
▁Grand	-11.3855
▁ego	-11.3862
▁shit	-11.3863
▁graduat	-11.3886
▁diagnose	-11.3886
▁Bay	-11.389
▁pet	-11.3897
▁optimis	-11.3898
▁sensory	-11.3902
ig	-11.3903
▁fanc	-11.391
▁Febr	-11.3913
▁dumb	-11.3913
▁Bush	-11.3914
da	-11.3915
▁sharp	-11.392
▁bedroom	-11.3921
laughter	-11.3927
▁cheese	-11.3927
▁glow	-11.3929
▁grave	-11.3949
▁Sara	-11.395
▁gods	-11.3954
ge	-11.3961
▁trans	-11.3973
▁leather	-11.3976
▁Square	-11.3976
▁aggressive	-11.3976
▁curriculum	-11.3976
▁receptor	-11.3976
▁veteran	-11.3976
▁venture	-11.3976
RB	-11.3976
▁Nick	-11.3977
▁celebrat	-11.398
▁valley	-11.398
▁restore	-11.3984
▁stands	-11.3989
▁pointed	-11.3992
▁serving	-11.4007
▁Afghan	-11.4008
▁boil	-11.4011
▁broadcast	-11.4016
▁wing	-11.4018
▁teenage	-11.402
▁Islands	-11.402
▁virtue	-11.4029
▁personaliz	-11.403
▁Church	-11.4039
▁division	-11.4039
▁drought	-11.4042
▁documentar	-11.4042
▁shine	-11.4048
▁lit	-11.4049
▁detection	-11.405
▁div	-11.4057
▁winning	-11.4061
é	-11.4063
▁burned	-11.4067
▁CD	-11.4068
▁occasion	-11.4075
▁Tim	-11.4078
▁healthie	-11.4078
known	-11.408
▁mobil	-11.4091
▁swing	-11.4098
▁Bell	-11.41
nforcement	-11.4102
▁relax	-11.4103
▁theoretical	-11.4103
▁Parkinson	-11.4103
▁Lord	-11.4103
▁unconscious	-11.4104
▁br	-11.4104
▁interpretation	-11.4105
aday	-11.4107
ki	-11.4109
▁accelerat	-11.411
▁Sir	-11.4111
▁outer	-11.4111
▁33	-11.4119
▁ethic	-11.4127
▁pot	-11.4128
▁gate	-11.4135
lo	-11.4136
▁purchase	-11.4146
▁glue	-11.4164
▁coach	-11.4165
▁bizarre	-11.4167
▁drown	-11.4167
▁striking	-11.4167
▁stunt	-11.4167
▁silver	-11.4167
ese	-11.4169
▁marketplace	-11.4169
▁Mike	-11.4173
makers	-11.4176
▁min	-11.4176
▁continuous	-11.4181
▁Har	-11.4186
▁comic	-11.419
▁precis	-11.4195
▁interior	-11.4205
▁assum	-11.4217
▁statistical	-11.4228
▁ceremon	-11.4231
▁territor	-11.4231
▁defeat	-11.4232
▁prescription	-11.4232
▁Florid	-11.4232
▁architectural	-11.4232
▁ubiquitous	-11.4232
▁calm	-11.4232
▁sensation	-11.4234
▁manual	-11.4234
▁rope	-11.4234
▁appearance	-11.4236
▁fence	-11.4236
▁specialist	-11.4236
▁sheep	-11.4236
▁selfish	-11.4238
▁blank	-11.4239
▁Tu	-11.4248
▁cooperate	-11.425
▁suggestion	-11.4252
▁dose	-11.4269
▁linear	-11.4272
▁Count	-11.4273
▁EM	-11.4278
▁export	-11.4282
▁washing	-11.4283
▁28	-11.429
▁Has	-11.4296
▁deaf	-11.4297
▁Out	-11.4297
▁Chile	-11.4297
▁outbreak	-11.4299
▁intrigu	-11.4299
▁Mandel	-11.43
▁dial	-11.4301
▁campus	-11.4302
▁Gore	-11.4309
lin	-11.4317
back	-11.4327
point	-11.4337
▁Ro	-11.4342
▁Brun	-11.4346
▁poll	-11.4352
▁ha	-11.4356
▁exam	-11.4358
▁Smith	-11.4362
▁quantit	-11.4362
▁genuine	-11.4362
▁flaw	-11.4362
▁crap	-11.4362
▁hypothesis	-11.4362
▁Lego	-11.4364
▁ironic	-11.4366
▁formula	-11.4367
▁William	-11.4368
▁bucks	-11.437
▁bite	-11.4374
▁innocent	-11.4376
▁Hill	-11.4377
▁trap	-11.4386
ja	-11.439
▁walks	-11.4399
▁ignor	-11.4423
▁CRISPR	-11.4428
▁vacuum	-11.4428
▁gravitational	-11.4428
▁offering	-11.444
▁chas	-11.4452
▁vary	-11.4456
end	-11.4465
▁85	-11.4469
▁soup	-11.4471
▁Lad	-11.4472
▁Lo	-11.4485
▁indigen	-11.4494
▁pixel	-11.4494
▁principal	-11.4494
▁dawn	-11.4494
▁thread	-11.4494
▁episode	-11.4494
▁Josh	-11.4494
▁duck	-11.4495
▁mutual	-11.4496
▁assign	-11.4497
▁metric	-11.4503
▁fulfill	-11.4506
▁parasite	-11.4515
▁dressed	-11.4528
▁29	-11.4535
▁Ha	-11.4538
▁hardest	-11.4547
▁terrified	-11.4557
▁Taliban	-11.4561
▁align	-11.4561
▁stomach	-11.4561
▁hub	-11.4561
▁Stop	-11.4562
▁requir	-11.4562
▁inclusive	-11.4567
▁workplace	-11.4572
▁mapping	-11.4575
▁loving	-11.4589
▁bin	-11.4591
olds	-11.4591
▁overwhelm	-11.4599
▁Carolin	-11.4602
▁Home	-11.4608
▁wrap	-11.4615
▁accelerate	-11.4622
▁tribes	-11.4624
▁beating	-11.4626
▁guest	-11.4628
▁inherit	-11.4628
▁fraud	-11.4628
▁drift	-11.4628
▁calorie	-11.463
▁Kid	-11.4631
▁propos	-11.4632
▁flavor	-11.4632
▁tribe	-11.4634
▁probe	-11.4635
▁incident	-11.4638
led	-11.4639
▁blindness	-11.464
▁ecological	-11.4642
▁MR	-11.4642
▁voter	-11.4643
look	-11.4651
▁deepest	-11.4652
▁eliminate	-11.4657
inary	-11.4657
▁motivate	-11.4665
▁reasonable	-11.4673
ternet	-11.4684
▁Neanderthal	-11.4695
▁Saudi	-11.4695
▁crawl	-11.4696
▁Leonard	-11.4696
▁hallucination	-11.4696
▁Jack	-11.4696
▁microbial	-11.4699
▁fortune	-11.4711
▁soap	-11.4725
▁views	-11.4728
▁pursue	-11.4743
some	-11.4748
space	-11.475
▁Fortun	-11.4759
▁nano	-11.4761
▁crystal	-11.4763
▁Mountain	-11.4763
▁Sudden	-11.4763
▁threshold	-11.4763
▁tsunami	-11.4763
▁Court	-11.4763
▁spontaneous	-11.4763
▁Wait	-11.4764
▁devil	-11.4764
▁Brian	-11.4764
▁illustration	-11.4764
▁spacecraft	-11.4764
▁unfold	-11.4766
▁composition	-11.4771
▁explode	-11.4777
▁gase	-11.4777
▁ending	-11.4779
▁makers	-11.478
▁Ra	-11.4792
▁payment	-11.4792
▁cooperati	-11.48
▁correspond	-11.4804
▁lean	-11.4804
zero	-11.4812
▁barel	-11.4813
▁sexy	-11.4815
▁communicat	-11.4816
▁Jul	-11.4817
▁hir	-11.4823
▁collaborate	-11.4824
▁tongue	-11.4827
▁Profess	-11.4832
▁nonprofit	-11.4833
▁Media	-11.4834
▁requirement	-11.4841
▁cake	-11.4848
▁dominat	-11.485
▁corrupt	-11.485
▁Newton	-11.4852
▁Sunday	-11.4853
▁staring	-11.4856
▁beam	-11.4857
▁compromise	-11.4863
▁branche	-11.4865
▁demo	-11.4873
▁Medica	-11.4876
▁jar	-11.4879
▁supplie	-11.4881
rapped	-11.4884
▁embrac	-11.4888
▁Ki	-11.4888
▁monitoring	-11.4895
▁arise	-11.4896
▁Jeff	-11.4901
▁Accord	-11.4901
▁Gandhi	-11.4901
▁Compan	-11.4901
▁artwork	-11.4904
▁par	-11.4904
▁Rather	-11.4904
▁log	-11.4906
tually	-11.4909
▁Hall	-11.4919
▁commit	-11.492
▁pie	-11.4921
▁server	-11.4922
▁genocide	-11.4931
▁evolv	-11.4948
▁36	-11.4961
▁historic	-11.4967
▁punish	-11.4969
▁commission	-11.497
▁Snow	-11.497
▁deliberate	-11.497
▁breakfast	-11.4971
▁altitude	-11.4971
▁mainstream	-11.4971
▁blink	-11.4971
▁ongoing	-11.4972
▁unlock	-11.4972
▁lifespan	-11.4973
▁wrapp	-11.4973
▁batter	-11.4973
▁lamp	-11.4975
▁tale	-11.498
▁tendency	-11.4983
▁hearts	-11.4988
▁happie	-11.4992
▁2.	-11.4996
▁strategic	-11.5004
▁entry	-11.5008
ology	-11.5019
▁drag	-11.502
book	-11.5023
▁chronic	-11.5026
org	-11.5027
▁pr	-11.5029
▁assistan	-11.5031
▁institutional	-11.5037
▁perceiv	-11.5038
▁instinct	-11.504
▁Dutch	-11.504
▁frog	-11.504
▁assault	-11.504
▁ecolog	-11.5043
▁approve	-11.5048
▁k	-11.5048
▁determin	-11.5064
▁static	-11.5067
▁horizontal	-11.507
▁hunter	-11.5072
ola	-11.5072
no	-11.5073
▁jam	-11.5083
▁proven	-11.5083
▁equit	-11.5084
▁Ala	-11.5092
▁Miss	-11.5095
▁distribute	-11.5098
ana	-11.5109
ak	-11.5109
▁NSA	-11.5111
▁manuscript	-11.5111
▁clay	-11.5111
▁sidewalk	-11.5111
atrix	-11.5113
▁mineral	-11.5118
▁relation	-11.5123
▁lowest	-11.5134
quality	-11.5138
let	-11.5152
▁poison	-11.5157
drive	-11.5175
▁Indonesia	-11.5182
▁Zealand	-11.5182
▁whisper	-11.5182
▁fault	-11.5182
▁foster	-11.5182
▁Still	-11.5182
▁contradiction	-11.5183
▁Iranian	-11.5184
▁rethink	-11.5184
▁investigation	-11.5186
▁Ken	-11.5188
▁shower	-11.5188
▁leaf	-11.5189
▁contrar	-11.5191
▁downtown	-11.5192
▁vibration	-11.5193
col	-11.5198
gentleman	-11.5206
ating	-11.5207
F	-11.5207
▁egg	-11.5211
▁Alexand	-11.5227
▁rose	-11.523
stock	-11.5235
▁Pan	-11.5235
▁divid	-11.5235
▁worrying	-11.5237
spring	-11.5238
▁distinguish	-11.524
▁cod	-11.5241
▁approache	-11.5241
▁Bot	-11.5242
▁bribe	-11.5243
▁800	-11.5248
▁shrimp	-11.5253
▁wrist	-11.5253
▁Disney	-11.5253
▁syndrome	-11.5253
▁prostate	-11.5253
▁wheat	-11.5258
▁fertilizer	-11.5263
ide	-11.5263
▁elegant	-11.5267
tra	-11.5268
▁reproduce	-11.5269
▁dragg	-11.527
▁import	-11.5278
▁Alex	-11.5279
▁dish	-11.5281
▁west	-11.5285
▁Kev	-11.5289
▁referr	-11.5291
ler	-11.5295
▁Li	-11.5296
▁transmitt	-11.5305
world	-11.5308
▁visualize	-11.5319
▁Year	-11.532
▁Henr	-11.5321
▁Ford	-11.5323
▁aspiration	-11.5324
▁Absolute	-11.5325
▁cliff	-11.5325
▁minimum	-11.5325
▁pandemic	-11.5325
▁suppress	-11.5325
▁delay	-11.5325
▁banana	-11.5325
▁enzyme	-11.5325
▁impressive	-11.5325
▁Republican	-11.5326
▁workshop	-11.5326
▁Jew	-11.5326
▁knife	-11.5329
rry	-11.5337
▁useless	-11.5337
▁30,000	-11.5339
▁goat	-11.534
▁Na	-11.5353
▁realistic	-11.5359
▁addict	-11.5368
▁700	-11.5376
aging	-11.5381
▁upward	-11.5388
▁phenomena	-11.539
▁Th	-11.5395
▁Singapore	-11.5397
▁System	-11.5397
▁insulin	-11.5397
▁unhapp	-11.5397
▁pride	-11.5398
▁antenna	-11.5398
▁landing	-11.54
▁singer	-11.5404
▁sufficient	-11.5408
▁verb	-11.541
▁connectiv	-11.5411
ogether	-11.5416
▁200,000	-11.5417
▁separat	-11.542
▁independen	-11.543
LT	-11.5438
▁socially	-11.5439
▁formation	-11.545
born	-11.5451
▁compet	-11.5466
▁augment	-11.5469
▁Jupiter	-11.547
▁encouraging	-11.547
▁swallow	-11.547
▁exclusive	-11.547
▁monster	-11.547
▁cotton	-11.547
▁Twenty	-11.5471
▁executive	-11.5476
▁belt	-11.5478
grade	-11.5483
▁ma	-11.5488
ollege	-11.5507
▁anticipate	-11.5514
▁ape	-11.5521
▁devastating	-11.5523
au	-11.5535
ga	-11.5537
▁disabilit	-11.5537
▁confine	-11.5543
▁membrane	-11.5544
▁occupy	-11.5544
▁sibling	-11.5544
▁Homo	-11.5544
▁introduction	-11.5544
▁geek	-11.5544
▁ooh	-11.5545
▁Open	-11.5546
▁rubber	-11.5548
▁sequenc	-11.5549
▁Social	-11.5554
▁Canadian	-11.5554
▁grabb	-11.5557
▁neutral	-11.5561
ndustrial	-11.5567
▁jihad	-11.5568
▁momentum	-11.5569
ip	-11.5572
▁pound	-11.5576
▁harmon	-11.5587
▁integr	-11.5592
cost	-11.5595
▁prior	-11.5596
▁Roy	-11.5596
▁playful	-11.5597
aa	-11.5607
fall	-11.561
▁geometr	-11.5613
▁15-	-11.5618
▁Stephen	-11.5618
▁exposure	-11.5618
▁redesign	-11.5618
▁Du	-11.5619
▁pregnanc	-11.562
▁Nel	-11.562
▁frustration	-11.5622
▁span	-11.5626
▁Moor	-11.5627
▁cube	-11.5629
▁accountability	-11.5631
▁Super	-11.5637
nia	-11.5645
xcept	-11.5648
▁fatal	-11.5651
▁Ray	-11.5652
▁shore	-11.5655
▁vulnerabilit	-11.5661
▁191	-11.5665
▁graphics	-11.5669
▁hyper	-11.5679
▁Prince	-11.568
▁Dere	-11.5687
▁forc	-11.5689
▁accura	-11.5692
▁germ	-11.5692
▁despair	-11.5693
▁glimpse	-11.5693
▁diamond	-11.5693
▁LED	-11.5693
▁canopy	-11.5693
▁Sound	-11.5694
▁recall	-11.5695
▁seeming	-11.5695
▁separation	-11.5696
▁visualization	-11.5696
▁heel	-11.5696
▁sponsor	-11.5697
▁chunk	-11.5699
▁Berli	-11.5706
ger	-11.5713
▁traffick	-11.5715
▁indoor	-11.5716
▁retire	-11.5734
▁Car	-11.5739
▁Gree	-11.5739
▁cop	-11.5739
worth	-11.5753
▁Nigerian	-11.5765
▁geograph	-11.5766
▁criteri	-11.5768
▁Beij	-11.5768
▁nerd	-11.5769
▁2020	-11.577
▁developer	-11.5774
▁bombs	-11.5775
ul	-11.5776
▁Che	-11.5778
▁centimeter	-11.5779
▁millimeter	-11.5781
lmost	-11.5787
▁pan	-11.5797
▁starv	-11.5798
▁Vi	-11.5798
▁arter	-11.5798
▁wir	-11.581
▁democrac	-11.5816
verse	-11.5829
▁Young	-11.5839
▁cue	-11.5843
▁scheme	-11.5844
▁steer	-11.5844
▁Brooklyn	-11.5844
▁straightforward	-11.5844
▁strict	-11.5844
▁pursuit	-11.5844
▁insert	-11.5846
▁loose	-11.5846
▁Laugh	-11.5862
▁filmmaker	-11.5863
lock	-11.5865
j	-11.5868
▁computational	-11.5871
vity	-11.5875
arrow	-11.5878
▁Jo	-11.5891
▁blend	-11.5894
▁container	-11.5904
▁42	-11.5911
▁archive	-11.5911
▁yoursel	-11.5913
▁prov	-11.5914
▁absence	-11.592
▁chamber	-11.592
▁glucose	-11.592
▁Sierra	-11.592
▁diameter	-11.592
▁libert	-11.592
▁infectious	-11.592
▁kingdom	-11.5921
▁endanger	-11.5921
▁manufacturer	-11.5923
▁miserable	-11.5925
▁armor	-11.5926
tz	-11.5931
▁blast	-11.5933
▁Seattl	-11.594
▁shak	-11.5942
▁approximate	-11.5942
tasi	-11.5947
▁tone	-11.595
▁nonviolen	-11.5954
Y	-11.5956
▁locat	-11.5958
▁acquire	-11.5959
▁Bee	-11.5965
minute	-11.5985
▁excellen	-11.5993
▁Mc	-11.5996
▁Koran	-11.5997
▁Tanzania	-11.5997
▁suspend	-11.5997
▁insane	-11.5997
▁flourish	-11.5997
▁November	-11.5997
▁Spring	-11.5997
▁Half	-11.5997
▁canvas	-11.5998
pox	-11.5999
▁proposal	-11.6001
▁Cal	-11.6003
▁intensit	-11.6005
▁phenomenal	-11.6005
▁Rose	-11.6006
blew	-11.6011
▁Eve	-11.6014
▁association	-11.6016
▁Play	-11.6017
▁shocking	-11.6022
▁Men	-11.6033
▁cosmo	-11.6043
▁camps	-11.6046
▁screening	-11.6046
▁Korean	-11.6048
▁screw	-11.6048
▁identit	-11.6049
shirt	-11.6063
▁190	-11.607
▁journalis	-11.607
▁smil	-11.6071
▁forgive	-11.6072
▁stamp	-11.6074
▁Swiss	-11.6074
▁amateur	-11.6074
▁tribal	-11.6074
▁warrior	-11.6074
▁Aristot	-11.6074
▁cigarette	-11.6074
▁1900	-11.6075
▁6,000	-11.6075
▁Phila	-11.6076
▁backyard	-11.6077
▁frontier	-11.6078
▁40,000	-11.6084
▁beaten	-11.6086
▁cap	-11.6089
▁intensive	-11.609
▁interconnected	-11.6091
ud	-11.6094
▁Pa	-11.6097
▁Hav	-11.6097
▁aggregate	-11.6106
▁planetary	-11.6108
rich	-11.6124
▁Ge	-11.6126
▁administration	-11.6131
▁Ga	-11.6131
▁deposit	-11.6136
▁mall	-11.6144
▁Edi	-11.6145
▁innovate	-11.6147
▁Detroit	-11.6153
▁Geographic	-11.6153
▁blockchain	-11.6153
▁chef	-11.6153
▁drain	-11.6153
▁peculiar	-11.6153
▁triangle	-11.6153
▁troop	-11.6153
▁flesh	-11.6153
▁Apri	-11.6153
▁texture	-11.6154
▁destination	-11.6155
▁sale	-11.6165
▁broader	-11.6168
▁translat	-11.6175
▁Far	-11.6178
ham	-11.618
▁injured	-11.6181
▁remembering	-11.6182
▁whistle	-11.6193
together	-11.6195
▁minority	-11.6195
▁bush	-11.6197
▁disrupt	-11.6212
▁spray	-11.6213
▁jewel	-11.6221
▁mat	-11.6229
▁penis	-11.623
▁panic	-11.623
▁Telescope	-11.6231
▁accent	-11.6231
▁Organization	-11.6231
▁segment	-11.6232
▁unemploy	-11.6232
elphi	-11.6233
▁punishment	-11.6233
▁minus	-11.6234
▁distinction	-11.6236
▁logg	-11.6237
kin	-11.6241
▁Bali	-11.625
ela	-11.6251
▁Try	-11.6252
▁mud	-11.6255
▁decid	-11.6259
▁taxe	-11.6262
TI	-11.6266
▁gra	-11.627
gie	-11.6287
om	-11.6288
▁chemist	-11.629
▁scream	-11.6294
▁shoe	-11.6294
▁atomic	-11.6294
▁pad	-11.6307
▁TEDTalk	-11.6311
▁jealous	-11.6311
▁multiply	-11.6311
▁harbor	-11.6311
▁retreat	-11.6311
▁preference	-11.6311
▁Nike	-11.6311
▁Coke	-11.6311
▁harmful	-11.6312
▁nam	-11.6313
▁isolation	-11.6315
▁trustworth	-11.6316
▁bath	-11.632
▁deck	-11.6322
▁modest	-11.6326
▁nutrition	-11.6334
▁convenient	-11.6335
▁prayer	-11.6336
▁Hans	-11.6337
▁Cha	-11.6345
SD	-11.6346
▁optical	-11.6352
▁Penn	-11.6368
▁rank	-11.6368
▁mapp	-11.6372
▁frightening	-11.6375
▁transit	-11.6383
liv	-11.6385
#	-11.6391
▁calculus	-11.6391
▁scaffold	-11.6391
▁temple	-11.6391
▁proposition	-11.6391
▁horror	-11.6391
▁Late	-11.6391
▁salar	-11.6391
▁1.5	-11.6392
▁incentive	-11.6392
ari	-11.6394
▁titan	-11.6394
▁Mexican	-11.6395
▁passage	-11.6398
▁Mac	-11.6399
▁shy	-11.64
ris	-11.6408
round	-11.642
pe	-11.6426
well	-11.6429
▁Pr	-11.6439
than	-11.644
wide	-11.6455
▁hydro	-11.6461
▁sp	-11.6464
▁ray	-11.6464
▁impress	-11.6468
▁explorer	-11.6468
▁creep	-11.6471
▁cylinder	-11.6471
▁pedestrian	-11.6471
▁obtain	-11.6471
▁Catholic	-11.6471
▁protocol	-11.6471
▁immigration	-11.6471
▁Water	-11.6472
▁Johnson	-11.6473
▁dopamine	-11.6474
▁logo	-11.6475
▁bleed	-11.6475
fin	-11.6483
▁philanthrop	-11.6486
▁scare	-11.649
▁glasse	-11.6492
▁parachute	-11.6498
▁jet	-11.6509
▁SE	-11.651
▁Syrian	-11.6514
▁transferr	-11.6532
ically	-11.654
Qaeda	-11.6553
▁2030	-11.6553
▁Securit	-11.6553
▁abundance	-11.6553
▁council	-11.6553
▁iPod	-11.6553
▁Peace	-11.6553
▁sperm	-11.6553
▁correlation	-11.6553
▁refrigerator	-11.6554
▁migration	-11.6554
▁incarcerat	-11.6554
▁wi	-11.6556
▁operator	-11.6561
▁RNA	-11.6571
▁emotionally	-11.6572
▁72	-11.6576
▁cart	-11.658
▁Yo	-11.6584
▁hybrid	-11.6591
▁Monte	-11.6602
▁practic	-11.6602
sha	-11.6603
▁tri	-11.6607
▁founder	-11.6614
▁Su	-11.662
four	-11.6626
band	-11.6632
▁Atlant	-11.6633
▁Clinton	-11.6635
▁Jordan	-11.6635
▁diarrhea	-11.6635
▁pizza	-11.6635
▁protocell	-11.6635
▁potato	-11.6635
▁Tur	-11.6635
▁selective	-11.6636
▁Stage	-11.6636
▁delicio	-11.6638
▁heritage	-11.6638
▁Matt	-11.664
estate	-11.6641
▁60,000	-11.6642
▁diploma	-11.6652
mer	-11.6655
lly	-11.6657
▁glamor	-11.6659
▁realization	-11.6661
Q	-11.6663
▁formal	-11.6663
ff	-11.6673
▁emphasize	-11.6673
for	-11.6691
HC	-11.6693
zi	-11.6694
▁bi	-11.6703
▁tick	-11.671
▁naive	-11.6717
▁contest	-11.6717
▁jaw	-11.6717
▁proceed	-11.6717
two	-11.6721
▁gallon	-11.6724
▁algae	-11.6727
▁yell	-11.673
▁eradicat	-11.6741
▁lo	-11.6742
if	-11.6745
v	-11.6753
amma	-11.6757
ius	-11.6764
form	-11.6771
▁patch	-11.6774
▁Seven	-11.6776
use	-11.6778
air	-11.6779
▁im	-11.6786
bo	-11.6788
profit	-11.6793
▁Bangladesh	-11.6798
ab	-11.6798
▁Shanghai	-11.6801
▁substantial	-11.6801
▁Coast	-11.6801
▁harsh	-11.6801
▁funeral	-11.6801
▁reclaim	-11.6801
▁connectome	-11.6801
▁costume	-11.6801
▁iceberg	-11.6801
▁index	-11.6801
▁Grow	-11.6801
▁Computer	-11.6802
▁therapist	-11.6803
▁strain	-11.6803
▁pencil	-11.6803
▁denial	-11.6803
▁adaptation	-11.6808
▁trailer	-11.6808
▁Roo	-11.681
▁fever	-11.681
▁overlook	-11.6811
chi	-11.6849
▁informal	-11.685
▁Da	-11.6865
▁helpless	-11.6866
▁Ho	-11.687
▁sew	-11.6871
▁embarrassing	-11.6873
▁readers	-11.6879
witzer	-11.6879
▁bust	-11.688
▁convict	-11.6881
▁drunk	-11.6882
▁Apollo	-11.6885
▁configuration	-11.6885
▁remix	-11.6885
▁nightmare	-11.6885
▁kilogram	-11.6885
▁Hope	-11.6885
▁steam	-11.6885
▁mild	-11.6885
▁JF	-11.6885
▁Education	-11.6885
▁hint	-11.6886
▁dung	-11.6887
▁farms	-11.6887
▁cage	-11.6891
▁belly	-11.6893
▁debri	-11.6895
U	-11.6898
▁Show	-11.6898
wi	-11.6902
▁chains	-11.6907
▁frequently	-11.6917
▁guard	-11.6925
▁ethnic	-11.6928
▁auto	-11.6928
▁update	-11.6938
▁Steven	-11.694
J	-11.6952
15	-11.6957
▁render	-11.6958
du	-11.6963
con	-11.6965
income	-11.6966
▁distort	-11.6966
▁kilo	-11.6969
▁chimp	-11.6969
▁chew	-11.6969
▁Emma	-11.6969
▁basketball	-11.6969
▁forecast	-11.6969
▁volcano	-11.6971
▁translator	-11.6971
▁couch	-11.6972
ster	-11.6973
▁Mean	-11.6974
▁introvert	-11.6975
▁girlfriend	-11.6977
▁Argentin	-11.698
▁Queen	-11.6983
▁Gene	-11.6994
▁popp	-11.7017
▁l	-11.7019
loved	-11.7022
▁copie	-11.7038
▁Jona	-11.7038
▁wipe	-11.704
av	-11.7048
▁hoped	-11.7049
we	-11.7049
▁listener	-11.705
ai	-11.7051
▁Bitcoin	-11.7055
▁Saturday	-11.7055
▁Watson	-11.7055
▁impulse	-11.7055
▁Bronx	-11.7055
▁Government	-11.7055
▁Edward	-11.7055
▁350	-11.7056
▁synapse	-11.7056
▁ventilat	-11.7061
▁storyteller	-11.7075
▁earning	-11.7075
war	-11.7078
▁divorce	-11.7079
▁performer	-11.7087
▁stare	-11.7087
▁simulate	-11.709
▁assemble	-11.7092
hu	-11.7093
▁ambition	-11.7095
▁regenerate	-11.71
▁55	-11.7115
▁concentrate	-11.7116
care	-11.7117
▁Andrew	-11.7117
▁continuously	-11.7126
▁disgust	-11.7131
▁skelet	-11.7137
X	-11.7138
▁Sh	-11.7139
▁schizophreni	-11.714
▁Civil	-11.7141
▁satisfy	-11.7141
▁spiral	-11.7141
▁neuroscientist	-11.7141
▁carpet	-11.7141
▁modifi	-11.7141
▁donation	-11.7142
▁Kong	-11.7142
han	-11.7143
▁negotiation	-11.7143
▁Greenland	-11.7143
▁psychiatr	-11.7147
▁tiger	-11.7148
▁wow	-11.7148
▁integration	-11.715
▁dropping	-11.7151
▁controversial	-11.7152
▁browser	-11.7153
▁humble	-11.7154
▁spare	-11.7155
▁sandwich	-11.7156
▁Ab	-11.7163
▁drama	-11.7164
▁Scot	-11.7179
▁shap	-11.718
sky	-11.7185
▁persuade	-11.7186
▁amaz	-11.7189
gram	-11.7191
▁AK	-11.7192
▁envelope	-11.7213
▁Way	-11.7221
▁admire	-11.7221
▁negotiate	-11.7224
▁hierarch	-11.7226
▁bamboo	-11.7228
▁consensus	-11.7228
▁endeavor	-11.7228
▁vivid	-11.7228
▁explicit	-11.7228
▁mosque	-11.7228
▁warehouse	-11.7228
▁Keep	-11.7228
▁Charli	-11.7231
▁subjective	-11.7232
▁fluorescent	-11.7239
▁grocery	-11.7243
▁UK	-11.7244
▁RS	-11.7253
▁concentrat	-11.7254
five	-11.7262
▁grad	-11.7268
DI	-11.7271
ft	-11.7278
law	-11.7278
▁Albert	-11.7279
uke	-11.728
▁regulate	-11.7282
▁bacteri	-11.7285
obi	-11.7305
▁Pretty	-11.7316
▁riot	-11.7316
▁consent	-11.7316
▁Brazilian	-11.7318
▁banker	-11.732
▁settlement	-11.7322
▁Par	-11.7357
▁revolutionar	-11.7357
▁tagg	-11.7357
▁44	-11.7357
▁tent	-11.7361
▁vocal	-11.7364
▁spinn	-11.738
▁prospect	-11.7386
ure	-11.739
▁chase	-11.7391
▁semi	-11.7391
▁sketch	-11.7397
▁vent	-11.7401
▁Hawaii	-11.7403
spread	-11.7404
▁Business	-11.7404
▁Hospital	-11.7404
▁empire	-11.7404
▁gorgeous	-11.7404
▁Machine	-11.7404
▁priest	-11.7404
▁summit	-11.7404
▁Iceland	-11.7405
▁addiction	-11.7409
▁inch	-11.7411
▁Brother	-11.7414
▁stimulation	-11.7416
▁investigate	-11.742
hur	-11.7421
▁hopeless	-11.7435
▁pathogen	-11.7446
▁donat	-11.7458
▁acre	-11.7464
▁masse	-11.7465
▁Uni	-11.7465
za	-11.7469
▁specializ	-11.7471
▁Pat	-11.7471
▁emergence	-11.7472
▁shorter	-11.7477
engineer	-11.7493
▁obsole	-11.7493
▁helmet	-11.7493
▁intact	-11.7493
▁victor	-11.7494
▁festival	-11.7494
▁Thai	-11.7494
▁sake	-11.7496
▁progressive	-11.7497
▁abundant	-11.7498
▁boundary	-11.7498
oline	-11.7498
▁polariz	-11.7498
▁replacement	-11.7498
▁airline	-11.75
▁decent	-11.7501
▁classical	-11.7504
▁screaming	-11.7512
▁Too	-11.7513
▁trivial	-11.7516
▁Bat	-11.7522
▁37	-11.7523
ke	-11.7524
▁Te	-11.7537
▁Ask	-11.7537
▁Lake	-11.7542
▁typ	-11.7551
▁31	-11.7562
eaten	-11.7568
▁Carl	-11.7573
interest	-11.7583
▁Bhutan	-11.7584
▁anniversar	-11.7584
▁purple	-11.7584
▁terrain	-11.7584
▁deficit	-11.7584
▁angel	-11.7584
▁1.2	-11.7584
▁admitted	-11.7585
sense	-11.7586
speed	-11.759
▁degrad	-11.7595
▁spatial	-11.7599
▁temporar	-11.7602
▁honey	-11.7608
ami	-11.7609
▁critic	-11.7609
▁torture	-11.7612
▁Ven	-11.763
▁eliminat	-11.7635
▁ca	-11.7641
▁biase	-11.7647
▁Roman	-11.7653
▁expose	-11.7656
▁owners	-11.7657
▁idiot	-11.7658
▁psycho	-11.7662
▁Under	-11.7674
▁Watch	-11.7674
▁nitrogen	-11.7674
▁petition	-11.7674
▁vagina	-11.7674
▁provider	-11.7675
▁legitimate	-11.7675
lvani	-11.7675
▁Development	-11.7675
▁stadium	-11.7675
▁arrangement	-11.7675
▁Santa	-11.7677
▁Audi	-11.7677
▁plac	-11.7677
▁flute	-11.7679
▁empowerment	-11.768
BM	-11.7688
wa	-11.7688
▁differentiate	-11.7688
▁quo	-11.77
▁sixth	-11.7715
▁warmer	-11.7718
▁ward	-11.7723
▁impos	-11.773
gar	-11.7733
▁switched	-11.7734
▁193	-11.7735
▁Story	-11.7735
▁Gar	-11.7747
▁assistant	-11.7751
▁dispos	-11.7758
▁jungle	-11.7766
▁artifact	-11.7766
▁immortal	-11.7766
▁vocabular	-11.7766
▁trunk	-11.7766
▁pirate	-11.7766
▁1930	-11.7766
▁Simpl	-11.7766
▁generic	-11.7766
▁1,500	-11.7767
▁surgical	-11.7767
▁screens	-11.7769
net	-11.7774
▁basement	-11.7776
▁sneaker	-11.7782
▁historian	-11.7788
▁Lin	-11.7789
▁giver	-11.7797
▁justify	-11.7804
BC	-11.7813
▁cope	-11.7817
▁spite	-11.7837
▁stair	-11.7842
▁sin	-11.7845
▁lonel	-11.7846
▁camel	-11.7858
▁Consider	-11.7859
▁Shakespeare	-11.7859
▁faint	-11.7859
▁migrant	-11.7859
▁pesticide	-11.7859
▁transistor	-11.7859
▁dragonfl	-11.7859
▁neurogenesis	-11.7859
▁enrich	-11.7859
▁desktop	-11.7859
▁Probab	-11.7859
▁blueprint	-11.7859
▁pipeline	-11.786
▁psychopath	-11.7862
▁boost	-11.7864
▁lethal	-11.7866
▁blade	-11.7868
ill	-11.7874
▁mount	-11.7874
▁Si	-11.7875
▁Australian	-11.7875
▁sticker	-11.7878
▁tolerance	-11.7879
▁Gab	-11.7886
ropical	-11.789
▁ban	-11.7895
▁lap	-11.7902
▁seas	-11.7902
▁juice	-11.7916
▁optic	-11.7917
▁Fe	-11.7927
bu	-11.793
▁heavi	-11.7933
▁stimulate	-11.7949
▁Histor	-11.7952
▁holiday	-11.7952
violet	-11.7952
▁cafe	-11.7952
▁imperative	-11.7952
▁extensive	-11.7952
▁maximum	-11.7952
▁tile	-11.7953
▁resilien	-11.7955
▁SW	-11.7957
▁Berk	-11.796
▁30-	-11.7963
onica	-11.7963
▁summarize	-11.7968
ison	-11.7969
▁duty	-11.7969
▁demonstrat	-11.7978
▁dai	-11.7988
▁owe	-11.8013
▁sh	-11.8015
▁tubes	-11.8016
▁firing	-11.8023
▁explod	-11.8028
▁tablet	-11.803
▁tourist	-11.8031
▁Cyr	-11.8035
▁cooperat	-11.8036
▁rang	-11.8038
lihood	-11.8043
▁Power	-11.8044
▁legislati	-11.8044
▁soccer	-11.8047
▁collage	-11.8047
▁nasty	-11.8047
▁stagger	-11.8047
▁blob	-11.8047
▁Doctor	-11.8047
▁valve	-11.8047
▁Gold	-11.8049
ately	-11.8054
▁MK	-11.8054
▁maker	-11.8055
▁PT	-11.8058
▁Jones	-11.8058
lit	-11.806
▁junk	-11.8063
ez	-11.8076
▁43	-11.8078
▁exot	-11.8091
▁exceptional	-11.8091
▁tide	-11.8095
▁divine	-11.8098
▁mesh	-11.8108
▁disturbing	-11.8117
▁dar	-11.8124
▁aunt	-11.8127
▁SP	-11.813
ot	-11.8134
▁brush	-11.8139
▁flame	-11.8139
▁Climate	-11.8142
▁adolescent	-11.8142
▁elaborate	-11.8142
▁infra	-11.8142
▁Interesting	-11.8142
▁opposition	-11.8142
▁gross	-11.8142
▁minimal	-11.8142
▁shatter	-11.8142
▁scholarship	-11.8142
▁exit	-11.8143
▁Milk	-11.8143
▁fetus	-11.8143
▁Michel	-11.8143
▁candle	-11.8145
▁crater	-11.8146
▁Food	-11.8147
lah	-11.8147
▁trad	-11.8149
course	-11.8149
▁Learn	-11.815
month	-11.815
▁conquer	-11.8158
▁lever	-11.816
▁Ali	-11.8163
▁merc	-11.8168
▁Android	-11.817
berg	-11.8172
▁lawn	-11.8173
▁glamo	-11.8175
ose	-11.8176
▁96	-11.8178
▁anticipat	-11.8186
▁mindful	-11.8192
▁drum	-11.8196
ow	-11.8211
▁scaling	-11.8218
▁Pete	-11.8221
▁dare	-11.8222
gra	-11.8227
▁trail	-11.8232
▁unleash	-11.8238
▁polite	-11.8239
▁superpower	-11.8239
▁cellphone	-11.8239
rizon	-11.824
▁Somalia	-11.8241
▁friction	-11.8241
tenance	-11.8242
▁atheist	-11.8243
▁nucle	-11.8244
▁invitation	-11.8245
▁philosophical	-11.8245
▁skeptical	-11.8246
▁premise	-11.8248
▁Sing	-11.8251
▁stereotype	-11.8252
bacterial	-11.8254
mile	-11.8257
▁Sub	-11.8264
▁lotter	-11.8268
▁coordinate	-11.8271
▁celebrity	-11.8276
▁Kir	-11.8278
RA	-11.8282
▁capitalist	-11.8294
▁underestimate	-11.8294
▁Dea	-11.8297
▁Say	-11.8314
▁valid	-11.8319
▁Hubb	-11.832
▁album	-11.8335
▁circular	-11.8335
▁spouse	-11.8335
▁tuberc	-11.8335
▁defining	-11.8335
▁melod	-11.8335
▁crab	-11.8335
▁revelation	-11.8335
▁crude	-11.8336
▁headache	-11.8336
▁cartoonist	-11.8337
▁indicator	-11.8337
▁rotat	-11.834
▁25,000	-11.8342
▁Muh	-11.8342
▁despi	-11.8349
▁impose	-11.8358
▁pursu	-11.8364
▁Walk	-11.8364
▁conceive	-11.8368
oc	-11.8369
▁taxi	-11.8374
▁microscop	-11.8376
uff	-11.8382
rum	-11.8389
sum	-11.8395
▁Op	-11.8398
cut	-11.8398
ima	-11.8402
friend	-11.8409
▁freez	-11.8414
▁foi	-11.8425
▁brick	-11.8426
▁46	-11.8429
ulosi	-11.8433
promising	-11.8433
▁caregiver	-11.8433
▁unfair	-11.8433
▁virgin	-11.8433
▁Light	-11.8434
▁passe	-11.8434
▁greet	-11.8434
▁Hawk	-11.8435
▁innovator	-11.8435
▁FDA	-11.8436
▁publicly	-11.8437
▁vein	-11.8441
▁Force	-11.845
▁48	-11.845
▁symbolic	-11.8456
ually	-11.8461
▁20-	-11.8469
▁doom	-11.8469
tive	-11.8481
mi	-11.8482
▁Line	-11.8486
▁Cat	-11.8491
▁prey	-11.8496
▁brake	-11.8498
set	-11.8499
▁sole	-11.85
ight	-11.85
▁acknowledg	-11.851
▁accidental	-11.852
▁kit	-11.8526
tangible	-11.8529
▁awake	-11.8531
▁lobby	-11.8532
▁ambulance	-11.8532
▁astronomy	-11.8532
▁expense	-11.8532
▁exquisite	-11.8532
▁maneuver	-11.8532
▁specimen	-11.8532
▁oyster	-11.8532
openha	-11.8532
▁Ru	-11.8533
▁mustache	-11.8533
▁transformati	-11.8535
▁Oo	-11.8539
▁terminal	-11.854
▁Earl	-11.8542
thermal	-11.8543
▁Live	-11.8555
▁prevention	-11.8556
▁examine	-11.8559
▁Mar	-11.8562
▁acoustic	-11.8569
▁ES	-11.8573
▁receiver	-11.8576
▁AI	-11.8579
▁UN	-11.8583
▁significan	-11.8583
▁worrie	-11.8584
▁corners	-11.8588
di	-11.8592
▁vibrat	-11.8597
▁Sal	-11.8606
▁Brad	-11.8612
▁settle	-11.8613
▁schedule	-11.862
new	-11.8622
inch	-11.8624
rank	-11.8625
eley	-11.8629
▁depict	-11.8629
▁Similar	-11.8632
▁modification	-11.8632
▁Garden	-11.8632
▁retain	-11.8632
▁Redwood	-11.8633
▁headquarter	-11.8633
▁inflation	-11.8633
▁legend	-11.8633
▁cardiac	-11.8634
▁Gius	-11.8634
▁Costa	-11.8636
▁spine	-11.8638
▁gentle	-11.8639
▁intrinsic	-11.8641
▁Die	-11.8646
▁Old	-11.8652
▁charter	-11.8652
▁racial	-11.8653
▁cleaner	-11.8654
▁Cheer	-11.866
▁Cold	-11.8664
▁utility	-11.8665
▁conceptual	-11.8672
pping	-11.8675
▁declin	-11.8691
▁constrain	-11.8692
▁squeeze	-11.8696
▁cows	-11.87
ack	-11.8705
▁settl	-11.8705
▁guards	-11.8707
field	-11.8711
ease	-11.8722
page	-11.8722
ung	-11.873
▁Republic	-11.8732
▁cheer	-11.8733
▁CR	-11.8733
▁ancestr	-11.8733
▁janitor	-11.8733
▁cream	-11.8733
▁ghost	-11.8733
▁velocit	-11.8733
▁grammar	-11.8733
▁suitcase	-11.8733
▁Recent	-11.8733
▁captain	-11.8733
▁Clear	-11.8733
▁entrance	-11.8734
▁fluctuation	-11.8734
▁elevator	-11.8734
▁alert	-11.8735
▁differ	-11.8735
▁anxious	-11.8737
▁intimacy	-11.8738
broad	-11.8746
▁Sp	-11.8746
▁vice	-11.8753
▁apologize	-11.8756
▁fighter	-11.8757
▁ne	-11.8758
tail	-11.876
▁erect	-11.8762
▁Find	-11.8768
▁op	-11.8769
▁accumulat	-11.878
▁relativ	-11.8783
meter	-11.8784
▁Mel	-11.8785
▁Mos	-11.8786
lves	-11.8794
▁peni	-11.8805
▁observer	-11.8808
▁freeze	-11.8812
▁triple	-11.8813
▁mic	-11.8818
symmetrical	-11.8827
▁manifest	-11.883
▁odor	-11.8832
▁laborator	-11.8834
lan	-11.8834
▁DVD	-11.8835
▁genomic	-11.8835
▁ladder	-11.8835
▁neglect	-11.8835
▁resurrect	-11.8835
▁turtle	-11.8835
▁Gaza	-11.8835
▁towel	-11.8836
▁Movement	-11.8836
▁Lester	-11.8836
▁Daniel	-11.8837
▁restriction	-11.8839
▁extrovert	-11.8839
▁Louis	-11.8839
▁genero	-11.8841
▁inhabit	-11.8841
organiz	-11.8844
pound	-11.885
three	-11.885
▁Fund	-11.8852
▁Lot	-11.8853
▁zoo	-11.8856
▁Bas	-11.8858
▁eastern	-11.8866
▁su	-11.8874
LP	-11.8881
▁fertil	-11.8882
▁blown	-11.8886
▁activat	-11.8887
▁accumulate	-11.8891
▁Arabia	-11.8901
▁hug	-11.8903
▁MT	-11.8903
▁processor	-11.8915
▁specialize	-11.892
▁convention	-11.8921
▁Ram	-11.8929
pa	-11.8932
▁Columbia	-11.8933
fa	-11.8936
▁enlighten	-11.8938
▁irrational	-11.8938
▁mammoth	-11.8938
▁sweep	-11.8938
▁taboo	-11.8938
▁essay	-11.8938
▁propagand	-11.8938
▁Librar	-11.8938
▁feather	-11.8938
▁guitar	-11.8938
▁watt	-11.8938
▁courageous	-11.8941
ram	-11.8941
▁Book	-11.8944
▁weakness	-11.8945
▁Hold	-11.8955
▁thriv	-11.8957
▁remotely	-11.8965
▁Wood	-11.8965
▁flipp	-11.8976
▁manipulat	-11.8982
▁awe	-11.8986
▁Amy	-11.899
eyed	-11.8991
▁refus	-11.8995
▁h	-11.8999
▁accus	-11.9001
rous	-11.9004
take	-11.9006
▁bell	-11.9009
▁Band	-11.901
▁painter	-11.9012
▁130	-11.9024
bro	-11.9035
▁packag	-11.9037
▁charg	-11.9039
▁vari	-11.9041
▁impair	-11.9041
▁chemotherap	-11.9042
▁slogan	-11.9042
▁syringe	-11.9042
▁nail	-11.9042
▁disk	-11.9044
▁97	-11.9045
▁insult	-11.9046
▁conviction	-11.9046
▁gras	-11.9047
▁Liberia	-11.9047
▁migrate	-11.9049
▁thus	-11.905
ag	-11.9057
▁mega	-11.9064
▁rolled	-11.9066
▁progression	-11.907
▁longe	-11.9073
oto	-11.9079
▁34	-11.9087
▁Wo	-11.9089
▁contaminat	-11.9094
▁Christ	-11.9096
shape	-11.911
een	-11.9113
▁inmate	-11.9115
▁grip	-11.9119
▁tomato	-11.9121
▁intervene	-11.9124
▁myceli	-11.9128
king	-11.9128
▁arena	-11.9133
▁skeptic	-11.9138
zo	-11.914
▁asylum	-11.9148
▁bioluminescen	-11.9148
▁catastrophe	-11.9148
▁catastrophic	-11.9148
▁cinema	-11.9148
▁cocktail	-11.9148
▁leopard	-11.9148
▁audaci	-11.915
▁lobe	-11.9152
▁rings	-11.9155
▁coverage	-11.9155
size	-11.9157
▁Ko	-11.9158
▁wander	-11.9158
word	-11.9159
▁Moz	-11.916
▁arbitrar	-11.9162
economic	-11.9165
▁filling	-11.9165
seas	-11.9166
▁longest	-11.9168
▁Goal	-11.9175
7,000	-11.9181
▁fuse	-11.9188
▁rabbit	-11.919
▁Start	-11.9191
▁adequate	-11.9195
▁appreciat	-11.9196
▁visitor	-11.9197
face	-11.9198
▁Sahara	-11.9205
▁reader	-11.9208
▁scrap	-11.9217
▁mar	-11.9227
▁pos	-11.9228
▁constitution	-11.9235
▁mini	-11.9236
van	-11.9237
gh	-11.9243
ank	-11.9249
▁marks	-11.925
▁excess	-11.9254
▁Public	-11.9254
▁Suppose	-11.9254
▁autistic	-11.9254
▁prophet	-11.9254
▁smash	-11.9254
▁suspicious	-11.9254
▁Craig	-11.9254
▁corridor	-11.9254
▁devise	-11.9254
▁Thirty	-11.9254
▁Nathan	-11.9254
▁toxin	-11.9254
▁eternal	-11.9255
▁Rob	-11.9255
▁Austria	-11.9255
▁prosecutor	-11.9256
▁economical	-11.9256
▁adolescence	-11.9262
▁Nepal	-11.9263
▁Enc	-11.9264
▁strengthen	-11.9267
Z	-11.9272
▁singular	-11.9276
▁bowl	-11.928
▁nois	-11.9289
▁Bol	-11.9291
rus	-11.9291
▁stumbl	-11.9296
inum	-11.931
▁900	-11.9323
erusal	-11.9324
▁restrict	-11.9331
▁dishe	-11.9337
▁frustrating	-11.9342
sham	-11.9344
▁pub	-11.9348
▁counted	-11.9349
cal	-11.9353
▁AM	-11.9354
▁Zimbabwe	-11.9361
mbo	-11.9361
▁Benjam	-11.9362
▁Kepler	-11.9362
▁Medicine	-11.9362
▁Natural	-11.9362
▁absurd	-11.9362
▁cockroach	-11.9362
▁favela	-11.9362
▁jazz	-11.9362
▁postcard	-11.9362
▁fuzz	-11.9362
▁LG	-11.9363
▁legislat	-11.9364
▁flexibilit	-11.9364
▁racis	-11.9366
▁terrifi	-11.9367
▁hemisphere	-11.9367
▁silicon	-11.9368
▁assess	-11.937
▁bitter	-11.9377
▁Zero	-11.9378
person	-11.9379
degree	-11.9381
▁gang	-11.9388
can	-11.9388
▁Change	-11.9397
▁Harr	-11.9402
▁replicat	-11.9402
▁moralit	-11.9405
▁Pre	-11.9405
▁manufacture	-11.9405
▁dominate	-11.9406
▁USA	-11.9426
▁atmospher	-11.943
▁Ross	-11.943
▁acquir	-11.943
az	-11.9431
▁bounce	-11.9432
▁dismiss	-11.9432
wards	-11.9436
▁memorial	-11.9444
bra	-11.9447
▁assist	-11.945
▁warn	-11.9454
▁cur	-11.9456
▁Sad	-11.9457
▁maximize	-11.9465
▁stigma	-11.9468
▁marvel	-11.9469
▁alum	-11.947
▁millennia	-11.947
▁Kennedy	-11.947
▁calendar	-11.947
▁defect	-11.947
▁Small	-11.947
▁embodie	-11.947
▁Sudan	-11.947
▁cybercriminal	-11.947
▁cattle	-11.947
▁Phoenix	-11.947
▁undergraduate	-11.947
▁multinational	-11.947
▁shepherd	-11.9471
▁Rover	-11.9472
▁adaptive	-11.9473
▁extremist	-11.9473
▁boots	-11.9482
▁announce	-11.9487
stair	-11.9493
▁liberat	-11.9493
cu	-11.9497
▁marked	-11.9503
▁incremental	-11.9505
100	-11.9505
▁champion	-11.9507
▁din	-11.9531
▁module	-11.9538
▁warp	-11.9542
assembl	-11.9543
sani	-11.9548
▁admir	-11.955
Fi	-11.9556
uch	-11.9564
▁reuse	-11.9571
20	-11.9572
scope	-11.958
▁Know	-11.958
▁embryo	-11.958
▁Buddha	-11.958
▁fracture	-11.958
▁satisfie	-11.958
▁slope	-11.958
▁envision	-11.958
▁carrot	-11.958
▁Beatbox	-11.958
▁polymer	-11.958
▁authoritarian	-11.958
▁butterfl	-11.958
▁Christopher	-11.9581
▁incomplete	-11.9581
▁obligation	-11.9581
▁Venus	-11.9582
▁gaze	-11.9584
lept	-11.9584
▁flee	-11.9589
▁intent	-11.9591
▁hallway	-11.9591
▁Ar	-11.9592
▁hammer	-11.9593
▁embarrass	-11.9593
ake	-11.9594
▁digg	-11.9595
Corps	-11.96
▁digest	-11.961
uck	-11.9613
ek	-11.9618
yon	-11.962
▁Building	-11.9621
▁hotte	-11.9621
▁bench	-11.9622
▁closet	-11.9623
specific	-11.9624
▁47	-11.9625
pper	-11.9627
▁Gi	-11.9629
▁blessing	-11.9633
▁employer	-11.964
ep	-11.9642
▁quad	-11.9646
▁52	-11.9646
▁Per	-11.9653
▁tropic	-11.9654
▁photon	-11.9659
▁avatar	-11.9669
▁Office	-11.9671
▁Bi	-11.9674
▁optimize	-11.9676
Col	-11.9678
ik	-11.9679
▁spike	-11.9682
generat	-11.9687
cillin	-11.9688
▁persist	-11.9689
oh	-11.9689
angelo	-11.969
▁suburb	-11.969
▁controvers	-11.9691
▁Alaska	-11.9691
▁hollow	-11.9691
▁ultrasound	-11.9691
▁lesion	-11.9691
▁swarm	-11.9691
▁metabolic	-11.9691
▁uninten	-11.9691
▁checklist	-11.9692
▁CMU	-11.9692
▁gamma	-11.9692
▁physiolog	-11.9692
▁gigant	-11.9692
▁wip	-11.9692
▁Carne	-11.9692
▁Wa	-11.9692
▁cement	-11.9692
▁tar	-11.9693
▁98	-11.9693
▁anthropologist	-11.9697
▁Lago	-11.9699
therland	-11.9702
▁disrupti	-11.9703
▁Trad	-11.9704
▁mature	-11.9707
nce	-11.9708
generation	-11.9711
▁congesti	-11.9714
shift	-11.9714
percent	-11.9714
▁midst	-11.9723
▁Mind	-11.9724
▁fires	-11.9734
ov	-11.9745
dus	-11.9754
▁patien	-11.9754
▁estimat	-11.9761
▁Libya	-11.9775
▁carve	-11.9777
▁sw	-11.978
airo	-11.9782
▁sauce	-11.9783
▁belonging	-11.9785
star	-11.9786
▁Post	-11.9791
▁sometime	-11.9797
upreme	-11.98
▁kite	-11.9803
▁Scientist	-11.9804
▁Siberia	-11.9804
▁famine	-11.9804
▁steep	-11.9804
▁timing	-11.9804
▁Societ	-11.9804
▁finite	-11.9804
▁reproductive	-11.9804
▁reproduction	-11.9804
▁crank	-11.9804
▁scarce	-11.9804
▁Nair	-11.9804
▁fierce	-11.9804
▁Help	-11.9805
▁TEDster	-11.9806
▁manifestation	-11.9806
▁pond	-11.9807
▁urgent	-11.9808
▁glove	-11.9808
▁pigment	-11.9808
▁reinforce	-11.9809
▁educator	-11.9813
▁dependenc	-11.9816
▁stimul	-11.9819
og	-11.9821
▁blogs	-11.9822
▁destructive	-11.9824
▁Stone	-11.9826
screen	-11.9827
▁meta	-11.9829
▁verbal	-11.9831
▁Fin	-11.9832
▁Fifty	-11.984
▁wandering	-11.9842
dia	-11.9845
▁obsession	-11.9851
▁authors	-11.9857
.5	-11.986
▁rigid	-11.9861
▁blessed	-11.9861
▁Swed	-11.9864
minded	-11.9867
cell	-11.9872
▁Philip	-11.9872
▁pee	-11.9874
py	-11.9879
omb	-11.9886
▁mum	-11.9889
▁Pi	-11.9901
ax	-11.9911
▁por	-11.9916
cca	-11.9916
▁Namibia	-11.9917
▁disadvantage	-11.9917
▁fractal	-11.9917
▁regain	-11.9917
▁Chuck	-11.9917
▁staircase	-11.9917
▁Monday	-11.9917
▁Cancer	-11.9918
▁86	-11.9918
▁symphon	-11.9919
▁Johnny	-11.9919
▁outrage	-11.992
▁manipulation	-11.9921
▁Laden	-11.9922
▁graffiti	-11.9923
▁toast	-11.9924
▁rear	-11.9924
▁sir	-11.9931
▁individually	-11.9932
▁Work	-11.9935
▁redefine	-11.9935
lium	-11.9938
▁bann	-11.9939
▁doubling	-11.994
gi	-11.9941
top	-11.9942
Bay	-11.9943
▁heroic	-11.9948
▁woods	-11.9948
▁undergo	-11.9951
risk	-11.9953
heart	-11.9954
▁Qui	-11.9958
▁discriminati	-11.9963
▁publication	-11.9973
titude	-11.9973
▁noble	-11.9975
▁boiling	-11.9977
▁disappointed	-11.9979
▁ham	-11.998
▁emit	-11.9983
▁damag	-11.9984
▁folk	-11.9985
▁numer	-11.9985
CD	-11.9989
▁lime	-11.999
▁deny	-11.9992
rief	-11.9999
▁entitle	-12.0001
▁electro	-12.0004
rah	-12.0011
oven	-12.0015
▁shade	-12.0019
▁thermal	-12.0021
▁planner	-12.0031
▁competitor	-12.0032
▁convincing	-12.0032
▁hypothetical	-12.0032
▁perceptual	-12.0032
▁pleasant	-12.0032
▁prejudice	-12.0032
▁vitamin	-12.0032
▁squid	-12.0032
▁Wolf	-12.0032
▁1.3	-12.0032
▁quantitative	-12.0032
▁portray	-12.0033
▁acute	-12.0033
▁psychiatrist	-12.0033
▁radi	-12.0036
▁JC	-12.0037
▁horses	-12.0037
▁macro	-12.0038
▁Indus	-12.004
▁fade	-12.0041
▁Evan	-12.0042
▁interrupt	-12.0044
ade	-12.0044
kyo	-12.0045
▁Peru	-12.0046
▁powder	-12.0046
▁reply	-12.0049
▁steady	-12.0055
▁Uncle	-12.0057
▁accompani	-12.0057
▁statue	-12.0059
▁facilitate	-12.0061
▁winds	-12.0064
▁cooperative	-12.0066
ridge	-12.0068
▁stressed	-12.0086
▁compute	-12.0089
▁seize	-12.0096
iro	-12.0099
▁54	-12.0099
ball	-12.0107
▁24-	-12.0108
▁regional	-12.0111
▁digit	-12.0111
▁teache	-12.0115
▁overhead	-12.0116
▁liter	-12.0127
▁Euro	-12.0128
▁bull	-12.013
▁oppress	-12.0135
▁humbl	-12.0139
ehind	-12.0148
arliament	-12.0148
▁Kosov	-12.0148
▁Ministr	-12.0148
▁buzz	-12.0148
▁fantasy	-12.0148
▁fingertip	-12.0148
▁guerrilla	-12.0148
▁hamburger	-12.0148
▁iPad	-12.0148
▁institute	-12.0148
▁monsoon	-12.0148
▁stabilize	-12.0148
▁visceral	-12.0148
▁metabolism	-12.0149
▁secular	-12.0149
▁bucket	-12.0149
▁throat	-12.0149
▁hostile	-12.0149
▁hut	-12.0149
▁hatred	-12.015
▁Data	-12.015
▁Milo	-12.0151
▁orientation	-12.0152
▁elementary	-12.0152
▁celebration	-12.0154
▁reli	-12.0155
▁chess	-12.0155
▁slime	-12.0155
▁bombing	-12.0165
▁Gol	-12.0169
va	-12.0171
▁minor	-12.0173
▁Bett	-12.0176
sleep	-12.0177
▁potent	-12.0177
resistan	-12.0178
wear	-12.0179
▁lik	-12.018
▁ALS	-12.0185
ibility	-12.019
▁Jenn	-12.0191
▁Countr	-12.0191
▁yard	-12.0194
▁Bear	-12.0195
▁53	-12.0201
▁viewing	-12.0203
▁Down	-12.0203
▁outward	-12.0203
▁Ger	-12.0211
▁reminder	-12.0215
pit	-12.0216
▁submit	-12.0222
iath	-12.0223
▁slip	-12.0225
fire	-12.0227
▁beneficia	-12.0228
▁investigat	-12.0234
▁oven	-12.024
▁usage	-12.0242
▁Camp	-12.0248
vy	-12.0249
▁transcend	-12.026
▁candy	-12.0263
▁Elizabeth	-12.0265
eval	-12.0266
▁triumph	-12.0266
+	-12.0266
▁Mumbai	-12.0266
▁Student	-12.0266
▁Yellow	-12.0266
▁curator	-12.0266
▁deni	-12.0266
▁epiphan	-12.0266
▁surrender	-12.0266
▁thrust	-12.0266
▁Leban	-12.0266
▁bypass	-12.0266
▁confusion	-12.0266
▁existential	-12.0266
▁scatter	-12.0266
▁Coca	-12.0266
▁lawsuit	-12.0267
litary	-12.0267
▁criticism	-12.0267
▁8,000	-12.0268
▁stratospher	-12.0268
centric	-12.0269
▁encode	-12.0283
▁pollinat	-12.0284
▁frighten	-12.029
million	-12.0299
▁Nata	-12.0303
dding	-12.0306
▁behold	-12.0316
▁displac	-12.0319
iful	-12.0321
▁blogg	-12.0322
▁Net	-12.0325
▁developmental	-12.0327
mart	-12.0329
stream	-12.0332
▁Inside	-12.0336
GO	-12.0343
ylan	-12.0346
▁offshor	-12.0347
istine	-12.0373
min	-12.0376
▁Ji	-12.0378
▁counsel	-12.0383
▁Himalaya	-12.0385
▁sediment	-12.0385
▁thorough	-12.0385
▁Large	-12.0385
▁pancrea	-12.0385
▁Tower	-12.0385
▁neocort	-12.0385
▁deception	-12.0386
abbage	-12.0386
▁yards	-12.0386
▁Danny	-12.0386
▁recession	-12.0386
▁roommate	-12.0387
▁wool	-12.0387
▁Marine	-12.0387
▁lover	-12.0388
▁modify	-12.0394
▁Vinc	-12.0396
▁donate	-12.0397
▁invasion	-12.0397
▁vo	-12.0401
▁responsibilit	-12.0402
culture	-12.0402
▁medi	-12.0404
▁scholars	-12.0409
▁Jean	-12.0414
sensitive	-12.0416
▁climber	-12.0416
har	-12.0421
type	-12.0426
▁rail	-12.044
▁operational	-12.0442
nformation	-12.0445
▁Lama	-12.0453
ature	-12.0468
NG	-12.0474
▁isolate	-12.0482
▁butter	-12.0485
▁Color	-12.0486
play	-12.0487
▁imp	-12.0488
▁lone	-12.0491
▁preach	-12.0505
▁consult	-12.0506
▁Orleans	-12.0506
▁approval	-12.0506
▁niece	-12.0506
▁prevalence	-12.0506
▁curtain	-12.0506
▁Moham	-12.0506
▁masterpiece	-12.0506
▁wax	-12.0507
▁uncover	-12.0508
▁circulation	-12.0508
▁Such	-12.0508
▁DP	-12.0509
▁neurological	-12.0511
▁cookie	-12.0512
▁injection	-12.0513
▁sync	-12.0518
▁geological	-12.0519
▁satisfaction	-12.052
▁64	-12.052
▁Lead	-12.0521
ept	-12.0521
▁Station	-12.0524
▁depriv	-12.0533
▁gram	-12.0537
▁Simon	-12.0539
alo	-12.0539
▁endur	-12.0542
▁scal	-12.0547
▁disc	-12.0551
▁ag	-12.0551
▁lips	-12.0552
▁Dead	-12.0552
▁amaze	-12.0555
▁ingenu	-12.0555
▁prototyp	-12.0561
▁lucki	-12.0561
arity	-12.0566
ila	-12.0568
▁rabbi	-12.0578
▁Swa	-12.0579
▁visionar	-12.0579
▁recycle	-12.0587
style	-12.0592
▁lighter	-12.0599
▁exponentially	-12.0616
▁Yemen	-12.0623
▁38	-12.0627
▁Service	-12.0628
▁Sylvi	-12.0628
▁Ultimate	-12.0628
▁benign	-12.0628
▁capsule	-12.0628
▁occupie	-12.0628
▁shield	-12.0628
▁voyage	-12.0628
▁Prime	-12.0628
▁mill	-12.0628
▁lump	-12.0628
▁worn	-12.0628
▁Economic	-12.0628
▁mixture	-12.0629
▁puff	-12.063
▁encyclopedia	-12.063
▁evaluate	-12.0631
▁accomplishment	-12.0632
▁Hindu	-12.0632
▁substitute	-12.0641
▁sadness	-12.0642
▁censor	-12.0643
▁Side	-12.0649
eye	-12.0652
proof	-12.0658
▁Rand	-12.0662
▁Heart	-12.0667
nburg	-12.0667
▁Fried	-12.0669
▁CE	-12.0669
▁derive	-12.0693
▁Tunisia	-12.0722
▁socio	-12.0723
bar	-12.0724
ura	-12.0729
ibati	-12.0751
▁FOX	-12.0751
▁bulk	-12.0751
▁sensitivit	-12.0751
▁submarine	-12.0751
▁subsequent	-12.0751
▁rectangle	-12.0751
▁unacceptabl	-12.0751
▁cabinet	-12.0751
▁cholera	-12.0751
▁boson	-12.0751
▁flock	-12.0752
▁Step	-12.0753
▁wallet	-12.0753
▁Holo	-12.0754
▁problematic	-12.0755
▁democratiz	-12.0755
▁dispute	-12.0756
▁poop	-12.0759
▁collaborat	-12.0759
▁legally	-12.0761
▁mobilize	-12.0761
ook	-12.0762
▁yeast	-12.0768
▁biologically	-12.0769
▁resemble	-12.0772
▁Com	-12.0772
▁dough	-12.0774
▁upgrade	-12.0781
ggle	-12.0783
▁unsee	-12.0786
government	-12.0787
▁Bio	-12.0795
▁learner	-12.0797
▁matern	-12.0797
▁recreate	-12.0806
▁racist	-12.0808
▁solo	-12.0812
▁Min	-12.0814
▁Add	-12.0816
▁Lee	-12.0818
▁bomber	-12.0819
ark	-12.082
▁simulat	-12.0822
▁poke	-12.0822
▁refine	-12.0826
▁DR	-12.0827
▁viewer	-12.0829
venge	-12.0832
▁mytholog	-12.0833
▁fog	-12.0836
▁roller	-12.0839
▁continual	-12.0839
ward	-12.0841
▁rains	-12.0843
▁dri	-12.0846
▁scholar	-12.0851
▁rebel	-12.0855
▁pric	-12.086
tine	-12.0871
▁violin	-12.0876
▁contagio	-12.0876
▁Michigan	-12.0876
▁Sydney	-12.0876
▁calculating	-12.0876
▁sermon	-12.0876
▁unnecessar	-12.0876
▁wreck	-12.0876
▁parameter	-12.0876
▁Joseph	-12.0876
▁cathedral	-12.0876
▁praise	-12.0876
▁fuck	-12.0877
▁Deep	-12.0877
▁classmate	-12.0877
▁electromagnetic	-12.0877
▁SMS	-12.0877
▁textile	-12.0878
▁temptation	-12.0878
▁Bridge	-12.0878
▁obscure	-12.0879
▁pillar	-12.0879
▁pun	-12.088
▁balanc	-12.0885
▁regulator	-12.0885
▁Glass	-12.0886
▁abstraction	-12.0888
▁rage	-12.0888
▁Jess	-12.0893
▁duration	-12.0915
▁vest	-12.092
pro	-12.0925
aker	-12.0926
▁publisher	-12.0927
▁menu	-12.0929
▁traumatic	-12.0934
▁Bud	-12.0943
ending	-12.0947
▁Whoa	-12.0949
▁fin	-12.0949
▁Sch	-12.0952
▁shelve	-12.0956
sea	-12.0956
human	-12.0959
▁companion	-12.0962
velt	-12.0974
step	-12.0976
▁fir	-12.0978
▁Rock	-12.098
▁psyche	-12.0983
▁treasure	-12.0986
mark	-12.0995
▁hills	-12.0999
▁volcan	-12.1
▁Isa	-12.1001
▁Acc	-12.1002
▁prevail	-12.1003
▁resonance	-12.1003
▁Modern	-12.1003
▁premature	-12.1003
▁glorious	-12.1003
▁pervasive	-12.1003
▁Linux	-12.1003
▁honeybee	-12.1003
▁Speak	-12.1003
▁battlefield	-12.1003
▁Night	-12.1003
▁Norden	-12.1003
▁Cuba	-12.1003
▁fame	-12.1003
▁veil	-12.1003
▁keen	-12.1004
▁Ground	-12.1004
Gowan	-12.1004
▁indication	-12.1006
▁paste	-12.1006
▁ideological	-12.1007
▁bricks	-12.1013
grow	-12.1013
▁greed	-12.1014
▁sought	-12.1015
▁dome	-12.1015
▁bark	-12.1016
▁governor	-12.1016
▁disgusting	-12.1017
▁Anna	-12.1019
▁collar	-12.1019
tention	-12.1024
▁arc	-12.1031
cover	-12.1033
vascular	-12.104
forward	-12.1041
frontal	-12.1042
ala	-12.1043
ectar	-12.1046
▁upright	-12.1048
aged	-12.1048
▁Call	-12.105
▁prostituti	-12.1055
13	-12.1056
▁rig	-12.1067
ual	-12.1074
▁Hell	-12.1081
▁planting	-12.1081
▁unite	-12.1093
▁Mall	-12.1095
ze	-12.11
▁unimaginabl	-12.1101
lic	-12.1103
▁Map	-12.1106
▁Hous	-12.111
ribbe	-12.1112
▁outdoor	-12.112
▁cultivate	-12.1124
▁Brit	-12.1125
ale	-12.113
▁orphan	-12.113
▁cardio	-12.113
▁Empire	-12.1131
▁adversit	-12.1131
▁romance	-12.1131
▁turbine	-12.1131
▁Certain	-12.1131
▁equilibr	-12.1131
▁feminin	-12.1131
▁conspirac	-12.1131
▁confusing	-12.1131
▁Secretary	-12.1131
▁coincidence	-12.1131
▁Hmm	-12.1131
▁spade	-12.1131
▁abortion	-12.1131
▁comedian	-12.1131
▁mutant	-12.1132
▁committee	-12.1132
▁Dick	-12.1132
▁beef	-12.1134
▁baseline	-12.1134
huh	-12.1136
▁thankful	-12.1136
▁Walter	-12.1136
▁Jas	-12.1136
▁strive	-12.1137
ati	-12.1139
▁basket	-12.114
▁Victorian	-12.1141
▁mock	-12.1141
▁temporal	-12.1142
▁intricate	-12.1143
▁eco	-12.1147
▁baker	-12.1158
▁professors	-12.1158
▁compos	-12.1162
▁disturb	-12.117
▁western	-12.117
▁province	-12.1171
▁hive	-12.1172
▁tenth	-12.1176
▁pale	-12.1194
▁follower	-12.1199
hold	-12.1202
▁prioritize	-12.1203
▁execute	-12.1205
▁tipp	-12.1207
jo	-12.1208
AG	-12.1215
▁thinker	-12.122
▁induce	-12.1222
cha	-12.1223
lage	-12.1238
▁neuro	-12.1243
▁retail	-12.1244
▁inhibit	-12.1247
▁12-	-12.125
▁entrepreneuri	-12.125
▁Ze	-12.1256
▁synthesi	-12.1256
▁Democrat	-12.1259
▁autonom	-12.126
eopard	-12.126
▁calculator	-12.1261
▁chaotic	-12.1261
▁delicate	-12.1261
▁elbow	-12.1261
▁exhilarat	-12.1261
▁technician	-12.1261
▁puppet	-12.1261
▁Skype	-12.1261
▁provision	-12.1261
▁distill	-12.1261
▁horrific	-12.1262
▁Sex	-12.1262
▁brainstorm	-12.1262
▁Special	-12.1262
▁liar	-12.1263
▁urbanization	-12.1264
▁Gala	-12.1264
ink	-12.1266
viation	-12.1266
▁marathon	-12.1267
▁End	-12.1268
▁warrant	-12.1271
▁Universe	-12.1271
▁illuminat	-12.1272
▁newborn	-12.1274
▁Cape	-12.1275
▁Beyon	-12.1275
alai	-12.1276
▁locomoti	-12.1277
▁nurtur	-12.1277
▁Marc	-12.1279
▁promot	-12.1283
▁intangible	-12.1284
teen	-12.1284
ue	-12.1286
▁Cassi	-12.1297
▁cops	-12.13
secure	-12.1303
fashion	-12.1303
▁Iraqi	-12.1303
▁surger	-12.1307
▁correlate	-12.131
▁enthusias	-12.1313
educat	-12.1314
▁swo	-12.1315
▁FG	-12.1318
ome	-12.132
▁submitt	-12.1323
▁modeling	-12.1323
▁influenc	-12.1324
▁industrialize	-12.1339
▁stripp	-12.134
▁Maria	-12.1344
94	-12.1351
rose	-12.1355
▁Best	-12.1355
▁assure	-12.1357
▁se	-12.1368
▁Tru	-12.1375
▁18-	-12.1375
wing	-12.1375
▁amuse	-12.1386
▁plott	-12.1387
genic	-12.1388
view	-12.1389
▁cease	-12.1392
=	-12.1392
▁Digital	-12.1392
▁Oklahoma	-12.1392
▁choir	-12.1392
▁commodity	-12.1392
▁hurricane	-12.1392
▁recipient	-12.1392
▁disparit	-12.1392
▁surplus	-12.1392
▁Stewar	-12.1392
▁cocaine	-12.1392
▁Maldiv	-12.1392
▁antidepressant	-12.1392
▁larva	-12.1392
▁unequal	-12.1392
▁servant	-12.1392
▁superior	-12.1393
▁Click	-12.1393
▁ballot	-12.1393
▁irre	-12.1393
▁marvelous	-12.1393
▁Max	-12.1394
▁novelty	-12.1395
▁compliment	-12.1395
▁sensibl	-12.1396
▁PhD	-12.1396
▁Luck	-12.1396
▁backup	-12.14
▁Death	-12.1402
fu	-12.1402
▁192	-12.1403
▁Colli	-12.1405
▁worldview	-12.1406
▁qualifie	-12.1415
▁vibrate	-12.1417
▁indirect	-12.1419
▁Had	-12.1419
▁criticiz	-12.1425
▁ac	-12.1426
▁devoted	-12.143
▁seventh	-12.1432
▁conception	-12.1433
▁parliament	-12.1437
▁reus	-12.1441
▁stunning	-12.1454
▁Fly	-12.1455
▁pur	-12.1456
bot	-12.1457
cent	-12.146
14	-12.1464
▁distracted	-12.1472
▁sovereign	-12.1476
bit	-12.1478
ED	-12.1481
▁methodolog	-12.1487
-2	-12.1502
▁sneak	-12.1502
▁Ron	-12.1505
▁en	-12.1506
▁Mario	-12.1507
25	-12.1512
ica	-12.1514
▁grace	-12.1516
▁examin	-12.152
rk	-12.152
▁nuclei	-12.1522
▁Bar	-12.1523
▁140	-12.1524
▁asthma	-12.1525
▁Colombia	-12.1526
▁Nav	-12.1526
▁communal	-12.1526
▁crocodile	-12.1526
▁imprison	-12.1526
▁migraine	-12.1526
▁resort	-12.1526
▁Model	-12.1526
▁facult	-12.1526
▁tempt	-12.1526
pago	-12.1526
▁Jefferson	-12.1526
▁dug	-12.1526
▁hover	-12.1527
▁assessment	-12.1527
▁Trust	-12.1528
▁violation	-12.1528
▁gland	-12.1528
▁Golden	-12.153
▁diminish	-12.153
▁unpredictabl	-12.153
▁Tri	-12.1532
▁TEDx	-12.1532
▁vegetati	-12.1535
finish	-12.1535
NN	-12.1553
lerant	-12.1555
▁paraly	-12.1559
rays	-12.1561
▁devastat	-12.1561
▁Emil	-12.1562
▁gee	-12.1562
▁heck	-12.1566
width	-12.1571
school	-12.1571
resolution	-12.1571
social	-12.1571
hop	-12.1573
ru	-12.1589
▁Tit	-12.159
▁handwrit	-12.1594
▁lightn	-12.1604
lready	-12.1608
eum	-12.1609
▁Test	-12.161
▁uncertain	-12.1612
▁Polic	-12.1624
▁forum	-12.1625
.0	-12.1631
▁Less	-12.1632
▁Got	-12.1637
▁crashe	-12.164
iger	-12.1643
uk	-12.1645
▁Hy	-12.1646
▁minimize	-12.1648
▁Journal	-12.1659
▁unst	-12.166
▁Odysse	-12.1661
▁hippocamp	-12.1661
▁Exact	-12.1661
▁altruism	-12.1661
▁certificate	-12.1661
▁equator	-12.1661
▁lesbian	-12.1661
▁mutilat	-12.1661
▁nanoparticle	-12.1661
▁opponent	-12.1661
▁radar	-12.1661
▁calci	-12.1661
▁eager	-12.1661
▁wavelength	-12.1661
▁Guinea	-12.1661
▁dude	-12.1661
▁dentist	-12.1661
▁tapir	-12.1661
▁Solar	-12.1661
▁Mount	-12.1662
▁constructive	-12.1663
▁PR	-12.1664
▁gait	-12.1665
▁bioma	-12.1665
oth	-12.1669
▁herd	-12.167
▁Hol	-12.1671
train	-12.1671
▁booth	-12.1672
▁diplomat	-12.1676
ette	-12.1677
▁Buddhist	-12.1681
▁declar	-12.1682
▁Ky	-12.1685
▁humid	-12.1689
▁Dave	-12.1694
ado	-12.1694
▁Eight	-12.1696
▁cooling	-12.1705
weight	-12.1707
second	-12.1708
rhythm	-12.1711
▁sock	-12.1721
▁void	-12.1724
▁venue	-12.1728
ui	-12.1732
ogue	-12.1733
▁epic	-12.1738
▁Fl	-12.1742
len	-12.1744
▁erase	-12.1745
▁activis	-12.1749
▁160	-12.1765
▁inefficient	-12.1768
▁rip	-12.1775
▁skip	-12.1785
▁presum	-12.1787
▁Hundred	-12.1798
▁Magazine	-12.1798
▁chord	-12.1798
▁condemn	-12.1798
▁nuance	-12.1798
▁Excuse	-12.1798
▁Alpha	-12.1798
▁wetsuit	-12.1798
▁Zip	-12.1798
▁packet	-12.1798
ox	-12.1799
▁Alright	-12.1799
▁midnight	-12.18
▁iteration	-12.18
▁Georgia	-12.18
▁Mola	-12.1801
▁Notice	-12.1801
▁morph	-12.1802
▁Nine	-12.1804
▁Palestine	-12.1805
▁matche	-12.1807
▁biotechnolog	-12.1807
ronto	-12.181
▁cognition	-12.1812
▁Kenyan	-12.1813
cus	-12.1814
▁Inter	-12.1814
▁fungi	-12.1814
▁populat	-12.1816
▁conductor	-12.1816
▁cerebr	-12.1818
▁rubb	-12.1829
▁Face	-12.183
▁Mama	-12.1835
▁spy	-12.184
▁behav	-12.1842
plus	-12.1847
▁Dam	-12.1858
her	-12.1863
▁organizer	-12.187
▁tender	-12.1877
itch	-12.1877
▁frequent	-12.1883
▁fled	-12.1886
▁freeway	-12.189
zle	-12.1894
▁occupation	-12.1899
▁Jay	-12.19
q	-12.19
▁incidental	-12.1915
cast	-12.1917
FL	-12.1928
▁hung	-12.1929
▁mastery	-12.193
MW	-12.1931
▁Use	-12.1932
▁lure	-12.1933
▁Ni	-12.1933
▁echo	-12.1933
▁sculpt	-12.1935
▁chat	-12.1935
▁Arduino	-12.1937
▁sulfide	-12.1937
▁irrelevan	-12.1937
▁extremism	-12.1937
▁consultant	-12.1937
▁supercomputer	-12.1937
▁Among	-12.1937
▁instinctive	-12.1937
▁verge	-12.1938
▁billboard	-12.1938
▁execution	-12.1939
▁fung	-12.1939
▁Lewi	-12.194
▁swear	-12.1941
▁arrange	-12.1942
▁magician	-12.1942
▁embark	-12.1942
▁reconstruction	-12.1944
mino	-12.1949
▁shortage	-12.1949
▁analytical	-12.195
▁generalize	-12.1958
▁Case	-12.1959
▁Pop	-12.1964
▁Allen	-12.1965
ament	-12.1977
▁hacker	-12.1977
▁Bu	-12.198
▁fundrais	-12.1982
▁ruler	-12.1985
▁accommodate	-12.1985
▁builder	-12.1987
hen	-12.1989
▁eighth	-12.2002
ire	-12.2006
tter	-12.2006
▁Rena	-12.2021
▁Hel	-12.2027
▁appl	-12.2037
▁preferr	-12.2037
▁Van	-12.2047
▁environmentally	-12.2051
rick	-12.2053
teem	-12.2055
rap	-12.2062
▁antibod	-12.2066
▁GG	-12.2069
▁tooth	-12.2073
▁ISIS	-12.2078
▁Major	-12.2078
▁testimon	-12.2078
▁Common	-12.2078
▁lamb	-12.2078
▁urine	-12.2078
▁Text	-12.2078
▁mortgage	-12.2078
▁shuttle	-12.2078
▁Abraham	-12.2078
▁Spider	-12.2078
▁coworker	-12.2078
▁discard	-12.2078
▁Stay	-12.2078
▁superhero	-12.2078
▁Ninety	-12.2078
▁missile	-12.2078
▁Slow	-12.2079
▁mandate	-12.208
▁Game	-12.2081
▁guideline	-12.2081
▁scaled	-12.2082
▁misuse	-12.2083
▁overload	-12.2084
▁Port	-12.2086
▁rehabilitati	-12.2086
▁posture	-12.2087
▁prop	-12.2087
▁flags	-12.2088
▁Uber	-12.2088
▁innate	-12.2096
▁auditorium	-12.2097
▁rendering	-12.2097
▁escap	-12.2097
▁sleeve	-12.21
▁Gall	-12.2106
▁plasma	-12.2107
▁Happ	-12.2115
▁Qu	-12.2126
massive	-12.2131
driving	-12.2131
▁voluntary	-12.2133
corn	-12.2134
ended	-12.214
eur	-12.2142
▁Mal	-12.2147
▁logistic	-12.2153
▁traveler	-12.2166
▁Job	-12.2167
▁token	-12.2168
▁KB	-12.2171
▁bra	-12.2172
▁skie	-12.2178
▁grim	-12.2179
ku	-12.2181
▁carrier	-12.2182
▁refin	-12.2192
▁loser	-12.2205
▁invade	-12.2207
▁Scratch	-12.222
▁exclude	-12.222
▁snapshot	-12.222
▁decentraliz	-12.222
▁Stein	-12.222
▁monk	-12.222
▁pollutant	-12.2221
▁blanket	-12.2221
▁phosphorus	-12.2221
▁shortcut	-12.2222
▁revolutionize	-12.2223
▁beekeeper	-12.2223
▁93	-12.2223
▁cabin	-12.2224
▁Europ	-12.2226
disproportionate	-12.2227
▁waterfall	-12.2227
▁generator	-12.2231
etic	-12.2231
ologist	-12.2232
▁grind	-12.2233
▁playground	-12.2233
▁Fox	-12.2234
▁meaningless	-12.2236
▁puncture	-12.2237
▁causal	-12.2241
▁tilt	-12.2241
▁radioactiv	-12.2242
▁glory	-12.2243
▁promotion	-12.2246
▁Nan	-12.2246
story	-12.2252
▁wishe	-12.2258
▁sexualit	-12.2259
▁Han	-12.226
▁OE	-12.226
▁towns	-12.2263
▁Bruc	-12.2267
▁purchas	-12.2268
▁exceed	-12.2268
ev	-12.2273
▁rockets	-12.2273
eith	-12.2274
ug	-12.2275
positive	-12.2276
polar	-12.2276
group	-12.2276
▁poo	-12.2279
dental	-12.2286
▁fec	-12.2289
▁alliance	-12.2295
▁Rea	-12.2299
▁hypothes	-12.2306
▁lander	-12.2317
▁cooler	-12.232
▁Baby	-12.2325
▁Buy	-12.2326
▁rides	-12.2326
▁ridge	-12.2333
▁invad	-12.2336
▁Davi	-12.2336
600	-12.2342
▁monument	-12.2343
▁depressing	-12.235
▁stat	-12.2351
peech	-12.2362
▁refrigerat	-12.2363
▁Nanopatch	-12.2365
▁Venezuela	-12.2365
▁respirator	-12.2365
▁sapien	-12.2365
▁vulture	-12.2365
▁Window	-12.2365
▁scroll	-12.2365
▁Portug	-12.2365
▁stiff	-12.2365
▁bloom	-12.2366
uddin	-12.2366
▁exile	-12.2366
▁shallow	-12.2366
▁suburban	-12.2367
▁distress	-12.2367
bama	-12.2367
rosion	-12.2367
▁grassland	-12.2368
counterintuitive	-12.2368
▁possession	-12.2368
▁nanotechnolog	-12.237
▁stall	-12.2372
▁troll	-12.2379
▁daylight	-12.2379
▁polls	-12.2383
▁Forty	-12.239
▁attraction	-12.2391
▁DM	-12.2392
ndex	-12.2392
▁spott	-12.2394
▁50-	-12.2394
code	-12.2395
▁GM	-12.2396
blowing	-12.2397
▁enforce	-12.2398
standing	-12.2403
▁Code	-12.2404
▁Ti	-12.2405
▁NA	-12.2408
ups	-12.2418
lcome	-12.2418
ult	-12.2421
▁Bab	-12.2422
great	-12.2423
week	-12.2423
▁AB	-12.2424
oriented	-12.2429
▁rag	-12.2429
▁Jon	-12.243
▁Cel	-12.2433
▁courts	-12.2437
▁Pen	-12.2445
▁tackl	-12.2454
▁68	-12.2462
▁decode	-12.2474
▁feeds	-12.2478
▁heartbreak	-12.2482
▁Save	-12.249
▁susceptib	-12.2495
▁Williams	-12.25
▁Pal	-12.2507
▁straw	-12.251
▁alphabet	-12.251
▁tutor	-12.2512
utheast	-12.2512
▁Cameron	-12.2512
▁Dallas	-12.2512
▁juvenile	-12.2512
▁meadow	-12.2512
▁nickname	-12.2512
▁paragraph	-12.2512
▁relevanc	-12.2512
▁ruling	-12.2512
▁plague	-12.2512
▁Depressio	-12.2512
▁energetic	-12.2512
▁seamless	-12.2512
▁barbershop	-12.2512
▁grape	-12.2513
▁Roger	-12.2513
▁Whitopia	-12.2513
▁Short	-12.2513
▁chore	-12.2513
▁admission	-12.2513
▁mama	-12.2513
▁claw	-12.2513
▁Oak	-12.2513
▁swamp	-12.2514
▁submersible	-12.2514
▁Norman	-12.2516
▁stain	-12.2516
▁backpack	-12.2517
▁Harle	-12.252
▁Mayor	-12.2524
▁cracked	-12.2525
▁tuck	-12.2527
▁budd	-12.2527
oid	-12.2532
▁miner	-12.2533
ER	-12.2533
▁divergen	-12.2534
mel	-12.2537
thic	-12.2543
▁Mad	-12.2546
▁morally	-12.2547
▁composer	-12.2548
▁resonate	-12.2551
▁slipp	-12.2551
▁outlet	-12.2553
▁welcom	-12.2554
▁Frankl	-12.2556
▁mysteri	-12.2556
ear	-12.256
▁axe	-12.256
child	-12.2563
▁haunt	-12.2564
▁Den	-12.2565
▁bounc	-12.2565
val	-12.2571
▁AT	-12.2574
▁dip	-12.2577
▁protecti	-12.2587
▁Carol	-12.2588
▁poetic	-12.2594
▁repli	-12.2601
▁beard	-12.2603
efficient	-12.2604
ani	-12.2609
eague	-12.261
▁AD	-12.2615
▁eradicate	-12.2618
▁Plan	-12.2622
▁pal	-12.2632
▁worship	-12.2634
ograph	-12.2644
▁cab	-12.2651
▁commoditi	-12.2652
▁fad	-12.2653
▁Julian	-12.2655
▁incorporate	-12.2656
etween	-12.266
▁negotiat	-12.2661
▁thermo	-12.2661
low	-12.2661
▁Solomon	-12.2662
▁Ushahidi	-12.2662
▁burial	-12.2662
▁catalyst	-12.2662
▁concussion	-12.2662
▁kindergarten	-12.2662
▁remittance	-12.2662
▁inexpensive	-12.2662
▁laundr	-12.2662
▁vacan	-12.2662
▁firefl	-12.2663
▁58	-12.2663
▁humiliation	-12.2664
▁expressive	-12.2665
▁Margar	-12.2666
▁pore	-12.267
▁simplify	-12.2674
▁rescu	-12.2677
▁culturally	-12.2677
▁Bad	-12.2679
imi	-12.268
▁northeast	-12.2681
▁Citi	-12.2685
▁Justine	-12.2686
quatic	-12.2686
▁coherent	-12.2689
00	-12.269
▁technologist	-12.2701
burg	-12.2702
▁185	-12.2704
▁brin	-12.2711
ennis	-12.2713
section	-12.2714
▁experimentation	-12.2715
sharing	-12.2718
▁blurr	-12.272
▁immers	-12.2721
edge	-12.2723
▁corresponding	-12.2723
▁margins	-12.273
▁patholog	-12.2741
▁pops	-12.2748
▁annoying	-12.2749
▁runner	-12.2752
▁locate	-12.2754
▁Top	-12.2757
mar	-12.2761
▁articulate	-12.2762
TO	-12.2772
▁daf	-12.2777
▁Russe	-12.2782
▁Bosnia	-12.2784
▁Shi	-12.2785
▁unifie	-12.2786
esday	-12.2788
▁emitt	-12.2791
▁wel	-12.2793
oma	-12.2793
▁nurture	-12.2794
▁Ban	-12.2795
▁collaps	-12.2797
▁cr	-12.2802
▁cosmolog	-12.2802
▁improbab	-12.2804
▁arrang	-12.2806
bi	-12.2807
▁caps	-12.281
▁chick	-12.281
▁Copernic	-12.2813
▁Pittsburg	-12.2813
▁Pixar	-12.2813
▁millisecond	-12.2813
▁timber	-12.2813
▁Toyota	-12.2813
▁gadget	-12.2813
▁Control	-12.2813
▁lettuce	-12.2813
▁Galile	-12.2813
▁tolerate	-12.2813
▁pinpoint	-12.2813
▁supernova	-12.2813
▁complication	-12.2813
▁urgenc	-12.2814
▁counterpart	-12.2814
▁astronomical	-12.2814
▁Rick	-12.2814
▁delete	-12.2815
▁embarrassment	-12.2815
▁announcement	-12.2815
▁complaint	-12.2815
▁laz	-12.2815
▁Huh	-12.2816
ovember	-12.2816
▁hind	-12.2817
▁Titanic	-12.2818
▁livelihood	-12.2819
▁establishment	-12.282
▁slaughter	-12.2822
eak	-12.2822
ew	-12.2823
▁cheek	-12.2823
▁comprehensive	-12.2824
▁disruption	-12.2824
▁sketche	-12.2826
▁proton	-12.2828
▁attorney	-12.283
▁Ja	-12.2832
▁superintelligen	-12.2834
▁subsid	-12.2842
▁loyalt	-12.2843
▁plugg	-12.2845
▁Dear	-12.285
solv	-12.2861
▁partially	-12.2862
▁mobiliz	-12.2866
▁Alic	-12.2867
ira	-12.2868
press	-12.2875
bucks	-12.2877
Mart	-12.2877
nutrition	-12.2881
▁penetrate	-12.2889
▁doodl	-12.2892
▁collide	-12.2892
▁spit	-12.2899
▁Cor	-12.2899
▁constitute	-12.2902
offs	-12.2906
▁Missi	-12.2907
▁MA	-12.2918
▁SB	-12.292
gua	-12.2925
▁Eighty	-12.293
cher	-12.2941
▁flap	-12.2945
▁union	-12.2947
▁marginaliz	-12.295
▁declare	-12.295
era	-12.295
berry	-12.2955
▁plankt	-12.2955
scape	-12.2959
win	-12.2961
▁possess	-12.2964
▁compass	-12.2964
▁Taiwan	-12.2967
▁algebra	-12.2967
▁applaud	-12.2967
▁bureaucrac	-12.2967
▁metronome	-12.2967
▁Record	-12.2967
▁balcon	-12.2967
▁Dream	-12.2967
▁ethanol	-12.2967
▁Saint	-12.2967
▁instantaneous	-12.2967
▁Serious	-12.2967
▁draft	-12.2967
▁Archimed	-12.2967
▁rigorous	-12.2967
▁bombsight	-12.2967
,200	-12.2967
▁rover	-12.2968
▁jean	-12.2968
▁vicious	-12.2968
▁jur	-12.2969
▁Self	-12.2969
▁Rule	-12.297
▁Father	-12.297
▁Za	-12.2971
▁chill	-12.2972
▁joyful	-12.2975
▁auditor	-12.2976
▁slamm	-12.2978
▁payoff	-12.2981
▁propeller	-12.2981
▁500,000	-12.2983
▁spaceship	-12.2983
▁signing	-12.2984
ick	-12.2988
▁Along	-12.2991
▁blogger	-12.2994
▁poly	-12.2994
▁Amand	-12.2995
▁unaware	-12.2996
▁soar	-12.2996
▁reasonabl	-12.2996
▁dual	-12.2999
ada	-12.3001
flow	-12.3006
▁imitate	-12.3007
icious	-12.3008
▁va	-12.3018
▁Fo	-12.3018
ou	-12.3025
▁flush	-12.3025
▁reflectiv	-12.3027
▁curv	-12.3028
▁Patient	-12.3035
▁Stor	-12.3041
▁Nu	-12.3043
▁Kal	-12.3045
▁Fair	-12.3054
▁Lady	-12.3057
▁mentors	-12.3062
▁Ke	-12.3064
▁clon	-12.3077
▁animate	-12.308
emost	-12.3095
▁compose	-12.3101
▁reache	-12.3105
▁surge	-12.3108
▁sentiment	-12.3109
▁fails	-12.3111
▁clone	-12.3112
ington	-12.3113
▁blam	-12.3113
▁corp	-12.3118
▁Vent	-12.3118
fensive	-12.3123
ã	-12.3123
▁McDonald	-12.3123
▁PowerPoint	-12.3123
▁mundan	-12.3123
▁Hondura	-12.3123
▁bonobo	-12.3123
▁implicit	-12.3123
▁plaster	-12.3123
▁Desert	-12.3123
▁chalk	-12.3123
▁Armstrong	-12.3123
▁identification	-12.3123
▁relentless	-12.3123
▁excerpt	-12.3123
▁reckless	-12.3124
▁perpetrator	-12.3124
▁obey	-12.3124
▁propell	-12.3124
acci	-12.3124
▁distinctive	-12.3124
▁Pink	-12.3125
▁Defen	-12.3125
▁Balti	-12.3125
▁breakdown	-12.3127
▁explosive	-12.3127
▁BJ	-12.3127
▁bay	-12.3128
▁sword	-12.3128
Barack	-12.3132
▁motorcycle	-12.3133
▁rib	-12.3134
▁unthink	-12.3134
▁Politic	-12.3136
▁optimal	-12.3137
met	-12.3138
▁Radio	-12.3139
▁functionalit	-12.3144
apped	-12.3145
▁paradi	-12.3151
▁improvise	-12.3151
los	-12.3156
▁tether	-12.3158
cumen	-12.316
▁merg	-12.3161
▁consideration	-12.3163
everal	-12.3165
▁Award	-12.3178
found	-12.318
▁unto	-12.3194
own	-12.3197
▁dedicate	-12.3198
speak	-12.3198
energy	-12.3209
▁enthusiastic	-12.3209
▁vet	-12.3211
▁Ell	-12.3212
▁hacked	-12.3217
▁Q	-12.3218
lé	-12.3221
▁virtu	-12.3223
ctor	-12.3226
▁merge	-12.323
▁casual	-12.3233
▁360	-12.3236
▁gam	-12.3238
▁13-	-12.3241
nmark	-12.3245
▁controller	-12.3249
▁lin	-12.325
▁mistaken	-12.325
▁supporti	-12.3251
saw	-12.3254
▁memorize	-12.3255
▁sting	-12.3256
▁peaks	-12.3256
▁brows	-12.3257
▁stereo	-12.3263
▁protester	-12.3266
▁MP	-12.3268
ji	-12.3271
▁00	-12.328
▁cris	-12.328
▁subtract	-12.3281
▁reflex	-12.3282
▁sympath	-12.3282
▁Norwegian	-12.3282
▁ambiguit	-12.3282
▁responsive	-12.3282
▁unfamiliar	-12.3282
▁monarch	-12.3282
▁pivot	-12.3282
▁gossip	-12.3282
▁doctrine	-12.3282
▁orphanage	-12.3283
▁Olive	-12.3283
▁prox	-12.3283
uver	-12.3285
▁knot	-12.3285
▁modular	-12.3286
▁Strange	-12.3286
▁prescribe	-12.3286
▁parade	-12.3287
▁deployment	-12.3287
▁physiological	-12.3288
▁bonus	-12.3288
▁placebo	-12.3292
onze	-12.3292
bone	-12.3294
▁summar	-12.3296
▁geographic	-12.3297
▁Often	-12.3302
▁boyfriend	-12.3303
▁hence	-12.3309
▁anchor	-12.331
In	-12.3311
▁bury	-12.3312
▁rac	-12.3327
▁keys	-12.3333
▁teens	-12.3342
▁porn	-12.3343
▁invasive	-12.3347
▁KA	-12.335
▁Forget	-12.3355
peer	-12.3367
ase	-12.337
run	-12.337
▁IQ	-12.3374
▁ethnicit	-12.3376
▁env	-12.3384
▁91	-12.3388
▁visualiz	-12.339
▁feminis	-12.3391
▁optimiz	-12.3392
mine	-12.3393
16	-12.3396
home	-12.3397
genesis	-12.3401
handed	-12.3404
nonymous	-12.3406
▁messag	-12.341
▁Teach	-12.3413
▁dread	-12.3414
▁interfere	-12.3417
▁regulat	-12.3419
▁synthesize	-12.3419
▁deer	-12.3419
▁dispers	-12.3428
▁Type	-12.3429
print	-12.343
▁believer	-12.3431
▁arous	-12.3438
%	-12.3443
▁anecdote	-12.3443
▁apparatus	-12.3443
▁asphalt	-12.3443
▁convenience	-12.3443
▁hectare	-12.3443
▁mammogram	-12.3443
▁orangutan	-12.3443
▁serotonin	-12.3443
▁suicidal	-12.3443
▁sulfur	-12.3443
▁taxpayer	-12.3443
▁template	-12.3443
▁Convention	-12.3443
▁cubic	-12.3443
▁cemeter	-12.3443
▁conscience	-12.3443
▁biofuel	-12.3443
▁microwave	-12.3443
▁pension	-12.3444
▁CIA	-12.3444
▁dictator	-12.3444
▁preschool	-12.3444
▁notebook	-12.3444
▁instructor	-12.3444
▁font	-12.3445
▁Democratic	-12.3446
▁slot	-12.3446
▁beast	-12.3447
▁gel	-12.3447
▁heroin	-12.3447
▁Tasmanian	-12.3451
▁100-	-12.3454
regulat	-12.3456
▁rally	-12.3456
▁jacket	-12.3456
▁Eden	-12.3457
▁Cloud	-12.3458
▁efficac	-12.3466
▁elevat	-12.3467
ement	-12.3469
▁hike	-12.3471
ithium	-12.3473
▁Pass	-12.3475
▁intimidat	-12.3479
saving	-12.3486
▁contemplat	-12.3497
▁Jacque	-12.35
▁Agenc	-12.3516
▁infidel	-12.3518
▁loneli	-12.3518
▁Wit	-12.3525
▁evaporat	-12.3525
▁complet	-12.3526
▁Aust	-12.3526
food	-12.3527
▁globaliz	-12.3537
▁laying	-12.3538
▁Hard	-12.3539
▁halve	-12.3541
▁indicat	-12.355
▁CC	-12.3551
heid	-12.3551
▁permit	-12.3557
port	-12.3559
huse	-12.3563
▁timeline	-12.3565
▁Abu	-12.357
reach	-12.3571
▁frontal	-12.3577
á	-12.3578
last	-12.3581
▁seasonal	-12.3584
▁emergen	-12.359
▁commands	-12.3591
gas	-12.3592
▁bent	-12.3593
▁anesthesi	-12.3595
log	-12.3595
▁Lind	-12.3595
▁millenni	-12.3598
▁emphasi	-12.3603
▁classifi	-12.3606
▁waist	-12.3607
▁DARPA	-12.3607
▁Jennifer	-12.3607
▁Netflix	-12.3607
▁Oregon	-12.3607
▁disparate	-12.3607
▁redundan	-12.3607
▁unpleasant	-12.3607
▁ingenious	-12.3607
▁toddler	-12.3607
▁Nichol	-12.3607
▁Conference	-12.3607
▁dictatorship	-12.3607
▁illiterate	-12.3607
elecommunication	-12.3607
▁censorship	-12.3607
▁variant	-12.3607
▁hurdle	-12.3608
▁Master	-12.3608
▁advertisement	-12.3608
▁payload	-12.3608
▁evaluation	-12.3609
▁Truth	-12.3609
▁Islamist	-12.3609
▁confession	-12.361
▁electora	-12.3611
don	-12.3611
▁Tor	-12.3611
▁railway	-12.3612
▁mantra	-12.3613
▁Fall	-12.3615
▁loo	-12.362
▁rotation	-12.3624
▁violat	-12.3627
zing	-12.363
▁hazard	-12.3632
test	-12.3635
RN	-12.3638
▁fl	-12.3639
▁visi	-12.364
▁Hud	-12.364
ata	-12.3644
▁forbid	-12.3648
▁ripped	-12.3655
nel	-12.3662
▁surf	-12.3663
▁lense	-12.3663
▁ballet	-12.367
controll	-12.367
▁weave	-12.3673
mate	-12.3676
▁annoy	-12.3678
,	-12.3682
protect	-12.3684
brew	-12.3685
▁Um	-12.3687
▁decorat	-12.3691
▁cock	-12.3701
▁tactic	-12.3704
▁appreciati	-12.3707
linear	-12.3708
bil	-12.3712
▁Hadr	-12.3719
▁persever	-12.3721
▁Nic	-12.3724
▁Forest	-12.3728
▁78	-12.373
▁merit	-12.373
nal	-12.3748
▁Pol	-12.3748
▁du	-12.375
▁fleet	-12.3751
▁82	-12.3753
▁partial	-12.3755
▁financially	-12.3758
▁zip	-12.376
▁overlap	-12.376
▁lend	-12.376
▁numb	-12.3762
▁Whit	-12.3764
▁Wonder	-12.377
▁Tibet	-12.3773
▁Francis	-12.3774
▁Falcon	-12.3774
▁delusion	-12.3774
▁grassroots	-12.3774
▁miraculous	-12.3774
▁salmon	-12.3774
▁swirl	-12.3774
▁discomfort	-12.3774
▁reconciliation	-12.3774
▁seizure	-12.3774
▁Discover	-12.3774
▁Montana	-12.3774
▁charisma	-12.3774
▁vector	-12.3774
▁exclusion	-12.3774
▁fingerprint	-12.3774
▁bald	-12.3774
▁subset	-12.3775
▁ozone	-12.3775
▁outrageous	-12.3775
▁immunit	-12.3776
▁scout	-12.3777
▁Image	-12.3777
▁16-	-12.3779
▁mash	-12.378
▁memorabl	-12.378
▁attachment	-12.3781
▁Darwinian	-12.3782
▁abusi	-12.3784
▁crown	-12.3788
▁remark	-12.3788
▁reluctant	-12.3789
▁carti	-12.3791
breaking	-12.3794
▁Head	-12.3802
sterda	-12.3803
▁acceleration	-12.3804
▁verse	-12.3807
ford	-12.3816
▁Fast	-12.3825
▁Ted	-12.3829
▁divin	-12.3838
inda	-12.3846
▁neo	-12.3849
room	-12.3854
▁cri	-12.3855
▁dictate	-12.3858
▁uprising	-12.386
▁evaporate	-12.3862
tability	-12.3871
▁rubbl	-12.3876
▁hatch	-12.3881
▁hostilit	-12.3883
▁heated	-12.3884
▁fur	-12.3886
▁emission	-12.3887
▁originate	-12.3889
.3	-12.3902
▁Stan	-12.3905
▁forbidd	-12.3907
▁temporari	-12.3909
ction	-12.3912
shi	-12.3913
▁mediate	-12.3919
▁stimulat	-12.3922
▁Bel	-12.3927
▁undermine	-12.3929
▁clap	-12.393
▁mortal	-12.3938
▁resign	-12.3941
▁Rise	-12.3942
▁Federal	-12.3943
▁Further	-12.3943
▁ambassador	-12.3943
▁cafeteria	-12.3943
▁rainbow	-12.3943
▁skyscraper	-12.3943
▁vegetarian	-12.3943
▁Lawrence	-12.3943
▁spawn	-12.3943
▁elastic	-12.3943
▁orgasm	-12.3943
▁Panama	-12.3943
▁neurologist	-12.3944
▁grit	-12.3944
▁Bono	-12.3944
▁tribute	-12.3944
▁squeak	-12.3944
▁Fire	-12.3944
▁pedal	-12.3944
▁biotech	-12.3944
ahren	-12.3944
▁carpenter	-12.3945
▁Dark	-12.3945
▁Break	-12.3946
▁miser	-12.3946
▁Fib	-12.3946
▁counselor	-12.3946
▁distraction	-12.3946
▁Susan	-12.3947
▁simplistic	-12.3948
editerranea	-12.3949
▁Near	-12.3952
▁dragon	-12.3952
▁contributor	-12.3953
▁portal	-12.3955
▁Vanco	-12.3955
▁tun	-12.3956
▁Cross	-12.3957
▁measl	-12.3959
▁commerc	-12.3962
▁sho	-12.3964
▁Anas	-12.3964
▁socket	-12.3973
qui	-12.3974
▁riches	-12.3975
▁Wire	-12.3983
▁attacker	-12.3984
▁Christians	-12.3986
▁sta	-12.3988
ibera	-12.3993
pr	-12.3993
ureau	-12.3998
perform	-12.4004
▁distract	-12.4009
▁stab	-12.401
▁astonish	-12.4019
▁offend	-12.402
▁yog	-12.402
market	-12.4026
▁sav	-12.4027
piece	-12.4028
▁rival	-12.4033
▁nurs	-12.4035
llen	-12.4036
▁peel	-12.4043
▁curl	-12.4044
▁participator	-12.4051
▁correction	-12.4052
▁nun	-12.4054
▁liberate	-12.4055
▁40-	-12.4066
▁Kent	-12.4067
▁circulat	-12.4073
▁tele	-12.408
erial	-12.4082
▁hom	-12.4083
▁torn	-12.4088
▁inspirational	-12.4089
TA	-12.4096
▁den	-12.4101
▁swap	-12.4102
▁snap	-12.4102
▁contradict	-12.4113
diac	-12.4114
▁patriarch	-12.4116
▁peanut	-12.4116
▁Current	-12.4116
▁dwarf	-12.4116
▁whistleblower	-12.4116
▁plaque	-12.4116
▁gorilla	-12.4116
▁holistic	-12.4116
▁biosphere	-12.4116
▁cosmetic	-12.4116
▁rooftop	-12.4116
▁1940	-12.4116
▁unsustainabl	-12.4116
▁imaginative	-12.4117
ctopus	-12.4117
▁crust	-12.4117
▁Fear	-12.4117
▁bloodstream	-12.4117
▁abnormal	-12.4118
▁reconnect	-12.4118
▁viewpoint	-12.4119
▁lightweight	-12.4119
▁reside	-12.4122
▁recommendation	-12.4122
▁nin	-12.4122
▁Intel	-12.4123
▁excellence	-12.4123
▁bully	-12.4124
▁Julie	-12.4125
▁confrontation	-12.4126
▁princess	-12.4129
▁Tree	-12.4129
▁composite	-12.413
▁certifi	-12.4131
▁contractor	-12.4132
▁450	-12.4132
odd	-12.4137
▁energiz	-12.4138
▁synchronize	-12.4139
liberation	-12.4139
▁evident	-12.414
▁trillions	-12.4149
nny	-12.4154
▁differential	-12.4162
ssociation	-12.4163
axis	-12.4165
▁Las	-12.4166
▁intercept	-12.4166
scribe	-12.4169
▁collector	-12.4175
ix	-12.4176
▁beep	-12.4179
tting	-12.4182
▁skirt	-12.4183
▁buck	-12.4184
racing	-12.4186
shine	-12.4203
olm	-12.4205
math	-12.4209
▁dodo	-12.4214
▁gentl	-12.4216
▁initiat	-12.4219
link	-12.4221
▁discriminat	-12.4228
▁Luc	-12.4231
▁adjacen	-12.4232
▁width	-12.4232
▁animat	-12.4233
eddy	-12.4238
▁projector	-12.4247
eb	-12.425
▁LI	-12.4252
▁backward	-12.4255
▁migrat	-12.4257
▁elevate	-12.426
▁boot	-12.4263
▁Rica	-12.4263
▁deflect	-12.4267
▁83	-12.4269
mus	-12.427
wash	-12.4274
▁Zo	-12.4274
MF	-12.4278
▁Beck	-12.428
▁Les	-12.4288
ambiguous	-12.4289
▁feat	-12.4291
▁epilep	-12.4291
@	-12.4291
▁Democracy	-12.4291
▁Dreyfus	-12.4291
▁empirical	-12.4291
▁filament	-12.4291
▁prevalent	-12.4291
▁sprawl	-12.4291
▁homosexual	-12.4291
▁plural	-12.4291
▁decease	-12.4291
▁pneumo	-12.4291
▁Proust	-12.4291
▁Shoot	-12.4291
▁Bonobo	-12.4291
▁appliance	-12.4291
▁Senat	-12.4291
▁scandal	-12.4291
▁microRNA	-12.4291
▁Group	-12.4291
▁uh	-12.4291
▁rediscover	-12.4292
▁curb	-12.4292
▁lava	-12.4293
▁Native	-12.4293
▁Irish	-12.4294
▁Million	-12.4294
▁lyric	-12.4294
▁1982	-12.4297
▁Sri	-12.4299
▁clinician	-12.4299
▁navigation	-12.4301
▁shovel	-12.4303
▁criticize	-12.4304
▁clapp	-12.4305
▁Teacher	-12.431
▁cultivat	-12.4311
▁Julia	-12.4317
zoning	-12.432
▁po	-12.4324
▁Robin	-12.4325
▁persistent	-12.4333
avian	-12.4335
▁synchron	-12.4338
▁respectful	-12.434
▁casualt	-12.4346
▁queue	-12.4352
▁wearable	-12.436
▁charming	-12.4365
▁sponge	-12.4367
▁execut	-12.4373
▁floors	-12.4373
bound	-12.4379
people	-12.438
rill	-12.4382
▁BC	-12.4382
▁Cooper	-12.439
▁improvisation	-12.4392
onic	-12.4394
explored	-12.44
▁57	-12.4401
ough	-12.4401
dor	-12.4402
▁180	-12.4404
▁nap	-12.4405
paid	-12.4406
limited	-12.4406
▁fram	-12.4411
roll	-12.4418
stein	-12.4419
ouri	-12.442
▁brillian	-12.4421
▁rect	-12.4423
▁genital	-12.4432
bath	-12.4432
▁mines	-12.4436
▁Cambodia	-12.4441
sight	-12.4443
ella	-12.445
▁Uh	-12.4454
▁strap	-12.4456
▁Living	-12.4457
ians	-12.4458
▁whip	-12.4462
▁kin	-12.4463
▁renew	-12.4468
▁embed	-12.447
▁Amazing	-12.447
▁Grace	-12.447
▁Murray	-12.447
▁Sebastia	-12.447
▁amplify	-12.447
▁appetite	-12.447
▁athletic	-12.447
▁junior	-12.447
▁spaghetti	-12.447
▁tyrann	-12.447
▁cereal	-12.447
▁erotic	-12.447
▁tweak	-12.447
▁pornograph	-12.447
▁solemn	-12.447
▁sanctuar	-12.447
▁Kelly	-12.447
▁incubator	-12.447
▁Motor	-12.447
▁pronounce	-12.447
▁MBA	-12.4471
▁unnatural	-12.4471
▁Magic	-12.4471
▁VR	-12.4471
▁ripple	-12.4471
▁cubicle	-12.4472
▁Massac	-12.4472
▁sterile	-12.4472
▁89	-12.4473
▁sprint	-12.4474
▁gum	-12.4474
▁resin	-12.4474
▁Sandy	-12.4475
▁Lang	-12.4475
▁reconcile	-12.4476
hrir	-12.4476
▁panick	-12.4476
▁twenty	-12.4477
▁peril	-12.4478
▁Khan	-12.4482
▁fundamentalist	-12.4483
▁Latino	-12.4484
▁RIS	-12.4486
▁MM	-12.4486
▁Archi	-12.4488
▁irritat	-12.4489
ib	-12.449
▁internationally	-12.4491
▁Brand	-12.4494
▁Mak	-12.4498
▁14-	-12.4498
▁intra	-12.4498
▁provoke	-12.4499
ester	-12.4501
▁intestine	-12.4507
gon	-12.4507
▁cha	-12.4513
built	-12.4513
▁dropout	-12.4514
▁archaeolog	-12.4521
▁supplier	-12.4522
idden	-12.4525
▁6.	-12.4526
▁Mala	-12.4529
▁ensur	-12.4536
arm	-12.4539
venue	-12.4542
▁Ap	-12.4542
ali	-12.4545
ulation	-12.4549
▁Chad	-12.4553
rado	-12.4555
▁beds	-12.4557
fund	-12.456
pped	-12.4562
Aid	-12.4563
▁dunes	-12.4566
ury	-12.4566
ros	-12.457
▁infuse	-12.4571
apping	-12.4579
▁Cap	-12.4579
▁qua	-12.4584
▁Mill	-12.4585
▁vapor	-12.4586
▁copi	-12.4596
inal	-12.4602
▁para	-12.4611
▁whil	-12.4614
▁Hu	-12.4621
▁redefin	-12.4623
▁pessimist	-12.4625
▁theft	-12.4631
▁degrade	-12.4638
▁perfection	-12.4641
▁cycl	-12.4643
▁influen	-12.4647
▁startup	-12.4649
▁hobby	-12.4651
▁Ukrain	-12.4651
▁fibro	-12.4651
▁petrol	-12.4652
▁Freud	-12.4652
▁constellation	-12.4652
▁giraffe	-12.4652
▁prompt	-12.4652
▁uranium	-12.4652
▁plume	-12.4652
▁Virtual	-12.4652
▁Rachel	-12.4652
▁roam	-12.4652
▁olive	-12.4652
▁thunder	-12.4652
▁courtyard	-12.4652
▁Financial	-12.4652
▁sentien	-12.4652
▁sociologist	-12.4652
▁Mahat	-12.4652
▁shaman	-12.4653
▁disappointment	-12.4653
▁forehead	-12.4653
▁headphone	-12.4653
▁sunset	-12.4653
▁Normal	-12.4654
▁curse	-12.4654
▁precipitat	-12.4655
▁fatty	-12.4655
▁serial	-12.4656
▁thigh	-12.4656
▁quer	-12.4656
▁dysfunctional	-12.4656
▁peek	-12.4656
▁forgiveness	-12.4657
nar	-12.4657
mendment	-12.4658
MI	-12.4659
▁wetland	-12.466
▁financ	-12.4661
▁pheromone	-12.4663
▁mot	-12.4666
▁Shake	-12.4667
▁drip	-12.4668
▁jumps	-12.4671
▁fictional	-12.4671
tification	-12.4673
▁125	-12.468
▁mob	-12.4682
▁repurpos	-12.4683
▁Ark	-12.4684
▁trickle	-12.4684
▁rena	-12.4684
▁hoo	-12.4689
▁reimagine	-12.4694
▁assured	-12.4703
-1	-12.4708
▁withdraw	-12.4711
EA	-12.4713
hole	-12.4717
▁digitiz	-12.4723
ged	-12.4726
▁200-	-12.4727
▁Guy	-12.473
▁Bring	-12.4731
▁downside	-12.4735
ock	-12.4737
▁Mart	-12.4738
▁restor	-12.4739
craft	-12.474
produc	-12.4744
▁secretar	-12.4745
white	-12.4747
For	-12.475
national	-12.4751
iel	-12.4754
▁insecurit	-12.4761
▁compensat	-12.4764
▁blur	-12.4764
▁champions	-12.4776
enture	-12.4776
She	-12.478
▁plunge	-12.4785
▁crie	-12.4793
▁Kim	-12.4797
▁Spin	-12.4809
▁dam	-12.4827
▁fet	-12.4829
tun	-12.4829
300	-12.4831
cientific	-12.4833
ijuana	-12.4835
▁quiz	-12.4835
▁Fantastic	-12.4837
▁Perfect	-12.4837
▁acquisition	-12.4837
▁census	-12.4837
▁diabetic	-12.4837
▁mammograph	-12.4837
▁marshmallow	-12.4837
▁ribbon	-12.4837
▁utopia	-12.4837
▁bruise	-12.4837
▁railroad	-12.4837
▁widow	-12.4837
▁capaciti	-12.4837
▁unveil	-12.4837
▁paranoi	-12.4837
▁bait	-12.4837
▁vague	-12.4837
▁progeri	-12.4837
▁Wilson	-12.4837
▁Economist	-12.4837
▁biomaterial	-12.4837
▁frantic	-12.4837
▁metropolitan	-12.4837
▁diffuse	-12.4837
▁1.4	-12.4837
▁Left	-12.4837
▁marble	-12.4837
ional	-12.4837
▁superstar	-12.4838
▁Sufi	-12.4838
▁Laborator	-12.4838
▁passport	-12.4838
▁Vienn	-12.4839
▁vendor	-12.4839
▁Getting	-12.4839
▁Coh	-12.4839
▁dislike	-12.4839
▁simulator	-12.484
▁84	-12.484
▁Marsha	-12.4842
▁confess	-12.4843
▁castle	-12.4844
wana	-12.4845
▁halt	-12.4846
▁flatten	-12.4846
▁rode	-12.4847
▁astounding	-12.485
▁homicide	-12.4851
▁beg	-12.4852
▁slipper	-12.4852
▁cub	-12.4853
▁Fey	-12.4855
▁PC	-12.4855
▁forager	-12.4856
▁competent	-12.4867
OS	-12.4867
▁linguistic	-12.4868
cuba	-12.4869
▁recreation	-12.4872
▁cult	-12.4874
shot	-12.4879
▁instrumental	-12.4879
istan	-12.488
gile	-12.4881
▁tomatoe	-12.4884
hran	-12.4889
▁Hum	-12.4889
bert	-12.4895
▁ser	-12.4901
▁hi	-12.4902
▁Joy	-12.4904
▁Hot	-12.4905
▁Samu	-12.4913
▁touche	-12.4917
▁spreads	-12.4925
TEM	-12.4928
▁buyer	-12.4939
cle	-12.4939
▁leaning	-12.4942
▁Connecti	-12.4943
▁multipli	-12.4949
▁alarming	-12.4952
text	-12.4955
▁Mil	-12.4979
anagement	-12.4981
taller	-12.4988
angular	-12.499
nergy	-12.5
▁smuggl	-12.5001
▁widen	-12.5015
del	-12.5017
▁Challenge	-12.5025
▁Guatemala	-12.5025
▁Hurricane	-12.5025
▁Katrina	-12.5025
▁amygdala	-12.5025
▁hominid	-12.5025
▁precursor	-12.5025
▁qualify	-12.5025
▁siege	-12.5025
▁snail	-12.5025
▁vibrant	-12.5025
▁repertoire	-12.5025
▁prestig	-12.5025
▁birch	-12.5025
▁multitask	-12.5026
▁nomad	-12.5026
▁inhabitant	-12.5026
▁Geoff	-12.5026
▁traumatiz	-12.5026
▁PRI	-12.5026
▁reception	-12.5027
▁Millenni	-12.5027
▁versa	-12.5027
ISA	-12.5027
▁56	-12.5027
Channel	-12.5028
▁tuition	-12.5029
ole	-12.5029
▁stance	-12.503
▁Hyper	-12.503
▁deem	-12.503
▁chop	-12.5032
ater	-12.5034
▁inclin	-12.5034
▁hygien	-12.5035
hypertensi	-12.5037
▁shove	-12.5038
pirac	-12.504
▁Brain	-12.504
▁Land	-12.5041
▁Beat	-12.5046
▁entr	-12.5047
▁arrival	-12.5051
▁warmth	-12.5051
▁zo	-12.5052
▁Juan	-12.5053
▁comb	-12.5054
▁mast	-12.5057
▁doll	-12.5057
▁MoM	-12.506
▁Pier	-12.5061
▁nourish	-12.5063
▁fitting	-12.5063
▁posting	-12.5066
▁commander	-12.5074
▁Rais	-12.5077
▁sham	-12.5085
city	-12.5086
▁inflate	-12.509
▁empathize	-12.5093
put	-12.5093
▁beans	-12.5096
▁opt	-12.5096
▁dissolve	-12.51
▁immersi	-12.5103
▁pod	-12.5106
▁Je	-12.5107
▁disappoint	-12.5113
▁shave	-12.5115
▁fairy	-12.5116
hat	-12.5117
▁Cars	-12.512
▁NO	-12.5126
chu	-12.5127
worm	-12.5129
case	-12.5129
▁objection	-12.5142
▁aura	-12.5145
skill	-12.5149
▁leverag	-12.5153
version	-12.5153
▁CT	-12.5156
▁escalat	-12.5164
sex	-12.5164
▁geometric	-12.5166
cho	-12.5168
5,000	-12.5173
▁foreigner	-12.5178
▁intentional	-12.5181
osphere	-12.5182
▁Shar	-12.5183
▁Ve	-12.5191
ón	-12.5198
key	-12.5202
▁flick	-12.5206
mega	-12.5216
▁Club	-12.5218
▁Language	-12.5218
▁Pearl	-12.5218
▁Voyage	-12.5218
▁Wednesday	-12.5218
▁bargain	-12.5218
▁insecticide	-12.5218
▁tectonic	-12.5218
▁DIY	-12.5218
▁moderate	-12.5218
▁sniff	-12.5218
▁alleged	-12.5218
▁Survey	-12.5218
▁penalt	-12.5218
▁Prison	-12.5218
▁Network	-12.5218
▁automo	-12.5218
▁imam	-12.5219
▁handbag	-12.5219
▁residential	-12.5219
▁bombard	-12.5219
▁Stockh	-12.5219
▁clash	-12.5219
▁audition	-12.522
▁76	-12.522
▁Tiger	-12.522
▁Coch	-12.5221
▁brute	-12.5221
structure	-12.5222
▁degradation	-12.5222
▁Understand	-12.5222
▁Ju	-12.5222
▁summon	-12.5222
▁Beep	-12.5223
▁bore	-12.5223
▁fond	-12.5226
▁accelerator	-12.5226
▁pollinator	-12.5226
▁underlie	-12.5226
▁Fa	-12.5227
▁Leave	-12.5229
▁anomal	-12.523
▁arithmetic	-12.5232
illa	-12.5234
▁preacher	-12.5235
▁graceful	-12.524
▁meditat	-12.5241
▁bladder	-12.5242
aving	-12.5242
▁agnostic	-12.5245
▁wrestl	-12.5248
▁communist	-12.5249
gged	-12.5252
▁relational	-12.5253
▁Nag	-12.5267
▁Jaw	-12.527
▁metaphorical	-12.5274
▁Pay	-12.5278
▁intentionally	-12.5278
▁biomedic	-12.5279
▁characteriz	-12.5281
▁chatt	-12.5282
▁Leo	-12.5291
▁ador	-12.5293
▁bearing	-12.5302
▁characterize	-12.5304
load	-12.5306
▁Ig	-12.5307
▁rhetoric	-12.5309
wall	-12.5312
▁Mou	-12.5314
▁Westerner	-12.5314
mission	-12.5317
▁scarc	-12.532
▁plank	-12.532
▁southwest	-12.5321
oil	-12.5324
▁bo	-12.5325
order	-12.5326
▁fertiliz	-12.5329
▁Veg	-12.5331
quarter	-12.5334
aba	-12.5344
working	-12.5354
▁systemic	-12.5356
ompassion	-12.5358
zed	-12.5358
▁imitat	-12.536
▁Cart	-12.5361
▁royal	-12.5364
▁Laur	-12.5365
▁IT	-12.5375
eign	-12.5375
ju	-12.5396
banish	-12.5398
▁0	-12.5399
▁Soon	-12.5399
▁convergen	-12.54
▁Incredible	-12.5401
range	-12.5402
▁nudge	-12.5404
effective	-12.5405
securit	-12.5405
nterviewer	-12.541
trude	-12.5411
▁untouch	-12.5411
▁misunderst	-12.5413
▁rhino	-12.5414
ö	-12.5414
_	-12.5414
▁Corporation	-12.5414
▁Pantheon	-12.5414
▁cherish	-12.5414
▁lightbulb	-12.5414
▁necessit	-12.5414
▁plummet	-12.5414
▁practitioner	-12.5414
▁reservoir	-12.5414
▁suspicion	-12.5414
▁yogurt	-12.5414
▁Broad	-12.5414
▁feasib	-12.5414
▁inquiry	-12.5414
▁Essential	-12.5414
▁hurry	-12.5414
elusive	-12.5414
▁garment	-12.5414
▁offense	-12.5414
▁fission	-12.5414
▁byproduct	-12.5414
▁pledge	-12.5414
▁hull	-12.5414
▁Point	-12.5414
▁polish	-12.5414
▁webcam	-12.5414
▁billionaire	-12.5414
▁Martian	-12.5415
▁foolish	-12.5415
▁Scottish	-12.5415
▁adverse	-12.5416
party	-12.5416
▁horrifi	-12.5416
▁pepper	-12.5416
▁rodent	-12.5416
clusion	-12.5417
▁Engineer	-12.5417
▁Hanna	-12.5417
▁Oil	-12.5417
▁ovari	-12.5418
▁activation	-12.542
marin	-12.5423
▁lous	-12.5423
▁Farmer	-12.5424
▁Clark	-12.5425
▁DC	-12.5426
▁mutate	-12.5426
▁eras	-12.5427
▁compatib	-12.5428
hire	-12.5428
caust	-12.5428
▁allocate	-12.5431
▁mimick	-12.5434
bed	-12.5435
▁Fat	-12.5437
▁Dai	-12.5439
▁Gen	-12.5439
most	-12.544
▁adviser	-12.5443
lines	-12.5448
▁drawer	-12.5453
▁fo	-12.5454
aque	-12.5459
▁Kind	-12.5464
▁pollut	-12.5468
ino	-12.5469
wire	-12.5469
▁inspect	-12.5471
TC	-12.5475
▁Chi	-12.5477
▁strapp	-12.5482
gatherer	-12.5483
eduction	-12.5484
ansa	-12.5495
▁Ida	-12.5498
▁INC	-12.5499
▁pine	-12.5504
▁Ready	-12.5507
▁soda	-12.5509
▁Philippi	-12.5512
▁66	-12.5518
lapse	-12.552
adequate	-12.5524
▁Met	-12.5524
famous	-12.5524
animate	-12.5527
▁41	-12.5527
▁intern	-12.5532
bacc	-12.5539
terior	-12.554
▁summ	-12.5546
healthy	-12.5547
adi	-12.5549
▁tease	-12.555
▁forger	-12.5565
plan	-12.5567
ister	-12.5568
▁SL	-12.557
unch	-12.5572
chille	-12.5573
▁sc	-12.5575
▁sober	-12.5576
▁devote	-12.5583
aware	-12.559
▁analytic	-12.5594
▁Report	-12.5601
▁Cod	-12.5607
▁jets	-12.5609
▁savanna	-12.5611
▁coma	-12.5612
▁Bern	-12.5612
▁intellect	-12.5613
▁Asperger	-12.5614
▁Senegal	-12.5614
▁biomolecule	-12.5614
▁crochet	-12.5614
▁discrete	-12.5614
▁exoplanet	-12.5614
▁isotope	-12.5614
▁laureate	-12.5614
▁misconception	-12.5614
▁primordial	-12.5614
▁transgender	-12.5614
▁Douglas	-12.5614
▁aspire	-12.5614
▁hijack	-12.5614
▁messenger	-12.5614
▁hydrocarbon	-12.5614
▁detach	-12.5614
▁segregat	-12.5614
▁rumor	-12.5614
▁Airport	-12.5614
▁dominance	-12.5614
▁centrifuge	-12.5614
▁eyebrow	-12.5614
▁Giant	-12.5614
▁latitude	-12.5614
▁clarify	-12.5614
▁fridge	-12.5614
▁facade	-12.5614
▁Board	-12.5614
▁1920	-12.5615
▁Donald	-12.5615
▁reinforc	-12.5615
▁standardize	-12.5615
▁schizophrenic	-12.5616
▁Hawaiian	-12.5616
▁DJ	-12.5616
▁Brook	-12.5616
▁HP	-12.5617
▁BMW	-12.5617
▁restoration	-12.5617
▁proportional	-12.5617
▁repetitive	-12.5618
▁verify	-12.5619
▁dataset	-12.5621
▁Va	-12.5623
▁classify	-12.5624
▁deadline	-12.5625
▁TR	-12.5626
▁Page	-12.5626
▁Road	-12.5627
▁prohibit	-12.5629
nity	-12.5637
▁carbonate	-12.565
lec	-12.565
▁pickle	-12.5651
▁Architectur	-12.5652
enberg	-12.5653
tune	-12.566
▁Kate	-12.5663
▁dye	-12.5664
▁bless	-12.567
▁haul	-12.5672
▁awaken	-12.5673
rock	-12.5674
▁handl	-12.5678
▁IM	-12.568
PEC	-12.5682
scal	-12.5682
psychotic	-12.5689
unk	-12.571
▁Ash	-12.5712
▁slid	-12.5714
▁bead	-12.5714
▁needles	-12.5716
▁penetrat	-12.5716
▁crisp	-12.5716
▁Hero	-12.5721
pin	-12.5721
▁Ol	-12.5725
digit	-12.5728
fifth	-12.5728
▁outsider	-12.5743
▁optimist	-12.5747
ological	-12.5747
▁exceeding	-12.575
▁tortur	-12.5756
▁encod	-12.5757
▁competenc	-12.576
▁shuffle	-12.576
18	-12.5768
▁Sue	-12.5773
ucky	-12.578
▁surfing	-12.5795
hili	-12.5795
zone	-12.5807
▁rott	-12.5809
▁Qatar	-12.5813
▁weep	-12.5814
▁Phil	-12.5815
clean	-12.5816
▁enroll	-12.5817
ntelligence	-12.5818
▁LGBT	-12.5818
▁Darfur	-12.5818
▁Mechanic	-12.5818
▁Progress	-12.5818
▁Traditional	-12.5818
▁arrogan	-12.5818
▁blunt	-12.5818
▁discharge	-12.5818
▁gradient	-12.5818
▁intertwin	-12.5818
▁knob	-12.5818
▁notorious	-12.5818
▁prostitute	-12.5818
▁uplift	-12.5818
▁evoke	-12.5818
▁papaya	-12.5818
▁Matthew	-12.5818
▁Village	-12.5818
▁crave	-12.5818
▁enlist	-12.5818
▁bionic	-12.5818
▁Picture	-12.5818
▁compact	-12.5818
▁rug	-12.5818
▁tapestr	-12.5818
▁ATM	-12.5818
▁Guardian	-12.5818
▁refresh	-12.5818
▁Protect	-12.5819
▁championship	-12.5819
▁motive	-12.5819
▁roost	-12.5819
▁excessive	-12.5819
▁Grandma	-12.5819
vantage	-12.5819
▁replica	-12.5819
▁litter	-12.5819
▁resume	-12.5819
▁informant	-12.5819
▁ecologist	-12.582
▁vaccination	-12.582
ini	-12.5821
▁buffer	-12.5822
▁devastation	-12.5823
▁embody	-12.5823
▁cling	-12.5823
▁tailor	-12.5827
▁CB	-12.583
onald	-12.583
bodie	-12.5831
▁plutocrat	-12.5832
▁Burm	-12.5834
▁diver	-12.5836
▁surpass	-12.5843
▁compris	-12.5844
▁jack	-12.5845
▁begging	-12.585
▁Gla	-12.5851
▁mul	-12.5862
▁artificially	-12.5864
▁minorit	-12.5873
oul	-12.5876
▁mitigate	-12.5876
▁Tro	-12.5878
induc	-12.5881
▁shortest	-12.5883
▁bon	-12.5886
▁affection	-12.5887
▁Sony	-12.5899
awa	-12.59
▁horn	-12.5904
▁initiate	-12.5906
▁Cro	-12.5908
▁penni	-12.5917
itis	-12.5922
▁Send	-12.5922
▁stunn	-12.5929
active	-12.5931
▁displace	-12.5932
▁nitr	-12.5933
▁dr	-12.5934
wandering	-12.5936
organic	-12.5937
ars	-12.5937
▁alienat	-12.5937
seven	-12.5938
▁Jur	-12.5938
▁Mov	-12.5939
▁Main	-12.5941
▁medal	-12.5944
brain	-12.5945
▁Run	-12.5948
bul	-12.5952
IMS	-12.5953
▁UV	-12.5965
▁infer	-12.5965
▁dia	-12.5967
teric	-12.5967
▁Fred	-12.5972
lois	-12.5983
HO	-12.5992
emia	-12.5992
▁77	-12.5993
▁39	-12.5994
pur	-12.5997
▁cruise	-12.5997
▁Sho	-12.6004
six	-12.6007
▁prince	-12.601
▁pollinate	-12.6013
▁secondar	-12.6018
▁seeker	-12.6019
▁anthropolog	-12.6019
sippi	-12.6021
▁Trans	-12.6024
▁humiliat	-12.6025
▁betray	-12.6025
▁Festival	-12.6026
▁Innovation	-12.6026
▁Portuguese	-12.6026
▁decipher	-12.6026
▁grizzl	-12.6026
▁jurisdiction	-12.6026
▁outweigh	-12.6026
▁seatbelt	-12.6026
▁stubborn	-12.6026
▁terrestrial	-12.6026
▁Disease	-12.6026
▁Picasso	-12.6026
▁Visual	-12.6026
▁colonoscop	-12.6026
▁wilderness	-12.6026
▁decay	-12.6026
▁bolt	-12.6026
▁disclose	-12.6026
▁cohesi	-12.6026
▁hunch	-12.6026
▁Rosling	-12.6026
▁subconscious	-12.6027
▁implie	-12.6027
▁pediatrician	-12.6027
▁campfire	-12.6027
▁mainframe	-12.6027
▁nanoscale	-12.6027
▁prolong	-12.6027
▁mason	-12.6027
▁disturbance	-12.6027
▁dragline	-12.6028
▁unpack	-12.6028
▁investigati	-12.6028
▁fluent	-12.6028
▁Wild	-12.6029
▁slate	-12.6029
▁Director	-12.6029
▁Money	-12.603
▁orchard	-12.603
▁Marx	-12.6031
▁commandment	-12.6032
▁supplement	-12.6032
▁bundle	-12.6033
▁mono	-12.6033
70	-12.6038
fer	-12.6038
osh	-12.604
▁weaken	-12.6042
▁centi	-12.6042
▁Plato	-12.6043
▁incorporat	-12.6043
wesome	-12.6044
▁UCL	-12.6046
▁avenue	-12.6048
▁Compare	-12.6048
die	-12.6049
▁Tyle	-12.6049
ime	-12.6051
▁101	-12.6053
▁pathetic	-12.6054
▁sued	-12.6054
hell	-12.6058
▁cynical	-12.606
▁validate	-12.6061
▁fearless	-12.6067
▁loom	-12.607
▁Pain	-12.6073
▁sewer	-12.6073
▁Juda	-12.6074
▁Gill	-12.6075
building	-12.6085
▁memoriz	-12.609
▁persisten	-12.6103
▁Drugs	-12.6104
▁boomer	-12.6105
▁Safe	-12.6106
▁Mau	-12.6109
▁tro	-12.6109
▁Birds	-12.6113
▁semina	-12.6113
▁retir	-12.6118
▁Jud	-12.6118
▁guts	-12.612
▁Pope	-12.612
▁em	-12.6121
atic	-12.6121
▁wrinkle	-12.6122
seek	-12.6124
▁dim	-12.6131
▁ramp	-12.6132
dded	-12.6132
▁navigat	-12.614
▁pac	-12.6145
▁Baha	-12.6148
consum	-12.6148
design	-12.6148
▁Mid	-12.6149
ao	-12.6149
▁juggl	-12.6149
▁thoughtful	-12.6149
▁micron	-12.6151
▁Bert	-12.6156
iv	-12.6157
▁photosynthesi	-12.6158
▁toaster	-12.616
desirable	-12.6162
▁Colo	-12.6164
▁diplomatic	-12.6168
▁Dar	-12.6169
▁Aid	-12.6173
▁thumbs	-12.6179
▁relat	-12.6189
dec	-12.6207
▁Kit	-12.6208
ith	-12.6208
▁commute	-12.6209
far	-12.6209
matic	-12.6213
CA	-12.6215
▁z	-12.622
▁Stu	-12.6223
▁catalog	-12.6224
rane	-12.6224
position	-12.6226
▁Patric	-12.6228
▁Commission	-12.6231
gur	-12.6233
▁harass	-12.6238
▁advent	-12.6239
^	-12.6239
aggression	-12.6239
ahedron	-12.6239
▁Circle	-12.6239
▁Morocc	-12.6239
▁Sputnik	-12.6239
▁Tamiflu	-12.6239
▁Thursday	-12.6239
▁Tweet	-12.6239
▁angiogenesis	-12.6239
▁cochlea	-12.6239
▁detergent	-12.6239
▁expenditure	-12.6239
▁goddess	-12.6239
▁indefinite	-12.6239
▁lemon	-12.6239
▁shrunk	-12.6239
borough	-12.6239
▁Malaysia	-12.6239
▁Question	-12.6239
▁incision	-12.6239
▁seductive	-12.6239
▁craving	-12.6239
▁quark	-12.6239
▁influenza	-12.6239
▁mediocr	-12.6239
▁coalition	-12.6239
▁biograph	-12.6239
▁Potter	-12.6239
▁compulsive	-12.6239
▁Galax	-12.6239
▁foreground	-12.624
▁geologist	-12.624
▁stir	-12.624
▁cough	-12.624
▁pearl	-12.624
▁landfill	-12.624
▁heartbeat	-12.624
▁editorial	-12.624
▁Jackson	-12.624
▁philanthropist	-12.6241
▁Fish	-12.6241
▁92	-12.6242
▁complian	-12.6242
▁Baker	-12.6242
▁potter	-12.6244
▁disagreement	-12.6244
▁speculation	-12.6244
▁browse	-12.6245
▁rub	-12.6246
▁supreme	-12.6246
▁Hungarian	-12.6246
▁Robot	-12.6246
▁prominent	-12.6247
▁Thousand	-12.6248
▁thou	-12.6249
▁spam	-12.6249
▁Fourth	-12.625
▁dyslexi	-12.6256
kar	-12.6256
▁fundamentalism	-12.6261
▁extraction	-12.6263
▁forage	-12.6268
▁internalize	-12.627
▁Pakistani	-12.6274
▁suite	-12.6276
▁Midwest	-12.6279
▁Friends	-12.6285
▁Rebe	-12.6289
rid	-12.6294
▁Personal	-12.6299
▁Easter	-12.63
▁Eye	-12.6302
▁Bra	-12.6308
▁poisoning	-12.6317
▁inward	-12.6318
▁Ly	-12.6319
▁tur	-12.6321
▁Ber	-12.6327
▁jamm	-12.6328
▁regenerati	-12.6331
▁Sit	-12.6338
▁doodle	-12.6344
horn	-12.6349
í	-12.6351
▁88	-12.6352
▁Eco	-12.6352
ickr	-12.6353
▁110	-12.6358
eight	-12.6359
fat	-12.6364
computer	-12.6366
focus	-12.6367
species	-12.6367
▁palli	-12.6383
▁Ag	-12.6384
▁Hal	-12.6384
▁vascular	-12.6394
spora	-12.6394
netary	-12.6404
▁Swee	-12.6406
▁Though	-12.6406
iller	-12.6408
▁Plu	-12.6427
▁Jamaica	-12.6427
▁frie	-12.643
▁algorithmic	-12.6431
ike	-12.6433
▁flowering	-12.6439
och	-12.6444
coli	-12.645
lace	-12.6451
▁intersect	-12.6453
▁Cla	-12.6455
▁Laptop	-12.6456
▁clitoris	-12.6456
▁diffusion	-12.6456
▁fountain	-12.6456
▁menstruati	-12.6456
▁neutron	-12.6456
▁oblivio	-12.6456
▁portfolio	-12.6456
▁predominant	-12.6456
▁puzzling	-12.6456
▁questionnaire	-12.6456
▁rehearsal	-12.6456
▁scoop	-12.6456
▁troubling	-12.6456
▁Summer	-12.6456
▁perfume	-12.6456
▁privatiz	-12.6456
▁Aaron	-12.6456
▁carcass	-12.6456
▁cumulative	-12.6456
▁twentysomething	-12.6456
▁atrocit	-12.6456
▁moisture	-12.6456
▁hippie	-12.6457
▁kidnappe	-12.6457
▁cursor	-12.6457
▁flare	-12.6457
ilence	-12.6457
▁inequit	-12.6457
▁Paper	-12.6457
▁stink	-12.6457
▁pillow	-12.6457
▁pat	-12.6457
▁superconductor	-12.6457
▁mailbox	-12.6457
▁aisle	-12.6457
▁Honey	-12.6458
▁Portland	-12.6458
▁Morgan	-12.6458
▁droplet	-12.6458
guel	-12.6458
▁cortic	-12.6459
▁Cup	-12.6459
▁Johannes	-12.6459
▁slash	-12.646
EF	-12.646
▁megacit	-12.646
▁Airbnb	-12.6461
▁pois	-12.6462
▁undertake	-12.6462
▁outlier	-12.6463
▁geolog	-12.6463
▁Mello	-12.6464
▁vase	-12.6465
▁dull	-12.6466
▁spor	-12.6467
▁ponder	-12.6468
▁gateway	-12.6469
▁Neil	-12.6471
▁IDE	-12.6471
▁Grant	-12.6471
▁advancement	-12.6473
actic	-12.6474
ites	-12.6475
roid	-12.6475
▁61	-12.6483
tel	-12.6487
▁mist	-12.6489
▁bitch	-12.6489
▁hood	-12.6491
mira	-12.6495
maker	-12.65
▁CP	-12.6503
▁digitize	-12.6504
▁Fr	-12.6504
▁propulsi	-12.6509
▁massage	-12.6513
▁temperat	-12.6514
▁conserv	-12.6514
▁Clau	-12.6515
▁eel	-12.652
ngue	-12.6521
viv	-12.6524
▁murderer	-12.6528
▁Plant	-12.653
▁albe	-12.6531
▁therapeutic	-12.6543
RT	-12.6544
▁plantation	-12.6544
▁touris	-12.6551
▁Financ	-12.6552
assem	-12.6556
vil	-12.6573
▁pest	-12.6575
shel	-12.6575
gate	-12.6577
▁impo	-12.6578
confiden	-12.6581
nine	-12.6586
▁ineffective	-12.6588
track	-12.6588
conflict	-12.6589
machine	-12.6589
process	-12.6589
▁wav	-12.6589
help	-12.6589
▁swell	-12.659
sexual	-12.6593
stick	-12.6597
▁67	-12.6599
▁soak	-12.6604
▁cu	-12.6611
▁flex	-12.6612
erty	-12.6615
ama	-12.6616
logy	-12.6618
▁Read	-12.662
part	-12.6621
void	-12.6623
lia	-12.6625
▁outfit	-12.6628
▁Working	-12.6644
▁fabricate	-12.6645
▁AV	-12.6645
data	-12.6647
▁desperat	-12.6659
spen	-12.6661
▁71	-12.6662
▁cancel	-12.6664
▁undo	-12.667
09	-12.6671
▁issu	-12.6674
▁vici	-12.6678
▁Buffet	-12.6679
▁Enlighten	-12.6679
▁Photoshop	-12.6679
▁administrative	-12.6679
▁definitive	-12.6679
▁encompass	-12.6679
▁introspecti	-12.6679
▁leisure	-12.6679
▁mangrove	-12.6679
▁pajama	-12.6679
▁reassure	-12.6679
▁semester	-12.6679
▁salad	-12.6679
▁Constitution	-12.6679
▁gloom	-12.6679
▁Barbie	-12.6679
▁Oscar	-12.6679
▁husk	-12.6679
▁sushi	-12.6679
▁paleontologist	-12.6679
▁synonymous	-12.6679
▁furious	-12.6679
▁internship	-12.6679
▁interference	-12.6679
▁spreadsheet	-12.6679
▁foam	-12.6679
▁beaver	-12.6679
▁misunderstand	-12.6679
▁Easy	-12.6679
▁detain	-12.6679
▁wrestle	-12.6679
▁horrify	-12.6679
▁Treat	-12.6679
▁Hugh	-12.668
▁cobra	-12.668
▁magnify	-12.6683
centered	-12.6684
▁diaper	-12.6684
▁levitat	-12.6686
▁hump	-12.6687
▁Creative	-12.6687
▁Check	-12.6688
▁stripe	-12.6688
▁marsh	-12.6689
▁187	-12.669
▁periodic	-12.6691
▁millennial	-12.6692
▁Mada	-12.6694
ahoo	-12.6695
▁anarch	-12.6696
▁batch	-12.6696
litude	-12.6696
vin	-12.6702
agne	-12.6703
walk	-12.6707
▁outdoors	-12.6709
▁Ball	-12.6723
ene	-12.6726
▁Mor	-12.6729
row	-12.673
▁altar	-12.6732
▁Fun	-12.6732
▁Bur	-12.6741
▁preced	-12.6743
▁enhanc	-12.6747
▁BP	-12.6747
▁170	-12.6748
▁reverberat	-12.6748
▁Stand	-12.6753
▁prim	-12.6756
▁squeez	-12.676
DG	-12.6762
▁lip	-12.6764
05	-12.6765
▁energ	-12.6773
▁wove	-12.6778
▁whistl	-12.6788
gg	-12.6789
urg	-12.6789
▁Close	-12.6797
riff	-12.6798
▁Move	-12.6807
DL	-12.6808
traumatic	-12.6816
▁Bull	-12.6817
billion	-12.6818
▁auction	-12.6819
growth	-12.682
hapel	-12.6826
▁SAR	-12.6828
pont	-12.6832
▁interdependenc	-12.6832
HE	-12.6837
lbert	-12.6843
▁Area	-12.6846
▁braver	-12.6847
performance	-12.6852
▁prima	-12.6855
ush	-12.6856
▁Bro	-12.6858
▁psychotherap	-12.686
▁coloniz	-12.6868
▁plea	-12.6872
▁customiz	-12.6879
▁rod	-12.6889
▁Serge	-12.6889
▁slap	-12.6892
▁choreograph	-12.6895
▁stretche	-12.6896
▁dysfunction	-12.69
dam	-12.6901
▁emulate	-12.6902
▁Commun	-12.6905
▁Cultural	-12.6906
▁administrator	-12.6906
▁contempt	-12.6906
▁dementia	-12.6906
▁disastrous	-12.6906
▁embodiment	-12.6906
▁paraphras	-12.6906
▁persecut	-12.6906
▁quantify	-12.6906
▁reptile	-12.6906
azeera	-12.6906
▁Chernobyl	-12.6906
▁hummingbird	-12.6906
▁churn	-12.6906
▁Soldier	-12.6906
▁imbalance	-12.6906
▁stakeholder	-12.6906
▁niche	-12.6906
▁maze	-12.6906
▁dissent	-12.6906
▁multicultural	-12.6906
▁Ryan	-12.6906
▁pluck	-12.6906
▁Floren	-12.6906
▁revolt	-12.6906
▁Romo	-12.6906
lash	-12.6907
▁1800	-12.6907
▁milestone	-12.6908
▁Wide	-12.6908
▁Sixty	-12.6908
▁underpin	-12.6908
▁imitation	-12.691
▁perpetual	-12.691
▁Oz	-12.691
▁TD	-12.6911
▁purse	-12.6911
▁coil	-12.6912
▁Hand	-12.6912
▁twentie	-12.6913
▁raft	-12.6913
▁dreadful	-12.6913
▁700,000	-12.6914
▁sling	-12.6915
▁directive	-12.6917
▁stark	-12.6917
▁Merc	-12.6917
▁ignite	-12.6918
▁synthesiz	-12.6921
▁Walker	-12.6921
▁grappl	-12.6921
ena	-12.6924
▁groom	-12.6926
tric	-12.6937
▁Mob	-12.6938
ife	-12.6938
▁62	-12.6943
▁lineage	-12.6948
▁Rain	-12.6949
SM	-12.6952
▁Bla	-12.6958
▁fearful	-12.696
▁puppy	-12.6961
▁si	-12.6966
▁irregular	-12.6971
▁faithful	-12.6972
iffe	-12.6975
▁congress	-12.6979
▁Gu	-12.6979
▁Genev	-12.6981
▁unify	-12.6984
zz	-12.6986
▁Scr	-12.6989
▁Warr	-12.6992
▁knitt	-12.6997
▁mite	-12.6999
turn	-12.7023
▁vanish	-12.7023
grown	-12.703
lie	-12.7038
▁cascade	-12.7039
▁neon	-12.704
▁nominate	-12.7042
▁dogma	-12.7042
▁Joan	-12.7042
skirt	-12.7048
blood	-12.7049
different	-12.7049
plankt	-12.7049
▁metro	-12.7051
▁invisib	-12.7051
▁pave	-12.7055
add	-12.7059
▁charm	-12.7059
▁59	-12.706
ache	-12.7069
rise	-12.7087
▁innocen	-12.7089
▁credi	-12.7094
▁violate	-12.7106
▁canal	-12.7112
▁Columb	-12.7114
▁Gre	-12.7115
eautiful	-12.712
▁comprehensi	-12.7122
▁moth	-12.7124
▁robb	-12.7129
▁battl	-12.7132
▁prosecut	-12.7132
▁Hai	-12.7132
▁infinit	-12.7134
▁champ	-12.7135
▁Effect	-12.7138
clamation	-12.7138
▁Believe	-12.7138
▁Dragon	-12.7138
▁EEG	-12.7138
▁Nevada	-12.7138
▁Simpson	-12.7138
▁artisan	-12.7138
▁ceramic	-12.7138
▁desalinat	-12.7138
▁fatigue	-12.7138
▁gecko	-12.7138
▁handcuff	-12.7138
▁immoral	-12.7138
▁prehistor	-12.7138
▁rude	-12.7138
▁rupee	-12.7138
▁semantic	-12.7138
▁spectacle	-12.7138
▁windmill	-12.7138
▁Nikola	-12.7138
▁embryonic	-12.7138
▁intermediar	-12.7138
▁kettle	-12.7138
▁venom	-12.7139
▁acronym	-12.7139
▁microorganism	-12.7139
▁Negro	-12.7139
▁telecom	-12.7139
urora	-12.7139
▁Bloom	-12.7139
▁bumblebee	-12.7139
▁Parent	-12.7139
▁tidy	-12.7139
▁2,	-12.7139
▁motel	-12.7139
▁hail	-12.7139
▁harassment	-12.714
▁neurosurgeon	-12.714
▁NP	-12.714
▁stalk	-12.714
▁sequester	-12.714
▁typeface	-12.714
▁comparative	-12.714
▁broc	-12.7141
▁penny	-12.7142
▁87	-12.7142
▁Poor	-12.7143
▁replicator	-12.7143
▁cramm	-12.7143
▁Clean	-12.7143
▁PH	-12.7143
▁Bowl	-12.7144
▁Cruz	-12.7145
▁9,000	-12.7145
▁sunny	-12.7146
verish	-12.7146
▁188	-12.7148
▁qui	-12.7149
▁carcinogen	-12.715
▁prosthes	-12.7151
▁spoil	-12.7152
▁anatomical	-12.7154
▁resourceful	-12.7155
▁testify	-12.7158
▁Box	-12.7158
▁Twin	-12.7158
atal	-12.716
tical	-12.7163
▁flux	-12.7164
environmentalist	-12.7165
▁sweater	-12.7167
MG	-12.7168
boy	-12.7169
▁barre	-12.717
▁wasp	-12.7171
▁eso	-12.7171
▁Parad	-12.7174
▁Mao	-12.7177
▁advertise	-12.7177
▁fist	-12.7178
custom	-12.7179
▁premi	-12.7181
▁nurser	-12.7183
Me	-12.7184
▁conform	-12.7192
▁hyperactiv	-12.7198
▁holder	-12.7203
mour	-12.7204
▁eu	-12.7205
▁speculate	-12.7206
II	-12.7208
▁tire	-12.7214
fell	-12.7221
▁oxide	-12.7222
▁TS	-12.7231
▁judg	-12.7234
▁phy	-12.7236
▁swin	-12.7239
▁PS	-12.7239
▁cam	-12.724
▁Bach	-12.7243
▁deepen	-12.7243
▁relocat	-12.7244
▁collid	-12.7253
AM	-12.7256
▁Justin	-12.7256
▁advised	-12.726
▁Rif	-12.726
▁powerless	-12.7264
sota	-12.7268
▁Lis	-12.7273
▁KS	-12.7273
bling	-12.7274
▁sincere	-12.7276
ota	-12.7276
ardo	-12.7276
▁tires	-12.7283
munition	-12.7286
BA	-12.7287
▁secre	-12.7297
mas	-12.7301
phone	-12.7302
tica	-12.7309
izard	-12.7311
base	-12.7312
▁stockpile	-12.7312
▁convers	-12.7314
▁Sab	-12.7317
▁lid	-12.7327
▁Architect	-12.7331
lix	-12.7333
itan	-12.7336
▁Jen	-12.7341
▁Zambia	-12.7347
▁nutritio	-12.7348
▁momm	-12.7354
400	-12.7359
▁Elv	-12.7361
▁Leader	-12.7366
hot	-12.7367
▁SA	-12.737
▁ranch	-12.7372
▁transcript	-12.7373
▁imperfect	-12.7373
▁erupt	-12.7373
▁dissect	-12.7373
▁Secret	-12.7376
percussion	-12.7377
▁Exxon	-12.7377
▁Illinois	-12.7377
▁Orchestra	-12.7377
▁aerodynamic	-12.7377
▁circus	-12.7377
▁hydrant	-12.7377
▁protagonist	-12.7377
▁striving	-12.7377
▁testosterone	-12.7377
▁tremor	-12.7377
▁Blood	-12.7377
▁Maslow	-12.7377
▁hologram	-12.7377
▁Barbara	-12.7377
▁embass	-12.7377
▁estrogen	-12.7377
▁frugal	-12.7377
▁monopol	-12.7377
▁benchmark	-12.7377
▁bookstore	-12.7377
▁decisive	-12.7377
▁mourn	-12.7377
▁Chair	-12.7377
▁Study	-12.7377
▁SDR	-12.7377
▁scripture	-12.7377
▁miniaturiz	-12.7377
▁cyclist	-12.7377
▁archaeologist	-12.7377
▁Rush	-12.7377
▁fax	-12.7378
feld	-12.7378
ulate	-12.7378
▁Operation	-12.7379
▁stent	-12.7379
▁obsessive	-12.7379
nitiative	-12.7379
▁exaggeration	-12.7379
▁impairment	-12.738
▁sculptor	-12.738
▁demons	-12.7381
▁Doc	-12.7381
▁Town	-12.7382
▁Planet	-12.7383
▁hostage	-12.7383
▁residual	-12.7386
▁Cole	-12.7389
▁grandma	-12.7389
▁patriot	-12.7391
▁moons	-12.7391
▁culminat	-12.7393
▁Writ	-12.7396
▁malignan	-12.7396
▁RG	-12.7397
read	-12.7398
dale	-12.7399
▁oppressi	-12.74
▁ecsta	-12.7401
▁bagg	-12.7402
▁Tal	-12.7402
▁disbelie	-12.7404
▁ingest	-12.7405
▁Pick	-12.7407
▁withstand	-12.7411
▁worthless	-12.7414
▁offender	-12.7415
▁noun	-12.7424
▁volt	-12.7424
▁dealer	-12.7424
determin	-12.7425
hma	-12.7427
▁Dance	-12.7428
▁incorrect	-12.7433
▁biopsy	-12.7434
ficial	-12.7437
▁overfish	-12.7442
yard	-12.7443
▁biodegrad	-12.7444
▁splash	-12.7448
mite	-12.7453
▁Nazi	-12.7455
▁screwed	-12.7458
itler	-12.7459
▁cone	-12.7461
itting	-12.7462
▁Loca	-12.7462
▁Rich	-12.7467
▁reframe	-12.7469
lk	-12.7471
▁Film	-12.7471
▁recorder	-12.7474
▁interdependen	-12.7476
▁packing	-12.7477
atory	-12.7481
▁funder	-12.7485
▁pav	-12.7487
▁memo	-12.7489
▁commentar	-12.7492
ference	-12.75
▁Fla	-12.7502
sari	-12.7504
▁Biolog	-12.7511
▁je	-12.7514
▁wealthie	-12.7516
▁abus	-12.7525
▁piss	-12.7526
▁Mai	-12.7527
▁treaty	-12.7527
▁rob	-12.753
▁Evolution	-12.753
▁oppose	-12.754
▁glance	-12.7542
cular	-12.7547
▁Shad	-12.7548
▁gangs	-12.7554
▁Conservati	-12.7558
ockey	-12.7563
▁exo	-12.7563
▁sway	-12.7565
▁alley	-12.7568
ump	-12.7569
ryl	-12.7569
▁Bir	-12.7571
sanitary	-12.7577
▁dorm	-12.7578
▁LA	-12.7581
▁runway	-12.7584
▁stewards	-12.7588
bble	-12.759
omi	-12.7593
ulu	-12.7597
▁manu	-12.7599
▁Cut	-12.7601
▁loa	-12.7601
drop	-12.7604
▁humane	-12.7606
▁slam	-12.7614
▁advise	-12.7615
▁prescrib	-12.7615
▁peripher	-12.7618
your	-12.7618
▁SM	-12.7619
▁Babylon	-12.762
▁flour	-12.762
▁Choir	-12.762
▁Hispanic	-12.762
▁adrenalin	-12.762
▁autobiograph	-12.762
▁caution	-12.762
▁clerk	-12.762
▁coconut	-12.762
▁comprehend	-12.762
▁duct	-12.762
▁enact	-12.762
▁lexicon	-12.762
▁pluripotent	-12.762
▁provocative	-12.762
▁repositor	-12.762
▁scissor	-12.762
▁sophistication	-12.762
▁squish	-12.762
▁staple	-12.762
▁thirst	-12.762
▁treadmill	-12.762
▁Faiza	-12.762
▁palace	-12.762
▁phantom	-12.762
▁phthalate	-12.762
▁pragmatic	-12.762
▁endemic	-12.7621
▁crease	-12.7621
▁owl	-12.7621
▁antiretroviral	-12.7621
▁relay	-12.7621
▁cowboy	-12.7621
▁detriment	-12.7621
▁1.6	-12.7621
▁PET	-12.7621
▁craftsman	-12.7621
▁qualitative	-12.7621
▁silo	-12.7621
▁Horse	-12.7622
▁Ahmed	-12.7622
▁Holland	-12.7622
▁Seventy	-12.7622
▁Saul	-12.7622
▁shutter	-12.7622
▁Always	-12.7623
▁Place	-12.7623
▁soundscape	-12.7623
▁carriage	-12.7624
▁kitten	-12.7624
▁cele	-12.7624
▁crest	-12.7624
▁Orwell	-12.7625
▁Jose	-12.7625
▁Litera	-12.7626
▁Dol	-12.7627
▁dadd	-12.7627
▁abyss	-12.7627
▁Athen	-12.7628
▁regeneration	-12.7629
▁Gwe	-12.7629
▁predictabl	-12.763
▁arthriti	-12.7631
▁Carlo	-12.7632
▁saturate	-12.7633
▁robber	-12.7633
theism	-12.7634
▁kits	-12.7636
▁coward	-12.7637
▁Reed	-12.7641
▁Meet	-12.7643
▁inappropriate	-12.7644
▁warhead	-12.765
▁daunting	-12.7653
▁el	-12.7654
▁Environmental	-12.7658
▁Independent	-12.766
bule	-12.7667
▁Jami	-12.7668
vatar	-12.7669
ALL	-12.7669
▁canoe	-12.767
▁ranking	-12.7675
▁Tech	-12.7676
▁gyr	-12.7679
▁Sha	-12.7681
▁carb	-12.7685
▁Cool	-12.7688
cat	-12.7689
▁highland	-12.769
trophy	-12.7698
▁clicked	-12.7701
▁Indiana	-12.7702
-3	-12.7705
▁NE	-12.7705
jev	-12.7705
▁utilize	-12.7706
▁Diet	-12.7707
▁Gues	-12.7709
▁TM	-12.7712
ean	-12.7712
ndi	-12.7713
ality	-12.7714
▁reunite	-12.7723
▁attain	-12.7727
▁disguise	-12.7729
raham	-12.773
▁revers	-12.7731
▁73	-12.7732
▁80-	-12.7732
▁outline	-12.7734
▁cellulos	-12.7741
▁Doug	-12.7744
▁updat	-12.7753
did	-12.7756
orium	-12.7757
▁contaminate	-12.7766
▁crosse	-12.7767
▁curled	-12.777
▁Om	-12.7772
iff	-12.7774
▁aggregat	-12.7775
▁drums	-12.7777
after	-12.7779
phy	-12.7779
atomic	-12.778
carbon	-12.7781
first	-12.7781
▁nanometers	-12.7783
▁Bare	-12.7783
post	-12.7784
rried	-12.7785
▁bake	-12.7787
▁TB	-12.7791
▁deform	-12.7796
▁Cause	-12.7797
▁dice	-12.7799
Man	-12.7801
▁reshape	-12.7802
▁gamer	-12.7805
suit	-12.7805
▁Trump	-12.7807
▁tense	-12.7809
▁diar	-12.7812
glasse	-12.7813
acco	-12.7816
▁photographic	-12.7817
▁advoca	-12.782
▁loyal	-12.7822
▁elegan	-12.7822
literate	-12.7826
▁indulge	-12.7827
▁knit	-12.7827
▁dresse	-12.7829
▁Environment	-12.7832
▁Aim	-12.7833
fill	-12.7833
▁Rap	-12.7836
▁converge	-12.7838
▁speculat	-12.7848
iz	-12.7853
▁5.	-12.7855
▁evaluat	-12.786
▁Develop	-12.7869
▁Ecuador	-12.787
▁Mongolia	-12.787
▁Papua	-12.787
▁Taylor	-12.787
▁abolish	-12.787
▁amputee	-12.787
▁blossom	-12.787
▁defecat	-12.787
▁inadvertent	-12.787
▁inferior	-12.787
▁pendulum	-12.787
▁prophec	-12.787
▁repetition	-12.787
▁rifle	-12.787
▁squirrel	-12.787
▁teapot	-12.787
▁toothbrush	-12.787
▁Glenn	-12.787
▁calligraph	-12.787
▁holographic	-12.787
▁occurrence	-12.787
▁Anthon	-12.787
▁Sustainab	-12.787
▁smack	-12.787
▁Different	-12.787
▁alpha	-12.787
▁snack	-12.787
▁Schwarz	-12.787
▁Gehr	-12.7871
▁immunize	-12.7871
▁ankle	-12.7871
▁Standard	-12.7871
▁radiologist	-12.7871
▁lease	-12.7871
▁stitch	-12.7871
▁plow	-12.7871
▁Nash	-12.7871
▁Hyde	-12.7871
▁unravel	-12.7871
▁UNI	-12.7871
▁CPU	-12.7871
▁Whistl	-12.7871
▁mound	-12.7871
▁paycheck	-12.7871
▁euro	-12.7872
▁clan	-12.7872
▁Pitt	-12.7872
▁rebound	-12.7872
▁tenure	-12.7872
▁actress	-12.7873
▁annihilat	-12.7873
▁Barry	-12.7873
▁crippl	-12.7874
▁accountant	-12.7875
▁Harbor	-12.7877
▁Typical	-12.7877
▁impatient	-12.7877
▁Persian	-12.7877
▁laparoscopic	-12.7879
▁generalization	-12.788
▁hawk	-12.7881
▁moist	-12.7882
▁megawatt	-12.7883
▁thickness	-12.7884
▁administer	-12.7885
▁advocat	-12.7885
▁Jarre	-12.7889
▁char	-12.7889
▁referen	-12.789
▁Search	-12.789
gging	-12.7893
▁delightful	-12.7894
▁Worldchanging	-12.7896
LA	-12.7898
▁curate	-12.79
▁repressi	-12.7901
▁conjure	-12.7901
rat	-12.7902
▁Mahmo	-12.7902
flection	-12.7905
▁Cleve	-12.7907
▁bac	-12.791
▁hugg	-12.7911
▁Pur	-12.7912
▁Alf	-12.7915
Vision	-12.7919
utum	-12.7919
▁Kath	-12.7919
▁transmitter	-12.7924
▁bureaucratic	-12.7927
▁AO	-12.7931
▁ridicule	-12.7932
AC	-12.7934
▁immerse	-12.7934
▁Pic	-12.7945
▁IP	-12.7945
▁Homer	-12.7947
balone	-12.7953
elling	-12.7959
▁offset	-12.7975
▁nut	-12.7982
▁Rub	-12.7992
▁Grey	-12.7992
▁fisc	-12.7995
yana	-12.7998
▁Gand	-12.7998
▁Canal	-12.8006
▁Hus	-12.8007
acre	-12.8008
fidel	-12.8009
▁gli	-12.801
▁Rwandan	-12.8012
wn	-12.8014
hou	-12.8018
fabricat	-12.8019
▁Mine	-12.8022
dum	-12.8023
keep	-12.8024
▁deriv	-12.8024
▁cru	-12.8027
▁gym	-12.803
▁7.	-12.8034
▁Br	-12.8036
voice	-12.8037
eller	-12.8038
▁compost	-12.8039
organization	-12.8042
HD	-12.8043
▁sights	-12.8046
▁manic	-12.8053
luck	-12.8058
▁breasts	-12.8062
▁inflat	-12.8066
▁exchang	-12.8072
RS	-12.8075
▁exercis	-12.808
rque	-12.8087
von	-12.8091
07	-12.8095
tainment	-12.8097
ander	-12.8098
▁Organ	-12.8098
▁Mass	-12.8099
▁fu	-12.81
▁Aren	-12.8101
▁pul	-12.8104
▁tails	-12.8108
cker	-12.8117
▁Hunt	-12.8119
▁sq	-12.8124
▁Sto	-12.8124
▁Ear	-12.8125
entagon	-12.8127
▁Curiosit	-12.8127
▁Dimitr	-12.8127
▁Hopkin	-12.8127
▁Kurzweil	-12.8127
▁Mitchell	-12.8127
▁Monkey	-12.8127
▁NIH	-12.8127
▁Neuman	-12.8127
▁adhesive	-12.8127
▁antidote	-12.8127
▁appointment	-12.8127
▁daydream	-12.8127
▁hashtag	-12.8127
▁hyena	-12.8127
▁latrine	-12.8127
▁neutrino	-12.8127
▁rhyme	-12.8127
▁skyrocket	-12.8127
▁Chief	-12.8127
▁contingen	-12.8127
▁Crime	-12.8127
▁leuk	-12.8127
▁sprout	-12.8127
▁Bryan	-12.8127
▁joking	-12.8127
▁napkin	-12.8127
▁pupil	-12.8127
▁trench	-12.8127
▁Electric	-12.8127
▁mistrust	-12.8127
▁defy	-12.8127
▁crunch	-12.8127
▁Bonne	-12.8127
▁Ranger	-12.8128
▁Poem	-12.8128
▁doorstep	-12.8128
▁precedent	-12.8128
▁attendant	-12.8128
▁Clap	-12.8128
▁landmine	-12.8129
▁Needles	-12.8129
▁Coach	-12.8129
▁sanction	-12.8129
▁bleach	-12.813
SDA	-12.813
▁Fuller	-12.813
▁pacemaker	-12.813
▁examination	-12.813
▁seedling	-12.8131
▁pigmentation	-12.8131
▁firework	-12.8132
▁1987	-12.8133
▁Ann	-12.8133
▁49	-12.8133
NT	-12.8134
▁decoration	-12.8135
▁considerabl	-12.8135
▁medicinal	-12.8135
▁innovat	-12.8138
▁Team	-12.8138
nta	-12.8139
▁blackboard	-12.8139
▁statistician	-12.8139
▁Ferm	-12.8139
▁enslav	-12.814
▁inflict	-12.8142
▁dissection	-12.8144
▁petal	-12.8144
▁tangle	-12.8145
▁amber	-12.8148
▁ripe	-12.8149
PA	-12.815
▁Animal	-12.8152
▁Von	-12.8155
frost	-12.8156
▁turbulent	-12.8157
▁responder	-12.8163
▁spac	-12.8167
leg	-12.8168
▁lick	-12.8168
▁altruistic	-12.8174
▁absent	-12.8177
▁Drum	-12.8188
▁torch	-12.8189
▁Az	-12.8189
▁divert	-12.819
lus	-12.819
▁Pac	-12.8196
▁Sala	-12.8204
▁Gut	-12.8205
▁vaccinat	-12.8214
▁relieve	-12.8216
▁Russ	-12.8222
▁malle	-12.8224
▁189	-12.8225
▁bombed	-12.8227
ourne	-12.8229
▁nutritional	-12.8231
▁Researcher	-12.8233
tran	-12.8235
chan	-12.8237
haired	-12.8237
▁dune	-12.8251
iform	-12.8251
▁dock	-12.8252
▁orient	-12.8254
▁trader	-12.826
▁experimenter	-12.826
spiring	-12.8269
▁colonize	-12.8271
ides	-12.8273
connected	-12.8282
▁stumble	-12.8285
▁celebrit	-12.8286
pan	-12.829
▁hay	-12.829
span	-12.8292
▁Build	-12.8293
▁Kara	-12.8294
invasive	-12.83
conceive	-12.83
conventional	-12.83
birth	-12.8301
pour	-12.8302
tooth	-12.8303
▁Woo	-12.8303
industrial	-12.8304
dah	-12.8305
▁increment	-12.8306
▁Pian	-12.8308
letter	-12.8308
▁Basic	-12.831
icular	-12.8313
imp	-12.8313
score	-12.832
plain	-12.8321
ker	-12.8323
▁colonial	-12.8325
60	-12.8334
▁Lib	-12.8337
▁pharmac	-12.8338
▁Math	-12.8339
PL	-12.8341
▁Bina	-12.8341
rate	-12.8342
culus	-12.8349
▁gravel	-12.8355
▁whiske	-12.8357
▁symbio	-12.8357
▁Lanka	-12.8361
▁Chang	-12.8361
▁thro	-12.8362
glo	-12.8367
▁EC	-12.838
▁herb	-12.838
▁Rocke	-12.838
▁Rum	-12.8381
▁swam	-12.8383
▁coup	-12.8383
▁Lowe	-12.8385
▁measurabl	-12.8385
▁deplet	-12.8387
▁fantasi	-12.8387
▁Que	-12.8388
▁reverb	-12.8388
▁thirty	-12.839
neurotransmitter	-12.839
▁Announcer	-12.839
▁Kuwait	-12.839
▁Mozambi	-12.839
▁cadaver	-12.839
▁clutter	-12.839
▁cyborg	-12.839
▁facilitator	-12.839
▁monolith	-12.839
▁résumé	-12.839
▁salamander	-12.839
▁snippet	-12.839
▁synagogue	-12.839
▁tadpole	-12.839
▁cymatic	-12.839
▁denounce	-12.839
▁Excellen	-12.839
▁binocular	-12.839
▁DDT	-12.839
▁sensual	-12.839
▁proactive	-12.839
▁leaflet	-12.839
▁perimeter	-12.839
▁caption	-12.8391
▁crane	-12.8391
▁vertebrate	-12.8391
▁hardwir	-12.8391
▁Feel	-12.8391
▁haircut	-12.8391
▁wizard	-12.8391
▁proliferation	-12.8392
▁pavement	-12.8392
▁illuminate	-12.8392
▁teammate	-12.8392
▁Alexandria	-12.8392
▁blindfold	-12.8392
▁modulate	-12.8393
▁flatter	-12.8393
▁imperfection	-12.8393
▁Karl	-12.8394
spar	-12.8395
▁elevation	-12.8395
▁Java	-12.8396
▁invert	-12.8397
▁accumulation	-12.8398
▁Beside	-12.8398
▁raid	-12.8399
▁Want	-12.8399
▁sack	-12.8399
▁advisor	-12.84
▁McL	-12.8401
▁Mona	-12.8401
▁tradeoff	-12.8403
▁hyperbolic	-12.8403
▁175	-12.8403
▁scarf	-12.8404
▁Kar	-12.8405
▁Row	-12.8406
▁ascend	-12.8407
▁seller	-12.8409
Agnes	-12.8413
▁incompatib	-12.8414
▁sailor	-12.8415
▁merchant	-12.8416
▁volatile	-12.8416
▁rewrite	-12.8422
▁undermin	-12.8423
meer	-12.8423
▁digesti	-12.8426
▁applica	-12.8427
▁spectra	-12.8427
▁cargo	-12.8429
▁fr	-12.8429
▁upstream	-12.8429
uga	-12.8435
onary	-12.8436
▁CG	-12.8437
▁yearning	-12.8441
▁rearrange	-12.8446
▁centraliz	-12.8447
▁needless	-12.8448
AT	-12.8451
▁analyst	-12.8453
▁Nano	-12.8466
▁peacekeep	-12.8467
-20	-12.8469
violent	-12.8472
▁oas	-12.8477
▁swimmer	-12.8478
▁Au	-12.8479
zu	-12.8481
▁congest	-12.8484
▁rider	-12.8488
▁sovereignt	-12.849
▁notation	-12.8492
Ex	-12.8492
▁lust	-12.8494
▁wholly	-12.8497
▁dries	-12.8503
▁Gord	-12.8505
▁Matter	-12.8507
▁Clay	-12.8513
Cash	-12.8513
▁Rem	-12.8514
nda	-12.8515
▁inference	-12.852
▁persuad	-12.8524
▁Clo	-12.8526
arian	-12.8528
▁IV	-12.853
▁malari	-12.8533
▁Malt	-12.8541
▁procrastinat	-12.8541
▁Bin	-12.8545
aptain	-12.855
▁rust	-12.8554
▁technologically	-12.8558
▁Mont	-12.8561
tted	-12.8562
▁Made	-12.8563
AL	-12.8566
▁cou	-12.8567
mail	-12.8567
condition	-12.857
definition	-12.8571
list	-12.8579
▁Bond	-12.858
▁Raise	-12.8581
▁AS	-12.8583
held	-12.8584
▁Form	-12.8585
▁exaggerat	-12.8586
▁quota	-12.8588
heard	-12.8597
▁downward	-12.8597
▁Uru	-12.8606
uza	-12.8607
▁scrutin	-12.8608
rudi	-12.8609
coat	-12.8611
▁defi	-12.8613
▁geographical	-12.8614
▁resembl	-12.8615
▁bid	-12.8624
▁pu	-12.8631
itra	-12.8632
weav	-12.8636
USB	-12.8645
▁supporter	-12.8649
fac	-12.865
▁irrigati	-12.865
▁lesser	-12.8651
▁Flo	-12.8652
▁battles	-12.8654
▁spear	-12.866
appointed	-12.866
▁cassette	-12.866
▁ACE	-12.866
▁Dubai	-12.866
▁Elephant	-12.866
▁Ferguson	-12.866
▁Pandora	-12.866
▁amputation	-12.866
▁breeze	-12.866
▁burglar	-12.866
▁conceivabl	-12.866
▁delegation	-12.866
▁escort	-12.866
▁nephew	-12.866
▁precaution	-12.866
▁probation	-12.866
▁saint	-12.866
▁soybean	-12.866
▁succumb	-12.866
▁clutch	-12.866
▁interpersonal	-12.866
▁drastic	-12.866
▁litigation	-12.866
▁monaster	-12.866
▁Gabriel	-12.866
▁sabbatical	-12.866
▁sledge	-12.866
▁proclaim	-12.866
▁Victor	-12.866
▁kidnapping	-12.866
▁hysterical	-12.866
▁crook	-12.866
▁Stroma	-12.866
▁palpabl	-12.866
▁banjo	-12.866
▁Sky	-12.866
▁clunk	-12.8661
▁reservation	-12.8661
▁guru	-12.8661
▁Quant	-12.8661
▁Poet	-12.8661
▁dexter	-12.8661
▁republic	-12.8661
▁Wind	-12.8661
▁Boeing	-12.8661
▁airbag	-12.8661
▁boardroom	-12.8661
▁Commandment	-12.8661
▁Minne	-12.8661
▁Weather	-12.8662
▁dividend	-12.8662
▁fringe	-12.8662
▁Isabel	-12.8662
▁vend	-12.8663
▁Robotic	-12.8663
▁skydiv	-12.8663
▁replay	-12.8663
▁Fifth	-12.8663
▁tractor	-12.8663
▁Emba	-12.8663
assic	-12.8663
▁chant	-12.8664
them	-12.8664
▁acro	-12.8665
▁peripheral	-12.8665
▁Enter	-12.8666
▁Kerr	-12.8667
▁dic	-12.8667
▁investigator	-12.8668
saver	-12.8668
▁latter	-12.8669
▁mystic	-12.8669
▁sane	-12.8669
▁fer	-12.8671
mah	-12.8671
▁devour	-12.8671
▁librarian	-12.8672
▁clam	-12.8673
▁institutionaliz	-12.8674
▁poacher	-12.8675
▁valu	-12.868
▁granddaughter	-12.8682
razy	-12.8682
▁hardship	-12.8683
▁Race	-12.8684
▁graft	-12.8684
▁Market	-12.8687
▁contraction	-12.8689
▁bugg	-12.8694
rana	-12.8699
▁porch	-12.8703
▁usher	-12.8704
▁goose	-12.8704
▁Train	-12.8704
▁termite	-12.8708
▁redempti	-12.8714
escent	-12.8715
▁geographically	-12.8717
▁basin	-12.8718
▁wasteful	-12.8722
▁Cas	-12.8723
▁miniatur	-12.8726
hem	-12.8727
vory	-12.8728
ilia	-12.873
▁exaggerate	-12.8732
▁tan	-12.8734
teau	-12.8734
▁Ran	-12.8737
dministration	-12.8737
▁replie	-12.8738
▁LE	-12.874
eck	-12.8743
▁Mag	-12.8745
rmed	-12.8745
▁kn	-12.8747
gro	-12.8751
▁UC	-12.8752
mont	-12.8755
▁beneficiar	-12.8755
▁ST	-12.8757
▁lymph	-12.8764
▁plausibl	-12.8767
▁McCa	-12.8768
▁Nar	-12.8768
▁99.9	-12.8773
▁margin	-12.8775
▁Shir	-12.8775
master	-12.8777
▁fisherm	-12.8779
▁plasticity	-12.8781
ntu	-12.8785
▁mon	-12.8791
erine	-12.8793
▁meditati	-12.8795
▁gifted	-12.8795
▁folder	-12.8799
▁switche	-12.8814
▁varie	-12.8815
▁aquari	-12.8817
▁trainer	-12.882
▁DE	-12.8821
▁fleeting	-12.8821
▁Rat	-12.8824
▁wond	-12.8827
pad	-12.8834
▁Osa	-12.8839
▁oral	-12.8845
blown	-12.8848
credit	-12.8848
threaten	-12.8849
mouth	-12.8849
Day	-12.885
OL	-12.8851
bbing	-12.8857
▁Pu	-12.886
▁moms	-12.8862
▁EB	-12.8863
▁hustle	-12.8869
anger	-12.8871
▁cite	-12.8871
burn	-12.8875
▁captiv	-12.8881
▁mug	-12.8888
winning	-12.8889
▁sip	-12.8892
▁multiplicati	-12.8899
▁consisten	-12.8901
spiration	-12.8903
▁clicks	-12.8903
▁locomot	-12.8903
▁Algeria	-12.8909
▁unknow	-12.8911
lvin	-12.892
▁ignit	-12.8924
▁chemo	-12.8931
mentary	-12.8934
▁Humanit	-12.8936
ipher	-12.8937
ccasional	-12.8937
▁patron	-12.8938
▁Advanc	-12.8938
▁Ancient	-12.8938
▁Bueno	-12.8938
▁Studio	-12.8938
▁adversar	-12.8938
▁biblical	-12.8938
▁correspondence	-12.8938
▁emerald	-12.8938
▁orthopedic	-12.8938
▁steroid	-12.8938
▁truffle	-12.8938
▁umbrella	-12.8938
▁uncommon	-12.8938
▁unwilling	-12.8938
▁Jacob	-12.8938
▁Fuku	-12.8938
▁seduce	-12.8938
▁downhill	-12.8938
▁Stalin	-12.8938
▁Buzz	-12.8938
▁Bilb	-12.8938
▁discount	-12.8938
▁stutter	-12.8938
▁tornado	-12.8938
▁carving	-12.8938
▁disclosure	-12.8938
▁floss	-12.8938
▁Trek	-12.8938
▁sequel	-12.8938
▁1,800	-12.8938
▁interval	-12.8938
▁Committe	-12.8939
rop	-12.8939
▁safeguard	-12.8939
▁Studie	-12.894
beat	-12.894
ception	-12.894
▁RO	-12.894
▁bailout	-12.894
▁landmark	-12.8941
▁63	-12.8941
▁Kamen	-12.8942
njunction	-12.8942
ermaid	-12.8943
minent	-12.8943
▁fulfillment	-12.8944
shalt	-12.8944
▁Gamb	-12.8946
▁Marco	-12.8948
▁distortion	-12.8948
▁Genome	-12.8948
▁Leg	-12.8949
▁24,000	-12.8949
▁revive	-12.8949
▁humanoid	-12.8949
▁rebellion	-12.895
▁Increasing	-12.8951
▁mammalian	-12.8951
▁geneticist	-12.8953
City	-12.8953
▁reacti	-12.8954
▁Extreme	-12.8954
legged	-12.8956
▁tickle	-12.8956
▁endorse	-12.8956
▁apprentice	-12.8958
▁coache	-12.896
▁3.5	-12.8963
▁heavier	-12.8963
itzer	-12.8963
▁missionar	-12.8965
▁autopsy	-12.8966
▁foresee	-12.8969
▁permeate	-12.8971
▁HC	-12.8972
▁endure	-12.8972
▁rebuil	-12.8977
▁Pack	-12.898
▁oat	-12.8981
▁reuni	-12.8985
▁tripl	-12.8993
▁Doro	-12.8994
▁circulate	-12.9003
▁Ei	-12.9005
▁fossilize	-12.9006
▁Bart	-12.9006
▁debat	-12.901
▁decod	-12.9012
▁inertia	-12.9014
▁Butler	-12.9019
▁mu	-12.902
▁spiritualit	-12.9021
▁Belt	-12.9021
path	-12.9025
▁advis	-12.903
ect	-12.9035
▁inert	-12.9037
▁blended	-12.904
▁rot	-12.904
quo	-12.9046
▁aqua	-12.9046
▁recreat	-12.9046
▁Masa	-12.9047
▁unchang	-12.9048
▁orbital	-12.9055
▁Princes	-12.9057
▁democratize	-12.9061
urance	-12.9068
angle	-12.9068
istence	-12.9069
▁Ethiopian	-12.9075
station	-12.9078
▁ID	-12.9082
ffer	-12.9085
erkat	-12.9089
▁Vot	-12.9091
▁rampa	-12.9099
▁shav	-12.9099
▁pok	-12.9102
▁Patients	-12.9107
▁serv	-12.9108
disciplinar	-12.9111
▁Vas	-12.9112
▁Ser	-12.9113
▁Dog	-12.9115
shes	-12.912
▁Sla	-12.9124
▁Wars	-12.9126
conscious	-12.9132
▁ox	-12.9133
record	-12.9134
▁Mari	-12.9138
▁crani	-12.9138
▁Superma	-12.914
▁insulat	-12.914
pie	-12.9142
rbie	-12.9143
death	-12.9143
▁Bird	-12.915
▁Bor	-12.9152
ellar	-12.9152
wind	-12.9155
▁enforc	-12.9162
▁gardener	-12.917
cam	-12.9172
▁Hul	-12.9172
nect	-12.9175
▁Tele	-12.9182
vor	-12.9182
eating	-12.9187
gli	-12.9188
▁interpla	-12.9191
ett	-12.9194
▁fertilize	-12.9195
uma	-12.9196
▁Ros	-12.9196
▁Auto	-12.9197
▁anonym	-12.9199
▁proxim	-12.92
▁alternate	-12.9209
▁plumb	-12.921
▁outperform	-12.9211
▁Explor	-12.9215
hik	-12.9218
▁persuasi	-12.922
uri	-12.9221
▁implicat	-12.9221
▁Roug	-12.9221
▁registr	-12.9222
cautious	-12.9224
▁Liquid	-12.9224
▁Quran	-12.9224
▁alleviate	-12.9224
▁brochure	-12.9224
▁deceptive	-12.9224
▁militari	-12.9224
▁minaret	-12.9224
▁nozzle	-12.9224
▁nugget	-12.9224
▁reckon	-12.9224
▁substrate	-12.9224
▁terabyte	-12.9224
▁vigorous	-12.9224
▁Angola	-12.9224
▁Generation	-12.9224
▁dazzl	-12.9224
▁LOLcat	-12.9224
▁Bacteria	-12.9224
▁pavilion	-12.9224
▁seaweed	-12.9224
▁cricket	-12.9224
▁exhal	-12.9224
▁Blair	-12.9224
▁memoir	-12.9224
▁imprint	-12.9224
▁dashboard	-12.9224
▁homeowner	-12.9224
▁fragrance	-12.9224
▁buffalo	-12.9224
▁almond	-12.9224
▁cartograph	-12.9224
▁chainsaw	-12.9224
▁chole	-12.9225
▁Mosco	-12.9225
▁mountaintop	-12.9225
▁psychic	-12.9225
▁ginger	-12.9225
rrogate	-12.9225
▁shoreline	-12.9226
▁submission	-12.9226
▁interconnection	-12.9226
▁displacement	-12.9226
▁pinch	-12.9226
▁eruption	-12.9228
▁Communication	-12.9228
arbaric	-12.9228
▁Heather	-12.9228
▁equate	-12.9229
▁accusation	-12.9229
▁confinement	-12.9229
▁Peer	-12.923
▁cartel	-12.923
▁Artist	-12.9231
▁Bam	-12.9232
▁Explorer	-12.9233
▁eloquent	-12.9233
▁tract	-12.9233
▁Stac	-12.9234
▁Tel	-12.9234
▁Grove	-12.9234
▁siz	-12.9234
▁remak	-12.9234
▁tenaci	-12.9235
▁Yemeni	-12.9236
▁ambien	-12.9236
▁Creat	-12.9236
▁Brigade	-12.9238
▁transducer	-12.9238
▁chin	-12.9238
▁Edu	-12.9241
▁communicator	-12.9241
▁Alto	-12.9241
terol	-12.9242
unge	-12.9242
▁Champ	-12.9243
cop	-12.9243
▁Harrie	-12.9243
electrifie	-12.9244
▁grazing	-12.9244
▁astrolabe	-12.9245
▁limitless	-12.9245
▁Era	-12.9246
▁spur	-12.9247
▁punctuat	-12.9247
▁dash	-12.9249
▁sue	-12.9249
▁glaci	-12.925
bridge	-12.925
▁Hind	-12.925
▁solu	-12.9254
▁Holm	-12.9255
NES	-12.9256
▁Roll	-12.9257
onia	-12.9262
▁smuggler	-12.9262
▁manta	-12.9263
▁spik	-12.9264
▁shredd	-12.9265
▁monumental	-12.9269
▁vitr	-12.9269
▁antique	-12.9272
▁marking	-12.9273
▁transcendent	-12.9274
▁Week	-12.9275
reek	-12.9277
▁nag	-12.9278
▁restless	-12.9279
▁Opera	-12.9288
▁Tunisian	-12.9292
▁shooter	-12.9294
IPP	-12.9295
▁hairs	-12.9295
▁aero	-12.9295
▁constitutional	-12.9297
▁Fine	-12.9303
▁gripp	-12.9304
▁overestimate	-12.9309
chai	-12.9312
▁homeland	-12.9313
▁Reserv	-12.9321
▁pastor	-12.9324
▁hype	-12.9327
▁marketer	-12.9331
▁arch	-12.9335
▁identifie	-12.9335
strom	-12.934
nman	-12.9342
▁commercializ	-12.9342
pack	-12.9349
ode	-12.9355
▁reliev	-12.9355
ssex	-12.9358
▁robe	-12.9359
MA	-12.9359
▁Git	-12.9365
▁Thor	-12.9368
▁sampl	-12.9373
bb	-12.9374
Bits	-12.9377
cycle	-12.9377
lese	-12.9378
▁Ley	-12.9378
surfing	-12.9392
▁brew	-12.9394
▁dissolv	-12.9403
▁Drug	-12.941
eastern	-12.9415
ague	-12.9418
ugg	-12.9422
natural	-12.9427
evolution	-12.9428
convenient	-12.9428
infect	-12.9428
MRI	-12.9428
visual	-12.9428
discover	-12.9429
capable	-12.9432
▁descen	-12.9433
▁Aw	-12.9434
▁51	-12.9437
▁tug	-12.9439
green	-12.9443
▁lapse	-12.9449
▁greener	-12.9453
▁Pun	-12.9454
▁ze	-12.9454
▁glu	-12.9457
enabl	-12.9457
doc	-12.9465
finance	-12.9472
▁Equal	-12.9473
▁utiliz	-12.9473
▁Jr	-12.9484
▁unwa	-12.9486
▁Str	-12.9488
▁Kh	-12.9489
nder	-12.9494
western	-12.9494
▁SR	-12.9495
▁badge	-12.9502
▁Cous	-12.9503
▁reviv	-12.9508
ymphon	-12.9514
▁tacti	-12.9517
▁eleven	-12.9518
Baghdad	-12.9518
▁Frankenstein	-12.9518
▁Halloween	-12.9518
▁Instagram	-12.9518
▁Occupy	-12.9518
▁Pepsi	-12.9518
▁Sleep	-12.9518
▁Spirit	-12.9518
▁clump	-12.9518
▁feast	-12.9518
▁hospice	-12.9518
▁kilowatt	-12.9518
▁multimedia	-12.9518
▁paintbrush	-12.9518
▁remorse	-12.9518
▁windshield	-12.9518
▁Critic	-12.9518
▁Plastic	-12.9518
▁attentive	-12.9518
▁elicit	-12.9518
▁grenade	-12.9518
▁eternit	-12.9518
▁heterosexual	-12.9518
▁modalit	-12.9518
▁reminisc	-12.9518
▁shaft	-12.9518
▁forensic	-12.9518
▁caterpillar	-12.9518
▁taxonom	-12.9518
▁Blind	-12.9518
▁entrenche	-12.9518
▁Hiroshima	-12.9518
▁libertarian	-12.9518
▁ivory	-12.9518
▁beacon	-12.9518
▁fifty	-12.9518
▁league	-12.9518
▁orchid	-12.9518
▁Diamond	-12.9518
▁grandmaster	-12.9518
▁whack	-12.9519
▁noninvasive	-12.9519
▁evolutionarily	-12.9519
▁Shack	-12.9519
▁Erik	-12.9519
▁Infinit	-12.9519
▁unsafe	-12.952
▁Milan	-12.952
wry	-12.952
▁synerg	-12.9521
ggie	-12.9521
▁streak	-12.9521
▁assay	-12.9521
▁1947	-12.9522
inister	-12.9522
▁persuasion	-12.9522
▁strawberr	-12.9522
▁Shah	-12.9523
▁Twa	-12.9524
catch	-12.9524
NH	-12.9526
▁dialect	-12.9526
tree	-12.9527
▁beheading	-12.9527
▁Eat	-12.9527
▁cradle	-12.9527
▁setback	-12.9527
▁irrigat	-12.9529
▁fork	-12.9531
▁rex	-12.9531
▁graze	-12.9532
uitar	-12.9532
▁thorn	-12.9533
▁referral	-12.9534
▁dire	-12.9536
▁teen	-12.9538
▁funk	-12.9539
shore	-12.9539
▁RD	-12.954
▁torment	-12.9541
▁Highway	-12.9543
YU	-12.9546
▁Saga	-12.9546
▁partisan	-12.9547
▁tracker	-12.955
▁breathtaking	-12.955
▁Ashle	-12.9552
▁Fab	-12.9553
▁surfer	-12.9554
▁villager	-12.9556
▁retailer	-12.9559
▁paradoxical	-12.956
▁outstanding	-12.9561
▁archetype	-12.9562
▁laborer	-12.9564
▁Biospher	-12.9566
dad	-12.9567
▁sorrow	-12.957
▁wag	-12.9571
▁deteriorat	-12.9571
▁synthesizer	-12.9572
getting	-12.9576
roa	-12.9583
▁Speci	-12.9583
▁Ren	-12.9586
ndra	-12.959
▁Madam	-12.959
erence	-12.9596
▁Egg	-12.9604
▁circl	-12.9611
zhen	-12.9619
rial	-12.962
cutter	-12.9621
▁consol	-12.9624
leen	-12.963
▁sacrific	-12.9631
▁gig	-12.9635
▁Runn	-12.9643
▁Dian	-12.9647
ano	-12.9648
owa	-12.9651
▁Connect	-12.9652
cep	-12.9653
▁Naj	-12.9654
▁goof	-12.9654
▁Gee	-12.9659
▁tactical	-12.966
▁compile	-12.9662
▁compil	-12.9673
▁Zu	-12.9682
▁BR	-12.9684
inson	-12.9684
▁readi	-12.9689
▁excavat	-12.9693
astro	-12.9693
ummy	-12.9693
technology	-12.97
erra	-12.9704
cene	-12.9704
▁Multi	-12.9705
sein	-12.9706
▁vaccinate	-12.971
trove	-12.9715
morph	-12.9722
▁Lan	-12.9724
▁barber	-12.9725
through	-12.9731
distance	-12.9732
ocean	-12.9732
crow	-12.9732
▁Fran	-12.9732
▁coating	-12.9735
rgh	-12.9738
task	-12.9739
polis	-12.9745
▁Hands	-12.9746
▁contemplate	-12.9748
▁disseminat	-12.9749
.8	-12.9758
▁pollute	-12.9759
ggy	-12.9764
ois	-12.9767
▁categorize	-12.9768
▁extrapolate	-12.9775
▁Gil	-12.978
▁ply	-12.9784
hearted	-12.9789
▁Sandr	-12.9797
▁trawl	-12.9799
▁amplifie	-12.98
static	-12.9803
misphere	-12.9804
▁propel	-12.9805
planetary	-12.9808
▁neurologic	-12.9808
edible	-12.9812
▁glide	-12.9812
▁filmmak	-12.9814
▁formulate	-12.9817
spot	-12.9817
lux	-12.9819
communica	-12.982
▁legitima	-12.982
▁Affair	-12.9821
▁Balkan	-12.9821
▁Buckminster	-12.9821
▁Embrac	-12.9821
▁Future	-12.9821
▁Glacier	-12.9821
▁Urban	-12.9821
▁chirp	-12.9821
▁cliche	-12.9821
▁commemorat	-12.9821
▁constituenc	-12.9821
▁ghetto	-12.9821
▁gospel	-12.9821
▁jumble	-12.9821
▁misinterpret	-12.9821
▁obituar	-12.9821
▁pellet	-12.9821
▁pelvi	-12.9821
▁reassuring	-12.9821
▁debilitat	-12.9821
▁sliver	-12.9821
▁compartment	-12.9821
▁unicorn	-12.9821
▁utilitarian	-12.9821
▁engulf	-12.9821
▁ballast	-12.9821
▁enclosure	-12.9821
▁quirk	-12.9821
▁Mandar	-12.9821
▁pilgrimage	-12.9821
▁wanna	-12.9821
▁probiotic	-12.9821
▁barbecue	-12.9821
▁gloss	-12.9821
▁rehearse	-12.9821
▁Rabbi	-12.9821
▁nann	-12.9821
▁revisit	-12.9821
▁approximation	-12.9821
hotom	-12.9821
▁Morning	-12.9821
▁agitat	-12.9821
▁typewriter	-12.9821
▁boycott	-12.9822
▁wretche	-12.9822
▁Speed	-12.9822
▁opium	-12.9822
▁unchar	-12.9822
▁flashlight	-12.9822
▁exoskeleton	-12.9822
▁rack	-12.9822
▁recap	-12.9822
▁cosmologist	-12.9822
Family	-12.9822
▁deput	-12.9822
▁paddle	-12.9823
▁spotlight	-12.9823
▁shareholder	-12.9823
▁paw	-12.9824
▁Senator	-12.9824
ollock	-12.9825
▁1850	-12.9826
▁simplifie	-12.9826
▁suffocat	-12.9826
▁villain	-12.9826
▁Jung	-12.9826
▁presumption	-12.9826
▁spoofer	-12.9826
▁Michelle	-12.9826
osaurus	-12.9827
▁stigmatiz	-12.9827
▁EU	-12.9828
▁discriminate	-12.9829
anthrop	-12.9829
▁conductiv	-12.9829
▁gigawatt	-12.9831
▁nostalgi	-12.9831
▁octave	-12.9831
▁magnifi	-12.9832
▁avert	-12.9834
▁apprais	-12.9835
▁leftover	-12.9836
▁eject	-12.9836
▁demoraliz	-12.9837
▁CL	-12.9838
▁specialization	-12.9838
▁quarti	-12.9839
▁dumm	-12.984
▁discourag	-12.9841
▁Adi	-12.9842
IN	-12.9842
▁reel	-12.9842
ascar	-12.9843
▁Noise	-12.9843
▁biochemistr	-12.9843
▁Manch	-12.9844
▁Burk	-12.9847
▁recurren	-12.9848
▁whipp	-12.9849
pal	-12.985
▁fascinate	-12.9851
▁reciprocal	-12.9852
▁glaze	-12.9853
▁Gor	-12.9857
▁swapp	-12.9857
▁SC	-12.9859
▁17-	-12.9863
lima	-12.9864
▁Valentin	-12.9865
▁dangl	-12.9865
▁butcher	-12.9866
▁profitabl	-12.9866
▁hesita	-12.9866
▁dressing	-12.9869
deal	-12.987
▁74	-12.9873
▁Blak	-12.9873
▁linger	-12.9875
▁Hour	-12.9879
variabl	-12.988
▁fiddle	-12.9881
▁encoder	-12.9883
▁Rocket	-12.9888
icate	-12.989
stical	-12.989
aunt	-12.9892
▁matur	-12.9895
assemble	-12.9895
▁Words	-12.9897
▁northwest	-12.9899
abi	-12.99
▁Kite	-12.99
ema	-12.9907
▁Billi	-12.9907
▁degenerati	-12.9917
▁Fri	-12.9922
▁Judi	-12.9926
tah	-12.9928
▁Beverl	-12.9935
shima	-12.994
La	-12.9948
NC	-12.9949
▁SH	-12.9952
▁rehabilitat	-12.9954
▁interrogat	-12.9958
spectr	-12.9967
change	-12.9971
▁deconstruct	-12.9976
▁presume	-12.9978
states	-12.9982
▁Lion	-12.9985
meaning	-12.9986
hai	-12.9986
▁una	-13.0001
glass	-13.0003
▁rejuvenat	-13.0003
value	-13.0007
▁60-	-13.0012
harmonic	-13.0013
▁allud	-13.0017
▁bubbl	-13.002
etti	-13.0021
usa	-13.0022
▁Him	-13.0023
▁Won	-13.0023
vant	-13.0025
▁Inc	-13.0025
▁calve	-13.0027
▁utilit	-13.0029
▁bot	-13.0031
▁tub	-13.0034
good	-13.0034
▁Kam	-13.0034
▁spher	-13.0036
▁waterway	-13.0043
implant	-13.0044
prepared	-13.0044
normal	-13.0044
haul	-13.0044
balance	-13.0044
fus	-13.0049
feed	-13.005
ija	-13.0051
▁astrophysic	-13.0051
▁Happi	-13.0052
publishe	-13.0069
▁altruist	-13.0076
▁romanticiz	-13.0079
▁Kai	-13.0079
▁Mali	-13.0081
▁unma	-13.0083
▁Fold	-13.0085
▁prohibition	-13.0086
▁cog	-13.0088
▁Tak	-13.0092
▁starve	-13.0095
▁instruct	-13.0099
▁Philipp	-13.0102
untu	-13.0103
▁Ring	-13.0105
layer	-13.011
▁reprogram	-13.0115
▁Mathematic	-13.0117
▁Somali	-13.0122
oko	-13.0124
▁harden	-13.0125
▁Cu	-13.0125
▁tumbl	-13.0127
▁crowdsourc	-13.0128
▁ub	-13.0128
▁Hat	-13.013
▁Contra	-13.0131
▁affirm	-13.0131
▁urg	-13.0133
ampaign	-13.0133
▁prolif	-13.0133
▁circum	-13.0133
ü	-13.0133
▁Cameroon	-13.0133
▁Agricultur	-13.0133
▁PDF	-13.0133
▁congregation	-13.0133
▁expir	-13.0133
▁filth	-13.0133
▁pianist	-13.0133
▁pinnacle	-13.0133
▁prairie	-13.0133
▁puddle	-13.0133
▁ruthless	-13.0133
▁terrace	-13.0133
▁Inuit	-13.0134
▁Battle	-13.0134
▁aristocra	-13.0134
▁humpback	-13.0134
▁sift	-13.0134
▁misinform	-13.0134
▁resent	-13.0134
▁fanatic	-13.0134
▁hallmark	-13.0134
▁frail	-13.0134
▁Stux	-13.0134
▁Kiva	-13.0134
▁narrator	-13.0134
▁Patent	-13.0134
▁flora	-13.0134
▁Double	-13.0134
▁futil	-13.0134
▁savage	-13.0135
▁fluke	-13.0135
▁emperor	-13.0135
▁epoch	-13.0135
▁harp	-13.0135
▁defensive	-13.0135
▁cocoon	-13.0135
▁lurk	-13.0135
▁Stick	-13.0135
29	-13.0136
▁eyeball	-13.0136
▁waitress	-13.0136
▁reorganize	-13.0136
▁arrowhead	-13.0137
▁depletion	-13.0137
overty	-13.0137
▁empti	-13.0138
▁slug	-13.0139
▁79	-13.0139
▁Hamp	-13.0139
▁betrayal	-13.014
▁hierarchical	-13.014
▁Knight	-13.0141
▁firefighter	-13.0142
▁Sela	-13.0142
▁farthe	-13.0142
▁Ern	-13.0143
▁sitcom	-13.0143
▁trance	-13.0145
▁naught	-13.0145
▁Hunter	-13.0146
▁Christin	-13.0148
rahim	-13.0149
▁Mathematica	-13.0149
▁snapp	-13.015
▁spru	-13.0153
▁Hang	-13.0154
▁Raja	-13.0154
▁HA	-13.0155
▁salv	-13.0155
alph	-13.0158
▁residence	-13.0158
▁sanct	-13.0159
▁broaden	-13.0162
realistic	-13.0166
▁cavit	-13.0166
▁decreas	-13.0168
ifying	-13.0168
▁Maurit	-13.0169
▁eagle	-13.0169
▁Ubu	-13.0171
▁revert	-13.0175
mode	-13.0175
▁commuter	-13.0177
▁restraint	-13.0179
▁Must	-13.0182
▁banal	-13.0184
▁Rican	-13.0186
ux	-13.0188
lga	-13.0188
▁dismay	-13.0191
tzman	-13.0191
▁fable	-13.0196
▁roaring	-13.0204
leton	-13.0205
▁quotation	-13.0206
▁noon	-13.0215
▁Libyan	-13.0215
fast	-13.0217
▁Hur	-13.0217
chk	-13.0217
raba	-13.0221
▁Mik	-13.0223
▁marginal	-13.0225
▁patche	-13.024
▁verifi	-13.0241
▁Natali	-13.0241
▁commonalit	-13.0242
▁orb	-13.025
▁shorten	-13.0254
▁munition	-13.0254
▁dimm	-13.0255
▁Burn	-13.0255
▁viewers	-13.0256
aka	-13.0262
nya	-13.0266
mba	-13.0267
iable	-13.0269
▁pa	-13.0274
▁compensate	-13.0274
▁v	-13.0279
▁dent	-13.028
▁decorati	-13.0281
▁chok	-13.029
▁Cook	-13.0294
wave	-13.0301
▁pl	-13.0304
▁understate	-13.0306
▁Cam	-13.0312
plex	-13.0313
pol	-13.032
▁bushe	-13.0325
▁copulat	-13.0333
▁recycler	-13.034
▁typograph	-13.0341
rian	-13.0347
nese	-13.0347
▁Fift	-13.035
ural	-13.0352
vich	-13.0354
boat	-13.0359
uction	-13.036
▁diverge	-13.0363
▁ob	-13.0363
▁modes	-13.0364
▁Cur	-13.0365
safe	-13.0366
important	-13.0367
click	-13.0367
strand	-13.037
▁Word	-13.0376
ench	-13.0376
PS	-13.0379
hhh	-13.0394
▁philanthropic	-13.0396
▁Ham	-13.0397
▁echoe	-13.04
▁slim	-13.0407
replicating	-13.0409
under	-13.0413
ertie	-13.0414
enable	-13.0415
▁converse	-13.0415
max	-13.0419
▁illustrat	-13.042
cock	-13.0424
ken	-13.0426
uf	-13.0427
▁sever	-13.0432
ocation	-13.0432
▁Magn	-13.0434
▁enslave	-13.044
▁Auguste	-13.0442
▁aspirin	-13.0443
mination	-13.0443
▁coincide	-13.0445
akash	-13.0446
▁exert	-13.0453
▁recess	-13.0453
rilliant	-13.0455
▁advert	-13.0455
rexit	-13.0456
▁pedagog	-13.0456
▁Culture	-13.0456
▁Kickstarter	-13.0456
▁Target	-13.0456
▁brittle	-13.0456
▁colossal	-13.0456
▁complacen	-13.0456
▁constituent	-13.0456
▁critique	-13.0456
▁delicac	-13.0456
▁dissident	-13.0456
▁frivolous	-13.0456
▁kiosk	-13.0456
▁logarithm	-13.0456
▁obedien	-13.0456
▁ominous	-13.0456
▁quartz	-13.0456
▁rudder	-13.0456
▁sausage	-13.0456
▁sectarian	-13.0456
▁Cornell	-13.0456
▁catheter	-13.0456
▁Match	-13.0456
▁salut	-13.0456
▁unconditional	-13.0456
▁abduct	-13.0456
▁submerge	-13.0456
▁underdog	-13.0456
▁archaic	-13.0456
▁lobster	-13.0456
▁Adult	-13.0456
▁demolish	-13.0456
▁departure	-13.0456
▁intermediate	-13.0456
▁ministr	-13.0456
▁mitochondria	-13.0456
▁twitch	-13.0456
▁vault	-13.0456
▁brigade	-13.0456
▁Resist	-13.0456
▁747	-13.0457
▁orthodox	-13.0457
▁ballroom	-13.0457
▁jit	-13.0457
▁cobble	-13.0457
▁swoop	-13.0457
▁fox	-13.0457
▁suburbia	-13.0457
▁crayon	-13.0457
▁suspension	-13.0457
▁ferment	-13.0458
▁bride	-13.0458
▁Owen	-13.0458
▁ballistic	-13.0458
▁Nino	-13.0459
▁guardian	-13.0459
▁Flight	-13.046
▁Declar	-13.046
▁Goul	-13.046
▁Malari	-13.046
▁topograph	-13.046
▁clogg	-13.0461
▁inspector	-13.0461
RES	-13.0461
▁Wang	-13.0461
▁Capit	-13.0461
▁Gross	-13.0462
▁Diver	-13.0462
▁Allow	-13.0463
▁headset	-13.0463
▁Hippocrat	-13.0463
▁peck	-13.0464
izzy	-13.0465
▁depiction	-13.0466
▁damp	-13.0469
▁Honor	-13.0469
▁discretion	-13.047
▁successive	-13.047
efront	-13.0472
abul	-13.0472
▁warden	-13.0475
▁Wint	-13.0475
▁spat	-13.0477
▁mi	-13.0478
gio	-13.0479
etter	-13.048
▁overlapp	-13.0484
▁decoupl	-13.0484
tick	-13.0485
▁narcissist	-13.0486
▁truthful	-13.0487
SE	-13.0487
ample	-13.0489
▁diner	-13.049
▁jig	-13.0491
nom	-13.0491
elle	-13.0492
utu	-13.0494
geant	-13.0494
▁uter	-13.0497
usie	-13.0498
▁wiggle	-13.0501
readnought	-13.0506
▁Mobil	-13.0508
▁appalling	-13.0513
▁bik	-13.0515
▁Farm	-13.0516
▁mania	-13.0517
▁predictor	-13.0518
▁insufficient	-13.0518
▁Rag	-13.0518
▁Song	-13.052
▁thermostat	-13.0522
▁enlarge	-13.0523
▁duplicate	-13.0531
nuck	-13.054
▁plung	-13.0547
▁rhythmic	-13.0559
bara	-13.056
▁skier	-13.0568
▁momentous	-13.0568
▁Clar	-13.0569
icha	-13.0572
▁jo	-13.0573
▁teeny	-13.0574
▁calv	-13.0575
CR	-13.0577
▁Gal	-13.0582
▁juic	-13.0585
nowledge	-13.0592
▁yo	-13.0595
▁pissed	-13.0597
▁hopp	-13.06
▁splitt	-13.0603
▁Eh	-13.0603
▁Vivi	-13.0604
gger	-13.0608
▁logistical	-13.0611
▁padd	-13.0612
cule	-13.0612
listic	-13.0614
▁pointer	-13.0624
▁Marl	-13.0628
▁Colon	-13.0631
▁academi	-13.0633
via	-13.0634
▁11-	-13.0635
pecific	-13.0643
▁epi	-13.0652
▁crumbl	-13.0657
▁retrieve	-13.0663
igible	-13.067
▁thousandth	-13.0672
▁105	-13.0674
▁retract	-13.0677
holder	-13.0687
pool	-13.0692
▁accord	-13.0693
▁pals	-13.0694
frame	-13.0699
▁metastas	-13.07
square	-13.07
▁Drive	-13.0705
ider	-13.0708
▁MB	-13.0714
▁purposeful	-13.0716
▁Fields	-13.0716
▁Hart	-13.0719
rset	-13.0719
offend	-13.0725
▁acu	-13.0726
cap	-13.0729
▁deteriorate	-13.0729
▁Gun	-13.0737
▁Rod	-13.0739
▁Buddhis	-13.074
▁Northwest	-13.0741
▁confer	-13.0762
late	-13.0764
▁recurr	-13.0769
▁oceanograph	-13.077
▁fragil	-13.077
▁transcenden	-13.0778
▁Non	-13.078
review	-13.078
bend	-13.0782
▁Sim	-13.0782
▁Chen	-13.0784
▁speculati	-13.0784
▁reign	-13.0789
▁Guard	-13.0789
▁Explosi	-13.0789
multipotentialit	-13.0789
▁Choice	-13.0789
▁Conscious	-13.0789
▁Entropi	-13.0789
▁Everglade	-13.0789
▁Feminist	-13.0789
▁Gaddafi	-13.0789
▁Scrapper	-13.0789
▁appendage	-13.0789
▁biomarker	-13.0789
▁calibrate	-13.0789
▁collateral	-13.0789
▁engrav	-13.0789
▁geyser	-13.0789
▁liminal	-13.0789
▁quadruple	-13.0789
▁reconsider	-13.0789
▁regress	-13.0789
bimetal	-13.0789
▁1.7	-13.0789
▁debut	-13.0789
▁myriad	-13.0789
▁razor	-13.0789
▁Complete	-13.0789
▁propriet	-13.0789
▁aperture	-13.0789
▁maim	-13.0789
▁Nicole	-13.0789
▁critter	-13.0789
▁Immediate	-13.0789
▁biomimic	-13.0789
▁Igbo	-13.0789
▁sympathetic	-13.0789
▁ROV	-13.079
▁anecdotal	-13.079
▁dizzy	-13.079
▁impart	-13.079
▁courtroom	-13.079
▁hotspot	-13.079
▁lumber	-13.079
▁infanc	-13.079
▁theorist	-13.079
mingham	-13.079
▁darling	-13.079
▁bl	-13.079
▁dissonance	-13.0791
▁videotape	-13.0791
▁safari	-13.0791
▁chronological	-13.0791
▁scalp	-13.0791
▁hoop	-13.0791
▁Member	-13.0791
▁genre	-13.0792
▁granular	-13.0792
▁reassemble	-13.0792
▁hap	-13.0792
▁pathologist	-13.0792
▁Dennis	-13.0793
▁Smart	-13.0794
▁wiretapp	-13.0794
▁reversal	-13.0795
▁Denisovan	-13.0795
▁animator	-13.0796
▁Income	-13.0796
▁Gravit	-13.0797
▁carpool	-13.0797
▁Huge	-13.0798
▁Gradua	-13.0798
ylon	-13.0798
▁geopolitical	-13.0798
▁creed	-13.0799
▁youngster	-13.0799
▁skinny	-13.0799
▁skyline	-13.08
▁sonic	-13.08
▁Male	-13.0802
▁seren	-13.0803
▁16,000	-13.0805
▁Diplomat	-13.0805
▁backbone	-13.0807
▁oversight	-13.0807
▁archer	-13.0808
▁lord	-13.0808
▁Hama	-13.081
due	-13.0813
▁aversion	-13.0814
aries	-13.0815
▁Lance	-13.0815
▁ec	-13.0816
tenth	-13.0818
enesis	-13.0821
incidence	-13.0822
▁Action	-13.0823
▁crow	-13.0824
▁breakup	-13.0825
ometer	-13.0833
▁freed	-13.0833
▁comeback	-13.0833
▁Jamaican	-13.0834
▁Beaut	-13.0835
lever	-13.0838
▁faction	-13.0839
▁captive	-13.084
▁Bye	-13.0841
fusion	-13.0841
▁Press	-13.0844
▁cello	-13.0847
▁var	-13.0851
antha	-13.0857
spective	-13.0858
extraterrestrial	-13.0861
▁Gaga	-13.0862
▁Billy	-13.0866
larges	-13.0866
▁comp	-13.0867
PO	-13.0867
FC	-13.0869
[...]
