<unk>	0
<s>	0
</s>	0
<pad>	0
s	-2.60217
▁,	-3.18506
▁de	-3.22783
▁.	-3.26978
▁a	-3.58973
▁e	-3.86128
▁o	-3.96317
▁que	-4.27195
;	-4.37681
▁&	-4.40467
▁do	-4.40666
quot	-4.44658
▁en	-4.51894
▁da	-4.55126
▁	-4.61369
o	-4.93091
a	-4.95319
▁A	-5.0262
▁un	-5.08033
▁O	-5.20762
▁no	-5.21169
▁unha	-5.21544
▁é	-5.21717
se	-5.22987
n	-5.23418
▁na	-5.30787
(	-5.35099
▁)	-5.36259
mente	-5.44403
es	-5.49134
▁se	-5.51501
▁súa	-5.52246
▁os	-5.52739
▁por	-5.54561
is	-5.56168
▁como	-5.57283
▁seu	-5.57994
▁ao	-5.58194
▁para	-5.5824
▁con	-5.72472
▁foi	-5.72913
▁máis	-5.76521
▁dos	-5.80435
u	-5.8172
ndo	-5.88551
▁á	-5.92381
l	-5.96866
▁non	-6.06569
▁ou	-6.07684
▁:	-6.1548
▁En	-6.17097
ción	-6.2819
▁ano	-6.31783
▁son	-6.32175
on	-6.32361
r	-6.341
▁das	-6.38741
▁polo	-6.4319
▁entre	-6.46652
▁co	-6.52227
▁d	-6.5229
e	-6.57355
▁tamén	-6.57582
nde	-6.58715
▁pola	-6.59179
▁coa	-6.65453
▁No	-6.67564
▁parte	-6.68551
▁Os	-6.73508
▁ser	-6.79585
urante	-6.8048
▁anos	-6.81046
▁era	-6.81653
▁sobre	-6.88688
▁cidade	-6.90366
ia	-6.91999
▁século	-6.9284
▁I	-6.93759
▁dun	-6.94285
▁primeiro	-6.95023
índa	-6.97989
▁ata	-6.98174
▁está	-6.99497
▁xa	-6.99841
ón	-7.00329
0	-7.00371
▁ó	-7.01153
▁C	-7.01659
▁pero	-7.02894
do	-7.03073
ou	-7.03358
▁ten	-7.06739
▁P	-7.07231
ron	-7.1085
1	-7.13765
▁illa	-7.14034
▁todo	-7.14943
▁primeira	-7.14983
▁dunha	-7.15443
▁cando	-7.15516
idade	-7.15724
▁forma	-7.16345
▁nome	-7.16654
▁poboación	-7.18245
▁este	-7.19876
▁mesmo	-7.20459
▁As	-7.20651
▁Na	-7.20955
5	-7.21422
▁pode	-7.21471
▁outro	-7.23742
▁moi	-7.23869
8	-7.24413
▁foro	-7.24437
▁dous	-7.2642
▁maior	-7.28601
▁nos	-7.2916
▁De	-7.29176
▁D	-7.29778
sde	-7.3088
▁grande	-7.31333
▁tiña	-7.31881
▁lugar	-7.33114
▁esta	-7.3331
▁nun	-7.33573
en	-7.34033
ía	-7.35087
▁habitante	-7.37521
ais	-7.37843
▁só	-7.39367
▁sen	-7.39465
▁grupo	-7.40074
embro	-7.40522
▁día	-7.40967
▁tempo	-7.4097
2	-7.41044
3	-7.41738
▁outra	-7.43342
4	-7.43403
nse	-7.4347
7	-7.43595
▁E	-7.43738
▁T	-7.45076
9	-7.45174
6	-7.46026
▁concello	-7.46435
%	-7.47152
▁Estado	-7.47523
▁nas	-7.49287
▁2	-7.50205
▁É	-7.50505
és	-7.50626
▁tres	-7.51258
▁Por	-7.51625
▁San	-7.52421
▁1	-7.52729
▁Este	-7.52976
▁importante	-7.54031
▁estado	-7.54054
úas	-7.54895
▁obra	-7.55202
cia	-7.55291
▁nunha	-7.55375
▁moito	-7.56344
▁novo	-7.58513
▁contra	-7.5873
este	-7.60816
▁gran	-7.61143
▁segundo	-7.62054
▁lingua	-7.63095
▁Segund	-7.65327
▁vez	-7.65794
▁principal	-7.66024
▁así	-7.66193
da	-7.67036
z	-7.67183
▁país	-7.67219
▁parroquia	-7.67739
▁hai	-7.67944
▁Foi	-7.68074
▁sistema	-7.68126
▁m	-7.68137
▁guerra	-7.68331
▁xu	-7.6855
én	-7.69024
▁actual	-7.69131
▁home	-7.69315
pois	-7.69375
▁estaba	-7.69775
▁río	-7.71825
▁zona	-7.72026
▁goberno	-7.72411
▁banda	-7.73548
▁rexión	-7.73924
▁rei	-7.73977
▁;	-7.74189
y	-7.74757
▁ás	-7.74763
▁Esta	-7.75761
▁mundo	-7.76023
▁polos	-7.76184
▁km	-7.77086
▁norte	-7.77107
▁Un	-7.77257
apos	-7.77307
▁número	-7.77456
▁vida	-7.77654
▁baixo	-7.77676
▁toda	-7.77779
▁cada	-7.78012
▁muller	-7.79515
▁cara	-7.80338
▁lle	-7.80666
▁cunha	-7.80774
▁seguinte	-7.8081
▁provincia	-7.8099
▁sur	-7.81046
▁ante	-7.81519
▁B	-7.83115
▁000	-7.83672
▁F	-7.83805
▁deste	-7.84046
▁nova	-7.8491
▁poden	-7.85432
▁traballo	-7.85841
▁relación	-7.86441
▁están	-7.86994
▁Galicia	-7.8745
▁M	-7.89297
▁tanto	-7.90899
▁punto	-7.91596
▁auga	-7.91925
▁teñ	-7.92427
▁tipo	-7.92603
▁media	-7.92754
▁pouco	-7.93277
▁194	-7.93298
▁cun	-7.93344
á	-7.93928
▁capital	-7.9429
mento	-7.94593
▁época	-7.94623
án	-7.94867
▁medio	-7.9536
é	-7.95454
▁fillo	-7.95801
▁final	-7.95902
ismo	-7.96321
▁Con	-7.96511
▁mar	-7.96676
za	-7.96822
▁España	-7.97194
res	-7.97326
▁196	-7.97568
▁poder	-7.97671
nte	-7.97788
▁coma	-7.98711
II	-7.99243
▁desta	-7.99289
▁tivo	-7.99579
▁cal	-7.99738
▁xeral	-7.9996
▁historia	-7.99973
▁familia	-8.00687
▁195	-8.00822
▁Unidos	-8.01577
▁3	-8.01618
ño	-8.01652
▁S	-8.01705
amén	-8.02045
▁territorio	-8.02201
▁galego	-8.0258
▁algún	-8.03268
▁/	-8.03426
▁período	-8.04396
▁193	-8.0443
▁especie	-8.05118
▁mai	-8.05893
▁exemplo	-8.06861
▁morte	-8.06962
mos	-8.07135
▁política	-8.07508
▁partir	-8.08302
i	-8.08532
▁xunto	-8.08557
▁Europ	-8.08918
▁catro	-8.08954
▁ben	-8.09222
▁equipo	-8.09976
▁centro	-8.1026
▁membro	-8.10982
▁maioría	-8.11022
▁vario	-8.11385
▁Para	-8.11799
▁longo	-8.12364
▁total	-8.12521
▁caso	-8.12845
-	-8.12914
▁coñecido	-8.13039
▁II	-8.13918
▁logo	-8.14066
▁despo	-8.14095
▁xeito	-8.15497
▁último	-8.15938
ronse	-8.16562
▁menos	-8.16724
▁orixe	-8.16808
▁persoas	-8.16852
▁Unha	-8.16989
▁XI	-8.17173
▁192	-8.17237
▁feito	-8.17241
llo	-8.17336
▁resto	-8.17798
▁especial	-8.17943
t	-8.17947
▁área	-8.1847
▁partido	-8.18717
mo	-8.18837
ntro	-8.19017
té	-8.19045
▁cos	-8.19128
▁nado	-8.1987
▁terra	-8.19985
sto	-8.20529
▁Franci	-8.20844
iro	-8.21764
▁serie	-8.21926
▁moita	-8.22265
▁comezou	-8.22281
▁veces	-8.22587
ba	-8.22968
▁varia	-8.23442
▁mentr	-8.23501
▁ter	-8.23847
▁10	-8.25213
▁mesma	-8.25296
▁diferentes	-8.26027
▁forza	-8.26029
▁todos	-8.26399
▁millóns	-8.2677
ago	-8.27361
▁momento	-8.27755
▁191	-8.2798
aña	-8.28294
▁facer	-8.28301
▁5	-8.28951
▁4	-8.29305
▁fin	-8.29453
▁base	-8.29603
▁segunda	-8.29763
▁Santa	-8.30372
▁militar	-8.30408
▁la	-8.30999
io	-8.31054
▁chamado	-8.31679
▁proceso	-8.3176
▁debido	-8.32188
▁La	-8.32249
▁nin	-8.3233
▁posterior	-8.32367
▁carreira	-8.3249
▁Se	-8.32917
▁Á	-8.33021
▁case	-8.33092
▁travé	-8.33097
ntón	-8.33319
▁principa	-8.33844
▁20	-8.34006
▁popular	-8.34083
▁N	-8.3412
▁197	-8.34601
neiro	-8.34683
▁fai	-8.35052
▁Nova	-8.35784
▁termo	-8.36003
▁anterior	-8.36269
▁Entre	-8.36357
▁uso	-8.36438
▁década	-8.36501
▁Así	-8.36926
▁ca	-8.3693
▁pequena	-8.37497
▁antigo	-8.37498
▁si	-8.38356
▁Adem	-8.38504
▁elemento	-8.3921
▁atópa	-8.39817
▁principio	-8.40287
▁Ao	-8.40323
▁algunha	-8.40415
▁preto	-8.40919
▁países	-8.40963
▁Como	-8.41057
▁álbum	-8.41315
▁cultura	-8.41411
▁V	-8.41431
▁The	-8.41823
▁conta	-8.42011
▁pai	-8.42396
▁superficie	-8.42472
▁maio	-8.42586
▁pequeno	-8.42633
▁tarde	-8.42945
▁éxito	-8.43383
▁igrexa	-8.43486
▁el	-8.43514
▁fixo	-8.43654
▁político	-8.43761
▁actividade	-8.43846
▁Santi	-8.44167
▁set	-8.44247
▁Historia	-8.44659
▁propio	-8.45076
▁Universidade	-8.4526
▁liña	-8.4575
▁metro	-8.45928
▁común	-8.46798
▁construción	-8.46912
▁coñecida	-8.47224
▁costa	-8.473
▁-	-8.47343
▁mellor	-8.47359
▁Guerra	-8.47766
»	-8.47974
▁forte	-8.48143
▁palabra	-8.4819
«	-8.48405
X	-8.48693
▁Imperio	-8.4873
▁1999	-8.48731
▁converteu	-8.48741
▁abril	-8.49275
ubro	-8.49346
▁problema	-8.49383
▁leste	-8.49426
▁finais	-8.49539
▁sería	-8.49855
▁dec	-8.49896
▁out	-8.50286
▁quen	-8.50476
▁R	-8.50499
▁antiga	-8.50518
▁190	-8.50716
er	-8.51245
▁ago	-8.51937
▁oficial	-8.52188
▁corpo	-8.52325
▁adem	-8.52375
▁título	-8.52485
▁estrutura	-8.52625
▁L	-8.53401
▁disco	-8.53429
▁cambio	-8.53557
al	-8.53571
▁pobo	-8.53735
▁dereito	-8.5385
▁X	-8.54012
▁María	-8.54065
▁desenvolvemento	-8.54124
▁servizo	-8.54227
▁30	-8.54342
▁nov	-8.54425
▁casa	-8.54501
▁Gran	-8.54768
▁hoxe	-8.54839
▁exército	-8.55108
▁chamada	-8.55311
▁re	-8.55447
ta	-8.56094
▁tempada	-8.56281
▁Madrid	-8.56348
▁6	-8.56478
▁estilo	-8.56504
ca	-8.56814
▁tras	-8.56823
▁movemento	-8.57057
▁función	-8.57141
▁isto	-8.57488
▁presidente	-8.57625
▁grego	-8.57644
▁Ten	-8.57701
▁pasou	-8.57975
ín	-8.58044
▁resultado	-8.58068
▁15	-8.58084
▁2004	-8.5817
▁produción	-8.58222
▁Despo	-8.58497
▁conxunto	-8.58602
▁entidade	-8.58637
▁idea	-8.58643
▁reino	-8.58936
▁planta	-8.59102
▁cinco	-8.59173
sempre	-8.59599
▁calquer	-8.59754
▁febre	-8.59815
lí	-8.59828
▁propia	-8.60023
▁El	-8.60153
▁tema	-8.60228
▁Terra	-8.60306
▁chegou	-8.60691
lle	-8.61005
ez	-8.6127
▁música	-8.61674
▁Reino	-8.62141
▁Pero	-8.62536
▁&#93;	-8.62583
▁XVI	-8.63001
▁estudo	-8.63374
▁teoría	-8.63628
▁chegar	-8.6417
▁fora	-8.64481
▁galega	-8.64595
▁&#9	-8.64609
▁Illa	-8.64613
▁República	-8.64722
▁posúe	-8.64807
▁2006	-8.64875
▁interior	-8.64977
▁temperatura	-8.65147
▁versión	-8.65506
▁situada	-8.65532
▁di	-8.65551
▁25	-8.65638
▁orde	-8.65638
▁cor	-8.65687
▁industria	-8.66242
▁nivel	-8.66637
▁8	-8.66862
▁7	-8.66862
▁aparece	-8.66989
ría	-8.67203
▁Premio	-8.67273
▁12	-8.67297
▁inglés	-8.67299
V	-8.67356
▁influencia	-8.67357
▁real	-8.67433
na	-8.67519
▁imaxe	-8.67779
▁sexa	-8.68302
▁última	-8.68305
▁comezo	-8.68707
E	-8.68736
▁Alem	-8.68934
▁fonte	-8.68945
▁libro	-8.69184
▁campo	-8.69371
▁menor	-8.69514
▁franc	-8.69813
dade	-8.70209
▁2005	-8.70256
▁sup	-8.70345
▁fronte	-8.70618
▁comeza	-8.70725
▁Roma	-8.70781
de	-8.70819
▁Está	-8.71451
▁escola	-8.72089
▁ver	-8.72141
to	-8.72206
▁característica	-8.72294
▁humano	-8.72306
▁alto	-8.72579
▁Hai	-8.72609
▁Co	-8.72725
te	-8.72756
°	-8.72845
▁Mundia	-8.73121
▁programa	-8.73473
▁alemán	-8.73666
▁Partido	-8.7368
▁2007	-8.74316
▁irmán	-8.7442
▁obxecto	-8.74421
▁lei	-8.74627
ra	-8.74732
▁cantidade	-8.7485
▁alta	-8.75253
ña	-8.75315
▁Unió	-8.75407
▁tan	-8.75695
▁Coruñ	-8.76166
▁efecto	-8.76259
▁posto	-8.76273
▁eles	-8.76408
▁canción	-8.7643
▁vila	-8.7646
▁posición	-8.76462
▁morre	-8.76501
▁espazo	-8.76628
▁Ist	-8.76986
▁pesar	-8.7727
re	-8.77328
▁G	-8.7742
▁medida	-8.77507
▁189	-8.7766
▁central	-8.77876
▁enerxía	-8.78109
▁española	-8.78553
▁tal	-8.78601
▁causa	-8.78818
▁único	-8.78912
▁Sur	-8.79161
▁situación	-8.79504
la	-8.79536
▁clase	-8.79992
▁papel	-8.80015
▁Italia	-8.80042
▁acordo	-8.80156
▁arte	-8.80362
▁chega	-8.80495
▁iso	-8.80698
▁188	-8.8086
▁eleccións	-8.80927
▁etc	-8.81286
▁posible	-8.81288
▁superior	-8.81485
▁ós	-8.81703
▁XX	-8.81734
▁modelo	-8.81813
▁social	-8.81857
▁U	-8.82189
▁comarca	-8.8219
▁situado	-8.82192
▁América	-8.82209
▁Mar	-8.82428
▁aproximada	-8.82544
▁emperador	-8.82555
aterra	-8.82752
▁canto	-8.828
▁batalla	-8.82899
ton	-8.82969
▁14	-8.83001
m	-8.83253
▁economía	-8.83256
▁recibi	-8.83596
▁mese	-8.83641
▁romano	-8.83647
▁porque	-8.83677
▁organización	-8.83704
▁11	-8.84
▁Tras	-8.8406
▁Cand	-8.8409
▁localiza	-8.84338
▁película	-8.8454
▁Ingl	-8.84606
▁pasa	-8.84876
▁cidades	-8.84943
▁Pedro	-8.84983
arzo	-8.85084
no	-8.85121
▁Son	-8.85393
▁lado	-8.85472
▁proba	-8.85519
ica	-8.85639
▁persoa	-8.85745
▁cargo	-8.8595
▁altura	-8.86
▁9	-8.86073
▁xogo	-8.87102
▁16	-8.87337
▁data	-8.87498
▁18	-8.87589
▁Nacional	-8.87708
▁anima	-8.87947
▁materia	-8.88289
ista	-8.8867
▁Carlo	-8.8874
▁público	-8.88979
▁186	-8.89635
▁condición	-8.89793
▁París	-8.89958
▁sector	-8.90403
▁control	-8.90461
▁baixa	-8.90582
▁idade	-8.9094
▁H	-8.91122
▁ciencia	-8.91134
▁comunidade	-8.91178
k	-8.91263
▁proxecto	-8.91486
▁cale	-8.91498
frica	-8.91533
▁lista	-8.9178
▁natural	-8.92113
▁considerado	-8.922
▁dicir	-8.92399
▁21	-8.92404
▁diverso	-8.92703
ran	-8.92707
▁IG	-8.92755
▁distribuído	-8.92895
▁Ca	-8.92967
▁texto	-8.93088
▁mundial	-8.93217
▁completa	-8.93227
▁13	-8.93508
ura	-8.93864
▁referir	-8.93968
▁tód	-8.94192
▁tropa	-8.94206
▁apoio	-8.94253
▁Norte	-8.94327
▁in	-8.94505
▁187	-8.94777
▁británico	-8.9482
▁estadounidense	-8.94878
▁orixinal	-8.9492
▁unidade	-8.95116
▁24	-8.95238
▁2000	-8.95239
▁español	-8.95377
▁ocasión	-8.95453
▁debe	-8.95476
▁50	-8.95557
▁algo	-8.95689
▁internacional	-8.95725
ito	-8.95781
▁normal	-8.95782
▁porto	-8.95855
▁tamaño	-8.96031
▁neste	-8.96051
redor	-8.96149
▁vai	-8.96279
▁única	-8.9629
▁diversa	-8.96358
ing	-8.96508
▁acción	-8.96568
c	-8.96637
▁paso	-8.96653
luz	-8.96789
les	-8.96896
▁formación	-8.96929
▁sociedade	-8.96963
▁escritor	-8.97022
▁permite	-8.97215
▁Xo	-8.97239
▁particular	-8.97413
▁22	-8.97624
▁2003	-8.97729
▁libre	-8.97924
▁metade	-8.98029
▁propiedade	-8.98437
▁Outro	-8.98617
▁Igrexa	-8.98734
▁independente	-8.99112
▁importancia	-8.99392
▁hora	-8.99448
▁europeo	-8.99692
▁estar	-8.99774
▁W	-8.99877
▁Xa	-8.99989
▁elixido	-9.00114
▁clima	-9.00114
▁referencia	-9.00297
estivo	-9.0033
▁valor	-9.00492
▁tradición	-9.00494
▁estas	-9.00664
bel	-9.00722
▁obxectivo	-9.00729
▁dato	-9.00743
▁estudos	-9.00832
▁autor	-9.00912
▁nomeado	-9.00918
oloxía	-9.0119
▁director	-9.01194
▁of	-9.01437
▁axuda	-9.01866
▁Logo	-9.01957
▁17	-9.02989
▁simple	-9.02994
▁linguaxe	-9.03039
zo	-9.03202
▁verán	-9.03306
▁presen	-9.0338
▁pedra	-9.0387
▁xogador	-9.04166
▁Portugal	-9.04434
▁existen	-9.04621
▁nacional	-9.04643
▁interese	-9.04953
ina	-9.05068
▁diminu	-9.05424
▁novela	-9.05486
▁Unido	-9.0549
▁Ma	-9.05633
▁boa	-9.05832
▁York	-9.05896
▁23	-9.06108
olos	-9.06352
▁xénero	-9.06409
▁seis	-9.06592
▁vitoria	-9.06796
gún	-9.06848
▁Real	-9.06957
▁184	-9.07134
▁capa	-9.07181
▁tradicional	-9.07448
▁Algún	-9.07516
▁Vig	-9.07563
▁igual	-9.07567
▁nesta	-9.07574
▁dirección	-9.07641
▁capacidade	-9.07654
▁volta	-9.07775
▁volveu	-9.07811
▁40	-9.08121
an	-9.0824
d	-9.08379
▁nai	-9.08384
▁28	-9.08443
▁arredor	-9.08592
▁ela	-9.0861
▁Existe	-9.08622
ar	-9.0915
▁Neste	-9.0952
▁segue	-9.09612
▁loita	-9.09819
▁cabo	-9.09824
▁100	-9.09845
▁técnica	-9.09878
g	-9.10043
▁masa	-9.10093
▁municipal	-9.10324
▁publicou	-9.1039
▁xira	-9.10419
▁información	-9.10561
▁ataque	-9.10564
▁aumento	-9.10607
pto	-9.10713
▁colonia	-9.10763
▁esa	-9.10857
xe	-9.10916
▁Má	-9.11002
▁significa	-9.11024
▁francesa	-9.11141
▁viaxe	-9.11171
▁crecemento	-9.11175
▁su	-9.11259
▁Manuel	-9.1129
▁xente	-9.11404
▁183	-9.11462
amente	-9.11464
▁fronteira	-9.11561
▁Gali	-9.11624
▁núcleo	-9.11625
ería	-9.11733
▁Jos	-9.11984
▁recente	-9.12139
▁montaña	-9.1217
▁civil	-9.12238
▁método	-9.12305
▁célula	-9.12373
▁creación	-9.12453
ter	-9.12469
▁27	-9.12611
▁nada	-9.12676
finado	-9.1281
▁adoita	-9.13281
▁grazas	-9.13299
▁so	-9.13498
▁papa	-9.13534
▁velocidade	-9.13541
▁revista	-9.13887
p	-9.13933
▁compañía	-9.13957
co	-9.14036
▁Compostela	-9.14176
▁certo	-9.14249
▁independen	-9.1456
▁certa	-9.14664
▁mil	-9.1478
▁?	-9.14792
▁filla	-9.14864
rácte	-9.14865
▁Castela	-9.14939
▁occidental	-9.14989
▁Outra	-9.15215
▁Rus	-9.15235
▁escrito	-9.15364
▁concepto	-9.15424
▁edición	-9.15425
▁conseguiu	-9.15504
▁sede	-9.15515
mbos	-9.15745
▁presente	-9.15875
▁letra	-9.16064
▁inverno	-9.1613
▁póde	-9.16217
go	-9.16245
▁formar	-9.1634
▁cabeza	-9.16368
x	-9.1639
▁camiño	-9.16485
▁2001	-9.16567
▁26	-9.16691
▁man	-9.16786
▁fan	-9.16832
▁incluíndo	-9.16984
▁Rei	-9.16995
▁29	-9.1701
▁mercado	-9.17096
▁19	-9.17167
▁Francisco	-9.17201
▁semana	-9.17289
▁sentido	-9.17343
▁continua	-9.17344
▁premio	-9.17415
▁2002	-9.17603
▁práctica	-9.1763
▁p	-9.17694
▁corrente	-9.18444
▁modo	-9.18575
▁185	-9.18584
▁sete	-9.1861
▁nunc	-9.18631
▁existe	-9.18668
▁respecto	-9.18788
▁K	-9.18926
_	-9.18934
▁Castro	-9.19228
▁frecuente	-9.1933
▁agora	-9.19409
▁numeroso	-9.19814
▁John	-9.19854
▁gañou	-9.20255
▁figura	-9.20325
▁composto	-9.20334
▁Le	-9.20348
▁romana	-9.20386
ante	-9.20392
▁local	-9.20418
tín	-9.20476
▁estación	-9.20485
▁investigación	-9.2056
▁líder	-9.20699
▁utiliza	-9.20795
▁filme	-9.20877
▁porta	-9.21022
ce	-9.21056
ión	-9.21121
▁artista	-9.21161
▁60	-9.21191
▁fose	-9.21192
▁Antoni	-9.21198
▁Nos	-9.21214
▁existencia	-9.21285
▁económico	-9.21295
▁directa	-9.21295
ga	-9.21518
▁India	-9.21606
▁razón	-9.21669
▁Af	-9.2173
▁casos	-9.2176
▁vista	-9.22047
▁levou	-9.22089
▁material	-9.22106
▁exterior	-9.22195
▁terceiro	-9.22346
▁pública	-9.22572
▁consecuencia	-9.22648
▁lonxitude	-9.22723
▁división	-9.22725
▁bastante	-9.22877
▁2008	-9.2301
▁Lond	-9.23131
–	-9.23255
▁artigo	-9.23331
tbol	-9.23335
▁realizar	-9.23429
▁VI	-9.23535
▁motor	-9.23648
onso	-9.23659
▁Chin	-9.24016
▁distancia	-9.24176
▁Barcelon	-9.24388
▁fundamental	-9.2498
▁Tam	-9.25186
▁Fernand	-9.25345
▁conflito	-9.2542
▁Nesta	-9.25568
▁crítica	-9.25643
ís	-9.25856
il	-9.25995
▁campaña	-9.26117
▁mes	-9.26173
▁Paul	-9.26455
▁distinta	-9.26583
▁Estas	-9.26636
▁natureza	-9.26679
▁avión	-9.26698
▁concerto	-9.26824
▁árabe	-9.26899
ces	-9.26974
▁Casa	-9.2703
▁longa	-9.27184
▁comercial	-9.27579
▁había	-9.27628
▁Lug	-9.27828
▁soa	-9.27883
▁entrada	-9.27956
f	-9.27964
▁Juan	-9.28012
▁realidade	-9.28073
▁fór	-9.28117
▁quilómetro	-9.2817
ey	-9.28191
▁literatura	-9.28251
▁1990	-9.28333
▁2014	-9.28334
▁condado	-9.28733
▁produtos	-9.28769
▁mor	-9.28843
▁the	-9.28894
▁van	-9.29002
▁pintura	-9.29135
▁peza	-9.29226
▁profesor	-9.29366
▁comunicación	-9.29401
▁distinto	-9.29458
▁Re	-9.29494
▁motivo	-9.29539
nia	-9.29615
▁diferenza	-9.29839
▁180	-9.3003
▁León	-9.30207
▁dominio	-9.30353
ceu	-9.30384
▁marca	-9.30493
▁similar	-9.3053
▁humana	-9.30538
▁numerosa	-9.306
▁distrito	-9.30762
▁escrita	-9.30763
▁Exi	-9.30792
▁estrela	-9.30844
▁Santo	-9.30873
▁ampla	-9.30959
▁formado	-9.31276
▁madeira	-9.31285
C	-9.3131
▁variedade	-9.31421
▁maneira	-9.31512
h	-9.31566
▁Internacional	-9.31598
▁500	-9.31728
▁económica	-9.31957
quí	-9.31968
▁club	-9.32001
▁bo	-9.32076
▁recibe	-9.32084
▁terceira	-9.32084
▁80	-9.3214
▁fase	-9.32195
▁pasar	-9.3221
▁coñecemento	-9.32214
▁realizou	-9.32251
▁símbolo	-9.32334
▁31	-9.32336
▁produce	-9.32417
▁semellante	-9.32432
▁Actual	-9.325
▁rede	-9.32637
▁autoridade	-9.32717
▁Xap	-9.32788
▁atopa	-9.32867
▁conserva	-9.33029
lo	-9.3316
▁leva	-9.33227
▁reinado	-9.33346
▁alimento	-9.33451
▁País	-9.33513
▁planeta	-9.33667
▁Ouren	-9.33853
▁inicio	-9.33871
▁atopar	-9.33958
▁deixou	-9.34018
▁relativa	-9.34161
ado	-9.34221
▁ministro	-9.34525
▁mediado	-9.34535
▁arma	-9.34562
▁doutro	-9.34611
▁moderna	-9.34657
▁parece	-9.34961
▁J	-9.35018
▁comercio	-9.35039
▁física	-9.35129
▁presenta	-9.35226
▁crear	-9.35229
▁fondo	-9.35292
▁etapa	-9.35553
▁dá	-9.35655
▁voto	-9.35706
▁Media	-9.35736
▁Val	-9.35857
▁altitude	-9.35898
▁relixión	-9.35898
▁televisión	-9.36081
▁ouro	-9.36148
▁festa	-9.36201
▁Baixo	-9.36245
▁estrada	-9.36245
▁2010	-9.3625
▁levar	-9.36624
▁Final	-9.36651
▁formula	-9.36778
▁árbore	-9.37028
▁templo	-9.37059
▁2013	-9.37116
▁categoría	-9.37117
▁permanece	-9.37466
▁pertencente	-9.37523
▁quedou	-9.3769
▁mosteiro	-9.37737
▁Polo	-9.37797
▁chegada	-9.37899
▁Brasil	-9.37936
▁2009	-9.37962
▁enfermidade	-9.37995
▁organismo	-9.38082
▁Do	-9.38235
▁Consello	-9.38266
▁representa	-9.38379
▁rúa	-9.3841
▁branco	-9.38436
▁barco	-9.38439
▁gas	-9.38486
▁escribiu	-9.38495
ontevedr	-9.38515
▁italiano	-9.38524
▁t	-9.38632
▁reforma	-9.38963
▁Coa	-9.39046
▁constante	-9.3917
▁decidiu	-9.39172
▁monte	-9.39194
▁musical	-9.39439
▁2011	-9.39505
▁deseño	-9.39509
▁curso	-9.39538
▁rock	-9.39617
▁empresa	-9.39797
▁181	-9.39944
▁cultural	-9.3996
▁puid	-9.40059
▁capela	-9.40061
▁Nas	-9.40072
tón	-9.40149
▁histórico	-9.40224
▁beira	-9.4025
▁200	-9.40481
▁composición	-9.40593
▁Era	-9.4065
▁fenómeno	-9.40676
▁traballar	-9.40706
▁constitúe	-9.40766
▁xeneral	-9.40774
▁miúdo	-9.40857
▁Grande	-9.40946
ita	-9.40979
▁fala	-9.41004
▁extremo	-9.41312
▁pouca	-9.41322
▁podería	-9.41607
▁bosque	-9.41672
▁edificio	-9.41684
▁onda	-9.41741
▁forman	-9.41823
▁contacto	-9.41874
▁publicación	-9.41896
▁municipio	-9.41953
ma	-9.42007
▁destaca	-9.42087
▁padrón	-9.4214
▁Constitución	-9.42146
▁70	-9.4234
que	-9.4236
▁presión	-9.42408
▁carga	-9.42468
▁dólar	-9.42505
▁ningunha	-9.42597
▁Monte	-9.42755
▁teatro	-9.42816
▁obtiv	-9.42824
trá	-9.42869
▁instrumento	-9.42875
▁límite	-9.42875
▁Da	-9.42888
▁réxime	-9.43153
▁grao	-9.43154
“	-9.43246
▁Canad	-9.4327
▁xefe	-9.43301
▁Vila	-9.43358
▁Ó	-9.43436
▁inicial	-9.43437
▁bispo	-9.43525
▁producir	-9.43605
▁conseguir	-9.43758
▁”	-9.43805
▁tiver	-9.43845
▁habitual	-9.43933
▁inferior	-9.43993
▁cadea	-9.44087
▁frecuencia	-9.44095
me	-9.44162
▁europea	-9.44368
▁cuarto	-9.44556
▁182	-9.4473
▁1991	-9.44748
▁—	-9.44839
▁cría	-9.44947
▁será	-9.44959
▁vía	-9.45157
▁entrou	-9.45277
▁Di	-9.45338
▁1980	-9.45506
▁calidade	-9.45653
▁90	-9.45753
▁institución	-9.4579
▁considerada	-9.45917
▁XVII	-9.45997
▁voo	-9.46011
▁mal	-9.46157
▁relixiosa	-9.46187
▁poeta	-9.46292
▁particip	-9.46465
▁esquerda	-9.46508
dor	-9.46542
▁selección	-9.46785
▁y	-9.46831
▁Todo	-9.46893
▁castelo	-9.4694
▁deixa	-9.46958
▁dar	-9.47004
▁viu	-9.47044
▁continente	-9.47131
el	-9.47141
▁aplicación	-9.47164
éxico	-9.47226
ro	-9.47272
▁tratado	-9.47291
▁metal	-9.47488
▁trono	-9.47521
▁soldado	-9.47651
ización	-9.47713
▁topónimo	-9.48007
▁utilizado	-9.48026
▁americano	-9.48104
▁manter	-9.48216
▁1995	-9.484
▁depende	-9.48414
▁falta	-9.48465
▁vexeta	-9.48577
▁36	-9.48686
▁educación	-9.48697
▁recurso	-9.48795
▁Galega	-9.48897
▁noite	-9.48912
▁nese	-9.48993
▁aire	-9.49156
▁Deus	-9.49157
▁Lugar	-9.49163
▁transporte	-9.492
▁clara	-9.4924
▁extensión	-9.49282
▁Australia	-9.49408
▁posibilidade	-9.49679
▁1998	-9.49681
▁expedición	-9.49681
▁Congreso	-9.49877
▁aves	-9.49965
→	-9.49976
▁libros	-9.50166
▁difícil	-9.50175
▁derrota	-9.50324
▁creou	-9.50331
▁futuro	-9.50505
ntes	-9.50526
▁inclúe	-9.50548
▁Xe	-9.50626
▁mans	-9.50649
▁terreo	-9.50775
▁ve	-9.5103
▁ponte	-9.51031
▁expresión	-9.51079
▁usa	-9.51103
▁usado	-9.51165
▁Filip	-9.51177
▁próximo	-9.51178
▁houb	-9.51527
▁produciu	-9.51571
▁nace	-9.51693
▁defensa	-9.51699
▁natura	-9.51774
▁podía	-9.51774
▁representación	-9.51794
▁nave	-9.51984
le	-9.52328
▁per	-9.52395
▁negro	-9.52534
▁probable	-9.52603
▁1996	-9.527
▁sinxelo	-9.52739
▁sufri	-9.52872
▁dinastía	-9.53018
▁necesidade	-9.5321
▁torre	-9.53327
▁formada	-9.53497
▁cuxa	-9.5352
▁folla	-9.53523
▁ocupa	-9.5353
▁Nun	-9.53931
▁fú	-9.53948
▁Academia	-9.53949
▁aquel	-9.54068
▁mostra	-9.54106
▁perda	-9.54143
tase	-9.54286
▁imperio	-9.54347
▁ácido	-9.54477
▁loca	-9.54492
▁grega	-9.5466
▁radio	-9.54691
▁frances	-9.54862
▁queda	-9.54991
▁comezar	-9.55014
▁coñece	-9.55231
▁océano	-9.55374
▁persoal	-9.55485
▁conquista	-9.55573
▁doutra	-9.55607
▁próxima	-9.55706
▁clasificación	-9.55827
▁moderno	-9.55867
▁universidade	-9.55917
▁potencia	-9.5602
▁arquitectura	-9.56068
▁industrial	-9.56087
▁ruso	-9.56243
eira	-9.56243
▁piloto	-9.56264
▁Miguel	-9.5634
▁praia	-9.56352
▁evitar	-9.56368
▁Parlament	-9.56447
▁produto	-9.56453
▁chan	-9.56524
▁1994	-9.56555
▁Robert	-9.56568
▁150	-9.56583
utores	-9.56887
▁evolución	-9.5696
▁proteína	-9.56978
▁formou	-9.56979
▁Luís	-9.56982
▁femia	-9.56999
▁famoso	-9.57085
▁densidade	-9.57102
▁Sol	-9.57125
▁Posterior	-9.57192
▁agricult	-9.57227
▁branca	-9.57406
▁mestre	-9.57407
▁británica	-9.57513
▁empregado	-9.57699
▁venda	-9.57793
▁Ram	-9.57834
▁tomar	-9.57984
▁dereita	-9.58096
▁Algunha	-9.58206
▁publicado	-9.58231
▁Constantino	-9.58266
▁Goberno	-9.58375
▁filosofía	-9.58376
▁experiencia	-9.58386
▁sitio	-9.587
▁actua	-9.58777
▁caza	-9.58785
▁individuo	-9.58917
▁Pode	-9.58928
▁acto	-9.59116
▁Ben	-9.59136
▁dura	-9.59246
ido	-9.59261
▁raíña	-9.59368
alas	-9.59497
▁Europea	-9.59579
▁Moito	-9.596
xo	-9.59699
▁invasión	-9.59791
▁cultivo	-9.59901
cio	-9.59948
▁castelán	-9.59958
▁Ment	-9.59994
▁Su	-9.60054
▁distribución	-9.6012
▁regular	-9.60136
▁Garc	-9.60217
▁documento	-9.60231
▁liberdade	-9.60231
▁Río	-9.60235
▁macho	-9.60254
▁lago	-9.60376
▁cuxo	-9.60453
▁seguir	-9.60531
▁pé	-9.60559
▁máximo	-9.60676
▁Cada	-9.60713
▁noro	-9.60853
▁Arxentin	-9.60894
▁encontro	-9.60979
▁negra	-9.61005
▁química	-9.61005
▁máxima	-9.61116
▁veciño	-9.61116
▁asentamento	-9.6112
▁val	-9.61128
▁fíxo	-9.61132
▁Pola	-9.6116
▁Grec	-9.61332
▁alemá	-9.61474
▁peso	-9.61688
▁aparición	-9.61801
▁actor	-9.61855
▁1992	-9.61997
cm	-9.62303
▁aldea	-9.62338
▁canle	-9.62485
▁Catalu	-9.62492
▁aparecen	-9.62508
▁1960	-9.62557
▁gobernador	-9.62603
▁socia	-9.6263
▁golpe	-9.62645
▁179	-9.62684
▁formas	-9.62706
▁exemplar	-9.62798
▁1997	-9.62914
▁matrimonio	-9.62925
▁cobre	-9.63059
▁vivi	-9.63078
▁idioma	-9.63138
▁emprega	-9.63322
▁oriental	-9.63362
▁escribir	-9.63438
▁Bret	-9.63455
▁Ante	-9.63511
▁duro	-9.63532
▁factor	-9.63741
▁órgano	-9.63824
▁crise	-9.63949
▁península	-9.64057
▁Sa	-9.64065
▁ir	-9.64149
▁escala	-9.64152
▁operación	-9.64153
▁estableceu	-9.64157
▁obter	-9.64175
▁Debid	-9.64194
▁cae	-9.64314
▁paz	-9.64369
▁medieva	-9.64383
▁Alexandr	-9.64522
▁busca	-9.64582
▁volver	-9.64622
▁poesía	-9.64624
▁pertence	-9.6469
▁labor	-9.64728
▁volume	-9.64739
▁resistencia	-9.64742
mba	-9.64769
▁300	-9.64791
▁histórica	-9.64969
▁ocorre	-9.65054
▁reacción	-9.65085
▁mando	-9.65142
▁oposición	-9.65238
▁composta	-9.65318
▁1993	-9.65436
▁relixioso	-9.65569
▁científica	-9.65665
▁nenos	-9.65679
▁arquipélago	-9.65682
▁apen	-9.65688
▁compoñente	-9.65789
▁facend	-9.6579
▁0	-9.66041
▁anual	-9.66092
▁resposta	-9.66131
▁fundou	-9.66142
▁Xeral	-9.66181
=	-9.66365
▁entrar	-9.66394
▁!	-9.66483
▁te	-9.6653
▁nacemento	-9.66565
▁praza	-9.66608
▁delas	-9.66612
▁1936	-9.6662
va	-9.66666
▁tribo	-9.66681
▁Li	-9.66814
▁intento	-9.6684
▁diferente	-9.66877
▁XII	-9.66934
▁ruta	-9.66958
w	-9.6705
▁doce	-9.67078
▁columna	-9.67091
▁barrio	-9.67127
▁cousas	-9.67168
▁caída	-9.67336
▁honra	-9.67426
▁trala	-9.67429
▁desenvolveu	-9.6762
▁parella	-9.67665
▁contén	-9.67845
▁raí	-9.67886
▁ambiente	-9.67895
▁necesario	-9.68019
▁rapid	-9.68023
▁continuou	-9.6804
▁contido	-9.68139
▁New	-9.68264
▁partícula	-9.68377
▁varía	-9.68395
▁representante	-9.68401
tivo	-9.68581
▁coroa	-9.68713
▁regreso	-9.68718
▁Xogo	-9.68879
▁c	-9.68977
▁morto	-9.69072
▁1989	-9.691
▁Presidente	-9.69105
ouse	-9.69124
▁tomou	-9.69368
▁baseada	-9.69378
▁activa	-9.6944
▁cámara	-9.6946
▁converter	-9.69541
▁construído	-9.69584
tención	-9.69701
▁matemática	-9.69701
▁vo	-9.69708
▁decisión	-9.69769
▁combate	-9.69914
▁solar	-9.69936
▁Lei	-9.70187
▁gañar	-9.70206
▁católica	-9.70309
bo	-9.70314
▁construír	-9.70332
▁Arte	-9.70343
▁marcha	-9.70353
▁definición	-9.70436
▁administración	-9.70448
▁molécula	-9.70469
▁código	-9.70554
í	-9.70573
▁plano	-9.70622
▁VII	-9.70657
▁norma	-9.70751
▁oficia	-9.70914
▁acceso	-9.70915
▁corte	-9.70922
▁dialecto	-9.71043
▁escena	-9.71089
▁Henrique	-9.71167
ú	-9.71253
▁calendario	-9.71412
▁censo	-9.71433
▁inclúen	-9.71449
▁35	-9.71478
▁sección	-9.71499
▁Popular	-9.71535
▁terrestre	-9.71535
▁fundador	-9.71583
▁Cristo	-9.7162
▁toma	-9.7164
▁tecnoloxía	-9.7174
▁revolución	-9.71785
▁Ata	-9.71811
▁Ponte	-9.71895
▁cine	-9.7197
▁Atlántico	-9.7203
▁Primeira	-9.72055
riba	-9.72328
▁32	-9.72333
▁estudante	-9.72392
▁f	-9.72551
bilidade	-9.72611
▁Nese	-9.72672
▁Corte	-9.7275
▁consiste	-9.72793
▁significado	-9.72818
▁logrou	-9.72968
▁desenvolver	-9.73154
▁denominado	-9.73226
▁inglesa	-9.73273
▁practica	-9.73295
▁personaxe	-9.73453
▁recoñecemento	-9.73668
sús	-9.73674
▁cristián	-9.73678
▁le	-9.73837
▁ferro	-9.74282
▁carta	-9.74309
▁178	-9.74313
▁2012	-9.74352
acífico	-9.74403
in	-9.7443
▁and	-9.74446
▁iniciou	-9.74509
▁breve	-9.74564
▁favor	-9.74642
▁inclus	-9.74774
▁Copa	-9.74806
▁dobre	-9.74871
▁ciclo	-9.7502
▁lenda	-9.75043
▁cuberta	-9.75051
▁xudeu	-9.75051
▁batería	-9.75061
▁substancia	-9.75207
land	-9.75233
▁sabe	-9.75304
▁Porto	-9.75323
▁fundada	-9.75323
▁suro	-9.75378
▁españo	-9.75411
▁construída	-9.75435
▁Escola	-9.75439
▁i	-9.75494
▁amigo	-9.75498
▁x	-9.75525
▁historiador	-9.75669
▁1986	-9.75694
▁príncipe	-9.7582
▁Irland	-9.75821
▁Isabel	-9.75824
ria	-9.75827
▁muro	-9.75834
▁feita	-9.75996
▁usar	-9.7601
▁fixer	-9.76114
▁taxa	-9.76208
▁Soviética	-9.76219
▁completo	-9.76309
▁75	-9.76378
▁precisa	-9.76386
▁plan	-9.76511
▁Museo	-9.76598
▁localidade	-9.76605
▁mestura	-9.76681
▁poida	-9.7681
▁establecer	-9.76858
et	-9.76899
▁contrario	-9.769
▁sucesor	-9.77079
▁saúd	-9.77137
▁clásica	-9.77247
alifornia	-9.77509
▁procedente	-9.77702
+	-9.77771
▁sitúa	-9.77916
▁po	-9.77928
▁alfabeto	-9.78037
▁vivir	-9.78143
▁Austria	-9.78211
▁dema	-9.78283
▁Harr	-9.78291
▁nove	-9.78343
▁Ese	-9.78414
▁resulta	-9.78557
▁Air	-9.78582
▁peixe	-9.78694
ela	-9.78739
riente	-9.78756
▁selo	-9.78828
▁unión	-9.78886
▁1979	-9.78939
▁actuación	-9.79056
▁mellore	-9.7913
▁nalgún	-9.79229
▁irmá	-9.7923
▁Centra	-9.79276
▁xeración	-9.79305
leo	-9.79319
▁turismo	-9.79359
▁denominación	-9.7943
órmula	-9.79487
▁177	-9.79494
▁Pouco	-9.79514
▁David	-9.79629
pe	-9.79683
▁relacionado	-9.79778
▁liga	-9.79874
▁expansión	-9.79896
cía	-9.79934
ftwa	-9.80051
▁interna	-9.80114
▁ovo	-9.80142
▁considera	-9.80185
▁deixar	-9.80299
▁vivo	-9.80304
▁nord	-9.80304
▁directo	-9.80339
▁colección	-9.80503
▁creado	-9.80549
▁nobre	-9.80551
▁noutro	-9.80568
▁pesca	-9.80679
▁físico	-9.80703
▁competición	-9.80736
▁aeroporto	-9.80745
▁personaxes	-9.80784
▁Eduard	-9.80838
▁deporte	-9.80855
▁froito	-9.8087
▁internaciona	-9.80876
▁xurdi	-9.80894
▁sol	-9.80971
▁cerca	-9.81019
▁rura	-9.81315
▁publica	-9.81356
eza	-9.8139
▁eléctrica	-9.81415
▁grave	-9.81419
▁persa	-9.81452
▁traballa	-9.81465
▁William	-9.81522
▁deputado	-9.81573
▁comportamento	-9.81659
▁rocha	-9.8179
▁científico	-9.81802
▁Xer	-9.8197
▁misión	-9.82195
▁Tratado	-9.82201
▁empresas	-9.82338
▁fachada	-9.82339
▁máquina	-9.8234
▁debía	-9.82341
▁saída	-9.82349
▁baseado	-9.82398
▁dirixida	-9.82481
▁tendencia	-9.82493
▁municipa	-9.82494
▁enorme	-9.82572
▁república	-9.82614
▁Trá	-9.82622
ler	-9.82647
▁médico	-9.82753
▁presentou	-9.82759
▁descubrimento	-9.82783
ard	-9.82815
▁Al	-9.8282
▁campionato	-9.8289
▁proposta	-9.8289
▁Hoxe	-9.82892
▁Fernández	-9.82896
▁Mali	-9.82943
▁edificios	-9.8296
▁45	-9.82962
▁aspecto	-9.82991
▁táboa	-9.83167
nos	-9.83178
▁xornal	-9.83202
▁viven	-9.8321
ban	-9.83471
▁pasado	-9.83543
▁Trala	-9.83591
▁estudar	-9.83667
▁análise	-9.83682
▁considerar	-9.83779
▁traballador	-9.83793
▁trata	-9.83844
▁clásico	-9.83862
▁cuestión	-9.84002
▁dez	-9.84163
▁tratamento	-9.84177
▁amor	-9.84186
vo	-9.84266
▁músico	-9.84282
▁anunciou	-9.84397
▁deben	-9.84409
▁destino	-9.84422
▁Centro	-9.84436
▁Escoc	-9.84485
▁Revolu	-9.84617
▁elas	-9.84687
▁literaria	-9.84844
▁utilizar	-9.84971
▁comercia	-9.85069
▁visión	-9.85128
▁1982	-9.85129
▁esposa	-9.85268
▁estranxeiro	-9.85268
▁coche	-9.85297
ri	-9.85325
▁Aten	-9.85392
▁movementos	-9.85544
▁nación	-9.85585
▁Nación	-9.85649
▁hitita	-9.85694
▁Só	-9.85787
▁Albert	-9.85897
▁permanente	-9.85981
▁realiza	-9.86026
▁pintor	-9.86082
▁1987	-9.86124
▁Instituto	-9.86263
▁departamento	-9.86273
▁Can	-9.86301
▁interpretación	-9.86454
▁falar	-9.86495
▁seguiu	-9.86562
▁vello	-9.8659
▁arco	-9.86615
▁Tom	-9.86719
▁indica	-9.86806
▁existente	-9.86814
▁vinte	-9.86894
▁químico	-9.86981
▁1985	-9.86985
▁33	-9.87018
▁carne	-9.87032
▁1977	-9.87106
▁1983	-9.87128
ti	-9.87164
▁relato	-9.87191
▁400	-9.87264
▁estudio	-9.87269
▁poboado	-9.87329
▁tale	-9.87393
▁Bo	-9.87516
▁James	-9.87648
▁moeda	-9.87704
▁precipitación	-9.87704
pareceu	-9.87808
▁noso	-9.87913
▁profunda	-9.87994
▁ámbito	-9.87999
▁par	-9.88003
▁Cor	-9.88035
▁esforzo	-9.88173
▁meta	-9.882
▁marco	-9.88229
▁guitarra	-9.88285
▁necesaria	-9.88285
▁denominada	-9.88302
▁ría	-9.88349
▁coñecer	-9.88356
▁evento	-9.88419
▁Papa	-9.88435
▁aproba	-9.88477
▁dixo	-9.88481
▁cento	-9.88496
▁famosa	-9.88577
▁Sá	-9.88585
▁Mais	-9.88614
▁escudo	-9.88629
▁campos	-9.88649
▁musulmán	-9.88745
▁entra	-9.88771
▁mozo	-9.88872
▁for	-9.88897
▁sangue	-9.89015
▁exposición	-9.89019
▁Día	-9.89138
▁Torre	-9.89225
▁ía	-9.89277
▁Romano	-9.89408
ragón	-9.8946
▁pensamento	-9.89472
▁Mur	-9.89498
IB	-9.89599
▁respectiva	-9.89607
▁arquitecto	-9.89617
▁cre	-9.89816
▁XV	-9.89933
▁contrato	-9.90021
▁pel	-9.90024
▁daquela	-9.90051
▁diante	-9.90211
▁verde	-9.90253
eiro	-9.90423
▁Española	-9.90429
▁1976	-9.90442
▁dificultade	-9.905
▁George	-9.90592
▁car	-9.90728
▁concentración	-9.90821
▁ex	-9.9087
▁destacan	-9.90936
▁1988	-9.9095
nel	-9.9096
▁consumo	-9.90976
▁minutos	-9.91095
▁Deste	-9.91194
▁asociación	-9.91209
▁notable	-9.9129
▁profesional	-9.91292
▁Navarr	-9.91569
▁participación	-9.91574
▁Ministro	-9.9158
rio	-9.91635
▁niño	-9.9168
▁compositor	-9.91698
▁cores	-9.91732
▁tradiciona	-9.91806
▁suficiente	-9.91849
▁bandeira	-9.9185
▁Suec	-9.91879
▁Luis	-9.91906
▁científicos	-9.91987
ie	-9.91999
▁curta	-9.92
▁castro	-9.92007
▁variación	-9.92101
▁portugu	-9.92102
▁variante	-9.92188
▁diso	-9.92316
▁contaba	-9.92396
▁memoria	-9.92455
▁noutra	-9.92459
▁Martín	-9.92675
▁provoc	-9.92751
▁xeo	-9.92758
▁38	-9.92799
▁urbano	-9.92829
▁utilizada	-9.92855
▁dimensión	-9.92913
▁fábrica	-9.92914
▁nosa	-9.92914
▁permitiu	-9.93005
▁constitución	-9.931
▁ecuación	-9.93104
unha	-9.93164
▁monarca	-9.93219
▁parque	-9.93227
▁gaña	-9.93304
▁neno	-9.9336
▁petró	-9.93372
▁compañeiro	-9.93372
▁imposto	-9.93373
▁estándar	-9.93379
▁dirixido	-9.93382
▁relacionada	-9.93382
▁claro	-9.93631
▁obst	-9.93678
▁mante	-9.9369
▁Te	-9.9371
▁produtor	-9.93788
▁dado	-9.93823
▁presidencia	-9.93834
▁Liga	-9.9385
▁Xos	-9.93872
▁segui	-9.93935
▁mm	-9.93976
▁dividida	-9.93991
▁1984	-9.93991
▁Berl	-9.94454
▁continenta	-9.94502
▁agrícola	-9.94547
▁activo	-9.94687
▁Dereito	-9.94784
enínsula	-9.94909
▁continúa	-9.94953
▁cidadán	-9.94976
▁correspondente	-9.94983
▁trasladou	-9.95145
▁aí	-9.95193
▁escravo	-9.95274
▁nela	-9.95275
▁protección	-9.95388
▁vivía	-9.95545
axe	-9.95551
▁aberta	-9.95554
▁coñeceu	-9.95594
▁provoca	-9.95678
▁Virxe	-9.95702
▁Asemblea	-9.95702
▁gand	-9.95798
▁1974	-9.95834
▁dividido	-9.95864
▁Bos	-9.95908
▁fundación	-9.9598
▁ADN	-9.96016
▁Ri	-9.96032
▁duque	-9.96133
▁ocupación	-9.96145
▁perdeu	-9.9621
▁nive	-9.96217
▁culto	-9.96332
▁1981	-9.96337
▁rematar	-9.96341
▁nuclear	-9.9649
▁frota	-9.96492
▁Me	-9.96521
▁ollo	-9.96659
▁calor	-9.96671
▁figuras	-9.96733
▁Estudou	-9.96768
▁inimigo	-9.96807
▁descendente	-9.97015
ografía	-9.97107
aría	-9.97225
▁átomo	-9.97288
▁recibir	-9.9738
▁páxina	-9.97445
▁rexistro	-9.97447
▁gravación	-9.97489
▁Cidade	-9.97517
▁integra	-9.97569
▁familiar	-9.97589
▁monumento	-9.97605
▁meirande	-9.97605
▁Xunta	-9.97609
▁substituído	-9.9764
▁determinado	-9.97653
▁residencia	-9.97773
▁realizada	-9.97979
▁2016	-9.98011
▁realizado	-9.98018
▁Ar	-9.98066
▁creada	-9.9814
▁participar	-9.98181
▁xogar	-9.98192
▁vén	-9.98245
▁Club	-9.98248
▁aquela	-9.98273
▁colaboración	-9.98383
▁lingüística	-9.9845
124	-9.98765
lla	-9.98842
▁instalación	-9.98918
▁Gale	-9.98921
▁120	-9.98926
or	-9.98962
▁65	-9.99101
▁catalán	-9.99117
▁Unida	-9.99122
▁sexual	-9.99256
▁segur	-9.99499
ccidente	-9.99538
▁2015	-9.99545
▁prové	-9.99606
▁duración	-9.99662
▁alcalde	-9.99714
▁catedral	-9.99727
ino	-9.99835
▁cadro	-9.99883
▁cantante	-9.99901
▁producido	-9.9991
▁vive	-9.99958
▁crea	-10.0008
nce	-10.0013
▁posesión	-10.002
▁rápido	-10.002
▁trazo	-10.002
▁comunista	-10.0038
pla	-10.004
▁Asturia	-10.0041
▁pais	-10.0044
▁xene	-10.0046
▁Novo	-10.005
▁nesa	-10.0053
▁me	-10.0055
▁responsable	-10.0086
ashing	-10.0086
ne	-10.0087
▁aumenta	-10.0092
▁aberto	-10.0097
▁mellora	-10.0118
▁participa	-10.0118
G	-10.0119
▁atmosfera	-10.0119
▁mandato	-10.012
▁cristiá	-10.0134
▁tarefa	-10.0136
▁1973	-10.0151
▁intención	-10.0154
▁pazo	-10.0157
▁parede	-10.017
▁diferenzas	-10.0178
presión	-10.0184
▁Man	-10.0184
▁capitán	-10.0186
▁asasinado	-10.0186
▁consello	-10.0191
▁posta	-10.0194
▁construíu	-10.0194
▁Cultura	-10.0202
▁curto	-10.0202
▁&#	-10.0203
▁perde	-10.0214
▁usuario	-10.0219
▁conde	-10.022
▁recupera	-10.0222
▁mariña	-10.0223
▁falante	-10.0227
▁casas	-10.023
▁aliado	-10.0236
▁rematou	-10.0236
▁experimento	-10.0246
▁acabou	-10.025
▁Exército	-10.0253
▁Israel	-10.0253
▁muralla	-10.0254
use	-10.026
▁usada	-10.0261
▁literario	-10.027
▁proximidade	-10.027
▁tradución	-10.027
▁disputa	-10.0271
▁crítico	-10.0303
▁Ferrol	-10.0307
▁Miss	-10.0314
riano	-10.0314
▁mantiv	-10.0319
▁especia	-10.0319
▁asunto	-10.032
▁abundante	-10.0322
ígu	-10.0327
▁san	-10.0331
▁prezo	-10.0338
▁nalgunha	-10.0339
▁publicada	-10.0343
▁Aire	-10.0368
▁recoñecido	-10.0371
▁nel	-10.038
man	-10.0385
▁paisaxe	-10.0389
▁raza	-10.0407
lén	-10.0419
ge	-10.0421
▁saír	-10.0436
▁aspectos	-10.0444
▁For	-10.045
▁destacar	-10.0452
▁museo	-10.0457
▁excepción	-10.0457
▁contexto	-10.0459
▁Miño	-10.0462
▁ven	-10.0463
▁existía	-10.0474
▁prodúce	-10.0474
▁xornalista	-10.0476
▁fabrica	-10.0478
▁presentar	-10.0492
▁vento	-10.0493
▁Olímpico	-10.0495
▁acadou	-10.0498
▁Que	-10.0504
▁campión	-10.0509
▁nativo	-10.051
▁160	-10.0514
▁cruz	-10.0525
▁atopou	-10.0526
▁Primeir	-10.0526
▁declarou	-10.0526
ic	-10.0535
▁portuguesa	-10.0536
▁debuxo	-10.0543
▁prensa	-10.0543
▁monarquía	-10.0543
▁lo	-10.0547
▁opinión	-10.0549
▁48	-10.0551
▁torno	-10.0573
▁López	-10.0578
▁Mediterráneo	-10.0578
▁inmediata	-10.0578
▁volve	-10.0581
▁pluma	-10.0595
▁elección	-10.0608
▁Fin	-10.0608
▁administrativa	-10.0612
▁Occidental	-10.0613
▁acontecemento	-10.0614
▁diario	-10.0618
▁valore	-10.0621
▁ingreso	-10.0626
▁cadrado	-10.0632
▁tren	-10.0636
▁erro	-10.0636
▁torneo	-10.0647
íxeno	-10.0647
▁Cá	-10.0654
▁complexo	-10.0661
▁altas	-10.0664
tol	-10.0664
▁candidato	-10.0665
▁profundidade	-10.0665
▁visita	-10.0675
▁37	-10.0687
▁orixina	-10.0687
▁Divisi	-10.0688
▁Rodr	-10.0689
b	-10.0689
▁Gu	-10.0696
▁actri	-10.07
▁extrema	-10.0718
▁desaparece	-10.0722
▁g	-10.0734
▁consegue	-10.0735
▁episodio	-10.0735
▁filósofo	-10.0738
▁Pér	-10.0748
▁azucre	-10.0753
▁acadar	-10.0753
▁poemas	-10.0755
▁exclusiva	-10.076
▁Cu	-10.0761
▁42	-10.0766
▁lanzamento	-10.0772
▁Cuba	-10.0774
▁chama	-10.0782
▁patrón	-10.0788
▁nacionalista	-10.0792
ada	-10.0795
▁fortaleza	-10.0806
▁dalgún	-10.0807
▁cruceiro	-10.0807
▁presentan	-10.0823
▁pista	-10.0827
▁reserva	-10.0828
▁saíu	-10.0833
▁pasaxeiro	-10.0843
▁deriva	-10.0854
▁ingles	-10.0861
▁chaira	-10.0864
▁dirixiu	-10.0865
th	-10.0866
▁débe	-10.0877
▁estreita	-10.0877
▁revolta	-10.0877
▁riqueza	-10.0877
I	-10.0881
mar	-10.0898
▁Edi	-10.0913
▁amplo	-10.0914
rán	-10.0923
▁celébra	-10.0931
▁circuíto	-10.0931
▁Ba	-10.0936
▁marxe	-10.0941
▁Asociación	-10.0952
▁August	-10.098
▁radiación	-10.0988
▁cabalo	-10.1003
▁frío	-10.1004
iano	-10.1004
▁signo	-10.1004
▁Galego	-10.1005
▁ocupar	-10.1007
▁procura	-10.1013
▁continuar	-10.1013
▁area	-10.1015
▁39	-10.1016
▁mecanismo	-10.1022
▁finad	-10.1022
▁determinada	-10.1023
▁axi	-10.1031
▁indíxena	-10.104
▁socialista	-10.1045
▁Orde	-10.1045
▁suma	-10.1053
▁facía	-10.1054
▁cristian	-10.1058
▁Island	-10.1061
▁Moita	-10.1061
▁mecánica	-10.1077
▁urbana	-10.1084
▁adiante	-10.1095
▁Los	-10.1095
puxo	-10.1099
▁nota	-10.1099
▁terzo	-10.1103
▁Sen	-10.1108
▁garda	-10.1108
▁exilio	-10.1113
▁discurso	-10.1113
▁formal	-10.1139
boa	-10.1142
▁democrática	-10.115
▁lixeira	-10.1157
▁carbono	-10.1168
▁incluído	-10.1168
▁divíde	-10.1168
▁Suíz	-10.117
▁crenza	-10.117
▁Toda	-10.1173
▁176	-10.1176
▁choiva	-10.1187
▁católico	-10.1187
▁elevada	-10.1187
▁600	-10.1199
▁avance	-10.1205
▁secuencia	-10.1224
▁sala	-10.1235
▁sub	-10.1239
▁accidente	-10.124
▁círculo	-10.1242
▁raio	-10.1243
▁civilización	-10.1244
▁Cruz	-10.1244
gás	-10.1261
▁64	-10.1271
▁Sobre	-10.1271
▁ensino	-10.1277
▁deuse	-10.1289
amp	-10.1292
▁To	-10.1294
xica	-10.1301
▁aparecer	-10.1305
▁observación	-10.1305
ã	-10.1317
▁fracaso	-10.1317
▁result	-10.133
las	-10.1332
▁demasiado	-10.1354
▁perigo	-10.136
▁estreito	-10.1369
▁55	-10.1374
▁Ni	-10.1377
▁temo	-10.1377
▁supux	-10.1388
▁vermella	-10.1392
▁significativa	-10.1392
▁finalizar	-10.1395
▁exerce	-10.1401
tura	-10.1403
▁inscrición	-10.1411
▁impacto	-10.1411
▁considerable	-10.1411
▁separada	-10.1413
anto	-10.1418
tal	-10.1422
▁miña	-10.1445
▁sexo	-10.1446
▁converténdo	-10.1449
▁italiana	-10.1467
▁Ibéric	-10.1475
▁cousa	-10.1475
▁bizantino	-10.1487
▁podían	-10.1488
rez	-10.1488
▁Comunista	-10.1506
▁elevado	-10.1507
ación	-10.151
▁secretario	-10.152
▁pan	-10.1524
▁web	-10.1525
▁mantén	-10.1536
▁atopan	-10.1545
▁rama	-10.1546
▁tensión	-10.155
▁medicina	-10.1563
▁44	-10.1563
▁presa	-10.1568
▁Ciencia	-10.1583
▁perder	-10.1587
▁Marti	-10.1594
ord	-10.1595
onia	-10.16
▁costume	-10.1601
▁privada	-10.1601
▁programación	-10.1602
▁republicano	-10.1604
▁Pe	-10.1606
▁fundado	-10.1613
▁34	-10.1625
▁Serra	-10.1627
▁posíbe	-10.164
▁Limit	-10.1641
estival	-10.1644
▁formato	-10.1646
céano	-10.1662
▁pre	-10.1664
▁tocar	-10.1676
▁Pa	-10.1676
▁Ana	-10.1677
▁escasa	-10.1687
▁disto	-10.1689
▁sae	-10.1694
▁empregar	-10.1694
▁nó	-10.1701
▁fe	-10.1705
▁corresponde	-10.171
▁pobre	-10.1714
▁explotación	-10.1723
▁Charles	-10.1736
▁800	-10.1739
▁levaba	-10.1746
▁corazón	-10.1757
avera	-10.1761
▁latino	-10.1761
▁Her	-10.1766
▁Cre	-10.1772
▁evidencia	-10.1776
▁naciona	-10.1789
▁corda	-10.1793
▁dúbida	-10.1796
▁viru	-10.1796
▁asociado	-10.1797
▁poboada	-10.18
▁autonomía	-10.18
▁bloque	-10.1809
▁azul	-10.1813
▁destacado	-10.1815
▁tropica	-10.1816
▁editado	-10.1818
ch	-10.1823
▁leite	-10.1823
pa	-10.1828
▁1972	-10.1833
▁cerimonia	-10.1835
▁policía	-10.1835
▁Jean	-10.1836
▁global	-10.1838
iana	-10.1839
▁definitivamente	-10.1846
▁Record	-10.1854
▁demanda	-10.1855
▁escenario	-10.1856
▁representan	-10.1856
▁Ro	-10.1857
▁separado	-10.186
▁universo	-10.1875
▁placa	-10.1875
ume	-10.1884
▁Tol	-10.1901
▁afluente	-10.1914
▁fic	-10.1919
▁solución	-10.1935
▁emprego	-10.1939
▁universal	-10.194
▁celta	-10.1959
▁rápida	-10.1974
▁Hung	-10.1982
▁Hit	-10.2
▁roda	-10.2002
▁libera	-10.2004
▁debería	-10.2011
pouco	-10.2015
▁manifestación	-10.2022
▁Lis	-10.2024
▁chamar	-10.2029
▁deserto	-10.2041
▁chegan	-10.2049
▁recuperar	-10.2055
▁amigos	-10.2064
▁variable	-10.2076
▁mali	-10.2087
▁localizada	-10.2093
▁hipótese	-10.2095
▁protagonista	-10.2095
▁señor	-10.2097
▁volcán	-10.2097
▁46	-10.2102
▁remata	-10.2102
▁So	-10.2108
▁43	-10.211
▁establece	-10.212
▁Federación	-10.2128
▁seguido	-10.2132
▁turco	-10.2135
▁cálculo	-10.2135
▁documenta	-10.2142
▁Cal	-10.2146
▁ameaza	-10.2152
▁lanzado	-10.2153
▁metropolitana	-10.2155
▁esencial	-10.2156
leccións	-10.216
▁antigüidade	-10.2176
ñen	-10.2177
▁descubriu	-10.2183
▁poema	-10.2193
▁cifra	-10.2196
▁diámetro	-10.2196
▁xerais	-10.2204
▁desexo	-10.221
▁órbita	-10.2217
▁escultura	-10.2218
▁mensaxe	-10.2234
▁auto	-10.2235
▁meu	-10.2236
▁solo	-10.2236
▁tería	-10.2237
▁desenvolvido	-10.2237
▁homenaxe	-10.2237
▁emisión	-10.2242
▁americana	-10.2246
▁imperial	-10.2252
▁b	-10.2252
▁múltiple	-10.2253
▁palacio	-10.2258
▁tumba	-10.2258
nza	-10.2259
▁considéra	-10.2275
▁cerebro	-10.2278
▁escritura	-10.2278
▁tecido	-10.2278
▁litora	-10.2278
▁bordo	-10.2278
▁enfrontamento	-10.2279
▁verdade	-10.2283
riental	-10.2283
▁41	-10.2292
tein	-10.2298
▁Campionato	-10.2299
▁meridiona	-10.2299
▁norteamericano	-10.2299
▁relevo	-10.2299
▁franco	-10.2302
▁gravado	-10.2307
▁teña	-10.2314
▁Socialista	-10.232
▁risco	-10.2328
▁152	-10.2328
▁protesta	-10.2333
▁rectangular	-10.234
▁lonxe	-10.2342
▁funcionamento	-10.2343
▁Chile	-10.2344
▁occidenta	-10.2356
ck	-10.2357
▁descuberto	-10.2361
▁vermello	-10.2361
▁47	-10.2362
▁Michael	-10.2382
licio	-10.2384
▁mariño	-10.2385
▁alianza	-10.2388
▁póden	-10.2398
́	-10.2403
▁identidade	-10.2403
▁transición	-10.2403
▁rica	-10.2403
▁ditadura	-10.2403
▁permitir	-10.2407
▁Thom	-10.2408
▁deus	-10.2413
▁desa	-10.2414
▁Fillo	-10.2414
▁equivalente	-10.2425
▁Ra	-10.2426
▁lagoa	-10.2432
nova	-10.2434
▁bronce	-10.2445
avier	-10.2448
▁crecente	-10.2454
▁ancho	-10.2476
▁bacteria	-10.2479
▁escura	-10.2482
▁abandonar	-10.2485
▁lanzou	-10.2486
▁empregada	-10.2495
▁separación	-10.2498
cher	-10.2499
▁temporal	-10.2504
▁haber	-10.2507
▁asasinato	-10.2508
▁Per	-10.2523
▁tratar	-10.2528
▁describe	-10.2528
▁xeográfica	-10.2528
▁espada	-10.2528
▁Salvado	-10.253
▁175	-10.2535
P	-10.2535
▁civ	-10.2536
▁localización	-10.2544
▁Comezou	-10.255
▁empréga	-10.255
▁convérte	-10.255
▁Jackson	-10.255
▁celular	-10.2551
▁Comunidade	-10.2551
▁empezou	-10.2554
▁Tre	-10.2561
ésar	-10.2563
▁Desta	-10.2564
▁hidróxeno	-10.2571
▁liderado	-10.2573
▁Ver	-10.2574
▁52	-10.2581
▁parcial	-10.2582
▁170	-10.2586
▁von	-10.2588
▁comun	-10.2588
▁parlamento	-10.2592
▁regras	-10.2593
▁Zeland	-10.2594
▁Bill	-10.2596
▁descrición	-10.26
▁Vasco	-10.2601
▁ocupada	-10.2602
▁estata	-10.2603
▁derrotado	-10.2611
▁ángulo	-10.2613
▁estadio	-10.2618
▁Teatr	-10.2622
▁musica	-10.2627
▁absoluta	-10.2627
▁fusión	-10.263
▁eléctrico	-10.2641
▁derivado	-10.2645
landi	-10.2652
▁...	-10.2656
▁Valencia	-10.2663
▁procede	-10.2664
▁falece	-10.2672
▁proxectos	-10.2673
▁Senado	-10.2683
evilla	-10.2689
▁artística	-10.2699
▁Ribad	-10.2699
baixo	-10.2701
▁converte	-10.2708
▁prim	-10.2719
▁saber	-10.2719
▁cuarta	-10.272
▁consérva	-10.272
▁fotografía	-10.2721
▁Dan	-10.2734
▁líquido	-10.2742
▁técnico	-10.2742
▁Ouro	-10.2746
▁estable	-10.2746
▁prat	-10.2753
▁53	-10.2756
▁complexa	-10.2762
▁Provincia	-10.2764
▁vehículo	-10.2764
▁voga	-10.2766
ero	-10.277
▁flore	-10.2771
tanto	-10.2772
▁dito	-10.2774
▁1,	-10.2779
▁descuberta	-10.2785
▁rebelión	-10.2785
▁comida	-10.2785
▁Radio	-10.2786
▁matemático	-10.2807
▁rico	-10.2811
▁dela	-10.2813
▁inmigrante	-10.2813
▁dita	-10.2816
▁Z	-10.2823
▁ARN	-10.2826
lez	-10.2829
▁publicar	-10.283
▁xunta	-10.2834
▁debate	-10.2841
▁St	-10.2847
xa	-10.2848
tra	-10.2848
ry	-10.2849
▁Go	-10.2851
▁Mariña	-10.2852
▁producida	-10.2853
▁Bél	-10.2855
▁quinto	-10.2856
▁electrón	-10.287
▁Póde	-10.2872
▁Fo	-10.2873
der	-10.2877
▁In	-10.2886
▁Dinamarca	-10.2894
▁secundario	-10.2894
▁Guillerm	-10.2894
▁comezan	-10.29
▁Max	-10.2902
ó	-10.2904
▁Dou	-10.2906
▁Frank	-10.2908
vi	-10.2909
▁abandonou	-10.2929
▁ferrocarr	-10.293
▁brazo	-10.2938
▁terminou	-10.2941
▁vella	-10.2947
▁serve	-10.2948
▁colonos	-10.296
▁49	-10.2961
▁electora	-10.2963
▁crece	-10.2964
▁seren	-10.2966
▁transformación	-10.2966
▁obrigado	-10.2968
▁legal	-10.2979
OE	-10.2981
ver	-10.2981
▁xaponesa	-10.2982
▁Napoleón	-10.2982
▁rusa	-10.2984
▁baía	-10.2986
▁Mosco	-10.299
bra	-10.2995
▁natal	-10.2997
▁usan	-10.3
▁competencia	-10.3004
▁prisioneiro	-10.3004
▁alternativa	-10.3004
▁aumentar	-10.3005
▁Rosa	-10.3007
▁cambiar	-10.3031
▁herdeiro	-10.3041
ny	-10.3046
▁básico	-10.3049
▁restante	-10.305
▁consta	-10.3058
▁ocupou	-10.3059
▁espírito	-10.3067
▁punta	-10.3071
▁poderían	-10.3072
NU	-10.3073
▁Bar	-10.308
▁Gonz	-10.3081
▁federal	-10.3082
▁unir	-10.3085
▁gole	-10.3088
▁arqueolóxico	-10.3093
▁exacta	-10.3093
▁fórmula	-10.3094
▁54	-10.3094
▁celebración	-10.3106
nimal	-10.3113
▁xoga	-10.3118
▁recolle	-10.3119
▁obten	-10.313
laborou	-10.3131
▁vías	-10.3134
ráfico	-10.3135
▁infan	-10.3136
▁concreta	-10.3138
▁liberal	-10.3138
▁Lú	-10.3139
▁desenvolve	-10.3139
rich	-10.314
▁morrer	-10.3142
▁ensaio	-10.3143
▁democracia	-10.3143
▁tornou	-10.3144
▁Tribuna	-10.3148
▁protestante	-10.3148
▁chamou	-10.3156
▁Cámara	-10.3162
▁Vicent	-10.3166
▁56	-10.3171
ppi	-10.3185
▁Bueno	-10.3185
▁Eu	-10.3185
▁copias	-10.3192
▁Marco	-10.3199
▁biblioteca	-10.3206
▁minera	-10.3211
▁sofre	-10.3232
▁Conta	-10.3236
▁Mo	-10.3239
tación	-10.324
quez	-10.3242
▁determinar	-10.3242
▁soberan	-10.3244
▁Mundo	-10.3244
▁exipcio	-10.3251
▁reunión	-10.3251
▁brillante	-10.3252
SS	-10.3253
▁plataforma	-10.3256
▁acepta	-10.3267
ade	-10.3271
fama	-10.3273
▁fogar	-10.3277
▁rango	-10.3296
▁retirada	-10.3297
▁Turqu	-10.3298
▁Atópa	-10.3319
▁vantaxe	-10.3319
issi	-10.332
▁lume	-10.332
▁outeiro	-10.3322
▁toca	-10.3323
▁Hu	-10.3332
▁suave	-10.3336
▁derradeiro	-10.3342
▁útil	-10.3342
▁Costa	-10.3344
▁57	-10.3344
▁insecto	-10.3344
▁conferencia	-10.335
▁serra	-10.3358
▁viño	-10.3361
▁interacción	-10.3365
▁Xunto	-10.3365
▁TV	-10.3369
▁chámase	-10.3386
▁enviou	-10.3386
▁consideraba	-10.3388
▁intervención	-10.3388
▁149	-10.3392
▁artístico	-10.3393
▁seco	-10.3408
▁Mon	-10.3411
▁dispositivo	-10.3411
▁Mil	-10.3413
▁Du	-10.3417
▁combinación	-10.3419
▁circular	-10.3423
▁santo	-10.3423
▁ceo	-10.3427
▁argumento	-10.3434
NE	-10.3434
▁costeira	-10.3435
▁conteñ	-10.3437
breza	-10.3439
▁Cara	-10.3449
vez	-10.3455
▁Sistema	-10.3457
▁secundaria	-10.3457
▁verdadeira	-10.3458
▁latina	-10.3462
▁interno	-10.347
▁clave	-10.3473
▁cat	-10.348
▁guitarrista	-10.3481
▁ritmo	-10.3481
▁sal	-10.3493
▁solitario	-10.3504
▁propósito	-10.3504
▁164	-10.3507
▁Louis	-10.3507
▁deseñado	-10.3511
ney	-10.3517
▁seca	-10.3517
▁cambiou	-10.3517
▁PS	-10.3518
▁Manch	-10.3519
lmente	-10.3521
▁previa	-10.3522
▁sinal	-10.3545
▁marchou	-10.355
▁ausencia	-10.355
▁enxeñeiro	-10.3551
▁verdadeiro	-10.3554
▁moral	-10.3559
▁mamífero	-10.3574
▁prisión	-10.3574
▁Richard	-10.3574
▁pront	-10.3584
▁localizado	-10.3591
▁enviado	-10.36
▁estuda	-10.3603
▁asumi	-10.3611
▁millón	-10.3613
BA	-10.3619
▁maioritaria	-10.3621
▁suxeito	-10.3621
▁Grazas	-10.3621
▁quiz	-10.3625
▁fluxo	-10.3635
▁obriga	-10.3636
▁autónoma	-10.3644
▁tribuna	-10.3644
▁retablo	-10.3645
▁amizade	-10.3652
▁58	-10.3656
▁85	-10.3661
▁h	-10.3666
’	-10.3668
▁77	-10.3679
▁sacerdote	-10.3688
▁comandante	-10.3692
▁refíre	-10.3693
▁pico	-10.3693
▁afirma	-10.37
iñeiro	-10.3702
▁románica	-10.3716
▁caracteríza	-10.3716
▁teatra	-10.3716
▁fósil	-10.3716
▁decidir	-10.3727
▁André	-10.3728
▁perspectiva	-10.3739
▁sext	-10.3743
▁Ano	-10.3753
▁axudar	-10.3755
▁básica	-10.3763
▁incluída	-10.3763
▁soviético	-10.3763
▁setentriona	-10.3764
▁cola	-10.3769
▁termina	-10.3772
▁Campo	-10.3779
▁xaponés	-10.3787
▁Medio	-10.3787
▁encargado	-10.379
▁achega	-10.379
ico	-10.3809
▁Ministerio	-10.3811
▁asinou	-10.3811
▁electrónico	-10.3811
▁representar	-10.3813
▁conexión	-10.382
▁equilibrio	-10.3835
▁montañosa	-10.3835
▁bisesto	-10.3835
▁noticia	-10.3835
▁minoría	-10.3835
lin	-10.3841
ína	-10.3848
▁entender	-10.3851
olonia	-10.3856
▁You	-10.3857
▁Wil	-10.3859
▁Queda	-10.386
▁investigador	-10.3865
▁actúa	-10.3868
▁alcanzar	-10.3871
▁alimenta	-10.3879
▁Concello	-10.3883
▁neve	-10.3884
▁rara	-10.3885
▁celebrou	-10.3886
▁Esa	-10.3887
▁Franco	-10.3887
▁dominante	-10.3887
▁visible	-10.3889
▁ni	-10.3892
▁bando	-10.3895
▁lóxica	-10.3908
▁dedicada	-10.3909
▁exportación	-10.3911
ha	-10.3916
st	-10.3929
▁Ánxel	-10.3932
▁xudicia	-10.3932
▁lograr	-10.3936
▁mide	-10.3938
▁Nace	-10.3939
▁xuízo	-10.3949
ng	-10.3953
▁veciña	-10.3956
▁Vien	-10.3956
▁alumno	-10.3956
▁adaptación	-10.3959
▁Ga	-10.3962
▁declaración	-10.3973
▁anarquista	-10.3975
▁circula	-10.3977
▁feminino	-10.3981
▁testemuña	-10.3981
▁frase	-10.3981
▁acabar	-10.3984
▁Nada	-10.3988
▁potencial	-10.399
▁quería	-10.3992
▁adultos	-10.3998
▁transmisión	-10.4005
▁doenza	-10.4006
▁económicas	-10.4018
▁CD	-10.4021
▁ton	-10.4022
▁baséa	-10.403
▁ópera	-10.4032
▁cá	-10.4032
▁concelleiro	-10.4035
▁sonora	-10.4043
▁Ru	-10.4045
▁Sociedade	-10.4045
▁dano	-10.4054
▁dispoñible	-10.4056
▁estiver	-10.407
▁Mi	-10.4071
val	-10.4076
▁personalidade	-10.4079
▁banco	-10.4079
▁primaria	-10.4079
▁modificación	-10.4082
▁dalgunha	-10.4087
▁Alta	-10.4093
▁curva	-10.4094
▁doutrina	-10.4103
▁intensa	-10.4103
▁mínimo	-10.4103
▁mitoloxía	-10.4104
▁barroco	-10.4104
▁proporción	-10.4105
NG	-10.4113
▁Tal	-10.4127
▁plena	-10.4127
▁buque	-10.4128
▁característico	-10.4128
▁tonelada	-10.4128
▁administrativo	-10.4128
▁xorde	-10.4128
▁centra	-10.4129
▁canón	-10.4133
▁700	-10.4136
▁acaba	-10.4143
▁levan	-10.4143
▁Mor	-10.4149
▁partida	-10.4152
▁colexio	-10.4153
▁portugues	-10.4153
▁utilizan	-10.4168
▁percorrido	-10.4178
▁quedar	-10.4188
▁lúa	-10.4195
▁Don	-10.4196
▁unido	-10.4196
▁Forma	-10.42
▁ordenador	-10.4201
▁arcebispo	-10.4203
▁brasileiro	-10.4203
▁2017	-10.4203
▁250	-10.4209
▁adestrador	-10.4211
▁vivenda	-10.4212
▁individual	-10.4214
lt	-10.4219
iño	-10.4222
▁UE	-10.4227
▁criterio	-10.4228
▁consideran	-10.4228
▁renda	-10.4229
▁armada	-10.4241
▁esperanza	-10.4266
▁Nel	-10.4266
▁abaixo	-10.4275
▁151	-10.428
▁destinado	-10.4282
▁establecemento	-10.4283
▁Xoan	-10.4284
▁pop	-10.4285
▁automóbil	-10.4287
▁Paz	-10.4288
▁posuía	-10.4294
▁atravesa	-10.4301
▁encima	-10.4303
▁típico	-10.4303
unk	-10.4305
eorxia	-10.431
▁xogou	-10.431
ilidade	-10.431
▁identifica	-10.432
▁vaca	-10.4323
▁conto	-10.4327
▁xenética	-10.4329
▁estatua	-10.4329
▁chin	-10.4329
▁atopado	-10.433
▁puidese	-10.4334
▁pasan	-10.4335
▁encóntra	-10.4354
▁hábitat	-10.4354
▁vídeo	-10.4354
▁destrución	-10.4354
▁coalición	-10.4354
▁Norueg	-10.4355
▁funciona	-10.4355
▁disposición	-10.4358
▁residente	-10.436
▁ordenou	-10.4365
▁68	-10.4377
▁canadense	-10.4379
▁aparente	-10.4381
▁Alon	-10.4389
▁pensar	-10.4394
▁licenza	-10.4405
▁recoñecida	-10.4405
▁Guinea	-10.4405
▁Conde	-10.4406
▁pata	-10.4408
▁ingresos	-10.441
▁Carolina	-10.4412
▁pertencen	-10.4448
▁mina	-10.4453
▁servir	-10.4454
responsabilidade	-10.4456
▁sucesión	-10.4457
▁dedicado	-10.4459
▁fundamenta	-10.4469
burgo	-10.447
ló	-10.4472
▁xestión	-10.4476
▁Xur	-10.449
▁ofrece	-10.4495
▁Sal	-10.4497
▁super	-10.4506
▁específico	-10.4507
▁Comisión	-10.4508
▁levado	-10.4508
▁custo	-10.4513
way	-10.4515
▁j	-10.4519
▁abrangue	-10.4522
ronto	-10.4528
di	-10.4531
▁Grupo	-10.4533
▁require	-10.4533
▁satélite	-10.4533
▁statu	-10.4533
▁Canaria	-10.4533
▁trint	-10.4536
▁verbo	-10.4536
▁comprende	-10.4537
▁ascenso	-10.4538
▁Nesa	-10.454
dores	-10.4552
TA	-10.4554
▁cumio	-10.4559
▁rolda	-10.4562
▁51	-10.4563
▁euro	-10.4568
▁empregan	-10.457
ego	-10.4571
um	-10.4575
▁privado	-10.4585
▁Andr	-10.4585
qui	-10.4596
▁Core	-10.4605
▁paralelo	-10.4611
▁comuna	-10.4632
▁Armada	-10.4638
ty	-10.464
▁Martin	-10.465
▁falada	-10.465
▁indio	-10.4656
▁illote	-10.4663
▁pertencía	-10.4663
▁escano	-10.4667
▁logra	-10.4669
▁falecido	-10.4669
▁contribuí	-10.4681
▁capítulo	-10.4689
itoria	-10.4692
▁quedan	-10.4695
▁Mes	-10.4697
▁decide	-10.4702
ble	-10.4706
▁alcanza	-10.471
▁extensa	-10.4715
▁mellorar	-10.4716
▁Tour	-10.4726
▁Vene	-10.4726
▁caracter	-10.4738
fusión	-10.4739
▁marcado	-10.474
▁iniciativa	-10.4742
▁Castel	-10.4746
▁mudou	-10.4751
inas	-10.4752
▁Cór	-10.4768
▁limita	-10.477
▁fría	-10.4772
ett	-10.4774
be	-10.479
▁defender	-10.4794
▁Internet	-10.4794
▁membrana	-10.4794
▁xardín	-10.4794
▁serviu	-10.4804
▁observar	-10.4818
▁Comité	-10.4821
▁cancro	-10.4821
▁executivo	-10.4821
▁soporte	-10.4821
▁esténde	-10.4821
▁sindicato	-10.4821
▁habilidade	-10.4822
ke	-10.4823
▁Esto	-10.4833
▁específica	-10.4847
▁turístico	-10.4847
▁astro	-10.4858
▁aventura	-10.4868
ell	-10.4871
▁alternativo	-10.4874
▁controlar	-10.4878
▁American	-10.4886
ion	-10.4889
▁gravar	-10.489
▁Antón	-10.4891
▁explicar	-10.49
▁alcance	-10.4901
▁Parque	-10.4901
▁Morre	-10.4903
▁sesión	-10.4912
▁mile	-10.4912
▁sinxela	-10.4918
nomía	-10.4918
gt	-10.4923
▁denomínase	-10.4923
▁execución	-10.4928
▁xurisdición	-10.4928
▁ruína	-10.4928
▁vale	-10.4942
▁Bis	-10.4949
▁titulado	-10.4955
▁contar	-10.4956
▁166	-10.4958
▁revolucionario	-10.4958
tou	-10.4977
▁Boe	-10.4986
▁k	-10.4987
▁tramo	-10.4989
ime	-10.4994
▁Peter	-10.4998
▁cliente	-10.5008
▁tam	-10.5021
▁descender	-10.5034
▁actitude	-10.5035
▁territorial	-10.5037
▁introdución	-10.5039
▁definir	-10.5048
▁71	-10.5049
▁divers	-10.5062
▁95	-10.5075
▁174	-10.509
*	-10.509
▁facelo	-10.509
▁enteiro	-10.5091
▁desaparición	-10.5091
▁experimenta	-10.5099
▁debut	-10.5103
▁diocese	-10.5103
▁existi	-10.5114
▁Rafa	-10.5118
▁162	-10.5127
▁Sam	-10.5128
▁defende	-10.5128
▁naquel	-10.5148
▁seguro	-10.5156
kg	-10.5159
▁xusto	-10.5166
▁Vol	-10.517
▁navega	-10.5172
▁depósito	-10.5172
▁poderoso	-10.5173
▁detido	-10.5173
▁Traballo	-10.5173
▁Corporación	-10.5177
▁partidario	-10.5178
▁captura	-10.5183
mérica	-10.5184
▁coruñ	-10.5184
▁62	-10.5186
gora	-10.5189
▁entrega	-10.5198
▁recinto	-10.52
▁Carl	-10.5201
▁informe	-10.5201
▁habitada	-10.5202
ivil	-10.5209
▁Pedra	-10.521
▁có	-10.5212
▁escuro	-10.5221
▁Pazo	-10.5226
▁mínima	-10.5227
▁baleiro	-10.5227
▁rebelde	-10.5234
▁130	-10.5237
▁Siri	-10.5242
▁vexa	-10.5243
▁fuxir	-10.5247
base	-10.5249
▁magnético	-10.5255
▁Chic	-10.5268
▁consegui	-10.5268
▁atacar	-10.5279
▁gañador	-10.5279
▁ventos	-10.5279
▁latera	-10.528
▁editou	-10.5283
▁ribeira	-10.5283
▁resolución	-10.5283
▁negativa	-10.5283
▁bóveda	-10.5283
▁significativo	-10.5285
▁dependencia	-10.5287
▁condenado	-10.5288
▁esencia	-10.5289
▁eixo	-10.53
▁disciplina	-10.5302
▁bas	-10.5306
▁Sicilia	-10.5311
▁externa	-10.5311
▁magnitude	-10.5311
▁disolución	-10.5311
▁café	-10.5311
ish	-10.5311
ham	-10.5312
▁existir	-10.5313
▁poñer	-10.5317
▁Batalla	-10.532
▁patrimoni	-10.5324
▁indican	-10.5327
▁Am	-10.5338
▁húmido	-10.5339
▁africano	-10.534
▁asociada	-10.534
▁xudía	-10.5341
▁Leste	-10.5342
▁Tiña	-10.5342
▁72	-10.5348
▁realización	-10.5352
▁ocupado	-10.5363
▁videoxogo	-10.5367
▁estratexia	-10.5367
▁sólido	-10.5368
▁electrónica	-10.5371
▁Federa	-10.5379
▁Po	-10.5385
ato	-10.5389
▁define	-10.5393
▁intensidade	-10.5395
▁típica	-10.5395
▁aceite	-10.5395
▁combustible	-10.5395
▁seguidor	-10.5398
▁redución	-10.5398
▁adquiri	-10.5401
▁definitiva	-10.5408
tic	-10.5411
▁profesiona	-10.5414
▁sucedeu	-10.5418
ilis	-10.5421
▁Park	-10.5427
▁provocar	-10.5428
▁retirar	-10.5431
▁Tole	-10.5431
▁descubrir	-10.5431
▁constituciona	-10.5455
▁verso	-10.5456
▁dirixente	-10.5457
▁introduciu	-10.5462
▁pro	-10.5467
▁Normal	-10.5468
▁Maced	-10.5472
▁Die	-10.5472
▁utilíza	-10.5473
▁impulso	-10.5476
▁violen	-10.5477
▁except	-10.548
▁comparte	-10.548
homa	-10.548
▁aproveita	-10.5484
▁contemporáneo	-10.5508
▁galaxia	-10.5508
▁circunstancia	-10.5508
▁Nela	-10.5515
▁convento	-10.5516
▁editoria	-10.5518
▁chinesa	-10.5534
▁quere	-10.5536
▁definida	-10.5537
▁Francesa	-10.5539
migración	-10.5547
▁viax	-10.5562
▁aprendiz	-10.5565
▁aérea	-10.5565
▁intercambio	-10.5565
▁deseñada	-10.5565
▁escoc	-10.5578
▁unida	-10.5581
▁cana	-10.5584
▁155	-10.5591
▁óso	-10.5593
▁entrevista	-10.5594
▁profundo	-10.5594
▁cabaleiro	-10.5594
▁River	-10.5594
▁interesante	-10.5595
iz	-10.5595
▁gobernante	-10.5597
▁reducir	-10.5598
▁militante	-10.5598
▁pena	-10.5598
▁Alto	-10.56
▁Pro	-10.5603
▁hospital	-10.5604
▁He	-10.5607
▁acusado	-10.5611
rse	-10.5612
▁centros	-10.5618
▁amosa	-10.562
ac	-10.5621
▁63	-10.5621
▁dedicou	-10.5622
▁utilizou	-10.5622
▁vontade	-10.5622
▁desenvolvida	-10.5624
▁Territorio	-10.5633
▁adoptou	-10.5635
▁acepto	-10.564
utono	-10.5646
▁aparello	-10.5651
▁nube	-10.5651
▁Palacio	-10.5652
▁pegada	-10.5652
▁sentimento	-10.5655
▁presentación	-10.5658
FA	-10.5673
▁Lu	-10.5675
ed	-10.5678
▁financeiro	-10.568
▁fluvia	-10.568
ira	-10.5683
▁protexer	-10.5695
▁Pai	-10.5695
▁conservador	-10.5696
▁165	-10.5698
▁actuar	-10.5701
▁Ne	-10.5704
po	-10.5708
▁Tint	-10.5708
▁incendio	-10.5709
▁concreto	-10.5709
▁promoción	-10.5709
▁representado	-10.5709
▁Schuma	-10.5709
▁Jim	-10.571
▁pura	-10.5715
▁segura	-10.5734
▁ti	-10.5736
▁humanidade	-10.5739
▁procedemento	-10.5743
▁2,	-10.5754
▁156	-10.5756
▁evidente	-10.5761
▁158	-10.5764
▁coordenada	-10.5767
▁electromagnétic	-10.5771
▁153	-10.5777
▁medo	-10.5787
▁78	-10.5789
▁dada	-10.579
▁Cabo	-10.58
▁gris	-10.5801
▁rexional	-10.5803
▁falan	-10.5803
▁xorna	-10.5811
▁Ant	-10.5821
▁Var	-10.5823
▁aeroliña	-10.5826
▁fácil	-10.5826
▁volcánica	-10.5828
▁Sar	-10.5829
▁Ví	-10.583
▁Moi	-10.5833
antes	-10.5837
▁necesita	-10.5844
▁Destaca	-10.5847
ier	-10.5851
▁seguida	-10.5853
▁Virxi	-10.5855
▁Suprem	-10.5855
▁171	-10.5866
▁Federic	-10.5871
▁96	-10.5876
▁Lo	-10.588
▁retirou	-10.5882
▁espectáculo	-10.5885
▁Hawai	-10.5885
▁contribución	-10.5887
▁mapa	-10.589
tu	-10.5891
▁98	-10.5898
▁Maior	-10.5913
▁Alfred	-10.5914
▁muíño	-10.5914
▁sorte	-10.5927
▁concepción	-10.5929
xustiza	-10.5943
▁milenio	-10.5944
▁gramática	-10.5946
▁vasco	-10.5949
▁limitada	-10.5949
▁debeu	-10.5957
tor	-10.5959
▁ave	-10.5959
▁feminina	-10.5974
▁bel	-10.5977
hi	-10.5977
▁Confederación	-10.5977
▁Pertence	-10.5984
▁buscar	-10.5985
▁loitar	-10.5989
▁fo	-10.5992
▁66	-10.5992
UA	-10.5993
▁Mal	-10.6004
▁laboratorio	-10.6004
laboración	-10.6012
▁enlace	-10.6012
áron	-10.6012
▁servidor	-10.6018
▁describir	-10.6018
▁encoro	-10.6021
▁escribe	-10.6021
▁explicación	-10.6022
▁permitía	-10.6042
▁Tiv	-10.6045
▁unicame	-10.6049
▁visto	-10.6049
▁rexeita	-10.6051
orra	-10.6051
▁Pi	-10.6052
▁salto	-10.6053
▁dirixir	-10.6053
A	-10.606
▁Parroquia	-10.6064
▁suxire	-10.6064
▁heroe	-10.6064
▁UR	-10.6065
▁deportiva	-10.6065
▁bomba	-10.6066
▁intelectual	-10.6067
quera	-10.6069
gueira	-10.6077
▁tanque	-10.6079
▁67	-10.6081
▁quente	-10.6082
▁pon	-10.6083
▁senador	-10.6084
▁postura	-10.6094
▁atopába	-10.6096
▁Ki	-10.6097
▁nomeamento	-10.6099
▁explorador	-10.61
▁declarado	-10.6101
ur	-10.6101
▁Lago	-10.6108
▁traballaba	-10.6113
▁172	-10.6113
▁crónica	-10.6124
▁ferido	-10.6124
▁sueco	-10.6124
▁Democrátic	-10.6124
▁piano	-10.6126
▁1000	-10.6129
alén	-10.613
▁formaba	-10.6132
▁continuo	-10.6133
▁lagos	-10.6142
▁lectura	-10.6154
▁mañá	-10.6154
▁petición	-10.6154
▁retorno	-10.6154
▁candidatura	-10.6154
▁Coroa	-10.6155
▁59	-10.6156
▁tío	-10.6159
▁125	-10.6164
▁Oscar	-10.617
▁Joseph	-10.6172
▁Johann	-10.6173
▁estrea	-10.6173
▁corre	-10.618
▁Deportiv	-10.6185
▁ideoloxía	-10.6185
▁opción	-10.6186
▁medalla	-10.6186
▁portada	-10.6189
▁aceiro	-10.619
▁sabor	-10.6197
▁Vell	-10.6202
▁atopaba	-10.6204
▁implica	-10.6212
▁creador	-10.6213
▁reprodución	-10.6215
▁tralo	-10.6216
▁pagar	-10.6217
ente	-10.6221
▁Golf	-10.6225
▁Vi	-10.6239
‘	-10.6246
▁erupción	-10.6246
▁herba	-10.6246
▁porcentaxe	-10.6246
▁cociña	-10.6248
▁orquestra	-10.625
▁sufrir	-10.6251
▁retrato	-10.6256
▁173	-10.6259
▁inicia	-10.6265
▁Xuli	-10.6275
▁comp	-10.6276
▁acerca	-10.6276
▁General	-10.6276
▁decreto	-10.6277
▁arriba	-10.6278
▁Tui	-10.6279
▁comparación	-10.628
▁coro	-10.628
▁gótico	-10.6282
▁limitado	-10.6287
▁Si	-10.6293
▁ideal	-10.6295
▁lenta	-10.6295
▁pronuncia	-10.6305
▁achado	-10.6307
▁prazo	-10.6308
▁regresar	-10.6309
▁Negro	-10.6313
▁froita	-10.6314
▁Galer	-10.6315
▁propietario	-10.6318
▁ha	-10.6318
▁conca	-10.6319
▁acada	-10.6323
▁apelido	-10.6338
▁cerámica	-10.6338
▁droga	-10.6338
▁cuberto	-10.6338
▁Serbi	-10.6339
▁incluía	-10.6342
▁Sir	-10.6342
▁designado	-10.6345
illas	-10.6348
▁puider	-10.6348
▁76	-10.635
▁ferramentas	-10.6356
▁atómico	-10.6369
▁ecosistema	-10.6369
▁triunfo	-10.6369
▁Zara	-10.637
▁Forza	-10.6375
L	-10.6377
▁anua	-10.6384
▁Van	-10.6388
▁hab	-10.639
▁intenta	-10.6391
▁seguía	-10.6392
▁trigo	-10.6396
mas	-10.6399
▁gobernamenta	-10.64
▁roupa	-10.64
▁Menor	-10.6401
▁construíron	-10.6402
▁Nin	-10.6402
ker	-10.6402
▁Je	-10.6404
▁Sil	-10.6405
▁pediu	-10.6406
▁preciso	-10.6409
▁82	-10.641
▁Álvar	-10.6412
▁Funda	-10.6413
úa	-10.6413
▁facil	-10.6418
▁nomeada	-10.6422
▁tese	-10.6422
▁computador	-10.6423
arroco	-10.6423
rico	-10.6426
▁Organización	-10.6431
▁Príncipe	-10.6431
▁vapor	-10.6431
▁escaso	-10.6434
▁Cit	-10.6438
uel	-10.6442
che	-10.6444
▁elimina	-10.6456
▁rexeitou	-10.6462
▁instituto	-10.6462
▁primario	-10.6463
ide	-10.6465
▁mala	-10.6485
▁0,	-10.6488
▁marcada	-10.6489
▁abre	-10.6489
▁Domingo	-10.6494
ong	-10.6496
▁explica	-10.6498
▁soberano	-10.65
▁boca	-10.6503
▁infanti	-10.6505
▁montes	-10.6512
▁soviética	-10.6525
▁cardea	-10.6526
▁Stone	-10.6526
by	-10.6526
▁to	-10.653
▁suceso	-10.6534
▁golfo	-10.6537
▁intentar	-10.6537
▁Car	-10.6541
▁154	-10.6542
▁socio	-10.6549
▁cumprir	-10.655
ult	-10.6552
▁apertura	-10.6554
▁aprobou	-10.6557
▁índice	-10.6557
▁bolsa	-10.6557
▁avogado	-10.6563
▁pirata	-10.6563
▁restauración	-10.6564
▁marido	-10.6567
▁dividir	-10.6569
▁Mel	-10.6571
▁Granad	-10.6572
▁positiva	-10.6573
▁157	-10.6575
▁colonial	-10.6583
ja	-10.6586
▁Jon	-10.6587
▁multitude	-10.6588
▁relevante	-10.6591
▁probabilidade	-10.6592
xenti	-10.6596
▁radical	-10.6599
azz	-10.6609
▁West	-10.6612
▁lingüístico	-10.662
▁Antigo	-10.662
▁lector	-10.6621
▁predominante	-10.6623
▁organizar	-10.6626
▁longobardo	-10.6627
▁negociación	-10.6628
▁foresta	-10.6632
▁fica	-10.6634
▁permanecer	-10.6636
▁viña	-10.6637
cesión	-10.6638
▁nacionalismo	-10.6638
▁artificial	-10.6638
▁ambienta	-10.6647
▁ler	-10.6649
▁escolar	-10.665
▁infección	-10.6652
▁mancha	-10.6653
▁superar	-10.6659
▁Bul	-10.666
▁crista	-10.6666
auna	-10.6668
▁naval	-10.6669
▁dependente	-10.6676
▁Chi	-10.6682
▁regra	-10.6682
▁campesiño	-10.6684
▁decoración	-10.6684
▁destruída	-10.6684
▁Antiga	-10.6684
▁Terceir	-10.6685
▁Hill	-10.6686
▁xeograf	-10.6689
▁Del	-10.6696
NES	-10.6698
▁electric	-10.6699
▁oficina	-10.6702
▁Colle	-10.6703
▁parti	-10.6712
eda	-10.6712
▁concurso	-10.6712
▁xera	-10.6716
▁hemisferio	-10.6716
▁Baixa	-10.6716
▁latitude	-10.6716
▁Daniel	-10.6716
▁cinema	-10.6719
▁Iso	-10.6719
▁Andalu	-10.6728
▁asinar	-10.6729
▁intentou	-10.6747
▁61	-10.6747
▁cromosoma	-10.6748
▁declarada	-10.6752
▁dispó	-10.6756
▁Prim	-10.6768
▁coñécese	-10.6773
▁suposto	-10.6781
▁Bilb	-10.6782
altar	-10.6782
▁reducido	-10.6783
▁deportivo	-10.6786
▁acompañado	-10.6786
ve	-10.6786
▁Burgo	-10.6786
berg	-10.6789
▁milla	-10.681
▁Mary	-10.6811
▁masiva	-10.6813
▁establecida	-10.6813
▁Ferrari	-10.6814
▁expulsado	-10.6816
▁Oh	-10.6819
▁Bibli	-10.6822
▁iniciar	-10.6822
▁arrecife	-10.6826
▁Tri	-10.6835
diz	-10.6842
▁distinguir	-10.6845
▁reflicte	-10.6845
▁titular	-10.6845
▁Texas	-10.6847
▁funcionario	-10.6848
▁folga	-10.6851
▁débeda	-10.6854
▁preso	-10.6855
▁supera	-10.6855
▁Florenci	-10.6865
erú	-10.687
nacemento	-10.6875
cho	-10.6876
▁Vilar	-10.6877
▁fixéron	-10.6879
▁guión	-10.6879
▁masculino	-10.6881
B	-10.6894
▁gradual	-10.6898
▁Ce	-10.6898
▁Hou	-10.691
▁temática	-10.6911
dón	-10.6922
▁correo	-10.6923
▁abriu	-10.6931
▁fixa	-10.6931
▁alcanzou	-10.6931
▁variada	-10.6932
raza	-10.6933
▁Romaní	-10.6936
lín	-10.6938
▁honor	-10.6943
▁establecido	-10.6943
▁fibra	-10.6943
▁fresco	-10.6948
▁molecular	-10.6948
▁Pen	-10.6956
▁87	-10.6958
▁oportunidade	-10.6963
▁comerciante	-10.6969
tica	-10.6969
▁incremento	-10.697
▁capita	-10.6971
▁turista	-10.6976
▁temporada	-10.6978
▁Linu	-10.6989
▁159	-10.6994
▁161	-10.6997
▁periódica	-10.7009
▁privilexio	-10.7009
▁faraón	-10.7009
▁Camiño	-10.7009
▁navío	-10.7009
▁monxe	-10.7011
▁celebrada	-10.7014
▁algu	-10.7017
▁refuxio	-10.7018
▁organizou	-10.7021
▁Canto	-10.7026
▁carbón	-10.7028
▁Henr	-10.7036
▁cen	-10.7038
▁Cerv	-10.7039
▁estendeu	-10.7041
▁manuscrito	-10.7042
▁cemiterio	-10.7042
▁viva	-10.7043
NT	-10.705
ut	-10.7052
▁homónimo	-10.7055
▁Leonard	-10.7058
▁Beta	-10.7062
fil	-10.707
▁99	-10.7071
▁remate	-10.7076
▁arquivo	-10.7076
▁Colomb	-10.7076
▁veu	-10.7079
▁empeza	-10.7088
▁mariñeiro	-10.7092
▁arcos	-10.7094
▁vertical	-10.7096
▁irregular	-10.7101
▁preocupación	-10.7109
ol	-10.7109
▁manga	-10.7116
▁consistente	-10.7122
mede	-10.7123
▁conxunta	-10.7123
▁ma	-10.7133
▁distinción	-10.7142
▁influente	-10.7142
▁caixa	-10.7142
▁causou	-10.7142
▁firme	-10.7142
▁poética	-10.7143
▁Republican	-10.7143
▁norteamericana	-10.7143
▁167	-10.7148
▁substituír	-10.7155
▁gasto	-10.7159
rusia	-10.7169
▁73	-10.7173
▁Superior	-10.7176
▁récord	-10.7176
▁Bela	-10.7184
misión	-10.7186
▁ligada	-10.7187
▁ningu	-10.7188
▁úsa	-10.7189
▁absoluto	-10.719
▁mostran	-10.7197
▁obreiro	-10.7197
▁Pena	-10.7197
▁ligado	-10.7198
▁propux	-10.7208
▁separa	-10.7209
▁escultor	-10.721
▁Linn	-10.7211
▁balon	-10.7215
▁colectivo	-10.7215
▁tenda	-10.7221
▁recoñecer	-10.7221
▁abundan	-10.7222
▁acostuma	-10.7226
▁Mandel	-10.723
chi	-10.7232
riño	-10.7235
cción	-10.7235
gar	-10.7249
ner	-10.7262
▁69	-10.7263
▁gravou	-10.7264
▁mineral	-10.7268
▁imp	-10.7269
▁medir	-10.7271
▁celebra	-10.7274
▁Minne	-10.7277
▁axudou	-10.7277
▁demostrou	-10.7277
▁discográfica	-10.7277
▁románico	-10.7277
▁traxectoria	-10.7277
▁humor	-10.7278
▁Vallad	-10.7279
▁federación	-10.7284
▁fixera	-10.7285
▁168	-10.7291
▁visigodo	-10.7291
▁abandona	-10.7295
▁Wi	-10.7306
▁queixo	-10.7308
▁tentativa	-10.7311
▁xove	-10.7313
▁alma	-10.7318
▁Plan	-10.7324
▁92	-10.7325
pía	-10.7325
▁sucesiva	-10.7345
▁herdanza	-10.7345
▁can	-10.7346
▁diaria	-10.7346
▁domingo	-10.7346
▁definido	-10.7346
▁alberga	-10.7348
ited	-10.7353
▁trans	-10.7357
▁Galile	-10.7362
▁ch	-10.7366
▁inter	-10.7369
mperador	-10.7376
▁contorna	-10.738
▁vendido	-10.738
▁Columbia	-10.7381
▁doutor	-10.739
▁recoñece	-10.739
▁gal	-10.7394
▁Bel	-10.7396
▁sina	-10.7397
▁Galia	-10.7404
▁integrante	-10.7406
▁81	-10.7412
▁singular	-10.7414
▁caer	-10.742
▁Gregori	-10.742
▁derivada	-10.7423
▁audiencia	-10.7424
▁cambia	-10.743
ubi	-10.743
▁nacer	-10.7431
▁ámb	-10.7437
▁min	-10.7442
▁congreso	-10.7448
▁polémica	-10.7448
▁Carme	-10.745
▁desembocadura	-10.7451
▁proclama	-10.7456
▁tomada	-10.7461
▁79	-10.7463
▁89	-10.7463
nzos	-10.7465
▁representada	-10.7466
▁bi	-10.7478
▁incursión	-10.7483
▁investimento	-10.7484
▁Prag	-10.7484
▁identificar	-10.7484
▁Conferencia	-10.7485
▁84	-10.7498
▁oral	-10.75
▁integrado	-10.7503
▁fuxi	-10.7509
▁funda	-10.7511
▁93	-10.7516
▁espectador	-10.7518
▁obtido	-10.7518
▁colaborador	-10.7523
▁pobreza	-10.7525
▁casar	-10.7528
ctor	-10.7534
▁castelá	-10.7534
▁Juli	-10.7536
▁visitante	-10.754
▁adoptar	-10.7542
▁resolver	-10.7544
▁apoiar	-10.7545
▁Hol	-10.7551
▁discusión	-10.7553
▁himno	-10.7553
▁persecución	-10.7553
▁extinción	-10.7553
▁terremoto	-10.7553
▁discípulo	-10.7554
▁orixinaria	-10.7555
▁Lemo	-10.7559
ándo	-10.7561
▁quinta	-10.7561
gas	-10.7573
dia	-10.7578
pre	-10.7583
▁Posúe	-10.7588
▁Ucra	-10.7588
▁infraestrutura	-10.7588
▁psic	-10.7588
▁organizado	-10.7588
▁dieta	-10.7588
▁nacionalidade	-10.7596
▁74	-10.7596
▁incluír	-10.7602
▁neto	-10.7603
forme	-10.7607
goza	-10.761
▁aprender	-10.761
aribe	-10.7615
▁Iugoslav	-10.7623
▁Rexión	-10.7623
▁arxentino	-10.7623
▁bebida	-10.7623
▁descenso	-10.7623
▁periódico	-10.7623
▁Ham	-10.7625
▁Wind	-10.7629
▁complexos	-10.763
▁Arm	-10.7644
▁Che	-10.7645
ine	-10.765
dio	-10.7652
▁armado	-10.7657
torial	-10.7658
▁descrito	-10.7658
▁chave	-10.7658
▁gráfico	-10.7659
▁resistente	-10.7659
▁Bre	-10.766
▁lobo	-10.7668
aco	-10.7671
▁hum	-10.7674
▁fundar	-10.7678
▁abrir	-10.7693
▁asiático	-10.7693
▁Florida	-10.7693
▁elevación	-10.7696
▁top	-10.7698
▁negocio	-10.7699
▁detalles	-10.7699
▁Univers	-10.7702
▁verba	-10.7708
▁capac	-10.7708
▁espera	-10.7709
▁entende	-10.7712
▁regresa	-10.7713
▁rexiona	-10.772
▁Estatuto	-10.7729
▁paxaro	-10.7729
▁escollido	-10.773
▁proclamou	-10.7732
▁fina	-10.774
▁canta	-10.7742
dad	-10.7743
▁vi	-10.7745
▁Mari	-10.7747
▁163	-10.7755
▁88	-10.7755
▁diferencia	-10.7755
uela	-10.7756
▁depresión	-10.7757
▁grav	-10.7761
▁Física	-10.7764
▁fragmento	-10.7764
▁hectárea	-10.7764
▁compromiso	-10.7764
▁impresión	-10.7765
▁National	-10.7765
▁reducida	-10.7766
▁Jord	-10.7767
▁expresa	-10.7769
ovia	-10.7769
▁xapones	-10.7769
▁91	-10.7771
▁Letr	-10.7772
▁Ta	-10.7773
▁levada	-10.7784
▁Amai	-10.7787
▁enteira	-10.7788
▁irland	-10.7794
iteratura	-10.78
▁síntoma	-10.78
▁Condado	-10.78
▁pechada	-10.7802
▁convertéron	-10.7803
▁rival	-10.7808
▁Ull	-10.7808
▁espacial	-10.7809
▁bar	-10.781
▁enviar	-10.7813
▁pleno	-10.7815
▁Banc	-10.7817
▁otomán	-10.7818
▁Ve	-10.7824
▁editor	-10.7826
▁tiro	-10.7828
▁acceder	-10.7832
ire	-10.7834
▁cabe	-10.7834
ñez	-10.7836
▁perfecta	-10.7836
▁Hattus	-10.7836
▁gato	-10.7837
▁excelente	-10.7837
▁intelixen	-10.7841
▁accede	-10.7844
▁sé	-10.7846
▁Michel	-10.7855
nés	-10.7862
▁falado	-10.7869
▁Saint	-10.7872
▁centímetro	-10.7872
▁estatística	-10.7872
▁móbil	-10.7872
▁subespecie	-10.7872
▁asemblea	-10.7872
▁estética	-10.7872
▁cero	-10.7874
▁voce	-10.7874
▁datan	-10.7876
▁sétim	-10.7877
▁145	-10.7877
▁147	-10.7879
▁aniversario	-10.7883
▁Ha	-10.7894
▁sobriño	-10.7894
▁densa	-10.7898
▁pasaba	-10.79
▁lanzar	-10.7903
ment	-10.7904
▁cabeceira	-10.7908
▁substitución	-10.7908
▁executado	-10.7911
▁Estaba	-10.7914
▁Mc	-10.7931
18	-10.7931
▁cova	-10.7931
▁vector	-10.7935
▁estaría	-10.7941
▁marítima	-10.7944
▁oferta	-10.7944
▁progresiva	-10.7944
▁Británica	-10.7944
▁Indonesia	-10.7944
▁enfermo	-10.7945
▁vocalista	-10.7945
▁complex	-10.7946
▁escavación	-10.7947
▁Bro	-10.7949
▁Ke	-10.795
▁Secretari	-10.7952
edo	-10.7953
▁uniforme	-10.7955
▁futura	-10.7955
▁sucede	-10.796
▁migración	-10.7962
▁Bob	-10.7963
▁146	-10.7976
▁Jer	-10.798
▁enxeñ	-10.798
▁Vatican	-10.798
▁World	-10.798
▁enterrado	-10.798
▁Lourenz	-10.7981
▁reconstrución	-10.7981
▁fame	-10.7981
▁Fronte	-10.7991
tero	-10.8
▁tentou	-10.8003
▁conservan	-10.8007
▁Valde	-10.8007
▁granito	-10.8012
▁descenden	-10.8013
▁medra	-10.8013
▁polaco	-10.8016
▁Vietnam	-10.8017
▁espectro	-10.8017
▁guerreiro	-10.8017
▁recuperou	-10.8017
▁tubo	-10.8017
▁conclusión	-10.802
▁demostrar	-10.8021
▁configuración	-10.8022
▁constituído	-10.8026
▁Inicia	-10.8029
▁148	-10.8033
▁Fa	-10.8038
▁chea	-10.8041
ierre	-10.8044
▁causar	-10.8047
▁terá	-10.8048
▁quince	-10.8049
▁atopá	-10.8051
▁controversia	-10.8054
nche	-10.8054
▁percorre	-10.8059
▁pretende	-10.8061
bal	-10.8063
▁artes	-10.8067
▁reunir	-10.8067
ora	-10.8068
▁Red	-10.8069
▁Rock	-10.8072
▁marea	-10.8074
D	-10.8076
▁recibido	-10.8081
▁pago	-10.8081
▁asegurar	-10.8085
▁defensor	-10.809
▁Nalgún	-10.809
▁clasificar	-10.8091
▁hard	-10.8091
▁Ricard	-10.8091
mort	-10.8093
▁redes	-10.8098
▁Mad	-10.8104
▁usou	-10.8104
▁XXI	-10.8112
ster	-10.8116
▁efectiva	-10.8118
▁suposta	-10.8128
▁fogo	-10.8129
▁facían	-10.8137
▁beneficios	-10.8139
▁proporciona	-10.814
▁pés	-10.8142
N	-10.8144
▁rol	-10.8157
▁realíza	-10.8164
▁Smith	-10.8165
únic	-10.8167
▁ascende	-10.8169
▁millo	-10.8173
▁prato	-10.8179
▁historic	-10.8181
▁designar	-10.8186
▁Ja	-10.8188
ruto	-10.8195
▁devandita	-10.8201
▁éuscar	-10.8202
▁pretendía	-10.8203
▁pechado	-10.8205
▁tornado	-10.8205
▁conquist	-10.8208
▁fabricante	-10.822
▁individua	-10.8223
▁mata	-10.8226
▁chines	-10.8232
▁voar	-10.8234
$	-10.8239
▁contemporánea	-10.8239
▁negou	-10.8239
▁crime	-10.8239
▁Segui	-10.8239
▁externo	-10.8239
▁princesa	-10.8239
▁rexistrada	-10.8241
▁com	-10.8242
▁coloniza	-10.8242
▁obtén	-10.8249
ulf	-10.8251
atrimonio	-10.8253
curso	-10.8254
▁concedeu	-10.8258
▁encontra	-10.8263
fianza	-10.8266
ñón	-10.8276
▁estatuto	-10.8276
▁constituíu	-10.8278
▁Celta	-10.828
▁Teñ	-10.828
▁97	-10.8287
▁deulle	-10.8287
avia	-10.8288
▁adoitaba	-10.829
▁dixital	-10.8292
▁Vermello	-10.8299
▁promove	-10.8303
marck	-10.8315
am	-10.8316
▁avó	-10.8319
▁mundia	-10.8322
▁86	-10.8328
▁vendeu	-10.833
▁orientación	-10.8332
it	-10.8335
jo	-10.8338
▁biolox	-10.8349
▁escapar	-10.8351
▁protexido	-10.8352
▁ábsida	-10.8352
▁Armeni	-10.8353
▁mencionado	-10.8358
▁Prat	-10.8358
▁Karl	-10.8359
▁facilidade	-10.8361
cemento	-10.8362
▁Venez	-10.8372
▁Maria	-10.8379
lianza	-10.8379
▁vítimas	-10.8389
▁aparencia	-10.8389
▁considerou	-10.8389
▁estea	-10.839
▁feira	-10.8392
▁organizada	-10.8393
▁flora	-10.8393
▁169	-10.8395
orce	-10.8401
riz	-10.8407
S	-10.8413
▁eliminar	-10.8419
▁negocios	-10.8421
▁visitar	-10.8423
dro	-10.8424
▁Hospital	-10.8427
▁adestramento	-10.8428
▁Bach	-10.8433
▁preparación	-10.8439
olid	-10.8446
▁nazi	-10.8447
▁progreso	-10.8466
▁refire	-10.8466
ctuou	-10.8466
▁instrución	-10.8466
▁moda	-10.8467
▁pesado	-10.8468
▁celebrar	-10.8469
▁Particip	-10.847
▁referente	-10.8471
▁Cela	-10.8475
▁engadir	-10.8481
▁declara	-10.8493
▁Carball	-10.8495
▁Señor	-10.8499
▁prestixio	-10.8501
▁vitamina	-10.8504
▁consoante	-10.8504
▁Duque	-10.8505
▁rodeada	-10.8508
war	-10.8509
▁cita	-10.8509
▁atracción	-10.8528
▁Villa	-10.8535
▁War	-10.8535
20	-10.8535
▁Pan	-10.8538
▁140	-10.8542
▁Independenc	-10.8542
▁bóla	-10.8542
▁estranxeira	-10.8542
▁lexislativo	-10.8542
▁téxtil	-10.8542
▁xornada	-10.8548
raft	-10.855
▁darlle	-10.8552
▁escritora	-10.8556
▁mortal	-10.8557
agne	-10.8559
▁mesa	-10.8565
▁catalá	-10.8567
▁produci	-10.8571
▁derradeira	-10.8581
▁exercicio	-10.8581
▁Mozart	-10.8581
▁Paso	-10.8581
▁Educa	-10.8584
▁oración	-10.8585
▁conciencia	-10.8587
▁viaxar	-10.8591
▁estancia	-10.8599
▁afeccionado	-10.8602
▁afirmou	-10.8606
▁aéreo	-10.8609
▁Daco	-10.8611
▁seria	-10.8615
lá	-10.8619
▁operativo	-10.8619
▁Micro	-10.862
▁Moor	-10.862
▁mental	-10.862
▁110	-10.8621
▁peor	-10.8622
▁foto	-10.8622
▁coidado	-10.8626
▁cerea	-10.8626
▁piso	-10.863
▁Fran	-10.8635
▁liberado	-10.8637
▁Nil	-10.8638
▁vital	-10.8638
▁orienta	-10.8639
nch	-10.864
▁gusto	-10.8651
▁alga	-10.8651
▁devandito	-10.8659
▁graxa	-10.8659
▁Ecua	-10.8659
▁conduta	-10.8659
▁moza	-10.866
▁Comeza	-10.866
▁Humanidade	-10.866
▁décimo	-10.866
▁Kan	-10.8662
▁doméstico	-10.8664
▁Far	-10.8666
▁morta	-10.8668
▁aceptar	-10.8669
▁Mark	-10.8673
DA	-10.8676
▁Kent	-10.8681
érica	-10.8686
▁Pers	-10.8691
▁Foro	-10.8694
▁precis	-10.8695
oncilio	-10.8697
▁rendemento	-10.8698
▁visito	-10.8698
▁Verde	-10.8703
▁xuven	-10.8706
bus	-10.8706
▁Fil	-10.8708
▁Darí	-10.8715
▁atleta	-10.8721
▁tre	-10.8725
▁Ferro	-10.8733
▁terror	-10.8736
atedral	-10.8736
¿	-10.8737
▁descrita	-10.8737
▁extenso	-10.8737
arwin	-10.8741
▁Redond	-10.8743
▁baix	-10.8745
▁africana	-10.8747
senta	-10.8752
▁Lingua	-10.8753
▁dedicar	-10.8753
▁destruído	-10.8754
ester	-10.8755
ificación	-10.8756
▁daquel	-10.8766
▁illada	-10.8773
▁Case	-10.8776
▁cincuenta	-10.8776
▁permiso	-10.8776
▁Black	-10.8777
▁pensa	-10.8784
▁celebrado	-10.8787
▁Gui	-10.8807
▁afirmación	-10.8807
▁intelectua	-10.8812
▁Scott	-10.8816
▁biolóxica	-10.8816
▁pendente	-10.8816
▁especifica	-10.8816
▁Defens	-10.8816
▁imposible	-10.8816
▁3,	-10.8817
▁Libro	-10.8817
▁salvaxe	-10.8817
▁levantamento	-10.8817
ane	-10.8818
forte	-10.8823
▁vender	-10.8823
▁atoparon	-10.883
▁List	-10.8837
▁naquela	-10.884
▁Sanch	-10.8848
eiga	-10.885
rra	-10.885
obra	-10.8851
▁étnico	-10.8856
▁contiña	-10.8856
▁xeometría	-10.8856
ardo	-10.8856
▁substituída	-10.886
▁exercer	-10.8863
▁US	-10.8863
ética	-10.8864
▁Xusti	-10.8864
▁cabal	-10.8865
▁Estudo	-10.8867
▁soporta	-10.8871
▁Arou	-10.888
▁Señora	-10.8889
▁Nicola	-10.8894
▁Marte	-10.8894
▁académico	-10.8895
▁débil	-10.8895
▁mantiña	-10.8895
▁instalou	-10.8896
▁invento	-10.8898
▁caracteriza	-10.8902
▁Risa	-10.8902
▁participante	-10.8904
▁Star	-10.8905
▁dinámica	-10.8906
colm	-10.8908
▁Tra	-10.8911
otter	-10.8912
▁Aristó	-10.8913
▁habitua	-10.8921
▁Estre	-10.8921
▁agrupación	-10.8926
▁tivese	-10.8928
▁Ala	-10.893
tro	-10.893
▁capite	-10.8935
▁cúpula	-10.8935
▁carballo	-10.8936
tion	-10.8936
▁reloxo	-10.8939
ei	-10.8943
▁tesouro	-10.8943
▁Feli	-10.8946
▁copia	-10.8953
adura	-10.8955
▁hote	-10.8955
▁Croa	-10.8959
▁cheo	-10.8962
▁plantación	-10.8963
▁Music	-10.8969
R	-10.8975
▁alcume	-10.8976
▁cráter	-10.8976
▁financeira	-10.8976
▁tocou	-10.8976
ford	-10.8977
▁asedio	-10.8977
▁Estrada	-10.8979
▁medrar	-10.8981
▁mostrar	-10.899
arse	-10.8991
▁aplicar	-10.8993
rí	-10.8994
▁Arz	-10.8995
▁mantí	-10.8996
óxido	-10.8999
▁contan	-10.9002
tos	-10.9004
▁deusa	-10.9009
▁Tu	-10.9013
xencia	-10.9013
▁lanza	-10.9014
▁marítimo	-10.9016
▁contorno	-10.9016
▁localíza	-10.9016
itude	-10.9016
▁comedia	-10.902
▁94	-10.9023
▁vidro	-10.9024
▁desaparecer	-10.9026
▁Rose	-10.9027
▁contou	-10.9028
▁denomina	-10.9033
edade	-10.9034
▁Templ	-10.9035
▁destacada	-10.9038
▁tenta	-10.904
▁quedaba	-10.905
▁asistencia	-10.9051
▁Rena	-10.9052
▁visual	-10.9053
▁Mondoñedo	-10.9056
▁referend	-10.9056
▁universitario	-10.9056
▁virtude	-10.9056
▁Lenin	-10.9057
▁numera	-10.9057
▁Gó	-10.9059
ápol	-10.906
▁ocasional	-10.9065
▁enfrontar	-10.9065
▁espiritual	-10.9069
▁Ein	-10.9076
▁Patt	-10.9081
▁indicar	-10.9084
sota	-10.9096
▁arquitectónico	-10.9097
▁primitiva	-10.9097
▁negativo	-10.9097
▁xer	-10.91
▁lixeiro	-10.9102
▁conselleiro	-10.9102
onal	-10.9105
▁Quir	-10.9107
▁corredor	-10.9108
▁vencer	-10.9113
▁preparar	-10.9115
CO	-10.9121
▁decaden	-10.9124
▁diminuí	-10.913
▁pelo	-10.9131
oga	-10.9133
à	-10.9138
▁ferida	-10.9138
▁xeográfico	-10.9138
▁viaxa	-10.9138
▁embaixador	-10.9139
▁Ángel	-10.9141
▁contraste	-10.9142
▁serbio	-10.9144
▁cuántic	-10.9147
▁EP	-10.9149
ano	-10.915
▁rotación	-10.915
▁Mu	-10.915
▁substituí	-10.9157
tre	-10.9157
▁presentado	-10.9161
.	-10.9162
▁porco	-10.9163
▁ba	-10.9173
▁Samo	-10.9175
▁sobrevivir	-10.9175
▁astrónomo	-10.9179
▁mocidade	-10.9179
▁receptor	-10.9179
▁mudanza	-10.918
▁cu	-10.9182
▁afectada	-10.9183
▁nomeou	-10.92
▁especialista	-10.9201
▁causada	-10.9218
▁Británico	-10.922
▁consistía	-10.922
▁sílaba	-10.922
▁groso	-10.922
▁pano	-10.9222
▁carto	-10.9224
▁clasificado	-10.9224
▁amarelo	-10.9225
▁Palma	-10.9232
▁PC	-10.9232
▁emisora	-10.9246
▁radica	-10.925
▁Be	-10.9251
▁Chan	-10.9255
▁descoñecido	-10.9261
▁tormenta	-10.9261
▁teórico	-10.9261
▁facultade	-10.9262
gel	-10.9263
▁empresario	-10.9264
▁falla	-10.9265
▁exploración	-10.9267
▁Sebasti	-10.9268
▁Colexio	-10.9268
▁lateral	-10.9269
▁compra	-10.9272
▁iniciais	-10.9272
▁Carta	-10.9287
▁Hispan	-10.9291
ft	-10.9299
mburg	-10.93
▁cárcere	-10.9303
▁diplomático	-10.9303
▁lexislación	-10.9303
▁pantalla	-10.9303
▁xermánica	-10.9303
▁educativo	-10.9303
▁síntese	-10.9306
▁cume	-10.9306
ando	-10.9307
▁Bernard	-10.9308
▁83	-10.9313
▁Garda	-10.9316
▁experimental	-10.9317
kie	-10.9323
▁ra	-10.9338
▁literal	-10.9344
▁metálico	-10.9344
▁médica	-10.9344
▁talento	-10.9345
ablo	-10.9345
▁Stalin	-10.9345
▁Preto	-10.9346
ovo	-10.9359
loxía	-10.9371
▁finalidade	-10.9372
▁designa	-10.9373
hara	-10.9374
▁obrigou	-10.9386
▁Ela	-10.9387
▁elixida	-10.9387
▁casco	-10.9387
▁falaba	-10.939
▁rodeado	-10.9395
made	-10.9396
▁integrada	-10.9399
▁orgánica	-10.9406
▁King	-10.9409
▁atrae	-10.9414
▁dici	-10.9425
lena	-10.9428
▁descoñecida	-10.9428
▁gráfica	-10.9428
▁cinematográfica	-10.9428
▁cima	-10.9429
▁Europeo	-10.943
▁raro	-10.943
▁avanzada	-10.9432
▁matar	-10.9434
▁Deputado	-10.9435
all	-10.9453
▁fa	-10.9457
▁lat	-10.9457
▁representaba	-10.9459
▁amarela	-10.9466
▁constituída	-10.9471
▁incorporou	-10.9471
▁Índic	-10.9471
▁Royal	-10.9471
▁semellanza	-10.9472
ger	-10.9473
▁realizan	-10.9477
▁terminar	-10.948
▁axente	-10.9482
▁capturado	-10.9484
uxe	-10.9492
mez	-10.9497
▁Sch	-10.9508
▁inspiración	-10.9513
▁peregrino	-10.9513
▁mostrou	-10.9513
▁Luxemburg	-10.9513
▁concesión	-10.9514
▁elite	-10.9515
▁violenta	-10.9517
▁narrativa	-10.9517
▁carro	-10.9519
ibr	-10.952
▁estudoso	-10.952
▁Basil	-10.9523
ompañía	-10.9528
▁infante	-10.9533
▁Com	-10.9533
▁Rosal	-10.9536
▁w	-10.9547
▁Williams	-10.9554
▁comité	-10.9555
▁sometido	-10.9555
▁incluíu	-10.9555
▁especializada	-10.9556
▁puro	-10.9557
▁afastado	-10.9558
▁Sof	-10.9564
ows	-10.9573
▁serven	-10.9574
▁Jack	-10.9583
▁xuíz	-10.9584
▁comer	-10.9591
ruguai	-10.9598
▁Massachus	-10.9598
▁Ti	-10.9603
▁casado	-10.9613
▁relativo	-10.9615
▁Ven	-10.9619
▁encontrar	-10.9621
▁Par	-10.9629
▁estende	-10.9632
▁vence	-10.9632
▁Ze	-10.9634
ilosofía	-10.964
▁firma	-10.9641
▁orzamento	-10.9641
osfera	-10.9641
▁Movement	-10.9641
▁estreou	-10.9641
▁franquista	-10.9642
▁abella	-10.9643
awa	-10.9645
▁Alm	-10.9649
▁invadi	-10.9652
▁coincidi	-10.9664
▁electo	-10.9665
▁serio	-10.9666
▁elixir	-10.9667
W	-10.967
▁xerar	-10.9682
▁esfera	-10.9684
▁intenso	-10.9684
▁obreira	-10.9684
▁fála	-10.9684
úpi	-10.9684
▁Modern	-10.9684
▁reputa	-10.9684
▁Salaman	-10.9685
▁bico	-10.9686
▁xurdir	-10.9692
▁amante	-10.9692
▁aceptada	-10.9693
▁900	-10.9698
▁Fan	-10.9698
▁Montes	-10.9706
▁soño	-10.9706
▁permiti	-10.971
▁Bi	-10.9716
▁ocupan	-10.9718
▁compo	-10.9725
▁atentado	-10.9727
▁austríaco	-10.9727
▁pacto	-10.9728
▁Industria	-10.9728
▁recollida	-10.9729
festival	-10.9729
▁correspondencia	-10.9733
▁Fe	-10.9734
▁public	-10.974
elas	-10.9747
garia	-10.9752
▁oposto	-10.9752
▁axentes	-10.9753
▁rodea	-10.9762
▁roman	-10.9768
▁explosión	-10.9771
▁músculo	-10.9771
▁tripulación	-10.9771
iguais	-10.9771
▁Tradicional	-10.9772
▁desprazamento	-10.9772
▁Tralo	-10.9772
▁alteración	-10.9777
▁dependen	-10.9778
▁merc	-10.9779
▁Coló	-10.978
▁cumpri	-10.9781
▁calci	-10.9781
▁mito	-10.9788
▁semella	-10.979
▁uniu	-10.979
▁asisti	-10.9791
▁parecer	-10.9793
▁presénta	-10.9797
▁altar	-10.98
eroporto	-10.9801
▁autoestrada	-10.9801
▁substituíu	-10.9808
▁bombardeo	-10.9815
▁paquete	-10.9815
▁responsábe	-10.9815
▁ducado	-10.9815
▁lesión	-10.9815
▁restrición	-10.9815
▁etnia	-10.9816
▁incidente	-10.9816
▁orixinario	-10.9816
▁Souto	-10.9817
▁leve	-10.9821
ush	-10.9823
▁Bal	-10.9831
▁rapa	-10.9832
▁Saturn	-10.9839
vose	-10.9853
▁sitúan	-10.9854
▁350	-10.9858
▁barreira	-10.9859
▁Cook	-10.9859
▁consciente	-10.9859
▁parlamentaria	-10.986
▁galería	-10.986
▁Luc	-10.9862
▁colectiva	-10.9871
▁acolle	-10.9874
posición	-10.9874
clive	-10.9876
▁afecta	-10.989
▁introducir	-10.989
▁abade	-10.989
▁Antárti	-10.9896
▁inaugura	-10.9897
▁exipcia	-10.9903
▁hebreo	-10.9903
▁cloruro	-10.9903
▁vigor	-10.9903
▁Igual	-10.9903
▁taba	-10.9903
▁sensación	-10.9904
▁conquistar	-10.9904
▁mandou	-10.9905
▁Festa	-10.9905
▁trasladado	-10.9905
▁alcohol	-10.9907
▁121	-10.9907
▁dise	-10.9907
▁precedente	-10.9908
▁liñaxe	-10.9917
▁tomando	-10.9919
▁tráta	-10.9919
▁cant	-10.9925
▁Alban	-10.9932
▁nativa	-10.9942
aíña	-10.9943
olinesia	-10.9945
▁Aparece	-10.9947
▁inaugurou	-10.9947
▁escravitude	-10.9947
▁primitivo	-10.9947
▁plástico	-10.9947
▁cantiga	-10.9947
▁ficheiro	-10.9947
▁Braga	-10.9947
▁Alfons	-10.9948
lona	-10.995
▁Libre	-10.9951
▁conduci	-10.9954
▁lento	-10.9956
teles	-10.9958
▁Gra	-10.9965
▁mención	-10.9967
▁Teodo	-10.9972
▁tende	-10.9978
▁fila	-10.9979
crist	-10.9982
▁Món	-10.999
▁instrumenta	-10.9991
▁semifina	-10.9991
▁testemuño	-10.9991
▁profesión	-10.9991
▁Distrito	-10.9991
▁Vega	-10.9994
▁camp	-10.9998
wart	-11.0001
▁Lov	-11.0009
▁Honda	-11.0013
▁Alp	-11.0016
▁Piñeiro	-11.0019
▁Sim	-11.002
quist	-11.003
iva	-11.0032
▁molusco	-11.0036
▁informática	-11.0036
▁ligazón	-11.0036
▁cómpre	-11.0037
▁compux	-11.0038
yle	-11.0043
cha	-11.0052
▁ce	-11.0053
▁dáse	-11.0053
▁renuncia	-11.0055
▁futbolista	-11.0056
▁Toqu	-11.006
ónimo	-11.006
▁desemboca	-11.0062
▁Mos	-11.0064
liberación	-11.0064
▁illado	-11.0066
bi	-11.0067
▁Mate	-11.0068
▁Sala	-11.0071
▁salienta	-11.0073
▁estamos	-11.0078
▁experto	-11.0081
▁invención	-11.0081
▁Charl	-11.0084
▁citado	-11.0091
▁Cro	-11.0092
▁Bolo	-11.0094
▁Joa	-11.0097
raq	-11.0098
▁Natural	-11.0098
▁comando	-11.01
▁expuls	-11.0103
▁PP	-11.0103
▁adquirir	-11.0108
lice	-11.0112
00	-11.0114
▁Tor	-11.0122
kins	-11.0123
▁usaba	-11.0125
▁Recibi	-11.0126
▁fluído	-11.0126
▁mediterráneo	-11.0126
▁parecido	-11.0126
▁modalidade	-11.0126
▁feminista	-11.0127
▁mover	-11.0127
▁cadrada	-11.0128
▁Mestre	-11.0129
▁isótopo	-11.0134
▁casca	-11.0144
▁Parte	-11.0144
▁completar	-11.0146
▁animación	-11.0149
▁Teodor	-11.0152
▁mestra	-11.0153
▁Norteam	-11.0155
gado	-11.0158
fa	-11.016
▁cunca	-11.0167
▁mármore	-11.0171
▁santuario	-11.0171
▁segredo	-11.0171
▁intervalo	-11.0171
▁australiano	-11.0171
▁térmica	-11.0171
▁cordilleira	-11.0171
▁islam	-11.0171
▁defíne	-11.0173
▁anaco	-11.0173
▁enfrontou	-11.018
▁Nú	-11.018
▁Jo	-11.0182
▁rexistrado	-11.0183
tismo	-11.0184
vy	-11.0187
ares	-11.0192
▁destacou	-11.0194
▁Blanco	-11.0198
llón	-11.02
▁Home	-11.02
tar	-11.0206
▁chegaba	-11.0209
▁foille	-11.0214
▁relevan	-11.0214
▁edificación	-11.0217
▁inmediato	-11.0217
▁Estev	-11.0221
lgunha	-11.0221
▁colaborar	-11.0222
▁Live	-11.0225
atro	-11.0227
50	-11.023
▁127	-11.0235
▁Abu	-11.0235
tan	-11.0243
▁vela	-11.0245
ix	-11.0246
▁ofrecer	-11.0247
orge	-11.0248
▁Camp	-11.0253
▁empregou	-11.0256
▁Departamento	-11.0262
▁Pireneo	-11.0262
▁protexida	-11.0262
▁rup	-11.0264
▁cáp	-11.0264
▁belga	-11.0265
ficou	-11.0267
▁salvo	-11.0269
▁gol	-11.027
aneament	-11.0271
▁Televisió	-11.0272
nio	-11.0279
▁comisión	-11.0282
wa	-11.0285
yo	-11.0289
▁pole	-11.0291
▁separar	-11.0295
▁asina	-11.0297
▁Rey	-11.0298
▁sexua	-11.0299
uso	-11.0301
▁instalar	-11.0308
▁Considéra	-11.0308
▁estrita	-11.0308
▁Volta	-11.0311
▁Fri	-11.0312
able	-11.0313
▁festiva	-11.0315
▁pasaxe	-11.0315
▁quix	-11.0319
▁nena	-11.0324
▁Colonia	-11.0325
▁Español	-11.0329
▁manifesta	-11.034
▁corresponden	-11.0345
▁musulmá	-11.0347
▁trastorno	-11.0354
▁vestixio	-11.0354
▁Goya	-11.0354
▁Gallego	-11.0354
▁escaleira	-11.0354
nd	-11.0356
▁dicía	-11.0365
▁medición	-11.0365
▁Valle	-11.0368
▁realista	-11.0369
▁financia	-11.0371
▁115	-11.0372
▁atopada	-11.038
▁Cartag	-11.0382
▁Emili	-11.0388
tomán	-11.0397
car	-11.0398
▁participan	-11.04
ucas	-11.04
▁DVD	-11.04
▁fértil	-11.04
▁innovación	-11.04
▁definitivo	-11.04
▁Xeneral	-11.04
▁aliaxe	-11.0401
▁favorable	-11.0401
▁paralela	-11.0402
▁saga	-11.0402
olo	-11.0403
▁Adolf	-11.0404
bria	-11.0404
▁tivera	-11.0406
lam	-11.0408
▁acusación	-11.0412
▁cruzar	-11.0415
▁estimación	-11.0415
▁domina	-11.0418
▁conversión	-11.0421
▁pare	-11.0422
xi	-11.0427
▁marchar	-11.0427
▁Fu	-11.0435
▁compoñen	-11.0444
▁din	-11.0445
▁predecesor	-11.0447
▁caudal	-11.0447
▁xenético	-11.0447
▁Edward	-11.0447
▁colleita	-11.0458
▁sí	-11.0461
▁conforman	-11.0468
scar	-11.047
▁Latin	-11.0481
▁tri	-11.0482
▁dirixe	-11.0485
bese	-11.0487
▁Men	-11.0492
▁recoñeceu	-11.0493
▁ateniense	-11.0494
▁eclesiástica	-11.0494
▁fonema	-11.0494
▁montañoso	-11.0494
▁Brown	-11.0494
▁telescopio	-11.0494
▁Web	-11.05
▁Gal	-11.0503
▁inmigra	-11.0505
▁castaña	-11.0506
▁Cle	-11.0513
▁Queens	-11.0515
▁CO	-11.0521
▁resultante	-11.0522
▁funcionar	-11.0534
▁taller	-11.0535
▁Ch	-11.0539
▁xuí	-11.054
▁vaso	-11.0541
▁Rá	-11.0542
▁danza	-11.0546
▁afectado	-11.055
▁glaciar	-11.0551
ún	-11.0555
▁acento	-11.0573
cedo	-11.058
ig	-11.0584
rrupción	-11.0588
▁censura	-11.0588
▁fungo	-11.0588
▁regato	-11.0589
▁moderado	-11.0591
▁Bang	-11.0592
▁Pobo	-11.0594
▁romance	-11.0596
▁apoiado	-11.0596
▁SI	-11.0598
▁126	-11.061
▁tenente	-11.062
▁ama	-11.0621
▁Isa	-11.0625
▁132	-11.0625
▁medr	-11.0632
▁desas	-11.0633
▁filosófica	-11.0635
▁húmida	-11.0635
▁intérprete	-11.0635
▁lírica	-11.0635
▁sinónimo	-11.0635
▁transferencia	-11.0635
▁Situad	-11.0635
▁desenvólve	-11.0636
prendeu	-11.0636
▁masculina	-11.0639
▁Pino	-11.064
▁Alexand	-11.0641
▁Grand	-11.0641
▁setent	-11.0645
▁usual	-11.0646
▁Social	-11.0647
▁obte	-11.0651
▁Pico	-11.0654
▁128	-11.0667
▁favorece	-11.067
▁Berga	-11.0671
▁levando	-11.0672
▁principado	-11.0676
ós	-11.0678
▁pedir	-11.068
▁larva	-11.0682
▁Connect	-11.0683
▁algoritmo	-11.0683
▁brasileira	-11.0683
▁corent	-11.0683
▁arroz	-11.0683
▁Católico	-11.0687
uro	-11.0687
▁nazis	-11.0688
▁recibía	-11.0688
tes	-11.0691
▁Avi	-11.0691
▁linea	-11.0692
▁granxa	-11.0694
▁faría	-11.0696
▁124	-11.0712
▁burgues	-11.072
▁Adoita	-11.0725
▁biolóxico	-11.0731
▁mediterránea	-11.0731
▁oitenta	-11.0731
▁Gallega	-11.0731
▁Roger	-11.0731
▁Militar	-11.0732
▁mencionada	-11.0735
▁Orle	-11.0735
▁emoción	-11.0742
▁óxido	-11.0753
▁Poder	-11.0769
rama	-11.0772
▁húngaro	-11.0774
▁abarca	-11.0778
▁remónta	-11.0779
▁Ernest	-11.0779
▁voluntario	-11.0779
▁vira	-11.0779
icut	-11.0779
▁sinala	-11.0781
▁Esparta	-11.0787
iu	-11.0788
▁carece	-11.0788
▁controlada	-11.079
▁doado	-11.0797
▁Ribeira	-11.0807
▁Álvare	-11.0808
mán	-11.0813
▁Ser	-11.0815
▁convertería	-11.0815
▁observa	-11.0817
▁marxista	-11.0827
▁System	-11.0827
▁tronco	-11.0827
▁Enrique	-11.0827
▁exceso	-11.0827
▁potente	-11.0827
lini	-11.0828
bre	-11.0828
▁he	-11.083
▁Leon	-11.0833
evento	-11.084
▁comprender	-11.0844
SO	-11.0845
▁aceptado	-11.0846
▁trataba	-11.0852
ganist	-11.0855
▁culmina	-11.0856
▁Negra	-11.0865
▁descende	-11.0869
bec	-11.0871
▁acontece	-11.0873
▁expresar	-11.0874
▁Fro	-11.0875
▁estratéxica	-11.0876
▁pescozo	-11.0876
▁protocolo	-11.0876
▁turística	-11.0876
▁bombardeiro	-11.0876
▁triángulo	-11.0876
▁oitavo	-11.0876
▁Pascua	-11.0876
eas	-11.0876
▁Rico	-11.0883
▁dividiu	-11.0889
▁troux	-11.0895
▁Rod	-11.0904
stancia	-11.0905
rían	-11.0905
▁pacientes	-11.0909
soft	-11.091
▁amosan	-11.0911
tán	-11.0915
lasca	-11.0916
▁penetra	-11.0922
▁Alba	-11.0925
ntiño	-11.0925
▁poderosa	-11.0925
▁Brux	-11.0926
▁rexente	-11.0927
▁Gustav	-11.0931
▁confirmou	-11.0934
▁Mac	-11.094
igan	-11.0947
CD	-11.0954
bert	-11.0955
▁ofensiva	-11.0957
▁Fix	-11.0964
▁púxo	-11.0965
▁mira	-11.0973
uke	-11.0973
▁célebre	-11.0973
▁tributo	-11.0973
▁carlista	-11.0974
▁debida	-11.0974
▁Canta	-11.0975
▁aproximación	-11.0979
▁prosa	-11.0982
▁Xustin	-11.0987
▁forno	-11.0991
▁consideración	-11.0993
▁extra	-11.0996
umbo	-11.1
ólogo	-11.1002
▁coral	-11.1011
▁Estiv	-11.1012
▁espectacular	-11.1023
tróxeno	-11.1023
▁bizantina	-11.1023
▁cerebra	-11.1023
▁recta	-11.1023
▁vertente	-11.1023
▁embarcación	-11.1024
▁piñeiro	-11.1025
▁Master	-11.1025
▁peto	-11.1025
▁deixan	-11.1025
▁delegado	-11.1026
▁bit	-11.1027
▁engadido	-11.1028
▁lunar	-11.103
▁denominar	-11.1033
▁utilizaba	-11.1035
▁Pear	-11.1036
▁coloca	-11.1036
▁aprobada	-11.1038
▁Ovi	-11.1041
▁demostración	-11.1041
▁Ly	-11.1043
eron	-11.1044
era	-11.1045
▁conquistada	-11.1045
▁derrot	-11.1047
▁Gre	-11.105
▁Roch	-11.1066
▁renacentista	-11.1072
▁exame	-11.1072
▁doazón	-11.1072
▁destinada	-11.1073
▁Báltic	-11.1074
▁Caso	-11.1085
▁gobernar	-11.1093
nta	-11.1094
▁póla	-11.1096
ceno	-11.1107
▁reside	-11.1108
▁Ber	-11.1121
▁bolxevique	-11.1122
▁transcorre	-11.1124
▁Municipal	-11.1124
▁abuso	-11.1124
verde	-11.1126
▁chegaría	-11.1128
abiloni	-11.113
▁terrorista	-11.113
▁reuniu	-11.1132
emos	-11.1134
▁abandonado	-11.1135
▁Liber	-11.1136
▁apoia	-11.1138
▁105	-11.1139
viación	-11.1148
▁Art	-11.115
▁123	-11.1151
▁flor	-11.1154
▁observador	-11.1154
▁Mag	-11.1156
▁rosa	-11.116
▁coroado	-11.1161
▁interpretar	-11.1172
▁Iglesia	-11.1172
▁arxentina	-11.1172
▁comprensión	-11.1172
▁enfoque	-11.1172
▁proveniente	-11.1172
thur	-11.1173
▁doutoramento	-11.1173
▁protón	-11.1173
▁Long	-11.1177
▁xacemento	-11.1184
▁Fai	-11.1186
torio	-11.119
tas	-11.1194
▁adulto	-11.1197
▁Roman	-11.1199
▁Rub	-11.12
▁dominado	-11.1202
▁uní	-11.1203
▁tanta	-11.1204
▁declarar	-11.1212
age	-11.1218
iuse	-11.122
▁Bell	-11.122
▁Administración	-11.1222
▁aminoácido	-11.1222
▁exitosa	-11.1222
▁islámica	-11.1222
▁garanti	-11.1222
▁segmento	-11.1222
▁Parece	-11.1223
▁descarga	-11.1223
ue	-11.1223
▁demostra	-11.1225
▁teito	-11.1228
▁ética	-11.1231
▁procesa	-11.1234
▁conecta	-11.1234
▁Arabi	-11.1235
▁parada	-11.1235
▁promover	-11.1239
▁acelera	-11.1241
nder	-11.1242
▁Lí	-11.1245
▁ovella	-11.1253
▁Vida	-11.1261
▁ordenado	-11.1264
bano	-11.1266
▁describiu	-11.1266
ncia	-11.1268
▁climático	-11.1273
▁desaparecido	-11.1273
▁melodía	-11.1273
▁mámoa	-11.1273
▁tarxeta	-11.1273
▁democrático	-11.1273
▁califa	-11.1273
▁hindú	-11.1273
▁comentario	-11.1273
▁desastre	-11.1273
▁fío	-11.1274
▁Super	-11.1275
▁variado	-11.1282
canda	-11.1286
▁Sad	-11.129
▁emigrante	-11.1295
▁Montre	-11.13
attle	-11.1302
▁Gro	-11.1302
▁pintores	-11.1308
▁EE	-11.131
▁Cerc	-11.1311
▁Gil	-11.1316
▁pasaría	-11.132
▁cuarte	-11.1321
▁autonómica	-11.1322
▁revolucionaria	-11.1323
▁transcrición	-11.1323
▁xurídico	-11.1323
▁Xefe	-11.1323
▁kaska	-11.1323
▁contribúe	-11.1325
▁asistente	-11.1325
▁tsar	-11.1325
▁prohibición	-11.1326
▁neurona	-11.1327
▁137	-11.1327
▁tirada	-11.1327
▁pataca	-11.1327
▁responde	-11.1328
▁suicid	-11.1329
▁daba	-11.133
▁votación	-11.1334
▁Asun	-11.1338
▁vasalo	-11.1342
mbledo	-11.1344
▁racional	-11.1349
▁combater	-11.135
minación	-11.1351
ronce	-11.1362
▁Vo	-11.1368
▁consig	-11.1369
ki	-11.137
▁biografía	-11.1374
▁prototipo	-11.1374
▁pioneiro	-11.1374
▁nacido	-11.1374
▁single	-11.1374
▁4,	-11.1375
▁galeguista	-11.1376
▁Y	-11.1376
▁vicepresidente	-11.1378
▁Cinc	-11.138
leto	-11.138
▁Artur	-11.1385
▁Bor	-11.1389
▁adaptado	-11.1391
▁competir	-11.1397
▁Buda	-11.14
▁asumir	-11.1402
▁estimula	-11.1402
amento	-11.1406
▁Beat	-11.1411
▁Boy	-11.1412
▁Bie	-11.1417
▁Time	-11.1417
ylan	-11.1424
gua	-11.1425
▁extrac	-11.1426
▁orgánico	-11.1426
▁Oxford	-11.1426
▁freguesía	-11.1426
▁peito	-11.1427
▁diálogo	-11.1427
▁felic	-11.1428
▁baseándo	-11.143
▁fornece	-11.1433
▁Aplausos	-11.1436
▁perna	-11.1436
▁Sacr	-11.1438
▁almacena	-11.1442
▁muda	-11.145
▁ofreceu	-11.1454
▁asistir	-11.1454
▁ermida	-11.1458
quia	-11.1463
em	-11.1473
▁incorpora	-11.1474
▁Autónoma	-11.1477
▁Irmandade	-11.1477
▁constelación	-11.1477
▁cumpre	-11.1477
▁fiestra	-11.1477
▁sufraxio	-11.1477
▁convención	-11.1477
▁tartaruga	-11.1477
▁insular	-11.1477
▁positivo	-11.1478
estamento	-11.1478
▁Fried	-11.1479
▁escocesa	-11.1479
▁foco	-11.1479
▁Borbón	-11.1479
▁fallo	-11.1481
ofre	-11.1482
▁Victoria	-11.1482
▁xenera	-11.149
▁parentes	-11.1492
▁Holand	-11.1495
lton	-11.1502
▁asento	-11.1504
▁homónim	-11.1509
ulario	-11.151
▁traballan	-11.1512
▁pastor	-11.1515
▁produtora	-11.1517
▁condutor	-11.1524
▁cantón	-11.1527
▁Land	-11.1528
▁Cabe	-11.1528
▁chuvia	-11.1529
▁diplomática	-11.1529
▁patio	-11.1529
▁sorpresa	-11.1529
▁percepción	-11.153
▁sentenza	-11.153
▁teclado	-11.1531
▁Inter	-11.1533
▁plana	-11.1535
▁confundir	-11.1536
▁suevo	-11.1538
▁horizontal	-11.1543
▁habitación	-11.1545
▁holandes	-11.1546
elo	-11.1552
▁tratou	-11.1561
▁axencia	-11.1569
ore	-11.157
▁Scho	-11.1571
▁organiza	-11.1575
oven	-11.1576
▁relativ	-11.1576
ther	-11.1579
▁intern	-11.1579
▁armenio	-11.1581
▁cátedra	-11.1581
▁State	-11.1582
▁exiliado	-11.1584
▁dicionario	-11.1584
maior	-11.1586
parte	-11.1591
▁Mellor	-11.1591
▁bota	-11.1597
▁ilegal	-11.1598
ir	-11.1599
▁Medicin	-11.1603
olk	-11.1605
▁vencedor	-11.1605
▁derrotar	-11.1605
▁ampliación	-11.1608
▁preparado	-11.1612
▁india	-11.1614
▁Alxer	-11.1616
▁asegura	-11.1616
my	-11.1617
▁fus	-11.1618
▁acompaña	-11.1621
▁prol	-11.1633
▁inspirado	-11.1633
▁módulo	-11.1633
▁xurídica	-11.1633
▁Escribiu	-11.1634
▁vixente	-11.1634
rum	-11.1635
▁107	-11.1638
▁cuncha	-11.1638
▁eficiente	-11.1639
▁Mario	-11.164
▁Interior	-11.164
▁habitado	-11.1641
▁asinado	-11.1644
▁129	-11.1654
▁combina	-11.1656
rtico	-11.1659
SD	-11.1664
▁esquerd	-11.1667
▁pensaba	-11.1674
▁condena	-11.1674
▁intre	-11.1679
▁Pí	-11.1679
censión	-11.1684
fluencia	-11.1684
▁consumidor	-11.1685
ntario	-11.1686
▁equipamento	-11.1686
▁laranxa	-11.1686
▁lámina	-11.1686
▁vítima	-11.1687
▁gaita	-11.1687
▁empezar	-11.1688
eeth	-11.1691
▁cable	-11.1692
▁avanzado	-11.1694
▁auxiliar	-11.1697
▁gramo	-11.17
▁Jacque	-11.17
▁v	-11.1708
▁trasladar	-11.1708
▁134	-11.1709
▁variar	-11.171
▁Dr	-11.1711
senso	-11.1722
▁Marcel	-11.173
▁Green	-11.1734
▁facilita	-11.1738
▁climática	-11.1739
▁sabía	-11.1739
▁esquema	-11.1739
▁nómade	-11.174
▁xenoma	-11.174
osteiro	-11.1743
▁orientada	-11.1745
▁ascenden	-11.1745
▁táctica	-11.1747
▁gaélico	-11.1747
▁leal	-11.1748
▁142	-11.1758
▁desempreg	-11.1764
▁fiei	-11.1766
▁Mike	-11.1767
▁prima	-11.177
▁ad	-11.1775
▁Ron	-11.1777
▁Vive	-11.1782
▁Helen	-11.1784
▁paseo	-11.1788
▁Hom	-11.179
▁Lorenz	-11.1791
▁arciprestado	-11.1792
▁xermánico	-11.1792
▁Ámsterda	-11.1792
▁guionista	-11.1792
▁Harv	-11.1793
▁milleiro	-11.1793
▁paixón	-11.1793
▁mesquita	-11.1793
▁instancia	-11.1794
▁forzado	-11.1797
▁ducia	-11.1798
sodio	-11.1805
silva	-11.181
▁Il	-11.1812
▁Kos	-11.1815
nm	-11.1816
▁infl	-11.1821
▁renova	-11.1827
▁Exe	-11.1838
tí	-11.184
pil	-11.184
▁franxa	-11.1846
▁pulmón	-11.1846
▁especializado	-11.1847
▁prohibido	-11.1848
▁Montaña	-11.1849
▁impedir	-11.1853
vocab	-11.1855
▁atraer	-11.1858
▁ordena	-11.1873
▁Petersburg	-11.1875
▁118	-11.1879
▁Naquel	-11.1886
IA	-11.1888
▁redac	-11.1893
▁asteroide	-11.1899
▁máxico	-11.1899
▁ornamenta	-11.1899
▁desembarco	-11.1899
▁ferroviaria	-11.19
▁temperá	-11.19
▁5,	-11.19
ío	-11.1902
▁Wall	-11.1903
▁xadre	-11.1905
▁mudar	-11.1906
▁fiscal	-11.1909
venta	-11.1911
▁Porta	-11.1911
▁estivera	-11.1913
▁Mada	-11.192
▁abandono	-11.1921
▁Mauric	-11.1922
▁122	-11.193
▁territori	-11.1933
▁colabora	-11.1939
▁contamina	-11.1942
▁etiqueta	-11.1944
vena	-11.1946
▁escoita	-11.1952
▁Company	-11.1953
▁dinosauro	-11.1953
▁mecánico	-11.1953
▁economic	-11.1954
▁pseudónimo	-11.1954
esopot	-11.1954
▁adecuada	-11.1954
▁cotiá	-11.1954
▁milicia	-11.1955
lumini	-11.1957
▁introducido	-11.1957
▁encargou	-11.1958
▁estender	-11.1959
▁sombra	-11.196
▁calcular	-11.1961
foro	-11.1962
▁Fonte	-11.1962
▁Fé	-11.1964
▁Nó	-11.1964
púxo	-11.1965
▁drama	-11.1973
▁operador	-11.1974
▁escoitar	-11.1975
▁ferramenta	-11.1976
▁Pamp	-11.1978
▁Amar	-11.1979
▁adop	-11.1982
▁cren	-11.1982
▁respondeu	-11.1985
xia	-11.1988
▁gr	-11.1988
▁proporcional	-11.1994
▁Deputa	-11.1999
▁tentar	-11.2006
▁deshabitada	-11.2008
▁oceánico	-11.2008
▁Balcán	-11.2008
▁Músic	-11.2008
▁lexión	-11.2008
▁plural	-11.2015
▁marcia	-11.2015
▁cruzado	-11.202
TV	-11.2023
▁Lar	-11.2024
rgoña	-11.203
▁facción	-11.2032
evara	-11.2033
gio	-11.2034
elaxe	-11.2037
▁hax	-11.2039
▁pape	-11.204
▁Sha	-11.2041
oku	-11.205
▁Baí	-11.2051
▁Doutr	-11.2053
▁adolescente	-11.2062
▁indoeuropea	-11.2062
▁teorema	-11.2063
▁consecutivo	-11.2063
▁Xacobe	-11.2063
▁traducido	-11.2064
▁disposto	-11.2064
iria	-11.2066
▁Sonic	-11.2067
▁producí	-11.2069
▁Fraga	-11.2071
v	-11.2074
▁cota	-11.2075
▁Lim	-11.2081
▁situar	-11.2082
▁continu	-11.2088
▁disciplinas	-11.2089
▁mutación	-11.2091
▁Rin	-11.2095
▁Brit	-11.2095
▁Camer	-11.2095
abana	-11.2098
▁arteria	-11.2099
▁incrementa	-11.2108
áz	-11.211
olic	-11.2116
▁143	-11.2116
▁Biblioteca	-11.2117
▁autónomo	-11.2117
▁lexislativa	-11.2117
▁mexicano	-11.2117
▁nocturno	-11.2117
▁orbita	-11.2117
▁submarino	-11.2117
▁Anatoli	-11.2118
▁reflexión	-11.2118
tiva	-11.2118
▁concilio	-11.2118
▁fortificación	-11.2119
▁previsto	-11.2119
▁pregunta	-11.212
▁manteñ	-11.2121
▁More	-11.2122
▁Gondo	-11.2122
▁sobrevivi	-11.2122
▁trompeta	-11.2123
stron	-11.2125
▁Roll	-11.2126
▁asalto	-11.2128
▁Cun	-11.2129
▁narración	-11.2135
H	-11.2135
▁celeste	-11.2138
▁ví	-11.2146
MS	-11.2153
▁atravesad	-11.2156
▁Roo	-11.2158
▁aproveitar	-11.216
▁lava	-11.217
▁atractivo	-11.2173
▁óptica	-11.2173
▁lingüista	-11.2173
▁aliada	-11.2174
▁mostras	-11.2179
▁coñecen	-11.2179
▁trazado	-11.2181
▁450	-11.2182
▁convertido	-11.2182
▁combinado	-11.2182
▁confusión	-11.2186
▁Adam	-11.2189
▁Bla	-11.2193
▁cruza	-11.22
AF	-11.2203
▁Kur	-11.2203
core	-11.2205
▁mantiver	-11.2211
▁Chris	-11.2212
▁testa	-11.2214
▁afirmar	-11.2222
▁arqueolóxica	-11.2228
▁cadáver	-11.2228
▁medicamento	-11.2228
▁parámetro	-11.2228
▁consecutiva	-11.2228
▁polígono	-11.2228
▁rumor	-11.2228
▁Servizo	-11.2229
▁doada	-11.2229
▁Cen	-11.2231
onía	-11.2234
▁estendida	-11.2234
mbra	-11.2235
▁vasca	-11.2238
ureza	-11.224
▁reparti	-11.2243
▁adicional	-11.2245
rd	-11.2246
▁poderá	-11.2247
▁Vari	-11.2247
▁incorporación	-11.2248
▁achegar	-11.2259
▁Lee	-11.2263
▁controlado	-11.2263
▁Stan	-11.2267
▁andar	-11.2268
▁peste	-11.2268
▁Ría	-11.227
ieito	-11.2275
▁Simon	-11.2277
▁Guadal	-11.228
anía	-11.2283
▁fisi	-11.2283
▁Executiv	-11.2284
▁International	-11.2284
▁descobre	-11.2284
▁evolutiva	-11.2284
▁franquía	-11.2284
▁sublevación	-11.2284
▁provisional	-11.2284
▁señorío	-11.2285
▁céntra	-11.2286
▁vinculado	-11.2286
clero	-11.2286
▁influenciado	-11.2287
▁argumenta	-11.2288
▁acompañada	-11.2289
▁elaborado	-11.2289
▁Padr	-11.229
▁adoptado	-11.2293
día	-11.2297
▁xiro	-11.2297
▁135	-11.23
▁Debe	-11.23
ud	-11.2305
▁FI	-11.2307
▁protectora	-11.2311
▁proclamad	-11.2312
vos	-11.2314
ecia	-11.2323
▁Ur	-11.233
▁menciona	-11.2334
▁interpreta	-11.2337
▁deberá	-11.2337
▁Bizan	-11.234
▁adquire	-11.234
▁filosófico	-11.234
▁promesa	-11.234
▁aparato	-11.234
▁PSdeG	-11.234
▁Noutra	-11.2341
▁refuxiado	-11.2341
▁oxida	-11.2341
ctina	-11.2344
▁confirma	-11.2344
▁misioneiro	-11.2347
▁elixiu	-11.235
▁delito	-11.235
▁Joe	-11.2351
▁neerland	-11.2353
▁estivese	-11.2353
igualdade	-11.2354
▁establecé	-11.2354
▁mi	-11.2365
▁fabricado	-11.237
▁Joaqu	-11.237
velt	-11.237
▁emitir	-11.2373
▁precursor	-11.2382
aquist	-11.2392
sistencia	-11.2394
miento	-11.2397
▁Convención	-11.2397
▁distingue	-11.2397
▁divindade	-11.2397
▁galardón	-11.2397
▁ingrediente	-11.2397
▁suízo	-11.2397
▁Chegou	-11.2397
▁Rexiona	-11.2397
▁revela	-11.2399
▁ancha	-11.2401
▁Steve	-11.2401
▁citada	-11.2404
▁adulta	-11.2408
▁materna	-11.241
▁correcta	-11.241
▁largo	-11.2411
▁pracer	-11.2417
terminación	-11.242
▁cura	-11.2433
▁ocupaba	-11.2434
itat	-11.245
▁Rac	-11.2452
▁obstáculo	-11.2454
▁ensinanza	-11.2454
▁pór	-11.2457
ral	-11.2457
ague	-11.2457
▁Solar	-11.246
mase	-11.2461
▁aplica	-11.2461
▁cruzada	-11.2461
▁florece	-11.2461
▁formulación	-11.2462
▁Canal	-11.2462
hire	-11.2466
▁adopta	-11.2469
acia	-11.2475
lidade	-11.2475
grado	-11.2477
▁secreta	-11.2483
▁salvar	-11.2484
tah	-11.2484
▁Holly	-11.2488
▁identificado	-11.2494
▁Or	-11.2501
▁colocar	-11.2501
▁Sant	-11.2505
▁barra	-11.2506
▁Za	-11.2506
▁Exemplo	-11.2511
▁extraordinaria	-11.2511
▁obtida	-11.2511
▁soterrado	-11.2511
▁patriarca	-11.2511
▁baile	-11.2511
▁catálogo	-11.2511
▁recollido	-11.2511
▁teórica	-11.2511
▁moderada	-11.2511
▁traza	-11.2512
▁cadeira	-11.2513
▁Pol	-11.2513
▁paradigma	-11.2515
▁estimada	-11.2515
▁muscular	-11.2517
▁Luca	-11.2521
▁empregaba	-11.2521
▁israelí	-11.2521
▁mel	-11.2521
▁Law	-11.2522
▁Hot	-11.2525
▁Ray	-11.2527
▁Abadí	-11.2535
▁adiciona	-11.2536
▁Dela	-11.2543
▁ácha	-11.2545
▁romaniza	-11.2545
▁nervioso	-11.2548
▁Pel	-11.2551
fase	-11.2556
▁mutua	-11.2559
▁transformar	-11.2566
▁cantar	-11.2568
▁oceánica	-11.2568
▁réptil	-11.2568
▁Cambridge	-11.2568
▁Formou	-11.2568
▁Mallor	-11.2568
▁Presenta	-11.2568
▁paradoxo	-11.2568
▁impide	-11.2569
▁Marsh	-11.2569
▁VIH	-11.2569
▁pesada	-11.257
▁Hall	-11.2572
▁funcional	-11.2572
▁dramática	-11.2572
▁violación	-11.2574
▁divide	-11.2574
▁étnica	-11.2578
▁croata	-11.258
▁patente	-11.2582
▁transmitir	-11.2583
▁Duca	-11.2584
guerra	-11.2585
lfo	-11.2591
▁Tro	-11.2596
▁polar	-11.26
▁presentada	-11.26
▁Tan	-11.2609
▁vir	-11.2615
▁tenden	-11.2616
ill	-11.2616
▁canal	-11.2619
▁após	-11.262
▁erosi	-11.2622
▁acadando	-11.2626
▁cavidade	-11.2626
▁Leopold	-11.2626
▁campamento	-11.2626
▁Fundou	-11.2626
▁Estra	-11.2627
▁sentir	-11.2627
▁rito	-11.2628
▁encargada	-11.2629
▁prosperidade	-11.263
▁Bay	-11.2631
▁Coma	-11.2632
▁Chá	-11.2633
▁Link	-11.2634
▁Hug	-11.2639
▁rematada	-11.2639
úric	-11.2647
▁aplicada	-11.2655
▁Port	-11.2655
tacou	-11.2656
▁piar	-11.2657
▁oco	-11.266
tividade	-11.2661
▁rego	-11.2673
▁contend	-11.2674
▁causado	-11.2674
▁Pica	-11.2677
▁atómica	-11.268
▁guía	-11.2682
▁adxectivo	-11.2684
▁eucariota	-11.2684
▁gramatica	-11.2684
▁sometida	-11.2684
▁titulada	-11.2684
▁turca	-11.2684
▁notábe	-11.2684
▁choco	-11.2684
▁fariña	-11.2684
▁lexislatura	-11.2684
▁Campión	-11.2685
▁nomear	-11.2689
▁abandonada	-11.2692
min	-11.2694
▁anxo	-11.27
▁transporta	-11.2703
▁excepcional	-11.2706
▁Mina	-11.2715
ituan	-11.2718
▁Ka	-11.2719
▁coñecía	-11.2722
cky	-11.2723
▁Mont	-11.2723
▁chamaba	-11.2724
▁Galla	-11.2725
▁Roda	-11.2725
▁facilitar	-11.273
▁saí	-11.2736
▁reconquista	-11.2737
▁influí	-11.2738
▁gobernado	-11.2741
¡	-11.2743
▁ourensá	-11.2743
▁Odise	-11.2743
▁barroca	-11.2744
▁absorbe	-11.2744
▁cometa	-11.2744
▁espl	-11.2745
▁intelixente	-11.2747
▁disputou	-11.2749
▁restaurante	-11.2753
▁cónsul	-11.2755
ad	-11.2757
▁misa	-11.2758
hl	-11.276
▁estima	-11.277
▁regulación	-11.277
▁opera	-11.2774
▁riva	-11.2777
▁Berg	-11.2778
bur	-11.278
▁Xene	-11.2781
endor	-11.2788
▁parecía	-11.2789
▁Varia	-11.2792
▁narra	-11.2798
▁previo	-11.2799
ómpre	-11.2801
▁lousa	-11.2802
▁6,	-11.2802
ka	-11.2802
▁destruír	-11.2803
▁Stre	-11.281
▁Hor	-11.2817
▁faga	-11.2819
nya	-11.2825
▁108	-11.2831
▁conservado	-11.2836
▁descans	-11.2848
monos	-11.2852
▁00	-11.2856
▁abertura	-11.2857
▁cela	-11.2858
▁delegación	-11.2861
hecoslova	-11.2861
▁Política	-11.2861
bade	-11.2861
▁basílica	-11.2861
▁parlamentario	-11.2861
▁activista	-11.2861
▁revisión	-11.2862
▁Gobernador	-11.2862
▁perdido	-11.2862
▁sultán	-11.2863
▁introducida	-11.2863
▁retirado	-11.2865
▁galo	-11.2867
▁119	-11.287
▁republicana	-11.287
▁editar	-11.287
▁gótica	-11.287
▁mono	-11.2872
▁caracterizado	-11.2874
▁xamai	-11.2876
▁Estadi	-11.2876
▁galardoado	-11.2876
▁138	-11.2877
▁efectivo	-11.288
▁manifesto	-11.2882
▁Anders	-11.2884
▁madura	-11.2885
▁checo	-11.2889
▁compartir	-11.2891
▁afección	-11.2894
ití	-11.2897
enberg	-11.2899
▁Baio	-11.2903
▁Hat	-11.2904
▁evita	-11.2904
▁aboli	-11.2909
▁Vé	-11.292
▁diploma	-11.292
▁Galeguista	-11.292
▁aeronave	-11.292
▁axeitado	-11.292
▁romaría	-11.292
▁eficaz	-11.292
▁gabinete	-11.292
▁escribi	-11.2921
▁Hugh	-11.2922
▁temperado	-11.2922
▁trama	-11.2922
▁irlandesa	-11.2925
▁favorito	-11.2926
▁resultar	-11.2927
▁saqueo	-11.293
▁117	-11.293
▁normando	-11.2937
▁conducir	-11.2939
▁rumb	-11.2952
▁aprobado	-11.2957
▁tu	-11.2962
llino	-11.2966
▁misterio	-11.2966
▁Hami	-11.2966
viron	-11.297
▁Rodrig	-11.2976
▁Silv	-11.2978
▁Amazon	-11.298
▁concedido	-11.298
▁fortuna	-11.298
▁glándula	-11.298
▁petróglifo	-11.298
▁sensible	-11.298
▁epidemia	-11.298
▁peninsular	-11.298
▁furacán	-11.298
▁Esquer	-11.298
▁ciclista	-11.2981
▁Estí	-11.2981
▁sorprendente	-11.2981
▁poboaciona	-11.2982
▁distribuída	-11.2982
▁dándolle	-11.2982
▁elaborada	-11.2983
▁gobernada	-11.2984
▁disparo	-11.2985
▁asiática	-11.2987
▁Bat	-11.2988
▁legado	-11.2989
iza	-11.299
▁evoluciona	-11.2996
rme	-11.2998
▁Malv	-11.2998
▁Margari	-11.2998
▁físicas	-11.3002
id	-11.301
▁Lake	-11.302
mond	-11.3027
▁Dubl	-11.3036
▁volvería	-11.3037
▁coincide	-11.3038
▁prepara	-11.304
▁Saud	-11.304
▁Económica	-11.304
▁sábado	-11.304
▁teléfono	-11.304
▁xerarquía	-11.304
▁suspensión	-11.304
▁vaga	-11.3041
▁cálido	-11.3043
▁White	-11.3043
▁xulgado	-11.3045
▁repartido	-11.305
▁rapaza	-11.3051
▁114	-11.3056
▁sucedid	-11.3057
▁subi	-11.3058
▁salva	-11.3058
▁voca	-11.306
▁cedeu	-11.3064
rie	-11.3065
▁beneficio	-11.3072
▁Noro	-11.3079
O	-11.3093
var	-11.3096
▁Fór	-11.3098
▁conservar	-11.3098
▁graxo	-11.3101
▁emitido	-11.3103
▁acudi	-11.3103
▁adquisición	-11.3104
telecomunicación	-11.3109
▁superviven	-11.3112
▁recoller	-11.3115
ain	-11.3116
▁Cruce	-11.3119
▁bl	-11.3121
▁plasma	-11.3122
▁Mani	-11.3125
▁rematado	-11.3128
▁habita	-11.3128
▁logro	-11.313
▁tarda	-11.313
▁fiel	-11.3134
dal	-11.3143
▁tomado	-11.3145
mi	-11.3146
▁enclave	-11.3146
▁Lama	-11.3152
▁relata	-11.3153
atura	-11.3155
▁Salom	-11.3156
▁arxila	-11.3162
▁mitocondria	-11.3162
▁tuberculos	-11.3162
▁glicosa	-11.3162
▁madurez	-11.3162
▁balón	-11.3162
▁inclinación	-11.3162
▁renunci	-11.3164
▁reconstruída	-11.3165
rece	-11.3167
▁Realizou	-11.3167
▁fundamento	-11.3168
▁Sit	-11.317
▁evolucion	-11.3173
▁Amor	-11.3174
▁invadir	-11.3176
▁comezaba	-11.3178
▁Limi	-11.3183
▁deber	-11.3185
late	-11.3186
▁Fort	-11.3192
▁Cald	-11.3194
▁ábre	-11.3195
▁comunica	-11.3208
▁habitan	-11.3212
▁ocorrer	-11.3213
▁propaga	-11.322
▁fraga	-11.3221
▁asturiano	-11.3223
▁decisiva	-11.3223
▁esqueleto	-11.3223
▁claustro	-11.3223
▁bacharel	-11.3223
▁ruído	-11.3223
▁clan	-11.3223
▁sagrado	-11.3223
▁minuto	-11.3224
▁emitida	-11.3224
▁136	-11.3225
▁ladeira	-11.3225
▁modificado	-11.3227
▁adoptada	-11.3228
▁dominar	-11.3229
▁iniciada	-11.3232
▁Eti	-11.3237
▁subir	-11.3239
▁cesa	-11.3245
▁estudado	-11.3247
▁Mort	-11.3248
▁mailo	-11.3252
furt	-11.3252
▁Bona	-11.3259
▁Meli	-11.3262
wis	-11.3262
ight	-11.3276
▁presidid	-11.3277
▁axudante	-11.3279
▁aristocr	-11.328
▁combusti	-11.3285
▁agraria	-11.3285
▁clínica	-11.3285
▁escuadra	-11.3285
▁esquina	-11.3285
▁exposta	-11.3285
▁festividade	-11.3285
▁falsa	-11.3285
▁metálica	-11.3285
▁Investigación	-11.3285
▁xigante	-11.3289
▁exp	-11.3292
▁completou	-11.3298
▁Cí	-11.3299
▁rivalidade	-11.3299
uselle	-11.3309
▁contraria	-11.331
▁codia	-11.3311
▁Cl	-11.3312
▁Cret	-11.3317
▁Vel	-11.3327
▁fabricar	-11.3327
▁absor	-11.333
▁ortodoxa	-11.3332
oz	-11.3337
▁cama	-11.3343
▁Maur	-11.3344
▁esperaba	-11.3344
▁Recente	-11.3347
▁descontento	-11.3347
▁eclesiástico	-11.3347
▁transformou	-11.3347
▁aterraxe	-11.3347
cidade	-11.3347
▁superficial	-11.3348
▁budista	-11.335
▁Consta	-11.335
▁Doug	-11.335
▁liderada	-11.3351
▁instalado	-11.3351
▁artificia	-11.3357
▁espira	-11.3366
▁denuncia	-11.3373
▁infinito	-11.3374
aquia	-11.3377
▁meseta	-11.3378
▁delta	-11.338
▁Sup	-11.3386
▁reprodutora	-11.3386
▁animado	-11.3387
caia	-11.3388
alles	-11.339
▁buscaba	-11.3398
erife	-11.3403
eminario	-11.3403
▁ocorren	-11.3404
▁Castrelo	-11.341
▁Habsburgo	-11.341
▁auténtico	-11.341
▁pirámide	-11.341
▁proxección	-11.341
▁xuventude	-11.341
▁atinxi	-11.341
▁práctico	-11.341
▁balea	-11.341
▁Tód	-11.341
▁proposto	-11.341
▁7,	-11.341
▁interface	-11.341
▁Leo	-11.3414
▁posib	-11.3414
▁conduce	-11.3415
▁apoiada	-11.3415
▁estendido	-11.3415
▁Ocean	-11.3416
▁violento	-11.3416
bol	-11.3419
▁limitación	-11.342
▁Palestin	-11.3424
ami	-11.3425
voa	-11.3428
▁probar	-11.343
▁hu	-11.343
▁voda	-11.3434
▁cubrir	-11.3436
▁oculta	-11.3437
▁Cong	-11.3447
▁integrar	-11.3447
▁tira	-11.3451
▁Davi	-11.3458
▁Bull	-11.3459
▁Pop	-11.346
▁capturar	-11.3464
pique	-11.3464
▁soste	-11.3466
▁casamento	-11.3468
▁finaliz	-11.3469
▁Oro	-11.3469
▁rendi	-11.3472
candinavia	-11.3472
▁migratoria	-11.3472
▁fenicio	-11.3472
▁nutriente	-11.3473
▁cinto	-11.3473
▁Disney	-11.3473
▁solucións	-11.3473
▁sinatura	-11.3473
▁Open	-11.3474
▁encargo	-11.3475
eppe	-11.3475
▁Bria	-11.3476
▁anuncia	-11.3477
▁Hans	-11.3478
▁Tit	-11.3487
▁convencional	-11.349
▁faro	-11.3492
▁enverg	-11.3492
▁holand	-11.3492
▁paciente	-11.3492
▁liberar	-11.3496
▁viaxeiro	-11.3499
struíu	-11.3499
▁marqu	-11.3506
▁impux	-11.3509
▁Ros	-11.351
▁malo	-11.351
▁Game	-11.3521
▁Capel	-11.3523
zul	-11.3523
▁cruce	-11.3532
▁concluí	-11.3534
▁Panam	-11.3534
▁et	-11.3535
▁guerrilleiro	-11.3536
▁microorganismo	-11.3536
▁robot	-11.3536
▁sanguíneo	-11.3536
▁separou	-11.3536
▁viquingo	-11.3536
▁Gabriel	-11.3536
▁eslavo	-11.3536
▁Bizantin	-11.3536
▁trofeo	-11.3536
▁transforma	-11.3536
▁repetida	-11.3537
▁manobra	-11.3537
▁Tah	-11.3542
tario	-11.3545
mentr	-11.3546
onna	-11.3546
▁ilustración	-11.3548
▁Alemán	-11.355
ves	-11.3551
▁emite	-11.3551
telo	-11.3551
▁eficac	-11.3557
▁desenvolven	-11.3559
▁All	-11.3559
▁Lor	-11.3561
▁South	-11.3561
▁rota	-11.3567
▁agrupad	-11.3571
▁Butt	-11.3572
ulo	-11.3573
omeo	-11.3574
▁tortura	-11.359
iberia	-11.3591
▁cativo	-11.3593
▁pe	-11.3594
▁bicicleta	-11.3599
▁decisivo	-11.3599
▁hormona	-11.3599
▁inundación	-11.3599
▁perfecto	-11.3599
▁túnel	-11.3599
▁antecesor	-11.3599
▁antibiótico	-11.3599
▁ferroviario	-11.36
▁intermedio	-11.36
▁servía	-11.36
▁traducida	-11.36
▁Catar	-11.3602
▁Zam	-11.3603
▁dominada	-11.3606
▁Publicou	-11.3609
▁terían	-11.361
▁finaliza	-11.3623
oubo	-11.3624
▁levouno	-11.3625
▁nega	-11.3629
▁Laxe	-11.3632
▁sustenta	-11.3635
▁Esco	-11.3636
▁romper	-11.3638
▁tip	-11.3638
▁dedica	-11.3641
▁coordina	-11.3645
▁ilumina	-11.365
anzas	-11.3653
bar	-11.3653
▁determina	-11.3654
▁test	-11.3655
cepción	-11.3662
▁instalá	-11.3664
▁defecto	-11.3664
▁substantivo	-11.3664
▁Branco	-11.3664
▁fermosa	-11.3664
▁estraño	-11.3664
▁espello	-11.3664
▁oposta	-11.3664
▁rapaz	-11.3664
▁perdida	-11.3665
eolítico	-11.3669
▁viúva	-11.3672
▁virtual	-11.3672
▁Ebr	-11.3677
▁afectan	-11.3677
▁cristal	-11.3678
operación	-11.3679
▁interve	-11.3681
▁sacar	-11.3681
olivia	-11.3685
onel	-11.3685
▁Vá	-11.3687
▁Hermi	-11.3689
▁permanecen	-11.3694
ixeria	-11.3696
▁Sab	-11.3697
▁equivale	-11.3697
xeo	-11.3705
ancia	-11.3706
▁Glas	-11.3708
▁Pat	-11.3721
uto	-11.3722
▁anatom	-11.3723
▁rexeitar	-11.3724
▁inestab	-11.3725
▁Director	-11.3726
▁AB	-11.3726
▁Mercedes	-11.3728
▁atmosférica	-11.3728
▁correcto	-11.3728
▁guerrilla	-11.3728
▁residuo	-11.3728
▁demográfico	-11.3728
▁distíngue	-11.3728
▁presb	-11.3728
▁Sound	-11.3728
helm	-11.3729
▁afirman	-11.3729
one	-11.373
▁Metal	-11.3731
▁consola	-11.3731
▁Sarde	-11.3732
▁planifica	-11.3733
▁modificar	-11.3734
▁metaboli	-11.3734
▁conspiración	-11.3734
▁parto	-11.3739
▁conectado	-11.374
▁sinalar	-11.3742
▁Cova	-11.3745
▁eliminado	-11.3747
ite	-11.3749
▁avanza	-11.3751
▁Gau	-11.3754
30	-11.3759
▁presidi	-11.3759
eu	-11.3762
▁112	-11.3762
▁talo	-11.3773
▁bate	-11.3777
angel	-11.3779
iña	-11.3783
rry	-11.3783
▁Cabana	-11.3783
▁Mer	-11.3787
▁deseñou	-11.3787
▁inventor	-11.3789
echt	-11.379
cht	-11.3792
acultade	-11.3792
▁adolescencia	-11.3793
▁islámico	-11.3793
▁tecnolóxico	-11.3793
▁vangarda	-11.3793
▁sueca	-11.3793
▁oitava	-11.3793
▁feble	-11.3794
▁severa	-11.3795
▁vestido	-11.3796
▁encarcerado	-11.3796
▁subministración	-11.3797
▁rato	-11.3799
▁estím	-11.38
▁Ib	-11.3801
▁Volveu	-11.3802
▁elaborar	-11.3807
▁gravada	-11.3812
kla	-11.3813
▁cans	-11.3817
▁defensiva	-11.3817
▁perigosa	-11.3819
▁Norman	-11.3819
▁Outeir	-11.3825
▁icona	-11.3837
dución	-11.3837
▁integrou	-11.384
▁copa	-11.3843
▁dirixía	-11.3845
▁sindical	-11.3848
▁Timo	-11.385
▁Consérva	-11.3858
▁antepasado	-11.3858
▁autóctona	-11.3858
▁fonética	-11.3858
▁independentista	-11.3858
▁inmensa	-11.3858
▁orixinou	-11.3858
▁Celtic	-11.3858
▁castrexo	-11.3858
▁Crime	-11.3859
▁engade	-11.3859
▁Anxo	-11.386
▁109	-11.3862
▁emprende	-11.3862
▁tocaba	-11.3863
▁Sun	-11.3867
▁importación	-11.3869
▁trato	-11.3869
▁distante	-11.3872
▁Bur	-11.3873
▁continuaba	-11.3877
▁perigoso	-11.3877
▁rexeitado	-11.3878
acto	-11.3878
▁neutral	-11.3879
▁primo	-11.3882
▁lazo	-11.3884
tonia	-11.3884
▁conversa	-11.3887
▁traslado	-11.3895
▁entregado	-11.3902
▁té	-11.3911
▁explorar	-11.3916
▁Isla	-11.3919
▁Ll	-11.3921
▁Ball	-11.3922
×	-11.3924
▁burato	-11.3924
▁contempla	-11.3924
▁escaravello	-11.3924
▁vándalo	-11.3924
▁Dragon	-11.3924
▁sólida	-11.3924
▁Free	-11.3924
▁vendida	-11.3925
▁léxico	-11.3926
▁discorre	-11.3926
▁Eva	-11.3927
▁br	-11.3927
mia	-11.3928
▁infant	-11.3933
▁GP	-11.3936
U	-11.3936
▁ortodoxo	-11.3948
▁Dos	-11.3948
▁We	-11.3948
izar	-11.3948
▁Wei	-11.3948
▁habería	-11.3949
▁engadiu	-11.3965
▁Segur	-11.3965
▁ane	-11.397
▁datado	-11.3971
▁preserva	-11.3977
▁proporcionar	-11.3977
▁leito	-11.3979
▁manda	-11.3979
▁producía	-11.3983
▁consolida	-11.3985
▁Malai	-11.3986
▁dimiti	-11.399
▁Aérea	-11.399
▁apóstolo	-11.399
▁difire	-11.399
▁extraordinario	-11.399
▁inspirada	-11.399
▁manufactura	-11.399
▁mísil	-11.399
▁repercusión	-11.399
▁sigla	-11.399
▁proveñ	-11.399
▁playoff	-11.3991
▁estratéxico	-11.3991
▁Wood	-11.3992
▁escas	-11.3994
▁protexe	-11.3994
▁porción	-11.3996
▁contratado	-11.3996
▁detectar	-11.3998
▁racia	-11.4
▁irlandes	-11.4
▁falecemento	-11.4001
▁véx	-11.4002
▁Francesc	-11.4002
▁denomína	-11.4002
▁Nar	-11.4002
T	-11.4004
▁litro	-11.4005
▁flamengo	-11.4006
▁naturalista	-11.4007
▁computadora	-11.4009
right	-11.401
tland	-11.401
▁decena	-11.4012
▁Barreiro	-11.4016
▁vulgar	-11.4018
▁Common	-11.402
66	-11.402
▁Day	-11.4021
▁flúe	-11.4026
agno	-11.4027
▁criado	-11.4036
▁Teo	-11.4036
▁pol	-11.4037
▁Orti	-11.4056
▁Lexislativ	-11.4057
▁Branca	-11.4057
▁troco	-11.4057
▁denominou	-11.4057
▁abadía	-11.4057
▁utilidade	-11.4057
▁término	-11.4057
▁administrador	-11.4058
▁Católic	-11.4059
▁cinta	-11.4059
▁Homer	-11.406
▁colapso	-11.406
▁baño	-11.4063
▁Tr	-11.4065
▁pontevedr	-11.4065
rre	-11.4068
▁veñ	-11.4072
▁bala	-11.4079
▁Dom	-11.408
▁roca	-11.408
▁vixil	-11.4086
▁amid	-11.4086
▁Maio	-11.4087
▁ilustrado	-11.4089
▁Play	-11.4092
▁renunciar	-11.4097
nico	-11.4102
▁reduciu	-11.4105
▁comunicar	-11.4107
▁Tolo	-11.4111
▁Galax	-11.412
▁Consell	-11.4122
▁nacen	-11.4122
▁arbusto	-11.4124
▁castigo	-11.4124
▁confederación	-11.4124
▁exitoso	-11.4124
▁educativa	-11.4124
▁grosa	-11.4124
▁traiz	-11.4124
▁criatura	-11.4124
▁reduce	-11.4124
▁volcánico	-11.4125
▁representou	-11.4126
▁modificada	-11.4127
▁cinza	-11.4127
▁interesado	-11.4127
▁eventual	-11.4128
▁France	-11.4129
▁loito	-11.413
▁macizo	-11.4134
▁enormes	-11.4145
▁escolle	-11.4161
over	-11.4163
iterio	-11.4164
▁106	-11.4171
▁Groen	-11.4175
▁Capita	-11.4176
▁Consist	-11.418
▁estiv	-11.4187
▁st	-11.4187
▁Orixina	-11.4191
▁adxacente	-11.4192
▁tradutor	-11.4192
▁coloración	-11.4192
▁Facend	-11.4192
▁Appl	-11.4195
▁incorporar	-11.4196
▁Hein	-11.4196
▁representativo	-11.4196
▁selva	-11.4197
▁Lenno	-11.4199
▁estadía	-11.4202
▁East	-11.4205
uliu	-11.4218
laga	-11.4224
tempo	-11.423
▁crecer	-11.4233
▁Franc	-11.4236
▁move	-11.424
woo	-11.4241
rac	-11.4246
▁Sega	-11.4247
quilo	-11.4247
▁Bra	-11.4249
▁escoller	-11.4256
▁especialidade	-11.4257
▁controla	-11.4259
▁Alejandr	-11.426
▁Proxecto	-11.426
▁antecedente	-11.426
▁diminúe	-11.426
▁observou	-11.426
▁requisito	-11.426
▁sacrificio	-11.426
▁vacina	-11.426
▁xermano	-11.426
▁xeométrica	-11.426
▁sentía	-11.426
▁radar	-11.426
▁pavillón	-11.426
▁arranxo	-11.426
▁Gand	-11.426
▁Rio	-11.4263
▁Blue	-11.4263
▁Atlant	-11.4268
▁Pontede	-11.4269
▁rexeitada	-11.427
▁alimentaria	-11.427
▁Ura	-11.4274
ent	-11.428
▁aplíca	-11.4282
▁Nevad	-11.4283
▁libra	-11.4284
▁Liberal	-11.4284
▁divulga	-11.4285
▁proceden	-11.4285
eida	-11.4285
▁Pasa	-11.4286
▁Inc	-11.4288
▁desexaba	-11.4289
▁nominal	-11.429
ros	-11.4291
uda	-11.4291
▁Hi	-11.4292
▁ataca	-11.4294
▁lider	-11.4307
▁diferenciar	-11.4308
▁Carte	-11.4311
ko	-11.4314
F	-11.4321
adruga	-11.4324
▁cidad	-11.4325
▁adóita	-11.4328
▁constituía	-11.4328
▁hábito	-11.4328
▁olímpico	-11.4328
▁opositor	-11.4328
▁prefire	-11.4328
▁acuática	-11.4328
▁cháman	-11.4329
▁maxia	-11.4329
▁fillas	-11.433
▁fascista	-11.433
▁ru	-11.4331
▁clasificada	-11.4331
▁campá	-11.4334
▁artesán	-11.4339
▁interpretado	-11.4339
▁acumulación	-11.4339
▁estrutural	-11.4345
▁pa	-11.4346
▁NAS	-11.4346
▁navegante	-11.435
▁cha	-11.4351
▁coiro	-11.4351
▁ampl	-11.4353
▁dezaseis	-11.4354
▁goza	-11.4355
▁armamento	-11.4357
▁realizá	-11.4361
uga	-11.4365
▁Magno	-11.4369
versidade	-11.437
pta	-11.4377
ation	-11.438
▁facéndo	-11.4396
▁funera	-11.4396
▁guarnición	-11.4397
▁préstamo	-11.4397
▁repertorio	-11.4397
▁veneciano	-11.4397
▁exposto	-11.4398
▁accesible	-11.4399
▁Nir	-11.4399
▁139	-11.4401
▁Mich	-11.4403
▁santa	-11.4406
▁ditador	-11.4407
▁morfoloxía	-11.4407
ov	-11.4408
▁habitaba	-11.4411
▁Sill	-11.4419
mundo	-11.4419
▁estou	-11.4422
▁Jam	-11.4423
▁rompeu	-11.4427
▁Sé	-11.4429
▁penal	-11.443
▁escoces	-11.4432
▁ocasiona	-11.4432
▁Lagos	-11.4433
adas	-11.4439
▁poñen	-11.4441
▁designación	-11.4441
▁Principa	-11.4442
▁empresaria	-11.4445
▁Sete	-11.4452
uma	-11.4456
lariz	-11.4457
▁Vivi	-11.4459
▁text	-11.446
▁invasor	-11.4465
iscal	-11.4465
▁Coñéce	-11.4467
▁mercenario	-11.4467
▁neutrón	-11.4467
▁Gramm	-11.4467
▁mongo	-11.4467
▁inversa	-11.4468
▁prefectura	-11.4468
▁godo	-11.4468
▁sasánida	-11.4468
▁xeno	-11.4471
▁Carlom	-11.4472
▁interpretada	-11.4472
▁homosexual	-11.4474
▁Esloven	-11.4474
conomía	-11.4484
▁multi	-11.4485
▁relaciona	-11.4485
▁Lud	-11.4485
▁conforma	-11.4485
ball	-11.4498
▁sost	-11.4504
cre	-11.4514
atriz	-11.4517
mw	-11.4521
▁Carballed	-11.4527
▁lega	-11.4529
▁tempora	-11.4531
▁simult	-11.4537
▁Decreto	-11.4537
▁Manhat	-11.4537
▁atlántica	-11.4537
▁constituínte	-11.4537
▁defendía	-11.4537
▁excesiva	-11.4537
▁foguete	-11.4537
▁recompilatorio	-11.4537
▁universitaria	-11.4537
▁xeolóxica	-11.4537
▁búlgaro	-11.4537
▁apartado	-11.4537
▁violín	-11.4537
▁orella	-11.4537
align	-11.4537
▁Fale	-11.4539
ff	-11.4541
▁asume	-11.4541
▁reforzo	-11.4555
-3	-11.4556
▁Pública	-11.4562
▁custos	-11.4566
▁dona	-11.4567
▁Eric	-11.4568
tografía	-11.4573
empre	-11.4575
▁xogan	-11.4579
▁mandar	-11.4582
▁levaría	-11.4583
mina	-11.4587
collida	-11.4589
Lare	-11.4589
nec	-11.4593
lines	-11.4593
▁ficha	-11.4594
▁condes	-11.46
▁Ter	-11.4602
▁Allen	-11.4603
tén	-11.4603
▁Exterior	-11.4607
▁Giovann	-11.4607
▁Iniciou	-11.4607
▁informático	-11.4607
▁lóxico	-11.4607
▁taboleiro	-11.4607
▁xeolóxico	-11.4607
▁secreto	-11.4607
▁asasino	-11.4607
▁cego	-11.4609
▁Christian	-11.461
▁hostilidade	-11.461
unge	-11.4611
▁triunfa	-11.4612
▁Henri	-11.4613
▁cualificación	-11.4614
usa	-11.4614
▁facto	-11.4615
▁toman	-11.4618
▁Troi	-11.4618
▁desempeño	-11.4619
▁fume	-11.4621
▁emigrar	-11.4622
▁Salv	-11.4633
ócrat	-11.4641
hai	-11.4645
negro	-11.465
▁grava	-11.4651
triz	-11.4652
▁Claudi	-11.4652
▁Miran	-11.4655
▁Pard	-11.4659
▁satisfac	-11.4664
▁pese	-11.4667
podo	-11.4668
▁recita	-11.4669
celer	-11.4671
▁Campos	-11.4671
▁milita	-11.4673
▁lema	-11.4676
itanni	-11.4678
▁convocou	-11.4678
▁hexem	-11.4678
▁sedimento	-11.4678
▁Jeff	-11.4678
▁progresista	-11.4678
uatemal	-11.4678
▁peche	-11.4679
▁Spu	-11.4679
▁Flavi	-11.4679
▁fí	-11.4679
deira	-11.468
▁Prie	-11.4686
▁outorgado	-11.4686
▁caracterizada	-11.4686
▁permitiulle	-11.4686
grafía	-11.469
▁vólve	-11.469
▁144	-11.4691
▁invitado	-11.4691
▁Unidade	-11.4695
▁Clara	-11.4698
▁imposi	-11.4703
▁disputar	-11.4704
oito	-11.4712
▁lembra	-11.4713
▁feudal	-11.4714
rey	-11.4718
▁Gonza	-11.4719
port	-11.472
▁emitiu	-11.4725
▁brill	-11.4733
▁seleccionado	-11.4735
▁degrada	-11.474
▁alterna	-11.4741
▁Interes	-11.4743
▁Sara	-11.4744
▁Antigüidade	-11.4749
▁Demócrata	-11.4749
▁peregrinación	-11.4749
▁romántico	-11.4749
▁Jacob	-11.475
▁Associat	-11.475
▁preferencia	-11.475
▁inícia	-11.475
▁113	-11.475
▁procesión	-11.475
▁apo	-11.475
▁cervexa	-11.4754
▁editada	-11.4754
▁Representante	-11.4755
▁durar	-11.4757
▁3000	-11.4759
▁profesora	-11.4759
▁anch	-11.4768
ump	-11.4773
▁provocada	-11.4775
▁salón	-11.4778
▁autob	-11.4778
sperar	-11.4783
▁león	-11.4802
▁Carra	-11.4803
MA	-11.4803
▁substancial	-11.4806
▁presentaba	-11.481
▁Xu	-11.4812
encia	-11.4813
▁preferi	-11.4818
▁castrex	-11.4821
▁fantasía	-11.4821
▁tóxico	-11.4821
▁Após	-11.4821
▁That	-11.4821
▁eclipse	-11.4821
▁Figuer	-11.4821
▁frecha	-11.4821
▁silencio	-11.4822
▁consecuente	-11.4822
▁Traballa	-11.4822
▁adecuado	-11.4822
▁representativa	-11.4822
▁mineira	-11.4823
▁Walter	-11.4823
▁Syd	-11.4823
▁cultivada	-11.4823
ntificado	-11.4824
▁enviada	-11.4825
▁Valencian	-11.4825
▁promociona	-11.4825
▁eixe	-11.4825
▁simboliza	-11.4827
▁sepulcro	-11.4829
▁faixa	-11.4829
▁Rai	-11.483
▁pigmento	-11.4832
▁Institut	-11.4834
▁Comba	-11.4834
▁centrada	-11.4835
▁manual	-11.4836
▁implanta	-11.4841
▁decorado	-11.4845
▁Rowl	-11.4846
▁eido	-11.4847
▁azu	-11.4856
▁Soto	-11.4857
▁gama	-11.4859
nor	-11.4861
▁Latino	-11.4861
▁tra	-11.4863
▁rescat	-11.4867
▁emerxe	-11.4867
▁admira	-11.4871
▁educado	-11.4876
▁elector	-11.4877
▁Va	-11.4877
▁desprazar	-11.4879
▁detalle	-11.4883
PD	-11.4887
▁obtiver	-11.4892
▁cultivar	-11.4892
certeza	-11.4892
▁alcumad	-11.4894
▁lámpada	-11.4894
▁enderezo	-11.4894
▁síndrome	-11.4894
▁trae	-11.4895
rtis	-11.4895
▁envía	-11.4895
▁administrada	-11.4896
cito	-11.4899
▁cera	-11.4899
▁ingresa	-11.4903
▁sábe	-11.4904
rne	-11.4904
▁Socie	-11.4904
▁fonda	-11.4906
▁xerada	-11.4906
▁labrego	-11.4907
▁lomb	-11.4913
▁My	-11.4915
▁comparti	-11.4916
-9	-11.4917
▁amosou	-11.492
▁Cristi	-11.4922
▁Angel	-11.4925
▁sa	-11.4925
▁Medi	-11.4926
▁documentado	-11.4926
▁Cort	-11.4931
rase	-11.4933
▁conservada	-11.4934
ania	-11.4937
eresa	-11.4943
▁How	-11.4943
▁deseñador	-11.4953
▁DC	-11.4954
▁peculiar	-11.4959
▁May	-11.4963
▁Ya	-11.4963
ola	-11.4965
▁caracterizou	-11.4967
▁curtametraxe	-11.4967
▁Bohemia	-11.4967
▁tardío	-11.4967
▁arqueólogo	-11.4967
▁pasta	-11.4967
▁traxedia	-11.4967
▁referido	-11.4967
▁adaptada	-11.4969
▁Serie	-11.4971
breiro	-11.4971
▁Xiron	-11.4973
▁Membro	-11.4973
▁pertencer	-11.4973
▁obrigatoria	-11.4976
▁incrementar	-11.498
▁Well	-11.4986
▁xustifica	-11.4995
▁entran	-11.5003
▁espacia	-11.5012
eta	-11.5013
▁citar	-11.5013
▁xesta	-11.5014
▁Mol	-11.5018
▁ofrecen	-11.5025
▁antrop	-11.5026
▁correr	-11.5029
▁Licenciad	-11.503
▁Azor	-11.5034
cesio	-11.5035
▁apoiaba	-11.5037
▁bos	-11.5039
▁emprazamento	-11.504
▁vostede	-11.504
▁concéntra	-11.504
▁peirao	-11.504
▁xesuíta	-11.504
▁Noutro	-11.504
▁cerco	-11.504
▁Doutor	-11.5041
▁costeiro	-11.5041
▁Beck	-11.5041
▁pin	-11.5042
▁benestar	-11.5042
▁afastada	-11.5043
▁patrona	-11.5046
nterior	-11.505
▁abdica	-11.5053
▁alcaldía	-11.5054
asia	-11.5055
▁goberna	-11.5068
lyn	-11.507
íso	-11.5072
▁Asi	-11.5078
▁falo	-11.508
▁notar	-11.508
▁Dav	-11.5084
▁signific	-11.509
▁recordo	-11.5092
nexión	-11.5099
▁March	-11.5101
▁pu	-11.5105
▁Apóstolo	-11.5114
▁dinámico	-11.5114
▁horizonte	-11.5114
▁indirecta	-11.5114
▁monopolio	-11.5114
▁periodic	-11.5114
▁maquina	-11.5115
▁Cat	-11.5115
titan	-11.5115
▁porteiro	-11.5116
▁Zona	-11.5116
▁outorgou	-11.5117
bio	-11.5118
volución	-11.5119
▁diminuír	-11.512
▁Riva	-11.5121
▁Operación	-11.5121
▁respecta	-11.5123
▁coco	-11.5123
▁determinante	-11.5124
▁reivindicación	-11.5127
▁similitude	-11.5127
posto	-11.5131
▁navarro	-11.5134
ficina	-11.5135
proximada	-11.5136
▁pr	-11.5138
▁Bada	-11.5141
▁diferencial	-11.5145
▁Alex	-11.5145
▁pensou	-11.5146
▁du	-11.515
▁Pit	-11.5151
▁Nicol	-11.5151
▁persegui	-11.5155
▁desexa	-11.5156
▁Contra	-11.5165
▁concede	-11.5167
isco	-11.5175
▁sint	-11.518
cento	-11.5186
▁Harris	-11.5186
ímetro	-11.5188
▁conmemora	-11.5188
▁Reform	-11.5189
▁atinxe	-11.5189
▁mazá	-11.5189
▁choque	-11.5189
▁imposta	-11.5189
▁insurrec	-11.5189
▁horta	-11.5189
▁Cantábric	-11.519
▁levantou	-11.519
▁vertebrado	-11.519
▁destacable	-11.5191
▁Fide	-11.5197
▁116	-11.5198
▁diferenciada	-11.5199
▁Xermánic	-11.52
▁amosar	-11.5202
spírito	-11.5203
▁Marqu	-11.5204
renta	-11.5204
▁executar	-11.5206
▁mercadoría	-11.5207
▁datada	-11.5208
araguai	-11.5212
▁Tim	-11.5213
▁atende	-11.5216
▁cachot	-11.5218
▁Ub	-11.5223
latino	-11.5223
▁ventr	-11.5225
▁competi	-11.5227
▁crer	-11.5227
▁elixe	-11.5228
▁anuncio	-11.5228
▁131	-11.5231
▁dixita	-11.5234
▁Chec	-11.5235
▁Nice	-11.5235
▁Les	-11.5243
▁iniciado	-11.5243
▁superan	-11.5246
ibn	-11.5249
▁serpe	-11.5255
▁contribuír	-11.5258
rzo	-11.5258
▁Wolf	-11.526
▁budis	-11.5262
▁ecua	-11.5263
▁Imperial	-11.5264
▁alicerce	-11.5264
▁complemento	-11.5264
▁defensivo	-11.5264
▁masivo	-11.5264
▁nórdico	-11.5264
▁Carnot	-11.5264
▁subdivisión	-11.5264
▁humilde	-11.5264
▁edita	-11.5268
▁Reich	-11.5269
▁escisión	-11.5269
▁pensador	-11.5271
▁coñéce	-11.5271
▁pau	-11.5276
▁monumental	-11.5278
ena	-11.5279
▁obrigada	-11.5279
▁Tale	-11.528
▁afroamericano	-11.5281
▁Gar	-11.5281
▁ameazada	-11.5282
▁estoniano	-11.5283
▁Sul	-11.5284
▁Gold	-11.5284
thle	-11.5284
untu	-11.5285
lacant	-11.5286
chet	-11.5289
nix	-11.5289
gregación	-11.5291
▁alimentar	-11.5294
▁conquistador	-11.5296
▁responder	-11.5313
▁constrúe	-11.5316
▁experimentar	-11.532
▁acr	-11.5324
▁Luz	-11.5324
▁Kant	-11.5326
metría	-11.5332
▁Eslov	-11.5332
▁Baco	-11.5332
vana	-11.5335
▁basea	-11.5339
▁académica	-11.534
▁axeitada	-11.534
▁colocou	-11.534
▁escándalo	-11.534
▁subtropica	-11.534
▁visíbe	-11.534
▁asirio	-11.534
▁compite	-11.534
▁troll	-11.534
▁Pompei	-11.534
▁novelista	-11.534
▁nicho	-11.5341
▁prohibida	-11.5341
▁adición	-11.5342
▁comprobar	-11.5346
imos	-11.5346
▁substituto	-11.5346
▁corporación	-11.5349
iario	-11.5351
▁Fila	-11.5352
pus	-11.5353
▁Flan	-11.5357
ray	-11.5359
▁Sobrad	-11.5361
▁volven	-11.5362
▁Pres	-11.5369
▁visua	-11.5369
▁Moz	-11.537
▁emigr	-11.5371
▁Ab	-11.5374
▁vertica	-11.5374
quel	-11.5375
lmirant	-11.5375
acio	-11.5376
▁Marc	-11.5379
▁Sid	-11.538
▁atravesar	-11.5394
▁Rede	-11.5395
▁constituír	-11.5399
eclaración	-11.5402
▁repous	-11.5412
▁Dio	-11.5412
10	-11.5414
▁almacén	-11.5416
▁bispado	-11.5416
▁demográfica	-11.5416
▁interpretou	-11.5416
▁ostrogodo	-11.5416
▁sucesivo	-11.5416
▁veterano	-11.5416
▁Memoria	-11.5416
delf	-11.5416
▁traxe	-11.5417
▁textura	-11.5418
egovi	-11.5418
▁Had	-11.5418
▁polio	-11.542
▁BM	-11.5425
▁aplicado	-11.5428
▁Boa	-11.543
▁Puerto	-11.5431
▁valid	-11.5436
ova	-11.5437
▁Pre	-11.5437
▁141	-11.5438
▁pescador	-11.5438
uld	-11.5438
▁politica	-11.5443
▁Tele	-11.5449
▁Cla	-11.5454
berto	-11.5455
▁previ	-11.5459
madura	-11.5461
▁Saur	-11.5461
tada	-11.5462
▁navegador	-11.5464
▁Chega	-11.5464
fal	-11.5464
▁Vilal	-11.5468
▁Isid	-11.5469
ath	-11.5473
▁respira	-11.5475
▁medi	-11.5476
▁limp	-11.5476
▁dúo	-11.549
ódigo	-11.5493
▁xerado	-11.5493
▁auténtica	-11.5493
▁dramático	-11.5493
▁eucalipto	-11.5493
▁trasláda	-11.5493
▁vínculo	-11.5493
▁revelou	-11.5493
▁comprendido	-11.5493
▁abastece	-11.5493
▁Harold	-11.5493
aquela	-11.5494
▁conservou	-11.5496
▁frauta	-11.5498
▁ministerio	-11.5499
▁seminario	-11.5502
ure	-11.5503
▁soub	-11.5506
▁colocado	-11.5507
▁utilízan	-11.551
▁votar	-11.5513
▁barón	-11.5513
tribuíu	-11.5521
▁narrador	-11.5521
▁Urban	-11.5521
▁Orient	-11.5525
▁bautizado	-11.5525
▁academia	-11.5525
▁oído	-11.5529
pones	-11.553
▁6-	-11.553
▁conservadora	-11.553
▁filia	-11.5532
dres	-11.5533
▁Clod	-11.5537
▁quenda	-11.5537
▁Gordo	-11.5538
▁someter	-11.5538
▁rodean	-11.5544
▁reúne	-11.5547
▁creá	-11.5552
▁adicou	-11.5555
▁102	-11.5558
▁afectar	-11.5561
▁xigantes	-11.5562
▁avanzar	-11.5562
▁ensinar	-11.5565
arios	-11.5566
▁culpa	-11.557
▁Alcalá	-11.5571
▁doméstica	-11.5571
▁ideolóxica	-11.5571
▁ladrillo	-11.5571
▁perpendicular	-11.5571
▁psicolóxico	-11.5571
▁sistemática	-11.5571
▁calcaria	-11.5571
▁diagnóstico	-11.5571
▁falso	-11.5571
▁Exposición	-11.5571
▁enquisa	-11.5571
▁Andrew	-11.5571
▁diamante	-11.5572
▁protagonizada	-11.5573
▁133	-11.5575
▁anime	-11.5575
▁reuní	-11.5576
▁Jr	-11.5576
▁tipoloxía	-11.5579
▁estreada	-11.5583
▁crucia	-11.5583
▁Sabe	-11.5584
▁cazadores	-11.5585
▁atraso	-11.5587
▁anda	-11.5593
▁Prado	-11.5594
vir	-11.56
▁corno	-11.5608
▁ATP	-11.5611
▁protector	-11.5611
▁audiovisua	-11.5612
ky	-11.5612
▁Adriá	-11.5613
▁pos	-11.5622
▁Transi	-11.5624
▁Gañ	-11.5628
▁subsisten	-11.5635
▁precede	-11.5642
▁acusa	-11.5642
autista	-11.5642
▁banca	-11.5644
organ	-11.5645
▁dependía	-11.5649
▁metrópole	-11.5649
▁embarazo	-11.5649
▁máxica	-11.5649
▁eliminatoria	-11.5649
▁Comerci	-11.5649
▁australiana	-11.5649
▁globo	-11.5649
▁fuga	-11.565
▁busco	-11.565
▁entregou	-11.5651
▁Muro	-11.5651
▁observado	-11.5654
▁exhibición	-11.5654
▁ampliar	-11.5655
▁brut	-11.5655
▁Ed	-11.5658
▁normativa	-11.5658
▁lanzada	-11.5658
▁Barc	-11.5659
▁inaugurad	-11.5659
venceu	-11.5661
▁listaxe	-11.5665
12	-11.5666
ife	-11.5667
▁coller	-11.5668
▁Independente	-11.5668
▁superado	-11.5673
▁imaxina	-11.5675
▁agudo	-11.5678
▁240	-11.5684
▁mitos	-11.5685
▁aparecía	-11.5685
▁esc	-11.5686
▁virxe	-11.5688
▁Ger	-11.5691
ónica	-11.5691
▁propó	-11.5692
rsal	-11.5694
▁autovía	-11.5695
▁consulta	-11.5705
▁proporcionan	-11.5707
▁Flame	-11.5708
BM	-11.5709
▁talle	-11.5712
▁antena	-11.5718
▁Bris	-11.5725
▁crustáceo	-11.5728
▁pulmonar	-11.5728
▁sufixo	-11.5728
▁EEUU	-11.5728
▁acuático	-11.5728
▁reactor	-11.5728
▁profeta	-11.5728
▁montaxe	-11.5728
▁dourada	-11.5728
▁Oficial	-11.5729
▁canteira	-11.5729
▁Bouza	-11.573
▁xura	-11.5731
onostia	-11.5731
▁subida	-11.5735
▁emerxente	-11.5736
▁Award	-11.5739
▁padece	-11.5753
▁contracción	-11.5755
▁Apolo	-11.5768
erio	-11.577
▁conquistado	-11.577
▁repetir	-11.5771
ilo	-11.5779
how	-11.5779
ho	-11.5784
▁planea	-11.5785
▁residi	-11.5796
rredor	-11.5801
▁Ocup	-11.5804
edalla	-11.5807
▁correspónde	-11.5807
▁demócrata	-11.5807
▁ecolóxico	-11.5807
▁angular	-11.5807
▁arquitectónica	-11.5807
▁castiñeiro	-11.5807
▁respectivo	-11.5807
alf	-11.5808
▁represénta	-11.5808
▁escribía	-11.5808
▁gastro	-11.5809
▁Heracl	-11.581
▁Sport	-11.5811
otte	-11.5811
▁cilindro	-11.5811
▁catedrático	-11.5811
rovenza	-11.5812
dice	-11.5813
▁realizaba	-11.5814
▁posuír	-11.5814
nell	-11.5815
▁Sin	-11.5815
▁cabra	-11.5815
▁solista	-11.5816
▁definiu	-11.5816
▁Gol	-11.5823
▁pase	-11.5823
▁toleran	-11.5826
▁adaptar	-11.5826
▁Pla	-11.5826
▁mérito	-11.5827
▁Lib	-11.583
old	-11.5831
▁Aria	-11.5832
▁tratan	-11.5852
are	-11.5856
▁Ramir	-11.5858
▁Ferreiro	-11.5861
▁vin	-11.5867
▁chegado	-11.587
▁Banda	-11.5876
▁considerábe	-11.5876
▁incluían	-11.5878
ony	-11.5879
▁recibida	-11.5879
▁fixar	-11.5884
▁perseguido	-11.5885
▁Atene	-11.5887
▁bebé	-11.5887
▁bérber	-11.5887
▁falcón	-11.5887
▁pertenza	-11.5887
▁progresivo	-11.5887
▁razoamento	-11.5887
▁sospeita	-11.5887
▁anfibio	-11.5887
▁Down	-11.5887
▁dramaturgo	-11.5887
▁podio	-11.5888
▁uva	-11.5889
▁Ross	-11.5889
▁Trini	-11.589
▁fide	-11.589
▁capta	-11.589
▁expoñente	-11.5891
minou	-11.5896
▁BB	-11.5897
▁valeu	-11.5897
▁traduciu	-11.5897
▁Nado	-11.5898
▁Hip	-11.59
▁Mill	-11.5901
▁maila	-11.5901
▁Dun	-11.5907
cada	-11.5907
▁divorcio	-11.5908
▁ritua	-11.591
▁Euro	-11.5911
▁outorga	-11.5913
q	-11.5915
▁Grim	-11.5917
▁Andrea	-11.592
▁Ott	-11.5922
▁220	-11.5925
rquitectura	-11.5933
anario	-11.5934
rroco	-11.5935
▁forzada	-11.5936
▁aconteceu	-11.5936
▁Entro	-11.5945
▁controlaba	-11.5945
▁Mala	-11.5946
▁correctamente	-11.5949
▁negocia	-11.5949
historia	-11.5949
▁bio	-11.5952
ván	-11.5954
▁suprema	-11.5954
por	-11.5955
▁obradoiro	-11.5955
▁IP	-11.5958
aldo	-11.5967
▁dragón	-11.5967
▁devanceiro	-11.5968
▁ecolóxica	-11.5968
▁nocturna	-11.5968
▁reproducir	-11.5968
▁válvula	-11.5968
▁divina	-11.5968
▁consciencia	-11.5968
▁teólogo	-11.5969
▁xeada	-11.5969
▁suxeita	-11.5969
▁Calvo	-11.5972
▁mineiro	-11.5972
▁incorporada	-11.5975
▁sonda	-11.5978
▁Spo	-11.5978
▁Tempo	-11.5979
▁Clark	-11.598
lismo	-11.5991
▁Humano	-11.5995
ndez	-11.5995
▁lexítimo	-11.5995
▁fito	-11.6001
▁ali	-11.6002
▁suceder	-11.6007
apitán	-11.6024
▁ceder	-11.6029
wel	-11.6033
▁engadi	-11.6033
zar	-11.6036
▁deter	-11.604
▁botánico	-11.6049
▁camisola	-11.6049
▁campesiña	-11.6049
▁UNI	-11.6049
▁Presidencia	-11.6049
▁roubo	-11.6049
▁exacto	-11.605
wig	-11.605
▁acta	-11.605
▁ostenta	-11.605
▁tea	-11.6053
▁pomba	-11.6053
▁potas	-11.6054
▁Portela	-11.6055
espe	-11.6055
▁compartido	-11.6059
▁puntuación	-11.6059
▁Aleix	-11.6059
▁mosca	-11.6062
▁atribúe	-11.6063
▁Liña	-11.6064
urne	-11.6066
▁atacado	-11.6067
ber	-11.6074
ixo	-11.6075
▁Ste	-11.6077
▁sufrimento	-11.6077
▁neoclásico	-11.6078
ucho	-11.6079
▁Taiw	-11.6081
▁reforzar	-11.6082
▁rap	-11.6086
▁Anna	-11.609
ilán	-11.6095
▁oscila	-11.6099
▁capitalista	-11.6104
▁Eul	-11.6108
ida	-11.6113
ice	-11.6114
▁depender	-11.6115
▁informa	-11.6115
▁arque	-11.6119
▁Sudá	-11.6119
▁detención	-11.6121
ring	-11.6123
▁Sacra	-11.6124
fectou	-11.6127
ini	-11.6127
▁Post	-11.6129
cidio	-11.613
▁atributo	-11.6131
▁botánica	-11.6131
▁comprendida	-11.6131
▁idéntico	-11.6131
▁mixto	-11.6131
▁reflexo	-11.6131
▁bretón	-11.6131
▁aguda	-11.6131
▁Depende	-11.6131
▁clasifíca	-11.6131
▁Moldav	-11.6131
▁Balear	-11.6131
▁manex	-11.6131
▁poético	-11.6131
▁suburbio	-11.6131
▁propagand	-11.6135
▁influenciada	-11.6136
▁obrigatorio	-11.6138
▁pedido	-11.6139
ario	-11.6139
▁berc	-11.6139
nseca	-11.6139
▁Sever	-11.6141
▁Neve	-11.6145
▁recep	-11.6147
▁praga	-11.6147
▁lente	-11.6149
▁entregar	-11.615
▁encontrou	-11.6151
▁impediu	-11.6152
▁apreciar	-11.6154
▁implicado	-11.6155
▁Corpo	-11.6157
▁servi	-11.6158
▁Best	-11.6161
lix	-11.6174
▁Pala	-11.6179
eth	-11.6184
▁Suda	-11.6186
▁Valent	-11.6188
▁ánimo	-11.6193
▁Ku	-11.6196
▁reflecti	-11.6203
▁Dü	-11.6204
úde	-11.6204
desh	-11.6206
▁Lot	-11.6207
▁expandir	-11.6208
▁acudir	-11.6211
▁torna	-11.6211
▁aritmética	-11.6213
▁colisión	-11.6213
▁establéce	-11.6213
▁estampa	-11.6213
▁garantía	-11.6213
▁recto	-11.6213
▁transistor	-11.6213
▁voluntaria	-11.6213
▁rehabilita	-11.6213
▁parecida	-11.6214
▁preferente	-11.6214
▁introduce	-11.6214
▁pórtico	-11.6214
▁sentiu	-11.6214
op	-11.6215
▁vinculada	-11.6215
▁Bruc	-11.6216
▁Fiste	-11.6217
▁Hog	-11.6218
▁incapa	-11.6218
▁North	-11.6219
▁minúscula	-11.622
▁Elvi	-11.6221
▁arrestado	-11.6222
▁lenzo	-11.6222
▁cin	-11.6222
▁Histórico	-11.6223
▁policia	-11.6231
▁Turí	-11.6232
-6	-11.6233
cc	-11.624
▁occitan	-11.6243
▁Johns	-11.6251
ux	-11.6253
sburgo	-11.6259
▁Rui	-11.6259
▁Indo	-11.626
▁defenden	-11.6265
▁industrializa	-11.6267
▁cortes	-11.6268
▁Arco	-11.6268
pica	-11.6273
▁Moren	-11.6275
▁analizar	-11.6276
bondo	-11.6285
▁vende	-11.6292
▁resultaba	-11.6294
▁Brun	-11.6295
▁High	-11.6296
quisición	-11.6297
▁continxente	-11.6297
▁equipado	-11.6297
▁fármaco	-11.6297
▁idéntica	-11.6297
▁inspirou	-11.6297
▁longametraxe	-11.6297
▁magnética	-11.6297
▁aguia	-11.6297
▁estendé	-11.6297
▁estraña	-11.6297
▁Mongol	-11.6297
▁abreviatura	-11.6297
▁Virgin	-11.6297
▁Chámase	-11.6297
▁instituciona	-11.6297
▁procedía	-11.6298
▁retóric	-11.63
íxer	-11.6303
▁Esp	-11.6303
▁Ko	-11.6304
▁pecha	-11.6305
▁xurado	-11.6306
▁crédito	-11.631
▁suxeriu	-11.631
▁Bayer	-11.6311
▁Fala	-11.6311
▁Ci	-11.6315
▁casada	-11.6315
▁documentada	-11.6316
▁orientado	-11.6316
▁helio	-11.6322
▁Amb	-11.6322
▁restaurado	-11.6322
dison	-11.6322
▁François	-11.6323
▁Traba	-11.6323
PS	-11.6327
▁Herman	-11.6337
▁noruegu	-11.6338
▁remonta	-11.6338
▁Universit	-11.6341
▁Valentin	-11.6343
matou	-11.6344
▁Vela	-11.635
▁Bah	-11.6351
▁Ty	-11.6354
iller	-11.6356
torga	-11.636
▁alza	-11.6365
▁Thi	-11.6371
▁Victor	-11.6373
▁adic	-11.6376
▁afirmaba	-11.6376
pano	-11.6377
▁Qui	-11.6378
▁Vale	-11.6379
▁limpa	-11.6379
dena	-11.6379
▁indicador	-11.638
▁ultra	-11.638
▁intermedia	-11.638
▁aleatoria	-11.6381
▁elefante	-11.6381
▁estuario	-11.6381
▁hóspede	-11.6381
▁inflúe	-11.6381
▁disposta	-11.6381
▁estímulo	-11.6381
▁mexicana	-11.6382
▁correspondía	-11.6382
▁galiña	-11.6382
▁fotón	-11.6384
▁Das	-11.6384
ónico	-11.639
zig	-11.639
▁Camil	-11.639
▁rompe	-11.6392
▁Dour	-11.6392
▁influído	-11.6394
▁guan	-11.6395
▁incorporado	-11.6395
▁traducir	-11.6401
▁diferenciado	-11.6402
▁puxer	-11.6404
▁Chap	-11.6406
▁rexistrou	-11.6407
▁pane	-11.6415
▁terma	-11.6418
▁parasito	-11.6422
▁pasto	-11.6423
▁polaca	-11.6426
▁sin	-11.6435
▁deixaba	-11.6435
▁talla	-11.6439
stro	-11.6439
▁procesado	-11.644
▁investigar	-11.6449
OS	-11.6452
▁Jan	-11.6453
▁Teb	-11.6454
▁economista	-11.6466
▁hélice	-11.6466
▁túmulo	-11.6466
▁desgraza	-11.6466
▁simbólico	-11.6466
▁ventá	-11.6466
▁Abraham	-11.6466
▁Taboad	-11.6466
▁sabio	-11.6466
▁térmico	-11.6466
▁billón	-11.6466
rosio	-11.6466
▁Toyot	-11.6467
▁masacre	-11.6468
▁dotado	-11.6468
▁directiva	-11.6469
▁inclusión	-11.6473
heim	-11.6473
▁conectada	-11.6473
▁foca	-11.6475
wan	-11.6476
▁exclusivo	-11.6477
▁asesor	-11.6477
▁velo	-11.6477
▁incrementou	-11.6482
▁oscilación	-11.6485
▁intervir	-11.6489
▁African	-11.6491
▁ucraíno	-11.6492
▁Crist	-11.6492
▁cobra	-11.6494
▁Revolucionari	-11.6496
▁sobresae	-11.6497
▁Inclu	-11.6497
▁fórma	-11.6499
ML	-11.6502
▁Riba	-11.6503
▁noven	-11.6505
▁indu	-11.6506
▁vol	-11.6506
▁noruegues	-11.6509
▁Torne	-11.651
▁codifica	-11.6511
▁Tesal	-11.6513
▁cru	-11.6515
▁implicación	-11.6518
▁Hé	-11.6521
▁Zel	-11.6521
▁agricultor	-11.6529
utonomía	-11.6532
▁funcionan	-11.6534
▁xuda	-11.6537
▁Parada	-11.6539
▁esixi	-11.6545
CE	-11.6546
▁dono	-11.6551
▁Octavi	-11.6551
▁agulla	-11.6551
▁constituíndo	-11.6551
▁enfrontá	-11.6551
▁Empréga	-11.6551
▁reliquia	-11.6551
▁etimoloxía	-11.6551
▁filo	-11.6552
▁esixencia	-11.6552
▁convertida	-11.6552
▁dianteira	-11.6553
tico	-11.6553
▁cabelo	-11.6554
▁Pila	-11.6557
▁operar	-11.6559
▁104	-11.656
▁tectónica	-11.6561
▁prestixioso	-11.6563
▁municipalidade	-11.6567
▁Froila	-11.6567
▁Rome	-11.6569
▁disolveu	-11.657
▁raia	-11.6574
mes	-11.6574
▁vectoria	-11.6575
▁radioactivo	-11.6579
▁crean	-11.6579
tru	-11.658
▁estendía	-11.6581
RC	-11.6583
▁oficio	-11.6586
▁xefes	-11.6586
▁Net	-11.6586
▁construtores	-11.6586
▁merece	-11.659
▁xerador	-11.6591
▁quilo	-11.6591
▁bilingüe	-11.6596
▁competidor	-11.6598
▁miner	-11.6599
▁encarga	-11.66
▁encabezado	-11.6601
ith	-11.6603
servatorio	-11.6615
▁pechar	-11.6615
▁Kim	-11.6624
ang	-11.6629
iev	-11.6633
cotiledón	-11.6637
▁Kennedy	-11.6637
▁alusión	-11.6637
▁planicie	-11.6637
▁recompensa	-11.6637
▁máscara	-11.6637
▁pretensión	-11.6637
▁Hayd	-11.6637
▁Benjam	-11.6638
▁ultramar	-11.6638
▁espiña	-11.6638
▁desorde	-11.6639
▁involucrado	-11.664
▁indicio	-11.664
▁atribuído	-11.664
▁comparado	-11.6642
▁tellado	-11.6642
▁Apoll	-11.6645
▁móstra	-11.6646
▁vencido	-11.6646
▁glaciación	-11.6647
▁103	-11.6648
aba	-11.6652
iami	-11.6652
suna	-11.6656
▁más	-11.6657
▁Barca	-11.6658
pol	-11.6658
▁rexen	-11.666
ficiencia	-11.6672
▁dist	-11.6676
▁álx	-11.6676
ace	-11.6677
▁moderniza	-11.6679
▁comen	-11.6696
▁xe	-11.67
latón	-11.67
▁comprar	-11.6701
quitan	-11.6702
▁Band	-11.6705
▁Lind	-11.6707
▁influír	-11.6711
▁predominan	-11.6711
▁acu	-11.6713
▁empera	-11.6717
▁luce	-11.6718
▁luxo	-11.6719
púsc	-11.6724
▁Stephen	-11.6724
▁deformación	-11.6724
▁expectativa	-11.6724
▁monetaria	-11.6724
▁pesqueiro	-11.6724
▁reclamo	-11.6724
▁triangular	-11.6724
▁xemelgo	-11.6724
▁divino	-11.6724
▁pesqueira	-11.6724
▁inercia	-11.6724
▁Meridi	-11.6724
▁biodi	-11.6725
▁Plut	-11.6725
▁marrón	-11.6725
▁rexurdi	-11.6725
▁mesturado	-11.6727
▁pelota	-11.6729
▁asentar	-11.6731
▁Manet	-11.6732
▁multiplica	-11.6733
▁Matt	-11.6737
sentimento	-11.674
▁suprem	-11.6741
▁obsérva	-11.6746
mira	-11.6747
vila	-11.6748
▁Salmo	-11.6755
▁leira	-11.676
▁encontran	-11.6763
ove	-11.677
uck	-11.6771
▁Belgra	-11.6776
pón	-11.6787
▁impreso	-11.6787
ash	-11.6793
▁Mendo	-11.6794
anda	-11.6795
▁pastore	-11.6796
esenvolvemento	-11.6799
▁Histori	-11.68
▁comezara	-11.6807
▁fino	-11.681
▁admiti	-11.6811
troit	-11.6812
▁restablece	-11.6812
▁sánscrit	-11.6812
▁variábe	-11.6812
▁vietnamita	-11.6812
▁rostro	-11.6812
▁Química	-11.6812
▁Comarca	-11.6812
▁valenciano	-11.6813
▁transparente	-11.6813
▁asasinar	-11.6814
▁Jazz	-11.6815
▁necesitaba	-11.6818
▁colocada	-11.682
▁sanción	-11.6822
▁frontal	-11.6822
▁fóron	-11.6826
▁prohibiu	-11.6827
▁ampliou	-11.6833
▁ascendente	-11.6834
▁comporta	-11.6834
▁Corn	-11.6839
bor	-11.6839
▁101	-11.6841
▁restaura	-11.6841
▁graduou	-11.6841
▁And	-11.6842
▁anti	-11.6843
orio	-11.6849
idas	-11.685
▁li	-11.6851
▁aborda	-11.6851
▁Sex	-11.6861
▁administrado	-11.6861
▁cós	-11.6861
▁Cente	-11.6862
▁Eur	-11.6862
▁ecolox	-11.6864
adores	-11.6866
lie	-11.687
▁saca	-11.6871
anxo	-11.688
outo	-11.6881
▁visitado	-11.6882
▁Bea	-11.6886
▁Libera	-11.6887
▁Dur	-11.689
▁mencionar	-11.6892
▁simplifica	-11.6893
▁dedíca	-11.6894
▁Wat	-11.6896
▁compilador	-11.6897
▁anarquis	-11.6897
▁Main	-11.69
▁Xud	-11.69
▁Eurocopa	-11.69
▁Século	-11.69
▁desaparecida	-11.69
▁escríbe	-11.69
▁exercía	-11.69
▁subxénero	-11.69
▁dignidade	-11.69
▁enerxético	-11.69
▁chamába	-11.69
▁pecado	-11.6901
▁emerxencia	-11.6901
▁resonancia	-11.6901
tío	-11.6901
▁proposición	-11.6901
▁buscan	-11.6902
▁aproveitou	-11.6903
rís	-11.6905
▁redactor	-11.6906
▁compartida	-11.6906
auber	-11.6908
▁pozo	-11.6909
tívo	-11.691
▁estoup	-11.6911
▁poñendo	-11.6912
▁levantar	-11.6913
burg	-11.6917
▁predomina	-11.6918
remos	-11.6922
▁Carr	-11.6923
▁resistir	-11.6928
rraca	-11.693
▁chaman	-11.6931
bula	-11.6939
tain	-11.6942
erra	-11.6943
▁ficar	-11.6944
▁efectivos	-11.6944
▁mol	-11.6948
▁precisaba	-11.6951
▁acabaría	-11.6952
▁Divers	-11.6955
▁vita	-11.6956
#	-11.6957
▁pinta	-11.6958
▁It	-11.6961
▁Kha	-11.6962
▁Philip	-11.6964
▁She	-11.6965
▁Barrio	-11.6966
▁Luci	-11.6966
▁Seu	-11.6968
adical	-11.6969
▁coinciden	-11.6971
▁recorre	-11.6972
pureza	-11.6976
▁recorda	-11.6977
▁Anta	-11.698
nocenci	-11.6981
▁Comun	-11.6982
▁Nick	-11.6986
▁Especial	-11.6989
▁Había	-11.699
▁Singap	-11.699
▁camión	-11.699
▁conífera	-11.699
▁hórreo	-11.699
▁húngara	-11.699
▁semicircular	-11.699
▁cronista	-11.699
▁feixe	-11.699
▁esposo	-11.699
▁incuba	-11.699
▁mentais	-11.699
▁Aquel	-11.699
▁salientable	-11.699
▁Uxí	-11.699
▁formá	-11.699
▁neta	-11.6991
▁toque	-11.6992
▁Natura	-11.6994
▁gravitaciona	-11.6995
▁ancián	-11.6999
▁exista	-11.6999
▁Russel	-11.7001
▁Porque	-11.7004
▁napoleónica	-11.7004
▁voa	-11.7005
lot	-11.7007
▁Deza	-11.701
▁eslava	-11.7011
▁qué	-11.7012
▁bárbaro	-11.7015
▁conversación	-11.7016
vais	-11.7018
▁Az	-11.702
▁acabado	-11.7022
▁Feder	-11.7023
ara	-11.7024
▁Cha	-11.7025
IC	-11.7027
area	-11.7027
▁Rú	-11.7027
NA	-11.7028
dez	-11.7032
▁Nai	-11.7033
▁cargada	-11.7035
▁tím	-11.7038
▁Vincen	-11.7039
mir	-11.7043
▁celebrá	-11.7044
▁centenar	-11.7046
▁Hous	-11.7048
▁desenvolvé	-11.7052
▁Castill	-11.7055
▁Prince	-11.7062
▁Let	-11.7063
▁certame	-11.7065
side	-11.7069
▁botar	-11.707
esta	-11.7075
▁Lincoln	-11.708
▁intestino	-11.708
▁lugu	-11.708
▁maiúscula	-11.708
▁periférico	-11.708
▁psicolóxica	-11.708
▁vacú	-11.708
icaragua	-11.708
▁adversario	-11.708
uwat	-11.708
▁gozo	-11.708
▁Vanua	-11.708
▁funerario	-11.708
▁expreso	-11.7081
▁repetición	-11.7085
▁Arsen	-11.7086
▁fará	-11.7086
▁depredador	-11.7088
▁Ronald	-11.7088
▁criticado	-11.7089
▁fotógrafo	-11.7089
▁fican	-11.709
▁cortar	-11.7091
▁considéran	-11.7094
▁expulsar	-11.7096
▁cruzamento	-11.7097
▁Tar	-11.7097
▁emocional	-11.7098
▁imita	-11.7098
▁doente	-11.7101
▁secuestrado	-11.7102
eoría	-11.7104
▁Eix	-11.7105
▁solicit	-11.7107
▁fosfato	-11.7108
▁holandesa	-11.7113
▁Loi	-11.7114
▁desembarcar	-11.7114
▁ensina	-11.7115
▁aprende	-11.7115
kin	-11.7115
▁Sub	-11.7118
illa	-11.7119
corporal	-11.7122
▁lidera	-11.7123
▁puidera	-11.7128
▁video	-11.7128
▁ped	-11.7132
▁comunicado	-11.7132
▁queren	-11.7134
▁Mira	-11.7137
▁mercar	-11.7144
▁atender	-11.7145
▁Emilia	-11.7145
ixón	-11.7151
▁gañado	-11.7151
ima	-11.7156
▁xuntar	-11.7156
▁percorrer	-11.7157
composición	-11.7163
▁Christoph	-11.7171
▁Izquierd	-11.7171
▁atlántico	-11.7171
▁billete	-11.7171
▁circundante	-11.7171
▁déficit	-11.7171
▁estrito	-11.7171
▁fonético	-11.7171
▁harmonía	-11.7171
▁helicóptero	-11.7171
▁necrópole	-11.7171
▁vocábulo	-11.7171
▁válida	-11.7171
▁árbitro	-11.7171
▁promotor	-11.7171
ércul	-11.7171
▁moble	-11.7171
▁Programa	-11.7171
▁Robin	-11.7171
▁microscopio	-11.7171
▁erudito	-11.7172
▁impresionista	-11.7172
▁adicada	-11.7172
▁fotos	-11.7172
▁xoia	-11.7172
▁silvestre	-11.7174
▁especulación	-11.7174
-200	-11.7176
nesia	-11.7177
▁Lanza	-11.718
atarata	-11.718
▁Camba	-11.7183
▁Reg	-11.7192
▁preguntas	-11.7194
▁xitano	-11.7194
▁pagán	-11.7201
▁embaixada	-11.7204
▁Ved	-11.7205
▁servid	-11.7208
▁empate	-11.7209
ller	-11.7211
▁cultivado	-11.7216
udh	-11.722
▁mostraba	-11.7222
▁Pie	-11.7224
▁Cou	-11.7225
▁estelar	-11.7227
▁Fara	-11.723
mad	-11.723
▁Belé	-11.7233
nsito	-11.7238
▁Sarri	-11.724
▁pi	-11.724
má	-11.7244
▁estudant	-11.7249
▁cadra	-11.7253
▁Mercur	-11.7253
▁esquí	-11.7256
róximo	-11.7261
▁amiga	-11.7262
▁Papúa	-11.7262
▁carecía	-11.7262
▁distintivo	-11.7262
▁hidroeléctrica	-11.7262
▁informou	-11.7262
▁pelexa	-11.7262
▁pneumático	-11.7262
▁ribosoma	-11.7262
▁circunscrición	-11.7262
hídrico	-11.7263
▁interferencia	-11.7263
▁envío	-11.7263
▁Studio	-11.7263
▁interesou	-11.7263
aliya	-11.7264
▁Old	-11.7264
▁colega	-11.7265
▁debuxante	-11.7266
▁barro	-11.7267
▁prioridade	-11.7268
▁Igna	-11.7268
▁sobrevivente	-11.727
▁aspiración	-11.7271
▁transmite	-11.7273
▁marcar	-11.7276
▁estará	-11.7277
▁confirmado	-11.7277
▁Brad	-11.7278
ágora	-11.728
▁dálle	-11.7282
aspar	-11.7282
▁Anei	-11.7283
▁curmán	-11.7286
vin	-11.7294
▁Feira	-11.7298
▁fornecer	-11.73
▁mant	-11.7304
ana	-11.7306
▁conectar	-11.731
▁Corre	-11.7312
llas	-11.7313
▁aprecia	-11.7315
▁opoñente	-11.7315
▁escur	-11.7317
▁fixese	-11.7318
món	-11.732
om	-11.732
▁pra	-11.7325
uki	-11.7327
▁Sm	-11.7327
▁Mile	-11.7329
▁practicar	-11.7332
▁Berna	-11.7333
▁Mend	-11.7333
▁provocan	-11.7337
▁pasada	-11.7345
▁sito	-11.7348
▁tornar	-11.7348
síntese	-11.7349
▁carecen	-11.735
▁resultan	-11.735
ly	-11.7354
▁patria	-11.7355
▁Akhenat	-11.7355
▁Bridge	-11.7355
▁Coñecid	-11.7355
▁Ortega	-11.7355
▁acorde	-11.7355
▁compilación	-11.7355
▁rochosa	-11.7355
▁únese	-11.7355
▁monstro	-11.7355
▁Denomína	-11.7355
▁seareiro	-11.7355
▁Vladimir	-11.7355
▁bélico	-11.7355
▁fusilado	-11.7355
▁complicado	-11.7355
▁Brook	-11.7355
▁milagre	-11.7355
▁urbanización	-11.7356
▁Í	-11.7356
erkel	-11.7356
▁Labor	-11.7358
▁Cri	-11.7358
▁tardía	-11.7361
▁colonizado	-11.7362
▁Punt	-11.7363
▁horario	-11.7363
art	-11.7366
dela	-11.7367
ambul	-11.7368
▁Aquile	-11.7369
▁vea	-11.7369
▁atacada	-11.7372
▁permitido	-11.7374
cena	-11.7376
ave	-11.7378
▁circun	-11.7378
▁envia	-11.7378
▁deixara	-11.7378
▁Salt	-11.7379
▁Gö	-11.738
chel	-11.7384
▁evolucionar	-11.739
▁estepa	-11.7391
▁almacenar	-11.7395
▁compostelá	-11.7395
▁fracción	-11.7396
pest	-11.7399
mann	-11.7401
ntaxe	-11.7403
▁aleta	-11.7408
▁ensinou	-11.7412
▁Ju	-11.7418
▁supoñen	-11.7419
▁escalar	-11.742
▁axudan	-11.7426
▁Vers	-11.7438
▁Fá	-11.7439
▁reduci	-11.7442
▁deseñar	-11.7447
írculo	-11.7448
▁Copenhague	-11.7449
▁acústica	-11.7449
▁evolutivo	-11.7449
▁extremidade	-11.7449
▁prexuízo	-11.7449
▁propicio	-11.7449
▁fervenza	-11.7449
▁Drive	-11.7449
▁Machine	-11.7449
▁escudería	-11.7449
▁prominente	-11.7449
▁Semana	-11.745
▁Gilbert	-11.7451
ich	-11.7454
▁peseta	-11.7454
▁voceiro	-11.7456
▁consagrado	-11.7456
▁Caraca	-11.7456
bertura	-11.7457
robable	-11.7457
▁corta	-11.7459
▁Out	-11.746
dí	-11.7462
▁Pac	-11.7464
▁informativo	-11.7464
▁imitación	-11.7468
▁Hesse	-11.7471
▁monárquico	-11.7471
ferencia	-11.7474
▁Agu	-11.7478
▁prado	-11.7479
▁xeolox	-11.7481
enco	-11.7486
▁gobernaba	-11.7487
▁carte	-11.7495
obio	-11.75
▁hip	-11.7503
▁coala	-11.7503
ood	-11.7507
▁morrera	-11.7512
▁reitor	-11.7522
▁Ris	-11.7525
▁reacciona	-11.7529
tela	-11.7536
▁visi	-11.7537
▁FA	-11.754
▁cornixa	-11.7543
▁receita	-11.7543
▁simbólica	-11.7543
▁Tasman	-11.7543
▁sensibilidade	-11.7543
▁agrario	-11.7543
▁sublevado	-11.7543
▁tambor	-11.7543
rnst	-11.7543
▁arame	-11.7543
▁atribuída	-11.7544
▁Herc	-11.7545
▁Morris	-11.7545
▁Dá	-11.7545
▁Obtiv	-11.7545
▁foxo	-11.7545
▁Cruzada	-11.7547
ello	-11.7547
▁Dada	-11.7549
▁prob	-11.7549
▁aposta	-11.7549
▁Peña	-11.7551
▁observatorio	-11.7553
▁Selecci	-11.7553
▁preferido	-11.7555
icios	-11.7555
▁estabelece	-11.7557
▁dianteiro	-11.756
▁pretendente	-11.7563
▁rexistra	-11.7563
llar	-11.7564
▁leg	-11.7565
euta	-11.7567
tem	-11.7568
▁léva	-11.7575
▁Hon	-11.7577
▁albanes	-11.7581
▁túa	-11.7588
liza	-11.7591
lada	-11.7594
▁Xén	-11.7597
▁compostelán	-11.7597
▁Cibr	-11.7597
▁cloro	-11.7599
▁Angeles	-11.7602
reb	-11.7606
▁ritual	-11.761
▁Film	-11.7612
▁fi	-11.7613
▁Conserva	-11.762
▁Salón	-11.7628
▁reclama	-11.7628
▁xogaba	-11.7629
ndy	-11.7631
▁caen	-11.7634
▁inmedia	-11.7635
razo	-11.7636
▁ameixa	-11.7638
▁catástrofe	-11.7638
▁insulin	-11.7638
▁maioritario	-11.7638
▁pacífica	-11.7638
▁polímero	-11.7638
▁preparou	-11.7638
▁tecnolóxica	-11.7638
▁láser	-11.7638
▁detallada	-11.7638
▁apartamento	-11.7638
▁Pastor	-11.7639
▁Cels	-11.764
rote	-11.7645
▁preparada	-11.7645
▁procedencia	-11.7646
▁BD	-11.7649
▁dispers	-11.765
consi	-11.7652
▁situou	-11.7654
▁Ali	-11.7655
▁solicitar	-11.7658
gen	-11.7659
he	-11.7659
SM	-11.766
▁Casal	-11.7665
▁nu	-11.7667
▁God	-11.7675
versa	-11.7675
▁ist	-11.7676
▁escoll	-11.7679
▁fórman	-11.7684
▁obvia	-11.7684
▁episcopa	-11.7685
▁Pesca	-11.7688
▁Austra	-11.7698
▁alcanzan	-11.7701
cano	-11.7707
▁Tob	-11.771
rtiza	-11.7715
▁lun	-11.772
▁Espart	-11.772
▁Colli	-11.7724
uten	-11.7724
▁Tok	-11.7732
▁feminis	-11.7732
▁Acordo	-11.7734
▁agasallo	-11.7734
▁curiosa	-11.7734
▁endémica	-11.7734
▁mosaico	-11.7734
▁mártir	-11.7734
▁proporcionou	-11.7734
▁rochoso	-11.7734
▁rupestre	-11.7734
▁Puebl	-11.7734
▁redonda	-11.7734
mnist	-11.7734
▁burro	-11.7734
▁pilota	-11.7734
▁substrato	-11.7734
lmí	-11.7734
▁hidrográfica	-11.7734
▁ocorrido	-11.7734
▁pronome	-11.7734
▁cranio	-11.7735
▁desempeña	-11.7735
▁sepultura	-11.7735
▁proviña	-11.7735
▁prevista	-11.7735
▁milímetro	-11.7736
▁castaño	-11.7736
▁alelo	-11.7736
▁cónta	-11.7736
ogh	-11.7737
▁novidade	-11.7738
▁Cer	-11.7739
▁Estrela	-11.7741
▁combinada	-11.7743
ernández	-11.7743
▁Magda	-11.7743
▁retiro	-11.7745
▁xesto	-11.7746
▁insisti	-11.7747
▁747	-11.7748
▁chegara	-11.7748
▁estimado	-11.7749
▁Mariño	-11.7752
▁evacua	-11.7758
▁critica	-11.7765
▁contrasta	-11.777
▁Flore	-11.7776
▁Laura	-11.7776
▁biomas	-11.7785
▁ánim	-11.7785
▁señoria	-11.7786
▁perden	-11.7799
▁cór	-11.78
▁Ale	-11.7801
bón	-11.7804
ete	-11.7809
▁ecuatoria	-11.781
coñécese	-11.7816
zz	-11.7817
▁elabora	-11.782
▁Agosti	-11.7822
▁manifestou	-11.7826
K	-11.7829
tina	-11.783
onverteu	-11.7831
ategoría	-11.7831
▁Pond	-11.7831
▁coloquial	-11.7831
}	-11.7831
▁pantalón	-11.7831
▁produza	-11.7831
▁Pipin	-11.7831
▁herexía	-11.7831
▁Permane	-11.7831
▁Evanxeo	-11.7831
▁ficticio	-11.7831
▁mouro	-11.7832
▁inaugurada	-11.7832
▁8,	-11.7832
▁rexemento	-11.7833
cer	-11.7835
▁ordenamento	-11.7838
▁transformada	-11.7838
▁chámaselle	-11.7839
▁ordenada	-11.784
▁apuntado	-11.784
▁dama	-11.7841
▁avaliación	-11.7844
▁administrar	-11.7848
▁traseira	-11.7849
▁paro	-11.785
▁estudada	-11.7851
▁herd	-11.7854
▁accidentad	-11.7859
▁Dona	-11.7862
baix	-11.7862
▁deteriora	-11.7863
▁cubano	-11.7866
▁Pand	-11.7866
▁cativ	-11.7868
▁achegado	-11.7868
▁Clo	-11.7872
▁trá	-11.7872
com	-11.7886
▁caca	-11.789
▁Dominica	-11.789
tección	-11.7891
▁entro	-11.7895
▁acordou	-11.7899
▁semanal	-11.79
ailand	-11.7904
ouri	-11.7905
icultura	-11.7907
▁balan	-11.7909
renal	-11.791
▁fecunda	-11.7911
▁Tet	-11.7914
▁actuaba	-11.7916
edro	-11.7924
▁ampliad	-11.7926
▁excelen	-11.7927
▁Google	-11.7929
▁astronómico	-11.7929
▁compartía	-11.7929
▁controvertida	-11.7929
▁pianista	-11.7929
▁secular	-11.7929
▁érgue	-11.7929
▁alongada	-11.7929
▁emenda	-11.7929
▁Cabaleiro	-11.793
▁goma	-11.793
▁zume	-11.793
▁tórna	-11.793
▁estudaba	-11.793
▁Lope	-11.7932
▁cálida	-11.7932
▁rendeu	-11.7932
▁remoto	-11.7933
▁Corpora	-11.7934
▁bautism	-11.7934
▁semanario	-11.7936
▁Cup	-11.7937
enfe	-11.794
rús	-11.7941
▁recomendación	-11.7944
redo	-11.7944
▁tango	-11.7951
▁Parti	-11.7951
▁liberada	-11.7952
▁federa	-11.7953
ebra	-11.7955
lase	-11.7955
▁óptico	-11.7956
▁Circ	-11.7956
▁Anto	-11.7958
vora	-11.7958
▁Bai	-11.7959
▁indicación	-11.7961
▁boi	-11.7966
▁avenida	-11.7967
▁render	-11.7967
▁Tong	-11.7971
▁comezaría	-11.7971
▁inverna	-11.7973
▁gozaba	-11.7977
▁cria	-11.7979
▁causante	-11.798
▁determinan	-11.7981
elva	-11.7985
▁admite	-11.7987
ES	-11.7988
▁teu	-11.7988
▁pantanos	-11.7995
▁senso	-11.8
▁ilustra	-11.8001
unqueira	-11.8002
▁Naval	-11.8008
inda	-11.8013
▁Queen	-11.802
ático	-11.8025
▁franquis	-11.8026
óptero	-11.8028
▁Caracteríza	-11.8028
▁Recibe	-11.8028
▁Xuventude	-11.8028
▁compañeira	-11.8028
▁ibérico	-11.8028
▁móve	-11.8028
▁prehistórico	-11.8028
▁Court	-11.8028
▁enfrónta	-11.8028
▁terciario	-11.8029
▁embrión	-11.803
▁gala	-11.8031
▁centenario	-11.8032
▁Tíbe	-11.8033
▁Antho	-11.8034
▁ascendido	-11.8034
▁imparti	-11.8035
aixón	-11.8036
▁han	-11.8039
▁carbonato	-11.804
▁termodinámic	-11.8043
▁construíndo	-11.8043
▁sumerio	-11.8049
tila	-11.8057
fi	-11.8062
▁Polic	-11.8066
▁despedido	-11.8069
xase	-11.807
▁escritorio	-11.8078
▁excede	-11.8083
▁cómic	-11.8084
gart	-11.8088
cado	-11.8089
▁hospita	-11.8089
▁Zen	-11.8093
cencia	-11.8096
▁convencer	-11.8098
doría	-11.8106
leiro	-11.8106
▁Ac	-11.811
▁Amen	-11.8112
▁-1	-11.8114
▁vocal	-11.8115
▁Carva	-11.8116
lido	-11.8118
▁Capa	-11.812
▁abdom	-11.8127
oalición	-11.8128
▁Precisa	-11.8128
▁acompañou	-11.8128
▁cheminea	-11.8128
▁descríbe	-11.8128
▁mítico	-11.8128
▁olímpica	-11.8128
▁reparación	-11.8128
▁whisk	-11.8128
▁invernadoiro	-11.8128
▁convocatoria	-11.8128
▁prefixo	-11.8128
▁solidari	-11.8128
▁Monumento	-11.8128
▁Crític	-11.8128
▁estético	-11.8128
▁terrible	-11.8129
▁decorativo	-11.8129
▁cabid	-11.8129
▁recipiente	-11.8129
ling	-11.8129
continente	-11.813
▁Java	-11.813
▁abstracto	-11.813
▁instalada	-11.8132
▁Freire	-11.8132
▁Trent	-11.8133
▁cualificado	-11.8133
▁cuarteto	-11.8133
▁Bow	-11.8136
den	-11.8137
rdam	-11.8139
▁mensual	-11.8139
▁Pequ	-11.8141
carta	-11.8142
▁galaico	-11.8142
zbe	-11.8145
▁probou	-11.815
▁indoeuropeo	-11.8152
▁viñer	-11.8154
ju	-11.8156
▁formig	-11.8158
▁estabelecer	-11.8159
cles	-11.8164
▁paga	-11.8169
▁Administrativa	-11.817
▁Villar	-11.8174
hard	-11.8182
▁Cob	-11.819
▁Catal	-11.8192
▁Ex	-11.8192
moción	-11.8196
▁habe	-11.8196
▁Rich	-11.8197
▁post	-11.8199
dicional	-11.8201
▁apunta	-11.8203
▁tive	-11.821
▁Patric	-11.8213
algar	-11.8213
molo	-11.8225
▁fascis	-11.8227
▁Saú	-11.8228
▁Petr	-11.8228
éxime	-11.8229
▁folcl	-11.8229
▁Metropolitan	-11.8229
▁carballeira	-11.8229
▁cinematográfico	-11.8229
▁dialecta	-11.8229
▁explosivo	-11.8229
▁híbrido	-11.8229
▁inventado	-11.8229
▁mandíbula	-11.8229
▁mascota	-11.8229
▁piscina	-11.8229
▁retirá	-11.8229
▁aborixe	-11.8229
▁líquida	-11.8229
▁rinoceronte	-11.8229
▁Crónica	-11.8229
▁enerxética	-11.8229
▁adhesión	-11.8229
▁fermentación	-11.823
▁terapia	-11.823
ground	-11.823
▁afiliado	-11.823
▁humanista	-11.823
▁Church	-11.823
▁Musso	-11.823
▁Aliado	-11.823
vertebrado	-11.8231
actitude	-11.8232
concerto	-11.8232
▁lendario	-11.8233
▁Savo	-11.8234
▁queima	-11.8234
quino	-11.8236
▁Meir	-11.8236
▁Planta	-11.8236
▁estaleiro	-11.8236
▁enseada	-11.8236
▁liso	-11.8236
▁anano	-11.8238
biografía	-11.8239
▁ilusión	-11.824
▁pide	-11.824
amaica	-11.8242
▁Wol	-11.8242
▁comparar	-11.8246
▁substitúe	-11.825
▁reclamación	-11.8251
toba	-11.8251
▁xenérico	-11.8254
▁Cine	-11.8255
DE	-11.8255
▁Mid	-11.8257
ER	-11.8261
▁reconstruí	-11.8262
▁230	-11.8266
▁Mé	-11.8271
zaro	-11.8272
▁Informa	-11.8273
▁cubo	-11.8274
ep	-11.8276
▁Obra	-11.8277
▁presta	-11.828
▁magne	-11.8282
▁vota	-11.8283
▁Barba	-11.8283
è	-11.8287
▁produtiv	-11.829
▁Pereira	-11.83
▁neo	-11.83
▁cir	-11.8302
ufra	-11.8311
▁ci	-11.8312
rpo	-11.8312
▁Deix	-11.8313
▁gozar	-11.8313
gración	-11.8324
▁desinte	-11.8327
▁Humb	-11.8331
▁austríaca	-11.8331
▁batallón	-11.8331
▁camiseta	-11.8331
▁decorada	-11.8331
▁diabetes	-11.8331
▁discográfico	-11.8331
▁estómago	-11.8331
▁neutro	-11.8331
▁néboa	-11.8331
▁vulnerable	-11.8331
▁diríxe	-11.8331
▁numérico	-11.8331
▁vasta	-11.8331
▁colmea	-11.8331
▁berro	-11.8331
▁sintético	-11.8331
▁repite	-11.8331
▁fiable	-11.8332
▁zo	-11.8332
▁comercializa	-11.8332
▁Wiki	-11.8333
▁pH	-11.8333
video	-11.8334
▁Mik	-11.8337
camp	-11.8337
▁Coto	-11.8338
▁mobilización	-11.8338
▁Atlétic	-11.8339
pera	-11.834
▁contradición	-11.8341
▁Abe	-11.8341
▁pedi	-11.8343
▁magnet	-11.8345
▁tard	-11.8346
▁peón	-11.8347
▁Honori	-11.8347
óveda	-11.8348
▁araña	-11.835
▁sufría	-11.835
▁seda	-11.8354
▁temor	-11.8359
▁trío	-11.8365
ritz	-11.8367
▁Barri	-11.8367
arco	-11.837
dán	-11.8371
▁especificación	-11.838
▁derrotada	-11.8381
▁Verd	-11.8383
▁denso	-11.8384
▁disputado	-11.8386
▁proceder	-11.8389
▁Cristian	-11.8401
▁lix	-11.8402
▁retroce	-11.8403
▁apoder	-11.8405
iya	-11.8405
grama	-11.8405
▁pá	-11.8405
cub	-11.8411
▁obrigación	-11.8413
▁repoboa	-11.8433
ealth	-11.8433
eto	-11.8433
bkhaz	-11.8435
▁interrupción	-11.8435
▁meteorolóxica	-11.8435
▁organíza	-11.8435
▁sinfonía	-11.8435
▁pechou	-11.8435
▁fermoso	-11.8435
▁Fam	-11.8435
rro	-11.8435
▁cristalino	-11.8435
▁suplemento	-11.8436
▁Chad	-11.8436
▁abstracta	-11.8436
▁imaxinario	-11.8437
▁faceta	-11.8437
elixido	-11.8439
▁convocado	-11.844
liver	-11.8441
▁Ingres	-11.8441
▁renome	-11.8442
▁optou	-11.8446
▁Ken	-11.8447
▁convidado	-11.8449
▁metano	-11.8451
▁Bag	-11.8451
▁capturada	-11.8453
▁colle	-11.8453
▁Globo	-11.8462
▁imperia	-11.8464
▁Quiz	-11.8465
▁vermes	-11.847
▁dezase	-11.8472
guía	-11.8473
▁Sociedad	-11.8475
000	-11.8478
▁Caban	-11.8479
scape	-11.8486
real	-11.8488
▁Salced	-11.8489
▁Direc	-11.849
▁Principal	-11.8498
ódo	-11.8499
▁Jane	-11.8501
▁suprimi	-11.851
▁construtor	-11.8515
▁morren	-11.8515
▁Berengue	-11.8516
iñas	-11.8517
stone	-11.8519
inc	-11.8522
azán	-11.8528
nesse	-11.8528
éronlle	-11.8528
mática	-11.8529
▁Tai	-11.8534
▁permanen	-11.8537
▁traxecto	-11.8538
▁desafío	-11.8539
▁entusiasm	-11.8539
▁inimiga	-11.8539
▁lexitim	-11.8539
▁tsunami	-11.8539
▁Chamberl	-11.8539
▁extinta	-11.8539
▁lagarto	-11.8539
▁raposo	-11.8539
▁ambición	-11.8539
▁permita	-11.8539
▁atraído	-11.854
▁maxistrado	-11.8542
▁indi	-11.8545
▁est	-11.8546
▁lucense	-11.8546
▁procesador	-11.8548
▁Alg	-11.855
▁cronolox	-11.855
▁facenda	-11.855
▁mansión	-11.855
▁coello	-11.8556
▁Hart	-11.8558
▁Trac	-11.8558
▁múltiplo	-11.8564
mil	-11.8567
▁envolve	-11.8567
▁portuaria	-11.857
▁particularidade	-11.8574
▁compro	-11.8575
▁licenciou	-11.8578
▁chá	-11.8584
para	-11.8585
▁Good	-11.8586
▁corvo	-11.8587
▁unificado	-11.8587
pintar	-11.8589
▁dupl	-11.8591
▁crías	-11.8592
ñace	-11.8594
▁Fid	-11.8595
▁Lour	-11.8595
ming	-11.8597
▁perla	-11.8599
▁crente	-11.8614
▁clar	-11.8617
▁prohib	-11.862
▁cole	-11.8625
▁Acer	-11.863
▁provocado	-11.8631
▁practicante	-11.8631
lock	-11.8633
▁Area	-11.8635
▁entraba	-11.8635
▁patro	-11.8637
▁prostitu	-11.8637
▁óleo	-11.8638
▁bolboreta	-11.8644
▁minoritaria	-11.8644
▁naufraxio	-11.8644
▁permanecía	-11.8644
▁romántica	-11.8644
▁cabina	-11.8644
▁vicerrei	-11.8644
▁Bank	-11.8644
▁Freud	-11.8644
▁apropiado	-11.8644
▁escama	-11.8644
▁complicada	-11.8644
▁Gius	-11.8644
▁René	-11.8644
▁Deporte	-11.8644
▁comisario	-11.8644
▁carencia	-11.8645
▁creativa	-11.8645
▁impar	-11.8645
▁charla	-11.8645
▁taxi	-11.8645
▁brando	-11.8646
▁fertili	-11.8646
▁regula	-11.8647
▁celo	-11.8648
▁Regres	-11.8648
▁restaurada	-11.865
▁pintada	-11.865
cuña	-11.865
▁cubría	-11.865
▁convencido	-11.8654
▁Joy	-11.8654
▁Onda	-11.8656
▁compá	-11.8656
▁integr	-11.8658
▁funcionalidade	-11.8659
▁Méri	-11.866
hans	-11.8661
▁feliz	-11.8663
▁Debut	-11.8663
▁bloqueo	-11.8663
▁dominaba	-11.8665
visión	-11.8666
▁conformad	-11.8666
sex	-11.8669
eria	-11.867
alencia	-11.8675
▁patrocin	-11.8675
▁trib	-11.8676
▁agua	-11.8676
▁Bri	-11.8678
▁Muñ	-11.8678
▁centrado	-11.8682
▁Toma	-11.8682
▁icon	-11.8683
▁Árabe	-11.8685
▁Segura	-11.8687
▁come	-11.8689
▁oportunidades	-11.8689
▁Monterre	-11.869
malai	-11.8691
▁úsan	-11.8709
▁Sou	-11.8713
▁internado	-11.8717
▁Casp	-11.8721
rxia	-11.8727
▁fero	-11.8727
grán	-11.8727
▁escap	-11.8731
▁Pav	-11.8735
▁Ferreir	-11.8736
égue	-11.8743
▁Gri	-11.8743
▁soci	-11.8746
▁rug	-11.8747
▁anglosaxón	-11.875
▁cartucho	-11.875
▁controvertido	-11.875
▁curiosidade	-11.875
▁desacordo	-11.875
▁imposíbe	-11.875
▁logaritmo	-11.875
▁lípido	-11.875
▁perpiaño	-11.875
▁publíca	-11.875
▁Girl	-11.875
▁dolmen	-11.875
▁casual	-11.875
▁Proba	-11.8751
▁fenda	-11.8752
▁calcúla	-11.8752
▁veciñanza	-11.8752
▁trasladada	-11.8754
▁consolidar	-11.8755
▁Xav	-11.8755
▁gandeira	-11.8756
▁abondosa	-11.8756
▁transferido	-11.8756
▁impresionante	-11.8757
iè	-11.8759
▁conceptual	-11.8759
▁inestable	-11.8759
hana	-11.8761
énico	-11.8761
▁xusta	-11.8762
▁neerlandes	-11.8762
▁Disp	-11.8766
▁esloveno	-11.8769
und	-11.8774
▁facia	-11.8774
▁métrica	-11.8776
▁visitada	-11.8779
tex	-11.8781
▁cargado	-11.8784
▁viría	-11.8786
▁Fene	-11.8787
▁perpetua	-11.8788
lica	-11.8791
▁exercida	-11.8792
▁demostran	-11.8793
▁Josep	-11.8797
▁Marian	-11.8798
▁Xab	-11.8814
quín	-11.8819
azor	-11.8821
▁achar	-11.8826
▁alban	-11.8829
rix	-11.8832
▁Monto	-11.8837
▁Bus	-11.8838
▁im	-11.8839
alto	-11.8843
▁Eri	-11.8844
▁Pereir	-11.8848
▁Vim	-11.8856
▁cromat	-11.8858
▁Constitúe	-11.8858
▁agresión	-11.8858
▁ancestra	-11.8858
▁apéndice	-11.8858
▁asegurou	-11.8858
▁clasificou	-11.8858
▁diacrítico	-11.8858
▁divisor	-11.8858
▁fotográfica	-11.8858
▁mixta	-11.8858
▁monopraza	-11.8858
▁parcela	-11.8858
▁recoñecía	-11.8858
▁tripulante	-11.8858
▁valioso	-11.8858
urbio	-11.8858
▁monxa	-11.8858
▁diagona	-11.8858
▁Bryan	-11.8858
▁predición	-11.8858
▁furado	-11.8858
▁arde	-11.8859
▁mantida	-11.8859
▁encontraba	-11.8859
▁AP	-11.8859
pedia	-11.886
▁ofrecía	-11.886
▁regulamento	-11.8862
▁vibración	-11.8862
▁Ámb	-11.8863
▁asignado	-11.8864
▁Cabra	-11.8865
▁consagra	-11.8867
lecer	-11.8868
▁pintado	-11.8869
▁Hunt	-11.8872
▁Milan	-11.8875
▁Pal	-11.8876
▁caldeira	-11.8877
▁prestación	-11.8878
iga	-11.8883
▁Iber	-11.8884
▁Mat	-11.8894
▁pilas	-11.8894
ttle	-11.8895
▁Bab	-11.8896
▁Damas	-11.8897
▁incerta	-11.8897
▁ordenar	-11.8897
▁marcador	-11.8912
▁invadid	-11.8914
▁sumar	-11.8917
▁penso	-11.8921
400	-11.8921
▁Amade	-11.8921
▁Claud	-11.8923
▁Blo	-11.8926
▁simbol	-11.8927
▁achegas	-11.8928
▁responden	-11.893
▁termin	-11.8931
gard	-11.8932
▁confirmar	-11.8933
▁Burt	-11.8933
lista	-11.894
▁reivindica	-11.8941
vel	-11.8942
▁cega	-11.8943
▁organizador	-11.8947
▁Q	-11.8947
▁funcion	-11.8951
▁avanz	-11.8953
elección	-11.8954
mencl	-11.8954
dra	-11.8957
▁marxina	-11.8958
nome	-11.8961
▁Infante	-11.8963
▁triste	-11.8963
dy	-11.8965
▁Contemporáne	-11.8967
▁cuadrangular	-11.8967
▁orgánulo	-11.8967
▁súbdito	-11.8967
▁trasladá	-11.8967
▁vértice	-11.8967
▁divisa	-11.8967
▁torná	-11.8967
▁marxismo	-11.8967
▁arquivolta	-11.8967
▁estimou	-11.8967
▁caloroso	-11.8967
MI	-11.8967
▁xeométrico	-11.8967
▁Xuíz	-11.8967
brida	-11.8967
▁Común	-11.8967
▁xestiona	-11.8968
▁Foot	-11.8969
▁malaria	-11.8969
▁xema	-11.897
▁cristalina	-11.8971
▁Ilustra	-11.8972
▁accidental	-11.8976
pirit	-11.8978
▁crema	-11.8978
sonte	-11.898
▁consumir	-11.898
▁executa	-11.8981
▁Bad	-11.8983
▁cartaxines	-11.8984
▁Axi	-11.8984
liz	-11.8985
▁identificada	-11.8987
▁Base	-11.8988
con	-11.8988
▁neolítico	-11.8989
hol	-11.8989
▁cicl	-11.8994
gona	-11.8996
ianz	-11.8999
vivencia	-11.9
▁recruta	-11.9
▁bote	-11.9001
udhon	-11.9005
dore	-11.9008
▁anotador	-11.9014
▁estabeleceu	-11.9027
▁comprenden	-11.9028
▁Cuart	-11.9034
redes	-11.9039
▁vinga	-11.9039
▁enfronta	-11.904
▁Ho	-11.9042
ttel	-11.9044
▁Leva	-11.9046
▁Mart	-11.9048
céde	-11.9049
▁Correo	-11.9053
llada	-11.9054
▁anunciar	-11.9064
▁270	-11.9069
rati	-11.9072
▁Cambr	-11.9076
▁anexionad	-11.9076
▁asturiana	-11.9076
▁ibérica	-11.9076
▁rechamante	-11.9076
▁Spring	-11.9076
▁menstrua	-11.9076
▁súpe	-11.9076
▁secuela	-11.9076
▁xeógrafo	-11.9076
▁unitario	-11.9077
▁Sucedeu	-11.9077
▁tumor	-11.9077
▁referida	-11.9077
elta	-11.9077
▁Marcia	-11.9078
▁xanela	-11.9078
▁postulado	-11.9079
▁comparada	-11.908
▁implementación	-11.9081
▁rexionalista	-11.9082
▁supervivente	-11.9083
▁Anne	-11.9086
húngaro	-11.9088
alta	-11.9089
▁fich	-11.909
▁infanta	-11.9091
▁sobe	-11.9094
almente	-11.9096
▁Fire	-11.9099
▁abondo	-11.9107
▁Fermi	-11.9112
▁herdeir	-11.9117
ches	-11.9122
zaret	-11.9124
▁coñecían	-11.9124
▁Mec	-11.9127
unta	-11.9128
once	-11.9129
▁afundi	-11.9131
▁docente	-11.9137
urio	-11.9137
▁agrupa	-11.914
▁camiña	-11.9144
▁linde	-11.9146
▁transportado	-11.9148
▁Fi	-11.9159
ambi	-11.9164
▁president	-11.9165
▁ref	-11.9166
inastía	-11.9173
▁linear	-11.9175
▁anota	-11.9176
etaf	-11.9178
▁Constituci	-11.9178
erson	-11.9181
▁face	-11.9181
▁PN	-11.9182
▁galeguis	-11.9185
▁Maga	-11.9188
▁Saxonia	-11.9188
▁confesión	-11.9188
▁extraterrestre	-11.9188
▁gaivota	-11.9188
▁intoxicación	-11.9188
▁nebulosa	-11.9188
▁pictórica	-11.9188
▁videoclip	-11.9188
▁válido	-11.9188
▁consolidou	-11.9188
▁ganancia	-11.9188
▁incrible	-11.9188
▁host	-11.9188
▁amigable	-11.9188
▁Muller	-11.9188
▁Phil	-11.9188
▁Road	-11.9188
▁alegan	-11.9188
▁Hä	-11.9188
▁reorganiza	-11.9188
▁penalti	-11.9189
▁Logro	-11.9189
▁matanza	-11.9189
▁Vide	-11.9189
▁elemental	-11.919
▁Tosca	-11.919
▁espallada	-11.919
▁balcón	-11.919
▁poemario	-11.919
▁nula	-11.9191
▁queixa	-11.9191
tras	-11.9191
▁aumentan	-11.9192
▁transmitido	-11.9194
▁reflectida	-11.9194
▁derivación	-11.9194
▁lisa	-11.9195
▁CF	-11.9196
▁Great	-11.9197
iffe	-11.9197
▁disolver	-11.9197
▁Vanc	-11.9198
▁Edición	-11.9199
GT	-11.92
goberno	-11.92
▁Jenn	-11.9203
▁encarna	-11.9204
rbona	-11.9207
▁737	-11.9207
▁materno	-11.9207
▁Gome	-11.921
▁etrusco	-11.9212
▁Abel	-11.9215
▁disputada	-11.9218
▁Bol	-11.9219
▁dificulta	-11.922
quer	-11.9227
▁constrúen	-11.9228
can	-11.9229
▁Seg	-11.9232
▁automati	-11.9234
xano	-11.9235
▁Creou	-11.9236
▁axudado	-11.9238
▁nomeoun	-11.9243
▁eminente	-11.9249
▁Too	-11.9251
-5	-11.9254
IT	-11.9254
▁boxe	-11.9257
▁nerviosa	-11.926
▁acadan	-11.9262
▁mercante	-11.9262
▁Mach	-11.9262
▁confia	-11.9262
▁escapa	-11.9268
goña	-11.9268
▁nervios	-11.9271
ef	-11.9272
▁aprobar	-11.9273
▁Trist	-11.9275
▁Margar	-11.928
vento	-11.9286
▁recolec	-11.9287
▁amplia	-11.9293
▁Guard	-11.9294
incidencia	-11.9295
bro	-11.9296
▁Tarra	-11.9298
▁prefect	-11.9299
nmediata	-11.9299
▁clarinete	-11.93
▁conxunción	-11.93
▁gratuíta	-11.93
▁prusiano	-11.93
▁analítica	-11.93
▁dubida	-11.93
▁fortalece	-11.93
ílico	-11.93
▁dixestivo	-11.93
▁certificado	-11.9301
▁palla	-11.9301
▁explota	-11.9302
▁comandada	-11.9302
▁HT	-11.9302
reixa	-11.9303
▁Night	-11.9304
▁consisten	-11.9306
▁primate	-11.9308
▁observada	-11.9311
comunidade	-11.9314
▁sonoro	-11.9316
▁salgada	-11.9319
lema	-11.9323
▁daría	-11.9325
▁Lá	-11.9331
▁Corint	-11.9332
ví	-11.9333
unt	-11.9335
▁reprodutor	-11.9342
▁emisor	-11.9342
▁But	-11.9343
▁calzada	-11.9343
▁chileno	-11.9345
▁Buc	-11.9346
▁reina	-11.9346
▁solicita	-11.9346
▁funcionaba	-11.9347
▁acababa	-11.9349
nar	-11.9351
▁adora	-11.9366
▁Pale	-11.9367
▁che	-11.9368
▁aragon	-11.937
▁Barb	-11.9372
▁xurdido	-11.9375
▁atribúese	-11.9376
▁terminais	-11.9378
▁sendeir	-11.9379
▁maia	-11.938
▁Byr	-11.9385
▁baixar	-11.9386
▁quero	-11.9389
▁prel	-11.9392
▁sagrada	-11.9396
queira	-11.9396
▁oliveira	-11.9399
▁ingresar	-11.94
cadou	-11.9401
rrección	-11.9407
▁Róm	-11.9414
▁Dream	-11.9414
▁achegou	-11.9414
▁cardíaco	-11.9414
▁comprendía	-11.9414
▁cualidade	-11.9414
▁dispoñíbe	-11.9414
▁décima	-11.9414
▁motivación	-11.9414
▁plaqueta	-11.9414
▁recompilación	-11.9414
▁residía	-11.9414
▁subcampión	-11.9414
▁ídolo	-11.9414
▁Town	-11.9414
▁baleira	-11.9414
▁Again	-11.9414
▁extinto	-11.9414
▁xeonllo	-11.9414
▁timbre	-11.9414
▁Área	-11.9414
▁engloba	-11.9414
▁devolver	-11.9415
▁Segue	-11.9415
▁modernista	-11.9415
▁armadura	-11.9415
▁surrealista	-11.9416
▁vice	-11.9417
▁acode	-11.9418
▁audición	-11.9419
▁manten	-11.942
▁Ul	-11.9421
▁crego	-11.9422
▁Villen	-11.9423
▁manipulación	-11.9424
▁apreciado	-11.9425
▁operan	-11.9425
▁hemo	-11.9425
▁cometido	-11.9426
▁deixaría	-11.9426
ncer	-11.9427
rake	-11.9427
▁conseguira	-11.9427
garden	-11.9431
▁Frederic	-11.9431
▁Pli	-11.9433
▁reto	-11.9434
amot	-11.9435
▁Niet	-11.9435
▁prosegui	-11.9438
lsacia	-11.9438
▁Mide	-11.9441
▁sacou	-11.9441
▁filamentos	-11.9441
▁descansa	-11.9449
▁barba	-11.9452
▁concentra	-11.9452
▁Toro	-11.9453
▁xenio	-11.9453
▁Xust	-11.9454
lán	-11.9454
▁Wal	-11.9458
▁Edd	-11.9458
▁grafía	-11.946
▁esquecer	-11.946
▁z	-11.9463
▁posibilita	-11.9464
izado	-11.9466
▁burguesa	-11.9469
▁Ay	-11.9474
ranio	-11.9475
▁encabeza	-11.9476
▁Pont	-11.9477
▁incluíron	-11.9479
colleu	-11.9487
▁elíptica	-11.9489
▁soldo	-11.949
orxa	-11.949
▁acumula	-11.9502
▁Luft	-11.9503
rin	-11.9506
CP	-11.9507
▁Lice	-11.9507
▁faino	-11.9508
▁atravesan	-11.951
▁rematan	-11.952
▁Alma	-11.9523
▁cubri	-11.9524
▁Utilíza	-11.9529
▁dispuña	-11.9529
▁fricción	-11.9529
▁férrea	-11.9529
▁inscrito	-11.9529
▁mercancía	-11.9529
▁mitolóxico	-11.9529
▁morcego	-11.9529
▁neutrino	-11.9529
▁plástica	-11.9529
▁hidrocarburo	-11.9529
▁Solidari	-11.9529
▁épico	-11.9529
▁fractura	-11.9529
▁Arquivo	-11.9529
▁Owen	-11.9529
▁Kenya	-11.9529
per	-11.9529
▁téñen	-11.953
▁ausente	-11.9531
▁temperada	-11.9531
▁consumida	-11.9531
▁transmitida	-11.9532
ingt	-11.9532
▁socialdemócrata	-11.9533
ence	-11.9534
▁Morgan	-11.9536
AS	-11.9536
▁portador	-11.9538
▁industrializado	-11.9542
▁recorrer	-11.9542
▁Donat	-11.9542
▁Gate	-11.9546
▁dominan	-11.9548
▁rexistrar	-11.9553
▁Der	-11.9554
▁Museu	-11.9558
▁constituíron	-11.9559
▁Sist	-11.9561
▁achegan	-11.9561
▁elaborou	-11.9563
▁fil	-11.9571
▁Acta	-11.9571
▁caro	-11.9572
▁semántic	-11.9572
▁levanta	-11.9573
▁innovador	-11.9573
▁Dioc	-11.9576
▁agresiva	-11.9576
▁alimentan	-11.9579
▁combinar	-11.9587
▁alterar	-11.9591
▁nulo	-11.9593
▁Cañ	-11.9594
venida	-11.9602
▁Carballi	-11.9606
▁formiga	-11.961
▁lembrar	-11.9612
▁programador	-11.9613
▁Barro	-11.9618
▁pensan	-11.9619
▁coca	-11.9619
▁Mug	-11.9621
▁homosexua	-11.9633
lipse	-11.9645
▁McCart	-11.9645
▁Técnica	-11.9645
▁alzhéimer	-11.9645
▁atmosférico	-11.9645
▁confrontación	-11.9645
▁curioso	-11.9645
▁embarazada	-11.9645
▁estrofa	-11.9645
▁flanco	-11.9645
▁metodoloxía	-11.9645
▁oculto	-11.9645
▁transfórma	-11.9645
▁xoguete	-11.9645
▁secuestro	-11.9645
▁aliménta	-11.9645
▁Democracia	-11.9645
▁Grove	-11.9645
▁redúce	-11.9645
▁fós	-11.9646
ngele	-11.9646
eveland	-11.9647
▁operativos	-11.9647
opér	-11.9648
eptu	-11.9648
▁Familia	-11.9649
▁concentrada	-11.965
▁bela	-11.965
▁sonata	-11.965
▁Manzan	-11.9651
▁incapacidade	-11.9652
▁Fich	-11.9652
▁negar	-11.9655
pice	-11.9656
▁Mayo	-11.9658
▁aclamado	-11.9658
▁cosmo	-11.9659
▁Mato	-11.9659
ioquí	-11.9659
▁acompañar	-11.966
rrib	-11.9661
▁Lev	-11.9662
▁Sexa	-11.9671
▁expandiu	-11.9674
▁supor	-11.9677
▁Four	-11.9677
▁Ferr	-11.9682
▁Lexi	-11.9682
▁Sina	-11.9686
▁hi	-11.9691
▁cinc	-11.9692
▁Rail	-11.9693
▁Pon	-11.9694
▁derivan	-11.9694
▁grel	-11.9694
▁recae	-11.9696
xenx	-11.9699
▁dividía	-11.97
▁Neil	-11.9704
vill	-11.9705
▁coruñes	-11.9711
▁reclamar	-11.9711
▁convenceu	-11.9711
▁Ango	-11.9715
▁centralizad	-11.9716
▁impedi	-11.9717
▁Gut	-11.9719
▁pato	-11.9731
▁Kat	-11.9732
▁salario	-11.9732
▁Zo	-11.9732
▁celebran	-11.9737
▁Dj	-11.9739
14	-11.974
▁Chao	-11.974
▁roto	-11.9744
PL	-11.9745
▁CE	-11.9746
▁Bak	-11.9751
enegal	-11.9752
▁Será	-11.9754
▁Luter	-11.9754
▁dividen	-11.9755
▁proa	-11.9756
▁ní	-11.9757
▁renomead	-11.9757
▁figuran	-11.9759
▁bordea	-11.976
▁Nikola	-11.9762
▁artefacto	-11.9762
▁chuvioso	-11.9762
▁cúbico	-11.9762
▁encárga	-11.9762
▁enterramento	-11.9762
▁espontánea	-11.9762
▁incompleta	-11.9762
▁limítrofe	-11.9762
▁multinaciona	-11.9762
▁nórdica	-11.9762
▁sentimenta	-11.9762
▁sistemático	-11.9762
▁cineasta	-11.9762
▁soluble	-11.9762
▁urbe	-11.9762
▁valiosa	-11.9762
▁cognitiva	-11.9762
▁disolto	-11.9762
moníac	-11.9763
▁pergam	-11.9763
▁articulación	-11.9763
▁filtro	-11.9763
▁amorosa	-11.9763
▁vasto	-11.9763
▁tinta	-11.9763
▁anexa	-11.9763
▁barato	-11.9763
▁Spect	-11.9764
▁corsario	-11.9765
palo	-11.9765
▁molde	-11.9765
▁medran	-11.9766
▁xuntanza	-11.9766
▁cheiro	-11.9767
▁circo	-11.9767
▁fuste	-11.9768
sagrada	-11.9769
je	-11.9771
▁repartida	-11.9773
▁recorrente	-11.9774
▁Bon	-11.9774
▁sedimentaria	-11.9776
▁vestir	-11.9776
▁goleador	-11.9777
▁Blu	-11.9777
▁concentrado	-11.9781
col	-11.9786
▁Har	-11.9786
bane	-11.9787
▁parente	-11.9787
▁cente	-11.9788
▁Brai	-11.9788
▁esperado	-11.9792
▁instaura	-11.9795
clamación	-11.9796
▁Harbo	-11.9796
▁desprende	-11.9797
▁Constanci	-11.9797
gens	-11.9799
▁agresivo	-11.98
▁voan	-11.98
▁adestrado	-11.98
stica	-11.9805
▁Estudio	-11.9807
▁infini	-11.9809
▁Johan	-11.981
tavo	-11.9813
lex	-11.9816
otá	-11.9817
▁Sco	-11.982
▁pesan	-11.9821
streito	-11.9821
dura	-11.9822
eroe	-11.9824
▁recuperado	-11.9826
▁Tex	-11.9826
▁Sh	-11.9829
▁Xordan	-11.9829
lsto	-11.9832
▁Transporte	-11.9833
▁oficios	-11.9835
▁Commo	-11.9836
▁fuxid	-11.9841
sella	-11.9841
eciano	-11.9843
▁baseou	-11.9845
iró	-11.9846
▁convenciona	-11.9848
▁importa	-11.9856
▁conectan	-11.9862
▁Agricult	-11.9862
▁continuaría	-11.9863
▁Tá	-11.9864
▁Fre	-11.9868
▁Padre	-11.9872
▁inmun	-11.9874
▁Susan	-11.9878
ndas	-11.9879
▁Py	-11.988
asílica	-11.9881
▁podé	-11.9881
{	-11.9881
▁afinidade	-11.9881
▁candidata	-11.9881
▁simpatía	-11.9881
▁solucionar	-11.9881
▁televisivo	-11.9881
▁vestimenta	-11.9881
glomera	-11.9881
▁Continu	-11.9881
▁babilonio	-11.9881
▁solicitude	-11.9881
▁designou	-11.9882
▁envellece	-11.9882
▁tiburón	-11.9882
▁extraído	-11.9882
▁cerro	-11.9882
▁Glori	-11.9882
▁púnica	-11.9882
▁besta	-11.9882
▁Somoza	-11.9883
onif	-11.9883
trópo	-11.9883
▁Metro	-11.9883
▁checa	-11.9884
▁dispoñib	-11.9884
▁centrou	-11.9884
▁Mot	-11.9885
compoñer	-11.9887
▁discrimina	-11.9887
úl	-11.9887
▁recollen	-11.9887
▁dual	-11.9888
▁Baden	-11.9889
▁abolida	-11.9891
nqueiro	-11.9892
▁brigada	-11.9895
▁queira	-11.9896
▁Forte	-11.9896
▁taxonom	-11.9896
▁expresada	-11.9897
▁Relación	-11.9897
▁Saa	-11.9898
▁alternan	-11.9901
▁Paris	-11.9902
▁expux	-11.9902
rabo	-11.9902
▁Ancar	-11.9903
▁obteñ	-11.9904
▁Esté	-11.9905
▁Nome	-11.9906
▁Jud	-11.9907
▁Sher	-11.991
▁Tru	-11.9913
▁recuperada	-11.9915
▁malla	-11.9916
▁especialización	-11.9916
▁sobriñ	-11.9917
▁gañada	-11.9917
▁brutal	-11.9921
▁Disco	-11.9922
▁Auga	-11.9925
▁iría	-11.9936
▁Ferrer	-11.9937
▁coincidir	-11.9938
▁Rica	-11.9941
▁encabez	-11.9943
rial	-11.9951
▁Nam	-11.9952
▁artill	-11.9952
▁extraer	-11.9955
▁dinamarqu	-11.9959
chell	-11.9961
▁significar	-11.9961
▁Pisto	-11.9963
▁Fox	-11.9965
▁Gam	-11.9965
▁servo	-11.9965
▁separan	-11.997
▁perdera	-11.9974
▁empezan	-11.9975
▁Vinc	-11.9978
▁xenr	-11.9979
▁enlaza	-11.998
▁Dé	-11.9982
▁Ribeir	-11.9982
gán	-11.9982
udiencia	-11.999
▁Mr	-11.9994
▁prosper	-11.9994
▁Hawk	-11.9994
anco	-11.9995
▁somete	-11.9999
▁Xuv	-11.9999
▁pneumon	-12.0002
▁Arcebisp	-12.0002
▁Rhode	-12.0002
▁Science	-12.0002
▁defunto	-12.0002
▁deshabitado	-12.0002
▁dialéctic	-12.0002
▁flamenc	-12.0002
▁fronteiriza	-12.0002
▁inconsciente	-12.0002
▁migratorio	-12.0002
▁procuro	-12.0002
▁vencellado	-12.0002
▁roedor	-12.0002
▁Somali	-12.0002
▁diagrama	-12.0002
embrand	-12.0002
▁convenio	-12.0002
▁refería	-12.0003
▁insuficiente	-12.0003
▁Dionis	-12.0003
▁adicado	-12.0004
▁maqueta	-12.0005
▁comenzo	-12.0005
▁esperant	-12.0006
▁Light	-12.0006
▁creativo	-12.0007
ulli	-12.0007
▁furón	-12.0008
▁primordial	-12.001
▁Elfo	-12.0011
nisto	-12.0012
▁baga	-12.0012
py	-12.0012
▁determinou	-12.0012
▁cede	-12.0012
▁malaio	-12.0013
▁contida	-12.0013
▁Conrad	-12.0013
▁macedonio	-12.0016
▁Quero	-12.0018
▁nacida	-12.002
▁operado	-12.0021
ome	-12.0023
violeta	-12.0023
yd	-12.0024
lum	-12.0025
▁metafísic	-12.0031
▁retornar	-12.0033
▁260	-12.0036
▁Han	-12.0036
▁defendida	-12.004
▁Enter	-12.0042
▁alimentado	-12.0047
▁camiñar	-12.0049
▁cuñado	-12.0056
▁proclamar	-12.0057
▁Vermell	-12.0068
▁aula	-12.0072
▁freo	-12.0073
▁factoría	-12.0074
▁art	-12.0076
▁retira	-12.0077
▁espora	-12.0082
▁neerlandesa	-12.0084
▁Hop	-12.0084
▁procurar	-12.0085
▁derroca	-12.0086
▁produtiva	-12.0087
▁copr	-12.0089
fort	-12.0091
olución	-12.0092
▁Poñe	-12.0096
▁asimila	-12.0097
lph	-12.0098
▁Fall	-12.0103
▁Cala	-12.0109
▁Age	-12.0113
▁arrastra	-12.0115
▁Mora	-12.0116
anifesto	-12.012
▁protagonis	-12.0121
quita	-12.0121
▁dra	-12.0122
▁Tiro	-12.0122
▁Tuc	-12.0123
▁cardíaca	-12.0124
▁combustíbe	-12.0124
▁discrepancia	-12.0124
▁escandinavo	-12.0124
▁esférica	-12.0124
▁hurrita	-12.0124
▁iniciá	-12.0124
▁prolifera	-12.0124
▁promovido	-12.0124
▁rectángulo	-12.0124
▁reproduce	-12.0124
▁volvía	-12.0124
▁banana	-12.0124
▁maorí	-12.0124
▁quark	-12.0124
▁hinduís	-12.0124
▁sobrenatura	-12.0124
▁céltica	-12.0124
▁sulfato	-12.0124
▁Lancas	-12.0125
▁binario	-12.0125
▁Way	-12.0125
▁renovable	-12.0125
▁acaban	-12.0125
itanic	-12.0125
▁carteira	-12.0125
▁detective	-12.0125
▁Sr	-12.0127
▁concibi	-12.0128
▁impulsado	-12.0129
▁Theodor	-12.0131
▁Stadi	-12.0131
iki	-12.0132
▁Plat	-12.0134
▁unanim	-12.0134
▁Prest	-12.0135
▁Cale	-12.0135
▁franciscano	-12.0135
▁expulsa	-12.0135
gang	-12.0136
▁cruel	-12.0137
▁traballadora	-12.0138
▁hoube	-12.0139
▁analiza	-12.0141
▁adquirida	-12.0144
▁fíxolle	-12.0145
ivan	-12.0145
▁atlet	-12.0145
▁tributario	-12.0146
cinco	-12.0148
▁recomenda	-12.015
▁Will	-12.0152
▁escollida	-12.0152
▁encontrado	-12.0153
▁Bartolome	-12.0154
iens	-12.0155
▁Ner	-12.0157
▁111	-12.0161
▁dú	-12.0161
▁Song	-12.0166
pler	-12.0168
▁Nord	-12.0169
▁clor	-12.0175
▁Blanc	-12.0177
▁viaxaba	-12.0179
▁Oza	-12.0189
▁Bog	-12.0193
▁Medici	-12.0196
veiro	-12.0197
▁soster	-12.0208
▁renovado	-12.0209
▁Frei	-12.0211
brindo	-12.0223
▁recada	-12.0233
▁efectuar	-12.024
▁apuntan	-12.0241
▁debilidade	-12.0243
▁resalta	-12.0246
▁Continent	-12.0247
▁Estatística	-12.0247
▁Lombard	-12.0247
▁bioquímica	-12.0247
▁concedida	-12.0247
▁excesivo	-12.0247
▁fantástico	-12.0247
▁metralladora	-12.0247
▁pensión	-12.0247
▁tranvía	-12.0247
▁turbina	-12.0247
▁diferéncia	-12.0247
▁retomou	-12.0247
▁saxón	-12.0247
▁Desenvolveu	-12.0247
▁traspaso	-12.0247
▁Birm	-12.0247
▁limitou	-12.0248
▁mecena	-12.0248
amboxa	-12.0248
▁elegante	-12.0248
▁Cornell	-12.0249
mov	-12.025
▁Escritor	-12.025
▁lembranza	-12.025
▁Poin	-12.0251
▁nucleótido	-12.0252
▁invitación	-12.0253
▁fundido	-12.0255
▁quedaría	-12.0256
▁asentado	-12.0257
▁semítica	-12.0257
ylor	-12.0258
▁admitido	-12.026
▁Hier	-12.0261
perfección	-12.0261
spacial	-12.0261
▁Apen	-12.0262
▁fresca	-12.0263
nunciou	-12.0264
▁estaciona	-12.0268
▁Compl	-12.027
Q	-12.0273
▁mera	-12.0276
engala	-12.0276
▁Dita	-12.0279
▁Ordo	-12.0282
ibia	-12.0282
▁Stor	-12.0285
zán	-12.0288
▁tratada	-12.0289
▁Viven	-12.029
▁celebraba	-12.0294
▁pito	-12.0297
▁ret	-12.0298
▁element	-12.0298
▁concentrar	-12.0298
▁reunifica	-12.0299
▁seguiría	-12.0301
▁ateo	-12.0302
▁ramo	-12.0303
▁condensa	-12.0309
▁Pequena	-12.031
▁nacente	-12.031
▁azar	-12.0313
▁Román	-12.0314
▁alleo	-12.0315
▁Perl	-12.0316
▁paulatina	-12.032
alcol	-12.0322
pulo	-12.0326
▁informal	-12.0326
▁favorecer	-12.0328
mentou	-12.033
▁ilega	-12.0331
urel	-12.0332
▁establecen	-12.0335
▁introduci	-12.0337
▁Fora	-12.0338
▁Aureli	-12.034
ize	-12.0341
▁cuántico	-12.0344
▁autoriza	-12.0345
▁Lé	-12.0345
▁Mariana	-12.0347
andeira	-12.0348
forzou	-12.0349
▁conceder	-12.0352
▁causan	-12.0352
▁clandestina	-12.0356
monte	-12.0363
▁combatente	-12.0367
▁Hann	-12.0368
▁recrea	-12.0369
▁positi	-12.0371
awke	-12.0371
▁saco	-12.0371
rough	-12.0372
▁Caballero	-12.0372
▁Perfect	-12.0372
▁aristócrata	-12.0372
▁chegue	-12.0372
▁distintiva	-12.0372
▁inmenso	-12.0372
▁interrompe	-12.0372
▁peteiro	-12.0372
▁proletaria	-12.0372
▁tempestade	-12.0372
▁triplo	-12.0372
▁Irene	-12.0372
▁Xornal	-12.0372
▁aeródromo	-12.0372
▁inevitable	-12.0372
▁alude	-12.0373
▁alimenticio	-12.0373
▁reformista	-12.0373
▁comparable	-12.0373
▁numérica	-12.0373
▁propúxo	-12.0373
▁rotura	-12.0373
▁xefa	-12.0373
▁delgada	-12.0373
▁diverxencia	-12.0374
▁restrinxido	-12.0375
▁pagamento	-12.0377
▁Pot	-12.0378
vidos	-12.0378
▁Vilamar	-12.0378
▁pinto	-12.038
chor	-12.0382
▁perd	-12.0384
▁perf	-12.0384
▁remo	-12.0385
▁biólogo	-12.0386
▁proxecta	-12.0388
▁chanzo	-12.039
▁xeran	-12.0391
liga	-12.0392
▁Bue	-12.0401
▁vían	-12.0402
allis	-12.0402
xestión	-12.0403
▁bater	-12.0404
▁espeso	-12.0411
▁dé	-12.0411
▁adquirido	-12.0412
▁extrae	-12.0414
▁revelación	-12.0414
▁moven	-12.0419
▁Alemá	-12.0421
▁artille	-12.0421
▁impulsar	-12.0422
▁Thu	-12.0424
▁creo	-12.0425
▁deriv	-12.0428
▁ameazado	-12.0429
olív	-12.043
▁reforza	-12.0435
▁asocia	-12.0436
▁vou	-12.0438
NS	-12.0438
▁Xin	-12.0442
▁Antártico	-12.0445
▁hom	-12.0449
▁Citr	-12.045
▁sei	-12.0452
▁universa	-12.0459
ven	-12.0463
▁Inda	-12.0464
▁esteiro	-12.0466
▁donos	-12.0467
aralela	-12.0472
▁espi	-12.0477
▁decae	-12.0484
▁catedra	-12.0486
▁Mour	-12.0487
▁informar	-12.0496
▁saía	-12.0497
−	-12.0499
▁Artigo	-12.0499
▁buraco	-12.0499
▁estatístico	-12.0499
▁evanxeo	-12.0499
▁ideolóxico	-12.0499
▁indirecto	-12.0499
▁metáfora	-12.0499
▁miniatura	-12.0499
▁minoritario	-12.0499
▁modificou	-12.0499
▁renovou	-12.0499
▁ríxida	-12.0499
▁tóxica	-12.0499
▁monzón	-12.0499
▁encanto	-12.0499
▁fazaña	-12.0499
▁gasolin	-12.0499
▁itinerario	-12.0499
▁xornalística	-12.0499
▁sentado	-12.05
▁mantido	-12.05
▁Tiber	-12.05
strad	-12.0501
▁dourado	-12.0501
▁incerteza	-12.0502
▁sindicalista	-12.0502
▁baseába	-12.0502
▁Josef	-12.0502
▁Aní	-12.0503
▁foxe	-12.0506
▁desprazado	-12.0506
▁Verí	-12.0506
eres	-12.0506
pato	-12.0506
▁concibido	-12.0508
▁Descart	-12.0509
▁Ponteces	-12.051
dica	-12.051
▁sindica	-12.0513
nodo	-12.0514
▁significante	-12.0515
▁créa	-12.0515
▁prestixiosa	-12.0516
▁Cría	-12.052
▁predomin	-12.0524
▁Princes	-12.0525
▁Part	-12.0526
▁xenita	-12.0527
▁revelar	-12.0528
▁resumo	-12.0529
▁descubri	-12.053
av	-12.0535
▁touro	-12.0537
lem	-12.0537
▁megalítico	-12.0538
▁indic	-12.0538
▁cambian	-12.0538
▁coopera	-12.0539
▁modifica	-12.0542
▁tenis	-12.0551
▁culmin	-12.0551
▁Dar	-12.056
▁madrileño	-12.0562
▁Walk	-12.0569
▁xulga	-12.0573
▁ximnasi	-12.0574
▁Fíxo	-12.0574
mio	-12.0576
beta	-12.0577
TP	-12.0579
▁infinita	-12.0579
▁cortex	-12.0581
▁refrac	-12.0584
▁cómico	-12.0592
▁horizonta	-12.0592
▁Tir	-12.0594
▁engala	-12.0595
▁instala	-12.0596
rer	-12.0597
▁lim	-12.0601
▁excluí	-12.0603
rquipélago	-12.0609
mbro	-12.061
▁Dam	-12.0611
▁9,	-12.0612
▁pene	-12.0618
▁Vald	-12.0619
▁sir	-12.0619
▁acontecer	-12.0621
tanasi	-12.0621
▁Rut	-12.0625
▁Numeros	-12.0627
·	-12.0627
▁Comunicación	-12.0627
▁Inclúe	-12.0627
▁agradable	-12.0627
▁bautizo	-12.0627
▁carbohidrato	-12.0627
▁cloroplasto	-12.0627
▁edulcorante	-12.0627
▁espallou	-12.0627
▁inédito	-12.0627
▁inútil	-12.0627
▁persoeiro	-12.0627
▁represalia	-12.0627
▁emblema	-12.0627
▁próspera	-12.0627
win	-12.0627
▁asócia	-12.0627
▁autobús	-12.0627
▁replica	-12.0627
▁xurista	-12.0627
▁arcaico	-12.0627
▁aplicou	-12.0627
▁rastro	-12.0628
▁Broad	-12.0628
ocalíza	-12.0628
thon	-12.0628
tski	-12.0628
▁ovario	-12.0628
utt	-12.0629
ibero	-12.0629
▁garante	-12.0629
▁remota	-12.063
▁marisma	-12.0631
▁acusada	-12.0635
▁Idea	-12.0639
▁considerába	-12.064
▁modesto	-12.064
▁AC	-12.0643
gor	-12.0643
▁sabana	-12.0644
▁lácteo	-12.0645
▁predica	-12.0645
▁gozan	-12.0648
▁Blood	-12.0648
▁fosa	-12.0651
▁agarda	-12.0657
▁Upp	-12.0658
▁Nic	-12.066
▁recoñecen	-12.0662
▁traves	-12.0665
▁experimentado	-12.067
▁traer	-12.067
▁Lagoa	-12.0674
roup	-12.0679
▁durmi	-12.0679
▁tirano	-12.0681
▁Lie	-12.0683
▁vide	-12.0684
oira	-12.0686
isario	-12.0692
cum	-12.0693
▁distribúe	-12.0695
▁desigualdade	-12.0696
▁clasifica	-12.0698
AR	-12.0702
▁deficiencia	-12.0704
▁afasta	-12.0706
▁queimar	-12.0706
▁Comp	-12.0713
▁tirado	-12.0717
▁island	-12.0718
zt	-12.072
zón	-12.0728
▁Berm	-12.0728
▁Erasm	-12.0731
▁asenta	-12.0738
ólica	-12.0743
inen	-12.0743
stalou	-12.0744
sol	-12.075
pruden	-12.0751
miten	-12.0755
▁temperán	-12.0755
▁leon	-12.0756
ircuíto	-12.0756
▁propicia	-12.0757
▁Consegui	-12.0757
▁Estableceu	-12.0757
▁Produto	-12.0757
▁autonómico	-12.0757
▁burocracia	-12.0757
▁cronolóxic	-12.0757
▁lévedo	-12.0757
▁paréntese	-12.0757
▁prolongou	-12.0757
▁reactivo	-12.0757
▁recólle	-12.0757
▁residua	-12.0757
▁subterránea	-12.0757
▁refrixera	-12.0757
▁impresa	-12.0757
▁supuña	-12.0757
▁Euskadi	-12.0757
▁sintética	-12.0757
▁equivalencia	-12.0757
▁perenne	-12.0758
▁meteorito	-12.0758
▁árido	-12.0758
▁acuario	-12.0758
▁fortificada	-12.0758
▁funeraria	-12.0758
▁Marquesa	-12.0758
▁canteiro	-12.0759
▁Motor	-12.0759
▁Eisen	-12.076
▁prolongada	-12.0761
▁Nevi	-12.0761
▁anexo	-12.0762
▁fertilizante	-12.0763
▁indonesi	-12.0763
▁apreciada	-12.0764
▁Arriba	-12.0764
▁contedor	-12.0764
▁Lob	-12.0766
▁rata	-12.0768
rling	-12.0768
▁reconstruído	-12.0769
▁artesana	-12.077
▁designada	-12.0772
▁Neno	-12.0772
▁fixou	-12.0773
▁colonizada	-12.0773
▁impulsor	-12.0773
▁explic	-12.0775
▁eliminada	-12.0776
▁acadi	-12.0777
▁colleu	-12.0778
▁superada	-12.0779
▁atope	-12.0781
▁Nazi	-12.0781
ixi	-12.0782
▁pesa	-12.0784
hak	-12.0784
▁Xesu	-12.0788
isma	-12.079
▁acoller	-12.079
▁Kell	-12.0791
▁queimada	-12.0791
▁Britan	-12.0792
pé	-12.0794
▁envolto	-12.0797
▁Regional	-12.0798
▁estabiliza	-12.0799
polo	-12.0801
taca	-12.0812
▁Led	-12.0814
SA	-12.0818
▁Compo	-12.0823
▁ascender	-12.0824
▁Wis	-12.0827
▁administra	-12.0832
▁condu	-12.0833
▁Dirixi	-12.0839
dicto	-12.084
ído	-12.0849
rest	-12.0855
▁Dick	-12.086
anzan	-12.086
▁Indiana	-12.0862
▁America	-12.0864
▁apoian	-12.0864
▁marte	-12.0867
▁Beatri	-12.0867
▁retomar	-12.087
▁liñ	-12.087
▁Beo	-12.087
ágar	-12.0874
▁histori	-12.0875
▁autora	-12.0876
▁Viax	-12.0883
▁vaia	-12.0883
▁Matthew	-12.0889
▁Sindicato	-12.0889
▁Tratá	-12.0889
▁Xardín	-12.0889
▁aglutina	-12.0889
▁amurallad	-12.0889
▁animou	-12.0889
▁aparecido	-12.0889
▁ascendía	-12.0889
▁avalancha	-12.0889
▁cápsula	-12.0889
▁fraude	-12.0889
▁remodelación	-12.0889
▁sanitario	-12.0889
▁televisiva	-12.0889
▁treboada	-12.0889
▁violoncell	-12.0889
▁ofrenda	-12.0889
▁ventrículo	-12.0889
▁rigoroso	-12.0889
▁orfo	-12.0889
▁deportado	-12.0889
▁premisa	-12.0889
▁traída	-12.0889
▁concluír	-12.0889
▁homólogo	-12.0889
ald	-12.0889
▁Matemática	-12.0889
▁serbia	-12.0889
▁provisión	-12.0889
▁residen	-12.0889
▁cardina	-12.0889
▁creatividade	-12.089
▁percusión	-12.089
▁sostido	-12.089
▁troca	-12.089
▁Hok	-12.0891
▁requirimento	-12.0891
▁contratou	-12.0891
▁espallado	-12.0893
▁mago	-12.0893
▁botou	-12.0894
▁SS	-12.0894
teís	-12.0894
▁decidi	-12.0895
ubai	-12.0896
▁barca	-12.0896
▁mediodía	-12.0897
▁Fight	-12.0897
▁beber	-12.0899
▁mediana	-12.09
▁interv	-12.0902
▁fun	-12.0903
▁remedio	-12.0904
▁Histor	-12.0907
▁Licenci	-12.0907
▁importar	-12.0909
tálica	-12.0909
roques	-12.0911
▁resolveu	-12.0913
▁Sau	-12.0914
▁conducido	-12.0915
mph	-12.0916
▁enferma	-12.0924
▁Hora	-12.0924
▁Rig	-12.0929
▁selecciona	-12.0933
▁investido	-12.0937
▁Podería	-12.0937
▁Cous	-12.0938
▁hispano	-12.094
▁clandestino	-12.0941
alia	-12.0945
▁saquead	-12.0949
▁film	-12.0952
evista	-12.0958
inio	-12.0964
▁Kar	-12.0964
▁Beira	-12.0966
▁abs	-12.0966
▁desviación	-12.0967
▁ratificad	-12.0968
▁otomá	-12.0969
rquí	-12.0975
ax	-12.0977
▁coida	-12.0983
▁Progres	-12.0991
▁caraco	-12.0994
▁entregas	-12.0994
▁admirador	-12.0995
trato	-12.0999
▁coidados	-12.1
▁figuraba	-12.1002
▁inxest	-12.1005
▁reg	-12.1006
j	-12.1013
ciden	-12.1018
▁ordina	-12.1021
eríodo	-12.1022
\	-12.1022
€	-12.1022
▁abrigo	-12.1022
▁bidueiro	-12.1022
▁empírica	-12.1022
▁escuadrón	-12.1022
▁fitoplancto	-12.1022
▁innumer	-12.1022
▁profecía	-12.1022
▁enzima	-12.1022
▁apropiada	-12.1022
▁traído	-12.1022
▁lituano	-12.1022
▁mastro	-12.1022
▁exarca	-12.1022
▁Atlántica	-12.1022
▁engadí	-12.1023
▁papiro	-12.1023
▁verdura	-12.1024
▁detri	-12.1025
▁xisto	-12.1025
▁Water	-12.1025
▁imán	-12.1028
▁aviso	-12.1029
▁enténde	-12.103
▁Cabeza	-12.1031
▁Vento	-12.1032
▁conxuga	-12.1032
▁retícul	-12.1032
▁valoración	-12.1034
▁sepultado	-12.1034
▁limi	-12.1037
homs	-12.1037
▁Culle	-12.1039
▁xeorxiano	-12.1043
▁alfa	-12.1044
▁Bou	-12.1046
▁Soria	-12.1047
meda	-12.1048
▁vacante	-12.1051
upe	-12.1053
▁Peri	-12.1054
▁Cassin	-12.1054
▁respectar	-12.1055
▁enche	-12.1056
▁Lock	-12.1056
alcúla	-12.1058
struíron	-12.1059
ificado	-12.1059
▁xeneralizada	-12.1059
▁estanca	-12.106
▁Usa	-12.1061
▁Rea	-12.1062
▁acepción	-12.1062
▁galesa	-12.1063
nior	-12.1064
PC	-12.1064
▁positivos	-12.1068
▁apart	-12.107
▁aproximad	-12.1075
ncy	-12.1079
▁sai	-12.1081
▁someteu	-12.1081
▁Ut	-12.1085
arna	-12.1085
xena	-12.1086
▁model	-12.1086
▁tranquila	-12.1086
▁allea	-12.1087
▁traslada	-12.109
▁licencia	-12.1099
rtodoxa	-12.1101
▁pronunciada	-12.1103
▁terminación	-12.1103
▁consisti	-12.1103
lul	-12.1106
▁Frent	-12.1111
▁esquece	-12.1112
▁Amigo	-12.1115
▁bus	-12.1117
▁acordar	-12.1117
▁Mino	-12.1122
mel	-12.1122
lintel	-12.1123
iris	-12.1127
matic	-12.1132
▁Aman	-12.1136
▁Novos	-12.1139
esco	-12.1142
OM	-12.1145
▁canon	-12.1146
▁orgullo	-12.1152
ásico	-12.1153
▁suxerir	-12.1153
▁bañad	-12.1155
especto	-12.1157
▁Semifina	-12.1157
▁Celébra	-12.1157
▁Distíngue	-12.1157
▁Mondariz	-12.1157
▁arcebispa	-12.1157
▁canguro	-12.1157
▁cedido	-12.1157
▁domicili	-12.1157
▁eliminou	-12.1157
▁exiliar	-12.1157
▁maduro	-12.1157
▁rigorosa	-12.1157
▁únen	-12.1157
▁desvío	-12.1157
▁flexible	-12.1157
▁viscos	-12.1157
▁Ace	-12.1158
▁previsión	-12.1158
▁intermediario	-12.1158
▁Olympi	-12.1158
bril	-12.1158
▁Intel	-12.1159
▁adorno	-12.116
▁catalogada	-12.116
▁delgado	-12.116
▁derrubado	-12.1161
▁surrealis	-12.1161
▁Expr	-12.1161
▁Curso	-12.1162
ew	-12.1162
▁Col	-12.1163
▁Blai	-12.1164
▁afecto	-12.1164
▁Borde	-12.1164
▁Buck	-12.1165
▁sorprendeu	-12.1165
▁show	-12.117
ppen	-12.117
▁desexado	-12.1173
▁fracta	-12.1174
▁describía	-12.1177
póñen	-12.1177
▁Albu	-12.1179
▁confederado	-12.1179
▁bufo	-12.118
▁dirixí	-12.1186
▁instante	-12.1189
rbur	-12.1191
▁fabricada	-12.1194
▁larga	-12.1195
▁pasará	-12.1201
Found	-12.1206
arca	-12.1206
▁modern	-12.121
▁publicá	-12.1214
minente	-12.1218
▁fracasar	-12.1238
▁Compañ	-12.1239
niño	-12.124
▁Roy	-12.1243
▁Petro	-12.1245
▁Xi	-12.1246
▁finalista	-12.1247
▁Galo	-12.1249
bell	-12.1249
▁intr	-12.1254
▁resisti	-12.1258
media	-12.1262
▁sinalan	-12.1263
▁pagan	-12.1269
stituído	-12.1275
▁incapac	-12.128
▁CP	-12.1284
▁Cent	-12.1288
▁Edg	-12.1289
▁sap	-12.1289
▁fragmenta	-12.1289
áximo	-12.1292
▁absorbida	-12.1294
▁auxilio	-12.1294
▁cedida	-12.1294
▁cuneiforme	-12.1294
▁gornición	-12.1294
▁procariota	-12.1294
▁rabaño	-12.1294
▁tridimensiona	-12.1294
▁xubila	-12.1294
▁Aliménta	-12.1294
▁ganso	-12.1294
▁esixía	-12.1294
▁Cerdedo	-12.1294
icial	-12.1294
▁Invern	-12.1294
▁entorno	-12.1294
▁complicación	-12.1294
▁poliniza	-12.1294
▁alumna	-12.1294
▁rodou	-12.1294
▁Califa	-12.1294
▁enterro	-12.1294
▁supoñía	-12.1294
▁compacto	-12.1295
▁Herrer	-12.1295
▁Constituínte	-12.1295
▁comece	-12.1295
▁navegable	-12.1296
▁prover	-12.1296
▁tonalidade	-12.1297
▁Mostra	-12.1297
▁Covel	-12.1297
vira	-12.1298
▁ergue	-12.1298
▁catalogado	-12.1299
▁compatible	-12.1299
▁Miró	-12.1301
-52	-12.1302
▁Hard	-12.1302
abilidade	-12.1304
▁espido	-12.1304
estade	-12.1311
aska	-12.1311
▁repetiu	-12.1313
▁Justin	-12.1315
nster	-12.1317
▁misteriosa	-12.1318
▁neutra	-12.1319
▁coincidencia	-12.1321
ctil	-12.1323
▁Cooper	-12.1325
▁irregularidade	-12.1327
▁agardaba	-12.1327
▁ambicioso	-12.133
xplicou	-12.1331
▁Viña	-12.1331
▁Cann	-12.1332
▁Cea	-12.1333
▁Mesía	-12.1333
olfo	-12.1334
▁comete	-12.1336
▁altera	-12.1336
▁querer	-12.1338
meral	-12.1338
rco	-12.1339
▁discutir	-12.1341
▁Marca	-12.1342
▁sacaro	-12.1344
▁vendedor	-12.1345
▁reitora	-12.1348
▁Kon	-12.1348
▁Gord	-12.1349
▁flexi	-12.135
▁finito	-12.1354
▁370	-12.1361
speranza	-12.1364
sperma	-12.1369
áctea	-12.137
▁Thor	-12.1372
▁Maza	-12.1372
▁convocar	-12.1375
▁Tun	-12.1379
▁impoñen	-12.1379
labam	-12.138
▁tomo	-12.1382
▁Pin	-12.1383
▁Soci	-12.14
aúl	-12.14
▁dedicá	-12.1403
▁rega	-12.1407
▁parcia	-12.1409
▁Sey	-12.1409
▁entrete	-12.141
▁Georg	-12.1412
▁tomaba	-12.1415
▁varí	-12.1415
▁revé	-12.1423
▁Barbar	-12.1428
crópole	-12.1433
▁Higg	-12.1433
▁coleccionista	-12.1433
▁morfolóxica	-12.1433
▁prehistórica	-12.1433
▁primoxénit	-12.1433
▁reconto	-12.1433
▁ríxido	-12.1433
▁unicelular	-12.1433
▁separá	-12.1433
▁óvulo	-12.1433
▁tratá	-12.1433
▁bravo	-12.1433
▁Corneli	-12.1433
▁candorca	-12.1433
▁intentaba	-12.1434
▁decatou	-12.1434
▁Kuwa	-12.1434
▁titor	-12.1435
▁Gambi	-12.1435
▁premiado	-12.1436
▁Clint	-12.1437
fan	-12.1438
▁temía	-12.1438
▁Pitt	-12.1438
▁Xeración	-12.1438
roes	-12.1439
▁refén	-12.1439
▁citoplasm	-12.1439
▁executada	-12.1439
▁identificou	-12.144
▁Hild	-12.1441
▁repousa	-12.1442
▁dispoñen	-12.1442
▁transformado	-12.1443
▁danado	-12.1446
▁asinada	-12.1447
▁saquear	-12.1447
▁mandado	-12.1452
▁cooperativa	-12.1452
▁conduto	-12.1453
nea	-12.1455
▁implicada	-12.1455
▁pasara	-12.1457
▁competitivo	-12.1459
▁Aero	-12.1463
▁Line	-12.1464
▁couto	-12.1467
▁deposita	-12.1469
▁fixe	-12.1469
trapa	-12.147
▁emir	-12.147
▁indicado	-12.1473
J	-12.1474
portuguesa	-12.1475
▁converten	-12.1476
dina	-12.1478
vedo	-12.148
▁Emma	-12.148
Wür	-12.1482
▁UP	-12.1485
▁fundi	-12.1488
▁Dez	-12.1489
▁Julia	-12.1489
viño	-12.1489
rux	-12.1491
terno	-12.1491
▁Stra	-12.1492
▁hop	-12.1494
▁existencial	-12.1498
▁pró	-12.1499
mbiente	-12.15
▁02	-12.15
▁Nuev	-12.15
frontar	-12.1504
▁parda	-12.1513
▁gañara	-12.152
▁adapta	-12.1523
aldi	-12.1523
▁mobil	-12.1524
▁Rob	-12.1527
inista	-12.1532
▁Lol	-12.1533
▁produtivo	-12.1533
▁Quen	-12.1535
uve	-12.1536
feso	-12.1536
▁Anton	-12.1538
neno	-12.1539
▁disperso	-12.1539
▁borea	-12.1544
▁Punto	-12.1544
▁Calder	-12.1544
▁micro	-12.1544
▁avalia	-12.1547
▁Sabin	-12.1552
▁debuxa	-12.1555
▁intentan	-12.1558
▁solta	-12.1558
▁deixado	-12.1563
ámara	-12.1564
▁agr	-12.1565
▁glori	-12.1568
ícula	-12.1569
▁gradua	-12.1571
estauración	-12.1574
íngue	-12.1574
▁Tecnoloxía	-12.1574
▁decorativa	-12.1574
▁detallado	-12.1574
▁impopular	-12.1574
▁libertario	-12.1574
▁permítelle	-12.1574
▁míde	-12.1574
kovic	-12.1574
▁connotación	-12.1574
▁pacifica	-12.1574
▁vixésim	-12.1574
▁comprometido	-12.1574
▁lírico	-12.1574
▁recreativa	-12.1574
▁pistón	-12.1574
▁Rousse	-12.1574
▁purifica	-12.1574
▁prefería	-12.1574
▁electro	-12.1574
▁Heart	-12.1574
▁chip	-12.1574
▁Misión	-12.1574
▁fogueira	-12.1575
▁fortificado	-12.1576
▁Corp	-12.1576
ü	-12.1576
▁Terzo	-12.1577
▁Arnoi	-12.1577
▁retina	-12.1578
▁Barall	-12.1578
cript	-12.1579
▁escavado	-12.158
▁Castelló	-12.1581
▁fre	-12.1584
▁confirmada	-12.1585
▁distribuí	-12.1587
▁ZX	-12.1587
ematica	-12.1587
▁peculiaridade	-12.1589
tari	-12.159
▁botón	-12.159
▁gustaba	-12.1592
▁mensaxeiro	-12.1593
▁adoptivo	-12.1593
▁Mille	-12.1595
▁crecen	-12.1601
▁paterna	-12.1602
▁sulf	-12.1602
▁inmortal	-12.1602
▁culta	-12.1606
▁licenciado	-12.1608
▁expresado	-12.1609
▁expoñe	-12.1611
▁fixado	-12.1613
▁Gai	-12.1614
▁Sabi	-12.1614
▁consultar	-12.1615
análise	-12.1618
▁Christi	-12.1619
▁disparar	-12.1621
▁protagoniz	-12.1626
▁Soul	-12.1632
RA	-12.1637
▁enunciado	-12.1637
▁Silver	-12.164
emen	-12.164
▁axita	-12.1645
rina	-12.1646
▁Fle	-12.1648
▁seita	-12.1654
▁vistos	-12.1654
▁Pequen	-12.1655
▁activ	-12.1657
rem	-12.1659
▁entrado	-12.1661
oto	-12.1664
▁antipa	-12.1664
tiga	-12.1666
▁Patrici	-12.167
▁Gala	-12.1677
▁reconcilia	-12.1679
▁Lava	-12.1681
dicación	-12.1687
▁Rez	-12.1688
▁pul	-12.1688
▁teme	-12.1689
▁Ariz	-12.1689
▁Nature	-12.1698
▁configura	-12.1698
▁cit	-12.1701
▁Cardea	-12.1703
▁Academ	-12.1707
▁fro	-12.1709
carei	-12.1714
▁Hen	-12.1714
ábrica	-12.1715
urxi	-12.1716
lectric	-12.1716
▁aceptan	-12.1716
▁Björ	-12.1717
▁Celestin	-12.1717
▁anónima	-12.1717
▁bíblico	-12.1717
▁cóengo	-12.1717
▁fráxil	-12.1717
▁hereditario	-12.1717
▁interrompido	-12.1717
▁metabólica	-12.1717
▁meteorolóxico	-12.1717
▁pioneira	-12.1717
▁vangardista	-12.1717
▁Árbore	-12.1717
▁ocular	-12.1717
▁requiría	-12.1717
▁exercit	-12.1717
▁predicir	-12.1717
▁Profesor	-12.1717
▁absorbido	-12.1717
▁MyS	-12.1717
▁indíca	-12.1717
▁gasoso	-12.1717
▁ordinaria	-12.1717
▁Laboratorio	-12.1717
▁coherente	-12.1718
▁suxestión	-12.1718
▁canónico	-12.1719
▁moura	-12.1719
▁coeficiente	-12.1719
▁ecoloxista	-12.1719
▁embar	-12.1719
▁Rocket	-12.1719
▁Turismo	-12.172
▁Off	-12.172
▁Borne	-12.172
▁anana	-12.1721
▁comandado	-12.1722
▁prolongado	-12.1724
▁montado	-12.1724
▁sopa	-12.1725
▁Exerce	-12.1727
▁Adrian	-12.1728
▁transportada	-12.1728
▁adestrar	-12.1729
▁aborto	-12.173
▁elevar	-12.173
▁simulación	-12.1731
▁pot	-12.1733
▁dispux	-12.1733
▁lido	-12.1734
▁compensación	-12.1734
ën	-12.1736
▁corrección	-12.1737
▁Occident	-12.1738
▁trigonom	-12.1739
▁Trin	-12.174
▁coordinador	-12.1741
▁xogada	-12.1747
▁Infant	-12.175
▁Bala	-12.1751
▁loitaba	-12.1752
oxéne	-12.1754
hua	-12.1754
▁Rela	-12.1755
▁Pinto	-12.1756
▁salarios	-12.1759
▁queimado	-12.1761
travé	-12.1764
▁indicada	-12.1764
▁islandes	-12.1765
▁privilexiado	-12.1767
▁Cam	-12.177
▁explora	-12.1771
▁Trint	-12.1773
▁franca	-12.1774
▁facilit	-12.1774
▁libreto	-12.1774
▁péns	-12.1775
▁Rexe	-12.1776
▁buca	-12.1776
illo	-12.1777
llan	-12.1777
▁Dramátic	-12.178
▁Tang	-12.1782
▁Pep	-12.1786
▁rexi	-12.1787
óxeno	-12.1788
▁Loren	-12.1788
▁Barbad	-12.1789
ába	-12.1789
▁celul	-12.1791
chig	-12.1794
▁relacionar	-12.1795
▁Desa	-12.18
▁alter	-12.18
tome	-12.1805
▁suman	-12.1806
▁montar	-12.1811
▁Qa	-12.1819
hel	-12.1819
▁navegar	-12.1821
▁Vai	-12.1825
▁conxela	-12.1826
stitución	-12.1828
lizab	-12.1831
pson	-12.1831
▁alfabet	-12.1836
cipación	-12.1838
▁situá	-12.1844
▁intima	-12.1844
lorado	-12.1853
cionario	-12.1856
▁litu	-12.1859
▁saben	-12.1861
▁acantilado	-12.1862
▁análogo	-12.1862
▁comunitario	-12.1862
▁cúmulo	-12.1862
▁dificil	-12.1862
▁fronteirizo	-12.1862
▁harmónico	-12.1862
▁incorrecta	-12.1862
▁intestina	-12.1862
▁pantasma	-12.1862
▁restaurou	-12.1862
▁sintáctica	-12.1862
▁subterráneo	-12.1862
▁tráxico	-12.1862
▁compacta	-12.1862
▁frade	-12.1862
▁cocido	-12.1862
▁provedor	-12.1862
witz	-12.1862
▁Helsin	-12.1862
▁executiva	-12.1862
▁fomenta	-12.1862
▁parapeto	-12.1862
▁astronauta	-12.1862
▁promovida	-12.1862
▁analoxía	-12.1862
▁factura	-12.1862
▁póstum	-12.1862
▁ordinario	-12.1862
▁discreta	-12.1862
▁Gradu	-12.1862
▁sostida	-12.1863
▁teor	-12.1863
▁desprez	-12.1863
▁Calde	-12.1865
ern	-12.1866
▁facemos	-12.1866
▁decidida	-12.1867
▁frontón	-12.1867
▁Cabi	-12.1867
▁Sky	-12.1868
lio	-12.1868
▁primas	-12.187
▁sair	-12.1871
▁Mega	-12.1871
▁Elisa	-12.1872
▁pausa	-12.1872
▁balada	-12.1872
ethe	-12.1873
▁interin	-12.1873
▁protestant	-12.1875
▁Vasa	-12.1875
▁Pasc	-12.1876
infla	-12.1876
ristó	-12.188
▁preocupado	-12.1881
▁cóbre	-12.1884
▁atacante	-12.1884
líc	-12.1885
▁prolífico	-12.1888
▁marcan	-12.1888
▁Musa	-12.1889
▁impresion	-12.1893
ction	-12.1901
▁lavado	-12.1903
▁chegase	-12.1904
▁Gü	-12.1907
▁Hono	-12.1907
▁participaba	-12.1909
▁Piloto	-12.1909
▁afastar	-12.1913
ickens	-12.1913
▁romanesa	-12.1915
nidos	-12.1916
▁Arena	-12.1918
▁propuxer	-12.1921
derram	-12.1921
▁captur	-12.1927
▁conseguido	-12.1929
▁manténdo	-12.193
▁vara	-12.1933
04	-12.1934
▁madrileñ	-12.1936
▁gam	-12.1937
skat	-12.1937
lave	-12.1941
▁Xulian	-12.1942
▁xogado	-12.1943
▁Tell	-12.1944
▁arran	-12.1947
mola	-12.195
▁innovadora	-12.1952
ocas	-12.1953
piro	-12.1953
▁semántico	-12.1953
▁encabezad	-12.1955
▁Autor	-12.1955
▁épica	-12.1958
tendida	-12.1959
▁tirar	-12.1961
▁mat	-12.1961
▁espallar	-12.1964
▁dispo	-12.1965
▁IU	-12.1966
puxé	-12.1967
▁mero	-12.1977
▁Hum	-12.1978
▁Arca	-12.1979
▁Evan	-12.1983
▁exporta	-12.1984
estar	-12.1992
duciu	-12.1995
bando	-12.2001
▁Bern	-12.2005
▁Becerr	-12.2009
▁Muíño	-12.2009
▁computación	-12.2009
▁hemorraxia	-12.2009
▁inconveniente	-12.2009
▁microprocesador	-12.2009
▁punteiro	-12.2009
▁sanguínea	-12.2009
▁sepára	-12.2009
▁Caixa	-12.2009
▁correlación	-12.2009
▁prematura	-12.2009
▁Peak	-12.2009
▁barata	-12.2009
▁biógrafo	-12.2009
▁cromáti	-12.2009
▁cítrico	-12.2009
▁cebad	-12.2009
▁Táme	-12.201
▁discutida	-12.201
▁toxina	-12.2011
innat	-12.2011
▁Norma	-12.2012
erdina	-12.2012
▁difundida	-12.2013
▁normanda	-12.2013
▁340	-12.2014
▁tund	-12.2016
▁facéndoo	-12.2016
orcio	-12.2017
▁men	-12.2018
▁favorita	-12.2018
miro	-12.2019
▁bosquexo	-12.202
tese	-12.202
▁Argo	-12.2021
▁emprender	-12.2021
▁Heav	-12.2021
▁ouriv	-12.2022
▁limitar	-12.2023
▁secreción	-12.2027
▁Curro	-12.2029
▁analista	-12.2032
▁Bé	-12.2032
gallo	-12.2034
line	-12.2035
▁Fundado	-12.2036
▁Gor	-12.2037
▁renovar	-12.204
▁Indi	-12.2042
▁Gerard	-12.2042
▁semellan	-12.205
▁estreado	-12.2052
acusa	-12.2059
foresta	-12.2059
▁Chand	-12.206
tipo	-12.206
▁clasicis	-12.2062
▁Gene	-12.2062
▁Wea	-12.2063
▁Th	-12.2065
▁criminal	-12.2066
▁ide	-12.2068
▁Audio	-12.2074
tia	-12.2077
▁refinado	-12.2085
▁puntua	-12.2085
▁polinesi	-12.2086
▁Rubi	-12.2088
ortuguesa	-12.2092
▁cantautor	-12.2094
▁partición	-12.2096
▁Tara	-12.2097
▁trouxer	-12.2098
[...]
