<unk>	0
<s>	0
</s>	0
<pad>	0
▁,	-3.14903
s	-3.21766
▁de	-3.22333
▁.	-3.54668
▁a	-3.78071
▁e	-3.85753
▁o	-4.10915
;	-4.17643
▁&	-4.18277
quot	-4.23134
▁que	-4.29857
▁do	-4.48314
▁en	-4.51589
▁da	-4.56457
▁un	-5.05581
▁	-5.06399
▁(	-5.10587
▁)	-5.1061
▁A	-5.13471
▁no	-5.20748
▁na	-5.26484
▁é	-5.27204
▁unha	-5.3072
▁O	-5.35498
se	-5.43383
▁os	-5.46456
n	-5.538
▁por	-5.54872
▁como	-5.55619
▁para	-5.58013
▁se	-5.64405
▁con	-5.66214
▁foi	-5.74462
▁dos	-5.75273
▁ao	-5.76169
▁súa	-5.78725
a	-5.86252
o	-5.88034
r	-5.89378
▁seu	-5.94575
▁máis	-5.9571
▁as	-6.00154
▁ou	-6.00429
▁á	-6.01927
mente	-6.09633
-	-6.14841
▁non	-6.16508
▁:	-6.21279
▁das	-6.31731
▁En	-6.37302
u	-6.41865
▁polo	-6.46479
▁son	-6.46697
▁co	-6.46932
ndo	-6.47674
do	-6.50014
da	-6.50832
▁entre	-6.51746
es	-6.55853
▁ano	-6.60021
e	-6.60405
▁tamén	-6.627
.	-6.70743
l	-6.70902
▁Os	-6.76052
▁pola	-6.81822
▁coa	-6.86837
▁parte	-6.89007
is	-6.89243
▁ser	-6.91727
▁anos	-6.93326
▁sobre	-6.94101
ron	-6.96845
i	-6.9782
▁seus	-7.02479
t	-7.02504
▁dun	-7.03275
▁pero	-7.04127
ba	-7.04719
▁As	-7.08795
▁No	-7.09215
on	-7.10886
▁está	-7.11322
▁nos	-7.12445
▁;	-7.12918
▁onde	-7.14687
▁lugar	-7.14852
▁cidade	-7.18966
▁ten	-7.18994
la	-7.19301
▁Na	-7.19317
▁era	-7.20622
▁2	-7.21342
▁durante	-7.22965
ra	-7.23887
▁cando	-7.24622
▁nas	-7.25323
▁ata	-7.25855
▁dunha	-7.26303
▁concello	-7.26521
▁pode	-7.27362
▁nome	-7.27607
▁xa	-7.28143
▁habitantes	-7.28164
▁primeiro	-7.28395
▁dous	-7.30109
▁E	-7.30142
▁I	-7.33452
▁aínda	-7.34822
ción	-7.35235
▁forma	-7.35427
y	-7.36377
▁1	-7.36589
▁primeira	-7.36824
▁mesmo	-7.37563
▁século	-7.3823
no	-7.39202
▁segundo	-7.39459
▁foron	-7.39776
na	-7.41235
▁moi	-7.41257
▁nun	-7.41936
▁aos	-7.42661
▁ó	-7.42751
▁súas	-7.43086
▁despois	-7.43187
▁todo	-7.44576
ta	-7.45651
▁esta	-7.45687
te	-7.46766
▁só	-7.46812
▁C	-7.47114
apos	-7.4771
▁San	-7.50392
▁3	-7.54026
dos	-7.54154
▁tres	-7.54493
▁este	-7.55148
▁desde	-7.56023
lo	-7.56244
▁Foi	-7.56723
m	-7.57402
▁De	-7.57667
to	-7.58149
▁dúas	-7.59093
▁tiña	-7.5983
▁ás	-7.59926
ca	-7.60067
▁re	-7.60512
▁in	-7.60618
d	-7.60629
▁La	-7.60988
▁parroquia	-7.61036
▁S	-7.62012
▁poboación	-7.62323
▁contra	-7.62988
▁nunha	-7.6351
de	-7.63675
▁outros	-7.64945
c	-7.65318
▁grupo	-7.65897
▁É	-7.66126
z	-7.67712
▁gran	-7.67836
co	-7.67927
ma	-7.67951
▁equipo	-7.70717
en	-7.71172
▁maior	-7.71982
▁sen	-7.72484
▁vez	-7.73005
das	-7.73115
▁así	-7.73266
▁eran	-7.74222
▁mulleres	-7.75251
▁tempo	-7.75554
▁homes	-7.75612
an	-7.76805
▁cal	-7.77362
▁moito	-7.7764
▁4	-7.78266
▁poden	-7.78352
▁/	-7.79211
▁5	-7.79724
▁15	-7.80181
▁nado	-7.81086
▁%	-7.82519
ría	-7.82581
▁polos	-7.83568
os	-7.84686
▁Un	-7.84986
▁Con	-7.85069
▁illa	-7.86604
▁cara	-7.88551
▁están	-7.88694
▁baixo	-7.89009
▁comarca	-7.90115
▁novo	-7.90293
▁17	-7.90516
lle	-7.90582
▁cunha	-7.90807
me	-7.90974
▁16	-7.91799
mo	-7.92399
▁hai	-7.92867
▁galego	-7.92919
▁B	-7.93027
▁cada	-7.93457
▁zona	-7.93583
▁km	-7.93998
▁cun	-7.94059
▁tempada	-7.94298
▁la	-7.94675
ia	-7.9494
ban	-7.95275
▁rei	-7.96871
▁10	-7.97167
▁cos	-7.97413
p	-7.97997
▁vida	-7.98022
▁dende	-7.98034
▁The	-7.98035
▁tanto	-7.98849
▁banda	-7.98862
▁Galicia	-7.99039
▁número	-7.99246
▁España	-7.99306
▁6	-7.99699
le	-7.99773
▁teñen	-7.99889
▁Segundo	-8.00455
▁Esta	-8.01397
ga	-8.01535
▁12	-8.01843
ar	-8.01996
▁Tamén	-8.02227
▁provincia	-8.02239
▁familia	-8.02889
▁14	-8.031
al	-8.03331
▁sur	-8.03454
▁coma	-8.04092
▁sendo	-8.04789
▁El	-8.05106
▁mundo	-8.05174
▁P	-8.05186
nte	-8.05371
k	-8.05448
▁até	-8.05805
▁norte	-8.05879
er	-8.06022
▁antes	-8.06229
▁-	-8.06426
ou	-8.06611
▁sistema	-8.07472
▁carreira	-8.07799
▁outras	-8.08053
x	-8.08056
▁lle	-8.08413
▁Este	-8.08982
ce	-8.09036
▁pouco	-8.09135
▁7	-8.09495
C	-8.09626
▁di	-8.10204
g	-8.10337
▁xunto	-8.10416
▁guerra	-8.10935
▁historia	-8.1099
▁catro	-8.1139
ía	-8.11422
ne	-8.13416
▁obra	-8.13873
▁tivo	-8.13886
▁estaba	-8.1389
▁varios	-8.1409
▁mentres	-8.14185
▁país	-8.14301
▁Se	-8.14437
▁Por	-8.14487
▁especies	-8.14663
▁8	-8.14883
▁día	-8.15502
f	-8.15533
á	-8.15733
▁F	-8.16525
▁ca	-8.16581
▁exemplo	-8.16608
▁T	-8.16662
▁11	-8.16799
▁Estados	-8.17614
▁m	-8.17696
idade	-8.17804
in	-8.17928
go	-8.18434
▁medio	-8.1847
▁ter	-8.18948
▁13	-8.19021
▁rexión	-8.1918
▁Co	-8.19312
▁ben	-8.20059
▁final	-8.20113
▁partir	-8.20411
▁coñecido	-8.20763
▁si	-8.2097
xe	-8.2111
ro	-8.21173
▁logo	-8.21235
us	-8.21496
▁tipo	-8.21912
as	-8.22252
▁estado	-8.22528
▁río	-8.22542
▁morte	-8.22641
▁grandes	-8.2303
di	-8.23112
▁Gran	-8.23352
▁goberno	-8.23357
mos	-8.23464
▁mais	-8.23551
▁época	-8.246
▁xullo	-8.24805
▁Re	-8.24938
▁Ca	-8.25092
▁Unidos	-8.25125
▁Universidade	-8.25272
▁menos	-8.25948
▁grande	-8.26009
▁cales	-8.26018
▁serie	-8.26154
▁centro	-8.26379
mento	-8.26597
▁todos	-8.26622
▁9	-8.27292
▁Durante	-8.27315
▁importante	-8.27869
▁maioría	-8.28055
▁principal	-8.28581
▁veces	-8.29274
▁lingua	-8.29385
▁auga	-8.29743
▁deste	-8.29754
▁longo	-8.30201
▁maio	-8.30313
nse	-8.30548
re	-8.30641
▁Europa	-8.31132
▁II	-8.31235
▁segunda	-8.32378
h	-8.3332
▁capital	-8.33497
▁20	-8.3399
▁Unha	-8.34296
▁xuño	-8.34517
ter	-8.34625
▁travé	-8.34812
▁»	-8.34907
▁Para	-8.34913
▁datos	-8.34924
▁chamado	-8.34968
«	-8.35027
▁debido	-8.35305
▁G	-8.35389
▁mar	-8.35786
va	-8.36555
▁diferentes	-8.36654
▁D	-8.36796
▁tras	-8.36979
pa	-8.37112
ti	-8.37112
▁Francia	-8.37555
▁comezou	-8.37598
▁outra	-8.3763
▁varias	-8.37956
za	-8.38178
▁células	-8.38269
▁M	-8.38421
▁xeito	-8.38834
▁setembro	-8.38936
▁U	-8.38992
ch	-8.39086
▁marzo	-8.39106
▁Le	-8.39333
▁relación	-8.39388
▁p	-8.39994
▁algúns	-8.40223
▁cor	-8.40416
▁xaneiro	-8.40438
res	-8.40557
be	-8.40838
▁decembro	-8.40956
▁el	-8.41036
▁abril	-8.41189
b	-8.41471
▁seguinte	-8.41713
▁moita	-8.41722
▁mesma	-8.41775
▁filme	-8.41783
▁persoas	-8.42031
▁poder	-8.42419
▁Madrid	-8.4266
▁base	-8.42665
▁desta	-8.42669
bo	-8.42692
▁outubro	-8.4272
▁2007	-8.42779
▁fillo	-8.42803
▁Santiago	-8.42827
▁facer	-8.42864
▁período	-8.42904
▁nova	-8.4294
▁agosto	-8.42995
ado	-8.43108
▁V	-8.43646
▁pre	-8.43856
▁partido	-8.44258
▁outro	-8.44772
▁especie	-8.44794
vi	-8.44898
▁of	-8.44943
▁Premio	-8.44999
rse	-8.45047
▁orixe	-8.45054
▁uso	-8.45409
A	-8.45506
▁mellor	-8.45643
▁resto	-8.45658
1	-8.45658
B	-8.45728
li	-8.45909
▁caso	-8.45979
▁Nova	-8.46261
pe	-8.46359
▁dentro	-8.46368
▁fixo	-8.46392
▁fai	-8.46667
▁entón	-8.47023
▁Santa	-8.47058
▁quen	-8.47229
ve	-8.47271
▁L	-8.47405
▁álbum	-8.47425
▁xeral	-8.47463
dor	-8.47611
▁2011	-8.47676
man	-8.47785
ni	-8.47926
▁fin	-8.47998
▁traballo	-8.48241
▁novembro	-8.48815
▁ademais	-8.4909
▁Sa	-8.49267
que	-8.49429
▁Ao	-8.49437
▁2010	-8.49966
▁finado	-8.50133
S	-8.50232
▁&#93;	-8.50388
▁case	-8.50392
▁tarde	-8.50434
▁María	-8.50855
▁actual	-8.50957
▁Ademais	-8.51196
▁Entre	-8.51307
▁&#91;	-8.51528
▁febreiro	-8.51845
▁Coruña	-8.51978
▁total	-8.52452
▁conta	-8.52475
▁momento	-8.52583
▁Al	-8.52712
ria	-8.52781
▁H	-8.53302
▁N	-8.53461
ismo	-8.53484
ri	-8.53608
▁millóns	-8.53705
▁pai	-8.53823
▁Como	-8.53832
▁ex	-8.54261
▁política	-8.54418
▁superficie	-8.54505
▁K	-8.54545
▁Vi	-8.54795
▁punto	-8.5492
▁toda	-8.55037
▁algunha	-8.55149
qui	-8.5536
▁feito	-8.55453
▁2009	-8.55471
▁Nacional	-8.55567
án	-8.55615
▁Ma	-8.56368
▁cinco	-8.56531
▁Mar	-8.56661
▁R	-8.56807
ada	-8.57525
▁polas	-8.57851
▁termo	-8.58009
▁obras	-8.58343
▁30	-8.58538
▁18	-8.58599
▁música	-8.58647
▁título	-8.5875
▁Porén	-8.59057
2	-8.59659
▁principais	-8.59841
ing	-8.59929
▁desenvolvemento	-8.59989
▁Terra	-8.60999
▁pro	-8.61118
▁finais	-8.61147
í	-8.61226
mi	-8.61554
io	-8.61876
▁estadounidense	-8.61933
ck	-8.62154
▁primeiros	-8.62226
rio	-8.62372
▁proceso	-8.62434
▁Non	-8.62623
▁casa	-8.62639
▁coas	-8.63636
▁In	-8.63733
ci	-8.63825
▁éxito	-8.63911
▁2008	-8.64023
▁club	-8.64149
▁Aínda	-8.64225
▁xénero	-8.64462
fa	-8.64653
▁corpo	-8.6466
▁produción	-8.6473
▁década	-8.64968
▁oficial	-8.6547
▁político	-8.65831
▁Do	-8.66565
▁ver	-8.66616
▁situado	-8.67012
▁José	-8.67087
▁días	-8.67159
▁orde	-8.6727
▁25	-8.67322
▁países	-8.67408
▁Guerra	-8.67423
▁Cando	-8.67556
▁Ra	-8.67611
▁coñecida	-8.67635
el	-8.67682
▁media	-8.67723
▁2006	-8.67862
▁presidente	-8.68037
bi	-8.68052
▁grupos	-8.68078
▁Despois	-8.6878
▁preto	-8.68889
▁principalmente	-8.68979
▁Reino	-8.69336
▁bo	-8.69358
nos	-8.69445
▁especialmente	-8.69778
▁puntos	-8.7002
▁territorio	-8.70707
zo	-8.70748
▁tan	-8.70877
ntes	-8.71048
po	-8.71203
▁metros	-8.71765
▁chegou	-8.72145
▁Está	-8.72359
▁pasou	-8.72398
▁Pa	-8.72747
▁membros	-8.73145
vo	-8.7339
▁todas	-8.73679
▁fronte	-8.73738
ú	-8.73838
▁Te	-8.73871
▁área	-8.73985
ña	-8.74165
▁sub	-8.74168
▁–	-8.74218
ina	-8.74302
▁Lo	-8.74471
▁hoxe	-8.74811
▁nivel	-8.74867
▁República	-8.75076
▁último	-8.75129
▁Mo	-8.7514
▁Instituto	-8.75285
sen	-8.75301
▁común	-8.75409
ó	-8.75551
▁español	-8.75618
▁leste	-8.75887
xo	-8.75949
▁2000	-8.76045
▁inglés	-8.76112
xa	-8.76118
or	-8.76223
v	-8.76923
▁posición	-8.76926
▁Ten	-8.76948
fi	-8.77052
▁propio	-8.77121
▁última	-8.77202
▁Tras	-8.77204
ka	-8.77335
▁papel	-8.77753
▁Me	-8.77835
▁estes	-8.78125
th	-8.78333
▁chamada	-8.78344
ur	-8.78384
▁del	-8.78467
ran	-8.7849
▁oeste	-8.78876
▁importantes	-8.79076
rá	-8.79083
▁Real	-8.79341
▁francés	-8.79803
▁al	-8.7981
▁Estado	-8.79832
▁antiga	-8.79872
é	-8.79902
▁liña	-8.80115
▁the	-8.80258
▁2012	-8.80329
▁construción	-8.80333
G	-8.80337
▁2005	-8.80397
use	-8.8058
D	-8.80779
M	-8.80826
▁estrutura	-8.80867
▁ma	-8.80928
▁Así	-8.81005
▁i	-8.81014
▁d	-8.81083
cu	-8.8177
▁director	-8.81925
▁posto	-8.82341
ón	-8.82346
▁Da	-8.82357
▁porque	-8.82619
▁único	-8.82768
▁volta	-8.82901
▁antigo	-8.83217
▁Pe	-8.83285
▁Carlos	-8.83304
▁seguintes	-8.83373
▁formación	-8.83432
▁estudos	-8.83493
▁libro	-8.83559
▁situada	-8.83627
▁Ta	-8.83685
▁conxunto	-8.83688
▁Be	-8.83807
▁membro	-8.83823
ge	-8.83883
▁Ro	-8.84074
▁ADN	-8.84134
▁alemán	-8.84196
▁Car	-8.84302
▁sempre	-8.84337
fe	-8.84366
▁IGE	-8.84512
▁Manuel	-8.84516
ja	-8.84542
▁Pi	-8.8458
▁24	-8.8461
▁home	-8.84833
▁coruñés	-8.8488
il	-8.85006
▁isto	-8.8501
▁2004	-8.85121
ita	-8.85399
▁Isto	-8.85495
▁calquer	-8.856
w	-8.85731
▁proteínas	-8.86148
▁senón	-8.86212
▁real	-8.86393
▁central	-8.86444
▁reino	-8.8651
ble	-8.86575
ton	-8.86623
▁19	-8.86648
xi	-8.86664
ver	-8.86669
▁To	-8.86763
▁Italia	-8.86765
▁Vigo	-8.86938
▁pesar	-8.86978
▁movemento	-8.87015
▁Roma	-8.87018
▁igrexa	-8.87029
▁man	-8.8704
▁Po	-8.87289
▁exército	-8.87524
▁teoría	-8.87691
▁orixinal	-8.87728
▁Pedro	-8.8775
▁alta	-8.88302
▁Alemaña	-8.88349
▁cargo	-8.88856
3	-8.8897
los	-8.89077
▁campo	-8.89202
▁Mundial	-8.89218
▁actividade	-8.89244
▁y	-8.89255
▁comezo	-8.89284
▁22	-8.89326
▁Tiña	-8.89379
▁2013	-8.89441
▁Partido	-8.89579
▁Li	-8.89585
▁Barcelona	-8.89715
▁21	-8.89814
ir	-8.89969
▁estilo	-8.90024
▁1999	-8.90134
▁eleccións	-8.90391
▁supón	-8.90611
▁galega	-8.90652
▁Imperio	-8.91014
▁elixido	-8.91026
▁animais	-8.91082
▁mediante	-8.91216
▁ós	-8.91253
▁capacidade	-8.9177
▁seis	-8.9182
▁eles	-8.91825
ista	-8.91863
áronse	-8.9192
lla	-8.91971
▁acordo	-8.92171
▁propia	-8.92213
▁nada	-8.92423
st	-8.92486
dores	-8.92536
▁militar	-8.92537
tra	-8.92579
▁edición	-8.92625
▁ante	-8.9266
▁fora	-8.92954
T	-8.93054
▁so	-8.93406
▁sería	-8.93668
▁resultado	-8.93688
L	-8.93731
▁tamaño	-8.93955
▁disco	-8.94071
▁gañou	-8.94095
cha	-8.94201
▁dicir	-8.94274
▁tal	-8.94346
▁anterior	-8.94363
▁Di	-8.94508
las	-8.94531
▁popular	-8.94604
▁medida	-8.94868
▁cambio	-8.94937
▁c	-8.95161
▁nomeado	-8.95234
▁23	-8.95358
tos	-8.95542
▁ácido	-8.95552
tu	-8.95613
▁X	-8.95669
▁internacional	-8.95738
▁per	-8.95741
▁terra	-8.95802
▁lista	-8.95825
▁Unión	-8.95947
▁iso	-8.96188
der	-8.96339
um	-8.96361
▁car	-8.96371
che	-8.96544
▁aparece	-8.96607
▁causa	-8.96626
ren	-8.96937
▁española	-8.97075
▁illas	-8.97087
▁control	-8.97147
▁Compostela	-8.97182
ry	-8.97315
F	-8.97485
▁programa	-8.9749
▁vila	-8.97557
ño	-8.97722
▁referirse	-8.97757
▁Ne	-8.97895
ándose	-8.98495
▁muller	-8.98528
▁función	-8.98539
▁costa	-8.98641
▁Mi	-8.9919
▁terceiro	-8.99293
▁Hai	-8.99327
▁Su	-8.99434
▁converteuse	-8.99467
▁2003	-8.99492
▁partidos	-8.99537
▁natural	-8.99857
▁idade	-8.9986
▁III	-9.00136
ación	-9.00144
▁Ba	-9.00173
▁John	-9.005
▁Man	-9.00816
▁Son	-9.01023
▁posteriormente	-9.01099
▁l	-9.01165
▁_	-9.01183
▁xeralmente	-9.01227
▁respecto	-9.0132
▁versión	-9.0152
▁única	-9.01621
▁Segunda	-9.01731
▁Ka	-9.01924
▁Igrexa	-9.02006
▁Si	-9.0205
▁nin	-9.02157
ko	-9.02248
▁interior	-9.0229
▁estudo	-9.02338
▁completa	-9.02382
▁estas	-9.02568
▁Fórmula	-9.02599
ke	-9.02795
▁su	-9.02812
▁Juan	-9.02941
▁nacional	-9.0305
▁forte	-9.03385
▁2014	-9.0344
▁meses	-9.03485
▁estivo	-9.03495
▁posible	-9.03858
▁finalmente	-9.03968
▁canto	-9.04035
▁formula	-9.04113
j	-9.04152
▁Ha	-9.04256
ten	-9.04403
▁fútbol	-9.04684
ha	-9.04717
▁Inglaterra	-9.04755
cia	-9.04757
ización	-9.04879
ki	-9.04883
fo	-9.04953
▁proxecto	-9.05027
▁mor	-9.05149
▁diversos	-9.05364
▁social	-9.05413
▁presenza	-9.05465
▁local	-9.05544
▁América	-9.05617
▁batalla	-9.05665
▁Pero	-9.05679
▁Lugo	-9.05707
▁27	-9.05737
▁Ho	-9.05771
▁paso	-9.05862
▁York	-9.05951
▁axuda	-9.06067
▁alto	-9.06252
▁pois	-9.06277
lu	-9.0631
▁26	-9.06344
▁Nos	-9.06461
K	-9.0653
▁arte	-9.06563
▁equipos	-9.06565
▁París	-9.06616
▁estar	-9.06646
O	-9.06814
▁irmán	-9.07046
▁XX	-9.07564
▁2015	-9.07574
▁Francisco	-9.07602
▁chegar	-9.07623
▁incluíndo	-9.07728
▁liga	-9.0795
▁etc	-9.07967
ouse	-9.08028
4	-9.0823
▁neste	-9.08359
▁28	-9.08402
▁estaban	-9.08521
H	-9.086
▁elementos	-9.08655
▁enerxía	-9.08724
▁recibiu	-9.0874
▁altura	-9.08798
▁Bo	-9.08831
it	-9.09156
▁Desde	-9.0922
▁Antonio	-9.09329
▁investigación	-9.09395
▁comunidade	-9.09515
▁50	-9.09665
▁pequena	-9.09806
ed	-9.09886
▁pequeno	-9.10008
ut	-9.10114
▁sexa	-9.10198
V	-9.10484
▁significa	-9.10677
▁obxectivo	-9.10704
et	-9.10835
▁XIX	-9.10868
N	-9.11025
▁Club	-9.11096
▁INE	-9.1119
▁W	-9.11201
▁cabo	-9.11212
ira	-9.11256
▁forza	-9.11409
▁cultura	-9.11474
▁grego	-9.11529
▁Portugal	-9.11576
▁Bu	-9.11616
▁autor	-9.11636
▁considerado	-9.11688
bra	-9.11693
▁espazo	-9.11852
les	-9.12012
▁Bar	-9.12045
▁televisión	-9.12092
▁menor	-9.12163
▁influencia	-9.12205
▁atópase	-9.12251
▁li	-9.12308
▁Ar	-9.12349
sta	-9.12543
▁nai	-9.12564
▁problemas	-9.12609
▁Go	-9.12672
▁J	-9.12722
▁°	-9.12764
▁debe	-9.12913
▁pobo	-9.12998
▁Lu	-9.13072
▁Xoán	-9.13093
▁Sur	-9.13217
▁Cor	-9.13318
▁Norte	-9.1333
rro	-9.1339
▁Ga	-9.13525
▁So	-9.13567
▁planta	-9.13959
▁par	-9.14027
tas	-9.14119
tar	-9.14268
▁plantas	-9.14347
▁Ri	-9.14586
▁ba	-9.14688
▁situación	-9.14859
▁referencia	-9.14859
▁Can	-9.14923
mar	-9.14956
du	-9.1503
▁dirección	-9.15216
▁luz	-9.15285
▁publicou	-9.15293
▁cantidade	-9.15339
▁casos	-9.15392
R	-9.15483
▁2016	-9.15491
▁canción	-9.1573
▁método	-9.15862
▁cabeza	-9.15868
▁mo	-9.15884
tivo	-9.15917
▁diversas	-9.16048
▁sede	-9.16158
llo	-9.16228
▁...	-9.16236
den	-9.1624
ya	-9.16276
▁vai	-9.1629
▁superior	-9.16351
▁Logo	-9.16478
▁selección	-9.16481
▁interese	-9.16644
▁filla	-9.16702
▁po	-9.16709
▁vi	-9.16855
tes	-9.16946
▁película	-9.1712
▁volveu	-9.17162
▁lugares	-9.17174
▁29	-9.17327
▁campionato	-9.17585
▁lonxitude	-9.1773
▁León	-9.17746
car	-9.17747
U	-9.17885
▁trans	-9.17919
▁aproximadamente	-9.18025
via	-9.1814
▁valor	-9.18188
▁factor	-9.18232
ster	-9.18309
▁cidades	-9.18394
cho	-9.18425
▁vitoria	-9.18456
▁rock	-9.18456
▁División	-9.18459
▁deles	-9.18461
land	-9.18464
▁creación	-9.18585
▁novas	-9.1866
▁2001	-9.18881
▁Per	-9.18905
▁figura	-9.19028
tina	-9.19069
▁baixa	-9.19167
▁público	-9.19217
▁Historia	-9.19616
▁2002	-9.19665
▁loita	-9.19725
lin	-9.19768
ll	-9.19843
▁”	-9.19928
▁modelo	-9.19978
▁formar	-9.20042
▁Castro	-9.20186
nda	-9.20257
▁anti	-9.2033
▁categoría	-9.20431
▁actualmente	-9.20561
lt	-9.20788
▁inicial	-9.20862
nta	-9.20886
▁enfermidade	-9.20888
▁humanos	-9.20962
▁comeza	-9.2108
▁Copa	-9.21083
rra	-9.2109
▁empresa	-9.21138
▁tradicional	-9.21171
gar	-9.21205
▁Estes	-9.21211
▁metade	-9.21261
▁sa	-9.21314
▁Unido	-9.21372
▁modo	-9.21472
chi	-9.2212
▁conseguiu	-9.2221
▁actualidade	-9.22268
▁Pro	-9.22443
pi	-9.22504
▁distrito	-9.22531
ber	-9.22617
▁“	-9.22649
ados	-9.22779
▁principios	-9.22796
tal	-9.22881
▁le	-9.2305
▁bi	-9.23081
ión	-9.23291
▁apoio	-9.23317
E	-9.23501
▁lado	-9.23504
▁data	-9.23535
▁sete	-9.23634
▁proteína	-9.23976
tou	-9.24043
con	-9.24045
P	-9.24163
▁organización	-9.24169
nd	-9.24178
▁Rei	-9.24318
▁and	-9.2433
▁crecemento	-9.24363
▁formado	-9.2443
▁escritor	-9.24495
▁Liga	-9.24517
bre	-9.24547
▁libre	-9.24614
▁núcleo	-9.24632
▁xogador	-9.24738
▁redor	-9.24873
▁1990	-9.2488
bu	-9.24971
▁características	-9.25049
▁marca	-9.25078
▁Fa	-9.25149
▁levou	-9.25151
▁carreiras	-9.25152
▁Fernando	-9.25219
▁publicado	-9.25263
▁novos	-9.25405
▁mundial	-9.25446
▁ningún	-9.25446
▁Á	-9.25481
▁primeiras	-9.25572
▁Nas	-9.25581
▁to	-9.25609
▁mal	-9.25679
▁Pontevedra	-9.25865
-19	-9.25991
▁información	-9.26168
tura	-9.26502
▁topónimo	-9.26567
▁Castela	-9.26614
▁vía	-9.26621
▁particular	-9.2676
▁condicións	-9.26837
▁novela	-9.26922
tor	-9.26947
▁100	-9.26987
▁—	-9.27007
mer	-9.27212
▁agora	-9.27227
▁xogo	-9.27243
▁destes	-9.2732
ng	-9.27405
▁importancia	-9.2747
ie	-9.27505
ase	-9.2751
sh	-9.27518
▁fillos	-9.27562
▁persoa	-9.27931
ais	-9.28015
▁nesta	-9.28172
▁Ti	-9.28172
gue	-9.28224
▁temas	-9.28353
per	-9.28549
▁certa	-9.28566
▁especial	-9.28625
▁sitio	-9.28712
ven	-9.28727
▁municipal	-9.28745
cos	-9.2889
▁Bi	-9.2903
▁encima	-9.29057
▁Estatística	-9.29079
▁mes	-9.29242
▁Ourense	-9.29332
▁Val	-9.29415
▁unión	-9.29428
▁tipos	-9.29476
I	-9.29511
▁grazas	-9.29542
▁velocidade	-9.29567
ín	-9.29631
▁fan	-9.29642
ncia	-9.29665
▁profesor	-9.29954
▁principio	-9.3012
▁Algún	-9.30222
ru	-9.30256
▁Cu	-9.30315
▁leva	-9.30346
▁nunca	-9.30358
▁musical	-9.30387
▁soa	-9.30414
▁francesa	-9.30512
▁dá	-9.30773
ica	-9.30868
▁me	-9.3088
tre	-9.30886
▁profesional	-9.30956
▁linguas	-9.30994
▁carácter	-9.31121
▁dereito	-9.31229
▁material	-9.31372
▁igual	-9.31391
▁revista	-9.31419
▁País	-9.31428
▁verán	-9.31441
▁40	-9.31443
▁ambos	-9.31475
▁algo	-9.31581
▁emperador	-9.31581
▁García	-9.31585
▁esa	-9.31722
▁práctica	-9.32027
▁diminución	-9.32046
▁escola	-9.32071
▁Dende	-9.32139
▁alí	-9.32165
▁Ce	-9.32171
▁fose	-9.32245
▁últimos	-9.3225
tiva	-9.32371
▁compañía	-9.32374
▁municipio	-9.324
▁0	-9.32416
▁dirixido	-9.32606
▁bacteria	-9.3265
▁Internacional	-9.32699
▁Du	-9.3275
▁te	-9.32823
▁clase	-9.33162
▁ra	-9.33334
▁campaña	-9.33356
▁palabra	-9.33364
nia	-9.3341
▁idea	-9.33495
▁italiano	-9.33525
▁ela	-9.33535
ho	-9.33601
▁Londres	-9.33752
▁edificio	-9.33779
at	-9.33817
▁célula	-9.33832
▁val	-9.33841
ino	-9.33907
▁Vila	-9.34056
5	-9.34083
▁Ru	-9.34172
▁diferenza	-9.34235
cio	-9.34306
ces	-9.34418
▁31	-9.34427
▁división	-9.34441
ido	-9.3462
▁acción	-9.3467
▁van	-9.347
▁civil	-9.3471
▁motor	-9.34827
▁inter	-9.34909
▁terceira	-9.35011
▁Fe	-9.35091
▁Casa	-9.35186
▁fóra	-9.352
▁podería	-9.35268
ff	-9.35707
▁sociedade	-9.35812
ine	-9.35844
▁comercial	-9.35871
▁forzas	-9.35966
▁maneira	-9.36072
▁atopa	-9.36262
▁arredor	-9.36274
▁pa	-9.36351
hi	-9.36388
▁Ni	-9.36476
▁mercado	-9.36662
jo	-9.36752
▁deseño	-9.36857
▁tema	-9.36988
ley	-9.37246
▁distinta	-9.37254
▁tropas	-9.37295
▁servizo	-9.37303
▁aeroporto	-9.37391
▁ocasións	-9.37396
▁cadea	-9.37459
dia	-9.37633
▁fase	-9.37659
▁ciclo	-9.37799
▁participou	-9.37843
▁humano	-9.37857
▁Neste	-9.37919
▁contén	-9.37983
▁capa	-9.3805
▁Ko	-9.38158
▁pequenos	-9.38205
▁permite	-9.38259
▁latín	-9.38312
▁Cha	-9.384
▁fe	-9.38434
▁rúa	-9.38478
▁xenes	-9.38524
▁ampla	-9.38719
adas	-9.38721
gu	-9.38775
▁representa	-9.38793
rre	-9.38832
▁pe	-9.38845
▁pedra	-9.38858
▁membrana	-9.38953
ion	-9.39
▁tri	-9.39054
▁efecto	-9.39061
▁1980	-9.39141
▁distinto	-9.39172
▁IV	-9.39185
ida	-9.39283
▁sentido	-9.39347
▁1936	-9.39376
▁for	-9.39386
▁1991	-9.39395
▁He	-9.394
tion	-9.39422
▁Estas	-9.39433
▁Xapón	-9.39494
▁radio	-9.39602
▁xira	-9.39713
▁maiores	-9.39758
▁Galego	-9.3988
▁1995	-9.39918
▁augas	-9.39948
▁Sol	-9.39953
▁Campionato	-9.40074
▁existen	-9.40301
▁miúdo	-9.40336
▁Galiza	-9.40565
▁mostra	-9.40572
▁independente	-9.40691
▁realizar	-9.414
▁expresión	-9.41435
▁tiñan	-9.41516
▁Primeira	-9.41659
▁mil	-9.41737
▁localidade	-9.4176
tri	-9.41956
▁cm	-9.42027
▁ce	-9.42092
▁pequenas	-9.42127
▁morreu	-9.42198
nt	-9.42339
▁oito	-9.42727
▁escribiu	-9.42771
ad	-9.42831
nde	-9.42832
▁quedou	-9.42848
▁África	-9.42957
ly	-9.42987
▁60	-9.43062
▁terras	-9.4318
▁rexións	-9.43189
▁Rodríguez	-9.43205
▁piloto	-9.43217
▁forman	-9.43568
ré	-9.43695
▁=	-9.43746
▁dominio	-9.43758
▁Fernández	-9.43851
id	-9.44041
▁000	-9.44053
▁1998	-9.44191
▁normalmente	-9.44218
▁1996	-9.44234
▁vista	-9.44369
un	-9.4437
tro	-9.44391
▁alcalde	-9.44448
▁literatura	-9.44565
▁puido	-9.44654
osa	-9.44708
▁xefe	-9.44758
▁teatro	-9.44777
▁traballos	-9.44825
▁ve	-9.44833
▁clasificación	-9.44893
▁Luís	-9.4508
ul	-9.45181
▁competición	-9.45191
▁logrou	-9.452
dio	-9.45229
lia	-9.45343
ku	-9.45404
▁temperatura	-9.45444
▁estación	-9.45478
▁Xa	-9.45573
▁producir	-9.45583
▁Rusia	-9.45696
eiro	-9.45734
▁existe	-9.45745
▁produtos	-9.45861
▁entrada	-9.45914
tica	-9.46062
eta	-9.4607
▁existencia	-9.46161
▁sol	-9.46319
▁probable	-9.46366
▁deixou	-9.46385
▁Jo	-9.46398
▁Consello	-9.46492
▁Ver	-9.4672
ner	-9.46721
▁industria	-9.46797
▁1992	-9.46827
▁Sal	-9.46878
▁numerosa	-9.4691
val	-9.46934
ito	-9.46971
▁presenta	-9.46989
ábase	-9.47003
▁numerosos	-9.47007
▁distancia	-9.4711
lar	-9.47263
ura	-9.47276
istas	-9.47316
▁naceu	-9.47364
▁occidental	-9.4737
▁poli	-9.47707
▁premio	-9.47734
▁Mon	-9.47771
▁economía	-9.47776
▁desa	-9.47816
▁escrita	-9.47898
▁inclúe	-9.47936
▁formada	-9.4803
eira	-9.48143
▁dereitos	-9.48458
ide	-9.48508
▁Tra	-9.48521
men	-9.48582
▁1997	-9.48633
icamente	-9.48664
iro	-9.4872
▁aves	-9.48837
▁Australia	-9.48841
6	-9.48936
▁fonte	-9.48971
▁cuxa	-9.49123
▁defensa	-9.49311
▁Hu	-9.49461
▁natureza	-9.49554
▁barrio	-9.49562
▁auto	-9.49635
▁Final	-9.49642
▁formas	-9.49653
amp	-9.49681
wa	-9.49686
▁Goberno	-9.49709
▁cre	-9.49781
▁evolución	-9.49845
▁quilómetros	-9.49998
▁ir	-9.50026
▁Río	-9.50073
▁1970	-9.5014
▁1994	-9.50158
▁ouro	-9.50188
▁pasar	-9.5029
cer	-9.50333
▁manter	-9.50422
ugués	-9.50443
▁había	-9.50512
rían	-9.50514
▁pasa	-9.50616
▁mu	-9.50651
▁indica	-9.50687
mp	-9.50713
▁boa	-9.50926
▁decidiu	-9.50926
▁lei	-9.50992
▁cuarto	-9.5107
▁tra	-9.51108
▁tradición	-9.51236
gi	-9.51344
▁An	-9.51462
shi	-9.51497
▁posúe	-9.51717
▁máxima	-9.51748
▁papa	-9.51879
▁cancións	-9.51942
▁Hi	-9.51992
▁México	-9.51998
X	-9.52011
▁tratamento	-9.52105
cas	-9.52118
▁Za	-9.52179
▁autores	-9.52245
▁Cal	-9.52382
▁Chi	-9.52457
▁complexo	-9.52506
▁presión	-9.52513
min	-9.52539
▁bandeira	-9.52591
▁distribución	-9.52642
▁1993	-9.52708
▁aumento	-9.52751
▁cambios	-9.52805
▁proba	-9.52814
▁realidade	-9.52827
▁selo	-9.52828
▁fa	-9.5283
▁traballar	-9.52836
▁Actualmente	-9.52886
▁pel	-9.52911
▁Galega	-9.52921
00	-9.52994
▁Brasil	-9.53026
▁80	-9.53062
▁!	-9.53139
▁servizos	-9.53219
ana	-9.53312
▁falta	-9.53366
▁bastante	-9.53581
▁mellores	-9.53646
▁resposta	-9.53668
▁libros	-9.53671
▁ARN	-9.53704
▁destas	-9.53777
▁porto	-9.53777
▁atopar	-9.53787
▁similar	-9.53935
▁Ber	-9.54069
ían	-9.54197
gra	-9.54295
▁comunicación	-9.54404
nes	-9.54496
▁partes	-9.54648
▁noite	-9.54669
▁coche	-9.54705
sto	-9.54707
▁celular	-9.54726
▁masa	-9.54735
ico	-9.54845
ol	-9.54968
▁cultural	-9.55047
▁China	-9.55091
▁xoga	-9.55301
▁ministro	-9.55392
▁curso	-9.5553
▁límite	-9.55532
rán	-9.55557
▁carga	-9.55575
▁Miguel	-9.55625
▁contacto	-9.55627
▁derrota	-9.55679
▁coñece	-9.5571
▁David	-9.55771
▁representación	-9.55936
▁rede	-9.55974
▁Her	-9.55977
▁Mu	-9.56013
▁presente	-9.56056
▁Fo	-9.56119
▁pi	-9.56146
izado	-9.56275
▁imaxes	-9.56281
ny	-9.56289
▁New	-9.56381
▁mediados	-9.56549
▁extremo	-9.56572
▁utilizado	-9.56584
▁coñecemento	-9.5669
▁Tu	-9.56775
gua	-9.56784
▁composto	-9.56806
▁Z	-9.56851
▁independencia	-9.5688
▁obtivo	-9.56885
▁xente	-9.56925
▁fundamental	-9.56989
▁Porto	-9.5705
▁nese	-9.57098
▁Idade	-9.57144
▁habitual	-9.57191
nio	-9.57241
-1	-9.57294
ero	-9.57397
des	-9.57407
▁efectos	-9.5749
▁xeneral	-9.57735
▁Academia	-9.57742
▁frecuencia	-9.57742
▁1960	-9.57775
▁obxecto	-9.57881
▁sangue	-9.58016
▁Monte	-9.58048
▁f	-9.58256
▁Fi	-9.58399
▁áreas	-9.584
▁Máis	-9.58417
▁chegada	-9.58493
▁busca	-9.58506
▁Ferrol	-9.58638
▁gañar	-9.58638
és	-9.58639
▁usado	-9.58714
he	-9.58777
▁XVIII	-9.58866
ea	-9.58961
▁1989	-9.59005
▁baseado	-9.591
▁voo	-9.59117
▁sección	-9.59147
▁parece	-9.59275
▁super	-9.59289
▁crear	-9.59309
▁apareceu	-9.59328
▁chega	-9.59374
▁campión	-9.59422
▁peso	-9.59429
ros	-9.59457
▁Afonso	-9.59512
rd	-9.59712
▁Santo	-9.59738
▁xogadores	-9.59765
ix	-9.59818
▁actor	-9.59849
▁lo	-9.59861
tación	-9.60012
▁regular	-9.6005
▁x	-9.60428
▁estadio	-9.60441
▁ro	-9.60476
▁mans	-9.60538
▁órgano	-9.60595
▁tiveron	-9.60619
▁etapa	-9.60649
▁cantante	-9.60669
▁camiño	-9.60728
▁densidade	-9.60746
▁Ci	-9.60796
▁Pan	-9.60817
▁castelán	-9.60823
tin	-9.60825
▁ga	-9.60869
▁madeira	-9.60899
dra	-9.60915
ite	-9.60956
▁sistemas	-9.60989
▁viaxe	-9.61089
▁h	-9.61179
▁pouca	-9.61344
▁fi	-9.6142
▁ambiente	-9.61439
▁ningunha	-9.61489
▁Posterior	-9.61539
▁horas	-9.61564
▁actividades	-9.61685
▁Centro	-9.61823
▁Que	-9.61854
8	-9.61935
▁ha	-9.62048
mina	-9.62094
▁Coa	-9.62102
▁imaxe	-9.62121
▁realizou	-9.62125
ig	-9.62152
▁Nesta	-9.62225
▁dobre	-9.62251
▁bispo	-9.62313
stra	-9.62335
▁Ben	-9.62427
▁misión	-9.62468
idos	-9.62564
▁clara	-9.6265
▁calidade	-9.62655
bor	-9.62695
▁dura	-9.62835
▁xene	-9.62895
▁70	-9.62971
ger	-9.63015
▁fontes	-9.63145
▁considerada	-9.63211
▁funcións	-9.63219
▁británico	-9.63226
▁evitar	-9.63313
▁India	-9.63354
à	-9.63403
▁relacións	-9.63506
am	-9.63589
▁Illa	-9.63608
▁creou	-9.63623
▁b	-9.63698
nas	-9.6371
▁posterior	-9.63741
▁clima	-9.63838
▁propiedade	-9.63942
cal	-9.63944
50	-9.6399
▁industrial	-9.64006
▁niveis	-9.64067
nce	-9.64071
▁resulta	-9.64135
▁esquerda	-9.64144
▁pódese	-9.64246
stro	-9.64259
▁90	-9.64266
▁obter	-9.64279
▁Media	-9.64393
▁Era	-9.644
bel	-9.64457
▁pan	-9.64463
ático	-9.64598
▁pertencente	-9.64603
▁consecuencia	-9.64615
ario	-9.64659
W	-9.64898
▁golpe	-9.6493
▁castelo	-9.65046
▁posibilidade	-9.65071
▁conseguir	-9.6514
▁resistencia	-9.65368
▁concepto	-9.65395
▁publicación	-9.65441
▁composta	-9.6554
▁1987	-9.6557
gas	-9.65583
▁formou	-9.6562
▁facendo	-9.65675
▁transporte	-9.65721
ard	-9.65783
▁Asia	-9.65788
▁probas	-9.65836
▁Bre	-9.6584
▁fo	-9.65847
▁NBA	-9.65882
fer	-9.65917
▁ciencia	-9.65946
▁+	-9.66058
▁reacción	-9.6618
▁longa	-9.66346
▁ta	-9.66489
▁Cer	-9.66608
▁xeo	-9.66702
ler	-9.66812
▁Escola	-9.66878
▁Museo	-9.67194
▁máximo	-9.67214
▁Tri	-9.6723
▁directamente	-9.67262
▁festa	-9.6732
▁persoal	-9.6737
ano	-9.67409
▁militares	-9.67428
▁baseada	-9.67484
ente	-9.67543
▁Ramón	-9.6757
em	-9.67606
▁texto	-9.67628
▁aire	-9.67651
▁doce	-9.6768
7	-9.67787
▁ti	-9.67789
▁virus	-9.67821
▁aparecen	-9.67894
▁entrou	-9.67907
▁sector	-9.67925
▁pé	-9.67927
▁follas	-9.67949
▁inferior	-9.6795
▁Xunta	-9.67964
nza	-9.67972
ic	-9.67985
▁acceso	-9.68037
▁económica	-9.6816
▁g	-9.68172
▁concentración	-9.68206
▁moeda	-9.68309
▁reinado	-9.68427
pre	-9.68437
▁matrimonio	-9.68464
▁California	-9.68491
▁relacionado	-9.68525
▁mestura	-9.68572
▁problema	-9.68574
▁Wa	-9.68685
▁mecanismo	-9.68759
▁Xosé	-9.68947
▁aquel	-9.68948
▁acto	-9.69018
▁Illas	-9.69053
▁necesidade	-9.69081
▁cine	-9.69093
▁metal	-9.69199
▁próximo	-9.6927
▁Paul	-9.69293
▁Gi	-9.69317
▁aparición	-9.69378
xu	-9.69417
▁Deus	-9.69439
▁Mor	-9.69447
▁1986	-9.69466
▁Xeral	-9.69499
▁k	-9.69532
▁segue	-9.6955
▁anteriores	-9.69639
▁tempos	-9.6964
▁análise	-9.69722
▁tratado	-9.69743
▁CD	-9.69746
▁levar	-9.69781
▁houb	-9.69848
▁trono	-9.69874
▁pista	-9.69922
cta	-9.69924
▁podía	-9.70041
cre	-9.70116
rri	-9.70245
▁doutros	-9.70278
ty	-9.70352
mas	-9.70399
▁grega	-9.70503
▁organismos	-9.70504
▁secuencia	-9.70603
▁moléculas	-9.70678
▁locais	-9.70792
▁territorios	-9.70921
▁traballou	-9.70954
▁Cataluña	-9.71121
▁humana	-9.71208
▁constante	-9.71335
▁1979	-9.71347
▁minutos	-9.71465
▁Española	-9.7147
▁produto	-9.71472
▁futuro	-9.71589
▁nenos	-9.71648
▁Robert	-9.71675
ze	-9.71716
▁unidade	-9.71718
▁marcha	-9.71724
▁estados	-9.71988
tt	-9.72072
▁corte	-9.72253
▁inverno	-9.72282
▁extensión	-9.72337
rios	-9.72649
▁exterior	-9.7269
▁sinxelo	-9.72708
▁deriva	-9.72766
▁líder	-9.72776
▁dar	-9.72784
▁procedente	-9.72807
▁Lei	-9.72827
▁1978	-9.72958
▁contrato	-9.72995
▁resultados	-9.73058
▁produciu	-9.73079
▁Polo	-9.73094
▁mosteiro	-9.73119
tur	-9.73201
▁López	-9.73203
▁carbono	-9.73358
par	-9.73393
iva	-9.73565
▁palabras	-9.73586
▁activa	-9.73677
je	-9.73697
▁lles	-9.73707
▁fondo	-9.73751
▁Canadá	-9.73766
▁inclúen	-9.73869
▁Pu	-9.73903
▁conde	-9.73918
▁comezaron	-9.74078
▁séculos	-9.74082
ak	-9.74184
▁Gar	-9.74231
▁baloncesto	-9.74247
▁raíña	-9.74335
▁Ja	-9.74359
▁Algunha	-9.7436
▁xogar	-9.7437
▁Outros	-9.74371
▁Congreso	-9.74502
▁Gu	-9.74672
▁padrón	-9.74701
▁1982	-9.74707
▁Central	-9.74874
▁anunciou	-9.74902
▁produce	-9.74995
▁perda	-9.75058
▁1983	-9.75079
▁For	-9.75082
▁intento	-9.75153
▁porén	-9.75173
gui	-9.75208
▁Popular	-9.75416
▁sal	-9.75426
▁ferro	-9.75444
▁Mundo	-9.75548
ante	-9.75587
gt	-9.75589
▁escrito	-9.75619
▁famoso	-9.75761
▁praza	-9.75765
gen	-9.75849
▁lu	-9.75855
▁editado	-9.75871
▁denominación	-9.75877
▁Luis	-9.75959
▁grave	-9.75965
▁2017	-9.76177
▁creado	-9.76272
▁Arxentina	-9.76512
▁técnica	-9.76587
▁Irlanda	-9.76599
▁inicio	-9.76602
▁xornalista	-9.76687
▁1988	-9.76692
▁personaxe	-9.76829
▁Festival	-9.7686
mbo	-9.76981
▁fala	-9.77104
can	-9.77107
▁branco	-9.77138
dy	-9.7727
▁medios	-9.773
▁Pre	-9.77314
▁ruso	-9.77422
▁coroa	-9.7745
▁escala	-9.77453
▁traballa	-9.77541
▁continua	-9.77571
lan	-9.77601
▁1985	-9.77628
▁antigos	-9.77667
▁tales	-9.77688
lé	-9.77696
▁James	-9.77714
▁mi	-9.77846
ola	-9.7786
▁accidente	-9.77943
▁XVI	-9.77998
▁mono	-9.7806
uro	-9.782
▁crítica	-9.78204
▁fronteira	-9.78329
▁individuos	-9.78342
cto	-9.78377
▁xu	-9.7841
▁consiste	-9.78414
▁conquista	-9.78495
▁réxime	-9.78503
ral	-9.78596
▁comercio	-9.78596
▁asociación	-9.78728
▁continuou	-9.78758
▁adoita	-9.78782
▁condado	-9.78791
▁xogou	-9.78834
▁sociais	-9.78864
▁fundada	-9.78875
▁oriental	-9.78903
pro	-9.78914
tic	-9.78966
▁?	-9.78978
▁dereita	-9.79049
▁altitude	-9.79188
▁Pola	-9.7921
gos	-9.79257
▁adestrador	-9.79268
▁toma	-9.79422
▁caza	-9.79422
▁entra	-9.79435
▁participación	-9.79439
▁plan	-9.7973
▁orixina	-9.79757
▁liñas	-9.79799
▁cuxo	-9.79802
▁razón	-9.79819
▁linguaxe	-9.79835
▁George	-9.79856
▁entidades	-9.79874
▁t	-9.79882
▁romana	-9.79921
80	-9.80023
ä	-9.80072
▁Records	-9.80077
▁formando	-9.80125
▁Bal	-9.80157
▁1950	-9.8022
▁personaxes	-9.80326
▁liberdade	-9.80355
▁St	-9.80364
▁variedade	-9.80379
zi	-9.8045
▁composición	-9.80474
▁inglesa	-9.80505
▁compositor	-9.80537
▁diferente	-9.80634
iu	-9.8073
▁administración	-9.80754
▁amor	-9.808
▁alemá	-9.80813
▁armas	-9.80902
▁será	-9.80915
rón	-9.80929
▁chegaron	-9.8101
▁pública	-9.81043
▁1977	-9.81118
nto	-9.8115
xia	-9.81151
cri	-9.81222
▁monte	-9.8126
▁Grecia	-9.81298
▁compostos	-9.81361
▁consta	-9.81382
▁cromosoma	-9.81415
▁clases	-9.81665
▁peixes	-9.8175
▁nove	-9.81755
mb	-9.81783
▁González	-9.81842
▁Valencia	-9.81936
▁chan	-9.81961
▁indican	-9.81988
▁príncipe	-9.81995
▁Xogos	-9.81998
▁nalgún	-9.82026
▁motivo	-9.82078
▁Bretaña	-9.82087
▁honra	-9.82088
▁can	-9.82145
▁departamento	-9.8222
▁san	-9.82255
▁representante	-9.82293
▁utilizar	-9.82309
▁dez	-9.82382
▁mestre	-9.82401
era	-9.82486
▁certo	-9.82587
▁torre	-9.82627
▁recoñecemento	-9.82653
▁saída	-9.82676
▁recurso	-9.82719
▁Henrique	-9.82895
0	-9.82964
▁1984	-9.82987
▁200	-9.82991
▁animal	-9.82993
gan	-9.83002
▁ataque	-9.83032
▁limita	-9.83043
▁1976	-9.83142
▁1981	-9.83142
▁algún	-9.83176
▁artistas	-9.8321
▁ven	-9.83253
▁poeta	-9.83266
▁obxectos	-9.83281
▁experiencia	-9.8329
▁Mentre	-9.83298
▁elas	-9.83298
▁lanzado	-9.83361
▁converter	-9.8343
▁dirixida	-9.8348
▁técnicas	-9.83613
▁Aragón	-9.83633
▁William	-9.83665
▁azul	-9.83694
▁Don	-9.83707
ux	-9.83731
▁Ó	-9.83887
▁diante	-9.8399
▁precisa	-9.841
▁planeta	-9.84104
-2	-9.84139
▁Ku	-9.84153
▁Existen	-9.84161
▁Austria	-9.84194
▁actriz	-9.84382
▁Ana	-9.84385
▁recibir	-9.8439
▁Jean	-9.8442
▁propiedades	-9.84473
▁interpretación	-9.84544
▁grao	-9.84734
ontevedrés	-9.84759
▁deu	-9.84759
▁recibe	-9.84798
we	-9.848
▁naturais	-9.8483
iz	-9.84854
▁Ge	-9.84878
▁decisión	-9.84992
▁elemento	-9.85038
▁Parlamento	-9.85043
▁tomou	-9.85067
bles	-9.85101
ex	-9.85122
,5	-9.85155
▁du	-9.85183
▁We	-9.85285
▁científico	-9.85298
▁completo	-9.85335
▁prefectura	-9.85391
▁parella	-9.85495
▁cores	-9.85531
▁Debid	-9.8556
port	-9.85617
tón	-9.85715
▁favor	-9.85848
▁cu	-9.85873
▁Pérez	-9.85931
▁noutro	-9.85972
▁creada	-9.85989
▁Y	-9.86136
▁rápida	-9.86154
▁educación	-9.86155
▁esposa	-9.86161
izada	-9.86197
▁atópan	-9.86346
▁mando	-9.8638
vis	-9.86468
▁responsable	-9.86474
im	-9.86598
10	-9.86613
▁suficiente	-9.86634
▁noroeste	-9.86635
▁ocupa	-9.86643
ire	-9.86675
▁1975	-9.86676
ando	-9.86796
▁torneo	-9.86796
▁ruta	-9.86826
▁cámara	-9.86828
▁océano	-9.86924
▁poesía	-9.86988
▁escudo	-9.86989
▁Cruz	-9.87021
▁viven	-9.87042
30	-9.87063
▁estudar	-9.8712
▁coñecidos	-9.87122
,4	-9.87136
▁fundado	-9.87192
▁física	-9.87222
▁visita	-9.87264
▁escribir	-9.87278
▁he	-9.87321
▁ad	-9.87403
▁tomar	-9.87413
▁estruturas	-9.87442
▁gas	-9.87522
▁porta	-9.87548
▁Cada	-9.87553
▁península	-9.87602
▁ocorre	-9.87614
▁publicada	-9.87747
▁provoca	-9.87836
▁Va	-9.87925
▁comúns	-9.87941
▁oposición	-9.87959
▁Fu	-9.88184
▁bu	-9.88194
▁vivir	-9.88217
▁parede	-9.88253
▁bordo	-9.88264
▁chegando	-9.8834
ier	-9.88426
bri	-9.88438
▁instalación	-9.88488
mon	-9.88536
▁Ya	-9.8854
▁35	-9.88555
idae	-9.88582
▁Grande	-9.88678
tia	-9.88688
toria	-9.88795
▁FC	-9.88957
▁entrar	-9.89017
▁trala	-9.89055
▁franceses	-9.8907
▁incluso	-9.89106
▁rolda	-9.89136
▁unidades	-9.89273
teñen	-9.89294
▁conserva	-9.89319
▁tódolo	-9.89334
mes	-9.89362
▁pobos	-9.89485
▁contido	-9.89485
tz	-9.89516
▁Ve	-9.89599
▁construír	-9.89646
▁moderna	-9.89667
▁cuberta	-9.89697
ther	-9.89698
▁corrente	-9.89701
▁Ferrari	-9.89737
▁sueste	-9.89768
▁pezas	-9.89806
▁materiais	-9.89899
▁desenvolveu	-9.8998
▁romano	-9.90006
▁1930	-9.90043
▁suma	-9.90122
▁disputa	-9.90161
▁cancro	-9.90199
▁XVII	-9.9026
▁dinastía	-9.90394
▁denominada	-9.90415
▁1974	-9.90502
▁ponte	-9.90529
▁colaboración	-9.90561
ona	-9.90565
▁sexual	-9.90567
▁Bra	-9.90636
▁capela	-9.90731
▁histórico	-9.90755
▁fixeron	-9.90761
rou	-9.90767
▁Par	-9.90863
ac	-9.90893
ró	-9.90912
día	-9.90973
▁posteriores	-9.90991
encia	-9.90995
▁frecuente	-9.91005
▁1973	-9.91103
tado	-9.91106
▁rapidamente	-9.9113
▁rápido	-9.91231
▁breve	-9.91232
dora	-9.91302
▁duque	-9.9135
▁ru	-9.9139
▁ascenso	-9.91433
▁femias	-9.91433
pla	-9.91622
▁artigo	-9.91629
▁encontro	-9.91632
▁Asociación	-9.91702
▁médico	-9.91737
hu	-9.91834
▁vinte	-9.91858
▁arquitectura	-9.91905
gre	-9.91972
▁combate	-9.92054
om	-9.92104
▁árabe	-9.92123
▁detrás	-9.92137
▁Ex	-9.92152
▁VI	-9.92188
▁química	-9.92332
▁histórica	-9.92408
▁infección	-9.92448
▁Vo	-9.9248
▁Europea	-9.92607
▁feita	-9.92635
▁bio	-9.92637
▁potencia	-9.92662
▁municipais	-9.92686
▁500	-9.92699
▁contrario	-9.92765
▁directo	-9.92776
▁micro	-9.92786
▁delas	-9.92801
▁ovos	-9.92817
▁irmáns	-9.92846
▁acadou	-9.92964
▁xenética	-9.92996
▁Los	-9.9302
▁machos	-9.93036
▁denominado	-9.93057
▁semellante	-9.9306
▁daquela	-9.93137
ot	-9.93159
▁adoitan	-9.93242
lina	-9.93246
▁considera	-9.93272
▁estableceu	-9.93377
▁Com	-9.9358
▁nacemento	-9.93607
▁nomes	-9.9368
▁fusión	-9.93705
lí	-9.93765
.000	-9.93775
▁pasando	-9.9378
▁dólares	-9.93809
▁comportamento	-9.93926
▁continente	-9.93955
▁organismo	-9.93973
ras	-9.94039
▁Wi	-9.9404
pu	-9.94065
▁normal	-9.94098
▁coñecer	-9.94176
én	-9.94226
▁trata	-9.94227
▁dirixiu	-9.94247
▁materia	-9.94249
lles	-9.94257
▁demais	-9.94276
▁Che	-9.94323
▁Dereito	-9.94509
▁branca	-9.94556
ü	-9.94585
▁Tor	-9.94594
▁paz	-9.94629
fu	-9.94781
▁unir	-9.94809
▁va	-9.94825
nder	-9.94876
▁amigo	-9.9488
mba	-9.94885
▁Deportivo	-9.94892
▁batería	-9.94947
▁oficiais	-9.94962
▁deben	-9.95028
▁romanos	-9.95081
▁ci	-9.95132
cen	-9.95139
▁soldados	-9.95142
▁publica	-9.95158
dura	-9.95163
▁Michael	-9.95171
▁semana	-9.95207
▁destaca	-9.953
▁tecnoloxía	-9.95311
tá	-9.9533
▁voz	-9.95343
tí	-9.95352
▁XIII	-9.95364
té	-9.95382
▁Isabel	-9.95388
tan	-9.95391
▁económico	-9.95425
▁iniciou	-9.95442
▁Tráta	-9.95452
▁conflito	-9.95461
▁doutras	-9.95493
▁realizada	-9.95513
izar	-9.95566
ment	-9.95592
▁letra	-9.95705
rum	-9.95707
▁fundador	-9.95729
▁crise	-9.95748
▁volver	-9.95756
▁aminoácido	-9.95837
20	-9.95857
▁irmá	-9.95997
▁estudio	-9.96014
▁enorme	-9.96019
wi	-9.96153
▁obstante	-9.96154
▁pu	-9.96174
▁1968	-9.96269
40	-9.96312
▁Exipto	-9.96437
▁Mac	-9.96457
▁1967	-9.96623
▁filosofía	-9.9665
ér	-9.96654
dro	-9.96683
berg	-9.96698
▁usa	-9.96698
▁casou	-9.9673
▁respectivamente	-9.96827
▁pais	-9.96891
iana	-9.96894
▁canle	-9.96934
▁seguridade	-9.96934
α	-9.96947
▁ambas	-9.96957
▁exposición	-9.9705
▁estrela	-9.97105
▁fíxose	-9.97112
▁símbolo	-9.97118
▁Nun	-9.97118
▁internacionais	-9.97151
ez	-9.97176
▁tendo	-9.9722
▁Sch	-9.97237
zar	-9.97347
▁Malia	-9.97355
▁pintura	-9.97419
xen	-9.97428
ud	-9.9751
▁expedición	-9.9751
▁recentemente	-9.97615
▁circuíto	-9.97679
▁realizado	-9.97684
ís	-9.97692
▁perdeu	-9.977
▁vive	-9.97709
▁procesos	-9.9774
▁Atlántico	-9.97827
▁mm	-9.97857
▁característica	-9.9786
for	-9.97873
▁pasado	-9.97885
▁estrada	-9.97975
▁europeos	-9.98043
▁Novo	-9.98079
▁ópera	-9.98093
▁ideas	-9.98222
rado	-9.98282
gna	-9.98293
▁depende	-9.98331
▁arquitecto	-9.98367
▁Torre	-9.98397
▁clásica	-9.98403
▁localiza	-9.98407
▁españois	-9.98439
▁Orde	-9.98471
▁nuclear	-9.98476
▁terreo	-9.98515
▁imp	-9.98551
▁rematou	-9.98584
▁guitarra	-9.98692
▁termos	-9.98761
▁Xu	-9.98764
▁atención	-9.98768
▁risco	-9.98769
▁usar	-9.9882
▁Pen	-9.98832
▁utiliza	-9.98834
cida	-9.98835
vas	-9.98847
▁beira	-9.98851
70	-9.98896
▁Federación	-9.9899
▁1972	-9.9899
▁catalán	-9.99083
▁saúde	-9.99091
▁verde	-9.99102
▁relixión	-9.99183
▁ámbito	-9.99237
mu	-9.99296
ker	-9.9953
▁comprende	-9.99565
▁movementos	-9.99606
▁1969	-9.99646
▁malia	-9.99649
▁nave	-9.99654
▁’	-9.99674
,6	-9.99698
▁presentan	-9.99725
▁chama	-9.99819
▁produtor	-9.99821
▁sufriu	-9.99851
▁proposta	-9.99862
▁sabe	-9.99881
▁veciños	-9.99934
▁ríos	-9.99994
▁reforma	-10.0003
▁Fútbol	-10.0011
▁construído	-10.0011
▁varía	-10.0012
▁colección	-10.0013
▁Escocia	-10.0019
▁candidato	-10.0022
▁Or	-10.0024
▁tradución	-10.0026
▁có	-10.0044
▁Moito	-10.0045
▁memoria	-10.0048
ji	-10.0056
▁carne	-10.0056
▁Estudou	-10.006
▁cerca	-10.0065
ō	-10.0073
▁simple	-10.0075
▁Cidade	-10.0085
▁empresas	-10.0085
▁procura	-10.0085
▁seguir	-10.0089
▁1940	-10.009
oloxía	-10.0092
gás	-10.0093
▁textos	-10.0094
▁interna	-10.0108
▁taxa	-10.0114
▁Costa	-10.0114
▁deporte	-10.0115
▁implica	-10.0118
▁mamíferos	-10.012
▁XII	-10.0122
▁familias	-10.0124
▁aspecto	-10.0128
▁32	-10.0131
▁difícil	-10.0137
▁específico	-10.0137
▁invasión	-10.0141
▁pertence	-10.0145
▁edificios	-10.0147
rie	-10.0153
▁lago	-10.0154
▁asinou	-10.0157
▁substituído	-10.016
▁Ata	-10.0162
▁similares	-10.0165
▁deixa	-10.0169
mia	-10.0171
▁Bor	-10.0172
fund	-10.0191
pp	-10.0199
▁científicos	-10.02
▁árbores	-10.02
▁ameaza	-10.0217
▁Inter	-10.0218
▁fundou	-10.022
▁políticas	-10.022
▁gobernador	-10.0221
ima	-10.0227
▁físico	-10.0228
ei	-10.023
▁universidade	-10.0241
illa	-10.025
ula	-10.0254
mbi	-10.0255
J	-10.026
▁Baixos	-10.0261
▁1945	-10.0261
▁xéneros	-10.0264
▁órbita	-10.0264
rí	-10.0273
▁políticos	-10.0276
▁ho	-10.0277
▁1920	-10.0285
▁caída	-10.0289
▁1971	-10.0306
▁diámetro	-10.031
▁simplemente	-10.031
fí	-10.031
▁Campo	-10.0316
ena	-10.0317
▁cuestión	-10.0325
yo	-10.033
mor	-10.0334
▁remata	-10.0334
9	-10.0335
eu	-10.0337
▁pilotos	-10.0347
60	-10.0351
▁cola	-10.0357
ñe	-10.0359
▁Ponte	-10.036
▁deputado	-10.0372
▁bases	-10.0382
▁pesca	-10.0389
▁flores	-10.0389
▁consumo	-10.0393
cé	-10.0396
▁hora	-10.0399
tus	-10.0402
▁goles	-10.0406
▁Har	-10.0421
▁alimentos	-10.0421
▁desenvolver	-10.0428
zu	-10.0429
▁xornal	-10.043
▁Presidente	-10.0433
▁negra	-10.0442
▁protección	-10.0443
cional	-10.0457
▁Mer	-10.0459
▁45	-10.0461
ö	-10.0463
▁Ur	-10.0466
▁Saint	-10.0467
▁Filipe	-10.0469
aria	-10.0469
ela	-10.0475
▁totalmente	-10.0481
▁visión	-10.0484
25	-10.0489
▁secretario	-10.049
bio	-10.0496
lá	-10.0498
▁revolución	-10.0501
▁expansión	-10.0504
van	-10.0507
od	-10.0507
▁artista	-10.0508
ure	-10.0508
▁negro	-10.0508
,1	-10.0508
▁suroeste	-10.0513
▁colonia	-10.0522
▁valores	-10.0529
▁medicina	-10.0532
usa	-10.0532
▁motores	-10.0535
▁templo	-10.0536
▁VII	-10.0536
▁Soviética	-10.0539
▁letras	-10.0541
▁distribuídos	-10.0552
▁terminou	-10.0555
▁artigos	-10.0555
▁Cre	-10.0556
gro	-10.0558
▁Grupo	-10.0559
▁Asturias	-10.0562
▁cobre	-10.0563
▁permitiu	-10.0568
▁participar	-10.0574
▁leis	-10.0574
▁Antes	-10.0581
▁censo	-10.0587
▁curva	-10.0589
▁Pacífico	-10.059
▁significado	-10.0596
▁Ki	-10.0602
▁considerar	-10.0602
cción	-10.061
▁Mal	-10.062
▁trasladou	-10.0622
▁n	-10.0623
▁imperio	-10.0626
▁propios	-10.0629
▁coches	-10.0633
▁1931	-10.0637
▁estrea	-10.0639
tis	-10.0639
▁código	-10.0644
kh	-10.0646
▁construída	-10.065
▁Sta	-10.0652
▁destino	-10.0652
▁estrelas	-10.0655
▁von	-10.0661
▁compoñentes	-10.0664
90	-10.0672
▁británica	-10.0673
ios	-10.068
▁provincias	-10.0681
tru	-10.0683
▁actuais	-10.0691
▁cousas	-10.0695
▁vén	-10.0697
▁seguiu	-10.0699
▁Charles	-10.0708
▁garda	-10.0709
▁cultivo	-10.071
▁u	-10.0712
▁cinema	-10.0712
▁xeración	-10.0714
▁católica	-10.0715
iza	-10.0717
til	-10.0722
,2	-10.0725
izou	-10.0725
lect	-10.0726
▁Suecia	-10.0727
▁Martin	-10.0727
q	-10.0733
▁volume	-10.0733
▁agricultura	-10.0735
▁tendencia	-10.0746
íu	-10.0749
▁portugués	-10.075
▁estudou	-10.0751
com	-10.0753
▁definición	-10.0758
▁Outras	-10.0771
▁labor	-10.0774
▁ri	-10.078
▁menores	-10.0781
▁fundación	-10.0781
▁meta	-10.0788
12	-10.079
▁vermello	-10.079
ham	-10.0791
▁poemas	-10.0791
▁Eu	-10.0799
▁xenoma	-10.0806
▁ne	-10.0806
▁activo	-10.0808
▁Ese	-10.0812
▁go	-10.0813
▁necesario	-10.0813
▁Tre	-10.0815
▁Mont	-10.0829
▁medieval	-10.0834
▁múltiple	-10.0834
,9	-10.0834
▁Je	-10.0836
▁premios	-10.0839
▁Bro	-10.0839
dri	-10.0851
▁lanzamento	-10.0855
▁autoridade	-10.0862
▁gravación	-10.0884
ov	-10.0893
▁Gra	-10.0915
ñ	-10.0915
mis	-10.0917
cul	-10.0925
dre	-10.0925
▁intención	-10.0926
▁Ju	-10.0929
▁Constitución	-10.093
tase	-10.0933
▁dita	-10.0934
▁Aires	-10.0942
ev	-10.0963
▁establecer	-10.098
▁́	-10.0982
▁procede	-10.0982
▁Eduardo	-10.0985
▁semanas	-10.0987
▁producido	-10.0988
▁populares	-10.0989
riz	-10.0991
▁Men	-10.0991
▁achega	-10.0992
cla	-10.0996
▁Van	-10.0997
▁converténdo	-10.0999
vel	-10.1001
▁claro	-10.1009
▁protagonista	-10.1012
cía	-10.1017
0.000	-10.1017
▁italiana	-10.1027
▁Ser	-10.1032
▁aumenta	-10.1033
▁diferenzas	-10.1033
▁converteu	-10.1034
▁mantivo	-10.1035
▁aldea	-10.1041
▁usando	-10.1043
han	-10.1052
▁certos	-10.1054
▁molécula	-10.1056
▁elección	-10.1058
▁aquela	-10.1063
▁Cara	-10.1077
▁Alí	-10.1077
ndi	-10.1082
▁1963	-10.1085
▁nesa	-10.1089
▁pintor	-10.1107
▁cá	-10.1107
▁Sevilla	-10.1113
▁sin	-10.1118
▁desaparece	-10.1119
▁Pode	-10.1135
▁acadar	-10.1137
▁1962	-10.1138
iño	-10.114
▁amplo	-10.1142
▁títulos	-10.1144
▁encontra	-10.1144
▁dificultade	-10.1145
ey	-10.1148
▁científica	-10.115
▁1964	-10.1151
▁prensa	-10.1162
▁rama	-10.1165
del	-10.117
▁exemplares	-10.1174
▁Exército	-10.1174
▁receptor	-10.1175
▁Villa	-10.1177
▁National	-10.1178
bia	-10.1182
▁1966	-10.1183
▁apena	-10.1184
▁deixar	-10.1184
nal	-10.1184
op	-10.1186
▁pole	-10.1187
▁plano	-10.1188
kin	-10.1191
▁táboa	-10.1207
▁quinto	-10.1209
и	-10.1212
▁XV	-10.1214
▁1939	-10.1217
▁futbolista	-10.1226
▁costas	-10.123
▁votos	-10.123
▁poboacións	-10.1232
▁versións	-10.1232
▁ensaio	-10.1233
▁multi	-10.1239
menta	-10.1242
cor	-10.1247
▁feitos	-10.1247
ificación	-10.1254
ian	-10.1255
ang	-10.1257
my	-10.1257
▁campos	-10.1266
▁profundidade	-10.127
▁semi	-10.1277
▁descubrimento	-10.1284
▁museo	-10.1293
▁catedral	-10.1303
▁Revolución	-10.1308
▁concertos	-10.1311
xio	-10.1319
▁recoñecido	-10.1328
▁Super	-10.1336
▁My	-10.1339
stri	-10.1339
▁Xesús	-10.1341
▁figuras	-10.1342
▁calor	-10.1345
▁Navarra	-10.1345
▁músculo	-10.1349
▁Richard	-10.1349
▁Er	-10.1351
▁europeo	-10.1352
▁nalgunha	-10.1357
cou	-10.1359
▁prata	-10.1359
▁1965	-10.1363
▁altas	-10.1366
▁All	-10.1371
gon	-10.1371
▁Vasco	-10.1373
rea	-10.1374
▁33	-10.1382
ski	-10.1382
▁Pouco	-10.1387
nado	-10.1389
aba	-10.139
,8	-10.139
ius	-10.1396
▁1958	-10.14
▁Ciencias	-10.1401
eo	-10.1404
tida	-10.1405
▁Sen	-10.1411
cro	-10.1412
▁permaneceu	-10.1419
by	-10.1429
▁hipótese	-10.1433
▁anteriormente	-10.1435
tino	-10.1436
mil	-10.1437
▁dixo	-10.1438
▁bar	-10.1441
nca	-10.1444
▁residencia	-10.1446
▁tempadas	-10.1462
▁Polonia	-10.1465
▁novamente	-10.1466
bar	-10.1473
▁Tom	-10.1476
▁Fillo	-10.1479
▁números	-10.148
▁excepción	-10.1485
tero	-10.1488
▁capitán	-10.1489
▁urbano	-10.1493
▁compañeiro	-10.1499
▁She	-10.1503
▁policía	-10.1506
tivos	-10.1508
bilidade	-10.1509
▁Nese	-10.1512
▁lenda	-10.1512
▁Todos	-10.1516
▁eléctrica	-10.1518
▁canta	-10.1522
▁presentes	-10.1524
▁podían	-10.1526
▁traballador	-10.1527
mé	-10.1528
▁pasaxeiros	-10.1536
▁usada	-10.1537
uri	-10.154
▁Outra	-10.1546
▁síntese	-10.1548
ixa	-10.155
▁suxire	-10.1553
▁Mag	-10.1557
▁famosa	-10.1561
▁escena	-10.1562
gou	-10.1562
▁hi	-10.1563
▁meirande	-10.1565
▁atravesa	-10.1569
▁árbore	-10.157
▁be	-10.157
▁avión	-10.1573
▁frecuentemente	-10.1573
▁Paulo	-10.1588
▁foto	-10.1598
var	-10.1599
▁producen	-10.1603
▁inmediata	-10.1613
▁posesión	-10.1613
ética	-10.1617
11	-10.162
▁europea	-10.162
▁ollos	-10.1622
▁Chá	-10.1628
▁Bel	-10.1634
▁participa	-10.1635
▁Outro	-10.1638
▁Nu	-10.1642
▁significativa	-10.1642
▁atopou	-10.1644
▁cha	-10.1651
▁tecidos	-10.1652
nés	-10.1657
▁Plan	-10.1657
▁accións	-10.1663
▁acaba	-10.1664
cá	-10.1666
▁Ke	-10.1679
▁Só	-10.168
▁Berlín	-10.1691
▁Sociedade	-10.1692
а	-10.1696
▁arco	-10.1699
▁formal	-10.17
▁consello	-10.1701
▁contaba	-10.1703
▁noutras	-10.1708
▁próxima	-10.171
▁toca	-10.171
▁Tro	-10.1711
ible	-10.1716
▁frota	-10.1719
▁permanente	-10.1721
▁tratar	-10.1726
▁montaña	-10.1733
▁rematar	-10.1733
▁1948	-10.1735
ato	-10.1739
ua	-10.1739
ábanse	-10.1741
▁latino	-10.1742
▁Suíza	-10.1743
è	-10.1745
torio	-10.1748
▁previa	-10.1749
ónica	-10.1752
▁barco	-10.1755
▁Comezou	-10.1756
▁cría	-10.1758
▁adaptación	-10.1759
qu	-10.1767
▁nel	-10.1775
ador	-10.179
▁Martínez	-10.1791
tch	-10.1796
▁venda	-10.1805
▁mon	-10.1806
,0	-10.1807
cado	-10.1811
-18	-10.1813
▁temperaturas	-10.1815
▁observación	-10.1817
▁Tar	-10.1822
▁seguido	-10.1825
▁Thomas	-10.1831
▁modelos	-10.1831
▁insectos	-10.1833
▁permanece	-10.1835
▁adiante	-10.1835
▁exclusiva	-10.1839
▁tradicionais	-10.1848
▁Cuba	-10.185
▁1933	-10.1854
pen	-10.1854
▁fenómeno	-10.1856
▁presentar	-10.1859
▁continuación	-10.1862
▁Vicente	-10.1864
cionais	-10.1891
▁chamadas	-10.19
▁foran	-10.1904
▁azucre	-10.1906
▁acabou	-10.1906
▁Trala	-10.1912
cina	-10.1919
cle	-10.1921
▁instrumentos	-10.1921
▁Alonso	-10.1923
lis	-10.1926
▁hidróxeno	-10.1932
▁Red	-10.1938
▁Parque	-10.1941
▁proporciona	-10.1942
inos	-10.1944
▁br	-10.1945
▁Radio	-10.1959
▁sexo	-10.196
▁Sil	-10.1961
▁duración	-10.1966
▁esencial	-10.1966
bal	-10.1968
ell	-10.1981
▁orquestra	-10.1981
▁corresponde	-10.1982
ek	-10.1983
▁Civil	-10.1991
▁League	-10.1995
dí	-10.1998
dica	-10.1998
▁satélite	-10.2004
▁destacan	-10.2006
▁mellora	-10.2009
▁autoridades	-10.2017
▁musicais	-10.2017
au	-10.202
▁coñeceu	-10.202
eiros	-10.2022
▁1961	-10.2023
▁titular	-10.2024
▁Ama	-10.2026
lli	-10.2033
▁300	-10.2036
vé	-10.2039
▁vías	-10.204
▁nela	-10.2043
▁explica	-10.2044
▁presidencia	-10.2044
▁Serra	-10.2047
▁Teatro	-10.2054
ónico	-10.2055
▁átomo	-10.2055
▁determinada	-10.2057
▁potencial	-10.2058
▁1937	-10.2059
▁alternativo	-10.2068
▁casas	-10.2069
▁programas	-10.2071
amento	-10.2072
por	-10.2075
▁provocou	-10.2076
▁Mariña	-10.2077
▁condición	-10.2089
▁teña	-10.2094
▁medalla	-10.2094
▁avogado	-10.2097
ers	-10.2104
▁Virxe	-10.2107
▁Pri	-10.2111
▁peixe	-10.2117
tada	-10.2118
▁serve	-10.2119
▁lúa	-10.2122
▁Qu	-10.2126
▁extra	-10.2128
▁formato	-10.2131
▁absoluta	-10.2135
dón	-10.2135
relativamente	-10.2138
▁impacto	-10.2139
▁Sant	-10.2141
▁pensamento	-10.2146
▁1918	-10.2159
▁regresou	-10.216
▁estreado	-10.2161
▁Deste	-10.2162
olóxico	-10.2162
▁atmosfera	-10.2162
▁1934	-10.2163
▁seres	-10.2166
▁aquí	-10.2168
▁parque	-10.2172
▁Cristo	-10.2176
rina	-10.2177
ub	-10.2177
rais	-10.2178
▁presentou	-10.2182
▁Sar	-10.2186
dd	-10.2194
▁foguete	-10.2198
▁dito	-10.2202
uta	-10.2204
▁lograr	-10.2205
ec	-10.221
▁emisión	-10.2214
▁peza	-10.2218
▁onda	-10.2222
▁aspectos	-10.2232
▁viu	-10.2235
▁Serbia	-10.2235
▁producida	-10.2244
▁Olímpicos	-10.225
rico	-10.2251
▁practicamente	-10.2267
▁neo	-10.2271
▁Williams	-10.2272
▁plataforma	-10.2276
▁Hill	-10.2283
ville	-10.2286
▁contexto	-10.229
▁tarefa	-10.229
▁posúen	-10.2292
▁sinal	-10.2292
▁Ch	-10.2298
▁arquipélago	-10.2299
▁raíz	-10.2304
▁actuación	-10.231
pto	-10.2311
▁carta	-10.2315
tio	-10.2316
▁bandas	-10.2318
ara	-10.2321
▁Ara	-10.2321
▁vantaxe	-10.2323
pul	-10.2323
▁1956	-10.2324
ini	-10.2325
▁cuarta	-10.2327
ford	-10.233
nco	-10.2337
▁tecido	-10.2337
▁kg	-10.2338
▁sucesor	-10.234
▁et	-10.2343
▁qui	-10.2346
▁posta	-10.2348
▁1946	-10.2351
▁pata	-10.2352
▁localización	-10.2358
▁coñecidas	-10.2363
▁mantén	-10.2365
▁Israel	-10.2369
▁saíu	-10.237
▁opinión	-10.2374
▁americano	-10.2374
▁espectadores	-10.2376
▁partículas	-10.2378
▁1959	-10.2379
▁1947	-10.2384
▁XIV	-10.2389
▁Peter	-10.239
ándoo	-10.2399
▁cento	-10.2401
▁Comité	-10.2402
▁comerciais	-10.2406
▁aceite	-10.242
▁fachada	-10.242
▁empregado	-10.2427
75	-10.2431
▁directa	-10.2435
bol	-10.2438
rk	-10.2443
▁&#124;	-10.2444
▁servir	-10.2444
▁Air	-10.2446
▁candidatura	-10.2448
.2	-10.2452
▁xudeus	-10.246
tó	-10.2463
▁fer	-10.2464
▁xogos	-10.2471
▁Oriental	-10.2472
nar	-10.2472
ves	-10.2474
▁diso	-10.2477
▁Asemblea	-10.2481
▁perigo	-10.2481
▁aplicación	-10.2482
▁constitúe	-10.2484
▁declarou	-10.2486
▁Tratado	-10.2487
ábel	-10.2489
tta	-10.2492
▁emprega	-10.2494
tel	-10.2497
tán	-10.2499
▁gol	-10.25
▁bosques	-10.2501
▁Louis	-10.2502
▁ref	-10.2504
▁viviu	-10.251
▁neno	-10.251
▁Mediterráneo	-10.2519
▁cambia	-10.2522
▁viño	-10.2524
▁Romano	-10.2528
Z	-10.2532
▁Betanzos	-10.2533
dal	-10.2535
▁variable	-10.2545
anse	-10.2546
▁secuencias	-10.2561
ella	-10.2561
uto	-10.2562
▁com	-10.2564
▁diario	-10.2568
▁adultos	-10.257
.5	-10.2574
▁empezou	-10.2576
▁36	-10.2578
lum	-10.2583
▁empeza	-10.2583
▁británicos	-10.259
▁captura	-10.259
ft	-10.2591
▁necesaria	-10.261
▁praia	-10.2614
▁Bélxica	-10.2618
99	-10.262
xina	-10.262
▁Sicilia	-10.2623
▁Bur	-10.2627
ás	-10.2627
▁demasiado	-10.2628
▁provén	-10.2628
bert	-10.263
▁décadas	-10.2631
lán	-10.2632
▁fórmula	-10.2637
▁Chile	-10.2639
▁facía	-10.264
ct	-10.2641
▁institucións	-10.2649
▁37	-10.265
▁web	-10.2652
▁Salvador	-10.2653
▁legal	-10.2654
▁converte	-10.2655
▁concerto	-10.2656
▁Mel	-10.266
nada	-10.2672
▁nacionais	-10.2674
▁1941	-10.2677
▁sala	-10.2684
▁realiza	-10.2685
▁corazón	-10.2685
85	-10.269
▁Concello	-10.269
▁Socialista	-10.2692
▁gañador	-10.2693
▁proximidade	-10.2695
ística	-10.2699
▁Wo	-10.2708
▁dividido	-10.2709
ticamente	-10.2712
eto	-10.2723
▁combinación	-10.2723
.1	-10.2725
▁arcebispo	-10.2729
▁anticorpo	-10.2729
ótica	-10.2729
ent	-10.2733
▁motivos	-10.2734
mán	-10.2735
▁Artes	-10.2735
▁Occidental	-10.2738
▁líquido	-10.2743
▁correspondente	-10.2751
▁propias	-10.2753
cti	-10.2753
▁relativa	-10.2754
▁dia	-10.2757
▁debuxo	-10.2763
▁dialecto	-10.2763
bil	-10.2763
cada	-10.2766
▁hab	-10.2779
▁34	-10.2781
▁tu	-10.2787
ético	-10.2789
lus	-10.279
▁incremento	-10.2794
▁temporada	-10.2796
lica	-10.2799
▁hábitat	-10.2801
▁monarca	-10.2801
tario	-10.2802
▁1954	-10.2802
▁gravado	-10.2806
▁crea	-10.2809
▁portuguesa	-10.2809
▁entidade	-10.2821
deira	-10.2822
▁Sub	-10.2827
mática	-10.283
ι	-10.283
▁sacerdote	-10.283
▁curto	-10.2839
▁Bas	-10.284
▁cristiá	-10.284
▁Atenas	-10.284
▁poderían	-10.2848
▁marxe	-10.2852
cher	-10.286
ah	-10.2864
▁celebrou	-10.2864
-3	-10.2864
▁Forma	-10.2865
▁solución	-10.2866
▁Papa	-10.287
ctor	-10.2873
▁podemo	-10.2877
▁Am	-10.2878
▁Tour	-10.2879
▁curta	-10.2882
-20	-10.2883
▁localizado	-10.2889
▁escenario	-10.2895
ling	-10.2897
▁descubriu	-10.2899
▁ausencia	-10.2899
▁funcionamento	-10.2901
▁tam	-10.2901
▁1957	-10.2909
▁liderado	-10.291
▁montañas	-10.2911
▁falar	-10.2914
▁sexan	-10.2914
▁Fer	-10.2919
▁escolas	-10.2923
sk	-10.2926
▁1955	-10.2929
▁relixiosa	-10.2933
▁1949	-10.2934
ld	-10.2942
▁fortes	-10.2943
▁Hoxe	-10.2943
▁estreito	-10.2945
▁Vilalba	-10.2953
▁alternativa	-10.2961
len	-10.2963
▁Comunidade	-10.2968
mann	-10.2973
ual	-10.2974
ata	-10.2975
▁ancho	-10.299
▁deixando	-10.2993
▁Ab	-10.2994
▁Daniel	-10.2996
▁secundaria	-10.2997
▁culturais	-10.2997
▁encontros	-10.2998
▁ton	-10.3002
▁1944	-10.3003
▁Qui	-10.3005
tín	-10.3006
▁pensa	-10.3009
▁periódico	-10.3012
▁muralla	-10.3017
▁Bueno	-10.3018
▁Ed	-10.3025
▁Zelandia	-10.3027
▁vella	-10.3028
▁her	-10.3031
▁copias	-10.3033
▁alimento	-10.3036
▁culto	-10.3037
▁reco	-10.3041
▁Pla	-10.3043
▁escritos	-10.3045
▁unido	-10.3046
▁pra	-10.3052
ótico	-10.3054
way	-10.3054
▁Álvarez	-10.3057
▁modificación	-10.3059
▁comida	-10.3065
▁serían	-10.3067
▁1953	-10.3068
▁rango	-10.3072
▁corpos	-10.3073
▁Arte	-10.3077
▁serbio	-10.308
▁socio	-10.3086
▁cristiáns	-10.3088
▁leite	-10.3093
▁comp	-10.3094
▁levan	-10.3094
▁espacial	-10.3096
ney	-10.3096
▁dividida	-10.3097
▁doutor	-10.3099
▁destacar	-10.3103
▁debut	-10.3113
▁Camp	-10.3115
▁ía	-10.3126
▁ocupación	-10.3126
▁volve	-10.314
▁homenaxe	-10.3142
▁queda	-10.3143
▁prezo	-10.3147
gal	-10.3149
▁post	-10.315
▁entrega	-10.3152
▁vello	-10.3153
▁Miño	-10.3154
xida	-10.3155
▁Vilar	-10.3156
▁comun	-10.3156
▁sé	-10.3159
nova	-10.3159
▁bra	-10.3161
▁república	-10.3162
▁Ad	-10.3168
Y	-10.317
cano	-10.3171
▁danos	-10.3171
21	-10.3183
▁1952	-10.3183
▁mala	-10.3192
▁identidade	-10.3193
vin	-10.3195
net	-10.3205
07	-10.3214
pé	-10.3214
▁pazo	-10.3218
▁expresa	-10.3227
▁afirma	-10.3236
▁Península	-10.3238
titu	-10.324
▁equivalente	-10.3241
▁proxectos	-10.3242
▁hormona	-10.3243
▁ni	-10.3248
und	-10.3249
▁conexión	-10.3258
▁retirada	-10.328
▁1935	-10.3285
▁Provincia	-10.3286
enta	-10.3289
▁existía	-10.3293
35	-10.3294
27	-10.3294
▁asasinato	-10.3294
ium	-10.3297
ví	-10.3297
tera	-10.33
nus	-10.3306
▁los	-10.3312
▁gregos	-10.3319
▁1922	-10.3325
xes	-10.3327
lega	-10.3327
15	-10.3334
▁Tal	-10.3335
lado	-10.3336
▁acontecemento	-10.3341
pas	-10.3342
▁señor	-10.3344
▁Nobel	-10.3346
▁VIII	-10.3347
▁Conde	-10.3348
▁Alexandre	-10.3349
▁xen	-10.3352
▁demanda	-10.3355
▁comunista	-10.3361
▁cambiou	-10.3364
▁dado	-10.3367
gg	-10.3371
▁Cabo	-10.3376
▁proporción	-10.3376
▁Bru	-10.3379
fra	-10.3382
zón	-10.3387
▁determinar	-10.3389
tha	-10.339
▁elevado	-10.339
nu	-10.3392
▁castro	-10.3395
▁rebote	-10.3396
▁colonias	-10.3397
▁1932	-10.3397
▁froito	-10.3399
▁tro	-10.3402
ío	-10.3403
▁Bergantiños	-10.3406
▁esp	-10.341
▁enxeñeiro	-10.3411
▁descrición	-10.3411
▁Ouro	-10.3412
▁1919	-10.3413
.3	-10.3418
▁Oscar	-10.342
iga	-10.3423
▁constitución	-10.3429
rias	-10.3429
▁38	-10.3429
xón	-10.343
▁baixas	-10.343
▁Conta	-10.3432
14	-10.3437
▁Primeiro	-10.3438
▁estándar	-10.3438
▁vivo	-10.3442
▁pos	-10.3443
▁externa	-10.3444
▁1938	-10.3449
▁Mil	-10.3455
ph	-10.3457
▁reunión	-10.3458
▁Shi	-10.3458
▁xerais	-10.346
▁1923	-10.3464
▁utilizando	-10.3467
▁flor	-10.3472
▁Pat	-10.3473
▁descrita	-10.3479
▁literaria	-10.348
ici	-10.3481
▁axudar	-10.3485
▁supux	-10.3486
▁cerebro	-10.3489
▁útil	-10.3489
cido	-10.3492
▁pasaron	-10.3495
▁deseñado	-10.3495
▁Sam	-10.3496
▁abandonou	-10.3497
-4	-10.3498
▁reprodución	-10.3501
▁recuperar	-10.3502
▁primavera	-10.3505
▁reserva	-10.3512
▁fábrica	-10.3513
-5	-10.3519
16	-10.3525
▁moderno	-10.3525
idas	-10.3528
▁intenta	-10.3535
rada	-10.3536
ivo	-10.3538
▁logra	-10.3542
▁fu	-10.3544
▁rusa	-10.3544
▁coro	-10.3546
▁Dan	-10.3547
▁ataques	-10.3548
▁familiar	-10.3548
▁1929	-10.3553
▁poema	-10.3557
▁categorías	-10.356
aron	-10.3562
▁Comisión	-10.3563
▁cen	-10.3563
▁radiación	-10.3564
18	-10.3568
▁cambiar	-10.3575
▁Rock	-10.3575
▁aberto	-10.3577
▁Cri	-10.3583
▁Cap	-10.3583
▁operacións	-10.3583
▁amigos	-10.3585
▁xaponés	-10.3588
▁lingüística	-10.3588
▁turismo	-10.359
cum	-10.359
▁reducir	-10.3594
▁seguindo	-10.3595
nci	-10.3596
▁Art	-10.3596
▁Sobre	-10.3596
▁hospital	-10.3599
▁pódense	-10.3599
▁fre	-10.36
▁demostra	-10.3602
ye	-10.3609
▁fragmento	-10.3609
▁Oriente	-10.361
.4	-10.3611
65	-10.3612
▁substancias	-10.3614
▁comuna	-10.3616
▁debía	-10.3618
▁resultou	-10.362
▁Ministerio	-10.3625
▁crenza	-10.3628
▁Nacións	-10.3637
▁administrativa	-10.3647
▁exilio	-10.3647
▁asistencia	-10.3656
tismo	-10.3657
▁reis	-10.3662
▁punta	-10.3666
▁Franco	-10.3668
▁vo	-10.3669
▁asasinado	-10.3676
▁Sin	-10.3676
▁vermella	-10.3677
▁interno	-10.3677
có	-10.3677
▁homónimo	-10.3683
▁banco	-10.3686
▁Pazo	-10.3687
▁Ministro	-10.3689
mal	-10.3692
grafía	-10.3695
arse	-10.3697
ok	-10.3701
▁ocasión	-10.3703
▁Fin	-10.3704
ilo	-10.3709
▁Black	-10.3712
nie	-10.3713
ice	-10.3718
▁saír	-10.3718
ografía	-10.3719
ína	-10.3722
▁receptores	-10.3724
▁rugby	-10.3726
▁Martiño	-10.3726
▁Diego	-10.3729
one	-10.373
▁aí	-10.3733
▁tería	-10.3738
о	-10.3743
▁Washington	-10.3747
▁clave	-10.375
▁considerable	-10.3751
▁serra	-10.3754
▁notable	-10.3755
▁permiten	-10.3758
▁alcanzar	-10.3767
tano	-10.3771
▁Joseph	-10.3776
19	-10.3776
gor	-10.3776
▁separa	-10.3778
▁desexo	-10.3778
ρ	-10.3779
▁Moscova	-10.3779
▁denomínase	-10.3779
▁intervención	-10.3779
▁Celta	-10.3779
form	-10.3781
▁electróns	-10.3782
cus	-10.3785
▁lume	-10.3788
š	-10.379
▁utilizada	-10.3792
▁natal	-10.3796
tido	-10.3798
13	-10.38
▁tensión	-10.3802
▁Toda	-10.3804
▁perder	-10.3805
▁biblioteca	-10.3806
▁individual	-10.3811
▁descenso	-10.3811
▁Baixo	-10.3815
▁costume	-10.3817
▁debate	-10.3817
▁brillante	-10.3822
▁Lingua	-10.3822
▁Cortes	-10.3822
tópase	-10.3825
rin	-10.3827
▁1917	-10.3829
▁custo	-10.3832
▁IX	-10.3832
esa	-10.3837
▁chamou	-10.3838
▁fortaleza	-10.3838
▁recolle	-10.3843
▁Martín	-10.3847
psi	-10.3848
cón	-10.385
ā	-10.3854
ν	-10.386
ense	-10.3861
▁temporal	-10.3862
cente	-10.3866
cito	-10.3867
▁ofrece	-10.387
lio	-10.387
ólogo	-10.3871
▁rexistro	-10.3873
▁anual	-10.3876
▁Cultura	-10.3879
lf	-10.388
▁Star	-10.3881
▁atopan	-10.3885
▁caixa	-10.3885
▁area	-10.3887
▁atrás	-10.3887
▁anel	-10.3891
▁bronce	-10.3892
▁ensino	-10.3894
▁centros	-10.3895
mus	-10.3895
▁reais	-10.3898
▁celebración	-10.3903
▁boca	-10.3908
▁global	-10.3914
tista	-10.3914
▁clasificado	-10.3916
▁interpreta	-10.3921
▁feminino	-10.393
▁vídeo	-10.393
▁Lago	-10.3933
28	-10.3933
ixo	-10.3935
▁roda	-10.3943
▁gañando	-10.3948
▁Mad	-10.395
▁abaixo	-10.3954
lista	-10.3954
17	-10.3954
lic	-10.3957
▁sinais	-10.3967
▁arre	-10.397
cial	-10.3977
and	-10.3978
45	-10.3979
▁Far	-10.398
▁1951	-10.398
▁barcos	-10.3982
▁Pena	-10.3989
▁cerimonia	-10.399
▁1928	-10.3992
68	-10.3994
▁corre	-10.3995
▁fracaso	-10.4001
let	-10.4005
87	-10.401
ún	-10.4011
▁World	-10.4012
▁Trans	-10.4015
96	-10.4015
▁aberta	-10.4015
77	-10.4018
▁CO	-10.4022
▁separación	-10.4024
▁Moita	-10.4028
▁rochas	-10.403
▁terrestre	-10.403
iano	-10.4032
▁elevada	-10.4037
úa	-10.4038
▁ourensán	-10.4048
▁tramo	-10.4053
xiña	-10.4054
▁Sánchez	-10.4056
▁superiores	-10.4058
▁recente	-10.4065
▁2018	-10.4075
una	-10.4076
str	-10.4076
her	-10.4083
met	-10.4086
▁Gui	-10.4087
▁42	-10.4089
▁fica	-10.409
▁xestión	-10.4095
tivas	-10.4095
▁calendario	-10.41
▁hóspede	-10.41
▁cantidades	-10.4101
cel	-10.4113
▁Ibérica	-10.4117
▁1943	-10.4118
mera	-10.4124
ight	-10.4128
▁obrigado	-10.4129
▁torno	-10.4131
▁Xi	-10.4134
▁representan	-10.4134
▁fluxo	-10.414
▁Gri	-10.4143
▁emprego	-10.4145
▁herdeiro	-10.4145
teiro	-10.4149
▁solar	-10.415
▁profunda	-10.4151
tive	-10.4152
▁Min	-10.4154
cí	-10.4161
▁sueco	-10.4161
▁empregar	-10.4162
itou	-10.4164
▁gra	-10.4166
▁Galería	-10.4168
▁disputou	-10.4172
▁ocupou	-10.4172
86	-10.4175
24	-10.4176
▁conservación	-10.4177
▁oportunidade	-10.4183
▁individuo	-10.4186
▁transcrición	-10.4189
▁1924	-10.419
▁150	-10.4194
▁Cho	-10.4201
▁críticas	-10.4201
▁opera	-10.4205
ay	-10.4205
▁Limita	-10.4207
ós	-10.4207
▁utilíza	-10.4214
▁primaria	-10.4214
▁prisión	-10.4222
cy	-10.4225
▁urbana	-10.4227
.6	-10.4228
bro	-10.4233
▁débese	-10.4234
▁artístico	-10.4234
MS	-10.4236
▁pop	-10.4238
▁Xunto	-10.424
05	-10.4241
▁laboratorio	-10.4245
▁nu	-10.4251
▁nosa	-10.4251
▁reaccións	-10.4258
▁avións	-10.4261
aceae	-10.4264
inas	-10.4267
▁clásico	-10.4279
▁1942	-10.428
pouco	-10.428
xer	-10.4283
rido	-10.4283
eiras	-10.4283
▁Lisboa	-10.4284
esta	-10.4286
55	-10.4288
burg	-10.4289
▁Guillerme	-10.429
▁músico	-10.4291
▁puxo	-10.4291
▁círculo	-10.4295
▁1914	-10.4297
▁convérte	-10.4301
▁titulado	-10.4312
26	-10.4313
▁universal	-10.4318
▁tor	-10.432
▁continental	-10.4324
rna	-10.4326
▁obriga	-10.4327
▁estudantes	-10.4329
▁localizada	-10.4333
▁poida	-10.4333
▁nace	-10.4335
▁experimenta	-10.4341
56	-10.4345
▁retirar	-10.4346
▁Maria	-10.4351
▁cifra	-10.4352
95	-10.4361
pel	-10.4362
ant	-10.4368
▁recentes	-10.4372
▁Dis	-10.4373
λ	-10.438
off	-10.4382
doiro	-10.4384
48	-10.439
▁Q	-10.4394
▁dependente	-10.4402
▁39	-10.4403
▁estreita	-10.4411
▁1925	-10.4417
dic	-10.442
▁cruz	-10.4421
▁redución	-10.443
01	-10.4431
▁cadeas	-10.4432
nato	-10.4433
▁negativa	-10.4433
▁vitorias	-10.4434
09	-10.4436
▁Carl	-10.4436
▁lanzou	-10.4437
ust	-10.4439
gri	-10.444
▁propósito	-10.4443
▁historiador	-10.4443
ído	-10.4449
the	-10.445
ade	-10.4453
▁75	-10.4454
▁argumento	-10.4454
▁molecular	-10.4459
▁400	-10.4462
▁Condado	-10.4463
▁fabricación	-10.4463
▁CF	-10.4465
▁filósofo	-10.4466
▁enfrontamento	-10.4474
▁concurso	-10.4477
ben	-10.4477
▁complexa	-10.4477
▁instrumento	-10.4481
▁alcanza	-10.4489
▁eventos	-10.4491
ída	-10.4493
▁personalidade	-10.4495
▁Medio	-10.45
▁artificial	-10.45
▁relixioso	-10.4504
▁dominios	-10.451
▁City	-10.4511
▁lonxe	-10.4512
mio	-10.4512
▁diocese	-10.4518
▁Palacio	-10.4519
▁compra	-10.4521
▁Rosa	-10.4522
▁discurso	-10.4523
ensis	-10.4528
▁transformación	-10.4533
▁xaponesa	-10.4535
▁incluído	-10.4541
▁alfabeto	-10.4541
▁acada	-10.4541
▁tocar	-10.4545
▁recoñecida	-10.4546
▁asina	-10.4548
83	-10.4548
▁razóns	-10.4552
▁Hungría	-10.4553
▁substancia	-10.4555
▁liberación	-10.4557
▁marco	-10.4559
▁baía	-10.4564
▁sufrir	-10.4567
ete	-10.4569
▁imperial	-10.4576
▁supera	-10.4578
▁xunta	-10.458
▁evento	-10.4581
▁Bay	-10.4583
óns	-10.4586
mit	-10.4594
▁Iso	-10.4595
67	-10.4604
▁rica	-10.4606
▁aparecer	-10.4606
▁Nunha	-10.4606
▁relacionadas	-10.4608
▁monarquía	-10.461
.7	-10.4611
▁abandonar	-10.4612
▁Paz	-10.4612
▁1910	-10.4613
.8	-10.4615
▁destinado	-10.4616
▁frío	-10.4622
▁inscrición	-10.4628
23	-10.4628
▁transmisión	-10.4628
29	-10.4628
▁marchou	-10.4629
pec	-10.4635
▁Finlandia	-10.4639
▁empregada	-10.4639
▁institución	-10.464
▁pri	-10.4641
▁lateral	-10.4642
▁vento	-10.4645
▁artística	-10.4645
tico	-10.4646
78	-10.4647
▁acepta	-10.4648
▁comezar	-10.465
▁guitarrista	-10.4651
▁Florida	-10.4654
▁viuse	-10.4656
▁sido	-10.466
▁dúbida	-10.4663
▁mostran	-10.4663
sol	-10.4677
▁Napoleón	-10.468
▁descuberto	-10.4686
▁hócke	-10.4692
▁alianza	-10.4692
▁enviado	-10.4695
▁cidadáns	-10.4695
▁Chicago	-10.4698
▁Zaragoza	-10.4704
▁Fra	-10.4708
▁seren	-10.4709
▁ritmo	-10.471
▁quere	-10.471
▁Hor	-10.4711
▁galegos	-10.4716
▁cadro	-10.4721
▁pacientes	-10.4722
▁dando	-10.4723
scar	-10.4723
▁seca	-10.4723
éronse	-10.4725
▁sementes	-10.4726
imo	-10.4726
▁dalgunha	-10.4727
▁prodúce	-10.4728
nismo	-10.4731
▁Fre	-10.4742
▁fibra	-10.4742
▁colaborou	-10.4745
▁informe	-10.4745
▁Mais	-10.4745
39	-10.4751
lon	-10.4753
oides	-10.4754
▁estable	-10.4761
ias	-10.4763
74	-10.477
▁enviou	-10.4771
▁tira	-10.4772
▁pronto	-10.4772
▁Carballo	-10.4774
▁mandato	-10.4778
nais	-10.4779
▁amosa	-10.478
▁autónoma	-10.478
▁pas	-10.478
▁diñeiro	-10.4781
▁recinto	-10.4786
▁Cro	-10.479
▁artes	-10.4792
▁Sha	-10.4798
▁tráfico	-10.4798
▁1921	-10.48
▁Il	-10.48
▁Mos	-10.4801
▁men	-10.4803
▁evoluciona	-10.4804
08	-10.4808
ju	-10.4809
pin	-10.481
dar	-10.4812
▁actúa	-10.4815
▁ingleses	-10.4816
▁solitario	-10.4816
▁representar	-10.4825
▁coidado	-10.4827
▁Sport	-10.4827
▁48	-10.4829
iformes	-10.4833
▁documento	-10.4833
34	-10.4834
▁ocupar	-10.4835
▁enlace	-10.4836
▁escasa	-10.4836
íronse	-10.4837
▁Federico	-10.484
▁Turquía	-10.484
▁usan	-10.4843
▁quiza	-10.4843
▁considérase	-10.4846
▁exacta	-10.4846
▁permitir	-10.485
▁Zo	-10.4851
▁ciencias	-10.4851
▁unida	-10.4852
▁estuda	-10.4855
▁alumno	-10.4858
▁denomina	-10.4864
▁celebrada	-10.4866
▁especifica	-10.4869
▁Comunista	-10.487
mpe	-10.4871
nesa	-10.4871
▁Hol	-10.4873
▁enfronta	-10.4876
▁utilizan	-10.4881
04	-10.4888
▁axente	-10.489
▁ave	-10.4892
▁Viena	-10.4897
▁Gro	-10.4899
▁Vol	-10.4902
ístico	-10.4902
36	-10.4902
rma	-10.4902
.9	-10.4904
▁mitoloxía	-10.4906
▁xornada	-10.491
▁tódala	-10.4911
rde	-10.4914
▁Pra	-10.4917
▁discos	-10.4921
ló	-10.4921
▁chi	-10.4924
▁Tur	-10.4928
▁Suráfrica	-10.4929
able	-10.493
est	-10.494
íase	-10.4943
nina	-10.4948
-6	-10.4948
98	-10.4948
vio	-10.495
terio	-10.4951
▁afecta	-10.4953
▁riqueza	-10.4953
ques	-10.4958
▁popularidade	-10.4961
▁Xe	-10.4964
▁documentos	-10.4966
▁palacio	-10.4966
mpa	-10.4973
gueira	-10.4977
▁Aeroporto	-10.4977
▁aeroliña	-10.4977
е	-10.4979
cemento	-10.498
▁dependendo	-10.498
▁55	-10.498
hr	-10.4981
▁Vázquez	-10.4983
▁escritura	-10.4983
▁1926	-10.4985
olo	-10.4986
▁iniciativa	-10.4986
tidos	-10.4989
▁poñer	-10.499
▁continúa	-10.4993
▁pla	-10.4995
ial	-10.5002
▁característico	-10.5002
▁xusto	-10.5003
▁lanza	-10.5007
▁publicacións	-10.5017
▁Dia	-10.5022
gado	-10.5023
▁sonora	-10.5025
▁Gales	-10.5025
22	-10.5027
▁Pres	-10.5028
▁solo	-10.503
▁puidese	-10.5032
▁cita	-10.5035
▁Gómez	-10.5038
▁Castelo	-10.5038
▁Ter	-10.5052
▁compite	-10.5057
▁ficción	-10.5057
▁xeográfica	-10.5063
cios	-10.5066
▁v	-10.5067
▁cociña	-10.5067
▁Ánxeles	-10.5071
▁im	-10.5076
▁pares	-10.5076
▁chegan	-10.5081
▁Noruega	-10.5081
▁Gor	-10.5083
gur	-10.5085
▁mellorar	-10.5085
uga	-10.5088
▁crónica	-10.5093
▁actuar	-10.5094
teo	-10.5096
▁transición	-10.5099
▁disposición	-10.5099
▁deportiva	-10.5099
▁crecente	-10.5101
kov	-10.5103
▁Ángel	-10.5105
▁civilización	-10.5109
▁complexos	-10.5109
iti	-10.5112
▁Auto	-10.5115
▁verdadeira	-10.5119
▁poboado	-10.5121
▁estratexia	-10.5123
▁Cur	-10.5134
▁Rafael	-10.5136
mica	-10.5136
▁privado	-10.5137
▁fósiles	-10.5142
lada	-10.5145
▁chámase	-10.5148
▁w	-10.5152
▁software	-10.5154
▁rural	-10.5161
▁pon	-10.5166
rta	-10.517
69	-10.5171
ο	-10.5172
▁Ly	-10.5176
anos	-10.5179
pia	-10.518
▁descrito	-10.5185
▁décimo	-10.5185
▁coalición	-10.5185
índose	-10.5186
▁Park	-10.5189
▁derradeiro	-10.5191
tía	-10.5196
▁tren	-10.5197
▁tribos	-10.5201
▁espírito	-10.5209
▁longas	-10.5212
rín	-10.5215
▁65	-10.5216
▁saber	-10.5216
▁arriba	-10.5217
81	-10.5218
▁recibi	-10.5223
▁dimensións	-10.5225
▁idioma	-10.5225
▁revolta	-10.5228
▁celebra	-10.5231
02	-10.5233
▁especiais	-10.524
▁ditadura	-10.5241
▁Alto	-10.5241
dan	-10.5243
line	-10.5245
▁amarela	-10.5247
▁regreso	-10.5249
▁American	-10.525
▁causar	-10.5255
▁ATP	-10.5256
▁fama	-10.526
ill	-10.5264
▁sexto	-10.5272
tados	-10.5273
▁debaixo	-10.5274
eno	-10.5278
fancia	-10.5278
▁piano	-10.5278
gueiro	-10.5278
pha	-10.5283
▁autonomía	-10.5284
▁cri	-10.5287
▁fra	-10.5289
▁César	-10.529
32	-10.5291
▁civís	-10.5296
▁Alba	-10.5298
dade	-10.5303
▁definitivamente	-10.5307
▁moral	-10.5308
gli	-10.5308
▁Senna	-10.5308
64	-10.5316
▁finada	-10.5319
▁determinado	-10.5321
▁substitución	-10.5323
▁disto	-10.5324
▁gl	-10.5324
▁cro	-10.533
▁XI	-10.5331
▁Gallego	-10.5334
▁incluía	-10.5336
món	-10.5344
▁Participo	-10.5346
06	-10.5346
▁espada	-10.5347
▁Love	-10.5351
▁grosa	-10.5354
▁peri	-10.5357
▁dominante	-10.5357
bí	-10.5357
▁acabar	-10.5358
▁rep	-10.5358
▁promoción	-10.5359
▁testemuña	-10.5365
▁decide	-10.5368
if	-10.5371
▁serviu	-10.5372
▁vasco	-10.5372
edo	-10.5372
▁Banco	-10.5373
▁caeu	-10.5373
▁marido	-10.5375
iras	-10.5377
▁dedicado	-10.5379
▁escura	-10.5381
▁aumentar	-10.5383
▁Pol	-10.5384
▁latina	-10.5385
sin	-10.5387
▁Les	-10.5387
ní	-10.5389
▁mantemento	-10.539
▁War	-10.539
▁explotación	-10.5394
▁doenza	-10.5394
▁observa	-10.5396
▁portas	-10.5396
▁Superior	-10.5396
▁festival	-10.5398
▁euros	-10.5401
▁neuro	-10.5405
88	-10.5408
▁Terceira	-10.5409
nk	-10.5411
▁establecemento	-10.5412
▁matemáticas	-10.5413
▁Hospital	-10.5415
▁nobreza	-10.5423
▁1927	-10.5423
▁santo	-10.5427
▁dedicada	-10.5428
▁consegue	-10.5429
pho	-10.543
ores	-10.5435
▁relato	-10.5441
bli	-10.5443
illo	-10.5447
▁1912	-10.5449
eza	-10.5449
▁voltas	-10.5451
▁incrementa	-10.5451
▁raíces	-10.5453
▁habilidade	-10.5454
▁Dous	-10.5458
▁descuberta	-10.5459
▁operación	-10.546
▁colabora	-10.5463
▁revela	-10.5463
▁Comp	-10.5467
ento	-10.5472
ceno	-10.5477
▁destrución	-10.5479
▁sabor	-10.5481
▁β	-10.5482
▁pelo	-10.5483
graf	-10.5486
▁organizado	-10.5492
▁Port	-10.5494
66	-10.5497
▁oficina	-10.5498
▁instituto	-10.5502
▁Smith	-10.5503
84	-10.5504
cular	-10.5505
▁ría	-10.5506
▁mozo	-10.5506
▁comparación	-10.5507
▁dieta	-10.5508
▁Royal	-10.5508
▁antigüidade	-10.551
▁canadense	-10.551
▁cousa	-10.5511
lito	-10.5513
▁cristianismo	-10.5517
▁dalgúns	-10.5518
nea	-10.5521
pus	-10.5529
▁rebelión	-10.5529
72	-10.553
▁durou	-10.5532
▁posicións	-10.5533
glo	-10.5535
pra	-10.5535
▁tese	-10.5539
▁integra	-10.554
▁Naceu	-10.554
▁Harry	-10.5544
▁petróleo	-10.5548
▁Dentro	-10.5549
gráfico	-10.5553
▁continuar	-10.5555
▁dirixir	-10.5557
soma	-10.5557
▁sinala	-10.5559
▁posíbel	-10.5562
▁miles	-10.5563
▁europeas	-10.5564
ep	-10.558
▁verdadeiro	-10.5583
iña	-10.5586
▁Mark	-10.5587
▁Alta	-10.5588
▁morto	-10.5588
▁Día	-10.5591
lou	-10.5593
lares	-10.5594
▁trinta	-10.5597
▁Toledo	-10.56
▁punk	-10.56
fosfato	-10.5601
▁Granada	-10.5601
▁consideran	-10.5602
gno	-10.5602
▁mecánica	-10.5606
▁West	-10.5607
▁Gil	-10.5609
tti	-10.5613
▁pen	-10.5614
ndro	-10.5615
54	-10.5617
▁Ribeira	-10.5619
▁crítico	-10.562
▁femia	-10.5621
▁entrevista	-10.5625
ller	-10.5625
bla	-10.5627
ár	-10.5631
▁Casou	-10.5633
▁asociado	-10.5635
41	-10.5652
▁patrón	-10.5653
▁visible	-10.5658
▁epi	-10.5661
▁aplicacións	-10.5663
▁feminina	-10.5664
▁termina	-10.5664
▁hiper	-10.5666
▁introdución	-10.5671
iros	-10.5677
llas	-10.5678
▁Lou	-10.5681
▁Tele	-10.5683
▁ángulo	-10.5684
▁fondos	-10.5684
uno	-10.5685
▁estende	-10.5687
▁Pala	-10.5687
▁1900	-10.5691
▁informa	-10.57
antes	-10.57
▁desenvolvido	-10.57
▁ferrocarril	-10.5709
▁Jackson	-10.571
33	-10.5711
▁vivos	-10.5711
▁alfa	-10.5712
▁Burgos	-10.5712
▁concelleiro	-10.5713
▁Sistema	-10.5716
▁pilota	-10.5717
ab	-10.5718
▁encargado	-10.5718
dida	-10.5722
▁tubo	-10.5722
59	-10.5724
▁voce	-10.5725
ngo	-10.5727
▁Dinamarca	-10.5729
osas	-10.5734
▁bizantino	-10.5735
▁Henry	-10.5736
▁cana	-10.5738
▁Gre	-10.5739
xica	-10.5739
▁visto	-10.5739
▁Díaz	-10.574
▁circular	-10.5741
▁debería	-10.5745
76	-10.5747
▁pena	-10.5747
▁provincial	-10.5748
49	-10.5748
don	-10.5752
38	-10.5753
▁raios	-10.5753
▁partida	-10.5754
▁Colombia	-10.5755
▁Ricardo	-10.5755
▁constitúen	-10.5757
ric	-10.5757
sky	-10.5761
▁Rexión	-10.5762
▁refírese	-10.5762
▁1916	-10.5763
▁mesmos	-10.5768
▁álbums	-10.5769
▁modernos	-10.5773
▁May	-10.5773
rase	-10.5774
rt	-10.5776
▁tiro	-10.5778
▁Mes	-10.5778
▁funciona	-10.578
▁Ucraína	-10.5781
▁nordeste	-10.5781
ung	-10.5782
▁utilizou	-10.5788
tum	-10.5788
▁statu	-10.5788
elo	-10.5789
▁existentes	-10.5789
▁asentamento	-10.579
▁xuízo	-10.5799
dou	-10.5799
mida	-10.58
▁circunstancia	-10.5801
▁Batalla	-10.5801
▁Coroa	-10.5803
▁ob	-10.5804
mico	-10.5806
82	-10.5806
▁establece	-10.581
▁conforma	-10.581
▁lixeiramente	-10.581
nga	-10.5812
mero	-10.5813
▁mínimo	-10.5814
▁Albert	-10.5815
▁Pin	-10.5816
cencia	-10.582
▁Music	-10.5822
▁Tres	-10.5828
▁Desta	-10.5829
▁historiadores	-10.5833
▁inferiore	-10.5835
▁intensa	-10.584
42	-10.5841
▁Grand	-10.5841
▁Bla	-10.5842
▁gris	-10.5847
▁fixa	-10.5853
▁conecta	-10.5856
▁Ger	-10.5858
▁relevo	-10.586
▁mira	-10.586
▁igrexas	-10.5864
▁altos	-10.5865
▁quedar	-10.5869
▁esca	-10.5871
up	-10.5874
▁describe	-10.5874
▁líderes	-10.5875
▁Hy	-10.5877
▁declaración	-10.5877
rne	-10.5878
▁Distrito	-10.588
▁manuscrito	-10.588
▁xenético	-10.588
▁osíxeno	-10.5886
▁exp	-10.5887
▁referir	-10.5889
▁editorial	-10.589
berto	-10.5892
▁Racing	-10.5893
▁escuro	-10.59
97	-10.5914
deiro	-10.5915
lú	-10.5917
▁Tribunal	-10.5921
▁condenado	-10.5921
▁levaron	-10.5922
nica	-10.5923
chu	-10.5923
▁bosque	-10.5926
▁espazos	-10.5927
red	-10.5928
▁hipo	-10.5934
▁manda	-10.5935
reo	-10.5936
ture	-10.5937
▁levaba	-10.5938
▁costeira	-10.5942
▁Bell	-10.5943
▁43	-10.5943
▁abandona	-10.5944
▁perspectiva	-10.5946
▁mortos	-10.5948
▁semellantes	-10.5951
▁vir	-10.5955
▁pico	-10.5958
▁positiva	-10.5959
▁síntomas	-10.5961
ificado	-10.5964
52	-10.5978
▁Constantinopla	-10.598
▁eixo	-10.5985
▁Córdoba	-10.5986
▁literario	-10.5988
▁americana	-10.599
▁presentación	-10.5993
▁típica	-10.5993
▁radical	-10.5995
▁Fundación	-10.5995
ão	-10.5996
fina	-10.5998
igo	-10.5998
▁pin	-10.6002
▁α	-10.6004
▁músicos	-10.6005
▁participante	-10.6006
▁Lalín	-10.6009
cra	-10.601
ue	-10.6011
▁Mc	-10.6013
▁alimentación	-10.6016
▁investigadores	-10.6016
rca	-10.6018
▁masculino	-10.6019
izados	-10.602
ego	-10.6022
79	-10.6023
▁aplica	-10.6023
▁Armada	-10.6025
mir	-10.6029
▁riba	-10.6034
icos	-10.6035
▁árabes	-10.6037
▁Karl	-10.6039
mini	-10.6041
▁veciña	-10.6046
▁Valladolid	-10.6046
▁extinción	-10.6046
▁competir	-10.6049
sur	-10.6052
ila	-10.6055
art	-10.6056
▁seguen	-10.6057
▁tumor	-10.6059
89	-10.6059
ai	-10.6059
▁nación	-10.6061
▁medra	-10.6066
▁Chantada	-10.6067
ui	-10.6068
amente	-10.6069
▁depósito	-10.6069
▁finalizar	-10.607
▁cho	-10.6071
▁Fri	-10.6073
▁significativo	-10.6073
pan	-10.6075
▁41	-10.6081
quí	-10.6082
▁proto	-10.609
▁haber	-10.609
▁empresario	-10.6093
▁est	-10.6094
▁Yo	-10.6096
▁Valle	-10.6101
reiro	-10.6102
ting	-10.6105
▁detido	-10.6106
▁difusión	-10.6108
▁trazos	-10.6111
fal	-10.6115
ril	-10.6117
▁organizacións	-10.6119
▁diversidade	-10.612
tsu	-10.6124
▁mutacións	-10.6128
bos	-10.6132
▁puideron	-10.6134
▁terzo	-10.6136
pí	-10.6137
▁rap	-10.6141
▁outeiro	-10.6145
▁colexio	-10.6147
▁apertura	-10.6147
▁Boston	-10.6149
▁celulares	-10.615
age	-10.6154
▁Ze	-10.6159
uca	-10.6159
▁44	-10.616
▁Enrique	-10.6161
ken	-10.6162
▁técnico	-10.6163
▁explicar	-10.6167
▁ideal	-10.6168
cela	-10.6173
37	-10.6174
▁McLaren	-10.6175
zado	-10.6175
▁series	-10.6178
▁mensaxe	-10.6185
▁Green	-10.6189
▁equilibrio	-10.6189
46	-10.6191
▁compañeiros	-10.6192
▁Rugby	-10.6195
31	-10.6195
▁combina	-10.6196
xénese	-10.62
chen	-10.6202
itz	-10.6202
▁dirixente	-10.6204
53	-10.6205
▁programación	-10.6207
iste	-10.621
▁levado	-10.6216
▁describir	-10.6218
▁quedan	-10.622
▁cruza	-10.6222
▁ión	-10.6222
▁infantil	-10.6222
▁gaña	-10.6225
▁Ir	-10.6226
▁Ac	-10.6227
▁recuperación	-10.6227
rei	-10.6228
▁glicosa	-10.623
lve	-10.6231
▁Cl	-10.6235
▁protexer	-10.6237
▁conseguiron	-10.6238
▁Jack	-10.6239
▁Unidas	-10.624
▁Fronte	-10.6245
tana	-10.6246
▁plena	-10.6247
▁Sun	-10.625
44	-10.6253
▁macho	-10.6255
llos	-10.6256
▁pertencen	-10.6256
▁variedades	-10.6258
lítico	-10.6261
▁combustible	-10.6263
▁cálculo	-10.6263
▁federal	-10.6263
▁viaxa	-10.6263
▁entanto	-10.6264
ciona	-10.6269
▁espera	-10.627
seguindo	-10.6275
▁sólido	-10.6278
▁caer	-10.6281
mbro	-10.6285
▁canón	-10.6285
▁choiva	-10.6291
▁regresa	-10.6297
▁regulación	-10.6299
▁escritora	-10.6301
▁independentes	-10.6301
▁Domingo	-10.6305
pta	-10.6305
▁compoñente	-10.6308
▁Sir	-10.6311
▁espectro	-10.6311
▁laterais	-10.6311
▁Fonte	-10.6313
tom	-10.6313
▁Cy	-10.6313
▁nervioso	-10.6314
▁inicia	-10.6316
▁frase	-10.6318
▁actitude	-10.6318
má	-10.6321
▁exemplos	-10.6323
ná	-10.6325
dela	-10.6325
▁liberal	-10.6334
▁derrotado	-10.6338
▁Príncipe	-10.6339
uk	-10.634
▁morrer	-10.6341
▁períodos	-10.6352
▁come	-10.6353
▁Milán	-10.6357
▁violencia	-10.636
▁bioloxía	-10.6362
▁EP	-10.6363
73	-10.6365
▁Mol	-10.6366
▁Blanco	-10.6367
zan	-10.6368
dea	-10.6373
▁desaparición	-10.6374
ς	-10.638
▁Ei	-10.6381
poli	-10.6382
▁1913	-10.6382
cú	-10.6383
▁alma	-10.6387
▁irlandés	-10.6388
▁novelas	-10.6389
▁opción	-10.6389
▁Rey	-10.6392
▁Maior	-10.6396
ala	-10.6401
▁pés	-10.6403
▁Mas	-10.6403
▁Kar	-10.6405
isti	-10.6409
ning	-10.6414
rga	-10.6414
▁comandante	-10.6415
93	-10.6417
lor	-10.642
▁identificar	-10.6421
▁electrónico	-10.6423
▁copia	-10.6427
▁columna	-10.6428
▁Ran	-10.6428
▁amizade	-10.6429
▁sucesión	-10.6429
▁exerce	-10.6433
▁brasileiro	-10.6436
▁mañá	-10.6437
▁probabelmente	-10.6437
▁cru	-10.6439
▁tumba	-10.6444
▁Max	-10.6446
47	-10.6447
▁libres	-10.6448
ach	-10.6454
▁deseñada	-10.6457
▁descendentes	-10.6459
62	-10.6461
▁beneficios	-10.6462
vol	-10.6462
▁libra	-10.6465
▁Edward	-10.6465
▁xorde	-10.6466
43	-10.6468
▁experimentos	-10.647
▁apelido	-10.6471
▁lembra	-10.6472
▁esco	-10.6477
▁rexional	-10.6478
▁revistas	-10.6483
▁Hall	-10.6486
▁suave	-10.6486
57	-10.6489
▁hidro	-10.649
cili	-10.6491
▁musulmáns	-10.6491
▁organiza	-10.6492
▁sectores	-10.6497
▁galegas	-10.6498
▁beta	-10.6501
mado	-10.6502
▁históricos	-10.6508
ume	-10.6509
ib	-10.6509
▁raza	-10.651
▁dise	-10.6511
▁retirouse	-10.6511
▁ondas	-10.6512
▁Natural	-10.6514
pina	-10.6515
▁erro	-10.6515
▁publicar	-10.6517
uch	-10.6518
▁profesiona	-10.652
▁esperanza	-10.6521
cat	-10.6522
▁xer	-10.6528
▁socialista	-10.6531
▁Frank	-10.6532
▁franquía	-10.6535
▁vapor	-10.6535
▁apoia	-10.6536
bb	-10.6538
onia	-10.6538
▁observar	-10.6544
▁guión	-10.6545
▁Ban	-10.655
▁apunta	-10.6559
▁vexetación	-10.657
▁roupa	-10.657
94	-10.6571
58	-10.6572
▁reparación	-10.6573
03	-10.6574
▁metropolitana	-10.6578
▁estivero	-10.658
▁quinta	-10.6585
▁contar	-10.6585
▁medi	-10.6601
gne	-10.6601
scritores	-10.6604
▁Boy	-10.6605
▁Jan	-10.6606
▁Pablo	-10.6606
▁Cup	-10.6613
dé	-10.6619
▁tío	-10.6621
▁evidencia	-10.6622
▁semella	-10.6622
▁aliados	-10.6626
▁coincidi	-10.6627
▁territorial	-10.6627
xil	-10.6635
▁contou	-10.6639
▁correntes	-10.6639
▁regula	-10.6641
▁pronuncia	-10.6642
▁mer	-10.6642
61	-10.6644
▁Mora	-10.6649
▁Col	-10.665
ist	-10.6651
▁seguida	-10.6652
71	-10.6657
▁salto	-10.6662
▁46	-10.6663
plo	-10.667
wer	-10.6671
▁públicas	-10.6671
▁Antón	-10.6673
posición	-10.6675
▁require	-10.6676
▁asociada	-10.6681
▁substrato	-10.6684
▁Noia	-10.6685
▁nobres	-10.6687
fort	-10.6688
▁You	-10.6692
▁1905	-10.6693
▁once	-10.6697
▁resolución	-10.6698
▁paralelo	-10.6699
▁redes	-10.6703
▁residuos	-10.6704
▁Andalucía	-10.6705
mat	-10.6706
▁deuses	-10.6709
▁Vitoria	-10.6709
▁Zi	-10.671
▁Long	-10.6712
▁mel	-10.6712
▁demostrou	-10.6712
▁outono	-10.6713
▁intercambio	-10.672
▁desenvolvida	-10.6727
vida	-10.6729
▁defender	-10.6731
▁armada	-10.6732
▁Arousa	-10.6734
63	-10.6737
▁verdade	-10.6738
▁rosa	-10.6741
▁falecido	-10.6741
▁afluente	-10.6741
▁xudía	-10.6742
▁emp	-10.6748
▁indio	-10.6749
▁substituír	-10.6753
▁abrangue	-10.6756
▁Federal	-10.6756
▁existi	-10.6757
▁quince	-10.676
ris	-10.6761
▁precursor	-10.6763
▁Guinea	-10.6763
▁columnas	-10.6764
▁Mei	-10.6769
▁King	-10.6769
▁variante	-10.677
▁xi	-10.6774
▁sitúase	-10.6778
▁facil	-10.678
51	-10.6781
entes	-10.6781
fre	-10.6782
▁comedia	-10.6783
tua	-10.6788
▁bolsa	-10.6792
▁millón	-10.6792
▁probabilidade	-10.6793
doras	-10.6795
▁Estadio	-10.6796
▁funda	-10.6801
▁económicas	-10.6801
▁morre	-10.6803
mbri	-10.6805
▁conflitos	-10.6811
ring	-10.6814
cip	-10.6815
▁Camiño	-10.6815
▁resistente	-10.6822
▁mudou	-10.6823
udi	-10.6827
rdi	-10.683
árono	-10.683
rida	-10.6832
rica	-10.6835
llón	-10.6836
tr	-10.6837
▁terreos	-10.6837
sch	-10.6841
▁lagoa	-10.6846
▁sobrevivir	-10.6848
▁Comarca	-10.6852
▁poderes	-10.6853
ponse	-10.6856
▁honor	-10.6857
▁Europeo	-10.6865
▁fal	-10.6869
▁tele	-10.6871
▁Gua	-10.6874
▁Forza	-10.6874
AP	-10.6876
ábeis	-10.6882
field	-10.6883
▁prazo	-10.6889
grama	-10.689
vers	-10.689
ema	-10.6891
▁Gal	-10.6891
▁Lemos	-10.6893
▁International	-10.6893
▁traxectoria	-10.6894
▁Home	-10.6905
lie	-10.6906
▁compa	-10.6907
▁parcialmente	-10.6909
▁facelo	-10.6914
▁licenza	-10.6915
▁Alberto	-10.6921
▁caracteriza	-10.6921
▁Premios	-10.6923
▁Han	-10.6923
▁occidentais	-10.6924
▁deserto	-10.6924
shire	-10.6929
cht	-10.6931
gh	-10.6935
▁White	-10.6935
▁defende	-10.6937
▁Tru	-10.6944
▁incendio	-10.6945
▁une	-10.6945
▁norteamericano	-10.6947
▁vol	-10.6947
▁salva	-10.6951
▁1909	-10.6954
▁Lúa	-10.6955
▁Ul	-10.6957
▁máquina	-10.6958
▁Bilbao	-10.6959
▁papei	-10.696
▁ceo	-10.696
▁celebrado	-10.6963
▁extremos	-10.6965
▁universo	-10.6967
▁doutrina	-10.6967
culo	-10.6967
vez	-10.6967
▁1911	-10.6969
▁Cultural	-10.6971
rey	-10.6972
▁superar	-10.6975
▁bri	-10.6976
▁posibles	-10.6979
▁reformas	-10.6984
▁Bull	-10.6984
éndose	-10.6986
▁suxeito	-10.6989
▁dedica	-10.6989
▁regras	-10.6989
ip	-10.6993
▁Ste	-10.6994
▁indíxenas	-10.6998
ow	-10.6998
▁recoñece	-10.6999
▁cura	-10.6999
▁Tanto	-10.7
▁Mala	-10.7001
▁eliminar	-10.7001
▁Dor	-10.7001
low	-10.7002
▁récord	-10.7004
▁xurdiu	-10.7004
▁incluída	-10.7004
▁concreto	-10.7004
▁bando	-10.7007
rela	-10.7009
sson	-10.7009
ración	-10.701
▁controlar	-10.7011
▁acusado	-10.7012
▁perde	-10.7016
▁limitada	-10.7025
ale	-10.7028
▁aprobación	-10.7028
▁64	-10.7035
▁subunidade	-10.7041
▁acerca	-10.7042
▁Yu	-10.7042
▁gar	-10.7044
▁Venecia	-10.7049
▁practica	-10.7055
▁Cou	-10.7056
▁Perú	-10.7057
▁ordenou	-10.7058
rena	-10.7061
ef	-10.7062
▁cumprir	-10.7063
▁episodio	-10.7066
▁aparencia	-10.707
▁reca	-10.7071
▁Baixa	-10.7076
gada	-10.7077
lde	-10.7077
▁mariños	-10.7077
▁vitamina	-10.7078
gio	-10.708
▁variantes	-10.7081
pare	-10.7082
▁universitario	-10.7085
▁aparello	-10.7085
▁Leste	-10.7086
▁celébra	-10.7093
▁Draft	-10.7093
▁gobernante	-10.7093
xico	-10.7099
olóxica	-10.71
▁49	-10.7102
axe	-10.7103
▁abriu	-10.7106
▁folla	-10.7107
▁profundo	-10.7108
▁variacións	-10.711
▁comezan	-10.7113
bé	-10.7115
▁glándula	-10.7115
ani	-10.7117
▁1906	-10.7117
din	-10.7121
▁Cámara	-10.7123
▁single	-10.7123
▁Ante	-10.7123
vella	-10.7124
▁Ela	-10.7124
dando	-10.7127
tim	-10.7128
ciais	-10.7129
▁outorga	-10.7129
▁tralo	-10.7131
▁ficha	-10.7136
▁clasificar	-10.7137
▁Xurxo	-10.7137
▁chinés	-10.7138
eb	-10.7138
▁Stone	-10.7138
ranse	-10.7139
▁relixiosos	-10.714
▁desenvolve	-10.7142
▁fuxir	-10.7143
▁soporte	-10.7146
▁relacionada	-10.7154
▁fabricante	-10.7157
▁castelá	-10.7158
hol	-10.7161
▁Scott	-10.7162
▁percorrido	-10.7167
▁lectura	-10.7168
▁duro	-10.7174
loxía	-10.7174
▁Javier	-10.7175
▁College	-10.7175
ward	-10.7181
▁organizada	-10.7183
▁graos	-10.7186
pper	-10.7191
lei	-10.7191
▁Existe	-10.7191
▁desexa	-10.7191
vent	-10.7193
▁marcou	-10.7194
mbre	-10.7195
▁triunfo	-10.7198
▁deportivo	-10.7198
▁viaxes	-10.7199
▁esforzos	-10.7208
▁Bat	-10.7209
▁buscar	-10.721
▁cer	-10.7211
RA	-10.7211
▁minoría	-10.7213
▁ka	-10.7213
▁circulación	-10.7217
▁evidencias	-10.7218
▁parlamento	-10.722
▁postos	-10.7222
lismo	-10.7223
91	-10.7223
▁vehículos	-10.7226
▁biolóxica	-10.7227
▁Nápoles	-10.7235
▁cuberto	-10.7236
▁electrónica	-10.7244
▁evita	-10.7245
▁Dr	-10.725
▁arma	-10.7255
▁Palma	-10.7258
▁cae	-10.7259
▁fría	-10.7263
▁Jones	-10.7263
▁Schumacher	-10.7266
dista	-10.7267
ique	-10.7268
▁faleceu	-10.7274
▁reclama	-10.7275
▁actuacións	-10.7276
▁definir	-10.7277
▁Tan	-10.7278
vil	-10.728
▁recu	-10.7287
▁Pai	-10.7289
▁reducida	-10.7289
cua	-10.7289
eg	-10.729
▁Prost	-10.7291
▁min	-10.7293
▁Facultade	-10.7296
▁episodios	-10.7301
▁conferencia	-10.7305
az	-10.7305
▁pinturas	-10.7308
lea	-10.7311
▁Xeorxia	-10.7311
▁visual	-10.7312
▁relixiosas	-10.7312
▁empregados	-10.7315
zos	-10.7317
▁xurdir	-10.7319
▁mapa	-10.732
▁derivado	-10.7321
▁privada	-10.7325
pt	-10.7327
▁Emilio	-10.7327
▁regresar	-10.7328
▁UEFA	-10.7334
roso	-10.7335
▁pasan	-10.7336
▁Xerusalén	-10.7342
▁Xo	-10.7343
▁Roberto	-10.7345
▁apareceron	-10.7346
▁químico	-10.7347
▁Lugares	-10.7349
▁asuntos	-10.7354
ides	-10.7356
▁participaron	-10.736
▁voto	-10.7362
kar	-10.7366
▁elaboración	-10.7367
ari	-10.737
▁satélites	-10.7372
▁Murcia	-10.7375
▁creando	-10.7375
▁escultura	-10.7379
▁Rh	-10.7384
▁Die	-10.739
▁oxíxeno	-10.7395
▁estacións	-10.74
▁explicación	-10.7406
har	-10.7407
ich	-10.7411
▁250	-10.7412
▁Esa	-10.7412
▁monumento	-10.7412
▁estatal	-10.7413
▁Libro	-10.7414
eda	-10.7416
virus	-10.7417
▁mata	-10.7418
cc	-10.7423
▁económicos	-10.7424
▁restauración	-10.7426
tadas	-10.7431
vista	-10.7434
▁marcado	-10.744
▁falantes	-10.7441
▁introduciu	-10.7444
▁representada	-10.7445
▁cla	-10.7447
▁axentes	-10.7447
▁Foron	-10.7449
indo	-10.7454
▁Mario	-10.7454
▁moza	-10.7455
▁PSOE	-10.7457
▁himno	-10.7457
▁cartas	-10.7459
lam	-10.746
▁queima	-10.7462
elli	-10.7463
▁Game	-10.7464
▁sanguíneo	-10.7465
▁avance	-10.7469
▁amarelo	-10.7473
▁convento	-10.7473
▁Char	-10.7475
▁magnitude	-10.748
▁meridional	-10.748
ese	-10.7481
▁fundadores	-10.7481
ple	-10.7482
▁recta	-10.7486
▁cata	-10.7487
▁pavillón	-10.7488
▁Lotus	-10.7492
▁nomeada	-10.7494
▁patrimonio	-10.7496
▁Carolina	-10.7497
▁oferta	-10.7497
▁Organización	-10.7497
▁Bri	-10.7498
▁esforzo	-10.7501
▁soberanía	-10.7504
▁permitía	-10.7504
▁muscular	-10.7505
▁construíu	-10.7508
▁51	-10.751
die	-10.7511
▁representado	-10.7511
▁disputar	-10.7518
tte	-10.7524
▁Todo	-10.7524
▁rival	-10.7526
▁47	-10.7531
▁Social	-10.7533
▁extensa	-10.7535
▁soviética	-10.7535
▁subfamilia	-10.7535
▁reducido	-10.7535
▁Conferencia	-10.7536
▁disciplina	-10.7537
▁alcanzou	-10.7542
▁incorpora	-10.7546
▁flu	-10.755
▁pica	-10.7552
▁Deza	-10.7552
▁nativos	-10.7555
с	-10.7557
▁secundario	-10.7558
▁position	-10.7558
▁masas	-10.756
▁execución	-10.7566
posto	-10.7566
▁acompañado	-10.7566
ál	-10.7566
▁universidades	-10.7567
pón	-10.7574
▁Iugoslavia	-10.7574
▁minerais	-10.7574
Ma	-10.7574
riña	-10.7574
tter	-10.7575
cept	-10.7576
▁Estudos	-10.7581
▁páxina	-10.7582
▁Mat	-10.7582
▁presentado	-10.7582
▁except	-10.7583
▁Montes	-10.7583
▁animación	-10.7584
zas	-10.7588
▁anuncia	-10.7589
hl	-10.759
▁fina	-10.759
▁Outeiro	-10.759
▁Im	-10.759
ret	-10.7595
mont	-10.7595
▁Católica	-10.7597
▁normas	-10.7598
▁realización	-10.76
▁Dun	-10.7603
▁próximas	-10.761
▁decreto	-10.7611
▁noso	-10.7612
▁enlaces	-10.7612
▁cham	-10.7613
▁barreira	-10.7613
ska	-10.7614
▁600	-10.7614
mbra	-10.7618
▁Hamilton	-10.7621
▁Joan	-10.7621
cula	-10.7622
rino	-10.7623
ular	-10.7625
▁Del	-10.7626
terra	-10.7628
▁designado	-10.7628
▁sinxela	-10.7629
▁1908	-10.763
▁migración	-10.7633
▁divíde	-10.7634
▁mariña	-10.7635
▁ordena	-10.7637
▁quedaron	-10.764
▁cito	-10.764
dge	-10.7641
nge	-10.7642
int	-10.7644
▁mito	-10.7644
▁actores	-10.7645
ik	-10.7645
▁Océano	-10.7652
▁metro	-10.7654
▁Serie	-10.7655
quera	-10.7661
celo	-10.7664
ticos	-10.7667
ciones	-10.7667
▁Sea	-10.7667
▁simples	-10.7675
▁causada	-10.7676
bin	-10.7682
▁Teo	-10.7682
▁incluír	-10.7682
▁boxe	-10.7683
▁Educación	-10.7684
▁Corea	-10.7685
▁interacción	-10.7688
▁vivían	-10.769
▁pretende	-10.7691
▁devandito	-10.7692
▁Pertence	-10.7692
▁1915	-10.7694
▁firma	-10.7695
▁placa	-10.7696
▁elixida	-10.7698
MP	-10.7699
▁Hel	-10.7701
▁exerceu	-10.7705
mic	-10.7707
▁dixital	-10.7708
▁produci	-10.7709
▁GP	-10.771
▁éxitos	-10.771
▁canles	-10.7711
▁rodea	-10.7711
▁preparación	-10.7713
▁1000	-10.7716
▁calcio	-10.7717
▁encóntra	-10.7718
▁declarado	-10.7718
▁recoñecer	-10.7719
vá	-10.7722
ocitos	-10.7722
▁Biblioteca	-10.7723
▁toneladas	-10.7723
▁Bon	-10.7724
▁madura	-10.7727
▁cabalo	-10.7731
▁baséa	-10.7731
▁encontran	-10.7737
▁doutro	-10.7739
▁petición	-10.7739
▁rexeita	-10.7739
▁acompaña	-10.774
▁químicos	-10.7741
spira	-10.7742
▁Zu	-10.7743
mul	-10.7744
ándoa	-10.7745
▁páxinas	-10.7747
▁Chan	-10.7752
▁Rose	-10.7753
▁específica	-10.7755
▁remate	-10.7756
lidade	-10.7757
▁carto	-10.7761
▁Praza	-10.7766
▁sesión	-10.777
▁Land	-10.777
▁Departamento	-10.7771
▁52	-10.7773
▁enviar	-10.7777
▁falla	-10.7778
▁Island	-10.778
▁seguro	-10.778
▁administrativo	-10.778
▁capas	-10.7785
tividade	-10.7785
▁soviético	-10.7788
▁automóbiles	-10.7789
▁Roger	-10.7792
▁nomeamento	-10.7792
▁acumula	-10.7797
▁Otero	-10.7798
▁vendas	-10.7801
▁ingresou	-10.7804
▁distinguir	-10.7805
mato	-10.7806
▁establecido	-10.7813
▁filo	-10.7815
▁Der	-10.7818
▁Cádiz	-10.7819
▁Deputación	-10.7819
char	-10.782
▁Tha	-10.7821
eña	-10.7822
rda	-10.7822
▁Poli	-10.7826
pio	-10.7829
▁uniuse	-10.7834
▁Romanía	-10.7836
▁ocupada	-10.7837
▁Sala	-10.7841
hor	-10.7842
filia	-10.7842
▁Ford	-10.7843
▁aniversario	-10.7843
▁democracia	-10.7843
▁Darwin	-10.7843
▁Cam	-10.7848
▁mesmas	-10.785
idez	-10.785
vos	-10.7852
ame	-10.7854
▁agrícola	-10.7855
▁debutou	-10.7855
▁utilización	-10.7857
▁norma	-10.7857
rte	-10.7858
▁disolución	-10.7859
itas	-10.786
▁Normal	-10.7862
vor	-10.7864
▁rea	-10.7864
▁revolucionario	-10.7867
ky	-10.7867
▁edicións	-10.7868
edi	-10.7871
▁doenzas	-10.7873
▁comer	-10.7874
lev	-10.7874
▁executivo	-10.7876
▁comunica	-10.788
▁tribo	-10.788
▁cepa	-10.7881
▁asento	-10.7883
rix	-10.7883
icio	-10.7884
▁Senado	-10.7884
▁BNG	-10.7885
▁afirmou	-10.7892
nor	-10.7893
▁PC	-10.7893
mel	-10.7895
▁seleccionado	-10.7895
▁determina	-10.7897
tea	-10.7898
▁Alfonso	-10.79
▁matriz	-10.79
win	-10.79
rec	-10.7901
▁Ano	-10.7901
▁move	-10.7901
▁Tivo	-10.7903
ándolle	-10.791
▁froitos	-10.7911
dul	-10.7911
▁humanas	-10.7915
▁Ron	-10.7917
▁familiares	-10.792
▁entender	-10.7924
▁arxentino	-10.7924
taba	-10.7925
pon	-10.7925
▁definitiva	-10.7926
▁cama	-10.7926
corre	-10.793
▁sí	-10.793
▁lados	-10.793
cr	-10.7931
cur	-10.7931
▁ideoloxía	-10.7932
▁definida	-10.7934
▁sae	-10.7935
aca	-10.794
▁Compañía	-10.794
▁120	-10.794
▁muro	-10.7947
ū	-10.7948
▁igualmente	-10.795
▁Mari	-10.7953
▁síndrome	-10.7956
▁vontade	-10.7956
▁xerar	-10.7959
▁pastor	-10.7959
▁pertencentes	-10.796
▁Bol	-10.7961
br	-10.7962
▁heroe	-10.7965
▁vocalista	-10.7966
▁fases	-10.7969
▁lagos	-10.797
▁Riba	-10.7972
cl	-10.7979
▁Sé	-10.798
▁coñécese	-10.7981
▁catalá	-10.7983
▁nega	-10.7984
▁estimula	-10.7985
▁Croacia	-10.7989
▁engadir	-10.7989
ír	-10.7989
▁Colexio	-10.7989
ile	-10.799
▁nitróxeno	-10.7997
bido	-10.7997
▁cómpre	-10.7997
▁aceptou	-10.8005
▁implicado	-10.8008
▁asegurar	-10.8008
▁escenas	-10.8009
▁positivo	-10.801
vido	-10.8013
▁adestramento	-10.8015
▁estreou	-10.8015
▁1907	-10.8016
▁placas	-10.8018
▁fogar	-10.8018
▁Spa	-10.8019
▁Ob	-10.8023
▁1904	-10.8023
▁paisaxe	-10.8024
cil	-10.8026
▁transferencia	-10.803
▁describiu	-10.8031
▁pagar	-10.8034
▁respecta	-10.8036
▁CE	-10.8037
▁propuxo	-10.8039
plasto	-10.804
▁prima	-10.8041
cie	-10.8042
dina	-10.8046
▁Municipal	-10.8046
▁herdanza	-10.8047
ulle	-10.8053
bou	-10.8053
▁facilita	-10.8054
▁intelectual	-10.8055
▁viña	-10.8058
▁levada	-10.8058
▁abundante	-10.8059
ares	-10.8061
▁limitado	-10.8061
▁Macedonia	-10.8063
▁semellanza	-10.8063
terna	-10.8064
▁Garda	-10.8064
▁funcional	-10.8065
rato	-10.8066
bur	-10.8069
LA	-10.8069
▁sucedeu	-10.8071
▁poderoso	-10.8071
▁Ham	-10.8071
▁princesa	-10.8071
▁impe	-10.8071
▁investi	-10.8078
dán	-10.808
▁fluído	-10.8088
▁relatos	-10.8088
▁Chu	-10.809
▁centrais	-10.8091
▁poboada	-10.8091
DA	-10.8092
▁Bos	-10.8094
▁Hunt	-10.8095
▁Venezuela	-10.8095
plan	-10.8098
lex	-10.8101
▁etapas	-10.8104
▁lanzada	-10.8105
cker	-10.8106
ug	-10.8107
▁inimigo	-10.8109
uda	-10.811
lem	-10.8111
mí	-10.8111
grada	-10.8115
▁viax	-10.8117
▁contorna	-10.8121
▁posuía	-10.8124
▁evolutiva	-10.8128
▁uniforme	-10.813
▁primario	-10.8136
▁United	-10.8137
▁parroquial	-10.8141
▁asenta	-10.8144
▁miña	-10.8144
▁hu	-10.8145
▁australiano	-10.8145
top	-10.8145
▁Bou	-10.8148
▁Carmen	-10.8148
▁porcentaxe	-10.8153
cent	-10.8155
▁prato	-10.8156
▁recon	-10.8157
táronse	-10.816
▁adoptou	-10.8162
▁Negro	-10.8166
▁ferida	-10.8167
▁bos	-10.8167
íña	-10.8167
iñeira	-10.8169
▁negocio	-10.817
▁audiencia	-10.817
rgo	-10.8172
▁homo	-10.8177
▁financeiro	-10.8178
▁fichou	-10.8179
▁caracteres	-10.8182
▁cráter	-10.8195
mifinais	-10.8195
lga	-10.8195
▁escravos	-10.8196
▁franco	-10.8198
ped	-10.8199
▁orientación	-10.8205
▁Cos	-10.8207
▁Canarias	-10.8211
▁colectivo	-10.8212
▁emprégase	-10.8212
▁Ram	-10.8215
lip	-10.8216
▁Association	-10.822
▁Poden	-10.8222
xido	-10.8223
ór	-10.8227
▁ovo	-10.823
▁maioritaria	-10.8232
▁Nesa	-10.8233
nou	-10.8233
▁mag	-10.8235
▁fosfato	-10.8235
▁Vega	-10.8237
▁composicións	-10.8237
ello	-10.8239
▁pregunta	-10.8242
▁conclusión	-10.8245
▁multitude	-10.8245
▁rendemento	-10.8245
▁EUA	-10.8245
▁integrado	-10.825
92	-10.8255
▁Colo	-10.8256
▁abrir	-10.8256
▁té	-10.8257
▁definido	-10.8257
▁ARNm	-10.8263
▁volcán	-10.8265
real	-10.8265
▁Ás	-10.8267
▁identifica	-10.8267
▁desemboca	-10.827
▁intentou	-10.8271
▁presta	-10.8272
▁cabe	-10.8272
▁condena	-10.8273
ama	-10.8276
▁Renault	-10.8278
side	-10.8279
rman	-10.8281
▁editor	-10.8283
▁agrupación	-10.8285
▁impostos	-10.8285
▁Brown	-10.8287
lim	-10.8287
mbe	-10.829
▁asociados	-10.8291
▁ecuación	-10.8292
▁Sto	-10.8292
tando	-10.8292
▁Estrada	-10.8293
▁disp	-10.8294
▁Porta	-10.8294
▁fornece	-10.8296
▁Medicina	-10.8298
▁Mur	-10.8301
▁Bob	-10.8302
▁alén	-10.8302
▁Confederación	-10.8305
▁Gen	-10.8305
sign	-10.831
▁Pobo	-10.8313
▁escaso	-10.8316
▁cova	-10.832
▁Pierre	-10.8322
uros	-10.8324
▁Esp	-10.8324
▁praias	-10.8327
▁tenta	-10.8328
▁considerou	-10.8329
▁barra	-10.8329
▁chinesa	-10.8329
▁públicos	-10.8332
▁capace	-10.8335
▁Mónaco	-10.8337
▁Jesús	-10.8337
▁800	-10.834
▁pensar	-10.8345
rat	-10.8346
ος	-10.8346
▁medir	-10.8347
▁Mellor	-10.8347
▁vector	-10.835
▁falada	-10.8351
▁xogando	-10.8351
▁São	-10.8352
cea	-10.8352
hn	-10.8353
▁mozos	-10.8353
▁tre	-10.8362
▁Mercedes	-10.8363
▁humanidade	-10.8363
▁axudou	-10.8363
pos	-10.8364
▁Anna	-10.8364
isto	-10.8366
▁dianteiro	-10.8366
▁54	-10.8367
gus	-10.8369
▁Filosofía	-10.8371
▁neto	-10.8372
BA	-10.8372
vul	-10.8373
pes	-10.8374
▁tenda	-10.8375
-0	-10.8379
lix	-10.8379
porta	-10.838
▁proclamou	-10.838
▁efectiva	-10.8382
▁Antiga	-10.8383
▁Oeste	-10.8387
mona	-10.839
ted	-10.839
▁Pas	-10.8391
▁trigo	-10.8394
▁polaco	-10.8397
▁Rivera	-10.8401
▁habita	-10.8404
▁nobre	-10.8404
mbu	-10.8404
▁alcance	-10.8405
▁Estaba	-10.8405
▁fundamentai	-10.8405
▁bate	-10.8406
▁falan	-10.8407
▁53	-10.8408
zou	-10.8412
▁muros	-10.8413
▁progresiva	-10.8414
▁graxa	-10.8416
yn	-10.8416
▁curtas	-10.8419
▁Tui	-10.8423
▁iniciais	-10.8427
sumi	-10.8429
▁Reg	-10.8429
nti	-10.8432
▁pago	-10.8433
▁1898	-10.8433
ática	-10.8435
mbar	-10.8435
▁larvas	-10.8437
selle	-10.8437
▁cero	-10.8437
▁vexetais	-10.8439
▁Español	-10.8442
▁Andrés	-10.8444
▁comerciante	-10.8448
▁evidente	-10.8448
▁loitar	-10.8451
▁enteiro	-10.8451
▁mac	-10.8452
▁académico	-10.8456
▁Gallega	-10.8457
▁clado	-10.8458
▁Thi	-10.8459
NA	-10.846
-200	-10.846
▁predominante	-10.8462
mó	-10.8463
▁croata	-10.8465
▁marcada	-10.8465
▁terminar	-10.8466
▁prepara	-10.8467
pico	-10.847
▁parecen	-10.847
▁herda	-10.8471
▁Catedral	-10.8473
▁lobo	-10.8473
▁Texas	-10.8474
▁culturas	-10.8474
▁decidiron	-10.8474
▁estranxeiros	-10.8476
Q	-10.8479
▁fígado	-10.8482
▁conversión	-10.8483
ish	-10.8483
▁André	-10.8486
ille	-10.8487
lación	-10.849
▁interpretar	-10.8491
▁avó	-10.8499
▁Veiga	-10.85
eri	-10.8503
▁Reis	-10.8508
▁Grazas	-10.8509
▁ingresos	-10.8511
-17	-10.8511
▁editou	-10.8512
▁pneumáticos	-10.8515
▁Salamanca	-10.8516
part	-10.8517
▁carro	-10.8519
▁futura	-10.8526
▁favorece	-10.8526
▁ab	-10.8528
▁continuo	-10.8528
trá	-10.853
▁propietario	-10.8531
ele	-10.8533
▁recupera	-10.8533
▁bebida	-10.8533
rus	-10.8534
▁variación	-10.8534
iños	-10.8536
▁protagonizado	-10.8542
ate	-10.8544
▁baleiro	-10.8545
▁inimigos	-10.8545
▁Michel	-10.8545
ER	-10.8545
▁dispoñible	-10.8548
▁Fran	-10.8549
▁alterna	-10.855
▁intensidade	-10.8551
▁dorsal	-10.8551
▁suposta	-10.8552
▁monta	-10.8552
▁derivados	-10.8554
▁Grandes	-10.8554
hid	-10.8555
trib	-10.8555
▁espa	-10.8555
▁estatua	-10.8556
▁estadounidenses	-10.8556
▁interesante	-10.8562
▁sucede	-10.8563
▁Mai	-10.8566
▁It	-10.8568
▁comité	-10.8568
▁sinónimo	-10.8568
▁Ig	-10.8569
▁pura	-10.857
vina	-10.857
▁niño	-10.857
▁postura	-10.8571
ríase	-10.8572
▁1890	-10.8572
▁libera	-10.8574
▁Day	-10.8574
▁oral	-10.8577
qua	-10.8578
▁1903	-10.8578
itos	-10.8579
▁expulsado	-10.858
▁creador	-10.8582
▁gui	-10.8583
▁símbolos	-10.8584
▁Señor	-10.8592
▁tripulación	-10.8594
yer	-10.8594
▁permanecer	-10.8596
▁temos	-10.8599
▁competencia	-10.8603
▁volumes	-10.8603
▁orgánica	-10.8603
nó	-10.8603
fin	-10.8604
▁estre	-10.8604
▁Rod	-10.8611
▁sufri	-10.862
▁pretendía	-10.862
▁fixera	-10.862
cin	-10.8621
▁fresco	-10.8621
nan	-10.8622
▁regra	-10.8623
▁causas	-10.8625
▁católico	-10.863
▁organizar	-10.8631
▁resolver	-10.8631
▁Ortigueira	-10.8637
▁contemporánea	-10.8637
▁hélice	-10.8637
▁románica	-10.8637
▁turístico	-10.8638
▁negociación	-10.8639
▁agrupa	-10.8639
leiro	-10.8645
▁reunir	-10.8647
mpre	-10.8649
sha	-10.865
izadas	-10.8651
▁xorna	-10.8654
▁mostras	-10.8655
rac	-10.866
mora	-10.866
forma	-10.8662
▁Pobra	-10.8662
dense	-10.8663
▁argumenta	-10.8664
▁electro	-10.8666
▁Ye	-10.8667
▁alteración	-10.867
▁Recibiu	-10.8672
▁brancos	-10.8677
▁rexistra	-10.8679
▁gañaron	-10.868
▁metabolismo	-10.8681
▁eliminatoria	-10.8681
▁golfo	-10.8683
íbel	-10.8685
▁especializada	-10.8686
▁Anti	-10.8689
▁nacionalista	-10.8693
▁Fro	-10.8693
▁críticos	-10.8696
idad	-10.8697
▁Corte	-10.8698
▁vilas	-10.8699
▁fronteiras	-10.87
oide	-10.8709
▁documental	-10.8712
touse	-10.8714
▁herba	-10.8715
▁organizou	-10.8716
▁Eurovisión	-10.8716
▁patriarca	-10.8716
▁drama	-10.8716
▁talo	-10.8719
▁naval	-10.8719
tería	-10.8724
▁sobriño	-10.8725
▁influencias	-10.8729
fon	-10.8732
▁menciona	-10.8735
▁depresión	-10.874
hen	-10.8741
▁temática	-10.8744
▁seguidores	-10.8747
áceas	-10.8749
▁Dio	-10.8755
lleira	-10.8756
▁asegura	-10.8757
uf	-10.8759
itario	-10.8759
▁Música	-10.876
▁liñaxe	-10.8761
▁tenente	-10.8766
▁dividir	-10.8769
▁obtido	-10.8769
▁activación	-10.8771
▁AC	-10.8774
▁indicar	-10.8776
▁xurisdición	-10.8777
▁externo	-10.8778
▁flora	-10.8778
▁establecida	-10.878
▁peor	-10.8781
▁resultante	-10.8782
▁debeu	-10.8785
▁sorte	-10.8788
ington	-10.8788
▁rara	-10.8789
▁separada	-10.879
icas	-10.8794
▁individuais	-10.8795
▁fotografía	-10.8796
▁ferramentas	-10.8797
bili	-10.8806
fri	-10.8806
ili	-10.8808
mita	-10.8808
dis	-10.8812
▁impedir	-10.8814
▁Kra	-10.8817
▁algas	-10.8821
ches	-10.8821
▁vertical	-10.8822
▁preciso	-10.8822
▁conselleiro	-10.8822
▁ribeira	-10.8822
▁domina	-10.8826
▁matar	-10.8826
▁competicións	-10.8829
▁alberga	-10.883
▁mostrou	-10.8831
▁Mus	-10.8832
▁mol	-10.8833
▁ósos	-10.8836
curso	-10.8837
▁Marco	-10.8839
▁muda	-10.8839
▁cemiterio	-10.8839
▁singular	-10.8839
▁democrática	-10.8839
ette	-10.8841
▁anotou	-10.8847
▁Xer	-10.8848
▁crías	-10.8848
▁beleza	-10.8848
▁Xoga	-10.8856
mino	-10.8861
uma	-10.8862
▁inaugurado	-10.8862
▁Barba	-10.8863
▁reciben	-10.8864
▁Marrocos	-10.8866
▁Oviedo	-10.8866
leta	-10.8866
▁Johann	-10.8868
▁denuncia	-10.887
▁ocupado	-10.8871
SA	-10.8872
▁sofre	-10.8873
▁narra	-10.8874
▁Big	-10.8874
-10	-10.8877
ific	-10.8879
▁redactor	-10.8884
▁necesita	-10.8884
▁56	-10.889
▁vital	-10.8891
▁Piñeiro	-10.8894
mol	-10.8895
▁Constantino	-10.8897
▁ligado	-10.8899
▁contraste	-10.8902
▁húmido	-10.8902
▁oitavo	-10.8902
▁escapar	-10.8902
▁cumio	-10.8903
▁extremada	-10.8904
telo	-10.8906
ii	-10.8906
▁Hal	-10.8907
▁cur	-10.8907
▁especialista	-10.891
ith	-10.8911
▁mineral	-10.8911
▁persa	-10.8913
▁fácil	-10.892
▁guionista	-10.892
▁potente	-10.892
▁gando	-10.8924
▁sétimo	-10.8929
▁vendido	-10.893
nne	-10.893
▁impulso	-10.893
▁senador	-10.8931
▁Duque	-10.8935
phi	-10.8938
vert	-10.8943
óxeno	-10.8943
gma	-10.8943
ulo	-10.8946
▁rectangular	-10.8946
▁alcaldía	-10.8946
▁xustiza	-10.8947
▁consistente	-10.8947
▁plumas	-10.8955
▁cuxos	-10.8955
▁PPdeG	-10.8955
▁mención	-10.8956
este	-10.8958
▁Spi	-10.896
▁atoparon	-10.896
▁Cli	-10.8963
ute	-10.8963
▁polimerase	-10.8964
▁otomán	-10.8967
▁naves	-10.8968
mpo	-10.8968
▁refuxio	-10.8978
▁estranxeiro	-10.898
para	-10.898
wan	-10.8982
▁especializado	-10.8982
nny	-10.8982
ógrafo	-10.8982
▁Biblia	-10.8982
▁estatística	-10.8982
▁exercicio	-10.8983
▁abre	-10.8985
more	-10.8985
né	-10.8992
▁fármacos	-10.8993
▁76	-10.8995
▁atopába	-10.8996
▁guerras	-10.8997
▁arredores	-10.9
▁mínima	-10.9
gel	-10.9004
▁nacións	-10.9005
▁participan	-10.9006
tir	-10.9009
▁compromiso	-10.9009
▁Stra	-10.9011
▁transporta	-10.9014
▁terá	-10.9014
table	-10.9015
▁salvaxe	-10.9017
▁estrutural	-10.9019
ding	-10.9019
▁1902	-10.9021
▁porción	-10.9021
▁mestra	-10.9023
dú	-10.9026
▁africano	-10.9028
ifica	-10.903
rista	-10.9032
▁Stu	-10.9034
▁rexeitou	-10.9037
▁xera	-10.9043
gy	-10.9044
▁gravou	-10.9046
▁cloro	-10.9049
▁Torres	-10.9049
▁deus	-10.9049
▁God	-10.905
▁lento	-10.9051
▁enteira	-10.9052
▁inicios	-10.9053
▁teatral	-10.9055
▁mencionado	-10.9056
clina	-10.9057
▁Contra	-10.9059
▁portada	-10.9062
▁presentouse	-10.9063
▁Vale	-10.9069
▁escribe	-10.9073
▁montes	-10.9073
▁Liber	-10.9076
▁cabalos	-10.9077
▁percorre	-10.9077
▁causou	-10.9082
▁quinase	-10.9083
▁específicas	-10.9083
▁cruceiro	-10.9084
wood	-10.9092
▁57	-10.9092
▁Chris	-10.9092
▁State	-10.9092
▁existente	-10.9094
▁vendeu	-10.9097
▁traballaba	-10.9103
bus	-10.9104
▁Angel	-10.9105
▁contiña	-10.9106
▁Mau	-10.9106
tros	-10.9107
▁poidan	-10.9108
▁presas	-10.9109
▁sexuais	-10.9109
▁salvo	-10.911
métrica	-10.9118
▁Airlines	-10.9118
▁iniciar	-10.9119
▁negocios	-10.9119
▁1901	-10.9121
▁usou	-10.9121
▁destacado	-10.9127
▁eucariotas	-10.9127
▁experimental	-10.9131
ndido	-10.9132
▁Lorenzo	-10.9132
▁meu	-10.9135
▁concepción	-10.9136
▁aérea	-10.9137
▁PP	-10.9142
▁Teñe	-10.9144
queira	-10.9145
▁distinción	-10.9146
▁litoral	-10.9146
▁reconstrución	-10.9148
nov	-10.9148
ográfica	-10.915
▁fungos	-10.9151
▁Nadal	-10.9153
▁importa	-10.9154
▁ollo	-10.9155
▁verse	-10.9159
▁casar	-10.9161
▁Alexander	-10.9164
▁influente	-10.9164
▁hitita	-10.9164
▁firme	-10.9165
▁enfermo	-10.9166
▁crime	-10.9166
▁armado	-10.9166
▁Entón	-10.9167
güe	-10.917
▁Jim	-10.917
▁existir	-10.9173
▁antepasado	-10.9173
▁portugueses	-10.9173
▁Silleda	-10.9173
▁irregular	-10.9177
▁At	-10.9177
▁encoro	-10.9177
▁Sco	-10.9182
▁School	-10.9183
▁Euro	-10.9183
viv	-10.9184
▁Bill	-10.9187
▁Sab	-10.9189
▁85	-10.919
▁médica	-10.9192
▁introducir	-10.9196
▁piso	-10.9197
pti	-10.9197
▁ocorreu	-10.9198
▁bóveda	-10.9201
▁escultor	-10.9201
▁Cabana	-10.9203
dente	-10.9204
leo	-10.9204
nucle	-10.9205
▁Nor	-10.9205
▁separado	-10.9208
▁descubrir	-10.921
▁vender	-10.9211
▁humor	-10.9212
▁pau	-10.9213
▁vítimas	-10.922
gres	-10.922
▁Voz	-10.9223
▁típico	-10.9226
▁identificación	-10.9226
▁responde	-10.9228
▁chamar	-10.9229
▁Estatuto	-10.9229
▁electoral	-10.9238
▁Tam	-10.9241
▁arcos	-10.9243
rm	-10.9245
dó	-10.9245
dá	-10.9246
▁belga	-10.9248
▁Florencia	-10.9248
▁fur	-10.9248
▁apoiar	-10.925
▁aplicar	-10.9251
lítica	-10.9251
▁industriais	-10.9256
▁asumiu	-10.9257
▁Mira	-10.9257
▁adquiriu	-10.926
▁elimina	-10.9264
RC	-10.9266
▁xuvenil	-10.9275
▁incluíu	-10.9275
▁profesora	-10.928
▁indi	-10.9282
▁usuarios	-10.9284
▁acceder	-10.9286
cita	-10.9288
▁interaccións	-10.9288
▁aló	-10.9288
▁gases	-10.929
▁recorda	-10.9295
▁Columbia	-10.9295
▁perdendo	-10.9299
▁Lee	-10.9306
▁neve	-10.9307
▁raro	-10.9308
▁Artur	-10.9308
ram	-10.9308
▁Letras	-10.9313
úsase	-10.9315
▁Diario	-10.932
▁sus	-10.9322
▁tivese	-10.9324
▁finaliza	-10.9324
▁pur	-10.9324
▁celebrar	-10.9327
▁Jorge	-10.9331
▁febra	-10.9336
cán	-10.9337
ago	-10.934
▁anarquista	-10.934
▁Amai	-10.9346
pri	-10.9347
▁Arzúa	-10.9349
▁Morreu	-10.9349
▁tomada	-10.9351
ólico	-10.9351
▁gravar	-10.9352
▁matemática	-10.9352
col	-10.9353
pol	-10.9354
▁ratos	-10.9354
▁chaira	-10.9355
▁aceiro	-10.9362
▁inf	-10.9363
▁finalizou	-10.9364
▁detalles	-10.9365
▁Borgoña	-10.9368
▁polémica	-10.9368
▁diferencia	-10.9368
▁95	-10.9369
▁mariño	-10.9369
▁Case	-10.9372
mun	-10.9377
▁Norteamérica	-10.9377
▁Televisión	-10.9378
▁gradual	-10.9379
ES	-10.9379
▁ligada	-10.9381
▁nena	-10.9383
▁Estevo	-10.9386
▁austríaco	-10.9387
▁jazz	-10.9387
zer	-10.9387
▁dependencia	-10.939
▁matemático	-10.9391
ñas	-10.9392
taria	-10.9392
▁lixeira	-10.9393
▁moda	-10.9393
▁asinar	-10.9396
▁divide	-10.9399
ástica	-10.94
fil	-10.9401
▁eliminación	-10.9403
GA	-10.9403
▁naquel	-10.9404
▁tropicais	-10.9405
▁renuncia	-10.941
▁TV	-10.9416
well	-10.9416
▁Blue	-10.9419
rar	-10.942
neo	-10.9424
▁aprobou	-10.9424
▁mantívo	-10.9425
▁configuración	-10.9427
▁condados	-10.943
ST	-10.9431
▁Var	-10.9433
▁republicano	-10.9434
▁reflicte	-10.9434
▁lóxica	-10.9436
▁cincuenta	-10.9443
▁quería	-10.9443
xencia	-10.9448
gón	-10.945
▁Fan	-10.9451
▁masiva	-10.9453
inte	-10.9455
▁che	-10.9455
lly	-10.9458
▁lava	-10.9459
▁protexe	-10.946
▁rota	-10.9461
▁Patrimonio	-10.9462
zada	-10.9462
▁Roll	-10.9463
▁Inc	-10.9464
▁fenómenos	-10.9465
cedo	-10.9466
▁conca	-10.9468
▁traspasado	-10.9469
oma	-10.9469
▁excelente	-10.9471
▁Zamora	-10.9472
▁Traballou	-10.9474
▁mesa	-10.9474
gla	-10.9479
▁cárcere	-10.9481
▁illote	-10.9481
▁folga	-10.9483
▁liberado	-10.9483
▁Armenia	-10.949
▁Oza	-10.9491
▁Selección	-10.95
▁asemblea	-10.95
▁Internet	-10.9501
▁Francesa	-10.9501
▁conceptos	-10.9505
eño	-10.9507
▁hemisferio	-10.9509
ür	-10.951
▁sinalización	-10.9513
▁Militar	-10.9514
▁Alfredo	-10.9517
▁Posúe	-10.9519
▁Sim	-10.952
▁estabilidade	-10.9522
▁Eume	-10.9525
▁Ali	-10.9525
lice	-10.9526
▁remo	-10.9528
▁devandita	-10.9528
▁tronco	-10.9529
▁Inicial	-10.9531
adores	-10.9532
▁Gla	-10.9532
kan	-10.9539
▁comisión	-10.954
cid	-10.9541
▁compañías	-10.9541
izouse	-10.9542
▁Gau	-10.9545
▁pseudo	-10.9547
▁Arriba	-10.9548
▁domingo	-10.9548
▁Pardo	-10.9548
▁favorable	-10.9548
▁reflecti	-10.9549
llar	-10.955
vía	-10.955
ça	-10.955
media	-10.9552
▁Adam	-10.9555
uc	-10.9555
▁North	-10.9556
▁infraestrutura	-10.9557
índo	-10.9558
▁Wood	-10.9559
▁colaboradores	-10.956
▁crese	-10.9565
▁desempeña	-10.9566
▁vehículo	-10.9569
▁Wal	-10.9569
▁Mary	-10.957
stan	-10.9573
▁substituíu	-10.9574
DE	-10.9576
▁cultivos	-10.9578
pal	-10.9579
▁colonos	-10.958
hy	-10.958
▁nós	-10.9581
▁morreron	-10.9581
▁refire	-10.9591
▁sinxelos	-10.9592
▁brancas	-10.9593
▁Nalgún	-10.9595
▁navío	-10.9596
▁Cunha	-10.9597
▁exportación	-10.9599
▁chea	-10.96
▁boas	-10.9601
▁Joaquí	-10.9605
lino	-10.9605
▁pechado	-10.9606
▁top	-10.9606
▁casca	-10.9607
ísta	-10.9608
marca	-10.9609
▁nativa	-10.9613
▁ecosistema	-10.9614
▁incluídos	-10.9615
▁Antigo	-10.9619
▁negativo	-10.962
bá	-10.962
▁aceptar	-10.9624
▁cavidade	-10.9624
▁Lewis	-10.9624
▁consideraba	-10.9625
▁xiro	-10.9626
▁Clo	-10.9627
▁altera	-10.9628
rme	-10.963
▁medo	-10.9632
▁brazo	-10.9632
▁paralela	-10.9635
ónimo	-10.9636
▁pul	-10.9637
▁Pasa	-10.9638
▁renda	-10.9641
▁incidente	-10.9643
▁Peña	-10.9644
▁Gregorio	-10.9644
▁péptido	-10.9646
aw	-10.9647
▁escavación	-10.9648
andesa	-10.9649
▁Prusia	-10.9653
▁Lar	-10.9653
▁xudicial	-10.9659
▁Ty	-10.9661
▁PSdeG	-10.9662
▁High	-10.967
zh	-10.9671
▁preocupación	-10.9673
-15	-10.9674
▁xuíz	-10.9674
▁sonda	-10.9675
▁aumentou	-10.9677
▁manifesta	-10.968
fini	-10.9681
▁Jacques	-10.9688
▁restantes	-10.9689
quel	-10.969
▁col	-10.969
orde	-10.9698
▁Az	-10.97
iais	-10.9701
▁financeira	-10.9701
▁escocés	-10.9701
▁etiqueta	-10.9702
▁Provincial	-10.9705
▁celta	-10.9706
americana	-10.9708
▁masculina	-10.9711
▁profesión	-10.9711
▁descende	-10.9711
▁detecta	-10.9719
▁lesión	-10.972
ómico	-10.9721
▁americanos	-10.9721
▁represión	-10.9723
▁abarca	-10.9725
liña	-10.9725
▁Eli	-10.9728
ificar	-10.9729
▁goberna	-10.9729
▁rexionais	-10.973
▁reloxo	-10.973
▁congreso	-10.973
▁nutri	-10.9732
▁adopta	-10.9737
▁homónima	-10.974
responsabilidade	-10.9741
trop	-10.9744
▁XXI	-10.9747
▁supervivencia	-10.975
▁1.000	-10.975
▁Lista	-10.9753
▁Menor	-10.9754
▁Mike	-10.9754
ath	-10.9754
IS	-10.9755
-8	-10.9758
▁coñecía	-10.9759
▁deportivos	-10.9759
▁soño	-10.9759
lón	-10.9759
▁Company	-10.976
▁descarga	-10.9765
riano	-10.9765
▁concretamente	-10.9767
▁Borbón	-10.9769
tipo	-10.9776
▁Occidente	-10.9779
▁montañosa	-10.9779
▁gótico	-10.978
iñas	-10.9781
rque	-10.9791
▁Señora	-10.9792
▁eliminado	-10.9797
wy	-10.9798
▁exercer	-10.9798
▁Física	-10.9798
▁primitivo	-10.9798
▁nacionalidade	-10.9798
▁rec	-10.9799
▁ordenado	-10.9801
▁colleita	-10.9802
▁Bach	-10.9804
▁Praga	-10.9805
uni	-10.9806
▁metai	-10.9806
▁Hollywood	-10.9808
▁pescozo	-10.9808
▁58	-10.9809
▁biolóxico	-10.9811
▁corda	-10.9811
▁millo	-10.9811
▁nacionalismo	-10.9812
▁Las	-10.9815
OS	-10.9815
far	-10.9815
▁hemo	-10.9817
▁adaptado	-10.9818
▁carbón	-10.982
▁talento	-10.982
▁Kh	-10.982
▁vaca	-10.9821
ctivo	-10.9821
▁Pop	-10.9821
▁US	-10.9831
ball	-10.9833
hal	-10.9834
▁Win	-10.9835
▁asentamentos	-10.9837
▁Boeing	-10.9837
▁Británica	-10.9837
▁bur	-10.9839
▁Abel	-10.984
bó	-10.9851
tem	-10.9852
▁terrestres	-10.9854
▁naturalista	-10.9856
▁actuou	-10.9857
▁franxa	-10.9857
▁xeográfico	-10.9858
▁estancia	-10.9859
▁crece	-10.986
▁cadrados	-10.9864
neses	-10.9868
▁cap	-10.9871
▁cuncha	-10.9875
ew	-10.9876
▁incorporou	-10.9877
▁Bulgaria	-10.9877
▁Hitler	-10.9877
▁identificado	-10.9877
rit	-10.9878
▁caracteríza	-10.9878
▁sociedades	-10.9878
▁1897	-10.988
▁rodeado	-10.9883
▁Marte	-10.9886
▁españolas	-10.9886
▁mariñas	-10.9886
▁orixes	-10.9886
cade	-10.9889
▁serven	-10.9898
bes	-10.9903
ap	-10.9905
▁retablo	-10.9906
▁pleno	-10.9906
▁asistente	-10.9906
gram	-10.9913
bul	-10.9915
▁cerámica	-10.9916
▁momentos	-10.9919
▁serán	-10.9921
▁More	-10.9923
rbi	-10.9925
▁Filipinas	-10.9926
▁Esca	-10.9928
▁debuta	-10.993
thi	-10.9931
▁aprendizaxe	-10.9936
▁rol	-10.9936
lóxica	-10.9941
▁plasma	-10.9942
▁Pos	-10.9944
teira	-10.9945
dín	-10.9946
▁separadas	-10.9947
н	-10.9947
parti	-10.9951
▁destacando	-10.9953
iguais	-10.9957
▁Nosa	-10.9958
▁deposita	-10.996
uti	-10.9964
▁Libre	-10.9964
▁inspiración	-10.9969
▁play	-10.9971
▁Nel	-10.9971
▁1880	-10.9972
▁estea	-10.9973
▁empregando	-10.9973
▁Dar	-10.9973
clo	-10.9975
▁persoais	-10.9976
▁Quiroga	-10.9976
▁vicepresidente	-10.9976
▁oposto	-10.9977
úr	-10.9979
▁Quin	-10.998
▁Literatura	-10.9986
▁franquista	-10.9986
▁seguiron	-10.9989
idio	-10.999
▁soberano	-10.9996
▁replicación	-10.9998
▁extrema	-11.0002
▁Tim	-11.0006
▁Málaga	-11.0006
▁discípulo	-11.0006
▁índice	-11.0006
▁conservan	-11.0006
▁dispón	-11.0007
▁asociadas	-11.0008
dado	-11.0009
▁prol	-11.0013
▁controversia	-11.0016
▁persecución	-11.0016
▁aproveita	-11.0017
▁tradicións	-11.0023
pú	-11.0025
▁xeometría	-11.0026
ere	-11.0027
▁café	-11.0027
▁bota	-11.003
▁Felipe	-11.0036
▁Xerais	-11.0037
▁darlle	-11.0037
▁ventos	-11.0038
ificou	-11.0041
▁Verde	-11.0041
▁virtude	-11.0046
▁pechada	-11.0046
▁doutoramento	-11.0046
▁tivera	-11.0047
▁pontes	-11.0048
▁primo	-11.005
▁finalidade	-11.0052
▁eléctrico	-11.0054
carón	-11.0055
▁Med	-11.0056
xí	-11.0057
▁ruínas	-11.0058
▁substituída	-11.0059
▁r	-11.0061
▁rexistros	-11.0063
▁almacena	-11.0064
▁promover	-11.0068
▁1895	-11.0069
xeiro	-11.0069
▁Santos	-11.0071
▁privilexio	-11.0076
▁saga	-11.0079
▁destacados	-11.0079
▁atacar	-11.008
▁pH	-11.0081
▁paga	-11.0081
▁fillas	-11.0082
▁vencer	-11.0082
delo	-11.0085
▁discográfica	-11.0087
heim	-11.0087
▁ducado	-11.0087
▁1899	-11.009
▁Sor	-11.0091
▁Ambos	-11.0095
▁Suárez	-11.0096
▁Mata	-11.0096
▁plans	-11.0097
▁literalmente	-11.0101
cru	-11.0105
▁vertebrados	-11.0106
▁Director	-11.0106
▁queixo	-11.0108
▁emisora	-11.0109
▁esténdese	-11.0109
▁amante	-11.0116
▁Administración	-11.0116
▁contribúe	-11.0116
▁adapta	-11.0117
▁Xoana	-11.0117
chan	-11.0118
▁partidarios	-11.0118
▁separados	-11.012
▁Segui	-11.0121
▁preso	-11.0122
▁Fort	-11.0123
▁Caribe	-11.0124
▁afectado	-11.0125
▁feminista	-11.0126
▁pantalla	-11.0126
ndar	-11.0133
xista	-11.0135
▁Xeneral	-11.0136
▁perfecta	-11.0136
▁decoración	-11.0137
▁provocar	-11.0139
▁estaría	-11.0141
▁adquirir	-11.0145
▁Arena	-11.0146
▁irlandesa	-11.0146
▁declara	-11.0146
ástico	-11.0146
▁mantendo	-11.0146
ity	-11.0149
uí	-11.0152
ómica	-11.0152
▁mide	-11.0154
americano	-11.0155
war	-11.0155
▁pediu	-11.0158
wald	-11.0158
▁tomando	-11.0166
▁Xúpiter	-11.0166
▁integración	-11.0167
▁East	-11.0171
gá	-11.0175
▁danza	-11.0177
centr	-11.0179
▁Vello	-11.0187
▁ninguén	-11.0187
▁rocha	-11.0189
▁Lan	-11.019
▁barroco	-11.019
▁exceso	-11.0197
cionado	-11.0198
▁Hans	-11.0199
▁asasina	-11.02
aco	-11.02
▁diana	-11.0205
▁Eco	-11.0206
▁doutra	-11.0207
▁terminal	-11.0209
▁deusa	-11.0209
▁And	-11.0216
▁empregan	-11.0216
▁pasaxe	-11.0216
▁alcume	-11.0217
▁impresión	-11.0217
▁pulmón	-11.0218
▁sombra	-11.0219
▁designar	-11.022
▁activos	-11.0221
▁casco	-11.0223
▁diaria	-11.0224
comp	-11.0226
▁Wil	-11.0227
▁constituída	-11.0228
▁Capela	-11.0229
▁alelo	-11.0232
▁Ven	-11.0232
riño	-11.0232
▁encarga	-11.0234
▁anuncio	-11.0237
▁Vietnam	-11.0238
▁descoñecido	-11.0238
▁colo	-11.0239
▁editada	-11.0239
▁Angeles	-11.0244
▁erupción	-11.0248
▁detectar	-11.0251
ánico	-11.0253
▁pegada	-11.0255
▁clásicos	-11.0257
elle	-11.0257
▁Uruguai	-11.0258
▁intestino	-11.0258
▁anuais	-11.0258
▁Dal	-11.0261
▁1896	-11.0262
▁gusto	-11.0263
dicouse	-11.0267
lín	-11.0268
▁absorbe	-11.0268
▁gato	-11.0269
▁Fal	-11.0271
▁1870	-11.0274
▁fogo	-11.0275
▁consecuencias	-11.0275
tto	-11.0277
▁Windows	-11.0279
▁adulto	-11.028
▁Will	-11.028
▁enterrado	-11.028
▁cast	-11.0281
DP	-11.0281
▁idiomas	-11.0283
▁za	-11.0284
▁facían	-11.0285
▁residentes	-11.0287
▁distingui	-11.0287
ction	-11.0288
▁Atlético	-11.0289
▁nordés	-11.0289
▁Ken	-11.0292
▁neuronas	-11.0295
▁define	-11.0298
▁provisional	-11.0299
fla	-11.0299
▁Mé	-11.0304
rth	-11.0305
▁veu	-11.0307
vie	-11.031
▁Barro	-11.0311
▁perderon	-11.0319
▁óso	-11.0319
▁tribuna	-11.0319
▁Múnic	-11.032
▁coloca	-11.032
▁Johnson	-11.0323
slav	-11.0323
▁relaciona	-11.0324
end	-11.0325
▁contos	-11.0327
▁Habana	-11.033
▁Celanova	-11.033
CA	-11.033
▁Siria	-11.0332
▁buque	-11.0333
▁historias	-11.0336
▁rico	-11.0337
xene	-11.0337
jar	-11.034
▁URSS	-11.034
eva	-11.0341
▁despraza	-11.0342
idi	-11.0345
kha	-11.0346
▁presa	-11.0349
▁discusión	-11.0351
ace	-11.0351
iya	-11.0355
▁baixista	-11.0361
▁débeda	-11.0361
▁turco	-11.0361
▁intentar	-11.0363
▁tsar	-11.0363
▁72	-11.0363
aban	-11.0366
taron	-11.0368
▁Ant	-11.0371
▁cuartos	-11.0372
▁declarada	-11.0373
▁inde	-11.0375
sistencia	-11.0378
▁requiri	-11.038
▁agarda	-11.038
▁lixeiro	-11.0383
río	-11.0384
▁tratou	-11.0385
anza	-11.0387
▁cheo	-11.0389
▁recuperou	-11.0392
▁Dúas	-11.0392
▁estima	-11.0396
▁levando	-11.0396
▁fri	-11.0396
pica	-11.0397
▁Semana	-11.0397
▁abella	-11.0399
▁orixinario	-11.0399
▁far	-11.0401
▁gasto	-11.0402
AR	-11.0404
▁inmigrantes	-11.0406
▁Revista	-11.0407
ation	-11.0409
ić	-11.0409
▁bacteriana	-11.0411
▁comen	-11.0412
▁denominar	-11.0414
zy	-11.0414
▁TVG	-11.0414
▁continuaron	-11.0418
AC	-11.0419
▁tur	-11.0419
▁eixe	-11.042
▁católicos	-11.0422
▁Bio	-11.0422
▁Cantabria	-11.0423
▁Vilagarcía	-11.0423
▁pseudónimo	-11.0423
▁Fil	-11.0423
▁abundancia	-11.0424
▁xe	-11.0424
▁aparato	-11.0424
nzo	-11.0425
front	-11.0425
AT	-11.0425
▁negros	-11.0426
▁aceptada	-11.0427
▁dentes	-11.0431
▁protesta	-11.0433
▁DVD	-11.0434
▁xogaba	-11.0436
▁arteria	-11.0437
▁investimento	-11.0437
▁metano	-11.0437
▁pacto	-11.0437
▁ki	-11.0442
▁dicía	-11.0442
▁gráfico	-11.0443
▁Castelao	-11.0444
▁Mill	-11.0444
▁Xustiza	-11.0444
cca	-11.0444
▁vivendas	-11.0447
▁dinámica	-11.0448
dición	-11.0451
▁gua	-11.0453
▁Casal	-11.0454
▁Canto	-11.0454
▁Catalunya	-11.0454
▁Oleiros	-11.0457
▁prestixio	-11.046
▁destruír	-11.0462
▁Colaboro	-11.0465
▁Rio	-11.0466
há	-11.047
▁ler	-11.0471
ngu	-11.0472
▁videoxogo	-11.0474
▁actua	-11.0474
▁Eva	-11.0476
▁vivía	-11.0479
▁cualificación	-11.048
▁exame	-11.048
▁reacciona	-11.0481
▁Gala	-11.0483
▁logrando	-11.0485
▁contribuíu	-11.0486
og	-11.0486
▁achado	-11.0495
hard	-11.0495
▁médicos	-11.0496
▁Billboard	-11.0496
▁Circuíto	-11.0496
▁Mondoñedo	-11.0496
▁Montenegro	-11.0496
▁Varela	-11.0498
▁suposto	-11.0498
▁poética	-11.0499
▁corta	-11.05
▁Sex	-11.0502
▁usual	-11.0507
▁Christian	-11.0507
▁constituído	-11.0507
▁implicada	-11.051
cis	-11.0511
▁reduce	-11.0512
▁vira	-11.0513
guer	-11.0514
▁vacina	-11.0518
▁traza	-11.0522
▁sindicato	-11.0523
▁hetero	-11.0524
nic	-11.0526
▁designa	-11.0528
▁destinada	-11.0528
▁Bai	-11.0529
▁impide	-11.053
▁executado	-11.0531
trato	-11.0532
▁citado	-11.0535
▁din	-11.0538
▁demostrar	-11.0538
▁inaugurou	-11.0538
▁cortes	-11.0542
▁ampliación	-11.0543
▁House	-11.0543
▁estimación	-11.0545
▁conservado	-11.0546
mou	-11.0546
▁aparentemente	-11.0547
▁consistía	-11.0547
▁Sara	-11.0548
▁obtendo	-11.0549
▁mariñeiro	-11.0549
▁pirata	-11.055
kel	-11.055
▁obtén	-11.0552
▁1889	-11.0552
▁orientais	-11.0552
rú	-11.0553
▁tomaron	-11.0557
redo	-11.0557
▁superficial	-11.0559
▁lípido	-11.0559
▁Act	-11.0565
▁controla	-11.0566
▁afectada	-11.0567
▁espiritual	-11.057
rgu	-11.0571
▁vence	-11.0575
▁fundar	-11.0576
▁separar	-11.0583
▁coli	-11.0585
▁podio	-11.0586
num	-11.0586
gru	-11.0587
▁completar	-11.0589
rdina	-11.0589
▁denomínan	-11.0591
▁absoluto	-11.0591
▁gravidade	-11.0591
▁cardeal	-11.0591
▁modalidade	-11.0591
▁pendente	-11.0591
EC	-11.0592
▁cis	-11.0597
PG	-11.06
▁conciencia	-11.06
ende	-11.0601
▁constelación	-11.0602
mm	-11.0604
▁carece	-11.0605
ibe	-11.0608
▁preparar	-11.061
▁Bosnia	-11.0614
▁Cru	-11.0614
▁1888	-11.0615
▁nota	-11.0616
rita	-11.062
▁colonial	-11.0625
▁Lord	-11.0628
▁Ross	-11.063
▁erros	-11.0633
▁mantiña	-11.0634
▁mental	-11.0636
▁Mestre	-11.0637
vir	-11.064
-13	-11.0649
▁investigador	-11.065
▁rompe	-11.0653
▁absorción	-11.0655
▁escollido	-11.0655
▁asiático	-11.0655
▁Cole	-11.0656
▁Joe	-11.0661
▁August	-11.0661
▁facilitar	-11.0662
▁deputados	-11.0662
▁descoñecida	-11.0665
▁facultade	-11.0665
▁67	-11.0665
town	-11.0667
▁66	-11.0669
cion	-11.067
▁cobra	-11.0671
nche	-11.0673
▁aprender	-11.0674
▁Marie	-11.0675
▁Investigación	-11.0676
▁parecido	-11.0676
▁parcial	-11.0677
▁ju	-11.0679
▁normais	-11.068
▁Sociedad	-11.0683
tral	-11.0686
▁convertéron	-11.0687
▁xardín	-11.0694
▁Queen	-11.0696
▁suspensión	-11.0697
▁Sw	-11.07
rola	-11.07
liza	-11.0704
▁bomba	-11.0707
▁estreitamente	-11.0707
▁Democrática	-11.0708
▁obrigou	-11.0708
▁descendencia	-11.0709
▁Presenta	-11.0709
▁Parti	-11.0711
rdo	-11.0711
▁asocia	-11.0711
▁cans	-11.0712
nom	-11.0712
▁portos	-11.0713
▁grava	-11.0714
▁deixaron	-11.0715
▁Human	-11.0715
▁Bart	-11.0717
▁federación	-11.0719
▁inclinación	-11.0719
▁trofeo	-11.0719
▁Rico	-11.0726
adamente	-11.0727
nista	-11.0729
▁concesión	-11.0729
▁degradación	-11.073
▁tar	-11.073
▁Formou	-11.073
▁leve	-11.0732
▁Antoni	-11.0734
▁referente	-11.0734
▁Fel	-11.0734
▁febre	-11.0734
▁corenta	-11.0735
▁critica	-11.0736
▁ofreceu	-11.0736
gle	-11.0737
▁asistir	-11.0738
▁Consta	-11.0738
▁lanzar	-11.0739
▁Brabham	-11.074
▁progreso	-11.074
▁Sh	-11.0742
▁Nela	-11.0744
▁Ferro	-11.0745
▁modernas	-11.0747
▁polar	-11.0751
▁Biscaia	-11.0751
▁Alianza	-11.0751
▁Teresa	-11.0752
▁Disney	-11.0752
▁asigna	-11.0754
▁63	-11.0755
▁mutación	-11.0756
▁marcas	-11.0758
▁atopaba	-11.0759
▁viaxar	-11.0761
▁rotación	-11.0761
▁confirmou	-11.0762
▁setentrional	-11.0762
▁sensible	-11.0763
esti	-11.0765
▁tende	-11.0765
▁10.000	-11.0767
▁incursión	-11.0772
▁santuario	-11.0772
▁protexida	-11.0773
▁Augusto	-11.0773
▁mega	-11.0773
▁realizan	-11.0774
▁descendente	-11.0775
▁aneis	-11.0777
▁cristián	-11.0779
▁mas	-11.078
▁precisión	-11.0784
▁Abu	-11.0784
▁anualmente	-11.0785
▁Iglesias	-11.0786
▁xardíns	-11.0787
duci	-11.0789
▁comparten	-11.0789
▁verbo	-11.0793
▁talla	-11.0794
▁hebreo	-11.0794
▁Gabriel	-11.0794
▁carballo	-11.0794
grado	-11.0794
xar	-11.0794
▁humidade	-11.0796
▁Kan	-11.0802
▁Font	-11.0802
RE	-11.0802
▁divisións	-11.0804
▁arroz	-11.0806
aga	-11.0807
▁Humanidade	-11.0808
▁Má	-11.0808
▁1886	-11.0808
▁pobres	-11.081
.500	-11.0811
▁afinidade	-11.0816
▁estradas	-11.0817
▁fauna	-11.0817
▁produtora	-11.0818
II	-11.0819
▁68	-11.0825
lite	-11.0825
▁Pódese	-11.0826
▁coordenadas	-11.0826
▁titulada	-11.0826
▁imposible	-11.0826
▁PIB	-11.0826
▁Toronto	-11.0827
oi	-11.0827
cci	-11.0829
▁Eric	-11.0829
TA	-11.0831
▁guía	-11.0832
▁vasos	-11.0832
▁destacada	-11.0845
ugh	-11.0846
oli	-11.0846
▁variada	-11.0849
▁máquinas	-11.085
▁dirixe	-11.0855
▁antibióticos	-11.0858
▁atracción	-11.0859
▁Golfo	-11.086
▁orixinar	-11.0861
▁vende	-11.0862
bón	-11.0862
▁semanario	-11.0867
▁noticias	-11.0867
▁Simon	-11.0867
▁Crese	-11.0867
▁sitúan	-11.0869
▁magnético	-11.087
▁derradeira	-11.087
▁Jacob	-11.087
▁vela	-11.0872
▁seco	-11.0876
▁copa	-11.0876
lot	-11.0878
▁acolle	-11.0878
▁criterios	-11.0878
▁monumentos	-11.0879
bru	-11.0879
▁substituíndo	-11.088
▁Indonesia	-11.0881
ubi	-11.0884
▁Abaixo	-11.0885
cidas	-11.0888
▁francos	-11.0889
ult	-11.0891
▁porteiro	-11.0893
▁latitude	-11.0893
▁Vario	-11.0894
sfera	-11.0894
▁capítulo	-11.0896
tec	-11.0901
▁planea	-11.0902
▁playoffs	-11.0902
▁secreción	-11.0903
▁desembocadura	-11.0903
▁dióxido	-11.0904
▁Campos	-11.0905
▁protón	-11.0906
▁Rea	-11.0906
▁xudeu	-11.0908
▁capturado	-11.0911
▁serpe	-11.0911
▁primitiva	-11.0913
burgo	-11.0914
▁Independencia	-11.0914
isco	-11.0915
▁campesiños	-11.0915
ora	-11.0915
nc	-11.0916
▁explorador	-11.0917
▁1868	-11.0917
▁1885	-11.0918
▁gu	-11.0918
▁inspirado	-11.092
-16	-11.0923
▁cursiva	-11.0924
▁perna	-11.0927
▁Bea	-11.0931
▁euro	-11.0931
▁Publicou	-11.0932
▁segrega	-11.0936
▁ocasiona	-11.0937
▁61	-11.0938
▁avanza	-11.0943
toloxía	-11.0944
▁Honra	-11.0947
▁Cá	-11.0947
▁feira	-11.0956
▁sitúa	-11.0956
▁embaixador	-11.0957
▁mocidade	-11.0957
▁estética	-11.0958
▁galería	-11.0959
ob	-11.096
▁Rai	-11.0961
▁signos	-11.0965
▁Camb	-11.0965
lig	-11.0965
▁Ray	-11.0966
▁responsábe	-11.0968
▁acostuma	-11.0968
▁controlado	-11.0968
▁Defensa	-11.0969
▁Pere	-11.0969
▁Ren	-11.0969
▁inhibidor	-11.0971
mur	-11.0973
▁mover	-11.0976
iel	-11.0976
▁trasladado	-11.0977
▁penetra	-11.0978
rol	-11.0978
▁Álvaro	-11.0979
▁confianza	-11.098
king	-11.0985
▁Santander	-11.0985
▁Autónoma	-11.099
▁censura	-11.099
▁liberais	-11.0993
▁1884	-11.0993
▁deulle	-11.0994
▁axudante	-11.0995
▁plana	-11.0995
▁PS	-11.0995
▁estudante	-11.0998
▁teorema	-11.1001
▁permiso	-11.1001
▁Pedra	-11.1002
▁estrita	-11.1002
▁macro	-11.1005
fica	-11.1005
▁Alex	-11.1007
aki	-11.1007
▁integrada	-11.1008
▁disc	-11.1011
▁Núñez	-11.1012
▁Renacemento	-11.1012
▁cinematográfica	-11.1012
prim	-11.1012
▁estabiliza	-11.1013
iuse	-11.1016
▁ataca	-11.1018
▁básica	-11.1022
▁Pamplona	-11.1023
▁alguén	-11.1023
▁pioneiro	-11.1023
mada	-11.1024
▁secundarios	-11.1024
▁recibido	-11.1024
af	-11.1026
▁terapia	-11.1026
▁elevación	-11.1027
▁trece	-11.1028
pat	-11.1029
▁Andrade	-11.1034
▁debían	-11.1039
gara	-11.104
▁trazado	-11.104
▁manifestacións	-11.1043
▁compositores	-11.1045
▁eclesiástico	-11.1045
▁basica	-11.1048
versión	-11.1048
▁Dé	-11.1049
▁delegado	-11.1052
▁apre	-11.1054
▁húngaro	-11.1056
nita	-11.1057
▁Servizo	-11.1058
▁sensación	-11.1058
▁nucleótidos	-11.1058
▁codifica	-11.106
▁peche	-11.1061
▁recomenda	-11.1061
Pa	-11.1062
lva	-11.1062
▁brazos	-11.1063
▁vis	-11.1064
▁saca	-11.1064
▁facilidade	-11.1072
▁habitada	-11.1073
▁verdes	-11.1074
of	-11.1074
▁acadando	-11.1075
oni	-11.1075
▁destruída	-11.1079
▁explosión	-11.1079
▁esfera	-11.1081
▁volveron	-11.1082
RS	-11.1082
-14	-11.1083
ect	-11.1083
rell	-11.1084
ioso	-11.1084
anto	-11.1085
miento	-11.1089
▁anal	-11.109
▁muíño	-11.109
prende	-11.1091
▁Política	-11.1092
▁Victoria	-11.1092
▁xigantes	-11.1093
▁Mara	-11.1094
ori	-11.1097
pá	-11.1098
tila	-11.1101
▁sometido	-11.1101
rismo	-11.1101
ical	-11.1101
▁pedir	-11.1103
cultura	-11.1107
ive	-11.1107
▁naquela	-11.1109
▁Lin	-11.1109
▁Society	-11.1112
▁xustifica	-11.1112
▁lámina	-11.1112
▁Kosmos	-11.1113
ificada	-11.1119
plica	-11.112
arte	-11.1123
▁Redondela	-11.1123
▁vulgar	-11.1123
▁Cova	-11.1125
▁desprazamento	-11.1126
▁recollida	-11.1134
▁Mozart	-11.1134
▁plasmática	-11.1134
▁cabeceira	-11.1134
▁fuxi	-11.1135
▁acontece	-11.1137
nna	-11.1137
▁navegación	-11.114
▁turcos	-11.1142
▁signo	-11.1143
▁fallo	-11.1145
▁intelixente	-11.1145
▁esquema	-11.1146
▁rusos	-11.1147
▁introducido	-11.1147
▁700	-11.1149
visión	-11.1153
-9	-11.1156
▁únese	-11.1157
▁ordenador	-11.1159
CR	-11.1168
▁esquerdo	-11.1168
▁confundir	-11.1168
▁intervalo	-11.1168
▁Basketball	-11.1168
dico	-11.1171
▁alcohol	-11.1175
р	-11.1176
rosa	-11.1178
▁suxeri	-11.1179
▁Emperador	-11.118
▁Hen	-11.1181
iba	-11.1186
▁incorporación	-11.1188
▁étnico	-11.119
▁caudal	-11.119
▁disposto	-11.119
▁culmina	-11.1191
▁estilos	-11.1193
▁ap	-11.1196
▁59	-11.1196
▁pobre	-11.12
▁vigor	-11.12
itaria	-11.1201
▁wa	-11.1202
▁procedemento	-11.1203
dh	-11.1205
zen	-11.1205
▁Anos	-11.1206
▁Moi	-11.1208
▁Dur	-11.1209
▁imita	-11.121
▁billete	-11.1213
▁reside	-11.1215
▁Fixo	-11.1215
▁Cabe	-11.1216
▁62	-11.1218
▁ple	-11.1219
▁pol	-11.1223
▁clasifica	-11.1224
▁Víctor	-11.1224
▁Ribadeo	-11.1224
▁densa	-11.1224
▁1,5	-11.1224
▁teórico	-11.1225
▁1891	-11.1227
▁ofrecer	-11.1228
▁Alma	-11.1233
▁debida	-11.1233
continuidade	-11.1235
▁transforma	-11.1237
teca	-11.1238
▁habitante	-11.1239
▁explota	-11.1241
▁pase	-11.1246
▁Ang	-11.1246
▁extenso	-11.1247
▁baile	-11.1248
quina	-11.1249
▁atol	-11.1249
tanse	-11.1251
▁secreta	-11.1255
teria	-11.1256
▁éuscaro	-11.1258
▁Friedrich	-11.1258
▁fusiona	-11.1258
▁Republicana	-11.1258
▁grella	-11.1258
▁rev	-11.1264
▁Villar	-11.1266
▁habituais	-11.1269
▁mecánico	-11.1269
▁embrión	-11.127
▁funcionar	-11.127
▁ían	-11.1272
nico	-11.1275
gin	-11.1276
▁cin	-11.1277
ciano	-11.1281
▁débil	-11.1281
▁enfrontou	-11.1282
▁casado	-11.1282
▁xénica	-11.1285
▁mama	-11.1291
sai	-11.1291
▁Jersey	-11.1292
▁delimita	-11.1293
▁Rin	-11.1294
ene	-11.1298
AS	-11.1299
▁Brian	-11.1299
▁balea	-11.13
ç	-11.1303
▁interpretou	-11.1303
▁protexido	-11.1303
▁Secretario	-11.1304
▁illada	-11.1305
▁igualdade	-11.1305
▁permanecen	-11.1305
▁Mateo	-11.1307
▁previo	-11.1308
▁destacou	-11.1309
▁adoitaba	-11.1311
▁Sig	-11.1311
ett	-11.1314
▁concluí	-11.1314
▁intelectua	-11.1314
ane	-11.1315
▁tornou	-11.1323
▁buques	-11.1324
pré	-11.1326
▁Rosberg	-11.1326
▁quedaba	-11.1326
▁estudoso	-11.1328
▁dispoñibles	-11.1329
▁circula	-11.133
quia	-11.1335
▁Crónica	-11.1337
▁consulta	-11.1338
▁narrativa	-11.134
▁formaba	-11.134
RI	-11.1341
▁seria	-11.1345
▁Silva	-11.1345
▁cristal	-11.1348
▁usuario	-11.1349
▁fame	-11.1352
▁nosos	-11.1352
cana	-11.1353
▁Jar	-11.1356
▁Soyuz	-11.136
▁Caba	-11.1361
▁bico	-11.1362
▁March	-11.1364
▁agrícolas	-11.1367
▁aéreo	-11.1372
▁marea	-11.1374
▁fila	-11.1379
▁canda	-11.138
MA	-11.1382
▁Kent	-11.1383
▁milenio	-11.1383
▁filial	-11.1383
▁Francis	-11.1385
-12	-11.1386
▁emigra	-11.1387
▁minas	-11.139
▁Tomé	-11.1391
colo	-11.1392
▁zo	-11.1393
▁teito	-11.1393
▁intelixencia	-11.1394
▁adicional	-11.1395
▁parecía	-11.1395
▁Frei	-11.1398
▁bloque	-11.1404
▁bens	-11.1406
▁emitir	-11.1407
▁1893	-11.1409
▁vese	-11.141
▁Walter	-11.1412
▁prisioneiros	-11.1412
bach	-11.1412
▁emigración	-11.1413
▁fol	-11.1413
▁preferi	-11.1415
▁permitindo	-11.1418
▁votación	-11.1419
▁producidos	-11.1419
▁71	-11.142
ika	-11.142
▁beneficio	-11.1421
▁torres	-11.1425
▁gala	-11.1426
▁estreada	-11.1426
▁predi	-11.1428
▁Economía	-11.1429
▁suízo	-11.1429
▁excluí	-11.1429
▁Clark	-11.143
▁coñecen	-11.1431
▁z	-11.1432
▁chave	-11.1437
▁trastornos	-11.1437
▁Monforte	-11.144
▁lingüístico	-11.144
▁vexetal	-11.144
▁Arthur	-11.144
▁Universal	-11.1443
▁instrución	-11.1444
bury	-11.1445
▁proxecta	-11.145
soci	-11.145
▁empregou	-11.1451
▁sucesiva	-11.1452
▁notas	-11.1453
▁liso	-11.1454
▁norteamericana	-11.1456
bit	-11.1457
▁recoñeceu	-11.1458
▁orbital	-11.1459
▁industrias	-11.146
▁sexta	-11.1464
▁Curtis	-11.1464
▁Gonzal	-11.1465
▁Prado	-11.1467
▁Hugo	-11.1468
▁Ker	-11.1469
β	-11.1469
▁Fraga	-11.1472
▁Vermello	-11.1475
▁liderou	-11.1475
énico	-11.1477
▁sp	-11.1479
▁volcánica	-11.1479
▁reina	-11.148
▁Belas	-11.1481
▁galardoado	-11.1487
▁neerlandés	-11.1487
▁fabrica	-11.1489
▁proporcionar	-11.1491
▁Spe	-11.1492
▁precipitacións	-11.1492
▁esenciais	-11.1495
▁complexidade	-11.1498
▁equipamento	-11.1498
▁Oxford	-11.1498
▁pesa	-11.15
▁racional	-11.1501
-7	-11.1501
▁Film	-11.1502
lag	-11.1505
▁moleculares	-11.1505
▁visitar	-11.1507
▁exitosa	-11.151
rc	-11.1511
▁River	-11.1512
▁orixinaria	-11.1516
▁Aparece	-11.1516
▁designación	-11.1517
▁Carlo	-11.1519
▁adicionais	-11.1522
▁Rou	-11.1522
▁achegar	-11.1524
liga	-11.1528
▁ocasionalmente	-11.153
estra	-11.1532
▁xeracións	-11.1535
▁liber	-11.1536
▁retirado	-11.1538
log	-11.154
▁xigante	-11.1541
▁espectáculo	-11.1541
▁xuntos	-11.1542
▁Berg	-11.1543
▁colesterol	-11.1545
▁Mosteiro	-11.1545
▁Principado	-11.1545
▁capítulos	-11.1551
▁Play	-11.1552
▁vencedor	-11.1554
▁Nico	-11.1555
▁plural	-11.1556
▁Abadín	-11.1556
▁Cambridge	-11.1556
▁promove	-11.1558
▁lesións	-11.1558
▁conxuntos	-11.156
▁segmentos	-11.1564
nik	-11.1565
▁Marcos	-11.1565
▁Amor	-11.1565
enberg	-11.1567
▁intenso	-11.1568
▁1892	-11.157
ceto	-11.1576
▁derruba	-11.158
▁Cristina	-11.158
▁constitucional	-11.158
▁nomeou	-11.1581
▁Fundou	-11.1581
▁Pontes	-11.1583
▁precedente	-11.1583
▁Mina	-11.1589
▁Cook	-11.1589
▁cedido	-11.1592
▁necesarios	-11.1593
▁Ducado	-11.1594
dici	-11.1595
fire	-11.1597
▁Top	-11.1598
▁Lucas	-11.1602
▁Fonsagrada	-11.1603
▁astrónomo	-11.1603
▁relativo	-11.1603
▁ped	-11.1605
▁ko	-11.1605
uer	-11.161
rup	-11.1613
▁cabaleiro	-11.1614
▁Kosovo	-11.1615
▁ilegal	-11.1615
▁paciente	-11.1615
▁definitivo	-11.1615
iri	-11.1616
▁Corre	-11.1619
▁león	-11.162
▁1860	-11.162
inger	-11.1621
▁irre	-11.1622
▁Vin	-11.1622
▁escolar	-11.1623
▁horizontal	-11.1623
iona	-11.1625
▁sacar	-11.1626
▁medición	-11.1626
▁educativo	-11.1626
yama	-11.1627
▁Raíña	-11.1629
íanse	-11.1629
▁Castell	-11.163
quino	-11.1632
▁realíza	-11.1633
▁reforza	-11.1635
▁marrón	-11.1635
▁defensor	-11.1639
▁conter	-11.1641
▁afirmación	-11.1641
▁One	-11.1647
▁CA	-11.1648
▁Massachusetts	-11.165
▁inmediato	-11.165
▁nutrientes	-11.165
▁Street	-11.165
▁tocou	-11.1653
▁nazi	-11.1659
▁consideración	-11.1661
▁aventuras	-11.1662
▁facéndo	-11.1662
fen	-11.1662
tona	-11.1663
▁levantamento	-11.1664
bela	-11.1664
▁potencias	-11.1669
▁graxos	-11.1669
▁incrementar	-11.1671
pó	-11.1672
▁predecesor	-11.1673
▁Química	-11.1673
▁Hawai	-11.1674
▁Islandia	-11.1679
▁corporal	-11.168
▁patróns	-11.1683
neiro	-11.1684
▁cilindro	-11.1685
▁redacción	-11.1685
▁Gañou	-11.1685
azo	-11.1687
uña	-11.1689
▁sesenta	-11.169
▁mostrar	-11.169
▁redu	-11.1693
▁Jordan	-11.1697
duc	-11.17
▁Carre	-11.17
▁rodeada	-11.1701
tense	-11.1703
Ba	-11.1706
▁científicas	-11.1707
▁diagnóstico	-11.1709
▁tropical	-11.1709
▁longos	-11.1711
ífero	-11.1712
▁manga	-11.1717
▁cadros	-11.1719
▁Mans	-11.1719
izo	-11.1719
BS	-11.172
▁Rosalía	-11.1721
▁traducido	-11.1724
▁historica	-11.1725
▁revisión	-11.1726
▁subespecies	-11.1727
▁radicais	-11.1727
▁99	-11.1727
▁relata	-11.1728
▁operativo	-11.1729
▁paleo	-11.1731
▁fixéronse	-11.1733
▁armenio	-11.1733
▁rito	-11.1733
▁abade	-11.1734
▁1881	-11.1736
▁apoiado	-11.174
▁IL	-11.1744
▁encargou	-11.175
hm	-11.175
imi	-11.1751
▁Estación	-11.1753
▁porco	-11.1753
▁trens	-11.1755
▁Territorio	-11.1756
hin	-11.1761
uz	-11.1763
▁Sho	-11.1763
▁sodio	-11.1764
▁realizando	-11.1764
ceiro	-11.1765
▁medievais	-11.1768
▁deficiencia	-11.1768
▁descobre	-11.1768
▁construcións	-11.1768
▁hectáreas	-11.177
▁Parte	-11.177
▁custos	-11.177
▁Simón	-11.1772
▁tenden	-11.1774
▁minuto	-11.1775
▁atopada	-11.1775
▁vales	-11.1776
▁foro	-11.1781
▁cra	-11.1784
▁folk	-11.1786
▁cruzada	-11.1788
bula	-11.1788
▁Neu	-11.179
▁Cooper	-11.1791
▁emitido	-11.1793
▁coral	-11.1795
ax	-11.1798
▁pesada	-11.1798
▁Limia	-11.1799
nía	-11.18
hel	-11.1803
▁estatuto	-11.1804
▁difíciles	-11.1804
▁constituíu	-11.1804
▁Henri	-11.1808
xan	-11.1811
raxe	-11.1812
llan	-11.1813
▁vin	-11.1813
▁Cat	-11.1814
▁taxon	-11.1816
▁xaponeses	-11.1816
▁clan	-11.1816
longa	-11.1819
▁beiras	-11.1819
▁vidro	-11.1819
▁face	-11.182
▁acorda	-11.1821
▁asedio	-11.1823
ij	-11.1823
▁color	-11.1823
▁diferenciación	-11.1824
▁Estiv	-11.1825
▁profundas	-11.1825
▁Baviera	-11.1828
▁Rexional	-11.1828
▁orzamento	-11.1828
▁Montreal	-11.1828
▁Canal	-11.1832
▁μ	-11.1832
star	-11.1833
▁trasladar	-11.1835
▁drogas	-11.1838
▁afastado	-11.1839
▁Pública	-11.184
▁bombardeo	-11.184
▁catorce	-11.184
▁tabaco	-11.184
pido	-11.1841
▁fiscal	-11.1843
▁dixe	-11.1845
▁encontrar	-11.1847
tiza	-11.1847
▁Mississippi	-11.1852
▁Movemento	-11.1852
▁Miami	-11.1852
▁estivera	-11.1852
▁derrotar	-11.1858
▁raramente	-11.1858
tempo	-11.1861
▁Atlanta	-11.1864
▁estranxeira	-11.1864
▁reputación	-11.1864
▁destruído	-11.1864
▁representaba	-11.1865
▁históricas	-11.1866
▁retorno	-11.1867
ivos	-11.1867
▁Rec	-11.187
tosa	-11.1872
▁98	-11.1872
▁rexistrada	-11.1873
▁Metal	-11.1874
▁románico	-11.1876
▁System	-11.1876
▁prop	-11.1877
▁comercializa	-11.1877
▁quente	-11.1879
▁elite	-11.188
▁Coma	-11.1881
▁Dra	-11.1884
▁usaba	-11.1884
▁nacer	-11.1887
rti	-11.1888
▁compuxo	-11.1888
▁voa	-11.1892
▁manteñen	-11.1893
▁visitantes	-11.1897
▁exitoso	-11.19
▁Stephen	-11.19
▁tentou	-11.19
▁Republicano	-11.19
wo	-11.1901
xeno	-11.1909
▁groso	-11.1909
dem	-11.1911
▁Dublín	-11.1912
▁piñeiro	-11.1913
▁competiu	-11.1913
▁AP	-11.1914
▁viva	-11.1916
▁CH	-11.1919
quet	-11.1919
▁camiños	-11.1921
▁Habsburgo	-11.1924
phy	-11.1926
▁particulares	-11.193
▁Ball	-11.1931
▁pertencía	-11.1931
▁Alejandro	-11.1936
▁Douglas	-11.1936
▁canal	-11.1937
tine	-11.1941
▁avanzada	-11.1941
▁articulación	-11.1941
dino	-11.1942
▁escanos	-11.1947
▁Rub	-11.1951
▁poetas	-11.1951
▁prohibición	-11.1951
▁Benito	-11.1952
▁microorganismos	-11.1953
▁Colón	-11.1954
lato	-11.1954
▁rebeldes	-11.1958
▁Arco	-11.1958
posta	-11.1959
▁Mansell	-11.1962
pis	-11.1964
▁parecer	-11.1965
▁vellos	-11.1966
mond	-11.1967
▁inmuno	-11.1969
▁clínica	-11.1972
▁tesouro	-11.1972
▁publicidade	-11.1974
▁adición	-11.1976
▁Hart	-11.1977
▁ur	-11.1983
▁trátase	-11.1985
▁invasor	-11.1985
ntado	-11.1986
nen	-11.1986
▁controlada	-11.1986
▁básicos	-11.1987
▁interpretada	-11.1987
▁Sacro	-11.1991
▁Fox	-11.1992
▁Lenin	-11.1992
ceda	-11.1996
▁Football	-11.1997
▁Tenerife	-11.1997
▁puro	-11.1999
íxe	-11.1999
▁il	-11.2001
▁exploración	-11.2002
▁peito	-11.2004
gú	-11.2005
▁Good	-11.2007
▁Sarria	-11.2009
metría	-11.2011
▁francesas	-11.2011
▁Base	-11.2011
▁noticia	-11.2013
mpar	-11.2014
▁Campións	-11.2014
▁Esco	-11.2014
▁Fai	-11.2016
▁Sk	-11.2018
▁Eleccións	-11.2021
▁adolescente	-11.2021
▁túnel	-11.2021
▁Gam	-11.2022
▁Song	-11.2023
▁Primo	-11.2026
▁asesor	-11.2027
▁Volveu	-11.203
▁Virxinia	-11.2033
▁cápsula	-11.2033
▁ortodoxa	-11.2033
▁1887	-11.2038
▁antíxeno	-11.2038
▁hip	-11.2039
▁correo	-11.204
▁rapaza	-11.2042
gr	-11.2042
enda	-11.2043
rim	-11.2044
sérvanse	-11.2046
▁catedrático	-11.2046
▁socialistas	-11.2048
tén	-11.2049
▁82	-11.205
▁mosca	-11.205
▁pal	-11.2054
▁cunca	-11.2055
▁Center	-11.2063
▁intermedia	-11.2064
▁contratado	-11.2064
ejo	-11.2066
▁Souto	-11.2066
▁crocodilo	-11.207
▁enxeñaría	-11.207
▁Xefe	-11.2073
▁Até	-11.2073
▁1894	-11.2073
rab	-11.2074
▁1848	-11.2074
▁oficio	-11.2075
stein	-11.2076
▁combinado	-11.2077
▁patente	-11.2081
▁Manchester	-11.2082
▁relevancia	-11.2083
▁correspondentes	-11.2083
▁lendas	-11.2083
▁transcorre	-11.2084
tula	-11.2085
▁reservas	-11.2085
▁salienta	-11.2088
ísimo	-11.2089
▁Gai	-11.2091
▁Alén	-11.2091
cadencia	-11.2093
▁causado	-11.2093
▁Mallorca	-11.2095
▁intérprete	-11.2095
▁activista	-11.2095
▁Británico	-11.2095
▁contorno	-11.2095
▁1883	-11.2099
rís	-11.2102
▁Licenciado	-11.2105
▁Sy	-11.2106
▁seo	-11.2107
yu	-11.211
▁granito	-11.2112
▁intermedio	-11.2119
▁carecen	-11.212
▁Alfa	-11.2122
▁curtos	-11.2122
▁constituír	-11.2123
▁morta	-11.2126
▁Av	-11.2128
▁Rus	-11.2129
▁remonta	-11.2131
▁patri	-11.2131
▁segredo	-11.2132
▁Irán	-11.2132
aldo	-11.2134
ali	-11.2135
▁Berna	-11.2135
▁Dá	-11.2135
▁exteriores	-11.2136
▁Brand	-11.2136
▁bal	-11.2138
▁enfoque	-11.2144
alta	-11.2145
▁xeografía	-11.2146
▁axencia	-11.2148
emos	-11.215
▁Davis	-11.2151
▁Sul	-11.2152
▁trataba	-11.2152
tiv	-11.2152
▁informou	-11.2156
▁Et	-11.2165
flu	-11.2167
▁Deportiva	-11.2169
▁Sebastián	-11.2169
▁oxidación	-11.2169
poñía	-11.2172
▁xulgado	-11.2176
▁determinados	-11.2176
puña	-11.2176
▁69	-11.2177
▁asinado	-11.2177
esia	-11.2179
▁solares	-11.2181
▁oscila	-11.2184
▁bloquea	-11.2184
hem	-11.2184
▁Vice	-11.2184
▁Tralo	-11.2189
vic	-11.2189
poñer	-11.2191
▁voar	-11.2193
▁rotura	-11.2198
▁pintores	-11.2201
lóxico	-11.2204
▁illamento	-11.2205
▁terremoto	-11.2206
▁oculta	-11.2206
▁rurais	-11.2207
▁granxa	-11.221
▁concelleiros	-11.2211
ime	-11.2214
▁77	-11.2214
▁encóntran	-11.2214
▁var	-11.2215
▁pecha	-11.2217
mite	-11.2218
▁Irmandade	-11.2218
▁innovación	-11.2218
▁Ulla	-11.2219
▁mandou	-11.2221
▁quilo	-11.2226
torios	-11.2227
▁ricos	-11.2227
óuselle	-11.2232
▁tipicament	-11.2235
▁trama	-11.2235
riga	-11.2236
quita	-11.2237
▁contidos	-11.2237
▁Berger	-11.2239
▁perfil	-11.224
▁Andrew	-11.2244
áronlle	-11.2246
cub	-11.225
▁Flor	-11.225
lita	-11.2251
▁Calvo	-11.2252
vó	-11.2252
▁Steve	-11.2254
▁adxacente	-11.2256
▁restaurante	-11.2256
▁Cen	-11.2256
▁estivese	-11.2256
▁Nelson	-11.2256
vive	-11.2256
▁taller	-11.2259
▁intra	-11.2259
▁rexistrado	-11.2261
▁contan	-11.2262
mber	-11.2263
▁seguía	-11.2267
▁adhesión	-11.2268
▁curtametraxe	-11.2268
▁parámetro	-11.2268
▁Mancha	-11.2269
▁UE	-11.2271
pend	-11.2271
▁concreta	-11.2272
▁Free	-11.2272
▁largo	-11.2274
cara	-11.2275
▁aceptado	-11.2277
▁Gun	-11.2279
▁patíns	-11.2281
▁dicindo	-11.2281
▁Julio	-11.2282
ásico	-11.2282
▁efectivo	-11.2283
▁inci	-11.2284
▁recorre	-11.2285
pil	-11.2285
▁elixir	-11.2289
▁variar	-11.229
centos	-11.2293
▁migra	-11.2293
▁General	-11.2294
py	-11.2294
▁vaga	-11.2297
▁Festa	-11.2297
gues	-11.2299
▁tarda	-11.2299
ule	-11.23
▁parti	-11.2303
▁Wagner	-11.2306
▁adulta	-11.2306
▁Ohio	-11.2307
▁modificado	-11.2307
▁defecto	-11.2308
▁aparente	-11.2309
▁Liberal	-11.2312
▁anaco	-11.2313
aya	-11.2313
tier	-11.2314
▁Pur	-11.2316
▁traballan	-11.2318
▁ambientais	-11.2318
▁sublevación	-11.2318
▁sueca	-11.2319
belmente	-11.232
▁France	-11.232
▁Baía	-11.2321
▁corresponden	-11.2321
▁Sancho	-11.2323
▁Narón	-11.2324
▁solos	-11.2324
▁92	-11.233
▁galo	-11.2331
▁Tradicional	-11.2331
▁axeitada	-11.2331
▁mexicano	-11.2331
misión	-11.2333
▁Life	-11.2333
ega	-11.2336
▁Leon	-11.2338
▁ETA	-11.2339
tifica	-11.234
▁Vía	-11.2342
▁prote	-11.2342
▁cátedra	-11.2344
▁Concilio	-11.2344
▁retro	-11.2345
▁Corn	-11.2345
▁asunto	-11.2348
▁Alan	-11.2349
▁comprender	-11.2357
▁promociona	-11.2357
▁abs	-11.2358
▁Alexandría	-11.2358
▁asumir	-11.2358
▁realizaron	-11.2359
▁falado	-11.2359
▁cantar	-11.2359
▁1876	-11.236
▁fil	-11.2362
▁Exp	-11.2362
▁compoñen	-11.2363
nell	-11.2364
▁Arm	-11.2367
abilidade	-11.2367
▁Gol	-11.2368
métrico	-11.2368
▁inmunitario	-11.2369
▁lévedo	-11.2369
▁metálico	-11.2369
▁oitenta	-11.2369
▁remónta	-11.2369
▁visitou	-11.2369
▁videoxogos	-11.2371
▁encargada	-11.2374
▁convoca	-11.2375
▁linear	-11.2375
TR	-11.2377
▁arqueolóxicos	-11.2377
▁automóbil	-11.2379
▁Padrón	-11.2381
tónico	-11.2382
▁toxina	-11.2382
eli	-11.2383
olóxicas	-11.2383
mie	-11.2385
▁datan	-11.2387
▁rem	-11.2387
▁colonización	-11.2388
▁condutor	-11.2389
▁mencionada	-11.2392
▁eclesiástica	-11.2394
▁melodía	-11.2394
▁longobardo	-11.2394
▁atleta	-11.2394
▁Jr	-11.2395
▁Hawk	-11.2395
▁Piquet	-11.2396
▁abandonado	-11.2397
▁elaborado	-11.2397
▁correspondencia	-11.2398
▁cadeira	-11.2402
▁Guer	-11.2405
▁falsa	-11.2406
▁lenta	-11.2408
mara	-11.241
cación	-11.241
▁DC	-11.241
ízase	-11.2412
pet	-11.2413
▁levanta	-11.2413
▁prosa	-11.2415
▁Em	-11.2415
▁Petersburgo	-11.2419
▁Samuel	-11.242
▁logro	-11.2421
loxicamente	-11.2423
▁afectan	-11.2423
▁saque	-11.2424
▁difire	-11.2424
▁integr	-11.2425
▁antigamente	-11.2425
▁Jon	-11.2425
▁moluscos	-11.2428
▁causan	-11.243
▁indo	-11.2432
▁Guitiriz	-11.2432
▁Rodrigo	-11.2432
▁Sp	-11.2444
▁catálogo	-11.2445
▁Allariz	-11.2445
▁Doutor	-11.2445
▁Andrea	-11.2446
▁Lakers	-11.2446
lización	-11.2446
▁secreto	-11.2446
▁Prim	-11.2448
▁escama	-11.2448
▁Night	-11.2449
gia	-11.2453
vais	-11.2455
aka	-11.2456
▁tetra	-11.2457
▁sábado	-11.2458
▁Pasou	-11.2458
▁inhibi	-11.2461
▁situar	-11.2461
▁Kat	-11.2463
▁emitiu	-11.2466
ave	-11.2469
▁marítimo	-11.247
▁distribuída	-11.2471
PSOE	-11.2471
alo	-11.2471
▁Colonia	-11.2472
▁sar	-11.2473
cosa	-11.2477
▁Ag	-11.2477
▁traseira	-11.2479
▁paseo	-11.248
▁Bruxelas	-11.2483
▁cadáver	-11.2483
▁extracción	-11.2484
▁interpretado	-11.2486
▁pasaba	-11.2487
▁Apolo	-11.2488
▁ge	-11.2488
▁unen	-11.2489
▁utilízan	-11.2489
▁británicas	-11.249
▁FA	-11.2492
▁Matt	-11.2492
▁ferramenta	-11.2494
▁dispositivo	-11.2494
▁73	-11.2494
▁aldeas	-11.2495
▁hábito	-11.2496
▁módulo	-11.2496
▁teclado	-11.2496
▁africana	-11.2499
▁preparado	-11.2502
▁escoita	-11.2505
cima	-11.2506
▁promotor	-11.2508
▁cúpula	-11.2509
▁electricidade	-11.2509
▁marítima	-11.2509
▁Baiona	-11.2511
▁estimada	-11.2514
▁situacións	-11.252
▁vítima	-11.252
fr	-11.2521
▁testemuño	-11.2522
▁laranxa	-11.2522
▁conforme	-11.2522
▁infra	-11.2524
▁pobreza	-11.2524
▁afeccionados	-11.2526
▁Wei	-11.2527
▁compara	-11.2531
▁utilizadas	-11.2531
gula	-11.2533
▁causando	-11.2534
▁obreira	-11.2535
lema	-11.2535
▁construíuse	-11.2537
▁Jun	-11.2538
▁vea	-11.254
▁Mir	-11.2541
▁Escribiu	-11.2547
▁delegación	-11.2548
▁contaminación	-11.2549
▁Gold	-11.2553
▁desenvolveron	-11.2554
▁atopáron	-11.2558
▁Abegondo	-11.256
▁diplomático	-11.256
▁Aérea	-11.256
▁Alacant	-11.256
ulación	-11.2569
▁conservada	-11.257
▁diálogo	-11.2573
Cesuras	-11.2573
▁procesado	-11.2574
▁correr	-11.2577
▁rapaz	-11.2577
érica	-11.2579
▁lexislación	-11.2586
▁eficiente	-11.2586
▁gal	-11.2586
▁Sel	-11.2589
▁Tá	-11.259
▁probar	-11.2592
▁Tony	-11.2594
▁Aquí	-11.2595
rov	-11.2595
rich	-11.2596
tella	-11.2598
▁convertería	-11.2598
▁téxtil	-11.2599
▁temperá	-11.2599
▁conduta	-11.2599
▁manifesto	-11.26
▁enriba	-11.2601
▁cruzar	-11.2602
franc	-11.2603
▁74	-11.2605
iki	-11.2606
meiro	-11.2607
riu	-11.2611
▁turista	-11.2611
▁ateniense	-11.2612
▁Linux	-11.2612
▁empate	-11.2613
▁disparo	-11.2613
▁Cun	-11.2617
▁manchas	-11.2618
▁abundantes	-11.262
▁repertorio	-11.2625
▁simplifica	-11.2625
▁salvar	-11.2625
▁Ferreiro	-11.2625
▁Pereira	-11.2626
▁vasca	-11.2626
▁Agora	-11.2626
▁embarcación	-11.2629
▁faría	-11.263
▁tartarugas	-11.263
▁Pic	-11.2631
mper	-11.2631
▁Banda	-11.2631
bondo	-11.2632
gun	-11.2633
ñó	-11.2636
▁crustáceos	-11.2637
▁suxeriu	-11.2637
▁Nalgunha	-11.2638
▁coida	-11.2638
glia	-11.264
rome	-11.2642
▁sintetiza	-11.2642
▁contemporáneos	-11.2645
▁Branca	-11.2646
▁setenta	-11.2646
rick	-11.2646
5.000	-11.2651
▁voluntario	-11.2651
▁Varia	-11.2653
▁las	-11.2654
▁expresar	-11.2655
▁químicas	-11.2656
▁escava	-11.2657
vid	-11.2657
cino	-11.2659
crom	-11.2661
▁Supremo	-11.2664
▁mundiais	-11.2664
▁universitaria	-11.2664
▁ignora	-11.2664
▁cubrir	-11.2664
▁FIA	-11.2666
▁esixi	-11.2667
▁altar	-11.2668
TP	-11.2668
▁Luc	-11.2668
terminal	-11.2668
▁desas	-11.2669
tilla	-11.2669
toma	-11.2671
▁81	-11.2676
▁Lourenzo	-11.2677
▁Comeza	-11.2677
▁78	-11.2678
▁traducida	-11.2679
▁exposta	-11.2679
▁Ple	-11.2679
ppe	-11.268
ović	-11.2684
ude	-11.2685
▁estou	-11.2686
▁acumulación	-11.2687
▁00	-11.2687
▁Dado	-11.2688
▁contempla	-11.269
▁paquete	-11.269
▁derrotou	-11.269
▁Aero	-11.2692
▁cantón	-11.2692
000	-11.2692
vou	-11.2694
▁predomina	-11.2694
▁dáse	-11.2695
▁gráfica	-11.2695
▁test	-11.2701
zio	-11.2701
▁film	-11.2702
▁centímetros	-11.2703
▁mandíbula	-11.2703
▁Holanda	-11.2703
ctúan	-11.2703
órica	-11.2707
▁Of	-11.271
▁animado	-11.2714
órico	-11.2715
▁realizouse	-11.2717
▁Hip	-11.2718
▁Are	-11.2718
▁1871	-11.2719
▁art	-11.2722
▁fago	-11.2723
▁versos	-11.2728
▁Palestina	-11.2729
▁sustenta	-11.2729
▁colectiva	-11.2729
▁cadrado	-11.273
▁atentado	-11.273
▁Young	-11.2731
▁planetas	-11.2732
▁denominados	-11.2734
▁Band	-11.2735
▁foco	-11.2738
▁galaxias	-11.2738
vada	-11.2739
▁negras	-11.2742
▁Giovanni	-11.2742
▁vesículas	-11.2742
▁fiestra	-11.2743
▁demostración	-11.2745
▁Vas	-11.2747
▁desaparecer	-11.2749
▁Josep	-11.2751
pie	-11.2751
▁vocal	-11.2755
▁autoestrada	-11.2755
▁centr	-11.2755
▁conquistou	-11.2755
▁escaleira	-11.2755
▁ensinanza	-11.2756
▁obtiver	-11.2756
plasm	-11.2758
▁adoptar	-11.2759
pl	-11.2762
ence	-11.2764
head	-11.2767
▁ultra	-11.2767
▁canon	-11.2768
▁ruptura	-11.2768
▁vixente	-11.2768
pir	-11.2769
▁electo	-11.277
▁poderosa	-11.2772
▁1830	-11.2776
▁atribúe	-11.2778
▁rega	-11.2781
▁Produc	-11.2782
▁romance	-11.2782
▁Kiev	-11.2783
▁orgánicos	-11.2784
uco	-11.2785
▁voda	-11.2788
▁afasta	-11.2791
▁metil	-11.2792
ícula	-11.2792
▁coroado	-11.2793
▁ilustra	-11.2793
▁Bac	-11.2794
▁inflamación	-11.2795
Sa	-11.2795
▁preferencia	-11.2796
▁fon	-11.2796
org	-11.2797
▁1879	-11.2798
▁Imp	-11.2798
▁conservador	-11.2799
▁aguda	-11.2801
guen	-11.2801
▁marchar	-11.2804
▁Barra	-11.2804
▁derivada	-11.2805
PI	-11.2807
▁lexislatura	-11.2808
▁mediterránea	-11.2808
▁proclama	-11.2808
▁fracasa	-11.2808
▁ligazón	-11.2811
▁crearon	-11.2816
▁Pío	-11.2816
rien	-11.2818
▁básico	-11.2819
▁violenta	-11.2821
▁colaborar	-11.2829
cera	-11.283
gni	-11.2833
▁solicita	-11.2833
▁Cine	-11.2835
▁confusión	-11.2835
▁exposto	-11.2838
▁Volta	-11.2842
▁Arma	-11.2844
▁completou	-11.2844
▁dianteira	-11.2845
▁mete	-11.2846
▁veciño	-11.2847
▁percepción	-11.2849
▁nacionalistas	-11.285
trina	-11.2851
▁ocupando	-11.2857
▁fundouse	-11.2859
▁contribución	-11.286
▁Guipúscoa	-11.2861
▁axeitado	-11.2861
▁Pico	-11.2861
cidos	-11.2862
▁Ky	-11.2863
ólica	-11.2863
▁transmitir	-11.2863
▁met	-11.2866
▁Fala	-11.2866
▁abandono	-11.2866
▁sona	-11.2867
▁colaborador	-11.2868
llado	-11.2869
▁dedicou	-11.2869
▁caracterizado	-11.287
▁galés	-11.2875
▁edificación	-11.2875
▁Buck	-11.2877
▁ber	-11.2877
▁protestas	-11.2879
▁simboliza	-11.2879
▁decidir	-11.2881
▁administrador	-11.2883
▁Kin	-11.2886
▁Kara	-11.2887
▁Valdeorras	-11.2887
▁triángulo	-11.2887
▁ámbolos	-11.2887
▁sentenza	-11.2887
▁tortura	-11.289
AF	-11.289
▁conducir	-11.2892
▁lema	-11.2893
▁resta	-11.2893
▁mestres	-11.2894
▁solucións	-11.2895
ianos	-11.29
▁arquitectónico	-11.2901
▁rapaces	-11.2901
▁tóxico	-11.2901
dencia	-11.2902
▁79	-11.2902
▁dispositivos	-11.2903
▁Hay	-11.2904
▁proveniente	-11.2914
▁previsto	-11.2914
▁islam	-11.2914
▁Bala	-11.2916
▁88	-11.2919
▁Dom	-11.292
▁nocturno	-11.2927
▁moderado	-11.2927
vy	-11.293
▁Vilanova	-11.293
SP	-11.293
▁By	-11.2934
▁Catro	-11.2934
▁especialidade	-11.2935
mental	-11.2936
taría	-11.2936
▁gramo	-11.2939
hon	-11.294
▁Aristóteles	-11.2941
▁convertido	-11.2941
▁abertura	-11.2941
hua	-11.2944
amina	-11.2946
▁Houb	-11.2946
oro	-11.2948
▁pique	-11.2949
▁Petr	-11.295
▁terrorista	-11.295
▁Delta	-11.2951
▁ergue	-11.2952
▁South	-11.2954
▁diminuír	-11.2954
▁esqueleto	-11.2954
▁galardón	-11.2954
▁denominou	-11.2954
▁morfoloxía	-11.2954
▁declive	-11.2954
▁Fol	-11.2957
▁experimento	-11.2961
▁Ala	-11.2962
▁aprobada	-11.2963
▁baño	-11.2965
▁deseñador	-11.2966
caba	-11.2966
▁tormenta	-11.2969
▁consciente	-11.2969
▁viron	-11.2969
▁Arca	-11.2973
▁chamarse	-11.2976
▁Circ	-11.2977
▁navega	-11.2977
▁vinculado	-11.2977
▁Lé	-11.2977
▁célebre	-11.2981
▁instancia	-11.2981
▁camiña	-11.2981
▁plástico	-11.2981
▁Barbanza	-11.2982
▁coordina	-11.2984
▁instalar	-11.2985
▁segmento	-11.2985
mple	-11.2988
▁feble	-11.2991
▁tin	-11.2992
▁infante	-11.2994
▁rub	-11.2994
▁Somoza	-11.2994
▁dezaseis	-11.2994
▁University	-11.2994
jan	-11.2996
bon	-11.2997
▁Lang	-11.2997
▁modificada	-11.3001
arquía	-11.3006
scribindo	-11.3008
▁Lituania	-11.3008
▁pulmonar	-11.3008
▁Sofía	-11.3008
▁léva	-11.3008
lock	-11.3009
▁fl	-11.3009
▁patrocinio	-11.3009
reira	-11.301
▁rouba	-11.3012
fix	-11.3013
▁hel	-11.3017
▁Ain	-11.3018
▁interesa	-11.3021
▁siglas	-11.3022
▁desastre	-11.3023
▁introducida	-11.3023
▁ACB	-11.3025
rata	-11.3025
▁rexe	-11.3027
idal	-11.3028
▁estruturais	-11.3029
▁Out	-11.303
IA	-11.303
▁salta	-11.3032
▁chegaría	-11.3032
▁recibía	-11.3035
▁asasino	-11.3035
▁examina	-11.3037
▁traslado	-11.3038
▁teoloxía	-11.3038
▁adicado	-11.3039
▁Pon	-11.3039
▁quixo	-11.304
,	-11.304
▁limpa	-11.3045
gación	-11.3048
TS	-11.305
▁proposto	-11.3052
▁niños	-11.3052
▁1873	-11.3052
▁1865	-11.3053
▁trazo	-11.3054
▁descubrimentos	-11.3056
▁ligando	-11.3058
▁habitación	-11.3059
bú	-11.3061
tándose	-11.3062
▁limitación	-11.3063
▁burato	-11.3063
▁dependen	-11.3066
queiro	-11.3068
▁Time	-11.3068
▁agocha	-11.307
▁venceu	-11.3075
▁revolucionaria	-11.3075
▁prototipo	-11.3076
leg	-11.3078
▁autora	-11.3079
▁xo	-11.308
▁sentir	-11.3081
▁Ami	-11.3082
▁Mercia	-11.3083
▁Recente	-11.3084
▁Bieito	-11.3089
▁reúne	-11.309
▁Bandeira	-11.3092
quista	-11.3092
lov	-11.3094
vari	-11.3097
▁romper	-11.31
cant	-11.3102
enne	-11.3102
▁templos	-11.3103
▁engadiu	-11.3103
▁tradutor	-11.3103
▁retorna	-11.3103
▁Down	-11.3104
volv	-11.311
▁2.000	-11.3113
▁recruta	-11.3114
▁Gall	-11.3115
▁Leonardo	-11.3115
▁parlamentario	-11.3117
▁varia	-11.3118
▁paxaros	-11.3119
▁clientes	-11.3121
▁cordas	-11.3126
▁rodas	-11.3128
MI	-11.3128
▁funcionan	-11.3129
▁Wilhelm	-11.313
▁fortificación	-11.313
▁doazón	-11.3131
▁Destaca	-11.3132
▁Hot	-11.3134
▁Iraq	-11.3134
▁cotiá	-11.3134
▁coleccións	-11.3136
gol	-11.3138
▁soporta	-11.3141
rago	-11.3143
▁madurez	-11.3143
▁NHL	-11.3144
▁Phil	-11.3146
▁sales	-11.3146
ccio	-11.3147
▁cable	-11.3147
▁conmemora	-11.3147
▁Interior	-11.3148
▁avances	-11.3151
▁arbusto	-11.3157
▁territoriais	-11.3157
▁convencional	-11.3157
▁xofre	-11.3157
▁tec	-11.3157
gran	-11.3158
▁Xulio	-11.3158
▁mis	-11.3159
▁confirma	-11.3163
▁axusta	-11.3167
▁fármaco	-11.3169
▁les	-11.3172
▁aproximación	-11.3175
▁ósea	-11.3176
▁físicas	-11.3177
TV	-11.3179
▁observou	-11.318
ísmo	-11.318
IC	-11.318
▁aprobado	-11.3182
ova	-11.3184
▁referendo	-11.3185
▁eficaz	-11.3185
▁engadido	-11.3185
▁asistiu	-11.3185
pou	-11.3185
▁cua	-11.3185
▁luxo	-11.3187
▁obtida	-11.3188
▁cesa	-11.3192
▁Lauda	-11.3193
▁Escu	-11.3195
▁François	-11.3196
▁Philip	-11.3197
▁Taboada	-11.3198
▁reuniu	-11.3198
▁Len	-11.3201
AM	-11.3202
▁presentada	-11.3203
▁Xogaba	-11.3205
CO	-11.3205
▁rexente	-11.3207
gano	-11.3207
▁Detroit	-11.3212
▁israelí	-11.3212
▁producía	-11.3212
mene	-11.3212
▁Latina	-11.3213
▁goza	-11.3213
▁coloración	-11.3214
▁xestiona	-11.3214
▁84	-11.3214
▁rexeitamento	-11.3216
▁puntuación	-11.3218
▁inser	-11.322
AA	-11.3221
paña	-11.3223
▁apoiou	-11.3224
ítico	-11.3225
▁Económica	-11.3226
▁extracelular	-11.3226
▁Wilson	-11.3226
▁perdas	-11.3226
mine	-11.3227
▁veleno	-11.3227
▁proc	-11.3228
tore	-11.3228
SE	-11.323
rp	-11.3232
▁Í	-11.3232
▁Nacionalista	-11.3233
▁pala	-11.3235
▁narración	-11.3236
▁Beau	-11.3236
core	-11.3237
▁Mura	-11.3238
▁ambiental	-11.3239
▁arrecife	-11.3239
▁diminúe	-11.3239
▁redacta	-11.324
▁Post	-11.324
▁Lie	-11.3244
mmer	-11.3249
▁anula	-11.3251
▁espectacular	-11.3253
▁tiburón	-11.3253
▁representou	-11.3253
▁retrato	-11.3257
▁gro	-11.326
dera	-11.3261
▁crecer	-11.3262
chase	-11.3265
▁sinfonía	-11.3267
▁Faro	-11.327
púxose	-11.3271
culares	-11.3272
▁sofren	-11.3273
ör	-11.3275
▁Decreto	-11.3281
▁Isaac	-11.3283
▁Kim	-11.3283
▁tributo	-11.3283
▁musulmá	-11.3284
▁cooperación	-11.3284
▁bro	-11.3288
ancia	-11.3289
▁Lind	-11.329
RO	-11.3291
ñen	-11.3291
▁manifestación	-11.3293
▁filamentos	-11.3295
▁componse	-11.3297
▁profesores	-11.3298
▁Muros	-11.3298
▁biografía	-11.3299
▁1878	-11.3299
zá	-11.3301
ales	-11.3302
alla	-11.3305
▁integral	-11.3305
▁Braga	-11.3305
▁réptiles	-11.3309
▁fracción	-11.331
dula	-11.3311
▁amplia	-11.3315
▁atopado	-11.3317
▁oposta	-11.3318
▁Están	-11.3319
▁xogan	-11.332
▁proxección	-11.3323
ologi	-11.3324
▁ocorrer	-11.3324
sérvase	-11.3325
▁aleta	-11.3327
▁planos	-11.3328
▁conferencias	-11.3329
▁suc	-11.333
▁favorito	-11.3335
▁citoplasma	-11.3336
▁ofensiva	-11.3336
▁acrónimo	-11.3336
▁fabricado	-11.3337
▁Nicola	-11.3337
▁Salnés	-11.3339
▁acelera	-11.3342
▁subir	-11.3343
▁correcta	-11.3343
▁Mega	-11.3345
▁adianta	-11.3348
▁choque	-11.3349
▁após	-11.3349
xeira	-11.335
▁Proxecto	-11.335
▁reflexión	-11.335
▁sostén	-11.3351
▁perdido	-11.3352
▁McC	-11.3353
▁Come	-11.3353
▁Epi	-11.3354
ong	-11.3354
yan	-11.3355
▁Gali	-11.3357
▁Sky	-11.3358
▁caracterizada	-11.3359
▁desaparecido	-11.3364
ota	-11.3365
▁Little	-11.3365
▁Mun	-11.3366
▁orto	-11.3367
rium	-11.3368
▁ciclista	-11.3371
▁Mour	-11.3372
▁cedeu	-11.3374
▁fabricar	-11.3374
▁Carta	-11.3377
▁complemento	-11.3378
▁arqueolóxica	-11.3378
▁emitida	-11.3379
▁Live	-11.338
▁Casi	-11.3383
▁Cristovo	-11.3383
▁Ever	-11.3383
▁Galia	-11.3385
▁interiores	-11.339
▁vale	-11.3391
▁pir	-11.3392
▁pirámide	-11.3392
▁visigodo	-11.3392
▁fieis	-11.3392
▁Gan	-11.3397
▁dimensión	-11.34
ánica	-11.3403
ovich	-11.3403
▁haxa	-11.3404
▁pene	-11.3405
▁medias	-11.3406
▁Minnesota	-11.3406
▁Tarragona	-11.3406
▁viúva	-11.3406
▁Subtitulad	-11.3406
▁suprimi	-11.3406
▁cub	-11.3408
cora	-11.3409
▁Escri	-11.3412
▁tentativa	-11.3413
éntase	-11.3413
▁Boa	-11.3415
íc	-11.3419
▁irmás	-11.342
▁Taylor	-11.342
▁mergulla	-11.342
▁sentimento	-11.3422
leu	-11.3423
íta	-11.3426
▁Nord	-11.343
▁discorre	-11.3432
▁Homo	-11.3434
vora	-11.3434
▁interacciona	-11.3434
▁conduciu	-11.3435
▁Có	-11.3436
▁Anton	-11.3437
▁VIH	-11.3439
▁Reich	-11.3441
▁criatura	-11.3448
▁renovación	-11.3448
muta	-11.345
▁pensaba	-11.3452
▁Thr	-11.3454
▁oración	-11.3456
▁cego	-11.3457
▁conquistar	-11.346
▁maxi	-11.3461
▁céntra	-11.3462
▁Ignacio	-11.3462
▁orixinou	-11.3462
▁Cómpre	-11.3463
▁señorío	-11.3463
▁recombinación	-11.3464
mante	-11.3464
▁detección	-11.3464
▁5.000	-11.3464
▁despo	-11.3464
▁facción	-11.3465
▁inunda	-11.3468
▁fito	-11.347
ardo	-11.3472
▁necesariamente	-11.3473
▁brasileira	-11.3477
▁comisario	-11.3477
▁rivais	-11.3477
▁Group	-11.3477
▁chasis	-11.3478
awa	-11.3478
▁legado	-11.348
▁cerebral	-11.3491
▁estómago	-11.3491
▁algoritmo	-11.3491
▁BBC	-11.3491
▁Membro	-11.3494
metil	-11.3495
fol	-11.3495
▁CNT	-11.3496
time	-11.3497
▁republicana	-11.3498
▁Steven	-11.3499
▁estableceron	-11.3499
▁Ji	-11.35
▁priva	-11.3502
▁apareamento	-11.3505
ritish	-11.3505
▁falecemento	-11.3507
▁materna	-11.3507
▁analiza	-11.3508
▁Bad	-11.3508
▁Arn	-11.3508
▁Kong	-11.351
▁gri	-11.3511
▁1.0	-11.3512
▁descender	-11.3516
▁Water	-11.3518
fan	-11.3518
▁malo	-11.3518
▁adquisición	-11.3519
▁invención	-11.3519
▁Viveiro	-11.352
ómetro	-11.352
zán	-11.3521
tér	-11.3522
▁mina	-11.3522
▁formaban	-11.3524
▁acetil	-11.3525
▁acha	-11.3526
ries	-11.3526
▁fun	-11.3527
▁alimenta	-11.3528
grega	-11.3531
▁romanas	-11.3533
▁sospeita	-11.3533
▁ONU	-11.3533
▁Moore	-11.3534
dito	-11.3534
▁Hei	-11.3537
▁adoptada	-11.3537
vela	-11.3539
▁Marcel	-11.3541
▁Wall	-11.3541
cele	-11.3544
chel	-11.3545
▁Traballo	-11.3546
ugu	-11.3546
nega	-11.3546
▁Opera	-11.3547
▁comprensión	-11.3547
▁esculturas	-11.3548
▁integrantes	-11.3548
▁corredor	-11.355
▁xurado	-11.355
▁1882	-11.3551
▁1872	-11.3552
▁alza	-11.3552
▁mutua	-11.3555
chado	-11.3555
íno	-11.3555
▁salientable	-11.3556
▁chu	-11.3557
▁Indias	-11.3558
cista	-11.3559
▁Estocolmo	-11.3562
▁adecuada	-11.3562
▁homólogo	-11.3562
▁térmica	-11.3562
▁reforzo	-11.3562
▁antrop	-11.3562
▁Filoloxía	-11.3562
▁gramática	-11.3563
▁acompañada	-11.3564
▁qua	-11.3565
▁j	-11.3567
▁acusación	-11.3567
▁vascular	-11.3568
RNA	-11.3568
▁Allen	-11.3569
▁Soto	-11.3572
íl	-11.3572
▁considéran	-11.3572
rad	-11.3575
▁FIFA	-11.3576
▁búlgaro	-11.3576
▁asturiano	-11.3576
▁padece	-11.3577
▁Xaneiro	-11.3577
cionista	-11.3581
▁realista	-11.3583
PA	-11.3584
▁chegaba	-11.3588
eau	-11.3589
bat	-11.3589
▁centrocampista	-11.359
▁recollido	-11.359
▁fortuna	-11.359
▁Palencia	-11.3591
roma	-11.3592
▁requiren	-11.3592
▁sup	-11.3594
uria	-11.3595
▁estudado	-11.3599
▁mares	-11.36
▁Mou	-11.3601
▁clasificou	-11.3604
▁Mid	-11.3605
tente	-11.3606
▁recrea	-11.3607
▁recita	-11.3609
▁1850	-11.3615
▁reitor	-11.3615
▁Corpo	-11.3617
▁aletas	-11.3617
pole	-11.3618
▁aluminio	-11.3619
▁Seoane	-11.3619
▁manobra	-11.3619
▁Bot	-11.3619
▁cumpre	-11.362
▁clasificada	-11.362
▁86	-11.3622
▁110	-11.3623
icidade	-11.3623
▁coincide	-11.3623
▁Ramir	-11.3625
nsión	-11.3626
▁Vida	-11.3626
▁liberar	-11.3627
▁ilustrado	-11.3628
▁baseándo	-11.3628
▁disputado	-11.3636
▁incorporar	-11.364
▁froitas	-11.3644
▁levaban	-11.3646
▁Hispania	-11.3647
▁DS	-11.3648
▁conxela	-11.3648
▁adoptado	-11.3651
▁Prata	-11.3651
▁fío	-11.3651
▁correcto	-11.3652
▁Saturno	-11.3655
▁coloniza	-11.3656
gie	-11.3658
▁ocupaba	-11.366
▁usarse	-11.3661
ick	-11.3662
▁Medalla	-11.3662
▁Prote	-11.3664
▁sucesos	-11.3664
▁ficou	-11.3664
ensa	-11.3665
ulfo	-11.3666
▁Fire	-11.3667
▁circun	-11.3667
▁permitiron	-11.3668
▁incon	-11.3669
▁crista	-11.3672
▁Athletic	-11.3676
▁Vaticano	-11.3676
▁espécime	-11.3676
▁tardío	-11.3676
▁misa	-11.3677
▁conforman	-11.3678
▁Lev	-11.3678
▁Leo	-11.3678
▁hotel	-11.3679
▁Montaña	-11.368
▁Kha	-11.3684
▁recoller	-11.3684
▁atopados	-11.3687
▁repetida	-11.3688
activa	-11.3689
▁monxes	-11.3689
▁soviéticos	-11.3689
▁Patrick	-11.3691
▁adicada	-11.3694
▁ilustración	-11.3698
phe	-11.3699
▁millas	-11.3704
▁mediterráneo	-11.3705
▁exiliado	-11.3705
▁barba	-11.3707
▁1861	-11.3709
▁pat	-11.3718
▁medula	-11.3721
▁paixón	-11.3725
▁engade	-11.3726
▁internas	-11.3729
▁Br	-11.373
▁ostenta	-11.3731
▁alimentar	-11.3731
▁Sete	-11.3733
▁móbiles	-11.3733
▁botánico	-11.3734
▁suxeita	-11.3734
IT	-11.3734
▁terror	-11.3737
inho	-11.374
▁subespecie	-11.3741
▁fábricas	-11.3741
inus	-11.3742
llada	-11.3742
▁antíxenos	-11.3743
zzi	-11.3744
▁citada	-11.3747
▁cordilleira	-11.3748
La	-11.3753
▁óxido	-11.3755
▁1840	-11.3756
▁gama	-11.3757
▁gusta	-11.3757
NE	-11.3759
▁Dy	-11.3759
xénica	-11.3763
▁guerrilleiro	-11.3763
▁violín	-11.3763
▁coronel	-11.3763
zia	-11.3763
▁160	-11.3765
▁Cabr	-11.3765
▁datas	-11.3767
▁combater	-11.3769
▁Marín	-11.3769
anti	-11.3769
▁excepcional	-11.377
▁inco	-11.3773
▁periódica	-11.3777
▁Vettel	-11.3777
▁apoxeo	-11.3777
thel	-11.3778
▁tru	-11.3779
▁afectar	-11.3779
▁conxuntamente	-11.3783
▁Venus	-11.3784
▁calcula	-11.3784
▁Rede	-11.3785
▁milita	-11.3787
uxo	-11.3789
▁determinación	-11.3789
▁edita	-11.379
▁Anxo	-11.3791
▁mármore	-11.3792
▁dúo	-11.3792
chou	-11.3794
▁PA	-11.3795
▁1869	-11.3796
psina	-11.3798
▁Comun	-11.3803
kal	-11.3805
▁180	-11.3806
deiros	-11.3806
▁Pireneos	-11.3807
▁Xenebra	-11.3807
▁arxentina	-11.3807
▁electromagnétic	-11.3807
▁oitava	-11.3808
▁aceptación	-11.3808
▁Cruces	-11.3808
▁filtra	-11.3809
▁Alco	-11.3811
▁rivalidade	-11.3812
▁cren	-11.3814
▁habitan	-11.3818
▁variado	-11.3821
▁basílica	-11.3821
▁Román	-11.3828
▁sabía	-11.3828
NC	-11.3829
▁Carme	-11.3832
▁bautizado	-11.3836
▁distingue	-11.3836
▁moderada	-11.3836
▁reactor	-11.3837
▁Exposición	-11.3837
▁servía	-11.3839
qué	-11.384
▁3.000	-11.3842
▁Traba	-11.3843
rid	-11.3845
crita	-11.3845
▁Desc	-11.3846
AN	-11.3846
▁rece	-11.3848
▁turca	-11.3851
▁pólas	-11.3851
▁130	-11.3856
all	-11.386
tag	-11.3861
▁atraso	-11.3861
▁festiva	-11.3863
▁apo	-11.3866
urus	-11.3872
▁entran	-11.3873
▁rematada	-11.3876
▁Roque	-11.3878
▁soldado	-11.3879
▁Donostia	-11.388
▁UNESCO	-11.388
▁Valdoviño	-11.388
▁documentación	-11.3883
melo	-11.3884
▁asalto	-11.3885
zza	-11.3885
▁-3	-11.3887
▁más	-11.3888
▁serbia	-11.3889
▁parques	-11.389
▁construídos	-11.389
▁cume	-11.389
▁1500	-11.3892
plíca	-11.3893
▁celeste	-11.3895
▁estraño	-11.3895
▁roubo	-11.3895
▁Orixinal	-11.3895
▁asteroide	-11.3896
▁Congo	-11.3898
▁125	-11.3902
▁departamentos	-11.3904
elas	-11.3915
RP	-11.3916
lent	-11.3916
▁Franz	-11.3922
▁institu	-11.3922
▁anxo	-11.3922
▁escoitar	-11.3928
ech	-11.3933
▁Acción	-11.3936
lico	-11.394
▁etnia	-11.3943
▁Comba	-11.3944
▁pedi	-11.3945
row	-11.3947
emade	-11.3949
▁Espa	-11.3949
▁pór	-11.3954
▁directora	-11.3955
▁Albania	-11.3957
▁estendida	-11.3959
▁ecuacións	-11.396
▁sobe	-11.3962
▁adaptada	-11.3966
nucleótido	-11.3966
▁lá	-11.3968
▁transbordador	-11.3968
▁sacrificio	-11.3968
▁dramática	-11.3968
▁poñen	-11.3969
▁Sá	-11.3969
▁forzado	-11.3971
▁repetición	-11.3974
▁Palm	-11.3975
clus	-11.3976
ntino	-11.3977
rot	-11.3979
CoA	-11.3979
▁Kal	-11.3979
▁retoma	-11.3981
▁académica	-11.3983
▁intercambia	-11.3983
▁recompilatorio	-11.3984
▁Ebro	-11.3986
▁Chipre	-11.3987
▁Kor	-11.3987
AG	-11.3988
▁solista	-11.399
formi	-11.3992
▁Brad	-11.3993
▁numera	-11.3993
▁calcular	-11.3996
▁gravada	-11.3998
▁pato	-11.3998
▁marqués	-11.3998
▁convención	-11.3998
cup	-11.3999
▁procesamento	-11.4
▁1863	-11.4002
ear	-11.4007
mín	-11.4007
▁Rubi	-11.4009
fir	-11.4012
▁Carballiño	-11.4013
▁extraordinaria	-11.4013
▁inversa	-11.4013
▁observado	-11.4013
uli	-11.4015
▁molde	-11.4018
▁expulsa	-11.4021
▁renome	-11.4022
▁puntua	-11.4022
icular	-11.4023
▁Fred	-11.4023
▁Moreno	-11.4025
▁vivenda	-11.4026
▁ferroviaria	-11.4028
eve	-11.4029
▁97	-11.4029
▁Prix	-11.4029
▁tracto	-11.4033
▁froita	-11.4033
▁cultivar	-11.4035
▁Julia	-11.4036
▁competi	-11.4036
▁Celtics	-11.4038
▁afirman	-11.4038
▁persas	-11.4039
dita	-11.4041
▁Institute	-11.4042
▁fotografías	-11.4042
▁Stewart	-11.4043
▁renunciou	-11.4043
▁gobernar	-11.4045
esou	-11.4047
▁trastorno	-11.4047
▁rodaxe	-11.4051
▁repara	-11.4051
▁Master	-11.4051
▁falece	-11.4055
▁verso	-11.4055
ço	-11.4055
▁Monta	-11.4057
▁occidente	-11.4058
▁xurídica	-11.4058
▁Ancares	-11.4058
▁sensibilidade	-11.4058
▁Mass	-11.4058
▁litros	-11.4061
▁principado	-11.4062
▁Leonor	-11.4064
▁Ría	-11.4066
▁arqui	-11.4067
▁hor	-11.4067
▁protestante	-11.4067
▁Das	-11.407
mido	-11.4072
▁Pontedeume	-11.4073
▁automobilismo	-11.4073
▁holandés	-11.4073
▁Flandres	-11.4073
▁trouxo	-11.4073
▁impreso	-11.4073
▁Sou	-11.4074
▁expertos	-11.4074
NP	-11.4075
▁dándolle	-11.4076
▁dimisión	-11.4076
▁Neves	-11.4078
▁psico	-11.4079
▁integrou	-11.408
▁Caixa	-11.4082
mentación	-11.4083
▁técnicos	-11.4083
▁Fun	-11.4085
▁amosan	-11.4086
▁Bé	-11.4087
▁notables	-11.4087
▁Puerto	-11.4088
▁promesa	-11.4088
▁adquire	-11.4088
▁basal	-11.4089
▁1867	-11.4093
▁cadrada	-11.4093
▁gobernou	-11.4093
Co	-11.4094
▁Vive	-11.4096
▁Vella	-11.4096
▁aborda	-11.4096
▁Igual	-11.4097
cola	-11.4099
▁Carballedo	-11.4103
▁dispersión	-11.4103
▁filosófica	-11.4103
▁internet	-11.4105
oxi	-11.4107
▁protagonizada	-11.4108
▁Barrio	-11.4111
▁nacido	-11.4111
▁encargo	-11.4111
▁leu	-11.4115
▁ferido	-11.4115
▁segura	-11.4116
▁imaxina	-11.4117
▁Cervantes	-11.4118
orn	-11.4119
▁cranio	-11.4119
▁87	-11.412
▁Estonia	-11.412
▁enfrontarse	-11.4123
gulación	-11.4125
inae	-11.4126
ác	-11.413
▁fértil	-11.4133
▁consenso	-11.4133
▁codia	-11.4133
▁campamento	-11.4133
tara	-11.4135
▁somete	-11.4144
pur	-11.4147
▁mini	-11.4147
érase	-11.4147
▁viquingo	-11.4148
▁Nicolás	-11.4148
▁Xen	-11.4148
▁vaso	-11.4148
▁turística	-11.4148
▁marcador	-11.4149
▁forno	-11.4151
▁exhibición	-11.4152
▁dona	-11.4154
▁obten	-11.4155
ínico	-11.4157
▁-1	-11.4158
▁entregado	-11.416
ctivamente	-11.4161
▁defensiva	-11.4163
▁competencias	-11.4163
▁Hum	-11.4163
▁sesións	-11.4163
▁feixe	-11.4164
▁Cata	-11.4164
▁bispos	-11.4165
▁Four	-11.4165
▁subministración	-11.4167
▁meso	-11.4167
▁salas	-11.417
▁Gale	-11.4171
iv	-11.4171
▁xel	-11.4172
▁Proc	-11.4175
▁confia	-11.4177
▁Cle	-11.4177
▁Had	-11.4177
▁Generalitat	-11.4178
▁ucraíno	-11.4178
▁Bierzo	-11.4178
▁Old	-11.4179
▁bloques	-11.4179
▁estender	-11.4181
▁asimila	-11.4182
▁Dallas	-11.4185
▁rato	-11.4185
laxe	-11.4187
▁deberían	-11.4188
▁explora	-11.4189
ert	-11.4191
▁resist	-11.4192
▁Baloncesto	-11.4193
▁Seguridade	-11.4193
▁dixestivo	-11.4193
▁rescata	-11.4194
▁Alasca	-11.4194
▁raia	-11.4196
▁celtas	-11.4198
▁republicanos	-11.4199
▁aplicada	-11.42
ME	-11.42
▁rompeu	-11.4201
▁apartado	-11.4202
▁falaba	-11.4203
▁Blo	-11.4203
TC	-11.4203
▁indíxena	-11.4204
▁nubes	-11.4206
▁Bouza	-11.4206
talo	-11.4207
▁dé	-11.4207
▁encontrou	-11.4208
▁bizantina	-11.4208
▁gabinete	-11.4208
▁fósil	-11.4209
▁Especial	-11.4209
▁superou	-11.421
▁plumaxe	-11.421
▁choca	-11.421
▁elixiu	-11.421
▁Alfred	-11.4211
▁terían	-11.4214
▁podendo	-11.4215
RM	-11.4216
▁Clemente	-11.4217
bica	-11.4218
μ	-11.4221
▁Goya	-11.4221
▁EE	-11.4221
▁zume	-11.4222
▁botánica	-11.4224
▁Victor	-11.4228
gad	-11.4229
▁Solar	-11.423
▁infect	-11.4231
crito	-11.4232
▁funcionais	-11.4234
▁Stalin	-11.4234
▁abertas	-11.4235
▁exporta	-11.4238
▁Seminario	-11.4239
▁Preto	-11.4239
▁Open	-11.4239
▁dourada	-11.4243
▁1874	-11.4244
▁relixións	-11.4246
▁Qa	-11.4249
▁corno	-11.4249
AL	-11.425
▁peculiar	-11.4251
▁parentes	-11.4253
▁Lamas	-11.4253
▁Reco	-11.4254
▁Toquio	-11.4254
▁Tailandia	-11.4254
▁host	-11.4255
▁promete	-11.4257
fecto	-11.4257
▁nucleo	-11.4257
▁cualifica	-11.4257
▁outorgado	-11.4259
▁Andre	-11.4262
▁privadas	-11.4264
bacter	-11.4264
▁distancias	-11.4265
▁intre	-11.4266
▁estudios	-11.4269
▁Xibraltar	-11.4269
▁Xirona	-11.4269
▁cabaleiros	-11.427
▁gótica	-11.4271
organ	-11.4272
riana	-11.4273
▁Heat	-11.4275
▁1875	-11.4276
perante	-11.4276
▁83	-11.4278
tile	-11.4279
▁esperar	-11.4284
▁Villeneuve	-11.4285
▁cereais	-11.4285
▁telescopio	-11.4285
▁impar	-11.4285
▁1864	-11.4289
nlle	-11.4289
▁medrar	-11.4293
▁comparte	-11.4293
▁Tou	-11.4293
óforo	-11.4294
▁Team	-11.4295
▁Jane	-11.4298
▁publicaron	-11.4298
▁91	-11.4299
gana	-11.4299
▁expulsión	-11.43
▁lingüista	-11.43
▁Jam	-11.4301
▁actina	-11.4302
▁necesitan	-11.4302
▁investiga	-11.4304
▁Compa	-11.4304
▁elaborada	-11.4305
▁Rivas	-11.4308
▁Gene	-11.4308
glu	-11.4309
▁esquina	-11.4312
rva	-11.4312
▁nativo	-11.4313
▁incluídas	-11.4315
▁anglosaxón	-11.4315
▁transcende	-11.4317
▁alá	-11.4317
▁viola	-11.4318
▁Funda	-11.432
▁ocupan	-11.4324
▁ascendeu	-11.4325
▁Realizou	-11.4326
▁Aos	-11.4326
pso	-11.4328
here	-11.4329
cript	-11.4329
▁tanta	-11.433
▁nomenclatura	-11.4331
▁cantiga	-11.4331
▁clero	-11.4331
▁reduciu	-11.4331
▁traxedia	-11.4331
▁Chegou	-11.4332
▁verte	-11.4333
▁Bernardo	-11.4333
ófilos	-11.4334
▁1866	-11.4335
▁emigrante	-11.4337
lida	-11.4339
mata	-11.4344
▁sinatura	-11.4346
▁vendida	-11.4347
▁prefire	-11.435
▁Dos	-11.435
▁seguramente	-11.4354
▁Otto	-11.4356
▁silencio	-11.4357
▁parto	-11.436
▁Ecuador	-11.4361
▁dividiu	-11.4362
▁Arabia	-11.4365
▁contracción	-11.4365
▁conduce	-11.4366
▁partiu	-11.4366
▁Portela	-11.4366
▁Grove	-11.4366
▁india	-11.4367
▁instalouse	-11.4368
▁cómic	-11.4372
▁clon	-11.4372
▁Pont	-11.4373
▁invertebrados	-11.4377
▁escocesa	-11.4377
▁Editorial	-11.4377
▁refuxiados	-11.4378
▁Óscar	-11.4379
▁pregamento	-11.4379
▁cinto	-11.4379
▁Bruce	-11.4383
▁Nick	-11.4387
▁Acerbaixán	-11.4392
▁excesiva	-11.4392
▁Monfero	-11.4392
▁perdida	-11.4396
▁predador	-11.4399
▁marxina	-11.4401
▁capit	-11.4404
tela	-11.4405
▁Microsoft	-11.4408
▁cervexa	-11.4408
▁vasalo	-11.4408
▁Esparta	-11.4408
▁exemplar	-11.4408
▁canteira	-11.4409
▁Union	-11.441
▁excede	-11.441
▁100.000	-11.441
▁carlista	-11.4412
▁Rúa	-11.4413
guin	-11.4415
▁cota	-11.4416
poñen	-11.4423
▁Considérase	-11.4423
▁inclusión	-11.4423
▁Laracha	-11.4423
▁cacho	-11.4424
▁acudir	-11.4424
▁contando	-11.4424
▁colocar	-11.4426
▁ascende	-11.4429
pera	-11.4436
▁troco	-11.4438
▁Gian	-11.4439
trans	-11.4439
▁cinc	-11.4439
▁Illinois	-11.4439
▁olímpico	-11.4439
▁glico	-11.4439
▁emprende	-11.444
▁Crea	-11.4441
▁Checa	-11.4446
▁disputada	-11.4455
▁Ordes	-11.4455
▁Kam	-11.4457
▁pataca	-11.4458
▁London	-11.4458
▁entende	-11.446
▁conservar	-11.4469
▁salientar	-11.4469
eti	-11.4469
▁ábsida	-11.447
▁Trofeo	-11.447
▁Saúde	-11.447
lleiro	-11.4471
▁nomear	-11.4472
▁abuso	-11.4474
▁ausente	-11.4478
▁impulsa	-11.4483
▁encabezou	-11.4486
▁valenciano	-11.4486
▁sedimentos	-11.4486
▁percibi	-11.4486
▁seminario	-11.4486
▁fuga	-11.4487
ámico	-11.4487
▁Tomás	-11.4487
▁aventura	-11.4489
polo	-11.4493
tónica	-11.4496
▁Rob	-11.4498
▁cabelo	-11.45
▁Paio	-11.45
áculo	-11.4501
worth	-11.4501
▁Hockey	-11.4501
▁Singapur	-11.4501
▁Comercio	-11.4501
▁astronomía	-11.4501
▁faraón	-11.4503
▁atraer	-11.4504
ance	-11.4504
▁Dub	-11.4505
▁Adolfo	-11.4506
▁capturar	-11.4507
▁Fall	-11.451
▁Luci	-11.4515
▁Jeff	-11.4516
▁Alt	-11.4517
▁Northumbria	-11.4517
▁dicionario	-11.4517
▁epidemia	-11.4517
▁saen	-11.4521
▁chairas	-11.4529
▁parasitos	-11.453
▁Eurocopa	-11.4533
▁bóla	-11.4533
▁Stefan	-11.4533
▁aproveitar	-11.4538
▁cinta	-11.4543
▁consecutivas	-11.4545
▁esencia	-11.4545
▁anatomía	-11.4548
▁óptica	-11.4548
▁evolucionou	-11.4548
▁móbil	-11.4549
▁corporación	-11.4552
▁900	-11.4553
▁raio	-11.4556
▁ingreso	-11.4557
▁aprecia	-11.4565
▁teórica	-11.4565
▁2,5	-11.457
▁violación	-11.4571
▁patio	-11.4571
blo	-11.4572
▁directiva	-11.458
▁sorpresa	-11.458
▁sulfato	-11.458
▁Howard	-11.4583
fór	-11.4583
▁Romero	-11.4583
▁gobernos	-11.4589
▁turbo	-11.4589
▁espi	-11.459
▁sho	-11.459
▁Pale	-11.4591
▁Ave	-11.4592
▁patóxenos	-11.4593
▁medrou	-11.4596
▁globo	-11.4596
▁Tel	-11.4596
▁Tara	-11.4598
▁noveno	-11.46
▁borra	-11.4601
eca	-11.4602
▁Debe	-11.4603
▁Cangas	-11.4604
▁Bau	-11.4605
▁Constru	-11.4608
▁salón	-11.4611
▁idéntica	-11.4611
▁inmigración	-11.4611
▁vicerrei	-11.4611
▁étnica	-11.4611
▁chineses	-11.4612
▁ascendencia	-11.4612
▁Porsche	-11.4613
▁Bernard	-11.4613
▁esquí	-11.4616
▁STS	-11.4617
ray	-11.4618
ciente	-11.4622
▁experimentou	-11.4623
▁amais	-11.4623
▁Missouri	-11.4627
▁Cambre	-11.4629
▁respiración	-11.4631
▁situ	-11.4632
▁dada	-11.4634
▁esperaba	-11.4635
▁compromet	-11.4636
▁93	-11.4638
▁Paris	-11.4638
▁feridos	-11.4638
▁dimiti	-11.4638
▁dalgún	-11.464
▁glic	-11.4641
▁comporta	-11.4642
▁democrático	-11.4643
ísima	-11.4643
▁Clara	-11.4644
frica	-11.4651
▁Agrupación	-11.4659
▁Groenlandia	-11.4659
▁arranxo	-11.4659
▁xurídico	-11.4659
▁lucense	-11.4659
▁fála	-11.4659
▁macizo	-11.4659
▁investigar	-11.4659
▁vertente	-11.466
▁ampliou	-11.4661
▁inspirada	-11.4661
▁prohibido	-11.4662
vit	-11.4662
▁repeti	-11.4662
▁1833	-11.4663
▁1877	-11.4664
är	-11.4665
▁sólida	-11.4666
▁Newton	-11.4669
▁Kings	-11.4675
▁Tolosa	-11.4675
▁checo	-11.4676
▁resp	-11.4677
riza	-11.4678
▁sinalar	-11.4678
▁púxose	-11.4683
▁manto	-11.4686
▁Leva	-11.469
▁Nintendo	-11.4691
▁australiana	-11.4691
AD	-11.4692
▁proporcional	-11.4693
▁suborde	-11.4693
▁filas	-11.4693
▁urina	-11.4696
▁prazas	-11.4696
▁Exemplos	-11.4696
▁anglo	-11.4696
▁vesti	-11.4697
▁Lama	-11.4698
▁Tai	-11.47
▁articula	-11.4702
trica	-11.4704
▁substituto	-11.4705
▁Vivi	-11.4706
▁debilita	-11.4709
▁certame	-11.471
▁almacenamento	-11.4711
▁xuntas	-11.4712
▁banca	-11.4717
▁Pilar	-11.4718
▁autónomo	-11.4723
▁cuestiona	-11.4723
▁embarazo	-11.4723
thy	-11.4727
▁selva	-11.4728
▁propietarios	-11.4728
key	-11.4729
rik	-11.4735
creceu	-11.4736
▁mg	-11.4738
rana	-11.474
▁azuis	-11.474
▁má	-11.474
tari	-11.4741
villa	-11.4742
▁Pha	-11.4742
▁Gobernador	-11.4745
▁aguia	-11.4745
▁vivas	-11.4745
▁Zeus	-11.4747
▁formulación	-11.4747
▁melloras	-11.4754
SH	-11.4755
▁infanta	-11.4755
▁psicoloxía	-11.4755
▁bla	-11.4758
▁aliado	-11.476
▁Jer	-11.4761
▁ideais	-11.4765
▁lentamente	-11.4767
▁heavy	-11.4771
▁Stanley	-11.4771
▁Thor	-11.4771
▁ruído	-11.4772
▁señore	-11.4773
medi	-11.4774
▁imposto	-11.4775
▁Negra	-11.4775
▁emoción	-11.4775
liano	-11.4778
▁Operación	-11.4778
evo	-11.4779
▁compartir	-11.478
▁Alca	-11.4781
▁capta	-11.4781
dale	-11.4781
piro	-11.4782
▁paisaxes	-11.4783
▁cicl	-11.4787
▁Domínguez	-11.4787
▁Siberia	-11.4787
▁chuvia	-11.4788
▁criterio	-11.4791
▁deses	-11.4792
▁Apareceu	-11.4794
▁perigosa	-11.4795
▁Meira	-11.4797
▁Honda	-11.4798
▁Flo	-11.4798
▁consumidor	-11.4799
▁Cham	-11.48
▁Motor	-11.48
cord	-11.48
▁Emp	-11.4801
▁Sebastian	-11.4803
▁Índico	-11.4803
▁arrastra	-11.4803
▁manexa	-11.4804
▁Nava	-11.4806
formación	-11.4807
uza	-11.4813
butou	-11.4813
▁larva	-11.4814
veira	-11.4814
gata	-11.4816
▁simultanea	-11.4819
▁submarino	-11.4819
▁Fisterra	-11.4819
▁lírica	-11.4819
▁milicia	-11.4819
▁peregrinos	-11.482
▁ermida	-11.482
▁Parece	-11.4821
bola	-11.4821
▁bolxeviques	-11.4823
▁modificar	-11.4823
▁relevante	-11.4825
▁reproducir	-11.4829
▁misterio	-11.4831
chy	-11.4831
▁Xacobe	-11.4832
▁Honor	-11.4832
▁oído	-11.4833
▁sultán	-11.4835
▁andaluz	-11.4835
▁posibel	-11.4835
▁balance	-11.4836
▁contribucións	-11.4836
▁mudanza	-11.4836
mérica	-11.4837
▁tentar	-11.4837
▁acusa	-11.4842
▁MA	-11.4842
PD	-11.4848
▁correu	-11.4851
▁orixinando	-11.4851
▁Pensilvania	-11.4851
▁similitude	-11.4851
▁outorgou	-11.4851
▁Aethel	-11.4851
▁estrés	-11.4851
▁Conservatorio	-11.4852
▁Catarina	-11.4852
▁Xavier	-11.4852
▁obreiros	-11.4854
volucion	-11.4856
rella	-11.4857
mund	-11.4859
▁Times	-11.486
▁estrato	-11.4862
▁rever	-11.4865
▁comando	-11.4866
olu	-11.4866
▁atractivo	-11.4868
▁secuela	-11.4868
▁contemporáneo	-11.4874
▁Beck	-11.4879
▁Afganistán	-11.4884
▁Harvard	-11.4884
▁Méndez	-11.4884
▁defensivo	-11.4884
▁eventual	-11.4884
▁gaélico	-11.4884
▁vogal	-11.4885
▁fariña	-11.4886
ès	-11.4888
▁iniciado	-11.489
▁nervio	-11.4891
lib	-11.4891
▁Viana	-11.4892
iko	-11.4893
▁estendido	-11.4893
▁auxe	-11.4895
▁campións	-11.4896
▁modifica	-11.4896
▁estratéxica	-11.49
▁híbrido	-11.49
▁castaña	-11.49
▁Crimea	-11.49
▁legais	-11.49
rece	-11.4902
▁Concepción	-11.4904
emia	-11.4904
▁Espe	-11.4904
kra	-11.4904
▁Ruiz	-11.4905
▁clar	-11.4907
punt	-11.4909
▁perigoso	-11.4909
▁praga	-11.491
▁Alpes	-11.4911
wal	-11.4913
▁Luna	-11.4915
▁Sergi	-11.4916
▁ferroviario	-11.4916
▁descansa	-11.4917
▁Miranda	-11.4918
▁uva	-11.4919
▁mortalidade	-11.4919
▁Pesca	-11.492
etta	-11.4922
stone	-11.4922
▁inclu	-11.4923
▁SS	-11.4924
▁persegui	-11.4928
▁Regi	-11.4929
▁aproveitando	-11.4929
▁parlamentaria	-11.4934
cenas	-11.4935
▁secos	-11.4937
▁constancia	-11.4938
▁Bene	-11.4938
▁1808	-11.4939
Star	-11.494
▁daquel	-11.494
▁episcopal	-11.4943
▁Miller	-11.4944
▁96	-11.4945
▁Barreiro	-11.4945
UU	-11.4946
▁capitalismo	-11.4947
▁razas	-11.4947
▁Sau	-11.4949
▁renacentista	-11.4949
▁Russell	-11.4949
▁cruce	-11.4949
▁traspaso	-11.4949
▁incluían	-11.495
izando	-11.4951
▁empezar	-11.4952
▁Industrial	-11.4954
▁Magic	-11.4956
▁1812	-11.4957
▁Vidal	-11.4957
▁Din	-11.4957
vu	-11.4958
▁cliente	-11.4959
▁patrocinador	-11.4961
▁atacou	-11.4961
▁vestido	-11.4962
▁predica	-11.4964
▁materias	-11.4964
▁transformar	-11.4965
▁intracelular	-11.4965
▁almacén	-11.4965
▁colisión	-11.4965
▁Darío	-11.4968
▁Flores	-11.497
▁acorde	-11.497
iforme	-11.497
▁Glo	-11.4971
▁foille	-11.4979
▁autonómicas	-11.4981
quín	-11.4981
▁Quebec	-11.4982
▁aborixe	-11.4982
▁agraria	-11.4982
▁conformación	-11.4984
▁peteiro	-11.4984
▁leito	-11.4985
une	-11.4986
carp	-11.4988
▁ducia	-11.4989
▁Pau	-11.4989
▁Adoita	-11.4991
▁garantir	-11.4992
▁desenvolven	-11.4993
habilit	-11.4994
▁glaciar	-11.4998
▁fractura	-11.4998
▁término	-11.4998
▁apóstolo	-11.4998
▁tomado	-11.4999
duca	-11.5
▁Cedeira	-11.5001
▁Ann	-11.5002
▁mudar	-11.5003
▁fundamento	-11.5004
▁consecutivos	-11.5005
relo	-11.5007
icismo	-11.501
▁vivindo	-11.501
chada	-11.5013
▁resonancia	-11.5015
▁descanso	-11.5015
▁fermosa	-11.5015
▁dispersa	-11.5015
▁xenérico	-11.5015
▁Stadium	-11.5015
▁colapso	-11.5015
▁colocado	-11.5016
gul	-11.5017
moto	-11.5017
▁militantes	-11.5019
▁Valde	-11.5019
estre	-11.5019
▁desenvolvidos	-11.5022
▁conxunta	-11.5023
▁Kon	-11.5023
▁intestinal	-11.5023
sionista	-11.5026
▁mapas	-11.5026
ártica	-11.5027
▁enlaza	-11.5028
▁Met	-11.5028
▁conto	-11.503
▁crédito	-11.5031
▁informática	-11.5031
▁Templo	-11.5031
▁mísil	-11.5031
▁dominado	-11.5031
▁Wolf	-11.5032
▁Road	-11.5032
▁recordo	-11.5033
house	-11.5033
▁pá	-11.5036
▁Indiana	-11.5038
▁Couto	-11.5038
vet	-11.504
toxina	-11.504
▁culpa	-11.5043
▁apoiada	-11.5046
▁distribúe	-11.5048
▁dirixía	-11.5048
▁Jazz	-11.5048
▁fiel	-11.5053
▁orientada	-11.5058
nteriormente	-11.5058
▁Fle	-11.506
▁rex	-11.5062
▁expandi	-11.5062
▁Just	-11.5062
▁Mariano	-11.5064
ional	-11.5065
▁89	-11.5068
▁balón	-11.5069
▁video	-11.5069
▁pertenceu	-11.5073
▁SA	-11.5074
▁reivindica	-11.5074
▁andar	-11.5078
▁estímulo	-11.5081
▁Cerdedo	-11.5081
▁consoante	-11.5081
▁Espacial	-11.5081
▁circuítos	-11.5083
▁1854	-11.5085
▁disciplinas	-11.5089
▁matemáticos	-11.5089
▁abertos	-11.5091
▁Pascua	-11.5096
▁filoxenética	-11.5097
▁frontal	-11.5097
▁derivadas	-11.5098
▁Nicolao	-11.5098
IN	-11.51
▁cima	-11.5102
▁Rosario	-11.5103
eado	-11.5103
▁lente	-11.5104
▁1820	-11.5106
▁sú	-11.5108
▁Emilia	-11.511
▁Toro	-11.5111
EA	-11.5112
▁ensina	-11.5113
▁NASA	-11.5114
▁Bolivia	-11.5114
▁blues	-11.5114
▁véxa	-11.5114
▁Noroeste	-11.5114
▁xamais	-11.5114
hé	-11.5115
scríbese	-11.5115
íbeis	-11.5116
▁Miss	-11.5119
mén	-11.5124
▁substancial	-11.5124
▁msnm	-11.5131
▁diversific	-11.5132
▁básicas	-11.5133
fón	-11.5133
▁regularmente	-11.5134
-11	-11.5135
▁Ak	-11.514
▁metabólica	-11.5147
▁prominente	-11.5147
▁afección	-11.5147
▁recto	-11.5156
▁lunar	-11.5159
▁literarios	-11.5159
▁escapa	-11.5159
▁verba	-11.516
wulf	-11.516
corpo	-11.5162
▁Deputados	-11.5163
▁Guatemala	-11.5164
▁corrupción	-11.5164
▁evolutivo	-11.5164
▁fenotipo	-11.5164
▁idéntico	-11.5164
▁indirecta	-11.5164
▁silvestre	-11.5164
▁atómico	-11.5164
▁califa	-11.5165
▁xeolóxico	-11.5165
▁aposta	-11.5166
▁capitais	-11.5171
▁estrat	-11.5172
▁herbas	-11.5174
▁proporcionan	-11.5176
▁Xaim	-11.5176
amino	-11.5178
▁interesado	-11.5179
▁accedeu	-11.5179
▁Claudio	-11.5181
▁Eslovenia	-11.5181
▁adecuado	-11.5181
▁diplomática	-11.5181
▁abadía	-11.5182
▁testamento	-11.5183
▁Dragon	-11.5186
▁1835	-11.5187
monte	-11.5189
▁Bolo	-11.5191
▁criado	-11.5192
IP	-11.5193
shima	-11.5194
▁Vladimir	-11.5197
▁Anthony	-11.5197
▁polígono	-11.5197
▁desencadea	-11.5197
▁Ulloa	-11.5197
▁sétima	-11.5198
▁encaixa	-11.5198
▁inauguración	-11.5201
▁pasaría	-11.5203
▁previr	-11.5203
fila	-11.5203
▁regulador	-11.5204
raz	-11.5204
mand	-11.5206
▁literarias	-11.5209
▁venres	-11.521
▁Vermella	-11.5214
▁adopción	-11.5214
▁innovador	-11.5215
▁Pul	-11.5215
meno	-11.5217
▁diferencial	-11.5217
▁iluminación	-11.5219
▁falso	-11.522
▁Cent	-11.5222
cli	-11.5225
▁1.1	-11.5227
▁cruceiros	-11.5229
▁eléctricos	-11.5229
▁hist	-11.5229
▁Nado	-11.5229
▁Ródano	-11.5231
▁artificiais	-11.5231
▁atlántica	-11.5231
▁sometida	-11.5231
▁peto	-11.5231
▁with	-11.5232
▁Show	-11.5232
▁seareiro	-11.5232
▁Up	-11.5234
▁Rally	-11.5234
▁galaxia	-11.5237
▁Hong	-11.5237
diña	-11.5237
▁sorprendente	-11.524
pot	-11.5241
rom	-11.5242
▁xoves	-11.5246
▁teléfono	-11.5248
▁140	-11.5249
▁Dream	-11.5249
fusión	-11.5249
▁invitado	-11.5252
▁deseñou	-11.5253
vento	-11.5254
▁avanzado	-11.5255
▁Billy	-11.5262
xado	-11.5264
▁financiamento	-11.5265
▁Houston	-11.5265
▁retículo	-11.5265
▁Castrelo	-11.5265
▁repartido	-11.5265
▁pelexa	-11.5265
▁gaita	-11.5267
▁estendeuse	-11.5268
▁Valenciana	-11.527
▁mitocondrial	-11.5271
▁continúan	-11.5273
▁pozo	-11.5274
gil	-11.5276
▁cristais	-11.5278
▁Moderna	-11.5279
▁nazis	-11.5279
▁Shin	-11.528
▁cela	-11.528
▁contraria	-11.528
▁Ciudad	-11.5282
▁Lois	-11.5282
fensores	-11.5283
mpli	-11.5284
ítica	-11.5291
▁obxec	-11.5292
ntada	-11.5292
▁regato	-11.5293
SC	-11.5294
▁poderá	-11.5295
flex	-11.5303
▁dominación	-11.5308
▁Glen	-11.5311
▁Sob	-11.5312
▁crema	-11.5315
▁Tolkien	-11.5315
▁bacharelato	-11.5315
▁sucedido	-11.5315
▁teatrais	-11.5315
▁xermánica	-11.5315
▁Lleida	-11.5315
▁UD	-11.5321
▁Cinco	-11.5322
▁consider	-11.5322
▁rematado	-11.5322
chin	-11.5326
▁Lima	-11.5326
▁protestantes	-11.5329
▁virtual	-11.5333
▁nervios	-11.5334
▁mortal	-11.5334
▁volvería	-11.5335
▁iniciada	-11.5343
árona	-11.5345
puxo	-11.5347
óxido	-11.5348
▁ministerio	-11.5349
▁Convención	-11.5349
▁transformou	-11.5349
▁Arteixo	-11.535
▁marxista	-11.5353
issa	-11.5353
NT	-11.5356
▁invadi	-11.5358
▁colle	-11.5358
▁ameazada	-11.5359
enti	-11.536
ciden	-11.536
▁Pastor	-11.5361
▁comparti	-11.5362
▁escoller	-11.5365
ciana	-11.5366
▁Imperial	-11.5366
▁Montevideo	-11.5366
▁noruegués	-11.5366
▁sanguínea	-11.5366
▁Charlotte	-11.5366
▁concedido	-11.5366
▁protocolo	-11.5367
▁lousa	-11.537
dilla	-11.5374
▁Beach	-11.5376
▁Sonic	-11.5376
▁Ortegal	-11.5377
ien	-11.5379
wen	-11.5382
▁Edimburgo	-11.5383
▁cirurxía	-11.5383
▁fotógrafo	-11.5383
▁taxonomía	-11.5383
▁Balcáns	-11.5383
▁hidr	-11.5384
▁textura	-11.5384
▁colocou	-11.5384
▁conduto	-11.5387
▁biólogo	-11.5387
▁Fene	-11.5388
▁reto	-11.5388
▁Potter	-11.5389
mura	-11.539
▁350	-11.539
íde	-11.5393
▁Wel	-11.5394
▁pega	-11.5395
ppa	-11.54
▁táctica	-11.5401
▁dragón	-11.5401
▁Facenda	-11.5401
▁activado	-11.5401
▁aviación	-11.5403
▁gai	-11.5403
▁Correo	-11.5404
▁Falece	-11.5406
aire	-11.5408
pote	-11.5409
▁abandonada	-11.5414
dru	-11.5414
▁autoría	-11.5415
▁posuír	-11.5417
▁temperán	-11.5418
▁fotosíntese	-11.5418
▁Grammy	-11.5418
▁mesquita	-11.5419
▁Helena	-11.5419
▁burguesía	-11.542
▁vermellas	-11.5422
▁cultiva	-11.5423
cendi	-11.5424
ET	-11.5424
▁funcionarios	-11.5429
▁arquivos	-11.5429
▁ancha	-11.543
▁Salón	-11.5431
▁Boo	-11.5432
▁efectivos	-11.5432
▁Fuente	-11.5434
tza	-11.5435
▁Histórico	-11.5435
▁Noutra	-11.5435
▁castigo	-11.5435
▁Abd	-11.5436
▁Pier	-11.5436
▁influenciado	-11.5436
ció	-11.5438
ómero	-11.5443
▁observador	-11.5444
▁obradoiro	-11.5444
▁Nove	-11.5446
▁labra	-11.5447
▁compila	-11.5447
▁Marx	-11.545
dez	-11.5451
▁Izquierda	-11.5452
▁clínico	-11.5452
▁ribosoma	-11.5452
▁integrar	-11.5452
▁depredadore	-11.5455
▁Horas	-11.5455
▁faro	-11.5457
▁Toma	-11.5462
▁Herm	-11.5462
▁liderada	-11.5463
▁Boiro	-11.5465
▁Ph	-11.5466
▁94	-11.5466
▁velo	-11.5467
human	-11.5468
▁Bonaparte	-11.5469
▁beneficia	-11.5469
▁produza	-11.5469
▁arqueas	-11.547
▁ánimo	-11.547
clav	-11.5471
▁sagrado	-11.5471
▁Ash	-11.5472
iber	-11.5474
▁Medina	-11.5475
▁edific	-11.5476
▁crían	-11.5476
▁ética	-11.548
ère	-11.5481
▁Xan	-11.5481
▁Dre	-11.5482
▁Etiopía	-11.5486
▁decisiva	-11.5487
▁feudal	-11.5487
▁Seattle	-11.5487
▁vestixio	-11.5487
▁militante	-11.5488
▁Vel	-11.5488
▁Atlas	-11.549
▁separou	-11.549
▁1862	-11.5491
▁Antí	-11.5493
▁Luxemburgo	-11.5494
dur	-11.5494
ough	-11.5494
▁sentimentos	-11.5496
▁1800	-11.5496
▁Bank	-11.55
hib	-11.55
▁espiña	-11.5501
▁florece	-11.5503
▁Saxonia	-11.5504
▁Antártida	-11.5504
▁divindade	-11.5504
▁nórdico	-11.5504
▁solicitou	-11.5504
▁Panamá	-11.5504
▁soterrado	-11.5504
▁Iván	-11.5504
ket	-11.5504
▁auxiliar	-11.5506
▁ascender	-11.5506
indu	-11.5507
mma	-11.5509
▁excita	-11.551
▁escuras	-11.5512
▁deixan	-11.5512
▁Sendo	-11.5512
etti	-11.5513
▁nó	-11.5513
hidroxi	-11.5516
▁Marc	-11.5519
▁retratos	-11.5521
▁cardíaco	-11.5521
▁Paraguai	-11.5521
▁Caldelas	-11.5521
▁Otomán	-11.5521
▁distante	-11.5521
▁Sever	-11.5524
▁imparti	-11.5524
▁oligo	-11.5525
▁retirou	-11.5525
▁estatuas	-11.5525
▁mitocondrias	-11.5528
▁respondeu	-11.5529
▁alter	-11.5531
▁Carra	-11.5535
▁Paquistán	-11.5538
▁filosófico	-11.5538
▁guerrilla	-11.5538
▁misioneiro	-11.5538
▁revelou	-11.5538
▁rumbo	-11.5541
▁típicos	-11.5544
remos	-11.5548
rgan	-11.5548
ferente	-11.5548
▁faga	-11.5551
▁maia	-11.5554
▁válvula	-11.5556
▁xuventude	-11.5556
▁Arg	-11.5556
▁Ful	-11.5556
▁partícula	-11.5556
▁fermentación	-11.556
▁Canaria	-11.5561
▁Emil	-11.5564
▁Susan	-11.5565
Po	-11.557
▁Nin	-11.557
ald	-11.5571
▁circunscrición	-11.5573
▁defínese	-11.5573
▁arqueólogo	-11.5573
Cotobade	-11.5573
mú	-11.5574
▁aprendeu	-11.5574
▁sábe	-11.5575
▁Oliver	-11.5576
▁proceden	-11.5577
▁1815	-11.558
▁Arias	-11.558
▁Local	-11.5581
vier	-11.5581
▁modula	-11.5583
▁penal	-11.5584
▁conversa	-11.5586
▁SD	-11.5587
▁Nilo	-11.559
▁Sadurniño	-11.5591
▁apéndice	-11.5591
▁Oficina	-11.5591
▁aleatoria	-11.5591
▁festividade	-11.5591
▁Radical	-11.5591
feita	-11.5591
▁cloruro	-11.5591
▁convocado	-11.5591
▁lidera	-11.5592
xénicos	-11.5597
▁Johan	-11.5597
feld	-11.5598
ghi	-11.5601
▁Gru	-11.5604
▁laboral	-11.5606
▁compartido	-11.5606
▁entregou	-11.5607
▁Euskadi	-11.5608
▁maquinaria	-11.5608
▁xermánico	-11.5608
▁Agustín	-11.5608
▁pantanos	-11.5608
▁orixinan	-11.5612
▁decorado	-11.5612
▁espectáculos	-11.5613
live	-11.5613
▁traxe	-11.5621
▁fino	-11.5622
tini	-11.5622
miro	-11.5624
dido	-11.5625
▁Galeguista	-11.5625
▁combustión	-11.5625
▁Maza	-11.5626
▁demarcación	-11.5626
▁Gy	-11.5626
▁IP	-11.5626
▁propaganda	-11.5626
▁editar	-11.5628
wiki	-11.5628
recido	-11.5628
▁valeu	-11.563
dución	-11.563
cena	-11.563
▁cedo	-11.5631
fun	-11.5635
▁ampliar	-11.5637
▁Cala	-11.5637
icul	-11.5641
▁histori	-11.5643
▁exipcia	-11.5643
▁irlandeses	-11.5643
▁xermina	-11.5644
▁gregoriano	-11.5645
▁1857	-11.5648
▁apoder	-11.5648
▁delta	-11.5649
▁Laxe	-11.565
▁retira	-11.5651
▁guerreiros	-11.5654
▁Lau	-11.5654
▁ladeira	-11.5656
▁manual	-11.566
Ro	-11.566
▁fantasía	-11.5661
▁desembarco	-11.5661
▁escaseza	-11.5661
▁úsan	-11.5661
▁Beatles	-11.5661
▁Alice	-11.5665
▁Your	-11.5666
▁diferenciar	-11.5668
▁pensou	-11.5669
▁consideraban	-11.5669
▁Industria	-11.5673
▁rodean	-11.5674
▁Cela	-11.5674
▁mantiveron	-11.5678
▁progresivo	-11.5678
▁cuartel	-11.5678
presión	-11.5679
▁protector	-11.5681
▁Liña	-11.5684
▁cuña	-11.5687
umentando	-11.5687
▁arquivo	-11.5687
uído	-11.5688
▁Ré	-11.569
▁cabra	-11.5693
▁alba	-11.5694
▁Hércules	-11.5696
▁emblema	-11.5696
▁loitou	-11.5698
▁detención	-11.5699
▁frecha	-11.5701
▁1836	-11.5701
▁establecendo	-11.5702
▁cruzamento	-11.5703
tten	-11.5705
jer	-11.5705
▁elaborar	-11.5706
▁bala	-11.5709
▁curmán	-11.5711
▁BMW	-11.5713
▁Marshall	-11.5713
▁acuática	-11.5713
▁disposta	-11.5714
▁vangarda	-11.5714
flor	-11.5714
▁discográfico	-11.5717
▁torna	-11.5718
▁atrae	-11.5719
▁ISO	-11.5719
▁Rica	-11.5722
▁delgado	-11.5724
▁Get	-11.5724
▁ligamento	-11.5727
▁Mach	-11.5727
▁RE	-11.5728
▁contrasta	-11.5728
▁adestra	-11.5729
▁concedeu	-11.573
▁detalle	-11.5731
▁freguesía	-11.5731
atolicismo	-11.5731
▁extinta	-11.5731
ort	-11.5732
▁substituí	-11.5734
▁amino	-11.5735
▁comprobar	-11.5739
▁tapa	-11.5743
blasto	-11.5743
▁semanal	-11.5745
▁Arquitectura	-11.5749
▁astronauta	-11.5749
▁Oficial	-11.5749
▁Corporación	-11.5749
exo	-11.5752
ibar	-11.5756
ceta	-11.5756
▁condiciona	-11.5756
VI	-11.5757
cende	-11.5759
▁Metro	-11.576
▁Kant	-11.5764
▁Báltico	-11.5766
▁Watson	-11.5766
▁longametraxe	-11.5766
▁peninsular	-11.5766
▁Proto	-11.5766
▁esporas	-11.5767
▁Linné	-11.5767
graph	-11.5768
▁gameto	-11.5768
▁Ivan	-11.5769
▁esgota	-11.577
mega	-11.5773
▁restricións	-11.5773
proteína	-11.5774
▁inaugurada	-11.5778
▁centrada	-11.5781
▁Hard	-11.5781
▁Dave	-11.5784
▁Código	-11.5784
▁Wessex	-11.5784
▁Alxeria	-11.5784
▁esposo	-11.5784
▁incapa	-11.5787
▁alimentan	-11.5787
▁motiva	-11.5788
▁Light	-11.5791
▁parda	-11.5792
gall	-11.5792
▁ofrecen	-11.5793
▁Zona	-11.5798
▁representativo	-11.58
▁lexislativo	-11.5802
▁oceánica	-11.5802
vision	-11.5802
▁GT	-11.5803
▁aproximada	-11.5806
cero	-11.5807
▁Great	-11.5812
▁operar	-11.5815
▁deberá	-11.5815
▁conectado	-11.5817
▁indie	-11.5817
▁trato	-11.5819
▁cultivada	-11.5819
▁Capitán	-11.582
▁harmonía	-11.582
▁Hamburgo	-11.582
▁estatais	-11.582
ARN	-11.5821
mut	-11.5821
▁sá	-11.5821
▁fibro	-11.5824
DH	-11.5825
▁escisión	-11.5826
▁Nogueira	-11.5826
cepción	-11.5826
▁pecado	-11.5827
▁sobreviviu	-11.5832
▁afirmar	-11.5833
▁Marta	-11.5838
▁Baleares	-11.5838
▁Pueblo	-11.5838
▁diagnostic	-11.5838
▁doméstica	-11.5838
▁xuvení	-11.5838
▁cálido	-11.5838
▁Labor	-11.584
▁pese	-11.5844
▁Christ	-11.5848
▁alimentaria	-11.585
Na	-11.5853
mundo	-11.5855
▁triangular	-11.5856
▁Liverpool	-11.5856
▁Studios	-11.5856
▁imprenta	-11.5856
▁encabeza	-11.5859
▁mostraron	-11.5864
izante	-11.5867
lien	-11.5868
▁relevantes	-11.5869
peri	-11.5869
▁fórma	-11.5871
xénico	-11.5872
▁q	-11.5872
▁franquismo	-11.5873
dif	-11.5874
▁presentaba	-11.5874
▁Kevin	-11.5875
▁medicamentos	-11.5876
▁Warner	-11.5876
FC	-11.5878
tend	-11.5879
▁Pal	-11.5879
▁proteico	-11.5879
wich	-11.5879
ouno	-11.588
sigo	-11.5883
oeste	-11.5884
▁agudo	-11.5885
▁fixación	-11.5891
▁docente	-11.5891
▁decisivo	-11.5892
▁reactivo	-11.5892
▁Nikola	-11.5892
volt	-11.5895
micina	-11.5896
ML	-11.5897
▁1859	-11.5897
▁urban	-11.59
▁Gü	-11.59
old	-11.5901
▁comproba	-11.5901
árase	-11.5904
▁prega	-11.5904
PC	-11.5905
hara	-11.5905
▁únense	-11.5909
▁defendía	-11.5909
▁preséntase	-11.591
▁interface	-11.591
▁Luz	-11.5911
▁pesetas	-11.5911
▁Demo	-11.5911
▁ABC	-11.5911
▁xema	-11.5916
▁peste	-11.5917
▁pulo	-11.5918
▁enviada	-11.5918
ibilidade	-11.5918
▁procedementos	-11.5919
▁pasta	-11.592
éli	-11.592
▁pó	-11.5927
▁alcumado	-11.5927
▁galeguista	-11.5927
▁xerarquía	-11.5928
▁vogai	-11.5928
▁cruzados	-11.5928
▁quimio	-11.5929
▁rumore	-11.5929
puta	-11.5929
aro	-11.5929
▁Platón	-11.5932
▁noventa	-11.5934
óc	-11.594
▁Vall	-11.5941
▁microbio	-11.5943
▁Corporation	-11.5945
▁Familia	-11.5945
▁Filadelfia	-11.5945
▁requisito	-11.5945
▁Belgrado	-11.5946
▁Persia	-11.5948
▁gañado	-11.5951
▁Muller	-11.5951
tización	-11.5953
▁traducir	-11.5955
1-	-11.5956
hir	-11.5956
▁espacia	-11.5957
▁afastada	-11.5959
▁bolboreta	-11.5964
▁procesión	-11.5964
▁reconquista	-11.5964
▁avenida	-11.5964
▁Kir	-11.5965
▁facto	-11.5967
▁pracer	-11.5967
fé	-11.597
uit	-11.5972
▁rexeitar	-11.5974
lav	-11.5975
ividade	-11.5977
▁comparada	-11.5977
▁Chega	-11.5978
▁Micro	-11.5981
▁Bohemia	-11.5982
▁Alcalá	-11.5982
▁Unidade	-11.5985
▁viaxeiros	-11.5985
▁Casares	-11.5986
wall	-11.5987
▁bombas	-11.5987
▁Sc	-11.5988
▁lector	-11.5989
▁Branco	-11.599
ásica	-11.5991
idina	-11.5994
▁Laura	-11.5995
bacteria	-11.5997
▁prodúcen	-11.5997
pop	-11.5998
▁inventor	-11.6
ciño	-11.6
▁desenvólvese	-11.6
▁libreto	-11.6
▁Orange	-11.6
▁Schu	-11.6001
▁eslavos	-11.6002
▁involucra	-11.6005
porte	-11.6005
▁criou	-11.6007
▁Hotel	-11.6008
▁conquistada	-11.6009
▁vice	-11.6009
▁Canta	-11.6009
▁Unida	-11.601
▁Dick	-11.6011
▁Cin	-11.6016
▁Naquel	-11.6016
▁Shar	-11.6017
into	-11.6018
▁goleador	-11.6018
▁Galileo	-11.6018
▁Audiencia	-11.6018
▁aplicado	-11.6019
▁concluíu	-11.6019
▁Vilariño	-11.6021
▁1846	-11.6023
▁Nós	-11.6026
cco	-11.6027
scendeu	-11.6031
▁abdome	-11.6036
▁indoeuropea	-11.6036
▁promulga	-11.6036
▁décima	-11.6036
▁Kansas	-11.6037
▁superado	-11.6037
falante	-11.6037
▁Sada	-11.6038
▁santa	-11.6038
▁Maceda	-11.604
▁propón	-11.6043
mete	-11.6047
▁xove	-11.6049
▁Cesar	-11.6052
pac	-11.6053
▁Metropolitan	-11.6054
▁cardíaca	-11.6054
▁coñécense	-11.6054
▁rescate	-11.6055
▁Neda	-11.6055
▁Josef	-11.6056
▁simetría	-11.6059
▁esmaga	-11.606
▁provi	-11.606
MC	-11.6061
ófono	-11.6062
▁domésticos	-11.6062
▁han	-11.6064
▁estereo	-11.6066
▁Yama	-11.607
▁polares	-11.6072
pero	-11.6073
▁Complutense	-11.6073
▁Sydney	-11.6073
▁Varsovia	-11.6073
▁flaxelo	-11.6073
▁orgánulo	-11.6073
▁sistemática	-11.6073
▁substitúe	-11.6073
▁Claude	-11.6073
▁pianista	-11.6073
▁calcaria	-11.6073
▁debuxa	-11.6076
▁concorda	-11.6077
▁socialismo	-11.608
▁admira	-11.6085
▁monxe	-11.6087
álico	-11.6088
▁Cea	-11.6089
▁sentía	-11.6091
▁Historica	-11.6091
▁acredita	-11.6091
▁rexenera	-11.6092
▁fosforilación	-11.6096
▁monumental	-11.6097
▁montaxe	-11.61
nier	-11.6101
▁acoller	-11.6102
struc	-11.6106
gó	-11.6109
▁utilidade	-11.6109
▁descontento	-11.611
▁sufraxio	-11.611
▁Carol	-11.6111
▁lun	-11.6111
▁1858	-11.6114
▁referido	-11.6115
▁1809	-11.6116
▁Wild	-11.6118
▁responder	-11.612
▁adquirido	-11.612
▁merca	-11.6121
▁identificada	-11.6124
▁Gon	-11.6128
▁Science	-11.6128
▁certeza	-11.6128
▁exclusivo	-11.6128
▁fluvial	-11.6128
▁elefante	-11.6128
▁cativo	-11.6128
▁inhibe	-11.6128
▁fosfo	-11.6128
▁asignado	-11.6129
▁Sand	-11.6133
▁dedicarse	-11.6134
▁comentarios	-11.6135
▁lit	-11.6136
ciencia	-11.6137
▁Coll	-11.6138
▁construíron	-11.6139
▁compensa	-11.6141
NG	-11.6142
▁prior	-11.6142
▁exipcios	-11.6143
▁extraordinario	-11.6146
▁xuíces	-11.6146
▁eficiencia	-11.6146
▁convocatoria	-11.6147
▁greco	-11.6148
▁esperta	-11.6148
ht	-11.6152
asi	-11.6152
▁LP	-11.6154
▁levaría	-11.6157
▁Cher	-11.6157
▁comprou	-11.6158
ée	-11.6159
cionismo	-11.616
▁pil	-11.6162
▁anfibios	-11.6165
▁instaura	-11.6165
▁impediu	-11.6165
vila	-11.6167
▁milleiro	-11.6167
▁pechar	-11.617
▁proclamación	-11.6173
▁tea	-11.6174
▁causante	-11.6175
▁operador	-11.6175
itado	-11.6176
▁restante	-11.6177
▁eficaci	-11.6178
tuoso	-11.6179
▁defendeu	-11.618
tamina	-11.6181
▁serio	-11.6183
enza	-11.6183
▁engloba	-11.6186
▁Globo	-11.6187
ceira	-11.6188
iada	-11.619
▁neta	-11.619
▁trompeta	-11.6191
▁prisioneiro	-11.6192
▁aroma	-11.6197
▁lisa	-11.6198
▁xesuíta	-11.6202
▁Anderson	-11.6202
▁acollida	-11.6202
▁sucesivo	-11.6202
▁cobertura	-11.6202
▁sacra	-11.6202
▁mucosa	-11.6203
▁veñen	-11.6203
▁Gustav	-11.6207
ttle	-11.6208
III	-11.621
tili	-11.621
bot	-11.6212
▁vexa	-11.6215
▁impor	-11.6217
▁desenvolvendo	-11.6219
▁Phoenix	-11.622
▁confluencia	-11.622
▁engadindo	-11.622
▁linfocitos	-11.622
▁Iniciou	-11.622
▁concilio	-11.6221
▁cronista	-11.6221
▁histona	-11.6221
▁habitado	-11.6224
osoma	-11.6226
▁severa	-11.6228
▁esperma	-11.6228
▁axudan	-11.6229
▁saíron	-11.623
▁Llo	-11.6231
hman	-11.6232
tadores	-11.6233
▁uníronse	-11.6233
▁precipitación	-11.6234
▁Adrian	-11.6235
▁Chao	-11.6236
prop	-11.6238
▁escaravello	-11.6239
▁inspirou	-11.6239
▁restablece	-11.6239
▁Morte	-11.6239
▁Freire	-11.624
▁antenas	-11.6242
OR	-11.6247
▁venera	-11.6248
▁hum	-11.6249
▁listaxe	-11.6254
▁bloqueo	-11.6256
▁nacen	-11.6257
▁descubriron	-11.6257
▁adxectivo	-11.6257
▁bicicleta	-11.6257
▁dramaturgo	-11.6257
▁térmico	-11.6257
▁válido	-11.6257
▁Begonte	-11.6257
▁Estreou	-11.6258
▁aterraxe	-11.6258
SI	-11.6258
▁chumbo	-11.6258
▁Xogou	-11.6258
▁perfecto	-11.6259
▁introduce	-11.6263
▁xerado	-11.6264
▁barroca	-11.6264
▁Naval	-11.6266
▁receita	-11.6267
▁Verín	-11.6267
▁sor	-11.627
▁casada	-11.6272
▁Ciencia	-11.6273
▁Hat	-11.6273
beira	-11.6275
▁Danubio	-11.6276
▁anchura	-11.6276
▁procariota	-11.6276
▁Malaisia	-11.6276
▁avoga	-11.6277
▁declarar	-11.6277
▁Renfe	-11.6279
▁Salva	-11.628
▁xornalismo	-11.6286
▁microtúbulos	-11.6287
▁Mini	-11.6294
▁Oklahoma	-11.6295
▁Rand	-11.6296
▁comparado	-11.6297
▁masivo	-11.6298
mour	-11.6302
▁concentra	-11.6304
▁constituínte	-11.6314
▁dominada	-11.6314
▁tolera	-11.6314
▁ecolóxico	-11.6314
▁René	-11.6315
▁Ry	-11.6315
▁Información	-11.6316
neur	-11.6318
▁devolve	-11.6319
dil	-11.6319
▁Risco	-11.6319
▁fasci	-11.6321
▁Barreiros	-11.6322
eceu	-11.6324
▁Neo	-11.6328
tilo	-11.6329
▁cúmulo	-11.6332
▁ortodoxo	-11.6332
▁romántico	-11.6332
▁elenco	-11.6333
▁hispano	-11.6334
▁xacemento	-11.6335
▁Bronce	-11.6335
▁Considera	-11.6338
cate	-11.6339
▁parasito	-11.6343
fel	-11.6344
▁bancada	-11.6348
▁Esquerda	-11.6351
▁levouno	-11.6353
▁Capital	-11.6353
▁Code	-11.6353
▁Graham	-11.6353
▁gobernado	-11.6355
▁Walt	-11.6356
▁renunciar	-11.6358
▁Some	-11.636
▁computadora	-11.6361
trón	-11.6361
▁emite	-11.6362
▁compr	-11.6363
▁Ambas	-11.6365
produ	-11.6366
▁roman	-11.6367
▁almirante	-11.6368
uario	-11.6368
▁accede	-11.6369
▁Benetton	-11.637
▁atmosférica	-11.637
▁recompensa	-11.637
▁Herrera	-11.637
▁puidera	-11.637
▁maduro	-11.637
ófilo	-11.637
▁estraña	-11.637
▁determinante	-11.6371
▁húmidas	-11.6371
▁constitu	-11.6374
▁by	-11.6375
▁narrador	-11.6383
▁superan	-11.6385
▁Ferra	-11.6386
▁habería	-11.6387
▁Fundado	-11.6388
▁violento	-11.6389
▁alusión	-11.6389
▁pertencer	-11.6389
▁Mahler	-11.6389
▁Here	-11.6392
▁envía	-11.6394
▁cataliza	-11.6397
ífica	-11.6398
▁Schi	-11.6399
▁pigmentos	-11.6403
ön	-11.6406
▁sucesivamente	-11.6407
▁Copenhague	-11.6408
▁accesible	-11.6408
▁implantación	-11.6408
▁endémica	-11.6408
▁esplendor	-11.6408
▁Pá	-11.6409
▁emigr	-11.641
▁Azul	-11.6411
▁Morris	-11.6411
▁estudada	-11.6412
▁rostro	-11.6414
▁Marine	-11.6417
▁neutral	-11.6418
▁cera	-11.642
▁conservadores	-11.6422
▁Mit	-11.6423
▁Zen	-11.6426
▁Anjou	-11.6427
▁condución	-11.6427
puxéron	-11.6427
volución	-11.6429
▁recepción	-11.6432
▁Rodeiro	-11.6433
▁Pinto	-11.6433
▁inactiva	-11.6433
▁lacta	-11.644
opter	-11.6442
▁Católicos	-11.6445
▁climático	-11.6446
▁Premier	-11.6446
▁Rianxo	-11.6446
▁tratan	-11.6448
▁empregaba	-11.6453
EP	-11.6458
Alpes	-11.6458
xogador	-11.6459
▁Gustavo	-11.646
ipo	-11.6461
▁licenciou	-11.6464
▁Apóstolo	-11.6465
▁holandeses	-11.6465
▁veterano	-11.6465
▁Xixón	-11.6466
▁microscopio	-11.6466
▁conservadora	-11.6467
lata	-11.6467
▁Pé	-11.6469
vre	-11.647
▁graduou	-11.6473
▁Massa	-11.6473
▁observada	-11.6476
▁atrasa	-11.648
▁matou	-11.6482
▁amiga	-11.6483
▁Kennedy	-11.6484
▁significou	-11.6484
▁subcampión	-11.6484
▁tecnolóxico	-11.6484
▁tinguidura	-11.6484
▁Segovia	-11.6484
▁modern	-11.6484
ос	-11.6487
box	-11.6487
▁1847	-11.6489
▁traduc	-11.649
▁Teoría	-11.6493
ílico	-11.6494
▁Anne	-11.6496
▁propaga	-11.6497
▁implicación	-11.6497
▁Dita	-11.6499
TM	-11.65
▁pale	-11.6502
▁Félix	-11.6503
▁Técnica	-11.6503
▁limpeza	-11.6503
▁práctico	-11.6503
▁caro	-11.6505
▁Tempo	-11.6506
▁citar	-11.6507
▁1.2	-11.6508
▁ingresa	-11.6508
bona	-11.652
▁ultravioleta	-11.6522
▁orixína	-11.6522
▁erosión	-11.6522
▁preserva	-11.6522
tábase	-11.6522
▁Sarmiento	-11.6523
▁triplo	-11.6523
▁emperadores	-11.6523
▁mio	-11.6524
▁bacteriano	-11.6524
itu	-11.6525
▁droga	-11.6525
▁proliferación	-11.6525
▁parente	-11.6527
▁Modern	-11.6527
▁incorporado	-11.653
▁pagán	-11.653
▁Prat	-11.6531
▁desempeñou	-11.6533
▁Golden	-11.6535
terapia	-11.6536
▁3000	-11.654
▁aristocracia	-11.6541
▁citocromo	-11.6541
▁feminismo	-11.6541
▁independentista	-11.6541
▁macrófagos	-11.6541
▁mérito	-11.6541
▁Marqués	-11.6541
▁antecesor	-11.6541
▁Gordon	-11.6542
▁operado	-11.6542
▁testa	-11.6543
▁exipcio	-11.6545
▁algodón	-11.6545
▁aliada	-11.6547
xén	-11.6555
▁casamento	-11.6556
▁Esti	-11.656
▁periférico	-11.656
▁gamma	-11.6561
▁Sábe	-11.6563
▁patrocin	-11.6563
▁ocorren	-11.6564
▁Mili	-11.6564
▁radia	-11.6568
▁primate	-11.6569
belo	-11.657
▁Blu	-11.6572
▁Soria	-11.6573
▁Guy	-11.6574
ary	-11.6575
▁anotador	-11.6576
cín	-11.6576
igh	-11.6576
BP	-11.6578
▁puxeron	-11.6578
▁Bóveda	-11.6579
▁Frankfurt	-11.6579
▁estímase	-11.6579
▁gradiente	-11.6579
▁Moeche	-11.6579
▁sufixo	-11.658
▁Town	-11.658
▁Saga	-11.658
▁novelista	-11.6581
élica	-11.6582
▁Pot	-11.6583
pado	-11.6583
▁fume	-11.6588
ulosa	-11.6592
▁Desa	-11.6593
▁desexaba	-11.6595
▁mancha	-11.6595
▁Lim	-11.6596
▁conxuga	-11.6596
SF	-11.6597
▁musulmán	-11.6599
▁Manhattan	-11.6599
▁cuántica	-11.6599
▁cónsul	-11.6599
▁fervenza	-11.6599
▁xermano	-11.6599
▁convidado	-11.6599
▁extremidade	-11.66
▁pechou	-11.66
▁procesa	-11.66
▁induce	-11.6603
▁arqueolóxico	-11.6605
▁diferenciada	-11.6605
▁viral	-11.6606
back	-11.6608
▁Arti	-11.6608
▁Meta	-11.661
▁pesados	-11.6611
▁Podemos	-11.6612
▁colga	-11.6614
▁xerou	-11.6614
▁montañoso	-11.6618
▁acomoda	-11.6618
▁escolta	-11.6619
▁codificada	-11.6621
▁preocup	-11.6623
▁radica	-11.6624
▁normativa	-11.6624
▁chamaba	-11.6626
ming	-11.6628
▁terminais	-11.663
▁transportar	-11.6631
▁105	-11.6632
▁negouse	-11.6634
▁Sound	-11.6634
lzamento	-11.6635
▁cumpri	-11.6636
gráfica	-11.6637
▁Bismarck	-11.6637
▁OTAN	-11.6637
▁parecida	-11.6637
▁peregrinación	-11.6638
▁orbita	-11.6638
▁enclave	-11.6639
▁Troia	-11.6642
▁crecen	-11.6643
▁Finais	-11.6643
liana	-11.665
▁Ramon	-11.6652
stad	-11.6655
▁Antena	-11.6656
▁Palla	-11.6656
irós	-11.6656
▁metrópole	-11.6657
▁potasio	-11.6657
▁embarca	-11.6657
▁Montero	-11.6658
vea	-11.6659
▁merece	-11.6659
ciña	-11.666
▁cheiro	-11.6661
▁equivale	-11.6661
▁utilizaron	-11.6666
▁coco	-11.6667
▁correctamente	-11.6669
ingen	-11.667
▁Alemán	-11.6671
▁Lí	-11.6672
▁divina	-11.6674
▁auténtico	-11.6676
▁descomposición	-11.6676
▁distintivo	-11.6676
▁institucional	-11.6677
▁romanés	-11.6677
▁buscaba	-11.6679
▁brillo	-11.6681
▁Guill	-11.6685
▁ceder	-11.6685
▁permitiulle	-11.6686
brado	-11.6692
VE	-11.6693
▁colocada	-11.6694
▁encarcerado	-11.6696
▁ibérico	-11.6696
▁insulina	-11.6696
▁xentilicio	-11.6696
▁Formula	-11.6696
▁Ontario	-11.6696
▁trombo	-11.6699
▁Ny	-11.67
▁cataloga	-11.6701
▁recibida	-11.6702
▁maxia	-11.6703
CP	-11.6704
▁cortar	-11.6712
▁Ponteareas	-11.6715
▁islámica	-11.6715
▁lexislativa	-11.6715
ófitas	-11.6715
▁transmite	-11.6717
▁concede	-11.672
▁boi	-11.6721
▁Alain	-11.6726
▁doméstico	-11.6726
▁present	-11.6729
▁acabado	-11.6729
▁Shu	-11.6732
niano	-11.6733
▁Demócrata	-11.6735
▁ganglio	-11.6735
MT	-11.6735
mula	-11.6736
▁durmi	-11.6737
▁Heart	-11.6738
▁construtor	-11.6739
▁trip	-11.6742
▁Lope	-11.6742
▁cometa	-11.6743
▁restrición	-11.6747
▁intermediario	-11.6747
minación	-11.6748
▁involucrado	-11.6748
▁antena	-11.6749
▁precede	-11.675
dominio	-11.675
▁encerra	-11.6751
▁instalado	-11.6751
▁Bird	-11.6752
▁repercusión	-11.6754
▁Orquestra	-11.6754
▁énfase	-11.6754
▁Abraham	-11.6754
▁xadrez	-11.6754
▁Orlando	-11.6754
quilla	-11.6755
▁proteica	-11.6758
▁Kre	-11.676
▁1837	-11.676
▁1856	-11.6761
▁toman	-11.6762
▁invadir	-11.6763
puxeron	-11.677
EM	-11.6771
▁Audi	-11.6774
▁devanceiro	-11.6774
▁Stein	-11.6774
▁aniña	-11.6778
▁permanenc	-11.6778
▁camp	-11.6784
▁Douro	-11.6785
▁envolve	-11.6786
nça	-11.6791
▁Cul	-11.6791
▁Desenvolvemento	-11.6793
▁garantía	-11.6793
▁nocturna	-11.6793
▁intervén	-11.6793
▁sílaba	-11.6793
▁Utah	-11.6794
▁Testamento	-11.6794
▁máxico	-11.6794
▁exacto	-11.6794
▁Best	-11.6795
▁Gio	-11.6797
▁dólar	-11.6798
▁fraga	-11.6801
▁miden	-11.6802
▁Tampa	-11.6803
▁Igualmente	-11.6803
try	-11.6807
▁salario	-11.6812
▁dixestión	-11.6813
▁inestabilidade	-11.6813
▁Noutro	-11.6814
▁Khan	-11.6814
edro	-11.6815
▁conectada	-11.6816
▁espiral	-11.6817
▁1834	-11.6819
▁1814	-11.682
mari	-11.682
▁póla	-11.6822
▁decrece	-11.6824
▁eleva	-11.6824
▁instrumental	-11.6825
▁entregar	-11.6829
▁labore	-11.6829
▁Tito	-11.6831
▁ficheiro	-11.6833
▁PO	-11.6833
▁educativa	-11.6833
▁Asunto	-11.6833
▁Camilo	-11.6834
▁Delft	-11.6834
▁model	-11.6836
▁parentesco	-11.6841
▁comenta	-11.6843
▁Milan	-11.6844
▁palma	-11.6844
Te	-11.6846
▁datado	-11.6847
▁Feira	-11.6847
ícola	-11.6852
▁Estremadura	-11.6853
▁Ian	-11.6855
▁Ruso	-11.6856
▁Reforma	-11.6858
▁Petro	-11.686
▁Punta	-11.6863
oidea	-11.6863
▁desorde	-11.6864
▁sulf	-11.6865
wick	-11.6866
▁Bab	-11.6867
IM	-11.6868
▁baga	-11.6868
▁candidata	-11.6872
▁isótopo	-11.6872
▁olímpica	-11.6872
▁hindú	-11.6872
▁Letonia	-11.6872
▁bioquímica	-11.6873
▁transcrito	-11.6874
riedade	-11.6876
Le	-11.6876
▁Tsu	-11.688
▁unificación	-11.688
parte	-11.6882
▁Estatal	-11.689
▁nm	-11.6892
▁proxenitor	-11.6892
▁superfamilia	-11.6893
▁escolle	-11.6893
bía	-11.6893
▁tolerancia	-11.6893
▁decidi	-11.6894
▁herdeira	-11.6894
dutor	-11.6897
▁chaman	-11.6897
▁Palo	-11.69
mena	-11.69
▁estadía	-11.6906
▁virxe	-11.6909
▁ku	-11.6909
RT	-11.691
▁aeronave	-11.6912
▁envergadura	-11.6912
▁Ernst	-11.6912
▁incidencia	-11.6912
▁Apple	-11.6913
▁Canle	-11.6913
▁Andorra	-11.6913
▁respectivo	-11.6914
tívose	-11.6915
▁derivan	-11.6915
▁Poder	-11.6916
▁mailo	-11.6918
▁rexeitado	-11.692
▁definiu	-11.6922
▁Pacto	-11.6923
▁contribuír	-11.6923
▁Hugh	-11.6926
▁temporais	-11.693
▁metálica	-11.6932
▁obstáculo	-11.6932
▁refer	-11.6932
▁xeométrica	-11.6933
▁agulla	-11.6934
▁rego	-11.6935
▁Carter	-11.6935
zona	-11.6935
▁monstro	-11.6936
▁ingredientes	-11.6936
▁Axencia	-11.6938
▁baila	-11.6938
▁Carral	-11.6938
▁espiñas	-11.6939
▁encarna	-11.6943
▁avoa	-11.6946
▁Rusa	-11.6947
ículo	-11.6948
▁NO	-11.6952
▁informativo	-11.6953
▁Bridge	-11.6953
▁Depende	-11.6953
▁Indi	-11.6954
borg	-11.6955
EG	-11.6955
▁pit	-11.6956
▁xeolóxica	-11.6956
▁Seis	-11.6961
US	-11.6961
2,3	-11.6963
▁miel	-11.6966
▁Magno	-11.6968
▁constituía	-11.6969
▁xogado	-11.6971
▁Bil	-11.6972
▁Lawrence	-11.6972
▁Wolfgang	-11.6972
▁antecedente	-11.6972
▁traizón	-11.6972
▁Ares	-11.6973
▁Basilio	-11.6973
▁Infante	-11.6975
▁Canción	-11.6975
▁atravesar	-11.6976
▁Whit	-11.6977
▁anime	-11.6977
rock	-11.6981
▁20.000	-11.6982
▁Mesía	-11.6983
▁2.0	-11.6984
agh	-11.6985
▁Manu	-11.6986
▁panei	-11.6988
▁atribuída	-11.6992
▁hórreo	-11.6992
▁Bautista	-11.6992
▁Bul	-11.6997
Mar	-11.6998
▁imprim	-11.6998
guí	-11.6998
▁Americana	-11.7003
▁fenda	-11.7006
hau	-11.7007
▁Zel	-11.7009
▁Auga	-11.701
long	-11.7011
▁Carlomagno	-11.7012
▁Dirección	-11.7012
▁Dirixiu	-11.7012
▁Shakespeare	-11.7012
▁amplitude	-11.7012
▁escravitude	-11.7012
▁Consellería	-11.7012
▁Salomón	-11.7012
▁verticais	-11.7012
▁Coalició	-11.7016
▁competidor	-11.7024
▁Oro	-11.7026
▁nec	-11.7028
▁fonda	-11.7029
▁cabalería	-11.7032
▁préstamo	-11.7032
▁considerando	-11.7032
▁materno	-11.7032
▁aliñamento	-11.7032
▁enzima	-11.7034
▁lí	-11.7035
▁esixe	-11.704
mbalas	-11.7042
▁finalista	-11.7044
▁Cama	-11.7044
valente	-11.7046
kka	-11.7047
▁rexeitada	-11.705
▁posguerra	-11.7052
▁pretensión	-11.7052
▁convocou	-11.7052
▁branquia	-11.7053
▁atómica	-11.7053
PS	-11.7054
▁João	-11.7055
▁plantacións	-11.7056
NO	-11.7056
[...]
