<unk>	0
<s>	0
</s>	0
<pad>	0
▁,	-3.1696
s	-3.20131
▁de	-3.2388
▁.	-3.56709
▁a	-3.77949
▁e	-3.86882
▁o	-4.1228
;	-4.20051
▁&	-4.20333
quot	-4.25191
▁que	-4.31732
▁do	-4.5002
▁en	-4.53034
▁da	-4.58059
▁un	-5.06926
▁A	-5.11942
▁(	-5.12644
▁)	-5.12666
▁no	-5.22262
▁na	-5.279
▁é	-5.28927
▁unha	-5.32781
▁O	-5.36092
n	-5.42178
se	-5.46933
▁os	-5.48745
▁por	-5.5683
▁como	-5.57678
▁para	-5.59697
▁se	-5.63694
▁con	-5.66447
r	-5.72189
▁foi	-5.76202
▁dos	-5.77507
a	-5.78188
▁ao	-5.78359
▁súa	-5.80729
o	-5.80994
▁	-5.862
▁seu	-5.96638
▁máis	-5.97767
▁ou	-6.02615
▁as	-6.02986
▁á	-6.03382
mente	-6.09252
-	-6.16664
u	-6.17951
▁non	-6.18698
▁:	-6.23335
▁das	-6.34102
do	-6.35524
▁En	-6.38697
da	-6.39099
ndo	-6.41553
▁co	-6.44374
▁son	-6.47433
▁polo	-6.48483
e	-6.51061
l	-6.52114
es	-6.52495
▁entre	-6.5349
▁ano	-6.60881
▁tamén	-6.64757
.	-6.701
t	-6.77885
i	-6.78224
▁Os	-6.78565
▁pola	-6.83737
is	-6.86739
ron	-6.88425
▁coa	-6.88887
▁parte	-6.91018
▁ser	-6.9288
ba	-6.94149
▁anos	-6.95612
▁sobre	-6.96794
la	-7.03332
▁seus	-7.04712
▁dun	-7.05338
ra	-7.05622
▁pero	-7.0619
ción	-7.06234
▁;	-7.08465
▁No	-7.09776
▁As	-7.10795
on	-7.11081
▁está	-7.13008
ta	-7.14653
▁nos	-7.14838
▁lugar	-7.16541
▁onde	-7.16839
na	-7.18146
▁Na	-7.18362
▁cidade	-7.20973
▁ten	-7.21008
▁re	-7.21278
▁2	-7.21646
to	-7.21848
▁era	-7.23005
no	-7.23847
▁E	-7.24892
▁I	-7.24993
▁durante	-7.25022
y	-7.2549
▁cando	-7.26703
▁nas	-7.27835
▁pode	-7.2836
▁dunha	-7.28363
▁ata	-7.28407
▁concello	-7.28577
te	-7.28783
▁xa	-7.29347
▁nome	-7.29663
▁habitantes	-7.30222
▁primeiro	-7.30397
▁1	-7.31362
▁dous	-7.32231
d	-7.36325
▁aínda	-7.36879
▁forma	-7.37036
▁primeira	-7.38829
ca	-7.39263
▁mesmo	-7.39583
▁século	-7.40239
▁in	-7.40466
lo	-7.4056
▁segundo	-7.41512
▁foron	-7.41837
▁S	-7.41856
▁moi	-7.43154
dos	-7.43391
▁esta	-7.43896
▁nun	-7.43991
▁ó	-7.44063
▁C	-7.44999
de	-7.45048
▁aos	-7.45124
▁despois	-7.45243
▁súas	-7.45418
▁todo	-7.46581
co	-7.46641
ma	-7.47941
m	-7.48601
▁só	-7.48823
▁De	-7.49661
c	-7.49839
apos	-7.49843
▁San	-7.50794
▁La	-7.50858
z	-7.54708
▁3	-7.55859
▁tres	-7.56591
en	-7.56878
▁este	-7.57082
▁desde	-7.58111
▁contra	-7.58354
▁Foi	-7.58788
▁dúas	-7.6115
▁tiña	-7.61835
▁ás	-7.62324
me	-7.6293
▁parroquia	-7.63069
das	-7.63381
▁poboación	-7.64337
▁nunha	-7.6557
▁É	-7.66705
▁outros	-7.67028
▁grupo	-7.67889
▁gran	-7.69886
an	-7.69953
lle	-7.70673
▁sen	-7.70693
▁equipo	-7.72719
▁Con	-7.72856
▁maior	-7.7405
▁cal	-7.7464
▁17	-7.74641
le	-7.74942
ia	-7.74988
▁vez	-7.75045
▁así	-7.75375
os	-7.75416
ga	-7.75563
▁eran	-7.76428
ce	-7.76946
▁mulleres	-7.7731
▁tempo	-7.77544
▁homes	-7.77717
▁4	-7.78129
ría	-7.78531
ro	-7.79025
▁poden	-7.7948
p	-7.79621
▁moito	-7.79802
ar	-7.79865
▁/	-7.81267
▁15	-7.81427
f	-7.81555
nte	-7.82737
▁5	-7.82756
mo	-7.82958
▁nado	-7.83423
▁Un	-7.84335
▁%	-7.84575
g	-7.84949
▁la	-7.85598
ban	-7.85802
▁B	-7.85838
▁polos	-7.85842
k	-7.86628
x	-7.88325
▁illa	-7.88558
C	-7.88753
▁10	-7.8968
▁cara	-7.90003
▁baixo	-7.90585
er	-7.90661
▁están	-7.9086
▁16	-7.92014
ne	-7.9204
▁comarca	-7.92172
▁novo	-7.92317
ou	-7.92831
▁cunha	-7.92866
di	-7.9379
▁cada	-7.94812
▁hai	-7.9493
▁galego	-7.9493
▁cun	-7.95382
▁zona	-7.95636
▁km	-7.96056
▁tempada	-7.96305
▁rei	-7.9657
ía	-7.96909
al	-7.97137
▁cos	-7.9718
▁Se	-7.97334
in	-7.98133
idade	-7.98219
xe	-7.99728
▁P	-7.99758
mento	-7.99807
go	-7.99811
▁vida	-8.00095
▁The	-8.00098
▁6	-8.00292
▁dende	-8.00623
▁banda	-8.00874
▁12	-8.00908
▁tanto	-8.00918
▁Galicia	-8.01092
▁número	-8.01253
▁España	-8.01363
▁ca	-8.01612
▁teñen	-8.01893
▁Esta	-8.01918
▁Segundo	-8.02512
▁coma	-8.03073
▁14	-8.03121
▁di	-8.03215
▁Co	-8.03254
á	-8.04057
▁provincia	-8.04203
▁Tamén	-8.04283
▁El	-8.04604
▁familia	-8.04774
▁sur	-8.05043
▁-	-8.05063
▁F	-8.05106
▁T	-8.0533
vi	-8.0587
va	-8.06471
as	-8.06561
▁Re	-8.06741
▁sendo	-8.07037
▁mundo	-8.07231
▁norte	-8.07945
▁até	-8.07949
ti	-8.08158
▁antes	-8.0863
▁Este	-8.08844
▁sistema	-8.09475
▁7	-8.0961
▁carreira	-8.098
▁lle	-8.10087
▁outras	-8.10154
▁Ca	-8.10874
▁pouco	-8.11157
▁xunto	-8.12434
▁guerra	-8.12949
▁historia	-8.12997
li	-8.134
▁catro	-8.13448
▁si	-8.13706
▁m	-8.13821
▁Por	-8.14661
▁tivo	-8.15855
▁estaba	-8.15925
▁8	-8.16046
▁obra	-8.16134
▁varios	-8.16148
us	-8.16198
▁mentres	-8.16232
▁país	-8.16352
▁especies	-8.16763
re	-8.1694
pa	-8.17034
▁día	-8.17476
▁11	-8.17555
▁ter	-8.17579
za	-8.17649
b	-8.18
▁exemplo	-8.18618
▁13	-8.19376
▁Estados	-8.19669
▁medio	-8.19888
▁rexión	-8.21179
▁logo	-8.21327
▁goberno	-8.21465
S	-8.21921
be	-8.21953
▁ben	-8.22174
▁final	-8.22346
▁partir	-8.22526
bo	-8.22623
▁coñecido	-8.22766
ch	-8.23072
▁pre	-8.23529
▁tipo	-8.23897
▁M	-8.24023
ve	-8.24289
▁río	-8.24525
▁estado	-8.24603
▁morte	-8.24703
ni	-8.24898
h	-8.24982
▁grandes	-8.25147
▁D	-8.25326
▁Gran	-8.2547
▁mais	-8.25627
ter	-8.26019
mos	-8.26173
▁época	-8.26643
▁xullo	-8.26861
í	-8.27077
ado	-8.27077
▁Unidos	-8.27206
▁Universidade	-8.27328
▁mar	-8.279
nse	-8.28001
▁menos	-8.2801
▁grande	-8.28024
▁cales	-8.28103
▁serie	-8.28189
▁centro	-8.28531
▁todos	-8.28811
▁9	-8.28903
rse	-8.29182
▁Durante	-8.29371
pe	-8.29535
▁L	-8.2962
▁importante	-8.29868
A	-8.30089
▁maioría	-8.3012
res	-8.30367
▁principal	-8.30637
▁Sa	-8.30707
ri	-8.31248
▁veces	-8.31331
▁lingua	-8.31378
▁deste	-8.31518
▁Ma	-8.31559
▁G	-8.31785
▁auga	-8.31869
ci	-8.32052
▁longo	-8.3219
que	-8.32276
▁maio	-8.32319
ria	-8.32834
▁capital	-8.32862
dor	-8.33147
▁Europa	-8.33189
▁II	-8.33254
▁U	-8.33414
▁20	-8.34355
▁segunda	-8.34435
▁V	-8.35822
▁Unha	-8.36358
▁xuño	-8.36573
▁travé	-8.36587
B	-8.36945
▁»	-8.36964
▁chamado	-8.37059
«	-8.37083
▁datos	-8.37165
▁debido	-8.37469
▁18	-8.37495
▁p	-8.37641
▁cor	-8.38064
man	-8.38085
▁N	-8.38495
▁diferentes	-8.38724
▁Al	-8.39148
▁Francia	-8.39612
▁outra	-8.3967
▁comezou	-8.39683
▁Para	-8.39791
▁tras	-8.39816
▁varias	-8.40005
po	-8.40212
▁células	-8.40348
▁xeito	-8.4089
▁setembro	-8.40993
▁marzo	-8.41167
▁relación	-8.41392
1	-8.41677
w	-8.4174
▁Le	-8.41798
▁algúns	-8.42294
án	-8.42313
▁xaneiro	-8.42494
fa	-8.42588
qui	-8.42699
▁fin	-8.42988
▁decembro	-8.43012
▁abril	-8.43246
▁seguinte	-8.43711
▁mesma	-8.4379
▁filme	-8.43844
▁moita	-8.44097
▁persoas	-8.44113
▁base	-8.44239
▁el	-8.44456
▁mellor	-8.44482
▁poder	-8.44638
▁Madrid	-8.44716
▁outubro	-8.44777
▁fillo	-8.44807
▁2007	-8.44836
▁desta	-8.44865
▁Santiago	-8.44883
▁período	-8.44912
▁Vi	-8.44928
▁facer	-8.44932
▁agosto	-8.45052
▁nova	-8.45086
rio	-8.45339
or	-8.45606
▁Ra	-8.45821
▁pro	-8.45959
▁fai	-8.46156
mi	-8.46247
▁partido	-8.46266
▁outro	-8.46772
▁especie	-8.46792
io	-8.46819
▁Premio	-8.47007
▁orixe	-8.47065
L	-8.47093
ck	-8.47296
▁uso	-8.47375
ka	-8.47682
▁resto	-8.47714
▁2011	-8.47723
ntes	-8.47891
▁caso	-8.47937
▁Nova	-8.47946
▁Santa	-8.48068
ina	-8.4841
▁H	-8.48413
▁dentro	-8.48426
▁fixo	-8.48531
ada	-8.48721
M	-8.49086
▁entón	-8.49216
▁álbum	-8.49431
▁xeral	-8.49545
▁of	-8.49659
▁Mar	-8.49736
▁2010	-8.49767
▁K	-8.49774
▁traballo	-8.50197
▁actual	-8.50255
▁R	-8.50846
▁novembro	-8.50872
▁ademais	-8.51146
▁conta	-8.5165
nos	-8.52164
▁finado	-8.52201
▁Ao	-8.52344
▁quen	-8.52348
▁&#93;	-8.52444
▁tarde	-8.52491
▁Ro	-8.52534
▁case	-8.52568
▁María	-8.52933
el	-8.53133
▁ex	-8.53236
▁Ademais	-8.53252
▁Entre	-8.5335
▁&#91;	-8.53584
▁febreiro	-8.53901
ismo	-8.53904
▁Coruña	-8.54035
▁total	-8.54509
▁momento	-8.54604
▁media	-8.55191
▁2009	-8.55333
ing	-8.55582
▁Mo	-8.55681
▁millóns	-8.55768
▁pai	-8.55836
▁Como	-8.55922
▁política	-8.56421
G	-8.56493
▁superficie	-8.56561
▁bo	-8.56596
▁Lo	-8.56669
▁punto	-8.56919
cu	-8.57037
▁toda	-8.57051
D	-8.57154
▁algunha	-8.57205
▁feito	-8.57438
▁Nacional	-8.57623
▁termo	-8.57867
▁In	-8.58023
▁Po	-8.58085
th	-8.58193
ú	-8.58379
▁30	-8.58555
▁cinco	-8.5859
▁i	-8.58644
zo	-8.58983
F	-8.59214
▁Do	-8.59373
▁su	-8.59439
▁casa	-8.59495
2	-8.59693
ña	-8.60219
▁polas	-8.60261
▁obras	-8.60495
xa	-8.60568
▁música	-8.60703
▁título	-8.60752
▁ma	-8.60782
▁Li	-8.60848
▁Porén	-8.61115
fi	-8.6169
▁so	-8.61832
▁Da	-8.6185
▁principais	-8.61898
▁desenvolvemento	-8.62046
bi	-8.63009
▁Terra	-8.63067
▁Mi	-8.63203
▁finais	-8.63208
T	-8.63234
lla	-8.63276
ry	-8.63545
▁estadounidense	-8.63931
▁sub	-8.64003
fe	-8.64085
v	-8.64163
vo	-8.64224
▁Te	-8.64278
▁Be	-8.64313
▁proceso	-8.64435
▁primeiros	-8.64492
▁Pa	-8.64672
▁ver	-8.64691
é	-8.64812
xo	-8.64959
▁Non	-8.64978
▁per	-8.65065
il	-8.65073
ten	-8.65091
▁corpo	-8.6523
tra	-8.65298
ó	-8.65397
▁éxito	-8.65918
E	-8.65962
▁coas	-8.66063
▁2008	-8.6608
▁club	-8.66206
▁Aínda	-8.66282
▁xénero	-8.66463
▁produción	-8.66767
▁Me	-8.66816
▁década	-8.66971
▁oficial	-8.67515
▁político	-8.67834
ver	-8.68105
cha	-8.68183
ista	-8.68317
ón	-8.68634
▁25	-8.6902
▁situado	-8.6907
▁José	-8.69143
ton	-8.69188
▁días	-8.69312
▁orde	-8.69366
▁países	-8.69475
▁Guerra	-8.69481
▁coñecida	-8.69638
▁Cando	-8.69697
▁2006	-8.69919
ación	-8.70011
ur	-8.70016
rá	-8.70033
▁al	-8.7006
st	-8.70062
▁presidente	-8.70091
▁grupos	-8.7029
▁d	-8.70634
los	-8.70821
▁Despois	-8.70836
▁principalmente	-8.71036
▁preto	-8.71064
▁tan	-8.71125
ran	-8.71183
▁Reino	-8.71407
nda	-8.71722
use	-8.71791
R	-8.71796
▁especialmente	-8.71841
ge	-8.7191
▁sa	-8.72054
▁puntos	-8.72144
▁territorio	-8.72707
tos	-8.72913
P	-8.73314
▁man	-8.73498
▁metros	-8.73829
▁To	-8.74167
▁chegou	-8.7417
dores	-8.74285
ke	-8.74472
▁pasou	-8.74494
▁Está	-8.74708
sen	-8.74714
ita	-8.74848
H	-8.74884
ja	-8.74914
▁Pe	-8.75226
▁membros	-8.75253
▁s	-8.75434
▁Ga	-8.75482
▁Ten	-8.75714
▁Di	-8.75738
▁fronte	-8.75795
▁todas	-8.7581
▁área	-8.75996
▁–	-8.76274
N	-8.76406
bra	-8.76488
áronse	-8.76544
▁hoxe	-8.76866
▁nivel	-8.76924
▁Ne	-8.76993
▁último	-8.77128
▁República	-8.77133
▁Car	-8.77174
tu	-8.77331
▁Instituto	-8.77342
▁común	-8.7741
tas	-8.77566
▁español	-8.77634
ir	-8.77812
▁leste	-8.7794
▁Bar	-8.78034
▁Tras	-8.7806
▁2000	-8.78123
▁inglés	-8.78169
ha	-8.78171
▁vi	-8.78504
▁Pi	-8.78591
▁posición	-8.78893
▁propio	-8.79125
▁última	-8.79258
▁papel	-8.7981
lu	-8.79883
pi	-8.80101
▁chamada	-8.80365
▁estes	-8.80394
▁Real	-8.80416
xi	-8.80487
▁oeste	-8.80994
▁importantes	-8.81229
▁Man	-8.81593
ble	-8.81668
▁francés	-8.81859
▁antiga	-8.81937
▁liña	-8.82083
▁the	-8.82156
▁construción	-8.82342
▁2012	-8.82385
▁2005	-8.82455
O	-8.82512
las	-8.82646
▁estrutura	-8.82767
3	-8.82938
ren	-8.82953
▁Así	-8.83112
ándose	-8.83229
du	-8.8334
▁Bo	-8.83744
▁Estado	-8.83845
▁director	-8.84015
▁mo	-8.84075
▁l	-8.84089
tar	-8.84278
▁posto	-8.84302
▁c	-8.84389
▁Ta	-8.84491
▁porque	-8.84764
▁único	-8.84824
▁home	-8.84849
▁volta	-8.84886
▁2004	-8.85096
▁antigo	-8.85223
▁Ba	-8.85274
▁Ka	-8.85279
▁Carlos	-8.85385
▁del	-8.85451
▁24	-8.85472
▁seguintes	-8.85517
▁formación	-8.85538
▁estudos	-8.85548
▁libro	-8.85556
▁situada	-8.85685
▁conxunto	-8.85697
▁membro	-8.85813
▁ADN	-8.86185
▁alemán	-8.86238
▁car	-8.86319
▁sempre	-8.86395
der	-8.86427
▁le	-8.86542
▁IGE	-8.86565
▁Manuel	-8.86566
tivo	-8.86696
▁coruñés	-8.86936
▁isto	-8.87054
▁li	-8.87167
▁Isto	-8.87526
▁calquer	-8.87563
▁y	-8.88116
▁real	-8.88133
▁Ha	-8.8823
▁proteínas	-8.88246
▁senón	-8.88277
it	-8.88299
▁central	-8.88475
▁reino	-8.88708
I	-8.88735
▁Italia	-8.88821
▁19	-8.88981
▁Vigo	-8.89012
▁movemento	-8.89017
▁igrexa	-8.89033
▁pesar	-8.89041
▁Roma	-8.89259
tou	-8.89478
▁exército	-8.8958
▁acordo	-8.89608
▁teoría	-8.89747
che	-8.8976
▁orixinal	-8.89795
▁Pedro	-8.89818
les	-8.89929
▁alta	-8.90159
▁22	-8.90337
▁Alemaña	-8.90405
ko	-8.90567
um	-8.90673
▁cargo	-8.90933
per	-8.90934
▁tal	-8.90971
ouse	-8.91076
▁campo	-8.91185
▁actividade	-8.91243
▁Mundial	-8.91274
nd	-8.91292
▁comezo	-8.91296
▁Tiña	-8.91442
▁2013	-8.91498
▁Partido	-8.91639
▁Ar	-8.91684
▁21	-8.917
▁Barcelona	-8.91772
▁estilo	-8.92038
▁ós	-8.92039
▁1999	-8.9219
ño	-8.92258
ed	-8.9226
ng	-8.92319
ización	-8.92422
▁eleccións	-8.92465
▁galega	-8.92659
▁supón	-8.92668
▁Imperio	-8.93071
▁elixido	-8.93071
▁animais	-8.93133
▁mediante	-8.9329
V	-8.93408
▁ba	-8.93701
▁capacidade	-8.93826
▁X	-8.93881
▁Go	-8.93933
car	-8.93979
▁seis	-8.94029
▁propia	-8.94218
▁Si	-8.9433
▁disco	-8.94366
▁eles	-8.94434
▁militar	-8.94575
▁edición	-8.94755
ll	-8.94879
tiva	-8.94998
▁Son	-8.95015
▁fora	-8.95024
▁nada	-8.95158
chi	-8.95226
nta	-8.95595
▁resultado	-8.95699
▁sería	-8.95799
▁ante	-8.95811
▁iso	-8.95963
tor	-8.95995
▁tamaño	-8.96012
▁So	-8.96145
▁gañou	-8.96151
▁anterior	-8.96184
▁te	-8.96227
▁dicir	-8.9633
▁popular	-8.96649
cia	-8.96651
▁cambio	-8.96861
▁medida	-8.96934
et	-8.97018
▁23	-8.97055
j	-8.97248
▁nomeado	-8.97316
▁ácido	-8.97455
▁Su	-8.9748
rro	-8.97711
▁terra	-8.97786
mar	-8.97788
▁internacional	-8.97795
▁lista	-8.97849
▁Unión	-8.98012
▁causa	-8.98316
▁aparece	-8.98643
ya	-8.98895
nde	-8.98991
▁española	-8.99111
▁Compostela	-8.99238
▁illas	-8.99297
▁Lu	-8.99312
▁control	-8.9933
▁Cor	-8.99403
▁programa	-8.99471
▁nin	-8.99528
▁vila	-8.99585
▁referirse	-8.99811
▁mor	-9.00033
▁ra	-9.00203
▁axuda	-9.00384
▁función	-9.00532
ki	-9.00576
▁muller	-9.00579
gar	-9.00731
▁costa	-9.00749
▁Bu	-9.00776
ión	-9.00968
▁idade	-9.01281
▁terceiro	-9.01349
▁converteuse	-9.01521
▁2003	-9.0155
land	-9.01656
▁Hai	-9.0168
▁partidos	-9.01698
K	-9.01725
▁natural	-9.01906
▁III	-9.02164
5	-9.0226
fo	-9.02324
ber	-9.02554
▁John	-9.02556
▁Ri	-9.02561
ster	-9.02608
▁Fa	-9.03055
▁posteriormente	-9.03166
▁_	-9.03239
▁xeralmente	-9.03285
▁respecto	-9.03378
▁versión	-9.03479
▁tra	-9.03651
▁única	-9.03677
▁Segunda	-9.03787
bre	-9.04003
▁Igrexa	-9.04062
gra	-9.04113
▁estudo	-9.04287
▁completa	-9.04329
▁interior	-9.04341
▁Fórmula	-9.04656
▁W	-9.04941
▁Juan	-9.05032
▁nacional	-9.05142
ut	-9.05144
ho	-9.0535
▁situación	-9.05394
▁forte	-9.05398
▁2014	-9.05496
▁meses	-9.05557
▁estivo	-9.05582
▁Ho	-9.05674
▁estas	-9.05698
ncia	-9.05743
tes	-9.05792
▁posible	-9.05862
▁finalmente	-9.06026
▁formula	-9.06152
cos	-9.06157
▁significa	-9.06222
▁canto	-9.06297
gue	-9.06392
▁social	-9.06532
▁me	-9.06627
▁fútbol	-9.0674
▁Ti	-9.06764
▁Inglaterra	-9.06811
▁proxecto	-9.07021
4	-9.07143
▁forza	-9.07201
▁27	-9.07364
▁diversos	-9.07422
pre	-9.07479
▁presenza	-9.07521
▁local	-9.07617
▁América	-9.07678
▁batalla	-9.07721
▁Lugo	-9.07773
▁Pero	-9.07818
▁26	-9.0786
▁paso	-9.07899
▁York	-9.08008
▁po	-9.08052
tura	-9.08268
▁alto	-9.08288
▁arte	-9.08346
▁pois	-9.08349
ul	-9.08531
▁París	-9.08674
▁Pro	-9.08724
▁Can	-9.0873
▁equipos	-9.08834
▁irmán	-9.09112
▁estar	-9.09268
▁50	-9.09286
▁par	-9.09302
▁Nos	-9.09405
▁trans	-9.0957
▁2015	-9.09631
▁Francisco	-9.09662
▁XX	-9.09667
▁incluíndo	-9.09789
▁chegar	-9.098
▁liga	-9.09864
lt	-9.1001
▁etc	-9.1003
▁28	-9.10062
ira	-9.10347
▁neste	-9.10418
00	-9.10547
▁Per	-9.10591
▁pobo	-9.10606
▁J	-9.10618
▁bi	-9.10644
▁estaban	-9.10726
▁elementos	-9.10739
▁enerxía	-9.1078
▁recibiu	-9.10807
tina	-9.10816
▁altura	-9.10859
llo	-9.10953
▁pe	-9.11109
tal	-9.11193
▁Desde	-9.11279
▁Antonio	-9.11385
▁investigación	-9.11453
▁comunidade	-9.11576
▁pa	-9.11588
ados	-9.11723
▁pequena	-9.11805
▁anti	-9.11974
▁pequeno	-9.12006
▁superior	-9.12093
▁Cu	-9.12103
▁sexa	-9.123
cer	-9.12437
gu	-9.12494
▁obxectivo	-9.12761
▁XIX	-9.12925
den	-9.12932
via	-9.13038
▁Club	-9.13104
▁INE	-9.13247
▁cabo	-9.13294
▁cultura	-9.13404
▁Sur	-9.13508
▁grego	-9.13533
▁Portugal	-9.13632
stra	-9.13724
▁considerado	-9.13789
▁espazo	-9.13855
▁fe	-9.13941
▁televisión	-9.14149
▁influencia	-9.14159
▁menor	-9.14217
ais	-9.14267
▁f	-9.14284
▁atópase	-9.14307
wa	-9.14501
▁problemas	-9.147
▁°	-9.14821
▁Xoán	-9.15154
▁valor	-9.15251
ida	-9.15252
▁Norte	-9.15392
▁comeza	-9.1542
▁factor	-9.15496
▁inter	-9.15525
▁nai	-9.15538
▁data	-9.15615
dia	-9.15728
▁planta	-9.16011
ces	-9.16184
▁plantas	-9.1646
rra	-9.16616
▁debe	-9.16665
▁referencia	-9.16918
▁dirección	-9.17273
▁cantidade	-9.17341
▁luz	-9.17357
▁publicou	-9.17388
▁autor	-9.17404
▁2016	-9.17547
▁casos	-9.17566
U	-9.1765
▁canción	-9.1776
▁método	-9.17919
▁cabeza	-9.17925
ru	-9.1801
▁diversas	-9.18109
▁...	-9.18293
ito	-9.18316
▁vai	-9.18326
▁selección	-9.18537
▁sede	-9.18544
▁Logo	-9.18555
ven	-9.18624
▁filla	-9.18675
▁Du	-9.18701
▁interese	-9.18702
tion	-9.18767
▁Cha	-9.1902
▁marca	-9.19108
▁película	-9.19177
▁Bi	-9.19225
▁volveu	-9.19281
▁lugares	-9.19281
nt	-9.19367
▁29	-9.19377
▁2002	-9.19385
con	-9.19424
cio	-9.19425
sta	-9.19563
▁campionato	-9.19641
mer	-9.19641
tri	-9.19649
val	-9.19715
▁lonxitude	-9.19786
ine	-9.19798
▁León	-9.19807
nia	-9.19816
ido	-9.19868
▁Her	-9.20017
▁aproximadamente	-9.20081
▁empresa	-9.20295
▁vitoria	-9.2046
ie	-9.20472
▁rock	-9.20491
▁División	-9.20516
▁creación	-9.20661
hi	-9.20721
▁novas	-9.20811
▁cidades	-9.20822
▁2001	-9.20934
ion	-9.20967
▁figura	-9.20982
ino	-9.21022
▁to	-9.21107
bel	-9.21126
▁baixa	-9.21138
▁pi	-9.21164
ente	-9.212
▁público	-9.2122
men	-9.21437
▁sol	-9.21561
▁Historia	-9.21673
▁loita	-9.21674
bu	-9.21769
▁deles	-9.21837
iro	-9.21884
▁modelo	-9.2195
▁”	-9.21985
▁Castro	-9.22248
ad	-9.22422
▁categoría	-9.22432
sh	-9.22451
cen	-9.22509
▁actualmente	-9.22631
▁escritor	-9.22792
▁formar	-9.2293
▁inicial	-9.22935
▁enfermidade	-9.22945
▁particular	-9.23039
▁humanos	-9.2307
▁Copa	-9.23173
▁tradicional	-9.23228
▁He	-9.23251
▁metade	-9.23326
▁Unido	-9.23376
▁and	-9.23529
▁Estes	-9.2369
▁modo	-9.23738
▁conseguiu	-9.24267
▁actualidade	-9.24338
mp	-9.24362
▁Val	-9.24477
▁distrito	-9.24587
▁“	-9.24706
▁Ni	-9.24765
▁principios	-9.24907
at	-9.25012
▁municipal	-9.25028
▁Ru	-9.25221
▁apoio	-9.25318
▁lado	-9.2555
lin	-9.25594
tica	-9.25672
▁especial	-9.25771
▁dá	-9.25893
▁proteína	-9.25954
▁organización	-9.26176
▁sete	-9.26214
tación	-9.26253
▁crecemento	-9.26427
▁mes	-9.26562
▁libre	-9.26591
▁Liga	-9.26623
▁núcleo	-9.26688
▁Rei	-9.2669
▁formado	-9.26762
▁xogador	-9.26763
▁1990	-9.26937
▁t	-9.26951
▁redor	-9.27019
ica	-9.27116
▁características	-9.27134
▁levou	-9.27187
▁Fernando	-9.27277
▁publicado	-9.2735
▁ce	-9.27383
▁carreiras	-9.27388
▁Á	-9.27459
▁mundial	-9.27503
▁ningún	-9.27503
▁0	-9.27515
ny	-9.27658
▁novos	-9.27692
▁Pontevedra	-9.27921
▁primeiras	-9.27968
▁mal	-9.28103
-19	-9.28148
▁información	-9.2823
nes	-9.28251
osa	-9.2832
▁topónimo	-9.28623
▁vía	-9.28642
▁Castela	-9.28653
▁100	-9.2868
ín	-9.28777
▁Nas	-9.28908
▁condicións	-9.28918
▁novela	-9.28936
▁Xa	-9.28999
▁—	-9.29064
ase	-9.29156
▁xogo	-9.29177
▁agora	-9.29286
.000	-9.29311
rre	-9.29518
▁importancia	-9.29527
▁destes	-9.29591
ff	-9.29741
des	-9.29752
▁fillos	-9.29752
▁persoa	-9.29901
▁nesta	-9.30237
lia	-9.30314
cho	-9.30317
▁val	-9.30375
▁temas	-9.30468
▁Vila	-9.30558
▁certa	-9.3062
▁sitio	-9.30769
▁Estatística	-9.31135
▁fan	-9.31139
▁encima	-9.31159
▁Ourense	-9.31388
▁grazas	-9.31408
▁40	-9.31601
adas	-9.31619
▁velocidade	-9.31624
istas	-9.31667
▁tipos	-9.3171
▁unión	-9.31935
▁profesor	-9.31979
▁Hi	-9.31996
▁principio	-9.32118
▁leva	-9.32192
▁Algún	-9.32279
▁musical	-9.32443
▁Fe	-9.3246
▁ro	-9.32473
▁nunca	-9.32477
▁francesa	-9.32517
eiro	-9.32577
jo	-9.32605
ly	-9.32633
▁profesional	-9.33039
nce	-9.33041
▁Mon	-9.33083
▁carácter	-9.33177
▁mu	-9.33178
▁for	-9.33194
▁linguas	-9.33206
▁dereito	-9.33227
▁poli	-9.3329
▁revista	-9.33423
▁igual	-9.33446
▁País	-9.33486
▁verán	-9.33505
▁soa	-9.3352
▁ambos	-9.33542
▁emperador	-9.33631
▁García	-9.33642
▁algo	-9.33658
▁material	-9.33738
dio	-9.33746
▁Fo	-9.33839
▁escola	-9.33889
▁esa	-9.34001
▁Tra	-9.34045
▁práctica	-9.34084
▁diminución	-9.34102
▁Dende	-9.3423
▁cre	-9.34333
▁fose	-9.34372
▁compañía	-9.34377
▁últimos	-9.34408
ico	-9.34417
ol	-9.34421
▁municipio	-9.34456
▁alí	-9.34566
▁bacteria	-9.34628
▁dirixido	-9.34688
▁Internacional	-9.34755
▁presenta	-9.34812
▁idea	-9.35126
▁clase	-9.35194
▁Hu	-9.35345
▁palabra	-9.35363
▁desa	-9.35392
▁campaña	-9.35412
▁italiano	-9.35582
▁atopa	-9.3563
▁edificio	-9.35776
▁Londres	-9.35808
▁célula	-9.35829
▁pasa	-9.35912
▁distancia	-9.35923
▁31	-9.36161
▁diferenza	-9.3625
nas	-9.36263
▁lo	-9.36312
▁Fi	-9.36336
▁división	-9.36447
▁van	-9.36673
▁motor	-9.36741
▁civil	-9.36766
8	-9.36805
ley	-9.36905
▁terceira	-9.37067
▁fóra	-9.37256
▁Ko	-9.3726
▁Casa	-9.37271
▁acción	-9.3729
▁podería	-9.37316
▁radio	-9.37788
▁sociedade	-9.37815
ros	-9.37952
shi	-9.37964
▁can	-9.3799
▁ela	-9.38006
eira	-9.38108
▁maneira	-9.38135
ían	-9.38178
▁arredor	-9.38324
▁forzas	-9.38399
▁comercial	-9.388
▁deseño	-9.3884
▁Cal	-9.38934
▁tema	-9.39022
▁mercado	-9.39078
▁servizo	-9.39301
▁distinta	-9.3931
ku	-9.39352
▁tropas	-9.39352
▁aeroporto	-9.39448
▁cadea	-9.39462
▁ocasións	-9.39474
▁fase	-9.397
▁ciclo	-9.39816
▁participou	-9.399
▁humano	-9.3997
▁Neste	-9.39982
▁contén	-9.40038
stro	-9.40184
▁capa	-9.40262
▁permite	-9.40271
▁pequenos	-9.40338
▁latín	-9.40372
▁rúa	-9.40534
▁representa	-9.40747
▁ampla	-9.40775
▁xenes	-9.40847
id	-9.40874
▁IV	-9.40899
▁pedra	-9.40927
▁membrana	-9.41009
▁alcalde	-9.41049
▁auto	-9.41109
▁efecto	-9.41178
▁1980	-9.41198
▁distinto	-9.41229
▁g	-9.41248
rios	-9.41253
▁Sol	-9.41304
▁ne	-9.41371
▁sentido	-9.41412
▁1936	-9.41433
▁1991	-9.41453
▁Xapón	-9.41551
6	-9.41556
xu	-9.41644
tro	-9.41646
▁xira	-9.41791
▁maiores	-9.41856
▁Galego	-9.41937
▁Estas	-9.41945
▁1995	-9.41975
▁fi	-9.41995
▁fa	-9.42122
▁Campionato	-9.42131
▁ha	-9.42175
▁augas	-9.42185
▁existen	-9.42378
▁miúdo	-9.42393
▁mostra	-9.42428
mina	-9.42556
▁Galiza	-9.42625
▁independente	-9.42692
▁indica	-9.42811
rán	-9.43016
▁Ber	-9.43151
▁b	-9.43188
▁realizar	-9.43486
▁expresión	-9.43493
▁Ver	-9.43596
▁Primeira	-9.43716
cta	-9.43819
▁localidade	-9.43824
▁tiñan	-9.43868
▁ve	-9.43886
cas	-9.44001
▁comp	-9.44057
▁mil	-9.44092
▁cm	-9.4412
▁Ci	-9.44199
▁pequenas	-9.44263
▁papa	-9.4427
▁morreu	-9.44287
▁ti	-9.44333
▁60	-9.44411
ábase	-9.44415
▁escribiu	-9.44817
▁quedou	-9.44935
▁África	-9.45012
ard	-9.45036
ger	-9.45098
▁piloto	-9.45188
idos	-9.45192
▁Rodríguez	-9.45261
▁oito	-9.45297
▁terras	-9.45331
▁Mu	-9.45379
rían	-9.45383
▁rexións	-9.45436
día	-9.45605
cal	-9.45693
icamente	-9.45712
▁dominio	-9.45721
ler	-9.45768
tón	-9.4577
▁=	-9.45803
eta	-9.45868
▁Fernández	-9.45907
▁forman	-9.46016
▁000	-9.46046
▁Tu	-9.46222
▁1998	-9.46248
▁tri	-9.46265
▁normalmente	-9.46282
▁1996	-9.4629
▁vista	-9.46332
cre	-9.46546
▁literatura	-9.46621
▁ARN	-9.46679
▁Ce	-9.46696
▁puido	-9.46714
▁xefe	-9.46816
▁teatro	-9.46832
un	-9.46845
gua	-9.46925
▁clasificación	-9.46953
ig	-9.46992
▁traballos	-9.47032
▁mi	-9.4705
▁Za	-9.47066
▁Luís	-9.47137
▁competición	-9.472
▁logrou	-9.47265
▁pel	-9.47322
▁temperatura	-9.47443
▁campión	-9.4747
▁ci	-9.47521
▁lei	-9.47608
▁estación	-9.47689
▁existe	-9.47744
▁producir	-9.47747
▁Rusia	-9.47754
▁Tri	-9.47764
ura	-9.47815
▁produtos	-9.47971
▁entrada	-9.47989
és	-9.48022
▁existencia	-9.48157
ner	-9.48194
mas	-9.48229
he	-9.48231
▁carga	-9.48337
izado	-9.48413
▁probable	-9.48423
▁deixou	-9.48445
▁Consello	-9.48536
▁industria	-9.48661
▁ga	-9.48883
▁1992	-9.48885
▁numerosa	-9.48966
▁bispo	-9.48968
▁India	-9.4897
▁numerosos	-9.49066
▁occidental	-9.49399
bri	-9.49421
▁naceu	-9.49447
▁Chi	-9.49595
▁premio	-9.49737
gi	-9.49811
▁economía	-9.49832
▁inclúe	-9.49901
ide	-9.49926
▁escrita	-9.49941
fer	-9.50068
▁formada	-9.50371
X	-9.50417
ré	-9.50422
▁dereitos	-9.50584
▁1997	-9.5069
▁Australia	-9.50899
tre	-9.50912
▁Gu	-9.50966
ire	-9.51006
▁fonte	-9.51008
▁fo	-9.51026
▁Sal	-9.51047
amp	-9.51061
▁x	-9.51182
▁cuxa	-9.51185
ac	-9.51223
ero	-9.51268
▁defensa	-9.51367
▁Z	-9.51411
▁natureza	-9.5161
▁barrio	-9.5164
▁evolución	-9.51682
▁Final	-9.51701
▁aves	-9.51764
▁Goberno	-9.51765
▁pan	-9.51794
lar	-9.51835
▁quilómetros	-9.5206
par	-9.52086
▁Río	-9.52131
▁1970	-9.52197
▁formas	-9.52201
▁1994	-9.52215
gos	-9.52295
ea	-9.52437
▁manter	-9.52522
ugués	-9.52571
▁había	-9.52573
ela	-9.52648
iz	-9.52663
▁decidiu	-9.53034
▁pasar	-9.53048
▁ouro	-9.53059
▁boa	-9.53061
▁cuarto	-9.53073
▁Cer	-9.531
▁tradición	-9.5324
rón	-9.53346
▁ir	-9.53601
▁posúe	-9.53723
▁sal	-9.5377
▁máxima	-9.53804
▁México	-9.54054
▁cancións	-9.54083
▁tratamento	-9.54177
uro	-9.54306
▁autores	-9.54312
min	-9.54431
cri	-9.54479
▁complexo	-9.54506
▁presión	-9.54548
▁80	-9.54582
▁bandeira	-9.54648
▁distribución	-9.547
▁Bal	-9.54706
▁aumento	-9.54764
▁1993	-9.54765
▁proba	-9.54834
▁realidade	-9.54896
▁Wa	-9.54928
▁Actualmente	-9.54943
▁cambios	-9.54967
▁Galega	-9.54981
▁Brasil	-9.55083
▁porto	-9.55143
▁!	-9.55195
ix	-9.55221
▁Ex	-9.5528
▁servizos	-9.55343
▁falta	-9.55433
▁super	-9.55453
▁traballa	-9.55595
▁bastante	-9.55638
▁selo	-9.55686
▁resposta	-9.55725
▁mellores	-9.55737
▁An	-9.55778
tt	-9.55783
▁traballar	-9.55841
▁libros	-9.55843
ze	-9.55896
▁similar	-9.55985
▁destas	-9.56097
▁atopar	-9.56254
▁Ben	-9.56289
▁trata	-9.56309
▁comunicación	-9.56467
era	-9.56633
tin	-9.56695
▁masa	-9.56712
▁coche	-9.56737
▁noite	-9.56742
▁celular	-9.56816
gui	-9.56909
50	-9.56911
▁Bra	-9.56938
▁cultural	-9.57112
▁Monte	-9.57135
▁China	-9.57168
▁xoga	-9.57177
▁relativa	-9.57335
▁partes	-9.57337
▁Jo	-9.57353
▁lu	-9.57402
ty	-9.57412
▁h	-9.57418
▁coñece	-9.57437
▁ministro	-9.57449
▁pu	-9.57482
▁curso	-9.57509
▁derrota	-9.57525
▁límite	-9.57588
▁posterior	-9.57629
▁xene	-9.57655
▁Miguel	-9.57682
▁contacto	-9.57684
rri	-9.57697
mbi	-9.57702
dra	-9.5771
nio	-9.57725
▁David	-9.5783
nza	-9.57854
▁representación	-9.58018
▁presente	-9.58059
je	-9.58109
▁imaxes	-9.58393
em	-9.58402
▁rede	-9.58435
▁extremo	-9.58555
▁k	-9.58574
▁New	-9.58593
▁mediados	-9.58648
ana	-9.58681
tado	-9.58721
▁coñecemento	-9.58742
▁toma	-9.58792
▁composto	-9.58803
▁utilizado	-9.58806
▁Pan	-9.58807
▁perda	-9.58911
▁independencia	-9.58937
▁obtivo	-9.58944
▁xente	-9.59003
tur	-9.59032
▁For	-9.59045
▁fundamental	-9.59056
▁nese	-9.59088
▁Idade	-9.59213
▁có	-9.59214
▁Porto	-9.59222
▁habitual	-9.59247
▁activa	-9.59474
▁efectos	-9.59621
▁mestura	-9.59648
ano	-9.59693
▁Mor	-9.59743
▁Academia	-9.59798
▁frecuencia	-9.59798
▁xeneral	-9.59819
▁1960	-9.59831
▁obxecto	-9.59885
▁Ja	-9.59891
▁sangue	-9.60075
ario	-9.6019
▁Que	-9.60315
▁busca	-9.60429
▁Máis	-9.60477
▁chegada	-9.60572
▁áreas	-9.60589
nto	-9.606
▁Ferrol	-9.60709
▁gañar	-9.60752
▁usado	-9.60814
-1	-9.60913
▁XVIII	-9.60925
▁Ve	-9.60981
▁chega	-9.61036
▁1989	-9.61061
▁deriva	-9.61105
▁baseado	-9.61186
ux	-9.61186
▁parece	-9.61196
▁praza	-9.61226
mon	-9.61308
▁sección	-9.61332
▁voo	-9.61389
▁apareceu	-9.61465
▁peso	-9.61493
lan	-9.61503
▁secuencia	-9.61534
▁Afonso	-9.61568
▁Gar	-9.61607
▁xogadores	-9.61833
▁crear	-9.61857
▁Santo	-9.61922
▁actor	-9.61985
▁cu	-9.62037
cción	-9.62044
am	-9.62059
▁regular	-9.6232
▁Bre	-9.62435
à	-9.62478
▁estadio	-9.62507
▁órgano	-9.62651
▁etapa	-9.62652
▁tiveron	-9.62676
▁camiño	-9.62731
▁cantante	-9.62738
can	-9.62761
▁romana	-9.62786
▁densidade	-9.62803
▁castelán	-9.62895
▁madeira	-9.62959
vis	-9.62965
▁viaxe	-9.62967
▁sistemas	-9.63295
▁pouca	-9.63402
pro	-9.63402
mbo	-9.63487
▁ambiente	-9.63496
pu	-9.63525
▁ningunha	-9.63545
▁Posterior	-9.63595
▁horas	-9.63657
▁Gi	-9.6366
▁mestre	-9.63664
iva	-9.6372
lé	-9.63807
▁actividades	-9.6386
▁Centro	-9.63883
▁Ju	-9.63993
ral	-9.64011
▁mans	-9.64029
▁provoca	-9.64036
▁imaxe	-9.64118
▁xeo	-9.64168
▁realizou	-9.64194
▁Nesta	-9.64298
▁70	-9.64407
▁misión	-9.64454
▁dobre	-9.6469
▁Par	-9.64696
▁dura	-9.64714
▁clara	-9.64726
▁planeta	-9.64734
7	-9.64761
▁calidade	-9.64762
▁Coa	-9.64814
ona	-9.6487
▁Era	-9.64921
▁ad	-9.6494
bor	-9.65014
▁británico	-9.65225
▁fontes	-9.65251
ot	-9.65273
▁considerada	-9.65331
▁departamento	-9.65333
xia	-9.65357
▁funcións	-9.65384
▁evitar	-9.65403
▁ta	-9.65495
tic	-9.65553
rd	-9.65592
▁Illa	-9.65748
▁relacións	-9.65754
▁90	-9.6579
ite	-9.65874
▁clima	-9.65895
▁propiedade	-9.6594
▁corte	-9.65996
▁micro	-9.66006
▁creou	-9.66016
▁niveis	-9.66123
▁resulta	-9.66128
▁esquerda	-9.662
▁industrial	-9.66218
▁fu	-9.6626
▁pódese	-9.66303
▁obter	-9.66373
▁Media	-9.66465
▁consecuencia	-9.66617
▁pertencente	-9.66619
▁Gra	-9.66765
tz	-9.66864
ndi	-9.66879
▁pé	-9.6689
▁br	-9.66913
▁golpe	-9.66989
mb	-9.66999
▁castelo	-9.67102
torio	-9.67123
▁posibilidade	-9.67127
▁conseguir	-9.67195
W	-9.6729
▁concepto	-9.67397
▁resistencia	-9.67436
▁Lei	-9.67447
▁publicación	-9.67458
▁Ku	-9.6754
▁contrato	-9.67547
▁composta	-9.67595
▁1987	-9.67626
▁facendo	-9.67733
▁transporte	-9.67778
▁formou	-9.67861
▁ciencia	-9.679
▁NBA	-9.67939
▁probas	-9.67952
▁Asia	-9.67978
▁física	-9.681
▁+	-9.68115
▁reacción	-9.68181
iu	-9.68261
ud	-9.68268
▁longa	-9.68273
▁metal	-9.68458
encia	-9.68666
▁Escola	-9.68932
ic	-9.68946
▁bu	-9.68987
▁conquista	-9.69004
dura	-9.69007
▁conde	-9.69027
iana	-9.69201
▁Museo	-9.69252
▁coroa	-9.69262
▁máximo	-9.6927
▁directamente	-9.69319
▁favor	-9.69351
▁festa	-9.69392
▁persoal	-9.69461
▁fala	-9.69479
▁militares	-9.69498
▁baseada	-9.6956
cor	-9.69584
▁doce	-9.69597
▁texto	-9.69602
▁Ramón	-9.69631
▁aparecen	-9.69747
▁virus	-9.69769
▁CD	-9.6984
▁inferior	-9.69902
▁Fu	-9.69903
▁entrou	-9.69965
▁sector	-9.69983
▁Xunta	-9.70025
▁follas	-9.70025
▁acceso	-9.70093
,5	-9.70107
▁económica	-9.70173
tí	-9.7022
▁concentración	-9.70288
▁moeda	-9.70369
▁aire	-9.70428
▁reinado	-9.70492
▁matrimonio	-9.7052
▁California	-9.70547
▁problema	-9.70571
▁relacionado	-9.70612
ante	-9.70756
▁mecanismo	-9.70815
▁orixina	-9.7087
▁Xosé	-9.71003
▁interna	-9.71084
▁aquel	-9.71132
▁necesidade	-9.71137
▁cine	-9.71154
▁Illas	-9.71178
▁acto	-9.71186
▁próximo	-9.71326
▁ri	-9.71326
▁Paul	-9.71339
▁aparición	-9.71434
▁1986	-9.71522
▁Xeral	-9.7156
▁segue	-9.71691
▁anteriores	-9.71709
▁Deus	-9.71739
usa	-9.71747
▁análise	-9.71759
rado	-9.71794
▁houb	-9.71904
▁trono	-9.71962
▁pista	-9.72
▁denominado	-9.72023
▁podía	-9.72047
▁tempos	-9.7205
▁tratado	-9.72076
▁levar	-9.72084
▁Va	-9.72309
lí	-9.7235
▁doutros	-9.72355
til	-9.72523
▁grega	-9.72557
▁organismos	-9.72607
▁qui	-9.72739
▁moléculas	-9.72774
▁locais	-9.72848
ena	-9.72891
menta	-9.72973
▁nove	-9.73077
▁produto	-9.73126
▁territorios	-9.7313
▁traballou	-9.73154
▁Cataluña	-9.73177
▁humana	-9.73264
▁caza	-9.73297
▁1979	-9.73403
▁constante	-9.73417
mia	-9.73495
▁ocorre	-9.73502
▁Española	-9.73535
▁minutos	-9.73535
▁marcha	-9.73592
▁futuro	-9.73645
▁du	-9.7365
▁Robert	-9.73714
▁escrito	-9.7375
▁nenos	-9.73755
lá	-9.74083
▁u	-9.74151
▁utiliza	-9.74152
▁Ge	-9.74191
▁Don	-9.743
▁ru	-9.74328
▁inverno	-9.74338
▁unidade	-9.74353
▁estados	-9.74376
▁extensión	-9.74394
▁chan	-9.74659
▁sinxelo	-9.7471
▁exterior	-9.7474
té	-9.74752
amento	-9.74805
▁líder	-9.74824
ando	-9.74826
we	-9.74835
▁procedente	-9.74906
▁1978	-9.75014
mpa	-9.75039
▁bio	-9.75077
▁mosteiro	-9.75176
ático	-9.75239
▁Polo	-9.75243
▁produciu	-9.75246
▁resultados	-9.75247
bia	-9.75257
▁López	-9.75259
zi	-9.75273
▁mono	-9.7534
cto	-9.75342
▁carbono	-9.75443
▁irmá	-9.75508
oloxía	-9.75527
ola	-9.75568
▁palabras	-9.75729
▁fondo	-9.75801
▁lles	-9.75805
▁Canadá	-9.75822
dro	-9.75853
izar	-9.75917
▁inclúen	-9.76044
▁comezaron	-9.76161
▁baloncesto	-9.76303
▁raíña	-9.76392
▁Algunha	-9.76416
▁n	-9.76452
▁Outros	-9.76466
▁xogar	-9.76467
▁Congreso	-9.76558
▁materia	-9.76613
gas	-9.76613
▁séculos	-9.7664
▁sin	-9.76644
pla	-9.76734
▁padrón	-9.76758
▁1982	-9.76764
ak	-9.76767
▁We	-9.76782
▁amor	-9.76818
▁Central	-9.7693
▁chama	-9.76983
▁produce	-9.77001
▁anunciou	-9.77005
20	-9.77019
▁1983	-9.77135
▁intento	-9.77154
rie	-9.77269
▁porén	-9.77271
▁estudio	-9.773
▁Popular	-9.77473
▁ferro	-9.77526
▁plan	-9.77551
▁Mundo	-9.77665
tase	-9.77708
▁famoso	-9.77817
▁editado	-9.77936
▁denominación	-9.77946
ñe	-9.77962
rou	-9.78027
▁grave	-9.78048
▁Luis	-9.78057
dora	-9.78067
40	-9.78173
▁2017	-9.78236
▁creado	-9.78276
cida	-9.78287
▁colección	-9.78336
gt	-9.78383
fu	-9.78391
▁inicio	-9.78428
fí	-9.78535
▁visita	-9.78539
mit	-9.78561
▁Arxentina	-9.78568
▁técnica	-9.78585
eu	-9.78617
▁Irlanda	-9.78655
tan	-9.7873
▁1988	-9.7875
▁xornalista	-9.78753
▁personaxe	-9.78827
▁Festival	-9.78916
0	-9.78942
dy	-9.78952
ier	-9.78979
▁Com	-9.79078
ró	-9.79115
▁branco	-9.79137
mes	-9.79317
▁ruso	-9.79426
port	-9.79439
▁escala	-9.79507
▁continua	-9.79623
▁1985	-9.79685
▁Orde	-9.79743
▁James	-9.79773
ä	-9.79779
▁tales	-9.7978
▁medios	-9.79793
▁relixión	-9.79823
lina	-9.79873
▁antigos	-9.79873
▁construído	-9.79904
ö	-9.79913
▁Europea	-9.7997
▁hi	-9.79991
▁accidente	-9.79999
▁XVI	-9.80053
▁Pre	-9.80103
▁circuíto	-9.80146
mática	-9.80158
▁Vo	-9.80165
▁crítica	-9.80203
▁fronteira	-9.80331
vel	-9.80359
▁Mac	-9.80364
▁individuos	-9.8043
▁consiste	-9.80498
▁Ana	-9.80557
▁réxime	-9.80559
ü	-9.80576
▁Pu	-9.80611
én	-9.8063
▁comercio	-9.80653
tia	-9.80711
nder	-9.8072
80	-9.80737
idae	-9.80739
▁asociación	-9.8079
▁porta	-9.8081
▁condado	-9.80815
▁continuou	-9.8083
▁san	-9.80842
▁adoita	-9.80862
ex	-9.80891
lles	-9.80911
▁sociais	-9.80924
▁oriental	-9.8096
▁fundada	-9.80962
mba	-9.80983
▁xogou	-9.81001
▁?	-9.81034
om	-9.81051
▁gas	-9.81072
▁dereita	-9.81086
▁sexual	-9.81123
gen	-9.81139
▁ven	-9.81153
▁altitude	-9.81245
bilidade	-9.81323
▁adestrador	-9.81452
▁Pola	-9.81456
▁Ki	-9.81463
▁participación	-9.81516
for	-9.81574
▁Xu	-9.81593
ér	-9.81612
▁200	-9.81717
▁Eu	-9.81792
▁cuxo	-9.81806
▁razón	-9.8182
è	-9.81864
▁linguaxe	-9.81929
▁entidades	-9.81967
▁George	-9.81999
▁liñas	-9.82007
▁Sta	-9.82097
▁Records	-9.82141
▁1950	-9.82278
▁formando	-9.82335
▁templo	-9.8235
▁variedade	-9.82379
▁elas	-9.8241
▁liberdade	-9.82412
▁personaxes	-9.82443
▁composición	-9.82475
ham	-9.82527
▁be	-9.8253
▁inglesa	-9.82561
ini	-9.82568
bles	-9.8257
▁compositor	-9.82587
▁diferente	-9.82622
cional	-9.8263
mu	-9.827
▁administración	-9.82832
▁alemá	-9.82907
izada	-9.8292
▁armas	-9.82961
▁pública	-9.83043
▁chegaron	-9.83079
▁será	-9.83115
▁1977	-9.83175
▁dar	-9.83244
▁monte	-9.83301
▁St	-9.83311
▁Or	-9.83348
▁Grecia	-9.83355
▁duque	-9.83432
▁cromosoma	-9.83471
▁compostos	-9.83491
▁consta	-9.83687
▁clases	-9.83817
▁peixes	-9.83846
▁González	-9.83898
▁Valencia	-9.83978
▁príncipe	-9.84051
▁Xogos	-9.84057
▁motivo	-9.84059
▁nalgún	-9.84082
tá	-9.84119
▁Bretaña	-9.84143
▁honra	-9.84144
▁combate	-9.84227
▁indican	-9.84241
▁representante	-9.84454
▁achega	-9.84539
cido	-9.84584
▁certo	-9.84604
▁torre	-9.84645
▁limita	-9.84702
▁Cla	-9.84708
▁recoñecemento	-9.84719
gan	-9.84738
▁saída	-9.84739
▁recurso	-9.84787
▁Henrique	-9.84951
im	-9.84982
▁animal	-9.84983
▁Je	-9.85009
▁1984	-9.85043
▁ataque	-9.85081
▁algún	-9.85172
▁acaba	-9.8519
▁1981	-9.85198
▁1976	-9.85199
▁pertence	-9.8523
▁poeta	-9.85269
▁artistas	-9.85314
▁entra	-9.8533
▁experiencia	-9.85346
▁Mentre	-9.85353
gre	-9.85404
▁obxectos	-9.85413
▁lanzado	-9.85435
▁dirixida	-9.85579
▁destaca	-9.85581
rum	-9.85603
▁utilizar	-9.85656
▁William	-9.85664
▁Aragón	-9.8569
▁técnicas	-9.85732
▁azul	-9.85778
▁Ó	-9.85939
▁diante	-9.86053
ō	-9.86067
▁bar	-9.8612
▁precisa	-9.86157
toria	-9.86216
▁Existen	-9.86244
▁Austria	-9.86251
tada	-9.863
▁empeza	-9.86414
▁actriz	-9.86438
▁Jean	-9.86489
yo	-9.86586
▁propiedades	-9.86601
▁interpretación	-9.86613
▁converter	-9.8672
▁Mer	-9.86792
▁recibe	-9.86807
ontevedrés	-9.86815
▁grao	-9.86817
▁naturais	-9.86848
bal	-9.86917
aria	-9.8695
▁elemento	-9.87037
▁decisión	-9.87042
-2	-9.87092
▁Parlamento	-9.87099
▁tomou	-9.87131
▁recibir	-9.87186
▁Bor	-9.87235
▁completo	-9.87268
▁científico	-9.87296
▁prefectura	-9.87447
▁Y	-9.87498
▁parella	-9.87552
mor	-9.87558
▁cores	-9.87759
▁ocupa	-9.87779
▁Pérez	-9.87987
▁descubrimento	-9.88019
▁noutro	-9.88031
rí	-9.88103
▁creada	-9.88146
▁considera	-9.88152
▁rápida	-9.88211
▁educación	-9.88211
▁Ya	-9.88211
▁esposa	-9.88223
▁plano	-9.8829
xen	-9.88377
▁dez	-9.88389
▁atópan	-9.88402
▁responsable	-9.8853
vé	-9.88531
mé	-9.88622
▁suficiente	-9.88691
▁noroeste	-9.88691
▁1975	-9.88732
▁mando	-9.88767
gna	-9.88844
▁torneo	-9.88853
,6	-9.88855
▁cámara	-9.88885
ker	-9.88899
▁océano	-9.8898
▁ruta	-9.8898
J	-9.88993
▁Los	-9.89002
▁poesía	-9.89044
▁Cruz	-9.8908
▁fundado	-9.89143
▁escudo	-9.89226
▁escribir	-9.89403
,4	-9.89417
ves	-9.89423
▁coñecidos	-9.89458
10	-9.89474
ure	-9.89504
▁viven	-9.8959
van	-9.89608
▁península	-9.89658
▁estruturas	-9.89663
30	-9.8971
▁estudar	-9.89713
ment	-9.89761
▁Cada	-9.89815
▁tro	-9.89846
▁publicada	-9.89848
▁Debid	-9.89914
cro	-9.89983
▁35	-9.90133
▁comúns	-9.90169
▁Ur	-9.90288
▁oposición	-9.90289
▁parede	-9.9031
▁bordo	-9.90315
▁vivir	-9.90366
dre	-9.90419
▁chegando	-9.90424
▁tomar	-9.90549
▁instalación	-9.90556
▁Grande	-9.90739
au	-9.90795
▁FC	-9.90836
riz	-9.90864
illa	-9.90903
stri	-9.90984
▁Mil	-9.90996
▁conserva	-9.90999
dica	-9.91009
ula	-9.91076
▁franceses	-9.91127
rea	-9.9114
▁incluso	-9.9116
▁rolda	-9.91226
▁trala	-9.91233
▁normal	-9.91373
▁tódolo	-9.9139
▁unidades	-9.91415
tr	-9.91443
teñen	-9.91467
▁contido	-9.91547
▁moderna	-9.91615
com	-9.91623
▁corrente	-9.91709
▁construír	-9.91717
▁cuberta	-9.91791
▁Ferrari	-9.91795
▁sueste	-9.9183
▁disputa	-9.91839
▁pais	-9.91844
▁pezas	-9.91907
▁esp	-9.91942
▁500	-9.91973
▁materiais	-9.91981
▁pobos	-9.92009
▁romano	-9.92027
▁1930	-9.92099
▁desenvolveu	-9.9211
ther	-9.92168
▁cancro	-9.92259
▁seguir	-9.92279
ez	-9.92303
ey	-9.92312
▁Sch	-9.92317
▁XVII	-9.92318
xer	-9.92424
gro	-9.92447
▁dinastía	-9.92451
▁denominada	-9.92507
▁1974	-9.92558
▁ponte	-9.92559
▁colaboración	-9.92628
▁meta	-9.92672
▁histórico	-9.92755
▁capela	-9.92788
▁fixeron	-9.92818
0.000	-9.92936
▁frecuente	-9.9306
▁posteriores	-9.93072
tán	-9.9309
▁1973	-9.93159
▁rapidamente	-9.93186
▁suma	-9.93211
▁Che	-9.93251
zar	-9.93285
▁rápido	-9.93287
▁breve	-9.93287
bio	-9.93348
tis	-9.93417
tida	-9.93424
▁ascenso	-9.93489
▁encontro	-9.93503
▁femias	-9.9352
▁artigo	-9.93627
▁médico	-9.93737
▁Asociación	-9.93759
70	-9.93842
▁VI	-9.93887
▁arquitectura	-9.93961
▁vinte	-9.93982
▁entrar	-9.9409
▁árabe	-9.94123
ras	-9.94138
▁detrás	-9.94207
fund	-9.94236
▁química	-9.94284
del	-9.94398
▁histórica	-9.9441
▁infección	-9.94504
eiros	-9.94507
▁directo	-9.94598
▁feita	-9.94658
q	-9.94666
▁potencia	-9.94668
▁municipais	-9.94742
9	-9.94762
stru	-9.94782
▁Tor	-9.94831
berg	-9.94854
▁contrario	-9.94913
▁acadou	-9.95022
▁irmáns	-9.9504
▁xenética	-9.95052
▁semellante	-9.95062
▁machos	-9.95126
igo	-9.95208
▁daquela	-9.9524
▁ovos	-9.95244
arse	-9.95266
▁adoitan	-9.95345
▁Inter	-9.95407
▁Pat	-9.95512
▁estableceu	-9.95545
90	-9.95662
▁nacemento	-9.95681
▁fusión	-9.95703
▁dólares	-9.95866
wi	-9.95902
▁pasando	-9.95908
ji	-9.95932
tel	-9.9597
▁organismo	-9.95971
▁comportamento	-9.95984
▁continente	-9.96012
lio	-9.96054
iza	-9.96148
▁mellora	-9.96242
▁Plan	-9.9634
▁demais	-9.96343
▁presentan	-9.96392
▁dirixiu	-9.96414
▁nomes	-9.96475
▁branca	-9.96554
▁Dereito	-9.96566
▁delas	-9.96579
▁coñecer	-9.96602
▁Cre	-9.96608
▁Pen	-9.96677
titu	-9.96694
▁paz	-9.96703
▁parque	-9.96839
▁Torre	-9.96874
▁amigo	-9.96881
▁Pode	-9.96901
▁Deportivo	-9.96948
uta	-9.96982
▁batería	-9.97006
▁oficiais	-9.97018
▁Bur	-9.97027
▁deben	-9.97102
▁publica	-9.97134
▁semana	-9.97178
▁romanos	-9.97203
▁soldados	-9.97212
▁Michael	-9.97227
▁beira	-9.97297
▁tecnoloxía	-9.97367
▁Ke	-9.97374
▁voz	-9.97415
▁XIII	-9.97423
▁económico	-9.97424
▁Isabel	-9.97439
▁conflito	-9.9746
▁Tráta	-9.97509
▁doutras	-9.9757
▁realizada	-9.97615
▁iniciou	-9.97711
ún	-9.97726
▁letra	-9.97728
ár	-9.97728
▁aminoácido	-9.97893
▁crise	-9.97916
▁fundador	-9.9796
▁xornal	-9.97967
ixa	-9.97982
▁enorme	-9.98077
▁usa	-9.98088
▁curva	-9.98116
▁he	-9.98143
ei	-9.98176
ixo	-9.9818
▁obstante	-9.98211
▁atravesa	-9.98317
▁1968	-9.98325
▁Exipto	-9.98493
ato	-9.98526
▁volver	-9.98528
▁1967	-9.98679
▁filosofía	-9.98706
tivos	-9.98757
mis	-9.98808
ios	-9.9881
cito	-9.98883
▁respectivamente	-9.98883
ñ	-9.98906
▁canle	-9.98969
▁casou	-9.98989
▁seguridade	-9.9899
▁ambas	-9.9903
ques	-9.99065
▁cambia	-9.99086
▁vive	-9.99086
▁exposición	-9.99111
▁símbolo	-9.99117
iga	-9.99119
▁estrela	-9.99127
▁fíxose	-9.99168
▁internacionais	-9.99208
dí	-9.99219
cle	-9.99334
fra	-9.99371
▁pintura	-9.99421
▁Malia	-9.99439
ila	-9.99477
▁Nun	-9.99548
▁expedición	-9.99574
ft	-9.99642
▁recentemente	-9.99672
▁mon	-9.99695
▁Am	-9.9973
▁Wi	-9.99785
▁realizado	-9.99793
▁tendo	-9.99808
▁característica	-9.99857
▁mm	-9.99866
▁Atlántico	-9.99883
▁perdeu	-9.99886
▁estrada	-9.9998
▁procesos	-10.0001
▁Mal	-10.0002
▁unir	-10.0012
tino	-10.0013
▁pasado	-10.0013
▁ópera	-10.0014
▁europeos	-10.0015
rina	-10.0017
▁Novo	-10.0018
lli	-10.002
▁localiza	-10.0024
ata	-10.0027
▁depende	-10.0029
vin	-10.0031
▁deixar	-10.0034
zu	-10.0039
▁ideas	-10.0039
▁cola	-10.004
▁arquitecto	-10.0042
ek	-10.0046
▁clásica	-10.0046
▁españois	-10.005
▁terreo	-10.0052
▁va	-10.0059
▁rematou	-10.0064
▁guitarra	-10.0075
▁multi	-10.0078
▁nuclear	-10.0078
▁xu	-10.008
▁risco	-10.0083
▁atención	-10.0083
cul	-10.0085
dri	-10.0088
kh	-10.0089
gás	-10.0097
kin	-10.01
tus	-10.0101
▁Sil	-10.0101
▁deixa	-10.0101
▁1972	-10.0105
▁Federación	-10.0105
cé	-10.0107
▁saúde	-10.0115
▁verde	-10.0115
▁catalán	-10.0116
▁termos	-10.0124
▁usar	-10.0124
▁ámbito	-10.0129
α	-10.0144
tó	-10.0145
▁comprende	-10.0154
▁sabe	-10.0154
▁Ser	-10.0157
▁32	-10.017
▁1969	-10.017
▁sala	-10.0173
▁’	-10.0173
▁malia	-10.0174
▁movementos	-10.0183
ct	-10.0188
▁encontra	-10.019
▁proposta	-10.0192
▁sufriu	-10.0193
▁reforma	-10.02
▁veciños	-10.0201
▁varía	-10.0208
▁Fútbol	-10.0217
▁Escocia	-10.0225
▁produtor	-10.0225
▁candidato	-10.0228
▁tradución	-10.0232
▁ríos	-10.0236
▁garda	-10.0237
ificación	-10.0238
pp	-10.0252
▁memoria	-10.0254
nca	-10.0256
▁carne	-10.0258
▁nave	-10.026
▁Moito	-10.0265
▁Estudou	-10.0265
ski	-10.0268
▁simple	-10.0275
▁cerca	-10.0277
aba	-10.0278
▁procura	-10.0283
ov	-10.0293
▁emp	-10.0294
▁1940	-10.0296
▁go	-10.0296
▁considerar	-10.0297
▁Cidade	-10.03
by	-10.0301
▁implica	-10.0304
▁textos	-10.0307
iño	-10.0309
▁taxa	-10.0319
▁Costa	-10.0326
cía	-10.0326
▁empresas	-10.0326
▁mamíferos	-10.0327
▁XII	-10.0327
▁aspecto	-10.0328
ev	-10.0328
nal	-10.0333
▁específico	-10.0339
▁difícil	-10.0342
und	-10.0345
▁invasión	-10.0346
▁asinou	-10.0363
▁edificios	-10.0364
▁lago	-10.0365
▁substituído	-10.0367
▁familias	-10.0369
▁similares	-10.0371
▁deporte	-10.0378
11	-10.0389
var	-10.0392
▁Mont	-10.0393
esta	-10.0406
▁árbores	-10.0411
▁científicos	-10.0413
▁ameaza	-10.0417
uri	-10.0418
▁fundou	-10.0428
▁físico	-10.0429
od	-10.0431
hu	-10.0435
tario	-10.0439
▁universidade	-10.0441
cti	-10.0443
▁gobernador	-10.0444
tch	-10.0446
lus	-10.0446
▁políticas	-10.045
▁Fer	-10.0453
▁Ter	-10.0463
ís	-10.0466
▁1945	-10.0467
▁órbita	-10.047
mán	-10.047
▁Baixos	-10.047
mil	-10.0479
gado	-10.0489
▁1920	-10.0491
▁xéneros	-10.0491
▁caída	-10.0495
▁remata	-10.0496
▁vo	-10.0497
▁políticos	-10.0504
▁Art	-10.0508
▁1971	-10.0512
▁diámetro	-10.0515
▁simplemente	-10.0516
rt	-10.0522
▁xunta	-10.0529
▁cuestión	-10.053
▁Campo	-10.0532
eo	-10.0543
íronse	-10.0558
▁Bel	-10.0558
▁Ponte	-10.056
▁pilotos	-10.0563
▁Ata	-10.057
▁deputado	-10.0571
ua	-10.0572
ónico	-10.0572
ás	-10.0574
▁crea	-10.0575
▁colonia	-10.0576
▁alcanza	-10.0585
▁pesca	-10.0594
▁flores	-10.0596
han	-10.0596
60	-10.0598
▁hora	-10.0599
▁consumo	-10.0599
▁Men	-10.0613
▁goles	-10.0613
,8	-10.0615
▁fre	-10.0617
ian	-10.0625
▁Wo	-10.063
▁alimentos	-10.0631
▁bases	-10.0637
▁Presidente	-10.0639
▁cá	-10.064
▁negra	-10.0641
▁fábrica	-10.0645
▁protección	-10.0649
▁desenvolver	-10.0649
▁Nu	-10.0664
▁45	-10.0665
▁Filipe	-10.0671
▁participa	-10.0672
▁visión	-10.0681
▁Saint	-10.0685
uga	-10.0685
▁extra	-10.0686
▁totalmente	-10.0687
▁secretario	-10.0695
▁revolución	-10.0706
▁artista	-10.0708
▁negro	-10.0708
▁expansión	-10.071
▁suroeste	-10.0718
ella	-10.0721
▁Camp	-10.0729
▁experimenta	-10.0729
▁medicina	-10.0737
▁valores	-10.0738
vol	-10.0739
▁VII	-10.0742
▁motores	-10.0742
▁Soviética	-10.0745
▁contaba	-10.0748
▁terminou	-10.0752
▁letras	-10.0753
▁distribuídos	-10.0759
,1	-10.0759
▁Grupo	-10.0765
▁Serra	-10.0766
▁artigos	-10.0768
▁Asturias	-10.0768
▁permitiu	-10.0773
▁reco	-10.0773
▁Har	-10.0778
▁cobre	-10.0779
ent	-10.0783
▁censo	-10.0793
▁Pacífico	-10.0795
▁titular	-10.0796
▁Er	-10.0812
▁significado	-10.082
▁participar	-10.0828
▁imperio	-10.0833
▁leis	-10.0837
cra	-10.0837
▁trasladou	-10.0839
▁1931	-10.0843
▁coches	-10.0849
▁estrea	-10.0849
▁código	-10.085
▁propios	-10.0854
▁construída	-10.0856
▁foto	-10.0858
▁Antes	-10.0859
▁destino	-10.0861
▁estrelas	-10.0867
▁Tre	-10.0871
▁compoñentes	-10.0873
▁británica	-10.0873
ara	-10.0878
cou	-10.088
▁von	-10.0885
▁gra	-10.0895
▁actuais	-10.0897
▁cousas	-10.0904
▁seguiu	-10.0905
▁cultivo	-10.0911
cial	-10.0911
▁Charles	-10.0913
▁notable	-10.0915
▁cinema	-10.0917
▁xeración	-10.0918
ística	-10.0918
▁católica	-10.092
▁provincias	-10.0927
▁vén	-10.093
ética	-10.0932
▁Suecia	-10.0933
ilo	-10.0933
▁volume	-10.0933
▁Martin	-10.0937
stre	-10.094
▁agricultura	-10.094
▁tendencia	-10.0951
▁portugués	-10.0956
25	-10.0959
▁definición	-10.0964
,2	-10.0968
▁estudou	-10.0969
▁labor	-10.097
12	-10.0979
▁Outras	-10.0982
▁literaria	-10.0988
ius	-10.0988
▁menores	-10.0989
▁fundación	-10.099
xio	-10.099
▁vermello	-10.0996
▁poemas	-10.1001
▁Sen	-10.1001
▁pra	-10.1001
ído	-10.1006
tano	-10.1013
▁necesario	-10.1013
▁xenoma	-10.1014
▁activo	-10.1022
▁Bru	-10.1027
▁aberto	-10.1029
▁Cara	-10.1038
▁medieval	-10.1039
▁múltiple	-10.1039
deira	-10.104
▁Ese	-10.1051
▁Villa	-10.1052
▁premios	-10.1055
▁lanzamento	-10.1061
▁autoridade	-10.1063
ight	-10.1076
,0	-10.1082
▁converte	-10.1085
uto	-10.1086
icos	-10.1088
▁Ir	-10.1091
▁gravación	-10.1091
,9	-10.11
por	-10.1111
▁aumenta	-10.1113
▁intención	-10.1131
▁Constitución	-10.1135
▁gañador	-10.1146
▁aberta	-10.1146
▁Aires	-10.115
ford	-10.1153
▁She	-10.1154
▁procede	-10.1177
▁expresa	-10.1182
▁All	-10.1186
▁vermella	-10.1188
▁́	-10.1188
▁producido	-10.1189
▁Eduardo	-10.1191
▁populares	-10.1197
▁semanas	-10.1199
bol	-10.1203
▁converténdo	-10.1204
qu	-10.1205
▁establecer	-10.1206
▁Super	-10.1213
▁claro	-10.1217
▁protagonista	-10.1219
▁dita	-10.1221
▁comun	-10.1224
▁italiana	-10.1233
▁aldea	-10.1242
▁mantivo	-10.1242
lista	-10.1242
▁diferenzas	-10.1248
▁Sha	-10.1249
▁usando	-10.1251
▁converteu	-10.1251
iano	-10.1254
▁molécula	-10.1256
▁elección	-10.1258
▁certos	-10.1268
▁nesa	-10.1277
▁aquela	-10.1278
xida	-10.1283
▁desaparece	-10.1283
dón	-10.1285
▁ofrece	-10.1286
▁1963	-10.129
▁Qui	-10.1295
▁incremento	-10.1305
▁Alí	-10.1308
▁pintor	-10.1312
▁cri	-10.1312
▁semi	-10.1316
▁Sevilla	-10.1319
▁Dan	-10.1322
07	-10.133
▁ref	-10.1334
▁1962	-10.1344
▁amplo	-10.1348
▁Van	-10.1349
▁científica	-10.135
▁dificultade	-10.1351
▁tu	-10.1355
▁1964	-10.1356
op	-10.1359
▁volve	-10.1364
▁prensa	-10.1368
▁v	-10.137
▁Mag	-10.1374
▁títulos	-10.1374
▁receptor	-10.1376
▁Exército	-10.138
▁exemplares	-10.138
▁National	-10.1384
my	-10.1388
▁1966	-10.1389
▁Ze	-10.139
▁apena	-10.1391
▁rama	-10.1394
▁pole	-10.1409
▁táboa	-10.1413
▁quinto	-10.1414
▁XV	-10.142
▁1939	-10.1422
▁futbolista	-10.1426
▁Só	-10.1433
▁ensaio	-10.1438
ético	-10.1439
▁votos	-10.1439
▁Mel	-10.1445
▁versións	-10.1455
▁costas	-10.1457
▁neo	-10.1458
ivo	-10.1458
bar	-10.1475
▁profundidade	-10.1475
▁feitos	-10.1479
▁Bla	-10.1485
▁nu	-10.1487
▁33	-10.1488
▁Tom	-10.1491
▁campos	-10.1491
▁poboacións	-10.1494
▁museo	-10.15
▁gl	-10.1505
▁catedral	-10.1509
.1	-10.1511
▁Revolución	-10.1513
▁concertos	-10.1519
ábanse	-10.1521
▁Ama	-10.1521
ólogo	-10.1523
lismo	-10.153
▁recoñecido	-10.1535
ai	-10.1539
gou	-10.1545
▁Xesús	-10.1546
▁europeo	-10.1549
▁Navarra	-10.1551
▁músculo	-10.1555
▁Richard	-10.1555
▁calor	-10.1558
dic	-10.156
▁acadar	-10.1561
▁nalgunha	-10.1563
▁My	-10.1566
▁prata	-10.1567
▁1965	-10.1568
▁Ara	-10.157
▁figuras	-10.157
ístico	-10.1571
dal	-10.1578
▁Vasco	-10.1579
gal	-10.158
nu	-10.1584
и	-10.1593
▁Pouco	-10.1593
cente	-10.1594
▁altas	-10.1595
isto	-10.1604
▁1958	-10.1606
▁Ciencias	-10.1608
▁sinal	-10.1615
rada	-10.1615
cada	-10.162
▁permaneceu	-10.1629
cina	-10.1631
▁hipótese	-10.1639
▁anteriormente	-10.1641
ída	-10.1642
pen	-10.1647
▁dixo	-10.1647
▁residencia	-10.1652
ible	-10.1659
▁Xe	-10.1668
tivas	-10.167
▁Polonia	-10.167
▁novamente	-10.1673
▁presentar	-10.1675
tido	-10.1676
bro	-10.168
gri	-10.1684
▁urbano	-10.1686
▁Fillo	-10.1687
▁excepción	-10.169
▁capitán	-10.1694
ib	-10.1695
▁Bas	-10.1697
▁compañeiro	-10.1699
▁mala	-10.1699
gon	-10.1701
▁Pla	-10.1702
rk	-10.1711
gli	-10.1711
▁tempadas	-10.1712
▁policía	-10.1712
nato	-10.1712
▁lenda	-10.1715
▁Bro	-10.1719
▁eléctrica	-10.1721
ografía	-10.1725
▁números	-10.1729
▁Todos	-10.173
pto	-10.1734
▁presentes	-10.1741
▁podían	-10.1741
▁pasaxeiros	-10.1741
▁Outra	-10.1746
▁usada	-10.1749
▁Nese	-10.1752
▁síntese	-10.1754
▁escena	-10.1758
▁suxire	-10.1758
▁famosa	-10.1767
dd	-10.1768
xes	-10.1769
▁árbore	-10.177
▁meirande	-10.1771
▁avión	-10.1775
idas	-10.1776
▁frecuentemente	-10.1779
vas	-10.1784
▁Paulo	-10.1796
▁Ab	-10.1797
inas	-10.1803
lis	-10.1804
▁canta	-10.1805
▁Tar	-10.1814
▁producen	-10.1816
▁europea	-10.1817
▁inmediata	-10.1818
▁posesión	-10.1818
tín	-10.182
▁Chá	-10.1831
▁ollos	-10.1835
ína	-10.1837
▁Outro	-10.1839
aron	-10.1846
nés	-10.1847
▁atopou	-10.185
▁significativa	-10.1851
ónica	-10.1859
▁tecidos	-10.1863
▁tira	-10.1865
ell	-10.1869
▁imp	-10.1869
▁Fri	-10.1877
▁accións	-10.1885
nga	-10.1889
▁toca	-10.1891
cus	-10.1892
▁300	-10.1892
▁Berlín	-10.1897
▁Sociedade	-10.1898
izou	-10.1904
▁Tro	-10.1905
▁arco	-10.1906
▁consello	-10.1907
▁próxima	-10.191
▁Radio	-10.191
▁noutras	-10.1915
pul	-10.1919
▁frota	-10.1926
▁permanente	-10.1927
▁montaña	-10.1933
▁1948	-10.1941
▁Suíza	-10.1948
▁latino	-10.1949
▁previa	-10.1956
▁barco	-10.1958
▁Comezou	-10.1962
▁adaptación	-10.1966
▁cría	-10.1966
rias	-10.1972
▁rematar	-10.1981
ril	-10.1986
tista	-10.1995
▁Martínez	-10.1997
27	-10.2004
ador	-10.2005
▁venda	-10.201
▁ensino	-10.2012
cado	-10.2015
▁Sar	-10.2022
▁observación	-10.2025
▁seguido	-10.2026
▁formal	-10.2027
▁permanece	-10.2029
▁temperaturas	-10.2033
▁Thomas	-10.2036
▁insectos	-10.2039
▁adiante	-10.2041
▁exclusiva	-10.2045
-18	-10.2048
▁modelos	-10.2051
▁tradicionais	-10.2054
▁fenómeno	-10.2056
▁1933	-10.2059
lán	-10.206
▁Lago	-10.206
▁traballador	-10.2064
▁Cuba	-10.2066
inos	-10.207
▁continuación	-10.2071
▁Vicente	-10.2071
▁Tal	-10.208
-3	-10.2091
▁Sin	-10.2092
▁tor	-10.21
net	-10.2102
nica	-10.211
▁azucre	-10.2111
▁acabou	-10.2111
gor	-10.2118
cla	-10.2122
▁Trala	-10.2125
▁foran	-10.2128
▁Alonso	-10.2129
▁chamadas	-10.213
▁instrumentos	-10.2131
úa	-10.2135
nco	-10.2137
▁hidróxeno	-10.2138
▁proporciona	-10.2142
▁Parque	-10.2148
ville	-10.2152
ang	-10.217
▁esencial	-10.2174
▁duración	-10.2176
ller	-10.2178
▁corresponde	-10.2178
▁nel	-10.2181
▁orquestra	-10.2187
form	-10.2195
▁Civil	-10.2197
▁League	-10.2197
▁entrega	-10.2204
▁satélite	-10.2207
tero	-10.221
cy	-10.2212
▁destacan	-10.2223
▁musicais	-10.2223
▁1961	-10.2228
▁autoridades	-10.2229
ándoo	-10.2232
▁explica	-10.224
▁coñeceu	-10.2241
▁presidencia	-10.225
▁Dis	-10.2252
18	-10.2252
▁vías	-10.2255
enta	-10.226
▁Teatro	-10.226
▁tratar	-10.226
▁chi	-10.2261
▁átomo	-10.2261
sk	-10.2262
▁potencial	-10.2262
▁1937	-10.2264
▁determinada	-10.2266
▁nela	-10.2271
ciona	-10.2273
▁alternativo	-10.2274
▁epi	-10.2276
▁provocou	-10.2281
▁Mariña	-10.2284
▁supera	-10.2288
▁programas	-10.2296
▁condición	-10.2297
▁fer	-10.2299
▁medalla	-10.2299
▁teña	-10.2302
tta	-10.2303
▁avogado	-10.2303
ers	-10.2303
▁Red	-10.231
▁Virxe	-10.2313
▁peixe	-10.2317
▁Pri	-10.2322
▁serve	-10.2323
17	-10.2325
ah	-10.2326
▁lúa	-10.2328
ye	-10.2333
▁com	-10.2333
▁absoluta	-10.234
nado	-10.2341
▁sexo	-10.2344
▁impacto	-10.2345
ótica	-10.2345
▁pensamento	-10.2352
▁Sant	-10.2362
▁1918	-10.2364
▁atmosfera	-10.2368
▁1934	-10.2369
▁regresou	-10.2369
▁estreado	-10.237
▁Deste	-10.2371
pas	-10.2371
tico	-10.2372
▁Cristo	-10.2381
▁fra	-10.2381
▁casas	-10.2381
▁presentou	-10.2389
rido	-10.2394
▁perder	-10.2395
▁formato	-10.2397
sol	-10.2399
▁foguete	-10.2404
cios	-10.2415
cionais	-10.2417
▁cento	-10.2417
▁emisión	-10.242
▁peza	-10.2421
▁seres	-10.2425
▁her	-10.2428
▁aquí	-10.2434
cher	-10.2437
tismo	-10.244
▁Serbia	-10.2441
▁aspectos	-10.2445
▁producida	-10.2454
▁Olímpicos	-10.2457
cano	-10.2466
gur	-10.2466
len	-10.2468
dade	-10.247
▁Ad	-10.2473
▁dito	-10.2474
▁practicamente	-10.2481
▁plataforma	-10.2482
▁Williams	-10.2486
anse	-10.249
▁viu	-10.2494
▁contexto	-10.2496
▁tarefa	-10.2496
▁escura	-10.2498
mida	-10.25
▁arquipélago	-10.2505
▁posúen	-10.2508
▁lograr	-10.2508
▁raíz	-10.251
▁señor	-10.251
▁actuación	-10.2511
▁carta	-10.2526
▁vantaxe	-10.2528
▁1956	-10.2529
▁cuarta	-10.2533
▁tecido	-10.2538
eto	-10.2538
▁kg	-10.2546
▁Hill	-10.2546
▁posta	-10.2549
lica	-10.2554
▁Shi	-10.2555
ec	-10.2556
▁1946	-10.2557
olo	-10.2557
▁sucesor	-10.2557
▁americano	-10.2559
ví	-10.2559
24	-10.2562
▁localización	-10.2567
▁bandas	-10.257
▁Xo	-10.2571
dar	-10.2574
▁Israel	-10.2575
▁Ger	-10.2575
▁Ed	-10.2575
▁mantén	-10.2578
ling	-10.2578
▁opinión	-10.2579
▁espectadores	-10.2581
▁1959	-10.2585
▁crece	-10.2585
▁saíu	-10.2585
▁partículas	-10.2585
íu	-10.2586
▁desenvolvido	-10.2586
tera	-10.2588
▁1947	-10.2589
▁coñecidas	-10.2594
▁XIV	-10.2594
▁Cro	-10.2596
lic	-10.2596
▁Peter	-10.2597
aceae	-10.2606
▁Comité	-10.2607
▁cen	-10.2608
▁comerciais	-10.2612
nie	-10.2612
▁36	-10.2614
ay	-10.2622
▁aceite	-10.2626
▁fachada	-10.2626
▁men	-10.2627
▁empregado	-10.2629
▁técnico	-10.2632
▁sé	-10.2638
▁directa	-10.2641
▁&#124;	-10.2649
▁cha	-10.2653
▁candidatura	-10.2654
rna	-10.2654
▁emprega	-10.2659
▁servir	-10.266
▁xudeus	-10.2668
.2	-10.2673
▁pata	-10.2674
▁Oriental	-10.2677
▁constitúe	-10.2677
▁gol	-10.268
▁aplicación	-10.2683
quí	-10.2685
▁Asemblea	-10.2687
eiras	-10.2688
▁perigo	-10.2688
▁declarou	-10.2692
▁xogos	-10.2692
▁Tratado	-10.2694
udi	-10.2695
ub	-10.2696
▁Gua	-10.2698
▁Romano	-10.2702
▁Louis	-10.2704
▁onda	-10.2705
có	-10.2711
▁viviu	-10.2716
▁hab	-10.2718
▁neno	-10.2718
▁Mediterráneo	-10.2724
.6	-10.2725
▁viño	-10.2732
▁ni	-10.2733
▁Betanzos	-10.2739
▁37	-10.274
05	-10.2747
nar	-10.2748
▁variable	-10.275
mann	-10.2754
imo	-10.2755
-20	-10.2755
▁obriga	-10.2758
▁bosques	-10.2759
▁captura	-10.2763
Z	-10.2772
▁diario	-10.2775
▁adultos	-10.2779
▁empezou	-10.2781
▁Air	-10.2787
▁acada	-10.2792
ust	-10.2794
▁cro	-10.2794
▁amosa	-10.2806
▁británicos	-10.2806
▁corre	-10.2813
her	-10.2814
bil	-10.2816
▁praia	-10.2816
▁necesaria	-10.2816
tio	-10.2818
▁Bélxica	-10.2824
▁34	-10.2827
▁Sicilia	-10.2829
▁literario	-10.2829
▁facía	-10.2833
▁demasiado	-10.2833
▁provén	-10.2833
▁fórmula	-10.2843
olóxico	-10.2844
▁Chile	-10.2848
rín	-10.2849
▁secuencias	-10.285
99	-10.2856
▁concerto	-10.2857
▁web	-10.2858
▁Salvador	-10.2859
▁institucións	-10.2859
▁legal	-10.286
▁hidro	-10.286
▁décadas	-10.2863
▁realiza	-10.2863
75	-10.2864
ticamente	-10.2868
antes	-10.2872
iste	-10.2875
▁nacionais	-10.2877
▁1941	-10.2882
▁corazón	-10.2891
▁Concello	-10.2896
▁Socialista	-10.2898
▁proximidade	-10.29
teiro	-10.2903
ph	-10.2905
tru	-10.2907
▁diso	-10.2912
ist	-10.2916
ló	-10.2917
nesa	-10.2918
▁dividido	-10.2923
▁combinación	-10.293
eno	-10.2932
éronse	-10.2932
▁arcebispo	-10.2934
▁anticorpo	-10.2934
▁practica	-10.2941
▁Occidental	-10.2944
▁líquido	-10.2949
▁correspondente	-10.2952
▁Artes	-10.2954
▁ton	-10.2955
▁motivos	-10.2955
▁Fra	-10.2956
▁coro	-10.2959
rino	-10.2962
uros	-10.2966
▁xer	-10.2968
▁dialecto	-10.2968
▁debuxo	-10.2969
▁opera	-10.2975
95	-10.2977
▁propias	-10.298
04	-10.298
lum	-10.2983
ep	-10.2984
85	-10.2988
▁ía	-10.2992
▁lin	-10.2995
tha	-10.2999
▁temporada	-10.3003
one	-10.3004
tados	-10.3006
▁hábitat	-10.3007
▁monarca	-10.3007
▁1954	-10.3008
▁Pala	-10.3008
eg	-10.3008
▁portuguesa	-10.301
tsu	-10.3011
ctor	-10.3012
▁entidade	-10.3022
rais	-10.3023
ense	-10.3027
▁gravado	-10.303
▁podemo	-10.3032
▁cristiá	-10.3035
ι	-10.3036
▁sacerdote	-10.3036
ab	-10.3042
▁curto	-10.3042
mio	-10.3044
xón	-10.3045
▁Atenas	-10.3046
rde	-10.3056
▁pos	-10.3058
mal	-10.3066
▁solución	-10.3066
▁marxe	-10.3069
▁celebrou	-10.307
▁poderían	-10.307
▁queda	-10.3085
▁curta	-10.3085
е	-10.309
▁pas	-10.3093
▁Forma	-10.3095
▁pen	-10.3097
▁localizado	-10.3103
▁escenario	-10.3103
▁flor	-10.3104
▁descubriu	-10.3104
▁ausencia	-10.3105
▁funcionamento	-10.3107
vers	-10.3108
▁1957	-10.3115
▁Papa	-10.3118
35	-10.312
▁sexan	-10.312
▁montañas	-10.3123
fre	-10.3128
▁liderado	-10.313
▁pensa	-10.3131
▁relixiosa	-10.3132
▁1955	-10.3135
▁Sub	-10.3138
▁1949	-10.314
15	-10.314
entes	-10.314
bur	-10.3143
▁raza	-10.3146
▁escolas	-10.3147
▁estreito	-10.3151
▁Hoxe	-10.3151
dé	-10.3155
▁Mes	-10.3157
▁Vilalba	-10.3158
let	-10.3163
▁alternativa	-10.3164
▁fortes	-10.3168
▁cambiar	-10.317
isti	-10.3171
▁Comunidade	-10.3174
▁falar	-10.3176
▁cruz	-10.3177
▁Tour	-10.3183
met	-10.3192
▁ancho	-10.3196
▁Daniel	-10.3198
▁deixando	-10.3201
▁secundaria	-10.3203
▁culturais	-10.3204
▁Bueno	-10.3205
▁vella	-10.3207
rga	-10.3208
▁1944	-10.3209
▁encontros	-10.3212
š	-10.3213
pra	-10.3215
▁levan	-10.3216
▁periódico	-10.3218
dela	-10.322
▁muralla	-10.3223
ju	-10.3223
98	-10.3223
▁estende	-10.3225
óns	-10.3227
▁Zelandia	-10.3232
▁King	-10.3234
▁tam	-10.3234
nus	-10.3235
▁alimento	-10.3236
lip	-10.3239
▁copias	-10.3243
▁permitir	-10.3244
▁culto	-10.3248
fri	-10.3254
way	-10.3258
ío	-10.3259
▁Álvarez	-10.3262
▁escultura	-10.3262
▁modificación	-10.3265
▁1953	-10.3274
▁Tur	-10.3277
slav	-10.3277
▁comida	-10.3277
▁estuda	-10.3278
able	-10.3278
▁rango	-10.3279
nova	-10.3282
▁doutor	-10.3282
▁incluída	-10.3284
▁escritos	-10.3285
▁serbio	-10.3288
.9	-10.3294
ábel	-10.3294
▁cristiáns	-10.3297
▁espacial	-10.3302
▁serían	-10.3302
▁dividida	-10.3308
itou	-10.3311
▁et	-10.3316
▁consegue	-10.3316
▁Arte	-10.3318
ern	-10.3322
▁debut	-10.3323
▁leite	-10.3325
gueira	-10.3327
▁corpos	-10.3332
gueiro	-10.3332
▁ocupación	-10.3335
▁Maria	-10.3338
rico	-10.3347
▁homenaxe	-10.3347
▁vello	-10.3353
icia	-10.3356
spira	-10.3359
▁Park	-10.3359
mat	-10.3362
▁im	-10.3363
▁Miño	-10.3363
pus	-10.3364
▁prezo	-10.3367
▁república	-10.3367
mero	-10.3375
▁1952	-10.3389
▁destacar	-10.3396
▁identidade	-10.3399
.3	-10.3407
Y	-10.341
▁especifica	-10.3412
▁Vilar	-10.3422
▁post	-10.3426
▁pazo	-10.3431
▁cata	-10.3433
lega	-10.3436
▁Península	-10.3443
plo	-10.3444
.7	-10.3445
nada	-10.3447
▁hormona	-10.3448
▁equivalente	-10.345
▁afirma	-10.3451
▁xera	-10.3455
ós	-10.3456
pé	-10.3457
ice	-10.346
nismo	-10.3461
▁conexión	-10.3463
▁proxectos	-10.3468
ant	-10.3468
▁unido	-10.3468
mera	-10.3482
▁rec	-10.3485
▁Provincia	-10.3486
gada	-10.3486
▁retirada	-10.3487
21	-10.3488
▁privada	-10.349
▁1935	-10.349
▁revela	-10.3493
▁existía	-10.3499
zón	-10.3501
▁asasinato	-10.3502
▁danos	-10.3503
▁38	-10.3505
grafía	-10.3518
terio	-10.352
▁CO	-10.352
▁ob	-10.3524
posición	-10.353
▁1922	-10.3531
▁remo	-10.3537
nk	-10.3543
▁gregos	-10.3544
▁acontecemento	-10.3547
▁VIII	-10.3553
▁Alexandre	-10.3555
▁Vol	-10.3558
▁demanda	-10.356
▁Nobel	-10.3561
poli	-10.3567
▁comunista	-10.3568
▁nace	-10.3568
uno	-10.3573
ney	-10.3576
▁pla	-10.3579
▁Cabo	-10.358
▁proporción	-10.3581
▁soviético	-10.3581
▁acompaña	-10.3585
14	-10.3587
▁Conde	-10.3588
▁tele	-10.359
▁Min	-10.3592
▁cambiou	-10.3598
▁froito	-10.3599
▁rebote	-10.3602
▁1932	-10.3603
▁castro	-10.3605
lítico	-10.361
▁Bergantiños	-10.3612
cá	-10.3616
▁colonias	-10.3616
▁enxeñeiro	-10.3617
▁descrición	-10.3617
▁1919	-10.3618
▁los	-10.3623
▁determinar	-10.3624
▁estándar	-10.363
▁Conta	-10.3633
▁elevado	-10.3633
▁constitución	-10.3635
▁Oscar	-10.3638
din	-10.3639
▁logra	-10.3641
▁Ouro	-10.3643
▁Primeiro	-10.3643
▁vivo	-10.3645
▁celebra	-10.3647
ima	-10.3647
▁Tele	-10.3649
▁externa	-10.365
▁1938	-10.3654
▁intenta	-10.3656
▁reunión	-10.3664
▁baixas	-10.3664
pí	-10.3666
▁deseñado	-10.3666
▁1923	-10.367
▁xerais	-10.3671
▁descrita	-10.3679
▁utilizando	-10.3683
▁rep	-10.3687
rix	-10.3692
▁Fre	-10.3693
▁cerebro	-10.3695
▁útil	-10.3695
88	-10.3702
▁abandonou	-10.3705
▁reprodución	-10.3705
▁pasaron	-10.3706
▁Trans	-10.3709
▁primavera	-10.371
▁informa	-10.3711
▁moderno	-10.3718
▁Cho	-10.3723
cí	-10.3726
▁mapa	-10.3728
▁domina	-10.3733
and	-10.3736
▁reserva	-10.3739
▁sesión	-10.3744
16	-10.375
▁rusa	-10.3751
▁poema	-10.3755
▁1929	-10.3759
zos	-10.3759
▁demostra	-10.3765
▁supux	-10.3765
▁ataques	-10.3767
▁Comisión	-10.3769
▁cho	-10.377
▁radiación	-10.377
▁seguindo	-10.3775
▁Mas	-10.3782
▁categorías	-10.3784
▁Rock	-10.3791
▁socio	-10.3793
▁operacións	-10.3794
▁lingüística	-10.3794
▁xaponés	-10.3794
▁turismo	-10.3795
▁amigos	-10.38
▁axudar	-10.38
▁reducir	-10.38
▁hospital	-10.3804
▁pódense	-10.3805
▁integra	-10.3805
▁Sobre	-10.3808
▁Albert	-10.3815
▁Oriente	-10.3815
02	-10.3817
▁debía	-10.382
▁substancias	-10.3825
▁resultou	-10.3826
▁morre	-10.3827
.4	-10.3831
▁Ministerio	-10.3831
món	-10.3831
itaria	-10.3833
▁crenza	-10.3835
▁Nacións	-10.3845
▁exilio	-10.3852
92	-10.3854
▁administrativa	-10.3854
rma	-10.386
▁Cri	-10.386
▁recuperar	-10.3863
▁comuna	-10.3866
▁familiar	-10.3867
▁Cur	-10.3874
▁punta	-10.3875
▁Franco	-10.3875
vía	-10.3878
▁asasinado	-10.3884
▁fragmento	-10.3887
▁disciplina	-10.3887
▁homónimo	-10.3889
▁banco	-10.3892
▁describe	-10.3894
▁Ministro	-10.3894
09	-10.3895
gg	-10.3898
▁Pazo	-10.3902
▁ocasión	-10.3903
▁asistencia	-10.3904
▁interno	-10.3911
▁Black	-10.3919
▁Bay	-10.3922
lon	-10.3922
▁saír	-10.3924
mpo	-10.3928
▁receptores	-10.393
▁separa	-10.3931
▁Martiño	-10.3931
▁rugby	-10.3931
▁tería	-10.3932
▁Diego	-10.3935
cela	-10.3939
▁honor	-10.3943
tive	-10.3946
87	-10.3947
una	-10.3948
▁pol	-10.3949
03	-10.3951
▁Washington	-10.3953
▁estimula	-10.3953
▁clave	-10.3957
▁considerable	-10.3958
iti	-10.3974
▁permiten	-10.3977
▁Joseph	-10.3981
sin	-10.3982
the	-10.3984
ρ	-10.3984
▁Moscova	-10.3985
▁denomínase	-10.3985
▁intervención	-10.3985
lf	-10.3986
duci	-10.3987
▁Celta	-10.3989
▁electróns	-10.399
▁desexo	-10.399
13	-10.3991
▁fixa	-10.3997
▁mito	-10.3999
▁lume	-10.4001
▁ecuación	-10.4001
▁utilizada	-10.4002
▁Del	-10.4004
▁tensión	-10.4009
▁Baixo	-10.4009
▁biblioteca	-10.4012
▁individual	-10.4017
▁descenso	-10.4017
▁funciona	-10.4019
▁recolle	-10.4019
nina	-10.402
▁costume	-10.4022
19	-10.4023
▁debate	-10.4027
▁brillante	-10.4028
▁Lingua	-10.4028
lada	-10.403
▁natal	-10.403
tópase	-10.4031
▁custo	-10.4032
rdi	-10.4033
▁1917	-10.4035
mbra	-10.404
▁chamou	-10.4041
▁serra	-10.4042
▁fortaleza	-10.4044
▁Martín	-10.4046
▁IX	-10.4046
▁Far	-10.4059
▁rexistro	-10.406
ā	-10.406
ν	-10.4065
▁reis	-10.4065
▁Music	-10.4067
psi	-10.4068
▁temporal	-10.4069
▁Cultura	-10.4077
▁Zo	-10.408
▁recoñece	-10.4081
▁anual	-10.4082
▁Cortes	-10.4084
▁interpreta	-10.4088
▁caixa	-10.4092
▁atrás	-10.4094
▁bronce	-10.4098
76	-10.4099
▁atopan	-10.4101
▁anel	-10.4104
cum	-10.4104
▁Toda	-10.4106
53	-10.4107
ue	-10.4108
▁celebración	-10.4112
▁bal	-10.4113
mpe	-10.4113
tribu	-10.4114
▁paisaxe	-10.4114
▁reais	-10.4116
ní	-10.4117
▁global	-10.412
ndro	-10.4126
▁clasificado	-10.4127
▁boca	-10.413
▁War	-10.4135
▁feminino	-10.4136
▁vídeo	-10.4136
rta	-10.4144
▁Star	-10.4144
▁centros	-10.4148
ática	-10.4153
▁gañando	-10.4154
mite	-10.4156
▁abaixo	-10.4159
▁editor	-10.4165
▁area	-10.4167
▁sinais	-10.4173
xica	-10.4181
▁1951	-10.4186
▁roda	-10.4186
▁Ch	-10.4189
▁42	-10.4194
▁barcos	-10.4196
▁cerimonia	-10.4196
▁1928	-10.4197
65	-10.4198
▁Cap	-10.42
▁confirma	-10.42
▁Sam	-10.4202
▁Pena	-10.4205
▁fracaso	-10.4207
▁World	-10.4218
▁fuxi	-10.4218
о	-10.422
97	-10.4221
▁pri	-10.4228
▁terrestre	-10.423
▁separación	-10.4232
▁come	-10.4233
▁dado	-10.4234
lado	-10.4236
cencia	-10.4238
▁rochas	-10.4239
86	-10.4245
tía	-10.425
▁ourensán	-10.4251
▁elevada	-10.4253
▁Moita	-10.4257
rin	-10.4258
▁Sánchez	-10.4262
xiña	-10.4267
▁superiores	-10.4269
▁recente	-10.4271
▁competencia	-10.4273
77	-10.4274
pin	-10.4276
▁representan	-10.4279
▁2018	-10.4281
▁Bou	-10.4282
96	-10.4287
▁tramo	-10.4294
nci	-10.4295
▁xestión	-10.43
▁torno	-10.4305
▁calendario	-10.4306
▁hóspede	-10.4306
ngo	-10.4314
▁Ibérica	-10.4322
▁fica	-10.4322
▁1943	-10.4323
▁cantidades	-10.4326
▁Fin	-10.4326
56	-10.4329
▁150	-10.4333
▁alcanzar	-10.4336
▁emprego	-10.4337
ál	-10.4341
▁fluxo	-10.4346
burg	-10.4346
▁fotografía	-10.435
▁herdeiro	-10.4351
▁profunda	-10.4351
▁obrigado	-10.4353
▁cer	-10.4358
▁utilíza	-10.4359
▁Auto	-10.436
mini	-10.436
▁solar	-10.4365
cón	-10.4365
▁sueco	-10.4367
▁Galería	-10.4374
▁Pres	-10.4374
▁disputou	-10.4378
▁ocupou	-10.4378
▁individuo	-10.4385
▁75	-10.4386
▁conservación	-10.4386
ok	-10.4387
▁dia	-10.4389
▁oportunidade	-10.4389
01	-10.4389
▁cla	-10.4392
-5	-10.4394
▁transcrición	-10.4394
▁1924	-10.4396
índose	-10.4398
▁ur	-10.4401
▁Ste	-10.4403
▁pin	-10.4405
▁Ly	-10.4408
▁empregar	-10.441
ias	-10.441
chu	-10.441
mus	-10.4412
▁circular	-10.4412
▁Limita	-10.4412
▁urbana	-10.4417
▁críticas	-10.4417
duc	-10.4418
▁espera	-10.4418
▁primaria	-10.442
▁descende	-10.4421
▁aí	-10.4425
▁propietario	-10.4428
bert	-10.4428
▁prisión	-10.4428
▁persa	-10.4432
▁CF	-10.4432
28	-10.4436
68	-10.4436
ares	-10.4439
▁débese	-10.4439
▁artístico	-10.4439
tidos	-10.444
93	-10.4442
▁Xunto	-10.4446
tti	-10.4447
▁Ul	-10.4448
▁laboratorio	-10.445
▁pop	-10.4456
lev	-10.4458
uca	-10.4459
rica	-10.4462
▁Xi	-10.4469
▁bosque	-10.4474
▁Hol	-10.4474
▁avións	-10.4474
▁reaccións	-10.4476
▁clásico	-10.4479
▁1942	-10.4485
▁puxo	-10.4488
▁Lisboa	-10.449
▁músico	-10.4491
▁Guillerme	-10.4495
gel	-10.4497
▁círculo	-10.4501
▁lembra	-10.4502
▁1914	-10.4503
ual	-10.4504
▁convérte	-10.4507
▁haber	-10.4508
▁titulado	-10.4518
pouco	-10.4522
▁universal	-10.4525
▁continental	-10.4529
▁xen	-10.4531
▁poida	-10.4535
▁estudantes	-10.4539
bul	-10.454
tividade	-10.4542
ial	-10.4545
▁localizada	-10.4545
▁Comp	-10.4552
doiro	-10.4552
▁39	-10.4559
▁cifra	-10.4559
▁Gui	-10.4561
est	-10.4564
▁xi	-10.4567
zou	-10.4567
▁cru	-10.457
rne	-10.4572
gh	-10.4573
sky	-10.4577
▁400	-10.4581
nea	-10.4584
▁recentes	-10.4585
λ	-10.4586
▁nosa	-10.4588
▁retirar	-10.4592
zan	-10.4599
26	-10.4603
▁dependente	-10.4614
▁estreita	-10.4617
▁inf	-10.4619
▁1925	-10.4622
xina	-10.4629
▁din	-10.4629
▁perde	-10.4633
▁redución	-10.4639
▁negativa	-10.464
▁compra	-10.464
▁lanzou	-10.4643
▁propósito	-10.4649
ume	-10.4651
▁cadeas	-10.4654
▁historiador	-10.4655
off	-10.4656
para	-10.4658
▁Gri	-10.4659
▁vitorias	-10.4659
▁molecular	-10.466
▁argumento	-10.466
▁asina	-10.4662
hr	-10.4662
▁Condado	-10.467
▁fabricación	-10.467
ish	-10.467
▁filósofo	-10.4672
ill	-10.4672
45	-10.4672
mino	-10.4675
83	-10.4679
▁enfrontamento	-10.468
▁instrumento	-10.4681
▁complexa	-10.4683
▁concurso	-10.4686
55	-10.4688
▁Q	-10.4689
58	-10.4693
▁personalidade	-10.4701
▁eventos	-10.4703
▁relixioso	-10.4704
▁herba	-10.4704
▁artificial	-10.4706
▁Medio	-10.4707
▁Ven	-10.4715
▁centr	-10.4717
▁lonxe	-10.4718
▁City	-10.4718
▁estatua	-10.4718
▁diocese	-10.4723
▁Palacio	-10.4726
pan	-10.4726
▁discurso	-10.4729
▁Bon	-10.4729
▁dominios	-10.4732
▁morrer	-10.4732
▁Jack	-10.4739
ensis	-10.474
▁xaponesa	-10.4741
▁transformación	-10.4743
▁incluído	-10.4743
▁Rosa	-10.4745
▁alfabeto	-10.4746
tana	-10.4751
▁substancia	-10.4752
▁recoñecida	-10.4753
▁Hungría	-10.4755
iformes	-10.4764
▁liberación	-10.4765
kov	-10.4769
▁razóns	-10.4769
▁baía	-10.4775
▁esco	-10.4776
pta	-10.4777
▁Lou	-10.4782
▁marco	-10.4783
NA	-10.4785
▁acepta	-10.4791
▁imperial	-10.4796
vio	-10.4797
MS	-10.4799
▁pon	-10.48
▁rica	-10.4801
▁republicano	-10.4804
▁tocar	-10.4805
▁Nunha	-10.4812
а	-10.4815
▁monarquía	-10.4816
▁1910	-10.4818
▁Paz	-10.4819
▁relacionadas	-10.4819
▁evento	-10.482
▁destinado	-10.4822
▁abandonar	-10.4823
pare	-10.4823
▁actúa	-10.4826
▁Bell	-10.4827
▁frío	-10.4828
▁inscrición	-10.4833
▁transmisión	-10.4834
▁marchou	-10.4834
▁Iso	-10.4834
▁repeti	-10.4837
touse	-10.4839
▁mer	-10.484
▁institución	-10.484
▁aparecer	-10.4843
cat	-10.4843
pha	-10.4843
▁vento	-10.4844
▁Finlandia	-10.4845
bos	-10.4845
▁lateral	-10.4846
ben	-10.4846
tua	-10.4847
67	-10.485
▁empregada	-10.4851
▁artística	-10.4851
▁Pin	-10.4855
▁mostran	-10.4855
▁Gal	-10.4856
▁guitarrista	-10.4857
▁Florida	-10.4857
▁viuse	-10.4863
▁dúbida	-10.4868
▁prodúce	-10.4872
▁Pas	-10.4875
▁manda	-10.4877
▁Han	-10.4879
xil	-10.4881
48	-10.4883
▁chaira	-10.4885
dea	-10.4885
▁Napoleón	-10.4886
íase	-10.4888
▁48	-10.4889
▁Hor	-10.489
▁descuberto	-10.4892
▁impe	-10.4895
▁hócke	-10.4898
▁alianza	-10.4898
tom	-10.4898
▁codifica	-10.4898
▁enviado	-10.4902
▁cidadáns	-10.4902
▁Chicago	-10.4903
29	-10.4904
▁sido	-10.4907
▁Zaragoza	-10.4909
94	-10.4911
má	-10.4911
rase	-10.4912
lú	-10.4913
▁ritmo	-10.4915
forma	-10.4917
▁comezar	-10.4918
34	-10.492
▁rexional	-10.4921
▁cadro	-10.4923
▁pacientes	-10.493
▁ho	-10.4931
▁dalgunha	-10.4933
▁sementes	-10.4936
nge	-10.494
tec	-10.494
▁May	-10.4943
▁fri	-10.4947
▁inicia	-10.4948
▁fibra	-10.495
▁colaborou	-10.4951
▁informe	-10.4951
▁Carl	-10.4954
▁estable	-10.4955
▁cruceiro	-10.4962
field	-10.4965
llón	-10.4967
mbri	-10.4968
iña	-10.4971
▁enviou	-10.4977
scar	-10.4978
▁galegos	-10.4979
▁pronto	-10.498
▁seren	-10.498
▁Carballo	-10.498
▁autónoma	-10.4986
▁diñeiro	-10.4987
xencia	-10.4988
▁celta	-10.4988
▁mandato	-10.4989
▁recinto	-10.4992
pel	-10.4992
39	-10.4997
este	-10.4999
23	-10.5001
br	-10.5001
▁tráfico	-10.5004
▁1921	-10.5005
cemento	-10.5008
▁evoluciona	-10.5009
▁sufrir	-10.5016
ple	-10.5019
▁ingleses	-10.5021
▁solitario	-10.5022
reo	-10.5023
▁denomina	-10.5023
▁artes	-10.5026
▁Gil	-10.5026
08	-10.5033
▁documento	-10.5033
▁enlace	-10.5036
▁Sport	-10.5036
▁neuro	-10.5038
▁coidado	-10.5039
▁escasa	-10.5042
▁Federico	-10.5045
▁Turquía	-10.5045
▁seca	-10.5047
▁considérase	-10.5051
▁exacta	-10.5051
▁quiza	-10.5052
▁usan	-10.5054
ificado	-10.5056
▁Mad	-10.5061
74	-10.5063
▁alumno	-10.5064
▁liberal	-10.5067
gón	-10.5068
▁ciencias	-10.5069
▁representar	-10.507
▁Mais	-10.507
06	-10.507
culo	-10.5073
78	-10.5073
▁Comunista	-10.5076
▁mata	-10.5078
▁enfronta	-10.5082
nais	-10.5082
▁celebrada	-10.5083
▁axente	-10.5091
itas	-10.5094
▁Viena	-10.5104
▁matemático	-10.5111
▁mitoloxía	-10.5112
▁utilizan	-10.5114
teo	-10.5115
▁quere	-10.5116
bb	-10.5116
▁tódala	-10.5117
▁xornada	-10.512
nou	-10.5122
▁Gro	-10.5127
fos	-10.513
▁afecta	-10.5132
▁Suráfrica	-10.5135
▁gui	-10.5138
ración	-10.5139
▁cito	-10.5146
▁típico	-10.5158
ticos	-10.5158
▁riqueza	-10.5159
lou	-10.5159
▁ocupar	-10.516
▁lanza	-10.516
▁Mos	-10.5165
fina	-10.5168
▁popularidade	-10.5169
elo	-10.5172
▁palacio	-10.5172
óxeno	-10.5173
▁documentos	-10.5177
▁Pra	-10.5179
36	-10.518
▁discos	-10.5181
▁Aeroporto	-10.5183
▁aeroliña	-10.5183
▁poñer	-10.5187
▁dependendo	-10.5188
▁Vázquez	-10.5189
▁escritura	-10.5189
▁1926	-10.5191
▁continúa	-10.5192
bido	-10.5193
▁iniciativa	-10.5193
▁anuncia	-10.5201
▁Antón	-10.5207
▁característico	-10.5207
▁xusto	-10.5208
▁hipo	-10.5209
ung	-10.5212
▁55	-10.5217
▁ría	-10.5221
rida	-10.5227
iras	-10.5228
▁dando	-10.5229
eza	-10.5229
lim	-10.5232
▁sonora	-10.5232
▁Gales	-10.5236
▁publicacións	-10.5236
▁Mc	-10.5237
▁puidese	-10.5238
▁funda	-10.5238
▁Gómez	-10.5244
▁Castelo	-10.5245
▁unida	-10.5247
age	-10.525
pec	-10.5256
iros	-10.5257
▁Dia	-10.5263
tum	-10.5263
▁ficción	-10.5264
▁compite	-10.5264
▁recibi	-10.5267
▁xeográfica	-10.5268
ici	-10.5271
▁cociña	-10.5273
ngu	-10.5274
▁Ánxeles	-10.5276
▁solo	-10.5279
mó	-10.5283
▁cita	-10.5284
▁Noruega	-10.5286
dina	-10.5289
▁pares	-10.529
▁chegan	-10.5297
▁crónica	-10.5298
▁actuar	-10.5301
▁transforma	-10.5302
▁transición	-10.5305
▁disposición	-10.5305
▁deportiva	-10.5305
81	-10.5308
▁Ángel	-10.5311
▁crecente	-10.5311
oides	-10.5312
▁civilización	-10.5315
ale	-10.5318
llas	-10.532
if	-10.5321
▁verdadeira	-10.5325
▁estratexia	-10.5329
▁complexos	-10.533
▁poboado	-10.5332
91	-10.5335
▁esti	-10.5341
▁Rafael	-10.5341
▁privado	-10.5346
▁fósiles	-10.5347
22	-10.5348
▁chámase	-10.5353
dan	-10.5356
ken	-10.5359
▁software	-10.536
rca	-10.5361
edo	-10.5364
▁rural	-10.5367
▁65	-10.537
ο	-10.5377
éndose	-10.5378
gne	-10.5386
▁descrito	-10.539
▁décimo	-10.539
▁coalición	-10.539
▁derradeiro	-10.5397
▁canón	-10.5398
▁fogar	-10.54
illo	-10.541
▁tribos	-10.5411
▁mellorar	-10.5413
▁espírito	-10.5415
teira	-10.5419
▁tren	-10.542
▁arriba	-10.5423
▁idioma	-10.5425
▁Poli	-10.5428
ótico	-10.543
▁longas	-10.5431
▁dimensións	-10.5433
▁revolta	-10.5434
indo	-10.5438
▁saber	-10.5439
ceno	-10.544
▁Bri	-10.5442
32	-10.5443
real	-10.5443
69	-10.5445
▁especiais	-10.5446
▁ditadura	-10.5447
▁Thi	-10.5448
▁regreso	-10.545
▁nervio	-10.545
top	-10.5451
▁amarela	-10.5452
▁Alto	-10.5458
▁American	-10.5461
▁ATP	-10.5462
▁cura	-10.5462
▁esca	-10.5463
graf	-10.5464
roso	-10.5464
-6	-10.5466
▁sucede	-10.547
▁fama	-10.5471
▁debaixo	-10.5476
▁divíde	-10.5477
▁sexto	-10.5477
ciais	-10.5482
▁piano	-10.5487
▁autonomía	-10.5489
ning	-10.5491
dge	-10.5495
▁César	-10.5496
ala	-10.5498
▁civís	-10.5502
gá	-10.5505
izados	-10.5506
▁moral	-10.551
▁má	-10.551
▁causar	-10.5511
▁definitivamente	-10.5513
xico	-10.5514
▁Senna	-10.5515
▁observa	-10.5516
54	-10.5519
ε	-10.5521
▁determinado	-10.5523
▁substitución	-10.5529
ik	-10.553
▁decide	-10.553
▁finada	-10.5531
▁r	-10.5532
pri	-10.5533
84	-10.5537
▁incluía	-10.5538
▁XI	-10.5539
▁Gallego	-10.5539
soma	-10.5543
▁Participo	-10.5552
▁Alba	-10.5556
itario	-10.5557
▁grosa	-10.556
64	-10.5563
▁promoción	-10.5564
▁espada	-10.5565
▁disto	-10.5569
▁Gre	-10.557
▁testemuña	-10.5571
zado	-10.5572
▁dominante	-10.5574
▁eléctrico	-10.5575
▁ave	-10.5575
▁serviu	-10.5577
▁vasco	-10.5578
▁Fro	-10.5578
bli	-10.558
▁Banco	-10.5585
▁marido	-10.5585
▁caeu	-10.5586
▁Love	-10.559
▁dedicado	-10.5591
▁latina	-10.5594
▁exp	-10.5595
viv	-10.5595
▁mantemento	-10.5596
▁bloque	-10.5599
▁explotación	-10.56
▁Superior	-10.5602
▁Mark	-10.5603
▁aumentar	-10.5603
▁festival	-10.5605
▁*	-10.5608
▁doenza	-10.5613
▁mag	-10.5613
▁incluír	-10.5614
▁Terceira	-10.5615
ture	-10.5616
▁existi	-10.5617
▁establecemento	-10.5618
▁pat	-10.5618
xos	-10.5619
▁Hospital	-10.5621
▁matemáticas	-10.5623
lde	-10.5624
▁Gor	-10.5627
▁1927	-10.5629
▁nobreza	-10.5629
ná	-10.5631
▁colabora	-10.5632
▁incrementa	-10.5634
ete	-10.5635
uma	-10.5636
▁dedicada	-10.5638
▁relato	-10.5644
▁santo	-10.5648
▁Chu	-10.5649
fen	-10.5649
▁quedar	-10.5653
▁1912	-10.5655
don	-10.5656
▁raíces	-10.5659
▁organizado	-10.566
▁habilidade	-10.566
▁menciona	-10.5661
fancia	-10.5662
▁operación	-10.5664
ade	-10.5668
▁β	-10.5668
▁descuberta	-10.5669
▁Dous	-10.5669
▁Cos	-10.5672
▁Mari	-10.5677
▁sabor	-10.5681
▁destrución	-10.5685
aña	-10.5696
cea	-10.5697
▁voltas	-10.57
▁Smith	-10.5703
▁oficina	-10.5703
▁Les	-10.5706
line	-10.5708
▁instituto	-10.5709
▁mozo	-10.571
▁Royal	-10.571
▁dieta	-10.5715
▁euros	-10.5715
▁antigüidade	-10.5716
▁canadense	-10.5716
▁comparación	-10.5718
▁pena	-10.5721
▁cristianismo	-10.5722
aca	-10.5723
▁cousa	-10.5723
▁presentado	-10.5724
▁dalgúns	-10.5726
rte	-10.5729
cua	-10.573
lación	-10.5732
bus	-10.5735
▁rebelión	-10.5735
ille	-10.5741
▁pelo	-10.5741
▁durou	-10.5741
▁Naceu	-10.5742
iais	-10.575
▁Harry	-10.5751
▁portas	-10.5753
▁petróleo	-10.5754
▁recon	-10.5754
▁Dentro	-10.5754
lares	-10.5757
eda	-10.5761
▁continuar	-10.5761
▁posíbel	-10.5767
52	-10.5768
▁Port	-10.5769
▁miles	-10.5769
▁posicións	-10.577
▁prepara	-10.5772
▁Col	-10.5774
vido	-10.5775
▁sinala	-10.5778
▁europeas	-10.5779
66	-10.5779
▁→	-10.578
72	-10.5781
59	-10.5782
▁verdadeiro	-10.5789
▁punk	-10.5795
mel	-10.5799
▁morto	-10.5801
▁termina	-10.5803
▁trinta	-10.5803
▁Día	-10.5804
▁Toledo	-10.5805
▁Granada	-10.5809
har	-10.581
▁mecánica	-10.5812
▁tese	-10.5813
▁Alta	-10.5815
ting	-10.5817
▁crítico	-10.582
▁femia	-10.5822
▁consideran	-10.5822
▁ka	-10.5823
▁Ribeira	-10.5825
▁humor	-10.5829
▁entrevista	-10.583
82	-10.5833
low	-10.5834
▁asociado	-10.5836
tter	-10.5838
▁Casou	-10.5839
fosfato	-10.5841
▁West	-10.5844
deiro	-10.5847
▁ión	-10.5852
▁patrón	-10.5854
κ	-10.5857
▁visible	-10.5863
▁feminina	-10.587
▁hiper	-10.5872
phi	-10.5874
▁introdución	-10.5876
▁aplicacións	-10.5877
fin	-10.588
▁impulso	-10.5886
▁vol	-10.5888
▁ángulo	-10.5889
▁Hy	-10.5895
▁1900	-10.5899
▁fondos	-10.5904
xénese	-10.5907
▁concentra	-10.591
▁concelleiro	-10.5913
▁hist	-10.5915
▁ferrocarril	-10.5915
▁Jackson	-10.5916
▁visto	-10.5917
▁Burgos	-10.5919
▁favorece	-10.5921
▁alfa	-10.5921
▁Sistema	-10.5922
▁pilota	-10.5922
hor	-10.5923
xía	-10.5925
▁vivos	-10.5925
▁encargado	-10.5927
liza	-10.5929
▁tubo	-10.593
osas	-10.5932
41	-10.5933
pón	-10.5933
▁Dinamarca	-10.5935
mun	-10.5938
▁bizantino	-10.5941
▁Henry	-10.5943
▁vir	-10.5944
mul	-10.5945
▁Díaz	-10.5946
pia	-10.5948
▁debería	-10.5948
▁recupera	-10.5953
MP	-10.5953
▁Ricardo	-10.5961
▁Colombia	-10.5961
▁raios	-10.5962
▁voce	-10.5963
▁Sab	-10.5967
▁refírese	-10.5967
▁Rexión	-10.5967
▁1916	-10.5969
▁except	-10.5969
▁regula	-10.597
▁partida	-10.5976
▁constitúen	-10.598
▁establece	-10.598
yer	-10.5983
▁dirixir	-10.5984
▁modernos	-10.5984
▁Ucraína	-10.5987
▁nordeste	-10.5987
▁asentamento	-10.599
▁Desta	-10.5993
cil	-10.5993
▁utilizou	-10.5993
▁statu	-10.5994
▁existentes	-10.6001
pos	-10.6001
▁circunstancia	-10.6006
▁Batalla	-10.6006
▁provincial	-10.6007
▁xuízo	-10.6007
▁Coroa	-10.6009
▁tiro	-10.6009
▁redes	-10.6011
н	-10.6013
▁álbums	-10.6015
▁lixeiramente	-10.6016
▁mínimo	-10.602
idez	-10.6024
▁Il	-10.6025
▁conforma	-10.6028
cula	-10.6028
fil	-10.6029
ento	-10.6033
▁gris	-10.6042
▁historiadores	-10.6042
▁intensa	-10.6046
▁conecta	-10.6047
pina	-10.605
vida	-10.6056
llos	-10.6056
▁Rose	-10.6063
▁arre	-10.6063
seguindo	-10.6064
▁mesmos	-10.6065
▁relevo	-10.6066
▁inferiore	-10.6067
▁Sala	-10.6071
cr	-10.6071
pó	-10.6072
▁Tres	-10.6072
cular	-10.6076
▁Grand	-10.6081
▁líderes	-10.6082
▁declaración	-10.6084
▁aplica	-10.6085
▁Distrito	-10.6085
▁manuscrito	-10.6085
▁xenético	-10.6086
▁percorre	-10.6087
49	-10.6089
▁43	-10.6089
▁osíxeno	-10.6092
▁editorial	-10.6092
▁referir	-10.6097
▁Racing	-10.6099
▁igrexas	-10.6099
▁Cra	-10.6104
▁altos	-10.6106
ular	-10.6109
▁escuro	-10.6114
▁Mei	-10.6115
33	-10.6115
riño	-10.6117
▁Pol	-10.612
▁queima	-10.6123
89	-10.6123
▁cabaleiro	-10.6127
▁Tribunal	-10.6127
▁condenado	-10.6131
▁levaron	-10.6132
▁abandona	-10.6132
lóxico	-10.6135
▁mira	-10.6138
▁básica	-10.6139
▁comen	-10.6139
▁levaba	-10.6142
▁α	-10.6143
▁peri	-10.6144
▁acabar	-10.6148
liña	-10.6149
▁costeira	-10.6149
▁perspectiva	-10.6152
▁positiva	-10.6154
tte	-10.6155
▁espazos	-10.6156
▁Ye	-10.6156
▁Chan	-10.616
doras	-10.616
▁mortos	-10.6162
gno	-10.6163
▁síntomas	-10.6167
▁semellantes	-10.6168
anos	-10.6169
lix	-10.6169
▁pico	-10.617
▁americana	-10.6171
▁tre	-10.6181
cin	-10.6185
▁Constantinopla	-10.6185
lie	-10.6188
itos	-10.6189
▁Córdoba	-10.6192
▁ataca	-10.6195
ores	-10.6196
▁típica	-10.6198
▁Fundación	-10.6199
dición	-10.62
mica	-10.62
ulle	-10.6201
mont	-10.6202
42	-10.6204
▁presentación	-10.6209
▁irregular	-10.6212
▁radical	-10.6212
-4	-10.6212
ich	-10.6215
▁Lalín	-10.6216
▁músicos	-10.6217
▁fila	-10.6219
▁44	-10.6219
ábeis	-10.622
grada	-10.622
rgo	-10.6222
▁investigadores	-10.6222
▁alimentación	-10.6223
▁masculino	-10.6225
▁sorte	-10.6228
▁Fronte	-10.6228
▁Rey	-10.6229
▁41	-10.623
▁depósito	-10.6232
▁medra	-10.6232
▁Yo	-10.6234
▁Armada	-10.6235
▁participante	-10.6237
▁elimina	-10.6241
up	-10.6246
▁riba	-10.6249
▁veciña	-10.6251
▁Valladolid	-10.6252
▁extinción	-10.6252
▁árabes	-10.6254
nima	-10.6255
▁invadi	-10.6259
▁tumor	-10.6266
▁bomba	-10.627
▁finalizar	-10.6271
▁Chantada	-10.6273
▁seguen	-10.6279
38	-10.6279
ute	-10.6279
▁cama	-10.628
▁Ac	-10.628
▁significativo	-10.6284
tipo	-10.6288
▁Sun	-10.6295
▁agrupa	-10.6298
▁Valle	-10.6301
79	-10.6303
▁norma	-10.6303
▁empresario	-10.6304
▁eixo	-10.6311
red	-10.6314
▁difusión	-10.6314
▁Kar	-10.6315
▁trazos	-10.632
pal	-10.6325
▁diversidade	-10.6326
▁fina	-10.6335
ris	-10.6335
mí	-10.6337
mbro	-10.6337
▁mutacións	-10.6337
▁puideron	-10.6339
▁PC	-10.634
▁organizacións	-10.6346
▁Karl	-10.6347
cú	-10.6352
▁terzo	-10.6352
▁Ross	-10.6352
▁colexio	-10.6353
▁apertura	-10.6353
▁Boston	-10.6355
▁outeiro	-10.6355
▁celulares	-10.6357
bí	-10.6358
▁Enrique	-10.6367
cili	-10.6369
dou	-10.6373
mbre	-10.6373
▁gaña	-10.6374
▁presta	-10.6375
▁Hall	-10.638
▁McLaren	-10.638
▁explicar	-10.6383
chen	-10.6384
▁sobrevivir	-10.6387
▁combina	-10.6389
▁mensaxe	-10.6391
cita	-10.6392
▁quedan	-10.6393
clina	-10.6394
▁equilibrio	-10.6395
▁monta	-10.6399
▁Rugby	-10.6401
ór	-10.6401
▁compañeiros	-10.6407
▁cana	-10.6409
▁disp	-10.6411
▁dirixente	-10.6414
ique	-10.6415
▁EP	-10.6416
▁Green	-10.6416
▁series	-10.642
37	-10.6423
▁programación	-10.6424
▁abs	-10.6426
▁infantil	-10.6428
▁describir	-10.6428
▁viaxa	-10.6429
dando	-10.643
▁glicosa	-10.6435
▁recuperación	-10.6437
tea	-10.6437
▁competir	-10.6441
▁conseguiron	-10.6444
▁levado	-10.6446
▁rap	-10.6447
▁Tha	-10.6448
▁Unidas	-10.6451
mou	-10.6452
amente	-10.6453
▁plena	-10.6454
▁macho	-10.6456
▁protexer	-10.6457
itz	-10.6458
▁Yu	-10.6458
▁regresa	-10.6467
bili	-10.6469
▁combustible	-10.6469
▁cálculo	-10.6469
▁federal	-10.6469
▁entanto	-10.647
plan	-10.6471
die	-10.6473
▁cruza	-10.6473
▁variedades	-10.6476
57	-10.6483
▁sólido	-10.6483
▁Rh	-10.6487
▁choiva	-10.6497
▁Ang	-10.6501
▁pertencen	-10.6502
▁pés	-10.6503
▁viva	-10.6503
▁ideal	-10.6503
▁detido	-10.6504
31	-10.6504
▁nervioso	-10.6505
▁regulación	-10.6508
▁compoñente	-10.6509
▁Domingo	-10.651
51	-10.6514
▁laterais	-10.6517
▁espectro	-10.6518
▁Maior	-10.6522
▁actitude	-10.6524
▁mol	-10.6525
▁independentes	-10.6526
▁Fonte	-10.6526
▁escritora	-10.6527
▁Bat	-10.6536
▁Lan	-10.6538
▁compara	-10.654
ef	-10.654
▁proto	-10.654
▁frase	-10.6541
▁Príncipe	-10.6545
árono	-10.6547
▁fal	-10.6549
cel	-10.655
▁Cy	-10.6553
▁procedemento	-10.6557
▁compa	-10.6562
▁derrotado	-10.6563
▁Mai	-10.6565
▁violencia	-10.6565
▁Milán	-10.6566
▁Blanco	-10.6566
▁bioloxía	-10.6569
rbo	-10.6576
44	-10.6578
▁Sy	-10.6579
▁desaparición	-10.6579
▁apoia	-10.6582
▁exemplos	-10.6583
nó	-10.6584
mico	-10.6586
ς	-10.6586
mir	-10.6588
▁1913	-10.6588
46	-10.6589
ese	-10.6591
▁irlandés	-10.6593
▁opción	-10.6596
▁períodos	-10.6602
iñeira	-10.6603
▁organiza	-10.6606
tadas	-10.6609
AP	-10.6612
▁exerce	-10.6613
▁alma	-10.6614
kar	-10.6616
▁novelas	-10.6617
▁comandante	-10.6621
▁columna	-10.6628
eb	-10.6628
▁copia	-10.6629
▁electrónico	-10.663
▁bur	-10.663
mado	-10.6631
▁amizade	-10.6635
▁sucesión	-10.6635
rda	-10.664
ulo	-10.6641
▁brasileiro	-10.6642
▁espectáculo	-10.6642
▁probabelmente	-10.6642
▁mañá	-10.6642
ip	-10.6645
▁tumba	-10.665
▁Sir	-10.6654
▁nación	-10.6658
lito	-10.6658
▁deseñada	-10.6663
▁46	-10.6669
▁descendentes	-10.667
▁Edward	-10.667
▁xorde	-10.6671
▁beneficios	-10.6672
▁investi	-10.6672
▁identificar	-10.6674
▁libra	-10.6675
trá	-10.6675
▁libres	-10.6676
rú	-10.6677
▁apelido	-10.6677
▁experimentos	-10.6678
▁top	-10.6679
▁suave	-10.6691
ão	-10.6694
terna	-10.6696
▁musulmáns	-10.6699
ranse	-10.6699
▁Mol	-10.67
az	-10.6702
fica	-10.6704
▁sectores	-10.6704
▁revistas	-10.6709
berto	-10.6709
73	-10.671
▁profesiona	-10.6715
ER	-10.6716
▁retirouse	-10.6716
▁beta	-10.6717
▁Natural	-10.6719
onia	-10.672
▁caer	-10.6721
rato	-10.6721
▁socialista	-10.6724
▁históricos	-10.6725
▁esperanza	-10.6727
bla	-10.6728
▁Mus	-10.6728
▁Dor	-10.6729
▁ondas	-10.6733
▁galegas	-10.6733
▁vapor	-10.6739
▁franquía	-10.674
47	-10.6742
posta	-10.6749
cl	-10.675
lea	-10.675
▁colo	-10.6752
▁guión	-10.6753
▁Frank	-10.6766
▁apunta	-10.6767
62	-10.6768
ric	-10.6773
ástica	-10.6773
stan	-10.6775
▁vexetación	-10.6775
▁reparación	-10.6776
▁roupa	-10.6776
cci	-10.6778
▁nazi	-10.6779
shire	-10.6779
▁Mora	-10.678
▁medi	-10.6782
terra	-10.6783
▁metropolitana	-10.6784
fal	-10.6785
▁estivero	-10.6786
▁quinta	-10.6787
▁publicar	-10.6789
▁coincide	-10.679
lga	-10.6795
virus	-10.6796
▁observar	-10.6799
▁Mou	-10.6801
▁Max	-10.681
▁Pablo	-10.6812
▁w	-10.6816
▁cap	-10.6817
uk	-10.6819
▁evidencia	-10.6822
lex	-10.6826
▁semella	-10.6826
▁tío	-10.6827
reiro	-10.6831
wan	-10.6831
pio	-10.6832
▁coincidi	-10.6832
▁territorial	-10.6832
▁altera	-10.6833
▁aliados	-10.6835
cht	-10.6844
▁pronuncia	-10.6845
gma	-10.6849
tores	-10.6849
▁seguida	-10.685
▁correntes	-10.6858
side	-10.6867
cub	-10.6869
▁est	-10.6869
dico	-10.6872
▁Boy	-10.6873
▁require	-10.6876
bé	-10.6877
▁asociada	-10.6882
τ	-10.6882
61	-10.6884
43	-10.6886
▁substrato	-10.6889
▁cel	-10.6889
▁públicas	-10.689
▁contar	-10.6891
▁zo	-10.6895
▁nobres	-10.6898
▁1905	-10.6899
ach	-10.6901
▁resolución	-10.6904
▁contou	-10.6905
▁paralelo	-10.6905
▁erro	-10.6906
▁You	-10.6906
▁Ban	-10.6907
▁Andalucía	-10.6911
▁Cup	-10.6912
▁residuos	-10.6912
▁alterna	-10.6914
▁Vitoria	-10.6916
71	-10.6917
▁Noia	-10.6918
▁demostrou	-10.6918
RA	-10.6918
▁dise	-10.6918
▁outono	-10.6919
▁che	-10.6922
▁deuses	-10.6924
▁indi	-10.6924
▁intercambio	-10.6925
rei	-10.6932
▁desenvolvida	-10.6934
art	-10.6936
▁Arousa	-10.694
▁Der	-10.6941
▁armada	-10.6942
▁almacena	-10.6944
▁verdade	-10.6944
▁afluente	-10.6947
▁falecido	-10.6947
▁Corte	-10.6948
▁xudía	-10.6948
▁rosa	-10.6948
▁salto	-10.695
tando	-10.6955
▁abrangue	-10.6961
▁quince	-10.6964
▁Federal	-10.6964
zada	-10.6967
▁precursor	-10.6969
▁Guinea	-10.6969
nne	-10.6969
selle	-10.6969
▁variante	-10.697
▁gar	-10.6974
▁goberna	-10.6974
▁columnas	-10.6976
vos	-10.698
▁Zi	-10.6981
▁mel	-10.6981
ë	-10.6983
▁sitúase	-10.6983
▁indio	-10.6983
lly	-10.6985
▁GP	-10.6985
▁facil	-10.6985
▁avanza	-10.6986
▁comedia	-10.6989
▁Dra	-10.6989
-10	-10.699
▁millón	-10.6992
▁defender	-10.6992
▁Bull	-10.6993
▁espa	-10.6993
▁bolsa	-10.6997
▁Jan	-10.6999
▁probabilidade	-10.6999
▁Ran	-10.7
▁substituír	-10.7001
▁Estadio	-10.7003
▁efectivo	-10.7005
telo	-10.7005
trop	-10.7013
▁flora	-10.7015
nti	-10.7016
▁Ei	-10.7019
▁Camiño	-10.7021
▁económicas	-10.7022
▁Long	-10.7023
▁resistente	-10.7026
▁cur	-10.7028
▁conflitos	-10.7029
▁mudou	-10.7029
▁ovo	-10.7038
▁narra	-10.7055
▁terreos	-10.7055
▁Comarca	-10.7058
▁Die	-10.7059
▁Home	-10.706
▁lagoa	-10.7061
scritores	-10.7062
â	-10.7063
▁Europeo	-10.7063
▁Im	-10.7064
▁once	-10.7068
63	-10.7068
quino	-10.7069
▁contribución	-10.707
▁poderes	-10.7074
olóxica	-10.7074
mbu	-10.7074
▁goza	-10.7079
▁defende	-10.7081
▁Forza	-10.7085
mol	-10.7091
oma	-10.7095
▁prazo	-10.7096
▁Lemos	-10.7098
▁International	-10.7099
ring	-10.71
▁traxectoria	-10.71
cept	-10.7108
▁parcialmente	-10.7115
fort	-10.7116
sur	-10.7118
▁caracteriza	-10.712
▁facelo	-10.712
▁licenza	-10.7121
▁despraza	-10.7125
pt	-10.7128
▁occidentais	-10.7129
▁deserto	-10.7132
▁64	-10.7136
▁Alberto	-10.7136
▁White	-10.714
▁salva	-10.7142
porta	-10.7147
▁incendio	-10.715
▁norteamericano	-10.7153
grama	-10.7153
▁Tru	-10.7154
éntase	-10.7157
▁máquina	-10.7158
▁1909	-10.716
▁Lúa	-10.7162
RC	-10.7164
▁Bilbao	-10.7165
▁papei	-10.7165
bes	-10.7165
▁encontrar	-10.7169
▁universo	-10.7172
▁doutrina	-10.7173
ógrafo	-10.7173
▁Riba	-10.7174
▁Premios	-10.7174
▁Wal	-10.7175
▁1911	-10.7175
▁Ferro	-10.7178
▁Mala	-10.7182
▁Cultural	-10.7185
▁celebrado	-10.7186
▁caracteríza	-10.7187
▁extremos	-10.7187
dido	-10.7188
icio	-10.7189
▁‘	-10.7194
▁suxeito	-10.7194
ska	-10.72
▁regras	-10.72
▁reformas	-10.7201
ted	-10.7203
▁Xer	-10.7205
ides	-10.7206
▁indíxenas	-10.7207
▁ceo	-10.7208
▁Tanto	-10.7209
▁récord	-10.7209
▁xurdiu	-10.7209
▁CE	-10.721
▁concreto	-10.721
ndra	-10.7211
sign	-10.7211
ug	-10.7212
▁posibles	-10.7213
yn	-10.7218
ponse	-10.7219
gres	-10.7227
Ma	-10.7232
▁aprobación	-10.7237
sson	-10.7237
▁limitada	-10.7239
▁bando	-10.724
▁une	-10.7242
inte	-10.7243
▁controlar	-10.7243
▁subunidade	-10.7246
pido	-10.7247
▁acerca	-10.7248
▁acusado	-10.7248
vez	-10.7252
▁Venecia	-10.7254
uda	-10.726
▁ordenou	-10.7264
▁49	-10.7264
▁Lama	-10.7264
mbar	-10.7265
▁episodio	-10.7265
▁Perú	-10.7265
▁Baixa	-10.7266
dente	-10.7268
▁Euro	-10.727
▁aparencia	-10.7276
▁vitamina	-10.7284
▁Leste	-10.7285
rena	-10.7287
▁mariños	-10.7288
▁escu	-10.729
▁universitario	-10.7291
▁aparello	-10.7291
▁variantes	-10.7293
▁celébra	-10.7298
grega	-10.7298
▁hu	-10.7298
▁Draft	-10.7299
▁gobernante	-10.7309
▁profundo	-10.7313
▁desenvolve	-10.7314
▁abriu	-10.7314
▁Mur	-10.732
▁glándula	-10.7321
▁variacións	-10.7321
▁derivada	-10.7321
▁1906	-10.7322
▁folla	-10.7323
▁Cámara	-10.7328
▁single	-10.7329
▁outorga	-10.7331
▁Time	-10.7332
▁comezan	-10.7336
▁ficha	-10.7339
▁Stone	-10.7343
▁Xurxo	-10.7343
▁Ram	-10.7343
▁chinés	-10.7344
▁superar	-10.7345
▁soporte	-10.7352
▁eliminar	-10.7353
▁relixiosos	-10.7353
▁relacionada	-10.7356
▁castelá	-10.7359
-0	-10.736
▁tralo	-10.7363
gus	-10.7364
▁inde	-10.7364
lítica	-10.7364
▁fabricante	-10.7366
▁xe	-10.7367
▁Scott	-10.7368
▁lectura	-10.7373
▁percorrido	-10.7373
▁desexa	-10.7379
tto	-10.7379
▁Javier	-10.7381
▁College	-10.7381
▁vital	-10.7382
▁cae	-10.7382
ile	-10.7384
CA	-10.7386
▁dedica	-10.7388
wer	-10.7388
gru	-10.739
▁Existe	-10.7391
▁organizada	-10.7394
▁duro	-10.7395
ward	-10.7397
▁deportivo	-10.7398
▁designa	-10.7399
▁parti	-10.7401
▁triunfo	-10.7403
▁clasificar	-10.7407
▁marcou	-10.7408
▁graos	-10.7408
rm	-10.741
▁minoría	-10.7418
▁cumprir	-10.7419
neo	-10.742
▁esforzos	-10.742
▁Ali	-10.7421
▁August	-10.7422
lor	-10.7423
ello	-10.7425
▁circulación	-10.7425
▁parlamento	-10.7426
dú	-10.7426
▁evidencias	-10.7429
▁viaxes	-10.7429
ándoa	-10.7431
ari	-10.7433
▁biolóxica	-10.7434
▁vehículos	-10.7436
dán	-10.7438
▁Nápoles	-10.7441
▁cuberto	-10.7442
ret	-10.7443
▁Wil	-10.7449
▁electrónica	-10.745
▁evita	-10.7451
▁Win	-10.7453
▁Esp	-10.7456
▁Ela	-10.7457
▁buscar	-10.746
▁postos	-10.7463
▁prote	-10.7463
▁Dio	-10.7468
▁Jones	-10.747
▁Schumacher	-10.7471
ago	-10.7472
▁fría	-10.7478
▁reclama	-10.7479
▁Palma	-10.7481
▁faleceu	-10.7482
▁coloca	-10.7486
nista	-10.7486
▁definir	-10.7488
corre	-10.7489
zas	-10.7489
▁actuacións	-10.7491
▁seco	-10.7491
▁vaca	-10.7493
▁reducida	-10.7495
eña	-10.7498
▁rea	-10.7499
▁Bol	-10.75
▁Facultade	-10.7502
▁Ante	-10.7503
▁conferencia	-10.7504
pon	-10.7507
▁250	-10.751
▁episodios	-10.7513
▁arma	-10.7515
▁manifesta	-10.7516
▁Xeorxia	-10.7517
▁visual	-10.7517
▁Prost	-10.7518
▁xurdir	-10.7525
▁pinturas	-10.7525
▁relixiosas	-10.7526
▁empregados	-10.7531
▁Emilio	-10.7533
▁derivado	-10.7533
cur	-10.7538
▁químico	-10.7539
▁UEFA	-10.754
▁Xerusalén	-10.7547
more	-10.755
▁franco	-10.7552
▁Lugares	-10.7555
ónimo	-10.7556
▁Roberto	-10.7556
▁apareceron	-10.7556
idi	-10.7558
riña	-10.7559
▁asuntos	-10.7564
▁participaron	-10.7569
▁retrato	-10.7571
▁elaboración	-10.7573
▁regresar	-10.7573
▁It	-10.7573
vá	-10.7579
▁produci	-10.7579
▁Murcia	-10.758
▁nativos	-10.758
iños	-10.7585
loxía	-10.7586
rosa	-10.7586
▁satélites	-10.7588
▁creando	-10.759
▁Spe	-10.7591
▁Cam	-10.7592
▁reforza	-10.7594
▁oxíxeno	-10.7601
lve	-10.7601
ríase	-10.7602
▁pasan	-10.7603
▁falan	-10.7605
▁monumento	-10.7612
▁explicación	-10.7615
▁bota	-10.7619
▁Libro	-10.762
rey	-10.762
tir	-10.7621
▁Social	-10.7622
ográfica	-10.7624
▁Esa	-10.7624
▁estatal	-10.7624
▁voto	-10.7625
▁estacións	-10.7627
▁restauración	-10.7632
oide	-10.7633
cis	-10.7637
▁47	-10.764
▁arteria	-10.7641
▁PSOE	-10.7641
curso	-10.7642
▁económicos	-10.7642
vor	-10.7643
▁falantes	-10.7648
▁introduciu	-10.765
▁Foron	-10.7655
▁critica	-10.7655
▁ferido	-10.7661
▁axentes	-10.7661
▁himno	-10.7663
▁moza	-10.7663
▁sentimento	-10.7664
▁aprecia	-10.7667
▁representada	-10.7668
▁esforzo	-10.7668
▁avance	-10.7669
▁sanguíneo	-10.767
▁homo	-10.7673
▁Game	-10.7674
▁Escu	-10.7677
▁amarelo	-10.7678
▁cartas	-10.7678
front	-10.7679
▁marcado	-10.7686
▁magnitude	-10.7686
▁meridional	-10.7686
▁convento	-10.7688
dó	-10.769
▁fundadores	-10.769
▁51	-10.769
▁pavillón	-10.7694
▁Mat	-10.7694
-200	-10.7698
▁Lotus	-10.7698
▁comenta	-10.77
▁patrimonio	-10.7701
▁Carolina	-10.7703
▁Organización	-10.7703
▁oferta	-10.7704
poñer	-10.7705
eri	-10.7706
▁soberanía	-10.7709
▁permitía	-10.7709
▁nomeada	-10.7711
▁Mario	-10.7713
▁muscular	-10.7714
▁cham	-10.7715
▁construíu	-10.7717
▁600	-10.7719
▁Epi	-10.7721
▁recta	-10.773
▁rival	-10.7732
▁Estudos	-10.7732
▁pur	-10.7738
▁extensa	-10.774
▁soviética	-10.774
▁subfamilia	-10.7741
▁reducido	-10.7741
▁Conferencia	-10.7742
▁representado	-10.7743
▁alcanzou	-10.7748
nzo	-10.7755
▁Todo	-10.7756
▁Deza	-10.7757
▁secundario	-10.7757
▁position	-10.7764
▁incorpora	-10.7766
posto	-10.7769
▁execución	-10.7771
▁ordena	-10.7774
▁Pai	-10.7777
▁Iugoslavia	-10.7779
▁distinguir	-10.7779
▁minerais	-10.7779
▁páxina	-10.7782
▁universidades	-10.7784
▁masas	-10.7786
hl	-10.7787
▁animación	-10.7787
izadas	-10.7787
nor	-10.7789
▁disputar	-10.779
lam	-10.779
▁Outeiro	-10.7796
sistencia	-10.7799
▁Católica	-10.7803
▁acompañado	-10.7807
▁Dr	-10.781
▁realización	-10.781
ego	-10.7813
stein	-10.7813
oro	-10.7815
▁bri	-10.7816
quia	-10.7817
lóxica	-10.7818
▁barreira	-10.7819
▁Joan	-10.7823
▁decreto	-10.7823
▁enlaces	-10.7825
▁próximas	-10.7826
▁Hamilton	-10.7826
р	-10.7828
ómico	-10.7829
▁sinxela	-10.7834
▁Teo	-10.7835
IC	-10.7835
▁1908	-10.7836
▁mariña	-10.7836
▁migración	-10.7841
ciones	-10.7845
▁Serie	-10.7847
▁Ty	-10.7848
▁Tan	-10.7848
▁quedaron	-10.7849
▁designado	-10.785
▁metro	-10.7851
▁52	-10.7852
▁actores	-10.7853
▁Montes	-10.7854
▁Océano	-10.7858
▁protector	-10.7858
▁encóntra	-10.7874
▁rexeita	-10.7874
▁normas	-10.7879
▁estre	-10.7881
▁prop	-10.7881
▁interacción	-10.7888
▁Educación	-10.7889
▁simples	-10.7893
▁Corea	-10.7894
▁pretende	-10.7895
SA	-10.7897
▁devandito	-10.7897
▁Pertence	-10.7897
▁elixida	-10.7897
clo	-10.7898
▁placa	-10.7899
▁vivían	-10.7899
▁1915	-10.79
▁firma	-10.7901
▁pica	-10.7905
ili	-10.7908
▁causada	-10.7912
▁noso	-10.7912
hen	-10.7912
▁dixital	-10.7913
▁exerceu	-10.7915
▁rodea	-10.7917
▁Zu	-10.7918
▁boxe	-10.7921
▁nega	-10.7923
▁preparación	-10.7923
vent	-10.7924
▁Sea	-10.7925
▁calcio	-10.7927
▁declarado	-10.7927
▁Biblioteca	-10.7929
▁toneladas	-10.7929
quera	-10.793
▁1000	-10.7931
▁cabalo	-10.7932
▁predi	-10.7932
▁canles	-10.7932
▁madura	-10.7935
▁baséa	-10.7937
▁doutro	-10.7939
GA	-10.7943
▁petición	-10.7945
▁específica	-10.795
▁Clo	-10.7952
▁químicos	-10.7953
xido	-10.7953
▁éxitos	-10.7958
▁páxinas	-10.7958
▁inv	-10.796
č	-10.7961
▁remate	-10.7961
▁protestante	-10.7967
▁encontran	-10.7968
▁fallo	-10.797
▁Praza	-10.7973
▁min	-10.7974
▁Departamento	-10.7977
AC	-10.7978
lei	-10.7983
▁Island	-10.7983
▁disc	-10.7983
BA	-10.7985
▁falla	-10.7985
▁seguro	-10.7986
▁administrativo	-10.7989
bou	-10.7993
▁automóbiles	-10.7995
leccion	-10.7995
▁Roger	-10.8
▁acumula	-10.8001
▁Otero	-10.8002
▁capas	-10.8002
▁nomeamento	-10.8004
▁rol	-10.8004
cid	-10.8009
▁merca	-10.801
▁enviar	-10.8011
▁ingresou	-10.8011
win	-10.8014
ándolle	-10.8017
▁establecido	-10.8017
▁gravar	-10.8018
▁vendas	-10.8019
▁fuxir	-10.8021
▁comunica	-10.8023
▁Cádiz	-10.8025
▁Deputación	-10.8025
▁Normal	-10.8031
▁Reg	-10.8032
▁Senado	-10.8038
cip	-10.8039
▁120	-10.804
▁Romanía	-10.8041
cker	-10.8044
▁carto	-10.8046
▁aniversario	-10.8049
▁democracia	-10.8049
▁Darwin	-10.8049
pes	-10.805
▁uniuse	-10.805
▁ocupada	-10.8053
▁agrícola	-10.8055
▁Char	-10.8057
▁debutou	-10.8058
▁filo	-10.8061
▁Ford	-10.8062
▁determina	-10.8063
cie	-10.8064
▁revolucionario	-10.8064
▁disolución	-10.8065
▁retorno	-10.8065
▁Spa	-10.8066
▁Hel	-10.8069
▁move	-10.8071
▁utilización	-10.8073
▁seleccionado	-10.8073
▁ap	-10.8073
tería	-10.8076
cana	-10.8079
ith	-10.808
▁abre	-10.8081
▁executivo	-10.8081
mora	-10.8081
▁tribo	-10.8081
▁Bai	-10.8081
ame	-10.8082
lidade	-10.8083
▁iniciar	-10.8085
▁fil	-10.8085
▁doenzas	-10.8086
▁Bot	-10.8087
▁BNG	-10.8091
rman	-10.8092
▁acontece	-10.8094
▁adapta	-10.8097
▁afirmou	-10.8097
▁cepa	-10.8097
▁pediu	-10.8102
▁Alfonso	-10.8105
▁matriz	-10.8105
▁penetra	-10.8107
▁mesmas	-10.8107
▁asento	-10.8109
▁edicións	-10.811
táronse	-10.8113
tifica	-10.8113
▁vende	-10.8113
▁Tivo	-10.8113
eño	-10.8125
▁froitos	-10.8126
▁gal	-10.8128
▁arxentino	-10.813
▁familiares	-10.8131
▁definitiva	-10.8131
▁cua	-10.8133
ocitos	-10.8134
▁ideoloxía	-10.8138
▁humanas	-10.8138
▁definida	-10.814
mn	-10.8144
▁Flor	-10.8145
▁Compañía	-10.8146
▁comer	-10.815
ū	-10.8154
▁lagos	-10.8155
▁igualmente	-10.8156
▁muro	-10.8158
▁síndrome	-10.8162
▁vontade	-10.8162
▁sí	-10.8169
▁heroe	-10.8171
▁vocalista	-10.8172
▁Sé	-10.8183
▁recoñecer	-10.8184
▁catalá	-10.8185
▁pertencentes	-10.8185
▁coñécese	-10.8186
▁Croacia	-10.8195
▁engadir	-10.8195
▁Colexio	-10.8195
▁fases	-10.8198
▁sae	-10.82
▁Fal	-10.82
▁nitróxeno	-10.8203
▁atopaba	-10.8203
▁cómpre	-10.8203
▁lados	-10.8206
▁positivo	-10.8209
▁Fran	-10.821
rista	-10.8211
▁aceptou	-10.8211
▁entender	-10.8216
mber	-10.8217
▁pastor	-10.8217
▁Stra	-10.8218
▁existir	-10.822
▁escenas	-10.8222
▁adestramento	-10.8222
▁1907	-10.8222
ding	-10.8223
▁té	-10.8224
▁1904	-10.8229
▁placas	-10.823
ificada	-10.8233
▁transferencia	-10.8236
▁implicado	-10.8237
▁describiu	-10.8237
cultura	-10.8238
▁electro	-10.8239
▁prima	-10.8244
▁propuxo	-10.8245
▁facilita	-10.8245
▁asegurar	-10.8246
▁respecta	-10.8248
celo	-10.8252
▁Municipal	-10.8252
▁herdanza	-10.8252
▁define	-10.8255
.500	-10.8255
▁abundante	-10.8259
▁intelectual	-10.8259
▁pagar	-10.8261
íbel	-10.8263
▁viña	-10.8267
▁levanta	-10.8268
▁Macedonia	-10.8268
▁semellanza	-10.8269
▁estreou	-10.8274
▁princesa	-10.8276
cora	-10.8278
▁poderoso	-10.8278
▁limitado	-10.8278
▁levada	-10.8285
LA	-10.829
▁Garda	-10.8291
▁fluído	-10.8293
grado	-10.8294
▁centrais	-10.8294
ele	-10.8298
▁funcional	-10.8299
fon	-10.83
▁Venezuela	-10.8301
▁poboada	-10.8301
▁relatos	-10.8302
▁inimigo	-10.8309
▁lanzada	-10.8314
plasto	-10.8318
hn	-10.8318
▁Hunt	-10.8318
▁Dun	-10.8319
▁imita	-10.8324
▁contorna	-10.8326
▁uniforme	-10.8326
▁posuía	-10.8327
▁etapas	-10.8328
▁far	-10.8329
▁evolutiva	-10.8334
▁sucedeu	-10.8335
▁imaxina	-10.8337
volve	-10.8339
ord	-10.834
▁United	-10.8342
▁primario	-10.8344
pho	-10.8351
▁australiano	-10.8351
▁miña	-10.8352
▁Land	-10.8352
▁Carmen	-10.8358
bit	-10.8358
▁porcentaxe	-10.8359
▁viax	-10.8359
íña	-10.8361
▁asenta	-10.8361
ø	-10.8367
▁adoptou	-10.8367
▁negocio	-10.8369
▁Negro	-10.8371
▁Ken	-10.8372
▁audiencia	-10.8376
▁ferida	-10.8376
▁cova	-10.8378
hé	-10.838
▁prato	-10.8382
▁financeiro	-10.8384
▁fichou	-10.8384
▁pedi	-10.8386
burgo	-10.8387
▁caracteres	-10.8388
▁Anna	-10.8391
▁fosfato	-10.8395
▁identifica	-10.84
▁cráter	-10.84
mifinais	-10.8401
elli	-10.8402
▁escravos	-10.8403
▁parroquial	-10.8404
▁pregunta	-10.8409
rac	-10.8409
▁Ano	-10.8411
▁orientación	-10.8411
idad	-10.8413
ani	-10.8415
▁emprégase	-10.8417
▁colectivo	-10.8417
▁Canarias	-10.842
▁Ob	-10.8421
▁xerar	-10.8421
▁Spi	-10.8422
▁Association	-10.8425
icas	-10.8427
prim	-10.8432
áceas	-10.8434
ír	-10.8438
▁Nesa	-10.8439
gun	-10.844
▁maioritaria	-10.8441
▁conmemora	-10.8442
▁za	-10.8448
▁conclusión	-10.8451
▁multitude	-10.8451
▁EUA	-10.8451
▁rendemento	-10.8451
cedo	-10.8451
ificou	-10.8452
▁seguía	-10.8453
lino	-10.8453
▁sufri	-10.8455
▁composicións	-10.8458
uc	-10.846
▁Vega	-10.8463
▁definido	-10.8463
uf	-10.8464
▁condena	-10.8469
▁volcán	-10.8469
▁Poden	-10.8471
▁54	-10.8472
▁ARNm	-10.8473
▁800	-10.8473
▁desemboca	-10.8475
nan	-10.8479
▁libera	-10.8479
▁Renault	-10.8484
visión	-10.8489
▁integrado	-10.8489
▁Ás	-10.8491
▁sintetiza	-10.8492
▁Estrada	-10.8493
▁Brown	-10.8493
▁intentou	-10.8493
▁impostos	-10.8494
▁agrupación	-10.8495
vista	-10.8495
reg	-10.8496
▁fornece	-10.8501
▁Medicina	-10.8504
rus	-10.8504
▁asociados	-10.8504
vil	-10.8504
▁53	-10.8507
▁Tui	-10.8509
▁alén	-10.851
▁Confederación	-10.8511
RE	-10.8512
dense	-10.8512
ky	-10.8514
ett	-10.8518
▁Pierre	-10.8519
▁escaso	-10.8523
guer	-10.8527
produ	-10.8532
mper	-10.8533
▁Pobo	-10.8535
▁chinesa	-10.8535
▁militante	-10.8536
▁Sto	-10.8536
▁abrir	-10.8538
pper	-10.8541
▁Mónaco	-10.8543
▁Jesús	-10.8543
▁praias	-10.8543
▁vector	-10.8544
güe	-10.8549
▁Porta	-10.855
ος	-10.8552
▁Mellor	-10.8553
▁tenta	-10.8553
ófilo	-10.8555
▁São	-10.8559
▁considerou	-10.8559
▁capace	-10.8561
▁xogando	-10.8562
▁cabe	-10.8564
▁públicos	-10.8565
▁vence	-10.8565
▁mozos	-10.8568
▁barra	-10.8568
▁Mercedes	-10.8568
▁axudou	-10.8568
▁humanidade	-10.857
▁dianteiro	-10.8573
pet	-10.8573
▁medir	-10.8576
▁Filosofía	-10.8577
▁AC	-10.8579
▁Ham	-10.8579
▁mineral	-10.858
▁falada	-10.8581
▁anal	-10.8585
▁proclamou	-10.8585
▁preferi	-10.8586
▁efectiva	-10.8588
▁Antiga	-10.859
▁bos	-10.8594
mato	-10.8601
▁trigo	-10.8601
▁relevante	-10.8602
▁pensar	-10.8603
adamente	-10.8605
▁Bob	-10.8607
▁habita	-10.8608
▁Rivera	-10.8608
▁alcance	-10.8611
▁Oeste	-10.8612
taba	-10.8612
▁fundamentai	-10.8612
▁neto	-10.8613
▁progresiva	-10.8619
ium	-10.8622
▁graxa	-10.8623
Q	-10.8625
▁Estaba	-10.8627
▁muros	-10.8628
▁parente	-10.8628
filia	-10.8635
▁iniciais	-10.8635
▁curtas	-10.8635
▁pneumáticos	-10.8636
cca	-10.8638
bón	-10.8639
glo	-10.864
▁1898	-10.864
int	-10.8641
▁vexetais	-10.8645
▁Español	-10.8645
▁larvas	-10.8646
úr	-10.8646
rela	-10.8648
▁comerciante	-10.8653
▁evidente	-10.8653
▁Andrés	-10.8655
ctivo	-10.8656
▁pago	-10.8658
▁Hen	-10.8659
▁académico	-10.8662
▁Gallega	-10.8663
▁nobre	-10.8666
▁úsa	-10.8668
▁predominante	-10.8669
▁cero	-10.8671
▁croata	-10.8671
lig	-10.8673
▁Catedral	-10.8679
▁Texas	-10.868
▁enteiro	-10.8682
▁decidiron	-10.8683
lleira	-10.8685
▁André	-10.8686
▁administra	-10.8686
▁lobo	-10.8687
▁estranxeiros	-10.8687
▁fígado	-10.8688
▁conversión	-10.8689
tral	-10.8689
▁clado	-10.869
▁parecen	-10.869
▁parasito	-10.8692
▁avó	-10.8693
▁herda	-10.8695
▁ped	-10.8705
▁marcada	-10.8706
▁Veiga	-10.8706
dul	-10.8708
▁culturas	-10.871
▁Dur	-10.8714
▁Grazas	-10.8714
▁loitar	-10.8716
▁bate	-10.8717
sch	-10.8717
uti	-10.8719
ícula	-10.8719
▁ingresos	-10.872
▁editou	-10.8721
▁Salamanca	-10.8722
▁cataliza	-10.8723
▁continuo	-10.8729
▁polaco	-10.8731
▁futura	-10.8734
bin	-10.8735
▁variación	-10.8736
▁bebida	-10.8739
▁interpretar	-10.8741
▁terminar	-10.8743
▁dispoñible	-10.8748
loxicamente	-10.8749
▁protagonizado	-10.8749
▁Michel	-10.8752
leo	-10.8753
▁baleiro	-10.8753
▁intensidade	-10.8756
▁dorsal	-10.8757
▁inimigos	-10.8757
reira	-10.8757
▁suposta	-10.8758
-17	-10.8759
bá	-10.8761
mic	-10.8764
tanse	-10.8767
▁niño	-10.8771
▁interesante	-10.8771
▁derivados	-10.8771
rar	-10.8772
▁Reis	-10.8772
▁comité	-10.8774
▁sinónimo	-10.8774
pico	-10.8776
▁postura	-10.8777
▁tenda	-10.8778
▁Grandes	-10.8778
▁1890	-10.8779
▁Ron	-10.878
▁carro	-10.8782
▁1903	-10.8784
vert	-10.8788
lem	-10.8789
▁Cá	-10.8789
▁Eli	-10.8792
▁Ig	-10.8793
▁flu	-10.8794
▁Fort	-10.8795
▁pura	-10.8796
▁Señor	-10.8796
▁tripulación	-10.88
índo	-10.8803
mond	-10.8803
▁símbolos	-10.8803
▁Day	-10.8805
▁estadounidenses	-10.8808
▁orgánica	-10.8808
▁temos	-10.8811
ñó	-10.8812
▁expulsado	-10.8816
▁millo	-10.8817
▁volumes	-10.8821
qua	-10.8822
▁Destaca	-10.8823
▁chamar	-10.8824
▁pretendía	-10.8826
▁fixera	-10.8826
▁fresco	-10.8828
▁arquivo	-10.8829
▁católico	-10.8829
▁solicita	-10.8834
tem	-10.8836
▁Vin	-10.8838
▁resolver	-10.884
aco	-10.8842
ifica	-10.8842
▁Ortigueira	-10.8843
▁contemporánea	-10.8843
▁hélice	-10.8843
▁románica	-10.8843
▁misterio	-10.8843
▁turístico	-10.8843
dado	-10.8844
▁negociación	-10.8845
vina	-10.8848
ity	-10.8852
▁56	-10.8853
▁reunir	-10.8853
▁Anti	-10.8856
▁xorna	-10.8857
▁deus	-10.8865
▁regra	-10.8866
mpre	-10.8866
▁argumenta	-10.8869
▁lidera	-10.8869
▁causas	-10.8869
▁rexistra	-10.8873
▁oral	-10.8874
▁Pobra	-10.8876
▁Recibiu	-10.8878
▁alteración	-10.888
▁Barreiro	-10.8882
idio	-10.8882
▁metabolismo	-10.8887
▁eliminatoria	-10.8887
▁gañaron	-10.8887
fini	-10.8888
▁golfo	-10.8889
ería	-10.889
▁Prote	-10.8892
▁especializada	-10.8893
▁permanecer	-10.8894
▁nacionalista	-10.8895
cán	-10.8896
llar	-10.8897
▁organizar	-10.8899
▁brancos	-10.8899
▁mostras	-10.8908
lín	-10.8908
▁críticos	-10.891
▁xove	-10.8914
▁col	-10.8917
sha	-10.8918
érica	-10.8918
DA	-10.8918
▁Hal	-10.8918
▁documental	-10.8919
ça	-10.892
part	-10.892
▁organizou	-10.8922
▁Eurovisión	-10.8922
▁patriarca	-10.8922
▁drama	-10.8922
▁fronteiras	-10.8922
cidas	-10.8924
▁prolonga	-10.8924
▁Bos	-10.8926
▁asegura	-10.8928
anza	-10.8929
▁sobriño	-10.893
▁talo	-10.8938
▁Cole	-10.8939
gle	-10.8941
ij	-10.8941
▁vilas	-10.8944
▁morta	-10.8946
ington	-10.8947
▁creador	-10.8948
adores	-10.895
leg	-10.8951
▁temática	-10.8952
▁seguidores	-10.8953
▁Lee	-10.8961
▁gradu	-10.8961
rita	-10.8963
▁Música	-10.8965
▁influencias	-10.8965
nic	-10.8969
izo	-10.8971
▁Mill	-10.8971
íuse	-10.8971
▁liñaxe	-10.8976
▁obtido	-10.8979
▁proclama	-10.898
▁xurisdición	-10.8983
taria	-10.8983
▁externo	-10.8983
▁establecida	-10.8986
▁activación	-10.8987
▁pinta	-10.8988
▁tenente	-10.8989
ama	-10.8992
▁nucle	-10.8994
▁separada	-10.8994
▁naval	-10.8995
▁PP	-10.8996
▁resultante	-10.9
▁individuais	-10.9001
▁Kra	-10.9004
▁Francis	-10.9004
▁ferramentas	-10.9006
▁circula	-10.9009
▁Fan	-10.9013
▁peor	-10.9016
▁derrub	-10.9019
▁Az	-10.9019
▁impedir	-10.902
far	-10.9024
▁nube	-10.9025
xénico	-10.9025
▁vertical	-10.9027
▁preciso	-10.9027
▁conselleiro	-10.9027
▁ribeira	-10.9028
▁rara	-10.9028
▁alberga	-10.9028
nc	-10.9029
▁algas	-10.903
▁mas	-10.903
▁76	-10.903
ificar	-10.9034
sfera	-10.9034
▁mostrou	-10.9036
▁Marco	-10.9043
▁crías	-10.9045
▁cemiterio	-10.9045
▁singular	-10.9045
▁democrática	-10.9045
▁promotor	-10.9045
▁muda	-10.9046
▁ósos	-10.905
▁beleza	-10.9054
▁Xoga	-10.9055
▁competicións	-10.9057
▁depresión	-10.9058
▁inaugurado	-10.9068
-12	-10.9071
▁Marrocos	-10.9072
▁Oviedo	-10.9072
▁denuncia	-10.9073
▁Consta	-10.9073
▁sofre	-10.9076
▁debeu	-10.9077
zen	-10.908
▁reciben	-10.9083
▁anotou	-10.9083
▁Johann	-10.9085
▁Barba	-10.9085
▁redactor	-10.909
▁ocupado	-10.9094
▁indicar	-10.9095
▁extremada	-10.9096
▁Big	-10.9097
▁Piñeiro	-10.91
▁Constantino	-10.9102
▁húmido	-10.9107
▁oitavo	-10.9108
▁contraste	-10.911
▁cumio	-10.911
ped	-10.9111
▁retro	-10.9114
▁grava	-10.9115
fé	-10.9119
bó	-10.9123
▁Gen	-10.9123
▁fácil	-10.9125
▁guionista	-10.9125
▁potente	-10.9125
▁especialista	-10.9127
mona	-10.9131
ald	-10.9134
▁sétimo	-10.9134
▁escapar	-10.9134
▁vendido	-10.9135
taron	-10.9136
▁March	-10.9137
▁gando	-10.9143
▁ligado	-10.915
▁Duque	-10.9151
▁alcaldía	-10.9152
▁rectangular	-10.9152
▁xustiza	-10.9152
▁North	-10.9155
▁57	-10.9156
▁consistente	-10.916
▁PPdeG	-10.9161
▁plumas	-10.9162
▁Mira	-10.9163
▁necesita	-10.9166
▁mención	-10.9169
rismo	-10.9169
▁polimerase	-10.917
▁atoparon	-10.9171
enberg	-10.9172
▁transporta	-10.9174
ancia	-10.9175
▁otomán	-10.9175
isco	-10.9175
▁South	-10.9175
▁cuxos	-10.9178
▁estranxeiro	-10.9179
▁Contra	-10.9183
▁Biblia	-10.9188
▁exercicio	-10.9188
▁estatística	-10.9188
umi	-10.9188
▁especializado	-10.919
▁Gala	-10.9194
▁Abel	-10.9194
dá	-10.9194
▁senador	-10.9195
▁fármacos	-10.9202
▁atopába	-10.9206
▁mínima	-10.9206
ii	-10.9208
▁arredores	-10.9209
▁compromiso	-10.9215
▁mod	-10.9217
▁naves	-10.922
table	-10.922
▁mac	-10.9222
▁salvaxe	-10.9224
xene	-10.9224
▁1902	-10.9226
iñas	-10.9229
▁oscila	-10.923
▁nacións	-10.9233
▁africano	-10.9233
▁cloro	-10.9233
▁Liber	-10.9235
▁mestra	-10.9235
▁participan	-10.9236
ende	-10.9237
ction	-10.9238
▁matar	-10.924
rec	-10.9241
▁rexeitou	-10.9242
▁gravou	-10.9252
▁admira	-10.9252
iuse	-10.9254
▁lento	-10.9259
lov	-10.926
▁finaliza	-10.926
▁teatral	-10.926
bru	-10.9266
▁presentouse	-10.9266
lice	-10.9267
▁Emp	-10.9268
▁explora	-10.9271
▁guerras	-10.9272
▁Tam	-10.9273
IS	-10.9274
▁inicios	-10.9277
▁terá	-10.9283
▁manifesto	-10.9288
▁causou	-10.9288
▁quinase	-10.9288
▁cabalos	-10.9289
▁estrutural	-10.9289
▁Are	-10.929
▁específicas	-10.9295
▁At	-10.9296
▁mencionado	-10.9297
wood	-10.9298
▁Bill	-10.9298
▁existente	-10.9302
▁montes	-10.9302
▁Torres	-10.9304
parti	-10.9307
▁enteira	-10.9311
▁contiña	-10.9315
▁sexuais	-10.9315
▁Sim	-10.9315
▁Stu	-10.9318
ram	-10.9319
ific	-10.932
▁presas	-10.932
▁poidan	-10.9321
mita	-10.9322
▁Angel	-10.9323
métrica	-10.9324
▁Airlines	-10.9324
▁vendeu	-10.9325
▁salvo	-10.9325
▁portada	-10.9326
▁1901	-10.9326
▁Chris	-10.9327
wo	-10.9327
xar	-10.933
▁negocios	-10.9331
▁Lorenzo	-10.9333
▁eucariotas	-10.9334
▁State	-10.9336
▁destacado	-10.9337
▁concepción	-10.9342
▁aérea	-10.9343
cc	-10.935
▁dividir	-10.9351
▁distinción	-10.9351
▁reconstrución	-10.9351
▁litoral	-10.9352
▁fungos	-10.9358
leta	-10.9358
▁Nadal	-10.9361
▁gua	-10.9361
MA	-10.9362
▁Teñe	-10.9365
▁importa	-10.9368
▁verse	-10.937
▁Alexander	-10.937
▁atribúe	-10.937
▁hitita	-10.937
▁firme	-10.9371
▁influente	-10.9374
▁enfermo	-10.9374
arte	-10.9375
▁armado	-10.9375
ográfico	-10.9378
▁antepasado	-10.9379
▁portugueses	-10.9379
▁Silleda	-10.9379
▁experimental	-10.9379
▁encoro	-10.9385
▁crime	-10.9386
▁School	-10.9388
л	-10.9396
▁ollo	-10.9397
▁Entón	-10.9397
▁médica	-10.9397
▁85	-10.9404
▁introducir	-10.9404
▁Jim	-10.9405
▁responde	-10.9406
▁refuxio	-10.9406
▁bóveda	-10.9407
▁escultor	-10.9407
▁piso	-10.9411
▁separado	-10.9412
▁Cabana	-10.9412
▁descubrir	-10.9416
▁meu	-10.9416
▁escribe	-10.9417
tuos	-10.9422
▁traballaba	-10.9422
▁ocorreu	-10.9426
▁vítimas	-10.943
▁prol	-10.9431
▁Voz	-10.9433
▁usou	-10.9433
▁Estatuto	-10.9434
▁identificación	-10.9434
dem	-10.9435
queira	-10.9436
bula	-10.9438
▁sp	-10.9441
▁electoral	-10.9444
▁tur	-10.9447
ê	-10.9453
tros	-10.9453
▁belga	-10.9454
▁Florencia	-10.9454
▁arcos	-10.9455
▁cualifica	-10.9459
▁asumiu	-10.9462
▁industriais	-10.9463
izouse	-10.9465
xeiro	-10.9467
▁adquiriu	-10.9467
▁espiña	-10.9468
▁recu	-10.9475
▁xuvenil	-10.948
ntado	-10.9481
▁diferencia	-10.9486
cion	-10.9488
▁Rod	-10.9491
▁usuarios	-10.9494
fónica	-10.9494
▁incluíu	-10.9498
▁profesora	-10.9498
▁realíza	-10.9498
▁interaccións	-10.95
▁recorda	-10.95
▁Columbia	-10.9501
▁gases	-10.9503
▁hetero	-10.9503
▁acceder	-10.9506
▁Rio	-10.9506
▁perdendo	-10.9507
▁casar	-10.9507
ò	-10.9518
▁restrición	-10.9518
▁Letras	-10.9519
▁aplicar	-10.9519
▁pal	-10.9527
▁Diario	-10.9528
▁expulsa	-10.9528
▁tivese	-10.9528
war	-10.9528
▁95	-10.9528
kan	-10.9531
toloxía	-10.9533
né	-10.9534
well	-10.9534
▁Frei	-10.9535
ísta	-10.9535
▁Jorge	-10.9536
cap	-10.9539
▁Mau	-10.9544
ence	-10.9546
▁anarquista	-10.9546
▁febra	-10.9546
media	-10.9548
▁matemática	-10.9552
▁raro	-10.9554
▁Arzúa	-10.9555
▁Morreu	-10.9555
▁TV	-10.9556
▁Pale	-10.956
▁neve	-10.956
▁Med	-10.9562
imi	-10.9562
▁aló	-10.9563
▁divide	-10.9565
▁funcionario	-10.9566
▁ratos	-10.9568
ugh	-10.9569
▁finalizou	-10.957
mbe	-10.957
▁mariño	-10.9571
▁aceiro	-10.9572
▁Borgoña	-10.9574
▁polémica	-10.9574
▁detalles	-10.9574
▁PS	-10.9577
gy	-10.9579
▁Norteamérica	-10.9583
▁Televisión	-10.9583
▁gradual	-10.9587
▁austríaco	-10.9592
▁jazz	-10.9592
▁Cooper	-10.9593
rís	-10.9593
▁Sco	-10.9594
▁Estevo	-10.9595
▁dependencia	-10.9597
▁naquel	-10.9597
▁Espa	-10.9597
▁lixeira	-10.9599
▁apoiar	-10.96
ecido	-10.9604
▁renuncia	-10.961
▁exipcio	-10.9611
▁tropicais	-10.9611
▁eliminación	-10.9613
▁lóxica	-10.9616
▁wa	-10.9618
dito	-10.9619
▁ligada	-10.9619
▁dist	-10.9621
AR	-10.9623
thi	-10.9624
▁Blue	-10.9624
▁tomada	-10.9625
colo	-10.9629
▁porción	-10.963
▁aprobou	-10.963
▁compromet	-10.963
rgan	-10.9631
▁liber	-10.9633
▁nena	-10.9633
▁configuración	-10.9633
▁Artur	-10.9636
▁integr	-10.9636
▁hidr	-10.9638
ións	-10.9638
▁reflicte	-10.9639
DE	-10.9648
▁cincuenta	-10.9649
zh	-10.9651
▁liso	-10.9652
▁condados	-10.9654
hard	-10.9655
▁protexe	-10.9657
▁doméstico	-10.9658
▁masiva	-10.9659
teca	-10.966
▁Case	-10.9662
rme	-10.9663
▁Patrimonio	-10.9668
▁vender	-10.967
▁mantívo	-10.9674
▁traspasado	-10.9675
▁consecutiva	-10.9677
▁excelente	-10.9677
▁Zamora	-10.9678
aldo	-10.9679
ólico	-10.9682
▁Traballou	-10.9682
▁fenómenos	-10.9682
▁cárcere	-10.9687
▁illote	-10.9687
▁More	-10.9691
▁folga	-10.9692
▁vin	-10.9694
dicouse	-10.9695
▁Armenia	-10.9696
▁Qu	-10.9698
nche	-10.9701
▁mesa	-10.9703
▁Wei	-10.9705
▁Amai	-10.9705
▁asemblea	-10.9706
▁Selección	-10.9706
▁Internet	-10.9707
▁Francesa	-10.9707
tima	-10.9708
trón	-10.9708
▁liberado	-10.9709
pti	-10.9712
▁hemisferio	-10.9715
▁sinalización	-10.9718
▁Militar	-10.972
▁Lenin	-10.9722
ches	-10.9723
▁Alfredo	-10.9724
▁Posúe	-10.9725
▁atrae	-10.9725
aban	-10.9726
▁conceptos	-10.973
quina	-10.9733
▁estabilidade	-10.9734
▁devandita	-10.9734
▁Inicial	-10.9734
▁tronco	-10.9735
▁Eume	-10.974
▁moda	-10.9745
▁comisión	-10.9746
▁pseudo	-10.9753
▁Arriba	-10.9753
▁reflecti	-10.9754
▁domingo	-10.9754
▁favorable	-10.9754
ivos	-10.9755
▁Gla	-10.9757
▁rota	-10.9759
ür	-10.976
▁infraestrutura	-10.9763
▁Sho	-10.9764
▁lava	-10.9765
▁Wood	-10.9765
▁colaboradores	-10.9767
▁celebrar	-10.9768
▁vehículo	-10.9768
▁Pardo	-10.9772
▁desempeña	-10.9772
▁Kh	-10.9773
lag	-10.9774
▁compañías	-10.9774
zer	-10.9775
▁Adam	-10.9778
▁Vice	-10.9778
▁58	-10.9778
ianos	-10.9782
▁substituíu	-10.9784
▁colonos	-10.9785
nov	-10.9785
kha	-10.9786
▁pau	-10.9789
▁quería	-10.979
▁nós	-10.979
▁refire	-10.9794
▁morreron	-10.9795
▁cultivos	-10.9798
▁crese	-10.9801
▁Nalgún	-10.9801
▁navío	-10.9802
▁Mary	-10.9802
▁Cunha	-10.9803
▁exportación	-10.9806
▁Joaquí	-10.981
▁casca	-10.9813
▁brancas	-10.9814
▁Roll	-10.9814
▁pechado	-10.9817
▁sinxelos	-10.9817
▁Má	-10.9819
▁ecosistema	-10.982
iya	-10.9822
▁chea	-10.9823
▁Antigo	-10.9825
▁negativo	-10.9827
▁brazo	-10.9828
▁cavidade	-10.983
▁Lewis	-10.983
▁consideraba	-10.983
▁migra	-10.9831
▁incluídos	-10.9831
rol	-10.9832
▁rega	-10.9835
▁Et	-10.9836
▁asinar	-10.9837
AS	-10.9839
wy	-10.9839
▁boas	-10.984
▁paralela	-10.9842
▁Oza	-10.9842
OS	-10.9843
▁antena	-10.9844
▁xiro	-10.9845
▁péptido	-10.9845
δ	-10.9849
▁Gregorio	-10.9849
▁incidente	-10.9849
▁Peña	-10.9851
▁maxi	-10.9854
▁escavación	-10.9855
▁pul	-10.9858
▁Prusia	-10.9858
▁God	-10.9862
▁conca	-10.9864
▁xudicial	-10.9865
gard	-10.9866
▁PSdeG	-10.9868
▁Nor	-10.9868
▁xuíz	-10.9877
▁High	-10.9877
▁preocupación	-10.9885
▁Jacques	-10.9887
cli	-10.9888
▁renda	-10.9891
dh	-10.9895
▁restantes	-10.9898
mm	-10.9901
▁detecta	-10.9902
▁aumentou	-10.9905
▁180	-10.9907
▁financeira	-10.9907
▁escocés	-10.9907
▁Pasa	-10.9907
▁etiqueta	-10.9908
AT	-10.991
▁medo	-10.9912
▁aceptar	-10.9913
▁Gun	-10.9915
▁Cata	-10.9915
marca	-10.9916
▁masculina	-10.9916
▁profesión	-10.9916
▁lesión	-10.9919
▁Provincial	-10.9922
▁adopta	-10.9922
▁XXI	-10.9923
▁abarca	-10.993
-15	-10.9931
▁represión	-10.9933
púxose	-10.9934
▁rexionais	-10.9936
▁taxon	-10.9936
▁reloxo	-10.9936
▁congreso	-10.9936
▁americanos	-10.9938
▁electo	-10.9943
▁Alma	-10.9945
ô	-10.9945
▁homónima	-10.9945
ingui	-10.995
americana	-10.9951
▁supervivencia	-10.9955
▁Eva	-10.9956
nom	-10.9957
▁Menor	-10.9957
▁Company	-10.9966
▁Mike	-10.9966
▁Mina	-10.9967
dín	-10.9967
▁soño	-10.9969
▁coñecía	-10.997
phy	-10.9971
▁descarga	-10.9971
▁deportivos	-10.9972
▁concretamente	-10.9973
▁1.000	-10.9974
▁Lista	-10.9974
▁Borbón	-10.9975
▁ordenado	-10.9977
wen	-10.9983
▁Occidente	-10.9984
▁montañosa	-10.9984
▁gótico	-10.9986
▁Var	-10.9995
enda	-10.9995
▁Señora	-11.0001
cent	-11.0002
▁Física	-11.0004
▁primitivo	-11.0004
▁colleita	-11.0004
▁obreiro	-11.0005
▁nacionalidade	-11.0008
▁Praga	-11.0012
▁Hollywood	-11.0014
▁pescozo	-11.0014
▁amplia	-11.0017
▁biolóxico	-11.0017
▁hemo	-11.0017
▁nacionalismo	-11.0018
rup	-11.0018
ámica	-11.0026
▁talento	-11.0026
▁carbón	-11.0026
σ	-11.0033
▁exercer	-11.0036
▁corda	-11.0042
▁Boeing	-11.0043
▁Británica	-11.0043
▁eliminado	-11.0044
▁asentamentos	-11.0051
dista	-11.0051
cima	-11.0054
▁Bach	-11.0055
▁actuou	-11.0063
▁franxa	-11.0063
▁xeográfico	-11.0063
ánico	-11.0064
▁naturalista	-11.0068
▁terrestres	-11.007
▁nativa	-11.007
▁aproveita	-11.0071
▁cadrados	-11.0072
▁estancia	-11.0075
ect	-11.0075
т	-11.0077
▁Bulgaria	-11.0082
▁Hitler	-11.0082
▁1897	-11.0086
▁Gau	-11.0088
▁cuncha	-11.0089
▁identificado	-11.0093
▁rodeado	-11.0095
▁mariñas	-11.0099
▁adaptado	-11.01
xí	-11.0109
▁sociedades	-11.0111
▁retablo	-11.0112
▁asistente	-11.0112
delo	-11.0112
▁pleno	-11.0114
lecto	-11.0116
iona	-11.0118
rial	-11.0119
▁guerreiro	-11.0122
▁cerámica	-11.0122
▁colonial	-11.0126
morfo	-11.013
miento	-11.0131
▁debuta	-11.0132
▁Filipinas	-11.0132
▁xestiona	-11.0132
▁transmiti	-11.0132
dis	-11.0133
▁españolas	-11.0133
▁incorporou	-11.0139
▁metai	-11.0139
▁corredor	-11.0141
▁aprendizaxe	-11.0142
▁serven	-11.0146
▁orixes	-11.015
▁cómic	-11.0153
lect	-11.0157
ítica	-11.0157
▁sonda	-11.0157
▁Marte	-11.0159
▁plasma	-11.0159
▁navega	-11.016
▁separadas	-11.016
▁ruínas	-11.0162
▁deposita	-11.0168
puña	-11.0169
hal	-11.0171
▁destacando	-11.0172
ić	-11.0174
▁Libre	-11.0175
▁inspiración	-11.0175
ui	-11.0176
hel	-11.0176
▁Bio	-11.0176
ika	-11.0178
▁1880	-11.0179
▁momentos	-11.018
▁oposto	-11.0181
▁Quiroga	-11.0181
▁vicepresidente	-11.0181
▁patóxeno	-11.0182
▁Quin	-11.0182
quel	-11.0182
▁empregando	-11.0183
▁play	-11.0183
▁persoais	-11.0183
lleiro	-11.0183
▁Nosa	-11.0184
▁extrema	-11.0184
▁serán	-11.0185
▁Inc	-11.0189
▁Literatura	-11.0191
▁franquista	-11.0191
lón	-11.0193
▁manga	-11.0194
▁seguiron	-11.0198
▁soberano	-11.0201
ere	-11.0202
▁replicación	-11.0205
ES	-11.0205
-8	-11.0206
▁conservan	-11.0209
▁redu	-11.021
▁Málaga	-11.0211
▁discípulo	-11.0211
▁índice	-11.0211
▁dispón	-11.0214
cade	-11.0215
▁estea	-11.0217
▁controversia	-11.0221
▁persecución	-11.0221
▁asociadas	-11.0222
bach	-11.0224
cionado	-11.0227
▁Esca	-11.0229
redo	-11.0229
▁xeometría	-11.0232
▁café	-11.0235
▁dif	-11.0238
▁Felipe	-11.0241
▁Xerais	-11.0243
▁darlle	-11.0249
▁virtude	-11.0251
▁tivera	-11.0252
▁doutoramento	-11.0252
mmer	-11.0252
▁tradicións	-11.0253
▁ventos	-11.0254
▁pechada	-11.0256
▁primo	-11.0258
▁Verde	-11.026
▁ju	-11.0263
▁preserva	-11.0265
▁substituída	-11.0267
▁finalidade	-11.0268
▁Philip	-11.0272
▁pontes	-11.0275
pir	-11.0276
▁1895	-11.0276
heim	-11.0278
▁rexistros	-11.028
▁estou	-11.0281
▁privilexio	-11.0281
ora	-11.0282
▁declara	-11.0286
elle	-11.0289
ا	-11.0291
▁consecutivo	-11.0291
▁discográfica	-11.0292
▁ducado	-11.0293
▁promover	-11.0294
▁pH	-11.0295
▁destacados	-11.0295
▁Fil	-11.0296
▁1899	-11.0296
▁Pere	-11.0296
▁Suárez	-11.0301
▁paga	-11.0302
▁Ambos	-11.0304
oli	-11.0307
▁literalmente	-11.0307
riano	-11.0308
▁saga	-11.0309
pú	-11.0311
▁Lea	-11.0311
▁vertebrados	-11.0311
▁emprende	-11.0312
▁Santos	-11.0313
anto	-11.0313
▁East	-11.0314
▁esténdese	-11.0315
▁emisora	-11.0316
▁Director	-11.0319
▁Caribe	-11.0319
▁Administración	-11.0322
▁contribúe	-11.0322
▁Xoana	-11.0323
estra	-11.0325
▁partidarios	-11.0327
▁suc	-11.0331
▁Segui	-11.0331
▁feminista	-11.0332
▁pantalla	-11.0332
▁separados	-11.0333
▁adestra	-11.0335
▁perfecta	-11.0342
▁Xeneral	-11.0342
▁decoración	-11.0343
▁amante	-11.0343
▁afectado	-11.0348
CR	-11.0349
▁preso	-11.0349
▁fur	-11.0351
▁fillas	-11.0351
▁irlandesa	-11.0352
▁mantendo	-11.0352
ath	-11.0356
▁estaría	-11.0362
▁Mata	-11.0363
▁mide	-11.0366
▁Xúpiter	-11.0372
▁Arena	-11.0374
raxe	-11.0374
▁contos	-11.0375
zy	-11.0378
▁fon	-11.0378
wald	-11.038
▁integración	-11.038
▁tomando	-11.0381
▁plans	-11.0387
▁terminal	-11.039
▁ninguén	-11.0392
▁rocha	-11.0393
cru	-11.0393
rell	-11.0395
ST	-11.0395
americano	-11.0396
▁asasina	-11.0396
vir	-11.0396
▁barroco	-11.0397
ette	-11.0398
▁Vello	-11.0398
▁exceso	-11.0403
pol	-11.0403
▁ki	-11.0403
▁consider	-11.0404
ástico	-11.0404
▁adquirir	-11.0405
▁doutra	-11.0408
ali	-11.0408
▁atacar	-11.041
▁diana	-11.0416
▁Vale	-11.0418
star	-11.0421
gio	-11.0423
▁alcume	-11.0423
▁impresión	-11.0423
▁pulmón	-11.0423
▁sombra	-11.0426
▁anuncio	-11.0426
▁empregan	-11.0429
▁queixo	-11.0431
▁casco	-11.0431
fecto	-11.0431
▁danza	-11.0432
▁encarga	-11.0432
▁constituída	-11.0433
▁diaria	-11.0433
rés	-11.0435
char	-11.0437
rik	-11.044
▁Lar	-11.0441
▁activos	-11.0442
▁Capela	-11.0442
▁Vietnam	-11.0443
▁descoñecido	-11.0443
▁alelo	-11.0444
▁Nel	-11.0445
▁editada	-11.0448
▁impulsa	-11.0449
▁fago	-11.045
▁Angeles	-11.0451
▁Corre	-11.0453
▁erupción	-11.0454
▁pasaxe	-11.0455
alo	-11.0456
oi	-11.0458
▁Pop	-11.0459
▁rico	-11.0464
▁Uruguai	-11.0464
▁intestino	-11.0464
▁anuais	-11.0464
▁pegada	-11.0465
hm	-11.0466
▁gusto	-11.0468
▁1896	-11.0468
▁72	-11.0471
▁clásicos	-11.0473
▁absorbe	-11.0474
▁recruta	-11.0474
num	-11.0479
▁adulto	-11.0479
▁1870	-11.0481
▁Vel	-11.0483
ciano	-11.0484
▁Windows	-11.0484
▁vencer	-11.0486
▁enterrado	-11.0486
▁fogo	-11.0488
▁detectar	-11.0491
▁Atlético	-11.0494
▁nordés	-11.0495
▁residentes	-11.0495
▁Pascua	-11.0496
▁acelera	-11.0498
▁idiomas	-11.0499
▁consecuencias	-11.0503
tense	-11.0503
▁abella	-11.0503
▁provisional	-11.0505
▁Vive	-11.0508
к	-11.0512
▁gato	-11.0512
▁relaciona	-11.0514
▁bro	-11.0518
▁designar	-11.0519
▁facían	-11.0519
hy	-11.0522
▁Produc	-11.0523
gin	-11.0524
▁Múnic	-11.0525
▁consistía	-11.0525
▁tribuna	-11.0526
ómica	-11.0528
▁Johnson	-11.0528
zzo	-11.053
▁Qua	-11.0532
▁perderon	-11.0533
し	-11.0536
▁buque	-11.0536
▁Habana	-11.0536
▁Celanova	-11.0536
▁Tim	-11.0541
▁óso	-11.0541
▁Siria	-11.0544
▁presa	-11.0544
▁URSS	-11.0546
▁neuronas	-11.0548
▁Mé	-11.0549
rth	-11.0552
▁discusión	-11.0556
▁comparti	-11.0557
ccio	-11.0558
rbi	-11.0559
▁cesa	-11.056
▁turco	-11.0562
ð	-11.0567
▁baixista	-11.0567
▁inmigrantes	-11.0567
▁débeda	-11.0567
▁gráfico	-11.0568
▁Palm	-11.0569
▁tsar	-11.0571
uz	-11.0577
▁veu	-11.0582
▁declarada	-11.0582
▁pesado	-11.0588
▁vesti	-11.0589
▁lixeiro	-11.0589
▁xo	-11.0591
▁controla	-11.0593
▁dixe	-11.0598
ό	-11.0598
▁recuperou	-11.0598
▁Dúas	-11.0598
▁Hans	-11.0599
▁cuartos	-11.0602
▁Semana	-11.0604
▁66	-11.0604
▁eixe	-11.061
▁levando	-11.0613
▁Revista	-11.0613
▁protesta	-11.0613
▁orixinario	-11.0614
▁actua	-11.0615
▁cheo	-11.0616
AM	-11.0616
pl	-11.0617
▁historias	-11.0618
▁tratou	-11.0618
áculo	-11.0618
▁US	-11.0619
▁TVG	-11.0621
-13	-11.0622
▁fol	-11.0624
▁Will	-11.0624
▁continuaron	-11.0627
▁Cantabria	-11.0629
▁Vilagarcía	-11.0629
▁pseudónimo	-11.0629
▁abundancia	-11.0629
▁aparato	-11.063
log	-11.063
▁entende	-11.0633
uni	-11.0634
▁católicos	-11.0635
▁bacteriana	-11.0635
ate	-11.0638
pica	-11.0639
olu	-11.0639
▁achado	-11.0639
▁DVD	-11.0639
▁dinámica	-11.064
vella	-11.0641
▁aceptada	-11.0641
▁xogaba	-11.0641
▁pacto	-11.0644
▁investimento	-11.0644
▁negros	-11.0647
▁dicía	-11.065
▁Xustiza	-11.065
▁metano	-11.065
pend	-11.0653
▁gasto	-11.0655
▁Rec	-11.0656
mín	-11.0658
▁vivendas	-11.0659
▁inmuno	-11.0659
▁Sh	-11.066
▁Catalunya	-11.066
▁Casal	-11.0661
▁Castelao	-11.0661
▁Oleiros	-11.0662
▁prestixio	-11.0665
métrico	-11.067
▁Colaboro	-11.067
▁tar	-11.0671
jar	-11.0673
▁videoxogo	-11.0673
▁reacciona	-11.0675
pá	-11.0678
llada	-11.0679
row	-11.0679
▁vivía	-11.0682
río	-11.0683
▁exame	-11.0686
▁cualificación	-11.069
▁contribuíu	-11.0691
▁Adoita	-11.0693
▁logrando	-11.0693
nça	-11.0694
amina	-11.0695
llado	-11.07
king	-11.07
▁Billboard	-11.0702
▁Circuíto	-11.0702
▁Mondoñedo	-11.0702
▁Montenegro	-11.0702
▁Varela	-11.0703
▁suposto	-11.0704
▁poética	-11.0705
▁Christian	-11.0712
▁usual	-11.0712
▁constituído	-11.0713
▁médicos	-11.0719
old	-11.0723
▁sindicato	-11.0723
▁vacina	-11.0724
▁67	-11.0727
▁Fol	-11.0729
▁Human	-11.0731
▁competi	-11.0732
▁bolxevique	-11.0733
▁destinada	-11.0734
▁implicada	-11.0735
▁impide	-11.0735
▁intentar	-11.0739
▁Rubi	-11.0741
▁inaugurou	-11.0744
▁rever	-11.0745
▁paleo	-11.0745
▁aparentemente	-11.0752
▁estimación	-11.0752
▁ampliación	-11.0753
▁House	-11.0754
▁reduce	-11.0755
▁pirata	-11.0755
▁obtendo	-11.0756
▁mariñeiro	-11.0756
▁conservado	-11.0758
▁1889	-11.0758
▁orientais	-11.0758
▁executado	-11.0758
▁citado	-11.0759
▁j	-11.0761
EC	-11.0761
▁Sex	-11.0764
▁lípido	-11.0765
▁superficial	-11.0765
▁demostrar	-11.0769
▁tomaron	-11.0774
▁Neu	-11.0775
▁espiritual	-11.0775
rdina	-11.0776
▁Barro	-11.0778
▁afectada	-11.0783
с	-11.0786
▁Dar	-11.0789
franc	-11.0793
▁podio	-11.0793
▁absoluto	-11.0797
▁denomínan	-11.0797
▁gravidade	-11.0797
▁cardeal	-11.0797
▁modalidade	-11.0797
▁pendente	-11.0797
▁denominar	-11.0797
IT	-11.0799
▁obtén	-11.0803
▁conciencia	-11.0806
tim	-11.0806
▁constelación	-11.0807
ical	-11.0808
▁Canto	-11.0811
▁coloniza	-11.0811
▁provocar	-11.0811
▁mental	-11.0813
▁rompe	-11.0814
▁carece	-11.0816
▁destruír	-11.0818
▁traza	-11.0819
▁Bosnia	-11.0819
▁coli	-11.0821
▁1888	-11.0822
▁estima	-11.0822
tine	-11.0825
▁Joe	-11.083
▁corta	-11.0833
▁Cru	-11.0837
▁mantiña	-11.084
▁Mestre	-11.0845
▁63	-11.0847
▁Sara	-11.0848
▁Lord	-11.0849
▁aprender	-11.085
▁investigador	-11.0856
ífero	-11.086
▁absorción	-11.086
▁escollido	-11.086
▁asiático	-11.086
mada	-11.0864
▁erros	-11.0864
lita	-11.0866
▁Ball	-11.0868
py	-11.0869
▁descoñecida	-11.0871
▁facultade	-11.0871
▁68	-11.0873
town	-11.0875
▁deusa	-11.0875
▁Cabr	-11.0877
▁normais	-11.0878
▁completar	-11.0879
▁Investigación	-11.0882
▁cortes	-11.0882
▁parecido	-11.0883
▁deputados	-11.0883
▁parcial	-11.0883
-14	-11.0884
II	-11.0886
▁Sociedad	-11.0887
▁facilitar	-11.0887
porte	-11.0889
▁form	-11.089
centr	-11.0891
▁convertéron	-11.0893
presión	-11.0893
▁xardín	-11.0894
lización	-11.0894
▁ler	-11.0899
▁auxiliar	-11.0903
▁suspensión	-11.0903
▁separar	-11.0903
▁Queen	-11.0905
▁Marie	-11.091
▁estreitamente	-11.0913
▁Democrática	-11.0914
▁autonómica	-11.0914
▁obrigou	-11.0914
▁Presenta	-11.0915
▁descendencia	-11.0916
íanse	-11.092
▁Alfa	-11.0921
chan	-11.0921
▁federación	-11.0924
▁inclinación	-11.0924
▁trofeo	-11.0924
▁daquel	-11.0927
▁deixaron	-11.0928
▁cobra	-11.0929
▁nota	-11.0929
▁Sig	-11.0931
▁concesión	-11.0935
▁degradación	-11.0936
gues	-11.0936
▁Formou	-11.0937
▁Abu	-11.0938
▁referente	-11.0938
▁corenta	-11.0941
▁febre	-11.0942
▁Brabham	-11.0946
▁antibióticos	-11.0946
▁progreso	-11.0946
▁Rico	-11.0951
▁asistir	-11.0953
prop	-11.0954
▁Biscaia	-11.0957
▁Teresa	-11.0957
▁Alianza	-11.0957
▁Disney	-11.0957
▁asigna	-11.0959
▁mutación	-11.0959
▁mega	-11.0959
▁tende	-11.0959
▁Parti	-11.0965
▁confirmou	-11.0967
▁setentrional	-11.0967
▁saca	-11.0967
▁sensible	-11.0969
▁modernas	-11.0969
▁Antoni	-11.0969
▁Ant	-11.097
▁rotación	-11.0972
▁regulado	-11.0978
▁incursión	-11.0978
▁santuario	-11.0978
▁protexida	-11.0979
▁descendente	-11.0979
▁acusa	-11.0982
▁aneis	-11.0984
rit	-11.0985
íxe	-11.0986
gara	-11.0986
▁realizan	-11.0989
▁cristián	-11.0989
▁10.000	-11.099
▁precisión	-11.099
▁anualmente	-11.0991
▁preparar	-11.0991
▁Braga	-11.0991
▁Iglesias	-11.0993
▁Augusto	-11.0995
▁Bus	-11.0995
▁Nela	-11.0998
▁comparten	-11.0998
▁xardíns	-11.0998
▁hebreo	-11.1
▁Gabriel	-11.1
▁carballo	-11.1
▁cast	-11.1
ega	-11.1001
▁Reco	-11.1002
▁humidade	-11.1002
lados	-11.1007
▁verbo	-11.101
▁Sor	-11.1011
▁leve	-11.1011
▁arroz	-11.1012
▁lá	-11.1013
vision	-11.1013
▁Humanidade	-11.1014
▁1886	-11.1015
▁viaxar	-11.1021
▁afinidade	-11.1021
▁pobres	-11.1022
▁fauna	-11.1023
▁vira	-11.1023
vento	-11.1024
▁vela	-11.1026
▁Guer	-11.1027
▁lanzar	-11.1028
▁Pódese	-11.1032
▁coordenadas	-11.1032
▁imposible	-11.1032
▁pigmento	-11.1032
▁titulada	-11.1032
▁PIB	-11.1032
▁Toronto	-11.1033
kel	-11.1033
▁guía	-11.1038
▁estradas	-11.104
▁divisións	-11.104
▁ofreceu	-11.104
▁renome	-11.1043
▁influ	-11.1043
▁produtora	-11.1044
▁construíron	-11.1047
▁portos	-11.1052
ife	-11.1052
▁61	-11.1054
▁Opera	-11.1054
▁Hei	-11.1054
▁dirixe	-11.1055
andesa	-11.1055
▁acolle	-11.1056
▁variada	-11.1064
▁máquinas	-11.1065
▁atracción	-11.1065
▁Golfo	-11.1066
ubi	-11.1069
▁mini	-11.1072
▁Cel	-11.1073
▁semanario	-11.1074
▁magnético	-11.1075
laxe	-11.1075
▁derradeira	-11.1076
▁Jacob	-11.1076
▁noticias	-11.1078
DP	-11.108
▁Eco	-11.1081
▁Simon	-11.1081
▁Crese	-11.1083
▁vasos	-11.1083
▁planea	-11.1084
▁substituíndo	-11.1086
▁Indonesia	-11.1086
▁criterios	-11.1088
▁Dal	-11.1089
▁Abaixo	-11.1091
▁monumentos	-11.1093
▁destacada	-11.1093
▁AP	-11.1094
▁parecía	-11.1094
▁Fel	-11.1095
▁capítulo	-11.1096
▁latitude	-11.1099
▁xudeu	-11.1107
▁playoffs	-11.1108
▁secreción	-11.1108
▁porteiro	-11.1108
▁desembocadura	-11.1109
▁Cun	-11.111
▁dióxido	-11.1111
▁Blo	-11.1114
▁protón	-11.1114
▁sitúan	-11.1119
▁Independencia	-11.1119
▁primitiva	-11.1119
▁sitúa	-11.1119
▁campesiños	-11.1122
▁1868	-11.1124
▁1885	-11.1124
▁inspirado	-11.1129
▁Vario	-11.113
▁cursiva	-11.113
▁Campos	-11.1133
▁capturado	-11.1135
pat	-11.1139
▁asocia	-11.1144
▁ocasiona	-11.1145
▁francos	-11.1147
▁serpe	-11.1147
▁tetra	-11.1148
▁Honra	-11.1152
▁marcas	-11.1153
▁Eric	-11.1156
▁Publicou	-11.1158
▁Av	-11.1161
▁embaixador	-11.1163
▁mocidade	-11.1163
▁estética	-11.1164
▁galería	-11.1167
▁Defensa	-11.1174
▁responsábe	-11.1174
▁acostuma	-11.1174
▁signos	-11.1176
ive	-11.1178
▁feira	-11.1179
▁copa	-11.118
▁talla	-11.118
▁controlado	-11.1182
▁Álvaro	-11.1185
▁confianza	-11.1185
▁trasladado	-11.1187
vy	-11.1187
aki	-11.1191
leiro	-11.1192
▁Santander	-11.1192
▁ber	-11.1195
▁Autónoma	-11.1196
▁censura	-11.1196
▁1884	-11.12
▁liberais	-11.12
▁estudante	-11.1201
▁ple	-11.1201
-16	-11.1205
▁teorema	-11.1207
▁permiso	-11.1207
▁estrita	-11.1208
▁Mun	-11.1209
▁Pedra	-11.1212
▁terapia	-11.1212
▁macro	-11.1215
▁Có	-11.1218
▁Núñez	-11.1218
▁cinematográfica	-11.1218
▁Renacemento	-11.1218
▁estabiliza	-11.1219
▁axudante	-11.1223
▁perna	-11.1223
▁Pamplona	-11.1229
▁alguén	-11.1229
▁pioneiro	-11.1229
▁inhibidor	-11.1231
▁gu	-11.1233
▁Alex	-11.1234
▁Colo	-11.1235
oxi	-11.1235
▁integrada	-11.1236
▁trece	-11.1236
▁elevación	-11.1237
▁secundarios	-11.1238
▁Andrade	-11.124
▁recibido	-11.1242
▁torna	-11.1248
▁eclesiástico	-11.1251
▁trazado	-11.1252
▁Dé	-11.1252
▁compositores	-11.1253
▁manifestacións	-11.1254
▁debían	-11.1258
▁delegado	-11.1259
dici	-11.1259
▁Rea	-11.126
▁Font	-11.1261
▁húngaro	-11.1262
▁nucleótidos	-11.1263
▁sensación	-11.1264
▁recomenda	-11.1265
▁Servizo	-11.1265
plica	-11.1267
▁plana	-11.127
▁peche	-11.127
icismo	-11.1271
η	-11.1273
▁peculiar	-11.1273
▁700	-11.1274
▁brazos	-11.1275
vada	-11.1275
rich	-11.1278
▁facilidade	-11.1278
ioso	-11.1279
▁ían	-11.128
▁basica	-11.1283
▁explosión	-11.1284
▁destruída	-11.1284
▁habitada	-11.1285
▁acadando	-11.129
▁Ray	-11.1293
▁volveron	-11.1294
▁explorador	-11.1294
▁fundar	-11.1295
▁muíño	-11.1296
▁Política	-11.1298
▁62	-11.1299
▁verdes	-11.1299
▁mover	-11.13
▁Victoria	-11.1301
▁mitocondria	-11.1303
▁deulle	-11.1303
▁xigantes	-11.1304
versión	-11.1305
▁sometido	-11.1306
▁orixinar	-11.1307
rov	-11.1309
▁public	-11.1314
▁clasifica	-11.1314
▁Rob	-11.1316
▁Society	-11.1318
▁Kosmos	-11.1318
▁lámina	-11.1318
▁naquela	-11.132
▁xustifica	-11.1321
mur	-11.1322
▁fru	-11.1324
▁euro	-11.1328
▁Redondela	-11.1329
▁vulgar	-11.133
▁esfera	-11.1333
▁desprazamento	-11.1334
▁recollida	-11.134
▁Mozart	-11.134
▁plasmática	-11.134
▁cabeceira	-11.134
▁signo	-11.1343
▁Sel	-11.1348
▁navegación	-11.1349
▁59	-11.1351
▁intelixente	-11.1351
▁esquema	-11.1351
▁introducido	-11.1353
▁turcos	-11.1355
comp	-11.136
▁únese	-11.1362
▁Marc	-11.1369
nik	-11.1371
▁esquerdo	-11.1373
▁confundir	-11.1374
▁Basketball	-11.1374
▁intervalo	-11.1374
▁suxeri	-11.1374
▁rusos	-11.1374
▁gala	-11.1375
▁alcohol	-11.1376
▁Mara	-11.138
ional	-11.1383
órica	-11.1383
▁Emperador	-11.1385
▁escolle	-11.1386
cara	-11.1388
▁Moi	-11.1395
▁polar	-11.1396
▁étnico	-11.1396
▁disposto	-11.1396
▁caudal	-11.1396
PG	-11.1397
▁Villar	-11.1397
▁incorporación	-11.1397
▁pobre	-11.1402
arquía	-11.1405
▁iguai	-11.1407
▁permanecen	-11.141
vid	-11.1412
-11	-11.1415
▁culmina	-11.1417
▁host	-11.1418
▁billete	-11.1419
▁vigor	-11.1423
▁reside	-11.1424
▁Fixo	-11.1427
▁Víctor	-11.143
▁Ribadeo	-11.143
▁teórico	-11.1431
▁1891	-11.1434
▁Cova	-11.1435
▁1,5	-11.1436
▁densa	-11.1436
▁pá	-11.144
▁habitante	-11.144
continuidade	-11.1441
▁debida	-11.1443
▁explota	-11.1444
▁estilos	-11.1446
guen	-11.1449
▁extenso	-11.1452
▁baile	-11.1455
,	-11.1458
▁secreta	-11.1459
▁xénica	-11.1463
▁Friedrich	-11.1464
▁Republicana	-11.1464
▁éuscaro	-11.1464
▁verte	-11.1466
▁grella	-11.1467
▁Merca	-11.1468
▁Cabe	-11.147
▁ordenador	-11.147
▁atol	-11.147
niano	-11.147
▁fusiona	-11.1472
▁habituais	-11.1475
▁mecánico	-11.1475
▁embrión	-11.1476
γ	-11.1481
ceto	-11.1485
worth	-11.1486
▁débil	-11.1487
▁ingresa	-11.1487
▁enfrontou	-11.1489
lite	-11.1491
▁adoitaba	-11.1493
▁Jersey	-11.1498
▁delimita	-11.1499
▁balea	-11.1503
μ	-11.1503
énico	-11.1504
▁interpretou	-11.1509
▁Secretario	-11.1509
▁protexido	-11.1509
▁igualdade	-11.1511
▁concluí	-11.1513
▁Brian	-11.1514
▁previo	-11.1515
▁destacou	-11.1516
ç	-11.152
▁intelectua	-11.1521
▁emigra	-11.1527
moto	-11.1529
▁Rosberg	-11.1532
▁buques	-11.1537
▁dispoñibles	-11.1542
▁Crónica	-11.1543
▁consulta	-11.1543
▁concede	-11.1544
▁Mateo	-11.1545
▁casado	-11.1546
▁narrativa	-11.1547
▁mama	-11.1548
▁usuario	-11.1549
▁Silva	-11.1552
▁pase	-11.1553
▁71	-11.1555
▁comercializa	-11.1557
▁Carlo	-11.1558
▁illada	-11.156
▁quedaba	-11.1561
quet	-11.1563
▁proxecta	-11.1564
▁cans	-11.1565
▁Soyuz	-11.1566
▁cristal	-11.1572
▁aéreo	-11.1577
▁agrícolas	-11.1581
ppe	-11.1581
▁fame	-11.1581
icidade	-11.1582
▁dentes	-11.1583
▁formaba	-11.1585
▁estudoso	-11.1587
▁nosos	-11.1587
▁aproba	-11.1587
▁IL	-11.1587
▁milenio	-11.1589
▁filial	-11.1589
▁marea	-11.159
ace	-11.1591
▁Kent	-11.1593
RS	-11.1594
▁Anos	-11.1594
rien	-11.1596
▁Tomé	-11.1599
▁intelixencia	-11.16
▁adicional	-11.16
▁tornou	-11.1602
▁Camb	-11.1602
▁minas	-11.1604
riga	-11.1608
▁teito	-11.1609
vou	-11.1612
▁emitir	-11.1613
▁1893	-11.1616
▁ko	-11.1617
▁vese	-11.1617
▁Walter	-11.1619
▁beneficio	-11.162
▁emigración	-11.1621
▁funcionar	-11.1621
▁prisioneiros	-11.1622
▁Ky	-11.1622
▁permitindo	-11.1623
▁votación	-11.1626
▁Lind	-11.1629
▁excluí	-11.1635
▁suízo	-11.1635
▁Economía	-11.1635
▁pesa	-11.1636
▁chave	-11.1637
▁estreada	-11.164
▁μ	-11.164
▁Clark	-11.164
▁Act	-11.164
▁producidos	-11.1642
▁canda	-11.1642
▁bico	-11.1643
▁bala	-11.1643
▁coñecen	-11.1644
cista	-11.1645
▁Monforte	-11.1646
▁Universal	-11.1646
▁lingüístico	-11.1646
▁vexetal	-11.1646
▁Arthur	-11.1646
▁Glo	-11.1647
▁trastornos	-11.1647
▁alimenta	-11.1648
▁instrución	-11.1651
proteína	-11.1652
▁torres	-11.1653
▁Jar	-11.1654
▁rece	-11.1656
-9	-11.1657
▁sucesiva	-11.1658
▁norteamericana	-11.1661
▁sexta	-11.167
▁Fraga	-11.167
▁Gonzal	-11.167
▁Curtis	-11.1671
▁orbital	-11.1671
▁art	-11.1672
▁Hugo	-11.1678
▁Caba	-11.1679
▁Vermello	-11.1681
▁liderou	-11.1681
▁Prado	-11.1682
▁volcánica	-11.1685
▁empregou	-11.1685
tamina	-11.1689
▁bens	-11.169
▁il	-11.1691
▁galardoado	-11.1692
▁neerlandés	-11.1692
▁Arm	-11.1693
▁Nico	-11.1695
▁industrias	-11.1696
▁Belas	-11.1699
▁esenciais	-11.17
▁precipitacións	-11.1701
neiro	-11.1702
æ	-11.1704
▁complexidade	-11.1704
▁equipamento	-11.1704
▁ocasionalmente	-11.1704
▁Oxford	-11.1704
bury	-11.1704
▁recoñeceu	-11.1705
iel	-11.1708
▁orixinaria	-11.1708
▁racional	-11.1709
▁River	-11.1709
β	-11.171
▁ofrecer	-11.1711
▁moleculares	-11.1712
gla	-11.1713
▁exitosa	-11.1715
▁Aparece	-11.1718
▁Rin	-11.1721
▁adicionais	-11.1727
▁designación	-11.1728
▁reina	-11.1732
▁promove	-11.1735
iki	-11.1735
TA	-11.1736
▁capta	-11.174
▁xigante	-11.1741
▁proporcionar	-11.1743
▁Gall	-11.1745
▁retirado	-11.1748
▁colesterol	-11.175
▁arquea	-11.1751
eau	-11.1751
▁Mosteiro	-11.1751
▁Principado	-11.1752
yama	-11.1756
▁xeracións	-11.1758
uña	-11.1761
▁Cambridge	-11.1762
▁húmida	-11.1762
▁plural	-11.1762
▁Abadín	-11.1762
▁capítulos	-11.1763
▁condensa	-11.1765
Ba	-11.1768
▁CA	-11.177
▁lesións	-11.1771
▁Beau	-11.1771
lico	-11.1771
▁intenso	-11.1774
élica	-11.1774
ori	-11.1774
▁segmentos	-11.1775
▁situ	-11.1777
▁1892	-11.1778
å	-11.1785
▁Cristina	-11.1785
▁constitucional	-11.1786
▁Marcos	-11.1788
▁precedente	-11.1792
▁cumpri	-11.1793
▁Cook	-11.1798
▁cedido	-11.1798
▁Ducado	-11.18
▁Monta	-11.1804
íc	-11.1805
▁Lucas	-11.1806
▁Fonsagrada	-11.1809
▁astrónomo	-11.1809
▁irre	-11.1811
▁conxuntos	-11.1814
enza	-11.1814
▁paciente	-11.1815
▁necesarios	-11.1815
tosa	-11.1816
▁orto	-11.1818
▁Film	-11.182
▁Kosovo	-11.182
▁ilegal	-11.182
▁definitivo	-11.182
▁Berg	-11.1821
▁Play	-11.1823
▁defensor	-11.1823
▁espec	-11.1824
▁relativo	-11.1824
▁1860	-11.1827
▁horizontal	-11.1829
▁xuntos	-11.183
ánica	-11.1831
▁educativo	-11.1832
▁Pontes	-11.1832
▁Cen	-11.1832
▁Raíña	-11.1835
▁medición	-11.1836
ceiro	-11.1838
▁deses	-11.1841
▁Castell	-11.1841
▁Amor	-11.1844
▁león	-11.1845
▁marrón	-11.1845
iri	-11.1846
tándose	-11.1846
▁visitar	-11.1847
gni	-11.1847
▁afirmación	-11.1852
▁andar	-11.1855
▁Fundou	-11.1855
▁Massachusetts	-11.1855
▁inmediato	-11.1856
▁nutrientes	-11.1856
▁Street	-11.1856
▁nomeou	-11.1858
▁tocou	-11.1859
▁vencedor	-11.1859
▁palma	-11.1861
gú	-11.1863
▁98	-11.1863
▁Come	-11.1866
▁Arca	-11.1866
▁facéndo	-11.1867
emos	-11.1868
▁aventuras	-11.1871
▁notas	-11.1872
▁levantamento	-11.1872
nell	-11.1873
▁CH	-11.1876
▁consideración	-11.1877
▁graxos	-11.1878
▁Química	-11.1879
▁predecesor	-11.1879
▁Hawai	-11.1879
inger	-11.1883
▁Islandia	-11.1885
▁corporal	-11.1887
▁99	-11.1889
eva	-11.1891
▁cilindro	-11.1891
▁Gañou	-11.1891
▁redacción	-11.1891
▁potencias	-11.1893
▁Web	-11.1894
▁complementa	-11.1896
▁sesenta	-11.1897
▁patróns	-11.1899
▁Jordan	-11.1903
vre	-11.1908
▁rodeada	-11.1912
▁diagnóstico	-11.1914
▁tropical	-11.1914
▁Carre	-11.1922
▁chu	-11.1925
▁incrementar	-11.1926
▁Rosalía	-11.1926
▁traducido	-11.1926
▁conter	-11.1927
▁científicas	-11.1929
▁fabrica	-11.1929
▁eleva	-11.193
▁historica	-11.1931
vais	-11.1932
▁relata	-11.1933
▁radicais	-11.1933
▁cadros	-11.1936
▁revisión	-11.1937
▁subespecies	-11.1937
▁armenio	-11.1938
▁operativo	-11.1938
▁fixéronse	-11.1938
▁cra	-11.1942
▁1881	-11.1943
▁abade	-11.1944
▁Ker	-11.1945
▁tenden	-11.1951
▁escolar	-11.1952
▁rito	-11.1956
hara	-11.1957
▁pedir	-11.1959
▁mete	-11.196
▁apoiado	-11.196
óxido	-11.1961
▁Territorio	-11.1962
▁Bernard	-11.1964
▁Top	-11.1967
▁encargou	-11.1968
cionista	-11.1969
▁trens	-11.1972
▁sodio	-11.1973
▁medievais	-11.1974
▁deficiencia	-11.1974
▁descobre	-11.1974
▁minuto	-11.1974
▁realizando	-11.1975
▁hectáreas	-11.1976
▁mostrar	-11.1978
▁Simón	-11.1979
cera	-11.198
uco	-11.1985
tula	-11.1988
▁custos	-11.1989
▁Kan	-11.1989
▁And	-11.1989
▁Bac	-11.1989
▁sacar	-11.199
gram	-11.199
▁folk	-11.1994
ólica	-11.1995
▁emitido	-11.1999
▁preocupa	-11.2001
▁Limia	-11.2005
▁cruzada	-11.2007
TV	-11.2007
▁estatuto	-11.201
▁longos	-11.201
▁pesada	-11.2011
▁Estación	-11.2011
▁difíciles	-11.2012
▁coral	-11.2012
socia	-11.2013
cup	-11.2015
▁acorda	-11.2016
▁atopada	-11.2018
▁constituíu	-11.202
▁Tá	-11.2021
▁xaponeses	-11.2021
▁fiscal	-11.2022
rola	-11.2022
▁construcións	-11.2025
▁vidro	-11.2028
▁asedio	-11.2028
▁diferenciación	-11.2032
▁vales	-11.2033
▁Baviera	-11.2033
▁Rexional	-11.2033
▁orzamento	-11.2033
▁Montreal	-11.2034
lato	-11.2038
▁profundas	-11.2043
▁Kor	-11.2044
▁Pública	-11.2045
▁bombardeo	-11.2045
▁catorce	-11.2045
▁tabaco	-11.2046
trans	-11.2046
▁Henri	-11.2047
▁drogas	-11.2047
▁Parte	-11.205
▁afastado	-11.2051
▁representaba	-11.2052
▁Canal	-11.2053
▁Kat	-11.2054
▁clan	-11.2056
▁Mississippi	-11.2057
▁Movemento	-11.2057
▁Miami	-11.2058
▁estivera	-11.2058
mata	-11.2059
▁raramente	-11.2064
▁elite	-11.2068
▁usaba	-11.2069
▁Atlanta	-11.2069
▁estranxeira	-11.2069
▁reputación	-11.2069
▁destruído	-11.2069
▁foro	-11.2072
▁face	-11.2073
▁Aero	-11.2074
▁glic	-11.208
▁románico	-11.2081
▁System	-11.2081
▁Metal	-11.2083
▁beiras	-11.2084
mie	-11.2085
▁rexistrada	-11.2085
▁Public	-11.2086
▁82	-11.2088
▁McC	-11.2089
▁históricas	-11.2091
▁compuxo	-11.2094
▁manteñen	-11.2099
into	-11.2105
▁orbita	-11.2105
▁Republicano	-11.2106
▁Stephen	-11.2106
▁exitoso	-11.2106
▁groso	-11.2107
▁visitantes	-11.2108
longa	-11.2109
fir	-11.2109
tempo	-11.211
▁trasladar	-11.2112
▁achegar	-11.2117
▁Dublín	-11.2118
Pa	-11.2118
▁piñeiro	-11.2119
▁pir	-11.2123
ejo	-11.2126
▁competiu	-11.2128
▁Habsburgo	-11.213
▁Rou	-11.2132
▁One	-11.2133
▁pertencía	-11.2134
▁Coma	-11.2138
▁Alejandro	-11.2142
▁Douglas	-11.2142
▁Católico	-11.2142
▁Champ	-11.2142
▁derrotar	-11.2144
▁particulares	-11.2146
▁Brand	-11.2147
▁articulación	-11.2148
cant	-11.215
▁Leo	-11.2151
▁camiños	-11.2153
neses	-11.2157
olóxicas	-11.2157
xeira	-11.2157
▁escanos	-11.2157
▁prohibición	-11.2158
▁Benito	-11.2159
▁microorganismos	-11.216
▁Colón	-11.2161
vora	-11.2162
▁tentou	-11.2163
▁rebeldes	-11.2166
▁taller	-11.2168
▁Mansell	-11.2171
▁Jon	-11.2174
▁clínica	-11.2178
▁tesouro	-11.2178
▁poetas	-11.2179
-7	-11.2179
▁avanzada	-11.2181
▁publicidade	-11.2182
▁vellos	-11.2186
sérvanse	-11.2187
▁trátase	-11.219
▁invasor	-11.2191
nucle	-11.2191
▁Esco	-11.2194
▁incon	-11.2195
▁básicos	-11.2198
▁Sacro	-11.2199
▁Lev	-11.2202
▁interpretada	-11.2202
▁Football	-11.2202
▁Tenerife	-11.2202
▁controlada	-11.2205
▁cul	-11.2207
▁noticia	-11.2213
▁ira	-11.2213
▁exploración	-11.2214
liga	-11.2214
−	-11.2215
▁peito	-11.2215
▁Sarria	-11.2215
metría	-11.2217
▁parecer	-11.2217
▁Good	-11.2218
▁Song	-11.222
▁Campións	-11.2223
▁canal	-11.2226
▁nacer	-11.2227
▁Eleccións	-11.2227
▁adolescente	-11.2227
▁túnel	-11.2227
▁Volveu	-11.2227
here	-11.2227
▁asesor	-11.2232
gula	-11.2237
▁antíxeno	-11.2238
▁Primo	-11.2238
▁Virxinia	-11.2239
▁cápsula	-11.2239
▁ortodoxa	-11.2239
▁Arco	-11.224
▁1887	-11.2244
▁francesas	-11.2251
▁catedrático	-11.2251
▁rapaza	-11.2252
▁Base	-11.2254
▁consolida	-11.2255
lema	-11.2256
▁Traba	-11.2256
▁Estiv	-11.2257
cosa	-11.226
▁mosca	-11.226
lama	-11.226
▁Nie	-11.2261
▁socialistas	-11.2265
yan	-11.2266
▁intermedia	-11.2267
▁Hart	-11.2269
▁Center	-11.227
dino	-11.2272
▁Herman	-11.2272
▁puro	-11.2272
mén	-11.2273
▁Souto	-11.2275
▁servidor	-11.2275
▁crocodilo	-11.2276
▁enxeñaría	-11.2276
▁correo	-11.2276
▁elixir	-11.2279
▁salienta	-11.2279
▁1894	-11.228
▁Xefe	-11.2281
▁1848	-11.2281
▁oficio	-11.2281
▁relevancia	-11.2288
▁Manchester	-11.2289
▁transcorre	-11.229
▁contratado	-11.229
▁patente	-11.2293
▁combinado	-11.2294
▁Alén	-11.2299
▁Mallorca	-11.23
▁intérprete	-11.23
▁activista	-11.23
▁Británico	-11.23
▁cunca	-11.23
▁77	-11.2301
▁contorno	-11.2301
rick	-11.2302
▁Ren	-11.2304
▁correspondentes	-11.2304
▁Post	-11.2304
▁lendas	-11.2305
▁executa	-11.2305
▁1883	-11.2305
RI	-11.2309
▁Dre	-11.231
▁Licenciado	-11.2311
▁reservas	-11.2317
chos	-11.2317
▁adición	-11.2318
▁carecen	-11.2319
ísimo	-11.2324
в	-11.2325
▁Exemplo	-11.2325
▁intermedio	-11.2325
▁medicamento	-11.2325
▁granito	-11.2331
▁Fle	-11.2331
bú	-11.2334
▁Até	-11.2336
mentación	-11.2336
▁cataloga	-11.2338
▁segredo	-11.2338
▁curtos	-11.234
▁69	-11.2341
▁remonta	-11.2343
▁exteriores	-11.2344
▁decidi	-11.2347
▁enfoque	-11.235
▁Irán	-11.2351
▁xeografía	-11.2352
▁vale	-11.2355
▁Pont	-11.2358
▁UE	-11.2359
CO	-11.2359
pré	-11.236
▁Davis	-11.236
íta	-11.2361
▁informou	-11.2362
▁causado	-11.2363
poñía	-11.2364
▁Corn	-11.2364
▁voa	-11.2364
cadencia	-11.2364
▁Berna	-11.2367
▁constituír	-11.237
flu	-11.2371
▁Deportiva	-11.2374
▁Sebastián	-11.2374
▁oxidación	-11.2375
▁pecha	-11.2384
▁xulgado	-11.2385
▁DC	-11.2386
▁alimentar	-11.2388
mira	-11.2388
yu	-11.2389
▁solares	-11.239
tona	-11.239
áronlle	-11.2393
▁determinados	-11.2394
▁asinado	-11.2395
tila	-11.2399
▁Dá	-11.2404
▁rotura	-11.2407
▁pintores	-11.2409
▁Tralo	-11.2411
▁terremoto	-11.2412
▁Aethel	-11.2412
▁rurais	-11.2413
▁oculta	-11.2413
ixi	-11.2421
▁Irmandade	-11.2424
▁innovación	-11.2424
▁voar	-11.2425
▁granxa	-11.2425
▁Mans	-11.2427
▁concelleiros	-11.2427
▁Fox	-11.243
▁nutri	-11.243
▁illamento	-11.2433
▁Rub	-11.2435
óuselle	-11.2438
▁tipicament	-11.2439
liano	-11.244
▁Ulla	-11.2441
▁ricos	-11.2442
▁mandou	-11.2444
▁Berger	-11.2446
▁metil	-11.2448
▁Free	-11.245
▁perfil	-11.245
▁Pun	-11.245
▁Andrew	-11.2451
riu	-11.2459
▁Steve	-11.2461
▁adxacente	-11.2461
▁restaurante	-11.2461
▁Nelson	-11.2462
▁estivese	-11.2462
▁Calvo	-11.2462
tual	-11.2463
▁92	-11.2463
▁contidos	-11.2471
oidea	-11.2473
υ	-11.2474
▁adhesión	-11.2474
▁curtametraxe	-11.2474
▁parámetro	-11.2474
riedade	-11.2474
▁quilo	-11.2475
▁hip	-11.2476
ómetro	-11.2476
▁rexistrado	-11.2477
▁concreta	-11.2478
▁sar	-11.2479
▁Mancha	-11.2482
▁largo	-11.2482
▁Pur	-11.2484
▁Deputado	-11.2486
▁dicindo	-11.2487
▁patíns	-11.2487
▁Julio	-11.2489
▁trama	-11.249
▁recorre	-11.2491
iría	-11.2493
▁vaga	-11.2496
▁porco	-11.2496
▁aceptado	-11.2496
▁encóntran	-11.2499
▁General	-11.25
▁asumir	-11.2501
▁variar	-11.2501
▁dé	-11.2504
000	-11.2506
ásico	-11.2507
▁tarda	-11.2508
▁Festa	-11.2509
ene	-11.2509
ob	-11.251
tilla	-11.2511
▁Wagner	-11.2511
▁adulta	-11.2512
▁Ohio	-11.2513
▁aparente	-11.2515
▁Tara	-11.2515
▁Alan	-11.2517
▁Liberal	-11.2518
▁Band	-11.2518
▁axencia	-11.2519
▁Ever	-11.252
▁corresponden	-11.252
▁modificado	-11.2521
▁France	-11.2521
▁ambientais	-11.2524
▁sublevación	-11.2524
▁sueca	-11.2524
ör	-11.2524
▁Sancho	-11.2526
▁trataba	-11.2528
▁anaco	-11.2531
▁Baía	-11.2536
▁Tradicional	-11.2537
▁axeitada	-11.2537
▁mexicano	-11.2537
clus	-11.2539
▁fraga	-11.2539
▁73	-11.2539
stad	-11.254
▁Narón	-11.2541
▁Arg	-11.2541
▁ETA	-11.2544
▁asunto	-11.2548
▁cátedra	-11.2549
▁Concilio	-11.2549
▁atrapa	-11.2551
▁Life	-11.2552
rim	-11.2554
▁Apolo	-11.2554
▁toxina	-11.256
▁solos	-11.2561
▁promociona	-11.2563
▁Vía	-11.2564
mido	-11.2564
▁Alexandría	-11.2564
▁Fai	-11.2566
▁realizaron	-11.2567
▁compoñen	-11.2567
▁qua	-11.2567
▁1876	-11.2567
▁animado	-11.2569
▁Georg	-11.2571
▁inmunitario	-11.2574
▁lévedo	-11.2574
▁metálico	-11.2575
▁visitou	-11.2575
▁oitenta	-11.2575
▁verba	-11.2575
▁remónta	-11.2575
dita	-11.2576
▁convoca	-11.2577
misión	-11.2577
▁contan	-11.258
▁galo	-11.258
▁falado	-11.2581
▁videoxogos	-11.2583
▁linear	-11.2584
▁encargada	-11.2584
▁automóbil	-11.2584
▁cantar	-11.2586
▁arqueolóxicos	-11.2587
▁Padrón	-11.2587
▁comprender	-11.2591
NC	-11.2592
▁74	-11.2593
AA	-11.2594
▁intra	-11.2596
gráfico	-11.2596
íl	-11.2597
tier	-11.2597
zio	-11.2597
▁colonización	-11.2597
▁circ	-11.2598
▁cin	-11.2599
▁eclesiástica	-11.26
▁melodía	-11.26
▁longobardo	-11.26
▁atleta	-11.26
ífico	-11.2601
▁emitiu	-11.2601
▁Hawk	-11.2601
▁Piquet	-11.2602
▁inhibi	-11.2602
▁afectan	-11.2604
▁correspondencia	-11.2604
▁condutor	-11.2607
▁elaborado	-11.2608
AF	-11.2609
▁falsa	-11.261
▁cadeira	-11.261
▁Rus	-11.2615
▁abandonado	-11.2615
▁lenta	-11.2622
▁logro	-11.2623
▁Petersburgo	-11.2625
▁Samuel	-11.2625
▁prosa	-11.2625
▁difire	-11.2628
▁Lang	-11.2629
ane	-11.263
▁antigamente	-11.2632
▁moluscos	-11.2635
▁mencionada	-11.2636
▁Guitiriz	-11.2638
▁Rodrigo	-11.2638
▁Matt	-11.2642
▁saque	-11.2644
▁Arma	-11.2645
rium	-11.2647
aka	-11.2649
▁catálogo	-11.2651
▁Allariz	-11.2651
▁Doutor	-11.2651
▁refer	-11.2651
▁Kon	-11.2651
▁Lakers	-11.2651
▁secreto	-11.2653
▁proc	-11.2654
▁defecto	-11.2654
▁Jr	-11.2654
▁Andrea	-11.2655
▁Night	-11.2658
▁Pasou	-11.266
▁sábado	-11.2663
▁escama	-11.2664
▁aproxima	-11.2666
▁Gol	-11.2668
nita	-11.2672
ízase	-11.2672
▁marítimo	-11.2676
▁distribuída	-11.2676
▁escoita	-11.2677
▁Colonia	-11.2678
▁causan	-11.2679
▁paseo	-11.2684
▁color	-11.2687
▁africana	-11.2689
▁Bruxelas	-11.2689
▁cadáver	-11.2689
▁ingrediente	-11.2689
▁traseira	-11.2691
▁extracción	-11.2691
▁ferramenta	-11.2693
▁dispositivo	-11.2693
▁hábito	-11.2702
▁módulo	-11.2702
▁teclado	-11.2702
▁situar	-11.2703
▁interpretado	-11.2704
▁78	-11.2706
PSOE	-11.2712
▁británicas	-11.2714
▁cúpula	-11.2714
▁marítima	-11.2714
▁electricidade	-11.2715
ámico	-11.2715
▁Baiona	-11.2717
▁aldeas	-11.2718
▁vítima	-11.272
▁Ple	-11.2722
▁estimada	-11.2723
org	-11.2726
▁Sue	-11.2726
▁laranxa	-11.2727
▁testemuño	-11.2727
▁conforme	-11.2728
▁Bé	-11.2729
▁pobreza	-11.273
▁afeccionados	-11.2735
▁equivale	-11.2736
▁datan	-11.2738
tábel	-11.274
市	-11.274
▁construíuse	-11.274
▁obreira	-11.2741
▁dispara	-11.2742
PA	-11.2745
nec	-11.2746
▁indo	-11.275
tén	-11.2752
▁Motor	-11.2752
▁causando	-11.2752
▁Escribiu	-11.2753
▁delegación	-11.2754
▁contaminación	-11.2755
▁utilizadas	-11.2757
▁Imp	-11.2758
▁infra	-11.2759
▁desenvolveron	-11.2761
▁Abegondo	-11.2766
▁diplomático	-11.2766
▁Aérea	-11.2766
▁Alacant	-11.2766
▁conxuga	-11.2768
▁atopáron	-11.277
▁procesado	-11.2774
▁Mura	-11.2775
▁81	-11.2775
▁rapaz	-11.2778
ş	-11.2779
▁diálogo	-11.2779
Cesuras	-11.2779
▁preparado	-11.2782
mante	-11.2786
▁vea	-11.2788
▁crustáceos	-11.2792
▁lexislación	-11.2792
▁eficiente	-11.2792
▁Mate	-11.2793
▁provi	-11.2793
head	-11.2793
beira	-11.2795
▁Sul	-11.2797
▁temperá	-11.28
▁conservada	-11.2801
▁Tony	-11.2804
▁téxtil	-11.2804
▁conduta	-11.2805
▁enriba	-11.2806
hem	-11.2809
▁pasaba	-11.2811
▁ateniense	-11.2817
▁Linux	-11.2817
▁disparo	-11.2819
▁empate	-11.2819
▁turista	-11.2824
▁consagra	-11.2825
▁convertería	-11.2826
▁manchas	-11.2827
▁multiplica	-11.283
▁simplifica	-11.283
▁repertorio	-11.283
nega	-11.283
ñen	-11.2831
▁Ferreiro	-11.2831
▁vasca	-11.2832
▁seo	-11.2832
▁Agora	-11.2833
ball	-11.2833
pou	-11.2834
▁Constru	-11.2835
▁Pereira	-11.2835
▁abundantes	-11.2835
▁utilízan	-11.2835
▁embarcación	-11.2836
▁tartarugas	-11.2839
esti	-11.2842
▁Nalgunha	-11.2843
▁Banda	-11.2844
▁Branca	-11.2846
▁Aquí	-11.2849
▁setenta	-11.2854
▁contemporáneos	-11.2856
▁Prim	-11.2856
▁voluntario	-11.2856
▁suxeriu	-11.2856
▁coida	-11.2859
▁probar	-11.286
▁Gold	-11.2861
▁cruzar	-11.2861
▁penal	-11.2862
▁00	-11.2863
▁Len	-11.2867
▁escava	-11.2867
▁salvar	-11.2869
▁Supremo	-11.2869
▁mundiais	-11.2869
▁universitaria	-11.2869
▁ignora	-11.287
▁FIA	-11.287
dencia	-11.287
▁faría	-11.2875
▁resp	-11.2876
▁Varia	-11.2878
▁gráfica	-11.288
▁period	-11.2881
▁esixi	-11.2882
▁químicas	-11.2882
▁Lourenzo	-11.2882
▁traducida	-11.2882
thy	-11.2885
ović	-11.2885
▁exposta	-11.2886
▁Comeza	-11.2887
▁contempla	-11.2895
▁paquete	-11.2895
▁derrotou	-11.2896
▁acumulación	-11.2896
▁predomina	-11.2898
▁cantón	-11.2901
bondo	-11.2903
▁centímetros	-11.2908
▁mandíbula	-11.2908
▁Holanda	-11.2909
ceda	-11.2911
terminal	-11.2913
▁realizouse	-11.2916
▁dáse	-11.2919
ī	-11.2922
▁gre	-11.2922
▁cadrado	-11.2923
▁1871	-11.2926
tónico	-11.2927
▁Rich	-11.2929
▁Cat	-11.2929
▁vaso	-11.2933
▁sustenta	-11.2935
▁Palestina	-11.2935
▁colectiva	-11.2935
▁atentado	-11.2936
ómero	-11.2937
▁Young	-11.2938
▁versos	-11.2939
▁correr	-11.2942
▁Tou	-11.2944
▁gale	-11.2945
▁Giovanni	-11.2948
órico	-11.2948
▁computador	-11.2948
▁galaxias	-11.2948
▁fiestra	-11.2949
▁vesículas	-11.2951
quita	-11.2954
▁demostración	-11.2955
▁Josep	-11.2956
▁Dom	-11.2959
▁autoestrada	-11.2961
▁conquistou	-11.2961
▁vocal	-11.2961
▁escaleira	-11.2961
▁ensinanza	-11.2961
▁foco	-11.2962
▁obtiver	-11.2962
▁Kara	-11.2965
▁negras	-11.2966
▁esquece	-11.2967
queiro	-11.2967
▁xerado	-11.297
▁Ec	-11.2971
▁ultra	-11.2973
▁test	-11.2973
teria	-11.2973
ά	-11.2974
▁ruptura	-11.2974
▁vixente	-11.2974
▁Quinta	-11.2977
▁adoptar	-11.298
érase	-11.2981
▁poderosa	-11.2983
▁1830	-11.2983
▁afasta	-11.2985
habilit	-11.2986
▁Kiev	-11.2989
▁orgánicos	-11.2993
▁romance	-11.2994
▁Dado	-11.2997
у	-11.3
▁inflamación	-11.3
▁ilustra	-11.3001
▁preferencia	-11.3002
▁1879	-11.3005
▁88	-11.3006
▁instala	-11.3009
▁aguda	-11.3009
deiros	-11.301
▁-3	-11.3012
▁altar	-11.3013
▁bloquea	-11.3013
flex	-11.3013
▁lexislatura	-11.3013
▁mediterránea	-11.3013
▁fracasa	-11.3014
▁ligazón	-11.3016
▁axusta	-11.3018
▁básico	-11.3019
gia	-11.3022
▁Ji	-11.3023
▁Pío	-11.3023
▁conservador	-11.3025
▁canon	-11.3025
▁violenta	-11.3027
meiro	-11.3029
▁coroado	-11.303
NE	-11.303
▁crearon	-11.3032
▁voda	-11.3038
cino	-11.3038
▁Cine	-11.3042
▁exposto	-11.3044
▁confusión	-11.3046
▁veciño	-11.3046
▁dianteira	-11.3051
▁fix	-11.3052
▁Volta	-11.3054
▁percepción	-11.3054
▁fundouse	-11.3061
TP	-11.3063
▁nacionalistas	-11.3066
▁Guipúscoa	-11.3066
▁simboliza	-11.3066
▁axeitado	-11.3067
▁abandono	-11.3068
▁ocupando	-11.307
▁colaborador	-11.3073
▁Indiana	-11.3074
▁constrúe	-11.308
▁edificación	-11.308
▁galés	-11.3081
▁lipo	-11.3084
▁desaparecer	-11.3087
▁caracterizado	-11.3088
▁Buck	-11.3088
TS	-11.3089
▁protestas	-11.3092
▁Valdeorras	-11.3093
▁triángulo	-11.3093
▁ámbolos	-11.3093
▁sentenza	-11.3093
▁rab	-11.3095
▁tortura	-11.3097
▁lema	-11.3098
▁FA	-11.31
▁79	-11.31
▁Leon	-11.3101
▁completou	-11.3102
▁colaborar	-11.3106
▁arquitectónico	-11.3106
▁tóxico	-11.3106
▁rapaces	-11.3106
centos	-11.3107
▁Carra	-11.3107
▁pú	-11.3107
▁marchar	-11.3109
▁expresar	-11.3114
▁dispositivos	-11.3115
▁solucións	-11.3116
▁Pico	-11.3117
▁conducir	-11.3118
anti	-11.3119
▁proveniente	-11.312
▁previsto	-11.312
▁islam	-11.312
▁flota	-11.3121
▁limpa	-11.3128
▁Están	-11.313
▁film	-11.3133
▁nocturno	-11.3133
▁moderado	-11.3133
▁Vilanova	-11.3135
ntais	-11.3137
▁dedicou	-11.3142
▁Catro	-11.3145
▁especialidade	-11.3146
▁Aristóteles	-11.3146
▁abertura	-11.3147
▁experimento	-11.3156
▁terrorista	-11.3158
▁Hay	-11.3159
▁Houb	-11.3159
▁diminuír	-11.316
▁esqueleto	-11.316
▁galardón	-11.316
▁morfoloxía	-11.316
▁declive	-11.316
▁ergue	-11.3163
▁Delta	-11.3166
▁cari	-11.3173
▁consciente	-11.3175
▁baño	-11.3175
▁tormenta	-11.3175
▁coordina	-11.3182
▁Vas	-11.3185
▁segmento	-11.3185
▁célebre	-11.3187
▁instancia	-11.3187
▁plástico	-11.3187
▁camiña	-11.3187
▁vinculado	-11.3187
▁Barbanza	-11.3188
▁chamarse	-11.3188
▁Honda	-11.3189
▁aprobada	-11.3192
gü	-11.3194
▁convertido	-11.3196
ísmo	-11.3198
▁Circ	-11.3198
▁denominou	-11.3199
▁University	-11.32
▁Somoza	-11.32
▁dezaseis	-11.32
▁gramo	-11.32
▁infante	-11.3202
▁By	-11.3204
scribindo	-11.3207
▁Lé	-11.3207
▁traslado	-11.3208
trina	-11.3209
▁feble	-11.3209
▁rexe	-11.3211
▁modificada	-11.3212
▁Lituania	-11.3214
▁pulmonar	-11.3214
▁Sofía	-11.3214
▁léva	-11.3214
▁patrocinio	-11.3215
▁pique	-11.3217
▁rouba	-11.3217
▁interesa	-11.3217
glia	-11.3218
▁viron	-11.3222
▁Kir	-11.3224
idina	-11.3225
▁Hip	-11.3226
▁siglas	-11.3227
▁Fala	-11.3228
▁introducida	-11.3229
▁ACB	-11.3231
▁desastre	-11.3231
▁estruturais	-11.3239
▁Tel	-11.324
▁recibía	-11.324
▁asasino	-11.3241
▁examina	-11.3244
▁adicado	-11.3246
▁teoloxía	-11.3247
▁quixo	-11.3249
▁chegaría	-11.3251
▁proposto	-11.3258
▁1873	-11.3258
▁84	-11.3259
▁1865	-11.326
▁administrador	-11.326
▁deseñador	-11.3263
▁niños	-11.3267
▁habitación	-11.3267
▁burato	-11.327
zá	-11.3272
TR	-11.3272
punt	-11.3272
▁ligando	-11.3274
▁sentir	-11.3274
▁agocha	-11.3276
▁limitación	-11.3278
м	-11.3281
▁revolucionaria	-11.3281
▁prototipo	-11.3282
▁dependen	-11.3283
▁Mercia	-11.3287
mura	-11.3288
▁meso	-11.329
▁Recente	-11.3294
dale	-11.3294
▁venceu	-11.3295
▁Bieito	-11.3295
▁reúne	-11.3296
▁Bandeira	-11.3298
▁trazo	-11.3303
▁Kin	-11.3307
▁roman	-11.3307
▁engadiu	-11.3308
▁tradutor	-11.3308
▁triunfa	-11.3308
▁retorna	-11.3309
▁Down	-11.331
tér	-11.3311
quista	-11.3315
▁autora	-11.332
▁Leonardo	-11.3322
▁2.000	-11.3322
▁parlamentario	-11.3323
▁esto	-11.3323
▁paxaros	-11.3328
mental	-11.3329
▁clientes	-11.3332
▁desas	-11.3333
▁sú	-11.3334
▁Wilhelm	-11.3335
▁fortificación	-11.3336
▁doazón	-11.3337
ologi	-11.3339
▁Barra	-11.3339
mene	-11.3339
▁soporta	-11.334
▁cotiá	-11.3342
▁pala	-11.3343
▁Cle	-11.3344
SP	-11.3349
▁madurez	-11.3349
▁NHL	-11.3349
ctúan	-11.335
▁Desc	-11.3352
▁cordas	-11.3353
▁romper	-11.3353
▁Phil	-11.3355
▁rodas	-11.3355
▁Interior	-11.3355
hua	-11.3356
▁resta	-11.3358
▁territoriais	-11.3363
▁arbusto	-11.3363
▁convencional	-11.3363
▁xofre	-11.3363
▁Xulio	-11.3365
▁avances	-11.3366
▁fármaco	-11.3369
timo	-11.3369
osoma	-11.3372
▁transmitir	-11.3377
▁cable	-11.3382
▁sales	-11.3382
▁Hot	-11.3382
▁ósea	-11.3384
▁aproximación	-11.3386
▁Lauda	-11.3389
iforme	-11.339
▁observou	-11.339
▁referendo	-11.339
▁engadido	-11.339
▁eficaz	-11.339
▁asistiu	-11.339
▁François	-11.3395
▁obtida	-11.3396
▁luxo	-11.3403
▁Taboada	-11.3404
▁compostelá	-11.3404
▁reuniu	-11.3404
itado	-11.3409
▁Xogaba	-11.3412
▁rexente	-11.3414
▁Lie	-11.3414
▁aprobado	-11.3415
▁gro	-11.3416
▁israelí	-11.3418
▁Detroit	-11.3418
▁producía	-11.3418
▁coloración	-11.342
▁rexeitamento	-11.3423
▁puntuación	-11.3425
▁anula	-11.3426
▁funcionan	-11.3428
▁Latina	-11.3428
sérvase	-11.343
▁Mid	-11.3431
д	-11.3431
▁Económica	-11.3431
▁extracelular	-11.3432
▁Wilson	-11.3432
▁veleno	-11.3432
bie	-11.3433
▁Brig	-11.3433
▁Í	-11.3434
▁ambiental	-11.3445
▁arrecife	-11.3445
▁diminúe	-11.3445
▁Nacionalista	-11.3446
▁Petr	-11.3447
▁narración	-11.3448
▁cubrir	-11.3451
carp	-11.3451
▁Escri	-11.3455
▁tiburón	-11.3459
▁espectacular	-11.3459
▁representou	-11.3459
▁Boa	-11.3468
▁presentada	-11.3468
metil	-11.3469
▁Pic	-11.3472
zza	-11.3472
▁apoiou	-11.3473
▁dirixi	-11.3473
▁sinfonía	-11.3473
mine	-11.3473
mara	-11.3478
▁decidir	-11.3478
▁inser	-11.3481
▁musulmá	-11.3485
▁sofren	-11.3485
▁Decreto	-11.3487
▁Isaac	-11.3489
▁tributo	-11.3489
▁cooperación	-11.3491
▁turbo	-11.3495
▁manifestación	-11.3498
▁gravita	-11.3501
▁filamentos	-11.3501
▁rub	-11.3501
▁componse	-11.3501
▁Faro	-11.3505
▁biografía	-11.3506
▁1878	-11.3506
▁Out	-11.3506
icul	-11.3506
▁profesores	-11.3508
▁tap	-11.3509
cación	-11.3509
▁Muros	-11.3512
▁salta	-11.3514
▁réptiles	-11.3514
house	-11.3515
▁fracción	-11.3516
dula	-11.3518
▁aleta	-11.3519
▁-4	-11.3525
▁Iraq	-11.3526
▁proxección	-11.3528
flor	-11.353
▁após	-11.3531
pie	-11.3531
▁xesto	-11.3533
fusión	-11.3533
gano	-11.3534
▁atopado	-11.3536
▁Sky	-11.3539
▁ofensiva	-11.3542
▁acrónimo	-11.3542
▁citoplasma	-11.3542
▁Salnés	-11.3545
▁conferencias	-11.3545
▁Nicola	-11.3545
vó	-11.3546
▁favorito	-11.3547
▁adianta	-11.3548
▁correcta	-11.355
▁xogan	-11.3554
ming	-11.3555
ω	-11.3556
▁Proxecto	-11.3556
▁reflexión	-11.3556
▁sostén	-11.3557
NP	-11.3558
máticos	-11.3558
▁choque	-11.3559
▁fabricado	-11.356
▁perdido	-11.356
puxeron	-11.3561
▁integrantes	-11.3562
▁fund	-11.3567
chase	-11.3567
▁desaparecido	-11.357
▁Little	-11.3571
▁Galia	-11.3572
▁caracterizada	-11.3573
▁hor	-11.3574
▁ciclista	-11.3578
stone	-11.3581
▁cedeu	-11.3582
▁arqueolóxica	-11.3584
▁complemento	-11.3584
▁emitida	-11.3584
▁Mega	-11.3586
cionou	-11.3588
▁86	-11.3589
▁Cristovo	-11.3589
▁refuxi	-11.3598
puxo	-11.3598
▁pirámide	-11.3598
▁visigodo	-11.3598
▁fieis	-11.3598
▁dimensión	-11.3599
▁interiores	-11.3602
▁mina	-11.3604
zia	-11.3604
chel	-11.3606
▁haxa	-11.361
▁Minnesota	-11.3612
▁Tarragona	-11.3612
▁viúva	-11.3612
▁Subtitulad	-11.3612
▁suprimi	-11.3612
▁integral	-11.3613
▁acetil	-11.3615
▁tentativa	-11.362
▁Gai	-11.3623
▁Taylor	-11.3626
▁mergulla	-11.3626
▁incom	-11.3629
▁fabricar	-11.363
▁Homo	-11.3634
íno	-11.3635
ço	-11.3639
▁discorre	-11.364
▁interacciona	-11.364
▁conduciu	-11.364
ovich	-11.3641
▁5.000	-11.3644
▁Live	-11.3644
▁oposta	-11.3646
▁VIH	-11.3647
▁gri	-11.3648
ensa	-11.3648
mund	-11.3649
▁priva	-11.3651
xado	-11.3654
▁criatura	-11.3654
▁renovación	-11.3654
▁subir	-11.3655
▁Carta	-11.3656
▁Ain	-11.3657
▁pensaba	-11.3659
▁Anton	-11.3663
▁Marcel	-11.3666
MI	-11.3668
▁Ignacio	-11.3668
▁céntra	-11.3668
▁orixinou	-11.3668
▁recombinación	-11.3668
▁Cómpre	-11.3668
▁señorío	-11.3669
▁detección	-11.367
phe	-11.3672
▁facción	-11.3673
▁glico	-11.3675
▁necesariamente	-11.3679
▁cego	-11.3682
▁brasileira	-11.3682
▁comisario	-11.3682
▁Thr	-11.3683
▁rivais	-11.3683
▁Group	-11.3683
▁chasis	-11.3684
ciente	-11.3684
▁legado	-11.3688
▁Reich	-11.369
SI	-11.3694
▁cerebral	-11.3696
▁estómago	-11.3696
▁republicana	-11.3696
▁algoritmo	-11.3696
▁BBC	-11.3696
mma	-11.3696
cola	-11.3697
▁dinam	-11.3699
▁Membro	-11.37
▁CNT	-11.3701
▁Steven	-11.3706
▁Flam	-11.3707
▁estableceron	-11.3707
▁Demo	-11.371
▁apareamento	-11.3711
▁falecemento	-11.3714
▁materna	-11.3714
▁1.0	-11.372
RO	-11.3724
▁adquisición	-11.3725
▁checo	-11.3725
▁invención	-11.3725
▁Viveiro	-11.3726
▁Water	-11.3727
▁fito	-11.3729
▁misa	-11.3733
▁oración	-11.3736
▁sospeita	-11.3739
▁ONU	-11.3739
▁Moore	-11.374
▁analiza	-11.3744
▁Traballo	-11.3747
▁adoptada	-11.3748
▁Kong	-11.3749
▁comprensión	-11.3753
▁considéran	-11.3753
▁formaban	-11.3755
▁xurado	-11.3756
▁1882	-11.3758
▁1872	-11.3758
▁salientable	-11.3762
poñen	-11.3766
▁mutua	-11.3766
▁Estocolmo	-11.3767
▁adecuada	-11.3767
▁térmica	-11.3767
▁reforzo	-11.3767
▁homólogo	-11.3768
▁Filoloxía	-11.3768
▁antrop	-11.3768
▁Corpo	-11.3769
▁gramática	-11.3769
ículo	-11.3773
▁PA	-11.3775
▁pene	-11.3775
▁acusación	-11.3779
▁Xen	-11.3782
▁FIFA	-11.3782
▁búlgaro	-11.3782
▁asturiano	-11.3782
▁Xaneiro	-11.3783
▁padece	-11.3783
tiv	-11.3783
inus	-11.3785
▁Casi	-11.3786
▁Allen	-11.3789
AL	-11.3789
▁Nord	-11.379
▁chegaba	-11.3791
▁vascular	-11.3793
▁centrocampista	-11.3796
▁fortuna	-11.3796
▁recollido	-11.3796
▁Palencia	-11.3798
▁DS	-11.3805
▁alza	-11.3806
▁ocorrer	-11.3806
▁realista	-11.3807
▁requiren	-11.3808
▁clasificou	-11.381
▁Soto	-11.3814
▁recrea	-11.3816
ulfo	-11.382
▁acompañada	-11.3821
▁instalar	-11.3822
▁Kim	-11.3823
▁1850	-11.3824
▁aluminio	-11.3824
▁Seoane	-11.3824
▁manobra	-11.3824
▁cumpre	-11.3826
▁ilustrado	-11.3828
▁brando	-11.3829
▁aletas	-11.383
▁recita	-11.3834
▁clasificada	-11.3835
▁160	-11.3838
▁Prata	-11.3838
etti	-11.3839
lien	-11.3839
▁crista	-11.3842
zzi	-11.3843
5.000	-11.3845
▁Bene	-11.3847
▁110	-11.3849
gie	-11.3852
▁Hispania	-11.3853
▁Saturno	-11.3853
▁froitas	-11.3855
▁correcto	-11.3857
▁fío	-11.3858
▁conxela	-11.3858
▁estudado	-11.386
▁mares	-11.3861
▁adoptado	-11.3862
▁usarse	-11.3862
▁levaban	-11.3865
▁ocupaba	-11.3866
▁disputado	-11.3867
▁Medalla	-11.3868
▁convence	-11.3869
▁conquistar	-11.387
▁circun	-11.3871
▁ficou	-11.3871
▁sucesos	-11.3875
▁permitiron	-11.3878
pañ	-11.3879
▁responsabilidad	-11.3882
▁Athletic	-11.3882
▁Vaticano	-11.3882
▁espécime	-11.3882
▁tardío	-11.3882
▁conforman	-11.3882
▁hotel	-11.3883
▁Montaña	-11.3885
▁malo	-11.3885
▁bebe	-11.3888
▁Patrick	-11.3897
chado	-11.3898
▁Fire	-11.3898
▁monxes	-11.39
▁adicada	-11.3901
▁atopados	-11.3904
▁ilustración	-11.3905
crom	-11.3907
core	-11.3908
▁mediterráneo	-11.3911
▁exiliado	-11.3911
▁millas	-11.3912
▁1861	-11.3915
mple	-11.392
▁varia	-11.3921
▁tin	-11.3925
villa	-11.3926
▁Vida	-11.3926
▁medula	-11.3926
vela	-11.3928
▁barba	-11.3929
▁paixón	-11.3931
▁engade	-11.3936
▁edita	-11.3937
▁móbiles	-11.3939
▁botánico	-11.394
▁suxeita	-11.394
riana	-11.394
▁residi	-11.394
▁subespecie	-11.3941
▁terror	-11.3941
▁ostenta	-11.3941
▁óxido	-11.3942
▁liberar	-11.3943
ý	-11.3954
▁cordilleira	-11.3954
▁antíxenos	-11.3956
▁gusta	-11.396
▁Luci	-11.3961
▁recoller	-11.3961
▁milita	-11.3963
ule	-11.3964
▁calcula	-11.3965
▁1840	-11.3966
activa	-11.3968
▁guerrilleiro	-11.3969
▁violín	-11.3969
▁coronel	-11.3969
▁citada	-11.3971
▁gama	-11.3975
▁excepcional	-11.3976
▁Bad	-11.3976
▁incorporar	-11.3976
▁Marín	-11.3979
▁entran	-11.3983
▁apoxeo	-11.3983
▁periódica	-11.3983
▁Vettel	-11.3983
ritish	-11.3985
▁Ramir	-11.3986
urus	-11.3987
gó	-11.3988
▁conxuntamente	-11.3989
ulación	-11.3993
▁Comun	-11.3997
▁Venus	-11.3997
▁mármore	-11.3998
▁dúo	-11.3998
cario	-11.3998
ceta	-11.3999
▁determinación	-11.3999
▁sabía	-11.3999
▁Wall	-11.4002
xénica	-11.4002
▁1869	-11.4003
▁Anxo	-11.4006
▁reitor	-11.4006
▁repetida	-11.4008
lock	-11.4009
▁Crea	-11.4011
▁Pireneos	-11.4012
▁Xenebra	-11.4012
▁arxentina	-11.4012
▁electromagnétic	-11.4012
▁oitava	-11.4013
▁Cruces	-11.4014
▁filtra	-11.4016
▁Micro	-11.4016
AD	-11.4017
▁rivalidade	-11.4019
▁aceptación	-11.4019
▁Cent	-11.4022
▁habitan	-11.4022
pole	-11.4026
▁basílica	-11.4027
▁Had	-11.4031
▁Sete	-11.4037
▁Dy	-11.4038
▁Román	-11.4038
▁despo	-11.4038
▁afectar	-11.4041
▁bautizado	-11.4041
▁distingue	-11.4041
▁moderada	-11.4042
▁reactor	-11.4043
▁converxe	-11.4043
▁retoma	-11.4043
▁Exposición	-11.4044
tag	-11.4045
▁variado	-11.405
▁Comba	-11.4052
RT	-11.4054
▁Road	-11.4056
▁servía	-11.4056
ítico	-11.4059
▁turca	-11.406
▁combater	-11.406
▁pólas	-11.4061
▁nacido	-11.4065
▁festiva	-11.4065
▁Carme	-11.4066
▁3.000	-11.4069
▁atraso	-11.4071
▁soldado	-11.408
▁97	-11.408
RNA	-11.4083
▁Donostia	-11.4085
▁UNESCO	-11.4085
▁Valdoviño	-11.4085
▁Celtics	-11.4085
▁documentación	-11.4089
qué	-11.409
▁Rede	-11.409
▁Roque	-11.4091
minación	-11.4091
▁asalto	-11.4091
psina	-11.4097
zán	-11.4098
▁rematada	-11.4099
▁Orixinal	-11.41
▁estraño	-11.41
▁roubo	-11.4101
▁celeste	-11.4101
▁asteroide	-11.4101
plíca	-11.4102
▁130	-11.4105
chy	-11.4106
▁aloxa	-11.4107
▁serbia	-11.4108
▁1500	-11.4111
emia	-11.4113
▁Fun	-11.4115
▁simula	-11.4119
tella	-11.4121
▁institu	-11.4122
▁87	-11.4127
ı	-11.413
▁fosfo	-11.4136
AN	-11.4143
▁poñen	-11.4144
▁Franz	-11.4149
▁afirman	-11.415
▁etnia	-11.415
▁Sob	-11.4154
emade	-11.4154
▁Congo	-11.4155
▁anxo	-11.4162
▁funera	-11.4163
▁Albania	-11.4164
érico	-11.4165
▁estendida	-11.4165
▁sobe	-11.4165
▁crecer	-11.4167
cript	-11.4168
nucleótido	-11.4173
▁pór	-11.4173
▁125	-11.4173
ي	-11.4174
▁sacrificio	-11.4174
▁transbordador	-11.4174
▁dramática	-11.4174
▁escoitar	-11.4178
▁académica	-11.4189
▁intercambia	-11.4189
▁diploma	-11.4189
▁recompilatorio	-11.4189
▁repetición	-11.4195
▁Chipre	-11.4197
▁numera	-11.4197
▁cume	-11.4198
▁Ebro	-11.4199
▁directora	-11.42
▁adaptada	-11.4203
▁marqués	-11.4204
▁convención	-11.4204
▁procesamento	-11.4206
▁Julia	-11.4206
▁1863	-11.4208
▁observado	-11.4208
▁Qa	-11.4209
▁Plata	-11.421
▁Carballiño	-11.4219
▁extraordinaria	-11.4219
▁inversa	-11.4219
▁solista	-11.4223
pote	-11.4225
▁falece	-11.4226
▁puntua	-11.4226
eceu	-11.4228
▁calcular	-11.4229
▁gravada	-11.4229
PI	-11.423
▁Gali	-11.4232
▁froita	-11.4233
▁ferroviaria	-11.4234
▁Moreno	-11.4234
▁molde	-11.4235
▁vivenda	-11.4236
▁Prix	-11.4241
▁cren	-11.4241
▁trastorno	-11.4247
▁Institute	-11.4248
¡	-11.4248
▁Stewart	-11.4248
▁renunciou	-11.4248
▁rodaxe	-11.4258
▁somete	-11.4261
▁tracto	-11.4261
▁verso	-11.4262
▁sensibilidade	-11.4263
▁xurídica	-11.4263
▁occidente	-11.4263
▁Ancares	-11.4263
mérica	-11.4264
▁litros	-11.4266
IP	-11.4268
▁principado	-11.4269
▁Master	-11.4269
▁Leonor	-11.427
▁arqui	-11.4275
culares	-11.4276
▁Old	-11.4277
▁Acción	-11.4278
▁Pontedeume	-11.4278
▁automobilismo	-11.4278
▁holandés	-11.4278
▁Flandres	-11.4278
▁trouxo	-11.4278
▁cadrada	-11.4278
gul	-11.4279
▁impreso	-11.4279
▁dándolle	-11.4282
▁dimisión	-11.4282
▁expertos	-11.4284
▁Ría	-11.4285
▁Neves	-11.4287
hon	-11.4288
▁forzado	-11.4289
▁Caixa	-11.4291
▁Puerto	-11.4293
▁promesa	-11.4293
▁adquire	-11.4294
▁cultivar	-11.4294
▁basal	-11.4295
▁Gam	-11.4296
▁1867	-11.4299
▁fragment	-11.43
▁encargo	-11.4301
▁aborda	-11.4302
▁Igual	-11.4302
talo	-11.4307
▁Alco	-11.4308
▁Carballedo	-11.4308
▁dispersión	-11.4308
▁filosófica	-11.4308
ulosa	-11.4309
▁internet	-11.4312
gol	-11.4313
▁protagonizada	-11.4316
crito	-11.4317
▁Vella	-11.4318
▁psico	-11.432
▁Barrio	-11.4321
ministra	-11.4322
▁Cervantes	-11.4323
▁segura	-11.4324
▁cranio	-11.4324
▁Estonia	-11.4327
▁Jer	-11.4328
▁enfrontarse	-11.433
éli	-11.4332
glob	-11.4334
▁fértil	-11.4338
▁consenso	-11.4339
▁campamento	-11.4339
▁Labor	-11.434
▁Victor	-11.4342
▁viquingo	-11.4354
▁Nicolás	-11.4354
▁arrefria	-11.4354
▁elixiu	-11.4354
▁turística	-11.4354
▁exhibición	-11.4359
▁Brad	-11.4363
▁obten	-11.4364
▁83	-11.4365
▁defensiva	-11.4369
▁feixe	-11.437
▁subministración	-11.4374
CoA	-11.4377
▁codia	-11.4377
▁Four	-11.4379
▁rato	-11.4381
▁Generalitat	-11.4384
▁ucraíno	-11.4384
▁Bierzo	-11.4384
▁apartado	-11.4385
▁dimiti	-11.4385
▁asimila	-11.4385
▁integrou	-11.4389
▁Dallas	-11.4392
▁confia	-11.4393
▁amosan	-11.4396
▁forno	-11.4397
▁Baloncesto	-11.4399
▁Seguridade	-11.4399
▁dixestivo	-11.4399
▁Alasca	-11.44
▁rescata	-11.44
▁superou	-11.4404
▁indíxena	-11.4404
▁deberían	-11.4406
▁91	-11.4412
▁EE	-11.4413
▁trip	-11.4413
▁fósil	-11.4414
▁bizantina	-11.4414
▁gabinete	-11.4414
ر	-11.4414
▁Alfred	-11.4414
▁Especial	-11.4414
▁plumaxe	-11.4416
▁aplicada	-11.4416
gulación	-11.4417
▁Bouza	-11.4417
▁gobernou	-11.4418
▁rompeu	-11.4419
▁Gene	-11.442
trica	-11.442
▁entregado	-11.4423
▁Clemente	-11.4425
▁Andre	-11.4426
▁Greg	-11.4427
▁zume	-11.4428
La	-11.4429
▁botánica	-11.4429
▁Jane	-11.443
▁promete	-11.4431
▁Goya	-11.4432
▁Preto	-11.4435
▁Stalin	-11.4441
▁exporta	-11.4442
▁Seminario	-11.4445
▁funcionais	-11.4445
▁falaba	-11.4445
▁terían	-11.4446
▁impar	-11.4447
▁Fred	-11.4448
hid	-11.4448
▁dourada	-11.445
▁Solar	-11.445
▁1874	-11.445
icular	-11.4452
▁raia	-11.4453
vul	-11.4456
▁Open	-11.4459
▁Tailandia	-11.446
▁Toquio	-11.446
▁foca	-11.4462
▁neutral	-11.4466
iv	-11.4467
▁encontrou	-11.447
▁intre	-11.4473
▁outorgado	-11.4474
▁Premier	-11.4475
▁Xibraltar	-11.4475
▁Xirona	-11.4475
▁cinc	-11.4476
▁gótica	-11.4478
▁choca	-11.4481
time	-11.4481
▁1875	-11.4482
riza	-11.4485
melo	-11.449
▁Villeneuve	-11.449
▁cereais	-11.449
▁telescopio	-11.4491
▁Sou	-11.4491
▁disolv	-11.4494
▁comparte	-11.4495
SD	-11.4495
▁Kha	-11.4496
▁1864	-11.4496
▁LP	-11.4498
óforo	-11.4502
▁Team	-11.4502
sacárido	-11.4505
▁expulsión	-11.4506
▁lingüista	-11.4506
▁necesitan	-11.4506
▁invita	-11.4507
▁actina	-11.4508
▁publicaron	-11.4508
▁Rivas	-11.4512
▁elaborada	-11.4514
▁esquina	-11.452
▁anglosaxón	-11.4521
▁transcende	-11.4523
RP	-11.4523
▁investiga	-11.4524
pso	-11.4525
áctica	-11.4525
▁viola	-11.4526
ínico	-11.4528
▁postula	-11.4529
▁Realizou	-11.4533
▁ascendeu	-11.4535
▁nomenclatura	-11.4536
▁cantiga	-11.4536
▁clero	-11.4536
▁reduciu	-11.4537
▁traxedia	-11.4537
▁Chegou	-11.4538
▁Heat	-11.4541
▁1866	-11.4542
▁ascende	-11.4549
▁Bernardo	-11.4551
éronlle	-11.4552
▁instalouse	-11.4552
▁sinatura	-11.4552
▁vendida	-11.4552
▁prefire	-11.4553
▁Bruce	-11.4553
▁emigrante	-11.4557
▁conduce	-11.4558
▁seguramente	-11.4559
bica	-11.4562
▁Proc	-11.4565
▁Ecuador	-11.4567
inho	-11.4567
▁Servi	-11.4568
▁Portela	-11.4569
▁Arabia	-11.457
▁Grove	-11.4576
▁clon	-11.4578
▁silencio	-11.4582
▁Editorial	-11.4583
▁invertebrados	-11.4583
▁escocesa	-11.4583
▁contracción	-11.4583
▁refuxiados	-11.4584
▁Óscar	-11.4584
▁pregamento	-11.4585
▁Xaim	-11.4589
▁medrar	-11.459
▁Otto	-11.4591
▁cinto	-11.4592
▁var	-11.4593
▁gobernar	-11.4593
▁Bab	-11.4595
▁Nick	-11.4595
▁leu	-11.4596
▁Acerbaixán	-11.4598
▁excesiva	-11.4598
▁Monfero	-11.4598
▁perdida	-11.4598
▁marcador	-11.4599
▁ocupan	-11.46
▁partiu	-11.46
▁esperar	-11.4601
▁gen	-11.4601
▁oligo	-11.4603
▁marxina	-11.4606
▁corno	-11.4607
▁exemplar	-11.4613
▁Microsoft	-11.4613
▁cervexa	-11.4613
▁vasalo	-11.4614
▁Esparta	-11.4614
▁canteira	-11.4616
▁excede	-11.4616
▁predador	-11.4618
▁carlista	-11.4619
▁Rúa	-11.4621
▁parto	-11.4622
▁Union	-11.4623
▁100.000	-11.4624
▁q	-11.4628
▁Considérase	-11.4629
▁inclusión	-11.4629
gráfica	-11.4629
▁Laracha	-11.4629
▁acudir	-11.463
▁pato	-11.4634
▁Gian	-11.4637
▁india	-11.4639
▁Illinois	-11.4645
▁olímpico	-11.4645
▁cacho	-11.4645
ifícase	-11.4645
▁Aos	-11.4646
▁SD	-11.4647
▁Gale	-11.4651
▁Bau	-11.4652
▁dividiu	-11.4654
▁tanta	-11.4655
▁baseándo	-11.4656
▁Checa	-11.4657
esou	-11.4661
▁London	-11.4665
▁pataca	-11.4669
▁contando	-11.467
▁aventura	-11.4671
▁cardio	-11.4674
▁reproducir	-11.4676
▁ábsida	-11.4676
▁Trofeo	-11.4676
▁Saúde	-11.4676
▁Inf	-11.4678
TC	-11.4678
▁disputada	-11.4678
▁Desa	-11.4681
▁abuso	-11.4682
▁Brit	-11.4684
issa	-11.4684
▁ausente	-11.4687
▁encabezou	-11.4691
▁valenciano	-11.4691
▁sedimentos	-11.4691
▁percibi	-11.4691
▁seminario	-11.4691
▁salientar	-11.4692
inae	-11.4693
▁Tomás	-11.4694
ctivamente	-11.4704
▁93	-11.4705
▁Sá	-11.4706
írico	-11.4707
▁Hockey	-11.4707
▁Singapur	-11.4707
▁astronomía	-11.4707
▁Comercio	-11.4707
▁cabelo	-11.4707
▁Prince	-11.4709
▁faraón	-11.4709
▁fuga	-11.4712
▁Adolfo	-11.4714
idal	-11.4714
▁xel	-11.4718
▁troco	-11.4719
▁Paio	-11.4722
▁Northumbria	-11.4723
▁epidemia	-11.4723
▁dicionario	-11.4723
▁Jeff	-11.4724
▁NAD	-11.4727
▁900	-11.473
▁Kre	-11.4732
▁Eurocopa	-11.4738
▁bóla	-11.4738
stalou	-11.4739
▁Stefan	-11.4739
▁sho	-11.4752
▁ingreso	-11.4753
▁anatomía	-11.4754
▁óptica	-11.4754
▁evolucionou	-11.4754
▁móbil	-11.4754
▁esencia	-11.4755
ME	-11.4757
árase	-11.4757
▁corporación	-11.4759
▁hum	-11.476
▁cinta	-11.4761
▁Representa	-11.477
▁teórica	-11.4771
▁conservar	-11.4772
▁saen	-11.4774
▁violación	-11.4778
▁2,5	-11.4782
▁patio	-11.4783
ί	-11.4785
▁sorpresa	-11.4785
▁directiva	-11.4785
▁sulfato	-11.4786
▁insular	-11.4786
▁electr	-11.4788
▁human	-11.4788
▁Howard	-11.4788
▁Romero	-11.4791
ET	-11.4793
▁capturar	-11.4794
▁Espec	-11.4801
▁medrou	-11.4801
▁raio	-11.4803
tivismo	-11.4803
▁globo	-11.4804
▁IP	-11.4806
▁Cangas	-11.481
▁borra	-11.481
▁estender	-11.4812
▁noveno	-11.4817
▁idéntica	-11.4817
▁inmigración	-11.4817
▁vicerrei	-11.4817
▁étnica	-11.4817
▁chineses	-11.4817
▁ascendencia	-11.4818
▁Porsche	-11.4819
▁aproveitar	-11.4819
▁STS	-11.4824
är	-11.4824
▁salón	-11.4826
▁esquí	-11.4829
▁amais	-11.4832
polo	-11.4833
▁Missouri	-11.4833
▁respiración	-11.4833
▁experimentou	-11.4834
▁Cambre	-11.4836
▁nomear	-11.4836
▁Wolf	-11.4838
íbeis	-11.4839
▁dalgún	-11.484
íde	-11.4841
▁Debe	-11.4842
ísima	-11.4843
▁comporta	-11.4846
ē	-11.4849
▁democrático	-11.4849
▁SS	-11.4849
fun	-11.485
▁púxose	-11.4863
▁Compa	-11.4864
▁Agrupación	-11.4864
▁Groenlandia	-11.4864
▁xurídico	-11.4864
▁arranxo	-11.4864
▁lucense	-11.4865
▁fála	-11.4865
▁macizo	-11.4865
▁Indi	-11.4865
▁sólida	-11.4866
▁ampliou	-11.4867
sionista	-11.4869
▁1833	-11.487
▁inspirada	-11.487
▁1877	-11.4871
▁prohibido	-11.4872
▁proporcional	-11.4873
▁vertente	-11.4875
▁Newton	-11.4876
izando	-11.488
▁Tolosa	-11.4881
▁selva	-11.4884
▁investigar	-11.4886
▁Pha	-11.4887
▁Jam	-11.4891
▁Clara	-11.4893
▁subdivid	-11.4896
▁Nintendo	-11.4896
▁suborde	-11.4896
▁australiana	-11.4897
chou	-11.4897
▁96	-11.4901
berht	-11.4901
▁articula	-11.4904
▁anglo	-11.4904
vu	-11.4906
▁urina	-11.4906
▁Liv	-11.4911
▁substituto	-11.4915
ère	-11.4917
▁certame	-11.4919
▁almacenamento	-11.492
▁Vivi	-11.4923
▁bla	-11.4923
▁debilita	-11.4923
toma	-11.4923
▁Pilar	-11.4925
▁autónomo	-11.4928
▁cuestiona	-11.4928
▁embarazo	-11.4928
tónica	-11.4931
▁banca	-11.4934
▁colocar	-11.4935
▁esperaba	-11.4937
▁Coll	-11.4939
▁UD	-11.4943
▁azuis	-11.4945
▁manto	-11.4946
pur	-11.4947
▁horta	-11.495
▁aguia	-11.4953
tari	-11.4954
▁Gobernador	-11.4955
▁sinalar	-11.4957
color	-11.4958
▁Zeus	-11.4959
▁infanta	-11.496
▁psicoloxía	-11.496
iense	-11.4961
▁aliado	-11.4962
▁Paris	-11.4964
▁Tai	-11.4965
▁lentamente	-11.4973
▁imposto	-11.4974
▁ideais	-11.4974
▁mg	-11.4976
ï	-11.4976
ž	-11.4976
▁heavy	-11.4976
▁Stanley	-11.4976
▁formulación	-11.4977
▁ruído	-11.4979
▁emoción	-11.4983
▁Negra	-11.4983
▁Thor	-11.4989
▁Operación	-11.4989
▁criterio	-11.4991
▁Domínguez	-11.4992
▁Siberia	-11.4992
IN	-11.4993
▁chuvia	-11.4994
ghi	-11.4997
▁Tab	-11.4999
▁perigosa	-11.5002
▁Apareceu	-11.5006
Ro	-11.5006
▁Sebastian	-11.5008
▁Índico	-11.5008
▁arrastra	-11.5009
▁larva	-11.501
spora	-11.501
▁manexa	-11.501
▁Meira	-11.5017
álica	-11.502
م	-11.5025
▁simultanea	-11.5025
▁Xacobe	-11.5025
▁lírica	-11.5025
▁submarino	-11.5025
▁Fisterra	-11.5025
▁Parece	-11.5025
▁ermida	-11.5027
▁milicia	-11.5028
butou	-11.503
EG	-11.5034
▁consumidor	-11.5034
▁Leva	-11.5034
▁posibel	-11.5041
▁sultán	-11.5041
▁Spring	-11.5041
▁andaluz	-11.5041
▁balance	-11.5042
▁mudanza	-11.5042
▁Nava	-11.5042
▁Honor	-11.5044
▁modifica	-11.5047
meno	-11.5048
▁Fall	-11.5051
▁Pensilvania	-11.5057
▁similitude	-11.5057
▁Xavier	-11.5057
▁outorgou	-11.5057
▁estrés	-11.5057
▁Conservatorio	-11.5058
▁Catarina	-11.5058
volucion	-11.5062
▁modificar	-11.5065
veira	-11.5069
▁tentar	-11.5071
árona	-11.5071
ă	-11.5073
▁secuela	-11.5073
▁atractivo	-11.5073
▁duplica	-11.5074
▁contemporáneo	-11.5074
▁orixinando	-11.5074
vet	-11.5075
blo	-11.5075
guí	-11.5076
▁Sergi	-11.5077
▁Valde	-11.5083
▁Alpes	-11.5088
▁Afganistán	-11.5089
▁Harvard	-11.5089
▁Méndez	-11.5089
▁defensivo	-11.5089
▁gaélico	-11.5089
▁eventual	-11.5089
ht	-11.509
▁correu	-11.5091
▁Ph	-11.5091
▁vogal	-11.5091
▁fariña	-11.5093
▁estendido	-11.5097
▁Viana	-11.5104
▁atraer	-11.5104
▁estratéxica	-11.5106
▁híbrido	-11.5106
▁Crimea	-11.5106
▁legais	-11.5106
▁castaña	-11.5106
▁auxe	-11.5107
▁Concepción	-11.511
ícola	-11.5111
ulf	-11.5112
▁Ruiz	-11.5112
▁perigoso	-11.5116
SO	-11.5117
▁ferroviario	-11.5122
▁descansa	-11.5122
▁Miranda	-11.5125
▁mortalidade	-11.5126
▁video	-11.5126
▁Pesca	-11.5127
▁praga	-11.5129
▁gor	-11.5131
▁Beck	-11.5133
▁Marx	-11.5133
▁uva	-11.5134
CP	-11.5136
▁aproveitando	-11.5137
▁episcopal	-11.5138
▁parlamentaria	-11.514
▁Cele	-11.5141
▁constancia	-11.5145
▁1808	-11.5146
▁señore	-11.5151
▁capitalismo	-11.5154
▁renacentista	-11.5155
▁Russell	-11.5155
▁Luna	-11.5155
▁traspaso	-11.5155
▁Miller	-11.5159
▁cliente	-11.5159
chada	-11.5159
▁conformación	-11.5159
long	-11.516
▁Magic	-11.5163
▁1812	-11.5164
▁Industrial	-11.5166
▁patrocinador	-11.5168
▁atacou	-11.5169
▁almacén	-11.5171
▁intracelular	-11.5171
▁colisión	-11.5171
▁mio	-11.5173
▁acorde	-11.5173
▁Vidal	-11.5174
▁Darío	-11.5174
▁incluían	-11.5175
mpli	-11.5176
wal	-11.5177
▁Just	-11.5181
▁Quebec	-11.5187
▁aborixe	-11.5187
▁agraria	-11.5189
▁peteiro	-11.5191
thu	-11.5193
▁Flores	-11.5195
▁ducia	-11.5196
Star	-11.5198
▁fractura	-11.5204
▁glaciar	-11.5204
▁término	-11.5204
▁apóstolo	-11.5204
▁Cedeira	-11.5207
mut	-11.5208
▁garantir	-11.5208
▁89	-11.5211
▁expandi	-11.5212
▁desenvolven	-11.5213
▁fundamento	-11.5213
▁conxunta	-11.5214
.200	-11.5216
▁vivindo	-11.5216
▁resonancia	-11.522
▁descanso	-11.522
▁fermosa	-11.522
▁dispersa	-11.522
▁xenérico	-11.5221
▁Stadium	-11.5221
▁colapso	-11.5221
▁iniciado	-11.5221
▁Alca	-11.5223
▁vestido	-11.5223
▁predica	-11.523
▁intestinal	-11.523
shima	-11.5231
▁Couto	-11.5235
▁leito	-11.5236
lete	-11.5237
▁crédito	-11.5237
▁informática	-11.5237
▁Templo	-11.5237
▁mísil	-11.5237
▁recordo	-11.5238
▁enlaza	-11.5239
▁fiel	-11.5252
▁distribúe	-11.5253
▁dirixía	-11.5253
▁Jazz	-11.5254
nteriormente	-11.5262
▁apoiada	-11.5265
▁culpa	-11.5266
▁orientada	-11.5267
▁cicl	-11.5276
▁reivindica	-11.5278
ludi	-11.5279
▁balón	-11.5279
▁-1	-11.5281
▁Mariano	-11.5281
▁cota	-11.5281
rana	-11.5284
▁colocado	-11.5284
▁escrib	-11.5286
▁estímulo	-11.5286
▁Cerdedo	-11.5286
▁consoante	-11.5287
▁Espacial	-11.5287
▁1854	-11.5292
cco	-11.5299
▁filoxenética	-11.5303
▁frontal	-11.5303
remos	-11.5303
▁1.1	-11.5305
▁Nicolao	-11.5306
▁Kam	-11.5307
▁Arn	-11.5309
▁Rosario	-11.531
▁mudar	-11.5311
▁Kal	-11.5314
▁pertenceu	-11.5316
▁tomado	-11.5316
▁1820	-11.5316
▁escapa	-11.5316
elec	-11.5317
▁cima	-11.5317
scríbese	-11.5319
▁NASA	-11.5319
▁Bolivia	-11.5319
▁blues	-11.5319
▁véxa	-11.5319
▁Noroeste	-11.532
▁xamais	-11.532
▁Emilia	-11.5324
▁ensina	-11.5326
inter	-11.5326
▁lunar	-11.5327
toxina	-11.5328
▁Pau	-11.5329
▁substancial	-11.5335
▁msnm	-11.5336
▁diversific	-11.5337
▁Parada	-11.5338
feld	-11.5339
▁regularmente	-11.534
▁clar	-11.534
ppa	-11.5347
▁metabólica	-11.5353
▁prominente	-11.5353
▁afección	-11.5353
responsabilidade	-11.5353
iko	-11.5353
sibil	-11.5355
wulf	-11.5357
▁proporcionan	-11.5357
▁indirecta	-11.5369
▁Guatemala	-11.5369
▁corrupción	-11.5369
▁evolutivo	-11.5369
▁fenotipo	-11.5369
▁idéntico	-11.5369
▁silvestre	-11.5369
▁atómico	-11.537
▁Toro	-11.5371
▁califa	-11.5371
ciden	-11.5372
▁xeolóxico	-11.5372
▁capitais	-11.5377
×	-11.5386
▁Eslovenia	-11.5386
▁adecuado	-11.5386
▁diplomática	-11.5386
▁Claudio	-11.5386
▁Dragon	-11.5387
▁emerxe	-11.5388
▁abadía	-11.5388
▁accedeu	-11.5388
▁testamento	-11.539
guin	-11.5394
▁interesado	-11.5394
▁1835	-11.5394
▁Anthony	-11.5403
▁Vladimir	-11.5403
▁polígono	-11.5403
▁desencadea	-11.5403
▁Ulloa	-11.5403
▁encaixa	-11.5403
▁sétima	-11.5404
US	-11.5406
▁inauguración	-11.5407
▁previr	-11.5411
biótico	-11.5412
▁350	-11.5415
▁venres	-11.5418
▁neerlandes	-11.542
▁Vermella	-11.542
▁adopción	-11.542
▁innovador	-11.5421
π	-11.5425
PC	-11.5426
▁falso	-11.5426
▁iluminación	-11.5426
puxéron	-11.5434
▁Ródano	-11.5437
▁artificiais	-11.5437
▁atlántica	-11.5437
▁galaxia	-11.5437
▁sometida	-11.5437
▁Bolo	-11.5438
▁seareiro	-11.5439
▁Rally	-11.5441
▁with	-11.5442
▁estendeuse	-11.5442
▁Show	-11.5444
▁pasaría	-11.5445
▁Hong	-11.5445
▁sorprendente	-11.5448
▁Bak	-11.5448
▁recto	-11.5451
▁teléfono	-11.5453
▁Dream	-11.5455
▁facto	-11.5464
nium	-11.5464
▁140	-11.5465
▁Billy	-11.5469
▁Regi	-11.5469
ł	-11.547
▁financiamento	-11.547
▁Houston	-11.547
▁retículo	-11.547
▁Castrelo	-11.547
▁repartido	-11.5471
▁pelexa	-11.5471
▁arbitra	-11.5471
▁Get	-11.5472
hib	-11.5474
quilla	-11.5477
▁criado	-11.5477
ibar	-11.548
▁char	-11.548
▁diferencial	-11.5481
▁Pul	-11.5482
▁compartir	-11.5483
▁cristais	-11.5483
ault	-11.5484
▁Valenciana	-11.5485
▁gaita	-11.5486
▁Moderna	-11.5486
▁Ciudad	-11.5487
▁mitocondrial	-11.5492
▁obxec	-11.5493
▁continúan	-11.5495
icus	-11.5498
▁94	-11.5499
▁pozo	-11.5499
monte	-11.5499
▁sá	-11.5501
tten	-11.5501
▁RE	-11.5502
▁invitado	-11.5504
▁hel	-11.5508
mete	-11.5511
fensores	-11.5515
▁Glen	-11.5518
▁Toma	-11.5518
celular	-11.5519
▁regato	-11.552
▁Tolkien	-11.5521
▁bacharelato	-11.5521
▁sucedido	-11.5521
▁teatrais	-11.5521
▁xermánica	-11.5521
▁Lleida	-11.5521
▁depredadore	-11.5521
▁Lima	-11.5523
▁Cé	-11.5524
▁dominado	-11.5526
▁deseñou	-11.5527
▁Cinco	-11.553
▁peto	-11.553
▁Bang	-11.5531
▁Up	-11.5531
▁contraria	-11.5532
▁Lois	-11.5532
▁avanzado	-11.5533
▁poderá	-11.5537
▁virtual	-11.5538
▁crema	-11.5542
▁lente	-11.5544
▁conduto	-11.5549
▁cultiva	-11.5549
▁rematado	-11.5552
▁ministerio	-11.5555
▁Convención	-11.5555
▁transformou	-11.5555
▁marxista	-11.5555
▁met	-11.5556
▁Arteixo	-11.5557
▁dominación	-11.5558
cele	-11.5558
▁chá	-11.5559
▁mortal	-11.5561
▁volvería	-11.5561
dilla	-11.5564
lent	-11.5571
▁iniciada	-11.5572
▁Imperial	-11.5572
▁Montevideo	-11.5572
▁noruegués	-11.5572
▁sanguínea	-11.5572
▁Charlotte	-11.5572
▁concedido	-11.5572
▁protocolo	-11.5572
▁Beach	-11.5577
▁lousa	-11.5578
▁Pastor	-11.5578
▁Sonic	-11.5583
▁Ortegal	-11.5584
▁Edimburgo	-11.5589
▁cirurxía	-11.5589
▁fotógrafo	-11.5589
▁taxonomía	-11.5589
▁textura	-11.5589
▁Balcáns	-11.5589
▁ameazada	-11.559
▁colocou	-11.559
UU	-11.5593
▁biólogo	-11.5594
▁Potter	-11.5594
termina	-11.5594
eado	-11.5598
▁Fene	-11.5599
▁dragón	-11.5606
▁Facenda	-11.5606
▁táctica	-11.5607
▁aviación	-11.561
cionismo	-11.5619
▁fotosíntese	-11.5623
▁Grammy	-11.5624
▁mesquita	-11.5625
ingen	-11.5625
▁burguesía	-11.5626
▁Helena	-11.5627
▁Hau	-11.5628
▁Correo	-11.5628
gawa	-11.5629
▁autoría	-11.5629
▁temperán	-11.563
▁Falece	-11.563
▁abandonada	-11.5631
▁posuír	-11.5633
▁Salón	-11.5635
▁Nove	-11.5638
▁Histórico	-11.564
▁Noutra	-11.5641
▁ancha	-11.5641
▁castigo	-11.5641
▁nó	-11.5645
▁obradoiro	-11.5649
▁Fuente	-11.5653
▁Izquierda	-11.5658
▁clínico	-11.5658
▁ribosoma	-11.5658
tadores	-11.5658
▁describ	-11.566
▁Horas	-11.5664
ntino	-11.5666
ció	-11.5672
▁Boiro	-11.5673
▁Bonaparte	-11.5675
▁beneficia	-11.5675
▁produza	-11.5675
▁ánimo	-11.5676
▁Utiliz	-11.5677
▁sagrado	-11.5678
▁labra	-11.5682
▁Medina	-11.5684
▁velo	-11.5685
tiña	-11.5685
▁Antí	-11.5687
▁Etiopía	-11.5692
▁decisiva	-11.5692
▁feudal	-11.5692
▁Seattle	-11.5692
▁vestixio	-11.5693
▁Atlas	-11.5697
▁1862	-11.5698
▁separou	-11.5698
▁influenciado	-11.5698
▁Bank	-11.5699
▁Luxemburgo	-11.57
▁liderada	-11.5705
rexión	-11.5709
▁Saxonia	-11.5709
▁Antártida	-11.5709
▁divindade	-11.5709
▁nórdico	-11.5709
▁solicitou	-11.5709
▁Panamá	-11.5709
▁soterrado	-11.5709
▁Iván	-11.571
▁crían	-11.571
▁florece	-11.5711
etta	-11.5714
▁faro	-11.5715
▁gai	-11.5715
live	-11.5716
▁excita	-11.5718
▁Pier	-11.5721
▁Emil	-11.5722
▁imparti	-11.5722
fór	-11.5722
▁retira	-11.5723
iber	-11.5723
▁tab	-11.5724
▁Gy	-11.5726
▁cardíaco	-11.5727
▁Paraguai	-11.5727
▁Caldelas	-11.5727
▁Otomán	-11.5727
▁desenvolv	-11.5729
▁alter	-11.5729
óxena	-11.5734
▁retirou	-11.5734
▁1800	-11.5736
pop	-11.5739
▁respondeu	-11.5742
▁Paquistán	-11.5744
▁filosófico	-11.5744
▁guerrilla	-11.5744
▁misioneiro	-11.5744
▁Virgin	-11.5744
▁revelou	-11.5744
▁rumbo	-11.5748
dución	-11.5749
▁gañado	-11.575
▁deixan	-11.575
▁observador	-11.5751
▁condiciona	-11.5753
▁Sever	-11.5756
▁partícula	-11.5756
▁distante	-11.5758
▁GT	-11.5761
ن	-11.5761
▁válvula	-11.5761
▁xuventude	-11.5761
▁Canaria	-11.5763
NT	-11.5767
▁fermentación	-11.5767
▁Susan	-11.5768
EA	-11.5769
▁faga	-11.5769
▁ascender	-11.5774
▁Johan	-11.5777
▁aprendeu	-11.5779
▁arqueólogo	-11.5779
▁circunscrición	-11.5779
▁defínese	-11.5779
Cotobade	-11.5779
▁Oliver	-11.5781
▁sábe	-11.5782
▁1815	-11.5787
▁conversa	-11.5791
▁Local	-11.5791
iñeiro	-11.5793
cine	-11.5794
▁cela	-11.5794
▁fro	-11.5795
▁pega	-11.5796
tábase	-11.5796
▁Sadurniño	-11.5796
▁apéndice	-11.5796
▁cloruro	-11.5796
▁Radical	-11.5796
▁aleatoria	-11.5796
▁Oficina	-11.5796
▁festividade	-11.5796
▁proceden	-11.5798
▁maia	-11.5802
▁convocado	-11.5803
▁Cela	-11.5807
clor	-11.5813
▁laboral	-11.5813
▁Euskadi	-11.5814
▁maquinaria	-11.5814
▁xermánico	-11.5814
▁Agustín	-11.5814
▁pantanos	-11.5814
▁Empresa	-11.5814
▁Nilo	-11.5815
▁entregou	-11.5817
▁Wel	-11.5822
beiro	-11.5824
▁pó	-11.5825
▁Hé	-11.5828
▁cedo	-11.5829
▁decorado	-11.583
▁Gru	-11.5831
▁Galeguista	-11.5831
▁combustión	-11.5831
▁demarcación	-11.5832
▁propaganda	-11.5833
▁nucleo	-11.5837
▁Arias	-11.5838
▁xermina	-11.5842
▁π	-11.5843
▁modula	-11.5847
▁exipcia	-11.5849
▁irlandeses	-11.5849
▁apoder	-11.585
▁compartido	-11.585
▁gregoriano	-11.5851
▁manual	-11.5854
▁1857	-11.5855
xeno	-11.5856
feita	-11.5857
▁rodean	-11.586
▁ladeira	-11.5866
▁fantasía	-11.5866
▁desembarco	-11.5866
▁escaseza	-11.5866
▁Beatles	-11.5867
▁orixinan	-11.5871
▁valeu	-11.5872
▁Industria	-11.5872
▁transformar	-11.5872
▁traxe	-11.5873
▁pensou	-11.5879
▁substituí	-11.5883
▁progresivo	-11.5884
▁cuartel	-11.5884
▁mantiveron	-11.5884
enti	-11.5887
▁consideraban	-11.5887
▁histori	-11.5887
▁incapa	-11.5889
▁cuña	-11.5892
vea	-11.5892
▁Hércules	-11.5901
▁emblema	-11.5901
▁Your	-11.5902
▁Liña	-11.5902
▁curmán	-11.5902
▁loitou	-11.5905
▁Ré	-11.5905
▁detención	-11.5908
▁1836	-11.5908
▁frecha	-11.591
▁Laxe	-11.591
glu	-11.591
▁establecendo	-11.591
▁Alice	-11.5911
▁cruzamento	-11.5912
amino	-11.5913
ósido	-11.5913
▁Conserva	-11.5916
φ	-11.5919
▁Marshall	-11.5919
▁BMW	-11.5919
▁vangarda	-11.5919
▁acuática	-11.5919
▁disposta	-11.5919
▁delta	-11.592
▁discográfico	-11.5921
▁cabra	-11.5921
▁Christ	-11.5923
tívose	-11.5925
wiki	-11.5926
▁ISO	-11.5927
blasto	-11.5929
▁diferenciar	-11.593
▁Cea	-11.5931
▁delgado	-11.5934
gana	-11.5936
▁Maza	-11.5936
▁detalle	-11.5937
▁freguesía	-11.5937
▁extinta	-11.5937
atolicismo	-11.5937
ófago	-11.5938
▁quimio	-11.5939
▁elaborar	-11.5942
▁ligamento	-11.5942
clav	-11.5947
OR	-11.5947
▁Arquitectura	-11.5954
▁astronauta	-11.5954
▁Oficial	-11.5954
▁Corporación	-11.5955
▁Hard	-11.5955
▁editar	-11.5959
▁semanal	-11.5963
▁Báltico	-11.5972
▁Watson	-11.5972
▁longametraxe	-11.5972
▁peninsular	-11.5972
▁Linné	-11.5972
▁concedeu	-11.5972
▁Metro	-11.5972
▁gameto	-11.5973
▁centrada	-11.5974
▁comprobar	-11.5975
miro	-11.5977
▁esgota	-11.5977
fila	-11.5981
▁Rica	-11.5981
▁esporas	-11.5982
▁inaugurada	-11.5985
VI	-11.5989
▁Código	-11.599
▁Wessex	-11.599
▁Alxeria	-11.599
▁esposo	-11.599
▁Abd	-11.5997
▁alba	-11.5998
▁Light	-11.6001
▁1.2	-11.6003
▁fórma	-11.6003
▁lexislativo	-11.6008
▁oceánica	-11.6008
IM	-11.6008
▁vari	-11.6013
▁Zona	-11.6014
▁trato	-11.6014
▁representativo	-11.6016
▁Great	-11.6018
▁indie	-11.6022
▁Cala	-11.6023
▁Capitán	-11.6025
▁harmonía	-11.6025
▁sobreviviu	-11.6025
▁Hamburgo	-11.6026
▁estatais	-11.6026
▁Dave	-11.6028
cepción	-11.6029
▁contrasta	-11.603
▁aproximada	-11.6031
▁escisión	-11.6032
▁alimentan	-11.6032
▁cultivada	-11.6032
▁pecado	-11.6034
▁Kant	-11.6036
▁Nogueira	-11.6037
▁Schu	-11.6037
▁Valenti	-11.604
tza	-11.6041
▁sobrevive	-11.6043
▁Pueblo	-11.6043
▁diagnostic	-11.6043
▁doméstica	-11.6043
▁Baleares	-11.6043
▁xuvení	-11.6043
▁cálido	-11.6043
tendido	-11.6044
▁Rev	-11.6044
▁conectado	-11.6045
▁mostraron	-11.6045
▁deberá	-11.6053
▁encabeza	-11.6055
▁alimentaria	-11.606
▁Liverpool	-11.6061
▁triangular	-11.6061
▁inxecta	-11.6061
▁Studios	-11.6061
▁imprenta	-11.6062
ARN	-11.6062
▁escoller	-11.6062
▁integrar	-11.607
▁comproba	-11.6077
▁parda	-11.6077
▁franquismo	-11.6079
▁Kevin	-11.6081
▁Warner	-11.6082
▁Rand	-11.6083
▁Vall	-11.6088
bacteria	-11.6093
▁proteico	-11.6093
micina	-11.6096
▁agudo	-11.6096
▁decisivo	-11.6097
▁Nikola	-11.6098
▁reactivo	-11.6098
▁Proto	-11.6098
wich	-11.61
hman	-11.61
▁Marta	-11.6101
▁1859	-11.6104
▁Gü	-11.6106
▁fixación	-11.6109
▁Ivan	-11.611
ceira	-11.6113
θ	-11.6115
▁únense	-11.6115
▁interface	-11.6115
▁defendía	-11.6115
▁pesetas	-11.6115
▁preséntase	-11.6115
ção	-11.6115
▁ABC	-11.6116
▁afirmar	-11.612
▁ampliar	-11.6121
▁Unida	-11.6122
gil	-11.6124
▁enviada	-11.6127
▁peste	-11.6127
▁xema	-11.613
▁microbio	-11.6131
▁alcumado	-11.6133
▁galeguista	-11.6133
▁xerarquía	-11.6134
▁vogai	-11.6134
back	-11.6135
▁rumore	-11.6135
▁cruzados	-11.6137
▁Platón	-11.614
▁noventa	-11.6143
▁Corporation	-11.6151
▁Familia	-11.6151
▁Filadelfia	-11.6151
▁requisito	-11.6151
▁traducir	-11.6152
▁Belgrado	-11.6152
▁pulo	-11.6153
▁Persia	-11.6154
▁Muller	-11.6158
▁operar	-11.616
▁Yama	-11.6161
▁bolboreta	-11.6169
▁procesión	-11.6169
▁reconquista	-11.617
▁avenida	-11.617
▁pasta	-11.6172
▁afastada	-11.6172
▁pracer	-11.6175
▁PO	-11.618
eixe	-11.6183
▁impor	-11.6183
▁Espi	-11.6183
▁Luz	-11.6187
umentando	-11.6187
▁Bohemia	-11.6187
▁Considera	-11.6188
▁Alcalá	-11.6188
▁Laura	-11.6191
▁Branco	-11.6191
▁viaxeiros	-11.6191
▁Casares	-11.6195
▁Esc	-11.6195
▁lector	-11.6198
▁involucra	-11.6203
▁cubri	-11.6204
▁presentaba	-11.6204
▁desenvólvese	-11.6205
▁Orange	-11.6206
brado	-11.6207
mundo	-11.6208
▁Hotel	-11.6215
▁Chega	-11.6217
▁Unidade	-11.6222
▁Ful	-11.6223
▁Audiencia	-11.6224
▁goleador	-11.6224
▁Galileo	-11.6224
▁inventor	-11.6227
▁mobiliza	-11.6227
▁Vilariño	-11.6228
▁Naquel	-11.6229
▁1846	-11.623
▁comparada	-11.6233
▁Nós	-11.6234
▁concluíu	-11.6235
▁libreto	-11.6237
▁aplicado	-11.6238
▁abdome	-11.6242
▁indoeuropea	-11.6242
▁décima	-11.6242
▁Kansas	-11.6242
▁Maceda	-11.6247
▁propón	-11.6252
tización	-11.6254
▁Cesar	-11.6254
izante	-11.6257
▁Josef	-11.6259
ciño	-11.626
▁Metropolitan	-11.626
▁coñécense	-11.626
▁cardíaca	-11.626
▁rescate	-11.626
▁simetría	-11.6265
▁vice	-11.6265
▁conquistada	-11.6265
▁Anne	-11.6267
▁esmaga	-11.6268
corpo	-11.6268
ásica	-11.6269
ófono	-11.6269
graph	-11.627
▁impu	-11.6272
▁estereo	-11.6274
▁Cinema	-11.6275
▁Complutense	-11.6278
▁Sydney	-11.6278
▁Varsovia	-11.6278
▁monumental	-11.6278
▁orgánulo	-11.6278
▁sistemática	-11.6278
▁substitúe	-11.6278
▁flaxelo	-11.6278
▁pianista	-11.6278
▁calcaria	-11.6279
▁santa	-11.6279
▁Claude	-11.6279
▁concorda	-11.6279
▁debuxa	-11.628
ttle	-11.6281
▁socialismo	-11.6286
tini	-11.6292
▁monxe	-11.6293
uana	-11.6296
¿	-11.6297
▁Historica	-11.6297
▁acredita	-11.6297
▁rexenera	-11.6297
▁sentía	-11.6301
▁fosforilación	-11.6303
ough	-11.6306
▁superado	-11.6307
▁montaxe	-11.631
▁han	-11.631
▁polares	-11.6315
▁sufraxio	-11.6315
▁utilidade	-11.6315
▁descontento	-11.6315
▁espacia	-11.6317
▁rexeitar	-11.6318
▁decrece	-11.6322
▁1858	-11.6322
▁1809	-11.6324
▁referido	-11.6324
▁Llo	-11.6325
tificación	-11.6325
▁Science	-11.6333
▁exclusivo	-11.6333
▁fluvial	-11.6333
▁certeza	-11.6333
▁elefante	-11.6333
▁adquirido	-11.6334
▁inhibe	-11.6334
▁prior	-11.6339
▁dedicarse	-11.634
▁identificada	-11.6343
▁criou	-11.6345
▁compensa	-11.6345
▁asignado	-11.6346
▁acoller	-11.6347
▁Neda	-11.6349
▁Carol	-11.6351
▁extraordinario	-11.6352
▁xuíces	-11.6352
▁eficiencia	-11.6352
▁convocatoria	-11.6353
fón	-11.6353
▁Pia	-11.6353
▁esperta	-11.6355
III	-11.6356
▁comprou	-11.6357
▁obt	-11.6362
gué	-11.6367
▁operador	-11.637
▁instaura	-11.637
▁anfibios	-11.637
▁Canta	-11.637
▁impediu	-11.637
▁levaría	-11.6371
▁milleiro	-11.6373
▁Té	-11.6373
▁responder	-11.6374
▁restante	-11.6377
ciencia	-11.6383
peri	-11.6387
▁proclamación	-11.6388
▁greco	-11.6391
▁prisioneiro	-11.6391
▁eficaci	-11.6391
▁vexa	-11.6392
álico	-11.6392
▁Shar	-11.6394
▁prodúcen	-11.6396
▁Globo	-11.6396
▁sacra	-11.6397
▁engloba	-11.6399
▁trompeta	-11.64
obacter	-11.6403
▁Sada	-11.6404
▁tapa	-11.6404
▁defendeu	-11.6405
▁Ped	-11.6405
▁acollida	-11.6407
▁xesuíta	-11.6407
▁Anderson	-11.6407
▁sucesivo	-11.6407
▁cobertura	-11.6407
▁veñen	-11.6409
▁mucosa	-11.6409
▁cativo	-11.6411
▁Gustav	-11.6411
▁Ry	-11.6426
▁Phoenix	-11.6426
▁confluencia	-11.6426
▁engadindo	-11.6426
▁linfocitos	-11.6426
▁Iniciou	-11.6426
▁concilio	-11.6426
▁cronista	-11.6427
▁desenvolvendo	-11.643
▁pechar	-11.6431
▁causante	-11.6432
▁esperma	-11.6433
▁lisa	-11.6433
▁severa	-11.6435
▁precipitación	-11.6435
perante	-11.6437
▁Massa	-11.6439
▁habitado	-11.6441
▁escaravello	-11.6444
▁inspirou	-11.6444
▁restablece	-11.6445
▁Adrian	-11.6449
▁restrinxi	-11.645
ntraron	-11.645
EP	-11.6451
▁saíron	-11.6452
▁neta	-11.6453
▁Freire	-11.6454
▁Mach	-11.6455
▁pale	-11.6455
▁venera	-11.6456
▁by	-11.646
▁descubriron	-11.6463
▁adxectivo	-11.6463
▁bicicleta	-11.6463
▁dramaturgo	-11.6463
▁térmico	-11.6463
▁válido	-11.6463
▁Begonte	-11.6463
▁aterraxe	-11.6463
▁xeno	-11.6464
▁chumbo	-11.6464
▁Estreou	-11.6464
▁Xogou	-11.6465
uído	-11.6466
ilia	-11.6466
▁perfecto	-11.6466
▁Fundado	-11.6469
▁barroca	-11.6471
▁listaxe	-11.6471
▁introduce	-11.6473
▁Ciencia	-11.6474
▁Verín	-11.6475
▁receita	-11.6477
▁anchura	-11.6482
▁Danubio	-11.6482
▁Malaisia	-11.6482
▁procariota	-11.6482
▁avoga	-11.6485
▁Renfe	-11.6485
SH	-11.6485
▁Cin	-11.6487
▁Salva	-11.6489
▁xornalismo	-11.6493
▁constitu	-11.6498
▁Oklahoma	-11.65
▁Morte	-11.6505
▁hispano	-11.6505
▁masivo	-11.6505
▁prega	-11.6512
▁Naval	-11.6517
▁Casta	-11.6518
▁René	-11.6519
▁Información	-11.6519
▁constituínte	-11.6519
ов	-11.652
▁tolera	-11.652
▁ecolóxico	-11.652
xén	-11.6526
▁Risco	-11.6527
química	-11.6529
fonía	-11.6531
▁psi	-11.6531
▁fasci	-11.6532
dif	-11.6536
▁cúmulo	-11.6538
▁romántico	-11.6538
▁ortodoxo	-11.6538
hidroxi	-11.6538
▁elenco	-11.6539
organ	-11.6539
▁accede	-11.6541
▁xacemento	-11.6541
igh	-11.6542
▁Bronce	-11.6542
▁Shin	-11.6542
▁Cher	-11.6545
▁Wild	-11.6546
▁declarar	-11.6553
▁Esquerda	-11.6557
▁almirante	-11.6557
rqueoloxía	-11.6557
▁Capital	-11.6559
▁Graham	-11.6561
▁dista	-11.6562
▁bancada	-11.6563
vila	-11.6566
▁Ambas	-11.6574
▁atmosférica	-11.6576
▁recompensa	-11.6576
▁Benetton	-11.6576
▁Herrera	-11.6576
▁puidera	-11.6576
▁maduro	-11.6576
▁estraña	-11.6576
vascular	-11.658
▁dominada	-11.6581
▁levouno	-11.6582
▁Prat	-11.6584
▁determinante	-11.6587
▁comparado	-11.6587
▁Chao	-11.6589
▁gobernado	-11.6591
▁violento	-11.6594
▁Mahler	-11.6594
▁abastece	-11.6594
▁alusión	-11.6595
oeste	-11.6601
▁habería	-11.6605
▁carbon	-11.6606
uelo	-11.6608
▁Rick	-11.6609
▁sucesivamente	-11.6613
▁computadora	-11.6613
▁Copenhague	-11.6613
▁accesible	-11.6613
▁endémica	-11.6613
▁esplendor	-11.6613
▁Ferra	-11.6614
▁renunciar	-11.6617
▁Some	-11.6617
▁Morris	-11.6617
▁Azul	-11.6618
▁Barre	-11.6619
▁implantación	-11.662
▁bloqueo	-11.6622
▁rostro	-11.6623
▁conservadores	-11.663
▁empregaba	-11.663
я	-11.6632
▁Anjou	-11.6632
▁cera	-11.6633
▁NO	-11.6633
▁condución	-11.6635
▁recepción	-11.664
▁Rodeiro	-11.664
▁inactiva	-11.664
▁pagán	-11.6645
▁Marine	-11.6648
▁narrador	-11.665
▁ال	-11.6651
▁Rianxo	-11.6651
▁climático	-11.6651
▁Palla	-11.6662
▁Mare	-11.6663
▁Pá	-11.6664
▁Gustavo	-11.6667
ب	-11.667
▁Apóstolo	-11.667
▁holandeses	-11.667
▁veterano	-11.667
▁Xixón	-11.6671
▁microscopio	-11.6672
▁estudada	-11.6673
opter	-11.6673
▁lacta	-11.668
▁conservadora	-11.6683
ífica	-11.6686
▁Kennedy	-11.6689
▁significou	-11.6689
▁subcampión	-11.6689
▁tecnolóxico	-11.6689
▁tinguidura	-11.6689
▁Segovia	-11.6689
▁amiga	-11.6689
▁Meta	-11.6693
▁1847	-11.6696
Alpes	-11.6699
▁Teoría	-11.67
▁propaga	-11.67
xogador	-11.67
▁observada	-11.67
▁emigr	-11.6705
▁Félix	-11.6708
▁Técnica	-11.6708
▁limpeza	-11.6708
▁práctico	-11.6708
▁licenciou	-11.671
▁matou	-11.6712
▁implicación	-11.6714
dine	-11.6714
▁Tempo	-11.6715
▁Here	-11.6719
cende	-11.6719
▁triplo	-11.6722
▁droga	-11.6725
▁ultravioleta	-11.6727
▁orixína	-11.6728
▁carboxi	-11.6728
▁erosión	-11.6728
▁Sarmiento	-11.6728
▁Modern	-11.6731
▁proliferación	-11.6732
▁Code	-11.6734
▁emperadores	-11.6735
▁desempeñou	-11.6741
▁Blu	-11.6741
▁testa	-11.6744
▁Pé	-11.6744
▁aristocracia	-11.6747
▁citocromo	-11.6747
▁feminismo	-11.6747
▁independentista	-11.6747
▁macrófagos	-11.6747
▁mérito	-11.6747
▁Marqués	-11.6747
▁antecesor	-11.6747
▁Gordon	-11.6748
▁Golden	-11.675
▁algodón	-11.6751
▁Shu	-11.6751
▁citar	-11.6753
▁3000	-11.6753
▁aliada	-11.6759
▁Esti	-11.6761
▁incorporado	-11.6761
▁puxeron	-11.6765
▁periférico	-11.6766
و	-11.6766
▁patrocin	-11.6767
▁gamma	-11.6767
▁Sábe	-11.6769
▁operado	-11.6775
terapia	-11.6777
▁radia	-11.6779
▁bacteriano	-11.678
▁casamento	-11.6782
▁primate	-11.6783
wall	-11.6785
▁Bóveda	-11.6785
▁Frankfurt	-11.6785
▁estímase	-11.6785
▁gradiente	-11.6785
▁sufixo	-11.6785
▁Moeche	-11.6785
▁Town	-11.6786
▁desexaba	-11.6788
▁novelista	-11.6788
mouth	-11.679
▁anotador	-11.679
▁Soria	-11.68
▁mancha	-11.68
▁radica	-11.6801
bía	-11.6804
й	-11.6804
▁Manhattan	-11.6804
▁cuántica	-11.6804
▁cónsul	-11.6804
▁extremidade	-11.6804
▁fervenza	-11.6804
▁xermano	-11.6804
▁arqueolóxico	-11.6805
▁musulmán	-11.6805
▁convidado	-11.6805
▁induce	-11.6806
▁pechou	-11.6806
agh	-11.6813
▁procesa	-11.6814
▁Guy	-11.6816
▁Podemos	-11.682
▁fume	-11.6822
presa	-11.6823
óc	-11.6823
▁montañoso	-11.6824
▁viral	-11.6824
▁acomoda	-11.6824
▁escolta	-11.6824
▁diferenciada	-11.6829
izan	-11.6832
▁Dita	-11.6832
▁normativa	-11.6833
carón	-11.6835
▁terminais	-11.6837
▁negouse	-11.6838
▁Bismarck	-11.6843
▁peregrinación	-11.6843
▁OTAN	-11.6843
▁desembarca	-11.6843
▁parecida	-11.6843
▁Sound	-11.6844
▁enclave	-11.6845
▁autoriza	-11.6846
▁Finais	-11.685
ífera	-11.6857
▁xerou	-11.6857
▁Troia	-11.6858
ciña	-11.6859
▁Ramon	-11.6861
▁embarca	-11.6861
rice	-11.6862
▁PD	-11.6862
▁metrópole	-11.6862
▁potasio	-11.6862
▁Schi	-11.6864
▁transportar	-11.6865
▁colga	-11.6865
▁Walt	-11.6867
▁Antena	-11.6867
▁cheiro	-11.6868
▁merece	-11.6869
tili	-11.687
▁divina	-11.687
lzamento	-11.6871
▁correctamente	-11.6875
▁Alemán	-11.6877
▁Montero	-11.6878
EM	-11.6879
▁Saga	-11.6879
▁buscaba	-11.6881
▁auténtico	-11.6882
▁descomposición	-11.6882
▁distintivo	-11.6882
▁institucional	-11.6883
▁romanés	-11.6883
scendeu	-11.6887
▁brillo	-11.6887
▁present	-11.689
▁utilizaron	-11.6892
▁permitiulle	-11.6897
▁impr	-11.6899
▁encarcerado	-11.6901
▁ibérico	-11.6901
▁insulina	-11.6901
▁xentilicio	-11.6901
▁Formula	-11.6902
▁Ontario	-11.6903
▁trombo	-11.6906
▁Lope	-11.6909
▁esixe	-11.691
▁codificada	-11.6913
ílico	-11.6913
▁ceder	-11.6915
▁Palo	-11.6915
▁Petro	-11.6915
▁Ponteareas	-11.6921
▁islámica	-11.6921
▁lexislativa	-11.6921
ófitas	-11.6921
▁Alain	-11.6925
▁transmite	-11.6925
▁recibida	-11.6926
uario	-11.6937
▁Demócrata	-11.694
▁ganglio	-11.694
▁durmi	-11.6942
▁cortar	-11.6943
▁Heart	-11.6944
▁construtor	-11.6944
▁vul	-11.6949
▁precede	-11.695
▁colocada	-11.6952
▁Emma	-11.6952
▁intermediario	-11.6956
▁Moure	-11.6959
▁Orquestra	-11.696
▁repercusión	-11.696
▁énfase	-11.696
▁Abraham	-11.696
▁xadrez	-11.696
▁Orlando	-11.696
▁Bird	-11.6961
▁involucrado	-11.6962
▁encerra	-11.6966
▁1837	-11.6966
▁proteica	-11.6967
▁1856	-11.6968
▁Stre	-11.6969
▁Pinto	-11.6971
▁devanceiro	-11.6979
▁Wu	-11.6983
▁aniña	-11.6984
cín	-11.6986
▁permanenc	-11.6987
▁cometa	-11.6989
dominio	-11.6991
▁105	-11.6995
▁Douro	-11.6996
ύ	-11.6999
▁Desenvolvemento	-11.6999
▁garantía	-11.6999
▁nocturna	-11.6999
▁sílaba	-11.6999
▁intervén	-11.6999
▁Utah	-11.6999
▁Testamento	-11.6999
▁exacto	-11.7
▁máxico	-11.7
▁Stein	-11.7001
▁dólar	-11.7003
▁Tito	-11.7008
▁Igualmente	-11.7009
física	-11.7011
▁graduou	-11.7011
▁Tsu	-11.7014
▁Tampa	-11.7015
▁Guill	-11.7016
ptic	-11.7016
▁dixestión	-11.7019
▁inestabilidade	-11.7019
▁Noutro	-11.702
▁miden	-11.7021
▁póla	-11.7024
▁espiral	-11.7025
▁1834	-11.7026
▁1814	-11.7028
▁Khan	-11.7028
▁educativa	-11.7038
▁parentesco	-11.7039
▁Asunto	-11.7039
▁Camilo	-11.704
▁anormal	-11.704
▁desorde	-11.704
▁Delft	-11.704
▁chamaba	-11.7041
▁conectada	-11.7041
▁baga	-11.7041
▁salario	-11.7042
BP	-11.7042
▁instrumental	-11.7049
▁Reforma	-11.7049
▁zu	-11.7057
▁instalado	-11.7058
▁Estremadura	-11.7058
▁acabado	-11.7061
▁Ruso	-11.7067
▁Feira	-11.707
▁hom	-11.7073
▁candidata	-11.7078
▁isótopo	-11.7078
▁olímpica	-11.7078
▁hindú	-11.7078
▁Letonia	-11.7078
▁bioquímica	-11.7079
▁transcrito	-11.708
monio	-11.708
wick	-11.7082
▁sulf	-11.7083
▁labore	-11.7085
NG	-11.7085
ceron	-11.7087
▁camp	-11.709
▁proxenitor	-11.7098
▁superfamilia	-11.7098
▁tolerancia	-11.7099
▁herdeira	-11.71
▁afro	-11.71
▁Estatal	-11.7103
▁maxia	-11.7106
▁ident	-11.7114
▁aeronave	-11.7118
▁envergadura	-11.7118
▁incidencia	-11.7118
▁Ernst	-11.7118
▁Apple	-11.7119
▁virxe	-11.7119
▁Andorra	-11.7119
▁respectivo	-11.712
▁Hugh	-11.7125
▁mailo	-11.7127
▁contribuír	-11.7129
▁definiu	-11.713
▁Pacto	-11.7131
▁estadía	-11.7133
▁temporais	-11.7135
▁obstáculo	-11.7138
▁lonxitudina	-11.7138
▁metálica	-11.7138
▁xeométrica	-11.7139
▁Canle	-11.7139
▁agulla	-11.714
▁rexeitado	-11.7141
▁nm	-11.7141
▁Punta	-11.7142
▁Mini	-11.7143
▁monstro	-11.7143
borg	-11.7146
tible	-11.7146
▁baila	-11.7148
▁Carter	-11.715
▁encarna	-11.7151
▁avoa	-11.7154
▁Carral	-11.7156
ل	-11.7158
▁Bridge	-11.7159
▁Depende	-11.7159
zona	-11.7159
▁xeolóxica	-11.7163
▁Rusa	-11.7163
▁Gö	-11.7164
▁Fabi	-11.7165
▁informativo	-11.7168
▁Whit	-11.7169
▁Princip	-11.717
▁Milan	-11.7172
▁constituía	-11.7177
▁Basilio	-11.7178
▁Lawrence	-11.7178
▁Wolfgang	-11.7178
▁antecedente	-11.7178
▁traizón	-11.7178
▁Magno	-11.7181
▁Infante	-11.7182
▁anime	-11.7183
▁miel	-11.7183
▁2.0	-11.7192
▁Mesía	-11.7194
▁imprim	-11.7197
▁hórreo	-11.7198
▁atribuída	-11.7198
▁Bautista	-11.7198
▁panei	-11.7201
▁Kö	-11.7207
▁20.000	-11.7209
▁Canción	-11.7217
▁Carlomagno	-11.7218
▁Dirixiu	-11.7218
▁Shakespeare	-11.7218
▁amplitude	-11.7218
▁escravitude	-11.7218
▁Consellería	-11.7218
▁Dirección	-11.7218
▁Salomón	-11.7218
▁verticais	-11.7218
▁Americana	-11.7219
▁Coalició	-11.7223
▁fenda	-11.7226
▁ku	-11.7236
▁préstamo	-11.7238
▁materno	-11.7238
▁cabalería	-11.7238
▁aliñamento	-11.7238
▁enzima	-11.7239
▁xogado	-11.724
ntada	-11.7241
dru	-11.7241
mbalas	-11.7251
ology	-11.7253
▁Kill	-11.7256
▁posguerra	-11.7258
▁presidido	-11.7258
▁pretensión	-11.7258
▁convocou	-11.7258
▁branquia	-11.7258
lima	-11.7258
2,3	-11.7259
▁atómica	-11.7259
▁considerando	-11.7259
▁João	-11.726
▁Ō	-11.726
▁plantacións	-11.7263
▁rexeitada	-11.7267
▁fonda	-11.7267
▁campá	-11.7268
▁Trent	-11.7269
▁importación	-11.7278
▁Coristanco	-11.7278
▁tuberculose	-11.7278
▁progresista	-11.7278
▁placenta	-11.7278
▁Girl	-11.7279
▁Walker	-11.728
▁USA	-11.7281
▁ovario	-11.7284
▁produciron	-11.7287
▁analizar	-11.729
▁finalista	-11.7291
▁roedor	-11.7293
▁preferente	-11.7298
▁Cleveland	-11.7299
▁economista	-11.7299
▁Almería	-11.7299
▁peirao	-11.7299
dimensiona	-11.7299
▁capilar	-11.73
scopio	-11.7301
▁boi	-11.7302
▁Best	-11.7302
▁intervir	-11.7308
▁neurona	-11.7308
▁reivindicación	-11.7309
ólito	-11.731
▁Death	-11.7311
▁baña	-11.7312
▁Johannes	-11.7315
▁amplifica	-11.7315
▁traslada	-11.7317
▁Canadiens	-11.7319
▁Entertainment	-11.7319
▁alicerce	-11.7319
▁determinou	-11.7319
▁Wallace	-11.7319
▁chocolate	-11.7319
▁Nueva	-11.732
▁corrixi	-11.732
▁Airbus	-11.732
▁permíte	-11.7321
▁Pereiro	-11.7321
▁perfora	-11.7321
▁helio	-11.7321
▁Eugen	-11.7323
▁Gio	-11.7324
▁rexencia	-11.7325
▁prevista	-11.7325
▁Cama	-11.7326
▁1821	-11.7328
▁Padre	-11.7331
▁reprodutora	-11.7333
huma	-11.7333
▁campu	-11.7336
▁albergar	-11.7337
▁Antigüidade	-11.7339
▁Elizabeth	-11.7339
▁Hernández	-11.7339
▁Simpson	-11.7339
▁gobernamentais	-11.7339
▁arxila	-11.7339
▁Brollón	-11.734
▁touro	-11.7343
▁Count	-11.7344
▁HC	-11.7348
▁Gerard	-11.7349
NO	-11.7351
▁licenci	-11.7353
▁fichaxe	-11.7354
▁Mariño	-11.7355
▁bretón	-11.736
▁desprende	-11.736
▁icona	-11.736
▁Torneo	-11.7361
▁aliaxe	-11.7362
▁promoveu	-11.7362
oideos	-11.7363
▁rexistrou	-11.7363
▁educado	-11.7368
▁Albi	-11.7368
▁render	-11.7368
▁aparecía	-11.737
▁verifica	-11.7379
▁Liceo	-11.738
▁Islam	-11.7382
▁escano	-11.7382
▁anfi	-11.7384
▁Pho	-11.7385
▁Marino	-11.7386
▁sorprende	-11.7387
▁Morgan	-11.7388
ée	-11.7391
seguida	-11.7394
▁soia	-11.7395
▁prohibida	-11.74
▁Líbano	-11.74
▁Presidencia	-11.74
▁artrópodo	-11.74
▁atribuído	-11.74
▁Fóra	-11.74
▁gobernamental	-11.7401
▁enquisa	-11.7402
▁denso	-11.7402
▁asume	-11.7403
▁voceiro	-11.7405
ddy	-11.7412
Mar	-11.7415
irós	-11.742
▁Exteriores	-11.7421
▁perseguido	-11.7421
póñense	-11.7421
▁Jaime	-11.7421
▁Patrese	-11.7421
▁soluble	-11.7421
parte	-11.7423
▁protease	-11.7424
▁comezara	-11.7424
▁potenciais	-11.7426
rock	-11.7427
▁Beira	-11.7432
▁xoia	-11.7441
ы	-11.7441
▁Connecticut	-11.7441
▁anexión	-11.7441
▁vínculo	-11.7441
▁·	-11.7442
▁reflexo	-11.7442
▁Sche	-11.7442
▁mercadoría	-11.7444
▁0,5	-11.7449
▁fisi	-11.7455
▁Desp	-11.7462
▁enxeñería	-11.7462
▁estratéxico	-11.7462
▁encadra	-11.7463
▁adquiri	-11.7463
▁Raimund	-11.7463
▁Guarda	-11.7464
▁Fiz	-11.7464
▁Obtiv	-11.7472
ividade	-11.7477
▁obrigada	-11.7478
▁burgues	-11.748
▁dignidade	-11.7483
▁traduciu	-11.7483
▁cortado	-11.7486
▁Ferrer	-11.7492
▁pertencían	-11.7495
dillo	-11.7498
▁Profesor	-11.7503
▁ancián	-11.7503
▁Programa	-11.7507
▁747	-11.7513
▁abunda	-11.7517
▁Anel	-11.7518
▁Gand	-11.7518
▁Leopoldo	-11.7523
▁embaixada	-11.7524
▁draft	-11.7524
▁Anatolia	-11.7524
▁inflúe	-11.7524
▁Monumento	-11.7524
▁arrodea	-11.7524
▁resistir	-11.7524
▁realizaba	-11.7525
▁frauta	-11.7526
▁barón	-11.7529
▁reprodutor	-11.753
▁melano	-11.7534
▁meseta	-11.7536
▁manipula	-11.7536
▁divorcio	-11.7539
▁competidor	-11.754
▁bacteri	-11.7543
ή	-11.7545
▁presidenta	-11.7545
▁Aquitania	-11.7545
▁subordina	-11.7545
▁ritual	-11.7546
▁zoólogo	-11.7546
▁Galaxia	-11.7546
▁emerxencia	-11.7546
▁xulga	-11.7551
▁1851	-11.7552
ciclo	-11.7552
▁Viña	-11.7555
▁realismo	-11.7561
▁Joy	-11.7564
г	-11.7565
[...]
