<unk>	0
<s>	0
</s>	0
<pad>	0
s	-2.66273
▁	-3.10283
▁,	-3.15598
▁de	-3.25224
▁.	-3.36202
▁a	-3.71028
▁e	-3.8738
▁o	-4.02052
▁que	-4.25581
;	-4.26618
▁&	-4.30045
quot	-4.37931
▁do	-4.42859
▁en	-4.54885
▁da	-4.58254
o	-4.87362
a	-4.90421
▁un	-5.11296
▁A	-5.11717
▁no	-5.23682
(	-5.24639
▁)	-5.25895
▁unha	-5.25992
se	-5.26909
n	-5.27009
▁O	-5.29298
▁é	-5.29314
▁na	-5.34684
mente	-5.48524
▁os	-5.5053
es	-5.51236
▁por	-5.55305
▁como	-5.56444
▁se	-5.56574
▁súa	-5.57149
is	-5.5864
▁para	-5.59714
▁ao	-5.60328
▁seu	-5.60973
▁con	-5.75268
▁foi	-5.79113
▁máis	-5.80207
▁dos	-5.80766
u	-5.86313
ndo	-5.89487
▁á	-5.95197
l	-6.0276
▁ou	-6.05146
▁non	-6.07533
▁En	-6.25668
on	-6.27604
▁as	-6.28393
ción	-6.29988
▁son	-6.3705
▁das	-6.38943
e	-6.40681
▁polo	-6.44366
▁ano	-6.47526
▁entre	-6.47726
r	-6.50678
▁co	-6.52978
▁d	-6.55969
▁tamén	-6.60987
▁pola	-6.62991
▁coa	-6.66842
▁parte	-6.71852
▁No	-6.76366
▁Os	-6.7962
▁ser	-6.8253
▁anos	-6.83745
urante	-6.85504
▁sobre	-6.90153
▁era	-6.93458
▁século	-6.94976
ia	-6.95738
▁dun	-6.96784
▁primeiro	-6.97196
▁cidade	-6.97549
índa	-6.97886
▁I	-6.99448
▁xa	-6.99482
▁ó	-7.0019
▁ata	-7.01483
ou	-7.01549
nde	-7.0336
▁pero	-7.03661
ón	-7.05453
▁está	-7.0753
▁P	-7.07607
0	-7.08984
idade	-7.1027
do	-7.10738
▁C	-7.12001
▁ten	-7.14414
▁cando	-7.15749
▁dunha	-7.18242
▁todo	-7.18553
▁nome	-7.18575
▁primeira	-7.18939
▁forma	-7.19868
ron	-7.2097
▁outro	-7.22472
▁mesmo	-7.22977
▁este	-7.24028
5	-7.2417
▁As	-7.24541
▁poboación	-7.24881
en	-7.24937
8	-7.26972
▁nos	-7.2738
▁pode	-7.2772
▁dous	-7.28986
▁foro	-7.29303
▁moi	-7.30212
▁maior	-7.32513
▁illa	-7.3254
m	-7.32878
▁Na	-7.33526
▁grande	-7.3412
▁tiña	-7.34255
▁D	-7.35164
▁lugar	-7.36472
▁nun	-7.36681
sde	-7.3701
ía	-7.3715
▁esta	-7.37389
▁De	-7.39457
▁sen	-7.41217
▁só	-7.41247
2	-7.41291
3	-7.41778
1	-7.41803
▁tempo	-7.42699
▁grupo	-7.42711
embro	-7.43607
▁outra	-7.43942
▁habitante	-7.44475
ais	-7.44536
4	-7.45418
▁día	-7.45671
9	-7.46033
▁nas	-7.46221
6	-7.46906
7	-7.47653
▁Estado	-7.47873
és	-7.489
▁E	-7.51748
▁T	-7.52889
▁tres	-7.54145
▁concello	-7.54494
▁San	-7.5462
nse	-7.54658
▁estado	-7.55773
cia	-7.57706
▁nunha	-7.58135
▁importante	-7.58571
▁obra	-7.58912
▁moito	-7.58995
▁Por	-7.59121
úas	-7.59215
▁novo	-7.59224
▁contra	-7.5999
▁1	-7.60531
▁lingua	-7.60641
este	-7.61117
▁2	-7.62666
▁así	-7.62951
▁segundo	-7.63023
▁Este	-7.63476
▁gran	-7.64828
z	-7.65649
onde	-7.66551
▁sistema	-7.68504
▁vez	-7.68637
▁país	-7.69561
pois	-7.69591
▁guerra	-7.69682
apos	-7.702
▁estaba	-7.70268
▁principal	-7.71748
▁Segund	-7.71778
▁actual	-7.72464
▁banda	-7.72514
▁xu	-7.72564
▁home	-7.72998
▁goberno	-7.73216
▁rei	-7.73418
▁parroquia	-7.74062
▁hai	-7.74581
▁ás	-7.74998
▁río	-7.7551
▁rexión	-7.75842
én	-7.76414
▁zona	-7.76688
▁mundo	-7.78376
▁número	-7.78713
▁baixo	-7.79288
▁polos	-7.79603
▁toda	-7.7967
▁norte	-7.80433
▁lle	-7.80467
▁Foi	-7.8217
▁vida	-7.82296
▁cara	-7.82322
▁cada	-7.82553
▁muller	-7.83487
da	-7.84183
▁m	-7.843
▁sur	-7.84906
▁cunha	-7.8566
▁F	-7.85718
▁B	-7.86912
▁Esta	-7.86918
▁deste	-7.87121
▁nova	-7.87407
▁relación	-7.8899
▁provincia	-7.89408
▁seguinte	-7.89725
▁M	-7.89988
▁Galicia	-7.90008
▁poden	-7.9066
▁ante	-7.91058
▁S	-7.91095
ismo	-7.91264
za	-7.91912
▁traballo	-7.92039
▁están	-7.93286
▁tanto	-7.93714
á	-7.94268
mento	-7.94532
▁coma	-7.94914
▁cal	-7.95209
II	-7.95221
▁cun	-7.95473
án	-7.95553
▁auga	-7.95882
▁final	-7.9635
▁punto	-7.9651
▁000	-7.96714
i	-7.97402
▁medio	-7.97425
▁media	-7.97456
▁tipo	-7.97688
▁fillo	-7.977
▁teñ	-7.97796
▁pouco	-7.97945
▁mar	-7.98521
▁194	-7.9853
▁época	-7.98619
▁poder	-7.99692
▁historia	-7.99713
▁territorio	-8.00356
▁España	-8.00487
nidos	-8.00526
res	-8.00622
▁capital	-8.00819
nte	-8.01252
▁mai	-8.02383
▁196	-8.03065
er	-8.03278
▁algún	-8.03503
▁galego	-8.03816
▁xeral	-8.03842
▁familia	-8.03962
▁desta	-8.04023
▁tivo	-8.04806
▁Con	-8.05884
▁exemplo	-8.06221
▁política	-8.06236
▁195	-8.0699
▁especie	-8.07456
▁período	-8.08619
▁ben	-8.08966
▁partir	-8.09414
▁xunto	-8.09741
▁193	-8.09912
▁coñecido	-8.10715
▁equipo	-8.1092
▁3	-8.11099
▁Europ	-8.11326
▁catro	-8.11372
▁morte	-8.1185
amén	-8.12743
▁despo	-8.12877
mos	-8.13843
▁maioría	-8.14616
▁caso	-8.15126
▁vario	-8.15755
▁cos	-8.1605
▁membro	-8.16243
▁partido	-8.16351
▁longo	-8.16393
▁logo	-8.16484
▁XI	-8.16486
▁xeito	-8.17135
▁menos	-8.17715
▁total	-8.17819
▁nado	-8.18154
▁feito	-8.18236
▁II	-8.18351
▁centro	-8.18776
▁especial	-8.19083
▁mentr	-8.19356
▁último	-8.19492
▁orixe	-8.19746
▁Para	-8.20921
llo	-8.21089
nha	-8.21107
▁persoas	-8.21283
▁resto	-8.21886
ño	-8.22257
▁terra	-8.22553
▁la	-8.22617
ronse	-8.22787
ntro	-8.23146
▁192	-8.23909
▁área	-8.24109
▁Franci	-8.24244
▁veces	-8.24513
▁ter	-8.25139
▁forza	-8.25672
▁serie	-8.25806
iro	-8.25961
91	-8.26889
▁mesma	-8.27136
▁todos	-8.27149
▁comezou	-8.27165
ba	-8.27488
▁moita	-8.27665
aña	-8.28393
▁chamado	-8.28589
▁varia	-8.28888
▁millóns	-8.28926
▁La	-8.29173
ago	-8.29738
▁momento	-8.30376
▁diferentes	-8.30504
▁10	-8.30866
▁debido	-8.315
▁militar	-8.31534
▁fin	-8.31602
▁facer	-8.31819
▁travé	-8.32402
▁proceso	-8.32846
▁The	-8.33096
▁191	-8.33179
entón	-8.33255
▁Se	-8.33485
▁segunda	-8.33886
▁carreira	-8.34085
▁posterior	-8.3417
io	-8.3429
▁nin	-8.34606
▁Santa	-8.3505
▁base	-8.35193
▁4	-8.35858
ría	-8.36255
▁Nova	-8.36403
▁uso	-8.36451
al	-8.36481
▁popular	-8.36857
▁anterior	-8.3716
▁case	-8.37414
▁principa	-8.37976
▁termo	-8.38608
mo	-8.38677
▁antigo	-8.38866
neiro	-8.39159
▁década	-8.39765
▁fai	-8.40025
▁Mar	-8.40845
▁197	-8.40881
▁algunha	-8.41713
▁elemento	-8.41947
▁álbum	-8.42149
▁países	-8.42292
▁principio	-8.42303
▁el	-8.42353
▁5	-8.42371
▁cultura	-8.42405
X	-8.42458
▁Así	-8.42863
▁Entre	-8.4337
▁pequena	-8.43478
▁político	-8.43948
93;	-8.44045
▁fixo	-8.4408
até	-8.4496
▁20	-8.45106
▁propio	-8.45181
or	-8.45236
▁Santi	-8.45548
▁maio	-8.45976
▁Imperio	-8.46075
▁éxito	-8.46171
▁set	-8.46173
▁preto	-8.46176
▁conta	-8.46199
▁coñecida	-8.46236
▁palabra	-8.46493
▁N	-8.46695
▁quen	-8.47155
▁pequeno	-8.47172
▁Adem	-8.47302
▁tarde	-8.47439
▁pai	-8.47762
▁V	-8.4813
▁adem	-8.48317
▁común	-8.4861
▁actividade	-8.48614
▁igrexa	-8.49105
▁Como	-8.49121
t	-8.50131
▁leste	-8.50396
▁sería	-8.50849
▁mellor	-8.51155
ubro	-8.51167
ai	-8.51296
▁Ao	-8.51323
▁Guerra	-8.5142
▁out	-8.5195
▁1999	-8.52094
▁finais	-8.52101
▁abril	-8.52152
▁oficial	-8.52272
▁forte	-8.52351
▁atópa	-8.52742
▁L	-8.53142
▁construción	-8.53301
▁pobo	-8.53592
agost	-8.53785
▁liña	-8.53906
▁hoxe	-8.53916
▁dec	-8.53928
▁problema	-8.54123
▁antiga	-8.54197
▁Gran	-8.54272
▁converteu	-8.54407
▁190	-8.54535
▁título	-8.54646
▁X	-8.54785
▁cambio	-8.55201
▁nov	-8.55625
▁tempada	-8.55792
▁tras	-8.55825
▁superficie	-8.55842
▁desenvolvemento	-8.55889
▁exército	-8.55913
niversidade	-8.56009
▁reino	-8.56043
E	-8.56049
▁corpo	-8.56112
▁costa	-8.56542
▁chamada	-8.56562
▁metro	-8.56714
▁presidente	-8.5672
▁si	-8.56723
▁15	-8.56774
▁movemento	-8.57116
▁6	-8.57383
▁dereito	-8.57776
▁idea	-8.58596
▁R	-8.58694
▁disco	-8.58852
▁propia	-8.59019
▁30	-8.59054
▁estrutura	-8.59129
▁grego	-8.59445
▁casa	-8.59619
▁Reino	-8.59678
▁estilo	-8.59996
▁isto	-8.60114
▁música	-8.60328
▁produción	-8.60585
▁tema	-8.60944
▁El	-8.61236
▁2004	-8.61394
▁calquer	-8.61472
▁resultado	-8.61472
▁entidade	-8.61671
▁teoría	-8.61672
▁María	-8.61848
▁febre	-8.62469
▁Despo	-8.62471
▁cinco	-8.6265
▁República	-8.62687
▁Terra	-8.62946
▁conxunto	-8.62964
sempre	-8.6327
▁chegou	-8.6341
▁función	-8.63596
▁servizo	-8.63716
▁Madrid	-8.6383
▁pasou	-8.64655
▁Xo	-8.64751
▁fora	-8.65013
é	-8.65093
▁inglés	-8.65181
ez	-8.65237
V	-8.65343
▁XVI	-8.655
▁re	-8.65573
▁galega	-8.65804
▁chegar	-8.66037
▁Ist	-8.66775
▁planta	-8.66892
▁influencia	-8.6735
▁di	-8.67783
sé	-8.67886
▁Alem	-8.67889
▁12	-8.6804
ca	-8.68084
▁estudo	-8.68305
▁franc	-8.6844
lle	-8.68474
▁temperatura	-8.68659
to	-8.69295
▁Ten	-8.69315
▁Pero	-8.69401
▁25	-8.69485
▁versión	-8.69544
▁aparece	-8.69702
▁fonte	-8.7005
▁Roma	-8.70065
nión	-8.7022
▁industria	-8.70228
▁orde	-8.70278
▁Partido	-8.7053
ton	-8.70831
▁posúe	-8.70854
▁comezo	-8.70894
▁real	-8.71189
eran	-8.71286
▁Premio	-8.71327
▁cor	-8.71451
▁2006	-8.71496
▁menor	-8.71512
▁interior	-8.71597
▁fronte	-8.71723
▁humano	-8.71984
▁nivel	-8.72042
ar	-8.72455
▁última	-8.7247
▁alemán	-8.72508
▁libro	-8.72655
▁campo	-8.72779
▁sup	-8.73275
de	-8.73658
▁enerxía	-8.73753
▁canción	-8.74176
ista	-8.74494
▁Illa	-8.7457
dade	-8.74865
▁tal	-8.75184
▁irmán	-8.75821
▁ver	-8.75877
▁lei	-8.7592
▁tan	-8.75968
▁alto	-8.76029
▁Mundia	-8.76043
▁cantidade	-8.76266
▁2005	-8.76389
ta	-8.76444
▁efecto	-8.7652
▁pesar	-8.76656
▁ós	-8.76728
▁posto	-8.76831
▁Sur	-8.77057
▁eles	-8.77203
▁posición	-8.77393
▁comeza	-8.77502
ín	-8.77539
▁medida	-8.77617
▁7	-8.77752
▁espazo	-8.7777
▁escola	-8.78607
▁arte	-8.78945
▁española	-8.79026
▁acordo	-8.79157
▁18	-8.79289
▁programa	-8.79674
▁emperador	-8.79702
▁Italia	-8.79748
▁obxecto	-8.79883
▁etc	-8.79974
finado	-8.80158
▁característica	-8.80425
▁situada	-8.80516
▁cidades	-8.81017
la	-8.81074
▁imaxe	-8.8147
▁central	-8.81519
▁situación	-8.81521
▁vila	-8.82037
▁clase	-8.82067
▁sexa	-8.82173
▁social	-8.82204
▁único	-8.82209
▁papel	-8.82226
▁eleccións	-8.82273
▁porque	-8.82452
▁alta	-8.82459
▁batalla	-8.82897
ña	-8.83259
▁causa	-8.83568
▁14	-8.83634
▁XX	-8.83869
▁8	-8.83955
▁organización	-8.84197
▁América	-8.84335
▁canto	-8.84458
▁Coruñ	-8.84677
▁2007	-8.84738
▁16	-8.85202
▁chega	-8.85357
▁romano	-8.85579
▁modelo	-8.85744
na	-8.8594
▁189	-8.85942
▁posible	-8.85962
▁11	-8.86043
▁superior	-8.86102
▁pasa	-8.86186
▁G	-8.86544
▁morre	-8.86547
▁iso	-8.86633
an	-8.86646
▁188	-8.86909
▁comarca	-8.86919
▁mese	-8.87008
▁proba	-8.87736
▁dicir	-8.87848
▁economía	-8.8814
▁Pedro	-8.88162
ing	-8.88373
no	-8.89082
▁Cand	-8.89092
▁Está	-8.89375
te	-8.89409
▁aproximada	-8.89468
ina	-8.89505
▁materia	-8.89672
▁data	-8.89982
▁ciencia	-8.89986
▁texto	-8.90593
▁recibi	-8.90694
▁of	-8.90816
ra	-8.90846
▁cargo	-8.90914
▁Nacional	-8.90974
▁control	-8.90997
▁cale	-8.91061
▁lado	-8.91282
▁Tras	-8.91436
aterra	-8.91448
il	-8.91615
▁persoa	-8.92027
▁anima	-8.92032
frica	-8.92056
▁situado	-8.92174
▁público	-8.92375
▁localiza	-8.9249
▁Co	-8.92504
▁Son	-8.92504
▁xogo	-8.92692
▁tropa	-8.92849
arzo	-8.93175
▁apoio	-8.93198
▁condición	-8.93246
▁186	-8.93419
istoria	-8.93637
▁comunidade	-8.93673
▁Norte	-8.93694
▁Ca	-8.93699
▁mundial	-8.93751
▁13	-8.94418
▁Carlo	-8.94457
les	-8.94625
▁in	-8.94696
▁considerado	-8.94836
▁Ma	-8.95059
▁Ingl	-8.95479
▁diverso	-8.95642
▁distribuído	-8.95801
▁París	-8.96067
▁británico	-8.96221
▁español	-8.96224
estivo	-8.9627
▁película	-8.96327
▁unidade	-8.96332
▁orixinal	-8.96407
▁tód	-8.96433
▁baixa	-8.96478
▁21	-8.96551
▁sector	-8.96664
▁estadounidense	-8.96859
▁mil	-8.96957
▁17	-8.97031
▁Igrexa	-8.97126
luz	-8.97181
▁natural	-8.97404
▁independente	-8.97626
▁sociedade	-8.97769
▁altura	-8.97771
▁particular	-8.97848
▁proxecto	-8.97851
▁escritor	-8.98083
▁formación	-8.98265
▁24	-8.98521
▁acción	-8.98589
▁neste	-8.98617
▁diversa	-8.98632
▁lista	-8.98701
le	-8.99153
▁2000	-8.99232
▁metade	-8.99348
▁única	-8.99427
▁Outro	-8.99562
▁algo	-8.99675
▁paso	-8.99816
▁debe	-8.99866
▁9	-8.99885
▁vai	-9.00154
▁50	-9.00301
▁propiedade	-9.00386
▁IG	-9.004
▁ocasión	-9.00441
▁importancia	-9.00552
ica	-9.00612
▁permite	-9.00621
redor	-9.00996
▁completa	-9.01091
▁tamaño	-9.01107
▁internacional	-9.01201
▁libre	-9.01226
▁estas	-9.01348
▁tradición	-9.01622
▁187	-9.01694
▁2003	-9.01925
▁22	-9.01955
▁porto	-9.02136
amente	-9.02161
▁autor	-9.02439
▁hora	-9.02503
▁xénero	-9.0279
▁estar	-9.02806
zo	-9.02991
tín	-9.03083
▁axuda	-9.03246
▁europeo	-9.03528
▁Portugal	-9.03585
▁obxectivo	-9.03709
oloxía	-9.03806
▁valor	-9.0381
▁normal	-9.04035
▁referencia	-9.04158
▁vitoria	-9.04559
▁presen	-9.04626
nido	-9.04952
g	-9.0595
▁interese	-9.06003
▁elixido	-9.06157
▁simple	-9.06831
▁Real	-9.06835
▁xogador	-9.06966
▁diminu	-9.07075
▁estudos	-9.07335
▁clima	-9.07421
▁pedra	-9.07482
▁nomeado	-9.07494
▁dato	-9.07935
▁masa	-9.07948
▁19	-9.08028
▁director	-9.08289
▁Re	-9.08484
▁Le	-9.08669
▁existen	-9.08737
▁nacional	-9.08819
▁igual	-9.08836
▁volta	-9.08841
▁papa	-9.09019
▁loita	-9.09048
▁tradicional	-9.09229
▁VI	-9.09313
▁capacidade	-9.09352
▁Castela	-9.09927
in	-9.09996
gún	-9.10156
▁xira	-9.10177
▁23	-9.10247
▁dirección	-9.10429
▁Xa	-9.1046
ura	-9.10483
▁Gali	-9.10701
▁novela	-9.10773
▁verán	-9.10799
▁francesa	-9.10857
▁fronteira	-9.10924
▁publicou	-9.10968
▁referir	-9.10981
▁ataque	-9.11438
▁significa	-9.1157
▁grazas	-9.11623
▁arredor	-9.11679
▁boa	-9.11962
▁nesta	-9.12032
▁seis	-9.12114
▁creación	-9.12297
▁aumento	-9.12455
▁cabo	-9.1247
bel	-9.12583
▁capa	-9.1271
▁técnica	-9.12777
▁segue	-9.12859
▁método	-9.12902
cter	-9.12943
▁Manuel	-9.1303
▁información	-9.13042
▁crecemento	-9.13346
▁Rus	-9.1341
▁Algún	-9.13537
▁Ne	-9.13565
▁núcleo	-9.13719
▁recente	-9.13789
▁Af	-9.13861
▁183	-9.1396
▁célula	-9.14099
▁the	-9.14302
▁incluíndo	-9.14416
▁xente	-9.14494
ces	-9.1452
▁184	-9.14568
▁revista	-9.14607
▁esa	-9.14628
▁volveu	-9.14673
▁nai	-9.14687
▁Logo	-9.14689
▁independen	-9.1484
▁28	-9.14937
cará	-9.15314
▁letra	-9.15323
▁viaxe	-9.15358
▁certa	-9.1545
▁certo	-9.15504
▁Vig	-9.1552
pto	-9.15527
▁municipal	-9.15601
▁27	-9.15618
▁velocidade	-9.15632
▁nada	-9.1568
xe	-9.15722
ohn	-9.15898
onso	-9.16157
▁civil	-9.16408
▁40	-9.16419
▁camiño	-9.16536
▁sentido	-9.16602
▁ca	-9.16602
lí	-9.16787
▁Compostela	-9.1681
▁100	-9.17055
▁concepto	-9.17121
▁occidental	-9.17266
▁compañía	-9.17384
▁motor	-9.17482
▁escrito	-9.17492
▁práctica	-9.17514
▁filme	-9.17633
▁conseguiu	-9.17918
▁mercado	-9.18
▁líder	-9.18106
▁edición	-9.18106
▁formar	-9.18246
are	-9.18636
▁ela	-9.18664
▁Fernand	-9.18981
▁Rei	-9.18999
▁Existe	-9.19034
▁presente	-9.19062
▁respecto	-9.191
▁Castro	-9.19167
▁continua	-9.19346
▁Neste	-9.19472
▁filla	-9.19473
▁Francisco	-9.19636
▁Má	-9.19695
▁colonia	-9.19732
▁Outra	-9.19839
▁Antoni	-9.20114
mbos	-9.20307
▁corrente	-9.20591
▁fose	-9.20765
▁composto	-9.20779
▁levou	-9.20885
▁2001	-9.20958
▁2002	-9.21161
▁nunc	-9.21312
▁romana	-9.2143
▁sete	-9.2157
▁adoita	-9.2161
▁26	-9.21658
▁artista	-9.21677
▁agora	-9.21976
▁fan	-9.22039
ante	-9.22131
▁existe	-9.22165
▁directa	-9.22211
▁sede	-9.22233
▁montaña	-9.2235
▁árabe	-9.22373
olos	-9.22381
c	-9.22391
▁modo	-9.22498
▁India	-9.22546
▁semana	-9.22574
▁utiliza	-9.22786
▁29	-9.22849
▁Paul	-9.22902
▁local	-9.23039
▁artigo	-9.23108
▁gañou	-9.2318
ac	-9.23297
▁razón	-9.23386
▁existencia	-9.23551
▁frecuente	-9.23558
▁consecuencia	-9.23595
▁cabeza	-9.23637
ter	-9.23682
▁numeroso	-9.23875
▁León	-9.24254
▁idade	-9.24291
▁casos	-9.24345
▁inverno	-9.24364
▁terceiro	-9.24364
▁conflito	-9.24375
▁póde	-9.24422
▁crítica	-9.24434
▁su	-9.24577
▁vista	-9.24578
▁investigación	-9.24583
▁Nos	-9.24791
▁realizar	-9.24806
▁man	-9.24907
▁condado	-9.24999
▁185	-9.25097
▁división	-9.25566
▁económico	-9.25636
▁pública	-9.25707
▁avión	-9.25893
▁figura	-9.25896
▁Casa	-9.26168
uan	-9.26206
▁linguaxe	-9.26333
▁premio	-9.26421
nia	-9.26613
▁exterior	-9.26708
▁Chin	-9.26747
▁60	-9.26932
x	-9.2703
▁material	-9.27105
▁bastante	-9.27214
▁Da	-9.27237
▁realidade	-9.27357
co	-9.2765
▁campaña	-9.27723
▁porta	-9.27863
▁literatura	-9.28012
ga	-9.28112
▁fundamental	-9.28559
▁País	-9.28818
tbol	-9.29037
▁natureza	-9.29108
▁pintura	-9.29182
▁distancia	-9.29184
el	-9.29312
▁escrita	-9.29403
▁concerto	-9.29543
▁van	-9.29581
▁lonxitude	-9.29699
▁mor	-9.29701
▁2008	-9.29753
▁maneira	-9.30002
▁comunicación	-9.30315
▁dominio	-9.30517
▁distinta	-9.30591
▁variedade	-9.30666
▁roc	-9.30819
▁ling	-9.3084
▁soa	-9.30976
▁mes	-9.30986
▁produtos	-9.31139
▁había	-9.31662
▁humana	-9.31818
▁1990	-9.31948
▁fór	-9.32101
▁distinto	-9.32172
▁diferenza	-9.32198
▁pasar	-9.32284
▁180	-9.32352
▁Xap	-9.32413
▁Santo	-9.32494
▁ministro	-9.32553
▁motivo	-9.32554
▁Tam	-9.32581
▁Estas	-9.32595
▁longa	-9.32637
ís	-9.32681
▁marca	-9.32724
▁estrela	-9.32889
ne	-9.32988
▁económica	-9.33008
▁2014	-9.3302
▁Nesta	-9.33168
▁produce	-9.33318
▁Lond	-9.33358
▁club	-9.33394
▁formado	-9.33478
d	-9.33492
▁coñecemento	-9.33683
▁conserva	-9.33868
▁comercial	-9.33971
▁Barcelon	-9.34062
▁voto	-9.34243
h	-9.34398
▁planeta	-9.34467
▁doutro	-9.34476
▁levar	-9.34537
▁numerosa	-9.34555
▁entrada	-9.34733
▁autoridade	-9.34754
C	-9.34811
▁rede	-9.34956
▁inicio	-9.34983
▁semellante	-9.35034
▁similar	-9.35182
▁etapa	-9.35208
▁deixou	-9.35336
▁Internacional	-9.35423
▁atopar	-9.35554
▁recibe	-9.35963
▁mediado	-9.36228
▁Do	-9.3631
▁comercio	-9.36359
▁crear	-9.36365
▁distrito	-9.36378
▁ampla	-9.36522
▁Exi	-9.3685
▁dá	-9.3686
▁madeira	-9.36861
▁peza	-9.36922
▁moderna	-9.37044
▁quilómetro	-9.37072
▁arma	-9.3712
▁italiano	-9.37152
▁presenta	-9.37293
▁relixión	-9.37472
▁terceira	-9.37552
▁atopa	-9.3777
▁Ro	-9.37821
▁80	-9.3792
▁31	-9.38062
▁Baixo	-9.38116
▁realizou	-9.38195
▁chegada	-9.38262
b	-9.38462
▁televisión	-9.38731
▁reforma	-9.39028
▁Brasil	-9.39083
▁fondo	-9.39138
▁fase	-9.39171
ión	-9.39362
▁relativa	-9.39362
▁símbolo	-9.39412
▁bo	-9.39428
▁xeneral	-9.39456
p	-9.39479
▁Lug	-9.39515
▁festa	-9.39625
▁onda	-9.39765
▁puid	-9.40227
▁constante	-9.40333
▁alimento	-9.40428
▁carga	-9.40512
▁profesor	-9.40631
▁escribiu	-9.4072
▁enfermidade	-9.40809
▁2013	-9.40812
▁Consello	-9.40905
▁fala	-9.40911
▁cultural	-9.40926
▁musical	-9.41085
▁branco	-9.4114
▁mosteiro	-9.41313
▁organismo	-9.41314
▁instrumento	-9.41389
trá	-9.41479
▁podería	-9.41519
▁categoría	-9.41557
▁Media	-9.41587
▁pertencente	-9.41606
▁composición	-9.41779
ado	-9.4202
▁2010	-9.42069
▁Deus	-9.42098
et	-9.42208
▁estrada	-9.4231
▁gas	-9.4237
▁institución	-9.42395
▁reinado	-9.424
▁rúa	-9.424
▁500	-9.42616
▁destaca	-9.42763
▁europea	-9.42899
▁leva	-9.43041
▁xefe	-9.43056
▁presión	-9.43117
▁Constitución	-9.43161
▁2009	-9.43204
▁publicación	-9.43278
▁bispo	-9.43322
▁conseguir	-9.43355
▁fenómeno	-9.43407
▁monte	-9.43407
▁histórico	-9.43407
▁árbore	-9.43417
ceu	-9.43498
▁representa	-9.43578
▁padrón	-9.43666
▁permanece	-9.43702
▁Nas	-9.43831
▁réxime	-9.43918
▁formula	-9.4396
▁barco	-9.44091
▁física	-9.44162
▁Ouren	-9.44266
▁forman	-9.44462
go	-9.44546
▁181	-9.44675
▁altitude	-9.44861
▁inicial	-9.44964
▁capela	-9.44968
▁metal	-9.45014
▁decidiu	-9.45057
▁Monte	-9.45063
▁Ba	-9.45179
▁dar	-9.45322
▁extremo	-9.45466
▁Coa	-9.45569
▁ouro	-9.45627
▁deseño	-9.45668
▁límite	-9.45726
▁t	-9.45729
▁2011	-9.45731
▁cuarto	-9.46075
▁grao	-9.46163
▁contacto	-9.46349
▁1991	-9.46395
▁americano	-9.46424
▁tiver	-9.46473
▁frecuencia	-9.46651
▁Actual	-9.46862
▁Canad	-9.46974
▁constitúe	-9.47039
▁producir	-9.47061
▁70	-9.47149
▁quedou	-9.47263
▁miúdo	-9.47303
▁ningunha	-9.47311
▁estación	-9.47453
▁traballar	-9.47474
▁Grande	-9.47487
▁Polo	-9.47601
▁selección	-9.47752
▁pouca	-9.47756
▁manter	-9.47792
▁esquerda	-9.47866
▁Final	-9.47869
▁calidade	-9.4795
▁Vila	-9.48121
▁templo	-9.48139
▁soldado	-9.48225
▁cuxa	-9.4828
que	-9.4836
▁habitual	-9.48408
▁Bo	-9.48497
▁Di	-9.48571
▁aquel	-9.4869
▁vía	-9.4878
▁bosque	-9.4886
▁poeta	-9.49022
▁90	-9.49078
▁inferior	-9.49176
▁empresa	-9.49199
▁nese	-9.4931
▁curso	-9.4936
ontevedr	-9.49378
▁teatro	-9.49392
▁tratado	-9.49684
▁municipio	-9.49716
▁XVII	-9.49813
▁considerada	-9.49842
▁dólar	-9.49897
▁deixa	-9.49928
ita	-9.50025
▁voo	-9.50039
▁1980	-9.50087
▁beira	-9.50467
▁futuro	-9.50477
▁piloto	-9.50591
éxico	-9.50797
▁trono	-9.509
▁viu	-9.50931
▁posibilidade	-9.50991
▁Ben	-9.51037
▁mans	-9.5108
▁Era	-9.51087
▁ponte	-9.51127
ard	-9.51135
▁transporte	-9.51192
▁obtiv	-9.51244
▁mal	-9.51366
▁clara	-9.51529
▁libros	-9.51582
▁Galega	-9.51644
▁200	-9.51677
▁182	-9.5178
▁relixiosa	-9.51841
▁será	-9.51874
▁continente	-9.51904
▁derrota	-9.51978
▁Congreso	-9.52004
▁recurso	-9.52009
▁noite	-9.52081
▁conquista	-9.52107
▁terreo	-9.52189
▁imperio	-9.52202
▁representación	-9.52296
▁usa	-9.52516
▁perda	-9.52664
▁podía	-9.5273
▁cuxo	-9.52841
▁entrou	-9.52902
▁defensa	-9.53015
antes	-9.53082
▁sinxelo	-9.53156
▁frances	-9.53376
▁Xe	-9.53461
▁depende	-9.53487
▁1995	-9.53592
▁Goberno	-9.53778
▁comezar	-9.53819
▁evolución	-9.53883
▁ácido	-9.53945
▁radio	-9.53948
▁houb	-9.53951
▁Sol	-9.54007
▁parece	-9.54023
▁Filip	-9.54056
▁utilizado	-9.54079
▁creou	-9.54212
▁moderno	-9.54215
▁inclúe	-9.54301
▁próximo	-9.54345
▁aire	-9.54578
▁proteína	-9.54629
▁usado	-9.54715
▁falta	-9.54779
▁formada	-9.54909
▁castelán	-9.54984
▁necesidade	-9.55105
▁famoso	-9.55201
▁expedición	-9.55205
▁castelo	-9.55488
▁cadea	-9.55489
▁folla	-9.55517
▁produciu	-9.55572
▁expresión	-9.55587
alas	-9.55653
▁tomar	-9.55939
▁particip	-9.55984
ce	-9.56015
▁doutra	-9.56167
▁edificio	-9.56196
▁natura	-9.56358
▁Val	-9.56435
▁difícil	-9.56451
▁1996	-9.5655
▁Miguel	-9.56742
utores	-9.57044
▁océano	-9.57118
▁extensión	-9.57131
▁1998	-9.57133
▁aplicación	-9.57262
▁loca	-9.57318
▁nace	-9.57321
▁educación	-9.57331
▁filosofía	-9.57424
▁Academia	-9.57538
▁evitar	-9.57539
f	-9.57575
▁Australia	-9.57592
▁ruso	-9.57628
▁Lugar	-9.57689
▁36	-9.57778
▁formou	-9.57815
▁persoal	-9.57985
▁Ram	-9.58225
me	-9.58359
▁Todo	-9.58405
▁próxima	-9.58405
▁produto	-9.58835
ouse	-9.58969
dor	-9.59034
▁potencia	-9.59115
▁Río	-9.59201
▁vexeta	-9.59212
▁sufri	-9.59365
▁lago	-9.59535
▁coñece	-9.59636
▁fú	-9.59656
▁Mi	-9.59662
▁británica	-9.59696
▁probable	-9.59703
▁1994	-9.59799
▁acto	-9.59911
▁Luís	-9.601
▁nave	-9.60329
▁negro	-9.60396
▁alemá	-9.60611
▁dinastía	-9.60615
▁formas	-9.60634
▁Robert	-9.60635
▁Constantino	-9.60815
▁mostra	-9.60876
ización	-9.6091
▁publicado	-9.60972
▁documento	-9.61004
alí	-9.61051
▁científica	-9.61105
▁topónimo	-9.61106
▁Fran	-9.6113
▁Garc	-9.6116
▁invasión	-9.61207
▁actua	-9.61277
lo	-9.61293
▁veciño	-9.61512
▁cría	-9.61545
▁clasificación	-9.6173
124	-9.6174
▁per	-9.61741
▁arquitectura	-9.61743
▁medieva	-9.61829
▁150	-9.61917
▁grega	-9.61924
▁oriental	-9.62018
▁agricult	-9.62145
▁química	-9.62227
▁Ment	-9.62329
▁chan	-9.62407
▁dura	-9.62427
▁Nun	-9.62491
▁Europea	-9.62587
▁oposición	-9.62727
▁histórica	-9.62741
▁reacción	-9.62741
▁peso	-9.62753
▁mestre	-9.62837
▁venda	-9.62986
▁empregado	-9.63065
▁dereita	-9.63137
▁torre	-9.63148
▁distribución	-9.63154
▁individuo	-9.63154
▁ocupa	-9.632
▁Bret	-9.6332
▁crise	-9.63361
▁relixioso	-9.63491
▁obter	-9.63533
▁aparición	-9.63535
▁caza	-9.63541
▁experiencia	-9.63629
▁cobre	-9.63705
▁val	-9.63796
▁and	-9.63892
▁encontro	-9.63957
▁industrial	-9.6396
▁liberdade	-9.64403
ería	-9.64448
▁To	-9.64455
▁praia	-9.64625
▁Catalu	-9.64643
▁intento	-9.64811
▁noro	-9.64822
▁trala	-9.64823
▁mando	-9.64864
▁golpe	-9.64899
▁cultivo	-9.64928
▁escala	-9.64933
ma	-9.65003
arr	-9.65006
▁busca	-9.65063
▁península	-9.65144
▁resistencia	-9.65354
▁gobernador	-9.65577
▁factor	-9.65664
▁universidade	-9.65706
oito	-9.6585
▁1997	-9.65884
▁compoñente	-9.65889
▁Alexandr	-9.65907
▁Li	-9.65913
▁actor	-9.65968
▁composta	-9.65988
▁aves	-9.66005
▁aparecen	-9.66219
▁raí	-9.66293
tón	-9.66319
▁duro	-9.6636
▁seguir	-9.66377
▁Algunha	-9.66436
▁máximo	-9.66524
▁facend	-9.66602
▁sitio	-9.66628
▁fíxo	-9.6676
▁tribo	-9.66823
▁socia	-9.66985
▁órgano	-9.67059
▁1960	-9.6711
▁volume	-9.67273
ro	-9.67298
▁canle	-9.67404
▁branca	-9.67488
▁aldea	-9.67577
▁idioma	-9.67596
▁densidade	-9.67615
▁Xogo	-9.6762
▁emprega	-9.67643
▁poesía	-9.67705
▁paz	-9.67705
▁matrimonio	-9.67717
lla	-9.67894
▁Ante	-9.67951
▁contido	-9.6803
▁cae	-9.68204
▁Copa	-9.68255
▁administración	-9.68263
▁rapid	-9.68357
▁Parlament	-9.68358
▁representante	-9.68364
▁máxima	-9.68465
▁Debid	-9.68498
▁femia	-9.68572
▁escribir	-9.68737
▁estableceu	-9.68768
▁ruta	-9.68907
▁molécula	-9.69071
▁gañar	-9.69215
▁pé	-9.69266
▁Posterior	-9.69342
▁XII	-9.69366
▁operación	-9.69407
▁ocorre	-9.6942
▁solar	-9.69454
▁1993	-9.69455
▁apen	-9.69616
▁inclúen	-9.69621
▁1992	-9.69676
▁contén	-9.69731
▁Ponte	-9.69756
▁dialecto	-9.69783
▁ambiente	-9.69894
▁resposta	-9.69894
▁partícula	-9.69894
▁Xeral	-9.69919
va	-9.70023
▁pertence	-9.70027
▁Par	-9.7004
▁decisión	-9.70094
▁asentamento	-9.70119
▁Presidente	-9.70125
▁coroa	-9.70147
ística	-9.70228
▁cousas	-9.70234
▁batería	-9.70237
▁terrestre	-9.70338
▁católica	-9.70338
▁desenvolveu	-9.70515
▁entrar	-9.70526
cio	-9.70528
▁Popular	-9.70672
tención	-9.70712
▁Moito	-9.7073
▁inclus	-9.70819
▁Air	-9.71001
▁caída	-9.7102
▁cámara	-9.71119
▁tecnoloxía	-9.71178
▁negra	-9.71231
▁volver	-9.71248
cm	-9.71279
▁vivi	-9.71292
▁converter	-9.71347
▁corte	-9.71391
▁Pode	-9.71446
▁diferente	-9.7158
▁doce	-9.7158
▁Lei	-9.71611
▁necesario	-9.71681
▁baseada	-9.71716
▁cristián	-9.71719
tase	-9.71738
▁fundou	-9.7181
▁tomou	-9.71821
S	-9.7184
▁nenos	-9.71919
▁1989	-9.72022
▁Arxentin	-9.72246
í	-9.72289
▁delas	-9.72298
▁p	-9.72328
▁VII	-9.72652
▁definición	-9.72934
▁recoñecemento	-9.72941
▁macho	-9.72946
▁plano	-9.72954
▁ir	-9.73002
▁fundador	-9.73019
▁300	-9.73051
▁nacemento	-9.73094
▁oficia	-9.73129
▁significado	-9.73196
bilidade	-9.73217
eira	-9.73221
ung	-9.73263
▁179	-9.73461
▁Atlántico	-9.735
▁Soviética	-9.73511
xo	-9.73526
▁Cada	-9.73532
▁consiste	-9.73555
▁continuou	-9.73644
▁españo	-9.73699
▁Pola	-9.73933
▁combate	-9.73936
▁anual	-9.74047
▁vo	-9.74149
▁substancia	-9.74174
▁activa	-9.74192
▁toma	-9.74196
▁praza	-9.74198
▁fixer	-9.74259
▁Corte	-9.74329
A	-9.74351
▁1936	-9.74357
acífico	-9.74532
▁regular	-9.74569
▁logrou	-9.74603
soft	-9.74654
▁matemática	-9.7477
▁revolución	-9.74773
▁raíña	-9.74788
▁procedente	-9.74818
▁escena	-9.74824
ido	-9.75194
▁norma	-9.75235
▁construír	-9.75245
sús	-9.75371
▁ciclo	-9.75442
▁marcha	-9.75523
▁desenvolver	-9.75525
▁barrio	-9.75526
▁dobre	-9.75659
▁labor	-9.75689
▁calendario	-9.75705
▁xudeu	-9.75718
▁Go	-9.7574
▁carta	-9.75809
▁príncipe	-9.75822
▁taxa	-9.75822
▁varía	-9.75857
▁nobre	-9.75884
▁morto	-9.75901
▁liga	-9.75927
▁exemplar	-9.75939
▁estudante	-9.7597
▁Primeira	-9.7601
ú	-9.76145
▁honra	-9.76175
▁sucesor	-9.7627
▁Porto	-9.76296
té	-9.76436
▁denominado	-9.7648
▁David	-9.76531
▁ferro	-9.76554
▁saúd	-9.76606
▁acceso	-9.76643
▁amigo	-9.76654
▁contrario	-9.77041
▁usar	-9.77114
▁Cristo	-9.77133
▁practica	-9.77139
▁Austria	-9.77168
▁favor	-9.77223
▁historiador	-9.77281
▁lenda	-9.77352
▁establecer	-9.77404
▁persa	-9.77421
▁arquipélago	-9.77565
▁poida	-9.77675
▁feita	-9.77724
▁alfabeto	-9.77732
▁denominación	-9.77784
▁1986	-9.77841
▁sabe	-9.77877
▁clásica	-9.77958
▁breve	-9.7798
▁sección	-9.78039
▁vivo	-9.78086
▁directo	-9.78129
▁selo	-9.78398
▁construído	-9.78444
▁2012	-9.78455
▁competición	-9.7847
órmula	-9.78555
▁precisa	-9.78659
▁noutro	-9.78681
▁Arte	-9.78741
▁32	-9.78809
▁actuación	-9.78899
▁35	-9.78905
riente	-9.78947
▁hitita	-9.79288
▁iniciou	-9.79354
▁inglesa	-9.79365
▁regreso	-9.79524
▁eléctrica	-9.79563
▁xeración	-9.79856
▁tale	-9.79969
▁personaxes	-9.79995
▁c	-9.8005
▁considera	-9.80098
▁deporte	-9.80158
▁mellore	-9.80177
▁cine	-9.80339
▁queda	-9.80511
▁parella	-9.80513
▁Irland	-9.80634
▁debía	-9.80647
▁resulta	-9.80729
▁cuestión	-9.80756
▁código	-9.80757
▁deixar	-9.80843
▁nación	-9.80856
▁peixe	-9.81004
▁nalgún	-9.81006
▁censo	-9.8116
▁unión	-9.81346
▁Isabel	-9.81379
▁fundada	-9.81392
▁178	-9.81613
▁guitarra	-9.81624
▁descubrimento	-9.81696
▁interna	-9.81727
▁xurdi	-9.81873
▁completo	-9.81899
ria	-9.81925
▁publica	-9.81987
▁Navarr	-9.82017
▁plan	-9.82093
tivo	-9.8212
▁campionato	-9.82123
▁físico	-9.82123
▁Escola	-9.82127
▁Su	-9.82138
▁tendencia	-9.82263
eb	-9.82285
▁Ata	-9.82304
▁proposta	-9.82373
▁nove	-9.82394
▁músico	-9.82499
▁coche	-9.82536
▁Centra	-9.82878
▁rura	-9.82888
▁Xer	-9.82906
▁pasado	-9.82968
▁expansión	-9.83003
▁Grec	-9.83045
▁carne	-9.83124
▁clásico	-9.83129
▁respectiva	-9.83129
▁saída	-9.83138
▁ve	-9.83199
▁Nese	-9.83398
▁suro	-9.83481
▁científico	-9.83514
▁froito	-9.83542
▁Museo	-9.83543
eza	-9.83554
▁177	-9.83582
▁máquina	-9.83637
▁dirixida	-9.8364
▁grave	-9.83712
▁75	-9.83724
▁personaxe	-9.83788
▁Al	-9.83789
aquí	-9.83888
▁república	-9.8389
▁for	-9.83903
▁Fernández	-9.84023
▁anunciou	-9.84121
▁te	-9.84125
▁vivir	-9.84176
▁creado	-9.84353
▁x	-9.84356
▁1979	-9.84364
▁columna	-9.84426
▁muro	-9.84664
▁construída	-9.84785
▁comportamento	-9.8479
▁empresas	-9.84842
▁trata	-9.84856
▁mestura	-9.84873
▁relacionado	-9.84929
▁Revolu	-9.84979
▁baseado	-9.85096
ames	-9.85242
▁indica	-9.85334
▁amor	-9.85374
▁pensamento	-9.85441
alifornia	-9.85558
▁enorme	-9.85578
▁tratamento	-9.85594
▁1982	-9.85691
▁internaciona	-9.85727
▁Mur	-9.85849
▁análise	-9.86045
ela	-9.86065
▁sangue	-9.86207
▁deputado	-9.86263
▁musulmán	-9.86372
▁interpretación	-9.86514
▁coñecer	-9.86551
▁Gale	-9.86591
▁Ra	-9.86594
▁literaria	-9.86599
▁presentou	-9.86605
▁Centro	-9.8661
▁rocha	-9.86735
▁daquela	-9.86768
▁sol	-9.86845
▁destacan	-9.86858
▁consumo	-9.86882
▁localidade	-9.86888
▁médico	-9.86994
▁municipa	-9.87014
▁cuberta	-9.87124
▁vello	-9.87154
▁Papa	-9.87156
▁dema	-9.87163
ito	-9.87199
▁fachada	-9.87256
▁considerar	-9.87262
▁sitúa	-9.87271
▁colección	-9.87334
▁dado	-9.87352
▁Ese	-9.87452
▁Ni	-9.87452
▁45	-9.8747
▁visión	-9.87513
▁nord	-9.87582
▁movementos	-9.8769
▁estudar	-9.87797
leo	-9.87849
▁aeroporto	-9.87915
▁Trala	-9.87923
▁elas	-9.87935
▁Escoc	-9.87943
▁Tratado	-9.88051
▁irmá	-9.88067
ntes	-9.88094
▁utilizar	-9.88173
▁necesaria	-9.88182
amba	-9.88205
▁Nación	-9.88283
▁falar	-9.88295
oxe	-9.88338
▁marco	-9.8841
▁químico	-9.88581
▁cerca	-9.88637
▁noso	-9.88746
▁Bro	-9.88921
▁departamento	-9.88988
▁Can	-9.89094
▁turismo	-9.89116
▁dirixido	-9.89125
ill	-9.89141
▁Mali	-9.89155
▁xornal	-9.8918
riba	-9.89289
▁traballa	-9.89296
▁suficiente	-9.89385
pe	-9.89524
re	-9.89582
▁edificios	-9.89823
▁par	-9.89894
▁táboa	-9.89925
▁deben	-9.89955
▁comercia	-9.89961
▁dixo	-9.89972
▁Luis	-9.89992
▁1985	-9.90063
▁portugu	-9.90064
▁permanente	-9.90198
ragón	-9.90218
bo	-9.90269
▁aspecto	-9.90282
▁obst	-9.90318
▁Pouco	-9.90338
▁meta	-9.90383
▁tradiciona	-9.90397
▁aproba	-9.9043
▁pesca	-9.906
▁dez	-9.90601
▁George	-9.90603
▁compositor	-9.90603
▁estranxeiro	-9.90603
▁ámbito	-9.90604
▁po	-9.90635
▁existente	-9.90701
▁Romano	-9.90711
▁1987	-9.90743
▁Española	-9.90856
▁misión	-9.90867
▁Día	-9.9087
▁moeda	-9.90876
▁escudo	-9.90938
▁ex	-9.90949
▁viven	-9.91013
▁relato	-9.91053
▁vinte	-9.91073
▁400	-9.912
▁contrato	-9.91261
▁dificultade	-9.91425
▁1983	-9.91427
▁Aten	-9.91632
▁diante	-9.91705
▁estudio	-9.91836
▁noutra	-9.9184
▁Instituto	-9.91848
▁castro	-9.91866
illiam	-9.91896
▁segui	-9.91983
▁Liga	-9.9199
▁traballador	-9.92083
▁científicos	-9.92105
▁famosa	-9.92112
▁esforzo	-9.92146
▁pel	-9.92146
▁realiza	-9.92224
man	-9.92241
▁permitiu	-9.9233
▁profunda	-9.92527
▁nosa	-9.92548
▁seguiu	-9.92556
▁cento	-9.92665
▁ADN	-9.92666
▁participación	-9.92684
▁evento	-9.92716
▁33	-9.92807
▁provoca	-9.92845
▁verde	-9.92939
▁imposto	-9.92945
▁pintor	-9.93045
▁Suec	-9.93101
▁XV	-9.9312
▁Mais	-9.93174
▁ovo	-9.93474
▁esposa	-9.93503
▁denominada	-9.93521
▁Sá	-9.9368
▁provoc	-9.93872
▁mante	-9.9388
▁compañeiro	-9.93925
▁1988	-9.93928
▁concentración	-9.93949
▁destino	-9.94066
axe	-9.94169
pareceu	-9.94175
▁cores	-9.94225
▁Ministro	-9.94242
▁variante	-9.94314
▁contaba	-9.94433
▁campos	-9.94526
▁Sa	-9.94731
▁duque	-9.94915
▁cidadán	-9.94967
eiro	-9.95013
art	-9.95089
▁variación	-9.9517
▁poboado	-9.95193
▁Asemblea	-9.952
▁comunista	-9.95211
▁asociación	-9.95299
▁precipitación	-9.95343
nos	-9.95386
ban	-9.95412
▁rápido	-9.95485
▁constitución	-9.95519
▁car	-9.95618
enínsula	-9.96052
▁Cu	-9.96093
▁Martín	-9.96158
▁1976	-9.96158
ic	-9.96203
▁curta	-9.96203
▁mozo	-9.96206
▁produtor	-9.96345
▁crea	-9.96525
▁arquitecto	-9.96648
▁continúa	-9.96676
▁minutos	-9.96762
▁monarca	-9.9678
▁estándar	-9.96785
▁relacionada	-9.96824
▁nuclear	-9.96926
▁cantante	-9.96953
▁aí	-9.9703
▁inimigo	-9.9707
▁fábrica	-9.97071
▁nive	-9.97107
▁escravo	-9.97118
▁1977	-9.97169
▁dividida	-9.97218
ell	-9.97341
▁substituído	-9.97394
▁calor	-9.97422
pla	-9.97514
cía	-9.97524
▁realizada	-9.97565
▁participar	-9.97591
▁Tom	-9.97628
▁protección	-9.97653
▁bandeira	-9.97654
▁mm	-9.97675
ri	-9.97713
▁fundación	-9.97737
▁agrícola	-9.97748
▁0	-9.97849
IB	-9.97906
▁Berl	-9.98055
▁perdeu	-9.98116
▁descendente	-9.98134
▁Israel	-9.98239
▁dimensión	-9.98239
▁átomo	-9.98242
▁determinado	-9.98335
▁Cidade	-9.98371
▁entra	-9.98376
▁memoria	-9.98388
▁Virxe	-9.98533
▁vivía	-9.98534
▁recibir	-9.9857
▁arco	-9.98584
landi	-9.98586
nida	-9.98587
▁posesión	-9.98681
▁gravación	-9.98724
▁rematar	-9.98744
▁Cor	-9.98749
▁dividido	-9.98833
▁intención	-9.98846
▁Torre	-9.9897
▁catedral	-9.98993
▁diso	-9.99159
▁notable	-9.99162
▁figuras	-9.99238
▁xene	-9.99379
▁claro	-9.99386
▁ocupación	-9.99388
▁nela	-9.99406
íxeno	-9.99422
▁aliado	-9.99424
▁familiar	-9.99477
▁Asturia	-9.99491
▁1984	-9.99573
ccidente	-9.99601
▁producido	-9.99606
▁Novo	-9.99705
▁Eduard	-9.9972
▁Xunta	-9.99724
▁h	-9.99786
▁realizado	-9.99815
▁Deste	-9.9984
▁aquela	-10.0003
▁colaboración	-10.0015
▁correspondente	-10.0022
▁utilizada	-10.0028
▁vén	-10.0031
▁presidencia	-10.0032
▁Trá	-10.0033
▁activo	-10.0041
▁continenta	-10.0046
▁meirande	-10.0062
▁frota	-10.0062
▁Me	-10.0066
▁gaña	-10.0071
ashing	-10.0077
▁rexistro	-10.0093
▁coñeceu	-10.0096
▁integra	-10.0105
▁crítico	-10.0122
▁literario	-10.0122
▁mandato	-10.0123
▁ollo	-10.0124
▁Só	-10.0125
▁raza	-10.0127
▁mellora	-10.0134
▁Bos	-10.0147
▁trazo	-10.0153
▁segur	-10.0158
▁neno	-10.0166
▁Club	-10.0168
▁parque	-10.0169
▁urbano	-10.0175
presión	-10.0177
▁petró	-10.0183
▁responsable	-10.0183
▁nesa	-10.0185
▁38	-10.0188
▁diferenzas	-10.0196
▁catalán	-10.0204
▁exposición	-10.0214
▁aberta	-10.0214
▁1974	-10.0224
aría	-10.0227
▁Exército	-10.0229
▁residencia	-10.026
▁cristiá	-10.0265
▁elección	-10.0272
▁excepción	-10.0275
▁fabrica	-10.0277
ografía	-10.028
▁duración	-10.0287
ígu	-10.0288
▁destacar	-10.0291
▁1981	-10.0291
▁conde	-10.0293
▁prové	-10.0301
▁tradución	-10.0306
▁Albert	-10.0313
▁asunto	-10.0321
▁profesional	-10.034
amp	-10.0347
▁existía	-10.0367
▁recoñecido	-10.0367
▁xeo	-10.0368
▁cre	-10.0368
▁creada	-10.0373
▁especia	-10.0381
▁experimento	-10.0383
st	-10.0393
▁páxina	-10.0399
▁2016	-10.04
▁1973	-10.0412
▁instalación	-10.0416
▁f	-10.0424
▁candidato	-10.043
▁mantiv	-10.0437
▁recupera	-10.044
▁nacionalista	-10.045
▁falante	-10.045
alén	-10.0469
▁alcalde	-10.0477
▁monarquía	-10.0477
P	-10.0495
▁abundante	-10.051
▁trasladou	-10.0513
▁65	-10.0517
▁nativo	-10.0521
boa	-10.0521
▁torno	-10.0539
▁atmosfera	-10.0555
▁parede	-10.0557
▁Miño	-10.0562
▁Miss	-10.0566
▁portuguesa	-10.0571
▁Te	-10.0572
▁Island	-10.059
▁Olímpico	-10.059
▁opinión	-10.0593
ume	-10.0594
▁usada	-10.0596
▁lanzamento	-10.0604
▁radiación	-10.0605
▁pista	-10.0605
▁campión	-10.0635
▁acontecemento	-10.0652
▁socialista	-10.0656
▁acadar	-10.0661
▁August	-10.0667
▁ingles	-10.0673
▁aberto	-10.0676
▁vento	-10.0676
▁For	-10.0679
▁aspectos	-10.0688
▁presentan	-10.069
▁perde	-10.0693
rio	-10.0694
▁acabou	-10.0695
▁presentar	-10.0697
▁muralla	-10.0699
ver	-10.07
▁Rodr	-10.0703
▁ven	-10.0712
▁me	-10.0714
▁usuario	-10.0731
▁Occidental	-10.0731
▁rematou	-10.0731
▁pasaxeiro	-10.0732
▁casas	-10.0734
▁monumento	-10.0747
▁curto	-10.0747
tiño	-10.0751
ó	-10.0764
▁poemas	-10.0776
▁capitán	-10.0779
▁disputa	-10.078
▁deriva	-10.0785
▁publicada	-10.0786
▁paisaxe	-10.0796
▁facía	-10.0798
▁aumenta	-10.0808
▁tarefa	-10.0812
▁discurso	-10.0812
▁xogar	-10.0813
▁Fin	-10.0832
ge	-10.0837
▁Mediterráneo	-10.0844
▁episodio	-10.0844
▁avance	-10.086
▁administrativa	-10.086
▁prensa	-10.086
▁asasinado	-10.0861
▁altas	-10.0863
▁posta	-10.0863
▁filósofo	-10.0863
▁san	-10.0874
▁culto	-10.0877
▁contexto	-10.088
▁ecuación	-10.0881
▁Pér	-10.0882
▁consello	-10.0883
▁Ferrol	-10.0893
▁dirixiu	-10.0898
land	-10.0907
▁inmediata	-10.091
▁pazo	-10.0911
▁erro	-10.0916
▁Man	-10.0925
▁secuencia	-10.0926
▁azucre	-10.0926
▁dalgún	-10.0926
▁debuxo	-10.0944
enrique	-10.0944
▁160	-10.095
▁circuíto	-10.0959
▁Cruz	-10.096
▁ría	-10.0963
▁revolta	-10.0975
▁pais	-10.0979
▁construíu	-10.0983
▁declarou	-10.0993
▁crenza	-10.0993
▁saíu	-10.1
▁i	-10.1004
unha	-10.1007
▁nalgunha	-10.1007
▁civilización	-10.101
▁2015	-10.101
xica	-10.1016
▁cousa	-10.1027
▁indíxena	-10.1041
iana	-10.1056
▁Cá	-10.1058
▁prodúce	-10.1058
▁torneo	-10.1058
▁Galego	-10.1059
▁mariña	-10.1061
▁Primeir	-10.1067
▁museo	-10.1091
▁mecánica	-10.1092
▁acadou	-10.1094
▁Ri	-10.1095
▁Cuba	-10.1095
▁exclusiva	-10.1101
ord	-10.1106
▁podían	-10.1111
▁proximidade	-10.1125
▁complexo	-10.1125
▁prezo	-10.1126
puxo	-10.1127
▁visita	-10.113
vo	-10.1131
▁Comunista	-10.1142
▁Asociación	-10.116
▁supux	-10.1168
▁atopou	-10.1192
▁carbono	-10.1192
G	-10.1198
▁chama	-10.1202
▁suma	-10.1208
▁mecanismo	-10.1209
▁cruceiro	-10.1209
▁amplo	-10.1213
▁b	-10.1215
▁cruz	-10.122
▁vive	-10.1223
▁Cultura	-10.1226
▁riqueza	-10.1226
▁democrática	-10.1242
▁sexual	-10.1247
▁Dereito	-10.1262
ada	-10.127
▁autonomía	-10.1274
▁extrema	-10.1276
▁consegue	-10.1276
rán	-10.1277
▁cadrado	-10.1278
▁Divisi	-10.1285
▁diario	-10.1292
▁patrón	-10.1293
▁cristian	-10.1293
▁observación	-10.1299
▁actri	-10.1303
▁participa	-10.1316
▁saír	-10.1322
▁aparecer	-10.1343
▁valore	-10.1344
▁signo	-10.1345
▁120	-10.1346
▁pan	-10.1351
▁37	-10.1351
▁terzo	-10.1353
▁formato	-10.1353
▁fe	-10.1354
▁converténdo	-10.1362
▁fortaleza	-10.1379
▁nel	-10.138
▁continuar	-10.1387
▁determinada	-10.1398
▁nota	-10.1401
ean	-10.141
▁demasiado	-10.1413
▁adiante	-10.1413
▁Orde	-10.1421
▁Estudou	-10.1426
▁Record	-10.1446
gás	-10.1448
▁niño	-10.1449
▁so	-10.1456
▁ingreso	-10.146
▁viru	-10.1468
▁secretario	-10.1471
▁urbana	-10.1473
iano	-10.1496
▁costume	-10.15
▁Socialista	-10.15
▁lixeira	-10.1525
▁mantén	-10.1527
▁corda	-10.1531
▁cabalo	-10.1532
▁formal	-10.1535
▁mali	-10.1538
▁perigo	-10.154
▁accidente	-10.1545
▁176	-10.1549
▁48	-10.1554
▁reserva	-10.1556
▁marxe	-10.1561
▁procura	-10.1567
▁incluído	-10.157
▁fracaso	-10.157
▁cadro	-10.157
quí	-10.1588
▁debería	-10.1591
▁López	-10.1605
▁frío	-10.1605
▁profundidade	-10.1605
▁perder	-10.1606
▁ensino	-10.1619
▁estreita	-10.1622
▁Los	-10.1631
▁64	-10.1632
▁volve	-10.1636
▁significativa	-10.1658
▁xornalista	-10.166
pouco	-10.1668
▁celébra	-10.1675
▁bloque	-10.1676
ino	-10.1678
▁bizantino	-10.1693
▁dúbida	-10.1693
▁empregar	-10.1694
▁placa	-10.1711
▁chaira	-10.1715
▁universal	-10.1717
▁italiana	-10.1728
▁Sen	-10.173
▁deuse	-10.1741
▁débe	-10.1745
▁von	-10.1747
▁result	-10.1748
▁Sobre	-10.1749
▁posíbe	-10.1764
▁círculo	-10.1764
▁tensión	-10.1771
▁tocar	-10.1775
▁atopan	-10.1778
anto	-10.1778
▁señor	-10.178
estival	-10.179
temos	-10.1791
▁católico	-10.18
▁exilio	-10.18
▁franco	-10.1801
▁Michael	-10.1818
▁inscrición	-10.1818
▁emisión	-10.1825
▁area	-10.1834
▁Limit	-10.1834
▁universo	-10.1836
▁Charles	-10.1853
▁elevada	-10.1854
▁Suíz	-10.1859
▁medicina	-10.1872
▁600	-10.1883
▁vermella	-10.189
tein	-10.1895
▁liderado	-10.191
cher	-10.1914
▁destacado	-10.1926
tura	-10.1929
nova	-10.1931
ue	-10.1931
▁Ibéric	-10.1936
▁exerce	-10.1948
▁rápida	-10.1962
▁impacto	-10.1962
▁Edi	-10.1964
▁Vasco	-10.1966
▁desaparece	-10.197
▁Lis	-10.1971
▁ocupar	-10.1976
▁latino	-10.1991
▁occidenta	-10.1993
▁policía	-10.1999
▁auto	-10.2003
▁editado	-10.2019
▁Moita	-10.202
▁naciona	-10.2028
▁tería	-10.2034
▁raio	-10.2036
▁escultura	-10.2037
▁celular	-10.2037
▁finalizar	-10.2038
▁Bill	-10.2041
ol	-10.2051
▁elevado	-10.2055
▁miña	-10.2056
nel	-10.2058
▁34	-10.2061
tra	-10.2066
▁órbita	-10.209
▁seguido	-10.2094
▁orixina	-10.2096
▁azul	-10.2096
▁nó	-10.2104
▁1972	-10.2105
▁divíde	-10.2109
▁corazón	-10.2109
▁considerable	-10.2109
▁Ciencia	-10.211
▁esencial	-10.2112
▁desexo	-10.212
riano	-10.2128
céano	-10.213
▁permitir	-10.2137
▁có	-10.2151
▁americana	-10.2152
▁Aire	-10.2159
▁asociado	-10.2166
▁levaba	-10.2168
▁deserto	-10.2171
▁55	-10.2179
▁amigos	-10.2182
ira	-10.2202
▁remata	-10.2206
eland	-10.2208
▁explotación	-10.2213
▁definitivamente	-10.2213
▁corresponde	-10.2213
▁mensaxe	-10.2218
▁Serra	-10.2218
▁rama	-10.2226
▁escasa	-10.2234
▁lonxe	-10.224
▁axi	-10.2248
▁eléctrico	-10.2251
ran	-10.2258
▁vermello	-10.2258
▁Ed	-10.2265
▁cifra	-10.2276
▁enfrontamento	-10.2277
▁dito	-10.2278
▁Thom	-10.2278
▁celta	-10.2281
▁imperial	-10.2289
▁teña	-10.2291
▁norteamericano	-10.2295
▁transición	-10.2295
▁xaponesa	-10.23
▁39	-10.2302
▁emprego	-10.2304
▁fundado	-10.231
▁evidencia	-10.2322
▁42	-10.2338
▁gravado	-10.2339
▁Lú	-10.2349
avera	-10.235
▁diámetro	-10.2352
▁hidróxeno	-10.2352
▁risco	-10.2364
▁antig	-10.2368
▁global	-10.2369
▁estreito	-10.2369
▁privada	-10.2371
▁representan	-10.2371
all	-10.2382
▁roda	-10.2382
▁In	-10.2388
▁cerebro	-10.239
▁cálculo	-10.239
▁establece	-10.2394
▁crecente	-10.2398
▁derivado	-10.2399
▁bacteria	-10.2401
▁pobre	-10.2405
▁800	-10.2405
baixo	-10.2413
onia	-10.2417
▁Campionato	-10.2428
▁xunta	-10.2436
▁desenvolvido	-10.2447
▁turco	-10.2447
▁tecido	-10.2447
▁recuperar	-10.2455
▁tratar	-10.2462
▁Toda	-10.2462
▁Guillerm	-10.2466
▁estata	-10.2469
▁verdade	-10.247
▁musica	-10.2479
▁protesta	-10.248
▁44	-10.2491
▁documenta	-10.2491
▁Gonz	-10.2496
▁fusión	-10.2504
▁tropica	-10.2505
▁soberan	-10.2507
▁alianza	-10.2507
▁separada	-10.2508
▁manifestación	-10.2513
▁Ribad	-10.2521
▁derrotado	-10.2522
▁matemático	-10.2523
▁relevo	-10.2523
▁protagonista	-10.2524
▁descubriu	-10.2531
▁vehículo	-10.2543
▁equivalente	-10.2544
▁demanda	-10.2544
▁voga	-10.2545
▁poboada	-10.2547
▁leite	-10.255
▁xerais	-10.2553
▁artística	-10.2562
▁parcial	-10.2573
▁saber	-10.2575
▁sub	-10.2577
▁le	-10.2579
▁metropolitana	-10.2581
▁localizada	-10.26
▁técnico	-10.2601
use	-10.2605
▁identidade	-10.262
▁liberal	-10.2636
▁litora	-10.264
▁republicano	-10.2643
▁converte	-10.2643
▁poema	-10.2644
tanto	-10.2658
lt	-10.2664
▁poderían	-10.2674
▁choiva	-10.2679
▁ameaza	-10.2679
▁publicar	-10.2679
▁escenario	-10.2679
▁Salvado	-10.268
▁lanzado	-10.2681
▁43	-10.2685
▁Nada	-10.2697
ero	-10.2698
▁funcionamento	-10.2701
▁separado	-10.2704
▁disto	-10.2714
▁electrón	-10.2716
ade	-10.2718
▁dita	-10.2722
▁prat	-10.2735
▁chamar	-10.2736
▁ángulo	-10.2738
▁concreta	-10.2738
▁fic	-10.2738
▁Max	-10.2738
ig	-10.2741
▁póden	-10.2742
▁Senado	-10.2742
▁ARN	-10.2747
▁asasinato	-10.2757
▁rica	-10.276
▁Bél	-10.2761
▁solución	-10.2767
pa	-10.277
▁absoluta	-10.2773
▁tren	-10.2779
▁Mundo	-10.2779
▁presa	-10.2782
▁comun	-10.2784
▁46	-10.2785
▁seren	-10.2788
ésar	-10.279
▁xeográfica	-10.2797
▁restante	-10.2798
▁Marco	-10.2799
▁sae	-10.2802
▁meu	-10.2802
▁haber	-10.2813
▁170	-10.282
▁bordo	-10.2822
▁chegan	-10.2826
▁Gu	-10.2829
▁Federación	-10.283
▁electora	-10.2832
avier	-10.2833
▁civ	-10.2834
▁legal	-10.2835
▁abandonar	-10.2836
▁guitarrista	-10.2836
riental	-10.2843
▁lagoa	-10.2845
▁celebración	-10.2848
▁homenaxe	-10.2856
nimal	-10.2857
▁retirada	-10.2857
▁estadio	-10.286
▁quinto	-10.2862
▁temporal	-10.287
▁175	-10.287
leccións	-10.2872
▁espada	-10.2876
▁sexo	-10.2879
▁Mil	-10.2883
▁sala	-10.2896
▁Ver	-10.2897
▁Valencia	-10.2905
▁Louis	-10.2913
▁cerimonia	-10.2916
▁ritmo	-10.2916
▁múltiple	-10.2921
▁proxectos	-10.2923
▁afluente	-10.2936
▁describe	-10.2936
▁hipótese	-10.2936
▁fórmula	-10.2937
▁desa	-10.2946
▁Teatr	-10.2949
▁g	-10.2957
▁Comunidade	-10.2958
licio	-10.296
▁Vicent	-10.2963
▁aumentar	-10.2964
▁47	-10.2972
▁convérte	-10.2976
▁alternativa	-10.2976
▁Mosco	-10.2978
ación	-10.298
▁pluma	-10.2997
▁comida	-10.2997
OE	-10.3
▁gole	-10.3008
▁complexa	-10.3012
▁lanzou	-10.3017
ato	-10.3025
▁separación	-10.3029
▁desenvolve	-10.303
▁152	-10.3046
▁descrición	-10.3046
lez	-10.305
▁escura	-10.3053
▁parlamento	-10.3057
ling	-10.306
▁Chile	-10.3063
▁Pe	-10.3076
▁dispositivo	-10.3078
▁escritura	-10.3078
▁bronce	-10.3078
rich	-10.309
▁Fillo	-10.309
quez	-10.3094
▁meridiona	-10.3098
▁Napoleón	-10.3098
▁democracia	-10.3101
gt	-10.3101
nce	-10.3106
▁fotografía	-10.3118
▁Don	-10.3134
BA	-10.3138
▁debate	-10.314
▁Ouro	-10.3142
▁Cal	-10.3146
▁cambiar	-10.3154
▁Ar	-10.3157
▁secundario	-10.3159
▁localización	-10.3174
▁Turqu	-10.3181
▁procede	-10.3188
▁Lo	-10.3194
ie	-10.3196
▁artístico	-10.32
▁Radio	-10.3201
▁reunión	-10.3201
▁variable	-10.3203
▁obrigado	-10.3208
▁vella	-10.3213
ego	-10.3214
▁chamou	-10.3219
▁ditadura	-10.3222
▁consideraba	-10.3225
▁empregada	-10.3231
▁regras	-10.3231
▁latina	-10.3246
sido	-10.3253
▁56	-10.3258
▁prim	-10.326
▁descuberto	-10.3262
▁líquido	-10.3262
am	-10.3263
▁Rosa	-10.3263
▁mariño	-10.3265
▁ocupada	-10.3272
▁interacción	-10.3283
▁ensaio	-10.3284
▁Tre	-10.3289
breza	-10.3295
vez	-10.3296
▁toca	-10.3298
▁considéra	-10.3299
▁41	-10.33
▁enviou	-10.3302
▁cuarta	-10.3304
▁exacta	-10.3304
▁bi	-10.3305
▁transformación	-10.3309
▁conferencia	-10.3311
▁volcán	-10.332
▁unir	-10.332
▁Provincia	-10.3325
▁solitario	-10.3325
▁Desta	-10.3339
▁herdeiro	-10.3342
▁149	-10.3352
ppi	-10.3365
▁...	-10.3367
▁rusa	-10.3368
▁natal	-10.3371
▁sinal	-10.3371
▁Fo	-10.3385
▁previa	-10.3388
▁lume	-10.3389
▁producida	-10.3391
▁recolle	-10.3393
▁espírito	-10.3395
▁soviético	-10.343
▁consta	-10.3438
issi	-10.3438
▁rectangular	-10.3451
▁doutrina	-10.3451
▁colonos	-10.3451
▁estable	-10.3456
▁rico	-10.3462
▁comezan	-10.3467
▁competencia	-10.3472
▁rango	-10.3472
▁ocupou	-10.3473
▁interno	-10.3485
ñen	-10.3487
▁libera	-10.3489
▁ausencia	-10.3493
▁intervención	-10.3493
▁empezou	-10.3496
▁inmigrante	-10.3519
▁afirma	-10.3523
fama	-10.3526
est	-10.353
▁Dinamarca	-10.3535
▁rebelión	-10.3536
▁tornou	-10.3536
▁serra	-10.3545
▁serve	-10.3546
▁determinar	-10.3547
▁sofre	-10.3549
▁dela	-10.3554
▁federal	-10.3557
▁biblioteca	-10.3557
▁vantaxe	-10.3557
▁abandonou	-10.356
▁André	-10.3562
▁dominante	-10.3564
▁1,	-10.3574
▁descuberta	-10.3578
▁acepta	-10.3599
▁autónoma	-10.36
▁útil	-10.36
▁insecto	-10.3601
▁enviado	-10.3602
um	-10.3611
▁mamífero	-10.3621
▁xaponés	-10.3621
▁sonora	-10.3623
▁axudar	-10.3625
▁infan	-10.363
▁Manch	-10.3633
▁Ministerio	-10.3643
▁exipcio	-10.3643
olonia	-10.3659
▁perspectiva	-10.3664
▁básico	-10.3664
▁electrónico	-10.3664
▁Tol	-10.367
▁obten	-10.367
▁combinación	-10.3672
▁deus	-10.3679
▁Mariña	-10.3688
▁usan	-10.3697
▁empréga	-10.3707
▁palacio	-10.3707
▁costeira	-10.3708
▁53	-10.3714
▁minera	-10.3716
▁TV	-10.3723
▁fogar	-10.3723
▁terminou	-10.3732
▁clave	-10.3741
▁localizado	-10.3743
▁brazo	-10.3745
▁arqueolóxico	-10.3751
▁consérva	-10.3751
▁Xoan	-10.3753
▁pront	-10.3756
rez	-10.3765
▁seco	-10.3765
▁acabar	-10.3767
▁propósito	-10.3773
▁minoría	-10.3773
▁verdadeira	-10.3773
▁fluxo	-10.3778
▁potencial	-10.3783
▁santo	-10.3793
▁arcebispo	-10.3794
▁coalición	-10.3795
▁fósil	-10.3795
▁brillante	-10.3796
▁quería	-10.3796
▁seca	-10.3796
▁vías	-10.3799
▁ordenador	-10.38
ico	-10.3811
▁Sistema	-10.3816
▁Medio	-10.3819
▁Pa	-10.3821
lmente	-10.3829
▁Dou	-10.3836
▁frase	-10.3838
▁transmisión	-10.3838
▁verdadeiro	-10.3841
▁consideran	-10.3849
▁pre	-10.3849
▁estuda	-10.385
ood	-10.3858
▁Campo	-10.386
▁equilibrio	-10.386
▁quedar	-10.3872
▁derradeiro	-10.3882
▁ferrocarr	-10.3884
▁lograr	-10.3892
▁falada	-10.3895
▁suave	-10.39
▁prisioneiro	-10.3904
▁achega	-10.3905
▁lo	-10.3917
NG	-10.3923
▁Comezou	-10.3926
▁argumento	-10.3926
▁Póde	-10.3926
▁comandante	-10.3927
▁ceo	-10.3937
▁Cara	-10.3938
▁armada	-10.394
▁conteñ	-10.3941
▁Mon	-10.3943
▁Richard	-10.3949
▁enxeñeiro	-10.3949
▁xudicia	-10.3949
▁decidir	-10.3952
▁quiz	-10.3953
▁cat	-10.3971
▁económicas	-10.3972
ld	-10.398
▁asinou	-10.3983
▁crece	-10.3989
ráfico	-10.3989
▁maioritaria	-10.3993
▁marchou	-10.3993
▁suxeito	-10.3993
▁morrer	-10.3993
▁sext	-10.3999
▁alcanzar	-10.4009
▁Sociedade	-10.4011
TA	-10.4031
▁esperanza	-10.4031
▁deseñado	-10.4033
▁dalgunha	-10.4039
▁garda	-10.404
▁adaptación	-10.4041
illas	-10.4041
▁puidese	-10.4044
▁protestante	-10.4054
▁vídeo	-10.406
▁Costa	-10.4062
NE	-10.4066
ong	-10.4066
▁utilizan	-10.4072
at	-10.4073
▁millón	-10.4084
▁52	-10.4084
▁conto	-10.4085
▁asumi	-10.409
▁Cámara	-10.4107
lin	-10.4107
▁baía	-10.4108
▁verbo	-10.4108
bra	-10.4109
▁conexión	-10.4109
▁individual	-10.4115
evilla	-10.4122
▁titulado	-10.4128
▁testemuña	-10.4128
▁noticia	-10.4128
▁xoga	-10.4131
▁Franco	-10.4138
ilidade	-10.415
▁actúa	-10.4156
eorxia	-10.4157
▁representar	-10.4165
▁Mo	-10.4165
▁románica	-10.4173
▁falece	-10.4174
▁modificación	-10.4177
tal	-10.418
▁Alta	-10.4187
▁plena	-10.4192
▁secundaria	-10.4196
▁doenza	-10.4197
▁amizade	-10.4206
▁Boe	-10.4209
▁cambiou	-10.4211
tación	-10.4217
▁St	-10.4218
▁básica	-10.4219
▁incluída	-10.4219
▁licenza	-10.4219
▁Xunto	-10.4219
▁encargado	-10.4221
▁77	-10.4224
▁chin	-10.4224
▁específico	-10.4224
▁viño	-10.4226
azz	-10.4231
▁copias	-10.4234
▁portugues	-10.424
▁Bi	-10.424
▁intensa	-10.4241
▁49	-10.4242
▁canón	-10.4245
nza	-10.4249
▁moral	-10.425
▁vaca	-10.426
▁circula	-10.426
▁caracteríza	-10.4264
▁investigador	-10.4265
▁declaración	-10.428
▁sacerdote	-10.4285
▁Dan	-10.4296
▁dano	-10.4297
▁visible	-10.4297
▁57	-10.4302
ed	-10.4308
▁colexio	-10.431
▁sal	-10.4317
▁Tal	-10.4319
▁obriga	-10.432
▁PS	-10.4322
▁164	-10.4329
▁Core	-10.433
▁Carolina	-10.4341
▁Tour	-10.4347
▁Conde	-10.4351
▁gravar	-10.4356
▁rara	-10.4359
▁refíre	-10.436
▁adestrador	-10.4362
▁automóbil	-10.4369
▁solo	-10.4375
▁astro	-10.4381
▁proporción	-10.4382
iñeiro	-10.4387
nomía	-10.4392
▁indio	-10.4399
▁CD	-10.4405
▁outeiro	-10.4406
▁establecemento	-10.4407
▁Grazas	-10.4408
▁ancho	-10.4413
▁Cre	-10.4418
▁Tribuna	-10.4419
▁teatra	-10.4426
▁iniciativa	-10.4426
▁veciña	-10.4449
▁Concello	-10.4449
▁unido	-10.4454
▁centra	-10.4455
▁circular	-10.4461
▁Tri	-10.4469
▁encima	-10.4473
▁statu	-10.4473
▁neve	-10.4473
▁punta	-10.4475
▁levan	-10.4482
▁58	-10.4483
▁2017	-10.4498
▁Ana	-10.4513
▁feminino	-10.452
▁paralelo	-10.452
▁Norueg	-10.452
▁comprende	-10.4524
▁Siri	-10.4533
▁cá	-10.4537
▁54	-10.4543
▁trint	-10.4543
▁xorde	-10.4543
ble	-10.4544
▁barroco	-10.4544
▁Esa	-10.4548
▁Vol	-10.4563
▁Nace	-10.4565
▁encóntra	-10.4567
▁mínimo	-10.4567
▁alcance	-10.4567
▁aparente	-10.4568
▁concelleiro	-10.4571
ham	-10.4573
▁personalidade	-10.459
▁típico	-10.459
▁xenética	-10.459
▁retablo	-10.459
▁dedicada	-10.4592
▁plataforma	-10.4604
fusión	-10.4608
▁American	-10.461
▁bisesto	-10.4614
▁Canaria	-10.4614
▁estatua	-10.4614
▁mitoloxía	-10.4614
▁alternativo	-10.4614
▁chámase	-10.4614
▁renda	-10.4615
itl	-10.4617
▁pensar	-10.4624
▁pop	-10.4628
▁entender	-10.4628
▁recoñecida	-10.4638
▁territorial	-10.4639
▁85	-10.4656
▁Vien	-10.4661
▁Guinea	-10.4662
▁alumno	-10.4662
▁empregan	-10.4665
▁estiver	-10.4673
▁posuía	-10.468
▁tribuna	-10.4682
▁tumba	-10.4685
▁administrativo	-10.4685
▁sucesión	-10.4686
▁ópera	-10.4688
▁vivenda	-10.4696
▁brasileiro	-10.4709
▁Po	-10.471
▁fría	-10.4713
▁Ano	-10.4716
ronto	-10.473
▁vale	-10.4732
▁satélite	-10.4733
▁banco	-10.4733
▁Esto	-10.4738
▁Pro	-10.4739
▁mina	-10.4739
▁Antón	-10.4742
▁disposición	-10.4753
▁flore	-10.4755
▁criterio	-10.4757
▁galaxia	-10.4757
▁negativa	-10.4757
▁Comisión	-10.4759
▁bando	-10.476
lan	-10.4766
▁contribuí	-10.4766
▁fundamenta	-10.4769
▁levado	-10.4781
▁específica	-10.4781
▁alimenta	-10.4784
▁observar	-10.479
▁cola	-10.4793
▁mellorar	-10.4796
▁tam	-10.4797
▁canadense	-10.4806
▁tonelada	-10.4806
▁habilidade	-10.4807
▁redución	-10.4809
▁partidario	-10.481
▁Castel	-10.4818
▁percorrido	-10.483
▁lóxica	-10.483
▁Armada	-10.4831
▁dispoñible	-10.4832
▁realización	-10.4842
▁caracter	-10.4843
ilis	-10.4847
▁Alon	-10.4849
▁Mal	-10.4849
▁hábitat	-10.4854
▁característico	-10.4854
▁Martin	-10.4862
▁naquel	-10.487
▁contar	-10.4876
▁xurisdición	-10.4878
▁primaria	-10.4879
dores	-10.488
▁Conta	-10.4884
▁verso	-10.4885
▁limita	-10.4885
▁ingresos	-10.4885
val	-10.4889
▁xuízo	-10.4894
▁Internet	-10.4903
▁require	-10.4914
▁atacar	-10.4921
▁setentriona	-10.493
▁celebrou	-10.493
▁Bueno	-10.4953
FA	-10.4954
▁defender	-10.4955
▁Nel	-10.4959
▁destrución	-10.4963
▁Sal	-10.4972
▁ofrece	-10.4973
▁prisión	-10.4976
▁Cór	-10.4977
▁abaixo	-10.4978
▁introdución	-10.4979
▁destinado	-10.498
▁escano	-10.4981
▁anarquista	-10.4983
▁servir	-10.4997
▁Bis	-10.4998
responsabilidade	-10.5001
▁Sicilia	-10.5001
▁membrana	-10.5001
▁montañosa	-10.5001
▁Atópa	-10.5001
▁explicar	-10.5005
▁residente	-10.5006
▁quedan	-10.5018
▁acaba	-10.5018
atol	-10.5021
▁xestión	-10.5022
▁actitude	-10.5031
ett	-10.5032
▁disciplina	-10.5037
ur	-10.5042
▁decide	-10.5063
▁adultos	-10.5069
▁cumio	-10.5075
▁super	-10.5075
▁xogou	-10.5076
▁humanidade	-10.5076
▁Paz	-10.508
▁ordenou	-10.5085
▁ni	-10.5094
▁euro	-10.5094
laborou	-10.5096
▁extensa	-10.51
▁provocar	-10.5111
▁impulso	-10.5125
▁700	-10.5129
▁Civi	-10.5136
▁aproveita	-10.5148
▁custo	-10.5148
▁circunstancia	-10.515
▁Roc	-10.5151
▁dedicado	-10.5154
▁electrónica	-10.5155
▁abrangue	-10.5155
▁68	-10.5159
▁baleiro	-10.5175
▁baséa	-10.5175
▁combustible	-10.5175
▁café	-10.5175
▁pertencen	-10.5182
▁centros	-10.5187
▁controlar	-10.5188
▁Carl	-10.5193
▁51	-10.5194
▁constituciona	-10.5195
▁ventos	-10.5198
▁patrimoni	-10.52
▁executivo	-10.52
▁rolda	-10.5203
▁presentación	-10.5209
▁experimenta	-10.5213
▁funciona	-10.5216
▁250	-10.5219
nxele	-10.5223
▁divers	-10.5224
▁identifica	-10.5228
cesión	-10.5229
▁ha	-10.5231
▁174	-10.5236
▁reducir	-10.5237
▁atravesa	-10.524
▁sesión	-10.5242
▁buque	-10.5251
▁magnético	-10.5251
▁pertencía	-10.5251
▁quere	-10.5252
▁significativo	-10.5253
tic	-10.5259
▁Ant	-10.526
▁fuxir	-10.5262
▁Peter	-10.5267
▁seguidor	-10.5273
▁Var	-10.5274
▁violen	-10.5274
▁capítulo	-10.5276
lén	-10.5281
▁marcado	-10.5286
▁Pedra	-10.5287
▁curva	-10.5287
▁defende	-10.5297
▁conservador	-10.5301
▁Rafa	-10.5302
▁atopado	-10.5302
▁exportación	-10.5305
▁aventura	-10.5317
▁xusto	-10.5329
▁Grupo	-10.5352
▁except	-10.5352
oseph	-10.5358
▁mide	-10.5359
▁serviu	-10.536
▁existir	-10.5362
qui	-10.5372
▁desaparición	-10.5379
ane	-10.5381
oubo	-10.5382
ier	-10.5387
homa	-10.5388
▁definir	-10.5393
▁segura	-10.5393
▁concreto	-10.5404
▁Democrátic	-10.5404
▁Schuma	-10.5404
▁Batalla	-10.5413
▁revolucionario	-10.5421
▁debut	-10.5421
▁Mu	-10.5421
▁indican	-10.5425
▁depósito	-10.5429
▁Serbi	-10.543
▁asociada	-10.543
▁informe	-10.543
▁Pazo	-10.5433
base	-10.5447
ían	-10.5454
▁ribeira	-10.5455
▁resolución	-10.5455
▁Lu	-10.5455
▁dada	-10.5455
hi	-10.5456
ish	-10.5459
migración	-10.546
▁definitiva	-10.5465
▁gañador	-10.5474
▁Mes	-10.5479
▁nube	-10.5481
▁desenvolvida	-10.5482
▁Die	-10.5482
▁estratexia	-10.5483
▁166	-10.5491
▁Ví	-10.5495
▁Mor	-10.5495
▁diocese	-10.5496
▁Comité	-10.5507
▁esencia	-10.5509
▁descubrir	-10.5513
▁consegui	-10.5519
▁cancro	-10.5533
▁facelo	-10.5533
▁Federic	-10.5547
ístico	-10.5548
▁Tole	-10.5549
▁cana	-10.5552
▁falan	-10.5555
▁privado	-10.5559
▁aérea	-10.5559
▁enteiro	-10.5561
▁falecido	-10.5568
▁introduciu	-10.5569
▁pasan	-10.557
▁poñer	-10.5572
▁ascenso	-10.5581
lvare	-10.5583
▁magnitude	-10.5585
▁lúa	-10.5588
▁describir	-10.5589
▁Vene	-10.5591
▁sinxela	-10.5601
▁bas	-10.5605
xa	-10.5606
ohann	-10.5607
20	-10.5614
▁mudou	-10.562
mar	-10.5621
▁existi	-10.5633
▁videoxogo	-10.5637
▁vontade	-10.5637
▁Eu	-10.5651
▁130	-10.5656
▁Forma	-10.5659
▁promoción	-10.5664
uedan	-10.5669
▁Ru	-10.5672
▁define	-10.5674
▁Tai	-10.5679
▁tío	-10.5682
▁eixo	-10.5689
▁crónica	-10.569
▁soporte	-10.569
▁pico	-10.5691
▁seguro	-10.5691
mperador	-10.5693
ch	-10.5696
▁Bar	-10.5716
▁contemporáneo	-10.5716
▁típica	-10.5716
▁intercambio	-10.5716
▁vapor	-10.5716
▁gobernante	-10.5719
▁descender	-10.5725
▁Federa	-10.573
▁comuna	-10.5731
▁Van	-10.5731
▁pata	-10.5737
▁aparello	-10.5743
▁sueco	-10.5743
▁droga	-10.5743
▁Stone	-10.5744
▁Coroa	-10.5744
▁escoc	-10.5756
▁profundo	-10.577
▁Palacio	-10.577
▁River	-10.577
▁0,	-10.5772
▁Pai	-10.5775
▁Per	-10.5777
▁Lago	-10.5777
▁95	-10.5779
▁seguida	-10.578
▁Crist	-10.5784
▁intensidade	-10.5796
▁retorno	-10.5796
▁tralo	-10.5796
▁decreto	-10.5797
▁buscar	-10.5798
▁retirar	-10.5798
▁dependencia	-10.58
▁quente	-10.5816
nacemento	-10.5816
▁Virxi	-10.5823
▁lectura	-10.5823
▁muíño	-10.5823
▁turístico	-10.5823
▁cabaleiro	-10.5824
▁comparación	-10.5827
▁rebelde	-10.5828
▁mapa	-10.583
▁adoptou	-10.5834
itoria	-10.5836
▁aeroliña	-10.585
▁entrevista	-10.585
▁opción	-10.5851
▁esténde	-10.5851
th	-10.5855
▁Alto	-10.5856
▁incluía	-10.5858
▁Maior	-10.5864
▁enlace	-10.5865
▁sentimento	-10.5866
ide	-10.5869
▁explica	-10.5876
▁mínima	-10.5877
▁xudía	-10.5879
▁contribución	-10.5879
▁chinesa	-10.588
▁formaba	-10.5882
▁aprendiz	-10.5904
▁Cabo	-10.5906
▁151	-10.5907
▁captura	-10.5912
ami	-10.5914
▁ocupado	-10.5925
▁Destaca	-10.5926
▁Nesa	-10.5928
▁coordenada	-10.5931
▁externa	-10.5931
▁comparte	-10.5931
▁aceiro	-10.5931
▁ideoloxía	-10.5931
▁sufrir	-10.5933
▁Sar	-10.5946
▁156	-10.5951
▁denomínase	-10.5952
▁Golf	-10.5954
orra	-10.5957
▁húmido	-10.5958
▁intelectual	-10.5958
▁africano	-10.5959
▁vexa	-10.5963
▁adquiri	-10.5964
▁Leste	-10.5966
▁Chic	-10.5967
der	-10.5978
▁termina	-10.5981
▁173	-10.5983
▁espectáculo	-10.5985
▁editou	-10.5986
▁dirixente	-10.599
▁vasco	-10.5991
▁radical	-10.5994
▁Oscar	-10.5996
▁navega	-10.5996
▁1000	-10.5998
▁montes	-10.6001
▁entrega	-10.6005
▁aceite	-10.6012
ult	-10.6012
▁ti	-10.6018
▁alcanza	-10.6018
▁editoria	-10.6022
▁continuo	-10.6024
tou	-10.6024
▁unicame	-10.6025
ime	-10.6031
▁puider	-10.6032
▁sucedeu	-10.6035
▁financeiro	-10.6039
▁porcentaxe	-10.6039
▁xardín	-10.6039
▁hospital	-10.6051
▁So	-10.606
▁Francesa	-10.6069
▁Tui	-10.6072
▁convento	-10.6075
▁ton	-10.6082
inais	-10.6088
▁bomba	-10.6094
▁Baixa	-10.6095
▁deseñada	-10.6095
utono	-10.6095
▁Ferrari	-10.6095
▁sólido	-10.6096
▁pura	-10.6098
▁militante	-10.6099
▁Corporación	-10.61
▁protexer	-10.6106
▁rexeita	-10.6114
▁representado	-10.6121
▁disolución	-10.6122
▁definida	-10.6122
gas	-10.6123
I	-10.6125
▁unida	-10.6131
▁utilíza	-10.6136
▁nacionalismo	-10.6139
▁logra	-10.6149
▁utilizou	-10.615
▁poderoso	-10.615
▁interesante	-10.615
▁sindicato	-10.615
▁debeu	-10.6151
▁71	-10.6154
▁implica	-10.6157
▁preciso	-10.616
▁retirou	-10.6173
▁acepto	-10.6176
▁soberano	-10.6178
▁pronuncia	-10.6179
forme	-10.6181
▁153	-10.6182
▁ave	-10.6186
▁sabor	-10.6187
▁acusado	-10.6191
▁concepción	-10.6192
ins	-10.6195
▁organizar	-10.6197
▁retrato	-10.6199
▁62	-10.6201
▁recinto	-10.6205
▁pegada	-10.6206
rusia	-10.6207
▁tese	-10.6218
▁Parque	-10.6235
▁permitía	-10.624
▁longobardo	-10.6241
▁coruñ	-10.6247
▁Mad	-10.6259
▁suxire	-10.6261
ha	-10.6261
▁Organización	-10.6262
▁xera	-10.6277
▁medo	-10.628
▁profesiona	-10.6283
▁trigo	-10.6284
berg	-10.6285
▁tanque	-10.6286
▁execución	-10.6289
▁ruína	-10.6289
▁rexional	-10.6292
▁158	-10.6303
oll	-10.6304
▁loitar	-10.6305
▁63	-10.6309
▁pediu	-10.631
▁elimina	-10.6311
▁óso	-10.6313
▁Maced	-10.6314
▁cliente	-10.6317
▁postura	-10.6317
▁General	-10.6318
▁deportiva	-10.6319
▁pun	-10.632
▁limitada	-10.6322
altar	-10.6345
misión	-10.6348
▁asinar	-10.6351
▁2,	-10.6353
▁Vi	-10.6355
▁Xuli	-10.6361
▁Xur	-10.6362
▁evidente	-10.6366
iz	-10.6367
▁escuro	-10.6367
bal	-10.637
▁triunfo	-10.6373
▁amosa	-10.6374
▁viax	-10.6375
▁habitada	-10.6376
▁pon	-10.6376
▁orquestra	-10.6379
▁Forza	-10.638
▁estrea	-10.6392
▁partida	-10.6395
laboración	-10.6402
▁Domingo	-10.6402
▁Vell	-10.6402
▁pena	-10.6403
▁Ga	-10.6403
▁Dar	-10.6407
▁Sam	-10.6408
▁Cit	-10.6411
gar	-10.6413
▁gradual	-10.6418
▁salto	-10.6426
▁feminina	-10.643
▁soviética	-10.643
▁Daniel	-10.643
▁xorna	-10.6435
▁Mont	-10.6448
▁Moi	-10.6456
▁fluvia	-10.6459
▁campesiño	-10.6459
▁Suprem	-10.6459
▁infección	-10.6459
▁milenio	-10.6459
ien	-10.6459
▁procedemento	-10.6463
gueira	-10.647
▁necesita	-10.6478
iño	-10.6482
▁atómico	-10.6487
▁caixa	-10.6487
▁reprodución	-10.6487
▁inicia	-10.6489
▁probabilidade	-10.6491
▁cociña	-10.6491
▁nomeamento	-10.6491
▁condenado	-10.6492
▁dirixir	-10.6493
▁declarado	-10.6494
erú	-10.6495
▁limitado	-10.6497
▁72	-10.6498
gando	-10.6502
ited	-10.6502
▁viña	-10.6512
▁atopaba	-10.6512
▁piano	-10.6517
▁medalla	-10.6519
▁Canto	-10.6535
▁seguía	-10.6541
▁172	-10.6546
▁relevante	-10.6547
▁Sil	-10.6555
érica	-10.657
arroco	-10.6571
▁gobernamenta	-10.6573
▁cardea	-10.6574
▁creador	-10.6578
▁Che	-10.6593
▁lenta	-10.6595
▁escribe	-10.6595
▁Sha	-10.6598
▁ferramentas	-10.6598
▁162	-10.6602
▁senador	-10.6611
liberación	-10.6616
▁explicación	-10.6622
▁cen	-10.6629
▁Estatuto	-10.6631
▁apelido	-10.6631
▁Deportiv	-10.6631
orld	-10.6634
▁sorte	-10.6638
▁propietario	-10.6641
once	-10.6642
▁67	-10.6644
▁supera	-10.6651
inas	-10.6652
▁Nela	-10.6653
gora	-10.6655
▁oficina	-10.6655
▁pagar	-10.6657
xustiza	-10.6659
▁descenso	-10.666
▁petición	-10.666
▁dedicou	-10.666
▁bóveda	-10.666
▁165	-10.6667
▁traballaba	-10.6677
▁155	-10.6689
▁candidatura	-10.6689
ovia	-10.6691
▁actuar	-10.6691
umbo	-10.6691
▁coro	-10.6703
▁Bul	-10.6706
▁corre	-10.6716
▁herba	-10.6719
▁incendio	-10.6719
▁récord	-10.6719
▁predominante	-10.6722
▁portada	-10.6723
▁oportunidade	-10.6723
▁designado	-10.6725
▁negociación	-10.6726
▁arriba	-10.6728
elas	-10.6729
▁deportivo	-10.6731
▁intentar	-10.6733
▁ideal	-10.6739
▁ecosistema	-10.6748
▁ferido	-10.6748
▁illote	-10.6748
▁prazo	-10.6749
▁roupa	-10.6749
▁Texas	-10.675
▁volcánica	-10.675
▁funcionario	-10.675
▁facil	-10.6767
▁Pan	-10.6767
ome	-10.6777
▁periódica	-10.6777
▁Menor	-10.678
▁Pla	-10.678
▁96	-10.6782
das	-10.6791
▁marcada	-10.6801
ine	-10.6803
▁distinguir	-10.6807
▁Morre	-10.6808
▁Tiña	-10.6809
▁Pena	-10.683
▁intenta	-10.6836
▁Alfred	-10.6837
▁arquivo	-10.6837
00	-10.6838
uel	-10.6839
▁castelá	-10.6845
▁Ale	-10.6845
tor	-10.6846
marc	-10.6853
▁Normal	-10.6855
▁positiva	-10.6856
▁latitude	-10.6866
▁Traballo	-10.6868
▁latera	-10.6868
▁Confederación	-10.687
▁acompañado	-10.6871
▁suceso	-10.6872
▁Negro	-10.6874
arl	-10.688
▁apoiar	-10.688
▁Florenci	-10.6886
▁electric	-10.6887
▁incremento	-10.689
xenti	-10.6896
▁parti	-10.6897
▁escolar	-10.6897
▁reducido	-10.6899
▁Romaní	-10.6903
ho	-10.6907
▁conxunta	-10.6912
▁xeograf	-10.6914
▁permanecer	-10.6915
▁veu	-10.692
▁Red	-10.6933
▁vi	-10.6933
▁regresar	-10.6955
▁mañá	-10.6956
▁heroe	-10.6956
▁lector	-10.6957
▁abre	-10.696
▁encontra	-10.6964
▁visigodo	-10.6969
▁correo	-10.6974
▁encoro	-10.6975
▁superar	-10.6979
▁ler	-10.6984
▁Parroquia	-10.6986
▁detido	-10.6986
▁Fa	-10.6989
▁Prim	-10.6994
▁boca	-10.6994
▁marido	-10.6994
▁explorador	-10.6996
▁naval	-10.6998
▁Oh	-10.6998
▁Andr	-10.7008
▁ma	-10.7009
▁fica	-10.7016
▁índice	-10.7016
▁rexeitou	-10.7016
▁laboratorio	-10.7016
▁fibra	-10.7016
NES	-10.702
quera	-10.7023
▁escaso	-10.7023
▁iniciar	-10.7024
▁Nin	-10.703
▁colonial	-10.7034
▁dividir	-10.7036
▁visto	-10.7042
▁honor	-10.7046
▁multitude	-10.7046
▁privilexio	-10.7046
▁acerca	-10.7046
▁suposto	-10.7047
▁primario	-10.7047
▁gato	-10.7047
attus	-10.7047
▁gótico	-10.7049
▁celebrada	-10.7051
ctor	-10.7055
ler	-10.707
▁Príncipe	-10.7076
▁temporada	-10.7078
▁programación	-10.7079
▁66	-10.7087
▁golfo	-10.709
aco	-10.7091
sexan	-10.7092
▁nomeada	-10.7097
▁irregular	-10.7099
pre	-10.7107
▁erupción	-10.7107
▁acada	-10.7111
▁construíron	-10.7112
▁caer	-10.7112
▁82	-10.7113
▁abundan	-10.7118
▁Bibli	-10.7118
▁foresta	-10.7118
▁Leonard	-10.7121
▁Linn	-10.7129
lín	-10.7131
▁lagos	-10.7132
tu	-10.7136
▁demostrou	-10.7137
▁fácil	-10.7137
▁hemisferio	-10.7137
▁folga	-10.7139
▁separa	-10.7139
mas	-10.7142
▁estaría	-10.7144
▁consistente	-10.7149
▁154	-10.7149
▁Ta	-10.715
▁anua	-10.715
▁alcanzou	-10.7153
▁125	-10.7154
iva	-10.7161
▁mala	-10.7168
úa	-10.7168
▁sucesiva	-10.7168
▁masiva	-10.7168
▁tentativa	-10.7168
▁Prag	-10.7169
▁propux	-10.7169
▁Galile	-10.717
▁cumprir	-10.7179
auna	-10.7181
▁artificial	-10.7185
im	-10.7191
▁falado	-10.7196
raft	-10.7199
▁domingo	-10.7199
▁establecido	-10.7199
▁Republican	-10.7199
▁monxe	-10.72
▁Gregori	-10.7216
▁carbón	-10.7216
▁capita	-10.7225
▁asiático	-10.7229
▁singular	-10.7229
ant	-10.723
▁mineral	-10.7232
▁proclamou	-10.7233
▁Pertence	-10.724
▁ligada	-10.7243
▁abriu	-10.7245
▁76	-10.7246
▁78	-10.7249
▁hab	-10.725
RS	-10.7251
▁recoñecer	-10.7251
▁Michel	-10.7259
▁aprobou	-10.726
▁distinción	-10.726
▁Minne	-10.726
50	-10.726
▁achado	-10.7262
▁absoluto	-10.7275
▁Arm	-10.7276
▁acostuma	-10.7276
▁comerciante	-10.7281
D	-10.7283
▁integrante	-10.7283
▁obreiro	-10.7285
vi	-10.7285
▁ambienta	-10.7287
▁pirata	-10.7289
craín	-10.729
▁cerámica	-10.7291
▁cuberto	-10.7291
▁temática	-10.7291
▁Camiño	-10.7291
▁fixera	-10.7294
rse	-10.7294
cción	-10.7298
▁Galia	-10.7301
▁fundar	-10.7308
▁irland	-10.7311
▁Tiv	-10.7312
▁ligado	-10.7313
▁servidor	-10.7317
ierre	-10.7319
▁reflicte	-10.7322
▁poética	-10.7323
▁tornado	-10.7325
▁Chi	-10.7331
▁milla	-10.7331
▁audiencia	-10.7333
▁Territorio	-10.7336
▁Sir	-10.7338
▁substituír	-10.7338
▁conquist	-10.7341
▁gal	-10.7342
▁Vilar	-10.7345
▁ch	-10.7351
mede	-10.7353
▁59	-10.7353
▁navío	-10.7353
▁turista	-10.7353
▁Terceir	-10.7353
▁himno	-10.7353
▁Cerv	-10.7355
▁restauración	-10.736
▁pleno	-10.7364
▁Granad	-10.7374
▁espectador	-10.7385
▁establecida	-10.7385
▁manuscrito	-10.7385
▁norteamericana	-10.7385
▁discípulo	-10.7386
▁cinema	-10.7387
▁homónimo	-10.7395
eda	-10.7398
curso	-10.7403
▁dependente	-10.7406
▁polaco	-10.7411
▁Condado	-10.7416
▁guión	-10.7418
▁coñécese	-10.742
▁fresco	-10.742
áron	-10.7421
▁socio	-10.7434
▁artes	-10.7445
▁Antiga	-10.7445
▁molecular	-10.7448
▁preocupación	-10.7449
▁tramo	-10.7449
▁pretendía	-10.7449
▁viva	-10.7449
dia	-10.7451
▁avogado	-10.7452
▁verba	-10.7458
▁casar	-10.7474
▁Du	-10.7478
▁Vatican	-10.7479
▁discusión	-10.7479
▁polémica	-10.7479
▁mancha	-10.7479
ibr	-10.7482
▁Antigo	-10.7486
▁organizou	-10.7489
▁lobo	-10.7493
bus	-10.7504
▁expresa	-10.7509
▁gris	-10.751
▁Iugoslav	-10.7511
▁herdanza	-10.7511
▁xove	-10.7512
▁EE	-10.7514
▁grav	-10.7516
▁incluír	-10.7522
▁nacionalidade	-10.7523
▁Pen	-10.7524
ló	-10.7525
▁Bach	-10.7528
▁estendeu	-10.7537
▁computador	-10.7541
▁psic	-10.7542
▁obtido	-10.7542
▁consoante	-10.7543
▁National	-10.7543
▁167	-10.7548
▁algu	-10.7549
▁froita	-10.7551
▁to	-10.756
▁Bob	-10.7564
▁Car	-10.7567
▁discográfica	-10.7574
▁apertura	-10.7574
▁171	-10.7584
▁crista	-10.7588
▁arrecife	-10.7588
▁comp	-10.7595
indo	-10.7605
▁incursión	-10.7606
▁titular	-10.7606
▁causou	-10.7606
▁extinción	-10.7606
▁remate	-10.7607
▁fixéron	-10.7607
▁humor	-10.7608
▁funda	-10.761
▁balon	-10.7614
▁ningu	-10.7618
▁gasto	-10.7624
▁Mandel	-10.7627
▁asegurar	-10.7634
edo	-10.7637
▁Superior	-10.7638
▁Vietnam	-10.7638
▁fogo	-10.7639
▁expulsado	-10.7641
▁organizado	-10.7647
▁mariñeiro	-10.7655
▁Be	-10.7656
▁pro	-10.7662
▁estética	-10.767
▁diaria	-10.767
▁fixa	-10.7672
▁mostran	-10.7673
▁atopába	-10.7675
▁nazi	-10.7678
▁editor	-10.7683
▁Banc	-10.7694
▁168	-10.7699
▁conca	-10.7702
▁influente	-10.7703
▁vocalista	-10.7703
ñez	-10.7706
▁intentou	-10.7706
▁Si	-10.7709
▁Lemo	-10.771
uela	-10.7727
▁adoptar	-10.7734
▁decoración	-10.7735
▁persecución	-10.7735
▁variada	-10.7737
▁intelixen	-10.774
▁rival	-10.7741
▁73	-10.7742
▁Fronte	-10.7744
▁millo	-10.7745
▁regra	-10.7752
los	-10.7755
po	-10.7755
▁celebra	-10.776
tero	-10.7764
▁escultor	-10.7767
▁substitución	-10.7767
▁pasaba	-10.7768
▁dieta	-10.7768
▁voce	-10.7778
▁neto	-10.7778
▁uniforme	-10.7778
▁Funda	-10.7781
▁proclama	-10.7784
▁levada	-10.7786
▁vector	-10.7791
▁identificar	-10.7791
▁Bre	-10.7792
▁Luc	-10.7794
fil	-10.7799
▁éuscar	-10.78
▁definido	-10.7801
▁masculino	-10.7804
▁alma	-10.7804
▁Am	-10.7806
arago	-10.7808
▁empeza	-10.7812
▁tomada	-10.7815
▁Beta	-10.7818
▁147	-10.7818
▁foto	-10.7822
mort	-10.7828
▁espectro	-10.7833
▁vendido	-10.7833
▁configuración	-10.7837
▁Armeni	-10.7841
▁Cela	-10.7845
▁Maria	-10.7851
▁gravou	-10.7854
▁infanti	-10.7856
▁espacial	-10.7857
▁trans	-10.7858
enr	-10.7859
otter	-10.7861
▁oral	-10.7862
▁lanzar	-10.7865
▁paxaro	-10.7865
▁románico	-10.7865
▁hebreo	-10.7865
▁instituto	-10.7866
▁bolsa	-10.7866
▁Andalu	-10.7867
▁pés	-10.7872
tre	-10.7873
▁aniversario	-10.7876
▁Gra	-10.7886
▁medir	-10.7893
▁Pi	-10.7893
▁cabe	-10.7894
▁hum	-10.7896
▁Iso	-10.7897
▁Florida	-10.7898
▁Británica	-10.7898
▁Indonesia	-10.7898
▁tubo	-10.7899
ano	-10.7899
pía	-10.79
▁Burgo	-10.7907
▁163	-10.7909
agne	-10.7919
ispan	-10.7919
▁enxeñ	-10.792
▁157	-10.7923
▁dispó	-10.7923
▁descrito	-10.7931
▁fragmento	-10.7931
▁Colomb	-10.7932
▁Carme	-10.7933
▁declarada	-10.7936
▁débeda	-10.7941
eas	-10.7943
dón	-10.7946
tion	-10.7948
▁Mc	-10.7949
▁marea	-10.7958
▁designar	-10.7959
▁xapones	-10.796
▁contemporánea	-10.7964
▁terremoto	-10.7965
▁traxectoria	-10.7965
▁chave	-10.7965
▁concurso	-10.7965
▁Vallad	-10.7966
▁cero	-10.7967
▁conclusión	-10.7968
▁rotación	-10.7975
▁queixo	-10.7976
▁79	-10.7979
▁fabricante	-10.7979
▁Colle	-10.7994
▁aprender	-10.7997
▁síntoma	-10.7998
▁imp	-10.7998
▁suposta	-10.7998
▁Conferencia	-10.7999
▁organizada	-10.8001
▁futura	-10.801
▁top	-10.801
▁úsa	-10.8014
▁enviar	-10.8018
▁dixital	-10.8019
▁Bel	-10.8019
▁tentou	-10.8019
▁avó	-10.8022
▁resolver	-10.8023
ion	-10.8029
diz	-10.8029
▁demostrar	-10.8029
▁asemblea	-10.8031
▁compromiso	-10.8031
▁pesado	-10.8033
▁preso	-10.804
▁orienta	-10.8042
▁causar	-10.8044
▁87	-10.8051
▁sobriño	-10.8055
▁Saint	-10.8064
rece	-10.8066
▁feira	-10.8067
▁recoñece	-10.8069
▁pretende	-10.8071
▁visitante	-10.8083
▁sucede	-10.8084
▁Bela	-10.8087
▁arcos	-10.8091
▁tivese	-10.8091
▁canta	-10.8094
▁entende	-10.8095
▁bebida	-10.8098
▁referend	-10.8098
▁refire	-10.8098
▁Libro	-10.8098
▁resistente	-10.8099
▁92	-10.8103
▁serbio	-10.8103
▁Lourenz	-10.8109
▁integrado	-10.8117
rico	-10.8117
▁representada	-10.8118
ificación	-10.8122
▁chea	-10.8123
▁nacer	-10.8124
ética	-10.8125
▁rexiona	-10.8126
▁móbil	-10.8132
▁investimento	-10.8132
▁convertéron	-10.8134
▁capac	-10.8135
▁doutor	-10.8148
▁Gui	-10.8149
mérica	-10.8153
tes	-10.8157
▁69	-10.8158
▁doméstico	-10.8163
▁axudou	-10.8165
▁bóla	-10.8165
▁destruída	-10.8165
▁estatuto	-10.8165
▁recuperou	-10.8165
▁xeometría	-10.8166
▁orixinaria	-10.8168
▁Sanch	-10.8169
▁inter	-10.8184
aribe	-10.8186
▁Vermello	-10.8191
▁efectiva	-10.8196
▁prato	-10.8197
▁Darí	-10.8198
▁devandito	-10.8199
▁estatística	-10.8199
▁estranxeira	-10.8199
▁progresiva	-10.8199
▁mental	-10.82
▁reducida	-10.8201
▁federación	-10.8206
▁colectivo	-10.8206
nzos	-10.8217
▁tenda	-10.8231
nés	-10.8231
▁abrir	-10.8233
▁étnico	-10.8233
▁fame	-10.8235
▁gramática	-10.8236
▁Celta	-10.8237
▁sétim	-10.8237
▁armado	-10.8238
▁Lingua	-10.824
▁Lin	-10.8249
▁XXI	-10.825
▁Amai	-10.8251
▁accede	-10.8255
▁88	-10.8256
▁cambia	-10.8256
ei	-10.826
▁159	-10.8262
▁facían	-10.8264
▁Mari	-10.8266
▁abandona	-10.8266
▁literal	-10.8268
▁impresión	-10.8268
▁84	-10.8268
▁descenden	-10.8269
▁Columbia	-10.8269
▁constituíu	-10.827
▁Venez	-10.8286
▁terá	-10.8291
▁148	-10.8298
▁Scott	-10.8302
▁controversia	-10.8302
▁progreso	-10.8302
▁infraestrutura	-10.8302
▁princesa	-10.8302
▁gráfico	-10.8302
eav	-10.8308
▁baix	-10.8314
ent	-10.8322
▁redes	-10.8325
▁infante	-10.8326
▁cita	-10.8327
▁complexos	-10.8329
ve	-10.8331
▁produci	-10.8332
N	-10.8334
▁marítima	-10.8336
▁escollido	-10.8337
▁Bilb	-10.8338
▁mencionado	-10.8341
▁mundia	-10.8343
orce	-10.8343
nche	-10.8348
ovo	-10.835
festival	-10.8353
▁Pers	-10.8365
ti	-10.8365
▁quince	-10.8366
▁61	-10.837
▁Ber	-10.837
▁contorna	-10.8371
tica	-10.8372
▁obtén	-10.8373
▁peor	-10.8373
▁promove	-10.8378
▁89	-10.8385
▁depresión	-10.8388
▁prestixio	-10.8398
▁Gó	-10.84
lianza	-10.84
▁Independenc	-10.8405
▁cromosoma	-10.8405
▁desembocadura	-10.8408
▁derivada	-10.8417
ir	-10.8426
fianza	-10.8428
▁oferta	-10.844
▁firme	-10.844
▁Nicola	-10.8444
▁Daco	-10.8449
▁146	-10.8449
▁hard	-10.8453
▁93	-10.8454
▁acceder	-10.8457
▁individua	-10.8459
▁clasificar	-10.8465
▁enfermo	-10.8467
▁atopá	-10.847
▁guerreiro	-10.8475
▁cemiterio	-10.8475
torial	-10.8476
▁enteira	-10.8486
▁afirmou	-10.8494
cho	-10.8495
▁alberga	-10.8496
xencia	-10.8505
▁defensor	-10.851
▁xermánica	-10.851
▁externo	-10.851
▁carballo	-10.851
▁especifica	-10.851
▁levantamento	-10.8511
▁Carball	-10.8512
▁densa	-10.8515
▁manga	-10.8517
▁quinta	-10.852
▁Verde	-10.8522
colm	-10.8527
▁Valde	-10.8531
▁proporciona	-10.8532
▁medra	-10.8536
▁enfrontar	-10.8537
▁Rexión	-10.8545
▁astrónomo	-10.8545
▁mantiña	-10.8545
▁Mozart	-10.8545
▁adestramento	-10.8546
▁81	-10.8549
▁negocio	-10.855
▁usou	-10.8556
▁reunir	-10.8558
▁vital	-10.8561
▁vertical	-10.8564
▁datan	-10.8565
▁viaxar	-10.8565
it	-10.8568
T	-10.8574
▁pla	-10.8577
▁pago	-10.858
▁vitamina	-10.858
▁receptor	-10.858
▁escritora	-10.858
▁detalles	-10.8581
▁Bernard	-10.8584
▁vidro	-10.8589
▁coloniza	-10.8591
▁granito	-10.8593
▁ON	-10.8594
▁declara	-10.8599
▁orientación	-10.8599
ad	-10.86
▁chines	-10.8608
▁congreso	-10.8615
▁subespecie	-10.8615
▁Educa	-10.8623
▁constituído	-10.8624
ando	-10.8624
▁daquel	-10.8632
▁Rose	-10.8636
▁fuxi	-10.8638
▁bel	-10.864
▁aceptar	-10.8643
▁gusto	-10.8645
▁74	-10.8649
ubi	-10.865
▁perfecta	-10.8651
▁Stalin	-10.8651
ulf	-10.8651
▁negativo	-10.8651
▁excelente	-10.8652
▁numera	-10.8652
▁rexistrada	-10.8653
NT	-10.8656
▁colaborador	-10.8657
▁conciencia	-10.8657
óxido	-10.8664
▁historic	-10.8668
▁percorre	-10.8676
▁Patt	-10.8682
ospital	-10.8686
▁reloxo	-10.869
▁ascende	-10.8693
senta	-10.8695
▁98	-10.8696
▁otomán	-10.8699
▁Br	-10.8705
▁Music	-10.8719
▁Fe	-10.872
oncilio	-10.8722
▁protexido	-10.8722
▁imposible	-10.8722
olid	-10.8724
▁pechado	-10.8726
▁refuxio	-10.8726
▁celebrado	-10.8731
▁eliminar	-10.8749
▁centímetro	-10.8758
▁considerou	-10.8758
▁tocou	-10.8758
▁reconstrución	-10.8758
▁Lenin	-10.8758
▁3,	-10.8759
▁Lov	-10.876
onda	-10.8765
obra	-10.877
▁Nil	-10.8781
▁min	-10.8783
▁crime	-10.8794
▁negou	-10.8794
▁periódico	-10.8794
▁145	-10.8795
▁iniciais	-10.8806
▁migración	-10.881
las	-10.881
▁referente	-10.8812
eiga	-10.8813
ment	-10.8815
ip	-10.8822
▁celebrar	-10.883
▁rendemento	-10.883
▁vítimas	-10.8831
▁mudanza	-10.8831
▁escavación	-10.8833
▁porco	-10.8845
ñón	-10.8848
illiams	-10.885
▁Ein	-10.8853
▁diferencia	-10.8859
▁conservan	-10.8861
▁terror	-10.8865
▁aparencia	-10.8866
▁permiso	-10.8866
▁Movement	-10.8866
▁cantiga	-10.8866
▁Smith	-10.8867
▁oración	-10.887
▁xornada	-10.8873
▁com	-10.8876
▁Linu	-10.8878
mez	-10.8878
▁110	-10.8883
nico	-10.8884
nder	-10.8892
forte	-10.8893
únic	-10.8898
▁seria	-10.89
▁visual	-10.8902
▁décimo	-10.8904
▁pechada	-10.8905
▁Secretari	-10.8907
▁lanza	-10.891
▁Feli	-10.8913
▁designa	-10.8915
▁síntese	-10.8926
▁quedaba	-10.8929
▁86	-10.8933
▁negocios	-10.8933
▁Dic	-10.8933
▁Mondoñedo	-10.8939
▁descrita	-10.8939
itude	-10.8939
▁Aristó	-10.8939
▁161	-10.8941
▁espera	-10.8941
▁Sebasti	-10.8945
▁Ce	-10.895
DA	-10.895
▁precis	-10.8951
raq	-10.8952
▁mesa	-10.8956
▁contou	-10.8956
raza	-10.8966
▁cuántic	-10.8972
▁graxa	-10.8976
▁téxtil	-10.8976
▁débil	-10.8976
▁Defens	-10.8976
▁xuven	-10.8977
▁moza	-10.8978
▁Ela	-10.8979
▁naquela	-10.8979
18	-10.8982
▁darlle	-10.8984
▁deulle	-10.8986
▁preparación	-10.8987
▁decaden	-10.8997
▁Vo	-10.8998
off	-10.9008
▁Letr	-10.9009
▁Posúe	-10.9013
▁flora	-10.9013
▁instrución	-10.9013
▁Salaman	-10.9013
▁Inicia	-10.9015
tos	-10.9018
▁electo	-10.9019
▁Croa	-10.902
▁engadir	-10.9021
oland	-10.9021
▁Rena	-10.9027
▁habitua	-10.9034
▁escapar	-10.9038
▁Abu	-10.9039
ándo	-10.9044
▁tivera	-10.9045
▁matar	-10.9047
▁académico	-10.9049
▁derradeira	-10.9049
▁lexislativo	-10.9049
▁Ecua	-10.9049
▁Luxemburg	-10.905
▁vencer	-10.9051
▁caracteriza	-10.9065
▁140	-10.908
▁axente	-10.9081
▁Rosal	-10.9084
▁arxentino	-10.9086
▁pantalla	-10.9086
▁sílaba	-10.9086
▁Basil	-10.9087
▁narrativa	-10.909
▁Fil	-10.9094
▁Star	-10.9099
▁Carta	-10.9102
▁indicar	-10.9107
▁roman	-10.9108
▁afirmación	-10.9119
▁invento	-10.9119
ente	-10.9121
▁cabeceira	-10.9124
▁financeira	-10.9124
▁contraste	-10.9127
▁Ve	-10.9133
▁substituí	-10.9134
▁catalá	-10.9147
▁participante	-10.9151
atrimonio	-10.9157
ardo	-10.916
▁devandita	-10.9161
▁médica	-10.9161
▁peregrino	-10.9161
ctuou	-10.9161
ablo	-10.9161
▁Segui	-10.9161
▁embaixador	-10.9162
umanidade	-10.9163
▁contiña	-10.9163
▁mortal	-10.9167
▁copia	-10.917
amora	-10.917
ester	-10.9174
▁Mel	-10.9191
posición	-10.9194
edade	-10.9196
▁consistía	-10.9198
▁descoñecido	-10.9198
▁teórico	-10.9198
▁dici	-10.9203
▁Estudo	-10.9209
triz	-10.9217
▁orgánica	-10.922
▁Xusti	-10.9221
▁destacada	-10.9224
▁Green	-10.9225
▁Món	-10.9234
▁austríaco	-10.9236
▁Nalgún	-10.9236
▁conduta	-10.9237
▁Ferro	-10.9237
▁desaparecer	-10.9244
▁finalidade	-10.9245
▁Marte	-10.9256
▁atracción	-10.9262
▁relativo	-10.9264
▁regresa	-10.9272
▁Arz	-10.9273
▁exercicio	-10.9274
▁universitario	-10.9274
B	-10.9276
▁elevación	-10.9276
▁pensa	-10.9282
▁facilidade	-10.9284
id	-10.9288
atro	-10.9294
▁plantación	-10.9299
▁169	-10.9303
▁contorno	-10.9312
msterda	-10.9312
▁franquista	-10.9312
▁visito	-10.9313
▁Estrada	-10.9314
▁alcume	-10.9315
▁lixeiro	-10.9317
▁Garda	-10.9328
▁experimental	-10.9329
▁encontrar	-10.9329
▁concedeu	-10.933
▁pelo	-10.9332
▁Chan	-10.9332
ití	-10.9333
riz	-10.9339
▁coidado	-10.9343
▁vender	-10.9345
di	-10.9346
▁inspiración	-10.935
▁sometido	-10.935
▁pacto	-10.935
▁violenta	-10.9353
▁abade	-10.9354
▁Sim	-10.9355
▁And	-10.936
nch	-10.9364
▁mantí	-10.9365
▁afeccionado	-10.9365
cemento	-10.9366
L	-10.9366
▁Del	-10.9373
▁recibido	-10.9374
▁atleta	-10.9376
▁radica	-10.9378
▁public	-10.9384
ugo	-10.9385
▁incluíu	-10.9388
▁Particip	-10.9388
▁isótopo	-10.9392
▁carro	-10.9393
▁Estev	-10.9398
▁Palma	-10.9401
▁rapa	-10.9414
▁aéreo	-10.9419
▁Templ	-10.9424
▁constituída	-10.9426
▁diplomático	-10.9426
▁enterrado	-10.9426
▁educativo	-10.9426
electromagnética	-10.9427
▁elite	-10.9428
▁executado	-10.9429
grado	-10.943
▁precedente	-10.943
▁cerea	-10.9431
▁Estaba	-10.9434
▁pobreza	-10.9434
ieito	-10.9435
▁tesouro	-10.9435
▁estudoso	-10.9436
▁deusa	-10.9443
▁denomina	-10.9447
▁exercer	-10.9448
▁voar	-10.9453
▁Plan	-10.9457
▁Señora	-10.9458
▁operativo	-10.9458
▁cincuenta	-10.9465
▁obrigou	-10.9465
▁lesión	-10.9465
▁mostrar	-10.9465
▁fina	-10.9472
▁africana	-10.9475
▁agrupación	-10.9496
atedral	-10.9503
▁intelectua	-10.9503
▁biolóxica	-10.9503
▁realíza	-10.9503
▁ferida	-10.9503
▁diminuí	-10.9508
▁exploración	-10.9508
▁falaba	-10.9513
▁tenta	-10.9513
▁pano	-10.9514
▁corredor	-10.9515
▁Sup	-10.9517
bria	-10.9519
▁gr	-10.9519
▁visitar	-10.9523
▁Ven	-10.9533
▁asistencia	-10.9534
▁elixir	-10.9537
garia	-10.9538
▁contan	-10.954
▁descoñecida	-10.9542
▁lexislación	-10.9542
▁xeográfico	-10.9542
▁raro	-10.9544
▁aplicar	-10.9547
▁conselleiro	-10.9548
▁Católico	-10.9553
▁integrada	-10.9554
▁illada	-10.9557
▁afecta	-10.956
▁nomeou	-10.9569
▁emisora	-10.957
ire	-10.9578
▁estea	-10.9579
▁cúpula	-10.9581
▁extenso	-10.9581
▁gráfica	-10.9581
▁groso	-10.9582
▁sensación	-10.9582
▁clasificado	-10.9585
▁rol	-10.9585
gel	-10.9586
▁substituída	-10.9586
▁afectada	-10.9586
hara	-10.9589
▁dinámica	-10.959
▁Foro	-10.959
▁Teodor	-10.959
▁morta	-10.9591
▁espiritual	-10.9594
▁Arou	-10.9597
▁Avi	-10.9602
▁adoitaba	-10.9604
sota	-10.9608
▁responsábe	-10.962
▁tormenta	-10.962
▁Grand	-10.9626
▁beneficios	-10.9628
teles	-10.9629
▁medrar	-10.9634
▁Bur	-10.9635
em	-10.9635
▁Modern	-10.9635
▁bar	-10.964
▁PC	-10.9647
▁uniu	-10.9648
lini	-10.965
avia	-10.9658
▁atentado	-10.9659
▁esfera	-10.9659
▁Micro	-10.966
▁cómpre	-10.966
▁puro	-10.966
▁Europeo	-10.9661
▁Souto	-10.9662
▁Vega	-10.9663
▁Ricard	-10.9668
▁tomando	-10.968
▁presentado	-10.968
iteratura	-10.9686
▁representaba	-10.9687
▁EP	-10.969
▁estende	-10.9695
arse	-10.9697
▁salvaxe	-10.9699
made	-10.97
▁Adolf	-10.9701
▁avanzada	-10.9702
▁causada	-10.9703
▁dedicar	-10.9707
▁Bang	-10.9709
▁Prat	-10.9711
▁vendeu	-10.9716
▁atoparon	-10.9722
.	-10.9724
fa	-10.9724
▁Far	-10.9725
▁carto	-10.9726
▁autoestrada	-10.9727
▁acento	-10.973
▁amarela	-10.9733
▁oposto	-10.9736
▁molusco	-10.9738
▁cárcere	-10.9738
▁fála	-10.9738
▁térmica	-10.9738
▁ficheiro	-10.9738
▁afastado	-10.9741
▁rodeada	-10.9742
▁alteración	-10.9742
ficou	-10.9748
evento	-10.9754
▁biolox	-10.9761
▁especialista	-10.9764
▁cova	-10.9773
▁axentes	-10.9776
▁marítimo	-10.9778
▁metálico	-10.9778
▁tripulación	-10.9778
▁orzamento	-10.9778
▁Distrito	-10.9778
úpi	-10.9779
▁compra	-10.9779
▁empresario	-10.978
ápol	-10.9781
▁lento	-10.9788
▁xurdir	-10.9788
▁Live	-10.9788
▁semella	-10.9792
uxe	-10.9795
▁dependen	-10.9806
▁94	-10.9815
▁DVD	-10.9818
▁mostrou	-10.9818
▁islam	-10.9818
▁estreou	-10.9818
▁falla	-10.9822
▁correspondencia	-10.9823
▁Español	-10.9823
▁Teñ	-10.9825
▁Risa	-10.9827
▁soño	-10.9828
▁comer	-10.9832
▁Tra	-10.9834
▁cheo	-10.9847
▁Redond	-10.9848
▁pendente	-10.9858
▁virtude	-10.9858
▁primitivo	-10.9858
▁asedio	-10.9859
▁sobrevivir	-10.986
▁tiro	-10.9861
▁Libre	-10.9861
▁calci	-10.9861
▁alcohol	-10.9862
▁citado	-10.9867
▁can	-10.9876
rí	-10.9878
▁introducir	-10.9888
▁conquistar	-10.9895
▁Cald	-10.9897
▁fonema	-10.9898
▁marxista	-10.9898
▁protocolo	-10.9898
▁semifina	-10.9898
▁cloruro	-10.9898
▁cinematográfica	-10.9898
▁dicía	-10.9899
ncia	-10.9899
eff	-10.9903
viron	-10.9904
▁pasaxe	-10.9904
▁Colexio	-10.9906
▁Isla	-10.9908
ore	-10.9923
▁resultante	-10.9925
▁Mac	-10.9925
rd	-10.9925
uli	-10.993
▁liberado	-10.9933
▁merc	-10.9934
▁Moor	-10.9934
▁alga	-10.9937
▁bombardeo	-10.9938
▁barreira	-10.9938
▁carlista	-10.9938
▁instalou	-10.9938
▁orixinario	-10.9939
▁Comeza	-10.994
▁saga	-10.994
mbolo	-10.9941
▁xer	-10.9943
▁rodeado	-10.9945
▁preparar	-10.9946
▁Norteam	-10.9951
▁Paso	-10.9957
▁Ab	-10.9958
▁Señor	-10.9964
▁amarelo	-10.9972
▁paralela	-10.998
▁renuncia	-10.9984
dio	-10.9985
▁SI	-10.9987
▁piso	-10.9992
▁serven	-10.9996
unt	-11.0003
▁musulmá	-11.0009
▁Tint	-11.0009
▁serio	-11.0011
▁separar	-11.0014
▁Mate	-11.0015
▁Toqu	-11.0016
▁900	-11.0017
▁Isa	-11.0017
CO	-11.0018
▁Gallego	-11.0019
▁paquete	-11.0019
▁primitiva	-11.0019
▁localíza	-11.0019
▁Duque	-11.002
▁etnia	-11.0021
▁capturado	-11.0032
▁Televisió	-11.0033
▁quix	-11.0042
lac	-11.0044
▁Coo	-11.0047
ordan	-11.0053
▁húngaro	-11.0057
10	-11.0057
▁Poder	-11.0058
▁ducado	-11.006
▁ligazón	-11.006
▁desprazamento	-11.0061
▁semellanza	-11.0061
▁lateral	-11.0062
▁prosa	-11.0067
▁ocasional	-11.007
▁soporta	-11.0072
▁vasalo	-11.0078
▁Ovi	-11.0081
▁Bla	-11.0082
ara	-11.0083
▁animación	-11.0085
▁Villa	-11.0091
▁Gallega	-11.0101
▁eclesiástica	-11.0101
▁filosófica	-11.0101
▁incorporou	-11.0101
▁plástico	-11.0101
▁cordilleira	-11.0101
▁feminista	-11.0102
▁taba	-11.0103
▁Festa	-11.0103
▁Industria	-11.0105
▁salienta	-11.0106
▁illado	-11.0108
▁aceptada	-11.011
cedo	-11.0113
▁cu	-11.0115
vose	-11.0127
▁Coló	-11.0127
▁instalar	-11.0129
▁completar	-11.0133
▁derrot	-11.0135
▁substituíu	-11.0138
▁Británico	-11.0142
osfera	-11.0142
▁mocidade	-11.0142
▁recollida	-11.0143
▁mandou	-11.0147
▁estancia	-11.0152
O	-11.0155
▁realizan	-11.0159
tan	-11.016
▁Alm	-11.016
▁83	-11.0162
▁et	-11.0165
▁Piñeiro	-11.017
▁desas	-11.0176
▁instrumenta	-11.0183
▁explosión	-11.0183
▁definitivo	-11.0184
▁aliaxe	-11.0184
eroporto	-11.0184
▁especializada	-11.0184
▁rup	-11.0185
▁Master	-11.0185
▁comedia	-11.0189
MS	-11.019
▁lunar	-11.019
che	-11.0192
▁mito	-11.0193
▁CO	-11.0194
▁levando	-11.0196
clive	-11.02
▁Vel	-11.0203
ush	-11.0204
▁desemboca	-11.0207
▁empregou	-11.0209
▁conversión	-11.0215
▁terminar	-11.022
▁115	-11.0222
▁reputa	-11.0225
▁single	-11.0225
▁anaco	-11.0227
▁Deputado	-11.0231
▁futbolista	-11.0233
▁Cartag	-11.0235
▁liñaxe	-11.0238
▁favorece	-11.0245
aneament	-11.025
olinesia	-11.0265
▁nativa	-11.0266
▁debida	-11.0267
▁favorable	-11.0267
▁regato	-11.0268
▁comando	-11.0268
▁Roman	-11.027
▁leve	-11.0272
▁atrae	-11.0272
▁romance	-11.0276
▁corresponden	-11.0277
▁concesión	-11.0278
▁pedir	-11.0283
rra	-11.0283
ucas	-11.0284
▁asisti	-11.0292
ceno	-11.03
▁Orle	-11.0302
▁Case	-11.0307
▁Massachus	-11.0308
▁músculo	-11.0308
▁faraón	-11.0308
▁consciente	-11.0309
▁Rá	-11.0309
▁belga	-11.0311
▁Compa	-11.0312
▁Cen	-11.0324
▁Colonia	-11.0325
▁observador	-11.0327
nio	-11.033
▁PP	-11.0336
▁terrorista	-11.0341
▁mover	-11.0346
▁manifesta	-11.0347
▁compoñen	-11.0347
▁firma	-11.0349
▁recta	-11.035
▁Igual	-11.0351
▁casco	-11.0351
▁Com	-11.036
▁amante	-11.0362
loxía	-11.0369
▁conforman	-11.037
▁adquirir	-11.0374
▁semente	-11.0375
riño	-11.0376
▁Blanco	-11.038
▁tri	-11.0381
llón	-11.0381
▁innovación	-11.0393
▁informática	-11.0393
▁Xeneral	-11.0393
▁recibía	-11.0398
▁procesa	-11.04
▁viaxa	-11.0406
▁Preto	-11.041
▁cruzar	-11.0412
▁Art	-11.0414
▁danza	-11.0417
▁xerar	-11.0422
▁permiti	-11.0426
▁Alp	-11.0428
crist	-11.0431
▁Pireneo	-11.0435
▁Departamento	-11.0435
▁vestixio	-11.0435
▁democrático	-11.0435
12	-11.0436
▁Tralo	-11.0436
▁Borbón	-11.0437
▁Charl	-11.0437
finada	-11.0441
▁fa	-11.0442
▁Pobo	-11.0442
abiloni	-11.0443
iguais	-11.045
▁complex	-11.0454
▁destruído	-11.0455
▁consideración	-11.0456
ganist	-11.046
▁Canta	-11.0461
▁daba	-11.0474
▁positivo	-11.0477
▁intervalo	-11.0478
▁censura	-11.0478
▁facultade	-11.0478
▁Gustav	-11.0482
▁Montes	-11.0485
▁ocupan	-11.0489
▁rexistrado	-11.0489
▁ofrecer	-11.0491
▁Arabi	-11.0491
▁faría	-11.0492
▁interpretar	-11.0493
▁inaugura	-11.0498
▁99	-11.0504
▁principado	-11.0512
▁invadi	-11.0512
▁cunca	-11.0515
▁expuls	-11.052
▁arquitectónico	-11.052
▁ábsida	-11.052
▁culmina	-11.0524
▁casca	-11.0526
ós	-11.0526
▁casado	-11.0532
▁Cle	-11.0533
▁Beat	-11.0533
▁aprobada	-11.0535
▁colaborar	-11.0539
stone	-11.0549
▁Teodo	-11.056
CD	-11.0561
▁chegaba	-11.0561
▁larva	-11.0563
quist	-11.0563
▁ateniense	-11.0563
▁tarxeta	-11.0563
▁incidente	-11.0564
▁declarar	-11.0565
▁relevan	-11.0568
▁coincidi	-11.058
ith	-11.0581
leto	-11.0583
30	-11.0586
▁mención	-11.0589
▁ofensiva	-11.0592
ilosofía	-11.0606
▁Física	-11.0606
▁invención	-11.0606
▁parecido	-11.0606
▁telescopio	-11.0606
▁GN	-11.0608
▁salvo	-11.0612
uso	-11.0618
▁sitúan	-11.0645
▁Vida	-11.0646
▁Autónoma	-11.065
▁Esparta	-11.065
▁Roger	-11.065
▁restrición	-11.065
▁parlamentaria	-11.0652
▁Mellor	-11.0658
▁Gre	-11.0658
estamento	-11.0667
▁tráta	-11.0668
▁trataba	-11.0669
▁Lí	-11.0672
▁gol	-11.0672
▁tanta	-11.0676
▁dáse	-11.0679
▁Pino	-11.0684
▁estamos	-11.0687
▁comité	-11.0693
▁célebre	-11.0693
▁húmida	-11.0693
▁intenso	-11.0693
▁lírica	-11.0693
▁vigor	-11.0693
▁Militar	-11.0693
▁modalidade	-11.0693
▁Mestre	-11.0694
▁Pascua	-11.0694
▁Gil	-11.0694
▁Volta	-11.0696
▁moderado	-11.0696
acque	-11.0698
▁enfrontou	-11.0701
▁afectado	-11.0702
▁comprender	-11.0705
▁convertería	-11.0705
▁presénta	-11.0709
▁Roch	-11.0714
▁incorpora	-11.0722
▁emoción	-11.0723
▁Amb	-11.0724
▁Roll	-11.0725
▁coral	-11.073
ueens	-11.073
▁mata	-11.0732
▁Alexand	-11.0737
tróxeno	-11.0737
▁Fried	-11.0737
▁Tradicional	-11.0737
▁elixida	-11.0738
▁Social	-11.0744
mburg	-11.0745
▁realista	-11.0754
rama	-11.0758
cht	-11.0763
iria	-11.0774
▁relativ	-11.0776
ruguai	-11.0779
▁cráter	-11.0781
▁predecesor	-11.0781
▁bombardeiro	-11.0781
▁escravitude	-11.0781
▁vaso	-11.0781
▁galeguista	-11.0782
tuc	-11.0784
▁mencionada	-11.0785
ni	-11.0788
▁nazis	-11.0792
▁Bolo	-11.0792
▁Inter	-11.0794
▁Tu	-11.0795
▁Ban	-11.0801
▁burgues	-11.0807
olítico	-11.0813
ansa	-11.0815
▁hote	-11.0816
amil	-11.0822
▁experto	-11.0825
▁trastorno	-11.0825
▁xenético	-11.0825
▁hindú	-11.0825
▁97	-11.0827
canda	-11.0827
▁pole	-11.0827
▁Alba	-11.0827
▁Maur	-11.0829
stron	-11.0831
▁granxa	-11.0833
olo	-11.0834
igualdade	-11.0836
▁medición	-11.0836
▁fo	-11.0837
▁colectiva	-11.084
ux	-11.0842
▁destacou	-11.0848
▁óxido	-11.0854
▁condutor	-11.0867
▁Connect	-11.0869
▁santuario	-11.0869
▁estrita	-11.0869
▁tsar	-11.0871
▁acusación	-11.0877
▁dividiu	-11.088
▁doado	-11.0882
▁racional	-11.0891
▁comisión	-11.0892
▁conduci	-11.0892
▁Ribeira	-11.0898
tro	-11.0899
attle	-11.0901
▁demostra	-11.0902
age	-11.0903
▁Clar	-11.0904
▁recoñeceu	-11.0911
▁brasileira	-11.0913
▁capite	-11.0913
▁transferencia	-11.0914
▁sinónimo	-11.0914
▁califa	-11.0914
ngel	-11.0914
▁inmediato	-11.0914
▁votación	-11.0915
▁acolle	-11.0915
▁List	-11.0918
▁colleita	-11.0926
▁usaba	-11.0929
▁din	-11.093
▁compux	-11.0933
▁128	-11.094
▁Negra	-11.0941
ónimo	-11.0942
▁Nic	-11.0946
▁sexua	-11.095
▁pintores	-11.0951
uro	-11.0953
▁fiei	-11.0957
ntario	-11.0957
▁biolóxico	-11.0958
▁fértil	-11.0958
▁mediterráneo	-11.0958
▁Enrique	-11.0958
▁voluntario	-11.0958
icut	-11.0958
▁xenoma	-11.0959
v	-11.0962
▁linea	-11.0963
▁apoiado	-11.0966
▁Estre	-11.0968
▁Nú	-11.0968
▁obte	-11.0974
▁forno	-11.0975
▁aceptado	-11.0975
▁Camp	-11.0976
▁setent	-11.0981
▁Fu	-11.0985
▁dirixe	-11.0996
▁chegaría	-11.0996
SD	-11.0997
ola	-11.1001
▁potente	-11.1003
▁Alfons	-11.1004
▁piñeiro	-11.1004
omo	-11.1005
▁cable	-11.1006
▁cume	-11.1008
▁Sof	-11.1015
▁Bal	-11.1016
mán	-11.1019
▁nena	-11.1021
▁conquistada	-11.1026
▁Mos	-11.1027
▁domina	-11.1028
▁troux	-11.1032
▁Nó	-11.1043
▁segredo	-11.1048
thur	-11.1049
▁4,	-11.1049
▁protón	-11.1049
▁ovella	-11.105
▁Roo	-11.105
xi	-11.1058
▁estimación	-11.1063
▁Andre	-11.1063
▁inmigra	-11.1068
▁Rub	-11.1068
▁deixan	-11.1071
ot	-11.1074
▁350	-11.1081
▁pacientes	-11.1082
▁expresar	-11.109
▁aminoácido	-11.1093
▁mámoa	-11.1093
▁testemuño	-11.1093
▁oitavo	-11.1093
▁escaleira	-11.1093
▁fungo	-11.1094
▁poderosa	-11.1094
▁carece	-11.1094
▁defíne	-11.1095
▁Brux	-11.1095
▁parecer	-11.1095
▁teclado	-11.1095
▁pataca	-11.1096
erg	-11.1097
▁Ser	-11.1098
▁fío	-11.1101
ugh	-11.1102
scar	-11.1109
▁demostración	-11.1112
adura	-11.1113
oven	-11.1118
▁Sala	-11.1124
▁Antárti	-11.1133
▁armenio	-11.1139
▁estratéxica	-11.1139
▁garanti	-11.1139
▁melodía	-11.1139
▁bolxevique	-11.1139
▁doazón	-11.1139
tomán	-11.114
▁galería	-11.114
▁cadrada	-11.1141
▁trasladado	-11.1142
▁holandes	-11.1145
onal	-11.1152
▁emigrante	-11.1162
▁Il	-11.1163
▁corent	-11.1164
▁tratou	-11.1166
▁Leon	-11.1175
▁flor	-11.1175
▁financia	-11.1181
▁participan	-11.1182
▁Ernest	-11.1184
▁exitosa	-11.1184
▁intérprete	-11.1184
▁disposto	-11.1184
▁Báltic	-11.1186
▁dicionario	-11.1187
▁Xefe	-11.1189
▁leal	-11.1191
▁FI	-11.1192
▁Super	-11.1208
oan	-11.1208
viación	-11.1208
outh	-11.1209
orge	-11.1213
▁mestra	-11.1213
uliu	-11.1218
lona	-11.1223
▁coloca	-11.1223
▁Pear	-11.1226
▁destinada	-11.123
▁fluído	-11.123
▁tronco	-11.123
▁prototipo	-11.123
▁exceso	-11.123
▁arroz	-11.123
▁tartaruga	-11.123
▁State	-11.1236
▁trompeta	-11.1236
able	-11.1238
▁vasca	-11.124
▁usual	-11.1241
maior	-11.1243
torio	-11.1243
SO	-11.1252
▁cumpri	-11.1253
▁asento	-11.1258
▁fila	-11.1275
▁asteroide	-11.1276
▁exipcia	-11.1276
▁franxa	-11.1276
▁mediterránea	-11.1276
▁Músic	-11.1276
▁australiano	-11.1276
▁milleiro	-11.1277
smo	-11.1278
terminación	-11.1281
▁confirmou	-11.1285
▁Artur	-11.1286
▁uní	-11.1286
▁controlada	-11.1287
core	-11.1291
▁127	-11.1293
▁ofreceu	-11.1298
▁Rod	-11.1303
▁126	-11.1307
▁suicid	-11.1309
▁v	-11.1321
amburg	-11.1322
▁bizantina	-11.1323
▁constelación	-11.1323
▁dinosauro	-11.1323
▁islámica	-11.1323
▁proveniente	-11.1323
▁renacentista	-11.1323
▁desastre	-11.1323
▁rexente	-11.1325
▁Cinc	-11.1327
▁funcionar	-11.1331
▁Sacr	-11.1335
▁almacena	-11.1337
rgoña	-11.1342
▁Natural	-11.1343
▁Fé	-11.1346
▁derrotar	-11.136
▁sí	-11.1362
rrupción	-11.1369
▁Biblioteca	-11.1369
▁enfoque	-11.1369
▁pioneiro	-11.1369
▁tributo	-11.1369
▁describiu	-11.1371
▁Municipal	-11.1371
▁pare	-11.1374
▁renova	-11.1382
▁medr	-11.1393
latón	-11.1394
hite	-11.1394
esopot	-11.1397
▁tentar	-11.1397
▁trasladar	-11.1398
▁atopada	-11.1401
▁Emili	-11.1409
▁oitenta	-11.1416
▁transcrición	-11.1416
▁consig	-11.1417
▁cáp	-11.1417
▁intre	-11.1419
▁forzado	-11.1423
▁Sch	-11.1424
▁gaélico	-11.1425
▁exame	-11.1426
▁aproveitar	-11.1427
▁prima	-11.1429
nix	-11.1433
▁Parte	-11.1433
▁hax	-11.1437
verde	-11.1441
▁xuíz	-11.1444
▁condena	-11.1445
▁118	-11.1447
66	-11.145
oz	-11.1452
uiro	-11.1455
▁Cabe	-11.146
▁Alban	-11.1461
fluencia	-11.1461
▁Recibi	-11.1463
▁comprensión	-11.1463
▁orbita	-11.1463
▁orgánico	-11.1463
▁revolucionaria	-11.1463
▁xermánico	-11.1463
▁protexida	-11.1463
lvaro	-11.1463
▁gaita	-11.1463
bese	-11.1466
▁caudal	-11.1468
han	-11.1469
▁táctica	-11.1471
▁gobernar	-11.1474
▁tenente	-11.1476
▁Marcel	-11.1481
lfo	-11.1484
▁Buda	-11.1489
▁Saturn	-11.149
▁Berga	-11.1498
▁autonómica	-11.1503
▁cruza	-11.1504
vos	-11.1506
▁pasaría	-11.151
▁Iglesia	-11.151
▁espectacular	-11.151
▁promover	-11.1512
▁croata	-11.1518
▁perna	-11.1519
vese	-11.1522
bano	-11.1526
▁consumidor	-11.1526
▁More	-11.1527
▁descende	-11.1527
▁adulto	-11.1533
▁póla	-11.1533
bre	-11.1538
▁extra	-11.1539
▁foille	-11.154
▁competir	-11.1547
▁manteñ	-11.1553
ov	-11.1555
▁mutación	-11.1555
▁Chris	-11.1557
▁Administración	-11.1557
▁Considéra	-11.1557
▁sufraxio	-11.1557
▁xurídico	-11.1557
▁percepción	-11.1558
▁foco	-11.1558
prendeu	-11.156
▁Braga	-11.156
▁baseándo	-11.1561
▁sinala	-11.1562
▁Fraga	-11.1563
▁apoia	-11.1564
ulario	-11.1564
▁asinado	-11.1565
▁Brit	-11.1565
▁contamina	-11.1571
ecia	-11.1572
sodio	-11.1574
▁ordenado	-11.1582
▁Mauric	-11.1584
ague	-11.1586
▁pensaba	-11.1594
ger	-11.1595
▁chuvia	-11.1605
▁diplomática	-11.1605
▁hectárea	-11.1605
▁módulo	-11.1605
▁edificación	-11.1605
▁segmento	-11.1605
▁nómade	-11.1605
▁desenvólve	-11.1606
▁asumir	-11.1606
▁fornece	-11.1607
▁Adam	-11.1608
fase	-11.1609
▁masculina	-11.161
▁bit	-11.161
▁utilizaba	-11.161
▁contribúe	-11.1615
ofre	-11.1618
▁estivese	-11.1619
▁confusión	-11.1621
▁Xustin	-11.1624
▁compo	-11.1627
▁muda	-11.1628
vena	-11.1636
▁Alxer	-11.1636
▁coroado	-11.1643
R	-11.1645
▁Fan	-11.1646
▁fol	-11.1651
▁castaña	-11.1652
▁montañoso	-11.1653
▁pulmón	-11.1653
▁remónta	-11.1653
▁insular	-11.1653
▁concilio	-11.1654
▁especializado	-11.1654
▁prohibición	-11.1655
▁abuso	-11.1656
▁altar	-11.1664
ster	-11.1668
▁Samo	-11.1669
ólogo	-11.1672
▁camp	-11.1674
▁Pí	-11.1678
stem	-11.1683
▁chamaba	-11.1685
guerra	-11.1688
▁tende	-11.1692
▁israelí	-11.1695
▁exp	-11.1698
▁climático	-11.1701
alá	-11.1702
▁asistente	-11.1703
▁neurona	-11.1703
▁transcorre	-11.1703
▁Sonic	-11.1705
▁marchar	-11.1705
TV	-11.1707
one	-11.171
lasca	-11.1714
rais	-11.1715
▁Fonte	-11.1715
▁rodea	-11.1715
▁123	-11.1719
▁india	-11.172
▁celeste	-11.1723
▁fus	-11.1723
▁acelera	-11.1725
▁combater	-11.1733
▁facción	-11.1746
▁sorpresa	-11.1749
▁equipamento	-11.1749
▁fariña	-11.1749
▁comentario	-11.175
▁vertente	-11.175
▁xenera	-11.1754
▁Long	-11.1755
▁mudar	-11.1756
▁plural	-11.1756
▁Cerc	-11.1758
▁xiro	-11.176
▁Valle	-11.1769
tiva	-11.1774
▁narra	-11.1777
▁Time	-11.1783
▁Rin	-11.1786
eeth	-11.1788
▁Rico	-11.1789
▁abarca	-11.1791
bert	-11.1795
▁deber	-11.1795
▁evolutiva	-11.1798
▁inspirado	-11.1798
▁suevo	-11.1798
▁convención	-11.1798
▁descarga	-11.1799
▁reuniu	-11.1809
▁conecta	-11.181
ompañía	-11.1817
alter	-11.1823
▁Galla	-11.1825
▁Canal	-11.1828
áz	-11.1839
ford	-11.1843
▁Exemplo	-11.1846
▁Irmandade	-11.1846
▁cerebra	-11.1846
▁indoeuropea	-11.1846
▁máxico	-11.1846
▁óptica	-11.1846
▁gramatica	-11.1846
▁consecutivo	-11.1847
▁empezar	-11.185
▁acompañada	-11.1851
▁sombra	-11.1852
▁citada	-11.1854
silva	-11.1858
▁normando	-11.1864
▁territori	-11.1866
eus	-11.1868
▁Latin	-11.1869
▁testa	-11.187
▁Montre	-11.1871
▁ví	-11.1875
▁escoitar	-11.1876
dro	-11.1877
▁reside	-11.1885
▁Luca	-11.1892
▁ordena	-11.1893
▁inaugurou	-11.1895
▁mármore	-11.1895
▁peito	-11.1896
minación	-11.1896
▁mesquita	-11.1897
▁embarcación	-11.1897
▁teito	-11.1898
▁variado	-11.1899
▁engadido	-11.1901
▁vela	-11.1902
▁105	-11.1905
▁132	-11.1911
▁achegar	-11.1925
▁121	-11.1927
▁asegura	-11.193
▁proporcional	-11.1932
lena	-11.1932
▁controlado	-11.1933
▁Men	-11.1942
▁triángulo	-11.1945
▁5,	-11.1945
▁pregunta	-11.1948
▁confundir	-11.1948
▁moda	-11.1949
▁Interior	-11.1951
ntiño	-11.1952
▁atraer	-11.1954
▁xacemento	-11.1957
▁rematada	-11.1958
▁vencedor	-11.1962
▁All	-11.1963
rían	-11.1965
▁glaciar	-11.1965
operación	-11.1967
▁precursor	-11.1969
▁Fri	-11.1971
▁estivera	-11.198
▁choco	-11.1994
▁Situad	-11.1994
▁teorema	-11.1994
▁escocesa	-11.1995
▁instancia	-11.1996
gado	-11.1997
▁acompaña	-11.1998
▁fallo	-11.1998
▁neerland	-11.2001
▁Lim	-11.2004
quia	-11.2004
▁auxiliar	-11.2005
▁ama	-11.2008
▁produtora	-11.2012
▁asalto	-11.2012
▁doada	-11.2013
parecen	-11.2018
▁Porta	-11.2019
▁ermida	-11.2023
▁impedir	-11.2023
ío	-11.2025
parte	-11.2027
lgunha	-11.2034
▁etiqueta	-11.2036
ci	-11.2038
censión	-11.2042
inda	-11.2044
▁International	-11.2044
▁adolescente	-11.2044
▁Campión	-11.2046
▁elaborado	-11.2047
▁cura	-11.2047
▁biografía	-11.2048
▁Cong	-11.2051
▁xuí	-11.2051
▁étnica	-11.2053
▁fiscal	-11.2054
▁cruzado	-11.2055
▁disciplinas	-11.2057
▁Saud	-11.2058
▁facilita	-11.2059
▁afirmar	-11.2059
▁Eus	-11.2061
▁Dumb	-11.2066
▁galo	-11.2068
▁esquerd	-11.2068
▁Rodrig	-11.2069
velt	-11.2073
▁Ch	-11.2077
▁adopta	-11.2078
▁Fix	-11.2086
▁Ron	-11.2087
▁Adoita	-11.2088
▁temperá	-11.2093
▁submarino	-11.2094
lumini	-11.2097
▁vicepresidente	-11.2097
▁introducido	-11.2098
▁parentes	-11.2099
▁Land	-11.21
púxo	-11.2107
▁arteria	-11.2107
▁ascenden	-11.2107
▁dise	-11.2109
▁Dela	-11.211
vocab	-11.2117
▁Petersburg	-11.212
andro	-11.213
▁nervioso	-11.2131
80	-11.2139
▁acontece	-11.2144
▁climática	-11.2144
▁desaparecido	-11.2144
▁laranxa	-11.2144
▁lexislativa	-11.2144
▁promesa	-11.2144
▁aparato	-11.2144
▁PSdeG	-11.2144
▁Servizo	-11.2145
▁provisional	-11.2145
▁encargou	-11.2145
ndico	-11.215
▁mono	-11.2151
SS	-11.2151
▁extrac	-11.2165
▁incorporación	-11.2165
iuse	-11.2166
▁abandono	-11.2169
▁responde	-11.2169
70	-11.217
▁ad	-11.2172
▁respondeu	-11.2173
senso	-11.2177
▁oxida	-11.2184
AF	-11.219
▁arciprestado	-11.2195
▁Balcán	-11.2195
▁nega	-11.2195
▁paixón	-11.2195
▁traducido	-11.2196
▁exiliado	-11.2197
▁sultán	-11.22
▁ducia	-11.2201
onna	-11.2201
▁nomear	-11.2205
▁abandonado	-11.2207
og	-11.2209
▁Duca	-11.2213
pil	-11.2222
▁Pamp	-11.2223
▁variar	-11.2228
▁Pel	-11.2232
▁Ala	-11.2237
▁combina	-11.224
ner	-11.2241
▁redac	-11.2244
▁adquire	-11.2246
▁filosófico	-11.2246
▁pescozo	-11.2246
▁lexión	-11.2246
▁sentenza	-11.2247
▁diálogo	-11.2247
▁cadeira	-11.2247
▁amosan	-11.2249
▁intelixente	-11.225
▁delegado	-11.225
▁Metal	-11.2251
▁combinado	-11.2254
▁Caso	-11.2254
▁cantón	-11.2254
▁andar	-11.2256
▁caracterizado	-11.2257
▁Scho	-11.2274
▁pape	-11.2275
▁ampliación	-11.2276
▁púxo	-11.2285
▁adxectivo	-11.2297
▁autónomo	-11.2297
▁obtida	-11.2297
▁suízo	-11.2297
▁turística	-11.2297
▁Anatoli	-11.2297
▁vixente	-11.2297
▁adecuada	-11.2297
▁doutoramento	-11.2298
▁pesada	-11.2299
▁bico	-11.23
anía	-11.2301
▁aproximación	-11.2303
ureza	-11.2306
▁Solar	-11.2306
▁reparti	-11.2308
aíña	-11.231
▁cans	-11.2312
▁sabía	-11.2314
▁poderá	-11.2314
▁pastor	-11.2314
▁asistir	-11.2318
▁cren	-11.2324
elaxe	-11.2325
▁transporta	-11.2326
▁situar	-11.2331
▁nacido	-11.2334
▁Ría	-11.2334
▁Cort	-11.2344
▁cuarte	-11.2345
▁Cl	-11.2347
stancia	-11.2347
tacou	-11.2347
▁distingue	-11.2348
▁fiestra	-11.2348
▁franquía	-11.2348
▁mecánico	-11.2348
▁oceánico	-11.2348
▁petróglifo	-11.2348
▁patriarca	-11.2348
▁robot	-11.2348
▁Escribiu	-11.2348
▁esquema	-11.2348
▁medicamento	-11.2348
▁Bizan	-11.2348
▁Esquer	-11.2348
▁cátedra	-11.2348
▁incrementa	-11.2348
▁eventual	-11.235
▁Aplausos	-11.2351
▁mutua	-11.2351
▁tirada	-11.2352
mbra	-11.2353
anda	-11.2353
lice	-11.2355
▁avanzado	-11.2355
▁materna	-11.2358
▁Pol	-11.2358
▁transformar	-11.2364
▁narración	-11.2367
▁coñecen	-11.2368
▁intern	-11.2371
▁organiza	-11.2373
▁facilitar	-11.2376
▁mira	-11.239
▁continu	-11.2391
▁cota	-11.2393
olic	-11.2394
▁Bor	-11.2398
▁descobre	-11.2399
▁extraordinaria	-11.2399
▁Palestin	-11.2399
▁refuxiado	-11.24
▁perdido	-11.24
▁Steve	-11.2401
▁influenciado	-11.2404
▁formulación	-11.2407
venta	-11.241
▁107	-11.241
▁preparado	-11.2433
rum	-11.2435
▁ética	-11.2443
▁após	-11.2443
▁deberá	-11.2444
▁aboli	-11.2446
▁Asun	-11.2447
▁fisi	-11.2447
tismo	-11.2448
▁fonética	-11.2451
▁peninsular	-11.2451
▁activista	-11.2452
▁Traba	-11.2454
▁plana	-11.2462
pique	-11.2463
sistencia	-11.2465
▁mostras	-11.2465
foro	-11.2466
▁gramo	-11.2468
▁Naquel	-11.2474
▁taller	-11.2475
tar	-11.2481
▁sentir	-11.2483
car	-11.2487
▁traballan	-11.2488
▁Buc	-11.2491
▁salva	-11.2498
▁descontento	-11.2503
▁lámina	-11.2503
▁paradoxo	-11.2503
▁reflexión	-11.2504
▁Free	-11.2504
▁rumor	-11.2504
▁felic	-11.2506
▁Montaña	-11.2508
▁Estadi	-11.251
▁ocupaba	-11.2517
▁ilegal	-11.2519
▁Alemán	-11.2523
▁tu	-11.2525
▁físicas	-11.2531
ún	-11.2534
▁arqueolóxica	-11.2556
▁atractivo	-11.2556
▁cumpre	-11.2556
▁nocturno	-11.2556
▁sigla	-11.2556
▁freguesía	-11.2556
▁prohibido	-11.2557
▁rito	-11.2559
▁Eri	-11.256
▁143	-11.2569
▁titulada	-11.2569
▁horizontal	-11.257
▁Padr	-11.2573
▁denominar	-11.2581
▁Liber	-11.2588
▁Lee	-11.2591
acia	-11.2598
▁prol	-11.2599
▁enclave	-11.2601
▁descans	-11.2604
late	-11.2604
▁empregaba	-11.2605
▁previo	-11.2608
▁pirámide	-11.2608
▁adicional	-11.2609
▁cuncha	-11.261
▁Rac	-11.2611
▁dramática	-11.2612
▁Chá	-11.2613
▁festiva	-11.2613
▁axencia	-11.2613
IA	-11.2614
▁atravesad	-11.2615
▁observa	-11.2615
▁ensinanza	-11.2617
▁colocar	-11.2617
▁transmitir	-11.2621
▁establecé	-11.2621
elección	-11.2624
▁muscular	-11.2627
▁compartir	-11.2629
▁salvar	-11.2631
▁fabricar	-11.2632
▁aplicada	-11.2634
▁Mer	-11.2634
▁Sun	-11.2635
ario	-11.2636
ut	-11.2637
▁convertido	-11.2638
▁barra	-11.2649
ain	-11.2652
▁dominado	-11.2653
ation	-11.2656
hl	-11.2657
▁emitir	-11.2661
▁Pale	-11.2661
▁ingrediente	-11.2661
▁réptil	-11.2661
▁Oxford	-11.2661
▁pseudónimo	-11.2661
▁Parece	-11.2662
▁barroca	-11.2662
▁137	-11.2664
▁señorío	-11.2664
▁paseo	-11.2664
▁cónsul	-11.2664
lidade	-11.2667
▁desempreg	-11.2667
▁xamai	-11.267
▁Berg	-11.2671
▁bl	-11.2672
▁terían	-11.2684
▁voca	-11.2684
▁interpreta	-11.2689
▁afirman	-11.269
▁fabricado	-11.269
▁contend	-11.2694
▁vira	-11.2696
▁mailo	-11.2702
▁Tro	-11.2705
▁Estiv	-11.2706
▁Deputa	-11.2706
▁colabora	-11.2708
▁identificado	-11.2708
▁Ti	-11.271
▁Tan	-11.2711
▁cavidade	-11.2714
▁economic	-11.2714
▁residuo	-11.2714
▁ruído	-11.2714
▁previsto	-11.2714
▁aplica	-11.2714
▁campamento	-11.2715
▁6,	-11.2715
▁balón	-11.2715
▁comezaba	-11.2716
▁fortificación	-11.2716
▁cometa	-11.2718
▁florece	-11.2718
▁argumenta	-11.2719
▁misioneiro	-11.2721
▁estendida	-11.2722
▁pol	-11.2722
▁legado	-11.2722
▁Mario	-11.2739
tah	-11.2742
▁aprobado	-11.2747
mentr	-11.2747
▁tenden	-11.2748
▁estimula	-11.2749
▁destruír	-11.2751
▁Medicin	-11.2754
▁Fai	-11.2754
▁vence	-11.2759
▁gótica	-11.2761
▁talento	-11.2763
▁Meli	-11.2763
ru	-11.2764
▁vítima	-11.2767
▁galardón	-11.2768
▁mitocondria	-11.2768
▁cadáver	-11.2768
▁Lexislativ	-11.2768
▁profesión	-11.2768
▁sagrado	-11.2768
▁trama	-11.2769
▁cotiá	-11.277
▁editar	-11.2772
▁asina	-11.2776
▁elixiu	-11.2776
▁Dr	-11.2781
venceu	-11.2784
▁polar	-11.2784
▁Ib	-11.2787
▁contraria	-11.279
mundo	-11.2791
▁eficiente	-11.2792
▁Gar	-11.2794
▁menciona	-11.2795
▁manifesto	-11.2795
tol	-11.2797
ebec	-11.2802
▁Pico	-11.2809
▁Bull	-11.2811
▁rosa	-11.2811
▁Lama	-11.2817
▁aeronave	-11.2822
▁turca	-11.2822
▁falsa	-11.2822
▁consecutiva	-11.2822
▁aliada	-11.2822
▁Gobernador	-11.2823
▁introducida	-11.2824
▁encargada	-11.2825
▁patente	-11.2826
▁léxico	-11.2828
ud	-11.2828
▁Gau	-11.2833
▁irlandesa	-11.2833
caia	-11.2834
▁logro	-11.2845
▁Mag	-11.2855
▁hu	-11.2866
deira	-11.2867
▁conducir	-11.2873
▁agraria	-11.2876
▁mexicano	-11.2876
▁ornamenta	-11.2876
▁baile	-11.2876
▁Galeguista	-11.2876
▁eslavo	-11.2876
▁sublevación	-11.2876
▁lousa	-11.2876
▁moderada	-11.2876
▁balea	-11.2876
mond	-11.2878
▁adquisición	-11.2879
▁retirado	-11.2879
▁ancha	-11.2879
▁Ocean	-11.288
▁patio	-11.2883
▁habitado	-11.2883
▁ferramenta	-11.2883
▁Amar	-11.2888
▁faga	-11.2888
▁protectora	-11.289
osteiro	-11.2895
furt	-11.29
ituan	-11.2901
xia	-11.2903
▁ácha	-11.2903
▁secreta	-11.2908
dad	-11.2909
op	-11.2919
▁Ll	-11.2922
▁sobrevivi	-11.2927
▁operador	-11.293
absburgo	-11.293
miento	-11.293
▁deshabitada	-11.293
▁diploma	-11.293
▁escaravello	-11.293
▁glicosa	-11.293
▁catálogo	-11.293
▁lexislatura	-11.293
▁Mallor	-11.293
▁impide	-11.293
▁consola	-11.2933
▁presidid	-11.2934
▁adoptada	-11.2935
▁parada	-11.2935
dando	-11.2945
bol	-11.2956
▁adop	-11.2957
▁nutriente	-11.2962
▁producí	-11.2963
▁riva	-11.2965
▁Silv	-11.2974
▁pese	-11.2975
▁traza	-11.2979
▁Rai	-11.2984
▁combusti	-11.2984
▁Económica	-11.2985
▁asturiano	-11.2985
▁escuadra	-11.2985
▁fortuna	-11.2985
▁tuberculos	-11.2985
▁xurídica	-11.2985
▁guionista	-11.2985
▁arxentina	-11.2985
hecoslova	-11.2985
▁suspensión	-11.2985
▁Crime	-11.2985
▁favorito	-11.2987
▁proclamad	-11.2987
▁peto	-11.2987
▁Doug	-11.2988
▁Marsh	-11.2988
▁fundamento	-11.2991
▁estender	-11.2997
▁114	-11.3
▁saqueo	-11.3007
▁aristocr	-11.3013
era	-11.3014
▁Stan	-11.3014
▁Mort	-11.3016
▁Malai	-11.3018
▁cantar	-11.3024
▁rego	-11.3031
▁Camer	-11.3033
bur	-11.3034
▁Amazon	-11.304
▁eclesiástico	-11.304
▁islámico	-11.304
▁parámetro	-11.304
▁decisiva	-11.304
▁obreira	-11.304
▁desembarco	-11.304
▁sinatura	-11.304
▁término	-11.304
▁aterraxe	-11.304
▁coñecía	-11.3041
▁Outeir	-11.3041
▁céntra	-11.3041
▁Simon	-11.3041
ctina	-11.3041
▁posib	-11.3042
▁Dos	-11.3042
▁liderada	-11.3043
▁gobernada	-11.3043
▁gobernado	-11.3045
▁veñ	-11.3047
▁Teo	-11.3049
▁Butt	-11.3051
▁holand	-11.3052
▁correcta	-11.3053
▁xigante	-11.3058
▁adiciona	-11.3064
▁denuncia	-11.3078
▁Lorenz	-11.3088
▁axudante	-11.3089
erife	-11.3093
elena	-11.3094
▁romaniza	-11.3094
▁Gabriel	-11.3095
▁Leopold	-11.3095
▁defecto	-11.3095
▁delegación	-11.3095
▁viquingo	-11.3095
▁vándalo	-11.3095
▁Dragon	-11.3095
▁Noutra	-11.3095
▁pór	-11.3098
▁modificado	-11.3099
ern	-11.31
▁Eva	-11.3102
▁adoptado	-11.3104
▁republicana	-11.3105
▁Victoria	-11.3106
onel	-11.3111
ate	-11.3112
▁134	-11.3115
▁voda	-11.3119
▁invadir	-11.3119
atura	-11.312
▁integrar	-11.3124
▁parecía	-11.3125
▁reconquista	-11.3127
▁piar	-11.3128
tas	-11.3128
▁escoita	-11.3129
▁conservar	-11.3132
▁Vá	-11.3135
▁consolida	-11.3141
▁revela	-11.3145
▁buscaba	-11.3149
ómpre	-11.315
▁proxección	-11.315
▁Rexiona	-11.315
▁atinxi	-11.315
▁polígono	-11.315
▁Investigación	-11.3151
▁revisión	-11.3151
▁rumb	-11.3152
omeo	-11.3153
▁resultar	-11.3153
▁Lud	-11.3155
▁trazado	-11.3159
▁Ball	-11.3161
▁cant	-11.3166
▁Asi	-11.3168
▁gande	-11.3173
▁meseta	-11.3175
ota	-11.3175
▁Doutr	-11.3177
▁du	-11.3179
▁afección	-11.3181
▁adaptado	-11.3181
acob	-11.3185
▁saí	-11.3188
abana	-11.3188
▁GP	-11.319
rac	-11.3192
▁conservado	-11.3195
▁evita	-11.3196
▁estima	-11.3198
▁108	-11.3198
eft	-11.32
▁checo	-11.3202
▁acadando	-11.3206
▁Executiv	-11.3206
▁divindade	-11.3206
▁romaría	-11.3206
▁teléfono	-11.3206
▁gabinete	-11.3206
▁recollido	-11.3206
▁teórica	-11.3206
▁Formou	-11.3206
clero	-11.3207
▁emitida	-11.3208
▁poboaciona	-11.3208
▁138	-11.3208
▁elaborada	-11.3208
▁emitido	-11.3209
▁subministración	-11.321
▁Cret	-11.3211
▁Lenno	-11.3214
elo	-11.3214
xeo	-11.3214
▁convencional	-11.3221
itat	-11.3223
▁efectivo	-11.3227
▁Limi	-11.3228
▁142	-11.3232
▁espl	-11.3234
▁Aparece	-11.3235
▁129	-11.3236
llino	-11.3237
▁Anders	-11.3239
▁guía	-11.3241
podo	-11.3241
iberia	-11.3248
▁escribi	-11.3249
▁causado	-11.325
▁madura	-11.325
▁ocorrer	-11.3256
▁117	-11.3259
iscal	-11.326
▁emite	-11.3262
itanni	-11.3262
▁abertura	-11.3262
▁decisivo	-11.3262
▁soterrado	-11.3262
▁Bizantin	-11.3262
▁epidemia	-11.3262
▁Política	-11.3262
▁notábe	-11.3262
▁obstáculo	-11.3263
negro	-11.3264
▁temperado	-11.3265
agno	-11.3265
▁prosperidade	-11.3266
▁disputou	-11.3269
▁cruzada	-11.3271
▁Debe	-11.3272
▁habitación	-11.3279
▁bota	-11.328
▁excepcional	-11.3283
burgo	-11.3284
▁peste	-11.329
▁rota	-11.3294
gio	-11.3298
▁impux	-11.3298
▁Segur	-11.3309
▁marcia	-11.3314
▁opera	-11.3317
▁sometida	-11.3319
▁Mercedes	-11.3319
▁furacán	-11.3319
▁trofeo	-11.3319
▁Mada	-11.3323
▁Davi	-11.3325
▁apoiada	-11.3325
▁calcular	-11.3325
▁violación	-11.3326
▁abandonada	-11.3327
mero	-11.3327
▁facto	-11.3331
▁proporcionar	-11.3336
ibn	-11.3337
14	-11.3337
▁109	-11.334
▁Amor	-11.3345
tividade	-11.3345
▁Inc	-11.3346
▁Eul	-11.3346
▁Orient	-11.3348
▁beneficio	-11.3354
▁presentada	-11.3354
endor	-11.3355
▁penetra	-11.3356
▁dedica	-11.3362
▁Mani	-11.3364
▁influí	-11.3369
candinavia	-11.3376
▁sensible	-11.3376
▁Sound	-11.3378
▁véx	-11.3378
▁Nir	-11.3379
▁liberar	-11.3384
▁Coma	-11.3385
▁450	-11.3385
úric	-11.3386
▁Fro	-11.3389
be	-11.339
▁rivalidade	-11.339
▁misa	-11.3391
▁neutral	-11.3395
▁solucións	-11.3406
▁oco	-11.3407
▁homónim	-11.3414
onía	-11.3422
▁ortodoxa	-11.343
▁antecesor	-11.3433
telecomunicación	-11.3435
▁iniciada	-11.3442
▁repartido	-11.3442
▁rapaza	-11.3442
▁racia	-11.3444
▁Vari	-11.3454
▁estudado	-11.3455
▁Salom	-11.3457
voa	-11.346
▁infinito	-11.3461
▁dona	-11.3462
isne	-11.3466
vard	-11.3473
▁ocorren	-11.3473
olf	-11.3476
tario	-11.3485
▁axeitado	-11.349
▁substantivo	-11.349
▁eficaz	-11.349
▁sólida	-11.349
anzas	-11.3491
▁Odise	-11.3491
▁violín	-11.3491
▁dándolle	-11.3493
helm	-11.3493
▁Director	-11.3493
▁plasma	-11.3494
▁rato	-11.3494
▁122	-11.3494
▁encargo	-11.3495
▁Tah	-11.3497
▁gravada	-11.35
▁agrupad	-11.3504
▁119	-11.3511
▁Noro	-11.3513
▁asiática	-11.3522
aquist	-11.353
▁soste	-11.3545
▁coincide	-11.3547
▁independentista	-11.3548
▁sábado	-11.3548
▁antibiótico	-11.3548
▁Branca	-11.3548
▁demográfico	-11.3548
▁troco	-11.3548
▁basílica	-11.3548
eppe	-11.3549
▁parlamentario	-11.3549
▁Port	-11.3553
▁dominada	-11.3554
▁superviven	-11.3555
▁probar	-11.3561
olivia	-11.3564
▁Cla	-11.3565
▁Vive	-11.3565
▁tocaba	-11.3566
▁Abadí	-11.3567
▁eficac	-11.3571
▁deseñou	-11.3576
▁Roda	-11.3577
▁erosi	-11.3583
uc	-11.3584
Lare	-11.3584
▁fiel	-11.3584
▁recoller	-11.3585
▁vulgar	-11.3588
▁drama	-11.3589
▁Bai	-11.359
▁Baio	-11.3592
▁DC	-11.3596
▁relata	-11.3598
▁cruce	-11.3599
▁Varia	-11.3599
▁Capel	-11.3601
▁inestab	-11.3603
emos	-11.3604
▁Estra	-11.3605
▁algoritmo	-11.3606
▁auténtico	-11.3606
▁defendía	-11.3606
▁esqueleto	-11.3606
▁inundación	-11.3606
▁manobra	-11.3608
▁servía	-11.3608
▁milicia	-11.3608
▁sorprendente	-11.3609
▁eixe	-11.3609
enberg	-11.361
▁loito	-11.3614
ntificado	-11.3615
angel	-11.3616
▁Game	-11.3618
▁adulta	-11.3619
hire	-11.3621
▁flamengo	-11.3622
▁disparo	-11.3623
tempo	-11.3626
▁cinto	-11.3629
▁Liberal	-11.363
▁modificar	-11.3634
▁Sant	-11.3639
▁Allen	-11.3642
tonia	-11.3645
▁Gal	-11.3646
▁delito	-11.365
▁preserva	-11.3651
▁romper	-11.3652
ello	-11.3659
▁regulación	-11.366
▁fraga	-11.3663
▁glándula	-11.3665
▁neutrón	-11.3665
▁estraño	-11.3665
▁vangarda	-11.3665
▁ourensá	-11.3665
▁Fundou	-11.3665
▁7,	-11.3665
▁feble	-11.3666
▁budista	-11.3667
▁Cruce	-11.3671
▁violento	-11.3672
▁minuto	-11.3672
▁Bona	-11.3676
▁prepara	-11.3676
▁detectar	-11.3678
▁South	-11.3678
eron	-11.3679
▁anxo	-11.3679
▁subi	-11.3682
▁naturalista	-11.3683
▁pracer	-11.3685
▁sé	-11.369
▁marqu	-11.369
ein	-11.3691
▁Gold	-11.3697
▁habería	-11.37
ega	-11.3708
▁Out	-11.3709
▁atómica	-11.3709
▁cedeu	-11.371
▁canal	-11.3712
▁esperaba	-11.3716
▁limitación	-11.3722
▁mercenario	-11.3724
▁burato	-11.3724
▁oitava	-11.3724
▁Celtic	-11.3724
▁evolucion	-11.3725
▁distribuída	-11.3726
▁instalado	-11.3727
▁Rio	-11.3729
▁Bat	-11.3729
▁renunci	-11.3736
▁sucedid	-11.3738
tela	-11.3753
enri	-11.3754
▁delta	-11.3755
▁incorporar	-11.3755
▁Laxe	-11.3756
hai	-11.3761
▁evoluciona	-11.3767
▁misterio	-11.3769
▁lega	-11.377
aquia	-11.3773
isco	-11.3775
▁Pica	-11.378
▁absorbe	-11.378
▁dirixía	-11.3781
nd	-11.3782
▁antepasado	-11.3783
▁mísil	-11.3783
▁oceánica	-11.3783
▁perfecto	-11.3783
▁repercusión	-11.3783
▁búlgaro	-11.3783
▁xuventude	-11.3783
▁cima	-11.3784
▁metaboli	-11.3785
▁Sarde	-11.3787
ave	-11.3791
▁restaurante	-11.3792
día	-11.3795
▁superficial	-11.3796
▁Fort	-11.3796
▁paciente	-11.3798
▁largo	-11.3803
▁Pop	-11.3804
▁anatom	-11.3808
monos	-11.3816
▁tira	-11.3817
▁confirma	-11.382
▁tomado	-11.3825
▁volvería	-11.3828
▁vaga	-11.3828
▁completou	-11.383
▁avanza	-11.3832
igan	-11.3833
▁lava	-11.3837
▁Luft	-11.3842
▁atmosférica	-11.3842
▁orixinou	-11.3842
▁distíngue	-11.3842
▁ferroviaria	-11.3842
▁proposto	-11.3843
▁metálica	-11.3843
▁repetida	-11.3843
▁ciclista	-11.3843
▁estimada	-11.3847
▁136	-11.3848
ras	-11.3856
▁designación	-11.3861
▁datado	-11.3883
▁primo	-11.3885
▁habitan	-11.3888
▁Católic	-11.3889
aro	-11.3894
▁dimiti	-11.3902
▁arbusto	-11.3902
▁concedido	-11.3902
▁fantasía	-11.3902
▁hormona	-11.3902
▁sanguíneo	-11.3902
▁discorre	-11.3904
▁vinculado	-11.3904
▁godo	-11.3905
▁That	-11.3905
▁anuncia	-11.3905
▁alimentaria	-11.3911
▁castrexo	-11.3915
▁Carlom	-11.3919
▁move	-11.392
▁ampl	-11.3924
rre	-11.3929
▁rematado	-11.3929
▁cristal	-11.3931
eminario	-11.3932
▁finaliz	-11.3935
▁Flan	-11.3939
▁mandar	-11.394
▁135	-11.3953
acultade	-11.3962
▁Giovann	-11.3962
▁túnel	-11.3962
▁clínica	-11.3962
▁Presenta	-11.3963
▁clan	-11.3964
orio	-11.3965
▁copa	-11.3968
▁estendido	-11.3969
▁caracterizada	-11.397
▁Francesc	-11.3973
▁conectado	-11.3973
▁Cova	-11.3976
alles	-11.3979
▁Orti	-11.3982
dres	-11.3984
▁provocada	-11.3987
▁perigosa	-11.3987
▁defensiva	-11.3988
iza	-11.3992
▁Glas	-11.3999
▁diferenciar	-11.3999
▁trato	-11.4005
▁criado	-11.4011
▁Spu	-11.4012
▁Dav	-11.4012
▁cubrir	-11.4013
celer	-11.4016
▁Castrelo	-11.4023
▁Chegou	-11.4023
▁eucariota	-11.4023
▁absor	-11.4024
▁cálido	-11.4026
▁sentía	-11.4028
▁conduce	-11.4029
iri	-11.403
▁ditador	-11.4031
▁inventor	-11.4032
▁747	-11.4032
▁divide	-11.4034
▁Sé	-11.4034
▁continuaba	-11.4036
chi	-11.404
▁Sega	-11.4044
▁producía	-11.4047
▁feudal	-11.4052
▁Aria	-11.4052
▁Cro	-11.4054
▁Barr	-11.4055
▁Exe	-11.4056
▁condes	-11.4056
ump	-11.4058
▁Nar	-11.406
titan	-11.406
▁Tolo	-11.4062
▁afectan	-11.4071
▁anuncio	-11.4072
mase	-11.4074
▁casamento	-11.4082
niversal	-11.4083
▁vacina	-11.4084
▁adolescencia	-11.4084
▁confederación	-11.4084
▁correcto	-11.4084
▁diminúe	-11.4084
▁excesiva	-11.4084
▁Aérea	-11.4084
▁sueca	-11.4084
▁intermedio	-11.4084
▁progresista	-11.4084
▁perdida	-11.4084
▁interesado	-11.4086
quilo	-11.4088
▁administrador	-11.4089
istoric	-11.409
▁renunciar	-11.4091
▁apo	-11.4094
ancia	-11.41
izar	-11.4101
▁computadora	-11.4105
▁Panam	-11.4107
▁Pública	-11.4108
▁porción	-11.4112
▁codia	-11.4113
▁conversa	-11.4118
cesio	-11.4119
▁Blue	-11.4121
▁dominar	-11.4122
▁traslado	-11.4124
▁distante	-11.4129
pp	-11.4132
▁escas	-11.4138
tland	-11.414
▁Cabana	-11.4142
▁autóctona	-11.4145
▁transformou	-11.4145
▁Appl	-11.4152
▁xulgado	-11.4154
▁Fór	-11.4154
▁Stre	-11.4155
▁irlandes	-11.4156
▁Ebr	-11.4158
▁toman	-11.4166
▁imposi	-11.4166
lines	-11.4167
▁sinalar	-11.4171
▁determina	-11.4171
posto	-11.4172
imal	-11.4173
cepción	-11.4174
▁AB	-11.4177
▁Facend	-11.4177
▁equivale	-11.4179
bade	-11.418
▁habita	-11.4188
▁IP	-11.4191
telo	-11.4194
▁escoller	-11.4198
▁Galax	-11.4199
erman	-11.4204
▁Principa	-11.4204
▁Mina	-11.4206
▁tecnolóxico	-11.4207
▁fermosa	-11.4207
▁práctico	-11.4207
▁exposta	-11.4207
▁xerarquía	-11.4207
▁espello	-11.4207
▁madurez	-11.4207
▁cinta	-11.4209
▁reconstruída	-11.421
▁funcional	-11.421
▁hostilidade	-11.421
▁alcumad	-11.4214
▁acumulación	-11.4218
▁Xene	-11.4224
▁Franc	-11.423
▁Soci	-11.4232
▁Norman	-11.4233
▁Barreiro	-11.4234
▁malo	-11.4239
▁explorar	-11.424
▁té	-11.424
▁talo	-11.4243
▁lider	-11.4243
spírito	-11.4247
▁bate	-11.4254
úl	-11.4259
▁cabale	-11.426
▁Pin	-11.4267
▁atlántica	-11.4269
▁inmensa	-11.4269
▁préstamo	-11.4269
nta	-11.4269
▁festividade	-11.4269
▁Gramm	-11.4269
▁reduce	-11.427
▁engade	-11.427
▁modificada	-11.4272
▁desenvolven	-11.4273
▁East	-11.4274
tén	-11.4278
▁viúva	-11.4279
▁Cun	-11.428
▁diminuír	-11.4287
▁perigoso	-11.4288
▁Antig	-11.4289
vana	-11.429
cito	-11.4294
▁dezaseis	-11.4294
▁xeno	-11.4297
▁armamento	-11.4297
▁custos	-11.4299
acio	-11.4306
▁ataca	-11.4308
▁comunica	-11.4311
▁comunicar	-11.4311
▁invasor	-11.432
▁levaría	-11.4322
▁ocasiona	-11.4323
▁vir	-11.4325
▁curtametraxe	-11.4332
▁migratoria	-11.4332
▁observou	-11.4332
▁separou	-11.4332
▁sufixo	-11.4332
▁bacharel	-11.4332
▁prefire	-11.4332
▁estratéxico	-11.4332
▁inversa	-11.4333
▁crecer	-11.4336
▁conspiración	-11.4337
grafía	-11.4339
▁eido	-11.434
▁artificia	-11.434
▁estadía	-11.434
ball	-11.4341
▁falecemento	-11.4342
omer	-11.4342
▁ilustración	-11.4344
▁112	-11.4346
▁baño	-11.4347
▁santa	-11.4348
matou	-11.435
▁eliminado	-11.435
▁rexeitado	-11.4351
▁espira	-11.4353
▁Lor	-11.4363
▁amid	-11.4368
▁acudi	-11.4368
▁Soto	-11.4368
▁oculta	-11.4371
▁106	-11.4375
▁Ali	-11.4382
▁rexeitar	-11.4384
▁tortura	-11.4386
▁Gro	-11.4392
▁rendi	-11.4394
▁subir	-11.4395
▁difire	-11.4395
▁foguete	-11.4395
▁informático	-11.4395
▁manufactura	-11.4395
▁simult	-11.4395
▁castigo	-11.4395
▁secreto	-11.4395
▁consecuente	-11.4395
erzo	-11.4396
▁Anxo	-11.4396
▁polio	-11.44
▁Atlant	-11.4402
▁virtual	-11.4403
▁votar	-11.4403
▁vixil	-11.4404
▁mantiver	-11.4407
▁emprende	-11.4411
▁navegante	-11.4413
rroco	-11.4422
struíu	-11.4423
ixeria	-11.4426
▁ilustrado	-11.4428
▁proveñ	-11.4431
▁00	-11.4434
▁disputar	-11.4439
▁bos	-11.4443
▁presentaba	-11.4446
▁castrex	-11.4446
▁peculiar	-11.445
▁integrou	-11.4451
▁lema	-11.4456
▁Bec	-11.4457
▁Consérva	-11.4458
▁adxacente	-11.4458
▁bicicleta	-11.4458
▁extraordinario	-11.4458
▁inspirada	-11.4458
▁educativa	-11.4458
▁bretón	-11.4458
▁utilidade	-11.4458
▁maxia	-11.4458
▁exposto	-11.4458
▁severa	-11.4461
▁representativo	-11.4462
▁sasánida	-11.4463
▁Valencian	-11.4466
▁Sara	-11.4467
▁colocado	-11.4469
▁interve	-11.4472
ena	-11.4473
▁decena	-11.4478
▁Catar	-11.4483
▁Groen	-11.4488
▁Common	-11.4491
▁Gou	-11.4491
▁admira	-11.4495
▁divulga	-11.4496
adruga	-11.4499
cidade	-11.4505
otte	-11.4512
▁manda	-11.4513
▁permanecen	-11.4516
imos	-11.4519
▁apóstolo	-11.4522
▁complemento	-11.4522
▁exitoso	-11.4522
▁guerrilla	-11.4522
▁olímpico	-11.4522
▁traiz	-11.4522
▁oposta	-11.4522
▁choque	-11.4522
▁preferencia	-11.4522
▁Lib	-11.4522
▁Estí	-11.4522
▁inclinación	-11.4522
▁Tim	-11.4526
▁concluí	-11.4529
▁Nicol	-11.4532
▁implanta	-11.4542
▁presidi	-11.4543
oto	-11.4546
thle	-11.4546
uga	-11.4546
▁amosar	-11.4546
▁levouno	-11.4549
▁fillas	-11.4551
▁estou	-11.4561
▁citar	-11.4562
arris	-11.4563
igh	-11.4567
PD	-11.4573
▁Guadal	-11.4576
▁degrada	-11.4577
ite	-11.4578
▁nacen	-11.4578
right	-11.4579
▁mi	-11.4579
▁constituía	-11.4586
▁enderezo	-11.4586
▁graxo	-11.4586
▁fenicio	-11.4586
▁grosa	-11.4586
▁mongo	-11.4586
▁estím	-11.4586
▁universitaria	-11.4586
▁prefectura	-11.4587
▁cego	-11.4587
▁outorgou	-11.4588
▁colapso	-11.4589
▁cinza	-11.4589
▁simboliza	-11.4591
▁orientada	-11.4596
F	-11.4602
▁selva	-11.4605
zul	-11.4608
▁Claudi	-11.4615
▁responder	-11.4619
chig	-11.4621
▁xesta	-11.4621
eroe	-11.4622
▁recordo	-11.4622
ife	-11.4623
▁entregado	-11.4625
▁escolle	-11.4628
eida	-11.4634
▁Timo	-11.464
▁Angel	-11.4646
▁Azor	-11.4646
evara	-11.4646
▁Apóstolo	-11.465
▁requisito	-11.465
▁romántico	-11.465
▁presb	-11.465
▁síndrome	-11.4653
▁mel	-11.4653
▁ladeira	-11.4653
▁Realizou	-11.4655
▁homosexual	-11.4655
▁Margari	-11.4655
ama	-11.4658
vina	-11.4659
▁sacar	-11.4659
▁sustenta	-11.4659
▁desempeño	-11.466
▁ámb	-11.4666
▁Tit	-11.4668
▁afroamericano	-11.4671
▁Ott	-11.4671
▁asume	-11.4672
▁France	-11.4672
utonomía	-11.4673
▁enverg	-11.4673
ebra	-11.4675
▁nominal	-11.4675
▁lazo	-11.4681
▁coordina	-11.4682
▁finaliza	-11.4684
aló	-11.4685
▁coiro	-11.4688
▁cama	-11.4689
▁gama	-11.4692
sh	-11.4698
▁reduciu	-11.4701
▁Esloven	-11.4702
▁Esco	-11.4703
▁NAS	-11.4704
ang	-11.4704
ficina	-11.4707
▁Dubl	-11.4711
▁apoiaba	-11.4713
▁incrementar	-11.4715
▁contempla	-11.4715
▁Reform	-11.4715
▁antecedente	-11.4715
▁constituínte	-11.4715
▁xermano	-11.4715
▁Recente	-11.4715
▁traducida	-11.4716
▁teólogo	-11.4716
▁bala	-11.4717
▁fascista	-11.4717
▁cilindro	-11.4719
▁cualificación	-11.4722
▁contratado	-11.4723
▁permitiulle	-11.4723
▁satisfac	-11.4723
▁Pontede	-11.4725
▁importación	-11.4726
nm	-11.4728
▁centrada	-11.4728
▁elaborar	-11.4734
▁desexaba	-11.4735
▁salón	-11.4741
▁dixita	-11.4741
▁test	-11.4746
▁cativo	-11.4753
cento	-11.4757
▁ATP	-11.4762
▁sindical	-11.4765
▁fí	-11.4771
▁facéndo	-11.4772
▁capturar	-11.4778
▁Tód	-11.478
▁Convención	-11.4781
▁Decreto	-11.4781
▁opositor	-11.4781
▁tóxico	-11.4781
▁eclipse	-11.4781
▁pavillón	-11.4781
▁sost	-11.4781
▁criatura	-11.4781
▁asirio	-11.4781
▁capta	-11.4781
arold	-11.4783
edes	-11.4785
▁substancial	-11.4791
▁artesán	-11.4792
▁rexeitada	-11.4792
rtico	-11.4794
▁estoniano	-11.4801
▁proceden	-11.4806
▁viaxeiro	-11.4808
▁ortodoxo	-11.4808
▁occitan	-11.4809
▁corno	-11.4811
laga	-11.4814
▁abdica	-11.4814
▁elector	-11.4815
iterio	-11.4827
hali	-11.483
▁libra	-11.4832
versidade	-11.4835
▁Consell	-11.4839
▁Vé	-11.484
▁Exterior	-11.4846
▁guerrilleiro	-11.4846
▁hábito	-11.4846
▁microorganismo	-11.4846
▁monopolio	-11.4846
▁repertorio	-11.4846
▁sedimento	-11.4846
▁denominou	-11.4846
▁arqueólogo	-11.4846
▁Traballa	-11.4847
▁porteiro	-11.4848
▁grava	-11.4848
▁Figuer	-11.4849
▁planifica	-11.485
▁gand	-11.4852
▁interpretada	-11.4852
ulo	-11.4855
▁determinante	-11.4856
eth	-11.4859
▁emigrar	-11.4859
breiro	-11.486
▁reforzo	-11.4863
▁aplíca	-11.4864
▁Eti	-11.4865
▁relaciona	-11.4867
▁sábe	-11.487
▁lembra	-11.4877
conomía	-11.4879
sperar	-11.4885
▁icona	-11.4897
▁text	-11.4898
▁Adriá	-11.4899
▁BM	-11.4902
▁serpe	-11.4902
▁enormes	-11.4903
▁Rev	-11.4903
▁cidad	-11.4906
▁Sabe	-11.4906
▁recep	-11.491
ermi	-11.4911
▁funera	-11.4912
▁hexem	-11.4913
▁Coñéce	-11.4913
▁Proxecto	-11.4913
▁sacrificio	-11.4913
▁Demócrata	-11.4913
▁claustro	-11.4913
▁insurrec	-11.4913
▁Branco	-11.4913
▁representou	-11.4915
echt	-11.492
▁Tar	-11.492
▁outorgado	-11.4921
▁sepulcro	-11.4922
▁Flavi	-11.4923
▁Isid	-11.4931
▁Alex	-11.4932
▁Rede	-11.4935
▁animado	-11.4937
lor	-11.4941
▁Eric	-11.4942
▁realizá	-11.4947
▁protexe	-11.495
▁alterna	-11.4955
▁emitiu	-11.4956
uselle	-11.4966
▁xustifica	-11.4971
▁emerxe	-11.4972
empre	-11.4973
volución	-11.4973
▁budis	-11.4978
▁113	-11.4978
▁conmemora	-11.4979
align	-11.4979
▁profeta	-11.4979
▁nórdico	-11.4979
▁orella	-11.4979
▁protagonizada	-11.4981
▁afastada	-11.4982
▁controla	-11.4983
▁Sport	-11.4983
aldo	-11.4989
outo	-11.499
asia	-11.4992
port	-11.4993
▁labrego	-11.4993
íso	-11.4994
ich	-11.4999
▁Bra	-11.5005
▁propaga	-11.5011
unge	-11.5011
acto	-11.5012
▁Magno	-11.5026
▁constituír	-11.5028
nexión	-11.5031
▁respira	-11.5031
▁Transi	-11.5032
▁Contra	-11.5034
pus	-11.5037
ína	-11.5037
rea	-11.5044
▁crustáceo	-11.5046
▁ostrogodo	-11.5046
▁recompilatorio	-11.5046
▁sucesivo	-11.5046
▁adóita	-11.5046
▁instalá	-11.5046
▁abadía	-11.5046
▁cerco	-11.5046
▁goberna	-11.5046
madura	-11.5047
▁mineira	-11.5048
▁retóric	-11.5048
▁cru	-11.5049
▁Serie	-11.505
▁Representante	-11.5051
▁conquistador	-11.5051
▁habitaba	-11.5054
▁solista	-11.5055
▁Comba	-11.5055
▁Nevad	-11.5061
▁Moz	-11.5061
latino	-11.5063
▁goza	-11.5064
▁navarro	-11.5068
▁Sill	-11.5071
▁rescat	-11.5078
▁litro	-11.5082
untu	-11.5094
▁Carr	-11.5095
araguai	-11.5105
▁afirmaba	-11.5106
ight	-11.5112
▁Orixina	-11.5113
▁emprazamento	-11.5114
▁lámpada	-11.5114
▁referido	-11.5114
▁esquina	-11.5114
▁pasta	-11.5114
▁Manhat	-11.5114
▁interface	-11.5115
▁vendida	-11.5115
ind	-11.5115
▁frauta	-11.512
▁Riva	-11.5121
15	-11.5122
▁Publicou	-11.5125
▁pigmento	-11.5126
▁pensador	-11.5127
▁clasificada	-11.5128
▁empresaria	-11.513
▁Mill	-11.5131
▁amosou	-11.5136
renta	-11.5146
▁multi	-11.5148
▁engadiu	-11.5154
rosio	-11.5155
▁139	-11.516
▁morfoloxía	-11.5161
gregación	-11.5164
var	-11.5164
▁Dio	-11.5172
▁ecua	-11.5174
▁sin	-11.5177
▁vertebrado	-11.518
▁demográfica	-11.5182
▁ideolóxica	-11.5182
▁subdivisión	-11.5182
▁Bohemia	-11.5182
▁estampa	-11.5182
▁nicho	-11.5182
▁adecuado	-11.5183
▁Reich	-11.5186
▁puntuación	-11.5191
▁mitos	-11.5191
▁Medi	-11.5194
▁denomína	-11.5198
▁pu	-11.5199
ice	-11.5204
▁limp	-11.5206
▁rompeu	-11.5211
▁Salv	-11.5215
▁propó	-11.5216
▁Neve	-11.522
▁Pres	-11.5224
▁forzada	-11.5234
▁esc	-11.5236
▁seleccionado	-11.5239
▁Best	-11.5245
lix	-11.5245
▁preferi	-11.5248
▁bispado	-11.525
▁masivo	-11.525
▁visíbe	-11.525
▁Cambridge	-11.525
▁campesiña	-11.525
▁frecha	-11.525
▁compite	-11.5251
▁novelista	-11.5251
▁respecta	-11.5251
▁procesión	-11.5251
▁volcánico	-11.5251
▁accesible	-11.5252
▁propagand	-11.5253
▁asasino	-11.5254
▁estrutural	-11.5254
▁Banda	-11.5254
▁iniciado	-11.526
▁agudo	-11.5265
▁especialidade	-11.5277
▁pensou	-11.5278
▁Aleix	-11.5278
▁poñen	-11.5283
▁decorado	-11.5284
▁xogan	-11.5287
ral	-11.5305
ash	-11.5305
▁Troi	-11.5306
vir	-11.5306
▁Campos	-11.531
▁Carballed	-11.5311
certeza	-11.5318
▁ultra	-11.5319
▁académica	-11.5319
▁aritmética	-11.5319
▁auténtica	-11.5319
▁substituto	-11.5319
▁acuática	-11.5319
▁respectivo	-11.532
uatemal	-11.532
▁fotón	-11.532
▁Gand	-11.5321
▁benestar	-11.5321
▁adición	-11.5322
▁Christian	-11.5323
▁faixa	-11.5325
▁Operación	-11.5326
▁desprazar	-11.5326
▁profesora	-11.5329
▁atraso	-11.5334
lise	-11.5335
dena	-11.5336
▁116	-11.5339
▁Prado	-11.534
▁bárbaro	-11.5343
▁Post	-11.5345
amento	-11.5351
uma	-11.5355
▁xigantes	-11.5362
▁leito	-11.5366
▁Malv	-11.5368
cre	-11.5371
▁Ferreiro	-11.5376
▁tip	-11.5377
▁reuní	-11.5379
▁Nice	-11.5383
▁Brun	-11.5383
▁similitude	-11.5387
▁vínculo	-11.5389
▁xeolóxico	-11.5389
▁Cantábric	-11.5389
▁radar	-11.5389
▁detalle	-11.5389
▁arranxo	-11.5389
▁adaptar	-11.539
▁conservou	-11.5392
▁rapaz	-11.5393
▁exhibición	-11.5394
▁pin	-11.5396
▁crer	-11.54
▁conforma	-11.5402
espe	-11.5407
▁Mich	-11.541
▁pos	-11.5411
▁concede	-11.5412
ledor	-11.5414
urt	-11.5417
dison	-11.5418
▁hélice	-11.542
▁Spo	-11.5433
collida	-11.544
▁fonda	-11.5441
▁Capita	-11.5442
rot	-11.5443
BM	-11.5443
▁repous	-11.5444
ther	-11.5445
▁Leo	-11.5445
▁correr	-11.5449
▁ofrecen	-11.5452
▁brill	-11.5455
▁obtiver	-11.5458
▁convocou	-11.5459
▁devanceiro	-11.5459
▁escándalo	-11.5459
▁interpretou	-11.5459
▁sistemática	-11.5459
▁indirecta	-11.5459
▁Noutro	-11.5459
▁peche	-11.5459
tografía	-11.546
▁gastro	-11.546
▁Muro	-11.546
▁notar	-11.546
▁inícia	-11.5461
▁cultivada	-11.5461
▁Apoll	-11.5463
▁paradigma	-11.5464
▁escisión	-11.5464
corporal	-11.5464
berto	-11.5464
▁posuír	-11.5466
uda	-11.5471
▁experimentar	-11.5471
▁exclusivo	-11.5471
▁xerada	-11.5472
▁contribuír	-11.5475
dne	-11.5477
▁Sul	-11.5477
▁Nav	-11.5479
▁antrop	-11.5487
▁documentado	-11.5489
▁Institut	-11.549
▁medi	-11.5492
▁Bell	-11.5494
encia	-11.5494
▁constrúe	-11.5499
▁espacia	-11.5503
▁miner	-11.5505
▁signific	-11.5506
▁transforma	-11.5511
tribuíu	-11.5518
autista	-11.5527
con	-11.5527
ndez	-11.5528
▁caracterizou	-11.5529
▁continxente	-11.5529
▁dramático	-11.5529
▁eucalipto	-11.5529
▁xeolóxica	-11.5529
▁dramaturgo	-11.5529
▁mol	-11.553
▁horta	-11.553
▁fume	-11.5531
▁cervexa	-11.5534
▁coco	-11.5534
▁Flame	-11.5537
▁observado	-11.554
ixo	-11.554
ruto	-11.5541
▁reivindicación	-11.5542
▁manual	-11.5543
▁144	-11.5545
▁impediu	-11.5548
▁ilumina	-11.5549
▁azu	-11.555
mia	-11.5557
▁Lagos	-11.5562
▁Grim	-11.5564
▁utilízan	-11.5565
▁antena	-11.5571
▁penal	-11.5573
ónica	-11.5574
▁Bah	-11.5576
▁comprobar	-11.5579
▁correctamente	-11.5583
▁outorga	-11.5584
▁Clara	-11.5585
▁capitalista	-11.5585
▁Sex	-11.5586
▁Marqu	-11.5589
▁ru	-11.56
▁Imperial	-11.56
▁Xacobe	-11.56
▁arxila	-11.56
▁peregrinación	-11.56
▁periodic	-11.56
▁reliquia	-11.56
▁vocábulo	-11.56
▁Alcalá	-11.56
▁triunfa	-11.56
▁audiovisua	-11.56
sburgo	-11.5601
▁campá	-11.5605
▁Volveu	-11.5608
▁br	-11.5608
▁3000	-11.561
▁aplicado	-11.5611
▁Libera	-11.5616
▁cultivar	-11.5619
▁envía	-11.562
▁valid	-11.5621
▁conquistado	-11.5623
▁faro	-11.5624
▁deseñador	-11.5626
▁Ros	-11.5627
▁comparti	-11.5631
imm	-11.5638
fectou	-11.5639
▁Fila	-11.5639
▁promociona	-11.564
vila	-11.5643
▁Ramir	-11.5646
▁avanzar	-11.5649
torga	-11.5649
▁Sobrad	-11.565
▁protector	-11.5653
▁entran	-11.5659
▁Tele	-11.5662
▁vólve	-11.5662
▁precede	-11.5665
delf	-11.5671
▁magnética	-11.5672
▁progresivo	-11.5672
▁pulmonar	-11.5672
▁válvula	-11.5672
▁tardío	-11.5672
▁traxedia	-11.5672
▁Pompei	-11.5672
▁Doutor	-11.5672
▁rexurdi	-11.5672
▁fide	-11.5674
▁dragón	-11.5675
▁pontevedr	-11.5677
anchur	-11.5677
▁BD	-11.5681
ares	-11.5682
▁monumental	-11.5683
▁diferenciada	-11.5684
▁someter	-11.5684
▁suxeriu	-11.5686
▁Membro	-11.5689
▁oído	-11.5694
▁Sm	-11.5695
▁cháman	-11.5701
▁Clod	-11.5704
▁león	-11.5709
▁acr	-11.5711
▁encontran	-11.5714
nseca	-11.5718
▁implicación	-11.5719
▁basea	-11.572
▁Cí	-11.5726
▁banca	-11.5737
nell	-11.5741
RC	-11.5743
▁reproducir	-11.5743
▁suprema	-11.5743
▁veterano	-11.5743
▁Após	-11.5743
▁axeitada	-11.5743
▁máxica	-11.5743
▁horizonte	-11.5743
▁berc	-11.5745
▁representativa	-11.5745
▁North	-11.5745
▁divina	-11.5745
▁adaptada	-11.5747
▁enviada	-11.5748
▁traducir	-11.5749
▁corporación	-11.575
min	-11.575
ixón	-11.5751
▁maila	-11.5752
▁lanzada	-11.5752
metría	-11.5753
▁xefes	-11.5753
▁definiu	-11.5754
▁interpretado	-11.5755
▁Sever	-11.5756
▁flúe	-11.5756
▁Eslov	-11.5758
▁Consta	-11.5764
▁Corpo	-11.5772
▁Pit	-11.5773
▁March	-11.5777
▁politica	-11.5778
▁Pala	-11.5779
ións	-11.5782
▁Va	-11.5782
▁Latino	-11.5784
SA	-11.5788
▁Tud	-11.5789
▁Arsen	-11.5794
▁conservada	-11.5795
▁sint	-11.5798
▁ánimo	-11.5806
▁recita	-11.5808
▁Chec	-11.5808
historia	-11.5815
▁Octavi	-11.5816
▁alcaldía	-11.5816
▁defensivo	-11.5816
▁garantía	-11.5816
▁guarnición	-11.5816
▁metrópole	-11.5816
▁divino	-11.5816
▁revelou	-11.5816
▁anfibio	-11.5816
▁reactor	-11.5816
▁castiñeiro	-11.5816
▁coloración	-11.5816
auber	-11.5817
▁entregou	-11.5817
íxer	-11.5819
▁pase	-11.5819
▁editada	-11.5821
▁aguda	-11.5823
▁Dour	-11.5827
▁obrigatoria	-11.5828
▁influenciada	-11.583
chet	-11.5832
▁quenda	-11.5833
zig	-11.5834
▁Independente	-11.5837
▁industrializa	-11.5839
rabe	-11.5841
▁mercadoría	-11.5842
▁competi	-11.5844
▁radioactivo	-11.5844
▁noruegu	-11.5847
▁acudir	-11.5847
▁lexítimo	-11.5847
▁Audio	-11.585
nterior	-11.5851
▁133	-11.5853
▁Sete	-11.5854
▁seminario	-11.5854
▁atribúe	-11.5857
▁encabezado	-11.5868
▁consulta	-11.5869
▁ficha	-11.5875
▁infl	-11.588
▁Az	-11.5881
▁It	-11.5884
▁conservadora	-11.5886
▁concéntra	-11.5889
▁fármaco	-11.5889
▁traxe	-11.5889
▁aguia	-11.5889
▁colocou	-11.5889
▁pretensión	-11.5889
▁Gordo	-11.5889
▁Carnot	-11.5889
▁poético	-11.5889
▁Plut	-11.5889
▁podio	-11.589
▁Fiste	-11.5892
▁catedrático	-11.5894
▁pedido	-11.5896
▁BB	-11.5896
▁ministerio	-11.5897
▁traduciu	-11.5898
▁normativa	-11.59
quel	-11.5903
▁Bog	-11.5908
▁superado	-11.5912
▁ventr	-11.5915
▁Bris	-11.5916
▁ucraíno	-11.5918
▁afectar	-11.5919
anxo	-11.592
▁pasto	-11.5924
▁bautizado	-11.5924
▁puxer	-11.5926
▁aconteceu	-11.593
▁rodean	-11.5932
▁escoces	-11.5933
▁navegador	-11.5935
▁xerador	-11.594
▁Sarri	-11.5941
erse	-11.5942
▁Sid	-11.5944
▁Pasa	-11.5945
iga	-11.5952
▁tratan	-11.5957
▁culpa	-11.5962
▁dependía	-11.5962
▁doméstica	-11.5962
▁sánscrit	-11.5962
▁acuático	-11.5962
▁maquina	-11.5963
▁humilde	-11.5963
▁percorrer	-11.5964
▁etimoloxía	-11.5964
▁suxeita	-11.5964
▁masacre	-11.5965
▁expoñente	-11.5965
▁esixencia	-11.5966
▁Calvo	-11.5966
▁apartado	-11.5969
▁Rui	-11.5971
▁macizo	-11.5971
▁milita	-11.5974
▁pomba	-11.5978
▁ameazada	-11.5983
▁Reg	-11.5985
por	-11.5985
▁álx	-11.5986
▁Valentin	-11.5988
iu	-11.5988
lica	-11.5996
ix	-11.6004
▁noruegues	-11.6005
▁Pre	-11.601
▁ritua	-11.6012
▁Andrea	-11.6013
▁Boa	-11.6013
▁incluían	-11.6014
▁Ren	-11.6024
▁deixaba	-11.6032
▁cela	-11.6033
▁Século	-11.6037
▁lóxico	-11.6037
▁vietnamita	-11.6037
▁perpendicular	-11.6037
▁peirao	-11.6037
▁veneciano	-11.6037
▁levantou	-11.6037
ii	-11.6038
▁Mira	-11.6041
▁lente	-11.6043
minou	-11.6046
▁más	-11.6047
lie	-11.6049
▁Prie	-11.6049
▁obrigada	-11.6052
▁oscilación	-11.6052
▁Tempo	-11.6053
▁falo	-11.6053
▁Fl	-11.6055
eracl	-11.6057
▁Sacra	-11.6057
▁fun	-11.6059
eresa	-11.6061
▁diferencial	-11.6065
▁fixar	-11.6068
▁narrador	-11.6069
tía	-11.607
▁Dra	-11.6071
rraca	-11.6072
▁ábre	-11.6077
▁Robin	-11.608
▁Xermánic	-11.6084
40	-11.6085
NI	-11.6086
▁Chega	-11.6089
▁Bria	-11.6091
▁imaxina	-11.6095
▁pertencer	-11.6096
▁toleran	-11.6098
▁obradoiro	-11.6104
▁resultaba	-11.6109
rie	-11.611
ódigo	-11.6111
▁Ocup	-11.6111
▁angular	-11.6111
▁bérber	-11.6111
▁constituíndo	-11.6111
▁idéntica	-11.6111
▁psicolóxico	-11.6111
▁vostede	-11.6111
▁mazá	-11.6111
▁simbólico	-11.6111
▁pecado	-11.6111
▁xesuíta	-11.6111
▁Exposición	-11.6111
▁imposta	-11.6111
▁escudería	-11.6111
▁fuga	-11.6112
▁montaxe	-11.6112
▁ultramar	-11.6112
▁Memoria	-11.6112
▁galiña	-11.6112
▁cin	-11.6113
tada	-11.6113
▁edita	-11.6114
▁correspondía	-11.6115
▁potas	-11.6115
▁gravitaciona	-11.6116
▁dono	-11.6117
▁subida	-11.6118
▁planea	-11.6119
▁Tara	-11.612
▁Ton	-11.6124
▁invitado	-11.6124
▁realizaba	-11.6127
▁Consist	-11.6137
▁construtores	-11.614
▁academia	-11.6143
▁Revolucionari	-11.6144
▁atravesar	-11.6144
▁operar	-11.615
▁doente	-11.6157
▁vol	-11.6163
▁pecha	-11.6165
▁chegado	-11.6167
OS	-11.6168
▁proporcionan	-11.6168
▁vende	-11.6168
▁aleta	-11.6168
ned	-11.617
▁deter	-11.6177
CE	-11.6177
▁Fala	-11.6177
▁Eur	-11.6178
▁Sudá	-11.6179
▁arque	-11.6179
▁Torne	-11.6182
▁tea	-11.6185
ilde	-11.6186
▁Stephen	-11.6186
▁alicerce	-11.6186
▁comprendida	-11.6186
▁elefante	-11.6186
▁longametraxe	-11.6186
▁taboleiro	-11.6186
▁calcaria	-11.6186
▁Presidencia	-11.6186
▁Comerci	-11.6187
▁mentais	-11.6187
ócrat	-11.619
▁inclusión	-11.6193
▁alimentar	-11.6198
SM	-11.6203
▁Moldav	-11.6205
▁comezara	-11.6208
▁rap	-11.6213
bio	-11.6215
▁Apolo	-11.6218
▁subsisten	-11.6219
▁Dun	-11.622
▁xura	-11.622
▁Anna	-11.6233
▁xerado	-11.6241
rquitectura	-11.6242
proximada	-11.6242
▁helio	-11.6254
▁Especial	-11.6258
ónico	-11.626
err	-11.626
quisición	-11.6262
▁botánica	-11.6262
▁colisión	-11.6262
▁expectativa	-11.6262
▁idéntico	-11.6262
▁nocturna	-11.6262
▁planicie	-11.6262
▁introduce	-11.6262
▁instituciona	-11.6263
▁consciencia	-11.6263
▁engadi	-11.6263
▁Fá	-11.6264
▁destacable	-11.6265
▁cabra	-11.6266
▁Portela	-11.627
▁Sub	-11.6271
▁Ter	-11.6272
▁Liña	-11.6276
▁controlaba	-11.6276
▁executar	-11.6277
▁valeu	-11.6277
iev	-11.6278
rme	-11.6279
▁praga	-11.628
▁implicado	-11.6285
▁vectoria	-11.6285
eta	-11.6287
▁dúo	-11.6291
▁datada	-11.6291
rredor	-11.6291
▁chegara	-11.6292
rati	-11.6294
▁Ste	-11.6296
▁cesa	-11.6304
▁depender	-11.6307
▁superan	-11.6309
rtis	-11.6314
aba	-11.6315
▁Tale	-11.6325
▁oficio	-11.6327
pureza	-11.6329
▁Natura	-11.6335
▁anarquis	-11.6336
▁maiúscula	-11.6338
▁subtropica	-11.6338
▁falso	-11.6338
▁Vladimir	-11.6338
▁espiña	-11.6339
▁canteira	-11.634
▁admiti	-11.634
▁administrada	-11.6342
ui	-11.6346
▁vencido	-11.6347
▁reúne	-11.6348
▁coñéce	-11.6348
▁investigar	-11.6349
▁mérito	-11.6351
▁persegui	-11.6354
▁African	-11.6358
▁encontrou	-11.6359
▁policia	-11.6359
▁durar	-11.6362
▁deixara	-11.6363
▁pe	-11.6368
▁autovía	-11.6369
▁Deza	-11.6371
▁visua	-11.6373
quitan	-11.6377
▁encarga	-11.6379
▁informa	-11.6382
▁residi	-11.6384
▁brut	-11.6386
▁analizar	-11.6397
▁Or	-11.6398
tain	-11.6402
organ	-11.6403
▁Marc	-11.6406
▁ensinar	-11.6412
▁ce	-11.6412
▁demócrata	-11.6415
▁ecolóxico	-11.6415
▁establéce	-11.6415
▁parecida	-11.6415
▁trasláda	-11.6415
▁Abraham	-11.6415
▁aleatoria	-11.6415
▁estraña	-11.6415
▁estímulo	-11.6415
▁eliminatoria	-11.6415
▁pronome	-11.6416
▁dourada	-11.6416
▁costeiro	-11.6416
▁recibida	-11.6417
▁textura	-11.6417
▁prohibida	-11.6417
▁repetición	-11.6419
▁Lope	-11.6419
▁pelota	-11.642
▁comparado	-11.642
▁lenzo	-11.6421
enegal	-11.6422
▁patrona	-11.6422
▁Fale	-11.6422
▁Sab	-11.6423
▁poñendo	-11.6425
▁colocada	-11.6425
▁disolveu	-11.6432
▁Froila	-11.6432
desh	-11.6434
▁apreciar	-11.6436
ah	-11.6436
nsito	-11.6438
▁ceder	-11.644
▁sufrimento	-11.6443
▁Salmo	-11.6445
▁atende	-11.6451
▁noven	-11.6454
▁adic	-11.6456
78	-11.6456
pulo	-11.6457
▁Les	-11.6457
▁crucia	-11.646
▁Gonza	-11.6466
pones	-11.6468
▁Tr	-11.6468
▁repetir	-11.6471
▁Matt	-11.6472
▁negocia	-11.6474
▁God	-11.6482
▁cachot	-11.6483
▁reflecti	-11.6486
▁indu	-11.6487
▁atributo	-11.6493
▁inspirou	-11.6493
▁reflexo	-11.6493
icaragua	-11.6493
▁promotor	-11.6493
▁proposición	-11.6493
▁troll	-11.6493
▁Virgin	-11.6494
▁acta	-11.6496
▁transmite	-11.6501
▁fracción	-11.6503
rsal	-11.6504
▁pretendente	-11.6507
▁chaman	-11.6507
▁Stu	-11.651
▁xitano	-11.6514
▁suceder	-11.6515
ax	-11.6519
mira	-11.6519
▁compostelá	-11.6519
ure	-11.6532
▁ampliar	-11.6535
uds	-11.6535
▁Bruc	-11.6539
▁mosca	-11.6543
▁coller	-11.6553
ucho	-11.6554
▁Victor	-11.6556
bondo	-11.6557
aquela	-11.6562
▁terma	-11.6563
ele	-11.6564
▁cortes	-11.6565
▁Let	-11.6565
niverso	-11.657
▁multiplica	-11.6571
ealth	-11.6571
▁acústica	-11.6571
▁agulla	-11.6571
▁alusión	-11.6571
▁embarazo	-11.6571
▁feixe	-11.6571
▁harmonía	-11.6571
▁xemelgo	-11.6571
▁abastece	-11.6571
lmí	-11.6571
▁Oficial	-11.6571
▁salientable	-11.6572
▁exacto	-11.6572
electromagnético	-11.6572
▁busco	-11.6572
▁diamante	-11.6573
▁necesitaba	-11.6573
▁toque	-11.6574
nor	-11.6574
▁Th	-11.6576
▁minúscula	-11.6577
▁asentar	-11.6577
▁Sit	-11.6583
▁indicador	-11.6586
▁ane	-11.6595
▁fito	-11.6598
▁neoclásico	-11.6601
▁precisaba	-11.6607
▁mencionar	-11.6612
▁entregar	-11.6614
▁virxe	-11.6614
▁lidera	-11.6623
▁previ	-11.6625
▁Baí	-11.6626
▁impreso	-11.6629
▁Miran	-11.663
eficiencia	-11.6636
eclaración	-11.6636
▁Feder	-11.6646
cidio	-11.6648
pano	-11.6649
▁correspónde	-11.665
▁economista	-11.665
▁enerxético	-11.665
▁hórreo	-11.665
▁acorde	-11.665
▁almacén	-11.665
▁comprendido	-11.665
▁pilota	-11.665
▁ferroviario	-11.665
▁Drive	-11.665
▁sabio	-11.665
▁billón	-11.665
▁Vivi	-11.6651
▁dianteira	-11.6652
▁escribía	-11.6652
▁encarcerado	-11.6653
▁restablece	-11.6653
▁vestido	-11.6653
lase	-11.6655
▁acabaría	-11.6656
▁tipoloxía	-11.6657
▁aspiración	-11.6657
▁tectónica	-11.6661
ratas	-11.6663
▁incorporado	-11.6665
▁ostenta	-11.6665
▁Nado	-11.6668
▁aparecía	-11.6673
q	-11.6676
composición	-11.6676
▁cobra	-11.6677
▁contracción	-11.668
▁Pat	-11.6681
▁moderniza	-11.6689
▁reduci	-11.669
▁frontal	-11.6691
▁xuda	-11.6692
▁cruzamento	-11.6696
▁Vilal	-11.6697
▁ped	-11.6701
gard	-11.6705
mann	-11.6716
NA	-11.6718
▁estelar	-11.6726
▁Cha	-11.6727
▁Russel	-11.6729
▁rehabilita	-11.6729
cotiledón	-11.6729
▁Acordo	-11.6729
▁dignidade	-11.6729
▁déficit	-11.6729
▁pertenza	-11.6729
▁túmulo	-11.6729
▁diagnóstico	-11.6729
▁Mongol	-11.6729
▁simbólica	-11.6729
▁Bouza	-11.6729
▁térmico	-11.6729
▁Balear	-11.6729
▁globo	-11.6731
▁involucrado	-11.6731
▁Barca	-11.6731
▁desorde	-11.6732
▁aproveitou	-11.6732
▁anime	-11.6733
▁xadre	-11.6735
DE	-11.6739
▁pra	-11.674
our	-11.6741
▁240	-11.6741
tru	-11.6748
▁galardoado	-11.6752
▁reforzar	-11.6758
PS	-11.6758
síntese	-11.6759
▁emigr	-11.6759
ágora	-11.6766
ring	-11.6767
▁Cente	-11.6774
▁Arco	-11.6778
▁102	-11.678
▁Pila	-11.678
▁ecolox	-11.6781
▁Entro	-11.6781
▁xeolox	-11.6782
zar	-11.6782
▁critica	-11.6782
▁codifica	-11.6784
▁Fi	-11.6793
▁Euro	-11.6794
dra	-11.6799
▁silencio	-11.6804
guía	-11.6805
troit	-11.6806
▁Berengue	-11.6806
ímetro	-11.6808
púsc	-11.6809
▁Ortega	-11.6809
▁atinxe	-11.6809
▁informou	-11.6809
▁razoamento	-11.6809
▁bélico	-11.6809
▁seareiro	-11.6809
▁estabelece	-11.681
▁valenciano	-11.681
▁vinculada	-11.6811
▁incorporada	-11.6818
▁mostraba	-11.6818
▁pescador	-11.6818
▁fotógrafo	-11.6819
▁Arno	-11.682
▁estreada	-11.6821
▁cazadores	-11.6826
▁atacado	-11.6826
▁diferenciado	-11.6828
▁casada	-11.683
▁Old	-11.6832
▁manex	-11.6832
▁divorcio	-11.684
▁Elvi	-11.6841
▁Sla	-11.6841
▁Camil	-11.6842
elling	-11.6842
▁administrado	-11.6846
▁vertica	-11.685
▁intervir	-11.6856
▁Barc	-11.686
▁cargada	-11.6868
▁considerábe	-11.6869
▁merece	-11.6869
▁ingresa	-11.6871
mir	-11.6871
úde	-11.6873
▁Bada	-11.6875
▁resistir	-11.688
aspar	-11.6882
▁crédito	-11.6883
remos	-11.6884
▁adicou	-11.6886
ove	-11.6887
▁roca	-11.6888
▁educado	-11.6889
▁voluntaria	-11.689
▁Papúa	-11.689
▁preferente	-11.689
▁emenda	-11.689
edalla	-11.6891
itita	-11.6891
iario	-11.6892
▁abella	-11.6892
▁Gilbert	-11.6893
▁Salt	-11.6894
▁prioridade	-11.6894
▁expulsar	-11.6898
sentimento	-11.6899
▁Ger	-11.6901
amin	-11.6904
▁Puerto	-11.6905
ván	-11.6907
▁ascendente	-11.6908
lacant	-11.6916
▁Belé	-11.6916
▁provocan	-11.6917
▁Carte	-11.6917
lot	-11.692
▁Chap	-11.6922
▁embaixada	-11.6926
▁Eix	-11.6926
▁Riba	-11.6926
▁eslava	-11.6926
▁Aquile	-11.6927
▁solicit	-11.6928
doría	-11.6929
mad	-11.693
▁expandir	-11.6933
▁levantar	-11.6934
▁rompe	-11.6944
▁Net	-11.6946
▁fosfato	-11.6953
bati	-11.6954
▁tarda	-11.6965
▁agricultor	-11.697
▁131	-11.6971
niversit	-11.6971
▁intermedia	-11.6971
▁Iniciou	-11.6971
▁camisola	-11.6971
▁falcón	-11.6971
▁fonético	-11.6971
▁intestino	-11.6971
▁maioritario	-11.6971
▁mixto	-11.6971
▁rostro	-11.6971
▁abreviatura	-11.6971
▁biodi	-11.6971
▁enquisa	-11.6971
rnst	-11.6971
▁Chámase	-11.6971
▁australiana	-11.6971
▁Church	-11.6972
▁atribuído	-11.6972
▁Nature	-11.6975
▁pozo	-11.6978
den	-11.6979
▁uva	-11.698
▁compartido	-11.6981
▁prestixioso	-11.6984
25	-11.6987
▁estoup	-11.6987
▁incrementou	-11.6988
▁Atene	-11.6988
▁Luci	-11.6989
bula	-11.699
▁curmán	-11.6992
▁carte	-11.6993
▁simplifica	-11.6998
▁crías	-11.7002
erne	-11.7007
▁nu	-11.701
▁cultivado	-11.7016
▁Tru	-11.7019
tico	-11.702
▁talla	-11.702
▁dispers	-11.7021
▁fi	-11.7022
▁leira	-11.7024
▁volven	-11.7025
▁cloro	-11.7028
▁Corre	-11.7028
▁incapa	-11.7029
moción	-11.7031
▁coinciden	-11.7035
erra	-11.7038
▁crean	-11.7045
▁comprar	-11.7045
▁asasinar	-11.7046
▁circun	-11.7047
▁esquí	-11.7048
▁luce	-11.7048
servatorio	-11.7049
▁catástrofe	-11.7053
▁envío	-11.7053
▁prexuízo	-11.7053
▁subxénero	-11.7053
▁Crónica	-11.7053
▁arquitectónica	-11.7053
▁bebé	-11.7053
▁húngara	-11.7053
▁tempora	-11.7053
▁Studio	-11.7053
▁8,	-11.7054
▁indoeuropeo	-11.7058
▁Caraca	-11.7059
▁Mercur	-11.7061
▁ancián	-11.7061
▁xurado	-11.7062
▁influído	-11.7065
▁cir	-11.7067
▁Lot	-11.7068
illo	-11.7072
▁documentada	-11.7073
▁orientado	-11.7073
rote	-11.7076
▁polaca	-11.7079
▁autob	-11.7082
▁cortar	-11.7084
bi	-11.7086
ves	-11.7089
▁Sin	-11.7091
▁Dom	-11.7095
▁inaugurad	-11.7096
▁Mol	-11.7096
▁comporta	-11.71
lmirant	-11.7101
▁Parada	-11.7103
▁compostelán	-11.7107
▁Trac	-11.7109
▁resultan	-11.7112
▁estará	-11.7115
▁boi	-11.7116
▁fórma	-11.7117
arios	-11.7117
pica	-11.7118
illa	-11.7118
ima	-11.7126
▁Fide	-11.7127
nocenci	-11.7128
icios	-11.7129
idas	-11.7132
róximo	-11.7135
▁mesturado	-11.7135
▁Izquierd	-11.7136
▁botánico	-11.7136
▁distintivo	-11.7136
▁triangular	-11.7136
▁estendé	-11.7136
▁inflúe	-11.7136
▁estético	-11.7136
▁equipado	-11.7136
pón	-11.7136
▁Machine	-11.7136
▁represénta	-11.7136
▁prominente	-11.7136
▁mexicana	-11.7136
▁Vanua	-11.7137
anario	-11.7137
▁suprem	-11.7137
bertura	-11.7138
▁colega	-11.7139
rcego	-11.7139
▁procedía	-11.7139
▁perseguido	-11.7139
▁horario	-11.7142
▁depredador	-11.7143
▁Aran	-11.7144
▁Ronald	-11.7144
▁napoleónica	-11.715
▁Emilia	-11.7151
▁tango	-11.7152
▁balan	-11.7152
▁limpa	-11.7152
▁ampliou	-11.7156
▁ritual	-11.7164
▁Associat	-11.7165
▁Villar	-11.7177
▁Seg	-11.7178
▁Interes	-11.7181
▁atender	-11.7183
▁celebrá	-11.7184
▁botar	-11.7184
▁Pond	-11.7186
▁pa	-11.7188
▁Xud	-11.7191
dez	-11.7191
TP	-11.7191
▁Licenciad	-11.7195
▁reprodutora	-11.7195
ufra	-11.7199
eto	-11.72
▁Fara	-11.7201
▁Mendo	-11.7204
▁lun	-11.7207
▁Corn	-11.7207
▁cata	-11.7207
nesia	-11.7213
dución	-11.7216
▁dialecta	-11.7219
▁exercía	-11.7219
▁compartía	-11.7219
▁tambor	-11.7219
▁Puebl	-11.722
▁Open	-11.7221
▁dotado	-11.7221
▁roubo	-11.7221
▁Savo	-11.7221
▁indicio	-11.7221
▁temor	-11.7222
▁Vers	-11.7224
▁cabelo	-11.7224
nesse	-11.7227
▁obrigatorio	-11.7228
ub	-11.7231
▁puidera	-11.7231
ovic	-11.7235
▁Anto	-11.7235
▁listaxe	-11.7235
ater	-11.7236
ambul	-11.7238
▁defenden	-11.7241
▁Pac	-11.7246
▁Ved	-11.7249
▁fóron	-11.7254
heim	-11.7254
uímica	-11.7258
▁Parti	-11.7258
▁sobresae	-11.7259
▁Belgra	-11.7269
▁Gañ	-11.7269
arco	-11.728
▁prob	-11.7289
▁artille	-11.7293
▁funcionan	-11.7293
▁feminis	-11.7301
▁periférico	-11.7303
▁ribosoma	-11.7303
▁variábe	-11.7303
▁cronista	-11.7303
▁hóspede	-11.7303
▁recto	-11.7303
▁clasifíca	-11.7303
▁Evanxeo	-11.7303
▁disposta	-11.7303
▁interferencia	-11.7303
▁urbanización	-11.7303
onostia	-11.7304
▁prevista	-11.7304
▁proviña	-11.7304
▁adicada	-11.7304
ohan	-11.7305
▁qué	-11.7305
▁Mot	-11.7305
▁tardía	-11.7308
▁compartida	-11.7309
▁queren	-11.7314
ohns	-11.7314
▁prohibiu	-11.7315
▁Lanza	-11.7317
▁parasito	-11.732
▁practicar	-11.732
▁obsérva	-11.7323
▁anda	-11.7323
ep	-11.7324
▁Mart	-11.7325
▁mercar	-11.733
▁novidade	-11.7331
▁acabado	-11.7331
▁pagán	-11.7333
▁Dona	-11.7338
hard	-11.7339
▁vocal	-11.734
tr	-11.7342
▁Band	-11.7346
▁escritorio	-11.7347
▁Barrio	-11.7347
▁efectivos	-11.7347
▁fixese	-11.735
▁Suda	-11.7351
obio	-11.7353
▁ensina	-11.7354
▁Cels	-11.7355
dán	-11.7357
▁Clo	-11.7362
▁alza	-11.7366
▁Cup	-11.7367
▁raia	-11.7375
▁gañado	-11.7377
▁ali	-11.7377
tem	-11.7387
▁anglosaxón	-11.7388
▁extremidade	-11.7388
▁hidroeléctrica	-11.7388
▁psicolóxica	-11.7388
▁escríbe	-11.7388
▁pesqueira	-11.7388
▁recorda	-11.7388
▁máscara	-11.7388
hídrico	-11.7388
▁pórtico	-11.7388
▁resonancia	-11.7388
▁atribuída	-11.7389
▁sonda	-11.7389
ércul	-11.7389
▁expreso	-11.7389
▁Igna	-11.7391
▁pane	-11.7392
mi	-11.7393
▁predominan	-11.7395
▁combinada	-11.7397
▁glaciación	-11.7399
▁dianteiro	-11.7404
▁emocional	-11.7406
▁dálle	-11.7406
ula	-11.7407
▁rexistrou	-11.7411
▁restaura	-11.7412
▁caca	-11.7412
ML	-11.7413
▁conversación	-11.7414
▁causante	-11.7415
▁achegado	-11.742
▁infant	-11.742
oc	-11.7421
▁biomas	-11.7425
▁recorre	-11.7432
his	-11.7439
▁Camba	-11.7443
▁habe	-11.7443
▁lat	-11.7452
▁Porque	-11.7457
▁procesador	-11.7463
17	-11.7463
ania	-11.7464
▁empera	-11.7466
▁inmedia	-11.747
▁fascis	-11.7471
▁preguntas	-11.7472
▁Empréga	-11.7473
▁Lincoln	-11.7473
▁ameixa	-11.7473
▁compilación	-11.7473
▁ladrillo	-11.7473
▁reclamo	-11.7473
▁recompensa	-11.7473
▁coloquial	-11.7473
▁Depende	-11.7473
▁burro	-11.7473
▁formá	-11.7474
▁agrario	-11.7474
▁envia	-11.7474
▁directiva	-11.7477
▁Semana	-11.7477
▁evolucionar	-11.7478
▁vea	-11.7479
▁contradición	-11.7481
▁Philip	-11.7481
▁103	-11.7491
▁Flore	-11.7497
rano	-11.7501
▁restaurado	-11.7504
rt	-11.7506
▁Feira	-11.7509
▁unificado	-11.7516
lio	-11.7516
▁Baco	-11.7519
mina	-11.7521
▁morrera	-11.7531
ebas	-11.7532
▁deseñar	-11.7537
actitude	-11.7542
▁Pereira	-11.7543
enco	-11.7544
04	-11.755
ouri	-11.7552
▁luxo	-11.7554
nidad	-11.7556
▁parto	-11.7558
baix	-11.7559
istórico	-11.7559
▁Google	-11.7559
▁propicio	-11.7559
▁lexitim	-11.7559
▁sublevado	-11.756
ground	-11.756
▁convertida	-11.756
▁impresionista	-11.756
▁milagre	-11.7561
▁Angeles	-11.7561
▁Night	-11.7562
▁220	-11.7563
▁mineiro	-11.7564
▁reacciona	-11.7567
ogh	-11.7567
▁emerxente	-11.7567
▁Ross	-11.7568
▁criticado	-11.7569
▁pide	-11.757
▁exista	-11.757
▁Dub	-11.7571
▁redactor	-11.7572
▁pastore	-11.7575
▁rexistra	-11.7576
▁Turí	-11.7583
▁Seu	-11.7584
▁gobernaba	-11.7586
▁pr	-11.7589
▁Ever	-11.759
versa	-11.7592
dn	-11.7596
▁indicación	-11.7598
▁Inclu	-11.7598
▁Casal	-11.7599
▁coala	-11.7601
pintar	-11.7604
▁Area	-11.7611
▁Agosti	-11.7612
consi	-11.7614
suna	-11.7614
▁vita	-11.7615
uto	-11.7625
ova	-11.763
adical	-11.7632
▁visi	-11.7642
▁101	-11.7644
razo	-11.7646
éxime	-11.7646
▁ecolóxica	-11.7646
▁estuario	-11.7646
▁olímpica	-11.7646
▁secular	-11.7646
▁McCart	-11.7646
▁Bridge	-11.7646
▁detallada	-11.7646
▁amiga	-11.7647
▁Taboad	-11.7647
▁marrón	-11.7647
▁veciñanza	-11.7648
▁Brad	-11.7648
haz	-11.7649
▁Espart	-11.7652
▁Corpora	-11.7653
▁predomina	-11.7653
▁Agu	-11.7655
quín	-11.7657
▁sentiu	-11.7658
▁sanción	-11.7659
▁permitido	-11.7663
▁Bag	-11.7669
▁velo	-11.767
▁monárquico	-11.7672
▁Castill	-11.7674
▁talle	-11.7679
▁Pie	-11.768
▁buscan	-11.7685
▁tradutor	-11.7692
cano	-11.7695
▁oscila	-11.7696
▁opoñente	-11.7697
▁señoria	-11.7698
esta	-11.7701
▁fornecer	-11.7702
▁Austra	-11.7702
▁desembarcar	-11.7707
▁torna	-11.772
apitán	-11.7724
▁esixi	-11.7726
▁Tong	-11.7727
fri	-11.7732
▁patria	-11.7734
▁Copenhague	-11.7734
▁dinámico	-11.7734
▁enfrontá	-11.7734
▁evolutivo	-11.7734
▁helicóptero	-11.7734
▁insulin	-11.7734
▁monetaria	-11.7734
▁pneumático	-11.7734
▁polímero	-11.7734
▁tecnolóxica	-11.7734
▁válida	-11.7734
▁substrato	-11.7734
▁Ambient	-11.7735
ches	-11.7735
▁cranio	-11.7735
▁camión	-11.7735
▁Musso	-11.7735
▁reitor	-11.7735
▁Road	-11.7736
▁ficar	-11.7737
spacial	-11.7737
▁sepultura	-11.7738
▁chámaselle	-11.774
▁fará	-11.7742
vora	-11.7743
▁xoia	-11.7745
▁informativo	-11.775
▁sospeita	-11.7751
adas	-11.7756
toba	-11.7756
▁sumerio	-11.7756
▁Peña	-11.7757
ES	-11.7759
▁municipalidade	-11.776
▁Rú	-11.7764
▁fotos	-11.7766
villa	-11.777
erio	-11.7771
▁Comun	-11.7772
▁episcopa	-11.7773
tras	-11.7782
▁Luz	-11.7783
▁hospita	-11.7784
▁neo	-11.7784
▁centenar	-11.7788
▁Ir	-11.779
▁holandesa	-11.7791
▁Colli	-11.7809
▁Ang	-11.781
▁Dur	-11.7817
real	-11.7819
▁permanen	-11.7821
▁aprende	-11.7821
biografía	-11.7822
▁supoñen	-11.7822
▁batallón	-11.7823
▁pacífica	-11.7823
▁pianista	-11.7823
▁produza	-11.7823
▁Singap	-11.7823
▁Denomína	-11.7823
▁complicado	-11.7823
▁Xuventude	-11.7823
▁erudito	-11.7823
▁postulado	-11.7825
▁especulación	-11.7826
▁mant	-11.7826
▁Tob	-11.7829
▁conceptual	-11.783
▁anano	-11.783
▁procedencia	-11.783
▁estudant	-11.7831
▁pechar	-11.7833
▁Mé	-11.7834
▁atacada	-11.7838
▁considéran	-11.7844
▁lomb	-11.7844
▁Pand	-11.7848
▁Patric	-11.7848
ence	-11.7858
▁Fr	-11.7868
▁competidor	-11.7874
rque	-11.7874
▁aprecia	-11.7875
▁lix	-11.7875
chel	-11.7875
ueen	-11.7877
▁reclama	-11.7877
▁Pesca	-11.7877
▁servi	-11.7878
rpo	-11.788
▁filia	-11.7883
▁desenvolvé	-11.7884
▁semanal	-11.7886
▁Axi	-11.7886
esenvolvemento	-11.7891
▁Coto	-11.7891
▁Cou	-11.7896
▁empate	-11.7899
▁manifestou	-11.7902
vivencia	-11.7905
▁entro	-11.7906
▁xesto	-11.7908
ernández	-11.7908
ílico	-11.7912
óptero	-11.7912
▁astronómico	-11.7912
▁carballeira	-11.7912
▁conífera	-11.7912
▁herexía	-11.7912
▁monopraza	-11.7912
▁curiosa	-11.7912
▁láser	-11.7912
▁agresión	-11.7912
▁líquida	-11.7912
▁estrito	-11.7912
▁necrópole	-11.7912
udhon	-11.7912
▁rinoceronte	-11.7912
▁adversario	-11.7912
▁receita	-11.7912
▁terrible	-11.7912
▁moble	-11.7912
▁xeada	-11.7913
▁Pastor	-11.7913
▁Aliado	-11.7913
▁arame	-11.7916
▁procesado	-11.7917
▁tellado	-11.7917
▁comen	-11.7918
tán	-11.7918
▁fican	-11.792
▁arrestado	-11.7921
eath	-11.7921
▁conectada	-11.7922
▁terapia	-11.7926
pera	-11.7928
▁traseira	-11.7932
unta	-11.7932
lsacia	-11.7934
▁cabal	-11.7934
ete	-11.7936
▁visitado	-11.7937
▁aborda	-11.7943
▁filo	-11.7945
vais	-11.7947
▁trae	-11.7948
▁xuntar	-11.7951
▁comercializa	-11.796
▁Saú	-11.7962
▁comunicado	-11.7962
▁escalar	-11.7963
▁Loi	-11.7965
ceos	-11.7968
▁Acer	-11.7979
▁Ris	-11.7979
ili	-11.798
▁Cale	-11.7986
▁ecuatoria	-11.7989
▁fórman	-11.7996
▁desaparecida	-11.8002
▁reparación	-11.8002
▁árbitro	-11.8002
▁complicada	-11.8002
▁suburbio	-11.8002
▁embrión	-11.8004
▁envolve	-11.8004
▁rexemento	-11.8004
tila	-11.8004
▁alelo	-11.8004
▁cuarteto	-11.8007
▁Good	-11.8008
▁Fich	-11.8009
xía	-11.801
amaica	-11.801
▁Verd	-11.801
▁accidentad	-11.8011
▁determinan	-11.8012
MI	-11.8014
▁retiro	-11.8018
ferencia	-11.8019
▁galaico	-11.802
pol	-11.8021
▁remonta	-11.8021
▁Gor	-11.8021
▁Obra	-11.8022
▁Sociedad	-11.8023
▁fino	-11.8023
▁Polic	-11.8023
▁convencer	-11.8027
vel	-11.8036
amot	-11.8038
▁almacenar	-11.8039
▁colonizado	-11.804
▁Cibr	-11.8049
▁gozar	-11.8051
▁Sad	-11.8057
▁métrica	-11.806
▁ánim	-11.8064
▁alegan	-11.8072
umano	-11.8072
cena	-11.8072
tívo	-11.8075
▁voa	-11.8077
▁Ci	-11.8077
▁Tuc	-11.8084
▁Circ	-11.8084
▁facenda	-11.8089
▁Mid	-11.8091
lán	-11.8093
▁Chamberl	-11.8093
▁atlántico	-11.8093
▁carecía	-11.8093
▁deformación	-11.8093
▁desafío	-11.8093
▁diabetes	-11.8093
▁neutro	-11.8093
▁permita	-11.8093
▁preparou	-11.8093
▁esposo	-11.8093
▁adhesión	-11.8093
▁fermentación	-11.8093
ierr	-11.8093
▁funerario	-11.8093
oalición	-11.8094
aixón	-11.8095
▁Frederic	-11.8096
▁debuxante	-11.8096
▁lendario	-11.8096
▁Court	-11.8096
▁Trent	-11.8097
▁neta	-11.8097
▁Soft	-11.8097
▁semanario	-11.8099
vertebrado	-11.8099
húngaro	-11.81
rial	-11.81
continente	-11.81
▁preparada	-11.8101
▁han	-11.8102
▁desempeña	-11.8104
▁demostran	-11.8106
▁convidado	-11.8106
pest	-11.8109
óveda	-11.8109
▁acordou	-11.811
▁Mariño	-11.811
visión	-11.8111
▁Milan	-11.8113
▁Mug	-11.8116
▁Ac	-11.8125
▁centrado	-11.8126
▁quilo	-11.8129
▁Cri	-11.8136
▁túa	-11.8138
adi	-11.8145
▁Sho	-11.8149
▁Divers	-11.8152
▁Dá	-11.8154
▁Berna	-11.816
ole	-11.8166
▁Cob	-11.8167
euta	-11.817
▁avenida	-11.8171
▁apunta	-11.8172
llas	-11.8174
▁anunciar	-11.8179
rros	-11.818
▁Aquel	-11.8181
▁excelen	-11.8182
▁léva	-11.8184
▁ancestra	-11.8185
▁Coñecid	-11.8185
▁diacrítico	-11.8185
▁discográfico	-11.8185
▁mandíbula	-11.8185
▁móstra	-11.8185
▁sensibilidade	-11.8185
▁tsunami	-11.8185
▁circunscrición	-11.8185
▁chamába	-11.8185
▁apartamento	-11.8185
mnist	-11.8185
opér	-11.8186
▁suplemento	-11.8186
▁abstracta	-11.8186
xestión	-11.8188
▁Cruzada	-11.8189
▁ilustra	-11.819
▁sobrevivente	-11.8192
▁Anta	-11.8192
▁Dada	-11.8198
▁barro	-11.82
▁Vincen	-11.8203
▁rexen	-11.821
▁axudan	-11.8214
▁coñecían	-11.8219
▁albanes	-11.8222
▁video	-11.8229
▁carbonato	-11.8235
▁viría	-11.8237
▁derrotada	-11.8238
▁crente	-11.824
tanasi	-11.824
▁Sh	-11.824
200	-11.8245
▁xogaba	-11.8248
▁instaura	-11.8248
ibia	-11.8253
▁Pav	-11.8261
▁ensinou	-11.8264
▁Nai	-11.8267
▁influír	-11.8267
▁queima	-11.8269
▁fertili	-11.8275
▁Tor	-11.8275
▁Recibe	-11.8277
▁conxunción	-11.8277
▁divisor	-11.8277
▁endémica	-11.8277
▁proporcionou	-11.8277
▁vulnerable	-11.8277
▁fervenza	-11.8277
▁Comarca	-11.8277
▁creativa	-11.8278
▁ambición	-11.8278
▁transparente	-11.8278
▁gozo	-11.8279
▁centenario	-11.828
▁Freire	-11.828
▁transmitida	-11.828
▁comparada	-11.8281
éronlle	-11.8282
▁pasada	-11.8286
▁convencido	-11.8287
▁ordenada	-11.8287
▁administrar	-11.8291
redo	-11.8292
video	-11.8292
▁insisti	-11.8293
▁saca	-11.8293
concerto	-11.8294
▁Xén	-11.8298
▁render	-11.83
alf	-11.8301
▁Part	-11.8303
▁Cine	-11.8303
▁Tur	-11.8304
▁Gr	-11.8306
▁anti	-11.8311
▁herd	-11.8313
▁trío	-11.8313
eria	-11.8313
▁prado	-11.8314
▁gozaba	-11.8322
▁post	-11.8324
▁Loc	-11.8324
llar	-11.8325
▁disputado	-11.8325
▁Great	-11.8333
▁comezaría	-11.8341
ritz	-11.8347
▁Mala	-11.8352
etano	-11.836
adores	-11.836
abía	-11.8368
▁circundante	-11.8371
▁curiosidade	-11.8371
▁desgraza	-11.8371
▁únese	-11.8371
▁sintético	-11.8371
▁inercia	-11.8371
▁céltica	-11.8371
▁Freud	-11.8371
▁ocorrido	-11.8371
lismo	-11.8371
▁microscopio	-11.8371
▁abstracto	-11.8372
▁termodinámic	-11.8373
▁cálida	-11.8374
▁foxo	-11.8374
▁cónta	-11.8375
▁Main	-11.8375
▁peseta	-11.8376
▁Cabra	-11.8376
uiza	-11.8377
▁consolidar	-11.838
derram	-11.8381
stro	-11.8382
usa	-11.8383
▁Informa	-11.8383
inc	-11.8386
▁pi	-11.8389
ttle	-11.8393
▁Pau	-11.8394
▁coello	-11.8396
hana	-11.8398
edro	-11.84
▁pinta	-11.8403
▁Caban	-11.8404
▁Valen	-11.8411
▁Antho	-11.8414
▁óptico	-11.8417
elta	-11.8418
▁senso	-11.8421
▁xeométrica	-11.8423
▁paro	-11.8424
▁Prince	-11.8425
▁trib	-11.8428
▁Gondo	-11.843
▁Carra	-11.843
▁tím	-11.843
▁Pisto	-11.8437
▁Carva	-11.8444
▁Fre	-11.8452
▁Ferreir	-11.8453
osep	-11.8453
▁marcar	-11.8462
▁franquis	-11.8463
▁dedíca	-11.8464
▁extraterrestre	-11.8465
▁mascota	-11.8465
▁pesqueiro	-11.8465
▁romántica	-11.8465
▁sinfonía	-11.8465
▁ventá	-11.8465
▁vicerrei	-11.8465
▁redonda	-11.8465
▁prefixo	-11.8465
▁hidrográfica	-11.8465
▁Labor	-11.8465
▁terciario	-11.8465
▁fiable	-11.8465
▁Deporte	-11.8465
▁remoto	-11.8468
▁observatorio	-11.8469
▁foca	-11.8469
▁herdeir	-11.847
▁Estrela	-11.847
▁rexionalista	-11.8471
▁transformada	-11.8471
garden	-11.8472
▁AP	-11.8475
▁Manet	-11.8475
▁abondo	-11.8476
▁Alg	-11.8477
▁silvestre	-11.848
ild	-11.8482
▁Fire	-11.8484
cada	-11.8484
▁substitúe	-11.8487
▁confirmado	-11.8489
▁estudada	-11.8489
vill	-11.8489
lecer	-11.8492
▁escoll	-11.8492
renal	-11.8493
▁soci	-11.8495
▁aposta	-11.8497
▁solicitar	-11.8498
▁cómic	-11.8504
▁cós	-11.8504
carta	-11.8508
000	-11.8515
▁teu	-11.8518
▁gala	-11.853
tección	-11.8531
rbano	-11.8535
▁abdom	-11.8535
▁cha	-11.8537
▁admite	-11.854
▁detención	-11.8543
lista	-11.8543
▁Saga	-11.8543
inastía	-11.8547
▁vacú	-11.8551
▁alcanzan	-11.8553
gración	-11.8553
▁Infante	-11.8556
▁CF	-11.8557
ulia	-11.8557
▁desinte	-11.8558
▁Das	-11.8558
írculo	-11.856
agre	-11.856
▁Semifina	-11.856
▁acompañou	-11.856
▁asegurou	-11.856
▁austríaca	-11.856
▁híbrido	-11.856
▁motivación	-11.856
▁mítico	-11.856
▁piscina	-11.856
▁prehistórico	-11.856
▁válido	-11.856
▁marxismo	-11.856
▁incuba	-11.856
▁rendeu	-11.8562
▁Pereir	-11.8562
▁Foot	-11.8562
izz	-11.8565
▁Atlétic	-11.8567
▁impresionante	-11.8568
▁compá	-11.8571
▁Damas	-11.8574
▁perden	-11.8577
▁Donat	-11.8578
tío	-11.858
imi	-11.8586
▁patrocin	-11.8588
▁paga	-11.859
▁aprobar	-11.8591
rix	-11.8591
▁indi	-11.8595
▁Song	-11.8598
▁produtiv	-11.8601
col	-11.8602
▁201	-11.8603
▁Pri	-11.8607
▁Cristian	-11.8608
▁ampliad	-11.8609
▁Salced	-11.8611
pirit	-11.8613
▁denso	-11.8615
ttel	-11.8615
▁confia	-11.8616
▁viñer	-11.8616
ding	-11.8624
▁padece	-11.8627
▁Dominica	-11.8632
▁agrupa	-11.8632
infla	-11.8638
▁Lev	-11.8639
ren	-11.8644
ender	-11.8644
▁Correo	-11.865
▁galeguis	-11.8654
▁protagonis	-11.8654
▁bolboreta	-11.8656
▁compañeira	-11.8656
▁confesión	-11.8656
▁desacordo	-11.8656
▁referida	-11.8656
▁tiburón	-11.8656
▁vértice	-11.8656
▁folcl	-11.8657
▁pelexa	-11.8657
▁Muller	-11.8657
▁humanista	-11.8657
▁carencia	-11.8657
▁interesou	-11.8658
▁poemario	-11.8659
▁maxistrado	-11.866
▁Phil	-11.8661
rús	-11.8666
▁Matth	-11.8667
▁seda	-11.8668
▁dominaba	-11.867
▁estendía	-11.8672
▁socialdemócrata	-11.8673
▁construíndo	-11.8673
dore	-11.8677
▁encontraba	-11.8677
▁liberada	-11.8678
▁Salón	-11.8678
▁Mat	-11.8684
▁Globo	-11.8686
violeta	-11.8687
▁reconstruí	-11.8691
▁icon	-11.8691
▁cargado	-11.8692
goberno	-11.8692
lada	-11.8701
▁organizador	-11.8705
▁Sau	-11.8707
▁deteriora	-11.8707
▁autoriza	-11.8708
elda	-11.871
▁escur	-11.8711
▁dezase	-11.8713
▁colle	-11.8724
▁apoder	-11.8724
▁magnet	-11.8724
19	-11.8725
▁infanta	-11.873
▁Fermi	-11.8737
▁Sou	-11.8738
▁cadra	-11.8743
alo	-11.8745
ilán	-11.8746
▁provocado	-11.8746
▁presta	-11.8747
▁Chao	-11.8751
▁triste	-11.8752
▁entusiasm	-11.8753
▁estómago	-11.8753
▁flamenc	-11.8753
▁minoritaria	-11.8753
▁rupestre	-11.8753
▁Christoph	-11.8754
▁aborixe	-11.8754
▁lugu	-11.8754
▁extinta	-11.8754
▁fermoso	-11.8754
▁móve	-11.8754
▁solidari	-11.8754
▁Programa	-11.8754
▁afiliado	-11.8754
▁predición	-11.8754
▁Cabaleiro	-11.8754
▁modernista	-11.8755
▁Chad	-11.8755
▁surrealista	-11.8755
▁Light	-11.8756
▁bautism	-11.8757
abi	-11.8757
▁instalada	-11.8757
▁restaurada	-11.8759
▁pintada	-11.8759
▁tornar	-11.8761
▁voceiro	-11.8761
unqueira	-11.8765
▁determinou	-11.8765
▁come	-11.8765
▁cole	-11.8765
▁mensual	-11.8765
▁casual	-11.8767
▁Ferr	-11.8767
▁mansión	-11.8768
▁comparar	-11.877
ata	-11.8774
▁sonata	-11.8776
▁probou	-11.8779
amboxa	-11.8781
usto	-11.8781
▁federa	-11.8782
▁creá	-11.8785
ltimo	-11.8787
▁conectar	-11.8798
zaro	-11.88
▁suprimi	-11.8802
ioquí	-11.8803
▁pá	-11.8803
▁actuaba	-11.8804
▁caen	-11.8804
▁Xordan	-11.8808
▁Lá	-11.8809
▁obvia	-11.8809
▁xenr	-11.8813
dela	-11.8822
▁confirmar	-11.8829
nome	-11.883
▁aumentan	-11.883
▁pilas	-11.8831
ear	-11.8832
▁practicante	-11.8832
▁reina	-11.8833
▁Bea	-11.8836
rxia	-11.8836
▁renomead	-11.8836
goña	-11.8838
▁marxina	-11.8843
▁patro	-11.8845
alta	-11.8846
▁PN	-11.8848
▁prefect	-11.885
▁inaugurada	-11.8851
▁cinematográfico	-11.8852
▁controvertido	-11.8852
▁enerxética	-11.8852
▁rochosa	-11.8852
▁violoncell	-11.8852
▁Dream	-11.8852
▁invernadoiro	-11.8852
▁lípido	-11.8852
▁retirá	-11.8852
▁numérico	-11.8852
▁dolmen	-11.8852
▁unitario	-11.8852
▁alongada	-11.8852
▁filtro	-11.8852
▁tinta	-11.8852
▁tumor	-11.8852
▁ausente	-11.8853
molo	-11.8854
▁xuntanza	-11.8855
▁Boo	-11.8855
▁Ningu	-11.8856
▁liso	-11.8856
▁cente	-11.8859
▁104	-11.8859
▁accidental	-11.886
▁optou	-11.8862
▁preferido	-11.8863
ambi	-11.8866
▁cartaxines	-11.8867
▁737	-11.8868
▁imperia	-11.8873
robable	-11.8875
ngele	-11.8891
▁corvo	-11.8894
▁exercida	-11.8897
▁compro	-11.8899
▁despedido	-11.8899
▁araña	-11.8903
▁particularidade	-11.8904
▁dist	-11.8912
azor	-11.8914
▁histori	-11.8914
▁coca	-11.8921
grama	-11.8922
▁Intel	-11.8929
▁pedi	-11.8934
▁tard	-11.8935
alencia	-11.8936
▁Marian	-11.8939
mencl	-11.8942
▁Eurocopa	-11.8951
▁cabina	-11.8951
▁clarinete	-11.8951
▁intoxicación	-11.8951
▁limítrofe	-11.8951
▁meteorolóxica	-11.8951
▁néboa	-11.8951
▁nórdica	-11.8951
▁plaqueta	-11.8951
▁tripulante	-11.8951
▁Tíbe	-11.8951
▁Again	-11.8951
cha	-11.8951
▁hemo	-11.8951
▁estudaba	-11.8952
▁gandeira	-11.8953
▁crego	-11.8956
▁abondosa	-11.8956
▁enseada	-11.8957
▁estaleiro	-11.8957
▁brando	-11.8957
quino	-11.8957
iffe	-11.8958
▁integr	-11.8958
▁cuántico	-11.896
▁observada	-11.8961
▁inestable	-11.8961
▁neerlandes	-11.8962
▁dú	-11.8964
▁materno	-11.8964
▁imitación	-11.8965
▁estimado	-11.8965
▁Mach	-11.8965
cencia	-11.8967
▁Bab	-11.8969
inen	-11.8969
▁cria	-11.897
▁Monterre	-11.8973
eoría	-11.8973
▁Vermell	-11.8974
▁situou	-11.8975
eu	-11.8981
▁disputada	-11.8981
▁sumar	-11.8981
▁esquecer	-11.8987
▁estepa	-11.8989
▁imparti	-11.8989
▁marcador	-11.899
▁dificulta	-11.8992
▁Estudio	-11.8993
▁Fam	-11.8997
gens	-11.8997
elixido	-11.9001
▁úsan	-11.9007
▁achar	-11.901
xenx	-11.9011
camp	-11.9012
▁Blo	-11.9013
▁Punt	-11.9014
side	-11.9023
▁reorganiza	-11.9025
▁boxe	-11.9026
▁Rich	-11.9028
▁ist	-11.9029
azán	-11.9034
▁pensan	-11.9036
▁proceder	-11.9038
▁Film	-11.9039
27	-11.904
mio	-11.9042
▁Vinc	-11.9042
colleu	-11.9042
rrección	-11.9043
▁sho	-11.9043
▁Blu	-11.9045
▁quar	-11.9047
▁Mei	-11.9048
▁Toro	-11.9048
eid	-11.9049
▁menstrua	-11.9051
▁Caracteríza	-11.9051
▁Precisa	-11.9051
▁agasallo	-11.9051
▁camiseta	-11.9051
▁descríbe	-11.9051
▁enfrónta	-11.9051
▁enterramento	-11.9051
▁imposíbe	-11.9051
▁inimiga	-11.9051
▁interrupción	-11.9051
▁orgánulo	-11.9051
▁rochoso	-11.9051
▁articulación	-11.9051
▁cabid	-11.9051
▁comisario	-11.9051
▁Luter	-11.9051
▁tórna	-11.9051
▁Cornell	-11.9052
▁Debut	-11.9052
▁faceta	-11.9053
▁Tosca	-11.9053
fi	-11.9053
▁trasladada	-11.9054
▁Obtiv	-11.9055
▁transferido	-11.9055
af	-11.9058
▁consagrado	-11.9059
zbe	-11.9059
▁pintado	-11.9059
rabo	-11.9061
flores	-11.9064
▁cicl	-11.9065
▁recomendación	-11.9065
scape	-11.9067
xano	-11.9068
▁renome	-11.9068
▁esloveno	-11.9071
▁carecen	-11.9072
▁identificada	-11.9072
cus	-11.9081
▁perdera	-11.9082
ustin	-11.9083
▁contrasta	-11.9085
▁somete	-11.9085
▁clar	-11.909
▁anotador	-11.909
▁consisten	-11.9092
▁fero	-11.9093
▁achegan	-11.9093
EC	-11.9094
▁magne	-11.9097
▁reivindica	-11.9098
▁Tesal	-11.9099
ana	-11.9107
dicional	-11.9108
▁entraba	-11.9108
▁cubo	-11.9109
coñécese	-11.911
▁Indo	-11.911
allac	-11.9111
▁Lar	-11.9114
▁maia	-11.9114
etaf	-11.9116
▁grel	-11.9122
MA	-11.9123
▁Tex	-11.9125
dice	-11.9126
▁invadid	-11.9126
▁bloqueo	-11.9128
mática	-11.9129
▁certame	-11.9132
▁Petr	-11.9133
ven	-11.9139
▁faino	-11.9143
itt	-11.9151
▁Saxonia	-11.9152
▁evanxeo	-11.9152
▁inventado	-11.9152
▁divisa	-11.9152
▁fortalece	-11.9152
▁cardíaco	-11.9152
▁vasta	-11.9152
▁extinto	-11.9152
▁recoñecía	-11.9152
▁Arquivo	-11.9152
eród	-11.9152
▁berro	-11.9152
▁penalti	-11.9152
▁raposo	-11.9152
▁sito	-11.9152
zán	-11.9153
▁Morris	-11.9153
▁milímetro	-11.9153
▁apropiado	-11.9154
onverteu	-11.9155
▁repoboa	-11.9156
▁audición	-11.9157
▁sonoro	-11.9157
▁vibración	-11.9158
▁asesor	-11.9159
▁ofrecía	-11.916
iller	-11.9168
▁Barba	-11.9168
parecían	-11.9169
▁Conserva	-11.917
▁Moren	-11.917
▁cera	-11.9172
▁capturada	-11.9172
zaret	-11.9174
▁cinc	-11.9179
▁graduou	-11.9185
▁Alvar	-11.9186
▁elaborou	-11.919
pler	-11.9194
mbro	-11.9194
▁funcionaba	-11.9197
▁enfronta	-11.92
xí	-11.9202
quita	-11.9204
uero	-11.9208
▁recae	-11.9209
▁sob	-11.9209
nisto	-11.9214
▁Mec	-11.9215
▁avanz	-11.9215
▁termin	-11.9219
▁vinga	-11.9219
▁Muñ	-11.922
▁Thi	-11.9224
▁encarna	-11.9226
▁evacua	-11.9227
cub	-11.9238
52	-11.9241
ning	-11.9241
▁mercante	-11.9243
▁conseguira	-11.9244
▁Sand	-11.9244
▁Constituci	-11.9245
▁Toma	-11.9246
▁feliz	-11.9246
▁Fall	-11.9248
▁cosmo	-11.9251
ategoría	-11.9253
▁combustíbe	-11.9254
▁comprendía	-11.9254
▁lagarto	-11.9254
▁logaritmo	-11.9254
▁mártir	-11.9254
▁nebulosa	-11.9254
▁parcela	-11.9254
▁semicircular	-11.9254
▁súpe	-11.9254
▁convocatoria	-11.9254
▁charla	-11.9255
▁malaria	-11.9256
▁imaxinario	-11.9256
onif	-11.9256
▁molde	-11.9256
▁Mend	-11.9256
▁significante	-11.9258
▁transportado	-11.9258
▁transmitido	-11.9259
▁Méri	-11.926
▁Pequ	-11.9262
▁xusta	-11.9263
▁cronolox	-11.9264
▁ascendido	-11.9264
▁rug	-11.9267
▁avaliación	-11.9267
▁aragon	-11.9267
lvan	-11.9269
▁Casp	-11.927
▁Gate	-11.9271
sex	-11.9272
▁executa	-11.9277
vento	-11.9277
▁negar	-11.9278
▁Vim	-11.928
▁Ordo	-11.9281
▁Cam	-11.9282
▁Barb	-11.9293
▁Administrativa	-11.9297
▁responden	-11.9297
▁axudado	-11.9301
▁Olive	-11.9302
▁daría	-11.9304
▁consagra	-11.9306
▁derivan	-11.931
▁Fox	-11.9312
M	-11.9313
rís	-11.9315
▁dupl	-11.9317
▁xurdido	-11.9322
gona	-11.9323
▁retroce	-11.933
bar	-11.9333
rtiza	-11.9338
▁Gome	-11.934
▁obteñ	-11.934
▁xestiona	-11.9343
adri	-11.9351
▁Stor	-11.9354
▁bote	-11.9354
▁caro	-11.9355
uten	-11.9356
▁Metropolitan	-11.9357
▁asturiana	-11.9357
▁concedida	-11.9357
▁discrepancia	-11.9357
▁miniatura	-11.9357
▁neutrino	-11.9357
▁valioso	-11.9357
▁trasladá	-11.9357
▁emerxencia	-11.9357
▁Permane	-11.9357
▁recipiente	-11.9358
▁regula	-11.9359
▁comandada	-11.9359
▁Terr	-11.9362
▁mobilización	-11.9363
▁Ango	-11.9363
gor	-11.9366
▁proclamar	-11.9366
▁Conrad	-11.9366
▁primate	-11.9367
▁consumir	-11.9369
▁Pon	-11.9369
sagrada	-11.9369
▁concentrado	-11.9372
▁Margar	-11.9374
▁Claud	-11.9377
▁acusa	-11.9378
▁acababa	-11.9379
▁conformad	-11.9384
▁xenérico	-11.9384
▁Direc	-11.9385
▁encontrado	-11.9385
ianz	-11.9386
▁reprodutor	-11.9386
▁emisor	-11.9386
▁Niet	-11.9388
▁múltiplo	-11.9389
▁autora	-11.9395
▁estabelecer	-11.9401
▁Naval	-11.9401
rase	-11.9406
ale	-11.9406
urio	-11.9409
cuña	-11.9409
▁Enter	-11.9415
▁linde	-11.9418
▁Lice	-11.9419
tavo	-11.9422
▁Catal	-11.9429
ñ	-11.943
com	-11.9431
dí	-11.9433
▁convenceu	-11.9434
▁elíptica	-11.944
▁fich	-11.9449
▁Guard	-11.9457
bón	-11.946
▁apéndice	-11.9461
▁decorada	-11.9461
▁explosivo	-11.9461
▁fronteiriza	-11.9461
▁metodoloxía	-11.9461
▁prusiano	-11.9461
▁publíca	-11.9461
▁analítica	-11.9461
▁mosaico	-11.9461
▁cognitiva	-11.9461
▁cornixa	-11.9461
▁consolidou	-11.9461
▁estimou	-11.9461
▁repite	-11.9461
▁Monumento	-11.9461
▁diagona	-11.9461
▁recompilación	-11.9461
▁favorecer	-11.9462
▁atraído	-11.9462
▁cristalina	-11.9465
▁furón	-11.9465
▁concentrada	-11.9466
▁141	-11.9468
▁concibido	-11.9469
▁Magda	-11.9469
▁facia	-11.9469
▁dual	-11.9469
alto	-11.947
palo	-11.947
ph	-11.947
▁Xav	-11.9472
▁impedi	-11.9476
▁operativos	-11.9479
▁deficiencia	-11.948
▁rexistrar	-11.948
▁resalta	-11.948
▁Compañ	-11.9483
▁reclamación	-11.9484
▁Vide	-11.9486
CP	-11.9487
▁Creou	-11.9489
▁Ace	-11.9489
▁formig	-11.9491
eptu	-11.9501
▁perla	-11.9502
▁calzada	-11.9503
▁dominan	-11.9504
▁morren	-11.9507
▁ríxida	-11.9508
▁Dioc	-11.9517
▁dinamarqu	-11.9524
▁oculto	-11.9531
▁inmun	-11.9536
▁hip	-11.9536
▁alban	-11.9537
imén	-11.9538
cinco	-11.9539
reb	-11.9542
udiencia	-11.9543
▁servid	-11.9546
▁ref	-11.9553
▁Proba	-11.9553
arne	-11.9555
lido	-11.9556
isma	-11.9558
arve	-11.9559
▁inverna	-11.956
▁Mariana	-11.956
rquí	-11.9563
▁Science	-11.9566
▁controvertida	-11.9566
▁dispoñíbe	-11.9566
▁hurrita	-11.9566
▁ideolóxico	-11.9566
▁lévedo	-11.9566
▁mixta	-11.9566
▁xoguete	-11.9566
▁babilonio	-11.9566
▁cualidade	-11.9566
▁xeógrafo	-11.9566
▁torná	-11.9566
▁ganancia	-11.9566
▁extraído	-11.9566
▁saxón	-11.9566
urbio	-11.9566
▁Pipin	-11.9566
▁baleira	-11.9566
▁fusilado	-11.9566
▁simpatía	-11.9567
▁Lind	-11.9567
▁engloba	-11.9567
▁Birm	-11.9567
▁pergam	-11.9567
▁adicado	-11.9567
▁Gius	-11.9568
▁ordenar	-11.9568
▁mouro	-11.9569
▁matanza	-11.9569
▁Escritor	-11.9569
ust	-11.957
▁Familia	-11.957
énico	-11.9571
▁Sr	-11.9571
▁Girl	-11.9571
▁Trist	-11.9572
pedia	-11.9573
▁reflectida	-11.9573
▁Ilustra	-11.9573
▁supervivente	-11.9573
▁lucense	-11.9573
▁indic	-11.9574
▁ordenamento	-11.9574
▁Villen	-11.9575
▁manipulación	-11.9575
▁Fid	-11.9577
▁caldeira	-11.9586
▁xeorxiano	-11.9589
ath	-11.9589
▁Aní	-11.9589
▁Brai	-11.9595
▁portuaria	-11.9598
▁gañada	-11.96
▁centrou	-11.9602
▁funcion	-11.9603
raña	-11.9604
▁incerta	-11.9605
▁levanta	-11.9605
▁concentra	-11.9606
▁devolver	-11.9607
▁Alemá	-11.9609
▁defendida	-11.961
llada	-11.9611
▁Constanci	-11.9613
▁Museu	-11.9614
ller	-11.9615
▁cede	-11.9617
▁Gut	-11.9623
nidade	-11.9626
▁Sist	-11.9626
▁Meir	-11.9629
▁paulatina	-11.9629
▁afundi	-11.963
▁posibilita	-11.9631
▁Cambr	-11.9631
▁acadan	-11.9633
▁factoría	-11.9634
▁incluíron	-11.9636
▁face	-11.9638
▁burguesa	-11.964
▁Cañ	-11.9642
para	-11.9642
▁acumula	-11.9647
▁lembrar	-11.9648
▁nervios	-11.9648
▁escapa	-11.9654
▁desexa	-11.9655
▁óleo	-11.9658
raba	-11.9659
▁Gol	-11.9659
▁Padre	-11.966
monte	-11.9664
▁fuxid	-11.9666
cles	-11.9666
▁simbol	-11.9666
▁Alma	-11.9667
ólica	-11.9667
▁host	-11.9672
▁cromat	-11.9672
▁diríxe	-11.9672
▁Caballero	-11.9673
▁alzhéimer	-11.9673
▁anexionad	-11.9673
▁billete	-11.9673
▁cheminea	-11.9673
▁clasificou	-11.9673
▁confrontación	-11.9673
▁dialéctic	-11.9673
▁pechou	-11.9673
▁pictórica	-11.9673
▁sistemático	-11.9673
▁estrofa	-11.9673
▁Sucedeu	-11.9673
▁envellece	-11.9673
▁fractura	-11.9673
▁incrible	-11.9673
▁decorativo	-11.9673
▁renovable	-11.9673
▁refería	-11.9673
eimar	-11.9673
▁certificado	-11.9673
leiro	-11.9674
▁carteira	-11.9674
▁fenda	-11.9674
▁castaño	-11.9674
▁xema	-11.9675
▁esperant	-11.9675
▁temperada	-11.9675
▁convocado	-11.9677
▁Theodor	-11.9679
ranio	-11.9682
▁atlet	-11.9683
grán	-11.9684
nodo	-11.9685
▁aclamado	-11.9685
▁taxonom	-11.969
▁Cala	-11.969
veiro	-11.9696
▁sacou	-11.9697
▁ingresar	-11.9698
▁Agricult	-11.9698
▁alimentan	-11.9698
ef	-11.9703
erna	-11.9703
▁anota	-11.9703
▁innovador	-11.9705
▁centralizad	-11.9705
llan	-11.9708
gne	-11.9711
icultura	-11.9712
▁chileno	-11.9713
▁Cra	-11.9714
▁Vanc	-11.9715
▁parente	-11.9716
▁sendeir	-11.972
▁Acta	-11.9721
▁xenio	-11.9721
▁aleg	-11.9725
queira	-11.9725
▁dispoñib	-11.9727
stoc	-11.973
▁Sco	-11.973
▁achegas	-11.9731
uár	-11.9738
▁causan	-11.9741
▁rematan	-11.9742
▁pantanos	-11.9746
lariz	-11.975
▁recollen	-11.9751
▁Bad	-11.9751
▁infinita	-11.9755
▁construtor	-11.976
streito	-11.976
engala	-11.9761
▁Nazi	-11.9761
▁importa	-11.9766
incidencia	-11.9768
▁debilidade	-11.977
▁culmin	-11.9771
▁homosexua	-11.9772
umi	-11.9779
▁Contemporáne	-11.978
▁Continent	-11.978
▁Róm	-11.978
▁curioso	-11.978
▁flanco	-11.978
▁fotográfica	-11.978
▁hidrocarburo	-11.978
▁inconsciente	-11.978
▁mercancía	-11.978
▁organíza	-11.978
▁permanecía	-11.978
▁profecía	-11.978
▁cineasta	-11.978
▁secuela	-11.978
▁volvía	-11.978
▁hinduís	-11.978
▁promovido	-11.978
▁impresa	-11.978
▁secuestrado	-11.978
▁sulfato	-11.978
▁dixestivo	-11.978
igg	-11.9787
ingham	-11.9789
▁malaio	-11.9789
▁Descart	-11.979
▁repartida	-11.9793
▁Cambi	-11.9798
▁sufría	-11.9804
▁esperado	-11.9805
▁significar	-11.9808
▁constituíron	-11.9814
▁prohib	-11.9815
sonte	-11.9815
ábe	-11.9818
▁sagrada	-11.9819
▁prel	-11.9825
▁Pont	-11.9833
hr	-11.9835
▁Pot	-11.9836
▁Corint	-11.9838
▁Xust	-11.9855
▁Frei	-11.9858
▁remo	-11.986
▁produtiva	-11.9864
▁combatente	-11.9868
ourne	-11.987
▁xeran	-11.9872
égue	-11.9872
▁dividen	-11.9873
▁Tá	-11.9875
▁oportunidades	-11.9876
▁recada	-11.9876
▁catedra	-11.9878
▁decae	-11.9881
cer	-11.9888
embrand	-11.9889
▁Lombard	-11.9889
▁cartucho	-11.9889
▁gaivota	-11.9889
▁pantalón	-11.9889
▁rechamante	-11.9889
▁turbina	-11.9889
▁videoclip	-11.9889
▁fricción	-11.9889
▁Democracia	-11.9889
▁vasto	-11.9889
▁timbre	-11.9889
▁morcego	-11.9889
▁xeométrico	-11.9889
▁amorosa	-11.9889
▁lim	-11.9889
ple	-11.9891
▁xanela	-11.9891
itanic	-11.9892
▁comandado	-11.9892
▁cualificado	-11.9894
▁nula	-11.9895
▁Cabeza	-11.9897
▁apuntan	-11.9899
▁analiza	-11.99
▁macedonio	-11.99
▁admitido	-11.9901
▁sobriñ	-11.9903
▁Bus	-11.9907
die	-11.9908
▁metano	-11.9909
▁neolítico	-11.991
▁nucleótido	-11.9912
▁prosegui	-11.9912
▁Principal	-11.9915
▁Fene	-11.9915
▁ab	-11.9921
liño	-11.9923
▁revelación	-11.9925
eciano	-11.9934
▁manten	-11.9935
▁Nord	-11.9935
▁ateo	-11.9938
▁especificación	-11.9947
▁alterar	-11.9947
▁coida	-11.9947
▁perpetua	-11.9955
▁Transporte	-11.9957
▁glic	-11.9966
▁Abel	-11.997
isario	-11.997
▁servo	-11.997
nar	-11.9972
dina	-11.9977
▁cómico	-11.9977
▁vermes	-11.9978
teís	-11.9981
iens	-11.9992
▁Anne	-11.9996
▁traxecto	-11.9998
asílica	-11.9998
rne	-11.9998
▁canguro	-11.9999
▁carbohidrato	-11.9999
▁cardíaca	-11.9999
▁cuadrangular	-11.9999
▁indirecto	-11.9999
▁naufraxio	-11.9999
▁persoeiro	-11.9999
▁sentimenta	-11.9999
▁transfórma	-11.9999
▁triplo	-11.9999
▁Rhode	-11.9999
▁maorí	-11.9999
▁Spring	-11.9999
▁érgue	-11.9999
▁amigable	-11.9999
▁mecena	-11.9999
compoñer	-12
▁corsario	-12.0001
▁vice	-12.0002
▁regulamento	-12.0002
▁creativo	-12.0003
▁impulsado	-12.0003
▁Cous	-12.0004
▁Manzan	-12.0005
▁incapacidade	-12.0005
nqueiro	-12.0006
iel	-12.0006
▁unanim	-12.0006
▁Fight	-12.0007
▁vot	-12.0007
▁Baden	-12.0007
▁cubría	-12.0008
▁disolver	-12.0008
▁crema	-12.0009
▁biólogo	-12.0011
▁designada	-12.0013
brindo	-12.0014
▁Relación	-12.0015
▁oficios	-12.0017
▁establecen	-12.0017
▁ní	-12.0019
▁salgada	-12.0021
▁discrimina	-12.0022
ct	-12.0025
pé	-12.0026
▁metafísic	-12.0028
▁licenciou	-12.003
▁Será	-12.003
▁agresivo	-12.0032
▁medran	-12.0032
▁semántic	-12.0033
▁infini	-12.0033
▁clor	-12.0034
elva	-12.0035
▁cubano	-12.0037
▁Blanc	-12.0038
▁celebraba	-12.0039
29	-12.0039
▁agresiva	-12.0041
▁expux	-12.0043
▁film	-12.0044
16	-12.0046
▁impulsar	-12.0049
▁nacente	-12.005
▁enlaza	-12.0053
▁Bri	-12.0058
▁leon	-12.0061
▁Xab	-12.0063
bane	-12.0064
▁Amade	-12.0064
▁penso	-12.0066
▁recruta	-12.0068
ER	-12.007
omme	-12.0071
▁comprenden	-12.0072
urxi	-12.0073
gro	-12.0074
▁Bon	-12.0074
▁nerviosa	-12.0078
▁Mino	-12.0079
▁Lexi	-12.0081
forzou	-12.0082
▁efectuar	-12.0084
▁acaban	-12.0086
▁obrigación	-12.0087
▁Lagoa	-12.0088
▁Commo	-12.009
▁hoube	-12.0093
▁Barro	-12.01
▁sinalan	-12.0102
▁Xuv	-12.0103
▁acompañar	-12.0105
▁AC	-12.0108
▁celebran	-12.0109
▁Técnica	-12.011
▁diferéncia	-12.011
▁décima	-12.011
▁edulcorante	-12.011
▁excesivo	-12.011
▁metralladora	-12.011
▁perpiaño	-12.011
▁residía	-12.011
▁Estatística	-12.011
▁aliménta	-12.011
▁soluble	-12.011
▁tive	-12.011
▁épico	-12.011
▁ilusión	-12.011
▁retomou	-12.011
▁roedor	-12.011
▁xeonllo	-12.011
▁secuestro	-12.011
▁alimenticio	-12.011
▁caloroso	-12.011
▁candorca	-12.011
▁mastro	-12.011
▁Spect	-12.011
trópo	-12.011
▁goma	-12.0111
▁percusión	-12.0111
▁armadura	-12.0111
▁elemental	-12.0112
▁imán	-12.0115
▁acode	-12.0115
▁contida	-12.0116
▁proa	-12.0118
▁Xiron	-12.0118
▁pinto	-12.0118
▁quero	-12.0119
▁balada	-12.0119
▁industrializado	-12.0123
▁Ancar	-12.0125
▁fresca	-12.0126
▁expresada	-12.0128
▁ramo	-12.0128
aldi	-12.0131
▁expandiu	-12.0133
▁grafía	-12.0134
iñas	-12.0135
▁SS	-12.0137
mentou	-12.014
▁visitada	-12.0143
▁Iber	-12.0146
ob	-12.0146
sella	-12.0147
▁Nam	-12.0148
cionario	-12.0151
▁concentrar	-12.0152
bour	-12.0158
▁emir	-12.0163
▁excede	-12.0168
estade	-12.0168
▁derroca	-12.017
▁Pequena	-12.0175
▁automati	-12.0178
▁Amigo	-12.0197
▁Lad	-12.0198
gán	-12.0201
xase	-12.0204
pato	-12.0204
▁Marcia	-12.0204
▁Deix	-12.0206
▁Celestin	-12.0222
▁Constitúe	-12.0222
▁Continu	-12.0222
▁Perfect	-12.0222
▁achegou	-12.0222
▁defunto	-12.0222
▁espontánea	-12.0222
▁plástica	-12.0222
▁subcampión	-12.0222
▁proletaria	-12.0222
▁valiosa	-12.0222
▁fazaña	-12.0222
▁xefa	-12.0223
▁Grove	-12.0223
▁mantida	-12.0223
▁binario	-12.0223
▁besta	-12.0223
▁cruel	-12.0224
▁establecía	-12.0225
▁portador	-12.0225
▁suxerir	-12.0225
▁Too	-12.0226
▁pau	-12.0226
Cl	-12.0226
▁lisa	-12.0227
cadou	-12.023
▁asentado	-12.023
▁primordial	-12.023
▁Ingres	-12.0231
▁recorrente	-12.0231
eveland	-12.0232
▁apreciado	-12.0233
▁goleador	-12.0234
▁Lan	-12.0235
▁Mann	-12.0237
tregu	-12.0241
▁Bartolome	-12.0242
▁reto	-12.0244
▁fro	-12.0247
▁operan	-12.0247
alle	-12.0248
▁CP	-12.0248
▁Musa	-12.025
ásico	-12.0253
▁retornar	-12.0254
▁adquirido	-12.0257
▁Mile	-12.0261
▁Leva	-12.0261
▁Four	-12.0265
▁Mato	-12.0265
▁revelar	-12.0266
▁Aureli	-12.0269
▁fre	-12.027
listo	-12.0278
▁bio	-12.0279
liga	-12.0282
ático	-12.0286
▁260	-12.0286
▁desviación	-12.0289
▁hom	-12.0293
▁soldo	-12.0294
▁Anton	-12.0295
▁acadi	-12.0298
▁Medici	-12.0298
▁eminente	-12.0299
ágar	-12.03
▁escap	-12.0301
▁bela	-12.0304
▁filamentos	-12.0304
▁atribúese	-12.0304
▁convenciona	-12.0305
▁refrac	-12.0311
▁Román	-12.0313
▁conectan	-12.0322
hol	-12.0323
ulli	-12.0331
▁Paris	-12.0335
▁dé	-12.0335
▁Ric	-12.0336
▁aristócrata	-12.0336
▁cúbico	-12.0336
▁desvío	-12.0336
▁inscrito	-12.0336
▁migratorio	-12.0336
▁estatístico	-12.0336
▁iniciá	-12.0336
▁televisiva	-12.0336
▁arquivolta	-12.0336
▁gasolin	-12.0336
▁serbia	-12.0336
▁púnica	-12.0336
▁At	-12.0336
▁elegante	-12.0337
▁chip	-12.0337
▁insuficiente	-12.0337
▁calcúla	-12.0337
▁Marquesa	-12.0337
▁balcón	-12.0338
▁remota	-12.0338
▁lembranza	-12.0339
▁comenzo	-12.0339
▁Arriba	-12.0339
▁Segue	-12.034
GT	-12.034
▁Xeración	-12.034
vidos	-12.0341
▁Planta	-12.0342
▁asignado	-12.0342
▁concibi	-12.0345
▁retícul	-12.0346
▁apuntado	-12.0346
▁brigada	-12.035
▁asimila	-12.0351
▁derivación	-12.0352
gallo	-12.0353
▁prestixiosa	-12.0353
▁positi	-12.0354
▁Oza	-12.0356
seguinte	-12.0357
▁prestación	-12.0358
gang	-12.0358
▁encabez	-12.0361
▁Mr	-12.0362
▁nomeoun	-12.0365
▁alfa	-12.0366
zón	-12.0369
▁brutal	-12.0371
▁xeneralizada	-12.0372
▁Monto	-12.0375
emen	-12.0376
atall	-12.0382
▁tratada	-12.0383
▁traballadora	-12.0383
▁viaxaba	-12.0386
rem	-12.0386
▁cambian	-12.0391
▁Sina	-12.0392
▁Beatri	-12.0398
▁alleo	-12.04
▁barba	-12.0402
neros	-12.0402
▁Dé	-12.0403
▁Base	-12.0409
▁agua	-12.041
▁informal	-12.0411
▁introduci	-12.0411
▁renovado	-12.0416
▁Abe	-12.0416
▁Rut	-12.0418
lema	-12.0419
▁Ribeir	-12.042
▁micro	-12.042
otá	-12.0425
▁Debi	-12.0429
▁existencial	-12.0435
olív	-12.0435
▁seguiría	-12.0436
▁revé	-12.0442
▁azar	-12.0442
▁pito	-12.0448
▁axita	-12.0448
▁bioquímica	-12.0451
▁candidata	-12.0451
▁deshabitado	-12.0451
▁incompleta	-12.0451
▁minoritario	-12.0451
▁rectángulo	-12.0451
▁predicir	-12.0451
▁ídolo	-12.0451
▁Irene	-12.0451
▁sobrenatura	-12.0451
▁supoñía	-12.0451
▁deixaría	-12.0451
arbor	-12.0452
▁checa	-12.0453
▁encabeza	-12.0455
▁botou	-12.0455
▁refén	-12.0455
rovenza	-12.0456
▁Indiana	-12.0456
▁acusada	-12.0457
▁abolida	-12.0461
▁Cuart	-12.0464
comunidade	-12.0464
▁ordina	-12.0465
▁remedio	-12.0466
▁resolveu	-12.0468
▁Novos	-12.0469
▁adquirida	-12.0471
▁Regional	-12.0474
▁Segura	-12.0474
▁supor	-12.0482
▁aula	-12.0483
▁linear	-12.0486
▁alternan	-12.0492
▁Disp	-12.0496
▁chá	-12.0497
beta	-12.0497
▁separan	-12.0498
▁explic	-12.0501
▁durmi	-12.0509
lizab	-12.0509
▁recuperado	-12.0512
céde	-12.0513
▁sabana	-12.0516
▁quedaría	-12.0522
▁dama	-12.0522
ferrad	-12.0522
agma	-12.0523
▁Georg	-12.0523
▁designou	-12.0528
▁nulo	-12.0529
dín	-12.0532
▁Prest	-12.0534
▁Burt	-12.0536
▁president	-12.0539
rin	-12.0541
▁pronunciada	-12.0542
cado	-12.0542
▁Age	-12.0542
perfección	-12.0543
▁recolec	-12.0543
món	-12.0543
▁excluí	-12.0545
nunciou	-12.0548
ards	-12.0551
▁Saa	-12.0551
▁prosper	-12.0555
▁figuraba	-12.0558
▁But	-12.0559
▁anexa	-12.0561
▁Maio	-12.0561
▁glori	-12.0562
▁fil	-12.0563
▁créa	-12.0565
▁donos	-12.0565
ircuíto	-12.0566
▁afinidade	-12.0567
▁astronauta	-12.0567
▁auxilio	-12.0567
▁burocracia	-12.0567
▁encárga	-12.0567
▁esférica	-12.0567
▁gratuíta	-12.0567
▁inmenso	-12.0567
▁metáfora	-12.0567
▁morfolóxica	-12.0567
▁procuro	-12.0567
▁prolifera	-12.0567
▁reactivo	-12.0567
▁tóxica	-12.0567
▁vestimenta	-12.0567
▁dubida	-12.0567
▁monxa	-12.0567
▁chegue	-12.0567
▁urbe	-12.0567
▁enzima	-12.0567
▁supuña	-12.0567
▁Meridi	-12.0567
▁barato	-12.0568
▁Somoza	-12.0568
▁rima	-12.0568
▁dourado	-12.0569
▁pagamento	-12.0571
▁Thor	-12.0577
▁asinada	-12.0577
hans	-12.0583
▁cuñado	-12.0584
▁describía	-12.0585
▁roto	-12.0588
▁detri	-12.0589
▁vacante	-12.0591
▁mera	-12.0594
▁resumo	-12.0594
▁agardaba	-12.0595
▁antipa	-12.0599
▁celul	-12.0601
▁element	-12.0605
▁Aero	-12.0607
▁Carballi	-12.0607
▁reunifica	-12.0608
▁trouxer	-12.0608
▁saía	-12.061
▁touro	-12.061
PL	-12.0611
abilidade	-12.0611
▁Gua	-12.0614
▁recorrer	-12.0615
▁Forte	-12.0615
▁positivos	-12.062
▁constrúen	-12.062
▁terminación	-12.0628
▁marte	-12.0628
▁impar	-12.0636
▁camiña	-12.0636
▁coincidir	-12.0639
▁Silver	-12.0641
uman	-12.0644
▁chegase	-12.0646
▁universa	-12.0647
toria	-12.0655
▁continuaría	-12.0655
▁solicita	-12.0659
▁esteiro	-12.0665
▁pasara	-12.0665
▁expulsa	-12.0668
▁Aberto	-12.0669
▁Soria	-12.067
▁America	-12.0672
▁procurar	-12.0684
▁artefacto	-12.0685
▁autonómico	-12.0685
▁dispuña	-12.0685
▁fitoplancto	-12.0685
▁multinaciona	-12.0685
▁peteiro	-12.0685
▁renovou	-12.0685
▁represalia	-12.0685
▁súbdito	-12.0685
▁tempestade	-12.0685
▁Abdul	-12.0685
▁Tasman	-12.0685
▁itinerario	-12.0685
▁convenio	-12.0685
▁meteorito	-12.0685
▁cerro	-12.0685
▁Tiber	-12.0685
erdina	-12.0685
▁palla	-12.0686
eríodo	-12.0686
▁queixa	-12.0687
▁circo	-12.0687
▁impulsor	-12.0687
▁Califa	-12.0687
▁tonalidade	-12.0688
roes	-12.0691
▁recoñecen	-12.0693
▁considerába	-12.0695
▁salario	-12.0698
▁sedimentaria	-12.07
▁teor	-12.0702
dica	-12.0704
▁superada	-12.0705
xena	-12.0705
▁Occident	-12.0705
▁Verí	-12.0705
▁inmortal	-12.0707
▁Susan	-12.0711
▁barón	-12.0711
ect	-12.0712
cc	-12.0715
▁preg	-12.0715
duciu	-12.0715
▁modifica	-12.0716
lbum	-12.0717
bec	-12.072
▁recuperada	-12.0723
tálica	-12.0723
▁descansa	-12.0725
▁elixe	-12.0728
▁Narv	-12.0731
▁Galo	-12.0732
▁Laura	-12.0734
▁ameazado	-12.0736
mostrado	-12.0737
rtodoxa	-12.0739
▁che	-12.0743
erb	-12.0744
▁recrea	-12.0744
vedo	-12.0746
▁estabeleceu	-12.0751
meral	-12.0759
▁agarda	-12.0766
▁esquece	-12.0767
mil	-12.0767
▁Valent	-12.0768
▁admirador	-12.0769
▁produtivo	-12.078
▁fixou	-12.0781
CI	-12.0783
▁Beira	-12.0784
rest	-12.0787
▁espora	-12.0788
can	-12.0791
asco	-12.0791
▁270	-12.0795
400	-12.0798
▁amplia	-12.0799
▁freo	-12.0799
▁enche	-12.0802
▁CE	-12.0803
▁consecu	-12.0803
ábrica	-12.0803
glomera	-12.0804
▁Inclúe	-12.0804
▁Comunicación	-12.0804
▁agradable	-12.0804
▁aparecido	-12.0804
▁atmosférico	-12.0804
▁cóengo	-12.0804
▁distintiva	-12.0804
▁eliminou	-12.0804
▁embarazada	-12.0804
▁espallou	-12.0804
▁harmónico	-12.0804
▁pensión	-12.0804
▁pioneira	-12.0804
▁tranvía	-12.0804
▁solicitude	-12.0804
▁rigoroso	-12.0804
▁diagrama	-12.0804
▁acuario	-12.0804
▁limitou	-12.0804
▁Común	-12.0804
▁delgada	-12.0804
▁coherente	-12.0805
▁zume	-12.0805
▁Broad	-12.0806
▁canteiro	-12.0807
▁acepción	-12.0809
▁cheiro	-12.0809
▁vían	-12.081
▁Convent	-12.0813
▁Pep	-12.0815
▁Idea	-12.0816
orxa	-12.0816
▁contratou	-12.0818
▁She	-12.0822
mph	-12.0824
▁perd	-12.0826
▁finito	-12.0826
▁sindica	-12.0827
stán	-12.0828
▁baixar	-12.0829
▁inclusiv	-12.0829
análise	-12.0836
▁Mesía	-12.0838
▁apoian	-12.0844
▁sacaro	-12.0845
▁Ph	-12.0847
▁Bue	-12.0848
▁230	-12.085
▁acoller	-12.0855
▁predica	-12.0858
▁sap	-12.0858
sase	-12.0859
▁conseguido	-12.086
erald	-12.086
▁combinar	-12.0863
▁coruñes	-12.0866
▁reforza	-12.0869
▁creo	-12.0873
▁bin	-12.0874
▁afasta	-12.0877
▁asocia	-12.0879
▁apart	-12.0882
▁Sexa	-12.0884
matic	-12.0892
rbona	-12.0892
niño	-12.09
▁Neil	-12.09
ivan	-12.0903
▁Vald	-12.0904
ere	-12.0905
estar	-12.0908
▁Berm	-12.0908
▁copr	-12.091
▁condensa	-12.0915
alcol	-12.0917
▁Ferrer	-12.0921
▁Arcebisp	-12.0924
▁ibérica	-12.0924
▁ibérico	-12.0924
▁inédito	-12.0924
▁remodelación	-12.0924
▁reproduce	-12.0924
▁solucionar	-12.0924
▁monzón	-12.0924
▁ofrenda	-12.0924
▁entorno	-12.0924
▁pistón	-12.0924
▁rabaño	-12.0924
▁alude	-12.0924
▁ficticio	-12.0924
▁Disco	-12.0924
▁bravo	-12.0924
▁numérica	-12.0924
▁reformista	-12.0924
▁comparable	-12.0924
▁exarca	-12.0925
▁furado	-12.0925
▁previsión	-12.0925
▁redúce	-12.0925
▁fogueira	-12.0925
lipse	-12.0925
▁diverxencia	-12.0925
▁sentado	-12.0926
▁garante	-12.0926
esco	-12.0927
▁restrinxido	-12.0927
▁consumida	-12.0927
▁temperán	-12.0928
▁Motor	-12.0929
upe	-12.0929
▁queira	-12.0929
▁invitación	-12.0929
▁apreciada	-12.0931
▁marisco	-12.0931
▁Albu	-12.0934
▁Terzo	-12.0936
▁Trin	-12.0937
inio	-12.0937
▁pato	-12.094
▁vistos	-12.0941
▁modern	-12.0941
rling	-12.0942
▁cometido	-12.0942
▁foxe	-12.0944
▁Gam	-12.0945
▁Orange	-12.0945
roll	-12.0946
▁Inda	-12.0953
▁Xesu	-12.0954
▁extraer	-12.0956
roup	-12.0959
portuguesa	-12.0962
▁descubri	-12.0962
ius	-12.0963
▁Rela	-12.0963
▁Trint	-12.0965
volta	-12.0972
tari	-12.0972
▁encabezad	-12.0972
▁hispano	-12.0976
▁sobe	-12.0982
alia	-12.0983
▁111	-12.0984
stica	-12.0992
iña	-12.0995
roques	-12.0999
tendida	-12.1002
ntaxe	-12.1008
▁Xin	-12.1012
▁Onda	-12.1015
▁neerlandesa	-12.1018
ificado	-12.1019
▁soster	-12.102
▁clandestina	-12.1023
▁hi	-12.1026
▁explota	-12.1027
otel	-12.1029
▁Champions	-12.103
onra	-12.1031
poli	-12.1031
▁Emil	-12.1033
▁aproximad	-12.104
áximo	-12.1044
especto	-12.1045
▁Tarra	-12.1046
▁absorbido	-12.1046
▁avalancha	-12.1046
▁bautizo	-12.1046
▁chuvioso	-12.1046
▁cloroplasto	-12.1046
▁cuneiforme	-12.1046
▁escandinavo	-12.1046
▁fantástico	-12.1046
▁férrea	-12.1046
▁inútil	-12.1046
▁mitolóxico	-12.1046
▁morfema	-12.1046
▁pneumon	-12.1046
▁reconto	-12.1046
▁televisivo	-12.1046
▁buraco	-12.1046
▁perenne	-12.1046
▁inevitable	-12.1046
▁traspaso	-12.1046
▁autobús	-12.1046
▁encanto	-12.1046
▁analoxía	-12.1046
▁asócia	-12.1046
▁viscos	-12.1046
▁heroína	-12.1046
▁provisión	-12.1046
▁propúxo	-12.1047
▁vin	-12.1047
▁preposición	-12.1047
▁Edición	-12.1048
▁Metro	-12.1048
▁Rig	-12.1048
▁espallada	-12.1049
▁traer	-12.105
▁fertilizante	-12.105
▁Miró	-12.1051
▁sopa	-12.1051
▁marisma	-12.1051
▁Regres	-12.1052
▁Stadi	-12.1053
▁fundido	-12.1054
▁elevar	-12.1056
dna	-12.1056
▁Vasa	-12.1058
▁predomin	-12.1059
▁Ponteces	-12.1059
▁vestir	-12.1059
CA	-12.106
▁lituano	-12.106
iris	-12.1062
▁temía	-12.1063
▁fíxolle	-12.1066
▁informar	-12.1067
▁confederado	-12.1069
▁neutra	-12.107
▁indicado	-12.107
eart	-12.107
▁couto	-12.1071
▁atravesan	-12.1071
▁ambicioso	-12.1075
ead	-12.1076
media	-12.1079
▁fecunda	-12.1081
▁estaciona	-12.1082
speranza	-12.1087
▁alimentado	-12.1089
▁ascender	-12.1089
▁infravermell	-12.1092
▁ci	-12.1093
▁Corp	-12.1094
lave	-12.1102
▁Bl	-12.1103
frontar	-12.1104
▁relacionar	-12.1105
▁fracasar	-12.1105
rar	-12.111
lectric	-12.1113
sche	-12.1113
▁Pinto	-12.1113
▁acontecer	-12.1116
pruden	-12.1118
▁Ner	-12.1118
mbledo	-12.112
▁épica	-12.1121
▁vou	-12.1127
bell	-12.1131
▁consisti	-12.1138
onori	-12.1142
▁empezan	-12.1144
▁distribúe	-12.1148
▁limi	-12.1149
eres	-12.1156
▁engala	-12.1162
▁tenis	-12.1164
nmediata	-12.1169
▁domicili	-12.117
▁gornición	-12.117
▁interrompido	-12.117
▁primoxénit	-12.117
▁subterránea	-12.117
▁ventrículo	-12.117
▁míde	-12.117
▁disolto	-12.117
▁rigorosa	-12.117
▁premisa	-12.117
▁Artigo	-12.117
▁Glori	-12.117
▁narrativo	-12.1171
▁canónico	-12.1171
neno	-12.1172
▁figuran	-12.1172
▁aviso	-12.1174
▁taxi	-12.1175
▁Morgan	-12.1176
▁bater	-12.1176
▁surrealis	-12.1176
▁contedor	-12.1176
▁semítica	-12.1179
▁destila	-12.1185
▁fosa	-12.1185
▁Pur	-12.1186
▁adapta	-12.1186
▁importar	-12.1188
▁fomenta	-12.1189
▁Emma	-12.1189
▁Cea	-12.1192
▁resisti	-12.1192
ctil	-12.1194
rtford	-12.1194
orcio	-12.1197
▁Mora	-12.1198
apate	-12.1199
▁contro	-12.1202
▁Bol	-12.1203
▁irregularidade	-12.1204
▁traslada	-12.1206
minente	-12.1208
OM	-12.121
▁Socie	-12.1211
▁envolto	-12.1212
▁instante	-12.1212
▁megalítico	-12.1212
▁pronunciad	-12.1214
▁sei	-12.1216
▁Lob	-12.1217
▁Dita	-12.1217
miro	-12.1218
▁Neno	-12.1225
▁extrae	-12.123
▁decidi	-12.1234
▁seita	-12.1235
▁Soul	-12.1239
▁disparar	-12.1242
▁selecciona	-12.1243
ald	-12.1243
▁arde	-12.1244
hel	-12.1246
▁desigualdade	-12.1248
▁refuxi	-12.125
ueva	-12.1251
lum	-12.1252
▁convocar	-12.1253
algar	-12.1253
▁internado	-12.1255
Found	-12.1256
▁dra	-12.1258
▁proxecta	-12.126
▁horizonta	-12.1261
loc	-12.1261
▁island	-12.1265
exa	-12.1267
aralela	-12.1269
▁Peri	-12.127
▁crecen	-12.1272
▁imita	-12.1277
icial	-12.1282
▁pene	-12.1288
lain	-12.1292
ciente	-12.1293
heid	-12.1293
▁Produto	-12.1295
▁Supercopa	-12.1295
▁cronolóxic	-12.1295
▁fraude	-12.1295
▁residua	-12.1295
▁vangardista	-12.1295
▁fráxil	-12.1295
▁microprocesador	-12.1295
▁comprometido	-12.1295
▁complicación	-12.1295
▁flexible	-12.1295
▁sintética	-12.1295
▁cardina	-12.1295
▁rotura	-12.1295
▁engadí	-12.1295
▁Dramátic	-12.1296
▁duques	-12.1297
▁maqueta	-12.1297
rer	-12.1298
nster	-12.1299
▁espallado	-12.1299
▁letón	-12.13
▁Compl	-12.1301
▁Expr	-12.1302
▁participaba	-12.1302
▁corta	-12.1303
▁beber	-12.1304
▁Rica	-12.1305
mov	-12.1318
▁Calder	-12.132
▁atope	-12.1321
ilicia	-12.1329
▁queimar	-12.1329
▁Auga	-12.1339
▁adestrado	-12.1341
zt	-12.1341
▁enténde	-12.1341
mpresión	-12.1343
erson	-12.1345
rain	-12.1346
▁camiñar	-12.1346
▁Princes	-12.1348
foresta	-12.1352
▁vaia	-12.1352
ound	-12.1362
▁Rome	-12.1362
EA	-12.1364
▁entendido	-12.1364
▁trá	-12.1367
▁impoñen	-12.1371
clave	-12.138
iland	-12.1382
▁desprende	-12.1383
▁Turn	-12.1383
sur	-12.1388
ndel	-12.1389
ini	-12.1393
ffe	-12.1394
itz	-12.1394
dino	-12.1402
▁configura	-12.1403
▁coopera	-12.1403
▁coidados	-12.1403
▁debuxa	-12.1403
▁consumido	-12.1407
▁Lour	-12.1409
▁Curi	-12.1411
▁salarios	-12.1411
▁interin	-12.1414
▁residen	-12.1417
ícula	-12.1417
estauración	-12.142
▁Numeros	-12.1421
▁bidueiro	-12.1421
▁cedido	-12.1421
▁empírica	-12.1421
▁fronteirizo	-12.1421
▁meridiano	-12.1421
▁pantasma	-12.1421
▁usurpa	-12.1421
▁arcebispa	-12.1421
▁cápsula	-12.1421
▁tratá	-12.1421
▁aeródromo	-12.1421
▁emblema	-12.1421
▁Matemática	-12.1421
▁póstum	-12.1421
▁decatou	-12.1422
▁mantido	-12.1422
oint	-12.1423
▁apropiada	-12.1423
▁requirimento	-12.1423
▁delgado	-12.1424
▁incerteza	-12.1424
▁reclamar	-12.1424
▁baseába	-12.1424
▁prolongada	-12.1425
▁derrubado	-12.1425
▁anana	-12.1425
▁Dolor	-12.1426
▁cartón	-12.1427
▁baga	-12.1428
▁desexado	-12.1431
▁franciscano	-12.1431
▁Elisa	-12.1434
labam	-12.1434
▁mandado	-12.1438
▁clado	-12.1439
▁Agui	-12.144
pert	-12.1441
▁misteriosa	-12.1443
▁licencia	-12.1444
▁Cel	-12.1445
▁Desenvolveu	-12.1448
▁conceder	-12.1449
▁deriv	-12.1451
▁escollida	-12.1451
▁Blai	-12.1452
▁Gord	-12.1452
▁expresado	-12.1455
▁borea	-12.1455
▁especialización	-12.1456
▁artesana	-12.1458
▁conducido	-12.1462
anco	-12.1462
▁atribución	-12.1462
▁Xen	-12.1467
▁Lé	-12.1468
▁recibira	-12.1468
▁Der	-12.1472
▁reg	-12.1472
▁fidalgo	-12.1473
▁enunciado	-12.1474
▁Antártico	-12.1479
▁estanca	-12.148
▁romanesa	-12.1481
▁saquead	-12.1482
▁manténdo	-12.1482
▁Pad	-12.1483
▁Pequen	-12.1484
acusa	-12.1484
tecnoloxía	-12.1484
▁Vale	-12.1489
▁Monter	-12.1491
▁Marca	-12.1493
▁Get	-12.1494
▁graza	-12.1495
▁dividía	-12.1497
▁madrileño	-12.1497
▁enciclopedia	-12.1499
struíron	-12.15
▁Capa	-12.1501
▁administra	-12.1501
arth	-12.1501
▁infravermello	-12.1501
póñen	-12.1503
▁semántico	-12.151
▁harmónica	-12.1521
vira	-12.1523
ope	-12.1524
▁Autor	-12.1525
nnie	-12.153
line	-12.153
áctea	-12.153
▁recomenda	-12.1532
▁limitar	-12.1534
▁Esp	-12.1535
ava	-12.1541
▁Cour	-12.1542
▁Rez	-12.1544
innat	-12.1545
▁retomar	-12.1545
tería	-12.1545
hua	-12.1546
▁Samp	-12.1547
▁mediana	-12.1549
▁adverbio	-12.1549
▁frade	-12.1549
▁modificou	-12.1549
▁prehistórica	-12.1549
▁sanguínea	-12.1549
▁taboíña	-12.1549
▁treboada	-12.1549
▁impoñer	-12.1549
▁maduro	-12.1549
▁banana	-12.1549
▁exercit	-12.1549
▁nacida	-12.1549
▁Invern	-12.1549
▁buca	-12.1549
▁electro	-12.155
▁xurista	-12.155
▁cebad	-12.155
▁cortex	-12.155
▁gasoso	-12.155
▁papiro	-12.155
▁únen	-12.155
▁fortificada	-12.1551
▁Xornal	-12.1551
▁toxina	-12.1551
▁favorábe	-12.1551
▁adorno	-12.1551
▁Alfa	-12.1552
▁Corneli	-12.1553
▁Vilamar	-12.1554
▁Fernán	-12.1554
▁indonesi	-12.1555
▁Adrian	-12.1556
▁botón	-12.156
▁mandada	-12.156
▁Apen	-12.1561
▁compensación	-12.1565
▁cooperativa	-12.1566
▁corrección	-12.157
pice	-12.157
▁Guadala	-12.1571
▁trigonom	-12.1572
each	-12.1572
▁bufo	-12.1573
▁Maca	-12.1574
▁programador	-12.1574
▁competitivo	-12.1576
▁amosaba	-12.158
▁Viña	-12.158
fiel	-12.1584
▁espi	-12.1586
▁inxest	-12.1588
anifesto	-12.159
▁citoplasm	-12.159
▁finlandes	-12.1591
▁activ	-12.1591
▁investido	-12.1593
▁parda	-12.1595
▁fabricada	-12.1598
▁Off	-12.1602
▁madrileñ	-12.1602
▁Citr	-12.1604
▁publicá	-12.1606
▁galesa	-12.1606
▁actualización	-12.1606
▁Anei	-12.1609
▁ovario	-12.1609
ipo	-12.1617
xurdi	-12.1618
▁clasifica	-12.1619
▁Xulian	-12.162
▁ratificad	-12.1623
▁astronómica	-12.1627
▁compilador	-12.1631
▁adora	-12.1635
▁im	-12.1637
▁innovadora	-12.1639
▁ilega	-12.164
▁Stevens	-12.1642
reixa	-12.1644
feso	-12.1644
▁Nix	-12.1646
▁Sig	-12.165
▁retira	-12.165
xplicou	-12.165
▁Brand	-12.1651
udio	-12.1653
▁finalista	-12.1656
cipación	-12.166
▁saco	-12.1664
rough	-12.1666
meda	-12.1666
osef	-12.1671
ortuguesa	-12.1672
▁electromagn	-12.1674
▁fragmenta	-12.1674
▁renovar	-12.1674
▁cega	-12.1677
▁ximnasi	-12.1678
▁aglutina	-12.1679
▁Protocol	-12.1679
▁Tratá	-12.1679
▁anónima	-12.1679
▁aplicou	-12.1679
▁bíblico	-12.1679
▁cláusula	-12.1679
▁cúmulo	-12.1679
▁escuadrón	-12.1679
▁interrompe	-12.1679
▁matrimonia	-12.1679
▁meteorolóxico	-12.1679
▁prolongou	-12.1679
▁refrixera	-12.1679
▁sanitario	-12.1679
▁sátira	-12.1679
▁traída	-12.1679
▁vencellado	-12.1679
▁amurallad	-12.1679
▁executiva	-12.1679
▁compacto	-12.168
▁equivalencia	-12.168
▁árido	-12.168
▁códice	-12.168
▁Constituínte	-12.168
▁retina	-12.1681
▁navegable	-12.1681
▁premiado	-12.1682
▁ecoloxista	-12.1682
▁hó	-12.1683
▁dirixí	-12.1684
▁Turismo	-12.1684
▁troca	-12.1685
▁protagonizado	-12.1685
▁identificou	-12.1687
▁tomaba	-12.1695
xorda	-12.1696
egge	-12.1696
▁Garro	-12.1696
▁Braña	-12.1697
▁Barbar	-12.17
▁perif	-12.1701
▁Frent	-12.1702
▁FA	-12.1704
▁redacta	-12.1706
▁Emirato	-12.1706
▁Stra	-12.1708
▁connotación	-12.1709
▁fixado	-12.1713
▁Cart	-12.1714
▁bovino	-12.1715
▁pasará	-12.1715
▁queimada	-12.1715
uve	-12.1716
▁autode	-12.1717
▁comproba	-12.1718
att	-12.1719
▁afastar	-12.1722
▁Curro	-12.1722
▁experimentado	-12.1722
▁islandes	-12.1724
▁Dez	-12.1727
▁larga	-12.1731
▁Crític	-12.1733
nove	-12.1741
▁someteu	-12.1741
orn	-12.1745
▁mat	-12.1745
▁docente	-12.1746
mel	-12.1747
sala	-12.1754
▁Oro	-12.1755
anzan	-12.1758
ndice	-12.177
nic	-12.1772
▁gozan	-12.1775
▁protestant	-12.1777
ába	-12.178
▁finland	-12.1788
▁moven	-12.179
▁Reina	-12.1792
▁Cooper	-12.1796
▁baixada	-12.1797
ize	-12.1799
▁conxuga	-12.18
▁Cann	-12.1802
▁Esté	-12.1808
ema	-12.1809
▁acordar	-12.1811
▁rigor	-12.1811
▁innumer	-12.1811
▁ríxido	-12.1811
▁véspera	-12.1811
▁Xardín	-12.1811
▁óvulo	-12.1811
▁Solidari	-12.1811
▁esixía	-12.1811
▁pacifica	-12.1811
▁Muíño	-12.1811
▁recreativa	-12.1811
▁homólogo	-12.1811
▁axioma	-12.1811
▁arcaico	-12.1811
▁pontífice	-12.1811
▁xisto	-12.1811
▁Blood	-12.1811
▁spin	-12.1811
▁barata	-12.1812
▁absolutista	-12.1812
▁téñen	-12.1812
elsin	-12.1812
íngue	-12.1813
▁pulso	-12.1813
▁requiría	-12.1814
▁Covel	-12.1814
▁péns	-12.1816
▁concluír	-12.1816
homs	-12.1818
▁sepultado	-12.1822
▁repetiu	-12.1824
▁saquear	-12.1825
urdo	-12.1828
▁Fora	-12.1829
▁reitora	-12.183
▁bañad	-12.1831
▁Sabi	-12.1832
▁Tiro	-12.1832
▁clasic	-12.1833
▁ergue	-12.1836
▁eliminada	-12.1836
▁Nota	-12.1839
▁9,	-12.184
▁paterna	-12.1842
▁conformación	-12.1846
abre	-12.1847
▁Eth	-12.1849
▁Bala	-12.1851
▁perf	-12.1857
▁querer	-12.1866
▁gla	-12.187
▁Abd	-12.1871
▁Podería	-12.1872
clinación	-12.1873
▁feuda	-12.1881
▁partición	-12.1893
▁Sagrad	-12.1894
▁entrete	-12.1896
▁Led	-12.1897
travé	-12.1897
orta	-12.1898
▁compara	-12.1908
▁Maza	-12.1908
▁gam	-12.191
▁dedicá	-12.1911
TC	-12.1922
ap	-12.1924
▁asenta	-12.1924
stitución	-12.1924
▁Confedera	-12.1926
errer	-12.1927
cara	-12.1929
gue	-12.193
▁Erasm	-12.1931
acro	-12.1932
▁franca	-12.1932
▁tomo	-12.1932
▁Gai	-12.1936
ratt	-12.1937
▁Rudol	-12.1938
▁fundi	-12.1941
▁austral	-12.1943
aní	-12.1943
▁Celébra	-12.1944
▁abrigo	-12.1944
▁analóxico	-12.1944
▁cedida	-12.1944
▁herbicida	-12.1944
▁incorrecta	-12.1944
▁inherente	-12.1944
▁inédita	-12.1944
▁marroquí	-12.1944
▁metabólica	-12.1944
▁munición	-12.1944
▁podé	-12.1944
▁procariota	-12.1944
▁tridimensiona	-12.1944
▁próspera	-12.1944
▁alumna	-12.1944
▁biógrafo	-12.1944
▁Cicer	-12.1944
▁Rousse	-12.1945
head	-12.1945
▁creatividade	-12.1945
▁Misión	-12.1946
▁Ciudad	-12.1946
▁verdura	-12.1946
AG	-12.1947
▁preito	-12.1947
▁Total	-12.1948
▁transformado	-12.195
▁manifestar	-12.195
▁Rob	-12.195
▁prolongado	-12.1951
▁desprazado	-12.1952
▁bosquexo	-12.1953
▁confirmada	-12.1955
▁reconstruído	-12.1956
▁instala	-12.1957
▁agregado	-12.1957
AM	-12.1959
▁Beni	-12.1961
▁dispoñen	-12.1962
▁funcionalidade	-12.1963
▁adoptivo	-12.1967
▁Progres	-12.1971
▁Nation	-12.1972
▁etrusco	-12.1973
05	-12.1978
ematica	-12.1982
▁Line	-12.1982
▁elabora	-12.1982
▁centrar	-12.1985
pis	-12.1993
ng	-12.1997
▁bus	-12.2002
▁Xi	-12.2004
▁terminais	-12.2007
▁Albor	-12.2009
sperma	-12.2011
canzo	-12.2015
▁agr	-12.2022
▁Tin	-12.2022
▁vide	-12.2025
▁Ariz	-12.203
venida	-12.2031
▁artesan	-12.2034
▁espallar	-12.2034
▁Tea	-12.204
▁Nuev	-12.2041
▁Patrici	-12.2043
opin	-12.2044
▁reconcilia	-12.2047
odro	-12.2053
▁pot	-12.2054
▁fisca	-12.2055
oloca	-12.2056
▁gañara	-12.2058
▁parcia	-12.2058
▁tapa	-12.206
▁Tir	-12.2072
▁desembocan	-12.2072
▁orgullo	-12.2074
▁cotián	-12.2074
▁desigual	-12.2078
▁pedía	-12.2078
evapora	-12.2079
grima	-12.2079
▁Arqueolóxic	-12.2079
▁agropecuari	-12.2079
▁anécdota	-12.2079
▁coleccionista	-12.2079
▁comunitario	-12.2079
▁exiliar	-12.2079
▁insignia	-12.2079
▁mexillón	-12.2079
▁agradece	-12.2079
▁envelena	-12.2079
▁separá	-12.2079
▁correlación	-12.2079
▁Teixeir	-12.2079
▁vixésim	-12.2079
▁paréntese	-12.2079
▁rítmica	-12.2079
▁Pepper	-12.2079
▁fós	-12.208
▁Montana	-12.208
▁enterro	-12.208
▁árida	-12.208
▁Brother	-12.208
▁comece	-12.208
▁Milo	-12.2081
▁fortificado	-12.2081
▁Norma	-12.2082
▁sopra	-12.2082
anno	-12.2082
▁Mostra	-12.2083
▁radia	-12.2083
úpa	-12.2083
▁catalogada	-12.2083
apoli	-12.2083
▁montado	-12.2086
▁propuxer	-12.2086
▁reunido	-12.2087
▁dispersa	-12.2087
▁Tes	-12.2089
ohen	-12.2089
▁Rubi	-12.2091
▁valoración	-12.2091
▁distribuí	-12.2093
▁prover	-12.2093
▁Public	-12.2097
▁chanzo	-12.2098
▁espido	-12.2098
▁impresion	-12.2099
▁Cid	-12.2102
▁Coco	-12.2106
▁Indi	-12.2109
▁Stein	-12.211
▁xenita	-12.2111
▁implicada	-12.2111
340	-12.2111
▁incapac	-12.2112
encio	-12.2113
▁derivar	-12.2114
▁pesa	-12.2115
ople	-12.2116
▁xustificación	-12.2117
▁aceptan	-12.2123
tecni	-12.2126
nilo	-12.213
▁dirixi	-12.2132
▁indicada	-12.2133
▁mesturada	-12.2136
▁polinesi	-12.2141
▁andaluz	-12.2145
ulu	-12.2147
▁Resulta	-12.2149
xio	-12.215
▁luminosa	-12.2151
ff	-12.2155
▁est	-12.2155
▁Piet	-12.2157
▁refinado	-12.2158
▁montar	-12.2158
obe	-12.216
trato	-12.2162
▁Các	-12.2163
▁Nava	-12.2164
▁Fíxo	-12.2166
▁Lava	-12.217
tese	-12.2171
ético	-12.2174
▁intentaba	-12.2178
rox	-12.2178
▁Mega	-12.2178
▁replica	-12.2182
▁conxela	-12.2182
▁Stal	-12.2184
▁Cru	-12.2186
uru	-12.2193
lintel	-12.2196
▁colleu	-12.2196
▁capitula	-12.2197
stituído	-12.2199
ather	-12.2199
▁supoñe	-12.2201
▁sulf	-12.2202
▁Lao	-12.2204
▁Academ	-12.2207
arate	-12.2208
▁reaccionar	-12.2211
▁cubri	-12.2213
rbur	-12.2214
▁xubila	-12.2216
▁Anastasi	-12.2216
▁Mondariz	-12.2216
▁ascendía	-12.2216
▁disidente	-12.2216
▁micrófono	-12.2216
▁mítica	-12.2216
▁palestino	-12.2216
▁obedece	-12.2216
▁traído	-12.2216
vitou	-12.2216
▁deportista	-12.2216
▁prefería	-12.2216
▁Austro	-12.2217
▁permítelle	-12.2217
▁dilata	-12.2217
▁saben	-12.2217
▁sostido	-12.2217
▁desprez	-12.2218
▁Gior	-12.2218
▁Dionis	-12.2218
▁Fred	-12.2218
▁repetido	-12.2219
▁Labrad	-12.2219
▁Patria	-12.222
▁decidida	-12.2221
▁suborde	-12.2221
▁anexo	-12.2221
▁Becerr	-12.2222
▁persistente	-12.2222
▁escavado	-12.2222
stalou	-12.2222
▁aparecería	-12.2223
▁diversifica	-12.2223
▁condu	-12.2223
fluxo	-12.2224
▁favorita	-12.2225
▁criticada	-12.2225
▁NB	-12.2226
▁danado	-12.2228
▁Catalan	-12.2229
▁patrocinador	-12.223
▁condenada	-12.223
enia	-12.2231
carei	-12.2231
▁Cosm	-12.2232
▁aborto	-12.2232
▁modesto	-12.2233
▁peculiaridade	-12.2234
▁Boi	-12.2237
▁preocupado	-12.2238
▁Rexe	-12.2238
▁automobilística	-12.2239
rdena	-12.224
▁pró	-12.2242
▁construtiva	-12.2243
▁sai	-12.2244
▁tentaba	-12.2246
▁convertera	-12.2246
▁levalo	-12.2248
▁surafricano	-12.2248
▁Negreir	-12.2251
▁dique	-12.2253
viño	-12.2254
▁Falan	-12.2257
lera	-12.226
▁queimado	-12.2261
▁interv	-12.2261
nion	-12.2262
▁Ahm	-12.2263
▁vara	-12.2266
▁Arena	-12.2271
▁reclamaba	-12.2272
▁pausa	-12.2273
▁tirano	-12.2276
▁guano	-12.2278
▁nacera	-12.2279
▁Tripl	-12.2282
fan	-12.229
chor	-12.2291
olfo	-12.2292
▁senado	-12.2294
▁analista	-12.2298
▁facerlle	-12.2301
▁formaría	-12.2301
▁Penn	-12.2311
▁teme	-12.2313
▁procedeu	-12.2317
itani	-12.2319
▁Tell	-12.2319
lóbulo	-12.2319
▁poderí	-12.2322
▁atraves	-12.2323
portugu	-12.2324
▁explora	-12.2326
▁gradua	-12.2331
elles	-12.2331
▁flexi	-12.2333
óxen	-12.234
▁Viv	-12.2341
▁situá	-12.2342
▁Im	-12.2342
vin	-12.2343
▁Dirixi	-12.2345
ámara	-12.2346
▁Scream	-12.2355
▁intestina	-12.2355
▁animou	-12.2355
▁comprobou	-12.2355
▁Bolaño	-12.2355
▁Patriarca	-12.2355
▁ballet	-12.2355
▁vencellada	-12.2355
strad	-12.2355
▁asentá	-12.2355
▁cítrico	-12.2355
▁inspec	-12.2356
▁intermediario	-12.2356
▁ultima	-12.2356
▁rodou	-12.2356
▁funeraria	-12.2356
▁alerta	-12.2356
▁sanguenta	-12.2356
▁canon	-12.2357
▁botella	-12.2357
▁Oreg	-12.2357
▁discutida	-12.2357
ozon	-12.236
▁fuste	-12.2361
rfol	-12.2362
▁escama	-12.2362
▁Borde	-12.2363
álise	-12.2363
▁mediodía	-12.2363
atche	-12.2363
▁Magn	-12.2364
▁linda	-12.2365
▁influída	-12.2367
▁conduto	-12.2367
▁Farm	-12.2368
▁descubridor	-12.2369
▁transportada	-12.237
▁opina	-12.237
▁Seix	-12.237
ichell	-12.2372
leopa	-12.2374
▁abstrac	-12.2375
▁atacante	-12.2375
▁intima	-12.2378
▁abreviad	-12.2379
▁loitaba	-12.238
▁Consegui	-12.2381
izado	-12.2381
MP	-12.2384
▁namorado	-12.2387
inista	-12.2387
▁provedor	-12.2388
▁Ling	-12.2389
▁licenciado	-12.2389
▁indicaba	-12.2392
▁consultar	-12.2393
▁acadado	-12.2394
▁hop	-12.2394
▁traves	-12.2396
▁alan	-12.2396
▁Licenci	-12.2396
▁alcanzado	-12.2398
▁agardar	-12.24
▁emprender	-12.2401
▁estudan	-12.2403
▁caótic	-12.241
▁rubi	-12.2411
▁apareza	-12.2412
▁vendedor	-12.2413
▁pesan	-12.2417
▁deducir	-12.2418
▁xurdida	-12.2418
▁allea	-12.2424
▁gravan	-12.2426
▁ret	-12.2428
▁arrastra	-12.2429
▁entrado	-12.2435
clo	-12.2438
ppen	-12.244
▁Shi	-12.2441
▁Dam	-12.2443
▁peri	-12.2443
▁resu	-12.2445
▁Gun	-12.2447
▁espiritua	-12.2448
AR	-12.2452
▁burgu	-12.2454
rux	-12.2458
clamación	-12.2459
xente	-12.2464
▁superficia	-12.2465
▁barca	-12.2467
ído	-12.2468
conquista	-12.2469
▁avalia	-12.247
▁340	-12.2472
tipo	-12.2474
SC	-12.2475
▁reúnen	-12.2477
ev	-12.2485
▁luminos	-12.2486
▁Foc	-12.2495
▁recólle	-12.2496
▁Tecnoloxía	-12.2496
▁clérigo	-12.2496
▁computación	-12.2496
▁descifra	-12.2496
▁estilística	-12.2496
▁hemorraxia	-12.2496
▁impopular	-12.2496
▁palmeira	-12.2496
▁permitiría	-12.2496
▁prexudicia	-12.2496
▁silicato	-12.2496
▁sintáctica	-12.2496
▁soviet	-12.2496
▁volátil	-12.2496
▁amencer	-12.2496
▁comunitaria	-12.2496
▁cervo	-12.2496
▁camisa	-12.2496
▁alongado	-12.2496
▁perturbación	-12.2496
▁ordinario	-12.2496
▁Tigr	-12.2497
▁Atlántica	-12.2497
▁ordinaria	-12.2497
▁Bispo	-12.2497
▁facemos	-12.25
▁Rotte	-12.2501
▁Barall	-12.2502
▁lendaria	-12.2503
▁Chain	-12.2504
▁executada	-12.2504
guin	-12.2504
roc	-12.2505
▁imaxinaria	-12.2506
▁bac	-12.2507
uintan	-12.2508
▁simulación	-12.2509
▁ouriv	-12.2509
▁devastador	-12.2511
▁Morto	-12.2511
▁colonizada	-12.2515
▁Melvin	-12.2517
▁espeso	-12.2518
▁Cría	-12.2522
▁estacionaria	-12.2522
▁recordar	-12.2522
▁sair	-12.2523
▁und	-12.2525
▁gallego	-12.2526
▁autoritario	-12.2526
xéne	-12.2527
▁patentes	-12.2527
▁Christ	-12.2531
▁Coi	-12.2534
▁malla	-12.2534
▁encher	-12.2535
▁eterna	-12.2536
bril	-12.2536
▁Bande	-12.2538
gamo	-12.2539
▁Sabin	-12.2539
thon	-12.2539
▁Gib	-12.2542
▁porte	-12.2545
▁Larr	-12.2545
▁supervis	-12.2552
▁ioniza	-12.2553
zaña	-12.2554
blast	-12.2555
rco	-12.2562
▁estrés	-12.2563
▁trobadores	-12.2564
▁xogado	-12.2572
▁deposita	-12.2572
▁integran	-12.2572
▁ignora	-12.258
rixe	-12.2583
▁Arca	-12.2589
▁Cabre	-12.2593
▁cultiva	-12.2598
mont	-12.26
▁salin	-12.26
▁Britan	-12.2602
▁Sti	-12.2604
tiga	-12.2606
▁azteca	-12.2607
▁Barbad	-12.261
▁rega	-12.261
▁intentan	-12.2612
estrutura	-12.262
oado	-12.262
▁presentador	-12.2621
ebbe	-12.2622
▁iría	-12.2627
notación	-12.2631
▁Amig	-12.2632
▁compacta	-12.2639
▁convicción	-12.2639
▁emparentado	-12.2639
▁espécime	-12.2639
▁gaiteiro	-12.2639
▁hereditario	-12.2639
▁imprescindible	-12.2639
▁prancha	-12.2639
▁problemática	-12.2639
▁quilogramo	-12.2639
▁sartego	-12.2639
[...]
