<unk>	0
<s>	0
</s>	0
<pad>	0
▁,	-3.16873
s	-3.22927
▁de	-3.24847
▁.	-3.5603
▁a	-3.77278
▁e	-3.87578
▁o	-4.126
;	-4.2008
▁&	-4.2036
quot	-4.25129
▁que	-4.29515
▁do	-4.51317
▁en	-4.55807
▁da	-4.59457
▁un	-5.09667
▁A	-5.142
▁(	-5.14635
▁)	-5.14655
▁no	-5.23352
▁é	-5.26668
▁na	-5.28856
▁unha	-5.35682
▁O	-5.37041
n	-5.43461
se	-5.46247
▁os	-5.47915
▁para	-5.56868
▁por	-5.57235
▁como	-5.57787
▁se	-5.62418
r	-5.64677
▁con	-5.68623
o	-5.74386
▁foi	-5.77888
a	-5.77924
▁dos	-5.7846
▁ao	-5.79895
▁súa	-5.8376
▁	-5.86518
▁seu	-5.98864
▁as	-5.99828
▁máis	-6.00671
▁ou	-6.02868
▁á	-6.0579
-	-6.08768
u	-6.14018
▁:	-6.21582
▁non	-6.2161
mente	-6.23121
do	-6.29511
da	-6.33008
▁das	-6.34207
▁En	-6.39614
ndo	-6.40805
▁co	-6.47101
▁son	-6.49937
▁polo	-6.51511
l	-6.51655
e	-6.5436
▁entre	-6.55267
es	-6.59554
▁ano	-6.62931
▁tamén	-6.67661
.	-6.70731
i	-6.74781
▁Os	-6.79313
t	-6.80929
▁pola	-6.85947
ron	-6.88262
▁ser	-6.90234
▁coa	-6.91908
is	-6.92286
▁parte	-6.92291
▁anos	-6.94083
▁sobre	-6.95504
ba	-6.96709
ción	-7.02564
m	-7.02703
la	-7.03034
ra	-7.03192
▁seus	-7.05823
▁dun	-7.08231
▁pero	-7.09126
na	-7.09747
▁está	-7.10129
▁E	-7.10169
▁;	-7.10657
▁As	-7.10723
▁nos	-7.11
▁No	-7.11722
on	-7.1387
▁onde	-7.16663
▁lugar	-7.18495
▁Na	-7.18972
to	-7.19118
▁era	-7.20694
ta	-7.2101
▁ten	-7.22171
▁cidade	-7.23121
▁2	-7.24139
y	-7.25043
▁re	-7.2551
no	-7.26033
▁durante	-7.26363
▁I	-7.2686
▁nas	-7.27339
▁pode	-7.27505
▁cando	-7.29625
▁ata	-7.31242
▁dunha	-7.31267
▁concello	-7.31482
▁primeiro	-7.31947
▁nome	-7.32161
▁xa	-7.32277
lo	-7.3234
dos	-7.32893
▁habitantes	-7.33086
▁1	-7.341
▁dous	-7.3467
▁forma	-7.35067
▁in	-7.37083
ca	-7.37486
▁mesmo	-7.37909
te	-7.39677
▁aínda	-7.39784
▁primeira	-7.40144
▁esta	-7.40663
de	-7.41555
d	-7.41595
▁século	-7.42634
▁S	-7.4278
▁segundo	-7.43462
ma	-7.4446
▁foron	-7.44742
▁aos	-7.45141
me	-7.45738
▁moi	-7.46004
▁ó	-7.46029
▁nun	-7.46882
▁todo	-7.4691
▁súas	-7.47671
▁despois	-7.48145
▁C	-7.48277
▁só	-7.48346
c	-7.49442
▁De	-7.49964
apos	-7.51388
co	-7.51632
▁La	-7.52644
▁San	-7.53552
▁este	-7.53696
das	-7.56909
▁3	-7.57334
en	-7.57907
ce	-7.58801
▁tres	-7.59521
▁contra	-7.59577
▁desde	-7.59697
▁Foi	-7.60155
▁É	-7.61296
▁dúas	-7.64054
▁ás	-7.6473
▁tiña	-7.64744
▁parroquia	-7.65973
▁outros	-7.67112
▁poboación	-7.67371
▁nunha	-7.68474
z	-7.68638
▁grupo	-7.69734
le	-7.70284
p	-7.70443
ro	-7.7082
os	-7.7121
an	-7.71512
▁maior	-7.71816
lle	-7.72278
▁vez	-7.72433
▁sen	-7.72567
▁gran	-7.72732
▁Con	-7.73125
ia	-7.73286
mos	-7.7431
▁tempo	-7.74826
ga	-7.75362
▁equipo	-7.75745
nte	-7.76069
▁cal	-7.76822
▁17	-7.77063
▁así	-7.78323
mo	-7.79165
▁eran	-7.79434
ría	-7.79863
ar	-7.80028
▁mulleres	-7.80211
▁4	-7.80477
f	-7.80643
▁homes	-7.80687
▁poden	-7.82393
▁moito	-7.82737
▁15	-7.83299
ban	-7.83509
▁/	-7.83826
▁%	-7.84107
▁5	-7.84541
ne	-7.84757
▁Un	-7.85936
▁B	-7.86189
▁nado	-7.86519
k	-7.87611
C	-7.87818
▁ca	-7.87908
▁polos	-7.8825
va	-7.89457
▁10	-7.90379
▁la	-7.90745
al	-7.91426
▁illa	-7.91527
▁Se	-7.91616
▁baixo	-7.92131
▁cara	-7.92153
go	-7.92913
▁novo	-7.9312
▁cada	-7.93168
di	-7.93306
▁están	-7.93805
er	-7.93828
mento	-7.93972
▁16	-7.945
▁mais	-7.9452
▁vida	-7.94532
g	-7.94647
▁di	-7.94837
▁comarca	-7.95075
x	-7.9517
▁cunha	-7.9573
vi	-7.97094
▁hai	-7.97838
▁galego	-7.97965
▁zona	-7.98028
▁cun	-7.9827
▁km	-7.98473
▁rei	-7.98535
xe	-7.9885
▁Esta	-7.99018
as	-7.99046
▁tempada	-7.99337
ou	-7.99391
▁mundo	-7.9953
in	-7.99641
▁cos	-7.99962
▁T	-8.00598
ía	-8.0205
▁número	-8.02062
▁tanto	-8.02074
▁P	-8.02324
▁The	-8.02598
▁6	-8.02756
▁dende	-8.03289
▁12	-8.03291
▁banda	-8.03751
▁Galicia	-8.03996
▁España	-8.04267
▁até	-8.0427
idade	-8.04333
ve	-8.04538
▁teñen	-8.04798
▁-	-8.04924
▁Segundo	-8.05078
▁sur	-8.05291
▁Re	-8.05357
▁14	-8.05533
ti	-8.05825
▁ter	-8.0592
▁coma	-8.06022
á	-8.06273
▁Tamén	-8.07188
▁provincia	-8.07217
▁Ca	-8.0724
▁familia	-8.07782
▁Este	-8.08214
▁F	-8.0833
▁antes	-8.08679
▁sistema	-8.0868
▁pouco	-8.09187
▁outras	-8.09499
▁sendo	-8.09596
í	-8.10015
▁norte	-8.10073
re	-8.10482
▁Por	-8.11615
li	-8.11755
▁7	-8.12199
▁Co	-8.12389
▁carreira	-8.124
us	-8.12969
▁lle	-8.13123
▁El	-8.13809
▁guerra	-8.14485
▁m	-8.15312
▁xunto	-8.15469
▁historia	-8.15942
be	-8.16205
▁catro	-8.16356
▁país	-8.16445
▁exemplo	-8.17182
ria	-8.17225
bo	-8.17464
ter	-8.17508
ri	-8.17744
b	-8.17966
za	-8.1813
▁8	-8.18452
▁tivo	-8.18765
h	-8.1881
▁estaba	-8.18841
▁obra	-8.18906
▁varios	-8.19053
▁mentres	-8.19137
▁especies	-8.19576
▁todos	-8.19595
▁11	-8.19897
▁pre	-8.19923
pa	-8.20174
▁día	-8.20513
▁M	-8.20534
▁tipo	-8.21022
▁Estados	-8.21475
ni	-8.21651
▁13	-8.21671
▁si	-8.22621
▁medio	-8.22917
dor	-8.23168
▁partir	-8.23534
▁logo	-8.23658
S	-8.23716
▁ben	-8.23727
▁final	-8.24086
▁rexión	-8.24209
▁goberno	-8.24362
▁grande	-8.24552
▁Sa	-8.25202
ado	-8.25598
▁coñecido	-8.25797
▁estado	-8.25829
▁morte	-8.26103
▁grandes	-8.26112
▁menos	-8.26337
▁río	-8.27556
res	-8.27754
ci	-8.27971
▁mar	-8.27977
que	-8.28057
▁importante	-8.28311
▁Gran	-8.28348
▁época	-8.28814
▁pro	-8.28923
▁Unidos	-8.28987
rse	-8.29151
▁D	-8.29331
▁Universidade	-8.29595
▁xullo	-8.29763
nse	-8.30532
▁centro	-8.30544
man	-8.30704
▁cales	-8.30993
▁serie	-8.31237
▁L	-8.31266
▁Durante	-8.31373
▁9	-8.31491
▁Le	-8.32528
▁longo	-8.32742
▁Ma	-8.32776
▁principal	-8.32806
▁deste	-8.32855
▁maioría	-8.33025
▁G	-8.33185
▁lingua	-8.33413
▁18	-8.33469
▁p	-8.3362
▁auga	-8.33624
▁20	-8.3423
▁veces	-8.34236
A	-8.34441
▁maio	-8.34548
▁cor	-8.347
▁Europa	-8.34948
▁Para	-8.35056
▁capital	-8.35066
▁segunda	-8.35902
▁II	-8.35963
nos	-8.36044
or	-8.36085
▁per	-8.36454
▁outra	-8.37253
▁diferentes	-8.37493
ch	-8.37794
▁chamado	-8.37839
▁um	-8.3788
▁U	-8.38343
▁V	-8.38909
ck	-8.39023
▁Unha	-8.39265
▁xuño	-8.39475
▁travé	-8.39492
▁»	-8.39861
«	-8.39981
▁datos	-8.40112
B	-8.40258
▁debido	-8.40421
▁células	-8.41164
rio	-8.41503
▁poder	-8.41977
▁Al	-8.42444
▁Francia	-8.42517
io	-8.42564
▁comezou	-8.42593
▁varias	-8.42926
▁tras	-8.4299
▁mesma	-8.43011
▁N	-8.43081
▁setembro	-8.43561
▁desta	-8.43617
ntes	-8.43623
▁xeito	-8.43794
▁marzo	-8.44072
▁K	-8.44149
▁outro	-8.44325
▁relación	-8.4443
1	-8.44729
▁base	-8.44904
▁nova	-8.45101
▁seguinte	-8.45121
▁algúns	-8.45169
▁filme	-8.45214
▁xaneiro	-8.45399
▁In	-8.45798
▁decembro	-8.45917
D	-8.45932
pe	-8.45955
▁abril	-8.46039
fa	-8.46366
ismo	-8.46697
▁i	-8.46748
▁persoas	-8.46965
▁moita	-8.47064
▁período	-8.47067
ada	-8.47317
▁em	-8.47414
▁2007	-8.47436
▁mellor	-8.47469
▁outubro	-8.47529
▁Madrid	-8.47613
▁el	-8.47735
▁Santiago	-8.47773
▁fillo	-8.47831
▁facer	-8.47843
▁agosto	-8.4785
▁dentro	-8.47911
L	-8.48216
▁caso	-8.48298
mi	-8.4833
▁com	-8.48571
▁fai	-8.48822
▁partido	-8.48973
▁uma	-8.49026
▁uso	-8.49136
▁Nova	-8.49266
▁resto	-8.49296
▁especie	-8.4982
▁Premio	-8.5004
qui	-8.50044
▁orixe	-8.50099
▁2011	-8.50253
▁Ra	-8.50559
v	-8.50622
▁Vi	-8.50745
▁Santa	-8.50924
po	-8.51077
▁conta	-8.51085
▁fixo	-8.51232
▁ex	-8.51295
cu	-8.5136
M	-8.51579
ka	-8.5161
▁ver	-8.51635
▁entón	-8.52114
▁Mar	-8.52169
▁of	-8.52235
▁Como	-8.52247
▁2010	-8.52288
▁álbum	-8.52314
▁xeral	-8.52481
▁&#93;	-8.52681
▁momento	-8.52851
▁actual	-8.52895
▁traballo	-8.53219
▁tarde	-8.53225
w	-8.53306
▁H	-8.53392
▁toda	-8.53494
▁&#91;	-8.53654
▁novembro	-8.53671
th	-8.54006
▁Ao	-8.54038
▁ademais	-8.54051
vo	-8.54209
ña	-8.54437
▁Me	-8.54528
▁Ro	-8.54835
▁R	-8.54937
▁finado	-8.55094
▁pai	-8.55107
▁Mo	-8.55448
▁case	-8.55486
▁bo	-8.55506
ing	-8.55745
▁Entre	-8.55801
▁María	-8.55835
▁casa	-8.56107
▁Ademais	-8.56157
el	-8.56176
▁febreiro	-8.56806
▁Coruña	-8.56938
bi	-8.56946
▁feito	-8.56986
▁Li	-8.57021
▁media	-8.57049
▁quen	-8.57478
▁política	-8.57527
▁2009	-8.57807
xa	-8.57879
▁Lo	-8.58286
▁Po	-8.58447
▁millóns	-8.58658
▁cinco	-8.58851
▁fin	-8.58875
▁30	-8.59003
ver	-8.59069
▁superficie	-8.59466
▁punto	-8.59953
▁algunha	-8.6011
▁Nacional	-8.60193
zo	-8.60293
▁Do	-8.60394
R	-8.60829
▁Da	-8.60848
G	-8.61001
F	-8.6134
▁música	-8.61349
fe	-8.61696
2	-8.6175
dores	-8.62335
▁porque	-8.62579
▁polas	-8.6258
▁termo	-8.62608
▁obras	-8.62764
cha	-8.62853
▁Pa	-8.63037
▁Terra	-8.63286
▁su	-8.634
▁título	-8.63513
▁isto	-8.63697
é	-8.63826
ó	-8.63976
▁Porén	-8.64021
rá	-8.64088
▁principais	-8.64199
▁ma	-8.64363
▁corpo	-8.64571
du	-8.64592
ry	-8.64699
▁sub	-8.64726
▁desenvolvemento	-8.64951
ista	-8.65014
ran	-8.65147
st	-8.65506
▁primeiros	-8.65809
▁finais	-8.65943
án	-8.66855
lla	-8.66869
▁estadounidense	-8.66963
ja	-8.6705
▁le	-8.67386
E	-8.67411
▁proceso	-8.67465
▁Non	-8.67884
▁total	-8.68137
tu	-8.68153
▁países	-8.68218
▁coas	-8.68271
▁2008	-8.68478
xo	-8.68527
los	-8.68546
▁club	-8.68847
▁éxito	-8.6895
▁Mi	-8.68975
▁década	-8.69065
tos	-8.69079
▁Pe	-8.69159
▁Aínda	-8.69186
lu	-8.69463
▁xénero	-8.69493
▁produción	-8.69672
use	-8.69908
▁todas	-8.69922
▁Di	-8.70017
▁político	-8.70227
▁oficial	-8.70238
▁Ne	-8.70303
▁25	-8.70465
P	-8.70598
▁To	-8.70642
ir	-8.70687
fi	-8.70868
ina	-8.70933
nda	-8.70978
▁grupos	-8.71326
▁orde	-8.71542
sen	-8.71568
ón	-8.71806
T	-8.71823
▁Guerra	-8.71842
▁situado	-8.71927
▁José	-8.71989
▁días	-8.7201
▁presidente	-8.72117
ú	-8.7218
▁Pi	-8.72475
ton	-8.72567
▁Cando	-8.72629
▁2006	-8.72638
▁coñecida	-8.72668
tas	-8.72674
▁li	-8.73025
ita	-8.73246
▁principalmente	-8.73396
▁especialmente	-8.73413
▁preto	-8.73417
▁tan	-8.73504
▁Reino	-8.73724
▁Despois	-8.73741
xi	-8.7408
cia	-8.74162
▁man	-8.74245
bra	-8.74665
▁Está	-8.74689
ge	-8.74743
▁puntos	-8.74906
H	-8.75097
▁metros	-8.75389
▁estes	-8.75393
▁Ka	-8.75405
▁não	-8.75459
▁s	-8.75582
▁territorio	-8.75736
ur	-8.75802
ke	-8.75939
▁Ten	-8.75967
▁chegou	-8.76059
car	-8.76376
▁c	-8.76511
ten	-8.76579
▁área	-8.7688
▁Ga	-8.76909
ção	-8.76989
▁membros	-8.77134
▁so	-8.77207
▁pasou	-8.77409
▁d	-8.77597
▁volta	-8.78024
▁–	-8.78203
▁último	-8.78321
▁me	-8.78354
it	-8.78421
▁fronte	-8.78675
áronse	-8.78745
▁Isto	-8.78904
▁al	-8.79359
O	-8.79385
▁Be	-8.79482
▁hoxe	-8.79773
▁nivel	-8.79787
▁mo	-8.7983
▁última	-8.79859
▁Ha	-8.79904
▁Instituto	-8.79911
▁República	-8.79922
▁home	-8.80035
▁papel	-8.80145
ándose	-8.80182
il	-8.80217
▁2000	-8.80325
▁común	-8.80445
▁español	-8.80536
▁leste	-8.80609
ble	-8.80619
▁eles	-8.80713
▁sempre	-8.80757
▁chamada	-8.80783
▁Tras	-8.80957
▁inglés	-8.81073
ha	-8.81304
▁posición	-8.81924
▁propio	-8.82156
▁importantes	-8.82172
tra	-8.82255
▁Te	-8.82874
▁Real	-8.82977
▁vi	-8.83185
N	-8.83199
▁Car	-8.83448
▁Man	-8.83461
der	-8.83511
▁oeste	-8.83687
▁estrutura	-8.83743
nd	-8.84153
▁the	-8.84738
▁francés	-8.84764
▁2012	-8.84903
pi	-8.84919
▁2005	-8.85072
▁único	-8.85095
▁liña	-8.85115
▁Ta	-8.85303
▁construción	-8.85376
3	-8.85512
▁ante	-8.85528
ación	-8.85664
▁?	-8.85705
▁sa	-8.85815
▁Así	-8.86055
▁Estado	-8.86278
tou	-8.86429
▁Ba	-8.86544
tivo	-8.86596
et	-8.86619
▁ADN	-8.86757
▁director	-8.86837
ko	-8.86974
▁posto	-8.87168
▁estudos	-8.87185
▁antigo	-8.87379
▁24	-8.87441
▁seguintes	-8.87716
▁2004	-8.87762
▁fora	-8.8786
las	-8.87894
▁Carlos	-8.88187
▁membro	-8.88246
I	-8.8836
▁l	-8.88398
▁—	-8.88458
▁formación	-8.88476
▁situada	-8.88544
▁libro	-8.88586
▁ra	-8.88663
▁conxunto	-8.8873
em	-8.88818
▁Cor	-8.88859
tar	-8.88867
▁alemán	-8.89142
▁Manuel	-8.89459
▁IGE	-8.8947
ren	-8.89646
▁del	-8.89741
▁coruñés	-8.8984
chi	-8.89969
▁y	-8.90368
▁calquer	-8.90416
▁proteínas	-8.9043
▁alta	-8.90443
▁central	-8.90466
gar	-8.90509
▁pe	-8.90511
▁Bu	-8.91026
▁acordo	-8.91096
▁senón	-8.91182
▁Go	-8.91214
▁19	-8.91277
▁Bar	-8.91368
▁reino	-8.91374
▁nada	-8.91684
▁Italia	-8.91714
▁pesar	-8.91764
▁exército	-8.91808
▁campo	-8.91829
▁Vigo	-8.91915
▁movemento	-8.92047
▁Bo	-8.92051
▁igrexa	-8.92064
▁Roma	-8.92064
▁Pedro	-8.92623
▁car	-8.9264
▁teoría	-8.92652
▁22	-8.92665
▁orixinal	-8.92733
▁tra	-8.92955
nta	-8.93071
▁animais	-8.93143
▁Mundial	-8.93238
▁Alemaña	-8.9331
▁capacidade	-8.9331
▁cargo	-8.93624
▁actividade	-8.94045
▁21	-8.9408
▁2013	-8.94184
▁comezo	-8.94191
tor	-8.942
▁estilo	-8.94261
▁Tiña	-8.94348
▁seis	-8.94383
▁ós	-8.94394
▁W	-8.94406
▁Partido	-8.94485
▁X	-8.94547
▁Barcelona	-8.94652
▁Ar	-8.94825
ber	-8.94942
▁1999	-8.94948
▁eleccións	-8.95333
▁supón	-8.95575
▁galega	-8.95689
ng	-8.95718
▁Imperio	-8.95975
▁elixido	-8.95975
▁mediante	-8.96186
ya	-8.96234
▁trans	-8.96296
tiva	-8.96299
▁resultado	-8.96478
▁causa	-8.96546
▁militar	-8.96791
▁disco	-8.96839
um	-8.96847
▁estas	-8.96947
▁propia	-8.9725
che	-8.97299
▁Si	-8.9732
les	-8.9738
▁par	-8.9743
▁Son	-8.97441
▁edición	-8.9782
▁iso	-8.97829
▁So	-8.97936
▁Lu	-8.97983
▁tal	-8.97998
mar	-8.98089
▁terra	-8.981
▁te	-8.98188
rro	-8.98376
ización	-8.98386
▁anterior	-8.98438
▁sería	-8.98573
ll	-8.98685
ouse	-8.98712
▁programa	-8.9873
▁popular	-8.98907
▁tamaño	-8.98916
▁Su	-8.98968
▁gañou	-8.99056
▁dicir	-8.99235
▁lista	-8.99242
▁23	-8.99427
per	-8.99477
▁control	-8.99578
▁cambio	-8.99875
▁aparece	-8.99966
▁internacional	-8.99979
V	-9.00056
ncia	-9.00085
ki	-9.00099
▁x	-9.00136
▁nomeado	-9.00205
▁ácido	-9.00209
ed	-9.00455
▁Unión	-9.009
▁mor	-9.01093
▁idade	-9.01425
▁significa	-9.01522
▁illas	-9.01838
▁2003	-9.01883
▁natural	-9.02002
j	-9.02096
▁Compostela	-9.02143
▁española	-9.02144
▁única	-9.02169
▁Ho	-9.02212
▁nin	-9.02265
▁vila	-9.02312
▁estar	-9.02317
K	-9.02429
5	-9.02433
▁referirse	-9.02719
▁terceiro	-9.03043
tal	-9.03104
▁costa	-9.03171
▁Du	-9.03182
▁axuda	-9.03188
sta	-9.03341
▁po	-9.03343
gra	-9.03403
▁muller	-9.03494
▁función	-9.03577
▁meses	-9.03897
▁fe	-9.04065
▁Hai	-9.04105
▁partidos	-9.04148
▁neste	-9.04218
ut	-9.04259
tes	-9.04329
▁converteuse	-9.04426
nas	-9.04743
▁estudo	-9.04772
▁III	-9.04999
cos	-9.05431
▁interior	-9.05531
▁social	-9.05628
▁Pro	-9.05838
gue	-9.05987
▁posteriormente	-9.05999
▁Ri	-9.06016
▁_	-9.06117
▁xeralmente	-9.0614
ira	-9.06142
▁local	-9.06157
▁respecto	-9.06281
▁Ti	-9.06335
bre	-9.0634
▁Segunda	-9.06431
▁bi	-9.06518
▁versión	-9.06522
ul	-9.06612
ño	-9.06707
▁finalmente	-9.06731
▁altura	-9.06875
▁nacional	-9.06933
▁Igrexa	-9.06966
via	-9.07039
cho	-9.07094
ster	-9.07225
▁liga	-9.07261
▁Fórmula	-9.0756
▁arte	-9.0765
▁inter	-9.07709
▁Juan	-9.07883
▁chegar	-9.0791
▁Fa	-9.07949
▁canto	-9.08035
▁2014	-9.08094
▁situación	-9.083
▁50	-9.08327
▁América	-9.08331
▁estivo	-9.08483
ho	-9.08538
▁vai	-9.08585
▁posible	-9.08893
▁formula	-9.08913
ito	-9.08944
land	-9.08991
▁Inglaterra	-9.09067
ados	-9.0912
pre	-9.09324
lt	-9.0937
▁...	-9.094
▁alto	-9.09472
4	-9.0949
▁Nos	-9.09521
▁pequeno	-9.09579
▁pois	-9.09632
▁fútbol	-9.09645
▁27	-9.09689
▁fi	-9.09696
▁pequena	-9.0983
▁diversos	-9.09954
▁Per	-9.09982
▁proxecto	-9.10048
tura	-9.10106
▁forza	-9.10133
▁York	-9.10185
tina	-9.10306
▁26	-9.10342
▁antiga	-9.10356
▁presenza	-9.10426
▁Cu	-9.10491
▁batalla	-9.10625
▁Lugo	-9.10681
den	-9.10685
▁Pero	-9.1073
▁paso	-9.10839
▁real	-9.10977
cer	-9.11172
▁equipos	-9.11252
▁Cha	-9.11355
▁París	-9.11578
▁John	-9.11635
▁XX	-9.11802
▁Francisco	-9.11884
▁etc	-9.11944
▁2015	-9.12071
▁problemas	-9.12071
▁irmán	-9.12139
ão	-9.12462
iro	-9.12496
▁elementos	-9.12502
▁28	-9.12615
▁incluíndo	-9.1268
ion	-9.127
▁to	-9.13105
llo	-9.13106
▁agora	-9.13107
▁cultura	-9.13208
▁Desde	-9.13227
▁pobo	-9.13628
▁estaban	-9.13638
▁enerxía	-9.13685
▁superior	-9.13687
▁recibiu	-9.13715
▁pi	-9.13764
tion	-9.13774
▁luz	-9.13777
ven	-9.13955
fo	-9.13968
gu	-9.14193
▁Antonio	-9.14277
▁Can	-9.14336
▁investigación	-9.1436
▁valor	-9.14432
cio	-9.14655
▁anti	-9.14672
ros	-9.14704
▁J	-9.15129
▁cabo	-9.15196
▁sexa	-9.15247
bu	-9.15257
▁XIX	-9.15305
▁obxectivo	-9.15666
dia	-9.15769
▁Club	-9.15918
nia	-9.16016
▁considerado	-9.16079
▁Sur	-9.16109
▁menor	-9.16117
▁INE	-9.16152
00	-9.16246
wa	-9.16256
▁influencia	-9.16387
▁grego	-9.16406
▁Portugal	-9.16416
▁espazo	-9.16886
▁televisión	-9.17054
▁f	-9.17187
▁atópase	-9.17216
▁Norte	-9.17241
▁lado	-9.17303
nde	-9.17467
▁planta	-9.17581
ica	-9.17585
▁°	-9.1771
am	-9.17758
▁data	-9.17922
▁Xoán	-9.18056
▁plantas	-9.18169
ine	-9.18222
▁comeza	-9.18284
▁algo	-9.18334
▁casos	-9.18594
hi	-9.18715
▁nai	-9.18758
▁deles	-9.18845
U	-9.1905
▁empresa	-9.19253
▁ba	-9.19275
▁marca	-9.19347
▁novas	-9.19409
▁cidades	-9.19493
ino	-9.19709
▁referencia	-9.19806
▁modo	-9.19811
▁lugares	-9.19897
▁autor	-9.19908
▁factor	-9.19921
▁publicou	-9.20054
▁debe	-9.20069
▁ce	-9.20149
▁He	-9.20165
▁dirección	-9.20177
▁2016	-9.20247
▁humanos	-9.20321
▁cantidade	-9.2037
men	-9.20394
▁Rei	-9.2043
▁diversas	-9.20564
▁público	-9.20606
rra	-9.2061
ente	-9.20766
▁canción	-9.20796
▁cabeza	-9.20831
▁Logo	-9.20862
▁modelo	-9.20945
▁sol	-9.21046
▁sede	-9.21125
at	-9.21174
lin	-9.21221
stra	-9.21239
▁selección	-9.21442
mer	-9.21485
▁interese	-9.21606
▁Mas	-9.21616
▁filla	-9.2174
▁29	-9.21985
▁película	-9.22002
▁baixa	-9.22009
▁2002	-9.22065
con	-9.22068
▁volveu	-9.2219
▁aproximadamente	-9.22306
nt	-9.22327
tica	-9.22341
▁particular	-9.2253
▁campionato	-9.22546
▁lonxitude	-9.2269
▁León	-9.227
▁Her	-9.22755
ie	-9.23132
▁nunca	-9.23195
▁rock	-9.23198
▁mal	-9.23244
▁ro	-9.23284
▁vitoria	-9.2332
ida	-9.23323
▁División	-9.23421
▁2001	-9.23433
▁Estes	-9.23499
▁creación	-9.23569
▁figura	-9.23587
▁metade	-9.2384
des	-9.24005
▁”	-9.24086
osa	-9.24222
sh	-9.24267
ru	-9.24326
▁dá	-9.24353
▁loita	-9.24514
▁Historia	-9.24561
ces	-9.2474
▁tradicional	-9.24901
▁ela	-9.24921
▁actualmente	-9.25031
▁Castro	-9.25159
▁Val	-9.25224
▁nesta	-9.25233
▁and	-9.25388
▁Unido	-9.25398
▁formar	-9.25408
▁categoría	-9.2546
▁Ni	-9.2555
▁Fi	-9.25826
▁enfermidade	-9.25832
▁conseguiu	-9.26021
▁Copa	-9.26054
ad	-9.26189
▁especial	-9.26307
ido	-9.26394
▁sete	-9.26436
▁Bi	-9.26547
▁medida	-9.26612
▁“	-9.26768
▁apoio	-9.26809
▁100	-9.26875
▁ha	-9.27076
▁ve	-9.27165
▁actualidade	-9.27222
▁distrito	-9.27239
▁emperador	-9.27374
▁novos	-9.27457
▁principios	-9.277
▁levou	-9.27727
▁mundial	-9.27763
▁municipal	-9.27814
▁destes	-9.28142
▁Ko	-9.28168
rre	-9.28173
he	-9.28239
▁proteína	-9.28253
▁mil	-9.28448
istas	-9.28601
▁Vila	-9.28702
ín	-9.28732
▁núcleo	-9.28939
ais	-9.28942
▁redor	-9.28962
▁características	-9.29013
▁escola	-9.29136
▁lo	-9.29185
▁organización	-9.29212
▁Liga	-9.2926
▁primeiras	-9.29267
▁crecemento	-9.29333
▁0	-9.29342
▁cre	-9.29465
eiro	-9.29486
▁forte	-9.29576
▁1990	-9.29617
▁libre	-9.29618
tro	-9.29647
▁publicado	-9.29664
▁xogador	-9.29691
▁formado	-9.29731
▁carreiras	-9.29735
▁Á	-9.2984
val	-9.2991
▁Nas	-9.30125
▁Fernando	-9.30165
▁leva	-9.30358
▁ningún	-9.30407
▁mes	-9.30704
▁Fe	-9.30801
▁Pontevedra	-9.30826
▁tipos	-9.30949
-19	-9.31025
▁escritor	-9.31042
un	-9.31106
▁Ru	-9.31115
▁información	-9.31138
▁40	-9.31366
▁vía	-9.3149
▁for	-9.31501
▁Castela	-9.31509
▁topónimo	-9.31528
▁esa	-9.31561
▁Xa	-9.31758
▁condicións	-9.31775
.000	-9.3186
jo	-9.31909
▁novela	-9.31913
▁maneira	-9.32035
▁xogo	-9.32196
▁velocidade	-9.32305
▁fillos	-9.32364
▁importancia	-9.32432
cas	-9.32523
▁últimos	-9.32813
▁temas	-9.32872
▁persoa	-9.32932
bel	-9.3301
ol	-9.33176
ase	-9.33259
▁fan	-9.33373
ly	-9.33432
tación	-9.33539
▁sitio	-9.3362
▁material	-9.33859
▁Estatística	-9.33986
adas	-9.3402
▁encima	-9.34079
tri	-9.34104
▁poli	-9.34155
▁unión	-9.3418
▁auto	-9.34268
▁Ourense	-9.34293
▁grazas	-9.34314
▁soa	-9.34452
▁ti	-9.34464
▁Hu	-9.34525
▁igual	-9.34818
▁musical	-9.34859
▁Tra	-9.34905
▁profesor	-9.3493
▁ambos	-9.34938
▁Fo	-9.34995
nto	-9.35001
▁principio	-9.3507
▁sociedade	-9.35179
▁Algún	-9.35183
▁revista	-9.35359
▁francesa	-9.35415
mp	-9.3549
▁presenta	-9.35595
fer	-9.35609
▁carácter	-9.35732
▁Mon	-9.35802
ana	-9.35835
▁linguas	-9.35874
▁profesional	-9.35948
▁País	-9.36134
▁dereito	-9.36256
▁fa	-9.36346
▁indica	-9.36352
▁verán	-9.36421
▁can	-9.36458
ico	-9.36464
▁García	-9.36528
▁célula	-9.36673
▁humano	-9.36729
sión	-9.36856
▁práctica	-9.36914
▁diminución	-9.37007
▁Dende	-9.37124
▁mercado	-9.37143
▁radio	-9.37211
▁fose	-9.3729
▁Internacional	-9.37305
▁civil	-9.37313
▁val	-9.37315
▁municipio	-9.37361
▁desa	-9.37364
▁alí	-9.37393
▁compañía	-9.37408
▁atopa	-9.37433
▁Londres	-9.37435
▁bacteria	-9.37461
cre	-9.37505
▁dirixido	-9.37597
▁Cal	-9.37889
je	-9.37988
ábase	-9.38105
▁idea	-9.38107
▁motor	-9.3816
▁van	-9.3819
▁clase	-9.38235
▁italiano	-9.38241
▁campaña	-9.38317
▁sentido	-9.38341
▁terceira	-9.38377
▁palabra	-9.38392
cción	-9.38469
id	-9.38557
▁distancia	-9.38563
nza	-9.38607
▁podería	-9.38679
▁Eu	-9.38709
▁edificio	-9.38785
8	-9.38815
ley	-9.38829
▁pasa	-9.38845
▁31	-9.38979
▁permite	-9.39153
eira	-9.39256
▁diferenza	-9.39279
▁existe	-9.39452
▁división	-9.3948
▁pequenos	-9.39523
nes	-9.39595
dio	-9.39686
ero	-9.39689
▁Casa	-9.39704
xu	-9.39787
▁ir	-9.39869
▁comunidade	-9.39892
▁Ber	-9.40091
▁mostra	-9.40112
▁fóra	-9.4016
▁Neste	-9.40228
▁Hi	-9.40234
▁Ci	-9.40355
ig	-9.40381
▁b	-9.40519
▁tema	-9.40633
▁t	-9.40683
▁maiores	-9.40692
stro	-9.40829
▁acción	-9.40841
▁Estas	-9.40868
ff	-9.41088
▁forzas	-9.41143
▁comercial	-9.41169
▁arredor	-9.41221
▁ci	-9.41254
▁ciclo	-9.413
▁fase	-9.41466
▁mu	-9.41472
mina	-9.41503
ram	-9.41552
▁miúdo	-9.41649
▁deseño	-9.41737
lia	-9.41841
▁aeroporto	-9.41844
ían	-9.41971
▁distinta	-9.4198
nce	-9.42136
▁África	-9.42138
▁tropas	-9.4214
▁servizo	-9.42329
▁ocasións	-9.42333
▁cadea	-9.42494
cen	-9.42554
▁Sol	-9.42585
▁participou	-9.42765
ner	-9.42789
▁Mu	-9.42806
▁ampla	-9.42848
▁contén	-9.42943
gua	-9.42984
▁tri	-9.4299
ku	-9.43141
▁Tu	-9.43178
▁latín	-9.43276
rán	-9.43372
rios	-9.43422
▁rúa	-9.43439
▁membrana	-9.43575
icamente	-9.43593
▁xenes	-9.4366
▁000	-9.43661
▁1980	-9.43843
▁distinto	-9.43913
▁IV	-9.4393
6	-9.43951
▁alcalde	-9.43954
▁pequenas	-9.44032
▁1991	-9.44137
tin	-9.44165
▁efecto	-9.44203
▁1936	-9.44317
▁independente	-9.44339
▁60	-9.44389
▁Xapón	-9.44456
mas	-9.44606
▁1995	-9.44659
▁xira	-9.44715
▁mas	-9.44798
▁Galego	-9.44842
▁augas	-9.44846
▁g	-9.44991
eta	-9.45002
▁Campionato	-9.45035
ré	-9.45062
▁realizar	-9.45113
▁existen	-9.45316
▁!	-9.45338
▁Ver	-9.45373
▁vista	-9.45403
▁Galiza	-9.45531
▁oito	-9.45563
▁Tri	-9.45604
shi	-9.45621
ix	-9.45724
▁morreu	-9.46093
iva	-9.4614
▁Primeira	-9.46293
▁expresión	-9.46398
▁localidade	-9.46401
▁Jo	-9.46497
▁Que	-9.46733
▁tiñan	-9.4675
▁cm	-9.46755
día	-9.46939
▁lei	-9.47031
▁normalmente	-9.47035
▁papa	-9.47231
cri	-9.47244
ura	-9.47375
ste	-9.47465
▁resposta	-9.47565
▁terras	-9.47675
▁escribiu	-9.47721
tón	-9.47753
▁Cer	-9.47758
▁piloto	-9.47827
par	-9.47859
▁produtos	-9.47907
▁rexións	-9.47909
▁quedou	-9.47978
ard	-9.48023
▁realidade	-9.48026
gi	-9.48032
▁Rodríguez	-9.48165
▁=	-9.48353
rían	-9.48611
▁literatura	-9.48624
▁dominio	-9.4875
▁1998	-9.48755
▁Fernández	-9.48812
▁1996	-9.49005
▁temperatura	-9.49043
▁existencia	-9.49045
▁forman	-9.49064
▁teatro	-9.49126
▁ARN	-9.4913
▁Za	-9.49248
▁formas	-9.49288
idos	-9.49354
▁ga	-9.49368
▁traballos	-9.4961
▁boa	-9.49611
▁puido	-9.49619
ler	-9.49671
▁xefe	-9.49716
▁Ce	-9.49758
▁deixou	-9.49836
▁clasificación	-9.49859
▁bastante	-9.4987
gos	-9.49995
▁Luís	-9.50021
nio	-9.50062
▁entrada	-9.50084
▁logrou	-9.50171
▁competición	-9.50232
ide	-9.50288
▁campión	-9.50372
bri	-9.50373
▁cu	-9.5038
▁carga	-9.50418
▁natureza	-9.50457
és	-9.5049
▁Rusia	-9.50659
mpa	-9.50703
▁producir	-9.50751
▁estación	-9.50777
X	-9.50957
ire	-9.5099
▁lu	-9.51023
ze	-9.51035
▁escrita	-9.5105
▁Ja	-9.51286
▁probable	-9.51328
▁industria	-9.51361
▁Consello	-9.51441
▁pan	-9.51496
▁India	-9.51627
▁1992	-9.51682
▁numerosos	-9.51719
▁representa	-9.51753
▁muito	-9.5185
▁bispo	-9.51851
amp	-9.51907
▁manter	-9.51996
ea	-9.52077
▁fonte	-9.52083
▁ad	-9.52094
▁occidental	-9.52303
▁naceu	-9.52357
▁noite	-9.52673
▁economía	-9.52737
▁parece	-9.52757
▁premio	-9.52767
▁inclúe	-9.52822
▁destas	-9.5307
▁problema	-9.53271
▁quilómetros	-9.53308
▁dereitos	-9.53342
▁1997	-9.53397
▁formada	-9.53434
▁xoga	-9.53435
▁sal	-9.53541
▁có	-9.53585
▁Final	-9.53636
▁Gu	-9.53681
cal	-9.53744
tí	-9.53748
▁Australia	-9.5378
▁tratamento	-9.53821
▁aves	-9.53886
▁80	-9.53972
▁cuxa	-9.54092
uro	-9.54108
▁trata	-9.54236
▁defensa	-9.5425
té	-9.54263
▁barrio	-9.54548
▁Goberno	-9.5467
▁fo	-9.54743
▁1970	-9.54745
▁decidiu	-9.54897
▁ouro	-9.54903
▁falta	-9.5491
▁rede	-9.54911
▁evolución	-9.54952
▁1994	-9.54986
▁Río	-9.55035
ano	-9.55068
▁pel	-9.55092
▁xeneral	-9.55225
▁Z	-9.55393
▁Ve	-9.55403
▁complexo	-9.55466
▁había	-9.55477
ugués	-9.55514
▁aumento	-9.55713
▁partes	-9.55768
▁México	-9.55853
▁Chi	-9.55917
▁cuarto	-9.56103
▁super	-9.56146
▁pasar	-9.56163
▁China	-9.56171
dra	-9.56255
▁tradición	-9.56271
▁máxima	-9.56438
▁Brasil	-9.56442
▁pa	-9.56597
▁posúe	-9.56632
▁cancións	-9.5681
▁traballa	-9.56849
▁Wa	-9.56905
▁bandeira	-9.56915
cto	-9.57008
tt	-9.57018
▁autores	-9.57024
▁Ex	-9.5709
▁curso	-9.57475
▁presión	-9.57484
tado	-9.575
▁1993	-9.5751
▁distribución	-9.57606
▁cambios	-9.57651
▁Actualmente	-9.57756
▁Galega	-9.57886
▁proba	-9.5793
min	-9.58065
▁servizos	-9.58103
ite	-9.58112
▁fundamental	-9.58192
▁presente	-9.58319
rón	-9.58351
▁An	-9.58394
zi	-9.58425
▁relativa	-9.58428
▁gra	-9.58465
▁libros	-9.58497
gui	-9.58524
▁mellores	-9.58609
▁chega	-9.58612
▁similar	-9.58647
▁cultural	-9.58703
ty	-9.58732
▁Ben	-9.58797
▁numerosas	-9.58871
▁traballar	-9.58912
50	-9.58933
▁orixina	-9.58991
izado	-9.59007
▁toma	-9.5901
▁selo	-9.59032
▁contacto	-9.59075
bor	-9.59129
menta	-9.59277
▁áreas	-9.59301
▁comunicación	-9.59375
▁celular	-9.59381
▁du	-9.59384
▁atopar	-9.59387
▁porto	-9.59472
▁horas	-9.59559
lá	-9.59585
▁h	-9.59629
▁utilizado	-9.59643
▁coche	-9.59744
▁New	-9.59749
▁sangue	-9.59802
▁completa	-9.59823
▁Monte	-9.59883
▁David	-9.59914
▁Pan	-9.59947
▁ministro	-9.60002
lé	-9.60114
▁xene	-9.60114
▁For	-9.60143
▁masa	-9.60174
▁perda	-9.60182
▁coñece	-9.60187
▁derrota	-9.60191
▁Bra	-9.60246
▁Miguel	-9.60304
▁Era	-9.60349
rri	-9.60407
▁límite	-9.60492
▁posterior	-9.60527
▁pu	-9.60648
pro	-9.60822
dura	-9.60852
▁representación	-9.60917
▁extremo	-9.60919
▁sistemas	-9.61152
▁imaxes	-9.61181
ac	-9.61282
▁Gi	-9.61389
▁composto	-9.61391
▁habitual	-9.61532
tur	-9.61539
▁mediados	-9.61573
▁coñecemento	-9.61648
▁independencia	-9.61842
▁obtivo	-9.61852
▁Idade	-9.61856
▁busca	-9.61863
▁nese	-9.61894
▁xente	-9.61896
iz	-9.61998
▁peso	-9.62087
▁Porto	-9.62097
▁à	-9.62135
▁Academia	-9.62367
▁efectos	-9.62377
gen	-9.6238
▁1960	-9.62471
▁baseado	-9.62517
▁mestura	-9.62552
▁k	-9.62553
▁Mor	-9.62643
▁Gar	-9.62668
▁frecuencia	-9.62703
ger	-9.62704
▁dia	-9.62754
lí	-9.62903
▁apareceu	-9.6291
▁obxecto	-9.62914
▁conquista	-9.62979
▁chegada	-9.63042
torio	-9.63172
vis	-9.63208
▁entra	-9.63275
ión	-9.63359
▁Máis	-9.6338
▁voo	-9.63456
▁XVIII	-9.63514
▁deriva	-9.6357
lar	-9.63576
▁pouca	-9.63579
▁Ferrol	-9.63619
▁1989	-9.6365
▁gañar	-9.63745
▁favor	-9.63818
▁amor	-9.63873
xia	-9.63885
▁Ju	-9.64084
▁70	-9.64132
▁xeo	-9.64142
▁porta	-9.64143
▁praza	-9.64167
▁fala	-9.64195
▁sección	-9.64346
▁mans	-9.64456
▁Afonso	-9.64473
▁hi	-9.64559
▁secuencia	-9.64559
▁dura	-9.64608
▁futuro	-9.64693
▁xogadores	-9.64725
ático	-9.64771
▁madeira	-9.64779
▁actor	-9.64783
7	-9.64788
▁obter	-9.64821
▁crear	-9.6488
▁Santo	-9.64897
▁Sal	-9.65
▁Bre	-9.65072
▁conseguir	-9.65109
▁regular	-9.65232
▁densidade	-9.65238
▁90	-9.65424
▁etapa	-9.65424
▁estadio	-9.65506
▁órgano	-9.65555
tre	-9.65557
▁activa	-9.65558
ante	-9.65559
▁tiveron	-9.6558
▁cantante	-9.65648
▁romana	-9.6567
mbi	-9.65716
▁camiño	-9.65758
▁provoca	-9.65762
▁castelán	-9.65798
ario	-9.65808
▁Nesta	-9.6586
▁esquerda	-9.66051
ral	-9.66091
▁viaxe	-9.66103
▁mestre	-9.66197
▁Centro	-9.66264
▁evitar	-9.6633
▁actividades	-9.66377
▁pé	-9.66431
▁ningunha	-9.6645
▁Posterior	-9.66475
tic	-9.66691
-1	-9.66733
▁fontes	-9.66743
▁realizou	-9.66868
▁Par	-9.66885
▁fu	-9.6692
▁física	-9.66936
▁clima	-9.67128
▁imaxe	-9.67147
▁misión	-9.67366
▁Coa	-9.67398
▁dobre	-9.67487
▁resulta	-9.67496
▁considerada	-9.67623
▁departamento	-9.67629
▁pedra	-9.67642
▁calidade	-9.67658
▁próximo	-9.67806
▁transporte	-9.67835
▁ri	-9.67852
im	-9.67922
▁corte	-9.67933
▁chama	-9.67955
pla	-9.68014
iana	-9.68028
▁funcións	-9.68053
▁relacións	-9.68227
▁británico	-9.68254
▁industrial	-9.68284
rie	-9.68341
▁qui	-9.68497
▁san	-9.68503
▁comp	-9.68643
▁ru	-9.68741
▁Illa	-9.68768
▁levar	-9.68818
dora	-9.68911
▁creou	-9.68919
▁apenas	-9.68953
W	-9.68955
▁propiedade	-9.68968
▁longa	-9.69012
▁niveis	-9.69028
tz	-9.69154
▁Media	-9.69168
ö	-9.69188
▁pódese	-9.69207
▁contrato	-9.6941
ot	-9.69443
vel	-9.69587
▁golpe	-9.69608
▁pertencente	-9.69621
▁locais	-9.69644
▁consecuencia	-9.69646
▁Deus	-9.69764
ny	-9.69856
▁castelo	-9.69877
▁humana	-9.69967
▁posibilidade	-9.70032
ic	-9.70055
▁composta	-9.70221
▁formou	-9.70226
▁+	-9.70238
era	-9.70314
▁resistencia	-9.70339
▁1987	-9.70349
ei	-9.70392
én	-9.70395
▁Lei	-9.70423
▁concepto	-9.70426
0	-9.7046
▁publicación	-9.7049
cional	-9.7052
▁facendo	-9.7064
▁probas	-9.70722
▁n	-9.70744
tão	-9.70751
▁metal	-9.70786
rd	-9.70793
fu	-9.70829
▁NBA	-9.70844
▁Asia	-9.70883
can	-9.70896
▁método	-9.70905
▁máximo	-9.70915
▁ciencia	-9.70928
▁baseada	-9.70948
▁bu	-9.70981
▁festa	-9.71015
▁Ku	-9.71036
▁minutos	-9.71112
▁texto	-9.71128
▁militares	-9.71145
▁reacción	-9.71211
▁Escola	-9.71335
lina	-9.71349
▁podía	-9.71468
ham	-9.7152
▁directamente	-9.71575
▁diferente	-9.7169
▁entrou	-9.71706
▁económica	-9.71714
▁conde	-9.71815
ena	-9.71883
▁análise	-9.71911
▁coroa	-9.71915
▁inferior	-9.7196
▁moeda	-9.71974
bles	-9.71974
mb	-9.72027
ivo	-9.7209
,5	-9.72102
▁Museo	-9.72157
cta	-9.7232
▁elas	-9.72324
mbo	-9.72326
▁persoal	-9.72369
▁CD	-9.72396
▁Ramón	-9.72403
▁produto	-9.72421
▁aparecen	-9.72482
▁sector	-9.72528
▁relacionado	-9.72578
rado	-9.72636
▁virus	-9.72676
▁doce	-9.7268
for	-9.72821
▁follas	-9.72887
▁Xunta	-9.72929
ux	-9.72985
▁acceso	-9.72997
▁tempos	-9.73003
▁dar	-9.73074
▁Va	-9.73081
▁interna	-9.7318
▁pista	-9.73196
▁concentración	-9.73196
▁eu	-9.73249
tada	-9.73328
▁segue	-9.73328
▁reinado	-9.73353
▁California	-9.73371
mia	-9.73406
▁Paul	-9.73408
▁pessoas	-9.73423
▁matrimonio	-9.73425
usa	-9.73426
▁moléculas	-9.73464
▁aire	-9.73527
▁acto	-9.73615
ula	-9.73648
▁resultados	-9.73695
▁podemos	-9.73762
▁anteriores	-9.73784
▁Com	-9.73794
▁Xosé	-9.73908
gas	-9.73923
▁precisa	-9.73943
▁carbono	-9.73949
▁Illas	-9.73952
▁Fu	-9.73966
tia	-9.7402
▁utiliza	-9.74032
▁necesidade	-9.74042
▁cine	-9.74053
▁nove	-9.74054
ando	-9.74162
▁tratado	-9.74186
▁xogar	-9.74218
izada	-9.74241
▁be	-9.74242
iza	-9.74289
▁1986	-9.74291
amento	-9.74292
▁br	-9.7432
▁organismos	-9.74334
▁aparición	-9.74339
rt	-9.74451
▁Xeral	-9.74465
gan	-9.74581
spe	-9.74629
▁gas	-9.74692
▁ocorre	-9.74767
▁trono	-9.74785
▁denominado	-9.74804
▁houb	-9.74813
▁doutros	-9.75191
▁grega	-9.75275
à	-9.75416
▁estados	-9.75467
▁exterior	-9.75498
▁unidade	-9.75544
▁marcha	-9.7561
▁territorios	-9.75695
▁escrito	-9.75753
izar	-9.75821
▁escala	-9.75877
▁Robert	-9.75965
▁1979	-9.7606
▁Cataluña	-9.76082
▁traballou	-9.76084
▁caza	-9.76287
pu	-9.76316
▁We	-9.76329
ola	-9.76355
▁líder	-9.76378
fí	-9.76399
▁Española	-9.7644
▁inverno	-9.7655
▁nenos	-9.76583
▁será	-9.76588
iu	-9.76699
we	-9.7672
▁Don	-9.76761
ü	-9.76829
▁sociais	-9.76973
ud	-9.77036
▁séculos	-9.77135
▁ne	-9.77177
▁Canadá	-9.77215
van	-9.77294
▁extensión	-9.77299
▁Ge	-9.77301
▁certo	-9.77388
▁Polo	-9.77454
▁chan	-9.77492
▁sinxelo	-9.77739
▁isso	-9.77802
▁procedente	-9.77827
▁1978	-9.77834
▁mosteiro	-9.77968
▁lles	-9.7805
▁López	-9.78164
▁produciu	-9.78165
▁mono	-9.78202
nder	-9.78349
▁irmá	-9.78418
▁meu	-9.78424
▁bio	-9.78441
▁palabras	-9.78449
▁u	-9.78584
▁micro	-9.7867
dy	-9.78683
▁Outros	-9.78745
▁fondo	-9.78833
▁plan	-9.78926
▁inclúen	-9.78927
oloxía	-9.78985
▁Central	-9.79039
▁comezaron	-9.79064
mon	-9.79095
▁famoso	-9.79179
▁baloncesto	-9.79207
▁raíña	-9.79297
▁Algunha	-9.79321
encia	-9.79425
▁Congreso	-9.79463
▁branco	-9.79497
▁1982	-9.79497
▁materia	-9.79542
▁anunciou	-9.79543
▁visita	-9.79551
▁ferro	-9.79551
tó	-9.79609
▁padrón	-9.79664
20	-9.79682
gre	-9.79756
nça	-9.79756
▁Mundo	-9.79843
▁Bal	-9.79885
dro	-9.79892
▁produce	-9.79909
▁são	-9.79973
▁estudio	-9.79976
▁1983	-9.79983
mática	-9.79996
ves	-9.80013
▁técnica	-9.80024
ela	-9.80032
bio	-9.80057
ier	-9.80121
eu	-9.80121
▁intento	-9.80138
▁porén	-9.80226
▁Popular	-9.80349
▁Pre	-9.80478
▁Ser	-9.80595
▁vive	-9.80616
tino	-9.80749
▁editado	-9.80784
▁construído	-9.80796
▁denominación	-9.80854
▁Luis	-9.8096
▁planeta	-9.80975
40	-9.81047
▁creado	-9.81069
gt	-9.81127
▁2017	-9.8114
tan	-9.81193
▁inicio	-9.81201
▁Irlanda	-9.81212
▁colección	-9.81261
▁sexual	-9.81299
▁Gra	-9.81313
▁liberdade	-9.81328
▁antigos	-9.81352
▁Cruz	-9.81368
▁Arxentina	-9.81472
▁1988	-9.8148
ex	-9.81517
▁James	-9.81564
▁Festival	-9.81647
▁xornalista	-9.81659
▁personaxe	-9.81858
▁usar	-9.81892
▁Pode	-9.81903
lles	-9.81915
▁fronteira	-9.81926
ró	-9.82035
▁medios	-9.82086
▁Cla	-9.82091
▁crítica	-9.82101
▁200	-9.82105
ios	-9.82109
rí	-9.82217
▁ta	-9.82247
▁1985	-9.82354
▁ruso	-9.82458
▁consiste	-9.8254
▁ven	-9.82542
lio	-9.82558
ä	-9.82629
▁Orde	-9.82633
▁tales	-9.82641
▁Pu	-9.82656
▁relixión	-9.82727
▁XVI	-9.8284
ak	-9.82842
▁Europea	-9.82874
▁accidente	-9.82903
▁acaba	-9.82949
cido	-9.83039
▁circuíto	-9.83051
▁continuou	-9.83089
xen	-9.8312
▁Mac	-9.83202
riz	-9.83203
▁individuos	-9.83242
▁suficiente	-9.83257
idae	-9.83282
▁pública	-9.83298
▁réxime	-9.83464
▁bar	-9.83466
▁comercio	-9.83559
▁condado	-9.83628
▁ambiente	-9.83638
▁George	-9.83673
▁fundada	-9.83683
▁asociación	-9.83696
80	-9.83702
▁altitude	-9.83704
▁adoita	-9.83718
▁oriental	-9.83758
▁pais	-9.83829
▁armas	-9.83843
titu	-9.83851
rou	-9.83857
▁Ki	-9.83859
▁xogou	-9.83923
ona	-9.83957
▁variedade	-9.83974
▁dereita	-9.83975
▁Ana	-9.83975
bia	-9.84091
▁Pola	-9.8414
▁animal	-9.8419
▁adestrador	-9.84204
port	-9.84304
▁dez	-9.84327
▁certa	-9.84327
▁Je	-9.84358
▁entidades	-9.84363
vol	-9.84392
▁participación	-9.84425
ificación	-9.84446
è	-9.84485
▁mon	-9.84543
▁liñas	-9.84574
▁templo	-9.84658
▁monte	-9.84718
▁1950	-9.84732
▁inglesa	-9.84804
▁linguaxe	-9.84837
▁cuxo	-9.84838
▁razón	-9.84851
til	-9.84906
▁Records	-9.85025
▁formando	-9.85065
▁Y	-9.85153
▁personaxes	-9.8522
▁peixes	-9.85223
ld	-9.85224
▁motivo	-9.85381
▁compositor	-9.85412
▁limita	-9.85434
▁Vo	-9.8549
bilidade	-9.85507
▁composición	-9.85515
▁honra	-9.85618
▁utilizar	-9.85673
gna	-9.8574
▁administración	-9.85749
lan	-9.85794
▁combate	-9.85814
▁alemá	-9.85815
▁azul	-9.8582
ólogo	-9.85842
▁vo	-9.85891
▁artistas	-9.85907
▁ataque	-9.85924
▁1977	-9.85927
▁compostos	-9.85986
▁chegaron	-9.85995
▁cerca	-9.86017
mit	-9.86032
▁saída	-9.86202
▁consta	-9.86209
▁Grecia	-9.86261
▁duque	-9.86347
▁cromosoma	-9.86375
▁Sta	-9.86401
▁plano	-9.86403
▁técnicas	-9.86416
iño	-9.8649
▁clases	-9.8652
▁pertence	-9.86607
ñe	-9.86627
cor	-9.86674
▁dólares	-9.86674
rum	-9.86797
▁González	-9.86803
▁Valencia	-9.86871
▁príncipe	-9.86925
hu	-9.86957
▁Xogos	-9.86961
▁representante	-9.86975
▁nalgún	-9.86986
▁fazer	-9.87003
▁Bretaña	-9.87048
▁seguir	-9.87157
mba	-9.87204
▁torre	-9.87227
▁indican	-9.87299
▁achega	-9.87373
▁1984	-9.87546
▁naturais	-9.87602
mor	-9.87624
▁recoñecemento	-9.87624
▁experiencia	-9.87632
▁diante	-9.87657
▁Pen	-9.87662
▁poeta	-9.8769
cé	-9.87783
▁completamente	-9.8783
▁Henrique	-9.87856
▁1976	-9.87918
▁destaca	-9.87956
▁1981	-9.88103
▁William	-9.8811
▁estudar	-9.8812
▁cancro	-9.88135
▁obxectos	-9.88159
▁algún	-9.88199
▁considera	-9.88209
▁Bor	-9.88226
▁Ó	-9.88253
▁Mentre	-9.88257
ment	-9.8835
▁lanzado	-9.88389
▁dirixida	-9.88491
▁rápida	-9.88499
▁científico	-9.88527
▁noutro	-9.88575
▁elemento	-9.88586
▁Aragón	-9.88595
▁normal	-9.8863
▁completo	-9.88664
ata	-9.88665
▁fre	-9.88667
▁tomar	-9.88669
ini	-9.88683
▁Cada	-9.88722
ñ	-9.88728
ō	-9.88759
▁Jean	-9.88832
ez	-9.88835
▁cores	-9.8888
▁usa	-9.88881
▁ocupa	-9.8903
▁Existen	-9.89078
▁Xu	-9.89138
▁Austria	-9.89155
ções	-9.89218
▁St	-9.89265
▁actriz	-9.8928
▁empeza	-9.89316
del	-9.89339
▁propiedades	-9.89354
▁tomou	-9.89442
▁Parlamento	-9.895
▁interpretación	-9.8952
▁converter	-9.8957
ker	-9.89642
▁enorme	-9.89656
tida	-9.8966
ure	-9.89664
▁Ya	-9.89666
rias	-9.89667
▁esposa	-9.89698
▁recibe	-9.89716
ontevedrés	-9.8972
▁decisión	-9.89922
-2	-9.89933
▁inicial	-9.89976
▁grao	-9.90027
toria	-9.90028
▁rapidamente	-9.90035
▁Cre	-9.90058
yo	-9.90108
▁estruturas	-9.90237
au	-9.90328
▁materiais	-9.90341
▁prefectura	-9.90352
▁parella	-9.90457
▁recibir	-9.90538
▁Mer	-9.90638
▁Los	-9.90657
▁difícil	-9.90747
▁Pérez	-9.90892
▁descubrimento	-9.90924
▁Mil	-9.90968
J	-9.90998
▁creada	-9.91085
▁educación	-9.91133
,6	-9.91262
▁atópan	-9.91307
▁sala	-9.91311
vé	-9.91389
▁1975	-9.91412
▁responsable	-9.91435
▁35	-9.91449
▁noroeste	-9.91467
▁usado	-9.91512
▁entrar	-9.91529
▁comportamento	-9.91571
dica	-9.91638
▁médico	-9.91658
tá	-9.91682
▁coñecidos	-9.91698
▁mando	-9.91699
▁torneo	-9.91758
▁Or	-9.91759
▁cámara	-9.91789
▁saúde	-9.9182
▁océano	-9.91885
,4	-9.91905
▁ruta	-9.91916
▁rápido	-9.91917
▁continua	-9.91923
▁escudo	-9.91945
▁fundado	-9.91948
▁voz	-9.91949
▁poesía	-9.91949
rea	-9.91955
▁procura	-9.91958
▁delas	-9.92009
30	-9.92095
▁Inter	-9.92191
▁Grande	-9.92254
▁publicada	-9.92277
▁escribir	-9.92293
▁500	-9.92374
▁conserva	-9.92486
stri	-9.92508
▁península	-9.9253
▁bordo	-9.92538
▁Ur	-9.92601
▁comúns	-9.9269
tel	-9.92736
stru	-9.92854
▁constante	-9.92912
▁moderna	-9.92972
10	-9.93032
▁unidades	-9.93067
▁chegando	-9.93087
▁corrente	-9.93166
bal	-9.93173
▁oposición	-9.9319
▁viven	-9.93222
▁nós	-9.93248
▁semana	-9.93408
cul	-9.93415
▁Debid	-9.93442
▁instalación	-9.93464
▁franceses	-9.93507
nca	-9.93523
▁reco	-9.93524
▁breve	-9.93573
▁deixar	-9.93638
▁tro	-9.93655
▁FC	-9.93697
▁termos	-9.93699
▁encontra	-9.93727
▁Che	-9.9374
▁construír	-9.93771
▁mi	-9.9378
▁ponte	-9.93787
ther	-9.93832
▁vivir	-9.93957
▁encontro	-9.93992
▁amigo	-9.94024
aria	-9.94056
▁incluso	-9.94064
▁rolda	-9.94075
▁trala	-9.94177
▁falar	-9.94205
▁disputa	-9.94219
▁desenvolveu	-9.94226
▁tódolo	-9.94295
cro	-9.94303
ér	-9.94403
▁contido	-9.94476
▁artigo	-9.94569
teñen	-9.94578
▁Ferrari	-9.94634
▁pobos	-9.94638
▁cuberta	-9.94696
▁pezas	-9.94725
▁sueste	-9.94733
▁1930	-9.94771
0.000	-9.94772
▁histórico	-9.94778
ras	-9.94783
cial	-9.94978
▁romano	-9.94991
▁Sch	-9.94992
▁química	-9.95006
▁árabe	-9.9502
▁XVII	-9.95023
▁daquela	-9.95061
▁risco	-9.95096
ído	-9.95156
▁detrás	-9.95183
▁he	-9.95305
▁denominada	-9.95334
▁sabe	-9.95335
▁deixa	-9.9535
▁dinastía	-9.95355
▁nomes	-9.95374
▁1974	-9.95396
▁colaboración	-9.95537
gro	-9.95554
▁capela	-9.95673
▁fixeron	-9.95722
▁arquitectura	-9.95756
▁parque	-9.95779
▁suma	-9.95796
▁1973	-9.95863
ct	-9.95883
▁empresas	-9.95892
▁posteriores	-9.95928
▁frecuente	-9.95994
9	-9.96031
▁multi	-9.96047
berg	-9.96063
▁Tor	-9.96148
▁meta	-9.96216
pul	-9.96217
por	-9.96265
tivos	-9.96334
▁femias	-9.9636
▁ascenso	-9.96394
ent	-9.96402
▁crise	-9.96419
▁foto	-9.96456
▁vinte	-9.96485
ça	-9.96555
▁económico	-9.96588
▁VI	-9.96624
▁Asociación	-9.96663
70	-9.96738
▁paz	-9.96769
cida	-9.9688
▁histórica	-9.96909
▁va	-9.96981
▁directo	-9.96997
▁machos	-9.97045
vos	-9.97073
▁continente	-9.97137
q	-9.97146
zu	-9.97191
▁demais	-9.97193
▁potencia	-9.972
▁infección	-9.97408
ás	-9.97486
▁publica	-9.97588
▁municipais	-9.97613
▁irmáns	-9.97651
tus	-9.97657
rina	-9.97683
▁contrario	-9.97799
▁go	-9.97889
▁acadou	-9.97927
▁organismo	-9.97932
▁xenética	-9.97957
▁conflito	-9.98072
▁semellante	-9.98092
▁curva	-9.98103
▁adoitan	-9.98238
▁Ke	-9.98266
tán	-9.98395
gri	-9.98404
▁tem	-9.98459
▁estableceu	-9.98465
▁ovos	-9.98475
▁inicialmente	-9.98477
▁claro	-9.98497
▁branca	-9.98504
▁nacemento	-9.98582
▁capa	-9.986
▁fusión	-9.98617
íronse	-9.98643
▁recentemente	-9.98665
ila	-9.98744
▁mellora	-9.98744
eiros	-9.98763
90	-9.98768
▁pasando	-9.98821
tase	-9.98968
▁Michael	-9.98985
▁depende	-9.99173
▁presentan	-9.99203
▁cola	-9.99218
und	-9.99248
▁oficiais	-9.99262
▁soldados	-9.99275
▁dirixiu	-9.99323
▁estrela	-9.99365
▁beira	-9.99458
▁Dereito	-9.9947
▁Bur	-9.99478
stre	-9.99479
uga	-9.99481
mil	-9.9951
▁estrada	-9.99522
dre	-9.99542
bil	-9.9958
▁letra	-9.99596
om	-9.99674
▁temos	-9.99726
▁coñecer	-9.99747
▁Deportivo	-9.99853
▁Torre	-9.99868
▁flores	-9.99883
▁batería	-9.9991
▁romanos	-9.99911
▁Cara	-9.99914
▁iniciou	-9.99936
ndi	-9.9998
ético	-10
▁Isabel	-10.0003
ato	-10.0004
▁unir	-10.0006
▁extra	-10.0013
▁deben	-10.0016
▁XIII	-10.0022
▁tecnoloxía	-10.0027
lli	-10.0029
cra	-10.0032
zar	-10.0036
tis	-10.0037
arse	-10.0038
▁Tráta	-10.0041
ques	-10.0042
▁doutras	-10.0043
▁fundador	-10.0048
fra	-10.0056
ji	-10.0057
▁pintura	-10.0068
▁Pat	-10.0069
ónico	-10.0071
▁tendo	-10.008
▁xornal	-10.0087
tr	-10.0089
▁símbolo	-10.0089
▁obstante	-10.009
▁1968	-10.0095
▁ambas	-10.0101
▁internacionais	-10.0101
ov	-10.0103
▁verde	-10.0106
mé	-10.011
▁localiza	-10.0115
fund	-10.0117
▁atravesa	-10.0122
▁aquela	-10.0133
▁pos	-10.0139
▁Exipto	-10.014
▁físico	-10.0143
▁1967	-10.0155
ún	-10.0158
▁filosofía	-10.0161
▁volver	-10.0161
▁cambia	-10.0167
deira	-10.0167
▁perdeu	-10.0171
tú	-10.0171
gado	-10.0172
▁respectivamente	-10.0175
nado	-10.0176
ft	-10.0177
▁hora	-10.0178
▁casou	-10.0178
xer	-10.0185
▁seguridade	-10.0189
cle	-10.019
vin	-10.0192
▁característica	-10.0199
▁canle	-10.0201
▁exposición	-10.0202
wi	-10.0202
▁fíxose	-10.0207
▁realizado	-10.0208
by	-10.0208
▁Mal	-10.0217
▁sin	-10.0217
ixa	-10.0227
▁Malia	-10.0234
▁solución	-10.0236
▁totalmente	-10.024
▁procesos	-10.0243
▁Nun	-10.0247
▁expedición	-10.0248
▁reforma	-10.0258
▁carne	-10.026
▁mm	-10.0265
▁ópera	-10.0278
▁Atlántico	-10.0279
▁arquitecto	-10.0282
▁Novo	-10.0286
▁considerar	-10.0292
▁europeos	-10.0295
▁ideas	-10.0308
▁pasado	-10.0312
han	-10.0313
▁guitarra	-10.0315
aba	-10.0317
▁proposta	-10.032
▁implica	-10.0325
▁Bel	-10.0327
▁políticas	-10.0329
▁recursos	-10.0329
▁clásica	-10.0336
▁españois	-10.034
kin	-10.0347
▁rematou	-10.0354
▁terreo	-10.0355
▁Sil	-10.0357
▁Ter	-10.0371
▁atención	-10.0373
gás	-10.0374
▁políticos	-10.0374
▁32	-10.038
▁1972	-10.0381
▁ob	-10.0381
▁candidato	-10.0383
▁Wi	-10.0386
▁aspecto	-10.0386
▁Federación	-10.0395
▁catalán	-10.0407
▁Nu	-10.0419
▁ámbito	-10.042
ár	-10.0426
uta	-10.0427
uri	-10.0428
dal	-10.0429
▁’	-10.0431
▁desenvolver	-10.0433
▁específico	-10.0434
α	-10.0435
▁movementos	-10.0435
▁comprende	-10.0441
▁1969	-10.0446
▁ríos	-10.0452
▁malia	-10.0465
▁universidade	-10.0474
▁cá	-10.0476
▁sufriu	-10.0484
▁veciños	-10.0488
▁memoria	-10.0489
▁mamíferos	-10.0491
▁produtor	-10.0497
▁textos	-10.0497
▁varía	-10.0501
pen	-10.0503
▁Fútbol	-10.0507
nu	-10.0508
har	-10.0513
▁Escocia	-10.0515
▁Cidade	-10.0517
▁tradución	-10.0522
▁Costa	-10.0525
▁tu	-10.053
▁garda	-10.053
▁lago	-10.0551
▁nave	-10.0552
▁pensa	-10.0555
▁Estudou	-10.0555
▁há	-10.0557
▁Moito	-10.0558
kh	-10.0561
▁familias	-10.0563
ética	-10.0574
▁1940	-10.0579
▁simple	-10.0579
▁pesca	-10.0584
▁medicina	-10.0585
▁consumo	-10.06
var	-10.0604
rico	-10.0607
▁fábrica	-10.0611
ski	-10.0613
▁XII	-10.0614
▁edificios	-10.0615
▁similares	-10.0616
com	-10.0622
▁código	-10.0622
▁científicos	-10.0622
▁artista	-10.0635
▁invasión	-10.0637
▁substituído	-10.064
▁asinou	-10.0653
▁órbita	-10.0659
▁Fer	-10.066
ís	-10.0662
esta	-10.0662
icos	-10.0663
lha	-10.0663
tive	-10.0665
▁deporte	-10.0667
▁esco	-10.0675
▁valores	-10.0681
▁imp	-10.069
▁árbores	-10.0691
▁fundou	-10.0691
▁participa	-10.0695
11	-10.0696
▁1945	-10.0701
▁ameaza	-10.0702
cía	-10.0708
bol	-10.0716
▁alimentos	-10.0719
▁Mont	-10.0719
lista	-10.0721
od	-10.0722
▁xéneros	-10.0732
▁Baixos	-10.0737
▁Ata	-10.0741
▁experimenta	-10.0742
▁ab	-10.0745
▁semanas	-10.0746
▁remata	-10.0747
▁gobernador	-10.0747
dí	-10.0749
▁negra	-10.0757
▁45	-10.0759
▁significado	-10.0761
▁pas	-10.0764
▁negro	-10.0766
▁1920	-10.077
▁leis	-10.0771
ek	-10.0777
▁caída	-10.0782
▁bases	-10.0785
▁1971	-10.0787
▁Só	-10.079
tch	-10.0791
▁Presidente	-10.0796
▁realmente	-10.0797
▁estrelas	-10.0798
▁simplemente	-10.0803
▁Todos	-10.0805
▁diámetro	-10.0806
▁pilotos	-10.0807
▁Campo	-10.0808
▁crea	-10.0812
ev	-10.0813
▁xunta	-10.0817
▁cuestión	-10.0821
illa	-10.0835
▁quand	-10.0835
▁Ama	-10.0842
isto	-10.085
cou	-10.0856
pp	-10.0857
▁alcanza	-10.0857
▁certas	-10.0863
▁Ponte	-10.0863
▁deputado	-10.0871
,8	-10.0872
▁Wo	-10.0876
▁usando	-10.0879
▁permitiu	-10.0883
▁Antes	-10.0884
▁artigos	-10.0888
▁colonia	-10.0889
▁Ir	-10.0892
▁letras	-10.0894
rada	-10.0894
60	-10.0895
▁goles	-10.0903
▁motores	-10.0908
▁participar	-10.0914
▁aumenta	-10.092
▁construída	-10.0924
elo	-10.0931
▁protección	-10.0939
▁pra	-10.0944
▁Filipe	-10.0947
▁aberto	-10.0951
ística	-10.0955
iga	-10.0956
▁destino	-10.0957
ible	-10.0958
▁métodos	-10.0959
ábel	-10.0962
ara	-10.0969
▁visión	-10.0974
▁Saint	-10.0975
▁Serra	-10.0981
▁secretario	-10.0986
,1	-10.0989
▁agricultura	-10.0989
▁Soviética	-10.0993
▁Har	-10.0994
▁revolución	-10.0995
psi	-10.0996
▁cobre	-10.0999
▁expansión	-10.1
▁Pacífico	-10.1008
▁suroeste	-10.1009
▁terminou	-10.1012
▁Grupo	-10.1024
▁distribuídos	-10.103
▁VII	-10.1032
▁Men	-10.1038
▁volume	-10.1041
ight	-10.1047
▁cinema	-10.1053
rem	-10.1053
▁Asturias	-10.1058
▁censo	-10.1061
▁contaba	-10.1061
▁titular	-10.1071
bro	-10.1074
ê	-10.1074
dri	-10.1077
▁Charles	-10.1082
▁comun	-10.1087
▁aberta	-10.1096
▁ref	-10.1098
▁propios	-10.1099
▁Ed	-10.1116
▁actuais	-10.1117
▁coches	-10.1119
▁provincias	-10.1119
▁imperio	-10.112
▁sua	-10.1121
▁1931	-10.1121
▁estrea	-10.1127
ixo	-10.1128
▁seguiu	-10.1129
▁Martin	-10.113
▁trasladou	-10.1131
▁Ad	-10.1133
tano	-10.1139
▁Tom	-10.1143
▁tira	-10.1146
▁compoñentes	-10.1156
mán	-10.1167
▁clara	-10.1167
▁von	-10.1173
bar	-10.1176
xio	-10.1176
▁británica	-10.1176
▁Sen	-10.1177
▁neo	-10.1178
▁vén	-10.1181
▁católica	-10.1183
▁cultivo	-10.1185
ec	-10.1186
▁cousas	-10.1187
▁Outras	-10.1199
▁menores	-10.1202
▁notable	-10.1205
lus	-10.1209
,2	-10.1209
uto	-10.1212
▁Tre	-10.1213
▁ho	-10.1214
25	-10.1215
cá	-10.1218
▁xeración	-10.1221
▁Suecia	-10.1223
▁estudou	-10.1225
izou	-10.1225
▁Er	-10.1235
▁labor	-10.1238
ius	-10.1239
▁poemas	-10.124
12	-10.1241
▁tendencia	-10.1242
▁portugués	-10.1246
▁autoridade	-10.1249
▁definición	-10.1255
▁converte	-10.126
▁activo	-10.1274
▁desaparece	-10.1277
▁literaria	-10.1278
▁fundación	-10.1281
mu	-10.1283
udi	-10.1284
▁vermello	-10.1287
▁números	-10.1298
,0	-10.13
▁xenoma	-10.1304
▁Art	-10.1308
nal	-10.1311
tivas	-10.1315
▁necesario	-10.1316
▁medieval	-10.1322
▁premios	-10.1323
▁certos	-10.1327
▁múltiple	-10.133
▁molécula	-10.1332
sol	-10.1336
▁Villa	-10.1339
▁Sha	-10.1341
,9	-10.1344
rido	-10.1351
▁lanzamento	-10.1352
▁hipótese	-10.1354
▁científica	-10.1366
▁gravación	-10.1382
cus	-10.1384
mis	-10.1389
nica	-10.1392
pas	-10.1395
ian	-10.1397
▁Super	-10.1403
▁dita	-10.1403
▁populares	-10.1411
▁feitos	-10.142
▁sé	-10.1421
▁Aires	-10.1423
sina	-10.1424
▁sinal	-10.1425
▁Constitución	-10.1426
▁intención	-10.1427
▁She	-10.1432
▁exp	-10.1438
▁diso	-10.1449
teiro	-10.1449
gon	-10.145
xida	-10.1452
ua	-10.1455
▁procede	-10.1456
▁́	-10.1458
▁expresa	-10.1462
▁Eduardo	-10.1465
dón	-10.1473
▁gañador	-10.1475
▁protagonista	-10.1477
▁vermella	-10.148
▁novamente	-10.1482
▁Ze	-10.1482
▁italiana	-10.1491
▁producido	-10.1493
▁converténdo	-10.1495
ografía	-10.1505
▁Ese	-10.1509
▁establecer	-10.1509
▁diferenzas	-10.1511
tores	-10.1513
▁Qui	-10.1513
nato	-10.1516
▁campos	-10.1519
tico	-10.1524
▁calor	-10.1525
cy	-10.1526
▁ensino	-10.1529
▁mantivo	-10.1533
▁Van	-10.154
▁aldea	-10.1545
▁converteu	-10.1545
lán	-10.1546
tido	-10.1547
▁títulos	-10.155
▁ofrece	-10.1558
▁pintor	-10.1559
▁elección	-10.1562
▁nesa	-10.1566
▁ensaio	-10.1568
▁1963	-10.1569
▁costas	-10.1569
.1	-10.1575
▁incremento	-10.1577
tario	-10.1588
▁amplo	-10.1589
ador	-10.159
▁Exército	-10.1592
▁National	-10.1592
▁usada	-10.1595
ey	-10.16
▁receptor	-10.1606
▁Alí	-10.161
▁Sevilla	-10.161
▁fra	-10.1611
▁1962	-10.1614
▁Mel	-10.1626
▁volve	-10.1627
▁poboacións	-10.1628
▁semi	-10.1631
▁1964	-10.1638
▁quinto	-10.1639
▁próxima	-10.164
▁profundidade	-10.1642
▁dificultade	-10.1642
▁capaz	-10.1645
▁pole	-10.165
▁prensa	-10.1654
▁Mag	-10.1659
▁exemplares	-10.1666
gou	-10.167
▁votos	-10.1673
op	-10.1673
▁Richard	-10.1675
cti	-10.1675
07	-10.1679
▁1966	-10.168
▁Bla	-10.1682
iano	-10.1683
▁Outra	-10.1695
▁1939	-10.1696
▁rama	-10.1697
▁músculo	-10.1703
▁táboa	-10.1703
▁altas	-10.1704
▁XV	-10.1706
▁toca	-10.1707
▁versións	-10.1707
rque	-10.1715
▁futbolista	-10.1717
ço	-10.1722
ví	-10.1724
▁My	-10.1728
▁33	-10.1729
ticamente	-10.1734
▁concertos	-10.1741
cios	-10.1749
▁catedral	-10.1749
plo	-10.1752
▁Ara	-10.1756
▁All	-10.1762
▁urbano	-10.1766
▁figuras	-10.1775
ístico	-10.1776
▁consegue	-10.1777
▁Pouco	-10.1783
nima	-10.1785
▁impacto	-10.1787
▁museo	-10.179
▁mala	-10.1792
inos	-10.1799
dar	-10.18
eg	-10.18
▁anteriormente	-10.1801
▁fixa	-10.1804
▁Revolución	-10.1804
eto	-10.1812
▁modelos	-10.1818
▁recoñecido	-10.1824
mini	-10.1835
▁Xesús	-10.1837
▁Xe	-10.1837
cina	-10.1837
▁prata	-10.1837
dé	-10.1838
ril	-10.184
▁Navarra	-10.1841
ias	-10.1846
▁1965	-10.1846
▁europeo	-10.1852
▁nalgunha	-10.1854
▁Vasco	-10.1857
▁presentes	-10.1859
tín	-10.1859
if	-10.1864
▁permaneceu	-10.187
my	-10.1872
▁gl	-10.1878
▁acadar	-10.1878
ábanse	-10.188
gal	-10.1883
и	-10.1883
cionais	-10.1885
▁tempadas	-10.1887
▁1958	-10.1888
▁sexo	-10.1895
▁famosa	-10.1896
▁Ciencias	-10.1896
lum	-10.1897
▁300	-10.1898
xes	-10.1899
▁significativa	-10.1908
▁men	-10.1908
▁Bas	-10.1908
▁residencia	-10.1909
ctor	-10.1917
cente	-10.192
▁Bro	-10.1938
rma	-10.1939
▁dixo	-10.1939
nar	-10.1942
mpe	-10.1945
▁ni	-10.1947
▁tecidos	-10.1949
▁eléctrica	-10.1952
▁Outro	-10.1954
tismo	-10.1956
▁Polonia	-10.1957
▁potencial	-10.1958
▁seres	-10.1971
▁Fillo	-10.1978
▁excepción	-10.1981
▁capitán	-10.1985
gor	-10.199
pare	-10.1991
tero	-10.1993
▁lenda	-10.1995
▁síntese	-10.1997
nga	-10.1998
▁compañeiro	-10.2002
▁policía	-10.2003
cla	-10.2003
▁pensamento	-10.2006
pto	-10.2006
▁Dis	-10.2008
▁presentar	-10.202
form	-10.2029
▁pasaxeiros	-10.2032
▁mecanismo	-10.2033
▁podían	-10.2033
let	-10.2033
▁permanente	-10.204
ju	-10.2041
▁canta	-10.2045
lis	-10.2049
▁suxire	-10.2049
▁acabou	-10.2053
▁barco	-10.2058
tista	-10.2059
▁Nese	-10.206
▁escena	-10.2061
▁meirande	-10.2062
▁explica	-10.2064
▁Paulo	-10.2064
▁frecuentemente	-10.2065
▁árbore	-10.2073
▁tradicionais	-10.2074
▁fenómeno	-10.2078
▁avión	-10.2078
▁arco	-10.208
▁Fri	-10.2081
▁insectos	-10.2086
▁noutras	-10.2091
▁Pla	-10.21
▁producen	-10.2106
▁posesión	-10.2109
▁ollos	-10.2118
▁europea	-10.212
enta	-10.2124
▁cento	-10.2126
▁absoluta	-10.2139
▁atopou	-10.2141
▁accións	-10.2149
▁Red	-10.2149
▁venda	-10.2151
▁minha	-10.2154
ónica	-10.2155
tais	-10.2157
▁Sociedade	-10.2158
▁seguido	-10.2159
▁Tar	-10.2161
ye	-10.2165
▁verdade	-10.217
dd	-10.2171
▁Thomas	-10.2174
▁Plan	-10.2178
▁Radio	-10.2183
▁Berlín	-10.2187
▁latino	-10.2188
▁estándar	-10.219
▁funciona	-10.2191
▁frota	-10.2191
▁Tro	-10.2194
▁consello	-10.2197
04	-10.2198
▁1948	-10.2201
▁tratar	-10.2207
▁nela	-10.2211
▁permanece	-10.2218
▁casas	-10.2225
▁perder	-10.2227
▁chamadas	-10.2229
▁programas	-10.2231
▁previa	-10.2231
zón	-10.2232
▁montaña	-10.2236
▁chi	-10.2237
▁Suíza	-10.2239
▁instrumentos	-10.2242
▁temperaturas	-10.2243
▁Comezou	-10.2252
tio	-10.2253
tera	-10.2255
mino	-10.2257
▁adiante	-10.2257
▁adaptación	-10.2258
dade	-10.2265
▁cría	-10.2269
ilo	-10.227
inas	-10.2276
olo	-10.228
▁Martínez	-10.2288
▁rematar	-10.2297
27	-10.2304
▁proporciona	-10.2305
▁flor	-10.2307
len	-10.2308
dic	-10.2311
ificado	-10.2316
▁observación	-10.2316
▁corresponde	-10.232
▁formal	-10.232
▁fer	-10.2325
▁Sin	-10.2329
▁Lago	-10.2329
-18	-10.2331
ford	-10.2333
▁Cuba	-10.2336
ume	-10.234
▁contexto	-10.2344
▁tor	-10.2346
nés	-10.2349
▁1933	-10.235
▁peixe	-10.235
ótica	-10.2353
▁atmosfera	-10.2353
▁demasiado	-10.2353
▁serve	-10.2353
ller	-10.2353
ville	-10.2357
▁satélite	-10.2357
▁gan	-10.2358
▁continuación	-10.2361
▁her	-10.2361
▁Vicente	-10.2362
▁pen	-10.2362
▁entrega	-10.2365
có	-10.2368
▁tecido	-10.2374
▁Parque	-10.2383
▁lin	-10.2388
mite	-10.2388
-3	-10.239
▁azucre	-10.2402
▁carta	-10.2403
▁Trala	-10.2416
▁autoridades	-10.2417
▁Alonso	-10.242
▁viu	-10.242
▁comida	-10.2424
▁hidróxeno	-10.2429
▁Pri	-10.243
▁foran	-10.2434
▁partículas	-10.2435
ína	-10.2436
entes	-10.2442
▁musicais	-10.2446
▁Sar	-10.2448
▁orquestra	-10.2451
isti	-10.2463
▁esencial	-10.2465
▁grave	-10.2467
▁duración	-10.2467
▁Civil	-10.2469
▁dito	-10.2471
▁League	-10.2474
tta	-10.2475
úa	-10.2476
ang	-10.2477
▁presidencia	-10.2478
▁plataforma	-10.2482
▁supera	-10.2488
ándoo	-10.2491
▁destacan	-10.2512
aron	-10.2513
▁1961	-10.2514
▁vías	-10.2517
idas	-10.2522
▁Teatro	-10.2528
▁escura	-10.2531
▁provocou	-10.2531
nge	-10.2532
▁alternativo	-10.2533
▁coñeceu	-10.2534
sk	-10.2536
ay	-10.2538
cado	-10.2543
18	-10.2545
tados	-10.2547
▁1937	-10.255
ust	-10.2555
rais	-10.2557
▁aspectos	-10.2559
▁Cast	-10.2568
▁Mariña	-10.2575
▁formato	-10.2576
▁inmediata	-10.2577
▁hidro	-10.2579
▁kg	-10.2579
itario	-10.2581
▁amigos	-10.2583
▁medalla	-10.259
▁teña	-10.2593
▁avogado	-10.2594
▁Israel	-10.2594
fre	-10.2597
▁cria	-10.26
▁condición	-10.2601
▁Virxe	-10.2605
▁lúa	-10.2619
▁Tal	-10.2619
▁desenvolvido	-10.2624
▁Ger	-10.2625
▁Ab	-10.2629
▁Deste	-10.263
▁aqueles	-10.2631
▁perigo	-10.2632
▁Cristo	-10.2635
▁traballador	-10.2635
▁1918	-10.2637
▁décadas	-10.2639
▁Dan	-10.264
17	-10.2641
▁foguete	-10.2653
▁1934	-10.2654
▁aquí	-10.2655
nova	-10.2655
lítico	-10.2657
▁regresou	-10.266
▁estreado	-10.2662
▁raíz	-10.2663
▁americano	-10.2666
▁cen	-10.2675
ers	-10.2678
▁presentou	-10.2679
fica	-10.2682
▁web	-10.2686
her	-10.2686
▁bandas	-10.2695
▁Não	-10.2697
▁espera	-10.2699
▁aceite	-10.2699
▁técnico	-10.2701
▁emisión	-10.271
▁Olímpicos	-10.2717
▁Williams	-10.272
able	-10.2722
▁peza	-10.2726
▁Serbia	-10.2732
▁Sant	-10.2742
▁servir	-10.2742
▁cha	-10.2744
eiras	-10.2744
▁Hill	-10.2745
▁escolas	-10.2746
▁producida	-10.2747
ling	-10.2748
rk	-10.2751
▁im	-10.2752
uno	-10.2755
▁Shi	-10.2765
óns	-10.2768
▁practicamente	-10.2768
▁36	-10.2773
ist	-10.2782
▁posta	-10.2783
▁rec	-10.2784
▁sido	-10.2785
▁arquipélago	-10.2786
▁comerciais	-10.2786
▁posúen	-10.2797
▁fortes	-10.28
▁esp	-10.2803
ai	-10.2805
▁obriga	-10.2807
▁actuación	-10.2814
▁onda	-10.2816
▁señor	-10.2816
tha	-10.2817
▁adultos	-10.2818
▁epi	-10.2818
▁vantaxe	-10.2819
▁1956	-10.282
▁Peter	-10.282
▁opera	-10.2821
▁cuarta	-10.2823
▁coñecidas	-10.2824
▁gol	-10.2825
cí	-10.2828
28	-10.2829
24	-10.2837
mann	-10.2838
▁pata	-10.284
▁1946	-10.2843
▁espectadores	-10.2844
tividade	-10.2844
cada	-10.2845
▁Cro	-10.2852
▁lá	-10.2852
▁crece	-10.2854
▁sucesor	-10.2854
▁localización	-10.2858
▁cro	-10.2859
▁lograr	-10.286
▁1947	-10.2861
▁global	-10.2865
▁hab	-10.2866
▁mantén	-10.2866
▁saíu	-10.2869
▁opinión	-10.287
antes	-10.2874
▁fachada	-10.2874
▁1959	-10.2875
▁Comité	-10.2879
▁XIV	-10.288
▁empregado	-10.2881
▁directa	-10.2883
▁xer	-10.2887
▁emprega	-10.2897
▁bal	-10.2901
zan	-10.2907
▁permitir	-10.2912
▁Oriental	-10.2916
vas	-10.2917
▁antigas	-10.2919
▁candidatura	-10.2926
▁pal	-10.2933
▁&#124;	-10.294
▁Bru	-10.2941
▁Gua	-10.2942
▁legal	-10.2943
▁v	-10.2944
▁vídeo	-10.2944
▁declarou	-10.2949
▁xogos	-10.295
mida	-10.295
pin	-10.2953
▁xudeus	-10.2953
.2	-10.2954
▁Air	-10.296
▁Louis	-10.2961
▁Romano	-10.2965
▁praia	-10.2966
▁constitúe	-10.2967
▁captura	-10.2973
▁Tratado	-10.2975
▁37	-10.2976
▁Asemblea	-10.2977
26	-10.2982
05	-10.2985
▁aplicación	-10.2987
▁atrás	-10.2999
▁realiza	-10.2999
pé	-10.2999
iste	-10.3002
.6	-10.3002
Z	-10.3006
▁viviu	-10.3008
▁Chá	-10.3012
▁Mediterráneo	-10.3015
▁neno	-10.3017
acións	-10.3018
▁Fra	-10.3019
▁acada	-10.3026
▁viño	-10.3027
▁Betanzos	-10.3029
▁bosques	-10.3031
▁fórmula	-10.3034
anse	-10.3036
▁nacionais	-10.3038
▁variable	-10.3042
nci	-10.3043
▁34	-10.3055
itou	-10.3061
▁Chile	-10.3062
rase	-10.3062
▁informa	-10.3068
▁empezou	-10.3072
▁británicos	-10.3073
▁Primeiro	-10.3082
▁oportunidade	-10.3086
▁diario	-10.3089
▁pop	-10.3094
-20	-10.3095
eo	-10.3101
▁concerto	-10.3103
ting	-10.3108
▁necesaria	-10.3109
uca	-10.3113
▁curto	-10.3114
▁Bélxica	-10.3114
▁secuencias	-10.3117
▁medidas	-10.3118
rna	-10.3119
▁Sicilia	-10.3119
▁literario	-10.3119
▁líquido	-10.3119
una	-10.3119
▁motivos	-10.3122
▁proximidade	-10.3124
▁provén	-10.3124
▁facía	-10.3128
uros	-10.3128
99	-10.313
▁Salvador	-10.313
ah	-10.3132
▁aminoácidos	-10.3132
▁dividido	-10.3138
▁institucións	-10.314
75	-10.314
▁1941	-10.3149
▁pensar	-10.315
▁amosa	-10.3152
▁termina	-10.3154
rin	-10.3158
▁alternativa	-10.3161
▁mapa	-10.3164
▁nu	-10.3169
▁ía	-10.3171
▁Artes	-10.3172
▁corre	-10.3174
nco	-10.3175
tir	-10.3179
▁corazón	-10.3181
▁Camp	-10.3183
dela	-10.3185
nie	-10.3186
▁Concello	-10.3186
gada	-10.3189
▁Socialista	-10.3189
lismo	-10.3193
gur	-10.3198
01	-10.3205
▁anticorpo	-10.321
▁revela	-10.322
ciais	-10.322
▁gravado	-10.3221
▁combinación	-10.3222
▁propias	-10.3222
▁arcebispo	-10.3225
▁correspondente	-10.3225
bur	-10.3227
▁pelo	-10.3229
▁Tour	-10.3231
▁practica	-10.3234
▁Occidental	-10.3234
▁remo	-10.3237
▁identidade	-10.3239
nismo	-10.3245
▁ton	-10.3249
▁dialecto	-10.3249
▁Pala	-10.3255
▁entidade	-10.3259
▁debuxo	-10.3259
▁ju	-10.3261
tsu	-10.3261
ub	-10.3262
▁curta	-10.3266
cher	-10.3267
95	-10.327
▁temporada	-10.3274
▁coro	-10.3276
▁1954	-10.3279
ciona	-10.3279
85	-10.3281
net	-10.3282
▁funcionamento	-10.3287
▁portuguesa	-10.3291
▁monarca	-10.3292
nada	-10.3295
▁hábitat	-10.3297
▁tele	-10.3298
▁sacerdote	-10.3307
▁espacial	-10.3307
▁Atenas	-10.3307
▁Sub	-10.331
ell	-10.3315
▁corpos	-10.3323
▁cristiá	-10.3326
ι	-10.3326
▁localizado	-10.3333
one	-10.3335
xón	-10.3342
pus	-10.3342
mio	-10.3346
ída	-10.335
▁Forma	-10.3354
▁celebrou	-10.336
▁marxe	-10.3361
▁poderían	-10.3361
▁estuda	-10.3364
mal	-10.3364
ue	-10.3365
▁taxa	-10.3368
▁estreito	-10.3368
teo	-10.3373
▁funda	-10.3375
▁Papa	-10.3378
gueira	-10.3378
▁Tur	-10.338
е	-10.338
▁encontros	-10.3381
▁afirma	-10.3388
rix	-10.3388
▁nossa	-10.339
▁culturais	-10.339
pí	-10.339
▁escenario	-10.3393
▁descubriu	-10.3395
▁ausencia	-10.3395
▁Daniel	-10.3395
▁deixando	-10.3396
▁montañas	-10.3399
▁escultura	-10.34
▁1957	-10.3401
▁levan	-10.3401
▁liderado	-10.3406
ern	-10.3407
▁alimento	-10.3408
▁boca	-10.3408
▁sexan	-10.341
▁1949	-10.341
éronse	-10.3411
▁estende	-10.3417
▁Park	-10.342
▁1955	-10.342
35	-10.3421
▁conferencia	-10.3422
▁tam	-10.3423
▁vivo	-10.3424
15	-10.3433
▁relixiosa	-10.3435
▁raza	-10.3441
▁Hoxe	-10.3443
ph	-10.3443
▁cruz	-10.3445
▁Vilalba	-10.3449
▁avance	-10.345
▁King	-10.3451
▁Comunidade	-10.3455
▁escritos	-10.3457
nesa	-10.3463
▁Arte	-10.3464
spira	-10.3466
ney	-10.3469
way	-10.347
▁Bueno	-10.347
▁caixa	-10.3474
▁leite	-10.3475
▁equivalente	-10.3476
ência	-10.3476
▁1944	-10.3484
▁ancho	-10.3487
▁hospital	-10.3488
▁obrigado	-10.349
▁secundaria	-10.3493
▁cambiar	-10.3495
▁Maria	-10.3499
▁vella	-10.3499
š	-10.3503
▁periódico	-10.3503
nus	-10.3511
▁saber	-10.3512
▁dividida	-10.3513
▁muralla	-10.3513
▁nuclear	-10.3516
▁copias	-10.3519
▁culto	-10.3519
▁Toda	-10.3521
rín	-10.3522
▁num	-10.3523
▁Zelandia	-10.3523
98	-10.3526
▁Cri	-10.3528
▁hormona	-10.3528
▁nosso	-10.3532
ense	-10.3536
▁aquel	-10.3537
ío	-10.354
▁aí	-10.3547
▁doutor	-10.3549
▁Álvarez	-10.3553
▁1953	-10.3554
rde	-10.3555
▁modificación	-10.3556
ós	-10.3558
▁incluída	-10.3561
▁rango	-10.3569
▁privada	-10.3573
.9	-10.3575
vía	-10.3576
íu	-10.3578
▁pla	-10.3578
ló	-10.3579
▁serbio	-10.3581
▁cristiáns	-10.3582
icia	-10.3582
▁Vol	-10.3586
ella	-10.3586
cito	-10.3591
▁serían	-10.3593
▁ele	-10.3595
▁custo	-10.3601
Y	-10.361
▁queda	-10.3621
▁cho	-10.3622
gueiro	-10.3622
▁et	-10.3624
▁CO	-10.3625
▁ocupación	-10.3627
lhe	-10.3628
▁útil	-10.3628
▁cri	-10.363
▁elevado	-10.3631
▁Nobel	-10.3636
lica	-10.3637
▁homenaxe	-10.3638
▁república	-10.3643
▁destacar	-10.3646
zos	-10.3647
▁cata	-10.3652
▁Miño	-10.3653
▁morre	-10.3656
▁vello	-10.3656
▁xera	-10.3658
▁prezo	-10.3661
▁debut	-10.3669
vido	-10.3673
and	-10.3673
.3	-10.3679
▁fal	-10.3679
▁1952	-10.3679
▁simples	-10.3684
gg	-10.3692
▁pol	-10.3699
cr	-10.3701
▁danos	-10.3712
▁proxectos	-10.3713
nina	-10.3714
▁unido	-10.3716
▁38	-10.3721
▁pazo	-10.3725
▁familiar	-10.3727
▁retirada	-10.3727
▁lembra	-10.3729
.7	-10.3731
▁Min	-10.3731
▁Península	-10.3734
▁Oriente	-10.3734
▁banco	-10.3736
▁gregos	-10.3743
▁Vilar	-10.3745
▁reserva	-10.3748
lde	-10.3749
▁emprego	-10.375
▁conexión	-10.3754
▁cap	-10.3759
▁cru	-10.3762
▁ataques	-10.3762
▁determinar	-10.3774
▁Provincia	-10.3777
▁1935	-10.3781
а	-10.3784
▁existía	-10.379
▁moderno	-10.379
▁asasinato	-10.3793
▁comunidades	-10.3794
▁fica	-10.3795
▁debate	-10.3795
21	-10.3795
pan	-10.3795
▁domina	-10.3796
▁Cabo	-10.3797
▁Comp	-10.38
▁Alexandre	-10.3805
▁externa	-10.3805
rino	-10.3806
lega	-10.3808
▁celebra	-10.381
posición	-10.3819
ual	-10.382
▁utilizando	-10.3821
▁1922	-10.3821
terio	-10.3821
▁consegui	-10.3825
▁comunista	-10.3829
▁logra	-10.383
▁demanda	-10.3831
▁Tele	-10.3832
▁soviético	-10.3836
▁acontecemento	-10.3838
▁Conta	-10.384
din	-10.3842
▁VIII	-10.3843
vio	-10.3851
▁integra	-10.3854
▁poema	-10.3858
lf	-10.3858
▁nace	-10.386
▁baixas	-10.386
▁acompaña	-10.3865
▁recuperar	-10.387
▁proporción	-10.3871
ant	-10.3872
ep	-10.3874
▁impulso	-10.3877
duci	-10.3877
▁Oscar	-10.3878
14	-10.3878
▁abaixo	-10.3878
▁1932	-10.3888
▁Ul	-10.389
▁artes	-10.389
▁Conde	-10.389
▁colonias	-10.3891
▁castro	-10.3892
▁rebote	-10.3892
lip	-10.3893
▁cambiou	-10.3894
▁1919	-10.3898
▁Cho	-10.39
mir	-10.39
▁estudantes	-10.3901
slav	-10.3901
▁froito	-10.3902
▁Bergantiños	-10.3902
▁enxeñeiro	-10.3907
▁descrición	-10.3908
▁Ouro	-10.3908
▁Trans	-10.3911
ung	-10.3914
▁primavera	-10.3918
▁dado	-10.3922
▁constitución	-10.3923
▁post	-10.3924
▁deseñado	-10.3925
▁Han	-10.3926
ões	-10.3935
▁Xo	-10.3936
▁descrita	-10.3941
lic	-10.3943
▁1938	-10.3945
▁tería	-10.3945
▁cla	-10.3951
mbra	-10.3956
▁reunión	-10.3956
▁estimula	-10.3959
▁abandonou	-10.396
▁xerais	-10.396
▁1923	-10.396
▁individual	-10.3964
ática	-10.3972
▁separa	-10.3975
ndro	-10.398
gráfico	-10.3981
▁saír	-10.3983
▁sinais	-10.3984
▁Washington	-10.3985
▁cerebro	-10.3985
▁resultou	-10.3985
▁socio	-10.3986
▁intenta	-10.3987
▁reprodución	-10.3996
▁pasaron	-10.3997
▁disciplina	-10.4001
bert	-10.4003
02	-10.4003
▁los	-10.4004
▁seguindo	-10.4009
88	-10.4014
gno	-10.4033
▁Sobre	-10.4034
▁categorías	-10.4034
▁Albert	-10.4035
▁solar	-10.4038
▁Am	-10.4042
▁rusa	-10.4042
▁reais	-10.4042
▁1929	-10.4044
▁demostra	-10.4046
16	-10.4046
rta	-10.4047
▁Rock	-10.4047
ab	-10.4047
▁Cur	-10.4052
▁turismo	-10.4054
▁Comisión	-10.4059
▁radiación	-10.4061
chu	-10.4066
▁operacións	-10.4074
ima	-10.4076
▁chamou	-10.4077
▁interno	-10.4078
▁roda	-10.4082
▁lingüística	-10.4084
▁xaponés	-10.4084
itaria	-10.4088
▁reducir	-10.4091
▁biblioteca	-10.4095
▁pódense	-10.4095
esa	-10.4102
▁substancias	-10.4105
ngu	-10.4106
gón	-10.4111
▁administrativa	-10.4114
▁debía	-10.4114
▁centr	-10.4117
▁Sam	-10.4117
▁Ministerio	-10.4121
.4	-10.4122
▁sesión	-10.4122
▁crenza	-10.4126
▁axudar	-10.4126
▁Ministro	-10.4127
dou	-10.4133
▁Black	-10.4135
▁Nacións	-10.4138
▁feita	-10.4141
ice	-10.4142
▁exilio	-10.4143
09	-10.4147
gli	-10.4148
▁Diego	-10.4152
92	-10.4155
▁supux	-10.4158
▁presentado	-10.4158
▁comuna	-10.4159
▁Franco	-10.416
▁centros	-10.416
▁parede	-10.4163
cum	-10.4164
citos	-10.4165
mpo	-10.4174
▁Bay	-10.4174
▁nel	-10.4177
▁asasinado	-10.4178
▁punta	-10.4179
▁homónimo	-10.4179
▁morrer	-10.418
▁encontrar	-10.4182
▁describe	-10.4183
03	-10.4184
▁asistencia	-10.4195
doiro	-10.4196
▁Pazo	-10.4198
▁recente	-10.4199
sin	-10.4202
▁reis	-10.4203
▁ocasión	-10.4206
▁regula	-10.4207
▁receptores	-10.4209
▁Ele	-10.4211
▁interpreta	-10.4212
the	-10.4216
▁rugby	-10.4217
▁costume	-10.4217
▁natal	-10.4221
▁Martiño	-10.4222
▁honor	-10.4223
lada	-10.4224
trá	-10.4224
nha	-10.4225
▁utilizada	-10.423
▁Joseph	-10.4245
▁considerable	-10.4249
▁clave	-10.4249
igo	-10.4249
ní	-10.4249
▁serra	-10.4256
▁Del	-10.4257
ares	-10.4269
▁permiten	-10.4271
fil	-10.4273
ρ	-10.4275
▁Moscova	-10.4275
▁denomínase	-10.4275
▁intervención	-10.4275
▁electróns	-10.4277
13	-10.4278
rga	-10.4278
▁Celta	-10.4279
▁recoñece	-10.4281
▁desexo	-10.4282
cano	-10.4284
lon	-10.4284
▁lume	-10.4288
▁ecuación	-10.4292
87	-10.4298
▁anual	-10.43
▁recolle	-10.4301
▁Em	-10.4301
▁pon	-10.4301
poli	-10.4302
19	-10.4303
▁Zo	-10.4303
▁Baixo	-10.4306
▁descenso	-10.4307
▁feminino	-10.4313
▁1917	-10.4314
▁editor	-10.4317
▁temporal	-10.4317
▁tensión	-10.4318
▁fortaleza	-10.4318
▁brillante	-10.4318
▁Lingua	-10.4318
▁elevada	-10.4318
tópase	-10.432
▁anel	-10.432
▁Far	-10.4327
▁IX	-10.433
▁World	-10.4334
▁Star	-10.4335
mat	-10.4335
▁mer	-10.4336
itas	-10.4336
▁Martín	-10.4336
▁Music	-10.4337
ā	-10.434
ben	-10.4343
dina	-10.4345
▁Cultura	-10.4346
▁confirma	-10.4355
ν	-10.4356
nou	-10.436
▁torno	-10.436
▁rexistro	-10.4361
món	-10.4361
▁Cortes	-10.4367
53	-10.437
76	-10.4381
▁fluxo	-10.4385
▁atopan	-10.4387
▁150	-10.4388
▁bronce	-10.4389
eno	-10.4392
▁War	-10.4394
▁celebración	-10.4403
▁75	-10.4404
▁paisaxe	-10.4405
pra	-10.4415
▁barcos	-10.4421
vor	-10.4422
▁verdadeira	-10.4424
▁clasificado	-10.4424
▁círculo	-10.4432
▁42	-10.4433
rei	-10.4433
▁rochas	-10.4435
▁compra	-10.4438
▁Mais	-10.4443
▁estão	-10.4444
▁gañando	-10.4445
tía	-10.4452
▁1951	-10.4455
grafía	-10.4455
▁area	-10.4457
▁perde	-10.4458
▁pin	-10.4462
▁disto	-10.4467
▁qu	-10.447
vers	-10.4471
cón	-10.4475
▁realizada	-10.4476
▁1928	-10.4477
65	-10.448
▁cerimonia	-10.4481
▁Bou	-10.4487
bus	-10.449
▁fuxi	-10.4492
▁propósito	-10.4497
▁fracaso	-10.4497
▁terrestre	-10.4499
burg	-10.4501
mus	-10.4505
о	-10.4511
▁superiores	-10.4513
tec	-10.4513
tidos	-10.4515
▁separación	-10.4523
▁universal	-10.4527
▁transforma	-10.4533
▁hóspede	-10.4536
▁ourensán	-10.4541
97	-10.4542
▁Cap	-10.4546
86	-10.4547
cela	-10.4549
▁Sánchez	-10.4552
▁Moita	-10.4555
xiña	-10.4558
▁xen	-10.4558
▁Pena	-10.4561
▁competencia	-10.4563
▁xi	-10.4563
▁2018	-10.4566
▁urbana	-10.4569
96	-10.4571
▁cantidades	-10.4572
▁retirar	-10.4573
77	-10.4577
▁circular	-10.4579
56	-10.4579
iti	-10.4582
▁400	-10.4585
▁Auto	-10.4586
▁xestión	-10.4591
▁tocar	-10.4591
▁críticas	-10.4593
▁calendario	-10.4596
▁sueco	-10.4602
lado	-10.4602
▁1943	-10.4603
mera	-10.4609
met	-10.4611
▁Ibérica	-10.4613
nais	-10.4617
▁artístico	-10.4624
▁herdeiro	-10.4625
▁Gui	-10.4629
est	-10.4633
cencia	-10.4639
▁fotografía	-10.4641
▁Ly	-10.4644
▁parti	-10.465
▁alcanzar	-10.4654
▁argumento	-10.4657
tti	-10.4659
▁tramo	-10.4661
▁também	-10.4663
▁ocupou	-10.4663
▁Galería	-10.4664
▁utilíza	-10.4665
índose	-10.4668
▁artificial	-10.4668
▁disputou	-10.4668
▁aparecer	-10.467
▁Ch	-10.4672
▁individuo	-10.4677
▁conservación	-10.4678
rne	-10.4679
▁discurso	-10.4679
▁1924	-10.4681
▁din	-10.4685
▁transcrición	-10.4685
ete	-10.4686
▁ritmo	-10.4691
▁quere	-10.4691
▁Limita	-10.4692
pica	-10.4692
▁empregar	-10.4693
vida	-10.4694
▁primaria	-10.4695
▁persa	-10.47
▁manda	-10.4702
▁recentes	-10.4704
▁CF	-10.471
▁tre	-10.4716
▁Pres	-10.4718
▁propietario	-10.4718
▁prisión	-10.4719
▁débese	-10.473
▁personalidade	-10.473
MS	-10.473
nea	-10.4732
bili	-10.4732
▁Xunto	-10.4737
93	-10.4737
▁reaccións	-10.474
▁laboratorio	-10.4741
68	-10.4743
cin	-10.4745
▁filósofo	-10.4746
▁músico	-10.4747
▁avións	-10.4749
liza	-10.4749
tom	-10.4749
▁puxo	-10.4752
▁bosque	-10.4753
▁Lisboa	-10.4758
▁continuar	-10.4759
▁Ac	-10.476
▁dependente	-10.4761
-5	-10.4761
ial	-10.4763
▁molecular	-10.4764
▁1942	-10.477
▁vento	-10.4772
▁1914	-10.4776
▁clásico	-10.4782
▁39	-10.4782
▁localizada	-10.4782
▁negativa	-10.4783
▁vir	-10.4784
▁Guillerme	-10.4786
▁instrumento	-10.4789
▁Pas	-10.479
culo	-10.4797
▁convérte	-10.4797
▁Gri	-10.4797
▁haber	-10.48
▁Fin	-10.4802
sky	-10.4803
▁titulado	-10.4808
zou	-10.4811
pouco	-10.4813
▁continental	-10.4814
riño	-10.4815
▁eventos	-10.4819
▁pronto	-10.4822
▁pacientes	-10.4823
gel	-10.4824
▁estreita	-10.4826
▁poida	-10.4826
ración	-10.4827
▁Q	-10.4827
cú	-10.4827
▁Bell	-10.4828
ngo	-10.4836
pta	-10.4841
xina	-10.4843
▁concurso	-10.4846
tana	-10.4848
▁gui	-10.4848
▁cifra	-10.4849
▁rica	-10.4854
rida	-10.4855
bido	-10.4856
puta	-10.4857
▁fri	-10.4858
▁arma	-10.4862
▁Fre	-10.487
teira	-10.4871
lix	-10.4872
▁descende	-10.4872
λ	-10.4876
fal	-10.4878
lú	-10.4883
▁relacionadas	-10.4884
rte	-10.4889
▁mito	-10.4894
▁1925	-10.4895
▁evento	-10.49
55	-10.4903
▁vitorias	-10.4908
▁cadeas	-10.4908
▁Ven	-10.4908
off	-10.4916
▁fibra	-10.4916
▁historiador	-10.4919
gh	-10.4919
▁Rosa	-10.4919
▁Hol	-10.4919
▁Condado	-10.4923
▁bri	-10.4924
▁redución	-10.4924
▁observa	-10.4931
▁City	-10.4933
▁lanzou	-10.4933
▁aumentar	-10.4936
45	-10.494
má	-10.4953
ish	-10.4961
▁fabricación	-10.4961
▁Mad	-10.4963
mó	-10.4964
▁enfrontamento	-10.4971
▁coisas	-10.4972
83	-10.4975
58	-10.4978
▁Jack	-10.4979
▁abandonar	-10.4979
nk	-10.4984
▁alfabeto	-10.4985
ensis	-10.4988
▁dominios	-10.4988
▁codifica	-10.4994
▁herba	-10.4995
▁Medio	-10.5002
▁nosa	-10.5005
▁relixioso	-10.5007
▁documentos	-10.5008
▁lonxe	-10.5008
▁estatua	-10.5008
▁matemático	-10.5008
▁incluído	-10.501
▁diocese	-10.5014
▁Palacio	-10.5016
iras	-10.502
▁Paz	-10.5021
▁baía	-10.5021
▁marco	-10.503
▁xaponesa	-10.5031
▁transformación	-10.5034
▁razóns	-10.5035
▁Ela	-10.5039
▁Xi	-10.5043
▁Hungría	-10.5043
▁recoñecida	-10.5043
▁Chicago	-10.5043
gne	-10.5043
▁sementes	-10.5044
mbro	-10.5047
▁cura	-10.5048
▁riqueza	-10.5048
forma	-10.5049
▁destinado	-10.5049
▁substancia	-10.5049
▁artística	-10.5054
▁acepta	-10.5055
▁liberación	-10.5055
▁vol	-10.5056
▁enviado	-10.5059
iformes	-10.506
Ma	-10.5061
touse	-10.5061
▁imperial	-10.5063
▁facil	-10.5067
▁mata	-10.5068
hr	-10.5069
▁republicano	-10.5071
bos	-10.5072
▁Lou	-10.5072
ok	-10.5077
dea	-10.5085
▁48	-10.5089
▁lateral	-10.509
▁Gro	-10.5093
osas	-10.5095
▁inicia	-10.5097
▁representar	-10.5099
▁1910	-10.5103
▁Nunha	-10.5103
▁galegos	-10.5106
▁monarquía	-10.5107
▁empregada	-10.5107
▁Carl	-10.5111
▁frío	-10.5119
▁Iso	-10.5121
▁inscrición	-10.5124
▁mostran	-10.5124
▁transmisión	-10.5124
▁Florida	-10.5125
▁marchou	-10.5125
▁Finlandia	-10.5136
▁aplica	-10.5136
▁solo	-10.5137
▁guitarrista	-10.5141
▁enviou	-10.5144
▁institución	-10.5144
▁espa	-10.5144
▁Fro	-10.5145
▁software	-10.5147
▁viuse	-10.5156
▁dúbida	-10.5159
▁visto	-10.5161
▁May	-10.5162
▁Pin	-10.5163
67	-10.5164
▁tráfico	-10.5165
ranse	-10.5165
▁prodúce	-10.5173
▁existi	-10.5173
▁chaira	-10.5176
▁pares	-10.5176
▁Napoleón	-10.5176
ale	-10.5179
qu	-10.518
29	-10.5181
▁descuberto	-10.5182
▁documento	-10.5183
ór	-10.5185
48	-10.5187
▁hócke	-10.5188
▁alianza	-10.5188
▁cidadáns	-10.519
34	-10.5193
llas	-10.5196
▁asina	-10.5199
▁Zaragoza	-10.52
eza	-10.5204
▁pela	-10.5206
tipo	-10.5207
94	-10.5211
▁rexional	-10.5212
field	-10.5214
▁Stu	-10.5215
▁mandato	-10.5216
▁seca	-10.5217
▁hipo	-10.5217
▁redes	-10.522
▁afecta	-10.5221
▁dalgunha	-10.5223
▁espírito	-10.5223
▁cadro	-10.5227
▁informe	-10.523
▁xurdi	-10.5231
▁pena	-10.5238
▁autónoma	-10.5241
▁colaborou	-10.5241
▁liberal	-10.5246
ores	-10.5252
▁hu	-10.5252
▁ingleses	-10.5253
▁cruceiro	-10.5253
▁comezar	-10.5255
▁seren	-10.5259
▁iniciativa	-10.5263
dios	-10.5263
ifica	-10.5265
age	-10.5266
▁ordena	-10.5267
tum	-10.5267
▁denomina	-10.5269
▁Carballo	-10.527
23	-10.5272
▁estable	-10.5273
▁recinto	-10.5276
▁diñeiro	-10.5277
▁celta	-10.5279
iros	-10.5281
39	-10.5282
llón	-10.5284
▁actúa	-10.5286
▁anuncia	-10.529
▁complexos	-10.529
▁debaixo	-10.529
▁cita	-10.529
doras	-10.5295
▁1921	-10.5296
▁verdadeiro	-10.5298
06	-10.5299
▁evoluciona	-10.5299
▁Gal	-10.5302
▁Dia	-10.5303
▁privado	-10.5305
▁moral	-10.5309
reo	-10.531
▁petróleo	-10.5312
▁solitario	-10.5313
▁Pra	-10.5313
ntar	-10.5314
xencia	-10.5315
tanse	-10.5316
fos	-10.5321
▁típico	-10.5323
▁Sport	-10.5324
▁organiza	-10.5329
▁Mos	-10.533
▁Federico	-10.533
▁ciencias	-10.5332
▁escasa	-10.5333
▁PC	-10.5334
▁Gil	-10.5336
▁Turquía	-10.5336
▁enlace	-10.5339
▁coidado	-10.5339
08	-10.5341
▁considérase	-10.5342
▁quiza	-10.5344
▁55	-10.5344
rdi	-10.5345
cept	-10.5346
xos	-10.535
74	-10.5353
▁mesmos	-10.5354
pal	-10.5354
▁alumno	-10.5355
▁usan	-10.5356
▁sufrir	-10.536
▁Viena	-10.5364
▁dependendo	-10.5366
▁Comunista	-10.5367
▁discos	-10.5367
▁enfronta	-10.5371
iñeira	-10.5374
78	-10.5375
▁celebrada	-10.5378
aceae	-10.5387
nne	-10.539
cemento	-10.5391
▁axente	-10.5394
▁ocupar	-10.5397
▁Mc	-10.5398
▁marido	-10.5399
▁contar	-10.5401
▁mitoloxía	-10.5402
▁utilizan	-10.5405
▁tódala	-10.5407
▁popularidade	-10.541
dan	-10.5411
lho	-10.5412
▁altera	-10.5412
▁acabar	-10.5413
rica	-10.5414
▁lanza	-10.5414
▁xornada	-10.5414
▁sonora	-10.5415
oides	-10.5418
ótico	-10.5418
▁Aeroporto	-10.5419
▁pri	-10.5423
pina	-10.5424
▁unida	-10.5424
▁Suráfrica	-10.5425
▁Cam	-10.5431
▁rep	-10.5432
▁sim	-10.5433
▁característico	-10.5437
edo	-10.5448
▁colabora	-10.5453
▁recibi	-10.5458
tadas	-10.546
óxeno	-10.546
▁escritura	-10.5461
▁palacio	-10.5463
rm	-10.5466
iña	-10.547
lev	-10.547
▁Noruega	-10.5474
▁aeroliña	-10.5474
36	-10.5474
▁1926	-10.5475
▁poñer	-10.5477
▁Vázquez	-10.548
▁65	-10.5481
▁continúa	-10.5483
▁especiais	-10.5486
▁dando	-10.5486
▁come	-10.5486
▁adapta	-10.549
▁Antón	-10.5492
▁rural	-10.5493
▁xusto	-10.5498
▁publicacións	-10.5498
pos	-10.5499
▁Gales	-10.5499
▁ría	-10.5502
▁disp	-10.5507
mbri	-10.5508
▁crónica	-10.551
▁cama	-10.5518
▁Castelo	-10.5523
deiro	-10.5525
▁puidese	-10.5528
pha	-10.5528
lim	-10.5529
▁carro	-10.553
▁descrito	-10.5531
▁Gómez	-10.5534
▁longas	-10.5535
▁prote	-10.5545
▁compite	-10.5554
▁ficción	-10.5556
▁Bri	-10.5557
▁xeográfica	-10.5559
▁cito	-10.5559
▁esca	-10.5561
ute	-10.5561
▁actuar	-10.5562
▁causar	-10.5562
▁cociña	-10.5563
▁Ánxeles	-10.5567
ning	-10.5571
▁Hor	-10.5571
illo	-10.5574
▁décimo	-10.5583
▁cer	-10.5583
▁entanto	-10.5583
kov	-10.5584
gun	-10.5586
▁gar	-10.5589
▁chegan	-10.5591
dge	-10.5593
▁transición	-10.5595
▁disposición	-10.5595
▁deportiva	-10.5595
▁concentra	-10.5596
▁Ángel	-10.5601
▁crecente	-10.5603
dición	-10.5604
▁civilización	-10.5605
dente	-10.5606
▁líderes	-10.5609
81	-10.561
fancia	-10.561
91	-10.5619
▁estratexia	-10.5619
▁Rafael	-10.5619
▁apo	-10.562
▁poboado	-10.5625
pón	-10.5626
22	-10.5628
▁tribos	-10.5628
▁American	-10.5629
hor	-10.563
real	-10.5631
▁revolta	-10.5632
cl	-10.5636
▁fósiles	-10.5637
▁chámase	-10.5644
▁alberga	-10.5644
ik	-10.5645
▁Poli	-10.5648
▁amarela	-10.5656
▁entrevista	-10.5659
mul	-10.566
▁derradeiro	-10.5662
duc	-10.5664
▁determinado	-10.5666
▁monta	-10.5667
ο	-10.5668
ceno	-10.5673
▁universo	-10.5675
▁dominante	-10.568
▁coalición	-10.5681
▁ditadura	-10.5688
▁fogar	-10.5691
zas	-10.5694
▁prepara	-10.5695
▁tren	-10.5699
tru	-10.57
▁idioma	-10.5702
▁piano	-10.571
cua	-10.5712
▁arriba	-10.5713
▁definitivamente	-10.5714
vá	-10.5716
▁mellorar	-10.5717
▁dimensións	-10.5718
pri	-10.5719
bb	-10.5719
gres	-10.5722
▁canón	-10.5722
32	-10.5724
ple	-10.5724
▁sucede	-10.5725
▁fama	-10.5727
▁Thi	-10.5728
▁eléctrico	-10.5729
lares	-10.5729
▁sexto	-10.5731
éndose	-10.5732
▁Banco	-10.5739
▁regreso	-10.574
▁nervio	-10.5741
▁sabor	-10.5744
▁Mark	-10.5744
top	-10.5747
▁representan	-10.5748
▁ATP	-10.575
ici	-10.575
69	-10.5751
xico	-10.5752
▁peri	-10.5754
▁Alto	-10.5755
▁dedicado	-10.5757
bí	-10.5759
▁decide	-10.576
▁euros	-10.5763
▁espada	-10.5765
▁bloque	-10.5767
▁divíde	-10.5767
▁neuro	-10.577
▁fila	-10.577
sign	-10.5772
▁acerca	-10.5775
▁habilidade	-10.5776
▁autonomía	-10.578
▁Chu	-10.5783
▁César	-10.5786
▁incluía	-10.5786
-6	-10.5787
▁menciona	-10.5791
▁organizado	-10.5792
▁civís	-10.5792
▁Im	-10.5792
54	-10.5803
▁Senna	-10.5807
ε	-10.5811
cur	-10.5815
▁finada	-10.5819
▁substitución	-10.582
▁Love	-10.582
▁latina	-10.5821
▁dieta	-10.5824
▁serviu	-10.5824
▁matemáticas	-10.5826
▁Riso	-10.5828
▁explicar	-10.5828
▁XI	-10.583
▁Gallego	-10.583
selle	-10.5835
▁Participo	-10.5842
▁festival	-10.5845
▁Alba	-10.5847
tua	-10.5848
84	-10.5849
▁grosa	-10.585
▁Hospital	-10.5855
▁promoción	-10.5855
ric	-10.5855
▁ión	-10.5856
▁sorte	-10.5857
▁administra	-10.5861
▁testemuña	-10.5861
ken	-10.5865
▁Smith	-10.5867
▁morto	-10.5868
▁vasco	-10.5868
▁Superior	-10.5874
64	-10.5876
▁dedicada	-10.5877
▁caeu	-10.5877
▁incrementa	-10.5879
▁Dentro	-10.588
▁*	-10.5886
cip	-10.5887
▁mantemento	-10.5888
▁Gre	-10.5888
ille	-10.5888
▁1912	-10.5888
▁frase	-10.589
▁explotación	-10.5891
▁Terceira	-10.5893
▁recupera	-10.5893
nti	-10.5893
▁crítico	-10.5898
neo	-10.59
▁Col	-10.5905
▁nobreza	-10.5907
pó	-10.5909
▁establecemento	-10.5909
▁doenza	-10.591
▁1927	-10.5913
▁incluír	-10.5914
tte	-10.5919
ill	-10.5922
▁investi	-10.5924
▁rea	-10.5925
▁humor	-10.5931
▁durou	-10.5931
▁santo	-10.5936
▁Port	-10.594
eda	-10.5943
▁estou	-10.5949
▁raíces	-10.5949
▁ka	-10.595
cular	-10.5957
▁β	-10.5958
▁Harry	-10.5959
▁descuberta	-10.5959
▁Dous	-10.5961
▁tiro	-10.5963
▁percorre	-10.5964
▁operación	-10.5967
▁destrución	-10.5975
▁instituto	-10.5977
▁Gor	-10.598
▁vivos	-10.5983
▁posicións	-10.5985
pio	-10.5987
▁Royal	-10.5988
▁escuro	-10.5992
▁tubo	-10.5997
ábeis	-10.5998
▁hiper	-10.5999
izados	-10.6
▁canadense	-10.6
▁antigüidade	-10.6006
▁cristianismo	-10.6006
ides	-10.6008
▁comparación	-10.6009
▁dalgúns	-10.6011
▁mozo	-10.6013
▁bomba	-10.6014
▁portas	-10.6014
▁r	-10.6014
▁trinta	-10.6017
▁feminina	-10.6019
ib	-10.6022
▁cousa	-10.6025
▁rebelión	-10.6025
ná	-10.6029
▁Naceu	-10.6032
uda	-10.6033
fon	-10.6033
▁voltas	-10.6033
▁arre	-10.6034
▁básica	-10.6038
▁perspectiva	-10.6038
▁ur	-10.6039
sur	-10.6042
▁combina	-10.6044
▁top	-10.6044
vent	-10.6047
59	-10.6049
▁europeas	-10.6051
▁tese	-10.6053
▁sinala	-10.6056
▁posíbel	-10.6058
▁positiva	-10.6059
▁quedar	-10.6061
▁West	-10.6062
▁miles	-10.6064
▁mínimo	-10.6064
▁queima	-10.6064
emos	-10.6065
▁exclusivamente	-10.6066
52	-10.6067
fic	-10.6069
▁→	-10.607
72	-10.6071
ular	-10.6072
▁Sto	-10.6072
xía	-10.6075
▁punk	-10.6075
phi	-10.6076
▁americana	-10.6077
▁Alta	-10.6077
66	-10.6082
▁raios	-10.6084
▁1900	-10.6086
▁Granada	-10.6087
▁radical	-10.6088
pia	-10.6088
▁relato	-10.6088
▁modernos	-10.6089
▁São	-10.609
▁Día	-10.6094
▁partida	-10.6096
▁Toledo	-10.6096
MP	-10.61
íase	-10.61
▁mecánica	-10.6102
▁Desta	-10.6108
ala	-10.6109
gem	-10.6109
rú	-10.611
▁alfa	-10.611
berto	-10.6111
cili	-10.6113
anos	-10.6113
▁consideran	-10.6113
mica	-10.6114
▁Cos	-10.6115
ô	-10.6115
▁Ribeira	-10.6116
ulle	-10.6117
▁recon	-10.6119
▁femia	-10.6125
▁existentes	-10.6125
chen	-10.6126
▁Casou	-10.613
▁except	-10.6131
fosfato	-10.6132
▁Mari	-10.6133
▁Sala	-10.6133
82	-10.6137
▁Les	-10.6138
▁asociado	-10.6139
▁Hy	-10.6141
▁Henry	-10.6142
κ	-10.6147
▁Sistema	-10.6147
ál	-10.6149
▁favorece	-10.6149
▁aplicacións	-10.615
▁exemplos	-10.6152
▁manuscrito	-10.6154
▁Jackson	-10.6154
▁visible	-10.6154
mont	-10.6155
▁patrón	-10.6157
▁altos	-10.616
▁ataca	-10.6161
▁fondos	-10.6166
▁introdución	-10.6167
▁claramente	-10.6167
ndido	-10.6175
▁investigadores	-10.6177
▁confi	-10.6179
▁ángulo	-10.618
▁Dinamarca	-10.6186
▁pilota	-10.6187
▁presta	-10.6189
▁pico	-10.6193
▁intensa	-10.6195
xénese	-10.6198
▁mortos	-10.62
itos	-10.6203
▁ferrocarril	-10.6206
▁Ricardo	-10.6206
▁álbums	-10.6206
▁Burgos	-10.6209
pes	-10.6211
▁concelleiro	-10.6216
yer	-10.6221
▁encargado	-10.6222
die	-10.6223
▁statu	-10.6225
▁che	-10.6228
▁viva	-10.623
▁bizantino	-10.6232
uch	-10.6232
tando	-10.6232
▁Díaz	-10.6236
▁eixo	-10.6238
▁nordeste	-10.6238
▁establece	-10.6238
▁debería	-10.6239
▁Rose	-10.6241
ños	-10.6248
▁utilizou	-10.6251
▁Colombia	-10.6251
imo	-10.6252
▁Rexión	-10.6258
▁refírese	-10.6258
▁1916	-10.6259
▁conecta	-10.6267
▁cálculo	-10.6271
▁abandona	-10.6271
▁constitúen	-10.6271
▁Agora	-10.6272
este	-10.6273
▁Ucraína	-10.6277
▁diversidade	-10.6277
▁43	-10.6278
▁voce	-10.6279
▁espi	-10.6283
▁inferiore	-10.6285
▁dirixir	-10.6286
▁provincial	-10.6286
▁historiadores	-10.6288
▁observar	-10.6289
41	-10.629
▁norma	-10.6291
ento	-10.6292
▁asentamento	-10.6294
axe	-10.6295
▁circunstancia	-10.6297
▁Batalla	-10.6297
up	-10.6298
soma	-10.6299
▁Coroa	-10.6299
▁xuízo	-10.63
az	-10.6301
н	-10.6302
ture	-10.6304
▁lixeiramente	-10.6304
▁referir	-10.6307
▁est	-10.6309
▁mira	-10.6312
▁conforma	-10.6315
▁Pol	-10.6316
▁EUA	-10.6317
▁Grand	-10.6318
▁igrexas	-10.6319
▁indi	-10.6321
▁condenado	-10.6322
▁típica	-10.6323
▁elimina	-10.6331
qua	-10.6331
▁máquina	-10.6332
▁Tres	-10.6336
▁participante	-10.6338
cis	-10.6339
▁colo	-10.6339
▁relevo	-10.6343
▁significativo	-10.6345
▁infantil	-10.6349
▁editorial	-10.635
▁Cra	-10.6355
dú	-10.6355
▁Tribunal	-10.6358
▁gris	-10.6359
▁compara	-10.636
▁masculino	-10.6363
▁ave	-10.6363
▁árabes	-10.6363
▁Yo	-10.6364
cci	-10.6365
▁Ye	-10.6366
▁Distrito	-10.6369
▁declaración	-10.6375
▁xenético	-10.6376
mbre	-10.6378
▁músicos	-10.6382
▁osíxeno	-10.6382
ticos	-10.6383
gle	-10.6385
▁mudou	-10.6385
49	-10.6387
pel	-10.6389
▁Racing	-10.6389
▁min	-10.639
▁espazos	-10.6392
33	-10.6392
ade	-10.6409
▁44	-10.6415
▁antíxeno	-10.6415
▁irregular	-10.6415
▁cabaleiro	-10.6417
▁agrupa	-10.642
▁levaron	-10.6424
lie	-10.6425
pt	-10.6425
mel	-10.6429
▁α	-10.6433
▁levaba	-10.6434
▁semellantes	-10.6434
llos	-10.6441
indo	-10.6441
89	-10.6442
▁prop	-10.6443
▁EP	-10.6443
▁lava	-10.6451
br	-10.6453
▁Bos	-10.6454
▁alma	-10.6455
▁depósito	-10.6455
▁síntomas	-10.6456
▁invadi	-10.6469
▁Constantinopla	-10.6469
▁Córdoba	-10.6475
oma	-10.648
stan	-10.6482
▁ideal	-10.6484
▁levado	-10.6485
▁Kar	-10.6488
▁Boston	-10.6491
▁Fundación	-10.6493
▁41	-10.6498
42	-10.6499
olóxico	-10.65
▁presentación	-10.6501
▁Lalín	-10.6506
▁Fronte	-10.6506
inte	-10.6509
low	-10.6509
▁pés	-10.6509
▁medra	-10.651
▁alimentación	-10.6514
▁Armada	-10.6515
-4	-10.6518
▁Unidas	-10.6519
▁Rey	-10.6522
▁riba	-10.6522
fin	-10.6526
▁Cou	-10.6526
▁Valle	-10.6531
▁Existe	-10.6539
AP	-10.654
▁Green	-10.654
xil	-10.6541
▁veciña	-10.6542
▁Valladolid	-10.6542
▁extinción	-10.6542
▁finalizar	-10.6543
clina	-10.6546
▁apoia	-10.6556
▁Hall	-10.6558
cel	-10.6558
mado	-10.656
fen	-10.6561
38	-10.6561
rg	-10.6563
▁Chantada	-10.6563
quí	-10.6563
▁erro	-10.657
▁seguen	-10.6572
▁identificar	-10.6573
▁Ross	-10.6573
liña	-10.6575
▁series	-10.6575
ach	-10.6578
▁gaña	-10.6583
▁flu	-10.6584
▁Karl	-10.6585
▁organizacións	-10.6587
▁competir	-10.6588
▁macho	-10.659
▁Mei	-10.6595
rey	-10.6595
ctu	-10.6596
▁roupa	-10.6596
▁empresario	-10.6597
▁celulares	-10.6598
bli	-10.66
▁ondas	-10.6604
▁difusión	-10.6605
▁trazos	-10.6605
79	-10.6612
▁comen	-10.6612
ska	-10.6613
▁prazo	-10.6614
cion	-10.6617
▁visual	-10.6617
▁mutacións	-10.662
▁quinta	-10.662
▁Yu	-10.6628
▁puideron	-10.663
▁medi	-10.6631
▁sólido	-10.6638
▁independentes	-10.6642
▁copia	-10.6643
▁colexio	-10.6643
▁apertura	-10.6644
graf	-10.665
▁terzo	-10.6651
▁Enrique	-10.6652
▁outeiro	-10.6652
▁viaxa	-10.6656
▁quedan	-10.6658
▁Mai	-10.6659
▁escu	-10.6659
▁regras	-10.6662
▁filo	-10.6668
▁plena	-10.667
▁McLaren	-10.6671
▁federal	-10.6671
▁rece	-10.6676
▁compañeiros	-10.6678
▁sobrevivir	-10.668
▁mensaxe	-10.6681
▁coisa	-10.6682
▁cruza	-10.6683
gá	-10.6684
▁períodos	-10.6684
▁equilibrio	-10.6685
▁gal	-10.6691
▁Rugby	-10.6691
▁bur	-10.6691
▁determinada	-10.6695
▁escritora	-10.6696
▁variedades	-10.6697
▁facto	-10.6698
▁Domingo	-10.6698
icas	-10.6699
don	-10.6703
▁cualifica	-10.6704
zado	-10.6704
NA	-10.6705
▁sí	-10.6706
▁dirixente	-10.6706
▁mecanismos	-10.671
▁Ali	-10.6713
▁espectro	-10.6713
▁Chan	-10.6715
▁describir	-10.6717
▁programación	-10.6718
▁cana	-10.6719
▁glicosa	-10.6721
▁proto	-10.6724
oide	-10.6724
▁inten	-10.6727
▁recuperación	-10.6728
itz	-10.6731
▁regresa	-10.6732
▁conseguiron	-10.6748
ego	-10.6748
▁aqui	-10.6749
▁protexer	-10.6752
▁Bat	-10.6752
▁Príncipe	-10.6759
▁combustible	-10.6759
fort	-10.6761
▁Cy	-10.6764
▁amizade	-10.6766
▁detido	-10.6771
▁sentimento	-10.6773
▁Maior	-10.6779
▁laterais	-10.678
▁Fonte	-10.6786
▁pertencen	-10.6788
▁choiva	-10.6788
37	-10.6788
▁Frank	-10.6791
cea	-10.6793
▁cabe	-10.6794
▁seguida	-10.6794
▁nervioso	-10.6796
▁Sir	-10.6799
▁regulación	-10.6801
▁sintetiza	-10.6808
51	-10.6808
57	-10.6808
onia	-10.6811
▁compoñente	-10.6811
olóxica	-10.6812
▁actitude	-10.6814
▁Ste	-10.6818
31	-10.682
▁vapor	-10.6821
pet	-10.6829
line	-10.6831
▁disse	-10.6836
lino	-10.6837
▁novelas	-10.6838
▁procedemento	-10.6848
▁espectáculo	-10.6849
▁probabilidade	-10.6851
bou	-10.6851
▁electrónico	-10.6851
▁Sy	-10.6855
▁Milán	-10.6856
▁violencia	-10.6856
▁Blanco	-10.6857
▁suave	-10.6857
▁Sun	-10.6858
▁fortemente	-10.6859
▁bioloxía	-10.6859
44	-10.686
▁derrotado	-10.6861
▁exerce	-10.6862
▁brasileiro	-10.6863
lect	-10.6866
▁w	-10.6866
kar	-10.687
▁desaparición	-10.687
▁comandante	-10.687
▁1913	-10.6872
▁Sim	-10.6872
dando	-10.6873
ς	-10.6876
bé	-10.6877
▁Edward	-10.6877
▁controlar	-10.6877
▁46	-10.6879
tea	-10.688
▁mol	-10.6881
▁estima	-10.6882
▁irlandés	-10.6884
▁defender	-10.6884
▁salto	-10.6886
▁opción	-10.6886
▁históricos	-10.6893
▁públicas	-10.6895
▁descendentes	-10.6897
46	-10.6897
trop	-10.6898
▁Dor	-10.69
▁coloca	-10.6902
▁libra	-10.6902
dico	-10.6902
▁átomos	-10.6904
árono	-10.6905
▁revistas	-10.6905
▁Ei	-10.6905
side	-10.6906
▁Il	-10.6907
▁sectores	-10.6908
▁GP	-10.6909
xene	-10.6912
▁conflitos	-10.6915
▁libres	-10.6916
cub	-10.6919
▁publicar	-10.692
uais	-10.6924
▁sucesión	-10.6925
▁Home	-10.6928
posta	-10.693
▁columna	-10.6931
▁mañá	-10.6933
▁probabelmente	-10.6933
▁experimentos	-10.6935
▁Natural	-10.694
▁tumba	-10.6941
▁ali	-10.6941
lóxico	-10.6944
aca	-10.6945
ástica	-10.6947
▁té	-10.6951
▁galegas	-10.6952
▁apelido	-10.6953
▁deseñada	-10.6953
▁far	-10.6954
mico	-10.6955
▁beneficios	-10.6955
▁xorde	-10.6962
▁Ram	-10.6967
▁Xoga	-10.6972
▁preciso	-10.6974
nger	-10.6975
cat	-10.6982
▁musulmáns	-10.6985
▁salva	-10.6987
▁melhor	-10.6989
▁Mou	-10.699
lidade	-10.6993
▁Zi	-10.6998
73	-10.7
wan	-10.7001
▁beta	-10.7002
▁profesiona	-10.7004
▁retirouse	-10.7007
bla	-10.7008
▁socialista	-10.7013
reiro	-10.7014
▁esperanza	-10.7018
rato	-10.7018
▁contou	-10.7019
▁fun	-10.7019
ring	-10.7022
▁deserto	-10.7022
▁correntes	-10.7029
▁franquía	-10.7031
pido	-10.7034
▁Rh	-10.7035
▁Mora	-10.7037
▁ovo	-10.7038
▁Boy	-10.7038
▁metropolitana	-10.704
▁caer	-10.704
▁comunica	-10.7041
▁guión	-10.7042
▁aliados	-10.7043
▁coincide	-10.7045
▁desenvolvida	-10.7047
iona	-10.7049
shire	-10.7049
▁coincidi	-10.7052
▁Lan	-10.7052
▁bas	-10.7052
▁paralelo	-10.7053
▁nación	-10.7054
▁aleta	-10.7054
▁apunta	-10.7054
▁nazi	-10.7058
▁Mus	-10.706
tter	-10.7063
47	-10.7065
▁vexetación	-10.7066
▁zo	-10.7069
▁Max	-10.707
▁reparación	-10.7071
62	-10.7071
▁desenvolve	-10.7072
▁têm	-10.7073
▁evidencia	-10.7073
lly	-10.7075
▁pronuncia	-10.7076
▁estivero	-10.7077
▁resistente	-10.708
aña	-10.7083
lei	-10.7084
virus	-10.7085
ER	-10.7088
▁deuses	-10.7093
▁económicas	-10.7094
▁Pablo	-10.7094
▁profundo	-10.7094
▁bolsa	-10.7095
grama	-10.7097
mou	-10.71
▁rosa	-10.7106
▁territorial	-10.7108
▁outono	-10.711
rgo	-10.711
▁semella	-10.7117
▁tío	-10.7117
▁fácil	-10.7123
ich	-10.7127
▁Mol	-10.7134
▁You	-10.7144
uk	-10.7146
▁substrato	-10.7151
▁nobres	-10.7158
▁falecido	-10.7159
▁magn	-10.7162
icio	-10.7163
ende	-10.7164
▁require	-10.7167
éntase	-10.7172
τ	-10.7172
▁seguro	-10.7173
▁alterna	-10.7174
▁Long	-10.7178
art	-10.7178
▁armada	-10.718
▁asociada	-10.7185
43	-10.7185
▁Die	-10.7187
▁escritores	-10.7189
▁1905	-10.7189
▁pedi	-10.7193
eb	-10.7193
▁resolución	-10.7194
▁precursor	-10.7194
▁residuos	-10.7198
▁Vitoria	-10.7199
▁Andalucía	-10.7201
▁Jan	-10.7204
▁Cá	-10.7204
▁Federal	-10.7205
61	-10.7205
▁comedia	-10.7208
▁demostrou	-10.7208
71	-10.7213
▁Noia	-10.7215
sson	-10.7216
▁intercambio	-10.7216
▁defende	-10.7218
▁goberna	-10.7219
cie	-10.7224
▁cham	-10.7225
▁narra	-10.7225
▁cel	-10.7228
amente	-10.723
▁Arousa	-10.723
▁almacena	-10.7234
▁xudía	-10.7237
▁afluente	-10.7237
vul	-10.7241
▁democracia	-10.7245
hel	-10.7245
▁goza	-10.7249
▁Corte	-10.7251
▁abrangue	-10.7252
▁efectivo	-10.7252
▁columnas	-10.7253
▁quince	-10.7254
▁variante	-10.7258
▁Guinea	-10.7259
▁avanza	-10.7262
▁CE	-10.7266
▁comparti	-10.7266
▁Bull	-10.7269
ë	-10.7273
▁sitúase	-10.7273
yn	-10.7282
▁ge	-10.7284
corre	-10.7288
ted	-10.7289
▁Time	-10.7289
cula	-10.729
▁anal	-10.7291
▁Estadio	-10.7294
▁millón	-10.7294
izo	-10.7299
▁dise	-10.7299
rac	-10.7304
▁poderes	-10.7309
▁Camiño	-10.7311
▁adestra	-10.7315
ndra	-10.7316
▁substituír	-10.7316
▁podem	-10.7316
▁Tru	-10.7317
mora	-10.7318
▁terreos	-10.732
▁limitada	-10.7321
lación	-10.7321
▁cur	-10.7324
▁caracteriza	-10.7324
▁Ban	-10.7329
ificada	-10.7331
▁once	-10.7331
▁lagoa	-10.7338
grega	-10.7338
▁64	-10.7343
▁Premios	-10.7344
▁parcialmente	-10.7345
▁Comarca	-10.7348
tto	-10.7351
▁fins	-10.7352
▁une	-10.7352
▁Europeo	-10.7353
▁Euro	-10.7358
▁eliminar	-10.7358
▁extremos	-10.736
▁International	-10.736
ip	-10.7361
ógrafo	-10.7361
▁Tanto	-10.7362
▁White	-10.7362
▁contribución	-10.7364
63	-10.7371
▁Mala	-10.7372
lor	-10.7374
▁atopado	-10.7376
▁Forza	-10.7377
▁Dra	-10.7377
▁indio	-10.7381
▁abriu	-10.7384
CA	-10.7387
▁traxectoria	-10.7391
▁fabricante	-10.7392
▁rela	-10.7394
▁tenta	-10.7395
ow	-10.7396
▁Der	-10.7396
plan	-10.7399
▁enviar	-10.7399
idi	-10.7401
▁doutrina	-10.7404
▁Lemos	-10.7405
▁Ang	-10.7408
quino	-10.7411
▁licenza	-10.7411
▁facelo	-10.7411
▁Qua	-10.7413
▁reformas	-10.7413
▁Ant	-10.7414
▁Alberto	-10.7415
▁incendio	-10.7419
▁occidentais	-10.7419
▁despraza	-10.7421
ensa	-10.7423
para	-10.7426
▁‘	-10.7426
-10	-10.7426
▁Xer	-10.7432
▁Bilbao	-10.7433
▁posibles	-10.7437
▁concreto	-10.7442
▁dedica	-10.7442
▁norteamericano	-10.7443
▁Cultural	-10.7447
▁Riba	-10.7449
▁1909	-10.745
▁1911	-10.7451
▁Lúa	-10.7452
▁impulsa	-10.7455
▁papei	-10.7456
▁Lama	-10.7457
▁buscar	-10.7457
▁histo	-10.7459
▁Ferro	-10.746
rosa	-10.7461
▁bando	-10.7466
fri	-10.7469
▁duro	-10.7472
▁caracteríza	-10.7477
â	-10.7477
▁celebrado	-10.7478
▁estamos	-10.748
▁entender	-10.7482
RC	-10.7483
▁Wal	-10.7484
▁suxeito	-10.7485
▁acusado	-10.7485
ese	-10.7486
▁indíxenas	-10.7491
▁vitamina	-10.7493
▁récord	-10.75
▁flora	-10.75
▁Scott	-10.7502
▁Leste	-10.7503
▁electro	-10.7509
▁49	-10.7511
▁Aplausos	-10.7514
▁resolver	-10.7515
▁comer	-10.7521
▁superar	-10.7523
▁cumprir	-10.7523
▁xurdiu	-10.7524
▁aprobación	-10.7528
▁manifesta	-10.7528
wer	-10.7528
▁pagar	-10.7529
curso	-10.7531
gru	-10.7531
▁ordenou	-10.7532
lve	-10.7534
▁Baixa	-10.7534
▁variantes	-10.7534
▁ceo	-10.7535
▁subunidade	-10.7537
▁totalidade	-10.754
▁evita	-10.754
▁postos	-10.754
▁Win	-10.7544
cil	-10.7544
▁Venecia	-10.7545
▁vital	-10.7546
cita	-10.7546
▁Bol	-10.7546
uí	-10.7547
toloxía	-10.7548
▁pinturas	-10.7549
▁organizada	-10.755
▁definir	-10.7551
▁Internet	-10.7552
▁vaca	-10.7554
▁Perú	-10.7555
loxía	-10.7557
cora	-10.7559
lea	-10.756
▁mesmas	-10.7561
▁depois	-10.7563
▁Mur	-10.7564
▁cua	-10.7564
▁aparencia	-10.7567
lga	-10.7567
▁250	-10.7568
▁episodio	-10.7568
▁mariños	-10.7569
▁Stone	-10.7569
bes	-10.7572
▁cartas	-10.7574
idad	-10.7576
▁comezan	-10.7577
▁satélites	-10.758
▁universitario	-10.7581
▁aparello	-10.7581
▁Draft	-10.7582
zada	-10.7588
л	-10.7589
▁celébra	-10.7589
▁1906	-10.759
▁capas	-10.7597
▁relacionada	-10.7597
▁variacións	-10.7601
▁gobernante	-10.7601
▁reclama	-10.7603
▁repeti	-10.7603
▁medo	-10.7603
▁single	-10.7604
▁ficha	-10.7606
▁glándula	-10.7611
▁químico	-10.7613
▁designa	-10.7614
▁Cup	-10.7615
▁outorga	-10.7616
▁derivada	-10.7618
▁voto	-10.7619
lítica	-10.7619
▁Cámara	-10.7619
▁retrato	-10.7624
▁hidr	-10.7627
▁relixiosos	-10.7627
▁económicos	-10.7628
▁empregados	-10.7632
▁folla	-10.7632
▁Xurxo	-10.7634
▁barreira	-10.7634
▁chinés	-10.7634
▁mel	-10.7635
zer	-10.7636
▁Javier	-10.7641
▁soporte	-10.7642
ónimo	-10.7644
-0	-10.7645
dó	-10.7646
▁College	-10.7649
▁parlamento	-10.7649
▁castelá	-10.765
▁desexa	-10.7651
▁triunfo	-10.7656
▁poderoso	-10.7657
▁seco	-10.7657
▁percorrido	-10.7664
▁lectura	-10.7664
▁hetero	-10.7666
▁tralo	-10.7667
▁August	-10.7667
▁Jones	-10.767
▁marcou	-10.7671
▁electrónica	-10.7673
▁graos	-10.7676
pec	-10.7677
▁dizer	-10.7677
ward	-10.7677
nista	-10.768
▁viaxes	-10.768
▁Sab	-10.7693
ui	-10.7696
▁esforzos	-10.7699
▁deportivo	-10.7701
▁evidencias	-10.7709
▁minoría	-10.7709
▁amarelo	-10.7709
▁clasificar	-10.7714
▁circulación	-10.7716
▁vehículos	-10.7717
rena	-10.7718
▁seria	-10.7721
▁biolóxica	-10.7725
▁Dese	-10.7726
ándoa	-10.7727
ique	-10.7731
▁Nápoles	-10.7731
nzo	-10.7732
▁cuberto	-10.7732
▁faleceu	-10.7735
▁Spe	-10.7741
nó	-10.7744
▁Palma	-10.7746
▁Pai	-10.775
posto	-10.775
▁comenta	-10.7753
▁Schumacher	-10.7754
ítica	-10.7755
▁actuacións	-10.7761
▁aprecia	-10.7765
ef	-10.7766
▁It	-10.7766
tem	-10.7768
▁fría	-10.7768
SA	-10.7768
▁toneladas	-10.7769
▁paredes	-10.777
▁homo	-10.7772
ulou	-10.7776
▁vontade	-10.7784
▁reducida	-10.7785
▁muda	-10.7785
▁critica	-10.7786
▁episodios	-10.779
▁Facultade	-10.7792
▁1000	-10.7792
▁relixiosas	-10.7798
▁sanguíneo	-10.78
ificar	-10.7805
▁Xeorxia	-10.7807
▁universidades	-10.7808
▁Prost	-10.781
▁nativos	-10.7814
▁talvez	-10.7815
▁derivado	-10.7816
ríase	-10.7816
lou	-10.782
more	-10.7821
▁bota	-10.7821
▁abrir	-10.7822
▁levanta	-10.7822
▁franco	-10.7823
▁Emilio	-10.7824
▁produci	-10.7825
▁UEFA	-10.783
▁Lugares	-10.783
dán	-10.7833
▁próximas	-10.7833
▁Social	-10.7836
ciones	-10.7837
▁600	-10.7838
▁Xerusalén	-10.7838
▁Dio	-10.7839
▁arteria	-10.7841
▁Dr	-10.7843
▁Roberto	-10.7845
adamente	-10.7845
▁asuntos	-10.7847
iais	-10.7847
▁apareceron	-10.7848
▁estatal	-10.785
▁representada	-10.7852
▁participaron	-10.786
▁Game	-10.786
▁falantes	-10.7863
▁Mat	-10.7863
▁elaboración	-10.7864
▁47	-10.7864
▁monumento	-10.7867
▁ferido	-10.7868
▁fragmentos	-10.7869
▁Murcia	-10.7871
▁aprender	-10.7872
▁estacións	-10.7872
▁metro	-10.7873
▁Todo	-10.7876
▁oferta	-10.7879
edi	-10.788
▁ferramentas	-10.7881
▁creando	-10.7881
▁Ante	-10.7883
▁reforza	-10.7884
▁representado	-10.7886
porta	-10.7886
uti	-10.7889
▁regresar	-10.7891
▁oxíxeno	-10.7891
▁fundadores	-10.7894
▁fina	-10.7895
▁muscular	-10.7899
▁magnitude	-10.7899
▁falan	-10.7902
▁químicos	-10.7904
▁marcado	-10.7905
▁pasan	-10.7905
▁explicación	-10.7907
▁pur	-10.7907
▁graves	-10.7908
▁Carolina	-10.7908
mona	-10.7909
estra	-10.791
▁Libro	-10.7911
loxicamente	-10.7916
▁normas	-10.792
nc	-10.7921
▁restauración	-10.7922
xido	-10.7924
xica	-10.7925
▁Esa	-10.7927
▁Mario	-10.7929
mun	-10.7929
▁move	-10.793
▁PSOE	-10.7931
-200	-10.7932
mbar	-10.7933
▁axentes	-10.7936
▁bate	-10.7936
▁humanas	-10.7937
▁humanidade	-10.7939
▁introduciu	-10.794
ponse	-10.7941
▁Tan	-10.7943
▁Foron	-10.7946
▁nomeada	-10.7946
▁convento	-10.7947
▁Escu	-10.7947
▁pretende	-10.7949
▁himno	-10.7953
▁cae	-10.7953
▁51	-10.7956
úl	-10.7956
ris	-10.7956
▁moza	-10.7958
▁Estudos	-10.7961
ile	-10.7962
▁incorpora	-10.7966
uma	-10.797
▁esforzo	-10.7971
▁Lotus	-10.7974
hy	-10.7975
▁cin	-10.7975
ndida	-10.7976
▁meridional	-10.7976
▁recta	-10.7977
▁preferi	-10.7977
▁pavillón	-10.7984
▁extensa	-10.7988
▁Zu	-10.7988
▁adopta	-10.7989
▁rival	-10.7992
nho	-10.7992
▁patrimonio	-10.7992
poñer	-10.7994
▁Organización	-10.7994
▁via	-10.7997
fini	-10.8
▁soberanía	-10.8
▁permitía	-10.8
▁construíu	-10.8002
cht	-10.8005
▁minerais	-10.8007
▁soviética	-10.8007
▁placa	-10.8014
▁Nor	-10.8014
▁Wil	-10.8016
▁específica	-10.8023
▁Conferencia	-10.8025
int	-10.8026
▁Deza	-10.8028
▁pica	-10.8029
ário	-10.8029
▁subfamilia	-10.8031
▁reducido	-10.8031
▁fornece	-10.8031
ctivo	-10.8031
▁jo	-10.8032
▁familiares	-10.8032
▁Joan	-10.8037
▁alcanzou	-10.8039
▁masas	-10.8044
▁tentar	-10.8048
stein	-10.8052
▁acumula	-10.8054
▁position	-10.8054
▁Darwin	-10.8054
burgo	-10.8054
▁existir	-10.8055
ómico	-10.8058
▁secundario	-10.806
▁execución	-10.8062
▁Católica	-10.8062
▁52	-10.8064
AC	-10.8065
▁Teo	-10.8066
iños	-10.8067
▁Iugoslavia	-10.807
▁pat	-10.8074
▁determina	-10.8075
quia	-10.8075
▁animación	-10.8078
adores	-10.808
ográfica	-10.8081
sistencia	-10.8082
▁designado	-10.8083
▁decreto	-10.8084
▁páxina	-10.8085
▁Outeiro	-10.8086
▁gravar	-10.8089
▁Normal	-10.809
▁1908	-10.8095
▁realización	-10.8099
▁enlaces	-10.8099
▁Hamilton	-10.8101
▁retorno	-10.8101
▁vendas	-10.8102
▁acompañado	-10.8107
▁Ty	-10.8107
▁Montes	-10.8108
▁igualmente	-10.8108
▁actores	-10.8109
bá	-10.811
eri	-10.8115
▁causada	-10.8117
▁Música	-10.8117
né	-10.8117
▁sinxela	-10.8125
▁disputar	-10.8126
▁rexeita	-10.8126
▁distinguir	-10.8127
▁rodea	-10.8128
▁120	-10.8129
▁Clo	-10.8132
▁migración	-10.8132
▁Serie	-10.8133
▁Departamento	-10.8133
▁protector	-10.8133
remos	-10.8134
win	-10.8134
▁bem	-10.8137
cker	-10.8137
▁mariña	-10.8139
▁quedaron	-10.814
▁éxitos	-10.8141
▁Fal	-10.8143
▁firma	-10.8143
▁positivo	-10.8147
▁Biblioteca	-10.8148
▁Océano	-10.8148
áns	-10.8149
dem	-10.8152
▁agrícola	-10.8158
▁1915	-10.8158
▁mostrar	-10.816
▁pediu	-10.8162
terra	-10.8163
nor	-10.8166
▁lados	-10.8166
▁edita	-10.8167
clo	-10.817
▁estre	-10.8171
▁imita	-10.8174
▁Corea	-10.8177
▁encóntra	-10.818
▁Educación	-10.818
▁Pertence	-10.818
▁prima	-10.8183
▁devandito	-10.8188
▁elixida	-10.8188
▁vivían	-10.8189
dá	-10.819
puña	-10.819
▁interacción	-10.8191
riña	-10.8191
▁Tha	-10.8192
▁madura	-10.8194
▁canles	-10.8195
▁boxe	-10.8198
▁exerceu	-10.8199
▁Island	-10.8201
▁dixital	-10.8204
BA	-10.8204
ord	-10.8205
▁declarado	-10.8206
р	-10.8207
▁abre	-10.8209
▁Roger	-10.821
▁preparación	-10.8215
telo	-10.8218
▁Bai	-10.8218
▁calcio	-10.8219
▁penetra	-10.8221
▁importa	-10.8221
▁iniciar	-10.8222
▁baséa	-10.8228
▁remate	-10.8228
▁Espe	-10.8228
▁medir	-10.8232
▁doutro	-10.8233
▁administrativo	-10.8234
nny	-10.8234
▁cabalo	-10.8235
▁intelectual	-10.8235
▁petición	-10.8235
▁protestante	-10.8236
▁páxinas	-10.8236
▁Ami	-10.8239
▁matemática	-10.8241
▁financeiro	-10.8243
▁passa	-10.8248
▁avó	-10.825
č	-10.8251
▁habita	-10.8252
nan	-10.8256
▁encontran	-10.8257
táronse	-10.8259
▁tribo	-10.826
▁Praza	-10.8263
▁limitado	-10.8265
tería	-10.8268
▁fallo	-10.827
▁Ford	-10.8272
tim	-10.8274
▁executivo	-10.8275
▁rol	-10.8278
▁ocupada	-10.8282
▁matriz	-10.8283
▁automóbiles	-10.8284
▁Senado	-10.8286
▁carto	-10.8288
▁falla	-10.8291
▁merca	-10.8292
▁muro	-10.8293
cultura	-10.8295
▁nomeamento	-10.8295
▁nega	-10.8296
▁Otero	-10.8296
cent	-10.8297
▁ingresou	-10.8302
ky	-10.8303
▁públicos	-10.8305
▁establecido	-10.8308
▁Sea	-10.831
rela	-10.8311
▁Epi	-10.8311
▁fases	-10.8312
GA	-10.8315
▁Cádiz	-10.8315
▁afirmou	-10.8315
▁Deputación	-10.8315
▁predi	-10.8316
hl	-10.8318
▁edicións	-10.8319
rus	-10.832
oc	-10.8329
▁uniuse	-10.8329
guer	-10.8329
▁síndrome	-10.8331
▁Romanía	-10.8333
▁define	-10.8334
hen	-10.8335
▁fuxir	-10.8336
▁Ás	-10.8338
▁sofre	-10.8339
▁aniversario	-10.8339
▁centrais	-10.8341
quera	-10.8341
izadas	-10.8343
▁numa	-10.8344
▁debutou	-10.8346
▁Bot	-10.8349
▁z	-10.8351
▁definitiva	-10.8352
▁estava	-10.8352
▁revolucionario	-10.8354
▁disolución	-10.8355
▁seleccionado	-10.8355
▁lagos	-10.8357
fina	-10.8359
▁doenzas	-10.8361
▁Spa	-10.8363
▁utilización	-10.8365
▁definida	-10.8366
pon	-10.8366
nía	-10.8367
▁noso	-10.8369
▁sae	-10.8371
▁Flor	-10.8371
▁Char	-10.8376
leg	-10.8381
▁BNG	-10.8381
far	-10.8385
▁placas	-10.8385
▁inimigo	-10.8391
▁uniforme	-10.8391
▁chamar	-10.8394
▁Alfonso	-10.8396
ífico	-10.8396
▁froitos	-10.8397
▁cepa	-10.8397
▁Colo	-10.84
▁fundamentais	-10.8404
▁Hel	-10.8404
▁asento	-10.8406
RA	-10.8407
▁Tivo	-10.8409
▁Bon	-10.8411
▁compa	-10.8413
▁identifica	-10.8414
rar	-10.8417
▁arxentino	-10.842
▁Sé	-10.8423
▁ideoloxía	-10.8428
vert	-10.8428
uco	-10.843
ándolle	-10.8433
▁Compañía	-10.8436
▁pertencentes	-10.8436
rec	-10.844
▁lidera	-10.8441
▁funcional	-10.8442
ū	-10.8444
▁pad	-10.8446
▁abundante	-10.8452
▁vocalista	-10.8455
▁heroe	-10.8461
▁ferida	-10.8462
vil	-10.8462
sch	-10.847
ret	-10.8475
▁catalá	-10.8476
▁Fran	-10.8477
▁Municipal	-10.8477
▁coñécese	-10.8477
▁facilita	-10.8478
▁pastor	-10.8482
▁Croacia	-10.8485
▁engadir	-10.8485
▁Colexio	-10.8485
ciano	-10.8487
▁prato	-10.8488
▁escenas	-10.8489
▁nitróxeno	-10.8493
▁relevante	-10.8493
▁cómpre	-10.8493
▁Aba	-10.8498
▁recoñecer	-10.8499
LA	-10.85
▁aceptou	-10.8502
viv	-10.8504
▁adestramento	-10.8505
aco	-10.8508
▁1907	-10.8512
.500	-10.8512
▁princesa	-10.8518
▁respecta	-10.8518
▁1904	-10.852
arios	-10.8521
▁atopaba	-10.8522
▁relatos	-10.8524
▁levada	-10.8526
▁transferencia	-10.8526
▁describiu	-10.8527
▁implicado	-10.8528
▁caracteres	-10.853
▁inf	-10.8533
▁evolutiva	-10.8534
▁estreou	-10.8535
sha	-10.8536
▁propuxo	-10.8536
IC	-10.8538
▁herdanza	-10.8543
▁asegurar	-10.8546
▁etapas	-10.8547
▁Land	-10.8549
▁pago	-10.855
▁contorna	-10.8551
vina	-10.8551
▁condena	-10.8553
umi	-10.8553
▁Hunt	-10.8555
▁culturas	-10.8556
▁viña	-10.8558
▁Macedonia	-10.8559
▁fluído	-10.8559
▁Anna	-10.856
▁semellanza	-10.856
▁escravos	-10.856
▁tinha	-10.856
ium	-10.856
▁800	-10.8562
▁Venezuela	-10.8567
▁United	-10.8567
▁Porta	-10.8568
▁Ano	-10.8573
bula	-10.8575
▁australiano	-10.8576
reira	-10.8579
ama	-10.858
▁definido	-10.858
▁barra	-10.8582
▁Garda	-10.8585
▁bos	-10.859
▁imaxina	-10.859
lización	-10.8592
▁poboada	-10.8592
▁integrado	-10.8595
▁Negro	-10.8596
▁académico	-10.86
plasto	-10.86
▁alcance	-10.8601
▁feitas	-10.8605
▁lanzada	-10.8608
▁Brown	-10.8608
▁chinesa	-10.8609
gma	-10.8612
▁impostos	-10.8615
▁sucedeu	-10.8615
▁posuía	-10.8617
▁Bob	-10.8623
▁Ob	-10.8623
ate	-10.8624
▁Rai	-10.8626
▁libera	-10.8629
▁cova	-10.8633
▁54	-10.8634
▁primario	-10.8635
ding	-10.8636
▁maioritaria	-10.864
▁Carmen	-10.8641
▁miña	-10.8641
▁adoptou	-10.8641
▁porcentaxe	-10.8649
hid	-10.8651
íbel	-10.8656
▁asenta	-10.8658
ø	-10.8658
▁evidente	-10.8658
▁Medicina	-10.8661
▁vence	-10.8663
ificou	-10.8664
▁audiencia	-10.8666
▁sufri	-10.8667
érica	-10.867
▁negocio	-10.8672
dense	-10.8673
▁neto	-10.8674
▁fichou	-10.8675
▁Spi	-10.8677
▁acontece	-10.8678
▁AC	-10.868
ug	-10.8681
hé	-10.8682
▁beleza	-10.8683
▁Association	-10.8683
▁za	-10.8685
▁fosfato	-10.8686
▁colectivo	-10.8686
▁especialista	-10.869
▁cráter	-10.8691
mifinais	-10.8691
ith	-10.8693
bón	-10.8693
glo	-10.8695
▁parroquial	-10.8696
ícula	-10.8697
▁pregunta	-10.8699
imi	-10.87
▁gua	-10.8701
▁orientación	-10.8702
▁Canarias	-10.8704
lam	-10.8704
áceas	-10.8707
▁emprégase	-10.8708
▁Vega	-10.8708
celo	-10.8711
▁composicións	-10.8714
lig	-10.8717
▁53	-10.8718
▁efectiva	-10.8719
▁capace	-10.8721
▁praias	-10.8722
pper	-10.8724
bin	-10.8724
▁individuais	-10.8724
▁xerar	-10.8727
▁conmemora	-10.8733
▁Nesa	-10.8734
▁seguía	-10.8735
elli	-10.8735
▁lobo	-10.8736
íña	-10.8736
▁terminar	-10.8738
▁mac	-10.874
▁conclusión	-10.8741
▁multitude	-10.8741
▁rendemento	-10.8741
bul	-10.8742
cca	-10.8743
cli	-10.8744
taba	-10.8745
rom	-10.8746
▁viax	-10.8755
▁volcán	-10.8759
ecido	-10.8759
▁Antiga	-10.8763
▁disc	-10.8763
▁ber	-10.8765
▁Stra	-10.8765
▁desemboca	-10.8765
▁Estrada	-10.8766
isco	-10.8769
▁profunda	-10.8774
▁Renault	-10.8774
▁trigo	-10.8775
▁ARNm	-10.8776
ude	-10.8779
▁asociados	-10.8779
▁iniciais	-10.8781
▁Texas	-10.8785
▁agrupación	-10.8786
ani	-10.8787
Q	-10.8789
taria	-10.879
▁Poden	-10.8792
▁ch	-10.8793
▁intentou	-10.8793
▁tarefa	-10.8794
▁futura	-10.8795
▁vis	-10.8799
▁pura	-10.88
▁Ala	-10.88
▁ligado	-10.88
▁Pierre	-10.8801
▁póla	-10.8801
▁alén	-10.8801
▁Confederación	-10.8801
hn	-10.8802
▁militante	-10.8802
pat	-10.8803
▁mineral	-10.8805
▁brancos	-10.8806
▁tudo	-10.881
▁Oeste	-10.881
rista	-10.8811
▁escaso	-10.8813
ámos	-10.8814
▁considerou	-10.8815
▁Tui	-10.8815
▁fronteiras	-10.8815
▁vector	-10.8819
▁Pobo	-10.8827
▁símbolos	-10.8828
▁curtas	-10.8828
▁larvas	-10.8828
leccion	-10.883
ír	-10.8833
▁Mónaco	-10.8833
▁fígado	-10.8833
▁Jesús	-10.8833
▁form	-10.8835
▁muros	-10.8837
pho	-10.8837
▁Ham	-10.8838
▁boas	-10.8839
cedo	-10.8841
▁estatística	-10.8842
▁mozos	-10.8842
ος	-10.8842
▁parente	-10.8843
▁africano	-10.8843
▁Mellor	-10.8843
▁soporta	-10.8844
▁regra	-10.8846
▁mini	-10.8849
IS	-10.885
▁intensidade	-10.885
▁matar	-10.8853
▁falada	-10.8857
▁xogando	-10.8857
▁proclamou	-10.8859
▁Mercedes	-10.8859
▁axudou	-10.8859
▁Esp	-10.8861
▁Chris	-10.8861
▁dianteiro	-10.8864
▁Filosofía	-10.8867
red	-10.8871
▁continuo	-10.8873
▁predominante	-10.8875
puxo	-10.8878
güe	-10.888
▁causas	-10.8885
▁nobre	-10.8889
▁mostrou	-10.8893
centr	-10.8895
▁Rivera	-10.8899
▁argumenta	-10.8902
▁pinta	-10.8902
ello	-10.8902
ili	-10.8904
ches	-10.8905
pico	-10.8909
▁progresiva	-10.891
scendeu	-10.891
ora	-10.8912
ánico	-10.8913
▁Ken	-10.8914
▁graxa	-10.8916
▁comerciante	-10.8918
▁herda	-10.8921
▁Bea	-10.8921
▁1898	-10.8922
▁bebida	-10.8927
▁inde	-10.8927
▁interpretar	-10.8928
▁suposta	-10.8929
▁arquivo	-10.8933
▁Andrés	-10.8934
▁Español	-10.8935
▁vexetais	-10.8935
▁impedir	-10.8936
DA	-10.8938
llar	-10.8942
▁Estaba	-10.8943
▁recu	-10.8944
pera	-10.8946
▁grava	-10.8947
▁postura	-10.8948
▁inimigos	-10.8949
▁organizar	-10.895
▁Gallega	-10.8953
ington	-10.8957
▁cero	-10.8958
▁Catedral	-10.8961
▁croata	-10.8962
▁estranxeiros	-10.8966
▁úsa	-10.8969
▁Big	-10.8969
▁marcada	-10.8969
mol	-10.897
▁André	-10.8971
▁Grandes	-10.8973
▁decidiron	-10.8975
▁estadounidenses	-10.8978
▁conversión	-10.8978
▁circula	-10.898
lleira	-10.8981
▁parasito	-10.8985
ele	-10.8991
cán	-10.8992
▁clado	-10.8994
▁terá	-10.8994
▁hélice	-10.8995
▁admira	-10.8995
▁parecen	-10.8996
▁críticos	-10.8996
▁Veiga	-10.8997
▁prolonga	-10.8997
▁polaco	-10.9
mond	-10.9001
▁enteiro	-10.9002
▁ingresos	-10.9003
▁Grazas	-10.9005
▁pneumáticos	-10.9011
▁editou	-10.9012
▁Salamanca	-10.9012
▁comité	-10.9012
▁permanecer	-10.9013
▁cataliza	-10.9014
▁Michel	-10.9016
▁dividir	-10.9021
▁dorsal	-10.903
moni	-10.9031
▁Fort	-10.9036
-17	-10.9037
▁crime	-10.9038
▁sinónimo	-10.9039
▁vítimas	-10.9039
▁variación	-10.904
▁protagonizado	-10.9041
▁180	-10.9042
▁derivados	-10.9042
▁Eli	-10.9043
▁Ron	-10.9043
▁loitar	-10.9043
▁baleiro	-10.9043
▁volumes	-10.9049
▁fresco	-10.9049
▁transporta	-10.9051
▁dispoñible	-10.9051
▁interesante	-10.9054
▁Anti	-10.9055
▁Day	-10.9057
▁1890	-10.9061
mato	-10.9063
▁médica	-10.9064
▁drama	-10.9064
ett	-10.9064
▁mesa	-10.9067
▁niño	-10.9074
▁1903	-10.9075
wo	-10.9079
sil	-10.9082
▁espec	-10.9083
mí	-10.9084
▁Señor	-10.9086
AS	-10.9087
▁vertical	-10.909
▁tripulación	-10.909
▁56	-10.9092
▁orgánica	-10.9099
▁solicita	-10.9099
▁Destaca	-10.9102
▁vilas	-10.9105
▁pretendía	-10.9107
▁Ig	-10.9107
▁oral	-10.9108
▁Hen	-10.9109
▁usados	-10.9112
▁Prote	-10.9113
▁católico	-10.9114
▁Qu	-10.9115
▁expulsado	-10.9115
▁turístico	-10.9116
▁fixera	-10.9117
▁vin	-10.9118
visión	-10.9119
▁millo	-10.9121
bru	-10.9121
▁metabolismo	-10.9125
▁guerras	-10.9127
▁especializada	-10.9132
▁Ortigueira	-10.9133
▁contemporánea	-10.9133
▁história	-10.9133
▁románica	-10.9133
tric	-10.9134
▁Cole	-10.9136
▁negociación	-10.9136
iñas	-10.9138
▁fol	-10.914
▁responde	-10.9141
ij	-10.9142
▁xorna	-10.9142
▁externo	-10.9142
▁patriarca	-10.9142
▁rara	-10.9144
▁mudar	-10.9146
idio	-10.9146
▁rexistra	-10.9147
▁derrub	-10.9151
▁Reis	-10.9153
▁impre	-10.9155
▁Bill	-10.9156
▁organizou	-10.9165
▁Pobra	-10.9167
jar	-10.9168
▁Recibiu	-10.9168
▁Barreiro	-10.9172
▁escapar	-10.9173
▁seguidores	-10.9174
▁alteración	-10.9176
▁obtido	-10.9177
▁gañaron	-10.9177
▁eliminatoria	-10.9178
▁Lee	-10.9178
▁ocupado	-10.9178
▁golfo	-10.9179
▁nacionalista	-10.918
▁contraste	-10.9181
nom	-10.9181
▁democrática	-10.9186
▁singular	-10.9194
pir	-10.9197
▁tenda	-10.9199
▁PP	-10.9199
nche	-10.92
▁mostras	-10.9201
part	-10.9201
▁retro	-10.9202
▁influencias	-10.9202
▁excelente	-10.9203
▁Az	-10.9203
▁documental	-10.9204
▁obten	-10.9205
▁xove	-10.9207
▁separada	-10.9207
▁asegura	-10.9208
▁sem	-10.921
▁denuncia	-10.9212
▁Eurovisión	-10.9212
▁temática	-10.9217
morfo	-10.9217
▁pá	-10.9219
▁sobriño	-10.9221
lón	-10.9221
▁faz	-10.9221
▁pedras	-10.9221
▁naval	-10.9222
▁proclama	-10.9224
▁vender	-10.9226
▁talo	-10.9226
▁76	-10.923
▁Gen	-10.9231
▁deus	-10.9233
▁resultante	-10.9234
▁tur	-10.9238
▁At	-10.9241
▁salvo	-10.9242
DE	-10.9246
▁extrema	-10.9247
▁Eva	-10.9248
▁algas	-10.9248
ction	-10.9253
▁Marco	-10.9259
▁tenente	-10.9265
▁promotor	-10.9265
▁lento	-10.9267
▁liñaxe	-10.9267
▁establecida	-10.9267
leta	-10.9267
▁Francis	-10.9269
▁ratos	-10.927
▁xurisdición	-10.9274
▁nucle	-10.9275
taron	-10.9276
▁activación	-10.9278
▁Reg	-10.9286
▁Barba	-10.9293
▁consistente	-10.9293
▁competicións	-10.9295
▁indicar	-10.9298
▁vendido	-10.9302
▁montes	-10.9309
▁Marrocos	-10.9309
▁nube	-10.9312
▁Dun	-10.9314
▁crías	-10.9317
▁hemo	-10.9317
▁conselleiro	-10.9318
▁South	-10.9318
▁ribeira	-10.9318
▁especializado	-10.9319
AR	-10.9321
col	-10.9322
▁húmido	-10.9327
▁usou	-10.9328
▁recorda	-10.9328
▁sociedades	-10.9329
▁ósos	-10.9332
▁Contra	-10.9332
-12	-10.9333
ém	-10.9334
▁TV	-10.9334
▁cemiterio	-10.9335
▁potente	-10.9336
▁sexuais	-10.9341
▁inaugurado	-10.9341
lice	-10.9344
▁oitavo	-10.9345
xénico	-10.9346
▁North	-10.9347
tima	-10.9348
▁Consta	-10.9352
▁mínima	-10.9353
▁depresión	-10.9354
▁Voz	-10.9358
▁fármacos	-10.9361
cima	-10.9362
▁Oviedo	-10.9362
▁Johann	-10.9366
▁creador	-10.9366
▁presas	-10.9367
▁Kra	-10.9368
▁57	-10.9369
▁reciben	-10.9372
▁somete	-10.9373
▁ligada	-10.9375
▁arredores	-10.9378
▁anotou	-10.9379
▁mestra	-10.9379
▁redactor	-10.938
▁experto	-10.938
▁sétimo	-10.938
▁Constantino	-10.9383
▁debeu	-10.9385
métrica	-10.9389
▁extremada	-10.9389
▁finaliza	-10.939
▁Piñeiro	-10.9391
íuse	-10.9393
▁cumio	-10.9399
tral	-10.94
▁sou	-10.9401
▁específicas	-10.9402
ity	-10.9402
▁plumas	-10.9405
▁Abel	-10.9407
▁oscila	-10.9409
▁apoiar	-10.9414
▁peor	-10.9414
izouse	-10.9414
▁guionista	-10.9416
▁ocorreu	-10.942
▁Duque	-10.9425
ive	-10.9427
bó	-10.9429
tei	-10.943
gia	-10.9431
▁cuxos	-10.9432
▁March	-10.9432
▁Hal	-10.9433
▁Mira	-10.9434
trón	-10.9435
▁naves	-10.9438
▁alcaldía	-10.9443
▁rectangular	-10.9443
▁xustiza	-10.9443
▁estrutural	-10.9446
▁PPdeG	-10.9452
▁polimerase	-10.9452
▁causou	-10.9452
▁necesita	-10.9453
▁aérea	-10.9453
▁Mill	-10.9455
▁atoparon	-10.9461
▁mención	-10.9462
▁otomán	-10.9465
▁pau	-10.9466
▁Come	-10.9469
▁col	-10.9472
▁existente	-10.9473
▁gando	-10.9475
▁exercicio	-10.9479
▁Biblia	-10.9479
enberg	-10.9479
▁participan	-10.9482
▁estranxeiro	-10.9482
pá	-10.9486
▁School	-10.9488
▁infraestrutura	-10.9488
▁Gala	-10.9489
xar	-10.949
▁Espa	-10.9494
▁atopába	-10.9497
▁compromiso	-10.9497
▁1902	-10.9499
▁aplicar	-10.9503
wood	-10.9506
▁nacións	-10.9508
▁piso	-10.9511
▁compromet	-10.9515
▁cloro	-10.9515
▁salvaxe	-10.9515
▁Tam	-10.9516
front	-10.9519
parti	-10.952
▁State	-10.9522
ntado	-10.9523
▁teatral	-10.9524
▁firme	-10.9524
▁moda	-10.9524
▁gravou	-10.9524
▁85	-10.9526
tros	-10.9526
▁Liber	-10.953
▁inicios	-10.9532
▁rexeitou	-10.9533
▁casar	-10.9534
▁americanos	-10.9535
▁pul	-10.9536
fónica	-10.9536
pol	-10.9537
▁Torres	-10.9545
▁Angel	-10.9548
▁vendeu	-10.9548
▁experimental	-10.9549
ere	-10.9555
▁presentouse	-10.9557
▁tarefas	-10.9557
▁Tá	-10.956
▁manifesto	-10.956
▁influente	-10.956
▁Frei	-10.9561
▁mencionado	-10.9564
▁cabalos	-10.9566
prende	-10.9567
▁senador	-10.9568
gio	-10.9572
kan	-10.9575
▁quinase	-10.9578
▁neve	-10.9584
▁ler	-10.9587
▁Airlines	-10.9587
▁Fel	-10.9588
▁mis	-10.9589
▁gases	-10.9592
rup	-10.9595
▁95	-10.9596
▁Alexander	-10.9596
lín	-10.9598
▁1901	-10.9599
▁tomada	-10.9603
▁industriais	-10.9604
▁contiña	-10.9605
▁portugueses	-10.9605
▁litoral	-10.9605
▁negocios	-10.9608
▁dif	-10.9609
▁fungos	-10.9609
▁metais	-10.961
▁poidan	-10.9611
▁enteira	-10.9611
▁destacado	-10.9615
oli	-10.9622
▁eucariotas	-10.9622
▁Lorenzo	-10.9624
log	-10.9626
▁separado	-10.9626
▁arcos	-10.9631
▁concepción	-10.9632
▁armado	-10.9633
▁Are	-10.9635
▁distinción	-10.9642
▁CA	-10.9645
▁reconstrución	-10.9645
▁raro	-10.965
▁quería	-10.9651
▁hitita	-10.9651
ísta	-10.9651
▁Nadal	-10.9654
uz	-10.9657
▁Rio	-10.9657
▁atribúe	-10.966
▁escultor	-10.966
MA	-10.9662
▁tivera	-10.9662
▁alca	-10.9664
▁refuxio	-10.9664
▁enfermo	-10.9666
▁Teñe	-10.9667
ugh	-10.9669
▁antepasado	-10.9669
▁Silleda	-10.967
nic	-10.9675
star	-10.9676
▁encoro	-10.9676
well	-10.9676
▁tropicais	-10.9679
filia	-10.9683
media	-10.9683
▁mental	-10.9686
▁Jim	-10.9687
▁Entón	-10.9688
▁descubrir	-10.9688
tamina	-10.9692
▁realíza	-10.9693
▁introducir	-10.9693
▁Cabana	-10.9696
▁bóveda	-10.9697
▁financeira	-10.9697
▁gradual	-10.9697
▁médicos	-10.9697
▁portada	-10.97
osfera	-10.9704
▁especificamente	-10.9704
▁escribe	-10.9706
▁Pale	-10.9709
▁literalmente	-10.9711
essa	-10.9711
▁ollo	-10.9719
eña	-10.9724
▁Estatuto	-10.9725
▁belga	-10.9726
▁identificación	-10.9726
▁Ran	-10.9727
lex	-10.9728
▁Eco	-10.973
▁preocupa	-10.9731
▁Marte	-10.9732
▁atrae	-10.9733
▁relaciona	-10.9733
▁ideia	-10.9734
óxido	-10.9734
▁electoral	-10.9735
▁divide	-10.9735
▁momentos	-10.9736
▁traballaba	-10.9736
▁Columbia	-10.9736
▁complexa	-10.9739
▁adquiriu	-10.974
▁verse	-10.9742
▁estabilidade	-10.9743
▁expulsa	-10.9744
▁Florencia	-10.9745
iya	-10.9746
gy	-10.9746
▁Quando	-10.9747
▁asumiu	-10.9753
▁migra	-10.9756
teca	-10.9757
▁essa	-10.9758
lem	-10.9758
▁casca	-10.9759
▁espiña	-10.976
▁perdendo	-10.9762
ari	-10.9763
xeiro	-10.9764
leo	-10.9768
ólico	-10.977
▁rota	-10.977
▁profesora	-10.977
▁xuvenil	-10.9771
▁usuarios	-10.9775
▁Sco	-10.9776
arte	-10.9776
▁interaccións	-10.9776
▁Jorge	-10.978
▁God	-10.9783
▁Cooper	-10.979
▁incluíu	-10.979
▁colaboradores	-10.9793
americana	-10.9793
pré	-10.9795
▁Mau	-10.9796
▁gráfico	-10.9803
▁acceder	-10.9803
char	-10.9805
ò	-10.9808
▁doméstico	-10.9808
▁restrición	-10.9808
▁Rod	-10.9811
▁fenómenos	-10.9811
▁Letras	-10.9811
▁tar	-10.9812
▁PS	-10.9814
kha	-10.9814
ân	-10.9814
▁paga	-10.9816
▁polémica	-10.9817
▁anarquista	-10.9817
▁integr	-10.9819
▁diferencia	-10.9819
▁tivese	-10.9819
▁talento	-10.9819
▁Diario	-10.982
▁Mé	-10.9822
▁negativo	-10.9824
anza	-10.9827
▁Gla	-10.9829
▁maxi	-10.9834
▁aló	-10.9835
▁jazz	-10.9836
▁Morreu	-10.9836
▁lixeira	-10.9836
▁pobres	-10.9837
▁febra	-10.9838
vy	-10.9841
▁wa	-10.9842
▁XXI	-10.9843
ecida	-10.9844
iba	-10.9845
▁Arzúa	-10.9845
▁Fala	-10.9847
▁Blue	-10.9847
dín	-10.9848
▁tornou	-10.9848
▁Mary	-10.9848
▁austríaco	-10.9855
▁navega	-10.9855
▁detalles	-10.9858
▁preso	-10.9858
▁finalizou	-10.9861
▁Vin	-10.9862
▁Borgoña	-10.9864
▁café	-10.9864
▁funcionario	-10.9865
▁reflecti	-10.9865
▁renuncia	-10.9871
war	-10.9872
▁Norteamérica	-10.9873
ii	-10.9873
▁Televisión	-10.9874
americano	-10.9875
▁mariño	-10.9875
▁sup	-10.988
redo	-10.988
cap	-10.9882
▁brancas	-10.9883
▁Adam	-10.9883
▁basicamente	-10.9884
▁aceiro	-10.9886
bit	-10.9886
▁condados	-10.9887
▁dependencia	-10.9887
▁Estevo	-10.989
ped	-10.9893
zen	-10.9897
▁Artur	-10.9897
▁lóxica	-10.99
▁preserva	-10.9901
▁exipcio	-10.9902
▁Wood	-10.9904
▁eliminación	-10.9905
▁oposto	-10.9906
gus	-10.9907
▁tronco	-10.9912
▁aumentou	-10.9914
pti	-10.9915
▁nena	-10.9916
▁More	-10.9917
cidas	-10.9919
▁aprobou	-10.992
▁Wei	-10.9922
▁vocês	-10.9923
mber	-10.9924
▁configuración	-10.9924
▁reflicte	-10.993
▁vira	-10.9935
▁folga	-10.9938
▁cincuenta	-10.9939
▁domingo	-10.994
▁liso	-10.994
▁naquel	-10.9941
▁Inicial	-10.9949
▁vacina	-10.995
▁nutri	-10.995
▁protexe	-10.9951
nov	-10.9951
▁masiva	-10.9953
▁daquel	-10.9954
ç	-10.9955
▁Patrimonio	-10.9958
▁consecutiva	-10.9958
▁incidente	-10.9958
▁acelera	-10.996
▁mantívo	-10.9962
▁primo	-10.9964
quina	-10.9964
▁traspasado	-10.9966
▁High	-10.9967
▁celebrar	-10.9968
▁Zamora	-10.9969
rial	-10.997
▁Traballou	-10.9973
grad	-10.9974
▁conceptos	-10.9975
▁cárcere	-10.9977
▁illote	-10.9977
table	-10.9981
▁investimento	-10.9982
AT	-10.9984
gard	-10.9985
▁reunir	-10.9986
▁Armenia	-10.9987
▁Sho	-10.9994
dicouse	-10.9994
produ	-10.9995
▁pseudo	-10.9996
▁asemblea	-10.9996
▁Selección	-10.9996
▁Case	-10.9997
▁Francesa	-10.9997
▁reuni	-10.9998
ófilo	-11
▁colonos	-11
▁compañías	-11
▁Militar	-11.0001
▁58	-11.0004
▁hemisferio	-11.0005
▁sinalización	-11.0008
▁liberado	-11.0013
▁Posúe	-11.0015
▁etiqueta	-11.0015
▁Alfredo	-11.0016
cionado	-11.002
▁porción	-11.0023
qué	-11.0024
▁devandita	-11.0024
▁Arriba	-11.0025
▁ainda	-11.0026
mic	-11.0032
cc	-11.0033
queira	-11.0035
▁Amai	-11.0036
▁comisión	-11.0036
tras	-11.004
▁Antigo	-11.004
▁restantes	-11.004
rbi	-11.0043
▁favorable	-11.0045
▁renda	-11.0048
▁cultivos	-11.0051
▁Vice	-11.0055
▁sombra	-11.0057
rís	-11.0057
▁Eume	-11.0058
▁Pardo	-11.006
▁desempeña	-11.0063
▁sinxelos	-11.0064
dito	-11.0065
▁Peña	-11.0066
ence	-11.007
▁vehículo	-11.0071
▁Lewis	-11.0072
▁incluídos	-11.0075
▁paralela	-11.0075
▁substituíu	-11.0077
▁Roll	-11.0079
ür	-11.008
▁Física	-11.0082
▁masculina	-11.0082
▁refire	-11.0084
OS	-11.0087
▁morreron	-11.0087
▁Nalgún	-11.0091
▁cavidade	-11.0091
▁navío	-11.0092
▁Cunha	-11.0095
oi	-11.0097
▁exportación	-11.0097
▁Mike	-11.0098
▁Joaquí	-11.0101
cid	-11.0104
▁crese	-11.011
▁ecosistema	-11.011
▁pechado	-11.0111
▁amplia	-11.0112
lov	-11.0121
▁consideraba	-11.0121
▁negros	-11.0121
mita	-11.0122
▁chea	-11.0123
▁detecta	-11.0129
neses	-11.013
▁brazo	-11.0131
▁realizadas	-11.0132
ianos	-11.0133
δ	-11.0139
▁Gregorio	-11.0139
▁xiro	-11.0142
▁péptido	-11.0142
▁consider	-11.0144
▁Nós	-11.0145
▁escavación	-11.0146
▁Jacques	-11.0149
▁Prusia	-11.0149
▁Oza	-11.015
▁fogo	-11.0153
▁xudicial	-11.0156
marca	-11.0158
▁PSdeG	-11.0158
▁Hollywood	-11.0158
▁xuíz	-11.0164
▁Barro	-11.0171
▁preocupación	-11.0178
lóxica	-11.0181
▁Gun	-11.0182
▁asinar	-11.0186
▁aproveita	-11.0186
▁transmiti	-11.0191
▁escocés	-11.0197
▁taxon	-11.0197
▁descarga	-11.0198
▁terrestres	-11.0204
▁profesión	-11.0207
▁exercer	-11.0207
▁Provincial	-11.0211
▁ordenado	-11.0212
wy	-11.0212
▁Et	-11.0216
▁primitivo	-11.0216
púxose	-11.022
▁gato	-11.022
▁abarca	-11.0221
▁sentir	-11.0222
▁corda	-11.0222
-15	-11.0223
▁represión	-11.0224
▁rexionais	-11.0226
▁reloxo	-11.0226
▁congreso	-11.0227
▁já	-11.0228
▁lesión	-11.023
▁competi	-11.023
▁aceptar	-11.0232
▁Alma	-11.0235
▁homónima	-11.0236
▁corredor	-11.0237
▁rodeado	-11.0237
▁concretamente	-11.0242
▁eliminado	-11.0243
▁supervivencia	-11.0246
▁Company	-11.0246
▁deportivos	-11.0246
▁pleno	-11.0249
▁declara	-11.025
▁conca	-11.0252
▁Menor	-11.0255
▁arca	-11.0256
▁entende	-11.0259
▁Lista	-11.0259
▁coñecía	-11.0259
delo	-11.0261
hard	-11.0262
dista	-11.0263
▁1.000	-11.0263
▁Borbón	-11.0266
▁doutoramento	-11.0266
▁gótico	-11.0266
▁nacionalidade	-11.0268
▁Há	-11.0271
▁Occidente	-11.0275
▁montañosa	-11.0275
▁índice	-11.0275
▁orixes	-11.0277
▁nativa	-11.0277
▁soño	-11.0277
▁Pasa	-11.0278
▁nacionalismo	-11.028
▁assim	-11.0281
▁neur	-11.0282
▁Var	-11.0285
▁alguma	-11.0286
▁naquela	-11.0287
▁decidi	-11.0287
rik	-11.0289
▁Angeles	-11.029
▁Señora	-11.0291
▁deposita	-11.0292
▁Praga	-11.0293
▁colleita	-11.0295
▁obreiro	-11.0296
▁Mina	-11.0298
rita	-11.03
▁plasma	-11.0302
plica	-11.0302
▁guerreiro	-11.0304
▁pescozo	-11.0304
▁Boeing	-11.0304
▁erros	-11.0307
▁Bach	-11.0308
▁nota	-11.0311
▁xo	-11.0311
▁identificado	-11.0314
▁debuta	-11.0316
▁carbón	-11.0317
▁biolóxico	-11.032
▁andar	-11.0321
▁separadas	-11.0323
▁asentamentos	-11.0323
σ	-11.0323
▁virtude	-11.0324
▁Hitler	-11.0324
▁dé	-11.0324
▁Gau	-11.0326
▁españolas	-11.033
wen	-11.033
▁manga	-11.033
thi	-11.0332
▁Británica	-11.0334
▁muita	-11.034
▁naturalista	-11.0343
▁promover	-11.0343
pita	-11.0344
▁funcionar	-11.0347
▁colonial	-11.0347
▁máquinas	-11.035
▁Vive	-11.035
▁cadrados	-11.0353
▁Filipinas	-11.0353
▁intestino	-11.0353
▁franxa	-11.0353
▁actuou	-11.0353
▁xeográfico	-11.0354
▁Med	-11.0355
▁ki	-11.0358
mén	-11.036
▁Kh	-11.0361
▁ruínas	-11.0363
▁1897	-11.0367
т	-11.0368
▁estancia	-11.037
lleiro	-11.0372
▁Bulgaria	-11.0373
▁Ambos	-11.0374
▁mariñas	-11.0374
phy	-11.0378
▁cuncha	-11.0381
▁atacar	-11.0382
colo	-11.0386
vre	-11.0387
▁cra	-11.0394
▁Quin	-11.0401
▁retablo	-11.0402
▁asistente	-11.0403
▁controla	-11.0406
▁Tim	-11.0406
▁Esca	-11.041
▁cómic	-11.0411
▁sonda	-11.0411
▁pontes	-11.0412
▁feminista	-11.0412
▁cerámica	-11.0412
▁Má	-11.0414
▁Will	-11.0417
miento	-11.0421
▁xestiona	-11.0422
▁incorporou	-11.0426
▁diaria	-11.0429
▁aprendizaxe	-11.0432
▁rocha	-11.0436
▁Esc	-11.044
▁1880	-11.044
▁rega	-11.0441
▁recruta	-11.0442
ST	-11.0444
▁adaptado	-11.0447
ñen	-11.0447
▁Verde	-11.0448
lag	-11.0451
▁soberano	-11.0452
▁Fan	-11.0454
▁play	-11.0455
▁test	-11.0458
▁ventos	-11.0459
▁Literatura	-11.0462
▁patri	-11.0464
▁empregando	-11.0465
▁destacando	-11.0466
▁Libre	-11.0466
▁inspiración	-11.0467
▁rico	-11.0469
▁persoais	-11.047
▁substituída	-11.047
▁Quiroga	-11.0472
▁vicepresidente	-11.0472
▁patóxeno	-11.0472
▁serán	-11.0473
▁separados	-11.0475
▁AP	-11.0479
▁Nosa	-11.0479
▁fur	-11.0479
▁pegada	-11.0481
▁franquista	-11.0482
▁suc	-11.0483
▁exame	-11.0486
▁tradicións	-11.0488
▁vencer	-11.0488
▁seguiron	-11.049
▁discípulo	-11.0492
▁serven	-11.0494
▁asociadas	-11.0495
▁replicación	-11.0496
▁Tem	-11.0498
▁Málaga	-11.0502
▁Philip	-11.0502
▁conservan	-11.0502
▁dispón	-11.0505
▁mod	-11.0507
▁Pere	-11.0512
▁controversia	-11.0512
▁persecución	-11.0512
▁adquirir	-11.0512
▁Segui	-11.0512
▁finalidade	-11.0515
▁rever	-11.0521
▁xeometría	-11.0522
▁leve	-11.0523
▁fillas	-11.053
▁tribuna	-11.0531
▁Felipe	-11.0532
▁Xerais	-11.0534
▁vesti	-11.0534
▁coli	-11.0535
▁amante	-11.0536
rit	-11.0537
▁incon	-11.054
▁parecido	-11.0543
▁darlle	-11.0544
▁Pop	-11.0547
▁rexistros	-11.0547
▁terminal	-11.0549
▁Vale	-11.0549
▁East	-11.0549
▁pechada	-11.055
▁Vietnam	-11.0552
▁consecutivo	-11.0552
ástico	-11.0552
-8	-11.0553
idez	-11.0555
▁Santos	-11.0555
▁Mata	-11.0556
ić	-11.0558
▁presa	-11.0562
▁Lea	-11.0563
▁mantendo	-11.0563
▁sp	-11.0564
▁72	-11.0566
▁1895	-11.0567
▁privilexio	-11.0572
▁discográfica	-11.0573
▁destacados	-11.0575
▁segura	-11.0575
▁pH	-11.0577
riano	-11.0577
▁gasto	-11.0578
▁Director	-11.058
clus	-11.0581
▁Dar	-11.0581
ا	-11.0582
▁afectado	-11.0582
▁saga	-11.0583
▁ducado	-11.0584
▁1899	-11.0587
áculo	-11.059
▁Suárez	-11.0592
▁fon	-11.0593
▁suposto	-11.0594
▁normais	-11.0598
▁paleo	-11.0598
▁estaría	-11.0599
▁vertebrados	-11.0602
▁trabalho	-11.0602
timo	-11.0602
zy	-11.0603
▁emprende	-11.0604
▁esténdese	-11.0605
▁Sig	-11.0606
bach	-11.0607
▁emisora	-11.0608
▁Caribe	-11.0608
▁queixo	-11.0609
ES	-11.061
▁partidarios	-11.0612
▁Administración	-11.0612
▁contribúe	-11.0612
▁irlandesa	-11.0612
▁contos	-11.0612
▁Xoana	-11.0614
heim	-11.0619
▁Corre	-11.0621
▁pantalla	-11.0622
crito	-11.0629
aldo	-11.0629
cru	-11.063
▁Xeneral	-11.0632
▁perfecta	-11.0632
▁tomando	-11.0633
▁decoración	-11.0633
▁adulto	-11.0634
▁Inc	-11.0638
▁pesado	-11.0639
▁planea	-11.0641
▁detectar	-11.0644
ette	-11.0646
frica	-11.0647
▁mide	-11.0649
▁estea	-11.0651
▁enterrado	-11.0654
▁Arena	-11.0655
▁plans	-11.0656
▁aparentemente	-11.0658
▁historias	-11.0659
▁residentes	-11.066
zh	-11.0661
▁Xúpiter	-11.0663
▁metano	-11.0663
▁anuais	-11.0664
▁mag	-11.0666
▁activos	-11.0666
▁mover	-11.0671
▁integración	-11.0671
▁estradas	-11.0672
ería	-11.0672
▁constituída	-11.0673
ika	-11.0678
sionista	-11.0679
▁asasina	-11.068
▁culpa	-11.0682
▁ninguén	-11.0683
▁preparar	-11.0683
tense	-11.0684
▁Um	-11.0686
▁barroco	-11.0687
▁Vello	-11.0689
▁Windows	-11.0693
▁gravidade	-11.0693
▁exceso	-11.0693
▁pirata	-11.0694
gin	-11.0694
▁completar	-11.0695
dis	-11.0695
rich	-11.0697
mmer	-11.0697
▁bro	-11.0697
▁doutra	-11.07
▁pasaxe	-11.0702
▁Uruguai	-11.0703
crita	-11.0704
▁Capela	-11.0704
▁anuncio	-11.0705
ómica	-11.0706
mbe	-11.0706
▁distingui	-11.071
▁encarga	-11.0713
▁alcume	-11.0713
▁pulmón	-11.0714
▁impresión	-11.0715
gni	-11.0715
▁empregan	-11.0718
▁gu	-11.0723
▁casco	-11.0723
▁acha	-11.0726
▁alelo	-11.0729
riga	-11.0729
mín	-11.0731
▁imper	-11.0732
▁descoñecido	-11.0734
fecto	-11.0735
▁clásicos	-11.0741
▁consecuencias	-11.0743
▁erupción	-11.0744
▁pedir	-11.0746
▁Johnson	-11.0747
▁Ball	-11.0748
▁diana	-11.0749
▁editada	-11.075
▁Human	-11.0755
enti	-11.0755
▁Rec	-11.0757
zzo	-11.0758
llado	-11.0758
▁gusto	-11.0758
▁meio	-11.0758
▁1896	-11.0759
IT	-11.0759
▁idiomas	-11.076
▁1870	-11.0762
▁absorbe	-11.0764
▁motiva	-11.0767
▁Atlético	-11.0775
▁DVD	-11.0775
ómetro	-11.0777
▁levando	-11.0777
▁nordés	-11.0785
▁Pascua	-11.0786
▁Lar	-11.0786
▁torna	-11.0789
▁actua	-11.0793
▁66	-11.0794
▁abella	-11.0795
▁espiritual	-11.0795
▁provisional	-11.0795
franc	-11.0796
▁Nel	-11.0796
▁protesta	-11.0798
▁facían	-11.08
▁Arm	-11.08
▁tende	-11.0801
elle	-11.0801
к	-11.0802
quer	-11.0802
▁US	-11.0806
▁Palm	-11.0809
▁designar	-11.0811
▁Múnic	-11.0816
▁PIB	-11.0816
▁consistía	-11.0816
▁danza	-11.0816
▁promete	-11.0818
▁cesa	-11.0822
▁perderon	-11.0825
llada	-11.0825
し	-11.0826
▁Habana	-11.0826
▁Celanova	-11.0826
▁Cel	-11.0828
▁separar	-11.0829
▁achado	-11.0833
▁turco	-11.0833
▁Porque	-11.0834
▁cuartos	-11.0835
▁URSS	-11.0836
▁recuperou	-11.0836
▁antrop	-11.0837
▁buque	-11.0839
▁neuronas	-11.084
▁Siria	-11.084
DP	-11.0841
▁corta	-11.0841
▁vende	-11.0842
▁rap	-11.0842
▁discusión	-11.0847
▁Fil	-11.0852
métrico	-11.0856
▁baixista	-11.0857
▁inmigrantes	-11.0857
ð	-11.0857
▁débeda	-11.0857
▁tsar	-11.0861
▁tratou	-11.0863
▁Semana	-11.0864
▁óso	-11.0864
▁verme	-11.0868
▁cortes	-11.0869
▁bacteriana	-11.0872
ccio	-11.0872
▁declarada	-11.0877
▁vivía	-11.0879
▁lixeiro	-11.088
gara	-11.0882
▁inspirado	-11.0884
-13	-11.0886
ό	-11.0888
▁pseudónimo	-11.0888
▁Dúas	-11.0888
▁Hans	-11.0892
▁Revista	-11.0893
mper	-11.0897
centos	-11.0898
▁católicos	-11.0901
▁eixe	-11.0903
poñen	-11.0903
▁Sara	-11.0903
ect	-11.0903
prim	-11.0903
▁cobra	-11.0904
▁pacto	-11.0906
▁investigador	-11.0909
▁aparato	-11.091
▁TVG	-11.0911
▁orixinario	-11.0911
vella	-11.0912
wald	-11.0915
▁continuaron	-11.0915
▁Joe	-11.0918
▁Cantabria	-11.0919
▁Vilagarcía	-11.0919
▁absoluto	-11.0919
▁constituído	-11.0919
▁usual	-11.0919
vista	-11.092
▁abundancia	-11.092
▁cheo	-11.0921
▁chave	-11.0923
▁mega	-11.0923
king	-11.0925
▁Sh	-11.0928
▁dinámica	-11.093
anto	-11.093
▁vivendas	-11.0932
▁estudante	-11.0936
EC	-11.0936
lita	-11.0937
▁aceptada	-11.0939
▁Xustiza	-11.094
▁antibióticos	-11.094
▁dicía	-11.0941
▁Catalunya	-11.095
▁superficial	-11.095
▁afectada	-11.0951
▁67	-11.0951
▁Oleiros	-11.0953
▁inmuno	-11.0953
▁Casal	-11.0955
▁prestixio	-11.0956
rien	-11.0957
▁acusa	-11.0958
▁Christian	-11.0961
▁Colaboro	-11.0961
presión	-11.0962
▁destinada	-11.0962
▁xogaba	-11.0962
▁Castelao	-11.0963
▁Cru	-11.0963
▁provocar	-11.0968
▁House	-11.0971
ceiro	-11.0971
▁reduce	-11.0972
▁reacciona	-11.0974
▁poética	-11.0975
▁videoxogo	-11.0976
▁Sor	-11.0977
trato	-11.0979
▁exacta	-11.0981
▁sindicato	-11.0982
▁contribuíu	-11.0982
AM	-11.0982
ame	-11.0983
▁Adoita	-11.0983
▁veu	-11.0983
▁logrando	-11.0984
▁cualificación	-11.0985
▁mim	-11.0985
▁parcial	-11.0987
▁Billboard	-11.0992
▁Circuíto	-11.0992
▁Montenegro	-11.0992
▁Mondoñedo	-11.0992
▁asiático	-11.0992
▁modalidade	-11.0993
▁Hay	-11.0993
ã	-11.0993
▁Varela	-11.0994
ánica	-11.0995
▁prol	-11.0995
pú	-11.0995
▁Parti	-11.0997
▁terapia	-11.0998
▁indu	-11.0999
▁obtendo	-11.1004
▁arroz	-11.1004
▁Lord	-11.1007
▁Até	-11.1011
▁Av	-11.1011
▁esfera	-11.1014
▁executado	-11.1015
▁saca	-11.1016
▁Emp	-11.1016
dh	-11.1022
▁bolxevique	-11.1024
▁Rubi	-11.1025
▁Canto	-11.1025
▁impide	-11.1026
▁coloniza	-11.1027
▁orientais	-11.1028
▁facilitar	-11.1031
▁inaugurou	-11.1034
▁modernas	-11.1039
town	-11.1039
▁ampliación	-11.1044
▁lípido	-11.1045
▁mariñeiro	-11.1046
▁estimación	-11.1048
▁1889	-11.1049
▁implicada	-11.1051
▁Sex	-11.1054
▁Fol	-11.1056
ega	-11.106
▁organ	-11.106
▁vela	-11.1061
▁tomaron	-11.1066
▁citado	-11.1067
▁63	-11.107
▁deusa	-11.107
▁marcas	-11.107
xí	-11.1071
▁rompe	-11.1075
ife	-11.1076
с	-11.1076
▁complexidade	-11.1076
▁demostrar	-11.1077
río	-11.1078
row	-11.108
▁euro	-11.108
▁Humanidade	-11.108
hm	-11.1084
▁febre	-11.1084
▁destruír	-11.1085
▁Produc	-11.1086
ífero	-11.1087
▁denomínan	-11.1087
▁cardeal	-11.1087
▁pendente	-11.1088
▁dióxido	-11.1091
▁conciencia	-11.1096
▁podio	-11.1097
▁constelación	-11.1098
▁obtén	-11.1098
▁narrativa	-11.1102
▁1888	-11.1102
laxe	-11.1105
porte	-11.1106
▁más	-11.1108
▁Bosnia	-11.111
▁traza	-11.1112
▁carece	-11.1114
▁pobre	-11.1114
▁denominar	-11.1114
▁68	-11.1115
▁intentar	-11.1116
▁auxiliar	-11.1119
▁Reco	-11.112
▁alimenta	-11.1121
▁Marie	-11.113
▁mantiña	-11.113
▁Dé	-11.1131
▁polar	-11.1134
▁verdes	-11.1136
▁Mestre	-11.1136
ional	-11.114
▁deputados	-11.114
▁esquerdo	-11.114
▁electo	-11.1141
▁vasos	-11.1142
▁conservado	-11.1145
rdina	-11.115
▁absorción	-11.1151
▁escollido	-11.1151
▁capítulo	-11.1152
▁igualdade	-11.1153
▁Queen	-11.1157
II	-11.1161
▁Democrática	-11.1161
▁descoñecida	-11.1161
▁facultade	-11.1161
▁Disney	-11.1162
iel	-11.1165
▁Abu	-11.1169
-14	-11.1169
▁Hei	-11.1172
▁Investigación	-11.1172
uf	-11.1174
▁estreitamente	-11.1177
▁Alfa	-11.1179
▁Sociedad	-11.1179
▁obrigou	-11.1183
▁convertéron	-11.1183
▁magnético	-11.1183
▁Toronto	-11.1183
cana	-11.1186
▁dixe	-11.1186
▁suspensión	-11.1193
▁iguais	-11.1193
▁medicamento	-11.1193
▁xardín	-11.1196
vic	-11.1197
▁autonómica	-11.1204
▁Presenta	-11.1205
▁descendencia	-11.1206
▁equipamento	-11.1207
▁anualmente	-11.1211
▁emigra	-11.1212
ioso	-11.1215
▁federación	-11.1215
▁humidade	-11.1215
▁inclinación	-11.1215
▁referente	-11.1215
▁trofeo	-11.1215
▁10.000	-11.1215
▁Teresa	-11.1216
▁verbo	-11.1216
▁Cabr	-11.1216
▁Formou	-11.1217
▁portos	-11.1218
cade	-11.1219
▁deixaron	-11.1223
▁mic	-11.1224
cara	-11.1225
▁concesión	-11.1226
leiro	-11.1227
▁Rico	-11.1227
RE	-11.1229
▁asocia	-11.1229
▁corenta	-11.1232
▁degradación	-11.1234
▁Brabham	-11.1236
▁confirmou	-11.1236
▁pigmento	-11.1236
▁progreso	-11.1236
▁parecer	-11.1243
▁Biscaia	-11.1247
▁Alianza	-11.1247
▁asistir	-11.1249
ald	-11.1253
▁traslada	-11.1254
▁bens	-11.1255
▁Eric	-11.1256
▁setentrional	-11.1258
▁Gabriel	-11.1258
▁asigna	-11.1258
▁disposto	-11.1258
▁divisións	-11.1259
▁sensible	-11.1259
▁carbo	-11.1259
▁descendente	-11.126
▁mutación	-11.1262
▁rotación	-11.1263
▁Nela	-11.1265
▁criar	-11.1267
py	-11.1267
▁incursión	-11.1268
▁santuario	-11.1268
▁renome	-11.1269
▁Iglesias	-11.1269
▁protexida	-11.1269
▁vulgar	-11.1269
▁Golfo	-11.1269
▁Braga	-11.127
▁variada	-11.1272
▁aneis	-11.1275
▁xardíns	-11.1276
▁realizan	-11.1278
▁Antoni	-11.1279
▁Mara	-11.1279
▁censura	-11.1279
▁precisión	-11.128
▁custos	-11.1285
▁Augusto	-11.1286
niano	-11.1287
▁alimentar	-11.1287
▁comparten	-11.1289
belmente	-11.129
▁coordenadas	-11.129
▁hebreo	-11.129
▁carballo	-11.129
▁controlado	-11.1291
▁cristián	-11.1291
mentación	-11.1292
▁liberais	-11.1294
▁61	-11.1297
▁ultra	-11.1299
▁destruída	-11.1301
▁pioneiro	-11.1301
▁afinidade	-11.1301
vento	-11.1302
▁fauna	-11.1303
▁Guer	-11.1304
olóxicas	-11.1304
▁1886	-11.1306
▁rapaz	-11.1308
▁Simon	-11.1312
ulación	-11.1312
▁embaixador	-11.1312
▁primitiva	-11.1312
▁ambientes	-11.1313
▁recomenda	-11.1314
▁Blo	-11.1322
▁Pódese	-11.1322
▁titulada	-11.1322
▁imposible	-11.1322
▁derradeira	-11.1323
▁acolle	-11.1324
▁public	-11.1324
▁estabiliza	-11.1324
▁monumentos	-11.1325
▁cicl	-11.1326
▁guía	-11.1329
nik	-11.1329
riedade	-11.1334
▁Jacob	-11.1334
▁Vel	-11.1336
▁noticias	-11.1337
▁Alex	-11.1338
▁drogas	-11.1338
▁ofreceu	-11.1338
▁construíron	-11.1339
▁dirixe	-11.1343
glio	-11.1345
▁estética	-11.1345
chan	-11.1345
▁produtora	-11.1346
▁latitude	-11.1346
dici	-11.1347
▁Opera	-11.1348
▁viaxar	-11.1349
rth	-11.1351
lados	-11.1351
xera	-11.1352
▁tetra	-11.1354
▁talla	-11.1355
▁acostuma	-11.1355
▁atracción	-11.1355
▁criterios	-11.1359
inho	-11.136
rov	-11.136
▁capturado	-11.136
icidade	-11.1362
▁copa	-11.1363
▁adoptar	-11.1363
▁Campos	-11.1364
▁700	-11.1365
▁semanario	-11.1365
▁lanzar	-11.1367
▁compensa	-11.1367
▁ocasiona	-11.137
▁Abaixo	-11.1373
▁Indonesia	-11.1377
▁substituíndo	-11.1377
▁facilidade	-11.1383
zia	-11.1385
▁Có	-11.1387
▁Crese	-11.1387
▁parecía	-11.1387
▁1868	-11.1392
▁porteiro	-11.1393
vision	-11.1394
ejo	-11.1395
▁bala	-11.1397
▁Cabe	-11.1397
▁playoffs	-11.1399
▁secreción	-11.1399
▁desembocadura	-11.1399
▁Bio	-11.14
▁Cun	-11.1402
▁Rea	-11.1403
▁macro	-11.1403
▁Dal	-11.1406
▁explorador	-11.1407
▁sitúan	-11.1407
▁destacada	-11.1408
▁Independencia	-11.1409
▁campesiños	-11.141
▁esquema	-11.141
▁xudeu	-11.141
▁correr	-11.141
▁francos	-11.141
dera	-11.1411
rell	-11.1412
▁sitúa	-11.1412
íxe	-11.1412
▁protón	-11.1414
▁1885	-11.1415
▁especifica	-11.1417
▁serpe	-11.1419
▁adolescente	-11.142
▁cursiva	-11.142
▁estrita	-11.1422
▁signos	-11.1425
▁notas	-11.1425
mada	-11.1426
▁chu	-11.143
▁peculiar	-11.1431
▁Honra	-11.1432
▁aproxima	-11.1433
num	-11.1434
▁Publicou	-11.1436
▁integrada	-11.1437
icismo	-11.1439
▁comercializa	-11.144
ceto	-11.1441
▁feira	-11.1441
rca	-11.1441
▁situ	-11.1443
quita	-11.1449
▁Pedra	-11.145
▁mocidade	-11.1453
liga	-11.1454
▁galería	-11.1457
▁nucleares	-11.1464
▁Defensa	-11.1464
▁responsábe	-11.1464
▁plana	-11.1471
▁secreta	-11.1472
▁densa	-11.1472
▁Álvaro	-11.1475
▁Neu	-11.1475
▁confianza	-11.1476
-16	-11.1479
▁1884	-11.1479
▁pesa	-11.1481
▁ple	-11.1482
▁Santander	-11.1483
▁Autónoma	-11.1486
▁paciente	-11.1491
▁acorda	-11.1491
▁compositores	-11.1496
▁visitar	-11.1496
▁cinematográfica	-11.1497
▁teorema	-11.1497
▁permiso	-11.1497
▁intervalo	-11.1497
▁diagnóstico	-11.1498
▁Rob	-11.1503
▁ja	-11.1503
▁Mun	-11.1504
▁dentes	-11.1504
▁reside	-11.1504
▁Vario	-11.1507
▁Núñez	-11.1508
▁Renacemento	-11.1508
▁secundarios	-11.1511
▁trasladado	-11.1513
kel	-11.1515
▁Ray	-11.1518
▁Pamplona	-11.1519
▁húngaro	-11.1519
▁alguén	-11.1519
▁axudante	-11.1522
órico	-11.1522
▁1,5	-11.1525
▁minuto	-11.1525
▁elevación	-11.1528
énico	-11.1528
guen	-11.1528
▁trece	-11.153
▁Andrade	-11.153
▁Gall	-11.1531
▁estilos	-11.1533
▁manifestacións	-11.1534
▁Brian	-11.1535
nesia	-11.1538
▁eclesiástico	-11.1541
▁nucleótidos	-11.1542
▁debían	-11.1546
▁recibido	-11.1547
▁vigor	-11.1547
▁Victoria	-11.1548
▁delegado	-11.155
▁trazado	-11.155
▁brazos	-11.1551
▁Servizo	-11.1553
moto	-11.1554
▁62	-11.1555
▁Política	-11.1556
▁sensación	-11.1557
▁clasifica	-11.1559
rola	-11.156
vou	-11.1562
η	-11.1564
▁Mozart	-11.1564
▁teórico	-11.1565
▁peche	-11.1565
▁ían	-11.1566
▁habitada	-11.1566
▁pobreza	-11.1567
▁Society	-11.1575
▁explosión	-11.1575
▁signo	-11.1577
▁59	-11.1578
▁acadando	-11.1581
▁xigantes	-11.1583
▁volveron	-11.1584
▁Cé	-11.1584
▁fabrica	-11.1585
▁cabeceira	-11.1586
▁muíño	-11.1586
▁sexta	-11.1587
▁mitocondria	-11.1594
▁habituais	-11.1597
▁sometido	-11.1597
▁mama	-11.1603
▁prisioneiros	-11.1603
▁resp	-11.1605
▁xustifica	-11.1608
▁qualquer	-11.1608
▁Kosmos	-11.1609
Ba	-11.161
▁lámina	-11.161
▁concluí	-11.161
▁turcos	-11.1611
▁deulle	-11.1613
▁inhibidor	-11.1616
▁rusos	-11.1617
▁Redondela	-11.1619
▁consulta	-11.1619
íanse	-11.1623
▁Font	-11.1623
▁desprazamento	-11.1625
▁profundas	-11.1628
▁permanecen	-11.1629
▁recollida	-11.163
▁plasmática	-11.163
vam	-11.1635
▁navegación	-11.1641
▁intelixente	-11.1642
▁introducido	-11.1644
tila	-11.1647
iuse	-11.1648
▁agrícolas	-11.165
versión	-11.1652
▁únese	-11.1653
▁étnico	-11.1653
▁capta	-11.1655
deiros	-11.1656
eño	-11.1657
▁minas	-11.1659
▁Desc	-11.1662
▁suxeri	-11.1662
▁alcohol	-11.1663
▁Basketball	-11.1664
▁escolle	-11.1666
▁vidro	-11.167
gues	-11.1673
ical	-11.1674
▁culmina	-11.1674
RS	-11.1674
▁caudal	-11.1675
ctico	-11.1677
▁Emperador	-11.1677
▁Í	-11.1677
dul	-11.1679
▁cans	-11.1681
▁Villar	-11.1686
▁Merca	-11.1687
▁baile	-11.1688
▁incorporación	-11.1688
▁salvar	-11.1692
arquía	-11.1692
▁após	-11.1694
PG	-11.1694
ali	-11.1695
▁Moi	-11.1697
▁cadeira	-11.1698
▁pessoa	-11.1698
▁extenso	-11.1701
▁vezes	-11.1701
▁concede	-11.1702
tosa	-11.1702
órica	-11.1705
aki	-11.1706
▁Glo	-11.1707
▁habitante	-11.1708
▁billete	-11.1709
▁Cova	-11.1711
▁Marc	-11.1714
▁balea	-11.1714
▁Fixo	-11.1717
▁Víctor	-11.172
▁Ribadeo	-11.172
olu	-11.1723
▁1891	-11.1724
▁proporcionar	-11.173
▁Republicana	-11.1731
▁ilegal	-11.1731
▁explota	-11.1735
▁irre	-11.1735
▁debida	-11.1738
▁host	-11.174
▁cul	-11.1743
▁atol	-11.1743
gú	-11.1752
▁misterio	-11.1752
▁xénica	-11.1754
▁Friedrich	-11.1754
▁astrónomo	-11.1754
▁éuscaro	-11.1754
▁Jersey	-11.1754
worth	-11.1754
▁débil	-11.1755
▁grella	-11.1758
▁fusiona	-11.1764
tual	-11.1765
▁Cambridge	-11.1765
▁mecánico	-11.1765
▁permitindo	-11.1765
▁Oxford	-11.1765
▁segredo	-11.1766
▁embrión	-11.1766
▁aéreo	-11.1767
▁delimita	-11.1767
γ	-11.1771
▁Web	-11.1772
▁99	-11.1774
▁financia	-11.1775
▁face	-11.1777
▁ingresa	-11.1778
▁71	-11.1778
▁enfrontou	-11.1778
▁il	-11.1779
▁Lind	-11.1784
▁destacou	-11.1784
▁emitir	-11.179
μ	-11.1794
▁racional	-11.1794
▁Walter	-11.1795
▁pase	-11.1796
▁precedente	-11.1797
▁intelectuais	-11.1799
▁interpretou	-11.1799
▁Secretario	-11.18
▁protexido	-11.18
▁nutrientes	-11.18
▁torres	-11.18
▁previo	-11.1806
▁adoitaba	-11.1806
▁cristal	-11.1808
▁Leon	-11.1809
RI	-11.181
▁ocasionalmente	-11.1811
comp	-11.1811
▁casado	-11.1811
▁confia	-11.1811
▁buques	-11.1814
▁Castell	-11.1814
cionou	-11.1816
▁dispoñibles	-11.1816
▁orixinar	-11.1817
▁excluí	-11.1822
▁Arthur	-11.1822
▁Crónica	-11.1822
▁Rosberg	-11.1822
▁proxecta	-11.1823
▁Street	-11.1823
-11	-11.1825
▁Ky	-11.1827
▁cumpri	-11.1828
▁atribu	-11.183
▁vencedor	-11.1831
▁IL	-11.1831
▁Silva	-11.1833
▁cilindro	-11.1833
tempo	-11.1838
vivi	-11.184
▁Mateo	-11.184
▁xuntos	-11.1843
▁confundir	-11.1846
▁Aparece	-11.1847
tile	-11.1847
▁usuario	-11.1852
▁ko	-11.1854
▁promove	-11.1854
▁Tomé	-11.1855
▁Soyuz	-11.1856
neiro	-11.1856
▁Traba	-11.1858
▁retirado	-11.186
▁Carlo	-11.1861
ubi	-11.1866
▁adicionais	-11.1868
▁aproba	-11.1869
▁filial	-11.187
,	-11.1871
▁Kent	-11.1876
▁milenio	-11.1879
▁marea	-11.188
▁fame	-11.1882
▁educativo	-11.1884
▁film	-11.1885
▁bico	-11.1885
▁moleculares	-11.1886
▁formaba	-11.1886
▁pir	-11.1886
▁beneficio	-11.1887
▁nosos	-11.1889
▁intelixencia	-11.1891
▁Clark	-11.1897
▁producidos	-11.1898
▁corporal	-11.1899
▁teito	-11.19
▁institu	-11.1901
▁Curtis	-11.1903
▁1893	-11.1907
▁patente	-11.1908
▁inci	-11.191
▁quedaba	-11.1911
▁emigración	-11.1911
▁voar	-11.1912
▁estivera	-11.1914
▁votación	-11.1917
ólica	-11.1917
▁mete	-11.1921
▁coñecen	-11.1921
▁industrias	-11.1924
▁Universal	-11.1925
▁suízo	-11.1925
▁Economía	-11.1925
▁trastornos	-11.1928
▁μ	-11.193
▁estreada	-11.1936
cera	-11.1936
▁Monforte	-11.1937
▁clínica	-11.1937
▁lingüístico	-11.1937
▁vexetal	-11.1937
▁Anos	-11.1938
▁orbital	-11.1939
▁poderosa	-11.1941
▁instrución	-11.1942
proteína	-11.1943
oxi	-11.1944
▁Sul	-11.1945
dale	-11.1946
▁palma	-11.1947
▁liderou	-11.1948
▁descobre	-11.1948
bury	-11.1948
▁canda	-11.1951
▁sucesiva	-11.1951
▁norteamericana	-11.1952
▁Belas	-11.1952
▁River	-11.1953
▁horizontal	-11.1958
▁coral	-11.196
▁galardoado	-11.196
▁húmida	-11.196
▁Gonzal	-11.1961
▁vese	-11.1962
▁fundar	-11.1963
elas	-11.1964
▁Amor	-11.1966
▁Prado	-11.1966
▁eleva	-11.1967
▁estudoso	-11.1968
nita	-11.1968
▁capítulos	-11.197
▁Hugo	-11.1971
▁plural	-11.1971
▁Vermello	-11.1971
▁Fraga	-11.1972
ctúan	-11.1973
▁conxuntos	-11.1974
▁raramente	-11.1974
▁intenso	-11.1975
▁volcánica	-11.1976
▁aventuras	-11.1977
▁escolar	-11.198
hin	-11.198
▁colesterol	-11.1983
▁neerlandés	-11.1983
▁precipitacións	-11.1984
▁illada	-11.1984
▁condensa	-11.1986
▁esenciais	-11.1991
alo	-11.1991
-9	-11.1994
æ	-11.1994
▁reina	-11.1997
cionista	-11.1997
▁recoñeceu	-11.2001
β	-11.2001
▁empregou	-11.2004
yama	-11.2005
▁científicas	-11.2005
▁constitucional	-11.2006
▁exitosa	-11.2006
▁Ernest	-11.2006
▁radicais	-11.2012
▁xeracións	-11.2012
▁Sou	-11.2014
▁Monta	-11.2015
▁Jordan	-11.2017
▁defensor	-11.2018
certa	-11.2019
▁designación	-11.2019
élica	-11.202
▁acredita	-11.2021
volución	-11.2023
▁ricos	-11.2024
▁Podemos	-11.2024
▁Lucas	-11.2028
▁tropical	-11.2029
▁Mosteiro	-11.203
▁afasta	-11.2031
▁ofrecer	-11.2032
▁segmentos	-11.2034
▁Film	-11.2036
▁ordenador	-11.2036
▁Arca	-11.2038
▁relativo	-11.2038
▁orto	-11.2042
▁Principado	-11.2042
▁historica	-11.2043
▁xigante	-11.2044
▁conter	-11.2044
▁lesións	-11.2046
▁Nico	-11.2052
▁Abadín	-11.2053
▁Marcos	-11.2053
▁98	-11.2055
▁Kat	-11.2055
▁publicidade	-11.2056
▁constituír	-11.2056
▁tocou	-11.2056
▁Rin	-11.2058
▁longos	-11.2061
▁Cristina	-11.2064
▁definitivo	-11.2064
▁estatuto	-11.2064
▁Cook	-11.2064
▁cedido	-11.2065
▁Parte	-11.2066
▁rodeada	-11.2067
▁necesarios	-11.2069
▁1892	-11.2069
▁circ	-11.2073
▁Pontes	-11.2073
å	-11.2076
▁Massachusetts	-11.2076
▁Fundou	-11.2078
▁ferramenta	-11.208
▁Caba	-11.2081
propi	-11.2083
ppe	-11.2087
▁Kosovo	-11.2087
▁Play	-11.2089
▁provi	-11.209
▁Ducado	-11.2091
▁levantamento	-11.2093
gla	-11.2095
tula	-11.2099
▁Atlanta	-11.2099
▁Fonsagrada	-11.2099
▁elite	-11.2105
ixi	-11.2106
iki	-11.2106
▁1860	-11.2106
lema	-11.2107
▁nomeou	-11.211
mur	-11.2111
▁Aqui	-11.2114
▁complementa	-11.2114
llan	-11.2117
▁condutor	-11.2117
▁básicos	-11.212
▁Raíña	-11.2125
▁medición	-11.2129
▁orixinaria	-11.213
▁pesada	-11.2133
patía	-11.2133
▁Carre	-11.2134
▁Química	-11.2134
▁marrón	-11.2135
▁potencias	-11.2137
▁apoiado	-11.2137
▁degrada	-11.214
▁Camb	-11.2141
▁tentou	-11.2143
▁afirmación	-11.2143
▁inmediato	-11.2146
▁sustenta	-11.2146
máticos	-11.2147
Pa	-11.2147
▁león	-11.215
sérvanse	-11.2153
▁CH	-11.2154
▁porco	-11.2154
▁afastado	-11.2157
▁facéndo	-11.2158
▁Hawai	-11.2158
hara	-11.216
▁Francesc	-11.2162
▁graxos	-11.2164
▁patróns	-11.2166
▁ira	-11.2167
▁predecesor	-11.2169
▁operativo	-11.2171
▁consideración	-11.2171
▁Islandia	-11.2176
▁construcións	-11.2177
▁saco	-11.2177
raxe	-11.218
▁restaurante	-11.2181
▁Gañou	-11.2181
▁redacción	-11.2181
▁eficaz	-11.2182
▁Ain	-11.2183
▁sesenta	-11.2187
▁Canal	-11.2193
▁medievais	-11.2193
▁ignora	-11.2193
▁destruído	-11.2193
riam	-11.2196
▁Cen	-11.2197
▁cruzada	-11.22
▁cadros	-11.2201
▁And	-11.2201
▁dispositivo	-11.2202
gula	-11.2203
▁deses	-11.2204
▁visitantes	-11.2213
▁Ker	-11.2215
▁oficinas	-11.2216
▁Pública	-11.2217
▁Rosalía	-11.2217
▁traducido	-11.2217
▁subespecies	-11.2218
▁má	-11.222
▁Bernard	-11.2226
▁revisión	-11.2226
▁fixéronse	-11.2229
▁armenio	-11.2229
▁Stephen	-11.2229
▁fiscal	-11.2229
▁vales	-11.2229
vid	-11.223
▁orbita	-11.2231
▁1881	-11.2233
▁Sue	-11.2235
▁abade	-11.2237
▁Jar	-11.2238
tándose	-11.2239
▁incrementar	-11.2239
▁Sel	-11.224
▁túnel	-11.224
▁tabaco	-11.2241
▁trens	-11.2242
▁instala	-11.2247
▁tenden	-11.2247
▁Pastor	-11.2248
▁Berg	-11.2251
flex	-11.2252
▁Territorio	-11.2252
▁System	-11.2252
▁canal	-11.2254
▁realizando	-11.2255
▁Public	-11.226
▁McC	-11.226
▁Estiv	-11.226
▁rito	-11.2261
▁Hé	-11.2262
▁sodio	-11.2262
▁encargou	-11.2263
▁deficiencia	-11.2264
▁hectáreas	-11.2265
▁Esco	-11.2265
▁relata	-11.2265
▁emitido	-11.2266
▁Top	-11.2267
▁Simón	-11.227
▁mosca	-11.227
▁históricas	-11.2273
▁eficiente	-11.2276
▁Miami	-11.2276
▁representaba	-11.2277
mata	-11.2278
▁peito	-11.2281
▁Dá	-11.2282
000	-11.2283
▁folk	-11.2285
▁Montreal	-11.2289
▁colocar	-11.2291
▁adicional	-11.2292
▁Henri	-11.2295
▁alba	-11.2295
▁Limia	-11.2296
▁constituíu	-11.23
longa	-11.2305
▁difíciles	-11.2307
cant	-11.2308
▁vale	-11.2309
▁Republicano	-11.2312
▁xaponeses	-11.2312
xén	-11.2312
▁Brand	-11.2312
quet	-11.2315
▁Arg	-11.2317
▁82	-11.2321
▁Estación	-11.2321
▁asedio	-11.2323
▁diferenciación	-11.2324
▁Baviera	-11.2324
▁Rexional	-11.2324
▁orzamento	-11.2324
▁rurais	-11.2326
▁átomo	-11.2327
▁gala	-11.2328
▁Center	-11.233
▁aborda	-11.2331
▁cima	-11.2332
ulfo	-11.2336
▁Mississippi	-11.2336
▁bombardeo	-11.2336
▁catorce	-11.2336
▁solares	-11.2338
▁Coma	-11.234
▁glic	-11.2341
▁beiras	-11.2344
▁poetas	-11.2345
▁Movemento	-11.2348
▁puro	-11.2351
dir	-11.2352
▁clan	-11.2352
▁esquece	-11.2353
▁sacar	-11.2354
esti	-11.2356
▁atopada	-11.2359
▁estranxeira	-11.236
▁tesouro	-11.236
▁reputación	-11.236
xeira	-11.236
▁executa	-11.2363
▁tumor	-11.2363
▁Beau	-11.2366
▁rebeldes	-11.237
▁limpa	-11.237
▁románico	-11.2372
▁controlada	-11.2373
▁servidor	-11.2376
▁quilo	-11.2377
taría	-11.2379
▁Aero	-11.238
▁rexistrada	-11.2381
▁camiños	-11.2382
▁Steve	-11.2382
▁cápsula	-11.2384
▁particulares	-11.2384
inha	-11.2384
▁compuxo	-11.2387
▁Free	-11.2387
▁groso	-11.2388
▁manteñen	-11.239
▁Douglas	-11.2396
▁exitoso	-11.2396
▁competiu	-11.2397
olóxicos	-11.2405
flu	-11.2406
▁Dublín	-11.2408
▁piñeiro	-11.241
cosa	-11.241
▁Metal	-11.2411
▁perfil	-11.2412
▁derrotar	-11.2412
▁combinado	-11.2414
▁Colón	-11.2416
▁Rou	-11.2418
SP	-11.2419
▁Dre	-11.242
▁Habsburgo	-11.242
▁diálogo	-11.242
▁milhões	-11.242
▁One	-11.2421
▁reservas	-11.2422
▁foro	-11.2423
▁pertencía	-11.2425
▁vaga	-11.2427
▁Alejandro	-11.2432
▁Católico	-11.2432
▁invasor	-11.2432
▁Champ	-11.2434
▁hoje	-11.2435
▁recorre	-11.2435
▁cantar	-11.2435
rella	-11.2437
▁Nie	-11.2437
▁Good	-11.2438
▁Lev	-11.2438
▁articulación	-11.2439
▁escanos	-11.2441
eau	-11.2444
zio	-11.2444
▁crocodilo	-11.2444
▁achegar	-11.2446
▁vellos	-11.2447
▁microorganismos	-11.2447
▁prohibición	-11.2449
▁Benito	-11.245
▁77	-11.2451
▁Base	-11.2452
▁Lenin	-11.2454
▁interpretada	-11.2454
▁Nelson	-11.2457
▁adulta	-11.2457
▁taller	-11.2457
▁francesas	-11.246
volve	-11.2461
▁causado	-11.2462
▁Mansell	-11.2463
nucle	-11.2469
▁oculta	-11.247
TA	-11.2474
ibi	-11.2477
▁noticia	-11.2477
▁avanzada	-11.248
▁Tenerife	-11.2481
▁trátase	-11.2481
▁Kor	-11.2481
▁falsa	-11.2481
▁Andrew	-11.2482
lector	-11.2486
▁Sacro	-11.249
▁Football	-11.2493
▁Song	-11.2496
▁consolida	-11.2496
▁Hart	-11.2499
▁exploración	-11.2501
▁esto	-11.2502
vó	-11.2505
−	-11.2505
metría	-11.2505
xactamente	-11.2507
▁Campións	-11.2507
▁dispara	-11.2507
▁Sarria	-11.2508
ável	-11.2512
▁planetas	-11.2512
▁equipa	-11.2512
▁diz	-11.2516
▁voa	-11.2516
▁intérprete	-11.2517
▁ortodoxa	-11.2517
▁Volveu	-11.2517
▁Eleccións	-11.2517
▁activista	-11.2517
▁electricidade	-11.2517
▁usaba	-11.2518
▁1887	-11.2523
▁Pont	-11.2524
▁Cata	-11.2524
▁asesor	-11.2525
▁contratado	-11.2526
▁conversa	-11.2527
▁Virxinia	-11.2529
osoma	-11.253
▁contorno	-11.253
▁Primo	-11.2531
▁Arco	-11.2531
▁socialistas	-11.2535
▁curtos	-11.2538
▁preparado	-11.2538
▁vítima	-11.254
-7	-11.2541
▁Herman	-11.2541
▁catedrático	-11.2542
▁salienta	-11.2542
▁lendas	-11.2543
▁Post	-11.2552
▁correspondentes	-11.2554
▁Manchester	-11.2555
nell	-11.2556
▁intermedia	-11.2558
▁remonta	-11.2558
sérvase	-11.2558
▁1894	-11.2559
▁rapaza	-11.2559
▁oficio	-11.2561
▁ilustra	-11.2565
▁enxeñaría	-11.2566
▁Rus	-11.2568
▁Souto	-11.2568
▁Xefe	-11.2571
▁1848	-11.2571
tiv	-11.2574
▁elixir	-11.2574
▁UE	-11.2575
▁correo	-11.2575
▁repre	-11.2576
▁relevancia	-11.2578
▁cataloga	-11.2579
▁transcorre	-11.2581
▁exteriores	-11.2582
▁investiga	-11.2587
▁granito	-11.2589
▁Alén	-11.2591
▁Exemplo	-11.2591
▁Mallorca	-11.2591
▁ambientais	-11.2591
▁ingrediente	-11.2591
▁Británico	-11.2591
▁Rub	-11.2594
▁1883	-11.2596
stad	-11.2598
▁tá	-11.2598
▁largo	-11.2598
lato	-11.2599
▁determinados	-11.2599
▁carecen	-11.2601
▁Davis	-11.2602
▁Licenciado	-11.2603
ísimo	-11.2604
▁consciente	-11.2604
▁Fox	-11.2606
▁ficou	-11.2607
▁tipicament	-11.2607
▁69	-11.2611
▁cunca	-11.2614
в	-11.2615
▁mexicano	-11.2615
▁mundiais	-11.2615
▁intermedio	-11.2615
▁hábito	-11.2615
▁rotura	-11.2624
▁falado	-11.2628
▁enfoque	-11.2628
▁conforme	-11.2628
▁General	-11.2628
▁Mate	-11.263
▁mandou	-11.2632
▁DC	-11.2638
▁Irán	-11.264
▁Irmandade	-11.264
▁informou	-11.264
▁pap	-11.2641
hem	-11.2641
▁xeografía	-11.2642
ardo	-11.2642
cadencia	-11.2643
▁secreto	-11.2643
▁concreta	-11.2647
▁infra	-11.2647
CO	-11.2648
▁adición	-11.2649
▁linear	-11.265
dino	-11.265
▁repara	-11.2652
▁plástico	-11.2652
▁terremoto	-11.2652
▁atleta	-11.2653
ículo	-11.2653
▁Pur	-11.2654
áronlle	-11.2655
▁nacer	-11.2655
poñía	-11.2658
pela	-11.266
▁pecha	-11.2662
▁Deportiva	-11.2665
▁Sebastián	-11.2665
▁oxidación	-11.2665
▁Bac	-11.2668
▁92	-11.2669
▁sar	-11.2669
tilla	-11.267
▁Kan	-11.2678
▁xulgado	-11.2679
▁rouba	-11.2681
▁pintores	-11.2685
▁Fai	-11.2686
▁lenta	-11.2692
▁Constru	-11.2693
▁concelleiros	-11.2694
▁asinado	-11.2695
▁Ji	-11.27
▁modificado	-11.27
▁desaparecer	-11.2705
▁Ever	-11.2706
ére	-11.2706
▁multiplica	-11.2707
vada	-11.2707
▁Tralo	-11.2708
▁Pun	-11.2713
▁módulo	-11.2714
▁innovación	-11.2714
▁africana	-11.2715
▁contidos	-11.2716
▁Hawk	-11.2716
▁granxa	-11.2717
teria	-11.2719
▁gri	-11.2721
▁Wagner	-11.2727
óuselle	-11.2728
▁illamento	-11.2729
▁dispositivos	-11.2729
▁Ulla	-11.2731
ör	-11.2732
▁intra	-11.2732
▁Berger	-11.2736
▁marítimo	-11.2739
▁Ohio	-11.2741
▁hip	-11.2742
▁saque	-11.2744
▁bloquea	-11.2745
▁abandonado	-11.2746
▁metil	-11.2746
▁color	-11.2748
oidea	-11.2749
▁esper	-11.275
▁terrorista	-11.2751
gé	-11.2751
▁Alan	-11.2751
▁Inf	-11.2752
▁adxacente	-11.2752
▁estivese	-11.2752
▁verba	-11.2757
▁variar	-11.2757
▁aparente	-11.2758
▁indo	-11.2758
▁Mancha	-11.276
NC	-11.2762
▁trama	-11.2762
υ	-11.2764
▁adhesión	-11.2764
▁cadáver	-11.2764
▁curtametraxe	-11.2764
▁parámetro	-11.2764
▁violenta	-11.2764
▁sábado	-11.2764
▁encóntran	-11.2765
▁France	-11.2766
▁Calvo	-11.2766
▁Julio	-11.2767
▁Life	-11.2775
here	-11.2775
▁Baía	-11.2775
▁tanta	-11.2776
▁patíns	-11.2777
▁dicindo	-11.2777
▁Berna	-11.2778
▁Band	-11.2784
aka	-11.2785
▁inhibi	-11.2785
▁rexistrado	-11.2785
▁subir	-11.2789
▁tarda	-11.2791
▁asumir	-11.2792
▁73	-11.2793
▁tin	-11.2795
▁Liberal	-11.2796
▁escava	-11.2796
▁aceptado	-11.28
▁solos	-11.2801
▁Festa	-11.2801
▁sob	-11.2801
▁atrapa	-11.2802
▁teclado	-11.2802
▁Georg	-11.2802
▁sueca	-11.2802
▁corresponden	-11.2802
▁visitou	-11.2803
▁promociona	-11.2803
▁74	-11.2804
▁sobrevive	-11.2805
▁axencia	-11.2811
▁Tony	-11.2811
▁antigamente	-11.2812
▁convoca	-11.2813
▁esqueleto	-11.2814
▁sublevación	-11.2814
▁metálico	-11.2815
▁distribuída	-11.2815
▁disparo	-11.2816
rick	-11.2817
▁Arma	-11.2818
▁decidir	-11.2824
▁anaco	-11.2826
▁Sancho	-11.2826
▁toxina	-11.2826
▁axeitada	-11.2827
▁Samuel	-11.2827
tona	-11.2827
▁oitenta	-11.2827
▁Narón	-11.283
▁1876	-11.2833
▁ETA	-11.2836
SI	-11.2838
▁cátedra	-11.284
▁Concilio	-11.284
▁traseira	-11.2843
▁Vía	-11.285
▁asunto	-11.2851
▁varia	-11.2854
▁Alexandría	-11.2854
▁aprendi	-11.2856
▁realizaron	-11.2857
▁proc	-11.2857
▁trataba	-11.2857
▁esse	-11.2858
▁videoxogos	-11.2859
▁Night	-11.286
▁compoñen	-11.286
▁inmunitario	-11.2865
▁lévedo	-11.2865
▁clientes	-11.2865
▁Bé	-11.2865
▁Doutor	-11.2865
▁remónta	-11.2866
▁colec	-11.2867
▁elaborado	-11.2868
▁arqueolóxicos	-11.2869
▁galo	-11.2875
▁automóbil	-11.2876
▁Padrón	-11.2878
▁encargada	-11.2879
▁negras	-11.2879
▁contan	-11.2879
▁Jr	-11.288
misión	-11.288
▁afectan	-11.2882
▁prosa	-11.2882
▁Tara	-11.2883
▁Apolo	-11.2883
▁romance	-11.2885
▁colonización	-11.2888
ball	-11.2888
mara	-11.2889
▁eclesiástica	-11.289
▁melodía	-11.289
▁Petersburgo	-11.289
▁longobardo	-11.289
AA	-11.2891
▁Piquet	-11.2892
▁desastre	-11.2894
▁correspondencia	-11.2895
▁comprender	-11.2898
▁priva	-11.2899
▁logro	-11.29
AF	-11.2901
▁Matt	-11.2902
▁simplifica	-11.2903
▁catálogo	-11.2903
▁rodas	-11.2908
tén	-11.2909
▁mencionada	-11.2913
▁químicas	-11.2915
▁marítima	-11.2916
▁difire	-11.2918
▁moluscos	-11.2923
▁78	-11.2926
▁Guitiriz	-11.2928
▁Rodrigo	-11.2928
▁Lakers	-11.2929
vais	-11.2932
▁determinadas	-11.2932
▁foco	-11.2932
▁escama	-11.2933
▁Tradicional	-11.2934
▁trasladar	-11.2934
▁pac	-11.2935
▁Ple	-11.2936
▁utilizadas	-11.2938
▁defecto	-11.294
▁Allariz	-11.2941
▁hor	-11.2941
▁Mans	-11.2943
▁situar	-11.2945
▁fraga	-11.2947
▁Andrea	-11.2948
seguindo	-11.2948
▁equivale	-11.2948
▁Pasou	-11.295
▁Bruxelas	-11.2954
▁cúpula	-11.2954
▁algoritmo	-11.2954
▁básico	-11.2957
▁interpretado	-11.2958
▁escoita	-11.296
anti	-11.2963
▁británicas	-11.2964
▁resta	-11.2965
▁Holanda	-11.2967
▁Colonia	-11.2969
▁aldeas	-11.2969
▁arqui	-11.2972
▁Gold	-11.2973
head	-11.2974
▁paseo	-11.2978
▁extracción	-11.2982
▁causan	-11.2984
▁gale	-11.2985
▁causando	-11.2989
ásico	-11.2989
▁turista	-11.2989
tier	-11.299
cari	-11.2991
▁emitiu	-11.2991
▁Tel	-11.2992
▁abertura	-11.2992
▁Eles	-11.2994
▁criatura	-11.2995
▁exposta	-11.2996
ízase	-11.2996
▁Ren	-11.2998
▁salta	-11.3002
PSOE	-11.3002
▁cari	-11.3003
▁diplomático	-11.3005
liano	-11.3007
ómero	-11.3008
▁Baiona	-11.3008
▁Mura	-11.3015
▁testemuño	-11.3018
▁contempla	-11.3018
▁laranxa	-11.3018
▁Linux	-11.3018
ámico	-11.3018
▁afeccionados	-11.3018
▁datan	-11.302
▁estimada	-11.3021
▁gre	-11.3023
▁abundantes	-11.3023
▁explora	-11.3027
▁Gol	-11.303
▁centímetros	-11.3031
市	-11.3031
▁Luci	-11.3031
▁conduta	-11.3031
▁construíuse	-11.3032
▁obreira	-11.3032
▁tartarugas	-11.3033
▁exposto	-11.3034
▁colectiva	-11.3035
▁Jon	-11.3039
▁Motor	-11.3039
▁Escribiu	-11.3043
ián	-11.3044
▁delegación	-11.3044
▁contaminación	-11.3045
▁81	-11.3046
▁Branca	-11.3046
enda	-11.3049
mérica	-11.3051
pur	-11.3053
▁desenvolveron	-11.3053
▁Abegondo	-11.3056
▁autoestrada	-11.3056
▁Palestina	-11.3056
▁Aérea	-11.3057
▁Alacant	-11.3057
▁cego	-11.3057
▁conxuga	-11.3059
▁resolv	-11.3059
▁atopáron	-11.306
▁consagra	-11.306
▁00	-11.3061
beira	-11.3061
▁manchas	-11.3064
▁Volta	-11.3066
ş	-11.3069
▁Supremo	-11.3069
Cesuras	-11.3069
▁Prim	-11.3073
▁transmitir	-11.3075
▁crustáceos	-11.3082
▁lexislación	-11.3082
▁téxtil	-11.3082
▁cruzar	-11.3084
▁taxas	-11.3085
ámica	-11.3086
▁seja	-11.3088
zá	-11.309
▁utilízan	-11.309
ciden	-11.309
▁temperá	-11.3091
▁Aquí	-11.3091
▁setenta	-11.3093
▁pelos	-11.3096
▁obtiver	-11.3097
▁gráfica	-11.3097
▁enriba	-11.3098
▁conservador	-11.3098
▁faría	-11.3098
▁convertería	-11.3104
ane	-11.3104
▁mit	-11.3105
▁pasaba	-11.3107
▁conservada	-11.3107
▁voluntario	-11.3108
▁ateniense	-11.3108
▁procesado	-11.3109
▁empate	-11.3109
▁Hip	-11.3111
▁vaso	-11.3114
tónico	-11.3114
ulosa	-11.3117
▁tentativa	-11.3117
▁repertorio	-11.3121
▁pergunta	-11.3121
▁Ferreiro	-11.3122
▁vasca	-11.3122
▁coida	-11.3123
▁perdido	-11.3123
▁Banda	-11.3124
▁Pereira	-11.3127
▁embarcación	-11.3127
▁Sabe	-11.3129
itar	-11.313
▁Iraq	-11.3132
▁tru	-11.3133
▁Nalgunha	-11.3134
▁period	-11.3134
▁contemporáneos	-11.3136
▁examina	-11.3137
▁rab	-11.3142
▁trip	-11.3143
▁saud	-11.3144
lite	-11.3148
▁suxeriu	-11.3149
riana	-11.315
▁Dado	-11.3153
ović	-11.3157
▁mandíbula	-11.316
▁universitaria	-11.316
▁FIA	-11.316
▁vocal	-11.316
pou	-11.3161
▁incom	-11.3161
gráfica	-11.3161
phe	-11.3164
▁costeira	-11.3166
▁colaborar	-11.3167
▁Varia	-11.3171
▁vea	-11.3171
▁probar	-11.3171
▁Lourenzo	-11.3173
▁ambiental	-11.3173
▁traducida	-11.3173
▁esixi	-11.3173
▁predomina	-11.3174
▁tortura	-11.3176
▁Bala	-11.318
▁ergue	-11.3182
▁Comeza	-11.3183
▁previsto	-11.3186
▁paquete	-11.3186
▁derrotou	-11.3186
▁atentado	-11.3187
▁acumulación	-11.3187
▁Rich	-11.3188
▁cantón	-11.3191
▁Young	-11.3196
tella	-11.3197
ível	-11.3198
▁foca	-11.3199
▁Quinta	-11.32
terminal	-11.3204
nega	-11.3204
▁fago	-11.3205
▁versos	-11.3207
▁realizouse	-11.3208
habilit	-11.321
▁vesículas	-11.3211
▁Recente	-11.3212
ī	-11.3212
▁conquistou	-11.3212
▁ruptura	-11.3212
▁88	-11.3215
▁1871	-11.3216
▁cordas	-11.3218
bondo	-11.3221
▁1830	-11.3222
▁tornar	-11.3222
bú	-11.3223
▁Imp	-11.3225
▁proveniente	-11.3225
▁cadrado	-11.3225
▁preferencia	-11.3227
quista	-11.3229
NE	-11.3229
▁galaxias	-11.3229
stalou	-11.3231
eva	-11.3234
▁aguda	-11.3235
thy	-11.3237
▁abandono	-11.3237
▁lema	-11.3238
▁Giovanni	-11.3238
▁tóxico	-11.3238
▁simboliza	-11.3238
▁colaborador	-11.3239
▁fiestra	-11.324
mental	-11.3245
▁Josep	-11.3246
▁demostración	-11.3247
▁escaleira	-11.3251
▁ensinanza	-11.3252
▁tab	-11.3253
▁1879	-11.3256
▁dáse	-11.3258
MI	-11.326
ά	-11.3264
▁vixente	-11.3265
▁Kiev	-11.3266
▁VIH	-11.3271
trina	-11.3272
▁orgánicos	-11.3277
▁Buck	-11.3277
▁duas	-11.3277
▁islam	-11.3278
tine	-11.3279
у	-11.3291
▁inflamación	-11.3291
▁Leonardo	-11.3291
▁-3	-11.3293
▁aminoácido	-11.3294
enza	-11.3295
pora	-11.3296
▁pega	-11.3303
▁continuidade	-11.3304
▁lexislatura	-11.3304
▁mediterránea	-11.3304
▁fracasa	-11.3304
▁luxo	-11.3305
▁choque	-11.3307
▁altar	-11.3307
▁ligazón	-11.3307
▁axusta	-11.3308
▁coroado	-11.3309
vest	-11.3309
▁Pío	-11.3313
▁Indiana	-11.3315
▁canon	-11.3315
▁dianteira	-11.3315
▁especialidade	-11.3316
▁crearon	-11.3321
▁Dom	-11.3324
▁nacionalistas	-11.3326
▁79	-11.3326
▁inser	-11.3327
▁Kara	-11.3329
gul	-11.333
▁Aristóteles	-11.333
crom	-11.3331
▁esperar	-11.3334
▁modificada	-11.3335
▁Cine	-11.3335
▁confusión	-11.3336
glia	-11.334
▁psico	-11.3341
▁arquitectónico	-11.3344
▁percepción	-11.3345
érase	-11.3347
key	-11.3347
▁veciño	-11.3349
▁fundouse	-11.3352
▁Ec	-11.3355
▁Guipúscoa	-11.3357
▁axeitado	-11.3357
flor	-11.3358
ibilidade	-11.3358
▁Kir	-11.336
▁xerado	-11.3361
▁ocupando	-11.3363
▁constrúe	-11.337
▁diminuír	-11.337
▁declive	-11.337
▁edificación	-11.3371
▁galés	-11.3372
▁video	-11.3373
▁tap	-11.3373
▁protestas	-11.3374
gano	-11.3375
▁Apo	-11.3376
▁voda	-11.3377
▁favorito	-11.3378
▁dedicou	-11.3379
▁completou	-11.338
▁caracterizado	-11.3381
▁Valdeorras	-11.3383
▁triángulo	-11.3383
▁convencional	-11.3383
▁ámbolos	-11.3383
▁tradutor	-11.3384
▁sentenza	-11.3384
▁moderado	-11.3384
dula	-11.3389
▁84	-11.3389
▁Latina	-11.3394
▁Carra	-11.3396
▁rapaces	-11.3397
▁penal	-11.3402
▁conducir	-11.3409
▁célebre	-11.341
▁nocturno	-11.341
▁flota	-11.3411
▁Delta	-11.3416
amina	-11.3418
▁marchar	-11.3418
▁segmento	-11.3418
▁pique	-11.342
▁cerebral	-11.3423
▁Pico	-11.3423
▁pú	-11.3424
feito	-11.3424
íno	-11.3426
▁Vilanova	-11.3426
▁morta	-11.3427
▁circun	-11.3427
▁Boa	-11.343
scribindo	-11.3432
▁vou	-11.3433
▁Están	-11.3434
▁pulmonar	-11.3437
▁expresar	-11.3439
▁administrador	-11.344
▁Catro	-11.3441
▁FA	-11.3442
▁gro	-11.3442
▁fortifica	-11.3443
▁experimento	-11.3444
▁representando	-11.3445
▁University	-11.345
▁galardón	-11.345
▁morfoloxía	-11.345
▁Houb	-11.3451
hua	-11.3451
▁Pic	-11.3451
▁reúne	-11.3452
▁sabemos	-11.3455
▁By	-11.3458
▁estruturais	-11.3458
▁delito	-11.3459
▁Lé	-11.346
PA	-11.3461
▁coordina	-11.3463
▁arbusto	-11.3464
▁retorna	-11.3464
▁convertido	-11.3465
▁autora	-11.3465
▁tormenta	-11.3466
▁Honda	-11.3467
▁Circ	-11.3467
▁proposto	-11.3468
▁vinculado	-11.3469
ísmo	-11.3473
▁denominou	-11.3473
▁camiña	-11.3477
▁instancia	-11.3477
▁gravita	-11.3477
▁Barbanza	-11.3478
ceda	-11.3479
▁Parece	-11.3479
▁venceu	-11.3481
▁Cle	-11.3481
▁Kin	-11.3481
▁baño	-11.3483
▁chamarse	-11.3486
▁aprobada	-11.3487
▁Somoza	-11.3491
▁dezaseis	-11.3491
▁infante	-11.3491
gü	-11.3493
▁costeiras	-11.3493
▁traslado	-11.3493
▁roman	-11.3497
▁interesa	-11.3501
rique	-11.3502
▁Lituania	-11.3504
▁tecnologia	-11.3504
▁Sofía	-11.3504
▁léva	-11.3504
▁siglas	-11.3504
▁sú	-11.3504
▁patrocinio	-11.3506
▁Demo	-11.3509
mene	-11.351
▁feble	-11.3511
▁viron	-11.3512
mura	-11.3512
▁correcta	-11.3513
▁Barra	-11.3513
▁Down	-11.3519
▁introducida	-11.3519
▁ACB	-11.3522
▁pun	-11.3526
▁Vir	-11.3526
▁quixo	-11.3527
▁recibía	-11.3531
▁triunfa	-11.3531
▁asasino	-11.3531
▁teoloxía	-11.3537
ésimo	-11.3537
▁adicado	-11.3537
▁chegaría	-11.3537
▁desas	-11.3538
▁niños	-11.3539
pie	-11.3542
▁ligando	-11.3548
▁1873	-11.3549
▁1865	-11.355
▁agocha	-11.3552
eceu	-11.3557
▁habitación	-11.3559
iforme	-11.356
▁burato	-11.356
cino	-11.3561
gie	-11.3568
▁limitación	-11.357
м	-11.3572
▁revolucionaria	-11.3572
▁espectacular	-11.3572
▁prototipo	-11.3572
riza	-11.3573
▁Bandeira	-11.3575
▁rexe	-11.3575
▁Mercia	-11.3579
▁dependen	-11.358
▁som	-11.3582
▁sabía	-11.3582
▁Bieito	-11.3585
ópodos	-11.3586
▁oficina	-11.3586
zza	-11.3587
rium	-11.3588
puxeron	-11.3592
▁estrat	-11.3595
▁2.000	-11.3598
▁engadiu	-11.3599
▁Lang	-11.3599
▁His	-11.3601
▁mina	-11.3603
▁obtida	-11.3605
▁Vas	-11.3606
▁paxaros	-11.3612
▁trazo	-11.3612
▁certeza	-11.3612
▁parlamentario	-11.3612
▁referendo	-11.3612
▁Detroit	-11.3612
cimento	-11.3613
▁fármaco	-11.3614
▁tumores	-11.3615
▁Phil	-11.3616
NP	-11.3616
▁Interior	-11.3621
▁86	-11.3623
▁romper	-11.3626
▁Wilhelm	-11.3626
▁mio	-11.3627
▁doazón	-11.3627
▁fortificación	-11.3635
▁deseñador	-11.3636
▁Sky	-11.3637
▁cotiá	-11.3637
▁madurez	-11.364
▁territoriais	-11.364
▁NHL	-11.364
▁através	-11.364
érico	-11.3646
▁xofre	-11.3654
TR	-11.3654
▁Lie	-11.3654
▁observou	-11.3655
▁Xulio	-11.3656
ugu	-11.3656
▁complexas	-11.366
▁sales	-11.3665
▁três	-11.3667
▁representou	-11.3667
▁tributo	-11.3669
▁Isaac	-11.3669
chel	-11.367
▁anula	-11.3672
▁François	-11.3672
▁legado	-11.3674
▁ósea	-11.3674
▁aproximación	-11.3678
▁Petr	-11.3678
eado	-11.3679
▁fabricar	-11.368
▁ONU	-11.3681
▁engadido	-11.3681
▁asistiu	-11.3681
▁Lauda	-11.3681
▁qual	-11.3685
▁Out	-11.3686
gram	-11.3686
▁interiores	-11.369
▁compostelá	-11.3694
▁desaparecido	-11.3694
▁Taboada	-11.3694
▁Wilson	-11.3695
▁apoiou	-11.3696
▁oposta	-11.3701
▁rexente	-11.3705
▁rato	-11.3707
▁Xogaba	-11.3707
▁israelí	-11.3708
▁producía	-11.3708
▁extracelular	-11.3708
▁aprobado	-11.3711
▁coloración	-11.3711
▁rexeitamento	-11.3714
▁cable	-11.3714
▁puntuación	-11.3716
▁calcula	-11.3717
mund	-11.3717
▁Económica	-11.3722
д	-11.3722
▁Nicola	-11.3722
▁veleno	-11.3723
▁poderá	-11.3728
▁dirixi	-11.373
▁simula	-11.3731
▁ciclista	-11.3734
stone	-11.3736
▁arrecife	-11.3736
▁diminúe	-11.3736
▁redacta	-11.3736
▁filamentos	-11.3736
▁hotel	-11.3737
▁Nacionalista	-11.3739
▁narración	-11.3739
▁ocorrer	-11.374
queiro	-11.3741
trans	-11.3747
▁ofensiva	-11.3749
▁tiburón	-11.3749
▁medula	-11.3751
▁fabricado	-11.3751
▁cubrir	-11.3753
▁exclusiva	-11.3757
TV	-11.3761
▁sinfonía	-11.3763
▁térmica	-11.3763
mante	-11.3763
ciente	-11.3766
▁fab	-11.3771
▁musulmá	-11.3775
▁integral	-11.3776
▁Decreto	-11.3777
▁cooperación	-11.3782
▁dinam	-11.3783
▁sofren	-11.3783
▁turbo	-11.3785
▁Sete	-11.3788
▁presentada	-11.3788
▁mutua	-11.379
▁profesores	-11.379
cript	-11.3791
activa	-11.3791
▁Faro	-11.3791
▁componse	-11.3795
▁biografía	-11.3796
▁1878	-11.3796
▁combater	-11.3798
▁manifestación	-11.3802
▁pala	-11.3803
▁epidemia	-11.3805
▁réptiles	-11.3805
▁viúva	-11.3805
▁acrónimo	-11.3805
▁Muros	-11.3805
metil	-11.3805
▁suprimi	-11.3805
▁cedeu	-11.3805
▁Little	-11.3806
▁-4	-11.3807
▁fracción	-11.3808
▁xesto	-11.3811
icul	-11.3813
▁adianta	-11.3814
▁Steven	-11.3816
▁caracterizada	-11.3816
▁proxección	-11.3819
▁Live	-11.3819
▁emitida	-11.3819
▁Kong	-11.3819
▁realista	-11.3827
fusión	-11.3829
AG	-11.3829
▁Carta	-11.3831
▁Xen	-11.3832
▁diploma	-11.3833
▁citoplasma	-11.3833
▁Salnés	-11.3835
▁xel	-11.3835
▁las	-11.3843
▁gramo	-11.3845
ω	-11.3846
▁Proxecto	-11.3846
▁Taylor	-11.3846
▁reflexión	-11.3846
▁Marcel	-11.3846
▁complemento	-11.3846
▁sostén	-11.3847
▁convence	-11.3847
▁integrantes	-11.3853
house	-11.3855
▁xogan	-11.3858
▁Minnesota	-11.386
▁BBC	-11.386
▁materna	-11.3864
▁Bem	-11.3866
▁funcionan	-11.3866
▁160	-11.3871
▁Portant	-11.3872
mine	-11.3873
▁arqueolóxica	-11.3875
▁fieis	-11.3875
▁reuniu	-11.3875
chase	-11.3875
quanto	-11.3877
▁profundamente	-11.3879
▁Cristovo	-11.388
▁então	-11.3881
gol	-11.3885
▁rub	-11.3887
▁tai	-11.3888
▁pirámide	-11.3888
▁Saturno	-11.3888
▁visigodo	-11.3888
▁Homo	-11.3889
▁alguns	-11.3889
▁Mid	-11.3889
▁viola	-11.3891
▁gramática	-11.3892
▁Gai	-11.3892
▁correcto	-11.3892
▁Membro	-11.3893
▁estudado	-11.3895
▁Hot	-11.3899
▁dimensión	-11.3902
▁Estocolmo	-11.3902
▁Tarragona	-11.3902
▁palavra	-11.3902
▁Subtitulad	-11.3902
▁haxa	-11.3904
▁acetil	-11.3906
ovich	-11.3906
▁Had	-11.3908
▁ajuda	-11.3908
▁Mega	-11.391
ítico	-11.3914
▁discorre	-11.3916
▁brasileira	-11.3916
▁mergulla	-11.3916
▁Group	-11.3917
▁internet	-11.392
▁Cat	-11.3923
▁Vida	-11.3927
▁interacciona	-11.393
▁conduciu	-11.3931
▁Moore	-11.3932
▁5.000	-11.3933
▁Ramir	-11.3934
▁Anton	-11.3935
▁instalar	-11.3936
▁Kim	-11.3936
▁gama	-11.3938
▁refuxi	-11.3938
▁cabelo	-11.3939
mple	-11.394
▁repetida	-11.394
▁Thr	-11.3941
▁renovación	-11.3945
▁rivais	-11.3945
▁terror	-11.3945
▁Water	-11.3948
▁Galia	-11.395
lock	-11.3952
TS	-11.3956
▁glico	-11.3959
▁céntra	-11.3959
▁Cómpre	-11.3959
▁orixinou	-11.3959
▁recombinación	-11.3959
▁Ignacio	-11.3959
▁manobra	-11.3959
▁señorío	-11.396
▁necesariamente	-11.3961
▁detección	-11.3961
▁meso	-11.3964
▁Wall	-11.3965
▁facción	-11.3965
▁republicana	-11.3973
▁comisario	-11.3973
▁Flam	-11.3974
▁chasis	-11.3974
RO	-11.3983
ulf	-11.3984
▁estómago	-11.3987
▁fortuna	-11.3987
fón	-11.3989
▁Reich	-11.3991
▁CNT	-11.3992
▁1.0	-11.3996
▁estableceron	-11.3997
▁vascular	-11.3999
▁alza	-11.4001
▁apareamento	-11.4001
▁filtra	-11.4001
▁checo	-11.4003
▁Heat	-11.4004
▁falecemento	-11.4004
AL	-11.4009
▁adquisición	-11.4015
▁invención	-11.4015
▁Viveiro	-11.4017
▁analiza	-11.4019
▁fazem	-11.4019
▁Allen	-11.4021
PC	-11.4024
▁mares	-11.4026
▁adoptada	-11.4027
▁choca	-11.4028
▁búlgaro	-11.4029
▁sospeita	-11.4029
zzi	-11.403
▁Gas	-11.4031
▁fito	-11.4031
▁1872	-11.4035
▁Kha	-11.4035
▁Soto	-11.4036
▁Traballo	-11.4037
▁gen	-11.4042
▁considéran	-11.4043
▁comprensión	-11.4044
▁espécime	-11.4044
▁xurado	-11.4044
▁homólogo	-11.4044
▁crista	-11.4045
▁oración	-11.4048
▁recita	-11.4048
▁1882	-11.4049
▁ascende	-11.4051
▁salientable	-11.4054
▁calcular	-11.4054
▁pó	-11.4056
▁FIFA	-11.4058
▁adecuada	-11.4058
▁cumpre	-11.4058
▁reforzo	-11.4058
▁1850	-11.4058
▁Filoloxía	-11.4059
▁formaban	-11.406
▁responsabilidad	-11.4061
▁recrea	-11.4065
▁acusación	-11.407
▁pene	-11.4072
▁asturiano	-11.4072
▁Patrick	-11.4073
▁Xaneiro	-11.4073
▁110	-11.4075
▁1.1	-11.4081
villa	-11.4082
▁Corpo	-11.4085
▁centrocampista	-11.4086
▁recollido	-11.4086
▁Palencia	-11.4088
versa	-11.4089
▁divi	-11.4089
▁padece	-11.409
▁DS	-11.4091
▁requiren	-11.4098
5.000	-11.4099
▁barba	-11.41
▁clasificou	-11.4101
▁brando	-11.4105
▁pensaba	-11.4108
▁despo	-11.4111
▁adoptado	-11.4114
▁aluminio	-11.4115
▁Seoane	-11.4115
▁computador	-11.4116
▁Bene	-11.4118
▁acompañada	-11.4122
▁Fire	-11.4125
íta	-11.4133
▁froitas	-11.4134
▁Congo	-11.4134
▁Prata	-11.4135
▁clasificada	-11.4135
▁fragment	-11.4135
andesa	-11.4136
muta	-11.4136
▁soldado	-11.4139
▁Hispania	-11.4144
▁conxela	-11.4147
▁fío	-11.4148
▁conforman	-11.4148
core	-11.4149
pole	-11.4149
▁Nord	-11.4151
▁levaban	-11.4156
▁sucesos	-11.4158
▁Vaticano	-11.4158
▁Medalla	-11.4158
▁Micro	-11.416
▁ilustrado	-11.4164
▁permitiron	-11.417
▁afectar	-11.4171
▁Athletic	-11.4172
▁tardío	-11.4172
▁roubo	-11.4173
▁asteroide	-11.4173
▁conquistar	-11.4175
▁Montaña	-11.4176
▁Cent	-11.4178
vela	-11.4179
ctivamente	-11.418
▁chegaba	-11.418
▁monxes	-11.4181
etti	-11.4184
▁ocupaba	-11.4185
▁disputado	-11.4187
▁distingue	-11.4187
▁residi	-11.4188
▁ostenta	-11.419
▁adicada	-11.4192
▁ilustración	-11.4197
▁usarse	-11.4198
▁mediterráneo	-11.4201
▁exiliado	-11.4201
▁moderada	-11.4201
RNA	-11.4201
▁millas	-11.4203
▁1861	-11.4206
há	-11.4208
La	-11.4211
▁óxido	-11.4213
▁1840	-11.4213
TP	-11.4215
▁Venus	-11.4216
▁atraso	-11.4217
▁oitava	-11.4217
PI	-11.4219
▁misa	-11.422
▁paixón	-11.4221
▁retoma	-11.4225
sigo	-11.4226
▁engade	-11.4227
▁móbiles	-11.4229
▁gabinete	-11.423
▁periódica	-11.423
▁botánico	-11.423
▁suxeita	-11.423
zán	-11.4232
culares	-11.4236
▁excepcional	-11.4237
▁resi	-11.4238
▁incorporar	-11.424
▁gusta	-11.424
▁130	-11.4243
▁subespecie	-11.4243
▁Comun	-11.4244
ý	-11.4245
▁cordilleira	-11.4245
▁dramática	-11.4245
▁liberar	-11.4245
▁Bab	-11.4248
▁Agu	-11.4249
▁liber	-11.4249
▁Jam	-11.4251
▁cultivar	-11.4252
cola	-11.4253
▁1500	-11.4253
▁milita	-11.4253
▁Dy	-11.4254
▁guerrilleiro	-11.4259
▁violín	-11.4259
▁coronel	-11.426
▁aquilo	-11.4262
▁variado	-11.4263
▁citada	-11.4266
minación	-11.4268
▁97	-11.4268
▁Marín	-11.4269
▁ficar	-11.427
▁3.000	-11.4271
ritish	-11.4271
▁Casi	-11.4273
▁mármore	-11.4274
▁Vettel	-11.4274
▁apoxeo	-11.4274
▁Crea	-11.4276
▁conxuntamente	-11.4276
▁selva	-11.4277
▁recoller	-11.4277
▁transformar	-11.4277
▁etnia	-11.4279
▁rivalidade	-11.428
▁funera	-11.4281
▁festiva	-11.4282
responsabilidade	-11.4285
▁dúo	-11.4288
▁ensina	-11.4289
▁determinación	-11.429
▁cume	-11.4292
▁1869	-11.4294
xénica	-11.4294
▁habitan	-11.4294
▁observado	-11.4295
▁silencio	-11.4296
▁Anxo	-11.4296
▁Gali	-11.4297
▁Road	-11.4301
▁Pireneos	-11.4303
▁Xenebra	-11.4303
▁arxentina	-11.4303
▁electromagnétic	-11.4303
▁comporta	-11.4304
▁Cruces	-11.4304
urus	-11.4307
org	-11.4307
▁aceptación	-11.431
▁Carme	-11.4311
itado	-11.4317
▁pato	-11.4317
▁basílica	-11.4317
▁malo	-11.4318
▁reactor	-11.4319
▁litros	-11.4321
dencia	-11.4324
▁Gene	-11.4326
▁gor	-11.4329
▁gravada	-11.433
▁Román	-11.433
▁académica	-11.4332
▁extraordinaria	-11.4332
▁celeste	-11.4332
▁Exposición	-11.4334
▁converxe	-11.4334
▁Jane	-11.4336
dez	-11.4338
▁xurdir	-11.4338
tag	-11.4341
lien	-11.4341
▁compre	-11.4343
▁Comba	-11.4344
mido	-11.4346
▁encontrou	-11.4346
▁UNESCO	-11.4347
▁sensibilidade	-11.4347
feita	-11.4347
▁reitor	-11.4347
▁Julia	-11.4348
tari	-11.4349
▁human	-11.4349
▁servía	-11.435
tivismo	-11.4351
▁turca	-11.4353
▁Stewart	-11.4361
▁sulf	-11.4364
▁nacido	-11.4367
▁inversa	-11.4368
▁Qa	-11.4368
AN	-11.4368
▁perigoso	-11.4371
▁numera	-11.4373
▁bautizado	-11.4374
▁Donostia	-11.4376
▁Valdoviño	-11.4376
▁Celtics	-11.4376
▁125	-11.4376
▁perdida	-11.4376
▁Rede	-11.4377
▁87	-11.4379
▁molde	-11.4379
▁documentación	-11.438
▁asalto	-11.4383
▁Roque	-11.4386
▁Institute	-11.439
▁Orixinal	-11.4391
plíca	-11.4391
▁estraño	-11.4391
▁serbia	-11.4397
▁aloxa	-11.4397
▁Alco	-11.4403
▁rematada	-11.4405
▁Funda	-11.4407
▁afirman	-11.4414
▁Franz	-11.4415
ı	-11.442
▁aplicada	-11.4421
trica	-11.4423
▁Plata	-11.4424
▁impe	-11.4434
▁aproveitar	-11.4435
▁rem	-11.4439
▁lipo	-11.4444
▁poñen	-11.4444
▁Uma	-11.4446
emade	-11.445
▁consenso	-11.445
▁Paris	-11.4451
▁Albania	-11.4454
▁anxo	-11.4455
▁estendida	-11.446
IP	-11.4462
nucleótido	-11.4463
ي	-11.4464
▁sacrificio	-11.4464
▁transbordador	-11.4464
▁adaptada	-11.4473
▁raio	-11.4476
▁exporta	-11.4476
▁Sob	-11.4478
▁intercambia	-11.4479
▁recompilatorio	-11.448
▁repetición	-11.4481
▁pór	-11.4483
▁escoitar	-11.4486
▁Chipre	-11.4487
▁mante	-11.4487
▁sobe	-11.4487
▁directora	-11.4494
▁filosófica	-11.4494
▁marqués	-11.4494
▁convención	-11.4494
▁Fab	-11.4495
▁Ebro	-11.4496
▁procesamento	-11.4497
▁Pé	-11.4499
▁1863	-11.4499
▁cren	-11.45
▁falece	-11.45
▁crecer	-11.4501
▁Labor	-11.4501
▁abuso	-11.4501
▁solista	-11.4504
▁Carballiño	-11.4509
▁Saúde	-11.4509
esou	-11.4509
▁Victor	-11.4513
long	-11.4522
▁fosfo	-11.4522
▁renunciou	-11.4524
▁ferroviaria	-11.4524
▁tracto	-11.4524
▁adquire	-11.4524
▁Moreno	-11.4524
▁Bad	-11.4526
▁encargo	-11.4527
▁vivenda	-11.4529
▁Prix	-11.4532
inger	-11.4533
▁verso	-11.4534
▁escar	-11.4534
▁froita	-11.4534
▁Caixa	-11.4537
▁forno	-11.4538
▁esquina	-11.4539
¡	-11.4539
ária	-11.454
cendi	-11.4541
▁83	-11.4545
▁puntua	-11.4549
▁rodaxe	-11.4549
▁trastorno	-11.455
▁xurídica	-11.4554
▁occidente	-11.4554
▁cereais	-11.4554
▁Ancares	-11.4554
▁Especial	-11.4555
▁Fred	-11.4557
gir	-11.4558
▁principado	-11.4559
▁Leonor	-11.4562
▁Dallas	-11.4562
▁Master	-11.4564
▁Pontedeume	-11.4569
▁automobilismo	-11.4569
▁holandés	-11.4569
▁Flandres	-11.4569
▁fértil	-11.4569
▁trouxo	-11.4569
▁cadrada	-11.4569
▁Mach	-11.4569
▁feixe	-11.457
▁Ría	-11.4572
▁dándolle	-11.4572
▁mortalidade	-11.4572
▁PA	-11.4573
▁dimisión	-11.4573
come	-11.4575
▁Neves	-11.4579
▁Aos	-11.458
▁Brit	-11.458
AD	-11.4581
▁Bau	-11.4582
▁Puerto	-11.4584
▁promesa	-11.4584
▁predador	-11.4584
▁constantemente	-11.4585
▁impreso	-11.4585
▁india	-11.4586
▁infl	-11.4587
▁1867	-11.459
▁fosf	-11.459
▁acontecer	-11.4592
▁basal	-11.4595
▁clon	-11.4596
▁Igual	-11.4596
▁Carballedo	-11.4599
▁dispersión	-11.4599
▁Cervantes	-11.4599
glob	-11.4599
▁turística	-11.46
▁Alasca	-11.46
▁cranio	-11.46
▁Chegou	-11.4601
▁Brad	-11.4604
▁funcionais	-11.4606
▁Barrio	-11.4606
▁Vella	-11.4606
▁aventura	-11.4607
▁protagonizada	-11.4609
▁Four	-11.4609
TC	-11.461
▁responder	-11.4612
▁Alfred	-11.4612
▁parto	-11.4612
meiro	-11.4613
▁Estonia	-11.4614
▁cacho	-11.4614
▁91	-11.4615
▁vendida	-11.4616
ET	-11.4618
inus	-11.4619
▁enfrontarse	-11.462
▁defensiva	-11.4629
▁campamento	-11.4629
▁Mesm	-11.4632
▁investigar	-11.4637
gulación	-11.4637
RP	-11.4642
▁viquingo	-11.4644
▁Nicolás	-11.4644
▁arrefria	-11.4644
▁elixiu	-11.4644
volucion	-11.4649
▁exhibición	-11.4649
pend	-11.465
CoA	-11.465
▁garantir	-11.465
▁lentamente	-11.4653
▁elaborada	-11.4656
▁amosan	-11.4656
izante	-11.4659
▁Microsoft	-11.4659
▁eventual	-11.4659
▁Óscar	-11.4659
▁LP	-11.4662
ínico	-11.4662
▁Solar	-11.4662
▁integrou	-11.4663
▁subministración	-11.4664
▁Acción	-11.4665
▁dourada	-11.4665
▁codia	-11.4666
▁forzado	-11.4669
▁Preto	-11.4673
▁Generalitat	-11.4674
▁Singapur	-11.4674
▁ucraíno	-11.4674
▁Bierzo	-11.4674
▁apartado	-11.4675
▁asimila	-11.4675
▁superou	-11.4677
▁Nick	-11.4688
▁recurso	-11.4689
▁Baloncesto	-11.4689
▁Seguridade	-11.4689
▁dixestivo	-11.469
▁rescata	-11.469
▁excede	-11.4692
▁Greg	-11.4694
▁deberían	-11.4695
▁Open	-11.4696
▁cinto	-11.4696
▁fuga	-11.4698
▁perigosa	-11.4699
▁Andre	-11.4702
ر	-11.4705
▁bizantina	-11.4705
▁chineses	-11.4705
▁fósil	-11.4705
▁Bruce	-11.4706
▁plumaxe	-11.4706
▁indíxena	-11.4707
▁raia	-11.4709
▁Bouza	-11.4709
▁Clemente	-11.4712
▁rompeu	-11.4713
▁entregado	-11.4715
▁somos	-11.4716
▁zume	-11.4717
▁botánica	-11.472
▁Goya	-11.4721
▁EE	-11.4722
▁gótica	-11.4723
▁persegui	-11.4724
▁gobernou	-11.4728
▁Jer	-11.4731
▁93	-11.4732
tuoso	-11.4732
▁Seminario	-11.4735
▁bebé	-11.4736
▁1874	-11.4741
bie	-11.4742
trib	-11.4744
▁terían	-11.4745
▁cedo	-11.4745
hon	-11.4747
▁Tailandia	-11.475
▁Toquio	-11.475
▁cardio	-11.4756
▁criado	-11.4756
▁1875	-11.4758
▁intre	-11.476
▁Stalin	-11.4763
icular	-11.4764
▁Premier	-11.4765
▁Xibraltar	-11.4765
▁Xirona	-11.4766
▁azuis	-11.4767
▁impar	-11.477
▁outorgado	-11.4774
xado	-11.4775
▁seguramente	-11.478
▁Harvard	-11.4781
▁Villeneuve	-11.4781
▁telescopio	-11.4781
▁actina	-11.4783
▁globo	-11.4784
▁invita	-11.4784
▁1864	-11.4787
▁Old	-11.4787
▁partiu	-11.4787
▁necesitan	-11.4789
▁emigrante	-11.4789
▁falso	-11.4789
▁comparte	-11.4793
▁educa	-11.4794
▁Grove	-11.4794
óforo	-11.4795
▁expulsión	-11.4796
▁lingüista	-11.4796
▁Team	-11.4797
▁Jeff	-11.4797
▁Prince	-11.4798
▁publicaron	-11.4799
▁j	-11.4802
▁Rivas	-11.4802
▁postula	-11.4806
▁disolv	-11.481
mpli	-11.481
▁anglosaxón	-11.4811
▁democrático	-11.4811
▁escocesa	-11.4811
pso	-11.4817
cup	-11.4821
▁Realizou	-11.4824
▁var	-11.4826
▁nomenclatura	-11.4827
▁cantiga	-11.4827
▁clero	-11.4827
▁reduciu	-11.4827
▁exemplar	-11.4828
▁traxedia	-11.4828
▁Desa	-11.4828
▁Bernardo	-11.483
▁neutral	-11.483
▁1866	-11.4833
▁Vivi	-11.4833
▁falaba	-11.4836
▁borra	-11.4836
▁2,5	-11.4838
▁electr	-11.4839
▁Gale	-11.4842
▁invertebrados	-11.4842
▁instalouse	-11.4842
▁sinatura	-11.4842
▁dividiu	-11.4842
▁prefire	-11.4843
▁salientar	-11.4846
▁conduce	-11.4848
dita	-11.4851
▁Otto	-11.4854
▁Ecuador	-11.4858
▁duplica	-11.4859
▁Arabia	-11.486
▁Portela	-11.486
dido	-11.486
▁ruído	-11.4861
▁Alt	-11.4861
▁cinc	-11.4862
éronlle	-11.4866
cende	-11.4867
emia	-11.4869
talo	-11.4872
▁recompila	-11.4872
▁contando	-11.4873
▁Editorial	-11.4873
▁Illinois	-11.4873
▁refuxiados	-11.4874
▁Representa	-11.4874
▁Proc	-11.4875
▁pregamento	-11.4876
▁troco	-11.4882
▁aconteceu	-11.4882
▁contracción	-11.4883
▁900	-11.4884
▁ausente	-11.4886
▁IP	-11.4886
▁Acerbaixán	-11.4888
▁excesiva	-11.4888
▁Monfero	-11.4888
▁Esparta	-11.4889
▁Xaim	-11.4889
EG	-11.4891
▁capitalismo	-11.4891
▁Planta	-11.4896
▁marxina	-11.4896
▁capturar	-11.4897
▁100.000	-11.4899
▁Union	-11.4902
▁clar	-11.4902
▁Missouri	-11.4904
▁cervexa	-11.4904
▁olímpico	-11.4904
▁feliz	-11.4904
▁vasalo	-11.4904
SD	-11.4906
▁canteira	-11.4906
▁Gian	-11.4907
▁carlista	-11.491
▁Rúa	-11.4911
▁Brig	-11.4912
▁medrar	-11.4912
▁articula	-11.4912
▁Sá	-11.4914
▁SS	-11.4917
▁gobernar	-11.4919
▁inclusión	-11.4919
▁Considérase	-11.4919
▁Laracha	-11.492
▁óptica	-11.492
▁ocupan	-11.492
▁acudir	-11.4921
▁Pau	-11.4924
▁Obrigad	-11.4924
melo	-11.4927
▁Checa	-11.4933
▁SD	-11.4935
ifícase	-11.4936
▁sólida	-11.4936
▁disputada	-11.4939
▁London	-11.494
▁96	-11.4944
▁Newton	-11.4946
▁bla	-11.4948
▁glaciar	-11.4951
▁secuestra	-11.4951
▁sedimentos	-11.4951
▁Tomás	-11.4953
▁refina	-11.4961
▁pataca	-11.4966
▁crédito	-11.4966
▁ábsida	-11.4966
▁Trofeo	-11.4966
▁verte	-11.4967
▁Howard	-11.4969
▁Bart	-11.4975
▁encabezou	-11.4982
▁valenciano	-11.4982
▁percibi	-11.4982
▁seminario	-11.4982
▁Clara	-11.4983
▁Adolfo	-11.499
tión	-11.4992
▁Hockey	-11.4997
▁Sebastian	-11.4997
▁astronomía	-11.4997
▁autónomo	-11.4997
▁Comercio	-11.4997
▁Tai	-11.4999
▁inspirada	-11.4999
ME	-11.4999
▁teórica	-11.4999
▁faraón	-11.5
▁fasci	-11.5001
▁Compa	-11.5008
▁nomear	-11.5012
▁Northumbria	-11.5013
▁dicionario	-11.5013
▁directiva	-11.5013
▁Stefan	-11.5014
▁correu	-11.5014
▁NAD	-11.5017
▁urina	-11.5021
▁estender	-11.5023
▁sho	-11.5025
▁Paio	-11.5026
▁leito	-11.5026
ffi	-11.5027
iente	-11.5027
▁Eurocopa	-11.5029
▁bóla	-11.5029
▁étnica	-11.5029
▁marcador	-11.5029
▁móbil	-11.503
▁excita	-11.5036
▁cinta	-11.5037
fór	-11.5041
▁esencia	-11.5043
▁cliente	-11.5044
▁anatomía	-11.5044
▁evolucionou	-11.5044
▁debilita	-11.5045
▁virtual	-11.5045
▁colapso	-11.5045
tónica	-11.5048
▁tenho	-11.5049
▁corporación	-11.505
▁Wolf	-11.505
▁bol	-11.505
▁ingreso	-11.5055
▁proporcional	-11.5056
▁saen	-11.5056
▁sensor	-11.5057
▁certame	-11.5059
▁conservar	-11.5061
▁sulfato	-11.5061
▁insular	-11.5061
▁fru	-11.5063
tili	-11.5065
▁substituto	-11.5066
CP	-11.5067
▁ideais	-11.5069
▁violación	-11.507
▁patio	-11.5072
ί	-11.5075
▁informática	-11.5076
▁simultanea	-11.5076
▁sorpresa	-11.5076
▁Romero	-11.5076
▁Cele	-11.5076
▁corno	-11.5077
▁experimentou	-11.5078
▁vertente	-11.5081
▁baseándo	-11.5081
▁Bang	-11.5083
íbeis	-11.5088
▁Leva	-11.5089
▁submarino	-11.5092
▁medrou	-11.5092
▁australiana	-11.5092
▁encaixa	-11.5092
▁Porsche	-11.5093
▁Cangas	-11.5101
▁Pha	-11.5105
▁NASA	-11.5107
▁idéntica	-11.5107
▁inmigración	-11.5107
▁vicerrei	-11.5107
▁noveno	-11.5108
▁ascendencia	-11.5109
▁esquí	-11.5111
är	-11.5113
▁STS	-11.5114
▁Fun	-11.5116
▁salón	-11.5118
cionismo	-11.512
▁amais	-11.5123
▁respiración	-11.5123
▁Negra	-11.5127
▁1833	-11.5129
▁vestido	-11.5129
▁imposto	-11.5129
▁Cambre	-11.5132
ísima	-11.5133
▁modifica	-11.5134
▁modificar	-11.5134
▁Coll	-11.5136
ē	-11.5139
▁subdivid	-11.5139
▁dalgún	-11.5143
▁1877	-11.5146
gata	-11.515
▁manto	-11.5152
▁púxose	-11.5153
▁Agrupación	-11.5155
▁Groenlandia	-11.5155
▁xurídico	-11.5155
▁arranxo	-11.5155
▁impo	-11.5155
▁lucense	-11.5155
▁Nintendo	-11.5155
▁fála	-11.5155
▁legais	-11.5155
▁macizo	-11.5155
izando	-11.5157
▁ampliou	-11.5158
puxéron	-11.5161
chou	-11.5162
▁banca	-11.5165
▁distante	-11.5166
▁Debe	-11.5166
▁prohibido	-11.5167
▁Tolosa	-11.5171
▁envolve	-11.5171
ère	-11.5183
inae	-11.5184
▁Liv	-11.5187
▁suborde	-11.5187
▁Thor	-11.5187
polo	-11.5188
▁colocado	-11.5191
color	-11.5194
▁anglo	-11.5194
iense	-11.5199
▁impor	-11.5201
▁híbrido	-11.5203
▁almacenamento	-11.5211
▁horta	-11.5212
▁Pilar	-11.5215
▁cuestiona	-11.5219
▁cérebro	-11.5219
▁embarazo	-11.5219
▁UD	-11.5229
▁regulador	-11.5233
▁Apareceu	-11.5233
▁Zeus	-11.5234
ï	-11.5235
▁beneficia	-11.5235
▁Stanley	-11.5235
▁infanta	-11.5235
▁descansa	-11.5235
▁cliva	-11.5235
▁Just	-11.5237
▁Alca	-11.5238
pote	-11.5239
▁mg	-11.5241
gina	-11.5243
▁aguia	-11.5244
gil	-11.5245
▁estímulo	-11.5251
▁heavy	-11.5251
▁Índico	-11.5251
▁psicoloxía	-11.5251
▁Regi	-11.5253
▁Gobernador	-11.5253
▁aliado	-11.5254
▁ensinar	-11.5256
elec	-11.5262
▁Industrial	-11.5264
ž	-11.5267
▁cardíaco	-11.5267
▁Spring	-11.5267
álica	-11.5268
▁sinalar	-11.5268
▁fili	-11.5269
▁formulación	-11.5271
cele	-11.5272
▁emoción	-11.5275
▁praga	-11.5277
▁fundamento	-11.5278
▁estendido	-11.528
▁Operación	-11.528
lib	-11.528
▁Domínguez	-11.5283
▁clínico	-11.5283
▁Siberia	-11.5283
▁dispersa	-11.5283
▁chuvia	-11.5285
▁acorde	-11.5288
cord	-11.529
▁criterio	-11.5294
▁larva	-11.5295
▁Beck	-11.5296
▁lírica	-11.5299
▁arrastra	-11.5299
▁manexa	-11.5301
▁ermida	-11.5302
▁biólogo	-11.5305
▁mulheres	-11.5306
ghi	-11.5312
▁Meira	-11.5313
م	-11.5315
▁Xacobe	-11.5315
▁atractivo	-11.5315
▁Fisterra	-11.5315
▁Catarina	-11.5316
▁Espacial	-11.5316
árase	-11.5317
▁milicia	-11.5319
▁respondeu	-11.532
▁neg	-11.5323
chy	-11.5324
butou	-11.5326
▁sultán	-11.5331
▁andaluz	-11.5331
▁transformou	-11.5331
▁posibel	-11.5332
▁balance	-11.5333
▁mudanza	-11.5333
▁Honor	-11.5336
▁Marx	-11.5342
▁Fall	-11.5343
▁uva	-11.5345
biótico	-11.5346
veira	-11.5347
▁Pensilvania	-11.5347
▁similitude	-11.5347
▁Xavier	-11.5347
▁outorgou	-11.5347
▁Russell	-11.5347
▁estrés	-11.5347
▁Conservatorio	-11.5348
▁financiamento	-11.5352
▁Pesca	-11.5362
▁Alpes	-11.5363
ă	-11.5364
▁Méndez	-11.5364
▁defensivo	-11.5364
▁secuela	-11.5364
▁regularmente	-11.5365
▁esperaba	-11.5365
▁orixinando	-11.5365
▁recordo	-11.5366
▁escapa	-11.5369
▁89	-11.537
▁comprar	-11.5371
Ro	-11.5374
▁contemporáneo	-11.5377
▁Afganistán	-11.538
▁gaélico	-11.5381
▁colocou	-11.5381
▁vogal	-11.5382
▁reproducir	-11.5382
▁señore	-11.5382
▁patrocinador	-11.5384
▁fariña	-11.5384
▁retira	-11.5384
árona	-11.5386
▁Ruiz	-11.5386
ícola	-11.5389
▁Flores	-11.539
▁nem	-11.539
▁fiz	-11.5391
meno	-11.5394
▁aproveitando	-11.5396
▁estratéxica	-11.5396
▁castaña	-11.5396
▁descanso	-11.5396
▁Crimea	-11.5396
▁Nava	-11.5397
▁Viana	-11.5397
▁auxe	-11.5399
▁Miller	-11.5399
▁Miranda	-11.5399
▁Concepción	-11.54
▁Sergi	-11.5403
guin	-11.5408
▁atacou	-11.5412
▁ferroviario	-11.5412
lement	-11.5416
▁reivindica	-11.542
▁1812	-11.5422
▁obt	-11.5425
SO	-11.5426
▁episcopal	-11.5429
▁fractura	-11.5429
▁parlamentaria	-11.5429
▁consoante	-11.5429
▁Vidal	-11.5432
gó	-11.5433
▁fiel	-11.5434
▁constancia	-11.5435
▁1808	-11.5437
▁atraer	-11.5442
▁renacentista	-11.5445
▁sucedido	-11.5445
▁intracelular	-11.5445
▁traspaso	-11.5445
▁predica	-11.5447
▁conformación	-11.5451
▁Magic	-11.5451
▁apoiada	-11.5453
shima	-11.5455
100	-11.5457
▁Tab	-11.5459
▁Luna	-11.5461
▁artificiais	-11.5461
▁fotógrafo	-11.5461
▁almacén	-11.5461
▁substancial	-11.5462
▁colisión	-11.5463
▁incluían	-11.5463
▁Darío	-11.5465
▁orientada	-11.5467
.200	-11.5467
Star	-11.5472
▁intestinal	-11.5472
▁Quebec	-11.5478
▁aborixe	-11.5478
▁diversific	-11.548
▁agraria	-11.548
▁cultiva	-11.5483
▁criou	-11.5483
▁peteiro	-11.5483
ância	-11.5483
▁mortal	-11.5486
▁ducia	-11.549
quín	-11.5491
▁término	-11.5494
▁apóstolo	-11.5494
▁tomado	-11.5495
▁Templo	-11.5495
▁Cedeira	-11.5498
▁dimiti	-11.55
▁lunar	-11.5503
▁conxunta	-11.5507
▁iniciado	-11.5507
▁dista	-11.5508
▁sá	-11.551
▁vivindo	-11.551
▁desenvolven	-11.551
▁resonancia	-11.5511
▁frontal	-11.5511
▁fermosa	-11.5511
▁xenérico	-11.5511
▁Stadium	-11.5511
▁Jazz	-11.5512
nteriormente	-11.5513
▁Toma	-11.5521
▁enlaza	-11.5524
▁desencadea	-11.5527
▁mísil	-11.5527
▁sagrado	-11.5527
time	-11.553
ppa	-11.5534
mph	-11.5534
ceae	-11.5536
▁Hong	-11.5536
thu	-11.5541
▁Fle	-11.5543
▁distribúe	-11.5544
▁evolutivo	-11.5544
▁capitais	-11.5544
▁dirixía	-11.5544
▁Couto	-11.5546
▁350	-11.5546
IN	-11.5547
cero	-11.5552
▁Cinco	-11.5552
▁escrib	-11.5558
▁testa	-11.5559
▁metabólica	-11.556
▁silvestre	-11.556
▁descobri	-11.556
▁concorda	-11.5563
▁nó	-11.5564
▁balón	-11.557
▁Mariano	-11.5572
▁Cerdedo	-11.5577
▁protocolo	-11.5577
▁pertenceu	-11.5579
▁cota	-11.5581
▁1854	-11.5583
▁Show	-11.5583
▁Valde	-11.5588
toxina	-11.5588
▁filoxenética	-11.5593
▁Noroeste	-11.5594
▁atómico	-11.5594
icus	-11.5595
▁Emilia	-11.5596
▁casamento	-11.5599
▁Nicolao	-11.5599
▁penso	-11.5599
▁Rosario	-11.56
bacteria	-11.5605
▁vemos	-11.5606
▁desenvolv	-11.5607
▁1820	-11.5607
dución	-11.5609
▁Guatemala	-11.561
▁bicicleta	-11.561
▁doméstica	-11.561
▁indirecta	-11.561
▁Bolivia	-11.561
▁blues	-11.561
▁elefante	-11.561
▁véxa	-11.561
▁xamais	-11.561
scríbese	-11.5611
▁proporcionan	-11.5614
▁Nove	-11.5622
▁Houston	-11.5627
▁msnm	-11.5627
▁char	-11.5631
▁referi	-11.5632
▁140	-11.5632
▁Toro	-11.5633
▁notábe	-11.5635
▁cristais	-11.5639
▁Vladimir	-11.5643
▁diplomática	-11.5643
▁prominente	-11.5643
▁afección	-11.5644
▁califa	-11.5645
▁94	-11.5652
▁Naquel	-11.5655
▁diagnostic	-11.566
▁Anthony	-11.566
▁corrupción	-11.566
▁fenotipo	-11.566
▁idéntico	-11.566
▁alter	-11.566
▁textura	-11.566
▁sétima	-11.5661
▁xeolóxico	-11.5662
▁diferencial	-11.5664
▁previr	-11.5665
▁manual	-11.5666
▁Ph	-11.5674
▁Billy	-11.5676
▁emerxe	-11.5676
▁Pul	-11.5676
×	-11.5677
▁Eslovenia	-11.5677
▁polígono	-11.5677
▁adecuado	-11.5677
▁Claudio	-11.5677
▁arbitra	-11.5677
▁Dragon	-11.5678
▁abadía	-11.5678
feld	-11.5679
▁accedeu	-11.5679
termina	-11.568
fensores	-11.568
▁testamento	-11.5681
▁with	-11.5682
▁1835	-11.5685
▁fragmento	-11.5687
▁pensou	-11.5689
issa	-11.569
▁RE	-11.569
▁Antártida	-11.5693
▁Ulloa	-11.5694
▁revelou	-11.5694
▁Miss	-11.5694
▁mesquita	-11.5695
▁Dream	-11.5695
▁vamo	-11.5695
▁interesado	-11.5696
back	-11.5696
US	-11.5697
▁inauguración	-11.5698
▁receita	-11.57
wal	-11.5702
▁partícula	-11.5703
▁condiciona	-11.5709
▁venres	-11.5709
▁neerlandes	-11.571
▁Vermella	-11.571
▁adopción	-11.571
▁innovador	-11.5711
▁Utiliz	-11.5712
▁dominado	-11.5714
π	-11.5716
▁ceder	-11.5717
▁iluminación	-11.5718
▁Beach	-11.5722
gawa	-11.5724
▁pasaría	-11.5724
▁Bolo	-11.5726
▁Moderna	-11.5727
▁Ródano	-11.5727
▁atlántica	-11.5727
▁sanguínea	-11.5727
▁sometida	-11.5727
▁disposta	-11.5727
▁Noutra	-11.5728
▁seareiro	-11.5729
▁Rally	-11.5732
▁mitocondrial	-11.5732
▁estendeuse	-11.5733
▁sorprendente	-11.5739
▁galaxia	-11.5739
▁Glen	-11.5741
▁crema	-11.5742
▁gaita	-11.5742
▁astronauta	-11.5744
▁teléfono	-11.5744
▁Seattle	-11.5744
▁repartido	-11.5744
▁contraria	-11.5744
bulo	-11.5745
▁Get	-11.5745
▁Potter	-11.5748
▁amiga	-11.576
ł	-11.5761
▁retículo	-11.5761
▁Castrelo	-11.5761
▁pelexa	-11.5761
▁propaganda	-11.5762
▁met	-11.5763
▁recto	-11.5763
▁Lois	-11.5765
▁Temos	-11.5766
lico	-11.5772
▁conduto	-11.5775
dilla	-11.5776
celular	-11.5777
▁Edimburgo	-11.5778
▁Ciudad	-11.5778
nium	-11.5778
▁Bak	-11.5779
▁Valenciana	-11.5782
▁continúan	-11.5785
▁ponto	-11.5787
▁Up	-11.5788
tiña	-11.5792
idina	-11.5793
▁bacharelato	-11.5794
▁castigo	-11.5795
▁encontrá	-11.5796
▁pozo	-11.5796
▁Fiz	-11.5796
▁esqui	-11.5796
NT	-11.5799
▁obxec	-11.5799
▁invitado	-11.5805
▁labra	-11.5808
▁Charlotte	-11.5811
▁Tolkien	-11.5811
▁teatrais	-11.5811
▁válvula	-11.5811
▁xermánica	-11.5811
▁Lleida	-11.5811
▁regato	-11.5812
▁Virgin	-11.5812
▁olhar	-11.5815
tza	-11.5816
▁esgota	-11.5817
▁esmaga	-11.5819
EP	-11.5824
tten	-11.5828
▁interface	-11.5828
▁aleatoria	-11.5828
▁deseñou	-11.583
▁Lima	-11.5832
▁abandonada	-11.5833
▁vari	-11.5835
▁iniciada	-11.5838
▁volvería	-11.5845
▁avanzado	-11.5845
▁experiência	-11.5845
▁concedido	-11.5845
▁ministerio	-11.5845
▁Convención	-11.5845
▁marxista	-11.5846
▁Arteixo	-11.5847
▁depredadore	-11.5849
▁dominación	-11.585
fun	-11.585
▁Salón	-11.5852
▁cela	-11.586
▁influenciado	-11.5862
▁Imperial	-11.5862
▁Montevideo	-11.5862
▁noruegués	-11.5862
▁táctica	-11.5862
▁Panamá	-11.5862
quilla	-11.5863
UU	-11.5865
landia	-11.5867
▁lousa	-11.5869
izáronse	-11.5869
▁rematado	-11.5869
gué	-11.5872
▁infecta	-11.5874
▁Sonic	-11.5874
▁Ortegal	-11.5874
▁Arn	-11.5877
▁cirurxía	-11.588
▁filosófico	-11.588
▁taxonomía	-11.588
▁Balcáns	-11.588
▁Grammy	-11.588
▁Fene	-11.5888
▁hel	-11.5891
▁recompensa	-11.5897
▁dragón	-11.5897
▁Facenda	-11.5897
▁aviación	-11.59
▁Helena	-11.5901
▁peto	-11.5903
▁ameazada	-11.5906
▁Bank	-11.5907
▁cruzamento	-11.5908
▁Falece	-11.5911
▁fotosíntese	-11.5914
▁arqueólogo	-11.5914
▁aprendeu	-11.5915
▁activado	-11.5915
▁burguesía	-11.5917
▁separou	-11.592
▁temperán	-11.592
▁autoría	-11.5921
▁posuír	-11.5926
▁Correo	-11.5928
▁Histórico	-11.5931
▁Anderson	-11.5931
ceira	-11.5931
ologi	-11.5932
▁ancha	-11.5933
▁Atlas	-11.5936
▁1800	-11.5936
▁liderada	-11.5937
▁Horas	-11.5938
▁retirou	-11.594
▁obradoiro	-11.594
▁autoriza	-11.5943
▁Fuente	-11.5946
▁Izquierda	-11.5948
▁divindade	-11.5948
▁ribosoma	-11.5948
▁cardíaca	-11.5948
▁decisiva	-11.5948
▁entregou	-11.5951
▁describ	-11.5959
▁Boiro	-11.5964
▁Bonaparte	-11.5965
▁Google	-11.5965
▁Espi	-11.5965
▁ánimo	-11.5967
▁modula	-11.5968
▁Susan	-11.5968
iñeiro	-11.5969
▁Luxemburgo	-11.5974
▁Medina	-11.5975
▁-1	-11.5975
OR	-11.5976
folia	-11.5977
▁Etiopía	-11.5983
▁nórdico	-11.5983
▁solicitou	-11.5983
▁soterrado	-11.5983
▁Paraguai	-11.5983
▁feudal	-11.5983
▁Empresa	-11.5983
▁vestixio	-11.5983
ció	-11.5984
▁1862	-11.5988
rnal	-11.5989
▁faro	-11.5993
▁Alice	-11.5995
rexión	-11.5996
▁crían	-11.5997
▁caro	-11.5998
▁Saxonia	-11.6
▁Watson	-11.6
▁maquinaria	-11.6
▁Iván	-11.6
▁Gy	-11.6001
▁velo	-11.6001
▁florece	-11.6009
▁gañado	-11.601
monte	-11.6012
▁imparti	-11.6015
▁laboral	-11.6017
▁Caldelas	-11.6017
▁Otomán	-11.6017
lent	-11.6019
▁decorado	-11.6022
▁Rand	-11.6023
óxena	-11.6026
▁Emil	-11.6029
ludi	-11.6029
▁Rica	-11.6031
MT	-11.6031
▁operar	-11.6032
▁GT	-11.6033
▁Paquistán	-11.6034
▁guerrilla	-11.6034
▁misioneiro	-11.6034
▁Oliver	-11.6035
EA	-11.6036
etta	-11.6036
▁Johan	-11.6037
▁substituí	-11.6037
▁rumbo	-11.6039
▁inventor	-11.604
▁começar	-11.6041
▁incu	-11.6041
▁Pier	-11.6043
▁Sever	-11.6046
▁cabra	-11.6047
▁Local	-11.6047
▁integrar	-11.6048
ن	-11.6052
▁xuventude	-11.6052
▁emblema	-11.6052
▁Beatles	-11.6053
VI	-11.6055
▁deixan	-11.6057
▁fermentación	-11.6058
▁Canaria	-11.6065
▁Gru	-11.6067
▁produza	-11.6067
▁circunscrición	-11.6069
▁defínese	-11.6069
Cotobade	-11.6069
▁festividade	-11.6069
▁sábe	-11.6072
▁observador	-11.6075
▁proceden	-11.6077
▁valeu	-11.6077
▁1815	-11.6078
▁Sadurniño	-11.6087
▁apéndice	-11.6087
▁cloruro	-11.6087
▁Radical	-11.6087
▁Oficina	-11.6087
▁pantanos	-11.6087
▁mobiliza	-11.6088
tadores	-11.609
▁faga	-11.609
▁Nilo	-11.6093
eixe	-11.6094
▁Metro	-11.6099
▁convocado	-11.61
▁Chega	-11.6104
▁Euskadi	-11.6104
▁xermánico	-11.6104
▁Agustín	-11.6104
▁cobertura	-11.6104
▁Cala	-11.6105
▁Conserva	-11.6109
▁maia	-11.6115
▁vivi	-11.6121
▁Galeguista	-11.6122
▁Marshall	-11.6122
▁combustión	-11.6122
▁irlandeses	-11.6122
▁demarcación	-11.6122
▁nec	-11.6124
▁centrada	-11.6126
ilia	-11.6128
▁xermina	-11.6129
▁ampliar	-11.613
▁rodean	-11.613
▁droga	-11.6132
▁π	-11.6133
▁enviada	-11.6135
ingen	-11.6135
▁semanal	-11.6136
▁Boo	-11.6136
blasto	-11.6138
▁exipcia	-11.6139
▁requisito	-11.6139
▁ladeira	-11.614
▁gregoriano	-11.6141
▁cortar	-11.6141
▁Cea	-11.6144
▁1857	-11.6145
▁Dave	-11.6146
wiki	-11.615
▁ascender	-11.6151
▁Nunca	-11.6154
▁compartir	-11.6156
ssem	-11.6156
▁fantasía	-11.6157
▁desembarco	-11.6157
▁extinta	-11.6157
▁escaseza	-11.6157
▁bat	-11.6158
▁Industria	-11.616
élico	-11.6162
▁delta	-11.6171
▁estrato	-11.6174
▁progresivo	-11.6174
▁BMW	-11.6174
▁mantiveron	-11.6174
▁cuartel	-11.6174
▁Kevin	-11.6176
▁traxe	-11.6178
▁consideraban	-11.6178
▁cuña	-11.618
▁merece	-11.618
▁Your	-11.6181
▁ligamento	-11.6184
▁diferenciar	-11.6186
▁elaborar	-11.619
▁Hércules	-11.6192
▁Laxe	-11.6192
▁curmán	-11.6193
▁compartido	-11.6194
▁loitou	-11.6195
▁Laura	-11.6195
mut	-11.6196
▁Liña	-11.6197
▁detención	-11.6198
▁Ré	-11.6198
▁1836	-11.6199
▁estatais	-11.6199
▁afastada	-11.62
▁establecendo	-11.6201
▁frecha	-11.6202
glu	-11.6202
guí	-11.6202
mundo	-11.6202
▁pecado	-11.6203
▁Maza	-11.6203
▁conectado	-11.6205
peri	-11.6207
▁Rev	-11.6207
▁delgado	-11.6207
φ	-11.6209
▁Arquitectura	-11.6209
▁Código	-11.6209
▁Oficial	-11.6209
▁vangarda	-11.6209
▁acuática	-11.621
▁Kansas	-11.621
▁espaço	-11.6211
ófago	-11.6211
▁discográfico	-11.6214
▁ISO	-11.6217
▁afirmar	-11.622
▁radia	-11.622
tívose	-11.622
▁freguesía	-11.6227
▁climática	-11.6227
atolicismo	-11.6227
▁q	-11.6228
▁quimio	-11.623
▁representativo	-11.6233
▁pasta	-11.6235
▁Cin	-11.6237
▁detalle	-11.6239
▁independ	-11.6239
▁nucleo	-11.624
▁esposo	-11.6245
▁1.2	-11.6245
▁Corporación	-11.6245
▁inspira	-11.6246
▁Branco	-11.6248
▁Schu	-11.6251
▁trato	-11.6255
▁Hard	-11.6259
micina	-11.626
▁cultivada	-11.6261
▁Báltico	-11.6263
▁longametraxe	-11.6263
▁peninsular	-11.6263
▁Linné	-11.6263
▁veterano	-11.6263
▁gameto	-11.6263
▁esporas	-11.6263
▁concedeu	-11.6265
▁fisi	-11.6268
▁Valenti	-11.6271
▁Zona	-11.6273
▁inaugurada	-11.6277
▁contrasta	-11.6278
▁Wessex	-11.628
▁Alxeria	-11.628
▁Nikola	-11.6281
▁comprobar	-11.6282
▁Carol	-11.6285
▁comparada	-11.629
▁Light	-11.6292
▁Sydney	-11.6298
▁lexislativo	-11.6298
▁oceánica	-11.6298
▁sab	-11.6307
▁Christ	-11.6307
▁microbio	-11.6309
▁Great	-11.631
punt	-11.6313
▁fórma	-11.6313
▁naquele	-11.6316
▁Capitán	-11.6316
▁harmonía	-11.6316
▁utilidade	-11.6316
▁sobreviviu	-11.6316
▁decisivo	-11.6316
▁indie	-11.6316
▁Proto	-11.6316
▁Hamburgo	-11.6316
▁agudo	-11.6318
▁Warner	-11.6319
▁alimentan	-11.632
cepción	-11.632
▁escisión	-11.6322
▁aplicado	-11.6322
▁Hotel	-11.6326
▁Nogueira	-11.6328
▁Liverpool	-11.6334
▁Pueblo	-11.6334
▁xuvení	-11.6334
▁aproximada	-11.6334
▁cálido	-11.6334
▁Baleares	-11.6334
▁ABC	-11.6335
clor	-11.6335
▁encabeza	-11.6336
xeno	-11.6337
▁cruzados	-11.6339
▁deberá	-11.634
▁sair	-11.6341
cco	-11.6343
▁mostraron	-11.6346
mitiu	-11.6347
▁Kant	-11.6348
wich	-11.635
▁comproba	-11.6351
▁triangular	-11.6352
▁inxecta	-11.6352
▁Considera	-11.6352
ARN	-11.6353
▁alimentaria	-11.6356
▁imprenta	-11.6356
▁vice	-11.6359
fila	-11.6368
▁Cela	-11.6369
▁franquismo	-11.637
▁inspirou	-11.637
▁reactivo	-11.637
▁vogai	-11.637
▁rumore	-11.6371
▁fé	-11.6372
▁escoller	-11.638
▁Marta	-11.6383
▁proteico	-11.6388
▁Kre	-11.639
▁xema	-11.639
▁comprou	-11.6392
▁peste	-11.6392
organ	-11.6392
▁Gü	-11.6394
▁1859	-11.6394
▁contribu	-11.6396
▁Ivan	-11.6396
▁compar	-11.6397
▁noventa	-11.6398
▁Cesar	-11.6402
▁Luz	-11.6404
▁satisfa	-11.6404
▁Ful	-11.6405
θ	-11.6405
▁Corporation	-11.6405
▁sistemática	-11.6405
▁únense	-11.6405
▁defendía	-11.6406
▁pesetas	-11.6406
▁preséntase	-11.6406
▁reconquista	-11.6406
▁avenida	-11.6407
▁fixación	-11.6407
▁Unidade	-11.6416
umentando	-11.6419
ough	-11.6421
▁Yama	-11.6422
▁alcumado	-11.6424
▁galeguista	-11.6424
▁Belgrado	-11.6424
▁prior	-11.6424
▁xerarquía	-11.6424
▁Platón	-11.6428
hman	-11.6433
ibar	-11.6438
▁Familia	-11.6442
▁Filadelfia	-11.6442
▁Metropolitan	-11.6442
▁alguém	-11.6442
▁Shar	-11.6442
▁traducir	-11.6442
▁Persia	-11.6444
▁sentía	-11.6445
▁PO	-11.6447
▁Muller	-11.645
NG	-11.6451
▁operador	-11.6452
▁pulo	-11.6452
▁cheiro	-11.6454
▁Cinema	-11.6457
▁bolboreta	-11.646
▁violento	-11.646
▁procesión	-11.646
IM	-11.6461
▁pracer	-11.6466
▁tapa	-11.647
▁estereo	-11.6474
▁parda	-11.6475
▁Bohemia	-11.6478
▁Orange	-11.6478
▁Alcalá	-11.6479
▁cubri	-11.6479
▁viaxeiros	-11.6481
▁involucra	-11.6485
▁Casares	-11.6486
▁desenvólvese	-11.6496
▁Galileo	-11.6496
▁décima	-11.6496
ttle	-11.6497
wulf	-11.65
brica	-11.65
▁Unida	-11.6501
▁acabado	-11.6502
▁comparado	-11.6504
▁cometa	-11.6505
▁Audiencia	-11.6514
▁Historica	-11.6514
▁goleador	-11.6514
▁espacia	-11.6517
tización	-11.6517
▁Vilariño	-11.6519
▁1846	-11.652
▁concluíu	-11.6528
ciño	-11.6529
vea	-11.653
▁lector	-11.6532
▁pianista	-11.6532
▁indoeuropea	-11.6532
▁abdome	-11.6532
▁tolera	-11.6533
▁libreto	-11.6533
▁Anne	-11.6536
▁esperma	-11.6536
▁obrigada	-11.6537
▁Maceda	-11.6538
▁presentaba	-11.654
▁prisioneiro	-11.6541
▁prega	-11.6541
ófono	-11.6543
▁propón	-11.6544
tini	-11.6545
▁conservadores	-11.6549
▁Science	-11.6551
▁coñécense	-11.6551
▁monumental	-11.6551
▁rescate	-11.6551
▁Josef	-11.6551
▁simetría	-11.6555
▁santa	-11.656
▁socialismo	-11.6561
▁adquirido	-11.6561
▁restante	-11.6566
▁consumido	-11.6566
▁conquistada	-11.6568
▁Complutense	-11.6569
▁Varsovia	-11.6569
▁orgánulo	-11.6569
▁substitúe	-11.6569
▁válido	-11.6569
▁flaxelo	-11.6569
▁calcaria	-11.6569
▁Apple	-11.6569
▁debuxa	-11.657
▁Claude	-11.657
▁severa	-11.658
▁referido	-11.6582
▁identificada	-11.6583
fix	-11.6584
¿	-11.6587
▁impediu	-11.6587
▁rexenera	-11.6588
álico	-11.659
▁dólar	-11.6591
▁Ry	-11.6594
▁fosforilación	-11.6594
▁xeno	-11.6594
▁1858	-11.6595
▁Vall	-11.6595
▁1809	-11.6596
▁monxe	-11.6599
graph	-11.66
▁montaxe	-11.6602
▁superado	-11.6605
▁Manhattan	-11.6606
▁exclusivo	-11.6606
▁fluvial	-11.6606
▁sufraxio	-11.6606
▁descontento	-11.6606
▁chumbo	-11.6607
presa	-11.6607
ceron	-11.6613
▁levaría	-11.6615
▁propaga	-11.6615
▁decrece	-11.6616
corpo	-11.6624
▁economista	-11.6624
▁limpeza	-11.6624
▁instaura	-11.6624
▁inhibe	-11.6624
▁dedicarse	-11.6631
▁venera	-11.6635
▁Cher	-11.6635
▁extraordinario	-11.6642
▁xuíces	-11.6642
▁eficiencia	-11.6642
▁convocatoria	-11.6643
▁Abd	-11.6645
▁Some	-11.6647
▁asignado	-11.6648
▁engloba	-11.6652
▁prodúcen	-11.6654
▁térmico	-11.6661
▁anfibios	-11.6661
▁greco	-11.6663
▁milleiro	-11.6664
▁defendeu	-11.6664
hib	-11.6667
▁Morte	-11.6668
▁sacra	-11.6669
▁desenvolvendo	-11.6669
▁acoller	-11.6673
▁Llo	-11.6673
▁rexeitar	-11.6674
▁Tempo	-11.6677
ciencia	-11.6677
▁bancada	-11.6677
▁proclamación	-11.6679
▁Oklahoma	-11.6679
▁construir	-11.6679
▁convidado	-11.668
▁Gustav	-11.6681
▁mucosa	-11.6681
▁neta	-11.6681
▁parecida	-11.6682
▁lisa	-11.6686
▁Globo	-11.6687
▁vexa	-11.6688
▁by	-11.6691
▁trompeta	-11.6691
III	-11.6691
clav	-11.6694
▁acollida	-11.6698
▁incapaz	-11.6698
▁obstáculo	-11.6698
▁sucesivo	-11.6698
▁xesuíta	-11.6698
▁climático	-11.6698
▁transcenden	-11.6699
▁veñen	-11.67
▁triplo	-11.6702
▁vão	-11.6702
▁eficaci	-11.6703
▁verifica	-11.6705
▁Massa	-11.6705
▁Barre	-11.6709
▁Adrian	-11.671
oeste	-11.6713
▁Phoenix	-11.6716
▁confluencia	-11.6716
▁engadindo	-11.6716
▁linfocitos	-11.6716
▁microtúbulos	-11.6716
▁Iniciou	-11.6717
▁concilio	-11.6717
▁cronista	-11.6717
▁dominada	-11.672
▁3000	-11.6722
▁Salva	-11.6724
sionar	-11.6726
▁Ambas	-11.6732
▁Kennedy	-11.6735
▁dramaturgo	-11.6735
▁escaravello	-11.6735
▁restablece	-11.6735
▁restrinxi	-11.6735
▁prostitu	-11.6736
▁Estreou	-11.6736
▁continuamente	-11.6737
▁elenco	-11.6737
▁precipitación	-11.6738
▁cativo	-11.6739
▁colocada	-11.6742
▁saíron	-11.6743
▁Risco	-11.6743
▁pechar	-11.6743
▁Canta	-11.6744
▁viral	-11.6745
▁Freire	-11.6746
▁transportar	-11.6749
gana	-11.675
▁habitado	-11.6751
vascular	-11.6751
▁liberta	-11.6752
▁descubriron	-11.6753
▁adxectivo	-11.6754
▁Begonte	-11.6754
▁maduro	-11.6754
▁aterraxe	-11.6754
bía	-11.6754
▁causante	-11.6754
▁Xogou	-11.6755
▁matou	-11.6757
▁perfecto	-11.6758
▁introduce	-11.6762
▁barroca	-11.6762
▁listaxe	-11.6763
igh	-11.6765
▁Verín	-11.6765
▁Naval	-11.6766
▁declarar	-11.6769
▁determinante	-11.677
▁anchura	-11.6772
▁procariota	-11.6772
▁significou	-11.6772
▁Danubio	-11.6772
▁Malaisia	-11.6772
▁René	-11.6773
▁Renfe	-11.6775
▁Ciencia	-11.6777
▁avoga	-11.6777
▁Wild	-11.6781
terapia	-11.6782
▁xornalismo	-11.6784
RT	-11.6788
wall	-11.6789
▁esplendor	-11.6791
▁abastece	-11.6791
▁narrador	-11.6794
▁Prat	-11.6794
▁hispano	-11.6795
▁masivo	-11.6797
igrou	-11.6799
química	-11.68
▁constituínte	-11.681
▁cúmulo	-11.681
▁Información	-11.681
▁ortodoxo	-11.681
ов	-11.681
▁frustra	-11.6811
▁ecolóxico	-11.6812
▁Graham	-11.6813
▁Azul	-11.6814
▁oligo	-11.6816
▁accede	-11.6818
▁renunciar	-11.6828
▁romántico	-11.6828
▁Mahler	-11.6828
▁xacemento	-11.6831
▁Bronce	-11.6832
▁NO	-11.6834
SH	-11.6836
▁instru	-11.6843
▁Rick	-11.6845
▁Esquerda	-11.6847
▁almirante	-11.6847
▁atmosférica	-11.6847
▁extremidade	-11.6847
▁feminismo	-11.6847
▁ultravioleta	-11.6847
▁endémica	-11.6847
▁Capital	-11.6847
▁graduou	-11.6847
rqueoloxía	-11.685
▁Morris	-11.6851
credit	-11.6851
▁patrocin	-11.6859
▁mancha	-11.6861
▁distribu	-11.6865
▁embarca	-11.6865
▁Benetton	-11.6866
▁Herrera	-11.6866
▁puidera	-11.6866
▁estraña	-11.6866
hidroxi	-11.687
vila	-11.6871
▁Code	-11.6873
▁manipula	-11.6876
▁Meta	-11.6877
▁operado	-11.6877
▁gobernado	-11.6883
▁alusión	-11.6885
▁institucional	-11.6886
▁Emma	-11.6887
▁esperta	-11.6887
▁Fundado	-11.689
▁levouno	-11.6891
▁Ferra	-11.6892
▁habería	-11.6894
▁Marine	-11.6894
▁bloqueo	-11.6897
▁sucesivamente	-11.6898
▁computadora	-11.6902
▁Copenhague	-11.6904
▁accesible	-11.6904
▁conservadora	-11.6905
▁Isso	-11.691
▁implantación	-11.6911
▁inactiva	-11.6912
▁rostro	-11.6914
▁estudada	-11.6915
▁observada	-11.6915
▁Shu	-11.6917
ílico	-11.6922
я	-11.6923
▁Anjou	-11.6923
▁condución	-11.6926
▁Shin	-11.6926
▁Mare	-11.693
▁recepción	-11.693
▁Rodeiro	-11.6931
▁citar	-11.6934
▁Técnica	-11.6942
▁holandeses	-11.6942
▁ال	-11.6942
▁Rianxo	-11.6942
▁mérito	-11.6942
▁empregaba	-11.6948
▁transmite	-11.6948
▁licenciou	-11.6949
mete	-11.695
▁Blu	-11.6952
▁afro	-11.6956
▁lacta	-11.6959
▁Esti	-11.6959
▁incorporado	-11.696
▁Gustavo	-11.696
ب	-11.6961
▁tuberculose	-11.6961
▁Apóstolo	-11.6961
▁Einstein	-11.6961
▁Palla	-11.6961
▁Xixón	-11.6962
agh	-11.6962
cín	-11.6962
▁microscopio	-11.6963
▁Modern	-11.6964
▁1847	-11.6967
opter	-11.6971
▁subcampión	-11.698
▁tecnolóxico	-11.698
▁tinguidura	-11.698
▁Segovia	-11.698
▁perturba	-11.698
▁terminais	-11.6982
▁bacteriano	-11.6983
▁Schi	-11.6987
▁present	-11.6988
Alpes	-11.699
▁Teoría	-11.699
xogador	-11.6991
▁Félix	-11.6999
▁aristocracia	-11.6999
▁práctico	-11.6999
▁acomoda	-11.6999
BP	-11.7005
pop	-11.7006
▁espiral	-11.7007
▁implicación	-11.7007
▁cera	-11.7007
▁traba	-11.7007
flam	-11.7013
▁Pá	-11.7015
ífera	-11.7017
▁gradiente	-11.7018
▁insulina	-11.7018
▁orixína	-11.7018
▁candidata	-11.7018
▁ficheiro	-11.7018
▁gamma	-11.7018
▁Whit	-11.7018
▁Golden	-11.7019
▁Sarmiento	-11.7019
▁erosión	-11.7019
▁proliferación	-11.7023
▁pagán	-11.7023
▁Here	-11.7024
titude	-11.703
▁carboxi	-11.703
▁desempeñou	-11.7031
▁audiovisua	-11.7037
▁citocromo	-11.7037
▁independentista	-11.7037
▁macrófagos	-11.7037
▁periférico	-11.7037
▁antecesor	-11.7037
▁Marqués	-11.7037
▁Gordon	-11.7038
▁procesa	-11.7038
▁Usa	-11.704
▁algodón	-11.7042
mouth	-11.7042
▁encerra	-11.7043
▁divina	-11.7046
▁correctamente	-11.7046
▁zu	-11.705
▁começa	-11.7051
▁codificada	-11.7051
▁fume	-11.7053
▁aliada	-11.7053
▁puxeron	-11.7056
▁Frankfurt	-11.7056
▁hospitais	-11.7056
و	-11.7056
▁sufixo	-11.7056
▁Town	-11.7057
▁imprim	-11.7059
▁bautiza	-11.7059
▁Sábe	-11.706
▁construtor	-11.7061
▁educativa	-11.7063
▁Johnny	-11.7065
▁diferenciada	-11.7068
▁explorar	-11.7073
▁Bóveda	-11.7076
▁dignidade	-11.7076
▁estímase	-11.7076
▁Moeche	-11.7076
▁enclave	-11.7077
▁radica	-11.7077
▁primate	-11.7078
▁novelista	-11.7079
▁comunicar	-11.7081
▁105	-11.7086
▁Dita	-11.709
▁desexaba	-11.7094
й	-11.7095
▁cuántica	-11.7095
▁cónsul	-11.7095
▁fervenza	-11.7095
▁xadrez	-11.7095
▁xermano	-11.7095
▁exacto	-11.7095
▁Walt	-11.7096
▁pechou	-11.7097
▁desorde	-11.7097
▁anotador	-11.7098
▁Soria	-11.7099
▁Sound	-11.71
▁baila	-11.7102
▁Petro	-11.7105
▁musulmán	-11.7107
▁arqueolóxico	-11.7107
ólito	-11.7109
▁Guy	-11.711
▁distintivo	-11.7114
▁montañoso	-11.7114
▁OTAN	-11.7114
▁Abraham	-11.7114
▁desembarca	-11.7114
▁escolta	-11.7115
▁informação	-11.712
▁normativa	-11.7124
física	-11.7125
▁trabalhar	-11.7128
▁Ramon	-11.7129
▁negouse	-11.713
▁Bismarck	-11.7133
▁metrópole	-11.7133
▁peregrinación	-11.7133
▁Bird	-11.7134
▁colegas	-11.7136
▁Finais	-11.714
▁Trent	-11.7141
▁Troia	-11.7142
▁xerou	-11.7143
▁colga	-11.7152
▁potasio	-11.7153
▁monstro	-11.7159
▁Antena	-11.716
▁proteica	-11.7163
▁Alemán	-11.7167
VE	-11.7168
lzamento	-11.7169
▁Palo	-11.7169
▁Mini	-11.7169
▁Montero	-11.717
cheg	-11.7172
▁auténtico	-11.7172
▁descomposición	-11.7172
▁romanés	-11.7173
▁trombo	-11.7176
ciña	-11.7176
▁brillo	-11.7179
▁instalado	-11.7181
▁utilizaron	-11.7184
▁permitiulle	-11.7188
▁encarcerado	-11.7192
▁ibérico	-11.7192
▁xentilicio	-11.7192
▁Formula	-11.7192
ófitas	-11.7192
▁Ontario	-11.7193
▁baga	-11.7197
▁precede	-11.7199
▁esixe	-11.7201
▁tirada	-11.7204
tizado	-11.7204
▁Alain	-11.7209
▁toque	-11.7209
▁induce	-11.721
▁Ponteareas	-11.7211
▁islámica	-11.7211
▁lexislativa	-11.7211
▁Orlando	-11.7211
▁resistir	-11.7212
▁Noutro	-11.7212
▁Stre	-11.7213
▁enzima	-11.7213
▁Khan	-11.7213
▁Heart	-11.7215
▁Americana	-11.7215
▁neurona	-11.7215
AI	-11.7217
▁buscaba	-11.7217
▁music	-11.7219
▁inventar	-11.722
▁ilumina	-11.7222
fact	-11.7222
EM	-11.7223
▁Moure	-11.7224
▁Saga	-11.7227
▁Demócrata	-11.7231
▁Observ	-11.7231
▁morcego	-11.7231
▁Testamento	-11.7231
▁recibida	-11.7235
▁denso	-11.7235
▁durmi	-11.7236
▁1856	-11.7239
lima	-11.7241
▁Ny	-11.7243
▁intermediario	-11.7247
▁amplitude	-11.725
▁família	-11.725
▁repercusión	-11.725
▁Orquestra	-11.725
▁énfase	-11.725
▁campus	-11.725
tigo	-11.7251
▁Igualmente	-11.7256
▁1837	-11.7257
▁involucrado	-11.7263
▁definiu	-11.7264
NI	-11.7268
▁nocturna	-11.727
▁sílaba	-11.727
▁devanceiro	-11.727
▁Utah	-11.727
▁chocolate	-11.727
▁Depende	-11.7271
paña	-11.7273
▁Lope	-11.7274
▁aniña	-11.7275
▁permanenc	-11.7279
▁Stein	-11.728
▁Reforma	-11.7281
▁contribuír	-11.7281
dominio	-11.7282
▁instrumental	-11.7283
▁2.0	-11.7283
▁encarna	-11.7286
▁Douro	-11.7287
▁temporais	-11.7289
▁Tampa	-11.7289
ύ	-11.729
▁Desenvolvemento	-11.729
▁garantía	-11.729
▁intervén	-11.729
▁máxico	-11.729
▁atribuída	-11.729
▁anormal	-11.7292
▁transcrito	-11.7292
▁conectada	-11.7294
▁labore	-11.7294
▁Hugh	-11.7297
iber	-11.7302
▁Carter	-11.7304
▁amplifica	-11.7306
▁miden	-11.7308
▁Shakespeare	-11.7309
▁inestabilidade	-11.7309
▁isótopo	-11.7309
▁dixestión	-11.7309
▁bioquímica	-11.731
▁parentesco	-11.731
▁Tito	-11.7311
▁imagi	-11.7311
▁extr	-11.7312
ptic	-11.7317
▁1834	-11.7317
▁Guill	-11.7317
▁1814	-11.7318
▁Lawrence	-11.7329
▁atómica	-11.7329
▁Asunto	-11.733
▁Camilo	-11.733
▁Delft	-11.7331
ntraron	-11.7336
▁Estatal	-11.734
▁Tsu	-11.734
▁Feira	-11.7342
▁Estremadura	-11.7349
▁olímpica	-11.7349
▁tio	-11.7359
▁fenda	-11.736
▁salario	-11.7362
▁Ruso	-11.7362
praza	-11.7364
▁informativo	-11.7364
▁roedor	-11.7367
▁hindú	-11.7369
▁Letonia	-11.7369
▁constituía	-11.7369
▁respectivo	-11.7369
▁novidade	-11.7369
▁Pinto	-11.7371
[...]
