<unk>	0
<s>	0
</s>	0
<pad>	0
s	-2.63477
▁,	-3.13286
▁de	-3.22861
▁.	-3.33888
▁a	-3.65453
▁e	-3.83127
▁o	-3.9485
▁que	-4.2323
;	-4.28237
▁&	-4.31358
quot	-4.35619
▁do	-4.40061
▁	-4.51526
▁en	-4.5217
▁da	-4.55548
o	-4.95428
a	-4.95692
▁A	-5.0838
▁un	-5.08915
▁no	-5.20961
(	-5.22327
▁)	-5.23583
▁unha	-5.23653
n	-5.25601
▁O	-5.26355
▁é	-5.26827
se	-5.27165
▁na	-5.31983
mente	-5.45559
es	-5.47978
▁se	-5.4913
▁os	-5.50241
▁por	-5.52974
▁como	-5.54132
▁súa	-5.54744
is	-5.5663
▁para	-5.57401
▁ao	-5.57691
▁seu	-5.58661
▁con	-5.72954
▁foi	-5.76801
▁máis	-5.77895
▁dos	-5.79309
u	-5.85007
ndo	-5.86264
▁á	-5.92499
l	-5.96951
▁ou	-6.01487
▁non	-6.05223
▁:	-6.1471
▁En	-6.24056
ción	-6.27624
▁as	-6.3035
on	-6.31532
▁son	-6.34495
r	-6.3584
▁das	-6.37861
▁polo	-6.41834
▁ano	-6.44919
▁entre	-6.45393
▁co	-6.49694
▁d	-6.53514
nde	-6.57638
▁tamén	-6.58675
▁pola	-6.60651
e	-6.60968
▁coa	-6.64475
▁parte	-6.69502
▁No	-6.73643
▁Os	-6.78505
▁ser	-6.80332
▁anos	-6.81737
urante	-6.83216
▁era	-6.83654
▁sobre	-6.87842
▁I	-6.92423
ia	-6.92427
▁século	-6.92664
▁dun	-6.94472
▁primeiro	-6.94884
▁cidade	-6.94991
índa	-6.95576
▁xa	-6.96813
▁ó	-6.97513
▁ata	-6.99239
▁pero	-7.01349
ón	-7.0252
do	-7.02555
0	-7.04318
▁está	-7.05149
▁P	-7.05425
ou	-7.05564
1	-7.0813
▁C	-7.10104
▁ten	-7.11501
ron	-7.11636
▁cando	-7.13482
▁dunha	-7.15931
▁todo	-7.1602
▁nome	-7.16264
▁primeira	-7.16628
▁forma	-7.17218
idade	-7.17602
▁este	-7.19391
▁outro	-7.20169
▁mesmo	-7.20665
▁poboación	-7.22563
5	-7.23413
▁As	-7.23928
▁pode	-7.25382
8	-7.2665
▁nos	-7.26651
▁dous	-7.26689
▁foro	-7.27086
▁moi	-7.279
▁illa	-7.28841
▁Na	-7.30045
▁maior	-7.30127
▁grande	-7.31808
▁tiña	-7.31933
▁De	-7.33538
▁D	-7.33762
▁nun	-7.33917
▁lugar	-7.34151
▁esta	-7.3467
sde	-7.34721
en	-7.35359
▁sen	-7.38185
▁só	-7.38918
ais	-7.39138
▁grupo	-7.4038
▁tempo	-7.40513
embro	-7.41295
▁outra	-7.41627
%	-7.41927
▁habitante	-7.42163
ía	-7.42483
▁día	-7.43286
2	-7.4338
3	-7.44272
▁E	-7.449
7	-7.45183
▁Estado	-7.45565
4	-7.45594
▁nas	-7.45668
9	-7.46475
6	-7.47644
és	-7.48661
▁T	-7.49458
▁;	-7.49889
nse	-7.50617
▁tres	-7.51816
▁San	-7.51839
▁concello	-7.52182
▁estado	-7.5344
cia	-7.54747
▁nunha	-7.55822
▁1	-7.56163
▁importante	-7.56259
▁obra	-7.56479
▁moito	-7.56676
▁Por	-7.56824
▁novo	-7.56875
úas	-7.57523
▁contra	-7.57737
▁lingua	-7.58329
▁2	-7.58511
▁así	-7.60701
▁segundo	-7.60704
▁Este	-7.61062
▁É	-7.61319
▁gran	-7.62149
este	-7.62241
z	-7.62314
▁vez	-7.66083
▁sistema	-7.66192
pois	-7.66406
▁país	-7.67237
▁guerra	-7.67264
apos	-7.67928
▁estaba	-7.67984
▁principal	-7.69437
▁Segund	-7.69466
▁actual	-7.69839
▁banda	-7.70202
▁xu	-7.70245
▁home	-7.70678
▁goberno	-7.70849
▁rei	-7.71024
da	-7.71252
▁parroquia	-7.7175
▁hai	-7.72175
y	-7.73071
▁río	-7.73197
▁rexión	-7.73531
▁ás	-7.73816
▁m	-7.7405
én	-7.74082
▁zona	-7.74377
▁mundo	-7.7596
▁número	-7.76401
▁baixo	-7.76676
▁lle	-7.76753
▁toda	-7.77357
▁norte	-7.78105
▁polos	-7.78106
▁Foi	-7.79863
▁ante	-7.79954
▁vida	-7.79967
▁cara	-7.79987
▁cada	-7.80203
▁F	-7.80372
▁muller	-7.81175
▁Un	-7.81278
▁sur	-7.8243
▁cunha	-7.83347
▁nova	-7.8424
▁Esta	-7.84324
▁deste	-7.84713
▁B	-7.85064
▁relación	-7.86678
▁provincia	-7.87096
▁seguinte	-7.8736
▁Galicia	-7.87697
▁poden	-7.88335
▁km	-7.89232
▁traballo	-7.89715
é	-7.90296
▁están	-7.90968
▁tanto	-7.91068
▁M	-7.91245
ismo	-7.91257
á	-7.92121
mento	-7.92358
▁coma	-7.92595
▁cal	-7.92832
▁/	-7.92983
▁cun	-7.93163
▁auga	-7.93583
▁final	-7.9407
▁punto	-7.94174
▁000	-7.94329
▁media	-7.94525
▁medio	-7.95078
▁pouco	-7.95248
▁tipo	-7.9533
▁fillo	-7.95388
án	-7.95536
za	-7.95765
▁teñ	-7.95925
▁194	-7.96044
▁época	-7.96307
nte	-7.96937
▁historia	-7.97313
▁mar	-7.97396
▁poder	-7.9746
II	-7.97533
▁territorio	-7.98041
▁España	-7.98175
▁capital	-7.9851
▁Unidos	-8.0002
res	-8.00073
▁S	-8.00145
▁mai	-8.00285
▁196	-8.00675
▁algún	-8.01191
▁galego	-8.01504
▁xeral	-8.01529
▁familia	-8.01572
▁desta	-8.01737
▁tivo	-8.01943
▁Con	-8.02034
▁exemplo	-8.03909
▁política	-8.03912
ño	-8.04052
▁195	-8.04448
▁especie	-8.05144
▁período	-8.06307
▁ben	-8.06356
▁3	-8.06447
▁partir	-8.07108
▁193	-8.07213
▁xunto	-8.07396
▁coñecido	-8.08403
▁equipo	-8.08607
▁morte	-8.08859
▁Europ	-8.09047
▁catro	-8.09062
amén	-8.10795
mos	-8.10893
-	-8.10983
▁II	-8.11301
▁maioría	-8.12296
▁caso	-8.12783
▁vario	-8.13416
▁despo	-8.13575
▁membro	-8.13934
▁partido	-8.1404
▁longo	-8.14081
▁logo	-8.14141
▁XI	-8.14372
▁xeito	-8.14823
▁cos	-8.14943
i	-8.15287
▁menos	-8.15403
▁total	-8.15507
▁feito	-8.15904
▁nado	-8.15951
▁centro	-8.16162
té	-8.16485
▁especial	-8.16754
▁mentr	-8.16868
▁último	-8.17181
llo	-8.17367
▁orixe	-8.17436
▁Para	-8.18429
▁la	-8.18754
ba	-8.18981
▁persoas	-8.19075
▁resto	-8.1959
t	-8.20126
▁terra	-8.20235
ronse	-8.20304
ntro	-8.20358
▁Franci	-8.20835
mo	-8.20992
▁192	-8.20998
sto	-8.21693
▁área	-8.21788
▁veces	-8.22202
▁ter	-8.22528
▁Unha	-8.23035
iro	-8.23207
▁forza	-8.23296
▁serie	-8.23497
▁mesma	-8.24824
▁comezou	-8.24857
▁moita	-8.25361
▁todos	-8.25461
aña	-8.25689
▁chamado	-8.26278
io	-8.2635
ago	-8.26471
▁varia	-8.2653
▁millóns	-8.26639
▁fin	-8.27573
▁momento	-8.28063
▁diferentes	-8.28243
▁10	-8.29079
▁Se	-8.29134
▁debido	-8.29188
▁militar	-8.2922
▁facer	-8.29489
▁191	-8.29555
▁travé	-8.30018
«	-8.30388
▁La	-8.30407
ntón	-8.30528
▁proceso	-8.30534
»	-8.30754
▁The	-8.31025
▁4	-8.31419
▁segunda	-8.31574
▁carreira	-8.31773
▁posterior	-8.31858
▁nin	-8.32288
▁Santa	-8.32325
▁base	-8.32734
▁-	-8.32905
▁5	-8.32988
▁N	-8.33188
▁uso	-8.33863
▁Nova	-8.34091
▁popular	-8.34544
▁anterior	-8.34853
▁case	-8.35369
▁Á	-8.35388
▁principa	-8.35656
▁20	-8.35711
▁ca	-8.36068
▁termo	-8.36307
▁antigo	-8.36434
neiro	-8.3686
▁197	-8.37143
▁década	-8.37453
▁fai	-8.37701
▁si	-8.38171
▁algunha	-8.39406
▁elemento	-8.39634
▁álbum	-8.39831
▁principio	-8.3999
▁países	-8.40004
▁cultura	-8.40022
▁el	-8.40084
▁Así	-8.40552
▁Entre	-8.41056
▁pequena	-8.41166
▁político	-8.41636
▁&#93;	-8.41731
▁fixo	-8.4174
▁&#9	-8.42153
▁propio	-8.42869
▁V	-8.42952
▁Santi	-8.43243
▁maio	-8.43517
▁set	-8.43628
▁Imperio	-8.43763
▁conta	-8.43812
▁éxito	-8.43859
▁preto	-8.43865
▁coñecida	-8.43924
▁palabra	-8.44181
▁pequeno	-8.4486
▁Adem	-8.45001
▁quen	-8.45053
▁tarde	-8.45126
▁pai	-8.45234
ría	-8.45664
X	-8.46032
▁adem	-8.46051
▁actividade	-8.4625
▁común	-8.46298
er	-8.46504
▁igrexa	-8.46793
▁Como	-8.46812
▁Ao	-8.47404
▁leste	-8.48065
▁sería	-8.48357
▁X	-8.48442
ubro	-8.48868
▁mellor	-8.48899
▁Guerra	-8.49108
▁out	-8.49676
▁forte	-8.49716
▁1999	-8.49782
▁finais	-8.49797
▁abril	-8.49843
▁oficial	-8.49962
▁L	-8.50052
▁atópa	-8.5043
▁construción	-8.50957
▁pobo	-8.51192
▁hoxe	-8.51603
▁liña	-8.51616
▁antiga	-8.51708
▁problema	-8.51812
▁Gran	-8.51834
▁190	-8.5185
▁converteu	-8.52117
▁dec	-8.52302
al	-8.52335
▁título	-8.52335
▁ago	-8.52509
▁cambio	-8.52861
▁tempada	-8.53437
▁nov	-8.53439
▁superficie	-8.5353
▁desenvolvemento	-8.53579
▁tras	-8.53597
▁exército	-8.53601
▁Universidade	-8.53718
▁reino	-8.5373
▁corpo	-8.53919
▁costa	-8.54178
▁chamada	-8.5425
▁metro	-8.54361
▁presidente	-8.5437
ta	-8.54508
▁movemento	-8.54594
ca	-8.54727
▁estrutura	-8.55387
▁dereito	-8.55464
▁30	-8.56162
▁idea	-8.56273
▁disco	-8.56512
▁propia	-8.56682
▁El	-8.5685
▁casa	-8.57007
▁grego	-8.57133
▁Reino	-8.57366
▁estilo	-8.57684
▁isto	-8.57797
▁música	-8.58016
▁6	-8.58134
▁produción	-8.58226
▁tema	-8.58634
▁resultado	-8.59162
▁calquer	-8.59209
▁entidade	-8.59359
▁teoría	-8.5936
▁15	-8.59404
▁María	-8.59502
▁febre	-8.60146
▁cinco	-8.60213
▁Despo	-8.60367
▁República	-8.60375
▁Terra	-8.60628
▁2004	-8.60628
▁conxunto	-8.60652
ez	-8.60695
sempre	-8.60951
▁chegou	-8.61098
▁R	-8.61252
▁función	-8.61262
▁servizo	-8.61404
▁Madrid	-8.61518
▁re	-8.61648
▁pasou	-8.62348
lí	-8.62444
▁fora	-8.6269
▁inglés	-8.62869
▁di	-8.63215
ín	-8.63426
▁galega	-8.63492
▁XVI	-8.64441
▁planta	-8.64576
▁chegar	-8.64987
▁influencia	-8.65033
lle	-8.65308
▁Alem	-8.65588
▁estudo	-8.65782
▁franc	-8.66222
▁temperatura	-8.66347
▁aparece	-8.66499
▁sexa	-8.66668
▁25	-8.66817
re	-8.66888
▁Pero	-8.67101
▁versión	-8.67172
▁Ten	-8.67194
▁Roma	-8.67589
▁fonte	-8.67705
▁industria	-8.67901
▁orde	-8.6795
▁Partido	-8.68219
▁posúe	-8.68542
▁7	-8.68549
▁comezo	-8.68567
▁real	-8.68756
▁cor	-8.6895
▁Premio	-8.69014
V	-8.6913
▁menor	-8.69171
▁interior	-8.69286
▁fronte	-8.69412
to	-8.69466
▁humano	-8.69672
▁nivel	-8.69672
▁12	-8.69819
▁libro	-8.70081
▁última	-8.70159
▁alemán	-8.70189
▁campo	-8.70251
de	-8.70315
▁2006	-8.70497
▁sup	-8.71094
▁8	-8.71358
▁enerxía	-8.71443
dade	-8.71658
▁canción	-8.71866
▁Illa	-8.72257
▁tal	-8.7229
ra	-8.72794
▁comeza	-8.72928
▁ver	-8.73059
▁tan	-8.73275
▁irmán	-8.73511
▁alto	-8.73566
na	-8.73641
▁Mundia	-8.73731
▁Unió	-8.73777
▁lei	-8.739
E	-8.7394
▁cantidade	-8.73956
▁efecto	-8.74209
▁posto	-8.74277
▁G	-8.74338
▁pesar	-8.74345
▁2005	-8.74413
▁posición	-8.7468
▁eles	-8.74815
▁medida	-8.75305
▁ós	-8.75386
▁espazo	-8.75469
▁Sur	-8.75647
▁programa	-8.75932
ña	-8.7612
▁escola	-8.76267
▁arte	-8.76457
▁española	-8.7666
▁acordo	-8.76792
°	-8.77346
▁emperador	-8.77405
▁Italia	-8.77436
▁obxecto	-8.77571
▁etc	-8.77663
▁característica	-8.78113
▁situada	-8.78204
no	-8.78322
▁14	-8.78598
la	-8.7896
▁imaxe	-8.79158
▁situación	-8.79209
▁central	-8.79211
ista	-8.79482
▁vila	-8.79504
▁Co	-8.79564
▁alta	-8.79748
▁clase	-8.79755
▁Hai	-8.79784
▁causa	-8.79804
▁único	-8.79893
▁social	-8.79911
▁papel	-8.79916
▁cidades	-8.80016
▁eleccións	-8.80025
▁189	-8.80093
▁porque	-8.80147
▁XX	-8.80309
▁batalla	-8.80586
▁chega	-8.81422
▁organización	-8.81832
▁América	-8.82034
▁Ca	-8.82198
▁canto	-8.82216
▁Coruñ	-8.82366
▁2007	-8.82401
te	-8.82532
▁pasa	-8.82815
ton	-8.83026
▁romano	-8.83259
▁modelo	-8.8343
▁iso	-8.83546
▁in	-8.83584
▁posible	-8.8365
▁morre	-8.83679
▁superior	-8.8379
▁188	-8.84107
▁U	-8.84111
▁comarca	-8.84607
▁mese	-8.84687
▁proba	-8.85379
m	-8.85456
▁dicir	-8.85539
▁economía	-8.85835
▁Pedro	-8.85849
▁11	-8.8591
▁Ist	-8.86343
▁Mar	-8.86744
ica	-8.86915
▁Está	-8.87067
▁aproximada	-8.87144
▁18	-8.87222
▁materia	-8.87254
arzo	-8.87295
ran	-8.8737
▁ciencia	-8.87576
▁recibi	-8.87812
▁9	-8.87849
▁data	-8.87964
▁texto	-8.88178
▁16	-8.88405
▁cargo	-8.886
▁Nacional	-8.88664
▁control	-8.88676
▁of	-8.88686
▁cale	-8.88913
▁lado	-8.88977
aterra	-8.89151
▁Tras	-8.89256
ina	-8.89304
▁persoa	-8.89492
▁anima	-8.89505
▁H	-8.89529
frica	-8.89741
▁situado	-8.89862
▁público	-8.90063
▁localiza	-8.90173
▁Son	-8.90281
▁xogo	-8.90371
▁tropa	-8.90536
▁apoio	-8.90886
▁condición	-8.90934
▁Ingl	-8.90953
▁186	-8.90977
▁comunidade	-8.91207
▁Norte	-8.913
▁mundial	-8.91441
ing	-8.91892
▁baixa	-8.91941
▁Historia	-8.92017
▁Carlo	-8.9215
▁considerado	-8.92527
▁21	-8.93054
▁proxecto	-8.93236
▁diverso	-8.93316
▁distribuído	-8.93489
▁Cand	-8.9372
▁unidade	-8.93746
▁París	-8.93752
▁británico	-8.93909
▁mil	-8.93935
▁español	-8.93958
▁película	-8.94015
▁orixinal	-8.94098
▁tód	-8.94122
▁sector	-8.94354
▁estadounidense	-8.94547
▁Igrexa	-8.94814
luz	-8.94868
▁13	-8.95069
▁natural	-8.95102
▁independente	-8.95314
ito	-8.95315
▁sociedade	-8.95457
▁altura	-8.95459
▁particular	-8.95542
▁escritor	-8.95832
▁Xo	-8.95834
▁idade	-8.95918
▁formación	-8.95984
finado	-8.9605
▁lista	-8.9618
▁neste	-8.96235
▁24	-8.96255
▁acción	-8.963
▁diversa	-8.96311
▁normal	-8.96457
ura	-8.96747
▁2000	-8.96923
▁50	-8.96964
▁única	-8.97008
▁metade	-8.97037
▁Outro	-8.97251
▁algo	-8.97364
▁paso	-8.97498
▁debe	-8.97755
▁vai	-8.97975
▁IG	-8.98052
▁propiedade	-8.98074
▁ocasión	-8.98129
▁importancia	-8.9824
▁permite	-8.9831
▁187	-8.98487
▁completa	-8.98707
redor	-8.98741
▁tamaño	-8.98795
▁internacional	-8.98896
▁libre	-8.98919
▁22	-8.98951
les	-8.99214
▁tradición	-8.99257
▁W	-8.99725
▁porto	-8.99844
an	-8.99883
oloxía	-9.00111
▁hora	-9.00191
▁estas	-9.00258
▁autor	-9.00423
▁estar	-9.00473
▁xénero	-9.00478
▁Ma	-9.00514
▁axuda	-9.00667
▁europeo	-9.01216
▁Portugal	-9.01273
▁obxectivo	-9.01397
▁2003	-9.01402
▁valor	-9.0149
▁17	-9.01647
k	-9.01772
▁referencia	-9.01846
▁presen	-9.02236
▁vitoria	-9.02247
estivo	-9.03456
▁Unido	-9.03499
▁elixido	-9.03644
▁interese	-9.03652
zo	-9.0368
▁Real	-9.04266
▁simple	-9.04519
▁xogador	-9.04563
▁diminu	-9.04763
▁clima	-9.05109
olos	-9.05142
▁pedra	-9.0517
▁nomeado	-9.05184
▁dato	-9.05289
▁igual	-9.05374
▁estudos	-9.05402
▁masa	-9.05607
▁Xa	-9.05957
▁director	-9.06015
▁volta	-9.06308
▁existen	-9.0643
▁loita	-9.06513
▁nacional	-9.06519
▁papa	-9.06704
gún	-9.06782
▁tradicional	-9.06921
▁capacidade	-9.07039
co	-9.07072
▁Castela	-9.07588
–	-9.07812
▁xira	-9.07857
▁23	-9.07947
▁dirección	-9.08119
▁boa	-9.08297
▁Gali	-9.0837
▁novela	-9.0846
▁verán	-9.08488
▁francesa	-9.0852
▁York	-9.08546
▁fronteira	-9.08611
▁publicou	-9.08649
▁referir	-9.08669
▁Le	-9.08877
▁K	-9.08928
tín	-9.08973
▁ataque	-9.09061
▁significa	-9.09207
p	-9.09318
▁grazas	-9.09321
▁arredor	-9.09378
▁nesta	-9.09718
bel	-9.09728
▁so	-9.09872
▁creación	-9.09988
▁aumento	-9.10146
▁Jos	-9.10157
▁cabo	-9.10166
▁seis	-9.10178
▁técnica	-9.10465
▁segue	-9.10553
▁método	-9.1059
▁capa	-9.10695
▁Manuel	-9.10719
▁información	-9.10731
▁crecemento	-9.10991
▁Algún	-9.11226
g	-9.11244
▁183	-9.11264
▁esa	-9.11271
▁recente	-9.11327
onso	-9.11386
▁Rus	-9.11405
▁núcleo	-9.11407
▁184	-9.11554
▁Af	-9.11687
▁célula	-9.11787
▁the	-9.11915
▁nai	-9.12006
▁xente	-9.1203
▁28	-9.12048
▁incluíndo	-9.12104
▁volveu	-9.12274
▁revista	-9.12295
▁Logo	-9.12376
▁27	-9.12523
▁independen	-9.12528
d	-9.12968
▁letra	-9.13003
▁viaxe	-9.1304
pto	-9.13062
▁certa	-9.13138
▁certo	-9.13142
▁Vig	-9.13158
▁40	-9.13284
▁municipal	-9.13303
▁velocidade	-9.1332
go	-9.13498
ar	-9.13552
amente	-9.13607
▁su	-9.137
ter	-9.13719
rácte	-9.13783
▁nada	-9.13788
c	-9.14085
▁civil	-9.14089
▁camiño	-9.14224
▁sentido	-9.14288
▁ela	-9.14352
▁Compostela	-9.14497
▁19	-9.14497
▁100	-9.14785
▁concepto	-9.1481
▁occidental	-9.14815
▁compañía	-9.15072
▁motor	-9.15084
▁escrito	-9.15148
▁práctica	-9.15202
▁filme	-9.1532
▁conseguiu	-9.1561
▁mercado	-9.15695
▁líder	-9.15794
▁edición	-9.15795
▁?	-9.16256
▁continua	-9.16289
▁Rei	-9.164
▁Fernand	-9.1667
▁Existe	-9.16722
▁presente	-9.1675
▁respecto	-9.16788
▁Castro	-9.16855
▁formar	-9.1713
▁Neste	-9.17169
▁Francisco	-9.17324
▁colonia	-9.17368
▁Má	-9.17382
▁John	-9.17383
▁Outra	-9.17526
▁filla	-9.17558
▁man	-9.17572
ante	-9.17748
▁Antoni	-9.17837
mbos	-9.17905
▁corrente	-9.18282
▁composto	-9.18471
▁fose	-9.18481
ión	-9.18486
▁utiliza	-9.18567
▁levou	-9.18573
x	-9.18976
▁romana	-9.1908
▁29	-9.19164
▁sete	-9.19203
▁adoita	-9.19262
▁artista	-9.19366
▁2001	-9.19367
▁26	-9.1942
▁fan	-9.19533
xe	-9.19569
▁2002	-9.19729
▁agora	-9.19732
▁existe	-9.19831
▁sede	-9.19886
▁directa	-9.19899
▁árabe	-9.20037
▁montaña	-9.20038
▁modo	-9.20187
▁India	-9.20227
▁semana	-9.20253
▁Paul	-9.20469
▁local	-9.20739
▁artigo	-9.20796
▁gañou	-9.20866
▁existencia	-9.20972
▁razón	-9.21074
▁frecuente	-9.21245
▁cabeza	-9.21245
▁consecuencia	-9.21283
▁póde	-9.21521
▁numeroso	-9.21563
▁VI	-9.21861
▁nunc	-9.21904
▁León	-9.21942
▁inverno	-9.22052
▁terceiro	-9.22053
▁185	-9.2206
▁conflito	-9.22062
▁crítica	-9.22122
▁vista	-9.22266
▁investigación	-9.22272
▁p	-9.22479
▁casos	-9.22629
▁condado	-9.22688
▁realizar	-9.23055
_	-9.23111
▁material	-9.23174
▁división	-9.23254
▁económico	-9.23324
▁figura	-9.23342
▁pública	-9.23395
▁avión	-9.23439
▁Casa	-9.23855
▁Re	-9.23893
▁linguaxe	-9.24019
▁premio	-9.2411
▁exterior	-9.24396
nia	-9.24407
▁Juan	-9.24541
▁60	-9.2463
▁Chin	-9.24676
▁bastante	-9.24902
ces	-9.24959
▁Nos	-9.24986
▁realidade	-9.25035
▁campaña	-9.25411
▁porta	-9.25626
▁literatura	-9.25699
ga	-9.25895
▁mor	-9.25946
▁fundamental	-9.26249
ey	-9.26482
▁País	-9.26507
tbol	-9.26726
▁natureza	-9.26812
▁pintura	-9.26871
▁distancia	-9.26873
▁concerto	-9.26959
▁escrita	-9.27091
▁—	-9.27239
▁van	-9.27262
▁lonxitude	-9.27387
▁2008	-9.27444
▁maneira	-9.27691
▁t	-9.27884
▁comunicación	-9.28004
▁dominio	-9.28205
▁distinta	-9.28279
▁variedade	-9.28354
▁Tam	-9.28361
▁mes	-9.2883
▁produtos	-9.28988
▁180	-9.29236
▁había	-9.29348
C	-9.29369
▁soa	-9.29464
▁humana	-9.29505
▁diferenza	-9.29606
▁1990	-9.29636
▁fór	-9.29789
▁distinto	-9.29861
▁longa	-9.30144
▁Santo	-9.30168
▁Xap	-9.30224
▁ministro	-9.30241
▁motivo	-9.30242
▁y	-9.30341
▁marca	-9.30479
▁económica	-9.30486
▁rede	-9.30507
▁estrela	-9.30578
▁2014	-9.30704
h	-9.30779
▁Nesta	-9.30855
ís	-9.30937
▁produce	-9.31006
▁Lond	-9.31041
“	-9.31083
▁club	-9.31083
▁Estas	-9.31219
▁formado	-9.31223
▁coñecemento	-9.3129
▁crear	-9.31387
▁conserva	-9.31427
▁pasar	-9.31539
▁”	-9.31545
▁bo	-9.31625
▁Barcelon	-9.31758
▁voto	-9.31758
▁comercial	-9.31769
▁planeta	-9.32154
▁doutro	-9.32165
▁numerosa	-9.32243
▁entrada	-9.32421
▁autoridade	-9.32441
▁inicio	-9.32618
▁semellante	-9.32724
▁similar	-9.32806
▁etapa	-9.32866
quí	-9.32906
▁deixou	-9.33024
▁Internacional	-9.33112
▁rock	-9.33198
▁recibe	-9.33651
▁atopar	-9.33783
▁mediado	-9.33917
▁comercio	-9.34047
▁distrito	-9.34051
▁ampla	-9.34182
▁31	-9.3446
▁Exi	-9.34522
▁dá	-9.34532
▁madeira	-9.34548
▁peza	-9.34613
▁80	-9.34616
▁presenta	-9.34715
▁moderna	-9.34729
▁levar	-9.34744
▁quilómetro	-9.34761
▁arma	-9.34791
▁italiano	-9.3484
▁atopa	-9.34908
▁relixión	-9.3516
▁terceira	-9.3524
ita	-9.35398
▁Baixo	-9.35803
▁realizou	-9.35883
▁chegada	-9.35959
▁fase	-9.36256
▁leva	-9.36307
▁televisión	-9.3638
▁parece	-9.36516
▁reforma	-9.36664
▁onda	-9.36722
▁Brasil	-9.36726
▁fondo	-9.36843
▁Lug	-9.36941
▁relativa	-9.36984
▁símbolo	-9.37099
▁181	-9.37175
▁xeneral	-9.37191
▁festa	-9.37225
ería	-9.37251
▁constante	-9.38023
▁alimento	-9.38115
ceu	-9.38192
▁carga	-9.38203
▁gas	-9.38317
▁escribiu	-9.38387
▁profesor	-9.38396
▁cultural	-9.38492
▁2013	-9.38497
▁enfermidade	-9.38497
▁fala	-9.38526
▁Consello	-9.38586
▁puid	-9.38747
▁musical	-9.3878
▁branco	-9.38828
me	-9.38898
▁presión	-9.38907
▁mosteiro	-9.39001
▁organismo	-9.39004
▁instrumento	-9.39077
▁composición	-9.39105
▁podería	-9.39164
il	-9.39228
▁categoría	-9.39245
▁Media	-9.39271
▁pertencente	-9.39302
▁2010	-9.39752
▁Da	-9.39828
lo	-9.39894
▁rúa	-9.399
▁Deus	-9.39907
▁estrada	-9.39998
▁institución	-9.40083
▁reinado	-9.40089
▁500	-9.40166
▁destaca	-9.40405
▁Monte	-9.40408
▁xefe	-9.40539
▁europea	-9.40587
▁monte	-9.40611
▁Constitución	-9.4085
▁2009	-9.40895
▁permanece	-9.40901
▁Do	-9.40944
▁publicación	-9.4097
trá	-9.40976
▁bispo	-9.4101
▁fenómeno	-9.41095
▁histórico	-9.41095
▁árbore	-9.41095
▁representa	-9.4122
▁padrón	-9.41354
▁física	-9.41485
f	-9.41499
ado	-9.41574
▁réxime	-9.41606
▁formula	-9.41621
▁conseguir	-9.41753
▁barco	-9.4178
▁Ouren	-9.41955
▁forman	-9.4213
ce	-9.42201
▁altitude	-9.42549
▁inicial	-9.42652
▁capela	-9.42655
▁metal	-9.42702
▁decidiu	-9.42747
▁extremo	-9.43154
▁Coa	-9.43312
▁deseño	-9.43345
▁70	-9.43362
▁ouro	-9.43363
▁límite	-9.43415
▁2011	-9.43415
▁Nas	-9.43615
▁cuarto	-9.43763
▁grao	-9.43851
▁1991	-9.44028
▁contacto	-9.44037
▁americano	-9.44112
▁frecuencia	-9.443
▁Actual	-9.44551
▁XVII	-9.44648
▁Canad	-9.44661
▁constitúe	-9.44727
▁tiver	-9.44849
▁quedou	-9.44956
▁miúdo	-9.44991
▁ningunha	-9.44992
▁producir	-9.45023
▁Grande	-9.45183
▁estación	-9.45188
▁Polo	-9.45202
que	-9.45373
▁selección	-9.45392
▁pouca	-9.45445
▁traballar	-9.45459
▁esquerda	-9.45488
▁manter	-9.4549
▁calidade	-9.45614
▁Final	-9.45619
▁Vila	-9.45758
▁templo	-9.45824
▁soldado	-9.4591
▁cuxa	-9.45968
▁curso	-9.4605
▁vía	-9.46053
▁habitual	-9.46096
▁aquel	-9.46434
▁bosque	-9.46499
▁deixa	-9.46552
▁200	-9.46627
▁poeta	-9.46709
▁empresa	-9.4673
▁90	-9.46773
▁inferior	-9.46863
▁nese	-9.4696
▁teatro	-9.46984
ontevedr	-9.47061
▁182	-9.47226
▁tratado	-9.47377
el	-9.47383
▁municipio	-9.47404
▁considerada	-9.47528
▁dólar	-9.47586
▁mal	-9.47618
▁voo	-9.47619
▁1980	-9.4777
▁beira	-9.48154
▁futuro	-9.48162
▁piloto	-9.48166
▁falta	-9.48283
▁conquista	-9.48364
▁Val	-9.48426
éxico	-9.48493
▁trono	-9.48588
▁viu	-9.48607
▁posibilidade	-9.48679
▁ponte	-9.48824
▁transporte	-9.48879
▁dar	-9.4892
▁obtiv	-9.4919
▁clara	-9.49198
▁continente	-9.49245
▁mans	-9.49308
▁Xe	-9.49312
▁Galega	-9.49331
▁derrota	-9.49412
▁Ó	-9.49511
▁relixiosa	-9.49528
▁noite	-9.4964
▁será	-9.49657
▁Congreso	-9.49692
▁recurso	-9.49697
▁usa	-9.49736
▁libros	-9.4974
▁J	-9.49778
▁terreo	-9.49878
▁imperio	-9.49889
▁representación	-9.4999
▁Era	-9.50328
▁perda	-9.50346
▁podía	-9.50394
ro	-9.50407
▁cuxo	-9.5053
▁entrou	-9.50589
▁defensa	-9.50641
▁sinxelo	-9.50841
▁frances	-9.51122
▁depende	-9.51259
▁1995	-9.51281
▁Goberno	-9.51466
▁ácido	-9.51496
▁radio	-9.51563
▁evolución	-9.51579
▁houb	-9.51581
▁Filip	-9.51655
▁utilizado	-9.51778
▁creou	-9.51886
▁moderno	-9.51898
▁inclúe	-9.51938
▁próximo	-9.52034
▁aire	-9.52307
▁proteína	-9.52317
▁usado	-9.52409
▁formada	-9.52592
le	-9.52623
▁castelán	-9.52674
▁necesidade	-9.52794
▁famoso	-9.52889
▁expedición	-9.52893
▁Sol	-9.52898
dor	-9.53071
▁castelo	-9.53177
▁cadea	-9.53177
▁folla	-9.5318
▁expresión	-9.53275
▁produciu	-9.53284
▁edificio	-9.53675
▁ve	-9.53793
cio	-9.53798
▁particip	-9.53834
▁doutra	-9.53855
▁natura	-9.54035
▁difícil	-9.54139
▁1996	-9.54238
utores	-9.54289
ización	-9.54386
▁Miguel	-9.5443
▁!	-9.54527
▁tomar	-9.54605
▁36	-9.54654
▁extensión	-9.54819
▁1998	-9.54822
▁océano	-9.54865
▁loca	-9.54945
▁aplicación	-9.54957
▁educación	-9.55019
▁Ram	-9.55031
▁potencia	-9.55085
▁Ben	-9.55106
▁filosofía	-9.55113
▁Australia	-9.55165
▁Academia	-9.55226
▁evitar	-9.55237
=	-9.55307
▁ruso	-9.55315
▁per	-9.55337
▁Lugar	-9.55364
ma	-9.55421
▁formou	-9.55503
▁persoal	-9.55694
ntes	-9.55716
▁Todo	-9.56062
▁comezar	-9.56093
▁próxima	-9.56093
▁sufri	-9.56165
→	-9.56192
ido	-9.56217
▁produto	-9.56276
▁nace	-9.5636
▁vexeta	-9.56733
▁coñece	-9.56821
▁Río	-9.56889
▁lago	-9.57032
▁acto	-9.57052
▁fú	-9.57213
▁caza	-9.57283
▁británica	-9.57384
▁probable	-9.57392
▁negro	-9.57472
▁1994	-9.57487
▁Di	-9.57623
▁Luís	-9.57789
▁nave	-9.58172
▁dinastía	-9.58303
▁Robert	-9.58305
▁alemá	-9.58315
▁Constantino	-9.5849
▁150	-9.58516
▁mostra	-9.58635
▁publicado	-9.58666
▁actua	-9.58684
▁documento	-9.58692
▁Garc	-9.58698
▁científica	-9.58793
▁topónimo	-9.58794
▁Su	-9.5883
▁invasión	-9.58895
▁cría	-9.59002
▁veciño	-9.592
▁ocupa	-9.59226
▁medieva	-9.59378
▁clasificación	-9.59419
▁arquitectura	-9.59447
▁dura	-9.59542
▁grega	-9.59609
▁oriental	-9.59774
▁agricult	-9.59813
▁and	-9.59869
▁química	-9.59915
▁chan	-9.60039
▁val	-9.60065
▁Europea	-9.60127
▁Ment	-9.60131
▁Nun	-9.60374
▁oposición	-9.60427
▁histórica	-9.60429
▁reacción	-9.60429
▁mestre	-9.60432
▁peso	-9.60443
▁Bret	-9.60624
▁venda	-9.60668
▁dereita	-9.60689
▁formas	-9.60738
▁torre	-9.60746
▁empregado	-9.60756
▁distribución	-9.60842
▁individuo	-9.60842
▁crise	-9.61049
alas	-9.61095
▁aparición	-9.61169
▁relixioso	-9.61177
▁obter	-9.61225
▁experiencia	-9.61271
▁New	-9.61375
▁cobre	-9.61395
▁industrial	-9.61587
▁encontro	-9.61609
▁liberdade	-9.62091
▁praia	-9.62314
▁Catalu	-9.62331
▁golpe	-9.62485
▁intento	-9.62487
▁trala	-9.62513
▁busca	-9.62577
▁escala	-9.6259
▁mando	-9.62601
▁f	-9.62603
▁noro	-9.62616
▁cultivo	-9.62616
▁península	-9.62835
▁resistencia	-9.63042
▁factor	-9.63234
w	-9.63271
▁gobernador	-9.63271
▁aparecen	-9.63341
▁universidade	-9.63356
▁1997	-9.63572
▁compoñente	-9.63577
▁composta	-9.63676
▁actor	-9.6373
▁aves	-9.63872
tón	-9.63878
▁raí	-9.6398
▁duro	-9.64049
▁Algunha	-9.64128
▁máximo	-9.64213
▁sitio	-9.64316
▁fíxo	-9.64334
▁tribo	-9.64504
▁socia	-9.64675
▁órgano	-9.64745
▁c	-9.6482
▁1960	-9.64825
▁volume	-9.64961
▁seguir	-9.64982
▁entrar	-9.65001
▁canle	-9.65091
▁Li	-9.65137
▁emprega	-9.65138
▁facend	-9.65161
▁branca	-9.65176
▁aldea	-9.65241
▁idioma	-9.65284
▁densidade	-9.65302
▁Xogo	-9.65306
▁ocorre	-9.65385
▁poesía	-9.65393
▁regular	-9.65401
▁matrimonio	-9.65406
▁paz	-9.65454
▁ir	-9.65506
▁Alexandr	-9.65512
▁contido	-9.65718
bo	-9.65741
eira	-9.65839
▁administración	-9.65952
▁Copa	-9.65982
▁Parlament	-9.66045
▁rapid	-9.66048
▁representante	-9.6607
▁cae	-9.66096
▁XII	-9.6615
▁máxima	-9.66154
▁femia	-9.66179
▁pertence	-9.66224
▁te	-9.66247
▁operación	-9.66313
▁Debid	-9.66379
▁179	-9.66381
▁escribir	-9.66423
í	-9.66465
▁estableceu	-9.66493
▁pé	-9.66511
▁ruta	-9.66595
▁molécula	-9.6663
▁Posterior	-9.6703
▁Lei	-9.67034
▁solar	-9.67137
▁1993	-9.67143
▁Ante	-9.6715
▁inclúen	-9.67366
va	-9.67414
▁contén	-9.6742
▁Ponte	-9.67443
▁apen	-9.67456
▁1992	-9.67458
▁dialecto	-9.67472
▁Pola	-9.67544
▁resposta	-9.67582
▁partícula	-9.67582
tivo	-9.67589
▁Xeral	-9.67631
▁coroa	-9.67789
▁decisión	-9.67807
▁asentamento	-9.67807
▁Presidente	-9.67812
▁ambiente	-9.67818
▁batería	-9.67924
▁gañar	-9.67931
▁VII	-9.67957
▁terrestre	-9.68026
▁católica	-9.68026
▁cousas	-9.68064
▁desenvolveu	-9.6824
▁Popular	-9.6836
ú	-9.68362
▁Moito	-9.68389
▁Air	-9.6842
▁vo	-9.68462
▁vivi	-9.6851
▁inclus	-9.68517
▁tecnoloxía	-9.68566
▁caída	-9.68614
tención	-9.68626
▁corte	-9.68775
▁cámara	-9.68808
cm	-9.68909
▁le	-9.68918
▁negra	-9.68919
▁diferente	-9.69057
▁Pode	-9.69104
in	-9.69108
▁doce	-9.69238
▁nacemento	-9.69314
▁converter	-9.69368
▁necesario	-9.69369
▁baseada	-9.69407
▁cristián	-9.69412
▁fundou	-9.69491
▁tomou	-9.6951
▁volver	-9.69633
▁1989	-9.6971
▁nenos	-9.69765
xo	-9.69768
▁Al	-9.69868
bilidade	-9.6987
▁Arxentin	-9.69934
+	-9.70047
▁desenvolver	-9.70335
▁toma	-9.7049
▁300	-9.70493
▁macho	-9.70535
▁plano	-9.70583
▁definición	-9.70623
▁recoñecemento	-9.70629
tase	-9.70641
▁fundador	-9.70651
sús	-9.70658
▁i	-9.70702
▁queda	-9.70787
▁oficia	-9.7081
▁significado	-9.70897
▁delas	-9.70958
▁Atlántico	-9.71188
▁Soviética	-9.71198
▁Cada	-9.7124
▁consiste	-9.71273
▁continuou	-9.71333
▁españo	-9.71369
▁combate	-9.71505
▁anual	-9.71747
▁substancia	-9.71864
▁activa	-9.71875
▁praza	-9.71887
▁Corte	-9.71945
▁Harr	-9.71947
▁ferro	-9.72138
acífico	-9.72216
▁logrou	-9.72293
riba	-9.72315
▁matemática	-9.72458
▁revolución	-9.72462
▁raíña	-9.72476
▁0	-9.72483
▁escena	-9.72509
▁procedente	-9.72515
▁fixer	-9.72581
▁norma	-9.72775
▁marcha	-9.72878
▁construír	-9.7294
▁carta	-9.73077
▁ciclo	-9.73123
▁barrio	-9.7321
▁liga	-9.73259
▁dobre	-9.73365
▁labor	-9.73382
▁morto	-9.73384
▁calendario	-9.73393
▁xudeu	-9.73393
▁1936	-9.7342
▁príncipe	-9.7351
▁taxa	-9.7351
▁varía	-9.73536
▁exemplar	-9.73627
▁Primeira	-9.7367
▁estudante	-9.7367
ria	-9.73716
▁honra	-9.73863
▁sucesor	-9.73991
▁nobre	-9.74044
▁32	-9.74114
▁amigo	-9.74136
▁denominado	-9.74166
▁David	-9.7422
▁saúd	-9.7426
▁acceso	-9.7433
▁Cristo	-9.74362
▁Porto	-9.744
riente	-9.744
▁practica	-9.74688
▁contrario	-9.74734
▁Austria	-9.74857
▁favor	-9.74903
▁historiador	-9.74914
▁x	-9.74918
ftwa	-9.75022
▁lenda	-9.7504
▁mestura	-9.75054
▁persa	-9.7511
▁usar	-9.75137
▁arquipélago	-9.75263
▁sabe	-9.75296
▁poida	-9.75364
▁alfabeto	-9.75419
▁feita	-9.7545
▁denominación	-9.75473
▁sección	-9.75519
▁1986	-9.75529
▁selo	-9.75557
▁clásica	-9.75646
▁breve	-9.75668
▁directo	-9.75742
▁vivo	-9.75772
▁establecer	-9.76004
▁construído	-9.76132
▁competición	-9.76159
▁2012	-9.76197
▁precisa	-9.76206
órmula	-9.76241
▁noutro	-9.7637
▁Arte	-9.7637
▁po	-9.76391
▁35	-9.76407
▁actuación	-9.76594
▁hitita	-9.76975
▁inglesa	-9.77024
▁iniciou	-9.77124
▁regreso	-9.77138
▁cine	-9.77174
▁eléctrica	-9.77252
▁xurdi	-9.7735
▁considera	-9.77543
▁xeración	-9.77546
▁tale	-9.77635
▁resulta	-9.77807
▁deporte	-9.77847
▁mellore	-9.77848
▁personaxes	-9.77886
land	-9.78192
▁parella	-9.78201
▁Irland	-9.78322
▁debía	-9.78327
▁cuestión	-9.78445
▁código	-9.78446
▁plan	-9.78598
▁178	-9.78605
▁peixe	-9.78692
▁nalgún	-9.78694
mba	-9.78812
▁censo	-9.78839
▁Grec	-9.78864
▁publica	-9.789
▁nación	-9.78994
▁Isabel	-9.79067
▁fundada	-9.7908
▁unión	-9.7909
▁dema	-9.79096
▁nove	-9.79252
▁guitarra	-9.79312
▁descubrimento	-9.7934
▁interna	-9.79385
et	-9.79464
▁completo	-9.79544
▁Navarr	-9.79709
▁campionato	-9.79811
▁físico	-9.79811
▁Escola	-9.79815
▁Xer	-9.7982
▁deixar	-9.79849
▁tendencia	-9.79952
▁proposta	-9.80062
▁177	-9.80065
▁Nese	-9.8015
▁músico	-9.80187
▁coche	-9.80227
pe	-9.80274
▁Ata	-9.80432
▁rura	-9.8052
▁Centra	-9.80611
▁pasado	-9.80675
▁suro	-9.80677
▁expansión	-9.80692
▁75	-9.80736
eza	-9.80779
ler	-9.80781
▁clásico	-9.80817
▁respectiva	-9.80817
▁saída	-9.80827
▁carne	-9.80841
▁científico	-9.80992
ouse	-9.81181
▁Museo	-9.81198
▁froito	-9.81228
▁personaxe	-9.81265
▁máquina	-9.81325
▁dirixida	-9.81328
▁grave	-9.81337
▁for	-9.81357
▁república	-9.81578
124	-9.81639
▁Fernández	-9.81711
▁anunciou	-9.81867
▁creado	-9.81974
▁Te	-9.82
▁1979	-9.82068
▁columna	-9.82111
▁muro	-9.82229
▁amor	-9.82252
▁trata	-9.8226
cía	-9.82329
▁vivir	-9.82336
▁construída	-9.82473
▁comportamento	-9.82479
▁Revolu	-9.82528
▁relacionado	-9.82619
▁baseado	-9.82786
▁empresas	-9.82826
▁sol	-9.8296
▁indica	-9.82966
▁enorme	-9.83057
▁pensamento	-9.8313
alifornia	-9.83246
▁tratamento	-9.83283
▁análise	-9.83362
▁1982	-9.83379
▁internaciona	-9.83399
▁sangue	-9.83895
▁Mur	-9.83934
▁deputado	-9.83946
▁musulmán	-9.84062
▁interpretación	-9.84203
▁James	-9.84249
▁destacan	-9.84279
▁literaria	-9.84288
▁presentou	-9.84294
▁Centro	-9.84301
▁rocha	-9.84419
▁daquela	-9.84442
▁consumo	-9.84454
▁localidade	-9.84565
▁Gale	-9.84617
▁médico	-9.84682
▁municipa	-9.84687
▁&#	-9.84705
▁visión	-9.84706
▁sitúa	-9.84722
▁cuberta	-9.84812
▁Papa	-9.84816
▁vello	-9.84851
leo	-9.84905
▁coñecer	-9.84907
▁fachada	-9.84944
▁45	-9.84969
▁colección	-9.85011
▁elas	-9.85122
▁noso	-9.85161
▁Escoc	-9.8521
▁nord	-9.85252
▁considerar	-9.85279
▁Ese	-9.853
▁estudar	-9.85596
▁Trala	-9.85612
▁aeroporto	-9.8564
▁ex	-9.85683
▁Xos	-9.857
▁Tratado	-9.8574
▁irmá	-9.85751
ela	-9.85819
▁marco	-9.85826
▁necesaria	-9.8587
▁Nación	-9.86062
▁Tom	-9.86074
▁falar	-9.8615
▁movementos	-9.86156
▁químico	-9.86269
▁dado	-9.86311
▁cerca	-9.86313
▁traballa	-9.86574
▁departamento	-9.86675
▁Mali	-9.86768
ban	-9.86789
▁turismo	-9.86804
▁dirixido	-9.86813
▁misión	-9.86905
▁xornal	-9.86923
▁utilizar	-9.86944
▁suficiente	-9.87073
▁obst	-9.87077
▁lo	-9.87368
▁portugu	-9.8741
▁comercia	-9.87538
▁táboa	-9.87613
▁deben	-9.87644
▁dixo	-9.8766
▁Luis	-9.87685
▁1985	-9.87751
▁aspecto	-9.87759
▁segui	-9.8776
▁edificios	-9.87807
ragón	-9.87827
▁permanente	-9.87886
▁meta	-9.87912
▁aproba	-9.87921
▁Pouco	-9.88026
▁tradiciona	-9.88078
▁George	-9.8827
▁compositor	-9.88291
▁estranxeiro	-9.88291
▁ámbito	-9.88296
▁pesca	-9.88306
▁400	-9.88315
▁Bo	-9.8832
▁Romano	-9.88359
▁existente	-9.8842
▁1987	-9.8843
▁relato	-9.88497
▁Día	-9.88509
▁Española	-9.88531
▁par	-9.88533
▁moeda	-9.88564
▁escudo	-9.88621
▁dez	-9.88718
▁viven	-9.8872
▁vinte	-9.88752
▁realiza	-9.88866
▁contrato	-9.88954
▁dificultade	-9.89114
▁1983	-9.89114
▁evento	-9.8921
▁Aten	-9.89298
▁ría	-9.89363
ard	-9.8937
▁William	-9.89373
▁nosa	-9.89385
▁cre	-9.89395
▁diante	-9.89399
▁estudio	-9.89524
▁Instituto	-9.89524
▁Hoxe	-9.89525
▁noutra	-9.89528
▁castro	-9.89552
▁verde	-9.89613
▁cento	-9.89628
▁Liga	-9.89677
▁ovo	-9.89686
▁traballador	-9.89795
▁famosa	-9.898
▁provoca	-9.89811
▁esforzo	-9.89829
▁lingüística	-9.89843
▁gaña	-9.89933
▁permitiu	-9.90021
▁científicos	-9.90023
▁33	-9.90042
▁car	-9.90091
▁profunda	-9.90215
▁seguiu	-9.90257
▁ADN	-9.90354
▁participación	-9.90379
▁pel	-9.90387
▁mante	-9.90403
▁imposto	-9.90633
▁pintor	-9.90689
▁Can	-9.90791
▁Mais	-9.90793
▁XV	-9.90805
▁Sá	-9.90951
▁Suec	-9.91146
▁esposa	-9.91191
▁denominada	-9.91208
▁compañeiro	-9.91613
▁1988	-9.91616
▁provoc	-9.91622
▁concentración	-9.91638
▁destino	-9.91754
▁Ministro	-9.91927
▁cores	-9.91928
▁variante	-9.9208
▁contaba	-9.92173
▁Me	-9.92187
▁duque	-9.92397
▁Bos	-9.9262
▁cidadán	-9.92655
▁variación	-9.92883
▁Asemblea	-9.92888
▁comunista	-9.92899
▁campos	-9.92929
▁asociación	-9.92991
▁crea	-9.93014
▁precipitación	-9.93031
▁rápido	-9.93173
▁constitución	-9.93208
▁poboado	-9.93249
rio	-9.93328
vo	-9.9351
▁Berl	-9.93662
enínsula	-9.93737
▁recibir	-9.93776
▁Martín	-9.93823
▁curta	-9.93891
▁mozo	-9.93894
pareceu	-9.93986
▁produtor	-9.94125
▁Cor	-9.94201
▁arquitecto	-9.94335
▁continúa	-9.9436
▁monarca	-9.94468
▁estándar	-9.94474
▁relacionada	-9.94478
▁entra	-9.94479
▁minutos	-9.94503
▁nive	-9.9455
▁nuclear	-9.94613
▁cantante	-9.94642
man	-9.94644
▁inimigo	-9.94758
▁fábrica	-9.94759
▁escravo	-9.94802
▁aí	-9.94879
▁1977	-9.94884
▁mm	-9.94891
ti	-9.94902
▁dividida	-9.94906
▁calor	-9.94961
▁1976	-9.94991
▁substituído	-9.95084
▁realizada	-9.95243
lla	-9.95318
▁protección	-9.95341
▁bandeira	-9.95341
ino	-9.95379
▁fundación	-9.95425
▁agrícola	-9.9544
▁arco	-9.95512
▁Ri	-9.95595
IB	-9.95623
ri	-9.95667
▁determinado	-9.95679
▁perdeu	-9.95823
▁descendente	-9.95827
axe	-9.95859
▁Israel	-9.95927
▁dimensión	-9.95927
▁átomo	-9.9593
▁Cidade	-9.95949
aría	-9.96027
▁memoria	-9.96076
▁Virxe	-9.96221
▁vivía	-9.96222
▁Torre	-9.96291
▁posesión	-9.96369
▁gravación	-9.96414
ccidente	-9.96481
▁dividido	-9.96522
▁intención	-9.96536
▁participar	-9.96544
▁Sa	-9.96641
▁catedral	-9.96684
▁rematar	-9.9676
b	-9.96809
▁diso	-9.96828
▁notable	-9.96857
▁gand	-9.96897
▁xene	-9.9693
▁aquela	-9.96999
▁nela	-9.97015
▁claro	-9.97065
▁ocupación	-9.97087
íxeno	-9.9711
▁aliado	-9.97112
▁Novo	-9.97138
▁Asturia	-9.97149
▁1984	-9.97262
▁producido	-9.97297
▁figuras	-9.97368
▁Eduard	-9.97408
▁Xunta	-9.97412
▁realizado	-9.97499
▁Deste	-9.97513
▁raza	-9.97547
▁vén	-9.97703
▁38	-9.97745
lén	-9.97787
▁colaboración	-9.97839
▁correspondente	-9.97919
▁continenta	-9.97925
▁utilizada	-9.97954
▁Que	-9.97968
▁presidencia	-9.98006
▁Trá	-9.98016
▁activo	-9.98088
▁meirande	-9.98306
▁frota	-9.98309
▁integra	-9.98453
ashing	-9.98462
▁rexistro	-9.98568
▁mellora	-9.98612
▁coñeceu	-9.98674
unha	-9.98691
▁neno	-9.98713
▁Unida	-9.98828
▁Só	-9.98892
▁crítico	-9.9891
▁literario	-9.9891
▁mandato	-9.98917
▁trazo	-9.99217
▁elección	-9.99224
▁Club	-9.99365
▁parque	-9.99374
▁urbano	-9.99431
pla	-9.99491
▁responsable	-9.99517
▁petró	-9.99518
▁nesa	-9.99522
▁segur	-9.99628
▁catalán	-9.99729
▁ollo	-9.99759
▁exposición	-9.99825
▁aberta	-9.99834
▁1974	-9.99948
▁Exército	-9.99975
▁diferenzas	-10.0007
▁familiar	-10.0011
ografía	-10.0021
▁cristiá	-10.0025
▁residencia	-10.0029
▁fabrica	-10.0034
▁excepción	-10.0044
▁xeo	-10.0045
▁duración	-10.0057
▁1981	-10.0059
▁prové	-10.0065
ígu	-10.0065
▁tradución	-10.0075
▁Albert	-10.0083
▁asunto	-10.009
▁destacar	-10.0099
▁Cu	-10.0108
▁profesional	-10.011
▁existía	-10.0136
▁recoñecido	-10.0136
▁creada	-10.0142
▁experimento	-10.0152
▁especia	-10.0156
▁páxina	-10.0167
▁me	-10.0171
▁2016	-10.0176
▁65	-10.0179
▁1973	-10.0181
▁conde	-10.0181
▁instalación	-10.0185
▁recupera	-10.0186
▁Fin	-10.0189
ie	-10.0189
▁candidato	-10.0198
ge	-10.0199
▁For	-10.02
▁disputa	-10.0201
▁nacionalista	-10.0218
▁falante	-10.0224
▁monarquía	-10.0246
▁alcalde	-10.0246
▁ía	-10.0271
▁Miss	-10.0271
▁abundante	-10.0279
▁trasladou	-10.0285
▁san	-10.0288
ic	-10.0291
▁portuguesa	-10.0292
▁torno	-10.0296
▁nativo	-10.0299
presión	-10.0304
▁mantiv	-10.0311
▁perde	-10.0312
▁Man	-10.0317
▁atmosfera	-10.0324
▁parede	-10.0325
▁Miño	-10.0329
amp	-10.034
▁Island	-10.0358
▁Olímpico	-10.0359
▁opinión	-10.0362
▁usada	-10.0363
▁vento	-10.0371
▁lanzamento	-10.0373
▁radiación	-10.0374
▁pista	-10.0375
nos	-10.0384
▁campión	-10.0404
▁acontecemento	-10.0421
▁socialista	-10.0425
use	-10.0434
▁August	-10.0442
▁aberto	-10.0444
▁ingles	-10.0445
▁presentan	-10.0451
▁acabou	-10.0464
▁acadar	-10.0467
▁muralla	-10.0468
▁ven	-10.0473
▁Rodr	-10.0473
▁aspectos	-10.0482
▁usuario	-10.05
▁Occidental	-10.05
▁rematou	-10.05
▁pasaxeiro	-10.0501
▁curto	-10.0516
▁monumento	-10.0516
▁presentar	-10.0523
▁aumenta	-10.0536
▁deriva	-10.0543
▁capitán	-10.0548
▁publicada	-10.0554
▁facía	-10.0559
▁poemas	-10.0562
▁Ra	-10.0563
▁paisaxe	-10.0565
▁g	-10.0568
▁tarefa	-10.058
▁discurso	-10.058
ne	-10.059
▁160	-10.0591
▁casas	-10.0602
▁xogar	-10.0606
boa	-10.0607
▁Mediterráneo	-10.0613
▁episodio	-10.0613
▁saír	-10.0617
▁posta	-10.0621
▁administrativa	-10.0629
▁avance	-10.0629
▁prensa	-10.0629
▁asasinado	-10.063
▁filósofo	-10.0632
▁Ferrol	-10.0634
nce	-10.0637
▁culto	-10.0645
▁contexto	-10.0648
▁ecuación	-10.065
▁consello	-10.0651
▁Pér	-10.0658
▁dirixiu	-10.0668
▁pazo	-10.0671
G	-10.0674
▁inmediata	-10.0679
rán	-10.0689
▁secuencia	-10.0695
▁azucre	-10.0695
▁dalgún	-10.0695
▁erro	-10.07
▁altas	-10.0707
▁procura	-10.0709
I	-10.071
▁debuxo	-10.0713
▁circuíto	-10.0728
▁Henrique	-10.0728
▁Cruz	-10.0729
ó	-10.0736
▁revolta	-10.0744
▁construíu	-10.0752
▁declarou	-10.0761
▁crenza	-10.0762
▁saíu	-10.0769
▁cousa	-10.0776
▁nalgunha	-10.0777
▁2015	-10.0777
▁civilización	-10.0779
▁120	-10.08
▁Cá	-10.081
▁indíxena	-10.081
▁torneo	-10.0827
▁prodúce	-10.0827
▁Galego	-10.0828
▁nel	-10.083
▁mariña	-10.0831
▁Ni	-10.0832
▁Primeir	-10.0838
puxo	-10.0844
▁nota	-10.0848
▁visita	-10.0859
▁museo	-10.086
▁mecánica	-10.086
▁pais	-10.0861
▁Cuba	-10.0864
▁acadou	-10.0865
▁exclusiva	-10.0869
▁complexo	-10.087
riano	-10.0873
ã	-10.0877
eiro	-10.0878
▁podían	-10.0884
▁proximidade	-10.0893
▁prezo	-10.0895
▁participa	-10.09
▁Comunista	-10.091
▁chama	-10.0913
▁Asociación	-10.0929
tol	-10.093
ación	-10.0948
▁supux	-10.0953
▁atopou	-10.0961
▁carbono	-10.0961
▁cruz	-10.0971
▁mecanismo	-10.0977
▁cruceiro	-10.0978
▁amplo	-10.098
▁vive	-10.0989
▁Hit	-10.0991
▁Cultura	-10.0994
▁riqueza	-10.0994
▁democrática	-10.1011
ada	-10.1011
▁37	-10.1016
▁sexual	-10.1018
▁Divisi	-10.1031
▁Dereito	-10.1031
nel	-10.1034
▁actri	-10.1038
▁extrema	-10.1045
▁consegue	-10.1045
▁autonomía	-10.1046
▁cadrado	-10.1047
▁diario	-10.1051
▁patrón	-10.1062
▁cristian	-10.1062
▁suma	-10.1064
▁observación	-10.1069
▁48	-10.1106
▁valore	-10.1112
▁signo	-10.1114
▁formato	-10.112
▁terzo	-10.1121
▁converténdo	-10.1131
▁Orde	-10.1135
▁fortaleza	-10.1148
▁niño	-10.1165
▁determinada	-10.1166
▁formal	-10.1168
xica	-10.1177
cher	-10.1179
▁demasiado	-10.1182
▁adiante	-10.1182
tura	-10.1189
▁Estudou	-10.1195
▁viru	-10.1204
▁ingreso	-10.1208
▁secretario	-10.1214
▁fe	-10.1215
▁Record	-10.1215
gás	-10.1217
▁Los	-10.1218
▁corda	-10.1226
▁urbana	-10.1241
▁Pa	-10.1242
▁sub	-10.1244
▁costume	-10.1269
▁pre	-10.1269
▁Socialista	-10.1269
▁pan	-10.127
▁volve	-10.127
▁cabalo	-10.1288
▁Marti	-10.1292
▁lixeira	-10.1292
▁42	-10.1294
ord	-10.1294
▁mantén	-10.1296
▁64	-10.1297
▁176	-10.1303
▁perigo	-10.1309
▁reserva	-10.1325
▁marxe	-10.133
▁accidente	-10.133
▁incluído	-10.1338
▁fracaso	-10.1338
▁cadro	-10.134
▁continuar	-10.1345
iano	-10.136
▁debería	-10.136
▁López	-10.1373
▁frío	-10.1373
▁profundidade	-10.1373
pa	-10.1387
▁garda	-10.1387
▁ensino	-10.1389
▁estreita	-10.1391
ume	-10.1398
▁Edi	-10.1406
▁significativa	-10.1427
▁xornalista	-10.1428
▁celébra	-10.1444
▁Sen	-10.1447
▁b	-10.1455
▁bloque	-10.1455
▁bizantino	-10.1462
▁dúbida	-10.1462
▁placa	-10.1479
▁chaira	-10.1483
▁universal	-10.1485
▁aparecer	-10.1488
▁italiana	-10.1497
or	-10.1511
estival	-10.1512
▁Ro	-10.1512
▁débe	-10.1514
▁von	-10.1517
▁perder	-10.1519
▁empregar	-10.1519
▁result	-10.152
▁tensión	-10.1522
iana	-10.1523
▁Sobre	-10.1527
▁temo	-10.153
▁posíbe	-10.1533
▁círculo	-10.1533
▁soberan	-10.1534
▁area	-10.1534
▁xunta	-10.1536
▁señor	-10.1538
▁franco	-10.1543
▁atopan	-10.1546
▁Hung	-10.156
▁católico	-10.1568
▁exilio	-10.1568
▁39	-10.1581
▁tocar	-10.1581
▁deuse	-10.1585
▁mali	-10.1585
▁Michael	-10.1586
▁inscrición	-10.1586
▁Gu	-10.159
▁emisión	-10.1594
▁desaparece	-10.1597
▁universo	-10.1604
▁axi	-10.1606
th	-10.1609
▁Charles	-10.1622
▁elevada	-10.1623
▁600	-10.1627
▁Suíz	-10.1627
▁medicina	-10.164
▁Limit	-10.1643
mar	-10.1654
▁vermella	-10.1658
tein	-10.166
▁latino	-10.1665
́	-10.1676
▁liderado	-10.1679
▁To	-10.1693
▁destacado	-10.1696
▁exerce	-10.17
▁Ibéric	-10.1705
▁Vasco	-10.1717
▁rápida	-10.1731
▁impacto	-10.1731
▁Fo	-10.1737
▁tería	-10.175
rez	-10.1754
▁occidenta	-10.176
▁policía	-10.1768
pouco	-10.1786
▁finad	-10.1788
▁editado	-10.1788
▁Moita	-10.1789
▁55	-10.179
▁naciona	-10.1794
▁auto	-10.1803
▁raio	-10.1805
▁escultura	-10.1805
▁celular	-10.1806
▁finalizar	-10.1814
’	-10.1822
▁elevado	-10.1823
▁desa	-10.1824
P	-10.1825
▁miña	-10.1825
▁34	-10.1827
▁seguido	-10.183
▁libera	-10.1835
▁orixina	-10.1849
▁fic	-10.185
▁rama	-10.185
▁órbita	-10.1859
▁nó	-10.1863
▁azul	-10.1868
▁Lis	-10.187
▁1972	-10.1875
▁divíde	-10.1878
▁corazón	-10.1878
▁considerable	-10.1878
▁Ciencia	-10.1879
▁lanzado	-10.1879
▁esencial	-10.1881
▁Bill	-10.1887
céano	-10.1887
▁americana	-10.1888
▁desexo	-10.1889
anto	-10.1899
▁teña	-10.1916
▁ocupar	-10.1921
▁Her	-10.1926
▁Aire	-10.193
▁asociado	-10.1934
▁remata	-10.1937
▁deserto	-10.1939
▁levaba	-10.1945
▁Serra	-10.1951
▁permitir	-10.1969
▁explotación	-10.1975
▁definitivamente	-10.1983
▁amigos	-10.1984
▁corresponde	-10.1984
▁mensaxe	-10.1986
▁establece	-10.1989
onia	-10.1996
▁eléctrico	-10.1996
▁fusión	-10.1998
▁escasa	-10.2
nova	-10.2007
▁lonxe	-10.2008
▁Pe	-10.2021
▁vermello	-10.2027
▁cifra	-10.2045
▁enfrontamento	-10.2046
▁celta	-10.205
ñen	-10.2052
▁imperial	-10.206
▁Cre	-10.206
▁norteamericano	-10.2064
▁transición	-10.2064
▁44	-10.2066
▁xaponesa	-10.2066
▁emprego	-10.2069
▁fundado	-10.2078
▁dito	-10.2079
▁Thom	-10.2086
▁gravado	-10.209
▁evidencia	-10.2092
avera	-10.2104
▁risco	-10.2111
▁diámetro	-10.2121
▁hidróxeno	-10.2121
▁representan	-10.2125
▁estreito	-10.2127
▁global	-10.2133
▁privada	-10.214
▁Jackson	-10.214
▁Lú	-10.214
▁Ribad	-10.2141
▁roda	-10.2146
▁crecente	-10.2149
▁800	-10.2153
▁In	-10.2153
▁cerebro	-10.2158
▁cálculo	-10.2158
▁derivado	-10.2169
▁bacteria	-10.217
▁pobre	-10.2174
▁Campionato	-10.2197
▁web	-10.2197
st	-10.221
▁desenvolvido	-10.2216
▁tecido	-10.2216
▁turco	-10.2216
▁Zeland	-10.2217
▁Toda	-10.2224
▁Guillerm	-10.2235
▁verdade	-10.2239
▁protesta	-10.2246
▁musica	-10.2247
▁recuperar	-10.2253
▁documenta	-10.226
▁Ba	-10.2267
*	-10.2273
▁Jean	-10.2273
▁tropica	-10.2274
▁tratar	-10.2275
▁separada	-10.2276
▁estata	-10.2279
▁manifestación	-10.2282
▁alianza	-10.2283
▁derrotado	-10.2292
▁matemático	-10.2292
▁relevo	-10.2292
▁protagonista	-10.2293
▁demanda	-10.2293
ck	-10.2295
nza	-10.2299
▁descubriu	-10.2299
ch	-10.2302
▁antigüidade	-10.2312
▁vehículo	-10.2312
▁equivalente	-10.2313
▁voga	-10.2314
▁poboada	-10.2316
▁leite	-10.2319
▁xerais	-10.2322
▁artística	-10.2331
▁parcial	-10.2341
landi	-10.2343
▁metropolitana	-10.235
▁converte	-10.2352
▁Ver	-10.2367
▁localizada	-10.2367
▁técnico	-10.237
▁43	-10.2378
▁saber	-10.2386
▁identidade	-10.2389
▁poema	-10.2391
▁sala	-10.2399
▁152	-10.24
▁chamou	-10.2408
▁litora	-10.2409
▁republicano	-10.2412
▁liberal	-10.2412
▁41	-10.2427
▁170	-10.2428
▁Dan	-10.2441
▁ameaza	-10.2443
▁poderían	-10.2445
▁choiva	-10.2448
▁escenario	-10.2448
▁Salvado	-10.2449
▁sae	-10.2459
▁funcionamento	-10.247
▁separado	-10.2473
▁solución	-10.2476
▁electrón	-10.2485
lez	-10.2485
▁Max	-10.2494
▁disto	-10.2496
▁dita	-10.25
▁Mo	-10.2501
▁ARN	-10.2504
▁ángulo	-10.2506
▁concreta	-10.2506
SS	-10.2509
▁Senado	-10.2511
▁seren	-10.2523
▁prat	-10.2524
▁175	-10.2524
▁asasinato	-10.2526
▁rica	-10.2527
▁Bél	-10.253
ésar	-10.254
▁absoluta	-10.254
▁46	-10.2542
▁Mundo	-10.2543
baixo	-10.2543
▁tren	-10.2546
riental	-10.255
▁presa	-10.2552
▁publicar	-10.2554
▁electora	-10.2558
▁debate	-10.256
▁chegan	-10.2565
▁meu	-10.2565
▁xeográfica	-10.2565
▁Marco	-10.2566
▁restante	-10.2567
▁Frank	-10.2567
▁chamar	-10.257
▁comun	-10.2576
▁haber	-10.2583
▁bordo	-10.2585
▁desenvolve	-10.2596
▁Federación	-10.26
▁legal	-10.2604
▁47	-10.2605
▁guitarrista	-10.2605
▁lagoa	-10.2607
▁celebración	-10.2617
▁civ	-10.2617
tra	-10.2621
▁homenaxe	-10.2625
▁retirada	-10.2626
▁estadio	-10.2629
▁quinto	-10.263
▁Valencia	-10.2636
▁temporal	-10.2641
▁sexo	-10.2642
▁espada	-10.2645
▁Louis	-10.2669
vi	-10.267
▁abandonar	-10.267
▁póden	-10.2677
avier	-10.2678
▁cerimonia	-10.2685
▁ritmo	-10.2685
▁múltiple	-10.269
nimal	-10.2696
eo	-10.27
▁afluente	-10.2705
▁describe	-10.2705
▁hipótese	-10.2705
▁fórmula	-10.2706
▁Teatr	-10.2717
▁Comunidade	-10.2727
licio	-10.2727
▁convérte	-10.2745
▁alternativa	-10.2745
▁Mosco	-10.2746
OE	-10.2764
▁pluma	-10.2765
▁comida	-10.2765
▁You	-10.2767
tanto	-10.2777
▁complexa	-10.2779
BA	-10.2781
▁flore	-10.2781
▁lanzou	-10.2786
▁aumentar	-10.2787
▁St	-10.2796
▁separación	-10.2798
▁gole	-10.2798
▁proxectos	-10.2813
▁descrición	-10.2815
▁circula	-10.282
▁Vicent	-10.282
▁escura	-10.2821
▁parlamento	-10.2826
ny	-10.2831
▁Chile	-10.2831
lt	-10.284
▁1,	-10.284
▁dispositivo	-10.2846
▁escritura	-10.2846
▁bronce	-10.2847
▁democracia	-10.2852
▁Fillo	-10.2858
quez	-10.2864
▁Napoleón	-10.2867
▁meridiona	-10.2867
▁fotografía	-10.2887
tal	-10.2889
▁Rosa	-10.2894
ney	-10.2896
NU	-10.2897
▁Gonz	-10.2897
▁Ouro	-10.2911
rich	-10.2926
▁secundario	-10.2928
▁vella	-10.2937
▁procede	-10.294
▁localización	-10.2944
ero	-10.295
▁Turqu	-10.2952
▁Don	-10.2953
▁artístico	-10.2953
▁149	-10.2954
▁Radio	-10.297
▁reunión	-10.297
▁variable	-10.2972
▁obrigado	-10.2977
breza	-10.2982
▁cambiar	-10.2988
▁So	-10.2989
▁ditadura	-10.2991
▁empregada	-10.2998
▁consideraba	-10.2998
▁rico	-10.3012
▁regras	-10.3013
▁considéra	-10.3014
▁latina	-10.3015
▁56	-10.3019
▁enviou	-10.3029
▁toca	-10.303
▁descuberto	-10.3031
▁líquido	-10.3031
▁mariño	-10.3035
▁prim	-10.3035
▁ocupada	-10.304
▁unir	-10.3043
leccións	-10.3044
▁interacción	-10.3052
▁Nada	-10.3054
▁Tre	-10.3056
▁ensaio	-10.3057
▁cuarta	-10.3073
▁exacta	-10.3073
▁volcán	-10.3075
▁transformación	-10.308
▁conferencia	-10.308
ppi	-10.3082
gt	-10.3089
▁Provincia	-10.3094
▁solitario	-10.3094
▁Desta	-10.3107
▁herdeiro	-10.3109
▁Die	-10.3117
▁...	-10.3135
▁có	-10.3136
▁rusa	-10.3137
▁recolle	-10.3142
▁natal	-10.3145
▁previa	-10.315
▁lume	-10.3157
▁producida	-10.3159
ína	-10.3166
▁espírito	-10.3167
▁sinal	-10.3168
▁soviético	-10.3198
tación	-10.3201
▁consta	-10.3214
issi	-10.3219
▁rectangular	-10.3219
▁doutrina	-10.3219
▁colonos	-10.322
▁dela	-10.3223
▁estable	-10.3225
▁comezan	-10.3236
▁competencia	-10.3241
▁rango	-10.3241
▁afirma	-10.3241
▁ocupou	-10.325
▁interno	-10.3252
▁ausencia	-10.3262
▁intervención	-10.3262
las	-10.3265
▁empezou	-10.3266
▁Cal	-10.3284
▁inmigrante	-10.3289
unk	-10.3294
▁Du	-10.33
▁Dinamarca	-10.3304
▁rebelión	-10.3304
▁serra	-10.3305
▁Mon	-10.3308
▁sofre	-10.3308
fama	-10.3313
▁serve	-10.3314
tro	-10.3315
▁federal	-10.3316
▁acepta	-10.332
▁tornou	-10.3321
▁Bar	-10.3324
▁determinar	-10.3325
▁biblioteca	-10.3326
▁vantaxe	-10.3326
▁dominante	-10.3329
▁abandonou	-10.333
▁André	-10.3333
▁TV	-10.3337
lin	-10.3343
▁Mil	-10.3346
▁descuberta	-10.3347
▁52	-10.3352
▁sal	-10.3361
▁autónoma	-10.3368
▁útil	-10.3368
▁usan	-10.337
▁insecto	-10.337
▁enviado	-10.3371
▁Manch	-10.3378
iño	-10.339
▁mamífero	-10.339
▁xaponés	-10.339
▁sonora	-10.3395
▁Ministerio	-10.3411
▁exipcio	-10.3411
vez	-10.3414
▁obten	-10.3419
▁53	-10.3427
▁perspectiva	-10.3433
▁básico	-10.3433
▁electrónico	-10.3433
▁combinación	-10.3441
▁Tol	-10.3449
▁clave	-10.3451
▁Wil	-10.3451
▁Mariña	-10.3456
▁Xoan	-10.3467
▁ni	-10.3471
▁empréga	-10.3476
▁palacio	-10.3476
▁costeira	-10.3476
olonia	-10.3478
▁fogar	-10.348
▁axudar	-10.3487
▁fluxo	-10.3493
▁morrer	-10.3493
▁brazo	-10.3498
▁terminou	-10.3501
▁Ga	-10.3502
▁minera	-10.3503
▁localizado	-10.3514
▁arqueolóxico	-10.352
▁consérva	-10.352
laborou	-10.3522
▁deus	-10.3522
▁santo	-10.3532
ry	-10.3539
▁propósito	-10.3541
▁minoría	-10.3542
▁verdadeira	-10.3542
▁49	-10.3544
▁ceo	-10.3544
▁potencial	-10.3556
▁seco	-10.356
▁pront	-10.3561
▁Dou	-10.3563
▁arcebispo	-10.3563
▁fósil	-10.3563
▁coalición	-10.3563
▁brillante	-10.3564
▁ordenador	-10.357
▁Eu	-10.358
▁Sistema	-10.3585
▁Medio	-10.3586
▁quería	-10.3598
▁estuda	-10.3601
▁consideran	-10.3601
▁Campo	-10.3604
▁transmisión	-10.3607
▁verdadeiro	-10.361
▁frase	-10.3611
TA	-10.3613
▁Per	-10.3619
▁achega	-10.3624
▁equilibrio	-10.3629
▁vías	-10.3634
▁infan	-10.3634
▁derradeiro	-10.3651
▁seca	-10.3653
▁acabar	-10.3659
▁falada	-10.3663
der	-10.3665
▁suave	-10.3668
▁prisioneiro	-10.3673
▁Ánxel	-10.3673
▁Z	-10.368
ble	-10.3684
▁Comezou	-10.3695
▁argumento	-10.3695
▁Póde	-10.3695
▁comandante	-10.3696
NG	-10.3702
▁Cara	-10.3703
▁armada	-10.3708
▁Richard	-10.3718
▁enxeñeiro	-10.3718
▁xudicia	-10.3718
▁quiz	-10.3722
▁conteñ	-10.373
▁asinou	-10.374
ráfico	-10.3758
▁maioritaria	-10.3762
▁marchou	-10.3762
▁suxeito	-10.3762
▁sext	-10.3766
▁crece	-10.377
▁Sociedade	-10.3779
▁cat	-10.3781
▁solo	-10.3788
▁ton	-10.3788
▁deseñado	-10.3795
▁esperanza	-10.3802
▁económicas	-10.3802
▁ma	-10.3805
▁decidir	-10.3805
▁dalgunha	-10.3809
▁adaptación	-10.381
▁puidese	-10.3812
bra	-10.3822
▁protestante	-10.3824
▁utilizan	-10.3826
▁alcanzar	-10.3828
▁vídeo	-10.3829
▁asumi	-10.383
▁conto	-10.383
▁Costa	-10.3831
▁millón	-10.3831
‘	-10.3851
▁k	-10.3852
▁164	-10.3856
▁conexión	-10.3862
▁xoga	-10.3874
ham	-10.3874
▁Cámara	-10.3875
▁verbo	-10.3877
▁baía	-10.3878
▁individual	-10.389
▁titulado	-10.3897
▁testemuña	-10.3897
▁noticia	-10.3897
▁lograr	-10.3897
▁77	-10.3903
▁Franco	-10.3903
NE	-10.3909
▁falece	-10.3909
▁actúa	-10.3919
eorxia	-10.3925
ico	-10.3926
▁dano	-10.3928
ilidade	-10.3934
▁viño	-10.3939
▁chin	-10.3941
▁curva	-10.3942
▁románica	-10.3942
▁modificación	-10.3945
▁Boe	-10.3946
ki	-10.3947
▁representar	-10.3952
▁Alta	-10.3956
ilis	-10.3958
▁57	-10.3958
▁plena	-10.3959
xa	-10.3963
▁secundaria	-10.3965
▁Ana	-10.3965
▁doenza	-10.3966
▁amizade	-10.3975
▁PS	-10.3982
▁básica	-10.3987
▁incluída	-10.3987
▁licenza	-10.3987
▁Xunto	-10.3988
▁específico	-10.3989
▁cambiou	-10.3989
▁encargado	-10.3991
▁intensa	-10.401
▁portugues	-10.4014
▁canón	-10.4014
▁copias	-10.4016
▁moral	-10.4019
▁quedar	-10.4026
▁vaca	-10.4028
▁caracteríza	-10.4033
▁investigador	-10.4035
▁visible	-10.4041
▁abrangue	-10.4049
▁declaración	-10.405
▁sacerdote	-10.4053
▁obriga	-10.4055
▁54	-10.4058
lmente	-10.4064
▁Core	-10.4074
▁colexio	-10.4079
▁Tour	-10.4082
▁astro	-10.4089
▁58	-10.4091
▁Carolina	-10.4109
▁Hu	-10.4111
▁refíre	-10.4126
▁rara	-10.4126
▁adestrador	-10.4132
▁unido	-10.4132
▁automóbil	-10.4138
▁proporción	-10.415
iñeiro	-10.4154
▁gravar	-10.4156
▁CD	-10.4156
▁limita	-10.4157
▁ancho	-10.4161
▁Mi	-10.4167
▁indio	-10.4171
▁UE	-10.4173
▁outeiro	-10.4174
▁establecemento	-10.4176
▁Martin	-10.4177
▁Grazas	-10.4178
▁Tribuna	-10.418
▁teatra	-10.4195
▁iniciativa	-10.4195
▁Ar	-10.4195
way	-10.42
▁veciña	-10.4218
▁Concello	-10.4218
▁cá	-10.4223
evilla	-10.4224
▁centra	-10.4231
▁Ru	-10.4236
nomía	-10.4236
▁encima	-10.4241
▁statu	-10.4241
▁neve	-10.4242
▁punta	-10.4242
▁151	-10.4249
▁levan	-10.4258
▁2017	-10.4265
▁circular	-10.4272
▁h	-10.4279
▁85	-10.4279
ló	-10.4286
▁feminino	-10.4288
▁paralelo	-10.4288
▁Norueg	-10.4289
▁comprende	-10.4291
▁Conde	-10.4295
▁j	-10.4301
▁xorde	-10.4312
▁barroco	-10.4313
▁Esa	-10.4317
▁trint	-10.4321
ha	-10.4328
▁encóntra	-10.4335
▁mínimo	-10.4335
▁alcance	-10.4335
▁aparente	-10.4337
▁concelleiro	-10.434
▁personalidade	-10.4359
▁típico	-10.4359
▁xenética	-10.4359
▁retablo	-10.4359
▁plataforma	-10.4359
▁dedicada	-10.4361
▁pop	-10.4367
ion	-10.4369
▁chámase	-10.4381
▁Siri	-10.4382
▁Canaria	-10.4383
▁bisesto	-10.4383
▁estatua	-10.4383
▁mitoloxía	-10.4383
▁alternativo	-10.4383
▁Vien	-10.4383
▁renda	-10.4385
▁American	-10.4388
▁empregan	-10.4394
▁identifica	-10.4398
▁entender	-10.4399
▁recoñecida	-10.4407
▁territorial	-10.4408
▁Ano	-10.4411
▁mina	-10.4417
val	-10.4424
▁logra	-10.4424
▁alumno	-10.443
▁Guinea	-10.443
di	-10.4437
▁pensar	-10.4441
▁estiver	-10.4443
▁tribuna	-10.4447
▁posuía	-10.4447
▁administrativo	-10.4454
▁tumba	-10.4454
▁sucesión	-10.4455
▁ópera	-10.4456
▁Bis	-10.446
▁vivenda	-10.4463
▁brasileiro	-10.4478
ronto	-10.4478
▁bando	-10.4479
▁vale	-10.4482
▁fría	-10.4483
▁51	-10.4483
▁contribuí	-10.4492
▁satélite	-10.4502
▁banco	-10.4502
▁disposición	-10.4507
▁Pro	-10.4507
▁termina	-10.4515
▁criterio	-10.4526
▁galaxia	-10.4526
▁negativa	-10.4526
▁Comisión	-10.4527
▁alimenta	-10.4535
▁fundamenta	-10.4537
▁to	-10.4538
▁Nel	-10.455
▁específica	-10.455
▁levado	-10.4553
ade	-10.4562
▁tam	-10.4562
▁cola	-10.4566
▁Nace	-10.4568
▁super	-10.4571
▁canadense	-10.4574
▁tonelada	-10.4574
▁habilidade	-10.4575
▁redución	-10.4578
▁partidario	-10.4579
▁observar	-10.4587
▁Vol	-10.4591
▁mellorar	-10.4593
▁caracter	-10.4594
▁lóxica	-10.4599
▁percorrido	-10.4599
▁Armada	-10.46
▁dispoñible	-10.4601
▁Castel	-10.4601
▁Esto	-10.4609
▁realización	-10.4612
▁característico	-10.4623
▁hábitat	-10.4623
▁Queda	-10.4623
▁naquel	-10.4643
▁xurisdición	-10.4647
▁primaria	-10.4648
▁verso	-10.4652
▁acaba	-10.4655
▁He	-10.4656
▁Conta	-10.4658
▁xuízo	-10.466
burgo	-10.4669
▁Internet	-10.4672
▁require	-10.4672
ke	-10.4674
▁ingresos	-10.4684
▁ofrece	-10.469
▁68	-10.4695
▁setentriona	-10.4697
▁xestión	-10.4698
▁celebrou	-10.4698
▁contar	-10.4699
▁actitude	-10.4702
▁Sal	-10.4709
▁Tal	-10.4714
▁destrución	-10.4721
▁Bueno	-10.4722
▁Po	-10.4723
fusión	-10.474
kg	-10.4745
▁atacar	-10.4745
▁prisión	-10.4745
▁Cór	-10.4745
▁servir	-10.4746
▁defender	-10.4747
▁quedan	-10.4747
▁introdución	-10.4748
▁destinado	-10.4748
▁abaixo	-10.4749
▁escano	-10.475
▁anarquista	-10.4752
qui	-10.4756
▁Atópa	-10.477
responsabilidade	-10.477
▁Sicilia	-10.477
▁membrana	-10.477
▁montañosa	-10.477
▁disciplina	-10.4771
▁explicar	-10.4774
▁residente	-10.4776
▁174	-10.4821
be	-10.4839
▁atravesa	-10.4841
▁cumio	-10.4844
▁humanidade	-10.4845
▁adultos	-10.4848
▁xogou	-10.4849
▁ordenou	-10.4855
▁Paz	-10.4856
▁euro	-10.4862
▁extensa	-10.4869
▁Civi	-10.4869
▁decide	-10.487
▁custo	-10.4873
▁aproveita	-10.4877
▁700	-10.4878
dores	-10.4881
▁impulso	-10.4884
▁250	-10.4917
▁experimenta	-10.4918
▁circunstancia	-10.4919
▁dedicado	-10.4923
▁Mes	-10.4924
▁electrónica	-10.4924
▁centros	-10.4929
▁consegui	-10.4931
FA	-10.4942
▁baleiro	-10.4944
▁baséa	-10.4944
▁café	-10.4944
▁combustible	-10.4944
▁constituciona	-10.4948
▁pertencen	-10.4951
ime	-10.4962
▁controlar	-10.4966
▁executivo	-10.4969
▁Am	-10.4972
▁rolda	-10.4972
▁pata	-10.4973
▁funciona	-10.4974
▁presentación	-10.498
▁ventos	-10.5
ish	-10.5002
▁Carl	-10.5005
▁patrimoni	-10.5005
▁sesión	-10.5006
▁provocar	-10.501
▁reducir	-10.5017
▁buque	-10.5019
▁magnético	-10.5019
▁pertencía	-10.5019
ty	-10.5021
▁significativo	-10.5022
▁Za	-10.5023
ker	-10.5026
▁Antón	-10.5034
▁Peter	-10.5036
▁defende	-10.5041
▁capítulo	-10.5045
▁seguidor	-10.5046
▁violen	-10.5048
▁marcado	-10.5054
▁Pedra	-10.5055
▁Rafa	-10.507
▁conservador	-10.5072
▁atopado	-10.5073
▁exportación	-10.5073
▁divers	-10.5075
▁aventura	-10.5088
homa	-10.5098
▁segura	-10.5112
▁Ant	-10.5113
▁Grupo	-10.5121
▁except	-10.5121
▁Joseph	-10.5121
▁mide	-10.5128
▁Mor	-10.5129
▁serviu	-10.513
▁xusto	-10.5143
▁desaparición	-10.5148
▁Lu	-10.5156
▁definir	-10.5163
tu	-10.5165
▁Park	-10.517
▁concreto	-10.5172
▁Democrátic	-10.5173
▁Schuma	-10.5173
▁fuxir	-10.5173
itoria	-10.5174
▁revolucionario	-10.5177
ett	-10.5178
▁Batalla	-10.5181
▁indican	-10.5182
▁existir	-10.5184
▁Pazo	-10.5196
▁depósito	-10.5198
▁Serbi	-10.5198
▁asociada	-10.5199
▁informe	-10.5199
▁electromagnétic	-10.5202
▁debut	-10.5213
▁diocese	-10.5214
▁ribeira	-10.5224
▁resolución	-10.5224
▁166	-10.5233
▁definitiva	-10.5233
A	-10.5235
▁gañador	-10.5247
▁nube	-10.525
▁desenvolvida	-10.5251
▁estratexia	-10.5252
ur	-10.5256
▁dada	-10.5262
▁71	-10.5262
gueira	-10.5268
▁Ví	-10.5273
▁Comité	-10.5276
▁esencia	-10.5278
▁130	-10.5279
ed	-10.5287
um	-10.5292
▁Lo	-10.5294
▁lúa	-10.5296
▁Tole	-10.5298
▁cancro	-10.5302
▁facelo	-10.5302
ver	-10.5304
ato	-10.5306
▁enteiro	-10.5309
▁pasan	-10.5309
▁poñer	-10.5311
▁ti	-10.5316
▁falan	-10.5316
▁descubrir	-10.5316
▁Federic	-10.5317
▁cana	-10.5323
▁aérea	-10.5328
▁privado	-10.5328
ng	-10.5334
▁falecido	-10.5336
▁existi	-10.5338
▁introduciu	-10.5339
▁ascenso	-10.5348
▁magnitude	-10.5354
▁tío	-10.5357
▁describir	-10.5362
▁Vene	-10.5363
▁sinxela	-10.5369
▁Johann	-10.5371
▁mudou	-10.5389
▁videoxogo	-10.5406
▁vontade	-10.5406
▁Var	-10.5428
▁promoción	-10.5433
▁Federa	-10.5434
▁Forma	-10.5435
▁define	-10.5438
▁seguro	-10.5449
tou	-10.5449
mperador	-10.5453
▁eixo	-10.5455
▁Van	-10.5459
▁crónica	-10.5459
▁soporte	-10.5459
▁pico	-10.546
▁comuna	-10.5473
alén	-10.5477
▁95	-10.5477
tic	-10.548
▁contemporáneo	-10.5485
▁típica	-10.5485
▁intercambio	-10.5485
▁vapor	-10.5485
▁Jim	-10.5486
▁seguida	-10.5487
▁gobernante	-10.5489
▁aparello	-10.5512
▁sueco	-10.5512
▁droga	-10.5512
▁Stone	-10.5512
▁Coroa	-10.5513
▁sentimento	-10.552
▁escoc	-10.5521
▁descender	-10.5522
▁Lago	-10.5531
▁profundo	-10.5538
▁Palacio	-10.5539
▁River	-10.5539
▁UR	-10.5539
▁entrega	-10.5542
ong	-10.5548
antes	-10.5558
▁intensidade	-10.5565
▁retorno	-10.5565
▁tralo	-10.5565
▁decreto	-10.5565
migración	-10.5569
▁dependencia	-10.5569
▁Alon	-10.5585
base	-10.5586
▁62	-10.5587
▁Virxi	-10.5592
▁lectura	-10.5592
▁muíño	-10.5592
▁turístico	-10.5592
▁retirar	-10.5593
▁cabaleiro	-10.5593
▁comparación	-10.5596
▁rebelde	-10.5597
▁mapa	-10.56
▁enlace	-10.5602
▁adoptou	-10.5604
▁Mal	-10.5605
▁buscar	-10.5612
▁aeroliña	-10.5619
▁entrevista	-10.5619
▁esténde	-10.5619
▁opción	-10.562
▁incluía	-10.5623
▁Alto	-10.5625
rse	-10.5632
▁captura	-10.5633
▁Maior	-10.5634
▁Pai	-10.5635
▁explica	-10.5644
▁mínima	-10.5645
▁chinesa	-10.5646
▁xudía	-10.5648
berg	-10.5648
▁contribución	-10.5648
▁Crist	-10.5657
▁adquiri	-10.5672
▁lingüístico	-10.5672
▁aprendiz	-10.5672
▁Cabo	-10.5676
▁72	-10.5676
▁173	-10.5677
▁Nesa	-10.5679
▁156	-10.5689
▁vexa	-10.569
▁Destaca	-10.5694
▁bas	-10.5695
▁ocupado	-10.5696
▁coordenada	-10.5699
▁externa	-10.5699
▁comparte	-10.57
▁ideoloxía	-10.57
▁Golf	-10.5708
▁formaba	-10.5717
▁denomínase	-10.572
▁Leste	-10.5723
▁húmido	-10.5727
▁africano	-10.5727
▁intelectual	-10.5729
▁alcanza	-10.5731
▁navega	-10.5731
▁aceiro	-10.5737
▁pronuncia	-10.5741
▁Chic	-10.5742
▁1000	-10.5749
▁158	-10.5752
▁espectáculo	-10.5754
▁editou	-10.5754
▁dirixente	-10.5759
▁vasco	-10.576
▁radical	-10.5764
▁Oscar	-10.5769
▁ave	-10.5778
▁aceite	-10.5781
▁quere	-10.5783
▁continuo	-10.5789
tor	-10.5791
▁editoria	-10.5791
▁sucedeu	-10.5805
▁rexeita	-10.5808
▁financeiro	-10.5808
▁porcentaxe	-10.5808
▁xardín	-10.5808
ja	-10.5819
▁hospital	-10.582
▁162	-10.5835
▁Hawai	-10.5836
▁montes	-10.5837
utono	-10.5838
▁Francesa	-10.5838
▁Tui	-10.5839
illas	-10.5843
▁convento	-10.5844
▁utilíza	-10.5847
po	-10.5856
▁153	-10.5858
▁puider	-10.5859
▁Sam	-10.5862
▁Baixa	-10.5863
▁deseñada	-10.5864
▁Ferrari	-10.5864
▁bomba	-10.5865
▁sólido	-10.5865
▁militante	-10.5867
▁Corporación	-10.5869
▁pura	-10.5869
▁172	-10.5873
▁protexer	-10.5877
mas	-10.5882
▁disolución	-10.5891
▁definida	-10.5891
▁representado	-10.5892
▁nacionalismo	-10.5908
▁sufrir	-10.591
▁acepto	-10.5916
▁pro	-10.5917
▁utilizou	-10.5918
▁poderoso	-10.5919
▁unida	-10.5919
▁sindicato	-10.5919
▁interesante	-10.5919
▁preciso	-10.592
▁tese	-10.5923
▁implica	-10.5927
ult	-10.5939
▁debeu	-10.5945
▁soberano	-10.5945
▁retirou	-10.5945
▁retrato	-10.5947
▁sabor	-10.5956
▁96	-10.5958
▁concepción	-10.5961
▁acusado	-10.5961
▁recinto	-10.5974
▁pegada	-10.5974
rusia	-10.5978
▁quente	-10.5987
▁63	-10.5996
▁Parque	-10.6003
▁organizar	-10.6007
▁permitía	-10.6008
▁longobardo	-10.6009
▁coruñ	-10.6014
▁tanque	-10.6018
▁xera	-10.602
▁óso	-10.6027
▁suxire	-10.603
▁Organización	-10.6031
arroco	-10.6044
▁profesiona	-10.605
▁medo	-10.605
▁trigo	-10.6053
▁execución	-10.6058
▁ruína	-10.6058
▁elimina	-10.6062
▁rexional	-10.6064
▁98	-10.6071
▁Maced	-10.608
▁cliente	-10.6086
▁General	-10.6086
▁postura	-10.6086
▁deportiva	-10.6088
▁pediu	-10.609
▁limitada	-10.6091
tica	-10.6104
ac	-10.6111
▁amosa	-10.6113
UA	-10.6117
▁2,	-10.6121
▁partida	-10.6124
▁Xuli	-10.613
▁escuro	-10.6134
▁evidente	-10.6135
ira	-10.614
▁triunfo	-10.6142
▁Xur	-10.6143
▁habitada	-10.6144
▁Forza	-10.6149
▁Vell	-10.6149
▁orquestra	-10.615
▁viax	-10.6153
▁estrea	-10.616
▁inicia	-10.6162
▁loitar	-10.6169
▁pena	-10.6169
▁Domingo	-10.617
▁67	-10.6174
▁gradual	-10.6188
▁salto	-10.6189
▁unicame	-10.6192
▁xorna	-10.6194
▁feminina	-10.6199
▁soviética	-10.6199
▁Daniel	-10.6199
ier	-10.6208
▁viña	-10.6218
▁pon	-10.6225
▁campesiño	-10.6227
▁fluvia	-10.6227
▁Suprem	-10.6227
▁infección	-10.6228
▁milenio	-10.6228
▁procedemento	-10.6232
laboración	-10.6238
ited	-10.624
iz	-10.6241
▁necesita	-10.6244
▁171	-10.6252
▁atómico	-10.6256
▁caixa	-10.6256
▁reprodución	-10.6256
▁cociña	-10.6257
▁probabilidade	-10.626
▁nomeamento	-10.6261
▁condenado	-10.6262
▁declarado	-10.6263
▁Car	-10.6267
▁limitado	-10.6267
▁dirixir	-10.6271
gora	-10.6276
nacemento	-10.6277
by	-10.6282
ine	-10.6284
▁piano	-10.6286
▁medalla	-10.6288
▁atopaba	-10.6289
▁165	-10.629
▁Canto	-10.6294
▁155	-10.6297
▁cen	-10.6308
▁seguía	-10.6309
▁coro	-10.6309
▁gal	-10.6311
▁asinar	-10.6313
▁Zara	-10.6315
▁relevante	-10.6316
▁corre	-10.6319
▁Moi	-10.6323
▁ferrocarr	-10.6324
▁gobernamenta	-10.6342
▁Sil	-10.6342
▁cardea	-10.6343
▁sorte	-10.6357
▁escribe	-10.6361
▁lenta	-10.6361
▁creador	-10.6366
▁ferramentas	-10.6378
▁Tri	-10.6386
▁explicación	-10.6391
▁66	-10.6394
▁78	-10.6394
▁Andr	-10.6398
▁Estatuto	-10.64
▁apelido	-10.64
▁Deportiv	-10.64
▁supera	-10.6405
▁propietario	-10.6409
▁Nela	-10.641
▁Nin	-10.6413
ld	-10.6414
▁Ke	-10.642
▁senador	-10.6422
orra	-10.6424
úa	-10.6427
xustiza	-10.6428
▁oficina	-10.6429
▁dedicou	-10.6429
▁descenso	-10.6429
▁petición	-10.6429
▁bóveda	-10.6429
▁pagar	-10.6433
▁0,	-10.6435
▁ler	-10.644
inas	-10.6444
▁fixa	-10.645
▁traballaba	-10.6451
cesión	-10.6452
▁candidatura	-10.6458
erú	-10.6459
▁Bul	-10.6464
misión	-10.6465
▁oportunidade	-10.6471
▁herba	-10.6487
▁incendio	-10.6487
▁récord	-10.6488
▁arriba	-10.6489
▁predominante	-10.649
▁Pena	-10.6492
▁portada	-10.6492
▁deportivo	-10.6492
▁negociación	-10.6495
▁designado	-10.6495
▁82	-10.6496
▁intenta	-10.6498
ego	-10.6507
▁sina	-10.651
▁ecosistema	-10.6517
▁ferido	-10.6517
▁illote	-10.6517
▁roupa	-10.6517
▁prazo	-10.6518
▁Mad	-10.6518
▁Texas	-10.6518
▁actuar	-10.6519
▁volcánica	-10.6519
▁funcionario	-10.6519
▁facil	-10.6533
▁marcada	-10.6543
▁periódica	-10.6546
▁Menor	-10.6547
▁ideal	-10.6554
▁Cit	-10.6557
▁Oh	-10.6564
▁distinguir	-10.6576
▁Morre	-10.6578
▁Tiña	-10.6579
▁ch	-10.6595
altar	-10.6598
▁bel	-10.6598
▁Alfred	-10.6605
▁arquivo	-10.6606
▁59	-10.6608
▁intentar	-10.6612
▁castelá	-10.6613
dón	-10.6622
▁positiva	-10.6623
▁Normal	-10.6624
▁suceso	-10.6632
hi	-10.6633
▁latera	-10.6635
▁latitude	-10.6635
▁Traballo	-10.6636
▁Confederación	-10.6639
▁acompañado	-10.664
▁Negro	-10.6642
áron	-10.6646
▁Álvar	-10.6649
▁incremento	-10.665
▁Florenci	-10.6654
▁electric	-10.6658
▁parti	-10.6658
aco	-10.6659
▁abre	-10.6662
▁Romaní	-10.6664
xenti	-10.6665
▁reducido	-10.6668
▁fica	-10.6678
▁conxunta	-10.6679
▁154	-10.6683
cho	-10.6684
▁encontra	-10.6684
▁escolar	-10.6685
▁Del	-10.6706
▁apoiar	-10.6707
▁naval	-10.6714
▁mañá	-10.6725
▁heroe	-10.6725
▁lector	-10.6725
▁veu	-10.6732
▁visigodo	-10.6737
▁correo	-10.6738
▁Red	-10.6742
▁encoro	-10.6746
▁Parroquia	-10.6755
▁detido	-10.6756
quera	-10.6756
▁Prim	-10.6758
▁boca	-10.6764
▁marido	-10.6765
▁explorador	-10.6766
▁regresar	-10.677
▁superar	-10.6775
▁rexeitou	-10.6785
▁índice	-10.6785
▁laboratorio	-10.6785
▁fibra	-10.6785
▁escaso	-10.6789
▁visto	-10.6792
▁gótico	-10.6793
▁Linn	-10.6798
NES	-10.6799
ctor	-10.6802
▁foresta	-10.6805
▁dividir	-10.6811
▁125	-10.6813
▁honor	-10.6814
▁World	-10.6815
▁multitude	-10.6815
▁privilexio	-10.6815
▁acerca	-10.6815
▁suposto	-10.6816
▁gato	-10.6816
▁Hattus	-10.6816
▁primario	-10.6816
ovia	-10.6819
▁celebrada	-10.6819
nche	-10.6824
▁colonial	-10.6826
▁acada	-10.6837
▁Príncipe	-10.6845
▁temporada	-10.6847
B	-10.6848
▁programación	-10.6853
▁golfo	-10.6858
▁permanecer	-10.6859
▁nomeada	-10.6868
▁irregular	-10.6868
▁erupción	-10.6876
cción	-10.6878
▁construíron	-10.6879
▁separa	-10.6882
▁abundan	-10.6883
riz	-10.6884
▁Leonard	-10.6885
▁iniciar	-10.6886
uel	-10.6887
auna	-10.6893
▁Bibli	-10.6905
▁estaría	-10.6905
▁demostrou	-10.6906
▁fácil	-10.6906
▁hemisferio	-10.6906
▁folga	-10.6911
▁consistente	-10.6919
▁anua	-10.6919
▁xeograf	-10.6922
▁alcanzou	-10.6923
▁mala	-10.6927
▁Jon	-10.693
▁propux	-10.6934
▁comp	-10.6936
▁sucesiva	-10.6937
▁masiva	-10.6937
▁tentativa	-10.6937
▁Prag	-10.6938
▁Chi	-10.6952
▁artificial	-10.6954
▁mineral	-10.6958
▁Pen	-10.6963
▁lagos	-10.6964
▁cumprir	-10.6964
▁Galile	-10.6965
▁Si	-10.6965
▁establecido	-10.6967
▁falado	-10.6968
▁domingo	-10.6968
▁Republican	-10.6968
▁monxe	-10.6969
bal	-10.697
▁carbón	-10.6981
▁capita	-10.6991
▁hab	-10.6992
▁singular	-10.6998
▁asiático	-10.6998
▁proclamou	-10.7001
▁Hou	-10.7003
▁Michel	-10.7005
▁Pertence	-10.7009
▁ligada	-10.701
▁76	-10.7012
mérica	-10.7012
▁imp	-10.7014
▁Sir	-10.7014
▁Andalu	-10.7014
▁abriu	-10.7015
▁Sar	-10.7024
▁Ucra	-10.7029
▁aprobou	-10.7029
▁distinción	-10.7029
▁Minne	-10.7029
▁achado	-10.7029
▁Hill	-10.703
▁fixera	-10.7037
avia	-10.7041
▁acostuma	-10.7041
▁absoluto	-10.7043
▁servidor	-10.7043
▁ámb	-10.7049
▁Galia	-10.705
▁integrante	-10.7054
▁comerciante	-10.7054
▁ambienta	-10.7055
▁Bre	-10.7056
▁obreiro	-10.7059
▁Mary	-10.706
▁cerámica	-10.706
▁Camiño	-10.706
▁cuberto	-10.706
▁temática	-10.706
▁pirata	-10.7063
▁caer	-10.7067
▁recoñecer	-10.7067
▁irland	-10.708
▁coñécese	-10.7083
▁ligado	-10.7084
▁Tiv	-10.7084
▁reflicte	-10.7091
▁poética	-10.7092
gar	-10.7094
▁tornado	-10.7094
▁ha	-10.7096
▁milla	-10.7097
▁Territorio	-10.7104
▁audiencia	-10.7105
ve	-10.7106
▁conquist	-10.7115
▁Mari	-10.712
▁Gregori	-10.712
▁turista	-10.7122
▁himno	-10.7122
▁navío	-10.7122
▁Antiga	-10.7122
▁Terceir	-10.7123
▁Cerv	-10.7125
▁Vilar	-10.7126
▁167	-10.7127
▁restauración	-10.7129
mede	-10.713
▁pleno	-10.7132
▁substituír	-10.7141
▁espectador	-10.7153
▁establecida	-10.7153
▁manuscrito	-10.7153
fil	-10.7154
▁norteamericana	-10.7154
▁discípulo	-10.7154
▁cinema	-10.7156
▁homónimo	-10.7161
▁dependente	-10.7178
érica	-10.7185
▁Condado	-10.7185
▁Granad	-10.7185
▁guión	-10.7187
▁fresco	-10.7189
▁fundar	-10.719
▁polaco	-10.7192
▁socio	-10.7194
▁verba	-10.7197
▁168	-10.7199
▁preocupación	-10.7216
▁Antigo	-10.7216
▁Black	-10.7217
▁viva	-10.7217
▁pretendía	-10.7218
▁molecular	-10.7221
▁avogado	-10.7221
▁tramo	-10.7224
pre	-10.7224
▁lobo	-10.7227
▁Vatican	-10.7248
▁discusión	-10.7248
▁polémica	-10.7248
▁mancha	-10.7248
▁expresa	-10.7253
▁organizou	-10.7259
▁Bach	-10.7274
▁Iugoslav	-10.7279
▁herdanza	-10.7279
▁cambia	-10.7281
▁xove	-10.7281
▁nacionalidade	-10.7288
▁incluír	-10.7291
ner	-10.7292
▁trans	-10.7296
▁computador	-10.7304
▁obtido	-10.7311
▁psic	-10.7311
▁consoante	-10.7311
▁National	-10.7312
▁estendeu	-10.7313
▁grav	-10.7316
▁Linu	-10.7318
▁froita	-10.7319
▁algu	-10.732
▁crista	-10.7326
▁79	-10.7327
▁Go	-10.733
▁proclama	-10.734
▁discográfica	-10.7343
▁apertura	-10.7343
▁Ki	-10.7344
▁artes	-10.7345
▁casar	-10.7345
edo	-10.7354
▁Bob	-10.7356
▁61	-10.7357
▁arrecife	-10.7358
▁incursión	-10.7375
▁titular	-10.7375
▁causou	-10.7375
▁extinción	-10.7375
▁remate	-10.7375
▁humor	-10.7376
▁fixéron	-10.7376
▁157	-10.7378
▁balon	-10.7383
▁West	-10.7383
ide	-10.7384
▁ningu	-10.7388
▁147	-10.739
▁161	-10.7392
▁gasto	-10.7394
ierre	-10.7395
forme	-10.7399
▁Mandel	-10.7401
tero	-10.7403
▁Superior	-10.7407
▁Vietnam	-10.7407
▁fogo	-10.7408
▁organizado	-10.7408
▁expulsado	-10.741
▁Arm	-10.7416
▁asegurar	-10.742
▁mariñeiro	-10.7423
▁empeza	-10.7426
▁159	-10.7427
▁69	-10.7428
ubi	-10.7431
▁mostran	-10.7434
▁estética	-10.7439
▁diaria	-10.7439
uela	-10.744
▁Funda	-10.7441
▁atopába	-10.7444
▁gris	-10.7444
▁editor	-10.7455
18	-10.7455
▁Banc	-10.7457
▁73	-10.7459
▁Henr	-10.7464
▁sé	-10.7467
▁Rock	-10.7468
ñez	-10.7471
▁influente	-10.7471
▁vocalista	-10.7472
▁Lemo	-10.7475
ment	-10.7475
▁intentou	-10.7479
▁celebra	-10.7488
▁neto	-10.7489
▁variada	-10.7492
▁regra	-10.75
▁Pan	-10.7503
▁decoración	-10.7504
▁persecución	-10.7504
▁conca	-10.7506
▁intelixen	-10.751
N	-10.751
▁Fronte	-10.751
▁rival	-10.7511
▁92	-10.7511
▁millo	-10.7513
curso	-10.7522
▁escultor	-10.7536
▁substitución	-10.7536
▁dieta	-10.7537
▁funda	-10.754
goza	-10.7541
▁voce	-10.7542
▁infanti	-10.7543
▁King	-10.7544
▁uniforme	-10.7547
▁pasaba	-10.7551
▁Maria	-10.7552
▁81	-10.7554
▁levada	-10.7554
▁vector	-10.7559
eda	-10.7569
▁éuscar	-10.7569
▁definido	-10.757
▁foto	-10.757
▁masculino	-10.7572
▁alma	-10.7576
▁163	-10.7577
▁Univers	-10.7578
▁tomada	-10.7581
▁Beta	-10.759
▁nazi	-10.7597
ol	-10.7599
▁Gra	-10.7601
▁adoptar	-10.7601
▁espectro	-10.7601
▁vendido	-10.7602
▁Armeni	-10.7603
▁configuración	-10.7606
▁identificar	-10.7607
▁Cela	-10.7612
▁Iso	-10.7612
▁gravou	-10.762
▁espacial	-10.7623
ente	-10.7625
azz	-10.7628
▁87	-10.7632
▁paxaro	-10.7634
▁románico	-10.7634
▁hebreo	-10.7634
▁instituto	-10.7634
▁bolsa	-10.7634
▁Juli	-10.7637
lín	-10.7638
▁aniversario	-10.7645
▁entende	-10.765
D	-10.7662
▁medir	-10.7664
▁oral	-10.7667
▁Florida	-10.7667
▁Británica	-10.7667
▁Indonesia	-10.7667
mort	-10.7667
▁tubo	-10.7668
▁Jord	-10.7669
▁Burgo	-10.7676
agne	-10.7682
▁93	-10.7685
▁dispó	-10.7686
▁enxeñ	-10.7695
▁cabe	-10.7696
▁Plan	-10.77
ñón	-10.77
▁descrito	-10.77
▁fragmento	-10.77
▁Colomb	-10.7701
marck	-10.7701
▁Carme	-10.7702
▁queixo	-10.7703
▁declarada	-10.7704
▁hum	-10.7706
▁Karl	-10.7708
▁débeda	-10.7708
▁pés	-10.7713
▁89	-10.7716
▁Ce	-10.7718
▁marea	-10.772
▁úsa	-10.7721
bus	-10.7721
▁tiro	-10.7732
▁xapones	-10.7733
▁contemporánea	-10.7733
▁terremoto	-10.7733
▁concurso	-10.7733
▁traxectoria	-10.7733
▁chave	-10.7734
▁lanzar	-10.7734
▁Vallad	-10.7734
▁cero	-10.7735
otter	-10.7736
▁conclusión	-10.7736
▁canta	-10.7741
▁Bel	-10.7744
▁rotación	-10.7744
▁Mark	-10.7745
▁designar	-10.7746
diz	-10.7747
▁com	-10.7747
▁fabricante	-10.7751
▁capac	-10.7753
▁tentou	-10.7754
▁inter	-10.7758
▁Colle	-10.7761
▁síntoma	-10.7766
▁suposta	-10.7767
▁Conferencia	-10.7768
▁organizada	-10.7769
▁avó	-10.7772
▁futura	-10.7778
▁top	-10.7784
rece	-10.7785
▁aprender	-10.7789
▁recoñece	-10.779
▁dixital	-10.7791
▁sucede	-10.7794
▁resolver	-10.7795
▁Ull	-10.7799
▁asemblea	-10.78
▁compromiso	-10.78
▁pesado	-10.7802
▁orienta	-10.7804
▁preso	-10.781
▁Bro	-10.781
▁min	-10.7814
▁sobriño	-10.7822
▁enviar	-10.7827
▁Saint	-10.7833
▁feira	-10.7837
▁pretende	-10.7838
raft	-10.784
▁Bela	-10.7845
▁84	-10.7848
it	-10.7851
▁148	-10.7852
▁visitante	-10.7856
▁tivese	-10.786
▁bebida	-10.7867
▁referend	-10.7867
▁Gui	-10.7867
▁refire	-10.7867
▁Lourenz	-10.7867
▁Libro	-10.7868
▁resistente	-10.7868
▁serbio	-10.7872
▁Pi	-10.7873
▁demostrar	-10.7876
▁vi	-10.7877
riño	-10.7881
▁representada	-10.7884
▁integrado	-10.7887
▁abandona	-10.7889
▁chea	-10.7891
▁rexiona	-10.7892
▁88	-10.7892
ificación	-10.7894
mez	-10.7895
▁móbil	-10.79
dia	-10.7901
▁investimento	-10.7901
▁convertéron	-10.7903
▁doméstico	-10.7908
am	-10.7908
▁arcos	-10.7909
xencia	-10.7909
▁espera	-10.7911
▁causar	-10.7922
torial	-10.793
▁recuperou	-10.7934
▁axudou	-10.7934
▁bóla	-10.7934
▁destruída	-10.7934
▁estatuto	-10.7934
▁xeometría	-10.7934
orce	-10.7935
▁orixinaria	-10.7937
▁Wi	-10.7937
▁tenda	-10.7942
▁Ham	-10.7944
▁Darí	-10.7948
ovo	-10.7951
▁baix	-10.7955
▁prato	-10.7956
▁Vermello	-10.7958
▁efectiva	-10.7961
▁progresiva	-10.7968
▁devandito	-10.7968
▁estatística	-10.7968
▁estranxeira	-10.7968
▁mental	-10.7968
▁reducida	-10.797
▁colectivo	-10.7974
▁federación	-10.7975
aribe	-10.7984
nzos	-10.7985
▁XXI	-10.7989
▁descenden	-10.7995
▁Luc	-10.7996
▁armado	-10.8001
▁abrir	-10.8002
▁étnico	-10.8002
▁fame	-10.8003
▁doutor	-10.8003
pía	-10.8004
▁gramática	-10.8005
▁Celta	-10.8006
▁produci	-10.8006
▁accede	-10.8007
▁sétim	-10.8008
▁Lingua	-10.801
▁proporciona	-10.8021
20	-10.8022
▁bi	-10.8031
▁Amai	-10.8036
▁literal	-10.8036
▁impresión	-10.8037
▁Columbia	-10.8038
▁constituíu	-10.8039
▁facían	-10.8048
eiga	-10.8049
▁terá	-10.8052
▁nacer	-10.8055
▁Venez	-10.8055
▁Par	-10.8061
▁beneficios	-10.8061
▁Scott	-10.8071
▁controversia	-10.8071
▁progreso	-10.8071
▁infraestrutura	-10.8071
▁princesa	-10.8071
▁gráfico	-10.8071
▁cu	-10.8073
▁hard	-10.808
▁Prat	-10.8093
▁cita	-10.8095
▁fuxi	-10.81
▁marítima	-10.8105
▁escollido	-10.8106
▁Bilb	-10.8106
▁Sanch	-10.8107
▁migración	-10.8108
▁Pers	-10.811
▁mundia	-10.8111
▁mencionado	-10.8111
▁promove	-10.8113
nés	-10.8117
▁quince	-10.8135
▁obtén	-10.8135
▁prestixio	-10.8138
▁contorna	-10.8139
▁peor	-10.8141
▁complexos	-10.8142
▁Nicola	-10.8142
▁Tint	-10.8146
▁depresión	-10.8146
▁Ta	-10.8149
▁74	-10.815
▁fina	-10.8157
lianza	-10.8158
▁Independenc	-10.8174
▁cromosoma	-10.8174
▁desembocadura	-10.8177
▁99	-10.8182
▁derivada	-10.8184
▁Gó	-10.8185
▁Hispan	-10.8187
▁Daco	-10.8197
▁Ja	-10.8199
fianza	-10.8205
▁Rose	-10.8208
▁oferta	-10.8209
▁firme	-10.8209
▁146	-10.821
▁redes	-10.8211
ford	-10.8211
▁Kan	-10.8219
▁individua	-10.8219
▁Carball	-10.8228
▁enfermo	-10.8234
▁atopá	-10.8238
ano	-10.8239
▁alberga	-10.8239
▁clasificar	-10.8241
▁acceder	-10.8242
▁guerreiro	-10.8244
▁cemiterio	-10.8244
▁enteira	-10.8244
▁declara	-10.8262
▁afirmou	-10.8265
▁Mu	-10.8268
▁medra	-10.8269
▁densa	-10.8273
▁defensor	-10.8279
▁xermánica	-10.8279
▁externo	-10.8279
▁carballo	-10.8279
▁especifica	-10.8279
▁levantamento	-10.828
▁Bor	-10.8284
▁Valde	-10.8284
▁Verde	-10.8286
▁169	-10.8286
▁manga	-10.8287
▁quinta	-10.8288
▁negocio	-10.8298
▁pago	-10.8307
▁refuxio	-10.8308
▁Rexión	-10.8314
▁astrónomo	-10.8314
▁mantiña	-10.8314
▁Mozart	-10.8314
▁adestramento	-10.8314
▁enfrontar	-10.8321
▁rol	-10.8322
▁Ve	-10.8325
▁escritora	-10.8325
▁vital	-10.8331
▁fo	-10.8332
▁reunir	-10.8333
▁vertical	-10.8334
▁datan	-10.8337
▁War	-10.8338
▁Vi	-10.8343
▁vitamina	-10.8349
▁receptor	-10.8349
▁coloniza	-10.835
▁Bernard	-10.8352
▁usou	-10.8352
▁Far	-10.8354
▁infante	-10.8356
▁vidro	-10.8357
▁detalles	-10.836
▁mata	-10.8368
▁orientación	-10.8369
▁viaxar	-10.837
▁Je	-10.8374
gel	-10.8375
▁granito	-10.8381
▁chines	-10.8382
▁congreso	-10.8384
▁subespecie	-10.8384
▁Educa	-10.8391
▁constituído	-10.8393
▁Ein	-10.8399
▁daquel	-10.8406
▁gusto	-10.8412
▁perfecta	-10.842
▁Stalin	-10.842
▁negativo	-10.842
▁excelente	-10.8421
▁numera	-10.8421
▁percorre	-10.8421
▁rexistrada	-10.8422
▁145	-10.8424
▁colaborador	-10.8426
▁conciencia	-10.8426
ester	-10.8428
NT	-10.843
lá	-10.8432
vy	-10.8438
▁historic	-10.8441
▁biolox	-10.8442
▁Ne	-10.8444
▁Fran	-10.8448
▁Hospital	-10.8455
▁reloxo	-10.8459
▁Rena	-10.8462
▁otomán	-10.8477
dro	-10.8481
▁Music	-10.8485
▁91	-10.8488
▁aceptar	-10.849
wa	-10.849
oncilio	-10.849
▁Mel	-10.8491
▁protexido	-10.8491
▁imposible	-10.8491
colm	-10.8495
▁pechado	-10.8495
▁Com	-10.8499
▁celebrado	-10.8501
rico	-10.8502
▁Arz	-10.8505
▁ascende	-10.8509
▁Mc	-10.8511
▁110	-10.852
¿	-10.8527
▁centímetro	-10.8527
▁considerou	-10.8527
▁tocou	-10.8527
▁reconstrución	-10.8527
▁Lenin	-10.8527
▁3,	-10.8527
ética	-10.8532
▁Fa	-10.8538
▁síntese	-10.8538
▁eliminar	-10.854
▁lanza	-10.8546
▁Patt	-10.8563
▁crime	-10.8563
▁negou	-10.8563
▁periódico	-10.8563
▁referente	-10.8567
▁Wind	-10.857
rra	-10.8574
▁iniciais	-10.8576
▁visual	-10.8591
▁ba	-10.8596
▁rendemento	-10.8599
▁mudanza	-10.8599
▁escavación	-10.8602
▁vítimas	-10.8614
▁diferencia	-10.862
▁Star	-10.8623
▁conservan	-10.8626
▁terror	-10.8634
▁aparencia	-10.8635
▁permiso	-10.8635
▁Movement	-10.8635
▁cantiga	-10.8635
▁Smith	-10.8636
▁Ven	-10.8636
▁Feli	-10.8636
liberación	-10.8639
tion	-10.8639
▁oración	-10.8639
▁xornada	-10.8641
▁celebrar	-10.8644
▁PC	-10.8648
▁porco	-10.8654
▁seria	-10.8663
▁designa	-10.8664
únic	-10.8673
▁décimo	-10.8673
▁pechada	-10.8674
▁Williams	-10.8675
▁Letr	-10.8676
▁86	-10.8677
▁Lov	-10.8684
▁bar	-10.8687
▁Secretari	-10.8688
▁w	-10.8692
▁Y	-10.8696
▁mesa	-10.8705
▁Mondoñedo	-10.8708
▁descrita	-10.8708
▁Aristó	-10.8708
itude	-10.8709
▁Sebasti	-10.8715
▁quedaba	-10.8717
▁Croa	-10.872
▁140	-10.8723
▁contou	-10.8724
▁negocios	-10.8724
DA	-10.8726
▁Nil	-10.8738
car	-10.8739
▁naquela	-10.8741
▁Ala	-10.8742
dio	-10.8742
▁téxtil	-10.8745
à	-10.8745
▁graxa	-10.8745
▁débil	-10.8745
▁Defens	-10.8745
▁xuven	-10.8746
▁cuántic	-10.8747
▁moza	-10.8747
▁darlle	-10.8753
▁deulle	-10.8755
▁preparación	-10.8756
▁decaden	-10.8767
▁flora	-10.8768
▁tivera	-10.8772
▁electo	-10.8773
▁Posúe	-10.8781
▁instrución	-10.8781
▁Salaman	-10.8782
óxido	-10.8784
ulf	-10.8785
▁Inicia	-10.8792
▁Abu	-10.8796
ándo	-10.8799
olid	-10.8802
▁habitua	-10.8803
▁Kent	-10.8803
raq	-10.8807
▁engadir	-10.8808
cemento	-10.8808
▁académico	-10.8818
▁lexislativo	-10.8818
▁derradeira	-10.8818
▁Ecua	-10.8818
▁Luxemburg	-10.8818
▁precis	-10.8819
▁caracteriza	-10.8825
▁Carta	-10.8825
▁axente	-10.8828
▁Jack	-10.8828
▁Rosal	-10.8852
ibr	-10.8852
▁arxentino	-10.8855
▁pantalla	-10.8855
▁sílaba	-10.8855
▁Fil	-10.8856
▁narrativa	-10.8859
▁substituí	-10.8861
▁Basil	-10.8863
atrimonio	-10.8872
▁roman	-10.8878
dad	-10.8884
▁invento	-10.8885
▁afirmación	-10.8888
▁cabeceira	-10.8892
▁financeira	-10.8892
▁Braga	-10.8893
▁US	-10.8894
▁contraste	-10.8896
▁participante	-10.8901
obra	-10.8902
▁indicar	-10.8906
▁copia	-10.8915
▁catalá	-10.8915
▁estea	-10.8929
$	-10.893
▁devandita	-10.893
▁médica	-10.893
▁peregrino	-10.893
▁contiña	-10.893
ablo	-10.893
ctuou	-10.893
▁Segui	-10.893
▁embaixador	-10.8931
▁Humanidade	-10.8931
▁mortal	-10.8948
▁matar	-10.8962
▁dici	-10.8964
▁consistía	-10.8967
▁descoñecido	-10.8967
▁teórico	-10.8967
sota	-10.897
mora	-10.8973
edade	-10.8974
▁Estudo	-10.8977
▁regresa	-10.8979
▁Món	-10.8981
▁vencer	-10.8983
▁pensa	-10.8985
▁destacada	-10.8989
▁orgánica	-10.8991
▁xurdir	-10.8991
▁Ferro	-10.8994
▁escapar	-10.8997
▁Xusti	-10.8997
▁97	-10.8997
ire	-10.9002
▁finalidade	-10.9002
ando	-10.9003
▁austríaco	-10.9005
▁Nalgún	-10.9005
▁conduta	-10.9005
▁Marte	-10.9008
lini	-10.9012
forte	-10.9014
▁conquistar	-10.9015
▁et	-10.9021
▁relativo	-10.9028
senta	-10.903
▁atracción	-10.9034
▁exercicio	-10.9043
▁universitario	-10.9043
▁elevación	-10.9045
▁facilidade	-10.9052
ni	-10.9055
▁Bal	-10.9062
rí	-10.9065
▁plantación	-10.9073
kins	-10.9079
▁alcume	-10.908
▁contorno	-10.908
iguais	-10.9081
▁franquista	-10.9081
▁pelo	-10.9083
▁Estrada	-10.9083
▁visito	-10.9083
▁lixeiro	-10.9085
▁Cle	-10.9088
▁coidado	-10.909
▁Tra	-10.9095
▁Garda	-10.9096
▁pano	-10.9097
▁concedeu	-10.9098
▁experimental	-10.9099
raza	-10.9101
elas	-10.9103
▁Ha	-10.9104
▁Che	-10.9109
▁Sim	-10.9116
▁inspiración	-10.9118
▁sometido	-10.9118
▁pacto	-10.9119
▁violenta	-10.9122
S	-10.9124
▁Chan	-10.9124
▁isótopo	-10.9128
▁abade	-10.9128
▁mantí	-10.9133
▁Ze	-10.9134
▁afeccionado	-10.9135
▁atleta	-10.9144
▁vender	-10.9144
▁radica	-10.9145
▁recibido	-10.9149
▁Índic	-10.9157
▁incluíu	-10.9157
▁encontrar	-10.9158
wart	-10.916
▁Particip	-10.9161
▁estudoso	-10.9162
▁Quir	-10.9166
▁carro	-10.9168
▁Palma	-10.9169
awa	-10.9181
▁public	-10.9183
triz	-10.9183
arse	-10.9184
▁Templ	-10.9185
▁aéreo	-10.9188
▁constituída	-10.9195
▁diplomático	-10.9195
▁enterrado	-10.9195
▁educativo	-10.9195
▁elite	-10.9197
▁executado	-10.9198
▁tenta	-10.92
▁precedente	-10.92
▁cerea	-10.9201
▁tesouro	-10.9203
▁pobreza	-10.9203
▁operativo	-10.9206
▁africana	-10.9207
▁denomina	-10.9207
▁rapa	-10.9215
▁desaparecer	-10.922
▁nomeou	-10.9222
▁Estaba	-10.9222
▁Señora	-10.9223
▁voar	-10.9226
▁cincuenta	-10.9233
▁obrigou	-10.9233
▁lesión	-10.9234
all	-10.924
▁Tu	-10.9244
▁diminuí	-10.9245
▁exercer	-10.9254
bria	-10.9265
▁afecta	-10.9266
▁agrupación	-10.9268
▁intelectua	-10.9269
atedral	-10.9271
▁biolóxica	-10.9272
▁realíza	-10.9272
▁ferida	-10.9272
garia	-10.9276
▁exploración	-10.9277
▁corredor	-10.9284
▁illada	-10.9286
▁falaba	-10.9293
▁deusa	-10.9295
posición	-10.9297
▁contan	-10.9307
▁descoñecida	-10.9311
▁lexislación	-10.9311
▁xeográfico	-10.9311
▁raro	-10.9312
▁asistencia	-10.9312
▁conselleiro	-10.9317
▁Católico	-10.9318
▁Teodor	-10.9318
▁morta	-10.9319
▁mostrar	-10.9319
▁dinámica	-10.9322
▁integrada	-10.9322
gas	-10.9324
▁Jer	-10.9326
▁elixir	-10.9328
▁Mont	-10.9333
▁emisora	-10.9337
hara	-10.9341
▁Estre	-10.9348
iteratura	-10.935
▁cúpula	-10.935
▁extenso	-10.935
▁gráfica	-10.935
▁groso	-10.935
▁sensación	-10.9351
▁Alm	-10.9353
▁Ángel	-10.9353
▁Villa	-10.9354
▁clasificado	-10.9354
▁afectada	-10.9354
▁substituída	-10.9354
▁aplicar	-10.9357
▁94	-10.9358
▁espiritual	-10.9364
▁Arou	-10.9367
oga	-10.9376
▁visitar	-10.9377
▁cova	-10.9383
quist	-10.9388
▁responsábe	-10.9389
▁tormenta	-10.9389
▁Modern	-10.9389
▁adoitaba	-10.9389
teles	-10.9398
▁conduci	-10.9405
▁Micro	-10.9428
▁atentado	-10.9428
▁esfera	-10.9428
▁cómpre	-10.9429
▁Ricard	-10.9429
▁puro	-10.943
▁Vega	-10.943
▁Souto	-10.9432
▁EP	-10.9435
▁Europeo	-10.9436
▁Avi	-10.9437
made	-10.944
▁Vo	-10.9443
▁medrar	-10.9443
▁presentado	-10.9449
▁tomando	-10.9453
iva	-10.9458
▁representaba	-10.9465
▁causada	-10.9466
▁Royal	-10.9468
▁salvaxe	-10.9468
▁avanzada	-10.9471
▁Adolf	-10.9471
▁Bang	-10.9482
▁vendeu	-10.9486
▁Grand	-10.9489
▁atoparon	-10.9491
▁carto	-10.9492
jo	-10.9495
▁autoestrada	-10.9497
▁acento	-10.9501
▁amarela	-10.9502
▁oposto	-10.9503
▁molusco	-10.9507
▁cárcere	-10.9507
▁fála	-10.9507
▁térmica	-10.9507
▁dedicar	-10.9507
▁ficheiro	-10.9507
▁Estev	-10.9507
▁afastado	-10.951
▁rodeada	-10.9511
▁compra	-10.9512
▁alteración	-10.9514
▁dependen	-10.9525
▁especialista	-10.9532
▁Ela	-10.9539
▁marítimo	-10.9547
▁metálico	-10.9547
▁tripulación	-10.9547
▁orzamento	-10.9547
▁Distrito	-10.9547
úpi	-10.9548
▁empresario	-10.9549
ápol	-10.9551
▁can	-10.9551
uxe	-10.9552
▁xer	-10.9555
▁Live	-10.9556
▁lento	-10.9556
▁semella	-10.9559
▁axentes	-10.9567
arwin	-10.9578
▁DVD	-10.9586
▁mostrou	-10.9586
▁estreou	-10.9586
▁islam	-10.9587
che	-10.9589
▁falla	-10.9591
▁correspondencia	-10.9592
▁Redond	-10.9595
▁Español	-10.9596
▁Risa	-10.9596
▁comer	-10.9604
▁soño	-10.9608
▁ama	-10.9609
▁cheo	-10.9614
▁CO	-10.9615
▁System	-10.9626
▁virtude	-10.9626
▁pendente	-10.9626
▁primitivo	-10.9626
▁asedio	-10.9628
▁Libre	-10.9631
▁alcohol	-10.9631
▁citado	-10.9637
▁uniu	-10.9642
▁Be	-10.9643
▁estende	-10.9643
▁Álvare	-10.9647
▁Ch	-10.9648
▁Bi	-10.966
50	-10.9662
R	-10.9666
▁fonema	-10.9667
▁marxista	-10.9667
▁protocolo	-10.9667
▁semifina	-10.9667
▁cloruro	-10.9667
▁cinematográfica	-10.9667
▁dicía	-10.9667
tre	-10.9668
▁Foro	-10.967
▁pasaxe	-10.9673
▁húngaro	-10.9673
▁Colexio	-10.9674
aneament	-10.9681
▁liberado	-10.9687
▁resultante	-10.9692
▁introducir	-10.9696
▁bombardeo	-10.9707
▁barreira	-10.9707
▁carlista	-10.9707
▁instalou	-10.9707
▁saga	-10.9708
▁Comeza	-10.9708
▁orixinario	-10.9708
▁rodeado	-10.9715
▁renuncia	-10.9717
▁alga	-10.9724
▁sobrevivir	-10.9725
▁merc	-10.9726
▁muda	-10.973
▁preparar	-10.9731
▁firma	-10.9737
▁amarelo	-10.9742
ane	-10.9746
▁manifesta	-10.9747
▁Moor	-10.9748
▁paralela	-10.9749
▁Señor	-10.975
▁Alexand	-10.9754
tes	-10.9755
W	-10.9757
▁900	-10.9757
▁SI	-10.9757
▁piso	-10.976
bert	-10.9762
▁serven	-10.9765
▁Toqu	-10.9768
▁Paso	-10.9772
▁musulmá	-10.9777
yo	-10.9779
▁Norteam	-10.9783
▁Gallego	-10.9788
▁paquete	-10.9788
▁primitiva	-10.9788
▁Edward	-10.9788
▁localíza	-10.9788
▁etnia	-10.979
▁Duque	-10.979
▁Isa	-10.9792
▁serio	-10.9796
▁Mate	-10.9801
▁capturado	-10.9802
festival	-10.9805
▁Televisió	-10.9809
ós	-10.981
▁separar	-10.982
▁talento	-10.9829
▁ducado	-10.9829
▁ligazón	-10.9829
▁desprazamento	-10.983
▁Industria	-10.983
▁semellanza	-10.983
▁lateral	-10.9832
▁115	-10.9835
▁prosa	-10.9836
▁83	-10.9838
▁Poder	-10.9839
▁quix	-10.9839
▁soporta	-10.9842
.	-10.9842
▁ocasional	-10.9843
▁vasalo	-10.9845
▁animación	-10.9858
▁Gallega	-10.987
▁eclesiástica	-10.987
▁filosófica	-10.987
▁incorporou	-10.987
▁plástico	-10.987
▁cordilleira	-10.987
▁taba	-10.9871
▁feminista	-10.9871
▁illado	-10.9871
▁Festa	-10.9872
▁salienta	-10.9874
▁aceptada	-10.9878
▁mandou	-10.9881
▁Ovi	-10.9885
vose	-10.9885
lam	-10.9888
▁Ti	-10.9893
L	-10.99
evento	-10.9906
▁realizan	-10.9907
▁substituíu	-10.9907
▁Británico	-10.9911
osfera	-10.9911
▁mocidade	-10.9911
▁recollida	-10.9912
▁derrot	-10.9918
▁mito	-10.992
▁instalar	-10.9923
▁estancia	-10.9928
▁futbolista	-10.9932
▁conversión	-10.9932
▁condena	-10.9935
▁Coló	-10.9937
MS	-10.9938
▁Piñeiro	-10.9938
eroporto	-10.9941
▁completar	-10.9951
▁explosión	-10.9952
▁instrumenta	-10.9952
▁definitivo	-10.9952
▁aliaxe	-10.9953
▁desemboca	-10.9953
▁especializada	-10.9953
▁Cook	-10.9953
▁rup	-10.9954
▁Master	-10.9954
▁levando	-10.9954
ig	-10.9956
▁Orle	-10.9956
▁comedia	-10.9958
▁lunar	-10.9959
clive	-10.9967
ónimo	-10.9976
▁favorece	-10.9976
▁invadi	-10.9986
▁calci	-10.9987
▁Case	-10.9987
▁empregou	-10.9988
▁asisti	-10.999
▁single	-10.9994
▁reputa	-10.9994
▁abarca	-10.9994
▁anaco	-10.9996
▁Deputado	-11.0001
▁atrae	-11.0004
▁liñaxe	-11.0006
ush	-11.0011
llón	-11.002
▁vence	-11.0027
olinesia	-11.0034
▁nativa	-11.0035
▁debida	-11.0035
▁favorable	-11.0036
▁regato	-11.0036
▁concesión	-11.004
▁leve	-11.0041
▁corresponden	-11.0041
▁romance	-11.0044
ucas	-11.005
rd	-11.0052
▁Cartag	-11.0054
▁comando	-11.0056
▁permiti	-11.0059
▁inaugura	-11.0065
mburg	-11.0069
▁Sof	-11.0069
▁vela	-11.007
▁Rá	-11.0077
▁Massachus	-11.0077
▁músculo	-11.0077
▁faraón	-11.0077
▁consciente	-11.0078
▁belga	-11.008
loxía	-11.008
▁terrorista	-11.0086
▁Colonia	-11.0093
▁observador	-11.0099
ft	-11.0099
▁PP	-11.01
▁desas	-11.0101
▁pedir	-11.0104
▁tri	-11.0107
▁compoñen	-11.0116
▁recta	-11.0119
▁Igual	-11.0119
▁casco	-11.012
▁mover	-11.0122
ares	-11.0127
▁viaxa	-11.0128
▁amante	-11.0128
▁conforman	-11.0131
CO	-11.0137
▁Blanco	-11.0146
▁innovación	-11.0162
▁informática	-11.0162
▁Xeneral	-11.0162
▁recibía	-11.0166
ei	-11.0168
▁procesa	-11.0168
▁rodea	-11.0176
▁Preto	-11.0181
▁Alp	-11.0184
▁óxido	-11.0203
▁Departamento	-11.0204
▁Pireneo	-11.0204
▁vestixio	-11.0204
▁democrático	-11.0204
▁Charl	-11.0204
▁Tralo	-11.0205
▁Borbón	-11.0206
▁Pobo	-11.021
▁terminar	-11.021
abiloni	-11.0211
▁positivo	-11.0223
▁destruído	-11.0224
▁danza	-11.0225
▁Beat	-11.0225
▁Canta	-11.0226
▁Roman	-11.0227
▁consideración	-11.0227
▁xerar	-11.0228
▁Men	-11.023
▁complex	-11.0233
ganist	-11.0234
▁Teñ	-11.0236
▁Ser	-11.0236
▁adquirir	-11.0238
▁cruzar	-11.0238
▁intervalo	-11.0246
▁censura	-11.0247
▁Goya	-11.0247
▁facultade	-11.0247
ían	-11.0249
▁Gustav	-11.0252
▁Arabi	-11.0256
▁rexistrado	-11.0258
▁Hol	-11.026
▁faría	-11.026
▁expuls	-11.0264
crist	-11.0269
▁Web	-11.0272
adura	-11.0283
▁ábsida	-11.0289
▁arquitectónico	-11.0289
▁cunca	-11.0289
▁principado	-11.029
▁culmina	-11.0292
▁interpretar	-11.0295
▁ocupan	-11.0299
▁aprobada	-11.0303
▁casca	-11.0306
▁casado	-11.0309
▁coincidi	-11.0314
my	-11.0315
tan	-11.032
▁relevan	-11.0328
▁larva	-11.0332
▁ateniense	-11.0332
▁tarxeta	-11.0332
▁nazis	-11.0333
▁incidente	-11.0333
▁ofrecer	-11.0353
▁chegaba	-11.0359
▁ofensiva	-11.0363
▁colaborar	-11.0363
bec	-11.0371
ilosofía	-11.0374
▁Teodo	-11.0375
▁Física	-11.0375
▁invención	-11.0375
▁parecido	-11.0375
▁telescopio	-11.0375
▁festiva	-11.0376
▁salvo	-11.0378
▁121	-11.0382
▁Montes	-11.039
▁gol	-11.039
▁mención	-11.0393
▁Esparta	-11.0404
▁daba	-11.0405
▁Autónoma	-11.0418
▁Roger	-11.0419
▁restrición	-11.0419
▁demostra	-11.042
▁parlamentaria	-11.042
▁Vida	-11.0426
▁Mellor	-11.0428
▁Roch	-11.0429
▁Pino	-11.0433
cedo	-11.0434
▁tráta	-11.0438
▁Lí	-11.0438
▁trataba	-11.0442
▁Fai	-11.0445
▁dáse	-11.0446
▁tanta	-11.0448
▁incorpora	-11.0461
▁estamos	-11.0461
▁comité	-11.0462
▁célebre	-11.0462
▁húmida	-11.0462
▁intenso	-11.0462
▁lírica	-11.0462
▁vigor	-11.0462
▁modalidade	-11.0462
▁Pascua	-11.0462
▁Mestre	-11.0462
▁Militar	-11.0463
▁declarar	-11.0463
▁moderado	-11.0465
▁Volta	-11.0466
▁convertería	-11.0466
mbledo	-11.0468
▁enfrontou	-11.047
▁afectado	-11.0472
▁Roll	-11.0472
▁presénta	-11.0476
▁comprender	-11.0478
▁Alba	-11.0481
▁emoción	-11.0482
▁Mike	-11.0486
▁sitúan	-11.0492
uso	-11.0492
▁128	-11.0493
▁Joa	-11.0494
▁coral	-11.0498
ylan	-11.0504
00	-11.0504
tróxeno	-11.0506
▁Tradicional	-11.0506
▁hote	-11.0506
▁elixida	-11.0506
▁Fried	-11.0507
▁Queens	-11.0509
▁acontece	-11.051
▁Social	-11.0514
▁cant	-11.0519
▁realista	-11.0522
yle	-11.0525
tos	-11.0529
▁Sala	-11.0532
▁Mos	-11.0546
ruguai	-11.0549
▁cráter	-11.0549
▁predecesor	-11.0549
▁bombardeiro	-11.055
▁escravitude	-11.055
▁Fu	-11.055
▁galeguista	-11.0551
▁vaso	-11.0551
▁mencionada	-11.0553
▁Bolo	-11.0558
▁Inter	-11.0572
▁asina	-11.0572
▁burgues	-11.058
▁relativ	-11.0586
▁pole	-11.0588
▁experto	-11.0594
▁trastorno	-11.0594
▁xenético	-11.0594
▁hindú	-11.0594
stron	-11.0598
rama	-11.0601
▁granxa	-11.0603
▁medición	-11.0605
▁colectiva	-11.0607
umbo	-11.0613
▁destacou	-11.0618
ows	-11.0623
▁obte	-11.063
▁dise	-11.0632
▁condutor	-11.0637
▁Connect	-11.0638
▁estrita	-11.0638
▁santuario	-11.0638
▁tsar	-11.064
▁Fe	-11.0646
olk	-11.0647
▁acusación	-11.0649
▁acolle	-11.0649
▁dividiu	-11.0651
▁racional	-11.0661
▁comisión	-11.0661
▁Ribeira	-11.0665
▁doado	-11.0667
attle	-11.0667
onal	-11.0669
▁Gil	-11.0671
▁Maur	-11.0673
▁domina	-11.068
▁pintores	-11.0681
▁recoñeceu	-11.0681
▁brasileira	-11.0682
▁capite	-11.0682
▁Brown	-11.0682
▁califa	-11.0682
▁transferencia	-11.0682
▁sinónimo	-11.0682
▁kaska	-11.0682
▁inmediato	-11.0683
▁aplica	-11.0686
lfo	-11.0688
▁colleita	-11.0692
▁votación	-11.0693
ud	-11.0703
▁compux	-11.0703
ger	-11.071
▁sexua	-11.0711
ntario	-11.0712
▁usaba	-11.0712
▁linea	-11.0714
estamento	-11.0718
▁Camp	-11.0724
▁chegaría	-11.0726
▁fértil	-11.0727
▁biolóxico	-11.0727
▁mediterráneo	-11.0727
▁Enrique	-11.0727
▁voluntario	-11.0727
icut	-11.0727
▁Negra	-11.0727
▁xenoma	-11.0728
▁din	-11.0729
▁Super	-11.0729
▁Fan	-11.0731
▁apoiado	-11.0735
▁Boy	-11.0736
▁Nú	-11.0737
▁fiei	-11.0737
CD	-11.0739
▁forno	-11.0744
▁aceptado	-11.0746
ster	-11.0751
▁127	-11.0754
▁dirixe	-11.0763
▁Jo	-11.0764
▁potente	-11.0772
▁Alfons	-11.0773
▁piñeiro	-11.0774
▁cume	-11.0775
▁Art	-11.0776
▁cable	-11.0777
▁Pear	-11.0781
▁350	-11.0782
bre	-11.0784
▁setent	-11.0785
▁nena	-11.0788
▁troux	-11.0788
▁conquistada	-11.0795
iria	-11.0795
▁deixan	-11.0795
tar	-11.0796
▁ovella	-11.08
▁anuncio	-11.0816
▁segredo	-11.0817
▁4,	-11.0817
thur	-11.0818
▁protón	-11.0818
▁estimación	-11.0832
▁Rod	-11.0842
▁financia	-11.0845
rían	-11.0849
mán	-11.085
ofre	-11.085
▁Nó	-11.0851
▁Tor	-11.0853
▁inmigra	-11.0854
▁Antárti	-11.0857
▁aminoácido	-11.0862
▁mámoa	-11.0862
▁testemuño	-11.0862
▁oitavo	-11.0862
▁escaleira	-11.0862
▁fungo	-11.0862
▁poderosa	-11.0863
▁Brux	-11.0863
▁defíne	-11.0864
▁teclado	-11.0864
▁pataca	-11.0866
▁fío	-11.0866
▁pacientes	-11.0867
▁carece	-11.0867
▁Bie	-11.0876
▁demostración	-11.0882
▁altar	-11.0887
▁sí	-11.0888
▁parecer	-11.0891
▁expresar	-11.0894
SD	-11.0897
tomán	-11.0897
▁Gro	-11.0901
▁armenio	-11.0907
▁estratéxica	-11.0907
▁garanti	-11.0907
▁melodía	-11.0907
▁bolxevique	-11.0907
▁doazón	-11.0908
▁galería	-11.0909
▁cadrada	-11.091
▁trasladado	-11.0911
izar	-11.0914
canda	-11.0918
▁holandes	-11.0918
▁ce	-11.0921
▁tende	-11.0926
▁emigrante	-11.0928
▁Honda	-11.093
▁participan	-11.0934
▁Home	-11.0937
▁tratou	-11.0937
▁118	-11.0938
▁List	-11.0939
▁coloca	-11.0952
leto	-11.0953
ficou	-11.0953
▁exitosa	-11.0953
▁intérprete	-11.0953
▁Xefe	-11.0953
▁Ernest	-11.0953
▁disposto	-11.0954
▁Báltic	-11.0955
lona	-11.0955
▁dicionario	-11.0956
viación	-11.0957
▁cumpri	-11.096
▁leal	-11.0962
able	-11.0968
SO	-11.097
▁mestra	-11.098
orge	-11.0987
▁Pol	-11.0993
▁destinada	-11.0999
▁fluído	-11.0999
▁prototipo	-11.0999
▁tronco	-11.0999
▁exceso	-11.0999
▁arroz	-11.0999
▁tartaruga	-11.0999
▁State	-11.1
▁trompeta	-11.1005
▁vasca	-11.1009
▁usual	-11.1009
▁flor	-11.1012
uro	-11.1015
▁asento	-11.1018
▁Sacr	-11.1028
ix	-11.1032
▁renova	-11.1036
▁fila	-11.1037
latón	-11.1044
▁asteroide	-11.1045
▁exipcia	-11.1045
▁franxa	-11.1045
▁mediterránea	-11.1045
▁Músic	-11.1045
▁australiano	-11.1045
▁milleiro	-11.1046
▁126	-11.1047
▁corent	-11.1054
▁confirmou	-11.1054
▁Artur	-11.1055
▁controlada	-11.1057
▁uní	-11.1058
scar	-11.1069
▁ofreceu	-11.1071
eron	-11.1085
▁Rub	-11.1089
▁Wall	-11.109
▁bizantina	-11.1091
▁constelación	-11.1091
▁dinosauro	-11.1091
▁islámica	-11.1091
▁proveniente	-11.1091
▁renacentista	-11.1091
esopot	-11.1091
▁desastre	-11.1092
▁rexente	-11.1094
▁Cinc	-11.1096
▁suicid	-11.1096
▁almacena	-11.1103
▁describiu	-11.1103
▁Aparece	-11.1104
▁Natural	-11.1113
▁pare	-11.1115
▁funcionar	-11.1119
▁Ron	-11.1128
rrupción	-11.1138
▁Biblioteca	-11.1138
▁enfoque	-11.1138
▁pioneiro	-11.1138
▁tributo	-11.1138
▁Municipal	-11.114
gado	-11.1143
eas	-11.1144
▁132	-11.1154
tismo	-11.1154
▁Kur	-11.1157
▁mi	-11.1157
▁atopada	-11.1164
▁infl	-11.1166
▁tenente	-11.1172
torio	-11.1175
▁Parte	-11.1175
ecia	-11.1175
▁consig	-11.1181
▁medr	-11.1183
▁oitenta	-11.1185
▁transcrición	-11.1185
▁exame	-11.1185
▁trasladar	-11.1186
▁intre	-11.1186
▁cáp	-11.1187
▁prima	-11.119
▁gaélico	-11.1193
▁hax	-11.1203
▁forzado	-11.1204
▁Fé	-11.1205
▁cruza	-11.1212
▁mutación	-11.1217
▁xuíz	-11.1219
bese	-11.1219
▁Emili	-11.1222
▁Berga	-11.1227
fluencia	-11.123
▁Cabe	-11.1231
▁Il	-11.1231
▁Company	-11.1232
▁Recibi	-11.1232
▁comprensión	-11.1232
▁orbita	-11.1232
▁orgánico	-11.1232
▁revolucionaria	-11.1232
▁xermánico	-11.1232
▁caudal	-11.1232
▁nega	-11.1232
▁protexida	-11.1232
▁gaita	-11.1232
▁Marcel	-11.1235
▁táctica	-11.124
▁124	-11.1241
▁croata	-11.1245
▁apoia	-11.1247
▁Lim	-11.1248
▁derrotar	-11.1249
fa	-11.1256
olo	-11.1258
▁Buda	-11.1262
▁Saturn	-11.1263
▁pasaría	-11.1264
▁Gre	-11.1267
▁Green	-11.1271
▁autonómica	-11.1274
bano	-11.1274
▁Iglesia	-11.1279
▁espectacular	-11.1279
▁adulto	-11.128
▁aproveitar	-11.1284
▁gobernar	-11.1284
▁perna	-11.1288
▁camp	-11.129
ompañía	-11.1292
▁tentar	-11.1292
▁consumidor	-11.1296
▁Liber	-11.1299
late	-11.13
▁póla	-11.1301
▁descende	-11.1302
grado	-11.1309
▁sinala	-11.131
▁Chris	-11.1318
▁promover	-11.1318
▁foille	-11.1319
▁123	-11.1323
viron	-11.1325
▁Administración	-11.1326
▁Considéra	-11.1326
▁sufraxio	-11.1326
▁xurídico	-11.1326
▁extra	-11.1326
▁percepción	-11.1327
▁foco	-11.1328
▁baseándo	-11.133
▁Fraga	-11.1331
▁Kos	-11.1334
▁Alban	-11.1334
▁contamina	-11.1335
▁asinado	-11.1336
▁competir	-11.1338
oku	-11.134
prendeu	-11.1344
▁More	-11.1346
▁ordenado	-11.1348
ore	-11.1349
ague	-11.1356
▁Mauric	-11.1358
maior	-11.136
▁fornece	-11.1365
▁pensaba	-11.1366
▁Brit	-11.1372
lena	-11.1373
▁desenvólve	-11.1374
¡	-11.1374
▁chuvia	-11.1374
▁diplomática	-11.1374
▁hectárea	-11.1374
▁módulo	-11.1374
▁edificación	-11.1374
▁segmento	-11.1374
▁lingüista	-11.1374
▁nómade	-11.1374
▁bit	-11.1378
▁compo	-11.1379
▁masculina	-11.1379
▁Pí	-11.1383
▁estivese	-11.1385
▁castaña	-11.1386
▁Leon	-11.1388
▁Adam	-11.1389
▁confusión	-11.1389
▁bota	-11.1393
▁fa	-11.1401
▁Xustin	-11.1402
▁acelera	-11.1406
▁utilizaba	-11.1406
▁dominado	-11.1407
quia	-11.1407
▁Alxer	-11.1409
terminación	-11.1411
▁observa	-11.1412
oven	-11.1414
▁coroado	-11.1414
▁Sha	-11.1416
lasca	-11.1418
▁montañoso	-11.1422
▁pulmón	-11.1422
▁remónta	-11.1422
▁insular	-11.1422
▁concilio	-11.1422
▁especializado	-11.1422
▁VIH	-11.1422
▁contribúe	-11.1424
▁abuso	-11.1424
▁prohibición	-11.1424
atro	-11.1428
▁Samo	-11.1429
▁asumir	-11.1432
▁israelí	-11.1432
eeth	-11.1433
▁xenera	-11.1436
vena	-11.1442
▁facción	-11.1448
▁gr	-11.1448
▁estimula	-11.1452
▁Lake	-11.1453
▁chamaba	-11.1463
sodio	-11.1467
▁climático	-11.147
▁asistente	-11.1472
▁transcorre	-11.1472
▁neurona	-11.1472
amento	-11.1473
▁Sonic	-11.1474
▁Rin	-11.148
▁FI	-11.1481
▁Jacque	-11.1481
▁Fonte	-11.1483
▁Mac	-11.1487
nder	-11.149
▁celeste	-11.1491
igualdade	-11.1498
▁india	-11.15
▁fus	-11.1502
ólogo	-11.1503
▁Cen	-11.1504
▁sorpresa	-11.1518
▁equipamento	-11.1518
▁fariña	-11.1518
lice	-11.1518
▁comentario	-11.1518
ntiño	-11.1518
▁vertente	-11.1519
▁White	-11.1521
▁Long	-11.1524
▁Ber	-11.1525
▁Cerc	-11.1525
▁Rico	-11.1526
▁plural	-11.1526
▁xiro	-11.153
▁identificado	-11.1532
▁Montre	-11.1543
▁combater	-11.1543
▁Valle	-11.1546
▁Time	-11.155
verde	-11.1557
ulario	-11.1561
lton	-11.1561
▁Bon	-11.1565
▁narra	-11.1565
▁evolutiva	-11.1567
▁inspirado	-11.1567
▁convención	-11.1567
▁descarga	-11.1568
▁Canal	-11.1574
▁suevo	-11.1578
▁reuniu	-11.1579
▁conecta	-11.1585
▁Galla	-11.1588
▁marcia	-11.1602
▁Helen	-11.1609
▁marchar	-11.1613
▁argumenta	-11.1615
▁Exemplo	-11.1615
▁Irmandade	-11.1615
▁cerebra	-11.1615
▁indoeuropea	-11.1615
▁máxico	-11.1615
▁Ámsterda	-11.1615
▁óptica	-11.1615
▁gramatica	-11.1615
▁consecutivo	-11.1616
▁acompañada	-11.162
▁sombra	-11.1622
▁citada	-11.1622
▁105	-11.1622
▁v	-11.1624
▁biografía	-11.1625
▁ordena	-11.1629
▁normando	-11.1637
▁territori	-11.164
▁Latin	-11.1644
ell	-11.165
▁Luca	-11.1651
▁reside	-11.1651
tiva	-11.1658
▁embarcación	-11.1664
▁inaugurou	-11.1664
▁mármore	-11.1664
▁mesquita	-11.1665
▁peito	-11.1666
▁Roo	-11.1666
ncia	-11.1667
▁engadido	-11.167
▁teito	-11.167
▁pregunta	-11.1671
silva	-11.1673
▁Dr	-11.1677
▁asegura	-11.1678
▁variado	-11.1679
minación	-11.168
iuse	-11.1687
▁mudar	-11.169
nta	-11.1699
▁ví	-11.1702
▁controlado	-11.1703
▁ermida	-11.1703
▁adopta	-11.1704
▁proporcional	-11.1707
▁ética	-11.1708
▁Sch	-11.171
▁estivera	-11.1712
▁triángulo	-11.1714
▁5,	-11.1714
▁escoitar	-11.1715
fase	-11.1718
▁moda	-11.1718
▁confundir	-11.1719
▁púxo	-11.1719
▁Interior	-11.172
▁rematada	-11.1725
▁xacemento	-11.1726
▁acompaña	-11.1731
core	-11.1733
▁vencedor	-11.1735
▁glaciar	-11.1736
▁precursor	-11.1741
▁achegar	-11.1752
▁escocesa	-11.1762
▁choco	-11.1763
▁Situad	-11.1763
▁testa	-11.1763
▁teorema	-11.1763
ceno	-11.1764
▁instancia	-11.1764
rtico	-11.1765
▁produtora	-11.1766
▁fallo	-11.1767
▁neerland	-11.1769
mbra	-11.177
▁atraer	-11.1772
▁auxiliar	-11.1774
▁ascenden	-11.1778
▁asalto	-11.1778
▁adaptado	-11.1785
lgunha	-11.1785
▁Porta	-11.1789
▁facilita	-11.1792
▁cura	-11.1793
▁etiqueta	-11.1804
guerra	-11.1804
TV	-11.1809
censión	-11.1811
▁International	-11.1813
▁adolescente	-11.1813
▁Campión	-11.1814
▁elaborado	-11.1817
▁xuí	-11.182
▁étnica	-11.1823
▁fiscal	-11.1823
▁manteñ	-11.1823
xi	-11.1824
▁impedir	-11.1825
▁cruzado	-11.1825
▁107	-11.1826
ral	-11.1827
▁Hom	-11.1829
▁doada	-11.1833
▁adop	-11.1835
▁galo	-11.1835
▁esquerd	-11.1841
▁Joe	-11.1843
elaxe	-11.1844
velt	-11.1844
▁arteria	-11.1849
▁Fro	-11.185
▁Adoita	-11.1856
▁empezar	-11.1857
▁Land	-11.1859
▁Rodrig	-11.1859
▁temperá	-11.1861
▁submarino	-11.1863
▁vicepresidente	-11.1866
lumini	-11.1866
▁introducido	-11.1867
▁disciplinas	-11.1868
▁Saud	-11.1871
▁parentes	-11.1876
▁Holand	-11.1876
▁confirma	-11.1879
▁escoita	-11.1879
chi	-11.1883
▁responde	-11.1886
▁afirmar	-11.1889
aíña	-11.1891
▁Petersburg	-11.1892
▁nervioso	-11.1897
▁climática	-11.1913
▁desaparecido	-11.1913
▁laranxa	-11.1913
▁lexislativa	-11.1913
▁promesa	-11.1913
▁aparato	-11.1913
▁PSdeG	-11.1913
▁Servizo	-11.1913
▁provisional	-11.1913
▁encargou	-11.1914
▁oxida	-11.192
▁nomear	-11.192
ami	-11.1926
▁mira	-11.1929
vocab	-11.193
ain	-11.1931
▁abandono	-11.1932
▁incorporación	-11.1935
▁129	-11.1935
▁extrac	-11.1939
▁respondeu	-11.1942
▁arciprestado	-11.1964
▁exiliado	-11.1964
▁Balcán	-11.1964
▁paixón	-11.1964
▁traducido	-11.1965
▁sultán	-11.1966
▁ducia	-11.197
▁deber	-11.1972
hl	-11.1973
v	-11.1976
▁abandonado	-11.1977
age	-11.1979
▁tu	-11.1979
ureza	-11.1983
▁Pamp	-11.1991
onna	-11.1998
▁137	-11.2001
▁amosan	-11.2005
▁redac	-11.2006
▁combina	-11.2011
▁adquire	-11.2014
▁filosófico	-11.2014
▁pescozo	-11.2014
▁lexión	-11.2014
▁sentenza	-11.2015
▁diálogo	-11.2015
▁cadeira	-11.2017
▁Metal	-11.2017
▁delegado	-11.2018
▁intelixente	-11.2018
ut	-11.2019
▁ad	-11.202
▁combinado	-11.2023
▁andar	-11.2026
▁caracterizado	-11.2027
▁122	-11.2029
AF	-11.2032
▁Duca	-11.204
▁Rey	-11.2041
▁Scho	-11.2042
ther	-11.2043
▁pape	-11.2043
tacou	-11.2043
▁Hug	-11.2043
▁ampliación	-11.2046
stancia	-11.2052
▁variar	-11.2055
▁Tro	-11.2056
▁Ci	-11.2058
▁organiza	-11.2061
▁adxectivo	-11.2065
▁autónomo	-11.2065
▁obtida	-11.2065
▁sabía	-11.2065
▁suízo	-11.2065
▁turística	-11.2065
▁nacido	-11.2065
▁vixente	-11.2065
▁Anatoli	-11.2065
▁adecuada	-11.2066
ctina	-11.2066
▁doutoramento	-11.2067
▁pesada	-11.2067
▁cantón	-11.2067
▁bico	-11.2068
▁Fix	-11.2069
▁aproximación	-11.2072
▁Solar	-11.2072
▁transporta	-11.2073
▁reparti	-11.2074
▁pastor	-11.2078
▁incrementa	-11.2082
▁poderá	-11.2088
▁Hot	-11.2089
id	-11.209
acia	-11.2093
▁Ría	-11.2095
▁Caso	-11.2102
parte	-11.2102
▁situar	-11.2109
ieito	-11.2111
sistencia	-11.2114
▁mutua	-11.2114
▁cuarte	-11.2114
▁Pie	-11.2116
▁intern	-11.2116
▁distingue	-11.2117
▁fiestra	-11.2117
▁franquía	-11.2117
▁mecánico	-11.2117
▁medicamento	-11.2117
▁oceánico	-11.2117
▁petróglifo	-11.2117
▁robot	-11.2117
▁patriarca	-11.2117
▁Escribiu	-11.2117
▁esquema	-11.2117
▁Bizan	-11.2117
▁Esquer	-11.2117
▁cátedra	-11.2117
▁eventual	-11.212
▁tirada	-11.212
▁Aplausos	-11.2123
▁avanzado	-11.2125
▁materna	-11.2125
▁cren	-11.2128
▁narración	-11.2137
olic	-11.2137
▁coñecen	-11.2137
▁Holly	-11.2142
▁fisi	-11.2145
▁Asun	-11.2146
áz	-11.2147
▁cans	-11.2148
mi	-11.2151
IA	-11.2159
▁Palestin	-11.2168
▁descobre	-11.2168
▁extraordinaria	-11.2168
▁refuxiado	-11.2169
▁perdido	-11.2169
▁Steve	-11.2169
▁continu	-11.2172
▁facilitar	-11.2174
▁asistir	-11.2176
ill	-11.2178
▁Mada	-11.2178
▁formulación	-11.2179
▁influenciado	-11.2181
hea	-11.2183
▁plana	-11.2192
H	-11.2193
▁traballan	-11.2198
▁cota	-11.2199
▁preparado	-11.22
anía	-11.2202
▁Free	-11.2202
ún	-11.2204
▁Sun	-11.2212
púxo	-11.2216
wis	-11.2217
▁aboli	-11.2219
▁fonética	-11.222
▁peninsular	-11.222
▁activista	-11.2221
▁sentir	-11.2221
▁Lee	-11.2221
pil	-11.2221
▁deberá	-11.2221
▁rito	-11.2222
▁após	-11.2224
▁transformar	-11.2228
▁gramo	-11.2236
eolítico	-11.2241
▁Hall	-11.2242
▁142	-11.2246
▁taller	-11.225
▁Naquel	-11.2255
gio	-11.2259
ronce	-11.226
nm	-11.2263
venta	-11.2265
▁143	-11.2267
▁descontento	-11.2272
▁lámina	-11.2272
▁paradoxo	-11.2272
cky	-11.2272
▁reflexión	-11.2273
▁rumor	-11.2273
▁felic	-11.2274
▁Montaña	-11.2276
▁ilegal	-11.2288
▁salva	-11.2292
▁Alemán	-11.2292
▁Sup	-11.2293
▁Hami	-11.2295
senso	-11.2295
▁ocupaba	-11.2299
▁arqueolóxica	-11.2324
▁atractivo	-11.2324
▁cumpre	-11.2324
▁nocturno	-11.2324
▁titulada	-11.2324
▁sigla	-11.2324
▁freguesía	-11.2325
onía	-11.2326
▁prohibido	-11.2326
▁mostras	-11.2334
▁horizontal	-11.2339
▁Ray	-11.2345
▁du	-11.2357
▁Rac	-11.2357
▁denominar	-11.2358
operación	-11.2359
▁custos	-11.2363
▁vira	-11.2366
▁enclave	-11.2369
▁prol	-11.237
▁Padr	-11.237
▁pu	-11.2371
▁previo	-11.2372
▁pirámide	-11.2377
▁EE	-11.2377
▁ensinanza	-11.2377
▁cuncha	-11.238
▁dramática	-11.2381
lidade	-11.2381
▁muscular	-11.2383
▁Chá	-11.2383
▁adicional	-11.2384
▁convertido	-11.2386
▁empregaba	-11.2387
▁119	-11.2388
▁cónsul	-11.239
▁xamai	-11.239
▁establecé	-11.2391
▁transmitir	-11.2391
▁Tan	-11.2392
▁Ren	-11.2392
▁bl	-11.2396
▁Cl	-11.24
▁108	-11.2404
▁aplicada	-11.2404
▁voca	-11.2407
▁axencia	-11.241
▁salvar	-11.2415
▁colabora	-11.2416
elo	-11.2417
one	-11.2417
▁interpreta	-11.2422
▁Estadi	-11.2428
▁compartir	-11.2429
▁paseo	-11.2429
▁físicas	-11.2429
▁ingrediente	-11.243
▁réptil	-11.243
▁Oxford	-11.243
▁pseudónimo	-11.243
▁Parece	-11.2431
▁señorío	-11.2431
▁barroca	-11.2431
▁barra	-11.2434
▁cantar	-11.2436
▁colocar	-11.2436
▁Cald	-11.244
▁emitir	-11.2441
▁afirman	-11.2442
▁fabricar	-11.2448
▁terían	-11.2452
▁mailo	-11.2456
▁fabricado	-11.2461
▁desempreg	-11.2463
▁Harv	-11.2472
▁Deputa	-11.2474
itat	-11.2479
▁vir	-11.2479
▁cavidade	-11.2483
▁residuo	-11.2483
▁economic	-11.2483
▁ruído	-11.2483
▁campamento	-11.2483
▁balón	-11.2483
▁6,	-11.2484
▁cometa	-11.2485
▁previsto	-11.2485
▁fortificación	-11.2485
▁pe	-11.2487
ití	-11.2489
▁misioneiro	-11.2489
▁estendida	-11.249
▁legado	-11.2492
▁gótica	-11.2494
▁contend	-11.2497
▁Mario	-11.2499
▁114	-11.25
▁Ros	-11.2502
▁Berg	-11.2503
vos	-11.2505
▁comezaba	-11.251
▁Medicin	-11.251
ituan	-11.2512
▁vítima	-11.2515
▁aprobado	-11.2518
▁tenden	-11.2524
U	-11.2526
tividade	-11.2532
▁cadáver	-11.2537
▁galardón	-11.2537
▁mitocondria	-11.2537
▁Lexislativ	-11.2537
▁profesión	-11.2537
▁sagrado	-11.2537
▁cotiá	-11.2538
▁trama	-11.2539
▁Estiv	-11.2539
▁parada	-11.2542
▁eficiente	-11.2542
▁elixiu	-11.2545
▁menciona	-11.2546
▁destruír	-11.2546
▁manifesto	-11.2556
▁descans	-11.2561
▁contraria	-11.2561
▁Lar	-11.2565
▁sobrevivi	-11.2566
▁Pico	-11.2573
▁patente	-11.2573
▁rosa	-11.2578
▁Bull	-11.2583
▁Lama	-11.2586
foro	-11.2588
▁aeronave	-11.259
▁turca	-11.259
▁consecutiva	-11.259
▁aliada	-11.2591
▁Gobernador	-11.2592
▁léxico	-11.2592
▁Wood	-11.2592
▁introducida	-11.2593
▁Meli	-11.2593
▁falsa	-11.2593
▁encargada	-11.2594
▁irlandesa	-11.2599
▁Fri	-11.26
▁logro	-11.2614
ndez	-11.2614
▁Mag	-11.2617
osteiro	-11.262
▁florece	-11.2621
soft	-11.2626
nya	-11.2628
▁ferramenta	-11.2631
▁revela	-11.2632
▁protectora	-11.2633
▁hu	-11.2642
▁aristocr	-11.2642
▁Galeguista	-11.2644
▁agraria	-11.2644
▁mexicano	-11.2644
▁ornamenta	-11.2644
▁baile	-11.2644
▁balea	-11.2645
▁eslavo	-11.2645
▁sublevación	-11.2645
nico	-11.2645
▁moderada	-11.2645
▁lousa	-11.2645
▁adquisición	-11.2647
▁retirado	-11.2649
▁Ocean	-11.2649
▁patio	-11.2651
▁habitado	-11.2652
▁mono	-11.2659
▁faga	-11.2662
▁Sab	-11.2665
▁Ur	-11.2666
▁secreta	-11.2666
▁xe	-11.2675
▁Silv	-11.2681
▁Cong	-11.2684
▁operador	-11.2687
▁ocorrer	-11.2691
▁atravesad	-11.2691
▁Bla	-11.2693
▁ácha	-11.2695
▁diploma	-11.2699
miento	-11.2699
▁Habsburgo	-11.2699
▁deshabitada	-11.2699
▁escaravello	-11.2699
▁glicosa	-11.2699
▁lexislatura	-11.2699
▁Mallor	-11.2699
▁nutriente	-11.2699
▁catálogo	-11.2699
▁Disney	-11.2699
▁impide	-11.2699
▁ancha	-11.27
▁consola	-11.2701
▁saí	-11.2703
▁adoptada	-11.2704
▁Amar	-11.2711
furt	-11.2721
▁All	-11.2725
▁riva	-11.2729
▁madura	-11.2735
nd	-11.2736
▁Ib	-11.2737
▁producí	-11.2751
▁pese	-11.2751
▁traza	-11.2753
▁combusti	-11.2753
▁Económica	-11.2753
▁asturiano	-11.2753
▁escuadra	-11.2753
▁fortuna	-11.2753
▁tuberculos	-11.2753
▁xurídica	-11.2753
▁arxentina	-11.2753
▁guionista	-11.2753
hecoslova	-11.2754
▁suspensión	-11.2754
▁Crime	-11.2754
▁Marsh	-11.2754
▁Doug	-11.2756
▁134	-11.2757
▁peto	-11.2757
▁109	-11.2759
▁favorito	-11.2759
▁fundamento	-11.276
▁saqueo	-11.276
▁consolida	-11.2761
▁guía	-11.2771
▁138	-11.2771
▁polar	-11.2786
▁coñecía	-11.2788
▁rumb	-11.2788
bur	-11.2792
▁Stan	-11.2797
▁canal	-11.28
▁rego	-11.2803
▁Camer	-11.2804
▁denuncia	-11.2805
▁xigante	-11.2806
▁Outeir	-11.2806
▁Amazon	-11.2808
▁eclesiástico	-11.2808
▁islámico	-11.2808
▁parámetro	-11.2808
▁decisiva	-11.2808
▁desembarco	-11.2808
▁obreira	-11.2808
▁aterraxe	-11.2809
▁Jeff	-11.2809
▁término	-11.2809
▁sinatura	-11.2809
▁céntra	-11.281
▁posib	-11.281
▁gobernado	-11.2812
▁gobernada	-11.2812
▁liderada	-11.2812
▁Simon	-11.2813
▁We	-11.282
▁holand	-11.282
▁correcta	-11.2821
tah	-11.2821
ilo	-11.2822
▁estender	-11.2823
ov	-11.2825
▁adiciona	-11.2832
▁Baí	-11.2835
▁Butt	-11.2838
▁presidid	-11.284
▁editar	-11.284
▁00	-11.2847
▁exp	-11.2848
rgoña	-11.2858
erife	-11.2858
omeo	-11.2859
▁defecto	-11.2864
▁delegación	-11.2864
▁viquingo	-11.2864
▁vándalo	-11.2864
▁Gabriel	-11.2864
▁Leopold	-11.2864
▁Dragon	-11.2864
▁Noutra	-11.2864
▁axudante	-11.2865
▁pór	-11.2867
▁Vá	-11.2867
▁modificado	-11.2868
▁Lorenz	-11.287
▁reconquista	-11.2872
▁Victoria	-11.2873
▁republicana	-11.2873
▁adoptado	-11.2874
onel	-11.2874
▁romaniza	-11.2877
mond	-11.288
▁Mer	-11.288
▁conducir	-11.2881
▁voda	-11.2886
▁checo	-11.2889
día	-11.2891
▁piar	-11.2892
▁Port	-11.2905
▁Vé	-11.2905
cht	-11.2907
ómpre	-11.2919
▁proxección	-11.2919
▁Rexiona	-11.2919
▁atinxi	-11.2919
▁polígono	-11.2919
▁Investigación	-11.292
▁revisión	-11.292
▁Pel	-11.2923
▁trazado	-11.2928
▁Ball	-11.293
▁buscaba	-11.2931
emos	-11.2936
▁Doutr	-11.2944
▁estima	-11.2945
▁117	-11.2945
▁Rio	-11.2946
▁meseta	-11.2948
▁integrar	-11.2952
▁afección	-11.2954
▁transforma	-11.2958
▁conservado	-11.2965
mundo	-11.2966
▁Inc	-11.2967
T	-11.2972
▁efectivo	-11.2973
▁Bay	-11.2975
▁Executiv	-11.2975
▁divindade	-11.2975
▁romaría	-11.2975
▁teléfono	-11.2975
▁Formou	-11.2975
▁recollido	-11.2975
▁gabinete	-11.2975
▁teórica	-11.2975
▁emitida	-11.2976
▁evita	-11.2976
▁poboaciona	-11.2977
▁acadando	-11.2977
▁Malai	-11.2977
▁emitido	-11.2978
▁elaborada	-11.2978
clero	-11.2978
▁subministración	-11.2979
▁Lenno	-11.2982
▁escribi	-11.2984
▁convencional	-11.2991
▁conservar	-11.2997
▁Anders	-11.2999
llino	-11.3004
▁influí	-11.3005
10	-11.3008
▁Cort	-11.3011
úl	-11.3022
abana	-11.3023
▁causado	-11.3028
mentr	-11.3029
iscal	-11.3029
echt	-11.303
itanni	-11.3031
▁Política	-11.3031
▁decisivo	-11.3031
▁soterrado	-11.3031
▁epidemia	-11.3031
▁notábe	-11.3031
▁Bizantin	-11.3031
▁obstáculo	-11.3031
▁proclamad	-11.3033
▁temperado	-11.3033
▁prosperidade	-11.3035
rum	-11.3037
▁vaga	-11.3037
▁disputou	-11.3037
▁espl	-11.3039
▁abertura	-11.3039
agno	-11.3039
▁cruzada	-11.304
▁Mort	-11.304
▁opera	-11.3043
ith	-11.3043
▁Cun	-11.3044
▁Debe	-11.3048
▁habitación	-11.3049
▁excepcional	-11.3052
▁rota	-11.3054
▁Baio	-11.3058
iberia	-11.306
▁Pop	-11.3063
▁impux	-11.3065
▁Bat	-11.3066
66	-11.307
▁peste	-11.3072
ibn	-11.3076
▁Davi	-11.3077
▁dedica	-11.3079
▁penetra	-11.3081
▁beneficio	-11.3081
▁Mercedes	-11.3088
▁sometida	-11.3088
▁furacán	-11.3088
▁trofeo	-11.3088
▁apoiada	-11.3093
▁calcular	-11.3095
▁violación	-11.3095
▁abandonada	-11.3095
▁Segur	-11.3097
▁invadir	-11.3103
▁Salom	-11.3109
ardo	-11.311
bar	-11.3113
▁Amor	-11.3116
▁Hermi	-11.3117
▁Hans	-11.3119
▁presentada	-11.312
▁450	-11.3121
▁Mani	-11.313
endor	-11.3132
xeo	-11.3132
candinavia	-11.3145
▁sensible	-11.3145
▁Sound	-11.3145
▁emite	-11.3153
▁neutral	-11.3157
▁rivalidade	-11.3158
tario	-11.3159
▁misa	-11.3161
uliu	-11.3162
▁ocorren	-11.3162
úric	-11.3163
▁Coma	-11.3168
▁Pat	-11.3168
▁Limi	-11.3175
▁facto	-11.3177
▁anxo	-11.3178
elección	-11.3179
▁emprende	-11.3179
▁proporcionar	-11.3183
ite	-11.3183
▁homónim	-11.3188
▁fiel	-11.3194
▁resultar	-11.3196
▁antecesor	-11.3202
▁ortodoxa	-11.3203
deira	-11.3207
▁racia	-11.3207
▁rapaza	-11.3208
▁iniciada	-11.3211
telecomunicación	-11.3211
▁repartido	-11.3212
▁gravada	-11.3222
▁Guadal	-11.3222
▁Nir	-11.3224
▁estudado	-11.3225
uga	-11.3227
▁infinito	-11.3228
▁Vive	-11.3228
min	-11.3233
▁liberar	-11.3236
▁solucións	-11.3236
caia	-11.3249
bol	-11.325
▁encargo	-11.3258
▁Director	-11.3259
▁agrupad	-11.3259
▁axeitado	-11.3259
▁substantivo	-11.3259
▁eficaz	-11.3259
▁sólida	-11.3259
▁plasma	-11.3259
▁Odise	-11.326
▁violín	-11.326
helm	-11.326
▁dándolle	-11.3261
▁rato	-11.3263
▁Tah	-11.3264
▁asiática	-11.3267
angel	-11.3268
▁edita	-11.3272
nch	-11.3277
▁cinto	-11.3278
tonia	-11.3278
▁My	-11.3282
anzas	-11.3296
▁Ka	-11.3296
▁superviven	-11.3302
▁parecía	-11.3306
▁Roda	-11.3306
▁Joaqu	-11.3307
▁soste	-11.3309
▁coincide	-11.3313
▁Bona	-11.3314
▁demográfico	-11.3317
▁independentista	-11.3317
▁sábado	-11.3317
▁Branca	-11.3317
▁antibiótico	-11.3317
▁troco	-11.3317
▁basílica	-11.3317
▁parlamentario	-11.3318
▁Hugh	-11.3319
eppe	-11.332
▁dominada	-11.3323
▁delito	-11.3328
▁drama	-11.3331
olivia	-11.3332
▁subi	-11.3336
▁eficac	-11.334
▁erosi	-11.334
▁tocaba	-11.334
alles	-11.3342
▁Abadí	-11.3343
rry	-11.3357
mina	-11.3357
▁vulgar	-11.3358
▁Varia	-11.3359
▁Game	-11.336
▁deseñou	-11.3361
▁relata	-11.3366
▁DC	-11.3367
▁Lud	-11.3367
enberg	-11.3372
▁inestab	-11.3372
▁algoritmo	-11.3375
▁auténtico	-11.3375
▁defendía	-11.3375
▁esqueleto	-11.3375
▁inundación	-11.3375
▁servía	-11.3375
▁sorprendente	-11.3376
▁Estra	-11.3376
▁Capel	-11.3376
▁manobra	-11.3377
▁milicia	-11.3377
ntificado	-11.3377
▁disparo	-11.3378
▁eixe	-11.3378
▁dona	-11.3378
▁loito	-11.3381
negro	-11.3383
▁probar	-11.3385
▁adulta	-11.3387
hire	-11.3389
▁flamengo	-11.3389
aquist	-11.3393
▁limitación	-11.3395
▁regulación	-11.3396
▁Liberal	-11.34
▁evolucion	-11.3402
▁Ura	-11.3403
▁pol	-11.3404
Lare	-11.341
▁recoller	-11.3411
▁minuto	-11.342
▁preserva	-11.342
▁prepara	-11.3422
▁modificar	-11.3423
▁cruce	-11.3428
hai	-11.3428
▁fraga	-11.3432
▁Wei	-11.3432
▁glándula	-11.3434
▁neutrón	-11.3434
▁vangarda	-11.3434
▁estraño	-11.3434
▁ourensá	-11.3434
▁Eva	-11.3434
▁Fundou	-11.3434
▁7,	-11.3434
▁feble	-11.3435
▁budista	-11.3436
▁violento	-11.344
▁evoluciona	-11.3441
▁Teo	-11.345
▁cedeu	-11.345
▁Cret	-11.345
▁Sant	-11.3451
▁naturalista	-11.3451
▁Pica	-11.3452
▁pracer	-11.3454
▁South	-11.3455
▁Cruce	-11.3455
▁marqu	-11.3457
▁romper	-11.3458
▁habería	-11.3464
▁detectar	-11.3468
▁anatom	-11.3477
▁oco	-11.3479
pique	-11.348
▁atómica	-11.348
▁Pard	-11.3481
ancia	-11.3486
▁esperaba	-11.3492
▁burato	-11.3492
▁mercenario	-11.3492
▁oitava	-11.3493
▁Celtic	-11.3493
▁distribuída	-11.3494
▁instalado	-11.3496
▁Asi	-11.3497
▁Henri	-11.3497
▁lava	-11.3499
lyn	-11.3506
▁anuncia	-11.3506
▁Bra	-11.3507
▁véx	-11.3508
kla	-11.351
▁avanza	-11.3512
▁sucedid	-11.3514
▁Dubl	-11.352
▁135	-11.3522
▁Day	-11.3523
▁Laxe	-11.3523
em	-11.3524
▁lega	-11.3527
▁delta	-11.3527
aquia	-11.3527
▁Gold	-11.3529
▁cama	-11.3535
ío	-11.3537
▁misterio	-11.3539
▁dirixía	-11.3545
▁Out	-11.3545
▁paciente	-11.3546
×	-11.3552
▁antepasado	-11.3552
▁mísil	-11.3552
▁oceánica	-11.3552
▁perfecto	-11.3552
▁repercusión	-11.3552
▁xuventude	-11.3552
▁búlgaro	-11.3552
▁cima	-11.3553
▁Sarde	-11.3555
iza	-11.3557
▁tira	-11.3558
▁metaboli	-11.3558
▁restaurante	-11.3562
▁superficial	-11.3565
atura	-11.3566
▁absorbe	-11.3569
▁largo	-11.357
voa	-11.3573
▁incorporar	-11.3579
▁volvería	-11.358
nio	-11.3593
▁Panam	-11.3595
▁tomado	-11.3598
▁Rai	-11.3598
▁112	-11.36
var	-11.3603
▁renunci	-11.3604
▁Fort	-11.3606
xia	-11.3606
▁orixinou	-11.3611
▁atmosférica	-11.3611
▁distíngue	-11.3611
▁ferroviaria	-11.3611
▁proposto	-11.3611
▁metálica	-11.3611
▁repetida	-11.3612
▁ciclista	-11.3612
▁136	-11.3615
▁Hein	-11.3616
▁estimada	-11.3616
usa	-11.3619
▁completou	-11.362
▁GP	-11.3624
▁Carlom	-11.3631
▁trato	-11.3632
▁cesa	-11.3634
mia	-11.3636
▁primo	-11.3636
▁designación	-11.3637
tas	-11.3639
▁habitan	-11.3658
▁lat	-11.3658
▁datado	-11.366
▁Católic	-11.3667
▁dimiti	-11.3668
▁arbusto	-11.3671
▁concedido	-11.3671
▁fantasía	-11.3671
▁hormona	-11.3671
▁sanguíneo	-11.3671
▁That	-11.3671
▁godo	-11.3672
▁discorre	-11.3673
▁vinculado	-11.3673
▁castrexo	-11.3678
▁alimentaria	-11.368
telo	-11.3682
▁move	-11.3685
▁cristal	-11.3697
▁rematado	-11.37
▁ampl	-11.3717
▁finaliz	-11.3717
▁Consta	-11.3719
op	-11.3721
▁copa	-11.3724
eminario	-11.3724
▁mandar	-11.3725
acultade	-11.3731
▁Giovann	-11.3731
▁clínica	-11.3731
▁túnel	-11.3731
▁clan	-11.3731
▁Associat	-11.3731
▁Presenta	-11.3731
▁Spu	-11.3732
▁estendido	-11.3737
▁caracterizada	-11.3739
▁conectado	-11.3742
▁Francesc	-11.3744
tempo	-11.3744
▁Cova	-11.3746
mase	-11.3747
▁provocada	-11.3754
▁perigosa	-11.3755
▁Orti	-11.3755
▁defensiva	-11.3759
▁diferenciar	-11.3774
▁absor	-11.3775
▁Glas	-11.3777
▁criado	-11.3778
▁Sega	-11.3786
igan	-11.3787
celer	-11.3788
▁May	-11.3792
▁Castrelo	-11.3792
▁eucariota	-11.3792
▁Chegou	-11.3792
▁producía	-11.3795
▁cálido	-11.3795
▁talo	-11.3797
▁sentía	-11.3797
▁conduce	-11.3798
▁ditador	-11.38
▁divide	-11.3802
▁Flan	-11.3803
▁inventor	-11.3805
▁Jam	-11.3813
▁Isla	-11.3815
▁Wolf	-11.3817
▁continuaba	-11.3822
▁cubrir	-11.3824
▁feudal	-11.3824
rac	-11.3828
▁afectan	-11.3832
▁Dos	-11.3837
▁Sé	-11.3843
▁Aria	-11.3848
ump	-11.3848
▁casamento	-11.3853
▁Aérea	-11.3853
▁adolescencia	-11.3853
▁confederación	-11.3853
▁correcto	-11.3853
▁diminúe	-11.3853
▁excesiva	-11.3853
▁vacina	-11.3853
▁sueca	-11.3853
▁intermedio	-11.3853
▁perdida	-11.3853
▁progresista	-11.3853
▁Facend	-11.3853
▁interesado	-11.3856
▁administrador	-11.3861
▁distante	-11.3866
▁computadora	-11.3866
▁bala	-11.3869
dres	-11.3875
▁Pública	-11.3875
▁codia	-11.3881
▁traslado	-11.3881
▁Tolo	-11.3884
▁conversa	-11.3884
▁Blue	-11.389
▁Fór	-11.3893
▁determina	-11.3903
▁renunciar	-11.3904
▁Cabana	-11.3908
▁escas	-11.3908
cesio	-11.3912
▁transformou	-11.3914
▁autóctona	-11.3914
cidade	-11.3918
▁Appl	-11.3918
▁xulgado	-11.3919
▁Exe	-11.3921
ball	-11.3921
cepción	-11.3923
▁Stre	-11.3924
▁parto	-11.3926
▁Law	-11.3928
▁irlandes	-11.393
▁habita	-11.3933
▁imposi	-11.3935
▁Play	-11.3937
▁comunica	-11.3937
▁toman	-11.394
▁mel	-11.3941
▁IP	-11.3945
▁equivale	-11.3946
▁fillas	-11.3947
▁Mina	-11.3952
lines	-11.3954
▁malo	-11.3968
▁Franc	-11.3968
▁sinalar	-11.3969
▁ataca	-11.3971
▁Principa	-11.3973
▁Galax	-11.3973
12	-11.3975
▁alcumad	-11.3976
▁tecnolóxico	-11.3976
▁fermosa	-11.3976
▁práctico	-11.3976
▁exposta	-11.3976
▁espello	-11.3976
▁madurez	-11.3976
▁xerarquía	-11.3976
▁AB	-11.3977
▁cinta	-11.3978
ation	-11.3979
▁reconstruída	-11.3979
▁hostilidade	-11.3979
▁condes	-11.398
▁funcional	-11.3983
▁acumulación	-11.3987
▁Tr	-11.3989
▁Xene	-11.3993
▁Barreiro	-11.4001
▁Norman	-11.4002
▁dominar	-11.4007
spírito	-11.4007
▁Gonza	-11.4009
▁acudi	-11.4015
▁Rowl	-11.4016
▁Prie	-11.4017
▁bate	-11.4021
▁desenvolven	-11.4028
▁atlántica	-11.4038
▁inmensa	-11.4038
▁préstamo	-11.4038
▁festividade	-11.4038
▁proveñ	-11.4038
▁Gramm	-11.4038
▁reduce	-11.4038
▁engade	-11.4039
▁escoller	-11.4039
▁lema	-11.4039
▁modificada	-11.404
▁explorar	-11.4044
▁East	-11.4046
▁viúva	-11.4048
▁ocasiona	-11.4048
▁té	-11.4049
rre	-11.405
bade	-11.4054
▁perigoso	-11.4056
oubo	-11.4058
▁Unidade	-11.4059
▁porción	-11.4059
▁Well	-11.406
▁Nar	-11.4062
▁dezaseis	-11.4063
▁amid	-11.4065
▁levaría	-11.4066
▁armamento	-11.4067
▁vixil	-11.407
▁106	-11.4083
▁Noro	-11.4084
▁comunicar	-11.4087
▁invasor	-11.4092
vana	-11.4095
▁lider	-11.41
▁observou	-11.4101
▁Adriá	-11.4101
▁curtametraxe	-11.4101
▁migratoria	-11.4101
▁separou	-11.4101
▁sufixo	-11.4101
▁bacharel	-11.4101
▁prefire	-11.4101
▁estratéxico	-11.4101
▁inversa	-11.4102
▁concluí	-11.4102
▁diminuír	-11.4104
▁conspiración	-11.4106
▁baño	-11.4107
▁artificia	-11.411
▁estadía	-11.411
▁falecemento	-11.4111
▁santa	-11.4111
▁Jacob	-11.4112
▁ilustración	-11.4113
▁eliminado	-11.412
▁rexeitado	-11.4121
▁espira	-11.4125
▁oculta	-11.4128
▁Soto	-11.4134
▁veñ	-11.4134
▁Ll	-11.4135
▁encarga	-11.415
▁tortura	-11.4154
▁presidi	-11.4156
▁crecer	-11.4156
▁Gou	-11.4163
▁rendi	-11.4163
▁castigo	-11.4163
▁difire	-11.4163
▁foguete	-11.4163
▁informático	-11.4163
▁manufactura	-11.4163
▁simult	-11.4163
▁secreto	-11.4163
▁consecuente	-11.4164
▁Anxo	-11.4165
▁polio	-11.4167
▁virtual	-11.4171
▁Atlant	-11.4172
▁Ly	-11.4174
▁Homer	-11.4175
▁manda	-11.4175
▁Allen	-11.4175
▁ane	-11.4182
▁navegante	-11.4183
▁ilustrado	-11.4189
struíu	-11.4191
quilo	-11.4198
▁subir	-11.4201
▁admira	-11.4203
tí	-11.4208
▁integrou	-11.421
▁ilumina	-11.4213
▁Link	-11.4217
▁escolle	-11.4219
▁peculiar	-11.4219
▁Vari	-11.422
▁castrex	-11.422
▁pin	-11.4223
▁Consérva	-11.4227
▁adxacente	-11.4227
▁bicicleta	-11.4227
▁extraordinario	-11.4227
▁inspirada	-11.4227
▁bretón	-11.4227
▁educativa	-11.4227
▁utilidade	-11.4227
▁maxia	-11.4227
▁exposto	-11.4227
▁Beck	-11.4227
▁sasánida	-11.4228
▁severa	-11.4228
▁presentaba	-11.423
▁representativo	-11.4231
▁mantiver	-11.4237
cha	-11.4238
▁colocado	-11.4239
▁interve	-11.4242
PD	-11.4242
▁Common	-11.4256
▁divulga	-11.4257
▁decena	-11.4264
▁xeno	-11.4265
O	-11.4271
▁libra	-11.4271
▁sint	-11.4277
▁Catar	-11.4278
▁permanecen	-11.428
ath	-11.4281
adruga	-11.4285
▁implanta	-11.4287
▁apóstolo	-11.429
▁complemento	-11.429
▁exitoso	-11.429
▁guerrilla	-11.429
▁olímpico	-11.429
▁choque	-11.429
▁oposta	-11.429
▁traiz	-11.4291
▁preferencia	-11.4291
▁Cla	-11.4291
▁inclinación	-11.4291
▁Estí	-11.4291
▁finaliza	-11.4294
▁Reg	-11.4303
F	-11.4304
right	-11.4307
▁disputar	-11.4308
▁Angel	-11.4312
▁levouno	-11.4318
▁Isid	-11.4324
▁rexeitar	-11.4325
versidade	-11.4336
▁citar	-11.4337
▁nacen	-11.4337
▁BM	-11.4338
woo	-11.4339
▁Lib	-11.434
monos	-11.4342
ent	-11.4344
▁degrada	-11.4345
▁Valencian	-11.4347
ife	-11.4348
▁Orient	-11.4354
▁Antigüidade	-11.4355
▁constituía	-11.4355
▁universitaria	-11.4355
▁enderezo	-11.4355
▁fenicio	-11.4355
▁graxo	-11.4355
▁grosa	-11.4355
▁mongo	-11.4355
▁playoff	-11.4355
▁prefectura	-11.4356
▁cego	-11.4356
▁outorgou	-11.4357
▁colapso	-11.4358
▁cinza	-11.4358
▁Tim	-11.436
▁selva	-11.436
▁estím	-11.436
▁139	-11.4361
▁simboliza	-11.4361
▁Sara	-11.4362
zul	-11.4363
▁orientada	-11.4363
▁eido	-11.4364
pol	-11.437
ace	-11.4375
eida	-11.4377
▁Urban	-11.4379
▁recordo	-11.4389
▁xesta	-11.4393
▁pa	-11.4394
▁sustenta	-11.4396
▁entregado	-11.4398
▁amosar	-11.44
rzo	-11.4401
▁estou	-11.4408
▁Azor	-11.4411
adas	-11.4414
▁lembra	-11.4419
▁Apóstolo	-11.4419
▁requisito	-11.4419
▁romántico	-11.4419
▁presb	-11.4419
▁síndrome	-11.442
▁France	-11.442
▁ladeira	-11.4422
▁Realizou	-11.4423
▁Claudi	-11.4424
▁Esloven	-11.4426
▁apo	-11.4429
arios	-11.4429
▁desempeño	-11.4429
▁asume	-11.443
utonomía	-11.4431
▁homosexual	-11.4431
▁nominal	-11.4436
▁Eti	-11.4436
▁Dav	-11.4437
▁afroamericano	-11.4438
▁NAS	-11.4439
▁enverg	-11.4439
▁coordina	-11.444
▁st	-11.4441
▁Ott	-11.4449
▁lazo	-11.4449
-3	-11.4452
tland	-11.4453
grafía	-11.4454
cito	-11.4455
▁gama	-11.4456
▁responder	-11.4459
▁sacar	-11.4462
ebra	-11.4466
ficina	-11.4467
▁coiro	-11.447
podo	-11.4471
port	-11.4473
▁Margari	-11.4473
▁Or	-11.4476
▁reduciu	-11.4476
over	-11.4477
ixeria	-11.4481
▁Recente	-11.4484
▁Reform	-11.4484
▁antecedente	-11.4484
▁constituínte	-11.4484
▁contempla	-11.4484
▁xermano	-11.4484
▁Leo	-11.4485
▁traducida	-11.4485
▁teólogo	-11.4485
▁Walter	-11.4485
▁Bur	-11.4485
▁fascista	-11.4486
▁apoiaba	-11.4487
▁grava	-11.4487
▁cilindro	-11.4488
▁contratado	-11.4491
autista	-11.4491
▁cualificación	-11.4491
▁permitiulle	-11.4492
▁Pontede	-11.4494
▁bos	-11.4496
▁importación	-11.4496
▁centrada	-11.4497
ho	-11.45
▁planifica	-11.4502
▁dixita	-11.4503
▁test	-11.4505
aska	-11.4511
▁salón	-11.4511
▁desexaba	-11.4515
▁ATP	-11.4518
▁abdica	-11.452
▁satisfac	-11.4521
ad	-11.4522
▁cativo	-11.4523
▁incrementar	-11.4527
▁br	-11.4531
▁sindical	-11.454
▁facéndo	-11.4544
▁fí	-11.4547
▁Convención	-11.4549
▁Decreto	-11.4549
▁opositor	-11.4549
▁tóxico	-11.4549
▁eclipse	-11.4549
▁asirio	-11.4549
▁Tód	-11.4549
▁pavillón	-11.455
▁criatura	-11.455
▁Harold	-11.455
▁capta	-11.455
tografía	-11.4552
▁Ub	-11.4556
▁Vel	-11.4556
▁substancial	-11.4558
▁Hor	-11.4559
▁rexeitada	-11.456
▁artesán	-11.456
▁estoniano	-11.4568
▁elaborar	-11.4569
▁Harris	-11.4572
rey	-11.4573
▁pertencer	-11.4574
▁ortodoxo	-11.4575
▁corno	-11.4575
▁proceden	-11.4576
▁viaxeiro	-11.4578
▁Ebr	-11.458
▁occitan	-11.458
laga	-11.4583
▁Cou	-11.4583
▁Cí	-11.4591
encia	-11.4593
▁Sabe	-11.4602
▁Nicol	-11.4608
▁Sid	-11.461
▁Consell	-11.4613
▁Exterior	-11.4615
▁guerrilleiro	-11.4615
▁hábito	-11.4615
▁microorganismo	-11.4615
▁monopolio	-11.4615
▁repertorio	-11.4615
▁sedimento	-11.4615
▁Figuer	-11.4615
▁denominou	-11.4615
▁arqueólogo	-11.4615
▁Traballa	-11.4616
▁porteiro	-11.4617
▁Groen	-11.4617
uda	-11.4618
▁Gal	-11.4619
▁interpretada	-11.4621
▁determinante	-11.4625
▁sábe	-11.4625
▁reforzo	-11.4627
▁emigrar	-11.4628
▁relaciona	-11.4632
breiro	-11.4632
▁Gau	-11.4633
▁aplíca	-11.4634
conomía	-11.4635
dando	-11.4636
▁Malv	-11.4638
he	-11.4638
▁controla	-11.4659
lawa	-11.4662
▁icona	-11.4664
▁capturar	-11.4664
▁sost	-11.4665
▁113	-11.4668
▁text	-11.4673
▁cidad	-11.4677
▁serpe	-11.4677
aldo	-11.4679
▁Rede	-11.468
▁funera	-11.468
▁Coñéce	-11.4681
▁Proxecto	-11.4681
▁sacrificio	-11.4681
▁Branco	-11.4681
▁Demócrata	-11.4681
▁hexem	-11.4681
▁claustro	-11.4681
▁insurrec	-11.4681
▁Esco	-11.4682
▁Flavi	-11.4683
▁representou	-11.4684
▁recep	-11.4686
▁sepulcro	-11.4688
▁outorgado	-11.469
▁vertebrado	-11.4695
ena	-11.47
▁Eric	-11.4705
▁Sad	-11.4707
uselle	-11.4708
chig	-11.4708
▁Alex	-11.4709
íso	-11.471
▁animado	-11.471
-9	-11.4714
▁realizá	-11.4715
▁xustifica	-11.4715
rie	-11.4716
empre	-11.4716
▁emerxe	-11.4722
renta	-11.4723
▁protexe	-11.4724
▁emitiu	-11.4727
▁budis	-11.4746
▁Ale	-11.4746
▁conmemora	-11.4747
▁Alejandr	-11.4748
▁nórdico	-11.4748
▁profeta	-11.4748
align	-11.4749
▁orella	-11.4749
▁protagonizada	-11.475
▁afastada	-11.475
▁Sport	-11.4752
wel	-11.4755
▁elector	-11.4755
30	-11.4756
▁goberna	-11.4759
▁labrego	-11.4761
unge	-11.4767
▁litro	-11.4773
▁propaga	-11.4774
▁enormes	-11.478
▁alterna	-11.4785
▁Pit	-11.4787
▁Contra	-11.4788
nec	-11.4789
▁Magno	-11.4791
cre	-11.4791
▁Tar	-11.4796
▁respira	-11.4797
▁constituír	-11.4798
nexión	-11.4799
oito	-11.4802
▁Transi	-11.4803
posto	-11.4807
▁crustáceo	-11.4815
▁instalá	-11.4815
▁ostrogodo	-11.4815
▁sucesivo	-11.4815
▁recompilatorio	-11.4815
▁adóita	-11.4815
▁abadía	-11.4815
▁cerco	-11.4815
▁mineira	-11.4817
▁retóric	-11.4817
isco	-11.4818
▁Serie	-11.4819
▁Sill	-11.4819
▁Representante	-11.482
▁ru	-11.4822
▁conquistador	-11.4824
araguai	-11.4824
▁solista	-11.4824
ruto	-11.4824
▁Comba	-11.4827
▁habitaba	-11.4827
cento	-11.4827
▁Moz	-11.4834
otte	-11.4834
▁navarro	-11.4835
untu	-11.4838
tán	-11.4841
▁Mala	-11.4843
▁Nevad	-11.4846
old	-11.486
▁empresaria	-11.4861
volución	-11.4863
▁Sete	-11.4867
ka	-11.4873
▁Rev	-11.4878
inda	-11.4878
▁afirmaba	-11.4879
rroco	-11.4879
▁Dio	-11.4879
▁Orixina	-11.4882
▁emprazamento	-11.4883
▁esquina	-11.4883
▁frauta	-11.4883
▁lámpada	-11.4883
▁referido	-11.4883
▁Manhat	-11.4883
▁pasta	-11.4883
▁vendida	-11.4883
▁interface	-11.4883
rosio	-11.4884
▁clasificada	-11.4888
▁Riva	-11.4889
titan	-11.4892
▁Publicou	-11.4893
▁pigmento	-11.4894
▁morfoloxía	-11.4894
▁Gar	-11.4895
▁pensador	-11.4895
▁multi	-11.4901
ash	-11.4902
▁sin	-11.4902
▁amosou	-11.4903
rne	-11.4909
ure	-11.4915
sperar	-11.4917
▁agudo	-11.4923
▁respecta	-11.4924
▁engadiu	-11.4926
thle	-11.4941
▁ecua	-11.4942
evara	-11.4943
imos	-11.4945
▁Hi	-11.4946
▁poñen	-11.495
▁demográfica	-11.4951
▁estampa	-11.4951
▁ideolóxica	-11.4951
▁subdivisión	-11.4951
▁Bohemia	-11.4951
▁nicho	-11.4951
▁adecuado	-11.4952
▁Neve	-11.4954
▁Reich	-11.4955
▁Marc	-11.4957
▁puntuación	-11.496
▁conforma	-11.4963
▁denomína	-11.4967
▁Salv	-11.497
▁decorado	-11.4975
▁rompeu	-11.4981
▁cabale	-11.4983
▁Herman	-11.4989
▁propó	-11.4994
ice	-11.4998
▁forzada	-11.4998
▁seleccionado	-11.5004
▁Pres	-11.5008
▁Medi	-11.5008
▁goza	-11.5012
▁Banda	-11.5014
▁xogan	-11.5017
▁bispado	-11.5019
▁campesiña	-11.5019
▁masivo	-11.5019
▁visíbe	-11.5019
▁Cambridge	-11.5019
▁frecha	-11.5019
▁asasino	-11.5019
▁compite	-11.5019
▁Andrew	-11.502
▁novelista	-11.502
▁procesión	-11.502
▁volcánico	-11.502
▁preferi	-11.5021
▁accesible	-11.5021
▁propagand	-11.5022
▁iniciado	-11.5028
▁especialidade	-11.5029
▁Aleix	-11.5032
▁votar	-11.5034
▁profesora	-11.5034
▁Hip	-11.5035
pus	-11.5038
▁144	-11.5038
acto	-11.504
nell	-11.5041
▁pensou	-11.5049
▁estrutural	-11.5055
▁Best	-11.5059
ves	-11.5063
▁mitos	-11.5063
▁tip	-11.507
▁Nice	-11.5076
▁leito	-11.5079
urne	-11.5079
gregación	-11.5079
▁Carballed	-11.5083
certeza	-11.5087
▁ultra	-11.5088
ux	-11.5088
▁académica	-11.5088
▁aritmética	-11.5088
▁auténtica	-11.5088
▁substituto	-11.5088
▁acuática	-11.5088
uatemal	-11.5088
▁respectivo	-11.5088
▁silencio	-11.5088
▁Gand	-11.5089
wig	-11.5089
▁fotón	-11.509
▁benestar	-11.509
▁adición	-11.509
▁Christian	-11.5091
▁Capita	-11.5091
▁faixa	-11.5095
▁Operación	-11.5096
▁atraso	-11.5097
tribuíu	-11.5098
▁116	-11.5099
▁similitude	-11.5104
ray	-11.5108
▁Bell	-11.5108
▁bárbaro	-11.511
▁desprazar	-11.511
▁sa	-11.511
▁Prado	-11.5113
▁Boa	-11.5115
▁antrop	-11.5118
▁concede	-11.513
▁filia	-11.5131
dison	-11.5132
lix	-11.5134
outo	-11.5134
▁soub	-11.5135
▁detalle	-11.5137
▁Ferreiro	-11.514
▁correr	-11.5143
▁Campos	-11.5146
▁reuní	-11.5155
▁xigantes	-11.5157
▁vínculo	-11.5158
▁xeolóxico	-11.5158
▁Cantábric	-11.5158
▁radar	-11.5158
▁arranxo	-11.5158
▁conservou	-11.516
▁exhibición	-11.5163
▁hélice	-11.5165
▁rapaz	-11.5166
ónico	-11.5168
▁Mich	-11.5168
▁Spo	-11.5168
▁fonda	-11.517
▁Ste	-11.5175
▁Sul	-11.5176
ec	-11.5176
asia	-11.5181
▁limp	-11.5185
▁adaptar	-11.5189
▁Vale	-11.5189
▁rescat	-11.5197
▁Muro	-11.5197
ight	-11.5197
▁Flame	-11.5209
▁ofrecen	-11.5209
collida	-11.521
▁notar	-11.5214
▁convocou	-11.5228
▁devanceiro	-11.5228
▁escándalo	-11.5228
▁indirecta	-11.5228
▁interpretou	-11.5228
▁sistemática	-11.5228
▁Noutro	-11.5228
▁inícia	-11.5228
▁peche	-11.5228
ky	-11.5228
▁brill	-11.523
▁cultivada	-11.523
ue	-11.523
▁gastro	-11.523
▁paradigma	-11.5232
▁escisión	-11.5233
▁posuír	-11.5234
▁Apoll	-11.5234
▁Kim	-11.5236
▁exclusivo	-11.5239
▁xerada	-11.524
▁Va	-11.5247
▁constrúe	-11.5248
▁Clara	-11.5249
▁medi	-11.5254
ónica	-11.5254
espe	-11.5256
▁Institut	-11.526
▁documentado	-11.526
▁basea	-11.5262
▁acr	-11.5263
dución	-11.5263
▁Taiw	-11.5268
▁espacia	-11.527
cada	-11.5272
▁Vela	-11.5275
▁6-	-11.5278
▁signific	-11.528
▁Ed	-11.5281
▁azu	-11.5282
▁Ya	-11.5295
madura	-11.5296
▁caracterizou	-11.5298
▁continxente	-11.5298
▁dramático	-11.5298
▁eucalipto	-11.5298
▁xeolóxica	-11.5298
▁dramaturgo	-11.5298
▁horta	-11.5298
▁trae	-11.5298
▁Zona	-11.53
▁Hog	-11.5301
▁cervexa	-11.5302
▁observado	-11.5307
▁Marqu	-11.5309
▁Socie	-11.531
▁reivindicación	-11.5311
▁crer	-11.5313
▁manual	-11.5313
▁vin	-11.5314
▁fume	-11.5315
▁impediu	-11.5318
dán	-11.5319
nix	-11.5319
▁outorga	-11.5321
art	-11.5323
▁Bah	-11.5326
▁repous	-11.5335
desh	-11.5337
▁penal	-11.534
rme	-11.535
▁coco	-11.535
▁capitalista	-11.5351
▁Sex	-11.5352
▁correctamente	-11.5353
▁obtiver	-11.5355
▁comparti	-11.5357
▁antena	-11.5361
▁comprobar	-11.5367
▁Alcalá	-11.5369
▁Imperial	-11.5369
▁arxila	-11.5369
▁peregrinación	-11.5369
▁reliquia	-11.5369
▁vocábulo	-11.5369
▁periodic	-11.5369
▁audiovisua	-11.5369
▁cháman	-11.5369
▁Dom	-11.5371
▁envía	-11.5371
▁Xacobe	-11.5372
▁triunfa	-11.5373
▁campá	-11.5374
egovi	-11.5374
▁Lagos	-11.5376
▁Sm	-11.5376
▁3000	-11.5377
▁Volveu	-11.5377
▁promociona	-11.5377
tén	-11.5382
▁Sin	-11.5382
▁aplicado	-11.5383
▁Fila	-11.5386
fectou	-11.5388
▁vólve	-11.5391
▁faro	-11.5392
▁conquistado	-11.5393
▁Grim	-11.5394
▁cultivar	-11.5399
▁Bea	-11.5403
▁Mira	-11.5404
▁Troi	-11.5409
▁deseñador	-11.5415
▁experimentar	-11.5416
▁Sobrad	-11.5417
torga	-11.5418
▁valid	-11.5419
▁entran	-11.5421
▁Tele	-11.5425
▁precede	-11.5431
▁magnética	-11.544
▁progresivo	-11.544
▁pulmonar	-11.544
▁válvula	-11.544
delf	-11.544
▁tardío	-11.544
▁traxedia	-11.5441
▁Pompei	-11.5441
▁esc	-11.5441
▁Doutor	-11.5441
▁rexurdi	-11.5441
▁fide	-11.5443
▁dragón	-11.5445
▁pontevedr	-11.5449
▁diferenciada	-11.5449
▁BD	-11.5449
fi	-11.545
▁suxeriu	-11.5453
▁monumental	-11.5453
▁Membro	-11.5456
▁protector	-11.5456
▁Ter	-11.5458
▁Libera	-11.5463
▁oído	-11.5466
-6	-11.5468
▁encontran	-11.5481
▁Ab	-11.5482
tico	-11.5482
▁utilízan	-11.5482
▁Clod	-11.5485
iario	-11.5486
▁someter	-11.5489
▁implicación	-11.549
▁ra	-11.5495
▁león	-11.5498
nseca	-11.5502
▁tempora	-11.5502
▁suprema	-11.5503
metría	-11.5504
▁Baco	-11.5504
▁flúe	-11.5507
▁banca	-11.5507
▁axeitada	-11.5512
▁horizonte	-11.5512
▁reproducir	-11.5512
▁veterano	-11.5512
▁Após	-11.5512
▁divina	-11.5512
▁máxica	-11.5512
▁representativa	-11.5513
▁avanzar	-11.5514
▁adaptada	-11.5515
▁enviada	-11.5516
▁North	-11.5516
▁Chec	-11.5519
▁berc	-11.552
▁corporación	-11.5521
▁Sever	-11.5521
▁lanzada	-11.5521
▁definiu	-11.5524
▁interpretado	-11.5524
▁traducir	-11.5527
▁Bayer	-11.5528
RC	-11.5531
▁maila	-11.5534
▁March	-11.5536
▁Corpo	-11.5536
vir	-11.5538
dena	-11.5538
▁Gol	-11.5542
▁politica	-11.5542
▁Latino	-11.5544
▁ali	-11.5548
▁Timo	-11.5549
BM	-11.5551
▁133	-11.5554
quel	-11.5554
▁competi	-11.5554
▁conservada	-11.5554
▁desexa	-11.5561
▁contribuír	-11.5561
▁atende	-11.5568
▁ánimo	-11.5569
▁recita	-11.5576
▁Eslov	-11.5577
ir	-11.5582
▁anch	-11.5583
▁Octavi	-11.5585
▁alcaldía	-11.5585
▁defensivo	-11.5585
▁garantía	-11.5585
▁guarnición	-11.5585
▁metrópole	-11.5585
▁revelou	-11.5585
▁sospeita	-11.5585
▁divino	-11.5585
▁anfibio	-11.5585
▁reactor	-11.5585
▁castiñeiro	-11.5585
▁coloración	-11.5585
▁entregou	-11.5586
▁Arsen	-11.5588
▁editada	-11.559
íxer	-11.5591
▁aguda	-11.5592
▁influenciada	-11.5594
zig	-11.5594
▁seminario	-11.5594
▁obrigatoria	-11.5596
▁Lor	-11.5597
▁pau	-11.5598
▁pase	-11.5599
chet	-11.5602
▁Gordo	-11.5605
▁Independente	-11.5606
▁mercadoría	-11.5609
▁radioactivo	-11.561
▁lexítimo	-11.5614
▁noruegu	-11.5614
▁álx	-11.5619
CE	-11.562
▁Audio	-11.5621
▁ficha	-11.5629
nterior	-11.5633
▁encabezado	-11.5633
pón	-11.5634
▁consulta	-11.5635
▁conservadora	-11.5644
▁planea	-11.5646
iu	-11.5647
ulo	-11.565
▁concéntra	-11.5658
▁colocou	-11.5658
}	-11.5658
▁aguia	-11.5658
▁fármaco	-11.5658
▁Down	-11.5658
▁pretensión	-11.5658
▁Carnot	-11.5658
▁Ramir	-11.5658
▁poético	-11.5658
▁Plut	-11.5658
▁traxe	-11.5658
▁podio	-11.5659
▁Fiste	-11.5661
▁Ku	-11.5662
▁catedrático	-11.5662
▁ministerio	-11.5665
▁pedido	-11.5665
▁BB	-11.5667
▁normativa	-11.5667
▁traduciu	-11.5668
▁pasto	-11.5671
▁Dour	-11.5673
▁industrializa	-11.5678
lmirant	-11.5682
▁superado	-11.5683
ko	-11.5684
▁ucraíno	-11.5685
▁aparecía	-11.5688
▁bautizado	-11.569
▁131	-11.5691
▁Post	-11.5693
eu	-11.5696
▁Andrea	-11.5696
▁ventr	-11.5699
▁xefes	-11.57
dal	-11.57
ff	-11.5701
▁navegador	-11.5703
▁aconteceu	-11.5706
▁Sarri	-11.5706
▁escoces	-11.5708
▁tratan	-11.5715
▁Pasa	-11.5717
▁Ty	-11.5719
▁xerador	-11.572
▁Bris	-11.5722
▁quenda	-11.5723
▁atribúe	-11.5728
▁culpa	-11.5731
▁dependía	-11.5731
▁doméstica	-11.5731
▁sánscrit	-11.5731
▁acuático	-11.5731
▁etimoloxía	-11.5731
▁humilde	-11.5732
▁Robin	-11.5732
▁maquina	-11.5732
▁apartado	-11.5732
▁esixencia	-11.5733
▁suxeita	-11.5733
▁masacre	-11.5733
▁pomba	-11.5734
▁rodean	-11.5735
▁Calvo	-11.5735
▁expoñente	-11.5736
70	-11.5736
▁Kha	-11.5737
▁macizo	-11.5739
rk	-11.5741
adores	-11.5745
▁Thi	-11.5747
▁ameazada	-11.5748
ros	-11.5754
▁toleran	-11.5754
vila	-11.5754
orio	-11.5756
ony	-11.5756
▁acudir	-11.5758
▁It	-11.5759
berto	-11.576
▁Valentin	-11.5773
zar	-11.5774
latino	-11.5774
▁noruegues	-11.5775
▁ritua	-11.5779
▁infant	-11.5781
minou	-11.5784
▁pos	-11.5785
tada	-11.5787
▁percorrer	-11.5787
auber	-11.5789
▁incluían	-11.5793
▁Consist	-11.5795
▁Jr	-11.5795
▁Século	-11.5805
▁lóxico	-11.5805
▁perpendicular	-11.5805
▁vietnamita	-11.5805
▁UNI	-11.5805
▁peirao	-11.5805
▁veneciano	-11.5806
▁cela	-11.5806
▁coñéce	-11.5806
▁levantou	-11.5806
▁Heracl	-11.5808
▁afectar	-11.5813
▁tea	-11.5814
▁deixaba	-11.5816
▁Xermánic	-11.5816
▁obrigada	-11.582
▁Tempo	-11.582
▁oscilación	-11.5821
▁más	-11.5824
rraca	-11.5828
▁Traba	-11.5829
▁vol	-11.5836
▁narrador	-11.5838
▁Rui	-11.584
▁lente	-11.5843
▁diferencial	-11.5844
▁Chega	-11.5846
▁ábre	-11.5849
eresa	-11.5852
venceu	-11.5853
▁imaxina	-11.586
▁xura	-11.5864
▁cin	-11.5874
▁Pre	-11.5877
▁obradoiro	-11.5877
rtis	-11.5878
ódigo	-11.5879
▁bérber	-11.588
▁constituíndo	-11.588
▁idéntica	-11.588
▁psicolóxico	-11.588
▁vostede	-11.588
▁angular	-11.588
▁mazá	-11.588
▁simbólico	-11.588
▁Award	-11.588
▁xesuíta	-11.588
▁imposta	-11.588
▁Exposición	-11.588
▁pecado	-11.588
▁escudería	-11.588
▁ultramar	-11.588
▁montaxe	-11.5881
▁fuga	-11.5881
▁Memoria	-11.5881
▁galiña	-11.5882
▁correspondía	-11.5883
▁potas	-11.5885
▁gravitaciona	-11.5885
▁resultaba	-11.5887
▁subida	-11.5887
▁pecha	-11.5891
SM	-11.5891
▁Sacra	-11.5891
▁raia	-11.5892
▁invitado	-11.5892
▁puxer	-11.5895
▁Kant	-11.5897
▁roca	-11.5908
are	-11.5909
▁construtores	-11.591
▁helio	-11.5912
▁realizaba	-11.5913
▁Mol	-11.5913
▁academia	-11.5913
▁Revolucionari	-11.5917
historia	-11.5921
bor	-11.5926
▁proporcionan	-11.5934
▁elixe	-11.594
▁fixar	-11.5942
esenvolvemento	-11.5942
▁operar	-11.5943
▁creá	-11.5943
▁comercializa	-11.5943
▁Dü	-11.5945
▁miner	-11.5945
▁Fala	-11.5947
▁chegado	-11.5948
▁aleta	-11.5949
bio	-11.595
▁vende	-11.5953
▁Stephen	-11.5955
▁alicerce	-11.5955
▁comprendida	-11.5955
▁elefante	-11.5955
▁longametraxe	-11.5955
▁taboleiro	-11.5955
▁calcaria	-11.5955
▁Presidencia	-11.5955
▁Comerci	-11.5955
▁Moldav	-11.5955
▁mentais	-11.5955
▁Toyot	-11.5956
▁doente	-11.596
▁inclusión	-11.5963
▁Bria	-11.5963
▁Tale	-11.5964
anxo	-11.5971
▁alimentar	-11.598
▁François	-11.5981
▁atravesar	-11.5982
rredor	-11.5984
▁Apolo	-11.5987
▁Sudá	-11.5988
▁Ali	-11.5989
▁engadi	-11.599
▁Anna	-11.5993
▁arque	-11.5995
rquitectura	-11.5999
proximada	-11.5999
▁xerado	-11.6002
▁superan	-11.6005
▁Jan	-11.6005
▁dono	-11.6011
pulo	-11.6025
▁persegui	-11.6028
quisición	-11.6031
▁botánica	-11.6031
▁colisión	-11.6031
▁idéntico	-11.6031
▁nocturna	-11.6031
▁planicie	-11.6031
▁expectativa	-11.6031
▁introduce	-11.6031
▁dúo	-11.6031
▁instituciona	-11.6032
▁consciencia	-11.6032
▁milita	-11.6033
▁destacable	-11.6034
▁Portela	-11.6037
▁Especial	-11.6038
▁cabra	-11.6039
▁Fá	-11.6042
▁Liña	-11.6046
▁controlaba	-11.6046
▁praga	-11.6047
▁valeu	-11.6048
▁executar	-11.6048
▁rap	-11.6051
▁mérito	-11.6052
▁vectoria	-11.6055
quitan	-11.6055
▁datada	-11.6056
▁implicado	-11.6056
ócrat	-11.6058
▁subsisten	-11.6061
NA	-11.6065
organ	-11.6069
▁oficio	-11.6075
tain	-11.6079
▁Eul	-11.608
▁informa	-11.6082
▁puidera	-11.6083
how	-11.6086
▁Hé	-11.6088
▁reúne	-11.6093
ep	-11.6095
▁depender	-11.6095
▁admiti	-11.6104
▁anarquis	-11.6104
▁Natura	-11.6105
▁maiúscula	-11.6107
▁subtropica	-11.6107
▁Vladimir	-11.6107
▁Uxí	-11.6108
▁espiña	-11.6108
▁canteira	-11.6109
▁Jazz	-11.6109
▁administrada	-11.611
▁falso	-11.611
tela	-11.6111
▁acusa	-11.6113
▁vencido	-11.6114
mad	-11.6116
ring	-11.6121
▁residi	-11.6122
▁Euro	-11.6122
▁policia	-11.6125
▁Les	-11.6128
▁African	-11.613
ario	-11.6135
▁Torne	-11.6137
▁Deza	-11.6137
▁indi	-11.6139
▁autovía	-11.6139
▁investigar	-11.6142
▁fracción	-11.6147
▁visua	-11.6151
▁God	-11.6154
▁encontrou	-11.6155
▁brut	-11.6155
ave	-11.6159
ixo	-11.6161
▁analizar	-11.617
▁recibida	-11.6176
▁Miran	-11.6176
▁establéce	-11.6184
▁trasláda	-11.6184
▁aleatoria	-11.6184
▁demócrata	-11.6184
▁ecolóxico	-11.6184
▁parecida	-11.6184
▁Abraham	-11.6184
▁estraña	-11.6184
▁estímulo	-11.6184
▁eliminatoria	-11.6184
▁pronome	-11.6184
alf	-11.6184
▁dourada	-11.6185
▁costeiro	-11.6185
▁ensinar	-11.6185
▁prohibida	-11.6186
▁textura	-11.6186
▁Lope	-11.6186
▁Fale	-11.6186
▁repetición	-11.6188
▁pelota	-11.6189
▁comparado	-11.619
▁durar	-11.619
▁cachot	-11.619
▁patrona	-11.6191
▁colocada	-11.6192
▁lenzo	-11.6192
▁poñendo	-11.6194
úde	-11.6196
▁crucia	-11.6196
▁Froila	-11.62
side	-11.62
iña	-11.6201
▁disolveu	-11.6203
▁apreciar	-11.6208
▁sufrimento	-11.6213
▁Salmo	-11.6213
▁lidera	-11.6232
pureza	-11.6238
▁Amb	-11.624
nsito	-11.6242
▁negocia	-11.6243
OS	-11.6244
▁repetir	-11.6247
▁reflecti	-11.6251
▁adic	-11.6252
▁indu	-11.6253
▁Matt	-11.6254
▁Brun	-11.6258
mb	-11.6259
▁Elvi	-11.6261
▁High	-11.6261
icaragua	-11.6262
▁atributo	-11.6262
▁inspirou	-11.6262
▁reflexo	-11.6262
▁promotor	-11.6262
▁proposición	-11.6262
▁troll	-11.6262
▁Virgin	-11.6263
▁ceder	-11.6264
pones	-11.6264
▁acta	-11.6264
▁Bruc	-11.6264
rovenza	-11.6266
▁transmite	-11.627
▁Carte	-11.6272
bula	-11.6273
▁How	-11.6274
▁chaman	-11.6274
▁pretendente	-11.6278
rque	-11.6278
▁mosca	-11.628
eta	-11.6281
▁xitano	-11.6281
▁compostelá	-11.6288
▁comezara	-11.6291
rsal	-11.6292
ucho	-11.6298
tru	-11.6314
▁Pal	-11.6321
bro	-11.6323
▁mol	-11.6327
▁Victor	-11.6328
▁ampliar	-11.6333
▁deixara	-11.6333
▁acústica	-11.634
▁agulla	-11.634
▁alusión	-11.634
▁harmonía	-11.634
▁xemelgo	-11.634
▁feixe	-11.634
▁embarazo	-11.634
lmí	-11.634
▁EEUU	-11.634
▁abastece	-11.634
▁salientable	-11.634
▁exacto	-11.634
▁busco	-11.6341
▁Oficial	-11.6341
▁diamante	-11.6342
▁Syd	-11.6342
▁toque	-11.6343
▁Hart	-11.6343
▁minúscula	-11.6346
▁necesitaba	-11.6347
▁anda	-11.6349
▁Sit	-11.6352
▁chegara	-11.6352
▁indicador	-11.6354
bondo	-11.6354
corporal	-11.6358
▁Sub	-11.6366
▁neoclásico	-11.6368
▁fito	-11.6374
▁multiplica	-11.638
▁virxe	-11.6382
om	-11.6382
▁coller	-11.6386
ova	-11.6388
▁precisaba	-11.6388
▁Russel	-11.6389
PS	-11.6392
▁ostenta	-11.6394
nor	-11.6394
▁impreso	-11.6395
▁Valent	-11.6397
▁Vivi	-11.64
▁pra	-11.64
eclaración	-11.6404
eficiencia	-11.6404
tía	-11.6404
▁previ	-11.6406
▁mencionar	-11.641
ly	-11.6412
▁acabaría	-11.6412
▁Pila	-11.6413
▁reduci	-11.6415
▁Hon	-11.6415
cidio	-11.6418
▁correspónde	-11.6419
▁acorde	-11.6419
▁almacén	-11.6419
▁economista	-11.6419
▁hórreo	-11.6419
▁enerxético	-11.6419
▁pilota	-11.6419
▁comprendido	-11.6419
▁Drive	-11.6419
▁ferroviario	-11.6419
▁sabio	-11.6419
uwat	-11.6419
▁billón	-11.6419
▁dianteira	-11.642
lie	-11.642
▁escribía	-11.6421
▁restablece	-11.6421
▁encarcerado	-11.6422
▁vestido	-11.6422
por	-11.6422
▁cruzamento	-11.6425
▁aspiración	-11.6426
▁tipoloxía	-11.6426
▁suceder	-11.6428
▁frontal	-11.6429
▁tectónica	-11.6429
▁asentar	-11.6432
▁entregar	-11.6434
▁incorporado	-11.6435
▁cobra	-11.6443
▁critica	-11.6444
▁Pla	-11.6445
▁contracción	-11.645
ania	-11.6458
▁moderniza	-11.6466
iterio	-11.6466
▁estendía	-11.6466
▁noven	-11.6471
▁cabal	-11.6472
pica	-11.6474
▁Han	-11.6478
▁240	-11.6479
▁apunta	-11.648
▁Vilal	-11.6481
▁cortes	-11.6483
lica	-11.6484
lot	-11.6486
ilán	-11.6487
▁xuda	-11.6488
▁102	-11.649
▁estabelece	-11.6491
▁Nado	-11.6495
▁estelar	-11.6497
▁Acordo	-11.6498
▁Mongol	-11.6498
▁déficit	-11.6498
▁pertenza	-11.6498
▁rehabilita	-11.6498
▁túmulo	-11.6498
▁dignidade	-11.6498
cotiledón	-11.6498
▁diagnóstico	-11.6498
▁simbólica	-11.6498
▁Balear	-11.6498
▁Bouza	-11.6498
▁térmico	-11.6498
▁globo	-11.6498
▁involucrado	-11.65
▁desorde	-11.65
▁aproveitou	-11.65
▁Trini	-11.6502
▁anime	-11.6502
ove	-11.6503
▁Tai	-11.6506
▁xadre	-11.6506
▁galardoado	-11.6519
ich	-11.6521
eth	-11.6523
▁codifica	-11.6526
▁Gor	-11.6529
▁emigr	-11.6533
▁Bai	-11.6547
▁Arco	-11.655
▁mostraba	-11.6551
má	-11.6552
▁reforzar	-11.6552
▁Old	-11.6562
▁Barca	-11.6565
▁Mé	-11.6569
mann	-11.657
mira	-11.6572
▁Berengue	-11.6576
ímetro	-11.6577
púsc	-11.6578
▁Ortega	-11.6578
▁atinxe	-11.6578
▁informou	-11.6578
▁pescador	-11.6578
▁razoamento	-11.6578
troit	-11.6578
▁Kennedy	-11.6578
▁bélico	-11.6578
▁Benjam	-11.6578
▁valenciano	-11.6579
▁vinculada	-11.6579
lase	-11.6584
▁seareiro	-11.6585
▁incorporada	-11.6586
▁fotógrafo	-11.6587
▁Mill	-11.6589
▁Bada	-11.659
rati	-11.659
▁estreada	-11.659
▁asesor	-11.6591
sburgo	-11.6593
▁cazadores	-11.6595
▁crédito	-11.6595
▁divorcio	-11.6596
▁casada	-11.6596
▁Entro	-11.6596
▁atacado	-11.6597
▁diferenciado	-11.6598
▁ingresa	-11.66
▁manex	-11.6601
gard	-11.6606
▁fosfato	-11.6611
▁administrado	-11.6612
uma	-11.6614
▁Feder	-11.6616
▁vertica	-11.6618
▁cargada	-11.6621
▁simplifica	-11.6622
reb	-11.6626
▁Mart	-11.6628
▁educado	-11.6631
▁merece	-11.6631
▁tarda	-11.6633
▁intervir	-11.6635
▁considerábe	-11.6636
▁adicou	-11.6642
aspar	-11.6644
▁provocan	-11.665
vin	-11.6653
▁ecolox	-11.6654
▁solicit	-11.6655
▁voluntaria	-11.6659
▁Papúa	-11.6659
▁preferente	-11.6659
▁emenda	-11.6659
▁Hayd	-11.6659
edalla	-11.6659
▁Gilbert	-11.6662
▁abella	-11.6662
aquela	-11.6662
▁prioridade	-11.6663
▁servid	-11.6664
idas	-11.6665
▁Bow	-11.6667
ber	-11.667
▁Puerto	-11.667
▁rompe	-11.6674
▁Salt	-11.6677
lacant	-11.6678
▁ascendente	-11.6679
▁terma	-11.6681
▁limpa	-11.6682
▁ped	-11.6688
matou	-11.6689
▁Chap	-11.6689
doría	-11.6691
▁Aquile	-11.6695
ima	-11.6695
▁embaixada	-11.6696
▁eslava	-11.6699
▁Xud	-11.6702
▁resistir	-11.6704
▁Eix	-11.6716
▁Nick	-11.6717
▁expandir	-11.6718
▁estoup	-11.6718
▁agricultor	-11.6719
▁expulsar	-11.6723
erra	-11.6723
ello	-11.6725
▁autob	-11.6728
▁Luci	-11.673
▁intermedia	-11.6739
▁Cri	-11.674
▁Iniciou	-11.674
▁camisola	-11.674
▁fonético	-11.674
▁intestino	-11.674
▁maioritario	-11.674
▁mixto	-11.674
▁whisk	-11.674
▁rostro	-11.674
▁falcón	-11.674
▁abreviatura	-11.674
▁enquisa	-11.674
▁australiana	-11.674
▁Chámase	-11.674
▁biodi	-11.674
wan	-11.674
rnst	-11.674
▁Church	-11.6741
▁atribuído	-11.6741
▁uva	-11.6742
▁pozo	-11.6748
▁compartido	-11.675
▁prestixioso	-11.6752
ván	-11.6754
▁Belé	-11.6758
▁indoeuropeo	-11.676
▁curmán	-11.6761
▁levantar	-11.6762
▁Pequ	-11.6764
▁crean	-11.6776
▁carte	-11.6777
▁leira	-11.6777
▁incrementou	-11.678
▁Ger	-11.6782
▁volven	-11.6783
▁cultivado	-11.6784
▁Corre	-11.6785
▁Ved	-11.6791
▁cloro	-11.6792
composición	-11.6795
den	-11.6797
▁talla	-11.6797
▁Carra	-11.6804
▁coinciden	-11.6805
▁dispers	-11.6805
servatorio	-11.6807
▁Camil	-11.6811
uck	-11.6811
▁Oro	-11.6814
▁luce	-11.6816
▁Mercur	-11.6816
▁bebé	-11.6822
▁catástrofe	-11.6822
▁húngara	-11.6822
▁prexuízo	-11.6822
▁subxénero	-11.6822
▁arquitectónica	-11.6822
▁Crónica	-11.6822
▁Studio	-11.6822
▁8,	-11.6822
▁envío	-11.6823
▁incapa	-11.6827
▁fi	-11.6827
▁Fide	-11.6827
obio	-11.6828
▁Caraca	-11.6829
▁ancián	-11.683
▁xurado	-11.6832
▁marcar	-11.6833
▁influído	-11.6835
▁circun	-11.6838
▁fórma	-11.6839
liz	-11.6841
▁documentada	-11.6841
▁orientado	-11.6844
war	-11.6849
▁comporta	-11.6849
#	-11.6853
llas	-11.6859
▁Atene	-11.6861
▁asasinar	-11.6866
▁resultan	-11.6867
ller	-11.6869
▁Hous	-11.6869
▁Emilia	-11.687
villa	-11.6873
▁compostelán	-11.6877
síntese	-11.6878
▁Zen	-11.6879
anario	-11.6882
remos	-11.6882
▁pinta	-11.6884
▁polaca	-11.6886
▁Parada	-11.6887
▁comprar	-11.6888
▁cir	-11.689
nocenci	-11.6896
bertura	-11.6896
▁Lot	-11.6896
nesse	-11.6899
▁estará	-11.6901
róximo	-11.6903
▁represénta	-11.6904
▁Izquierd	-11.6904
▁botánico	-11.6904
▁distintivo	-11.6904
▁estendé	-11.6904
▁triangular	-11.6904
▁estético	-11.6905
▁inflúe	-11.6905
▁equipado	-11.6905
▁Machine	-11.6905
▁prominente	-11.6905
▁Vanua	-11.6905
▁mexicana	-11.6905
▁perseguido	-11.6906
▁colega	-11.6907
▁procedía	-11.6907
▁alza	-11.6908
▁esquí	-11.6909
▁horario	-11.6912
▁Johns	-11.6912
▁depredador	-11.6912
▁boi	-11.6913
▁mesturado	-11.6913
▁Ronald	-11.6914
▁suprem	-11.6918
▁napoleónica	-11.6918
ágora	-11.6919
▁Cente	-11.6919
guía	-11.692
q	-11.6924
▁Belgra	-11.6924
▁tango	-11.6925
▁ampliou	-11.6926
▁ritual	-11.6934
▁Interes	-11.6946
▁trá	-11.6949
▁Anto	-11.6949
▁celebrá	-11.6952
▁queren	-11.6954
▁Villar	-11.6961
▁reprodutora	-11.6961
▁Parti	-11.6963
▁esixi	-11.6966
▁Q	-11.6967
▁crías	-11.6967
▁cortar	-11.6967
▁Licenciad	-11.697
▁And	-11.6974
▁lun	-11.6975
lismo	-11.6977
▁Fara	-11.6987
▁dialecta	-11.6988
▁exercía	-11.6988
▁compartía	-11.6988
▁han	-11.6988
▁roubo	-11.6988
▁recorda	-11.6988
▁tambor	-11.6988
▁Hä	-11.6989
▁Puebl	-11.6989
▁Open	-11.699
▁Savo	-11.6991
▁cabelo	-11.6991
▁indicio	-11.6991
▁dotado	-11.6991
▁defenden	-11.6993
▁Mendo	-11.6994
▁obrigatorio	-11.6996
ambul	-11.6999
sentimento	-11.7
iev	-11.7003
▁sonda	-11.7003
▁listaxe	-11.7004
▁Clark	-11.7005
▁Barc	-11.7005
▁Let	-11.7006
▁Cale	-11.7013
▁fóron	-11.7014
▁sobresae	-11.7022
▁Das	-11.7023
▁Corn	-11.704
DE	-11.7046
ufra	-11.7049
▁funcionan	-11.705
▁220	-11.7053
▁Ko	-11.7055
▁neo	-11.7056
nesia	-11.7056
▁Gañ	-11.7057
razo	-11.7057
▁pane	-11.7057
pano	-11.706
▁Árabe	-11.7061
▁prob	-11.7065
▁feminis	-11.707
▁Nai	-11.707
{	-11.7072
▁cronista	-11.7072
▁hóspede	-11.7072
▁periférico	-11.7072
▁ribosoma	-11.7072
▁variábe	-11.7072
▁recto	-11.7072
▁clasifíca	-11.7072
▁Evanxeo	-11.7072
▁disposta	-11.7072
▁interferencia	-11.7072
▁urbanización	-11.7072
▁prevista	-11.7073
▁proviña	-11.7073
▁adicada	-11.7073
▁tardía	-11.7077
▁compartida	-11.7077
onostia	-11.7077
mir	-11.7078
▁Lanza	-11.7084
▁prohibiu	-11.7085
▁novidade	-11.7086
eto	-11.7091
▁obsérva	-11.7093
▁atender	-11.7098
▁pagán	-11.7102
▁acabado	-11.7103
▁botar	-11.7105
▁Cat	-11.7106
▁Clo	-11.711
▁Vers	-11.7111
▁vocal	-11.7112
▁Cup	-11.7113
▁bilingüe	-11.7114
▁parasito	-11.7115
▁mercar	-11.7117
▁escritorio	-11.7119
▁fixese	-11.7119
▁ensina	-11.712
aba	-11.7124
▁Suda	-11.7129
▁practicar	-11.7132
▁Cels	-11.7137
▁envia	-11.714
▁gañado	-11.7142
▁Dona	-11.7144
▁Barrio	-11.7145
▁Cob	-11.7147
▁predominan	-11.7147
▁efectivos	-11.7148
▁nu	-11.7148
▁Comun	-11.7149
▁recorre	-11.715
▁lix	-11.7152
▁escríbe	-11.7157
▁anglosaxón	-11.7157
▁extremidade	-11.7157
▁hidroeléctrica	-11.7157
▁psicolóxica	-11.7157
▁vacú	-11.7157
▁Química	-11.7157
▁pesqueira	-11.7157
▁máscara	-11.7157
hídrico	-11.7157
ércul	-11.7157
▁resonancia	-11.7157
▁pórtico	-11.7157
▁atribuída	-11.7157
▁expreso	-11.7158
▁Flore	-11.7158
▁Igna	-11.7163
▁Band	-11.7164
▁combinada	-11.7164
▁glaciación	-11.7168
▁dianteiro	-11.7173
▁qué	-11.7174
▁emocional	-11.7175
▁dálle	-11.7175
rixid	-11.7178
▁restaura	-11.718
▁Camba	-11.718
▁conversación	-11.7183
esta	-11.7191
▁achegado	-11.7191
▁Philip	-11.7195
▁Barri	-11.7199
ví	-11.72
▁habe	-11.7201
▁rexistrou	-11.7203
goña	-11.7204
▁causante	-11.7204
▁caca	-11.7213
▁biomas	-11.7218
▁Ris	-11.7219
▁FA	-11.722
▁servi	-11.7221
▁Pond	-11.7225
▁procesador	-11.7234
▁inmedia	-11.7239
▁fascis	-11.724
▁Empréga	-11.7242
▁coloquial	-11.7242
▁Lincoln	-11.7242
▁ameixa	-11.7242
▁compilación	-11.7242
▁ladrillo	-11.7242
▁reclamo	-11.7242
▁recompensa	-11.7242
▁burro	-11.7242
▁Depende	-11.7242
▁agrario	-11.7242
▁formá	-11.7243
▁Semana	-11.7243
▁Area	-11.7245
▁directiva	-11.7246
ML	-11.7247
▁contradición	-11.725
▁voa	-11.7251
▁Tok	-11.7251
▁Riba	-11.7252
▁747	-11.7253
▁103	-11.7254
▁Turí	-11.7263
▁deter	-11.7264
▁Pala	-11.7264
▁Hawk	-11.7265
▁reacciona	-11.7269
▁pide	-11.7271
▁restaurado	-11.7272
▁Dun	-11.7272
▁Porque	-11.7273
▁inaugurad	-11.7274
▁Feira	-11.728
▁preguntas	-11.7282
▁unificado	-11.7285
▁rexistra	-11.7287
ouri	-11.7287
udh	-11.7289
chel	-11.729
▁empera	-11.7295
▁cór	-11.7296
kin	-11.7298
▁Angeles	-11.7303
▁falo	-11.7309
▁Pereira	-11.731
ju	-11.7319
▁luxo	-11.7323
▁lexitim	-11.7328
bkhaz	-11.7328
▁Google	-11.7328
▁propicio	-11.7328
ground	-11.7328
▁sublevado	-11.7329
▁Brook	-11.7329
▁milagre	-11.7329
▁impresionista	-11.7329
▁convertida	-11.733
ogh	-11.733
▁Night	-11.7331
▁deseñar	-11.7332
▁mineiro	-11.7334
apitán	-11.7335
▁Agosti	-11.7336
consi	-11.7337
▁emerxente	-11.7338
▁criticado	-11.7338
▁exista	-11.7339
▁Histórico	-11.734
▁mant	-11.7343
▁Eur	-11.7344
illa	-11.7344
▁redactor	-11.7344
enco	-11.7345
▁gobernaba	-11.7356
▁Inclu	-11.7361
▁Pac	-11.7363
▁vea	-11.7364
▁pi	-11.7364
▁Tong	-11.7366
cles	-11.7368
▁indicación	-11.737
▁Seu	-11.737
amba	-11.737
▁vita	-11.738
▁Cha	-11.738
▁pastore	-11.7381
arco	-11.7382
▁Casal	-11.7384
suna	-11.7387
▁quilo	-11.7393
eria	-11.7394
adical	-11.74
▁visi	-11.7402
▁filo	-11.7402
▁Mile	-11.7405
▁coala	-11.7412
▁Colli	-11.7412
éxime	-11.7415
▁amiga	-11.7415
▁McCart	-11.7415
▁Bridge	-11.7415
▁secular	-11.7415
\	-11.7415
▁ecolóxica	-11.7415
▁estuario	-11.7415
▁olímpica	-11.7415
▁detallada	-11.7415
▁Taboad	-11.7415
▁Bryan	-11.7415
▁aborda	-11.7415
▁sentiu	-11.7416
▁marrón	-11.7416
▁veciñanza	-11.7417
▁Herc	-11.742
▁Corpora	-11.7421
▁talle	-11.7426
▁Bag	-11.7428
▁reclama	-11.7431
aliya	-11.7432
uto	-11.7432
▁predomina	-11.7433
▁sanción	-11.7433
▁permitido	-11.7434
▁torna	-11.7435
▁buscan	-11.7435
▁Brad	-11.7437
▁monárquico	-11.7439
hard	-11.744
▁Gö	-11.7442
▁Pand	-11.7443
▁Espart	-11.7447
▁velo	-11.7449
▁101	-11.7451
▁Castill	-11.7452
cc	-11.7454
▁Agu	-11.7455
unt	-11.7459
▁tradutor	-11.7459
▁Austra	-11.7464
▁cru	-11.7465
vora	-11.7466
▁opoñente	-11.7467
▁señoria	-11.7468
cena	-11.7469
▁She	-11.7475
▁oscila	-11.7477
▁fornecer	-11.7493
▁patria	-11.7503
▁Copenhague	-11.7503
▁dinámico	-11.7503
▁enfrontá	-11.7503
▁evolutivo	-11.7503
▁helicóptero	-11.7503
▁insulin	-11.7503
▁monetaria	-11.7503
▁pneumático	-11.7503
▁polímero	-11.7503
▁tecnolóxica	-11.7503
▁válida	-11.7503
▁substrato	-11.7503
ork	-11.7503
▁camión	-11.7503
▁cranio	-11.7503
▁Road	-11.7503
▁Musso	-11.7504
▁sepultura	-11.7504
▁xoia	-11.7506
▁Coto	-11.7506
▁chámaselle	-11.7509
▁Humb	-11.751
▁Peña	-11.751
▁fará	-11.7511
ailand	-11.7512
▁Qui	-11.7517
▁informativo	-11.7518
▁municipalidade	-11.7521
▁evolucionar	-11.7522
▁Tob	-11.7523
▁sumerio	-11.7523
▁Hesse	-11.7523
per	-11.7525
▁Ul	-11.7528
▁lomb	-11.7528
▁estudant	-11.7541
▁Mend	-11.7541
▁episcopa	-11.7543
▁senso	-11.7544
▁Ocup	-11.7545
icios	-11.7545
▁Universit	-11.7546
ang	-11.7549
▁hospita	-11.7549
▁corta	-11.7551
▁Lind	-11.7551
▁holandesa	-11.7552
▁Luz	-11.7553
▁desembarcar	-11.7555
▁centenar	-11.7558
▁Wol	-11.7561
▁Sau	-11.7563
▁aprende	-11.7564
▁Arno	-11.7568
ote	-11.7568
▁imita	-11.7575
▁supoñen	-11.7576
heim	-11.7576
erson	-11.7583
▁Rú	-11.7589
▁permanen	-11.759
▁Singap	-11.7591
▁Xuventude	-11.7591
▁batallón	-11.7591
▁pacífica	-11.7591
▁pianista	-11.7591
▁produza	-11.7591
▁Denomína	-11.7591
ritz	-11.7592
▁complicado	-11.7592
▁fotos	-11.7592
▁erudito	-11.7592
▁Bank	-11.7592
▁postulado	-11.7594
▁Vincen	-11.7595
▁especulación	-11.7595
▁anano	-11.7598
▁conceptual	-11.7598
▁procedencia	-11.7599
erio	-11.7601
▁fino	-11.7604
▁atacada	-11.7609
▁terapia	-11.7616
▁artille	-11.762
rpo	-11.7621
▁Queen	-11.7623
▁empate	-11.7624
toba	-11.7632
▁aprecia	-11.764
dice	-11.764
▁comen	-11.764
▁Pesca	-11.7641
▁competidor	-11.7642
▁paro	-11.7646
▁Jane	-11.7649
▁video	-11.7651
▁desenvolvé	-11.7652
dela	-11.7652
▁pechar	-11.7654
▁envolve	-11.7659
actitude	-11.7661
▁escoll	-11.7666
▁semanal	-11.7666
ES	-11.7667
▁xesto	-11.767
▁cata	-11.767
▁manifestou	-11.7672
▁Hat	-11.7672
▁temor	-11.7673
▁fican	-11.7673
▁cha	-11.7674
ernández	-11.768
▁alegan	-11.768
óptero	-11.7681
▁agresión	-11.7681
▁astronómico	-11.7681
▁carballeira	-11.7681
▁conífera	-11.7681
▁curiosa	-11.7681
▁estrito	-11.7681
▁herexía	-11.7681
▁monopraza	-11.7681
▁necrópole	-11.7681
▁láser	-11.7681
▁líquida	-11.7681
▁rinoceronte	-11.7681
▁receita	-11.7681
ílico	-11.7681
▁adversario	-11.7681
▁terrible	-11.7681
▁arame	-11.7681
▁moble	-11.7681
▁Pastor	-11.7682
▁Aliado	-11.7682
▁xeada	-11.7683
▁procesado	-11.7683
▁tellado	-11.7686
▁Eri	-11.7686
baix	-11.7686
▁conectada	-11.7689
▁arrestado	-11.7689
ches	-11.7691
▁visitado	-11.7698
▁traseira	-11.7702
lsacia	-11.7704
▁reitor	-11.7704
▁Carr	-11.7707
uki	-11.7708
udhon	-11.7714
▁morrera	-11.7721
vais	-11.7722
▁Abe	-11.7724
▁comunicado	-11.7729
▁Berna	-11.7737
cano	-11.7739
▁mo	-11.7739
▁Acer	-11.7748
▁escalar	-11.7754
▁ecuatoria	-11.7757
▁ficar	-11.7758
▁balan	-11.7759
▁desaparecida	-11.7771
▁reparación	-11.7771
▁árbitro	-11.7771
▁complicada	-11.7771
▁suburbio	-11.7771
▁Í	-11.7771
▁colonizado	-11.7771
▁alelo	-11.7772
▁rexemento	-11.7772
▁embrión	-11.7773
▁determinan	-11.7773
▁Ky	-11.7775
▁cuarteto	-11.7775
▁retiro	-11.7776
amaica	-11.7781
▁Good	-11.7782
▁Saú	-11.7782
ferencia	-11.7787
▁galaico	-11.7787
▁remonta	-11.7792
vel	-11.7792
▁métrica	-11.7793
▁Sociedad	-11.7794
▁Obra	-11.7798
▁accidentad	-11.7799
eoría	-11.7802
▁Humano	-11.7806
tila	-11.7807
▁léva	-11.7809
▁xuntar	-11.7809
ndy	-11.7811
▁Loi	-11.7812
▁almacenar	-11.7813
▁Mug	-11.7814
▁facenda	-11.7821
▁ánim	-11.7822
▁fórman	-11.7823
▁convencer	-11.7825
anda	-11.7835
▁Cibr	-11.7836
▁Tit	-11.7836
▁estiv	-11.7837
▁desempeña	-11.7838
▁Dá	-11.7844
▁considéran	-11.7847
▁Had	-11.7857
▁Dur	-11.7859
gen	-11.7859
oalición	-11.7861
▁Court	-11.7862
▁atlántico	-11.7862
▁deformación	-11.7862
▁desafío	-11.7862
▁diabetes	-11.7862
▁neutro	-11.7862
▁permita	-11.7862
▁preparou	-11.7862
▁Chamberl	-11.7862
▁carecía	-11.7862
▁esposo	-11.7862
▁adhesión	-11.7862
▁fermentación	-11.7862
▁funerario	-11.7862
▁neta	-11.7863
▁demostran	-11.7864
▁debuxante	-11.7865
▁lendario	-11.7865
▁Trent	-11.7866
▁Ross	-11.7868
▁semanario	-11.7868
▁tra	-11.7868
▁preparada	-11.7869
▁Tuc	-11.7872
▁convidado	-11.7874
▁Milan	-11.7878
óveda	-11.7878
erkel	-11.7878
▁Mariño	-11.7881
versa	-11.7882
▁Lexi	-11.7885
▁instaura	-11.7886
rote	-11.7888
ódo	-11.7892
tívo	-11.7892
▁gozar	-11.7897
▁centrado	-11.7897
era	-11.7898
MI	-11.7898
▁Mid	-11.7899
▁Gondo	-11.7901
und	-11.7905
▁túa	-11.7911
▁Divers	-11.7917
aixón	-11.792
redo	-11.7923
pest	-11.7934
▁queima	-11.794
biografía	-11.7941
▁ilustra	-11.7942
tras	-11.7948
▁avenida	-11.7948
▁excelen	-11.7951
▁Aquel	-11.7953
▁Coñecid	-11.7953
▁ancestra	-11.7953
▁chamába	-11.7953
▁diacrítico	-11.7953
▁discográfico	-11.7953
▁mandíbula	-11.7953
▁móstra	-11.7953
▁tsunami	-11.7953
▁circunscrición	-11.7953
▁apartamento	-11.7954
▁sensibilidade	-11.7954
▁suplemento	-11.7954
llar	-11.7955
▁abstracta	-11.7955
▁Cruzada	-11.7958
opér	-11.7959
ling	-11.7961
▁sobrevivente	-11.7961
▁Damas	-11.7962
▁Dada	-11.7963
▁carbonato	-11.7965
▁104	-11.7966
▁cós	-11.7966
▁vota	-11.7967
▁barro	-11.7968
▁Anta	-11.7971
euta	-11.7974
▁AP	-11.7982
tanasi	-11.7984
▁anti	-11.7984
▁axudan	-11.7986
▁acordou	-11.7989
▁albanes	-11.7992
▁coñecían	-11.7994
▁viría	-11.7999
▁derrotada	-11.8
mnist	-11.8001
▁Pav	-11.8009
▁saca	-11.8009
▁ensinou	-11.8013
▁Patric	-11.8015
▁Circ	-11.8015
gart	-11.8018
▁Ho	-11.802
▁crente	-11.8026
▁xogaba	-11.8027
K	-11.8028
edro	-11.8037
▁Bri	-11.804
▁pasada	-11.804
once	-11.8043
▁fertili	-11.8044
▁divisor	-11.8046
▁Recibe	-11.8046
▁conxunción	-11.8046
▁endémica	-11.8046
▁proporcionou	-11.8046
▁vulnerable	-11.8046
▁fervenza	-11.8046
▁Comarca	-11.8046
▁ambición	-11.8046
▁gozo	-11.8047
▁creativa	-11.8047
▁transparente	-11.8047
dy	-11.8048
▁transmitida	-11.8049
▁centenario	-11.8049
▁comparada	-11.8049
▁Freire	-11.805
éronlle	-11.8051
▁Great	-11.8053
▁Seg	-11.8055
▁ordenada	-11.8055
vivencia	-11.8055
▁convencido	-11.8055
▁insisti	-11.8055
ara	-11.8056
rdam	-11.8057
▁administrar	-11.8062
lista	-11.8063
ebas	-11.8068
ood	-11.8069
▁Cine	-11.8072
▁óptico	-11.8079
▁trío	-11.8079
▁comezaría	-11.808
▁render	-11.8081
▁prado	-11.8082
▁rexen	-11.8083
▁herd	-11.8085
▁gozaba	-11.8094
▁disputado	-11.81
▁Rome	-11.8102
rxia	-11.8104
▁elabora	-11.8107
▁Mot	-11.8107
▁Informa	-11.8115
uten	-11.8121
▁confia	-11.8125
▁Bab	-11.8135
real	-11.8137
ifac	-11.8138
azán	-11.8139
▁curiosidade	-11.8139
▁únese	-11.8139
▁circundante	-11.8139
▁desgraza	-11.814
▁inercia	-11.814
▁sintético	-11.814
▁céltica	-11.814
▁Freud	-11.814
▁ocorrido	-11.814
▁microscopio	-11.814
▁abstracto	-11.8141
▁foxo	-11.8142
▁cálida	-11.8142
▁cónta	-11.8142
▁Antho	-11.8144
▁peseta	-11.8146
▁Cabra	-11.8146
iè	-11.8147
▁termodinámic	-11.8151
▁coello	-11.8158
rix	-11.8162
ttle	-11.8163
▁Frederic	-11.8164
▁xeométrica	-11.8171
▁Prince	-11.8173
▁paga	-11.8176
▁Caban	-11.8178
▁tím	-11.8182
▁anunciar	-11.8185
▁consolidar	-11.8188
▁Cro	-11.8193
area	-11.8193
▁Pereir	-11.8195
-200	-11.8196
mil	-11.82
▁Ango	-11.8204
com	-11.8206
moción	-11.8207
stone	-11.8211
lido	-11.8213
▁entro	-11.8218
vertebrado	-11.8219
húngaro	-11.8219
continente	-11.8219
▁Ferreir	-11.822
ida	-11.8221
▁Carva	-11.8229
▁franquis	-11.8232
▁Había	-11.8234
▁extraterrestre	-11.8234
▁mascota	-11.8234
▁pesqueiro	-11.8234
▁redonda	-11.8234
▁romántica	-11.8234
▁sinfonía	-11.8234
▁ventá	-11.8234
▁vicerrei	-11.8234
▁prefixo	-11.8234
▁hidrográfica	-11.8234
▁Crític	-11.8234
▁terciario	-11.8234
▁fiable	-11.8234
ip	-11.8234
▁Deporte	-11.8234
▁Josep	-11.8235
▁dedíca	-11.8235
▁pH	-11.8236
▁Labor	-11.8237
▁remoto	-11.8237
lariz	-11.8237
▁silvestre	-11.8238
▁Bus	-11.8239
▁rexionalista	-11.8239
garden	-11.8239
▁Estrela	-11.8241
▁Manet	-11.8241
▁foca	-11.8241
▁transformada	-11.8241
▁aposta	-11.8243
▁observatorio	-11.8244
ER	-11.8247
ttel	-11.8247
▁Ac	-11.825
▁estudada	-11.8253
▁Fire	-11.8254
▁substitúe	-11.8254
▁influír	-11.8255
▁afundi	-11.8256
renal	-11.8256
▁herdeir	-11.8256
▁confirmado	-11.8258
▁abondo	-11.826
unta	-11.8264
▁padece	-11.8266
▁gala	-11.8267
▁viñer	-11.8269
▁cómic	-11.8282
▁Fi	-11.8284
▁Honori	-11.8286
▁Pisto	-11.8288
▁trib	-11.8292
▁soci	-11.8293
▁alcanzan	-11.8296
▁admite	-11.83
tección	-11.8302
▁Saga	-11.8302
▁teu	-11.8302
▁arde	-11.8303
redes	-11.8306
▁Bak	-11.8309
▁Zel	-11.8313
▁perden	-11.8313
inastía	-11.8315
14	-11.8316
lecer	-11.8318
gración	-11.8322
ome	-11.8324
▁desinte	-11.8325
▁rug	-11.8325
ete	-11.8327
▁abdom	-11.8328
írculo	-11.8328
▁Semifina	-11.8329
▁acompañou	-11.8329
▁asegurou	-11.8329
▁austríaca	-11.8329
▁híbrido	-11.8329
▁monstro	-11.8329
▁motivación	-11.8329
▁mítico	-11.8329
▁piscina	-11.8329
▁prehistórico	-11.8329
▁válido	-11.8329
▁incuba	-11.8329
▁marxismo	-11.8329
▁Foot	-11.8331
▁Wiki	-11.8331
▁rendeu	-11.8332
▁Pau	-11.8333
▁CF	-11.8334
▁Main	-11.8335
▁impresionante	-11.8335
▁Atlétic	-11.8337
▁Xén	-11.834
▁compá	-11.834
▁cole	-11.8341
ola	-11.8342
hana	-11.8343
▁Donat	-11.835
▁patrocin	-11.835
▁Dominica	-11.8351
▁xeolox	-11.8351
▁deteriora	-11.8354
▁Alma	-11.8354
▁Song	-11.8363
è	-11.8371
▁achar	-11.8374
errocarril	-11.8376
▁come	-11.8377
▁denso	-11.8378
▁produtiv	-11.838
▁seda	-11.838
▁icon	-11.8381
▁Cristian	-11.8381
▁Salced	-11.8383
▁presta	-11.8383
▁detención	-11.8389
▁retroce	-11.8393
▁Salón	-11.8394
▁face	-11.8396
▁Blo	-11.8399
video	-11.8412
▁Correo	-11.8412
concerto	-11.8412
▁Sou	-11.8421
▁galeguis	-11.8423
▁protagonis	-11.8423
▁folcl	-11.8425
▁bolboreta	-11.8425
▁compañeira	-11.8425
▁confesión	-11.8425
▁desacordo	-11.8425
▁referida	-11.8425
▁tiburón	-11.8425
▁vértice	-11.8425
▁pelexa	-11.8425
▁solicitar	-11.8426
▁Muller	-11.8426
▁Phil	-11.8426
▁humanista	-11.8426
▁carencia	-11.8426
▁interesou	-11.8426
▁colle	-11.8427
▁agrupa	-11.8427
▁poemario	-11.8428
▁maxistrado	-11.8429
▁socialdemócrata	-11.8429
rús	-11.8437
rake	-11.8438
cado	-11.8442
▁construíndo	-11.8443
▁dominaba	-11.8447
▁liberada	-11.8449
▁formig	-11.8451
▁Globo	-11.8453
▁encontraba	-11.8453
▁reconstruí	-11.8454
▁Fermi	-11.8464
▁cargado	-11.8466
▁dezase	-11.8467
▁pedi	-11.8469
▁suprimi	-11.8472
bón	-11.8478
ceos	-11.8489
▁bio	-11.8491
▁apoder	-11.8493
▁Ay	-11.8493
▁escur	-11.8494
▁aprobar	-11.8497
▁organizador	-11.8498
▁Alg	-11.85
▁ampliad	-11.85
▁Fam	-11.8503
iens	-11.8504
▁Chao	-11.8505
▁pilas	-11.8507
▁Marian	-11.8511
▁cadra	-11.8513
▁provocado	-11.8518
▁magnet	-11.852
ealth	-11.8521
▁Christoph	-11.8522
▁entusiasm	-11.8522
▁estómago	-11.8522
▁flamenc	-11.8522
▁minoritaria	-11.8522
▁móve	-11.8522
▁rupestre	-11.8522
▁lugu	-11.8522
▁aborixe	-11.8522
▁casual	-11.8522
▁extinta	-11.8522
▁fermoso	-11.8522
▁solidari	-11.8522
▁bautism	-11.8522
▁predición	-11.8523
▁Programa	-11.8523
▁afiliado	-11.8523
▁Cabaleiro	-11.8523
▁modernista	-11.8524
▁Chad	-11.8524
▁surrealista	-11.8524
▁xenr	-11.8525
▁Light	-11.8525
▁instalada	-11.8526
▁restaurada	-11.8527
▁Ferr	-11.8528
▁triste	-11.8528
unqueira	-11.8529
▁pintada	-11.8529
▁voceiro	-11.8531
▁reina	-11.8531
▁determinou	-11.8532
▁Joy	-11.8532
▁Infante	-11.8533
▁mensual	-11.8534
▁mansión	-11.8534
▁sonata	-11.8537
▁autoriza	-11.854
molo	-11.8541
▁comparar	-11.8542
▁probou	-11.8544
▁federa	-11.8546
▁Quiz	-11.855
amboxa	-11.8554
▁Dam	-11.856
▁aumentan	-11.8562
▁tard	-11.8565
▁impar	-11.8567
visión	-11.8567
zaro	-11.8571
▁conectar	-11.8574
▁Xordan	-11.8574
▁Lá	-11.8578
▁obvia	-11.8581
rros	-11.8588
▁tornar	-11.8589
▁pá	-11.8592
▁ci	-11.8593
▁Mach	-11.8594
▁actuaba	-11.8594
▁marxina	-11.8611
▁cente	-11.8613
▁inaugurada	-11.8613
▁patro	-11.8614
▁renomead	-11.8614
▁practicante	-11.8615
▁PN	-11.8618
▁prefect	-11.8619
▁Dream	-11.862
▁cinematográfico	-11.862
▁controvertido	-11.862
▁retirá	-11.862
▁rochosa	-11.862
▁violoncell	-11.862
▁invernadoiro	-11.862
▁dolmen	-11.862
▁lípido	-11.862
▁numérico	-11.862
▁quark	-11.862
▁enerxética	-11.862
▁unitario	-11.862
▁alongada	-11.862
▁Owen	-11.8621
▁filtro	-11.8621
▁tinta	-11.8621
▁tumor	-11.8621
▁ausente	-11.8622
▁xuntanza	-11.8623
▁celo	-11.8624
carta	-11.8624
grama	-11.8624
▁Dé	-11.8626
▁liso	-11.8626
▁accidental	-11.8629
▁optou	-11.8632
▁preferido	-11.8633
ioquí	-11.8635
hans	-11.8636
▁cartaxines	-11.8637
▁imperia	-11.8637
▁737	-11.8638
tex	-11.864
▁compro	-11.8656
▁dist	-11.8658
▁caen	-11.8661
▁particularidade	-11.8663
iñas	-11.8663
▁corvo	-11.8663
robable	-11.8663
▁exercida	-11.8664
▁despedido	-11.8665
▁histori	-11.8671
▁araña	-11.8676
yd	-11.8677
▁Blu	-11.8679
▁Too	-11.8679
▁Punt	-11.8681
▁maia	-11.8687
▁infanta	-11.8691
▁Pon	-11.8696
mencl	-11.8708
▁cuántico	-11.8712
▁ref	-11.8714
▁Heid	-11.8718
▁Eurocopa	-11.8719
▁cabina	-11.8719
▁clarinete	-11.8719
▁intoxicación	-11.8719
▁limítrofe	-11.8719
▁meteorolóxica	-11.8719
▁néboa	-11.8719
▁nórdica	-11.8719
▁plaqueta	-11.8719
▁tripulante	-11.8719
▁Again	-11.8719
▁Intel	-11.872
▁brando	-11.8721
▁Barba	-11.8723
▁li	-11.8724
▁Tíbe	-11.8724
▁abondosa	-11.8725
▁estaleiro	-11.8726
▁gandeira	-11.8726
▁enseada	-11.8726
▁imparti	-11.8727
▁crego	-11.8727
▁hemo	-11.8727
iffe	-11.8728
rís	-11.8728
▁estudaba	-11.8728
quino	-11.8728
▁inestable	-11.8728
▁observada	-11.8729
▁materno	-11.8732
▁magne	-11.8734
▁estimado	-11.8735
▁neerlandes	-11.8736
xenx	-11.8739
▁situou	-11.874
▁imitación	-11.874
▁coca	-11.874
▁Jud	-11.8742
▁cria	-11.8742
▁disputada	-11.8748
▁Vermell	-11.8749
▁reorganiza	-11.8751
▁dificulta	-11.8751
-5	-11.8753
▁Histor	-11.8756
▁Estudio	-11.8758
ming	-11.876
scape	-11.8761
▁esquecer	-11.8761
▁marcador	-11.8761
azor	-11.8761
▁estepa	-11.8763
cencia	-11.8766
▁ist	-11.8768
▁chá	-11.8768
▁pensan	-11.8774
ixón	-11.8777
alencia	-11.8777
derram	-11.8786
ef	-11.8788
▁boxe	-11.8791
▁integr	-11.8795
▁somete	-11.8799
▁Edd	-11.88
▁Sist	-11.8802
violeta	-11.8809
▁reivindica	-11.881
goberno	-11.881
alta	-11.8811
rrección	-11.8812
nome	-11.8812
PL	-11.8814
▁Act	-11.8819
▁Caracteríza	-11.8819
▁Precisa	-11.8819
▁agasallo	-11.8819
▁camiseta	-11.8819
▁descríbe	-11.8819
▁enfrónta	-11.8819
▁enterramento	-11.8819
▁imposíbe	-11.8819
▁inimiga	-11.8819
▁interrupción	-11.8819
▁menstrua	-11.8819
▁orgánulo	-11.8819
▁rochoso	-11.8819
▁tórna	-11.8819
▁cabid	-11.8819
▁articulación	-11.882
▁comisario	-11.882
tío	-11.882
▁Cornell	-11.882
▁Tosca	-11.8821
▁faceta	-11.8822
▁Obtiv	-11.8822
▁trasladada	-11.8823
▁transferido	-11.8824
▁sumar	-11.8824
▁Toro	-11.8826
xano	-11.8828
▁consagrado	-11.8828
▁renome	-11.8828
▁Lice	-11.8829
▁pintado	-11.8831
▁Luter	-11.8833
▁Debut	-11.8834
▁sito	-11.8834
▁carecen	-11.8834
▁recomendación	-11.8836
zbe	-11.8838
▁identificada	-11.8838
▁esloveno	-11.8838
▁bloqueo	-11.8839
▁cicl	-11.8839
ern	-11.884
▁proceder	-11.8846
▁Rich	-11.8848
▁contrasta	-11.8848
zaret	-11.8853
▁achegan	-11.8855
▁grel	-11.8858
▁anotador	-11.8861
▁confirmar	-11.8861
▁consisten	-11.8863
▁Film	-11.8865
iami	-11.8866
▁asimila	-11.8869
▁Tesal	-11.887
▁cubo	-11.8874
▁Toma	-11.8875
▁clar	-11.8885
▁Petr	-11.8886
▁fero	-11.8888
▁Mat	-11.8888
rabo	-11.8889
▁daría	-11.8891
▁evacua	-11.8896
▁entraba	-11.8897
gán	-11.8901
▁certame	-11.8901
▁Monterre	-11.8908
dicional	-11.891
▁faino	-11.8912
▁Saxonia	-11.892
▁cardíaco	-11.892
▁evanxeo	-11.892
▁inventado	-11.892
▁recoñecía	-11.892
▁audición	-11.892
▁divisa	-11.892
▁extinto	-11.892
▁fortalece	-11.892
▁raposo	-11.892
▁Arquivo	-11.8921
▁apropiado	-11.8921
▁vasta	-11.8921
brida	-11.8921
▁berro	-11.8921
▁penalti	-11.8921
▁repoboa	-11.8922
pedia	-11.8922
▁milímetro	-11.8922
pintar	-11.8922
▁Conserva	-11.8922
▁Morris	-11.8922
ambi	-11.8923
onverteu	-11.8925
▁ofrecía	-11.8927
▁vibración	-11.8927
▁cera	-11.8928
▁Axi	-11.8928
ylor	-11.893
▁sonoro	-11.8935
▁Méri	-11.8937
▁capturada	-11.8938
▁encarna	-11.8938
▁feliz	-11.8943
▁graduou	-11.8948
▁cinc	-11.8953
xestión	-11.8955
▁úsan	-11.8958
▁perdera	-11.8963
mática	-11.8968
▁recae	-11.8969
▁Lev	-11.897
▁Naval	-11.8972
▁funcionaba	-11.8975
fal	-11.8978
▁aragon	-11.8979
con	-11.8982
urio	-11.8983
▁vinga	-11.8983
▁termin	-11.8983
▁Cam	-11.8991
MA	-11.8991
▁Verd	-11.8992
▁avanz	-11.8995
▁Moren	-11.8997
▁Fall	-11.8999
▁mercante	-11.9003
▁xestiona	-11.9005
ui	-11.9006
▁consagra	-11.901
lav	-11.9012
▁Esp	-11.9013
▁Constituci	-11.9013
▁conseguira	-11.9018
▁Vim	-11.9019
ategoría	-11.9022
▁transportado	-11.9022
▁mártir	-11.9022
▁semicircular	-11.9022
▁combustíbe	-11.9022
▁comprendía	-11.9022
▁logaritmo	-11.9022
▁nebulosa	-11.9022
▁parcela	-11.9022
▁lagarto	-11.9022
▁convocatoria	-11.9022
▁súpe	-11.9022
▁Euskadi	-11.9023
▁charla	-11.9023
tski	-11.9024
▁malaria	-11.9025
▁molde	-11.9025
▁imaxinario	-11.9025
▁transmitido	-11.9029
▁Tex	-11.9032
▁ascendido	-11.9033
▁xusta	-11.9033
▁Hunt	-11.9034
▁cronolox	-11.9035
▁resalta	-11.9036
▁cosmo	-11.9037
▁executa	-11.9039
▁significante	-11.9039
▁Gate	-11.904
▁avaliación	-11.904
▁Gome	-11.9042
▁Claud	-11.9044
▁Ordo	-11.9049
lada	-11.9051
lsto	-11.9051
▁Margar	-11.9052
▁Kell	-11.9055
▁Johan	-11.9057
▁bote	-11.9057
▁responden	-11.9059
rase	-11.9059
▁Administrativa	-11.906
can	-11.9063
lio	-11.9063
py	-11.9068
▁Maga	-11.9079
▁derivan	-11.908
▁axudado	-11.9082
▁levanta	-11.9085
▁autora	-11.9088
▁Der	-11.909
▁dupl	-11.9091
▁Histori	-11.9092
▁Fox	-11.9096
dore	-11.9096
▁xurdido	-11.9098
▁Brai	-11.9099
rtiza	-11.9099
▁Az	-11.9108
etaf	-11.9113
▁elaborou	-11.9113
▁Pin	-11.9118
elixido	-11.912
col	-11.912
camp	-11.9125
▁Metropolitan	-11.9125
▁asturiana	-11.9125
▁concedida	-11.9125
▁discrepancia	-11.9125
▁miniatura	-11.9125
▁neutrino	-11.9125
▁trasladá	-11.9125
▁valioso	-11.9126
▁Permane	-11.9126
▁emerxencia	-11.9126
▁Kenya	-11.9126
▁recipiente	-11.9126
▁comandada	-11.9127
▁Enter	-11.9131
▁mobilización	-11.9132
▁hip	-11.9133
▁Anne	-11.9133
▁primate	-11.9134
▁Conrad	-11.9137
xase	-11.9137
énico	-11.9137
▁consumir	-11.9139
▁concentrado	-11.9142
▁regula	-11.9145
▁Direc	-11.9147
▁Niet	-11.9151
▁xenérico	-11.9151
▁tive	-11.9152
hak	-11.9155
▁Zo	-11.9156
▁múltiplo	-11.9156
▁encontrado	-11.9157
▁acababa	-11.9157
▁reprodutor	-11.9159
▁emisor	-11.9159
▁Stor	-11.9159
▁facia	-11.9163
ianz	-11.9164
▁Xav	-11.9165
iki	-11.9167
rbo	-11.917
▁-1	-11.9172
gue	-11.9172
▁leon	-11.9175
▁linde	-11.9175
▁impedi	-11.9176
▁sobe	-11.9178
▁Meir	-11.9179
▁Indo	-11.918
400	-11.9186
▁convenceu	-11.9188
▁Vide	-11.9193
▁remo	-11.9198
spacial	-11.9202
▁Catal	-11.9204
▁cega	-11.9208
▁elíptica	-11.9213
▁retira	-11.9213
elta	-11.9214
chell	-11.9214
▁pr	-11.9217
▁invadid	-11.922
▁Guard	-11.9224
pler	-11.9225
▁Wat	-11.9225
▁negar	-11.9226
coñécese	-11.9228
▁inverna	-11.9229
▁fich	-11.923
·	-11.923
▁analítica	-11.923
▁apéndice	-11.923
▁decorada	-11.923
▁explosivo	-11.923
▁fronteiriza	-11.923
▁metodoloxía	-11.923
▁mosaico	-11.923
▁prusiano	-11.923
▁publíca	-11.923
▁atraído	-11.923
▁cornixa	-11.923
▁cognitiva	-11.923
▁consolidou	-11.923
▁Monumento	-11.923
▁estimou	-11.923
▁repite	-11.923
▁diagona	-11.923
▁recompilación	-11.923
palo	-11.9231
▁sagrada	-11.9232
▁concentrada	-11.9234
▁cristalina	-11.9234
▁furón	-11.9234
▁Creou	-11.9236
▁Hop	-11.9236
▁Hild	-11.9236
▁dominan	-11.9237
▁dual	-11.9237
▁concibido	-11.9238
▁Magda	-11.9238
▁ríxida	-11.9241
▁deficiencia	-11.9249
leiro	-11.9251
▁reclamación	-11.9254
▁Museu	-11.9258
▁Cala	-11.9258
000	-11.9259
▁mat	-11.926
▁Vinc	-11.9262
▁Walk	-11.9265
▁post	-11.9266
▁embar	-11.9266
▁proclamar	-11.9267
▁calzada	-11.927
▁Trist	-11.9277
▁estabelecer	-11.9279
vento	-11.9282
eroe	-11.9285
▁morren	-11.9285
▁perla	-11.9286
▁Dioc	-11.9287
▁simbol	-11.9289
▁Nam	-11.9289
▁dinamarqu	-11.9291
▁Luft	-11.9292
elva	-11.9293
▁Buc	-11.9295
▁Burt	-11.9295
▁oculto	-11.9295
udiencia	-11.93
▁Fre	-11.9301
▁grafía	-11.9302
▁Proba	-11.9304
▁Mec	-11.9305
▁operativos	-11.9305
▁parente	-11.9306
rro	-11.9306
▁inmun	-11.9309
▁Age	-11.9309
▁cede	-11.9314
tavo	-11.9314
▁rexistrar	-11.9321
▁Mariana	-11.9321
▁enfronta	-11.9326
ranio	-11.9327
▁Marcia	-11.9327
mov	-11.9328
▁cubri	-11.9329
▁óleo	-11.9334
▁Nikola	-11.9335
▁Science	-11.9335
▁controvertida	-11.9335
▁dispoñíbe	-11.9335
▁hurrita	-11.9335
▁ideolóxico	-11.9335
▁lévedo	-11.9335
▁mixta	-11.9335
▁xoguete	-11.9335
▁babilonio	-11.9335
▁cualidade	-11.9335
▁saxón	-11.9335
▁torná	-11.9335
▁pergam	-11.9335
▁baleira	-11.9335
urbio	-11.9335
▁xeógrafo	-11.9335
▁Pipin	-11.9335
▁ganancia	-11.9335
▁extraído	-11.9335
▁fusilado	-11.9335
▁favorecer	-11.9335
▁simpatía	-11.9336
▁Birm	-11.9336
▁engloba	-11.9336
▁mouro	-11.9336
ngele	-11.9336
▁adicado	-11.9336
▁Gius	-11.9337
▁matanza	-11.9337
▁Escritor	-11.9337
gor	-11.9338
▁Aní	-11.9338
▁Familia	-11.9339
▁Girl	-11.934
▁Ilustra	-11.9341
▁escapa	-11.9341
▁reflectida	-11.9341
▁supervivente	-11.9342
▁Ámb	-11.9342
▁lucense	-11.9342
▁ordenamento	-11.9343
▁manipulación	-11.9344
▁indic	-11.9345
▁Barb	-11.9345
gang	-11.9345
▁Villen	-11.9347
cuña	-11.9349
▁Padre	-11.9352
▁caldeira	-11.9354
▁apart	-11.9354
▁xeorxiano	-11.9356
▁Part	-11.9358
▁Nic	-11.9359
▁portuaria	-11.9366
▁gañada	-11.9369
▁alban	-11.9371
isma	-11.9372
▁Corint	-11.9372
▁incerta	-11.9372
colleu	-11.9373
▁Casp	-11.9375
▁defendida	-11.9377
▁devolver	-11.9377
▁concentra	-11.9378
▁Dj	-11.9379
▁Alemá	-11.938
▁obteñ	-11.9384
▁paulatina	-11.939
▁conformad	-11.939
▁posibilita	-11.9393
llada	-11.9395
▁Gut	-11.9395
▁factoría	-11.9399
▁burguesa	-11.9399
món	-11.94
ndas	-11.9402
▁incluíron	-11.9402
▁acadan	-11.9404
▁acumula	-11.9407
▁Fid	-11.9413
▁funcion	-11.9415
▁im	-11.9418
▁Constanci	-11.9421
▁ordenar	-11.9429
ólica	-11.9429
▁hi	-11.9432
▁nervios	-11.9434
▁solicita	-11.9436
▁Cañ	-11.9436
▁clasificou	-11.9441
▁cromat	-11.9441
▁Caballero	-11.9441
▁Sucedeu	-11.9441
▁alzhéimer	-11.9441
▁anexionad	-11.9441
▁billete	-11.9441
▁cheminea	-11.9441
▁confrontación	-11.9441
▁dialéctic	-11.9441
▁diríxe	-11.9441
▁estrofa	-11.9441
▁pechou	-11.9441
▁pictórica	-11.9441
▁sistemático	-11.9441
▁envellece	-11.9441
▁fractura	-11.9441
▁host	-11.9441
▁incrible	-11.9442
▁decorativo	-11.9442
▁renovable	-11.9442
▁refería	-11.9442
▁certificado	-11.9442
▁carteira	-11.9442
▁castaño	-11.9443
▁fenda	-11.9443
▁temperada	-11.9443
▁esperant	-11.9445
▁Agricult	-11.9446
▁xema	-11.9446
▁convocado	-11.9447
▁dispoñib	-11.9447
▁Theodor	-11.9448
▁aclamado	-11.9453
▁taxonom	-11.9459
▁atlet	-11.946
▁alimentan	-11.9465
▁sacou	-11.9465
▁lim	-11.9471
▁innovador	-11.9478
▁chileno	-11.9478
▁centralizad	-11.9479
▁Bad	-11.9483
▁xenio	-11.9485
▁rematan	-11.9489
aki	-11.9494
▁che	-11.9496
▁Sco	-11.9501
dina	-11.9501
▁Pot	-11.9503
cum	-11.9508
▁recollen	-11.9511
▁infinita	-11.9516
▁Acta	-11.9517
▁ingresar	-11.952
▁anota	-11.9521
▁pantanos	-11.9523
▁sendeir	-11.9524
▁importa	-11.9527
▁lembrar	-11.9527
▁construtor	-11.9528
▁homosexua	-11.9529
▁causan	-11.9531
grán	-11.9534
▁CP	-11.9536
▁aleg	-11.9536
▁culmin	-11.9542
incidencia	-11.9542
utt	-11.9547
▁organíza	-11.9549
▁propicia	-11.9549
▁Contemporáne	-11.9549
▁Continent	-11.9549
▁curioso	-11.9549
▁flanco	-11.9549
▁fotográfica	-11.9549
▁hidrocarburo	-11.9549
▁inconsciente	-11.9549
▁mercancía	-11.9549
▁permanecía	-11.9549
▁profecía	-11.9549
▁promovido	-11.9549
▁volvía	-11.9549
▁cineasta	-11.9549
▁Róm	-11.9549
▁hinduís	-11.9549
▁secuela	-11.9549
▁replica	-11.9549
▁impresa	-11.9549
▁sulfato	-11.9549
▁dixestivo	-11.9549
anco	-11.9553
▁altera	-11.9554
eciano	-11.9555
▁Descart	-11.9556
▁Planta	-11.9556
sagrada	-11.9558
▁repartida	-11.9559
▁malaio	-11.9559
▁Nazi	-11.9559
▁Xust	-11.9561
▁Cambi	-11.9562
▁terminación	-11.9564
icultura	-11.9566
▁nulo	-11.9566
nar	-11.9568
veiro	-11.957
▁Th	-11.957
▁sufría	-11.9571
▁esperado	-11.9577
sonte	-11.9578
▁z	-11.9581
▁constituíron	-11.9582
▁decae	-11.9588
▁Ban	-11.959
▁est	-11.959
monte	-11.9593
▁Fene	-11.9594
▁fil	-11.9594
CP	-11.9595
▁Sr	-11.9596
▁xeran	-11.9599
nisto	-11.9603
▁secuestrado	-11.9608
▁achegas	-11.9611
gens	-11.9611
▁Frei	-11.9621
▁Muñ	-11.9624
▁produtiva	-11.9629
▁SS	-11.963
▁significar	-11.9633
▁Dick	-11.9635
▁prohib	-11.9635
▁Mora	-11.964
▁avalia	-11.964
▁recada	-11.9643
▁dividen	-11.9643
▁catedra	-11.9645
▁arrastra	-11.9649
▁zo	-11.9655
dra	-11.9655
▁Tá	-11.9655
▁Pont	-11.9656
▁combatente	-11.9656
eptu	-11.9657
▁Cambr	-11.9657
égue	-11.9657
cinco	-11.9657
−	-11.9658
▁Lombard	-11.9658
▁cartucho	-11.9658
▁fricción	-11.9658
▁gaivota	-11.9658
▁morcego	-11.9658
▁pantalón	-11.9658
▁rechamante	-11.9658
▁turbina	-11.9658
▁videoclip	-11.9658
▁Democracia	-11.9658
embrand	-11.9658
▁timbre	-11.9658
▁xeométrico	-11.9658
▁amorosa	-11.9658
itanic	-11.9659
▁xanela	-11.966
▁vasto	-11.966
▁nula	-11.9661
▁comandado	-11.9662
▁nucleótido	-11.9663
▁cualificado	-11.9663
▁analiza	-11.9664
liver	-11.9665
▁Cabeza	-11.9666
otá	-11.9666
almente	-11.9667
▁macedonio	-11.9668
▁Jenn	-11.967
▁admitido	-11.967
▁prosegui	-11.9672
▁debilidade	-11.9672
▁Paris	-11.9674
▁metano	-11.9677
▁Mino	-11.9677
▁neolítico	-11.9679
▁Principal	-11.9681
cub	-11.9685
▁sobriñ	-11.9689
stica	-11.9693
raña	-11.9696
▁revelación	-11.9696
rais	-11.9696
▁ateo	-11.9701
▁perpetua	-11.9702
mbro	-11.9705
lán	-11.9706
▁Nord	-11.9708
tia	-11.9709
ingt	-11.9714
isario	-11.9716
▁especificación	-11.9717
▁Pale	-11.9718
▁Base	-11.9719
▁escap	-11.9722
▁apuntan	-11.9722
▁oportunidades	-11.9723
▁Transporte	-11.9726
▁servo	-11.9728
▁coida	-11.9729
sex	-11.9738
▁cómico	-11.9739
▁hoube	-11.9741
sella	-11.9742
▁Abel	-11.9747
▁centrou	-11.9748
▁enlaza	-11.9758
▁vermes	-11.9759
▁prel	-11.976
▁medran	-11.9763
▁ní	-11.9764
▁traxecto	-11.9767
asílica	-11.9767
▁Rhode	-11.9767
▁Spring	-11.9767
▁canguro	-11.9767
▁carbohidrato	-11.9767
▁cardíaca	-11.9767
▁cuadrangular	-11.9767
▁indirecto	-11.9767
▁naufraxio	-11.9767
▁persoeiro	-11.9767
▁sentimenta	-11.9767
▁transfórma	-11.9767
▁triplo	-11.9767
▁Town	-11.9767
▁maorí	-11.9767
▁establecen	-11.9768
▁érgue	-11.9768
▁amigable	-11.9768
▁recolec	-11.9768
▁mecena	-11.9768
▁corsario	-11.977
▁vice	-11.977
▁regulamento	-11.9771
▁creativo	-11.9772
▁impulsado	-11.9772
▁discrimina	-11.9773
▁copr	-11.9774
▁Manzan	-11.9774
▁incapacidade	-11.9774
compoñer	-11.9774
▁Fight	-11.9774
▁Baden	-11.9775
nqueiro	-11.9776
▁unanim	-11.9777
▁cubría	-11.9778
ct	-11.9778
▁biólogo	-11.9779
▁disolver	-11.9779
▁crema	-11.9779
▁Kar	-11.978
▁designada	-11.9781
▁Relación	-11.9785
▁fuxid	-11.9789
▁salgada	-11.9789
queira	-11.9789
amot	-11.9792
bane	-11.9792
▁film	-11.9793
▁licenciou	-11.9793
▁metafísic	-11.9798
▁agresivo	-11.9798
xena	-11.9803
▁cubano	-11.9803
▁infini	-11.9806
▁agresiva	-11.9807
▁recruta	-11.9807
▁clor	-11.9807
▁semántic	-11.9808
▁Blanc	-11.9809
▁AC	-11.9815
▁oficios	-11.9816
▁celebraba	-11.9818
rquí	-11.9819
▁Bog	-11.982
▁nacente	-11.9822
▁Xab	-11.9824
▁Será	-11.9825
▁penso	-11.9831
▁Amade	-11.9834
▁Commo	-11.9835
▁comprenden	-11.9837
▁Hard	-11.9839
▁acaban	-11.9841
▁Lagoa	-11.9842
▁nerviosa	-11.9843
▁Compañ	-11.9848
▁alterar	-11.9852
▁sinalan	-11.9853
▁expux	-11.9853
▁Ken	-11.9854
teís	-11.9854
▁obrigación	-11.9859
forzou	-11.986
▁efectuar	-11.9862
▁celebran	-11.9865
▁impulsar	-11.9868
rer	-11.9871
▁Xuv	-11.9872
cer	-11.9874
clamación	-11.9876
▁proa	-11.9878
▁Estatística	-11.9879
▁Técnica	-11.9879
▁Utilíza	-11.9879
▁diferéncia	-11.9879
▁décima	-11.9879
▁edulcorante	-11.9879
▁excesivo	-11.9879
▁metralladora	-11.9879
▁perpiaño	-11.9879
▁residía	-11.9879
▁soluble	-11.9879
▁retomou	-11.9879
▁roedor	-11.9879
▁secuestro	-11.9879
▁aliménta	-11.9879
▁épico	-11.9879
▁xeonllo	-11.9879
▁mastro	-11.9879
▁alimenticio	-11.9879
▁caloroso	-11.9879
▁goma	-11.9879
▁candorca	-11.9879
▁Área	-11.9879
▁Way	-11.9879
▁Mik	-11.9879
▁percusión	-11.988
▁armadura	-11.988
trópo	-11.988
▁Spect	-11.988
▁elemental	-11.9881
lock	-11.9881
▁260	-11.9883
▁acode	-11.9884
▁imán	-11.9884
engala	-11.9884
▁balada	-11.9887
▁Xiron	-11.9888
▁derroca	-11.9889
▁citoplasm	-11.989
▁ilusión	-11.989
hol	-11.9891
▁contida	-11.9891
▁hom	-11.9893
▁industrializado	-11.9893
▁fresca	-11.9894
▁expresada	-11.9894
▁Ancar	-11.9902
▁expandiu	-11.9905
▁visitada	-11.9908
▁ramo	-11.9911
▁Upp	-11.9918
mentou	-11.992
cionario	-11.9924
▁concentrar	-11.9928
▁automati	-11.993
▁aula	-11.9936
▁Sina	-11.9936
▁emir	-11.9936
▁Sh	-11.9937
▁Pequena	-11.9941
▁caro	-11.9947
▁Iber	-11.9947
▁encabeza	-11.9951
▁fre	-11.9952
▁excede	-11.9953
▁acompañar	-11.9953
▁Ut	-11.9956
aldi	-11.996
▁Amigo	-11.9962
lex	-11.9972
▁Soci	-11.9976
▁Petro	-11.9983
▁portador	-11.9983
pirit	-11.9985
ásico	-11.9985
▁Debi	-11.9986
▁Continu	-11.9991
▁proletaria	-11.9991
▁achegou	-11.9991
rough	-11.9991
▁Celestin	-11.9991
▁Constitúe	-11.9991
▁Perfect	-11.9991
▁defunto	-11.9991
▁espontánea	-11.9991
▁plástica	-11.9991
▁subcampión	-11.9991
▁valiosa	-11.9991
▁fazaña	-11.9991
▁Grove	-11.9992
▁besta	-11.9992
▁binario	-11.9992
▁xefa	-11.9992
▁mantida	-11.9992
vidos	-11.9992
cadou	-11.9992
eveland	-11.9993
▁establecía	-11.9994
▁operan	-11.9996
▁Deix	-11.9998
▁lisa	-11.9998
▁filamentos	-11.9998
▁Leva	-11.9998
▁primordial	-11.9999
▁asentado	-11.9999
nodo	-12
▁Ingres	-12
▁cruel	-12.0002
▁recorrente	-12.0002
▁apreciado	-12.0002
▁goleador	-12.0005
tregu	-12.001
▁reto	-12.0015
▁Musa	-12.0015
▁Mato	-12.0015
04	-12.002
▁Bartolome	-12.0021
trato	-12.0023
▁Four	-12.0023
▁Oza	-12.0026
▁adquirido	-12.0028
▁bela	-12.0044
▁Medici	-12.0047
▁queira	-12.005
rest	-12.0053
▁Román	-12.0055
▁retornar	-12.0057
▁Vanc	-12.0058
▁desviación	-12.0062
▁introduci	-12.0065
ora	-12.0066
▁refrac	-12.0067
▁conectan	-12.0069
▁soldo	-12.007
▁atribúese	-12.0071
▁Lock	-12.0072
▁convenciona	-12.0073
urel	-12.0074
▁eminente	-12.0076
▁Tara	-12.008
▁fro	-12.008
▁descansa	-12.0082
▁Byr	-12.0083
▁ret	-12.009
▁reg	-12.009
▁Anton	-12.0094
zán	-12.0095
▁concibi	-12.0104
▁aristócrata	-12.0105
▁cúbico	-12.0105
▁estatístico	-12.0105
▁inscrito	-12.0105
▁migratorio	-12.0105
▁iniciá	-12.0105
▁arquivolta	-12.0105
▁televisiva	-12.0105
▁serbia	-12.0105
▁gasolin	-12.0105
▁desvío	-12.0105
▁púnica	-12.0105
▁chip	-12.0105
▁elegante	-12.0106
▁Marquesa	-12.0106
▁insuficiente	-12.0106
▁calcúla	-12.0106
▁balcón	-12.0107
▁remota	-12.0108
▁lembranza	-12.0108
▁comenzo	-12.0108
▁pint	-12.0108
▁Segue	-12.0109
▁Arriba	-12.0109
▁Xeración	-12.011
ulli	-12.011
▁asignado	-12.0111
▁But	-12.0114
▁renovado	-12.0115
▁retícul	-12.0116
▁apuntado	-12.0118
▁brigada	-12.0118
▁traballadora	-12.012
▁prestixiosa	-12.0121
▁derivación	-12.0124
brindo	-12.0125
arth	-12.0126
nunciou	-12.0126
▁alfa	-12.0126
▁prestación	-12.0127
▁positi	-12.0131
▁Cous	-12.0131
▁suxerir	-12.0134
▁Harbo	-12.0135
▁Wis	-12.0135
▁xeneralizada	-12.0138
ixi	-12.0142
▁tratada	-12.0144
▁brutal	-12.0145
allis	-12.0145
▁seguiría	-12.0151
▁pito	-12.0151
▁barba	-12.0153
▁alternan	-12.0159
▁Aureli	-12.0159
▁acadi	-12.0161
▁alleo	-12.0163
▁viaxaba	-12.0164
▁cuñado	-12.0167
▁roto	-12.0168
rem	-12.0172
iga	-12.0172
awke	-12.0176
inc	-12.0178
▁informal	-12.018
▁agua	-12.0182
▁supor	-12.0183
itani	-12.0186
▁Trac	-12.0187
▁axita	-12.0189
▁Saa	-12.0191
▁deixaría	-12.0194
inio	-12.0196
▁CE	-12.0198
▁manten	-12.02
ágar	-12.02
▁Segura	-12.0204
▁cambian	-12.0207
rot	-12.0208
▁revé	-12.021
▁Ribeir	-12.0216
▁pot	-12.0217
▁ordina	-12.0219
▁bioquímica	-12.0219
▁candidata	-12.0219
▁deshabitado	-12.0219
▁incompleta	-12.0219
▁minoritario	-12.0219
▁rectángulo	-12.0219
▁supoñía	-12.0219
▁ídolo	-12.0219
▁Irene	-12.0219
▁predicir	-12.022
▁Regional	-12.022
▁sobrenatura	-12.022
▁checa	-12.0222
▁botou	-12.0224
▁Fle	-12.0224
▁refén	-12.0225
liga	-12.0226
zón	-12.0226
▁acusada	-12.0227
listo	-12.0229
▁abolida	-12.0229
olicía	-12.0233
▁remedio	-12.0234
▁sabana	-12.0236
▁Quero	-12.0237
▁resolveu	-12.0239
▁adquirida	-12.0239
▁Barro	-12.0239
agma	-12.024
▁quero	-12.0246
▁Mr	-12.0246
▁anexa	-12.0246
▁Hora	-12.0248
SA	-12.0251
▁nomeoun	-12.0254
▁separan	-12.0255
▁durmi	-12.0259
▁linear	-12.0264
▁Indiana	-12.0265
▁Disp	-12.0269
▁revelar	-12.0269
▁recomenda	-12.0277
▁azar	-12.0278
▁quedaría	-12.0278
▁créa	-12.0281
▁encabez	-12.0284
▁recuperado	-12.0286
▁saía	-12.0289
▁Gala	-12.0289
nster	-12.0295
lph	-12.0295
inen	-12.0297
▁donos	-12.0297
▁pronunciada	-12.0297
gona	-12.0298
lizab	-12.0298
▁designou	-12.0299
▁agarda	-12.03
▁Cuart	-12.03
▁marte	-12.0301
je	-12.0303
pé	-12.0304
▁Roy	-12.0308
orxa	-12.0309
▁Bol	-12.0312
▁excluí	-12.0312
céde	-12.0313
▁president	-12.0313
▁expulsa	-12.0314
▁explic	-12.0314
tat	-12.0317
▁Prest	-12.0317
▁Tru	-12.0325
▁Maio	-12.0325
▁prosper	-12.0326
pato	-12.0327
burg	-12.0328
▁Georg	-12.0329
▁glori	-12.0331
rial	-12.0333
ircuíto	-12.0335
▁afinidade	-12.0336
▁astronauta	-12.0336
▁auxilio	-12.0336
▁burocracia	-12.0336
▁encárga	-12.0336
▁esférica	-12.0336
▁gratuíta	-12.0336
▁inmenso	-12.0336
▁metáfora	-12.0336
▁morfolóxica	-12.0336
▁procuro	-12.0336
▁prolifera	-12.0336
▁reactivo	-12.0336
▁vestimenta	-12.0336
▁dubida	-12.0336
▁urbe	-12.0336
▁monxa	-12.0336
▁chegue	-12.0336
▁enzima	-12.0336
▁supuña	-12.0336
▁tóxica	-12.0336
▁rima	-12.0336
▁barato	-12.0337
▁Somoza	-12.0337
▁Meridi	-12.0337
▁Kuwa	-12.0338
▁detri	-12.0338
▁dourado	-12.0338
▁pagamento	-12.034
perfección	-12.0348
▁asinada	-12.0348
▁describía	-12.0352
▁Neil	-12.0357
▁mera	-12.0358
▁Aero	-12.0359
AR	-12.036
▁figuraba	-12.0361
▁Silver	-12.0362
▁vacante	-12.0363
▁resumo	-12.0364
▁agardaba	-12.0366
▁engala	-12.0372
▁amplia	-12.0373
▁lap	-12.0374
▁dama	-12.0375
▁touro	-12.0376
▁Forte	-12.0379
▁iría	-12.038
▁element	-12.038
stán	-12.0383
▁reunifica	-12.0384
▁chegase	-12.0388
▁bus	-12.039
▁celul	-12.0393
▁continuaría	-12.0401
▁antipa	-12.0401
▁camiña	-12.0403
▁Novos	-12.0404
xil	-12.041
▁trouxer	-12.0412
▁universa	-12.0413
▁Thor	-12.0415
▁constrúen	-12.0422
▁dú	-12.0426
▁America	-12.0426
ivan	-12.0427
▁dra	-12.0429
▁sei	-12.0429
gallo	-12.043
M	-12.0435
beta	-12.0436
sol	-12.0436
▁Aberto	-12.0436
▁esteiro	-12.0443
▁270	-12.0444
▁recoñecen	-12.0444
▁existencial	-12.0445
▁salario	-12.0446
▁positivos	-12.0447
▁teor	-12.0453
▁recorrer	-12.0453
▁Higg	-12.0453
▁artefacto	-12.0453
▁autonómico	-12.0453
▁dispuña	-12.0453
▁fitoplancto	-12.0453
▁multinaciona	-12.0453
▁peteiro	-12.0453
▁renovou	-12.0453
▁represalia	-12.0453
▁súbdito	-12.0453
▁tempestade	-12.0453
▁Abdul	-12.0453
▁Tasman	-12.0454
▁convenio	-12.0454
▁itinerario	-12.0454
▁meteorito	-12.0454
▁Califa	-12.0454
▁Tiber	-12.0454
▁cerro	-12.0454
▁palla	-12.0455
▁circo	-12.0456
erdina	-12.0457
▁tonalidade	-12.0457
▁queixa	-12.0457
olución	-12.0459
GT	-12.0462
▁recrea	-12.0464
▁considerába	-12.0464
▁mago	-12.0464
▁modifica	-12.0468
rbona	-12.0468
▁sedimentaria	-12.0468
▁Galo	-12.0471
▁Susan	-12.0473
tálica	-12.0474
▁superada	-12.0474
▁inmortal	-12.0478
eríodo	-12.0481
▁barón	-12.0483
ntaxe	-12.0484
meral	-12.0486
▁recuperada	-12.0487
▁Beatri	-12.0487
▁Mit	-12.0489
▁230	-12.0496
rtodoxa	-12.0497
vedo	-12.0497
▁impulsor	-12.05
▁Narv	-12.0503
▁coincidir	-12.0503
▁Laura	-12.0508
▁ameazado	-12.0508
dín	-12.0512
dna	-12.0516
mph	-12.0519
▁bin	-12.052
▁Soria	-12.0523
▁estabeleceu	-12.0527
▁freo	-12.0531
▁Gam	-12.0531
▁condensa	-12.0531
▁esquece	-12.0531
▁admirador	-12.0539
▁produtivo	-12.0541
gi	-12.0548
▁dé	-12.055
▁Beira	-12.0553
▁decidi	-12.0557
▁Carballi	-12.0557
esco	-12.0561
▁espora	-12.0561
▁Comp	-12.0563
▁descubri	-12.0566
▁coopera	-12.0568
▁sap	-12.057
▁consecu	-12.0571
ábrica	-12.0572
malai	-12.0572
glomera	-12.0572
▁eliminou	-12.0572
▁espallou	-12.0572
▁Comunicación	-12.0572
▁Inclúe	-12.0572
▁agradable	-12.0572
▁aparecido	-12.0572
▁atmosférico	-12.0572
▁cóengo	-12.0572
▁distintiva	-12.0572
▁embarazada	-12.0572
▁harmónico	-12.0572
▁pensión	-12.0572
▁pioneira	-12.0572
▁tranvía	-12.0572
▁solicitude	-12.0572
▁rigoroso	-12.0572
▁diagrama	-12.0573
▁limitou	-12.0573
▁acuario	-12.0573
▁Común	-12.0573
▁zume	-12.0573
▁delgada	-12.0573
▁coherente	-12.0574
▁canteiro	-12.0574
▁Broad	-12.0574
lema	-12.0575
▁Water	-12.0575
lga	-12.0575
▁HT	-12.0575
▁Poin	-12.0577
▁cheiro	-12.0577
rling	-12.0582
comunidade	-12.0583
▁Idea	-12.0583
▁sindica	-12.0584
▁apoian	-12.0584
▁Agui	-12.0584
▁Hier	-12.0586
▁contratou	-12.0586
▁sacaro	-12.0587
llan	-12.0591
▁procurar	-12.0592
▁inclusiv	-12.0592
▁HC	-12.0595
▁reforza	-12.0599
▁Bue	-12.0599
▁acepción	-12.06
▁Ner	-12.0601
oira	-12.0606
▁Mesía	-12.0606
▁Will	-12.0606
▁predica	-12.061
▁Convent	-12.0617
▁vían	-12.0622
▁finito	-12.0629
▁espi	-12.063
▁conseguido	-12.0632
rin	-12.0635
▁Sexa	-12.0639
▁coruñes	-12.064
▁combinar	-12.064
▁asocia	-12.0641
▁afasta	-12.0641
▁enche	-12.0641
▁creo	-12.0652
ibia	-12.0652
TP	-12.0653
▁Wh	-12.0654
▁fixou	-12.0659
▁Gri	-12.0659
▁111	-12.066
vill	-12.0666
ius	-12.0667
media	-12.0672
gro	-12.0673
▁Berm	-12.0673
▁rexi	-12.0674
emen	-12.0675
uke	-12.0678
▁acoller	-12.0678
▁Disco	-12.0681
▁sai	-12.0684
▁Soul	-12.0688
▁explota	-12.0689
▁Arcebisp	-12.0693
▁ibérica	-12.0693
▁ibérico	-12.0693
▁inédito	-12.0693
▁rabaño	-12.0693
▁remodelación	-12.0693
▁reproduce	-12.0693
▁solucionar	-12.0693
▁Matthew	-12.0693
▁monzón	-12.0693
▁ofrenda	-12.0693
▁Champions	-12.0693
kovic	-12.0693
▁bravo	-12.0693
▁entorno	-12.0693
▁pistón	-12.0693
▁alude	-12.0693
▁ficticio	-12.0693
▁numérica	-12.0693
▁reformista	-12.0693
▁comparable	-12.0693
▁Heart	-12.0693
▁esgota	-12.0693
lipse	-12.0693
▁exarca	-12.0693
▁furado	-12.0693
▁previsión	-12.0694
▁sentado	-12.0694
▁redúce	-12.0694
▁baixar	-12.0694
▁fogueira	-12.0694
▁Olympi	-12.0694
▁diverxencia	-12.0694
▁garante	-12.0695
▁Motor	-12.0695
▁Terzo	-12.0696
▁consumida	-12.0696
▁restrinxido	-12.0696
rma	-12.0698
▁temperán	-12.0698
▁invitación	-12.0698
▁foxe	-12.0699
▁apreciada	-12.0699
▁marisco	-12.07
▁Albu	-12.0708
▁modern	-12.0709
▁cometido	-12.071
▁Figueir	-12.071
lvan	-12.0713
▁Orange	-12.0715
▁Nep	-12.0716
lem	-12.0722
▁Xesu	-12.0722
▁proxecta	-12.0724
▁Rela	-12.0724
▁extraer	-12.0725
▁Bud	-12.0725
ven	-12.0728
roques	-12.073
ev	-12.074
▁hispano	-12.0741
tche	-12.0743
roup	-12.0746
▁Ferrer	-12.0749
tari	-12.0754
hel	-12.0755
alcol	-12.0762
▁Gene	-12.0762
tendida	-12.0762
▁Lob	-12.0765
▁Xin	-12.0767
▁liñ	-12.0768
lave	-12.0771
▁Inda	-12.0776
▁Trint	-12.0776
▁Roj	-12.0777
▁Rob	-12.0778
▁soster	-12.0779
▁neerlandesa	-12.0781
▁Verí	-12.0781
▁clandestina	-12.0781
▁rata	-12.0784
▁vistos	-12.0795
rain	-12.08
para	-12.08
▁Emil	-12.0801
urxi	-12.0809
▁alan	-12.0809
rux	-12.0809
lectric	-12.0812
áximo	-12.0812
▁Tarra	-12.0814
especto	-12.0815
▁absorbido	-12.0815
▁avalancha	-12.0815
▁bautizo	-12.0815
▁chuvioso	-12.0815
▁cloroplasto	-12.0815
▁cuneiforme	-12.0815
▁escandinavo	-12.0815
▁fantástico	-12.0815
▁férrea	-12.0815
▁inútil	-12.0815
▁mitolóxico	-12.0815
▁morfema	-12.0815
▁pneumon	-12.0815
▁reconto	-12.0815
▁televisivo	-12.0815
▁buraco	-12.0815
▁inevitable	-12.0815
▁autobús	-12.0815
▁traspaso	-12.0815
▁encanto	-12.0815
▁asócia	-12.0815
▁analoxía	-12.0815
▁lituano	-12.0815
▁viscos	-12.0815
▁provisión	-12.0815
▁heroína	-12.0815
▁perenne	-12.0815
▁propúxo	-12.0815
▁preposición	-12.0816
▁espallada	-12.0817
▁Metro	-12.0819
▁bordea	-12.0819
▁marisma	-12.082
▁fertilizante	-12.082
▁Miró	-12.0821
▁pasara	-12.0821
▁Regres	-12.0822
▁Edg	-12.0822
▁Stadi	-12.0823
▁sopa	-12.0823
▁fundido	-12.0824
▁Edición	-12.0824
ificado	-12.0824
▁elevar	-12.0826
▁Vasa	-12.0826
▁Ponteces	-12.0826
▁inxest	-12.0828
▁temía	-12.0829
▁atravesan	-12.0829
▁vestir	-12.083
▁fecunda	-12.0832
▁Net	-12.0832
▁predomin	-12.0833
▁fíxolle	-12.0835
▁estaciona	-12.0836
▁confederado	-12.0836
▁neutra	-12.0836
pruden	-12.0837
▁adapta	-12.0838
▁Rig	-12.0838
▁couto	-12.0839
▁indicado	-12.0841
▁ambicioso	-12.0842
seguinte	-12.0843
speranza	-12.0847
▁bater	-12.0847
▁Pinto	-12.0857
▁alimentado	-12.0861
▁infravermell	-12.0867
lain	-12.0867
▁Corp	-12.0869
▁consisti	-12.0872
▁Onda	-12.0873
ickens	-12.0873
▁resisti	-12.0874
▁encabezad	-12.0875
dica	-12.0876
OM	-12.0876
dicto	-12.088
NS	-12.0881
▁vaia	-12.0881
▁relacionar	-12.0882
▁distribúe	-12.0886
frontar	-12.0889
▁Ace	-12.089
oto	-12.0892
▁épica	-12.0895
▁vou	-12.0896
▁Hum	-12.0899
▁empezan	-12.09
ok	-12.0904
▁Rut	-12.0905
sche	-12.0915
▁Um	-12.0919
▁traslada	-12.0925
estade	-12.0932
▁ascender	-12.0932
▁extrae	-12.0936
nmediata	-12.0938
▁Artigo	-12.0938
▁Björ	-12.0938
▁domicili	-12.0938
▁gornición	-12.0938
▁interrompido	-12.0938
▁primoxénit	-12.0938
▁subterránea	-12.0938
▁ventrículo	-12.0938
▁míde	-12.0938
▁rigorosa	-12.0938
▁fomenta	-12.0938
▁disolto	-12.0938
▁premisa	-12.0938
▁Glori	-12.0939
▁taxi	-12.0939
▁narrativo	-12.094
▁canónico	-12.094
▁informar	-12.0943
▁surrealis	-12.0943
▁aviso	-12.0944
▁Morgan	-12.0944
orcio	-12.0945
▁contedor	-12.0945
ubai	-12.0946
▁selecciona	-12.0946
▁semítica	-12.0948
▁Ju	-12.0948
▁Neno	-12.095
mbiente	-12.0951
▁figuran	-12.0951
▁Heav	-12.0952
J	-12.0953
▁Peri	-12.0954
análise	-12.0955
▁destila	-12.0955
▁fosa	-12.0957
▁licencia	-12.0958
▁importar	-12.0959
▁Your	-12.0965
▁Cea	-12.0967
lum	-12.0968
minente	-12.0968
▁irregularidade	-12.097
▁envolto	-12.0977
▁megalítico	-12.0978
▁instante	-12.0981
▁Nature	-12.0982
▁Dita	-12.0983
▁limi	-12.0983
ncy	-12.0986
nidos	-12.0988
Found	-12.099
roes	-12.0998
▁Rica	-12.0999
▁traer	-12.1007
▁Line	-12.1013
▁desigualdade	-12.1014
dura	-12.1018
▁crecen	-12.1019
miro	-12.1019
▁Blai	-12.1023
▁aproximad	-12.1024
▁island	-12.1024
▁Occident	-12.1025
▁horizonta	-12.1028
aralela	-12.103
▁internado	-12.103
icial	-12.1038
▁disparar	-12.1041
▁convocar	-12.1053
▁tenis	-12.1053
▁pene	-12.1055
▁Tel	-12.106
ciente	-12.1061
heid	-12.1063
▁Produto	-12.1063
▁Supercopa	-12.1063
▁cronolóxic	-12.1063
▁fraude	-12.1063
▁fráxil	-12.1063
▁microprocesador	-12.1063
▁residua	-12.1063
▁vangardista	-12.1063
▁comprometido	-12.1063
▁complicación	-12.1063
▁flexible	-12.1064
▁sintética	-12.1064
ffe	-12.1064
▁cardina	-12.1064
▁rotura	-12.1064
▁engadí	-12.1064
abilidade	-12.1065
▁maqueta	-12.1066
▁Dramátic	-12.1067
▁espallado	-12.1068
▁Sky	-12.1069
▁artesana	-12.107
▁Power	-12.107
▁Expr	-12.1071
ctil	-12.1071
▁enténde	-12.1071
▁letón	-12.1072
ence	-12.1072
matic	-12.1074
▁beber	-12.1074
zy	-12.1076
▁art	-12.1078
ppen	-12.108
portuguesa	-12.1081
▁qu	-12.1086
▁Compl	-12.1088
toria	-12.1089
mpresión	-12.109
▁fracasar	-12.1091
rco	-12.1092
udio	-12.1093
▁Pep	-12.1094
▁seita	-12.1094
▁participaba	-12.1095
▁Lol	-12.1097
▁atope	-12.1098
▁contro	-12.11
▁Pur	-12.1101
▁adestrado	-12.1107
nka	-12.1108
alto	-12.111
▁Lour	-12.1116
▁camiñar	-12.1117
ilicia	-12.1121
▁Auga	-12.1123
mio	-12.1133
▁entendido	-12.1135
▁Xi	-12.1135
▁impoñen	-12.1135
▁Vald	-12.1136
▁Qa	-12.1136
estar	-12.1139
▁perd	-12.1141
▁Princes	-12.1145
▁desprende	-12.1146
▁acontecer	-12.1148
▁Calder	-12.1151
▁Uli	-12.1162
▁Get	-12.1166
▁configura	-12.1171
▁debuxa	-12.1172
▁consumido	-12.1172
▁ato	-12.1174
zt	-12.1176
ícula	-12.1185
▁residen	-12.1189
estauración	-12.119
▁Hobb	-12.119
▁Numeros	-12.119
▁arcebispa	-12.119
▁bidueiro	-12.119
▁cedido	-12.119
▁cápsula	-12.119
▁empírica	-12.119
▁fronteirizo	-12.119
▁meridiano	-12.119
▁pantasma	-12.119
▁usurpa	-12.119
▁emblema	-12.119
▁tratá	-12.119
▁aeródromo	-12.119
▁Desenvolveu	-12.119
▁apropiada	-12.119
▁Matemática	-12.119
▁póstum	-12.119
▁decatou	-12.1191
▁mantido	-12.1191
▁anana	-12.1192
▁requirimento	-12.1192
▁Java	-12.1192
▁Xen	-12.1192
▁baseába	-12.1193
▁Dolor	-12.1193
▁incerteza	-12.1193
▁delgado	-12.1193
▁prolongada	-12.1193
▁derrubado	-12.1194
eres	-12.1195
▁queimar	-12.1195
▁cartón	-12.1197
▁Buck	-12.1197
▁franciscano	-12.12
▁Elisa	-12.12
alia	-12.12
wanda	-12.12
▁baga	-12.12
▁Vento	-12.1201
▁salarios	-12.1203
▁show	-12.1203
struíron	-12.1205
▁desexado	-12.1206
▁clado	-12.1207
▁borea	-12.1207
▁Josef	-12.1208
▁mandado	-12.1208
▁misteriosa	-12.121
▁harmónica	-12.1213
▁Bet	-12.1214
▁conducido	-12.1219
▁Im	-12.122
▁escollida	-12.122
▁Usa	-12.1222
ratas	-12.1223
▁deriv	-12.1225
▁expresado	-12.1226
▁especialización	-12.1227
▁estanca	-12.123
▁atribución	-12.1233
bell	-12.1234
▁dividía	-12.1236
mola	-12.1237
▁fidalgo	-12.1238
▁interin	-12.1239
▁Cel	-12.1241
▁Rez	-12.1243
▁graza	-12.1243
▁enunciado	-12.1245
▁romanesa	-12.1247
▁Antártico	-12.1248
▁Marca	-12.1249
▁duques	-12.125
▁manténdo	-12.1256
▁saquead	-12.1256
labam	-12.1258
▁Pequen	-12.1258
▁madrileño	-12.126
▁infravermello	-12.1263
▁administra	-12.1265
neno	-12.1269
▁xulga	-12.1269
▁enciclopedia	-12.1269
▁Capa	-12.127
▁semántico	-12.1272
▁limitar	-12.1277
▁coidados	-12.1286
▁fundi	-12.1291
▁Terr	-12.1293
▁Maca	-12.1294
njo	-12.13
line	-12.1304
póñen	-12.1306
▁9,	-12.1306
AA	-12.1306
▁reclamar	-12.1308
▁reitora	-12.1308
niño	-12.1308
▁conceder	-12.1309
▁Lé	-12.1311
▁Off	-12.1313
anifesto	-12.1314
▁adverbio	-12.1318
▁banana	-12.1318
▁modificou	-12.1318
▁prehistórica	-12.1318
▁sanguínea	-12.1318
▁taboíña	-12.1318
▁treboada	-12.1318
▁Xornal	-12.1318
▁impoñer	-12.1318
▁maduro	-12.1318
▁nacida	-12.1318
▁Invern	-12.1318
▁exercit	-12.1318
▁Corneli	-12.1318
▁electro	-12.1318
▁únen	-12.1318
▁xurista	-12.1318
▁gasoso	-12.1319
▁frade	-12.1319
▁cebad	-12.1319
▁papiro	-12.1319
▁favorábe	-12.1319
▁fortificada	-12.1319
▁ovario	-12.1319
▁Fernán	-12.132
▁toxina	-12.132
innat	-12.132
▁adorno	-12.132
▁Alfa	-12.132
▁Adrian	-12.1322
ize	-12.1323
uvio	-12.1323
▁Vilamar	-12.1324
▁indonesi	-12.1324
▁Milla	-12.1326
▁mediana	-12.1327
▁saco	-12.1327
▁mandada	-12.1327
▁programador	-12.1328
▁Quen	-12.133
▁botón	-12.1331
▁Apen	-12.1333
each	-12.1333
▁cooperativa	-12.1334
▁compensación	-12.1334
▁mero	-12.1336
▁Fora	-12.1337
▁franca	-12.1339
▁corrección	-12.134
▁bufo	-12.134
▁trigonom	-12.1342
▁competitivo	-12.1343
mero	-12.1345
▁Anei	-12.1348
▁Viña	-12.1353
▁fabricada	-12.1356
▁investido	-12.1358
▁amosaba	-12.1359
▁Spi	-12.1361
▁finlandes	-12.1361
iró	-12.1364
▁Gord	-12.1364
enegal	-12.1366
▁retomar	-12.1367
▁clasifica	-12.1368
▁Loren	-12.1371
▁galesa	-12.1372
▁activ	-12.1373
▁publicá	-12.1375
▁madrileñ	-12.1377
▁adora	-12.1377
▁actualización	-12.1379
algar	-12.1379
anzan	-12.1379
xplicou	-12.138
▁UP	-12.138
▁Alvar	-12.1387
▁Garro	-12.1394
▁Wea	-12.1399
▁astronómica	-12.14
▁parda	-12.14
▁compilador	-12.1401
▁innovadora	-12.1404
áctea	-12.1407
▁ilega	-12.1408
lul	-12.1409
ple	-12.141
▁Samp	-12.141
feso	-12.1411
duciu	-12.1417
▁cortex	-12.1417
▁finalista	-12.142
▁Xulian	-12.1421
▁Aran	-12.1424
▁Nix	-12.1424
▁electromagn	-12.1427
cipación	-12.1429
ortuguesa	-12.1429
▁Stevens	-12.1429
▁Evan	-12.1436
▁Mille	-12.1441
tome	-12.1442
▁fragmenta	-12.1443
▁aplicou	-12.1448
▁prolongou	-12.1448
▁Protocol	-12.1448
▁Tratá	-12.1448
▁aglutina	-12.1448
▁amurallad	-12.1448
▁anónima	-12.1448
▁bíblico	-12.1448
▁cláusula	-12.1448
▁cúmulo	-12.1448
▁escuadrón	-12.1448
▁interrompe	-12.1448
▁matrimonia	-12.1448
▁meteorolóxico	-12.1448
▁sanitario	-12.1448
▁sátira	-12.1448
▁vencellado	-12.1448
▁refrixera	-12.1448
▁connotación	-12.1448
▁traída	-12.1448
▁executiva	-12.1448
▁equivalencia	-12.1448
▁compacto	-12.1448
▁códice	-12.1449
▁árido	-12.1449
▁Constituínte	-12.1449
▁navegable	-12.145
▁retina	-12.145
▁hó	-12.145
▁ecoloxista	-12.1451
▁premiado	-12.1451
egge	-12.1451
▁comproba	-12.1451
▁Turismo	-12.1451
▁troca	-12.1452
nea	-12.1454
▁protagonizado	-12.1455
▁identificou	-12.1455
▁Braña	-12.1456
▁Autor	-12.1459
▁Hel	-12.1461
▁dirixí	-12.1463
▁Dic	-12.1464
▁conxuga	-12.1466
▁abs	-12.147
foresta	-12.1471
▁Emirato	-12.1473
▁Esté	-12.1474
nior	-12.1476
▁Turn	-12.1476
▁Curro	-12.1476
▁Lao	-12.1477
▁Trin	-12.1478
▁pasará	-12.1479
▁redacta	-12.1481
▁bovino	-12.1482
▁autode	-12.1482
▁queimada	-12.1484
▁renovar	-12.1485
▁Cann	-12.1488
▁fixado	-12.1488
upe	-12.1489
▁ximnasi	-12.1491
▁Citr	-12.1491
clave	-12.1492
▁espeso	-12.1493
▁tomaba	-12.1493
▁islandes	-12.1494
dino	-12.1494
▁larga	-12.1494
▁experimentado	-12.1495
▁colleu	-12.1495
pice	-12.1495
ning	-12.1496
▁afastar	-12.1497
▁expoñe	-12.1498
▁péns	-12.1499
▁ratificad	-12.1506
▁Nuev	-12.1508
▁compara	-12.151
▁estabiliza	-12.1514
terno	-12.1516
▁someteu	-12.1516
arca	-12.1517
rcus	-12.1517
▁Cooper	-12.1518
▁Tes	-12.152
▁perif	-12.1524
▁docente	-12.1526
▁xi	-12.1527
▁gozan	-12.1527
▁moven	-12.1533
▁Reina	-12.1534
▁asenta	-12.1534
▁traves	-12.1535
tem	-12.1535
▁Jul	-12.1542
vira	-12.1542
▁Stra	-12.1543
▁Dez	-12.1547
▁protestant	-12.155
▁Boi	-12.1552
▁Barbar	-12.1554
▁finland	-12.1563
▁baixada	-12.1563
▁Erasm	-12.1564
▁flexi	-12.1564
usto	-12.1568
chor	-12.1568
▁Abd	-12.1574
▁Tiro	-12.1578
▁rigor	-12.1579
▁innumer	-12.158
▁Muíño	-12.158
▁Xardín	-12.158
▁ríxido	-12.158
▁sorprendeu	-12.158
▁véspera	-12.158
▁requiría	-12.158
▁pulso	-12.158
▁óvulo	-12.158
▁Solidari	-12.158
▁pacifica	-12.158
▁Helsin	-12.158
▁esixía	-12.158
▁recreativa	-12.158
▁homólogo	-12.158
▁axioma	-12.158
▁arcaico	-12.158
▁spin	-12.158
▁pontífice	-12.158
▁absolutista	-12.1581
▁barata	-12.1581
▁téñen	-12.1581
íngue	-12.1582
▁xisto	-12.1583
▁Covel	-12.1583
hua	-12.1584
▁Bala	-12.1587
-52	-12.1588
▁sepultado	-12.159
▁ergue	-12.1592
▁litu	-12.1593
▁saquear	-12.1594
▁repetiu	-12.1594
▁Blood	-12.1595
▁eliminada	-12.1601
homs	-12.1602
tecnoloxía	-12.1603
acusa	-12.1603
▁paterna	-12.1608
ingham	-12.161
ö	-12.1612
▁conformación	-12.1617
▁Eth	-12.1626
▁Tir	-12.1632
▁Stal	-12.1635
sur	-12.1635
▁Podería	-12.1637
▁gam	-12.1641
▁instala	-12.1642
clinación	-12.1642
▁feuda	-12.1642
▁dia	-12.1649
▁Sagrad	-12.1651
ematica	-12.1652
▁bañad	-12.1657
▁partición	-12.1664
▁Maza	-12.1666
▁Frent	-12.1666
▁fun	-12.1667
fiel	-12.1668
▁querer	-12.1671
stitución	-12.1675
▁dispo	-12.1679
▁dedicá	-12.1679
▁Nota	-12.168
▁entrete	-12.1689
▁agr	-12.1693
▁Confedera	-12.1694
▁tomo	-12.1704
▁refuxi	-12.1706
▁UA	-12.1707
olív	-12.1708
TC	-12.171
▁austral	-12.1712
▁Celébra	-12.1713
▁abrigo	-12.1713
▁analóxico	-12.1713
▁cedida	-12.1713
▁herbicida	-12.1713
▁incorrecta	-12.1713
▁inherente	-12.1713
▁inédita	-12.1713
▁marroquí	-12.1713
▁metabólica	-12.1713
▁munición	-12.1713
▁podé	-12.1713
▁procariota	-12.1713
▁próspera	-12.1713
▁tridimensiona	-12.1713
▁biógrafo	-12.1713
▁alumna	-12.1713
▁Rousse	-12.1713
▁tapa	-12.1713
▁Cicer	-12.1713
▁Misión	-12.1714
▁Herrer	-12.1714
▁creatividade	-12.1714
▁Ciudad	-12.1715
▁verdura	-12.1715
▁Total	-12.1716
head	-12.1716
▁concluír	-12.1718
▁prolongado	-12.172
meda	-12.1721
▁desprazado	-12.1721
venida	-12.1721
▁transformado	-12.1722
▁bosquexo	-12.1722
▁preito	-12.1723
▁confirmada	-12.1725
▁agregado	-12.1725
▁reconstruído	-12.1725
uve	-12.1729
▁funcionalidade	-12.173
▁pró	-12.173
▁buca	-12.1735
▁adoptivo	-12.1735
xurdi	-12.1736
▁etrusco	-12.1739
▁dispoñen	-12.174
▁Nation	-12.1741
▁baseou	-12.1746
▁Led	-12.1752
▁men	-12.1755
off	-12.1757
reixa	-12.1761
sperma	-12.1772
▁Albor	-12.1788
▁centrar	-12.179
▁vide	-12.1795
EA	-12.1799
gne	-12.1801
▁Tun	-12.1801
▁terminais	-12.1804
▁rega	-12.1804
ardos	-12.1806
▁Chu	-12.1806
olfo	-12.181
cle	-12.181
▁reconcilia	-12.1811
▁recibira	-12.1818
▁fisca	-12.1821
▁Hen	-12.1827
▁diversifica	-12.1827
▁pedía	-12.1828
▁parcia	-12.1829
▁desembocan	-12.1831
▁incapac	-12.1833
▁Cru	-12.1834
sala	-12.1834
▁dispersa	-12.1835
▁radia	-12.184
▁espallar	-12.1841
▁orgullo	-12.1843
▁cotián	-12.1844
kar	-12.1845
▁desigual	-12.1846
▁exiliar	-12.1848
grima	-12.1848
▁Arqueolóxic	-12.1848
▁agradece	-12.1848
▁agropecuari	-12.1848
▁anécdota	-12.1848
▁coleccionista	-12.1848
▁comunitario	-12.1848
▁envelena	-12.1848
▁insignia	-12.1848
▁mexillón	-12.1848
▁paréntese	-12.1848
▁separá	-12.1848
▁Teixeir	-12.1848
▁correlación	-12.1848
▁vixésim	-12.1848
▁rítmica	-12.1848
evapora	-12.1848
▁Pepper	-12.1848
▁sopra	-12.1848
▁retro	-12.1848
▁purifica	-12.1848
▁Brother	-12.1849
▁enterro	-12.1849
▁árida	-12.1849
▁comece	-12.1849
▁prover	-12.185
▁Montana	-12.185
▁fós	-12.185
▁dirixi	-12.185
▁fortificado	-12.185
▁catalogada	-12.1851
úpa	-12.1852
▁Mostra	-12.1852
▁reunido	-12.1853
▁Rexe	-12.1855
▁montado	-12.1855
▁Ariz	-12.1856
▁Norma	-12.1856
rbur	-12.1856
▁Mega	-12.1858
▁by	-12.1861
▁valoración	-12.1861
▁Monter	-12.1862
opin	-12.1863
▁distribuí	-12.1864
▁chanzo	-12.1866
▁Tell	-12.1868
▁espido	-12.1868
▁Progres	-12.1869
▁implicada	-12.1871
▁Indi	-12.1872
▁Stein	-12.1875
▁Public	-12.1877
▁sulf	-12.1878
apoli	-12.1878
▁xenita	-12.1879
▁340	-12.188
▁manifestar	-12.188
illo	-12.1881
oxéne	-12.1881
▁Coco	-12.1883
▁Sabi	-12.1883
▁aceptan	-12.1885
▁xustificación	-12.1887
▁tentaba	-12.1889
▁Compo	-12.1892
▁indicada	-12.1896
▁pesa	-12.1897
▁mesturada	-12.1899
anga	-12.1905
▁Mann	-12.1908
into	-12.1911
▁fal	-12.1911
▁IU	-12.1913
▁polinesi	-12.1914
▁Resulta	-12.1914
▁Patrici	-12.1916
▁luminosa	-12.1916
▁andaluz	-12.1918
▁propuxer	-12.1918
▁refinado	-12.1924
óxeno	-12.1924
▁capitula	-12.1929
▁Dirixi	-12.1929
▁Rubi	-12.193
mel	-12.1933
▁Ex	-12.1935
▁Fíxo	-12.1935
stituído	-12.1948
pert	-12.1948
▁Shi	-12.195
▁conxela	-12.1951
▁gañara	-12.1951
▁intentaba	-12.1954
▁agardar	-12.1954
▁supoñe	-12.1958
▁montar	-12.1959
▁cub	-12.196
ático	-12.196
andeira	-12.1964
▁teme	-12.1965
AC	-12.1967
▁pronunciad	-12.1967
▁Barra	-12.1968
stalou	-12.1969
▁aparecería	-12.1973
▁dixer	-12.1975
▁Academ	-12.1975
▁Arena	-12.1976
▁derivar	-12.1976
▁convertera	-12.1976
▁Mondariz	-12.1985
▁xubila	-12.1985
▁Anastasi	-12.1985
▁Becerr	-12.1985
▁ascendía	-12.1985
▁disidente	-12.1985
▁micrófono	-12.1985
▁mítica	-12.1985
▁palestino	-12.1985
▁permítelle	-12.1985
▁Holoc	-12.1985
▁obedece	-12.1985
▁traído	-12.1985
▁Vil	-12.1985
▁deportista	-12.1985
▁Gior	-12.1985
▁prefería	-12.1985
▁Austro	-12.1985
vitou	-12.1985
rar	-12.1986
▁dilata	-12.1986
▁suborde	-12.1986
▁saben	-12.1986
▁sostido	-12.1987
▁desprez	-12.1987
▁Dionis	-12.1987
▁repetido	-12.1988
▁Catalan	-12.1989
▁Patria	-12.1989
▁Fred	-12.199
▁anexo	-12.199
▁decidida	-12.199
▁persistente	-12.1991
▁escavado	-12.1991
▁criticada	-12.1993
▁Tripl	-12.1994
▁pausa	-12.1995
▁favorita	-12.1995
▁Monto	-12.1995
lección	-12.1997
▁Labrad	-12.1997
▁danado	-12.1998
▁ZX	-12.1998
▁modesto	-12.1998
▁aborto	-12.1999
▁reprimi	-12.2
▁condenada	-12.2
▁explora	-12.2001
▁patrocinador	-12.2001
▁peculiaridade	-12.2002
▁levalo	-12.2002
▁preocupado	-12.2004
▁analista	-12.2004
▁impresion	-12.2006
▁automobilística	-12.2006
▁Emma	-12.2008
strad	-12.2009
carei	-12.201
▁construtiva	-12.201
▁resu	-12.2011
▁dique	-12.2013
▁Nava	-12.2014
▁surafricano	-12.2015
nove	-12.2015
travé	-12.2016
▁lavado	-12.202
▁vara	-12.2024
arna	-12.2024
▁Negreir	-12.2025
▁Falan	-12.2025
▁poderí	-12.2028
▁queimado	-12.203
▁rescata	-12.2036
▁interv	-12.204
▁tirano	-12.204
▁guano	-12.2042
▁gado	-12.2042
▁Hadri	-12.2044
▁reclamaba	-12.2046
▁Cid	-12.2047
▁Zab	-12.2055
▁Py	-12.2057
rick	-12.2058
▁ab	-12.2058
▁reaccionar	-12.2059
▁senado	-12.2062
▁Met	-12.2066
▁artesan	-12.2069
▁Các	-12.207
▁facerlle	-12.2072
canzo	-12.2083
▁formaría	-12.2089
▁hop	-12.209
▁atraves	-12.209
zaña	-12.2094
▁gradua	-12.2095
ingüística	-12.2098
▁cit	-12.2101
▁intima	-12.2106
rdena	-12.2107
▁Seix	-12.2109
▁situá	-12.211
óxen	-12.2114
[...]
