<unk>	0
<s>	0
</s>	0
<pad>	0
▁,	-3.00688
s	-3.18719
▁.	-3.19322
▁a	-3.59742
▁que	-3.64708
▁de	-3.64922
▁o	-4.04396
;	-4.07098
▁e	-4.08055
▁&	-4.10231
quot	-4.1208
▁é	-4.56038
-	-4.81496
▁para	-4.81955
▁um	-4.86111
▁uma	-4.9402
▁	-4.95718
▁do	-5.02653
▁E	-5.03889
▁da	-5.12958
▁em	-5.1945
▁não	-5.19761
▁os	-5.23636
▁com	-5.31208
o	-5.3206
▁se	-5.34604
mos	-5.38195
▁no	-5.45705
▁como	-5.49352
▁A	-5.51724
▁as	-5.54621
▁na	-5.55418
▁mais	-5.61324
▁?	-5.61443
▁:	-5.61474
▁por	-5.64007
a	-5.71073
▁O	-5.83394
se	-5.88336
m	-5.89563
▁muito	-5.96531
mente	-5.96799
ando	-6.02689
▁ao	-6.02694
▁eu	-6.0365
r	-6.05297
▁)	-6.08478
(	-6.08674
▁ser	-6.12201
▁ou	-6.12491
▁Mas	-6.16951
▁pessoas	-6.1731
▁à	-6.1748
ção	-6.19003
▁isso	-6.21883
▁dos	-6.24166
▁são	-6.24202
▁mas	-6.25314
ão	-6.26077
▁—	-6.2687
▁nos	-6.274
▁está	-6.30802
▁fazer	-6.33451
▁Por	-6.35169
me	-6.38228
▁isto	-6.3908
n	-6.40175
▁anos	-6.40723
▁qu	-6.43563
es	-6.4491
▁porque	-6.4495
▁esta	-6.46161
▁É	-6.46376
▁meu	-6.4668
▁sobre	-6.46732
▁un	-6.50973
u	-6.5114
▁foi	-6.53063
▁das	-6.53616
▁era	-6.53662
▁mundo	-6.55813
▁seu	-6.58171
▁ver	-6.58724
▁en	-6.64841
▁há	-6.65489
l	-6.65687
▁este	-6.66184
is	-6.68532
▁nós	-6.69224
▁todos	-6.71601
▁Não	-6.71759
▁ter	-6.72769
▁sua	-6.73938
▁minha	-6.74049
▁nossa	-6.77802
▁mesmo	-6.78117
▁nosso	-6.78775
nde	-6.79482
▁forma	-6.7981
▁temos	-6.8228
▁Eu	-6.82312
ndo	-6.82507
▁Se	-6.83361
em	-6.8493
nos	-6.85288
▁vida	-6.85551
▁pode	-6.86593
▁me	-6.86963
▁toda	-6.8735
▁estão	-6.88417
os	-6.89249
▁tempo	-6.90084
▁também	-6.90905
ntão	-6.919
▁ele	-6.92411
▁coisas	-6.94113
▁tem	-6.94857
am	-6.96038
▁unha	-6.96126
▁vez	-6.96835
▁non	-6.97312
do	-6.99612
▁podemos	-7.01011
▁aqui	-7.0325
▁Riso	-7.0387
▁eles	-7.06611
▁só	-7.09088
▁apenas	-7.09349
▁coisa	-7.10717
▁parte	-7.13592
lo	-7.14207
▁têm	-7.1487
▁podem	-7.14976
i	-7.15778
ções	-7.16897
▁agora	-7.18355
▁todo	-7.18455
▁num	-7.19309
▁Aplausos	-7.19415
e	-7.19795
▁tipo	-7.20258
▁depois	-7.20625
▁algo	-7.2066
▁até	-7.21167
▁dizer	-7.22865
▁Com	-7.24851
▁pelo	-7.26125
▁estava	-7.26626
▁Esta	-7.26902
▁numa	-7.27896
▁cada	-7.29242
▁tinha	-7.29551
▁Qu	-7.30255
▁Ist	-7.32193
▁tudo	-7.3229
tão	-7.32687
▁pela	-7.34542
▁disse	-7.34597
á	-7.34714
▁Os	-7.35339
▁entre	-7.35718
▁dia	-7.35879
▁bem	-7.36011
ia	-7.37142
▁Ele	-7.3723
.	-7.37268
▁estamos	-7.38467
▁falar	-7.3913
▁...	-7.4002
▁grande	-7.40182
▁essa	-7.41186
▁pouco	-7.42522
▁vocês	-7.43317
que	-7.43428
▁T	-7.45449
vos	-7.45715
▁máis	-7.46817
já	-7.46932
▁alguma	-7.46988
▁muita	-7.48375
▁assim	-7.48575
▁ela	-7.49558
▁vai	-7.49682
▁Este	-7.5012
▁verdade	-7.50481
▁trabalho	-7.50545
tanto	-7.50556
▁nas	-7.50575
▁ainda	-7.50803
as	-7.51264
▁estas	-7.51298
▁esse	-7.53048
la	-7.53135
▁outra	-7.5374
▁pensar	-7.54506
da	-7.54698
▁problema	-7.55256
ei	-7.55574
▁realmente	-7.56088
▁sem	-7.56408
gora	-7.5647
▁maior	-7.56941
▁melhor	-7.57328
▁vezes	-7.57467
▁outros	-7.57681
▁ano	-7.58555
ões	-7.58916
▁%	-7.59248
▁qualquer	-7.60477
▁Há	-7.62073
▁♫	-7.62389
▁exemplo	-7.62837
▁No	-7.6297
▁sistema	-7.63078
▁importante	-7.64163
▁S	-7.64214
▁história	-7.64405
▁sempre	-7.64977
▁estes	-7.653
idade	-7.66553
▁outro	-7.66638
▁con	-7.66958
▁ideia	-7.66985
▁menos	-7.67056
▁milhões	-7.68256
▁hoje	-7.68377
▁durante	-7.69106
▁ir	-7.69635
▁poder	-7.70011
▁Na	-7.70225
▁De	-7.70271
ou	-7.70917
▁dois	-7.7097
▁estar	-7.71008
▁nunca	-7.72329
▁As	-7.73266
▁casa	-7.73744
▁lá	-7.76737
▁primeira	-7.76778
▁lado	-7.77078
▁mim	-7.77901
▁neste	-7.78826
▁deste	-7.80165
▁Em	-7.80557
▁outras	-7.8065
▁facto	-7.81124
▁três	-7.81825
▁então	-7.81904
▁primeiro	-7.81992
▁momento	-7.81994
▁usar	-7.82849
▁alguns	-7.8322
en	-7.83799
te	-7.8429
quanto	-7.84635
▁antes	-7.84848
▁mesma	-7.86792
▁nada	-7.88425
▁estou	-7.88557
▁volta	-7.88641
▁vou	-7.88852
▁!	-7.88996
▁I	-7.89578
▁criar	-7.9002
▁dar	-7.90554
va	-7.90617
▁dua	-7.90992
▁diferentes	-7.91027
▁seja	-7.91664
▁son	-7.9254
▁pessoa	-7.92883
▁tenho	-7.94032
▁tentar	-7.94159
▁feito	-7.94262
▁cérebro	-7.96401
▁Bem	-7.96462
▁mulheres	-7.97449
▁talvez	-7.97855
ción	-7.9846
▁Para	-7.99883
▁resposta	-8.00487
▁quero	-8.00892
▁faz	-8.01265
▁lugar	-8.0133
▁novo	-8.01451
▁tecnologia	-8.01963
▁Um	-8.02169
▁nova	-8.02234
▁crianças	-8.02464
ar	-8.03024
▁cerca	-8.03148
▁existe	-8.0381
travé	-8.04275
▁á	-8.0518
▁pequena	-8.05451
▁vos	-8.05472
1	-8.05777
mento	-8.05839
▁país	-8.06164
d	-8.06506
▁espaço	-8.06683
▁realidade	-8.06888
ram	-8.07008
mo	-8.07584
▁10	-8.07796
▁significa	-8.07806
▁mil	-8.07893
▁dados	-8.08358
▁alguém	-8.08717
▁C	-8.0905
▁-	-8.09662
▁diferente	-8.09831
▁Uma	-8.10138
▁água	-8.10487
▁Temos	-8.10958
▁vamo	-8.11079
▁vão	-8.1141
▁nesta	-8.1159
▁Foi	-8.12539
lhe	-8.12659
▁nem	-8.13242
▁futuro	-8.14234
▁encontrar	-8.14572
apos	-8.14606
▁qual	-8.1463
▁si	-8.15
▁informação	-8.15207
res	-8.15974
▁trabalhar	-8.16077
sí	-8.16117
▁eram	-8.16432
▁Nó	-8.16561
▁contra	-8.16583
▁20	-8.16813
▁aí	-8.16909
▁dentro	-8.17381
000	-8.17879
▁Pero	-8.18101
▁difícil	-8.18537
▁desta	-8.19032
▁olhar	-8.19136
los	-8.19383
▁vosso	-8.19407
▁J	-8.19655
▁mudar	-8.19677
▁sei	-8.19774
▁altura	-8.19944
on	-8.21269
▁dias	-8.21437
▁foram	-8.21496
▁número	-8.21565
▁quase	-8.21584
▁co	-8.21765
▁países	-8.21974
▁acontece	-8.22072
▁começar	-8.22145
▁disso	-8.226
▁hai	-8.22632
▁P	-8.22677
▁último	-8.23031
▁quem	-8.23167
▁precisamos	-8.23324
▁energia	-8.23477
dos	-8.23632
▁sido	-8.24823
▁somos	-8.24896
▁claro	-8.24986
de	-8.2538
▁escola	-8.2549
▁sabemos	-8.25912
▁cando	-8.26132
▁elas	-8.26163
ámos	-8.26193
▁dinheiro	-8.26432
▁desde	-8.2654
▁quanto	-8.26643
▁moi	-8.26928
▁modo	-8.28192
▁palavras	-8.28254
▁bastante	-8.28841
▁seria	-8.28855
▁xente	-8.29063
▁simples	-8.29118
▁maneira	-8.29144
▁diz	-8.29523
▁sou	-8.30382
▁tanto	-8.30422
ía	-8.30442
▁acontecer	-8.3083
▁facer	-8.30862
▁penso	-8.30918
▁corpo	-8.31096
t	-8.31398
▁tal	-8.31622
▁mostrar	-8.31934
▁saber	-8.31958
▁problemas	-8.31959
▁fora	-8.31959
▁súa	-8.32479
▁luz	-8.33458
▁cidade	-8.33666
emos	-8.33911
▁meio	-8.34163
▁saúde	-8.34301
▁Ela	-8.3445
▁tive	-8.34846
▁longo	-8.35005
▁dólares	-8.35021
▁ponto	-8.3586
▁Aqui	-8.35951
▁vemos	-8.36106
▁estavam	-8.36169
▁lhe	-8.3643
▁fazem	-8.3645
▁Todo	-8.37397
▁experiência	-8.37609
▁pequeno	-8.37869
no	-8.37886
▁Depois	-8.38133
▁Que	-8.38178
▁ficar	-8.38958
las	-8.39914
▁humanos	-8.39971
▁deles	-8.40016
▁♪	-8.40327
▁tinham	-8.40361
▁certo	-8.40666
▁humano	-8.40688
▁caso	-8.40702
▁questão	-8.41143
▁pero	-8.41504
▁aprender	-8.416
▁causa	-8.41779
▁possível	-8.42334
▁passado	-8.42474
▁for	-8.43161
▁&#9	-8.43353
▁parece	-8.43565
▁Non	-8.4362
vamos	-8.44213
▁razão	-8.44383
▁Obrigado	-8.44677
íamos	-8.44792
▁fim	-8.44928
▁células	-8.44937
▁meses	-8.44991
▁única	-8.45162
▁Muito	-8.45163
▁aquela	-8.45213
▁grupo	-8.45762
▁vi	-8.45866
▁vossa	-8.46033
das	-8.4627
▁processo	-8.46475
to	-8.46546
▁Vou	-8.46922
▁baixo	-8.47042
▁mãe	-8.47098
▁re	-8.47182
▁gente	-8.4756
▁&#93;	-8.47805
▁bom	-8.4799
▁segundo	-8.48508
p	-8.48572
▁chegar	-8.48701
▁família	-8.49084
y	-8.4962
▁Vamo	-8.49815
▁tornar	-8.49983
▁será	-8.5038
▁real	-8.50536
▁havia	-8.50791
▁chamado	-8.50873
▁grandes	-8.5113
▁ten	-8.5121
▁ali	-8.51892
▁ajudar	-8.51976
▁cinco	-8.52183
sso	-8.52325
▁noite	-8.52796
▁comunidade	-8.52832
▁imagem	-8.53026
▁pai	-8.5306
▁sabem	-8.53091
▁mal	-8.53293
▁nível	-8.53308
▁acho	-8.53318
▁sala	-8.54063
▁Está	-8.54209
▁homem	-8.54224
▁construir	-8.54246
▁boa	-8.5443
▁social	-8.54448
▁quatro	-8.54733
▁funciona	-8.54768
í	-8.54873
▁sociedade	-8.54908
▁En	-8.55118
▁Podemo	-8.55312
▁dessa	-8.55433
▁maioria	-8.55478
▁H	-8.55672
▁interessante	-8.55801
▁aquilo	-8.55884
▁medo	-8.55975
▁Era	-8.56425
vam	-8.56734
▁fez	-8.57183
▁amigos	-8.57383
▁in	-8.57636
▁homens	-8.57647
▁cor	-8.57939
▁perceber	-8.58183
ecei	-8.58218
▁partir	-8.58619
▁iso	-8.58859
▁base	-8.59547
an	-8.59549
▁estado	-8.59661
▁Terra	-8.60043
▁guerra	-8.60352
▁conta	-8.60454
▁sentido	-8.60455
▁EUA	-8.60947
▁Assi	-8.61529
▁caminho	-8.61605
▁cultura	-8.61886
▁Ou	-8.61889
▁queremos	-8.61921
▁contar	-8.61928
▁normal	-8.61939
▁global	-8.62173
▁África	-8.62486
▁moito	-8.62641
▁local	-8.62791
▁horas	-8.63289
ra	-8.63376
▁podia	-8.6357
▁ciência	-8.63695
▁viver	-8.64086
▁Podem	-8.64312
▁Quero	-8.64603
▁Internet	-8.64681
▁mulher	-8.64839
na	-8.65072
▁atrás	-8.65099
▁100	-8.65722
▁preciso	-8.65734
▁novas	-8.65774
▁morte	-8.65969
▁enorme	-8.65987
ta	-8.66136
▁pergunta	-8.66153
▁aconteceu	-8.66508
▁frente	-8.66602
▁especial	-8.66643
▁50	-8.66646
▁fosse	-8.66761
ssemos	-8.66798
▁teñ	-8.66879
des	-8.66913
▁deixar	-8.67025
▁30	-8.67357
▁empresas	-8.67631
▁fazemos	-8.68125
▁música	-8.68888
▁pais	-8.68904
▁miña	-8.69552
▁própria	-8.69886
▁planeta	-8.69938
▁Pode	-8.70167
c	-8.70186
▁fácil	-8.7022
▁capacidade	-8.70433
▁mudança	-8.70444
▁posso	-8.70898
▁nome	-8.71056
▁F	-8.71078
▁espécie	-8.7115
▁arte	-8.71432
▁universo	-8.71784
▁tarde	-8.71917
h	-8.71936
▁destas	-8.7199
▁milhar	-8.72215
▁campo	-8.7268
ntes	-8.72818
▁queria	-8.73245
▁passar	-8.7325
▁conseguimos	-8.73811
▁ambiente	-8.73984
▁ninguém	-8.74008
ca	-8.74376
▁vê	-8.74571
▁animais	-8.74687
dores	-8.7472
▁humana	-8.74737
er	-8.74751
▁estrutura	-8.75237
▁filhos	-8.75374
▁risco	-8.75375
▁Nova	-8.75489
▁chamada	-8.75857
▁Estado	-8.75927
▁N	-8.75962
▁sociais	-8.76083
▁voz	-8.76113
▁ben	-8.76184
▁comida	-8.76246
▁quer	-8.76704
ssem	-8.76928
▁histórias	-8.7697
▁cancro	-8.77155
▁Só	-8.77185
▁livro	-8.77346
▁certa	-8.77433
▁único	-8.77514
▁termos	-8.77905
▁computador	-8.78084
▁2	-8.78116
lhes	-8.78198
▁economia	-8.78258
▁provavelmente	-8.78605
▁Sim	-8.78683
▁projeto	-8.78866
▁simplesmente	-8.79026
▁cousas	-8.79311
▁imagens	-8.79333
▁política	-8.79609
▁final	-8.79679
ambém	-8.79695
▁Você	-8.79703
▁empresa	-8.79993
▁completamente	-8.80131
▁seguinte	-8.80365
▁vídeo	-8.80368
▁carro	-8.80412
▁próximo	-8.80439
ti	-8.80497
▁M	-8.80509
▁poderia	-8.80599
▁modelo	-8.80769
▁acerca	-8.80811
▁fui	-8.80812
▁15	-8.80914
▁algum	-8.80926
co	-8.81313
▁papel	-8.81563
ência	-8.81998
▁desse	-8.82154
▁suficiente	-8.82302
▁oportunidade	-8.8233
▁aquele	-8.82348
▁mão	-8.82394
▁seguir	-8.82401
▁melhores	-8.82499
▁rede	-8.82589
▁ajuda	-8.82638
ba	-8.82942
nda	-8.83373
▁tamén	-8.83454
▁medida	-8.8349
▁século	-8.83495
▁quais	-8.83587
▁B	-8.83868
▁criança	-8.83938
▁Is	-8.83951
▁levar	-8.84091
▁sim	-8.84144
nte	-8.8419
▁linha	-8.84226
▁coa	-8.84553
▁te	-8.84745
▁sentir	-8.8501
▁dele	-8.85221
▁Risa	-8.8543
▁alta	-8.85805
▁querem	-8.85821
▁público	-8.85935
▁nosa	-8.85981
▁possa	-8.86063
▁precisa	-8.86326
▁doença	-8.86788
rá	-8.86824
▁início	-8.87353
▁palavra	-8.87615
▁conjunto	-8.87762
▁passa	-8.87936
▁governo	-8.88024
▁desenvolvimento	-8.88161
▁fazê	-8.88172
▁começa	-8.89064
▁sabe	-8.89769
▁descobrir	-8.90197
f	-8.90566
▁segunda	-8.90585
▁cara	-8.90587
▁dela	-8.90652
▁conseguir	-8.90912
alvez	-8.90991
▁última	-8.90996
▁Estou	-8.9102
▁valor	-8.91077
▁soluç	-8.9112
▁están	-8.91204
▁escala	-8.91809
▁dun	-8.9185
▁particular	-8.92242
▁3	-8.92387
▁formas	-8.92404
▁idade	-8.92653
▁ADN	-8.92659
▁cento	-8.92664
▁cima	-8.92698
▁ouvir	-8.93142
teve	-8.93154
ron	-8.93268
▁ideias	-8.93328
▁mar	-8.93474
▁programa	-8.93541
▁disto	-8.9367
▁olhos	-8.93738
▁pensei	-8.93935
▁área	-8.94044
▁mente	-8.94329
▁locais	-8.94351
▁começou	-8.9439
▁fiz	-8.94721
▁voltar	-8.94923
ado	-8.94985
▁relação	-8.95208
▁além	-8.95209
▁tamanho	-8.95211
▁hora	-8.95404
▁semana	-8.95415
▁conseguem	-8.95421
▁dá	-8.9558
▁dizem	-8.95714
▁D	-8.95941
▁tínhamo	-8.96071
▁día	-8.96078
▁Obrigad	-8.96449
▁aqueles	-8.96483
ntón	-8.96644
▁vista	-8.96971
▁estudo	-8.9701
▁Ao	-8.97194
▁sabia	-8.97248
▁lle	-8.9741
▁Mai	-8.97449
pesar	-8.97544
▁ca	-8.9765
▁próprio	-8.97659
▁Deus	-8.97664
▁fizemos	-8.97913
▁minutos	-8.97933
▁deve	-8.98135
g	-8.98312
▁delas	-8.98571
▁diferença	-8.99038
▁Tenho	-8.99173
▁TED	-8.99609
▁verdadeira	-8.9962
▁terra	-8.99781
▁obrigado	-9.00078
▁segurança	-9.00083
▁noso	-9.0014
▁totalmente	-9.00205
▁sen	-9.00747
▁cidades	-9.00873
▁torna	-9.00905
▁vidas	-9.00972
▁ó	-9.01156
▁impacto	-9.01418
▁carros	-9.01486
▁maiores	-9.01649
▁natureza	-9.01876
▁Unidos	-9.01941
▁estaba	-9.01962
▁Penso	-9.01999
▁Ok	-9.02007
▁jovens	-9.02337
▁visão	-9.02351
▁leva	-9.02726
▁coma	-9.02852
▁compreender	-9.02955
▁semanas	-9.03073
▁esa	-9.03148
amente	-9.03573
▁centena	-9.04208
▁ler	-9.04213
▁seis	-9.04453
▁tenha	-9.04539
▁comigo	-9.04708
▁população	-9.0472
▁resolver	-9.04881
▁imaginar	-9.04902
ais	-9.05043
▁manter	-9.05206
▁resultado	-9.05325
▁ar	-9.0533
▁colocar	-9.05483
▁continuar	-9.05576
▁pensamos	-9.05603
▁filme	-9.05638
▁você	-9.05817
▁Europa	-9.06103
S	-9.06119
▁resto	-9.06121
▁procura	-9.06146
▁serem	-9.06363
▁haver	-9.06581
▁pequenos	-9.06604
▁equipa	-9.06703
▁polo	-9.06822
▁seguro	-9.06885
▁ferramentas	-9.06893
▁Estas	-9.06919
▁sistemas	-9.07051
▁confiança	-9.07103
▁CA	-9.07107
▁cabeça	-9.07219
▁conhecimento	-9.07239
▁indústria	-9.07552
▁trata	-9.07619
▁vári	-9.0765
▁di	-9.07685
▁persoas	-9.07863
▁Toda	-9.08049
2	-9.08329
▁partilhar	-9.08435
▁miúdo	-9.0853
▁sucesso	-9.08538
▁situação	-9.08539
▁1	-9.08605
C	-9.08639
▁Re	-9.08782
▁201	-9.08836
▁demasiado	-9.09024
▁estudantes	-9.09098
▁cria	-9.09138
▁natural	-9.09274
▁atenção	-9.09337
▁longe	-9.09517
▁violência	-9.09556
▁força	-9.09644
▁40	-9.09885
lle	-9.09949
▁xa	-9.10054
▁chama	-9.10312
▁comportamento	-9.10364
▁dicir	-9.10967
▁recente	-9.10989
▁crescimento	-9.11023
▁nun	-9.11024
ismo	-9.11289
▁design	-9.11429
▁Primeiro	-9.11522
▁sair	-9.11529
▁Precisa	-9.11814
▁cerebro	-9.11901
▁amigo	-9.11972
▁Hai	-9.12083
▁som	-9.12206
▁matemática	-9.12457
▁perto	-9.12556
▁educação	-9.12646
té	-9.12987
▁quantidade	-9.13056
▁floresta	-9.13093
ria	-9.13201
▁aquí	-9.13208
▁principal	-9.1326
▁200	-9.13358
▁certeza	-9.13568
▁rapidamente	-9.14087
▁alto	-9.14111
▁incrível	-9.1413
▁usando	-9.14171
▁entender	-9.14425
rem	-9.14484
▁série	-9.14607
▁nessa	-9.14608
▁movimento	-9.14613
▁mercado	-9.14671
▁escrever	-9.14674
▁espera	-9.1509
▁tornou	-9.1517
▁podía	-9.15305
▁entrar	-9.15546
▁Tem	-9.15631
b	-9.16284
▁médico	-9.16302
▁fica	-9.16383
▁controlo	-9.16529
▁vem	-9.16789
al	-9.16809
▁5	-9.16824
▁máquina	-9.16851
z	-9.16977
▁obter	-9.17015
oje	-9.17377
▁V	-9.17503
▁portanto	-9.17534
▁novos	-9.17772
▁língua	-9.17791
▁logo	-9.17806
▁teste	-9.1789
▁disseram	-9.18001
▁conversa	-9.18079
▁professores	-9.18424
▁amor	-9.18448
▁centro	-9.18511
▁pola	-9.18735
▁China	-9.18898
▁sete	-9.18907
▁vir	-9.19341
▁Tudo	-9.19459
▁Imaginem	-9.19544
▁fundo	-9.19709
▁inter	-9.19818
▁pobres	-9.1985
▁palestra	-9.19971
▁próxima	-9.19971
▁tomar	-9.20142
ing	-9.20202
▁importantes	-9.20308
▁áreas	-9.2037
▁material	-9.20522
▁precisam	-9.20644
▁funcionar	-9.2079
▁consegue	-9.20802
▁recursos	-9.20865
▁decidi	-9.2088
▁colegas	-9.20909
tos	-9.2113
▁possam	-9.21229
▁finalmente	-9.21469
▁resultados	-9.21471
ón	-9.21522
▁perguntar	-9.21562
▁lugares	-9.21617
▁petróleo	-9.21637
▁comum	-9.21784
▁nenhum	-9.21801
▁Sabe	-9.21852
▁livros	-9.21921
▁físico	-9.22199
▁doenças	-9.22455
▁dunha	-9.22771
▁Ora	-9.2286
ro	-9.22934
▁Clar	-9.23025
▁chega	-9.23249
▁Iorque	-9.23332
▁Músic	-9.23332
▁porta	-9.23677
▁física	-9.23705
▁uso	-9.23764
▁pesquisa	-9.23824
▁começá	-9.23904
▁viagem	-9.23915
▁tratamento	-9.23941
▁R	-9.23971
▁Essa	-9.24072
▁aumentar	-9.24135
▁grupos	-9.24336
▁nesse	-9.24503
▁geral	-9.2461
▁nisso	-9.25056
▁carbono	-9.25077
▁pegar	-9.25279
▁capaz	-9.25477
▁após	-9.25478
▁nenhuma	-9.25481
ada	-9.25588
¿	-9.25638
▁América	-9.25638
▁experiências	-9.25689
▁mundial	-9.25696
▁fizeram	-9.25709
▁ata	-9.25718
▁minhas	-9.25794
▁idea	-9.25845
ma	-9.26001
▁media	-9.26026
▁historia	-9.26081
▁tanta	-9.26294
4	-9.26416
▁L	-9.26623
▁Sabem	-9.26652
▁basicamente	-9.26811
▁nisto	-9.26811
▁acesso	-9.26812
▁filho	-9.26813
▁acabar	-9.26932
▁80	-9.26942
▁ensino	-9.27254
▁médicos	-9.27273
▁Existe	-9.27403
▁teu	-9.27705
▁esperança	-9.27962
▁exatamente	-9.28094
▁económico	-9.28096
▁estudar	-9.28269
▁ti	-9.28358
▁juntos	-9.28474
▁democracia	-9.28532
▁Google	-9.28597
▁metade	-9.28603
▁estrada	-9.28646
▁Acho	-9.28688
▁60	-9.28694
0	-9.28965
▁poden	-9.29056
▁passo	-9.29122
▁tecido	-9.29202
▁norte	-9.29214
▁laboratório	-9.29234
▁ensinar	-9.29332
▁pensa	-9.29479
▁Sou	-9.2957
pa	-9.29701
▁marca	-9.29777
▁redes	-9.2978
▁terem	-9.29808
▁sob	-9.29813
▁plano	-9.29973
re	-9.2998
gem	-9.30149
▁embora	-9.3022
▁sol	-9.30231
▁fundamental	-9.30342
▁mostra	-9.30417
▁teoria	-9.30417
▁sangue	-9.30431
▁perguntas	-9.30431
▁produtos	-9.30815
▁melhorar	-9.30959
▁ia	-9.31057
▁fonte	-9.31097
▁irá	-9.31362
▁igual	-9.3164
▁vós	-9.31646
▁sequer	-9.31663
▁Duran	-9.31666
▁teria	-9.31738
▁computadores	-9.31923
▁morrer	-9.31973
▁auto	-9.32067
▁baixa	-9.32077
00	-9.32087
▁alunos	-9.32224
▁jovem	-9.32267
▁par	-9.32278
▁naquele	-9.32295
▁visto	-9.32325
▁foto	-9.32499
▁dou	-9.32697
▁90	-9.32741
▁cientistas	-9.3289
▁desafio	-9.32975
pois	-9.33027
▁capazes	-9.33067
▁correr	-9.33124
ê	-9.33237
▁fotos	-9.33295
▁crescer	-9.33451
iam	-9.33752
▁Da	-9.33804
velmente	-9.33847
cia	-9.34013
▁tiver	-9.34066
▁Un	-9.34131
▁metros	-9.34189
▁pensamento	-9.34194
▁12	-9.34306
▁notícias	-9.34493
▁livre	-9.34804
quê	-9.34976
▁caixa	-9.35129
▁permite	-9.35155
▁sejam	-9.35198
▁sexo	-9.35238
▁objetivo	-9.35432
▁nunha	-9.35439
▁Neste	-9.35442
▁levou	-9.3545
▁canto	-9.35475
é	-9.35477
▁pensam	-9.35587
▁pontos	-9.35686
▁continua	-9.35692
▁boas	-9.35775
▁devido	-9.3608
▁digo	-9.36086
▁números	-9.36119
▁veem	-9.36138
▁tan	-9.36146
▁escolas	-9.36277
▁Ca	-9.3642
▁tirar	-9.36441
▁tivesse	-9.36602
▁Índia	-9.36726
▁materiais	-9.36748
inda	-9.36814
▁duma	-9.36867
▁4	-9.37021
▁oito	-9.37196
▁li	-9.37465
▁gostaria	-9.37526
▁andar	-9.37533
▁Co	-9.37537
▁direito	-9.37855
▁efeito	-9.37947
in	-9.3801
▁25	-9.38026
▁questões	-9.38046
▁contrário	-9.38046
▁busca	-9.38078
ação	-9.38135
▁lei	-9.38243
▁Ben	-9.38338
xe	-9.38432
▁mapa	-9.38496
▁feliz	-9.38537
▁inteligente	-9.387
▁À	-9.387
▁liberdade	-9.387
▁estiver	-9.38742
▁comer	-9.38796
▁importa	-9.38873
io	-9.38887
▁tecnologias	-9.38977
▁falta	-9.39067
▁custo	-9.39214
ve	-9.3927
▁mensagem	-9.39366
▁explicar	-9.39429
▁iria	-9.39505
▁forte	-9.39754
▁célula	-9.39988
▁necessidade	-9.40038
▁desenvolver	-9.40054
▁doentes	-9.40402
▁padrões	-9.40715
di	-9.40772
▁próprios	-9.40972
▁Nos	-9.41092
▁observar	-9.41257
▁rápido	-9.41271
▁presente	-9.4133
▁fantástico	-9.41394
▁código	-9.41394
▁animal	-9.41422
▁lidar	-9.41461
▁crise	-9.41511
ça	-9.41609
▁11	-9.41894
▁assunto	-9.42078
▁neurónios	-9.42266
ce	-9.42367
▁começaram	-9.42453
▁pagar	-9.4266
▁branco	-9.42745
▁medicina	-9.42769
pe	-9.42846
▁planta	-9.42941
▁podería	-9.43087
▁comprar	-9.43284
▁super	-9.43414
▁quarto	-9.43464
le	-9.43482
▁relações	-9.43485
▁rua	-9.43529
▁altera	-9.43571
▁tenham	-9.43686
▁devem	-9.43831
▁mellor	-9.43996
▁procurar	-9.44041
▁mãos	-9.44115
▁pôr	-9.44228
▁errado	-9.44281
amos	-9.44435
▁Oh	-9.44544
▁70	-9.44563
▁per	-9.44569
▁millóns	-9.44693
▁acordo	-9.44708
▁G	-9.4472
▁consig	-9.44853
▁esquerda	-9.44866
▁linguagem	-9.4487
▁So	-9.4488
▁coração	-9.44904
▁fotografia	-9.44966
▁houve	-9.45022
▁devemos	-9.45051
▁Cad	-9.45471
5	-9.45493
▁humanidade	-9.45575
▁curso	-9.45638
▁aprendi	-9.45887
▁tiña	-9.45889
▁pessoal	-9.4591
▁hospital	-9.46073
▁interior	-9.46126
▁primeiros	-9.46143
▁chamamos	-9.46288
▁xeito	-9.4629
▁aprendizagem	-9.46423
▁direitos	-9.46489
▁comunidades	-9.46782
▁superfície	-9.47009
▁velocidade	-9.47009
▁Parece	-9.47012
▁mudou	-9.47018
▁verdadeiro	-9.47052
▁gráfico	-9.47064
▁extrema	-9.47242
▁salvar	-9.47377
▁consciência	-9.47734
▁online	-9.47735
▁descoberta	-9.47757
▁pedir	-9.47759
▁podiam	-9.48155
▁produto	-9.48255
▁nuclear	-9.48303
▁solar	-9.48341
▁favor	-9.48451
▁buraco	-9.48464
▁pedaço	-9.48464
▁persoa	-9.48473
▁mesmos	-9.48477
▁perder	-9.48537
ina	-9.48874
▁fai	-9.48925
▁Esse	-9.48967
▁Do	-9.49006
▁acredito	-9.49199
▁lista	-9.49251
▁deixa	-9.4933
▁sítio	-9.49487
man	-9.4964
▁trás	-9.49643
ns	-9.49668
remos	-9.49848
▁período	-9.4994
▁min	-9.50222
K	-9.50247
▁descobrimos	-9.50286
▁aula	-9.50304
▁poderá	-9.50388
▁Quer	-9.50701
▁investigação	-9.50725
▁pior	-9.50895
▁familiar	-9.50931
▁regras	-9.51087
passe	-9.51115
▁18	-9.51126
▁Tinha	-9.51244
▁tenta	-9.51362
▁repente	-9.51438
▁zona	-9.51457
▁geração	-9.51501
ban	-9.51555
▁sub	-9.51648
▁sexa	-9.51711
▁can	-9.5174
▁esperar	-9.51813
▁responder	-9.51944
▁le	-9.52127
▁digital	-9.52238
▁fazia	-9.52281
ne	-9.52516
▁qualidade	-9.52659
▁distância	-9.52959
▁pobreza	-9.52962
▁frequente	-9.52981
▁vivem	-9.53068
▁traballo	-9.53186
▁cá	-9.5322
▁Estava	-9.53297
▁total	-9.53427
▁transformar	-9.53609
▁polícia	-9.53728
▁parque	-9.53802
▁parecer	-9.53803
▁prazo	-9.5381
▁parar	-9.53843
▁permitir	-9.54291
ante	-9.5441
▁carta	-9.54469
il	-9.54483
▁instituições	-9.54503
▁Quanto	-9.54506
▁naquela	-9.54532
▁pois	-9.54706
▁usam	-9.54775
▁sinal	-9.54809
▁bebé	-9.55051
▁escolha	-9.55093
lá	-9.55206
▁longa	-9.55284
▁média	-9.55285
▁época	-9.55346
▁abaixo	-9.55457
ter	-9.55667
▁mental	-9.55773
▁so	-9.55971
▁faço	-9.56073
▁via	-9.56178
▁pacientes	-9.56208
▁pena	-9.5627
▁olha	-9.56506
▁manhã	-9.56554
▁massa	-9.56563
▁usamos	-9.56656
▁pouca	-9.56866
▁Univers	-9.56866
▁antigo	-9.5687
▁produzir	-9.56905
▁aspeto	-9.56941
▁luta	-9.57005
▁senti	-9.57398
▁razões	-9.57665
▁surpreendente	-9.57673
▁produção	-9.57719
▁abrir	-9.57829
▁usa	-9.58011
li	-9.58136
▁vimos	-9.58289
▁p	-9.5832
▁desejo	-9.5833
▁vivo	-9.58362
▁sonho	-9.58392
▁absoluta	-9.58472
▁universidade	-9.58472
▁informações	-9.58484
▁Outra	-9.58485
▁análise	-9.58492
▁famílias	-9.58675
▁cos	-9.58889
▁visual	-9.59042
go	-9.59166
▁negócio	-9.59224
▁sorte	-9.59285
▁limite	-9.59301
ó	-9.59317
▁líderes	-9.59352
▁acreditar	-9.59785
▁muda	-9.59935
▁bo	-9.59936
▁lembrar	-9.59943
▁partículas	-9.60188
▁tratar	-9.60362
▁ouvido	-9.60376
▁casos	-9.60596
fiquei	-9.60738
▁face	-9.60857
▁algún	-9.60933
▁veio	-9.60938
▁fala	-9.61015
▁ligação	-9.61019
▁devia	-9.61083
▁man	-9.61337
▁medicamentos	-9.61512
▁mesa	-9.6161
▁Mesm	-9.61973
▁espécies	-9.61997
D	-9.61998
▁exacta	-9.62019
8	-9.62027
▁moita	-9.62123
dor	-9.62589
▁depende	-9.626
▁inteiro	-9.62605
▁perspetiva	-9.62605
▁Tive	-9.62632
▁jogo	-9.62656
▁modelos	-9.627
▁regi	-9.62821
▁moléculas	-9.62824
▁povo	-9.62881
▁fun	-9.63078
▁edifícios	-9.63257
ste	-9.63427
▁contexto	-9.63453
▁chegou	-9.6346
▁aberto	-9.63463
x	-9.63623
▁fixe	-9.6376
▁17	-9.63821
▁pé	-9.63871
▁auga	-9.63906
▁bons	-9.64296
▁tocar	-9.64406
▁cuidados	-9.6442
▁gosto	-9.6447
▁taxa	-9.64497
▁8	-9.64502
▁azul	-9.64538
▁consegui	-9.64581
▁usada	-9.6459
▁dor	-9.64712
▁gran	-9.64799
ância	-9.64918
▁onda	-9.64996
▁Algun	-9.65164
▁muller	-9.65169
▁revolução	-9.65203
▁conseguia	-9.65284
▁edifício	-9.65368
3	-9.65408
▁literal	-9.65462
▁sociedades	-9.65509
▁enviar	-9.65589
▁escolher	-9.65637
▁medio	-9.65825
▁verde	-9.65904
vi	-9.6591
▁Des	-9.66011
▁Qual	-9.66073
▁vejo	-9.66089
▁oceano	-9.66246
▁década	-9.66274
▁Vejam	-9.66291
▁pro	-9.66416
▁raparigas	-9.66569
▁Facebook	-9.66916
▁esforço	-9.66916
▁palabra	-9.66916
▁Muita	-9.66918
▁poderosa	-9.66948
▁km	-9.67036
▁pensem	-9.67096
▁Fu	-9.6712
▁fomos	-9.67138
▁essencial	-9.6717
▁nin	-9.67184
k	-9.67214
▁vive	-9.67403
▁percebi	-9.67732
▁roda	-9.67745
▁matéria	-9.67801
▁transporte	-9.67801
▁superior	-9.67803
▁moral	-9.67824
▁comunicação	-9.67835
▁calquer	-9.67896
▁diga	-9.68018
▁emprego	-9.68117
▁feita	-9.68121
▁Vi	-9.68229
▁significado	-9.68477
ramos	-9.68535
▁sinto	-9.68696
▁topo	-9.68787
▁alimentar	-9.69013
▁necessário	-9.69014
▁obviamente	-9.69331
▁potencial	-9.69396
▁mês	-9.69596
▁Son	-9.69663
6	-9.69672
▁mover	-9.69808
▁passou	-9.69817
▁posição	-9.69908
▁estranho	-9.70006
▁estudos	-9.70043
▁morre	-9.70068
▁genes	-9.70075
za	-9.7017
▁cart	-9.70355
eis	-9.70477
▁cadeira	-9.70504
▁perna	-9.70619
▁espero	-9.70688
▁políticas	-9.70728
▁erro	-9.70953
▁tres	-9.70977
▁Pensem	-9.71097
mbos	-9.71125
▁nenos	-9.71381
▁palco	-9.71421
▁sensação	-9.71422
▁veces	-9.71425
responsabilidade	-9.71426
▁incri	-9.71433
▁Vai	-9.71463
▁utilizar	-9.71517
P	-9.71525
▁pudesse	-9.71578
▁políticos	-9.71622
▁controlar	-9.71714
▁acaba	-9.71792
ficou	-9.71831
A	-9.71966
ir	-9.72146
▁suposto	-9.72347
▁rendimento	-9.72348
▁peso	-9.72358
▁daquela	-9.7236
▁nove	-9.72369
▁avó	-9.72377
▁inovação	-9.72405
▁explorar	-9.72482
▁querer	-9.72548
▁tu	-9.72601
▁governos	-9.72666
▁aprendemos	-9.72692
ados	-9.72708
bo	-9.72848
▁artista	-9.72884
▁ligar	-9.73013
▁estive	-9.73071
▁doente	-9.73184
▁climática	-9.73281
▁amostra	-9.73292
▁investimento	-9.73294
▁direita	-9.73321
▁Bom	-9.73342
▁negócios	-9.73352
▁terríve	-9.73372
▁serviços	-9.73486
▁estrelas	-9.73701
▁chamar	-9.7372
▁câmara	-9.73813
▁sentimento	-9.73887
▁frase	-9.73907
▁terceiro	-9.73961
▁anterior	-9.74005
▁po	-9.74152
▁química	-9.74228
▁vírus	-9.74276
ávamos	-9.74342
▁lutar	-9.74371
▁professor	-9.74592
▁começam	-9.74743
▁projecto	-9.74785
▁semelhante	-9.74831
▁mau	-9.74873
▁entra	-9.74888
iro	-9.74892
unca	-9.75141
▁bloco	-9.75177
▁carreira	-9.75178
▁nacional	-9.75267
ho	-9.75477
▁ficam	-9.75556
▁bili	-9.75625
▁Deixem	-9.75639
▁fizer	-9.75729
▁sendo	-9.75783
▁preço	-9.75824
▁capital	-9.75888
▁máquinas	-9.759
▁rapaz	-9.76038
ci	-9.76125
▁cambio	-9.76139
▁malária	-9.76145
tudo	-9.76148
▁céu	-9.7617
▁construção	-9.76188
▁organização	-9.76559
▁conceito	-9.76781
▁décadas	-9.76847
▁característica	-9.7711
▁14	-9.7736
▁Lo	-9.77417
▁pa	-9.77427
▁escrito	-9.77467
▁x	-9.77541
▁porquê	-9.77656
▁cadeia	-9.7781
▁encontro	-9.7794
▁usado	-9.77968
▁19	-9.78035
▁tema	-9.78061
▁banco	-9.7809
▁texto	-9.78108
án	-9.78184
▁descobri	-9.78202
▁evolução	-9.78224
T	-9.7831
▁13	-9.78425
▁reconhecer	-9.78542
▁árvores	-9.78611
▁sina	-9.78803
▁filha	-9.78804
▁199	-9.78841
▁aumento	-9.78953
▁padrão	-9.79089
▁compaixão	-9.79175
▁medir	-9.79201
▁pasa	-9.7926
▁depressa	-9.79281
▁membros	-9.79563
car	-9.79634
▁dança	-9.79653
▁abordage	-9.79702
9	-9.79813
▁complexo	-9.79939
▁ganhar	-9.80007
▁pública	-9.80043
▁ás	-9.80063
▁cidadãos	-9.80066
▁hoxe	-9.8008
▁telemóvel	-9.8008
▁inglês	-9.80081
▁ritmo	-9.80081
▁carne	-9.80083
▁condições	-9.80097
▁perfeita	-9.80106
▁Con	-9.80254
▁16	-9.80289
▁chave	-9.80412
ura	-9.80691
▁parede	-9.80986
▁sério	-9.81094
▁trazer	-9.81101
▁toca	-9.81175
▁tens	-9.81242
▁gostam	-9.81256
▁decisão	-9.81265
M	-9.81265
▁evitar	-9.81375
▁leis	-9.81534
▁parecem	-9.81571
▁ouvi	-9.81617
▁vivemos	-9.81793
▁Ma	-9.81796
▁debate	-9.81826
▁Chris	-9.81957
▁Qua	-9.8203
▁varia	-9.82049
▁–	-9.82111
▁dixo	-9.82117
▁representa	-9.82191
▁custos	-9.82345
ie	-9.82417
▁recebe	-9.82418
▁cal	-9.82495
▁c	-9.82601
pressão	-9.82685
net	-9.82711
▁tua	-9.82748
ur	-9.83097
▁genoma	-9.83142
▁segredo	-9.83142
▁imaxe	-9.83142
▁milhão	-9.83162
▁terceir	-9.8345
▁mudanças	-9.83486
▁casas	-9.83523
▁conhecer	-9.83571
tar	-9.83757
▁considerar	-9.83923
▁cun	-9.84182
▁actual	-9.84183
▁Grazas	-9.84183
▁biologia	-9.84185
▁terreno	-9.84185
▁cousa	-9.8425
us	-9.84262
▁esteja	-9.84424
qui	-9.84453
éis	-9.84453
▁juntar	-9.84702
▁X	-9.84714
▁fossem	-9.84753
▁pensava	-9.8477
▁viu	-9.84798
▁defini	-9.84821
ión	-9.84911
▁apoio	-9.85098
ga	-9.8521
▁vostede	-9.85237
▁chão	-9.85237
▁presidente	-9.85244
▁Unha	-9.85247
▁pele	-9.85249
▁proteger	-9.85269
▁hipótese	-9.85312
▁exemplos	-9.85314
▁debaixo	-9.85457
ri	-9.85519
▁elementos	-9.85521
▁alimento	-9.85525
▁conduzir	-9.85634
▁irmã	-9.85694
▁daqui	-9.85747
▁i	-9.85778
▁vale	-9.85781
▁funcionam	-9.86167
▁enfermidade	-9.863
▁fenómeno	-9.863
▁propósito	-9.863
▁temperatura	-9.863
▁vontade	-9.863
▁noutro	-9.86301
▁Têm	-9.86308
icamente	-9.86325
▁gelo	-9.86351
▁comeza	-9.86353
▁usá	-9.86388
▁cedo	-9.86403
▁Sul	-9.86417
▁possibilidade	-9.86424
▁princípio	-9.86425
▁decisões	-9.86451
▁camada	-9.86526
▁Mo	-9.86866
▁certamente	-9.87067
▁tornam	-9.87234
▁Dr	-9.87337
“	-9.87375
▁aldeia	-9.87375
▁”	-9.87375
▁fábrica	-9.87375
▁montanha	-9.87376
▁encontrei	-9.87383
▁impossível	-9.87387
▁tecnoloxía	-9.87402
▁receber	-9.87413
▁lixo	-9.87432
▁t	-9.8744
▁interesse	-9.87451
▁científica	-9.87477
▁poderoso	-9.87539
▁peça	-9.87555
▁tarefa	-9.87565
▁acima	-9.87753
▁indivíduos	-9.87807
▁encontramos	-9.87881
▁bomba	-9.87898
dade	-9.87904
▁acha	-9.87925
▁maneiras	-9.8806
▁dez	-9.881
▁criado	-9.88109
ista	-9.8828
▁visita	-9.88346
▁pre	-9.88447
▁/	-9.88462
▁aparelho	-9.88462
▁campanha	-9.88462
▁connosco	-9.88462
▁dúvida	-9.88463
▁cirurgia	-9.88474
▁tradicional	-9.88476
▁incluindo	-9.88491
ídeo	-9.88505
▁abelhas	-9.88527
▁facelo	-9.88616
▁sobreviver	-9.88646
▁motivo	-9.88696
ble	-9.88762
▁Di	-9.88834
ida	-9.89052
▁f	-9.89487
▁The	-9.89494
▁opini	-9.89542
▁espírito	-9.89561
▁direção	-9.89561
▁inteligência	-9.89561
▁software	-9.89561
▁curva	-9.89573
lles	-9.89631
▁olharem	-9.89634
▁comunicar	-9.89734
▁K	-9.89832
▁aparece	-9.89903
▁subir	-9.89908
▁nota	-9.89928
adas	-9.89933
son	-9.90034
▁24	-9.90202
▁deu	-9.90322
▁fan	-9.90669
▁Acontece	-9.90672
▁exterior	-9.90672
▁consumo	-9.90707
by	-9.90716
missão	-9.90743
▁case	-9.90762
▁memória	-9.9097
▁Hav	-9.91038
▁erros	-9.91252
▁ex	-9.91276
▁Po	-9.91372
▁tiveram	-9.91528
cabou	-9.91539
tais	-9.91618
ry	-9.91645
▁boca	-9.91709
plicação	-9.91792
▁complexidade	-9.91796
▁janela	-9.91796
▁escrita	-9.918
▁cabo	-9.91811
▁imediatamente	-9.91853
▁preto	-9.91854
▁monte	-9.91914
▁negros	-9.91997
▁anti	-9.92134
▁aspecto	-9.92165
▁objeto	-9.92179
▁ferramenta	-9.92201
ha	-9.92336
▁Nem	-9.92419
or	-9.92878
▁oportunidades	-9.92881
▁convosco	-9.92932
▁razón	-9.92932
▁vermelho	-9.92932
ália	-9.92941
▁calor	-9.92958
▁dizia	-9.92979
▁ve	-9.93046
▁drogas	-9.93093
▁Tal	-9.93094
▁tido	-9.93114
▁deveria	-9.93217
che	-9.93267
tra	-9.93305
▁perda	-9.9338
▁rapariga	-9.93384
▁desenvolve	-9.9342
▁matar	-9.93453
▁útil	-9.94081
▁breve	-9.94081
▁barato	-9.94082
▁epidemia	-9.94094
▁Posso	-9.941
▁Ei	-9.94142
▁Alguma	-9.94231
▁especialista	-9.9431
▁viva	-9.94355
tro	-9.94372
▁valore	-9.9438
▁conhecemos	-9.94398
▁poida	-9.94403
▁vêem	-9.94436
▁prática	-9.94565
▁poderiam	-9.94566
▁criação	-9.94567
▁página	-9.9457
▁relativa	-9.94655
ú	-9.9466
▁efeitos	-9.94713
▁familia	-9.94858
▁Est	-9.94903
▁olho	-9.94922
▁apresentar	-9.94933
▁pregunta	-9.94959
tas	-9.95149
▁beleza	-9.95244
▁importância	-9.95244
▁médica	-9.95244
▁pronto	-9.95248
▁paz	-9.95264
▁profundo	-9.95337
▁sentado	-9.95357
▁armas	-9.95357
▁ligado	-9.95507
▁sentem	-9.95618
▁identidade	-9.95681
▁demais	-9.95805
▁Bo	-9.95992
dia	-9.96039
▁algué	-9.96061
▁6	-9.96178
▁aparecer	-9.96307
▁mercados	-9.96344
▁cresce	-9.96359
▁difíc	-9.96413
▁Mundial	-9.96421
▁rosto	-9.96423
▁marido	-9.9645
▁Marte	-9.96472
▁utilizador	-9.96504
trás	-9.96523
ver	-9.96552
▁queriam	-9.96651
▁costumava	-9.96756
▁aumenta	-9.96873
▁alterar	-9.97019
▁viram	-9.97019
▁motor	-9.97037
▁aulas	-9.97103
▁500	-9.97194
ch	-9.97332
quí	-9.97377
▁deixem	-9.97537
▁ameaça	-9.97556
▁punto	-9.97612
▁perguntei	-9.97614
▁algunha	-9.97615
▁estilo	-9.97618
▁prisão	-9.97649
▁quiserem	-9.97684
▁agir	-9.97744
▁extra	-9.97785
▁felizes	-9.97905
▁casamento	-9.9791
▁solo	-9.97946
O	-9.97963
▁estrela	-9.98125
▁bocado	-9.98228
▁acham	-9.98229
▁vindo	-9.98293
▁simple	-9.98309
▁programas	-9.98539
▁Sol	-9.98576
▁diria	-9.98587
▁Me	-9.98638
▁eficaz	-9.98652
▁encontra	-9.98736
▁inteira	-9.98816
▁mensagens	-9.98816
▁pintura	-9.98816
▁evento	-9.98817
▁religião	-9.9892
▁investir	-9.98927
▁conseguiu	-9.99025
▁site	-9.99185
▁americanos	-9.99236
nón	-9.99333
mpre	-9.99382
▁antiga	-9.99547
▁atingir	-9.9958
▁falamos	-9.99601
▁puder	-9.99677
▁Tom	-9.99835
bi	-9.99851
▁central	-9.9996
▁W	-9.99966
▁John	-10.0003
▁Ningué	-10.0004
▁órgão	-10.0004
▁imaginem	-10.0004
▁letra	-10.0004
▁dú	-10.0007
▁jornalista	-10.0009
▁cama	-10.001
▁trabalhadores	-10.0012
vários	-10.0019
▁sul	-10.0027
▁implica	-10.0032
▁bebés	-10.004
én	-10.0041
ín	-10.0047
▁pratica	-10.0047
▁bacteria	-10.0048
▁ocorre	-10.0067
▁passei	-10.0078
▁tendência	-10.008
▁peixe	-10.0083
▁profunda	-10.0084
▁home	-10.0098
▁xene	-10.0111
▁ruas	-10.0121
▁Descobri	-10.0124
▁stress	-10.0125
▁objecto	-10.0127
▁New	-10.0127
▁receita	-10.0128
▁fascinante	-10.0128
▁cheia	-10.0129
▁compreensão	-10.0131
▁reais	-10.0133
▁alcançar	-10.0141
ces	-10.015
▁enfrentar	-10.0174
ço	-10.0175
ita	-10.0181
▁alvo	-10.0184
ríamos	-10.0192
▁ecrã	-10.0208
▁prova	-10.0213
▁ricos	-10.0216
▁Segund	-10.0219
▁direc	-10.0232
▁ataque	-10.0239
▁Oriente	-10.0252
▁perspectiva	-10.0252
▁riqueza	-10.0252
▁Natureza	-10.0252
▁Norte	-10.0252
▁organizações	-10.0253
▁ponta	-10.0253
▁GP	-10.0253
▁deixou	-10.0254
este	-10.0254
▁cheguei	-10.0254
▁crear	-10.0259
▁brincar	-10.0259
▁Polo	-10.0266
B	-10.0269
▁adultos	-10.0271
▁voar	-10.0272
▁gosta	-10.0273
ável	-10.0277
▁Mar	-10.0278
▁claramente	-10.0278
génio	-10.0306
▁opera	-10.0322
▁depressão	-10.0322
redor	-10.033
▁vítimas	-10.0331
▁custa	-10.0334
▁nasce	-10.0338
▁daquele	-10.0342
▁artigo	-10.0343
▁dispositivo	-10.0344
▁molécula	-10.0346
▁minuto	-10.0346
▁conflito	-10.035
v	-10.0351
▁198	-10.0365
▁Afeganistão	-10.0379
▁roupa	-10.0379
▁clara	-10.0384
▁gás	-10.0387
▁alí	-10.0414
▁terminar	-10.0419
▁identificar	-10.0421
▁termo	-10.0427
▁Ri	-10.0439
be	-10.0443
▁caro	-10.0459
▁dado	-10.0477
▁parecia	-10.0479
▁político	-10.0479
▁serviço	-10.0479
▁rato	-10.0479
▁soa	-10.0484
▁costa	-10.049
▁respeito	-10.0495
▁básica	-10.0507
▁organismo	-10.0507
▁túa	-10.0507
▁diversidade	-10.0507
▁direta	-10.0507
▁cego	-10.0508
▁crença	-10.0509
▁vento	-10.0511
▁ciclo	-10.0511
▁tira	-10.0524
▁desaparecer	-10.0561
▁segura	-10.0571
▁quilómetros	-10.0573
▁certas	-10.0573
▁exce	-10.0574
▁técnicas	-10.0587
▁Ba	-10.0588
▁7	-10.0588
▁fal	-10.059
▁vejam	-10.0593
▁Y	-10.0595
▁rápida	-10.0598
▁acredita	-10.0603
▁sai	-10.0604
▁vossas	-10.0608
▁método	-10.0612
▁negro	-10.0613
▁paciente	-10.0616
▁el	-10.0616
G	-10.0623
penas	-10.0624
▁notas	-10.0629
▁maravilhoso	-10.0637
▁areia	-10.0638
▁etc	-10.0639
▁Outro	-10.0639
▁cabelo	-10.0639
▁van	-10.0639
▁dito	-10.0643
▁reduzir	-10.0645
▁preso	-10.0647
▁Quere	-10.0656
▁fortes	-10.0662
▁contacto	-10.0663
▁ratos	-10.0666
▁acidente	-10.0686
H	-10.0688
▁tornaram	-10.0692
▁segue	-10.0694
nha	-10.0706
▁investigador	-10.0716
final	-10.072
L	-10.0741
▁robô	-10.075
▁estudante	-10.0752
▁conhecido	-10.0755
▁independente	-10.0757
▁Unido	-10.0758
▁300	-10.0764
▁fase	-10.0765
▁Londres	-10.0768
▁extraordinária	-10.0768
▁café	-10.0768
▁probabilidade	-10.0769
▁felicidade	-10.0769
▁reparar	-10.0772
▁Chama	-10.0774
▁escuro	-10.0776
▁documentos	-10.0776
▁dão	-10.0782
▁pensá	-10.0783
▁travé	-10.0788
istas	-10.0799
▁rio	-10.0801
ck	-10.0802
▁alma	-10.0817
sta	-10.0838
nas	-10.0839
ica	-10.0855
U	-10.0856
▁existir	-10.088
▁arma	-10.0886
jo	-10.0889
▁enormes	-10.089
▁chamo	-10.0892
▁estivesse	-10.0897
nt	-10.0898
▁género	-10.0902
▁profissionais	-10.0902
▁plataforma	-10.0902
▁Vemo	-10.0903
el	-10.091
▁Alé	-10.0914
▁quente	-10.0916
▁baseada	-10.0916
▁ma	-10.0938
▁inclus	-10.0941
níveis	-10.0944
▁adoro	-10.0953
▁artistas	-10.0961
▁saí	-10.0982
▁adolescentes	-10.0986
▁má	-10.0988
▁perigo	-10.1012
▁micro	-10.1015
▁su	-10.1017
▁menor	-10.102
▁aberta	-10.1024
▁árabe	-10.1025
▁plástico	-10.1026
▁recuperar	-10.1037
▁atmosfera	-10.1037
▁carvão	-10.1037
▁micróbio	-10.1037
▁grazas	-10.1037
▁paixão	-10.1037
▁naturais	-10.1037
▁justiça	-10.1037
▁Certo	-10.1037
DA	-10.1037
▁revista	-10.1042
▁cunha	-10.1046
▁pista	-10.1046
▁formação	-10.1053
▁construído	-10.1053
▁profundamente	-10.1065
▁diante	-10.1073
▁diferenças	-10.1075
▁fé	-10.1076
▁avançar	-10.1078
gi	-10.1078
▁peixes	-10.1085
▁permitem	-10.1096
▁preocupa	-10.1097
xa	-10.1101
▁Rein	-10.1114
im	-10.1121
▁fome	-10.1121
▁desaparece	-10.1122
ul	-10.115
▁trabalha	-10.1168
▁científico	-10.1171
▁sentimos	-10.1172
▁velho	-10.1174
▁clínica	-10.1174
▁escritório	-10.1174
▁hormona	-10.1174
▁ótimo	-10.1174
▁linguaxe	-10.1174
▁Davi	-10.1175
gar	-10.1175
▁cientista	-10.1176
fa	-10.1188
▁Si	-10.1192
▁robôs	-10.1193
▁formar	-10.1203
▁planetas	-10.123
E	-10.1236
▁principa	-10.1257
▁acreditam	-10.1272
iz	-10.1284
▁cola	-10.1301
bilidade	-10.1301
▁neurona	-10.1309
▁autismo	-10.1313
▁silêncio	-10.1313
▁amiga	-10.1313
▁perfeito	-10.1314
▁companhia	-10.1315
▁bairro	-10.1316
▁publica	-10.1317
▁proteção	-10.1317
▁sombra	-10.1317
▁corre	-10.1319
▁proxecto	-10.132
▁imensa	-10.1323
▁imenso	-10.1325
▁agricultura	-10.1327
▁popular	-10.1329
▁aceitar	-10.1338
▁meia	-10.1341
▁cai	-10.1345
▁pares	-10.1354
▁senhor	-10.1368
▁pega	-10.1381
▁cura	-10.1382
▁creo	-10.1432
▁sentia	-10.1434
▁complicado	-10.1453
▁símbolo	-10.1453
▁Twitter	-10.1453
▁parecido	-10.1454
▁História	-10.1455
▁graça	-10.1455
▁Sem	-10.1456
▁discurso	-10.1456
▁designer	-10.1458
▁brilhante	-10.1463
▁crime	-10.1468
▁197	-10.1471
▁apareceu	-10.1472
fi	-10.1474
▁Ten	-10.1482
▁bola	-10.1482
▁vender	-10.1489
▁perce	-10.1498
▁Poi	-10.1506
▁cuidado	-10.1515
▁dev	-10.152
▁seda	-10.1536
▁9	-10.1545
expressão	-10.1549
▁Al	-10.1569
▁algu	-10.1569
▁conheci	-10.158
▁Brasil	-10.1596
▁arquitetura	-10.1596
▁individuais	-10.1596
▁variedade	-10.1596
▁noutra	-10.1596
▁menina	-10.1596
▁quanta	-10.1596
▁fixo	-10.1596
▁internacional	-10.1597
▁comuns	-10.1597
▁acabe	-10.1597
▁conclus	-10.1599
▁Médio	-10.16
▁imaginação	-10.1603
▁económica	-10.1612
▁baseado	-10.1621
ticamente	-10.1629
▁começamos	-10.1636
▁avalia	-10.1655
▁descrever	-10.1656
▁fazerem	-10.1657
eira	-10.1672
▁desafios	-10.1685
tico	-10.1697
▁ignor	-10.1709
▁decidir	-10.171
50	-10.1711
▁neuro	-10.1714
▁fotografias	-10.1722
▁disponíve	-10.1728
▁dentes	-10.1737
▁cultural	-10.174
▁Higgs	-10.1741
▁círculo	-10.1741
▁insecto	-10.1741
▁privacidade	-10.1741
▁infantil	-10.1741
▁criatividade	-10.1741
▁provável	-10.1742
▁vantage	-10.1742
▁terá	-10.1742
▁avião	-10.1742
▁acaso	-10.1742
▁divertido	-10.1742
▁televisão	-10.1742
▁catro	-10.1743
▁narrativa	-10.1743
▁velha	-10.1746
▁analisar	-10.1746
vo	-10.1748
▁cre	-10.1753
▁ba	-10.1753
▁divis	-10.1757
▁genética	-10.1758
▁negra	-10.176
▁zero	-10.1764
▁sermos	-10.1792
▁Fo	-10.1806
ivo	-10.1826
▁facil	-10.1828
▁irmão	-10.1831
▁motiva	-10.1842
lu	-10.1863
eiro	-10.1873
▁interessa	-10.1875
▁participar	-10.1883
▁Espero	-10.1888
▁VIH	-10.1888
▁treino	-10.1888
▁clima	-10.1888
▁quadro	-10.1888
▁información	-10.1889
▁Irão	-10.189
▁batalha	-10.1892
▁xunto	-10.1899
▁frequência	-10.1901
▁observa	-10.1901
▁escreveu	-10.1906
▁virtual	-10.191
▁errada	-10.1914
▁arranjar	-10.1915
▁pobre	-10.192
▁aranha	-10.1924
▁afirma	-10.1926
▁precisar	-10.1929
▁Disse	-10.1937
▁tivessem	-10.1947
▁construímo	-10.1957
▁consequências	-10.1962
▁encontram	-10.1962
▁atualmente	-10.1969
▁ultrapassar	-10.197
▁Le	-10.1973
▁venda	-10.1993
▁surgir	-10.1998
▁sexual	-10.2012
7	-10.202
rdem	-10.2031
▁libertar	-10.2033
lmente	-10.2035
▁pré	-10.2037
▁goberno	-10.2038
▁audiência	-10.2038
▁mortalidade	-10.2039
▁curto	-10.2042
▁desenhar	-10.2046
▁bela	-10.2047
▁significativa	-10.2047
▁passam	-10.2058
encia	-10.2064
▁mecanismo	-10.2073
▁pod	-10.2076
▁bactérias	-10.2079
▁realizar	-10.208
▁testar	-10.2084
com	-10.2097
▁indica	-10.2099
▁teriam	-10.2104
▁unidade	-10.2107
▁subi	-10.2111
▁preocupar	-10.2121
▁toneladas	-10.2124
▁fin	-10.2127
▁constante	-10.2164
▁incríve	-10.2176
▁toma	-10.2178
▁completa	-10.2188
▁La	-10.2188
▁tradicionais	-10.2189
▁Aquele	-10.2189
▁eleições	-10.2189
▁ganho	-10.2189
▁Gostaria	-10.219
▁fazendo	-10.219
▁chuva	-10.2191
▁volume	-10.2191
cer	-10.2204
▁frio	-10.2207
▁lua	-10.221
▁clientes	-10.2212
▁conteúdo	-10.2226
▁medicamento	-10.2236
▁colega	-10.2236
bido	-10.2237
eza	-10.224
▁encontrámos	-10.2244
▁sentimentos	-10.2252
▁Acredit	-10.2254
▁transforma	-10.2262
▁telefone	-10.2263
camente	-10.2266
▁conversas	-10.2295
▁Sei	-10.232
▁grave	-10.2324
▁lembro	-10.2328
ira	-10.2336
R	-10.234
▁efecto	-10.2343
▁específico	-10.2343
▁exército	-10.2343
▁óbvio	-10.2343
▁rádio	-10.2343
▁expans	-10.2343
▁cenário	-10.2343
▁fogo	-10.2343
▁impressão	-10.2347
▁agricultores	-10.2347
▁fillo	-10.2352
▁origem	-10.2353
▁proteínas	-10.2359
▁anda	-10.2361
▁conhecem	-10.2367
▁magi	-10.2368
▁vacinas	-10.2372
▁dispositivos	-10.2385
▁morta	-10.2386
▁Á	-10.2387
▁falam	-10.2393
▁nela	-10.2402
▁preparar	-10.2435
▁sítios	-10.2438
▁atopar	-10.2445
xi	-10.2445
▁feitas	-10.2446
▁autor	-10.2459
▁momentos	-10.2472
nse	-10.2475
▁façam	-10.2479
▁precisava	-10.2486
▁pudé	-10.2499
▁bonito	-10.2499
▁Calif	-10.2499
▁dezena	-10.25
▁kg	-10.25
órni	-10.25
▁lenta	-10.25
▁igualdade	-10.25
▁barco	-10.2501
▁positiva	-10.2502
▁obrigada	-10.2502
▁voto	-10.2503
▁mentr	-10.2508
ran	-10.251
▁confiar	-10.2511
▁completo	-10.2512
▁afastar	-10.2514
▁pasar	-10.252
▁engenharia	-10.2521
▁apanhar	-10.2521
▁tra	-10.2521
▁conhecida	-10.2523
▁traz	-10.2528
▁civil	-10.2532
▁Tu	-10.2548
▁americana	-10.2555
▁forças	-10.2556
▁técnica	-10.2562
▁segundos	-10.2567
▁devo	-10.257
▁quis	-10.2576
▁primo	-10.2579
▁estados	-10.2593
▁entende	-10.2594
▁meios	-10.2619
quilo	-10.2627
▁dum	-10.2631
▁tarefas	-10.2632
▁humanas	-10.2632
▁emocional	-10.264
▁começo	-10.2643
tório	-10.2647
▁saudável	-10.2658
▁Houve	-10.2658
▁famoso	-10.2658
nstein	-10.2658
▁disponíveis	-10.2672
inha	-10.2676
▁pão	-10.2698
rovavelmente	-10.2715
▁maravilhosa	-10.2719
▁projetos	-10.2719
áveis	-10.2721
▁sozinho	-10.2723
▁criá	-10.2741
▁ro	-10.2742
▁galáxias	-10.2744
▁públicos	-10.2752
▁leve	-10.2759
▁400	-10.2761
▁objetos	-10.2764
▁luzes	-10.2771
▁segui	-10.2775
▁pudessem	-10.2803
versão	-10.2803
▁limpa	-10.2803
▁ollo	-10.2808
▁Israel	-10.2819
▁cerebral	-10.2819
▁charla	-10.2819
▁crítica	-10.2819
▁chegá	-10.2819
▁surpresa	-10.2819
▁visitar	-10.282
▁Canadá	-10.282
▁haja	-10.2821
▁2008	-10.2821
▁moda	-10.2824
▁universal	-10.2825
▁criou	-10.2826
ley	-10.2827
th	-10.283
▁gastar	-10.2837
▁oposto	-10.2846
▁bi	-10.2848
▁vídeos	-10.2851
▁surge	-10.2858
▁cortar	-10.2865
▁interessantes	-10.2871
▁mostram	-10.2874
▁lingua	-10.2879
▁Per	-10.2885
▁poderem	-10.2891
▁gene	-10.2892
▁Ali	-10.2893
▁árvore	-10.2896
▁notícia	-10.2897
▁antibióticos	-10.2899
▁Ser	-10.29
▁excelente	-10.2903
▁paso	-10.2919
▁retirar	-10.2923
▁atravessar	-10.2927
▁Vo	-10.2942
▁chamam	-10.2953
▁partilha	-10.2957
▁ouro	-10.2963
pção	-10.2963
▁tumor	-10.2967
▁continuam	-10.2971
▁cami	-10.2978
▁XX	-10.2983
▁desempenho	-10.2983
▁hospitais	-10.2983
▁sustentável	-10.2983
▁actividade	-10.2983
▁equivalente	-10.2984
▁marcha	-10.2984
▁Nesta	-10.2984
▁riso	-10.2988
▁arredor	-10.2988
▁Bill	-10.2991
▁contas	-10.2997
▁conseguirmos	-10.3003
▁descobriu	-10.3008
▁evolui	-10.3011
▁rapazes	-10.3011
▁constantemente	-10.3011
▁defender	-10.3018
▁pude	-10.3022
▁escolhas	-10.3034
▁In	-10.3043
amén	-10.3045
▁progresso	-10.3057
▁daquilo	-10.3058
▁equipamento	-10.3066
▁membro	-10.3069
▁ponte	-10.3071
ações	-10.3074
ge	-10.3074
▁Ah	-10.3075
▁resulta	-10.3085
▁espacial	-10.3086
▁certos	-10.3089
▁oferecer	-10.309
▁Ás	-10.3094
▁cozinha	-10.3095
▁grav	-10.3106
▁gostava	-10.3109
ário	-10.3113
tou	-10.3113
▁dixe	-10.3118
▁peças	-10.3122
▁estejam	-10.3127
▁ganha	-10.3133
▁jornal	-10.3145
▁trouxe	-10.3147
▁olhem	-10.3147
pi	-10.3147
▁curiosidade	-10.315
▁telemóveis	-10.315
▁mecânica	-10.315
▁Guerra	-10.315
▁bonita	-10.315
▁rara	-10.3151
tei	-10.3158
▁distribuiç	-10.3162
▁1000	-10.3164
feira	-10.3169
▁original	-10.3171
▁faça	-10.3171
▁complexos	-10.3173
▁porco	-10.3179
▁revela	-10.3191
▁ce	-10.3205
▁refugiados	-10.3219
▁trans	-10.3227
▁funcion	-10.3228
▁limita	-10.3242
▁benefícios	-10.3249
americanos	-10.3254
cio	-10.3259
▁Trata	-10.3273
▁experimentar	-10.3277
▁ós	-10.3289
▁pés	-10.3296
▁Xa	-10.3299
tá	-10.3301
▁participa	-10.3304
▁Aí	-10.3306
sen	-10.3311
creio	-10.3317
▁web	-10.3319
▁Japão	-10.3319
▁infância	-10.3319
▁profesor	-10.3319
▁destino	-10.3319
▁barata	-10.3319
▁educación	-10.332
▁habilidade	-10.332
▁exame	-10.332
▁recupera	-10.332
▁chip	-10.3321
▁Nobel	-10.3323
▁espantoso	-10.3324
▁córtex	-10.3325
▁responsável	-10.3328
▁Foram	-10.3329
▁falso	-10.3329
▁artificial	-10.3329
▁más	-10.333
▁precisão	-10.3331
mail	-10.3331
IB	-10.3333
▁deviam	-10.3337
▁relacionada	-10.334
▁experiencia	-10.3346
▁transmitir	-10.3353
▁Numa	-10.3354
▁andava	-10.3364
ava	-10.3368
▁Ar	-10.3368
▁substituir	-10.3384
▁Log	-10.3388
▁chamou	-10.3389
▁queríamos	-10.3394
▁faculdade	-10.3406
ic	-10.3406
▁cheio	-10.3408
▁Teñ	-10.3411
ém	-10.3413
▁moderna	-10.3415
▁indivíduo	-10.3422
tivos	-10.3426
▁registo	-10.3428
▁empregos	-10.3433
riamente	-10.3448
▁Consegui	-10.347
▁junta	-10.3471
▁prazer	-10.3475
▁cambiar	-10.3475
▁militar	-10.3476
▁garantir	-10.3492
▁Washington	-10.3492
▁xogo	-10.3492
▁relación	-10.3492
▁médio	-10.3492
▁triste	-10.3492
▁vidro	-10.3492
▁eletricidade	-10.3492
▁deserto	-10.3493
▁terapia	-10.3496
▁TV	-10.3496
it	-10.3499
▁trabalh	-10.3505
▁perdido	-10.3505
▁cena	-10.3506
▁mentira	-10.3507
▁coche	-10.3509
▁exploração	-10.3509
▁chefe	-10.3514
▁rei	-10.352
▁mira	-10.3552
▁idosos	-10.3556
▁primeiras	-10.3561
▁frases	-10.3562
bra	-10.3563
▁qué	-10.3577
ido	-10.3581
▁viajar	-10.3581
▁fantástica	-10.36
▁fronteira	-10.3602
éria	-10.3612
▁fór	-10.3613
▁duro	-10.3618
▁Num	-10.3633
▁cair	-10.3646
▁larga	-10.3647
▁invisíve	-10.3657
vergonha	-10.3666
▁México	-10.3667
▁específica	-10.3667
▁Infeliz	-10.3667
▁proceso	-10.3667
▁classe	-10.3667
▁relevante	-10.3667
▁fundamentais	-10.3668
▁2009	-10.3669
▁fibra	-10.3672
▁consumidores	-10.3672
▁utiliza	-10.3673
▁empatia	-10.3675
▁prever	-10.3676
▁infelizmente	-10.3679
▁cri	-10.3684
,5	-10.3688
▁sonhos	-10.3692
▁quiser	-10.3702
▁Ver	-10.3707
tiva	-10.3713
tado	-10.3715
▁falando	-10.3726
▁emissões	-10.3728
▁graus	-10.3733
▁proba	-10.3748
ler	-10.3751
▁páginas	-10.377
▁extraordinário	-10.3781
▁sequência	-10.3782
▁foca	-10.3792
▁seriam	-10.3794
▁b	-10.3811
ide	-10.3838
▁diálogo	-10.3846
▁inferior	-10.3846
▁Apple	-10.3846
▁tivé	-10.3846
▁Anders	-10.3846
MS	-10.3847
▁voltei	-10.3848
▁rica	-10.3848
ston	-10.3849
▁causar	-10.3849
▁apoiar	-10.385
▁moeda	-10.3852
▁obtemos	-10.3852
▁atividade	-10.3855
▁perguntou	-10.3856
mba	-10.3857
▁21	-10.3862
▁fila	-10.3871
et	-10.388
érci	-10.3882
izar	-10.3889
▁avô	-10.3889
▁conflitos	-10.3895
▁falo	-10.3904
▁existia	-10.3905
gito	-10.3909
▁pesca	-10.3913
▁atual	-10.3914
▁fo	-10.3917
▁iriam	-10.3917
▁dizemos	-10.392
▁torná	-10.3926
▁salto	-10.3941
▁quinta	-10.3962
▁atopa	-10.3962
▁pedra	-10.3973
▁desenho	-10.3973
▁U	-10.3974
▁dura	-10.3974
▁braço	-10.3975
▁nele	-10.3977
▁sensor	-10.3984
▁Li	-10.3988
▁aprende	-10.3993
▁escura	-10.4
▁princípios	-10.4006
▁requer	-10.4013
▁produz	-10.4024
▁madeira	-10.4027
gún	-10.4028
▁Lembro	-10.4028
▁compromisso	-10.4029
▁objectivo	-10.4029
▁argumento	-10.4033
▁gerações	-10.4033
▁ligações	-10.4035
▁aproximadamente	-10.4036
▁sabedor	-10.4037
▁Pelo	-10.4038
xo	-10.4041
▁35	-10.4066
▁recompensa	-10.4071
▁descobriram	-10.4077
▁poupar	-10.4078
▁mo	-10.4082
▁elemento	-10.4082
bol	-10.4092
▁passaram	-10.4094
▁Vão	-10.4094
▁pensarmos	-10.4099
▁oh	-10.4104
▁ouvimos	-10.4111
▁45	-10.4119
▁fixemos	-10.4127
▁comercial	-10.4127
▁pra	-10.4129
▁Fi	-10.4136
▁bio	-10.4154
▁Ga	-10.4159
agens	-10.4159
▁diagnóstico	-10.416
▁corrente	-10.4161
lin	-10.4163
▁diminui	-10.417
▁obra	-10.4176
▁bater	-10.4179
▁fato	-10.419
▁paga	-10.419
▁hab	-10.4201
rmais	-10.4204
aram	-10.4209
▁autocarro	-10.4213
▁gripe	-10.4213
▁metáfora	-10.4213
▁telescópio	-10.4213
▁esfera	-10.4213
▁desastre	-10.4213
▁desigualdade	-10.4213
▁vermelha	-10.4213
▁sozinha	-10.4213
▁macho	-10.4213
▁fármaco	-10.4213
▁tinta	-10.4214
▁Entre	-10.4214
▁festa	-10.4214
▁terrorista	-10.4216
▁dimensões	-10.4216
▁terrorismo	-10.4218
▁combustível	-10.4224
▁videoxogo	-10.4227
▁22	-10.4228
▁debería	-10.4232
▁gerir	-10.4234
▁inventar	-10.4239
▁ensaio	-10.425
▁Grande	-10.4251
▁adicionar	-10.4252
▁san	-10.4259
▁cem	-10.4261
▁obras	-10.4265
▁quere	-10.4275
▁Mu	-10.4295
tivo	-10.4305
▁Eram	-10.4307
▁Par	-10.4309
BG	-10.4314
ten	-10.432
▁consciente	-10.4333
▁mosquitos	-10.4339
▁votar	-10.4346
▁Fiz	-10.4349
▁data	-10.4353
▁vacina	-10.4366
▁propriedade	-10.4366
▁perigoso	-10.4371
▁pessoais	-10.4373
zo	-10.4374
▁possibilidades	-10.4379
▁Alemanha	-10.4401
▁océano	-10.4401
▁dieta	-10.4401
▁cantidade	-10.4401
▁sofrimento	-10.4402
vivência	-10.4402
▁interesante	-10.4402
▁poesia	-10.4403
▁gritar	-10.4403
▁especie	-10.4403
tención	-10.4404
▁prestes	-10.4405
▁Iraque	-10.4405
▁branca	-10.4405
▁saída	-10.441
ível	-10.4411
▁sofre	-10.4415
▁recebi	-10.4418
▁provar	-10.442
▁sabíamos	-10.4424
▁pedido	-10.4425
▁Pro	-10.4429
▁vizinhos	-10.443
▁beber	-10.4435
edes	-10.4442
▁reserva	-10.4448
▁150	-10.4454
▁falhar	-10.4458
▁aplicações	-10.446
▁Fique	-10.446
▁comportamentos	-10.446
▁pico	-10.446
▁ataques	-10.4462
▁faziam	-10.4462
▁Começa	-10.4484
▁gostar	-10.4509
▁programar	-10.4516
▁lembra	-10.4533
▁liga	-10.4535
▁considera	-10.4541
▁aves	-10.4557
▁Rec	-10.4559
▁moderno	-10.4562
▁cálculo	-10.4563
▁alternativa	-10.4563
▁soube	-10.4565
▁droga	-10.4566
ton	-10.4569
▁engenheiros	-10.4572
▁sons	-10.4576
▁hipóteses	-10.458
▁bairros	-10.4589
ber	-10.4589
▁email	-10.4594
▁exercício	-10.4594
▁iguais	-10.4594
▁reputação	-10.4594
▁título	-10.4594
▁vazio	-10.4594
▁aniversário	-10.4594
▁literatura	-10.4594
▁esperanza	-10.4594
▁Final	-10.4594
▁opções	-10.4595
▁coragem	-10.4595
▁fluxo	-10.4596
▁muçulmano	-10.4597
▁permitiu	-10.4597
▁mantém	-10.4599
▁mostrou	-10.4602
▁sofrer	-10.4605
▁jogar	-10.4618
▁obes	-10.4618
▁seguintes	-10.4636
▁control	-10.4653
▁instru	-10.4654
▁corpos	-10.4659
▁digita	-10.4663
▁semelhantes	-10.4664
ed	-10.4666
▁ilumina	-10.4667
▁d	-10.4676
▁responde	-10.468
▁individual	-10.4696
▁Queria	-10.4697
▁fico	-10.4702
▁envolver	-10.4725
▁noção	-10.4736
id	-10.4747
▁secundário	-10.4753
▁bicicleta	-10.4763
▁competi	-10.4768
▁la	-10.4768
▁Austr	-10.4768
▁proteína	-10.477
▁líder	-10.4773
▁estranha	-10.4779
tualmente	-10.4783
lina	-10.4784
▁dificuldades	-10.4785
ego	-10.479
▁Frank	-10.479
▁circuito	-10.479
▁instituição	-10.479
▁jantar	-10.479
▁trânsito	-10.479
▁técnico	-10.479
▁Francisco	-10.479
▁economista	-10.479
▁incrible	-10.4791
▁eixo	-10.4791
▁funcionário	-10.4791
▁ven	-10.4794
▁Angeles	-10.4797
▁Paris	-10.4803
▁chora	-10.4809
inho	-10.4809
▁paredes	-10.4811
▁convencer	-10.4812
▁interagir	-10.4813
▁quiz	-10.4813
▁seguido	-10.4815
▁Institut	-10.482
▁Seria	-10.4821
▁raça	-10.4821
▁tom	-10.4822
▁crece	-10.4823
▁ha	-10.4827
▁métodos	-10.4828
▁destrui	-10.483
▁j	-10.4841
▁decidiu	-10.4843
▁aproxima	-10.4851
ust	-10.4857
▁sabiam	-10.4858
▁mala	-10.4866
▁Pa	-10.4871
▁recolher	-10.4873
▁aplicar	-10.4885
cos	-10.4886
▁criaturas	-10.4889
ização	-10.4891
lha	-10.4893
▁mudaram	-10.4893
▁práticas	-10.4906
ig	-10.4906
▁espalhar	-10.4908
cidente	-10.4909
uros	-10.4909
▁determinar	-10.4918
gestão	-10.4919
▁construí	-10.4924
▁sugerir	-10.4926
ng	-10.4939
ire	-10.4948
▁saír	-10.4954
gu	-10.4959
▁museu	-10.4967
▁necessária	-10.4974
▁compaix	-10.4974
▁torno	-10.4976
▁focar	-10.4983
▁partido	-10.4983
▁bocadinho	-10.499
▁imprensa	-10.499
▁mensaxe	-10.499
▁núcleo	-10.499
▁urbano	-10.499
▁prémio	-10.499
▁Feliz	-10.499
▁ampla	-10.499
▁barulho	-10.499
▁envolvido	-10.499
▁cabeza	-10.499
▁mistério	-10.499
▁entrou	-10.499
▁Adoro	-10.499
▁probable	-10.499
▁resistência	-10.499
▁aceite	-10.4991
▁histórico	-10.4992
▁Nacional	-10.4992
▁restaurante	-10.4993
▁expandir	-10.5001
▁detalhes	-10.5003
▁banho	-10.5005
▁metro	-10.5006
▁militares	-10.5009
▁tes	-10.5011
▁terço	-10.5014
ix	-10.5015
▁transformação	-10.5019
▁Contu	-10.5025
ine	-10.5033
▁quisermos	-10.5043
▁diziam	-10.5047
par	-10.5051
▁electric	-10.506
▁Nun	-10.5081
▁pi	-10.5104
▁senhora	-10.5116
▁juntas	-10.5118
americana	-10.5122
▁sería	-10.5124
nel	-10.5124
po	-10.513
▁comentários	-10.5136
▁mistura	-10.5136
tan	-10.5137
▁regressar	-10.5139
▁Vive	-10.5147
ja	-10.5149
▁máxim	-10.5151
posição	-10.5155
▁contrato	-10.5159
▁servir	-10.516
j	-10.5161
▁coloca	-10.5163
▁trabalham	-10.5166
▁nomes	-10.5168
▁Ka	-10.517
▁orienta	-10.5173
▁mundia	-10.5173
▁privado	-10.5181
▁criam	-10.5189
▁morto	-10.5191
▁Começámo	-10.5194
▁Consegue	-10.5194
▁Inglaterra	-10.5194
▁académico	-10.5194
▁comprimento	-10.5194
▁dívida	-10.5194
▁esqueleto	-10.5194
▁esquerdo	-10.5194
▁quântica	-10.5194
▁reconstruir	-10.5194
▁Quénia	-10.5194
▁similar	-10.5194
▁existência	-10.5194
▁York	-10.5194
▁liña	-10.5194
▁paisagem	-10.5195
▁consumi	-10.5195
▁cega	-10.5195
▁Norma	-10.5198
▁transição	-10.5202
▁seguida	-10.5207
▁ciencia	-10.5208
ente	-10.5216
▁Uni	-10.5223
▁h	-10.5224
▁pegada	-10.5226
▁cão	-10.5234
▁sapato	-10.5234
bel	-10.5238
▁sal	-10.5241
▁organizar	-10.5241
▁nivel	-10.5247
▁ouviram	-10.5248
cre	-10.5256
▁provas	-10.5263
▁acto	-10.5267
▁Sr	-10.5267
▁troca	-10.5275
▁voo	-10.5276
▁Joe	-10.5306
▁pensado	-10.5307
▁facemos	-10.5309
▁traballar	-10.5311
ol	-10.5312
nta	-10.5317
▁Pensa	-10.5317
▁rapa	-10.5319
▁194	-10.5321
ássemos	-10.5323
▁salas	-10.5324
ford	-10.5327
▁admira	-10.5345
▁repetir	-10.5345
▁popula	-10.5349
▁Har	-10.536
▁Ta	-10.5369
▁colabora	-10.537
▁vivi	-10.5376
▁liberta	-10.5384
▁irem	-10.5389
▁industria	-10.5392
▁poema	-10.5396
▁desenvolvido	-10.54
▁Harvard	-10.5402
▁distinta	-10.5402
▁globais	-10.5402
▁oxitocina	-10.5402
▁personalidade	-10.5402
▁possíveis	-10.5402
▁tód	-10.5402
▁proposta	-10.5402
▁reconhecimento	-10.5402
▁Mãe	-10.5403
▁loja	-10.5403
▁27	-10.5403
▁situações	-10.5404
▁eventual	-10.5404
▁aparente	-10.5404
▁banda	-10.5405
▁esposa	-10.5406
▁velhos	-10.5407
▁dificuldade	-10.5407
▁profissional	-10.5407
▁cuidar	-10.5409
▁fatores	-10.5412
▁ilha	-10.5427
▁advogado	-10.543
if	-10.5435
▁Cal	-10.5442
pro	-10.5444
aneiro	-10.5446
cha	-10.545
▁estarem	-10.5459
ah	-10.5467
▁ac	-10.5486
▁percorrer	-10.5488
▁estatísticas	-10.5499
▁virar	-10.5503
▁osso	-10.5511
▁clar	-10.5515
▁move	-10.5523
via	-10.5524
▁estranhos	-10.5528
▁amar	-10.5545
monos	-10.5551
W	-10.5576
▁mandar	-10.5597
zi	-10.561
▁combustíve	-10.5612
▁Tínhamo	-10.5615
▁cardíaca	-10.5615
▁cardíaco	-10.5615
▁cerebrais	-10.5615
▁laboratorio	-10.5615
▁prioridade	-10.5615
▁promessa	-10.5615
▁obstáculo	-10.5615
▁climático	-10.5615
▁microscópio	-10.5615
▁mentais	-10.5615
▁bolsa	-10.5615
▁exposição	-10.5615
▁Big	-10.5617
tude	-10.5618
sas	-10.5621
▁piada	-10.5621
▁repara	-10.5621
▁placa	-10.5622
▁ilusão	-10.5622
▁reação	-10.5622
▁estratégia	-10.5625
▁xeo	-10.5626
▁belo	-10.5626
▁Homem	-10.5627
▁SI	-10.5627
▁respondeu	-10.5631
▁extens	-10.5632
▁aluno	-10.5633
▁Aplauso	-10.5633
▁común	-10.5635
▁explicação	-10.5635
▁historias	-10.5638
▁neno	-10.5639
▁acabado	-10.5646
N	-10.5646
▁cita	-10.5647
▁toque	-10.5648
fo	-10.5649
▁limitado	-10.5654
amento	-10.5661
▁salva	-10.5664
▁verdes	-10.5665
▁americano	-10.5672
▁apercebi	-10.5674
▁artigos	-10.5676
▁Poderia	-10.5694
▁passada	-10.5701
▁virem	-10.5706
▁interessados	-10.5708
▁vira	-10.572
stro	-10.5725
▁naturalmente	-10.5728
chei	-10.5731
có	-10.574
tores	-10.574
▁comezar	-10.5741
▁Nada	-10.5758
▁Dia	-10.5778
▁ajudam	-10.5779
▁perturba	-10.5783
▁curar	-10.5786
▁sentar	-10.5791
gen	-10.5806
▁Som	-10.5807
pre	-10.5813
ntro	-10.5817
▁23	-10.5828
▁Nenhum	-10.5832
▁YouTube	-10.5832
▁permanente	-10.5832
▁website	-10.5832
▁França	-10.5832
▁Richar	-10.5832
▁saudáveis	-10.5832
▁poboaci	-10.5832
▁ótima	-10.5833
▁aproveitar	-10.5833
▁Paul	-10.5833
▁Bang	-10.5834
▁fracasso	-10.5835
▁resistente	-10.5837
▁mortos	-10.5838
▁violenta	-10.5838
▁envellece	-10.5838
▁saco	-10.5838
▁coral	-10.5841
▁75	-10.5842
▁tentativa	-10.5845
▁dormir	-10.5846
▁presentes	-10.5855
▁veículo	-10.5856
▁setembro	-10.5857
▁radical	-10.5867
▁Dois	-10.5871
▁seca	-10.5871
▁gerar	-10.5875
▁acelerar	-10.5886
▁Ro	-10.5886
▁costas	-10.5887
▁trabalhava	-10.5891
F	-10.5898
▁medi	-10.59
▁ordenador	-10.5902
▁querido	-10.5912
▁nervoso	-10.5913
▁incentivos	-10.5914
▁eliminar	-10.5914
▁fronteiras	-10.5914
ago	-10.5914
▁Du	-10.5926
▁químicos	-10.5933
▁legal	-10.5943
▁ato	-10.5946
ches	-10.5946
mar	-10.5962
um	-10.5974
▁fose	-10.5977
▁aspectos	-10.5981
ren	-10.5982
nce	-10.5985
▁contribui	-10.6009
▁dada	-10.6011
der	-10.6016
▁religi	-10.6035
ico	-10.6035
▁aproximar	-10.6047
▁consciencia	-10.6054
▁aconteça	-10.6055
▁inglés	-10.6055
▁mamífero	-10.6055
▁jardim	-10.6055
▁liderança	-10.6055
▁distinto	-10.6055
▁colónia	-10.6055
▁influência	-10.6055
▁fósseis	-10.6055
▁pilha	-10.6055
▁Diz	-10.6056
▁Significa	-10.6056
▁biblioteca	-10.6057
▁ligeiramente	-10.6057
▁carga	-10.6058
▁Moita	-10.606
▁especiais	-10.606
▁corrida	-10.6065
▁falei	-10.6065
▁ajudou	-10.6065
▁equaç	-10.6068
▁esconder	-10.6071
▁financeira	-10.6079
▁abordar	-10.6081
▁conselho	-10.6082
tável	-10.6083
lla	-10.6086
land	-10.6087
▁complexa	-10.6088
▁Arte	-10.6097
▁perde	-10.61
estar	-10.6102
▁perdemos	-10.6107
▁impedir	-10.6108
▁usou	-10.6114
▁usados	-10.6116
▁Sa	-10.6117
▁Thom	-10.6121
V	-10.6124
▁lançar	-10.6128
▁ocorrer	-10.6131
▁grava	-10.6135
▁vivos	-10.6139
▁din	-10.6144
▁traballa	-10.6145
▁sente	-10.6146
▁levanta	-10.6147
▁Ra	-10.6155
cção	-10.6157
▁levantar	-10.6159
▁im	-10.616
▁investigar	-10.6162
▁explica	-10.6166
▁levado	-10.6174
▁africanos	-10.6178
▁entrevista	-10.6182
▁condutor	-10.6191
ac	-10.6192
▁escolar	-10.6195
▁criaram	-10.6216
▁San	-10.6224
▁separar	-10.6224
▁mecanismos	-10.6227
▁algoritmos	-10.6227
▁interpreta	-10.6228
▁escoita	-10.6232
▁chamadas	-10.6233
▁habita	-10.6245
▁faria	-10.626
▁propor	-10.6274
▁g	-10.6275
▁companhias	-10.6277
▁estaria	-10.6277
rei	-10.628
▁Número	-10.6282
▁acontecido	-10.6282
▁discussão	-10.6282
▁distúrbio	-10.6282
▁doméstica	-10.6282
▁elétrico	-10.6282
▁enerxía	-10.6282
▁referência	-10.6282
▁propia	-10.6282
▁êxito	-10.6282
▁raza	-10.6282
▁Alzheimer	-10.6282
▁conté	-10.6286
▁clase	-10.6288
▁científicos	-10.6288
▁crédito	-10.6289
▁audi	-10.6291
▁entropia	-10.6292
▁Man	-10.6293
▁alegria	-10.6293
▁potência	-10.6294
▁alcance	-10.6298
▁criminoso	-10.6299
rês	-10.6304
▁olhou	-10.6311
▁junto	-10.6316
▁conferência	-10.6323
lhando	-10.6324
▁cantar	-10.6329
ría	-10.6336
▁assistir	-10.6341
▁chegam	-10.6347
▁rec	-10.6348
▁eficiente	-10.6351
▁funda	-10.6354
▁recebem	-10.6359
nto	-10.6369
▁raio	-10.6369
▁capacidades	-10.6373
▁antigas	-10.6377
▁ab	-10.6395
ven	-10.6421
▁corte	-10.6427
imos	-10.6429
▁passava	-10.6431
▁Ge	-10.6439
tura	-10.644
▁combater	-10.6446
tor	-10.6446
▁átomos	-10.6448
posições	-10.6466
▁representar	-10.6471
▁imp	-10.6471
ze	-10.6483
▁passos	-10.6491
▁inicial	-10.6495
ânia	-10.6514
▁azuis	-10.6514
▁comboio	-10.6514
▁equilíbrio	-10.6514
▁protótipo	-10.6514
▁curiosa	-10.6514
ni	-10.6514
▁Pessoa	-10.6514
▁posible	-10.6514
▁produtividade	-10.6514
▁Nessa	-10.6514
▁cujo	-10.6515
▁dizendo	-10.6515
▁salário	-10.6516
▁intervenç	-10.6516
▁comunicación	-10.6516
▁2007	-10.6516
▁y	-10.6518
▁dinâmica	-10.6519
▁cometa	-10.6519
▁zum	-10.652
▁soldado	-10.652
▁combina	-10.6521
▁Ter	-10.6521
up	-10.6529
I	-10.6534
▁explosão	-10.6535
▁Web	-10.6539
▁considerado	-10.654
▁lições	-10.6542
▁decidiram	-10.6543
▁queda	-10.6548
▁comparação	-10.6555
▁pago	-10.6562
▁esperava	-10.6563
▁gigante	-10.6567
▁algoritmo	-10.6571
▁capitalism	-10.6584
▁carregar	-10.6588
▁provoca	-10.6589
▁diminuir	-10.6596
▁agência	-10.6596
▁segur	-10.6597
▁fe	-10.6599
▁bl	-10.6604
▁honra	-10.6619
▁fugir	-10.6623
▁achava	-10.6656
▁axuda	-10.6661
▁instrumentos	-10.6664
▁Estive	-10.6677
chave	-10.6682
▁gasto	-10.6694
▁oceanos	-10.6695
▁Stan	-10.6704
▁Pe	-10.6705
lguém	-10.6709
▁empregado	-10.6719
ional	-10.6725
▁mellore	-10.6735
▁dólar	-10.6736
▁dinosauro	-10.6752
▁evidência	-10.6752
▁filósofo	-10.6752
▁inimigo	-10.6752
▁intestino	-10.6752
▁choque	-10.6752
▁percurso	-10.6753
▁XXI	-10.6753
▁cheiro	-10.6753
▁vaca	-10.6753
▁radiaç	-10.6753
▁prosperidade	-10.6753
▁Presidente	-10.6753
▁anúncio	-10.6754
▁mostrei	-10.6754
▁ativista	-10.6755
▁Real	-10.6757
▁factos	-10.6759
▁forza	-10.6761
▁visuais	-10.6762
▁portát	-10.6768
▁relacionado	-10.6772
▁botão	-10.6772
▁discutir	-10.6775
cas	-10.678
▁saiu	-10.678
▁arco	-10.6781
▁Ouvi	-10.6787
▁públicas	-10.679
▁vela	-10.6791
▁caras	-10.6792
dio	-10.6793
▁correta	-10.6796
dição	-10.6797
▁Olhem	-10.6797
tradição	-10.6798
▁ilustra	-10.6802
alquer	-10.6802
▁previs	-10.6808
▁desculpa	-10.681
▁guia	-10.6811
▁espantosa	-10.6811
▁norma	-10.6813
▁aprendem	-10.6815
▁elefante	-10.6816
▁braços	-10.6821
▁componentes	-10.6832
▁conhece	-10.6834
▁ocorreu	-10.6839
▁posto	-10.6841
▁rico	-10.6853
▁serve	-10.6856
▁maus	-10.6858
▁m	-10.6874
▁caixas	-10.6875
▁ética	-10.688
ord	-10.688
▁mata	-10.6891
▁iam	-10.6892
▁sa	-10.6893
entemente	-10.6894
▁acabam	-10.69
st	-10.6908
▁assustador	-10.6909
▁industrial	-10.6922
▁gera	-10.693
▁investi	-10.6938
ion	-10.694
▁basta	-10.6945
▁apartamento	-10.6946
▁activa	-10.6948
▁interesses	-10.6961
▁localiza	-10.6969
▁sementes	-10.6979
▁molecular	-10.698
tentei	-10.698
▁jogos	-10.6981
▁brilhantes	-10.6982
▁adapta	-10.6988
▁candidato	-10.6996
▁conectoma	-10.6996
▁imigrante	-10.6996
▁músico	-10.6996
▁publicidade	-10.6996
▁rexión	-10.6996
▁mínimo	-10.6996
▁Museu	-10.6996
▁market	-10.6997
▁neve	-10.6997
▁profundidade	-10.6997
▁ficamos	-10.6998
▁xeración	-10.6999
▁retrato	-10.6999
▁aquecimento	-10.7001
▁envelhecimento	-10.7003
▁PM	-10.7003
▁sentada	-10.7006
▁arquitectura	-10.7007
▁orçamento	-10.7009
▁doce	-10.701
▁pertence	-10.7011
▁Jam	-10.7013
▁nuvem	-10.7015
▁representam	-10.7016
▁vinha	-10.7017
▁abrigo	-10.7019
▁sector	-10.702
▁úteis	-10.702
▁esquecer	-10.7024
▁levam	-10.7028
▁eficazes	-10.703
▁cozinhar	-10.7031
▁tomada	-10.704
▁Park	-10.7042
▁representação	-10.7046
per	-10.7046
▁sintomas	-10.7056
▁Ex	-10.7056
▁perigosa	-10.7057
▁combate	-10.7061
▁Basic	-10.7062
▁positivo	-10.7067
▁daqueles	-10.7067
bviamente	-10.7069
▁entrada	-10.7072
▁questionar	-10.7076
mbora	-10.7076
ity	-10.7077
▁matemáticos	-10.7078
▁flores	-10.7078
▁preços	-10.7078
amp	-10.7111
▁guarda	-10.7118
▁atacar	-10.7121
▁escoitar	-10.7125
▁lembrem	-10.7125
▁Pens	-10.7125
▁tendem	-10.7145
▁bar	-10.7146
▁altas	-10.7162
▁pensou	-10.7175
ger	-10.7188
w	-10.7195
▁maravilha	-10.7198
▁estima	-10.7211
▁prestar	-10.7215
▁veículos	-10.722
ição	-10.7228
▁chan	-10.7229
▁dimens	-10.7232
▁responsáve	-10.7233
▁Ua	-10.7234
▁CRISPR	-10.7246
▁FOX	-10.7246
▁descoberto	-10.7246
▁horrível	-10.7246
▁lógica	-10.7246
▁negocia	-10.7246
▁relatório	-10.7246
▁tribuna	-10.7246
▁Michael	-10.7246
▁curioso	-10.7246
▁tijolo	-10.7246
▁músculo	-10.7246
▁menino	-10.7246
▁Gab	-10.7246
▁incerteza	-10.7247
▁refere	-10.7247
▁leitura	-10.7247
▁Nesse	-10.7248
▁Aquela	-10.7249
▁reforma	-10.7249
▁favorito	-10.7249
▁extrair	-10.725
▁mantêm	-10.7252
▁Mary	-10.7253
▁curta	-10.7254
▁casar	-10.7254
▁inspiração	-10.7259
▁CO	-10.7259
▁preferida	-10.7259
▁amanhã	-10.7265
▁detetar	-10.7269
▁demora	-10.7273
▁relato	-10.7275
▁Podería	-10.7275
por	-10.7283
▁Meu	-10.7283
▁circunstâncias	-10.7285
▁referi	-10.7286
▁interna	-10.7294
▁partilhado	-10.7295
▁morreram	-10.7295
▁Tes	-10.7296
▁propriedades	-10.7297
▁caminhar	-10.7297
▁louca	-10.7307
▁tio	-10.7319
ntem	-10.732
▁Fizemo	-10.7321
line	-10.7322
▁nação	-10.7322
▁Times	-10.7324
▁rir	-10.7328
▁observamos	-10.733
ito	-10.7333
▁continente	-10.7334
▁quadrado	-10.7334
▁ecossistema	-10.7335
▁Faz	-10.7337
▁figura	-10.734
▁adolescente	-10.7342
▁vítima	-10.7342
▁instrumento	-10.7344
▁recurso	-10.7344
▁mudam	-10.7349
▁elevado	-10.7352
▁desenvolvemos	-10.7352
▁descer	-10.7356
▁pó	-10.7364
▁conheç	-10.7369
▁250	-10.7371
▁vaso	-10.739
▁aplica	-10.7405
▁criador	-10.7405
▁fio	-10.7418
▁vá	-10.7418
▁libera	-10.7437
▁culpa	-10.7439
▁destruir	-10.7444
▁agarrar	-10.7448
▁existi	-10.7453
▁unidades	-10.7454
▁pós	-10.7454
▁revelar	-10.7458
▁dever	-10.7458
▁complexas	-10.7464
▁poderosos	-10.7465
▁Eis	-10.7466
▁séculos	-10.7474
tis	-10.7481
▁capita	-10.749
▁escrevi	-10.7494
▁ambientes	-10.7496
▁pedi	-10.7496
▁engano	-10.7498
▁Mi	-10.7502
▁MIT	-10.7503
▁XIX	-10.7503
▁dignidade	-10.7503
▁ilegal	-10.7503
▁telhado	-10.7503
▁crucial	-10.7503
▁correcto	-10.7503
▁cinema	-10.7503
▁biológica	-10.7503
▁Grã	-10.7503
▁chinês	-10.7503
▁cuja	-10.7503
▁famosa	-10.7503
▁Mulher	-10.7503
▁intelectual	-10.7504
▁essência	-10.7505
▁teatro	-10.7507
30	-10.7507
▁transpar	-10.7508
▁voltou	-10.7509
▁gasta	-10.7513
▁dici	-10.7513
▁multi	-10.7514
▁composto	-10.7515
▁compra	-10.7523
▁perdida	-10.7525
▁oxi	-10.7528
▁indicador	-10.7547
▁nai	-10.7554
▁roubar	-10.7555
▁Querem	-10.7555
▁Ze	-10.7573
▁navegar	-10.7573
▁Tinham	-10.7579
▁milha	-10.7584
▁conform	-10.7592
▁viera	-10.7594
▁rai	-10.7597
▁concentrar	-10.7598
▁cavalo	-10.7601
▁Charles	-10.7602
▁crítico	-10.7606
▁gato	-10.7607
▁básico	-10.7609
▁nano	-10.7616
▁empreendedor	-10.7619
▁redu	-10.7623
▁quería	-10.7626
tica	-10.764
chi	-10.7653
ían	-10.7679
▁emociona	-10.768
▁Acab	-10.7683
Breta	-10.7694
pen	-10.7695
llo	-10.7701
▁diretor	-10.7714
▁taxas	-10.7727
enta	-10.7732
▁necesita	-10.7752
▁pergunto	-10.7757
at	-10.7759
▁realiza	-10.776
▁lago	-10.7764
▁far	-10.7765
▁inevitáve	-10.7766
▁privilégio	-10.7766
▁veterano	-10.7766
▁agulha	-10.7766
▁receptor	-10.7766
▁percentagem	-10.7766
▁éxito	-10.7766
▁visível	-10.7766
▁igreja	-10.7766
▁gasolin	-10.7766
dura	-10.7766
▁tremenda	-10.7766
▁Aprendi	-10.7766
▁xust	-10.7767
▁Hoxe	-10.7767
▁iniciativa	-10.7767
▁nutriente	-10.7768
▁faga	-10.7768
▁necessariamente	-10.7769
▁conex	-10.7769
▁ideal	-10.7769
▁religiosa	-10.7769
▁pura	-10.777
▁presença	-10.7771
▁Coca	-10.7772
▁ficção	-10.7773
▁automóvel	-10.7775
▁Ciro	-10.7775
▁percebem	-10.7776
▁bateria	-10.7776
▁falsa	-10.7777
▁fabricante	-10.778
art	-10.7782
▁camiño	-10.7782
▁Sen	-10.7783
tendo	-10.7787
▁funcione	-10.7789
rio	-10.7791
▁partilhada	-10.7794
az	-10.7797
▁Ed	-10.7801
▁evidente	-10.7809
▁notável	-10.7816
▁nucleares	-10.7826
tri	-10.7834
▁obtive	-10.7836
▁Quais	-10.7843
▁escapar	-10.7843
▁calcular	-10.7845
▁flor	-10.7869
▁Min	-10.788
ka	-10.7886
▁barreira	-10.7887
▁galáxia	-10.789
▁pe	-10.7892
▁regra	-10.7892
▁africano	-10.7901
▁meta	-10.7905
▁criada	-10.7909
con	-10.7912
▁corresponde	-10.7912
▁bos	-10.7915
▁patente	-10.7918
cho	-10.7928
▁lar	-10.7929
cabaram	-10.7938
▁Pense	-10.794
▁mães	-10.794
▁achar	-10.7941
SP	-10.7954
▁debe	-10.7959
▁significava	-10.7963
riba	-10.7964
▁preparados	-10.7974
▁Cri	-10.7975
▁abre	-10.799
▁volver	-10.8001
▁governa	-10.8003
fu	-10.8023
▁coopera	-10.8026
▁movimentos	-10.8033
▁George	-10.8036
▁Prémio	-10.8036
▁aleatória	-10.8036
▁cámara	-10.8036
▁genético	-10.8036
▁iPhone	-10.8036
▁ningunha	-10.8036
▁procedimento	-10.8036
▁tecnológica	-10.8036
▁tópico	-10.8036
▁universitário	-10.8036
▁mañá	-10.8036
▁cultivo	-10.8036
▁insulin	-10.8036
▁espazo	-10.8036
▁Robert	-10.8036
▁chá	-10.8037
▁retina	-10.8039
▁mexer	-10.804
▁excitante	-10.8041
▁bolha	-10.8041
min	-10.8042
▁justo	-10.8042
▁tubo	-10.8045
▁deixam	-10.8047
▁reunir	-10.8048
▁fechado	-10.8048
▁determinada	-10.8049
▁Gan	-10.805
▁funções	-10.8061
tes	-10.8063
▁pintar	-10.8064
ony	-10.807
gens	-10.8073
▁Ban	-10.8077
▁Be	-10.8078
▁operação	-10.8081
▁matemáticas	-10.8081
▁civiliza	-10.8083
▁competição	-10.8086
udio	-10.8086
▁defesa	-10.8089
rão	-10.8092
▁test	-10.8092
▁processa	-10.8097
▁metal	-10.8098
▁vivia	-10.8099
▁publicado	-10.8099
ez	-10.811
▁contribuir	-10.8113
den	-10.812
▁morri	-10.8121
▁neles	-10.8122
▁avaliar	-10.8125
▁acção	-10.8129
para	-10.8132
▁mina	-10.8133
▁196	-10.8134
men	-10.8136
▁parceiros	-10.8139
▁profundas	-10.8142
▁Pr	-10.8145
Cola	-10.8159
rmos	-10.8161
▁ombro	-10.8162
▁gra	-10.8165
▁libro	-10.8167
▁complicada	-10.8168
▁criativo	-10.817
▁infraestrutura	-10.817
▁satélite	-10.8173
▁satélites	-10.8175
▁consequência	-10.8176
▁criatura	-10.8176
▁conto	-10.8186
▁publicar	-10.8191
sibilidade	-10.8198
idos	-10.82
▁sozinhos	-10.82
▁trocar	-10.8214
▁polos	-10.8226
▁Ne	-10.8239
▁chi	-10.8246
▁editor	-10.8255
aba	-10.8256
▁cresci	-10.8261
▁formos	-10.8263
▁Mande	-10.8268
▁construi	-10.8281
▁ningué	-10.8286
▁99	-10.8295
▁afeta	-10.8297
▁diploma	-10.8305
ís	-10.8306
▁colaps	-10.8307
▁resolu	-10.831
▁capítulo	-10.8314
▁judeu	-10.8314
▁microfone	-10.8314
▁tragédia	-10.8314
▁Paquist	-10.8314
▁medula	-10.8314
▁nariz	-10.8314
▁amarelo	-10.8314
▁limpo	-10.8314
▁cópia	-10.8314
▁instalações	-10.8315
▁alucinación	-10.8315
▁diária	-10.8315
▁Amazóni	-10.8316
▁Direito	-10.8316
▁lento	-10.8316
▁tornei	-10.8316
▁pagamento	-10.8319
▁ocidental	-10.8322
tal	-10.8323
▁andam	-10.8326
dé	-10.8326
▁pato	-10.8328
▁eficiência	-10.8332
▁Volt	-10.8334
▁agentes	-10.8335
▁utilizando	-10.8335
▁domínio	-10.8336
▁crescente	-10.8336
▁equipo	-10.8337
▁Senti	-10.8341
▁especificamente	-10.8342
▁estabelecer	-10.8343
▁estivessem	-10.8345
▁muro	-10.8352
▁tirada	-10.8357
▁Dá	-10.8359
▁alternativas	-10.8359
▁escreve	-10.836
▁lindo	-10.8362
inhas	-10.8364
▁percebemos	-10.8368
▁houvesse	-10.8371
▁verificar	-10.8374
▁definir	-10.8386
▁hi	-10.8386
▁constitui	-10.8387
▁morrem	-10.8388
▁ficava	-10.8394
▁atitude	-10.8395
▁afecta	-10.8399
lé	-10.8412
▁fornecer	-10.8413
▁Creo	-10.8413
ámo	-10.8421
▁pessoalmente	-10.8424
▁vencer	-10.8429
▁saltar	-10.8431
▁voluntários	-10.8431
▁desistir	-10.8438
▁fi	-10.8452
▁desconhecido	-10.8454
▁Repare	-10.8458
▁verem	-10.8461
▁pirata	-10.8461
▁estatística	-10.8468
▁químico	-10.8469
▁Espera	-10.8471
▁For	-10.8471
▁ligada	-10.8474
fia	-10.8475
▁estiveram	-10.8476
iva	-10.8476
▁básicos	-10.8482
▁cambia	-10.8483
dora	-10.8489
▁competências	-10.8494
▁falava	-10.8495
▁visualiza	-10.8498
▁Tra	-10.8499
aria	-10.8507
quei	-10.8514
▁unir	-10.8518
▁conduz	-10.8527
ês	-10.8531
ow	-10.8538
▁Fazemo	-10.8541
▁result	-10.8543
▁estará	-10.8548
▁apoia	-10.8548
▁olham	-10.8549
▁elimina	-10.857
▁sugere	-10.857
▁associa	-10.858
▁inspirar	-10.8593
▁muta	-10.8596
▁líquido	-10.86
▁ângulo	-10.86
▁gratuita	-10.86
▁Ciência	-10.86
▁inverno	-10.86
▁cirurgiã	-10.86
▁fisicamente	-10.86
▁garrafa	-10.86
▁montaña	-10.86
▁mestre	-10.86
▁raro	-10.8601
▁and	-10.8601
▁ódio	-10.8601
▁lançamento	-10.8601
▁dominante	-10.8602
▁perfi	-10.8602
woo	-10.8602
▁apaixonada	-10.8602
▁adequada	-10.8603
▁eletrónica	-10.8603
▁Unidas	-10.8603
▁desesperada	-10.8606
▁saiba	-10.8608
▁acessível	-10.8609
▁Decidi	-10.861
▁surgiu	-10.861
▁ONG	-10.8611
▁correto	-10.8613
▁Steve	-10.8615
▁canta	-10.8615
▁luxo	-10.8616
▁fondo	-10.8617
▁pediu	-10.862
▁Gost	-10.8624
▁nascer	-10.8626
▁enfrentamos	-10.8629
▁treinar	-10.863
▁admitir	-10.863
▁Esa	-10.8634
▁falou	-10.8634
▁Lua	-10.8641
onde	-10.8647
▁participante	-10.8658
▁conseguirem	-10.8662
agem	-10.8663
▁resistir	-10.8669
▁antepassados	-10.867
▁acontecem	-10.8685
▁Fala	-10.8691
▁comparar	-10.8694
▁escutar	-10.8704
▁deram	-10.8707
▁poñer	-10.8707
lamento	-10.8711
▁simula	-10.8714
▁dissemos	-10.8716
▁chegaram	-10.8721
▁Deve	-10.8723
▁indo	-10.8724
ato	-10.8726
▁Bab	-10.8738
▁guiar	-10.8741
ária	-10.8742
▁sentirem	-10.8751
▁rota	-10.8755
▁ostra	-10.8755
▁inc	-10.8757
wa	-10.8759
▁sujeito	-10.876
▁captar	-10.8765
▁praia	-10.8769
▁clínicos	-10.8772
ec	-10.8775
mi	-10.8776
▁inovador	-10.8778
▁Ken	-10.8782
for	-10.8783
tivas	-10.8784
▁interessado	-10.879
▁tras	-10.8791
▁reagir	-10.8796
rán	-10.8798
▁65	-10.8802
▁desce	-10.8815
▁tratado	-10.8817
▁nervos	-10.8823
▁apresenta	-10.8825
▁falha	-10.8831
abilidade	-10.8832
▁pássaros	-10.8837
▁normas	-10.8837
ney	-10.8839
▁ri	-10.884
▁caça	-10.8854
▁dir	-10.8855
les	-10.8856
▁origina	-10.8857
▁levá	-10.8858
eu	-10.8869
▁dançar	-10.887
▁evoluí	-10.8872
▁bolas	-10.8886
▁Central	-10.8894
▁ansiedade	-10.8894
▁arroz	-10.8894
▁diabetes	-10.8894
▁dúzia	-10.8894
▁injustiça	-10.8894
▁parceria	-10.8894
▁transformou	-10.8894
▁condición	-10.8894
▁diagrama	-10.8894
▁ecológica	-10.8894
▁película	-10.8894
▁abertura	-10.8894
▁informática	-10.8894
▁infinita	-10.8894
▁pénis	-10.8894
▁distancia	-10.8894
▁hotel	-10.8894
▁tuberculose	-10.8894
▁liceu	-10.8894
▁internacionais	-10.8895
▁currículo	-10.8896
▁investigación	-10.8896
▁metano	-10.8897
▁alemã	-10.8897
▁corrupção	-10.8897
▁ambiental	-10.8899
▁passagem	-10.8901
▁manuscrito	-10.8902
▁espetacular	-10.8903
▁ensina	-10.8909
▁cadra	-10.8911
▁acción	-10.8914
▁imaxinar	-10.8926
▁limpar	-10.893
▁associado	-10.8931
sustentabilidade	-10.8933
▁observação	-10.8936
▁motores	-10.8936
▁ignorar	-10.8938
▁preocupação	-10.8939
▁cálculos	-10.8942
ui	-10.8944
▁encontrado	-10.8944
▁diso	-10.8949
▁precis	-10.8959
▁heróis	-10.8967
▁Cor	-10.8969
▁tornado	-10.8979
▁potencialmente	-10.898
▁vivir	-10.898
▁Ve	-10.8982
▁cumprir	-10.8991
▁cêntimos	-10.9005
▁desafiar	-10.9006
▁tendências	-10.9009
▁gravar	-10.9009
▁tivo	-10.901
▁director	-10.9018
▁registos	-10.9022
▁sup	-10.9022
▁apontar	-10.9026
▁nasci	-10.9027
▁barreiras	-10.9059
▁perguntam	-10.9061
▁pesar	-10.9062
▁elevada	-10.907
▁melhoria	-10.9073
▁mor	-10.9075
▁Nat	-10.9075
▁vía	-10.9078
▁criativa	-10.908
▁parceiro	-10.9083
▁presa	-10.9084
▁autoridade	-10.9087
▁construída	-10.9088
▁pareceu	-10.9092
▁classifica	-10.9093
▁fixa	-10.9094
▁fios	-10.9096
ento	-10.9098
▁conseguiram	-10.9101
▁grau	-10.9101
dí	-10.9102
▁centros	-10.9103
▁Sam	-10.9116
▁Fica	-10.9118
▁colle	-10.912
▁produzi	-10.9127
olos	-10.9127
▁loita	-10.9146
▁Oba	-10.9148
▁prim	-10.9151
▁Darwin	-10.9152
▁queira	-10.9153
▁Leva	-10.916
▁Podia	-10.9169
▁correcta	-10.917
▁cordas	-10.9171
▁tempora	-10.9172
bro	-10.9179
▁to	-10.9183
▁afro	-10.9184
▁orgulho	-10.9186
▁irmãos	-10.9186
▁Kan	-10.9187
▁envia	-10.9189
▁invenç	-10.9196
▁maçã	-10.9197
▁cobertura	-10.9197
▁corazón	-10.9197
▁principio	-10.9197
▁vigilância	-10.9197
▁musical	-10.9197
▁memoria	-10.9197
▁concluir	-10.9197
▁olhá	-10.9197
▁Ruanda	-10.9197
▁Saúde	-10.9197
xéne	-10.9197
▁raíz	-10.9198
▁índice	-10.9198
▁escultura	-10.9199
▁Bob	-10.92
▁comprimido	-10.9201
▁primata	-10.9201
▁2005	-10.9201
▁movemento	-10.9202
▁pô	-10.9202
▁convencido	-10.9204
támos	-10.9205
▁mergulho	-10.9205
▁obxectivo	-10.9205
▁directamente	-10.9209
▁comezou	-10.9209
▁sexta	-10.9212
▁perdi	-10.9212
▁alimentação	-10.9214
▁reino	-10.9217
▁manual	-10.9219
▁assistência	-10.9223
▁Chic	-10.9223
▁lobo	-10.9223
avera	-10.9225
ud	-10.9235
▁converte	-10.9237
▁sae	-10.9238
▁limitada	-10.9241
▁ocupado	-10.9241
▁viola	-10.9244
▁dita	-10.9244
▁desenvolveu	-10.9246
▁viaj	-10.9246
▁permanecer	-10.9249
▁Bon	-10.9253
▁conhecidos	-10.9254
▁cultivar	-10.9256
▁lados	-10.9256
▁assegurar	-10.9258
▁capa	-10.9259
▁prepara	-10.9259
▁pontua	-10.9264
veriam	-10.9268
ño	-10.9268
tina	-10.9269
▁vaga	-10.9282
▁corredor	-10.9296
▁ingredientes	-10.9298
▁gas	-10.93
▁assumir	-10.9307
era	-10.9324
▁Cente	-10.9327
▁anima	-10.9331
▁determinado	-10.9338
▁Z	-10.9339
▁passeio	-10.9341
izado	-10.9349
uras	-10.935
▁Go	-10.9354
ner	-10.9356
▁repeti	-10.9361
▁pu	-10.9367
▁comece	-10.9368
▁Ho	-10.9373
▁vibra	-10.9374
iu	-10.938
▁instante	-10.9388
cul	-10.9391
▁tentam	-10.9393
▁distante	-10.9402
▁matemático	-10.9406
▁componente	-10.9406
▁extremo	-10.9406
▁sanita	-10.9408
tion	-10.9411
▁nelas	-10.9415
▁intenta	-10.9422
▁memórias	-10.9425
cou	-10.9427
óxido	-10.9435
ard	-10.9441
▁administra	-10.9442
▁pan	-10.9446
▁verifica	-10.9457
▁presta	-10.9465
▁respondi	-10.9476
▁escurid	-10.9499
▁Ha	-10.9503
▁disco	-10.9508
▁profiss	-10.9509
▁Neanderta	-10.9509
▁absoluto	-10.9509
▁bigode	-10.9509
▁britânico	-10.9509
▁cilindro	-10.9509
▁etiqueta	-10.9509
▁hacker	-10.9509
▁pareça	-10.9509
▁romance	-10.9509
▁variáve	-10.9509
▁Professor	-10.9509
▁lâmpada	-10.9509
▁poeta	-10.9509
▁terramoto	-10.9509
▁concerto	-10.9509
▁mágico	-10.9509
▁vulneráveis	-10.9509
▁NASA	-10.9509
▁personagens	-10.9509
▁gabinete	-10.9509
▁ruído	-10.9509
▁retorno	-10.9509
▁quaisquer	-10.9509
▁coletiva	-10.951
▁Gates	-10.951
▁ido	-10.951
▁resistencia	-10.951
▁vello	-10.951
ovembro	-10.951
▁cognitivo	-10.951
▁Gostava	-10.9511
▁globalização	-10.9512
▁correio	-10.9513
▁investidores	-10.9513
▁grá	-10.9517
▁adulta	-10.9523
▁Mira	-10.9524
▁contraste	-10.9526
▁construír	-10.9527
▁produzem	-10.9528
▁Ár	-10.9529
▁perdeu	-10.953
▁invisíveis	-10.9533
▁associada	-10.9533
▁plásticos	-10.9535
▁neto	-10.9536
▁leite	-10.9539
▁diverso	-10.9543
▁teña	-10.9547
▁conversar	-10.9549
▁fariam	-10.9549
▁aumentou	-10.9557
▁pedimos	-10.9566
▁piores	-10.9579
▁sonhar	-10.9585
▁impostos	-10.9593
▁preguntar	-10.9595
▁recorda	-10.9597
▁descubrir	-10.9598
bre	-10.96
▁Passe	-10.9602
▁excep	-10.9604
▁Us	-10.9614
ad	-10.9619
nteriores	-10.962
vel	-10.9626
▁tería	-10.963
▁fantásticas	-10.9631
ças	-10.9635
▁Estaba	-10.9639
▁escrev	-10.9654
▁ligadas	-10.9661
tur	-10.9662
▁pel	-10.967
-2	-10.9681
▁barra	-10.9681
▁talento	-10.9686
▁formam	-10.9689
▁dispostos	-10.9707
édia	-10.971
▁calha	-10.9715
▁fundos	-10.9716
ior	-10.9716
ke	-10.9725
▁privada	-10.9734
▁diferenza	-10.9734
▁fêmea	-10.9736
▁32	-10.9737
▁Dix	-10.9738
▁manifesta	-10.974
▁bactéria	-10.9741
▁neurónio	-10.9743
▁coller	-10.9747
▁Mil	-10.9762
and	-10.9764
ába	-10.977
qu	-10.9771
▁nu	-10.9781
▁raios	-10.9785
▁pain	-10.9789
▁Naquel	-10.9796
▁conhecia	-10.9796
tem	-10.9796
▁eletr	-10.9797
▁Lei	-10.9798
▁aparecem	-10.9799
ena	-10.9799
▁preocupados	-10.9804
olly	-10.9805
▁percebe	-10.981
▁mirar	-10.9822
▁inova	-10.9823
cionais	-10.9828
▁Algo	-10.9832
▁Nelson	-10.9832
▁World	-10.9832
▁centímetro	-10.9832
▁companheiro	-10.9832
▁duplo	-10.9832
▁experimento	-10.9832
▁parecida	-10.9832
▁robótica	-10.9832
▁rurais	-10.9832
▁sanguíneo	-10.9832
▁ferida	-10.9832
▁oculta	-10.9833
▁giro	-10.9833
▁julgamento	-10.9833
▁the	-10.9833
▁estimativa	-10.9834
▁consiste	-10.9835
▁centrais	-10.9835
▁morais	-10.9837
▁vertical	-10.9837
▁contamina	-10.9838
▁projetar	-10.984
▁abriu	-10.9842
▁avançada	-10.9842
▁sono	-10.9842
▁reunião	-10.9843
riam	-10.9846
▁remoto	-10.9848
ísica	-10.9849
▁passámos	-10.985
▁grão	-10.985
▁Lin	-10.9854
▁apresentação	-10.9855
▁pesado	-10.9856
ería	-10.9858
▁franca	-10.986
▁contou	-10.9864
▁crescem	-10.9869
▁funcionamento	-10.987
▁jamai	-10.9871
▁controla	-10.9872
▁voc	-10.9882
▁esperto	-10.9886
ong	-10.9888
ografia	-10.989
▁Síri	-10.9891
▁aplausos	-10.9897
▁Cost	-10.9897
▁regime	-10.99
ment	-10.9901
▁habitual	-10.9906
▁configura	-10.9925
▁planear	-10.9931
▁soma	-10.9933
▁EE	-10.9935
▁Cha	-10.9935
oh	-10.9941
▁car	-10.9947
▁Pre	-10.9963
▁integra	-10.9967
▁nações	-10.9972
▁ía	-10.9973
gue	-10.9974
▁montar	-10.9975
▁câmaras	-10.9976
▁professora	-10.9978
▁inspirado	-10.9979
▁temas	-10.9988
▁mencion	-10.9995
▁tento	-11.0006
▁parti	-11.0013
▁Cre	-11.0017
▁génio	-11.002
▁k	-11.0022
my	-11.0034
nho	-11.0037
▁necessários	-11.0049
▁Olha	-11.0051
▁haber	-11.0053
▁dano	-11.0059
▁embar	-11.0066
▁Fal	-11.0069
▁colocá	-11.0075
▁trai	-11.0077
▁partida	-11.008
▁truque	-11.008
▁financeiro	-11.0081
▁herói	-11.0083
▁informáticos	-11.0086
▁ocupa	-11.0088
sopa	-11.0091
▁introduzir	-11.0092
almoço	-11.0093
▁demorar	-11.0094
lar	-11.0098
▁ra	-11.0099
▁circular	-11.0099
▁Her	-11.0102
▁estud	-11.0107
▁deixaram	-11.011
tt	-11.0113
▁jun	-11.0113
▁esc	-11.0113
▁declara	-11.0133
▁económicas	-11.0134
▁Gu	-11.015
▁sexua	-11.0152
▁humor	-11.0155
▁demonstra	-11.0155
▁envolve	-11.0156
▁plantar	-11.0158
lândia	-11.0163
▁externa	-11.0165
+	-11.0165
▁Ocidental	-11.0165
▁Street	-11.0165
▁brincadeira	-11.0165
▁engraçado	-11.0165
▁expressõe	-11.0165
▁inveja	-11.0165
▁secundária	-11.0165
▁tamaño	-11.0165
▁Texas	-11.0165
▁enfermeira	-11.0165
▁mapear	-11.0165
▁recife	-11.0165
▁propio	-11.0165
▁acabá	-11.0165
▁paradoxo	-11.0165
▁licença	-11.0165
▁exposto	-11.0166
▁transmissão	-11.0166
▁Quanta	-11.0166
▁negativa	-11.0167
▁Basta	-11.0167
▁apelo	-11.0167
▁dê	-11.0168
▁inventor	-11.0169
▁Sinto	-11.0169
▁demasiada	-11.017
utub	-11.017
▁colocou	-11.017
▁deixei	-11.017
▁brinquedo	-11.0171
▁eficácia	-11.0171
ham	-11.0172
▁financiamento	-11.0172
▁emocionante	-11.0177
▁lê	-11.0183
▁crea	-11.0185
▁pá	-11.0185
▁avançado	-11.0187
▁cães	-11.0188
▁excremento	-11.0189
ándo	-11.0191
▁necessárias	-11.0192
▁lavar	-11.0192
▁agita	-11.0192
▁tanque	-11.0197
▁tumores	-11.0199
▁teto	-11.0199
▁ativo	-11.0202
▁folhas	-11.0204
juntamente	-11.0212
▁fa	-11.0213
▁encontrou	-11.0217
▁colocado	-11.022
▁modernos	-11.0227
ador	-11.023
▁diversas	-11.0233
au	-11.0234
▁solares	-11.0242
▁colo	-11.0244
▁abandonar	-11.0246
▁ensinou	-11.0252
erra	-11.0261
▁armazena	-11.0267
▁dominar	-11.027
▁mapas	-11.0272
eiros	-11.028
▁aconteceria	-11.028
wi	-11.0282
▁poli	-11.0284
▁combinar	-11.0312
leste	-11.0315
▁merece	-11.0317
▁separado	-11.0318
▁leitor	-11.0319
▁causas	-11.032
▁proporcionar	-11.0344
vidade	-11.0347
▁Torn	-11.0352
▁acreditem	-11.0354
▁dis	-11.0356
▁tiñamos	-11.0389
▁Gra	-11.0391
▁atra	-11.0397
▁canal	-11.0398
▁mellorar	-11.0407
▁revis	-11.0407
▁acelera	-11.0411
▁quebrar	-11.0415
▁desperdício	-11.0424
▁bolso	-11.0426
▁falhas	-11.0427
cionamento	-11.0435
▁explora	-11.0439
ologia	-11.044
▁eficientes	-11.0446
▁permanece	-11.0446
▁viven	-11.0462
▁deficiência	-11.0469
▁compara	-11.047
▁transferi	-11.0471
▁Brun	-11.0472
▁restri	-11.0473
▁assisti	-11.0475
ite	-11.0477
▁louco	-11.0482
inas	-11.0483
▁decide	-11.0483
▁confi	-11.0484
▁medidas	-11.0487
▁acreditava	-11.049
▁u	-11.0493
▁aviso	-11.0494
▁Mark	-11.0501
▁Ru	-11.0504
▁avanço	-11.0507
▁aeroporto	-11.051
▁chinesa	-11.051
▁clássico	-11.051
▁dupla	-11.051
▁estúdio	-11.051
▁horizonte	-11.051
▁obcecado	-11.051
▁transferência	-11.051
▁desporto	-11.051
▁havido	-11.051
▁aparência	-11.051
▁Leonard	-11.051
▁doutoramento	-11.051
▁personagem	-11.051
▁Martin	-11.051
▁automática	-11.051
iñeiro	-11.051
▁protesto	-11.051
▁Podía	-11.0511
▁precisávamos	-11.0511
▁contig	-11.0511
▁explicou	-11.0511
▁Conselh	-11.0512
ópia	-11.0512
▁intelixente	-11.0512
▁vital	-11.0513
▁europeu	-11.0513
morou	-11.0513
▁divertida	-11.0513
▁obxecto	-11.0514
▁colaboradores	-11.0516
▁suicídio	-11.0516
▁Natal	-11.0517
▁aventura	-11.0519
▁fita	-11.0519
▁navios	-11.052
▁Lembram	-11.0527
▁activo	-11.0528
▁tridimensiona	-11.053
▁suficientes	-11.053
▁grato	-11.053
▁Mundo	-11.0531
scrição	-11.0531
▁mentalidade	-11.0531
bert	-11.0532
▁respirar	-11.0532
▁nena	-11.0532
▁afastado	-11.0536
▁aperceber	-11.0537
▁Desta	-11.0537
íxen	-11.0541
▁foco	-11.0557
▁consiga	-11.0558
▁fará	-11.0559
▁salvo	-11.0562
▁formato	-11.0562
▁entrega	-11.0563
▁acontecimentos	-11.0566
gueira	-11.0575
▁pense	-11.0577
cri	-11.0581
▁visualizar	-11.0583
▁adiante	-11.0587
▁liderar	-11.0588
▁relacionar	-11.059
▁Usa	-11.0592
▁meter	-11.0593
▁nese	-11.0593
ice	-11.0596
▁Che	-11.0599
▁vén	-11.0604
▁perguntaram	-11.0606
ino	-11.0607
▁entendem	-11.0613
▁desenhos	-11.0616
▁partilhamos	-11.062
hi	-11.0622
▁Trabalh	-11.0626
▁proje	-11.0629
▁dividir	-11.0643
gradável	-11.0647
▁soar	-11.0648
▁rever	-11.0649
▁morcegos	-11.0657
▁dependente	-11.0662
rre	-11.0669
ciência	-11.068
lí	-11.0682
▁confus	-11.0682
▁ganham	-11.0683
▁deitar	-11.0684
▁tri	-11.0684
▁departamento	-11.0693
▁haveria	-11.0701
ki	-11.0712
▁compras	-11.0714
▁houver	-11.0715
▁Dei	-11.0722
▁be	-11.0728
▁saibam	-11.0733
▁planea	-11.0737
▁escuta	-11.0739
▁recordar	-11.0743
▁Wa	-11.0746
▁portas	-11.0751
▁trabalhador	-11.0753
ã	-11.0757
▁come	-11.0758
rse	-11.0761
▁continuava	-11.0767
▁trabalhado	-11.0777
ex	-11.0784
▁36	-11.0787
▁26	-11.0794
▁forçado	-11.0795
use	-11.0797
▁estimula	-11.0798
▁significativo	-11.0806
▁rocha	-11.0806
▁agrícola	-11.0807
▁nutri	-11.0807
cido	-11.0808
▁acontecimento	-11.0809
▁vizinho	-11.0813
▁cliente	-11.0814
▁guardar	-11.0823
▁digam	-11.0825
ndi	-11.0825
▁adulto	-11.0826
▁vosa	-11.0827
▁Dan	-11.0839
mer	-11.084
▁II	-11.0842
▁adop	-11.0847
▁ambi	-11.0856
▁ajudá	-11.0859
▁trauma	-11.0867
▁conduci	-11.0867
▁ONU	-11.0867
▁Scott	-11.0867
▁agradecer	-11.0867
▁bandeira	-11.0867
▁descobre	-11.0867
▁economía	-11.0867
▁egípcio	-11.0867
▁frigorífico	-11.0867
▁futura	-11.0867
▁orgânico	-11.0867
▁raciocínio	-11.0867
▁típica	-11.0867
▁órbita	-11.0867
▁Cerca	-11.0867
▁humilde	-11.0867
▁brazo	-11.0867
▁entusiasmo	-11.0867
▁Manhat	-11.0867
▁óleo	-11.0867
▁contido	-11.0867
▁supermercado	-11.0867
▁simpático	-11.0867
▁sagrado	-11.0867
▁Congresso	-11.0867
▁quarta	-11.0868
▁Islão	-11.0868
▁parcial	-11.0868
▁Centro	-11.0868
▁Melhor	-11.0868
▁educativo	-11.0868
▁recém	-11.0868
▁escondido	-11.0868
▁traço	-11.0868
▁anatomia	-11.0869
bage	-11.0869
▁infección	-11.087
▁adequado	-11.087
▁fosso	-11.0871
▁discrimina	-11.0871
▁vasto	-11.0871
▁idiota	-11.0872
▁vasta	-11.0873
▁processar	-11.0873
▁extinção	-11.0873
▁contente	-11.0876
▁corrigir	-11.0876
▁uniforme	-11.0876
▁possivel	-11.0877
▁poupanças	-11.0878
▁corporal	-11.0882
▁idosa	-11.0882
har	-11.0883
▁promover	-11.0885
▁abrandar	-11.0885
▁fizesse	-11.0887
▁oficial	-11.0887
▁2001	-11.089
▁mentir	-11.0892
▁agarra	-11.0898
▁astrónomos	-11.0899
▁Emma	-11.09
▁Dizem	-11.09
▁compreendemos	-11.0906
▁pen	-11.0911
▁Devem	-11.0914
▁secreta	-11.0917
▁nuve	-11.0917
úss	-11.0921
▁considerada	-11.0925
▁copo	-11.0926
je	-11.093
▁desejos	-11.0935
RA	-11.0942
▁dobro	-11.0947
▁precisavam	-11.095
pat	-11.0951
▁financeiros	-11.0958
▁gr	-11.0969
▁fraco	-11.0969
▁Continua	-11.0971
▁sustentar	-11.0971
▁ama	-11.0971
▁ligam	-11.0983
▁recentes	-11.0984
▁cremos	-11.0987
▁traduç	-11.0988
▁pedras	-11.0991
ew	-11.0995
▁Chamamos	-11.0996
▁puide	-11.0998
▁darlle	-11.1006
avam	-11.1008
▁Funda	-11.1012
▁insetos	-11.102
vés	-11.1022
fre	-11.1023
▁demonstrar	-11.1026
▁inten	-11.1044
▁William	-11.1046
▁Ch	-11.1059
▁He	-11.1061
▁proporciona	-11.1068
▁Despo	-11.1072
▁influenciar	-11.1073
▁barri	-11.1073
▁600	-11.1074
▁custar	-11.1079
▁desas	-11.108
rios	-11.1088
▁ob	-11.1091
▁chimpanzés	-11.1101
▁souber	-11.1103
▁800	-11.1106
▁descubri	-11.1117
▁Sal	-11.1124
iana	-11.1133
▁possu	-11.1133
▁recicla	-11.1137
▁tráf	-11.1138
▁habitua	-11.1141
ñen	-11.1145
▁sentidos	-11.1153
gosto	-11.1155
▁xera	-11.1156
▁espacia	-11.1162
▁fique	-11.1164
▁esper	-11.1172
▁transparente	-11.1179
▁entram	-11.1184
▁impulso	-11.1188
▁interface	-11.1189
vagar	-11.119
▁entusiasmado	-11.1194
▁folha	-11.1195
▁partícula	-11.12
▁lucro	-11.12
▁Tim	-11.1204
▁reside	-11.1209
▁materia	-11.1209
▁disciplina	-11.1212
▁infeliz	-11.1212
▁cour	-11.1219
▁põe	-11.1229
taneamente	-11.1237
▁confort	-11.1237
▁Cambridge	-11.1238
▁abundância	-11.1238
▁acontecia	-11.1238
▁ciúme	-11.1238
▁clube	-11.1238
▁doloroso	-11.1238
▁estaminais	-11.1238
▁exigência	-11.1238
▁jornada	-11.1238
▁jornais	-11.1238
▁rural	-11.1238
▁urgência	-11.1238
▁discussões	-11.1238
▁feedback	-11.1238
▁cuestión	-11.1238
▁futebol	-11.1238
▁chineses	-11.1238
▁minúsculo	-11.1238
▁porcento	-11.1238
▁polui	-11.1238
▁africana	-11.1238
▁intensidade	-11.1238
▁àquele	-11.1238
▁imigração	-11.1238
▁sitio	-11.1238
▁palma	-11.1238
▁vario	-11.1238
▁borda	-11.1238
▁gama	-11.1239
▁clicar	-11.1239
▁virtude	-11.1239
▁favorita	-11.124
▁relacionamento	-11.1241
▁peor	-11.1241
▁francês	-11.1242
▁baixar	-11.1242
▁distinguir	-11.1242
▁aplicación	-11.1243
▁usei	-11.1243
▁excesso	-11.1243
▁entusiasmante	-11.1243
▁infe	-11.1244
▁hidro	-11.1244
▁transplante	-11.1245
▁toler	-11.1245
▁vestido	-11.1246
▁Mostra	-11.1246
▁120	-11.1247
▁apaixonado	-11.1247
▁intensa	-11.125
▁Pela	-11.1251
▁justa	-11.1253
▁Perceb	-11.1253
▁desenvolvida	-11.1254
▁fotógrafo	-11.1257
ko	-11.1257
▁nascimento	-11.1258
▁intenção	-11.126
▁mir	-11.1263
▁copiar	-11.1263
▁alavanca	-11.1265
▁parou	-11.1266
▁testemunha	-11.1268
▁sabede	-11.1268
▁Usamo	-11.1271
▁árabes	-11.1271
nza	-11.1274
pós	-11.1274
▁educar	-11.1276
▁saído	-11.1277
pareceram	-11.128
▁inicialmente	-11.128
▁escada	-11.1282
▁durar	-11.1284
▁Mor	-11.1284
▁psicólogo	-11.1286
▁espiritual	-11.1286
▁escolhemos	-11.1287
▁metais	-11.1292
érias	-11.1293
▁ténis	-11.1296
▁sofrem	-11.1298
▁alimenta	-11.1299
ux	-11.13
▁aspira	-11.13
eamento	-11.1306
tamente	-11.1309
▁atributo	-11.1321
▁divertir	-11.1328
▁Fale	-11.1334
▁Gor	-11.1335
▁causado	-11.1338
▁incluir	-11.1343
▁rosa	-11.1345
▁comemos	-11.1349
▁sabendo	-11.135
▁marabillosa	-11.1357
▁prisioneiros	-11.1363
▁ta	-11.1364
▁malas	-11.1381
▁saben	-11.1387
▁inici	-11.1388
▁sur	-11.1394
▁adorava	-11.1395
▁tornarem	-11.1398
▁vota	-11.1402
▁bota	-11.1407
▁amosar	-11.1412
col	-11.1416
▁juntam	-11.1421
▁escritor	-11.1422
▁respeita	-11.1437
▁fechar	-11.1437
▁utilizá	-11.1443
▁excelentes	-11.1453
▁Estavam	-11.1455
▁deixá	-11.1464
▁setor	-11.1473
▁Sh	-11.1475
▁deseja	-11.148
▁exista	-11.148
▁vin	-11.1483
▁civilizaç	-11.1486
▁RM	-11.1491
reparem	-11.1492
▁integr	-11.1493
▁baleias	-11.1497
▁Leo	-11.1503
▁preocupam	-11.1509
▁Wi	-11.1514
▁ne	-11.1517
▁resolve	-11.1518
▁lentes	-11.1523
▁coidado	-11.1525
americano	-11.1526
▁ficarem	-11.1528
▁gigantes	-11.1528
▁respira	-11.153
▁Car	-11.1537
▁sobrevive	-11.1537
▁orde	-11.1537
▁esperam	-11.1537
▁vila	-11.1543
tecnologia	-11.1551
▁erradas	-11.1555
▁separa	-11.1558
▁existentes	-11.1569
▁negras	-11.1572
▁che	-11.1576
▁dirigi	-11.1577
▁lonxe	-11.1581
ling	-11.1582
▁Jon	-11.1583
▁impressionante	-11.1583
▁investiga	-11.1594
▁recu	-11.1597
▁detalhe	-11.1598
▁documento	-11.1599
▁abelha	-11.1599
▁infec	-11.1602
▁linda	-11.1607
▁estariam	-11.1608
▁sugeri	-11.161
ata	-11.1611
▁terror	-11.1616
▁pensaram	-11.1617
▁video	-11.1617
▁ultra	-11.1619
róstata	-11.162
▁lojas	-11.162
▁copia	-11.1622
▁amizade	-11.1622
▁democrático	-11.1622
▁desconhecida	-11.1622
▁estadounidense	-11.1622
▁inspirou	-11.1622
▁substância	-11.1622
▁comerciais	-11.1622
▁energética	-11.1622
▁milagre	-11.1622
▁xenial	-11.1622
▁razoáve	-11.1622
▁orelha	-11.1622
▁cerveja	-11.1622
▁Pouco	-11.1622
▁computação	-11.1622
▁espectro	-11.1622
▁noticia	-11.1622
▁Suécia	-11.1622
▁Lembre	-11.1622
▁Nike	-11.1622
▁nalgún	-11.1622
▁espello	-11.1622
▁balão	-11.1622
▁bordo	-11.1622
▁filmar	-11.1622
▁tradições	-11.1622
▁blogue	-11.1622
▁disparo	-11.1622
▁aviões	-11.1623
▁cognitiva	-11.1623
▁peço	-11.1623
▁selvagem	-11.1623
▁posibilidade	-11.1623
▁diapositivo	-11.1623
▁colectiva	-11.1623
▁àquela	-11.1623
▁densidade	-11.1623
▁beira	-11.1623
▁paraíso	-11.1624
▁Jenn	-11.1624
▁esquina	-11.1624
▁instalação	-11.1624
▁Nick	-11.1625
▁corta	-11.1625
▁GG	-11.1625
▁pausa	-11.1626
▁doutra	-11.1626
▁inventou	-11.1626
▁estímulo	-11.1626
▁silenciosa	-11.1627
▁sofisticado	-11.1629
elo	-11.163
▁vitória	-11.1631
▁penic	-11.1632
▁mans	-11.1635
▁calça	-11.1636
▁xogar	-11.1637
▁conservação	-11.1638
▁función	-11.1638
▁piloto	-11.1641
▁respiração	-11.1643
▁soño	-11.1644
▁inglesa	-11.1647
▁fusão	-11.1649
peito	-11.1649
▁Eric	-11.1655
▁cimento	-11.1656
▁Lá	-11.1659
uro	-11.1661
▁Nin	-11.1668
▁separada	-11.1669
▁Ti	-11.1673
▁satisfa	-11.1676
▁fumar	-11.1678
▁ouviu	-11.168
▁segurar	-11.1683
rosa	-11.1685
▁pr	-11.1688
▁relaciona	-11.1689
▁desenvolveram	-11.169
▁suave	-11.1692
▁bloquear	-11.1693
▁manipular	-11.1698
▁aço	-11.1711
▁definido	-11.1712
▁axudar	-11.1713
▁loucos	-11.1714
▁190	-11.1715
▁agente	-11.172
guei	-11.1725
▁acorda	-11.173
op	-11.1732
▁consulta	-11.1736
▁iniciar	-11.1739
▁Core	-11.1742
sol	-11.1748
▁cave	-11.175
▁remover	-11.1751
▁compartir	-11.1758
▁atividades	-11.1759
▁conquista	-11.1763
▁Nig	-11.177
▁empeza	-11.1773
▁tr	-11.1774
▁presas	-11.1775
▁construídas	-11.1777
▁deixado	-11.1788
▁utilizado	-11.1794
▁conseguiria	-11.1794
berg	-11.1814
▁28	-11.1817
▁controlado	-11.1818
▁estivemos	-11.1819
▁El	-11.1821
damente	-11.1824
▁infraestruturas	-11.1826
▁urbaniza	-11.1831
▁vol	-11.1841
▁95	-11.1843
▁evita	-11.1844
▁atravessa	-11.1863
▁louc	-11.1866
▁funcional	-11.1867
▁afetar	-11.1885
▁Dou	-11.1886
▁mortal	-11.1887
▁constru	-11.1892
▁falh	-11.1898
▁imita	-11.1905
▁macacos	-11.191
▁ante	-11.192
▁Junt	-11.1926
ña	-11.1933
▁vapor	-11.1936
▁ficá	-11.1937
▁queres	-11.1937
ill	-11.1938
med	-11.1942
▁descrev	-11.1943
▁fundador	-11.1947
rase	-11.196
▁integrado	-11.1979
▁Ja	-11.199
▁sabía	-11.1993
▁có	-11.1995
▁alerta	-11.1997
▁escolhe	-11.1999
▁laboratórios	-11.1999
▁Mal	-11.1999
ario	-11.2002
▁limi	-11.2004
▁Pete	-11.2005
▁vulgar	-11.2005
▁escaravelho	-11.2005
▁categoria	-11.2008
▁poupança	-11.201
▁tiro	-11.2019
▁calcula	-11.2021
▁Norueg	-11.2022
▁abundante	-11.2022
▁anónima	-11.2022
▁açúcar	-11.2022
▁chocolate	-11.2022
▁colheita	-11.2022
▁efetiva	-11.2022
▁espetáculo	-11.2022
▁introvertido	-11.2022
▁paradigma	-11.2022
▁puzzle	-11.2022
▁telefónica	-11.2022
▁típico	-11.2022
▁ícone	-11.2022
▁desespero	-11.2022
▁práctica	-11.2022
▁transformá	-11.2022
▁inquérito	-11.2022
▁israelita	-11.2022
▁minoria	-11.2022
▁sinapse	-11.2022
▁gordura	-11.2022
▁milénio	-11.2022
▁assinatura	-11.2022
▁xenética	-11.2022
▁maluco	-11.2022
▁aceder	-11.2022
▁gratidão	-11.2022
▁computaciona	-11.2022
▁penetra	-11.2022
▁multa	-11.2022
▁vermello	-11.2022
▁telescopio	-11.2022
▁chocante	-11.2022
▁incapacidade	-11.2023
▁visión	-11.2023
▁optimista	-11.2023
▁egoísta	-11.2023
▁concreto	-11.2023
▁brillante	-11.2023
▁chove	-11.2023
▁mobilidade	-11.2023
▁eleitores	-11.2024
▁chamava	-11.2024
▁sorriso	-11.2025
▁túnel	-11.2025
▁reator	-11.2025
▁cómo	-11.2026
▁reinventar	-11.2026
▁suporte	-11.2026
▁mama	-11.2027
▁convencional	-11.2027
▁fraca	-11.2028
▁destruída	-11.2028
▁planifica	-11.2029
▁Ilha	-11.2029
▁renováveis	-11.2031
▁refletir	-11.2031
▁tele	-11.2031
▁definición	-11.2036
▁Wall	-11.2036
▁finais	-11.2038
▁continuou	-11.2038
▁atingido	-11.204
▁acumula	-11.2041
▁canción	-11.2041
▁assistente	-11.2041
▁Gr	-11.2044
▁escolhido	-11.2047
▁demonstração	-11.2048
▁anual	-11.2048
▁enviado	-11.2048
ome	-11.2049
▁reprodu	-11.2049
▁fác	-11.2049
▁navio	-11.2049
▁comparado	-11.205
▁conceber	-11.2051
▁tende	-11.2051
▁denso	-11.2051
uk	-11.2056
▁rematar	-11.2057
▁acordado	-11.2064
▁estre	-11.2065
▁lata	-11.2072
▁novidade	-11.2074
▁Vida	-11.2074
▁rece	-11.2075
▁viral	-11.2076
▁Parte	-11.2077
▁queixa	-11.2077
enia	-11.2077
ib	-11.208
▁Hu	-11.208
▁circula	-11.2081
▁aprendido	-11.209
▁Fe	-11.2091
▁tede	-11.2091
▁natal	-11.2096
▁insisti	-11.21
oloxía	-11.2104
▁conscientes	-11.2113
▁converter	-11.2118
▁examinar	-11.212
▁tornando	-11.2122
▁truques	-11.2125
▁cerebros	-11.2126
▁War	-11.213
▁corri	-11.214
DI	-11.2142
cional	-11.2144
▁Tenta	-11.2153
▁ge	-11.2154
▁levaram	-11.2155
▁ciências	-11.2156
▁conxunt	-11.2157
antes	-11.2163
▁Pai	-11.2166
▁encorajar	-11.2167
▁perceberam	-11.2167
▁provocar	-11.217
▁produce	-11.2172
▁w	-11.2178
▁conseguisse	-11.2179
▁conseguiam	-11.218
▁quilos	-11.2194
íveis	-11.2195
▁sobreviventes	-11.2196
▁duplicar	-11.2197
▁encaixa	-11.2214
▁organizado	-11.2215
uropeia	-11.2217
▁termina	-11.222
▁MT	-11.222
▁presen	-11.2221
▁correm	-11.2222
ivas	-11.2224
▁escondidas	-11.2231
▁implementar	-11.2232
▁sexos	-11.2251
ey	-11.2253
▁nave	-11.2259
▁dissesse	-11.2267
tase	-11.2271
▁Comece	-11.2277
▁aumentam	-11.2284
▁gal	-11.2294
▁substitui	-11.2297
▁colaborar	-11.2299
▁quebra	-11.2299
▁acordar	-11.23
▁cosmos	-11.23
▁biólogos	-11.2305
▁inclui	-11.2311
▁usaram	-11.233
▁tam	-11.2335
ila	-11.2337
rganização	-11.2342
▁Chega	-11.2342
▁ceo	-11.2342
ett	-11.2348
lga	-11.2348
DE	-11.2351
▁reconhece	-11.2351
▁pretende	-11.2354
▁tia	-11.2357
▁cortes	-11.2361
▁res	-11.2362
▁tentámo	-11.2364
▁posta	-11.237
▁seco	-11.2373
▁Bu	-11.2374
▁recolhe	-11.2379
▁importar	-11.2387
▁independ	-11.2393
tembro	-11.2393
▁Gran	-11.2398
▁aponta	-11.2398
▁pôs	-11.2399
▁apresentam	-11.2407
▁ramo	-11.242
▁comezo	-11.2424
▁vendedor	-11.2425
▁automóve	-11.2426
▁acessíve	-11.2426
▁valioso	-11.2428
▁turma	-11.2428
▁estratégias	-11.2431
izou	-11.2433
▁solución	-11.2438
▁Cria	-11.2439
▁Humanidade	-11.2439
▁biodiversidade	-11.2439
▁considero	-11.2439
▁dicionário	-11.2439
▁diâmetro	-11.2439
▁episódio	-11.2439
▁estúpida	-11.2439
▁fígado	-11.2439
▁fórmula	-11.2439
▁lanço	-11.2439
▁módulo	-11.2439
▁plateia	-11.2439
▁teléfono	-11.2439
▁tweet	-11.2439
▁óbvia	-11.2439
▁autista	-11.2439
▁emergência	-11.2439
▁Brian	-11.2439
▁secretária	-11.2439
▁esquema	-11.2439
▁cinzento	-11.2439
▁glicos	-11.2439
▁rúa	-11.2439
▁trajetória	-11.2439
▁resili	-11.2439
▁Parkinson	-11.2439
▁procuramos	-11.2439
▁indiano	-11.2439
▁Amazon	-11.2439
▁formou	-11.2439
▁Criança	-11.2439
▁fã	-11.244
▁Hubble	-11.244
▁mozo	-11.244
▁trigo	-11.244
▁fabrico	-11.244
ware	-11.244
▁laço	-11.244
▁anaco	-11.244
▁fotografía	-11.244
▁predador	-11.244
▁vexa	-11.2441
▁cargo	-11.2441
▁tecnológico	-11.2441
▁concurso	-11.2441
▁coñecemento	-11.2442
▁filosofia	-11.2442
▁reuniões	-11.2442
▁multidão	-11.2443
▁preservativo	-11.2443
▁percepç	-11.2445
▁tropicais	-11.2448
▁Tiña	-11.2448
▁piso	-11.245
▁parasita	-11.2451
▁Passa	-11.2451
▁illa	-11.2452
embro	-11.2452
▁flexíve	-11.2453
▁Van	-11.2453
▁regresso	-11.2454
▁torre	-11.2454
▁preocupante	-11.2454
▁bon	-11.2454
▁vas	-11.2455
▁cidadão	-11.2456
▁Colle	-11.2457
▁enganado	-11.2458
▁Liber	-11.246
▁percebeu	-11.246
▁secreto	-11.247
▁escritores	-11.247
▁séria	-11.2471
▁Fila	-11.2474
▁prato	-11.2477
rações	-11.2478
▁preparada	-11.2479
iña	-11.2479
▁exponencial	-11.2479
▁lucros	-11.249
uh	-11.2497
▁Sara	-11.2506
▁adquirir	-11.2512
▁convidado	-11.2513
▁Devi	-11.2513
▁fixera	-11.2517
▁flutua	-11.2517
▁emocionalmente	-11.2521
▁inspira	-11.2522
▁mencionar	-11.2522
▁imaxina	-11.2524
vio	-11.2525
▁val	-11.2526
culos	-11.2527
és	-11.2532
we	-11.2535
▁Vale	-11.2539
▁surgi	-11.254
▁Jo	-11.2541
▁diriam	-11.2541
▁múltiplas	-11.2547
▁transportar	-11.2548
▁gusta	-11.2549
▁tela	-11.2551
▁Nano	-11.2556
stes	-11.257
▁recibi	-11.2575
▁politica	-11.2575
▁acrescentar	-11.2584
▁roubo	-11.2587
vexo	-11.2592
▁Jim	-11.2611
rade	-11.2617
▁rios	-11.2618
▁Gene	-11.2621
ell	-11.2622
▁ajudaram	-11.2626
▁continue	-11.2627
▁Anda	-11.2629
▁confuso	-11.2637
▁cana	-11.2638
▁voso	-11.2643
▁assustadora	-11.2645
▁emprega	-11.2647
▁demostra	-11.2647
▁perderam	-11.2651
tenção	-11.2652
▁apreciar	-11.2657
▁Dez	-11.266
▁Te	-11.266
▁bate	-11.266
▁sustenta	-11.2665
olhei	-11.2668
▁xen	-11.2676
▁patentes	-11.2678
ff	-11.269
ph	-11.269
▁Diga	-11.2699
▁críticos	-11.2699
edicina	-11.2705
uel	-11.2718
▁litera	-11.2724
▁aconselha	-11.2733
▁marabillos	-11.2735
▁referir	-11.274
ctuais	-11.2742
▁promo	-11.2744
▁falado	-11.275
tam	-11.2751
▁Tur	-11.2755
scola	-11.2757
▁senta	-11.2762
▁simul	-11.2763
▁codifica	-11.2769
▁próteses	-11.2774
▁Poder	-11.279
▁traball	-11.2791
▁fra	-11.2792
▁passea	-11.2804
bl	-11.2819
▁sinta	-11.2821
▁imagina	-11.2823
▁vistos	-11.2835
▁radica	-11.2842
▁Gol	-11.2845
▁viam	-11.2848
▁viaja	-11.2852
▁vermes	-11.2853
▁inclina	-11.2854
▁civi	-11.2856
ntal	-11.2857
▁existen	-11.2858
▁praticar	-11.2861
▁incluí	-11.2865
▁Deixa	-11.2871
▁casca	-11.2871
▁superfici	-11.2872
▁Antártida	-11.2874
▁eléctrico	-11.2874
▁estivé	-11.2874
▁feminina	-11.2874
▁hambúrguer	-11.2874
▁idêntica	-11.2874
▁joelho	-11.2874
▁mecânico	-11.2874
▁nódulo	-11.2874
▁pirâmide	-11.2874
▁procurá	-11.2874
▁inconsciente	-11.2874
▁decisión	-11.2874
▁fraude	-11.2874
▁móveis	-11.2874
▁origens	-11.2874
▁pólen	-11.2874
▁Story	-11.2874
▁caverna	-11.2874
▁máscara	-11.2874
▁ascens	-11.2874
▁eletrónico	-11.2874
▁passiva	-11.2874
▁Josh	-11.2874
▁rodeia	-11.2874
▁etapa	-11.2874
▁drama	-11.2874
▁cruel	-11.2874
▁fô	-11.2874
gie	-11.2874
▁comprender	-11.2874
▁automático	-11.2875
▁ga	-11.2875
▁Jesu	-11.2875
▁transações	-11.2875
▁póster	-11.2875
▁impede	-11.2875
▁infinito	-11.2875
▁fina	-11.2876
pé	-11.2876
▁prisões	-11.2877
▁condução	-11.2878
▁aborrecido	-11.2878
▁Chamo	-11.288
▁intuição	-11.288
▁altruísta	-11.288
▁carteira	-11.288
ivelmente	-11.288
▁desenhado	-11.288
▁enviou	-11.2881
▁repensar	-11.2881
▁Scho	-11.2882
▁estrangeiro	-11.2883
▁serio	-11.2884
▁bosque	-11.2885
▁eléctrica	-11.2886
▁filtro	-11.2886
▁remota	-11.2886
▁detectar	-11.2891
▁fechada	-11.2891
▁ensinam	-11.2893
▁sentei	-11.2893
▁diferencia	-11.2895
▁superar	-11.2895
▁ouve	-11.2896
▁factor	-11.2898
▁ativa	-11.29
▁29	-11.2902
▁interno	-11.2904
▁mu	-11.2905
▁condutores	-11.2906
▁peguei	-11.2908
▁residente	-11.2908
▁estádio	-11.2909
▁culpado	-11.2909
SA	-11.2909
▁parto	-11.2912
▁Jer	-11.2914
▁densa	-11.2922
▁Funciona	-11.2926
▁desagradáve	-11.2927
▁menores	-11.2928
▁serie	-11.2928
▁desligar	-11.2928
Corp	-11.293
▁enganar	-11.2933
▁viaxa	-11.2934
▁partilham	-11.2936
▁oferece	-11.2937
▁ferro	-11.294
▁mega	-11.294
▁instalar	-11.2944
▁habitante	-11.2944
▁l	-11.2945
▁obriga	-11.2945
▁deixando	-11.2946
▁preencher	-11.2952
▁160	-11.2969
▁reflete	-11.2971
▁fases	-11.2974
▁usan	-11.2974
▁almoço	-11.2977
▁porto	-11.2977
▁queiram	-11.2987
▁adora	-11.2987
esta	-11.299
▁beneficiar	-11.2992
▁cadeias	-11.3001
▁Casa	-11.3005
▁ok	-11.3013
▁Simples	-11.3021
▁mercar	-11.3022
adores	-11.3025
▁distantes	-11.3027
▁andado	-11.3028
▁físicas	-11.303
▁sequências	-11.3032
▁fotografa	-11.3034
▁corpora	-11.3036
▁recorde	-11.3051
▁reto	-11.3051
táveis	-11.3059
▁Precis	-11.3063
▁Hal	-11.3065
▁Jane	-11.3073
▁Can	-11.3075
▁Hum	-11.3077
paração	-11.3082
móvel	-11.3094
▁of	-11.3099
▁formado	-11.3101
▁emergentes	-11.3102
▁Hou	-11.3104
▁adicional	-11.3105
nch	-11.3109
▁fugi	-11.3117
▁coñece	-11.3119
org	-11.3121
rda	-11.3124
▁0	-11.313
▁Dar	-11.3132
itude	-11.3135
ay	-11.3139
▁preconceitos	-11.3141
▁queima	-11.3142
▁colocam	-11.3144
▁gatos	-11.3148
vol	-11.3165
▁indicar	-11.3166
▁ecossistemas	-11.3167
ly	-11.3169
▁volt	-11.3175
▁atravessam	-11.3182
pul	-11.3192
▁informar	-11.3195
▁garage	-11.3195
▁pesquisar	-11.3198
▁começava	-11.3215
▁honest	-11.3218
jam	-11.3219
▁cuidadosa	-11.3223
▁Air	-11.3224
tentou	-11.3229
ime	-11.3231
▁fas	-11.3235
▁mostrado	-11.3237
▁perfura	-11.324
bur	-11.3255
J	-11.3256
X	-11.3256
▁esca	-11.3256
pouco	-11.3257
▁significar	-11.3258
▁refei	-11.3259
ty	-11.326
▁entrevistas	-11.3261
lta	-11.3262
▁modela	-11.3272
ación	-11.3278
▁At	-11.3286
têm	-11.3293
zero	-11.3299
▁atinge	-11.33
▁improvisa	-11.3304
▁gira	-11.3305
▁exige	-11.3305
▁Seja	-11.3318
▁Bre	-11.3318
▁necessita	-11.332
gh	-11.3322
▁chegue	-11.3323
▁ocasi	-11.3327
▁Brown	-11.3328
▁Chile	-11.3328
▁Pacífico	-11.3328
▁ambientais	-11.3328
▁extraordinaria	-11.3328
▁feminino	-11.3328
▁garantia	-11.3328
▁histórica	-11.3328
▁imediato	-11.3328
▁oficiais	-11.3328
▁sinxela	-11.3328
▁sinxelo	-11.3328
▁valiosa	-11.3328
▁Smith	-11.3328
▁protexer	-11.3328
▁repórter	-11.3328
▁analogia	-11.3328
▁pulso	-11.3328
▁Jean	-11.3328
▁eólica	-11.3328
▁globo	-11.3328
▁Atlanta	-11.3328
▁ecológico	-11.3328
▁psicologia	-11.3328
▁estufa	-11.3328
▁amplo	-11.3328
▁pânico	-11.3328
▁agenda	-11.3329
▁confortável	-11.3329
▁laser	-11.3329
▁carrinha	-11.3329
▁concebido	-11.3329
▁dilema	-11.3329
▁solucionar	-11.333
▁legado	-11.333
▁partilhá	-11.333
▁revelou	-11.333
▁Holly	-11.3331
▁viviam	-11.3332
▁acadar	-11.3332
▁Long	-11.3332
▁vinho	-11.3332
▁microbiana	-11.3333
▁Má	-11.3334
able	-11.3334
▁sofisticada	-11.3334
cta	-11.3335
▁síndrome	-11.3336
▁perito	-11.3337
▁Ébola	-11.3337
▁previsões	-11.3338
▁enviá	-11.3339
▁medicação	-11.334
▁percepción	-11.334
▁conservadores	-11.334
▁Fin	-11.3341
▁empresaria	-11.3343
▁experimenta	-11.3343
▁kit	-11.3344
▁inicia	-11.3346
▁quotidiana	-11.3347
▁tomate	-11.3347
▁ARN	-11.3348
▁Terceir	-11.3349
▁estudado	-11.3349
▁testa	-11.3349
▁Mike	-11.335
▁Algué	-11.3352
▁fabricar	-11.3352
ssonância	-11.3357
▁restante	-11.3357
each	-11.3357
▁lágrimas	-11.3359
▁n	-11.3362
▁abuso	-11.3364
▁espelho	-11.3365
▁xeral	-11.3367
▁tor	-11.3367
▁ministro	-11.3367
▁seguiu	-11.3372
▁habitat	-11.3372
▁comp	-11.3372
▁negativo	-11.3372
▁ataca	-11.3374
▁sucedido	-11.3375
▁abertas	-11.3376
▁ocupar	-11.3377
▁preferido	-11.3379
rga	-11.3382
pasado	-11.3387
▁engenheiro	-11.3388
▁efectiva	-11.3392
▁conscientemente	-11.3393
▁suicida	-11.3394
▁dobrar	-11.3396
▁hipo	-11.3398
▁acompanhar	-11.3403
▁agrícolas	-11.3406
▁caracter	-11.3407
▁preocupado	-11.3409
▁expressar	-11.341
▁nascido	-11.3412
▁Naquele	-11.3413
lho	-11.3415
▁generos	-11.3415
▁atrair	-11.3417
▁nascem	-11.3422
▁confusa	-11.3425
▁chegada	-11.3428
▁merecem	-11.3428
▁Aprendemo	-11.343
▁dono	-11.3439
▁atuais	-11.344
▁sufri	-11.3443
▁determina	-11.3444
raça	-11.3445
▁pareciam	-11.3455
▁diferenzas	-11.3468
▁Cong	-11.3474
cy	-11.3474
▁saca	-11.3476
▁preveni	-11.3477
▁persoal	-11.3492
ana	-11.3499
▁confirma	-11.3503
▁Oxf	-11.3504
▁dispostas	-11.3504
▁criativas	-11.3512
▁sucede	-11.3512
▁Su	-11.3525
▁projectos	-11.3526
▁intentar	-11.3527
▁Ata	-11.353
▁atirar	-11.3538
▁marcar	-11.3543
▁deter	-11.3546
ína	-11.3555
ster	-11.3556
▁pensade	-11.3557
nica	-11.3569
▁pus	-11.3572
▁queren	-11.3572
▁criativos	-11.3576
rían	-11.3581
▁diabo	-11.3582
ança	-11.3584
▁preguntas	-11.3585
▁procuram	-11.3591
ume	-11.3595
▁cu	-11.3596
▁Ur	-11.3608
▁vias	-11.3617
pón	-11.3619
▁maravilhosas	-11.3621
spacial	-11.3624
▁Irá	-11.3625
raiz	-11.3635
▁figuras	-11.3636
▁Olho	-11.3639
▁acrescenta	-11.3661
▁propagand	-11.3666
oço	-11.3669
▁aposta	-11.3669
▁flutuar	-11.3675
▁les	-11.3677
▁elefantes	-11.368
xía	-11.3686
ake	-11.3687
prenderam	-11.3689
▁fins	-11.3691
▁Lu	-11.3693
▁criminal	-11.3695
▁motivado	-11.3701
▁tentado	-11.3706
▁press	-11.3714
isco	-11.3718
iade	-11.3725
he	-11.3728
▁pensan	-11.3729
▁Ko	-11.373
▁servi	-11.3733
▁IN	-11.3733
demais	-11.3735
pol	-11.3746
▁sobe	-11.3747
▁genéticas	-11.3748
▁Façam	-11.3749
▁Arqui	-11.3753
▁estabelece	-11.3754
tempo	-11.3758
▁juven	-11.3763
▁gesto	-11.3764
▁deriva	-11.3773
▁direto	-11.3776
gre	-11.3778
▁manua	-11.3778
▁cooperar	-11.3785
▁Revolu	-11.3785
▁ocidenta	-11.3793
eiras	-11.3803
istério	-11.3804
cirurgiões	-11.3804
instantaneamente	-11.3804
▁Android	-11.3804
▁Conheci	-11.3804
▁High	-11.3804
▁artístico	-11.3804
▁carácter	-11.3804
▁cociña	-11.3804
▁consentimento	-11.3804
▁convincente	-11.3804
▁dopamina	-11.3804
▁largura	-11.3804
▁namorada	-11.3804
▁piscina	-11.3804
▁rastreio	-11.3804
▁satisfeito	-11.3804
▁subjacente	-11.3804
▁térmica	-11.3804
▁urgente	-11.3804
▁favela	-11.3804
▁magnífico	-11.3804
▁tiroteio	-11.3804
▁energético	-11.3804
▁Começo	-11.3804
▁Andrew	-11.3804
▁Goliat	-11.3804
▁aérea	-11.3804
▁robot	-11.3804
▁firme	-11.3804
▁orbita	-11.3805
▁neural	-11.3805
▁prático	-11.3805
▁escenario	-11.3805
▁gota	-11.3805
▁febre	-11.3805
▁reproduzir	-11.3805
▁sólido	-11.3805
▁óssea	-11.3805
▁confortáveis	-11.3805
▁Líbia	-11.3805
▁Jack	-11.3805
▁educativa	-11.3805
▁opción	-11.3806
▁familiarizado	-11.3806
▁Algún	-11.3806
▁paralelo	-11.3806
▁libre	-11.3806
▁gelado	-11.3806
▁Contra	-11.3806
▁invasiva	-11.3806
▁regulamenta	-11.3806
▁barbearia	-11.3807
▁desflorestação	-11.3807
▁publicou	-11.3807
▁coletivo	-11.3807
▁feminista	-11.3807
▁gay	-11.3807
▁propri	-11.3807
▁rabisca	-11.3807
▁sorprendente	-11.3807
▁tirei	-11.3808
▁tê	-11.3808
▁mudei	-11.3809
▁esquizofr	-11.3809
▁recuar	-11.3809
▁doutro	-11.3809
▁condiç	-11.381
▁Singapura	-11.381
▁reações	-11.3811
▁surpreendeu	-11.3812
▁comunicações	-11.3812
▁habitación	-11.3812
▁entendimento	-11.3812
▁viaxe	-11.3812
▁infeções	-11.3815
▁fizé	-11.3815
▁Disseram	-11.3815
▁puro	-11.3815
▁Globa	-11.3817
▁adaptar	-11.3817
▁analis	-11.3818
▁adivinhar	-11.3819
▁organizada	-11.3819
▁reconstruç	-11.382
▁dedicado	-11.382
▁convic	-11.3822
▁Butão	-11.3823
▁litro	-11.3824
▁progredir	-11.3824
▁Mc	-11.3825
▁sucedida	-11.3828
▁Canto	-11.383
▁cale	-11.383
▁fingir	-11.383
▁clique	-11.3831
into	-11.3832
▁defeito	-11.3833
▁imitar	-11.3834
▁dirigir	-11.3835
▁livrar	-11.3836
▁mutante	-11.3836
▁recon	-11.3837
▁funcionava	-11.3837
▁unido	-11.3839
▁Super	-11.384
▁definitivamente	-11.3841
▁mosquiteiro	-11.3843
▁abri	-11.3844
▁resta	-11.3845
▁3000	-11.3846
▁mergulhar	-11.3847
▁ampliar	-11.3849
▁aplicada	-11.3852
▁perdem	-11.3853
din	-11.3853
▁quisesse	-11.3855
▁lonxev	-11.3856
▁Cla	-11.3857
▁ingresos	-11.3859
▁mudado	-11.386
▁servem	-11.3862
▁duração	-11.3862
▁conectado	-11.3862
▁pagam	-11.3864
▁Saturn	-11.3865
val	-11.3865
▁falecid	-11.3866
▁cativo	-11.3867
▁utilizada	-11.3868
▁diário	-11.3869
▁bicicletas	-11.3871
doras	-11.3871
▁afetada	-11.3874
▁afetado	-11.3879
niso	-11.388
▁baseia	-11.388
cut	-11.3884
▁Cara	-11.3885
▁72	-11.389
▁rápidos	-11.3892
atch	-11.3904
▁detecç	-11.3912
ua	-11.3914
ático	-11.3918
▁Acha	-11.3923
▁senso	-11.3925
toria	-11.3925
▁rebo	-11.3927
▁dobra	-11.3935
ceu	-11.3937
▁falante	-11.3938
▁seguras	-11.394
▁movem	-11.3945
▁forçar	-11.3946
▁Pu	-11.3947
▁puidese	-11.3947
nternacional	-11.3951
nacionais	-11.3962
▁proibi	-11.3965
▁700	-11.3969
▁conceitos	-11.397
▁crer	-11.3972
ef	-11.3976
▁viveram	-11.3976
▁brilhar	-11.3978
▁representado	-11.3979
▁angaria	-11.3981
rey	-11.3982
▁extraordinários	-11.3985
til	-11.3987
▁empréstimos	-11.3989
▁autoridades	-11.3996
▁escribir	-11.4002
▁It	-11.4009
▁europeia	-11.4011
▁apareci	-11.4014
▁manipula	-11.4018
▁resume	-11.4023
▁modernas	-11.4025
▁informa	-11.4028
▁colocamo	-11.403
ara	-11.404
▁Junta	-11.4041
▁Considerem	-11.4044
pp	-11.4054
▁Pega	-11.4055
▁astronautas	-11.4055
bio	-11.406
ô	-11.406
▁corda	-11.4073
▁Toma	-11.4074
anse	-11.4075
bar	-11.4091
fer	-11.4099
ésia	-11.4102
▁liberal	-11.4103
▁lançado	-11.4104
▁parecen	-11.4108
▁Bur	-11.4109
▁1,	-11.4111
▁trabalhe	-11.4112
omi	-11.412
▁amo	-11.412
▁questiona	-11.4125
▁reforça	-11.4126
▁quadrados	-11.4128
cé	-11.4131
▁reta	-11.4148
dy	-11.415
▁Fa	-11.4153
▁fornece	-11.416
óis	-11.4175
prendeu	-11.4178
▁conteúdos	-11.418
▁pesc	-11.419
eto	-11.4194
▁espa	-11.42
▁prender	-11.4202
▁integrar	-11.4211
▁talentos	-11.4214
▁esquecemo	-11.4214
▁biológicos	-11.422
bé	-11.422
▁fornecem	-11.422
▁Tre	-11.4222
▁deuse	-11.4223
OR	-11.4228
▁Win	-11.4234
▁faría	-11.4235
▁Públic	-11.4235
▁sú	-11.4247
ano	-11.425
▁esqui	-11.425
▁forneci	-11.4255
▁Matt	-11.4258
▁múltipl	-11.4263
▁Encontr	-11.4264
sani	-11.4266
partamento	-11.4273
▁nó	-11.4275
▁imediata	-11.4279
▁revoluç	-11.4285
▁microbio	-11.4285
▁sabor	-11.4287
▁Wal	-11.4289
▁facia	-11.4292
envolvimento	-11.4294
▁glaciar	-11.4295
▁governamenta	-11.4296
▁promove	-11.4299
▁dando	-11.4302
▁CMU	-11.4304
▁DVD	-11.4304
▁Exército	-11.4304
▁Jeopardy	-11.4304
▁adolescencia	-11.4304
▁catástrofe	-11.4304
▁colisão	-11.4304
▁colmeia	-11.4304
▁compañía	-11.4304
▁contínua	-11.4304
▁credibilidade	-11.4304
▁cromossoma	-11.4304
▁homicídio	-11.4304
▁horríveis	-11.4304
▁idêntico	-11.4304
▁juiz	-11.4304
▁limpeza	-11.4304
▁lâmina	-11.4304
▁multiverso	-11.4304
▁orgânica	-11.4304
▁pulmões	-11.4304
▁sustentáveis	-11.4304
▁tabela	-11.4304
▁território	-11.4304
▁tubarões	-11.4304
▁Gandhi	-11.4304
▁acceso	-11.4304
▁censura	-11.4304
▁constroem	-11.4304
▁sotaque	-11.4304
▁tatuage	-11.4304
▁cobrir	-11.4304
▁endereço	-11.4304
▁externo	-11.4304
▁sensación	-11.4304
▁terrestre	-11.4304
▁ideologia	-11.4304
▁grávida	-11.4305
▁balea	-11.4305
▁Daniel	-11.4305
▁magnética	-11.4305
▁avance	-11.4305
▁levantou	-11.4305
▁comportamenta	-11.4305
▁gustaría	-11.4305
▁guerreiro	-11.4305
▁cadea	-11.4305
▁fuga	-11.4305
▁hard	-11.4305
▁estatuto	-11.4305
▁gradual	-11.4305
▁templo	-11.4305
▁barriga	-11.4305
▁selva	-11.4305
▁Law	-11.4306
▁punha	-11.4306
▁Britânic	-11.4306
▁seringa	-11.4306
▁primordial	-11.4306
▁impressora	-11.4306
▁funera	-11.4306
▁desexo	-11.4307
▁interacción	-11.4307
▁Tanto	-11.4308
▁Digo	-11.4309
▁álbum	-11.4309
▁programador	-11.4309
▁Lego	-11.4309
▁paisagens	-11.4309
▁Encontrei	-11.431
▁fizeste	-11.431
▁reduzida	-11.431
▁diarreia	-11.4311
▁peza	-11.4311
▁Adam	-11.4311
▁educadores	-11.4312
▁sonora	-11.4312
▁entorno	-11.4312
▁orgulhosa	-11.4313
▁atraente	-11.4313
▁orgulhoso	-11.4314
▁irmán	-11.4316
▁afasta	-11.4316
▁querida	-11.4316
▁atingiu	-11.4317
xy	-11.4317
▁gruta	-11.4318
▁erva	-11.4319
▁semellante	-11.4319
RB	-11.4319
▁legislação	-11.4319
▁financiar	-11.4319
▁producir	-11.4319
▁iniciou	-11.4319
▁documentar	-11.432
▁casais	-11.4321
▁especializado	-11.4322
▁Veem	-11.4323
▁gordo	-11.4324
▁espada	-11.4328
▁monitorizar	-11.4329
▁calidade	-11.4329
▁Vela	-11.4331
chu	-11.4332
▁Palestin	-11.4333
▁cartaz	-11.4333
▁condenado	-11.4333
▁sabermos	-11.4334
▁191	-11.4335
▁infra	-11.4335
▁Peter	-11.4336
▁totalidade	-11.4336
▁continuo	-11.4337
▁elite	-11.4338
▁usavam	-11.4339
▁vim	-11.4341
▁navegador	-11.4342
▁monitoriza	-11.4342
▁Geral	-11.4343
▁interage	-11.4345
▁vende	-11.4347
▁recebido	-11.4348
▁Encontrámo	-11.4354
▁fator	-11.4355
▁imprimir	-11.4356
▁ganhe	-11.4356
▁Ac	-11.4357
▁ecologia	-11.4361
▁transporta	-11.4364
▁aguentar	-11.4365
▁perseguir	-11.4366
▁radicalmente	-11.4366
▁inacreditáve	-11.4367
▁ira	-11.4378
▁celebra	-11.4378
▁dispara	-11.4379
lica	-11.4382
yan	-11.4391
▁rochas	-11.4392
▁teia	-11.4394
▁gostaría	-11.4395
▁confiante	-11.4396
▁hábito	-11.4398
▁biológico	-11.4399
▁ouvinte	-11.4403
▁alimentares	-11.4404
▁pássaro	-11.4404
▁escravos	-11.4408
▁Medi	-11.441
▁realista	-11.4411
▁desempenhar	-11.4411
▁deficiências	-11.4415
▁tolo	-11.4419
▁interiores	-11.4425
▁costume	-11.4425
▁colec	-11.4426
▁aborda	-11.4429
▁encontrarem	-11.4429
scal	-11.4429
▁precedentes	-11.443
▁perigosos	-11.443
▁construíram	-11.443
fiel	-11.4431
▁sentiu	-11.4435
ben	-11.4442
▁libertado	-11.4443
▁rodar	-11.4448
axe	-11.4452
ancia	-11.4453
▁utilizamos	-11.4453
▁Bal	-11.4458
▁mito	-11.4463
▁estuda	-11.4464
est	-11.4467
▁testemunhar	-11.4467
▁gu	-11.4468
▁abril	-11.447
basti	-11.4471
▁Perde	-11.4473
▁St	-11.4474
▁fria	-11.4475
▁dinossauros	-11.4476
tre	-11.448
▁caí	-11.4482
▁causada	-11.4482
▁ouvia	-11.4483
ares	-11.4485
▁focado	-11.4497
▁incentiva	-11.4499
ç	-11.4501
▁Parti	-11.4503
▁mi	-11.4508
▁MR	-11.4508
ct	-11.451
▁colar	-11.4511
▁bolo	-11.4514
▁Observ	-11.4517
▁percorre	-11.4523
▁juntá	-11.4526
▁comunica	-11.4527
▁puxar	-11.4539
▁ego	-11.4542
▁resumir	-11.4543
▁Fazem	-11.4544
▁Boy	-11.4548
▁costum	-11.4548
▁Via	-11.4549
dução	-11.4567
▁complicadas	-11.4576
▁Lati	-11.4589
▁tenda	-11.4594
▁contamos	-11.4596
▁actor	-11.4597
▁inovadoras	-11.4602
▁aprecia	-11.4603
▁SE	-11.4608
▁divulga	-11.4613
brimos	-11.4616
ect	-11.4617
▁argumenta	-11.4619
▁mellora	-11.4619
dutor	-11.462
missões	-11.4628
▁espira	-11.4633
gan	-11.4634
▁faixas	-11.4638
estrutura	-11.4643
▁continentes	-11.4646
▁Hans	-11.4649
▁vegeta	-11.4653
▁cabeças	-11.4661
stas	-11.4665
▁estende	-11.4673
▁reg	-11.4676
▁perdas	-11.4678
▁tomam	-11.4678
▁remata	-11.4679
ora	-11.4682
nny	-11.4698
rus	-11.4706
▁comete	-11.4707
▁dores	-11.4707
▁apanha	-11.4708
▁conserva	-11.4712
▁disparar	-11.4716
viv	-11.4717
▁produ	-11.4718
▁voltam	-11.472
▁invent	-11.4722
▁Jun	-11.4723
▁graves	-11.4738
▁dependem	-11.4741
▁dur	-11.4741
▁excita	-11.4743
▁marge	-11.4743
▁Estud	-11.4743
forma	-11.4743
▁convers	-11.4744
▁Rei	-11.4746
campo	-11.476
▁frac	-11.4763
▁conselhos	-11.4764
▁especula	-11.4771
▁ridícul	-11.4771
▁depender	-11.4772
uga	-11.479
▁ci	-11.479
her	-11.4792
uta	-11.48
▁orixina	-11.4806
▁artificia	-11.481
ámolo	-11.4811
▁divide	-11.4812
▁dicía	-11.4814
peto	-11.4825
▁resultar	-11.4829
▁Geogra	-11.4831
▁estigma	-11.4831
▁Bitcoin	-11.4831
▁Gustaría	-11.4831
▁Project	-11.4831
▁aborto	-11.4831
▁ancestral	-11.4831
▁armadilha	-11.4831
▁blockchain	-11.4831
▁cachorro	-11.4831
▁cadáver	-11.4831
▁catedra	-11.4831
▁consecuencia	-11.4831
▁diagnose	-11.4831
▁diagnosticar	-11.4831
▁dádiva	-11.4831
▁elétrica	-11.4831
▁enfermeiro	-11.4831
▁estrés	-11.4831
▁gratuito	-11.4831
▁gémeo	-11.4831
▁ilegais	-11.4831
▁imunitário	-11.4831
▁institución	-11.4831
▁lançámo	-11.4831
▁leopardo	-11.4831
▁membrana	-11.4831
▁mutuamente	-11.4831
▁pacote	-11.4831
▁preferência	-11.4831
▁quantia	-11.4831
▁semelhança	-11.4831
▁submarino	-11.4831
▁tradición	-11.4831
▁árbore	-11.4831
▁Brooklyn	-11.4831
▁helicóptero	-11.4831
▁hemisfério	-11.4831
▁musicais	-11.4831
▁utilidade	-11.4831
▁democratiza	-11.4831
▁brilho	-11.4831
▁Cresci	-11.4831
▁atleta	-11.4831
▁vulnerável	-11.4831
▁cinzenta	-11.4831
▁Associa	-11.4831
▁interativo	-11.4831
▁fumo	-11.4831
▁furac	-11.4831
▁julho	-11.4831
▁oficina	-11.4831
▁inesperada	-11.4831
▁questionário	-11.4831
▁milímetro	-11.4831
▁amarela	-11.4831
▁Certa	-11.4831
▁espanhol	-11.4831
▁moldura	-11.4831
▁precioso	-11.4831
▁ausência	-11.4831
▁cualificación	-11.4831
▁Parecia	-11.4831
▁Doaa	-11.4832
▁Uber	-11.4832
▁cubo	-11.4832
▁Archi	-11.4832
▁Vejo	-11.4832
▁esperma	-11.4832
▁Moham	-11.4832
▁blog	-11.4832
▁Matemática	-11.4832
▁galinha	-11.4832
▁bruto	-11.4833
▁baby	-11.4833
▁deixe	-11.4833
▁palestino	-11.4833
▁Holand	-11.4833
▁pisca	-11.4833
▁inocente	-11.4833
▁intersecç	-11.4833
▁Hill	-11.4833
▁elegante	-11.4834
▁Algunha	-11.4834
▁atento	-11.4834
▁irónico	-11.4834
▁deitado	-11.4834
▁permissão	-11.4835
▁humilhação	-11.4835
▁concepto	-11.4835
▁ácido	-11.4836
▁cobre	-11.4836
▁incidente	-11.4836
▁estimulante	-11.4836
▁fascinado	-11.4837
▁sentou	-11.4837
▁relógio	-11.4837
▁Gius	-11.4838
▁eleitoral	-11.4838
▁caridade	-11.4839
▁Tempo	-11.4839
▁fruta	-11.4841
▁autorização	-11.4841
▁emoción	-11.4842
▁certificado	-11.4842
▁verbal	-11.4843
▁cigarro	-11.4843
▁celular	-11.4843
▁distribuído	-11.4844
▁lume	-11.4845
▁apercebeu	-11.4846
▁aprendiza	-11.4846
▁interacção	-11.4847
▁iniciais	-11.4848
▁desconfortáve	-11.4848
▁facilidade	-11.4848
▁contrair	-11.4851
right	-11.4851
▁lama	-11.4852
▁pesada	-11.4858
▁prov	-11.4859
vin	-11.4859
▁pleno	-11.486
▁Bel	-11.4862
▁renda	-11.4862
▁vivido	-11.4864
lice	-11.4868
▁pata	-11.4868
▁consistente	-11.4868
▁bla	-11.4869
▁afastada	-11.4871
▁variações	-11.4872
▁suportar	-11.4882
▁subida	-11.4883
und	-11.4884
▁4.	-11.4885
▁Sejam	-11.4886
▁investido	-11.4888
▁consideração	-11.4889
▁dixital	-11.489
▁partidos	-11.489
▁esencial	-11.4891
▁detetor	-11.4891
▁regressa	-11.4893
▁Faça	-11.4894
▁gado	-11.4894
fí	-11.4894
▁emoção	-11.4898
▁descreveu	-11.4902
▁unida	-11.4905
ctor	-11.4909
▁escritora	-11.491
avelmente	-11.4914
▁oposta	-11.4918
óli	-11.4918
▁Gal	-11.492
▁neo	-11.492
▁mexicano	-11.4923
▁recordo	-11.4926
▁sexualmente	-11.4927
▁Vexa	-11.4927
▁diretora	-11.4932
posición	-11.4934
▁ocasional	-11.4934
reio	-11.4936
▁independentes	-11.4938
▁leu	-11.494
▁fre	-11.4949
▁inovar	-11.4951
▁chegado	-11.4951
▁prótese	-11.4956
▁informático	-11.4958
neta	-11.4963
▁conectar	-11.4963
▁millón	-11.4964
▁recusa	-11.4964
▁traduzir	-11.497
▁Haver	-11.4971
▁modifica	-11.4975
▁preparado	-11.4976
▁ouvirem	-11.4978
▁Segunda	-11.4979
▁pagamos	-11.4982
▁Ros	-11.4986
ábia	-11.4988
▁Even	-11.499
▁Cidade	-11.4998
tima	-11.5002
▁54	-11.5004
▁absorver	-11.5006
▁interessar	-11.5006
▁coñecer	-11.5012
▁queimar	-11.5015
▁concorda	-11.5019
▁verme	-11.5024
▁existente	-11.5028
iano	-11.5029
▁acontecerá	-11.5029
ai	-11.5032
▁ecrãs	-11.5038
▁lava	-11.5046
▁explodir	-11.505
▁Lar	-11.5055
▁continu	-11.5058
▁dizerem	-11.5064
▁ampli	-11.5067
fiquem	-11.5068
ún	-11.5073
▁Fai	-11.5078
tação	-11.5079
▁gravado	-11.5079
▁Carolin	-11.5079
▁transi	-11.5085
▁empresários	-11.5091
▁India	-11.5097
▁conseguí	-11.51
irei	-11.5102
▁fabrica	-11.5105
▁compreendia	-11.5106
▁arquitetos	-11.5109
▁edificios	-11.5109
▁grito	-11.5112
▁compreende	-11.5114
▁preferi	-11.5125
▁apostar	-11.5125
▁capturar	-11.5128
▁adoram	-11.5129
▁3.	-11.5129
▁bebe	-11.5131
▁exigir	-11.5134
▁tornámo	-11.5136
ung	-11.5139
▁pesa	-11.5142
▁medido	-11.5143
▁sobrevivi	-11.5148
▁pastor	-11.5149
riedade	-11.5154
▁surpreendidos	-11.5159
▁31	-11.516
▁protegem	-11.5165
▁concordar	-11.5167
well	-11.5174
ya	-11.5178
▁una	-11.5188
mas	-11.5188
▁Ment	-11.5192
▁agard	-11.5199
ifer	-11.5204
▁impor	-11.5211
▁conhecimentos	-11.5211
▁posse	-11.5237
▁mono	-11.5242
▁diría	-11.5244
alas	-11.5245
▁directo	-11.5245
▁tripula	-11.5247
▁telefones	-11.5252
▁rep	-11.5252
▁Imaxin	-11.5256
▁Sub	-11.5256
▁camar	-11.5258
ntar	-11.5261
▁salta	-11.5261
garda	-11.5266
▁radio	-11.5277
vida	-11.5278
▁ilus	-11.5279
▁hábitos	-11.5283
▁Green	-11.5284
▁55	-11.5289
▁195	-11.5299
▁vier	-11.53
▁rim	-11.5301
▁resumi	-11.5302
▁constitu	-11.5305
▁imitador	-11.5308
▁manda	-11.5309
▁condena	-11.5312
ílio	-11.5312
génese	-11.5313
▁beneficia	-11.5319
▁execu	-11.5319
uge	-11.5327
▁Sir	-11.5327
hop	-11.5333
▁Coloca	-11.5335
▁dava	-11.5336
▁preferidos	-11.5336
▁empurra	-11.5339
▁cruz	-11.5341
gua	-11.5344
▁consigam	-11.5352
▁interpretar	-11.5353
▁prolonga	-11.5353
▁tratava	-11.5366
▁cobra	-11.5368
▁comedia	-11.537
zer	-11.5372
▁obeso	-11.5374
▁ajust	-11.5376
▁altruís	-11.5378
ring	-11.5378
▁compromis	-11.5382
▁intent	-11.5385
▁fronte	-11.5386
▁Saudita	-11.5386
▁ambulância	-11.5386
▁artística	-11.5386
▁basquete	-11.5386
▁castanho	-11.5386
▁comunitário	-11.5386
▁congestiona	-11.5386
▁contínuo	-11.5386
▁crânio	-11.5386
▁estômago	-11.5386
▁exercicio	-11.5386
▁expetativa	-11.5386
▁fabulosa	-11.5386
▁farmacêutica	-11.5386
▁horário	-11.5386
▁invulgar	-11.5386
▁inútil	-11.5386
▁italiano	-11.5386
▁microARN	-11.5386
▁orquestra	-11.5386
▁sepultura	-11.5386
▁singular	-11.5386
▁suspeita	-11.5386
▁tsunami	-11.5386
▁tóxico	-11.5386
▁vitamina	-11.5386
▁vínculo	-11.5386
▁Escrevi	-11.5386
▁causou	-11.5386
▁enzima	-11.5386
▁essenciais	-11.5386
▁humanitária	-11.5386
▁precoce	-11.5386
▁reverbera	-11.5386
▁sábado	-11.5386
▁Scratch	-11.5386
▁arterial	-11.5386
▁autentic	-11.5386
▁inevita	-11.5386
▁banana	-11.5386
▁mantido	-11.5386
▁Noutra	-11.5386
▁conferencia	-11.5386
▁drone	-11.5386
▁protocolo	-11.5386
▁Earth	-11.5386
▁articula	-11.5386
▁xenético	-11.5386
▁Segui	-11.5386
▁biolóxica	-11.5386
▁inserir	-11.5386
▁magnético	-11.5386
▁democrática	-11.5386
▁inferno	-11.5386
▁Fizeram	-11.5387
▁automaticamente	-11.5387
▁decidí	-11.5387
▁Espanh	-11.5387
▁orixe	-11.5387
▁germe	-11.5387
▁muscular	-11.5387
▁coincidência	-11.5387
▁fogueira	-11.5387
▁lixeira	-11.5387
▁neurociência	-11.5387
▁anónimo	-11.5387
▁zangado	-11.5387
▁estreita	-11.5387
▁derramamento	-11.5387
▁alarme	-11.5387
▁Nathan	-11.5387
▁Albert	-11.5387
▁estreito	-11.5387
▁geneticamente	-11.5388
▁exato	-11.5388
▁facilitar	-11.5388
▁reflexão	-11.5388
▁patrón	-11.5388
▁1960	-11.5388
▁intre	-11.5389
▁Microsoft	-11.5389
▁celebridade	-11.5389
▁abraçar	-11.5389
▁morea	-11.5389
▁alugar	-11.5389
▁liguei	-11.539
▁rumo	-11.539
▁otimista	-11.539
▁86	-11.539
▁Precisam	-11.5391
▁racista	-11.5391
▁praça	-11.5391
▁Fez	-11.5392
▁difusão	-11.5392
▁Passá	-11.5392
▁dividida	-11.5392
▁bossa	-11.5393
▁King	-11.5393
▁apropriado	-11.5393
▁personalizada	-11.5393
▁tremendo	-11.5394
▁ironia	-11.5396
▁nesa	-11.5396
▁pormenores	-11.5396
▁requisito	-11.5397
▁trouxeram	-11.5397
▁betão	-11.5397
▁Dê	-11.5398
▁concentração	-11.5399
▁Oceano	-11.54
▁feia	-11.5402
▁Escreve	-11.5402
▁intencional	-11.5403
▁interese	-11.5403
▁psiquiatra	-11.5404
▁rebelde	-11.5405
▁marinho	-11.5405
▁quinto	-11.5406
▁gris	-11.5407
▁CD	-11.5408
▁programáve	-11.5408
▁ritual	-11.541
attle	-11.5413
▁equ	-11.5413
entes	-11.5416
▁dividido	-11.5417
▁escolhi	-11.5419
▁rodeado	-11.5419
▁crescido	-11.542
▁define	-11.5421
▁desenvolvi	-11.5423
▁ouvem	-11.5423
▁ensinada	-11.5424
guste	-11.5426
▁marítimo	-11.5426
▁grandeza	-11.5426
▁pap	-11.543
▁polares	-11.5432
▁precise	-11.5432
▁cru	-11.5433
▁sincero	-11.5433
▁linear	-11.5434
▁Moi	-11.5435
▁produzido	-11.5435
▁compreendem	-11.5437
10	-11.5437
▁neuronal	-11.544
▁xunta	-11.5441
▁ferve	-11.5443
▁v	-11.5445
▁Vê	-11.5446
▁alegre	-11.545
▁Roma	-11.5454
▁perfurado	-11.5456
▁viol	-11.5456
▁histori	-11.5462
▁entusiasmados	-11.5462
▁xubila	-11.5463
▁Sabia	-11.5465
▁utilizam	-11.5467
▁estranhas	-11.5471
▁chamaram	-11.5483
▁Venez	-11.5486
▁vinda	-11.549
▁Val	-11.5492
▁interessam	-11.5496
▁velo	-11.5504
▁estimular	-11.5506
▁dobre	-11.5509
▁reage	-11.551
▁avanços	-11.5512
▁Wo	-11.5517
ue	-11.5521
▁Sant	-11.5521
▁South	-11.5524
▁esperem	-11.5526
▁West	-11.5527
leiros	-11.5531
▁Km	-11.5536
▁devolver	-11.5537
ráfico	-11.5538
▁importam	-11.5538
▁macaco	-11.5546
▁átomo	-11.5549
▁lente	-11.5557
ker	-11.5561
▁protege	-11.5561
▁ultrapassa	-11.5562
▁fêmeas	-11.5563
▁comentário	-11.5564
▁privadas	-11.5564
ela	-11.5568
▁Pedi	-11.5571
▁reparado	-11.5575
▁moscas	-11.5579
▁batedor	-11.5584
▁lido	-11.5588
▁treinador	-11.5589
▁lança	-11.5589
▁usem	-11.5593
▁atenta	-11.5597
écia	-11.5603
ética	-11.5606
▁43	-11.5609
▁eco	-11.5611
▁afectar	-11.5614
icos	-11.5615
▁Mah	-11.5617
▁atrai	-11.5617
▁Mel	-11.5619
▁seguimo	-11.5619
▁amplia	-11.562
ladas	-11.5621
▁divulgar	-11.5622
▁Boa	-11.5626
▁influencia	-11.5627
▁emite	-11.5628
▁mis	-11.5628
clave	-11.563
óns	-11.563
▁recorre	-11.564
▁defend	-11.5648
▁mede	-11.5655
▁armado	-11.566
imento	-11.5661
tter	-11.5664
▁demonstram	-11.5666
▁executa	-11.5671
▁fil	-11.5672
▁apanhado	-11.5672
icina	-11.5679
▁potencia	-11.5684
▁tiram	-11.5684
▁poliniza	-11.5685
▁Ig	-11.5685
▁disser	-11.5686
ama	-11.5687
pont	-11.569
émoslle	-11.569
▁recorrer	-11.5691
▁libros	-11.5692
nus	-11.5694
▁artes	-11.5705
▁guardas	-11.5715
▁enviam	-11.5718
ergu	-11.5719
usa	-11.572
▁depend	-11.572
▁Pal	-11.5724
kin	-11.5725
▁executar	-11.5725
▁fare	-11.5727
ent	-11.573
▁adorar	-11.5732
▁trav	-11.5737
▁Gar	-11.5741
▁modificar	-11.5756
▁sof	-11.5759
▁malo	-11.5769
▁retira	-11.5773
▁seta	-11.5779
▁usarem	-11.5785
nze	-11.5793
▁previsíve	-11.5794
▁impedi	-11.5806
ético	-11.5812
ncia	-11.5818
▁her	-11.582
▁nive	-11.582
▁apartamentos	-11.5824
rder	-11.5826
omé	-11.5826
▁treinado	-11.5827
▁produtor	-11.5847
sistência	-11.585
▁Senhor	-11.5851
▁pinta	-11.5853
▁lembram	-11.5855
▁Rica	-11.5855
▁traduzi	-11.5857
▁darem	-11.5862
▁cela	-11.5863
tic	-11.5872
▁mel	-11.5873
porte	-11.5876
▁conferências	-11.5877
▁America	-11.5877
fere	-11.5879
▁deseñado	-11.5882
▁monta	-11.5882
▁Mari	-11.5885
▁celebrar	-11.5888
▁Ya	-11.5899
UU	-11.5903
pública	-11.5903
Y	-11.5903
aron	-11.5904
For	-11.5905
ificação	-11.5908
▁ventila	-11.5912
deus	-11.5914
▁lida	-11.5921
▁golpe	-11.5924
▁encontrá	-11.5925
▁gui	-11.5936
real	-11.5938
97	-11.594
▁pede	-11.5945
▁correo	-11.5948
▁propaga	-11.5956
▁Sentia	-11.5956
▁hip	-11.596
▁levo	-11.5961
iforme	-11.5964
stria	-11.5968
▁pris	-11.5969
▁puser	-11.597
▁racional	-11.5972
▁reabilita	-11.5974
$	-11.5974
=	-11.5974
▁Câmara	-11.5974
▁FreeSpeech	-11.5974
▁Jeff	-11.5974
▁Pergunta	-11.5974
▁Stephen	-11.5974
▁Tunísia	-11.5974
▁Uganda	-11.5974
▁abasteci	-11.5974
▁arrecife	-11.5974
▁banqueiro	-11.5974
▁cemitério	-11.5974
▁contempla	-11.5974
▁culinári	-11.5974
▁distinção	-11.5974
▁dramática	-11.5974
▁esforzo	-11.5974
▁heroína	-11.5974
▁individuo	-11.5974
▁líquida	-11.5974
▁manutenção	-11.5974
▁mazá	-11.5974
▁mochila	-11.5974
▁origami	-11.5974
▁pingüín	-11.5974
▁presidencia	-11.5974
▁prossegui	-11.5974
▁subúrbio	-11.5974
▁óptimo	-11.5974
▁necesaria	-11.5975
▁trágico	-11.5975
▁alargar	-11.5975
▁concreta	-11.5975
▁fruto	-11.5975
▁Irland	-11.5975
▁Talibã	-11.5975
alifornia	-11.5975
▁armazé	-11.5975
▁fatia	-11.5975
▁rigorosa	-11.5975
▁Video	-11.5975
▁batalla	-11.5975
▁prostitui	-11.5975
▁asiático	-11.5975
▁sólida	-11.5975
▁Stew	-11.5975
▁frasco	-11.5975
▁pegá	-11.5975
▁Primeira	-11.5975
▁cruzamento	-11.5975
▁electrónico	-11.5975
▁espetro	-11.5975
▁cauda	-11.5975
▁habitáve	-11.5975
▁atrasado	-11.5975
▁punta	-11.5975
▁campus	-11.5975
▁legais	-11.5975
▁Glass	-11.5975
▁diapositiva	-11.5976
▁dereito	-11.5976
▁Carne	-11.5976
▁conexión	-11.5976
▁protegido	-11.5976
▁misteriosa	-11.5976
▁ciente	-11.5976
▁prezo	-11.5976
▁largo	-11.5976
▁primário	-11.5977
▁tristeza	-11.5977
▁extremidade	-11.5977
▁constrói	-11.5977
▁improvável	-11.5977
▁expedição	-11.5978
▁asfalt	-11.5978
▁fenda	-11.5978
▁executivo	-11.5979
▁colaborativo	-11.5979
▁habituados	-11.5979
▁ultrasson	-11.598
▁apresentou	-11.598
▁2,5	-11.598
▁isolar	-11.5981
▁grama	-11.5981
▁disposição	-11.5981
▁viesse	-11.5981
▁suc	-11.5981
▁nalgun	-11.5982
▁franceses	-11.5982
▁colina	-11.5983
▁haviam	-11.5983
▁Lab	-11.5984
▁avança	-11.5984
▁opinión	-11.5985
▁permitido	-11.5985
deme	-11.5986
▁fá	-11.5986
▁vencedores	-11.5987
▁previsto	-11.5987
▁conduta	-11.5989
▁enigma	-11.5991
vindo	-11.5993
▁registar	-11.5995
▁glaciares	-11.5995
abilóni	-11.5997
▁inventado	-11.5997
▁congelado	-11.5997
▁convidar	-11.5998
▁regularmente	-11.5999
▁concordo	-11.5999
▁categorias	-11.6
▁escaravelhos	-11.6
▁comprometer	-11.6
▁espacio	-11.6002
▁exprimir	-11.6003
▁retirado	-11.6004
triz	-11.6004
▁Quiz	-11.6005
▁Buda	-11.6006
issão	-11.6007
▁Comeza	-11.6008
▁ficaria	-11.6009
▁suma	-11.6009
▁Face	-11.6011
▁atingem	-11.6012
▁interligado	-11.6014
▁confronto	-11.6015
▁juntou	-11.6015
▁saíram	-11.6019
▁personalizado	-11.602
rico	-11.6021
▁envelhecer	-11.6021
▁controlam	-11.6026
▁nalguma	-11.6028
▁Jan	-11.603
▁aquel	-11.6031
▁Meta	-11.6034
▁ilustrar	-11.6035
▁Lee	-11.6036
▁orden	-11.6036
bemos	-11.6037
▁afectam	-11.6038
▁juntaram	-11.6043
ak	-11.6045
▁xoga	-11.6045
▁fluido	-11.6046
▁enviada	-11.6046
▁gravada	-11.6047
▁localizar	-11.6047
LA	-11.6048
▁publicada	-11.6051
▁disciplinas	-11.6054
▁interfaces	-11.6054
▁inspirador	-11.6055
▁axencia	-11.6055
▁outono	-11.606
▁pediram	-11.6065
▁chea	-11.6067
▁mineiro	-11.6068
▁estilistas	-11.6069
She	-11.6071
▁actuar	-11.6071
pita	-11.6075
rude	-11.6076
▁Americano	-11.6077
pin	-11.6077
▁ensinaram	-11.6081
▁espreita	-11.6083
▁encaixar	-11.6086
▁mostrando	-11.6086
tlântico	-11.609
▁protegidas	-11.6096
▁bombeiros	-11.6096
unha	-11.6097
▁espin	-11.6102
▁venha	-11.6106
▁aventuras	-11.6108
▁gestor	-11.6109
▁desisti	-11.6109
▁96	-11.6109
▁Cinc	-11.6118
▁premio	-11.6124
▁Wood	-11.6124
▁descreve	-11.6129
▁atingi	-11.6131
▁bala	-11.6135
▁gara	-11.6135
▁afirmar	-11.6138
▁prové	-11.6138
▁Ap	-11.6139
▁ouvida	-11.614
▁generosa	-11.6143
▁impresso	-11.6146
▁travar	-11.615
▁minúsculas	-11.6151
dit	-11.6153
itar	-11.6153
▁espalha	-11.6155
▁fluorescente	-11.6157
▁grego	-11.6158
▁tribo	-11.6158
▁oído	-11.6159
▁resolvido	-11.6161
▁smartphone	-11.6162
▁pronta	-11.6163
▁coluna	-11.6164
sola	-11.617
▁baleia	-11.617
▁mosquito	-11.6175
▁biólogo	-11.6175
▁expectativas	-11.6178
▁mudá	-11.6185
▁invi	-11.6187
▁Ven	-11.6191
▁valer	-11.6193
▁aderir	-11.6202
cent	-11.6202
▁nervosa	-11.6204
▁encher	-11.6207
lim	-11.6212
▁46	-11.6213
▁fortemente	-11.6216
gram	-11.6216
▁Mad	-11.6222
▁continuamente	-11.6227
▁tratada	-11.623
▁comecem	-11.6235
▁ovo	-11.6242
▁preserva	-11.6245
▁Ki	-11.6257
▁desejar	-11.6258
▁religiosos	-11.6261
▁lat	-11.6262
▁regula	-11.6263
▁rol	-11.6265
▁gere	-11.6266
▁colocadas	-11.6268
▁mostraram	-11.6274
▁comporta	-11.628
volución	-11.6292
iel	-11.6301
▁38	-11.6302
mbo	-11.6308
▁Bali	-11.6309
▁pinto	-11.631
organ	-11.6317
ótico	-11.6328
▁Gro	-11.6332
▁entregue	-11.6336
▁resolv	-11.6343
▁prima	-11.6345
▁CE	-11.637
▁secular	-11.637
ónica	-11.637
▁entidades	-11.6372
▁acertar	-11.6376
ído	-11.6378
endo	-11.6379
▁ret	-11.638
ilha	-11.6382
ain	-11.6385
émolo	-11.639
▁sorri	-11.6395
▁navega	-11.6396
tz	-11.6398
▁valoriza	-11.6399
utores	-11.64
▁Has	-11.6409
▁escoit	-11.6411
▁Star	-11.6421
cionado	-11.6423
▁precisas	-11.6425
▁reconhecem	-11.6439
gradua	-11.6443
▁reuni	-11.6444
▁Cho	-11.6444
▁recoñece	-11.6445
▁transformam	-11.6467
▁juíz	-11.6467
▁defende	-11.6471
dei	-11.6483
▁z	-11.649
vía	-11.6491
▁venh	-11.6494
ple	-11.6508
ace	-11.6514
▁melhora	-11.6515
▁gast	-11.6517
▁enche	-11.6521
▁contada	-11.6525
frontal	-11.6528
12	-11.6532
trónomos	-11.6548
▁científicas	-11.6551
▁inunda	-11.6557
▁gaña	-11.6558
ológica	-11.6559
▁Corre	-11.6562
▁Ber	-11.6563
▁manterem	-11.6565
ith	-11.6565
▁pla	-11.6569
▁relva	-11.6569
▁falem	-11.6575
▁encripta	-11.6576
ló	-11.6578
▁vend	-11.6578
▁silencio	-11.6586
▁tropica	-11.6586
▁renováve	-11.6586
torio	-11.6587
▁Franc	-11.6587
▁policia	-11.6588
▁jardin	-11.6593
▁dirige	-11.6594
▁atop	-11.6595
hei	-11.6597
▁tabu	-11.6599
▁Alex	-11.6599
▁cidadan	-11.6599
▁maquina	-11.6599
▁Bronx	-11.6599
▁GCH	-11.6599
▁Jerusalém	-11.6599
▁Necesita	-11.6599
▁Shakespear	-11.6599
▁Sistema	-11.6599
▁TEDTalk	-11.6599
▁aleatório	-11.6599
▁alzhéimer	-11.6599
▁arquitecto	-11.6599
▁autêntico	-11.6599
▁borracha	-11.6599
▁critério	-11.6599
▁crocodilo	-11.6599
▁declínio	-11.6599
▁documentário	-11.6599
▁estúpido	-11.6599
▁ficheiro	-11.6599
▁gaiola	-11.6599
▁incluem	-11.6599
▁incómodo	-11.6599
▁inúmer	-11.6599
▁maciça	-11.6599
▁mínima	-11.6599
▁problemático	-11.6599
▁procuro	-11.6599
▁proximidade	-11.6599
▁pulmão	-11.6599
▁responsable	-11.6599
▁rígido	-11.6599
▁solidariedade	-11.6599
▁subsídio	-11.6599
▁toalha	-11.6599
▁Árabe	-11.6599
▁autónomo	-11.66
▁cardiovascular	-11.66
▁defensor	-11.66
▁espectacular	-11.66
▁solteira	-11.66
▁trastorno	-11.66
▁viñeta	-11.66
▁derradeir	-11.66
▁direções	-11.66
▁rapidez	-11.66
▁trafica	-11.66
▁centavo	-11.66
▁destroço	-11.66
▁psicológica	-11.66
▁irriga	-11.66
▁límite	-11.66
▁vizinhança	-11.66
▁crónica	-11.66
▁distrito	-11.66
▁rituais	-11.66
▁vocabul	-11.66
▁gravidez	-11.66
▁império	-11.66
▁televisión	-11.66
▁tubarão	-11.66
▁posiciona	-11.66
▁proxeri	-11.66
▁intervalo	-11.66
TI	-11.66
▁Permite	-11.66
▁Júpiter	-11.66
▁calcário	-11.66
▁suposta	-11.66
▁capitã	-11.66
▁matriz	-11.66
▁CEO	-11.66
▁trinta	-11.66
▁instalación	-11.66
▁Tanz	-11.66
▁enfermaria	-11.66
▁séc	-11.66
▁queijo	-11.6601
▁Yale	-11.6601
▁ISI	-11.6601
rgentin	-11.6601
▁Gracia	-11.6601
▁Vietname	-11.6601
▁receio	-11.6601
▁russo	-11.6601
▁usava	-11.6602
▁Curios	-11.6602
▁cinta	-11.6602
▁hélice	-11.6602
▁anjo	-11.6602
▁Americana	-11.6602
▁produtiva	-11.6603
▁harmonia	-11.6603
▁Roset	-11.6604
▁Fazer	-11.6604
onia	-11.6605
▁abrangente	-11.6605
▁silencioso	-11.6605
▁estágio	-11.6605
▁Evan	-11.6606
▁obtém	-11.6606
ek	-11.6606
Gowan	-11.6607
▁trazido	-11.6607
▁reduzem	-11.6608
▁obtêm	-11.6608
▁cole	-11.6608
▁fundamento	-11.6609
▁diversão	-11.6609
▁reacção	-11.661
ft	-11.661
▁décimo	-11.6611
▁presión	-11.6612
▁policial	-11.6613
▁enfrentam	-11.6614
▁economiza	-11.6615
▁silicon	-11.6617
▁encolher	-11.6618
▁justificar	-11.6618
▁aceitação	-11.6618
▁cortina	-11.662
▁honestamente	-11.6621
▁estudá	-11.6622
▁Desculpem	-11.6623
▁tirou	-11.6624
▁manada	-11.6626
▁salvou	-11.6627
▁Caso	-11.6628
▁preta	-11.6628
▁esqueçam	-11.663
▁aprovado	-11.663
voa	-11.6631
▁puxe	-11.6632
▁girar	-11.6633
▁SS	-11.6634
▁subtil	-11.6634
▁compensa	-11.6635
▁ignorada	-11.6636
pta	-11.6636
▁comparada	-11.6637
▁pedem	-11.6637
ight	-11.664
▁Steven	-11.6641
▁síntoma	-11.6642
stop	-11.6643
cal	-11.6643
▁bailarino	-11.6645
▁testemunho	-11.6647
▁objetiva	-11.6653
▁ensinado	-11.6655
▁estável	-11.6658
▁coberto	-11.6658
▁Tam	-11.6659
▁acu	-11.6664
▁descrito	-11.6669
▁chegava	-11.6675
tus	-11.6677
▁receberam	-11.6679
▁pusemo	-11.6681
▁Conseguir	-11.6681
▁fr	-11.6682
▁balança	-11.6683
▁Lev	-11.6684
▁impulsos	-11.6686
▁converti	-11.6687
nforme	-11.6687
▁Dal	-11.6687
▁percebam	-11.6689
▁Liga	-11.669
▁surpreender	-11.669
▁capta	-11.669
ower	-11.6697
▁37	-11.6698
▁percebido	-11.6699
▁falla	-11.67
▁localidade	-11.67
dela	-11.6701
▁iraniano	-11.6703
▁combinado	-11.6703
▁assinar	-11.6704
▁evapora	-11.6704
▁protecç	-11.6706
▁loitar	-11.6707
▁notar	-11.6708
▁Tende	-11.6713
▁servidor	-11.6717
ocial	-11.672
▁Ni	-11.672
▁prega	-11.6721
ariamente	-11.6725
15	-11.6727
zinha	-11.6729
▁brutal	-11.673
▁ton	-11.6736
▁Debe	-11.6737
▁Maria	-11.6738
▁representante	-11.6739
▁possui	-11.6742
▁conter	-11.6742
idão	-11.6744
▁Cheg	-11.6744
terminado	-11.675
iger	-11.6755
▁vinte	-11.676
▁veñ	-11.6766
▁levando	-11.6766
▁mon	-11.6769
▁Tai	-11.6776
▁aposto	-11.6778
▁filhas	-11.6782
▁inclusiva	-11.6786
▁óso	-11.6786
▁diagnósticos	-11.6787
▁use	-11.6789
anme	-11.679
leção	-11.6795
▁acusa	-11.6799
▁estudamo	-11.6802
nb	-11.6805
▁du	-11.6808
▁Conta	-11.6816
▁slide	-11.6818
▁xigante	-11.6819
▁regular	-11.6821
▁correntes	-11.6821
▁humanitário	-11.6821
▁desfrutar	-11.6823
▁decorrer	-11.6828
▁entidade	-11.6833
▁chimpanzé	-11.6837
▁reducir	-11.6837
▁faixa	-11.6838
▁competência	-11.6839
▁doméstico	-11.684
▁anestesia	-11.6842
petição	-11.6845
▁existisse	-11.6852
▁traduz	-11.6859
▁contam	-11.6862
▁caír	-11.6865
imi	-11.6868
▁Consi	-11.6868
▁observado	-11.6871
▁financi	-11.688
▁rodea	-11.6886
▁puid	-11.689
▁post	-11.689
▁contratar	-11.6901
▁comercializa	-11.6902
▁deci	-11.6904
irb	-11.6914
▁entregar	-11.6921
▁aleatoria	-11.6923
poeira	-11.6925
dra	-11.6927
▁perguntamos	-11.6935
pera	-11.694
▁devasta	-11.6952
▁voltarem	-11.6953
▁93	-11.6954
▁ah	-11.6958
dal	-11.6969
rit	-11.697
▁pau	-11.6971
▁tornem	-11.6978
bal	-11.6989
▁geo	-11.6991
▁deixada	-11.6993
▁consideramo	-11.6993
▁apercebemos	-11.6997
lema	-11.6998
ólogos	-11.7002
▁virtua	-11.7009
▁criadas	-11.7011
han	-11.7012
▁conecta	-11.7014
quez	-11.7017
▁cól	-11.7019
▁Inc	-11.7023
▁parada	-11.7023
▁empezar	-11.7024
▁ador	-11.7024
▁aplicam	-11.7025
▁poupa	-11.7029
▁sede	-11.7032
feitos	-11.7033
int	-11.7035
▁saque	-11.7046
obi	-11.7049
▁colunas	-11.7054
▁marco	-11.7058
▁eleva	-11.7059
▁reformar	-11.7071
▁Euro	-11.7074
▁gras	-11.7076
▁Mala	-11.7076
▁cristal	-11.708
▁flui	-11.7082
▁Sy	-11.7087
lly	-11.7088
▁agricultor	-11.7092
cular	-11.7098
▁corria	-11.7101
▁Fixe	-11.7116
▁nativa	-11.7119
far	-11.7121
▁Academi	-11.7122
lec	-11.7128
▁activado	-11.7134
cimo	-11.7138
▁aplicá	-11.7151
▁he	-11.7159
rris	-11.7162
▁menti	-11.7164
▁delicad	-11.7164
▁disp	-11.7165
▁diminu	-11.7165
▁fuma	-11.7171
▁Vivia	-11.718
▁acompanha	-11.718
cado	-11.7182
▁violar	-11.7184
▁comportar	-11.7187
ish	-11.7187
▁financeiras	-11.7191
agan	-11.7191
▁comem	-11.7193
▁escrevem	-11.7198
▁poñe	-11.7199
▁suicidas	-11.7205
▁doutor	-11.7205
▁personaliza	-11.7206
áron	-11.7207
▁degrada	-11.721
▁medos	-11.7217
▁We	-11.7219
entos	-11.7227
▁fizessem	-11.723
▁interac	-11.7236
▁rapaza	-11.7238
▁permita	-11.7238
▁magn	-11.7238
▁viria	-11.7241
cél	-11.7249
▁volve	-11.7252
▁engenho	-11.7253
▁Vá	-11.7254
▁castig	-11.726
tividade	-11.7261
▁respect	-11.7262
▁directa	-11.7263
burg	-11.7265
^	-11.7266
▁Health	-11.7266
▁Jordan	-11.7266
▁Líbano	-11.7266
▁Perguntei	-11.7266
▁Sky	-11.7266
▁Watson	-11.7266
▁Wikipedia	-11.7266
▁amígdala	-11.7266
▁ansioso	-11.7266
▁cereais	-11.7266
▁compreendo	-11.7266
▁debuxo	-11.7266
▁drasticamente	-11.7266
▁díxo	-11.7266
▁empolgante	-11.7266
▁evidencia	-11.7266
▁fantasia	-11.7266
▁genocídio	-11.7266
▁hidróxeno	-11.7266
▁incêndio	-11.7266
▁malicioso	-11.7266
▁nanopartícula	-11.7266
▁neutro	-11.7266
▁peculiar	-11.7266
▁persuadi	-11.7266
▁procure	-11.7266
▁proprietário	-11.7266
▁proveniente	-11.7266
▁quântico	-11.7266
▁recipiente	-11.7266
▁textura	-11.7266
▁AVC	-11.7266
▁paixões	-11.7266
▁vulc	-11.7266
▁vulnerable	-11.7266
▁desvantage	-11.7266
▁engoli	-11.7266
▁revolta	-11.7266
▁Stasi	-11.7266
▁paralisia	-11.7266
▁potente	-11.7266
▁vazia	-11.7266
▁intangíve	-11.7266
▁vestígio	-11.7266
▁depósito	-11.7266
▁intensivo	-11.7266
▁omnipresente	-11.7266
▁sueco	-11.7266
▁ultravioleta	-11.7266
▁plasma	-11.7266
▁Stein	-11.7266
▁oferta	-11.7266
▁XVIII	-11.7266
▁institucional	-11.7266
▁licenciatura	-11.7266
▁dolorosa	-11.7266
▁fantasma	-11.7266
▁espingarda	-11.7266
▁selecciona	-11.7266
▁premissa	-11.7266
▁ambicioso	-11.7266
▁apropriada	-11.7266
▁Antiga	-11.7266
▁desprez	-11.7266
▁asunto	-11.7266
▁frágil	-11.7266
▁altitude	-11.7266
▁doenza	-11.7266
▁distribuir	-11.7267
▁abonda	-11.7267
▁fermoso	-11.7267
▁refiro	-11.7267
▁Sandy	-11.7267
▁botões	-11.7267
▁autoestrada	-11.7267
▁suspeito	-11.7267
▁acampamento	-11.7267
▁comentario	-11.7267
▁armadura	-11.7267
▁solucións	-11.7267
▁agrupamento	-11.7267
ixeria	-11.7268
▁suja	-11.7268
▁tigre	-11.7268
▁Newton	-11.7268
▁coelho	-11.7268
▁postura	-11.7268
pólio	-11.7268
▁situación	-11.7268
▁aceitável	-11.7269
▁reacciona	-11.7269
▁coloquei	-11.7269
▁Clint	-11.7269
▁percebo	-11.7269
▁rin	-11.727
▁aceitou	-11.7271
▁Levou	-11.7271
▁reconhecida	-11.7271
▁ninho	-11.7272
▁vivía	-11.7272
▁comentar	-11.7273
▁maxi	-11.7273
▁desenhada	-11.7273
▁irritante	-11.7273
▁48	-11.7274
▁caçadores	-11.7274
▁contrario	-11.7274
▁entusiasmada	-11.7274
▁Tecnologi	-11.7274
▁consomem	-11.7275
▁prefiro	-11.7275
▁asilo	-11.7275
▁Inver	-11.7276
▁horizontal	-11.7277
▁oradores	-11.7277
▁vendida	-11.7277
▁puseram	-11.7278
▁Passo	-11.7278
▁interruptor	-11.7279
▁aptidão	-11.7279
▁impressionado	-11.7279
▁reflexo	-11.7282
▁negação	-11.7283
▁teclado	-11.7284
▁produtivo	-11.7284
▁creche	-11.7284
ington	-11.7285
▁educada	-11.7286
▁desenvolvidos	-11.7287
▁flexíveis	-11.7288
▁Henr	-11.7288
▁capace	-11.7288
▁postal	-11.7289
▁abandonado	-11.729
▁bateu	-11.729
cioso	-11.7291
andamento	-11.7291
▁exibi	-11.7292
▁ameaçado	-11.7294
▁terminal	-11.7294
▁imaginado	-11.7294
▁vendido	-11.7295
▁vendedores	-11.7295
▁Far	-11.7298
▁xemelgo	-11.73
▁balde	-11.73
▁fortalecer	-11.73
▁medições	-11.7301
▁cantores	-11.7301
▁actua	-11.7301
▁sab	-11.7302
▁cern	-11.7305
▁modificada	-11.7306
▁Nasci	-11.7308
▁latino	-11.7308
▁conversación	-11.7311
▁devastadora	-11.7312
▁lindamente	-11.7313
▁mante	-11.7314
▁gráfica	-11.7315
▁introduzido	-11.7315
▁asteroide	-11.7317
▁agrada	-11.732
▁incluído	-11.7321
▁aquecer	-11.7325
▁mortais	-11.7326
▁colatera	-11.7331
▁Ram	-11.7332
▁recolha	-11.7332
▁desat	-11.7339
▁cuarto	-11.7342
▁perguntámos	-11.7345
▁museus	-11.7345
▁distra	-11.735
▁levan	-11.7354
▁ELA	-11.7357
▁vo	-11.7359
▁escava	-11.7359
▁colocámos	-11.7364
▁Pat	-11.737
cin	-11.7371
▁Trá	-11.7372
▁fomenta	-11.7373
▁extrovertidos	-11.7375
▁marcado	-11.7376
▁exercer	-11.7379
▁limitar	-11.7379
▁Bol	-11.7379
▁prosperar	-11.738
▁fricç	-11.7383
▁193	-11.7385
▁Sabía	-11.7392
▁observam	-11.7394
▁afectada	-11.7395
reta	-11.7398
▁dicirlle	-11.7398
▁encar	-11.7401
▁ave	-11.7401
▁condicionado	-11.7405
▁arrancar	-11.7405
▁polar	-11.7407
NT	-11.741
▁máxima	-11.7412
▁Pensava	-11.7416
▁fer	-11.7419
▁lu	-11.7421
▁aplicado	-11.7424
ística	-11.7426
▁colher	-11.7427
lizado	-11.7434
▁ocorrem	-11.7434
destrador	-11.7439
▁resum	-11.7443
98	-11.7444
▁introduzi	-11.7446
ezas	-11.7448
▁andares	-11.7459
▁destacar	-11.7462
▁sintam	-11.7476
▁analizar	-11.7477
▁assumi	-11.7477
▁nel	-11.7478
▁atira	-11.7478
▁Vas	-11.7491
▁0,	-11.7491
▁Elv	-11.7492
bit	-11.7493
▁Col	-11.7497
cionar	-11.7498
▁veja	-11.7502
ema	-11.7504
▁escuras	-11.7504
▁inje	-11.7508
ítica	-11.7511
▁85	-11.7518
▁amava	-11.7527
▁Anna	-11.7529
▁encarar	-11.753
▁conven	-11.753
▁instinto	-11.7533
▁prédio	-11.7534
▁tentava	-11.7536
▁inesperado	-11.7536
▁nativo	-11.7539
▁Tor	-11.754
▁lacuna	-11.754
▁urbana	-11.7542
▁atacado	-11.7542
▁iron	-11.7543
▁urso	-11.7543
▁tempestade	-11.7544
▁fecha	-11.7545
▁masculino	-11.7546
▁surpreendido	-11.7549
▁preconceito	-11.755
contentores	-11.7552
▁interroga	-11.7552
▁disposto	-11.7553
▁torne	-11.7553
▁clínico	-11.7553
▁observador	-11.7554
▁benefício	-11.7556
▁preservar	-11.7558
xiñ	-11.756
caria	-11.7562
▁fragmentos	-11.7563
tórias	-11.7565
▁faltam	-11.7566
assa	-11.757
▁alega	-11.7576
▁acredite	-11.7579
▁apreci	-11.7582
▁geri	-11.7582
▁consol	-11.7583
▁tentem	-11.7586
▁gan	-11.7596
▁agr	-11.7599
▁Recebe	-11.76
▁desloca	-11.7606
▁regress	-11.7606
úa	-11.7606
ach	-11.7606
▁acepta	-11.7614
sey	-11.762
▁br	-11.7622
▁poes	-11.7623
▁Hol	-11.7623
▁imóve	-11.7627
ivamente	-11.764
ang	-11.764
▁medita	-11.7641
grafia	-11.7651
▁prote	-11.7654
▁criarem	-11.7658
gam	-11.7661
▁sí	-11.7665
▁animados	-11.7675
xting	-11.7679
▁Pop	-11.7679
▁tempestades	-11.769
▁avanza	-11.7692
▁aceita	-11.7694
▁Dado	-11.7697
heguei	-11.7698
tive	-11.7703
▁pase	-11.7705
▁identidades	-11.7708
▁esmagado	-11.7711
▁Int	-11.7712
iv	-11.7723
tida	-11.7723
▁viru	-11.7724
▁gargal	-11.7725
▁mudámo	-11.773
▁elevados	-11.7741
essão	-11.7742
▁metas	-11.775
▁controle	-11.7755
dições	-11.7767
zar	-11.7769
▁reformado	-11.7769
fur	-11.7777
igo	-11.7778
▁adot	-11.7791
nimo	-11.7791
▁localizado	-11.7792
plan	-11.7794
▁encantado	-11.7799
▁premi	-11.7801
▁educado	-11.7801
▁desculpas	-11.7805
▁espantosas	-11.7805
▁fri	-11.7814
scrições	-11.7819
▁goste	-11.7821
reita	-11.7823
▁Sai	-11.7826
cionista	-11.7829
▁Dra	-11.784
▁olhava	-11.7844
▁filantropi	-11.7858
▁espi	-11.7858
▁Hall	-11.7859
▁alter	-11.7865
▁fracas	-11.7871
▁ida	-11.7873
▁trazo	-11.788
▁implementa	-11.7881
▁Hava	-11.7881
▁precisaba	-11.7882
▁Sabiam	-11.7883
▁Vem	-11.7883
▁venham	-11.7887
▁camiña	-11.7889
▁monitor	-11.7894
hic	-11.7896
▁panor	-11.7897
mbia	-11.7901
▁Construímo	-11.7904
▁Sud	-11.7907
sucedido	-11.7908
▁maio	-11.791
adora	-11.7912
▁apresentado	-11.7922
▁Mire	-11.7923
oster	-11.7925
▁Inclu	-11.7936
ónia	-11.7938
▁interpret	-11.7939
▁comunicam	-11.7945
▁invas	-11.795
tua	-11.795
▁preocupe	-11.7952
▁muni	-11.7954
▁exata	-11.7957
▁sentí	-11.7957
q	-11.7959
▁legisla	-11.7959
▁desejava	-11.7959
▁existencia	-11.7962
▁abandono	-11.7965
▁alivia	-11.7971
▁esencia	-11.7973
▁encontrava	-11.7974
▁Chego	-11.7976
▁transformado	-11.7978
ustiça	-11.798
▁enxeñ	-11.798
nacci	-11.798
▁apresentá	-11.798
▁Ajuda	-11.798
▁Kepler	-11.798
▁Missouri	-11.798
▁Projeto	-11.798
▁Rapariga	-11.798
▁absurdo	-11.798
▁acústica	-11.798
▁antidepressivo	-11.798
▁arbusto	-11.798
▁besouro	-11.798
▁cidadán	-11.798
▁cineasta	-11.798
▁dinâmico	-11.798
▁dúbida	-11.798
▁escravatura	-11.798
▁espalhou	-11.798
▁espectáculo	-11.798
▁espessura	-11.798
▁fraqueza	-11.798
▁fíxo	-11.798
▁gravitacional	-11.798
▁guitarra	-11.798
▁iPad	-11.798
▁impotente	-11.798
▁indícios	-11.798
▁instituto	-11.798
▁intrigante	-11.798
▁mesquita	-11.798
▁necesario	-11.798
▁pantalla	-11.798
▁pesadelo	-11.798
▁polímero	-11.798
▁porcentaxe	-11.798
▁páxina	-11.798
▁quantitativa	-11.798
▁simultâne	-11.798
▁sábio	-11.798
▁tartaruga	-11.798
▁teórico	-11.798
▁túmulo	-11.798
▁válvula	-11.798
▁álcool	-11.798
▁Geoff	-11.798
▁Zimbab	-11.798
▁arriscado	-11.798
▁arriscar	-11.798
▁flexibilidade	-11.798
▁incapaz	-11.798
▁vulnerabilidade	-11.798
▁Óscar	-11.798
▁detalhada	-11.798
▁require	-11.798
▁Gert	-11.798
▁Helen	-11.798
▁Odisse	-11.798
▁festiva	-11.798
▁chapéu	-11.7981
▁practica	-11.7981
▁urina	-11.7981
▁golfinho	-11.7981
▁íntima	-11.7981
▁ciber	-11.7981
▁expresión	-11.7981
▁ferimento	-11.7981
▁rabisco	-11.7981
▁Industrial	-11.7981
▁Edward	-11.7981
▁creatividade	-11.7981
▁inerente	-11.7981
▁electrónica	-11.7981
castanha	-11.7981
▁coñecido	-11.7981
▁propiedade	-11.7981
▁comprou	-11.7981
▁saudita	-11.7981
▁imers	-11.7981
▁mágica	-11.7981
▁noturno	-11.7981
▁digno	-11.7981
▁primária	-11.7981
▁superpoder	-11.7981
▁domingo	-11.7981
▁novembro	-11.7981
▁fermosa	-11.7981
▁artesana	-11.7981
▁evolutiva	-11.7981
▁selvagens	-11.7981
▁servizo	-11.7981
▁rotina	-11.7981
▁fecho	-11.7981
▁Control	-11.7981
▁heroe	-11.7982
▁País	-11.7982
▁embarcar	-11.7982
▁Peço	-11.7982
▁consumidor	-11.7982
▁hot	-11.7982
▁replicar	-11.7982
▁caneta	-11.7982
▁exposta	-11.7982
▁golfe	-11.7983
▁escaleira	-11.7983
▁Hanna	-11.7983
▁Deixo	-11.7983
▁lavadora	-11.7983
▁sequenciar	-11.7983
▁reacción	-11.7984
▁combustible	-11.7984
▁Chef	-11.7984
▁feio	-11.7984
gurança	-11.7984
▁confessa	-11.7984
▁convite	-11.7984
▁rejeita	-11.7985
▁educacional	-11.7985
▁poço	-11.7985
▁lote	-11.7985
▁enquadra	-11.7985
▁trilh	-11.7986
▁mestrado	-11.7987
▁visões	-11.7987
▁campe	-11.7987
▁descubrimento	-11.7987
▁Justine	-11.7987
▁Fey	-11.7987
▁empezo	-11.7987
▁escasse	-11.7988
▁escute	-11.7988
▁Lib	-11.7988
▁falsificaç	-11.7988
▁deixava	-11.7988
▁contracep	-11.7989
▁pasta	-11.7989
▁creativo	-11.799
▁logística	-11.7991
▁camisa	-11.7991
▁quarteirão	-11.7992
▁telefonema	-11.7992
▁44	-11.7992
omon	-11.7992
▁abordagens	-11.7992
▁Sher	-11.7993
ónico	-11.7993
▁pouqui	-11.7993
▁Leste	-11.7994
▁decente	-11.7994
▁biografia	-11.7995
xen	-11.7996
▁isolada	-11.7998
▁retro	-11.7998
▁Indon	-11.7998
▁equilibrar	-11.8
▁identificação	-11.8
ónio	-11.8001
frontar	-11.8001
▁Bell	-11.8001
▁surto	-11.8002
▁intervir	-11.8002
▁poemas	-11.8002
▁desvio	-11.8003
▁destruído	-11.8003
▁transmitido	-11.8003
▁dicían	-11.8004
▁Ó	-11.8004
▁detido	-11.8005
▁saia	-11.8007
▁subti	-11.8008
▁Dev	-11.8008
▁Muni	-11.8009
▁preocupem	-11.8009
▁cintur	-11.801
ães	-11.8011
▁salaria	-11.8012
▁feto	-11.8015
▁valorizar	-11.8016
▁TB	-11.8016
▁roubada	-11.8016
▁encoraja	-11.8017
▁marinha	-11.8018
▁roubado	-11.8018
▁experimental	-11.8018
▁espalhada	-11.8019
▁circulação	-11.8019
▁danificado	-11.802
▁imprevisíve	-11.8024
▁violada	-11.8025
▁Morto	-11.8026
▁polariza	-11.803
▁moleculares	-11.8031
▁modelar	-11.8032
▁optar	-11.8032
▁divino	-11.8034
▁programados	-11.8035
▁Monte	-11.8038
▁privados	-11.8038
▁Crist	-11.8039
ibera	-11.804
▁Cole	-11.804
▁Viaj	-11.8041
▁produzida	-11.8041
▁Mall	-11.8043
ên	-11.8044
▁virou	-11.8046
▁repetida	-11.8047
▁acad	-11.8048
▁competitivo	-11.8049
uck	-11.8054
▁Milh	-11.8055
▁transportado	-11.8056
▁coidados	-11.806
▁viste	-11.8062
▁Devo	-11.8063
êm	-11.8065
▁Max	-11.8067
▁My	-11.807
▁esperanças	-11.8071
▁UU	-11.8073
ecido	-11.8079
▁ru	-11.8082
▁calma	-11.8088
▁adoramo	-11.8088
▁adaptáve	-11.8092
▁fiáve	-11.8097
▁minima	-11.8101
▁multinaciona	-11.8101
▁afectado	-11.8106
▁projecta	-11.8108
▁segrega	-11.8108
▁eleito	-11.8112
▁afund	-11.8112
▁maiorit	-11.8112
▁coincidi	-11.8113
rizon	-11.8114
▁passarem	-11.8114
▁julgava	-11.8114
▁dedicar	-11.8114
▁ouço	-11.8118
▁lidera	-11.8118
▁cinto	-11.8118
eram	-11.8119
▁animado	-11.8121
▁passe	-11.8121
recia	-11.813
▁Senhora	-11.8135
▁sensíve	-11.8137
estre	-11.8137
▁sincera	-11.8141
▁escrevia	-11.8146
▁custam	-11.8148
▁casaco	-11.8154
▁cheo	-11.8154
▁apagar	-11.8157
▁criminaliza	-11.8158
▁esconde	-11.816
iço	-11.8175
▁coll	-11.818
NG	-11.818
ór	-11.8183
▁multiplicar	-11.8185
▁síri	-11.8201
▁convence	-11.8201
ímos	-11.8202
▁leito	-11.8205
▁representada	-11.8208
▁sorrir	-11.8216
▁pop	-11.8216
▁AB	-11.8228
▁alterado	-11.823
▁patr	-11.8232
▁entusiasma	-11.8234
▁Za	-11.8237
▁electr	-11.8239
▁rejei	-11.8241
▁puxa	-11.8251
▁10.	-11.8253
▁presumi	-11.8254
▁deixámo	-11.826
▁erguer	-11.826
eda	-11.8265
▁inflama	-11.8265
mag	-11.8265
▁puni	-11.8269
▁multiplica	-11.8271
▁carrega	-11.8273
▁amosa	-11.8274
▁trazem	-11.8275
▁autora	-11.8276
▁abraço	-11.8277
▁avanzad	-11.8278
dro	-11.8282
▁Seis	-11.8299
▁pioneiros	-11.83
▁ajudarem	-11.83
▁profeta	-11.8302
▁captura	-11.8302
▁acende	-11.8303
ibi	-11.8304
▁diagnosticado	-11.8305
▁dona	-11.8308
▁envolvida	-11.8309
▁remo	-11.8311
taña	-11.8312
▁começarem	-11.8314
▁violento	-11.8314
▁isolado	-11.8318
▁certifica	-11.8319
ólogo	-11.832
▁sujeitos	-11.8321
▁34	-11.8323
▁tonelada	-11.8326
▁mentor	-11.8327
▁pintor	-11.8328
▁mera	-11.8329
▁racis	-11.833
cro	-11.8332
▁Fri	-11.8336
▁pensaba	-11.834
iga	-11.834
▁narrador	-11.834
▁trem	-11.8342
▁dirá	-11.8345
▁fic	-11.8345
▁elevar	-11.8347
▁compart	-11.8349
▁Gri	-11.8352
▁apercebemo	-11.8354
logia	-11.836
▁Terá	-11.8361
▁conseguía	-11.8364
▁crie	-11.8371
▁permiti	-11.8373
▁empregar	-11.8374
▁doador	-11.8377
▁Hond	-11.8382
▁lider	-11.8389
arch	-11.839
▁instáve	-11.8391
▁deslocar	-11.8391
▁Ano	-11.8394
▁caminh	-11.8395
▁honesto	-11.8396
▁hax	-11.8398
more	-11.84
▁AK	-11.8403
▁dividi	-11.8403
▁inovadora	-11.8408
▁equipamentos	-11.841
dou	-11.841
▁queimado	-11.8411
▁fezes	-11.8412
▁mí	-11.8425
▁andarem	-11.843
ncialmente	-11.8434
▁Chamava	-11.8435
▁ursos	-11.8438
▁Bot	-11.8441
▁estrutural	-11.8447
rgo	-11.8448
▁exp	-11.8449
▁juntamo	-11.8453
▁recrut	-11.8462
▁rastrea	-11.8463
▁conte	-11.8467
▁Compra	-11.8471
▁64	-11.8479
vill	-11.8483
▁assusta	-11.8484
onal	-11.8493
▁desenvolv	-11.8493
▁semella	-11.8495
▁dispersa	-11.8504
▁NO	-11.8507
▁smartphones	-11.8507
▁33	-11.851
▁determin	-11.8515
▁solid	-11.8516
▁Cap	-11.8517
▁acender	-11.8525
▁adquiri	-11.8525
igan	-11.8527
▁2.	-11.8533
▁Estudo	-11.8534
parem	-11.8536
▁Carol	-11.8537
llan	-11.854
▁adotar	-11.8541
▁sacar	-11.8541
▁tivese	-11.8551
▁adestra	-11.8553
▁misturar	-11.8555
ily	-11.8557
▁entrava	-11.8558
▁Xen	-11.856
▁clic	-11.8563
▁Kar	-11.8572
logicamente	-11.8574
▁medrar	-11.858
▁refeiç	-11.8586
rack	-11.8602
sessão	-11.8603
▁destaca	-11.8605
▁psico	-11.8607
▁Compreend	-11.8608
ebra	-11.8609
▁expressa	-11.861
▁confiantes	-11.8613
▁contact	-11.8621
▁irre	-11.8622
▁arranja	-11.8623
cima	-11.8623
▁interliga	-11.8624
corre	-11.864
▁descrevi	-11.8645
▁ético	-11.8646
▁Desenh	-11.8647
▁performa	-11.8649
éli	-11.8652
▁interagi	-11.8656
▁documenta	-11.8657
▁treme	-11.866
▁cuart	-11.8665
▁explos	-11.8666
guen	-11.8666
▁concordam	-11.8666
▁infant	-11.8666
▁cop	-11.8668
▁incu	-11.8669
▁acheg	-11.8672
▁mudaria	-11.8672
vivencia	-11.8673
▁tend	-11.8674
Bay	-11.8675
drena	-11.8677
abrigo	-11.8678
▁desliza	-11.8679
▁quisessem	-11.8679
old	-11.8682
▁habitats	-11.8684
▁Ce	-11.8685
▁estrat	-11.8686
▁morren	-11.8687
▁sonda	-11.8689
aría	-11.8691
lito	-11.8699
▁ingles	-11.8701
mart	-11.8702
▁identifica	-11.8703
▁coida	-11.8703
▁expandi	-11.8704
▁desencade	-11.8708
▁Ross	-11.8708
▁tentativas	-11.8708
▁aliena	-11.8708
▁sentiram	-11.8716
▁desejam	-11.8719
▁Deu	-11.8722
▁trocas	-11.8722
▁contador	-11.8724
▁plan	-11.8726
▁priva	-11.873
▁subestima	-11.873
▁caminha	-11.8735
▁triba	-11.8737
bed	-11.8741
▁ativis	-11.8742
tric	-11.8744
núnci	-11.8746
▁procede	-11.8746
fortuna	-11.8747
▁insegura	-11.875
▁convidou	-11.875
íduos	-11.875
▁General	-11.875
▁HIV	-11.875
▁Kennedy	-11.875
▁Movimento	-11.875
▁Orienta	-11.875
▁Toronto	-11.875
▁Ushahidi	-11.875
▁Voyage	-11.875
▁abutre	-11.875
▁adolescência	-11.875
▁alienígena	-11.875
▁assassino	-11.875
▁assassínio	-11.875
▁cerimónia	-11.875
▁clasifica	-11.875
▁controvérsia	-11.875
▁cívico	-11.875
▁embaixador	-11.875
▁enriquece	-11.875
▁fabuloso	-11.875
▁fragmentação	-11.875
▁galaxia	-11.875
▁humildade	-11.875
▁imperativo	-11.875
▁infidel	-11.875
▁influente	-11.875
▁julgo	-11.875
▁magnífica	-11.875
▁maratona	-11.875
▁maximizar	-11.875
▁obsoleto	-11.875
▁pesticida	-11.875
▁petición	-11.875
▁pistola	-11.875
▁policía	-11.875
▁prateleira	-11.875
▁primitiva	-11.875
▁sacrifício	-11.875
▁solitário	-11.875
▁universitária	-11.875
▁usuario	-11.875
▁axeitada	-11.875
▁dispoñible	-11.875
▁suxeito	-11.875
▁táxi	-11.875
▁válida	-11.875
▁Premio	-11.875
▁consenso	-11.875
▁filmado	-11.875
▁sufoca	-11.875
▁urbanis	-11.875
▁elogio	-11.875
▁Frequente	-11.875
▁modula	-11.875
▁perfecta	-11.875
▁experto	-11.875
▁lealdade	-11.875
▁neurocientista	-11.875
▁coberta	-11.875
▁artéria	-11.875
▁caravana	-11.875
▁casual	-11.875
▁preciosa	-11.875
▁íntimo	-11.875
▁meirande	-11.875
▁statu	-11.875
▁icebergue	-11.875
▁aforro	-11.875
▁maluca	-11.875
▁Virgin	-11.875
▁gramática	-11.875
▁Princeton	-11.875
▁ruína	-11.875
▁íman	-11.875
▁Atopa	-11.875
▁obsessão	-11.875
▁tablet	-11.875
▁Chern	-11.875
▁mecanic	-11.875
▁Bueno	-11.875
▁biolóxico	-11.875
▁concebida	-11.875
▁lúa	-11.875
▁fralda	-11.875
strume	-11.875
nfim	-11.875
▁atrasar	-11.875
▁Ulis	-11.875
▁desviar	-11.875
▁Johnny	-11.875
▁aplaudir	-11.875
▁unidimensional	-11.875
▁rasto	-11.875
▁fatal	-11.875
▁ameaza	-11.875
▁Faço	-11.875
▁mentiroso	-11.875
rump	-11.8751
íbli	-11.8751
▁Pronto	-11.8751
▁lesión	-11.8751
▁Publi	-11.8751
▁importancia	-11.8751
▁hum	-11.8751
frío	-11.8751
▁finança	-11.8751
▁federal	-11.8751
▁Ucr	-11.8751
▁Reserv	-11.8751
▁KI	-11.8751
▁Kong	-11.8752
▁vixil	-11.8752
▁Sobre	-11.8752
▁Canal	-11.8752
▁calculadora	-11.8752
▁2020	-11.8752
▁imagino	-11.8752
▁moza	-11.8753
▁Narrador	-11.8753
▁aliança	-11.8753
▁prostituta	-11.8753
▁RV	-11.8753
chran	-11.8753
▁Perdi	-11.8754
▁fóss	-11.8754
GO	-11.8754
ffit	-11.8754
▁definitiva	-11.8755
▁esquadra	-11.8755
▁pego	-11.8756
▁tremor	-11.8756
▁Força	-11.8756
▁frustrante	-11.8756
▁biomas	-11.8756
▁Levei	-11.8756
▁faca	-11.8757
▁atopei	-11.8757
▁Cabo	-11.8757
▁lábio	-11.8757
▁suor	-11.8758
▁Ponto	-11.8758
▁cascata	-11.8758
▁Representa	-11.8758
▁matou	-11.8759
▁experiente	-11.8759
▁180	-11.876
▁espiritualidade	-11.876
▁remonta	-11.876
▁suponh	-11.876
▁ub	-11.876
▁grata	-11.876
▁aperfeiçoar	-11.8761
▁larva	-11.8761
▁permitindo	-11.8762
▁Shad	-11.8762
▁cera	-11.8762
▁adicionais	-11.8763
▁conceção	-11.8763
▁confiamos	-11.8763
▁foguetão	-11.8764
▁amadores	-11.8764
▁manteve	-11.8764
▁sensíveis	-11.8764
▁asegurar	-11.8764
▁compreendida	-11.8764
▁frustrada	-11.8764
▁1.	-11.8765
▁passivo	-11.8765
▁envolvem	-11.8765
▁oscila	-11.8765
▁bebida	-11.8767
▁acompanhado	-11.8767
▁vigor	-11.8767
▁desafiante	-11.8768
▁Alan	-11.8768
▁mole	-11.8768
▁derreter	-11.8768
▁Entra	-11.877
▁controversa	-11.877
▁Descobriram	-11.877
▁Mill	-11.877
▁colorido	-11.8771
▁observ	-11.8771
▁terrivel	-11.8772
▁masculina	-11.8772
▁tomei	-11.8772
▁dificultade	-11.8773
▁morada	-11.8774
▁farto	-11.8774
▁fusión	-11.8774
▁lidam	-11.8774
▁capturado	-11.8775
▁mobilizar	-11.8776
▁flutuante	-11.8776
▁filla	-11.8776
▁generaliza	-11.8776
▁Verde	-11.8777
▁amosarlle	-11.8777
▁pouso	-11.8777
▁fluente	-11.8778
▁fardo	-11.8778
▁Recordo	-11.8779
▁Kev	-11.8779
▁lançada	-11.8779
▁coleção	-11.8779
▁psicopata	-11.878
▁esgoto	-11.878
▁acopl	-11.8781
▁atuar	-11.8783
▁permitam	-11.8783
▁reuniram	-11.8783
▁Jones	-11.8785
▁reutilizar	-11.8785
▁demonstrado	-11.8786
▁Muda	-11.8786
▁composta	-11.8786
▁orixinal	-11.8786
▁determinação	-11.8787
▁anunciou	-11.879
▁colleu	-11.879
▁dinam	-11.879
▁Ama	-11.8791
▁empurrar	-11.8792
gência	-11.8794
▁lógico	-11.8794
▁permitisse	-11.8796
▁Moito	-11.8796
▁veia	-11.8797
▁definem	-11.8797
▁pombo	-11.8798
correu	-11.8798
▁epi	-11.8799
▁activar	-11.8799
▁espalhado	-11.8801
▁Turqu	-11.8801
▁deprimido	-11.8802
▁Médico	-11.8805
▁perguntem	-11.8805
▁Stac	-11.8805
▁empenhado	-11.8806
▁padre	-11.8808
▁depresión	-11.8809
▁Tente	-11.8809
▁Mig	-11.8811
▁colá	-11.8811
tenta	-11.8815
▁adoitaba	-11.8815
▁gerada	-11.882
▁fag	-11.8822
▁Teria	-11.8824
▁reclamar	-11.8825
▁identificado	-11.8828
▁satisfaze	-11.8831
▁afetam	-11.8831
▁ide	-11.8832
▁Apol	-11.8833
▁ventilado	-11.8833
ku	-11.8834
▁contribu	-11.8834
▁Qué	-11.8836
▁detecta	-11.8837
▁chamavam	-11.8838
▁secundario	-11.8839
▁Inter	-11.8839
▁massiva	-11.884
▁governado	-11.884
▁adopta	-11.8845
▁crescia	-11.8845
▁causam	-11.8849
yd	-11.8849
▁Voa	-11.8852
▁pondo	-11.8852
▁assin	-11.8852
▁estático	-11.8855
▁Tri	-11.8858
▁ajude	-11.8858
migração	-11.8861
▁converteu	-11.8865
Donald	-11.8867
▁responderam	-11.8869
erdão	-11.887
▁especialidade	-11.8871
reas	-11.8872
▁pon	-11.8874
▁Kin	-11.8875
untu	-11.8876
▁proporcional	-11.8877
▁compañeiro	-11.8879
▁pensas	-11.889
▁adoraria	-11.889
▁falarem	-11.8894
▁tola	-11.8896
▁Fun	-11.8897
▁adoptar	-11.89
▁guiado	-11.8913
tín	-11.8914
▁significativos	-11.8915
one	-11.8918
▁falan	-11.8918
struiu	-11.8926
▁Bi	-11.8929
▁Imaxina	-11.8935
▁ideais	-11.8936
▁editora	-11.8939
▁formigas	-11.8949
▁Nair	-11.8951
nvolvente	-11.896
head	-11.8968
ible	-11.8971
▁considere	-11.8972
▁criava	-11.8972
eña	-11.8973
▁atua	-11.8982
▁classificar	-11.8982
▁evoca	-11.8984
▁eterna	-11.8988
íssimo	-11.8988
▁beneficios	-11.8991
base	-11.8994
▁levei	-11.8996
▁Mich	-11.9
▁Berk	-11.9011
lma	-11.9013
▁noiva	-11.9015
▁Imagin	-11.9018
▁carr	-11.902
▁Arm	-11.9024
ique	-11.9025
▁evit	-11.9028
ários	-11.9029
▁Charl	-11.9031
pil	-11.9034
▁vice	-11.9042
▁universos	-11.9046
▁Acreditam	-11.9052
▁Cá	-11.9052
▁concentrado	-11.9053
▁extremos	-11.9055
ótica	-11.9061
▁espe	-11.9065
▁cometer	-11.9069
▁juro	-11.9069
ual	-11.907
▁curador	-11.9071
▁sujeita	-11.9074
▁levantam	-11.9074
gica	-11.9076
▁42	-11.9087
▁voador	-11.9093
▁passageiros	-11.9096
TO	-11.9108
▁dorme	-11.9109
dow	-11.9116
úteis	-11.9117
▁Quería	-11.9121
▁praias	-11.9121
▁reutiliza	-11.9126
▁julga	-11.9132
▁caber	-11.9133
▁indígenas	-11.9134
▁corajosa	-11.9136
▁arquivo	-11.9141
▁cheios	-11.9146
luz	-11.9149
BM	-11.915
▁arquiteto	-11.915
▁edificio	-11.915
▁astronauta	-11.9152
▁maré	-11.9153
▁emergente	-11.9153
▁escondida	-11.9154
▁nervo	-11.9154
nés	-11.9155
▁Preocupa	-11.9157
▁Gil	-11.9158
▁quilómetro	-11.9159
▁frequentar	-11.9163
▁Lis	-11.9164
nada	-11.9166
▁enfrenta	-11.9166
▁pos	-11.9171
xica	-11.9171
▁esgota	-11.9172
▁cr	-11.9172
▁inmediata	-11.9178
▁signific	-11.9186
▁minimiza	-11.9193
▁morar	-11.9193
▁mantemo	-11.9195
▁aforra	-11.9199
▁isolados	-11.9208
▁violentos	-11.9208
▁transcri	-11.9209
rat	-11.921
▁gozar	-11.9221
fé	-11.9221
▁honestos	-11.9229
▁ouça	-11.9229
▁admit	-11.9231
▁pontes	-11.9233
▁bilh	-11.9235
▁contento	-11.9235
▁processador	-11.9237
▁jogador	-11.9241
▁reflecti	-11.9244
▁urbanas	-11.9246
▁erradica	-11.9251
▁flu	-11.9254
ades	-11.9254
▁dé	-11.9259
▁valida	-11.9262
▁abraç	-11.9262
▁estica	-11.9267
RI	-11.9269
▁Bat	-11.9277
▁elimin	-11.9289
▁cheira	-11.9291
ccidente	-11.93
▁doado	-11.9301
▁infan	-11.9306
lívi	-11.9308
▁viñ	-11.9311
▁prontas	-11.9322
▁resolvidos	-11.9322
mán	-11.9339
▁compram	-11.934
▁indi	-11.9342
ary	-11.935
▁sext	-11.9351
▁entrevistar	-11.9355
ive	-11.9355
▁Ted	-11.9357
▁Abri	-11.9358
tula	-11.9361
▁ví	-11.9363
mais	-11.9373
▁projet	-11.9373
iño	-11.9382
▁Pequ	-11.9383
▁chegarem	-11.939
rk	-11.9392
▁Acaba	-11.9393
▁estabiliza	-11.9395
▁deus	-11.9395
▁Sete	-11.9399
▁contribuí	-11.9402
▁sintetiza	-11.9404
▁particip	-11.941
age	-11.9412
▁Aparece	-11.9413
▁equipas	-11.9415
▁53	-11.9419
▁concretiza	-11.942
▁ensai	-11.9421
▁alinha	-11.943
firmou	-11.9431
▁preenche	-11.9431
▁contado	-11.9434
▁calc	-11.9438
▁nega	-11.9443
▁declar	-11.9447
▁acrescent	-11.9452
▁argumentar	-11.9454
low	-11.9458
▁introdu	-11.946
▁Pen	-11.9469
▁pertencer	-11.9473
▁infla	-11.9474
▁Imp	-11.9476
▁diários	-11.9477
▁facía	-11.9478
▁sequenci	-11.9481
▁recolhem	-11.9483
▁vendem	-11.9485
▁conduzi	-11.9486
▁reduz	-11.9487
▁cano	-11.9487
▁Dick	-11.9488
arlamento	-11.9491
ier	-11.9491
▁acolher	-11.9495
▁Lead	-11.9498
▁vencedor	-11.95
▁sínt	-11.9502
ministro	-11.9506
curso	-11.9506
cados	-11.9507
prazo	-11.9512
▁operaciona	-11.9513
qué	-11.9514
▁espelhos	-11.9514
mínio	-11.9516
corpo	-11.9517
▁Pola	-11.9532
rdín	-11.9534
▁chorava	-11.954
▁anua	-11.954
terrâneo	-11.9543
▁denuncia	-11.9543
bola	-11.9543
loc	-11.9543
▁absorve	-11.9543
▁passá	-11.9546
▁voa	-11.9547
▁lembrava	-11.9548
▁prometi	-11.9548
▁esqueci	-11.9549
▁asocia	-11.955
ntan	-11.9552
▁Lé	-11.9552
▁mobiliza	-11.9555
LL	-11.9556
▁Pin	-11.9559
▁encolhe	-11.9559
▁tecla	-11.9561
▁geram	-11.9562
▁orientar	-11.9565
êssemos	-11.9565
▁Jud	-11.9565
▁tradutor	-11.9566
▁justifica	-11.9567
▁mostro	-11.9572
▁Vie	-11.9573
▁Bio	-11.9574
▁intimida	-11.9575
▁Justin	-11.9576
▁filosof	-11.9577
gnóstico	-11.9577
▁chámase	-11.9577
▁pró	-11.9578
ncipe	-11.958
ilicon	-11.958
▁otimis	-11.9581
▁trivial	-11.9582
▁difere	-11.9583
▁IGF	-11.9583
▁evacua	-11.9583
▁pizza	-11.9583
clive	-11.9583
▁Copenhag	-11.9583
▁FBI	-11.9583
▁Himalaias	-11.9583
▁Islâmic	-11.9583
▁Kiribati	-11.9583
▁Pensilvânia	-11.9583
▁Titã	-11.9583
▁Virgínia	-11.9583
▁agressor	-11.9583
▁alicerce	-11.9583
▁ambiciosa	-11.9583
▁bancada	-11.9583
▁biomolécula	-11.9583
▁bitcoins	-11.9583
▁bizarra	-11.9583
▁botón	-11.9583
▁carpinteiro	-11.9583
▁chávena	-11.9583
▁conselheiro	-11.9583
▁costeira	-11.9583
▁cápsula	-11.9583
▁dramático	-11.9583
▁duvido	-11.9583
▁díxenlle	-11.9583
▁emprestado	-11.9583
▁engraçada	-11.9583
▁exossomas	-11.9583
▁festeja	-11.9583
▁filosófica	-11.9583
▁garantido	-11.9583
▁gentil	-11.9583
▁hierarqui	-11.9583
▁iPod	-11.9583
▁instantânea	-11.9583
▁legítimo	-11.9583
▁meteorológico	-11.9583
▁modesto	-11.9583
▁necesidade	-11.9583
▁noticiário	-11.9583
▁propinas	-11.9583
▁rebentar	-11.9583
▁romântic	-11.9583
▁simetria	-11.9583
▁simplic	-11.9583
▁sintética	-11.9583
▁slogan	-11.9583
▁soberana	-11.9583
▁terapeuta	-11.9583
▁tronco	-11.9583
▁vehículo	-11.9583
▁visitei	-11.9583
▁Hospita	-11.9583
▁imaginei	-11.9583
▁instintiva	-11.9583
▁maiúscul	-11.9583
▁savana	-11.9583
▁ultima	-11.9583
▁válido	-11.9583
▁aéreo	-11.9583
▁decifra	-11.9583
▁desgasta	-11.9583
▁medalha	-11.9583
▁Connect	-11.9583
▁híbrido	-11.9583
▁árduo	-11.9583
▁Cháma	-11.9583
▁Depende	-11.9583
▁Disney	-11.9583
▁Toraja	-11.9583
▁encaixe	-11.9583
▁Galile	-11.9583
▁otimiza	-11.9583
▁desaparecido	-11.9583
▁biofabric	-11.9583
▁tambor	-11.9583
▁racial	-11.9583
▁Natural	-11.9583
▁envergonhado	-11.9583
▁seletiva	-11.9583
▁Rachel	-11.9583
▁veneno	-11.9583
▁judaica	-11.9583
▁disputa	-11.9583
▁retângulo	-11.9583
▁alberga	-11.9583
▁Investiga	-11.9583
▁Black	-11.9583
▁auditorio	-11.9583
▁adesivo	-11.9583
▁maxilar	-11.9583
▁frecha	-11.9583
▁Valley	-11.9584
▁alumno	-11.9584
▁seroton	-11.9584
arganta	-11.9584
▁protões	-11.9584
▁parecía	-11.9584
▁Prim	-11.9584
▁coerente	-11.9584
▁inventa	-11.9584
▁cuxa	-11.9584
▁dentista	-11.9584
▁cético	-11.9584
▁Orle	-11.9584
▁diamante	-11.9584
sky	-11.9584
▁Faiza	-11.9584
▁Victor	-11.9584
▁desmonta	-11.9584
▁sombria	-11.9584
▁tendencia	-11.9584
▁lanz	-11.9584
linear	-11.9584
llar	-11.9585
▁revolucionar	-11.9585
▁Soviética	-11.9585
▁Virtu	-11.9585
▁1,3	-11.9585
▁Turk	-11.9585
Rabbit	-11.9585
▁vella	-11.9585
▁previa	-11.9586
▁Israelita	-11.9586
▁duche	-11.9586
▁vizinha	-11.9586
▁mancha	-11.9586
▁provoc	-11.9586
▁paisaxe	-11.9586
▁Metro	-11.9587
▁rainha	-11.9587
▁filmage	-11.9587
▁muçulmana	-11.9587
▁fenomenal	-11.9587
▁libra	-11.9587
▁confrontado	-11.9588
▁turno	-11.9588
▁taça	-11.9588
▁Live	-11.9588
▁deberia	-11.9588
Bits	-11.9588
▁chocado	-11.9588
▁comprá	-11.9588
thur	-11.9589
▁xove	-11.9589
▁elaborada	-11.9589
▁gigantesco	-11.9589
▁foste	-11.959
▁Yorker	-11.959
▁guardi	-11.9591
▁Lago	-11.9591
MI	-11.9591
▁gigantesca	-11.9592
▁mete	-11.9592
▁registado	-11.9592
▁ceder	-11.9592
▁Filip	-11.9592
▁mandato	-11.9593
▁móbil	-11.9593
▁creación	-11.9593
▁BB	-11.9594
▁mutación	-11.9594
▁débeda	-11.9594
▁enterrado	-11.9594
▁patri	-11.9594
▁Bush	-11.9594
▁Envia	-11.9594
osfera	-11.9595
▁observei	-11.9595
▁39	-11.9595
▁lesões	-11.9595
▁incert	-11.9595
▁descodificar	-11.9595
▁reformula	-11.9596
▁reduzido	-11.9596
▁combinación	-11.9596
▁TEDx	-11.9596
▁redefinir	-11.9597
▁proto	-11.9597
▁prometeu	-11.9597
▁desperdiçar	-11.9598
▁piano	-11.9598
▁gratifica	-11.9599
▁instrución	-11.9599
▁Vêem	-11.96
▁Levantem	-11.96
▁distribuída	-11.96
▁intención	-11.96
▁conspiração	-11.9601
▁CR	-11.9601
▁geografia	-11.9601
inger	-11.9601
▁Home	-11.9601
▁rodeada	-11.9602
▁preferem	-11.9602
▁mercadoria	-11.9602
▁52	-11.9602
▁certificar	-11.9603
▁exclusivamente	-11.9603
ctura	-11.9604
let	-11.9604
▁suspensa	-11.9605
▁aterrador	-11.9605
▁dedica	-11.9605
▁ambientalista	-11.9605
▁monumento	-11.9605
▁concordaram	-11.9606
▁infetado	-11.9606
▁provou	-11.9606
▁forno	-11.9607
▁revisor	-11.9607
▁operación	-11.9607
▁mostrava	-11.9608
▁bó	-11.9608
▁crista	-11.9609
▁atraído	-11.961
▁tripl	-11.961
▁retirada	-11.961
▁Tipo	-11.9611
▁Ministro	-11.9612
▁suspenso	-11.9613
▁recebo	-11.9613
▁moti	-11.9614
▁inventada	-11.9615
▁automa	-11.9615
gy	-11.9617
ylan	-11.9617
▁volveu	-11.9619
▁asociado	-11.962
▁Sur	-11.962
▁autonom	-11.9622
▁atraso	-11.9623
▁contei	-11.9623
▁Medica	-11.9626
▁cobrar	-11.9626
▁lançaram	-11.9627
▁concorrente	-11.9627
▁calado	-11.9628
▁ateu	-11.9628
lóri	-11.963
▁Trabalho	-11.963
▁baile	-11.9631
▁controlada	-11.9634
mite	-11.9634
▁escolhem	-11.9635
▁encantadora	-11.9638
▁tío	-11.9638
source	-11.9639
▁Ku	-11.964
▁Mur	-11.9641
▁telefonar	-11.9642
▁ativar	-11.9643
▁honesta	-11.9644
▁diretores	-11.9644
▁extraer	-11.9644
▁cheque	-11.9645
▁brinca	-11.9645
▁levavam	-11.9646
▁bu	-11.9647
▁transformando	-11.9647
▁quad	-11.9651
▁sensata	-11.9651
▁Art	-11.9653
▁Ida	-11.9653
▁lares	-11.9653
▁TK	-11.9654
▁Simon	-11.9655
▁viajante	-11.9656
▁exacto	-11.9656
▁redonda	-11.9657
▁Canta	-11.9657
▁recomendo	-11.966
eve	-11.9661
▁nobre	-11.9662
▁contemporâneo	-11.9664
▁estraño	-11.9664
▁Podiam	-11.9665
▁compará	-11.9666
▁viciado	-11.9668
▁agressivo	-11.967
posíbe	-11.967
▁recetor	-11.9671
▁assume	-11.9671
▁capt	-11.9672
▁impressionantes	-11.9672
▁excel	-11.9673
▁colidir	-11.9674
ácia	-11.9675
ny	-11.9676
▁preocupada	-11.9676
▁democracias	-11.9677
▁testado	-11.9678
▁realizada	-11.9678
▁confiss	-11.9679
▁estática	-11.9679
▁reproduz	-11.9681
▁cast	-11.9684
▁descubrí	-11.9685
▁2.0	-11.9686
▁manufatura	-11.9688
▁200.	-11.9694
▁invoca	-11.9695
▁Deste	-11.9696
▁implacáve	-11.9697
filia	-11.9697
▁localizada	-11.9698
▁propenso	-11.9699
▁remove	-11.97
senhei	-11.9701
▁quantifica	-11.9701
▁Pública	-11.9702
▁instalado	-11.9702
▁Saben	-11.9705
▁serra	-11.9706
▁alug	-11.9706
▁But	-11.9709
▁atravess	-11.9715
▁domina	-11.9719
▁despertar	-11.9719
▁existencial	-11.972
▁extremistas	-11.9725
▁peto	-11.9732
▁compor	-11.9733
▁duram	-11.9735
▁gerado	-11.9736
▁analisá	-11.9736
▁inicio	-11.9737
▁saberem	-11.9738
▁vestir	-11.9738
▁aparecia	-11.974
▁ergue	-11.9742
▁Usámo	-11.9744
▁doadores	-11.9747
izada	-11.9752
▁copa	-11.9753
▁deseña	-11.9758
ácte	-11.9759
▁abondo	-11.9763
ense	-11.9763
▁chamá	-11.9771
▁Blak	-11.9774
ograma	-11.9775
▁assenta	-11.9776
▁eros	-11.9779
▁entraram	-11.978
ular	-11.9782
▁largar	-11.9783
▁possibilita	-11.9784
▁comezan	-11.9785
▁Apar	-11.9789
▁veu	-11.9792
▁colocarem	-11.9793
▁sabid	-11.9796
gia	-11.9799
▁recorte	-11.98
▁lerem	-11.9804
ducação	-11.9805
▁cultiva	-11.9806
▁narra	-11.9812
loxía	-11.9817
rol	-11.9818
▁aterrar	-11.9822
▁ditado	-11.9824
PP	-11.9825
▁mov	-11.9831
rinho	-11.9833
▁seguiram	-11.9835
▁tivera	-11.9839
▁aud	-11.9841
gente	-11.9843
▁rápidas	-11.9845
▁electro	-11.9854
▁exist	-11.9854
▁programada	-11.9866
▁Escrit	-11.9866
▁inclusiv	-11.9866
▁perguntasse	-11.9871
▁relativ	-11.9871
ona	-11.9872
▁entend	-11.9876
▁Bear	-11.9876
▁trato	-11.9881
▁accidente	-11.9883
rdu	-11.9884
▁Med	-11.9888
nne	-11.9902
▁virá	-11.9903
▁acerta	-11.9908
▁esticar	-11.9915
PA	-11.9922
▁erradicar	-11.9926
▁pol	-11.9928
ssões	-11.9928
▁crio	-11.9941
mmel	-11.9954
▁goza	-11.9959
een	-11.996
▁extraterrestres	-11.9962
▁tranquil	-11.9967
▁levaba	-11.9968
▁vitr	-11.9977
ody	-11.998
▁compar	-11.9987
▁guard	-11.999
▁demostrar	-11.9993
▁deixasse	-11.9994
▁canaliz	-11.9997
▁medra	-11.9999
▁encomenda	-11.9999
▁trabalharem	-12.0002
prima	-12.0005
▁denomina	-12.001
▁admirado	-12.001
▁adiciona	-12.0011
umentando	-12.0014
▁desafia	-12.0014
▁Voulle	-12.0015
▁faculdades	-12.0022
▁funcionais	-12.0023
▁devida	-12.0024
▁influenciado	-12.0028
▁chor	-12.0029
itt	-12.003
▁desconhecidos	-12.0034
▁incluía	-12.0034
▁tre	-12.0038
MA	-12.0045
▁galeria	-12.0045
▁pequenina	-12.0045
zinho	-12.0048
traves	-12.0048
▁patrocina	-12.0049
▁medr	-12.005
▁indígena	-12.0054
▁roub	-12.0054
▁testemunh	-12.0055
▁religioso	-12.0058
▁Vinc	-12.0059
▁empresário	-12.006
▁saía	-12.007
▁antibiótico	-12.007
ref	-12.0073
▁Post	-12.0075
▁chis	-12.0076
▁mostras	-12.0078
▁impress	-12.008
▁Ever	-12.0082
▁colocada	-12.0082
▁HA	-12.0084
▁envolvidas	-12.0085
▁aliado	-12.0088
▁reconcilia	-12.0091
▁morremos	-12.0096
uther	-12.0097
▁categor	-12.0101
fal	-12.0108
▁viña	-12.011
▁acolhi	-12.0111
▁progressos	-12.0112
▁desorde	-12.0113
▁bocados	-12.0113
▁explodi	-12.0116
▁lacunas	-12.0126
▁Devia	-12.013
icks	-12.0133
pra	-12.0135
20	-12.0137
▁revi	-12.0142
▁Observa	-12.0145
oga	-12.0148
▁130	-12.0149
▁Tee	-12.0149
▁pressionar	-12.0151
▁apaga	-12.0155
▁cavalos	-12.0158
ick	-12.0159
▁Pare	-12.016
▁costumam	-12.0162
edade	-12.0163
xil	-12.0163
▁Spi	-12.0163
▁fotograf	-12.0164
ese	-12.0167
▁Isa	-12.0173
dez	-12.0175
mónio	-12.018
aste	-12.0185
▁candidata	-12.0187
▁restaura	-12.0198
▁comparti	-12.0203
▁agrega	-12.0206
▁montage	-12.0208
▁Veja	-12.0223
hinês	-12.0225
▁Mac	-12.023
topo	-12.0232
▁considerem	-12.0233
▁Indo	-12.0242
▁Cat	-12.0245
EB	-12.0248
▁escond	-12.0254
dentes	-12.0254
▁Sala	-12.0259
▁leg	-12.0263
▁promete	-12.0268
,000	-12.027
▁cha	-12.0271
itz	-12.0285
▁cali	-12.0285
vite	-12.0285
tag	-12.0286
tato	-12.0287
▁prospera	-12.0289
ISA	-12.0294
▁Falam	-12.0294
cidas	-12.0295
▁reciclado	-12.0297
iños	-12.0298
▁entrarem	-12.0303
▁sino	-12.0305
▁confund	-12.0311
▁cata	-12.0317
▁movimentar	-12.0319
▁conservador	-12.0321
gado	-12.0332
▁assegura	-12.0334
▁evoluciona	-12.034
▁salvado	-12.0346
▁perigos	-12.0353
emia	-12.0353
geno	-12.0354
aki	-12.0363
▁camp	-12.0368
▁irradia	-12.0369
▁Esperem	-12.0376
hrir	-12.0376
▁etern	-12.038
obra	-12.0383
▁dali	-12.039
cher	-12.0393
âmbi	-12.0394
ited	-12.0395
cton	-12.0396
▁sincroniza	-12.0396
▁aprendermos	-12.0397
▁completar	-12.0404
▁domin	-12.0413
▁economi	-12.0414
▁arranje	-12.0415
▁nalgum	-12.0419
oby	-12.0419
▁abusos	-12.042
▁negativos	-12.0421
gráfico	-12.0421
violência	-12.0421
▁pecha	-12.0421
ridge	-12.0424
▁simulado	-12.0425
RN	-12.043
banho	-12.0432
▁Hei	-12.0436
tões	-12.0436
▁900	-12.0437
▁transmiti	-12.0443
ariana	-12.0445
íbia	-12.0447
▁coñecí	-12.0447
ocol	-12.045
▁refrigera	-12.0457
ation	-12.0457
confiança	-12.0458
▁preve	-12.0462
▁concentra	-12.0463
▁fertiliza	-12.0465
▁enviamo	-12.0466
isto	-12.0466
▁amarra	-12.0467
▁pano	-12.0467
▁alucina	-12.0468
▁complementa	-12.0469
▁soubesse	-12.0469
bbie	-12.0471
▁voluntaria	-12.0473
▁construtor	-12.0475
▁despedid	-12.0475
▁pormenor	-12.0475
▁imagi	-12.0479
▁doar	-12.0482
▁atribui	-12.0483
▁elabor	-12.0484
▁concord	-12.0485
▁dificil	-12.0486
▁cogni	-12.0488
▁brill	-12.0491
▁enferma	-12.0491
elescopio	-12.0492
▁horror	-12.0492
rkinson	-12.0492
▁japon	-12.0492
▁homo	-12.0492
#	-12.0492
▁Guiné	-12.0492
▁bronze	-12.0492
▁esculpi	-12.0492
▁exemplar	-12.0492
▁indigna	-12.0492
▁inscrever	-12.0492
gipto	-12.0492
shirt	-12.0492
▁Accenture	-12.0492
▁Fantástic	-12.0492
▁Mozart	-12.0492
▁Sarajevo	-12.0492
▁Tribun	-12.0492
▁agasall	-12.0492
▁aminoácidos	-12.0492
▁ancestrais	-12.0492
▁ansiosa	-12.0492
▁autêntica	-12.0492
▁baralho	-12.0492
▁benéfico	-12.0492
▁brasileiro	-12.0492
▁cabina	-12.0492
▁calendário	-12.0492
▁característico	-12.0492
▁cogumelo	-12.0492
▁comprida	-12.0492
▁comunitária	-12.0492
▁continúa	-12.0492
▁cósmico	-12.0492
▁dalgunha	-12.0492
▁distingue	-12.0492
▁escáner	-12.0492
▁faísca	-12.0492
▁glândula	-12.0492
▁homossexual	-12.0492
▁hóspede	-12.0492
▁imposible	-12.0492
▁impressionou	-12.0492
▁imunitária	-12.0492
▁intacta	-12.0492
▁intrínseca	-12.0492
▁islâmico	-12.0492
▁marinheiro	-12.0492
▁microscópico	-12.0492
▁neurologista	-12.0492
▁palpite	-12.0492
▁protección	-12.0492
▁pílula	-12.0492
▁píxe	-12.0492
▁sanguínea	-12.0492
▁titã	-12.0492
▁visceral	-12.0492
▁voluntária	-12.0492
▁zapato	-12.0492
▁Avanç	-12.0492
▁System	-12.0492
▁acidental	-12.0492
▁aluguer	-12.0492
▁arruma	-12.0492
▁enraizada	-12.0492
▁espectador	-12.0492
▁etnia	-12.0492
▁negligenci	-12.0492
▁Índic	-12.0492
▁feroz	-12.0492
▁Desenvolve	-12.0492
▁inconveniente	-12.0492
▁link	-12.0492
▁mensal	-12.0492
▁precipita	-12.0492
▁retrospe	-12.0492
▁terrible	-12.0492
▁deliciosa	-12.0492
▁río	-12.0492
▁Litera	-12.0492
▁geometria	-12.0492
▁Federa	-12.0492
▁destinado	-12.0492
▁implante	-12.0492
▁Reconhece	-12.0492
▁conveniente	-12.0492
▁correlação	-12.0492
▁nerd	-12.0492
▁coñecida	-12.0492
▁scanner	-12.0492
greja	-12.0492
▁cabana	-12.0492
▁despesa	-12.0492
conveniência	-12.0492
▁retrata	-12.0492
▁visíveis	-12.0492
▁escena	-12.0492
▁hosped	-12.0492
▁laranja	-12.0492
▁patologia	-12.0492
▁esponja	-12.0492
antalóns	-12.0492
▁EEUU	-12.0492
▁residencia	-12.0492
áquina	-12.0492
▁coloniza	-12.0492
▁correspondência	-12.0492
▁fotões	-12.0492
▁bilhete	-12.0492
▁criptografi	-12.0492
▁Design	-12.0492
▁turista	-12.0492
▁Isabel	-12.0492
▁enteira	-12.0492
▁dalgún	-12.0493
▁credíve	-12.0493
▁Hawking	-12.0493
▁péssimo	-12.0493
▁Show	-12.0493
▁recrutamento	-12.0493
▁vagina	-12.0493
▁ecua	-12.0493
rough	-12.0493
▁populacional	-12.0493
▁misterioso	-12.0493
▁comprei	-12.0493
▁deparei	-12.0493
▁obtido	-12.0493
▁ocorrido	-12.0493
▁fotográfica	-12.0493
▁State	-12.0493
▁exposición	-12.0493
▁sentença	-12.0493
▁misión	-12.0493
▁saudade	-12.0493
▁Roger	-12.0493
▁Branc	-12.0493
tzman	-12.0493
▁intacto	-12.0494
▁recolhido	-12.0494
▁acalmar	-12.0494
▁arrasa	-12.0494
▁cristão	-12.0494
▁encerra	-12.0494
▁inversa	-12.0494
▁sensibiliza	-12.0494
▁descendente	-12.0494
▁Desenvolvimento	-12.0494
▁vingan	-12.0494
▁ramificações	-12.0494
▁Walter	-12.0495
▁aborrecida	-12.0495
▁roedor	-12.0495
▁repito	-12.0495
▁superficial	-12.0495
▁praga	-12.0495
▁excedente	-12.0495
▁Constituição	-12.0495
▁migrante	-12.0496
water	-12.0496
▁Gronelândia	-12.0496
▁barro	-12.0497
▁conciencia	-12.0497
▁Fox	-12.0497
▁chamámoslle	-12.0497
minente	-12.0497
▁levantem	-12.0497
▁66	-12.0497
▁contactar	-12.0498
▁White	-12.0498
▁ajustar	-12.0498
▁informados	-12.0498
▁alterou	-12.0498
▁berra	-12.0498
▁UC	-12.0499
▁benestar	-12.0499
▁sétim	-12.0499
▁Envolve	-12.0499
▁confrontar	-12.05
▁realizou	-12.05
▁traseira	-12.05
▁Island	-12.05
ittle	-12.0501
▁interactivo	-12.0501
▁advent	-12.0501
▁Insta	-12.0501
▁misturado	-12.0501
▁dinámica	-12.0503
▁poluente	-12.0503
▁presencia	-12.0503
▁84	-12.0503
▁fus	-12.0503
▁codificador	-12.0504
cript	-12.0504
▁sensoriais	-12.0504
▁quórum	-12.0504
▁martel	-12.0505
▁zoom	-12.0505
▁Joan	-12.0506
▁garante	-12.0506
▁confiam	-12.0506
▁salientar	-12.0507
▁Carta	-12.0508
▁envio	-12.0508
▁invenções	-12.0509
▁infantis	-12.0509
▁frustração	-12.0509
▁concebemos	-12.051
▁prejudicar	-12.051
▁atómica	-12.051
▁generalizada	-12.051
▁fornecedores	-12.051
▁moldar	-12.0511
▁Criei	-12.0512
▁hiper	-12.0512
ani	-12.0513
▁mandou	-12.0513
▁cientifica	-12.0514
▁Refi	-12.0514
▁danificada	-12.0515
▁pasei	-12.0515
▁esquecido	-12.0516
▁interesado	-12.0516
▁71	-12.0517
▁atribuir	-12.0517
▁informal	-12.0517
▁Hama	-12.0518
caminhada	-12.0518
▁versión	-12.0518
ícia	-12.0519
▁picar	-12.052
▁render	-12.052
cela	-12.0521
▁Pensade	-12.0523
▁terminais	-12.0524
▁feixe	-12.0525
▁inspirada	-12.0526
▁nomeada	-12.0526
▁Kent	-12.0526
▁mostrámos	-12.0527
▁transmitida	-12.0527
▁ocorr	-12.0527
▁desapare	-12.0527
▁arqueólog	-12.0528
▁exigi	-12.0528
▁comprometido	-12.0529
▁soubessem	-12.0529
▁anunciado	-12.053
deste	-12.053
▁parlamento	-12.053
▁convida	-12.0532
▁regressou	-12.0533
▁Coh	-12.0533
▁substancial	-12.0534
▁aglomerado	-12.0535
▁algodão	-12.0536
▁apanhada	-12.0536
▁revelações	-12.0538
▁lección	-12.0539
▁potenciar	-12.054
▁apresentada	-12.054
▁sócio	-12.0542
▁tornava	-12.0542
▁levava	-12.0542
▁antropólogo	-12.0542
▁Kell	-12.0543
▁descubriu	-12.0544
ollada	-12.0544
sistencia	-12.0545
▁preferia	-12.0545
▁interligada	-12.0546
▁cruzar	-12.0548
▁esmagadora	-12.0548
▁transferido	-12.0551
▁simplifica	-12.0551
dson	-12.0552
▁bacteriana	-12.0553
▁estender	-12.0553
▁alcançá	-12.0555
mamos	-12.0556
▁agressiva	-12.0556
▁filtra	-12.0558
▁remate	-12.056
▁abate	-12.056
▁Ke	-12.056
▁cós	-12.0561
▁IA	-12.0561
▁traumática	-12.0562
▁imortal	-12.0563
▁aceitamos	-12.0564
▁levem	-12.0567
▁eliminado	-12.0567
▁Oakl	-12.0569
▁operadora	-12.0569
▁manobra	-12.0572
▁conquistas	-12.0572
▁Marco	-12.0572
▁requerer	-12.0573
tória	-12.0575
▁ocupada	-12.0576
▁implanta	-12.0576
ógrafo	-12.0576
▁selecç	-12.0578
▁Amor	-12.0579
▁Serei	-12.058
▁coca	-12.0581
▁plena	-12.0582
▁seguia	-12.0583
▁lidamos	-12.0585
carregar	-12.0586
▁amada	-12.0586
▁vago	-12.0587
▁tomado	-12.0588
▁aprova	-12.0594
ué	-12.0595
▁Cabe	-12.0595
▁simular	-12.0595
▁encara	-12.0598
▁vislumbre	-12.0599
▁ridícula	-12.0599
▁Europe	-12.0599
▁juntarem	-12.06
▁experimentado	-12.06
▁Novo	-12.0601
▁detalles	-12.0601
▁anfitri	-12.0601
▁revé	-12.0604
▁agregado	-12.0604
▁demoram	-12.0605
▁Espere	-12.0614
▁falhado	-12.0616
▁luto	-12.0619
▁abriram	-12.0619
▁permitiram	-12.0621
▁individualmente	-12.0623
▁Ferm	-12.0624
▁comparamos	-12.0625
Cash	-12.0629
▁Falo	-12.0629
ixe	-12.0629
▁movimenta	-12.0632
▁davam	-12.0636
▁achá	-12.0636
fundei	-12.0638
▁Nasce	-12.064
▁realizador	-12.0641
▁normalidade	-12.0645
▁apoiado	-12.0646
lick	-12.0651
▁graci	-12.0654
▁inspiradora	-12.0656
titude	-12.0657
▁ator	-12.0657
▁formular	-12.0664
kh	-12.0664
▁Code	-12.0665
▁transmite	-12.0665
▁secundários	-12.0671
▁alimentado	-12.0679
▁atravesa	-12.068
gai	-12.0683
▁pregunt	-12.0683
▁demanda	-12.0683
▁diminuí	-12.0685
▁50.	-12.0688
▁Rebe	-12.0696
▁expor	-12.0698
▁assento	-12.0698
▁assustar	-12.0698
vul	-12.0704
▁capacita	-12.0706
▁77	-12.0708
▁viverem	-12.0709
▁migr	-12.0716
▁reunimos	-12.0717
▁óxido	-12.0719
▁Peg	-12.072
morei	-12.0723
▁encontrada	-12.0724
▁bolsos	-12.0724
▁tratando	-12.0725
▁recoñecer	-12.0725
▁Tentá	-12.0725
ever	-12.0728
▁aterra	-12.0732
▁Quen	-12.0737
▁engadir	-12.0743
▁surf	-12.0744
▁Biologi	-12.0745
▁vil	-12.0746
▁espetador	-12.0749
▁aprofunda	-12.0751
▁luc	-12.0751
▁guardado	-12.0751
▁emitir	-12.0752
▁materna	-12.0753
▁tranquila	-12.0756
aticamente	-12.0757
▁aumentado	-12.0758
pito	-12.0759
ério	-12.076
▁odiar	-12.0767
▁escal	-12.0769
áis	-12.0769
▁intra	-12.0769
▁demónio	-12.0778
sul	-12.0778
▁concretizar	-12.078
▁gañar	-12.0781
▁Floren	-12.0791
▁Mard	-12.0792
▁levarem	-12.0796
▁variado	-12.0801
▁marcante	-12.0804
▁reagi	-12.0812
▁novela	-12.0817
▁Kit	-12.082
▁Cont	-12.0829
▁Trabalham	-12.0837
▁arca	-12.0838
▁Procura	-12.0843
▁costuma	-12.0846
▁quintas	-12.0849
sistem	-12.0853
eller	-12.0853
▁Fre	-12.0859
▁Carlo	-12.0871
60	-12.0872
▁caracteriza	-12.0876
▁reflectir	-12.0877
▁convenc	-12.0879
▁manhãs	-12.089
▁ped	-12.0896
▁elevadas	-12.0906
▁dominado	-12.0906
▁Barr	-12.0908
▁vence	-12.0915
▁predi	-12.0919
▁estaría	-12.0921
▁interessadas	-12.0924
▁aterr	-12.0931
80	-12.0939
▁Adora	-12.0942
▁reden	-12.0944
▁Harle	-12.0948
prime	-12.0949
umentada	-12.0952
▁formada	-12.0952
▁preven	-12.0956
▁respeitar	-12.0956
ibilidade	-12.0967
aw	-12.0967
▁comprend	-12.0967
MM	-12.097
FL	-12.0971
▁avaliado	-12.0972
▁emergir	-12.0974
ámoslle	-12.0975
▁explorado	-12.0976
▁joga	-12.0976
teção	-12.0978
▁ligarem	-12.0982
▁acr	-12.0983
rrado	-12.0985
▁aleatori	-12.0986
▁obterem	-12.1002
▁arquivos	-12.1002
ndy	-12.101
▁arranha	-12.101
▁cabe	-12.1011
▁generoso	-12.1018
▁xir	-12.1025
▁entendia	-12.1036
▁Usar	-12.104
▁monstro	-12.1048
▁comprado	-12.1051
win	-12.1054
▁pioneiro	-12.1055
▁duplica	-12.1055
▁fragmento	-12.1056
▁pendura	-12.1056
▁importava	-12.1059
▁efectivo	-12.1059
plicações	-12.106
EF	-12.1062
▁Hom	-12.1064
▁morcego	-12.1064
▁inseto	-12.1064
▁voluntário	-12.1065
▁refugiado	-12.1068
▁Suec	-12.1069
▁alg	-12.1073
▁sobrevivente	-12.1074
▁Map	-12.1075
▁extraterrestre	-12.108
icidade	-12.1085
▁interessada	-12.1088
▁remix	-12.109
▁levada	-12.1092
ik	-12.1107
xeno	-12.111
▁passageiro	-12.1111
▁sentimo	-12.1111
ssola	-12.1112
egr	-12.1112
▁pronunci	-12.1112
▁jur	-12.1116
▁qualidades	-12.1117
▁descrevemo	-12.1121
▁delega	-12.1121
ED	-12.1125
▁Fund	-12.1128
▁Bla	-12.1131
percebi	-12.1138
▁voam	-12.1147
▁450	-12.1157
▁revel	-12.1162
▁Pegue	-12.1163
▁traballador	-12.1163
▁187	-12.1165
Sac	-12.1169
▁probar	-12.1172
ceiro	-12.1176
xon	-12.1177
▁Sonh	-12.1178
leta	-12.118
▁tratá	-12.118
icio	-12.1182
▁gregos	-12.1183
▁tribos	-12.1183
▁mitos	-12.1183
▁fluorescentes	-12.1183
▁lav	-12.1183
▁dist	-12.1187
▁Aprender	-12.1204
▁discord	-12.1207
ónimo	-12.1208
▁matern	-12.1213
▁inv	-12.122
▁xira	-12.122
zul	-12.1221
▁Volta	-12.1221
▁positivos	-12.1223
▁treina	-12.1231
▁retiramo	-12.124
▁cur	-12.124
▁lix	-12.1243
▁Alexand	-12.1246
zona	-12.1255
otel	-12.1256
▁voltaria	-12.1256
▁escolheria	-12.1258
▁compreens	-12.1259
ciencia	-12.1264
homa	-12.1264
▁houb	-12.1268
▁Falar	-12.1271
▁arranj	-12.1273
▁testámo	-12.1274
▁tratam	-12.1275
▁adormece	-12.1276
icha	-12.1276
▁desempenha	-12.1276
eca	-12.1277
▁fóru	-12.1277
▁arranca	-12.1283
▁escapa	-12.1284
ES	-12.1285
▁abandona	-12.1289
tismo	-12.129
▁mantenham	-12.1302
▁Venha	-12.1302
▁Denn	-12.1305
▁desfruta	-12.1311
lóxico	-12.1315
▁rouba	-12.1315
áculo	-12.1315
89	-12.132
conómico	-12.1321
▁surpreende	-12.1322
scura	-12.1322
▁aprendí	-12.1324
▁discuti	-12.1324
▁tente	-12.1325
▁papa	-12.1325
▁Usam	-12.1326
▁demonstr	-12.133
▁regenera	-12.1332
▁ajudem	-12.134
▁consideram	-12.134
▁apart	-12.1345
itos	-12.135
▁tip	-12.1351
▁Sib	-12.1354
▁descem	-12.1356
▁mora	-12.1356
▁associar	-12.1359
▁envelhece	-12.1363
▁Rede	-12.1364
▁repor	-12.1366
gráfica	-12.137
▁encanta	-12.1377
▁operado	-12.1381
poder	-12.1385
onica	-12.1389
▁alu	-12.1389
MP	-12.1392
▁exponencia	-12.1393
▁contemporâne	-12.1395
▁reclama	-12.1396
parecerem	-12.1397
órdi	-12.1399
▁adicion	-12.14
▁frequências	-12.1403
▁Will	-12.1409
▁general	-12.141
escolar	-12.1411
excremento	-12.142
estrada	-12.142
lhada	-12.143
▁cortado	-12.1432
▁Lembra	-12.1442
▁Vin	-12.1445
frica	-12.1448
hí	-12.145
▁apercebem	-12.1453
▁Díx	-12.1454
▁universa	-12.1456
▁danifica	-12.1456
▁renova	-12.1458
▁Q	-12.1459
upremo	-12.146
▁expande	-12.1462
ab	-12.1463
wei	-12.1463
arecía	-12.1466
▁aquece	-12.1468
▁conspira	-12.1471
▁derrete	-12.1471
▁aptid	-12.1473
▁corrigi	-12.1473
▁botar	-12.1474
▁circun	-12.148
▁Inici	-12.148
▁protetor	-12.1481
▁coloco	-12.1482
▁espanto	-12.1483
térmico	-12.1484
▁deixo	-12.1485
▁harmon	-12.1486
▁feminis	-12.1487
tendimento	-12.1487
▁tór	-12.1487
▁amas	-12.1489
tágio	-12.1489
lfabeto	-12.149
▁embri	-12.149
▁marginal	-12.149
▁arrog	-12.1491
▁skate	-12.1491
▁espon	-12.1491
▁fluoresc	-12.1492
iblioteca	-12.1492
▁perfei	-12.1492
ü	-12.1492
▁Jérs	-12.1492
’	-12.1492
▁Aristóteles	-12.1492
▁Audiência	-12.1492
▁Child	-12.1492
▁Especial	-12.1492
▁LOLcat	-12.1492
▁Perguntem	-12.1492
▁Rapaz	-12.1492
▁académica	-12.1492
▁alarmante	-12.1492
▁anomalia	-12.1492
▁apicultor	-12.1492
▁arriscada	-12.1492
▁atribuída	-12.1492
▁autoestima	-12.1492
▁bancária	-12.1492
▁bancário	-12.1492
▁cancerígenas	-12.1492
▁caricatura	-12.1492
▁clássica	-12.1492
▁defecto	-12.1492
▁defensa	-12.1492
▁descansar	-12.1492
▁desgraza	-12.1492
▁destreza	-12.1492
▁dispendioso	-12.1492
▁envelope	-12.1492
▁enxaqueca	-12.1492
▁equilibri	-12.1492
▁esboço	-12.1492
▁estatístico	-12.1492
▁estrangeira	-12.1492
▁estratexia	-12.1492
▁fachada	-12.1492
▁fascín	-12.1492
▁formidáve	-12.1492
▁fósforo	-12.1492
▁garantida	-12.1492
▁gaveta	-12.1492
▁genial	-12.1492
▁genérico	-12.1492
▁hectare	-12.1492
▁indiferente	-12.1492
▁infeciosa	-12.1492
▁inseguro	-12.1492
▁intercambi	-12.1492
▁interferir	-12.1492
▁introspe	-12.1492
▁inverter	-12.1492
▁jitney	-12.1492
▁mamute	-12.1492
▁obcecada	-12.1492
▁obscuro	-12.1492
▁parágrafo	-12.1492
▁pertença	-12.1492
▁pigmenta	-12.1492
▁prolifera	-12.1492
▁protagonista	-12.1492
▁pulmón	-12.1492
▁quimioterapia	-12.1492
▁reivindica	-12.1492
▁relixión	-12.1492
▁residuo	-12.1492
▁ridiculariza	-12.1492
▁robótico	-12.1492
▁rótulo	-12.1492
▁secuencia	-12.1492
▁solitária	-12.1492
▁tabaco	-12.1492
▁tarxeta	-12.1492
▁titâni	-12.1492
▁Moisés	-12.1492
▁alquimi	-12.1492
▁alternativo	-12.1492
▁circo	-12.1492
▁constipaç	-12.1492
▁coreano	-12.1492
▁descrición	-12.1492
▁desculpem	-12.1492
▁duradoura	-12.1492
▁estética	-12.1492
▁exagero	-12.1492
▁legitim	-12.1492
▁microscópica	-12.1492
▁miseric	-12.1492
▁miúda	-12.1492
▁patriarca	-12.1492
▁quadrada	-12.1492
▁rasteja	-12.1492
▁tecnolóxica	-12.1492
▁urânio	-12.1492
légio	-12.1492
▁Absoluta	-12.1492
▁Negro	-12.1492
▁gravitacionais	-12.1492
▁paxaro	-12.1492
▁watt	-12.1492
▁cenoura	-12.1492
▁cúbico	-12.1492
▁desportivo	-12.1492
▁digna	-12.1492
▁legenda	-12.1492
▁neurológica	-12.1492
▁precursor	-12.1492
▁Cameron	-12.1492
▁aparenta	-12.1492
▁conxela	-12.1492
▁metodologia	-12.1492
▁pontinho	-12.1492
▁resgata	-12.1492
▁órgano	-12.1492
▁pilares	-12.1492
▁pêlo	-12.1492
▁remessa	-12.1492
▁Klei	-12.1492
▁recolle	-12.1492
▁rigoroso	-12.1492
▁horrorizada	-12.1492
▁consello	-12.1492
▁melodia	-12.1492
▁geográfica	-12.1492
▁medieva	-12.1492
▁crónico	-12.1492
▁japonesa	-12.1492
celulo	-12.1492
▁Ommm	-12.1492
▁elixi	-12.1492
▁psicótica	-12.1492
ntrámos	-12.1492
▁quark	-12.1492
▁cerco	-12.1492
▁Stuxne	-12.1492
▁duvida	-12.1492
▁simboliza	-12.1492
▁predominante	-12.1492
▁recibe	-12.1492
▁Campo	-12.1492
▁Cooper	-12.1492
▁prensa	-12.1492
▁retalho	-12.1492
▁Programa	-12.1492
▁Freud	-12.1492
▁parafuso	-12.1492
▁presun	-12.1492
▁virtuoso	-12.1492
▁North	-12.1493
▁Alimenta	-12.1493
▁violino	-12.1493
▁Anima	-12.1493
▁firma	-12.1493
▁punho	-12.1493
▁enteiro	-12.1493
▁instância	-12.1493
▁Micro	-12.1493
▁degener	-12.1493
▁signo	-12.1493
▁tocou	-12.1493
▁favorece	-12.1493
▁moderada	-12.1493
▁derrame	-12.1493
▁partitura	-12.1493
▁humán	-12.1493
▁intermédi	-12.1493
▁cinza	-12.1493
▁xamã	-12.1493
▁encosta	-12.1493
▁fiscais	-12.1493
▁Titan	-12.1493
▁exótico	-12.1493
▁Khan	-12.1493
▁activista	-12.1493
▁carruage	-12.1493
▁girafa	-12.1493
▁Ótim	-12.1493
▁perdão	-12.1493
▁logro	-12.1493
▁nevo	-12.1493
▁débi	-12.1493
▁satura	-12.1493
▁matem	-12.1493
▁teoría	-12.1493
▁protestar	-12.1494
▁tradución	-12.1494
▁acrom	-12.1494
▁ciclista	-12.1494
▁metido	-12.1494
▁converg	-12.1494
▁Adicion	-12.1494
▁mandei	-12.1494
▁jato	-12.1494
▁seleciona	-12.1494
▁LED	-12.1494
ministra	-12.1494
▁evolutivo	-12.1494
▁hostilidade	-12.1494
▁CIA	-12.1494
▁tomarem	-12.1494
▁barbeiro	-12.1494
▁Querid	-12.1494
▁sugestão	-12.1494
▁tampa	-12.1495
▁Chamei	-12.1495
▁esparg	-12.1495
gras	-12.1495
▁Donna	-12.1495
▁McC	-12.1495
▁consultor	-12.1495
▁porreiro	-12.1495
▁organización	-12.1495
▁Altera	-12.1495
▁procesa	-12.1495
▁substituto	-12.1495
▁Demora	-12.1495
▁67	-12.1496
▁Coisa	-12.1496
▁Visua	-12.1496
▁pecado	-12.1496
▁Costumava	-12.1496
▁intima	-12.1496
▁abstracta	-12.1496
▁reconhecido	-12.1496
▁qualificado	-12.1497
▁Suí	-12.1497
▁reduzindo	-12.1497
▁xornal	-12.1497
brisa	-12.1497
▁76	-12.1497
▁regulamento	-12.1498
▁treta	-12.1498
▁latina	-12.1498
▁chef	-12.1498
▁Islândia	-12.1498
▁picada	-12.1498
▁Ensino	-12.1498
▁US	-12.1499
ward	-12.1499
▁Olhei	-12.1499
▁aluna	-12.1499
▁WA	-12.1499
▁papaia	-12.1499
HC	-12.1499
▁irracional	-12.1499
▁Peer	-12.1499
patía	-12.1499
▁persistente	-12.15
▁milh	-12.15
▁paliativos	-12.15
▁cabra	-12.15
▁auditiva	-12.15
▁rolar	-12.15
▁permitia	-12.1501
▁alucinações	-12.1501
▁excecional	-12.1501
▁tangível	-12.1501
▁cero	-12.1504
flix	-12.1504
▁almofada	-12.1505
▁Brand	-12.1505
▁rejeitar	-12.1505
▁funcionalidade	-12.1505
▁cable	-12.1506
▁convencida	-12.1506
▁Drea	-12.1507
▁livraria	-12.1507
▁Ficou	-12.1507
▁Daquel	-12.1508
▁explicación	-12.1509
▁suprimi	-12.1509
▁lápi	-12.1509
▁aterrorizado	-12.1509
▁imaxinade	-12.151
▁derrubar	-12.151
▁óptica	-12.151
ufas	-12.1511
▁espalla	-12.1511
▁emigr	-12.1511
anical	-12.1512
▁Usei	-12.1512
▁profesional	-12.1512
▁Mello	-12.1512
▁conduziu	-12.1512
▁centrar	-12.1512
versa	-12.1512
▁compulsiv	-12.1512
▁esforçar	-12.1512
▁mantendo	-12.1512
▁gorda	-12.1513
▁estabelecida	-12.1515
▁restrita	-12.1516
▁amosan	-12.1516
▁Deah	-12.1516
▁han	-12.1516
▁prec	-12.1517
▁estándar	-12.1518
▁acostumado	-12.1518
▁desligada	-12.1518
▁Traz	-12.1519
▁Tan	-12.1519
▁chegas	-12.1519
▁Raz	-12.1519
▁Maslow	-12.1519
▁competente	-12.152
batido	-12.1521
▁divina	-12.1521
▁nacemento	-12.1521
▁actúa	-12.1524
▁ignorante	-12.1525
▁doido	-12.1525
▁filtrar	-12.1525
▁celulares	-12.1525
▁ardente	-12.1525
▁diplomata	-12.1526
▁bloquei	-12.1526
▁Reparei	-12.1526
▁implementado	-12.1527
▁sexualidade	-12.1527
▁bambo	-12.1528
▁namorado	-12.1528
▁aprendam	-12.1528
▁oral	-12.1528
▁comediante	-12.1528
▁combinações	-12.1528
▁fibros	-12.1528
▁Gosta	-12.1529
▁animada	-12.153
▁explicações	-12.153
▁repetidamente	-12.1531
▁interligar	-12.1531
▁citações	-12.1532
▁Encontramo	-12.1533
▁cume	-12.1534
▁Minha	-12.1535
ngue	-12.1535
▁alimentam	-12.1536
▁envolvendo	-12.1536
óide	-12.1537
▁pódes	-12.1537
▁zonamento	-12.1539
▁documentado	-12.154
posto	-12.154
▁envelhecemos	-12.1541
▁recrutar	-12.1541
▁adquirida	-12.1542
▁situa	-12.1543
▁amado	-12.1544
▁formá	-12.1544
▁flutuação	-12.1545
▁necessitam	-12.1547
▁Net	-12.1547
moroso	-12.1548
▁repentina	-12.1549
▁tenden	-12.155
▁dirigida	-12.155
▁quilo	-12.1551
▁colocando	-12.1551
▁sensoria	-12.1551
tuário	-12.1551
▁6.	-12.1552
▁Rai	-12.1552
▁memorizar	-12.1552
▁obrigar	-12.1552
▁Dub	-12.1554
▁alimentada	-12.1554
roeste	-12.1555
vinda	-12.1556
▁sobra	-12.1557
▁insulto	-12.1557
aiwan	-12.1557
▁May	-12.1559
▁explor	-12.1561
▁inundado	-12.1562
▁rug	-12.1562
▁cente	-12.1566
▁cortaram	-12.1568
▁cumpri	-12.1569
tenas	-12.157
▁bato	-12.157
▁obst	-12.157
▁Tó	-12.1571
▁aceitaram	-12.1573
atidão	-12.1574
▁transgress	-12.1576
▁faceta	-12.1576
▁fornecedor	-12.1577
nsações	-12.1578
▁vivida	-12.1578
▁coer	-12.1579
▁Debería	-12.1581
▁integral	-12.1585
▁disfunciona	-12.1586
abul	-12.1586
▁embalage	-12.1586
▁valia	-12.1587
▁combinada	-12.1588
▁avaliam	-12.159
cial	-12.1592
dó	-12.1593
▁palh	-12.1595
▁contestar	-12.1596
▁transformadora	-12.1596
▁agarrado	-12.1596
egon	-12.1596
íron	-12.1596
▁anca	-12.1596
▁combinam	-12.1598
▁25.	-12.1598
▁Bar	-12.1601
▁Sudá	-12.1603
▁dica	-12.1607
▁perturbador	-12.1607
▁imu	-12.1609
▁guardada	-12.1612
▁integrada	-12.1615
▁necessitamos	-12.1616
▁Gold	-12.1616
ctiva	-12.1618
▁bloqueia	-12.1621
▁codificada	-12.1621
vidente	-12.1623
▁tirado	-12.1623
▁Zi	-12.1624
▁Ía	-12.1625
▁iluminar	-12.1627
▁enviaram	-12.1627
preender	-12.1631
▁admiráve	-12.1638
▁prest	-12.1641
▁mola	-12.1642
▁faltava	-12.1642
▁entendía	-12.1644
▁entendam	-12.1645
▁Fazia	-12.1646
▁Robin	-12.1649
▁aprenda	-12.1651
clama	-12.1652
▁transparentes	-12.1658
▁hei	-12.1659
▁verbo	-12.166
▁convenciona	-12.1666
▁câm	-12.1668
▁falaram	-12.1669
▁bic	-12.1673
ármo	-12.1679
▁internos	-12.168
▁arrastr	-12.1684
▁deficiente	-12.1691
▁simplificar	-12.1695
▁inde	-12.1696
▁Voltemo	-12.1698
▁pic	-12.1698
▁devesse	-12.1702
▁Domingos	-12.171
▁escreveram	-12.1711
▁parentes	-12.1711
▁fertilizantes	-12.1712
alpic	-12.1713
▁gastam	-12.1714
émon	-12.1714
▁indu	-12.1717
linos	-12.1718
▁nutritiv	-12.1719
TC	-12.1723
▁gostem	-12.1725
xar	-12.1729
▁deixan	-12.1731
ricat	-12.1732
venda	-12.1733
anca	-12.1734
cei	-12.1735
▁ficasse	-12.1735
▁Rab	-12.1736
▁Utiliz	-12.1738
▁termino	-12.1738
teís	-12.1749
▁entenda	-12.175
▁desperdícios	-12.1756
▁Barb	-12.1757
▁empurr	-12.1759
▁deposita	-12.1759
▁suín	-12.1763
▁Alta	-12.1766
▁adaptado	-12.1768
rido	-12.1768
▁Port	-12.1769
▁comido	-12.1771
▁angari	-12.1773
▁pressiona	-12.1773
▁escoll	-12.1776
▁magoa	-12.1787
ágoa	-12.1789
▁audio	-12.1789
▁Chin	-12.179
ício	-12.179
▁reduci	-12.1792
▁riba	-12.1795
▁ín	-12.1802
▁mero	-12.1803
▁descend	-12.1808
▁virado	-12.181
▁restaurar	-12.181
▁Continu	-12.1825
▁manté	-12.1831
▁florescer	-12.1835
▁historiador	-12.1837
▁Trag	-12.1841
▁Tratava	-12.1842
,3	-12.1843
▁imaginam	-12.1845
▁transborda	-12.1845
▁perseguido	-12.1848
▁condutora	-12.1848
▁agi	-12.1848
vaz	-12.1851
▁celador	-12.1851
▁fluir	-12.1852
▁Procur	-12.1852
▁mostrada	-12.1853
etho	-12.1856
▁mangas	-12.1857
▁mentalmente	-12.1859
▁pasaba	-12.1862
▁admiti	-12.1862
▁interrompe	-12.1868
▁reforçar	-12.1869
▁percorr	-12.1873
▁fixar	-12.1876
feito	-12.1877
▁variada	-12.1879
▁reporta	-12.1883
▁Desculpe	-12.1883
▁investigadora	-12.1884
▁infiltra	-12.1891
▁termin	-12.1892
▁portal	-12.1892
▁Vel	-12.1895
áde	-12.1896
▁contando	-12.1898
▁Pic	-12.19
▁instantes	-12.1905
pot	-12.1907
orden	-12.1911
▁350	-12.1911
▁incorpora	-12.1913
▁concluí	-12.1916
▁incit	-12.193
ixar	-12.1936
▁tortura	-12.1938
▁convert	-12.1943
▁mares	-12.1952
▁monstros	-12.1957
▁empece	-12.1958
Fi	-12.1964
▁extrae	-12.1966
▁MS	-12.1975
▁miraba	-12.1977
▁Reg	-12.1977
fonda	-12.1985
▁tocava	-12.1992
▁suporta	-12.1992
▁bast	-12.1997
ulho	-12.2001
▁Aumenta	-12.2001
▁Maga	-12.201
ask	-12.2011
▁prende	-12.2014
▁pesquisas	-12.2017
elho	-12.202
cil	-12.2024
eyf	-12.2031
▁traballan	-12.2031
cky	-12.204
▁pescador	-12.2043
mediatamente	-12.2048
▁Prov	-12.2051
tum	-12.2052
▁Calcul	-12.2053
▁conheçam	-12.2053
▁forçada	-12.2054
▁procurava	-12.2059
união	-12.206
▁molde	-12.2061
▁apontam	-12.2069
sistente	-12.2083
▁entendi	-12.2085
▁acabo	-12.2091
jeito	-12.2092
▁quererem	-12.2098
▁solta	-12.2102
▁pl	-12.2104
▁funcionan	-12.2105
▁quedar	-12.2105
▁diagnosticados	-12.2109
▁substituí	-12.2109
▁agradáve	-12.2115
▁tap	-12.2118
▁bloquea	-12.2118
▁crean	-12.2122
▁Dizia	-12.2123
▁bacteriano	-12.213
posta	-12.2137
▁flora	-12.2139
▁Olh	-12.2143
▁Desculp	-12.2144
ratória	-12.2146
▁viajam	-12.2146
▁Chad	-12.2154
▁Han	-12.2157
▁inesperados	-12.216
▁beneficio	-12.2165
▁recria	-12.2165
▁intento	-12.2171
▁pretend	-12.2171
▁empréstimo	-12.2172
▁disposta	-12.2173
▁roto	-12.2176
▁cêntimo	-12.2176
▁evolu	-12.2179
▁Salt	-12.2182
▁idoso	-12.2188
▁escape	-12.2208
▁humanitários	-12.2211
▁respondem	-12.2222
▁mantén	-12.2224
▁profund	-12.2225
▁Gui	-12.2225
▁comportam	-12.2226
▁mur	-12.2244
▁ferr	-12.225
▁amam	-12.2251
▁desempreg	-12.2257
▁incentivo	-12.2267
▁have	-12.2268
▁reformas	-12.2273
▁realizado	-12.2273
▁Deixe	-12.2278
▁fút	-12.2281
▁libertam	-12.2294
▁74	-12.2298
ntemente	-12.2301
cito	-12.2302
▁traballaba	-12.2308
pacto	-12.2309
▁marcador	-12.2315
ania	-12.2321
ventura	-12.2322
▁chegan	-12.2326
vô	-12.2331
94	-12.2334
▁Cru	-12.2339
▁entradas	-12.2341
▁anunciar	-12.2341
gás	-12.2344
primas	-12.2345
ranha	-12.2349
▁Percebem	-12.235
▁foguet	-12.235
▁inst	-12.2355
▁deses	-12.2371
▁nit	-12.2371
▁pesquis	-12.2372
▁Yus	-12.2374
▁Th	-12.2377
▁fino	-12.2378
vy	-12.2386
▁caer	-12.2395
▁ameaçar	-12.2397
taram	-12.2401
▁transportam	-12.2404
▁ganharem	-12.2405
▁boom	-12.2409
cond	-12.2409
▁Marc	-12.2413
▁equipado	-12.2422
▁exaust	-12.2429
▁Grand	-12.2438
▁espiritua	-12.2439
▁inflex	-12.2448
▁digitaliza	-12.2449
▁vendia	-12.245
▁prove	-12.2452
▁Algum	-12.2452
▁Torna	-12.2453
▁sondage	-12.2459
▁Í	-12.246
▁representan	-12.2462
▁bul	-12.2463
▁reparam	-12.2463
▁lembrarem	-12.2469
▁TE	-12.247
▁recebia	-12.2482
▁acreditarem	-12.2484
▁experienciar	-12.2485
tadas	-12.2485
▁higien	-12.2486
beis	-12.2487
▁incomoda	-12.2488
▁apt	-12.2488
▁reconheç	-12.2491
Q	-12.2492
RS	-12.2493
▁administrar	-12.2498
▁Gi	-12.2503
▁abria	-12.2513
mbai	-12.2514
itamos	-12.2515
▁húmid	-12.2521
disciplina	-12.2522
▁marítim	-12.2522
ânico	-12.2524
▁examin	-12.2524
fobia	-12.2528
tío	-12.253
célula	-12.2532
nascido	-12.2532
elite	-12.2532
gregação	-12.2533
▁irrita	-12.2534
cunha	-12.2535
ntin	-12.2544
▁abranda	-12.2548
nie	-12.255
espacial	-12.2551
▁confiáve	-12.2553
▁reconstruí	-12.2558
venida	-12.2564
▁repres	-12.2564
▁relaxa	-12.2566
▁fascina	-12.2568
▁almacena	-12.2568
▁adivinh	-12.2569
▁plant	-12.2575
▁distribuí	-12.2575
▁repete	-12.2576
▁exclusiva	-12.2577
▁especifica	-12.2577
▁impressiona	-12.2578
▁fundi	-12.258
▁merca	-12.2582
▁deteta	-12.2586
▁frustra	-12.2587
ilómetros	-12.2587
▁xorna	-12.259
▁impossíve	-12.259
▁organizador	-12.2591
▁úte	-12.2593
▁caix	-12.2596
▁mostre	-12.2596
▁intelixen	-12.2597
▁permít	-12.2597
▁propuls	-12.2599
strói	-12.2599
▁Harri	-12.26
gner	-12.2602
ubble	-12.2602
ómetro	-12.2602
fensiva	-12.2602
nglês	-12.2603
▁cirur	-12.2603
▁Africa	-12.2603
▁patern	-12.2603
▁holand	-12.2603
è	-12.2603
▁miniaturiza	-12.2603
▁refrixera	-12.2603
▁Philip	-12.2603
▁arrefece	-12.2603
▁embrulh	-12.2603
▁optimiza	-12.2603
▁perpetua	-12.2603
telecomunicações	-12.2603
	-12.2603
‘	-12.2603
▁Aeroporto	-12.2603
▁Beatbox	-12.2603
▁Brancotopia	-12.2603
▁Brexit	-12.2603
▁Cidadão	-12.2603
▁Había	-12.2603
▁Jefferson	-12.2603
▁Maravilha	-12.2603
▁OPEP	-12.2603
▁Panamá	-12.2603
▁Permitam	-12.2603
▁Pesquisa	-12.2603
▁Photos	-12.2603
▁Portugal	-12.2603
▁Quântic	-12.2603
▁Snowden	-12.2603
▁Starbucks	-12.2603
▁Toyota	-12.2603
▁adjacente	-12.2603
▁ambiguidade	-12.2603
▁apanhou	-12.2603
▁bacalla	-12.2603
▁beijo	-12.2603
▁borboleta	-12.2603
▁británico	-12.2603
▁burocracia	-12.2603
▁cabine	-12.2603
▁cancerosa	-12.2603
▁caricaturista	-12.2603
▁catastrófica	-12.2603
▁colisões	-12.2603
▁condescendente	-12.2603
▁corrupto	-12.2603
▁cubrir	-12.2603
▁cárcere	-12.2603
▁cósmica	-12.2603
▁deprimida	-12.2603
▁descanso	-12.2603
▁desiguais	-12.2603
▁dixéron	-12.2603
▁elástica	-12.2603
▁empreendimento	-12.2603
▁engorda	-12.2603
▁engravid	-12.2603
▁escandalos	-12.2603
▁esclarecer	-12.2603
▁escândalo	-12.2603
▁espécime	-12.2603
▁estratégico	-12.2603
▁estupidez	-12.2603
▁explode	-12.2603
▁extraordinario	-12.2603
▁filosófico	-12.2603
▁gafanhoto	-12.2603
▁gigawatt	-12.2603
▁inaceitáve	-12.2603
▁irrelevante	-12.2603
▁mapeamento	-12.2603
▁metabólica	-12.2603
▁micrófono	-12.2603
▁métrica	-12.2603
▁oftalmologista	-12.2603
▁orgánico	-12.2603
▁pacífica	-12.2603
▁pastilha	-12.2603
▁pertencia	-12.2603
▁piratear	-12.2603
▁preguiçoso	-12.2603
▁reforço	-12.2603
▁reimplanta	-12.2603
▁repleto	-12.2603
▁rexistra	-12.2603
▁rexistro	-12.2603
▁rudimentar	-12.2603
▁rígida	-12.2603
▁sacrificar	-12.2603
▁sanitário	-12.2603
▁simplista	-12.2603
▁subproduto	-12.2603
▁tímida	-12.2603
▁tímido	-12.2603
▁vácuo	-12.2603
▁Âng	-12.2603
▁árbitro	-12.2603
▁Anónimos	-12.2603
▁Economia	-12.2603
▁Governo	-12.2603
▁Hiroshi	-12.2603
▁Nepal	-12.2603
▁comunista	-12.2603
▁consequente	-12.2603
▁engrenage	-12.2603
▁oferecida	-12.2603
▁partilhei	-12.2603
▁portugues	-12.2603
▁prematura	-12.2603
▁primitivo	-12.2603
▁Abraham	-12.2603
▁Esqueci	-12.2603
▁Vostede	-12.2603
▁contorna	-12.2603
▁convérte	-12.2603
▁dígo	-12.2603
▁recibí	-12.2603
▁xefe	-12.2603
ítrico	-12.2603
▁Bangladesh	-12.2603
▁axusta	-12.2603
▁chumbo	-12.2603
▁consoante	-12.2603
▁tecnic	-12.2603
iorquino	-12.2603
▁Telescópio	-12.2603
▁balc	-12.2603
▁cobarde	-12.2603
▁eficac	-12.2603
▁Oferece	-12.2603
▁enfoque	-12.2603
▁delicioso	-12.2603
▁impensáve	-12.2603
▁modalidade	-12.2603
▁tesouro	-12.2603
▁antiquad	-12.2603
▁pseud	-12.2603
▁mutila	-12.2603
▁ribeir	-12.2603
▁suborno	-12.2603
percebê	-12.2603
▁despeja	-12.2603
▁emblema	-12.2603
▁sensible	-12.2603
▁sensual	-12.2603
▁descarga	-12.2603
▁psicossocia	-12.2603
▁quieta	-12.2603
▁linguística	-12.2603
▁miseráve	-12.2603
▁verificá	-12.2603
▁posterior	-12.2603
▁Papua	-12.2603
▁interactua	-12.2603
▁perfecto	-12.2603
▁surtidor	-12.2603
▁Jacqu	-12.2603
▁campaña	-12.2603
▁detergente	-12.2603
▁polegar	-12.2603
▁gerou	-12.2603
▁multicultura	-12.2603
▁purifica	-12.2603
▁entregou	-12.2603
▁latrina	-12.2603
▁recolhida	-12.2603
▁insegurança	-12.2603
▁pneumon	-12.2603
▁patoloxía	-12.2604
▁dilata	-12.2604
▁precauç	-12.2604
▁miligram	-12.2604
▁adversário	-12.2604
▁desfavorecid	-12.2604
▁tarte	-12.2604
▁Fried	-12.2604
▁gangue	-12.2604
▁deprimente	-12.2604
▁exclusão	-12.2604
▁prejudicial	-12.2604
▁previr	-12.2604
▁gracioso	-12.2604
▁radar	-12.2604
▁temporária	-12.2604
▁expresa	-12.2604
▁soletra	-12.2604
NIC	-12.2604
▁cessar	-12.2604
▁levantei	-12.2604
▁investe	-12.2604
▁proteica	-12.2604
▁carrinho	-12.2604
▁ditadura	-12.2604
▁oculto	-12.2604
▁resonancia	-12.2604
▁interativa	-12.2604
▁oiçam	-12.2604
▁violín	-12.2604
▁confundir	-12.2604
▁anonima	-12.2604
imunidade	-12.2604
▁mantida	-12.2604
▁juntei	-12.2604
ordânia	-12.2604
▁imune	-12.2604
▁furacán	-12.2605
▁imã	-12.2605
▁abrevia	-12.2605
▁realçar	-12.2605
▁supoñ	-12.2605
▁transfere	-12.2605
▁camelo	-12.2605
▁adversidade	-12.2605
▁revolucionária	-12.2605
▁pontapé	-12.2605
▁EEG	-12.2605
▁finito	-12.2605
▁ingeri	-12.2605
▁espinha	-12.2605
▁contorno	-12.2605
▁Model	-12.2605
▁Coloque	-12.2605
▁borr	-12.2605
▁Ponham	-12.2605
▁ópera	-12.2606
ócrat	-12.2606
▁trili	-12.2606
▁mangueira	-12.2606
▁ciclovia	-12.2606
▁casco	-12.2606
▁Wave	-12.2606
▁mestura	-12.2606
▁deseño	-12.2606
▁dispor	-12.2606
▁Benjam	-12.2606
▁Night	-12.2606
▁Bruc	-12.2606
▁interactiva	-12.2607
▁taxista	-12.2607
▁Fico	-12.2607
▁movido	-12.2607
▁1912	-12.2607
▁sujo	-12.2607
▁ocasión	-12.2607
▁bombista	-12.2607
▁Marfi	-12.2608
▁Columbia	-12.2608
▁Tele	-12.2608
▁pomar	-12.2608
ylor	-12.2608
▁colaborativa	-12.2608
▁cativa	-12.2608
▁refleti	-12.2608
▁creativa	-12.2608
▁detri	-12.2609
▁Patric	-12.2609
▁minerais	-12.2609
▁Stone	-12.2609
▁Concentr	-12.2609
▁1997	-12.2609
▁freira	-12.2609
▁saud	-12.2609
▁Multi	-12.2609
▁repercuss	-12.2609
▁inventámos	-12.2609
▁soft	-12.261
▁juntem	-12.261
▁pára	-12.261
▁renunciar	-12.261
▁apuro	-12.261
▁decidida	-12.261
▁brav	-12.261
noite	-12.261
▁intermediários	-12.261
▁ruta	-12.261
▁mastiga	-12.2611
▁consultoria	-12.2611
▁trate	-12.2611
▁alcanzar	-12.2611
çamb	-12.2611
▁ligou	-12.2612
▁volví	-12.2612
▁lura	-12.2612
▁mantiveram	-12.2612
▁Passaram	-12.2612
▁capacete	-12.2612
▁Tune	-12.2612
Reddit	-12.2612
▁estrangeiros	-12.2612
▁possuía	-12.2612
▁83	-12.2613
▁assombra	-12.2613
▁desconforto	-12.2613
▁Lyn	-12.2613
▁tolerante	-12.2613
▁Perguntou	-12.2613
▁sistemática	-12.2614
▁subsarian	-12.2614
▁ancián	-12.2615
▁infravermelh	-12.2615
▁chamei	-12.2616
▁producto	-12.2617
▁Roy	-12.2617
▁escribiu	-12.2617
▁ofrece	-12.2617
▁repetitivo	-12.2618
▁intenso	-12.2618
▁resolución	-12.2618
▁camión	-12.2618
▁arranjou	-12.2619
▁representativa	-12.2619
▁contenta	-12.2619
▁Arranj	-12.2619
▁gelat	-12.262
▁ensinamento	-12.262
▁cruzada	-12.262
▁Noite	-12.2621
▁perseguição	-12.2621
rnal	-12.2621
▁aproveitador	-12.2621
▁linfático	-12.2622
▁desenrolar	-12.2623
▁describir	-12.2623
▁analista	-12.2624
▁extinto	-12.2624
▁gatinho	-12.2624
▁represento	-12.2624
▁ful	-12.2624
▁centrada	-12.2624
▁uva	-12.2625
▁emerxente	-12.2625
▁NP	-12.2625
▁colorida	-12.2626
▁traduci	-12.2627
▁bimet	-12.2627
▁creado	-12.2627
▁alojamento	-12.2628
rajan	-12.2628
▁abandonou	-12.2628
ddie	-12.2628
▁industrializado	-12.2628
▁desilus	-12.2629
▁barulhento	-12.263
▁oír	-12.263
▁assassinada	-12.263
yer	-12.263
▁91	-12.2631
▁poça	-12.2631
▁Chamaram	-12.2632
▁responsabilizar	-12.2632
érica	-12.2632
▁azeit	-12.2632
▁competitiva	-12.2632
cóci	-12.2633
▁desconfortáveis	-12.2633
▁valiosos	-12.2633
▁turmas	-12.2633
▁Saber	-12.2634
▁substituída	-12.2634
▁exceso	-12.2634
▁facial	-12.2635
▁descoñecido	-12.2635
▁taxi	-12.2635
▁equivocado	-12.2635
▁Sandr	-12.2637
▁irland	-12.2638
▁arsena	-12.2638
▁confian	-12.2638
▁generalizado	-12.2639
▁pique	-12.264
▁autorizado	-12.2642
▁planeia	-12.2642
▁dedicada	-12.2643
▁gerido	-12.2644
▁centrado	-12.2645
▁popularidade	-12.2645
▁fume	-12.2646
▁municipa	-12.2646
▁matá	-12.2646
▁montada	-12.2649
▁IP	-12.265
▁correspondente	-12.265
[...]
