<unk>	0
<s>	0
</s>	0
<pad>	0
s	-2.81575
▁,	-3.10347
▁de	-3.27255
▁.	-3.31036
▁a	-3.6352
▁e	-3.83399
▁o	-3.95487
▁que	-4.14418
;	-4.24226
▁&	-4.27165
quot	-4.31121
▁do	-4.43455
▁da	-4.59262
▁	-4.59485
▁en	-4.6004
o	-5.002
▁A	-5.05957
a	-5.13969
▁é	-5.15618
▁un	-5.16981
n	-5.18774
▁no	-5.21165
(	-5.26922
▁)	-5.28116
se	-5.28436
▁O	-5.31391
▁unha	-5.32456
▁na	-5.33091
▁os	-5.41405
▁para	-5.44821
▁como	-5.51956
▁por	-5.52306
▁se	-5.5527
▁ao	-5.59491
▁súa	-5.63527
▁seu	-5.63711
mente	-5.72043
▁dos	-5.77589
▁con	-5.79377
es	-5.80286
▁foi	-5.80488
u	-5.8163
is	-5.8307
▁máis	-5.86707
▁ou	-6.01201
▁á	-6.02172
▁:	-6.06436
▁as	-6.0695
▁non	-6.14222
ndo	-6.16483
l	-6.1795
▁En	-6.25951
r	-6.28327
▁das	-6.31512
ción	-6.31579
on	-6.38618
▁son	-6.42571
▁entre	-6.49487
▁ano	-6.50568
▁polo	-6.51897
▁co	-6.54498
nde	-6.57027
▁tamén	-6.67485
▁ser	-6.68379
▁pola	-6.69983
-	-6.71669
▁parte	-6.71781
▁coa	-6.7329
▁anos	-6.74168
e	-6.75471
▁Os	-6.76287
▁era	-6.78145
▁sobre	-6.81037
▁E	-6.81076
ia	-6.8638
▁está	-6.93398
do	-6.93948
▁cidade	-7.02076
▁No	-7.02314
▁um	-7.02365
▁dun	-7.03207
▁nos	-7.04253
índa	-7.04395
▁xa	-7.04823
▁ó	-7.06617
▁século	-7.07076
ón	-7.0752
▁ata	-7.08224
▁pero	-7.1011
▁uma	-7.10817
▁forma	-7.11455
0	-7.12359
ía	-7.12851
▁mesmo	-7.12907
1	-7.15444
▁todo	-7.1758
▁C	-7.17718
▁As	-7.18325
▁ten	-7.18671
▁I	-7.18892
▁esta	-7.19371
ron	-7.20093
▁durante	-7.20326
▁primeiro	-7.21807
▁cando	-7.22265
▁nome	-7.22633
▁dunha	-7.24737
▁mais	-7.25049
m	-7.25883
▁Na	-7.28212
te	-7.29291
▁pode	-7.29522
ou	-7.31195
▁poboación	-7.31373
▁este	-7.31681
▁primeira	-7.33426
en	-7.3347
▁P	-7.33718
8	-7.33894
▁em	-7.34173
▁só	-7.35271
▁dous	-7.35455
▁nas	-7.35936
▁moi	-7.36626
▁não	-7.36686
▁illa	-7.37083
▁foro	-7.37127
5	-7.37734
▁T	-7.3847
▁É	-7.40116
▁tiña	-7.40745
▁%	-7.41628
▁tempo	-7.41968
mos	-7.42536
▁com	-7.43154
▁nun	-7.45361
as	-7.46718
▁maior	-7.46744
▁despo	-7.48693
▁sen	-7.48856
▁De	-7.49081
idade	-7.49478
▁habitante	-7.50755
4	-7.51455
▁Estado	-7.51717
▁día	-7.51975
3	-7.52287
9	-7.53272
2	-7.53288
7	-7.53334
6	-7.54197
▁;	-7.54605
▁mundo	-7.54874
▁vez	-7.55053
da	-7.55062
▁outros	-7.57454
▁1	-7.57526
és	-7.57912
▁Este	-7.58109
▁desde	-7.58302
▁San	-7.5972
cia	-7.59983
▁contra	-7.60102
▁tres	-7.60537
▁lugar	-7.60657
▁concello	-7.60993
▁toda	-7.61893
▁vida	-7.61942
▁2	-7.62056
nse	-7.62323
▁nunha	-7.64635
▁segundo	-7.64682
▁moito	-7.65518
▁lingua	-7.67102
▁dú	-7.68095
▁país	-7.68951
apos	-7.69604
▁así	-7.69606
▁?	-7.69807
▁gran	-7.70557
▁guerra	-7.71719
▁cada	-7.72426
▁Por	-7.73553
▁ás	-7.74655
▁grupo	-7.75398
▁principal	-7.75679
▁estado	-7.76708
▁actual	-7.76845
▁estaba	-7.77127
▁novo	-7.77904
▁xu	-7.78311
▁banda	-7.78383
▁sur	-7.78786
▁home	-7.79203
▁Esta	-7.79352
▁goberno	-7.79659
i	-7.79771
▁baixo	-7.80479
▁parroquia	-7.80561
▁Foi	-7.80829
▁hai	-7.80969
▁sistema	-7.8129
▁zona	-7.81424
▁río	-7.82008
▁polos	-7.8211
▁rexión	-7.82342
▁deste	-7.82603
▁tipo	-7.8337
demais	-7.84053
é	-7.8407
▁norte	-7.84462
▁cara	-7.84994
▁grande	-7.85109
▁S	-7.85571
▁lle	-7.85606
▁rei	-7.86112
t	-7.87185
▁pouco	-7.87371
▁número	-7.88419
za	-7.89313
▁muller	-7.89987
▁ter	-7.90129
▁todos	-7.90351
▁m	-7.90369
▁Un	-7.9052
▁poder	-7.9193
▁cunha	-7.92003
▁tanto	-7.93452
mento	-7.93479
me	-7.93765
de	-7.94333
á	-7.94607
▁sendo	-7.94738
y	-7.95002
▁relación	-7.95489
▁importante	-7.95711
▁provincia	-7.95816
▁km	-7.96096
▁cal	-7.96293
▁Galicia	-7.96506
▁outras	-7.97421
▁poden	-7.97816
ismo	-7.97981
▁000	-7.98216
▁mar	-7.98335
▁traballo	-7.98526
▁antes	-7.99496
▁isto	-7.99556
amén	-8.00131
▁están	-8.00131
▁/	-8.00147
▁Con	-8.00892
án	-8.0167
▁cun	-8.0187
▁Segund	-8.0206
▁coma	-8.02142
▁exemplo	-8.02293
▁auga	-8.02621
▁época	-8.02831
ña	-8.02849
▁punto	-8.02986
▁medio	-8.0388
▁194	-8.03978
▁fillo	-8.04201
▁capital	-8.04712
▁teñ	-8.04862
▁Unidos	-8.04972
▁historia	-8.05396
▁Se	-8.05561
▁3	-8.06261
ño	-8.06552
▁territorio	-8.06823
▁España	-8.06986
▁até	-8.07253
ba	-8.07496
este	-8.07568
▁B	-8.07947
▁menos	-8.07998
▁196	-8.08647
▁Duran	-8.08932
▁partir	-8.08966
▁algún	-8.10002
▁familia	-8.10057
▁xeral	-8.10146
▁F	-8.10205
▁galego	-8.10315
▁tivo	-8.10765
▁grandes	-8.11757
▁porque	-8.11887
▁outra	-8.12055
▁ver	-8.1215
▁morte	-8.1231
▁período	-8.12312
▁nova	-8.12431
▁ben	-8.12941
▁obra	-8.13013
▁muito	-8.13455
▁feito	-8.13628
▁especie	-8.13955
▁longo	-8.14327
▁Europa	-8.1492
▁193	-8.15481
▁xunto	-8.16201
▁Para	-8.16217
ção	-8.1622
▁último	-8.16361
▁la	-8.16451
▁cos	-8.16629
ta	-8.16882
▁coñecido	-8.17214
▁—	-8.17259
▁equipo	-8.17394
▁catro	-8.17873
▁especial	-8.18496
▁mesma	-8.18716
er	-8.19208
▁II	-8.20003
▁195	-8.2028
res	-8.2112
▁maioría	-8.21129
mo	-8.21753
▁centro	-8.22108
▁diferentes	-8.22127
▁vario	-8.22203
▁logo	-8.22236
ronse	-8.22304
▁terra	-8.22362
na	-8.22695
▁outro	-8.23097
d	-8.23437
z	-8.23587
▁xeito	-8.23634
▁resto	-8.2419
▁política	-8.2488
c	-8.24948
▁nado	-8.24968
▁10	-8.25213
ando	-8.25267
▁desta	-8.25514
iro	-8.25651
▁mentr	-8.25677
▁V	-8.25883
▁orixe	-8.26247
llo	-8.26446
▁chamado	-8.27108
▁momento	-8.27186
▁persoas	-8.27262
▁La	-8.2749
io	-8.27497
ntón	-8.27659
▁Mas	-8.28135
ra	-8.28155
la	-8.28598
▁-	-8.29114
▁192	-8.29136
▁H	-8.29206
▁Franci	-8.2986
▁forza	-8.30622
▁veces	-8.31013
lo	-8.3147
▁Unha	-8.3185
▁serie	-8.32171
▁Como	-8.32186
▁20	-8.32361
▁à	-8.32445
▁M	-8.32625
ca	-8.327
▁final	-8.32836
▁varia	-8.3291
▁5	-8.32919
▁base	-8.33185
▁caso	-8.33457
▁comezou	-8.33679
▁moita	-8.3425
▁eles	-8.34403
▁segunda	-8.34564
▁pessoas	-8.34662
▁eu	-8.35048
▁millóns	-8.35298
to	-8.35598
▁Nova	-8.35685
▁pequena	-8.35696
ago	-8.3571
▁4	-8.35999
▁países	-8.3603
▁dentro	-8.36135
▁seguinte	-8.37548
▁The	-8.37623
▁debido	-8.38186
▁facer	-8.38299
▁uso	-8.38405
▁Ist	-8.38721
▁isso	-8.38813
▁travé	-8.39001
«	-8.39171
▁proceso	-8.39339
»	-8.39536
ão	-8.40145
▁mas	-8.40307
▁posterior	-8.4047
▁cultura	-8.40518
▁nin	-8.40567
▁&#9	-8.40595
▁case	-8.40625
▁&#93;	-8.40699
▁são	-8.41158
▁Santa	-8.41366
▁antigo	-8.41874
▁principa	-8.42534
▁casa	-8.42622
▁si	-8.43004
▁conta	-8.4327
▁pai	-8.43423
▁re	-8.43737
▁sempre	-8.438
▁media	-8.44156
neiro	-8.44431
▁197	-8.4468
al	-8.45451
▁tarde	-8.4561
▁Non	-8.46358
▁fai	-8.46376
▁191	-8.46606
▁álbum	-8.48088
▁Entre	-8.48207
▁algunha	-8.4822
▁fin	-8.48523
▁principio	-8.48672
em	-8.48707
▁X	-8.49015
▁Así	-8.49433
▁N	-8.49589
▁Ao	-8.49618
▁fixo	-8.50054
▁D	-8.50373
▁fazer	-8.50463
▁el	-8.50692
▁preto	-8.50806
tão	-8.51608
▁propio	-8.51682
▁Santi	-8.51985
▁maio	-8.52144
▁Imperio	-8.52574
▁éxito	-8.5267
▁coñecida	-8.52735
▁qu	-8.52764
▁palabra	-8.52992
▁estes	-8.53029
▁di	-8.53271
▁total	-8.53357
co	-8.53491
í	-8.53741
▁in	-8.53816
▁setembro	-8.54192
▁actividade	-8.54274
gosto	-8.54369
▁carreira	-8.55059
▁común	-8.55114
▁30	-8.5545
▁estrutura	-8.55506
▁igrexa	-8.55604
▁primeiros	-8.55636
▁R	-8.55814
▁Guerra	-8.56045
▁leste	-8.56111
▁partido	-8.56399
▁sería	-8.5651
ubro	-8.56693
no	-8.56934
embro	-8.56986
▁meu	-8.56998
▁fora	-8.57221
lle	-8.57242
▁mellor	-8.57371
▁popular	-8.57485
▁música	-8.57777
▁finais	-8.57918
▁out	-8.57941
▁oficial	-8.57988
▁cinco	-8.58039
▁pobo	-8.58108
▁abril	-8.58157
▁1999	-8.58184
nos	-8.58526
▁chegar	-8.58653
▁Terra	-8.58703
ar	-8.58728
▁obras	-8.58783
▁Universidade	-8.59042
▁190	-8.59045
▁6	-8.59122
▁atópa	-8.59241
▁título	-8.59619
▁dec	-8.59665
▁Gran	-8.59755
▁construción	-8.5976
▁área	-8.5982
▁presidente	-8.60018
▁exército	-8.60414
▁hoxe	-8.60415
▁liña	-8.60426
xe	-8.60566
▁quen	-8.60809
▁converteu	-8.61021
▁importantes	-8.61524
▁cambio	-8.61631
▁década	-8.61673
▁reino	-8.61768
▁tempada	-8.6225
▁superficie	-8.62341
▁desenvolvemento	-8.62384
▁tras	-8.62711
▁anterior	-8.63165
am	-8.6324
▁novembro	-8.63516
▁15	-8.63729
▁estilo	-8.63838
▁Reino	-8.64002
▁dereito	-8.64271
▁disco	-8.64292
▁movemento	-8.64672
▁vai	-8.65388
▁propia	-8.6548
▁corpo	-8.6587
▁Despo	-8.6599
▁chegou	-8.66164
▁algo	-8.6633
ín	-8.66622
▁termo	-8.66922
▁produción	-8.67036
▁planta	-8.67166
▁2004	-8.67516
▁calquer	-8.67888
▁estas	-8.68166
▁teoría	-8.68172
▁estudo	-8.68199
▁ca	-8.68318
▁María	-8.68319
▁febre	-8.68388
▁Co	-8.68479
▁República	-8.6877
k	-8.69073
▁conxunto	-8.69463
▁El	-8.69515
h	-8.69543
▁Eu	-8.69719
▁agora	-8.69761
▁función	-8.7008
▁servizo	-8.70215
▁Poré	-8.70224
▁Madrid	-8.70291
▁última	-8.70291
▁25	-8.70667
▁fonte	-8.70957
▁chamada	-8.71047
▁metros	-8.71132
▁pasou	-8.71171
▁Roma	-8.7147
▁inglés	-8.7168
▁Ten	-8.71725
▁me	-8.71936
▁temperatura	-8.71991
▁idea	-8.72004
▁campo	-8.72077
▁influencia	-8.72137
▁galega	-8.72303
▁8	-8.72744
▁membros	-8.73001
▁cidades	-8.73009
▁orde	-8.7362
▁franc	-8.73661
▁cor	-8.73934
▁estar	-8.73941
▁grupos	-8.74069
p	-8.745
▁neste	-8.74848
▁meses	-8.75285
▁12	-8.75316
▁arte	-8.75426
▁7	-8.75454
▁sexa	-8.75495
▁alto	-8.75779
▁Alema	-8.75846
▁Ca	-8.75919
▁Pero	-8.75974
▁versión	-8.75998
▁ós	-8.76068
▁industria	-8.7607
▁tal	-8.76128
▁nós	-8.76356
▁social	-8.7656
ista	-8.76562
ing	-8.76758
▁Partido	-8.76827
dos	-8.76902
▁ela	-8.7691
▁sup	-8.7702
▁posúe	-8.77353
▁comezo	-8.77362
▁2006	-8.77566
▁libro	-8.778
an	-8.77806
▁Premio	-8.77824
dade	-8.78013
▁fronte	-8.78133
▁papel	-8.78198
▁nivel	-8.78284
▁único	-8.78429
▁L	-8.78658
▁apenas	-8.78985
▁alemán	-8.7899
▁militar	-8.79256
▁nunca	-8.79479
▁alta	-8.79615
▁político	-8.79638
▁costa	-8.79822
▁enerxía	-8.80252
ce	-8.80426
▁acordo	-8.80557
▁canción	-8.80696
▁Illa	-8.81068
▁lado	-8.8109
▁altura	-8.81124
▁Mundial	-8.81342
▁volta	-8.81378
▁posto	-8.81675
▁2005	-8.81713
▁interior	-8.818
▁tan	-8.81827
▁mil	-8.81851
▁antiga	-8.81947
▁pois	-8.8197
▁aparece	-8.81979
▁G	-8.82065
ez	-8.82324
▁irmán	-8.82335
▁chega	-8.82414
va	-8.82414
▁Unió	-8.82424
▁há	-8.8247
▁pesar	-8.82523
▁Está	-8.8264
▁XIX	-8.82722
▁cantidade	-8.82764
▁U	-8.82897
▁comeza	-8.82929
▁efecto	-8.8302
▁luz	-8.8315
▁característica	-8.83325
▁etc	-8.8346
▁posición	-8.83483
▁América	-8.83499
▁podemos	-8.83502
▁temos	-8.84004
zo	-8.84004
▁espazo	-8.8428
▁central	-8.84645
▁d	-8.84815
▁XX	-8.84873
▁Norte	-8.85042
▁Sur	-8.85278
▁14	-8.85422
▁española	-8.85511
ran	-8.85771
▁Hai	-8.86021
°	-8.86112
▁Italia	-8.86202
▁emperador	-8.86223
▁morre	-8.86255
▁obxecto	-8.86382
▁canto	-8.8657
g	-8.86699
▁situada	-8.86835
▁pequeno	-8.87739
▁finado	-8.87955
▁imaxe	-8.87969
▁situación	-8.88021
III	-8.8812
▁11	-8.88355
▁iso	-8.88367
▁eleccións	-8.8848
▁clase	-8.88566
▁189	-8.88662
▁Não	-8.88691
▁sua	-8.88836
ria	-8.88877
▁minha	-8.89046
▁real	-8.89132
▁única	-8.89259
▁2007	-8.89334
▁batalla	-8.89397
▁Mar	-8.89746
▁elementos	-8.89967
▁entidades	-8.90047
▁significa	-8.90135
▁pasa	-8.90186
▁organización	-8.9065
▁c	-8.90744
▁Coruñ	-8.91181
▁seguintes	-8.912
▁lugares	-8.91611
▁9	-8.91717
▁problemas	-8.91749
▁romano	-8.91851
go	-8.91871
▁50	-8.92393
▁posible	-8.92458
▁nada	-8.92464
▁idade	-8.92562
▁mundial	-8.9259
▁causa	-8.92689
▁dicir	-8.9282
▁texto	-8.9299
▁comarca	-8.93418
▁nesta	-8.93419
ina	-8.93452
▁resultado	-8.93521
▁particular	-8.93555
▁normal	-8.93853
▁control	-8.93941
ería	-8.94244
▁data	-8.94432
▁Pedro	-8.94462
▁baixa	-8.94596
▁economía	-8.94648
▁grego	-8.94722
▁nossa	-8.9513
▁cale	-8.95426
▁18	-8.95427
f	-8.95512
▁Nacional	-8.95521
▁su	-8.95635
▁superior	-8.95707
▁nosso	-8.95893
▁existe	-8.96329
▁of	-8.96339
▁ciencia	-8.96384
▁cargo	-8.96509
▁forte	-8.96812
oloxía	-8.96937
▁lista	-8.97035
▁valor	-8.97162
▁K	-8.9726
▁recibi	-8.97362
▁16	-8.97552
én	-8.97751
ri	-8.97793
▁Tras	-8.98056
▁problema	-8.98105
nte	-8.98118
mediante	-8.98165
▁metade	-8.9822
▁situado	-8.98422
▁programa	-8.98542
le	-8.9877
▁natural	-8.98835
▁animais	-8.98836
▁tropa	-8.99065
▁considerado	-8.99139
▁xogo	-8.99161
▁186	-8.99236
onso	-8.99565
▁medida	-8.99575
▁persoa	-8.99652
▁condición	-8.99745
▁permite	-8.99944
x	-9.00001
▁capacidade	-9.00209
▁Carlo	-9.00398
▁13	-9.00405
▁localiza	-9.00414
▁diverso	-9.00571
▁Nos	-9.00614
ti	-9.00705
▁Historia	-9.00738
▁Al	-9.00808
▁Son	-9.01204
▁24	-9.01336
▁distribuído	-9.01352
▁aproximadamente	-9.01512
▁sector	-9.01748
▁2000	-9.02196
ado	-9.02239
▁película	-9.02561
▁París	-9.02562
▁21	-9.02662
▁Outro	-9.02672
▁español	-9.02703
▁británico	-9.0272
▁escola	-9.02751
▁orixinal	-9.02895
▁tód	-9.02932
▁sociedade	-9.03015
▁Inglaterra	-9.03091
▁proxecto	-9.03266
▁modo	-9.0327
▁deles	-9.03274
▁estadounidense	-9.03358
▁vila	-9.03556
redor	-9.03599
▁Igrexa	-9.03625
re	-9.04467
▁internacional	-9.04484
▁Xo	-9.04489
ções	-9.04515
▁axuda	-9.04817
▁tem	-9.04887
▁formación	-9.0492
▁público	-9.0507
▁África	-9.05135
▁acción	-9.05233
▁ele	-9.05252
▁estão	-9.05525
▁seis	-9.05632
▁realidade	-9.05743
▁187	-9.06065
▁paso	-9.06299
▁menor	-9.06466
▁apoio	-9.0659
▁igual	-9.06594
▁188	-9.06658
▁novas	-9.06848
▁propiedade	-9.06885
▁ocasión	-9.0694
GE	-9.06993
▁importancia	-9.07051
▁estudos	-9.07221
▁100	-9.07263
▁membro	-9.0735
ga	-9.07525
▁tamaño	-9.07606
▁libre	-9.07737
▁2003	-9.07754
▁também	-9.07829
▁porto	-9.07876
▁tradición	-9.08052
b	-9.08107
▁Des	-9.08243
▁autor	-9.08258
▁presen	-9.08548
▁tradicional	-9.08561
▁bastante	-9.08725
▁22	-9.0876
▁local	-9.09159
▁17	-9.09205
▁maiores	-9.09274
▁xénero	-9.09289
▁Portugal	-9.09629
tín	-9.09702
▁modelo	-9.09733
▁falar	-9.09758
ro	-9.09833
▁Real	-9.09876
▁diversas	-9.09925
▁Unido	-9.10008
▁europeo	-9.10027
▁clima	-9.10084
▁obxectivo	-9.10207
▁nacional	-9.10221
▁diminu	-9.10369
▁vitoria	-9.10484
▁referencia	-9.10599
▁Xa	-9.10756
▁finalmente	-9.10794
▁sentido	-9.10799
▁–	-9.11058
ante	-9.11232
▁comunidade	-9.11262
▁filme	-9.11549
▁40	-9.11673
arzo	-9.1185
estivo	-9.11854
▁debe	-9.12022
▁interese	-9.12463
▁elixido	-9.125
▁maneira	-9.12637
▁coisas	-9.12725
▁Le	-9.12756
▁proba	-9.13019
icamente	-9.13341
▁xogador	-9.13506
▁nomeado	-9.13911
▁dar	-9.14053
▁papa	-9.14179
▁York	-9.14277
▁director	-9.14382
▁velocidade	-9.14455
▁23	-9.14686
▁Á	-9.14742
▁cabo	-9.14826
▁loita	-9.14869
olos	-9.15009
▁civil	-9.15111
il	-9.1514
▁existen	-9.15423
▁Existe	-9.15465
ma	-9.15485
▁ir	-9.15985
di	-9.16051
▁referir	-9.16215
▁masa	-9.16299
▁Castela	-9.16385
▁ante	-9.16421
▁francesa	-9.16445
▁segue	-9.16484
▁publicou	-9.16507
▁xira	-9.16621
gún	-9.16667
▁novela	-9.16891
ve	-9.16908
▁dirección	-9.16938
▁revista	-9.16989
▁Neste	-9.17175
▁dato	-9.1729
▁arredor	-9.1733
▁verán	-9.17331
▁Cand	-9.1744
▁letra	-9.17485
▁boa	-9.17637
▁!	-9.17848
▁núcleo	-9.17848
▁grazas	-9.18071
▁Rus	-9.18351
▁casos	-9.18432
▁levou	-9.18456
▁Rei	-9.18554
▁vista	-9.1872
▁Logo	-9.18781
▁creación	-9.18792
▁the	-9.18903
▁Jos	-9.18918
▁183	-9.19033
▁27	-9.19332
▁Manuel	-9.19466
▁Gali	-9.19496
▁información	-9.19546
▁conseguiu	-9.19642
▁crecemento	-9.19801
▁Outra	-9.19846
▁184	-9.20037
▁Algún	-9.20043
▁escrito	-9.201
▁sete	-9.20167
▁rede	-9.20384
pto	-9.206
▁Af	-9.20679
▁esa	-9.2071
▁Riso	-9.20811
▁incluíndo	-9.20851
▁xente	-9.2087
▁material	-9.20964
▁Re	-9.21084
▁volveu	-9.21121
▁carácter	-9.21233
▁aqui	-9.21387
▁man	-9.21402
▁independen	-9.2144
▁nai	-9.21512
▁municipal	-9.21662
▁viaxe	-9.21815
▁fan	-9.21883
▁19	-9.21887
que	-9.22038
▁económico	-9.22066
mbos	-9.22132
▁Vig	-9.22199
▁futuro	-9.22202
▁primeiras	-9.22254
▁usar	-9.2253
▁natureza	-9.22711
▁Ba	-9.22712
▁Estas	-9.22879
▁lei	-9.22889
▁humanos	-9.2295
▁mercado	-9.2299
▁camiño	-9.23036
▁Francisco	-9.23037
▁marca	-9.2314
▁Ma	-9.23148
▁novos	-9.232
▁Compostela	-9.23295
▁humano	-9.23463
▁formar	-9.23499
▁occidental	-9.23605
▁concepto	-9.23621
▁Paul	-9.23637
vi	-9.23681
▁práctica	-9.23751
▁compañía	-9.23882
▁60	-9.23895
▁fundamental	-9.23916
pe	-9.23969
▁independente	-9.24211
▁Do	-9.24343
▁pelo	-9.24386
▁alí	-9.2448
▁levar	-9.24553
▁XVIII	-9.24555
▁India	-9.2456
▁28	-9.24593
▁edición	-9.24609
▁terceiro	-9.24673
dor	-9.24893
▁Fernand	-9.25203
▁China	-9.25409
▁composto	-9.25474
▁figura	-9.25539
▁respecto	-9.25599
▁Castro	-9.256
▁coisa	-9.25714
ión	-9.25914
pi	-9.25939
in	-9.2594
▁leva	-9.26048
ram	-9.2627
▁2001	-9.26365
▁colonia	-9.26469
▁difícil	-9.26603
▁Antoni	-9.26608
das	-9.26667
▁29	-9.26749
▁realizar	-9.2681
▁26	-9.26868
▁crítica	-9.27142
▁produtos	-9.2728
▁fose	-9.27374
▁2002	-9.274
tanto	-9.27454
▁dá	-9.27476
▁exterior	-9.27481
▁Má	-9.27498
▁Segunda	-9.27507
▁filla	-9.27617
▁mal	-9.27643
▁romana	-9.27787
▁adoita	-9.27897
▁continua	-9.28149
▁escritor	-9.2834
▁sede	-9.28375
▁simple	-9.28492
▁montaña	-9.2885
▁inverno	-9.29123
▁John	-9.29185
▁pequenos	-9.29195
▁soa	-9.29201
▁185	-9.29629
▁gañou	-9.29677
▁conseguir	-9.29679
ton	-9.29781
▁pintura	-9.29816
▁razón	-9.29885
▁escrita	-9.29886
▁verdade	-9.29904
▁será	-9.29956
▁cabeza	-9.30055
▁consecuencia	-9.30094
▁frecuente	-9.30112
▁numeroso	-9.30164
ces	-9.30575
▁longa	-9.30649
▁León	-9.30683
▁temas	-9.30994
▁existencia	-9.31033
▁investigación	-9.31088
ceu	-9.31139
▁condado	-9.31148
▁y	-9.31168
▁póde	-9.31315
▁literatura	-9.31427
_	-9.3178
▁têm	-9.31807
▁num	-9.3183
▁resposta	-9.31851
▁división	-9.32065
▁for	-9.32128
▁podem	-9.32184
▁avión	-9.32249
▁Di	-9.32281
▁2008	-9.32333
▁80	-9.32849
▁linguaxe	-9.32873
▁premio	-9.3292
▁realmente	-9.32927
▁Juan	-9.33066
▁noite	-9.33123
▁recente	-9.33138
▁variedade	-9.33207
▁motivo	-9.33282
▁Era	-9.33651
▁diferente	-9.33653
▁Deus	-9.3398
▁Ele	-9.33981
▁estados	-9.34044
▁concerto	-9.34076
▁campaña	-9.34218
▁País	-9.34295
▁distancia	-9.34658
▁certo	-9.34734
▁destas	-9.34753
▁van	-9.35266
▁pedra	-9.35435
▁Nesta	-9.35612
▁tema	-9.35737
▁áreas	-9.3577
vos	-9.35794
▁empresa	-9.35848
▁comercial	-9.35899
“	-9.36124
▁voto	-9.36125
▁distinta	-9.36198
▁lonxitude	-9.36198
▁económica	-9.36219
▁estrada	-9.36347
▁dólares	-9.36384
▁Aplausos	-9.36408
▁deixou	-9.36422
▁atopa	-9.3645
▁aumento	-9.36453
▁”	-9.36643
▁comunicación	-9.3683
▁Todo	-9.36899
▁dominio	-9.37016
▁branco	-9.37165
▁onda	-9.37209
▁depois	-9.37245
▁fór	-9.37365
▁1990	-9.37465
▁células	-9.37507
▁terceira	-9.3754
.	-9.37582
▁manter	-9.37684
▁horas	-9.37716
▁mor	-9.37739
▁club	-9.37765
▁cerca	-9.37771
▁distinto	-9.3784
▁2014	-9.3784
▁ministro	-9.37916
▁conserva	-9.37952
▁sistemas	-9.38102
▁parece	-9.38107
▁había	-9.38161
▁militares	-9.38175
ci	-9.38184
▁pasar	-9.38353
▁dizer	-9.38378
▁bo	-9.38427
▁miúdo	-9.38748
▁Santo	-9.3889
▁Val	-9.39219
ban	-9.39569
▁relativa	-9.39662
bol	-9.39683
▁diferenza	-9.39685
▁IV	-9.39685
▁crear	-9.39692
▁ampla	-9.39762
▁Xap	-9.39782
▁produce	-9.39817
▁similar	-9.39838
▁próximo	-9.39894
▁madeira	-9.39898
▁Brasil	-9.39929
▁física	-9.40018
▁coñecemento	-9.40096
cio	-9.40384
▁Internacional	-9.40441
▁Barcelon	-9.40463
▁pensar	-9.40524
bo	-9.40537
▁etapa	-9.40588
▁alimento	-9.40679
▁inicio	-9.40683
▁doutro	-9.40823
▁formas	-9.4083
▁31	-9.40878
▁símbolo	-9.40897
▁tomar	-9.41028
▁rock	-9.41131
▁Da	-9.41493
▁humana	-9.41494
▁semellante	-9.41534
▁500	-9.41566
▁Londres	-9.41599
▁distrito	-9.41677
▁planeta	-9.41704
▁organismo	-9.42068
▁festa	-9.42071
▁70	-9.4215
▁Nas	-9.42264
▁recibe	-9.42462
▁atopar	-9.42547
▁cultural	-9.4256
▁italiano	-9.4262
▁...	-9.4262
el	-9.42676
▁181	-9.42735
▁Exi	-9.42781
▁comercio	-9.42859
▁mediado	-9.431
▁podería	-9.4315
▁chegada	-9.43275
▁fronteira	-9.43412
▁fenómeno	-9.43412
▁partidos	-9.43433
▁peza	-9.43434
▁disse	-9.43666
▁estava	-9.43843
▁presenta	-9.43917
▁falta	-9.43946
▁relixión	-9.43971
▁realizou	-9.43973
▁curso	-9.43978
▁carga	-9.4411
▁gas	-9.44137
▁esquerda	-9.44159
▁Casa	-9.44197
▁Baixo	-9.44213
▁Xe	-9.44324
▁Qua	-9.44563
▁2010	-9.44613
▁90	-9.44836
▁pouca	-9.44857
▁numa	-9.45129
▁televisión	-9.45179
▁musical	-9.4526
▁pela	-9.45307
▁Lug	-9.45418
▁2009	-9.45475
▁xeneral	-9.45504
▁fondo	-9.45671
▁mes	-9.45681
▁formula	-9.45701
▁producir	-9.45704
▁locais	-9.45747
▁seguir	-9.45812
▁2013	-9.45832
▁elemento	-9.45943
▁monte	-9.45971
▁histórico	-9.46237
ido	-9.46382
▁quilómetros	-9.46419
ais	-9.46525
▁200	-9.46611
pa	-9.46625
▁dia	-9.46679
▁tinha	-9.46708
▁profesor	-9.47064
▁escribiu	-9.47189
▁enfermidade	-9.47225
ge	-9.4727
▁elas	-9.47283
ada	-9.47315
▁Consello	-9.47393
▁mosteiro	-9.47479
▁porta	-9.47532
▁decidiu	-9.47571
▁podía	-9.47671
▁entrada	-9.47678
▁ouro	-9.47696
▁presión	-9.47741
▁vía	-9.47796
▁puid	-9.47831
▁certa	-9.47869
▁permanece	-9.47913
▁composición	-9.4792
▁transporte	-9.47971
▁pertencente	-9.48031
▁categoría	-9.48056
aña	-9.48106
▁2011	-9.48138
▁estamos	-9.48154
▁bem	-9.48174
▁oito	-9.48188
▁Media	-9.4821
▁unidade	-9.48242
th	-9.48287
▁rúa	-9.48643
▁reinado	-9.48733
▁institución	-9.48893
▁Monte	-9.4899
▁fala	-9.49047
▁Su	-9.49137
▁saúde	-9.49231
▁tudo	-9.49309
▁Grande	-9.49374
▁representa	-9.49386
▁europea	-9.49398
C	-9.49434
▁próxima	-9.49482
▁Final	-9.49647
▁Constitución	-9.49654
▁bispo	-9.49736
▁utiliza	-9.49769
▁publicación	-9.49792
▁destaca	-9.49855
▁depende	-9.49866
▁numerosas	-9.49887
▁árbore	-9.49906
▁sociais	-9.49907
▁traballar	-9.49929
▁tiver	-9.50054
▁completa	-9.50057
▁altitude	-9.50076
▁padrón	-9.50161
ó	-9.50164
▁voo	-9.50192
▁escala	-9.50292
▁réxime	-9.50417
▁xefe	-9.50595
▁Ouren	-9.50768
▁viu	-9.50791
▁180	-9.51077
▁soldado	-9.51217
▁utilizado	-9.5138
▁capela	-9.51382
▁Coa	-9.5147
▁forman	-9.51535
ter	-9.51586
▁Nun	-9.51729
▁Sol	-9.51774
▁1991	-9.51879
▁inferior	-9.51879
▁deseño	-9.52094
▁límite	-9.52226
roeste	-9.52227
eira	-9.52426
ita	-9.52463
▁cuarto	-9.52574
▁habitual	-9.52608
▁obter	-9.52749
▁grao	-9.52792
▁templo	-9.52869
▁materia	-9.5291
▁Actual	-9.53062
▁México	-9.53099
▁frecuencia	-9.5311
▁formado	-9.53187
▁teatro	-9.53187
▁tratado	-9.53217
▁poeta	-9.53217
▁Ben	-9.53227
▁p	-9.53253
gora	-9.53313
▁Polo	-9.53326
▁deixar	-9.53503
▁constitúe	-9.53538
▁quedou	-9.53788
▁conquista	-9.53797
▁ningunha	-9.53803
▁Vila	-9.53807
▁considerada	-9.54042
▁entrar	-9.54124
or	-9.54153
tra	-9.54157
▁selección	-9.54227
▁calidade	-9.54338
▁estación	-9.5435
lí	-9.5444
▁XVI	-9.54511
▁182	-9.54521
▁produto	-9.54579
▁piloto	-9.54726
utores	-9.54771
▁bosque	-9.54774
▁cuxa	-9.5478
▁beira	-9.54784
▁claro	-9.55136
▁t	-9.55188
▁0	-9.55329
▁entrou	-9.55353
▁1980	-9.55405
▁presente	-9.55549
▁obtiv	-9.55638
▁nese	-9.55942
▁libros	-9.5605
ontevedr	-9.5611
▁municipio	-9.56215
▁evitar	-9.5657
▁mans	-9.5665
▁famoso	-9.56669
▁Ram	-9.56947
▁le	-9.57088
▁trono	-9.57125
▁posibilidade	-9.5749
use	-9.57574
▁crise	-9.57619
▁liberdade	-9.57674
▁naturais	-9.57674
▁torre	-9.57952
▁derrota	-9.58078
▁comezar	-9.5813
▁Galega	-9.58134
▁franceses	-9.58136
▁mostra	-9.58222
▁per	-9.58228
▁metal	-9.58295
▁relixiosa	-9.58348
▁ataque	-9.58367
▁radio	-9.58378
▁delas	-9.58447
▁líder	-9.5847
▁Congreso	-9.58503
▁método	-9.58542
▁imperio	-9.58598
▁terreo	-9.58689
▁representación	-9.58793
amente	-9.58809
vo	-9.58824
▁1995	-9.5906
ntes	-9.59104
▁essa	-9.5914
▁150	-9.5919
▁ácido	-9.59193
▁cuxo	-9.59342
▁defensa	-9.59357
▁Filip	-9.59434
▁empresas	-9.59615
▁Canadá	-9.59621
▁sinxelo	-9.59651
▁te	-9.59765
▁peso	-9.59833
▁constante	-9.59874
ler	-9.60009
▁Australia	-9.60089
▁i	-9.60132
▁ve	-9.60227
▁houb	-9.60248
▁Goberno	-9.60277
▁química	-9.60371
▁evolución	-9.60386
▁sufri	-9.60407
▁Me	-9.60629
▁vocês	-9.60631
▁creou	-9.60642
▁moderna	-9.6068
▁encontro	-9.60697
▁inclúe	-9.608
▁contacto	-9.60843
▁formada	-9.609
land	-9.61052
▁XVII	-9.61224
▁potencia	-9.61337
▁aire	-9.61384
▁enorme	-9.61439
▁castelán	-9.61497
▁castelo	-9.61509
▁necesidade	-9.61605
▁universidade	-9.617
▁expedición	-9.61773
▁séculos	-9.61777
▁1998	-9.61796
▁aquela	-9.61814
▁precisa	-9.61952
▁cadea	-9.61988
xo	-9.62002
▁folla	-9.62025
▁acto	-9.62048
▁Miguel	-9.62083
▁expresión	-9.62087
▁produciu	-9.62161
já	-9.62162
▁1996	-9.62179
▁formou	-9.62179
man	-9.62187
tivo	-9.62187
▁agricultura	-9.62415
▁and	-9.62458
=	-9.62467
▁doutra	-9.62568
▁Academia	-9.62679
▁corrente	-9.62772
tro	-9.63018
▁plano	-9.63031
▁busca	-9.63041
▁vexeta	-9.63184
▁venda	-9.63423
▁Ante	-9.63472
▁conflito	-9.63606
▁extensión	-9.6363
▁edificio	-9.63653
▁océano	-9.63669
▁desenvolver	-9.63694
▁aplicación	-9.63793
▁educación	-9.63825
▁Lugar	-9.63853
▁filosofía	-9.63922
▁alguma	-9.63924
▁publicado	-9.63967
▁ambiente	-9.64003
▁x	-9.64107
▁ruso	-9.64129
▁val	-9.64149
ei	-9.64169
▁lago	-9.64253
onia	-9.6429
▁aves	-9.64337
▁persoal	-9.64362
▁sido	-9.64412
▁Robert	-9.64734
▁Ó	-9.6481
▁amigo	-9.64842
▁Bo	-9.64855
▁arquitectura	-9.64958
▁nave	-9.64975
▁armas	-9.64995
→	-9.65003
▁leis	-9.65048
▁muita	-9.65301
▁assim	-9.65392
▁pública	-9.65578
▁ocupa	-9.6558
▁1994	-9.65697
▁Río	-9.65703
▁caza	-9.65883
▁paz	-9.65932
▁recursos	-9.66008
▁materiais	-9.66035
▁empregado	-9.66083
▁ainda	-9.66137
▁británica	-9.66195
▁vivi	-9.66202
▁probable	-9.66208
▁Cada	-9.66212
▁fút	-9.66218
ría	-9.66322
▁coñece	-9.66331
▁termos	-9.6639
▁Luís	-9.66497
▁carta	-9.66503
▁fase	-9.66675
▁capa	-9.6671
▁In	-9.66836
▁Só	-9.66942
▁melhor	-9.67
▁Constantino	-9.67099
▁histórica	-9.67099
▁dinastía	-9.671
▁alemá	-9.6715
mba	-9.6725
▁medieva	-9.67314
▁participo	-9.67424
▁trabalho	-9.6743
▁industrial	-9.67491
▁topónimo	-9.67605
▁Ment	-9.67678
▁mestre	-9.67697
▁grega	-9.67706
▁invasión	-9.67707
▁semana	-9.67897
▁árabe	-9.6793
▁experiencia	-9.68011
▁veciño	-9.68011
▁máximo	-9.68014
▁duro	-9.68031
▁oriental	-9.68083
▁Garc	-9.68098
▁volume	-9.68113
▁clasificación	-9.68239
▁cobre	-9.68359
▁voz	-9.68418
▁Pa	-9.68452
▁facto	-9.68567
▁branca	-9.68623
▁rapidamente	-9.68726
▁Europea	-9.68979
▁políticos	-9.69041
▁cría	-9.69111
▁amor	-9.69134
▁reacción	-9.6924
▁oposición	-9.6924
▁individuo	-9.69343
▁motor	-9.69345
▁Bret	-9.69433
▁significado	-9.69435
▁dereita	-9.69485
rio	-9.69513
▁volver	-9.69534
▁completamente	-9.69534
▁extremo	-9.69563
▁golpe	-9.69585
▁distribución	-9.69653
▁converter	-9.69869
nia	-9.69882
tención	-9.69908
▁toma	-9.69957
▁aparición	-9.69979
▁relixioso	-9.69987
▁directamente	-9.70039
▁pé	-9.70053
▁artigo	-9.70117
▁totalmente	-9.70187
pla	-9.70236
▁sol	-9.70306
▁36	-9.70386
▁físico	-9.70588
▁cultivo	-9.70589
▁pertence	-9.7062
▁Alexandr	-9.70637
▁liga	-9.70702
▁sem	-9.70757
w	-9.70821
bilidade	-9.70874
▁favor	-9.71095
▁Catalu	-9.71153
▁dura	-9.71181
▁aparecen	-9.71253
▁intento	-9.71269
▁composta	-9.71322
▁trala	-9.71331
▁mando	-9.71414
▁1997	-9.71427
▁actor	-9.71448
▁península	-9.71538
▁código	-9.71746
▁resistencia	-9.71854
▁so	-9.71876
▁baseada	-9.71928
▁300	-9.71992
▁densidade	-9.72073
▁gobernador	-9.72132
▁Te	-9.72295
▁compoñente	-9.72399
▁1960	-9.72469
▁sitio	-9.72806
▁Presidente	-9.72813
▁gañar	-9.72873
▁Algunha	-9.72943
▁resultados	-9.73003
▁dez	-9.73068
▁Parlament	-9.73127
▁fíxo	-9.73153
▁aí	-9.73408
▁W	-9.73485
▁continente	-9.73489
▁idioma	-9.73556
▁macho	-9.73557
▁órgano	-9.73558
▁representante	-9.7358
▁máxima	-9.73664
▁cae	-9.73752
▁nace	-9.73792
▁canle	-9.73889
▁hora	-9.73948
▁tempos	-9.73963
▁ponte	-9.73986
▁aldea	-9.73988
▁saber	-9.73999
oeste	-9.74004
▁publica	-9.74069
▁ciclo	-9.74085
▁ADN	-9.74095
▁Lei	-9.74113
▁Xogo	-9.74122
▁corte	-9.7415
▁poesía	-9.74204
▁contido	-9.74205
▁matrimonio	-9.74215
▁par	-9.74289
▁factor	-9.74335
▁po	-9.74393
▁desenvolveu	-9.74422
▁marcha	-9.74587
▁facend	-9.74595
▁terrestre	-9.74638
▁Copa	-9.74661
▁Pola	-9.74676
▁pensamento	-9.74763
▁administración	-9.74767
▁tratamento	-9.74781
▁perda	-9.74894
▁179	-9.7496
▁femia	-9.74965
▁cre	-9.75097
▁escribir	-9.75123
▁escolas	-9.75153
▁1993	-9.75183
▁operación	-9.75192
▁emprega	-9.75241
▁estableceu	-9.75387
▁breve	-9.75402
▁ruta	-9.75417
arry	-9.75496
+	-9.75512
▁g	-9.75551
▁1992	-9.75622
▁Ponte	-9.7573
▁Posterior	-9.75731
▁inclus	-9.75971
▁coroa	-9.75988
▁doce	-9.76001
▁cousas	-9.7603
▁católica	-9.76062
▁dialecto	-9.76062
▁inclúen	-9.76118
▁vi	-9.76126
▁Pode	-9.76135
▁contén	-9.76174
▁activa	-9.76203
▁combate	-9.76389
▁decisión	-9.76393
▁tomou	-9.76431
▁J	-9.76457
▁Xeral	-9.7648
▁suficiente	-9.76502
▁noutro	-9.76506
▁practica	-9.76613
▁sangue	-9.76614
▁asentamento	-9.76615
▁batería	-9.76742
▁construído	-9.76856
▁consiste	-9.76872
▁Debid	-9.76889
▁vezes	-9.76908
▁fundador	-9.7698
che	-9.77049
▁estudar	-9.77054
▁Popular	-9.77059
▁1989	-9.7706
▁Moito	-9.77196
▁honra	-9.77283
▁caída	-9.77284
▁tecnoloxía	-9.77318
▁qualquer	-9.77395
▁XII	-9.77395
ario	-9.77402
▁pais	-9.77415
ito	-9.77529
▁cámara	-9.77619
▁nenos	-9.77634
▁continuou	-9.77642
▁fundou	-9.77643
▁nove	-9.77646
▁ferro	-9.77675
▁Cristo	-9.7772
ões	-9.77818
▁entra	-9.77989
▁oficiais	-9.78036
▁nacemento	-9.78071
▁minutos	-9.78077
▁apareceu	-9.78166
▁necesario	-9.7818
▁anual	-9.78228
▁cristián	-9.78249
alas	-9.78261
▁artistas	-9.78498
▁construír	-9.78609
▁Pacífico	-9.78745
▁Soviética	-9.78745
▁Arxentin	-9.78745
▁Mais	-9.78937
▁David	-9.79013
▁trata	-9.79118
▁Há	-9.79136
sús	-9.79164
▁♫	-9.79313
▁história	-9.79375
▁recoñecemento	-9.79441
▁VI	-9.79445
▁definición	-9.7945
▁Porque	-9.79469
▁comportamento	-9.795
▁usado	-9.79574
▁análise	-9.79639
▁pre	-9.79937
▁Atlántico	-9.8
▁carne	-9.80038
ch	-9.80083
▁Primeira	-9.80117
▁españo	-9.80223
▁establecer	-9.80243
▁Em	-9.80306
▁Arte	-9.80307
▁técnicas	-9.80348
▁Corte	-9.80666
▁substancia	-9.80682
▁praza	-9.80699
▁35	-9.80743
▁talvez	-9.80811
▁2012	-9.8082
▁procura	-9.80833
▁cento	-9.81059
▁nobre	-9.81063
▁logrou	-9.81109
▁utilizar	-9.81124
▁revolución	-9.81161
▁raíña	-9.81284
▁Grec	-9.81292
▁procedente	-9.81323
▁escena	-9.81334
eiro	-9.81368
▁plan	-9.81494
ase	-9.81494
▁exemplar	-9.81735
▁chan	-9.81742
▁daquela	-9.81763
▁dobre	-9.81774
▁políticas	-9.81904
▁ideia	-9.81955
▁barrio	-9.82018
▁1936	-9.82019
▁técnica	-9.82083
▁VII	-9.82086
be	-9.82144
ic	-9.82203
▁príncipe	-9.82203
▁calendario	-9.82204
▁xudeu	-9.82204
▁varía	-9.82209
▁denominado	-9.82287
▁semanas	-9.82297
▁Que	-9.82382
▁Porto	-9.82426
▁completo	-9.82524
▁tentar	-9.82538
▁amigos	-9.8263
▁considerar	-9.82754
▁directo	-9.82837
ela	-9.82919
▁demais	-9.82983
▁lenda	-9.83012
▁alfabeto	-9.83028
▁sucesor	-9.83056
▁acceso	-9.8314
tase	-9.83194
▁inglesa	-9.83241
▁persa	-9.83346
▁proposta	-9.83384
▁contrario	-9.83441
▁baseado	-9.83523
▁mestura	-9.8358
▁queda	-9.83582
▁esse	-9.83626
▁consumo	-9.83651
▁Austria	-9.83683
▁científica	-9.83712
▁iniciou	-9.83726
▁1986	-9.8374
▁científico	-9.83842
▁arquipélago	-9.83843
▁mellore	-9.83876
▁saída	-9.83876
ver	-9.83941
▁poida	-9.84072
▁denominación	-9.84263
▁sección	-9.84283
▁lá	-9.84305
▁traballa	-9.84314
▁eléctrica	-9.84373
ner	-9.84391
rem	-9.84399
▁proteínas	-9.84441
▁sabe	-9.84449
▁clásica	-9.84457
▁tale	-9.84928
▁historiador	-9.84955
▁competición	-9.84978
▁resulta	-9.85023
órmula	-9.85054
▁milhões	-9.8518
▁actuación	-9.85227
▁Irland	-9.85301
▁hoje	-9.85302
▁personaxes	-9.85485
▁cine	-9.8557
▁hitita	-9.85665
los	-9.85754
▁universo	-9.85786
▁32	-9.85792
ley	-9.85823
▁músico	-9.85908
nce	-9.85995
▁indica	-9.85995
▁fixer	-9.86004
▁Man	-9.86151
▁selo	-9.86267
▁Escola	-9.86292
▁ex	-9.86327
▁xeración	-9.86352
G	-9.86376
▁guitarra	-9.86396
▁coñecer	-9.86401
lla	-9.86548
▁Cal	-9.86618
gi	-9.86637
▁deporte	-9.86662
▁XIII	-9.86699
▁Isabel	-9.86765
▁relacionado	-9.8682
▁regreso	-9.86875
▁censo	-9.86909
▁Ro	-9.8692
▁parella	-9.87009
▁fundada	-9.87037
▁debía	-9.87139
alifornia	-9.87256
▁cuestión	-9.87256
▁178	-9.87275
dores	-9.87335
▁animal	-9.87401
▁muro	-9.87404
▁177	-9.87498
▁nalgún	-9.87505
▁Li	-9.87548
▁participar	-9.87659
▁chama	-9.87816
▁solar	-9.87849
▁xurdi	-9.87854
▁unión	-9.87958
qui	-9.88054
▁unidades	-9.88075
▁descubrimento	-9.88144
▁James	-9.88189
▁45	-9.88339
▁global	-9.88466
▁nación	-9.88468
ne	-9.88477
▁Navarr	-9.88535
ira	-9.8854
▁continuar	-9.88569
▁campionato	-9.88622
▁internacionais	-9.88625
mar	-9.88646
▁segui	-9.88676
▁tendencia	-9.88761
▁considera	-9.88861
▁Central	-9.88873
▁números	-9.88879
▁Revolu	-9.88901
▁aspecto	-9.88914
ino	-9.88917
▁400	-9.88962
▁Oriente	-9.88986
▁coche	-9.89035
▁Nese	-9.89081
▁anunciou	-9.8909
elmente	-9.89126
▁evento	-9.8916
▁tradicionais	-9.89249
▁respectiva	-9.8925
▁For	-9.89265
▁expansión	-9.89502
▁pasado	-9.89562
▁deixa	-9.89598
▁clásico	-9.89628
▁1979	-9.89729
cos	-9.89817
▁Mur	-9.89913
▁república	-9.90007
▁Museo	-9.9001
▁froito	-9.90037
▁dirixida	-9.90143
cm	-9.90216
▁aeroporto	-9.90261
▁aquí	-9.90278
▁movementos	-9.90384
▁Centro	-9.90393
124	-9.90417
▁destacan	-9.90459
▁estrelas	-9.90516
▁Fernández	-9.9052
▁partículas	-9.90528
▁creado	-9.90539
▁duque	-9.90648
▁pesca	-9.90755
▁moeda	-9.909
▁columna	-9.90938
▁noutra	-9.9103
▁campos	-9.91056
▁autoridade	-9.91062
▁aqueles	-9.91129
▁vivir	-9.91243
▁localidade	-9.91282
▁permanente	-9.91294
▁personaxe	-9.91346
▁risco	-9.91346
▁encontrar	-9.91396
▁1982	-9.91412
▁Ata	-9.91419
▁americano	-9.91449
▁Xos	-9.91616
▁petróleo	-9.9167
▁George	-9.91708
▁cá	-9.91727
ización	-9.9175
▁fábrica	-9.918
▁parque	-9.91811
ania	-9.9187
▁contrato	-9.91885
▁departamento	-9.92317
▁Primeiro	-9.92319
▁sub	-9.92393
▁permitiu	-9.92444
▁Escoc	-9.92461
▁diante	-9.92481
▁cores	-9.92488
ctuais	-9.92558
▁fachada	-9.92577
▁perde	-9.92621
▁deputado	-9.92625
▁calor	-9.92819
▁Papa	-9.9285
▁musulmán	-9.92885
▁san	-9.92937
▁Novo	-9.92955
▁interpretación	-9.93028
▁estou	-9.93079
▁estudantes	-9.93094
▁literaria	-9.93099
▁presentou	-9.93109
▁marco	-9.93287
▁municipa	-9.93416
lén	-9.93419
▁Cor	-9.93432
▁visión	-9.9347
▁famosa	-9.93492
▁visita	-9.93498
▁nord	-9.93509
▁&#	-9.9355
▁cuberta	-9.93623
▁Pouco	-9.93623
▁destino	-9.93624
▁software	-9.93631
▁vello	-9.93661
guez	-9.93791
▁Ra	-9.93839
▁colección	-9.93875
▁esposa	-9.93886
▁sitúa	-9.93964
▁negra	-9.93972
▁mim	-9.93974
▁Instituto	-9.94023
▁familiar	-9.94057
▁consegue	-9.94082
▁Gu	-9.94166
▁ven	-9.94227
▁Tratado	-9.94296
▁edificios	-9.94335
▁obst	-9.94338
▁Trala	-9.94434
▁negro	-9.94487
▁irmá	-9.94524
bra	-9.94599
▁necesaria	-9.94681
▁criar	-9.94695
▁carbono	-9.94814
▁turismo	-9.94814
▁fe	-9.94835
▁ría	-9.94925
ámos	-9.94954
▁realiza	-9.94957
▁Nación	-9.95044
tu	-9.95048
▁capaz	-9.95071
▁artista	-9.95134
▁demasiado	-9.95214
▁científicos	-9.95233
▁relato	-9.95278
▁Mali	-9.95299
▁1985	-9.95481
▁provoc	-9.95537
▁Per	-9.9554
ha	-9.95559
▁dirixido	-9.95633
▁misión	-9.95676
▁impacto	-9.95789
li	-9.95832
▁xornal	-9.95908
▁casou	-9.95925
▁noso	-9.96007
▁Romano	-9.96009
▁vinte	-9.9604
▁vén	-9.96104
▁compositor	-9.96153
▁portugu	-9.96184
▁Luis	-9.96249
▁Pe	-9.96256
▁1987	-9.96288
▁deben	-9.963
▁Liga	-9.9631
▁comida	-9.96342
▁usada	-9.96388
ja	-9.96403
▁Israel	-9.96423
▁táboa	-9.96424
▁dixo	-9.96455
▁escudo	-9.96478
▁aproba	-9.96508
▁clara	-9.96664
IB	-9.96701
▁Tom	-9.96765
▁seguiu	-9.96781
▁William	-9.96823
ragón	-9.96855
▁disto	-9.96856
▁relacionada	-9.96868
▁Día	-9.96911
▁Ri	-9.96914
▁viven	-9.97077
▁estranxeiro	-9.97102
▁ámbito	-9.97104
bi	-9.97278
▁Española	-9.97315
aría	-9.97355
nteriores	-9.97493
▁usando	-9.97494
▁atrás	-9.97614
▁1983	-9.97648
▁b	-9.97833
▁ía	-9.97854
▁Nó	-9.97875
▁curta	-9.97928
▁dificultade	-9.97933
▁labor	-9.98047
▁pintor	-9.98049
ico	-9.98098
▁ensino	-9.98104
▁inimigo	-9.98335
▁Hoxe	-9.98335
▁75	-9.9834
▁castro	-9.98366
▁gaña	-9.98438
▁acontece	-9.98604
▁lingüística	-9.98611
▁esforzo	-9.98629
▁moderno	-9.98648
▁três	-9.98749
▁estrela	-9.9875
té	-9.98778
▁Bos	-9.98785
▁aberto	-9.98817
▁New	-9.98838
▁então	-9.98906
▁dado	-9.9896
▁casas	-9.98963
▁traballador	-9.98969
tal	-9.99061
▁extrema	-9.99165
▁Ministro	-9.99196
▁participación	-9.99199
pre	-9.99271
▁comerciais	-9.99304
▁seria	-9.99329
▁XV	-9.99437
▁pessoa	-9.99451
▁1988	-9.99583
▁denominada	-9.99607
presión	-9.99689
▁variante	-9.99822
▁provoca	-9.99911
▁Can	-9.9993
▁produtor	-9.99997
▁bandeira	-10.0014
▁alguns	-10.0015
▁taxa	-10.002
▁recibir	-10.0023
▁perdeu	-10.0029
▁determinado	-10.0029
▁Sá	-10.0034
▁regular	-10.0042
▁compañeiro	-10.0042
▁contexto	-10.0042
▁concentración	-10.0047
▁rápido	-10.0049
▁Suec	-10.0052
▁mudar	-10.0057
▁sala	-10.0057
trás	-10.0058
▁Ese	-10.0059
▁vive	-10.0086
▁comunista	-10.0086
▁urbano	-10.0096
▁Ela	-10.0098
▁aparecer	-10.0102
▁obrigado	-10.0109
v	-10.0109
▁fabrica	-10.011
▁Toda	-10.0111
▁arquitecto	-10.0113
▁usa	-10.0124
quanto	-10.0126
▁acabou	-10.0128
▁arco	-10.013
▁contaba	-10.014
▁dividida	-10.0141
▁cidadán	-10.0146
▁f	-10.015
▁fortes	-10.0155
▁barco	-10.0157
▁Cidade	-10.0167
▁variación	-10.0168
▁Asemblea	-10.017
▁Internet	-10.017
▁asociación	-10.0172
▁gregos	-10.0172
xi	-10.0179
▁1976	-10.0181
▁atmosfera	-10.0184
▁precipitación	-10.0184
▁modelos	-10.0186
▁mostrar	-10.0188
tar	-10.0193
▁perder	-10.0196
▁constitución	-10.0203
▁diso	-10.0219
▁figuras	-10.0241
▁emprego	-10.0249
▁Berl	-10.0252
enínsula	-10.0255
▁Martín	-10.0264
▁memoria	-10.027
▁mozo	-10.0271
▁pista	-10.0273
▁contar	-10.0277
lhe	-10.0285
▁desaparece	-10.0291
▁1977	-10.0296
▁nosa	-10.0306
▁médico	-10.0308
▁monarca	-10.0313
▁continúa	-10.0317
▁vou	-10.0318
▁substituído	-10.0319
▁descendente	-10.0319
▁suma	-10.0327
▁dividido	-10.0328
▁estándar	-10.0329
▁nive	-10.0335
▁recupera	-10.0339
▁cantante	-10.0344
▁mm	-10.0346
▁realizado	-10.0349
▁vento	-10.0353
▁poboado	-10.0366
▁vivía	-10.0372
▁catedral	-10.0372
▁utilizada	-10.0373
▁rematar	-10.0377
▁moléculas	-10.0383
▁complexo	-10.0385
▁permitir	-10.039
▁38	-10.039
▁33	-10.0403
▁participa	-10.0404
iana	-10.0406
▁torno	-10.0409
▁activo	-10.0409
ir	-10.041
▁menores	-10.041
▁1984	-10.0415
▁protección	-10.0415
▁aliado	-10.0418
▁duas	-10.042
tou	-10.0421
▁fundación	-10.0425
ica	-10.0429
emos	-10.0439
gás	-10.0443
▁Mil	-10.0452
▁Torre	-10.0454
▁simples	-10.0454
der	-10.0458
▁Deste	-10.0469
▁presidencia	-10.0474
▁dimensión	-10.0474
ú	-10.0481
▁orixina	-10.0482
eo	-10.0498
ccidente	-10.0499
▁EUA	-10.0503
▁Virxe	-10.0503
▁candidato	-10.0518
▁posesión	-10.0518
▁gravación	-10.0523
ura	-10.0525
▁valore	-10.0532
▁discurso	-10.0533
▁intención	-10.0537
vam	-10.054
▁dela	-10.0559
▁Eduard	-10.0562
▁notable	-10.0568
▁correspondente	-10.0569
▁curto	-10.0578
tación	-10.0589
▁ocupación	-10.0589
▁Exército	-10.0592
íxeno	-10.0592
▁raza	-10.0594
▁fic	-10.0597
▁medo	-10.0599
▁Asturia	-10.06
ion	-10.0606
▁medicina	-10.0607
▁tecido	-10.0607
▁mandato	-10.0608
▁Trá	-10.0613
tenas	-10.0614
▁producido	-10.0615
▁máquina	-10.062
▁motores	-10.0622
▁Xunta	-10.0622
▁continenta	-10.0628
▁décadas	-10.0636
▁diferenzas	-10.0636
▁frota	-10.0637
▁aumentar	-10.0637
▁August	-10.0641
▁pro	-10.0648
▁segur	-10.0667
▁colaboración	-10.0668
ente	-10.067
▁prové	-10.0672
▁xene	-10.0675
▁Air	-10.0684
▁Lis	-10.0689
▁aspectos	-10.0692
▁verdadeira	-10.0698
▁ataques	-10.0708
▁meirande	-10.0712
▁altas	-10.0715
▁Club	-10.0727
▁rexistro	-10.0727
iano	-10.0728
▁Albert	-10.0746
▁coñeceu	-10.0753
▁160	-10.0766
▁antigas	-10.0769
▁literario	-10.0772
▁XIV	-10.0772
▁preciso	-10.0774
▁Mo	-10.0782
▁riqueza	-10.0787
▁residencia	-10.0788
▁destacar	-10.0789
▁tornou	-10.0794
ntro	-10.0814
▁trazo	-10.0827
▁gand	-10.0829
cía	-10.0833
▁responsable	-10.0833
▁nesa	-10.0833
▁1974	-10.0846
▁2016	-10.085
▁abundante	-10.0852
▁ollo	-10.0853
▁catalán	-10.0856
▁comunidades	-10.0858
▁pan	-10.086
ni	-10.0863
▁exposición	-10.0864
▁120	-10.0871
▁neno	-10.0881
▁saír	-10.0886
▁cristiá	-10.09
▁falante	-10.0903
▁pe	-10.0909
▁experimento	-10.0909
▁elección	-10.0911
▁Um	-10.0911
▁filósofo	-10.0912
▁instrumentos	-10.0913
travé	-10.0916
car	-10.092
▁excepción	-10.0925
▁tocar	-10.0927
▁duración	-10.0936
▁1981	-10.094
▁seja	-10.0942
▁construída	-10.0943
tor	-10.0952
▁crea	-10.0954
▁integra	-10.0955
▁tradución	-10.0957
▁perigo	-10.096
IX	-10.0963
▁1973	-10.0968
▁disputa	-10.0971
▁vos	-10.0973
boa	-10.0978
▁profesional	-10.0985
fe	-10.1002
▁Bem	-10.1005
▁célula	-10.1009
amp	-10.1013
▁aprender	-10.1016
▁existía	-10.1017
▁recoñecido	-10.1017
st	-10.1025
▁creada	-10.1028
ación	-10.1035
▁páxina	-10.1048
▁nacionalista	-10.1053
▁asunto	-10.1064
▁instalación	-10.1067
fa	-10.1071
▁Island	-10.1096
▁Olímpico	-10.1098
▁tenho	-10.1102
▁chamar	-10.1109
▁volve	-10.1112
po	-10.1118
▁monarquía	-10.1127
▁obten	-10.1127
▁alcalde	-10.1128
▁nativo	-10.1138
▁2015	-10.1142
▁mantiv	-10.1144
▁portuguesa	-10.1144
▁ingles	-10.1145
▁Mor	-10.1145
▁feita	-10.1159
▁democracia	-10.1162
▁azul	-10.1162
▁Com	-10.1162
▁desa	-10.1166
▁nela	-10.1169
▁trasladou	-10.1175
▁poemas	-10.1185
unha	-10.1185
▁publicada	-10.1187
▁roda	-10.1203
▁rápida	-10.1205
▁Miño	-10.1209
▁Cre	-10.1212
P	-10.1232
▁bloque	-10.1235
▁monumento	-10.1237
▁opinión	-10.1238
▁mellora	-10.1242
▁presentan	-10.125
▁lanzamento	-10.1255
▁radiación	-10.1256
▁métodos	-10.1262
▁xeo	-10.1262
▁42	-10.1269
▁socialista	-10.1275
jo	-10.1278
▁dados	-10.1279
▁certas	-10.1282
▁campión	-10.1285
▁Record	-10.1285
▁conde	-10.1285
▁acadar	-10.1289
▁to	-10.1296
▁acontecemento	-10.1305
▁Ver	-10.1314
▁círculo	-10.1319
tiva	-10.1319
▁cruz	-10.1328
▁cérebro	-10.1333
▁muralla	-10.1349
▁instrumento	-10.1361
▁interna	-10.1365
▁Los	-10.1367
▁verde	-10.1369
▁presentar	-10.1371
▁deriva	-10.1378
▁rematou	-10.1381
▁revolta	-10.1381
▁usuario	-10.1381
▁Occidental	-10.1381
▁pasaxeiro	-10.1382
▁formal	-10.1382
▁significativa	-10.1382
riano	-10.1383
nch	-10.1384
▁reserva	-10.1385
▁Sen	-10.1397
▁funciona	-10.1399
▁inicial	-10.141
▁administrativa	-10.1413
▁xogar	-10.1428
▁avance	-10.1429
▁capitán	-10.1429
▁exerce	-10.1431
ham	-10.1432
▁absoluta	-10.1442
▁Du	-10.1443
▁facía	-10.1445
▁mulheres	-10.1445
▁paisaxe	-10.1446
▁morrer	-10.145
gar	-10.1454
▁culto	-10.1461
▁fácil	-10.1478
▁universal	-10.1482
▁reforma	-10.1488
,5	-10.1489
▁Mediterráneo	-10.1494
▁episodio	-10.1494
▁prensa	-10.1494
▁ocorre	-10.1501
▁asasinado	-10.1512
▁Ferrol	-10.1512
▁tratar	-10.1521
▁declarou	-10.1527
▁Cruz	-10.1527
ble	-10.1528
▁consello	-10.1528
▁ecuación	-10.1531
▁formato	-10.1532
▁Gal	-10.1535
américa	-10.1541
▁proximidade	-10.1543
▁garda	-10.1544
▁converte	-10.1551
▁dirixiu	-10.1552
▁Pro	-10.1553
▁pazo	-10.1557
▁quero	-10.1557
▁acabar	-10.1568
▁azucre	-10.1576
▁secuencia	-10.1576
▁dalgún	-10.1576
rá	-10.1579
▁debuxo	-10.1593
▁democrática	-10.1609
▁circuíto	-10.1609
▁Henrique	-10.1609
▁Bill	-10.161
▁programas	-10.1623
▁inmediata	-10.1623
▁construíu	-10.1632
▁saíu	-10.1636
▁debate	-10.1636
▁identidade	-10.1642
▁crenza	-10.1643
▁nalgunha	-10.1658
▁civilización	-10.1659
▁tribos	-10.1661
▁Cuba	-10.1661
▁líderes	-10.1664
▁amplo	-10.1667
malia	-10.1667
▁dito	-10.1668
▁estudio	-10.1672
▁result	-10.1674
▁Washington	-10.1675
▁cancro	-10.1675
▁inicialmente	-10.1676
▁Po	-10.1679
▁indíxena	-10.1691
▁placa	-10.1691
▁regras	-10.1693
▁tecnologia	-10.1694
▁37	-10.1695
▁torneo	-10.1708
▁prodúce	-10.1708
▁faz	-10.1708
▁Galego	-10.1708
▁mariña	-10.1709
▁praia	-10.1729
▁Ar	-10.1732
▁supux	-10.1735
▁profundidade	-10.1741
▁museo	-10.1741
▁mecánica	-10.1741
▁americana	-10.1744
▁acadou	-10.1747
ard	-10.1749
▁ti	-10.1759
▁ocupar	-10.177
▁comun	-10.1774
▁adiante	-10.1775
▁prezo	-10.1776
▁Marti	-10.178
▁cousa	-10.1783
▁podían	-10.1785
tendo	-10.1788
▁Comunista	-10.1792
des	-10.1793
▁grave	-10.1794
ment	-10.1794
▁Asociación	-10.1808
▁Vi	-10.1812
▁65	-10.1815
▁Rodr	-10.1816
▁deserto	-10.1825
▁Hit	-10.1839
▁atopou	-10.1842
▁signo	-10.1842
▁raíz	-10.1844
▁cruceiro	-10.1859
▁viru	-10.186
▁costume	-10.1862
▁inter	-10.1883
▁achega	-10.1887
▁Michael	-10.1892
▁acerca	-10.1892
▁Divisi	-10.1905
▁certos	-10.1908
▁ritmo	-10.1909
▁Uma	-10.191
▁Dereito	-10.1912
it	-10.1917
▁tería	-10.1919
▁sofre	-10.1923
▁consta	-10.1925
▁cristian	-10.1926
▁autonomía	-10.1928
▁Sal	-10.1928
▁cadrado	-10.193
▁diario	-10.1931
▁64	-10.1937
▁vídeo	-10.194
▁patrón	-10.1943
▁nuclear	-10.1946
▁Hu	-10.1948
▁medidas	-10.1951
▁observación	-10.1952
nel	-10.1959
▁Álvar	-10.1977
▁estreita	-10.1977
▁fortaleza	-10.1977
▁Fo	-10.1987
▁600	-10.1997
▁Orde	-10.2004
▁seguido	-10.2006
▁trans	-10.2006
▁terzo	-10.2008
▁converténdo	-10.2012
▁Thom	-10.2018
▁artigos	-10.2021
▁crianças	-10.2027
▁dita	-10.2031
▁verdadeiro	-10.2035
ho	-10.2041
▁niño	-10.2046
▁consegui	-10.2048
xica	-10.2054
▁incluído	-10.2063
▁lixeira	-10.2069
▁Estudou	-10.2077
▁secretario	-10.2088
▁recuperar	-10.2089
▁176	-10.2097
▁web	-10.2115
▁pel	-10.2116
ide	-10.2118
ê	-10.2118
rse	-10.2128
▁actri	-10.2131
▁reais	-10.2138
▁sal	-10.2141
▁oportunidade	-10.2141
▁Socialista	-10.215
▁55	-10.2162
▁toca	-10.2168
▁soberan	-10.217
▁mantén	-10.2175
▁cabalo	-10.2182
▁Sobre	-10.2185
▁escravos	-10.2186
▁prim	-10.2188
▁documentos	-10.22
▁ingreso	-10.2216
▁marxe	-10.2219
▁accidente	-10.2219
▁fracaso	-10.222
▁cadro	-10.222
▁equivalente	-10.2221
▁Fa	-10.2224
xa	-10.2235
▁italiana	-10.2237
▁debería	-10.2238
▁libera	-10.2245
▁39	-10.2249
▁López	-10.2254
▁frío	-10.2254
▁órbita	-10.2254
▁von	-10.2267
▁fica	-10.2272
▁Fin	-10.2277
▁desenvolve	-10.2278
▁norma	-10.2285
▁deixando	-10.2287
ego	-10.2287
▁empregar	-10.2299
ça	-10.2299
▁Ribad	-10.2299
estival	-10.2303
▁xornalista	-10.2309
▁abandonar	-10.232
lin	-10.2324
▁latino	-10.2325
▁celébra	-10.2325
▁franco	-10.2326
▁Ed	-10.2328
▁costas	-10.2333
▁meio	-10.2337
▁bizantino	-10.2343
▁dúbida	-10.2343
ck	-10.2346
▁deuse	-10.2356
▁bacteria	-10.2357
▁técnico	-10.236
▁espaço	-10.236
▁estuda	-10.2364
▁chaira	-10.2366
▁débe	-10.2372
▁ovo	-10.2375
▁Lo	-10.2382
▁matemática	-10.2385
▁carreiras	-10.2387
rez	-10.2388
▁católico	-10.2396
▁exacta	-10.2396
▁tensión	-10.2398
▁chamou	-10.2401
ng	-10.2404
▁posíbe	-10.2414
▁xunta	-10.2415
▁señor	-10.2416
▁posta	-10.2418
▁vivo	-10.2424
▁atopan	-10.2425
▁hospital	-10.2432
S	-10.2432
▁li	-10.2433
cher	-10.2437
▁800	-10.2443
▁Aire	-10.2443
▁exilio	-10.245
▁inscrición	-10.2467
▁Jean	-10.247
▁Serra	-10.2471
▁acontecer	-10.2472
▁Bar	-10.2473
▁eléctrico	-10.2474
▁emisión	-10.2475
▁corresponde	-10.2476
▁area	-10.248
▁Car	-10.2481
▁árabes	-10.2482
ry	-10.2485
▁ARN	-10.2485
▁Suíz	-10.2486
▁Temos	-10.2487
▁liderado	-10.2489
▁espírito	-10.2494
▁34	-10.2509
ço	-10.251
▁alimenta	-10.252
▁entender	-10.2533
▁autoridades	-10.2534
’	-10.2539
▁vermella	-10.2539
▁Vasco	-10.2544
▁Hungr	-10.2548
▁destacado	-10.2549
▁super	-10.2552
▁Frank	-10.2559
▁documenta	-10.257
▁alguém	-10.2571
▁finalizar	-10.2575
▁entidade	-10.2577
▁Unidas	-10.2577
▁Ibéric	-10.2578
▁Go	-10.2581
VIII	-10.2585
▁aberta	-10.2596
▁editado	-10.2598
▁definitivamente	-10.2599
▁Limita	-10.2613
▁rica	-10.2616
tí	-10.2628
▁vamo	-10.2629
▁legal	-10.263
ney	-10.2635
▁sinal	-10.2636
▁occidenta	-10.2646
by	-10.2647
▁policía	-10.2649
▁poema	-10.2653
▁Mon	-10.2654
▁leite	-10.2669
▁Moita	-10.267
pouco	-10.2676
▁auto	-10.2676
avera	-10.2676
▁1972	-10.2681
▁aquel	-10.2686
▁acaba	-10.269
quí	-10.2692
▁miña	-10.2707
▁qual	-10.2712
▁sabemos	-10.2715
ine	-10.2725
▁parcial	-10.273
▁Pér	-10.2734
▁rama	-10.2737
▁44	-10.2741
▁41	-10.2741
▁Desta	-10.2742
▁esencial	-10.2742
▁estreito	-10.2747
▁água	-10.2749
▁axi	-10.2751
▁separada	-10.2751
▁presentes	-10.2752
▁explicar	-10.2756
▁divíde	-10.2759
▁corazón	-10.2759
▁Ciencia	-10.2759
▁considerable	-10.2759
▁43	-10.276
▁publicar	-10.2761
▁unir	-10.2765
▁desexo	-10.2765
céano	-10.277
▁lanzado	-10.2774
▁Nin	-10.2784
▁teña	-10.2785
▁St	-10.2802
▁Charles	-10.2812
rd	-10.2816
▁asociado	-10.2818
▁existi	-10.2822
▁170	-10.2822
val	-10.2822
▁Nobel	-10.2823
▁prat	-10.2831
▁ficar	-10.2832
▁cerebro	-10.2833
▁evidencia	-10.2833
▁propósito	-10.2833
▁enviou	-10.2833
▁vão	-10.2834
lt	-10.2844
▁afirma	-10.2845
ero	-10.2848
▁útil	-10.2851
▁musicais	-10.2851
▁explotación	-10.2854
▁lonxe	-10.2857
nova	-10.286
▁reformas	-10.2866
▁observar	-10.2867
▁mensaxe	-10.2867
▁Jackson	-10.2871
▁fundado	-10.2872
▁fusión	-10.2872
▁imperial	-10.2874
lá	-10.2875
▁estiver	-10.2878
▁levaba	-10.2884
▁Tre	-10.2885
▁separado	-10.2887
▁escasa	-10.2888
▁custo	-10.2897
▁establece	-10.2899
tos	-10.29
▁vermello	-10.2907
▁funcionamento	-10.2912
▁protesta	-10.2917
▁artística	-10.2926
▁enfrontamento	-10.2927
▁Mundo	-10.2928
▁celta	-10.2933
ís	-10.2936
ac	-10.2942
▁transición	-10.2945
▁norteamericano	-10.2946
▁Sa	-10.2953
▁xaponesa	-10.2955
▁Cu	-10.2968
B	-10.2968
▁insecto	-10.2983
▁nem	-10.2986
▁decidir	-10.2987
▁ler	-10.2987
▁Lú	-10.299
▁derivado	-10.299
▁152	-10.2992
▁popularidade	-10.2995
▁diámetro	-10.3002
▁hidróxeno	-10.3002
▁turco	-10.3002
▁sae	-10.3013
▁limita	-10.3018
ivís	-10.3021
▁crecente	-10.3024
▁públicas	-10.3024
▁sexo	-10.3025
▁directa	-10.3026
dio	-10.3027
▁min	-10.3033
▁restante	-10.3042
ñen	-10.3045
▁flores	-10.3046
▁corre	-10.305
▁remata	-10.3052
▁Sim	-10.3054
▁aumenta	-10.3055
▁localizada	-10.3056
▁pronto	-10.3059
▁perspectiva	-10.3059
▁bordo	-10.3059
▁mante	-10.3062
▁solo	-10.3064
▁serve	-10.3069
▁seguro	-10.3072
▁corpos	-10.3076
▁Campionato	-10.3078
▁46	-10.3078
▁curva	-10.3078
▁chegan	-10.3082
▁abaixo	-10.3092
ume	-10.3097
▁demanda	-10.3097
▁Zeland	-10.3098
▁trabalhar	-10.3113
et	-10.3114
*	-10.3116
▁Guillerm	-10.3116
▁voga	-10.3116
▁barcos	-10.3117
ína	-10.3119
▁cifra	-10.3127
ografía	-10.313
ló	-10.3132
▁175	-10.3133
▁metropolitana	-10.3135
▁relevo	-10.3135
▁47	-10.3136
▁Z	-10.314
▁identifica	-10.3147
▁derrotado	-10.3152
▁ensaio	-10.316
▁conflitos	-10.3162
▁manifestación	-10.3164
▁sei	-10.3165
▁alianza	-10.3167
▁Max	-10.317
▁fórmula	-10.3174
▁descubriu	-10.3181
▁Mu	-10.319
▁circula	-10.3192
▁antigüidade	-10.3193
▁quinto	-10.3193
▁vehículo	-10.3193
▁can	-10.3193
▁48	-10.3193
▁xerais	-10.3194
▁To	-10.3197
▁moral	-10.3199
▁poboada	-10.3202
licio	-10.3205
▁informação	-10.3213
▁espada	-10.3214
▁Don	-10.3214
▁republicano	-10.3215
▁ferramentas	-10.3222
nta	-10.3224
▁mudou	-10.3232
▁humanidade	-10.3232
▁litora	-10.3232
▁documento	-10.3234
▁proxectos	-10.3234
lez	-10.3242
▁Salvado	-10.3251
▁somos	-10.3265
▁Marco	-10.3266
quez	-10.3269
▁logra	-10.3274
▁Senado	-10.3276
▁tenta	-10.3276
▁póden	-10.3282
▁tren	-10.3291
▁cambiar	-10.33
▁ameaza	-10.3301
leccións	-10.3309
▁retirada	-10.3311
rich	-10.3311
▁investigador	-10.3317
▁potencial	-10.3319
▁choiva	-10.3329
▁escenario	-10.333
▁poderían	-10.3338
▁Bél	-10.3348
▁Mi	-10.335
▁explica	-10.3351
evilla	-10.3352
ie	-10.3353
▁liberal	-10.3356
▁temporal	-10.336
▁Valencia	-10.336
▁electrón	-10.3367
▁especiais	-10.3378
▁Ne	-10.3379
▁electora	-10.3383
▁ángulo	-10.3387
▁Chile	-10.3391
▁rochas	-10.3403
▁biblioteca	-10.3407
▁líquido	-10.3407
▁Louis	-10.3407
▁asasinato	-10.3407
SS	-10.3409
ésar	-10.342
▁seren	-10.3421
▁fluxo	-10.3421
▁pa	-10.3423
ol	-10.3424
▁mamífero	-10.3427
▁representan	-10.344
tón	-10.3446
▁xeográfica	-10.3447
▁artístico	-10.3451
▁lagoa	-10.3453
D	-10.3456
▁atol	-10.3456
▁sexual	-10.3458
bel	-10.3464
▁correntes	-10.3465
▁guitarrista	-10.3466
▁Teatr	-10.3467
ult	-10.3468
▁h	-10.347
BA	-10.3475
▁Federación	-10.3481
▁Tal	-10.3484
▁argumento	-10.3486
▁solución	-10.3491
gt	-10.3492
▁celebración	-10.3498
▁segura	-10.3504
▁homenaxe	-10.3506
▁banco	-10.3507
▁haber	-10.3512
▁estadio	-10.3514
▁Dan	-10.3519
▁cola	-10.3523
▁múltiple	-10.3526
▁parlamento	-10.3526
▁pluma	-10.3526
▁resolver	-10.3535
▁fo	-10.3546
responsabilidade	-10.3546
▁cerimonia	-10.3546
▁rural	-10.3546
cer	-10.3556
▁rec	-10.3556
▁servir	-10.3561
▁Vicent	-10.3567
▁Comunidade	-10.3567
▁determinar	-10.357
▁afluente	-10.3586
▁básica	-10.3586
▁describe	-10.3586
▁dominante	-10.3589
▁natal	-10.3592
▁có	-10.3594
▁matemáticas	-10.3599
▁Turqu	-10.3607
ência	-10.3616
OE	-10.3617
▁convérte	-10.3626
▁Wi	-10.3628
▁vosso	-10.3632
▁impostos	-10.3646
gu	-10.3649
▁Podemo	-10.3652
bal	-10.3652
▁conteñ	-10.3661
▁lanzou	-10.3667
▁escritura	-10.3667
▁disso	-10.3669
▁Nada	-10.3671
▁começar	-10.3673
▁separación	-10.368
▁Dou	-10.3681
▁reis	-10.3681
H	-10.3686
▁descrición	-10.3687
▁gole	-10.3687
▁latina	-10.3688
▁Ouro	-10.3704
▁ditadura	-10.3707
lar	-10.371
▁tornar	-10.3719
▁PS	-10.3719
nda	-10.372
▁ton	-10.3724
▁chamadas	-10.3724
▁k	-10.3726
▁específico	-10.3727
▁Richard	-10.3728
▁bronce	-10.3728
▁56	-10.3729
▁foram	-10.3736
▁Fillo	-10.3739
▁ocupada	-10.3744
▁empregada	-10.3746
▁deus	-10.3747
▁Napoleón	-10.3748
▁meridiona	-10.3748
▁concreta	-10.3752
▁controlar	-10.3759
▁fotografía	-10.3768
▁Radio	-10.3769
▁149	-10.3772
▁enviado	-10.3775
ário	-10.3775
▁procede	-10.3785
▁car	-10.38
nacionais	-10.3801
▁económicas	-10.3803
▁secundario	-10.3809
▁vella	-10.3811
▁52	-10.3811
▁localización	-10.3821
▁Pi	-10.3823
ouse	-10.3826
▁plataforma	-10.383
breza	-10.3832
▁rara	-10.3833
▁sou	-10.3847
▁basicamente	-10.385
▁reunión	-10.3852
▁variable	-10.3853
▁quase	-10.3856
▁eram	-10.3858
▁Gonz	-10.3865
▁redes	-10.387
ato	-10.3871
▁lograr	-10.3876
▁estata	-10.3876
A	-10.3876
▁quedar	-10.3878
TA	-10.3888
▁previa	-10.3892
▁visto	-10.3892
▁claramente	-10.3901
▁peixes	-10.3911
▁descuberto	-10.3912
▁conferencia	-10.3914
▁mariño	-10.3914
▁53	-10.3915
▁federal	-10.3915
▁elevado	-10.3924
▁consideraba	-10.3925
▁herdeiro	-10.3927
▁Cá	-10.3931
▁doutrina	-10.3933
▁interacción	-10.3933
▁soviético	-10.3933
▁colonos	-10.3934
▁penso	-10.3944
cho	-10.3951
▁espera	-10.3952
▁quería	-10.3952
▁volcán	-10.3953
▁cuarta	-10.3954
▁representar	-10.396
▁transformación	-10.3964
▁sentir	-10.3965
▁considéra	-10.3965
▁Provincia	-10.3975
▁solitario	-10.3975
▁Vol	-10.3978
▁serra	-10.4006
▁comezan	-10.4006
▁americanos	-10.4007
▁precisamos	-10.4011
▁centros	-10.4012
▁nel	-10.4013
▁lume	-10.4017
▁rusa	-10.4019
▁puxo	-10.4025
▁Wil	-10.4028
▁Mississip	-10.4037
▁energia	-10.4037
▁obriga	-10.4038
ráfico	-10.4039
▁producida	-10.4044
▁recolle	-10.4052
▁pagar	-10.4053
▁Dinamarca	-10.4058
▁implica	-10.4067
▁abandonou	-10.407
▁químico	-10.4071
fama	-10.4072
▁minerais	-10.4079
▁ni	-10.4089
▁rectangular	-10.4101
▁electrónico	-10.4101
▁suave	-10.4105
▁localizado	-10.4106
▁estable	-10.4108
▁ocupou	-10.4111
iz	-10.4118
▁autónoma	-10.4122
▁competencia	-10.4122
▁rango	-10.4122
▁quente	-10.4133
tura	-10.4137
olonia	-10.4143
▁intervención	-10.4143
▁ausencia	-10.4143
▁empezou	-10.4146
▁Costa	-10.4147
▁inmigrante	-10.417
▁aquilo	-10.4171
▁entrega	-10.4172
▁André	-10.4178
▁átomos	-10.4179
▁vemos	-10.418
▁rebelión	-10.4186
um	-10.42
▁acepta	-10.4201
▁personalidade	-10.4207
▁vantaxe	-10.4207
▁terminou	-10.421
▁gravar	-10.4215
▁Manch	-10.4219
▁vaca	-10.4225
▁descuberta	-10.4228
▁Sistema	-10.4249
▁café	-10.4249
▁iniciativa	-10.425
NG	-10.4251
dia	-10.4251
▁erro	-10.4252
▁defender	-10.4253
▁consideran	-10.4256
▁experimenta	-10.4268
▁vontade	-10.4271
▁xaponés	-10.4271
▁aparente	-10.4271
▁Aqui	-10.4273
▁Cara	-10.428
las	-10.428
▁morto	-10.4282
ett	-10.4286
▁Ministerio	-10.4292
▁exipcio	-10.4292
▁kg	-10.4294
▁infan	-10.4297
▁CD	-10.4313
▁49	-10.4315
▁fronteiras	-10.4317
▁hipótese	-10.432
▁combinación	-10.4326
▁vías	-10.4328
▁l	-10.433
▁clave	-10.4331
▁vir	-10.4333
▁amizade	-10.4336
▁específica	-10.4336
▁dinheiro	-10.4336
▁Mariña	-10.4339
▁axudar	-10.4345
▁Xoan	-10.4353
▁conto	-10.4353
▁mortos	-10.4355
▁empréga	-10.4357
▁mínimo	-10.4357
▁palacio	-10.4357
▁ferrocarr	-10.4357
▁debut	-10.4357
▁fogar	-10.4358
▁XI	-10.4358
▁pena	-10.4365
▁santo	-10.4367
▁existentes	-10.4376
▁brazo	-10.4379
forme	-10.4386
▁sina	-10.4391
▁Tra	-10.4392
riental	-10.4395
▁bom	-10.4399
▁escritores	-10.44
▁alcance	-10.4401
▁arqueolóxico	-10.4401
▁consérva	-10.4401
▁maioritaria	-10.4401
laborou	-10.4401
▁intensa	-10.4402
▁quanto	-10.4404
▁77	-10.4409
▁tribuna	-10.4422
▁minoría	-10.4422
▁euro	-10.4426
▁levan	-10.4433
▁arcebispo	-10.4444
▁derradeiro	-10.4444
▁fósil	-10.4444
▁comandante	-10.4445
▁coalición	-10.4445
▁brillante	-10.4445
▁dias	-10.4446
▁falada	-10.4446
▁ceo	-10.4446
▁vossa	-10.4451
▁adultos	-10.4453
▁existir	-10.446
▁seco	-10.4465
▁Campo	-10.4471
▁Medio	-10.4475
▁levado	-10.448
▁cu	-10.4487
▁transmisión	-10.4488
▁57	-10.449
▁ordenador	-10.4491
▁bomba	-10.4494
▁151	-10.4495
▁Sociedade	-10.4503
▁tive	-10.4509
▁equilibrio	-10.451
▁neve	-10.4532
▁54	-10.4535
▁toneladas	-10.4549
‘	-10.4554
▁Ánxel	-10.4554
▁verbo	-10.4563
▁Comezou	-10.4576
▁Póde	-10.4576
ster	-10.4581
▁ali	-10.4586
▁probab	-10.4592
N	-10.4597
▁plena	-10.4597
▁enxeñeiro	-10.4599
▁prazo	-10.4599
▁baía	-10.4606
tion	-10.4608
fo	-10.4611
nza	-10.4614
▁asinou	-10.4621
burgo	-10.4622
▁250	-10.4626
▁palavras	-10.4627
▁protestante	-10.4629
encia	-10.4638
▁deseñado	-10.4643
▁suxeito	-10.4643
▁marchou	-10.4643
▁xudicia	-10.4644
▁cana	-10.4648
▁ha	-10.4648
ilis	-10.4648
▁sorte	-10.4654
▁imp	-10.4659
ey	-10.4665
▁noticia	-10.4665
▁diz	-10.4673
▁Rosa	-10.4677
▁esperanza	-10.4682
▁quiz	-10.4683
▁Alta	-10.4688
▁feminino	-10.4688
▁dalgunha	-10.4689
▁164	-10.469
FA	-10.4691
▁puidese	-10.4692
▁adaptación	-10.4692
▁alcanzar	-10.4702
▁boas	-10.4706
▁quem	-10.4708
▁profundo	-10.471
▁paralelo	-10.471
NE	-10.4713
▁portugues	-10.4714
▁Ei	-10.4716
▁85	-10.4717
▁computador	-10.4732
▁conexión	-10.4737
▁Carolina	-10.474
▁51	-10.475
▁típico	-10.4755
▁Cámara	-10.4756
▁mina	-10.4757
▁copias	-10.4762
▁titulado	-10.4778
▁Norueg	-10.4778
▁testemuña	-10.4778
▁crece	-10.4779
▁TV	-10.4779
way	-10.4784
▁Franco	-10.4796
▁unido	-10.4799
▁Boe	-10.48
▁actúa	-10.48
▁incluída	-10.48
▁negativa	-10.4801
▁habilidade	-10.4801
eorxia	-10.4806
▁58	-10.4813
▁gal	-10.4819
▁falece	-10.4821
▁viño	-10.4823
▁románica	-10.4823
▁fins	-10.4826
▁modificación	-10.4829
▁Conde	-10.4832
▁chin	-10.4839
▁millón	-10.4839
▁sacerdote	-10.4841
▁metais	-10.4845
▁secundaria	-10.4846
▁Martin	-10.4846
▁doenza	-10.4847
▁aconteceu	-10.4849
▁empregan	-10.4855
▁individual	-10.4858
▁Tribuna	-10.4863
▁licenza	-10.4868
▁Xunto	-10.487
▁encargado	-10.4874
▁fortemente	-10.4882
▁cambiou	-10.4895
▁canón	-10.4901
▁Ana	-10.4903
▁atacar	-10.4904
▁statu	-10.4914
▁caracteríza	-10.4914
▁So	-10.4921
iñeiro	-10.4926
▁visible	-10.4927
▁declaración	-10.4927
▁abrangue	-10.4931
▁xoga	-10.4932
▁renda	-10.494
▁Tour	-10.4942
▁adestrador	-10.4947
▁celular	-10.4952
gue	-10.4956
▁colexio	-10.496
▁Ta	-10.4961
ida	-10.4965
▁diversidade	-10.4983
▁peixe	-10.4985
▁retirar	-10.4985
▁Ha	-10.4986
▁impulso	-10.4986
▁exclusivamente	-10.4997
▁utilizando	-10.5003
▁Grazas	-10.5006
▁teatra	-10.5006
▁refíre	-10.5007
ru	-10.5009
▁ancho	-10.501
▁automóbil	-10.502
▁UE	-10.5022
▁proporción	-10.5033
▁dedicada	-10.5034
▁caracter	-10.5035
▁indio	-10.5048
▁Moscov	-10.5051
lha	-10.5052
▁outeiro	-10.5057
▁establecemento	-10.5057
▁Bis	-10.5072
▁captura	-10.5074
ity	-10.5075
T	-10.5077
▁fundamentais	-10.5079
▁ponto	-10.5085
▁carro	-10.5085
frica	-10.5095
▁veciña	-10.5099
▁Concello	-10.5099
▁cociña	-10.5099
▁alternativo	-10.51
▁tam	-10.5102
▁pensa	-10.5107
▁cálculo	-10.5108
rico	-10.5115
▁realizada	-10.5118
▁Bre	-10.5122
▁brasileiro	-10.5123
▁punta	-10.5123
▁encima	-10.5123
▁consig	-10.5126
▁elevada	-10.5133
▁olhar	-10.5136
▁ra	-10.5141
▁700	-10.5144
▁2017	-10.5146
▁ópera	-10.5149
gueira	-10.5161
L	-10.517
▁independentes	-10.5171
▁Vien	-10.518
▁eixo	-10.5183
▁seguida	-10.5186
▁administrativo	-10.5193
▁barroco	-10.5194
▁xorde	-10.5195
▁inicia	-10.5195
▁1000	-10.5197
▁urbana	-10.5199
▁asumi	-10.5199
▁Chi	-10.5209
ish	-10.5209
▁Ga	-10.521
▁bi	-10.5213
▁encóntra	-10.5217
▁capítulo	-10.5217
▁bando	-10.522
▁concelleiro	-10.522
▁frase	-10.5222
▁agrícola	-10.5224
tada	-10.5227
▁Ki	-10.5227
inas	-10.5232
▁disciplina	-10.5233
▁membrana	-10.524
▁territorial	-10.524
▁xenética	-10.524
▁retablo	-10.524
▁estavam	-10.5246
▁residente	-10.5247
▁comprende	-10.5255
▁experiência	-10.5258
ncia	-10.5261
▁los	-10.5261
▁chámase	-10.5262
▁bisesto	-10.5264
▁Canaria	-10.5264
▁mitoloxía	-10.5264
▁estatua	-10.5267
▁Park	-10.5273
▁sufrir	-10.5284
▁uniu	-10.5286
▁recoñecida	-10.5288
▁provocar	-10.5289
▁Esa	-10.5289
▁pico	-10.5293
▁dedicado	-10.5295
▁debaixo	-10.5307
▁vivenda	-10.5311
▁Guinea	-10.5311
▁alumno	-10.5312
▁trinta	-10.5312
▁muda	-10.5316
▁definir	-10.5317
▁Xuli	-10.5325
ut	-10.5327
▁posuía	-10.5328
cha	-10.5328
tas	-10.5331
▁fazem	-10.5334
▁tumba	-10.5336
▁sucesión	-10.5337
▁contribuí	-10.5342
▁escuro	-10.5352
▁destinado	-10.5359
▁fría	-10.536
berg	-10.5368
▁pergunta	-10.5373
▁rexeita	-10.5374
▁lhe	-10.5376
ilidade	-10.5381
▁ascenso	-10.5383
▁disposición	-10.5383
▁ingresos	-10.5388
▁riba	-10.5389
▁abrir	-10.5389
ker	-10.5401
▁Queda	-10.5405
▁galaxia	-10.5407
▁Comisión	-10.5409
▁portas	-10.5415
▁Paz	-10.5418
▁Castel	-10.542
▁totalidade	-10.5425
▁canadense	-10.5431
▁Armada	-10.5432
▁Civi	-10.5432
ora	-10.5434
▁enviar	-10.5437
▁buscar	-10.5437
▁Bu	-10.5441
▁cen	-10.5454
▁mellorar	-10.5455
▁aceite	-10.5456
I	-10.5456
ad	-10.5456
▁partidario	-10.5456
▁primaria	-10.5457
▁mãe	-10.5457
▁redución	-10.5465
▁verso	-10.5477
▁68	-10.5479
▁magnético	-10.548
▁percorrido	-10.548
▁lóxica	-10.548
▁dispoñible	-10.548
▁Sir	-10.5481
aco	-10.5482
▁dada	-10.5483
▁Bueno	-10.5486
▁realización	-10.5491
▁foto	-10.5496
▁pedir	-10.5501
▁hábitat	-10.5504
▁Depois	-10.5504
▁desenvolvida	-10.5504
▁utilizan	-10.5507
▁probabilidade	-10.5507
▁Tu	-10.5507
▁Peter	-10.5519
▁71	-10.5524
▁decide	-10.5526
▁xurisdición	-10.5528
▁marido	-10.5538
▁caixa	-10.5538
▁except	-10.5539
▁xuízo	-10.554
▁vivos	-10.5542
▁require	-10.5553
▁executivo	-10.5553
▁pata	-10.5557
▁ventos	-10.556
▁extensa	-10.5562
fusión	-10.5574
▁celebrou	-10.5577
▁roupa	-10.5577
▁setentriona	-10.5578
▁electrónica	-10.5578
▁xestión	-10.5579
▁anarquista	-10.5579
▁actitude	-10.558
▁Conta	-10.5583
▁ofrece	-10.5599
▁130	-10.5599
▁vapor	-10.5602
▁destrución	-10.5602
▁Cór	-10.5602
▁partida	-10.5605
▁Si	-10.5625
▁prisión	-10.5626
▁retorno	-10.5626
▁define	-10.5626
▁Carl	-10.5627
▁Ant	-10.5627
▁interessante	-10.5627
▁quere	-10.5629
▁introdución	-10.5631
▁escano	-10.5632
▁marcado	-10.5633
▁tri	-10.5633
▁montes	-10.5634
▁Sar	-10.5636
▁Sicilia	-10.5651
▁montañosa	-10.5651
▁Atópa	-10.5651
oz	-10.5651
▁pobres	-10.5654
▁Vene	-10.5655
▁Tanto	-10.5655
▁alcanza	-10.5657
▁tinham	-10.5658
▁ordenou	-10.5661
▁pasan	-10.5666
▁facil	-10.5667
▁parede	-10.567
▁ligado	-10.5672
▁174	-10.5675
▁quedan	-10.5677
▁Ve	-10.5678
▁modernos	-10.5683
▁bar	-10.5683
▁atravesa	-10.5696
▁comer	-10.5696
▁colocar	-10.5698
▁aérea	-10.57
▁públicos	-10.5704
▁salto	-10.5705
▁lenta	-10.5716
▁Federa	-10.5717
▁tarefa	-10.5723
▁típica	-10.5725
▁cumio	-10.5725
▁gráfico	-10.5726
▁95	-10.5737
▁xogou	-10.574
▁intelectual	-10.575
▁cima	-10.5751
▁recentes	-10.5758
▁72	-10.576
base	-10.576
▁viva	-10.5769
▁Gales	-10.5773
▁pu	-10.5776
▁usan	-10.5779
▁centrais	-10.578
▁naquela	-10.5787
ren	-10.5794
▁Pai	-10.5794
ctor	-10.5796
▁Grupo	-10.58
▁circunstancia	-10.58
▁chinesa	-10.58
▁dando	-10.5801
▁rolda	-10.5805
▁pertencen	-10.5807
▁pedras	-10.5809
▁pop	-10.5823
▁baséa	-10.5825
▁depósito	-10.5825
▁baleiro	-10.5825
▁combustible	-10.5825
▁serviu	-10.5835
▁organizar	-10.5835
eza	-10.5839
▁questão	-10.585
▁concreto	-10.585
▁sabor	-10.585
▁intensidade	-10.585
▁pura	-10.5854
▁mapa	-10.5856
▁escultura	-10.5858
▁presentación	-10.5859
▁patrimoni	-10.5868
▁escura	-10.587
▁Joseph	-10.5876
▁psic	-10.5877
cesión	-10.5881
▁protagonista	-10.5882
▁Corea	-10.5884
▁Pedra	-10.5884
▁violen	-10.5891
▁sesión	-10.5891
▁positiva	-10.5892
▁definitiva	-10.5893
▁reducir	-10.5896
▁Siri	-10.5896
▁externa	-10.5901
▁pertencía	-10.5901
▁buque	-10.5901
▁profunda	-10.5901
▁Rafa	-10.5901
▁relevante	-10.5905
rra	-10.5906
▁necesita	-10.5908
▁crítico	-10.591
gem	-10.5911
tre	-10.5914
▁ocupado	-10.5918
▁praias	-10.5924
▁falecido	-10.5926
▁possível	-10.5926
▁mudança	-10.5926
▁166	-10.5928
▁Chic	-10.593
▁passado	-10.5935
▁Jim	-10.5945
▁Andr	-10.5949
▁indican	-10.595
▁Vitoria	-10.5951
▁Democrátic	-10.5953
▁raios	-10.5955
▁exportación	-10.5955
▁chave	-10.5963
▁determinada	-10.5966
cción	-10.5973
▁normas	-10.5975
▁pretende	-10.5975
▁magnitude	-10.5977
▁retrato	-10.5977
▁investimento	-10.5977
▁xusto	-10.5979
▁Antón	-10.599
▁orienta	-10.5996
▁boca	-10.5997
E	-10.5998
▁atopado	-10.5998
▁crónica	-10.6002
▁avó	-10.6002
▁seguidor	-10.6008
▁grav	-10.6016
▁mide	-10.6016
▁Vou	-10.6026
▁Schuma	-10.6028
▁desaparición	-10.6029
▁Tole	-10.6029
▁informe	-10.603
▁Her	-10.6034
▁literal	-10.6035
fi	-10.6048
▁Van	-10.6052
▁Comité	-10.6053
▁rebelde	-10.6055
▁revolucionario	-10.6057
nstein	-10.6067
▁apoiar	-10.6068
▁Batalla	-10.6069
▁mecanismo	-10.6072
▁limitado	-10.6073
▁visual	-10.6075
▁Pazo	-10.6078
▁Serbi	-10.6081
▁electromagnétic	-10.6082
▁asociada	-10.6082
▁pegada	-10.6083
▁negros	-10.6084
▁ajudar	-10.6093
▁diocese	-10.6093
tico	-10.6096
▁Johann	-10.6102
▁evidente	-10.6103
▁mínima	-10.6105
▁ribeira	-10.6105
▁resolución	-10.6105
▁fibra	-10.6105
▁fuxir	-10.6106
▁tanque	-10.612
▁62	-10.6121
▁pon	-10.6125
▁pediu	-10.613
▁razão	-10.6131
▁sueco	-10.6131
▁nube	-10.6131
▁descubrir	-10.6134
▁estratexia	-10.6134
▁tanta	-10.6136
homa	-10.6139
▁sociedades	-10.6142
migración	-10.6151
▁beleza	-10.6157
▁Stone	-10.6157
▁lúa	-10.6159
▁pi	-10.6159
▁ba	-10.616
▁acho	-10.6163
▁Forma	-10.6163
▁Sil	-10.6164
▁limitada	-10.6168
▁Obrigado	-10.6171
▁Federic	-10.6181
▁desenvolvido	-10.6182
▁gañador	-10.6182
▁enteiro	-10.6184
▁facelo	-10.6184
▁Sam	-10.6187
▁continuo	-10.6188
▁fim	-10.619
▁poñer	-10.6192
▁artificial	-10.6196
ros	-10.6198
▁Muito	-10.6209
nio	-10.6212
mina	-10.6212
▁Cabo	-10.6214
▁sólido	-10.6216
▁torna	-10.6217
▁introduciu	-10.6222
▁medir	-10.6225
ade	-10.6226
mperador	-10.623
▁Mont	-10.6235
antes	-10.6236
▁tío	-10.6236
▁pobreza	-10.6239
▁describir	-10.6242
▁metro	-10.6245
▁156	-10.6248
▁sinxela	-10.625
▁Nace	-10.6254
▁Tam	-10.6256
▁representado	-10.6263
▁comuna	-10.627
bio	-10.628
▁Leste	-10.6284
▁videoxogo	-10.6287
▁Che	-10.6288
▁Die	-10.6289
▁96	-10.6292
▁adquiri	-10.6295
▁navega	-10.6297
▁ma	-10.6299
▁0,	-10.6304
par	-10.6307
▁escoc	-10.6307
▁actuar	-10.6313
▁espectáculo	-10.6314
▁promoción	-10.6314
▁havia	-10.6314
▁River	-10.6315
▁incluía	-10.6318
▁alternativa	-10.6321
▁pés	-10.6324
▁elimina	-10.6327
▁fi	-10.6338
▁electric	-10.634
▁processo	-10.634
▁soporte	-10.634
▁decreto	-10.634
▁circular	-10.6347
▁cita	-10.6348
▁aplica	-10.6359
ited	-10.6362
▁173	-10.6366
▁contemporáneo	-10.6366
▁intercambio	-10.6366
▁expresa	-10.6369
▁gobernante	-10.6369
gen	-10.6372
▁Maior	-10.6384
▁falan	-10.6392
▁aparello	-10.6393
▁húmido	-10.6393
▁Coroa	-10.6394
▁UR	-10.6394
▁162	-10.6395
V	-10.6399
▁War	-10.6404
▁Golf	-10.6404
▁mesa	-10.6405
▁família	-10.6405
▁funcionar	-10.6406
▁Alto	-10.641
▁turístico	-10.642
▁adoptou	-10.642
▁Palacio	-10.642
▁Marte	-10.6427
▁unida	-10.6429
▁merc	-10.6432
▁encontra	-10.6444
▁172	-10.6445
▁coordenada	-10.6446
▁fogo	-10.6448
▁funda	-10.6449
▁tralo	-10.6449
▁máquinas	-10.6449
▁gente	-10.6449
▁dependencia	-10.645
xencia	-10.6467
per	-10.6468
▁Virxi	-10.6473
▁feminina	-10.6473
▁lectura	-10.6473
▁muíño	-10.6473
▁aumentou	-10.6473
▁cabaleiro	-10.6473
▁comparación	-10.6481
▁preso	-10.6482
▁enlace	-10.6483
▁153	-10.6487
▁descender	-10.6488
ados	-10.6489
▁lados	-10.6495
▁raí	-10.6496
▁aeroliña	-10.65
▁esténde	-10.65
▁opción	-10.6502
▁alma	-10.6505
▁Lago	-10.6511
▁171	-10.6515
amento	-10.6519
▁158	-10.6522
▁Oscar	-10.6524
▁contribución	-10.6527
▁Parque	-10.6528
ed	-10.6528
▁xudía	-10.6529
▁Var	-10.6536
▁gradual	-10.6539
▁fixa	-10.6544
▁Destaca	-10.6547
▁lingüístico	-10.6554
▁Daniel	-10.6554
▁definida	-10.6557
ssim	-10.656
▁Nesa	-10.6561
▁63	-10.6565
▁vexa	-10.6566
▁separa	-10.6569
▁Ni	-10.6577
▁ideoloxía	-10.6581
▁suposto	-10.6581
▁postura	-10.6581
▁ocorreu	-10.6582
▁outono	-10.6582
▁comparte	-10.6584
áz	-10.6586
▁enxeñ	-10.6587
▁tese	-10.6589
▁acusado	-10.6592
▁nota	-10.6599
▁denomínase	-10.6601
▁sucedeu	-10.6604
▁General	-10.6608
▁ruína	-10.6608
▁feitas	-10.6608
▁trigo	-10.6609
▁paredes	-10.6614
▁convento	-10.6615
▁67	-10.6625
▁sonora	-10.6625
▁abre	-10.6626
mp	-10.6629
▁caer	-10.6629
illas	-10.663
▁Domingo	-10.6635
▁editou	-10.6635
▁aceiro	-10.6635
▁dirixente	-10.664
▁permanecer	-10.664
▁vasco	-10.6641
▁v	-10.6645
▁Normal	-10.6649
▁utilizou	-10.6662
▁Baixa	-10.6662
▁militante	-10.6666
uro	-10.6671
▁acepto	-10.6688
▁porcentaxe	-10.6689
▁xardín	-10.6689
▁Ferrari	-10.6689
▁Hawai	-10.6689
▁excelente	-10.6691
▁retirou	-10.6699
ime	-10.6699
▁condenado	-10.6701
▁nacionalismo	-10.6706
▁escolar	-10.6713
▁soberano	-10.6714
▁após	-10.6717
▁sindicato	-10.6718
▁Francesa	-10.6719
▁puider	-10.672
▁proporciona	-10.6721
▁Tui	-10.6722
▁identificar	-10.6725
▁positivo	-10.6729
ano	-10.6738
id	-10.6738
▁deseñada	-10.6744
▁infantil	-10.6745
▁Vamo	-10.6748
▁Corporación	-10.675
▁distinguir	-10.6751
▁98	-10.6756
▁sa	-10.6758
▁espacial	-10.676
▁66	-10.6761
▁protexer	-10.6766
▁World	-10.6772
▁disolución	-10.6772
▁Prus	-10.6772
▁interesante	-10.6773
▁viax	-10.6775
▁Texas	-10.6775
tbol	-10.678
▁desaparecer	-10.6799
▁mata	-10.6815
▁utilíza	-10.682
▁Prim	-10.6827
▁dividir	-10.6827
▁recinto	-10.6828
▁operativo	-10.6828
▁capita	-10.6835
tado	-10.6837
▁construir	-10.6837
▁molécula	-10.684
▁concepción	-10.6841
▁Maced	-10.6842
▁du	-10.6845
damente	-10.6847
wa	-10.6852
▁coloniza	-10.6857
▁piano	-10.6857
▁orquestra	-10.6862
har	-10.6871
▁debeu	-10.6873
▁triunfo	-10.6883
▁cinema	-10.6886
▁óso	-10.6886
▁longobardo	-10.689
▁permitía	-10.6899
ire	-10.6899
▁coruñ	-10.6906
▁queremos	-10.691
▁Organización	-10.6911
▁punk	-10.6911
▁suxire	-10.6911
▁Suprem	-10.6911
eda	-10.6914
▁rexional	-10.6926
▁155	-10.6929
▁execución	-10.6939
▁profesiona	-10.6942
▁Leonard	-10.6949
▁casar	-10.6954
▁perceber	-10.6958
vamos	-10.6966
▁deportiva	-10.6967
▁habitada	-10.6974
▁Pan	-10.6975
▁asinar	-10.6978
▁82	-10.6979
▁estrea	-10.698
▁Mary	-10.6991
▁tornado	-10.6991
▁Músic	-10.6995
▁imagem	-10.6995
▁soviética	-10.6995
▁índice	-10.6995
▁exemplos	-10.7001
▁abriu	-10.7002
▁médicos	-10.7006
▁165	-10.7007
▁sabem	-10.7007
▁causar	-10.7011
▁tribo	-10.702
▁cumprir	-10.702
▁atómico	-10.7023
▁manuscrito	-10.7023
▁nível	-10.7023
▁canta	-10.7029
▁Forza	-10.7032
▁fez	-10.7032
▁tu	-10.7032
▁xorna	-10.7033
▁vítimas	-10.7035
elas	-10.7035
▁West	-10.7041
M	-10.7053
uel	-10.7053
▁Red	-10.7057
▁loitar	-10.706
rre	-10.7064
▁pirata	-10.7074
▁quinta	-10.708
▁rurais	-10.708
▁predominante	-10.7084
▁viña	-10.7089
▁declarado	-10.7092
▁78	-10.7099
▁ave	-10.7104
▁campesiño	-10.7108
▁individuais	-10.7108
▁milenio	-10.7109
▁infección	-10.7109
▁privada	-10.7109
▁Zara	-10.711
▁procedemento	-10.7113
▁arma	-10.7117
▁vales	-10.7118
laboración	-10.7121
▁gasto	-10.7123
▁superar	-10.7132
▁reprodución	-10.7137
ssem	-10.714
▁iniciar	-10.7141
▁Fú	-10.7143
▁nomeamento	-10.7145
▁1951	-10.7147
▁designado	-10.7149
▁dirixir	-10.7151
▁exp	-10.7153
▁Morre	-10.7153
▁Canto	-10.7157
▁Nela	-10.7161
▁seguía	-10.7161
▁quatro	-10.7166
▁entende	-10.7166
▁medalla	-10.7167
▁sementes	-10.7169
▁Ja	-10.7173
▁xera	-10.7174
▁formaba	-10.7176
▁Gar	-10.7177
▁matar	-10.7178
edo	-10.7183
▁falado	-10.7183
▁Pena	-10.7184
ovia	-10.7187
nacemento	-10.7192
▁crime	-10.7195
▁infant	-10.7205
altar	-10.7208
▁percorre	-10.7214
▁terá	-10.7217
▁mental	-10.7218
▁empeza	-10.7222
▁escribe	-10.7223
▁dedicou	-10.7223
▁gobernamenta	-10.7223
▁apelido	-10.7223
▁candidatura	-10.7223
▁cardea	-10.7224
▁lobo	-10.7224
▁atopaba	-10.7227
▁Vell	-10.7229
▁químicos	-10.7235
▁amosa	-10.7236
▁homem	-10.7237
▁aproveita	-10.7242
▁coro	-10.7249
▁Ham	-10.7256
▁ideal	-10.7257
▁consistente	-10.7261
▁termina	-10.7268
▁cambia	-10.7274
▁dependente	-10.7275
▁Univers	-10.7276
▁lagos	-10.7278
▁explicación	-10.7279
▁Estatuto	-10.7281
▁incendio	-10.7281
▁Deportiv	-10.7281
▁complexos	-10.7283
▁detido	-10.7285
▁Negro	-10.7287
▁propietario	-10.729
▁matemático	-10.7293
▁marcada	-10.7296
▁artes	-10.7304
tán	-10.7307
xustiza	-10.7308
▁descenso	-10.731
▁petición	-10.731
▁Alfred	-10.731
▁ciência	-10.731
▁bóveda	-10.731
▁mineral	-10.7312
erusalé	-10.7314
▁Funda	-10.7318
▁Ví	-10.732
▁poderoso	-10.7326
R	-10.7333
▁periódica	-10.7339
▁tomada	-10.734
▁59	-10.7342
▁Cultura	-10.7348
▁Galile	-10.7348
▁complexa	-10.7355
misión	-10.7357
▁Marro	-10.7357
▁fuxi	-10.7357
▁creador	-10.7363
▁récord	-10.7369
▁herba	-10.7369
▁deportivo	-10.7369
▁arriba	-10.7369
▁diaria	-10.7374
▁traballaba	-10.7376
▁negociación	-10.7377
▁Hill	-10.7383
nés	-10.7388
▁Príncipe	-10.7398
▁ecosistema	-10.7398
▁latitude	-10.7398
▁alberga	-10.7398
▁illote	-10.7398
▁volcánica	-10.7399
▁Ohio	-10.74
▁tiro	-10.7401
▁funcionario	-10.7402
▁portada	-10.7415
▁seca	-10.7418
▁incremento	-10.7421
▁capace	-10.7422
▁beneficios	-10.7425
▁senador	-10.7427
▁asiático	-10.7427
▁vidro	-10.7428
▁Mel	-10.7428
▁Menor	-10.7429
▁Terceir	-10.7429
▁coidado	-10.743
▁Mal	-10.7433
▁laterais	-10.7434
▁absoluto	-10.744
xia	-10.7449
▁suceso	-10.745
nec	-10.745
▁naval	-10.7451
▁intenta	-10.7454
▁tubo	-10.7458
▁colonial	-10.7459
▁servidor	-10.7462
▁Fu	-10.7464
▁Tiña	-10.7464
▁Romaní	-10.7474
▁1912	-10.7479
▁honor	-10.7486
▁médica	-10.7486
▁intentar	-10.7488
▁castelá	-10.749
▁Inter	-10.749
▁editor	-10.7493
▁Banc	-10.7494
▁Florenci	-10.7497
▁fabricante	-10.75
▁Ano	-10.7503
W	-10.7504
▁radical	-10.7507
▁especialista	-10.7507
▁maioria	-10.7511
▁nomeada	-10.7511
▁entrevista	-10.7512
▁regra	-10.7513
senta	-10.7513
▁anua	-10.7515
▁domingo	-10.7516
▁narrativa	-10.7516
▁humor	-10.7517
▁dieta	-10.7517
▁Traballo	-10.7518
▁projeto	-10.7518
▁tarefas	-10.7519
▁Confederación	-10.752
▁homens	-10.7521
▁Mandel	-10.7523
hi	-10.7526
▁61	-10.7527
▁You	-10.7528
▁acompañado	-10.7529
▁Xur	-10.7529
▁pleno	-10.753
▁humanas	-10.7534
▁notas	-10.7536
▁vilas	-10.7544
▁99	-10.7546
▁certeza	-10.7546
xenti	-10.7547
▁neto	-10.7547
▁125	-10.7547
ficou	-10.7551
▁reducido	-10.7552
▁Jo	-10.7555
rie	-10.7556
▁planetas	-10.7558
▁conxunta	-10.7559
iza	-10.7561
▁154	-10.7562
aquia	-10.7562
▁organizado	-10.7572
▁Mesm	-10.7574
▁Antiga	-10.7576
▁National	-10.7576
▁parecer	-10.7579
▁regresar	-10.7579
▁uniforme	-10.7585
▁lanza	-10.7592
▁161	-10.7594
▁acostuma	-10.7597
▁mañá	-10.7606
▁heroe	-10.7606
▁lector	-10.7607
▁temporada	-10.7609
▁armada	-10.7611
▁mundia	-10.7612
▁76	-10.7617
▁visigodo	-10.7618
▁dessa	-10.7621
▁encoro	-10.7625
▁veu	-10.7628
▁estaría	-10.7633
▁Parroquia	-10.7636
▁gótico	-10.7636
▁frente	-10.7636
▁folga	-10.7637
▁colabora	-10.7637
▁Quero	-10.7637
▁xeograf	-10.7648
▁correo	-10.7649
▁Mari	-10.7652
▁lembra	-10.7656
▁foresta	-10.7661
▁viver	-10.7661
▁laboratorio	-10.7666
▁rexeitou	-10.7666
▁Black	-10.7666
▁bolsa	-10.7666
▁Linn	-10.7667
itude	-10.7668
ore	-10.7669
DA	-10.7672
▁escaso	-10.7674
▁Pal	-10.7676
▁Mag	-10.7683
▁Hattus	-10.7696
▁multitude	-10.7696
▁privilexio	-10.7696
▁turista	-10.7696
▁Toronto	-10.7696
▁resistente	-10.7697
▁primario	-10.7698
▁celebrada	-10.7707
▁hum	-10.7712
▁programación	-10.7713
▁Vietnam	-10.7726
▁poderosa	-10.7727
▁Henr	-10.7728
O	-10.7728
▁167	-10.7729
▁masculino	-10.773
erú	-10.7739
▁achado	-10.7742
▁poderá	-10.7744
▁golfo	-10.7745
▁habitua	-10.7745
▁Plan	-10.7746
▁integrante	-10.7746
▁Hispan	-10.7755
▁fila	-10.7756
▁erupción	-10.7757
▁Michel	-10.7758
▁Iso	-10.7758
▁força	-10.7761
ford	-10.7772
▁terminar	-10.7774
NES	-10.7775
rí	-10.7776
▁propux	-10.7777
▁abundan	-10.7777
óxido	-10.7778
tica	-10.7781
▁prop	-10.7783
▁demostrou	-10.7787
▁espectador	-10.7787
▁hemisferio	-10.7787
▁cabe	-10.7789
▁voar	-10.779
▁futura	-10.7792
▁definido	-10.7793
▁meta	-10.7795
▁extra	-10.7797
▁Linu	-10.7803
▁alcanzou	-10.7806
▁Bibli	-10.7814
▁proclamou	-10.7818
▁causou	-10.7818
▁comerciante	-10.7818
▁sucesiva	-10.7818
▁Minne	-10.7818
▁fresco	-10.7818
▁irland	-10.7818
▁masiva	-10.782
▁tentou	-10.782
bert	-10.7822
▁erros	-10.7824
orra	-10.7825
eas	-10.7829
▁construíron	-10.7829
▁caró	-10.7832
▁carbón	-10.7839
▁abandona	-10.7843
▁dano	-10.7843
▁celebra	-10.7843
▁Antigo	-10.7848
▁obtido	-10.7848
▁monxe	-10.7849
▁establecido	-10.7849
▁temática	-10.7849
▁acada	-10.7856
▁vender	-10.7858
▁caminho	-10.7859
▁pago	-10.7859
▁hab	-10.786
▁crista	-10.7861
▁usou	-10.7863
▁Mark	-10.7865
▁mover	-10.787
▁concurso	-10.7876
▁sé	-10.7879
ñez	-10.7879
▁Condado	-10.7879
▁mancha	-10.788
ty	-10.7882
▁pesado	-10.7886
cesto	-10.7891
▁Andalu	-10.7894
▁supera	-10.7898
▁Y	-10.7904
▁aprobou	-10.791
▁distinción	-10.791
▁Ucra	-10.791
▁consoante	-10.791
▁poética	-10.791
F	-10.7914
▁compra	-10.7915
▁93	-10.7916
▁socio	-10.7917
▁reunir	-10.7917
▁obreiro	-10.792
mort	-10.7931
▁carros	-10.7932
▁81	-10.7932
▁fixera	-10.7933
▁pronuncia	-10.7935
▁Galia	-10.794
▁Camiño	-10.7941
▁cerámica	-10.7941
▁cuberto	-10.7941
▁causas	-10.7941
▁Maria	-10.7943
amos	-10.7946
▁92	-10.7947
▁ámb	-10.7948
▁168	-10.795
▁King	-10.7951
▁organizou	-10.7952
únic	-10.7953
▁157	-10.7957
▁críticos	-10.7961
▁coñécese	-10.7962
ós	-10.7963
▁fases	-10.7967
▁Dr	-10.797
▁conquistou	-10.7972
▁polémica	-10.7972
▁reflicte	-10.7972
▁recoñecer	-10.7972
▁Cerv	-10.7977
▁precis	-10.7979
▁Bal	-10.7981
▁prima	-10.7982
▁Territorio	-10.7984
▁audiencia	-10.7988
▁integrado	-10.7991
▁Colle	-10.7994
lín	-10.7998
▁Gregori	-10.8003
▁establecida	-10.8003
▁influente	-10.8003
▁navío	-10.8003
▁restauración	-10.8003
▁destruída	-10.8003
▁himno	-10.8003
▁discípulo	-10.8003
▁estética	-10.8003
▁quince	-10.8004
▁milla	-10.8005
▁organizada	-10.8012
▁fundar	-10.8018
▁usados	-10.8018
bar	-10.8019
▁gravado	-10.8019
▁Bach	-10.8021
▁naquel	-10.8025
▁pobre	-10.8027
▁substituír	-10.8028
▁espectro	-10.8034
▁vendido	-10.8035
▁norteamericana	-10.8036
▁leve	-10.8039
▁homónimo	-10.804
riba	-10.8046
úa	-10.8047
▁eliminar	-10.8048
▁nacionalidade	-10.8065
▁Prag	-10.8067
▁guión	-10.8068
▁pretendía	-10.8069
▁recoñece	-10.8069
chi	-10.8071
▁79	-10.8078
▁incluír	-10.8078
▁Kan	-10.808
riño	-10.8081
▁prato	-10.809
▁gris	-10.8093
▁Vatican	-10.8097
▁descrito	-10.8097
▁conduci	-10.8097
▁avogado	-10.81
▁Bob	-10.8103
▁73	-10.8104
▁Rock	-10.8105
ix	-10.8106
▁preocupación	-10.8108
▁podia	-10.8113
▁té	-10.8117
con	-10.812
▁discusión	-10.8129
▁titular	-10.8129
▁proclama	-10.8132
▁147	-10.8135
▁levada	-10.8141
▁declara	-10.8142
▁tramo	-10.8142
▁Bro	-10.8154
▁estende	-10.8159
▁Iugoslav	-10.816
▁estatuto	-10.816
▁remate	-10.8161
▁herdanza	-10.8161
▁mulher	-10.8161
▁xove	-10.8163
▁proteína	-10.8165
▁tropica	-10.8167
▁arcos	-10.8173
▁87	-10.8174
▁variada	-10.8177
ierre	-10.8183
▁transformar	-10.8183
tero	-10.8185
▁caracteriza	-10.8188
▁Superior	-10.8192
▁discográfica	-10.8192
▁suposta	-10.8193
▁163	-10.8195
▁Gui	-10.8196
▁estendeu	-10.8198
▁Far	-10.8202
▁estudante	-10.8203
▁froita	-10.8205
▁corda	-10.8205
▁Je	-10.8211
otter	-10.8217
▁efectiva	-10.8219
▁apertura	-10.8224
▁Parece	-10.8224
▁contamina	-10.8231
▁arrecife	-10.8239
▁Gra	-10.8242
▁aprendiza	-10.8246
▁visitante	-10.8247
▁polaco	-10.825
K	-10.8251
▁académico	-10.8256
▁incursión	-10.8256
▁extinción	-10.8256
▁Scott	-10.8256
▁balon	-10.8256
▁armado	-10.8257
▁fixéron	-10.8257
▁patente	-10.8257
▁rival	-10.8263
▁Fe	-10.8265
▁visitar	-10.8265
▁perna	-10.8267
mi	-10.8273
▁69	-10.8276
▁existente	-10.8276
▁Juli	-10.8279
▁Ci	-10.8279
▁Vilar	-10.8285
▁escultor	-10.8288
▁Wag	-10.829
ester	-10.829
▁cordas	-10.8292
▁porco	-10.8294
▁Ber	-10.8296
▁expulsado	-10.8296
▁mi	-10.8298
▁mariñeiro	-10.8303
▁interno	-10.8304
▁159	-10.8304
▁Pertence	-10.831
▁asegurar	-10.8316
▁oposto	-10.8319
▁vocalista	-10.8321
▁representada	-10.8324
▁salvar	-10.8324
▁atopába	-10.8326
▁Art	-10.8327
▁oral	-10.8329
▁vertical	-10.8333
▁privado	-10.8334
▁Par	-10.8344
▁nacer	-10.8344
▁sentimento	-10.8348
▁rol	-10.8351
▁bebida	-10.8352
▁ONU	-10.8353
ware	-10.8354
▁densa	-10.8358
▁sext	-10.8365
▁89	-10.8367
▁84	-10.8367
▁algué	-10.8368
▁Podem	-10.837
▁intentou	-10.837
▁Prat	-10.8371
▁coloca	-10.8374
▁queixo	-10.8377
▁intelixen	-10.8378
▁ningué	-10.8378
▁voce	-10.8383
▁Particip	-10.8385
▁decoración	-10.8385
▁instituto	-10.8385
▁persecución	-10.8385
▁chineses	-10.8385
▁Fronte	-10.839
▁Luc	-10.8398
izar	-10.8407
▁vector	-10.8407
▁millo	-10.8408
▁fosse	-10.8409
▁Florida	-10.8417
▁substitución	-10.8417
▁pares	-10.8418
▁hard	-10.8422
▁Karl	-10.8424
▁drogas	-10.8426
▁adoptar	-10.8426
FC	-10.8432
▁gravou	-10.8433
MS	-10.8435
goza	-10.8438
▁cura	-10.8439
▁Tor	-10.8439
▁complexidade	-10.845
▁éuscar	-10.845
▁sim	-10.8458
▁conca	-10.8462
▁preparar	-10.8471
▁Beta	-10.8473
▁organiza	-10.8475
▁Pin	-10.8476
▁Cela	-10.8478
▁combina	-10.848
▁centímetro	-10.8483
▁climática	-10.8483
▁terremoto	-10.8483
▁Ven	-10.8483
▁consciente	-10.8483
▁Am	-10.8484
▁gramática	-10.8485
▁Armeni	-10.8487
▁violenta	-10.8488
▁configuración	-10.8489
▁fazemos	-10.8489
diz	-10.8494
▁91	-10.8498
▁dispositivo	-10.8507
▁promove	-10.8509
▁escritora	-10.851
▁pasaba	-10.8512
▁Rose	-10.8514
▁Colomb	-10.8515
▁aniversario	-10.8515
▁hebreo	-10.8515
▁paxaro	-10.8515
▁románico	-10.8515
▁favorece	-10.8517
ord	-10.853
▁rico	-10.8542
▁nazi	-10.8544
▁dispó	-10.8544
ata	-10.8544
▁Británica	-10.8548
▁Indonesia	-10.8548
ío	-10.855
▁Carme	-10.8556
▁Burgo	-10.8557
▁agrícolas	-10.856
▁demostrar	-10.8566
▁vencer	-10.8569
▁mostran	-10.857
▁88	-10.8572
aribe	-10.8575
▁baix	-10.8576
▁revela	-10.8578
ñón	-10.8581
▁oferta	-10.8581
▁firme	-10.8581
▁Croa	-10.8582
marck	-10.8582
▁Compañ	-10.8586
▁dispositivos	-10.8589
▁declarada	-10.8589
▁designar	-10.859
▁Alm	-10.8593
▁presas	-10.8597
▁débeda	-10.86
▁xapones	-10.8601
▁Bela	-10.8602
▁produci	-10.8602
ulf	-10.8603
tem	-10.8605
▁espécie	-10.8611
▁Granad	-10.8612
▁marea	-10.8614
▁contemporánea	-10.8614
▁amarela	-10.8614
▁Conferencia	-10.8615
▁traxectoria	-10.8615
▁Vallad	-10.8616
▁conclusión	-10.8617
▁cero	-10.8619
▁vital	-10.8619
▁manga	-10.862
▁rotación	-10.8627
▁Lemo	-10.8631
▁passar	-10.8634
▁feira	-10.8637
ibr	-10.8645
▁defensor	-10.8648
▁externo	-10.8648
▁mostrou	-10.8648
▁recuperou	-10.8648
▁síntoma	-10.8648
▁compromiso	-10.8648
▁Saint	-10.8648
▁receptor	-10.8652
▁profundamente	-10.8658
▁sétim	-10.8659
▁dixital	-10.866
▁andar	-10.867
▁escapar	-10.8675
▁própria	-10.8681
▁refuxio	-10.8681
▁asemblea	-10.8681
▁constitucional	-10.8681
▁milhar	-10.8683
▁flor	-10.8686
▁tra	-10.8691
▁editorial	-10.8693
▁sobriño	-10.8702
▁incorpora	-10.8705
▁contou	-10.8705
▁110	-10.8706
▁participante	-10.871
▁úsa	-10.8713
▁Educa	-10.8714
▁Columbia	-10.8716
▁Newton	-10.8717
▁característico	-10.8718
▁tira	-10.8718
▁Ze	-10.8719
▁140	-10.872
▁97	-10.8721
erra	-10.8723
▁lanzar	-10.8727
▁equipa	-10.8728
▁86	-10.8728
▁148	-10.873
▁ref	-10.8734
▁diferença	-10.8748
▁guerreiro	-10.8748
▁marítima	-10.8748
▁móbil	-10.8748
▁Lourenz	-10.8748
▁contorna	-10.8748
▁princesa	-10.8748
▁refire	-10.8748
▁cadeira	-10.8749
▁Libro	-10.8749
▁colectivo	-10.8754
▁rocha	-10.8755
▁Nicola	-10.8756
▁Tiv	-10.8762
▁serbio	-10.8764
▁xer	-10.8766
▁aplicar	-10.8772
▁Chris	-10.8776
▁étnico	-10.8782
▁talento	-10.8782
▁convertéron	-10.8784
▁tenda	-10.8784
▁posso	-10.8785
▁sucede	-10.8788
▁chea	-10.8792
ger	-10.8793
▁rexiona	-10.8794
▁computadores	-10.8794
▁Verde	-10.8798
▁Letr	-10.8808
▁historic	-10.8811
▁axudou	-10.8815
▁bóla	-10.8815
▁xeometría	-10.8815
▁Smith	-10.8816
▁orixinaria	-10.8819
▁Ka	-10.8823
▁Ferro	-10.8823
▁74	-10.8824
▁contraste	-10.8826
▁tivese	-10.8827
ónico	-10.8829
▁Darí	-10.8831
izado	-10.8834
▁Vermello	-10.8838
▁singular	-10.8844
mb	-10.8844
iño	-10.8845
▁devandito	-10.8849
▁estranxeira	-10.8849
▁segredo	-10.8849
▁progresiva	-10.8849
▁vitamina	-10.8849
▁afirmou	-10.8849
yo	-10.8851
curso	-10.8852
▁reducida	-10.8853
▁federación	-10.8856
▁iniciais	-10.8858
▁fina	-10.8859
▁correr	-10.886
▁Lingua	-10.8861
▁mencionado	-10.8866
nzos	-10.8867
▁descenden	-10.8875
▁Ti	-10.8876
▁salva	-10.8881
▁Celta	-10.8885
▁fame	-10.8886
▁Rena	-10.8886
adas	-10.8888
▁accede	-10.8889
▁Star	-10.8894
▁Jer	-10.8898
▁XXI	-10.8911
NT	-10.8913
▁decidi	-10.8913
▁comunica	-10.8914
▁Sebasti	-10.8917
▁parecido	-10.8917
▁impresión	-10.8918
iam	-10.892
▁constituíu	-10.892
▁facían	-10.8921
▁Love	-10.8922
fu	-10.8923
▁terrorista	-10.8924
▁146	-10.8924
▁Nel	-10.8925
▁Alp	-10.893
▁indicar	-10.8939
rais	-10.8942
▁controversia	-10.8952
▁jazz	-10.8952
▁progreso	-10.8952
▁astronom	-10.8952
▁eficaz	-10.8952
▁levantamento	-10.8953
▁Williams	-10.8954
▁sob	-10.8958
▁regresa	-10.8963
▁US	-10.8965
▁Ull	-10.8965
vy	-10.8971
uxe	-10.8977
▁prisioneiros	-10.8977
▁migración	-10.8981
▁celebrar	-10.8983
▁Precisa	-10.8986
▁Mozart	-10.8986
▁décimo	-10.8986
▁escollido	-10.8986
▁constituído	-10.8994
▁igualdade	-10.8996
▁Daco	-10.8998
▁obtén	-10.9
▁derivada	-10.9011
▁prestixio	-10.9019
▁Hospital	-10.9021
▁Gó	-10.9022
▁numera	-10.9026
▁pano	-10.9028
▁peor	-10.9029
▁síntese	-10.903
▁pacientes	-10.9032
lianza	-10.9034
▁He	-10.904
nal	-10.9045
▁Tint	-10.9046
fianza	-10.9055
▁cromosoma	-10.9055
▁Independenc	-10.9055
▁doutor	-10.9056
▁desembocadura	-10.9057
▁Humanidade	-10.9059
▁corredor	-10.9066
▁conseguimos	-10.9067
eto	-10.907
▁poderia	-10.9077
▁referend	-10.9082
ssemos	-10.9085
▁significativo	-10.9086
▁enfermo	-10.909
▁esfera	-10.909
▁soporta	-10.909
▁Fran	-10.9095
▁Mate	-10.9095
▁responder	-10.9096
▁depresión	-10.9097
▁ninguém	-10.9097
taneamente	-10.9099
▁Valde	-10.9106
▁esperar	-10.9109
▁Ru	-10.9109
my	-10.911
ivo	-10.9113
▁conversa	-10.9115
▁atopá	-10.9118
torio	-10.9119
▁acceder	-10.9119
enezuela	-10.912
▁afecta	-10.9121
ação	-10.9123
tt	-10.9123
▁SI	-10.9123
▁tocou	-10.9125
▁cemiterio	-10.9125
▁enteira	-10.9125
▁Bernard	-10.9125
▁Sabe	-10.9136
▁145	-10.9136
▁granito	-10.9138
▁diferencia	-10.9148
bre	-10.9154
▁Fil	-10.9156
▁clasificar	-10.9159
18	-10.916
▁carballo	-10.916
▁xermánica	-10.916
▁simul	-10.916
▁adestramento	-10.916
▁medra	-10.9161
olid	-10.9162
▁169	-10.9162
▁Wind	-10.9167
ft	-10.9168
lmente	-10.917
▁datan	-10.9171
▁vê	-10.9176
▁detalles	-10.9177
▁som	-10.9181
tei	-10.9191
▁Rexión	-10.9195
▁mantiña	-10.9195
▁mención	-10.9196
▁Sanch	-10.9209
rán	-10.9221
▁viaxar	-10.9224
▁ferida	-10.923
▁livro	-10.923
▁Hol	-10.9231
▁Sou	-10.9238
▁lento	-10.9238
▁orientación	-10.9255
mez	-10.9263
▁ascende	-10.9263
▁congreso	-10.9265
▁subespecie	-10.9265
▁gusto	-10.9265
▁considerou	-10.9265
▁ensinar	-10.9267
▁raro	-10.927
▁agr	-10.927
inho	-10.9274
com	-10.9284
▁separar	-10.9285
▁flora	-10.9291
▁tende	-10.9298
▁xurdir	-10.9298
▁Music	-10.9299
▁educativo	-10.9301
▁iguais	-10.9301
▁amarelo	-10.9301
▁perfecta	-10.9301
▁Darwin	-10.9301
▁Stalin	-10.9301
▁ru	-10.9303
ónica	-10.9304
▁rexistrada	-10.9305
▁negocio	-10.9306
▁conciencia	-10.9307
uga	-10.9309
▁facilidade	-10.9309
▁africana	-10.9312
▁conservan	-10.9317
▁Patt	-10.9322
▁enfrontar	-10.9325
▁descrita	-10.9336
▁reloxo	-10.9336
▁teórico	-10.9336
▁Concili	-10.9336
▁embaixador	-10.9337
▁aceptar	-10.934
▁mecanismos	-10.9346
▁filhos	-10.9349
▁defende	-10.9352
▁celebrado	-10.9353
▁otomán	-10.9357
▁Tem	-10.9358
col	-10.9359
▁Kent	-10.9365
$	-10.9372
▁protexido	-10.9372
▁imposible	-10.9372
▁elite	-10.9375
▁Carta	-10.9377
dro	-10.9378
▁Estudo	-10.9379
▁radica	-10.9379
▁pechado	-10.9381
▁Jack	-10.9386
▁Arz	-10.9388
▁estea	-10.939
▁manifesta	-10.9396
▁Ser	-10.9398
▁fiz	-10.9406
▁custos	-10.9407
¿	-10.9408
▁reconstrución	-10.9408
▁Lenin	-10.9408
▁periódico	-10.9408
▁Segui	-10.9408
▁micro	-10.9409
▁referente	-10.9412
▁biolox	-10.9424
rían	-10.9428
▁ajuda	-10.9429
▁substituí	-10.9429
nha	-10.9429
▁negou	-10.9444
▁comp	-10.9445
▁ad	-10.9446
▁equipamento	-10.9448
▁sair	-10.9451
▁Carball	-10.9453
▁satélite	-10.9458
▁Chan	-10.9461
▁negocios	-10.9474
je	-10.9474
▁exercer	-10.9475
▁rendemento	-10.948
▁mudanza	-10.948
▁escavación	-10.9484
▁começa	-10.9487
▁Web	-10.9489
▁centena	-10.9489
▁observa	-10.9495
▁copia	-10.9496
▁Nil	-10.9498
one	-10.9505
▁Abu	-10.9508
sota	-10.951
oga	-10.951
iva	-10.9513
▁experimental	-10.9514
▁economia	-10.9516
▁permiso	-10.9516
▁aparencia	-10.9516
▁Ás	-10.9516
▁cantiga	-10.9516
▁Movement	-10.9516
U	-10.9518
▁oración	-10.9523
▁electo	-10.9525
▁xornada	-10.9528
vel	-10.9535
alvez	-10.9542
iu	-10.9548
ko	-10.9552
▁derradeira	-10.9553
▁débil	-10.9553
▁provavelmente	-10.9553
▁vaso	-10.9553
▁conquistar	-10.9555
▁Bel	-10.9557
▁Aparece	-10.9558
▁pechada	-10.9558
▁cabal	-10.9561
▁designa	-10.9561
▁fornece	-10.9567
▁1880	-10.9569
▁denuncia	-10.9575
▁Secretari	-10.9581
▁momentos	-10.9583
▁térmica	-10.9589
▁téxtil	-10.9589
▁Mondoñedo	-10.9589
raft	-10.959
▁puro	-10.9593
illa	-10.9596
▁gr	-10.9616
ral	-10.9621
▁cabeceira	-10.9626
▁imagens	-10.9626
▁músculo	-10.9626
▁enterrado	-10.9626
▁larva	-10.9626
▁xuven	-10.9626
▁Defens	-10.9626
▁graxa	-10.9626
▁Bri	-10.9628
▁moza	-10.963
▁cuántic	-10.9631
▁deulle	-10.9638
▁preparación	-10.9639
▁darlle	-10.964
▁tivera	-10.9642
▁simplesmente	-10.9645
ambém	-10.9662
▁Rosal	-10.9662
▁Posúe	-10.9662
▁Você	-10.9662
▁virtude	-10.9662
▁Luxemburg	-10.9663
ária	-10.9666
▁quedaba	-10.9666
▁finalidade	-10.9666
▁instrución	-10.9667
▁diminuí	-10.9668
▁relativo	-10.9673
▁sombra	-10.9674
nça	-10.9676
▁engadir	-10.9679
colm	-10.9681
▁Tri	-10.9684
ablo	-10.9697
▁Poder	-10.9699
▁aéreo	-10.9699
▁conduta	-10.9699
▁lexislativo	-10.9699
▁sílaba	-10.9699
▁vacina	-10.9699
▁Ecua	-10.9699
▁Índic	-10.9699
▁Basil	-10.97
▁romance	-10.9705
▁PP	-10.9715
▁Sul	-10.9719
oven	-10.9721
,2	-10.9721
▁We	-10.9722
ecia	-10.9731
▁recurso	-10.9734
▁arxentino	-10.9736
▁marítimo	-10.9736
▁pantalla	-10.9736
▁pacto	-10.9737
▁Braga	-10.9737
▁causada	-10.9743
▁afastado	-10.9744
▁tesouro	-10.9745
▁afectada	-10.9748
ier	-10.9752
▁transforma	-10.9755
▁aquele	-10.9756
▁realizadas	-10.9762
olinesia	-10.9766
▁acompaña	-10.9769
▁nomeou	-10.9771
▁afirmación	-10.9773
▁Iraq	-10.9773
▁austríaco	-10.9774
▁contorno	-10.9774
▁fui	-10.9774
▁ficheiro	-10.9774
▁visitou	-10.9774
▁algum	-10.9776
▁casca	-10.978
atrimonio	-10.9781
▁mão	-10.9782
▁Pres	-10.9783
▁Amai	-10.9785
min	-10.9787
mán	-10.9787
▁Rai	-10.9793
▁catalá	-10.9793
iña	-10.9797
▁dedicar	-10.98
ki	-10.98
▁autoestrada	-10.9802
▁graves	-10.9807
ov	-10.981
▁devandita	-10.9811
▁peregrino	-10.9811
▁contiña	-10.9811
ctuou	-10.9811
▁dici	-10.9816
▁piso	-10.9827
▁Ce	-10.9827
▁ricos	-10.983
▁rapa	-10.983
finada	-10.9836
▁Bor	-10.9836
pía	-10.9838
▁ab	-10.9847
▁consistía	-10.9848
▁descoñecido	-10.9848
▁costeira	-10.985
▁básicos	-10.9858
cemento	-10.9859
liberación	-10.9867
▁integrada	-10.9868
▁orgánica	-10.9872
▁procesa	-10.9873
▁Let	-10.9878
lho	-10.9883
zi	-10.9884
▁DVD	-10.9886
▁intelectuais	-10.9886
▁protocolo	-10.9886
▁constituída	-10.9886
cadencia	-10.9886
▁Nalgún	-10.9886
qu	-10.9887
▁vigor	-10.9887
▁Quir	-10.9888
▁axente	-10.9888
▁Estrada	-10.989
▁opera	-10.989
▁criança	-10.9891
▁ouvir	-10.9892
tina	-10.9892
kin	-10.9893
▁substituída	-10.9895
▁isótopo	-10.9895
▁modernas	-10.9897
▁destacada	-10.9902
▁cova	-10.9905
▁comando	-10.9906
forte	-10.9914
▁atracción	-10.9916
▁Be	-10.992
▁diplomático	-10.9924
▁exercicio	-10.9924
▁universitario	-10.9924
▁informática	-10.9924
▁Palma	-10.9926
▁feminista	-10.9926
abria	-10.9927
▁tentativa	-10.993
▁rodeada	-10.993
▁elevación	-10.993
▁extenso	-10.9934
ificación	-10.9937
attle	-10.9944
▁taxas	-10.9947
▁Xusti	-10.9951
▁deusa	-10.9952
▁Arou	-10.9954
▁plantación	-10.9959
▁Salaman	-10.9961
▁alcume	-10.9962
▁franquista	-10.9962
▁desastre	-10.9962
mais	-10.9965
▁lixeiro	-10.9966
▁94	-10.9969
▁ocasional	-10.997
▁Garda	-10.997
▁instalar	-10.9973
▁Món	-10.9973
▁rodeado	-10.9975
▁concedeu	-10.9981
▁vela	-10.9986
úpiter	-11
▁Google	-11
▁sometido	-11
▁gráfica	-11
▁inspiración	-11.0002
▁melhores	-11.0003
▁Roch	-11.0003
▁Pobr	-11.0009
▁átomo	-11.0012
▁abade	-11.0012
▁Templ	-11.0013
▁afeccionado	-11.0016
▁histórias	-11.0017
▁adopta	-11.0026
▁Isa	-11.0026
eiga	-11.0026
▁mantí	-11.003
▁Alba	-11.0034
▁dependen	-11.0034
▁Teodor	-11.0036
▁incluíu	-11.0038
▁obrigou	-11.0038
▁Modern	-11.0038
▁exame	-11.0038
▁Ricard	-11.0039
▁ac	-11.0047
▁estudoso	-11.0048
festival	-11.0049
▁quais	-11.0049
posición	-11.0055
▁inspirado	-11.0056
▁constantemente	-11.0057
▁Live	-11.0061
▁fun	-11.0066
▁nucleares	-11.0069
▁aproveitar	-11.0072
▁Grand	-11.0076
▁cúpula	-11.0076
▁carto	-11.0077
▁Vega	-11.0079
▁queria	-11.008
▁American	-11.0083
▁recibido	-11.0083
▁Praz	-11.0084
pita	-11.0085
▁cruza	-11.0086
ff	-11.0086
▁islam	-11.0092
▁Señora	-11.0095
ber	-11.0099
▁mo	-11.0101
ntar	-11.0113
atedral	-11.0113
▁System	-11.0114
▁cincuenta	-11.0114
▁epidemia	-11.0114
▁lesión	-11.0115
▁Jordan	-11.0115
▁linha	-11.0115
▁explorar	-11.0118
▁condena	-11.0119
▁moda	-11.0122
▁molecular	-11.0122
oubo	-11.0125
▁Já	-11.0127
▁900	-11.0127
lfo	-11.0129
▁83	-11.0132
▁vendeu	-11.0134
▁alga	-11.0134
▁ferramenta	-11.0134
▁passa	-11.0143
ándo	-11.0144
landi	-11.0144
▁salvo	-11.0151
▁Ge	-11.0151
▁coral	-11.0152
ima	-11.0152
iteratura	-11.0153
▁Aristóteles	-11.0153
▁biolóxica	-11.0153
▁realíza	-11.0153
▁agrupación	-11.0154
▁br	-11.0154
▁comprar	-11.0155
▁ce	-11.0158
▁Boy	-11.0158
▁exploración	-11.016
▁tomando	-11.016
ther	-11.0169
▁EP	-11.0173
▁Villa	-11.0178
ong	-11.0183
▁presa	-11.0187
▁mala	-11.019
▁din	-11.0191
▁Edward	-11.0192
▁atentado	-11.0192
▁descoñecida	-11.0192
▁lexislación	-11.0192
▁precursor	-11.0192
▁primitivo	-11.0192
▁xeográfico	-11.0192
▁Colón	-11.0192
▁VIH	-11.0193
▁desafio	-11.0195
▁conselleiro	-11.0198
▁Católico	-11.0198
lhes	-11.0198
▁asistencia	-11.0199
▁doença	-11.0201
▁dinámica	-11.0202
▁expuls	-11.0203
▁elixir	-11.0204
operación	-11.0207
ticamente	-11.0211
olo	-11.0214
▁Cultural	-11.022
▁presentado	-11.0221
ib	-11.0224
▁cego	-11.0226
▁manteñ	-11.023
nicialmente	-11.023
▁emisora	-11.0231
▁democrático	-11.0231
▁groso	-11.0231
▁Estamo	-11.0232
▁sensación	-11.0232
▁Ángel	-11.0233
▁interpreta	-11.0234
▁falaba	-11.0235
▁etnia	-11.0237
prendeu	-11.024
▁clasificado	-11.0245
▁Cant	-11.0247
▁Estaba	-11.025
▁top	-11.0258
▁palavra	-11.0258
▁adquirir	-11.0258
▁Fai	-11.0259
▁Foro	-11.0259
fica	-11.0263
ent	-11.0268
▁metálico	-11.027
▁responsábe	-11.027
▁tormenta	-11.027
▁Risa	-11.027
▁Royal	-11.0271
▁Adolf	-11.0275
crist	-11.0277
pón	-11.028
▁mantendo	-11.0281
CO	-11.0282
▁atrae	-11.0283
▁resultante	-11.0291
▁levando	-11.0292
▁fol	-11.0294
bur	-11.0295
▁Rod	-11.0297
▁governo	-11.0298
▁Gil	-11.0298
▁básico	-11.0299
▁CA	-11.03
▁Estou	-11.03
ovo	-11.0302
▁vira	-11.0304
▁Dela	-11.0305
▁etiqueta	-11.0309
▁primitiva	-11.0309
▁cómpre	-11.031
▁Bulga	-11.031
ápol	-11.0312
▁Souto	-11.0312
▁axentes	-11.0312
▁estima	-11.0314
▁cedo	-11.0321
▁Europeo	-11.0326
▁mito	-11.0327
▁PC	-11.0337
▁Vida	-11.034
grado	-11.0343
ulo	-11.0343
▁medrar	-11.0344
▁Física	-11.0348
▁lateral	-11.0348
▁censura	-11.0348
▁nativa	-11.0349
▁salvaxe	-11.0351
▁avanzada	-11.0355
▁ligada	-11.0359
▁mandou	-11.0363
▁completar	-11.0363
▁atoparon	-11.0365
▁Clar	-11.0368
▁sexua	-11.0368
▁adoitaba	-11.0375
▁121	-11.0376
▁capturado	-11.0381
▁firma	-11.0382
▁Pre	-11.0383
▁Departamento	-11.0388
▁molusco	-11.0388
▁cárcere	-11.0388
▁fála	-11.0388
osfera	-11.0388
▁Distrito	-11.0388
▁instalou	-11.0389
▁estreou	-11.0389
▁paralela	-11.039
▁Orle	-11.0392
▁evita	-11.0396
▁narra	-11.0402
▁representaba	-11.0404
▁alteración	-11.0405
ável	-11.0409
▁lo	-11.0422
▁aventuras	-11.0422
▁orzamento	-11.0428
▁tripulación	-11.0428
▁eficiente	-11.0428
▁início	-11.0428
▁incidente	-11.0429
▁húngaro	-11.0431
▁empresario	-11.0431
▁acento	-11.0435
▁apoia	-11.0435
▁semella	-11.0437
▁Volta	-11.0438
▁illada	-11.0444
▁contan	-11.0455
ux	-11.0455
▁cama	-11.046
▁naquele	-11.0462
▁conjunto	-11.0467
▁filosófica	-11.0467
▁Babil	-11.0468
▁imposto	-11.0468
▁correspondencia	-11.0473
▁describiu	-11.0474
▁responde	-11.0474
▁Redond	-11.0476
▁soño	-11.048
▁falla	-11.0484
▁Español	-11.0485
▁Señor	-11.0504
esta	-11.0505
▁destruído	-11.0507
▁fonema	-11.0507
▁intervalo	-11.0507
▁pendente	-11.0507
▁cinematográfica	-11.0508
▁Moore	-11.0508
▁fazê	-11.0508
▁alcohol	-11.0509
▁financeiro	-11.051
▁cheo	-11.051
▁desenvolvimento	-11.051
▁asedio	-11.051
▁Libre	-11.0512
ubi	-11.052
▁realizan	-11.0522
bro	-11.0529
stonia	-11.0532
▁citado	-11.0534
xía	-11.0535
▁115	-11.0538
▁Toqu	-11.0539
▁testa	-11.0543
▁diálogo	-11.0548
▁marxista	-11.0548
▁semifina	-11.0548
▁cloruro	-11.0548
▁Super	-11.0549
▁saga	-11.0549
▁Duque	-11.055
▁Colexio	-11.0555
▁lunar	-11.0556
▁colaborar	-11.056
▁pasaxe	-11.0561
▁observador	-11.0561
▁introducir	-11.0563
▁Lord	-11.0569
▁sequer	-11.057
▁dicía	-11.0578
mbra	-11.0579
▁parecen	-11.0587
▁bombardeo	-11.0588
fauna	-11.0589
▁liberado	-11.0589
▁carlista	-11.0589
▁inaugura	-11.059
▁orixinario	-11.059
▁especializada	-11.059
▁querem	-11.0591
▁Comeza	-11.0591
▁perdido	-11.0592
▁Feli	-11.0593
▁animación	-11.0594
nder	-11.0594
clive	-11.0595
▁Home	-11.0596
▁prosa	-11.0597
▁renuncia	-11.0598
▁combater	-11.0608
evento	-11.0613
▁invadi	-11.0616
riz	-11.0616
▁serven	-11.0618
▁interpretar	-11.0624
▁sobrevivir	-11.0627
imburg	-11.0627
▁esquerdo	-11.0628
▁Mike	-11.063
▁amante	-11.0637
▁casamento	-11.0638
▁Paso	-11.0639
▁realista	-11.0642
▁solares	-11.065
▁fotos	-11.0651
▁rodea	-11.0653
▁musulmá	-11.0654
▁Televisió	-11.0656
▁CO	-11.066
▁Sof	-11.066
▁fa	-11.0668
▁Gallego	-11.0669
▁Massachus	-11.0669
▁paquete	-11.0669
▁Brown	-11.0669
▁arroz	-11.0669
▁localíza	-11.0669
▁esencia	-11.067
▁rosa	-11.067
▁colegas	-11.0675
▁criterios	-11.0678
▁pintores	-11.069
ónimo	-11.069
▁cruzar	-11.0693
▁criado	-11.0696
▁corent	-11.0698
art	-11.0698
ún	-11.0708
▁Aeroporto	-11.071
▁ligazón	-11.071
▁ducado	-11.071
▁semellanza	-11.0711
▁desprazamento	-11.0712
▁perdas	-11.0714
▁nazis	-11.0714
▁derrot	-11.0716
mit	-11.0725
▁vasalo	-11.0726
rama	-11.0729
▁definitivo	-11.0732
▁Montes	-11.0733
▁FI	-11.0738
▁serio	-11.0748
▁tropicais	-11.0748
▁Gallega	-11.0751
▁eclesiástica	-11.0751
▁incorporou	-11.0751
▁descobrir	-11.0751
▁Cook	-11.0751
▁cordilleira	-11.0751
woo	-11.0754
▁Festa	-11.0754
▁africanos	-11.0756
▁recta	-11.0759
▁renova	-11.076
made	-11.076
▁impedir	-11.0763
▁aceptada	-11.0769
awa	-11.0771
▁cria	-11.0772
▁clientes	-11.0779
▁reputa	-11.0789
▁Británico	-11.0792
▁single	-11.0792
▁mocidade	-11.0792
▁substituíu	-11.0793
▁recollida	-11.0793
▁Irá	-11.0798
▁ocupan	-11.0799
▁altera	-11.08
▁alimentar	-11.0801
▁Master	-11.0806
▁futbolista	-11.0812
▁Piñeiro	-11.0816
▁conversión	-11.0816
▁matemáticos	-11.0817
▁estancia	-11.0822
▁350	-11.0825
▁explosión	-11.0833
▁aliaxe	-11.0834
▁publicidade	-11.0835
▁cans	-11.0837
▁Ter	-11.0837
▁nega	-11.0838
▁eventual	-11.0841
ganist	-11.0842
▁colectiva	-11.0846
inha	-11.0848
▁Gro	-11.0852
▁faría	-11.0856
▁Case	-11.0861
▁Persi	-11.0863
▁respondeu	-11.0864
▁menciona	-11.0865
ows	-11.0866
▁pole	-11.0869
ylan	-11.0873
▁belga	-11.0875
▁Roger	-11.0876
▁abarca	-11.0876
▁Carr	-11.0878
▁Ab	-11.0879
vose	-11.0881
▁anaco	-11.0881
▁Tol	-11.0881
ly	-11.0882
▁corresponden	-11.0884
▁desemboca	-11.089
▁coincidi	-11.0893
▁Deputado	-11.0897
▁liñaxe	-11.0897
▁Scho	-11.0898
▁conservador	-11.0902
ofre	-11.0904
▁asisti	-11.0913
▁Igual	-11.0917
▁regato	-11.0917
▁favorable	-11.0917
▁importa	-11.0918
▁TED	-11.0919
▁debida	-11.0919
▁Reg	-11.0919
▁quixo	-11.0921
▁concesión	-11.0925
▁casado	-11.0927
▁ocorrer	-11.0937
▁sabia	-11.0937
▁empregou	-11.0937
▁Vive	-11.0939
▁Bell	-11.0944
▁ilumina	-11.0949
▁Wall	-11.0949
▁competir	-11.095
▁gra	-11.0957
▁tabaco	-11.0958
▁modalidade	-11.0958
▁faraón	-11.0958
tismo	-11.0961
▁Social	-11.0962
▁Ovi	-11.0971
▁Bilba	-11.0972
j	-11.0973
▁Colonia	-11.0974
ntario	-11.0981
era	-11.099
▁ofensiva	-11.0991
▁compoñen	-11.0993
▁subir	-11.0996
llón	-11.0997
▁arquitectónico	-11.1
▁húmida	-11.1
▁intenso	-11.1001
▁Cartag	-11.1002
▁casco	-11.1002
▁Preto	-11.1008
▁óxido	-11.1013
▁conforman	-11.1016
▁mono	-11.1016
▁ataca	-11.1023
▁gol	-11.1024
▁afectado	-11.1025
▁Blanco	-11.1027
ka	-11.1032
▁danza	-11.1039
viera	-11.104
▁ruptura	-11.1043
▁innovación	-11.1043
▁Xeneral	-11.1043
▁recibía	-11.1043
▁Fried	-11.1043
▁efeito	-11.1045
▁Airb	-11.1046
▁irá	-11.1047
▁cantar	-11.1048
▁Bi	-11.105
▁promover	-11.1051
▁Parte	-11.1059
ke	-11.1062
▁haver	-11.1063
▁india	-11.1077
▁minuto	-11.1081
▁partícula	-11.1081
▁Xer	-11.1082
▁Pireneo	-11.1085
▁vestixio	-11.1085
▁Gustav	-11.1085
▁pensei	-11.1085
▁comité	-11.1085
▁espiritual	-11.1086
▁Big	-11.1086
▁Borbón	-11.1087
▁Bie	-11.1089
▁teclado	-11.109
▁xerar	-11.109
▁Tralo	-11.1091
úas	-11.1092
▁Pobo	-11.1094
▁foco	-11.1094
aíña	-11.1094
▁consideración	-11.1104
▁domina	-11.1104
▁declarar	-11.1105
▁Green	-11.1112
▁Ros	-11.1114
lona	-11.1118
▁Lu	-11.1126
▁Connect	-11.1128
▁Filosof	-11.1128
▁célebre	-11.1128
▁Goya	-11.1128
▁ética	-11.1128
▁facultade	-11.1128
▁dentes	-11.1128
▁Lim	-11.113
ancia	-11.1131
▁começou	-11.1135
▁feliz	-11.1139
estamento	-11.1142
▁mestra	-11.1142
▁apoiado	-11.1144
▁transmitir	-11.1147
▁ví	-11.1151
▁Arabi	-11.1151
▁rexistrado	-11.1153
▁aboli	-11.1155
▁forno	-11.1162
▁habita	-11.1164
▁illado	-11.1169
ington	-11.1169
▁estatística	-11.117
▁ábsida	-11.117
▁cunca	-11.1181
▁Roll	-11.1181
empre	-11.1182
▁Liber	-11.1184
▁pá	-11.1188
▁conter	-11.1191
▁Teñ	-11.1192
▁Bea	-11.1196
▁aprobada	-11.1196
▁Hom	-11.1203
▁Queens	-11.1204
▁ofrecer	-11.1205
▁rapaz	-11.121
ruguai	-11.1213
▁Antártida	-11.1213
▁ateniense	-11.1213
▁chumbo	-11.1213
▁tamanho	-11.1213
▁tarxeta	-11.1213
▁estrita	-11.1213
▁relação	-11.1213
thur	-11.1213
▁cabeça	-11.1214
able	-11.1214
▁Esparta	-11.1214
▁Cinc	-11.1216
▁moderado	-11.1218
anto	-11.1223
▁científicas	-11.1223
▁127	-11.1228
▁Rin	-11.1231
▁Tradicional	-11.1233
▁sitúan	-11.1234
▁conseguem	-11.1236
▁relevan	-11.1236
▁128	-11.124
▁Negra	-11.124
▁comedia	-11.1242
▁Cald	-11.1243
▁olhos	-11.1246
▁conecta	-11.1247
▁mercados	-11.1256
▁asteroide	-11.1256
▁módulo	-11.1256
▁invención	-11.1256
▁dizem	-11.1256
▁telescopio	-11.1256
▁potente	-11.1257
icut	-11.1257
▁próprio	-11.1262
mas	-11.1264
▁asegura	-11.1273
▁pontes	-11.1276
▁principado	-11.1279
▁cortes	-11.1293
quilo	-11.1295
▁calci	-11.1297
▁Autónoma	-11.13
▁lírica	-11.13
▁tínhamo	-11.13
▁Militar	-11.1301
▁parlamentaria	-11.1302
doro	-11.1302
▁sinala	-11.1303
▁restrición	-11.1306
▁Stan	-11.1309
▁Nar	-11.1309
▁Mellor	-11.1311
▁tirada	-11.1312
▁Joe	-11.1315
ilu	-11.1316
adores	-11.1317
▁Mac	-11.1317
▁Obrigad	-11.1319
▁tráta	-11.1329
▁Saturn	-11.1337
▁possa	-11.1338
fluencia	-11.1341
▁proveniente	-11.1343
▁tronco	-11.1343
▁além	-11.1343
▁Pascua	-11.1343
▁convertería	-11.1344
▁Mestre	-11.1344
▁Adam	-11.1345
▁presénta	-11.1345
▁enfrontou	-11.1351
▁festiva	-11.1353
▁mencionada	-11.1354
▁cume	-11.1354
▁comprender	-11.1358
▁trataba	-11.1358
▁fragmentos	-11.1365
▁emoción	-11.1366
▁dáse	-11.137
▁Men	-11.1372
▁dise	-11.1373
▁fiei	-11.1379
▁primo	-11.1383
▁anuncia	-11.1384
tróxeno	-11.1387
▁brasileira	-11.1387
▁diploma	-11.1387
▁movimento	-11.1387
▁orbita	-11.1387
▁destacou	-11.1387
▁elixida	-11.1388
▁comunicar	-11.1389
adura	-11.139
▁State	-11.1393
▁cometa	-11.1395
▁ju	-11.1396
▁desas	-11.1397
por	-11.14
amia	-11.14
▁Mos	-11.1403
▁burgues	-11.1406
▁dele	-11.1406
▁reside	-11.1409
▁sentimentos	-11.1412
▁Alexand	-11.1413
▁verdes	-11.1415
pesar	-11.1418
SO	-11.1422
▁im	-11.1424
▁voltar	-11.1426
port	-11.143
▁bombardeiro	-11.1431
▁cráter	-11.1431
▁escravitude	-11.1431
▁fértil	-11.1431
▁predecesor	-11.1431
▁sinónimo	-11.1431
▁fungo	-11.1432
▁galeguista	-11.1433
▁Long	-11.1435
▁chegaba	-11.1437
▁Ly	-11.1437
ntu	-11.1438
▁gravados	-11.1439
rei	-11.1441
▁perigoso	-11.1442
▁interiores	-11.1443
lice	-11.1445
eu	-11.145
▁Fé	-11.145
▁Teodo	-11.1452
▁controlada	-11.1456
▁especificamente	-11.1468
▁Bolo	-11.1472
▁experto	-11.1475
▁hindú	-11.1475
▁tartaruga	-11.1475
▁xenético	-11.1475
▁trastorno	-11.1475
▁dividiu	-11.1475
▁voluntario	-11.1475
▁oitavo	-11.1475
▁fizemos	-11.1475
▁especializado	-11.1478
▁acolle	-11.148
mbledo	-11.1484
▁protexe	-11.1484
rum	-11.1486
▁granxa	-11.1486
▁Pear	-11.1488
▁medición	-11.149
▁neurona	-11.1491
iga	-11.1506
ieito	-11.1508
▁ampl	-11.1516
▁Cla	-11.1516
▁califa	-11.1519
▁santuario	-11.1519
censión	-11.1519
▁viaxa	-11.1521
▁tsar	-11.1521
▁Enrique	-11.1524
▁Sacr	-11.1525
fase	-11.1525
▁Anders	-11.1525
▁mares	-11.1526
▁usual	-11.1527
▁Rio	-11.1528
▁Camp	-11.1529
torce	-11.1533
▁acusación	-11.1534
▁123	-11.1535
im	-11.1535
▁chegaría	-11.1535
▁Natural	-11.1536
quera	-11.1537
▁complexas	-11.154
▁comisión	-11.1541
▁Ribeira	-11.1545
▁Rey	-11.1547
▁Estev	-11.1556
▁extremos	-11.1557
▁espectacular	-11.1563
▁ilegal	-11.1563
▁intérprete	-11.1563
▁capite	-11.1563
▁transferencia	-11.1563
▁kaska	-11.1563
▁australiano	-11.1563
▁colleita	-11.1564
▁felicidade	-11.1564
▁inmediato	-11.1565
▁conhecimento	-11.1565
▁recoñeceu	-11.1569
▁Nú	-11.1569
▁usaba	-11.1571
▁bit	-11.1573
teve	-11.1574
▁votación	-11.1575
▁126	-11.1578
izou	-11.1578
▁acelera	-11.1581
▁Za	-11.1582
▁anda	-11.1589
▁vítima	-11.159
▁adulto	-11.159
▁voa	-11.1591
▁j	-11.1593
▁tratou	-11.1597
▁Steve	-11.16
▁adop	-11.1603
▁conquistada	-11.1604
▁Biblioteca	-11.1608
▁biolóxico	-11.1608
▁mediterráneo	-11.1608
▁comigo	-11.1608
▁destinada	-11.1608
▁xenoma	-11.1609
▁doutoramento	-11.1609
ares	-11.1609
▁altar	-11.1609
▁linea	-11.161
▁Tenho	-11.1612
▁Alfons	-11.1616
▁procurar	-11.1617
ague	-11.162
▁132	-11.162
▁canal	-11.1621
▁argumenta	-11.1631
▁paciente	-11.1638
▁aceptado	-11.1639
well	-11.164
▁emigrante	-11.1641
▁move	-11.1641
▁anuncio	-11.1643
▁estivera	-11.1644
▁outorga	-11.1644
cro	-11.1645
▁dirixe	-11.1646
▁Moi	-11.1649
▁participan	-11.165
▁Caso	-11.1652
fil	-11.1652
▁Jorge	-11.1653
▁bicicleta	-11.1653
▁tributo	-11.1653
▁vulgar	-11.1653
▁Adoita	-11.1653
▁ovella	-11.1653
▁Brux	-11.1654
▁Municipal	-11.1654
▁piñeiro	-11.1654
▁peito	-11.1654
▁Cabe	-11.1655
▁troux	-11.1655
▁cable	-11.1659
▁barra	-11.1659
▁masculina	-11.166
ace	-11.1671
▁bos	-11.1671
▁nena	-11.168
▁rua	-11.1685
ríamos	-11.1692
▁fío	-11.1699
▁segurança	-11.1699
▁protón	-11.1699
▁cereais	-11.1705
▁irregular	-11.1706
ite	-11.1713
▁estimación	-11.1719
▁controlado	-11.1724
▁setent	-11.1728
▁Tro	-11.173
▁físicas	-11.1731
ple	-11.1734
▁Kos	-11.1735
▁culmina	-11.1736
▁holandes	-11.1741
▁climático	-11.1743
▁escaleira	-11.1743
▁fluído	-11.1743
▁testemuño	-11.1743
▁descobre	-11.1743
▁mámoa	-11.1743
▁defíne	-11.1743
▁Mer	-11.1745
▁pataca	-11.1748
▁Clement	-11.1748
▁ideias	-11.1749
▁daba	-11.1757
▁demostración	-11.1757
iria	-11.1757
▁fluvia	-11.1759
▁esqueleto	-11.176
▁Honda	-11.1764
▁podendo	-11.1767
▁carece	-11.1768
▁118	-11.177
tomán	-11.1781
▁raio	-11.1787
▁armenio	-11.1789
▁estratéxica	-11.1789
▁fantástico	-11.1789
▁melodía	-11.1789
▁Ernest	-11.1789
▁doazón	-11.1789
▁bolxevique	-11.1789
▁galería	-11.1791
▁mortalidade	-11.1792
▁cadrada	-11.1792
▁falsa	-11.1794
▁Han	-11.1795
▁trasladado	-11.1795
pta	-11.1797
mundo	-11.1804
▁subi	-11.1806
▁racional	-11.1809
oku	-11.1814
remos	-11.182
▁Alban	-11.1823
▁expresar	-11.1827
▁privadas	-11.1834
▁Báltic	-11.1834
▁exitosa	-11.1834
▁Holand	-11.1835
▁dicionario	-11.1835
▁Xefe	-11.1836
▁Joan	-11.1837
eeth	-11.1838
rtico	-11.1841
▁confirmou	-11.1845
▁Ok	-11.1846
▁Canal	-11.1846
lica	-11.1855
▁Será	-11.1856
viación	-11.1856
▁determinadas	-11.186
▁Latin	-11.1863
▁Marcel	-11.1864
▁derrotar	-11.1874
▁pra	-11.1874
▁actua	-11.1874
▁ta	-11.1878
▁prototipo	-11.188
▁anatom	-11.188
▁dominado	-11.188
▁Penso	-11.188
▁exceso	-11.1882
▁bota	-11.1882
▁drama	-11.1883
▁beneficio	-11.1884
▁apoiou	-11.1885
▁Ju	-11.1887
▁Kur	-11.1887
▁trompeta	-11.1888
▁Ron	-11.1891
▁internas	-11.1892
▁xe	-11.1893
▁vasca	-11.1893
▁asento	-11.1896
cção	-11.1897
▁saí	-11.1898
▁Roo	-11.19
▁absor	-11.1901
dando	-11.1903
▁sí	-11.1911
▁ordenado	-11.1912
▁Ren	-11.1915
▁Helen	-11.1918
avia	-11.1918
▁degrada	-11.1926
▁evolutiva	-11.1926
▁exipcia	-11.1926
▁franxa	-11.1926
▁mediterránea	-11.1926
▁jovens	-11.1926
▁oitenta	-11.1926
▁segmento	-11.1926
▁paradoxo	-11.1926
▁mesquita	-11.1927
▁visão	-11.1927
▁Kong	-11.1928
▁favorito	-11.1929
▁distante	-11.193
▁milleiro	-11.1935
ecei	-11.1938
izada	-11.1938
▁disciplinas	-11.1941
▁124	-11.1942
can	-11.1942
▁Qu	-11.1946
▁Artur	-11.1947
lasca	-11.1949
und	-11.1951
loxía	-11.196
▁almacena	-11.1962
▁ofreceu	-11.1963
▁tenente	-11.197
tía	-11.1971
▁bizantina	-11.1972
▁constelación	-11.1972
▁dinosauro	-11.1972
▁islámica	-11.1972
▁renacentista	-11.1972
▁restaurante	-11.1972
▁esquema	-11.1972
▁enfoque	-11.1972
▁obstáculo	-11.1972
ador	-11.1973
▁rexente	-11.1974
▁White	-11.1975
▁financeira	-11.1976
▁Leon	-11.1988
▁marcia	-11.2003
▁compon	-11.2005
▁foca	-11.2008
rrupción	-11.2019
▁abertura	-11.2019
▁Palestin	-11.2019
▁nutriente	-11.2019
idad	-11.202
▁Trin	-11.2023
▁selva	-11.2023
▁admira	-11.2026
▁105	-11.2028
▁táctica	-11.2031
▁tirar	-11.2032
▁More	-11.2032
▁descende	-11.2033
▁My	-11.2035
▁compux	-11.2038
ight	-11.204
▁identificado	-11.2041
▁compreender	-11.2042
▁enormes	-11.2054
▁confirma	-11.2055
▁Xera	-11.2059
▁Company	-11.2066
▁buraco	-11.2066
▁pesquisa	-11.2066
▁prosperidade	-11.2066
▁ruído	-11.2066
▁submarino	-11.2066
▁transcrición	-11.2066
▁caudal	-11.2066
▁gaita	-11.2067
▁hax	-11.2067
▁plural	-11.2068
▁trasladar	-11.2068
▁intre	-11.2069
▁permitindo	-11.207
▁Fri	-11.2072
▁denominar	-11.2073
▁gaélico	-11.2074
▁Berga	-11.2075
▁Ali	-11.2075
▁você	-11.2077
▁Esto	-11.208
▁fal	-11.2084
▁mutación	-11.2084
día	-11.2085
▁Estiv	-11.2092
▁atopada	-11.2093
▁xuíz	-11.2103
▁afirmar	-11.2103
▁doado	-11.2104
canda	-11.2111
▁Iglesia	-11.2113
▁Recibi	-11.2113
▁comprensión	-11.2113
▁croata	-11.2113
▁orgánico	-11.2113
▁revolucionaria	-11.2113
▁xermánico	-11.2113
▁óptica	-11.2113
▁protexida	-11.2113
▁sagrado	-11.2113
▁relata	-11.2113
▁Lake	-11.2113
▁Holly	-11.2113
▁Mauric	-11.2114
▁pasaría	-11.2119
▁proporcional	-11.212
ética	-11.2121
▁anti	-11.2125
▁negativo	-11.2126
▁be	-11.2127
▁Emili	-11.2128
▁combinado	-11.2139
dal	-11.2142
▁mol	-11.2148
▁Fonte	-11.2153
▁autonómica	-11.2156
wis	-11.2158
▁diplomática	-11.216
▁celeste	-11.216
▁descarga	-11.216
▁população	-11.2161
▁vertente	-11.2162
▁deve	-11.2164
▁medro	-11.2164
▁Luca	-11.2175
▁Contra	-11.2178
▁Fix	-11.2178
000	-11.2184
▁abandonado	-11.2184
▁ensina	-11.2188
▁Ou	-11.2188
▁xamai	-11.219
▁gobernar	-11.2196
venta	-11.2196
cky	-11.2198
▁Lee	-11.2199
maior	-11.2201
elección	-11.2201
▁Considéra	-11.2207
▁Administración	-11.2207
▁Irmandade	-11.2207
▁fotografia	-11.2207
▁sufraxio	-11.2207
▁xurídico	-11.2207
▁Fraga	-11.2207
▁desaparecido	-11.2207
▁vocabul	-11.2207
▁clínica	-11.2207
▁gabinete	-11.2207
▁percepción	-11.2208
▁Alxer	-11.2209
▁consolida	-11.221
▁baseándo	-11.221
▁reuniu	-11.2212
▁pesada	-11.2213
▁póla	-11.2213
▁coroado	-11.2214
▁libra	-11.2215
▁Jacque	-11.2218
▁asinado	-11.2219
▁pensamos	-11.2223
▁mantiver	-11.2223
▁codifica	-11.2224
▁Porta	-11.2225
▁contribúe	-11.2228
▁Jones	-11.223
idez	-11.2231
▁Pol	-11.2234
▁imaginar	-11.2235
▁satélites	-11.2236
íamos	-11.2239
▁trec	-11.2241
▁adaptado	-11.2246
▁aplicada	-11.2247
▁foille	-11.2252
▁coordina	-11.2254
¡	-11.2255
▁autónomo	-11.2255
▁castaña	-11.2255
▁chuvia	-11.2255
▁confundir	-11.2255
▁desenvólve	-11.2255
▁hectárea	-11.2255
▁edificación	-11.2255
▁nómade	-11.2255
▁lingüista	-11.2255
▁insular	-11.2255
▁legado	-11.2256
iscal	-11.2257
▁confusión	-11.2267
▁manda	-11.2269
▁alas	-11.227
▁Bull	-11.2271
▁negras	-11.2272
▁passo	-11.2273
▁calcular	-11.2275
▁inmigra	-11.2275
▁asumir	-11.2283
▁facilitar	-11.2287
▁Barba	-11.2292
▁pensaba	-11.2294
▁forzado	-11.2295
ternet	-11.2297
tario	-11.2297
▁Ke	-11.2297
cito	-11.2298
▁Xustin	-11.23
▁uní	-11.23
▁resultar	-11.2301
▁auxiliar	-11.2303
▁concilio	-11.2303
▁hormona	-11.2303
▁montañoso	-11.2303
▁prohibición	-11.2303
▁pulmón	-11.2303
▁tuberculose	-11.2303
▁Oxford	-11.2303
▁remónta	-11.2303
▁arquivos	-11.2304
▁conforma	-11.2305
▁israelí	-11.2312
▁estivese	-11.2312
▁107	-11.2313
▁Hot	-11.2313
▁Samo	-11.2313
▁rota	-11.2315
▁lembrar	-11.2319
▁Brit	-11.232
tah	-11.2322
CD	-11.2324
ardo	-11.2326
▁recorda	-11.2327
▁utilizaba	-11.2328
▁facción	-11.2329
▁más	-11.2335
▁relaciona	-11.2343
▁fiscal	-11.2351
▁mandar	-11.2352
▁Il	-11.2352
▁Javi	-11.2352
▁asistente	-11.2353
▁Sonic	-11.2356
▁Sch	-11.2357
▁Islam	-11.2358
sodio	-11.2359
▁Chá	-11.2359
▁fabricar	-11.2362
▁Tudo	-11.2362
▁transcorre	-11.2364
▁Rico	-11.2365
▁abandono	-11.2365
ome	-11.237
▁et	-11.2375
50	-11.2376
▁prepara	-11.2376
▁ordena	-11.2377
▁absorbe	-11.2377
▁barreira	-11.2379
▁marchar	-11.238
eolítico	-11.2384
▁continentes	-11.2385
▁Medi	-11.2387
velt	-11.2397
▁parentes	-11.2397
▁culpa	-11.2399
▁Exemplo	-11.2399
▁confiança	-11.2399
▁sorpresa	-11.2399
▁fariña	-11.2399
ntiño	-11.2399
▁comentario	-11.24
▁tenden	-11.24
ronel	-11.24
grafía	-11.2401
▁Ib	-11.2405
verde	-11.2409
▁xiro	-11.2413
▁voca	-11.2413
▁122	-11.2416
▁virtual	-11.2422
▁implanta	-11.243
▁plástico	-11.243
▁Dado	-11.2433
bese	-11.2437
▁variado	-11.2437
à	-11.2444
▁convención	-11.2448
▁extraordinaria	-11.2448
▁filosófico	-11.2448
▁indústria	-11.2448
▁Amazon	-11.2448
▁Apple	-11.2448
▁étnica	-11.2448
▁biografía	-11.2448
▁escocesa	-11.245
▁denomina	-11.2455
▁fundo	-11.2455
▁bio	-11.2455
▁normando	-11.2458
▁houve	-11.2458
▁suevo	-11.2458
▁chamaba	-11.2461
eron	-11.2463
▁correcta	-11.2463
▁nomear	-11.2464
▁citada	-11.2464
ill	-11.2465
▁explorador	-11.247
quel	-11.2474
▁droga	-11.2484
▁Galla	-11.2488
▁cruzado	-11.2493
guerra	-11.2496
▁suicid	-11.2496
▁International	-11.2496
▁distingue	-11.2496
▁indoeuropea	-11.2496
▁mármore	-11.2496
▁máxico	-11.2496
▁Ámsterda	-11.2496
▁facilita	-11.2496
▁materna	-11.2496
▁Ocean	-11.2497
▁dramática	-11.2497
▁desempreg	-11.2497
▁previsto	-11.2497
triz	-11.2497
posto	-11.2498
▁teste	-11.2499
gua	-11.2504
▁horizontal	-11.2508
▁acompañada	-11.2509
▁possam	-11.2513
dison	-11.2519
▁Pí	-11.252
▁Fro	-11.2521
NU	-11.2521
▁via	-11.253
DE	-11.2537
rey	-11.2543
▁determina	-11.2543
▁ermida	-11.2545
ância	-11.2545
▁inaugurou	-11.2545
▁cadáver	-11.2545
▁embarcación	-11.2545
▁territoriais	-11.2545
▁sucesso	-11.2545
▁situação	-11.2546
▁137	-11.2547
▁teito	-11.2549
▁gatos	-11.2551
▁serem	-11.2554
▁elaborado	-11.2555
▁engadido	-11.2557
▁variar	-11.2558
▁controla	-11.2559
▁List	-11.256
▁Ac	-11.2564
▁cant	-11.2566
▁perigosa	-11.2568
▁checo	-11.257
▁metaboli	-11.2573
có	-11.2575
▁muscular	-11.2577
rac	-11.2579
▁condutor	-11.2581
▁escoitar	-11.2582
▁influenciado	-11.2584
▁africano	-11.2588
▁verba	-11.2589
▁proporcionar	-11.259
▁medicamentos	-11.259
▁púxo	-11.2592
pp	-11.2592
den	-11.2592
▁galo	-11.2593
▁Pensilv	-11.2595
▁informático	-11.2595
▁patriarca	-11.2595
▁atenção	-11.2595
▁triángulo	-11.2595
▁operador	-11.2595
▁mira	-11.2596
▁Montre	-11.2597
▁acha	-11.2597
▁Land	-11.2598
▁partilhar	-11.26
▁morta	-11.26
stancia	-11.26
▁cha	-11.2603
▁xacemento	-11.2607
rro	-11.261
▁neerland	-11.2611
▁mostras	-11.2613
▁rematada	-11.2618
onal	-11.263
▁traballan	-11.2633
▁Histor	-11.2634
▁parti	-11.2641
▁costeiras	-11.2642
core	-11.2643
▁mexicano	-11.2644
▁violência	-11.2644
▁longe	-11.2644
▁obtida	-11.2644
▁Situad	-11.2644
▁teorema	-11.2644
▁Wood	-11.2645
▁asalto	-11.2645
lumini	-11.2646
▁instancia	-11.2646
▁Cristi	-11.2647
eta	-11.265
▁fallo	-11.2654
ização	-11.2654
▁Dom	-11.2656
▁Naquel	-11.2661
lgunha	-11.2664
▁Ball	-11.2664
▁atraer	-11.2666
▁Sab	-11.2668
▁Medicin	-11.2671
▁Petersburg	-11.2673
▁causado	-11.2674
parte	-11.2677
▁pregunta	-11.2679
▁Fla	-11.268
▁adicional	-11.2682
rgoña	-11.2683
▁adquire	-11.2694
▁robot	-11.2694
▁Beatles	-11.2694
▁emitir	-11.2694
▁consenso	-11.2694
▁Mesopot	-11.2694
▁puxer	-11.2696
▁Campión	-11.2696
▁oxida	-11.2701
▁retirado	-11.2704
▁Bang	-11.2704
▁Solar	-11.2706
▁produtora	-11.2706
▁vaga	-11.2708
▁Plat	-11.2717
▁Q	-11.2718
▁escrever	-11.2722
▁redac	-11.2723
▁extrac	-11.2725
▁escolle	-11.2726
▁infl	-11.2729
▁tenha	-11.2738
▁Rodrig	-11.2738
▁temperá	-11.2738
▁incrementa	-11.274
hara	-11.274
▁Hans	-11.2741
▁xuí	-11.2744
▁adulta	-11.2744
▁sítio	-11.2744
▁aparato	-11.2744
▁vicepresidente	-11.2745
▁sobrevivi	-11.2746
▁bico	-11.2751
▁introducido	-11.2751
▁parecía	-11.2753
▁Ciro	-11.2754
▁142	-11.2755
▁143	-11.2755
▁escoita	-11.2756
▁planifica	-11.2759
▁129	-11.2761
▁achegar	-11.2764
▁integrar	-11.2766
▁teu	-11.277
lmirant	-11.2773
▁amosan	-11.2777
▁nervioso	-11.2777
▁secreta	-11.2779
▁Zam	-11.278
▁emite	-11.2781
▁laranxa	-11.2794
▁lexislativa	-11.2794
▁turística	-11.2794
▁promesa	-11.2794
▁PSdeG	-11.2794
▁Servizo	-11.2795
▁activista	-11.2795
▁crescimento	-11.2795
▁provisional	-11.2797
▁bebé	-11.2799
▁ascenden	-11.2801
▁Mario	-11.2801
▁pele	-11.2802
▁situar	-11.2804
▁convencional	-11.2807
hire	-11.2808
▁encargou	-11.281
ang	-11.2813
▁obrigada	-11.2813
▁Day	-11.2816
▁Cort	-11.2819
struíu	-11.2821
▁incorporación	-11.2821
rin	-11.2823
uda	-11.2829
▁pape	-11.2834
▁arciprestado	-11.2845
▁exiliado	-11.2845
▁traducido	-11.2845
▁Balcán	-11.2845
▁sultán	-11.2845
▁paixón	-11.2845
▁lava	-11.2846
▁perdida	-11.2849
▁propaga	-11.285
▁Metal	-11.2852
▁ducia	-11.2854
cuña	-11.2856
▁oceano	-11.286
vida	-11.2867
▁Pamp	-11.2868
▁caracterizado	-11.2868
▁empezar	-11.2871
▁medi	-11.2882
▁Dos	-11.2886
net	-11.2887
▁dedica	-11.2891
▁xenera	-11.2894
ndez	-11.2894
▁pastor	-11.2895
▁pescozo	-11.2895
▁lexión	-11.2895
▁choque	-11.2895
▁delegado	-11.2896
▁sentenza	-11.2896
▁nisto	-11.2896
▁hea	-11.2896
▁prol	-11.29
▁Paquist	-11.2901
▁fundamento	-11.2902
▁concluí	-11.2903
▁intelixente	-11.2906
▁prisioneiro	-11.2908
▁emocional	-11.291
sistencia	-11.2911
cento	-11.2915
▁infinito	-11.2919
hl	-11.2921
▁confi	-11.2921
▁respira	-11.2928
▁ampliación	-11.2928
▁Interior	-11.293
▁reparti	-11.2931
▁plana	-11.2939
ólogo	-11.294
▁cantón	-11.294
▁sabía	-11.294
▁coincide	-11.2944
▁deberá	-11.2946
▁Anatoli	-11.2946
▁adxectivo	-11.2946
▁educação	-11.2946
▁suízo	-11.2946
▁vixente	-11.2947
minación	-11.2949
▁adecuada	-11.2949
▁lixo	-11.2949
▁mel	-11.2954
▁Out	-11.2957
▁aproximación	-11.2958
▁perto	-11.2959
▁cliente	-11.2962
▁florece	-11.2972
▁fabricado	-11.298
▁alternativas	-11.2983
▁GP	-11.2985
pol	-11.2988
▁disparo	-11.2989
▁nacido	-11.2991
tolic	-11.2992
▁cuarte	-11.2994
▁coñecen	-11.2996
▁Bizan	-11.2997
▁cumpre	-11.2998
▁fiestra	-11.2998
▁mecánico	-11.2998
▁oceánico	-11.2998
▁petróglifo	-11.2998
▁sigla	-11.2998
▁Escribiu	-11.2998
▁cátedra	-11.2998
▁quantidade	-11.2998
▁rumor	-11.2999
▁Play	-11.3001
▁franquía	-11.3002
▁atraso	-11.3004
▁votar	-11.3005
▁asistir	-11.301
▁evoluciona	-11.3015
▁inventor	-11.3015
axe	-11.3015
▁avanzado	-11.3016
▁narración	-11.3021
▁Ría	-11.3023
▁preferi	-11.3027
▁floresta	-11.3029
▁Duca	-11.3031
TV	-11.3034
▁cren	-11.3037
ureza	-11.3041
▁vence	-11.3047
▁transformou	-11.3049
▁atractivo	-11.3049
▁adicionais	-11.3049
▁economic	-11.3049
AF	-11.3049
▁desenvolvidos	-11.3051
▁moderada	-11.3051
▁contraria	-11.3054
viv	-11.3054
▁estudado	-11.3058
▁refuxiado	-11.3059
▁violento	-11.306
▁formulación	-11.3061
▁junta	-11.3065
▁Free	-11.3068
▁Cong	-11.307
▁Ray	-11.307
▁garantir	-11.3086
▁solu	-11.3087
▁enclave	-11.309
▁Padr	-11.309
lix	-11.309
▁Moz	-11.3092
tempo	-11.3092
▁00	-11.3094
▁Lama	-11.3098
▁Microsoft	-11.3101
▁fonética	-11.3101
▁léxico	-11.3101
▁peninsular	-11.3101
▁Noutra	-11.3101
▁Hug	-11.3102
▁rito	-11.3102
púxo	-11.3104
ã	-11.3106
▁incrível	-11.3108
▁114	-11.3111
▁Chama	-11.3116
ologia	-11.3125
▁regi	-11.3125
▁Alemán	-11.3129
CE	-11.3137
▁sexta	-11.3146
ct	-11.3147
▁Human	-11.3151
▁taller	-11.3152
▁preocupa	-11.3152
▁descontento	-11.3153
▁nocturno	-11.3153
▁nessa	-11.3153
▁pseudónimo	-11.3153
▁balea	-11.3153
▁Disney	-11.3153
▁série	-11.3154
▁reflexión	-11.3154
▁lámina	-11.3154
▁Montaña	-11.3156
▁Port	-11.3157
▁roman	-11.3158
▁cabelo	-11.3161
▁acusa	-11.3163
▁convertido	-11.3165
▁modificado	-11.3166
▁estender	-11.3168
▁EE	-11.3174
▁perguntar	-11.3183
stre	-11.3183
cionais	-11.3183
itat	-11.3184
▁cota	-11.3184
▁profundas	-11.3189
mond	-11.3196
▁Xene	-11.3198
▁1800	-11.3202
umi	-11.3202
▁arqueolóxica	-11.3206
▁cavidade	-11.3206
▁freguesía	-11.3206
▁laboratório	-11.3206
▁titulada	-11.3206
▁elefante	-11.3206
▁previo	-11.3206
▁legais	-11.3206
▁prohibido	-11.3206
▁afirman	-11.321
▁deixan	-11.3212
▁Traba	-11.3212
▁119	-11.3215
▁gótica	-11.3215
nya	-11.3216
rry	-11.3219
▁Cerca	-11.3219
onía	-11.3221
▁Vari	-11.3223
▁gramo	-11.3224
lium	-11.3225
▁dominar	-11.3228
▁relativ	-11.3243
var	-11.3243
▁internos	-11.3245
▁goberna	-11.3245
▁conservadores	-11.3251
▁ocupaba	-11.3256
▁abertas	-11.3256
▁fortuna	-11.3258
▁mitocondria	-11.3258
▁pirámide	-11.3258
▁baile	-11.3258
▁establecé	-11.3258
▁ensinanza	-11.3259
▁comercializa	-11.326
▁trama	-11.3262
▁paga	-11.3264
▁cuncha	-11.3265
▁Davi	-11.3267
▁cónsul	-11.327
▁destruír	-11.3271
▁holand	-11.3278
▁Ora	-11.3285
▁Simon	-11.3291
▁108	-11.3293
oje	-11.3295
▁hu	-11.3298
lena	-11.3304
▁compartir	-11.3308
▁apo	-11.3309
▁editar	-11.331
▁réptil	-11.3311
▁túnel	-11.3311
▁plasma	-11.3311
▁errado	-11.3312
▁señorío	-11.3312
▁barroca	-11.3313
▁paseo	-11.3313
▁Salom	-11.3314
▁mailo	-11.3314
▁falso	-11.3316
▁Cun	-11.3316
▁elaborada	-11.3317
▁irlandesa	-11.3319
▁escolha	-11.3321
PS	-11.3322
▁manifesto	-11.3322
▁penetra	-11.3324
▁design	-11.333
▁deber	-11.3336
▁erosi	-11.3336
▁Deputa	-11.3337
▁Arms	-11.3337
▁gravada	-11.3339
▁Amor	-11.3343
▁450	-11.3349
▁empregaba	-11.3351
▁Gi	-11.3352
▁Pop	-11.3359
▁aristocra	-11.3364
▁campamento	-11.3364
▁residuo	-11.3364
▁sanguíneo	-11.3364
▁sábado	-11.3364
▁estendida	-11.3364
▁sólida	-11.3364
▁diagnóstico	-11.3365
▁balón	-11.3365
▁atacou	-11.3365
▁consola	-11.3365
▁fortificación	-11.3366
▁Litu	-11.3367
▁adora	-11.337
▁misioneiro	-11.337
▁aliada	-11.337
▁pedido	-11.3373
▁106	-11.3374
nor	-11.3375
cesio	-11.3378
ony	-11.3379
▁inda	-11.338
▁escas	-11.3383
▁terían	-11.3393
▁algod	-11.3395
cado	-11.3396
▁madura	-11.3396
▁ideais	-11.3398
▁Hall	-11.3401
▁axencia	-11.3405
▁construídas	-11.3411
▁cotiá	-11.3416
▁contando	-11.3417
▁Lexislativ	-11.3418
▁Street	-11.3418
▁chocolate	-11.3418
▁galardón	-11.3418
▁descanso	-11.3418
▁Mallor	-11.3418
▁consecutiva	-11.3418
▁profesión	-11.3418
▁catálogo	-11.3418
lini	-11.3422
▁experimentar	-11.3424
▁Tolo	-11.3424
▁aprobado	-11.3425
▁117	-11.3427
▁elixiu	-11.3428
▁Berg	-11.3431
▁cruzada	-11.3437
▁logro	-11.3439
iberia	-11.3441
rece	-11.3443
▁interve	-11.3444
▁vem	-11.3444
▁cinto	-11.3451
▁Pico	-11.3453
▁Bay	-11.3456
furt	-11.3457
▁caro	-11.3457
▁Esp	-11.3458
caia	-11.3459
▁competi	-11.3463
▁partiu	-11.3464
▁gato	-11.3467
sol	-11.3467
▁aeronave	-11.3472
▁cerebral	-11.3472
▁língua	-11.3472
▁turca	-11.3472
▁Gobernador	-11.3475
▁introducida	-11.3477
▁liderada	-11.3477
▁disseram	-11.3478
let	-11.3478
▁encargada	-11.3478
lkie	-11.348
▁Fala	-11.3481
▁basea	-11.3483
▁adoptada	-11.3483
▁Pelo	-11.3488
▁invadir	-11.3503
▁comezaba	-11.3506
vana	-11.3507
▁riva	-11.3508
tivos	-11.3514
▁Cos	-11.3516
▁est	-11.3521
lio	-11.3525
▁Galeguista	-11.3526
▁agraria	-11.3526
▁blue	-11.3526
▁patio	-11.3526
▁sublevación	-11.3526
▁lousa	-11.3526
▁eslavo	-11.3526
▁romaniza	-11.3526
▁Bra	-11.3527
▁faga	-11.3527
▁colapso	-11.3528
▁adquisición	-11.3528
▁Glas	-11.3532
▁ancha	-11.3536
▁109	-11.3537
▁138	-11.354
▁Victoria	-11.3542
▁adoptado	-11.3542
riente	-11.3542
▁habitado	-11.3545
▁parto	-11.3545
▁exclusiva	-11.3548
▁professores	-11.3548
▁modificar	-11.355
▁cortar	-11.3551
▁Barro	-11.3554
▁Ura	-11.3564
▁Neve	-11.3567
▁Republican	-11.3567
erife	-11.3569
House	-11.3574
▁portanto	-11.3575
▁134	-11.3575
▁reuní	-11.3576
▁controlo	-11.3579
▁ácha	-11.3579
▁combusti	-11.358
▁Habsburgo	-11.358
▁cilindro	-11.358
▁deshabitada	-11.358
▁escaravello	-11.358
▁Gabriel	-11.358
▁decisiva	-11.358
▁glicosa	-11.358
▁Crime	-11.358
▁lexislatura	-11.358
▁sucedido	-11.358
miento	-11.358
▁impide	-11.3581
▁Hamil	-11.3583
dy	-11.3584
▁Lib	-11.3585
▁rumb	-11.3585
▁doentes	-11.3586
ndido	-11.3589
▁divide	-11.3589
▁apoiada	-11.3592
telo	-11.3594
acto	-11.3594
▁4,	-11.3597
abana	-11.3597
▁pr	-11.3599
▁Amar	-11.36
▁colaboradores	-11.3604
▁detectar	-11.3606
▁rego	-11.361
▁Gold	-11.3611
▁colocado	-11.3614
ográfico	-11.3618
▁saqueo	-11.3621
▁producí	-11.3622
▁Mani	-11.3622
▁Malai	-11.3624
▁pol	-11.3624
▁Sabem	-11.3625
▁Estra	-11.3632
ena	-11.3632
▁amiga	-11.3634
▁Económica	-11.3635
▁escuadra	-11.3635
▁esplendor	-11.3635
▁guionista	-11.3635
▁secreto	-11.3635
▁temperado	-11.3635
▁xurídica	-11.3635
▁arxentina	-11.3635
▁asturiano	-11.3635
▁emitida	-11.3635
▁manobra	-11.3635
▁largo	-11.3635
▁teórica	-11.3635
▁suspensión	-11.3635
▁Lenno	-11.3636
▁Imaginem	-11.3636
món	-11.3638
▁Rac	-11.3638
▁protectora	-11.3639
▁Butt	-11.364
▁Silv	-11.3642
▁guía	-11.3647
▁Law	-11.3648
▁peto	-11.3649
liga	-11.365
▁abandonada	-11.365
▁salas	-11.365
▁coñecía	-11.3668
▁evolucion	-11.3675
▁Casare	-11.3677
▁indu	-11.3679
▁condes	-11.3681
▁Pica	-11.3685
▁Lud	-11.3685
▁representando	-11.3688
▁posib	-11.3688
▁gobernado	-11.3689
▁Harvard	-11.369
▁correcto	-11.369
▁céntra	-11.369
▁desembarco	-11.369
▁distribuída	-11.369
▁divindade	-11.369
▁eclesiástico	-11.369
▁islámico	-11.369
▁parámetro	-11.369
▁término	-11.369
▁Leopold	-11.369
▁decisivo	-11.369
▁obreira	-11.369
▁palestra	-11.369
▁aterraxe	-11.369
▁Recente	-11.369
▁esperança	-11.369
▁sinatura	-11.369
clero	-11.3695
▁leito	-11.3696
▁daquel	-11.3696
▁ferido	-11.3697
▁infraestrutura	-11.3697
▁gobernada	-11.3698
▁dominada	-11.37
▁republicana	-11.3701
alles	-11.3703
▁conservar	-11.3704
ática	-11.3712
cada	-11.3712
▁pegar	-11.3712
▁funcional	-11.3713
▁Pit	-11.3716
▁Outeir	-11.3719
▁percorrer	-11.3724
▁estimula	-11.3726
umentando	-11.3729
▁axudante	-11.373
▁fiel	-11.3738
▁atómica	-11.374
▁Marshall	-11.3745
▁arbusto	-11.3745
▁defecto	-11.3745
▁delegación	-11.3745
▁viquingo	-11.3745
▁vándalo	-11.3745
▁emitido	-11.3745
▁Dragon	-11.3745
▁interface	-11.3745
▁polígono	-11.3745
▁Política	-11.3745
▁troco	-11.3745
▁exposto	-11.3745
▁ane	-11.3746
▁meseta	-11.3746
▁precisam	-11.3746
rial	-11.3748
▁Bona	-11.3749
▁fillas	-11.375
▁querer	-11.3752
▁pese	-11.3752
▁Lorenz	-11.3753
▁solucións	-11.3754
aren	-11.3754
▁Sara	-11.3757
▁Madon	-11.3758
▁voda	-11.3758
▁pór	-11.3761
▁instalado	-11.3762
▁oficinas	-11.3768
▁iniciado	-11.377
lie	-11.3778
ailand	-11.3785
▁sonho	-11.3798
ómpre	-11.3799
▁atinxi	-11.38
▁proxección	-11.38
▁Branca	-11.38
▁Chegou	-11.38
▁Rexiona	-11.38
▁Formou	-11.38
xeo	-11.3801
▁Investigación	-11.3801
▁revisión	-11.3801
uso	-11.3803
▁Capita	-11.3803
▁aventura	-11.3805
▁aminoácidos	-11.3805
▁faixa	-11.3807
▁Catar	-11.381
▁Eti	-11.3812
▁trazado	-11.3813
▁comece	-11.3814
▁xigante	-11.3814
▁excepcional	-11.3817
▁conducir	-11.3817
▁agrupa	-11.382
▁All	-11.3822
▁peste	-11.3823
▁col	-11.3824
▁Baio	-11.3825
▁artificia	-11.3828
▁asina	-11.3829
baixo	-11.3829
▁aprende	-11.383
▁formados	-11.3831
▁piar	-11.3832
▁Americana	-11.3832
▁traza	-11.3835
llino	-11.3838
▁efectivo	-11.3839
▁afección	-11.384
▁acadando	-11.3844
▁esculturas	-11.3845
ball	-11.3847
▁nenhum	-11.3848
pressão	-11.385
▁recollido	-11.3856
▁romaría	-11.3856
▁soterrado	-11.3856
▁teléfono	-11.3856
▁oculta	-11.3856
▁continuidade	-11.3858
▁Hugh	-11.3858
▁terrorismo	-11.3859
▁subministración	-11.386
▁Capel	-11.386
▁poboaciona	-11.3861
▁mu	-11.3861
▁comporta	-11.3863
▁superficial	-11.3867
▁tip	-11.3874
▁comum	-11.3874
▁Orienta	-11.3879
▁infante	-11.388
▁pensou	-11.3882
▁realizá	-11.3883
▁tomado	-11.3892
▁Nir	-11.3892
▁oscila	-11.3895
▁encargo	-11.3895
▁Doutr	-11.3896
angel	-11.3903
▁presidid	-11.3908
▁buscaba	-11.3909
gado	-11.3911
▁Th	-11.3911
▁disputou	-11.3912
▁doméstica	-11.3912
▁notábe	-11.3912
itanni	-11.3912
▁gama	-11.3913
▁Sound	-11.3913
▁Bizantin	-11.3913
▁espira	-11.3913
▁ciclista	-11.3913
▁pique	-11.3915
▁recita	-11.3915
rk	-11.3918
▁escribi	-11.392
▁ocorren	-11.3921
▁Allen	-11.3922
▁rivalidade	-11.3922
dón	-11.3923
▁cruce	-11.3923
▁Or	-11.3924
ure	-11.3924
▁Wei	-11.3929
▁habitación	-11.3936
▁influí	-11.3937
ávena	-11.3938
▁acr	-11.394
sey	-11.3942
▁urbanas	-11.3942
úric	-11.3943
▁Lar	-11.3945
tru	-11.3946
▁impux	-11.3946
mad	-11.3947
ciden	-11.3952
▁Segur	-11.3953
▁Estadi	-11.3955
▁sente	-11.3957
▁copa	-11.3957
▁dixe	-11.396
▁Mercedes	-11.3969
▁economista	-11.3969
▁sometida	-11.3969
▁substantivo	-11.3969
▁veterano	-11.3969
▁furacán	-11.3969
▁trofeo	-11.3969
▁demográfico	-11.3969
▁cristal	-11.3971
▁bala	-11.3971
▁Quebe	-11.3971
▁pos	-11.3972
osteiro	-11.3972
▁Franc	-11.3973
anzas	-11.3974
▁atravesad	-11.3976
▁Meli	-11.3978
▁violación	-11.3981
▁misa	-11.3986
▁iniciada	-11.3987
igan	-11.3988
▁Director	-11.399
▁Hermi	-11.3991
▁trato	-11.3991
▁Ch	-11.3991
tela	-11.4004
bido	-11.4005
▁merece	-11.4006
dura	-11.4011
▁doente	-11.4016
cido	-11.4017
▁informa	-11.4024
candinavia	-11.4026
▁sensible	-11.4026
▁Iorque	-11.4026
▁Joaqu	-11.4026
▁exposta	-11.4026
▁envia	-11.4026
▁oitava	-11.4026
▁véx	-11.4026
▁Supp	-11.4027
▁Fort	-11.4029
▁budista	-11.403
▁ortodoxa	-11.4031
▁presentada	-11.4033
▁parada	-11.4034
oceno	-11.4036
▁DC	-11.4039
▁durar	-11.4043
▁neutral	-11.4044
▁Oh	-11.4046
▁frases	-11.405
helm	-11.4057
▁repartido	-11.4058
▁anxo	-11.4059
nar	-11.4065
▁112	-11.4066
▁edita	-11.4067
▁hipóteses	-11.4068
▁homónim	-11.4072
▁nu	-11.4074
▁Panamá	-11.4083
▁antecesor	-11.4083
▁asiática	-11.4083
▁começá	-11.4083
▁actina	-11.4083
▁viagem	-11.4085
tyle	-11.4085
telecomunicación	-11.4091
▁conservado	-11.4091
▁lema	-11.4091
▁pessoal	-11.41
chell	-11.41
▁alterar	-11.4104
▁repetir	-11.4104
▁Eva	-11.4109
▁conectado	-11.4111
▁Tim	-11.4116
ibn	-11.4117
▁Essa	-11.412
ath	-11.4127
▁135	-11.4133
▁liberar	-11.4137
ntificado	-11.414
▁axeitado	-11.414
▁violín	-11.414
hattan	-11.414
▁oposta	-11.414
▁dándolle	-11.414
▁utilidade	-11.414
▁proposto	-11.4141
▁Tahi	-11.4141
▁Ku	-11.4141
▁Odise	-11.4143
▁delito	-11.4145
▁modificada	-11.4148
▁Game	-11.4149
▁rompe	-11.4153
▁Rub	-11.4158
▁salientar	-11.4158
▁geral	-11.4158
▁Henri	-11.4162
▁Comba	-11.4162
▁especia	-11.4166
▁rapaza	-11.417
▁chamamos	-11.417
organ	-11.4176
▁Pública	-11.4176
▁astrónomo	-11.4177
▁filho	-11.4178
liva	-11.4183
▁Uni	-11.419
enberg	-11.419
▁transporta	-11.4192
▁livros	-11.4197
▁Douglas	-11.4198
▁receita	-11.4198
▁independentista	-11.4198
▁luxo	-11.4198
olivia	-11.4198
▁basílica	-11.4198
▁complicado	-11.4199
▁nisso	-11.4199
▁parlamentario	-11.4199
▁toque	-11.4202
▁Sid	-11.4202
▁soste	-11.4205
▁estendido	-11.4205
▁sentía	-11.4206
▁inv	-11.4207
voa	-11.4207
▁compara	-11.4207
▁vári	-11.4209
negro	-11.4213
▁Pard	-11.4215
▁naturalista	-11.4216
▁nesse	-11.4216
▁reclama	-11.4217
▁Liberal	-11.4218
▁probar	-11.4219
▁Norman	-11.4223
▁doenças	-11.4224
lines	-11.4228
▁Sun	-11.4232
▁Abadí	-11.4234
▁polar	-11.4235
▁percebe	-11.4241
▁Mao	-11.4252
NA	-11.4253
▁Fór	-11.4254
▁auténtico	-11.4256
▁búlgaro	-11.4256
▁educativa	-11.4256
▁requisito	-11.4256
▁flamengo	-11.4256
▁McL	-11.4256
▁sorprendente	-11.4257
▁online	-11.4257
▁fizeram	-11.4257
▁loito	-11.4258
▁milicia	-11.4259
▁inundación	-11.4259
▁defendía	-11.4259
▁Roda	-11.426
▁romper	-11.4261
▁inestab	-11.4261
▁eixe	-11.4261
rzo	-11.4262
▁servía	-11.4264
▁nenhuma	-11.4265
▁Tinha	-11.4268
▁AB	-11.427
▁tocaba	-11.4272
▁ditador	-11.4272
▁regulación	-11.4272
▁cedeu	-11.4273
▁recoller	-11.4275
▁Sex	-11.4278
▁ouvi	-11.428
▁limitación	-11.4282
autista	-11.4282
▁deseñou	-11.4284
▁concentra	-11.4289
▁oficina	-11.4289
▁Varia	-11.4291
we	-11.4292
ndres	-11.4293
▁cálculos	-11.4294
▁tortura	-11.4295
ronce	-11.4298
▁criterio	-11.4302
▁ficha	-11.4305
▁Católic	-11.4306
▁levantar	-11.4306
▁infraestruturas	-11.4307
▁eficac	-11.4308
▁Dur	-11.4308
▁Eric	-11.4309
▁superviven	-11.431
▁fraga	-11.4312
▁grava	-11.4314
▁Sant	-11.4314
▁glándula	-11.4315
▁neutrón	-11.4315
▁vangarda	-11.4315
▁Cambridge	-11.4315
▁incorporar	-11.4315
▁estraño	-11.4315
▁ourensá	-11.4315
▁Fundou	-11.4315
▁pracer	-11.4315
▁feble	-11.4316
▁136	-11.4317
▁hostilidade	-11.4317
▁recompensa	-11.4319
▁agricultores	-11.4321
▁pior	-11.4324
▁dona	-11.4325
▁ambientes	-11.4325
▁seda	-11.4325
▁hotel	-11.4328
▁Blue	-11.433
▁marqu	-11.4331
▁cesa	-11.4331
▁fixe	-11.4332
▁multi	-11.4335
▁vale	-11.4336
▁habería	-11.4343
▁adolescentes	-11.4344
vez	-11.4345
▁South	-11.4345
▁Cruce	-11.4346
▁How	-11.4348
▁elevadas	-11.435
▁eliminado	-11.4356
ábe	-11.436
rme	-11.4361
▁provocada	-11.4362
▁feridos	-11.4366
▁peculiar	-11.4368
▁Celtic	-11.4374
▁expandir	-11.4374
▁mercenario	-11.4374
▁burato	-11.4374
▁vós	-11.4374
▁síndrome	-11.4374
▁acesso	-11.4375
▁inversa	-11.4375
▁Wolf	-11.4381
titan	-11.4382
▁Come	-11.4383
▁corporal	-11.4384
▁Valle	-11.4384
▁trá	-11.4386
▁manual	-11.4387
▁investigar	-11.4388
▁Hein	-11.4388
▁caracterizada	-11.4391
▁IP	-11.4391
▁Vé	-11.4397
▁ama	-11.4403
dí	-11.4411
old	-11.4416
▁bola	-11.4417
▁Laxe	-11.442
▁cru	-11.4421
▁misterio	-11.4423
▁dirixía	-11.4426
▁test	-11.4427
▁terror	-11.4428
▁financeiros	-11.443
▁executado	-11.4432
▁precedentes	-11.4432
▁artill	-11.4432
▁administrador	-11.4433
×	-11.4433
▁antepasado	-11.4433
▁atmosférica	-11.4433
▁mísil	-11.4433
▁perfecto	-11.4433
▁repercusión	-11.4433
▁oceánica	-11.4433
▁mentais	-11.4433
▁torná	-11.4433
▁fusela	-11.4433
▁xuventude	-11.4433
▁That	-11.4433
▁Luft	-11.4433
▁metálica	-11.4434
▁Tele	-11.4434
▁inspirada	-11.4435
▁Jane	-11.4441
▁ambientais	-11.4442
roenland	-11.4442
▁estimada	-11.4443
▁habitan	-11.4443
▁volvería	-11.4443
▁Sarde	-11.4444
▁esperaba	-11.4446
▁senso	-11.4449
▁completou	-11.4449
ático	-11.445
▁litro	-11.4456
▁vencedor	-11.4462
▁adaptar	-11.4462
wan	-11.4463
▁Jam	-11.4464
▁equivale	-11.4466
▁renunciar	-11.4475
▁aprendi	-11.4476
▁diferenciar	-11.4481
▁Rowl	-11.4491
▁finaliza	-11.4491
▁concedido	-11.4492
▁distíngue	-11.4492
▁exatamente	-11.4492
▁foguete	-11.4492
▁orixinou	-11.4492
▁esquina	-11.4492
▁dimiti	-11.4492
▁ferroviaria	-11.4492
▁prioridade	-11.4495
▁discorre	-11.4497
▁demostra	-11.4497
berto	-11.4497
▁Sé	-11.4497
▁cito	-11.4498
▁vinculado	-11.4498
▁viúva	-11.4501
tribuíu	-11.4503
▁afundi	-11.4507
▁Leo	-11.4507
▁Timo	-11.4507
▁Francesc	-11.451
▁Coma	-11.4514
▁Unidade	-11.4514
▁designación	-11.4514
▁delta	-11.4515
▁Debe	-11.4521
▁oportunidades	-11.4522
▁defensiva	-11.4523
▁Sta	-11.4528
▁presidi	-11.4532
cano	-11.4533
passe	-11.4535
▁Bat	-11.454
▁Ll	-11.4545
▁propagand	-11.4546
▁NASA	-11.4552
▁castigo	-11.4552
▁contempla	-11.4552
▁fantasía	-11.4552
▁reconstruída	-11.4552
▁colocou	-11.4552
▁azuis	-11.4552
▁Andrew	-11.4552
▁castrexo	-11.4556
▁godo	-11.4557
▁Tar	-11.4561
▁Link	-11.4564
moto	-11.4565
▁East	-11.4569
▁alimentaria	-11.4572
▁Elvi	-11.4574
▁remonta	-11.4577
▁deter	-11.4579
▁Well	-11.4582
▁Sud	-11.4582
quê	-11.4583
▁dono	-11.459
▁talo	-11.4592
▁Carlom	-11.4592
▁espacia	-11.4594
▁avanza	-11.4594
▁ocasiona	-11.4595
▁Parti	-11.4598
▁rematado	-11.4601
eoría	-11.4602
▁Pat	-11.4605
▁text	-11.4605
liz	-11.4607
acultade	-11.4612
▁Cáucaso	-11.4612
▁Giovann	-11.4612
▁horizonte	-11.4612
▁paradigma	-11.4612
▁clan	-11.4613
▁Presenta	-11.4613
ova	-11.4614
▁severa	-11.4616
▁herd	-11.4619
▁armamento	-11.462
▁afastada	-11.462
▁enfronta	-11.4626
▁Gonza	-11.4632
▁Alex	-11.4634
▁aula	-11.4636
right	-11.4636
▁dólar	-11.4642
eminario	-11.4643
▁Cova	-11.4644
ell	-11.4645
▁Sega	-11.4648
▁recomenda	-11.4655
▁negocia	-11.4655
ip	-11.4656
▁juntos	-11.4657
▁afectan	-11.4661
▁polio	-11.4662
▁acabado	-11.4665
▁desenvolven	-11.4671
▁Castrelo	-11.4673
▁eucariota	-11.4673
▁simboliza	-11.4673
▁tóxico	-11.4673
▁conduce	-11.4673
▁Após	-11.4673
▁sueca	-11.4673
cepción	-11.4673
▁barato	-11.4674
▁recordo	-11.4675
ergé	-11.4678
▁cálido	-11.4678
usa	-11.468
▁custa	-11.4681
▁cultivar	-11.4682
▁feudal	-11.4682
▁Soto	-11.4683
▁capturar	-11.4684
▁Gau	-11.4685
uld	-11.4686
▁producía	-11.4687
ue	-11.4687
▁sonda	-11.4689
▁regularmente	-11.4694
▁cubrir	-11.4701
▁causando	-11.4702
agno	-11.4707
▁lidar	-11.4707
▁datado	-11.471
▁empresaria	-11.4715
zul	-11.4717
nica	-11.4717
▁imposi	-11.4725
▁Sala	-11.4725
▁embora	-11.4726
▁Tive	-11.4726
▁Acho	-11.4727
▁irlandes	-11.473
▁traslado	-11.4731
atura	-11.4733
▁Aérea	-11.4734
▁adolescencia	-11.4734
▁cidadan	-11.4734
▁confederación	-11.4734
▁diminúe	-11.4734
▁hospitais	-11.4734
▁excesiva	-11.4734
▁Branco	-11.4734
▁xeométrica	-11.4734
▁intermedio	-11.4734
▁progresista	-11.4734
▁separou	-11.4734
▁Facend	-11.4734
▁cinta	-11.4735
▁Walter	-11.4735
▁substancial	-11.4739
▁salario	-11.4739
▁teoria	-11.474
kla	-11.474
▁interesado	-11.4741
▁terem	-11.4745
▁invasor	-11.4745
▁colo	-11.4746
▁experiências	-11.475
▁Cabana	-11.4753
▁bater	-11.4762
▁Angel	-11.4765
▁diminuír	-11.4774
▁codia	-11.4776
▁Mina	-11.4777
▁desexa	-11.4786
▁perguntas	-11.4786
▁Quer	-11.4788
▁continuaba	-11.4788
inda	-11.4788
▁melhorar	-11.4789
▁Dubl	-11.4793
▁funera	-11.4794
▁autóctona	-11.4795
▁intestino	-11.4795
▁xestiona	-11.4795
▁Checoslov	-11.4795
▁Jacob	-11.4795
▁citar	-11.4795
▁Natureza	-11.4796
▁Gramm	-11.4797
▁levaría	-11.4797
▁vendida	-11.4797
▁xulgado	-11.4804
▁alza	-11.4807
▁ambiental	-11.4818
▁Principa	-11.4818
▁Limi	-11.4819
uce	-11.4819
▁Estre	-11.4823
▁face	-11.4824
pé	-11.4829
▁pertencer	-11.4839
▁Les	-11.4847
▁rendi	-11.4853
▁alcumad	-11.4857
▁observou	-11.4857
▁práctico	-11.4857
▁tecnolóxico	-11.4857
▁xerarquía	-11.4857
▁fermosa	-11.4857
▁festividade	-11.4857
▁espello	-11.4857
▁suprimi	-11.4857
▁madurez	-11.4857
▁preferencia	-11.4857
evara	-11.4857
▁topo	-11.4858
▁tradutor	-11.4859
▁island	-11.4859
▁centrada	-11.4861
▁perfi	-11.4861
ray	-11.4864
▁sinalar	-11.4866
▁Urban	-11.4869
▁acumulación	-11.4869
▁representativo	-11.4869
▁toman	-11.4871
▁acu	-11.4871
▁convencer	-11.4874
▁Fer	-11.4876
▁Barreiro	-11.4882
▁orientada	-11.4882
▁respecta	-11.4883
▁Mour	-11.4886
hai	-11.4888
spírito	-11.4889
▁Angeles	-11.4891
▁xeno	-11.4898
▁computadora	-11.4898
▁renunci	-11.4904
▁Sub	-11.4911
▁Spi	-11.4919
▁atlántica	-11.4919
▁dignidade	-11.4919
▁humilde	-11.4919
▁inmensa	-11.4919
▁jovem	-11.4919
▁préstamo	-11.4919
▁sufixo	-11.4919
▁educado	-11.4919
▁manufactura	-11.4919
▁Adriá	-11.4919
▁financiamento	-11.4919
▁bacharel	-11.4919
▁profeta	-11.4919
▁arqueólogo	-11.4919
▁Filad	-11.492
▁pasta	-11.492
▁Noroeste	-11.492
▁complicada	-11.492
▁reduce	-11.492
▁engade	-11.492
▁Boa	-11.4925
▁superioridade	-11.4927
▁Mala	-11.4928
▁Galax	-11.4931
bade	-11.4932
▁arque	-11.4932
▁parar	-11.4935
▁santa	-11.4936
ixo	-11.4938
▁Tit	-11.4938
▁dezaseis	-11.4939
▁cole	-11.4941
▁amid	-11.4944
▁acudi	-11.4947
ation	-11.4948
▁estrutural	-11.4949
▁vixil	-11.4949
▁Common	-11.495
▁veñ	-11.4951
▁Homer	-11.4958
▁reg	-11.4969
▁alunos	-11.4972
▁antibióticos	-11.4972
▁Desenvolve	-11.4974
▁crédito	-11.4982
▁curtametraxe	-11.4982
▁estratéxico	-11.4982
▁hélice	-11.4982
▁migratoria	-11.4982
▁jogo	-11.4982
▁Harold	-11.4982
▁impreso	-11.4982
▁prefire	-11.4982
▁sustenta	-11.4983
▁Bush	-11.4984
-200	-11.4985
ello	-11.4987
▁Post	-11.4987
▁adic	-11.4989
▁baño	-11.499
▁conspiración	-11.499
▁falecemento	-11.4992
▁estadía	-11.4992
▁ilustración	-11.4993
▁sint	-11.4993
▁terapia	-11.4994
▁malo	-11.4995
ações	-11.4997
▁rap	-11.5004
▁integral	-11.5006
▁politica	-11.5016
▁rexeitado	-11.5021
▁desempeña	-11.5022
▁encarga	-11.5022
▁sejam	-11.5024
▁ilustrado	-11.5025
▁Brun	-11.5026
▁divorcio	-11.503
▁Pasa	-11.5032
▁continuamente	-11.5032
▁ratos	-11.5035
▁notar	-11.5038
▁escoller	-11.5044
senciais	-11.5044
▁complemento	-11.5045
▁fascista	-11.5045
▁olímpico	-11.5045
▁vínculo	-11.5045
▁difire	-11.5045
▁cerco	-11.5045
▁Beck	-11.5045
▁Anxo	-11.5047
▁proveñ	-11.5048
▁consecuente	-11.5049
▁Est	-11.5052
▁contratado	-11.5056
▁Orti	-11.5057
▁crecer	-11.5057
-3	-11.5059
▁navegante	-11.5061
▁Ya	-11.5062
▁domésticos	-11.5069
▁bela	-11.507
▁cientistas	-11.5072
▁integrou	-11.5075
▁permanecen	-11.5076
▁rexistra	-11.5084
▁Pon	-11.5085
▁Pla	-11.5087
tland	-11.5093
ef	-11.5096
▁BM	-11.51
▁France	-11.5101
▁digital	-11.5105
▁castrex	-11.5106
tudo	-11.5107
▁Consérva	-11.5108
▁adxacente	-11.5108
▁estranho	-11.5108
▁extraordinario	-11.5108
▁revelou	-11.5108
▁superfície	-11.5108
▁bretón	-11.5108
▁Harris	-11.5108
▁maxia	-11.5108
▁sasánida	-11.5109
▁serpe	-11.511
▁Hor	-11.5111
▁Matt	-11.5111
▁3000	-11.5113
▁Aria	-11.5119
▁determinante	-11.5119
▁estive	-11.5125
▁capazes	-11.5129
PD	-11.513
▁colocada	-11.5132
▁obviamente	-11.5133
▁disputar	-11.5134
▁Chega	-11.514
▁encontrou	-11.5143
▁Sete	-11.5143
▁nacen	-11.5144
omeo	-11.515
▁mitos	-11.5169
▁exitoso	-11.5171
▁guerrilla	-11.5171
▁limpeza	-11.5171
▁livre	-11.5171
▁representou	-11.5171
▁semelhante	-11.5171
▁apóstolo	-11.5172
▁Estím	-11.5172
▁apartamento	-11.5172
▁Saúde	-11.5172
▁fre	-11.5173
▁139	-11.5174
▁inclinación	-11.5175
▁entran	-11.5177
▁traiz	-11.5178
▁113	-11.5184
▁6-	-11.5186
laga	-11.5188
▁Steven	-11.5188
▁entregado	-11.5188
▁Sh	-11.5191
▁enverg	-11.5198
▁presentaba	-11.5203
▁amosar	-11.5204
▁vimos	-11.5207
elo	-11.5208
▁Circ	-11.5209
▁observado	-11.5209
▁decena	-11.521
▁teria	-11.521
▁abdica	-11.5213
▁planea	-11.5215
▁notícias	-11.5218
▁Rede	-11.5221
rar	-11.5223
▁Antigüidade	-11.5236
▁objetivo	-11.5236
▁opositor	-11.5236
▁universitaria	-11.5236
▁enderezo	-11.5236
▁eclipse	-11.5236
▁fenicio	-11.5236
▁grosa	-11.5236
▁estím	-11.5236
▁mongo	-11.5236
▁playoff	-11.5236
▁prefectura	-11.5236
▁antrop	-11.5236
▁nominal	-11.5236
▁ladeira	-11.5236
▁lealdade	-11.5236
▁teólogo	-11.5237
▁graxo	-11.5237
crate	-11.5237
▁constituía	-11.5238
▁outorgou	-11.5238
▁mineira	-11.5238
▁Guadal	-11.5241
▁Fale	-11.5243
▁levouno	-11.5247
▁homosexual	-11.5248
▁Avi	-11.5248
▁xesta	-11.5249
▁pigmento	-11.525
▁pensam	-11.525
▁interpretada	-11.5251
▁elaborar	-11.5253
▁crescer	-11.5255
tando	-11.5258
▁sentado	-11.5258
▁Ott	-11.5259
▁especialidade	-11.5264
▁operar	-11.5266
▁Ex	-11.5266
▁perce	-11.5269
▁pintar	-11.5269
▁frac	-11.5276
▁direito	-11.5282
▁regula	-11.5291
▁Claudi	-11.5293
▁Exe	-11.5294
utonomía	-11.5294
fort	-11.5295
▁falando	-11.5295
▁poñen	-11.5297
▁signific	-11.53
▁Apóstolo	-11.53
▁académica	-11.53
▁antecedente	-11.53
▁emitiu	-11.53
▁fármaco	-11.53
▁romántico	-11.53
▁lidero	-11.53
▁presb	-11.5301
▁Nevad	-11.5301
▁Young	-11.5301
▁Realizou	-11.5302
ficina	-11.5303
▁retóric	-11.5304
▁cresce	-11.5305
▁supor	-11.5307
▁desempeño	-11.5308
▁emigrar	-11.5311
▁tenham	-11.5313
▁enviada	-11.5313
▁asume	-11.5313
▁Bla	-11.5315
▁veem	-11.5316
eida	-11.5316
▁afroamericano	-11.5319
▁digo	-11.5326
▁sost	-11.5334
▁lazo	-11.5339
▁neuro	-11.5342
conomía	-11.5344
▁devido	-11.5344
▁cativo	-11.5345
gel	-11.5346
▁Esloven	-11.5347
▁aplicado	-11.5352
▁tido	-11.5354
▁Dav	-11.5356
▁coiro	-11.5357
▁porción	-11.5358
▁Institut	-11.5363
▁Clara	-11.5363
▁constituínte	-11.5365
▁curiosidade	-11.5365
▁parecida	-11.5365
▁substituto	-11.5365
▁traducida	-11.5365
▁visuais	-11.5365
▁válvula	-11.5365
▁xermano	-11.5365
▁Índia	-11.5365
▁Figuer	-11.5365
▁sedimento	-11.5365
unge	-11.5365
▁porteiro	-11.5366
▁fuga	-11.5366
▁levantou	-11.5366
▁Usa	-11.5368
▁recep	-11.5368
▁Vai	-11.5368
▁incrementar	-11.5371
▁reduciu	-11.5372
▁cualificación	-11.5372
▁permitiulle	-11.5375
▁sindical	-11.5375
▁Mich	-11.5378
▁invento	-11.538
▁rexeitar	-11.5381
▁tivesse	-11.5385
▁Pontede	-11.5386
▁ortodoxo	-11.539
tua	-11.5391
▁consumidores	-11.5392
▁duma	-11.5393
▁importación	-11.5394
▁salón	-11.5397
▁sacar	-11.5403
▁resistir	-11.5405
▁dixita	-11.5406
▁pensador	-11.5407
▁alterna	-11.5411
▁apoiaba	-11.5413
▁ATP	-11.5413
▁desexaba	-11.5416
▁Jon	-11.5418
iterio	-11.5419
▁doméstico	-11.5421
▁escuras	-11.5422
nell	-11.5425
▁Marc	-11.5428
▁facéndo	-11.5428
▁Convención	-11.543
▁Decreto	-11.543
▁dramático	-11.543
▁instalá	-11.543
▁Tód	-11.543
▁denominou	-11.543
▁asirio	-11.5431
▁pavillón	-11.5431
▁Tempo	-11.5433
▁referido	-11.5435
icios	-11.5438
▁aproximada	-11.5439
▁contactos	-11.544
▁artesán	-11.5441
▁Apoll	-11.5442
▁Malv	-11.5444
▁subida	-11.5444
▁peça	-11.5445
▁eido	-11.5446
▁Va	-11.5447
▁Unida	-11.5448
▁estoniano	-11.5448
▁gostaria	-11.5451
▁decorado	-11.5452
mentr	-11.5453
▁rexeitada	-11.5455
▁pecha	-11.5456
▁viaxeiro	-11.5458
▁occitan	-11.5461
torial	-11.5461
▁bate	-11.5462
▁proceden	-11.5465
▁131	-11.5465
▁Asi	-11.5469
▁Qual	-11.5471
▁goza	-11.5472
ourne	-11.5478
▁xogan	-11.548
▁Mira	-11.5482
tida	-11.5484
▁analiza	-11.5491
▁Cha	-11.5492
▁aplíca	-11.5496
▁contrário	-11.5496
▁fantástica	-11.5496
▁guerrilleiro	-11.5496
▁microorganismo	-11.5496
▁monopolio	-11.5496
▁repertorio	-11.5496
▁sistemática	-11.5496
▁Exterior	-11.5496
▁questões	-11.5496
▁Consell	-11.5496
▁icona	-11.5496
▁reforzo	-11.5497
▁radar	-11.5497
▁Traballa	-11.5497
▁tinta	-11.5498
▁arras	-11.5498
▁vestido	-11.5504
▁desejo	-11.5504
▁apunta	-11.5505
▁vertebrado	-11.5506
ern	-11.5507
▁vídeos	-11.5509
▁apreciar	-11.551
▁comparado	-11.5512
▁sábe	-11.5518
lig	-11.5518
▁mosca	-11.552
áveis	-11.5523
ring	-11.5524
▁Campos	-11.5525
▁agudo	-11.553
▁consulta	-11.5537
▁Tan	-11.5538
pra	-11.5546
▁documentado	-11.5555
▁emerxe	-11.5557
▁xefes	-11.5557
▁Cout	-11.5558
▁indicador	-11.5559
rase	-11.5562
▁arquivo	-11.5562
▁hexem	-11.5562
▁Alejandr	-11.5562
▁Coñéce	-11.5562
▁Proxecto	-11.5562
▁claustro	-11.5562
▁cobertura	-11.5562
▁fígado	-11.5562
▁inteligente	-11.5562
▁magnética	-11.5562
▁nórdico	-11.5562
▁objeto	-11.5562
▁sacrificio	-11.5562
▁Demócrata	-11.5562
▁insurrec	-11.5563
▁sepulcro	-11.5563
▁nicho	-11.5563
▁Flavi	-11.5565
▁Representante	-11.5567
cional	-11.5568
▁Sport	-11.5569
▁Johns	-11.5569
▁diga	-11.5572
oto	-11.5577
▁Republicano	-11.5579
▁visi	-11.5579
▁outorgado	-11.5582
▁che	-11.5585
▁navegador	-11.5588
uselle	-11.5599
▁termodinámic	-11.5599
▁Taiw	-11.5599
▁constituír	-11.5613
▁Dev	-11.5615
▁xustifica	-11.5616
▁neles	-11.5617
rosio	-11.5619
latino	-11.562
▁Cret	-11.562
▁lidera	-11.5622
▁Nicol	-11.5622
▁budis	-11.5624
▁atletas	-11.5625
▁protagoniz	-11.5626
▁conmemora	-11.5627
▁High	-11.5628
▁aritmética	-11.5629
▁crustáceo	-11.5629
▁mensagem	-11.5629
▁Ubu	-11.5629
púsc	-11.5629
▁estímulo	-11.5629
▁protagonizada	-11.5631
▁orella	-11.5631
align	-11.5631
dson	-11.5637
▁Serie	-11.5638
▁fotógrafo	-11.5639
▁sabedor	-11.5639
▁labrego	-11.5641
▁solista	-11.5641
▁Dio	-11.5643
▁encontramos	-11.5646
▁dança	-11.5647
▁Lagos	-11.5655
▁Jan	-11.5663
madura	-11.5676
▁Membro	-11.5678
nexión	-11.5681
▁afectar	-11.5682
▁pase	-11.5684
▁obtiver	-11.5684
▁industrializa	-11.5686
▁clar	-11.5687
▁North	-11.5687
ö	-11.5692
▁adóita	-11.5696
▁inspirou	-11.5696
▁minúscula	-11.5696
▁necessidade	-11.5696
▁ostrogodo	-11.5696
▁princípio	-11.5696
▁recompilatorio	-11.5696
▁robô	-11.5696
▁sucesivo	-11.5696
▁abadía	-11.5696
▁matriz	-11.5697
▁Risco	-11.5697
▁concede	-11.5698
▁Christian	-11.5698
▁Herman	-11.5698
▁Nelson	-11.5698
▁Magno	-11.5699
oane	-11.5699
▁Brian	-11.57
▁Transi	-11.5701
▁estará	-11.5704
▁Publicou	-11.5704
monos	-11.5705
▁pau	-11.5705
▁cela	-11.5706
tivemos	-11.5709
▁matou	-11.5709
▁ingredientes	-11.5713
▁navarro	-11.5715
av	-11.5718
▁fornecer	-11.5722
▁corno	-11.5722
▁satisfac	-11.5724
lim	-11.5726
▁Vivi	-11.5739
volución	-11.574
fendeu	-11.574
▁crer	-11.5741
▁Maur	-11.5744
BM	-11.5745
▁Best	-11.5746
▁capitalista	-11.575
▁chegado	-11.5751
ditorial	-11.5752
▁Valencian	-11.5752
▁Orixina	-11.5763
▁Líbano	-11.5764
▁atributo	-11.5764
▁demográfica	-11.5764
▁emprazamento	-11.5764
▁lámpada	-11.5764
▁padrões	-11.5764
▁rituais	-11.5764
▁frauta	-11.5764
▁móve	-11.5764
▁Noutro	-11.5764
▁desenvolvé	-11.5765
▁multiplica	-11.5767
▁louc	-11.5768
venceu	-11.5769
▁Reich	-11.5771
▁pin	-11.5771
▁rescat	-11.5773
▁Austra	-11.5774
▁Riva	-11.5775
▁clasificada	-11.5775
▁morfoloxía	-11.5775
▁rato	-11.5783
▁habitaba	-11.5786
imos	-11.5787
▁amosou	-11.5792
▁Anna	-11.5792
▁afirmaba	-11.5795
riam	-11.5809
▁correctamente	-11.581
▁noven	-11.5812
▁Amb	-11.5813
▁pontos	-11.5813
▁engadiu	-11.5816
▁mapas	-11.5818
▁executar	-11.582
▁Stu	-11.582
▁Banda	-11.5826
▁certamente	-11.5829
apitán	-11.5831
wig	-11.5832
▁Bohemia	-11.5832
▁Stephen	-11.5832
▁ideolóxica	-11.5832
▁possibilidade	-11.5832
▁subdivisión	-11.5832
▁curiosa	-11.5832
▁divino	-11.5832
eria	-11.5832
▁respectivo	-11.5832
▁estampa	-11.5832
▁entregou	-11.5833
▁adecuado	-11.5834
▁representativa	-11.5835
▁puntuación	-11.584
▁morais	-11.5841
▁cultivada	-11.5842
▁BD	-11.5843
▁BB	-11.5843
▁seleccionado	-11.5843
▁Hel	-11.5845
▁predomina	-11.5847
▁denomína	-11.5849
▁ecua	-11.5851
▁repous	-11.5852
araguai	-11.5852
▁definiu	-11.5874
▁xigantes	-11.5876
▁rompeu	-11.5879
▁preserva	-11.5883
▁comen	-11.5886
▁sexos	-11.5891
xil	-11.5892
▁silencio	-11.5894
▁campesiña	-11.59
▁bispado	-11.59
▁bárbaro	-11.59
▁indirecta	-11.59
▁maquina	-11.59
▁divina	-11.59
▁visíbe	-11.59
▁triunfa	-11.59
▁asasino	-11.5901
▁frecha	-11.5901
▁globo	-11.5901
▁accesible	-11.5901
▁compite	-11.5901
▁Prado	-11.5901
▁procesión	-11.5901
▁fotón	-11.5902
▁novelista	-11.5902
▁Doutor	-11.5902
▁Aleix	-11.5902
▁volcánico	-11.5902
▁levanta	-11.5903
▁masivo	-11.5905
▁criou	-11.5906
▁assunto	-11.5908
▁começaram	-11.5908
SD	-11.5909
▁Alan	-11.5909
pones	-11.591
▁Nice	-11.5911
versa	-11.5912
▁Sill	-11.5916
▁144	-11.5916
▁iria	-11.5919
▁Cang	-11.5922
▁comparti	-11.5923
▁Esco	-11.5924
▁impediu	-11.5924
▁senti	-11.5928
▁narrador	-11.593
▁Tr	-11.5931
ev	-11.5933
▁divulga	-11.5936
▁ampliar	-11.5939
▁Muro	-11.5944
▁ofrecen	-11.5944
▁contribuír	-11.5945
ower	-11.5945
▁marcar	-11.5946
▁excluí	-11.5947
▁vocal	-11.5947
▁filia	-11.5951
▁conquistador	-11.5951
▁Arm	-11.5952
▁mencionar	-11.5952
▁May	-11.5958
▁neurónios	-11.5961
cena	-11.5962
▁Cente	-11.5962
gli	-11.5963
wart	-11.5967
pera	-11.5967
▁aleatoria	-11.5969
▁auténtica	-11.5969
▁pulmonar	-11.5969
▁repente	-11.5969
▁Octavi	-11.5969
▁acuática	-11.5969
▁novidade	-11.597
▁caracterizou	-11.597
▁presta	-11.597
▁Robin	-11.597
▁fume	-11.5971
▁preço	-11.5971
▁larga	-11.5972
▁benestar	-11.5972
▁forzada	-11.5974
▁Carballed	-11.5976
▁adición	-11.5976
sur	-11.5976
▁Socie	-11.5977
▁Mit	-11.5977
▁Operación	-11.5978
▁116	-11.5981
▁envolve	-11.5981
▁similitude	-11.5984
▁Gol	-11.5984
▁contend	-11.599
▁Independente	-11.599
▁afastar	-11.5999
▁promociona	-11.6003
ixeria	-11.6018
▁Ferreiro	-11.6019
▁verbal	-11.602
▁Kim	-11.6022
feso	-11.6023
▁film	-11.6026
cc	-11.6028
▁protector	-11.6033
▁profesora	-11.6035
▁Especial	-11.6039
▁arranxo	-11.6039
▁cardíaco	-11.6039
▁conservou	-11.6039
▁reflexo	-11.6039
▁xeolóxico	-11.6039
▁relações	-11.6039
▁crucial	-11.6039
▁palco	-11.6039
▁quarto	-11.6039
▁produtividade	-11.6039
▁horta	-11.6039
▁Moisés	-11.6039
▁chip	-11.6039
▁Reforma	-11.604
▁fonda	-11.604
zig	-11.6041
▁elector	-11.6041
▁conquistado	-11.6041
▁exclusivo	-11.6042
▁Zona	-11.6042
▁Cantábric	-11.6043
▁Grim	-11.6045
▁cruzamento	-11.6046
▁exhibición	-11.6046
▁limite	-11.6047
▁Marqu	-11.6048
▁adaptada	-11.6048
▁devem	-11.6049
▁cir	-11.6052
▁mau	-11.6052
▁instrumental	-11.6053
viron	-11.6054
-9	-11.6058
fectou	-11.6059
chig	-11.6062
▁diferenciada	-11.6069
▁Paris	-11.6075
▁sobe	-11.608
▁Flame	-11.6083
▁Charl	-11.6088
▁cobra	-11.6091
collida	-11.6093
▁impar	-11.6094
▁Hous	-11.6095
dán	-11.6097
▁próprios	-11.61
alf	-11.6102
▁Torne	-11.6104
▁tua	-11.6106
▁Gordo	-11.6106
▁biodiversidade	-11.6109
▁convocou	-11.6109
▁devanceiro	-11.6109
▁dramaturgo	-11.6109
▁escisión	-11.6109
▁escándalo	-11.6109
▁eucalipto	-11.6109
▁interpretou	-11.6109
▁página	-11.6109
▁periodic	-11.6109
▁Down	-11.6109
▁Saudita	-11.6109
▁textura	-11.6109
▁inícia	-11.6109
▁aguda	-11.611
▁peche	-11.6111
negal	-11.6112
▁Syd	-11.6112
gregación	-11.6112
▁Azore	-11.6113
▁pôr	-11.6116
▁transmite	-11.6119
▁desprazar	-11.612
▁posuír	-11.6122
▁influenciada	-11.6122
poleto	-11.6124
▁devemos	-11.6125
▁Industrial	-11.6125
aliya	-11.6127
▁utilízan	-11.6127
▁significativos	-11.6128
▁xerada	-11.6135
▁interpretado	-11.6137
▁algoritmo	-11.6142
tain	-11.6146
▁Corpo	-11.6146
▁detalle	-11.6146
▁Lot	-11.6146
aldo	-11.6148
timo	-11.6149
▁constrúe	-11.6164
aram	-11.6167
rix	-11.6174
▁precede	-11.6177
▁cervexa	-11.6179
▁continxente	-11.6179
▁necessário	-11.6179
▁poético	-11.6179
▁substitúe	-11.6179
▁vocábulo	-11.6179
▁xeolóxica	-11.6179
▁Consegui	-11.6179
▁Virgin	-11.6179
▁audiovisua	-11.6179
▁interesse	-11.618
▁Ur	-11.6183
▁Hog	-11.6183
▁coração	-11.6183
▁133	-11.6183
▁LP	-11.6186
▁Mid	-11.6186
▁conservadora	-11.6187
▁cabra	-11.6188
▁linguagem	-11.6192
▁reivindicación	-11.6193
elfi	-11.6194
▁7,	-11.6195
sky	-11.6196
▁emprende	-11.6196
▁faro	-11.6196
▁comprobar	-11.6197
anxo	-11.6199
▁qualidade	-11.6201
▁Vela	-11.6205
▁Consist	-11.6205
▁preferido	-11.6205
▁astrónomos	-11.6209
▁cumpri	-11.6211
▁despraza	-11.6213
int	-11.6216
▁Sobrad	-11.6217
untos	-11.6219
▁Rú	-11.622
▁secas	-11.6221
▁exploradores	-11.6225
▁Jr	-11.6228
ufra	-11.6229
ence	-11.623
cé	-11.6233
▁banca	-11.6236
▁Sin	-11.6241
▁reúne	-11.6241
mbre	-11.6244
▁coinciden	-11.6247
ntic	-11.6248
▁Guatemala	-11.625
▁Imperial	-11.625
▁Xacobe	-11.625
▁arxila	-11.625
▁campá	-11.625
▁peregrinación	-11.625
▁reliquia	-11.625
▁simbólico	-11.625
▁Alcalá	-11.625
▁marxina	-11.625
▁rapidez	-11.625
▁Pompei	-11.625
▁pecado	-11.6251
▁cháman	-11.6251
▁praga	-11.6252
egovi	-11.6253
ebra	-11.6254
▁Fiz	-11.6256
▁Pum	-11.6256
win	-11.6256
▁oído	-11.6257
▁monumental	-11.6257
▁dragón	-11.6258
▁Sm	-11.6258
▁Volveu	-11.6258
cles	-11.6264
▁Eslov	-11.627
▁especifica	-11.627
▁vólve	-11.6271
▁penal	-11.6282
▁brill	-11.629
▁abuso	-11.6293
torga	-11.6301
▁ceder	-11.6301
▁encontran	-11.6303
grama	-11.631
pureza	-11.6312
rot	-11.6313
▁modifica	-11.6316
adeira	-11.6319
▁Higg	-11.6321
▁alicerce	-11.6321
▁progresivo	-11.6321
▁túmulo	-11.6321
▁traducir	-11.6321
▁rexurdi	-11.6322
▁tardío	-11.6322
▁Plut	-11.6322
▁traxedia	-11.6322
▁Brut	-11.6322
▁aprendizagem	-11.6322
▁aragon	-11.6324
▁maila	-11.6325
▁arteria	-11.6325
gada	-11.6327
▁pontevedr	-11.6328
▁envía	-11.633
▁laboral	-11.6333
▁suxeriu	-11.6334
vila	-11.634
▁avanzar	-11.6342
▁Executivo	-11.6342
▁Sever	-11.6343
ição	-11.6344
▁pasto	-11.6345
bón	-11.6347
llan	-11.6348
eresa	-11.6349
▁diferencial	-11.6351
▁Libera	-11.6357
▁podiam	-11.6358
▁someter	-11.6361
▁colaborador	-11.6365
nterior	-11.6366
▁Arsen	-11.637
chura	-11.6372
▁vota	-11.6373
▁Ah	-11.6373
cub	-11.6378
▁flúe	-11.6382
SM	-11.6382
▁regres	-11.6382
▁implicación	-11.6383
lav	-11.6389
▁león	-11.6389
mir	-11.6392
▁busc	-11.6393
▁axeitada	-11.6393
▁defensivo	-11.6393
▁metrópole	-11.6393
▁reproducir	-11.6393
▁vietnamita	-11.6393
▁bruto	-11.6393
▁Curti	-11.6393
▁diamante	-11.6393
▁reactor	-11.6394
▁máxica	-11.6394
▁deseñador	-11.6394
▁consciencia	-11.6394
▁transparente	-11.6396
mica	-11.6397
▁pomba	-11.6398
▁tecnologias	-11.64
▁corporación	-11.6401
▁editada	-11.6404
RC	-11.6409
▁March	-11.6411
▁qui	-11.6411
▁lanzada	-11.6412
▁atacado	-11.6414
▁Bayer	-11.6415
▁construtores	-11.6417
▁berc	-11.6419
real	-11.6422
▁Mé	-11.6426
▁inventou	-11.6426
▁raia	-11.6427
▁It	-11.6429
▁Latino	-11.643
▁valeu	-11.6431
▁conservada	-11.6431
▁z	-11.6433
hy	-11.6435
▁Chec	-11.6435
▁compre	-11.644
▁neo	-11.644
▁Clod	-11.6441
▁radioactivo	-11.6442
▁depender	-11.6444
redo	-11.6445
▁ánimo	-11.6448
olução	-11.6449
▁funcion	-11.645
▁escol	-11.6451
▁entregar	-11.6451
gor	-11.6451
▁estabelece	-11.6453
▁ouvido	-11.6453
tava	-11.6457
▁Das	-11.646
mede	-11.646
puxo	-11.6463
ódigo	-11.6464
▁Kennedy	-11.6466
▁acústica	-11.6466
▁alcaldía	-11.6466
▁anfibio	-11.6466
▁castiñeiro	-11.6466
▁catástrofe	-11.6466
▁consciência	-11.6466
▁descoberta	-11.6466
▁garantía	-11.6466
▁guarnición	-11.6466
▁sospeita	-11.6466
▁angular	-11.6466
▁acorde	-11.6466
▁Século	-11.6466
▁imposta	-11.6466
▁obrigatoria	-11.6466
▁coloración	-11.6466
▁exacto	-11.6467
▁milagre	-11.6467
▁álx	-11.6471
▁mercadoría	-11.6473
▁seminario	-11.6473
▁Bruc	-11.6473
▁exista	-11.6476
íxer	-11.6477
▁mãos	-11.6478
▁escoces	-11.6482
ega	-11.6484
iev	-11.6485
▁cuidados	-11.6488
▁glaciares	-11.649
▁lexítimo	-11.6493
▁aposta	-11.6494
▁ventr	-11.6496
▁fixar	-11.6496
ixón	-11.6497
▁academia	-11.6499
▁superado	-11.6503
▁noruegu	-11.6507
ich	-11.6509
▁Audio	-11.6517
▁encabezado	-11.6519
▁Belé	-11.6521
tualmente	-11.6522
▁Esse	-11.6529
▁autoriza	-11.6531
▁Thi	-11.6534
▁soub	-11.6535
▁rodean	-11.6535
}	-11.6539
▁concéntra	-11.6539
▁câmara	-11.6539
▁dependía	-11.6539
▁manhã	-11.6539
▁pedaço	-11.6539
▁perpendicular	-11.6539
▁pretensión	-11.6539
▁traduciu	-11.6539
▁voluntaria	-11.6539
▁Abraham	-11.6539
▁Athlet	-11.6539
▁promotor	-11.6539
▁máscara	-11.6539
▁prática	-11.6539
▁Carnot	-11.6539
▁aguia	-11.654
▁mérito	-11.6541
▁podio	-11.6541
▁atribúe	-11.6542
▁traxe	-11.6543
▁catedrático	-11.6543
▁desorde	-11.6543
▁Museu	-11.6545
▁ministerio	-11.6546
obio	-11.6546
▁Nick	-11.6548
rís	-11.6549
▁normativa	-11.6552
▁Bah	-11.6553
▁acreditar	-11.6553
▁Kant	-11.6556
▁corta	-11.6557
▁direitos	-11.656
▁Indo	-11.656
▁usá	-11.6562
▁2,5	-11.6562
▁Baco	-11.6564
▁ucraíno	-11.6565
sider	-11.6565
▁daqueles	-11.6566
▁Gr	-11.6567
▁asentar	-11.6567
rraca	-11.6568
▁bautizado	-11.657
veiro	-11.6571
jar	-11.6571
▁acredita	-11.6574
▁Dá	-11.6576
▁imita	-11.6577
▁acudir	-11.658
▁Andrea	-11.6581
▁professor	-11.6581
▁Corre	-11.6583
▁trae	-11.6583
gunt	-11.6584
lase	-11.6585
▁Pila	-11.6585
▁Fá	-11.659
▁Victor	-11.6591
▁chegara	-11.6593
tis	-11.6595
▁Estava	-11.6597
▁Valentin	-11.6598
▁prova	-11.6599
▁padece	-11.6603
▁escravo	-11.6604
▁toleran	-11.6606
han	-11.6611
▁acredito	-11.6612
▁convencido	-11.6612
▁suxeita	-11.6612
▁sánscrit	-11.6612
▁pantanos	-11.6612
▁Memoria	-11.6612
▁etimoloxía	-11.6612
▁acuático	-11.6612
▁esixencia	-11.6613
▁masacre	-11.6613
úl	-11.6614
▁macizo	-11.6614
▁lomb	-11.6614
▁apartado	-11.6614
▁expoñente	-11.6616
rroco	-11.6617
▁luta	-11.662
hec	-11.662
▁Carte	-11.6621
▁pulo	-11.6622
▁superan	-11.6623
▁atraves	-11.6628
▁102	-11.6628
▁trabalha	-11.6629
ísm	-11.6633
dicto	-11.6633
▁camada	-11.6633
podo	-11.6633
▁ligadas	-11.6634
▁coñéce	-11.6635
▁deixara	-11.6636
▁Pie	-11.6636
ramos	-11.6637
▁achar	-11.6638
▁falou	-11.6639
▁Calvo	-11.6641
▁noruegues	-11.6645
▁Interes	-11.6647
ávamos	-11.6651
▁agrupad	-11.6651
▁video	-11.6655
▁ameazada	-11.6655
ivelmente	-11.6661
sperma	-11.6665
▁fra	-11.6671
▁esquecer	-11.6673
▁incluían	-11.6673
▁ornamenta	-11.6674
▁servi	-11.6674
-6	-11.6685
▁Agu	-11.6685
▁desencade	-11.6686
▁gastronom	-11.6686
▁lóxico	-11.6686
▁peirao	-11.6686
▁Heracl	-11.6687
▁veneciano	-11.6687
▁roubo	-11.6687
▁dourada	-11.6687
▁ultramar	-11.6687
▁Mile	-11.6688
▁deixaba	-11.669
▁mate	-11.6691
▁descobrimos	-11.6691
▁maiúscula	-11.6692
▁vindo	-11.6692
▁massa	-11.6693
▁Xermánic	-11.6697
▁implicado	-11.6698
▁Fi	-11.6701
▁One	-11.6701
xar	-11.6709
▁oscilación	-11.671
uki	-11.6713
▁Apolo	-11.6718
rquitectura	-11.672
proximadamente	-11.672
▁Russel	-11.6722
▁Árabe	-11.6722
▁hip	-11.6723
▁Dia	-11.6728
▁maia	-11.6731
orio	-11.6731
▁ábre	-11.6737
▁Vel	-11.6737
▁UN	-11.674
▁coco	-11.6742
▁asimila	-11.675
▁proporcionan	-11.6753
asia	-11.6753
▁Xavi	-11.6756
▁obradoiro	-11.6758
▁xerador	-11.676
▁Ramir	-11.676
▁disposto	-11.6761
▁Shakespear	-11.6761
▁Vladimir	-11.6761
▁bérber	-11.6761
▁constituíndo	-11.6761
▁correspondía	-11.6761
▁idéntica	-11.6761
▁invitado	-11.6761
▁mazá	-11.6761
▁psicolóxico	-11.6761
▁xesuíta	-11.6761
▁Toyota	-11.6761
▁Award	-11.6761
▁feixe	-11.6761
▁vostede	-11.6761
▁estatísticas	-11.6761
▁Exposición	-11.6761
▁galiña	-11.6762
▁escudería	-11.6762
▁vencido	-11.6762
▁montaxe	-11.6762
▁polares	-11.6763
egel	-11.6763
▁investigação	-11.6763
dela	-11.6764
▁alega	-11.6766
▁Deza	-11.6767
forma	-11.677
▁administrada	-11.677
tafe	-11.6771
▁potas	-11.6771
ntena	-11.6777
▁Bai	-11.6781
▁Sacra	-11.6783
▁Cat	-11.6784
▁François	-11.6786
▁estabelecer	-11.679
▁helio	-11.6791
▁resta	-11.6795
▁manto	-11.6796
▁elixe	-11.6796
▁roca	-11.6797
▁cega	-11.6798
▁Euro	-11.68
▁poderosos	-11.6803
▁fará	-11.6807
▁interessa	-11.681
▁fluviais	-11.681
historia	-11.681
auber	-11.6811
ES	-11.6811
▁Catal	-11.6813
▁Revolucionari	-11.6813
▁suceder	-11.6818
▁doada	-11.6818
▁resultaba	-11.6821
ións	-11.6823
▁imaxina	-11.6826
▁quenda	-11.6829
ficiencia	-11.6831
▁God	-11.6832
▁aulas	-11.6833
▁moderniza	-11.6835
▁Declara	-11.6836
▁Jazz	-11.6836
▁comprendida	-11.6836
▁incapaz	-11.6836
▁longametraxe	-11.6836
▁metáfora	-11.6836
▁nocturna	-11.6836
▁taboleiro	-11.6836
▁abastece	-11.6836
▁calcaria	-11.6836
▁Presidencia	-11.6836
▁permita	-11.6836
▁Moldav	-11.6836
▁etn	-11.6836
▁Comerci	-11.6837
over	-11.6838
▁geração	-11.6838
▁critica	-11.6838
▁pioneiro	-11.684
▁ret	-11.6841
▁autob	-11.6841
▁atravesar	-11.6841
VE	-11.6844
▁Hart	-11.6844
▁inclusión	-11.6844
▁redu	-11.6847
▁estaciona	-11.6847
#	-11.6848
▁ensinou	-11.6849
▁Mame	-11.6849
▁Loi	-11.6849
▁fito	-11.685
▁Dour	-11.685
▁ligar	-11.6851
▁creá	-11.6855
▁xerado	-11.6858
▁Qui	-11.686
▁vectoria	-11.6862
▁celulares	-11.6863
▁aparecía	-11.6863
rote	-11.6865
▁residi	-11.6866
▁engadi	-11.6867
▁naturalmente	-11.6871
▁vende	-11.6872
▁incorporado	-11.6874
▁consecutivos	-11.6874
rsal	-11.6876
hei	-11.6877
▁Tale	-11.688
▁Troi	-11.6887
ndy	-11.689
uck	-11.6893
▁reconquista	-11.6896
▁crías	-11.6896
▁intervir	-11.6897
▁dist	-11.6901
xéne	-11.6903
▁realizaba	-11.6903
▁debuxa	-11.691
quisición	-11.6912
▁fragmenta	-11.6912
▁Acordo	-11.6912
▁Detroit	-11.6912
▁botánica	-11.6912
▁camisola	-11.6912
▁helicóptero	-11.6912
▁idéntico	-11.6912
▁planicie	-11.6912
▁simbólica	-11.6912
▁colisión	-11.6912
▁ritual	-11.6912
▁fideli	-11.6912
▁biomas	-11.6912
mencl	-11.6912
▁Benjam	-11.6913
▁sepultura	-11.6913
▁introduce	-11.6913
▁cachot	-11.6913
▁errada	-11.6914
▁costeiro	-11.6914
▁destacable	-11.6915
▁balan	-11.6916
▁permitido	-11.6916
▁frontal	-11.6918
▁Portela	-11.6919
▁Aquile	-11.692
mira	-11.692
▁tard	-11.692
▁ignora	-11.6922
▁Sr	-11.6925
▁convidado	-11.6926
▁Gre	-11.6927
▁pescador	-11.6928
▁240	-11.6929
▁aprecia	-11.693
▁orientado	-11.6932
▁pega	-11.6934
▁Liña	-11.6934
▁ascendente	-11.6934
▁controlaba	-11.6935
▁concentrar	-11.6941
nsito	-11.6947
▁Hé	-11.6954
▁Lá	-11.6955
▁Fiste	-11.6955
▁dispers	-11.6962
▁atleta	-11.6964
▁Rui	-11.6967
▁fazia	-11.6969
▁protagonistas	-11.6969
minou	-11.6972
llas	-11.6976
▁puidera	-11.6976
▁Gañ	-11.6976
▁anarquis	-11.6983
▁Times	-11.6986
▁Natura	-11.6986
her	-11.6988
▁extremidade	-11.6988
▁subtropica	-11.6988
▁frequente	-11.6988
▁espiña	-11.6988
▁consisti	-11.6988
▁distância	-11.6988
▁troll	-11.6988
▁térmico	-11.6988
▁autovía	-11.6989
▁barata	-11.6989
▁canteira	-11.6989
▁Lope	-11.6993
▁remoto	-11.6995
▁mineiro	-11.6996
▁Barca	-11.7
▁secular	-11.7002
▁gala	-11.7004
▁ostenta	-11.7005
▁incorporada	-11.7008
▁aproxima	-11.701
▁fracción	-11.701
▁insisti	-11.7015
▁xura	-11.7016
▁220	-11.7021
▁vivem	-11.7022
▁Salmo	-11.7024
▁estelar	-11.7024
▁perseguido	-11.7024
terminación	-11.7024
▁boi	-11.7024
cionario	-11.7028
▁Mik	-11.7032
▁Sarri	-11.7034
▁Feder	-11.704
▁minhas	-11.7043
▁tratan	-11.7045
▁encontrado	-11.7046
▁recorre	-11.7047
▁fino	-11.7049
▁solicit	-11.7056
▁expulsar	-11.7062
▁Church	-11.7065
▁Missouri	-11.7065
▁Oficial	-11.7065
▁atribuído	-11.7065
▁demócrata	-11.7065
▁ecolóxico	-11.7065
▁establéce	-11.7065
▁polícia	-11.7065
▁trasláda	-11.7065
▁hóspede	-11.7065
▁tambor	-11.7065
▁estraña	-11.7065
▁eliminatoria	-11.7065
pkins	-11.7065
▁pronome	-11.7066
▁prohibida	-11.7066
▁milita	-11.7066
▁administrado	-11.7066
rredor	-11.7069
▁sentiu	-11.707
▁Cels	-11.7072
▁repetición	-11.7073
▁datada	-11.7074
▁analizar	-11.7074
▁lenzo	-11.7076
▁poñendo	-11.7077
▁Lor	-11.7077
▁estudios	-11.7078
▁Band	-11.7079
▁comparar	-11.7079
▁pretendente	-11.708
▁Froila	-11.7081
▁tea	-11.7082
GT	-11.7084
▁oficio	-11.7084
▁cultivado	-11.7088
▁disolveu	-11.709
▁acabaría	-11.7094
▁sufrimento	-11.7095
▁patrona	-11.7097
▁Bom	-11.7098
▁embaixada	-11.7104
▁olho	-11.7104
▁escolher	-11.7106
▁pelota	-11.7106
▁equipado	-11.7107
▁velo	-11.7109
ller	-11.7111
▁privados	-11.7111
nom	-11.7115
▁Salt	-11.7118
▁aleta	-11.7119
nesse	-11.712
▁comezara	-11.712
▁Pequ	-11.7122
tila	-11.713
quitan	-11.7136
▁recibida	-11.7139
▁feminis	-11.7139
▁instituições	-11.7143
▁perímetro	-11.7143
▁Mongol	-11.7143
icaragua	-11.7143
▁Drive	-11.7143
▁australiana	-11.7143
▁Jeff	-11.7143
▁Quanto	-11.7143
▁proposición	-11.7144
▁armadas	-11.7145
▁dianteira	-11.7146
▁reuni	-11.7147
pul	-11.7148
▁Old	-11.7148
ucho	-11.7153
▁tectónica	-11.7158
▁preparada	-11.7159
▁acta	-11.7159
▁xitano	-11.7162
▁clasifica	-11.7162
bondo	-11.7163
▁compostelá	-11.7165
ranj	-11.7168
▁cultiva	-11.7175
▁Chap	-11.7175
▁Uxí	-11.7176
▁emigr	-11.7176
aki	-11.7177
penas	-11.7186
roso	-11.7187
ística	-11.7187
ladas	-11.7191
▁retira	-11.7193
▁Entro	-11.7196
▁crean	-11.7197
▁vertica	-11.7197
▁provocan	-11.7199
mio	-11.72
▁limpa	-11.721
stone	-11.721
▁percebi	-11.7211
sburgo	-11.7216
▁usam	-11.7219
▁EEUU	-11.7221
▁Kiribati	-11.7221
▁atribuída	-11.7221
▁harmonía	-11.7221
▁instaura	-11.7221
▁polímero	-11.7221
▁xemelgo	-11.7221
▁embarazo	-11.7221
▁alusión	-11.7221
fiquei	-11.7221
▁agulla	-11.7221
▁salientable	-11.7221
lmí	-11.7221
▁previr	-11.7221
▁mexicana	-11.7222
▁Life	-11.7223
▁chaman	-11.7224
▁Gilbert	-11.7224
▁uva	-11.7226
▁Xuv	-11.7227
sunción	-11.7227
▁virxe	-11.7227
▁aproveitamento	-11.7231
▁Hat	-11.7233
▁Lev	-11.7236
lada	-11.7237
▁Camil	-11.724
▁galardoado	-11.7241
vora	-11.7242
▁média	-11.7244
▁garanti	-11.7244
▁neoclásico	-11.7247
▁denso	-11.7247
▁reduci	-11.7253
▁subsisten	-11.7253
▁nó	-11.7256
illo	-11.7262
▁chá	-11.7267
▁excede	-11.7267
▁750	-11.727
▁necesitaba	-11.7276
▁casada	-11.7281
▁choca	-11.7283
▁Dioc	-11.7286
▁investir	-11.7289
▁apresenta	-11.7291
▁significar	-11.7293
▁ratific	-11.7293
▁coller	-11.7293
dución	-11.7295
tável	-11.7297
▁correspónde	-11.73
▁Facebook	-11.73
▁almacén	-11.73
▁aproveitou	-11.73
▁curioso	-11.73
▁encarcerado	-11.73
▁enerxético	-11.73
▁escribía	-11.73
▁extraterrestre	-11.73
▁ferroviario	-11.73
▁hórreo	-11.73
▁restablece	-11.73
▁vasta	-11.73
▁abreviatura	-11.73
▁comprendido	-11.73
▁billón	-11.73
▁faço	-11.73
▁sabio	-11.73
▁projecto	-11.73
▁arrastra	-11.7301
uwat	-11.7301
cidio	-11.7301
▁anime	-11.7304
▁tipoloxía	-11.7308
ochet	-11.7309
▁aspiración	-11.7313
▁estendía	-11.7317
ender	-11.7322
▁Vilal	-11.7323
▁combinada	-11.7325
▁Zo	-11.7331
▁contracción	-11.7332
▁radia	-11.7335
▁usamos	-11.7338
wi	-11.7342
mail	-11.7342
▁beber	-11.7343
▁preparado	-11.7352
▁defenden	-11.7353
▁diferenciado	-11.7353
▁Valent	-11.7353
▁coida	-11.7364
▁criaturas	-11.7366
lhi	-11.7369
cotiledón	-11.7379
▁déficit	-11.7379
▁informou	-11.7379
▁pertenza	-11.7379
▁rehabilita	-11.7379
▁válida	-11.7379
▁Berengue	-11.7379
▁Depende	-11.7379
▁Bouza	-11.7379
▁aspeto	-11.7379
▁Balear	-11.7379
▁emenda	-11.738
▁espero	-11.7381
nseca	-11.7382
▁vinculada	-11.7383
missão	-11.7383
▁involucrado	-11.7388
▁biólogo	-11.7388
▁xuda	-11.7407
▁precisaba	-11.7408
▁documentada	-11.7415
▁Ferr	-11.7415
euta	-11.7415
▁negócio	-11.7419
listas	-11.7419
▁adolescente	-11.742
▁Luci	-11.7421
▁atender	-11.7424
▁reforzar	-11.7424
encio	-11.7426
▁evacua	-11.7431
▁transportar	-11.7436
síntese	-11.7439
▁falamos	-11.7439
▁Ky	-11.7442
▁lun	-11.7444
▁Miran	-11.7447
▁formig	-11.745
▁infinita	-11.7452
▁apart	-11.7453
▁mortal	-11.7457
▁Atlanta	-11.7459
▁Ortega	-11.7459
▁arquitectónica	-11.7459
▁atinxe	-11.7459
▁cardíaca	-11.7459
▁diabetes	-11.7459
▁entusiasmo	-11.7459
▁piscina	-11.7459
▁razoamento	-11.7459
▁razões	-11.7459
▁ameaça	-11.7459
▁seareiro	-11.7459
▁cadeia	-11.7459
▁bélico	-11.7459
▁Hayd	-11.7459
▁Fidel	-11.746
▁surpreendente	-11.746
▁valenciano	-11.7461
▁chancel	-11.7462
▁Open	-11.7463
lot	-11.7466
▁eslava	-11.7472
ER	-11.7473
carta	-11.7474
▁cazadores	-11.7474
▁asesor	-11.7475
▁manex	-11.7475
▁estreada	-11.7477
▁produção	-11.7478
▁Sudá	-11.7484
▁Arco	-11.7488
▁fosfato	-11.749
media	-11.749
lacant	-11.7492
▁ingresa	-11.7494
▁Bon	-11.7496
▁celebrá	-11.7501
▁adicou	-11.7507
▁embar	-11.7517
▁efectivos	-11.752
▁Mot	-11.752
▁consumidor	-11.7523
▁Ved	-11.7524
▁produzir	-11.7525
▁Vale	-11.7528
▁maneiras	-11.7532
▁considerábe	-11.7534
▁Papúa	-11.754
▁bairro	-11.754
▁distintivo	-11.754
▁neutro	-11.754
▁tsunami	-11.754
▁conceito	-11.754
▁preferente	-11.754
▁estiv	-11.754
▁Atene	-11.754
▁dispostos	-11.754
▁formá	-11.754
▁desigualdade	-11.7541
▁óleo	-11.7541
▁informações	-11.7541
▁abella	-11.7543
▁Ronald	-11.7548
edalla	-11.7548
▁Time	-11.755
▁Puerto	-11.7551
▁volven	-11.7551
▁conseguia	-11.7552
▁conversas	-11.7557
▁Dun	-11.7558
▁Lind	-11.7559
rque	-11.7559
▁Zen	-11.7559
▁fórma	-11.7561
▁Ebr	-11.7561
rovenza	-11.7569
▁SS	-11.7572
uru	-11.7576
▁Bada	-11.7582
▁cloro	-11.759
▁Corn	-11.759
támos	-11.759
MI	-11.7592
▁Pala	-11.7593
ake	-11.7593
▁tranquil	-11.7594
▁estrato	-11.7594
▁pastore	-11.7597
▁cargada	-11.7597
breiro	-11.7602
▁mostraba	-11.7606
▁queira	-11.7611
▁característicos	-11.7612
ambul	-11.7615
▁Comun	-11.762
róximo	-11.762
▁intermedia	-11.7621
▁Iniciou	-11.7621
▁Singapur	-11.7621
▁estético	-11.7621
▁fonético	-11.7621
▁insulin	-11.7621
▁líquida	-11.7621
▁maioritario	-11.7621
▁sensibilidade	-11.7621
▁mixto	-11.7621
▁conxuga	-11.7621
▁Crónica	-11.7621
▁rostro	-11.7621
▁Chámase	-11.7621
▁falcón	-11.7621
▁Certo	-11.7621
▁Nado	-11.7621
▁enquisa	-11.7621
▁supremo	-11.7621
▁Studio	-11.7622
rnst	-11.7622
▁Ross	-11.7622
▁prevista	-11.7623
▁Night	-11.7625
▁resultan	-11.7627
▁prestixioso	-11.7631
▁Magn	-11.7631
▁pozo	-11.7631
▁vita	-11.7635
▁traseira	-11.7638
▁compartido	-11.7639
▁indoeuropeo	-11.764
▁curmán	-11.7644
▁bili	-11.7646
▁Emilia	-11.7648
▁servid	-11.765
▁Tex	-11.7654
▁comportamentos	-11.7656
▁Bab	-11.7658
▁Leva	-11.7659
▁carte	-11.7664
▁leira	-11.7664
▁temor	-11.7665
▁mortais	-11.767
▁revelar	-11.7671
ván	-11.7676
linio	-11.7677
▁Mercur	-11.7678
▁Stew	-11.7678
▁esquí	-11.768
▁Mad	-11.768
tívo	-11.7681
ncer	-11.7683
composición	-11.7685
▁prob	-11.7688
▁Verd	-11.7689
▁Fre	-11.769
▁Clark	-11.7693
▁Mada	-11.7693
▁elevados	-11.7695
▁luce	-11.7699
▁triste	-11.7701
▁Belgra	-11.7703
▁Lincoln	-11.7703
▁húngara	-11.7703
▁memória	-11.7703
▁pacífica	-11.7703
▁prexuízo	-11.7703
▁subxénero	-11.7703
▁envío	-11.7703
▁valioso	-11.7703
▁burro	-11.7703
▁fisicamente	-11.7703
áctea	-11.7703
▁Í	-11.7703
▁Vejam	-11.7704
▁747	-11.7704
▁Khan	-11.7704
▁Daquel	-11.7705
▁Hä	-11.7705
▁cheiro	-11.7706
▁entradas	-11.7708
▁pagamento	-11.7709
▁ancián	-11.7711
▁Caraca	-11.7712
▁conceptual	-11.7713
▁Lanza	-11.7714
▁comparada	-11.7714
▁xurado	-11.7717
▁dotado	-11.7718
▁glic	-11.772
▁incrementou	-11.7722
▁Peña	-11.7722
▁esquece	-11.7722
▁influído	-11.7723
▁pilota	-11.7725
▁asasinar	-11.7726
▁semanal	-11.7727
nix	-11.7732
mil	-11.7734
▁inclusiv	-11.774
▁far	-11.7741
▁Consta	-11.7742
▁avalia	-11.7742
▁Anto	-11.7749
▁ignor	-11.7753
▁Tur	-11.7753
▁compostelán	-11.7762
gard	-11.7766
▁quilómetro	-11.7767
▁devia	-11.7769
▁diversa	-11.777
▁colle	-11.7772
▁tentativas	-11.7774
▁Philip	-11.7777
nocenci	-11.7777
▁represénta	-11.7786
▁Bryan	-11.7786
▁Izquierd	-11.7786
▁Química	-11.7786
▁botánico	-11.7786
▁evolutivo	-11.7786
▁triangular	-11.7786
▁depredador	-11.7786
▁estendé	-11.7786
▁inflúe	-11.7786
▁racial	-11.7786
▁ampliou	-11.7786
▁procedía	-11.7786
▁Machine	-11.7786
▁directiva	-11.7786
▁Vanua	-11.7786
▁filtro	-11.7786
sticio	-11.7786
▁veleno	-11.7787
▁senhor	-11.7787
▁instante	-11.7787
▁prominente	-11.7787
▁velho	-11.7787
▁Savo	-11.7789
▁daría	-11.779
▁horario	-11.779
▁poli	-11.779
nesia	-11.7792
▁Gog	-11.7801
tente	-11.7801
▁mercar	-11.7801
▁criticado	-11.7802
▁Comp	-11.7803
▁ligação	-11.7808
▁veio	-11.7809
▁napoleónica	-11.781
▁tango	-11.781
▁pronunciado	-11.7812
▁Parada	-11.7812
mov	-11.7813
▁Flores	-11.7813
servatorio	-11.782
▁arame	-11.7821
▁mati	-11.7821
▁habe	-11.7828
▁polaca	-11.7835
isario	-11.7836
▁She	-11.7839
▁caca	-11.784
guía	-11.7843
arco	-11.7847
▁ecolox	-11.7848
▁queima	-11.785
▁Barri	-11.7851
▁comunicado	-11.7852
ami	-11.7853
tendendo	-11.7853
▁esixi	-11.7855
▁condiciona	-11.7856
estar	-11.7857
enstein	-11.7859
▁Villar	-11.7863
▁reprodutora	-11.7863
▁infe	-11.7865
▁Arca	-11.7867
▁Puebl	-11.7869
▁compartía	-11.7869
▁exercía	-11.7869
▁periférico	-11.7869
▁unificado	-11.7869
▁árbitro	-11.7869
▁dialecta	-11.7869
▁fascismo	-11.7869
▁vasto	-11.7869
▁glori	-11.7869
▁indicio	-11.787
▁obrigatorio	-11.787
▁Igna	-11.787
▁Semana	-11.7872
▁Luz	-11.7874
▁fóron	-11.7876
quistá	-11.7877
▁saco	-11.7878
▁ho	-11.7879
▁Cup	-11.788
ceos	-11.788
▁mesturado	-11.7881
bemos	-11.7883
▁Vers	-11.7883
▁Mendo	-11.7884
gula	-11.7891
▁métrica	-11.7892
▁Licenciad	-11.7892
▁Mach	-11.7892
▁sobresae	-11.7896
▁Patric	-11.7897
▁atacada	-11.7897
▁talla	-11.7897
▁listaxe	-11.79
▁gozar	-11.79
▁preocupado	-11.7902
▁urban	-11.7905
▁Seu	-11.7908
ugia	-11.7909
▁Tong	-11.7912
▁rápidos	-11.7913
▁manten	-11.7924
▁retiro	-11.7926
▁holandesa	-11.7926
▁morrera	-11.793
▁w	-11.7934
▁impor	-11.7934
row	-11.7934
▁preguntas	-11.7944
cum	-11.7945
▁Part	-11.7946
▁Corpora	-11.7948
▁Mat	-11.7951
hídrico	-11.7953
{	-11.7953
▁clasifíca	-11.7953
▁monstro	-11.7953
▁obsérva	-11.7953
▁perspetiva	-11.7953
▁restaurado	-11.7953
▁ribosoma	-11.7953
▁variábe	-11.7953
▁xadrez	-11.7953
▁cronista	-11.7953
▁reclamo	-11.7953
▁Agosti	-11.7953
▁inteiro	-11.7953
▁Evanxeo	-11.7953
▁interferencia	-11.7953
▁prohibiu	-11.7953
▁urbanización	-11.7953
▁palma	-11.7954
▁proviña	-11.7955
▁adicada	-11.7955
▁informativo	-11.7955
▁barro	-11.7955
▁pane	-11.7956
▁pensem	-11.7957
onostia	-11.7958
▁deseñar	-11.796
ebas	-11.796
▁sinto	-11.796
▁tardía	-11.7962
▁compartida	-11.7963
▁metano	-11.7964
éntase	-11.7964
▁viola	-11.7965
americana	-11.7966
▁recto	-11.7966
▁filo	-11.797
rne	-11.7972
▁parasito	-11.7972
▁101	-11.7973
xente	-11.7973
▁remo	-11.7975
▁trás	-11.798
▁mutuamente	-11.798
▁pensado	-11.7984
▁impedi	-11.7984
▁Pac	-11.7985
▁povo	-11.7987
▁pagán	-11.7989
▁bilingüe	-11.799
ível	-11.7993
▁escalar	-11.7993
▁escritorio	-11.7994
▁han	-11.8007
renal	-11.8009
▁irregulares	-11.8011
▁cinc	-11.8012
▁Colli	-11.8014
▁Wol	-11.8016
▁Teo	-11.8017
▁incr	-11.8019
▁Buda	-11.802
▁gañado	-11.8021
▁botar	-11.8022
▁Barrio	-11.8025
aspar	-11.8025
▁Riba	-11.8029
▁Dé	-11.803
▁prohib	-11.8031
▁edifício	-11.8033
itúa	-11.8034
▁practicar	-11.8037
ágora	-11.8037
ércul	-11.8038
▁Bridge	-11.8038
▁anglosaxón	-11.8038
▁escríbe	-11.8038
▁hidroeléctrica	-11.8038
▁ocorrido	-11.8038
▁psicolóxica	-11.8038
▁resonancia	-11.8038
▁rinoceronte	-11.8038
▁substrato	-11.8038
▁vacú	-11.8038
▁coloquial	-11.8038
▁pesqueira	-11.8038
▁cinética	-11.8038
igi	-11.8038
▁cognitiva	-11.8038
▁incerteza	-11.8038
▁Bank	-11.8038
ílico	-11.8038
▁Agra	-11.8038
▁pórtico	-11.8039
▁erudito	-11.8039
▁expreso	-11.8039
▁Area	-11.804
▁abstracta	-11.804
▁hi	-11.8041
▁Roman	-11.8041
▁convertida	-11.8042
bique	-11.8044
gart	-11.8045
énico	-11.8045
▁centrado	-11.8047
▁causante	-11.8048
▁glaciación	-11.8049
consi	-11.805
▁Camba	-11.8051
tório	-11.8052
ove	-11.8054
▁dianteiro	-11.8055
▁espa	-11.8056
▁nariz	-11.8056
▁predominan	-11.8056
▁103	-11.8058
▁fixese	-11.8059
▁dálle	-11.8062
▁Feira	-11.8069
cur	-11.8072
▁Rubi	-11.8076
▁Brad	-11.8078
▁levá	-11.808
▁conversación	-11.8082
▁Vincen	-11.8084
▁funcionan	-11.8086
▁Inc	-11.8096
▁repetida	-11.8097
▁administrar	-11.81
▁Dona	-11.8113
▁empera	-11.8115
▁inmedia	-11.8119
onstitucional	-11.8122
ground	-11.8123
▁Empréga	-11.8123
▁ameixa	-11.8123
▁compilación	-11.8123
▁híbrido	-11.8123
▁ladrillo	-11.8123
▁preparou	-11.8123
▁redonda	-11.8123
▁Ningué	-11.8123
▁contradición	-11.8123
▁filha	-11.8124
▁agrario	-11.8125
▁Road	-11.8125
▁precedente	-11.8126
gger	-11.8126
▁Gan	-11.8128
▁transmitida	-11.813
▁Sau	-11.8131
▁reacciona	-11.8133
▁Barc	-11.8136
▁decae	-11.814
▁condensa	-11.8143
▁rexistrou	-11.8143
ign	-11.8147
▁Good	-11.8147
▁Direc	-11.8149
▁pide	-11.8155
▁visitado	-11.8157
▁achegado	-11.8158
▁render	-11.8164
▁famílias	-11.817
óli	-11.8174
▁Casal	-11.8176
lava	-11.8179
▁pou	-11.818
▁pinta	-11.818
▁Herc	-11.8181
▁talle	-11.8184
vivencia	-11.8185
▁Sla	-11.8188
▁Pereira	-11.819
▁crente	-11.8197
▁abreviad	-11.8201
doto	-11.8205
▁inaugurad	-11.8208
▁Algun	-11.8209
▁Tudh	-11.8209
\	-11.8209
bkhaz	-11.8209
▁astronómico	-11.8209
▁companhia	-11.8209
▁discrimina	-11.8209
▁lexitim	-11.8209
▁milímetro	-11.8209
▁olímpica	-11.8209
▁propicio	-11.8209
▁Freud	-11.8209
▁bula	-11.8209
▁revé	-11.8209
▁revolução	-11.821
adical	-11.821
▁University	-11.821
▁impresionista	-11.821
key	-11.821
▁sublevado	-11.8211
▁obes	-11.8212
▁Pensa	-11.8212
▁Associat	-11.8213
▁edifícios	-11.8214
▁buscan	-11.8215
▁emerxente	-11.8216
▁medicamento	-11.8217
ingham	-11.8218
▁reitor	-11.8218
▁Histórico	-11.822
▁Castill	-11.8221
▁lentes	-11.8222
▁queixa	-11.8225
▁replica	-11.8227
▁gramatical	-11.8227
▁afeta	-11.8227
▁Gö	-11.8227
reixa	-11.8228
▁Monter	-11.8228
irão	-11.823
▁Josh	-11.8233
▁Margar	-11.8234
AR	-11.8236
▁procesador	-11.8239
▁fundi	-11.8242
▁produza	-11.8243
▁Base	-11.8248
▁redactor	-11.8249
▁nelas	-11.8253
▁indicación	-11.8253
esco	-11.8253
▁gobernaba	-11.8258
▁caixas	-11.826
suna	-11.8263
▁vea	-11.8267
ritz	-11.8269
▁rio	-11.8269
▁prado	-11.8271
▁Esquer	-11.8274
▁Turí	-11.8274
▁queren	-11.8274
▁competidor	-11.828
▁Georg	-11.8281
▁anunciar	-11.8284
▁Pand	-11.8296
éxime	-11.8296
ópteros	-11.8296
▁ecolóxica	-11.8296
▁estuario	-11.8296
▁institucional	-11.8296
▁monetaria	-11.8296
▁múltiplo	-11.8296
▁pianista	-11.8296
▁pneumático	-11.8296
▁tendência	-11.8296
▁McCart	-11.8296
▁essencial	-11.8296
▁astronauta	-11.8296
▁gasolin	-11.8296
▁válido	-11.8296
▁Taboad	-11.8296
▁detallada	-11.8296
▁supoñen	-11.8297
▁marrón	-11.8297
▁veciñanza	-11.8297
▁cranio	-11.8298
▁vejo	-11.83
▁Ul	-11.8301
ídeo	-11.8304
▁partilha	-11.8305
▁sonoras	-11.8306
quita	-11.8309
▁Shi	-11.8312
goña	-11.8314
▁desembarcar	-11.8316
▁Cou	-11.8317
▁conectada	-11.8318
▁monárquico	-11.8319
▁contribui	-11.8319
tividade	-11.8324
▁Pesca	-11.8325
▁fuxid	-11.8327
TP	-11.8327
▁pré	-11.8328
▁perd	-11.8328
▁sanción	-11.8331
emen	-11.8332
arte	-11.8333
▁opoñente	-11.8334
yd	-11.8341
lém	-11.8345
▁cubo	-11.8346
▁adapta	-11.8347
agre	-11.8348
garden	-11.8354
▁señoria	-11.8355
ô	-11.8357
tag	-11.8361
vários	-11.8364
▁Industria	-11.8366
amaica	-11.837
▁municipalidade	-11.8373
▁pó	-11.8376
▁termin	-11.8378
▁Lé	-11.8379
▁impren	-11.8382
▁Humb	-11.8382
▁existencial	-11.8383
▁cós	-11.8384
▁patria	-11.8384
▁proporcionou	-11.8384
▁Copenhague	-11.8384
▁carbonato	-11.8384
▁desaparecida	-11.8384
▁dinámico	-11.8384
▁esforço	-11.8384
▁inventado	-11.8384
▁tecnolóxica	-11.8384
▁tempestade	-11.8384
▁enfrontá	-11.8384
▁Inclus	-11.8384
ngola	-11.8385
▁ultra	-11.8385
▁diagrama	-11.8385
▁Musso	-11.8385
▁carteira	-11.8386
▁passei	-11.8386
▁animado	-11.8387
▁Muita	-11.8387
▁Pond	-11.8388
▁camión	-11.8389
▁guarda	-11.8389
▁Espart	-11.839
▁xoia	-11.839
▁chámaselle	-11.8391
▁espécies	-11.8392
▁postulado	-11.8392
ling	-11.8397
toba	-11.8398
▁Hesse	-11.8399
▁sumerio	-11.8404
▁numerosa	-11.8404
X	-11.8404
▁transformada	-11.8404
▁fomos	-11.8411
▁coala	-11.8412
▁afasta	-11.8413
fia	-11.8418
▁Coto	-11.8419
▁considéran	-11.8423
▁episcopa	-11.8424
▁qué	-11.8427
▁tempora	-11.8428
MA	-11.8429
▁defini	-11.844
▁desprende	-11.8441
▁tumor	-11.8441
▁Berna	-11.8442
▁terminal	-11.8448
▁traz	-11.8451
▁úte	-11.8451
▁Queen	-11.8453
▁evolucionar	-11.8459
▁Constan	-11.8464
▁bebés	-11.8464
▁leváron	-11.8466
▁permanen	-11.8466
è	-11.8467
▁demonstra	-11.8467
▁deteriora	-11.8468
▁Mc	-11.8471
▁agarda	-11.8471
▁Denomína	-11.8472
▁Infante	-11.8473
▁batallón	-11.8473
▁conífera	-11.8473
▁matéria	-11.8473
▁suplemento	-11.8473
▁comprou	-11.8473
▁Spu	-11.8473
▁Xuventude	-11.8473
▁Labor	-11.8473
▁Margarida	-11.8474
▁Román	-11.8475
▁Aquele	-11.8476
▁incapacidade	-11.8477
▁linda	-11.8477
▁comunicação	-11.848
▁procedencia	-11.8481
▁aviso	-11.8481
▁Aliado	-11.8483
▁especulación	-11.8483
▁abrigo	-11.8484
▁rug	-11.8486
▁barba	-11.8488
▁estoup	-11.8489
▁malas	-11.849
▁Dada	-11.8493
▁Cous	-11.8495
▁finaliz	-11.8495
▁xesto	-11.8495
▁anano	-11.8498
▁acordou	-11.85
▁tarda	-11.8502
▁saca	-11.8506
▁cente	-11.8513
pirit	-11.8514
▁Tes	-11.8521
▁empate	-11.8525
▁Nai	-11.853
▁patrocin	-11.8531
▁Had	-11.8531
▁Agui	-11.8531
▁provocado	-11.8533
▁Jenn	-11.8533
abilidade	-11.8534
▁precisar	-11.8539
▁Xi	-11.8543
▁trab	-11.8544
▁Camer	-11.8547
▁Encontr	-11.8548
lta	-11.8549
▁abordage	-11.855
actitude	-11.855
▁xeolox	-11.8553
▁raparigas	-11.8553
▁polinesi	-11.8555
rid	-11.8559
ernández	-11.8561
▁Copérnico	-11.8562
▁accidentad	-11.8562
▁brilhante	-11.8562
▁carballeira	-11.8562
▁créa	-11.8562
▁herexía	-11.8562
▁mandíbula	-11.8562
▁monopraza	-11.8562
▁necrópole	-11.8562
▁sintético	-11.8562
▁terrible	-11.8562
▁agresión	-11.8562
▁esposo	-11.8562
▁Bagdad	-11.8562
▁adversario	-11.8562
▁procesado	-11.8562
▁certificado	-11.8563
▁moble	-11.8563
udhon	-11.8563
▁suficientes	-11.8563
▁arrestado	-11.8564
▁Pastor	-11.8564
▁silvestre	-11.8565
▁abstracto	-11.8565
▁neta	-11.8565
▁manifestou	-11.8566
▁Petro	-11.8566
▁alelo	-11.8566
lsacia	-11.8567
▁cruel	-11.8567
▁estrito	-11.8567
▁Estrela	-11.8567
▁xeada	-11.8569
▁Dick	-11.8569
▁láser	-11.8569
▁tellado	-11.8571
▁Damas	-11.8572
▁fizer	-11.8574
▁avenida	-11.8576
▁pechar	-11.8582
▁cinzas	-11.8582
▁104	-11.8584
▁receber	-11.8586
edro	-11.859
▁capta	-11.86
ámo	-11.8601
▁Divers	-11.8605
▁presentador	-11.8605
▁ecuatoria	-11.8606
rixid	-11.861
▁preparados	-11.8615
▁bons	-11.8616
▁Obra	-11.8617
▁homo	-11.8618
▁autora	-11.8625
▁juntar	-11.8625
▁Iber	-11.8631
▁entro	-11.8632
vía	-11.864
çam	-11.8644
íme	-11.8646
▁Chad	-11.8648
idas	-11.8649
▁fertili	-11.865
▁fórman	-11.865
▁determinan	-11.8651
▁campan	-11.8651
chéga	-11.8652
▁cabina	-11.8652
▁endémica	-11.8652
▁rexemento	-11.8652
▁Frederic	-11.8652
▁autobiograf	-11.8652
▁suburbio	-11.8652
▁galaico	-11.8652
▁sobreviventes	-11.8653
▁associa	-11.8653
▁mês	-11.8653
ete	-11.8653
▁integr	-11.8655
▁embrión	-11.8655
▁Mend	-11.8655
▁Court	-11.8656
▁devolver	-11.8657
▁Lua	-11.8658
▁retina	-11.8659
▁sopa	-11.8659
▁cuarteto	-11.8659
▁magne	-11.866
vais	-11.8662
▁reparación	-11.8668
▁Fire	-11.867
ashing	-11.867
▁léva	-11.8672
▁ordenada	-11.8672
▁limi	-11.8672
▁reorganiza	-11.8673
▁Milan	-11.868
▁Gala	-11.8681
▁Sociedad	-11.8685
▁combinar	-11.8685
▁Reco	-11.8686
▁Pensem	-11.8688
▁salin	-11.8692
▁Informa	-11.8693
▁liso	-11.8697
▁fican	-11.8697
▁almacenar	-11.87
▁ramo	-11.87
▁ánim	-11.8702
▁Marian	-11.8704
hel	-11.8705
▁passou	-11.8709
▁comenta	-11.8717
▁posição	-11.8718
▁xuntar	-11.8723
oito	-11.8727
▁Fermi	-11.8727
ush	-11.8731
pção	-11.8733
▁exce	-11.8733
▁franqu	-11.8733
▁Eur	-11.8734
versão	-11.8736
▁transportado	-11.8739
óveda	-11.8742
▁Little	-11.8743
▁atlántico	-11.8743
▁carecía	-11.8743
▁circundante	-11.8743
▁desafío	-11.8743
▁desintegra	-11.8743
▁luteran	-11.8743
▁restaurar	-11.8743
▁Chamberl	-11.8743
▁óptico	-11.8743
génio	-11.8743
▁inverna	-11.8743
▁adhesión	-11.8743
▁Nuev	-11.8743
▁fermentación	-11.8743
▁elenco	-11.8743
▁Pronto	-11.8743
▁Programa	-11.8743
▁deformación	-11.8744
▁funerario	-11.8744
▁recipiente	-11.8744
▁Salvat	-11.8745
▁debuxante	-11.8746
▁Gius	-11.8746
▁túa	-11.8747
▁lendario	-11.8748
▁semanario	-11.8748
▁hemo	-11.875
oalición	-11.8753
▁Acer	-11.8753
▁Gene	-11.8754
▁transferido	-11.8756
▁má	-11.8756
▁marcador	-11.8757
▁Will	-11.8758
▁culmin	-11.8759
▁Mariño	-11.8759
▁Trent	-11.8759
▁Sei	-11.877
▁AP	-11.877
echt	-11.8772
▁Rich	-11.8773
▁albanes	-11.8778
▁Rev	-11.8778
hard	-11.8783
ash	-11.879
gang	-11.8793
burg	-11.8795
▁Tok	-11.8795
ntaxe	-11.88
▁Cibr	-11.8801
▁estudada	-11.8804
▁vin	-11.8806
▁gostam	-11.8807
▁Ocup	-11.8808
▁Har	-11.8809
▁estivesse	-11.8812
trapa	-11.8813
▁Polic	-11.8814
▁investido	-11.8818
▁organizador	-11.882
▁Gondo	-11.8821
▁funcionais	-11.8822
vidos	-11.8822
▁metalur	-11.8824
▁déron	-11.8825
▁ficam	-11.8826
▁Sist	-11.8828
▁Kell	-11.8828
▁magnet	-11.8829
▁excelen	-11.8829
▁Gor	-11.8831
▁móstra	-11.8835
▁Charlotte	-11.8835
▁Coñecid	-11.8835
▁circunscrición	-11.8835
▁desacordo	-11.8835
▁diacrítico	-11.8835
▁discográfico	-11.8835
▁inconsciente	-11.8835
▁chamába	-11.8835
▁humanista	-11.8835
▁sensação	-11.8836
▁esgota	-11.8837
▁creativa	-11.8837
▁Saga	-11.884
▁faceta	-11.8842
▁Cruzada	-11.8843
tanasi	-11.8845
▁consentimento	-11.8845
▁Cabra	-11.8845
▁Force	-11.8846
▁entrevistas	-11.8847
▁derrotada	-11.8848
▁conhecido	-11.8851
▁Alvar	-11.8851
▁investiga	-11.8857
▁sexualidade	-11.8861
streito	-11.8862
▁coñecían	-11.887
▁coca	-11.8874
▁escoll	-11.8875
▁dispersa	-11.8876
▁Conserva	-11.8877
tores	-11.8883
▁Pau	-11.8888
▁concentrado	-11.8889
▁comezaría	-11.8891
▁fé	-11.8891
CP	-11.8893
▁patro	-11.8893
▁axudan	-11.8893
▁expectativas	-11.8901
▁confirmar	-11.8902
util	-11.8908
▁pudesse	-11.8909
continente	-11.8919
iens	-11.8922
udio	-11.8924
▁inventar	-11.8925
▁executa	-11.8926
▁cicl	-11.8926
▁invertebrad	-11.8927
▁Christoph	-11.8927
▁Comarca	-11.8927
▁Recibe	-11.8927
▁ambición	-11.8927
▁conxunción	-11.8927
▁produtiva	-11.8927
▁tímpano	-11.8927
▁ultravioleta	-11.8927
▁vulnerable	-11.8927
▁valiosa	-11.8927
▁Budapest	-11.8927
▁quark	-11.8927
▁retirá	-11.8927
▁extinto	-11.8927
▁inercia	-11.8927
▁viría	-11.8927
▁prefixo	-11.8927
▁incuba	-11.8927
▁fervenza	-11.8927
▁vingan	-11.8927
▁gozo	-11.8928
▁inovação	-11.8928
▁ausente	-11.8929
▁Great	-11.8929
▁reivindica	-11.893
▁Freire	-11.8931
▁Burt	-11.8931
▁divisor	-11.8931
▁centenario	-11.8932
aju	-11.8932
▁remota	-11.8932
▁rendimento	-11.8933
▁determinou	-11.8934
▁admite	-11.8935
▁instala	-11.8935
▁Carva	-11.8936
▁instalada	-11.8937
▁molde	-11.8938
▁Tanz	-11.8939
▁aprendemos	-11.8939
▁brutal	-11.894
▁pintada	-11.8941
▁transmitido	-11.8941
▁conectar	-11.8944
rick	-11.8944
xenes	-11.8947
terra	-11.8949
▁conhecer	-11.8953
▁grel	-11.8958
▁cera	-11.8959
▁trío	-11.896
▁post	-11.8964
▁confirmado	-11.8966
▁relacionar	-11.8966
lsto	-11.8966
▁Cine	-11.8967
▁xogaba	-11.8969
▁alcanzan	-11.8972
▁elabora	-11.8974
▁Construí	-11.8974
▁conxela	-11.8981
▁dificulta	-11.8982
▁reparar	-11.8982
▁set	-11.8984
▁perden	-11.8986
▁acumula	-11.8988
genhei	-11.8989
▁facenda	-11.8991
▁genes	-11.8992
evi	-11.8993
▁Cen	-11.8994
▁construí	-11.8995
▁gozaba	-11.8996
▁debilita	-11.9002
▁configura	-11.9002
▁consolidar	-11.9015
mini	-11.9016
▁disputado	-11.9019
▁Mau	-11.902
▁atraído	-11.9021
▁austríaca	-11.9021
▁céltica	-11.9021
▁desgraza	-11.9021
▁direita	-11.9021
▁mítico	-11.9021
▁reconstruír	-11.9021
▁rupestre	-11.9021
▁únese	-11.9021
▁casual	-11.9021
▁cozinha	-11.9021
▁folcl	-11.9021
▁adheri	-11.9021
▁extinta	-11.9021
▁cineasta	-11.9021
▁constitucionais	-11.9021
▁dedíca	-11.9021
▁Certa	-11.9021
▁encarna	-11.9021
▁Anthon	-11.9021
▁microscopio	-11.9021
▁carencia	-11.9022
▁amostra	-11.9022
▁terríve	-11.9024
▁Caban	-11.9024
▁foxo	-11.9024
▁pH	-11.9024
▁referida	-11.9024
▁cónta	-11.9025
▁cálida	-11.9025
▁Somo	-11.9026
▁Joy	-11.9032
▁peseta	-11.9032
dar	-11.9033
▁influír	-11.9037
▁consumir	-11.9038
▁perdera	-11.9041
▁pasada	-11.9041
▁coello	-11.9043
▁Mug	-11.9046
▁observada	-11.905
▁renome	-11.9051
iami	-11.9055
upe	-11.9056
▁navegar	-11.9058
▁Cole	-11.9061
▁despedido	-11.9063
▁Mora	-11.9064
▁algoritmos	-11.907
▁Hunt	-11.9077
lariz	-11.9077
ttel	-11.9078
▁dividía	-11.9078
▁sentidos	-11.9084
▁sensor	-11.9085
orri	-11.9089
lus	-11.9091
IA	-11.9091
▁concorda	-11.9094
lecer	-11.9103
quino	-11.9105
húngaro	-11.9108
▁financeiras	-11.9108
▁peri	-11.9109
▁Anta	-11.9109
cencia	-11.911
▁Josep	-11.9113
▁vistos	-11.9114
▁apercebe	-11.9115
▁Atlétic	-11.9115
▁Había	-11.9115
▁pesqueiro	-11.9115
▁rochosa	-11.9115
▁romántica	-11.9115
▁sinfonía	-11.9115
▁tridimensiona	-11.9115
▁ventá	-11.9115
▁vicerrei	-11.9115
▁dedicá	-11.9115
▁terciario	-11.9115
▁mascota	-11.9115
▁hidrográfica	-11.9115
▁vírus	-11.9115
rpool	-11.9115
▁mistura	-11.9115
▁obteñ	-11.9115
▁Deporte	-11.9115
▁acontecido	-11.9115
▁fiable	-11.9116
▁Phil	-11.9116
▁presentá	-11.9116
▁elegante	-11.9118
▁Foot	-11.9118
▁Dominica	-11.9118
▁rendeu	-11.9119
▁sonoro	-11.912
▁primordial	-11.912
▁Manet	-11.9121
▁rexionalista	-11.9122
▁Obtiv	-11.9124
▁Seg	-11.9124
▁observatorio	-11.9124
▁apela	-11.9126
▁começam	-11.9129
▁cómic	-11.9134
▁pintado	-11.9137
reb	-11.9138
▁Ferreir	-11.9141
▁discutir	-11.9146
▁viñer	-11.9147
▁Song	-11.9152
▁abondo	-11.9152
▁Xén	-11.9161
▁solicitar	-11.9169
▁Honori	-11.917
▁gen	-11.9177
▁pinto	-11.9177
aldi	-11.918
stein	-11.9186
▁serviços	-11.9187
▁ganhar	-11.9191
▁troca	-11.9193
▁Zel	-11.9194
▁PN	-11.9196
area	-11.9197
▁lutar	-11.92
▁simetr	-11.9205
▁protagonis	-11.9207
ä	-11.9208
▁Tomá	-11.9209
inastía	-11.921
▁Bangladesh	-11.921
▁Wikipedia	-11.921
▁acompañou	-11.921
▁asegurou	-11.921
▁candidata	-11.921
▁explosivo	-11.921
▁gripe	-11.921
▁inimiga	-11.921
▁prehistórico	-11.921
▁restaurada	-11.921
▁vértice	-11.921
▁Dream	-11.921
▁bloco	-11.921
▁marxismo	-11.921
▁Semifina	-11.921
▁numérico	-11.921
▁Deixem	-11.921
▁modela	-11.9211
▁Salced	-11.9211
▁modernista	-11.9211
▁pensá	-11.9213
▁Heró	-11.9213
▁linear	-11.9214
▁impresionante	-11.9215
▁abdom	-11.9218
tección	-11.9218
▁compá	-11.9219
▁CF	-11.922
ylor	-11.9221
▁mai	-11.9222
unta	-11.9223
▁conseguido	-11.9223
▁cai	-11.9223
▁motivación	-11.9224
▁actuaba	-11.9228
▁Isi	-11.9232
▁criada	-11.9235
▁propoñe	-11.924
uma	-11.9241
▁federa	-11.9242
▁demostran	-11.9242
▁herdeir	-11.9244
▁Liv	-11.9245
▁programador	-11.9256
▁liberada	-11.9256
▁divisa	-11.9256
▁negócios	-11.9259
ob	-11.927
▁Cristian	-11.9283
▁360	-11.9284
▁Fox	-11.9285
rcus	-11.9287
edade	-11.9287
▁But	-11.9289
▁escapa	-11.9291
▁administra	-11.9291
▁imperia	-11.9296
▁Lour	-11.9298
▁tratada	-11.9299
▁Correo	-11.9299
▁vendedor	-11.9301
▁galeguis	-11.9302
concerto	-11.9302
video	-11.9302
▁Hawk	-11.9304
▁Chao	-11.9306
▁Globo	-11.9306
▁bolboreta	-11.9306
▁compañeira	-11.9306
▁confesión	-11.9306
▁consequência	-11.9306
▁flamenc	-11.9306
▁fotográfica	-11.9306
▁menstrua	-11.9306
▁tiburón	-11.9306
▁explicou	-11.9306
▁materno	-11.9306
▁Óscar	-11.9307
▁céu	-11.9307
▁interesou	-11.9307
▁Muller	-11.9307
▁astro	-11.9307
▁solidariedade	-11.9308
▁centenar	-11.9309
▁ato	-11.9309
▁malária	-11.9309
▁Vinc	-11.9309
▁socialdemócrata	-11.931
▁poemario	-11.931
weal	-11.931
▁blog	-11.9312
▁Pereir	-11.9313
rús	-11.9314
▁dezase	-11.9314
SA	-11.9314
▁maxistrado	-11.9315
▁pelexa	-11.9319
▁Walk	-11.932
ilicia	-11.9321
▁concentrada	-11.9322
▁baixar	-11.9325
▁Barb	-11.9326
▁construção	-11.9327
▁celo	-11.9327
eptu	-11.9329
▁negar	-11.9336
▁radioactiv	-11.9337
▁estimado	-11.9339
▁Buck	-11.9339
▁Intel	-11.9339
▁fisi	-11.9343
▁construíndo	-11.9345
seguinte	-11.9349
xestión	-11.9352
400	-11.9357
▁sonata	-11.9359
▁organização	-11.9359
dore	-11.9361
liveira	-11.9362
▁identificada	-11.9362
▁disputada	-11.9363
▁cadra	-11.9374
▁Mayo	-11.9376
▁Donat	-11.938
▁Pino	-11.9381
▁Blu	-11.9382
▁dominaba	-11.9385
▁conseguira	-11.9388
▁pilas	-11.939
▁colega	-11.9391
▁Im	-11.9392
mudo	-11.9394
▁art	-11.9396
▁corvo	-11.9397
llar	-11.9399
▁caen	-11.94
zaro	-11.9401
▁encontraba	-11.9402
▁intui	-11.9403
▁Metropolitan	-11.9403
▁estómago	-11.9403
▁lípido	-11.9403
▁miniatura	-11.9403
▁minoritaria	-11.9403
▁tripulante	-11.9403
▁orgullo	-11.9403
▁aborixe	-11.9403
▁fermoso	-11.9403
▁lugu	-11.9403
▁agradece	-11.9403
▁Birm	-11.9404
▁bautism	-11.9404
▁predición	-11.9404
▁Cabaleiro	-11.9404
▁Pot	-11.9404
▁whisky	-11.9404
▁Cornell	-11.9404
▁Gates	-11.9405
amboxa	-11.9405
▁afiliado	-11.9406
▁xenr	-11.9406
▁Light	-11.9407
▁surrealista	-11.9407
wiki	-11.9408
icular	-11.9409
▁voceiro	-11.9411
unqueira	-11.9411
▁Moren	-11.9412
▁mensual	-11.9413
▁vermes	-11.9414
▁vice	-11.9416
▁optou	-11.9416
▁soci	-11.9417
▁come	-11.9417
ioquí	-11.9418
▁particularidade	-11.9419
▁probou	-11.9419
▁mansión	-11.942
▁737	-11.942
▁escur	-11.9421
▁criminal	-11.9423
▁Dez	-11.9423
▁saiu	-11.9425
▁repara	-11.9427
▁Gai	-11.9431
▁governos	-11.9432
lul	-11.9432
▁Greg	-11.9434
▁Abel	-11.9436
▁Vim	-11.9444
▁barreiras	-11.9444
▁dé	-11.9454
▁descobri	-11.9459
▁Act	-11.9464
▁aprobar	-11.9467
proclamado	-11.9467
▁reina	-11.9468
▁porquê	-11.9469
▁construtor	-11.947
▁Quiz	-11.947
▁pratica	-11.9474
▁indi	-11.9476
uten	-11.9478
▁instrumenta	-11.9481
spacial	-11.9482
▁glaciar	-11.9483
▁boxe	-11.9484
▁practicante	-11.9485
▁Pois	-11.9492
▁leu	-11.9492
▁cargado	-11.9495
▁sagrada	-11.9497
▁pioneiros	-11.9497
▁inaugurada	-11.9499
▁Bak	-11.95
▁meteor	-11.9501
▁prefect	-11.9501
▁ní	-11.9501
▁accidental	-11.9501
▁catarata	-11.9501
▁cinematográfico	-11.9501
▁clínico	-11.9501
▁controvertido	-11.9501
▁drasticamente	-11.9501
▁enerxética	-11.9501
▁invernadoiro	-11.9501
▁rochoso	-11.9501
▁tópico	-11.9501
▁violoncell	-11.9501
▁evolução	-11.9501
▁extraído	-11.9501
▁Film	-11.9502
▁dolmen	-11.9502
▁unitario	-11.9502
▁Again	-11.9502
▁enzima	-11.9502
▁alongada	-11.9502
▁Kenya	-11.9502
▁Owen	-11.9502
▁Arquivo	-11.9503
▁Morris	-11.9503
▁Tosca	-11.9503
▁xuntanza	-11.9503
▁fenda	-11.9504
▁Trist	-11.9504
▁Bot	-11.9506
▁úsan	-11.9507
▁histori	-11.9508
▁brando	-11.951
▁alerta	-11.9511
▁cartaxines	-11.9514
▁Toma	-11.9517
▁consagrado	-11.9517
▁260	-11.952
▁Too	-11.9522
▁IU	-11.9522
▁Iria	-11.9524
▁antenas	-11.9536
queira	-11.9537
▁demora	-11.9537
▁plásticos	-11.9537
▁exercida	-11.9547
▁bin	-11.9548
▁paraíso	-11.9548
▁Nem	-11.9551
▁Padre	-11.9553
▁contro	-11.9556
nome	-11.9558
mite	-11.9562
▁pensan	-11.9562
▁avanz	-11.9562
▁araña	-11.9563
▁sito	-11.9564
▁irmão	-11.9565
uve	-11.9567
▁convenceu	-11.9567
▁renomead	-11.9571
▁conheci	-11.9573
▁neerlandes	-11.9578
▁valid	-11.958
▁estaleiro	-11.9581
▁hábitos	-11.9583
▁cuántico	-11.9585
▁Lice	-11.9589
cht	-11.959
▁franca	-11.9591
▁moleculares	-11.9593
▁montar	-11.9595
squerda	-11.9595
▁encerra	-11.9596
ingüística	-11.96
▁Nikola	-11.96
▁Eurocopa	-11.96
▁cidadãos	-11.96
▁clarinete	-11.96
▁intoxicación	-11.96
▁limítrofe	-11.96
▁meteorolóxica	-11.96
▁nebulosa	-11.96
▁néboa	-11.96
▁nórdica	-11.96
▁padrão	-11.96
▁plaqueta	-11.96
▁proteger	-11.96
▁oculto	-11.96
▁parcela	-11.96
▁roedor	-11.96
▁gravitacional	-11.9601
▁situou	-11.9601
▁depressa	-11.9601
▁procuro	-11.9601
▁berro	-11.9601
▁limpo	-11.9601
▁dubido	-11.9601
▁Tíbe	-11.9601
▁autentic	-11.9601
ciente	-11.9601
▁contrasta	-11.9602
▁compaixão	-11.9602
▁pica	-11.9602
▁inestable	-11.9603
▁gandeira	-11.9606
▁regulamento	-11.9606
▁Naval	-11.9607
▁abondosa	-11.9608
▁ordenar	-11.9608
▁pato	-11.961
▁crego	-11.9612
▁mercante	-11.9612
▁imparti	-11.9613
▁enseada	-11.9613
dice	-11.9613
zbequ	-11.9614
▁Deixo	-11.9614
▁reconhecer	-11.9615
▁proceder	-11.962
▁Quen	-11.9623
▁axita	-11.9625
▁imitación	-11.9625
▁Xesu	-11.9626
▁ilustra	-11.9628
▁Niet	-11.9632
▁Vermell	-11.9633
bage	-11.9635
▁Marcia	-11.9648
▁carecen	-11.9649
▁Buc	-11.9649
▁pot	-11.965
▁ist	-11.9655
▁consagra	-11.9658
▁Tai	-11.9662
▁Xordan	-11.9666
▁Luter	-11.9667
▁bloqueo	-11.9668
xenx	-11.967
▁árvores	-11.9674
▁negativos	-11.9675
nunciou	-11.9678
azor	-11.9679
▁estudaba	-11.9681
piro	-11.9682
▁somete	-11.9682
hol	-11.9684
▁estepa	-11.9684
ax	-11.9686
▁Berk	-11.9687
correr	-11.969
▁recebe	-11.969
▁Ner	-11.9691
lock	-11.9695
▁agua	-11.9695
▁tratando	-11.9699
goberno	-11.97
▁Caracteríza	-11.97
rough	-11.97
▁agasallo	-11.97
▁descríbe	-11.97
▁enfrónta	-11.97
▁galáxia	-11.97
▁imposíbe	-11.97
▁inglês	-11.97
▁interrupción	-11.97
▁madrugada	-11.97
▁mártir	-11.97
▁orgánulo	-11.97
▁perfeita	-11.97
▁telemóvel	-11.97
▁turbina	-11.97
▁fraude	-11.97
▁Brooklyn	-11.97
▁camiseta	-11.97
▁lagarto	-11.97
▁Converte	-11.97
▁enterramento	-11.97
▁analítica	-11.9701
▁condições	-11.9701
▁eólica	-11.9701
▁empeor	-11.9701
▁Johnny	-11.9701
▁amorosa	-11.9701
▁articulación	-11.9701
▁tórna	-11.9702
▁anotador	-11.9702
▁mobilidade	-11.9702
▁Tesal	-11.9705
derram	-11.9706
▁reprodutor	-11.9707
▁trasladada	-11.9707
▁comisario	-11.9708
▁parente	-11.9709
▁Mostra	-11.9714
▁esloveno	-11.9719
urio	-11.972
▁cumprimento	-11.9729
▁recomendación	-11.9731
▁recorrer	-11.9731
▁detecta	-11.9734
▁Brai	-11.9736
▁verificar	-11.9736
▁Juventu	-11.9738
▁diria	-11.974
▁abusos	-11.9741
▁incerta	-11.9742
xano	-11.9744
▁alfa	-11.9744
rrección	-11.9747
▁capturada	-11.9749
▁Punt	-11.9749
gán	-11.9758
▁sintetiza	-11.9758
▁esperado	-11.9759
▁importar	-11.9762
ótico	-11.9767
▁Jud	-11.9775
▁Olive	-11.9777
cara	-11.9778
▁Pav	-11.9779
▁sumar	-11.9781
▁Dei	-11.9781
▁reto	-11.9782
▁Cent	-11.9784
▁achegan	-11.9785
▁Edit	-11.9791
▁consisten	-11.9791
▁Enter	-11.9793
▁Hora	-11.9793
▁Muñ	-11.9794
▁preservar	-11.9796
zaret	-11.9798
▁Bonifac	-11.9801
▁Círculo	-11.9801
▁Himalaia	-11.9801
▁Saxonia	-11.9801
▁Science	-11.9801
▁anónima	-11.9801
▁dificuldade	-11.9801
▁ecrã	-11.9801
▁evanxeo	-11.9801
▁graduou	-11.9801
▁helenístic	-11.9801
▁logaritmo	-11.9801
▁lucro	-11.9801
▁perpetua	-11.9801
▁recoñecía	-11.9801
▁sozinho	-11.9801
▁temperada	-11.9801
▁triplo	-11.9801
▁concedida	-11.9801
▁iniciá	-11.9801
▁solucionar	-11.9802
▁colocá	-11.9802
▁produtivo	-11.9802
▁raposo	-11.9802
▁decisão	-11.9802
▁Administrativa	-11.9802
▁destrui	-11.9802
▁diagona	-11.9803
▁sério	-11.9804
▁penalti	-11.9805
▁trazer	-11.9805
▁ofrecía	-11.9805
▁malaria	-11.9805
▁fich	-11.9807
rbona	-11.9807
▁apropiado	-11.9807
▁rapariga	-11.9811
▁recae	-11.9811
▁significante	-11.9812
▁Main	-11.9815
▁audición	-11.9815
▁Johan	-11.9815
▁vibración	-11.9815
▁quilos	-11.9816
▁host	-11.9818
▁ganha	-11.9822
▁asocia	-11.9824
▁repoboa	-11.9825
▁Anne	-11.9829
fina	-11.9835
cast	-11.9837
▁Debut	-11.9843
▁certame	-11.9845
zán	-11.9847
▁Hip	-11.985
▁Claud	-11.9851
▁Gut	-11.9851
▁vivemos	-11.9851
▁parecem	-11.9851
ída	-11.9853
▁Fall	-11.9854
brindo	-11.9856
enny	-11.9863
▁Vanc	-11.9864
bane	-11.9864
▁Sabi	-11.9865
▁lim	-11.9866
elva	-11.9867
▁escr	-11.9867
▁Coca	-11.9868
▁informal	-11.9868
inger	-11.9872
▁preven	-11.9876
▁convenciona	-11.9878
guiar	-11.9884
ranio	-11.9887
akar	-11.9888
▁proclamar	-11.989
▁combatente	-11.9892
▁resalta	-11.9893
▁iría	-11.9895
▁responden	-11.9895
azán	-11.9895
tío	-11.9895
▁bote	-11.9896
moción	-11.9896
▁paro	-11.99
▁elaborou	-11.9902
ategoría	-11.9902
▁bactéria	-11.9904
▁campus	-11.9904
▁combustíbe	-11.9904
▁comprendía	-11.9904
▁improvisa	-11.9904
▁mosaico	-11.9904
▁semicircular	-11.9904
▁ascendido	-11.9904
▁bordea	-11.9904
▁charla	-11.9904
▁convocatoria	-11.9904
▁súpe	-11.9904
▁Girl	-11.9904
▁fresca	-11.9904
itanic	-11.9904
▁fractura	-11.9904
▁Euskadi	-11.9904
tski	-11.9905
▁mantida	-11.9905
▁imaxinario	-11.9906
▁Emma	-11.9906
▁comandada	-11.9908
▁mosquitos	-11.9911
▁Toro	-11.9912
▁pausa	-11.9912
▁faino	-11.9913
▁pesa	-11.9914
llada	-11.9914
▁curar	-11.9917
▁xusta	-11.9918
▁bon	-11.9919
▁leon	-11.992
▁criatura	-11.9921
▁Sco	-11.9921
▁Nazi	-11.9921
▁cede	-11.9923
▁cronolox	-11.9924
▁mergull	-11.9924
▁avaliación	-11.9926
monte	-11.9927
▁mastro	-11.9927
▁Dar	-11.9928
▁Gome	-11.9929
úde	-11.9932
▁Carra	-11.9932
voz	-11.9935
▁engala	-11.9937
▁Xust	-11.9941
▁eleva	-11.9942
▁Ordo	-11.9942
▁Monterre	-11.9942
outh	-11.9946
▁Tá	-11.9956
▁derivan	-11.9958
▁saía	-11.9958
▁Dj	-11.9961
▁Casp	-11.9962
▁dinamarqu	-11.9974
▁sap	-11.9976
razo	-11.9977
▁sedentari	-11.9981
▁entraba	-11.9984
mont	-11.9987
▁cabid	-11.9987
▁encaixa	-11.9989
rxia	-11.9989
▁mera	-11.9989
▁elíptica	-11.9989
▁Dante	-11.9995
▁multinaciona	-11.9995
▁circun	-11.9998
▁escap	-12.0002
rtiza	-12.0005
▁Matemática	-12.0007
▁asturiana	-12.0007
▁cúbico	-12.0007
▁discrepancia	-12.0007
▁neutrino	-12.0007
▁sistemático	-12.0007
▁genoma	-12.0007
▁milhão	-12.0007
▁decorada	-12.0007
▁trasladá	-12.0007
▁braço	-12.0007
▁rigorosa	-12.0007
▁Monumento	-12.0007
▁estimou	-12.0007
▁emerxencia	-12.0007
▁armadura	-12.0008
▁Corint	-12.0008
▁emisor	-12.0008
▁fogueira	-12.0008
▁engloba	-12.0009
▁Descart	-12.001
▁cristalina	-12.0012
▁disparar	-12.0012
▁nula	-12.0013
elixido	-12.0014
▁mobilización	-12.0017
▁Hild	-12.0018
▁resumo	-12.0018
▁Ken	-12.002
▁crema	-12.0021
▁Conrad	-12.0024
▁Creou	-12.0028
▁funcionaba	-12.0029
innat	-12.0029
▁primate	-12.003
▁rata	-12.0031
▁xenérico	-12.0031
iró	-12.0031
▁Planta	-12.0034
▁designada	-12.0034
cón	-12.0035
▁dominan	-12.0036
▁xurdido	-12.0036
▁Tir	-12.0039
▁Dam	-12.0045
ascar	-12.0052
lum	-12.0053
▁gui	-12.0064
▁fossem	-12.0066
toria	-12.0066
▁telefone	-12.0069
▁captar	-12.0071
▁Kar	-12.0076
▁rematan	-12.0078
rake	-12.0079
coñécese	-12.0081
▁Sony	-12.0085
▁burguesa	-12.0089
▁fil	-12.0092
IC	-12.0092
meiro	-12.0093
▁devo	-12.0094
▁informar	-12.01
ianz	-12.0102
▁cur	-12.0104
▁favorecer	-12.0108
embrand	-12.0111
·	-12.0111
▁ambicioso	-12.0111
▁apéndice	-12.0111
▁banana	-12.0111
▁decorativo	-12.0111
▁estatístico	-12.0111
▁fronteiriza	-12.0111
▁globais	-12.0111
▁ilegais	-12.0111
▁metodoloxía	-12.0111
▁portátil	-12.0111
▁prerroman	-12.0111
▁prusiano	-12.0111
▁publíca	-12.0111
▁ríxida	-12.0111
▁consolidou	-12.0111
▁cornixa	-12.0111
▁Guarda	-12.0111
▁repite	-12.0111
▁mantido	-12.0111
▁taxonom	-12.0111
▁pulso	-12.0111
▁terreno	-12.0111
▁recompilación	-12.0111
▁defendida	-12.0111
▁biologia	-12.0111
▁filamentos	-12.0112
▁mouro	-12.0112
▁poliniza	-12.0112
▁mudá	-12.0113
▁propor	-12.0114
▁linde	-12.0115
▁axudado	-12.0115
▁fertilizante	-12.0116
▁poderiam	-12.0118
▁furón	-12.0119
▁mutua	-12.012
▁AC	-12.0123
▁concibido	-12.0126
▁executados	-12.0126
▁Magda	-12.0129
▁acordar	-12.0129
dín	-12.0132
▁Line	-12.0133
▁reclamación	-12.0144
▁fur	-12.0145
▁acababa	-12.0145
▁avaliar	-12.0148
▁Lav	-12.0151
ssex	-12.0153
▁aumentan	-12.0155
longa	-12.0156
▁Morto	-12.0157
▁calzada	-12.0159
▁Amigo	-12.016
▁Alemá	-12.016
bain	-12.0162
udiencia	-12.0162
▁industrializado	-12.0163
▁Mariana	-12.0164
lyn	-12.0173
▁imper	-12.0176
▁queimar	-12.0181
▁retornar	-12.0184
▁perla	-12.0185
palo	-12.0186
▁poste	-12.0187
▁Bet	-12.0193
rain	-12.0193
▁elevar	-12.0197
▁admiti	-12.0197
▁persegui	-12.0203
▁Arg	-12.0215
ngele	-12.0215
▁catedra	-12.0216
urbio	-12.0216
▁Spring	-12.0216
▁babilonio	-12.0216
▁chileno	-12.0216
▁controvertida	-12.0216
▁córtex	-12.0216
▁dispoñíbe	-12.0216
▁hurrita	-12.0216
▁ideolóxico	-12.0216
▁lévedo	-12.0216
▁xoguete	-12.0216
▁amósa	-12.0216
▁flanco	-12.0216
▁cualidade	-12.0216
▁mixta	-12.0216
▁caldeira	-12.0216
▁saxón	-12.0216
▁Show	-12.0216
▁baleira	-12.0216
▁inmun	-12.0216
▁xeógrafo	-12.0216
▁simpatía	-12.0216
▁ganancia	-12.0216
▁Cleve	-12.0216
▁chegá	-12.0216
▁chão	-12.0216
▁Pipin	-12.0216
▁fusilado	-12.0217
▁matanza	-12.0217
▁Escritor	-12.0219
▁Villen	-12.022
▁adicado	-12.022
▁Ilustra	-12.022
▁Familia	-12.0221
▁manipulación	-12.0221
▁Ámb	-12.0222
▁reflectida	-12.0222
▁lucense	-12.0223
▁Theodor	-12.0224
▁medran	-12.0224
▁ordenamento	-12.0224
frontar	-12.0224
▁grafía	-12.0225
▁dispostas	-12.0227
▁Aní	-12.0227
▁Axi	-12.0228
▁radicalmente	-12.0229
▁supervivente	-12.0229
▁misteriosa	-12.023
latón	-12.023
rell	-12.0231
teís	-12.0233
hans	-12.0234
▁nervios	-12.0234
▁xeorxiano	-12.0236
angio	-12.0236
▁xeran	-12.0237
engala	-12.024
▁confiar	-12.0241
estade	-12.0241
▁Sina	-12.0242
▁deixado	-12.0244
▁Hard	-12.0245
▁funcionam	-12.0245
▁270	-12.0246
ouver	-12.0253
▁adquirida	-12.0254
▁irmã	-12.0254
▁portuaria	-12.0257
▁atlet	-12.0258
▁artesana	-12.0258
▁Meir	-12.0258
▁Numa	-12.026
▁paulatina	-12.026
▁establecen	-12.026
▁Saa	-12.0261
▁cubri	-12.0266
▁fomenta	-12.0267
▁contida	-12.0267
▁morren	-12.0268
ç	-12.0271
ain	-12.0272
▁bocado	-12.0273
▁And	-12.0274
▁explora	-12.0274
GC	-12.0275
▁transcenden	-12.0277
▁incluíron	-12.028
▁portador	-12.028
▁gañada	-12.0282
▁alban	-12.0284
▁recollen	-12.0286
▁Carballi	-12.0286
▁Age	-12.029
perfección	-12.0292
▁acadan	-12.0296
▁universa	-12.0296
ji	-12.0298
▁factoría	-12.0303
vira	-12.0308
▁tomo	-12.031
▁111	-12.0315
▁chegue	-12.0319
▁diríxe	-12.0322
▁Caballero	-12.0322
▁Continent	-12.0322
▁Descobri	-12.0322
▁Kepler	-12.0322
▁Número	-12.0322
▁Sucedeu	-12.0322
▁Transporte	-12.0322
▁alzhéimer	-12.0322
▁anexionad	-12.0322
▁castaño	-12.0322
▁cheminea	-12.0322
▁clasificou	-12.0322
▁confrontación	-12.0322
▁dialéctic	-12.0322
▁incompleta	-12.0322
▁incrible	-12.0322
▁inútil	-12.0322
▁pictórica	-12.0322
▁prolifera	-12.0322
▁videoclip	-12.0322
▁billete	-12.0322
▁cromat	-12.0322
▁estrofa	-12.0322
▁indicou	-12.0322
▁Têm	-12.0322
▁pechou	-12.0322
▁rigoroso	-12.0322
▁Sky	-12.0322
▁ansiedade	-12.0322
▁cartucho	-12.0322
▁decisões	-12.0322
▁envellece	-12.0323
lorado	-12.0323
▁automaticamente	-12.0323
▁sulfato	-12.0323
▁heroína	-12.0323
▁garante	-12.0323
▁terminación	-12.0323
▁renovable	-12.0323
▁Frente	-12.0324
cultura	-12.0324
▁gelo	-12.0325
▁Grove	-12.0325
▁Segura	-12.0326
▁refén	-12.0327
▁refería	-12.0327
▁xema	-12.0328
▁circo	-12.0329
▁Mec	-12.0329
▁favorita	-12.033
▁malaio	-12.033
sonte	-12.033
▁convocado	-12.0331
▁esperant	-12.0331
▁mostrando	-12.0331
▁Stra	-12.0332
▁metafísic	-12.0332
▁unanim	-12.0332
▁dispoñib	-12.0334
▁aclamado	-12.0334
eppe	-12.0335
▁posibilita	-12.0336
▁saiba	-12.0336
▁tornam	-12.0336
mediatamente	-12.0337
▁admitido	-12.0337
▁innovador	-12.0341
▁salgada	-12.0344
▁morcegos	-12.0344
▁roto	-12.0345
▁Evan	-12.0346
▁retro	-12.0348
tano	-12.0349
▁grá	-12.0357
▁resolveu	-12.0358
▁sacou	-12.0361
▁xenio	-12.0365
▁vestir	-12.0369
▁Bad	-12.037
▁rexistrar	-12.0371
dC	-12.0374
▁pól	-12.0377
▁ingresar	-12.0382
▁Mann	-12.0385
gricultura	-12.0385
feito	-12.0387
▁empat	-12.0389
▁mago	-12.0392
▁colonizado	-12.0394
▁conduzir	-12.0396
▁Frei	-12.0398
▁invadid	-12.0399
robable	-12.04
▁diversifica	-12.04
▁Acta	-12.0404
▁oficios	-12.0407
▁gramatica	-12.0408
▁sendeir	-12.0412
▁Nic	-12.0416
grán	-12.0416
▁alimentan	-12.0418
▁teor	-12.0422
oftware	-12.0424
▁eminente	-12.0427
narquía	-12.043
▁hinduís	-12.043
▁Contemporáne	-12.043
▁Elizabe	-12.043
▁Estatística	-12.043
▁Lombard	-12.043
▁Técnica	-12.043
▁artefacto	-12.043
▁expandiu	-12.043
▁gaivota	-12.043
▁gigante	-12.043
▁hidrocarburo	-12.043
▁impossível	-12.043
▁indirecto	-12.043
▁mercancía	-12.043
▁nucleótido	-12.043
▁organíza	-12.043
▁permanecía	-12.043
▁profecía	-12.043
▁promovido	-12.043
▁propriedade	-12.043
▁Democracia	-12.043
▁propicia	-12.043
▁Róm	-12.043
▁aldeia	-12.043
▁secuestrado	-12.043
▁volvía	-12.043
▁honest	-12.043
▁impresa	-12.043
▁montanha	-12.043
▁caloroso	-12.043
▁Cambi	-12.043
▁timbre	-12.0431
▁acima	-12.0431
incidencia	-12.0431
▁ozono	-12.0431
▁encontrei	-12.0431
▁Four	-12.0432
▁Mino	-12.0432
▁dixestivo	-12.0432
▁insuficiente	-12.0434
▁Constanci	-12.0434
ulli	-12.0434
nodo	-12.0435
eciano	-12.0437
▁Fight	-12.0437
▁chora	-12.0437
▁expux	-12.0438
▁creativo	-12.0439
▁recorrente	-12.0439
▁Faz	-12.044
▁policial	-12.0445
▁dó	-12.0445
▁secuela	-12.0447
▁brigada	-12.0447
▁finito	-12.0449
▁Thor	-12.0451
▁sufría	-12.0451
▁continuado	-12.0453
▁licenciou	-12.0454
[...]
