<unk>	0
<s>	0
</s>	0
<pad>	0
s	-2.80924
▁,	-3.14713
▁.	-3.2469
▁de	-3.27197
▁a	-3.63756
▁e	-3.86163
▁o	-3.96865
▁que	-4.17089
;	-4.32103
▁&	-4.34742
quot	-4.38593
▁do	-4.44314
▁da	-4.59105
▁en	-4.60339
▁	-4.68271
o	-4.98286
▁A	-5.00816
▁é	-5.10817
a	-5.13728
▁un	-5.16643
n	-5.18983
▁no	-5.21381
se	-5.24323
▁O	-5.25567
▁unha	-5.30911
▁na	-5.3202
(	-5.39364
▁)	-5.40454
▁os	-5.42767
▁para	-5.44665
▁por	-5.53681
▁como	-5.54577
▁se	-5.57322
▁ao	-5.59737
▁súa	-5.61596
▁seu	-5.63352
mente	-5.70956
▁foi	-5.77011
u	-5.77514
▁dos	-5.78258
es	-5.78445
▁con	-5.79733
is	-5.82831
▁máis	-5.85897
▁á	-6.02769
▁:	-6.06524
▁ou	-6.06795
▁as	-6.08929
l	-6.16012
▁non	-6.16114
ndo	-6.18774
▁En	-6.1968
r	-6.27316
▁das	-6.31575
ción	-6.32351
▁ano	-6.38452
on	-6.40213
▁son	-6.40791
▁entre	-6.50937
▁polo	-6.5397
▁co	-6.56955
nde	-6.58096
-	-6.66485
▁ser	-6.66857
▁tamén	-6.66956
▁pola	-6.69127
▁parte	-6.71008
▁Os	-6.71304
▁anos	-6.7272
▁coa	-6.74824
▁era	-6.75934
e	-6.76377
▁E	-6.79214
▁sobre	-6.81184
ia	-6.87337
▁está	-6.88013
do	-6.93639
▁um	-6.9619
▁No	-6.97958
▁cidade	-6.98071
▁dun	-7.03579
▁nos	-7.04543
▁uma	-7.04674
índa	-7.07373
▁ata	-7.07759
▁século	-7.07829
ón	-7.08126
▁xa	-7.08273
0	-7.0937
▁forma	-7.1041
▁ó	-7.10894
ía	-7.11811
▁mesmo	-7.12212
▁pero	-7.12218
▁C	-7.13621
▁ten	-7.13962
▁As	-7.14138
ron	-7.16514
▁todo	-7.16718
▁I	-7.17286
▁esta	-7.17723
▁durante	-7.1904
▁Na	-7.20061
1	-7.20188
▁primeiro	-7.22858
▁illa	-7.22877
m	-7.23274
▁nome	-7.23391
▁mais	-7.23872
te	-7.24331
▁dunha	-7.24813
▁cando	-7.24862
▁pode	-7.25824
▁poboación	-7.27618
▁em	-7.27905
ou	-7.28546
en	-7.29989
▁não	-7.3034
▁este	-7.30482
▁É	-7.30864
▁primeira	-7.31997
8	-7.32528
▁moi	-7.33093
▁foro	-7.35017
▁P	-7.35371
▁só	-7.35399
▁dous	-7.35742
▁T	-7.35941
mos	-7.36554
5	-7.36737
▁nas	-7.37562
▁com	-7.3912
▁tiña	-7.41258
▁tempo	-7.41489
as	-7.43909
▁maior	-7.4513
▁nun	-7.45537
▁De	-7.45916
▁%	-7.463
▁habitante	-7.46672
idade	-7.47816
2	-7.50218
▁día	-7.50224
9	-7.50275
4	-7.50314
▁despo	-7.50618
▁sen	-7.50679
▁Este	-7.50708
7	-7.52578
3	-7.52729
▁mundo	-7.53648
▁Estado	-7.54001
▁vez	-7.54123
▁2	-7.54482
▁1	-7.54817
▁concello	-7.5581
6	-7.55826
nse	-7.56387
▁desde	-7.57358
da	-7.57899
▁vida	-7.59088
▁lugar	-7.59537
cia	-7.60313
▁tres	-7.60501
▁San	-7.60711
▁toda	-7.61251
▁outros	-7.61266
▁contra	-7.61269
és	-7.61436
▁?	-7.6459
▁nunha	-7.64753
▁moito	-7.65756
▁segundo	-7.66191
▁dú	-7.66887
i	-7.68681
▁Por	-7.68909
▁país	-7.68994
▁Foi	-7.69968
▁gran	-7.70058
▁cada	-7.70158
▁Esta	-7.71587
▁lingua	-7.72427
▁principal	-7.72742
▁guerra	-7.72999
▁grupo	-7.73658
▁ás	-7.75341
▁así	-7.75726
▁actual	-7.76162
▁parroquia	-7.77115
▁hai	-7.77301
▁estado	-7.77392
▁sur	-7.7806
▁xu	-7.7821
apos	-7.78346
▁home	-7.78404
▁;	-7.78508
▁estaba	-7.79495
▁novo	-7.79524
▁zona	-7.79556
▁m	-7.79627
▁polos	-7.8036
▁tipo	-7.8037
▁río	-7.812
▁baixo	-7.81653
▁goberno	-7.81785
▁deste	-7.81818
▁banda	-7.82227
▁grande	-7.82771
▁sistema	-7.8298
▁rexión	-7.83299
t	-7.83621
▁norte	-7.83882
demais	-7.84411
▁km	-7.84612
▁pouco	-7.8519
▁cara	-7.85603
▁S	-7.86261
é	-7.86568
▁Un	-7.87666
▁000	-7.88298
▁número	-7.88811
▁todos	-7.88846
▁muller	-7.8889
▁ter	-7.89468
▁rei	-7.89593
▁cunha	-7.89987
▁lle	-7.90085
▁provincia	-7.90274
de	-7.91401
▁poder	-7.91695
me	-7.9229
za	-7.92303
amén	-7.9237
▁importante	-7.92403
á	-7.93125
▁tanto	-7.934
▁sendo	-7.9515
▁traballo	-7.95217
▁Con	-7.95365
mento	-7.9541
▁poden	-7.95477
▁relación	-7.95816
▁isto	-7.96532
▁están	-7.96736
▁Galicia	-7.96824
▁Segund	-7.98237
y	-7.98701
▁outras	-7.99522
▁mar	-7.99748
▁antes	-7.99954
▁Se	-8.0074
▁punto	-8.00975
▁capital	-8.00985
▁auga	-8.01503
▁época	-8.0159
▁194	-8.01761
▁teñ	-8.01924
▁3	-8.02007
ismo	-8.02048
▁cun	-8.02598
án	-8.02797
▁Duran	-8.03923
▁cal	-8.04647
ña	-8.04674
▁medio	-8.04728
▁fillo	-8.05179
▁exemplo	-8.05207
ño	-8.06035
▁196	-8.06137
▁España	-8.06569
▁Unidos	-8.06737
este	-8.06788
▁muito	-8.07109
▁até	-8.07917
▁historia	-8.08571
▁menos	-8.08608
▁B	-8.08648
▁coma	-8.08897
▁tivo	-8.08971
▁xeral	-8.09149
▁ver	-8.09367
▁familia	-8.09842
▁Para	-8.09994
▁partir	-8.10158
▁porque	-8.10253
▁morte	-8.10708
▁período	-8.10823
ção	-8.10841
▁/	-8.10845
▁grandes	-8.11537
▁territorio	-8.11546
▁outra	-8.11828
▁galego	-8.11956
▁longo	-8.12006
c	-8.1208
▁nova	-8.12575
▁obra	-8.12599
▁algún	-8.12643
ta	-8.13004
▁193	-8.13279
ba	-8.13281
▁F	-8.13355
mo	-8.14299
▁especie	-8.14493
▁feito	-8.1463
▁Europa	-8.15102
▁último	-8.15149
▁ben	-8.16192
▁centro	-8.16822
▁195	-8.17358
▁—	-8.1777
▁xunto	-8.17936
na	-8.18237
▁catro	-8.18331
▁mesma	-8.18695
ronse	-8.18997
ando	-8.19129
▁equipo	-8.19327
▁especial	-8.19589
▁diferentes	-8.1979
▁maioría	-8.20416
▁cos	-8.20722
▁vario	-8.20735
▁10	-8.2136
▁Mas	-8.21538
▁terra	-8.22253
▁logo	-8.22399
▁coñecido	-8.22414
ca	-8.22487
ra	-8.22503
er	-8.2258
▁resto	-8.22746
▁II	-8.23199
la	-8.23639
▁outro	-8.23891
▁desta	-8.24108
▁xeito	-8.24872
z	-8.25175
res	-8.25357
d	-8.25467
▁persoas	-8.25502
iro	-8.25657
▁192	-8.26014
▁orixe	-8.26184
▁Unha	-8.26369
llo	-8.2657
▁à	-8.26699
lo	-8.26713
▁Como	-8.26773
▁momento	-8.26872
▁política	-8.28066
ntón	-8.28162
▁pessoas	-8.28325
io	-8.28364
▁H	-8.28609
▁eu	-8.29082
▁5	-8.29403
▁4	-8.295
▁M	-8.295
▁nado	-8.29518
▁base	-8.29858
▁varia	-8.30292
▁Franci	-8.30418
▁20	-8.30638
▁serie	-8.31163
▁La	-8.31478
▁comezou	-8.31667
▁moita	-8.31726
▁veces	-8.31962
▁Ist	-8.32058
▁chamado	-8.32073
▁pequena	-8.32154
▁isso	-8.32467
▁mentr	-8.32875
▁segunda	-8.33022
▁seguinte	-8.33047
▁mas	-8.33227
▁eles	-8.33313
▁forza	-8.33846
▁V	-8.34361
▁são	-8.34805
▁la	-8.34822
▁caso	-8.35055
▁final	-8.3516
to	-8.3565
▁dentro	-8.35806
▁millóns	-8.35967
▁países	-8.36608
▁Nova	-8.37321
ago	-8.37554
▁facer	-8.37678
ão	-8.38822
▁case	-8.38856
▁conta	-8.39357
▁casa	-8.39703
▁Santa	-8.39988
▁Non	-8.40466
▁pai	-8.40775
▁proceso	-8.41131
▁uso	-8.41153
▁nin	-8.41163
▁principa	-8.41186
▁-	-8.4143
▁posterior	-8.41528
▁sempre	-8.41717
▁debido	-8.41765
▁cultura	-8.41775
▁anterior	-8.41884
▁travé	-8.42646
neiro	-8.42801
▁si	-8.42802
▁re	-8.42943
▁Ao	-8.43061
▁antigo	-8.43227
▁197	-8.43237
▁tarde	-8.43606
▁media	-8.43789
▁Entre	-8.44018
▁fazer	-8.44116
al	-8.44228
▁fai	-8.44293
▁qu	-8.44978
▁191	-8.45821
tão	-8.46227
em	-8.46236
▁Así	-8.46371
xe	-8.47852
▁preto	-8.4835
▁The	-8.48596
▁atópa	-8.49192
▁principio	-8.49523
▁fin	-8.49544
▁total	-8.49572
▁N	-8.49604
▁algunha	-8.49781
▁álbum	-8.50089
nos	-8.50522
▁X	-8.51101
▁Universidade	-8.51201
▁meu	-8.51264
▁D	-8.51317
▁estrutura	-8.51646
▁maio	-8.51803
▁superficie	-8.51838
▁Co	-8.51937
▁R	-8.5198
▁actividade	-8.52398
▁fixo	-8.52489
ar	-8.52567
▁in	-8.52644
▁éxito	-8.52758
▁igrexa	-8.52861
▁estes	-8.53199
▁primeiros	-8.53289
▁Santi	-8.53464
▁30	-8.53737
am	-8.53806
k	-8.53965
▁Historia	-8.53971
▁el	-8.54193
gosto	-8.54221
lle	-8.5424
embro	-8.54398
▁propio	-8.54454
▁setembro	-8.54556
▁liña	-8.55124
▁Guerra	-8.5516
▁área	-8.55207
▁carreira	-8.55359
í	-8.55866
▁mellor	-8.5607
▁común	-8.5618
▁construción	-8.56282
▁coñecida	-8.56599
▁cinco	-8.56936
▁di	-8.57227
ín	-8.57267
▁dec	-8.57312
»	-8.57313
▁obras	-8.574
▁popular	-8.57537
▁palabra	-8.57565
ubro	-8.57662
▁1999	-8.57673
«	-8.57745
▁6	-8.57881
▁leste	-8.57971
▁Imperio	-8.58105
▁abril	-8.58115
▁chegar	-8.5813
▁converteu	-8.58174
▁finais	-8.58182
▁Terra	-8.58259
▁fora	-8.58354
▁190	-8.58511
▁out	-8.59015
▁sería	-8.59105
▁&#93;	-8.59159
no	-8.59377
▁título	-8.60223
▁&#9	-8.60309
▁oficial	-8.60711
▁música	-8.61038
▁pobo	-8.61071
▁década	-8.61409
▁importantes	-8.61604
▁disco	-8.61731
▁15	-8.61931
▁partido	-8.61973
▁planta	-8.62167
▁exército	-8.62312
▁vai	-8.62716
▁metros	-8.62862
▁cambio	-8.62896
▁Ten	-8.62925
▁estilo	-8.63068
▁dereito	-8.63221
▁Gran	-8.63296
▁algo	-8.63331
▁María	-8.63449
▁desenvolvemento	-8.63494
▁presidente	-8.63506
▁corpo	-8.6357
▁servizo	-8.63602
▁Eu	-8.64109
co	-8.64125
▁hoxe	-8.64215
▁Poré	-8.64252
▁Despo	-8.64649
▁tras	-8.64977
▁novembro	-8.65024
▁tempada	-8.65658
▁Madrid	-8.65684
▁2004	-8.65762
▁chegou	-8.66075
▁estudo	-8.6618
▁estas	-8.66348
▁función	-8.66523
▁termo	-8.66874
▁quen	-8.66932
▁agora	-8.66995
▁me	-8.67354
▁pasou	-8.67363
▁reino	-8.67428
▁produción	-8.67596
▁movemento	-8.67853
▁conxunto	-8.67983
▁última	-8.68571
▁febre	-8.68655
▁Está	-8.68729
▁8	-8.6889
▁calquer	-8.69003
▁Reino	-8.69073
▁propia	-8.6939
▁25	-8.69739
▁cor	-8.70203
▁temperatura	-8.71172
▁membros	-8.71193
▁campo	-8.71403
▁nós	-8.71554
▁chamada	-8.71581
▁orde	-8.71722
▁estar	-8.71731
▁Pero	-8.7197
▁2006	-8.72108
▁El	-8.72294
▁fonte	-8.72304
▁12	-8.72518
▁altura	-8.7275
▁costa	-8.72809
▁ca	-8.72976
▁teoría	-8.73004
▁ela	-8.73057
▁7	-8.73233
▁neste	-8.73431
ista	-8.73505
▁República	-8.73632
▁galega	-8.7397
▁Illa	-8.73992
▁meses	-8.74059
ce	-8.74061
▁posúe	-8.74182
▁apenas	-8.74543
▁situada	-8.74737
▁influencia	-8.74883
▁versión	-8.74892
▁industria	-8.74935
▁alto	-8.74965
p	-8.75044
▁L	-8.75164
▁Roma	-8.75349
▁idea	-8.75441
▁alta	-8.75608
va	-8.757
▁nivel	-8.75827
▁cidades	-8.7612
▁nunca	-8.76121
▁há	-8.76132
▁Premio	-8.76647
▁inglés	-8.76674
▁imaxe	-8.77154
▁único	-8.77417
dos	-8.77474
▁franc	-8.77504
▁lado	-8.77605
▁sexa	-8.77694
▁chega	-8.77882
▁libro	-8.77939
dade	-8.77951
▁sup	-8.77961
▁social	-8.78017
▁característica	-8.78032
▁comezo	-8.78056
▁papel	-8.7814
▁podemos	-8.78178
▁mil	-8.7821
▁2005	-8.78463
▁grupos	-8.78487
▁interior	-8.78603
▁Ca	-8.78761
▁arte	-8.78795
▁temos	-8.78897
▁Alema	-8.79501
▁Hai	-8.79563
▁morre	-8.79577
an	-8.79592
h	-8.7974
▁militar	-8.79868
▁fronte	-8.79896
▁antiga	-8.80772
▁comeza	-8.80898
▁volta	-8.81003
▁Mundial	-8.81036
▁tal	-8.81095
▁2007	-8.81836
▁político	-8.81983
▁ós	-8.81998
°	-8.82174
▁sua	-8.82185
▁Não	-8.82344
▁aparece	-8.82455
▁minha	-8.82656
▁seguintes	-8.82682
▁Partido	-8.82827
▁alemán	-8.83003
ez	-8.83167
ing	-8.83187
▁U	-8.83482
▁14	-8.83509
▁Mar	-8.83514
▁América	-8.83702
▁central	-8.83704
▁obxecto	-8.83796
▁irmán	-8.83805
▁luz	-8.83936
▁acordo	-8.83976
▁posto	-8.84103
▁cantidade	-8.84223
▁pequeno	-8.84504
▁tan	-8.84802
▁G	-8.85211
▁Unió	-8.85441
▁Coruñ	-8.85546
▁efecto	-8.85635
▁canción	-8.8582
▁posición	-8.85838
▁pesar	-8.85939
▁espazo	-8.86004
▁XIX	-8.86022
▁iso	-8.86124
▁pois	-8.86345
▁real	-8.86504
▁XX	-8.86552
▁189	-8.86786
▁11	-8.86947
g	-8.87
▁etc	-8.87317
▁causa	-8.87424
▁enerxía	-8.87481
▁canto	-8.8764
▁española	-8.87968
▁única	-8.88141
▁idade	-8.88194
▁Norte	-8.88385
▁Sur	-8.88552
▁nossa	-8.88761
▁situación	-8.88881
re	-8.88927
▁Italia	-8.89368
▁clase	-8.89368
▁nosso	-8.89533
▁9	-8.89908
▁problemas	-8.8991
▁eleccións	-8.89912
▁entidades	-8.90194
▁significa	-8.90251
▁nada	-8.90328
▁d	-8.905
nte	-8.90557
▁posible	-8.90661
▁nesta	-8.90761
▁50	-8.90814
▁situado	-8.91317
▁resultado	-8.91328
▁comarca	-8.91565
▁lugares	-8.91837
▁elementos	-8.91853
III	-8.9192
▁emperador	-8.9194
▁batalla	-8.92274
ina	-8.92367
▁normal	-8.92623
▁economía	-8.92634
én	-8.92711
▁su	-8.92766
▁pasa	-8.92804
▁romano	-8.92806
▁c	-8.93045
▁organización	-8.93084
▁superior	-8.93086
go	-8.93106
▁lista	-8.93135
▁Tras	-8.93319
▁recibi	-8.93363
▁problema	-8.93453
▁baixa	-8.93454
▁película	-8.93657
▁existe	-8.94116
▁Pedro	-8.94148
▁mundial	-8.94264
zo	-8.94296
▁data	-8.9434
▁cargo	-8.94384
▁localiza	-8.9475
▁forte	-8.94977
▁Nacional	-8.95011
le	-8.95027
▁18	-8.95038
▁particular	-8.95054
▁Nos	-8.95368
▁valor	-8.957
▁Des	-8.95727
▁16	-8.96132
▁natural	-8.96184
▁control	-8.96245
▁xogo	-8.96453
▁animais	-8.96492
▁persoa	-8.96654
▁grego	-8.96681
▁Son	-8.96743
▁programa	-8.96817
ria	-8.96979
▁Inglaterra	-8.97065
▁Carlo	-8.97505
▁aproximadamente	-8.97714
▁texto	-8.97981
▁ele	-8.98314
▁sector	-8.98326
oloxía	-8.98331
▁186	-8.98517
ga	-8.98523
▁escola	-8.98546
▁13	-8.98728
ado	-8.98955
▁permite	-8.99002
▁tem	-8.99027
▁finado	-8.99096
▁cale	-8.99114
▁condición	-8.99168
▁estão	-8.99172
▁metade	-8.99174
▁considerado	-8.99233
▁París	-8.99333
▁vila	-8.99448
ções	-8.99837
▁deles	-9.00016
▁dicir	-9.00182
▁capacidade	-9.00264
f	-9.00302
▁diverso	-9.00429
▁ciencia	-9.00507
▁24	-9.00641
ran	-9.0065
▁2000	-9.00711
mediante	-9.0076
x	-9.0078
▁modo	-9.00988
▁distribuído	-9.01264
ti	-9.01296
▁também	-9.01484
▁medida	-9.01671
ma	-9.01703
ro	-9.01707
▁internacional	-9.01762
▁referir	-9.02188
▁proxecto	-9.02254
GE	-9.02257
▁21	-9.02408
▁seis	-9.02483
▁100	-9.02595
b	-9.02838
▁estudos	-9.0291
redor	-9.03143
▁público	-9.03223
▁tropa	-9.03267
▁tód	-9.03567
▁187	-9.03627
▁188	-9.03671
▁membro	-9.03838
▁sociedade	-9.04194
▁británico	-9.04196
▁estadounidense	-9.04253
▁orixinal	-9.04266
▁Outro	-9.04313
▁porto	-9.04424
ería	-9.04501
arzo	-9.04677
▁español	-9.0469
▁ocasión	-9.04828
▁África	-9.0483
▁tamaño	-9.05406
▁clima	-9.0558
▁novas	-9.05909
▁acción	-9.05941
▁paso	-9.06019
▁2003	-9.06142
▁bastante	-9.06164
▁coisas	-9.06418
▁formación	-9.06441
▁falar	-9.06463
que	-9.06472
▁Xo	-9.06513
▁axuda	-9.06742
▁sentido	-9.06764
▁realidade	-9.06818
▁40	-9.06907
▁libre	-9.07302
il	-9.07494
▁Xa	-9.0769
▁propiedade	-9.07812
icamente	-9.07858
▁Existe	-9.08044
▁Igrexa	-9.0811
▁menor	-9.08128
▁local	-9.08157
▁22	-9.08402
onso	-9.08509
▁maiores	-9.08517
▁modelo	-9.08554
▁nacional	-9.08695
▁igual	-9.08751
▁importancia	-9.08767
estivo	-9.08873
▁diminu	-9.08967
▁Logo	-9.09011
▁of	-9.09013
▁europeo	-9.09067
▁tradicional	-9.09436
▁elixido	-9.09533
▁referencia	-9.09611
▁autor	-9.09675
▁debe	-9.09794
▁tradición	-9.09852
▁Ba	-9.09969
▁17	-9.09972
▁director	-9.10063
▁obxectivo	-9.10104
▁Al	-9.10113
▁Neste	-9.10155
▁comunidade	-9.10163
▁nomeado	-9.10201
▁presen	-9.10356
▁dar	-9.10489
▁diversas	-9.10775
▁Á	-9.11114
▁apoio	-9.11135
▁Cand	-9.11215
▁finalmente	-9.11719
▁York	-9.12059
▁Unido	-9.12416
▁linguaxe	-9.12454
▁Real	-9.12514
▁ir	-9.12589
▁verán	-9.12712
▁proba	-9.13252
▁23	-9.13302
▁Portugal	-9.13306
▁civil	-9.13431
▁dato	-9.1361
▁xogador	-9.13675
▁existen	-9.14173
▁interese	-9.14328
▁Riso	-9.14463
▁novela	-9.14468
▁boa	-9.14628
▁velocidade	-9.14697
▁cabo	-9.14772
▁aqui	-9.15017
▁maneira	-9.15147
▁vitoria	-9.15528
olos	-9.15657
▁xénero	-9.15784
▁K	-9.15909
▁segue	-9.15933
▁filme	-9.16085
▁184	-9.16175
gún	-9.16222
ante	-9.16618
▁Algún	-9.16896
vi	-9.16904
▁dirección	-9.17024
▁arredor	-9.17049
▁Vig	-9.17135
▁casos	-9.17188
▁volveu	-9.17221
ri	-9.17388
▁Outra	-9.17802
▁Estas	-9.17927
▁vista	-9.18264
▁núcleo	-9.18457
▁nai	-9.18614
▁loita	-9.18651
▁publicou	-9.18727
▁revista	-9.18788
pto	-9.18867
▁ante	-9.18934
▁municipal	-9.19232
▁pelo	-9.19285
▁coisa	-9.19323
▁francesa	-9.19591
▁fan	-9.19661
▁esa	-9.19698
▁xira	-9.19742
▁conseguiu	-9.19773
dor	-9.19774
▁27	-9.19788
▁183	-9.1979
▁material	-9.19888
▁información	-9.19941
▁rede	-9.19992
mbos	-9.20097
▁económico	-9.20123
▁Rei	-9.2017
▁man	-9.20177
▁sete	-9.20272
di	-9.20321
▁escrito	-9.20414
▁colonia	-9.20454
▁viaxe	-9.2053
▁crecemento	-9.20549
▁usar	-9.20576
▁Manuel	-9.20596
▁masa	-9.20649
▁letra	-9.20666
▁60	-9.20671
▁xente	-9.20802
▁primeiras	-9.21048
▁papa	-9.21375
▁28	-9.2154
▁montaña	-9.21546
▁Gali	-9.21562
▁levou	-9.21604
▁Má	-9.2179
▁creación	-9.2182
▁19	-9.2216
pi	-9.22186
▁Jos	-9.22249
▁natureza	-9.22296
▁difícil	-9.22297
▁futuro	-9.22303
▁marca	-9.22331
▁humanos	-9.2239
▁adoita	-9.2247
▁fundamental	-9.226
▁grazas	-9.22614
pe	-9.22707
▁Rus	-9.22748
▁Do	-9.22804
▁formar	-9.22961
▁carácter	-9.22985
▁!	-9.23054
▁mercado	-9.23089
▁XVIII	-9.23138
▁Francisco	-9.23265
▁compañía	-9.23334
tanto	-9.23408
▁leva	-9.23489
▁Compostela	-9.2355
▁alí	-9.23582
▁inverno	-9.23748
ve	-9.23821
▁novos	-9.24019
▁2001	-9.24043
▁independen	-9.24049
ram	-9.24139
▁lei	-9.24276
▁Castela	-9.243
▁occidental	-9.24347
▁sede	-9.24382
ceu	-9.24425
▁26	-9.24512
▁Segunda	-9.24637
▁concepto	-9.24799
▁edición	-9.24803
▁mal	-9.25025
▁terceiro	-9.25082
▁29	-9.25105
ión	-9.25441
▁têm	-9.25459
▁será	-9.2546
▁num	-9.25562
▁exterior	-9.25576
▁–	-9.25718
▁cabeza	-9.25726
▁2002	-9.25787
▁podem	-9.25839
▁camiño	-9.25862
▁humano	-9.26138
▁verdade	-9.26164
▁filla	-9.26189
▁levar	-9.26266
▁incluíndo	-9.26288
das	-9.263
▁Era	-9.26643
▁póde	-9.26647
▁práctica	-9.26718
▁India	-9.26737
▁premio	-9.2679
▁185	-9.26791
▁produtos	-9.26876
▁Re	-9.27065
▁China	-9.27088
▁realizar	-9.27542
▁composto	-9.27736
▁longa	-9.2793
▁soa	-9.27931
▁dá	-9.27951
▁escritor	-9.28038
▁pequenos	-9.28083
▁Le	-9.281
_	-9.28163
▁respecto	-9.28164
▁continua	-9.282
ton	-9.28208
▁2008	-9.28366
▁independente	-9.28497
▁Castro	-9.28529
in	-9.28599
▁cerca	-9.28675
▁frecuente	-9.28767
▁Todo	-9.2886
▁numeroso	-9.28968
▁resposta	-9.28968
▁Ele	-9.28993
▁figura	-9.29025
▁destas	-9.29056
▁simple	-9.29203
▁Di	-9.29303
tín	-9.29312
▁empresa	-9.29616
▁gañou	-9.2963
▁romana	-9.29678
▁Af	-9.29815
▁investigación	-9.29941
▁Paul	-9.29997
▁Aplausos	-9.30064
▁estación	-9.30142
▁diferente	-9.30384
▁realmente	-9.3044
▁80	-9.30448
▁dólares	-9.30482
▁conseguir	-9.30503
▁Antoni	-9.30526
vos	-9.30527
▁fose	-9.30612
▁crítica	-9.30819
▁Nesta	-9.30824
▁depois	-9.309
▁razón	-9.31044
▁John	-9.3126
.	-9.31322
▁noite	-9.31549
▁comercial	-9.31959
▁existencia	-9.31982
▁consecuencia	-9.32023
▁dizer	-9.32033
▁lonxitude	-9.32099
▁pintura	-9.32099
▁división	-9.321
▁Ma	-9.32453
▁distancia	-9.32481
▁motivo	-9.32784
▁estrada	-9.32784
▁temas	-9.33347
ces	-9.33376
▁escrita	-9.33471
▁Barcelon	-9.33665
▁recente	-9.33766
▁500	-9.33856
▁Londres	-9.33858
▁certo	-9.34094
▁literatura	-9.34243
▁física	-9.34277
▁concerto	-9.3439
▁Fernand	-9.34397
▁Val	-9.3449
▁pedra	-9.34505
▁terceira	-9.34707
▁miúdo	-9.34785
▁atopa	-9.34836
▁distinta	-9.35019
▁horas	-9.35369
▁campaña	-9.35487
▁estados	-9.35655
▁bo	-9.35677
▁2014	-9.35959
▁the	-9.3596
▁avión	-9.3604
▁áreas	-9.36069
▁pensar	-9.36137
▁fór	-9.36182
▁parece	-9.3637
▁variedade	-9.36432
▁alimento	-9.36447
▁conserva	-9.36577
▁símbolo	-9.3659
▁1990	-9.3667
▁branco	-9.3667
▁células	-9.36776
bol	-9.36804
▁Lug	-9.3692
▁ampla	-9.36942
▁había	-9.37009
▁...	-9.37067
▁Juan	-9.3707
▁madeira	-9.37072
▁tema	-9.3709
▁relativa	-9.37187
▁disse	-9.37291
▁van	-9.37461
▁estava	-9.37493
▁deixou	-9.37548
ban	-9.37589
▁condado	-9.37709
▁Nas	-9.37766
▁distinto	-9.37946
▁curso	-9.37984
▁económica	-9.38034
▁similar	-9.38042
▁sistemas	-9.38159
▁próximo	-9.3843
▁for	-9.38447
▁peza	-9.3861
▁profesor	-9.38661
▁aumento	-9.3872
▁numa	-9.38785
▁comunicación	-9.38794
▁distrito	-9.38914
▁dia	-9.38943
▁club	-9.39076
▁mor	-9.39298
▁Qua	-9.39328
▁31	-9.39357
▁Internacional	-9.39411
el	-9.39435
▁León	-9.39495
▁pela	-9.39551
▁manter	-9.39579
▁Exi	-9.39639
▁dominio	-9.39729
▁planeta	-9.40088
▁voto	-9.40139
▁Santo	-9.40173
▁IV	-9.40266
▁tinha	-9.40359
▁diferenza	-9.40651
cio	-9.40783
▁formas	-9.40862
▁realizou	-9.40881
▁quilómetros	-9.40933
▁pouca	-9.41045
▁ouro	-9.41048
▁Final	-9.41285
▁militares	-9.41298
▁Brasil	-9.41336
▁organismo	-9.41376
▁festa	-9.41379
▁recibe	-9.4146
▁70	-9.41462
▁Deus	-9.41474
▁2010	-9.41543
▁coñecemento	-9.41586
▁Actual	-9.41589
▁pasar	-9.41655
▁humana	-9.41708
▁País	-9.41714
▁produce	-9.41793
▁semellante	-9.41807
▁onda	-9.41829
▁seguir	-9.41912
▁formula	-9.42168
lí	-9.42199
▁estamos	-9.42401
▁inicio	-9.42457
▁elemento	-9.4246
▁200	-9.42525
▁reinado	-9.42559
▁ministro	-9.4263
▁bem	-9.42659
▁2009	-9.42939
▁tudo	-9.42946
▁porta	-9.43122
▁fenómeno	-9.43137
▁Xap	-9.43152
▁entrada	-9.43156
▁mes	-9.43173
▁Ouren	-9.43229
▁atopar	-9.43366
▁p	-9.43547
ter	-9.43554
▁90	-9.4371
▁etapa	-9.43731
▁falta	-9.43796
▁doutro	-9.43819
▁altitude	-9.43986
▁tomar	-9.44102
▁Nun	-9.44121
▁crear	-9.4422
▁cultural	-9.44222
▁mediado	-9.44294
▁Polo	-9.44391
▁gas	-9.44402
▁comercio	-9.44416
▁decidiu	-9.44429
▁locais	-9.44499
▁fondo	-9.44665
▁2011	-9.44671
▁templo	-9.44699
▁permanece	-9.44729
▁elas	-9.44774
▁presenta	-9.44885
▁2013	-9.44934
ó	-9.44935
▁esquerda	-9.44936
▁monte	-9.45004
▁Media	-9.4506
▁Baixo	-9.45189
▁relixión	-9.45273
▁televisión	-9.45446
▁Grande	-9.45597
▁chegada	-9.45638
▁histórico	-9.45706
▁podería	-9.45814
gora	-9.45829
▁traballar	-9.45961
▁oito	-9.46267
▁musical	-9.46316
▁181	-9.4633
▁árbore	-9.46403
▁categoría	-9.46492
▁completa	-9.46492
▁italiano	-9.46753
▁mosteiro	-9.4676
▁fronteira	-9.46795
▁pertencente	-9.46817
▁quedou	-9.47085
▁depende	-9.47122
ntes	-9.47169
▁enfermidade	-9.47282
▁partidos	-9.473
▁vía	-9.47442
▁y	-9.47447
▁beira	-9.47491
▁sociais	-9.47546
▁Consello	-9.47637
▁rúa	-9.47726
▁Casa	-9.47786
▁escribiu	-9.47865
▁Coa	-9.4793
▁utilizado	-9.47948
▁representa	-9.47954
▁rock	-9.47989
▁Da	-9.48017
“	-9.48077
ontevedr	-9.48131
▁transporte	-9.48166
▁certa	-9.48371
▁fala	-9.48422
▁Bo	-9.4846
ais	-9.48499
pa	-9.4863
▁carga	-9.48632
▁podía	-9.48691
▁próxima	-9.48701
▁”	-9.48701
ita	-9.48787
▁deseño	-9.48817
▁voo	-9.48999
▁numerosas	-9.49026
▁unidade	-9.49034
bo	-9.4915
ge	-9.49177
aña	-9.49185
▁producir	-9.49192
▁capela	-9.49349
xo	-9.49354
▁viu	-9.49405
▁inferior	-9.49419
▁saúde	-9.4942
▁teatro	-9.4951
▁Su	-9.49542
▁xeneral	-9.4965
▁puid	-9.49737
▁tiver	-9.49919
▁utiliza	-9.49932
▁composición	-9.49975
▁obtiv	-9.49984
▁constitúe	-9.50142
pla	-9.5031
roeste	-9.50336
C	-9.50449
▁bosque	-9.505
▁Xe	-9.50507
▁entrou	-9.50542
▁escala	-9.50747
▁claro	-9.50869
▁habitual	-9.50901
nia	-9.51062
ada	-9.51153
▁0	-9.51195
▁Monte	-9.51229
▁publicación	-9.51283
▁municipio	-9.51328
▁padrón	-9.51511
▁Constitución	-9.51514
or	-9.51572
▁aves	-9.51736
▁forman	-9.5174
▁presión	-9.51803
▁torre	-9.51841
▁destaca	-9.51858
▁ningunha	-9.51973
▁Vila	-9.51998
▁México	-9.52157
▁límite	-9.5225
▁edificio	-9.52403
▁réxime	-9.52528
▁grao	-9.5253
▁essa	-9.52721
▁per	-9.52751
▁bispo	-9.52807
▁182	-9.52814
▁considerada	-9.52871
▁1991	-9.53087
▁deixar	-9.5316
▁poeta	-9.53211
▁soldado	-9.53212
eira	-9.53228
▁cadea	-9.53462
▁frecuencia	-9.5347
▁tratado	-9.53486
▁1980	-9.53649
onia	-9.53649
▁180	-9.53717
▁europea	-9.53743
▁cuarto	-9.53931
▁formado	-9.54
▁xefe	-9.54038
th	-9.54122
▁delas	-9.54157
▁Australia	-9.54215
▁vocês	-9.54294
▁XVI	-9.54403
▁presente	-9.54454
vo	-9.54496
▁entrar	-9.5451
▁x	-9.54575
▁obter	-9.54689
▁produto	-9.54867
▁universidade	-9.54878
▁t	-9.54928
▁calidade	-9.54942
▁Só	-9.5511
▁institución	-9.55165
amente	-9.55372
▁relixiosa	-9.5557
▁Sol	-9.55663
▁cría	-9.55707
▁vexeta	-9.55719
▁liberdade	-9.55738
▁castelo	-9.55834
▁naturais	-9.55834
já	-9.5593
ci	-9.55959
land	-9.56003
▁selección	-9.56247
▁aplicación	-9.56561
▁trono	-9.56605
▁libros	-9.56615
▁Cada	-9.56699
▁1995	-9.56701
▁mostra	-9.56807
▁sufri	-9.57086
▁1998	-9.57187
▁topónimo	-9.57382
▁materia	-9.57427
▁Canadá	-9.57578
▁alguma	-9.5758
▁evitar	-9.57665
▁empresas	-9.57714
▁150	-9.57807
▁te	-9.58026
▁educación	-9.58067
▁Lugar	-9.58189
▁Galega	-9.58263
▁comezar	-9.58282
▁mans	-9.58323
▁Ó	-9.58464
▁nese	-9.58514
▁extensión	-9.58658
▁aire	-9.58719
▁Ram	-9.58741
▁contacto	-9.58881
▁muita	-9.58954
▁assim	-9.59049
▁posibilidade	-9.59054
▁ataque	-9.59119
▁expedición	-9.59126
utores	-9.59198
▁Congreso	-9.59252
▁nave	-9.59254
ido	-9.59335
→	-9.59351
tra	-9.59364
▁Filip	-9.59452
▁derrota	-9.59465
tivo	-9.59609
▁creou	-9.59647
▁ainda	-9.59805
▁enorme	-9.59823
▁capa	-9.59879
▁crise	-9.59891
▁ve	-9.59992
▁le	-9.59992
▁inclúe	-9.59998
▁encontro	-9.60045
▁agricultura	-9.60065
▁terreo	-9.60151
▁participo	-9.60294
▁W	-9.60431
▁séculos	-9.60437
▁expresión	-9.60455
▁ocupa	-9.60506
▁moderna	-9.60509
▁melhor	-9.60648
▁aquela	-9.60704
▁venda	-9.60832
▁houb	-9.60833
▁famoso	-9.60854
▁peso	-9.6088
▁método	-9.60894
▁vivi	-9.60943
▁defensa	-9.60972
▁produciu	-9.61004
▁trabalho	-9.61084
▁conquista	-9.61096
▁1996	-9.61158
▁representación	-9.61159
▁precisa	-9.61242
▁química	-9.6136
tro	-9.61411
▁branca	-9.61462
▁i	-9.6171
▁radio	-9.61739
▁g	-9.61753
▁Me	-9.61814
▁Academia	-9.61877
▁probable	-9.61983
▁arquitectura	-9.62003
▁sinxelo	-9.62112
▁completamente	-9.62154
▁Ante	-9.62155
▁franceses	-9.6228
use	-9.6229
▁formada	-9.62296
▁líder	-9.62372
▁dinastía	-9.62381
▁plano	-9.62512
▁necesidade	-9.62585
▁potencia	-9.62612
▁fase	-9.62619
▁ácido	-9.62636
▁industrial	-9.6271
▁cuxa	-9.62896
▁folla	-9.62931
ei	-9.62998
▁piloto	-9.63029
▁constante	-9.63102
▁XVII	-9.63204
▁grega	-9.63307
▁materiais	-9.63313
▁metal	-9.63406
▁Pa	-9.63423
▁Robert	-9.63437
▁empregado	-9.6346
▁fút	-9.63533
ría	-9.63556
▁imperio	-9.63619
▁po	-9.6366
▁publicado	-9.6386
▁ambiente	-9.63945
▁corrente	-9.63956
▁formou	-9.64034
▁macho	-9.64035
▁Parlament	-9.64139
▁caza	-9.64286
▁Miguel	-9.64452
▁densidade	-9.64463
▁sido	-9.6452
▁acto	-9.64549
▁leis	-9.6455
▁código	-9.64558
▁persoal	-9.64713
▁océano	-9.64744
▁busca	-9.64795
▁máximo	-9.64874
▁doutra	-9.64875
▁coñece	-9.64928
▁paz	-9.64933
▁termos	-9.65099
▁Ben	-9.65132
▁mestre	-9.6518
▁36	-9.65182
▁pé	-9.65209
▁clasificación	-9.65213
▁1994	-9.65293
▁val	-9.65334
▁Grec	-9.65373
▁amigo	-9.65401
▁experiencia	-9.6561
▁ruso	-9.65619
▁recursos	-9.65714
▁facto	-9.65826
▁desenvolver	-9.65841
▁sem	-9.66031
▁Pode	-9.66061
▁conflito	-9.66092
▁Luís	-9.66248
▁evolución	-9.66333
▁femia	-9.66354
▁Posterior	-9.6646
▁semana	-9.66505
▁J	-9.66559
▁pais	-9.66722
▁300	-9.66739
▁británica	-9.66888
▁carta	-9.67097
tase	-9.67132
▁armas	-9.67231
▁Constantino	-9.67426
▁dereita	-9.67457
nce	-9.6747
▁Algunha	-9.67585
▁Goberno	-9.6775
▁filosofía	-9.6775
▁sitio	-9.6775
▁duro	-9.67769
▁individuo	-9.67966
▁Ment	-9.67984
▁lago	-9.67997
▁volume	-9.68075
mba	-9.68115
▁pública	-9.68135
▁cultivo	-9.68402
▁voz	-9.6849
▁sol	-9.68534
▁nace	-9.68659
▁extremo	-9.68711
▁raíña	-9.68741
ler	-9.68931
▁rapidamente	-9.68947
▁Moito	-9.68974
▁volver	-9.68994
▁Europea	-9.68996
▁totalmente	-9.69056
▁máxima	-9.69166
▁invasión	-9.69167
▁Pola	-9.69191
▁castelán	-9.69341
▁dura	-9.69397
▁pertence	-9.69419
▁distribución	-9.69496
▁Río	-9.69612
▁cuxo	-9.69829
▁actor	-9.69834
rio	-9.69901
▁Garc	-9.69917
▁golpe	-9.70235
▁Arxentin	-9.70269
▁pre	-9.70389
▁cobre	-9.70443
▁dez	-9.70453
▁vezes	-9.70457
▁Arte	-9.7047
▁veciño	-9.70491
▁asentamento	-9.70492
▁fíxo	-9.70517
▁favor	-9.70585
▁1960	-9.70694
▁físico	-9.70714
▁1992	-9.70715
▁construído	-9.70844
▁continente	-9.70928
▁In	-9.70929
▁alemá	-9.70941
▁políticos	-9.70954
▁aparecen	-9.70955
▁Em	-9.70972
▁Que	-9.71001
▁toma	-9.71013
▁significado	-9.71022
▁qualquer	-9.71049
▁aparición	-9.71175
ito	-9.71234
▁1997	-9.71273
▁escolas	-9.71282
man	-9.7136
▁honra	-9.71385
▁exemplar	-9.71497
w	-9.71542
▁converter	-9.71567
▁Alexandr	-9.71573
▁aldea	-9.7161
▁aí	-9.71779
▁179	-9.71825
▁canle	-9.71843
▁Catalu	-9.71878
▁histórica	-9.71947
▁idioma	-9.71947
▁gobernador	-9.72019
▁baseada	-9.72023
▁amor	-9.72185
▁oriental	-9.72207
▁cae	-9.72261
▁matrimonio	-9.72299
▁escribir	-9.72753
▁Há	-9.72778
▁medieva	-9.72787
▁Bret	-9.72796
bilidade	-9.72821
▁♫	-9.72968
eiro	-9.72971
▁história	-9.72985
▁anual	-9.72995
▁directamente	-9.73156
▁saber	-9.73182
▁órgano	-9.73199
▁marcha	-9.73219
▁península	-9.73316
▁composta	-9.73425
ch	-9.73433
▁Porque	-9.73454
▁hora	-9.73597
▁operación	-9.73597
▁estableceu	-9.7361
=	-9.73768
▁par	-9.73866
▁vi	-9.73885
▁emprega	-9.73948
▁nenos	-9.73967
▁1993	-9.73999
▁poesía	-9.73999
▁doce	-9.74051
▁resultados	-9.74071
▁apareceu	-9.74078
▁resistencia	-9.74118
▁activa	-9.74134
▁desenvolveu	-9.74188
▁breve	-9.74344
▁Presidente	-9.74351
▁minutos	-9.74423
oeste	-9.74424
▁reacción	-9.7446
▁mando	-9.74586
▁Man	-9.74601
▁oposición	-9.74652
ase	-9.74733
▁arquipélago	-9.74816
▁continuou	-9.74823
▁fundou	-9.74838
▁estudar	-9.74872
ões	-9.7489
▁relixioso	-9.74944
▁tratamento	-9.74957
▁combate	-9.75136
▁compoñente	-9.75176
▁Debid	-9.75312
▁factor	-9.75434
▁artigo	-9.75444
ario	-9.7548
▁cre	-9.75533
▁ideia	-9.75564
▁Xeral	-9.75595
▁practica	-9.75637
▁cousas	-9.75651
▁1936	-9.75749
▁ciclo	-9.75803
▁and	-9.75812
▁nacemento	-9.759
▁gañar	-9.75932
▁facend	-9.75983
▁praza	-9.75983
▁35	-9.76141
▁intento	-9.76187
mar	-9.76248
ne	-9.76332
▁ruta	-9.7634
▁representante	-9.76359
▁construír	-9.76408
▁nove	-9.76439
▁talvez	-9.76451
▁Mais	-9.76462
▁columna	-9.7648
▁barrio	-9.76498
▁caída	-9.76566
▁esse	-9.7658
▁corte	-9.76605
▁tempos	-9.76614
arry	-9.76626
▁tomou	-9.76722
▁trala	-9.76813
▁publica	-9.76853
▁ponte	-9.76894
▁1989	-9.76919
▁semanas	-9.76959
▁liga	-9.77028
▁parella	-9.77038
▁motor	-9.77081
▁contén	-9.77158
▁so	-9.77189
▁contido	-9.77212
▁lá	-9.77263
▁chan	-9.77319
▁ADN	-9.77395
▁necesario	-9.77395
▁coroa	-9.77419
alas	-9.77533
▁comportamento	-9.77578
▁varía	-9.77639
▁Lei	-9.77701
▁entra	-9.77757
▁árabe	-9.77961
▁perda	-9.77984
▁usado	-9.78035
▁fundador	-9.78156
▁Xogo	-9.78258
▁terrestre	-9.78473
▁regreso	-9.78524
▁oficiais	-9.78566
▁XII	-9.78714
▁consiste	-9.78728
▁católica	-9.78834
▁cámara	-9.78835
▁milhões	-9.78835
▁suficiente	-9.78847
▁decisión	-9.78955
▁hoje	-9.78957
▁Primeira	-9.78958
▁Cristo	-9.78982
G	-9.79031
▁2012	-9.79331
ica	-9.79358
▁utilizar	-9.79456
▁pensamento	-9.79458
▁cento	-9.79547
▁tentar	-9.79551
▁completo	-9.79642
▁análise	-9.79646
▁trata	-9.79711
▁ferro	-9.79807
dores	-9.79814
▁administración	-9.79828
▁definición	-9.79829
▁VI	-9.79928
▁deixa	-9.79957
▁inglesa	-9.79961
▁técnica	-9.80023
▁censo	-9.80072
▁dialecto	-9.80173
▁acceso	-9.80289
▁noutro	-9.80297
▁queda	-9.80344
▁sangue	-9.80416
▁escena	-9.80477
▁Te	-9.80494
▁Henrique	-9.80543
▁artistas	-9.8055
▁Ponte	-9.80692
▁cá	-9.8072
▁inclúen	-9.80728
▁Popular	-9.80787
▁calendario	-9.80787
▁sección	-9.80811
▁Ata	-9.80822
▁demais	-9.80885
▁cine	-9.80934
▁amigos	-9.8103
▁revolución	-9.81042
▁sabe	-9.81061
▁tecnoloxía	-9.81069
ira	-9.81082
▁considera	-9.81205
▁Pacífico	-9.81281
▁procura	-9.81376
▁Atlántico	-9.81405
▁técnicas	-9.81433
▁establecer	-9.8145
ha	-9.81474
▁considerar	-9.81525
▁muro	-9.81548
▁iniciou	-9.81552
▁denominado	-9.81864
alifornia	-9.82027
▁Corte	-9.82087
▁Nese	-9.8218
▁logrou	-9.82348
tención	-9.82419
▁Escola	-9.8242
▁inclus	-9.82664
ela	-9.82749
sús	-9.82759
qui	-9.82831
ic	-9.82945
▁recoñecemento	-9.83043
▁cristián	-9.83072
▁baseado	-9.83169
+	-9.83282
▁Irland	-9.83282
▁lenda	-9.8352
▁178	-9.83547
▁pesca	-9.8367
▁fundada	-9.83815
▁Porto	-9.83827
▁localidade	-9.8391
▁dobre	-9.8401
▁Isabel	-9.84044
▁Copa	-9.84073
▁Soviética	-9.84171
ley	-9.84194
▁personaxe	-9.84275
▁relacionado	-9.84353
▁cuberta	-9.84426
▁1986	-9.84426
▁xudeu	-9.84427
▁batería	-9.84445
▁David	-9.84468
▁substancia	-9.84583
▁aspecto	-9.84683
cm	-9.84778
▁científico	-9.8482
▁españo	-9.84823
▁Per	-9.84859
▁32	-9.84948
▁Cor	-9.8505
▁príncipe	-9.85067
gi	-9.85118
▁continuar	-9.85185
▁VII	-9.85217
▁saída	-9.85471
▁resulta	-9.85515
▁aquí	-9.85537
▁carne	-9.85586
▁traballa	-9.85588
▁Pouco	-9.85718
▁mestura	-9.85803
▁aeroporto	-9.85842
▁universo	-9.85842
los	-9.85844
▁petróleo	-9.85971
▁Museo	-9.85974
▁poida	-9.86085
▁alfabeto	-9.86101
▁parque	-9.86114
▁contrario	-9.8616
▁proposta	-9.86231
▁historiador	-9.86235
ización	-9.86299
▁internacionais	-9.86495
▁daquela	-9.86511
▁políticas	-9.86584
▁45	-9.86591
▁mellore	-9.86604
▁clásica	-9.86622
▁sucesor	-9.86671
▁campos	-9.86856
▁destino	-9.86884
▁Mo	-9.86928
ner	-9.87001
▁global	-9.87006
▁procedente	-9.87079
▁1979	-9.87116
▁plan	-9.87289
▁estou	-9.87506
▁mim	-9.87592
▁Austria	-9.87602
▁chama	-9.87627
▁ex	-9.8767
che	-9.87714
▁sitúa	-9.87768
▁directo	-9.87895
▁vivir	-9.87896
▁turismo	-9.87937
▁400	-9.88075
▁nobre	-9.88114
▁Ro	-9.88162
▁177	-9.88189
▁criar	-9.88204
▁actuación	-9.8825
ámos	-9.8827
▁unión	-9.88379
▁evento	-9.88406
▁Li	-9.88407
▁esposa	-9.88468
▁irmá	-9.8858
rem	-9.8859
▁nalgún	-9.88603
▁personaxes	-9.88625
▁xeración	-9.88675
▁denominación	-9.8878
▁Gu	-9.88856
órmula	-9.88863
▁Central	-9.88868
▁Primeiro	-9.88871
▁proteínas	-9.88895
▁eléctrica	-9.88904
▁encontrar	-9.88957
▁Ra	-9.89025
▁nord	-9.89114
▁expansión	-9.89271
▁consumo	-9.89429
▁indica	-9.89514
▁participar	-9.89591
▁casou	-9.89654
▁edificios	-9.89661
▁solar	-9.89666
▁disto	-9.8968
▁permanente	-9.89682
▁Eduard	-9.89709
▁William	-9.89713
▁partículas	-9.8977
▁creado	-9.89783
▁fábrica	-9.89943
▁movementos	-9.89947
▁colección	-9.89964
▁animal	-9.89965
▁selo	-9.89993
▁negra	-9.89998
ania	-9.90005
▁Cal	-9.90061
▁san	-9.90109
▁competición	-9.90112
▁científica	-9.90141
▁persa	-9.90173
▁músico	-9.90213
▁moeda	-9.90213
▁deporte	-9.90236
▁froito	-9.90243
▁fachada	-9.90484
▁coñecer	-9.90534
▁sala	-9.90541
▁unidades	-9.90624
▁consegue	-9.90686
▁labor	-9.90737
▁deputado	-9.9081
▁Centro	-9.90896
ver	-9.90934
▁fixer	-9.90989
▁risco	-9.91085
bra	-9.91119
▁Instituto	-9.91169
IB	-9.91176
▁negro	-9.91191
li	-9.91312
▁Tratado	-9.91315
▁xurdi	-9.91332
▁Revolu	-9.91344
▁Trá	-9.91363
▁estrelas	-9.91369
lla	-9.91458
▁XIII	-9.91497
▁misión	-9.91542
▁república	-9.91576
▁James	-9.91642
▁debía	-9.91721
▁municipa	-9.91777
▁dirixida	-9.9186
▁tendencia	-9.91865
▁sub	-9.91942
▁vive	-9.91997
▁Escoc	-9.91999
▁anunciou	-9.9204
▁perde	-9.92066
▁estudantes	-9.92079
elmente	-9.92094
▁f	-9.9211
▁Toda	-9.92112
▁viven	-9.92119
▁presentou	-9.92137
▁descubrimento	-9.92151
▁impacto	-9.92162
▁realiza	-9.92222
▁Mali	-9.9223
▁campionato	-9.92265
▁departamento	-9.92265
▁Hoxe	-9.92266
▁Fernández	-9.9227
té	-9.92293
▁cores	-9.9234
▁três	-9.92404
▁visita	-9.92434
▁então	-9.92494
▁famosa	-9.92542
▁táboa	-9.92543
▁fe	-9.92674
▁tradicionais	-9.92681
▁xornal	-9.92776
▁capaz	-9.92817
▁familiar	-9.92925
▁Trala	-9.92975
▁pasado	-9.92997
▁autoridade	-9.93049
▁pessoa	-9.93051
▁contrato	-9.93052
ctuais	-9.93137
▁arco	-9.93218
▁Albert	-9.9323
▁clásico	-9.93237
et	-9.93373
▁cuestión	-9.93377
▁diante	-9.9341
▁números	-9.93429
▁seguiu	-9.93577
▁deben	-9.9358
▁1982	-9.93657
▁noutra	-9.938
▁alguns	-9.93801
▁pintor	-9.93933
▁traballador	-9.93985
▁segui	-9.9405
lhe	-9.94138
▁calor	-9.94189
▁literaria	-9.9422
fe	-9.94264
▁Ese	-9.94331
▁relato	-9.94422
▁visión	-9.94465
▁1987	-9.94501
▁americano	-9.94521
▁Oriente	-9.94631
▁estranxeiro	-9.94643
▁coche	-9.94652
▁For	-9.94657
▁vinte	-9.94681
▁comida	-9.94689
ú	-9.94773
▁75	-9.94782
ino	-9.949
▁urbano	-9.94901
▁hitita	-9.94927
guez	-9.94955
quanto	-9.94997
▁usada	-9.95027
tal	-9.95038
▁casas	-9.95075
▁aqueles	-9.9517
▁Nación	-9.95201
▁1985	-9.95211
▁seria	-9.95227
▁permitiu	-9.95352
▁aberto	-9.95404
▁acontece	-9.95411
ja	-9.95412
▁regular	-9.95483
▁carbono	-9.95496
▁demasiado	-9.95496
▁ría	-9.95587
▁guitarra	-9.95639
nel	-9.95657
▁1977	-9.95743
▁clara	-9.95765
▁Com	-9.95777
▁nación	-9.95778
▁extrema	-9.95782
▁artista	-9.95803
▁interpretación	-9.95844
▁desaparece	-9.95921
▁vello	-9.95963
▁relacionada	-9.95964
▁marco	-9.96101
emos	-9.96209
▁1983	-9.96212
▁tale	-9.96251
▁ensino	-9.96252
▁curta	-9.96364
▁diso	-9.96422
▁Mur	-9.96465
▁mostrar	-9.96614
▁provoc	-9.96624
▁Nó	-9.96629
ura	-9.96645
▁duque	-9.96649
▁participa	-9.96674
▁simples	-9.96679
▁Tom	-9.96754
▁arquitecto	-9.96934
▁Papa	-9.96947
▁b	-9.96959
▁escudo	-9.96982
▁precipitación	-9.97079
▁bandeira	-9.97079
▁vou	-9.97119
▁mudar	-9.9714
▁Novo	-9.97199
▁denominada	-9.97246
▁vén	-9.97305
▁científicos	-9.97358
▁ámbito	-9.97371
▁ven	-9.97434
▁usando	-9.9748
▁esforzo	-9.97536
▁aproba	-9.97538
▁necesaria	-9.9766
aría	-9.97696
▁destacan	-9.97765
▁George	-9.97773
▁Romano	-9.97794
▁dixo	-9.97841
▁comerciais	-9.97953
▁Ela	-9.9797
▁Torre	-9.98016
▁Día	-9.98017
▁1976	-9.98051
▁barco	-9.98095
▁musulmán	-9.98128
▁mozo	-9.98247
▁software	-9.98253
▁duas	-9.98288
▁atrás	-9.98313
▁modelos	-9.98328
▁poboado	-9.98347
▁contexto	-9.98392
▁exposición	-9.98394
▁Sá	-9.98518
▁respectiva	-9.9854
▁obst	-9.98798
▁Deste	-9.98943
po	-9.99053
▁XV	-9.99123
▁acabou	-9.99136
▁utilizada	-9.99136
▁usa	-9.9926
▁Ministro	-9.99309
▁obrigado	-9.99383
▁Can	-9.994
▁aparecer	-9.99426
▁1988	-9.99426
▁38	-9.99462
▁noso	-9.99467
▁memoria	-9.99575
▁produtor	-9.99714
▁Xos	-9.99775
▁Española	-9.99778
▁fortes	-9.99788
▁médico	-9.99812
▁atmosfera	-9.99873
▁dificultade	-9.99884
▁compositor	-10.0002
▁Internet	-10.0002
▁gregos	-10.0006
ragón	-10.0019
▁concentración	-10.0021
vam	-10.0028
▁taxa	-10.0029
▁emprego	-10.0039
presión	-10.0042
▁variante	-10.0046
▁inimigo	-10.0047
▁asociación	-10.005
▁profesional	-10.0061
▁Ver	-10.0067
▁notable	-10.0068
▁120	-10.0077
▁Liga	-10.008
tar	-10.0085
▁perdeu	-10.0092
▁dividida	-10.0092
▁Navarr	-10.0092
▁participación	-10.0096
▁Luis	-10.0101
lén	-10.0104
▁niño	-10.0105
▁presidencia	-10.0107
trás	-10.0114
▁activo	-10.0115
▁figuras	-10.0121
▁ía	-10.0127
▁1984	-10.0138
▁castro	-10.0138
▁portugu	-10.0142
▁variación	-10.0146
▁valore	-10.0151
▁EUA	-10.0153
▁33	-10.0154
▁complexo	-10.0173
▁moderno	-10.0181
▁Suec	-10.0188
▁medo	-10.019
▁perder	-10.02
▁Martín	-10.0205
▁estrela	-10.0206
▁dela	-10.0209
▁contar	-10.0215
▁menores	-10.0218
▁gaña	-10.022
▁contaba	-10.0222
▁dimensión	-10.0229
▁suma	-10.0234
▁Fo	-10.0235
▁determinado	-10.024
▁Israel	-10.0244
▁monarca	-10.0244
▁ecuación	-10.0248
▁constitución	-10.0249
▁pro	-10.0251
▁compañeiro	-10.0275
▁estándar	-10.0276
der	-10.0276
▁dirixido	-10.0277
tenas	-10.0289
▁curto	-10.0291
▁Um	-10.0294
▁seja	-10.0303
▁dividido	-10.0306
▁mm	-10.0313
▁correspondente	-10.0328
▁Bos	-10.0331
travé	-10.0337
▁continenta	-10.0341
▁Cidade	-10.0348
▁vivía	-10.0352
▁Mil	-10.0367
▁décadas	-10.0368
▁orixina	-10.0377
▁vos	-10.0378
▁recupera	-10.0379
▁2015	-10.0383
▁máquina	-10.0386
▁Bem	-10.0401
▁construída	-10.0403
ntro	-10.0408
▁Dereito	-10.0416
▁neno	-10.042
enínsula	-10.0429
▁continúa	-10.0433
▁cidadán	-10.0435
▁h	-10.0435
▁realizado	-10.0436
▁rematar	-10.0441
▁trasladou	-10.0459
▁reforma	-10.0464
▁tenho	-10.0465
▁vento	-10.0466
▁New	-10.0472
▁medicina	-10.0476
▁protección	-10.0476
▁verdadeira	-10.0477
gás	-10.0479
▁descendente	-10.0483
▁xeo	-10.0486
▁1974	-10.0488
▁Cre	-10.0494
▁coñeceu	-10.0501
▁Ri	-10.0503
▁Virxe	-10.0508
▁frota	-10.0508
▁Asemblea	-10.0508
▁culto	-10.0508
cos	-10.051
▁tornou	-10.052
▁2016	-10.0525
▁recibir	-10.0526
▁fundación	-10.0533
▁rápido	-10.0534
▁monumento	-10.0539
▁ocupación	-10.0552
▁tecido	-10.0555
tou	-10.0559
▁Berl	-10.0559
▁nive	-10.0564
▁fic	-10.0569
▁1981	-10.0571
▁residencia	-10.0587
▁volve	-10.0588
▁prové	-10.0608
▁ollo	-10.0609
▁aprender	-10.061
▁provoca	-10.0615
▁Estudou	-10.0615
▁substituído	-10.0624
▁altas	-10.0633
▁fácil	-10.0634
▁fabrica	-10.0645
▁aspectos	-10.065
▁permitir	-10.0651
▁dados	-10.0655
▁riqueza	-10.0666
▁Club	-10.0666
▁pista	-10.0669
▁torno	-10.0669
▁rexistro	-10.0672
▁moléculas	-10.0682
▁páxina	-10.0682
▁gravación	-10.0687
▁segur	-10.0695
▁cérebro	-10.0698
▁meirande	-10.0698
▁Xunta	-10.0698
▁aumentar	-10.0703
tón	-10.0706
▁catedral	-10.0715
▁xogar	-10.0723
▁dado	-10.0738
▁160	-10.0739
▁saír	-10.074
ente	-10.0745
▁xene	-10.075
▁programas	-10.0751
▁nosa	-10.0751
▁integra	-10.0754
▁creada	-10.0755
▁preciso	-10.0764
▁lingüística	-10.0778
▁colaboración	-10.0779
ir	-10.0803
124	-10.0806
▁antigas	-10.0806
▁mulheres	-10.0811
▁gand	-10.0826
▁diferenzas	-10.0827
▁42	-10.0828
▁instalación	-10.083
▁funciona	-10.0845
▁catalán	-10.085
▁comunidades	-10.086
ccidente	-10.0875
▁Exército	-10.0876
▁mandato	-10.0877
▁comunista	-10.0877
,5	-10.0881
cía	-10.0885
▁duración	-10.0902
boa	-10.0905
▁quero	-10.0908
▁alcalde	-10.0908
▁li	-10.0917
tu	-10.0922
▁cadro	-10.0926
▁cantante	-10.0927
▁abundante	-10.0929
▁reserva	-10.093
riano	-10.0931
▁producido	-10.0932
▁cruz	-10.0934
▁Pe	-10.094
▁chamar	-10.0948
▁falante	-10.0951
▁obten	-10.0955
▁posesión	-10.0958
▁tocar	-10.0961
▁ataques	-10.097
▁candidato	-10.0974
▁proximidade	-10.0974
▁aliado	-10.0977
▁perigo	-10.0979
▁Asturia	-10.0982
▁1973	-10.0986
▁trazo	-10.0988
unha	-10.0988
▁nesa	-10.0991
bi	-10.1004
▁discurso	-10.1007
▁Lis	-10.1012
▁publicada	-10.1019
▁responsable	-10.1024
▁filósofo	-10.1026
jo	-10.1032
▁célula	-10.1034
▁Aire	-10.1035
▁experimento	-10.104
▁círculo	-10.1042
▁tecnologia	-10.1054
▁XIV	-10.1057
▁azul	-10.1062
▁cristiá	-10.1068
ard	-10.1072
▁faz	-10.1074
▁disputa	-10.1088
▁morrer	-10.1089
▁profundidade	-10.109
▁intención	-10.1095
▁pazo	-10.11
v	-10.1111
ck	-10.1113
▁capitán	-10.1124
▁asasinado	-10.1124
▁consello	-10.1125
▁construíu	-10.1128
▁praia	-10.1143
▁&#	-10.1144
▁Sen	-10.1148
rá	-10.1152
ico	-10.1156
▁usuario	-10.1157
▁mariña	-10.1158
▁feita	-10.1159
▁nela	-10.1169
pre	-10.117
▁rematou	-10.1174
▁cancro	-10.1174
▁interna	-10.1181
▁destacar	-10.1188
▁muralla	-10.1191
iano	-10.1192
xi	-10.1195
▁mantiv	-10.12
▁literario	-10.1207
▁tradución	-10.1209
▁exerce	-10.121
▁formal	-10.1219
tor	-10.124
▁Ferrol	-10.1242
américa	-10.1245
▁inicial	-10.1255
▁Los	-10.1258
xa	-10.1264
▁regras	-10.1266
▁nalgunha	-10.1276
▁prezo	-10.1277
▁Olímpico	-10.1278
▁democracia	-10.1278
ng	-10.1279
▁certas	-10.1284
▁raza	-10.1294
▁Du	-10.1294
▁Uma	-10.1304
▁recoñecido	-10.1309
IX	-10.1314
iana	-10.1314
▁Nobel	-10.1317
▁métodos	-10.1319
▁verde	-10.1325
▁paisaxe	-10.1326
▁ocorre	-10.1339
▁declarou	-10.1343
▁acerca	-10.1343
▁significativa	-10.1344
▁August	-10.1347
▁asunto	-10.1356
▁Mor	-10.136
▁rápida	-10.1377
▁conde	-10.1391
▁crianças	-10.1394
▁museo	-10.1394
▁excepción	-10.1394
▁Hu	-10.1395
▁Miño	-10.1398
▁poemas	-10.1402
gar	-10.1402
▁existía	-10.1411
▁prodúce	-10.1411
tos	-10.1412
▁xornalista	-10.1414
▁37	-10.1414
▁presentar	-10.1416
▁nativo	-10.1425
▁pluma	-10.1429
▁acadou	-10.1434
ham	-10.1439
▁portuguesa	-10.1442
▁absoluta	-10.1442
nch	-10.1445
ê	-10.1445
▁ovo	-10.1445
▁campión	-10.1446
▁administrativa	-10.1446
▁visto	-10.1446
▁instrumento	-10.1448
▁Ne	-10.1453
▁tren	-10.1454
▁motores	-10.1457
▁atopou	-10.1463
▁prensa	-10.1463
▁pe	-10.1464
▁Vi	-10.147
▁bloque	-10.1474
▁debuxo	-10.1479
▁monarquía	-10.148
▁opinión	-10.1482
▁web	-10.1498
▁pan	-10.15
▁result	-10.1507
▁López	-10.1515
▁Mediterráneo	-10.1515
▁estreita	-10.1515
▁ocupar	-10.1517
▁revolta	-10.155
▁Occidental	-10.155
▁Bar	-10.1554
▁diario	-10.1554
▁acontecemento	-10.1554
▁instrumentos	-10.1565
▁cadrado	-10.1572
▁torneo	-10.1585
íxeno	-10.1585
▁inmediata	-10.1591
▁ingles	-10.1598
▁identidade	-10.1602
▁mellora	-10.1605
▁Divisi	-10.1614
▁600	-10.1618
▁Cuba	-10.1622
▁estudio	-10.1632
▁amplo	-10.164
▁deriva	-10.1648
▁acadar	-10.1656
▁65	-10.1661
▁Washington	-10.1673
▁episodio	-10.1673
▁actri	-10.1673
▁acabar	-10.1677
▁nacionalista	-10.1677
▁presentan	-10.1679
▁ti	-10.1684
▁azucre	-10.169
▁fortaleza	-10.169
▁solo	-10.1696
▁comun	-10.17
be	-10.17
▁trans	-10.1706
▁ingreso	-10.1708
▁lanzamento	-10.171
st	-10.1716
▁tratar	-10.1716
▁patrón	-10.1726
▁espaço	-10.1726
▁adiante	-10.1726
▁Air	-10.1727
▁elección	-10.1728
▁39	-10.1739
▁dalgún	-10.1744
▁cruceiro	-10.1744
▁prim	-10.1753
▁saíu	-10.1756
ie	-10.1758
car	-10.1766
fa	-10.1768
▁meio	-10.1773
▁sofre	-10.1776
▁democrática	-10.1779
▁signo	-10.1779
▁pasaxeiro	-10.178
▁Temos	-10.1781
▁crea	-10.1783
tación	-10.1788
▁débe	-10.1792
eo	-10.1798
▁chaira	-10.1803
▁dirixiu	-10.1805
▁55	-10.1807
▁artigos	-10.1807
▁debate	-10.1808
▁Island	-10.1834
▁roda	-10.1836
▁To	-10.1839
▁consta	-10.1844
cher	-10.1863
▁acontecer	-10.1864
▁celébra	-10.1869
▁circuíto	-10.1869
▁Po	-10.1878
▁Sa	-10.1883
▁fica	-10.1885
▁Asociación	-10.1887
▁marxe	-10.1887
▁vamo	-10.189
▁universal	-10.1891
▁verdadeiro	-10.1893
▁desa	-10.1897
▁recuperar	-10.1899
▁Record	-10.1905
▁deserto	-10.1905
▁costas	-10.191
ry	-10.1912
▁radiación	-10.1927
las	-10.1929
▁alguém	-10.1936
▁cabalo	-10.1936
▁Sal	-10.1941
▁frío	-10.1941
▁incluído	-10.1941
▁Galego	-10.1941
▁socialista	-10.1948
▁separada	-10.1951
▁grave	-10.1951
▁64	-10.1952
▁tribos	-10.1953
▁nuclear	-10.1964
val	-10.1975
▁Sobre	-10.1975
▁sexo	-10.1975
▁cristian	-10.1977
▁indíxena	-10.1977
ís	-10.1981
▁lixeira	-10.1983
▁Orde	-10.1996
▁facía	-10.1999
▁Moita	-10.2
▁entender	-10.2003
▁area	-10.201
▁garda	-10.2014
▁mecánica	-10.2014
▁medidas	-10.2028
▁176	-10.203
▁inicialmente	-10.2032
▁inter	-10.2038
▁terzo	-10.2045
▁estreito	-10.2047
▁Go	-10.2048
▁certos	-10.2049
▁exilio	-10.2051
▁avance	-10.2051
▁americana	-10.2051
▁posta	-10.2054
▁formato	-10.2056
▁pa	-10.2065
▁católico	-10.2069
▁placa	-10.2069
it	-10.207
▁consegui	-10.2072
ación	-10.2075
▁800	-10.2077
▁Rodr	-10.2078
▁qual	-10.2078
ça	-10.2078
xica	-10.2083
▁Suíz	-10.2087
▁Cruz	-10.2088
▁pel	-10.2089
▁matemática	-10.2093
▁divíde	-10.2106
▁crenza	-10.2107
ble	-10.211
▁vídeo	-10.2111
▁água	-10.212
▁choiva	-10.2124
▁escravos	-10.2127
▁reais	-10.213
▁líderes	-10.2144
▁Pro	-10.2151
▁abandonar	-10.216
▁secuencia	-10.2161
▁accidente	-10.2165
rse	-10.2176
▁civilización	-10.2181
▁acaba	-10.2184
▁Serra	-10.219
▁oportunidade	-10.2191
▁axi	-10.2195
▁Ar	-10.2196
▁vão	-10.22
▁sexual	-10.2206
▁sal	-10.2207
▁finalizar	-10.2218
▁leite	-10.2218
▁Bill	-10.2218
▁costume	-10.222
ide	-10.2221
▁corresponde	-10.2221
▁supux	-10.2226
▁dito	-10.2238
▁observación	-10.2244
▁italiana	-10.2254
▁fracaso	-10.2254
ço	-10.2256
dio	-10.2257
▁ficar	-10.2258
▁Desta	-10.2275
▁Ana	-10.2276
▁sae	-10.2278
▁sabemos	-10.2286
▁44	-10.2293
▁documentos	-10.2306
▁equivalente	-10.2312
▁Thom	-10.2312
▁separado	-10.2326
▁vermella	-10.2329
▁Marti	-10.2334
▁dita	-10.2335
▁públicas	-10.2338
nza	-10.234
▁inscrición	-10.2348
▁considerable	-10.2349
avera	-10.235
▁nem	-10.2351
▁aberta	-10.2351
▁34	-10.2353
▁seguido	-10.2358
▁espírito	-10.2363
▁exacta	-10.2367
▁Álvar	-10.2367
▁miña	-10.2371
▁Ed	-10.2372
▁toca	-10.2374
ol	-10.2383
▁converténdo	-10.2386
▁tería	-10.2391
▁autoridades	-10.2391
▁norma	-10.2399
▁Ibéric	-10.2407
▁estuda	-10.2407
▁entidade	-10.2412
▁bizantino	-10.2424
▁Jean	-10.2427
▁libera	-10.2436
▁aumenta	-10.2437
▁Comunista	-10.2443
▁podían	-10.2446
▁secretario	-10.245
▁latino	-10.2459
estival	-10.2464
▁republicano	-10.2465
ego	-10.2466
▁Tre	-10.2467
▁mantén	-10.2471
▁trabalhar	-10.2476
amp	-10.2477
▁documenta	-10.2477
▁viru	-10.2478
▁atopan	-10.248
ouse	-10.248
▁fundado	-10.248
▁tensión	-10.2483
▁Z	-10.2484
▁rama	-10.2489
▁poema	-10.2492
▁custo	-10.2499
▁definitivamente	-10.2504
▁rica	-10.2505
▁estiver	-10.2507
▁Galer	-10.2508
tí	-10.2516
▁ritmo	-10.252
▁Ciencia	-10.252
▁Unidas	-10.2523
▁programación	-10.2527
▁empregar	-10.2535
▁chamou	-10.2545
▁corre	-10.2548
▁cousa	-10.2558
▁43	-10.2559
▁árabes	-10.2563
▁evidencia	-10.2577
▁posíbe	-10.2577
▁informação	-10.2578
▁raíz	-10.2579
▁existi	-10.2586
malia	-10.2587
▁super	-10.2588
céano	-10.2601
▁Ribad	-10.2612
▁órbita	-10.2616
▁curva	-10.2617
▁abaixo	-10.2621
▁somos	-10.263
▁escasa	-10.2633
▁mudou	-10.2644
▁sei	-10.2653
▁Michael	-10.2655
▁explotación	-10.266
▁chegan	-10.2666
tiva	-10.2668
▁bacteria	-10.2671
▁Fin	-10.2672
▁Limita	-10.2676
▁editado	-10.2679
lin	-10.2681
leccións	-10.2688
▁1972	-10.269
▁desenvolve	-10.269
▁46	-10.2693
▁técnico	-10.2694
▁corazón	-10.2694
▁41	-10.2702
▁presentes	-10.2707
▁demanda	-10.2714
▁circula	-10.2716
▁alimenta	-10.2719
▁destacado	-10.272
▁serve	-10.2722
▁seguro	-10.2724
▁deus	-10.2728
▁Tal	-10.2732
▁dúbida	-10.2733
▁48	-10.2734
▁autonomía	-10.2735
▁asociado	-10.2737
▁poboada	-10.2741
▁levaba	-10.2741
▁cerimonia	-10.2753
▁propósito	-10.2753
▁moral	-10.2758
▁explicar	-10.2763
▁unir	-10.2767
▁policía	-10.2773
▁hospital	-10.2792
▁ARN	-10.2792
▁útil	-10.2792
▁bordo	-10.2792
▁escenario	-10.2793
▁Frank	-10.2793
▁funcionamento	-10.2816
▁cola	-10.2818
▁localizada	-10.2827
ivís	-10.2832
▁plataforma	-10.2832
lá	-10.2851
▁afluente	-10.2852
▁Pér	-10.2858
▁min	-10.2861
▁tenta	-10.2862
▁auto	-10.2871
▁Hit	-10.2876
▁deixando	-10.2888
▁barcos	-10.2894
▁Lo	-10.2898
▁celta	-10.2898
licio	-10.2904
N	-10.2915
▁vivo	-10.2931
▁insecto	-10.2931
▁carreiras	-10.2932
▁observar	-10.2933
▁xunta	-10.2936
L	-10.2941
▁Chile	-10.2946
▁sinal	-10.2947
▁ler	-10.2951
▁debería	-10.2953
D	-10.2955
▁directa	-10.2959
▁Charles	-10.296
pouco	-10.296
▁manifestación	-10.296
▁popularidade	-10.2963
by	-10.2965
▁tornar	-10.2968
B	-10.2971
▁turco	-10.2972
▁legal	-10.2972
▁parcial	-10.298
▁152	-10.2981
▁metropolitana	-10.2992
▁pronto	-10.2992
▁vosso	-10.2997
▁Mon	-10.3012
▁variable	-10.3014
rez	-10.3018
▁solución	-10.3023
▁ferramentas	-10.3023
▁soberan	-10.3024
des	-10.3028
lar	-10.3028
S	-10.3031
▁volcán	-10.3031
▁póden	-10.3033
▁identifica	-10.3033
▁disso	-10.3034
▁señor	-10.3035
▁começar	-10.3036
▁Hungr	-10.304
▁protesta	-10.3042
VIII	-10.3055
▁prat	-10.3057
▁flores	-10.3058
▁170	-10.306
▁establece	-10.3065
▁Federación	-10.3066
bel	-10.3071
▁ameaza	-10.3071
▁esencial	-10.3073
▁47	-10.3073
▁Dou	-10.308
▁quedar	-10.3089
▁decidir	-10.3091
▁banco	-10.3093
▁proxectos	-10.3095
▁foram	-10.3102
▁lanzado	-10.3102
▁publicar	-10.311
▁antigüidade	-10.3113
▁Podemo	-10.3117
▁imperial	-10.3117
▁eléctrico	-10.3119
▁descubriu	-10.3121
▁investigador	-10.3123
▁franco	-10.3127
▁converte	-10.3129
▁xerais	-10.3132
▁cifra	-10.3134
▁diámetro	-10.3134
▁espada	-10.3136
▁52	-10.3136
▁desexo	-10.3144
▁lonxe	-10.3144
▁Sim	-10.3154
▁escritura	-10.3154
▁líquido	-10.3154
▁múltiple	-10.3154
▁litora	-10.3155
▁resolver	-10.3162
ato	-10.3164
ney	-10.3166
▁mensaxe	-10.3172
iz	-10.3172
▁homenaxe	-10.3175
▁ditadura	-10.3175
▁emisión	-10.318
ac	-10.3183
▁eram	-10.3184
▁175	-10.3187
ero	-10.3191
ñen	-10.3193
▁palacio	-10.3195
▁relevo	-10.3195
▁tumba	-10.3196
▁remata	-10.3209
▁car	-10.3215
responsabilidade	-10.3216
▁cerebro	-10.3216
▁enviou	-10.3216
▁enfrontamento	-10.3217
▁quase	-10.3222
▁Campionato	-10.3236
▁argumento	-10.3236
▁meridiona	-10.3236
▁musicais	-10.3236
▁norteamericano	-10.3237
▁ensaio	-10.3242
▁Socialista	-10.3258
▁representan	-10.3265
▁teña	-10.3265
▁temporal	-10.327
▁corpos	-10.327
▁penso	-10.327
▁rectangular	-10.3278
▁considéra	-10.3278
▁53	-10.3279
▁reformas	-10.3279
▁atol	-10.3287
▁sou	-10.3288
▁matemáticas	-10.3293
▁empregada	-10.3295
▁occidenta	-10.3298
▁biblioteca	-10.3298
▁descuberto	-10.3298
▁vermello	-10.3298
▁perspectiva	-10.3298
▁logra	-10.3304
▁Fa	-10.3307
▁afirma	-10.3312
▁alianza	-10.3319
cha	-10.3319
▁artística	-10.3319
▁Jackson	-10.332
▁obriga	-10.332
▁mariño	-10.3321
▁servir	-10.3328
▁can	-10.3328
▁lagoa	-10.3335
▁parlamento	-10.334
▁transición	-10.334
▁ferrocarr	-10.334
▁elevado	-10.335
▁Fillo	-10.3351
▁Andr	-10.3351
▁ocupada	-10.3356
▁correntes	-10.3358
▁básica	-10.3361
nova	-10.3368
▁von	-10.3375
▁precisamos	-10.3376
▁Salvado	-10.3382
▁bronce	-10.3382
▁crecente	-10.3386
▁documento	-10.3387
▁ancho	-10.3398
▁Car	-10.34
▁energia	-10.3403
▁conteñ	-10.3417
▁lanzou	-10.3424
▁liderado	-10.3428
▁Wi	-10.3433
▁especiais	-10.3434
▁separación	-10.3437
▁Valencia	-10.3438
▁Teatr	-10.3444
▁quinto	-10.3445
▁asasinato	-10.3445
▁Comunidade	-10.3446
▁describe	-10.3466
▁xeográfica	-10.3466
ion	-10.3466
ráfico	-10.347
▁natal	-10.3471
▁Vasco	-10.3471
▁cambiar	-10.3472
rich	-10.3472
P	-10.3474
▁localización	-10.3477
▁haber	-10.3486
▁Comezou	-10.3487
▁empréga	-10.3487
▁convérte	-10.3487
▁Nin	-10.3488
▁empezou	-10.3491
▁Mu	-10.3493
▁Senado	-10.3495
ésar	-10.35
▁aquel	-10.3504
▁determinar	-10.3505
▁hidróxeno	-10.3508
▁derivado	-10.3514
▁derrotado	-10.3525
bal	-10.3527
▁descrición	-10.353
▁basicamente	-10.353
▁cima	-10.353
▁Zeland	-10.3531
▁restante	-10.3532
▁fluxo	-10.3542
dia	-10.3543
▁limita	-10.3545
▁ángulo	-10.3551
▁estadio	-10.3559
▁fusión	-10.3562
ade	-10.3563
▁procede	-10.3563
▁rural	-10.3572
▁fórmula	-10.3573
▁ali	-10.3579
▁nel	-10.3582
▁conflitos	-10.3585
▁falece	-10.3588
▁peixes	-10.3588
▁vemos	-10.3588
▁Ouro	-10.359
▁mamífero	-10.3594
▁Richard	-10.3594
▁Max	-10.3594
▁rara	-10.3596
▁St	-10.3598
▁Mi	-10.3602
▁rochas	-10.3603
▁tive	-10.3608
▁controlar	-10.3612
▁Dan	-10.3612
▁Mundo	-10.3615
▁voga	-10.3615
▁to	-10.362
▁espera	-10.3621
▁potencial	-10.3626
▁Radio	-10.3637
▁54	-10.3638
tendo	-10.3645
▁liberal	-10.3647
lez	-10.3648
▁consérva	-10.3658
▁cuarta	-10.3658
▁fotografía	-10.3658
▁entrega	-10.3661
ment	-10.3662
rd	-10.3667
▁Marco	-10.3671
▁adultos	-10.3673
ume	-10.3681
quez	-10.3682
ster	-10.3683
▁pico	-10.3683
nta	-10.3686
▁estable	-10.3686
ína	-10.3697
▁Dinamarca	-10.3701
▁Provincia	-10.3701
▁dinheiro	-10.3701
▁vehículo	-10.3701
▁Costa	-10.3704
▁terminou	-10.3704
▁redes	-10.371
▁abandonou	-10.3715
▁descuberta	-10.3723
▁tribuna	-10.3723
▁comezan	-10.3723
▁rebelión	-10.3723
▁colonos	-10.3723
▁federal	-10.3726
▁Bél	-10.3728
fi	-10.3729
▁partida	-10.3747
▁inmigrante	-10.375
▁sentir	-10.3755
▁quanto	-10.3756
▁pagar	-10.376
▁baía	-10.3773
▁49	-10.379
▁Mariña	-10.3791
▁deuse	-10.3792
▁producida	-10.3794
H	-10.3804
▁electrón	-10.3809
▁pena	-10.3809
▁Póde	-10.381
▁fo	-10.381
▁humanidade	-10.381
▁suave	-10.3814
▁Aqui	-10.3815
▁vossa	-10.3817
▁Gonz	-10.3822
▁secundario	-10.3832
▁Guillerm	-10.3832
▁electora	-10.3834
▁dias	-10.3838
▁impostos	-10.3842
▁hipótese	-10.3843
▁mortos	-10.3856
▁quem	-10.3856
▁vías	-10.3859
▁infan	-10.3861
▁representar	-10.3865
▁reis	-10.3875
▁brazo	-10.3876
▁vella	-10.3878
ine	-10.3886
OE	-10.3888
▁segura	-10.389
▁Tribuna	-10.3895
▁minerais	-10.3898
▁artístico	-10.3902
▁transformación	-10.3907
▁herdeiro	-10.3911
▁56	-10.3919
▁Napoleón	-10.392
▁rusa	-10.3922
mer	-10.3923
▁xaponesa	-10.3928
▁seren	-10.393
▁personalidade	-10.3942
▁competencia	-10.3944
tas	-10.3946
riental	-10.3965
▁Vicent	-10.397
▁ocupou	-10.3975
▁económicas	-10.3984
▁Wil	-10.3986
▁Turqu	-10.3988
▁copias	-10.399
▁250	-10.399
▁morto	-10.3991
▁claramente	-10.3994
▁palavras	-10.3995
▁chamadas	-10.3998
▁explica	-10.3999
quí	-10.4001
▁crece	-10.4006
▁punta	-10.4009
▁retirada	-10.401
▁protestante	-10.4013
▁Bueno	-10.4014
▁enviado	-10.4015
▁estata	-10.4018
▁poderían	-10.4022
lha	-10.4025
▁arqueolóxico	-10.4031
▁químico	-10.4032
▁diz	-10.4032
ografía	-10.4033
▁celebración	-10.4043
▁aquilo	-10.4047
▁amizade	-10.4053
laborou	-10.4066
▁toneladas	-10.4066
▁gole	-10.4068
▁Lú	-10.407
chi	-10.4073
▁lograr	-10.4075
ey	-10.4075
▁recolle	-10.4077
fama	-10.4081
▁Cara	-10.4081
▁57	-10.4099
▁Cámara	-10.4099
▁átomos	-10.41
▁ton	-10.411
▁serra	-10.4111
▁euro	-10.412
▁dominante	-10.4124
▁PS	-10.4142
▁mínimo	-10.4143
▁ha	-10.4148
encia	-10.4154
▁computador	-10.4162
▁Pi	-10.4165
▁específico	-10.4166
▁Sistema	-10.4166
▁Vol	-10.4167
▁latina	-10.4168
▁vir	-10.4173
▁85	-10.4175
▁mante	-10.4181
▁erro	-10.4181
▁acepta	-10.4186
▁Mississip	-10.4188
▁derradeiro	-10.4188
▁exipcio	-10.4188
▁xoga	-10.4189
▁brillante	-10.4189
▁implica	-10.419
▁reunión	-10.4191
▁neve	-10.4211
▁fogar	-10.4212
SS	-10.4213
▁localizado	-10.4217
▁sorte	-10.422
▁So	-10.4226
inas	-10.4232
▁rango	-10.4234
▁lume	-10.4235
▁conferencia	-10.4236
▁seco	-10.425
gueira	-10.4254
▁Atópa	-10.4257
▁vantaxe	-10.4257
▁CD	-10.426
▁outeiro	-10.4261
▁149	-10.4261
▁có	-10.4263
▁defender	-10.4276
▁Louis	-10.428
▁l	-10.4294
bre	-10.4295
▁viño	-10.4301
ló	-10.4302
▁interacción	-10.4303
▁maioritaria	-10.4303
▁previa	-10.4303
▁aparente	-10.4303
▁Xunto	-10.4304
▁Don	-10.431
▁santo	-10.4312
breza	-10.432
▁chámase	-10.4324
▁intervención	-10.4326
▁prazo	-10.4326
ker	-10.4331
BA	-10.4332
▁existentes	-10.4333
▁bom	-10.434
▁quente	-10.434
▁Conta	-10.4345
NE	-10.4347
▁debut	-10.4349
▁Cá	-10.435
▁combinación	-10.4361
A	-10.4364
nacionais	-10.4365
ut	-10.4367
▁vontade	-10.4372
evilla	-10.4373
▁77	-10.4379
▁consideraba	-10.438
▁levan	-10.4383
▁concreta	-10.4387
▁Nada	-10.4393
’	-10.4395
▁guitarrista	-10.4395
▁secundaria	-10.4395
▁164	-10.4396
▁clave	-10.4409
▁Manch	-10.4416
▁feminino	-10.4418
▁58	-10.443
▁levado	-10.443
▁deseñado	-10.4431
▁americanos	-10.4434
▁centros	-10.444
▁autónoma	-10.4441
▁solitario	-10.4441
rra	-10.4444
▁ponto	-10.4446
▁ceo	-10.4455
▁700	-10.4465
▁XI	-10.4466
▁puxo	-10.4469
▁cambiou	-10.4477
▁olhar	-10.4477
▁experimenta	-10.4483
▁marchou	-10.4488
▁ausencia	-10.4488
▁comandante	-10.4488
▁enxeñeiro	-10.4488
▁aconteceu	-10.4492
▁boas	-10.4493
▁k	-10.4497
▁fronteiras	-10.4503
cer	-10.4504
▁vaca	-10.4508
▁prisión	-10.4511
▁café	-10.4511
▁electrónico	-10.4512
▁intensa	-10.4513
tada	-10.4522
▁escuro	-10.4529
▁sacerdote	-10.453
▁Ei	-10.4532
▁soviético	-10.4535
tura	-10.4548
▁sonora	-10.455
▁existir	-10.4552
▁suxeito	-10.4558
▁Grazas	-10.4559
▁elevada	-10.4569
▁bomba	-10.4577
▁específica	-10.4582
▁retablo	-10.4582
▁teatra	-10.4582
▁ascenso	-10.4606
▁estavam	-10.4612
▁quiz	-10.4614
ário	-10.4617
▁experiência	-10.4619
▁incluída	-10.4629
▁refíre	-10.463
▁kg	-10.4631
▁André	-10.4631
▁dedicada	-10.4633
▁captura	-10.4641
iñeiro	-10.4642
burgo	-10.4645
lt	-10.4651
▁fósil	-10.4653
▁románica	-10.4653
▁caracteríza	-10.4653
▁noticia	-10.4653
NG	-10.4656
ni	-10.4658
ren	-10.4666
▁151	-10.4668
▁ni	-10.4672
▁bando	-10.4678
▁agrícola	-10.4684
▁lhe	-10.4685
▁quería	-10.4696
▁millón	-10.4696
▁fazem	-10.47
▁pasan	-10.47
▁profundo	-10.4701
▁setentriona	-10.4701
▁Campo	-10.4705
▁axudar	-10.472
▁típico	-10.4725
▁xaponés	-10.4725
▁Queda	-10.4729
▁encargado	-10.473
▁Medio	-10.4732
▁fins	-10.4742
▁mina	-10.4747
▁pergunta	-10.4748
▁Ministerio	-10.4749
▁iniciativa	-10.4749
▁asinou	-10.4749
▁conexión	-10.4753
forme	-10.4759
▁bisesto	-10.4773
▁equilibrio	-10.4773
▁montañosa	-10.4773
▁minoría	-10.4773
TA	-10.4776
▁ópera	-10.4777
▁alcanzar	-10.4779
fo	-10.4787
▁Tu	-10.4787
▁plena	-10.4794
▁actúa	-10.4797
▁diversidade	-10.4797
▁Vien	-10.4799
▁Sociedade	-10.4811
▁retirar	-10.4811
▁tri	-10.4814
nda	-10.482
▁celebrou	-10.4821
▁Concello	-10.4821
▁mãe	-10.4821
▁pobres	-10.4822
▁renda	-10.4823
▁Franco	-10.4829
▁visible	-10.4831
▁Ha	-10.4843
▁doutrina	-10.4845
▁lóxica	-10.4845
▁exportación	-10.4849
▁Rosa	-10.4854
▁achega	-10.4859
▁TV	-10.4861
mp	-10.4862
▁anarquista	-10.4863
▁Alta	-10.4866
ult	-10.4869
▁Norueg	-10.4869
▁Ánxel	-10.4869
▁Depois	-10.4869
▁conto	-10.4875
▁gal	-10.4876
▁dedicado	-10.4876
▁residente	-10.4877
▁mide	-10.4882
▁xuízo	-10.4885
▁probab	-10.4886
▁unido	-10.4889
▁veciña	-10.4893
▁brasileiro	-10.4894
▁capítulo	-10.4894
▁alumno	-10.4894
▁consig	-10.4895
▁portugues	-10.4898
▁pensa	-10.4898
▁adaptación	-10.4898
▁51	-10.4903
▁Paz	-10.4904
▁declaración	-10.4906
▁gravar	-10.4907
▁Esa	-10.491
▁alcance	-10.4918
▁testemuña	-10.4918
▁administrativo	-10.4918
▁xudicia	-10.4919
▁Ta	-10.4919
▁pobreza	-10.4922
▁destinado	-10.4943
▁transmisión	-10.4943
▁primaria	-10.4944
▁doenza	-10.4944
▁Ve	-10.4965
▁cana	-10.4966
▁baséa	-10.4967
▁concelleiro	-10.4972
▁Conde	-10.4979
▁asumi	-10.4986
▁dispoñible	-10.4992
▁Forma	-10.4993
▁interessante	-10.4993
▁Martin	-10.4996
▁muda	-10.5005
▁consideran	-10.5015
▁fundamentais	-10.5019
▁dalgunha	-10.5022
▁sina	-10.5022
▁modificación	-10.5022
▁tinham	-10.5025
▁eixo	-10.5025
▁fortemente	-10.5025
▁abrir	-10.5027
▁realizada	-10.5041
▁mitoloxía	-10.5041
▁paralelo	-10.5041
▁barroco	-10.5042
▁habilidade	-10.5042
▁proporción	-10.5045
▁pata	-10.5049
▁portas	-10.5053
▁empregan	-10.5055
▁utilizando	-10.5056
ity	-10.5057
▁carro	-10.506
▁Vene	-10.5063
▁buque	-10.5066
▁xorde	-10.5067
▁adestrador	-10.5074
▁Carolina	-10.5074
▁canón	-10.5075
▁Sir	-10.5077
▁Che	-10.5089
▁colexio	-10.5091
▁aceite	-10.5091
eza	-10.5092
▁Chi	-10.5101
▁exclusivamente	-10.5106
gt	-10.511
▁vivenda	-10.5115
▁percorrido	-10.5115
▁lúa	-10.5117
way	-10.5123
▁UE	-10.5132
▁tarefa	-10.5137
▁metais	-10.5139
▁ingresos	-10.514
▁arcebispo	-10.514
▁2017	-10.514
ett	-10.5145
▁Fe	-10.5147
▁cálculo	-10.5163
▁ordenador	-10.5166
▁Xoan	-10.5184
▁escritores	-10.5184
▁contribuí	-10.5196
olonia	-10.5197
▁caracter	-10.5198
▁rec	-10.5203
▁esperanza	-10.5203
base	-10.5205
▁gr	-10.5209
▁68	-10.5213
▁questão	-10.5213
▁definir	-10.5216
▁establecemento	-10.522
▁automóbil	-10.5224
▁ordenou	-10.5226
▁atravesa	-10.5229
▁posuía	-10.5232
▁Am	-10.5232
▁urbana	-10.5234
▁statu	-10.5241
▁encima	-10.5241
▁debaixo	-10.5243
eorxia	-10.5246
▁verbo	-10.5249
▁foto	-10.5251
▁Mont	-10.5251
▁individual	-10.5258
▁xogou	-10.5259
▁Grupo	-10.5266
▁xenética	-10.5266
▁estatua	-10.5269
▁puidese	-10.527
▁chin	-10.527
▁atacar	-10.528
▁inicia	-10.5286
▁enviar	-10.5291
▁encóntra	-10.5291
▁hábitat	-10.5291
▁membrana	-10.5291
▁possível	-10.5291
▁destrución	-10.5291
▁canadense	-10.5291
▁disposición	-10.5291
▁mudança	-10.5292
▁coalición	-10.5292
▁gráfico	-10.5292
▁uniu	-10.5294
▁Si	-10.5294
▁peixe	-10.5298
▁marido	-10.53
▁passado	-10.5301
▁bar	-10.5304
▁atopado	-10.531
▁Moscov	-10.5313
▁falecido	-10.5317
▁licenza	-10.5342
▁recoñecida	-10.5342
▁Guinea	-10.5342
▁cociña	-10.5342
▁pertencen	-10.536
▁Gales	-10.5366
▁negros	-10.5371
ilis	-10.5371
▁Tanto	-10.5372
▁Vou	-10.5382
▁95	-10.5385
▁normas	-10.5385
▁marcado	-10.5386
▁Ber	-10.5391
▁fi	-10.5394
▁sucesión	-10.5394
▁frase	-10.5395
▁71	-10.5399
▁independentes	-10.5405
▁xestión	-10.5414
▁decide	-10.5415
▁torna	-10.5417
▁roupa	-10.5419
▁ofrece	-10.5437
▁colocar	-10.5442
▁praias	-10.5444
▁executivo	-10.5445
par	-10.5446
▁Comisión	-10.5446
▁ajudar	-10.5449
▁rolda	-10.545
▁comer	-10.545
▁extensa	-10.5455
▁abrangue	-10.5459
▁require	-10.547
▁Canaria	-10.547
▁falada	-10.5471
▁Sam	-10.5472
▁raios	-10.5475
▁Nesa	-10.5478
gem	-10.5483
▁seguida	-10.5484
▁1000	-10.5485
▁acho	-10.5487
▁usan	-10.5494
▁Chic	-10.5495
▁razão	-10.5496
▁cumio	-10.5496
▁Parque	-10.5497
▁comuna	-10.5505
▁72	-10.5506
▁profunda	-10.5507
▁130	-10.551
▁Peter	-10.5513
▁facil	-10.5513
ano	-10.5518
▁negativa	-10.5522
▁Armada	-10.5523
ctor	-10.553
▁Obrigado	-10.5537
▁impulso	-10.554
▁Park	-10.5541
▁viva	-10.5542
▁externa	-10.5548
▁Vitoria	-10.5548
▁ruína	-10.5548
▁trinta	-10.5548
▁investimento	-10.5549
▁salto	-10.5551
▁centrais	-10.5552
▁fim	-10.5555
▁necesita	-10.5557
▁comprende	-10.5558
▁serviu	-10.5559
▁Morre	-10.5561
▁exp	-10.5573
▁cen	-10.5573
iva	-10.5574
▁Muito	-10.5575
▁tam	-10.5578
▁actuar	-10.558
▁Bis	-10.5582
ulo	-10.5585
▁Normal	-10.5587
▁totalidade	-10.5593
▁indio	-10.5593
▁circular	-10.5597
▁pertencía	-10.56
▁illote	-10.56
▁define	-10.56
▁escano	-10.5605
▁Tour	-10.5609
▁lenta	-10.5616
▁ocupado	-10.5617
▁Castel	-10.562
T	-10.5623
FA	-10.5625
▁alternativo	-10.5627
▁parede	-10.5627
fusión	-10.5635
▁preso	-10.5636
▁mellorar	-10.564
rre	-10.5642
▁Bu	-10.5644
▁pedir	-10.5647
▁quere	-10.5647
▁celular	-10.5647
▁Comité	-10.5653
▁típica	-10.5653
▁vivos	-10.5657
ilidade	-10.5659
▁rexeita	-10.566
▁Nace	-10.5664
▁ligado	-10.567
▁Cór	-10.5679
▁havia	-10.5679
▁sindicato	-10.568
▁Y	-10.5681
▁naquela	-10.5683
▁Funda	-10.5693
▁pedras	-10.5695
rico	-10.5695
ência	-10.5703
▁processo	-10.5705
▁intensidade	-10.5705
▁chinesa	-10.5706
▁Civi	-10.5706
▁fría	-10.5707
▁pura	-10.571
▁riba	-10.5727
▁boca	-10.5728
▁166	-10.5732
▁magnético	-10.5732
▁mínima	-10.5732
▁xardín	-10.5732
▁turístico	-10.5732
▁rebelde	-10.5734
▁probabilidade	-10.5735
▁recentes	-10.5738
▁bi	-10.5749
▁evidente	-10.5758
▁soporte	-10.5758
▁esténde	-10.5758
▁alcanza	-10.576
▁buscar	-10.5764
▁sólido	-10.5766
▁família	-10.5766
▁disciplina	-10.5767
▁62	-10.5774
▁navega	-10.5779
▁escura	-10.5783
▁provocar	-10.5786
▁infantil	-10.5786
▁162	-10.5786
▁pegada	-10.5789
▁sufrir	-10.5793
▁condenado	-10.5795
▁chave	-10.5796
▁positiva	-10.58
▁metro	-10.5802
▁Mel	-10.5807
▁beleza	-10.5812
▁gente	-10.5815
▁exemplos	-10.5826
▁Xur	-10.5828
▁medir	-10.5831
▁funcionar	-10.5835
▁dada	-10.5837
▁depósito	-10.5838
▁públicos	-10.584
▁ventos	-10.5854
▁sesión	-10.5855
▁lados	-10.5856
▁sinxela	-10.5856
▁denomínase	-10.586
▁execución	-10.5865
▁xurisdición	-10.5865
▁desenvolvida	-10.5865
▁sociedades	-10.5866
▁Carl	-10.5866
▁artificial	-10.5879
▁mapa	-10.5881
▁titulado	-10.5892
▁revolucionario	-10.5896
▁Boe	-10.5899
▁except	-10.5904
ish	-10.5906
▁caixa	-10.5908
ssim	-10.5908
▁Sar	-10.5913
▁aumentou	-10.5914
▁territorial	-10.5919
▁Antón	-10.592
▁protagonista	-10.5938
▁utilizan	-10.5939
▁detido	-10.594
▁Pai	-10.5945
▁aérea	-10.5946
▁Ant	-10.5952
berg	-10.5954
▁Leste	-10.5956
▁tramo	-10.5957
▁determinada	-10.597
▁actitude	-10.5971
*	-10.5973
▁magnitude	-10.5973
▁introdución	-10.5978
▁quedan	-10.5981
▁174	-10.5998
▁Rafa	-10.6001
cho	-10.6005
▁Tam	-10.6009
▁desenvolvido	-10.6025
▁desaparición	-10.6028
oz	-10.6029
▁enteiro	-10.6029
▁facelo	-10.6029
▁limitada	-10.6038
▁diocese	-10.604
▁ba	-10.6042
▁adquiri	-10.6054
▁crítico	-10.6054
▁húmido	-10.6055
▁intelectual	-10.6055
▁sabor	-10.6055
▁electrónica	-10.6056
▁psic	-10.6056
▁xusto	-10.6058
frica	-10.6064
▁limitado	-10.6074
▁descender	-10.6074
illas	-10.6078
▁informe	-10.6085
▁habitada	-10.6089
▁Pedra	-10.6092
migración	-10.6096
▁pon	-10.6099
▁definitiva	-10.6104
▁representado	-10.6107
▁recinto	-10.611
▁comece	-10.611
▁partidario	-10.6111
▁unida	-10.6111
▁Traballo	-10.6111
▁relevante	-10.6115
▁Corporación	-10.6115
▁Vamo	-10.6117
I	-10.6119
▁construir	-10.612
▁imp	-10.6123
▁coruñ	-10.6132
▁Federa	-10.6136
▁excelente	-10.6139
▁laterais	-10.6143
▁indican	-10.6161
▁Pazo	-10.6163
▁retorno	-10.6165
▁baleiro	-10.6165
▁mesa	-10.6168
▁Tole	-10.6171
▁vexa	-10.6177
cesión	-10.6177
▁tanque	-10.6181
▁modernos	-10.6183
▁Jim	-10.6185
▁viax	-10.619
▁pretende	-10.619
▁montes	-10.6191
▁ce	-10.6192
▁fibra	-10.6193
▁pop	-10.6196
▁mecanismo	-10.6201
nio	-10.6205
ho	-10.6209
tion	-10.6217
▁ribeira	-10.622
▁resolución	-10.622
▁editou	-10.622
▁bóveda	-10.6221
▁pu	-10.6222
ire	-10.6224
▁alma	-10.6224
▁dependencia	-10.6224
▁63	-10.623
▁Fu	-10.6243
▁patrimoni	-10.6244
▁ma	-10.6245
▁0,	-10.6246
▁paredes	-10.6248
▁Sicilia	-10.6248
▁poñer	-10.6248
▁retrato	-10.6248
▁disolución	-10.6248
▁96	-10.6251
▁fuxir	-10.6251
▁definida	-10.6251
▁grav	-10.6256
▁visual	-10.6263
▁Batalla	-10.6266
▁gañador	-10.6271
▁sucedeu	-10.6272
▁feminina	-10.6276
▁asociada	-10.6279
▁xudía	-10.6279
▁perceber	-10.628
▁Tiña	-10.6283
▁Maced	-10.6284
▁realización	-10.6288
▁acusado	-10.6288
damente	-10.6289
vamos	-10.6296
▁171	-10.6296
▁155	-10.6297
▁estratexia	-10.6304
▁videoxogo	-10.6304
▁avó	-10.6304
eda	-10.631
▁descubrir	-10.6311
▁funda	-10.6315
▁organizar	-10.6317
▁seguidor	-10.6317
▁queremos	-10.6327
▁Nela	-10.6328
▁verso	-10.6329
▁honor	-10.6332
▁combustible	-10.6332
▁redución	-10.6336
▁tanta	-10.6337
▁convento	-10.6339
▁imagem	-10.636
▁electric	-10.636
▁acepto	-10.6361
▁outono	-10.6362
▁profesiona	-10.6363
▁Cabo	-10.6365
▁156	-10.6372
▁sabem	-10.6372
▁violen	-10.6378
▁ocorreu	-10.6386
▁nível	-10.6389
▁dirixente	-10.6394
▁fez	-10.6397
▁introduciu	-10.6402
amento	-10.6408
id	-10.6409
▁escoc	-10.6411
▁raí	-10.6412
▁Her	-10.6417
▁pediu	-10.6417
▁utilizou	-10.6417
▁concreto	-10.6417
▁quinta	-10.6417
▁River	-10.6418
▁dando	-10.642
▁comparte	-10.6421
▁arma	-10.6423
▁cita	-10.6424
▁66	-10.6431
▁Alto	-10.6433
▁contemporáneo	-10.6445
▁circunstancia	-10.6445
▁galaxia	-10.6445
▁militante	-10.645
▁Marte	-10.6454
tbol	-10.6455
▁espectáculo	-10.6474
▁dedicou	-10.6474
▁vapor	-10.6474
▁Francesa	-10.6476
▁cinema	-10.6477
▁165	-10.6478
▁desaparecer	-10.6479
antes	-10.6482
▁Corea	-10.6483
gue	-10.6486
▁153	-10.6487
▁merc	-10.6489
ssem	-10.649
▁privada	-10.65
▁intercambio	-10.6502
▁deseñada	-10.6502
▁adoptou	-10.6503
▁interesante	-10.6503
▁óso	-10.6504
▁permanecer	-10.6504
▁99	-10.6507
▁utilíza	-10.6509
▁servidor	-10.651
▁lagos	-10.6513
▁complexidade	-10.6531
▁alberga	-10.6531
▁gramática	-10.6531
▁cabaleiro	-10.6532
▁suposto	-10.6532
▁quatro	-10.6532
▁operativo	-10.6532
▁gobernante	-10.6535
▁Cu	-10.6536
▁gris	-10.6537
▁pés	-10.6538
▁continuo	-10.6539
▁Bre	-10.6539
▁reducir	-10.654
▁Tra	-10.654
▁Art	-10.6544
▁abre	-10.6546
▁nota	-10.6549
▁78	-10.6549
▁feitas	-10.6558
▁coordenada	-10.656
▁incendio	-10.656
▁alternativa	-10.6561
▁identificar	-10.6568
▁Territorio	-10.657
homa	-10.6575
▁158	-10.6582
▁pirata	-10.6585
▁aparello	-10.6589
▁Suprem	-10.6589
▁nube	-10.6589
▁Palacio	-10.6589
▁presentación	-10.6593
▁homem	-10.6599
uro	-10.6603
▁termina	-10.6615
▁Schuma	-10.6618
▁dividir	-10.6618
▁West	-10.6618
▁cumprir	-10.6619
▁postura	-10.6619
▁98	-10.6629
tado	-10.6637
▁protexer	-10.6637
▁cu	-10.6639
▁após	-10.6647
▁promoción	-10.6647
▁Tint	-10.6652
▁escolar	-10.6657
aco	-10.6659
▁parecer	-10.6664
▁mata	-10.667
▁crónica	-10.6676
▁Alfred	-10.6676
▁bolsa	-10.6676
▁procedemento	-10.668
▁orienta	-10.6681
▁retirou	-10.6683
▁ciência	-10.6691
▁xorna	-10.6701
nstein	-10.6704
▁Maior	-10.6706
▁electromagnétic	-10.6707
▁1951	-10.6708
▁elimina	-10.6708
▁los	-10.6716
▁rexional	-10.6721
▁expresa	-10.6728
▁piano	-10.6736
▁apoiar	-10.6739
▁vítimas	-10.6752
lín	-10.6753
▁Destaca	-10.6758
▁máquinas	-10.6758
▁172	-10.6761
▁coloniza	-10.6762
▁Mary	-10.6763
▁aeroliña	-10.6763
▁sueco	-10.6763
▁volcánica	-10.6764
▁v	-10.6777
▁67	-10.6779
▁regra	-10.678
▁complexos	-10.6782
▁Federic	-10.6784
▁Virxi	-10.6793
▁índice	-10.6793
▁Hawai	-10.6793
▁Fú	-10.6799
▁amosa	-10.68
▁Cultura	-10.6801
▁capita	-10.6802
M	-10.6805
▁proporciona	-10.6812
▁ideal	-10.6812
ados	-10.6815
▁fuxi	-10.6816
▁dependente	-10.6817
▁General	-10.6822
▁contribución	-10.6823
▁separa	-10.6834
▁médicos	-10.6834
▁percorre	-10.6842
▁escultura	-10.6844
▁gravado	-10.6847
▁destruída	-10.6852
▁muíño	-10.6852
▁crime	-10.6853
▁espacial	-10.6859
▁hab	-10.6859
▁enxeñ	-10.686
▁maioria	-10.686
▁literal	-10.686
ncia	-10.6872
▁concepción	-10.6873
▁Siri	-10.6874
xustiza	-10.688
▁milenio	-10.6882
▁homens	-10.6883
▁projeto	-10.6883
▁vasco	-10.6887
▁gasto	-10.689
▁voar	-10.6892
bar	-10.6897
▁Van	-10.6901
altar	-10.6902
▁poderoso	-10.6907
▁manuscrito	-10.6911
ora	-10.6912
▁Confederación	-10.6915
▁abriu	-10.6919
per	-10.6926
▁concurso	-10.6934
▁Johann	-10.6935
▁debeu	-10.6936
‘	-10.6941
▁laboratorio	-10.6941
▁Democrátic	-10.6942
▁Golf	-10.6944
▁59	-10.6944
laboración	-10.695
▁enlace	-10.695
ad	-10.6952
▁Joseph	-10.6952
ficou	-10.6954
▁describir	-10.6956
▁encoro	-10.6957
▁escribe	-10.6958
▁loitar	-10.696
▁dessa	-10.6961
▁explicación	-10.6965
▁empeza	-10.6967
▁Oscar	-10.6967
▁Domingo	-10.6971
▁candidatura	-10.6971
▁125	-10.6972
▁UR	-10.6972
▁trigo	-10.6973
▁fogo	-10.6973
▁declarado	-10.6983
▁82	-10.6984
▁fixa	-10.6985
▁permitía	-10.6988
▁Ham	-10.6989
▁falan	-10.6991
▁Mesm	-10.6997
▁173	-10.6998
▁revela	-10.7001
▁Parroquia	-10.7001
▁suxire	-10.7001
▁deportiva	-10.7001
▁dirixir	-10.7001
▁heroe	-10.7001
▁Iso	-10.7004
▁orquestra	-10.7006
▁Negro	-10.7007
▁distinguir	-10.7008
▁76	-10.701
▁Var	-10.7018
▁viver	-10.7021
▁anua	-10.703
▁Príncipe	-10.7031
▁individuais	-10.7031
▁Terceir	-10.7033
▁atopába	-10.7035
▁nomeamento	-10.7039
▁sementes	-10.7041
▁designado	-10.7042
▁estrea	-10.7046
▁superar	-10.7054
▁61	-10.7054
ida	-10.7059
▁coidado	-10.7059
▁Daniel	-10.7061
uel	-10.7062
▁incluía	-10.7066
▁achado	-10.7078
▁Hill	-10.7084
▁canta	-10.7085
▁traballaba	-10.7087
▁lectura	-10.7092
▁mañá	-10.7092
▁petición	-10.7092
▁decreto	-10.7092
▁Coroa	-10.7093
senta	-10.7093
▁tío	-10.7094
▁Texas	-10.7095
▁masculino	-10.7095
▁Leonard	-10.7102
▁Ni	-10.7103
▁iniciar	-10.7106
▁nomeada	-10.7111
▁caer	-10.7111
▁Quero	-10.7114
▁senador	-10.7116
▁certeza	-10.7122
▁Deportiv	-10.7122
▁ideoloxía	-10.7123
▁medalla	-10.7124
▁opción	-10.7125
▁força	-10.7126
▁tese	-10.7127
▁molécula	-10.7129
▁terminar	-10.7133
▁coloca	-10.7139
▁abandona	-10.714
▁aceiro	-10.7142
▁especialista	-10.7142
cito	-10.715
▁triunfo	-10.7153
úa	-10.7153
▁reprodución	-10.7153
▁frente	-10.7153
gen	-10.7155
▁Lago	-10.7155
▁tralo	-10.7156
▁portada	-10.7168
▁terá	-10.7169
▁causar	-10.7174
▁entende	-10.7174
gu	-10.7175
▁atómico	-10.7183
▁erupción	-10.7183
▁porcentaxe	-10.7183
▁herba	-10.7183
▁Antiga	-10.7183
▁gótico	-10.7183
▁Stone	-10.7184
▁Je	-10.7185
amos	-10.7186
▁atopaba	-10.7194
▁tribo	-10.7195
▁vertical	-10.7196
▁ave	-10.7196
▁casar	-10.7198
▁tomada	-10.7211
▁apelido	-10.7214
▁arriba	-10.7215
▁Zara	-10.7216
▁prop	-10.7217
▁Xuli	-10.722
áz	-10.722
▁Tui	-10.7221
▁regresar	-10.7221
▁comparación	-10.7223
well	-10.7224
▁caminho	-10.7225
▁gradual	-10.7228
▁mental	-10.7239
▁puider	-10.7243
▁creador	-10.7243
▁rurais	-10.7245
▁colonial	-10.7249
▁predominante	-10.7249
▁Pertence	-10.7253
▁propietario	-10.7255
▁crista	-10.7256
▁froita	-10.7256
▁Sil	-10.7265
▁Ano	-10.7266
▁War	-10.7268
▁fila	-10.727
▁colabora	-10.727
▁cerámica	-10.7276
▁instituto	-10.7276
▁cuberto	-10.7276
▁Parece	-10.7276
▁Serbi	-10.7277
bert	-10.7279
▁tarefas	-10.728
▁diaria	-10.7281
▁marcada	-10.7284
▁infant	-10.7288
▁seca	-10.7291
▁1912	-10.7298
▁seguía	-10.7302
▁Antigo	-10.7306
▁ecosistema	-10.7306
ka	-10.7307
▁Forza	-10.7315
▁carros	-10.7317
▁soberano	-10.7319
▁Vell	-10.7321
▁privado	-10.7324
E	-10.7331
▁Músic	-10.7338
▁gobernamenta	-10.7338
▁Henr	-10.7338
▁Menor	-10.7339
▁mancha	-10.7339
▁socio	-10.7344
▁acada	-10.7346
▁cambia	-10.7346
▁161	-10.7352
mi	-10.7362
▁conca	-10.7362
▁Organización	-10.7369
▁soviética	-10.7369
▁intenta	-10.7375
▁Mandel	-10.7375
▁escaso	-10.7375
▁Ru	-10.7377
▁arcos	-10.7382
▁extra	-10.7383
▁Prim	-10.7384
▁encontra	-10.7385
▁coro	-10.7386
ited	-10.7389
▁xeograf	-10.7393
▁rexeitou	-10.74
▁primario	-10.7402
▁Ohio	-10.7402
▁construíron	-10.7411
▁suceso	-10.742
▁visitar	-10.7425
▁Univers	-10.7426
▁Ki	-10.7426
▁químicos	-10.743
▁matar	-10.7431
▁humor	-10.7432
▁moda	-10.7433
▁meta	-10.7438
orra	-10.7438
ty	-10.7439
R	-10.7443
▁157	-10.7445
▁capace	-10.7456
▁naval	-10.7459
▁cardea	-10.7463
▁tiro	-10.7465
▁tra	-10.7471
▁consistente	-10.7472
▁podia	-10.7477
▁154	-10.7478
▁golfo	-10.748
▁nacionalismo	-10.748
▁Colle	-10.7488
▁apertura	-10.7491
▁entrevista	-10.7492
▁aprobou	-10.7494
▁restauración	-10.7494
▁resistente	-10.7495
▁avogado	-10.7498
▁causas	-10.7499
nés	-10.75
▁humanas	-10.7502
▁asinar	-10.7502
únic	-10.7504
▁Hol	-10.7505
▁intentar	-10.7511
▁pi	-10.7519
▁beneficios	-10.7523
ord	-10.7523
▁vender	-10.7525
▁Particip	-10.7526
▁multitude	-10.7526
▁refuxio	-10.7526
▁mulher	-10.7526
▁latitude	-10.7526
xenti	-10.7526
K	-10.7529
tán	-10.7531
▁manga	-10.7532
▁aproveita	-10.7536
riño	-10.7537
edo	-10.7542
diz	-10.7546
▁foresta	-10.7548
lho	-10.7555
iza	-10.7558
▁lingüístico	-10.7558
▁longobardo	-10.7558
▁Baixa	-10.7558
▁lector	-10.7559
▁dieta	-10.7559
um	-10.7559
elas	-10.7566
▁viña	-10.7567
▁negociación	-10.7567
DA	-10.7568
aquia	-10.7574
ford	-10.7575
ándo	-10.7583
ed	-10.7588
▁turista	-10.759
▁firme	-10.759
▁infección	-10.759
▁poderosa	-10.759
▁complexa	-10.7593
▁definido	-10.7595
▁poderá	-10.7598
rie	-10.7599
V	-10.76
▁usou	-10.7602
▁absoluto	-10.7603
▁Ví	-10.7605
NT	-10.7613
tero	-10.7621
▁campesiño	-10.7621
▁causou	-10.7621
▁decoración	-10.7621
▁lobo	-10.7622
▁fresco	-10.7622
▁Esto	-10.7622
▁folga	-10.7622
▁mineral	-10.7624
erusalé	-10.7625
▁compra	-10.7629
▁pago	-10.7633
▁positivo	-10.7633
▁integrado	-10.764
▁titular	-10.7654
▁hemisferio	-10.7654
▁neto	-10.7654
▁celebra	-10.7656
▁King	-10.7661
▁Andalu	-10.7665
▁reunir	-10.7665
▁variada	-10.7668
gua	-10.7669
▁dispó	-10.767
▁Linu	-10.7672
▁formaba	-10.7677
▁Ferrari	-10.7686
▁cromosoma	-10.7686
▁declarada	-10.7693
▁intentou	-10.7693
▁coñécese	-10.7707
▁vales	-10.7708
NES	-10.771
▁fases	-10.7714
▁influente	-10.7718
▁médica	-10.7718
▁deportivo	-10.7718
▁establecida	-10.7718
▁Die	-10.7723
▁reducido	-10.7723
▁Burgo	-10.7724
▁tropica	-10.7725
▁acompañado	-10.7731
▁mover	-10.7734
▁Podem	-10.7735
▁hum	-10.7747
▁lembra	-10.775
▁temática	-10.7751
▁tubo	-10.7751
▁masiva	-10.7753
▁leve	-10.7754
▁expulsado	-10.7758
▁mundia	-10.7759
▁Galile	-10.7759
▁Florenci	-10.776
▁organizou	-10.7762
▁arrecife	-10.7763
▁aplica	-10.7769
ime	-10.777
▁habitua	-10.7772
▁organizado	-10.7772
▁Marro	-10.7773
▁fosse	-10.7773
▁Romaní	-10.7775
▁Gal	-10.7775
▁Ga	-10.7776
▁Bibli	-10.7781
▁reflicte	-10.7783
▁Toronto	-10.7783
▁comerciante	-10.7783
ún	-10.7785
▁temporada	-10.7786
▁Tiv	-10.7787
▁93	-10.7787
▁funcionario	-10.7787
▁Pan	-10.7788
nacemento	-10.7788
▁incremento	-10.779
▁milla	-10.7793
▁87	-10.7796
▁Dr	-10.7797
xia	-10.7798
▁matemático	-10.7799
▁débeda	-10.78
▁estudante	-10.7804
▁notas	-10.7804
▁regresa	-10.7806
▁acostuma	-10.781
▁World	-10.7815
▁singular	-10.7815
▁fixéron	-10.7816
ware	-10.7817
▁guión	-10.7818
▁92	-10.7821
cesto	-10.7827
▁editor	-10.7829
ester	-10.783
▁rocha	-10.7834
ore	-10.784
▁periódica	-10.7848
itude	-10.7851
▁vendido	-10.7851
▁73	-10.7853
▁fazemos	-10.7855
▁computadores	-10.7861
O	-10.7862
▁81	-10.7865
con	-10.7865
▁alcanzou	-10.787
riba	-10.7872
ivo	-10.7874
▁centímetro	-10.7881
▁establecido	-10.7881
ier	-10.7884
▁Banc	-10.7889
▁nacer	-10.7895
▁fabricante	-10.7896
▁correo	-10.7896
▁preparar	-10.7898
▁Canto	-10.7907
▁eliminar	-10.7912
▁domingo	-10.7914
▁remate	-10.7914
▁vidro	-10.7914
▁artes	-10.7917
▁Cerv	-10.7918
óxido	-10.792
▁lanza	-10.7925
▁usados	-10.7926
zar	-10.7926
▁159	-10.793
▁Mal	-10.7933
▁Camiño	-10.7947
▁Física	-10.7947
▁navío	-10.7947
▁privilexio	-10.7947
▁faraón	-10.7947
▁quince	-10.7947
▁monxe	-10.7947
▁narrativa	-10.7947
▁Colomb	-10.7948
▁du	-10.7948
▁representada	-10.7949
▁futura	-10.7952
▁carbón	-10.7952
▁punk	-10.7955
▁uniforme	-10.7956
▁celebrada	-10.7958
▁precis	-10.7965
▁visitante	-10.797
▁espécie	-10.7972
▁Granad	-10.7973
▁tornado	-10.7975
▁erros	-10.7977
▁cemiterio	-10.798
tica	-10.7981
▁estendeu	-10.7982
▁xera	-10.7983
▁91	-10.7984
▁homónimo	-10.7991
▁Bela	-10.7993
▁passar	-10.7993
▁presas	-10.7998
▁Beta	-10.8
▁dano	-10.8009
▁Superior	-10.8013
▁escultor	-10.8013
▁Prus	-10.8013
▁poética	-10.8013
▁National	-10.8014
▁densa	-10.8014
▁estende	-10.8018
▁ra	-10.8018
era	-10.8018
▁existente	-10.802
▁veu	-10.8024
▁viaxa	-10.8027
▁sa	-10.8028
▁mariñeiro	-10.8029
▁falado	-10.8031
▁queixo	-10.8033
▁Vilar	-10.8036
▁tentou	-10.8039
cción	-10.8041
▁pobre	-10.8042
▁Pena	-10.8045
▁própria	-10.8046
▁contorna	-10.8046
▁167	-10.8047
▁milhar	-10.8048
▁colectivo	-10.8052
▁preocupación	-10.8058
▁conxunta	-10.806
▁84	-10.8061
▁caró	-10.8072
eto	-10.8078
▁rol	-10.808
▁descrito	-10.808
▁distinción	-10.808
▁obtido	-10.808
▁norteamericana	-10.8081
nec	-10.8086
W	-10.8088
▁168	-10.8088
▁escapar	-10.81
▁tenda	-10.8105
▁substituír	-10.8108
▁propux	-10.8109
▁diferença	-10.8113
▁asiático	-10.8113
▁récord	-10.8113
▁Minne	-10.8113
▁soporta	-10.8113
▁Columbia	-10.8115
▁obreiro	-10.8115
izar	-10.8116
▁salvar	-10.8117
▁prisioneiros	-10.8126
▁Bro	-10.8127
▁aprendiza	-10.8127
▁Far	-10.8128
▁gravou	-10.8131
misión	-10.8131
▁algué	-10.8132
▁integrante	-10.8136
tico	-10.8138
wa	-10.8143
bio	-10.8145
▁bebida	-10.8147
▁balon	-10.8147
▁Linn	-10.8148
▁posso	-10.815
ovia	-10.8157
▁proclama	-10.8161
▁89	-10.8162
▁comp	-10.8163
▁Plan	-10.8163
▁sim	-10.8165
▁recoñecer	-10.8166
▁Letr	-10.8166
▁transformar	-10.8166
▁69	-10.8167
▁abundan	-10.8169
ix	-10.8172
mperador	-10.8175
▁caracteriza	-10.8175
▁prima	-10.8176
▁climática	-10.8181
▁discográfica	-10.8181
▁espectador	-10.8181
▁perna	-10.8193
▁pleno	-10.8195
▁oral	-10.8203
▁cabe	-10.821
▁axudou	-10.8215
▁demostrou	-10.8215
▁polémica	-10.8215
▁románico	-10.8215
▁traxectoria	-10.8215
▁consciente	-10.8215
▁Vallad	-10.8216
▁federación	-10.8221
▁comunica	-10.8222
▁xer	-10.8222
▁vilas	-10.8223
ium	-10.8226
▁visigodo	-10.8228
rí	-10.8235
▁sentimento	-10.8236
▁fixera	-10.8241
▁Juli	-10.8241
▁ningué	-10.8242
▁corda	-10.8244
▁úsa	-10.8244
▁pares	-10.8246
▁segredo	-10.8249
▁chineses	-10.8249
▁xove	-10.8251
▁Praz	-10.8255
▁combina	-10.8258
▁79	-10.8261
▁Est	-10.827
ulf	-10.8272
▁Jer	-10.828
▁académico	-10.8283
▁sucesiva	-10.8283
▁herdanza	-10.8283
▁Wind	-10.8289
▁característico	-10.8295
▁interno	-10.83
▁armada	-10.8301
▁prato	-10.8301
▁derivada	-10.8306
▁radical	-10.8314
▁Ja	-10.8315
▁Red	-10.8316
ñez	-10.8317
▁Vietnam	-10.8317
▁afecta	-10.8317
▁talento	-10.8318
▁té	-10.8322
▁Ás	-10.8322
▁declara	-10.8323
▁74	-10.8324
▁sé	-10.8326
eas	-10.8336
ux	-10.834
▁Galia	-10.8344
▁diferencia	-10.8345
▁patente	-10.835
▁Precisa	-10.8351
▁terremoto	-10.8351
▁oferta	-10.8351
dro	-10.8352
▁Prag	-10.8355
▁Ti	-10.8356
▁audiencia	-10.8358
▁Carme	-10.8359
▁mostran	-10.8365
▁planetas	-10.8365
▁recoñece	-10.8374
▁efectiva	-10.838
▁congreso	-10.8386
▁Conferencia	-10.8386
▁Smith	-10.8387
▁desembocadura	-10.8388
▁levada	-10.8397
nzos	-10.84
▁Nel	-10.8401
▁armado	-10.8402
aribe	-10.8416
▁aplicar	-10.8417
▁nacionalidade	-10.8419
erú	-10.8419
▁ámb	-10.8419
▁incursión	-10.8421
▁supera	-10.8421
▁163	-10.8422
▁adoptar	-10.8424
▁97	-10.8425
▁conseguimos	-10.8433
▁86	-10.8433
▁incluír	-10.8437
▁tira	-10.8437
▁oposto	-10.8443
▁Kan	-10.8448
▁hard	-10.8452
▁espectro	-10.8455
▁estética	-10.8455
▁discípulo	-10.8455
▁lat	-10.8456
▁ninguém	-10.8463
▁profundamente	-10.8465
ssemos	-10.8466
▁castelá	-10.847
F	-10.8477
▁88	-10.848
ki	-10.8483
▁Gregori	-10.8488
▁defensor	-10.849
▁discusión	-10.849
▁enterrado	-10.849
▁estatuto	-10.849
▁himno	-10.849
▁persecución	-10.849
▁extinción	-10.849
▁Florida	-10.849
▁rico	-10.8491
mort	-10.8491
▁orixinaria	-10.8493
▁decidi	-10.8498
▁pesado	-10.8498
▁fina	-10.85
▁Mari	-10.8503
▁equipa	-10.8505
yo	-10.8509
▁proteína	-10.8518
▁bala	-10.8522
▁pronuncia	-10.8523
▁Posúe	-10.8525
▁Ucra	-10.8525
▁mostrou	-10.8525
▁eficaz	-10.8525
▁periódico	-10.8525
▁ONU	-10.8525
▁Condado	-10.8525
▁correr	-10.8528
min	-10.8529
mb	-10.853
iño	-10.8533
▁Pin	-10.8537
▁vê	-10.854
iam	-10.8541
▁Jo	-10.8544
liz	-10.8545
▁porco	-10.8548
▁doutor	-10.8557
▁poderia	-10.8558
▁Iugoslav	-10.856
▁Rexión	-10.856
▁arxentino	-10.856
▁descenso	-10.856
▁guerreiro	-10.856
▁suposta	-10.8561
goza	-10.8562
▁irland	-10.8565
▁Aparece	-10.8566
▁detalles	-10.8567
▁editorial	-10.8569
▁sétim	-10.8571
▁sext	-10.8578
▁historic	-10.8585
▁tende	-10.8585
uxe	-10.8585
▁livro	-10.8592
ompañía	-10.8594
▁proclamou	-10.8595
nça	-10.8602
▁rival	-10.8603
▁organizada	-10.8605
tei	-10.8624
MS	-10.8626
ós	-10.8629
▁dispositivo	-10.863
ñón	-10.8631
▁externo	-10.8631
▁marítima	-10.8631
▁parecido	-10.8631
▁críticos	-10.8632
▁Michel	-10.8633
▁140	-10.8636
▁elevación	-10.8637
▁fundar	-10.8646
rían	-10.8656
▁ensinar	-10.8657
▁Gar	-10.8658
olid	-10.8665
iteratura	-10.8666
▁Estatuto	-10.8666
▁paxaro	-10.8666
▁compromiso	-10.8666
▁escollido	-10.8667
ação	-10.8668
▁Prat	-10.8674
▁facilidade	-10.8674
▁constituído	-10.8674
▁145	-10.8675
▁rexiona	-10.868
▁cova	-10.8685
▁conduci	-10.8687
▁vencer	-10.8689
▁xapones	-10.8692
▁drogas	-10.8693
▁Hispan	-10.8697
▁participante	-10.8701
▁cabeceira	-10.8702
▁hectárea	-10.8702
▁impresión	-10.8702
▁reducida	-10.8705
▁promove	-10.8706
▁conversa	-10.8713
▁filhos	-10.8717
▁Mark	-10.8721
▁andar	-10.8723
▁Pres	-10.8724
▁cura	-10.873
$	-10.8737
▁síntoma	-10.8737
▁Saint	-10.8738
▁convertéron	-10.874
▁pechada	-10.8742
▁147	-10.8743
▁enteira	-10.8744
▁escritora	-10.8745
▁sob	-10.8745
▁esperar	-10.8748
▁depresión	-10.875
▁Rock	-10.8752
▁Maria	-10.8753
onal	-10.8754
▁otomán	-10.8756
fu	-10.8759
▁Sou	-10.876
▁datan	-10.876
lmente	-10.8763
▁intelixen	-10.8766
▁acceder	-10.8769
▁fiz	-10.8771
▁voce	-10.8771
▁móbil	-10.8773
▁perfecta	-10.8773
▁recuperou	-10.8773
▁Hattus	-10.8773
▁Segui	-10.8774
▁Ricard	-10.8774
ata	-10.8775
▁accede	-10.8778
▁146	-10.8778
▁violenta	-10.8779
▁Lemo	-10.8779
▁negocio	-10.8782
▁piso	-10.8785
▁demostrar	-10.88
▁estaría	-10.8806
▁ajuda	-10.8807
▁aniversario	-10.8809
▁subespecie	-10.8809
▁amarelo	-10.8809
▁asemblea	-10.8809
▁mención	-10.8811
▁Humanidade	-10.8811
▁cero	-10.8815
alvez	-10.8815
▁conservan	-10.8818
▁Par	-10.8823
▁granito	-10.8823
▁sobriño	-10.883
▁110	-10.8835
▁vector	-10.8836
▁Tem	-10.8844
▁celebrar	-10.8845
▁substitución	-10.8846
▁vocalista	-10.8846
▁negativo	-10.8847
▁naquel	-10.8847
▁começa	-10.8856
▁Gra	-10.8866
▁momentos	-10.8867
ur	-10.8869
rán	-10.8871
▁Vatican	-10.8882
▁economia	-10.8882
▁progresiva	-10.8882
▁Británica	-10.8882
▁Indonesia	-10.8882
▁simul	-10.8882
▁constitucional	-10.8882
▁cadeira	-10.8882
▁tu	-10.8884
▁escavación	-10.8886
▁enfermo	-10.8891
▁migración	-10.8893
▁corredor	-10.8896
▁Secretari	-10.8904
▁Valde	-10.8907
▁descenden	-10.8915
▁pasaba	-10.8918
▁Educa	-10.8918
▁Lourenz	-10.8918
▁provavelmente	-10.8918
iu	-10.8919
▁reconstrución	-10.892
▁fame	-10.8921
▁vital	-10.8923
▁Bob	-10.8924
▁Fronte	-10.8925
▁US	-10.8939
▁centena	-10.8946
▁pacientes	-10.8947
▁presa	-10.8948
ft	-10.895
▁medra	-10.8954
▁Scott	-10.8955
▁princesa	-10.8955
▁conclusión	-10.8957
▁Luc	-10.8958
▁configuración	-10.8961
▁flora	-10.8963
▁favorece	-10.8964
▁flor	-10.8967
ierre	-10.8967
▁148	-10.897
▁contou	-10.8971
▁sucede	-10.8975
▁atopá	-10.8986
▁controversia	-10.8991
▁imagens	-10.8991
▁décimo	-10.8991
▁lanzar	-10.8992
▁Estaba	-10.8997
▁rodeada	-10.8997
▁chea	-10.8998
taneamente	-10.9003
▁ascende	-10.9009
▁simplesmente	-10.9012
▁Gui	-10.9017
▁Fil	-10.9023
▁You	-10.9023
▁Alp	-10.9024
▁marea	-10.9024
ambém	-10.9027
▁Ull	-10.9028
▁Hospital	-10.9028
▁Darwin	-10.9028
▁Você	-10.9028
▁vitamina	-10.9028
▁Nalgún	-10.9028
▁sair	-10.9035
▁asegurar	-10.9036
▁contraste	-10.904
▁vendeu	-10.9045
▁XXI	-10.9059
▁facían	-10.9061
▁estea	-10.9072
torio	-10.9073
▁recibido	-10.9073
▁som	-10.9073
▁clasificar	-10.9075
▁designar	-10.9087
▁Alm	-10.9098
▁polaco	-10.9099
18	-10.9101
▁ilumina	-10.9102
▁realíza	-10.9102
▁ferida	-10.9102
▁conquistou	-10.9102
▁consoante	-10.9102
▁pretendía	-10.9104
▁Karl	-10.9109
▁dedicar	-10.9111
▁aquele	-10.9114
▁millo	-10.9128
▁observa	-10.9131
▁pano	-10.9134
▁Star	-10.9134
▁destruído	-10.9139
▁devandita	-10.9139
▁jazz	-10.9139
▁virtude	-10.9139
▁éuscar	-10.9139
▁fui	-10.9139
▁algum	-10.914
▁mão	-10.9145
▁pechado	-10.9147
▁Ze	-10.915
,2	-10.9153
▁mencionado	-10.9156
▁indicar	-10.9157
▁alga	-10.9162
▁obtén	-10.9171
▁exercer	-10.9171
▁significativo	-10.9175
fianza	-10.9176
▁contemporánea	-10.9176
▁aéreo	-10.9176
▁negou	-10.9176
▁considerou	-10.9176
▁Black	-10.9177
▁Wag	-10.9179
▁rexistrada	-10.9181
▁agrícolas	-10.9187
▁concedeu	-10.9196
▁Clar	-10.92
▁mecanismos	-10.9203
▁negocios	-10.9205
▁mi	-10.9209
▁tre	-10.9209
ibr	-10.9211
▁afirmou	-10.9212
xencia	-10.9212
▁dispositivos	-10.9215
atrimonio	-10.9215
▁Celta	-10.9216
▁constituíu	-10.9216
▁Bach	-10.9221
▁dixital	-10.9226
▁deulle	-10.9226
▁Verde	-10.9228
▁Vermello	-10.9235
▁feira	-10.9237
▁Cultural	-10.9241
▁responder	-10.9244
je	-10.9249
▁marítimo	-10.9251
▁criança	-10.9252
marck	-10.9253
▁recurso	-10.9254
▁produci	-10.9255
▁ocasional	-10.9256
▁ref	-10.9259
▁Kent	-10.9263
▁biolox	-10.9271
▁queria	-10.9272
bur	-10.9274
▁orientación	-10.9275
▁ouvir	-10.928
▁Chris	-10.9283
▁protexido	-10.9289
▁ábsida	-10.9289
▁esfera	-10.9289
▁Mozart	-10.9289
▁Armeni	-10.929
▁Estudo	-10.9297
▁constantemente	-10.9297
▁custos	-10.9306
tem	-10.9307
uga	-10.9311
▁Rose	-10.9319
▁músculo	-10.9327
▁aparencia	-10.9327
▁adestramento	-10.9327
▁169	-10.9329
▁Duque	-10.933
lianza	-10.933
▁costeira	-10.9331
▁adoitaba	-10.9334
nder	-10.9339
ly	-10.9345
▁Cant	-10.9361
▁derradeira	-10.9365
▁cordas	-10.9365
▁Teñ	-10.9365
pita	-10.9367
▁raro	-10.9368
▁melhores	-10.937
▁referente	-10.9371
▁organiza	-10.9372
▁extenso	-10.9376
▁preparación	-10.9379
oga	-10.9381
▁ricos	-10.9385
▁baix	-10.9396
▁histórias	-10.9397
▁Cela	-10.9399
▁conduta	-10.9403
▁descrita	-10.9403
▁educativo	-10.9403
▁progreso	-10.9403
ctuou	-10.9403
▁refire	-10.9403
▁Newton	-10.9405
▁defende	-10.9408
▁instrución	-10.9408
ntar	-10.9413
▁igualdade	-10.9413
▁engadir	-10.9414
▁quais	-10.9414
▁Ven	-10.9419
▁Señor	-10.9421
ff	-10.9428
otter	-10.9428
mán	-10.9431
pía	-10.9433
ther	-10.9433
▁Villa	-10.9435
▁prestixio	-10.9439
▁téxtil	-10.9441
▁Sebasti	-10.9441
▁visitou	-10.9442
▁receptor	-10.9445
▁equipamento	-10.9445
▁nazi	-10.9448
▁substituída	-10.945
▁Já	-10.9454
▁atracción	-10.9461
adas	-10.9464
▁Sabe	-10.9467
▁cama	-10.9468
tt	-10.9478
▁Independenc	-10.948
▁bóla	-10.948
▁estranxeira	-10.948
▁intelectuais	-10.948
▁lexislativo	-10.948
▁linha	-10.9481
▁radica	-10.9484
ows	-10.9486
▁Daco	-10.9491
▁xornada	-10.9493
▁graves	-10.9493
▁darlle	-10.9495
▁1880	-10.9497
▁catalá	-10.9502
enezuela	-10.9503
ío	-10.9507
▁Amai	-10.9511
▁Fran	-10.9511
▁Nil	-10.9514
▁passa	-10.9516
▁exercicio	-10.9519
▁vaso	-10.9519
▁levantamento	-10.952
▁Sch	-10.9521
▁Paso	-10.9522
▁causada	-10.9522
▁Nicola	-10.9523
▁conciencia	-10.9524
▁iniciais	-10.9525
▁oración	-10.9525
▁tesouro	-10.9527
▁Inter	-10.9528
▁satélite	-10.9535
▁ferramenta	-10.9536
▁afeccionado	-10.9539
▁diminuí	-10.9543
▁opera	-10.9544
▁estancia	-10.9549
▁Rena	-10.955
▁pr	-10.9551
▁Moore	-10.9558
▁embaixador	-10.9558
▁básicos	-10.9559
mina	-10.956
▁doença	-10.9561
▁peor	-10.9565
▁lento	-10.9566
▁Arou	-10.9579
▁gusto	-10.9588
cemento	-10.9592
▁rosa	-10.9593
▁fornece	-10.9594
▁viaxar	-10.9595
▁liberado	-10.9595
▁aceptar	-10.9595
nicialmente	-10.9596
▁devandito	-10.9596
▁graxa	-10.9596
▁tocou	-10.9596
▁Concili	-10.9596
▁Ecua	-10.9596
▁Comeza	-10.9597
▁moza	-10.9597
▁casca	-10.9604
▁afectada	-10.9608
▁Bel	-10.9616
▁palavra	-10.9619
iña	-10.9622
sota	-10.9626
▁mala	-10.9631
▁Risa	-10.9631
▁Bell	-10.9632
atedral	-10.9634
▁eficiente	-10.9635
▁teórico	-10.9635
▁rendemento	-10.9635
▁xuven	-10.9635
▁Croa	-10.9636
▁instalou	-10.9636
▁desafio	-10.9639
rais	-10.964
▁Lingua	-10.9643
▁Ferro	-10.9643
▁Foro	-10.9645
▁incorpora	-10.9647
colm	-10.9649
▁Lord	-10.9655
▁separar	-10.9657
▁gol	-10.9658
▁Darí	-10.9658
▁governo	-10.9659
úas	-10.9662
prendeu	-10.9664
▁copia	-10.9669
¿	-10.9675
▁primitiva	-10.9675
▁étnico	-10.9675
▁elite	-10.9677
▁Web	-10.9677
▁numera	-10.968
▁94	-10.9681
▁terrorista	-10.9681
▁Redond	-10.9681
lhes	-10.9685
▁rodeado	-10.9689
▁Case	-10.9689
▁83	-10.969
▁celebrado	-10.9693
riz	-10.9694
▁atrae	-10.9701
▁Carball	-10.9707
▁cincuenta	-10.9714
▁cúpula	-10.9714
▁permiso	-10.9714
▁puro	-10.9718
fica	-10.9719
▁Estou	-10.9722
▁PP	-10.9726
ima	-10.9732
▁substituí	-10.974
▁Williams	-10.9742
▁experimental	-10.9744
▁Pal	-10.9745
▁deusa	-10.9746
▁afirmación	-10.9748
curso	-10.9748
▁biolóxica	-10.9753
▁débil	-10.9753
▁pendente	-10.9753
▁contorno	-10.9753
▁imposible	-10.9754
▁Defens	-10.9754
▁Libro	-10.9755
▁salvaxe	-10.9755
FC	-10.9758
▁comprar	-10.9759
▁atoparon	-10.9762
▁cabal	-10.9766
▁Ter	-10.9767
▁Bilba	-10.9768
▁SI	-10.9778
▁nomeou	-10.9786
forte	-10.9788
▁contiña	-10.9793
▁xeometría	-10.9793
▁informática	-10.9793
▁início	-10.9794
▁síntese	-10.9794
▁afastado	-10.9801
▁sombra	-10.9805
▁acompaña	-10.9808
▁Señora	-10.9815
olinesia	-10.9822
▁Vive	-10.9822
▁amarela	-10.9824
▁Music	-10.9831
art	-10.9831
▁Sul	-10.9832
▁conjunto	-10.9833
▁iguais	-10.9833
▁lateral	-10.9833
▁mantiña	-10.9833
▁Estrada	-10.9837
erra	-10.9841
▁carto	-10.9842
▁dinámica	-10.9843
ável	-10.9847
▁Carta	-10.9858
oubo	-10.9861
▁agrupación	-10.9865
▁Ci	-10.9868
▁Quir	-10.9869
imburg	-10.9871
▁básico	-10.9871
▁Mate	-10.9872
▁arquitectónico	-10.9873
▁carballo	-10.9873
▁reloxo	-10.9873
▁capite	-10.9873
▁exame	-10.9873
▁fazê	-10.9874
ápol	-10.9876
▁desenvolvimento	-10.9876
▁manifesta	-10.9878
aíña	-10.988
▁Xusti	-10.9883
▁querem	-10.9886
▁explorar	-10.9888
▁Templ	-10.9894
▁Patt	-10.9899
ong	-10.9901
▁plantación	-10.9906
▁Pobr	-10.9907
▁cheo	-10.9913
▁Google	-10.9913
▁alcume	-10.9913
▁cráter	-10.9913
▁epidemia	-10.9913
▁asedio	-10.9916
▁cha	-10.9918
CO	-10.9918
▁Arz	-10.9928
▁EP	-10.9931
▁din	-10.9941
▁naquele	-10.9944
▁transforma	-10.9945
inha	-10.9947
▁medrar	-10.9952
▁astronom	-10.9953
▁localíza	-10.9954
▁larva	-10.9954
▁incidente	-10.9955
▁comando	-10.9955
día	-10.9956
▁mantí	-10.9958
▁responde	-10.9961
▁cume	-10.9962
▁presentado	-10.9963
▁Gó	-10.9966
▁Estamo	-10.9967
lkie	-10.9967
▁Tri	-10.9971
▁tivese	-10.9972
▁integrada	-10.9973
▁sexua	-10.9974
▁asistencia	-10.9981
up	-10.9986
posición	-10.9989
xía	-10.9991
▁illada	-10.9992
▁Mondoñedo	-10.9994
▁diálogo	-10.9994
▁universitario	-10.9994
▁Lenin	-10.9994
▁Dela	-10.9996
▁He	-10.9999
▁molecular	-11.0003
▁destacada	-11.0006
quilo	-11.0006
▁Sanch	-11.0006
▁inspirado	-11.0015
▁Montes	-11.0016
▁contamina	-11.0021
my	-11.0022
▁Saturn	-11.0024
▁350	-11.0026
▁modernas	-11.0032
▁Índic	-11.0035
▁Colón	-11.0035
▁desastre	-11.0035
▁Palma	-11.0036
▁salvo	-11.0036
▁Mag	-11.0037
▁lixeiro	-11.0039
▁conselleiro	-11.004
▁expuls	-11.0043
▁quedaba	-11.0044
festival	-11.0049
▁rapaz	-11.0065
▁Fri	-11.0073
▁finalidade	-11.0074
▁diplomático	-11.0075
▁xeográfico	-11.0075
▁abarca	-11.0076
▁Ángel	-11.0077
▁interpreta	-11.0081
▁We	-11.0082
ral	-11.0083
ónica	-11.0087
▁Jack	-11.0087
▁cuántic	-11.0088
▁rotación	-11.0089
▁serbio	-11.0091
▁cria	-11.0091
▁canal	-11.0097
▁clientes	-11.0098
ros	-11.0099
▁autoestrada	-11.0103
▁capturado	-11.0108
▁900	-11.011
can	-11.0114
▁Samo	-11.0115
▁metálico	-11.0116
▁sílaba	-11.0116
▁mocidade	-11.0116
▁gráfica	-11.0116
▁descobrir	-11.0117
▁Parte	-11.0117
▁mudanza	-11.0117
▁Bernard	-11.0117
▁enfrontar	-11.0123
▁estima	-11.0123
▁vela	-11.0124
▁cedo	-11.0132
▁121	-11.0134
▁alimentar	-11.0136
rro	-11.0141
▁fun	-11.0141
▁parecen	-11.0143
ablo	-11.0155
úpiter	-11.0157
▁Británico	-11.0157
▁consistía	-11.0157
▁realizan	-11.0158
osfera	-11.0158
▁groso	-11.0158
fauna	-11.0158
▁adquirir	-11.0159
▁feminista	-11.016
▁sobrevivir	-11.0163
▁romance	-11.0165
▁colectiva	-11.0169
▁Gro	-11.017
▁clasificado	-11.0174
▁subir	-11.0183
▁sequer	-11.0185
▁fotos	-11.019
izada	-11.0193
▁emisora	-11.0195
▁br	-11.0199
▁descoñecido	-11.0199
▁tormenta	-11.0199
▁térmica	-11.0199
▁constituída	-11.0199
▁ficheiro	-11.0199
▁facultade	-11.0199
▁empresario	-11.0202
▁Love	-11.0203
crist	-11.0204
▁Colexio	-11.0206
▁casamento	-11.0206
▁contan	-11.0207
▁exploración	-11.0208
▁falla	-11.0215
lona	-11.0215
▁tentativa	-11.0218
pón	-11.0218
▁Sof	-11.0219
▁Alba	-11.022
▁xurdir	-11.0224
▁africanos	-11.0228
▁mito	-11.0231
▁agr	-11.0232
▁Preto	-11.0235
har	-11.0237
▁Massachus	-11.024
▁cárcere	-11.024
▁lexislación	-11.024
▁obrigou	-11.024
▁pantalla	-11.024
▁xermánica	-11.024
▁comité	-11.024
▁Jordan	-11.0241
im	-11.0242
▁especializada	-11.0243
▁CA	-11.0245
▁Garda	-11.0248
▁amante	-11.0249
▁nativa	-11.0259
mez	-11.0265
▁Bri	-11.0266
▁criterios	-11.0268
▁Tor	-11.0269
▁apoia	-11.0271
▁nucleares	-11.0271
▁fa	-11.0279
▁rodea	-11.0282
▁Stalin	-11.0282
▁intenso	-11.0283
▁ocupan	-11.0284
▁TED	-11.0284
▁casado	-11.0285
▁alas	-11.0286
▁relativo	-11.0287
▁etnia	-11.0288
lice	-11.0291
▁evita	-11.0291
▁coincidi	-11.0291
▁Volta	-11.0293
▁condena	-11.0296
ónimo	-11.0303
ubi	-11.0304
▁financeiro	-11.0306
izado	-11.0309
▁cego	-11.0318
▁colegas	-11.0318
ruguai	-11.0324
▁Antártida	-11.0324
▁cinematográfica	-11.0324
▁instalar	-11.0324
▁Royal	-11.0325
▁elixida	-11.0325
▁casco	-11.0325
▁vigor	-11.0326
▁invadi	-11.0328
▁dici	-11.033
eu	-11.0333
▁dependen	-11.0333
▁Ser	-11.0341
▁sabia	-11.0343
▁orgánica	-11.0344
▁comedia	-11.0346
▁referend	-11.0361
▁tropicais	-11.0363
cepción	-11.0364
▁descoñecida	-11.0366
cadencia	-11.0366
▁Modern	-11.0366
▁arroz	-11.0366
▁pacto	-11.0367
▁ligada	-11.0368
▁mantendo	-11.0369
▁interiores	-11.0371
▁avanzada	-11.0372
▁vira	-11.0373
▁designa	-11.0373
▁mestra	-11.038
▁Rosal	-11.0381
▁Europeo	-11.0384
▁Deputado	-11.0387
▁combater	-11.039
▁falaba	-11.0397
ternet	-11.0398
▁top	-11.0401
▁efeito	-11.0406
▁Sala	-11.0406
▁esquerdo	-11.0408
▁Luxemburg	-11.0408
▁Basil	-11.0409
ovo	-11.0409
▁semellanza	-11.0409
▁incorporou	-11.0411
▁mandou	-11.0415
▁Roch	-11.0416
▁Let	-11.0422
▁haver	-11.0429
ticamente	-11.0429
▁colaborar	-11.0431
one	-11.0431
▁negras	-11.0433
▁Rod	-11.0433
atura	-11.0436
▁compon	-11.0439
▁manteñ	-11.0441
raft	-11.0443
▁inaugura	-11.0444
▁habita	-11.0444
qu	-11.0448
▁Departamento	-11.045
▁Filosof	-11.045
▁peregrino	-11.045
▁intervalo	-11.045
▁pensei	-11.045
▁Adoita	-11.0451
▁representaba	-11.0453
▁inspiración	-11.0454
attle	-11.0454
▁concesión	-11.0455
▁bico	-11.0455
▁rapa	-11.0456
▁denuncia	-11.0459
▁estudoso	-11.0461
▁Bor	-11.0463
ária	-11.0469
hi	-11.0472
▁conquistar	-11.0473
▁serven	-11.0479
▁Brown	-11.0493
▁incluíu	-11.0493
▁sometido	-11.0493
▁Guadal	-11.0494
▁estreou	-11.0494
▁começou	-11.0501
▁realista	-11.0507
inho	-11.0508
▁Poder	-11.0513
▁electo	-11.0521
▁corent	-11.0523
▁xuíz	-11.0526
▁Home	-11.0532
▁Scho	-11.0532
▁reputa	-11.0533
▁átomo	-11.0533
▁Aristóteles	-11.0536
▁atentado	-11.0536
▁austríaco	-11.0536
▁primitivo	-11.0536
▁axentes	-11.0542
clive	-11.0543
cro	-11.0546
▁Tradicional	-11.0554
vy	-11.056
▁Latin	-11.0564
▁altar	-11.0565
ov	-11.0573
▁coral	-11.0574
▁orzamento	-11.0579
▁tamanho	-11.0579
▁relação	-11.0579
▁aventuras	-11.0579
▁Movement	-11.0579
▁cabeça	-11.0579
▁franquista	-11.0579
▁abella	-11.058
▁criado	-11.0583
▁completar	-11.0587
▁tirada	-11.0591
▁Natural	-11.0593
landi	-11.0597
▁conseguem	-11.0601
▁elixir	-11.0605
▁xerar	-11.0608
▁pole	-11.0608
▁axente	-11.0613
▁Bal	-11.0616
▁olhos	-11.0616
ecia	-11.0618
▁Aeroporto	-11.0622
▁obreira	-11.0622
▁fála	-11.0622
▁dizem	-11.0622
▁abuso	-11.0622
▁Salaman	-11.0623
▁próprio	-11.0623
▁soño	-11.0634
▁sitúan	-11.0637
▁aceptada	-11.0638
quera	-11.0648
▁possa	-11.0652
made	-11.0653
ofre	-11.0654
ber	-11.0657
▁tomando	-11.0664
▁DVD	-11.0665
▁etiqueta	-11.0665
▁tínhamo	-11.0665
▁modalidade	-11.0665
▁censura	-11.0665
▁espiritual	-11.0666
▁recollida	-11.0666
▁Vega	-11.0667
▁importa	-11.067
▁correspondencia	-11.067
▁taxas	-11.0675
▁feliz	-11.0677
viera	-11.068
▁serio	-11.068
▁islam	-11.0682
▁Obrigad	-11.0683
▁firma	-11.0688
▁ética	-11.0693
woo	-11.0695
▁menciona	-11.0698
▁dele	-11.0699
▁Ex	-11.0703
▁além	-11.0705
▁explosión	-11.0708
▁tripulación	-11.0708
▁Cook	-11.0709
▁desprazamento	-11.071
▁dise	-11.0711
▁presénta	-11.0712
▁Tralo	-11.0714
▁irá	-11.0714
▁acolle	-11.0716
▁aproveitar	-11.0723
▁Rai	-11.0723
▁semella	-11.0725
▁Estiv	-11.0725
▁voltar	-11.0725
▁impedir	-11.0725
▁alteración	-11.0726
▁realizadas	-11.0729
▁Live	-11.0733
▁ocorrer	-11.0741
▁substituíu	-11.075
▁bombardeo	-11.0752
▁movimento	-11.0752
▁paquete	-11.0752
▁responsábe	-11.0752
▁precursor	-11.0752
▁Igual	-11.0752
▁australiano	-11.0752
▁ducado	-11.0752
▁lesión	-11.0753
▁orixinario	-11.0754
▁Souto	-11.0755
▁Ab	-11.0756
▁restrición	-11.0756
▁asisti	-11.0756
▁Nar	-11.0764
▁List	-11.0773
▁Alban	-11.0792
pesar	-11.0792
▁doutoramento	-11.0797
▁parlamentaria	-11.0798
▁galería	-11.0798
▁describiu	-11.0804
▁domina	-11.0806
▁minuto	-11.081
▁abade	-11.0815
▁Caso	-11.0819
▁Isa	-11.0821
▁introducir	-11.0823
empre	-11.0823
rama	-11.0825
▁esencia	-11.0825
teve	-11.0827
▁respondeu	-11.083
▁Teodor	-11.083
ificación	-11.0831
▁sinala	-11.0839
▁Edward	-11.084
▁alcohol	-11.084
▁exipcia	-11.084
▁hebreo	-11.084
▁cloruro	-11.084
▁fizemos	-11.0841
illa	-11.0841
▁sensación	-11.0841
▁Braga	-11.0841
▁Bulga	-11.0842
▁Festa	-11.0844
▁trasladado	-11.0846
▁Alfons	-11.0847
ko	-11.0852
▁vítima	-11.0857
▁cruza	-11.086
▁liñaxe	-11.0866
▁tráta	-11.0869
▁adopta	-11.0879
▁Toqu	-11.0881
▁inaugurou	-11.0884
▁escravitude	-11.0884
▁cantiga	-11.0884
▁Distrito	-11.0885
▁Stan	-11.0887
grado	-11.0889
▁Libre	-11.089
▁solares	-11.09
▁Honda	-11.0905
▁reside	-11.0907
esta	-11.091
nha	-11.0914
vose	-11.0918
vel	-11.0919
▁Tudo	-11.0927
▁Bi	-11.0927
▁procesa	-11.0928
▁estrita	-11.0929
▁fluído	-11.0929
▁ilegal	-11.0929
▁testemuño	-11.0929
▁semifina	-11.0929
▁profesión	-11.0929
▁Carr	-11.0929
▁Moi	-11.0929
▁conhecimento	-11.093
▁competir	-11.0933
▁animación	-11.0935
▁isótopo	-11.0936
▁fol	-11.0937
zi	-11.0943
mit	-11.0944
▁imposto	-11.0952
▁Boy	-11.0953
bro	-11.0953
▁Piñeiro	-11.0954
▁American	-11.0954
▁anda	-11.0955
▁Món	-11.0962
▁Abu	-11.0963
▁cruzar	-11.0964
▁im	-11.0965
▁testa	-11.0967
▁promover	-11.0968
▁Jorge	-11.0973
▁molusco	-11.0973
▁ligazón	-11.0973
▁cómpre	-11.0974
▁publicidade	-11.0974
eiga	-11.0975
▁Tenho	-11.0977
▁masculina	-11.098
▁Gil	-11.0984
▁levando	-11.099
▁futbolista	-11.0992
llón	-11.0993
▁primo	-11.1001
▁Feli	-11.1007
por	-11.1012
doro	-11.1013
ador	-11.1015
▁rua	-11.1017
able	-11.1018
▁experto	-11.1018
▁protocolo	-11.1018
▁tabaco	-11.1018
▁invención	-11.1018
▁destacou	-11.1018
▁felicidade	-11.1019
▁VIH	-11.1019
▁Super	-11.1019
▁perdido	-11.1023
▁mono	-11.1029
▁127	-11.1032
▁apoiado	-11.1035
▁dáse	-11.1036
▁conecta	-11.1038
▁Bolo	-11.1042
▁citado	-11.1046
▁j	-11.1047
▁procurar	-11.1047
▁cantar	-11.1047
▁usaba	-11.1049
▁desemboca	-11.1053
▁complexas	-11.1059
▁Mos	-11.1059
rei	-11.1062
▁Recibi	-11.1063
▁bicicleta	-11.1063
▁mediterráneo	-11.1063
▁mármore	-11.1063
▁Mestre	-11.1064
▁segurança	-11.1064
▁paralela	-11.1065
▁cadrada	-11.1067
ríamos	-11.1069
▁renuncia	-11.107
▁Nú	-11.107
▁fluvia	-11.1079
abria	-11.1079
▁Liber	-11.1079
▁altera	-11.1084
▁dentes	-11.1085
rum	-11.1087
lfo	-11.1103
ntu	-11.1104
operación	-11.1105
▁ad	-11.1106
▁Iraq	-11.1108
ke	-11.1109
▁santuario	-11.1109
▁belga	-11.1109
▁defíne	-11.1109
▁anti	-11.1109
▁cordilleira	-11.1109
▁Social	-11.1114
▁Long	-11.1114
▁anaco	-11.1114
▁enfrontou	-11.1117
▁115	-11.112
ite	-11.1121
▁Camp	-11.1121
▁cunca	-11.1121
▁nazis	-11.1123
▁matemáticos	-11.1132
▁ideias	-11.1132
▁resultante	-11.1134
▁Blanco	-11.1134
▁rexistrado	-11.1135
▁afectado	-11.1137
tina	-11.1138
▁Vida	-11.114
▁india	-11.1144
▁fragmentos	-11.1144
▁Persi	-11.1151
▁fértil	-11.1154
▁edificación	-11.1154
▁inmediato	-11.1155
▁132	-11.1157
▁Orle	-11.1158
▁extremos	-11.1161
▁participan	-11.1164
▁perigoso	-11.1165
▁pá	-11.1174
▁relevan	-11.1174
lena	-11.1175
lgunha	-11.1175
▁Televisió	-11.1179
▁Be	-11.1179
▁Rey	-11.1179
▁ofrecer	-11.118
▁calci	-11.1181
▁Teodo	-11.1184
ger	-11.119
▁raio	-11.1195
▁foille	-11.1199
▁Connect	-11.12
▁Pireneo	-11.12
▁fantástico	-11.12
▁húmida	-11.12
▁tronco	-11.12
▁democrático	-11.12
▁comigo	-11.12
▁protexida	-11.12
▁Roger	-11.12
▁ju	-11.1201
▁fungo	-11.1201
▁Big	-11.1201
▁foco	-11.1207
dy	-11.1207
▁usual	-11.1208
▁Grand	-11.1215
▁definitivo	-11.1219
▁comisión	-11.1219
▁transmitir	-11.122
▁controlada	-11.1224
▁perdas	-11.1224
▁penetra	-11.124
▁pontes	-11.1242
▁marchar	-11.1243
▁Considéra	-11.1246
▁filosófica	-11.1246
▁restaurante	-11.1246
▁comunicar	-11.1246
▁corresponden	-11.1247
▁Penso	-11.125
▁Adolf	-11.125
▁Queens	-11.1252
▁Fix	-11.1253
▁bit	-11.1255
▁Colonia	-11.1261
▁pasaxe	-11.1262
▁calcular	-11.1266
▁empregou	-11.1269
▁nena	-11.1273
▁Español	-11.1275
▁musulmá	-11.1282
▁cortes	-11.1284
▁estatística	-11.1288
ancia	-11.1291
▁Gallego	-11.1292
▁System	-11.1292
▁escaleira	-11.1292
▁intérprete	-11.1292
▁vestixio	-11.1292
▁jovens	-11.1292
▁trastorno	-11.1292
▁Goya	-11.1292
▁visão	-11.1292
▁saga	-11.1293
▁drama	-11.1294
SO	-11.1294
mbra	-11.1297
▁126	-11.1304
▁deve	-11.1306
mir	-11.1307
▁medición	-11.1309
▁acha	-11.1312
▁faría	-11.1319
▁Emili	-11.1319
▁renova	-11.1324
▁Leon	-11.1329
▁tivera	-11.1331
▁dicía	-11.1334
tomán	-11.1336
nho	-11.1338
▁espectacular	-11.1338
▁innovación	-11.1338
▁caudal	-11.1338
▁aliaxe	-11.1338
▁Xeneral	-11.1338
▁festiva	-11.1338
▁potente	-11.1338
▁Babil	-11.1339
▁favorable	-11.1339
icut	-11.1339
▁neurona	-11.1346
▁Mac	-11.1348
íamos	-11.1349
▁podendo	-11.135
▁Tol	-11.1351
▁Anders	-11.1353
▁acusación	-11.1353
▁Bra	-11.1355
▁chegaba	-11.1355
▁estimación	-11.1358
▁Cald	-11.136
▁conversión	-11.1361
▁atopada	-11.1362
▁narra	-11.1367
▁apoiou	-11.1371
▁Irá	-11.1374
anto	-11.1375
▁compoñen	-11.1377
▁Ce	-11.1378
▁Ok	-11.1383
▁Cartag	-11.1384
▁fonema	-11.1384
▁predecesor	-11.1384
▁xenético	-11.1384
▁Oxford	-11.1384
▁colleita	-11.1385
▁micro	-11.1388
▁moderado	-11.139
▁conforman	-11.1393
avia	-11.1394
▁Fai	-11.1404
▁asegura	-11.1404
▁compreender	-11.1404
mais	-11.1406
▁Negra	-11.1407
▁abandonado	-11.1409
▁compux	-11.1415
finada	-11.1415
liberación	-11.1417
▁forno	-11.1419
▁sentimentos	-11.1419
▁PC	-11.142
▁dirixe	-11.1424
▁tirar	-11.143
▁ateniense	-11.1431
▁brasileira	-11.1431
▁eclesiástica	-11.1431
▁montañoso	-11.1431
▁obstáculo	-11.1431
▁pesquisa	-11.1431
▁proveniente	-11.1431
▁sinónimo	-11.1431
▁telescopio	-11.1431
▁castaña	-11.1432
▁CO	-11.1432
▁peito	-11.1433
▁Ly	-11.1434
▁recoñeceu	-11.1434
▁você	-11.1438
▁bio	-11.1443
▁Plat	-11.1444
stancia	-11.1444
▁enormes	-11.1444
▁123	-11.1445
cionais	-11.1445
▁pintores	-11.1452
▁absor	-11.1455
▁danza	-11.1457
▁128	-11.1459
▁subi	-11.1462
ruto	-11.1462
oven	-11.1462
▁tenente	-11.1472
▁interpretar	-11.1473
▁taller	-11.1478
▁diploma	-11.1478
▁módulo	-11.1478
▁ruptura	-11.1478
▁Holand	-11.1479
▁Chan	-11.148
▁Cinc	-11.1481
▁124	-11.1481
▁teste	-11.1481
▁mortalidade	-11.1481
▁quixo	-11.1483
▁racional	-11.1484
olo	-11.1485
▁paciente	-11.1488
remos	-11.1497
▁Cun	-11.1498
lasca	-11.1501
port	-11.1502
▁illado	-11.1507
000	-11.1509
▁Green	-11.1511
▁xuí	-11.1513
▁ví	-11.1516
▁Será	-11.1519
▁FI	-11.1521
▁Men	-11.1525
▁lírica	-11.1525
▁tributo	-11.1525
rrupción	-11.1525
▁oitenta	-11.1525
▁regato	-11.1526
censión	-11.1526
▁oitavo	-11.1526
▁sí	-11.1526
▁população	-11.1526
▁privadas	-11.1529
igan	-11.153
▁cometa	-11.1532
adores	-11.1533
▁cereais	-11.1534
▁Pobo	-11.1535
▁determinadas	-11.1537
▁adulto	-11.1538
▁partícula	-11.1539
▁esqueleto	-11.1541
▁verdes	-11.156
▁acento	-11.1561
▁roman	-11.1563
▁húngaro	-11.1565
col	-11.1568
loxía	-11.1569
▁desenvólve	-11.1573
▁Microsoft	-11.1573
▁buraco	-11.1573
▁climático	-11.1573
▁fotografia	-11.1573
▁voluntario	-11.1573
▁Situad	-11.1573
▁transferencia	-11.1573
▁ru	-11.1574
▁Berga	-11.1577
thur	-11.1579
cção	-11.1582
▁mencionada	-11.1584
▁observador	-11.1585
▁pensamos	-11.1588
▁105	-11.159
▁Pico	-11.1597
▁imaginar	-11.1597
úl	-11.1598
▁burgues	-11.1599
ington	-11.1604
▁especificamente	-11.1604
▁setent	-11.1605
▁ofensiva	-11.1607
▁óxido	-11.1611
▁chumbo	-11.162
▁desaparecido	-11.162
▁esquema	-11.162
▁recibía	-11.162
▁Militar	-11.1621
ieito	-11.1623
▁Católico	-11.1623
▁salva	-11.1624
▁Ge	-11.1627
▁lunar	-11.1629
▁medi	-11.1631
▁granxa	-11.1633
▁saí	-11.1635
torce	-11.1638
▁passo	-11.1638
▁cant	-11.1646
fil	-11.1646
▁Esparta	-11.1652
▁nega	-11.1656
▁Ka	-11.1664
▁descende	-11.1668
▁Gallega	-11.1668
▁Municipal	-11.1668
▁biolóxico	-11.1668
▁célebre	-11.1668
▁mediterránea	-11.1668
▁prosperidade	-11.1668
▁turística	-11.1668
▁Ernest	-11.1668
▁Wall	-11.1668
▁gravados	-11.1669
▁barra	-11.1669
▁ta	-11.1671
▁medro	-11.1673
▁linea	-11.1675
▁recta	-11.1676
▁Enrique	-11.1676
▁irregular	-11.1679
▁emoción	-11.1684
▁cliente	-11.169
▁Joe	-11.1699
▁mira	-11.1705
bese	-11.1706
▁dominado	-11.1711
▁Fro	-11.1716
▁remónta	-11.1716
▁destinada	-11.1716
▁vertente	-11.1716
▁permitindo	-11.172
▁teclado	-11.1721
▁principado	-11.1725
▁adop	-11.1728
▁explorador	-11.1733
▁absorbe	-11.1739
ares	-11.1741
▁amosan	-11.1742
▁Ribeira	-11.1743
▁conter	-11.1744
▁Fort	-11.1747
rtico	-11.1755
▁carece	-11.1756
stre	-11.1756
▁mercados	-11.1756
▁Steve	-11.1761
▁convertería	-11.1761
ylan	-11.1762
fluencia	-11.1763
▁marxista	-11.1764
▁clínica	-11.1765
▁confiança	-11.1765
▁dividiu	-11.1765
▁Brux	-11.1765
▁troux	-11.1766
▁exceso	-11.1767
▁selva	-11.1767
▁Joan	-11.1767
▁Trin	-11.1774
▁solu	-11.1775
▁confirmou	-11.1775
▁prosa	-11.1776
▁Rico	-11.1776
▁horizontal	-11.1776
▁comprender	-11.1778
▁Pear	-11.178
▁Alexand	-11.1783
nar	-11.1789
▁científicas	-11.179
▁aceptado	-11.1796
▁Mike	-11.1802
▁bombardeiro	-11.1813
▁estratéxica	-11.1813
▁indústria	-11.1813
▁pescozo	-11.1813
▁triángulo	-11.1813
▁descobre	-11.1813
▁Gustav	-11.1813
▁abertura	-11.1813
▁segmento	-11.1813
▁reuniu	-11.1813
▁Pascua	-11.1814
▁distante	-11.1817
▁fundo	-11.1817
tismo	-11.182
▁Vari	-11.1821
▁Medicin	-11.183
▁trataba	-11.183
tivos	-11.1838
▁financeira	-11.1843
▁estivera	-11.1855
▁Xer	-11.1856
▁ensina	-11.1857
▁traballan	-11.1861
▁adulta	-11.1862
▁descarga	-11.1862
ntiño	-11.1862
▁desempreg	-11.1862
▁conservador	-11.1863
▁especializado	-11.1865
▁rexente	-11.1867
▁acelera	-11.187
ganist	-11.1872
▁Ju	-11.1876
▁denominar	-11.1877
▁expresar	-11.1877
ntario	-11.1878
venta	-11.1879
▁adaptado	-11.1893
▁operador	-11.1894
▁serem	-11.1894
▁mol	-11.1896
▁púxo	-11.1896
evento	-11.1897
▁ordenado	-11.1897
▁declarar	-11.1897
▁conquistada	-11.1899
awa	-11.1901
▁derrot	-11.1903
▁recorda	-11.1904
▁Dom	-11.1908
ância	-11.1911
▁sucesso	-11.1911
▁libra	-11.1912
▁situação	-11.1912
▁carlista	-11.1912
▁Kong	-11.1912
▁debida	-11.1913
▁Pre	-11.1914
▁Airb	-11.1914
adura	-11.1917
idez	-11.1919
▁aproximación	-11.1922
uso	-11.1925
▁Master	-11.1929
▁Xera	-11.1931
▁move	-11.1932
▁consideración	-11.1933
▁virtual	-11.1934
▁Han	-11.1934
▁possam	-11.1937
▁Contra	-11.1937
uke	-11.1939
▁Xustin	-11.194
▁aboli	-11.1946
cido	-11.1948
pera	-11.1949
▁desas	-11.1956
estamento	-11.1958
tróxeno	-11.196
▁bizantina	-11.196
▁embarcación	-11.196
▁tartaruga	-11.196
▁atenção	-11.196
▁delegado	-11.196
▁partilhar	-11.1961
▁Cabe	-11.1961
▁piñeiro	-11.1962
▁Lim	-11.1963
▁bos	-11.1966
▁State	-11.1967
▁actua	-11.1971
▁engadido	-11.1971
viación	-11.1973
▁demostración	-11.1973
▁peto	-11.1974
▁Bat	-11.1982
▁mares	-11.1983
▁aprobada	-11.1986
▁Ros	-11.1987
▁prepara	-11.1995
▁Mario	-11.2003
ização	-11.2003
▁doazón	-11.201
▁longe	-11.201
▁renacentista	-11.201
▁violência	-11.201
▁Fried	-11.201
▁lembrar	-11.2011
▁Báltic	-11.2011
▁favorito	-11.2012
▁coroado	-11.2013
▁identificado	-11.2015
▁oficio	-11.2016
▁Sacr	-11.2018
▁utilizaba	-11.2022
verde	-11.203
▁Barba	-11.2032
ent	-11.2034
▁Dado	-11.2037
▁parecía	-11.2038
món	-11.2044
▁emigrante	-11.2046
▁Iglesia	-11.2059
▁asteroide	-11.2059
▁bolxevique	-11.2059
▁vulgar	-11.2059
▁invasor	-11.2059
▁enfoque	-11.2059
▁anatom	-11.2059
▁relata	-11.206
▁mesquita	-11.206
▁Adam	-11.2061
▁Paquist	-11.2064
à	-11.2067
▁póla	-11.2068
▁transcorre	-11.2072
▁Hom	-11.2073
▁correcta	-11.2076
▁chegaría	-11.2077
▁parentes	-11.2077
▁tenha	-11.208
ónico	-11.2083
▁Helen	-11.2084
▁Jones	-11.2084
▁variado	-11.2084
▁escrever	-11.2084
▁satélites	-11.2087
▁Chama	-11.209
▁controla	-11.2091
idad	-11.2095
▁físicas	-11.2099
▁Bea	-11.2103
▁relaciona	-11.2104
▁culpa	-11.2109
▁Irmandade	-11.2109
▁arxentina	-11.2109
▁comprensión	-11.2109
▁confundir	-11.2109
▁sítio	-11.2109
▁gabinete	-11.211
▁protón	-11.2111
▁Rin	-11.2112
eeth	-11.2113
hire	-11.212
▁inmigra	-11.212
▁xacemento	-11.2121
▁adora	-11.2138
▁disciplinas	-11.2144
▁bota	-11.2144
▁gobernar	-11.2147
nada	-11.2148
▁EE	-11.2158
▁Administración	-11.216
▁califa	-11.216
▁exitosa	-11.216
▁hormona	-11.216
▁islámica	-11.216
▁vocabul	-11.216
▁Cambridge	-11.216
▁mexicano	-11.216
▁consenso	-11.216
▁paradoxo	-11.216
quel	-11.216
▁ovella	-11.216
▁fío	-11.216
▁previsto	-11.2161
▁crescimento	-11.2161
▁teito	-11.2163
▁beneficio	-11.2165
▁obtiver	-11.2167
▁Fé	-11.2173
ética	-11.2174
fase	-11.2176
▁Arabi	-11.2183
▁contribúe	-11.2185
▁extrac	-11.2185
▁planifica	-11.2186
▁Kos	-11.2192
parte	-11.2208
▁cumpre	-11.221
▁degrada	-11.221
▁hindú	-11.221
▁melodía	-11.221
▁paradigma	-11.221
▁tarxeta	-11.221
▁orbita	-11.221
▁single	-11.221
▁mámoa	-11.221
▁comentario	-11.2211
▁Lee	-11.2211
▁morta	-11.2215
▁escocesa	-11.2216
▁Victoria	-11.2216
▁Tro	-11.2228
▁doado	-11.2232
▁prol	-11.2241
▁Naquel	-11.2242
▁Ovi	-11.2243
▁tratou	-11.2247
▁controlado	-11.2252
▁conforma	-11.2252
▁culmina	-11.2255
▁cuarte	-11.2257
▁variar	-11.2257
▁autonómica	-11.2258
▁asistente	-11.2261
▁auxiliar	-11.2261
▁cadáver	-11.2261
▁revolucionaria	-11.2261
▁transcrición	-11.2261
▁prohibición	-11.2261
▁xurídico	-11.2261
▁137	-11.2261
▁kaska	-11.2261
▁biografía	-11.2262
▁tsar	-11.2263
▁Xefe	-11.2263
▁pasaría	-11.2264
▁via	-11.2264
▁Tit	-11.2265
▁pataca	-11.2267
▁resultar	-11.2269
▁votación	-11.2273
▁vasalo	-11.2278
▁obrigada	-11.228
uses	-11.2282
▁combinado	-11.2288
▁evoluciona	-11.2288
▁derrotar	-11.2289
izou	-11.2289
▁plana	-11.2301
pé	-11.2304
▁sobrevivi	-11.2305
▁Land	-11.231
▁autónomo	-11.2312
▁educação	-11.2312
▁prototipo	-11.2312
▁submarino	-11.2312
▁vicepresidente	-11.2314
▁galeguista	-11.2314
▁falsa	-11.2318
▁eventual	-11.232
▁142	-11.2322
▁perto	-11.2325
▁pastor	-11.2327
▁asumir	-11.2328
▁determina	-11.2334
▁teu	-11.2336
▁causado	-11.2337
▁medicamentos	-11.2338
▁Artur	-11.234
dal	-11.2346
ib	-11.235
pta	-11.2352
mbledo	-11.2356
▁almacena	-11.2357
▁ermida	-11.2358
▁nacido	-11.2363
▁diplomática	-11.2363
▁freguesía	-11.2363
▁orgánico	-11.2363
▁quantidade	-11.2363
▁insular	-11.2363
▁mantiver	-11.2363
▁nisto	-11.2364
▁Holly	-11.2364
lio	-11.2365
▁Javi	-11.2365
▁baseándo	-11.2367
▁mostras	-11.2374
▁Law	-11.2374
▁barreira	-11.2376
▁bebé	-11.2377
▁asistir	-11.2378
▁africano	-11.2378
▁orientada	-11.238
▁abandono	-11.238
▁Marcel	-11.239
▁floresta	-11.2393
▁admira	-11.2394
▁argumenta	-11.2395
canda	-11.2397
amia	-11.2397
▁ofreceu	-11.2403
▁construídas	-11.2404
▁Histor	-11.2404
ova	-11.2405
▁aco	-11.2406
▁abertas	-11.2411
▁Autónoma	-11.2415
▁Street	-11.2415
▁constelación	-11.2415
▁fiestra	-11.2415
▁sufraxio	-11.2415
▁convención	-11.2415
▁holandes	-11.2417
▁Borbón	-11.2417
▁proporcional	-11.242
grafía	-11.2422
▁vence	-11.2423
▁fallo	-11.2424
U	-11.2424
▁Roo	-11.2428
▁oceano	-11.2428
▁concluí	-11.2429
▁aplicada	-11.243
▁afirmar	-11.2431
▁estender	-11.2435
▁funcional	-11.2436
▁asento	-11.244
▁marcia	-11.244
▁codifica	-11.2445
▁homónim	-11.2449
▁fiei	-11.245
▁junta	-11.2452
▁cantón	-11.2456
,6	-11.2457
▁Za	-11.2463
ficiencia	-11.2466
▁Exe	-11.2466
▁chuvia	-11.2467
▁sorpresa	-11.2467
▁patio	-11.2467
▁interface	-11.2467
pol	-11.2467
▁suevo	-11.2467
▁sentenza	-11.2467
▁fiscal	-11.2467
▁percepción	-11.2467
▁Alxer	-11.2469
▁Interior	-11.2472
▁incrível	-11.2474
▁divide	-11.2474
▁107	-11.2475
▁protexe	-11.2476
maior	-11.2478
▁Jacque	-11.2479
▁Porta	-11.2484
▁122	-11.2484
▁confirma	-11.2486
▁habitación	-11.2488
▁facilita	-11.2493
NU	-11.2493
▁450	-11.2503
posto	-11.2506
▁Pol	-11.2513
▁axencia	-11.2514
▁secreta	-11.2516
▁anuncio	-11.2516
▁produtora	-11.2518
▁armenio	-11.2519
▁exiliado	-11.2519
▁transformou	-11.2519
▁tuberculose	-11.2519
▁Chegou	-11.2519
▁nessa	-11.2519
▁perguntar	-11.2519
▁cátedra	-11.2519
▁série	-11.2519
50	-11.252
▁dicionario	-11.252
▁aragon	-11.252
▁ampliación	-11.2527
▁Clement	-11.2528
▁Mellor	-11.2531
▁Pí	-11.2536
▁129	-11.2536
▁perigosa	-11.2541
▁plástico	-11.2542
▁dominar	-11.2547
ct	-11.2549
▁Ron	-11.2552
ã	-11.2554
dando	-11.2555
ronel	-11.2564
▁1800	-11.2565
▁multi	-11.2569
▁coordina	-11.257
▁Biblioteca	-11.2571
▁laboratório	-11.2571
▁táctica	-11.2571
▁xurídica	-11.2571
▁Amazon	-11.2571
▁plural	-11.2571
▁Apple	-11.2571
▁Escribiu	-11.2571
▁economic	-11.2571
▁diagnóstico	-11.2571
▁vixente	-11.2571
▁largo	-11.2572
▁continentes	-11.2572
▁gaita	-11.2572
▁Estev	-11.2573
▁cuncha	-11.2579
▁uní	-11.2579
▁asinado	-11.2584
minación	-11.2585
▁trec	-11.2585
oku	-11.2588
▁adicional	-11.2588
▁Montre	-11.2589
▁habitado	-11.259
▁134	-11.259
▁metaboli	-11.2595
▁preferi	-11.2601
▁Mer	-11.2604
CD	-11.2604
▁tenden	-11.2605
có	-11.2609
▁Pen	-11.261
▁pele	-11.2612
▁disparo	-11.2614
▁Esp	-11.2616
▁evolutiva	-11.2624
▁laranxa	-11.2624
▁Noutra	-11.2624
▁nutriente	-11.2624
▁lámina	-11.2624
▁escolle	-11.2627
▁preocupa	-11.2629
▁perdida	-11.263
▁cable	-11.263
▁w	-11.2634
▁design	-11.2635
▁gramo	-11.2638
▁emocional	-11.2638
▁avanzado	-11.2641
▁intre	-11.2643
▁colaboradores	-11.2648
▁checo	-11.265
▁trasladar	-11.2651
▁prisioneiro	-11.2656
oje	-11.2656
▁pensaba	-11.266
rase	-11.2664
▁xamai	-11.2666
▁Rio	-11.2666
▁sabía	-11.267
▁redac	-11.2671
▁Fonte	-11.2673
▁suicid	-11.2676
▁ruído	-11.2677
▁óptica	-11.2677
▁Recente	-11.2677
▁emitir	-11.2677
▁nómade	-11.2677
▁sagrado	-11.2677
▁dramática	-11.2677
▁xenoma	-11.2678
▁legado	-11.2678
▁reforzo	-11.2682
▁escolha	-11.2682
▁vaga	-11.2682
▁pesada	-11.2683
▁parada	-11.2684
▁cabelo	-11.2684
▁gaélico	-11.2684
▁143	-11.2685
▁Canal	-11.2688
▁ordena	-11.269
▁influenciado	-11.2694
▁rota	-11.2695
acto	-11.2699
▁Petersburg	-11.2706
▁leito	-11.2706
▁oscila	-11.2712
▁muscular	-11.2714
▁sexta	-11.2714
▁daba	-11.2718
rey	-11.2719
▁cruzado	-11.2719
▁Lorenz	-11.2724
▁salas	-11.2727
▁paseo	-11.2728
▁Harvard	-11.273
▁arciprestado	-11.273
▁guionista	-11.273
▁pseudónimo	-11.273
▁xermánico	-11.273
▁Ámsterda	-11.273
▁paixón	-11.273
▁Mauric	-11.2731
▁instancia	-11.2732
▁Eti	-11.2735
▁ducia	-11.2738
▁milleiro	-11.2741
▁Hot	-11.2742
▁Cerca	-11.2743
sodio	-11.2747
abana	-11.2756
▁118	-11.2758
▁goberna	-11.276
▁coincide	-11.2765
▁lava	-11.2767
cky	-11.2769
▁representando	-11.2771
▁ascenden	-11.2773
▁More	-11.2779
▁cerebral	-11.2783
▁distingue	-11.2783
▁extraordinaria	-11.2783
▁filosófico	-11.2783
▁franxa	-11.2783
▁pulmón	-11.2783
▁Pensilv	-11.2783
▁adicionais	-11.2783
▁prohibido	-11.2784
lumini	-11.2784
▁Joaqu	-11.2786
▁Montaña	-11.2786
▁falso	-11.2787
▁incrementa	-11.2793
rgoña	-11.2797
▁florece	-11.28
▁materna	-11.28
▁Simon	-11.2801
▁denomina	-11.2802
▁vem	-11.2808
vida	-11.281
▁Ora	-11.2812
▁facilitar	-11.2813
▁empezar	-11.2816
▁situar	-11.2821
▁atraer	-11.2824
▁internas	-11.283
▁temperá	-11.2835
▁Company	-11.2837
▁desembarco	-11.2837
▁informático	-11.2837
▁língua	-11.2837
▁máxico	-11.2837
▁celeste	-11.2837
▁ferroviaria	-11.2837
▁Sabem	-11.2841
▁disseram	-11.2843
▁Ciro	-11.2844
▁Islam	-11.2845
▁Roll	-11.2847
▁Pelo	-11.2852
▁erosi	-11.2852
▁infl	-11.286
SD	-11.2866
▁tip	-11.2866
▁Hans	-11.2868
▁Cristi	-11.2872
▁implanta	-11.2874
▁Lu	-11.2875
▁escoitar	-11.2876
mundo	-11.2878
▁condutor	-11.288
fia	-11.2881
j	-11.2885
▁pape	-11.2885
▁ideais	-11.2888
▁cotiá	-11.289
iria	-11.289
▁dinosauro	-11.2891
▁mecánico	-11.2891
▁territoriais	-11.2891
▁Amar	-11.2892
▁milicia	-11.2893
▁adecuada	-11.2893
▁parti	-11.2894
▁controlo	-11.2896
▁introducido	-11.2898
rial	-11.29
▁retirado	-11.2901
▁encargou	-11.2903
▁mandar	-11.2904
▁escoita	-11.2906
púxo	-11.2908
▁cruzada	-11.2908
▁Pamp	-11.2912
▁interve	-11.2913
▁professores	-11.2914
▁Kur	-11.2915
▁fabricado	-11.2917
▁fal	-11.2917
▁Deputa	-11.2918
velt	-11.2927
▁portanto	-11.2929
▁Ac	-11.2936
▁forzado	-11.2942
▁cren	-11.2944
▁atractivo	-11.2945
▁deshabitada	-11.2945
▁oceánico	-11.2945
▁lexión	-11.2945
▁Balcán	-11.2945
▁inventor	-11.2947
▁moderada	-11.2948
▁Port	-11.2952
▁hax	-11.2956
▁Estra	-11.2956
▁algod	-11.2956
▁mel	-11.2964
▁arquivos	-11.2967
ena	-11.2969
▁facción	-11.297
viv	-11.2972
▁Medi	-11.2973
av	-11.2973
▁Ll	-11.2978
▁Tr	-11.299
▁producí	-11.2992
tolic	-11.2995
▁atómica	-11.2999
▁International	-11.3
▁Xacobe	-11.3
▁indoeuropea	-11.3
▁nocturno	-11.3
▁patriarca	-11.3
▁traducido	-11.3
▁teorema	-11.3
▁rumor	-11.3
▁Fraga	-11.3001
▁Imaginem	-11.3001
▁135	-11.3001
▁caro	-11.3004
ace	-11.3006
▁Sonic	-11.3006
▁aliada	-11.3006
▁voca	-11.3007
▁propaga	-11.3011
▁violento	-11.3012
ático	-11.3012
▁africana	-11.3012
▁convertido	-11.3013
▁GP	-11.3014
▁cela	-11.3015
▁adoptado	-11.3015
▁mutación	-11.3017
▁Brit	-11.3021
▁infinito	-11.3024
▁consolida	-11.3025
ciden	-11.3031
eolítico	-11.3039
▁Padr	-11.3042
kin	-11.3044
▁Luca	-11.3045
▁divulga	-11.305
▁alternativas	-11.3052
oceno	-11.3054
▁Anatoli	-11.3055
▁adquire	-11.3055
▁concilio	-11.3055
▁lexislativa	-11.3055
▁trompeta	-11.3055
▁palestra	-11.3055
▁esquina	-11.3055
▁esperança	-11.3055
▁reflexión	-11.3056
▁asalto	-11.3056
▁paga	-11.3056
▁fortificación	-11.3056
▁ferido	-11.3058
▁estudado	-11.3059
▁acusa	-11.306
clero	-11.306
tre	-11.3064
▁Gondo	-11.3065
▁elaborado	-11.3065
▁Hor	-11.3067
com	-11.3068
▁hotel	-11.3069
▁xenera	-11.307
onía	-11.3073
▁pra	-11.3074
▁esculturas	-11.3076
▁narración	-11.3077
▁peste	-11.3078
▁exclusiva	-11.3078
▁coñecen	-11.3083
ill	-11.3093
DE	-11.3098
▁Dos	-11.3099
▁aventura	-11.3105
evara	-11.3106
ólogo	-11.3107
▁Pica	-11.3108
▁emite	-11.3108
▁foca	-11.3109
PS	-11.3109
▁lingüista	-11.311
▁sábado	-11.311
▁obtida	-11.311
▁polígono	-11.311
▁Palestin	-11.311
▁consecutiva	-11.311
▁precisam	-11.3111
▁infraestrutura	-11.3117
▁cota	-11.3119
▁confusión	-11.3119
▁trazado	-11.3123
▁Solar	-11.3123
tah	-11.3124
▁profundas	-11.3126
▁deberá	-11.313
cento	-11.3133
osteiro	-11.3135
und	-11.3136
▁artificia	-11.3138
▁Bull	-11.3141
▁Doutr	-11.3144
▁sonho	-11.3144
▁fabricar	-11.3145
wis	-11.3147
▁reparti	-11.3148
let	-11.315
▁00	-11.3158
core	-11.316
AF	-11.3162
▁arqueolóxica	-11.3166
▁divindade	-11.3166
▁parámetro	-11.3166
▁túnel	-11.3166
▁baile	-11.3166
▁estendida	-11.3166
▁plasma	-11.3166
▁Ocean	-11.3166
▁Servizo	-11.3166
▁Bay	-11.3167
▁doentes	-11.3169
▁vinculado	-11.317
▁Link	-11.3172
▁sucedido	-11.3173
▁vasca	-11.3179
▁oxida	-11.3183
▁How	-11.3185
▁Day	-11.3187
hara	-11.3189
▁incorporación	-11.3191
▁durar	-11.3192
▁Il	-11.3198
▁partiu	-11.3198
▁pregunta	-11.32
pressão	-11.3205
▁achegar	-11.3205
sistencia	-11.3212
▁nenhum	-11.3213
ações	-11.3213
▁integrar	-11.3214
▁céntra	-11.3222
▁sanguíneo	-11.3222
▁étnica	-11.3222
▁aparato	-11.3222
▁sublevación	-11.3222
▁teórica	-11.3222
▁espira	-11.3222
▁señorío	-11.3223
▁distribuída	-11.3223
▁colapso	-11.3225
▁provisional	-11.3225
▁delito	-11.3226
▁franquía	-11.3226
▁proporcionar	-11.3227
▁vestido	-11.3228
▁aprende	-11.3229
▁nomear	-11.323
ardo	-11.323
uda	-11.3234
▁comum	-11.3234
▁acompañada	-11.3235
▁convencional	-11.3236
▁droga	-11.3236
itat	-11.3237
▁xiro	-11.3238
▁votar	-11.3238
▁pol	-11.3242
▁neerland	-11.3244
▁experimentar	-11.3248
▁Ría	-11.3248
▁hipóteses	-11.325
▁realizá	-11.3252
▁querer	-11.3255
▁gatos	-11.3255
▁Sara	-11.3268
▁preserva	-11.327
▁Bizan	-11.3278
▁establecé	-11.3278
▁promesa	-11.3278
▁PSdeG	-11.3278
▁catálogo	-11.3278
▁recita	-11.328
▁Play	-11.3281
▁misioneiro	-11.3284
▁fundamento	-11.3285
▁Catar	-11.3286
▁refuxiado	-11.3287
▁elixiu	-11.3288
▁ancha	-11.3289
▁pegar	-11.3291
▁abandonada	-11.3293
▁citada	-11.3295
▁Ray	-11.3299
▁executado	-11.33
guerra	-11.3301
▁regi	-11.331
▁romaniza	-11.3313
▁Fi	-11.3315
▁respira	-11.3315
▁asina	-11.3317
▁conservadores	-11.3321
▁ama	-11.3325
▁amiga	-11.3334
▁Convención	-11.3334
▁Exemplo	-11.3334
▁esplendor	-11.3334
▁galardón	-11.3334
▁suízo	-11.3334
▁elefante	-11.3334
▁Rexiona	-11.3334
▁Mallor	-11.3334
▁pracer	-11.3335
miento	-11.3335
▁ciclista	-11.3335
▁errado	-11.3335
iscal	-11.3337
▁elaborada	-11.3341
▁protectora	-11.3344
▁estivese	-11.3347
▁Q	-11.3354
▁parto	-11.3355
ation	-11.336
▁Reg	-11.336
▁Ball	-11.336
▁dedica	-11.3364
▁Lar	-11.3371
▁verba	-11.3376
▁costeiras	-11.3386
bido	-11.3388
▁soterrado	-11.3391
▁Iorque	-11.3391
▁exposta	-11.3391
▁ensinanza	-11.3392
▁cavidade	-11.3392
▁Traba	-11.3393
▁Salom	-11.3394
dison	-11.3397
▁desenvolvidos	-11.3397
▁atraso	-11.3398
▁formulación	-11.34
▁estimada	-11.34
TV	-11.3403
▁fixe	-11.3405
▁pór	-11.3407
riente	-11.3408
▁Gi	-11.3409
ang	-11.3415
▁escas	-11.3421
▁cru	-11.3427
var	-11.3428
▁Cou	-11.3431
▁cortar	-11.3431
▁Sant	-11.3432
▁est	-11.3437
ony	-11.3438
ureza	-11.3441
▁Hat	-11.3444
▁Fór	-11.3446
tempo	-11.3447
▁começá	-11.3448
▁recollido	-11.3448
▁xadrez	-11.3448
▁Formou	-11.3448
▁legais	-11.3449
▁activista	-11.3449
▁viagem	-11.345
▁atravesad	-11.3451
▁Brian	-11.3451
▁White	-11.3451
▁urbanas	-11.3451
▁lixo	-11.3452
▁dixe	-11.3454
▁ocupaba	-11.3455
▁Glas	-11.3455
▁ambientais	-11.3455
▁israelí	-11.3457
,3	-11.3458
nya	-11.3461
▁manda	-11.3461
▁evolucion	-11.3462
▁deixan	-11.3463
▁proclamad	-11.3464
▁Amor	-11.3464
▁pessoal	-11.3468
úric	-11.3472
▁remonta	-11.3473
▁chamamos	-11.3478
▁tomado	-11.3479
▁nervioso	-11.3484
▁Essa	-11.3485
▁apo	-11.3485
▁Abadí	-11.3487
▁Tolo	-11.3493
▁Sab	-11.35
▁croata	-11.3506
▁fortuna	-11.3506
▁réptil	-11.3506
▁oceánica	-11.3506
▁Leopold	-11.3506
▁choque	-11.3506
▁Presenta	-11.3506
▁impide	-11.3507
▁Hugh	-11.3508
▁Litu	-11.3508
▁Ib	-11.3509
▁inv	-11.3512
▁ácha	-11.3513
▁faixa	-11.3513
▁Chá	-11.3517
▁compara	-11.3518
▁modificado	-11.3519
▁vári	-11.3519
▁violación	-11.352
CE	-11.3522
▁excepcional	-11.3523
▁geral	-11.3524
▁fillas	-11.3533
▁rego	-11.3534
▁filho	-11.354
▁ficha	-11.3548
▁empregaba	-11.3548
▁acadando	-11.355
▁nesse	-11.3562
▁campamento	-11.3564
▁correcto	-11.3564
▁temperado	-11.3564
▁oposta	-11.3564
▁Fundou	-11.3564
▁nisso	-11.3564
▁rito	-11.3565
▁Cri	-11.3565
▁puxer	-11.3566
▁presentada	-11.3568
▁destruír	-11.3569
▁livros	-11.357
▁encargada	-11.357
fort	-11.3571
eron	-11.3571
▁pedido	-11.3573
▁madura	-11.3578
▁Bla	-11.3584
▁Fala	-11.3587
▁editar	-11.3588
▁rematada	-11.3589
▁doenças	-11.3596
ologia	-11.3601
▁riva	-11.3603
▁Mina	-11.3604
▁capturar	-11.3607
▁ambientes	-11.3613
▁Tur	-11.3615
▁adxectivo	-11.3622
▁eucariota	-11.3622
▁sometida	-11.3622
▁titulada	-11.3622
▁turca	-11.3622
▁luxo	-11.3622
▁notábe	-11.3622
▁fariña	-11.3622
▁Política	-11.3622
▁lexislatura	-11.3622
▁Mesopot	-11.3622
▁fizeram	-11.3623
▁repetir	-11.3624
▁Campión	-11.3625
▁Capita	-11.3625
▁ouvi	-11.3626
▁Duca	-11.363
▁gótica	-11.3631
▁nenhuma	-11.3631
roenland	-11.3631
▁guía	-11.3632
rzo	-11.3632
▁edita	-11.3638
▁cinto	-11.3638
▁misa	-11.3638
▁anxo	-11.3639
▁instalado	-11.3641
triz	-11.3641
▁piar	-11.3644
▁Davi	-11.3645
▁invadir	-11.3646
▁Lama	-11.3649
▁Galla	-11.3652
ndez	-11.3655
▁contando	-11.3656
▁ab	-11.3663
▁garantir	-11.3665
▁coñecía	-11.3666
ague	-11.3668
▁galo	-11.3671
▁perfi	-11.3672
¡	-11.368
▁Marshall	-11.368
▁disputou	-11.368
▁doméstica	-11.368
▁previo	-11.368
▁ourensá	-11.368
▁Pop	-11.3681
▁alterar	-11.3681
▁traza	-11.3682
▁barroca	-11.3682
▁Ch	-11.3682
▁Odise	-11.3683
▁gobernado	-11.3683
▁trama	-11.3684
▁irlandesa	-11.3686
▁106	-11.3686
▁pior	-11.3688
▁comporta	-11.3688
▁114	-11.3689
▁superficial	-11.369
▁manifesto	-11.3691
▁cónsul	-11.3691
▁formados	-11.3692
▁intelixente	-11.3692
▁Bang	-11.3693
▁138	-11.3693
▁influí	-11.3695
▁galardoado	-11.3695
▁regulación	-11.3697
▁oportunidades	-11.3706
▁Mani	-11.3706
▁Leo	-11.371
▁estimula	-11.3711
▁fiel	-11.3715
▁Xene	-11.3717
▁Sud	-11.3722
▁Roda	-11.3723
▁anuncia	-11.3727
ómpre	-11.3738
cado	-11.3739
▁recompensa	-11.3739
▁descanso	-11.3739
▁lousa	-11.3739
▁vós	-11.3739
▁online	-11.374
▁acesso	-11.374
▁continuidade	-11.3741
▁faga	-11.3741
▁litro	-11.3741
▁Ali	-11.3745
▁houve	-11.3747
▁119	-11.3748
▁Ross	-11.3749
▁republicana	-11.375
mond	-11.3754
ábe	-11.3755
iga	-11.3758
▁Bona	-11.3762
▁caracterizado	-11.3764
▁Pasa	-11.3767
▁Baio	-11.3773
▁sonda	-11.3776
hl	-11.3776
▁108	-11.3777
▁tortura	-11.3779
▁Hug	-11.378
▁bola	-11.3784
▁Varia	-11.3787
▁Lib	-11.3792
▁chamaba	-11.3792
▁contraria	-11.3795
ronce	-11.3795
▁Berg	-11.3795
hattan	-11.3798
▁delegación	-11.3798
▁veterano	-11.3798
▁reconstruída	-11.3798
▁manobra	-11.3798
▁Branco	-11.3798
▁basílica	-11.3798
▁parlamentario	-11.3799
▁revisión	-11.3799
▁sultán	-11.3799
▁Gobernador	-11.3801
▁introducida	-11.3803
▁normando	-11.3804
▁Fale	-11.3804
▁rumb	-11.3805
▁más	-11.381
▁Barro	-11.3811
ight	-11.3812
enberg	-11.3813
▁efectivo	-11.3813
▁finaliza	-11.3819
▁Americana	-11.382
▁merece	-11.3822
dura	-11.3825
▁Debe	-11.3833
alles	-11.3836
▁Rac	-11.3837
▁afección	-11.3838
▁aprendi	-11.3841
▁internos	-11.3842
▁compartir	-11.3842
cada	-11.3849
▁modificar	-11.385
▁reuní	-11.3854
▁Malv	-11.3855
▁saqueo	-11.3855
▁Galeguista	-11.3858
▁aeronave	-11.3858
▁axeitado	-11.3858
▁complicado	-11.3858
▁concedido	-11.3858
▁economista	-11.3858
▁exatamente	-11.3858
▁romaría	-11.3858
▁asiática	-11.3858
▁expandir	-11.3858
▁exposto	-11.3858
▁terrorismo	-11.3861
▁117	-11.3865
▁cruce	-11.3869
▁pensou	-11.3879
▁iniciado	-11.3883
▁gravada	-11.3885
llino	-11.3888
▁escribi	-11.3889
▁conservar	-11.389
▁Arms	-11.3895
▁Rub	-11.3897
▁enclave	-11.3898
▁informa	-11.3905
▁misterio	-11.3907
▁Bie	-11.3908
inda	-11.391
▁Oh	-11.3911
▁Rodrig	-11.3912
▁Cong	-11.3913
▁Va	-11.3914
▁glándula	-11.3918
▁mitocondria	-11.3918
▁peninsular	-11.3918
▁petróglifo	-11.3918
▁Estím	-11.3918
▁emitida	-11.3918
▁emitido	-11.3918
▁dándolle	-11.3918
▁Wood	-11.3918
▁furacán	-11.3918
▁sensible	-11.3918
▁balea	-11.3918
▁Disney	-11.3918
▁receita	-11.3918
▁sorprendente	-11.3918
lica	-11.3919
▁pique	-11.392
▁estendido	-11.3921
▁poboaciona	-11.3921
▁aprobado	-11.3922
▁vendida	-11.3923
▁gobernada	-11.3926
passe	-11.3926
▁Tive	-11.3926
▁daquel	-11.3929
▁apoiada	-11.393
▁manual	-11.3931
ell	-11.3933
▁cedeu	-11.3933
▁Lake	-11.394
▁oficinas	-11.3942
▁holand	-11.3944
▁repartido	-11.3949
House	-11.3953
zul	-11.3958
wan	-11.3969
▁solucións	-11.397
▁infraestruturas	-11.3971
plic	-11.3971
▁cristal	-11.3976
▁136	-11.3976
▁Casare	-11.3977
▁Económica	-11.3978
▁secreto	-11.3978
▁teléfono	-11.3978
▁xerarquía	-11.3978
▁torná	-11.3978
▁sólida	-11.3978
▁utilidade	-11.3978
▁suspensión	-11.3978
▁proposto	-11.3978
▁Noroeste	-11.3979
▁cálido	-11.3979
▁budista	-11.3982
▁cálculos	-11.3984
▁acr	-11.3985
▁xulgado	-11.3986
▁volvería	-11.3987
▁Valle	-11.3987
usa	-11.3987
▁dominada	-11.3989
quê	-11.399
pp	-11.3991
▁Vivi	-11.3995
▁Comba	-11.4002
▁envia	-11.4002
▁logro	-11.4005
bade	-11.4006
▁cesa	-11.4008
▁Pit	-11.4009
iberia	-11.4009
▁Fla	-11.4012
▁eliminado	-11.4017
▁juntos	-11.4024
▁conducir	-11.4025
furt	-11.4025
▁Silv	-11.4027
▁seda	-11.4029
▁conservado	-11.4037
▁aristocra	-11.4038
▁contempla	-11.4038
▁Panamá	-11.4038
▁decisiva	-11.4038
▁graxo	-11.4038
▁Após	-11.4038
▁atacou	-11.4039
▁adquisición	-11.4041
▁Uni	-11.4042
▁inda	-11.4042
▁liderada	-11.4044
telecomunicación	-11.4046
▁recoller	-11.4049
▁adoptada	-11.4049
▁AB	-11.405
▁habitan	-11.405
▁iniciada	-11.4056
▁agricultores	-11.4058
▁Norman	-11.4062
umentando	-11.4062
▁acudi	-11.4064
▁Cruce	-11.4065
▁Acho	-11.4066
▁copa	-11.4076
▁Les	-11.4077
▁rapaza	-11.4077
rac	-11.4083
▁rematado	-11.4084
ip	-11.4086
▁embora	-11.409
▁Republican	-11.4091
▁arxila	-11.4099
▁requisito	-11.4099
▁robot	-11.4099
▁glicosa	-11.4099
▁madurez	-11.4099
▁azuis	-11.4099
▁bacharel	-11.4099
▁balón	-11.41
▁ladeira	-11.41
▁barato	-11.41
▁Realizou	-11.4101
▁tradutor	-11.4101
▁Mour	-11.4101
▁inclinación	-11.4102
▁Open	-11.4102
▁detectar	-11.4102
▁teoria	-11.4104
▁rivalidade	-11.4109
▁polar	-11.4111
▁terem	-11.4119
▁relativ	-11.4121
voa	-11.4123
▁be	-11.4124
▁experiências	-11.4127
▁aula	-11.4128
▁conectado	-11.4128
▁lidar	-11.4132
▁Moz	-11.4135
▁Quer	-11.4139
▁112	-11.4144
▁superviven	-11.4145
▁encargo	-11.4147
erife	-11.4149
▁test	-11.415
▁melhorar	-11.4155
▁fraga	-11.4158
▁ábre	-11.4159
▁combusti	-11.416
▁artill	-11.4161
▁arbusto	-11.4161
▁claustro	-11.4161
▁educativa	-11.4161
▁asturiano	-11.4161
▁festividade	-11.4161
▁clan	-11.4161
▁metálica	-11.4162
▁Eric	-11.4162
▁Dá	-11.4163
▁perguntas	-11.4163
▁Hamil	-11.4164
▁mailo	-11.4164
ións	-11.4165
liva	-11.4166
▁custa	-11.4167
▁viúva	-11.4168
telo	-11.417
▁rompe	-11.4171
▁vacina	-11.4172
▁presidi	-11.4178
▁Hall	-11.418
▁completou	-11.4182
▁ocorren	-11.4183
▁All	-11.4187
▁cultivar	-11.4188
▁grava	-11.4191
berto	-11.4192
chell	-11.4195
▁topo	-11.4199
▁frases	-11.42
▁concentra	-11.4201
▁Coma	-11.4202
▁axudante	-11.4204
▁ane	-11.4207
monos	-11.4212
▁ortodoxa	-11.4213
▁Xu	-11.4213
▁rendi	-11.4219
▁escuadra	-11.4222
▁horizonte	-11.4222
▁agraria	-11.4222
▁colocou	-11.4222
▁gama	-11.4223
▁sente	-11.4223
▁separou	-11.4223
▁Investigación	-11.4223
▁Saur	-11.4223
▁hu	-11.4223
▁meseta	-11.4224
▁inspirada	-11.4225
▁severa	-11.4225
▁bater	-11.4225
ball	-11.4227
▁vale	-11.4228
angel	-11.4229
▁modificada	-11.423
▁comezaba	-11.424
▁regularmente	-11.4243
▁ampl	-11.4248
▁trato	-11.425
▁Franc	-11.4253
▁Allen	-11.4253
uselle	-11.4254
▁equivale	-11.4257
mad	-11.4257
▁hip	-11.4258
▁desenvolven	-11.4259
▁codia	-11.4264
sol	-11.4269
▁levantar	-11.4272
▁fre	-11.4273
crate	-11.4277
▁aminoácidos	-11.428
▁Cla	-11.428
▁condes	-11.4281
▁chocolate	-11.4285
▁descontento	-11.4285
▁eclesiástico	-11.4285
▁jovem	-11.4285
▁Gabriel	-11.4285
▁aterraxe	-11.4285
▁decisivo	-11.4285
▁agrupa	-11.4285
caia	-11.4292
baixo	-11.43
▁obviamente	-11.4301
▁Qu	-11.4303
▁Dubl	-11.4303
▁criterio	-11.4306
▁enverg	-11.4308
tyle	-11.4308
▁estrutural	-11.4313
lix	-11.4313
▁Free	-11.4314
▁divorcio	-11.4317
den	-11.4322
align	-11.4324
tario	-11.4324
▁probar	-11.4326
▁espacia	-11.4328
▁empresaria	-11.4329
▁negocia	-11.4329
old	-11.4331
▁reprodutora	-11.4338
▁alunos	-11.4338
anzas	-11.4339
▁feridos	-11.4344
▁posib	-11.4346
NA	-11.4346
▁Castrelo	-11.4347
▁Habsburgo	-11.4347
▁NASA	-11.4347
▁atinxi	-11.4347
▁auténtico	-11.4347
▁instalá	-11.4347
▁pirámide	-11.4347
▁proxección	-11.4347
▁práctico	-11.4347
▁superfície	-11.4347
▁conduce	-11.4347
▁blue	-11.4347
▁Beatles	-11.4347
▁Tód	-11.4347
▁jogo	-11.4347
▁xuventude	-11.4347
▁oitava	-11.4347
▁voda	-11.4348
▁ataca	-11.4353
▁Game	-11.4355
▁esperaba	-11.4357
▁reclama	-11.4359
▁faro	-11.4359
▁infante	-11.4362
▁limitación	-11.4364
▁salientar	-11.4365
eminario	-11.4367
▁regula	-11.4368
▁xigante	-11.4372
▁cubrir	-11.4373
▁financeiros	-11.4373
▁gato	-11.4375
▁alza	-11.4381
▁elevadas	-11.4385
▁presidid	-11.4392
▁sejam	-11.4395
ográfico	-11.4396
right	-11.4397
▁ambiental	-11.4397
▁terror	-11.4405
▁delta	-11.4408
▁Cort	-11.441
▁sustenta	-11.441
candinavia	-11.441
▁léxico	-11.441
▁migratoria	-11.441
▁substantivo	-11.441
▁cidadan	-11.441
▁fenicio	-11.441
▁demográfico	-11.441
▁sinatura	-11.4411
▁consola	-11.4411
▁renunci	-11.4415
▁soste	-11.4419
▁desexa	-11.442
▁basea	-11.4421
▁estive	-11.4425
▁Capel	-11.443
▁Indo	-11.4431
▁buscaba	-11.4432
▁doente	-11.4433
▁viaxeiro	-11.4436
▁Alemán	-11.4438
▁Wei	-11.4439
▁algoritmo	-11.4439
struíu	-11.4439
▁cientistas	-11.4439
▁Ura	-11.4443
▁impux	-11.4447
▁Butt	-11.4447
pra	-11.4449
▁marqu	-11.4451
▁deter	-11.446
▁liberar	-11.4461
▁deber	-11.4462
▁acabado	-11.4464
▁estranho	-11.4473
▁guerrilleiro	-11.4473
▁humilde	-11.4473
▁microorganismo	-11.4473
▁viquingo	-11.4473
▁xestiona	-11.4473
▁actina	-11.4473
▁troco	-11.4473
▁trofeo	-11.4473
tudo	-11.4474
▁Bizantin	-11.4474
▁eslavo	-11.4474
▁Tahi	-11.4474
▁véx	-11.4474
▁Tele	-11.4476
▁cativo	-11.448
▁Publicou	-11.448
▁ilustración	-11.4485
▁romper	-11.4486
ixo	-11.4487
▁adolescentes	-11.4488
▁capazes	-11.4491
▁Estre	-11.4491
▁Director	-11.4492
▁digital	-11.4499
▁vencedor	-11.4506
▁Zam	-11.4508
aba	-11.4515
▁investigar	-11.4516
▁escuras	-11.4522
▁text	-11.4531
▁cast	-11.4534
echt	-11.4534
▁parar	-11.4536
▁funera	-11.4536
▁antecesor	-11.4537
▁castigo	-11.4537
▁ferroviario	-11.4537
▁livre	-11.4537
▁perfecto	-11.4537
▁semelhante	-11.4537
▁Branca	-11.4537
▁traducida	-11.4537
▁intermedio	-11.4537
▁nu	-11.4537
▁Sound	-11.4537
▁inundación	-11.454
▁toque	-11.4541
▁3000	-11.4543
▁servía	-11.4545
▁teria	-11.4549
▁afirman	-11.4552
▁elaborar	-11.4552
▁permanecen	-11.4554
▁especialidade	-11.4557
lini	-11.4562
iterio	-11.4562
xeo	-11.4562
▁Estadi	-11.4567
ávena	-11.4568
▁percorrer	-11.4577
▁estiv	-11.458
▁notícias	-11.4586
helm	-11.4587
▁Laxe	-11.4587
ure	-11.4588
▁eficac	-11.459
cesio	-11.4591
liga	-11.4594
ath	-11.4596
▁Parti	-11.4598
▁atmosférica	-11.4601
▁cilindro	-11.4601
▁defecto	-11.4601
▁objetivo	-11.4601
▁fermosa	-11.4601
▁espello	-11.4601
▁estraño	-11.4601
olivia	-11.4601
▁Natureza	-11.4602
▁Metal	-11.4604
▁confi	-11.4604
cles	-11.4604
▁malo	-11.4606
ergé	-11.4606
▁crescer	-11.4606
▁desorde	-11.4607
vana	-11.4607
▁levouno	-11.4609
umi	-11.461
▁afectan	-11.4611
▁contratado	-11.4612
▁pensam	-11.4615
▁terían	-11.4616
▁Hermi	-11.4622
▁bela	-11.4623
▁defensiva	-11.4629
autista	-11.4629
▁perce	-11.4632
▁vimos	-11.4638
▁colocado	-11.4641
▁direito	-11.4643
▁administrador	-11.4643
▁Eva	-11.4646
▁enfronta	-11.4647
▁Sh	-11.4652
▁colo	-11.4657
▁hea	-11.4663
▁Neve	-11.4665
▁Mercedes	-11.4666
▁distíngue	-11.4666
▁Cáucaso	-11.4666
▁crédito	-11.4666
▁guerrilla	-11.4666
▁representou	-11.4666
▁residuo	-11.4666
▁visuais	-11.4666
▁sigla	-11.4666
▁sueca	-11.4666
▁financiamento	-11.4666
▁radar	-11.4666
▁presb	-11.4666
▁sentía	-11.4666
▁Bush	-11.4668
▁sacar	-11.4668
▁Vai	-11.467
▁salario	-11.4671
▁aproximada	-11.4671
▁inestab	-11.4671
éntase	-11.4672
▁lema	-11.4674
▁Mich	-11.4674
▁conspiración	-11.4675
▁Pala	-11.4675
▁talo	-11.4676
▁Sarde	-11.4677
▁enviada	-11.4677
▁Cabana	-11.4678
▁109	-11.468
▁veem	-11.4681
rar	-11.4682
▁cresce	-11.4684
▁Vé	-11.4686
▁digo	-11.4689
▁Consist	-11.4691
▁Malai	-11.4698
▁sinalar	-11.4699
▁Ku	-11.4701
▁especia	-11.4702
▁Cova	-11.4706
▁renunciar	-11.4706
▁devido	-11.4709
▁tenham	-11.4712
▁herd	-11.4712
▁Blue	-11.4721
▁Meli	-11.4723
▁Comp	-11.4726
▁Católic	-11.4727
▁6-	-11.4727
▁neuro	-11.4729
acultade	-11.473
▁adolescencia	-11.4731
▁islámico	-11.4731
▁tecnolóxico	-11.4731
▁vangarda	-11.4731
▁Índia	-11.4731
▁estím	-11.4731
▁icona	-11.4731
▁feble	-11.4732
▁inversa	-11.4732
▁Syd	-11.4733
▁subministración	-11.4734
▁Crime	-11.4735
▁cans	-11.4735
▁encarcerado	-11.4736
▁Volveu	-11.474
▁sindical	-11.474
▁oficina	-11.4741
▁corporal	-11.4742
▁entregado	-11.4748
▁tivesse	-11.4751
▁rap	-11.4754
▁Tim	-11.4757
▁duma	-11.4758
▁Common	-11.4761
▁Chega	-11.4763
sey	-11.4763
▁integrou	-11.4763
▁poñen	-11.4772
▁deseñou	-11.4773
▁Sete	-11.4774
▁Elvi	-11.4776
tland	-11.4776
▁Ke	-11.4784
▁dirixía	-11.4784
▁Outeir	-11.4788
itúa	-11.4792
▁castrexo	-11.4793
▁Lagos	-11.4793
▁Consérva	-11.4796
▁Celtic	-11.4796
▁Douglas	-11.4796
▁antepasado	-11.4796
▁autóctona	-11.4796
▁fonética	-11.4796
▁inmensa	-11.4796
▁independentista	-11.4796
▁manufactura	-11.4796
▁orixinou	-11.4796
▁apartamento	-11.4796
▁Nevad	-11.4796
▁síndrome	-11.4797
▁levantou	-11.4797
▁engade	-11.4797
▁Cha	-11.4798
▁Anxo	-11.4799
▁prioridade	-11.4799
▁supor	-11.48
▁discorre	-11.4801
MA	-11.4801
▁traslado	-11.4803
▁peça	-11.4809
▁Francesc	-11.4812
▁Maio	-11.4816
▁naturalista	-11.4816
▁gostaria	-11.4816
vez	-11.4817
▁ortodoxo	-11.4819
▁Jon	-11.4822
▁importación	-11.4823
▁lazo	-11.4825
▁neutral	-11.4825
▁Carte	-11.4827
▁senso	-11.4828
▁veñ	-11.4829
▁rexeitado	-11.4834
▁Limi	-11.4835
▁Pública	-11.4837
▁Qual	-11.4837
bón	-11.4844
▁tocaba	-11.4846
▁Lud	-11.4849
▁cole	-11.4853
▁Timo	-11.4853
▁irlandes	-11.4854
▁East	-11.4857
▁goza	-11.4858
lines	-11.4859
×	-11.4862
▁contrário	-11.4862
▁escaravello	-11.4862
▁vándalo	-11.4862
▁burato	-11.4862
▁Dragon	-11.4862
▁dimiti	-11.4862
▁questões	-11.4862
▁fusela	-11.4862
▁matriz	-11.4862
▁Filad	-11.4862
▁Lenno	-11.4863
▁cinta	-11.4863
▁reg	-11.4863
▁France	-11.4865
▁Segur	-11.4866
▁Clara	-11.4867
▁afastada	-11.4869
▁desejo	-11.487
titan	-11.4871
▁My	-11.4878
▁representativo	-11.4879
▁ditador	-11.488
▁sentado	-11.4883
senciais	-11.4886
▁Homer	-11.4886
laga	-11.4886
▁convencer	-11.4892
▁habería	-11.4892
▁notar	-11.4893
▁entran	-11.4894
▁avanza	-11.4894
▁politica	-11.4896
▁dólar	-11.4896
▁foguete	-11.4897
tido	-11.4898
dución	-11.4898
▁continuaba	-11.4907
▁engadiu	-11.491
▁rexeitar	-11.4916
▁Aérea	-11.4928
▁Checoslov	-11.4928
▁estratéxico	-11.4928
▁extraordinario	-11.4928
▁fascista	-11.4928
▁hospitais	-11.4928
▁inteligente	-11.4928
▁intestino	-11.4928
▁mísil	-11.4928
▁objeto	-11.4928
▁playoff	-11.4928
▁repercusión	-11.4928
▁tóxico	-11.4928
▁apóstolo	-11.4928
▁difire	-11.4928
▁suprimi	-11.4928
▁denominou	-11.4928
▁flamengo	-11.4928
▁Saúde	-11.4928
▁diga	-11.493
▁hostilidade	-11.493
▁armamento	-11.4936
▁adaptar	-11.4937
▁producía	-11.4938
▁falecemento	-11.4939
▁denomína	-11.4941
▁pos	-11.4947
▁Barreiro	-11.4953
▁Angeles	-11.496
▁flúe	-11.4963
▁Pla	-11.4966
▁transporta	-11.4966
▁incorporar	-11.4968
▁xeno	-11.4968
tru	-11.4972
▁filo	-11.4976
▁South	-11.4976
▁substancial	-11.498
nado	-11.4982
▁ilustrado	-11.4984
▁Sid	-11.4986
▁nacen	-11.4986
▁astrónomo	-11.4992
▁Institut	-11.4993
▁Lexislativ	-11.4995
▁mensagem	-11.4995
▁término	-11.4995
▁revelou	-11.4995
▁abadía	-11.4995
▁Andrew	-11.4995
▁pasta	-11.4995
▁criou	-11.5
▁desempeña	-11.5001
▁pontevedr	-11.5001
▁ocasiona	-11.5002
▁Johns	-11.5003
▁Dar	-11.5003
▁baño	-11.5003
ue	-11.5007
▁louc	-11.5008
▁adic	-11.5011
▁Hein	-11.5011
▁Usa	-11.5014
▁decena	-11.5016
ailand	-11.5017
▁interpretado	-11.5017
▁Esco	-11.5021
▁vixil	-11.5022
▁face	-11.5022
▁Alex	-11.5022
lección	-11.5023
▁roca	-11.5023
▁sexos	-11.5025
▁amid	-11.5031
we	-11.5033
▁Pard	-11.5035
VE	-11.5042
▁executar	-11.5047
aren	-11.5047
▁diferenciar	-11.5049
▁reduciu	-11.5055
▁peculiar	-11.5056
▁proveñ	-11.5057
▁confederación	-11.5062
▁exitoso	-11.5062
▁necessidade	-11.5062
▁observou	-11.5062
▁opositor	-11.5062
▁princípio	-11.5062
▁reduce	-11.5062
▁robô	-11.5062
▁grosa	-11.5062
▁Consell	-11.5062
▁Luft	-11.5062
▁loito	-11.5062
▁volcánico	-11.5063
▁Walter	-11.5063
▁encontrou	-11.5065
▁traiz	-11.5067
▁interesado	-11.5069
▁macizo	-11.5071
rin	-11.5071
▁demostra	-11.508
▁rexistra	-11.5082
▁Campos	-11.5084
▁datado	-11.5086
▁Nir	-11.5087
▁Jam	-11.5089
▁Orienta	-11.5092
▁trá	-11.5092
▁Galax	-11.5095
▁Brun	-11.5095
ini	-11.5096
▁xogan	-11.5097
▁afundi	-11.5097
▁continuamente	-11.5099
▁atletas	-11.5106
▁Sé	-11.5108
▁signific	-11.5108
▁alega	-11.5111
▁computadora	-11.5114
▁Orixina	-11.5128
▁Alejandr	-11.5129
▁adxacente	-11.5129
▁antecedente	-11.5129
▁dignidade	-11.5129
▁fantástica	-11.5129
▁olímpico	-11.5129
▁padrões	-11.5129
▁simboliza	-11.5129
▁mentais	-11.5129
▁globo	-11.5129
▁coloración	-11.5129
▁Facend	-11.513
▁Supp	-11.513
▁fuga	-11.513
tida	-11.5131
kla	-11.5132
▁dono	-11.5135
▁laboral	-11.5141
▁estadía	-11.5142
▁interpretada	-11.5144
▁precedentes	-11.5148
▁nominal	-11.5148
▁Unidade	-11.5149
▁Liberal	-11.5149
unge	-11.5152
▁ratos	-11.5156
▁Pat	-11.516
▁Spi	-11.5163
▁Sega	-11.5165
▁Cret	-11.5174
▁antibióticos	-11.5175
ilul	-11.5182
elección	-11.5191
▁Gold	-11.5191
▁pontos	-11.5192
▁acu	-11.5196
ditorial	-11.5197
▁arque	-11.5197
▁Consegui	-11.5197
▁Proxecto	-11.5197
▁arranxo	-11.5197
▁diminúe	-11.5197
▁possibilidade	-11.5197
▁sacrificio	-11.5197
▁triunfa	-11.5197
▁aplíca	-11.5197
▁xermano	-11.5197
▁xeométrica	-11.5197
▁pavillón	-11.5197
▁centrada	-11.52
áveis	-11.5201
▁autob	-11.5201
▁representativa	-11.5206
▁pigmento	-11.5211
pones	-11.5212
▁senti	-11.5215
▁pertencer	-11.5215
▁Interes	-11.5217
▁Pontede	-11.5217
▁alimentaria	-11.5219
▁rexeitada	-11.522
▁cera	-11.5221
▁proceden	-11.5226
▁crecer	-11.5227
▁respecta	-11.5229
▁apunta	-11.5229
▁sost	-11.523
▁invento	-11.5234
rry	-11.5239
ixeria	-11.524
▁iria	-11.5241
adeira	-11.5244
▁vídeos	-11.5245
eoría	-11.5246
▁desexaba	-11.5246
▁Membro	-11.5247
▁Arm	-11.5247
▁documentado	-11.5253
conomía	-11.5261
▁adóita	-11.5266
▁búlgaro	-11.5266
▁campá	-11.5266
▁móve	-11.5266
▁acuática	-11.5266
▁prefire	-11.5266
▁arqueólogo	-11.5266
▁cerco	-11.5266
▁cháman	-11.5266
▁maxia	-11.5266
▁Crom	-11.5267
▁desenvolvé	-11.5267
▁Christian	-11.5267
▁139	-11.5268
▁Gramm	-11.5268
▁mineira	-11.5268
▁constituía	-11.5269
▁voa	-11.5271
▁fertiliza	-11.5271
▁escoces	-11.5272
▁assunto	-11.5273
▁113	-11.5274
▁começaram	-11.5275
▁tido	-11.5275
▁artesán	-11.5276
▁clasificada	-11.5277
▁bate	-11.5277
▁terapia	-11.5278
▁acumulación	-11.5278
▁Madon	-11.5279
▁subida	-11.5279
lie	-11.5282
▁santa	-11.5285
▁navegante	-11.5286
▁dezaseis	-11.5286
▁mosca	-11.5287
▁preferido	-11.529
▁Henri	-11.5293
▁131	-11.5293
▁coiro	-11.5293
▁Rowl	-11.5306
▁encarga	-11.5312
▁Boa	-11.5313
gado	-11.5313
▁falando	-11.5313
latino	-11.5314
▁ampliar	-11.532
▁domésticos	-11.532
▁neles	-11.5324
▁escoller	-11.5324
▁clar	-11.5326
▁contactos	-11.5326
▁comparti	-11.5326
▁neurónios	-11.5327
▁Inc	-11.5331
▁Magno	-11.5331
▁Dev	-11.5332
▁oco	-11.5333
▁facéndo	-11.5335
▁complicada	-11.5335
▁guarnición	-11.5335
▁maquina	-11.5335
▁parecida	-11.5335
▁préstamo	-11.5335
▁repertorio	-11.5335
▁vínculo	-11.5335
▁emitiu	-11.5335
▁impreso	-11.5335
▁preferencia	-11.5335
▁veneciano	-11.5335
▁accesible	-11.5335
▁fume	-11.5337
▁transparente	-11.5337
▁preço	-11.5337
ixón	-11.5337
▁morfoloxía	-11.5344
▁matou	-11.5346
▁homosexual	-11.5347
ob	-11.5348
▁emigrar	-11.5348
▁recordo	-11.5348
▁causando	-11.5351
moto	-11.5351
▁caracterizada	-11.5354
▁Orti	-11.5356
▁decorado	-11.5356
▁Sta	-11.5356
▁glaciares	-11.5359
▁navegador	-11.5362
▁Cente	-11.537
▁designación	-11.5373
▁Angel	-11.5374
gh	-11.5375
▁rompeu	-11.5379
▁aplicado	-11.5382
lariz	-11.5383
▁provocada	-11.5385
ray	-11.539
▁Sex	-11.5392
icios	-11.5399
▁porción	-11.5399
▁Coñéce	-11.5404
▁limpeza	-11.5404
▁mercenario	-11.5404
▁neutrón	-11.5404
▁Curti	-11.5404
▁promociona	-11.5404
▁relações	-11.5404
▁palco	-11.5404
▁quarto	-11.5404
negal	-11.5404
▁Adriá	-11.5404
▁mongo	-11.5404
mentr	-11.5404
▁prefectura	-11.5405
▁textura	-11.5405
▁sasánida	-11.5405
▁godo	-11.5409
▁levaría	-11.5412
▁Esloven	-11.5412
▁Republicano	-11.5413
▁devem	-11.5414
▁apreciar	-11.5415
▁Soto	-11.5415
▁mau	-11.5416
▁pau	-11.5423
tivemos	-11.5427
▁consumidores	-11.543
▁habitaba	-11.5431
▁Cang	-11.5433
over	-11.5434
▁penal	-11.5437
▁pintar	-11.5439
▁Well	-11.5443
▁choca	-11.5452
▁predomina	-11.5453
▁alterna	-11.5453
▁propagand	-11.546
▁fornecer	-11.5462
chura	-11.5466
▁citar	-11.5466
▁protagoniz	-11.5471
▁próprios	-11.5472
apitán	-11.5473
▁Decreto	-11.5474
▁atlántica	-11.5474
▁constituínte	-11.5474
▁página	-11.5474
▁recompilatorio	-11.5474
▁universitaria	-11.5474
▁xeolóxica	-11.5474
▁excesiva	-11.5474
▁violín	-11.5474
▁crucial	-11.5474
▁Jacob	-11.5474
▁sedimento	-11.5474
roso	-11.5474
▁McL	-11.5474
▁Carballed	-11.5475
▁defendía	-11.5475
▁apartado	-11.5476
▁orella	-11.5476
alf	-11.548
▁dona	-11.548
▁pôr	-11.5482
dón	-11.5483
▁cultivada	-11.5484
▁rescat	-11.5485
▁devemos	-11.5491
▁poderosos	-11.5493
rme	-11.5493
▁Tan	-11.5496
▁resistir	-11.5502
▁indicador	-11.5509
organ	-11.5518
eida	-11.5521
▁competi	-11.5521
aram	-11.5522
negro	-11.5523
collida	-11.5529
▁Amb	-11.5529
▁observado	-11.5532
cano	-11.5534
▁Carlom	-11.5534
▁asume	-11.554
▁imposi	-11.5541
▁trouxe	-11.5543
▁Giovann	-11.5545
▁Iniciou	-11.5545
▁académica	-11.5545
▁lóxico	-11.5545
▁minúscula	-11.5545
▁necessário	-11.5545
▁taboleiro	-11.5545
▁xeolóxico	-11.5545
▁pantanos	-11.5545
▁eclipse	-11.5545
▁Exterior	-11.5545
▁asasino	-11.5545
▁lidero	-11.5545
▁interesse	-11.5545
▁Doutor	-11.5546
▁Tempo	-11.5548
▁coração	-11.5548
▁Representante	-11.5551
▁cualificación	-11.5551
ladas	-11.5551
▁adaptada	-11.5553
▁desempeño	-11.5554
ello	-11.5555
eresa	-11.5555
▁referido	-11.5556
▁linguagem	-11.5557
▁larga	-11.5561
▁Gañ	-11.5562
▁Aria	-11.5562
▁visi	-11.5566
▁qualidade	-11.5566
▁colocada	-11.5572
▁Sill	-11.558
▁Claudi	-11.5581
▁comercializa	-11.5585
▁consulta	-11.559
▁disputar	-11.559
ição	-11.5591
venceu	-11.5596
cular	-11.56
▁toman	-11.5604
torial	-11.5604
itanni	-11.5605
▁afectar	-11.561
pul	-11.5612
▁High	-11.5615
ntificado	-11.5615
▁atributo	-11.5615
▁convocou	-11.5615
▁curiosidade	-11.5615
▁dramático	-11.5615
▁invitado	-11.5615
▁repente	-11.5615
▁substituto	-11.5615
▁hexem	-11.5615
▁lomb	-11.5615
▁Figuer	-11.5616
▁That	-11.5616
▁Noutro	-11.5616
▁progresista	-11.5616
▁ingredientes	-11.5617
▁Flavi	-11.5618
▁peche	-11.5618
▁Mc	-11.562
▁Socie	-11.5622
▁superioridade	-11.5623
▁administrada	-11.5624
▁morais	-11.5624
▁feudal	-11.5625
▁permitiulle	-11.5625
▁editada	-11.5625
tua	-11.5627
▁outorgado	-11.5628
▁determinante	-11.5628
▁144	-11.5629
▁seleccionado	-11.563
▁DC	-11.5631
▁vólve	-11.5634
riam	-11.5637
▁narrador	-11.5639
▁integral	-11.5641
▁Sin	-11.5647
PD	-11.5649
▁Principa	-11.5657
▁Circ	-11.5663
▁Charl	-11.5663
▁chegado	-11.5668
▁silencio	-11.568
▁serpe	-11.5686
▁Antigüidade	-11.5687
▁alicerce	-11.5687
▁cervexa	-11.5687
▁inspirou	-11.5687
▁peregrinación	-11.5687
▁romántico	-11.5687
▁diamante	-11.5687
▁Demócrata	-11.5687
▁caracterizou	-11.5687
▁aprendizagem	-11.5687
▁inícia	-11.5687
▁procesión	-11.5688
▁Desenvolve	-11.5693
▁rece	-11.5693
▁Rú	-11.5694
▁crer	-11.5698
▁Sun	-11.5698
▁diferencial	-11.5702
▁operar	-11.5703
▁Executivo	-11.5708
▁presta	-11.5713
▁salón	-11.572
▁busc	-11.5723
▁podiam	-11.5729
▁colaborador	-11.573
grama	-11.5731
▁arquivo	-11.5732
versa	-11.5733
▁mitos	-11.5735
▁rato	-11.5737
▁certamente	-11.5741
elo	-11.5742
gada	-11.5743
▁reúne	-11.5744
▁viola	-11.5745
▁che	-11.5748
▁león	-11.5749
▁pese	-11.5752
gor	-11.5752
▁emerxe	-11.5753
▁Post	-11.5754
▁educado	-11.5756
▁curiosa	-11.5759
▁fantasía	-11.5759
▁Harris	-11.5759
▁estímulo	-11.5759
▁frecha	-11.5759
▁Traballa	-11.576
▁concede	-11.576
▁adecuado	-11.5761
▁castrex	-11.5762
▁Luz	-11.5762
▁consecuente	-11.5763
▁mineiro	-11.5765
▁sepulcro	-11.5766
▁eixe	-11.5766
▁ventr	-11.5767
▁limite	-11.5767
▁profesora	-11.5768
▁pensador	-11.5769
▁Steven	-11.577
tando	-11.5773
▁abdica	-11.5774
▁Dav	-11.5776
▁tecnologias	-11.5785
▁Esse	-11.5791
▁Latino	-11.5804
▁exploradores	-11.5807
▁anal	-11.5807
▁servi	-11.5808
▁fra	-11.5809
▁Wolf	-11.581
ring	-11.5821
untos	-11.5822
▁Pon	-11.5823
▁Das	-11.5824
▁diminuír	-11.5828
púsc	-11.5831
▁alcumad	-11.5831
▁descoberta	-11.5831
▁fármaco	-11.5831
▁indirecta	-11.5831
▁lámpada	-11.5831
▁perímetro	-11.5831
▁profeta	-11.5831
▁sistemática	-11.5831
▁válvula	-11.5831
▁enderezo	-11.5831
▁imposta	-11.5831
▁produtividade	-11.5831
▁antrop	-11.5831
▁roubo	-11.5832
▁consciência	-11.5832
ndres	-11.5832
▁fonda	-11.5833
▁costeiro	-11.5833
▁ofrecen	-11.5836
▁contribuír	-11.5838
▁Sub	-11.5839
▁Serie	-11.5841
▁labrego	-11.5844
▁ingresa	-11.5845
▁instrumental	-11.5845
▁presentaba	-11.5846
▁Anna	-11.5847
▁102	-11.5848
▁encontramos	-11.5848
▁comparado	-11.5848
▁mãos	-11.5852
▁aposta	-11.5853
▁sábe	-11.5856
▁cuidados	-11.5856
▁xerada	-11.5857
▁falou	-11.5857
hu	-11.5858
▁Stu	-11.5861
▁mapas	-11.5864
▁Qui	-11.5864
▁diferenciada	-11.5864
▁amosou	-11.5866
▁conservada	-11.5868
▁estabelecer	-11.587
▁brill	-11.5873
▁Mala	-11.5873
▁excede	-11.5875
nterior	-11.5877
feso	-11.5881
sperma	-11.5882
▁eido	-11.5884
▁nó	-11.589
▁incrementar	-11.5891
▁polio	-11.5893
nell	-11.5895
▁milita	-11.5897
▁recomenda	-11.5897
BM	-11.59
▁envía	-11.5901
cena	-11.5901
▁Declara	-11.5904
▁Guatemala	-11.5904
▁cobertura	-11.5904
▁curtametraxe	-11.5904
▁câmara	-11.5904
▁fígado	-11.5904
▁manhã	-11.5904
▁pedaço	-11.5904
▁reflexo	-11.5904
▁rituais	-11.5904
▁periodic	-11.5904
▁Bohemia	-11.5904
▁Harold	-11.5904
▁prática	-11.5904
▁tardío	-11.5904
▁obrigatoria	-11.5904
▁traxedia	-11.5905
▁Fidel	-11.5905
▁Beck	-11.5905
▁bruto	-11.5905
-200	-11.5905
▁porteiro	-11.5905
▁pescador	-11.5905
▁ret	-11.5906
▁entregou	-11.5906
▁Xiron	-11.5907
▁Zona	-11.5907
▁atacado	-11.5908
▁xesta	-11.5909
▁satisfac	-11.5913
▁arras	-11.5916
▁Marc	-11.5919
▁Dur	-11.5922
▁noven	-11.5924
▁afastar	-11.5927
▁pecha	-11.5927
▁cumpri	-11.5928
▁direitos	-11.593
▁Unida	-11.5932
▁desprazar	-11.5934
▁planea	-11.5934
proximadamente	-11.5935
▁deseñador	-11.5936
-3	-11.5942
▁estará	-11.5946
▁professor	-11.5946
▁polares	-11.5946
agno	-11.5947
▁superan	-11.5948
▁Rede	-11.5949
rroco	-11.595
▁repous	-11.5953
▁xustifica	-11.5956
▁funcion	-11.5957
▁ouvido	-11.5957
▁acreditar	-11.5958
▁detalle	-11.5967
▁formig	-11.5968
lada	-11.5969
▁prova	-11.597
ind	-11.5974
ller	-11.5974
▁concéntra	-11.5978
▁acredito	-11.5978
▁alcaldía	-11.5978
▁emprazamento	-11.5978
▁xesuíta	-11.5978
▁vostede	-11.5978
▁peirao	-11.5978
▁horta	-11.5978
▁nicho	-11.5979
▁Nelson	-11.598
▁benestar	-11.598
oane	-11.5981
▁patrona	-11.5982
▁Estava	-11.5983
▁sobe	-11.5984
dson	-11.5986
▁cabra	-11.5986
▁fotógrafo	-11.5987
tualmente	-11.5987
▁trabalha	-11.5987
▁sentiu	-11.5989
▁Urban	-11.5989
▁luta	-11.5991
ower	-11.5993
▁Industrial	-11.5995
▁pase	-11.5995
▁usá	-11.5997
▁Marqu	-11.6001
▁Licenciad	-11.6004
redo	-11.6004
▁220	-11.6006
▁Hous	-11.6006
ficina	-11.601
lmirant	-11.6011
▁Miran	-11.6014
▁levanta	-11.6016
▁apoiaba	-11.6022
▁Paris	-11.6024
ith	-11.6025
ísm	-11.6027
▁vertica	-11.6027
▁March	-11.6027
▁excluí	-11.603
▁analiza	-11.6032
uve	-11.6032
ivelmente	-11.6032
▁Fam	-11.6034
▁Jr	-11.6034
nexión	-11.6037
▁Kant	-11.6039
ü	-11.6041
▁Mao	-11.6041
volución	-11.6051
▁Apóstolo	-11.6052
▁biodiversidade	-11.6052
▁complemento	-11.6052
▁dinámico	-11.6052
▁monopolio	-11.6052
▁abastece	-11.6052
▁máscara	-11.6052
gunt	-11.6052
▁Operación	-11.6052
▁cachot	-11.6053
▁tinta	-11.6053
▁outorgou	-11.6054
▁descobrimos	-11.6057
▁Fiz	-11.6058
▁vertebrado	-11.6062
▁BB	-11.6063
▁similitude	-11.6064
▁Riva	-11.6065
▁reivindicación	-11.6065
▁tua	-11.6068
▁navarro	-11.607
▁Independente	-11.6073
▁amosar	-11.6073
fendeu	-11.6075
▁multiplica	-11.6076
gel	-11.6081
▁industrializa	-11.6088
▁perseguido	-11.6091
eria	-11.6092
▁ceder	-11.6096
▁Mame	-11.6098
iami	-11.61
▁cobra	-11.6105
ramos	-11.6107
▁verbal	-11.6107
▁conservadora	-11.6112
ntaxe	-11.6114
▁emigr	-11.6115
lim	-11.6115
quer	-11.6118
▁Eslov	-11.6119
imos	-11.6119
▁conmemora	-11.6125
ódigo	-11.6125
▁Nice	-11.6125
▁Líbano	-11.6126
▁academia	-11.6126
▁aleatoria	-11.6126
▁atinxe	-11.6126
▁defensivo	-11.6126
▁hélice	-11.6126
▁mazá	-11.6126
▁nórdico	-11.6126
▁troll	-11.6126
▁voluntaria	-11.6126
▁Ubu	-11.6127
▁diversific	-11.6127
▁insurrec	-11.6127
▁australiana	-11.6127
▁lealdade	-11.6127
▁Young	-11.6127
▁investigação	-11.6129
▁destacable	-11.6129
▁Troi	-11.6129
IC	-11.613
▁Cantábric	-11.613
▁estatísticas	-11.6132
▁116	-11.6133
▁monumental	-11.6134
▁mercadoría	-11.6134
▁Gordo	-11.6134
▁Reich	-11.6134
▁exista	-11.6136
▁Xermánic	-11.6137
uld	-11.6137
▁elixe	-11.6137
spírito	-11.6141
▁coñéce	-11.6148
omeo	-11.6149
▁elector	-11.6149
▁Out	-11.615
▁impar	-11.6152
▁Bada	-11.6152
▁trae	-11.6154
lacant	-11.6155
▁Dio	-11.6158
ebra	-11.6158
▁video	-11.6161
▁ornamenta	-11.6163
▁envolve	-11.6166
▁definiu	-11.6169
▁volven	-11.617
▁interessa	-11.6175
▁dixita	-11.6177
▁Jan	-11.6183
araguai	-11.6185
ji	-11.6185
▁utilízan	-11.6185
penas	-11.6187
▁Had	-11.6191
▁budis	-11.6196
▁clasifica	-11.6196
▁entregar	-11.6197
▁Imperial	-11.6202
▁cardíaco	-11.6202
▁escisión	-11.6202
▁subdivisión	-11.6202
▁Memoria	-11.6202
▁133	-11.6202
▁Carnot	-11.6202
▁Virgin	-11.6202
▁Pompei	-11.6202
▁Moisés	-11.6202
▁exacto	-11.6202
▁geração	-11.6204
▁masivo	-11.6207
▁BM	-11.621
▁Nicol	-11.6211
▁240	-11.6212
▁sabedor	-11.6213
▁Dun	-11.6214
▁afroamericano	-11.6218
▁Tinha	-11.6219
▁estoniano	-11.6219
▁camada	-11.6224
▁protagonistas	-11.6226
▁ecua	-11.623
▁ameazada	-11.6244
▁Sobrad	-11.6246
▁termodinámic	-11.6246
▁secas	-11.6246
▁Isi	-11.625
▁massa	-11.6255
▁constituír	-11.6261
▁protector	-11.6265
▁Gol	-11.6271
▁pato	-11.6274
▁axeitada	-11.6277
▁camisola	-11.6277
▁demográfica	-11.6277
▁escándalo	-11.6277
▁incapaz	-11.6277
▁pulmonar	-11.6277
▁subtropica	-11.6277
▁túmulo	-11.6277
▁visíbe	-11.6277
▁asirio	-11.6278
▁compite	-11.6278
▁dourada	-11.6278
▁prohibida	-11.6278
▁novelista	-11.6278
streito	-11.628
▁maneiras	-11.6281
▁comprobar	-11.6281
▁datada	-11.6281
▁adición	-11.6284
▁oculta	-11.6284
▁corporación	-11.6286
▁ensinou	-11.6289
▁constrúe	-11.6292
dicto	-11.6294
▁ligar	-11.6297
▁naturalmente	-11.63
▁estudios	-11.6301
▁2,5	-11.6303
▁pin	-11.6304
sky	-11.6307
▁agudo	-11.6307
cub	-11.6308
▁fino	-11.6308
▁Gonza	-11.6314
▁valeu	-11.6317
lav	-11.6317
▁xigantes	-11.6317
▁Mid	-11.6318
▁imita	-11.6319
▁contend	-11.6323
▁atravesar	-11.6324
reixa	-11.6328
▁Gau	-11.6328
▁Valencian	-11.633
▁fazia	-11.6334
▁mencionar	-11.6334
▁terminal	-11.6335
egovi	-11.634
ourne	-11.6344
▁xefes	-11.6344
xéne	-11.6345
GT	-11.6346
podo	-11.6349
ö	-11.635
dela	-11.635
▁IP	-11.635
gregación	-11.6351
▁Loi	-11.6353
▁almacén	-11.6354
▁bispado	-11.6354
▁eucalipto	-11.6354
▁frequente	-11.6354
▁interpretou	-11.6354
▁magnética	-11.6354
▁ostrogodo	-11.6354
▁perpendicular	-11.6354
▁sucesivo	-11.6354
▁divina	-11.6354
▁Depende	-11.6354
▁previr	-11.6354
▁Down	-11.6354
▁distância	-11.6354
▁mérito	-11.6354
▁audiovisua	-11.6354
▁consciencia	-11.6354
▁arqui	-11.6355
▁praga	-11.6355
rsal	-11.6356
▁traxe	-11.6359
▁Tale	-11.6359
sunción	-11.636
▁oído	-11.636
▁Torne	-11.6361
▁Puerto	-11.6367
▁North	-11.637
▁Vilal	-11.6373
elfi	-11.6374
▁lidera	-11.6378
▁Quebe	-11.6386
▁vivem	-11.6389
▁Taiw	-11.6391
real	-11.6395
▁fará	-11.6399
▁filia	-11.6402
▁correctamente	-11.6405
▁rodean	-11.6407
hai	-11.6408
▁compre	-11.6411
aldo	-11.6414
▁corta	-11.6414
ibn	-11.6417
▁banca	-11.6417
▁Mit	-11.6425
▁xerado	-11.6425
▁precede	-11.6429
▁auténtica	-11.6431
▁polícia	-11.6431
▁trasláda	-11.6431
▁conservou	-11.6431
▁hóspede	-11.6431
▁angular	-11.6431
▁frauta	-11.6431
▁comprendido	-11.6431
▁ministerio	-11.6431
▁Prado	-11.6431
▁milagre	-11.6432
▁errada	-11.6432
aliya	-11.6432
▁Muro	-11.6433
▁anime	-11.6435
▁uva	-11.6436
▁sint	-11.6436
uck	-11.6437
▁seminario	-11.6438
▁orientado	-11.6438
▁incorporada	-11.6447
xil	-11.6448
▁indu	-11.6449
eta	-11.6451
▁coinciden	-11.6452
▁escolher	-11.6457
▁barón	-11.6457
▁conquistador	-11.6457
▁Austra	-11.646
▁bautizado	-11.6461
▁coco	-11.6468
▁avanzar	-11.6469
▁cega	-11.6469
▁novidade	-11.647
▁conquistado	-11.6473
▁someter	-11.6476
▁adicou	-11.6478
▁minhas	-11.6483
▁fixar	-11.6483
▁depender	-11.6484
▁Ur	-11.6487
▁capitalista	-11.6493
▁Baco	-11.6493
▁Mile	-11.6495
▁Bruc	-11.6507
▁Alcalá	-11.6508
▁Kennedy	-11.6508
▁Oficial	-11.6508
▁Stephen	-11.6508
▁arquitectónica	-11.6508
▁dependía	-11.6508
▁ideolóxica	-11.6508
▁instituições	-11.6508
▁ladrillo	-11.6508
▁metrópole	-11.6508
▁psicolóxico	-11.6508
▁calcaria	-11.6508
▁Exposición	-11.6509
▁enquisa	-11.6509
▁Quanto	-11.6509
▁Risco	-11.6509
▁Sada	-11.6509
▁protagonizada	-11.651
▁cazadores	-11.6512
▁LP	-11.6514
▁Mira	-11.6514
▁tipoloxía	-11.6517
▁Tar	-11.652
▁olho	-11.6523
▁fito	-11.6524
obio	-11.6524
▁estreada	-11.6524
▁Cout	-11.6525
▁suceder	-11.6529
▁garanti	-11.6529
rredor	-11.6531
mica	-11.6539
▁creá	-11.6539
▁manto	-11.6543
▁superado	-11.6546
▁equipado	-11.6547
▁Apolo	-11.6549
▁Clod	-11.6549
▁marcar	-11.655
▁algoritmos	-11.6551
▁Chec	-11.6555
▁talle	-11.6558
tável	-11.6558
▁Teb	-11.6561
▁ATP	-11.6565
rot	-11.6567
▁vota	-11.6568
▁xeolox	-11.6569
▁percebi	-11.6573
▁Camer	-11.6576
▁Transi	-11.6576
▁aproxima	-11.6577
▁imaxina	-11.6577
rix	-11.6579
ávamos	-11.658
▁aulas	-11.658
▁residi	-11.6583
▁usam	-11.6583
▁fragmenta	-11.6586
▁Especial	-11.6586
▁crustáceo	-11.6586
▁helicóptero	-11.6586
▁substitúe	-11.6586
▁sufixo	-11.6586
▁embarazo	-11.6586
▁eliminatoria	-11.6586
fiquei	-11.6586
▁reactor	-11.6587
▁respectivo	-11.6587
▁Comerci	-11.6587
▁máxica	-11.6587
▁Daquel	-11.6588
▁proporcionan	-11.6588
▁Alan	-11.6589
▁pega	-11.6589
▁May	-11.659
▁Museu	-11.6591
▁Grim	-11.6591
▁virxe	-11.6593
▁cruzamento	-11.6594
▁exhibición	-11.6594
▁pulo	-11.6597
▁normativa	-11.6599
▁lanzada	-11.6604
▁média	-11.6607
olução	-11.6607
▁aprecia	-11.6608
tívo	-11.6609
▁quilómetro	-11.6613
▁listaxe	-11.6618
▁inventou	-11.6622
▁reconquista	-11.6628
▁Euro	-11.6629
▁modifica	-11.663
▁autovía	-11.663
▁Lot	-11.6635
▁Flame	-11.6637
▁fluviais	-11.6638
▁Entro	-11.6639
guía	-11.6639
▁intr	-11.6647
▁coller	-11.6651
▁Victor	-11.6657
▁influenciada	-11.6658
▁Ebr	-11.6662
▁defenden	-11.6665
▁Facebook	-11.6665
▁poético	-11.6665
▁Higg	-11.6665
▁Award	-11.6665
▁EEUU	-11.6665
▁acuático	-11.6665
▁Bouza	-11.6665
▁chip	-11.6666
▁aguda	-11.6666
▁faço	-11.6666
▁apresenta	-11.6666
▁projecto	-11.6666
▁montaxe	-11.6667
▁canteira	-11.6667
onostia	-11.667
▁emerxente	-11.6672
▁Sport	-11.6672
▁remoto	-11.6672
▁inaugurad	-11.6673
cida	-11.6677
▁solista	-11.6678
▁significativos	-11.668
forma	-11.6691
▁contracción	-11.6691
▁insisti	-11.6692
▁Lob	-11.6693
▁Asi	-11.6695
▁doméstico	-11.6696
asia	-11.6698
▁Ya	-11.6699
▁atraves	-11.6703
▁Bom	-11.6704
▁usamos	-11.6704
▁quenda	-11.6707
dice	-11.6711
▁mortais	-11.6712
▁padece	-11.6716
▁ostenta	-11.6718
▁Xavi	-11.6718
rquitectura	-11.6719
uce	-11.6721
▁falamos	-11.6725
ufra	-11.6726
▁Avi	-11.6728
▁Clark	-11.6731
▁vocal	-11.6733
▁atleta	-11.6734
▁Banda	-11.6735
▁toleran	-11.6737
▁vindo	-11.6739
▁Comun	-11.6742
▁Band	-11.6744
▁aritmética	-11.6744
▁correspónde	-11.6744
▁demócrata	-11.6744
▁desencade	-11.6744
▁dramaturgo	-11.6744
▁ecolóxico	-11.6744
▁metáfora	-11.6744
▁represénta	-11.6744
▁vasta	-11.6744
▁aspeto	-11.6745
▁Heracl	-11.6745
▁castiñeiro	-11.6745
▁Atene	-11.6745
▁mexicana	-11.6745
▁teólogo	-11.6746
▁escribía	-11.6746
madura	-11.6746
▁arteria	-11.6746
▁maila	-11.6748
▁catedrático	-11.6749
▁retóric	-11.6749
missão	-11.6749
▁Azore	-11.6749
▁pomba	-11.6749
edalla	-11.675
▁comparar	-11.6758
▁Apoll	-11.676
▁posuír	-11.676
▁Ott	-11.6767
▁resta	-11.6769
▁impediu	-11.677
cional	-11.6771
▁intervir	-11.6774
▁Corpo	-11.6778
▁negócio	-11.678
▁Moren	-11.6784
ntena	-11.6786
▁750	-11.6794
▁Matt	-11.6794
▁evacua	-11.6796
▁Ferreiro	-11.6797
▁Nick	-11.6797
▁explora	-11.6798
hec	-11.6799
▁Ah	-11.6804
llas	-11.6804
▁incluían	-11.6813
▁considerábe	-11.6815
ô	-11.6824
wig	-11.6824
▁anfibio	-11.6824
▁bérber	-11.6824
▁nocturna	-11.6824
▁pertenza	-11.6824
▁progresivo	-11.6824
▁razoamento	-11.6824
▁razões	-11.6824
▁simbólico	-11.6824
▁sospeita	-11.6824
▁ameaça	-11.6824
▁traduciu	-11.6824
▁Abraham	-11.6824
▁cadeia	-11.6825
▁falcón	-11.6825
▁rapidez	-11.6825
▁percebe	-11.6825
▁Reforma	-11.6825
▁surpreendente	-11.6825
▁espero	-11.6826
zig	-11.6826
▁podio	-11.6827
▁Andrea	-11.6828
▁expoñente	-11.6828
▁permitido	-11.6829
▁implicado	-11.683
▁dragón	-11.6832
tila	-11.6837
sburgo	-11.6842
▁produção	-11.6842
▁acredita	-11.6844
rote	-11.6846
int	-11.6848
▁etn	-11.685
puxo	-11.6852
timo	-11.6853
▁dist	-11.6853
▁asentar	-11.6855
▁realizaba	-11.6855
▁Camil	-11.6858
▁corno	-11.6859
▁incorporado	-11.6859
▁ligadas	-11.686
▁detención	-11.6861
▁recorre	-11.6865
fectou	-11.6867
ef	-11.6869
▁outorga	-11.6875
rosio	-11.6879
nseca	-11.688
▁produzir	-11.688
▁Catal	-11.688
▁doada	-11.6881
ván	-11.6881
▁aparecía	-11.6883
pureza	-11.6885
▁criaturas	-11.6885
▁Barc	-11.6888
▁subsisten	-11.689
▁Leva	-11.6892
▁obradoiro	-11.6893
historia	-11.6893
▁atribúe	-11.6893
▁recibida	-11.6894
▁conseguia	-11.6895
▁achar	-11.6896
mail	-11.6897
▁limpa	-11.6897
wart	-11.6898
▁Maur	-11.6901
nom	-11.6901
▁debuxa	-11.6902
▁mortal	-11.6902
▁Octavi	-11.6905
▁bairro	-11.6905
▁devanceiro	-11.6905
▁ecolóxica	-11.6905
▁suxeita	-11.6905
▁reproducir	-11.6905
▁divino	-11.6905
▁conceito	-11.6905
▁abreviatura	-11.6905
▁transistor	-11.6905
▁xeada	-11.6906
▁óleo	-11.6906
▁informações	-11.6907
vora	-11.6911
▁astrónomos	-11.6913
▁Belé	-11.6913
▁metano	-11.6915
▁Best	-11.6918
▁Dia	-11.6921
▁preparada	-11.6923
poleto	-11.6924
▁controlaba	-11.6929
▁despraza	-11.6929
▁lexítimo	-11.6931
▁daqueles	-11.6936
▁Chap	-11.6937
▁Calvo	-11.6937
▁documentada	-11.6937
#	-11.6938
orio	-11.694
▁levá	-11.6945
▁regulado	-11.6948
▁agrupad	-11.695
▁engadi	-11.6957
▁z	-11.6958
▁Consta	-11.6959
▁Times	-11.6963
▁forzada	-11.697
▁xura	-11.6973
▁It	-11.6975
ucho	-11.6977
▁soub	-11.6977
▁poli	-11.6982
▁Ramir	-11.6985
▁Jane	-11.6985
▁Kiribati	-11.6986
▁Presidencia	-11.6986
▁Shakespear	-11.6986
▁atribuído	-11.6986
▁botánico	-11.6986
▁convencido	-11.6986
▁campesiña	-11.6986
▁Mongol	-11.6986
▁consisti	-11.6986
▁térmico	-11.6987
▁Saudita	-11.6987
▁Benjam	-11.6987
▁barata	-11.6987
▁Margarida	-11.6988
▁Aleix	-11.6988
▁cheiro	-11.699
▁She	-11.699
▁Portela	-11.6992
è	-11.6992
▁acta	-11.6994
▁puntuación	-11.6996
▁potas	-11.6997
▁transmite	-11.7
ntic	-11.7001
▁compartido	-11.7004
▁Liña	-11.7008
▁Sever	-11.7009
▁concentrar	-11.7012
▁neoclásico	-11.7014
▁sufrimento	-11.7016
▁casada	-11.7017
▁reforzar	-11.7017
tribuíu	-11.702
sider	-11.7028
▁avalia	-11.7028
▁chá	-11.7031
▁Lind	-11.7031
mede	-11.7031
▁One	-11.7036
▁pioneiro	-11.7038
▁tranquil	-11.7044
▁Corre	-11.7049
▁preparado	-11.7052
▁Sacra	-11.7053
anxo	-11.7056
▁moderniza	-11.7057
▁esquecer	-11.7058
▁prohib	-11.7062
ant	-11.7063
▁saco	-11.7066
▁manex	-11.7068
▁beber	-11.7068
▁clasifíca	-11.7068
▁Singapur	-11.7068
▁botánica	-11.7068
▁comprendida	-11.7068
▁idéntico	-11.7068
▁memória	-11.7068
▁monstro	-11.7068
▁restaurado	-11.7068
▁sepultura	-11.7068
▁válida	-11.7068
▁mixto	-11.7068
▁bretón	-11.7068
▁Moldav	-11.7068
▁Balear	-11.7069
▁suburbio	-11.7069
▁directiva	-11.7069
▁Vejam	-11.7069
▁University	-11.7069
▁obrigatorio	-11.7069
cidio	-11.707
▁Agu	-11.707
▁Herman	-11.707
▁vinculada	-11.7072
támos	-11.7072
ich	-11.7073
alo	-11.7073
carta	-11.7074
mio	-11.7078
▁Barca	-11.7087
▁crean	-11.7089
tain	-11.7091
▁ascendente	-11.7093
▁Thi	-11.7093
▁berc	-11.7094
▁construtores	-11.7096
▁raia	-11.7097
▁Nado	-11.7101
▁Ocup	-11.7111
oto	-11.7117
▁acudir	-11.7117
▁pastore	-11.7118
▁Carra	-11.712
▁característicos	-11.7121
▁Audio	-11.7124
▁ánimo	-11.7128
▁Pila	-11.7129
▁devia	-11.7133
▁consecutivos	-11.7142
cur	-11.7147
lhi	-11.7149
▁Detroit	-11.7151
▁catástrofe	-11.7151
▁colisión	-11.7151
▁establéce	-11.7151
▁garantía	-11.7151
▁milímetro	-11.7151
▁rehabilita	-11.7151
▁Toyota	-11.7151
▁preferente	-11.7151
▁fideli	-11.7151
▁estampa	-11.7152
mencl	-11.7152
▁pórtico	-11.7152
▁desigualdade	-11.7152
▁introduce	-11.7152
▁arrestado	-11.7153
▁velho	-11.7153
▁senhor	-11.7154
▁Hog	-11.7156
▁trás	-11.7156
▁reuni	-11.7157
▁Fiste	-11.7158
▁Histórico	-11.7161
▁recto	-11.7161
▁pasto	-11.7162
bondo	-11.7163
▁lenzo	-11.7163
hei	-11.7165
▁queixa	-11.7165
▁conectada	-11.7171
▁ligação	-11.7172
▁veio	-11.7173
▁denso	-11.7175
▁sinto	-11.7175
▁François	-11.7176
▁occitan	-11.7181
▁urban	-11.7184
▁nelas	-11.7185
mira	-11.7196
▁vende	-11.7198
minou	-11.7202
rovenza	-11.7206
▁diferenciado	-11.721
▁bebés	-11.7212
▁Informa	-11.7215
▁adolescente	-11.7215
▁Valentin	-11.722
▁dotado	-11.7229
▁Arco	-11.7232
▁helio	-11.7233
quisición	-11.7234
▁continxente	-11.7234
▁curioso	-11.7234
▁estendé	-11.7234
▁extremidade	-11.7234
▁idéntica	-11.7234
▁longametraxe	-11.7234
▁sensibilidade	-11.7234
▁gastronom	-11.7234
▁traducir	-11.7234
▁Chámase	-11.7234
▁estraña	-11.7234
▁procedía	-11.7235
▁pecado	-11.7235
▁aguia	-11.7235
▁Bayer	-11.7239
▁Cat	-11.7239
▁analizar	-11.7242
▁Hart	-11.7243
ochet	-11.7243
▁Valent	-11.7245
uki	-11.7246
▁xurado	-11.7248
▁suxeriu	-11.7248
tafe	-11.7248
íxer	-11.7249
▁vita	-11.7249
▁104	-11.7252
▁emprende	-11.7255
▁Time	-11.7256
▁fotón	-11.7259
▁recep	-11.7261
▁Bot	-11.7267
▁Sr	-11.7267
▁fórma	-11.7268
ística	-11.7269
▁tratan	-11.7269
▁competidor	-11.727
▁Kim	-11.7271
▁privados	-11.7271
▁Russel	-11.7273
ugia	-11.7273
emen	-11.7279
▁conversas	-11.7285
▁noruegu	-11.7286
▁resultaba	-11.7295
▁far	-11.7299
torga	-11.7301
▁7,	-11.7304
veiro	-11.7308
▁diversa	-11.7309
▁Vela	-11.7309
ática	-11.731
▁comunicado	-11.7311
▁gala	-11.7312
▁intermedia	-11.7318
▁correspondía	-11.7318
▁perspetiva	-11.7318
▁piscina	-11.7318
▁polímero	-11.7318
▁árbitro	-11.7318
▁estuario	-11.7318
▁inflúe	-11.7318
▁acorde	-11.7318
▁inteiro	-11.7318
▁permita	-11.7318
▁fisicamente	-11.7319
▁Í	-11.7319
▁galiña	-11.7319
▁Robin	-11.7319
▁vencido	-11.7319
▁formá	-11.7319
▁escravo	-11.732
▁ratific	-11.732
▁barro	-11.7321
▁exclusivo	-11.7321
▁dianteira	-11.7322
▁convertida	-11.7322
▁pensem	-11.7322
▁frontal	-11.7325
▁animado	-11.7331
▁guan	-11.7333
▁tectónica	-11.7333
▁convidado	-11.7334
▁efectivos	-11.7334
▁parasito	-11.7337
terminación	-11.7338
▁influído	-11.7339
▁bili	-11.7345
ceos	-11.7345
▁tard	-11.7348
▁administrado	-11.7348
▁povo	-11.7355
▁afirmaba	-11.7358
▁perd	-11.7358
▁queira	-11.736
▁UN	-11.7363
tório	-11.7375
▁armadas	-11.7375
iev	-11.738
media	-11.7381
▁estabelece	-11.7382
▁incr	-11.7384
▁visitado	-11.7386
▁deixaba	-11.7387
key	-11.7392
▁rexistrou	-11.7393
▁investir	-11.7393
▁Lor	-11.7393
▁edifício	-11.7394
▁procesado	-11.7399
▁Atlanta	-11.7403
▁desgraza	-11.7403
▁entusiasmo	-11.7403
▁vietnamita	-11.7403
▁valioso	-11.7403
▁ventá	-11.7403
▁feixe	-11.7403
▁promotor	-11.7403
▁inverna	-11.7403
▁incerteza	-11.7403
▁biomas	-11.7403
▁Taboad	-11.7403
▁Plut	-11.7403
▁billón	-11.7404
▁sabio	-11.7404
▁masacre	-11.7404
▁inclusión	-11.7411
▁pane	-11.7415
▁Pie	-11.7415
▁saca	-11.7416
▁asesor	-11.7416
▁Arca	-11.7417
▁Brut	-11.7428
▁sobresae	-11.7428
▁ucraíno	-11.7428
▁vectoria	-11.7429
▁Turí	-11.7429
xar	-11.7431
grán	-11.7432
▁oscilación	-11.7432
▁expulsar	-11.7433
▁noruegues	-11.7436
▁Hé	-11.7439
hel	-11.7441
rís	-11.7442
▁secular	-11.7445
▁maia	-11.7446
▁condiciona	-11.7447
▁velo	-11.745
▁Revolucionari	-11.7451
wi	-11.7453
▁radioactivo	-11.7455
▁Vel	-11.7456
▁solicit	-11.7457
▁neo	-11.7457
▁transportar	-11.7458
vila	-11.7461
▁Zel	-11.7466
▁estrato	-11.7467
ES	-11.7468
▁espa	-11.7468
▁incrementou	-11.747
▁implicación	-11.7471
▁polaca	-11.7473
▁Tesal	-11.7474
▁tea	-11.7476
▁municipalidade	-11.7476
▁esixi	-11.7478
▁Teo	-11.7479
utonomía	-11.7482
ótico	-11.7483
▁disposto	-11.7485
stone	-11.7486
▁enfrontá	-11.7489
▁Empréga	-11.7489
▁acústica	-11.7489
▁constituíndo	-11.7489
▁reliquia	-11.7489
▁reclamo	-11.7489
▁Química	-11.7489
▁etimoloxía	-11.7489
▁ritual	-11.7489
▁agulla	-11.7489
▁Certo	-11.7489
▁esixencia	-11.7489
▁Hayd	-11.7489
▁Programa	-11.7489
▁101	-11.7489
▁supremo	-11.7489
▁ultramar	-11.7489
▁Meridi	-11.749
area	-11.749
▁filha	-11.749
▁estendía	-11.7492
▁xuda	-11.7493
▁prestixioso	-11.7498
▁103	-11.7503
▁Corn	-11.7503
▁cir	-11.7504
▁Froila	-11.7505
▁Parada	-11.751
renal	-11.7512
▁disolveu	-11.7513
▁significar	-11.7514
RC	-11.7514
▁cultivado	-11.7515
ER	-11.7515
▁Lá	-11.7516
▁Gre	-11.7517
▁Vincen	-11.7524
▁atender	-11.7525
▁bilingüe	-11.753
▁holandesa	-11.7534
ámo	-11.7535
▁encabezado	-11.7544
▁Bai	-11.7544
ndy	-11.7545
nor	-11.7547
tava	-11.7547
▁Feder	-11.7549
▁famílias	-11.755
-6	-11.7551
▁mate	-11.7552
▁Ferr	-11.7562
mil	-11.7563
▁Seu	-11.7568
▁Algun	-11.7574
cotiledón	-11.7575
▁móstra	-11.7575
▁Athlet	-11.7575
▁Jazz	-11.7575
▁Lincoln	-11.7575
▁Missouri	-11.7575
▁Século	-11.7575
▁atribuída	-11.7575
▁cardíaca	-11.7575
▁companhia	-11.7575
▁desaparecida	-11.7575
▁monetaria	-11.7575
▁planicie	-11.7575
▁pretensión	-11.7575
tória	-11.7575
▁alusión	-11.7575
▁inercia	-11.7575
▁espiña	-11.7575
▁tambor	-11.7575
▁Inclus	-11.7575
▁revolução	-11.7575
▁indicio	-11.7575
▁arrastra	-11.7576
▁silvestre	-11.7577
▁asimila	-11.7578
▁pagamento	-11.758
▁álx	-11.7582
▁Aquile	-11.7584
▁tellado	-11.7584
▁cultiva	-11.7584
▁edifícios	-11.7584
▁involucrado	-11.7585
▁glaciación	-11.7585
▁Philip	-11.7588
▁criticado	-11.7589
egel	-11.759
▁afeta	-11.7595
suna	-11.7596
▁Pensem	-11.7604
▁pechar	-11.7605
▁Fre	-11.7605
▁talla	-11.7607
▁influír	-11.7608
▁embar	-11.7608
▁preocupado	-11.7608
▁embaixada	-11.761
▁Belgra	-11.7611
▁tarda	-11.7613
▁estelar	-11.7613
▁Hono	-11.7614
▁colle	-11.7618
▁Salmo	-11.7622
▁funcionan	-11.7622
▁celebrá	-11.7622
▁encontrado	-11.763
▁Dioc	-11.763
▁encontran	-11.7639
iller	-11.7641
ncer	-11.7649
▁Deza	-11.765
▁empera	-11.7657
▁luce	-11.7657
▁campan	-11.7661
▁obsérva	-11.7662
▁ocorrido	-11.7662
▁pesqueiro	-11.7662
▁triangular	-11.7662
▁xemelgo	-11.7662
▁Christoph	-11.7662
▁redonda	-11.7662
▁tendência	-11.7662
▁pesqueira	-11.7662
▁essencial	-11.7662
▁incuba	-11.7662
▁rexurdi	-11.7662
▁Labor	-11.7662
▁manten	-11.7662
▁marrón	-11.7662
▁deformación	-11.7662
▁erudito	-11.7663
▁vejo	-11.7665
énico	-11.7668
▁Manet	-11.7668
auber	-11.7668
▁maiúscula	-11.7668
▁predominan	-11.7669
▁Pac	-11.7669
▁Cels	-11.7669
▁biólogo	-11.7672
hy	-11.7675
▁partilha	-11.7676
▁retira	-11.7677
▁Xuv	-11.7678
▁Rui	-11.768
tis	-11.7683
▁comezara	-11.7684
▁cumprimento	-11.7684
▁atacada	-11.7685
▁Conserva	-11.7689
rece	-11.7691
oito	-11.7692
▁escalar	-11.7693
▁xerador	-11.7695
▁acabaría	-11.7696
servatorio	-11.7697
▁Bah	-11.7698
▁Divers	-11.77
X	-11.7702
▁comen	-11.7703
▁leira	-11.7707
nix	-11.7708
▁arame	-11.7708
▁comportamentos	-11.7708
rraca	-11.7708
▁pelota	-11.771
▁Direc	-11.7714
▁Dour	-11.7715
▁prado	-11.7719
sur	-11.7725
▁patrocin	-11.7729
▁Sudá	-11.7732
▁buscan	-11.7733
▁Luci	-11.7737
▁cós	-11.7737
▁Gas	-11.7738
▁pensado	-11.774
▁Mendo	-11.7743
▁fóron	-11.7743
▁asasinar	-11.7744
▁feminis	-11.7746
▁triste	-11.7747
▁considéran	-11.7748
▁deixara	-11.7748
▁Ningué	-11.7749
▁aproveitou	-11.7749
▁esforço	-11.7749
▁evolutivo	-11.7749
▁graduou	-11.7749
▁insulin	-11.7749
▁inventado	-11.7749
▁múltiplo	-11.7749
▁pacífica	-11.7749
▁sánscrit	-11.7749
▁variábe	-11.7749
▁conxuga	-11.7749
▁Comarca	-11.7749
▁restablece	-11.7749
▁rostro	-11.7749
▁esposo	-11.7749
▁ampliou	-11.775
▁dedíca	-11.775
▁guarda	-11.775
▁prohibiu	-11.775
▁instante	-11.7751
▁dispers	-11.7751
▁Ul	-11.7751
▁passei	-11.7752
▁valenciano	-11.7752
org	-11.7752
▁Muita	-11.7753
▁mesturado	-11.7754
▁Castill	-11.7757
▁Ronald	-11.7757
emia	-11.7758
▁conectar	-11.776
▁Lanza	-11.7762
bemos	-11.7764
▁traseira	-11.7766
▁Peña	-11.7767
▁celulares	-11.7768
▁espécies	-11.7769
▁autoriza	-11.7769
▁combinar	-11.7771
▁morrera	-11.7775
▁fomos	-11.7775
▁sanción	-11.7779
mbre	-11.778
▁Mé	-11.7782
▁Libera	-11.7783
▁preparados	-11.7785
▁ras	-11.7789
▁cubo	-11.7791
linio	-11.7791
▁Base	-11.7801
▁traz	-11.7801
irão	-11.7802
vários	-11.7804
▁necesitaba	-11.7807
▁Salt	-11.7811
▁úte	-11.7813
▁neta	-11.7813
▁obes	-11.7815
▁investiga	-11.7823
▁Iber	-11.7824
llan	-11.7829
▁anarquis	-11.7832
▁Pum	-11.7836
▁Eurocopa	-11.7838
▁bárbaro	-11.7838
▁conífera	-11.7838
▁diabetes	-11.7838
▁enerxético	-11.7838
▁escríbe	-11.7838
▁exercía	-11.7838
▁matéria	-11.7838
▁resonancia	-11.7838
▁subxénero	-11.7838
▁tímpano	-11.7838
▁circundante	-11.7838
▁vasto	-11.7838
▁chamába	-11.7838
▁emerxencia	-11.7838
adical	-11.7839
▁compilador	-11.7839
▁recipiente	-11.7839
▁palma	-11.7839
▁proposición	-11.7839
▁diagrama	-11.7839
▁demonstra	-11.7841
▁Aquele	-11.7842
▁Lev	-11.7842
ível	-11.7845
▁comunicação	-11.7846
▁pozo	-11.7849
▁compartida	-11.7849
▁abrigo	-11.7849
lig	-11.7849
▁eslava	-11.785
▁poñendo	-11.7851
▁barba	-11.7852
ete	-11.7853
▁mercar	-11.7856
▁Arsen	-11.7859
reg	-11.786
▁entradas	-11.7861
▁contribui	-11.7862
▁redactor	-11.7862
▁combinada	-11.7863
▁revelar	-11.7876
▁radia	-11.7881
▁programador	-11.7882
▁discutir	-11.7883
▁Cent	-11.7885
▁preguntas	-11.7896
▁administrar	-11.7902
▁Barrio	-11.7903
▁Nai	-11.7905
▁retiro	-11.7907
mud	-11.7908
▁tempora	-11.7909
▁consumidor	-11.791
▁abordage	-11.7911
▁finaliz	-11.7912
win	-11.7913
nocenci	-11.7919
▁bons	-11.7921
kins	-11.7924
síntese	-11.7925
▁Ved	-11.7925
▁hi	-11.7926
▁Había	-11.7927
▁brilhante	-11.7927
▁distintivo	-11.7927
▁hórreo	-11.7927
▁húngara	-11.7927
▁neutro	-11.7927
▁periférico	-11.7927
▁rochosa	-11.7927
▁semicircular	-11.7927
▁simbólica	-11.7927
▁preparou	-11.7927
▁cronista	-11.7927
▁salientable	-11.7927
▁raparigas	-11.7928
▁informativo	-11.793
▁receber	-11.7931
▁Natura	-11.7931
▁camión	-11.7932
tendendo	-11.7934
▁dama	-11.7934
▁chaman	-11.7934
▁provocan	-11.7935
▁mati	-11.7935
▁Obtiv	-11.7936
▁Riba	-11.7936
▁ancián	-11.7937
▁Th	-11.7939
▁fizer	-11.794
▁BD	-11.7941
▁desembarcar	-11.7942
▁esquece	-11.7943
▁semanal	-11.7947
▁napoleónica	-11.7953
▁juntar	-11.7953
▁rio	-11.7956
cuña	-11.7956
vais	-11.7961
euta	-11.7965
▁Pau	-11.7966
▁pré	-11.7967
▁reduci	-11.7968
lém	-11.797
▁chegara	-11.797
▁conversación	-11.7972
▁Brad	-11.7978
▁tentativas	-11.7978
▁Fá	-11.7979
nsito	-11.798
cionario	-11.7988
▁repetida	-11.7991
▁impor	-11.8
▁funcionais	-11.8004
▁Emilia	-11.8005
xente	-11.801
ambul	-11.8011
róximo	-11.8017
▁Vladimir	-11.8017
▁extraterrestre	-11.8017
▁híbrido	-11.8017
▁psicolóxica	-11.8017
▁tsunami	-11.8017
▁vacú	-11.8017
▁vocábulo	-11.8017
▁depredador	-11.8017
▁lugu	-11.8017
▁Bridge	-11.8017
icaragua	-11.8017
▁secuestrado	-11.8017
▁adversario	-11.8017
▁Vanua	-11.8018
▁veleno	-11.8018
▁gozo	-11.8018
▁funerario	-11.8018
▁associa	-11.8018
uwat	-11.8019
▁mês	-11.8019
▁Igna	-11.8019
▁expreso	-11.8019
▁Gilbert	-11.802
quita	-11.802
▁Old	-11.8024
▁repetición	-11.8027
▁aproveitamento	-11.8027
quitan	-11.8029
tío	-11.803
▁botar	-11.8031
nesia	-11.8031
▁transformada	-11.8035
▁Berna	-11.804
▁mutuamente	-11.8043
▁fosfato	-11.8043
▁confirmado	-11.8049
▁deteriora	-11.8049
▁instala	-11.805
▁numerosa	-11.8051
▁precisaba	-11.8053
▁certame	-11.8054
her	-11.8059
▁render	-11.8061
▁cargada	-11.8065
▁Jenn	-11.807
ove	-11.807
▁esquí	-11.807
ranj	-11.8071
▁passou	-11.8076
▁posição	-11.808
▁Pensa	-11.808
▁exce	-11.8081
▁boi	-11.8085
▁puidera	-11.8085
▁reitor	-11.8086
▁presentador	-11.8086
▁queima	-11.8088
▁gañado	-11.8096
▁infinita	-11.8097
cum	-11.81
▁Lua	-11.8105
composición	-11.8107
▁recrea	-11.8108
hídrico	-11.8108
ércul	-11.8108
▁Acordo	-11.8108
▁Izquierd	-11.8108
▁atlántico	-11.8108
▁déficit	-11.8108
▁fonético	-11.8108
▁harmonía	-11.8108
▁informou	-11.8108
▁líquida	-11.8108
▁necrópole	-11.8108
▁pneumático	-11.8108
▁proporcionou	-11.8108
▁billete	-11.8108
génio	-11.8108
▁moble	-11.8109
▁microscopio	-11.8109
▁Studio	-11.8109
▁sobreviventes	-11.8109
▁impresionista	-11.8109
▁xoia	-11.811
▁adicada	-11.8111
▁pó	-11.8111
▁Semana	-11.8111
▁Gius	-11.8111
▁estrito	-11.8113
▁Estrela	-11.8114
▁Dada	-11.8115
▁Bab	-11.8116
▁fuxid	-11.8118
▁especulación	-11.8119
▁Árabe	-11.8119
▁Deixo	-11.8121
▁Camba	-11.8121
▁Patric	-11.8123
▁critica	-11.8128
versão	-11.8129
▁xitano	-11.8131
▁Anta	-11.8135
▁God	-11.8139
▁Feira	-11.814
▁Zo	-11.8141
▁pagán	-11.8145
▁Uxí	-11.815
▁Mercur	-11.8151
▁empate	-11.8157
▁fundi	-11.8159
▁sito	-11.8161
▁xuntar	-11.8162
▁ecolox	-11.8162
▁resultan	-11.8166
mov	-11.8168
ídeo	-11.8169
▁cadra	-11.8171
▁Sei	-11.8173
▁Sm	-11.8174
▁fican	-11.8175
▁Eur	-11.8177
breiro	-11.8177
▁crías	-11.8178
▁Mada	-11.8181
▁estivesse	-11.8183
▁lun	-11.8185
▁baixar	-11.8193
▁linear	-11.8194
▁cur	-11.8194
▁ficam	-11.8194
▁Himalaia	-11.82
▁Papúa	-11.82
▁carecía	-11.82
▁circunscrición	-11.82
▁discrimina	-11.82
▁envío	-11.82
▁hidroeléctrica	-11.82
▁ribosoma	-11.82
▁tempestade	-11.82
▁Tudh	-11.82
▁burro	-11.82
▁Drive	-11.82
▁interferencia	-11.82
▁interesou	-11.8201
▁sensação	-11.8201
▁Morris	-11.8201
▁747	-11.8202
▁debuxante	-11.8203
▁deseñar	-11.8206
bique	-11.8206
▁prob	-11.8207
gart	-11.8207
▁pelexa	-11.8209
▁Pequ	-11.821
cón	-11.821
▁consagrado	-11.8213
▁aspiración	-11.8214
▁Ger	-11.8215
▁conhecido	-11.8216
▁Gö	-11.8216
gula	-11.8219
▁carecen	-11.8219
▁gostam	-11.8221
ax	-11.8222
▁nariz	-11.8223
▁dálle	-11.8225
▁servid	-11.8225
▁curmán	-11.8225
▁supoñen	-11.8226
cencia	-11.8228
▁Film	-11.823
▁Anei	-11.8231
pção	-11.8233
▁Verd	-11.8233
▁opoñente	-11.8236
çam	-11.8236
▁Rich	-11.8242
▁medicamento	-11.8245
SM	-11.8254
ake	-11.8256
estar	-11.8259
▁tumor	-11.8261
ign	-11.8271
▁pudesse	-11.8272
▁escoll	-11.8279
lase	-11.8279
AS	-11.8281
▁ho	-11.8286
▁gozar	-11.8287
▁meteor	-11.8292
▁patria	-11.8293
▁Akhenat	-11.8293
▁Denomína	-11.8293
▁Coñecid	-11.8293
▁Infante	-11.8293
▁Ortega	-11.8293
▁compilación	-11.8293
▁explosivo	-11.8293
▁fusilado	-11.8293
▁rupestre	-11.8293
▁substrato	-11.8293
▁únese	-11.8293
▁Budapest	-11.8293
▁seareiro	-11.8293
▁bélico	-11.8293
▁urbanización	-11.8293
sticio	-11.8294
▁inovação	-11.8294
▁prevista	-11.8295
▁chancel	-11.8296
▁island	-11.8296
▁incapacidade	-11.8297
▁practicar	-11.8297
▁horario	-11.8298
▁rendimento	-11.8298
▁Rubi	-11.8299
ction	-11.8301
▁tardía	-11.8302
▁vermes	-11.8303
▁aprendemos	-11.8305
▁alcanzan	-11.8306
▁termin	-11.8306
▁fracción	-11.8309
▁conhecer	-11.831
quistá	-11.831
▁malas	-11.831
cc	-11.8312
▁Tex	-11.8312
▁magne	-11.8319
▁vea	-11.8319
▁impedi	-11.8319
▁Gan	-11.8322
enstein	-11.8324
▁fixese	-11.8324
▁rexen	-11.8324
▁Dam	-11.8324
▁But	-11.8326
ling	-11.8326
▁compostelá	-11.833
▁triba	-11.833
▁Mayo	-11.8333
▁escur	-11.8334
▁almacenar	-11.8337
ferrad	-11.8338
▁mostraba	-11.8339
▁afasta	-11.8343
▁liso	-11.8343
▁pinta	-11.835
▁Colli	-11.8356
▁Herc	-11.8357
consi	-11.8358
esco	-11.8359
▁genes	-11.8359
▁axudan	-11.8359
TP	-11.8363
▁estepa	-11.8366
▁Industria	-11.8367
▁art	-11.8367
▁abran	-11.8374
▁lentes	-11.8377
razo	-11.8378
ernández	-11.8385
▁Copenhague	-11.8386
▁atraído	-11.8386
▁campus	-11.8386
▁certificado	-11.8386
▁direita	-11.8386
▁endémica	-11.8386
▁prexuízo	-11.8386
▁propicio	-11.8386
▁cozinha	-11.8386
▁restaurar	-11.8386
▁comprou	-11.8386
▁cognitiva	-11.8386
▁Salvat	-11.8386
▁fervenza	-11.8386
▁escudería	-11.8387
▁Machine	-11.8387
▁amostra	-11.8388
▁prominente	-11.8388
▁polinesi	-11.8388
▁pensá	-11.8388
▁Life	-11.8389
▁terríve	-11.8389
▁pasada	-11.839
ciente	-11.8392
▁voceiro	-11.8393
▁Java	-11.8393
▁Punt	-11.8393
▁aviso	-11.8396
▁peseta	-11.8396
▁cinzas	-11.8397
▁Caraca	-11.8397
▁acordou	-11.8399
▁Main	-11.8401
▁Hesse	-11.8402
▁Stew	-11.8403
▁pretendente	-11.8405
▁monárquico	-11.8407
▁imitación	-11.8408
▁criada	-11.8411
▁Pesca	-11.8411
▁Gor	-11.8413
▁caen	-11.8415
▁estimado	-11.8417
▁Somo	-11.8417
▁comenta	-11.8418
▁Monter	-11.8418
▁albanes	-11.8421
▁precisar	-11.8425
▁temor	-11.8428
▁qué	-11.8433
▁Naval	-11.8434
orn	-11.8436
▁cloro	-11.8439
▁estudada	-11.8443
▁carte	-11.8443
vidos	-11.8447
▁Mend	-11.8451
rixid	-11.8451
▁Xén	-11.8453
ágora	-11.8454
▁gobernaba	-11.8457
▁fé	-11.8457
▁construí	-11.8461
▁reacciona	-11.8461
americana	-11.8462
▁investido	-11.8463
▁Encontr	-11.8466
▁Margar	-11.8466
▁Rev	-11.8467
▁produza	-11.8475
arte	-11.8476
▁integr	-11.8479
▁Corpora	-11.8479
chéga	-11.848
▁Agosti	-11.848
▁apercebe	-11.848
▁astronómico	-11.848
▁carbonato	-11.848
▁mosaico	-11.848
▁mártir	-11.848
▁rochoso	-11.848
▁Church	-11.848
▁cornixa	-11.848
▁vírus	-11.848
▁cinética	-11.848
▁Certa	-11.8481
▁gasolin	-11.8481
▁Tasman	-11.8481
rnst	-11.8481
▁agrario	-11.8482
▁solicitar	-11.8482
▁sublevado	-11.8482
▁leváron	-11.8484
▁abstracta	-11.8484
▁foxo	-11.8484
▁túa	-11.8485
▁linda	-11.8485
▁Mik	-11.8486
IA	-11.8487
▁faceta	-11.8487
▁Cruzada	-11.8488
▁observatorio	-11.849
▁navegar	-11.8491
▁remo	-11.8491
▁léva	-11.8495
▁começam	-11.8495
▁Laura	-11.8497
▁dianteiro	-11.8498
▁Tir	-11.8501
▁Wal	-11.8502
▁ordenada	-11.8503
MI	-11.8504
▁pronunciado	-11.8507
▁Flores	-11.8507
▁perden	-11.8508
upe	-11.8508
▁reparar	-11.851
rne	-11.8515
▁despedido	-11.8519
▁Casal	-11.8521
▁Mad	-11.8522
▁Magn	-11.8523
▁Will	-11.8527
▁ganhar	-11.853
▁Tong	-11.8531
▁Vale	-11.8534
▁compostelán	-11.8537
▁inclusiv	-11.8541
▁caca	-11.8542
CP	-11.8544
▁construtor	-11.8544
▁queren	-11.8547
▁dança	-11.8554
▁glaciar	-11.8555
▁serviços	-11.8556
▁lutar	-11.8559
▁fórman	-11.856
▁suficientes	-11.8565
▁franqu	-11.8566
▁limi	-11.8567
▁defini	-11.8569
▁elevados	-11.857
▁inmedia	-11.8572
quino	-11.8572
lock	-11.8572
onstitucional	-11.8574
▁centrá	-11.8576
▁Metropolitan	-11.8576
▁ameixa	-11.8576
▁bloco	-11.8576
▁cabina	-11.8576
▁maioritario	-11.8576
▁retirá	-11.8576
▁rinoceronte	-11.8576
▁tecnolóxica	-11.8576
▁situou	-11.8576
▁Deixem	-11.8576
▁Tes	-11.8576
▁detallada	-11.8576
▁Pastor	-11.8576
▁Jeff	-11.8576
▁ultra	-11.8576
▁cranio	-11.8577
▁esgota	-11.8578
▁abstracto	-11.8579
▁Burt	-11.8579
orri	-11.858
▁dispostos	-11.858
▁Chad	-11.858
▁alelo	-11.858
▁entrevistas	-11.8582
▁cruel	-11.8582
▁Saga	-11.8582
▁retina	-11.8582
▁láser	-11.8583
▁procedencia	-11.8584
▁consentimento	-11.8586
▁instalada	-11.8586
▁funcionalidade	-11.8586
▁comparada	-11.8589
▁evolucionar	-11.8591
▁lar	-11.8593
▁SS	-11.8594
▁actuaba	-11.8597
▁Olive	-11.8597
▁coala	-11.8605
▁230	-11.8606
▁Vers	-11.8607
▁aleta	-11.8617
▁avenida	-11.8619
▁et	-11.862
▁Cibr	-11.8621
▁contrasta	-11.8621
▁ist	-11.8621
▁episcopa	-11.8622
▁Sarri	-11.8624
▁tá	-11.8625
▁provocado	-11.8626
▁negócios	-11.8629
▁Dona	-11.8631
▁Mat	-11.8633
toba	-11.8633
▁xogaba	-11.8634
▁xesto	-11.8634
▁magnet	-11.8647
▁precedente	-11.8648
rbona	-11.8671
ópteros	-11.8672
▁Puebl	-11.8672
▁accidentad	-11.8672
▁agasallo	-11.8672
▁coloquial	-11.8672
▁consequência	-11.8672
▁construção	-11.8672
▁créa	-11.8672
▁fotográfica	-11.8672
▁instaura	-11.8672
▁pianista	-11.8672
▁tridimensiona	-11.8672
▁Freud	-11.8672
▁valiosa	-11.8672
▁óptico	-11.8672
▁castaño	-11.8672
▁Converte	-11.8672
▁hidrográfica	-11.8672
rtiza	-11.8672
▁mistura	-11.8672
▁Nuev	-11.8672
▁céu	-11.8672
▁pronome	-11.8672
lmí	-11.8672
▁humanista	-11.8672
▁filtro	-11.8672
▁mouro	-11.8672
▁emenda	-11.8673
pkins	-11.8674
▁Román	-11.8674
▁proviña	-11.8674
▁malária	-11.8674
▁Dominica	-11.8675
▁cónta	-11.8675
▁Regres	-11.8677
▁Khan	-11.8679
▁admite	-11.868
▁devolver	-11.868
▁Magda	-11.8684
nesse	-11.8684
▁Tanz	-11.8684
▁brutal	-11.8685
▁transferido	-11.8685
▁Mariño	-11.8687
AR	-11.8689
▁Liv	-11.869
▁Wol	-11.8693
▁adapta	-11.87
▁rápidos	-11.8702
▁federa	-11.8705
▁renome	-11.8707
tores	-11.871
▁caixas	-11.8711
▁ecuatoria	-11.8713
▁Espart	-11.8713
lot	-11.8713
▁anunciar	-11.8715
▁organização	-11.8723
▁ánim	-11.8724
▁señoria	-11.8729
jar	-11.8732
isario	-11.8734
abilidade	-11.8738
▁elabora	-11.874
▁executados	-11.8742
coñécese	-11.8743
ush	-11.8753
▁crente	-11.8755
▁Gai	-11.8757
▁troca	-11.8759
doto	-11.8761
▁déron	-11.8762
ategoría	-11.8768
▁desintegra	-11.8769
}	-11.8769
▁ficticio	-11.8769
▁herexía	-11.8769
▁pantalón	-11.8769
▁sintético	-11.8769
▁bordea	-11.8769
▁rexemento	-11.8769
▁racial	-11.8769
▁Evanxeo	-11.8769
▁colocá	-11.8769
▁Pipin	-11.8769
▁Pronto	-11.8769
▁goma	-11.8769
▁Permane	-11.8769
▁presentá	-11.877
▁liberta	-11.8772
▁rendeu	-11.8773
▁Zen	-11.8773
▁Lope	-11.8774
▁regulamento	-11.8774
▁inaugurada	-11.8774
▁ordenamento	-11.8775
▁cinc	-11.8776
▁centrado	-11.8777
▁chámaselle	-11.8777
▁manifestou	-11.8778
▁conceptual	-11.8785
▁ramo	-11.8787
▁daría	-11.8788
▁avaliación	-11.879
▁Planta	-11.8792
▁apuntado	-11.8794
▁métrica	-11.8794
▁pratica	-11.8795
▁má	-11.8797
▁marcador	-11.8798
▁cubano	-11.8802
uten	-11.8802
▁governos	-11.8808
▁liberada	-11.881
▁concorda	-11.8814
▁centenar	-11.8818
▁transportado	-11.8819
▁Anto	-11.8821
ascar	-11.8824
▁conxela	-11.8827
▁descobri	-11.883
▁irregulares	-11.8833
▁porquê	-11.8833
▁entro	-11.8835
mediatamente	-11.8837
▁ignor	-11.8843
▁administra	-11.885
▁post	-11.8855
▁prostitu	-11.8856
unqueira	-11.8856
▁excelen	-11.8861
amaica	-11.8863
▁habe	-11.8864
▁inventar	-11.8865
▁achegado	-11.8865
▁folcl	-11.8867
▁Cabaleiro	-11.8867
▁Círculo	-11.8867
▁candidata	-11.8867
▁compartía	-11.8867
▁controvertida	-11.8867
▁decorativo	-11.8867
▁estético	-11.8867
▁institucional	-11.8867
▁mandíbula	-11.8867
▁mítico	-11.8867
▁evolução	-11.8867
▁fascismo	-11.8867
▁reconstruír	-11.8867
▁cálida	-11.8867
▁prefixo	-11.8867
▁revé	-11.8867
▁alongada	-11.8867
▁bautism	-11.8867
▁érgue	-11.8867
▁glori	-11.8867
▁executa	-11.8868
▁tórna	-11.8868
▁mantida	-11.8868
▁fenda	-11.8869
▁carteira	-11.8869
▁ignora	-11.8872
▁semanario	-11.8873
continente	-11.8873
▁Court	-11.8874
▁taxi	-11.8874
▁Good	-11.8875
▁Br	-11.8875
▁Carva	-11.8875
▁Protec	-11.8876
util	-11.8877
▁enlaza	-11.8878
dán	-11.8879
▁rug	-11.888
rús	-11.888
▁fecunda	-11.888
▁consumir	-11.8881
lava	-11.8883
▁debilita	-11.8884
▁causante	-11.8886
▁recomendación	-11.8891
▁tango	-11.8893
▁Cup	-11.8894
tección	-11.8894
▁Har	-11.8897
lorado	-11.8898
▁Fan	-11.8899
▁Segura	-11.8901
piro	-11.8901
▁indicación	-11.8902
idas	-11.8904
dC	-11.8906
▁Pond	-11.8906
▁determinan	-11.8909
rid	-11.8911
lum	-11.8913
▁recorrer	-11.8914
▁Queen	-11.8914
▁trab	-11.8915
▁dé	-11.8916
lta	-11.8916
▁Amen	-11.8916
▁decae	-11.8918
▁Dé	-11.8919
▁comezaría	-11.8922
▁pilota	-11.8927
▁Nem	-11.8928
arco	-11.8928
▁Hunt	-11.8929
▁zume	-11.8929
▁Buda	-11.893
▁irmão	-11.8931
▁estudaba	-11.8934
iens	-11.8935
▁gozaba	-11.8935
▁conheci	-11.8938
▁moleculares	-11.8944
▁Agui	-11.8948
uru	-11.8951
▁Marian	-11.8952
▁patro	-11.8964
▁impren	-11.8964
▁Caracteríza	-11.8966
▁Recibe	-11.8966
▁cidadãos	-11.8966
▁compañeira	-11.8966
▁dedicá	-11.8966
▁enfrónta	-11.8966
▁gripe	-11.8966
▁ibérico	-11.8966
▁inimiga	-11.8966
▁invertebrad	-11.8966
▁olímpica	-11.8966
▁padrão	-11.8966
▁perpetua	-11.8966
▁prehistórico	-11.8966
▁proteger	-11.8966
▁suplemento	-11.8966
▁terciario	-11.8966
▁numérico	-11.8966
▁depressa	-11.8966
▁Monumento	-11.8966
▁empeor	-11.8966
▁vingan	-11.8966
▁Tíbe	-11.8966
▁Xuventude	-11.8966
▁autobiograf	-11.8966
▁Administrativa	-11.8966
▁Anthon	-11.8967
▁compaixão	-11.8968
▁embrión	-11.8969
▁centenario	-11.8971
▁pesa	-11.8971
▁reconhecer	-11.8975
zbequ	-11.8975
▁ascendido	-11.8977
▁imparti	-11.898
▁gramatical	-11.8983
▁confirmar	-11.8984
▁sumerio	-11.8986
▁cómic	-11.899
burg	-11.8991
▁criminal	-11.8992
▁replica	-11.8994
▁han	-11.8997
▁construíndo	-11.9002
▁demora	-11.9005
▁escritorio	-11.9011
▁Pand	-11.9014
▁Disp	-11.9023
ritz	-11.9024
▁diria	-11.904
▁árvores	-11.9042
▁Barri	-11.9046
▁existencial	-11.9047
▁Ner	-11.9054
▁reorganiza	-11.9056
▁reivindica	-11.9056
▁agarda	-11.9063
▁rapariga	-11.9065
ground	-11.9066
▁acompañou	-11.9066
▁austríaca	-11.9066
▁cheminea	-11.9066
▁descríbe	-11.9066
▁galáxia	-11.9066
▁inglês	-11.9066
▁invernadoiro	-11.9066
▁madrugada	-11.9066
▁perfeita	-11.9066
▁primordial	-11.9066
▁solucionar	-11.9066
▁telemóvel	-11.9066
▁banana	-11.9066
▁terrible	-11.9066
▁convocatoria	-11.9066
▁extinta	-11.9066
▁Crónica	-11.9066
▁bula	-11.9066
▁condições	-11.9066
▁válido	-11.9066
▁Bank	-11.9066
▁elenco	-11.9066
▁berro	-11.9066
▁galaico	-11.9066
▁cristalino	-11.9067
▁poliniza	-11.9067
▁Freire	-11.9069
▁Savo	-11.907
▁abdom	-11.9071
▁supervis	-11.9072
▁mensual	-11.9075
▁cuarteto	-11.9075
▁Aliado	-11.9075
▁cualificado	-11.9076
▁reparación	-11.9076
oalición	-11.9076
▁apart	-11.9077
▁vice	-11.9079
▁pintada	-11.908
▁transmitido	-11.908
▁ilustra	-11.908
▁Shi	-11.9081
▁probou	-11.9081
▁come	-11.9086
▁Trent	-11.9087
▁recebe	-11.9087
▁acumula	-11.9088
▁indoeuropeo	-11.9088
▁270	-11.909
▁viñer	-11.909
▁cicl	-11.9103
▁leg	-11.9104
▁gen	-11.9106
etano	-11.9112
▁Christi	-11.9115
▁Mau	-11.9118
▁Villar	-11.9119
▁Capa	-11.9127
400	-11.9136
▁ordenar	-11.9137
▁Obra	-11.9139
▁Honori	-11.914
▁360	-11.9145
▁Albu	-11.9148
▁estaleiro	-11.9153
edade	-11.9155
▁organizador	-11.9158
▁Human	-11.9161
xenes	-11.9162
▁Polic	-11.9163
ssion	-11.9165
edro	-11.9165
éxime	-11.9167
▁Berk	-11.9167
▁Charlotte	-11.9167
▁Wikipedia	-11.9167
▁carballeira	-11.9167
▁cinematográfico	-11.9167
▁desacordo	-11.9167
▁dialecta	-11.9167
▁dificuldade	-11.9167
▁ecrã	-11.9167
▁enerxética	-11.9167
▁explicou	-11.9167
▁ilegais	-11.9167
▁ilusión	-11.9167
▁inconsciente	-11.9167
▁sozinho	-11.9167
▁unificado	-11.9167
▁Atlétic	-11.9167
▁aborixe	-11.9167
▁decorada	-11.9167
▁mascota	-11.9167
▁cineasta	-11.9167
▁adhesión	-11.9167
▁decisão	-11.9167
▁fermentación	-11.9167
▁Bryan	-11.9167
▁acontecido	-11.9167
▁destrui	-11.9168
▁solidariedade	-11.9168
▁Musso	-11.9168
▁sério	-11.9169
▁afiliado	-11.9169
▁elegante	-11.917
▁trazer	-11.917
▁pH	-11.9171
▁lendario	-11.9172
▁sopa	-11.9174
uma	-11.9176
actitude	-11.9176
concerto	-11.9176
▁Joy	-11.9177
▁Damas	-11.9178
▁enseada	-11.918
▁Mostra	-11.918
robable	-11.918
▁salin	-11.9182
hol	-11.9182
▁escapa	-11.9185
vivencia	-11.9187
▁pintado	-11.9189
▁estoup	-11.9189
▁saiu	-11.9191
▁xenérico	-11.9191
▁Abel	-11.9195
▁Meir	-11.9195
viron	-11.9197
▁reclamación	-11.9197
▁anano	-11.9198
▁hote	-11.9201
▁pide	-11.9201
▁Cine	-11.9205
▁parecem	-11.9215
▁ganha	-11.9216
▁mai	-11.9218
▁vivemos	-11.922
▁plásticos	-11.9223
▁proceder	-11.9224
moción	-11.923
▁simetr	-11.923
▁Pereira	-11.9236
▁Josh	-11.924
▁Tet	-11.9241
▁metalur	-11.9242
▁achegas	-11.9243
alia	-11.925
▁configura	-11.9251
queira	-11.9252
▁fertili	-11.9263
▁reto	-11.9266
▁Humb	-11.9267
trapa	-11.9268
▁Bol	-11.9268
óveda	-11.9268
▁intui	-11.9269
▁diríxe	-11.9269
▁amósa	-11.9269
▁bactéria	-11.9269
▁batallón	-11.9269
▁discográfico	-11.9269
▁drasticamente	-11.9269
▁estómago	-11.9269
▁néboa	-11.9269
▁produtiva	-11.9269
▁repoboa	-11.9269
▁vulnerable	-11.9269
▁orgullo	-11.9269
▁camiseta	-11.9269
▁casual	-11.9269
▁repite	-11.9269
▁lagarto	-11.9269
▁colmea	-11.9269
▁astronauta	-11.9269
▁procuro	-11.9269
▁contradición	-11.9269
▁limpo	-11.9269
▁fiable	-11.927
▁carencia	-11.927
▁encarna	-11.9272
weal	-11.9272
gli	-11.9273
atro	-11.9273
▁remota	-11.9275
▁Dez	-11.9276
▁derrotada	-11.9277
▁mobilización	-11.9279
video	-11.9279
▁crema	-11.928
▁optou	-11.9282
▁quilos	-11.9283
tag	-11.9283
▁úsan	-11.9283
▁Roman	-11.9284
▁especificación	-11.9284
▁colega	-11.9284
▁sufría	-11.9288
lul	-11.9294
▁licenciou	-11.9299
▁trío	-11.9302
▁Act	-11.9306
▁incerta	-11.9312
udio	-11.9314
▁capturada	-11.9314
▁Fermi	-11.9316
▁Vim	-11.9317
▁divisa	-11.9318
▁peón	-11.9318
▁Coto	-11.9321
▁Onda	-11.9323
rdena	-11.9326
▁Principal	-11.9327
▁Tok	-11.9331
▁astro	-11.9334
▁Cristian	-11.9334
▁cabid	-11.9334
enlle	-11.9335
enfe	-11.934
▁Toma	-11.9342
▁estabeleceu	-11.9343
▁leu	-11.9345
▁film	-11.9347
zaro	-11.935
▁montar	-11.9351
▁tratando	-11.9353
▁Sist	-11.9354
▁multinaciona	-11.9356
▁tratada	-11.9358
▁obrigación	-11.9358
▁disputado	-11.9366
▁organíza	-11.9372
bkhaz	-11.9372
▁Globo	-11.9372
▁Número	-11.9372
▁interrupción	-11.9372
▁meteorolóxica	-11.9372
▁restaurada	-11.9372
▁sinfonía	-11.9372
▁genoma	-11.9372
▁milhão	-11.9372
▁Berengue	-11.9372
▁Ingres	-11.9372
▁fermoso	-11.9372
▁pechou	-11.9372
▁braço	-11.9372
▁extinto	-11.9372
▁escama	-11.9372
▁Girl	-11.9372
▁René	-11.9372
▁terminais	-11.9373
▁Salced	-11.9373
▁imaxinario	-11.9375
▁hemo	-11.9375
▁Marcia	-11.9376
▁Humanos	-11.9376
▁dezase	-11.9377
▁convocado	-11.938
▁corvo	-11.938
▁particularidade	-11.9381
▁alerta	-11.9382
▁Caban	-11.9387
elixido	-11.9388
▁dispersa	-11.9393
▁Sla	-11.9395
▁fur	-11.9397
▁celo	-11.9401
▁Compar	-11.9408
▁deixado	-11.9408
▁telefone	-11.941
pirit	-11.9412
▁financeiras	-11.9412
▁vestir	-11.9414
▁agua	-11.9416
▁Sociedad	-11.9419
▁Lav	-11.9422
▁Xust	-11.9424
dar	-11.9426
▁regres	-11.9428
▁concentrado	-11.9433
▁fossem	-11.9433
gang	-11.9434
▁dificulta	-11.9437
▁Sabi	-11.944
▁Quiz	-11.9443
▁Area	-11.9443
tela	-11.9444
▁bri	-11.9446
▁Pois	-11.9448
▁Barb	-11.9453
▁Casp	-11.9456
stein	-11.946
▁imperia	-11.9461
▁escap	-11.9462
▁Trac	-11.9465
▁permanen	-11.9469
▁ní	-11.947
ä	-11.9474
nome	-11.9474
▁traxecto	-11.9475
mini	-11.9475
▁Chamberl	-11.9476
▁Little	-11.9476
▁ambición	-11.9476
▁clínico	-11.9476
▁desafío	-11.9476
▁luteran	-11.9476
▁adheri	-11.9476
▁lexitim	-11.9476
▁parcela	-11.9476
▁Brooklyn	-11.9476
▁fraude	-11.9476
▁cartucho	-11.9476
▁raposo	-11.9476
▁terreno	-11.9476
▁biologia	-11.9477
▁mobilidade	-11.9477
hans	-11.9477
ngola	-11.9477
▁diagona	-11.9477
▁Spu	-11.9477
▁mantido	-11.9478
▁creativa	-11.9479
vidade	-11.9479
▁Night	-11.948
▁furado	-11.9481
▁sonoro	-11.9481
▁dispostas	-11.9482
▁lucense	-11.9483
ese	-11.9483
▁transmitida	-11.9484
▁Mora	-11.9484
▁maxistrado	-11.9484
bea	-11.9485
▁brando	-11.9485
▁CIA	-11.9486
reb	-11.9487
▁cometido	-11.9488
Q	-11.9488
▁mansión	-11.9494
▁cronolox	-11.9495
▁Fire	-11.9497
▁coello	-11.9498
▁criatura	-11.9503
▁pinto	-11.9508
▁Part	-11.9508
▁Georg	-11.9509
▁avaliar	-11.9509
dore	-11.9511
penha	-11.9512
agre	-11.9512
▁portuaria	-11.9517
raña	-11.9517
▁relacionar	-11.9518
yd	-11.9523
▁acordar	-11.9523
▁morren	-11.9525
▁Lour	-11.9533
▁identificada	-11.9535
▁Dei	-11.9535
▁avanz	-11.9545
▁estaciona	-11.9548
▁araña	-11.9549
brindo	-11.9552
▁barreiras	-11.9554
▁Muñ	-11.9558
▁perla	-11.9561
▁practicante	-11.9565
ndido	-11.9566
▁hábitos	-11.9567
aju	-11.9567
▁internado	-11.9571
▁Monterre	-11.9571
▁bloqueo	-11.9573
fina	-11.9574
▁Vanc	-11.9578
▁Gene	-11.9579
lógico	-11.9581
▁menstrua	-11.9581
▁bolboreta	-11.9581
▁helenístic	-11.9581
▁logaritmo	-11.9581
▁lucro	-11.9581
▁lípido	-11.9581
▁minoritaria	-11.9581
▁naufraxio	-11.9581
▁permanecía	-11.9581
▁romántica	-11.9581
▁tripulante	-11.9581
▁Spring	-11.9581
▁vicerrei	-11.9581
▁Ruanda	-11.9581
▁charla	-11.9581
▁Bagdad	-11.9582
▁iría	-11.9582
▁chão	-11.9582
▁Óscar	-11.9582
▁caloroso	-11.9582
▁Deporte	-11.9582
ílico	-11.9582
▁armadura	-11.9583
▁Gates	-11.9583
gger	-11.9584
▁valid	-11.9585
▁Méri	-11.9587
▁Salón	-11.9587
▁apropiado	-11.9587
▁nula	-11.9588
▁comisario	-11.9588
▁cubría	-11.9588
▁procesador	-11.959
▁compá	-11.9592
▁sobreviven	-11.9593
▁Cabra	-11.9593
▁molde	-11.9594
▁saiba	-11.9595
▁host	-11.9596
▁consagra	-11.9598
▁Mill	-11.9599
▁gui	-11.9603
ssex	-11.9604
▁poderiam	-11.9605
eptu	-11.9607
▁funcionam	-11.9612
▁verificar	-11.9614
▁observada	-11.9615
▁reclamar	-11.9616
▁irmã	-11.9618
rrib	-11.962
▁baseou	-11.9622
▁cente	-11.9622
garden	-11.9623
▁docente	-11.9625
▁AP	-11.9628
▁eleva	-11.963
▁bocado	-11.9636
▁importar	-11.9637
▁expectativas	-11.9639
▁consolidar	-11.9639
lecer	-11.9643
lyn	-11.9646
▁convenciona	-11.9661
▁neerlandes	-11.9662
▁eminente	-11.9663
▁dominaba	-11.9664
▁vin	-11.9665
▁sagrada	-11.9666
▁descansa	-11.9669
▁encaixa	-11.967
▁Acer	-11.9671
SA	-11.9677
▁preven	-11.9679
vira	-11.9681
órni	-11.9684
▁Tomá	-11.9685
▁publíca	-11.9688
▁Descobri	-11.9688
▁anglosaxón	-11.9688
▁controvertido	-11.9688
▁cúbico	-11.9688
▁imposíbe	-11.9688
▁perpiaño	-11.9688
▁Têm	-11.9688
▁agradece	-11.9688
▁roedor	-11.9688
▁decisões	-11.9688
▁dolmen	-11.9688
▁obteñ	-11.9688
▁Matemática	-11.9688
▁fósforo	-11.9688
▁Bolív	-11.9689
▁filamentos	-11.9689
▁veciñanza	-11.9689
▁calcúla	-11.969
▁gelo	-11.969
▁inestable	-11.969
▁informar	-11.9692
▁circo	-11.9692
▁gandeira	-11.9693
▁equ	-11.9693
▁impresionante	-11.9694
▁trasladada	-11.9694
▁abondosa	-11.9695
▁referida	-11.9697
▁pausa	-11.9697
eppe	-11.9697
▁mosquitos	-11.9698
▁soci	-11.97
▁xusta	-11.9703
▁Alvar	-11.9704
▁concentrada	-11.9704
▁esloveno	-11.9706
▁pól	-11.9707
▁Carballi	-11.9708
llada	-11.9708
▁frac	-11.9709
▁Gr	-11.9709
▁Xesu	-11.9713
▁Ferreir	-11.9716
▁asocia	-11.9716
▁tornam	-11.9717
▁Milan	-11.9717
▁Via	-11.9719
▁enferma	-11.9719
bage	-11.972
▁Rica	-11.9721
▁Debut	-11.9723
▁fisi	-11.9727
▁pioneiros	-11.9728
▁grel	-11.9731
▁exercida	-11.9731
tividade	-11.9731
▁cata	-11.9734
▁persegui	-11.9736
▁queimar	-11.9737
▁fich	-11.9737
▁Esquer	-11.9739
squerda	-11.9741
▁coca	-11.9741
▁Anne	-11.9744
hard	-11.9745
▁Mach	-11.9747
▁-1	-11.975
▁visitada	-11.9753
▁conduzir	-11.9754
▁Josep	-11.9755
▁devo	-11.976
lsto	-11.9762
▁Im	-11.9765
▁Arg	-11.9767
▁Associat	-11.9769
▁Cuart	-11.9771
▁entraba	-11.9776
venida	-11.9776
azor	-11.9779
vía	-11.9781
▁PN	-11.9783
▁Claud	-11.9784
▁saltar	-11.9784
zán	-11.9784
▁morcegos	-11.9791
▁alban	-11.9792
▁viría	-11.9795
▁iniciá	-11.9795
▁Bangladesh	-11.9795
▁Constitúe	-11.9795
▁apéndice	-11.9795
▁artefacto	-11.9795
▁asegurou	-11.9795
▁catarata	-11.9795
▁clasificou	-11.9795
▁cromat	-11.9795
▁diacrítico	-11.9795
▁gigante	-11.9795
▁impossível	-11.9795
▁monopraza	-11.9795
▁nebulosa	-11.9795
▁propriedade	-11.9795
▁recoñecía	-11.9795
▁vértice	-11.9795
▁agresión	-11.9795
▁mixta	-11.9795
▁aldeia	-11.9795
▁analítica	-11.9795
▁monxa	-11.9795
▁estimou	-11.9796
▁montanha	-11.9796
▁Foot	-11.9796
▁automaticamente	-11.9796
urbio	-11.9796
▁automática	-11.9796
▁amorosa	-11.9796
▁predición	-11.9796
▁acima	-11.9796
▁encontrei	-11.9797
▁Road	-11.9797
▁ausente	-11.9798
▁Fene	-11.9798
▁Heró	-11.9798
▁ofrecía	-11.9799
▁malaria	-11.9799
▁divisor	-11.9799
▁africanas	-11.98
▁cristalina	-11.9801
▁Iria	-11.9802
sonte	-11.9802
▁Metro	-11.9802
▁Faz	-11.9802
▁Ámb	-11.9802
▁operado	-11.9803
▁Obrer	-11.9803
▁arrest	-11.9805
▁asignado	-11.9806
▁Km	-11.9807
▁vibración	-11.981
▁caldeira	-11.9814
▁260	-11.9815
▁materno	-11.9817
▁Bure	-11.9817
▁esteja	-11.9819
▁responden	-11.9821
▁prestación	-11.9823
▁facenda	-11.9824
▁pilas	-11.9825
▁IU	-11.9825
▁sexualidade	-11.9828
▁lisa	-11.9835
ranio	-11.9835
▁Saa	-11.9839
▁dí	-11.984
▁industrializado	-11.9844
▁disputada	-11.9852
▁homo	-11.9853
céde	-11.9853
▁Xab	-11.9853
▁conseguira	-11.9857
▁Amade	-11.9858
▁Fid	-11.9862
llar	-11.9866
▁empat	-11.9866
▁encontraba	-11.9867
▁franca	-11.9868
▁anula	-11.9868
▁cargado	-11.9869
▁desprende	-11.9869
gona	-11.9872
▁Justin	-11.9879
▁marxina	-11.9879
▁Reco	-11.9881
▁Coca	-11.9882
▁negar	-11.9888
gard	-11.9891
▁indo	-11.9892
aspar	-11.9894
icular	-11.9896
▁animados	-11.9896
▁bote	-11.9896
▁mera	-11.9898
▁libertar	-11.9898
▁portador	-11.9898
derram	-11.9898
▁Contemporáne	-11.9904
▁accidental	-11.9904
▁anónima	-11.9904
▁aparelho	-11.9904
▁atmosférico	-11.9904
▁cirurgia	-11.9904
▁cuadrangular	-11.9904
▁incompleta	-11.9904
▁orgánulo	-11.9904
▁súbdito	-11.9904
▁trasladá	-11.9904
▁videoclip	-11.9904
▁postulado	-11.9904
▁temperada	-11.9904
▁marxismo	-11.9904
▁Guarda	-11.9904
▁Xuíz	-11.9904
▁arquivolta	-11.9904
▁honest	-11.9904
▁Cleve	-11.9904
▁connosco	-11.9904
▁Kenya	-11.9904
▁xeométrico	-11.9904
▁dubido	-11.9904
▁xema	-11.9905
▁autentic	-11.9905
▁campanha	-11.9905
udhon	-11.9905
▁Phil	-11.9905
▁registo	-11.9905
▁comprenden	-11.9905
▁Común	-11.9906
▁anotador	-11.9906
▁Tosca	-11.9906
▁Hä	-11.9907
▁Ilustra	-11.9908
leiros	-11.991
▁incluindo	-11.991
▁Trist	-11.991
▁ato	-11.9913
▁dúvida	-11.9914
▁mercante	-11.9915
▁cartaxines	-11.9917
▁culmin	-11.9918
▁consumida	-11.9918
▁reprodutor	-11.992
▁roto	-11.9923
bane	-11.9924
▁radioactiv	-11.9925
▁neolítico	-11.9925
▁amplia	-11.9929
▁Pot	-11.9929
▁sensor	-11.9931
ttel	-11.9936
▁prestar	-11.9936
▁gene	-11.9937
nunciou	-11.9937
▁sumar	-11.9937
▁Niet	-11.9938
▁antenas	-11.9941
outh	-11.9943
▁paraíso	-11.9948
▁olharem	-11.9953
▁apreciado	-11.9953
▁pensava	-11.9954
▁salgada	-11.9956
▁And	-11.9962
urio	-11.9965
ianz	-11.9966
▁indivíduos	-11.9967
▁esperado	-11.9967
▁abelhas	-11.9967
▁capta	-11.9971
▁informal	-11.9974
▁zo	-11.9977
▁Sony	-11.9982
rick	-11.9988
▁boxe	-11.9988
▁prest	-11.9989
▁instrumenta	-11.9993
feito	-11.9993
▁vacinas	-11.9994
▁artesana	-11.9996
▁Correo	-11.9997
▁Bad	-11.9997
▁Podería	-12.0003
▁opini	-12.0006
oftware	-12.0009
inger	-12.0011
cultura	-12.0014
▁Nikola	-12.0014
▁Sucedeu	-12.0014
▁anexionad	-12.0014
▁asturiana	-12.0014
▁gaivota	-12.0014
▁ibérica	-12.0014
▁implementación	-12.0014
▁inscrito	-12.0014
▁inteligência	-12.0014
▁oculto	-12.0014
▁pneumon	-12.0014
▁portátil	-12.0014
▁rechamante	-12.0014
▁ultravioleta	-12.0014
▁direção	-12.0014
▁xeógrafo	-12.0014
▁Dream	-12.0014
▁extraído	-12.0014
▁súpe	-12.0014
▁gravitacional	-12.0014
▁ansiedade	-12.0014
▁enzima	-12.0014
▁unitario	-12.0014
rough	-12.0014
▁Frederic	-12.0014
▁fractura	-12.0014
▁Edición	-12.0014
▁Pereir	-12.0016
▁Dirixi	-12.0016
▁Grove	-12.0016
▁Disco	-12.0017
▁xanela	-12.0017
▁Morgan	-12.0019
▁rexionalista	-12.0021
▁Jud	-12.0022
▁tomo	-12.0022
stalou	-12.0024
▁chora	-12.0026
▁supervivente	-12.0027
▁Segue	-12.0027
zaret	-12.0031
húngaro	-12.0032
▁737	-12.0032
▁abondo	-12.0032
ical	-12.0033
▁secuela	-12.0034
ouver	-12.0035
iró	-12.0037
listas	-12.0037
▁perdera	-12.004
▁fil	-12.0041
▁111	-12.0048
▁coñecían	-12.0052
GC	-12.0052
▁conve	-12.0058
▁Creou	-12.0058
▁Sai	-12.0064
▁Byr	-12.0067
▁invadid	-12.0069
▁explota	-12.007
▁Sina	-12.0072
▁Padre	-12.0076
▁Pino	-12.0081
▁convenceu	-12.0084
éria	-12.0086
▁peri	-12.0093
▁sintetiza	-12.0094
▁frecuent	-12.0095
▁camiña	-12.01
▁indi	-12.0106
▁constrúen	-12.0108
▁Neil	-12.011
ç	-12.0112
taca	-12.0119
▁Fox	-12.012
▁galeguis	-12.012
▁president	-12.012
▁Ken	-12.0121
▁nervios	-12.0124
▁Saxonia	-12.0125
▁Acontece	-12.0125
▁Logro	-12.0125
▁chileno	-12.0125
▁confesión	-12.0125
▁córtex	-12.0125
▁décima	-12.0125
▁globais	-12.0125
▁improvisa	-12.0125
▁interrompe	-12.0125
▁intoxicación	-12.0125
▁inútil	-12.0125
▁pictórica	-12.0125
▁prolifera	-12.0125
▁ídolo	-12.0125
▁consolidou	-12.0125
▁rigorosa	-12.0125
▁incrible	-12.0125
▁ganancia	-12.0125
rpool	-12.0125
▁genética	-12.0125
▁Área	-12.0125
▁pedi	-12.0125
▁bonito	-12.0126
lipse	-12.0126
▁amigable	-12.0126
▁grau	-12.0126
▁financiar	-12.0126
▁Muller	-12.0126
inastía	-12.0126
▁modernista	-12.0126
▁matanza	-12.0127
▁conseguido	-12.0127
▁Arquivo	-12.0127
▁engloba	-12.0127
▁Great	-12.0128
▁balcón	-12.0128
▁curar	-12.0128
▁mudá	-12.0128
▁derivación	-12.0128
▁Four	-12.0128
▁penalti	-12.0129
▁poemario	-12.0129
▁recolec	-12.0129
▁comandada	-12.013
▁reflectida	-12.0131
▁resumo	-12.0134
▁espallada	-12.0135
▁CF	-12.0136
▁disolver	-12.0137
spacial	-12.0138
▁policial	-12.0139
▁Morto	-12.0141
▁autora	-12.0141
comunidade	-12.0145
goberno	-12.0145
▁elemental	-12.0145
▁etrusco	-12.0149
▁linde	-12.0152
▁Numa	-12.0153
▁Dick	-12.0156
▁herdeir	-12.0157
correr	-12.0161
▁adquirida	-12.0164
▁saía	-12.0167
▁retornar	-12.017
▁rematan	-12.0171
▁Gome	-12.0172
▁Mot	-12.0172
xano	-12.0174
▁Tá	-12.0174
▁alimentado	-12.0176
▁Susan	-12.0179
▁Constan	-12.0183
▁650	-12.0184
▁Buc	-12.0184
▁demostran	-12.0191
▁burguesa	-12.0197
▁parente	-12.0201
▁acadan	-12.0207
▁detecta	-12.0213
amot	-12.0214
▁circun	-12.0214
▁postu	-12.0215
▁mencion	-12.0215
americano	-12.0216
▁Dante	-12.0218
perfección	-12.0226
bec	-12.0228
▁atravesan	-12.0229
▁Tarra	-12.0231
▁colonizado	-12.0231
▁deixaría	-12.0234
▁Sco	-12.0235
▁prefect	-12.0237
▁Copérnico	-12.0237
▁Técnica	-12.0237
▁clarinete	-12.0237
▁conxunción	-12.0237
▁dubida	-12.0237
▁expandiu	-12.0237
▁gratuíta	-12.0237
▁janela	-12.0237
▁plástica	-12.0237
▁prusiano	-12.0237
▁Town	-12.0237
▁processa	-12.0237
▁Show	-12.0238
▁Birm	-12.0238
▁Again	-12.0238
▁invisíve	-12.0238
▁fresca	-12.0238
▁timbre	-12.0238
▁Harbo	-12.0238
▁garante	-12.0238
▁Corint	-12.0239
incidencia	-12.0239
▁Dj	-12.0239
▁Frente	-12.0239
▁dixestivo	-12.024
▁nerviosa	-12.024
▁turbina	-12.024
▁palla	-12.0242
▁sobreviver	-12.0242
▁Bene	-12.0243
▁prever	-12.0243
▁medran	-12.0244
▁favorita	-12.0245
▁imediatamente	-12.0246
▁recorrente	-12.0247
▁emisor	-12.0248
tanasi	-12.0249
▁misteriosa	-12.0253
▁engala	-12.0254
▁brigada	-12.0254
▁ponta	-12.0258
▁preferida	-12.026
ashing	-12.0261
▁confiar	-12.0261
▁primate	-12.0262
▁tiveram	-12.0266
▁Xoga	-12.0271
▁Gut	-12.0276
tação	-12.0277
▁consisten	-12.028
▁captar	-12.0286
▁calzada	-12.0288
xenx	-12.0295
▁conformad	-12.0298
▁Havi	-12.0303
▁atribúese	-12.0312
▁elíptica	-12.0312
▁Princes	-12.0314
▁Too	-12.0316
▁Lice	-12.0323
▁sendeir	-12.0323
▁paro	-12.0324
▁universa	-12.0324
ibe	-12.0329
▁ingresar	-12.033
▁Kell	-12.0332
▁oliveira	-12.0334
ulli	-12.034
▁axudado	-12.034
▁poste	-12.0342
bell	-12.0346
▁chegue	-12.0347
▁monta	-12.0348
▁radicalmente	-12.0349
▁aborto	-12.0351
▁achegou	-12.0351
▁comprendía	-12.0351
▁cápsula	-12.0351
▁dispoñíbe	-12.0351
▁plaqueta	-12.0351
▁recompilación	-12.0351
▁residía	-12.0351
▁sistemático	-12.0351
▁subcampión	-12.0351
▁televisivo	-12.0351
▁triplo	-12.0351
▁vermelho	-12.0351
▁cualidade	-12.0351
▁flanco	-12.0351
▁Róm	-12.0351
▁quark	-12.0351
▁baleira	-12.0351
zteca	-12.0351
▁convosco	-12.0351
▁xeonllo	-12.0351
▁sintética	-12.0351
itanic	-12.0351
▁stress	-12.0352
▁engano	-12.0352
▁modesto	-12.0353
▁insuficiente	-12.0355
▁surrealista	-12.0355
▁Villen	-12.0356
lsacia	-12.0356
▁manipulación	-12.0356
▁baga	-12.0357
▁sá	-12.0358
▁determinou	-12.0358
▁querido	-12.036
▁operan	-12.0361
▁achegan	-12.0361
▁Kar	-12.0361
▁reina	-12.0362
▁daqui	-12.0363
▁nulo	-12.0363
▁crego	-12.0363
▁audición	-12.0366
▁tele	-12.0367
▁motivación	-12.0367
▁Sem	-12.0377
▁CE	-12.0377
▁dominan	-12.0378
▁aprobar	-12.0379
▁abordar	-12.0381
▁Py	-12.0386
▁xenio	-12.0388
▁Axi	-12.0389
▁xurdido	-12.0389
▁deixem	-12.0392
▁acode	-12.0393
▁sacou	-12.0394
rrección	-12.0396
▁dizia	-12.0398
ash	-12.0398
▁Mesa	-12.0398
cadou	-12.0399
▁elaborou	-12.0401
▁contida	-12.0403
▁Seg	-12.0404
▁conceder	-12.0405
voz	-12.0406
aldi	-12.0407
íme	-12.0408
lus	-12.0409
▁incluíron	-12.0413
▁disparar	-12.0414
▁Mato	-12.0416
▁acababa	-12.0417
▁Forte	-12.042
▁transcenden	-12.0422
▁utilizá	-12.0423
▁Petro	-12.0424
[...]
