<unk>	0
<s>	0
</s>	0
<pad>	0
▁,	-3.16871
s	-3.22993
▁de	-3.24845
▁.	-3.56028
▁a	-3.77279
▁e	-3.87573
▁o	-4.12601
;	-4.20078
▁&	-4.20359
quot	-4.25127
▁que	-4.29514
▁do	-4.51318
▁en	-4.55807
▁da	-4.59457
▁un	-5.09665
▁A	-5.14322
▁(	-5.14633
▁)	-5.14653
▁no	-5.23353
▁é	-5.26666
▁na	-5.28855
▁unha	-5.3568
▁O	-5.37042
n	-5.43652
se	-5.46293
▁os	-5.47904
▁para	-5.56866
▁por	-5.57233
▁como	-5.57786
▁se	-5.62417
r	-5.64602
▁con	-5.68621
o	-5.74556
a	-5.77593
▁foi	-5.77886
▁dos	-5.7845
▁ao	-5.79893
▁súa	-5.8376
▁	-5.86478
▁seu	-5.98865
▁as	-5.99803
▁máis	-6.00669
▁ou	-6.02867
▁á	-6.05791
-	-6.08766
u	-6.14001
▁:	-6.21581
▁non	-6.21607
mente	-6.23326
do	-6.29161
da	-6.32984
▁das	-6.34191
▁En	-6.3961
ndo	-6.40805
▁co	-6.47102
▁son	-6.49935
l	-6.51042
▁polo	-6.51511
e	-6.54344
▁entre	-6.55265
es	-6.5952
▁ano	-6.62931
▁tamén	-6.6766
.	-6.70729
i	-6.74521
▁Os	-6.793
t	-6.80941
▁pola	-6.85947
ron	-6.88258
▁ser	-6.90233
is	-6.91889
▁coa	-6.9191
▁parte	-6.92291
▁anos	-6.94077
▁sobre	-6.95502
ba	-6.96711
ción	-7.02564
m	-7.02903
la	-7.03069
ra	-7.03208
▁seus	-7.05814
▁dun	-7.0823
▁pero	-7.09124
na	-7.0994
▁está	-7.10128
▁E	-7.10184
▁;	-7.10657
▁As	-7.10673
▁nos	-7.10981
▁No	-7.11724
on	-7.13789
▁onde	-7.16661
▁lugar	-7.18493
▁Na	-7.18972
to	-7.19144
▁era	-7.20695
ta	-7.2112
▁ten	-7.22165
▁cidade	-7.23122
▁2	-7.24131
y	-7.25047
▁re	-7.25514
no	-7.2607
▁durante	-7.26361
▁I	-7.2687
▁nas	-7.2732
▁pode	-7.27505
▁cando	-7.29623
▁ata	-7.31237
▁dunha	-7.31265
▁concello	-7.3148
▁primeiro	-7.31948
▁nome	-7.32161
▁xa	-7.32276
lo	-7.32391
dos	-7.32745
▁habitantes	-7.33084
▁1	-7.3407
▁dous	-7.34668
▁forma	-7.35067
▁in	-7.37088
ca	-7.37479
▁mesmo	-7.3791
te	-7.39693
▁aínda	-7.39782
▁primeira	-7.40145
▁esta	-7.40657
d	-7.41397
de	-7.41469
▁S	-7.42455
▁século	-7.42634
▁segundo	-7.43461
ma	-7.4456
▁foron	-7.4474
▁aos	-7.45127
me	-7.45742
▁moi	-7.46002
▁ó	-7.4603
▁nun	-7.4688
▁todo	-7.46911
▁súas	-7.47656
▁despois	-7.48143
▁C	-7.48263
▁só	-7.48344
c	-7.49465
▁De	-7.4996
apos	-7.51387
co	-7.51627
▁La	-7.52649
▁San	-7.53546
▁este	-7.53697
das	-7.56884
▁3	-7.57327
en	-7.57856
ce	-7.5875
▁tres	-7.59519
▁contra	-7.59576
▁desde	-7.59696
▁Foi	-7.60154
▁É	-7.61294
▁dúas	-7.64053
▁ás	-7.64716
▁tiña	-7.64743
▁parroquia	-7.6597
▁outros	-7.67109
▁poboación	-7.67371
▁nunha	-7.68472
z	-7.69197
▁grupo	-7.69735
le	-7.70309
p	-7.70454
ro	-7.70843
os	-7.71066
▁maior	-7.71814
an	-7.71888
lle	-7.72306
▁vez	-7.72431
▁sen	-7.72556
▁gran	-7.7273
ia	-7.73078
▁Con	-7.73119
mos	-7.74399
▁tempo	-7.74827
ga	-7.75228
▁equipo	-7.75746
nte	-7.76142
▁cal	-7.76819
▁17	-7.77064
mo	-7.7708
▁así	-7.78322
▁eran	-7.79433
ría	-7.79864
ar	-7.8005
▁mulleres	-7.80209
▁4	-7.8047
f	-7.80644
▁homes	-7.80684
▁poden	-7.82387
▁moito	-7.82736
▁15	-7.833
ban	-7.8348
▁/	-7.83824
▁%	-7.84106
▁5	-7.84536
ne	-7.84844
▁Un	-7.85922
▁B	-7.86179
▁nado	-7.86524
k	-7.87634
C	-7.87817
▁ca	-7.87914
▁polos	-7.88239
va	-7.89472
▁10	-7.90385
▁la	-7.90746
▁illa	-7.91528
▁Se	-7.9163
▁baixo	-7.92129
▁cara	-7.92151
go	-7.92704
al	-7.93091
▁novo	-7.93121
▁cada	-7.93167
di	-7.93324
er	-7.93681
▁están	-7.93802
mento	-7.9397
g	-7.94494
▁16	-7.94501
▁mais	-7.94518
▁vida	-7.9453
▁di	-7.94837
▁comarca	-7.95073
x	-7.95347
▁cunha	-7.95729
vi	-7.9712
▁hai	-7.97836
▁galego	-7.97965
▁zona	-7.98026
▁cun	-7.98268
▁km	-7.98471
▁rei	-7.98541
as	-7.98809
xe	-7.98855
▁Esta	-7.99018
in	-7.99287
▁tempada	-7.99338
ou	-7.99389
▁mundo	-7.99529
▁cos	-7.99948
▁T	-8.0059
ía	-8.02049
▁número	-8.02063
▁tanto	-8.02072
▁P	-8.02313
▁The	-8.02597
▁6	-8.0275
▁dende	-8.03287
▁12	-8.03294
▁banda	-8.03752
▁Galicia	-8.03994
▁España	-8.04265
▁até	-8.04268
idade	-8.04301
ve	-8.04458
▁teñen	-8.04796
▁-	-8.04925
▁Segundo	-8.05076
▁sur	-8.0529
▁Re	-8.05363
▁14	-8.05535
ti	-8.05801
▁ter	-8.05916
▁coma	-8.0602
á	-8.06277
▁Tamén	-8.07186
▁provincia	-8.07217
▁Ca	-8.0728
▁familia	-8.07782
▁F	-8.08193
▁Este	-8.08215
▁antes	-8.08676
▁sistema	-8.08681
▁pouco	-8.09185
▁outras	-8.09495
▁sendo	-8.09596
í	-8.09756
▁norte	-8.10071
re	-8.10501
▁Por	-8.11614
li	-8.11895
▁7	-8.12192
▁carreira	-8.12401
▁Co	-8.1244
us	-8.12937
▁lle	-8.13123
▁El	-8.13798
▁guerra	-8.14485
▁m	-8.15296
▁xunto	-8.1547
▁historia	-8.15943
be	-8.16214
▁catro	-8.16354
▁país	-8.16443
▁exemplo	-8.17183
ria	-8.17231
bo	-8.1747
ter	-8.17494
ri	-8.17831
b	-8.17996
za	-8.1811
▁8	-8.18447
▁tivo	-8.18763
h	-8.18766
▁estaba	-8.1884
▁obra	-8.18907
▁varios	-8.19051
▁mentres	-8.19135
▁especies	-8.19573
▁todos	-8.19588
▁11	-8.19906
▁pre	-8.19926
pa	-8.20183
▁día	-8.20514
ni	-8.20842
▁M	-8.2097
▁tipo	-8.21023
▁Estados	-8.21472
▁13	-8.21677
▁si	-8.22621
▁medio	-8.22918
dor	-8.23122
▁partir	-8.23533
▁logo	-8.23656
S	-8.23717
▁ben	-8.23728
▁final	-8.24085
▁rexión	-8.24209
▁goberno	-8.2436
▁grande	-8.24553
▁Sa	-8.2522
ado	-8.25697
▁coñecido	-8.25798
▁estado	-8.25831
▁morte	-8.26101
▁grandes	-8.26108
▁menos	-8.26335
▁mar	-8.27442
▁río	-8.27556
res	-8.27683
ci	-8.27932
que	-8.28065
▁importante	-8.28312
▁Gran	-8.28344
▁época	-8.28813
▁pro	-8.28923
▁Unidos	-8.28984
rse	-8.29153
▁D	-8.29319
▁Universidade	-8.29594
▁xullo	-8.29762
▁centro	-8.30543
nse	-8.30547
man	-8.30643
▁cales	-8.30992
▁L	-8.31234
▁serie	-8.31237
▁Durante	-8.31371
▁9	-8.31484
▁Le	-8.32533
▁longo	-8.32743
▁Ma	-8.3279
▁principal	-8.32804
▁deste	-8.32858
▁maioría	-8.33023
▁lingua	-8.33414
▁18	-8.3347
▁p	-8.33595
▁auga	-8.33625
▁G	-8.33785
▁20	-8.34231
▁veces	-8.34234
A	-8.34446
▁maio	-8.34547
▁cor	-8.34707
▁Europa	-8.34947
▁Para	-8.35054
▁capital	-8.35064
▁segunda	-8.359
▁II	-8.35961
or	-8.3606
nos	-8.36183
▁per	-8.36448
▁outra	-8.37255
▁diferentes	-8.3749
▁chamado	-8.37837
ch	-8.37844
▁um	-8.37877
▁U	-8.38358
▁V	-8.38871
ck	-8.39054
▁Unha	-8.39263
▁xuño	-8.39473
▁travé	-8.3949
▁»	-8.39859
«	-8.39979
▁datos	-8.4011
B	-8.40259
▁debido	-8.40419
▁células	-8.41162
rio	-8.41497
io	-8.4179
▁poder	-8.41975
▁Al	-8.42451
▁Francia	-8.42515
▁comezou	-8.42591
▁varias	-8.42924
▁tras	-8.42987
▁mesma	-8.43012
▁N	-8.43079
▁setembro	-8.43559
▁desta	-8.43598
ntes	-8.43606
▁xeito	-8.43792
▁marzo	-8.4407
▁K	-8.44147
▁outro	-8.44326
▁relación	-8.4443
1	-8.44738
▁base	-8.44903
▁nova	-8.45102
▁seguinte	-8.45121
▁algúns	-8.45167
▁filme	-8.45212
▁xaneiro	-8.45397
▁In	-8.45778
▁decembro	-8.45915
D	-8.4593
pe	-8.45962
▁abril	-8.46037
fa	-8.46448
ismo	-8.46736
▁i	-8.4679
▁persoas	-8.46962
▁moita	-8.47063
▁período	-8.47068
ada	-8.47349
▁em	-8.47407
▁2007	-8.47435
▁mellor	-8.47468
▁outubro	-8.47527
▁Madrid	-8.47611
▁Santiago	-8.47771
▁el	-8.47809
▁fillo	-8.47832
▁facer	-8.47842
▁agosto	-8.47848
▁dentro	-8.47909
L	-8.48213
▁caso	-8.48299
mi	-8.48463
▁com	-8.48562
▁fai	-8.48822
▁partido	-8.48974
▁uma	-8.49024
▁uso	-8.49134
▁Nova	-8.49264
▁resto	-8.49294
▁especie	-8.49821
qui	-8.50024
▁Premio	-8.50041
▁orixe	-8.501
▁2011	-8.50251
▁Ra	-8.5056
v	-8.50622
▁Vi	-8.50792
▁Santa	-8.50923
▁conta	-8.51079
po	-8.51081
▁fixo	-8.51231
▁ex	-8.51285
cu	-8.51341
M	-8.51583
ka	-8.51631
▁ver	-8.51637
▁entón	-8.52112
▁Mar	-8.52162
▁of	-8.52231
▁Como	-8.52249
▁2010	-8.52287
▁álbum	-8.52315
▁xeral	-8.52479
▁&#93;	-8.5268
▁momento	-8.52852
▁actual	-8.52894
▁traballo	-8.5322
▁tarde	-8.53224
w	-8.53292
▁H	-8.53378
▁toda	-8.53495
▁&#91;	-8.53652
▁novembro	-8.53669
th	-8.53976
▁Ao	-8.54017
▁ademais	-8.54049
vo	-8.54198
ña	-8.54294
▁Ro	-8.54839
▁R	-8.54934
▁finado	-8.55093
▁pai	-8.55108
▁case	-8.55483
▁bo	-8.55501
▁Mo	-8.55529
ing	-8.55674
▁Entre	-8.55799
▁María	-8.55833
el	-8.56087
▁casa	-8.56106
▁Ademais	-8.56155
bi	-8.56781
▁febreiro	-8.56804
▁Coruña	-8.56937
▁feito	-8.56987
▁media	-8.57046
▁Li	-8.57048
▁quen	-8.5742
▁política	-8.57528
▁2009	-8.57805
xa	-8.57854
▁Lo	-8.58292
▁Po	-8.58436
▁millóns	-8.58656
▁cinco	-8.58849
▁fin	-8.5887
▁30	-8.59004
ver	-8.59088
▁superficie	-8.59464
▁punto	-8.59953
▁algunha	-8.60108
▁Nacional	-8.60191
▁Do	-8.60398
zo	-8.60412
R	-8.60828
▁Da	-8.60853
G	-8.60999
F	-8.61338
▁música	-8.61348
2	-8.61765
fe	-8.6181
dores	-8.62344
▁polas	-8.62564
▁porque	-8.62577
▁termo	-8.6261
▁obras	-8.62759
cha	-8.62925
▁Pa	-8.63031
▁Terra	-8.63284
▁su	-8.63392
▁título	-8.63514
▁isto	-8.63696
é	-8.63881
ó	-8.63983
▁Porén	-8.6402
rá	-8.64093
▁principais	-8.64197
▁ma	-8.64274
▁corpo	-8.64571
du	-8.64612
▁sub	-8.64726
ry	-8.64756
▁desenvolvemento	-8.64949
ran	-8.64973
ista	-8.64991
st	-8.65775
▁primeiros	-8.65798
▁finais	-8.65941
án	-8.66848
▁estadounidense	-8.66964
ja	-8.6704
lla	-8.6711
▁le	-8.67402
E	-8.67411
▁proceso	-8.67466
▁Non	-8.67878
▁total	-8.68136
tu	-8.68164
▁países	-8.68217
los	-8.68219
▁coas	-8.68256
▁2008	-8.68476
xo	-8.68492
▁club	-8.68845
▁éxito	-8.68951
▁Mi	-8.68969
▁década	-8.69065
tos	-8.69107
▁Pe	-8.69173
▁Aínda	-8.69185
▁Me	-8.69412
▁xénero	-8.69494
lu	-8.69519
▁produción	-8.6967
use	-8.69895
▁todas	-8.69917
▁Di	-8.70068
▁político	-8.70228
▁oficial	-8.70237
▁Ne	-8.70301
ina	-8.70376
▁25	-8.70467
P	-8.70602
▁To	-8.70629
ir	-8.70661
fi	-8.70956
nda	-8.71055
▁grupos	-8.71317
▁orde	-8.71541
sen	-8.71583
T	-8.71821
▁Guerra	-8.7184
ón	-8.71887
▁situado	-8.71925
▁José	-8.71987
▁días	-8.72004
▁presidente	-8.72115
ú	-8.72214
▁Pi	-8.725
ton	-8.72594
▁Cando	-8.72628
▁2006	-8.72636
▁coñecida	-8.72669
tas	-8.72796
▁li	-8.73047
ita	-8.7317
▁principalmente	-8.73394
▁especialmente	-8.73412
▁preto	-8.73414
▁tan	-8.73503
▁Reino	-8.73722
▁Despois	-8.73739
xi	-8.74097
cia	-8.74143
▁man	-8.74244
bra	-8.74672
▁Está	-8.74688
ge	-8.74717
▁puntos	-8.74901
H	-8.75094
▁estes	-8.75383
▁metros	-8.75387
▁Ka	-8.75391
▁não	-8.75457
▁s	-8.75562
▁territorio	-8.75737
ur	-8.75847
▁Ten	-8.75956
ke	-8.7596
▁chegou	-8.76057
car	-8.76361
ten	-8.76408
▁c	-8.76493
▁área	-8.76881
ção	-8.76987
▁membros	-8.7713
▁so	-8.77215
▁pasou	-8.77407
▁d	-8.77576
▁volta	-8.78025
▁–	-8.78202
▁último	-8.78322
it	-8.78337
▁me	-8.78358
▁fronte	-8.78673
áronse	-8.78749
▁Isto	-8.78902
O	-8.7938
▁al	-8.79461
▁Be	-8.79547
▁mo	-8.79756
▁hoxe	-8.79771
▁nivel	-8.79785
▁última	-8.79857
▁Instituto	-8.79909
▁República	-8.7992
▁Ha	-8.79925
il	-8.80006
▁home	-8.80036
▁papel	-8.80144
ándose	-8.80187
ble	-8.80315
▁2000	-8.80323
▁común	-8.80446
▁español	-8.80533
▁leste	-8.80608
▁eles	-8.80711
▁sempre	-8.80755
▁chamada	-8.80783
▁Tras	-8.80954
▁inglés	-8.81071
ha	-8.81354
▁posición	-8.81925
tra	-8.82026
▁propio	-8.82157
▁importantes	-8.82166
▁Te	-8.82914
der	-8.82948
▁Real	-8.82974
▁vi	-8.83196
N	-8.83198
▁Car	-8.83432
▁Man	-8.83441
▁oeste	-8.83685
▁estrutura	-8.83743
▁Ga	-8.83784
nd	-8.84712
▁the	-8.84736
▁francés	-8.84762
▁2012	-8.84901
pi	-8.84957
▁2005	-8.8507
▁único	-8.85093
▁liña	-8.85116
▁Ta	-8.8532
▁construción	-8.85376
▁ante	-8.85524
3	-8.85534
ación	-8.85693
▁?	-8.85703
▁sa	-8.85827
▁Así	-8.86053
▁Estado	-8.86281
tou	-8.86437
et	-8.86459
▁Ba	-8.86556
tivo	-8.86597
▁ADN	-8.86755
▁director	-8.86834
ko	-8.86945
▁posto	-8.87168
▁estudos	-8.87181
▁antigo	-8.87379
▁24	-8.87442
▁seguintes	-8.8771
▁2004	-8.8776
▁fora	-8.87854
las	-8.8787
▁Carlos	-8.88185
▁membro	-8.88246
I	-8.88357
▁l	-8.88383
chi	-8.88448
▁—	-8.88456
▁formación	-8.88475
▁situada	-8.88542
▁libro	-8.88586
▁ra	-8.88674
▁conxunto	-8.88731
em	-8.88822
tar	-8.88824
▁Cor	-8.88851
▁alemán	-8.8914
▁Manuel	-8.89457
▁IGE	-8.89468
ren	-8.89643
▁coruñés	-8.89839
▁del	-8.8994
▁y	-8.90365
▁calquer	-8.9041
▁proteínas	-8.90426
▁alta	-8.90444
▁central	-8.90464
gar	-8.90497
▁pe	-8.90514
▁Bu	-8.90874
▁acordo	-8.91095
▁senón	-8.9118
▁Go	-8.9118
▁19	-8.91287
▁Bar	-8.9137
▁reino	-8.91372
▁nada	-8.91682
▁Italia	-8.91712
▁pesar	-8.91763
▁exército	-8.91807
▁campo	-8.91829
▁Vigo	-8.91913
▁movemento	-8.92048
▁Roma	-8.92063
▁igrexa	-8.92064
▁Bo	-8.92077
▁Pedro	-8.92622
▁car	-8.92648
▁teoría	-8.9265
▁22	-8.92667
▁orixinal	-8.92732
▁tra	-8.92954
nta	-8.93104
▁animais	-8.93141
▁Mundial	-8.93236
▁Alemaña	-8.93308
▁capacidade	-8.93308
▁cargo	-8.93622
▁actividade	-8.94045
▁21	-8.94083
▁2013	-8.94182
▁comezo	-8.94189
▁estilo	-8.94262
▁Tiña	-8.94346
▁ós	-8.9438
▁seis	-8.94393
▁W	-8.94433
▁Partido	-8.94483
▁Barcelona	-8.9465
▁X	-8.94655
▁Ar	-8.94731
tor	-8.94761
▁1999	-8.94946
ber	-8.94968
▁eleccións	-8.9533
▁supón	-8.95573
▁galega	-8.9569
▁Imperio	-8.95973
▁elixido	-8.95973
ng	-8.96117
▁mediante	-8.96185
ya	-8.96239
▁trans	-8.96293
tiva	-8.96388
▁resultado	-8.96479
▁causa	-8.96545
▁militar	-8.96789
▁disco	-8.96839
▁estas	-8.96934
▁propia	-8.97251
che	-8.97291
les	-8.97314
um	-8.97332
▁Si	-8.97396
▁Son	-8.9742
▁par	-8.97427
▁edición	-8.9782
▁iso	-8.97827
▁So	-8.97951
▁Lu	-8.97985
▁tal	-8.97996
mar	-8.98069
▁terra	-8.98101
▁te	-8.98211
rro	-8.98367
ización	-8.98395
▁anterior	-8.98436
▁sería	-8.98572
▁programa	-8.98731
ouse	-8.98746
▁popular	-8.98905
▁tamaño	-8.98914
▁Su	-8.99017
▁gañou	-8.99054
ll	-8.99187
▁dicir	-8.99233
▁lista	-8.9924
▁23	-8.9943
▁control	-8.99579
▁cambio	-8.99876
▁aparece	-8.99969
▁internacional	-8.99977
V	-9.00054
ncia	-9.00102
ki	-9.00105
▁x	-9.00137
▁nomeado	-9.00204
▁ácido	-9.00207
ed	-9.005
▁Unión	-9.00898
▁mor	-9.01079
▁idade	-9.01423
▁significa	-9.01519
▁illas	-9.01829
▁2003	-9.01882
▁natural	-9.02001
j	-9.02021
per	-9.02081
▁Compostela	-9.02141
▁española	-9.02146
▁única	-9.02167
▁Ho	-9.02203
▁nin	-9.02263
▁vila	-9.02313
▁estar	-9.02315
K	-9.02427
5	-9.02467
▁referirse	-9.02717
tal	-9.02807
▁terceiro	-9.03041
▁costa	-9.03169
▁Du	-9.03181
▁axuda	-9.03185
▁po	-9.03401
▁muller	-9.03492
gra	-9.03575
▁función	-9.03578
▁meses	-9.03895
▁fe	-9.04063
▁Hai	-9.04105
▁partidos	-9.04141
▁neste	-9.04216
ut	-9.0424
sta	-9.04264
▁converteuse	-9.04424
tes	-9.04427
nas	-9.04719
▁estudo	-9.04773
▁III	-9.04997
cos	-9.0539
▁interior	-9.05529
▁social	-9.05627
▁Pro	-9.05836
gue	-9.05986
▁posteriormente	-9.05997
▁Ri	-9.0602
ira	-9.06048
▁_	-9.06115
▁xeralmente	-9.06137
▁local	-9.06156
▁respecto	-9.06279
▁Ti	-9.06339
bre	-9.06342
▁Segunda	-9.06429
▁versión	-9.06523
▁bi	-9.06531
ño	-9.06593
ul	-9.06621
▁finalmente	-9.06728
▁altura	-9.06873
▁nacional	-9.06931
▁Igrexa	-9.06965
via	-9.06972
cho	-9.07162
▁liga	-9.07257
ster	-9.07294
▁Fórmula	-9.07558
▁arte	-9.07651
▁inter	-9.07706
▁Juan	-9.07882
▁chegar	-9.07909
▁Fa	-9.07954
▁canto	-9.08032
ito	-9.08081
▁2014	-9.08092
▁situación	-9.08298
▁50	-9.08327
▁América	-9.0833
ho	-9.08474
▁estivo	-9.08481
▁vai	-9.08585
▁posible	-9.08894
▁formula	-9.08911
land	-9.08938
▁Inglaterra	-9.09065
ados	-9.09131
pre	-9.09325
▁...	-9.09399
lt	-9.09462
▁alto	-9.09473
▁Nos	-9.09501
4	-9.09523
▁pequeno	-9.0958
▁pois	-9.0963
▁fútbol	-9.09643
▁27	-9.09691
▁fi	-9.09707
▁pequena	-9.09831
▁diversos	-9.09952
▁Per	-9.09983
▁proxecto	-9.10048
tura	-9.10061
▁forza	-9.10133
▁York	-9.10183
tina	-9.103
▁26	-9.10344
▁antiga	-9.10357
▁presenza	-9.10424
▁Cu	-9.10497
▁batalla	-9.10624
den	-9.10666
▁Lugo	-9.1068
▁Pero	-9.10728
▁paso	-9.10837
▁real	-9.10973
cer	-9.1118
▁equipos	-9.1124
▁Cha	-9.11369
▁París	-9.11577
▁John	-9.11634
▁XX	-9.118
▁Francisco	-9.11882
▁etc	-9.11942
▁problemas	-9.12068
▁2015	-9.12069
▁irmán	-9.12139
iro	-9.1245
ão	-9.1246
▁elementos	-9.12499
▁28	-9.12616
▁incluíndo	-9.12678
ion	-9.12733
▁to	-9.13088
▁agora	-9.13105
llo	-9.13195
▁cultura	-9.13207
▁Desde	-9.13225
▁pobo	-9.13629
▁estaban	-9.13634
fo	-9.13652
▁enerxía	-9.13683
▁superior	-9.13685
▁recibiu	-9.13713
▁luz	-9.13776
tion	-9.1378
▁pi	-9.1379
ven	-9.14028
gu	-9.14184
▁Antonio	-9.14276
▁Can	-9.1432
▁investigación	-9.14358
▁valor	-9.1443
ros	-9.1465
cio	-9.14671
▁anti	-9.14677
▁J	-9.151
▁cabo	-9.15194
▁sexa	-9.15247
bu	-9.15276
▁XIX	-9.15303
dia	-9.15416
▁obxectivo	-9.15664
▁Club	-9.15917
▁considerado	-9.16078
▁Sur	-9.16103
▁menor	-9.16115
▁INE	-9.1615
00	-9.16251
wa	-9.16259
▁influencia	-9.16387
▁grego	-9.16406
▁Portugal	-9.16414
nia	-9.16772
▁espazo	-9.16887
▁televisión	-9.17052
▁f	-9.17156
▁atópase	-9.17214
▁Norte	-9.17239
▁lado	-9.17305
ica	-9.17463
▁planta	-9.17581
nde	-9.17598
▁°	-9.17708
am	-9.17879
▁data	-9.17909
▁Xoán	-9.18055
▁plantas	-9.18165
ine	-9.18253
▁comeza	-9.18287
▁algo	-9.18332
▁casos	-9.18587
ino	-9.18762
hi	-9.18781
▁nai	-9.18782
▁deles	-9.18846
U	-9.19049
▁empresa	-9.19253
▁ba	-9.19292
▁marca	-9.19351
▁novas	-9.19402
▁cidades	-9.19474
▁referencia	-9.19804
▁modo	-9.19811
▁lugares	-9.19896
▁autor	-9.1991
▁factor	-9.19923
▁publicou	-9.20052
▁debe	-9.20068
▁dirección	-9.20175
▁ce	-9.20245
▁He	-9.20245
▁2016	-9.20245
▁humanos	-9.20317
▁cantidade	-9.20371
men	-9.20378
▁Rei	-9.20441
▁diversas	-9.20562
▁público	-9.20607
rra	-9.20732
ente	-9.20751
▁canción	-9.20796
▁cabeza	-9.2083
▁Logo	-9.2086
▁modelo	-9.20946
▁sol	-9.21039
▁sede	-9.21126
at	-9.21179
lin	-9.21226
▁selección	-9.2144
mer	-9.2149
stra	-9.21581
▁interese	-9.21604
▁Mas	-9.21605
▁filla	-9.21741
▁29	-9.21986
▁película	-9.22
▁baixa	-9.2201
con	-9.22037
▁2002	-9.22064
▁volveu	-9.22189
tica	-9.22287
▁aproximadamente	-9.22305
nt	-9.22439
▁particular	-9.22529
▁campionato	-9.22544
▁lonxitude	-9.22689
▁León	-9.22698
ie	-9.22737
▁Her	-9.22746
▁nunca	-9.23193
▁rock	-9.23196
▁mal	-9.23239
▁ro	-9.23306
▁vitoria	-9.23321
ida	-9.23365
▁División	-9.23419
▁2001	-9.23431
▁Estes	-9.23489
▁creación	-9.23568
▁figura	-9.23588
▁metade	-9.23839
des	-9.24048
▁”	-9.24084
▁dá	-9.24351
ru	-9.24382
ces	-9.24496
sh	-9.24503
▁loita	-9.24512
▁Historia	-9.2456
osa	-9.24759
▁tradicional	-9.24899
▁ela	-9.24906
▁actualmente	-9.25028
▁Castro	-9.25157
▁Val	-9.25211
▁nesta	-9.25231
▁and	-9.25363
▁Unido	-9.25399
▁formar	-9.2541
▁categoría	-9.25461
▁Ni	-9.25572
▁enfermidade	-9.25831
▁Xa	-9.25954
▁conseguiu	-9.2602
▁Copa	-9.26052
ad	-9.26226
▁especial	-9.26305
▁sete	-9.26433
▁Bi	-9.26579
▁medida	-9.26613
▁“	-9.26766
▁apoio	-9.26807
ido	-9.26836
▁100	-9.26875
▁ha	-9.27108
▁ve	-9.27181
▁actualidade	-9.2722
▁distrito	-9.27237
▁emperador	-9.27372
▁novos	-9.27445
▁principios	-9.27696
▁levou	-9.27725
▁mundial	-9.27761
▁municipal	-9.27812
▁destes	-9.28133
▁Ko	-9.28169
rre	-9.28211
▁proteína	-9.28253
he	-9.28263
▁mil	-9.2844
ín	-9.28597
istas	-9.28602
▁Vila	-9.287
▁núcleo	-9.28937
▁redor	-9.28961
▁características	-9.2901
▁escola	-9.29136
▁lo	-9.29194
▁organización	-9.29213
▁primeiras	-9.29249
▁Liga	-9.29258
▁crecemento	-9.29331
▁0	-9.29345
▁cre	-9.29465
eiro	-9.29576
▁forte	-9.29577
▁1990	-9.29615
tro	-9.29616
▁libre	-9.29619
▁publicado	-9.29663
▁xogador	-9.29689
▁carreiras	-9.29725
▁formado	-9.29735
▁Á	-9.29841
val	-9.29892
▁Nas	-9.30101
▁Fernando	-9.30164
▁leva	-9.30355
▁ningún	-9.30406
▁mes	-9.30686
▁Fe	-9.30821
▁Pontevedra	-9.30824
▁tipos	-9.3094
-19	-9.31023
▁escritor	-9.31032
un	-9.31056
▁Ru	-9.31122
▁información	-9.31136
▁40	-9.31368
▁vía	-9.31491
▁Castela	-9.31508
▁for	-9.31514
▁topónimo	-9.31526
▁esa	-9.31569
▁condicións	-9.31772
.000	-9.31867
▁novela	-9.31913
jo	-9.31949
ais	-9.32023
▁maneira	-9.32033
▁xogo	-9.32197
▁velocidade	-9.32303
▁Fi	-9.32349
▁fillos	-9.32356
▁importancia	-9.3243
cas	-9.32467
▁últimos	-9.32807
▁temas	-9.32868
▁persoa	-9.32932
bel	-9.32994
ol	-9.33259
ase	-9.33289
▁fan	-9.33369
ly	-9.33429
tación	-9.33485
▁sitio	-9.33618
▁material	-9.33858
▁Estatística	-9.33984
adas	-9.34029
▁encima	-9.34077
▁poli	-9.34149
tri	-9.34159
▁unión	-9.34179
▁auto	-9.34266
▁Ourense	-9.34291
▁grazas	-9.34312
▁ti	-9.34443
▁soa	-9.34454
▁Hu	-9.34522
▁igual	-9.34817
▁musical	-9.34857
▁Tra	-9.34908
▁profesor	-9.34931
▁ambos	-9.34936
▁Fo	-9.34976
nto	-9.34984
▁principio	-9.35071
▁sociedade	-9.3518
▁Algún	-9.35182
▁revista	-9.3536
▁francesa	-9.35416
mp	-9.35458
fer	-9.35515
▁presenta	-9.35597
▁Mon	-9.35728
▁carácter	-9.35731
▁linguas	-9.35865
ana	-9.35911
▁profesional	-9.35947
▁País	-9.36132
▁dereito	-9.36257
▁indica	-9.36356
▁fa	-9.36382
▁verán	-9.36419
ico	-9.36438
▁can	-9.36481
▁García	-9.36526
▁célula	-9.36674
▁humano	-9.36729
sión	-9.36859
▁práctica	-9.36912
▁diminución	-9.37005
▁Dende	-9.37121
▁mercado	-9.37141
▁radio	-9.37209
▁fose	-9.3729
▁Internacional	-9.37303
▁val	-9.37308
▁civil	-9.37311
▁municipio	-9.37359
▁desa	-9.37366
▁alí	-9.37391
▁compañía	-9.37409
▁atopa	-9.37425
▁Londres	-9.37434
▁bacteria	-9.37459
cre	-9.37486
▁dirixido	-9.37595
▁Cal	-9.37875
je	-9.38079
ábase	-9.38104
▁idea	-9.38107
▁motor	-9.38159
▁van	-9.38186
▁clase	-9.38236
▁italiano	-9.3824
▁campaña	-9.38315
▁sentido	-9.38339
▁terceira	-9.38375
▁palabra	-9.38393
cción	-9.38474
▁distancia	-9.38561
nza	-9.3859
id	-9.38656
▁podería	-9.38678
▁Eu	-9.38706
▁edificio	-9.38785
ley	-9.3882
▁pasa	-9.38834
icamente	-9.38849
8	-9.3887
▁31	-9.38983
▁permite	-9.39153
▁diferenza	-9.3928
eira	-9.39382
▁existe	-9.39451
▁división	-9.3948
▁pequenos	-9.39518
ero	-9.39606
dio	-9.39696
nes	-9.39699
▁Casa	-9.39701
xu	-9.39844
▁ir	-9.3986
▁comunidade	-9.39893
▁Ber	-9.40084
▁mostra	-9.40117
▁fóra	-9.40159
▁Neste	-9.40226
▁Hi	-9.40259
▁Ci	-9.404
ig	-9.40462
▁b	-9.40505
▁t	-9.40625
▁tema	-9.40634
▁maiores	-9.40691
stro	-9.4084
▁acción	-9.40841
▁Estas	-9.40856
ff	-9.41133
▁forzas	-9.41137
▁comercial	-9.4117
▁arredor	-9.41219
▁ci	-9.41271
▁ciclo	-9.41298
▁mu	-9.41461
▁fase	-9.41467
mina	-9.41474
ram	-9.41534
▁miúdo	-9.41647
▁deseño	-9.41735
lia	-9.41835
▁aeroporto	-9.41842
ían	-9.4194
▁distinta	-9.41978
▁África	-9.42137
▁tropas	-9.42138
▁ocasións	-9.4233
▁servizo	-9.4233
nce	-9.42476
▁cadea	-9.42494
cen	-9.4255
▁Sol	-9.42595
▁participou	-9.42763
▁Mu	-9.42789
ner	-9.4283
▁ampla	-9.42847
▁contén	-9.42941
gua	-9.42984
▁tri	-9.42988
ku	-9.43119
▁Tu	-9.43145
▁latín	-9.43274
rán	-9.43356
rios	-9.43367
▁rúa	-9.43437
▁membrana	-9.43574
eta	-9.43637
▁xenes	-9.43656
▁000	-9.43659
▁1980	-9.43841
▁distinto	-9.43912
▁IV	-9.43928
▁alcalde	-9.43952
6	-9.44023
▁pequenas	-9.44027
▁1991	-9.44135
▁efecto	-9.44204
▁1936	-9.44315
▁independente	-9.4434
tin	-9.44344
▁60	-9.4439
▁Xapón	-9.44454
▁1995	-9.44657
▁xira	-9.44714
▁mas	-9.44796
▁augas	-9.44837
▁Galego	-9.44841
mas	-9.44901
ix	-9.44926
▁g	-9.44969
▁Campionato	-9.45033
▁realizar	-9.45112
ré	-9.45214
▁existen	-9.45314
▁!	-9.45336
▁Ver	-9.45366
▁vista	-9.45401
▁Galiza	-9.45529
▁oito	-9.45577
▁Tri	-9.4561
shi	-9.4563
iva	-9.45976
nio	-9.46089
▁morreu	-9.46092
▁Primeira	-9.46292
▁expresión	-9.46396
▁localidade	-9.46399
▁Jo	-9.46504
▁Que	-9.46731
▁tiñan	-9.46744
▁cm	-9.46753
día	-9.46821
▁lei	-9.47033
▁normalmente	-9.47033
▁papa	-9.4722
cri	-9.47249
ste	-9.4732
ura	-9.47372
▁resposta	-9.47564
▁terras	-9.47669
▁escribiu	-9.4772
tón	-9.47754
▁Cer	-9.47787
▁piloto	-9.47828
par	-9.47854
▁rexións	-9.47898
▁produtos	-9.47904
▁quedou	-9.47977
▁realidade	-9.48024
ard	-9.48043
gi	-9.48091
▁Rodríguez	-9.48164
▁=	-9.48351
rían	-9.48605
▁literatura	-9.48622
▁dominio	-9.48751
▁1998	-9.48753
▁Fernández	-9.4881
▁1996	-9.49004
▁existencia	-9.49043
▁temperatura	-9.49044
▁forman	-9.49055
▁teatro	-9.49125
▁ARN	-9.49129
ler	-9.49129
▁Za	-9.49241
▁formas	-9.49265
▁ga	-9.49382
▁traballos	-9.49601
▁boa	-9.49613
▁puido	-9.49617
▁xefe	-9.49714
▁Ce	-9.49755
idos	-9.49829
▁deixou	-9.49835
▁clasificación	-9.49857
▁bastante	-9.49868
gos	-9.49928
▁Luís	-9.5002
▁entrada	-9.50083
▁logrou	-9.50169
▁competición	-9.50233
▁campión	-9.5037
bri	-9.50374
▁carga	-9.50415
▁natureza	-9.50455
és	-9.50462
▁cu	-9.5048
▁Rusia	-9.50657
mpa	-9.50699
▁producir	-9.50749
▁estación	-9.50778
ide	-9.50782
X	-9.50955
ze	-9.51011
▁lu	-9.51025
▁escrita	-9.51048
ire	-9.51065
▁Ja	-9.51295
▁probable	-9.51327
▁industria	-9.51361
▁Consello	-9.51439
▁pan	-9.51491
▁India	-9.51626
▁1992	-9.5168
▁numerosos	-9.51718
▁representa	-9.51746
▁muito	-9.51849
▁bispo	-9.51849
ea	-9.51859
amp	-9.51899
▁manter	-9.51994
▁fonte	-9.52083
▁ad	-9.52135
▁occidental	-9.52301
▁naceu	-9.52356
▁noite	-9.52673
▁economía	-9.52735
▁parece	-9.52756
▁premio	-9.52767
▁inclúe	-9.52821
▁destas	-9.53059
▁problema	-9.53272
▁quilómetros	-9.53306
▁dereitos	-9.53337
▁1997	-9.53395
▁xoga	-9.53432
▁formada	-9.53434
▁sal	-9.53522
▁có	-9.53585
▁Gu	-9.53624
▁Final	-9.53634
cal	-9.53723
tí	-9.53738
▁Australia	-9.53779
▁tratamento	-9.5382
▁aves	-9.53879
▁80	-9.53974
▁cuxa	-9.5409
uro	-9.54118
▁trata	-9.54238
▁defensa	-9.54248
té	-9.54251
▁barrio	-9.54547
▁Goberno	-9.54668
▁1970	-9.54744
▁fo	-9.54764
▁decidiu	-9.54896
▁ouro	-9.54901
▁falta	-9.54908
▁rede	-9.54916
▁evolución	-9.5495
▁1994	-9.54984
▁Río	-9.55033
▁pel	-9.55086
ano	-9.55187
▁xeneral	-9.55223
▁Z	-9.55388
▁Ve	-9.55452
▁complexo	-9.55467
▁había	-9.55475
ugués	-9.55512
▁aumento	-9.55711
▁partes	-9.55734
▁México	-9.55851
▁Chi	-9.55922
▁cuarto	-9.56104
▁super	-9.56147
▁pasar	-9.56169
▁China	-9.5617
▁tradición	-9.56272
▁máxima	-9.56436
▁Brasil	-9.56441
dra	-9.56501
▁posúe	-9.56631
▁pa	-9.56643
▁cancións	-9.56804
▁Wa	-9.56818
▁traballa	-9.56847
▁bandeira	-9.56913
▁autores	-9.57022
▁Ex	-9.57076
tt	-9.57114
cto	-9.57283
▁curso	-9.57473
▁presión	-9.57482
tado	-9.57486
▁1993	-9.57508
▁distribución	-9.57605
▁cambios	-9.57645
▁Actualmente	-9.57754
ite	-9.5783
▁Galega	-9.57883
▁proba	-9.57931
▁servizos	-9.58098
▁An	-9.58113
min	-9.58117
▁fundamental	-9.5819
rón	-9.58259
▁presente	-9.5832
zi	-9.58387
▁relativa	-9.58426
▁libros	-9.5849
gui	-9.58535
ty	-9.58578
▁chega	-9.58601
▁mellores	-9.58607
▁similar	-9.58645
▁cultural	-9.58702
▁xeo	-9.58724
▁gra	-9.58738
▁Ben	-9.58752
▁numerosas	-9.58869
▁traballar	-9.5891
50	-9.58929
▁orixina	-9.58989
izado	-9.59005
▁toma	-9.59007
▁selo	-9.59036
▁contacto	-9.59073
bor	-9.59134
menta	-9.59241
▁áreas	-9.59293
▁comunicación	-9.59374
▁celular	-9.59379
▁atopar	-9.59387
▁du	-9.59412
▁porto	-9.59468
▁horas	-9.59556
lá	-9.59593
▁h	-9.59604
▁utilizado	-9.59643
▁coche	-9.59745
▁New	-9.59745
▁sangue	-9.598
▁completa	-9.59821
▁Monte	-9.59884
▁David	-9.59912
▁Pan	-9.59927
▁ministro	-9.6
▁xene	-9.60117
▁For	-9.60169
▁masa	-9.60175
▁perda	-9.60182
▁derrota	-9.60188
▁coñece	-9.60188
lé	-9.60235
▁Bra	-9.60251
▁Miguel	-9.60303
▁Era	-9.60357
▁límite	-9.6049
▁posterior	-9.60526
rri	-9.60632
▁pu	-9.60652
pro	-9.60805
dura	-9.60851
▁representación	-9.60915
▁extremo	-9.60919
én	-9.60925
ac	-9.61081
▁sistemas	-9.61138
▁imaxes	-9.61177
▁Gi	-9.61316
▁composto	-9.61392
▁habitual	-9.6153
tur	-9.61542
▁mediados	-9.61572
▁coñecemento	-9.61647
▁independencia	-9.6184
▁obtivo	-9.6185
▁Idade	-9.61854
▁busca	-9.61857
▁nese	-9.61894
▁xente	-9.61894
▁Gar	-9.62061
▁peso	-9.62085
▁Porto	-9.62095
▁à	-9.62133
iz	-9.62154
gen	-9.62351
▁Academia	-9.62365
▁efectos	-9.62372
▁1960	-9.6247
▁baseado	-9.62516
▁mestura	-9.6255
▁k	-9.62571
▁Mor	-9.62631
ger	-9.62692
▁frecuencia	-9.62701
▁dia	-9.62781
▁apareceu	-9.62909
▁obxecto	-9.62915
▁conquista	-9.62976
lí	-9.62998
▁chegada	-9.63041
vis	-9.63179
▁entra	-9.63278
torio	-9.63293
ión	-9.63322
▁Máis	-9.63378
▁voo	-9.63454
▁XVIII	-9.63512
▁deriva	-9.63567
▁pouca	-9.63578
lar	-9.63608
▁Ferrol	-9.63618
▁1989	-9.63648
▁gañar	-9.63743
xia	-9.63806
▁favor	-9.63828
▁amor	-9.63876
▁Ju	-9.64089
▁70	-9.64135
▁porta	-9.64153
▁praza	-9.64166
▁fala	-9.64196
▁sección	-9.64344
▁mans	-9.64447
▁Afonso	-9.64471
▁secuencia	-9.6456
▁hi	-9.64569
▁dura	-9.64608
▁futuro	-9.64692
▁xogadores	-9.64723
ático	-9.64767
▁madeira	-9.64777
▁actor	-9.64779
▁obter	-9.6482
▁crear	-9.64879
7	-9.64884
▁Santo	-9.64896
▁Sal	-9.64943
▁Bre	-9.65072
▁conseguir	-9.65107
▁regular	-9.65231
▁densidade	-9.65236
▁etapa	-9.65425
▁90	-9.65425
▁estadio	-9.65505
▁órgano	-9.65554
▁activa	-9.65565
▁tiveron	-9.65578
tre	-9.65618
▁cantante	-9.65647
▁romana	-9.65669
ante	-9.65731
▁camiño	-9.65759
▁provoca	-9.6576
mbi	-9.65767
▁castelán	-9.65796
ral	-9.65816
ario	-9.65844
▁Nesta	-9.65858
▁esquerda	-9.66049
▁viaxe	-9.66103
▁mestre	-9.66195
▁Centro	-9.66262
▁evitar	-9.66328
▁actividades	-9.6637
▁ningunha	-9.66448
▁pé	-9.6645
▁Posterior	-9.66473
tic	-9.66684
-1	-9.66722
▁fontes	-9.66738
▁realizou	-9.66867
▁Par	-9.66882
▁fu	-9.6692
▁física	-9.66934
▁clima	-9.67126
▁imaxe	-9.67148
▁misión	-9.67364
▁Coa	-9.67395
▁dobre	-9.67486
▁resulta	-9.67494
▁considerada	-9.67622
▁departamento	-9.67628
▁pedra	-9.67643
▁calidade	-9.67656
▁próximo	-9.67805
▁transporte	-9.67833
▁ri	-9.67856
▁corte	-9.67934
▁chama	-9.67947
iana	-9.67959
pla	-9.68031
▁funcións	-9.68046
im	-9.68088
▁relacións	-9.68216
▁británico	-9.68255
▁industrial	-9.68283
▁qui	-9.68313
rie	-9.68366
▁san	-9.68481
▁comp	-9.68646
▁ru	-9.68747
▁Illa	-9.68768
▁levar	-9.68817
▁creou	-9.68918
dora	-9.68919
▁apenas	-9.68951
W	-9.68953
▁propiedade	-9.68968
▁longa	-9.69013
▁niveis	-9.69026
▁Media	-9.69162
ic	-9.69179
tz	-9.69181
ö	-9.69188
▁pódese	-9.69205
ot	-9.69395
▁contrato	-9.69409
▁golpe	-9.69607
▁pertencente	-9.69622
▁locais	-9.69643
▁consecuencia	-9.69647
vel	-9.69655
▁Deus	-9.69761
▁castelo	-9.69875
ny	-9.69889
▁humana	-9.69968
▁posibilidade	-9.70031
▁composta	-9.70219
▁formou	-9.70225
▁+	-9.70237
era	-9.70248
▁resistencia	-9.70337
▁1987	-9.70347
▁concepto	-9.70427
▁Lei	-9.70442
▁publicación	-9.70491
0	-9.70498
cional	-9.70519
ei	-9.70586
▁facendo	-9.70639
▁probas	-9.70717
▁n	-9.70721
tão	-9.70748
▁metal	-9.70784
fu	-9.70798
▁NBA	-9.70842
rd	-9.70844
can	-9.70857
bles	-9.7087
▁Asia	-9.70884
▁método	-9.70906
▁máximo	-9.70913
▁ciencia	-9.70929
▁baseada	-9.70947
▁bu	-9.70982
▁festa	-9.71013
▁Ku	-9.71029
▁minutos	-9.7111
▁texto	-9.71129
▁militares	-9.71143
▁reacción	-9.71212
▁Escola	-9.71333
ham	-9.71424
▁podía	-9.71467
▁directamente	-9.71573
lina	-9.71639
▁diferente	-9.71691
▁entrou	-9.71704
▁económica	-9.71715
mon	-9.71736
▁conde	-9.7182
ena	-9.71834
▁análise	-9.71909
▁coroa	-9.71913
▁inferior	-9.71955
▁moeda	-9.71972
mb	-9.71996
ivo	-9.72099
,5	-9.72103
▁Museo	-9.72155
▁elas	-9.72321
mbo	-9.7234
▁persoal	-9.72368
▁CD	-9.72394
▁Ramón	-9.72401
▁produto	-9.72421
▁aparecen	-9.72468
▁sector	-9.72525
▁relacionado	-9.72577
rado	-9.72592
▁virus	-9.72674
▁doce	-9.72689
for	-9.72832
▁follas	-9.72885
▁Xunta	-9.72927
cta	-9.72935
ux	-9.7296
▁tempos	-9.72983
▁acceso	-9.72996
▁dar	-9.73161
▁interna	-9.73176
▁Va	-9.73183
▁pista	-9.73194
▁concentración	-9.73194
▁eu	-9.73239
tada	-9.73296
▁segue	-9.73328
▁reinado	-9.73352
▁Com	-9.73365
▁California	-9.73369
▁Paul	-9.73403
▁pessoas	-9.73421
▁matrimonio	-9.73423
usa	-9.7346
▁moléculas	-9.73461
▁aire	-9.73523
ula	-9.73592
▁acto	-9.736
▁resultados	-9.73688
▁podemos	-9.7376
▁anteriores	-9.73783
▁Xosé	-9.73906
▁precisa	-9.73942
▁carbono	-9.73948
▁Illas	-9.73948
gas	-9.73956
tia	-9.73983
▁Fu	-9.74027
▁utiliza	-9.74028
▁necesidade	-9.7404
▁cine	-9.74052
▁nove	-9.74061
iza	-9.74165
▁tratado	-9.74185
ando	-9.74188
▁xogar	-9.74215
izada	-9.74233
▁be	-9.74237
amento	-9.74289
▁1986	-9.7429
▁br	-9.74308
▁organismos	-9.74331
▁aparición	-9.74337
rt	-9.74391
gan	-9.74449
▁Xeral	-9.74463
▁gas	-9.74675
▁ocorre	-9.74765
▁trono	-9.74783
mia	-9.74791
▁denominado	-9.74803
▁houb	-9.74811
▁doutros	-9.75189
▁grega	-9.75274
spe	-9.75391
à	-9.75414
▁estados	-9.75454
▁exterior	-9.75496
▁unidade	-9.75545
▁marcha	-9.75609
▁territorios	-9.75687
▁escrito	-9.75766
izar	-9.75837
▁escala	-9.75875
▁Robert	-9.75963
▁1979	-9.76058
▁Cataluña	-9.7608
▁traballou	-9.76083
▁caza	-9.76284
pu	-9.76313
ola	-9.76365
▁We	-9.76371
▁líder	-9.76376
fí	-9.76436
▁Española	-9.76439
▁inverno	-9.76548
▁nenos	-9.7658
▁será	-9.76587
iu	-9.76709
we	-9.76727
▁Don	-9.76741
ü	-9.76859
▁sociais	-9.76972
▁ne	-9.77052
ud	-9.77104
▁séculos	-9.77109
▁Canadá	-9.77213
▁Ge	-9.77234
van	-9.77246
▁extensión	-9.77297
▁certo	-9.77389
▁Polo	-9.77452
▁chan	-9.7749
▁sinxelo	-9.7774
▁isso	-9.77801
▁procedente	-9.77825
▁1978	-9.77833
▁mosteiro	-9.77966
▁lles	-9.78035
▁López	-9.78162
▁produciu	-9.78162
▁mono	-9.78228
▁irmá	-9.78417
▁meu	-9.78423
▁bio	-9.78439
▁palabras	-9.78443
▁u	-9.7859
dy	-9.78652
▁micro	-9.78668
▁Outros	-9.78742
▁fondo	-9.78834
▁inclúen	-9.78925
▁plan	-9.78938
oloxía	-9.79025
▁Central	-9.79037
▁comezaron	-9.79062
▁famoso	-9.79178
▁baloncesto	-9.79206
▁raíña	-9.79295
▁Algunha	-9.79319
encia	-9.79402
▁Congreso	-9.79461
▁1982	-9.79496
▁branco	-9.79498
▁materia	-9.79539
▁anunciou	-9.79541
tó	-9.79544
▁visita	-9.79549
▁ferro	-9.79549
▁padrón	-9.79662
20	-9.79677
gre	-9.79714
nça	-9.79751
▁Mundo	-9.79842
▁Bal	-9.79886
dro	-9.79899
▁produce	-9.79908
nder	-9.79962
▁são	-9.79972
▁estudio	-9.79974
▁1983	-9.79981
eu	-9.79984
mática	-9.80003
▁técnica	-9.80025
ves	-9.80066
bio	-9.80077
▁intento	-9.80136
ier	-9.80161
tan	-9.80192
▁porén	-9.8026
ela	-9.80262
▁Popular	-9.80347
▁Pre	-9.80481
▁Ser	-9.80586
▁vive	-9.80613
▁editado	-9.80782
▁construído	-9.80794
▁denominación	-9.80853
▁Luis	-9.80959
▁planeta	-9.80976
40	-9.81045
gt	-9.81057
▁creado	-9.81069
▁2017	-9.81138
▁inicio	-9.81202
▁Irlanda	-9.8121
▁colección	-9.81259
▁Sch	-9.81271
▁Gra	-9.81297
▁sexual	-9.81297
▁liberdade	-9.81327
▁antigos	-9.81344
▁Cruz	-9.81366
ex	-9.81375
▁Arxentina	-9.81471
▁1988	-9.81478
▁James	-9.81562
▁Festival	-9.81645
▁xornalista	-9.81657
▁personaxe	-9.81858
▁usar	-9.8189
▁Pode	-9.81901
▁fronteira	-9.81927
lles	-9.81942
ios	-9.81972
tino	-9.81994
ró	-9.82036
▁medios	-9.82072
▁Cla	-9.82088
▁crítica	-9.82102
▁200	-9.82103
rí	-9.82248
▁ta	-9.82259
▁1985	-9.82353
▁ruso	-9.82459
▁ven	-9.82516
▁consiste	-9.82539
▁mon	-9.8254
ä	-9.82625
▁Orde	-9.82633
▁tales	-9.82639
▁Pu	-9.82643
▁relixión	-9.82725
▁XVI	-9.82838
ak	-9.82848
▁Europea	-9.82872
▁accidente	-9.82902
▁acaba	-9.82947
riz	-9.82978
cido	-9.83018
▁circuíto	-9.83049
▁continuou	-9.83087
xen	-9.83117
▁Mac	-9.83189
▁individuos	-9.83239
▁suficiente	-9.83255
lio	-9.8326
idae	-9.83283
▁pública	-9.83299
▁réxime	-9.83462
▁bar	-9.83467
▁comercio	-9.83557
▁condado	-9.83629
▁ambiente	-9.83639
▁George	-9.83671
▁fundada	-9.83681
▁asociación	-9.83694
80	-9.83698
▁altitude	-9.83702
▁adoita	-9.83712
▁oriental	-9.83756
▁pais	-9.83817
rou	-9.83818
▁armas	-9.83839
titu	-9.83849
▁xogou	-9.83921
▁Ana	-9.83945
ona	-9.83956
▁dereita	-9.83973
▁variedade	-9.83975
▁Ki	-9.84012
bia	-9.84087
▁Pola	-9.84138
▁animal	-9.84188
▁dez	-9.84196
▁adestrador	-9.84202
port	-9.843
▁certa	-9.84329
▁entidades	-9.84359
vol	-9.84386
▁Je	-9.84386
▁participación	-9.84423
ificación	-9.84445
è	-9.84483
▁liñas	-9.84566
▁templo	-9.84656
▁monte	-9.84724
▁1950	-9.8473
▁inglesa	-9.84802
▁linguaxe	-9.84835
▁cuxo	-9.84839
▁razón	-9.84852
til	-9.8491
▁Records	-9.85023
▁formando	-9.85064
▁Y	-9.85155
▁personaxes	-9.85216
▁peixes	-9.8522
▁motivo	-9.85382
▁compositor	-9.8541
▁limita	-9.85431
bilidade	-9.85481
▁Vo	-9.85501
▁composición	-9.85516
ld	-9.85539
▁honra	-9.85616
▁utilizar	-9.85673
gna	-9.85683
ñe	-9.85708
▁administración	-9.85747
lan	-9.8576
▁combate	-9.85812
▁alemá	-9.85814
▁azul	-9.85818
ólogo	-9.8584
▁vo	-9.85893
▁artistas	-9.85903
▁ataque	-9.85925
▁1977	-9.85925
▁compostos	-9.85981
mit	-9.85983
▁chegaron	-9.85993
▁cerca	-9.86016
▁consta	-9.86192
▁saída	-9.862
▁Grecia	-9.8626
▁duque	-9.86346
▁cromosoma	-9.86374
▁plano	-9.86401
▁técnicas	-9.86411
▁Sta	-9.86427
▁clases	-9.86514
iño	-9.86532
▁pertence	-9.86608
▁dólares	-9.86672
cor	-9.86695
rum	-9.86742
▁González	-9.86801
hu	-9.86867
▁Valencia	-9.86869
▁príncipe	-9.86923
▁Xogos	-9.86959
▁representante	-9.86973
▁nalgún	-9.86985
▁fazer	-9.87001
▁Bretaña	-9.87046
▁seguir	-9.87156
mba	-9.87194
▁torre	-9.87228
▁indican	-9.87287
▁achega	-9.87371
▁1984	-9.87544
▁naturais	-9.87601
▁recoñecemento	-9.87622
▁experiencia	-9.8763
▁diante	-9.87655
▁Pen	-9.87664
▁poeta	-9.87691
▁completamente	-9.87828
▁Henrique	-9.87855
cé	-9.87866
▁1976	-9.87916
mor	-9.8793
▁destaca	-9.87953
ini	-9.88073
▁1981	-9.88101
▁William	-9.88111
▁estudar	-9.88118
▁cancro	-9.88133
▁obxectos	-9.88154
▁algún	-9.882
▁considera	-9.88206
▁Bor	-9.88217
▁Ó	-9.88251
▁Mentre	-9.88256
ment	-9.88385
▁lanzado	-9.88387
▁dirixida	-9.88489
▁rápida	-9.88497
▁científico	-9.88528
▁noutro	-9.88573
▁elemento	-9.88587
▁Aragón	-9.88593
ata	-9.88608
▁normal	-9.88627
▁completo	-9.88663
▁fre	-9.88668
▁tomar	-9.88668
▁Cada	-9.88719
ō	-9.88761
▁Jean	-9.8883
▁Mer	-9.88859
▁usa	-9.88873
▁cores	-9.88879
▁ocupa	-9.89023
▁Existen	-9.89076
▁Xu	-9.89133
▁Austria	-9.89153
ções	-9.89217
▁actriz	-9.89278
▁St	-9.89285
▁empeza	-9.89315
▁propiedades	-9.89349
▁tomou	-9.89441
▁Parlamento	-9.89498
▁interpretación	-9.89518
▁converter	-9.89569
rias	-9.89622
ure	-9.8963
▁enorme	-9.89654
▁Ya	-9.89656
tida	-9.89663
▁esposa	-9.89696
▁recibe	-9.89715
ontevedrés	-9.89718
ez	-9.89833
▁decisión	-9.8992
-2	-9.89931
▁inicial	-9.89975
▁grao	-9.90028
▁rapidamente	-9.90034
au	-9.90051
toria	-9.90051
▁Cre	-9.90062
ker	-9.90078
yo	-9.90126
▁estruturas	-9.90228
▁materiais	-9.9034
▁prefectura	-9.9035
▁parella	-9.90456
▁recibir	-9.90531
▁Los	-9.90639
▁difícil	-9.90745
▁Pérez	-9.9089
▁descubrimento	-9.90922
▁Mil	-9.90975
J	-9.90996
▁creada	-9.91084
▁educación	-9.91132
,6	-9.91265
▁atópan	-9.91305
▁sala	-9.91312
▁1975	-9.9141
▁responsable	-9.91433
▁35	-9.91453
vé	-9.91464
▁noroeste	-9.91466
▁usado	-9.91513
▁entrar	-9.91526
▁comportamento	-9.91569
tá	-9.91656
▁médico	-9.91659
▁coñecidos	-9.91683
▁mando	-9.917
▁torneo	-9.91756
▁Or	-9.91783
▁cámara	-9.91787
dica	-9.91797
▁saúde	-9.91818
▁océano	-9.91883
,4	-9.91905
▁ruta	-9.91914
▁rápido	-9.91915
▁continua	-9.9192
▁escudo	-9.91944
rea	-9.91946
▁voz	-9.91947
▁poesía	-9.91947
▁fundado	-9.9195
▁procura	-9.91957
▁delas	-9.92009
30	-9.9209
▁Inter	-9.92189
▁Grande	-9.92255
▁publicada	-9.92275
▁escribir	-9.92291
▁500	-9.92374
▁conserva	-9.92486
▁península	-9.92528
▁bordo	-9.92536
▁Ur	-9.9265
tel	-9.92652
stri	-9.9266
▁comúns	-9.9268
stru	-9.92864
▁constante	-9.92911
▁moderna	-9.92972
10	-9.93027
▁unidades	-9.93062
▁chegando	-9.93086
▁corrente	-9.93167
bal	-9.93173
▁oposición	-9.93188
▁viven	-9.93219
▁nós	-9.93246
▁semana	-9.93408
cul	-9.9342
▁Debid	-9.9345
▁instalación	-9.93462
▁franceses	-9.93505
▁reco	-9.93523
nca	-9.9354
▁breve	-9.93571
▁deixar	-9.93637
▁tro	-9.93656
▁termos	-9.93688
▁FC	-9.93695
▁encontra	-9.93722
▁Che	-9.93736
▁construír	-9.9377
▁ponte	-9.93788
ther	-9.93825
▁mi	-9.93831
▁vivir	-9.93955
aria	-9.93974
▁encontro	-9.93993
▁amigo	-9.94025
▁incluso	-9.94063
▁rolda	-9.94073
▁trala	-9.94175
▁falar	-9.94203
▁disputa	-9.94216
cro	-9.94219
▁desenvolveu	-9.94224
▁tódolo	-9.94293
ér	-9.94463
▁contido	-9.94477
▁artigo	-9.9457
teñen	-9.94578
▁pobos	-9.9463
▁Ferrari	-9.94632
▁cuberta	-9.94694
▁pezas	-9.94721
▁sueste	-9.94731
0.000	-9.94767
▁1930	-9.9477
ras	-9.94771
▁histórico	-9.94779
cial	-9.94938
▁romano	-9.94992
▁química	-9.95007
▁árabe	-9.95021
▁XVII	-9.95021
▁daquela	-9.9506
▁risco	-9.95094
ído	-9.95177
▁detrás	-9.95181
▁denominada	-9.95333
▁sabe	-9.95335
▁he	-9.95335
▁nomes	-9.95341
▁deixa	-9.95347
▁dinastía	-9.95353
▁1974	-9.95394
▁colaboración	-9.95535
gro	-9.9555
▁capela	-9.95672
▁fixeron	-9.95721
▁arquitectura	-9.95754
▁parque	-9.95778
▁suma	-9.95794
▁1973	-9.95861
▁empresas	-9.95885
▁posteriores	-9.95926
▁frecuente	-9.95993
▁multi	-9.96045
berg	-9.96052
▁Tor	-9.96142
9	-9.96162
pul	-9.96214
▁meta	-9.9622
por	-9.96276
tivos	-9.96337
▁femias	-9.96357
ent	-9.9639
▁ascenso	-9.96392
▁crise	-9.96418
▁foto	-9.96453
▁vinte	-9.96484
ça	-9.96553
▁económico	-9.96589
▁VI	-9.96623
▁Asociación	-9.96661
70	-9.96724
▁paz	-9.96767
cida	-9.96784
▁histórica	-9.9691
▁va	-9.96982
▁directo	-9.96998
▁machos	-9.97042
vos	-9.97058
zu	-9.97076
▁continente	-9.97135
q	-9.97143
▁demais	-9.97191
▁potencia	-9.972
ás	-9.97393
▁infección	-9.97407
▁publica	-9.97586
▁municipais	-9.97611
tus	-9.97612
▁irmáns	-9.97643
▁contrario	-9.97797
rina	-9.97856
▁go	-9.9788
▁acadou	-9.97925
▁organismo	-9.97933
▁xenética	-9.97955
bil	-9.98035
▁conflito	-9.98073
▁semellante	-9.98093
▁curva	-9.98101
▁adoitan	-9.98236
▁Ke	-9.98316
tán	-9.98347
gri	-9.98394
▁tem	-9.98453
▁estableceu	-9.98463
▁ovos	-9.98472
▁inicialmente	-9.98475
▁claro	-9.98495
▁branca	-9.98504
▁nacemento	-9.9858
▁capa	-9.98601
▁fusión	-9.98616
íronse	-9.9864
▁recentemente	-9.98663
ila	-9.98727
▁mellora	-9.9874
90	-9.98759
▁pasando	-9.98819
eiros	-9.98918
tase	-9.98921
▁Michael	-9.98983
und	-9.99084
▁depende	-9.99171
▁presentan	-9.99189
▁cola	-9.99212
▁oficiais	-9.9926
▁soldados	-9.99273
▁dirixiu	-9.99321
▁estrela	-9.99366
▁beira	-9.99459
stre	-9.99464
▁Dereito	-9.99468
mil	-9.99496
uga	-9.99518
▁estrada	-9.99523
dre	-9.99534
▁letra	-9.99597
▁temos	-9.99724
▁coñecer	-9.99744
om	-9.99845
▁Deportivo	-9.99851
▁Torre	-9.9987
▁flores	-9.9988
▁romanos	-9.99907
▁batería	-9.99909
▁iniciou	-9.99933
▁Cara	-9.99943
ético	-9.99998
ato	-10.0002
▁Isabel	-10.0003
▁unir	-10.0007
▁extra	-10.0013
▁deben	-10.0015
tis	-10.0021
▁XIII	-10.0022
▁tecnoloxía	-10.0027
▁Bur	-10.0027
ndi	-10.0027
cra	-10.003
zar	-10.0036
ques	-10.0039
arse	-10.0039
▁Tráta	-10.0041
lli	-10.0043
▁doutras	-10.0043
▁fundador	-10.0047
fra	-10.0057
ji	-10.0058
▁pintura	-10.0068
▁Pat	-10.0071
ónico	-10.0079
▁tendo	-10.0081
▁xornal	-10.0087
▁símbolo	-10.0089
▁obstante	-10.009
▁1968	-10.0095
del	-10.0095
tr	-10.0096
ov	-10.0101
▁ambas	-10.0101
▁internacionais	-10.0101
▁verde	-10.0106
mé	-10.0112
▁localiza	-10.0115
fund	-10.0117
▁atravesa	-10.0122
▁aquela	-10.0133
▁pos	-10.0137
▁Exipto	-10.014
▁físico	-10.0143
ún	-10.0152
▁1967	-10.0155
▁filosofía	-10.0161
▁volver	-10.0161
deira	-10.0165
▁cambia	-10.0167
▁perdeu	-10.0171
▁respectivamente	-10.0175
gado	-10.0176
▁hora	-10.0178
▁casou	-10.0178
ft	-10.0179
nado	-10.0185
xer	-10.0188
▁seguridade	-10.0189
vin	-10.019
cle	-10.0194
▁característica	-10.0199
▁canle	-10.0201
▁exposición	-10.0201
▁fíxose	-10.0207
by	-10.0208
▁realizado	-10.0208
wi	-10.0209
▁Mal	-10.0214
▁sin	-10.0215
ixa	-10.0228
▁Malia	-10.0234
▁solución	-10.0236
▁totalmente	-10.0239
▁procesos	-10.0242
▁Nun	-10.0247
▁expedición	-10.0248
tú	-10.0253
▁reforma	-10.0258
▁carne	-10.026
▁mm	-10.0264
▁ópera	-10.0278
▁Atlántico	-10.0279
▁arquitecto	-10.0282
▁Novo	-10.0286
▁considerar	-10.0292
▁europeos	-10.0294
han	-10.0306
▁ideas	-10.0307
ñ	-10.0307
▁pasado	-10.0312
▁guitarra	-10.0315
▁proposta	-10.0319
aba	-10.0322
▁Bel	-10.0324
▁implica	-10.0324
▁políticas	-10.0327
▁recursos	-10.0329
▁clásica	-10.0336
▁españois	-10.034
kin	-10.0347
▁rematou	-10.0354
▁terreo	-10.0355
▁Sil	-10.0357
▁Ter	-10.0367
▁atención	-10.0373
▁políticos	-10.0373
gás	-10.0377
▁1972	-10.038
▁ob	-10.038
▁32	-10.0381
▁candidato	-10.0383
▁Wi	-10.0386
▁aspecto	-10.0386
▁Federación	-10.0395
▁catalán	-10.0406
▁Nu	-10.0416
▁ámbito	-10.042
dal	-10.0427
ár	-10.0427
▁’	-10.043
uta	-10.0431
uri	-10.0432
▁desenvolver	-10.0433
▁específico	-10.0434
▁movementos	-10.0434
α	-10.0435
▁comprende	-10.044
▁1969	-10.0446
▁ríos	-10.045
▁malia	-10.0465
▁universidade	-10.0474
▁cá	-10.0475
▁sufriu	-10.0484
▁veciños	-10.0487
▁memoria	-10.0489
har	-10.0489
▁mamíferos	-10.0491
pen	-10.0493
▁produtor	-10.0496
▁textos	-10.0497
▁varía	-10.0501
▁Fútbol	-10.0507
▁Escocia	-10.0515
▁Cidade	-10.0517
▁tradución	-10.0522
nu	-10.0523
▁Costa	-10.0524
▁tu	-10.053
▁garda	-10.053
▁lago	-10.0551
▁nave	-10.0554
▁pensa	-10.0555
▁Estudou	-10.0555
▁há	-10.0557
▁Moito	-10.0558
▁familias	-10.0562
kh	-10.0565
ética	-10.0574
▁1940	-10.0579
▁simple	-10.0579
▁pesca	-10.0584
▁medicina	-10.0585
▁consumo	-10.06
var	-10.0602
rico	-10.0605
▁fábrica	-10.0611
ski	-10.0613
▁XII	-10.0614
▁edificios	-10.0615
▁similares	-10.0615
▁código	-10.0622
▁científicos	-10.0622
com	-10.0623
▁artista	-10.0636
▁invasión	-10.0637
▁substituído	-10.0639
▁asinou	-10.0653
ís	-10.0659
▁órbita	-10.0659
▁Fer	-10.0659
icos	-10.0661
lha	-10.0667
▁deporte	-10.0667
▁esco	-10.0674
▁valores	-10.0681
▁imp	-10.0689
▁árbores	-10.069
▁fundou	-10.0691
tive	-10.0692
11	-10.0695
▁participa	-10.0697
▁1945	-10.0701
▁ameaza	-10.0702
cía	-10.0708
bol	-10.0714
od	-10.0717
▁alimentos	-10.0719
lista	-10.0719
▁Mont	-10.0723
▁xéneros	-10.0731
▁Baixos	-10.0737
▁Ata	-10.0738
▁experimenta	-10.0742
▁ab	-10.0745
▁semanas	-10.0745
▁remata	-10.0746
esta	-10.0747
▁gobernador	-10.0747
dí	-10.0751
▁negra	-10.0757
▁45	-10.0759
▁significado	-10.0761
▁pas	-10.0763
▁negro	-10.0766
ek	-10.0769
▁1920	-10.0769
▁leis	-10.077
▁caída	-10.0782
▁bases	-10.0784
▁1971	-10.0787
▁Só	-10.079
tch	-10.0791
▁Presidente	-10.0796
▁realmente	-10.0797
▁estrelas	-10.0798
isto	-10.08
▁simplemente	-10.0803
▁Todos	-10.0805
▁diámetro	-10.0805
▁pilotos	-10.0806
▁Men	-10.0806
▁Campo	-10.0808
ev	-10.0811
▁crea	-10.0811
▁xunta	-10.0817
▁cuestión	-10.0821
▁Ama	-10.0834
▁quand	-10.0835
illa	-10.0838
cou	-10.0854
pp	-10.0854
▁alcanza	-10.0857
▁certas	-10.0862
▁Ponte	-10.0863
▁deputado	-10.0871
,8	-10.0872
▁Wo	-10.0875
▁usando	-10.0879
▁permitiu	-10.0883
▁Antes	-10.0883
▁Ir	-10.0885
rada	-10.0887
▁artigos	-10.0888
▁colonia	-10.0889
▁letras	-10.0893
60	-10.0894
▁goles	-10.0903
▁motores	-10.0908
▁participar	-10.0914
▁aumenta	-10.092
▁construída	-10.0924
elo	-10.0931
▁protección	-10.0939
▁pra	-10.0946
▁Filipe	-10.0946
▁aberto	-10.0951
ística	-10.0954
▁destino	-10.0956
▁métodos	-10.0959
ábel	-10.0964
ara	-10.0972
▁visión	-10.0974
▁Saint	-10.0975
▁Serra	-10.098
▁secretario	-10.0986
▁agricultura	-10.0989
,1	-10.0989
▁Har	-10.0992
▁Soviética	-10.0993
▁revolución	-10.0995
▁cobre	-10.0998
psi	-10.0999
▁expansión	-10.1
▁Pacífico	-10.1008
▁suroeste	-10.1009
▁terminou	-10.1012
▁Grupo	-10.1024
▁distribuídos	-10.103
iga	-10.103
▁VII	-10.1032
▁volume	-10.1041
ight	-10.1045
▁cinema	-10.1053
▁Asturias	-10.1058
▁censo	-10.1061
▁contaba	-10.1061
▁titular	-10.1071
rem	-10.1071
ê	-10.1074
bro	-10.1074
dri	-10.1077
▁Charles	-10.1082
▁comun	-10.109
▁aberta	-10.1096
▁ref	-10.1097
▁propios	-10.1098
▁Ed	-10.1105
▁actuais	-10.1117
▁provincias	-10.1117
▁coches	-10.1118
▁imperio	-10.112
▁1931	-10.1121
▁sua	-10.1121
▁Ad	-10.1125
▁estrea	-10.1127
▁Martin	-10.1129
▁seguiu	-10.1129
▁trasladou	-10.1131
tano	-10.1135
ixo	-10.1141
▁tira	-10.1146
▁Tom	-10.1147
▁compoñentes	-10.1156
mán	-10.1165
▁clara	-10.1167
ec	-10.1172
▁von	-10.1172
xio	-10.1173
bar	-10.1174
▁Sen	-10.1174
▁británica	-10.1176
▁neo	-10.1178
▁vén	-10.1181
▁católica	-10.1183
▁cultivo	-10.1185
▁cousas	-10.1186
▁Outras	-10.1199
▁menores	-10.1202
▁notable	-10.1205
uto	-10.1207
,2	-10.1209
lus	-10.1212
▁Tre	-10.1214
25	-10.1215
cá	-10.1217
ible	-10.1218
▁xeración	-10.1221
▁ho	-10.1221
izou	-10.1223
▁Suecia	-10.1223
▁estudou	-10.1224
▁Er	-10.1225
ius	-10.1232
▁labor	-10.1238
12	-10.124
▁poemas	-10.124
▁tendencia	-10.1242
▁portugués	-10.1246
▁autoridade	-10.1249
▁definición	-10.1254
▁converte	-10.126
nal	-10.1268
▁activo	-10.1274
▁desaparece	-10.1277
▁literaria	-10.1278
▁fundación	-10.1281
▁vermello	-10.1287
udi	-10.129
▁números	-10.1296
,0	-10.1302
▁xenoma	-10.1304
mu	-10.1304
▁Art	-10.1311
tivas	-10.1313
▁necesario	-10.1316
ct	-10.1317
▁medieval	-10.1322
▁premios	-10.1322
▁certos	-10.1326
▁múltiple	-10.133
▁molécula	-10.1332
▁Villa	-10.1338
▁Sha	-10.1342
,9	-10.1345
rido	-10.1347
▁lanzamento	-10.1352
▁hipótese	-10.1354
sol	-10.1356
▁Mel	-10.1364
▁científica	-10.1366
▁gravación	-10.1382
nica	-10.1383
ian	-10.1384
cus	-10.1389
pas	-10.1394
mis	-10.1396
▁Super	-10.1402
▁dita	-10.1403
▁populares	-10.1411
▁feitos	-10.1418
▁sé	-10.1421
▁Aires	-10.1423
▁Constitución	-10.1426
▁sinal	-10.1426
▁intención	-10.1427
ua	-10.1429
sina	-10.1433
▁She	-10.1433
▁exp	-10.1439
▁diso	-10.1448
teiro	-10.1448
xida	-10.1451
▁procede	-10.1456
▁́	-10.1458
dón	-10.1462
▁expresa	-10.1462
▁Eduardo	-10.1465
gon	-10.1466
▁gañador	-10.1474
▁protagonista	-10.1477
▁vermella	-10.148
▁novamente	-10.1481
▁Ze	-10.1484
▁italiana	-10.149
▁producido	-10.1493
▁converténdo	-10.1495
▁Ese	-10.1508
▁establecer	-10.1509
ografía	-10.1511
▁diferenzas	-10.1511
nato	-10.1515
▁Qui	-10.1515
▁campos	-10.1518
tico	-10.1522
cy	-10.1525
▁calor	-10.1525
▁ensino	-10.1528
▁Van	-10.153
▁mantivo	-10.1533
▁aldea	-10.1545
▁converteu	-10.1545
tido	-10.1546
▁títulos	-10.1549
lán	-10.155
▁ofrece	-10.1558
▁pintor	-10.1558
▁elección	-10.1562
▁nesa	-10.1565
▁ensaio	-10.1568
▁costas	-10.1568
▁1963	-10.1568
.1	-10.1575
▁incremento	-10.1577
▁amplo	-10.1589
tario	-10.1589
ey	-10.159
ador	-10.1592
▁Exército	-10.1592
▁National	-10.1592
▁usada	-10.1594
tores	-10.1602
▁receptor	-10.1606
▁Alí	-10.1609
▁Sevilla	-10.161
▁fra	-10.1612
▁1962	-10.1613
▁poboacións	-10.1625
▁volve	-10.1627
▁semi	-10.1629
▁1964	-10.1638
▁quinto	-10.1639
▁próxima	-10.164
▁profundidade	-10.1641
▁dificultade	-10.1641
▁capaz	-10.1644
▁pole	-10.1649
▁prensa	-10.1654
▁Mag	-10.1659
op	-10.1662
▁exemplares	-10.1666
gou	-10.1672
▁votos	-10.1672
▁Richard	-10.1675
07	-10.1675
▁1966	-10.1679
▁Bla	-10.1682
iano	-10.1683
▁Outra	-10.1695
▁1939	-10.1696
▁rama	-10.1697
▁altas	-10.1703
▁músculo	-10.1703
▁táboa	-10.1703
▁XV	-10.1706
▁versións	-10.1706
▁toca	-10.1707
▁futbolista	-10.1716
rque	-10.1717
ço	-10.1722
ví	-10.1726
▁My	-10.1728
▁33	-10.1729
▁concertos	-10.1741
ticamente	-10.1743
cios	-10.1746
▁catedral	-10.1749
plo	-10.1752
▁All	-10.1757
▁Ara	-10.1757
▁urbano	-10.1766
cti	-10.1768
inos	-10.1773
▁figuras	-10.1774
ístico	-10.1776
▁consegue	-10.1777
▁Pouco	-10.1783
nima	-10.1786
▁impacto	-10.1786
▁museo	-10.179
▁mala	-10.1792
eg	-10.1793
dar	-10.1798
▁anteriormente	-10.1801
eto	-10.1802
▁fixa	-10.1803
▁Revolución	-10.1804
if	-10.1814
▁modelos	-10.1817
▁recoñecido	-10.1824
▁Xesús	-10.1837
▁prata	-10.1837
cina	-10.1838
▁Navarra	-10.1841
mini	-10.1841
▁Xe	-10.1841
ril	-10.1842
▁1965	-10.1846
▁europeo	-10.1852
▁nalgunha	-10.1853
ias	-10.1854
▁Vasco	-10.1856
dé	-10.1857
tín	-10.1858
▁presentes	-10.1858
my	-10.1868
▁permaneceu	-10.187
▁acadar	-10.1878
ábanse	-10.188
▁gl	-10.188
и	-10.1883
gal	-10.1883
▁tempadas	-10.1884
cionais	-10.1885
▁1958	-10.1888
lum	-10.1892
xes	-10.1895
▁sexo	-10.1895
▁famosa	-10.1896
▁Ciencias	-10.1896
▁300	-10.1898
▁Bas	-10.1904
▁significativa	-10.1908
▁men	-10.1908
▁residencia	-10.1909
cente	-10.192
ctor	-10.1929
▁Bro	-10.1939
▁dixo	-10.1939
mpe	-10.1943
▁tecidos	-10.1949
▁eléctrica	-10.1952
▁ni	-10.1954
tismo	-10.1954
▁Outro	-10.1954
▁Polonia	-10.1956
▁potencial	-10.1958
nar	-10.1967
▁seres	-10.1971
▁Fillo	-10.1978
▁excepción	-10.1981
▁capitán	-10.1984
gor	-10.199
tero	-10.199
▁Dis	-10.1993
pare	-10.1993
▁lenda	-10.1995
cla	-10.1995
▁síntese	-10.1997
▁compañeiro	-10.2002
▁policía	-10.2002
pto	-10.2005
▁pensamento	-10.2006
▁presentar	-10.202
form	-10.2031
▁pasaxeiros	-10.2032
▁mecanismo	-10.2033
▁podían	-10.2033
▁permanente	-10.204
let	-10.2041
ju	-10.2041
▁canta	-10.2045
▁suxire	-10.2049
rma	-10.2052
▁acabou	-10.2053
tista	-10.2056
lis	-10.2058
▁barco	-10.2058
▁Nese	-10.2059
▁escena	-10.2061
▁meirande	-10.2061
▁explica	-10.2064
▁Paulo	-10.2064
▁frecuentemente	-10.2065
▁árbore	-10.2073
▁tradicionais	-10.2074
▁fenómeno	-10.2078
▁avión	-10.2078
▁arco	-10.208
▁Fri	-10.2081
▁insectos	-10.2085
nga	-10.2087
▁noutras	-10.2091
▁Pla	-10.2103
▁producen	-10.2106
▁posesión	-10.2109
▁ollos	-10.2119
enta	-10.2119
▁europea	-10.212
▁cento	-10.2126
▁absoluta	-10.2139
▁atopou	-10.214
▁accións	-10.2148
▁Red	-10.2149
▁venda	-10.2151
▁minha	-10.2154
tais	-10.2157
▁Sociedade	-10.2158
▁seguido	-10.2159
▁Tar	-10.216
ónica	-10.2163
ye	-10.2168
▁verdade	-10.217
dd	-10.2173
▁Thomas	-10.2174
▁Plan	-10.2175
▁Radio	-10.2183
▁Berlín	-10.2187
▁latino	-10.2188
▁estándar	-10.219
▁frota	-10.2191
▁funciona	-10.2191
04	-10.2195
▁Tro	-10.2195
▁consello	-10.2197
▁1948	-10.2201
▁tratar	-10.2207
▁nela	-10.2211
▁permanece	-10.2219
▁casas	-10.2223
▁perder	-10.2227
▁chamadas	-10.2227
▁programas	-10.223
zón	-10.223
▁previa	-10.223
▁montaña	-10.2236
▁Suíza	-10.2239
▁chi	-10.2239
▁instrumentos	-10.2242
▁temperaturas	-10.2243
tera	-10.2249
▁Comezou	-10.2252
▁adiante	-10.2257
▁adaptación	-10.2258
tio	-10.2258
mino	-10.2259
dade	-10.2267
▁cría	-10.2269
ilo	-10.2273
inas	-10.2278
olo	-10.228
▁Martínez	-10.2287
▁rematar	-10.2297
27	-10.2302
▁proporciona	-10.2306
len	-10.2308
dic	-10.2313
▁flor	-10.2315
▁observación	-10.2316
ificado	-10.2317
▁corresponde	-10.232
▁formal	-10.2321
▁fer	-10.2325
▁Lago	-10.2329
-18	-10.2331
▁Sin	-10.2333
ford	-10.2333
▁Cuba	-10.2336
ume	-10.2338
▁contexto	-10.2344
▁tor	-10.2347
▁1933	-10.2349
▁peixe	-10.235
nés	-10.2351
ótica	-10.2353
▁atmosfera	-10.2353
▁demasiado	-10.2353
▁serve	-10.2354
▁gan	-10.2356
úa	-10.2356
ville	-10.2357
▁satélite	-10.2357
▁continuación	-10.236
▁Vicente	-10.2361
▁her	-10.2362
▁entrega	-10.2364
▁pen	-10.2365
có	-10.2368
▁tecido	-10.2374
▁Parque	-10.2383
▁lin	-10.2385
mite	-10.239
-3	-10.239
▁azucre	-10.2402
▁carta	-10.2403
▁Trala	-10.2416
▁autoridades	-10.2416
▁Alonso	-10.2419
▁viu	-10.242
▁comida	-10.2424
▁hidróxeno	-10.2428
▁Pri	-10.2431
▁foran	-10.2434
▁partículas	-10.2435
ína	-10.2437
entes	-10.244
▁musicais	-10.2446
▁Sar	-10.2449
▁orquestra	-10.2451
tta	-10.2459
▁esencial	-10.2464
▁duración	-10.2467
▁grave	-10.2467
▁Civil	-10.2469
isti	-10.2469
▁dito	-10.2471
▁League	-10.2473
▁presidencia	-10.2477
▁plataforma	-10.2482
▁supera	-10.2487
ándoo	-10.2491
▁destacan	-10.2511
aron	-10.2513
▁1961	-10.2514
▁vías	-10.2516
rais	-10.2525
▁Teatro	-10.2528
▁escura	-10.2531
▁provocou	-10.2531
▁alternativo	-10.2533
▁coñeceu	-10.2534
ay	-10.2534
idas	-10.2534
ang	-10.2542
18	-10.2543
tados	-10.2543
cado	-10.2545
ust	-10.2546
sk	-10.2549
▁1937	-10.255
▁aspectos	-10.2559
▁Cast	-10.256
▁Mariña	-10.2574
▁formato	-10.2576
nge	-10.2578
▁inmediata	-10.2578
▁hidro	-10.2578
▁kg	-10.2579
itario	-10.2581
▁amigos	-10.2582
▁medalla	-10.259
▁teña	-10.2592
▁avogado	-10.2594
▁Israel	-10.2594
fre	-10.2597
▁cria	-10.26
▁condición	-10.2601
▁Virxe	-10.2605
▁Tal	-10.2612
▁lúa	-10.2619
▁desenvolvido	-10.2623
▁Ger	-10.2626
▁Deste	-10.263
▁aqueles	-10.263
▁Ab	-10.2632
▁perigo	-10.2632
▁Cristo	-10.2634
▁traballador	-10.2635
▁Dan	-10.2636
▁1918	-10.2636
▁décadas	-10.2638
17	-10.2638
lítico	-10.2642
▁foguete	-10.2653
nova	-10.2654
▁1934	-10.2654
▁aquí	-10.2654
▁regresou	-10.266
ers	-10.266
▁estreado	-10.2662
▁raíz	-10.2662
▁americano	-10.2666
▁cen	-10.2674
▁presentou	-10.2679
fica	-10.2681
her	-10.2684
▁web	-10.2685
▁espera	-10.2688
▁bandas	-10.2692
▁Não	-10.2697
▁aceite	-10.2699
▁técnico	-10.2701
▁emisión	-10.271
▁Olímpicos	-10.2717
▁Williams	-10.272
▁peza	-10.2727
▁Serbia	-10.2732
able	-10.2738
▁Sant	-10.2741
▁servir	-10.2742
▁cha	-10.2742
▁Hill	-10.2743
▁escolas	-10.2745
▁producida	-10.2747
▁im	-10.2749
ist	-10.2752
eiras	-10.2752
uno	-10.2753
rk	-10.2755
ling	-10.2757
óns	-10.2762
▁Shi	-10.2765
▁rec	-10.2765
▁practicamente	-10.2768
▁36	-10.2773
▁posta	-10.2778
▁sido	-10.2785
▁arquipélago	-10.2786
▁comerciais	-10.2786
▁esp	-10.2795
▁posúen	-10.2797
▁fortes	-10.2799
▁obriga	-10.2807
▁actuación	-10.2814
▁onda	-10.2816
▁señor	-10.2816
tha	-10.2816
▁adultos	-10.2818
▁vantaxe	-10.2818
ai	-10.2819
▁epi	-10.2819
▁1956	-10.282
▁Peter	-10.282
▁opera	-10.2821
▁coñecidas	-10.2823
▁cuarta	-10.2823
▁gol	-10.2826
28	-10.2827
cí	-10.2827
24	-10.2836
mann	-10.2837
▁pata	-10.284
▁1946	-10.2843
cada	-10.2844
▁espectadores	-10.2844
▁lá	-10.2852
▁Cro	-10.2852
▁sucesor	-10.2854
▁crece	-10.2854
▁localización	-10.2857
▁lograr	-10.2859
▁cro	-10.286
▁1947	-10.2861
▁global	-10.2865
▁mantén	-10.2866
▁hab	-10.2866
▁saíu	-10.2869
▁opinión	-10.2869
▁fachada	-10.2874
antes	-10.2875
▁1959	-10.2875
▁Comité	-10.2879
▁XIV	-10.288
▁empregado	-10.2881
▁directa	-10.2882
ller	-10.2885
tividade	-10.2886
▁xer	-10.2887
▁emprega	-10.2897
▁bal	-10.2899
vas	-10.2911
▁permitir	-10.2912
▁Oriental	-10.2916
▁antigas	-10.2918
zan	-10.2919
▁candidatura	-10.2925
▁pal	-10.2927
▁&#124;	-10.2939
▁Gua	-10.294
▁v	-10.2941
▁Bru	-10.2941
▁legal	-10.2942
▁vídeo	-10.2944
▁xogos	-10.2949
▁declarou	-10.2949
mida	-10.2949
▁xudeus	-10.2953
.2	-10.2954
pin	-10.2956
▁Air	-10.2959
▁Louis	-10.2961
▁Romano	-10.2965
▁praia	-10.2966
▁constitúe	-10.2967
▁captura	-10.2973
▁Tratado	-10.2975
▁37	-10.2976
▁Asemblea	-10.2977
26	-10.298
05	-10.2983
▁aplicación	-10.2987
▁realiza	-10.2999
▁atrás	-10.2999
iste	-10.3
.6	-10.3002
pé	-10.3002
Z	-10.3006
▁viviu	-10.3008
▁Chá	-10.3011
▁Mediterráneo	-10.3015
acións	-10.3017
▁neno	-10.3017
▁Fra	-10.302
▁acada	-10.3026
▁viño	-10.3027
▁Betanzos	-10.3029
▁bosques	-10.303
▁fórmula	-10.3034
anse	-10.3034
▁nacionais	-10.3038
nci	-10.3039
▁variable	-10.3041
▁34	-10.3055
itou	-10.3061
▁Chile	-10.3062
rase	-10.3062
▁informa	-10.3068
▁empezou	-10.3071
▁británicos	-10.3073
▁Primeiro	-10.3081
▁oportunidade	-10.3086
▁diario	-10.3089
-20	-10.3092
▁pop	-10.3094
▁concerto	-10.3103
eo	-10.3103
▁necesaria	-10.3109
uca	-10.3113
▁curto	-10.3114
▁Bélxica	-10.3114
una	-10.3115
▁secuencias	-10.3116
rna	-10.3116
▁medidas	-10.3117
▁Sicilia	-10.3119
▁literario	-10.3119
▁líquido	-10.3119
▁motivos	-10.3121
ting	-10.3122
▁proximidade	-10.3124
▁provén	-10.3124
▁facía	-10.3128
ah	-10.3128
uros	-10.3128
99	-10.3129
▁Salvador	-10.313
▁aminoácidos	-10.3132
▁dividido	-10.3138
75	-10.3138
nie	-10.3139
▁institucións	-10.3139
▁1941	-10.3149
▁pensar	-10.315
▁amosa	-10.3153
▁termina	-10.3154
▁alternativa	-10.3161
▁mapa	-10.3164
rin	-10.3166
dela	-10.3167
▁nu	-10.3169
▁ía	-10.3171
▁Artes	-10.3172
nco	-10.3173
▁corre	-10.3175
tir	-10.318
▁corazón	-10.3181
▁Camp	-10.3182
▁Concello	-10.3186
▁Socialista	-10.3189
lismo	-10.3189
gada	-10.3189
gur	-10.3199
01	-10.3203
▁anticorpo	-10.321
ciais	-10.3214
▁revela	-10.3219
▁propias	-10.3221
▁gravado	-10.3221
▁combinación	-10.3221
▁arcebispo	-10.3224
▁correspondente	-10.3225
bur	-10.3228
▁pelo	-10.3229
▁Tour	-10.3231
▁practica	-10.3234
▁Occidental	-10.3234
▁identidade	-10.3239
▁remo	-10.3239
ell	-10.3244
nismo	-10.3247
▁dialecto	-10.3249
▁ton	-10.3252
▁Pala	-10.3255
ub	-10.3258
▁entidade	-10.3259
▁debuxo	-10.3259
tsu	-10.326
▁ju	-10.3261
▁curta	-10.3266
95	-10.3269
cher	-10.327
▁temporada	-10.3274
▁coro	-10.3277
ciona	-10.3278
▁1954	-10.3279
85	-10.3279
▁funcionamento	-10.3286
▁portuguesa	-10.3291
▁monarca	-10.3292
nada	-10.3294
▁hábitat	-10.3297
▁tele	-10.3298
▁sacerdote	-10.3307
▁espacial	-10.3307
▁Atenas	-10.3307
▁Sub	-10.331
▁corpos	-10.3321
net	-10.3322
ι	-10.3326
▁cristiá	-10.3326
▁localizado	-10.3333
pus	-10.3342
xón	-10.3342
one	-10.3343
mio	-10.3349
ída	-10.3352
mal	-10.3353
▁Forma	-10.3353
▁celebrou	-10.336
▁marxe	-10.3361
teo	-10.3361
▁poderían	-10.3361
▁estuda	-10.3364
ue	-10.3366
▁estreito	-10.3368
▁taxa	-10.3368
▁funda	-10.3375
▁Papa	-10.3378
е	-10.338
▁encontros	-10.3381
gueira	-10.3381
▁Tur	-10.3383
▁afirma	-10.3388
rix	-10.3389
▁nossa	-10.339
▁culturais	-10.339
pí	-10.3393
▁escenario	-10.3393
▁descubriu	-10.3395
▁ausencia	-10.3395
▁Daniel	-10.3395
▁deixando	-10.3396
▁montañas	-10.3399
▁escultura	-10.34
▁1957	-10.34
▁levan	-10.3401
ern	-10.3403
▁liderado	-10.3406
▁boca	-10.3407
▁alimento	-10.3408
▁sexan	-10.3409
▁1949	-10.341
éronse	-10.3411
▁estende	-10.3417
▁Park	-10.3418
35	-10.3419
▁1955	-10.342
▁conferencia	-10.3422
▁tam	-10.3423
▁vivo	-10.3424
15	-10.3431
▁relixiosa	-10.3435
ph	-10.3437
▁raza	-10.344
▁Hoxe	-10.3442
▁cruz	-10.3445
▁Vilalba	-10.3449
▁avance	-10.3449
▁King	-10.3451
▁Comunidade	-10.3455
▁escritos	-10.3456
▁Arte	-10.3465
spira	-10.3465
way	-10.347
▁Bueno	-10.347
ney	-10.3471
▁caixa	-10.3474
▁leite	-10.3475
▁equivalente	-10.3475
ência	-10.3476
nesa	-10.3483
▁1944	-10.3484
▁ancho	-10.3487
▁hospital	-10.3488
▁obrigado	-10.349
▁secundaria	-10.3493
▁cambiar	-10.3495
▁vella	-10.3499
▁Maria	-10.3499
š	-10.3503
▁periódico	-10.3503
▁saber	-10.3512
▁dividida	-10.3513
▁muralla	-10.3513
▁nuclear	-10.3516
▁copias	-10.3518
▁culto	-10.3519
▁Toda	-10.3521
▁num	-10.3522
▁Zelandia	-10.3523
98	-10.3525
▁hormona	-10.3528
▁Cri	-10.3528
rín	-10.3531
nus	-10.3531
▁nosso	-10.3532
ense	-10.3535
▁aquel	-10.3537
ío	-10.3542
▁doutor	-10.3548
▁aí	-10.3551
▁Mes	-10.3552
▁Álvarez	-10.3553
▁1953	-10.3554
▁modificación	-10.3556
ós	-10.3557
▁incluída	-10.356
ual	-10.3563
rde	-10.3563
▁rango	-10.3569
▁privada	-10.3573
.9	-10.3575
vía	-10.3575
íu	-10.3577
▁pla	-10.3578
ella	-10.3579
▁serbio	-10.3581
▁cristiáns	-10.3581
▁Vol	-10.3584
ló	-10.3585
icia	-10.359
cito	-10.3592
▁serían	-10.3592
▁ele	-10.3595
▁custo	-10.3601
Y	-10.361
▁queda	-10.362
▁et	-10.3622
▁cho	-10.3622
lf	-10.3624
gueiro	-10.3625
▁CO	-10.3625
▁ocupación	-10.3626
▁útil	-10.3628
lhe	-10.3629
▁cri	-10.3631
▁elevado	-10.3631
▁Nobel	-10.3636
▁homenaxe	-10.3638
lica	-10.3641
▁república	-10.3643
▁destacar	-10.3646
▁cata	-10.3651
▁Miño	-10.3653
▁morre	-10.3656
▁vello	-10.3656
▁xera	-10.3657
▁prezo	-10.366
▁debut	-10.367
vido	-10.3674
and	-10.3675
▁fal	-10.3678
.3	-10.3678
▁1952	-10.3679
▁simples	-10.3683
gg	-10.3686
cr	-10.3695
▁pol	-10.3696
▁danos	-10.3711
▁unido	-10.3712
▁proxectos	-10.3712
▁38	-10.3722
▁Min	-10.3724
▁pazo	-10.3725
▁retirada	-10.3727
▁familiar	-10.3727
▁lembra	-10.3729
nina	-10.373
.7	-10.3731
▁Península	-10.3733
▁Oriente	-10.3734
▁banco	-10.3736
▁gregos	-10.3742
▁Vilar	-10.3745
▁reserva	-10.3748
▁emprego	-10.375
▁conexión	-10.3754
▁cap	-10.3757
▁cru	-10.3762
▁ataques	-10.3762
ab	-10.3763
zos	-10.3771
▁determinar	-10.3774
lde	-10.3775
▁Provincia	-10.3777
▁1935	-10.3781
а	-10.3783
pan	-10.3784
▁existía	-10.3789
▁moderno	-10.379
▁asasinato	-10.3793
▁comunidades	-10.3793
21	-10.3794
▁debate	-10.3795
▁fica	-10.3795
▁domina	-10.3796
▁Cabo	-10.3797
▁Alexandre	-10.3804
▁externa	-10.3805
lega	-10.3805
▁celebra	-10.381
posición	-10.3819
▁utilizando	-10.3821
▁1922	-10.3821
terio	-10.3823
▁consegui	-10.3824
▁comunista	-10.3829
▁logra	-10.383
▁demanda	-10.3831
▁Tele	-10.3832
▁soviético	-10.3835
▁acontecemento	-10.3838
▁Comp	-10.3838
rino	-10.384
▁Conta	-10.3841
▁VIII	-10.3843
din	-10.3847
vio	-10.3852
▁integra	-10.3852
▁poema	-10.3858
▁baixas	-10.3859
▁nace	-10.3862
▁acompaña	-10.3865
ep	-10.387
▁recuperar	-10.387
▁proporción	-10.3871
duci	-10.3874
14	-10.3876
▁impulso	-10.3876
▁Oscar	-10.3877
▁abaixo	-10.3878
▁Ul	-10.3887
▁1932	-10.3888
esa	-10.3889
▁artes	-10.3889
▁Conde	-10.389
▁colonias	-10.389
▁castro	-10.3892
▁rebote	-10.3892
▁cambiou	-10.3894
ant	-10.3897
▁1919	-10.3898
▁Cho	-10.39
slav	-10.39
▁estudantes	-10.39
▁froito	-10.3902
▁Bergantiños	-10.3902
mir	-10.3903
▁enxeñeiro	-10.3907
▁descrición	-10.3907
▁Ouro	-10.3908
ung	-10.391
▁Trans	-10.3911
lip	-10.3917
▁primavera	-10.3918
▁Han	-10.392
▁constitución	-10.3923
▁deseñado	-10.3925
▁post	-10.3928
▁Xo	-10.3929
▁dado	-10.3933
ões	-10.3935
▁descrita	-10.3941
lic	-10.3943
▁1938	-10.3945
▁tería	-10.3945
▁cla	-10.3951
mbra	-10.3956
▁reunión	-10.3956
▁estimula	-10.3959
▁abandonou	-10.3959
▁xerais	-10.396
▁1923	-10.396
▁individual	-10.3964
ática	-10.3969
▁separa	-10.3975
ndro	-10.398
gráfico	-10.3981
▁saír	-10.3983
▁sinais	-10.3984
▁Washington	-10.3985
▁cerebro	-10.3985
▁resultou	-10.3985
▁socio	-10.3986
▁intenta	-10.3988
▁reprodución	-10.3996
▁pasaron	-10.3996
02	-10.4001
bert	-10.4001
▁disciplina	-10.4001
▁los	-10.4003
▁seguindo	-10.4009
88	-10.4013
gno	-10.403
▁categorías	-10.4033
▁Sobre	-10.4034
▁Albert	-10.4035
▁solar	-10.4038
▁reais	-10.4041
▁rusa	-10.4042
16	-10.4043
▁1929	-10.4044
▁demostra	-10.4045
▁Rock	-10.4047
rta	-10.405
▁Cur	-10.405
▁turismo	-10.4054
▁Am	-10.4054
▁Comisión	-10.4059
▁radiación	-10.4061
chu	-10.4065
ima	-10.4073
▁operacións	-10.4074
▁chamou	-10.4077
▁interno	-10.4077
▁roda	-10.4082
▁lingüística	-10.4084
▁xaponés	-10.4084
itaria	-10.4088
▁reducir	-10.409
▁biblioteca	-10.4095
▁pódense	-10.4095
ngu	-10.4103
▁substancias	-10.4104
gón	-10.411
▁administrativa	-10.4114
▁debía	-10.4114
▁centr	-10.4117
▁Ministerio	-10.4121
.4	-10.4122
▁sesión	-10.4122
▁Sam	-10.4125
▁crenza	-10.4126
▁axudar	-10.4126
▁Ministro	-10.4127
▁Black	-10.4135
dou	-10.4136
▁Nacións	-10.4138
▁feita	-10.4141
09	-10.4142
▁exilio	-10.4142
gli	-10.4145
▁Diego	-10.4152
92	-10.4154
▁comuna	-10.4155
▁presentado	-10.4158
▁supux	-10.4158
▁centros	-10.4159
▁Franco	-10.416
cum	-10.416
▁parede	-10.4163
citos	-10.4164
mpo	-10.4173
▁Bay	-10.4174
▁nel	-10.4177
▁asasinado	-10.4178
▁punta	-10.4179
▁homónimo	-10.4179
▁morrer	-10.418
03	-10.4181
▁encontrar	-10.4181
▁describe	-10.4183
▁asistencia	-10.4194
doiro	-10.4196
▁Pazo	-10.4197
▁recente	-10.4199
▁reis	-10.4201
itas	-10.4202
▁ocasión	-10.4206
▁regula	-10.4207
▁receptores	-10.4209
the	-10.4209
▁interpreta	-10.4211
▁Ele	-10.4212
▁rugby	-10.4216
▁costume	-10.4216
▁natal	-10.4221
▁Martiño	-10.4222
▁honor	-10.4222
ice	-10.4223
trá	-10.4224
lada	-10.4226
nha	-10.4228
sin	-10.423
▁utilizada	-10.423
▁Joseph	-10.4245
▁considerable	-10.4248
▁clave	-10.4249
▁serra	-10.4256
▁Del	-10.4258
▁permiten	-10.4271
ares	-10.4271
fil	-10.4273
ρ	-10.4275
▁Moscova	-10.4275
▁denomínase	-10.4275
▁intervención	-10.4275
13	-10.4276
▁electróns	-10.4277
lon	-10.4277
▁Celta	-10.4279
▁recoñece	-10.4281
▁desexo	-10.4282
cano	-10.4282
rga	-10.4283
▁pon	-10.4285
▁lume	-10.4288
▁ecuación	-10.4292
87	-10.4297
▁anual	-10.43
▁Em	-10.43
▁recolle	-10.43
19	-10.43
poli	-10.4302
▁Zo	-10.4303
▁Baixo	-10.4306
▁descenso	-10.4307
▁feminino	-10.4313
▁1917	-10.4314
▁editor	-10.4317
▁temporal	-10.4317
▁tensión	-10.4317
▁fortaleza	-10.4318
▁brillante	-10.4318
▁Lingua	-10.4318
▁elevada	-10.4318
tópase	-10.432
▁anel	-10.432
▁Far	-10.4326
▁IX	-10.433
▁World	-10.4334
▁Star	-10.4335
▁mer	-10.4335
▁Martín	-10.4336
▁Music	-10.4338
ben	-10.4339
ā	-10.434
mat	-10.4343
▁Cultura	-10.4346
▁confirma	-10.4355
ν	-10.4355
món	-10.4359
▁torno	-10.436
▁rexistro	-10.4361
▁Cortes	-10.4367
53	-10.4369
76	-10.438
▁fluxo	-10.4385
▁atopan	-10.4386
▁bronce	-10.4389
▁150	-10.4389
eno	-10.439
▁War	-10.4397
nou	-10.4398
▁celebración	-10.4403
dina	-10.4404
▁75	-10.4405
▁paisaxe	-10.4405
pra	-10.4416
▁barcos	-10.442
vor	-10.4421
▁verdadeira	-10.4424
▁clasificado	-10.4424
▁círculo	-10.4432
▁42	-10.4434
▁rochas	-10.4435
▁compra	-10.4438
rei	-10.4439
▁Mais	-10.4442
▁estão	-10.4444
▁gañando	-10.4445
grafía	-10.4447
▁1951	-10.4454
▁area	-10.4456
tía	-10.4457
▁perde	-10.4458
▁pin	-10.446
▁disto	-10.4466
vers	-10.447
▁qu	-10.4471
cón	-10.4474
▁realizada	-10.4476
▁1928	-10.4477
65	-10.4479
ní	-10.4479
▁cerimonia	-10.4481
▁Bou	-10.4487
bus	-10.4487
▁fuxi	-10.4492
tec	-10.4493
▁propósito	-10.4497
▁fracaso	-10.4497
▁terrestre	-10.4499
burg	-10.45
mus	-10.4507
о	-10.451
tidos	-10.4512
▁superiores	-10.4512
▁separación	-10.4523
▁universal	-10.4527
igo	-10.4527
▁transforma	-10.4532
▁hóspede	-10.4535
97	-10.4541
▁ourensán	-10.4541
▁Cap	-10.4542
cela	-10.4543
86	-10.4546
▁Sánchez	-10.4552
▁Pena	-10.4554
▁Moita	-10.4556
iti	-10.4556
xiña	-10.4558
▁xen	-10.4558
▁competencia	-10.4563
▁xi	-10.4564
▁2018	-10.4566
▁urbana	-10.4568
96	-10.4569
▁cantidades	-10.4571
▁retirar	-10.4573
77	-10.4576
56	-10.4577
▁circular	-10.4579
▁400	-10.4585
▁Auto	-10.4585
nais	-10.4587
▁xestión	-10.459
▁tocar	-10.4591
▁críticas	-10.4592
▁calendario	-10.4596
mera	-10.4601
▁sueco	-10.4602
▁1943	-10.4603
lado	-10.4603
▁Ibérica	-10.4613
met	-10.4613
▁artístico	-10.4624
▁herdeiro	-10.4625
▁Gui	-10.4638
cencia	-10.4639
▁fotografía	-10.4641
▁Ly	-10.4644
est	-10.4644
▁parti	-10.465
▁alcanzar	-10.4654
▁argumento	-10.4657
tti	-10.4659
▁tramo	-10.4661
▁também	-10.4662
▁ocupou	-10.4663
▁Galería	-10.4664
▁utilíza	-10.4664
índose	-10.4667
▁artificial	-10.4668
▁disputou	-10.4668
▁aparecer	-10.467
▁Ch	-10.4672
rne	-10.4673
▁individuo	-10.4677
▁conservación	-10.4677
ete	-10.4679
▁discurso	-10.4679
▁1924	-10.4681
▁din	-10.4684
▁transcrición	-10.4685
▁ritmo	-10.469
▁Limita	-10.4692
▁quere	-10.4692
vida	-10.4693
▁empregar	-10.4693
▁primaria	-10.4695
▁persa	-10.47
pica	-10.4701
▁manda	-10.4702
▁recentes	-10.4704
▁CF	-10.471
▁tre	-10.4716
▁Pres	-10.4718
▁propietario	-10.4718
▁prisión	-10.4719
MS	-10.4727
▁débese	-10.4729
▁personalidade	-10.473
bili	-10.473
93	-10.4736
▁Xunto	-10.4737
▁reaccións	-10.4739
▁laboratorio	-10.4741
68	-10.4742
cin	-10.4745
▁filósofo	-10.4746
▁músico	-10.4747
▁Fin	-10.4747
▁avións	-10.4748
tom	-10.475
▁puxo	-10.4752
▁bosque	-10.4753
▁Lisboa	-10.4758
▁continuar	-10.4759
-5	-10.4761
▁dependente	-10.4761
▁molecular	-10.4763
▁1942	-10.477
liza	-10.477
▁vento	-10.4772
▁1914	-10.4776
nea	-10.4777
▁localizada	-10.4782
▁clásico	-10.4782
▁39	-10.4782
▁negativa	-10.4783
▁Guillerme	-10.4786
▁instrumento	-10.4789
▁Pas	-10.4789
▁vir	-10.479
culo	-10.4796
▁convérte	-10.4797
▁Gri	-10.4798
▁haber	-10.48
sky	-10.4803
zou	-10.4804
▁titulado	-10.4808
gel	-10.4812
pouco	-10.4813
▁continental	-10.4814
riño	-10.4816
▁eventos	-10.4819
▁pronto	-10.4822
ración	-10.4822
▁pacientes	-10.4823
▁estreita	-10.4826
▁poida	-10.4826
▁Bell	-10.4826
cú	-10.4827
▁Q	-10.4827
tana	-10.4837
pta	-10.4842
xina	-10.4845
▁concurso	-10.4845
▁cifra	-10.4849
▁gui	-10.485
puta	-10.4852
▁rica	-10.4855
bido	-10.4855
rida	-10.4856
▁fri	-10.4859
▁arma	-10.4859
▁Fre	-10.487
teira	-10.487
ngo	-10.4871
▁descende	-10.4872
fal	-10.4872
λ	-10.4876
lix	-10.4882
▁relacionadas	-10.4883
lú	-10.4885
rte	-10.4892
▁mito	-10.4893
▁1925	-10.4895
▁evento	-10.49
55	-10.4902
▁Ven	-10.4902
▁vitorias	-10.4907
▁cadeas	-10.4907
off	-10.4915
▁fibra	-10.4916
▁Hol	-10.4917
▁Rosa	-10.4918
▁historiador	-10.4918
▁Condado	-10.4922
▁redución	-10.4924
▁bri	-10.4926
ish	-10.4929
gh	-10.493
▁observa	-10.493
▁City	-10.4933
▁lanzou	-10.4933
▁aumentar	-10.4935
45	-10.4939
fos	-10.495
má	-10.4958
▁fabricación	-10.4961
▁Mad	-10.4962
mó	-10.4963
▁enfrontamento	-10.4971
▁coisas	-10.4971
83	-10.4974
58	-10.4977
▁Jack	-10.4979
▁abandonar	-10.498
▁alfabeto	-10.4985
▁dominios	-10.4987
ensis	-10.4989
ial	-10.499
▁codifica	-10.4993
▁herba	-10.4995
nk	-10.4997
▁Medio	-10.5
▁relixioso	-10.5007
▁documentos	-10.5007
▁lonxe	-10.5008
▁estatua	-10.5008
iras	-10.5008
▁matemático	-10.5008
▁nosa	-10.5008
▁incluído	-10.501
▁diocese	-10.5014
▁Palacio	-10.5016
▁Paz	-10.502
▁baía	-10.5021
▁marco	-10.5031
▁xaponesa	-10.5031
▁transformación	-10.5034
▁razóns	-10.5035
▁Ela	-10.5039
gne	-10.5041
▁Xi	-10.5041
▁Hungría	-10.5042
▁recoñecida	-10.5042
▁Chicago	-10.5042
▁sementes	-10.5043
forma	-10.5047
mbro	-10.5047
▁cura	-10.5048
▁riqueza	-10.5048
▁destinado	-10.5049
▁substancia	-10.5049
graf	-10.505
ok	-10.5053
▁artística	-10.5054
▁acepta	-10.5054
▁liberación	-10.5055
▁vol	-10.5056
Ma	-10.5057
▁enviado	-10.5059
touse	-10.5059
iformes	-10.506
▁imperial	-10.5063
hr	-10.5065
▁facil	-10.5067
bos	-10.5068
▁mata	-10.507
▁republicano	-10.5071
▁Lou	-10.5072
▁48	-10.5089
▁lateral	-10.509
▁Gro	-10.509
dea	-10.5093
▁inicia	-10.5097
▁representar	-10.5099
▁galegos	-10.5102
▁1910	-10.5103
▁Nunha	-10.5103
▁monarquía	-10.5106
▁empregada	-10.5107
▁Carl	-10.511
▁frío	-10.5118
▁Iso	-10.512
▁mostran	-10.5122
▁inscrición	-10.5124
▁transmisión	-10.5124
▁Florida	-10.5124
▁marchou	-10.5125
osas	-10.5125
▁Finlandia	-10.5135
▁aplica	-10.5136
▁solo	-10.5137
▁guitarrista	-10.5141
▁enviou	-10.5144
▁espa	-10.5144
▁institución	-10.5144
▁Fro	-10.5145
ores	-10.5146
▁software	-10.5147
ale	-10.5154
▁viuse	-10.5155
▁dúbida	-10.5159
▁visto	-10.5161
▁May	-10.5162
67	-10.5162
▁Pin	-10.5164
▁tráfico	-10.5164
ranse	-10.5165
▁prodúce	-10.5172
▁existi	-10.5173
▁chaira	-10.5176
▁pares	-10.5176
▁Napoleón	-10.5176
29	-10.5178
qu	-10.5178
▁descuberto	-10.5182
▁documento	-10.5183
48	-10.5185
ór	-10.5186
llas	-10.5187
▁hócke	-10.5188
▁alianza	-10.5188
▁cidadáns	-10.5189
34	-10.5191
▁asina	-10.5199
▁Zaragoza	-10.52
eza	-10.5204
▁pela	-10.5206
tipo	-10.5207
94	-10.521
▁rexional	-10.5211
field	-10.5214
▁Stu	-10.5215
▁Gal	-10.5215
▁mandato	-10.5216
▁seca	-10.5217
▁hipo	-10.5217
▁redes	-10.5219
▁afecta	-10.5222
▁dalgunha	-10.5223
▁espírito	-10.5223
▁cadro	-10.5227
▁informe	-10.5229
▁xurdi	-10.5232
age	-10.5234
▁pena	-10.5236
▁autónoma	-10.5241
▁colaborou	-10.5241
▁liberal	-10.5246
▁hu	-10.5252
▁ingleses	-10.5253
▁cruceiro	-10.5253
▁comezar	-10.5255
▁seren	-10.5259
dios	-10.5261
tum	-10.5262
▁iniciativa	-10.5262
▁ordena	-10.5267
▁denomina	-10.5268
iros	-10.527
▁Carballo	-10.527
23	-10.5271
ifica	-10.5273
▁estable	-10.5274
▁recinto	-10.5276
▁diñeiro	-10.5277
▁celta	-10.5279
39	-10.5279
llón	-10.5282
▁complexos	-10.5289
▁actúa	-10.5289
▁anuncia	-10.5289
▁debaixo	-10.529
▁cita	-10.5291
06	-10.5293
▁1921	-10.5296
doras	-10.5297
▁verdadeiro	-10.5298
▁evoluciona	-10.5299
▁Dia	-10.5304
▁privado	-10.5305
reo	-10.5308
▁moral	-10.5309
▁Mos	-10.531
illo	-10.531
▁petróleo	-10.5312
▁solitario	-10.5313
tanse	-10.5314
ntar	-10.5315
▁Pra	-10.5315
xencia	-10.5315
▁típico	-10.5323
▁Sport	-10.5324
▁organiza	-10.5328
▁Federico	-10.533
▁ciencias	-10.5331
▁escasa	-10.5332
▁PC	-10.5334
▁Gil	-10.5335
▁Turquía	-10.5336
08	-10.5337
▁enlace	-10.5339
▁coidado	-10.5339
▁considérase	-10.5342
▁quiza	-10.5344
▁55	-10.5344
cept	-10.5345
xos	-10.5347
pal	-10.5348
▁mesmos	-10.5349
rdi	-10.5351
74	-10.5352
▁alumno	-10.5355
▁usan	-10.5356
ille	-10.5357
▁sufrir	-10.536
▁Viena	-10.5364
▁discos	-10.5366
▁dependendo	-10.5366
▁Comunista	-10.5367
▁enfronta	-10.537
78	-10.5373
iñeira	-10.5373
aceae	-10.5374
▁celebrada	-10.5378
cemento	-10.5391
▁axente	-10.5394
▁ocupar	-10.5397
nne	-10.5397
▁Mc	-10.5397
dan	-10.5398
▁marido	-10.5399
▁contar	-10.5402
▁mitoloxía	-10.5402
▁utilizan	-10.5405
▁tódala	-10.5407
▁popularidade	-10.541
▁altera	-10.5412
▁acabar	-10.5413
▁xornada	-10.5414
▁lanza	-10.5414
▁sonora	-10.5415
ótico	-10.5418
▁Aeroporto	-10.5419
lho	-10.542
oides	-10.5422
▁pri	-10.5424
▁Cam	-10.5424
▁unida	-10.5424
▁Suráfrica	-10.5425
pina	-10.5426
▁rep	-10.543
rica	-10.5436
▁característico	-10.5437
▁sim	-10.5438
edo	-10.5452
▁colabora	-10.5453
tadas	-10.5455
▁recibi	-10.5459
óxeno	-10.546
▁escritura	-10.5461
▁palacio	-10.5462
lev	-10.547
36	-10.5472
▁Noruega	-10.5473
▁aeroliña	-10.5473
▁1926	-10.5475
▁poñer	-10.5477
▁Vázquez	-10.5479
▁65	-10.5481
▁continúa	-10.5483
▁come	-10.5485
▁especiais	-10.5486
▁dando	-10.5486
▁adapta	-10.5489
pos	-10.5492
▁Antón	-10.5492
▁rural	-10.5493
▁publicacións	-10.5497
▁xusto	-10.5498
rm	-10.5498
▁Gales	-10.5499
▁ría	-10.5502
iña	-10.5504
▁disp	-10.5509
▁crónica	-10.551
mbri	-10.551
deiro	-10.5512
▁cama	-10.5518
▁Castelo	-10.5522
lim	-10.5525
pha	-10.5527
▁puidese	-10.5528
▁carro	-10.553
▁descrito	-10.5531
▁Gómez	-10.5534
▁longas	-10.5535
▁prote	-10.5545
▁Bri	-10.5547
▁cer	-10.5549
▁compite	-10.5554
▁ficción	-10.5555
▁xeográfica	-10.5559
▁cito	-10.5559
▁esca	-10.556
▁actuar	-10.5561
▁causar	-10.5562
▁cociña	-10.5563
ute	-10.5565
▁Ánxeles	-10.5566
▁Hor	-10.557
ning	-10.5577
▁décimo	-10.5583
kov	-10.5583
▁entanto	-10.5583
▁gar	-10.5588
gun	-10.559
▁chegan	-10.5591
dge	-10.5593
▁transición	-10.5595
▁disposición	-10.5595
▁deportiva	-10.5595
▁concentra	-10.5595
▁Ángel	-10.5601
dente	-10.5602
▁crecente	-10.5603
▁civilización	-10.5605
dición	-10.5607
▁líderes	-10.5609
81	-10.561
fancia	-10.561
ik	-10.5614
91	-10.5618
▁estratexia	-10.5619
▁Rafael	-10.5619
▁apo	-10.562
pón	-10.5624
▁poboado	-10.5625
hor	-10.5627
real	-10.5627
22	-10.5627
▁tribos	-10.5628
▁American	-10.5629
cl	-10.5631
▁revolta	-10.5631
▁fósiles	-10.5637
▁chámase	-10.5644
▁alberga	-10.5644
▁Poli	-10.5648
mul	-10.5654
▁amarela	-10.5656
▁entrevista	-10.5659
duc	-10.5661
▁derradeiro	-10.5662
▁determinado	-10.5666
ο	-10.5668
ceno	-10.5672
▁universo	-10.5674
▁monta	-10.5675
▁dominante	-10.568
▁coalición	-10.5681
▁ditadura	-10.5688
▁fogar	-10.5691
zas	-10.5691
▁prepara	-10.5695
tru	-10.5697
▁tren	-10.5699
▁idioma	-10.5702
cua	-10.5709
▁piano	-10.571
▁arriba	-10.5713
▁definitivamente	-10.5714
vá	-10.5716
▁mellorar	-10.5717
▁dimensións	-10.5718
bb	-10.572
pri	-10.5721
▁canón	-10.5721
gres	-10.5722
ple	-10.5722
32	-10.5722
▁sucede	-10.5725
▁fama	-10.5727
▁Thi	-10.5728
▁eléctrico	-10.5728
lares	-10.5729
▁sexto	-10.573
éndose	-10.5733
▁Banco	-10.5739
▁regreso	-10.574
▁nervio	-10.5741
▁sabor	-10.5744
▁Mark	-10.5744
top	-10.5747
▁representan	-10.5747
69	-10.5749
▁ATP	-10.5749
xico	-10.5751
▁Alto	-10.5755
▁peri	-10.5756
▁dedicado	-10.5757
ici	-10.5758
▁decide	-10.5761
bí	-10.5762
▁euros	-10.5763
▁espada	-10.5765
ill	-10.5766
▁divíde	-10.5767
▁bloque	-10.5768
▁neuro	-10.577
▁fila	-10.577
sign	-10.5772
▁acerca	-10.5775
▁habilidade	-10.5775
▁autonomía	-10.578
▁Chu	-10.5783
▁César	-10.5786
▁incluía	-10.5786
-6	-10.5786
▁menciona	-10.5791
▁civís	-10.5792
▁organizado	-10.5792
▁Im	-10.5796
54	-10.5801
▁Senna	-10.5807
ε	-10.5811
cur	-10.5814
▁finada	-10.5819
▁substitución	-10.582
▁Love	-10.582
▁latina	-10.5821
▁dieta	-10.5824
▁serviu	-10.5824
▁matemáticas	-10.5825
selle	-10.5826
▁Riso	-10.5828
▁explicar	-10.5828
▁XI	-10.5829
▁Gallego	-10.583
▁Participo	-10.5842
▁festival	-10.5845
▁Alba	-10.5847
84	-10.5847
▁grosa	-10.585
ric	-10.5851
▁Hospital	-10.5855
▁promoción	-10.5855
▁ión	-10.5855
ken	-10.5855
▁sorte	-10.5857
▁administra	-10.5861
▁testemuña	-10.5861
▁Smith	-10.5867
▁morto	-10.5868
▁vasco	-10.5868
▁Superior	-10.5873
64	-10.5875
tua	-10.5875
▁dedicada	-10.5877
▁caeu	-10.5877
▁incrementa	-10.5878
▁Dentro	-10.588
▁Gre	-10.5882
▁*	-10.5886
▁mantemento	-10.5888
▁1912	-10.5888
▁frase	-10.589
▁explotación	-10.5891
▁Terceira	-10.5892
▁recupera	-10.5892
▁Col	-10.5896
cip	-10.5897
▁crítico	-10.5898
neo	-10.5903
nti	-10.5904
▁nobreza	-10.5907
pó	-10.5908
▁establecemento	-10.5909
▁doenza	-10.591
▁1927	-10.5913
▁incluír	-10.5914
tte	-10.5922
▁investi	-10.5924
▁humor	-10.5931
▁durou	-10.5931
▁rea	-10.5932
▁santo	-10.5936
▁Port	-10.594
▁ka	-10.5947
▁estou	-10.5949
▁raíces	-10.5949
eda	-10.5952
cular	-10.5957
▁β	-10.5958
▁Harry	-10.5958
▁descuberta	-10.5959
▁Dous	-10.5961
▁tiro	-10.5963
▁percorre	-10.5964
▁operación	-10.5968
▁destrución	-10.5975
▁instituto	-10.5976
▁Gor	-10.5978
ides	-10.5979
▁vivos	-10.5983
▁posicións	-10.5984
▁Royal	-10.5987
pio	-10.5991
▁escuro	-10.5992
▁tubo	-10.5996
izados	-10.5999
▁hiper	-10.5999
ábeis	-10.6
▁canadense	-10.6
▁antigüidade	-10.6006
▁cristianismo	-10.6006
▁comparación	-10.6009
▁dalgúns	-10.6011
▁portas	-10.6012
▁mozo	-10.6013
▁bomba	-10.6013
▁trinta	-10.6017
▁r	-10.6017
▁feminina	-10.6019
▁cousa	-10.6025
▁rebelión	-10.6025
ib	-10.6029
uda	-10.6029
▁voltas	-10.6032
vent	-10.6032
▁Naceu	-10.6032
▁arre	-10.6034
ná	-10.6034
fon	-10.6034
▁básica	-10.6038
▁perspectiva	-10.6038
▁ur	-10.6039
emos	-10.6043
▁combina	-10.6043
▁top	-10.6044
59	-10.6046
▁europeas	-10.605
▁tese	-10.6053
▁sinala	-10.6055
ala	-10.6056
▁posíbel	-10.6058
▁positiva	-10.6059
sur	-10.606
▁West	-10.606
▁quedar	-10.6062
▁miles	-10.6063
▁mínimo	-10.6064
▁queima	-10.6064
52	-10.6066
▁exclusivamente	-10.6066
▁→	-10.607
72	-10.607
▁Sto	-10.6071
ular	-10.6073
▁punk	-10.6075
xía	-10.6075
▁americana	-10.6077
▁Alta	-10.6077
66	-10.608
fic	-10.6083
▁raios	-10.6084
▁1900	-10.6086
▁Granada	-10.6087
▁radical	-10.6088
▁relato	-10.6088
▁modernos	-10.6089
pia	-10.6089
▁São	-10.609
phi	-10.6092
▁Día	-10.6094
▁partida	-10.6095
▁Toledo	-10.6096
MP	-10.6096
íase	-10.6101
▁mecánica	-10.6102
▁Cos	-10.6104
▁Desta	-10.6107
gem	-10.6107
▁alfa	-10.611
cili	-10.611
anos	-10.6111
berto	-10.6112
▁consideran	-10.6113
ô	-10.6115
▁Ribeira	-10.6115
▁recon	-10.6119
rú	-10.612
ulle	-10.6123
▁femia	-10.6125
▁existentes	-10.6125
chen	-10.6126
▁Casou	-10.613
▁except	-10.613
fosfato	-10.6132
▁Sala	-10.6133
82	-10.6136
▁Les	-10.6137
▁Mari	-10.6137
▁asociado	-10.6139
▁Hy	-10.614
▁Henry	-10.6142
mica	-10.6146
κ	-10.6147
▁Sistema	-10.6147
▁favorece	-10.6149
▁exemplos	-10.615
▁aplicacións	-10.615
ál	-10.6153
▁manuscrito	-10.6154
▁Jackson	-10.6154
▁visible	-10.6154
▁patrón	-10.6157
▁altos	-10.6159
▁ataca	-10.6162
▁fondos	-10.6166
▁introdución	-10.6167
▁claramente	-10.6167
ndido	-10.6176
▁investigadores	-10.6176
▁ángulo	-10.618
▁confi	-10.618
▁Dinamarca	-10.6186
▁pilota	-10.6187
▁presta	-10.6188
▁pico	-10.6193
▁intensa	-10.6195
xénese	-10.6197
▁mortos	-10.62
▁álbums	-10.6204
▁ferrocarril	-10.6205
▁Ricardo	-10.6205
pes	-10.6206
itos	-10.6208
▁Burgos	-10.6209
▁concelleiro	-10.6216
▁encargado	-10.6221
yer	-10.6223
▁statu	-10.6225
tando	-10.6226
▁che	-10.6227
▁viva	-10.623
▁bizantino	-10.6231
ños	-10.6233
uch	-10.6235
▁Díaz	-10.6236
soma	-10.6237
▁eixo	-10.6237
▁nordeste	-10.6238
▁establece	-10.6238
▁debería	-10.6239
▁Rose	-10.6241
mont	-10.6245
▁Colombia	-10.6251
▁utilizou	-10.6251
▁Rexión	-10.6257
▁refírese	-10.6257
▁1916	-10.6259
▁conecta	-10.6266
die	-10.6266
▁cálculo	-10.6271
▁abandona	-10.6271
▁constitúen	-10.6271
▁Agora	-10.6272
llos	-10.6274
este	-10.6275
az	-10.6277
▁Ucraína	-10.6277
▁diversidade	-10.6277
imo	-10.6278
▁43	-10.6279
▁voce	-10.6279
▁espi	-10.6284
▁inferiore	-10.6285
▁dirixir	-10.6286
▁provincial	-10.6287
▁historiadores	-10.6288
▁observar	-10.6289
41	-10.6289
▁norma	-10.6291
▁asentamento	-10.6294
up	-10.6295
axe	-10.6296
▁circunstancia	-10.6297
▁Batalla	-10.6297
ade	-10.6297
ture	-10.6298
▁est	-10.6298
▁Coroa	-10.6299
▁xuízo	-10.6299
н	-10.6302
ento	-10.6303
▁lixeiramente	-10.6304
▁referir	-10.6307
▁mira	-10.6312
▁conforma	-10.6316
▁EUA	-10.6316
▁igrexas	-10.6318
▁Pol	-10.6318
▁Grand	-10.6319
▁indi	-10.6321
▁condenado	-10.6322
▁típica	-10.6323
qua	-10.6327
▁elimina	-10.6331
▁máquina	-10.6332
cis	-10.6333
▁Tres	-10.6335
▁Mei	-10.6335
▁participante	-10.6338
▁colo	-10.6342
▁relevo	-10.6343
cci	-10.6344
▁significativo	-10.6345
▁infantil	-10.6349
▁editorial	-10.635
▁Cra	-10.6356
dú	-10.6357
▁Tribunal	-10.6358
▁gris	-10.6358
▁compara	-10.636
▁masculino	-10.6362
▁árabes	-10.6363
▁Yo	-10.6363
▁Ye	-10.6366
▁Distrito	-10.6369
▁declaración	-10.6375
▁xenético	-10.6376
▁ave	-10.6378
mbre	-10.6378
ticos	-10.6381
▁músicos	-10.6382
▁osíxeno	-10.6382
gle	-10.6382
▁mudou	-10.6385
49	-10.6385
pel	-10.6388
▁Racing	-10.6389
▁min	-10.6389
33	-10.639
▁espazos	-10.639
▁antíxeno	-10.6415
▁irregular	-10.6415
▁44	-10.6416
▁cabaleiro	-10.6417
▁agrupa	-10.642
pt	-10.6422
▁levaron	-10.6424
mel	-10.6425
lie	-10.643
▁α	-10.6433
▁levaba	-10.6434
▁semellantes	-10.6434
89	-10.644
▁prop	-10.6442
▁EP	-10.6443
▁Bos	-10.645
▁lava	-10.6451
▁alma	-10.6455
▁depósito	-10.6455
▁síntomas	-10.6456
br	-10.6457
▁invadi	-10.6469
▁Constantinopla	-10.6469
indo	-10.6469
▁Córdoba	-10.6475
oma	-10.6481
▁ideal	-10.6484
▁levado	-10.6486
▁Kar	-10.6487
▁Boston	-10.6491
▁Fundación	-10.6492
42	-10.6498
▁41	-10.6498
▁presentación	-10.6501
olóxico	-10.6503
▁Lalín	-10.6506
▁Fronte	-10.6506
low	-10.6507
▁pés	-10.6509
inte	-10.651
▁medra	-10.651
stan	-10.6513
▁alimentación	-10.6514
▁Armada	-10.6515
-4	-10.6518
▁Unidas	-10.6519
▁Rey	-10.6521
fin	-10.6522
▁riba	-10.6522
▁Cou	-10.6523
▁Valle	-10.6531
xil	-10.6538
▁Existe	-10.6539
AP	-10.654
▁Green	-10.654
▁veciña	-10.6542
▁Valladolid	-10.6542
▁extinción	-10.6542
▁finalizar	-10.6543
clina	-10.6546
fen	-10.655
cel	-10.6554
▁apoia	-10.6555
▁Hall	-10.6556
38	-10.6559
quí	-10.6563
▁Chantada	-10.6563
mado	-10.6563
rg	-10.6566
▁erro	-10.6571
▁seguen	-10.6571
▁series	-10.6572
▁identificar	-10.6573
▁Ross	-10.6573
liña	-10.6577
ach	-10.6578
▁gaña	-10.6583
▁flu	-10.6583
▁Karl	-10.6585
▁organizacións	-10.6586
▁competir	-10.6588
▁macho	-10.659
▁roupa	-10.6596
▁empresario	-10.6596
▁celulares	-10.6597
rey	-10.6599
bli	-10.6602
▁ondas	-10.6604
▁difusión	-10.6604
▁trazos	-10.6605
79	-10.661
▁comen	-10.6613
▁prazo	-10.6613
ska	-10.6614
cion	-10.6615
▁visual	-10.6617
▁mutacións	-10.662
▁quinta	-10.662
▁Yu	-10.6628
▁puideron	-10.663
▁medi	-10.6632
▁sólido	-10.6637
▁independentes	-10.6641
▁copia	-10.6643
▁colexio	-10.6643
▁apertura	-10.6643
▁terzo	-10.6651
▁Enrique	-10.6652
▁outeiro	-10.6652
▁escu	-10.6654
▁Ac	-10.6654
▁viaxa	-10.6656
▁quedan	-10.6656
▁regras	-10.6662
▁filo	-10.6668
▁plena	-10.6669
▁McLaren	-10.667
▁federal	-10.667
▁Mai	-10.6672
▁compañeiros	-10.6677
▁rece	-10.6678
▁sobrevivir	-10.668
▁mensaxe	-10.6681
▁períodos	-10.6682
▁cruza	-10.6682
▁coisa	-10.6682
▁equilibrio	-10.6685
gá	-10.6685
▁gal	-10.6689
▁Rugby	-10.6691
▁bur	-10.6691
▁determinada	-10.6695
▁escritora	-10.6696
▁facto	-10.6696
▁variedades	-10.6696
▁Domingo	-10.6698
icas	-10.67
don	-10.6703
▁cualifica	-10.6704
NA	-10.6704
▁sí	-10.6706
▁dirixente	-10.6706
itz	-10.6706
▁cana	-10.6706
▁Chan	-10.6707
zado	-10.6709
▁mecanismos	-10.6709
▁Ali	-10.6711
▁espectro	-10.6713
ego	-10.6713
▁describir	-10.6717
▁programación	-10.6717
oide	-10.6718
▁glicosa	-10.6721
▁proto	-10.6724
▁inten	-10.6727
▁recuperación	-10.6727
▁regresa	-10.6732
▁aqui	-10.6738
▁conseguiron	-10.6747
▁protexer	-10.6752
▁Bat	-10.6754
▁Príncipe	-10.6759
▁combustible	-10.6759
fort	-10.6761
▁Cy	-10.6765
▁amizade	-10.6766
▁detido	-10.6772
▁sentimento	-10.6773
▁Maior	-10.6779
▁laterais	-10.678
37	-10.6786
▁Fonte	-10.6786
▁pertencen	-10.6787
▁choiva	-10.6788
▁Frank	-10.6791
cea	-10.6793
▁cabe	-10.6793
▁seguida	-10.6794
▁nervioso	-10.6796
▁Sir	-10.6797
▁regulación	-10.6801
57	-10.6806
51	-10.6807
▁sintetiza	-10.6807
▁compoñente	-10.6811
olóxica	-10.6814
▁actitude	-10.6814
pet	-10.6817
31	-10.6819
▁vapor	-10.6821
▁Ste	-10.6821
line	-10.683
▁disse	-10.6836
▁novelas	-10.6837
lect	-10.684
ctu	-10.6845
▁Sun	-10.6845
▁procedemento	-10.6848
▁espectáculo	-10.6849
bou	-10.685
▁probabilidade	-10.685
▁electrónico	-10.6851
▁Milán	-10.6855
▁violencia	-10.6856
▁Sy	-10.6856
▁Blanco	-10.6856
▁suave	-10.6857
lino	-10.6857
▁fortemente	-10.6858
44	-10.6859
▁bioloxía	-10.6859
▁derrotado	-10.6861
tea	-10.6862
▁exerce	-10.6862
▁brasileiro	-10.6863
▁w	-10.6863
kar	-10.6869
▁desaparición	-10.687
▁comandante	-10.687
▁Sim	-10.6871
▁1913	-10.6871
dando	-10.6876
ς	-10.6876
▁Edward	-10.6877
▁controlar	-10.6877
▁46	-10.688
uais	-10.6881
▁estima	-10.6882
▁irlandés	-10.6884
▁defender	-10.6884
▁mol	-10.6885
▁salto	-10.6886
▁opción	-10.6886
▁históricos	-10.6892
▁públicas	-10.6894
46	-10.6895
trop	-10.6896
▁descendentes	-10.6897
▁Dor	-10.6899
bé	-10.69
▁coloca	-10.6901
▁libra	-10.6902
▁átomos	-10.6903
dico	-10.6904
side	-10.6904
▁revistas	-10.6904
▁Il	-10.6905
árono	-10.6905
▁GP	-10.6906
▁sectores	-10.6908
▁Ei	-10.6908
xene	-10.6912
▁conflitos	-10.6915
▁libres	-10.6915
cub	-10.6916
▁publicar	-10.692
▁sucesión	-10.6925
▁Home	-10.6927
posta	-10.6928
▁columna	-10.6931
▁mañá	-10.6933
▁probabelmente	-10.6933
▁experimentos	-10.6934
▁Natural	-10.694
▁tumba	-10.694
▁ali	-10.694
lóxico	-10.6941
ástica	-10.6946
▁far	-10.6948
▁galegas	-10.695
▁té	-10.6953
▁apelido	-10.6953
▁deseñada	-10.6953
▁beneficios	-10.6955
mico	-10.6957
▁xorde	-10.6962
▁Ram	-10.6971
▁Xoga	-10.6972
aca	-10.6973
▁preciso	-10.6974
cat	-10.6977
▁Mou	-10.6982
▁musulmáns	-10.6985
▁salva	-10.6987
▁melhor	-10.6989
wan	-10.6997
73	-10.6999
▁Zi	-10.7
▁beta	-10.7002
▁profesiona	-10.7004
▁retirouse	-10.7007
nger	-10.701
bla	-10.7011
reiro	-10.7012
rato	-10.7013
▁socialista	-10.7013
▁fun	-10.7017
▁esperanza	-10.7018
▁contou	-10.7019
izo	-10.7021
▁deserto	-10.7022
ring	-10.7024
▁correntes	-10.7028
▁Mora	-10.703
▁franquía	-10.703
pido	-10.7033
iona	-10.7034
▁Rh	-10.7034
lidade	-10.7036
▁caer	-10.7037
▁Boy	-10.7038
▁ovo	-10.7038
▁metropolitana	-10.7039
▁comunica	-10.7041
▁guión	-10.7042
▁aliados	-10.7043
▁Lan	-10.7044
▁coincide	-10.7045
▁desenvolvida	-10.7046
shire	-10.7049
▁bas	-10.7051
▁Mus	-10.7051
▁coincidi	-10.7052
▁aleta	-10.7053
▁paralelo	-10.7053
▁nación	-10.7054
▁apunta	-10.7054
▁nazi	-10.7057
tter	-10.7061
47	-10.7063
▁vexetación	-10.7066
▁Max	-10.7069
▁zo	-10.7069
62	-10.707
▁reparación	-10.7071
▁desenvolve	-10.7072
▁têm	-10.7073
▁evidencia	-10.7073
aña	-10.7073
mou	-10.7074
▁pronuncia	-10.7076
▁estivero	-10.7077
▁resistente	-10.708
lly	-10.7085
virus	-10.7085
ER	-10.7087
lei	-10.7092
▁deuses	-10.7093
▁económicas	-10.7093
▁Pablo	-10.7094
▁profundo	-10.7094
▁bolsa	-10.7095
grama	-10.7096
▁rosa	-10.7106
▁territorial	-10.7108
rgo	-10.7109
▁outono	-10.711
ich	-10.7114
▁semella	-10.7117
▁tío	-10.7117
▁Mol	-10.7119
▁fácil	-10.7123
ende	-10.7136
amente	-10.7141
▁You	-10.7144
uk	-10.7146
▁substrato	-10.7151
▁magn	-10.7155
▁nobres	-10.7158
▁falecido	-10.7158
▁require	-10.7167
icio	-10.7168
éntase	-10.7172
τ	-10.7172
▁seguro	-10.7173
▁alterna	-10.7174
▁Long	-10.7176
▁armada	-10.718
43	-10.7184
art	-10.7184
▁asociada	-10.7185
▁escritores	-10.7189
▁1905	-10.7189
▁Die	-10.719
eb	-10.7192
▁pedi	-10.7192
▁resolución	-10.7194
▁precursor	-10.7194
▁residuos	-10.7198
▁Vitoria	-10.7199
▁Andalucía	-10.7201
▁Jan	-10.7202
▁Cá	-10.7203
61	-10.7204
▁Federal	-10.7204
▁comedia	-10.7207
▁demostrou	-10.7208
71	-10.7213
sson	-10.7215
▁intercambio	-10.7215
▁Noia	-10.7216
▁defende	-10.7218
▁goberna	-10.7219
▁narra	-10.7225
▁cham	-10.7226
cie	-10.7227
▁cel	-10.7227
▁Arousa	-10.723
▁almacena	-10.7234
▁xudía	-10.7237
▁afluente	-10.7237
vul	-10.724
▁democracia	-10.7244
hel	-10.7246
▁goza	-10.7249
▁Corte	-10.7251
▁abrangue	-10.7251
▁efectivo	-10.7251
▁columnas	-10.7253
▁quince	-10.7254
▁variante	-10.7258
▁Guinea	-10.7259
▁avanza	-10.7262
▁CE	-10.7266
▁comparti	-10.7266
▁Bull	-10.7269
yn	-10.7271
ë	-10.7273
▁sitúase	-10.7273
cula	-10.7283
▁ge	-10.7283
ted	-10.7286
rac	-10.7287
corre	-10.7288
▁Time	-10.7288
▁anal	-10.7292
▁Estadio	-10.7294
▁millón	-10.7294
▁dise	-10.7299
▁poderes	-10.7309
ip	-10.731
▁Camiño	-10.7311
ndra	-10.7315
▁adestra	-10.7315
▁substituír	-10.7316
▁podem	-10.7316
▁Tru	-10.7317
▁terreos	-10.7319
▁limitada	-10.7321
lación	-10.7324
▁caracteriza	-10.7324
▁cur	-10.7324
▁once	-10.7327
▁Ban	-10.7327
ificada	-10.733
grega	-10.7338
▁lagoa	-10.7338
mora	-10.7339
▁Premios	-10.7341
▁64	-10.7343
▁parcialmente	-10.7345
▁Comarca	-10.7348
▁fins	-10.735
tto	-10.7351
▁Europeo	-10.7353
▁une	-10.7354
▁Euro	-10.7358
▁eliminar	-10.7358
▁extremos	-10.7359
▁International	-10.736
▁Tanto	-10.7361
ógrafo	-10.7361
▁White	-10.7362
▁contribución	-10.7364
63	-10.737
▁Mala	-10.7372
lor	-10.7376
▁Forza	-10.7376
▁atopado	-10.7377
▁Dra	-10.7377
▁indio	-10.7381
▁abriu	-10.7384
CA	-10.7387
▁traxectoria	-10.739
▁fabricante	-10.7391
▁Der	-10.7393
plan	-10.7393
▁rela	-10.7394
ow	-10.7397
idi	-10.7398
▁enviar	-10.7399
▁doutrina	-10.7404
▁Lemos	-10.7405
▁tenta	-10.7406
▁Qua	-10.7407
quino	-10.741
▁licenza	-10.7411
▁facelo	-10.7411
▁reformas	-10.7412
▁Ant	-10.7414
▁Alberto	-10.7415
▁incendio	-10.7419
▁occidentais	-10.7419
▁despraza	-10.7421
para	-10.7422
ensa	-10.7426
▁‘	-10.7426
-10	-10.7427
▁Xer	-10.7431
▁Bilbao	-10.7433
▁posibles	-10.7436
▁dedica	-10.7441
▁concreto	-10.7442
▁norteamericano	-10.7443
▁Cultural	-10.7447
▁Riba	-10.7448
▁1909	-10.745
▁1911	-10.7451
▁Ang	-10.7452
▁Lúa	-10.7452
rosa	-10.7454
▁Lama	-10.7455
▁impulsa	-10.7455
▁papei	-10.7455
▁buscar	-10.7457
▁histo	-10.7459
▁Ferro	-10.746
▁bando	-10.7466
▁duro	-10.7472
▁caracteríza	-10.7477
▁celebrado	-10.7478
â	-10.7478
fri	-10.748
▁estamos	-10.748
▁entender	-10.7481
RC	-10.7482
▁suxeito	-10.7485
▁acusado	-10.7485
▁flora	-10.7487
▁indíxenas	-10.7491
ese	-10.7492
▁Wal	-10.7492
▁vitamina	-10.7493
▁récord	-10.75
▁Scott	-10.7502
▁Leste	-10.7503
▁electro	-10.7509
▁49	-10.7511
▁Aplausos	-10.7514
▁resolver	-10.7514
▁comer	-10.7521
▁superar	-10.7523
▁cumprir	-10.7523
▁xurdiu	-10.7524
▁aprobación	-10.7527
▁manifesta	-10.7528
▁pagar	-10.7529
wer	-10.7529
curso	-10.7531
gru	-10.7531
▁ordenou	-10.7532
▁variantes	-10.7534
▁Baixa	-10.7534
▁ceo	-10.7535
▁subunidade	-10.7537
▁postos	-10.7538
▁totalidade	-10.754
▁evita	-10.754
cil	-10.7541
▁Win	-10.7543
▁Venecia	-10.7545
▁vital	-10.7545
uí	-10.7546
loxía	-10.7547
toloxía	-10.7547
▁pinturas	-10.7548
cita	-10.755
▁organizada	-10.755
▁definir	-10.755
▁Internet	-10.7552
▁vaca	-10.7554
▁Bol	-10.7554
▁Perú	-10.7555
lve	-10.7556
▁cua	-10.7557
▁mesmas	-10.7559
cora	-10.756
▁depois	-10.7563
▁Mur	-10.7563
▁aparencia	-10.7566
▁250	-10.7568
▁episodio	-10.7568
▁mariños	-10.7568
bes	-10.7569
▁Stone	-10.7569
lga	-10.7572
▁comezan	-10.7573
▁cartas	-10.7573
idad	-10.7577
lea	-10.7579
▁satélites	-10.7579
▁universitario	-10.7581
▁aparello	-10.7581
▁Draft	-10.7582
л	-10.7589
▁celébra	-10.7589
onia	-10.759
zada	-10.759
▁1906	-10.759
▁capas	-10.7596
▁relacionada	-10.7597
▁variacións	-10.76
▁gobernante	-10.7601
▁reclama	-10.7603
▁repeti	-10.7603
▁medo	-10.7603
▁single	-10.7604
▁ficha	-10.7605
▁glándula	-10.7611
▁químico	-10.7613
▁designa	-10.7614
▁Cup	-10.7614
▁outorga	-10.7616
▁derivada	-10.7618
▁Cámara	-10.7619
▁voto	-10.7619
lítica	-10.7619
▁retrato	-10.7624
▁relixiosos	-10.7627
▁hidr	-10.7627
▁económicos	-10.7627
▁empregados	-10.7632
▁folla	-10.7632
▁Xurxo	-10.7633
▁barreira	-10.7634
▁chinés	-10.7634
▁mel	-10.7635
zer	-10.7637
▁Javier	-10.7641
▁soporte	-10.7642
ónimo	-10.7642
pec	-10.7644
-0	-10.7645
dó	-10.7646
▁College	-10.7648
▁parlamento	-10.7648
▁desexa	-10.765
▁castelá	-10.765
▁triunfo	-10.7656
▁poderoso	-10.7657
▁seco	-10.7658
▁percorrido	-10.7663
▁lectura	-10.7663
▁hetero	-10.7666
▁tralo	-10.7667
▁August	-10.7667
▁Jones	-10.767
▁marcou	-10.7671
▁electrónica	-10.7673
▁graos	-10.7675
ward	-10.7677
▁dizer	-10.7677
▁viaxes	-10.7679
nista	-10.768
▁Sab	-10.7689
▁esforzos	-10.7698
▁deportivo	-10.7701
▁evidencias	-10.7708
▁minoría	-10.7709
▁amarelo	-10.7709
ui	-10.7712
▁clasificar	-10.7714
▁circulación	-10.7716
▁vehículos	-10.7717
▁seria	-10.7717
▁biolóxica	-10.7725
ique	-10.7725
rena	-10.7726
▁Dese	-10.7727
ándoa	-10.7728
▁Nápoles	-10.7731
▁cuberto	-10.7732
▁faleceu	-10.7735
nzo	-10.7745
▁Palma	-10.7746
▁Spe	-10.7747
posto	-10.775
nó	-10.7751
▁comenta	-10.7752
▁Pai	-10.7753
▁Schumacher	-10.7754
ítica	-10.7755
▁actuacións	-10.776
▁homo	-10.7762
▁It	-10.7764
▁aprecia	-10.7765
▁fría	-10.7767
▁toneladas	-10.7769
▁paredes	-10.777
ef	-10.777
SA	-10.777
tem	-10.7776
ulou	-10.7778
▁vontade	-10.7784
▁reducida	-10.7784
▁muda	-10.7785
▁critica	-10.7786
▁episodios	-10.779
▁Facultade	-10.7792
▁1000	-10.7792
▁relixiosas	-10.7797
▁sanguíneo	-10.78
ificar	-10.7806
▁Xeorxia	-10.7807
▁universidades	-10.7808
▁Prost	-10.781
▁nativos	-10.7814
▁talvez	-10.7815
ríase	-10.7815
▁derivado	-10.7817
▁abrir	-10.7821
▁levanta	-10.7822
▁bota	-10.7823
▁franco	-10.7823
▁Emilio	-10.7823
lou	-10.7824
▁produci	-10.7825
more	-10.7825
▁UEFA	-10.783
▁Lugares	-10.783
dán	-10.7832
▁próximas	-10.7832
▁Social	-10.7836
ciones	-10.7837
▁600	-10.7837
▁Xerusalén	-10.7838
▁Dio	-10.7839
▁arteria	-10.7841
▁Dr	-10.7842
adamente	-10.7844
▁Roberto	-10.7845
▁asuntos	-10.7846
▁apareceron	-10.7848
▁estatal	-10.785
▁Mat	-10.785
▁representada	-10.7852
▁Game	-10.7856
▁participaron	-10.786
▁falantes	-10.7863
▁elaboración	-10.7863
▁47	-10.7865
▁monumento	-10.7867
▁ferido	-10.7868
▁fragmentos	-10.7868
edi	-10.7868
▁Murcia	-10.7871
▁estacións	-10.7871
▁aprender	-10.7872
▁metro	-10.7873
▁Todo	-10.7876
▁oferta	-10.7878
▁ferramentas	-10.7881
▁creando	-10.7881
▁Ante	-10.7882
▁reforza	-10.7884
porta	-10.7885
▁representado	-10.7886
▁regresar	-10.7891
▁oxíxeno	-10.7891
▁fundadores	-10.7894
uti	-10.7895
▁fina	-10.7896
▁muscular	-10.7898
▁magnitude	-10.7899
güe	-10.7899
▁falan	-10.79
▁químicos	-10.7903
▁pasan	-10.7904
▁marcado	-10.7905
▁pur	-10.7906
▁explicación	-10.7907
▁graves	-10.7907
▁Carolina	-10.7908
▁Libro	-10.791
loxicamente	-10.7916
nc	-10.7917
▁normas	-10.7919
▁restauración	-10.7922
xido	-10.7923
mun	-10.7924
▁Esa	-10.7927
estra	-10.7928
▁Mario	-10.7929
▁move	-10.7931
▁PSOE	-10.7931
mbar	-10.7933
▁axentes	-10.7935
▁bate	-10.7935
▁humanas	-10.7936
-200	-10.7936
ponse	-10.7937
▁humanidade	-10.7939
▁introduciu	-10.794
▁Tan	-10.794
xica	-10.7942
▁Foron	-10.7946
▁nomeada	-10.7946
▁convento	-10.7946
▁Escu	-10.7947
▁pretende	-10.7948
▁himno	-10.7953
úl	-10.7954
▁51	-10.7956
▁cae	-10.7957
▁moza	-10.7957
▁Estudos	-10.7961
▁incorpora	-10.7965
mona	-10.7967
▁esforzo	-10.7971
▁cin	-10.7973
▁Lotus	-10.7973
ndida	-10.7976
hy	-10.7976
▁meridional	-10.7976
▁recta	-10.7976
▁preferi	-10.7977
ris	-10.798
▁pavillón	-10.7984
▁Zu	-10.7985
▁extensa	-10.7987
▁adopta	-10.7988
▁rival	-10.7992
▁patrimonio	-10.7992
▁via	-10.7993
poñer	-10.7994
▁Organización	-10.7994
ile	-10.7998
▁soberanía	-10.7999
▁permitía	-10.7999
fini	-10.8001
▁construíu	-10.8001
nho	-10.8004
▁minerais	-10.8007
▁soviética	-10.8007
cht	-10.8008
▁Nor	-10.8012
▁placa	-10.8014
▁Wil	-10.8016
▁específica	-10.8023
▁Conferencia	-10.8024
int	-10.8026
▁Deza	-10.8027
▁pica	-10.8028
ctivo	-10.803
ário	-10.803
▁subfamilia	-10.8031
▁reducido	-10.8031
▁fornece	-10.8031
▁jo	-10.8031
▁familiares	-10.8032
▁Joan	-10.8036
▁alcanzou	-10.8038
▁masas	-10.8043
▁tentar	-10.8047
stein	-10.8052
▁acumula	-10.8053
▁position	-10.8054
▁Darwin	-10.8054
burgo	-10.8054
▁existir	-10.8055
ómico	-10.8058
▁secundario	-10.806
▁execución	-10.8062
▁Católica	-10.8062
AC	-10.8064
▁52	-10.8065
▁Teo	-10.8066
▁pat	-10.8067
quia	-10.8069
iños	-10.8069
▁Iugoslavia	-10.807
▁determina	-10.8075
adores	-10.8077
▁animación	-10.8078
uma	-10.808
sistencia	-10.8082
ográfica	-10.8082
▁designado	-10.8083
▁decreto	-10.8084
▁páxina	-10.8085
▁Outeiro	-10.8086
▁gravar	-10.8089
▁Normal	-10.809
▁1908	-10.8095
▁enlaces	-10.8099
▁realización	-10.8099
▁Hamilton	-10.8101
▁vendas	-10.8101
▁retorno	-10.8101
▁Montes	-10.8107
▁acompañado	-10.8107
▁Ty	-10.8107
▁igualmente	-10.8107
▁actores	-10.8109
bá	-10.8114
▁Música	-10.8117
▁causada	-10.8117
▁sinxela	-10.8125
▁disputar	-10.8126
▁rexeita	-10.8126
eri	-10.8127
▁distinguir	-10.8127
▁rodea	-10.8128
win	-10.8129
▁120	-10.8129
né	-10.813
▁migración	-10.8132
▁Serie	-10.8132
▁Departamento	-10.8132
▁Clo	-10.8132
▁protector	-10.8133
remos	-10.8135
▁bem	-10.8136
cker	-10.8136
▁éxitos	-10.8138
▁mariña	-10.8139
▁quedaron	-10.814
▁Fal	-10.8143
▁firma	-10.8143
áns	-10.8145
▁positivo	-10.8147
▁Biblioteca	-10.8148
▁Océano	-10.8148
▁1915	-10.8158
▁agrícola	-10.8158
▁mostrar	-10.816
▁pediu	-10.8162
▁lados	-10.8165
terra	-10.8165
nor	-10.8166
▁edita	-10.8166
clo	-10.8169
▁estre	-10.817
▁imita	-10.8174
▁Corea	-10.8177
▁encóntra	-10.8179
▁Educación	-10.818
▁Pertence	-10.818
▁prima	-10.8183
riña	-10.8185
▁devandito	-10.8188
▁elixida	-10.8188
puña	-10.8189
▁vivían	-10.8189
▁interacción	-10.8191
dá	-10.8191
▁Tha	-10.8193
▁madura	-10.8194
▁canles	-10.8194
▁boxe	-10.8198
▁exerceu	-10.8199
▁Island	-10.8201
ord	-10.8202
▁dixital	-10.8203
BA	-10.8204
▁declarado	-10.8206
р	-10.8207
▁abre	-10.8209
▁Roger	-10.821
▁preparación	-10.8215
▁calcio	-10.8219
telo	-10.8219
▁importa	-10.822
▁penetra	-10.822
▁iniciar	-10.8222
▁baséa	-10.8227
▁remate	-10.8228
▁Ami	-10.8229
▁medir	-10.8232
▁administrativo	-10.8233
▁doutro	-10.8234
nny	-10.8234
▁cabalo	-10.8235
▁intelectual	-10.8235
▁petición	-10.8235
▁protestante	-10.8235
▁Bai	-10.8236
▁páxinas	-10.8236
▁matemática	-10.8241
nan	-10.8242
▁financeiro	-10.8243
▁passa	-10.8248
▁avó	-10.825
č	-10.8251
▁habita	-10.8251
▁Espe	-10.8252
táronse	-10.8255
▁encontran	-10.8257
▁tribo	-10.826
▁Praza	-10.8263
▁limitado	-10.8265
rela	-10.8268
tería	-10.8268
tim	-10.8269
▁fallo	-10.827
▁rol	-10.8271
▁Ford	-10.8272
▁executivo	-10.8275
cent	-10.8281
▁ocupada	-10.8282
▁carto	-10.8282
▁matriz	-10.8283
▁automóbiles	-10.8284
▁Senado	-10.8286
▁falla	-10.8291
▁merca	-10.8291
▁muro	-10.8293
▁nomeamento	-10.8295
cultura	-10.8295
▁nega	-10.8296
▁Otero	-10.8296
▁ingresou	-10.8302
ky	-10.8303
▁públicos	-10.8304
▁Sea	-10.8307
▁establecido	-10.8308
oc	-10.8308
GA	-10.8308
▁fases	-10.8311
▁Epi	-10.8311
▁Cádiz	-10.8315
▁afirmou	-10.8315
▁Deputación	-10.8315
▁predi	-10.8316
rus	-10.8316
▁edicións	-10.8317
dem	-10.832
hl	-10.832
guer	-10.8327
▁uniuse	-10.8329
hen	-10.8329
▁síndrome	-10.8331
▁Romanía	-10.8332
▁define	-10.8334
▁fuxir	-10.8336
▁Ás	-10.8337
▁sofre	-10.8339
▁aniversario	-10.8339
▁centrais	-10.834
izadas	-10.8342
▁numa	-10.8344
quera	-10.8344
▁debutou	-10.8346
▁z	-10.8347
pon	-10.8347
▁definitiva	-10.8352
▁Bot	-10.8352
▁estava	-10.8352
▁revolucionario	-10.8354
fina	-10.8355
▁lagos	-10.8355
▁disolución	-10.8355
▁seleccionado	-10.8355
▁doenzas	-10.836
▁utilización	-10.8365
▁Spa	-10.8365
▁definida	-10.8366
▁noso	-10.8367
▁sae	-10.8371
▁Flor	-10.8372
▁Char	-10.8376
▁BNG	-10.8381
▁placas	-10.8385
ium	-10.8387
leg	-10.8388
▁inimigo	-10.8391
▁uniforme	-10.8391
▁chamar	-10.8394
▁Alfonso	-10.8396
▁froitos	-10.8396
ífico	-10.8396
▁cepa	-10.8397
▁Hel	-10.8397
▁Colo	-10.84
▁Bon	-10.8401
iais	-10.8403
▁fundamentais	-10.8404
far	-10.8404
nía	-10.8404
▁asento	-10.8406
RA	-10.8407
▁compa	-10.8408
▁Tivo	-10.8409
▁identifica	-10.8413
rar	-10.8417
▁arxentino	-10.842
▁Sé	-10.8425
rec	-10.8428
▁ideoloxía	-10.8428
uco	-10.8429
vert	-10.843
ándolle	-10.8433
▁pertencentes	-10.8435
▁Compañía	-10.8436
▁lidera	-10.844
▁funcional	-10.8442
ū	-10.8444
▁pad	-10.845
▁abundante	-10.8452
▁vocalista	-10.8454
vil	-10.846
▁heroe	-10.8461
▁ferida	-10.8461
▁catalá	-10.8475
▁Municipal	-10.8477
▁coñécese	-10.8477
▁Fran	-10.8477
▁facilita	-10.8478
▁pastor	-10.8481
▁Croacia	-10.8485
▁engadir	-10.8485
▁Colexio	-10.8485
ciano	-10.8486
▁prato	-10.8488
▁escenas	-10.8488
ret	-10.8488
sch	-10.849
▁nitróxeno	-10.8493
▁relevante	-10.8493
▁cómpre	-10.8493
▁Aba	-10.8495
▁recoñecer	-10.8498
LA	-10.85
▁aceptou	-10.8501
▁adestramento	-10.8505
viv	-10.8509
▁1907	-10.8512
.500	-10.8512
▁princesa	-10.8517
▁respecta	-10.8518
▁1904	-10.852
arios	-10.8522
▁relatos	-10.8523
▁atopaba	-10.8524
aco	-10.8525
▁levada	-10.8526
▁transferencia	-10.8526
▁describiu	-10.8527
▁implicado	-10.8529
▁caracteres	-10.853
▁inf	-10.853
▁evolutiva	-10.8534
▁estreou	-10.8535
▁propuxo	-10.8536
umi	-10.8536
IC	-10.8538
▁herdanza	-10.8543
▁Land	-10.8543
▁asegurar	-10.8546
▁etapas	-10.8546
▁pago	-10.855
▁contorna	-10.8551
vina	-10.8552
▁condena	-10.8552
▁Hunt	-10.8555
▁culturas	-10.8555
▁viña	-10.8558
▁Macedonia	-10.8558
▁fluído	-10.8559
▁Anna	-10.8559
▁semellanza	-10.8559
▁escravos	-10.856
▁tinha	-10.856
▁800	-10.8562
▁Porta	-10.8566
▁Venezuela	-10.8567
▁United	-10.8567
sha	-10.857
▁Ano	-10.857
ama	-10.8572
bula	-10.8574
▁australiano	-10.8575
reira	-10.8579
▁definido	-10.858
▁barra	-10.8582
lización	-10.8584
▁Garda	-10.8585
▁bos	-10.8588
▁imaxina	-10.859
▁poboada	-10.8592
▁integrado	-10.8595
▁Negro	-10.8595
▁académico	-10.86
plasto	-10.86
▁alcance	-10.86
▁feitas	-10.8605
▁lanzada	-10.8608
gma	-10.8608
▁Brown	-10.8608
▁chinesa	-10.8608
▁impostos	-10.8614
▁sucedeu	-10.8615
ate	-10.8615
▁posuía	-10.8617
▁Ob	-10.8621
▁Bob	-10.8622
▁Rai	-10.8625
▁libera	-10.8628
▁cova	-10.8633
ding	-10.8634
▁primario	-10.8634
▁54	-10.8635
▁maioritaria	-10.864
▁Carmen	-10.864
▁miña	-10.8641
▁adoptou	-10.8641
hid	-10.8649
▁porcentaxe	-10.8649
íbel	-10.8657
▁asenta	-10.8657
ø	-10.8658
▁evidente	-10.8658
▁Medicina	-10.8661
▁vence	-10.8663
ificou	-10.8664
▁audiencia	-10.8666
▁sufri	-10.8668
érica	-10.867
dense	-10.8672
▁negocio	-10.8672
▁neto	-10.8674
▁fichou	-10.8675
▁acontece	-10.8678
▁Spi	-10.8678
▁AC	-10.8679
▁beleza	-10.8682
▁Association	-10.8683
▁za	-10.8685
▁fosfato	-10.8686
▁colectivo	-10.8686
hé	-10.8689
▁especialista	-10.869
▁cráter	-10.8691
mifinais	-10.8691
imi	-10.8691
ug	-10.8693
bón	-10.8693
glo	-10.8693
ícula	-10.8697
▁parroquial	-10.8698
pper	-10.8698
▁pregunta	-10.8699
▁gua	-10.87
ith	-10.8701
▁orientación	-10.8702
▁Canarias	-10.8704
áceas	-10.8707
▁emprégase	-10.8707
▁Vega	-10.8708
celo	-10.8711
lig	-10.8711
bin	-10.8711
▁composicións	-10.8713
lam	-10.8714
▁efectiva	-10.8719
▁53	-10.8719
▁capace	-10.8721
▁praias	-10.8721
▁individuais	-10.8724
▁xerar	-10.8727
elli	-10.8728
cca	-10.8729
▁conmemora	-10.8732
▁Nesa	-10.8734
▁seguía	-10.8735
íña	-10.8735
▁lobo	-10.8736
▁terminar	-10.8737
bul	-10.8741
taba	-10.8741
▁conclusión	-10.8741
▁multitude	-10.8741
▁rendemento	-10.8741
cli	-10.8743
rom	-10.8744
▁mac	-10.8747
▁viax	-10.8756
▁volcán	-10.8759
▁Antiga	-10.8762
▁disc	-10.8763
▁ber	-10.8765
▁desemboca	-10.8765
▁Estrada	-10.8766
▁Stra	-10.8766
ecido	-10.877
isco	-10.8772
▁profunda	-10.8774
▁Renault	-10.8774
▁trigo	-10.8775
▁ARNm	-10.8776
ude	-10.8778
▁asociados	-10.8778
▁iniciais	-10.8781
▁Texas	-10.8785
▁agrupación	-10.8785
Q	-10.8788
▁Ala	-10.8791
▁ch	-10.8791
taria	-10.8792
▁Poden	-10.8792
▁intentou	-10.8793
▁tarefa	-10.8794
▁futura	-10.8795
▁vis	-10.8798
▁pura	-10.88
hn	-10.88
▁Pierre	-10.88
▁póla	-10.8801
▁Confederación	-10.8801
▁ligado	-10.8801
▁alén	-10.8801
▁militante	-10.8802
pat	-10.8803
▁mineral	-10.8805
▁brancos	-10.8805
rista	-10.8808
▁tudo	-10.881
▁Oeste	-10.881
▁escaso	-10.8813
▁fronteiras	-10.8814
▁considerou	-10.8814
▁Tui	-10.8816
ámos	-10.8816
▁vector	-10.8819
ani	-10.8821
cedo	-10.8822
▁símbolos	-10.8827
▁Pobo	-10.8827
▁curtas	-10.8827
▁larvas	-10.8828
leccion	-10.883
▁Mónaco	-10.8833
▁fígado	-10.8833
▁Jesús	-10.8833
▁form	-10.8833
ír	-10.8836
▁muros	-10.8836
▁Ham	-10.8837
▁boas	-10.8838
▁mozos	-10.8841
▁estatística	-10.8842
ος	-10.8842
pho	-10.8842
▁parente	-10.8842
▁africano	-10.8842
▁Mellor	-10.8843
▁soporta	-10.8844
▁Esp	-10.8844
▁regra	-10.8846
IS	-10.8849
▁intensidade	-10.885
▁mini	-10.885
▁matar	-10.8852
▁falada	-10.8857
▁xogando	-10.8857
▁Mercedes	-10.8859
▁proclamou	-10.8859
▁axudou	-10.8859
▁Chris	-10.8861
▁dianteiro	-10.8863
▁Filosofía	-10.8867
▁continuo	-10.8873
▁predominante	-10.8875
puxo	-10.8876
▁causas	-10.8883
red	-10.8888
▁nobre	-10.8889
▁mostrou	-10.8893
▁Rivera	-10.8899
▁argumenta	-10.8901
▁pinta	-10.8902
centr	-10.8904
ello	-10.8906
pico	-10.8909
▁progresiva	-10.891
ches	-10.891
scendeu	-10.891
ora	-10.8912
ili	-10.8912
▁Ken	-10.8913
pera	-10.8913
ánico	-10.8914
▁graxa	-10.8916
▁Bea	-10.8917
▁comerciante	-10.8918
▁inde	-10.8921
▁herda	-10.8921
▁1898	-10.8922
▁bebida	-10.8927
▁interpretar	-10.8928
▁suposta	-10.8929
▁arquivo	-10.8932
▁Andrés	-10.8934
▁Español	-10.8935
▁vexetais	-10.8935
▁impedir	-10.8936
DA	-10.8938
llar	-10.8941
▁Estaba	-10.8944
▁recu	-10.8944
▁grava	-10.8947
▁postura	-10.8948
▁inimigos	-10.8949
▁organizar	-10.895
▁Gallega	-10.8953
ington	-10.8955
▁cero	-10.8958
▁Catedral	-10.8961
▁croata	-10.8962
▁estranxeiros	-10.8965
▁Big	-10.8968
▁úsa	-10.8969
▁marcada	-10.8969
▁André	-10.8971
▁Grandes	-10.8972
▁decidiron	-10.8975
▁estadounidenses	-10.8976
▁conversión	-10.8978
▁circula	-10.898
lleira	-10.8983
▁parasito	-10.8985
cán	-10.8991
▁clado	-10.8994
▁hélice	-10.8995
▁terá	-10.8995
▁admira	-10.8995
▁parecen	-10.8996
▁críticos	-10.8996
▁Veiga	-10.8997
▁prolonga	-10.8997
▁polaco	-10.9
▁enteiro	-10.9002
▁ingresos	-10.9003
▁Grazas	-10.9005
▁pneumáticos	-10.901
ett	-10.901
▁editou	-10.9012
▁Salamanca	-10.9012
▁comité	-10.9012
▁permanecer	-10.9013
▁cataliza	-10.9014
▁Michel	-10.9016
▁dividir	-10.9021
▁dorsal	-10.903
mol	-10.903
▁Fort	-10.9035
-17	-10.9037
▁crime	-10.9038
▁sinónimo	-10.9038
▁vítimas	-10.9039
▁variación	-10.904
▁protagonizado	-10.904
▁Ron	-10.9041
▁derivados	-10.9042
mond	-10.9042
▁loitar	-10.9043
▁baleiro	-10.9043
▁180	-10.9044
▁volumes	-10.9048
▁fresco	-10.9049
▁Eli	-10.905
▁transporta	-10.9051
▁dispoñible	-10.9051
mato	-10.9054
▁interesante	-10.9054
▁Day	-10.9057
▁Anti	-10.9058
▁1890	-10.9061
▁médica	-10.9064
▁drama	-10.9064
▁mesa	-10.9068
ele	-10.9069
▁niño	-10.9074
▁1903	-10.9075
wo	-10.9079
▁Hen	-10.908
▁espec	-10.9083
mí	-10.9083
▁Señor	-10.9086
AS	-10.9086
▁vertical	-10.909
▁tripulación	-10.909
▁56	-10.9092
sil	-10.9096
▁orgánica	-10.9098
▁solicita	-10.9098
▁Destaca	-10.9102
▁vilas	-10.9103
▁Ig	-10.9107
▁pretendía	-10.9107
▁oral	-10.9109
tric	-10.9111
▁usados	-10.9111
▁Prote	-10.9113
▁vin	-10.9114
▁católico	-10.9114
▁expulsado	-10.9115
▁turístico	-10.9116
▁fixera	-10.9117
visión	-10.9119
▁Qu	-10.9119
▁millo	-10.9121
bru	-10.9121
▁guerras	-10.9123
▁metabolismo	-10.9124
▁especializada	-10.9132
▁Ortigueira	-10.9133
▁contemporánea	-10.9133
▁história	-10.9133
▁románica	-10.9133
iñas	-10.9135
▁negociación	-10.9136
▁fol	-10.9136
▁Cole	-10.9137
▁responde	-10.9141
▁xorna	-10.9142
▁externo	-10.9142
▁patriarca	-10.9142
▁rara	-10.9144
▁mudar	-10.9146
▁rexistra	-10.9146
idio	-10.9148
▁derrub	-10.9151
ij	-10.9152
▁Reis	-10.9152
▁impre	-10.9155
▁Bill	-10.9156
▁organizou	-10.9164
▁Pobra	-10.9167
jar	-10.9168
▁Recibiu	-10.9168
▁Barreiro	-10.9172
▁escapar	-10.9173
▁seguidores	-10.9174
▁alteración	-10.9175
▁obtido	-10.9177
▁gañaron	-10.9177
▁Lee	-10.9177
▁eliminatoria	-10.9177
▁ocupado	-10.9179
▁golfo	-10.9179
▁nacionalista	-10.918
▁contraste	-10.918
▁democrática	-10.9186
▁Az	-10.9194
▁singular	-10.9194
pir	-10.9195
nom	-10.9197
▁PP	-10.9199
▁mostras	-10.92
▁tenda	-10.92
part	-10.92
▁influencias	-10.9201
▁retro	-10.9202
▁excelente	-10.9203
▁documental	-10.9204
▁obten	-10.9205
▁sem	-10.9205
▁xove	-10.9207
▁separada	-10.9207
▁asegura	-10.9208
▁denuncia	-10.9212
▁Eurovisión	-10.9212
▁temática	-10.9216
▁pá	-10.9218
▁pedras	-10.922
▁Gen	-10.9221
nche	-10.9221
▁faz	-10.9221
▁sobriño	-10.9221
▁naval	-10.9222
▁proclama	-10.9224
▁vender	-10.9225
morfo	-10.9226
▁talo	-10.9227
▁76	-10.923
▁resultante	-10.9234
▁deus	-10.9234
▁At	-10.9235
▁tur	-10.9237
▁salvo	-10.9242
DE	-10.9246
▁extrema	-10.9247
▁algas	-10.9248
▁Eva	-10.9249
ction	-10.9258
▁Marco	-10.926
▁tenente	-10.9265
▁promotor	-10.9265
▁lento	-10.9267
▁liñaxe	-10.9267
▁establecida	-10.9267
▁Francis	-10.9268
▁ratos	-10.9269
taron	-10.9271
▁xurisdición	-10.9273
▁activación	-10.9278
▁nucle	-10.928
▁Reg	-10.9283
▁Barba	-10.9292
▁consistente	-10.9293
▁competicións	-10.9294
leta	-10.9296
lón	-10.9296
▁indicar	-10.9298
▁vendido	-10.9302
▁montes	-10.9308
▁Marrocos	-10.9309
▁Dun	-10.9311
▁nube	-10.9312
▁crías	-10.9316
▁hemo	-10.9317
▁conselleiro	-10.9318
▁South	-10.9318
▁ribeira	-10.9318
▁especializado	-10.9319
AR	-10.9321
▁húmido	-10.9326
▁sociedades	-10.9327
▁usou	-10.9327
▁recorda	-10.9328
▁ósos	-10.9331
▁Contra	-10.9332
-12	-10.9333
▁TV	-10.9334
▁cemiterio	-10.9335
▁potente	-10.9336
ém	-10.9337
nic	-10.9337
tima	-10.9339
▁sexuais	-10.9341
▁inaugurado	-10.9341
▁oitavo	-10.9345
xénico	-10.9346
col	-10.9346
▁North	-10.9347
ive	-10.9348
lice	-10.9348
▁Consta	-10.9351
▁mínima	-10.9353
▁depresión	-10.9354
▁Voz	-10.9358
cima	-10.9359
▁fármacos	-10.936
▁Oviedo	-10.9362
▁Johann	-10.9365
▁creador	-10.9366
▁presas	-10.9367
▁Kra	-10.9368
▁57	-10.937
▁reciben	-10.9372
▁somete	-10.9373
▁ligada	-10.9375
▁arredores	-10.9378
▁anotou	-10.9378
▁mestra	-10.9379
▁redactor	-10.938
▁experto	-10.938
▁sétimo	-10.938
▁Constantino	-10.9383
▁debeu	-10.9384
métrica	-10.9389
▁extremada	-10.9389
▁finaliza	-10.9389
▁Piñeiro	-10.939
íuse	-10.9392
▁sou	-10.9398
▁cumio	-10.9399
tral	-10.94
ity	-10.9401
▁específicas	-10.9401
▁plumas	-10.9405
▁Abel	-10.9406
▁oscila	-10.9409
▁apoiar	-10.9414
izouse	-10.9414
▁guionista	-10.9416
▁peor	-10.9416
▁ocorreu	-10.942
▁Duque	-10.9425
▁March	-10.9429
bó	-10.943
▁cuxos	-10.9431
gia	-10.9433
trón	-10.9434
▁Hal	-10.9434
▁Mira	-10.9435
▁naves	-10.9437
▁alcaldía	-10.9442
▁rectangular	-10.9442
▁xustiza	-10.9442
tei	-10.9445
▁estrutural	-10.9446
▁PPdeG	-10.9451
▁polimerase	-10.9451
▁causou	-10.9451
▁Mill	-10.9452
▁necesita	-10.9452
▁aérea	-10.9453
▁atoparon	-10.9461
▁mención	-10.9462
▁col	-10.9465
▁otomán	-10.9465
▁pau	-10.9465
▁existente	-10.9473
▁gando	-10.9475
▁participan	-10.9478
▁exercicio	-10.9478
▁Biblia	-10.9479
enberg	-10.9481
▁Gala	-10.9481
▁estranxeiro	-10.9482
▁Espa	-10.9483
▁School	-10.9487
▁infraestrutura	-10.9487
pá	-10.9488
xar	-10.9491
▁Come	-10.9493
▁atopába	-10.9496
▁compromiso	-10.9496
▁1902	-10.9499
▁aplicar	-10.9503
wood	-10.9506
▁nacións	-10.9508
gio	-10.9508
▁piso	-10.9511
▁compromet	-10.9514
▁cloro	-10.9515
▁salvaxe	-10.9515
tros	-10.9517
▁Tam	-10.9517
parti	-10.9519
▁State	-10.9522
▁moda	-10.9523
▁teatral	-10.9523
▁firme	-10.9524
▁gravou	-10.9524
ntado	-10.9525
▁85	-10.9526
front	-10.9528
▁inicios	-10.9531
▁Liber	-10.9532
▁rexeitou	-10.9533
▁americanos	-10.9534
▁casar	-10.9534
pol	-10.9535
▁pul	-10.9535
fónica	-10.9536
▁Torres	-10.9544
▁Angel	-10.9547
▁vendeu	-10.9547
ere	-10.9548
▁experimental	-10.9549
▁tarefas	-10.9557
▁presentouse	-10.9557
▁manifesto	-10.956
▁influente	-10.956
▁Tá	-10.956
prende	-10.9561
▁Frei	-10.9561
▁mencionado	-10.9565
▁cabalos	-10.9565
▁senador	-10.9568
kan	-10.9577
▁quinase	-10.9578
▁Fel	-10.9579
▁neve	-10.9584
▁Airlines	-10.9587
▁ler	-10.9588
▁mis	-10.9589
▁gases	-10.9592
rup	-10.9594
▁Alexander	-10.9596
▁95	-10.9597
▁1901	-10.9599
▁tomada	-10.9603
▁industriais	-10.9604
▁contiña	-10.9605
▁portugueses	-10.9605
▁litoral	-10.9605
▁negocios	-10.9607
▁dif	-10.9608
▁fungos	-10.9609
▁metais	-10.961
▁poidan	-10.9611
▁enteira	-10.9611
lín	-10.9614
▁destacado	-10.9615
▁eucariotas	-10.9622
▁Lorenzo	-10.9623
log	-10.9624
▁separado	-10.9626
▁arcos	-10.963
uz	-10.9631
▁concepción	-10.9632
▁armado	-10.9633
▁Are	-10.9633
oli	-10.9636
▁distinción	-10.9642
▁reconstrución	-10.9645
▁CA	-10.9645
▁raro	-10.965
ísta	-10.965
▁hitita	-10.9651
▁quería	-10.9651
▁Nadal	-10.9654
MA	-10.9656
▁Rio	-10.9656
ugh	-10.9659
▁atribúe	-10.966
▁escultor	-10.966
▁tivera	-10.9662
▁alca	-10.9664
▁refuxio	-10.9664
▁enfermo	-10.9666
▁Teñe	-10.9667
▁antepasado	-10.9669
▁Silleda	-10.9669
▁encoro	-10.9676
well	-10.9676
▁tropicais	-10.9678
filia	-10.968
media	-10.9682
▁mental	-10.9685
▁Jim	-10.9686
▁Entón	-10.9688
▁descubrir	-10.9688
star	-10.969
tamina	-10.9691
▁introducir	-10.9693
▁realíza	-10.9693
▁Cabana	-10.9696
▁médicos	-10.9696
▁gradual	-10.9697
▁bóveda	-10.9697
▁financeira	-10.9697
▁portada	-10.97
▁especificamente	-10.9704
osfera	-10.9704
▁escribe	-10.9706
▁Pale	-10.9709
▁literalmente	-10.9711
▁ollo	-10.9719
▁Ran	-10.9721
eña	-10.9721
▁Estatuto	-10.9725
▁belga	-10.9725
▁identificación	-10.9726
▁Eco	-10.973
▁preocupa	-10.9731
▁Marte	-10.9731
▁momentos	-10.9733
▁relaciona	-10.9733
▁atrae	-10.9733
▁ideia	-10.9734
óxido	-10.9734
▁electoral	-10.9734
▁divide	-10.9735
▁Columbia	-10.9736
▁traballaba	-10.9737
lex	-10.9737
▁complexa	-10.9739
▁adquiriu	-10.974
▁verse	-10.9742
iya	-10.9743
▁estabilidade	-10.9743
▁expulsa	-10.9744
gy	-10.9744
▁Florencia	-10.9745
▁Quando	-10.9746
▁asumiu	-10.9752
▁migra	-10.9756
teca	-10.9757
▁essa	-10.9757
▁casca	-10.9758
▁espiña	-10.976
▁perdendo	-10.9762
lem	-10.9765
xeiro	-10.9765
leo	-10.9769
▁profesora	-10.9769
ólico	-10.9769
▁rota	-10.977
▁xuvenil	-10.9771
ari	-10.9771
▁usuarios	-10.9774
▁interaccións	-10.9776
▁Sco	-10.9777
▁Jorge	-10.978
▁God	-10.9785
arte	-10.9786
kha	-10.9788
▁Cooper	-10.979
▁incluíu	-10.979
▁colaboradores	-10.9793
americana	-10.9793
▁Mau	-10.9795
pré	-10.9795
▁acceder	-10.9802
▁gráfico	-10.9802
ò	-10.9808
▁doméstico	-10.9808
▁restrición	-10.9808
▁tar	-10.981
▁Rod	-10.981
▁fenómenos	-10.981
▁Letras	-10.9811
▁Med	-10.9812
ân	-10.9813
▁PS	-10.9813
char	-10.9815
▁paga	-10.9815
▁diferencia	-10.9817
▁anarquista	-10.9817
▁polémica	-10.9817
▁tivese	-10.9819
▁talento	-10.9819
▁Diario	-10.982
▁integr	-10.9822
▁Mé	-10.9824
▁negativo	-10.9824
▁Gla	-10.9825
▁maxi	-10.9835
▁aló	-10.9835
anza	-10.9835
▁jazz	-10.9836
▁Morreu	-10.9836
▁lixeira	-10.9836
▁pobres	-10.9836
▁febra	-10.9837
vy	-10.9841
▁wa	-10.9841
▁XXI	-10.9843
▁Arzúa	-10.9845
▁Fala	-10.9846
▁Blue	-10.9847
▁Vin	-10.9847
▁tornou	-10.9848
▁Mary	-10.9848
iba	-10.9849
▁austríaco	-10.9855
▁navega	-10.9855
▁detalles	-10.9858
dín	-10.9858
▁preso	-10.9858
▁finalizou	-10.9861
▁Borgoña	-10.9864
▁café	-10.9864
▁funcionario	-10.9865
▁reflecti	-10.9865
▁renuncia	-10.9871
war	-10.9872
▁Norteamérica	-10.9873
▁Televisión	-10.9874
americano	-10.9874
▁mariño	-10.9875
ecida	-10.9878
cap	-10.9879
▁sup	-10.9881
ii	-10.9882
▁brancas	-10.9882
redo	-10.9882
▁Adam	-10.9882
▁basicamente	-10.9884
▁aceiro	-10.9886
▁condados	-10.9886
▁dependencia	-10.9887
ped	-10.9889
▁Estevo	-10.989
zen	-10.9893
▁Artur	-10.9897
bit	-10.9898
▁lóxica	-10.99
▁preserva	-10.9901
▁exipcio	-10.9901
gus	-10.9902
▁Wood	-10.9904
▁eliminación	-10.9904
▁oposto	-10.9906
pti	-10.9907
essa	-10.9911
▁tronco	-10.9912
▁aumentou	-10.9914
▁nena	-10.9916
▁More	-10.9917
cidas	-10.9918
▁aprobou	-10.992
▁Wei	-10.9921
rial	-10.9922
mber	-10.9922
▁vocês	-10.9922
▁configuración	-10.9924
▁vira	-10.9927
▁reflicte	-10.993
▁liso	-10.9935
▁folga	-10.9937
▁cincuenta	-10.9939
▁domingo	-10.9939
▁naquel	-10.9941
▁Inicial	-10.9949
▁vacina	-10.995
▁nutri	-10.995
▁protexe	-10.9951
▁masiva	-10.9953
▁daquel	-10.9954
nov	-10.9955
ç	-10.9955
▁Patrimonio	-10.9958
▁consecutiva	-10.9958
▁incidente	-10.9958
▁acelera	-10.996
▁mantívo	-10.9962
quina	-10.9964
▁primo	-10.9964
▁traspasado	-10.9966
▁High	-10.9967
▁celebrar	-10.9968
▁Zamora	-10.9968
▁Traballou	-10.9973
▁conceptos	-10.9974
grad	-10.9976
▁cárcere	-10.9977
▁illote	-10.9977
table	-10.9977
▁investimento	-10.9982
AT	-10.9985
gard	-10.9986
▁reunir	-10.9986
▁Armenia	-10.9986
tras	-10.9993
dicouse	-10.9994
▁Sho	-10.9994
produ	-10.9996
▁asemblea	-10.9996
▁pseudo	-10.9996
▁Selección	-10.9996
▁Case	-10.9996
▁Francesa	-10.9997
▁reuni	-10.9998
▁compañías	-10.9999
ófilo	-10.9999
▁colonos	-11
▁Militar	-11.0001
▁58	-11.0004
▁hemisferio	-11.0005
cc	-11.0006
▁sinalización	-11.0008
▁liberado	-11.0013
▁Posúe	-11.0015
▁etiqueta	-11.0015
▁Alfredo	-11.0016
cionado	-11.0021
▁porción	-11.0023
▁devandita	-11.0024
▁Arriba	-11.0025
▁ainda	-11.0025
qué	-11.0028
queira	-11.0035
▁comisión	-11.0036
▁Amai	-11.0038
▁restantes	-11.004
▁Antigo	-11.004
▁favorable	-11.0045
▁renda	-11.0047
rbi	-11.0048
mic	-11.005
▁cultivos	-11.0051
▁Vice	-11.0055
rís	-11.0055
▁sombra	-11.0057
▁Eume	-11.0058
▁Pardo	-11.006
▁desempeña	-11.0062
▁sinxelos	-11.0063
dito	-11.0066
▁Peña	-11.0066
▁Roll	-11.007
▁vehículo	-11.0071
▁Lewis	-11.0072
▁incluídos	-11.0074
▁paralela	-11.0075
▁substituíu	-11.0077
ür	-11.0081
▁Física	-11.0082
▁masculina	-11.0082
▁refire	-11.0084
OS	-11.0087
▁morreron	-11.0087
ence	-11.0088
▁Nalgún	-11.0091
▁cavidade	-11.0091
▁navío	-11.0092
▁Cunha	-11.0094
▁exportación	-11.0097
▁Mike	-11.0097
▁Joaquí	-11.0101
cid	-11.0102
▁crese	-11.011
▁ecosistema	-11.011
▁pechado	-11.0111
▁amplia	-11.0112
oi	-11.0114
▁negros	-11.012
▁consideraba	-11.0121
▁chea	-11.0123
mita	-11.0125
lov	-11.0126
▁detecta	-11.0129
▁brazo	-11.0131
▁realizadas	-11.0131
neses	-11.0135
ianos	-11.0138
δ	-11.0139
▁Gregorio	-11.0139
▁xiro	-11.0142
▁péptido	-11.0142
▁consider	-11.0143
▁Nós	-11.0144
▁escavación	-11.0146
▁Jacques	-11.0149
▁Prusia	-11.0149
▁Oza	-11.015
▁fogo	-11.0153
▁xudicial	-11.0156
marca	-11.0158
▁Hollywood	-11.0158
▁PSdeG	-11.0158
▁xuíz	-11.0164
▁Barro	-11.0171
▁Gun	-11.0176
lóxica	-11.0178
▁preocupación	-11.0178
▁asinar	-11.0185
▁aproveita	-11.0186
▁transmiti	-11.019
▁escocés	-11.0197
▁taxon	-11.0197
▁descarga	-11.0198
▁terrestres	-11.0203
▁profesión	-11.0207
▁exercer	-11.0207
▁Provincial	-11.0211
▁ordenado	-11.0211
wy	-11.0212
▁Et	-11.0215
▁primitivo	-11.0216
púxose	-11.022
▁gato	-11.022
▁abarca	-11.0221
▁corda	-11.0221
▁sentir	-11.0222
-15	-11.0223
▁represión	-11.0223
▁rexionais	-11.0226
▁reloxo	-11.0226
▁congreso	-11.0226
▁já	-11.0228
delo	-11.023
▁lesión	-11.023
▁competi	-11.0231
▁aceptar	-11.0232
▁Alma	-11.0235
▁homónima	-11.0236
▁corredor	-11.0237
▁rodeado	-11.0237
▁concretamente	-11.0241
▁eliminado	-11.0243
▁supervivencia	-11.0245
▁deportivos	-11.0246
▁Company	-11.0246
▁pleno	-11.0249
▁declara	-11.025
▁conca	-11.0252
▁Menor	-11.0256
▁arca	-11.0257
▁entende	-11.0258
▁Lista	-11.0258
▁coñecía	-11.0259
dista	-11.0262
▁1.000	-11.0263
hard	-11.0264
▁Borbón	-11.0266
▁doutoramento	-11.0266
▁gótico	-11.0266
▁Gau	-11.0266
▁nacionalidade	-11.0268
▁Há	-11.0271
▁orixes	-11.0274
▁Occidente	-11.0275
▁montañosa	-11.0275
▁índice	-11.0275
▁nativa	-11.0277
▁Pasa	-11.0277
▁soño	-11.0277
▁nacionalismo	-11.028
▁assim	-11.0281
▁Var	-11.0282
▁neur	-11.0282
▁alguma	-11.0286
▁decidi	-11.0287
▁naquela	-11.0287
▁Angeles	-11.029
▁Señora	-11.0291
▁deposita	-11.0292
▁Praga	-11.0292
▁colleita	-11.0295
▁obreiro	-11.0296
▁Mina	-11.0298
plica	-11.03
▁plasma	-11.0302
rik	-11.0302
▁xo	-11.0303
▁guerreiro	-11.0304
▁pescozo	-11.0304
▁Boeing	-11.0304
▁erros	-11.0307
▁Bach	-11.0307
▁nota	-11.0309
rita	-11.0312
▁identificado	-11.0314
▁debuta	-11.0315
▁carbón	-11.0316
▁biolóxico	-11.032
▁andar	-11.032
▁separadas	-11.0323
▁asentamentos	-11.0323
σ	-11.0323
▁virtude	-11.0324
▁Hitler	-11.0324
▁dé	-11.0324
▁españolas	-11.0328
wen	-11.033
▁manga	-11.033
▁Británica	-11.0333
▁muita	-11.034
▁naturalista	-11.0343
▁promover	-11.0343
pita	-11.0344
thi	-11.0346
▁funcionar	-11.0347
▁colonial	-11.0348
▁máquinas	-11.035
▁Vive	-11.035
▁cadrados	-11.0353
▁Filipinas	-11.0353
▁intestino	-11.0353
▁franxa	-11.0353
▁actuou	-11.0353
▁xeográfico	-11.0354
▁ki	-11.0361
▁ruínas	-11.0363
colo	-11.0364
▁Kh	-11.0365
▁1897	-11.0367
т	-11.0368
▁estancia	-11.037
▁Bulgaria	-11.0373
▁mariñas	-11.0374
▁Ambos	-11.0374
phy	-11.0378
lleiro	-11.0378
▁cuncha	-11.038
▁atacar	-11.0382
vre	-11.0387
▁cra	-11.039
▁Quin	-11.0399
▁retablo	-11.0402
▁asistente	-11.0402
▁controla	-11.0403
mén	-11.0404
▁Esca	-11.0408
▁Má	-11.0411
▁cómic	-11.0411
▁pontes	-11.0411
▁feminista	-11.0412
▁sonda	-11.0412
▁cerámica	-11.0412
▁Tim	-11.0415
▁Will	-11.0416
ñen	-11.0418
miento	-11.0421
▁xestiona	-11.0422
▁incorporou	-11.0425
▁diaria	-11.0429
▁aprendizaxe	-11.0432
▁rocha	-11.0436
▁1880	-11.044
▁Esc	-11.044
▁rega	-11.0441
▁recruta	-11.0442
ST	-11.0446
▁adaptado	-11.0446
▁Verde	-11.0448
▁Fan	-11.0451
▁soberano	-11.0452
▁play	-11.0455
lag	-11.0456
▁test	-11.0459
▁ventos	-11.0459
▁Literatura	-11.0462
▁patri	-11.0464
▁empregando	-11.0465
▁Libre	-11.0465
▁destacando	-11.0465
▁inspiración	-11.0467
▁rico	-11.0469
▁substituída	-11.047
▁persoais	-11.047
▁Quiroga	-11.0472
▁vicepresidente	-11.0472
▁patóxeno	-11.0472
▁serán	-11.0472
▁separados	-11.0475
▁AP	-11.0478
▁fur	-11.0479
▁Nosa	-11.0479
▁pegada	-11.0481
▁franquista	-11.0482
▁suc	-11.0483
▁exame	-11.0486
▁tradicións	-11.0486
▁vencer	-11.0487
▁seguiron	-11.049
▁discípulo	-11.0492
▁serven	-11.0493
▁asociadas	-11.0495
▁replicación	-11.0496
▁mod	-11.0496
▁Tem	-11.0497
▁conservan	-11.0501
▁Málaga	-11.0501
▁Philip	-11.0502
▁dispón	-11.0504
▁Pere	-11.0509
▁controversia	-11.0511
▁persecución	-11.0511
▁adquirir	-11.0512
▁Segui	-11.0512
▁finalidade	-11.0515
▁rever	-11.052
▁xeometría	-11.0522
▁leve	-11.0523
▁fillas	-11.0528
▁tribuna	-11.0531
▁Felipe	-11.0531
▁Xerais	-11.0534
▁vesti	-11.0534
▁coli	-11.0535
▁amante	-11.0536
▁incon	-11.054
▁parecido	-11.0543
rit	-11.0543
▁darlle	-11.0544
▁rexistros	-11.0547
▁terminal	-11.0549
▁East	-11.0549
▁pechada	-11.0549
▁Vale	-11.0551
▁Vietnam	-11.0551
▁consecutivo	-11.0551
ástico	-11.0552
-8	-11.0552
▁Pop	-11.0553
idez	-11.0554
▁Santos	-11.0554
▁Mata	-11.0556
ić	-11.0557
▁Lea	-11.0558
▁sp	-11.0561
▁presa	-11.0562
▁mantendo	-11.0563
▁72	-11.0566
▁1895	-11.0566
▁privilexio	-11.0572
▁discográfica	-11.0573
▁destacados	-11.0575
▁segura	-11.0575
riano	-11.0575
▁pH	-11.0576
▁gasto	-11.0578
clus	-11.0579
▁Director	-11.058
▁Dar	-11.058
ا	-11.0582
▁afectado	-11.0582
▁saga	-11.0583
▁ducado	-11.0583
▁1899	-11.0587
áculo	-11.0589
▁fon	-11.059
▁Suárez	-11.0592
▁suposto	-11.0594
▁normais	-11.0598
▁paleo	-11.0598
▁estaría	-11.06
zy	-11.0601
▁vertebrados	-11.0602
▁trabalho	-11.0602
▁emprende	-11.0604
▁esténdese	-11.0605
bach	-11.0607
▁emisora	-11.0608
▁Caribe	-11.0608
▁queixo	-11.0609
ES	-11.0609
▁partidarios	-11.0612
▁Administración	-11.0612
▁contribúe	-11.0612
▁irlandesa	-11.0612
▁contos	-11.0612
▁Sig	-11.0612
timo	-11.0613
▁Xoana	-11.0614
ika	-11.0618
heim	-11.0618
▁Corre	-11.0621
▁pantalla	-11.0622
crito	-11.0623
aldo	-11.0627
cru	-11.0631
▁perfecta	-11.0632
▁Xeneral	-11.0632
▁tomando	-11.0633
▁decoración	-11.0633
▁adulto	-11.0634
▁Inc	-11.0637
ette	-11.0638
▁pesado	-11.0639
▁planea	-11.0641
▁detectar	-11.0644
frica	-11.0647
▁estea	-11.0649
▁mide	-11.0649
▁enterrado	-11.0654
zh	-11.0654
▁Arena	-11.0654
▁historias	-11.0654
▁plans	-11.0655
▁aparentemente	-11.0658
▁residentes	-11.066
▁Xúpiter	-11.0662
▁metano	-11.0663
▁anuais	-11.0664
▁activos	-11.0665
ería	-11.067
▁mover	-11.0671
▁estradas	-11.0671
▁integración	-11.0671
▁constituída	-11.0673
sionista	-11.0679
▁asasina	-11.0679
▁Um	-11.0682
▁culpa	-11.0682
▁Fil	-11.0682
▁ninguén	-11.0683
tense	-11.0683
▁preparar	-11.0683
▁mag	-11.0683
dis	-11.0686
▁barroco	-11.0687
▁Vello	-11.0689
▁Windows	-11.0693
▁gravidade	-11.0693
▁exceso	-11.0693
▁pirata	-11.0694
▁completar	-11.0695
rich	-11.0698
▁bro	-11.0698
▁doutra	-11.07
▁pasaxe	-11.0702
▁Uruguai	-11.0703
▁Capela	-11.0704
crita	-11.0704
gin	-11.0705
▁anuncio	-11.0705
mmer	-11.0706
ómica	-11.0706
mbe	-11.0709
▁distingui	-11.071
ect	-11.0712
▁encarga	-11.0713
▁alcume	-11.0713
▁pulmón	-11.0714
▁impresión	-11.0715
▁empregan	-11.0718
▁gu	-11.072
gni	-11.0721
▁casco	-11.0723
▁acha	-11.0723
riga	-11.0725
▁alelo	-11.0728
mín	-11.0731
▁descoñecido	-11.0734
fecto	-11.0735
▁clásicos	-11.074
▁consecuencias	-11.0742
▁imper	-11.0743
▁Ball	-11.0743
▁erupción	-11.0744
▁pedir	-11.0746
▁Johnson	-11.0746
▁diana	-11.0749
▁editada	-11.075
▁Human	-11.0754
▁Rec	-11.0756
enti	-11.0757
zzo	-11.0757
▁gusto	-11.0758
▁meio	-11.0758
▁1896	-11.0758
IT	-11.0759
▁idiomas	-11.0759
▁1870	-11.0761
▁absorbe	-11.0764
llado	-11.0765
▁motiva	-11.0767
▁Atlético	-11.0775
▁DVD	-11.0775
ómetro	-11.0776
▁levando	-11.0777
▁nordés	-11.0785
elle	-11.0785
▁Lar	-11.0786
▁Pascua	-11.0786
▁torna	-11.0789
▁actua	-11.0792
franc	-11.0794
▁abella	-11.0794
▁66	-11.0794
▁espiritual	-11.0795
▁provisional	-11.0795
▁Nel	-11.0796
▁protesta	-11.0798
▁facían	-11.0799
▁tende	-11.08
quer	-11.0801
к	-11.0802
▁US	-11.0806
▁Palm	-11.0808
▁designar	-11.081
▁Múnic	-11.0816
▁PIB	-11.0816
▁consistía	-11.0816
▁danza	-11.0816
▁promete	-11.0818
▁cesa	-11.0821
llada	-11.0824
▁perderon	-11.0825
し	-11.0826
▁Habana	-11.0826
▁Celanova	-11.0826
▁Arm	-11.0827
▁Cel	-11.0828
▁separar	-11.083
▁achado	-11.0833
▁Porque	-11.0833
▁cuartos	-11.0833
▁turco	-11.0833
▁URSS	-11.0836
▁recuperou	-11.0836
▁antrop	-11.0837
▁buque	-11.0839
▁neuronas	-11.084
▁Siria	-11.084
▁rap	-11.084
DP	-11.0841
▁vende	-11.0842
▁discusión	-11.0847
▁corta	-11.0848
métrico	-11.0856
▁baixista	-11.0857
▁inmigrantes	-11.0857
ð	-11.0857
▁débeda	-11.0857
▁tsar	-11.0861
▁tratou	-11.0863
▁Semana	-11.0864
▁óso	-11.0864
▁verme	-11.0868
▁cortes	-11.0868
ccio	-11.0871
▁bacteriana	-11.0872
▁declarada	-11.0877
▁vivía	-11.0878
mper	-11.0879
▁lixeiro	-11.0879
▁inspirado	-11.0884
-13	-11.0887
ό	-11.0888
▁pseudónimo	-11.0888
▁Dúas	-11.0888
gara	-11.0891
▁Hans	-11.0892
▁Revista	-11.0892
centos	-11.0898
▁católicos	-11.09
prim	-11.09
poñen	-11.0902
▁eixe	-11.0902
▁cobra	-11.0904
▁Sara	-11.0904
▁pacto	-11.0905
▁investigador	-11.0909
▁aparato	-11.091
▁TVG	-11.0911
▁orixinario	-11.0911
vella	-11.0911
wald	-11.0915
▁continuaron	-11.0915
▁Joe	-11.0916
vista	-11.0916
▁Cantabria	-11.0919
▁Vilagarcía	-11.0919
▁absoluto	-11.0919
▁constituído	-11.0919
▁usual	-11.0919
▁abundancia	-11.092
▁cheo	-11.0921
▁mega	-11.0923
▁chave	-11.0923
king	-11.0926
▁Sh	-11.0928
▁dinámica	-11.093
▁vivendas	-11.0931
EC	-11.0935
▁estudante	-11.0936
▁aceptada	-11.0939
▁Xustiza	-11.094
▁antibióticos	-11.094
▁dicía	-11.0941
anto	-11.0943
lita	-11.0948
▁Catalunya	-11.095
▁superficial	-11.095
▁afectada	-11.0951
▁67	-11.0952
▁Oleiros	-11.0952
▁inmuno	-11.0953
ceiro	-11.0955
▁Casal	-11.0955
▁prestixio	-11.0956
▁acusa	-11.0958
rien	-11.096
▁Christian	-11.0961
▁Colaboro	-11.0961
presión	-11.0961
▁destinada	-11.0962
▁Castelao	-11.0962
▁xogaba	-11.0963
▁Cru	-11.0963
▁provocar	-11.0968
▁House	-11.0971
▁reduce	-11.0972
▁reacciona	-11.0973
▁poética	-11.0975
▁Sor	-11.0976
▁videoxogo	-11.0976
trato	-11.0977
ame	-11.0981
▁sindicato	-11.0982
▁contribuíu	-11.0982
AM	-11.0982
▁exacta	-11.0982
▁veu	-11.0983
▁Adoita	-11.0983
▁logrando	-11.0984
▁cualificación	-11.0985
▁mim	-11.0985
dh	-11.0986
▁parcial	-11.0987
▁prol	-11.0989
▁Billboard	-11.0992
▁Circuíto	-11.0992
▁Montenegro	-11.0992
▁Mondoñedo	-11.0992
▁asiático	-11.0992
▁Hay	-11.0992
▁modalidade	-11.0992
ã	-11.0993
ánica	-11.0994
▁Varela	-11.0994
pú	-11.0995
▁indu	-11.0996
▁Parti	-11.0996
▁terapia	-11.0997
▁obtendo	-11.1003
▁arroz	-11.1004
▁Av	-11.1006
▁Lord	-11.1007
▁Até	-11.101
▁esfera	-11.1013
▁saca	-11.1014
▁Emp	-11.1014
▁executado	-11.1015
▁Canto	-11.1023
▁bolxevique	-11.1024
▁Rubi	-11.1025
▁impide	-11.1026
▁coloniza	-11.1027
▁orientais	-11.1028
▁facilitar	-11.1031
▁inaugurou	-11.1034
▁modernas	-11.1038
town	-11.1039
▁ampliación	-11.1043
▁lípido	-11.1045
▁mariñeiro	-11.1046
▁estimación	-11.1047
▁1889	-11.1048
▁implicada	-11.1051
▁Sex	-11.1052
▁Fol	-11.1054
▁organ	-11.106
▁vela	-11.1061
ega	-11.1065
▁tomaron	-11.1066
▁citado	-11.1067
ife	-11.1068
▁marcas	-11.1069
▁63	-11.1071
▁deusa	-11.1071
río	-11.1072
xí	-11.1074
▁rompe	-11.1075
с	-11.1076
▁complexidade	-11.1076
▁demostrar	-11.1077
row	-11.108
▁euro	-11.108
▁Humanidade	-11.108
▁febre	-11.1084
▁destruír	-11.1084
▁Produc	-11.1085
hm	-11.1085
ífero	-11.1087
▁denomínan	-11.1087
▁cardeal	-11.1087
▁pendente	-11.1088
▁dióxido	-11.1091
▁conciencia	-11.1096
▁podio	-11.1097
▁obtén	-11.1097
▁constelación	-11.1097
laxe	-11.11
▁narrativa	-11.1101
▁1888	-11.1102
porte	-11.1107
▁más	-11.1107
▁Bosnia	-11.111
▁traza	-11.1112
▁carece	-11.1114
▁denominar	-11.1114
▁pobre	-11.1114
▁intentar	-11.1115
▁68	-11.1116
▁auxiliar	-11.1119
iel	-11.112
▁Reco	-11.1121
▁alimenta	-11.1125
▁Marie	-11.113
▁mantiña	-11.113
▁Dé	-11.1132
ional	-11.1133
▁verdes	-11.1135
▁Mestre	-11.1136
▁polar	-11.1138
▁deputados	-11.1139
▁esquerdo	-11.114
▁electo	-11.114
rdina	-11.1141
▁vasos	-11.1141
▁conservado	-11.1145
▁absorción	-11.1151
▁escollido	-11.1151
▁capítulo	-11.1152
▁igualdade	-11.1153
▁Queen	-11.1157
II	-11.116
▁Democrática	-11.1161
▁descoñecida	-11.1161
▁facultade	-11.1161
▁Disney	-11.1162
▁Abu	-11.1167
-14	-11.1169
▁Investigación	-11.1172
uf	-11.1173
▁Hei	-11.1176
▁estreitamente	-11.1177
ioso	-11.1177
▁Alfa	-11.1179
▁Sociedad	-11.1179
cana	-11.118
▁obrigou	-11.1183
▁convertéron	-11.1183
▁magnético	-11.1183
▁Toronto	-11.1183
▁dixe	-11.1186
vic	-11.1192
▁suspensión	-11.1193
▁iguais	-11.1193
▁medicamento	-11.1193
▁xardín	-11.1196
▁autonómica	-11.1204
▁Presenta	-11.1205
▁descendencia	-11.1206
▁equipamento	-11.1207
▁anualmente	-11.1211
nik	-11.1211
▁emigra	-11.1212
▁federación	-11.1215
▁humidade	-11.1215
▁inclinación	-11.1215
▁referente	-11.1215
▁trofeo	-11.1215
▁10.000	-11.1215
▁Teresa	-11.1216
▁Cabr	-11.1216
▁verbo	-11.1216
▁Formou	-11.1216
▁portos	-11.1217
▁mic	-11.1222
▁deixaron	-11.1223
leiro	-11.1224
▁concesión	-11.1225
▁Rico	-11.1227
cara	-11.1227
RE	-11.1228
▁asocia	-11.1229
cade	-11.123
▁corenta	-11.1232
▁degradación	-11.1233
▁Brabham	-11.1236
▁confirmou	-11.1236
▁pigmento	-11.1236
▁progreso	-11.1236
ald	-11.1241
▁parecer	-11.1243
▁Biscaia	-11.1247
▁Alianza	-11.1247
▁asistir	-11.1248
▁bens	-11.1251
▁traslada	-11.1254
▁Eric	-11.1254
▁divisións	-11.1257
▁asigna	-11.1257
▁setentrional	-11.1258
▁Gabriel	-11.1258
▁disposto	-11.1258
▁sensible	-11.1259
▁carbo	-11.1259
▁descendente	-11.126
▁mutación	-11.1262
▁rotación	-11.1263
▁Nela	-11.1265
▁criar	-11.1266
py	-11.1267
▁incursión	-11.1268
▁santuario	-11.1268
▁renome	-11.1269
▁Iglesias	-11.1269
▁protexida	-11.1269
▁vulgar	-11.1269
▁Golfo	-11.1269
▁Braga	-11.127
▁variada	-11.1272
▁aneis	-11.1275
▁xardíns	-11.1276
▁realizan	-11.1277
▁Mara	-11.1278
▁Antoni	-11.1279
▁censura	-11.1279
▁precisión	-11.128
▁alimentar	-11.1283
▁custos	-11.1284
niano	-11.1284
▁Augusto	-11.1286
▁comparten	-11.1289
belmente	-11.1289
▁coordenadas	-11.129
▁hebreo	-11.129
▁carballo	-11.129
▁controlado	-11.1291
▁cristián	-11.1291
mentación	-11.1292
▁liberais	-11.1293
▁61	-11.1297
▁ultra	-11.1299
▁Simon	-11.13
vento	-11.13
▁destruída	-11.1301
▁pioneiro	-11.1301
▁afinidade	-11.1301
▁fauna	-11.1303
▁Guer	-11.1303
olóxicas	-11.1303
▁1886	-11.1305
▁rapaz	-11.1307
▁embaixador	-11.1311
▁primitiva	-11.1311
ulación	-11.1312
▁ambientes	-11.1312
▁recomenda	-11.1314
▁Blo	-11.1322
▁Pódese	-11.1322
▁titulada	-11.1322
▁imposible	-11.1322
▁derradeira	-11.1322
▁public	-11.1323
▁acolle	-11.1323
▁estabiliza	-11.1324
▁monumentos	-11.1324
▁cicl	-11.1324
▁Vel	-11.1326
glio	-11.1328
▁guía	-11.1328
riedade	-11.1334
▁Jacob	-11.1334
▁noticias	-11.1336
▁Alex	-11.1337
▁drogas	-11.1338
▁ofreceu	-11.1338
▁construíron	-11.1339
chan	-11.1342
▁dirixe	-11.1342
▁estética	-11.1345
▁produtora	-11.1346
▁latitude	-11.1346
dici	-11.1347
▁Opera	-11.1348
▁viaxar	-11.1349
xera	-11.1352
▁tetra	-11.1353
▁talla	-11.1354
lados	-11.1355
▁acostuma	-11.1355
▁atracción	-11.1355
rth	-11.1356
▁criterios	-11.1359
▁capturado	-11.136
▁adoptar	-11.1363
▁copa	-11.1363
▁Campos	-11.1364
icidade	-11.1364
▁700	-11.1365
▁semanario	-11.1365
inho	-11.1365
ejo	-11.1366
▁lanzar	-11.1366
rov	-11.1367
▁compensa	-11.1367
▁ocasiona	-11.137
▁Abaixo	-11.1373
▁Indonesia	-11.1377
▁substituíndo	-11.1377
zia	-11.1381
▁facilidade	-11.1383
▁Có	-11.1386
▁Rea	-11.1387
▁Crese	-11.1387
▁parecía	-11.1388
▁1868	-11.1392
dera	-11.1392
▁porteiro	-11.1392
vision	-11.1396
▁bala	-11.1397
▁Cabe	-11.1397
▁playoffs	-11.1398
▁secreción	-11.1399
▁Bio	-11.1399
▁desembocadura	-11.1399
▁Cun	-11.1401
▁Dal	-11.1403
▁macro	-11.1403
▁sitúan	-11.1407
▁explorador	-11.1407
▁destacada	-11.1408
íxe	-11.1408
▁Independencia	-11.1409
▁campesiños	-11.1409
▁esquema	-11.141
▁correr	-11.141
▁francos	-11.141
▁xudeu	-11.141
▁sitúa	-11.1412
▁protón	-11.1413
rell	-11.1414
▁1885	-11.1415
▁especifica	-11.1417
▁serpe	-11.142
▁adolescente	-11.142
▁restrinxi	-11.142
▁cursiva	-11.142
▁estrita	-11.1422
▁notas	-11.1424
▁signos	-11.1424
num	-11.1427
▁chu	-11.143
▁peculiar	-11.1431
mada	-11.1431
▁Honra	-11.1432
▁aproxima	-11.1432
▁Publicou	-11.1436
▁integrada	-11.1437
▁comercializa	-11.1438
icismo	-11.1439
▁situ	-11.144
ceto	-11.1441
▁feira	-11.1441
rca	-11.1444
▁Gall	-11.1446
▁Pedra	-11.145
liga	-11.1451
▁mocidade	-11.1453
▁galería	-11.1457
kel	-11.1463
▁nucleares	-11.1464
▁Defensa	-11.1464
▁responsábe	-11.1464
▁plana	-11.1466
▁secreta	-11.1471
▁densa	-11.1472
▁Neu	-11.1474
▁Álvaro	-11.1475
▁confianza	-11.1476
-16	-11.1479
▁1884	-11.1479
▁pesa	-11.148
▁Santander	-11.1482
▁ple	-11.1484
▁Autónoma	-11.1486
▁paciente	-11.1491
▁acorda	-11.1491
▁compositores	-11.1496
▁visitar	-11.1496
▁cinematográfica	-11.1497
▁teorema	-11.1497
▁permiso	-11.1497
▁intervalo	-11.1497
▁diagnóstico	-11.1497
▁Mun	-11.1502
▁ja	-11.1503
▁dentes	-11.1504
▁reside	-11.1504
▁Rob	-11.1505
▁Vario	-11.1507
▁Núñez	-11.1508
▁Renacemento	-11.1508
▁secundarios	-11.151
▁trasladado	-11.1513
▁Ray	-11.1518
▁Pamplona	-11.1519
▁húngaro	-11.1519
▁alguén	-11.1519
▁axudante	-11.1522
órico	-11.1522
▁1,5	-11.1525
▁minuto	-11.1525
guen	-11.1526
▁elevación	-11.1527
▁trece	-11.1529
énico	-11.153
▁Andrade	-11.153
▁estilos	-11.1531
▁manifestacións	-11.1534
▁Brian	-11.1534
nesia	-11.1538
▁eclesiástico	-11.1541
▁nucleótidos	-11.1542
▁debían	-11.1546
▁recibido	-11.1547
▁vigor	-11.1547
▁Victoria	-11.1547
▁delegado	-11.155
▁trazado	-11.155
▁brazos	-11.155
▁Servizo	-11.1552
▁Política	-11.1555
▁62	-11.1556
▁sensación	-11.1557
rola	-11.1557
▁clasifica	-11.1558
vou	-11.156
moto	-11.1563
η	-11.1563
▁Mozart	-11.1563
▁teórico	-11.1565
▁peche	-11.1565
▁ían	-11.1565
▁habitada	-11.1566
▁pobreza	-11.1566
▁Society	-11.1575
▁explosión	-11.1575
▁signo	-11.1577
▁59	-11.1579
▁acadando	-11.158
▁xigantes	-11.1583
▁volveron	-11.1584
▁fabrica	-11.1584
▁cabeceira	-11.1586
▁muíño	-11.1586
▁sexta	-11.1586
▁Cé	-11.159
▁mitocondria	-11.1593
▁habituais	-11.1597
▁sometido	-11.1597
▁resp	-11.1602
▁prisioneiros	-11.1602
▁mama	-11.1603
Ba	-11.1605
▁xustifica	-11.1608
▁qualquer	-11.1608
▁Kosmos	-11.1609
▁lámina	-11.161
▁turcos	-11.161
▁concluí	-11.161
▁deulle	-11.1613
▁inhibidor	-11.1615
▁rusos	-11.1615
▁Redondela	-11.1619
▁consulta	-11.1619
▁Font	-11.1622
íanse	-11.1623
▁desprazamento	-11.1624
▁permanecen	-11.1625
▁profundas	-11.1627
▁recollida	-11.163
▁plasmática	-11.163
vam	-11.1634
deiros	-11.1636
▁navegación	-11.1641
▁intelixente	-11.1641
▁introducido	-11.1644
iuse	-11.1645
tila	-11.1647
▁agrícolas	-11.1649
eño	-11.165
versión	-11.1652
▁únese	-11.1653
▁étnico	-11.1653
ical	-11.1655
▁capta	-11.1655
ali	-11.1657
▁minas	-11.1659
▁suxeri	-11.1662
▁Desc	-11.1662
▁alcohol	-11.1663
▁Basketball	-11.1664
▁escolle	-11.1666
▁vidro	-11.1669
RS	-11.1674
▁culmina	-11.1674
gues	-11.1674
ctico	-11.1675
▁caudal	-11.1675
▁Emperador	-11.1677
▁Í	-11.1677
▁cans	-11.168
dul	-11.1681
▁Villar	-11.1685
▁baile	-11.1688
▁incorporación	-11.1688
▁salvar	-11.1692
arquía	-11.1692
▁Merca	-11.1693
PG	-11.1694
▁após	-11.1694
▁Moi	-11.1697
▁cadeira	-11.1698
▁pessoa	-11.1698
tosa	-11.1699
▁extenso	-11.1701
▁vezes	-11.1701
▁concede	-11.1702
▁Glo	-11.1703
órica	-11.1705
▁habitante	-11.1708
▁billete	-11.1709
▁Cova	-11.171
▁cul	-11.1711
▁balea	-11.1714
▁Fixo	-11.1716
▁Marc	-11.1717
aki	-11.1719
olu	-11.1719
▁Víctor	-11.172
▁Ribadeo	-11.172
▁1891	-11.1724
▁proporcionar	-11.173
▁Republicana	-11.1731
▁ilegal	-11.1731
▁explota	-11.1734
▁irre	-11.1736
▁debida	-11.1738
▁host	-11.174
▁atol	-11.1743
▁misterio	-11.1752
gú	-11.1753
▁xénica	-11.1754
▁Friedrich	-11.1754
▁astrónomo	-11.1754
▁éuscaro	-11.1754
▁Jersey	-11.1754
worth	-11.1754
▁débil	-11.1754
▁grella	-11.1758
▁fusiona	-11.1764
▁Cambridge	-11.1765
▁mecánico	-11.1765
▁permitindo	-11.1765
▁Oxford	-11.1765
▁segredo	-11.1766
▁embrión	-11.1766
▁Web	-11.1766
▁aéreo	-11.1767
▁delimita	-11.1767
γ	-11.1771
▁financia	-11.1775
▁99	-11.1775
▁face	-11.1777
▁ingresa	-11.1777
▁Lind	-11.1778
▁enfrontou	-11.1778
▁71	-11.1779
▁il	-11.1782
▁destacou	-11.1784
▁emitir	-11.179
μ	-11.1794
▁racional	-11.1794
▁Walter	-11.1795
▁precedente	-11.1796
▁pase	-11.1797
▁intelectuais	-11.1799
▁interpretou	-11.1799
▁torres	-11.1799
▁Secretario	-11.1799
▁protexido	-11.18
▁nutrientes	-11.18
▁previo	-11.1806
▁Leon	-11.1808
▁adoitaba	-11.1808
▁cristal	-11.1808
RI	-11.1809
▁confia	-11.181
comp	-11.181
▁ocasionalmente	-11.1811
▁casado	-11.1812
▁buques	-11.1813
▁Castell	-11.1814
cionou	-11.1815
▁dispoñibles	-11.1816
▁orixinar	-11.1817
▁proxecta	-11.1822
▁excluí	-11.1822
▁Arthur	-11.1822
▁Crónica	-11.1822
▁Rosberg	-11.1822
▁Street	-11.1823
-11	-11.1826
▁Ky	-11.1827
▁cumpri	-11.1828
▁atribu	-11.183
▁vencedor	-11.183
▁IL	-11.1831
▁Silva	-11.1833
▁cilindro	-11.1833
tempo	-11.1838
▁xuntos	-11.1838
vivi	-11.1838
▁Mateo	-11.184
▁confundir	-11.1846
▁Aparece	-11.1847
tile	-11.1847
,	-11.185
▁ko	-11.1852
▁usuario	-11.1852
▁promove	-11.1854
▁Tomé	-11.1855
▁Soyuz	-11.1856
▁Traba	-11.1858
▁retirado	-11.186
▁Carlo	-11.1861
neiro	-11.1862
nita	-11.1867
▁adicionais	-11.1868
▁aproba	-11.1869
▁filial	-11.187
ubi	-11.1875
▁Kent	-11.1876
▁milenio	-11.1879
▁marea	-11.188
▁fame	-11.1882
▁educativo	-11.1884
▁pir	-11.1884
▁film	-11.1885
▁bico	-11.1885
▁moleculares	-11.1886
▁formaba	-11.1886
▁beneficio	-11.1887
▁nosos	-11.1889
▁intelixencia	-11.189
▁Clark	-11.1897
▁producidos	-11.1897
▁corporal	-11.1899
▁teito	-11.19
▁institu	-11.1901
▁Curtis	-11.1903
▁1893	-11.1907
▁patente	-11.1908
▁inci	-11.191
▁emigración	-11.1911
▁voar	-11.1912
▁quedaba	-11.1913
▁estivera	-11.1914
▁votación	-11.1917
ólica	-11.1917
▁coñecen	-11.192
▁mete	-11.1921
▁industrias	-11.1923
cera	-11.1924
▁Universal	-11.1925
▁suízo	-11.1925
▁Economía	-11.1925
▁trastornos	-11.1928
▁μ	-11.193
▁Anos	-11.1935
▁estreada	-11.1936
▁Monforte	-11.1936
▁clínica	-11.1936
▁lingüístico	-11.1936
▁vexetal	-11.1936
▁orbital	-11.1939
▁poderosa	-11.194
▁instrución	-11.1942
proteína	-11.1943
▁Sul	-11.1944
oxi	-11.1945
▁palma	-11.1946
▁liderou	-11.1948
▁descobre	-11.1948
bury	-11.1948
dale	-11.1948
▁canda	-11.1951
▁sucesiva	-11.1951
▁norteamericana	-11.1952
▁Belas	-11.1952
▁River	-11.1953
elas	-11.1956
▁horizontal	-11.1958
▁coral	-11.1958
▁galardoado	-11.1959
▁húmida	-11.1959
▁Gonzal	-11.1961
▁vese	-11.1962
▁fundar	-11.1962
▁Amor	-11.1966
▁Prado	-11.1966
▁eleva	-11.1966
ctúan	-11.1967
▁estudoso	-11.1968
▁capítulos	-11.1969
▁Hugo	-11.1971
▁plural	-11.1971
▁Vermello	-11.1971
▁conxuntos	-11.1971
▁Fraga	-11.1972
alo	-11.1974
▁raramente	-11.1974
▁intenso	-11.1975
▁volcánica	-11.1976
▁aventuras	-11.1977
▁escolar	-11.198
hin	-11.1981
▁colesterol	-11.1982
▁neerlandés	-11.1982
▁precipitacións	-11.1984
▁illada	-11.1985
▁condensa	-11.1985
▁esenciais	-11.199
-9	-11.1994
æ	-11.1994
▁reina	-11.1995
cionista	-11.1997
▁recoñeceu	-11.2
β	-11.2001
▁empregou	-11.2004
yama	-11.2004
▁científicas	-11.2004
▁constitucional	-11.2006
▁exitosa	-11.2006
▁Ernest	-11.2006
▁Monta	-11.2008
▁xeracións	-11.2011
▁radicais	-11.2012
▁Sou	-11.2013
▁Jordan	-11.2017
▁defensor	-11.2017
certa	-11.2018
▁designación	-11.2019
élica	-11.202
▁acredita	-11.2021
volución	-11.2023
▁ricos	-11.2023
▁Podemos	-11.2024
▁Lucas	-11.2028
▁tropical	-11.2029
▁Mosteiro	-11.203
▁afasta	-11.2031
▁ofrecer	-11.2032
▁segmentos	-11.2033
▁ordenador	-11.2036
▁Film	-11.2037
▁relativo	-11.2038
▁Arca	-11.2039
▁orto	-11.2041
▁Principado	-11.2042
▁historica	-11.2043
▁xigante	-11.2044
▁conter	-11.2044
▁lesións	-11.2046
▁Nico	-11.2052
▁Abadín	-11.2052
▁Marcos	-11.2053
▁Rin	-11.2054
▁Kat	-11.2055
▁publicidade	-11.2055
▁98	-11.2056
▁constituír	-11.2056
▁tocou	-11.2056
▁longos	-11.2057
▁Cristina	-11.2064
▁definitivo	-11.2064
▁Cook	-11.2064
▁estatuto	-11.2064
▁cedido	-11.2065
▁Parte	-11.2066
▁rodeada	-11.2066
▁necesarios	-11.2068
▁1892	-11.2069
▁circ	-11.2072
▁Pontes	-11.2072
å	-11.2075
▁Massachusetts	-11.2075
▁Fundou	-11.2078
▁Caba	-11.2079
▁ferramenta	-11.208
propi	-11.2083
▁Kosovo	-11.2087
▁Play	-11.2088
▁Ducado	-11.2091
ppe	-11.2091
▁provi	-11.2092
▁levantamento	-11.2092
gla	-11.2096
▁Atlanta	-11.2099
▁Fonsagrada	-11.2099
tula	-11.2103
▁elite	-11.2104
▁1860	-11.2106
lema	-11.2107
mur	-11.2108
llan	-11.2109
▁Aqui	-11.2109
▁nomeou	-11.2111
iki	-11.2112
▁complementa	-11.2114
▁condutor	-11.2117
▁básicos	-11.212
▁Raíña	-11.2125
▁medición	-11.2129
ixi	-11.2129
▁orixinaria	-11.2131
▁pesada	-11.2133
patía	-11.2133
▁Carre	-11.2134
▁Química	-11.2134
▁marrón	-11.2135
▁Camb	-11.2135
▁potencias	-11.2136
▁apoiado	-11.2137
▁degrada	-11.2139
▁tentou	-11.2143
▁afirmación	-11.2143
Pa	-11.2146
▁inmediato	-11.2146
▁sustenta	-11.2146
máticos	-11.2146
▁león	-11.215
sérvanse	-11.2153
▁CH	-11.2154
▁porco	-11.2155
▁afastado	-11.2157
▁facéndo	-11.2158
▁Hawai	-11.2158
▁Francesc	-11.2162
▁graxos	-11.2164
▁patróns	-11.2166
hara	-11.2166
▁ira	-11.2167
▁predecesor	-11.2169
▁operativo	-11.2171
▁consideración	-11.2171
▁construcións	-11.2175
▁Islandia	-11.2176
▁saco	-11.2178
▁And	-11.218
▁restaurante	-11.2181
▁Gañou	-11.2181
▁redacción	-11.2181
▁eficaz	-11.2181
raxe	-11.2183
▁sesenta	-11.2187
▁Ain	-11.2187
▁Canal	-11.2192
▁medievais	-11.2193
▁ignora	-11.2193
▁destruído	-11.2193
▁deses	-11.2194
riam	-11.2195
▁Cen	-11.2196
▁cruzada	-11.22
▁cadros	-11.2201
gula	-11.2202
▁dispositivo	-11.2203
tual	-11.2207
▁Ker	-11.2212
▁visitantes	-11.2213
▁oficinas	-11.2215
▁Pública	-11.2217
▁Rosalía	-11.2217
▁traducido	-11.2217
▁subespecies	-11.2217
▁má	-11.2221
▁Bernard	-11.2226
▁revisión	-11.2226
▁fixéronse	-11.2228
▁armenio	-11.2228
▁Stephen	-11.2229
▁fiscal	-11.2229
▁vales	-11.2229
vid	-11.2229
▁Sue	-11.2229
▁orbita	-11.223
▁1881	-11.2233
tándose	-11.2233
▁Jar	-11.2235
▁abade	-11.2237
▁incrementar	-11.2239
▁túnel	-11.224
▁tabaco	-11.2241
▁trens	-11.2241
▁Sel	-11.2241
▁instala	-11.2246
▁tenden	-11.2247
▁Pastor	-11.2248
▁Berg	-11.2251
flex	-11.2252
▁Territorio	-11.2252
▁System	-11.2252
▁canal	-11.2254
▁realizando	-11.2255
▁Public	-11.2259
▁McC	-11.226
▁Estiv	-11.2261
▁rito	-11.2261
▁sodio	-11.2262
▁Hé	-11.2262
▁encargou	-11.2263
▁deficiencia	-11.2264
▁Esco	-11.2264
▁hectáreas	-11.2265
▁relata	-11.2266
▁emitido	-11.2266
▁Top	-11.2267
▁Simón	-11.227
▁mosca	-11.227
▁históricas	-11.2272
mata	-11.2276
▁eficiente	-11.2276
▁Miami	-11.2276
▁representaba	-11.2279
000	-11.228
▁Dá	-11.2281
▁peito	-11.2281
▁folk	-11.2285
▁Montreal	-11.2289
▁colocar	-11.229
▁adicional	-11.2293
▁Henri	-11.2295
▁alba	-11.2295
▁Limia	-11.2296
▁constituíu	-11.23
cant	-11.2301
longa	-11.2304
▁difíciles	-11.2306
quet	-11.2311
▁Brand	-11.2312
▁Republicano	-11.2312
▁xaponeses	-11.2312
▁vale	-11.2313
xén	-11.2317
▁Estación	-11.2321
▁82	-11.2321
▁asedio	-11.2323
▁diferenciación	-11.2323
▁Baviera	-11.2324
▁Rexional	-11.2324
▁orzamento	-11.2324
▁rurais	-11.2325
▁Arg	-11.2327
▁átomo	-11.2327
▁Center	-11.233
▁aborda	-11.2331
▁cima	-11.2332
▁gala	-11.2335
▁Mississippi	-11.2336
▁bombardeo	-11.2336
▁catorce	-11.2336
ulfo	-11.2337
▁solares	-11.2338
▁glic	-11.2341
▁beiras	-11.2343
▁poetas	-11.2344
▁Movemento	-11.2348
▁Coma	-11.235
▁puro	-11.2351
▁clan	-11.2352
▁esquece	-11.2353
▁sacar	-11.2355
dir	-11.2356
▁atopada	-11.236
▁estranxeira	-11.236
▁tesouro	-11.236
▁reputación	-11.236
xeira	-11.2362
▁executa	-11.2362
▁tumor	-11.2363
▁Beau	-11.2367
▁rebeldes	-11.237
▁limpa	-11.237
▁románico	-11.2372
▁controlada	-11.2373
▁servidor	-11.2376
▁quilo	-11.2377
taría	-11.2377
▁Aero	-11.2379
▁camiños	-11.238
▁rexistrada	-11.2381
▁Steve	-11.2382
▁cápsula	-11.2384
▁particulares	-11.2384
inha	-11.2385
▁Free	-11.2387
▁compuxo	-11.2387
▁groso	-11.2388
▁manteñen	-11.239
▁Douglas	-11.2396
▁exitoso	-11.2396
▁competiu	-11.2397
olóxicos	-11.2404
flu	-11.2405
▁Dublín	-11.2408
▁Metal	-11.2408
▁piñeiro	-11.241
cosa	-11.241
▁perfil	-11.2412
▁derrotar	-11.2412
▁combinado	-11.2414
▁Colón	-11.2416
rella	-11.2416
▁Rou	-11.2419
▁One	-11.2419
▁Habsburgo	-11.242
▁diálogo	-11.242
▁milhões	-11.242
▁Dre	-11.242
▁reservas	-11.2421
SP	-11.2423
▁foro	-11.2423
▁pertencía	-11.2425
▁vaga	-11.2427
▁Alejandro	-11.2432
▁Católico	-11.2432
▁invasor	-11.2432
▁Champ	-11.2433
▁hoje	-11.2434
▁Nie	-11.2435
▁recorre	-11.2435
▁cantar	-11.2435
▁Lev	-11.2437
▁Good	-11.2438
▁articulación	-11.2439
▁escanos	-11.2441
▁crocodilo	-11.2444
zio	-11.2445
▁vellos	-11.2446
▁achegar	-11.2446
▁microorganismos	-11.2447
▁prohibición	-11.2449
▁Benito	-11.245
▁Base	-11.2452
▁77	-11.2453
▁Lenin	-11.2454
▁interpretada	-11.2454
▁Nelson	-11.2457
▁adulta	-11.2457
▁taller	-11.2457
▁francesas	-11.2459
eau	-11.2459
volve	-11.246
▁Mansell	-11.2463
▁causado	-11.2463
nucle	-11.2469
▁oculta	-11.247
TA	-11.2474
▁noticia	-11.2477
▁avanzada	-11.248
▁Kor	-11.248
▁Tenerife	-11.2481
▁trátase	-11.2481
▁falsa	-11.2481
▁Andrew	-11.2482
lector	-11.2487
▁Sacro	-11.249
▁Football	-11.2493
▁Song	-11.2496
▁esto	-11.2496
▁consolida	-11.2496
▁Hart	-11.2499
▁exploración	-11.2501
xactamente	-11.2505
−	-11.2505
vó	-11.2505
metría	-11.2505
▁Campións	-11.2507
▁dispara	-11.2507
▁Sarria	-11.2507
ável	-11.2511
▁planetas	-11.2511
▁equipa	-11.2512
▁diz	-11.2514
▁voa	-11.2515
▁intérprete	-11.2517
▁ortodoxa	-11.2517
▁Volveu	-11.2517
▁Eleccións	-11.2517
▁activista	-11.2517
▁electricidade	-11.2517
▁Cata	-11.2519
▁usaba	-11.252
▁Pont	-11.2522
▁1887	-11.2523
▁asesor	-11.2525
▁contratado	-11.2526
▁conversa	-11.2527
▁Virxinia	-11.2529
▁contorno	-11.253
▁Primo	-11.2531
▁Arco	-11.2531
▁socialistas	-11.2535
▁curtos	-11.2537
▁preparado	-11.2538
-7	-11.254
▁vítima	-11.254
▁catedrático	-11.2542
▁Herman	-11.2542
▁lendas	-11.2542
▁salienta	-11.2542
▁correspondentes	-11.2553
▁Post	-11.2554
▁Manchester	-11.2554
▁intermedia	-11.2558
nell	-11.2558
▁remonta	-11.2558
sérvase	-11.2558
▁1894	-11.2559
▁rapaza	-11.2559
▁oficio	-11.2561
▁Rus	-11.2564
▁ilustra	-11.2565
ibi	-11.2566
▁enxeñaría	-11.2566
▁Souto	-11.2568
▁Xefe	-11.2571
▁1848	-11.2571
▁elixir	-11.2574
▁UE	-11.2575
▁correo	-11.2575
▁repre	-11.2576
▁relevancia	-11.2578
▁cataloga	-11.2579
▁transcorre	-11.258
esti	-11.2581
tiv	-11.2582
▁exteriores	-11.2582
▁investiga	-11.2586
▁granito	-11.2589
▁Exemplo	-11.2591
▁Mallorca	-11.2591
▁ambientais	-11.2591
▁ingrediente	-11.2591
▁Británico	-11.2591
▁Alén	-11.2591
▁Rub	-11.2592
stad	-11.2593
▁tá	-11.2595
▁1883	-11.2596
lato	-11.2598
▁largo	-11.2598
▁determinados	-11.2599
▁carecen	-11.2601
▁Davis	-11.2602
▁Licenciado	-11.2602
ísimo	-11.2604
▁consciente	-11.2604
▁Fox	-11.2606
▁ficou	-11.2607
▁tipicament	-11.2607
▁69	-11.2612
▁cunca	-11.2614
в	-11.2615
▁mexicano	-11.2615
▁mundiais	-11.2615
▁intermedio	-11.2615
▁hábito	-11.2615
▁rotura	-11.2624
▁falado	-11.2628
▁enfoque	-11.2628
▁conforme	-11.2628
▁General	-11.2628
▁Mate	-11.263
osoma	-11.2631
▁mandou	-11.2632
▁DC	-11.2638
▁Irán	-11.264
▁Irmandade	-11.264
▁informou	-11.264
▁xeografía	-11.2642
cadencia	-11.2643
▁secreto	-11.2643
▁pap	-11.2644
▁concreta	-11.2647
▁infra	-11.2647
CO	-11.2648
▁adición	-11.2648
▁linear	-11.265
▁repara	-11.2651
▁plástico	-11.2652
▁terremoto	-11.2652
ardo	-11.2652
▁atleta	-11.2653
dino	-11.2653
ículo	-11.2654
▁Pur	-11.2654
▁nacer	-11.2654
áronlle	-11.2654
▁Bac	-11.2655
poñía	-11.2657
pela	-11.2658
▁pecha	-11.2661
▁Deportiva	-11.2665
▁Sebastián	-11.2665
▁oxidación	-11.2665
▁sar	-11.2668
▁92	-11.2669
tilla	-11.2671
▁Kan	-11.2675
▁xulgado	-11.2679
▁rouba	-11.268
hem	-11.2681
▁pintores	-11.2685
▁Fai	-11.2687
▁lenta	-11.2692
▁Constru	-11.2693
▁concelleiros	-11.2693
▁asinado	-11.2695
teria	-11.2695
▁modificado	-11.27
ére	-11.2701
▁Ever	-11.2706
▁desaparecer	-11.2706
▁multiplica	-11.2706
▁Tralo	-11.2708
vada	-11.2708
▁Ji	-11.2711
▁Pun	-11.2712
▁módulo	-11.2714
▁innovación	-11.2714
▁contidos	-11.2714
▁africana	-11.2715
▁Hawk	-11.2715
▁granxa	-11.2717
▁gri	-11.2722
▁Wagner	-11.2727
óuselle	-11.2728
▁illamento	-11.2729
▁dispositivos	-11.2729
ör	-11.2731
▁Ulla	-11.2731
▁intra	-11.2732
▁Berger	-11.2736
▁marítimo	-11.2739
▁Ohio	-11.2741
▁hip	-11.2741
▁bloquea	-11.2743
▁saque	-11.2744
▁abandonado	-11.2746
▁metil	-11.2746
▁color	-11.2748
oidea	-11.2749
▁Alan	-11.275
▁terrorista	-11.2751
▁Inf	-11.2751
▁adxacente	-11.2752
▁verba	-11.2752
▁estivese	-11.2752
▁variar	-11.2757
▁aparente	-11.2758
▁Mancha	-11.2759
▁indo	-11.276
NC	-11.2762
▁trama	-11.2762
υ	-11.2764
▁adhesión	-11.2764
▁curtametraxe	-11.2764
▁parámetro	-11.2764
▁violenta	-11.2764
▁cadáver	-11.2764
▁sábado	-11.2764
▁encóntran	-11.2765
▁France	-11.2765
▁Calvo	-11.2766
▁Julio	-11.2767
▁Life	-11.2775
gé	-11.2775
▁Baía	-11.2775
▁tanta	-11.2776
▁Berna	-11.2776
here	-11.2776
▁patíns	-11.2777
▁dicindo	-11.2777
aka	-11.2783
▁Band	-11.2783
▁inhibi	-11.2785
▁rexistrado	-11.2785
▁subir	-11.2789
▁tarda	-11.2791
▁asumir	-11.2791
▁73	-11.2794
▁tin	-11.2794
▁Liberal	-11.2796
▁escava	-11.2796
▁sob	-11.2799
▁solos	-11.28
▁aceptado	-11.28
▁Festa	-11.2801
▁corresponden	-11.2801
▁atrapa	-11.2802
▁teclado	-11.2802
▁Georg	-11.2802
▁sueca	-11.2802
▁visitou	-11.2802
▁promociona	-11.2803
▁sobrevive	-11.2805
▁74	-11.2805
▁axencia	-11.281
▁Tony	-11.2811
▁antigamente	-11.2812
▁convoca	-11.2813
▁esqueleto	-11.2814
▁sublevación	-11.2814
▁metálico	-11.2814
▁distribuída	-11.2815
▁disparo	-11.2816
rick	-11.2816
▁Arma	-11.2817
tona	-11.2823
▁decidir	-11.2824
▁anaco	-11.2825
▁Sancho	-11.2825
▁toxina	-11.2826
▁axeitada	-11.2827
▁Samuel	-11.2827
▁oitenta	-11.2827
▁Narón	-11.2829
▁1876	-11.2832
▁ETA	-11.2836
▁cátedra	-11.2839
▁Concilio	-11.284
SI	-11.2843
▁traseira	-11.2843
▁Vía	-11.285
▁asunto	-11.2851
mara	-11.2853
▁varia	-11.2853
▁Alexandría	-11.2854
▁esse	-11.2855
▁aprendi	-11.2856
▁realizaron	-11.2857
▁trataba	-11.2858
▁videoxogos	-11.2859
▁Night	-11.2859
▁proc	-11.286
▁compoñen	-11.286
▁clientes	-11.2865
▁inmunitario	-11.2865
▁lévedo	-11.2865
▁Doutor	-11.2865
▁remónta	-11.2865
▁Bé	-11.2866
▁colec	-11.2867
▁elaborado	-11.2868
▁arqueolóxicos	-11.2869
▁galo	-11.2875
▁automóbil	-11.2876
▁Padrón	-11.2877
▁negras	-11.2878
▁encargada	-11.2878
▁afectan	-11.288
misión	-11.288
▁Jr	-11.2881
▁contan	-11.2881
▁prosa	-11.2882
▁Apolo	-11.2883
▁Tara	-11.2884
▁romance	-11.2885
ball	-11.2886
▁colonización	-11.2888
▁eclesiástica	-11.289
▁Petersburgo	-11.289
▁melodía	-11.289
▁longobardo	-11.289
AA	-11.2891
▁Piquet	-11.2892
▁desastre	-11.2894
▁correspondencia	-11.2895
▁comprender	-11.2898
▁priva	-11.2899
▁logro	-11.29
AF	-11.29
▁Matt	-11.2901
▁catálogo	-11.2903
▁simplifica	-11.2903
▁rodas	-11.2907
▁mencionada	-11.2913
▁químicas	-11.2914
▁marítima	-11.2915
▁difire	-11.2918
▁moluscos	-11.2922
tén	-11.2926
▁78	-11.2926
▁Guitiriz	-11.2928
▁Rodrigo	-11.2928
▁Lakers	-11.2929
▁determinadas	-11.2932
▁foco	-11.2932
▁pac	-11.2932
▁escama	-11.2933
▁Tradicional	-11.2934
▁trasladar	-11.2934
vais	-11.2934
▁Ple	-11.2937
▁utilizadas	-11.2937
▁defecto	-11.294
▁Allariz	-11.2941
▁Mans	-11.2941
▁hor	-11.2943
▁situar	-11.2944
▁fraga	-11.2947
▁Andrea	-11.2948
▁equivale	-11.2948
seguindo	-11.2948
▁Pasou	-11.295
▁Bruxelas	-11.2954
▁cúpula	-11.2954
▁algoritmo	-11.2954
▁básico	-11.2957
▁interpretado	-11.2958
▁escoita	-11.2959
▁resta	-11.2963
▁británicas	-11.2963
▁Holanda	-11.2966
anti	-11.2967
▁aldeas	-11.2968
▁Colonia	-11.2969
▁arqui	-11.2972
▁Gold	-11.2972
head	-11.2974
▁Tel	-11.2976
▁paseo	-11.2977
▁extracción	-11.2982
▁causan	-11.2983
tier	-11.2984
▁gale	-11.2986
ásico	-11.2989
▁causando	-11.2989
▁turista	-11.2989
▁Ren	-11.2991
▁emitiu	-11.2991
▁abertura	-11.2992
▁Eles	-11.2993
▁criatura	-11.2995
▁exposta	-11.2996
ízase	-11.2996
cari	-11.2997
PSOE	-11.3002
▁salta	-11.3002
▁diplomático	-11.3005
liano	-11.3005
ómero	-11.3007
▁cari	-11.3008
▁Baiona	-11.3008
▁Mura	-11.3014
ámico	-11.3017
▁testemuño	-11.3017
▁contempla	-11.3018
▁laranxa	-11.3018
▁Linux	-11.3018
▁afeccionados	-11.3018
▁estimada	-11.3021
▁gre	-11.3022
▁abundantes	-11.3022
▁explora	-11.3027
▁datan	-11.303
▁centímetros	-11.303
市	-11.303
▁conduta	-11.3031
▁construíuse	-11.3032
▁Luci	-11.3032
▁obreira	-11.3032
▁tartarugas	-11.3033
▁Gol	-11.3034
▁exposto	-11.3034
▁colectiva	-11.3035
▁Jon	-11.3036
▁Motor	-11.3038
▁Escribiu	-11.3043
▁delegación	-11.3044
▁contaminación	-11.3045
▁Branca	-11.3046
▁81	-11.3046
enda	-11.3048
mérica	-11.305
pur	-11.3053
▁desenvolveron	-11.3053
▁Abegondo	-11.3056
▁autoestrada	-11.3056
▁Palestina	-11.3056
▁Aérea	-11.3056
▁Alacant	-11.3056
ián	-11.3057
▁cego	-11.3057
▁conxuga	-11.3058
▁resolv	-11.3058
▁atopáron	-11.306
▁consagra	-11.306
▁00	-11.3061
beira	-11.3061
▁manchas	-11.3064
▁Volta	-11.3066
ş	-11.3069
▁Supremo	-11.3069
Cesuras	-11.3069
▁Prim	-11.307
▁transmitir	-11.3074
▁crustáceos	-11.3082
▁lexislación	-11.3082
▁téxtil	-11.3082
▁taxas	-11.3084
▁cruzar	-11.3084
ámica	-11.3085
tónico	-11.3087
zá	-11.3087
▁seja	-11.3088
▁utilízan	-11.309
▁temperá	-11.309
▁Aquí	-11.3091
▁setenta	-11.3093
▁pelos	-11.3095
▁obtiver	-11.3096
▁gráfica	-11.3097
▁conservador	-11.3097
▁enriba	-11.3097
ciden	-11.3098
▁faría	-11.3098
▁mit	-11.3102
ane	-11.3104
▁convertería	-11.3104
▁Hip	-11.3107
▁conservada	-11.3107
▁voluntario	-11.3108
▁ateniense	-11.3108
▁pasaba	-11.3108
▁procesado	-11.3109
▁empate	-11.3109
▁vaso	-11.3114
ulosa	-11.3115
▁tentativa	-11.3117
▁repertorio	-11.3121
▁pergunta	-11.3121
▁Ferreiro	-11.3121
▁vasca	-11.3122
▁coida	-11.3123
▁perdido	-11.3123
▁Banda	-11.3124
▁Pereira	-11.3126
▁embarcación	-11.3127
▁Sabe	-11.3129
itar	-11.313
▁Iraq	-11.3131
▁tru	-11.3133
▁Nalgunha	-11.3134
▁period	-11.3134
▁contemporáneos	-11.3136
▁examina	-11.3136
▁trip	-11.3141
▁rab	-11.3142
▁saud	-11.3144
▁suxeriu	-11.3149
lite	-11.3151
▁Dado	-11.3153
riana	-11.3155
ović	-11.3158
gráfica	-11.3159
▁mandíbula	-11.316
▁universitaria	-11.316
▁FIA	-11.316
▁vocal	-11.316
pou	-11.3161
▁incom	-11.3161
phe	-11.3166
▁costeira	-11.3166
▁colaborar	-11.3167
▁Varia	-11.3171
▁probar	-11.3171
▁vea	-11.3172
▁Lourenzo	-11.3173
▁ambiental	-11.3173
▁traducida	-11.3173
▁esixi	-11.3173
▁predomina	-11.3174
▁tortura	-11.3176
▁Bala	-11.318
▁Comeza	-11.3182
▁ergue	-11.3182
▁previsto	-11.3186
▁paquete	-11.3186
▁derrotou	-11.3186
▁atentado	-11.3187
▁acumulación	-11.3187
▁Rich	-11.3188
▁cantón	-11.3191
▁Young	-11.3196
tella	-11.3197
▁foca	-11.3197
ível	-11.3197
▁Quinta	-11.32
terminal	-11.3204
▁fago	-11.3205
nega	-11.3205
▁versos	-11.3206
▁realizouse	-11.3207
habilit	-11.321
▁vesículas	-11.3211
▁Recente	-11.3212
ī	-11.3212
▁conquistou	-11.3212
▁ruptura	-11.3212
▁Imp	-11.3214
▁88	-11.3215
▁1871	-11.3216
▁cordas	-11.3217
▁esper	-11.322
bondo	-11.3221
▁1830	-11.3222
▁tornar	-11.3222
bú	-11.3224
▁proveniente	-11.3225
▁cadrado	-11.3225
▁preferencia	-11.3227
quista	-11.3228
NE	-11.3229
▁galaxias	-11.3229
stalou	-11.323
eva	-11.3234
▁aguda	-11.3235
thy	-11.3235
▁abandono	-11.3237
▁lema	-11.3238
▁Giovanni	-11.3238
▁tóxico	-11.3238
▁simboliza	-11.3238
▁colaborador	-11.3238
▁fiestra	-11.324
mental	-11.3245
▁Josep	-11.3246
▁demostración	-11.3247
▁escaleira	-11.3251
▁tab	-11.3252
▁ensinanza	-11.3252
MI	-11.3256
▁1879	-11.3256
▁dáse	-11.3258
trina	-11.3259
ά	-11.3264
▁vixente	-11.3264
▁Kiev	-11.3266
▁VIH	-11.327
tine	-11.3272
▁orgánicos	-11.3277
▁Buck	-11.3277
▁duas	-11.3277
▁islam	-11.3278
у	-11.3291
▁inflamación	-11.3291
▁Leonardo	-11.3291
▁-3	-11.3293
▁aminoácido	-11.3294
pora	-11.3298
▁pega	-11.3301
enza	-11.3303
▁continuidade	-11.3304
▁lexislatura	-11.3304
▁mediterránea	-11.3304
▁fracasa	-11.3304
▁luxo	-11.3305
▁choque	-11.3307
▁altar	-11.3307
▁ligazón	-11.3307
▁axusta	-11.3308
▁coroado	-11.3309
vest	-11.3311
▁Pío	-11.3313
▁Indiana	-11.3314
▁canon	-11.3315
▁dianteira	-11.3315
▁especialidade	-11.3316
▁crearon	-11.3321
▁Dom	-11.3321
gul	-11.3324
▁nacionalistas	-11.3325
▁79	-11.3327
▁inser	-11.3327
▁Kara	-11.3329
▁Aristóteles	-11.333
glia	-11.3333
▁esperar	-11.3333
▁modificada	-11.3335
▁Cine	-11.3335
▁confusión	-11.3336
crom	-11.334
▁psico	-11.3341
▁arquitectónico	-11.3343
▁percepción	-11.3345
érase	-11.3347
▁veciño	-11.3349
▁Ec	-11.335
key	-11.3351
▁fundouse	-11.3351
▁Kir	-11.3355
▁Guipúscoa	-11.3357
▁axeitado	-11.3357
flor	-11.3358
▁xerado	-11.3361
▁ocupando	-11.3362
ibilidade	-11.3369
▁constrúe	-11.337
▁diminuír	-11.337
▁declive	-11.337
▁edificación	-11.3371
▁galés	-11.3372
▁tap	-11.3372
▁video	-11.3372
▁protestas	-11.3373
▁Apo	-11.3374
gano	-11.3374
▁voda	-11.3377
▁favorito	-11.3377
▁completou	-11.3379
▁dedicou	-11.338
▁caracterizado	-11.3381
▁Valdeorras	-11.3383
▁triángulo	-11.3383
▁convencional	-11.3383
▁ámbolos	-11.3383
▁tradutor	-11.3383
▁sentenza	-11.3383
▁moderado	-11.3383
▁84	-11.339
dula	-11.339
▁Latina	-11.3394
▁Carra	-11.3396
▁rapaces	-11.3397
▁penal	-11.3402
▁conducir	-11.3409
▁célebre	-11.341
▁nocturno	-11.341
▁flota	-11.3411
▁Delta	-11.3415
amina	-11.3418
▁marchar	-11.3418
▁segmento	-11.3418
▁pique	-11.342
▁cerebral	-11.3423
▁Pico	-11.3423
▁pú	-11.3423
feito	-11.3424
▁Vilanova	-11.3426
íno	-11.3427
▁circun	-11.3427
▁morta	-11.3427
▁Boa	-11.343
scribindo	-11.3431
▁Están	-11.3433
▁vou	-11.3433
▁pulmonar	-11.3437
▁expresar	-11.3439
▁administrador	-11.344
▁Catro	-11.344
▁FA	-11.3441
▁gro	-11.3442
▁fortifica	-11.3443
▁experimento	-11.3444
▁representando	-11.3445
▁Pic	-11.3449
▁University	-11.345
▁galardón	-11.345
▁morfoloxía	-11.345
hua	-11.345
▁Houb	-11.3451
▁reúne	-11.3452
▁sabemos	-11.3455
▁By	-11.3458
▁estruturais	-11.3458
▁delito	-11.3459
PA	-11.3461
▁Kin	-11.3461
▁Lé	-11.3463
▁coordina	-11.3463
▁arbusto	-11.3463
▁retorna	-11.3464
▁convertido	-11.3465
▁autora	-11.3465
▁tormenta	-11.3466
▁Honda	-11.3467
▁Circ	-11.3467
▁proposto	-11.3468
gü	-11.3469
▁vinculado	-11.3469
ísmo	-11.3473
▁denominou	-11.3473
▁instancia	-11.3477
▁camiña	-11.3477
▁gravita	-11.3477
▁Barbanza	-11.3478
ceda	-11.3479
▁Parece	-11.3479
▁venceu	-11.348
▁baño	-11.3483
▁Cle	-11.3484
▁chamarse	-11.3485
▁aprobada	-11.3487
▁Somoza	-11.349
▁dezaseis	-11.349
▁infante	-11.3491
▁costeiras	-11.3493
▁traslado	-11.3493
▁roman	-11.3497
▁interesa	-11.35
rique	-11.3501
▁Lituania	-11.3504
▁tecnologia	-11.3504
▁Sofía	-11.3504
▁sú	-11.3504
▁léva	-11.3504
▁siglas	-11.3504
▁patrocinio	-11.3506
mene	-11.351
▁feble	-11.3511
mura	-11.3511
▁Barra	-11.3511
▁viron	-11.3512
▁correcta	-11.3513
▁Down	-11.3519
▁introducida	-11.3519
▁Demo	-11.352
▁ACB	-11.3521
▁Vir	-11.3524
▁quixo	-11.3527
▁pun	-11.3528
riza	-11.353
▁recibía	-11.3531
▁triunfa	-11.3531
▁asasino	-11.3531
ésimo	-11.3536
▁teoloxía	-11.3537
▁desas	-11.3537
▁adicado	-11.3537
▁chegaría	-11.3538
▁niños	-11.3538
pie	-11.3542
▁ligando	-11.3548
▁1873	-11.3549
▁1865	-11.355
▁agocha	-11.3552
▁habitación	-11.3559
iforme	-11.356
cino	-11.356
▁burato	-11.356
eceu	-11.3562
▁limitación	-11.357
gie	-11.357
м	-11.3571
▁revolucionaria	-11.3571
▁espectacular	-11.3571
▁prototipo	-11.3572
quita	-11.3574
▁Bandeira	-11.3574
▁rexe	-11.3576
▁Mercia	-11.3579
▁dependen	-11.3579
▁som	-11.3581
▁sabía	-11.3582
▁Bieito	-11.3585
zza	-11.3585
ópodos	-11.3585
▁oficina	-11.3586
puxeron	-11.3592
rium	-11.3593
▁estrat	-11.3594
▁Lang	-11.3596
▁2.000	-11.3598
▁engadiu	-11.3599
▁Vas	-11.3601
▁mina	-11.3602
▁His	-11.3604
▁obtida	-11.3605
▁paxaros	-11.3611
▁trazo	-11.3612
▁certeza	-11.3612
▁parlamentario	-11.3612
▁referendo	-11.3612
▁Detroit	-11.3612
cimento	-11.3613
▁fármaco	-11.3615
▁tumores	-11.3615
NP	-11.3616
▁Phil	-11.3616
▁Interior	-11.362
▁86	-11.3624
▁romper	-11.3625
▁Wilhelm	-11.3626
▁mio	-11.3627
▁doazón	-11.3627
▁fortificación	-11.3635
▁deseñador	-11.3635
▁Sky	-11.3637
▁cotiá	-11.3637
▁madurez	-11.3639
▁territoriais	-11.3639
▁NHL	-11.3639
▁através	-11.3639
érico	-11.3646
▁xofre	-11.3654
TR	-11.3654
▁Lie	-11.3654
▁observou	-11.3655
▁Xulio	-11.3655
ugu	-11.3657
▁complexas	-11.3659
▁sales	-11.3665
▁três	-11.3667
▁representou	-11.3667
▁tributo	-11.3669
▁Isaac	-11.3669
▁anula	-11.3671
▁François	-11.3672
eado	-11.3674
▁legado	-11.3674
▁ósea	-11.3674
chel	-11.3676
▁aproximación	-11.3678
▁Petr	-11.3679
▁fabricar	-11.368
▁ONU	-11.368
▁engadido	-11.368
▁asistiu	-11.3681
▁Lauda	-11.3681
▁qual	-11.3685
▁Out	-11.3686
▁interiores	-11.369
gram	-11.3691
▁desaparecido	-11.3694
▁Taboada	-11.3694
▁compostelá	-11.3694
▁Wilson	-11.3695
▁apoiou	-11.3696
▁oposta	-11.3701
▁rexente	-11.3705
▁rato	-11.3707
▁Xogaba	-11.3707
▁israelí	-11.3708
▁producía	-11.3708
▁extracelular	-11.3708
▁aprobado	-11.3711
▁coloración	-11.3711
▁rexeitamento	-11.3714
mund	-11.3715
▁cable	-11.3716
▁puntuación	-11.3716
▁calcula	-11.3717
д	-11.3722
▁Económica	-11.3722
▁Nicola	-11.3722
▁veleno	-11.3723
▁poderá	-11.3729
▁dirixi	-11.373
▁simula	-11.3731
▁ciclista	-11.3734
stone	-11.3735
▁arrecife	-11.3735
▁diminúe	-11.3735
▁redacta	-11.3735
▁filamentos	-11.3736
▁hotel	-11.3737
▁Gai	-11.3738
▁Nacionalista	-11.3739
▁narración	-11.3739
▁ocorrer	-11.374
queiro	-11.3741
trans	-11.3746
▁ofensiva	-11.3749
▁tiburón	-11.3749
▁medula	-11.3751
▁fabricado	-11.3752
▁cubrir	-11.3753
▁exclusiva	-11.3757
TV	-11.376
mante	-11.3762
▁sinfonía	-11.3763
▁térmica	-11.3763
ciente	-11.3765
▁fab	-11.377
▁musulmá	-11.3775
▁integral	-11.3776
▁Decreto	-11.3777
▁cooperación	-11.3782
▁dinam	-11.3782
▁sofren	-11.3782
▁turbo	-11.3785
▁Sete	-11.3788
▁presentada	-11.3788
▁mutua	-11.3789
▁profesores	-11.379
activa	-11.3791
▁Faro	-11.3791
cript	-11.3795
▁componse	-11.3795
▁biografía	-11.3796
▁1878	-11.3796
▁combater	-11.3798
▁pala	-11.3802
▁manifestación	-11.3802
metil	-11.3802
▁epidemia	-11.3805
▁réptiles	-11.3805
▁viúva	-11.3805
▁acrónimo	-11.3805
▁Muros	-11.3805
▁suprimi	-11.3805
▁cedeu	-11.3805
▁Little	-11.3806
▁-4	-11.3807
▁fracción	-11.3807
▁xesto	-11.3811
▁adianta	-11.3814
▁Steven	-11.3815
▁caracterizada	-11.3816
▁Gas	-11.3817
▁Live	-11.3818
▁proxección	-11.3818
▁Kong	-11.3819
▁emitida	-11.3819
icul	-11.3826
▁Xen	-11.3826
▁realista	-11.3827
AG	-11.3829
fusión	-11.3829
▁Carta	-11.3831
▁xel	-11.3832
▁diploma	-11.3832
▁citoplasma	-11.3833
▁Salnés	-11.3835
▁las	-11.3838
▁gramo	-11.3846
ω	-11.3846
▁Proxecto	-11.3846
▁Taylor	-11.3846
▁reflexión	-11.3846
▁complemento	-11.3846
▁Marcel	-11.3847
▁sostén	-11.3847
▁convence	-11.3847
▁integrantes	-11.3853
▁Mega	-11.3855
house	-11.3857
▁xogan	-11.3857
▁Minnesota	-11.386
▁BBC	-11.386
▁materna	-11.3864
▁Bem	-11.3864
▁funcionan	-11.3864
▁Portant	-11.3872
▁160	-11.3873
chase	-11.3874
▁arqueolóxica	-11.3874
▁fieis	-11.3875
▁reuniu	-11.3875
mine	-11.3875
quanto	-11.3876
▁profundamente	-11.3879
▁Cristovo	-11.388
▁então	-11.3881
▁rub	-11.3883
gol	-11.3883
▁tai	-11.3886
▁Mid	-11.3888
▁pirámide	-11.3888
▁Saturno	-11.3888
▁visigodo	-11.3888
▁alguns	-11.3888
▁viola	-11.3891
▁gramática	-11.3891
▁correcto	-11.3892
▁Membro	-11.3892
▁estudado	-11.3896
▁Homo	-11.3898
▁Hot	-11.3899
▁dimensión	-11.3902
▁Estocolmo	-11.3902
▁Tarragona	-11.3902
▁palavra	-11.3902
▁Subtitulad	-11.3902
▁haxa	-11.3904
▁acetil	-11.3906
ovich	-11.3906
▁Had	-11.3907
▁ajuda	-11.3908
▁discorre	-11.3916
▁brasileira	-11.3916
▁mergulla	-11.3916
▁Group	-11.3917
▁internet	-11.392
▁Act	-11.3923
▁Cat	-11.3925
▁Vida	-11.3927
▁interacciona	-11.393
▁Kim	-11.393
▁conduciu	-11.3931
▁Moore	-11.3931
▁Anton	-11.3932
▁5.000	-11.3933
▁Ramir	-11.3934
▁instalar	-11.3936
▁refuxi	-11.3937
▁gama	-11.3938
▁cabelo	-11.3938
mple	-11.394
▁repetida	-11.394
▁Thr	-11.3941
▁renovación	-11.3944
▁rivais	-11.3945
▁terror	-11.3945
▁Galia	-11.3947
▁Water	-11.3948
lock	-11.3953
TS	-11.3957
▁glico	-11.3958
▁Cómpre	-11.3958
▁céntra	-11.3958
▁orixinou	-11.3958
▁recombinación	-11.3958
▁Ignacio	-11.3958
▁manobra	-11.3959
▁señorío	-11.3959
▁necesariamente	-11.396
▁Wall	-11.3961
▁detección	-11.3961
▁meso	-11.3963
ítico	-11.3964
▁facción	-11.3965
▁republicana	-11.3973
▁comisario	-11.3973
▁Flam	-11.3974
▁chasis	-11.3974
RO	-11.3983
▁estómago	-11.3987
▁fortuna	-11.3987
fón	-11.3988
▁Reich	-11.3991
▁CNT	-11.3991
▁1.0	-11.3996
ulf	-11.3996
▁estableceron	-11.3997
▁vascular	-11.3999
▁alza	-11.4
▁apareamento	-11.4001
▁filtra	-11.4001
▁checo	-11.4003
▁Heat	-11.4004
▁falecemento	-11.4004
AL	-11.4009
▁adquisición	-11.4015
▁invención	-11.4015
▁Viveiro	-11.4017
▁analiza	-11.4019
▁fazem	-11.4019
▁Allen	-11.4022
PC	-11.4027
▁choca	-11.4027
▁adoptada	-11.4027
▁mares	-11.4028
zzi	-11.4029
▁búlgaro	-11.4029
▁sospeita	-11.4029
▁Kha	-11.403
▁fito	-11.4031
▁1872	-11.4034
▁Soto	-11.4036
▁Traballo	-11.4037
▁gen	-11.404
▁comprensión	-11.4043
▁considéran	-11.4043
▁espécime	-11.4043
▁xurado	-11.4043
▁homólogo	-11.4044
▁crista	-11.4045
▁oración	-11.4048
▁recita	-11.4048
▁1882	-11.4049
▁ascende	-11.4051
▁salientable	-11.4054
▁calcular	-11.4054
▁pó	-11.4056
▁FIFA	-11.4058
▁adecuada	-11.4058
▁cumpre	-11.4058
▁reforzo	-11.4058
▁1850	-11.4058
▁Filoloxía	-11.4058
▁formaban	-11.406
▁responsabilidad	-11.4063
▁recrea	-11.4065
▁acusación	-11.407
▁pene	-11.4071
▁asturiano	-11.4072
▁Patrick	-11.4072
▁Xaneiro	-11.4073
▁110	-11.4075
▁1.1	-11.4081
villa	-11.4083
versa	-11.4085
▁Corpo	-11.4085
▁divi	-11.4086
▁centrocampista	-11.4086
▁recollido	-11.4086
▁Palencia	-11.4088
▁padece	-11.4089
▁DS	-11.409
5.000	-11.4095
▁requiren	-11.4097
▁barba	-11.4099
▁clasificou	-11.41
▁brando	-11.4105
▁pensaba	-11.4109
▁despo	-11.4111
▁adoptado	-11.4114
▁aluminio	-11.4115
▁Seoane	-11.4115
▁computador	-11.4116
▁Bene	-11.4118
▁Fire	-11.412
▁acompañada	-11.4122
▁Gan	-11.4127
muta	-11.4133
▁froitas	-11.4133
▁Congo	-11.4134
▁fragment	-11.4135
▁Prata	-11.4135
▁clasificada	-11.4135
▁soldado	-11.4139
íta	-11.414
▁Hispania	-11.4143
andesa	-11.4144
▁conforman	-11.4147
▁conxela	-11.4147
▁fío	-11.4148
pole	-11.4149
core	-11.4149
▁Nord	-11.415
▁levaban	-11.4156
▁sucesos	-11.4157
▁Vaticano	-11.4158
▁Medalla	-11.4158
▁Micro	-11.416
▁ilustrado	-11.4163
▁permitiron	-11.417
▁afectar	-11.4171
▁Athletic	-11.4172
▁tardío	-11.4172
▁roubo	-11.4173
▁asteroide	-11.4173
ctivamente	-11.4175
▁Montaña	-11.4175
▁conquistar	-11.4175
▁Cent	-11.4178
vela	-11.4179
▁monxes	-11.4181
▁chegaba	-11.4183
etti	-11.4183
▁distingue	-11.4187
▁ocupaba	-11.4187
▁disputado	-11.4187
▁residi	-11.4188
▁ostenta	-11.419
▁adicada	-11.4191
▁ilustración	-11.4197
▁usarse	-11.4198
▁mediterráneo	-11.4201
▁exiliado	-11.4201
▁moderada	-11.4201
RNA	-11.4201
▁millas	-11.4203
sigo	-11.4204
▁1861	-11.4206
há	-11.4211
La	-11.4213
▁óxido	-11.4213
▁1840	-11.4213
TP	-11.4214
▁Venus	-11.4216
▁oitava	-11.4217
▁atraso	-11.4217
▁misa	-11.4218
▁paixón	-11.4221
PI	-11.4222
▁retoma	-11.4225
▁engade	-11.4227
▁móbiles	-11.4229
▁gabinete	-11.423
▁periódica	-11.423
▁botánico	-11.423
▁suxeita	-11.423
zán	-11.4231
culares	-11.4235
▁excepcional	-11.4237
▁resi	-11.4239
▁incorporar	-11.4239
▁gusta	-11.424
▁subespecie	-11.4243
▁130	-11.4244
▁cordilleira	-11.4244
ý	-11.4244
▁dramática	-11.4244
▁liberar	-11.4245
▁Agu	-11.4245
▁Comun	-11.4246
▁Bab	-11.4247
▁liber	-11.425
▁Jam	-11.4251
▁cultivar	-11.4252
▁1500	-11.4253
▁milita	-11.4253
▁Dy	-11.4253
▁guerrilleiro	-11.4259
▁violín	-11.4259
▁coronel	-11.4259
cola	-11.4261
▁aquilo	-11.4262
▁variado	-11.4263
▁citada	-11.4266
minación	-11.4267
ritish	-11.4269
▁Marín	-11.4269
▁97	-11.4269
▁ficar	-11.427
▁3.000	-11.4271
▁mármore	-11.4273
▁Vettel	-11.4273
▁apoxeo	-11.4273
▁Gali	-11.4274
▁Crea	-11.4275
▁Casi	-11.4276
▁conxuntamente	-11.4276
▁selva	-11.4277
▁recoller	-11.4277
▁transformar	-11.4277
▁etnia	-11.4279
▁rivalidade	-11.4279
▁funera	-11.428
responsabilidade	-11.4282
▁festiva	-11.4282
▁ensina	-11.4288
▁dúo	-11.4288
▁determinación	-11.429
▁cume	-11.4292
▁1869	-11.4294
▁habitan	-11.4294
xénica	-11.4294
▁observado	-11.4296
▁Anxo	-11.4296
▁silencio	-11.4296
▁Road	-11.4301
▁Pireneos	-11.4303
▁Xenebra	-11.4303
▁arxentina	-11.4303
▁electromagnétic	-11.4303
▁comporta	-11.4304
▁Cruces	-11.4304
org	-11.4306
▁aceptación	-11.431
urus	-11.4311
▁Carme	-11.4311
▁pato	-11.4317
▁basílica	-11.4317
▁reactor	-11.4319
▁malo	-11.4319
itado	-11.432
▁litros	-11.432
dencia	-11.4323
dez	-11.4324
▁Gene	-11.4326
▁gor	-11.4329
▁gravada	-11.433
▁Román	-11.433
▁académica	-11.4332
▁extraordinaria	-11.4332
▁celeste	-11.4332
▁Exposición	-11.4334
▁converxe	-11.4334
▁xurdir	-11.4334
▁Jane	-11.4335
tag	-11.4338
lien	-11.4342
mido	-11.4344
▁Comba	-11.4344
▁compre	-11.4346
▁encontrou	-11.4346
▁reitor	-11.4346
▁UNESCO	-11.4346
▁sensibilidade	-11.4347
feita	-11.4347
▁Julia	-11.4348
▁human	-11.4349
▁servía	-11.4349
tivismo	-11.4351
▁turca	-11.4353
tari	-11.4354
▁Stewart	-11.4361
▁sulf	-11.4364
▁nacido	-11.4367
▁Qa	-11.4367
▁inversa	-11.4368
AN	-11.4368
▁perigoso	-11.4371
▁numera	-11.4373
▁bautizado	-11.4374
▁Donostia	-11.4376
▁Valdoviño	-11.4376
▁Celtics	-11.4376
▁perdida	-11.4376
▁125	-11.4377
▁Rede	-11.4378
▁molde	-11.4379
▁documentación	-11.438
▁87	-11.438
▁asalto	-11.4382
▁Roque	-11.4386
▁Institute	-11.439
▁Orixinal	-11.439
plíca	-11.4391
▁estraño	-11.4391
▁serbia	-11.4397
▁aloxa	-11.4397
▁Alco	-11.4402
▁rematada	-11.4405
▁Funda	-11.4406
▁afirman	-11.441
trica	-11.4414
▁Franz	-11.4415
ı	-11.442
▁aplicada	-11.4421
▁Plata	-11.4424
▁rem	-11.4432
▁aproveitar	-11.4435
▁impe	-11.4437
▁lipo	-11.4443
▁poñen	-11.4444
▁Uma	-11.4445
emade	-11.4449
▁consenso	-11.445
▁Paris	-11.4451
▁Albania	-11.4454
▁anxo	-11.4455
▁estendida	-11.446
IP	-11.4462
nucleótido	-11.4463
ي	-11.4464
▁sacrificio	-11.4464
▁transbordador	-11.4464
▁adaptada	-11.4472
▁Sob	-11.4476
▁exporta	-11.4476
▁raio	-11.4476
▁intercambia	-11.4479
▁recompilatorio	-11.448
▁repetición	-11.4481
▁pór	-11.4482
▁escoitar	-11.4486
▁Chipre	-11.4487
▁mante	-11.4487
▁sobe	-11.4487
▁filosófica	-11.4494
▁marqués	-11.4494
▁Fab	-11.4494
▁directora	-11.4494
▁convención	-11.4494
▁Ebro	-11.4496
▁procesamento	-11.4497
▁cren	-11.4499
▁1863	-11.4499
▁falece	-11.45
▁crecer	-11.4501
▁Labor	-11.4501
▁abuso	-11.4501
▁Pé	-11.4502
▁solista	-11.4504
esou	-11.4507
inger	-11.4508
▁Carballiño	-11.4509
▁Saúde	-11.4509
▁Victor	-11.4513
long	-11.4516
▁fosfo	-11.4523
▁tracto	-11.4523
▁renunciou	-11.4524
▁ferroviaria	-11.4524
▁adquire	-11.4524
▁Moreno	-11.4524
▁Bad	-11.4526
▁encargo	-11.4527
▁vivenda	-11.453
▁Prix	-11.4532
▁escar	-11.4533
▁verso	-11.4534
▁froita	-11.4534
▁Caixa	-11.4537
▁forno	-11.4537
▁esquina	-11.4538
cendi	-11.4539
¡	-11.4539
ária	-11.4541
▁83	-11.4546
▁puntua	-11.4548
▁rodaxe	-11.4549
▁trastorno	-11.455
▁xurídica	-11.4554
▁occidente	-11.4554
▁cereais	-11.4554
▁Ancares	-11.4554
▁Especial	-11.4555
gir	-11.4557
▁Fred	-11.4558
▁principado	-11.4559
▁Leonor	-11.4562
▁Dallas	-11.4562
inus	-11.4562
▁Master	-11.4563
▁Pontedeume	-11.4569
▁automobilismo	-11.4569
▁fértil	-11.4569
▁holandés	-11.4569
▁Flandres	-11.4569
▁trouxo	-11.4569
▁cadrada	-11.4569
▁feixe	-11.457
▁Mach	-11.4571
▁Ría	-11.4572
▁dándolle	-11.4572
▁mortalidade	-11.4572
▁Aos	-11.4572
▁PA	-11.4573
▁dimisión	-11.4573
come	-11.4578
▁Neves	-11.4579
AD	-11.4581
▁Bau	-11.4581
▁Puerto	-11.4584
▁promesa	-11.4584
▁predador	-11.4584
▁constantemente	-11.4584
▁impreso	-11.4585
▁infl	-11.4585
▁india	-11.4586
▁fosf	-11.459
▁1867	-11.459
▁acontecer	-11.4591
▁basal	-11.4594
▁clon	-11.4596
▁Igual	-11.4596
▁Carballedo	-11.4599
▁dispersión	-11.4599
▁Cervantes	-11.4599
glob	-11.4599
▁turística	-11.4599
▁Alasca	-11.46
▁cranio	-11.46
▁Chegou	-11.4601
▁Brad	-11.4604
▁funcionais	-11.4605
▁Barrio	-11.4606
▁Vella	-11.4606
▁aventura	-11.4607
▁Brit	-11.4607
▁protagonizada	-11.4608
▁Four	-11.4608
TC	-11.461
▁responder	-11.4612
▁Alfred	-11.4612
▁parto	-11.4612
meiro	-11.4613
▁Estonia	-11.4614
▁cacho	-11.4614
▁vendida	-11.4616
▁91	-11.4616
ET	-11.4618
▁enfrontarse	-11.462
pend	-11.4626
▁defensiva	-11.4629
▁campamento	-11.4629
▁investigar	-11.4636
gulación	-11.4637
RP	-11.4641
▁viquingo	-11.4644
▁Nicolás	-11.4644
▁arrefria	-11.4644
▁elixiu	-11.4644
volucion	-11.4649
▁exhibición	-11.4649
CoA	-11.465
▁garantir	-11.465
▁lentamente	-11.4653
▁amosan	-11.4654
▁elaborada	-11.4656
izante	-11.4656
▁Microsoft	-11.4659
▁eventual	-11.4659
▁Óscar	-11.4659
▁Acción	-11.4661
▁LP	-11.4662
▁Solar	-11.4662
ínico	-11.4662
▁integrou	-11.4663
▁subministración	-11.4664
▁dourada	-11.4665
▁codia	-11.4666
▁forzado	-11.467
▁Preto	-11.4672
▁Generalitat	-11.4674
▁Singapur	-11.4674
▁ucraíno	-11.4674
▁Bierzo	-11.4674
▁apartado	-11.4675
▁asimila	-11.4675
▁superou	-11.4677
▁Nick	-11.4688
▁Baloncesto	-11.4689
▁Seguridade	-11.4689
▁recurso	-11.4689
▁dixestivo	-11.4689
▁rescata	-11.469
▁excede	-11.4692
▁Greg	-11.4695
▁deberían	-11.4695
▁Open	-11.4696
▁cinto	-11.4696
▁fuga	-11.4698
▁perigosa	-11.4699
▁Andre	-11.4702
ر	-11.4704
▁bizantina	-11.4704
▁chineses	-11.4705
▁fósil	-11.4705
▁Bruce	-11.4706
▁plumaxe	-11.4706
▁indíxena	-11.4707
▁raia	-11.4709
▁Bouza	-11.4709
▁Clemente	-11.4712
▁rompeu	-11.4712
▁entregado	-11.4715
▁somos	-11.4716
▁zume	-11.4717
▁botánica	-11.472
▁Goya	-11.4721
▁EE	-11.4721
▁gótica	-11.4722
▁persegui	-11.4724
▁gobernou	-11.4728
▁Jer	-11.473
tuoso	-11.4731
▁93	-11.4733
▁Seminario	-11.4735
▁bebé	-11.4736
▁1874	-11.4741
▁terían	-11.4744
hon	-11.4745
▁cedo	-11.4746
trib	-11.4749
▁Tailandia	-11.475
▁Toquio	-11.475
bie	-11.4754
▁cardio	-11.4755
▁criado	-11.4756
▁1875	-11.4758
▁intre	-11.476
▁Stalin	-11.4763
icular	-11.4764
▁Premier	-11.4765
▁Xibraltar	-11.4765
▁Xirona	-11.4765
▁azuis	-11.4766
▁impar	-11.477
▁outorgado	-11.4774
xado	-11.4778
▁seguramente	-11.478
▁Harvard	-11.4781
▁Villeneuve	-11.4781
▁telescopio	-11.4781
▁actina	-11.4783
▁globo	-11.4784
▁invita	-11.4784
▁Old	-11.4786
▁1864	-11.4786
▁partiu	-11.4787
▁necesitan	-11.4788
▁emigrante	-11.4789
▁falso	-11.4789
▁comparte	-11.4793
▁Grove	-11.4794
▁educa	-11.4794
óforo	-11.4795
▁expulsión	-11.4796
▁lingüista	-11.4796
▁Team	-11.4796
▁Jeff	-11.4797
▁Prince	-11.4798
▁publicaron	-11.4799
▁j	-11.4801
▁Rivas	-11.4802
▁postula	-11.4805
▁disolv	-11.481
mpli	-11.4811
▁anglosaxón	-11.4811
▁democrático	-11.4811
▁escocesa	-11.4811
pso	-11.4812
cup	-11.4815
emia	-11.4823
▁Realizou	-11.4824
▁var	-11.4826
▁nomenclatura	-11.4827
▁cantiga	-11.4827
▁clero	-11.4827
▁reduciu	-11.4827
▁exemplar	-11.4827
▁traxedia	-11.4828
▁Desa	-11.4828
▁Gale	-11.4829
▁neutral	-11.4829
▁Bernardo	-11.483
▁1866	-11.4832
▁Vivi	-11.4833
cende	-11.4833
▁borra	-11.4836
▁falaba	-11.4838
monia	-11.4838
▁2,5	-11.4838
▁electr	-11.4838
▁invertebrados	-11.4842
▁instalouse	-11.4842
▁sinatura	-11.4842
▁dividiu	-11.4842
▁prefire	-11.4843
▁salientar	-11.4846
▁conduce	-11.4848
▁Otto	-11.4853
▁Ecuador	-11.4857
▁Alt	-11.4858
▁duplica	-11.4859
▁Arabia	-11.486
▁Portela	-11.486
▁ruído	-11.486
dita	-11.4861
▁cinc	-11.4862
éronlle	-11.4865
talo	-11.4869
dido	-11.4869
▁recompila	-11.4872
▁Editorial	-11.4873
▁Illinois	-11.4873
▁contando	-11.4873
▁refuxiados	-11.4874
▁Representa	-11.4874
▁Proc	-11.4875
▁pregamento	-11.4876
▁aconteceu	-11.4882
▁troco	-11.4882
▁contracción	-11.4882
▁900	-11.4884
▁ausente	-11.4886
▁IP	-11.4886
▁Acerbaixán	-11.4888
▁excesiva	-11.4888
▁Monfero	-11.4888
▁Esparta	-11.4889
EG	-11.489
▁capitalismo	-11.489
▁Xaim	-11.4892
▁Planta	-11.4895
▁marxina	-11.4896
▁capturar	-11.4897
▁100.000	-11.4899
▁clar	-11.4901
▁Union	-11.4902
▁Missouri	-11.4904
▁cervexa	-11.4904
▁olímpico	-11.4904
▁feliz	-11.4904
▁vasalo	-11.4904
▁Gian	-11.4906
SD	-11.4906
▁canteira	-11.4906
▁carlista	-11.491
▁Rúa	-11.4911
▁medrar	-11.4911
▁articula	-11.4912
▁Brig	-11.4914
▁Sá	-11.4915
▁gobernar	-11.4918
▁SS	-11.4918
▁Considérase	-11.4919
▁inclusión	-11.4919
▁Laracha	-11.4919
▁óptica	-11.4919
▁ocupan	-11.4919
▁acudir	-11.492
▁Obrigad	-11.4924
▁Pau	-11.4926
melo	-11.4929
▁Checa	-11.4933
▁SD	-11.4935
ifícase	-11.4935
▁sólida	-11.4936
▁disputada	-11.4939
▁London	-11.4939
▁96	-11.4945
▁Newton	-11.4946
▁bla	-11.4949
▁secuestra	-11.495
▁glaciar	-11.495
▁sedimentos	-11.495
▁Tomás	-11.4953
▁refina	-11.4961
▁pataca	-11.4966
▁crédito	-11.4966
▁ábsida	-11.4966
▁Trofeo	-11.4966
▁verte	-11.4968
▁Howard	-11.4969
▁Bart	-11.4974
▁encabezou	-11.4982
▁valenciano	-11.4982
▁percibi	-11.4982
▁seminario	-11.4982
▁Clara	-11.4983
tión	-11.4988
▁Adolfo	-11.499
ME	-11.4995
▁Hockey	-11.4997
▁Sebastian	-11.4997
▁astronomía	-11.4997
▁autónomo	-11.4997
▁Comercio	-11.4997
▁inspirada	-11.4999
▁teórica	-11.4999
▁faraón	-11.5
▁fasci	-11.5001
▁Tai	-11.5004
▁Compa	-11.501
▁nomear	-11.5012
▁Northumbria	-11.5013
▁dicionario	-11.5013
▁directiva	-11.5013
▁Stefan	-11.5014
▁correu	-11.5014
▁NAD	-11.5017
▁urina	-11.5021
▁estender	-11.5022
ffi	-11.5024
▁sho	-11.5025
▁leito	-11.5025
▁Paio	-11.5026
▁Eurocopa	-11.5028
▁bóla	-11.5029
▁marcador	-11.5029
▁étnica	-11.5029
▁móbil	-11.503
tónica	-11.503
iente	-11.5035
▁excita	-11.5036
▁cinta	-11.5037
fór	-11.5041
▁esencia	-11.5043
▁anatomía	-11.5044
▁evolucionou	-11.5044
▁cliente	-11.5044
▁debilita	-11.5045
▁virtual	-11.5045
▁colapso	-11.5045
▁bol	-11.5048
▁tenho	-11.5049
▁corporación	-11.5049
▁Wolf	-11.5049
▁ingreso	-11.5055
▁proporcional	-11.5055
▁saen	-11.5056
▁sensor	-11.5058
▁certame	-11.5058
▁sulfato	-11.506
▁conservar	-11.5061
▁insular	-11.5061
▁fru	-11.5063
▁substituto	-11.5066
CP	-11.5066
▁ideais	-11.5069
▁violación	-11.507
tili	-11.507
▁patio	-11.5072
▁Cele	-11.5073
ί	-11.5075
▁informática	-11.5076
▁simultanea	-11.5076
▁sorpresa	-11.5076
▁Romero	-11.5076
▁corno	-11.5077
▁experimentou	-11.5078
▁vertente	-11.5081
▁Bang	-11.5082
▁baseándo	-11.5083
íbeis	-11.5088
▁Leva	-11.5089
▁submarino	-11.5091
▁medrou	-11.5091
▁australiana	-11.5092
▁encaixa	-11.5092
▁Porsche	-11.5093
▁Cangas	-11.51
▁Pha	-11.5105
▁NASA	-11.5107
▁idéntica	-11.5107
▁inmigración	-11.5107
▁vicerrei	-11.5107
▁noveno	-11.5108
▁ascendencia	-11.5109
▁esquí	-11.5111
▁Fun	-11.5111
▁STS	-11.5114
är	-11.5114
▁salón	-11.5118
cionismo	-11.5119
▁amais	-11.5123
▁respiración	-11.5123
▁Negra	-11.5127
▁Coll	-11.5129
▁1833	-11.5129
▁vestido	-11.5129
▁imposto	-11.5129
▁Cambre	-11.5132
ísima	-11.5133
▁modifica	-11.5134
▁modificar	-11.5134
ē	-11.5139
▁subdivid	-11.5139
▁dalgún	-11.5143
▁1877	-11.5146
gata	-11.5147
▁manto	-11.5152
▁púxose	-11.5153
▁Agrupación	-11.5155
▁Groenlandia	-11.5155
▁xurídico	-11.5155
▁arranxo	-11.5155
▁lucense	-11.5155
▁Nintendo	-11.5155
▁fála	-11.5155
▁legais	-11.5155
▁macizo	-11.5155
▁impo	-11.5157
▁ampliou	-11.5157
izando	-11.5159
puxéron	-11.5161
▁banca	-11.5165
▁distante	-11.5165
▁Debe	-11.5167
▁prohibido	-11.5167
▁Tolosa	-11.5171
▁envolve	-11.5171
inae	-11.5173
ère	-11.5182
▁Liv	-11.5186
▁Thor	-11.5186
▁suborde	-11.5187
polo	-11.5188
chou	-11.5189
▁colocado	-11.5191
▁anglo	-11.5194
color	-11.5196
▁impor	-11.5201
▁híbrido	-11.5203
iense	-11.5206
▁almacenamento	-11.521
▁horta	-11.5212
▁Pilar	-11.5215
▁cuestiona	-11.5218
▁cérebro	-11.5218
▁embarazo	-11.5218
▁UD	-11.5228
gina	-11.5228
▁regulador	-11.5232
▁Apareceu	-11.5233
▁Zeus	-11.5234
ï	-11.5234
▁beneficia	-11.5234
▁Stanley	-11.5235
▁infanta	-11.5235
▁descansa	-11.5235
▁cliva	-11.5235
▁Just	-11.5235
▁Alca	-11.5237
pote	-11.5239
▁mg	-11.5241
gil	-11.5241
▁aguia	-11.5244
▁estímulo	-11.5251
▁heavy	-11.5251
▁Índico	-11.5251
▁psicoloxía	-11.5251
▁Gobernador	-11.5253
▁aliado	-11.5254
▁ensinar	-11.5256
elec	-11.526
▁Regi	-11.5261
▁Industrial	-11.5264
ž	-11.5267
▁Spring	-11.5267
▁cardíaco	-11.5267
álica	-11.5268
▁sinalar	-11.5268
▁formulación	-11.5271
▁fili	-11.5274
cele	-11.5275
▁emoción	-11.5275
▁praga	-11.5277
▁fundamento	-11.5278
▁estendido	-11.528
▁Operación	-11.528
▁Domínguez	-11.5283
▁clínico	-11.5283
▁Siberia	-11.5283
▁dispersa	-11.5283
▁chuvia	-11.5284
▁acorde	-11.5288
cord	-11.5288
lib	-11.529
▁criterio	-11.5294
▁Beck	-11.5295
▁larva	-11.5296
▁lírica	-11.5299
▁arrastra	-11.5299
▁manexa	-11.53
▁ermida	-11.5301
▁biólogo	-11.5305
▁mulheres	-11.5306
▁Meira	-11.531
ghi	-11.5313
م	-11.5315
▁Xacobe	-11.5315
▁atractivo	-11.5315
▁Fisterra	-11.5315
▁Catarina	-11.5316
▁Espacial	-11.5316
▁milicia	-11.5318
▁respondeu	-11.532
árase	-11.5322
chy	-11.5324
butou	-11.5326
▁neg	-11.5327
▁sultán	-11.5331
▁andaluz	-11.5331
▁transformou	-11.5331
▁posibel	-11.5331
▁balance	-11.5332
▁mudanza	-11.5333
▁Honor	-11.5335
▁Fall	-11.5337
▁Marx	-11.5341
veira	-11.5343
▁uva	-11.5345
biótico	-11.5346
▁Pensilvania	-11.5347
▁similitude	-11.5347
▁Xavier	-11.5347
▁outorgou	-11.5347
▁Russell	-11.5347
▁estrés	-11.5347
▁Conservatorio	-11.5348
▁financiamento	-11.5352
▁Pesca	-11.5362
▁Alpes	-11.5363
ă	-11.5363
▁Méndez	-11.5363
▁defensivo	-11.5363
▁secuela	-11.5364
▁regularmente	-11.5364
▁orixinando	-11.5365
▁recordo	-11.5366
▁esperaba	-11.5366
▁escapa	-11.5369
▁comprar	-11.537
▁89	-11.5371
Ro	-11.5374
▁contemporáneo	-11.5377
▁Afganistán	-11.538
▁gaélico	-11.538
▁colocou	-11.5381
▁vogal	-11.5382
▁reproducir	-11.5382
▁señore	-11.5383
▁patrocinador	-11.5383
▁fariña	-11.5383
▁retira	-11.5384
▁Ruiz	-11.5386
árona	-11.5386
ícola	-11.5388
▁Flores	-11.5389
▁fiz	-11.5391
meno	-11.5394
▁nem	-11.5394
▁aproveitando	-11.5395
▁castaña	-11.5396
▁estratéxica	-11.5396
▁descanso	-11.5396
▁Crimea	-11.5396
▁Nava	-11.5396
▁Viana	-11.5397
▁auxe	-11.5399
▁Miller	-11.5399
▁Miranda	-11.5399
▁Concepción	-11.54
▁Sergi	-11.5404
guin	-11.5406
▁atacou	-11.5411
▁ferroviario	-11.5412
lement	-11.5416
▁reivindica	-11.542
gó	-11.5422
▁1812	-11.5422
▁obt	-11.5425
▁episcopal	-11.5429
▁fractura	-11.5429
▁parlamentaria	-11.5429
▁consoante	-11.5429
SO	-11.543
▁Vidal	-11.5432
▁fiel	-11.5434
▁constancia	-11.5435
▁1808	-11.5437
▁atraer	-11.5442
▁renacentista	-11.5445
▁sucedido	-11.5445
▁intracelular	-11.5445
▁traspaso	-11.5445
▁predica	-11.5446
▁conformación	-11.5451
▁Magic	-11.5451
▁apoiada	-11.5452
100	-11.5454
shima	-11.5455
▁Tab	-11.5458
▁Luna	-11.5461
▁artificiais	-11.5461
▁fotógrafo	-11.5461
▁almacén	-11.5461
▁substancial	-11.5462
▁colisión	-11.5463
▁incluían	-11.5463
▁Darío	-11.5465
.200	-11.5465
▁orientada	-11.5466
Star	-11.5471
▁intestinal	-11.5471
▁Quebec	-11.5478
▁aborixe	-11.5478
▁diversific	-11.5479
▁agraria	-11.5479
▁cultiva	-11.5482
▁criou	-11.5483
▁peteiro	-11.5483
ância	-11.5483
▁mortal	-11.5486
▁ducia	-11.549
quín	-11.5491
▁término	-11.5494
▁apóstolo	-11.5494
▁Templo	-11.5495
▁tomado	-11.5496
▁Cedeira	-11.5498
▁dimiti	-11.55
▁lunar	-11.5503
▁dista	-11.5506
▁iniciado	-11.5507
▁conxunta	-11.5507
▁sá	-11.5509
▁desenvolven	-11.551
▁vivindo	-11.551
▁resonancia	-11.551
▁frontal	-11.5511
▁fermosa	-11.5511
▁xenérico	-11.5511
▁Stadium	-11.5511
▁Jazz	-11.5511
nteriormente	-11.5513
▁Toma	-11.5521
▁enlaza	-11.5524
▁desencadea	-11.5527
▁mísil	-11.5527
▁sagrado	-11.5527
time	-11.553
mph	-11.5531
▁Hong	-11.5536
ppa	-11.5537
▁Fle	-11.5541
▁distribúe	-11.5543
▁evolutivo	-11.5543
▁capitais	-11.5543
▁dirixía	-11.5544
thu	-11.5545
▁Couto	-11.5545
IN	-11.5546
▁350	-11.5546
cero	-11.555
▁Cinco	-11.5552
icus	-11.5555
▁escrib	-11.5557
▁testa	-11.5558
▁metabólica	-11.556
▁silvestre	-11.556
▁descobri	-11.556
▁concorda	-11.5563
▁nó	-11.5565
▁balón	-11.557
ceae	-11.5571
▁Mariano	-11.5572
▁Cerdedo	-11.5577
▁protocolo	-11.5577
▁pertenceu	-11.5579
▁cota	-11.558
▁1854	-11.5583
▁Show	-11.5583
toxina	-11.5588
▁Valde	-11.5588
▁filoxenética	-11.5593
▁Noroeste	-11.5593
▁atómico	-11.5594
▁Emilia	-11.5596
▁casamento	-11.5599
▁Nicolao	-11.5599
▁penso	-11.5599
▁Rosario	-11.56
bacteria	-11.5606
▁vemos	-11.5606
▁desenvolv	-11.5607
▁1820	-11.5607
dución	-11.5609
▁Guatemala	-11.561
▁bicicleta	-11.561
▁doméstica	-11.561
▁indirecta	-11.561
▁Bolivia	-11.561
▁blues	-11.561
▁elefante	-11.561
▁véxa	-11.561
▁xamais	-11.561
scríbese	-11.5611
▁proporcionan	-11.5612
▁Nove	-11.5622
▁Houston	-11.5626
▁msnm	-11.5626
▁char	-11.5632
▁referi	-11.5632
▁140	-11.5633
▁Toro	-11.5633
idina	-11.5633
▁notábe	-11.5634
nium	-11.5635
▁cristais	-11.5639
▁Vladimir	-11.5643
▁diplomática	-11.5643
▁prominente	-11.5643
▁afección	-11.5643
▁califa	-11.5644
▁94	-11.5652
▁Naquel	-11.5655
▁Anthony	-11.566
▁corrupción	-11.566
▁diagnostic	-11.566
▁fenotipo	-11.566
▁idéntico	-11.566
▁textura	-11.566
▁sétima	-11.566
▁alter	-11.5661
▁xeolóxico	-11.5661
▁diferencial	-11.5663
▁previr	-11.5664
▁manual	-11.5665
▁Ph	-11.5673
▁Pul	-11.5674
▁Billy	-11.5675
▁emerxe	-11.5676
×	-11.5676
▁Eslovenia	-11.5676
▁polígono	-11.5676
▁adecuado	-11.5676
▁Claudio	-11.5676
▁arbitra	-11.5677
▁Dragon	-11.5678
▁abadía	-11.5678
feld	-11.5679
▁accedeu	-11.5679
termina	-11.568
fensores	-11.568
▁testamento	-11.5681
▁with	-11.5682
▁1835	-11.5685
▁fragmento	-11.5687
▁pensou	-11.5689
▁RE	-11.569
issa	-11.5691
▁Miss	-11.5693
▁Antártida	-11.5693
▁Ulloa	-11.5693
▁revelou	-11.5693
▁mesquita	-11.5695
back	-11.5695
▁Dream	-11.5695
▁interesado	-11.5696
▁vamo	-11.5696
US	-11.5697
▁inauguración	-11.5698
▁receita	-11.57
▁Bolo	-11.5701
wal	-11.5701
▁partícula	-11.5703
▁condiciona	-11.5709
▁venres	-11.5709
▁neerlandes	-11.571
▁Vermella	-11.571
▁adopción	-11.571
▁innovador	-11.5711
▁Utiliz	-11.5712
▁dominado	-11.5714
π	-11.5715
▁ceder	-11.5717
▁iluminación	-11.5718
▁Beach	-11.5721
▁pasaría	-11.5725
▁Ródano	-11.5727
▁atlántica	-11.5727
▁sanguínea	-11.5727
▁sometida	-11.5727
▁Moderna	-11.5727
▁disposta	-11.5727
▁Noutra	-11.5728
▁seareiro	-11.5729
gawa	-11.573
▁Rally	-11.5732
▁mitocondrial	-11.5732
▁estendeuse	-11.5733
▁sorprendente	-11.5739
▁galaxia	-11.5739
▁Glen	-11.5741
▁crema	-11.5741
▁Get	-11.5742
▁gaita	-11.5742
▁astronauta	-11.5744
▁teléfono	-11.5744
▁Seattle	-11.5744
▁repartido	-11.5744
▁contraria	-11.5744
bulo	-11.5745
▁Potter	-11.5748
▁amiga	-11.576
ł	-11.576
▁retículo	-11.5761
▁Castrelo	-11.5761
▁pelexa	-11.5761
▁propaganda	-11.5762
▁recto	-11.5762
▁met	-11.5762
▁Temos	-11.5765
▁Lois	-11.5766
dilla	-11.577
lico	-11.5772
▁Bak	-11.5773
▁conduto	-11.5775
celular	-11.5777
▁Edimburgo	-11.5777
▁Ciudad	-11.5777
▁Valenciana	-11.5782
▁continúan	-11.5784
▁ponto	-11.5787
▁Fiz	-11.5789
tiña	-11.579
▁Up	-11.5791
tza	-11.5793
▁bacharelato	-11.5794
▁castigo	-11.5794
▁pozo	-11.5795
▁encontrá	-11.5796
▁esqui	-11.5796
NT	-11.5798
▁obxec	-11.5799
▁invitado	-11.5805
▁labra	-11.5808
▁Charlotte	-11.5811
▁Tolkien	-11.5811
▁teatrais	-11.5811
▁válvula	-11.5811
▁xermánica	-11.5811
▁Lleida	-11.5811
▁regato	-11.5812
▁Virgin	-11.5812
▁olhar	-11.5815
▁esgota	-11.5816
▁esmaga	-11.5818
EP	-11.5824
▁aleatoria	-11.5828
▁interface	-11.5828
▁deseñou	-11.583
tten	-11.583
▁Lima	-11.5831
▁abandonada	-11.5833
▁vari	-11.5837
▁iniciada	-11.5838
▁volvería	-11.5845
▁experiência	-11.5845
▁concedido	-11.5845
▁ministerio	-11.5845
▁Convención	-11.5845
▁marxista	-11.5845
▁avanzado	-11.5846
▁Arteixo	-11.5847
▁depredadore	-11.5849
▁dominación	-11.5849
fun	-11.5851
▁Salón	-11.5852
▁cela	-11.586
quilla	-11.5862
▁Imperial	-11.5862
▁Montevideo	-11.5862
▁noruegués	-11.5862
▁táctica	-11.5862
▁Panamá	-11.5862
▁influenciado	-11.5863
UU	-11.5864
landia	-11.5867
▁lousa	-11.5869
izáronse	-11.5869
▁rematado	-11.587
▁infecta	-11.5873
▁Sonic	-11.5874
▁Ortegal	-11.5874
▁Arn	-11.5876
▁cirurxía	-11.5879
▁filosófico	-11.5879
▁taxonomía	-11.5879
▁Balcáns	-11.5879
▁Grammy	-11.588
▁hel	-11.5885
▁Fene	-11.5887
▁recompensa	-11.5896
▁dragón	-11.5896
▁Facenda	-11.5896
gué	-11.5898
▁aviación	-11.59
▁Helena	-11.5901
▁peto	-11.5903
▁Bank	-11.5906
▁ameazada	-11.5906
▁cruzamento	-11.5908
▁Falece	-11.5911
▁fotosíntese	-11.5914
▁arqueólogo	-11.5914
▁activado	-11.5915
▁aprendeu	-11.5915
▁burguesía	-11.5916
▁temperán	-11.5919
▁separou	-11.5919
▁autoría	-11.5921
▁posuír	-11.5925
▁Correo	-11.5927
ceira	-11.593
▁Histórico	-11.5931
▁Anderson	-11.5931
▁ancha	-11.5933
▁Atlas	-11.5935
▁1800	-11.5936
▁liderada	-11.5937
ologi	-11.5937
▁Horas	-11.5938
▁retirou	-11.5939
▁obradoiro	-11.594
▁autoriza	-11.594
▁Fuente	-11.5946
▁Izquierda	-11.5948
▁divindade	-11.5948
▁ribosoma	-11.5948
▁cardíaca	-11.5948
▁decisiva	-11.5948
▁entregou	-11.5951
▁describ	-11.5958
▁Boiro	-11.5964
▁Bonaparte	-11.5965
▁Google	-11.5965
▁ánimo	-11.5967
iñeiro	-11.5968
▁Susan	-11.5968
▁modula	-11.5968
▁Espi	-11.5972
▁Medina	-11.5974
▁Luxemburgo	-11.5974
▁-1	-11.5975
OR	-11.5976
folia	-11.5977
▁Etiopía	-11.5982
▁nórdico	-11.5982
▁solicitou	-11.5982
▁soterrado	-11.5982
▁Paraguai	-11.5982
▁feudal	-11.5983
▁Empresa	-11.5983
▁vestixio	-11.5983
▁1862	-11.5988
ció	-11.5989
▁faro	-11.5992
rnal	-11.5992
▁Alice	-11.5995
rexión	-11.5996
▁crían	-11.5997
▁Gy	-11.5998
▁caro	-11.5998
▁Watson	-11.6
▁maquinaria	-11.6
▁Saxonia	-11.6
▁Iván	-11.6
▁velo	-11.6001
▁florece	-11.6009
▁gañado	-11.6011
▁imparti	-11.6015
▁laboral	-11.6017
▁Caldelas	-11.6017
▁Otomán	-11.6017
▁decorado	-11.6022
▁Rand	-11.6024
lent	-11.6024
óxena	-11.6025
monte	-11.6026
ludi	-11.6028
▁Emil	-11.6028
MT	-11.6029
▁GT	-11.603
▁Rica	-11.603
▁operar	-11.6031
▁Paquistán	-11.6034
▁guerrilla	-11.6034
▁misioneiro	-11.6034
▁Oliver	-11.6035
EA	-11.6035
▁Johan	-11.6037
▁substituí	-11.6037
▁incu	-11.6037
etta	-11.6038
▁rumbo	-11.6038
▁inventor	-11.604
▁começar	-11.6042
▁Pier	-11.6044
▁Sever	-11.6045
▁cabra	-11.6046
▁Local	-11.6047
▁integrar	-11.6048
ن	-11.6052
▁xuventude	-11.6052
▁emblema	-11.6052
▁Beatles	-11.6053
VI	-11.6055
▁deixan	-11.6056
▁fermentación	-11.6058
▁Gru	-11.6063
▁Canaria	-11.6065
▁produza	-11.6066
▁circunscrición	-11.6069
▁defínese	-11.6069
Cotobade	-11.6069
▁festividade	-11.6069
▁sábe	-11.6072
▁observador	-11.6075
▁proceden	-11.6076
▁valeu	-11.6077
▁1815	-11.6078
▁Cala	-11.6081
▁Sadurniño	-11.6086
▁apéndice	-11.6086
▁cloruro	-11.6086
▁Radical	-11.6086
▁Oficina	-11.6086
▁pantanos	-11.6087
▁mobiliza	-11.6087
▁faga	-11.6091
tadores	-11.6092
▁Nilo	-11.6092
▁Metro	-11.6095
▁convocado	-11.61
▁Chega	-11.6104
▁Euskadi	-11.6104
▁xermánico	-11.6104
▁Agustín	-11.6104
▁cobertura	-11.6104
eixe	-11.6104
▁Conserva	-11.6109
▁maia	-11.6115
▁vivi	-11.612
▁Galeguista	-11.6121
▁Marshall	-11.6121
▁combustión	-11.6121
▁irlandeses	-11.6121
▁demarcación	-11.6122
▁centrada	-11.6126
▁rodean	-11.6128
▁xermina	-11.6129
▁ampliar	-11.6129
▁droga	-11.6132
▁π	-11.6133
ingen	-11.6133
▁enviada	-11.6134
▁semanal	-11.6136
▁Boo	-11.6137
blasto	-11.6138
▁exipcia	-11.6139
▁requisito	-11.6139
▁ladeira	-11.614
▁nec	-11.614
▁cortar	-11.6141
▁gregoriano	-11.6141
ilia	-11.6144
▁Cea	-11.6144
▁1857	-11.6145
▁Dave	-11.6146
wiki	-11.6149
▁ascender	-11.6151
ssem	-11.6153
▁Nunca	-11.6154
▁compartir	-11.6156
▁fantasía	-11.6156
▁desembarco	-11.6156
▁extinta	-11.6156
▁escaseza	-11.6157
▁Industria	-11.6159
▁bat	-11.6161
élico	-11.6163
▁delta	-11.6171
▁estrato	-11.6174
▁progresivo	-11.6174
▁BMW	-11.6174
▁mantiveron	-11.6174
▁cuartel	-11.6174
▁Kevin	-11.6176
▁traxe	-11.6177
▁consideraban	-11.6178
▁cuña	-11.6179
▁merece	-11.618
▁Your	-11.6181
peri	-11.6182
▁ligamento	-11.6184
▁diferenciar	-11.6186
▁elaborar	-11.6189
▁Hércules	-11.6192
▁Laxe	-11.6192
▁curmán	-11.6193
mut	-11.6193
▁compartido	-11.6194
▁loitou	-11.6195
▁Laura	-11.6195
▁Liña	-11.6196
▁detención	-11.6198
▁1836	-11.6199
▁Ré	-11.6199
▁estatais	-11.6199
▁afastada	-11.6199
▁establecendo	-11.6201
glu	-11.6201
▁frecha	-11.6201
mundo	-11.6202
▁Maza	-11.6202
▁pecado	-11.6203
guí	-11.6204
▁conectado	-11.6205
▁Rev	-11.6205
▁delgado	-11.6207
φ	-11.6209
▁Arquitectura	-11.6209
▁Código	-11.6209
▁Oficial	-11.6209
▁vangarda	-11.6209
▁acuática	-11.6209
▁Kansas	-11.621
▁espaço	-11.621
ófago	-11.6211
▁discográfico	-11.6214
▁q	-11.6215
▁ISO	-11.6217
▁afirmar	-11.6219
tívose	-11.622
▁radia	-11.622
▁Cin	-11.6226
▁freguesía	-11.6227
▁climática	-11.6227
atolicismo	-11.6227
▁nucleo	-11.6229
▁quimio	-11.6229
▁representativo	-11.6233
▁pasta	-11.6235
▁independ	-11.6239
▁detalle	-11.6239
▁esposo	-11.6245
▁Corporación	-11.6245
▁inspira	-11.6246
▁1.2	-11.6246
▁Branco	-11.6248
▁trato	-11.6255
▁Hard	-11.6259
micina	-11.626
▁cultivada	-11.6261
▁Báltico	-11.6262
▁longametraxe	-11.6262
▁peninsular	-11.6262
▁Linné	-11.6262
▁veterano	-11.6262
▁gameto	-11.6263
▁esporas	-11.6263
▁concedeu	-11.6265
▁fisi	-11.6269
▁Valenti	-11.6271
▁Zona	-11.6272
▁contrasta	-11.6276
▁inaugurada	-11.6277
▁Wessex	-11.628
▁Alxeria	-11.628
▁Nikola	-11.6281
▁comprobar	-11.6281
▁Carol	-11.6284
▁comparada	-11.6289
▁Light	-11.6292
▁Sydney	-11.6298
▁lexislativo	-11.6298
▁oceánica	-11.6298
▁Christ	-11.6304
▁sab	-11.6306
▁microbio	-11.6309
▁Great	-11.631
punt	-11.6312
▁fórma	-11.6313
▁Capitán	-11.6316
▁harmonía	-11.6316
▁utilidade	-11.6316
▁sobreviviu	-11.6316
▁decisivo	-11.6316
▁indie	-11.6316
▁Hamburgo	-11.6316
▁naquele	-11.6316
▁Proto	-11.6317
▁agudo	-11.6318
▁Warner	-11.6319
▁alimentan	-11.6319
cepción	-11.632
▁escisión	-11.6322
▁aplicado	-11.6323
▁Hotel	-11.6325
cco	-11.6327
▁Nogueira	-11.6327
▁Liverpool	-11.6334
▁Pueblo	-11.6334
▁xuvení	-11.6334
▁cálido	-11.6334
▁Baleares	-11.6334
▁aproximada	-11.6334
▁ABC	-11.6335
▁encabeza	-11.6335
xeno	-11.6335
clor	-11.6337
▁cruzados	-11.6339
▁sair	-11.6341
▁deberá	-11.6341
▁mostraron	-11.6346
▁Kant	-11.6348
mitiu	-11.6348
wich	-11.6349
▁comproba	-11.635
▁triangular	-11.6351
▁inxecta	-11.6351
▁Considera	-11.6352
ARN	-11.6353
▁alimentaria	-11.6356
▁imprenta	-11.6356
▁vice	-11.636
▁Ful	-11.6367
▁Cela	-11.6368
fila	-11.6368
▁franquismo	-11.6369
▁inspirou	-11.6369
▁reactivo	-11.637
▁vogai	-11.637
▁rumore	-11.6371
▁Schu	-11.6372
▁fé	-11.6376
▁escoller	-11.6379
▁Marta	-11.6383
▁proteico	-11.6388
▁Kre	-11.6389
▁xema	-11.639
▁comprou	-11.6391
▁peste	-11.6392
▁Gü	-11.6393
organ	-11.6394
▁1859	-11.6394
▁contribu	-11.6395
▁Ivan	-11.6396
▁compar	-11.6397
▁noventa	-11.6397
▁Cesar	-11.6402
▁Luz	-11.6404
▁satisfa	-11.6404
θ	-11.6405
▁Corporation	-11.6405
▁sistemática	-11.6405
▁únense	-11.6405
▁defendía	-11.6405
▁pesetas	-11.6405
▁preséntase	-11.6406
▁reconquista	-11.6406
▁avenida	-11.6406
▁fixación	-11.6407
▁Unidade	-11.6415
umentando	-11.6419
▁Yama	-11.6422
▁alcumado	-11.6423
▁galeguista	-11.6423
▁Belgrado	-11.6423
▁prior	-11.6424
▁xerarquía	-11.6424
▁Platón	-11.6427
hman	-11.6433
ough	-11.6437
▁Shar	-11.644
▁Familia	-11.6441
▁Filadelfia	-11.6441
▁Metropolitan	-11.6441
▁alguém	-11.6441
▁traducir	-11.6442
▁Persia	-11.6444
▁sentía	-11.6445
▁PO	-11.6447
▁Muller	-11.6449
NG	-11.6451
▁operador	-11.6451
▁pulo	-11.6452
▁cheiro	-11.6454
▁Cinema	-11.6456
ibar	-11.6458
▁bolboreta	-11.6459
▁procesión	-11.6459
▁violento	-11.6459
IM	-11.6461
▁pracer	-11.6466
▁tapa	-11.6469
▁parda	-11.6473
▁estereo	-11.6473
▁Bohemia	-11.6478
▁Orange	-11.6478
▁Alcalá	-11.6478
▁cubri	-11.6479
▁viaxeiros	-11.6481
▁involucra	-11.6484
▁Casares	-11.6486
▁desenvólvese	-11.6496
▁Galileo	-11.6496
▁décima	-11.6496
ttle	-11.6498
wulf	-11.65
brica	-11.65
▁Unida	-11.65
▁acabado	-11.6503
▁comparado	-11.6504
▁cometa	-11.6505
▁Audiencia	-11.6514
▁espacia	-11.6514
▁Historica	-11.6514
▁goleador	-11.6514
▁Vilariño	-11.6519
▁1846	-11.652
tización	-11.6524
▁concluíu	-11.6528
ciño	-11.6529
▁lector	-11.6532
▁pianista	-11.6532
▁indoeuropea	-11.6532
▁abdome	-11.6532
▁tolera	-11.6533
▁esperma	-11.6533
▁libreto	-11.6533
▁Anne	-11.6535
▁obrigada	-11.6537
▁Maceda	-11.6537
▁prega	-11.654
▁prisioneiro	-11.6541
▁presentaba	-11.6542
ófono	-11.6543
vea	-11.6543
▁propón	-11.6544
▁conservadores	-11.6549
▁Science	-11.655
▁coñécense	-11.655
▁monumental	-11.655
▁rescate	-11.655
▁Josef	-11.6551
▁simetría	-11.6554
▁santa	-11.656
▁socialismo	-11.656
▁adquirido	-11.6561
▁consumido	-11.6566
▁restante	-11.6566
▁conquistada	-11.6568
▁Complutense	-11.6569
▁Varsovia	-11.6569
▁orgánulo	-11.6569
▁substitúe	-11.6569
▁válido	-11.6569
▁flaxelo	-11.6569
▁calcaria	-11.6569
▁Apple	-11.6569
▁debuxa	-11.657
▁Claude	-11.657
▁severa	-11.658
fix	-11.6581
▁referido	-11.6582
▁identificada	-11.6583
¿	-11.6587
▁impediu	-11.6587
▁rexenera	-11.6588
álico	-11.659
▁dólar	-11.6591
▁Vall	-11.6593
▁Ry	-11.6593
▁fosforilación	-11.6594
▁1858	-11.6594
▁xeno	-11.6595
▁1809	-11.6596
graph	-11.6599
▁monxe	-11.6599
▁montaxe	-11.6602
▁superado	-11.6605
▁Manhattan	-11.6605
▁exclusivo	-11.6605
▁fluvial	-11.6605
▁sufraxio	-11.6605
▁descontento	-11.6606
presa	-11.6606
▁chumbo	-11.6606
ceron	-11.6612
▁propaga	-11.6615
▁levaría	-11.6615
▁decrece	-11.6616
corpo	-11.6623
▁economista	-11.6624
▁limpeza	-11.6624
▁instaura	-11.6624
▁inhibe	-11.6624
▁Abd	-11.6624
▁dedicarse	-11.6631
▁venera	-11.6635
▁Cher	-11.6635
▁extraordinario	-11.6642
▁xuíces	-11.6642
▁eficiencia	-11.6642
▁convocatoria	-11.6643
▁Some	-11.6647
▁asignado	-11.6648
▁engloba	-11.6651
▁prodúcen	-11.6654
▁térmico	-11.6661
▁anfibios	-11.6661
▁greco	-11.6663
hib	-11.6663
▁milleiro	-11.6663
▁defendeu	-11.6663
▁sacra	-11.6668
▁Morte	-11.6669
▁desenvolvendo	-11.6669
▁acoller	-11.6673
▁rexeitar	-11.6673
▁Llo	-11.6674
▁Tempo	-11.6677
ciencia	-11.6677
▁bancada	-11.6677
▁proclamación	-11.6679
▁Oklahoma	-11.6679
▁construir	-11.6679
▁convidado	-11.668
▁mucosa	-11.668
▁Gustav	-11.668
▁neta	-11.6681
▁parecida	-11.6682
▁lisa	-11.6685
▁Globo	-11.6687
▁vexa	-11.6688
▁by	-11.669
▁trompeta	-11.669
III	-11.6691
▁acollida	-11.6698
▁incapaz	-11.6698
▁obstáculo	-11.6698
▁sucesivo	-11.6698
▁xesuíta	-11.6698
▁climático	-11.6698
▁transcenden	-11.6699
▁veñen	-11.6699
clav	-11.6701
▁triplo	-11.6702
▁vão	-11.6702
▁eficaci	-11.6702
▁verifica	-11.6704
▁Massa	-11.6705
▁Adrian	-11.671
▁Barre	-11.6711
oeste	-11.6713
▁Phoenix	-11.6716
▁confluencia	-11.6716
▁engadindo	-11.6716
▁linfocitos	-11.6716
▁microtúbulos	-11.6716
▁Iniciou	-11.6716
▁concilio	-11.6717
▁cronista	-11.6717
▁dominada	-11.672
▁3000	-11.6722
▁Salva	-11.6724
sionar	-11.6724
▁Ambas	-11.6732
▁Kennedy	-11.6735
▁dramaturgo	-11.6735
▁escaravello	-11.6735
▁restablece	-11.6735
▁prostitu	-11.6735
▁Estreou	-11.6736
▁continuamente	-11.6737
▁elenco	-11.6737
▁precipitación	-11.6739
▁cativo	-11.6739
▁colocada	-11.6742
▁saíron	-11.6742
▁Risco	-11.6743
▁pechar	-11.6743
▁Canta	-11.6744
▁viral	-11.6745
▁Freire	-11.6746
gana	-11.6748
▁transportar	-11.6749
▁habitado	-11.6751
vascular	-11.6751
▁liberta	-11.6751
▁descubriron	-11.6753
▁adxectivo	-11.6753
▁Begonte	-11.6753
▁maduro	-11.6754
▁aterraxe	-11.6754
▁causante	-11.6754
▁Xogou	-11.6755
bía	-11.6756
▁matou	-11.6757
▁perfecto	-11.6757
▁barroca	-11.6762
▁introduce	-11.6762
▁listaxe	-11.6763
▁Verín	-11.6765
igh	-11.6766
▁Naval	-11.6766
▁declarar	-11.6769
▁determinante	-11.677
▁anchura	-11.6772
▁procariota	-11.6772
▁significou	-11.6772
▁Danubio	-11.6772
▁Malaisia	-11.6772
▁René	-11.6773
▁Renfe	-11.6775
▁avoga	-11.6777
▁Ciencia	-11.6777
terapia	-11.6782
▁Wild	-11.6783
▁xornalismo	-11.6784
wall	-11.6786
RT	-11.6787
▁esplendor	-11.6791
▁abastece	-11.6791
▁Prat	-11.6792
▁narrador	-11.6793
▁hispano	-11.6795
▁masivo	-11.6797
igrou	-11.6799
química	-11.68
▁constituínte	-11.6809
▁cúmulo	-11.6809
▁Información	-11.6809
▁ortodoxo	-11.6809
ов	-11.681
▁frustra	-11.6811
▁Meta	-11.6811
▁ecolóxico	-11.6812
▁Graham	-11.6813
▁Azul	-11.6814
▁oligo	-11.6816
▁accede	-11.6818
▁renunciar	-11.6827
▁romántico	-11.6828
▁Mahler	-11.6828
▁xacemento	-11.6831
▁Bronce	-11.6832
▁NO	-11.6834
SH	-11.6839
▁instru	-11.6843
▁Rick	-11.6845
▁Esquerda	-11.6847
▁almirante	-11.6847
▁atmosférica	-11.6847
▁extremidade	-11.6847
▁feminismo	-11.6847
▁ultravioleta	-11.6847
▁endémica	-11.6847
▁Capital	-11.6847
▁graduou	-11.6847
rqueoloxía	-11.685
▁Morris	-11.6851
credit	-11.6851
▁patrocin	-11.6859
▁mancha	-11.6861
▁distribu	-11.6864
▁embarca	-11.6865
▁Benetton	-11.6866
▁Herrera	-11.6866
▁puidera	-11.6866
▁estraña	-11.6866
hidroxi	-11.6869
vila	-11.6871
▁Code	-11.6871
▁esperta	-11.6875
▁manipula	-11.6876
▁operado	-11.6877
▁gobernado	-11.6883
▁alusión	-11.6885
▁institucional	-11.6886
▁Emma	-11.6887
tini	-11.689
▁Fundado	-11.689
▁levouno	-11.689
▁Ferra	-11.6892
▁habería	-11.6894
▁Marine	-11.6894
▁bloqueo	-11.6897
▁sucesivamente	-11.6898
▁computadora	-11.6902
▁Copenhague	-11.6904
▁accesible	-11.6904
▁conservadora	-11.6905
▁Isso	-11.6909
▁implantación	-11.6911
▁inactiva	-11.6912
▁rostro	-11.6914
▁estudada	-11.6915
▁observada	-11.6915
▁Shu	-11.6917
ílico	-11.6921
я	-11.6923
▁Anjou	-11.6923
▁condución	-11.6925
▁Shin	-11.6926
▁recepción	-11.693
▁Rodeiro	-11.6931
▁Mare	-11.6932
▁citar	-11.6934
▁ال	-11.6941
▁Técnica	-11.6941
▁holandeses	-11.6941
▁Rianxo	-11.6942
▁mérito	-11.6942
▁transmite	-11.6947
▁licenciou	-11.6949
▁empregaba	-11.695
mete	-11.695
▁Blu	-11.6952
agh	-11.6955
▁afro	-11.6957
▁Esti	-11.6957
▁lacta	-11.6958
▁Gustavo	-11.696
▁incorporado	-11.696
ب	-11.6961
▁tuberculose	-11.6961
▁Apóstolo	-11.6961
▁Einstein	-11.6961
▁Palla	-11.6961
▁Xixón	-11.6962
▁microscopio	-11.6963
▁Modern	-11.6963
cín	-11.6965
▁1847	-11.6967
opter	-11.697
▁subcampión	-11.698
▁tecnolóxico	-11.698
▁tinguidura	-11.698
▁Segovia	-11.698
▁perturba	-11.698
▁bacteriano	-11.6982
▁terminais	-11.6982
▁present	-11.6987
Alpes	-11.699
▁Teoría	-11.699
xogador	-11.699
▁Félix	-11.6999
▁aristocracia	-11.6999
▁práctico	-11.6999
▁acomoda	-11.6999
BP	-11.7004
pop	-11.7005
▁espiral	-11.7007
▁implicación	-11.7007
▁traba	-11.7007
▁cera	-11.7008
flam	-11.7012
▁Pá	-11.7015
ífera	-11.7017
▁gradiente	-11.7018
▁insulina	-11.7018
▁orixína	-11.7018
▁candidata	-11.7018
▁ficheiro	-11.7018
▁gamma	-11.7018
▁Whit	-11.7018
▁Golden	-11.7018
▁Sarmiento	-11.7018
▁erosión	-11.7019
▁proliferación	-11.7023
▁pagán	-11.7023
▁Here	-11.7024
titude	-11.7029
▁carboxi	-11.703
▁desempeñou	-11.7031
▁audiovisua	-11.7037
▁citocromo	-11.7037
▁independentista	-11.7037
▁macrófagos	-11.7037
▁periférico	-11.7037
▁antecesor	-11.7037
▁Marqués	-11.7037
▁Gordon	-11.7038
▁procesa	-11.7038
▁Usa	-11.7039
▁algodón	-11.7042
mouth	-11.7042
▁encerra	-11.7043
▁divina	-11.7046
▁correctamente	-11.7046
▁zu	-11.7049
▁começa	-11.7049
▁codificada	-11.7051
▁fume	-11.7052
▁aliada	-11.7053
▁puxeron	-11.7056
و	-11.7056
▁Frankfurt	-11.7056
▁hospitais	-11.7056
▁sufixo	-11.7056
▁Town	-11.7057
▁imprim	-11.7059
▁bautiza	-11.7059
▁Sábe	-11.706
▁construtor	-11.7061
▁educativa	-11.7063
▁Johnny	-11.7065
▁diferenciada	-11.7068
▁explorar	-11.7072
▁Bóveda	-11.7075
▁dignidade	-11.7075
▁estímase	-11.7075
▁Moeche	-11.7075
▁radica	-11.7077
▁enclave	-11.7077
▁primate	-11.7078
▁novelista	-11.7079
▁comunicar	-11.7081
▁105	-11.7086
▁Dita	-11.709
▁Walt	-11.7092
й	-11.7095
▁cuántica	-11.7095
▁fervenza	-11.7095
▁cónsul	-11.7095
▁xadrez	-11.7095
▁xermano	-11.7095
▁desexaba	-11.7095
▁exacto	-11.7095
▁pechou	-11.7097
▁desorde	-11.7097
▁anotador	-11.7097
▁Soria	-11.7098
▁Sound	-11.71
▁baila	-11.7102
▁Petro	-11.7103
▁musulmán	-11.7107
▁arqueolóxico	-11.7108
ólito	-11.7109
▁Guy	-11.7109
▁distintivo	-11.7114
▁montañoso	-11.7114
▁OTAN	-11.7114
▁Abraham	-11.7114
▁desembarca	-11.7114
▁escolta	-11.7115
▁informação	-11.712
▁normativa	-11.7124
física	-11.7125
▁Ramon	-11.7127
▁trabalhar	-11.7128
▁negouse	-11.713
▁Bismarck	-11.7133
▁metrópole	-11.7133
▁peregrinación	-11.7133
▁Bird	-11.7133
▁colegas	-11.7136
▁Finais	-11.714
▁Trent	-11.7141
▁Troia	-11.7142
▁xerou	-11.7143
▁colga	-11.7152
▁potasio	-11.7153
▁monstro	-11.7159
▁Antena	-11.716
▁proteica	-11.7163
▁Alemán	-11.7166
VE	-11.7168
lzamento	-11.7169
▁Palo	-11.717
▁Montero	-11.717
cheg	-11.7171
▁auténtico	-11.7172
▁descomposición	-11.7172
▁romanés	-11.7173
▁Mini	-11.7174
▁trombo	-11.7176
ciña	-11.7176
▁brillo	-11.7179
▁instalado	-11.7181
fact	-11.7184
▁utilizaron	-11.7184
▁permitiulle	-11.7188
▁encarcerado	-11.7192
▁ibérico	-11.7192
▁xentilicio	-11.7192
▁Formula	-11.7192
ófitas	-11.7192
▁Ontario	-11.7193
▁baga	-11.7197
▁precede	-11.7198
▁esixe	-11.7201
▁tirada	-11.7204
tizado	-11.7204
▁Alain	-11.7209
▁toque	-11.7209
▁induce	-11.721
▁Ponteareas	-11.7211
▁islámica	-11.7211
▁lexislativa	-11.7211
▁Orlando	-11.7211
▁resistir	-11.7211
▁Noutro	-11.7212
▁Stre	-11.7212
▁Khan	-11.7213
▁enzima	-11.7213
▁neurona	-11.7214
▁Heart	-11.7215
▁Americana	-11.7215
AI	-11.7216
tigo	-11.7217
▁music	-11.7219
▁inventar	-11.7219
▁buscaba	-11.7219
▁ilumina	-11.7222
EM	-11.7222
▁Moure	-11.7225
▁Saga	-11.7229
▁Demócrata	-11.7231
▁Observ	-11.7231
▁morcego	-11.7231
▁Testamento	-11.7231
▁denso	-11.7235
▁recibida	-11.7235
▁durmi	-11.7236
▁1856	-11.7239
▁Ny	-11.7242
lima	-11.7245
▁intermediario	-11.7247
▁amplitude	-11.725
▁família	-11.725
▁repercusión	-11.725
▁Orquestra	-11.725
▁énfase	-11.725
▁campus	-11.725
▁Igualmente	-11.7256
▁1837	-11.7257
paña	-11.7262
▁involucrado	-11.7263
▁definiu	-11.7263
NI	-11.7268
▁nocturna	-11.727
▁sílaba	-11.727
▁devanceiro	-11.727
▁Utah	-11.727
▁chocolate	-11.727
▁Depende	-11.727
▁Lope	-11.7274
▁aniña	-11.7275
▁permanenc	-11.7279
▁Stein	-11.728
▁Reforma	-11.728
▁contribuír	-11.7281
dominio	-11.7281
▁instrumental	-11.7283
▁2.0	-11.7283
▁encarna	-11.7286
▁Douro	-11.7286
▁temporais	-11.7288
▁Tampa	-11.7288
ύ	-11.7289
▁Desenvolvemento	-11.7289
▁garantía	-11.7289
▁intervén	-11.7289
▁máxico	-11.729
▁atribuída	-11.729
▁Guill	-11.7291
▁anormal	-11.7291
▁transcrito	-11.7292
▁conectada	-11.7294
iber	-11.7296
▁labore	-11.7296
▁Hugh	-11.7297
▁Carter	-11.7304
▁amplifica	-11.7306
▁miden	-11.7308
▁Shakespeare	-11.7309
▁inestabilidade	-11.7309
▁isótopo	-11.7309
▁dixestión	-11.7309
▁bioquímica	-11.731
▁parentesco	-11.731
▁extr	-11.7311
▁imagi	-11.7311
▁Tito	-11.7311
▁1834	-11.7317
ptic	-11.7318
▁1814	-11.7318
▁Lawrence	-11.7329
▁atómica	-11.7329
▁Asunto	-11.733
▁Camilo	-11.733
▁Delft	-11.7331
ntraron	-11.7336
▁Tsu	-11.7339
▁Estatal	-11.734
▁Feira	-11.7342
▁Estremadura	-11.7349
▁olímpica	-11.7349
▁tio	-11.7356
▁fenda	-11.736
▁salario	-11.7362
▁Ruso	-11.7362
praza	-11.7363
▁informativo	-11.7364
▁roedor	-11.7367
▁Pinto	-11.7368
▁hindú	-11.7368
▁Letonia	-11.7368
▁constituía	-11.7368
▁respectivo	-11.7369
▁novidade	-11.7369
[...]
