<unk>	0
<s>	0
</s>	0
<pad>	0
s	-2.8455
▁,	-3.12634
▁	-3.16737
▁de	-3.29799
▁.	-3.33331
▁a	-3.67708
▁e	-3.87549
▁o	-4.02938
▁que	-4.16799
;	-4.22904
▁&	-4.25965
quot	-4.33408
▁do	-4.46241
▁da	-4.61878
▁en	-4.62658
o	-4.94651
a	-5.01048
▁A	-5.10528
▁é	-5.18061
▁un	-5.19281
▁no	-5.24051
se	-5.2905
(	-5.29209
n	-5.29476
▁)	-5.30403
▁O	-5.33257
▁unha	-5.3477
▁na	-5.35961
▁os	-5.42031
▁para	-5.47144
▁como	-5.54244
▁por	-5.54635
▁se	-5.60994
▁ao	-5.62048
▁súa	-5.65817
▁seu	-5.66003
es	-5.68634
mente	-5.74283
▁dos	-5.79284
▁con	-5.8202
u	-5.82757
▁foi	-5.82777
is	-5.84557
▁máis	-5.88994
▁ou	-6.04554
▁á	-6.05019
▁as	-6.08047
▁:	-6.08723
▁non	-6.16376
l	-6.25613
▁En	-6.27005
ndo	-6.27393
on	-6.29044
ción	-6.32289
▁das	-6.32937
r	-6.40783
e	-6.43072
▁son	-6.45086
▁entre	-6.51741
▁ano	-6.53469
▁polo	-6.54373
▁co	-6.59818
m	-6.68755
▁tamén	-6.69775
▁ser	-6.70334
▁pola	-6.72303
▁parte	-6.74103
▁coa	-6.75723
▁anos	-6.76177
▁Os	-6.78333
▁sobre	-6.83688
▁era	-6.8617
▁E	-6.90793
▁está	-6.95814
ia	-6.96032
nde	-7.02336
ão	-7.02618
▁cidade	-7.04545
▁um	-7.04791
▁No	-7.04996
▁dun	-7.05491
▁nos	-7.05749
índa	-7.06673
do	-7.06986
▁xa	-7.07907
▁século	-7.09538
▁ó	-7.09605
ón	-7.0972
▁ata	-7.10497
▁pero	-7.12396
ía	-7.13056
▁uma	-7.13189
▁forma	-7.13755
▁mesmo	-7.15193
▁As	-7.187
en	-7.18828
as	-7.19514
0	-7.19713
▁todo	-7.20048
▁C	-7.22018
▁I	-7.2216
▁esta	-7.22402
▁durante	-7.22613
ou	-7.2263
▁primeiro	-7.24274
▁ten	-7.24407
▁cando	-7.24543
▁nome	-7.24849
▁dunha	-7.27026
▁mais	-7.27416
▁pode	-7.31971
▁P	-7.32246
▁Na	-7.32631
▁este	-7.32756
te	-7.33024
▁poboación	-7.33666
8	-7.33881
▁primeira	-7.35892
▁nas	-7.37302
▁só	-7.37582
▁dous	-7.37728
5	-7.38324
▁moi	-7.38922
▁não	-7.39001
▁T	-7.39798
▁em	-7.40246
▁illa	-7.40506
idade	-7.40604
ron	-7.41656
▁foro	-7.42866
▁tiña	-7.43032
▁tempo	-7.44739
9	-7.47627
▁nun	-7.4765
▁com	-7.4841
▁maior	-7.49073
á	-7.49512
2	-7.49938
▁despo	-7.50976
▁sen	-7.5117
1	-7.5141
3	-7.52241
▁habitante	-7.53041
▁Estado	-7.53987
7	-7.54078
mos	-7.54089
4	-7.54118
▁día	-7.54324
6	-7.55015
és	-7.57034
▁mundo	-7.57251
▁vez	-7.57371
i	-7.57662
▁outros	-7.59646
▁desde	-7.60574
▁Este	-7.60593
▁1	-7.61805
▁contra	-7.62307
▁San	-7.627
▁tres	-7.62901
▁lugar	-7.62905
▁concello	-7.6328
▁toda	-7.64179
▁vida	-7.64311
▁De	-7.64882
▁2	-7.65647
nse	-7.66643
▁nunha	-7.66925
▁segundo	-7.66969
onde	-7.67571
▁moito	-7.67798
▁lingua	-7.69391
▁dú	-7.70225
▁país	-7.71199
apos	-7.71777
▁así	-7.71892
▁gran	-7.72866
▁guerra	-7.74104
▁cada	-7.74757
▁S	-7.74932
da	-7.75408
▁ás	-7.76123
cia	-7.76998
▁Por	-7.77175
▁grupo	-7.77895
▁principal	-7.77927
▁sur	-7.78943
▁actual	-7.7913
▁estado	-7.79189
▁estaba	-7.79477
▁novo	-7.8036
▁banda	-7.8067
▁home	-7.81443
▁xu	-7.81494
▁goberno	-7.81998
▁Esta	-7.82304
▁parroquia	-7.82848
▁baixo	-7.82862
demais	-7.83054
▁Foi	-7.83114
▁hai	-7.83335
▁zona	-7.83711
▁polos	-7.83737
▁sistema	-7.83757
▁río	-7.84334
▁rexión	-7.84628
▁deste	-7.85073
▁tipo	-7.85657
za	-7.86339
▁norte	-7.86749
▁grande	-7.87573
▁cara	-7.87743
▁rei	-7.88998
▁lle	-7.89355
▁pouco	-7.89963
▁número	-7.90884
▁ter	-7.92041
▁todos	-7.92263
▁muller	-7.92274
▁Un	-7.92719
▁poder	-7.93871
▁cunha	-7.94292
▁tanto	-7.96617
▁sendo	-7.96787
mento	-7.96882
er	-7.97021
▁relación	-7.97789
▁provincia	-7.98104
▁importante	-7.9818
▁m	-7.9858
▁Galicia	-7.98791
ismo	-7.9926
▁outras	-7.99552
▁cal	-7.99655
▁poden	-8.00003
▁000	-8.00645
▁traballo	-8.00813
de	-8.01169
▁mar	-8.01237
▁isto	-8.01849
▁antes	-8.01911
amén	-8.02216
▁están	-8.02253
▁cun	-8.04158
▁Segund	-8.04266
ncia	-8.04421
▁coma	-8.04591
án	-8.04704
▁exemplo	-8.04753
▁auga	-8.04915
▁época	-8.05118
▁punto	-8.05273
▁medio	-8.06195
▁194	-8.06268
▁teñ	-8.06285
▁fillo	-8.06487
ña	-8.06619
▁capital	-8.06989
▁Unidos	-8.07195
ar	-8.07624
▁historia	-8.08001
▁Con	-8.08711
▁territorio	-8.0911
▁España	-8.09273
▁até	-8.09561
▁3	-8.09633
▁menos	-8.10284
▁Se	-8.11004
▁196	-8.11153
▁Duran	-8.11211
▁partir	-8.11246
▁algún	-8.12289
▁xeral	-8.12484
▁galego	-8.12603
▁familia	-8.1286
▁tivo	-8.13646
▁grandes	-8.13806
▁porque	-8.14175
ba	-8.14241
▁F	-8.1447
▁outra	-8.14513
▁morte	-8.14597
▁período	-8.14599
me	-8.1469
ño	-8.14712
▁nova	-8.15224
▁ben	-8.15244
▁obra	-8.1543
▁muito	-8.15742
▁feito	-8.15984
▁especie	-8.16242
▁ver	-8.16586
▁longo	-8.16614
▁B	-8.17094
▁Europa	-8.17207
▁X	-8.17709
▁Para	-8.18138
▁193	-8.18212
▁xunto	-8.18521
▁último	-8.18648
▁cos	-8.192
▁coñecido	-8.19501
▁equipo	-8.19681
▁catro	-8.20158
t	-8.20915
▁mesma	-8.21004
▁especial	-8.2128
▁II	-8.22522
▁195	-8.22766
▁maioría	-8.23416
▁La	-8.23673
z	-8.24347
▁diferentes	-8.24354
ronse	-8.24376
▁vario	-8.24492
▁logo	-8.24523
▁centro	-8.24693
▁terra	-8.25404
▁outro	-8.25527
▁xeito	-8.25921
91	-8.26249
▁resto	-8.26478
▁10	-8.26603
▁nado	-8.27039
▁política	-8.27347
c	-8.27694
am	-8.27778
▁desta	-8.27952
▁mentr	-8.28136
▁orixe	-8.28532
ta	-8.28832
ando	-8.29088
▁chamado	-8.29391
llo	-8.29403
▁persoas	-8.2946
iro	-8.29624
▁momento	-8.29646
▁la	-8.30121
or	-8.30527
▁M	-8.30734
▁D	-8.31006
res	-8.31155
▁192	-8.31654
▁Mas	-8.31872
▁forza	-8.32945
▁Franci	-8.33128
▁veces	-8.333
io	-8.33323
▁Unha	-8.3414
▁serie	-8.34443
▁Como	-8.34477
▁base	-8.34635
▁20	-8.35049
▁varia	-8.35287
ago	-8.35808
▁4	-8.35849
▁caso	-8.35928
▁comezou	-8.35962
▁moita	-8.36514
▁eles	-8.36548
▁final	-8.36795
▁segunda	-8.36851
▁pessoas	-8.36915
▁eu	-8.37163
▁millóns	-8.37564
al	-8.37696
▁dentro	-8.37744
▁Nova	-8.37962
▁pequena	-8.37983
▁países	-8.38394
▁The	-8.39755
mo	-8.39891
▁seguinte	-8.4012
▁debido	-8.40462
▁facer	-8.40586
▁5	-8.40876
▁Ist	-8.40884
▁uso	-8.40906
la	-8.41112
▁isso	-8.41117
▁proceso	-8.41627
▁travé	-8.41899
entón	-8.42044
▁mas	-8.42411
▁anterior	-8.42489
▁posterior	-8.42757
▁case	-8.42868
▁cultura	-8.42915
93;	-8.42987
▁nin	-8.42988
▁Santa	-8.43654
▁antigo	-8.4427
▁são	-8.44387
em	-8.44612
▁principa	-8.44913
lo	-8.45166
▁casa	-8.45343
▁pai	-8.45877
▁sempre	-8.461
▁V	-8.46266
neiro	-8.46684
ra	-8.4669
to	-8.46817
na	-8.47
▁197	-8.4757
▁conta	-8.47828
▁tarde	-8.47899
▁Non	-8.48401
▁fai	-8.48707
▁media	-8.49064
▁R	-8.49667
▁191	-8.5007
▁álbum	-8.50384
oeste	-8.50486
▁Entre	-8.50499
▁algunha	-8.50502
▁si	-8.50813
ca	-8.5083
▁principio	-8.5096
▁qu	-8.51184
▁15	-8.51526
▁fin	-8.51618
▁Así	-8.51712
▁el	-8.5183
▁fixo	-8.52367
▁Ao	-8.52643
▁fazer	-8.52753
ai	-8.52754
▁preto	-8.53095
an	-8.5372
▁propio	-8.53969
▁Santi	-8.54261
▁maio	-8.54458
▁Imperio	-8.54861
▁éxito	-8.54965
▁estes	-8.55012
▁coñecida	-8.55022
▁palabra	-8.55279
▁total	-8.55646
▁setembro	-8.56479
▁actividade	-8.56612
gosto	-8.5666
▁Mar	-8.56814
▁primeiros	-8.57239
▁común	-8.574
▁carreira	-8.57526
▁estrutura	-8.57864
▁igrexa	-8.57891
▁30	-8.58219
▁Guerra	-8.58322
▁chegar	-8.58326
▁mellor	-8.58355
▁leste	-8.58394
▁6	-8.5864
▁partido	-8.58867
▁quen	-8.58872
ubro	-8.58974
▁meu	-8.59286
embro	-8.59294
▁sería	-8.5976
tão	-8.59949
▁popular	-8.59972
▁fora	-8.59999
▁música	-8.60064
▁out	-8.60108
▁finais	-8.60204
▁pobo	-8.60281
▁oficial	-8.60302
▁cinco	-8.60426
▁abril	-8.60446
▁1999	-8.60471
▁N	-8.60565
▁obras	-8.60778
▁Terra	-8.61014
í	-8.61222
▁Universidade	-8.61332
▁dec	-8.61395
▁atópa	-8.61528
▁190	-8.61845
▁título	-8.61906
▁di	-8.61951
▁construción	-8.62055
▁Gran	-8.6218
▁área	-8.62305
▁presidente	-8.62341
▁liña	-8.62691
▁exército	-8.62701
▁hoxe	-8.62708
le	-8.63089
▁converteu	-8.63277
▁importantes	-8.63461
nos	-8.63854
▁cambio	-8.63934
▁reino	-8.64047
▁década	-8.6414
g	-8.64285
lle	-8.64299
no	-8.6435
▁tempada	-8.64584
▁superficie	-8.64628
▁desenvolvemento	-8.6467
▁tras	-8.65009
▁novembro	-8.65803
▁estilo	-8.66125
▁Reino	-8.66287
▁dereito	-8.66558
▁disco	-8.66605
xe	-8.66967
▁movemento	-8.67139
▁Eu	-8.67493
▁vai	-8.67759
▁propia	-8.67766
h	-8.68035
▁Despo	-8.68276
▁t	-8.68277
▁chegou	-8.68451
▁corpo	-8.68758
▁algo	-8.68759
▁produción	-8.69376
▁termo	-8.69385
▁2004	-8.69398
▁estas	-8.69449
▁planta	-8.69451
▁calquer	-8.7008
▁teoría	-8.7046
▁febre	-8.70628
▁María	-8.70634
▁estudo	-8.70683
▁República	-8.71058
▁conxunto	-8.7175
▁agora	-8.72005
▁función	-8.72369
▁25	-8.72449
▁servizo	-8.72503
▁Madrid	-8.72578
▁última	-8.72578
▁Poré	-8.72597
▁El	-8.73194
▁fonte	-8.73291
▁metros	-8.73384
▁pasou	-8.73453
il	-8.73506
▁chamada	-8.7351
▁12	-8.73641
▁Ten	-8.73658
▁inglés	-8.73969
▁temperatura	-8.74278
▁Roma	-8.74284
▁idea	-8.74361
▁cidades	-8.74363
▁influencia	-8.74471
▁galega	-8.7459
▁campo	-8.74599
é	-8.75011
▁membros	-8.75158
▁franc	-8.75797
▁estar	-8.75831
▁grupos	-8.75872
▁orde	-8.75923
▁re	-8.76041
▁L	-8.77128
▁neste	-8.77139
▁sup	-8.77558
▁meses	-8.7759
▁arte	-8.77992
▁alto	-8.78066
▁Alema	-8.78138
▁ós	-8.78147
▁Pero	-8.7821
▁tal	-8.7826
ín	-8.78283
▁industria	-8.78375
▁versión	-8.78389
osé	-8.78457
▁nós	-8.78636
▁social	-8.78834
▁Co	-8.79016
▁Partido	-8.79113
▁2006	-8.7946
▁posúe	-8.7964
▁comezo	-8.79665
ing	-8.79684
▁7	-8.79945
▁cor	-8.80073
▁Premio	-8.80112
▁libro	-8.80268
▁fronte	-8.80419
▁papel	-8.80483
▁ela	-8.80557
▁nivel	-8.80565
▁único	-8.80719
▁in	-8.80919
dade	-8.81169
▁apenas	-8.81276
▁alemán	-8.81292
▁militar	-8.81504
▁nunca	-8.81751
▁alta	-8.82097
▁político	-8.82107
▁costa	-8.82262
▁ca	-8.82345
▁enerxía	-8.82539
▁acordo	-8.82893
▁canción	-8.82973
▁Illa	-8.83355
▁me	-8.83411
▁altura	-8.83412
▁lado	-8.83524
▁Mundial	-8.83628
in	-8.83989
▁2005	-8.83998
▁volta	-8.84022
▁interior	-8.84048
▁tan	-8.84128
▁posto	-8.84252
▁pois	-8.84255
▁8	-8.84476
▁irmán	-8.84604
▁antiga	-8.84613
▁Está	-8.8499
▁XIX	-8.85011
▁há	-8.85017
▁cantidade	-8.85051
▁pesar	-8.85139
▁efecto	-8.85307
▁Unió	-8.85351
▁luz	-8.85437
▁característica	-8.85614
▁etc	-8.85746
▁podemos	-8.85758
▁América	-8.85786
ista	-8.85987
▁G	-8.86087
▁posición	-8.86163
▁14	-8.86165
▁Sur	-8.86265
▁temos	-8.86285
frica	-8.86469
▁espazo	-8.86569
▁aparece	-8.86703
zo	-8.86913
▁central	-8.86933
▁Norte	-8.87329
▁mil	-8.87373
▁11	-8.87721
▁XX	-8.87764
▁española	-8.87933
▁17	-8.88059
▁chega	-8.88085
▁Italia	-8.88489
▁emperador	-8.88494
▁obxecto	-8.88669
▁canto	-8.88885
▁U	-8.89044
▁situada	-8.89129
▁18	-8.89564
▁d	-8.90197
▁pequeno	-8.90209
dos	-8.90235
▁finado	-8.9024
▁imaxe	-8.90257
▁situación	-8.9033
▁eleccións	-8.90689
▁clase	-8.90854
▁sexa	-8.90855
▁Não	-8.91067
▁comeza	-8.9111
▁morre	-8.91151
▁iso	-8.9122
▁sua	-8.91502
▁minha	-8.91506
▁única	-8.9155
▁2007	-8.9162
▁batalla	-8.91684
▁real	-8.91712
III	-8.91905
▁elementos	-8.9215
▁entidades	-8.92287
d	-8.92566
▁significa	-8.92703
▁organización	-8.93007
▁seguintes	-8.93176
eran	-8.93217
▁Coruñ	-8.93467
f	-8.93748
▁c	-8.93845
▁problemas	-8.93865
▁lugares	-8.94044
b	-8.94063
▁romano	-8.94141
▁16	-8.94194
▁189	-8.94364
▁nada	-8.94477
▁posible	-8.94746
▁pasa	-8.9478
▁mundial	-8.94874
▁dicir	-8.95104
▁50	-8.95169
▁texto	-8.9528
▁control	-8.95537
▁comarca	-8.95706
▁nesta	-8.95708
▁particular	-8.95838
▁resultado	-8.95985
▁data	-8.96023
ería	-8.96102
▁normal	-8.96158
▁Pedro	-8.96751
▁economía	-8.96929
▁baixa	-8.9704
▁grego	-8.9719
▁causa	-8.97335
▁nossa	-8.97505
ez	-8.97621
▁Nacional	-8.97811
▁of	-8.97963
▁superior	-8.97989
▁nosso	-8.98189
▁for	-8.98488
▁valor	-8.98571
▁ciencia	-8.98645
▁existe	-8.98717
mediante	-8.98744
▁cargo	-8.98795
▁Son	-8.99008
▁forte	-8.99738
▁13	-8.99993
▁Tras	-9.00133
▁lista	-9.00195
▁cale	-9.00321
▁metade	-9.00506
▁problema	-9.00575
▁situado	-9.00724
ado	-9.00744
ria	-9.00863
▁animais	-9.01122
▁programa	-9.01252
▁recibi	-9.01278
▁tropa	-9.01361
▁considerado	-9.01419
▁xogo	-9.01448
▁Nos	-9.01603
▁natural	-9.01753
▁186	-9.01931
onso	-9.01936
ina	-9.01985
▁medida	-9.0204
▁condición	-9.02047
▁persoa	-9.0216
▁permite	-9.02176
istoria	-9.02406
▁capacidade	-9.02496
▁Carlo	-9.02641
▁localiza	-9.02699
▁diverso	-9.02858
co	-9.03084
▁distribuído	-9.03639
▁aproximadamente	-9.03792
x	-9.03919
▁9	-9.03985
▁sector	-9.04034
redor	-9.04378
estivo	-9.04381
én	-9.0442
▁2000	-9.04481
▁Cand	-9.04605
▁24	-9.04691
▁español	-9.04848
▁película	-9.04848
▁París	-9.0485
▁Outro	-9.04958
▁británico	-9.05007
▁orixinal	-9.05157
▁tód	-9.05219
▁Inglaterra	-9.05379
▁sociedade	-9.05482
▁modo	-9.05549
▁estadounidense	-9.05645
▁escola	-9.0566
▁deles	-9.05734
▁proxecto	-9.0577
▁Igrexa	-9.05912
▁vila	-9.06271
▁21	-9.06369
▁internacional	-9.06771
▁tem	-9.07147
▁formación	-9.07198
▁Ne	-9.07386
▁acción	-9.07406
▁público	-9.07537
▁estão	-9.07803
▁seis	-9.07817
▁Ca	-9.07919
▁axuda	-9.07988
▁realidade	-9.08036
va	-9.0808
▁paso	-9.08583
▁novas	-9.08666
▁presen	-9.08754
ce	-9.08766
▁menor	-9.08829
▁apoio	-9.0888
▁igual	-9.08881
▁188	-9.0897
▁187	-9.09085
▁propiedade	-9.09172
▁estudos	-9.09199
▁ocasión	-9.09228
GE	-9.09333
▁importancia	-9.09342
▁100	-9.09419
▁Des	-9.09678
▁membro	-9.09822
▁tamaño	-9.09893
▁libre	-9.10027
▁2003	-9.10039
▁porto	-9.10051
▁também	-9.10118
▁tradición	-9.10345
▁voc	-9.1049
▁autor	-9.10601
▁Ba	-9.10683
▁22	-9.10846
▁tradicional	-9.10848
arzo	-9.10863
oloxía	-9.10934
▁bastante	-9.11013
ri	-9.11148
icamente	-9.11217
este	-9.11295
▁local	-9.11503
▁xénero	-9.11576
▁idade	-9.11597
▁maiores	-9.11756
▁falar	-9.11888
▁Portugal	-9.11916
▁come	-9.12
▁Real	-9.1217
▁diversas	-9.122
▁modelo	-9.12201
▁europeo	-9.12314
▁clima	-9.12371
▁ele	-9.12454
▁Unido	-9.12474
▁obxectivo	-9.12495
▁nacional	-9.12548
▁dar	-9.12589
▁vitoria	-9.12771
▁referencia	-9.12886
▁Xo	-9.1298
▁finalmente	-9.13057
▁sentido	-9.13263
nte	-9.13444
▁40	-9.13675
▁Re	-9.13774
▁filme	-9.13824
▁comunidade	-9.13896
▁debe	-9.14197
▁Ma	-9.14377
p	-9.14625
▁interese	-9.14738
▁coisas	-9.14853
tín	-9.14895
▁elixido	-9.14973
▁maneira	-9.15098
▁p	-9.1553
▁diminu	-9.15634
▁xogador	-9.1578
▁nomeado	-9.16203
▁papa	-9.16462
▁director	-9.16553
▁velocidade	-9.16742
▁Bo	-9.17106
▁Al	-9.17109
▁cabo	-9.17111
▁19	-9.17479
▁existen	-9.17655
▁loita	-9.17712
▁23	-9.17737
▁Existe	-9.17763
▁referir	-9.18501
▁Le	-9.18517
ga	-9.18571
▁francesa	-9.18733
▁segue	-9.18741
▁Castela	-9.18746
▁publicou	-9.18797
▁xira	-9.18921
▁dato	-9.1896
gún	-9.18979
ac	-9.19011
▁novela	-9.19176
▁dirección	-9.19224
▁revista	-9.19277
▁Neste	-9.19423
ne	-9.19429
ohn	-9.19432
▁masa	-9.19531
▁arredor	-9.1961
▁verán	-9.19614
▁letra	-9.1977
re	-9.19943
▁núcleo	-9.20135
▁casos	-9.20296
▁grazas	-9.2035
▁Rus	-9.20391
▁levou	-9.20746
▁vista	-9.21012
▁Logo	-9.2107
▁creación	-9.21075
▁civil	-9.21179
▁the	-9.21195
▁27	-9.2121
▁Do	-9.21228
▁proba	-9.21361
▁boa	-9.21397
▁Manuel	-9.21752
▁ante	-9.21775
▁Af	-9.21867
▁información	-9.21908
▁ir	-9.21909
▁conseguiu	-9.21921
▁Rei	-9.21963
▁183	-9.21997
▁Gali	-9.22111
▁crecemento	-9.22128
▁Outra	-9.22134
▁Algún	-9.22328
▁184	-9.22335
▁escrito	-9.22414
▁sete	-9.22618
▁formar	-9.22841
▁Riso	-9.23095
▁incluíndo	-9.23139
▁Da	-9.2328
▁material	-9.23301
▁primeiras	-9.23369
▁xente	-9.23409
▁volveu	-9.23477
▁carácter	-9.2352
▁aqui	-9.23699
pto	-9.23754
▁independen	-9.23765
que	-9.23929
▁municipal	-9.23936
▁viaxe	-9.24166
▁Estas	-9.24335
▁económico	-9.24353
▁Vig	-9.24412
are	-9.24428
▁usar	-9.24432
ma	-9.24433
▁nai	-9.24465
▁levar	-9.24467
mbos	-9.2448
▁futuro	-9.24489
▁rede	-9.24653
▁novos	-9.2472
▁Xa	-9.24901
▁natureza	-9.24998
▁humanos	-9.25057
▁camiño	-9.25323
▁Francisco	-9.25323
▁lei	-9.25355
▁mercado	-9.25471
▁esa	-9.2558
▁Compostela	-9.25595
▁concepto	-9.25908
▁humano	-9.25934
▁60	-9.25945
▁Paul	-9.26015
▁occidental	-9.26022
▁práctica	-9.26038
▁compañía	-9.26169
▁fundamental	-9.26186
ante	-9.26366
tanto	-9.26384
▁marca	-9.26521
▁alí	-9.26668
▁independente	-9.26676
▁pelo	-9.26693
▁XVIII	-9.26844
▁edición	-9.26895
▁Di	-9.26905
▁India	-9.26915
▁terceiro	-9.26959
ión	-9.27235
▁Fernand	-9.27583
▁China	-9.27695
▁composto	-9.27761
▁respecto	-9.27886
▁Castro	-9.27888
▁2001	-9.28062
▁realizar	-9.2811
▁28	-9.28169
▁coisa	-9.28186
▁Má	-9.28701
▁colonia	-9.2877
▁26	-9.28799
▁Antoni	-9.28868
▁difícil	-9.28891
▁man	-9.2899
▁2002	-9.29001
▁produtos	-9.29407
▁crítica	-9.2943
▁filla	-9.29486
▁fose	-9.29625
▁exterior	-9.29769
▁dá	-9.29793
▁29	-9.29942
▁Segunda	-9.30075
▁romana	-9.30093
▁adoita	-9.30141
▁conseguir	-9.30398
▁escritor	-9.30465
▁sede	-9.30486
▁leva	-9.30772
▁simple	-9.3096
▁montaña	-9.31137
▁pequenos	-9.31207
▁Ro	-9.31308
▁fan	-9.31338
▁inverno	-9.31411
▁gañou	-9.31964
▁pintura	-9.32103
▁escrita	-9.32172
▁razón	-9.3218
▁verdade	-9.32189
olos	-9.32376
▁consecuencia	-9.32381
▁frecuente	-9.32414
▁185	-9.32418
▁cabeza	-9.32424
▁numeroso	-9.32451
ces	-9.32596
▁será	-9.32724
vi	-9.32887
▁León	-9.32965
▁temas	-9.3313
▁longa	-9.33149
▁investigación	-9.33392
▁condado	-9.33434
▁existencia	-9.33497
▁continua	-9.3357
uan	-9.33611
it	-9.33643
▁literatura	-9.33715
pi	-9.33775
▁figura	-9.33857
▁num	-9.34055
▁resposta	-9.34138
vos	-9.34173
▁división	-9.34352
go	-9.34567
▁2008	-9.34618
▁avión	-9.34669
▁80	-9.34871
▁podem	-9.34876
▁linguaxe	-9.35154
▁realmente	-9.35203
▁premio	-9.35208
▁soa	-9.35225
▁estados	-9.35455
▁variedade	-9.35494
▁noite	-9.35535
▁motivo	-9.35568
▁recente	-9.35809
▁Era	-9.3593
▁diferente	-9.36137
▁Deus	-9.36316
▁destas	-9.36488
▁campaña	-9.36505
▁País	-9.36581
.	-9.36588
▁concerto	-9.36614
▁distancia	-9.36944
dor	-9.36972
▁pasar	-9.37
el	-9.37113
▁certo	-9.37203
▁Ele	-9.37656
▁áreas	-9.3767
▁ling	-9.37725
▁Nesta	-9.379
▁pedra	-9.37903
ceu	-9.38121
▁van	-9.38183
▁comercial	-9.38257
▁empresa	-9.38297
▁tema	-9.38312
▁voto	-9.38415
▁distinta	-9.38485
▁lonxitude	-9.38485
▁estrada	-9.38635
▁dólares	-9.38676
▁económica	-9.38687
▁Aplausos	-9.38688
▁deixou	-9.3871
▁aumento	-9.38741
▁roc	-9.38978
▁comunicación	-9.39133
▁Todo	-9.39213
▁dominio	-9.39303
▁atopa	-9.3942
▁branco	-9.39452
▁depois	-9.39531
▁sistemas	-9.39531
▁fór	-9.39638
▁células	-9.39706
▁1990	-9.39752
▁terceira	-9.39827
▁manter	-9.39877
▁horas	-9.39878
▁onda	-9.40004
▁club	-9.40052
▁cerca	-9.40075
▁distinto	-9.40127
▁2014	-9.40133
▁ministro	-9.40203
▁había	-9.40453
▁militares	-9.40533
▁conserva	-9.40615
▁parece	-9.40659
▁dizer	-9.40668
pa	-9.40695
▁tomar	-9.40886
▁crear	-9.40907
▁formas	-9.40968
▁mal	-9.4098
bol	-9.40996
▁miúdo	-9.41035
▁Santo	-9.41315
▁mor	-9.41553
▁Ben	-9.4157
▁relativa	-9.41957
▁Xap	-9.4198
▁ampla	-9.42018
▁IV	-9.42074
ban	-9.42141
▁diferenza	-9.42142
▁próximo	-9.42182
▁madeira	-9.42185
▁similar	-9.42195
▁Nas	-9.42297
▁Brasil	-9.42402
▁pensar	-9.4241
▁coñecemento	-9.42459
▁física	-9.42575
▁Barcelon	-9.42719
▁Internacional	-9.42728
▁etapa	-9.42875
▁alimento	-9.42966
▁inicio	-9.43017
▁doutro	-9.43108
ti	-9.43139
▁símbolo	-9.43185
▁semellante	-9.4382
▁Londres	-9.43888
▁distrito	-9.43964
▁humana	-9.43965
das	-9.44106
▁atopar	-9.4417
▁planeta	-9.44173
▁pódes	-9.44287
▁organismo	-9.44356
▁festa	-9.44358
▁500	-9.44388
ard	-9.44534
▁recibe	-9.44749
▁cultural	-9.44785
▁italiano	-9.44907
▁...	-9.44907
di	-9.45069
▁Exi	-9.4507
▁comercio	-9.45146
▁mediado	-9.45268
▁31	-9.45282
▁partidos	-9.45288
▁70	-9.45421
▁chegada	-9.45541
▁podería	-9.45636
▁fenómeno	-9.45699
▁peza	-9.45726
▁fronteira	-9.45882
▁disse	-9.45923
▁estava	-9.46058
▁falta	-9.46218
▁realizou	-9.46258
▁relixión	-9.46258
▁seguir	-9.46271
▁carga	-9.46436
▁esquerda	-9.46444
▁Baixo	-9.46501
▁Casa	-9.46544
▁2010	-9.46907
▁90	-9.46944
▁curso	-9.47046
▁pouca	-9.47144
▁tiver	-9.47251
▁televisión	-9.47466
▁numa	-9.47509
▁musical	-9.47547
▁gas	-9.4756
▁pela	-9.47691
▁2009	-9.47763
ei	-9.47858
▁xeneral	-9.47928
▁fondo	-9.47933
▁Lug	-9.48026
▁formula	-9.4803
▁locais	-9.48034
ro	-9.4805
ada	-9.4809
▁2013	-9.4812
▁Monte	-9.48143
▁elemento	-9.4841
▁Xe	-9.485
▁histórico	-9.48525
▁ve	-9.4861
▁quilómetros	-9.48688
▁monte	-9.48694
▁mes	-9.48731
▁Nun	-9.48856
▁tinha	-9.48947
▁comezar	-9.49139
▁profesor	-9.49159
▁puid	-9.49331
▁escribiu	-9.49475
▁enfermidade	-9.49512
▁Consello	-9.49685
▁mosteiro	-9.49766
▁181	-9.49782
▁ouro	-9.49784
▁decidiu	-9.49847
▁podía	-9.50029
▁elas	-9.50086
▁entrada	-9.50131
▁transporte	-9.50259
▁porta	-9.50259
▁pertencente	-9.50314
▁categoría	-9.50343
▁certa	-9.50352
▁estamos	-9.50371
▁Media	-9.50415
▁2011	-9.50425
▁bem	-9.50468
▁dia	-9.50516
▁composición	-9.50549
▁oito	-9.50614
▁presenta	-9.50711
▁rúa	-9.50939
▁reinado	-9.51019
▁unidade	-9.5111
▁institución	-9.5118
▁traballar	-9.51403
▁saúde	-9.51519
▁Val	-9.51523
▁bo	-9.51607
▁producir	-9.51681
▁europea	-9.51685
▁Grande	-9.51694
▁fala	-9.51759
▁próxima	-9.51769
▁Constitución	-9.51941
▁bispo	-9.52023
▁tudo	-9.52027
▁presión	-9.52035
▁publicación	-9.52077
bo	-9.52123
▁numerosas	-9.52156
▁sociais	-9.52194
▁árbore	-9.52202
▁altitude	-9.52363
▁padrón	-9.52463
▁completa	-9.52528
▁voo	-9.5256
aña	-9.52584
▁escala	-9.52607
onia	-9.5263
▁destaca	-9.5267
▁Sol	-9.52675
▁réxime	-9.52705
▁permanece	-9.52806
▁Final	-9.52823
▁200	-9.52873
▁viu	-9.52944
▁Ouren	-9.53053
▁xefe	-9.5306
▁representa	-9.53088
▁depende	-9.53193
▁forman	-9.53256
▁utiliza	-9.53348
▁soldado	-9.53506
▁deixar	-9.53541
pe	-9.53546
▁utilizado	-9.53576
▁180	-9.53609
▁capela	-9.53674
▁entrar	-9.53878
▁Coa	-9.53901
ram	-9.53992
▁inferior	-9.54166
▁1991	-9.54211
▁deseño	-9.544
▁límite	-9.54513
cio	-9.54624
▁cuarto	-9.54861
▁habitual	-9.54874
▁Polo	-9.55016
▁obter	-9.55052
▁grao	-9.55128
▁materia	-9.55133
▁templo	-9.55158
▁Actual	-9.55328
▁México	-9.55386
▁frecuencia	-9.55434
▁teatro	-9.55475
▁tratado	-9.55491
▁poeta	-9.55511
▁formado	-9.55521
▁constitúe	-9.55825
▁Vila	-9.56009
ge	-9.56026
▁quedou	-9.56063
▁VI	-9.56087
▁ningunha	-9.56091
gora	-9.56234
▁considerada	-9.56319
nce	-9.56376
▁selección	-9.56554
▁estación	-9.56586
▁calidade	-9.56647
▁XVI	-9.56799
▁bosque	-9.57061
▁cuxa	-9.57067
▁beira	-9.57072
▁piloto	-9.57135
▁pro	-9.57153
▁Ram	-9.572
▁claro	-9.57428
uando	-9.57595
▁produto	-9.57625
▁entrou	-9.5764
▁1980	-9.57692
arr	-9.57731
▁182	-9.57824
▁libros	-9.57943
ell	-9.57977
▁presente	-9.58016
ontevedr	-9.58226
lí	-9.58254
▁vía	-9.58395
▁mans	-9.58439
▁municipio	-9.58503
▁obtiv	-9.58619
▁evitar	-9.58825
▁nese	-9.58858
▁Mi	-9.58946
▁famoso	-9.58956
▁liga	-9.59255
▁trono	-9.59414
▁posibilidade	-9.59778
xo	-9.59804
▁crise	-9.59869
utores	-9.59894
▁liberdade	-9.59961
▁naturais	-9.59961
▁Fran	-9.60395
▁radio	-9.60413
▁Galega	-9.60421
▁franceses	-9.60423
▁delas	-9.60513
▁metal	-9.60585
▁relixiosa	-9.60642
▁líder	-9.60718
▁Congreso	-9.6079
▁imperio	-9.60884
ó	-9.60905
▁ataque	-9.60958
▁terreo	-9.60976
▁método	-9.61011
▁derrota	-9.61069
▁representación	-9.61076
▁1995	-9.61347
ha	-9.61441
▁ácido	-9.61488
▁cuxo	-9.6163
▁empresas	-9.61676
▁essa	-9.61686
▁defensa	-9.61702
▁Go	-9.61725
▁Filip	-9.61753
▁séculos	-9.61862
nia	-9.61877
▁Canadá	-9.61909
▁sinxelo	-9.61939
ler	-9.6209
▁peso	-9.62126
▁constante	-9.62242
▁Australia	-9.624
▁Goberno	-9.62564
▁houb	-9.62592
▁química	-9.62658
eira	-9.62659
▁evolución	-9.62682
ic	-9.62983
▁creou	-9.62987
▁encontro	-9.63016
▁formada	-9.63038
ría	-9.631
▁x	-9.63107
▁moderna	-9.63154
▁inclúe	-9.6318
amente	-9.63275
▁contacto	-9.63309
▁XVII	-9.63511
▁del	-9.63623
▁aire	-9.63654
▁potencia	-9.63764
▁castelán	-9.63766
▁castelo	-9.63796
▁necesidade	-9.63892
▁enorme	-9.63907
▁universidade	-9.63987
▁expedición	-9.64057
▁1998	-9.64083
▁aquela	-9.6421
▁cadea	-9.64276
▁folla	-9.64311
▁desenvolver	-9.64331
▁torre	-9.64342
▁Miguel	-9.6437
▁expresión	-9.64374
▁150	-9.64411
▁produciu	-9.64413
ela	-9.64415
▁1996	-9.64466
▁formou	-9.64467
▁and	-9.64564
▁mostra	-9.6461
▁agricultura	-9.64694
tendo	-9.64711
ton	-9.64788
▁doutra	-9.64854
ido	-9.6491
▁Academia	-9.64964
▁precisa	-9.6508
▁corrente	-9.65239
▁plano	-9.65381
▁acto	-9.65399
▁vexeta	-9.65604
▁Ante	-9.65622
▁venda	-9.65696
▁busca	-9.65772
ndia	-9.65856
▁océano	-9.65894
▁extensión	-9.65917
▁conflito	-9.66076
▁aplicación	-9.66088
▁edificio	-9.6612
▁educación	-9.66151
▁filosofía	-9.66216
▁Lugar	-9.66227
▁publicado	-9.66238
C	-9.66244
▁alguma	-9.66281
▁ruso	-9.66407
▁ambiente	-9.6647
▁aves	-9.66481
▁lago	-9.66543
▁persoal	-9.6658
▁nave	-9.66808
▁sido	-9.66823
▁leis	-9.66997
▁Robert	-9.67044
▁armas	-9.67221
▁arquitectura	-9.67233
▁Man	-9.67276
▁amigo	-9.67312
▁val	-9.67522
▁muita	-9.67588
▁assim	-9.67637
▁1994	-9.67984
▁Río	-9.6799
▁conquista	-9.68
▁pública	-9.68047
▁termos	-9.68153
▁paz	-9.68171
▁recursos	-9.68246
▁materiais	-9.68318
▁empregado	-9.68346
▁caza	-9.68371
▁Cada	-9.68452
▁ainda	-9.68457
▁británica	-9.68482
▁probable	-9.68497
▁fút	-9.68577
▁Su	-9.68759
▁Luís	-9.68784
▁capa	-9.69067
▁volver	-9.69157
▁melhor	-9.69177
▁carta	-9.69202
▁histórica	-9.69386
▁Constantino	-9.69386
▁dinastía	-9.69388
▁alemá	-9.69402
▁vivi	-9.69488
ntes	-9.69491
▁coñece	-9.69551
▁trabalho	-9.69719
▁medieva	-9.69722
▁Ment	-9.69821
▁participo	-9.69851
▁topónimo	-9.69892
ámos	-9.69937
▁industrial	-9.69938
▁grega	-9.69993
▁invasión	-9.69994
▁mestre	-9.69998
▁fase	-9.7008
▁Garc	-9.70155
▁veciño	-9.70298
▁experiencia	-9.703
▁máximo	-9.70301
▁oriental	-9.70306
▁duro	-9.70317
▁volume	-9.704
▁semana	-9.70421
▁árabe	-9.70437
▁sufri	-9.7045
▁clasificación	-9.70526
▁cobre	-9.70637
eb	-9.70755
▁políticos	-9.70886
▁branca	-9.7091
▁rapidamente	-9.71013
▁voz	-9.71039
▁tr	-9.71058
▁Europea	-9.71275
▁Me	-9.71309
▁per	-9.71389
▁oposición	-9.71513
▁reacción	-9.71527
▁individuo	-9.7163
▁cría	-9.71653
tra	-9.71661
▁significado	-9.7169
▁motor	-9.71762
▁completamente	-9.71812
▁dereita	-9.71899
▁golpe	-9.7192
▁facto	-9.71929
▁distribución	-9.7194
▁ho	-9.71975
▁extremo	-9.72031
▁Bret	-9.72224
▁relixioso	-9.72275
▁Alexandr	-9.72297
▁aparición	-9.72317
▁directamente	-9.72322
▁totalmente	-9.72451
▁artigo	-9.72587
▁físico	-9.72875
▁cultivo	-9.72876
▁pé	-9.73011
▁actor	-9.73048
▁amor	-9.73292
▁aparecen	-9.73372
▁favor	-9.73386
roeste	-9.73401
ir	-9.73405
▁Catalu	-9.73441
use	-9.73552
▁intento	-9.73569
▁composta	-9.73609
▁trala	-9.73623
▁mando	-9.73639
▁gañar	-9.73644
▁1997	-9.73714
▁península	-9.73828
▁pertence	-9.73877
ira	-9.73881
▁código	-9.74033
▁resistencia	-9.74141
▁baseada	-9.74214
▁tempos	-9.74344
▁densidade	-9.74359
▁gobernador	-9.74362
▁300	-9.74477
▁compoñente	-9.74685
▁Lei	-9.74699
▁1960	-9.74701
▁resultados	-9.74888
▁sol	-9.75029
rio	-9.75039
▁sitio	-9.75093
▁Presidente	-9.75102
▁dura	-9.75153
▁dez	-9.75194
▁Algunha	-9.75224
▁aí	-9.75235
ueste	-9.75247
▁pre	-9.75401
▁Parlament	-9.75416
▁factor	-9.75478
▁facend	-9.75487
▁fíxo	-9.7555
▁toma	-9.75739
tivo	-9.7578
▁idioma	-9.75843
▁macho	-9.75844
▁órgano	-9.75845
▁representante	-9.75856
▁sem	-9.75913
▁máxima	-9.75951
▁saber	-9.76071
▁doce	-9.76084
▁canle	-9.76176
▁consiste	-9.76197
ter	-9.762
▁aldea	-9.76275
▁continente	-9.76345
▁ciclo	-9.76359
▁ADN	-9.76383
▁nace	-9.76402
▁Xogo	-9.76406
▁hora	-9.76437
▁ponte	-9.76452
▁poesía	-9.76492
▁matrimonio	-9.76503
▁contido	-9.76548
▁corte	-9.76647
▁desenvolveu	-9.76659
tón	-9.76899
▁terrestre	-9.76925
▁Copa	-9.76947
▁escolas	-9.77014
▁pensamento	-9.77048
▁administración	-9.77054
▁tratamento	-9.77067
▁par	-9.77122
▁Pola	-9.77123
▁femia	-9.77252
▁escribir	-9.77345
▁perda	-9.77359
▁1993	-9.7747
▁estableceu	-9.77625
▁breve	-9.77689
▁ruta	-9.7769
▁marcha	-9.77729
v	-9.77778
▁publica	-9.77835
▁inclus	-9.77848
▁cae	-9.77863
▁1992	-9.77909
▁operación	-9.77947
▁g	-9.78013
▁Posterior	-9.78018
▁produce	-9.78085
vo	-9.78099
▁cousas	-9.78197
vamos	-9.78212
▁Ponte	-9.78223
▁In	-9.78247
▁inclúen	-9.78298
▁católica	-9.78349
▁dialecto	-9.78349
▁emprega	-9.78387
▁coroa	-9.78395
▁contén	-9.78461
▁Ra	-9.78528
▁activa	-9.78541
▁Debid	-9.78595
▁converter	-9.78615
▁po	-9.78678
▁decisión	-9.78682
▁tomou	-9.78716
▁Xeral	-9.78754
▁noutro	-9.78792
▁pais	-9.78892
▁sangue	-9.78901
▁asentamento	-9.78902
▁fundador	-9.78903
▁estudar	-9.78925
▁combate	-9.7894
▁suficiente	-9.78968
▁batería	-9.79029
▁practica	-9.79059
▁Pode	-9.79114
▁construído	-9.79139
▁1989	-9.79347
▁Popular	-9.79347
ario	-9.79408
▁Moito	-9.79482
▁vezes	-9.79557
▁honra	-9.79571
▁caída	-9.79571
▁Só	-9.79621
▁qualquer	-9.79681
▁XII	-9.79682
▁tecnoloxía	-9.79715
▁nenos	-9.79789
▁cámara	-9.79908
▁fundou	-9.7992
▁continuou	-9.79928
▁Cristo	-9.80219
▁minutos	-9.80316
▁oficiais	-9.80318
▁anual	-9.80363
▁establecer	-9.80409
▁Ed	-9.80424
▁apareceu	-9.80428
▁necesario	-9.80467
▁cristián	-9.80495
▁nove	-9.80619
▁crian	-9.80625
▁artistas	-9.80632
▁construír	-9.80642
▁b	-9.80739
▁Pacífico	-9.81032
▁Soviética	-9.81032
▁Arxentin	-9.81032
ver	-9.8124
▁milh	-9.81262
▁Mais	-9.81289
▁David	-9.81292
▁Par	-9.8133
▁nacemento	-9.81664
▁Porque	-9.81711
▁recoñecemento	-9.81727
▁definición	-9.81737
▁história	-9.81843
▁utilizar	-9.81848
▁comportamento	-9.81966
▁usado	-9.82033
pla	-9.82099
▁carne	-9.82158
▁trata	-9.82168
▁análise	-9.82244
▁Atlántico	-9.82287
▁35	-9.82303
▁Primeira	-9.82404
▁técnicas	-9.82456
▁179	-9.82467
ais	-9.82546
▁españo	-9.82547
▁Bro	-9.82559
▁36	-9.82597
bilidade	-9.8271
sús	-9.82757
▁Arte	-9.8276
▁nobre	-9.82881
▁praza	-9.82986
▁1936	-9.83011
▁substancia	-9.83057
▁Corte	-9.83074
▁2012	-9.83101
▁talvez	-9.83102
▁políticas	-9.8333
▁logrou	-9.83394
▁Em	-9.83426
▁revolución	-9.83471
▁procura	-9.83479
cm	-9.83567
▁raíña	-9.83572
▁ferro	-9.83598
▁procedente	-9.83606
▁escena	-9.83636
▁plan	-9.83844
▁chan	-9.8391
▁dobre	-9.83983
▁exemplar	-9.84022
▁cento	-9.84069
▁daquela	-9.84074
▁barrio	-9.84307
▁considerar	-9.84353
▁semanas	-9.84371
▁ideia	-9.84425
▁príncipe	-9.8449
▁calendario	-9.84491
▁xudeu	-9.84492
▁varía	-9.84511
▁técnica	-9.84552
▁denominado	-9.84569
▁faz	-9.84577
▁VII	-9.8458
▁Porto	-9.84687
▁amigos	-9.847
▁completo	-9.84857
▁tentar	-9.85143
et	-9.85153
▁fixer	-9.85169
▁sucesor	-9.85181
ística	-9.85247
tención	-9.85271
▁lenda	-9.85299
▁alfabeto	-9.85316
▁directo	-9.85353
▁acceso	-9.85427
qui	-9.85507
ill	-9.85529
▁inglesa	-9.85632
▁persa	-9.85639
ase	-9.85658
▁proposta	-9.85671
▁contrario	-9.85725
▁baseado	-9.8581
land	-9.85875
tase	-9.8588
▁historiador	-9.85894
▁iniciou	-9.85928
▁Austria	-9.85967
▁1986	-9.86027
▁consumo	-9.86037
▁arquipélago	-9.86122
▁saída	-9.8616
▁científica	-9.8618
▁mestura	-9.86238
man	-9.86282
▁científico	-9.86312
▁poida	-9.86371
▁Grec	-9.86508
▁participar	-9.86519
▁sección	-9.86531
▁denominación	-9.86549
▁continuar	-9.86576
▁proteínas	-9.86658
▁eléctrica	-9.86659
▁informa	-9.8667
▁clásica	-9.86744
▁esse	-9.86756
▁32	-9.87178
▁competición	-9.87265
órmula	-9.87342
▁actuación	-9.87514
▁Irland	-9.87588
▁personaxes	-9.876
▁coñecer	-9.87753
▁cine	-9.87836
▁hitita	-9.87952
▁sub	-9.87957
▁universo	-9.88073
▁ex	-9.88089
▁músico	-9.88195
▁selo	-9.88311
▁ocupa	-9.88363
▁Escola	-9.88576
▁lá	-9.88614
▁xeración	-9.88638
▁guitarra	-9.88683
▁indica	-9.88805
▁regreso	-9.88869
ouse	-9.88934
▁deporte	-9.88953
▁XIII	-9.89004
▁Isabel	-9.89052
124	-9.89075
▁relacionado	-9.89088
tr	-9.89128
▁censo	-9.892
▁parella	-9.89296
▁fundada	-9.89314
▁resulta	-9.89325
▁mellore	-9.89437
▁debía	-9.89446
▁cuestión	-9.89543
alifornia	-9.89543
▁ob	-9.89573
▁178	-9.89603
▁Pa	-9.89672
▁animal	-9.89686
▁muro	-9.89691
▁nalgún	-9.89792
amba	-9.89799
▁números	-9.89853
▁tale	-9.89907
eiro	-9.89995
▁unidades	-9.90077
▁queda	-9.90092
▁solar	-9.90111
ames	-9.90183
▁unión	-9.90232
▁descubrimento	-9.9043
ente	-9.90459
té	-9.90562
▁nación	-9.90586
▁177	-9.90674
▁Navarr	-9.90808
▁campionato	-9.90909
▁internacionais	-9.90911
ito	-9.91055
▁tendencia	-9.91062
▁Central	-9.9116
▁Oriente	-9.91264
▁coche	-9.91274
▁Revolu	-9.91278
▁anunciou	-9.91335
▁aspecto	-9.91384
▁tradicionais	-9.91537
▁respectiva	-9.91537
um	-9.91667
elmente	-9.91762
▁expansión	-9.9179
▁pasado	-9.91808
▁clásico	-9.91915
▁considera	-9.9195
▁global	-9.92014
▁1979	-9.92021
▁movementos	-9.92039
▁vivir	-9.92227
▁república	-9.92295
▁Museo	-9.92298
▁Nese	-9.9232
▁froito	-9.92325
lén	-9.92341
▁aquí	-9.92342
▁dirixida	-9.92429
▁evento	-9.92488
▁400	-9.92525
ci	-9.92526
▁aeroporto	-9.92549
▁estrelas	-9.92637
▁Mur	-9.92716
▁Centro	-9.92726
▁destacan	-9.92733
▁campos	-9.92751
▁partículas	-9.9276
▁cre	-9.92772
▁Fernández	-9.92807
▁duque	-9.92935
▁encontrar	-9.93025
alas	-9.93125
▁familiar	-9.93152
▁moeda	-9.93187
▁creado	-9.9323
▁columna	-9.93234
ino	-9.93269
▁noutra	-9.93316
▁aqueles	-9.9338
▁pesca	-9.93432
▁Escoc	-9.93439
▁45	-9.93445
▁le	-9.93458
▁Ata	-9.93468
▁autoridade	-9.93544
▁permanente	-9.93577
▁localidade	-9.93581
▁1982	-9.937
▁cá	-9.93761
▁risco	-9.93812
▁personaxe	-9.93815
ve	-9.93906
▁petróleo	-9.93957
▁fábrica	-9.94087
▁George	-9.94089
▁parque	-9.94098
▁contrato	-9.94135
▁americano	-9.94252
▁traballa	-9.94441
▁departamento	-9.94604
▁Primeiro	-9.94606
▁Pe	-9.9465
▁permitiu	-9.94732
▁soft	-9.94733
▁diante	-9.94756
▁cores	-9.94814
▁fachada	-9.94864
ctuais	-9.94876
▁deputado	-9.94915
▁Papa	-9.95134
▁musulmán	-9.95154
▁entra	-9.95207
▁calor	-9.95227
▁estudantes	-9.95306
▁interpretación	-9.95315
▁literaria	-9.95386
▁presentou	-9.95395
los	-9.95446
▁xurdi	-9.95461
▁segui	-9.95583
pre	-9.95693
▁municipa	-9.95718
▁nord	-9.9574
▁marco	-9.95749
▁0	-9.95769
▁famosa	-9.95779
▁aparecer	-9.95811
▁cuberta	-9.9591
▁destino	-9.95911
▁Pouco	-9.95916
▁vello	-9.95954
▁visión	-9.96064
▁sabe	-9.96067
▁chama	-9.96136
▁colección	-9.96168
guez	-9.96174
▁esposa	-9.96174
▁mim	-9.96211
▁consegue	-9.96314
▁Instituto	-9.96318
ch	-9.9635
▁edificios	-9.96375
▁Mali	-9.96435
▁negra	-9.9644
▁sitúa	-9.96525
▁Tratado	-9.96581
▁su	-9.96666
▁Trala	-9.96716
rem	-9.9678
▁irmá	-9.96868
▁necesaria	-9.96968
▁criar	-9.9698
▁estou	-9.96982
▁carbono	-9.97101
▁turismo	-9.97101
lla	-9.97103
▁provoc	-9.97218
ización	-9.97254
▁Nación	-9.97255
▁científicos	-9.97316
▁capaz	-9.97318
oxe	-9.97351
▁demasiado	-9.97501
▁artista	-9.97605
▁negro	-9.97724
eto	-9.97724
▁1985	-9.97768
▁relato	-9.97869
▁dirixido	-9.97918
▁impacto	-9.98079
▁Li	-9.98129
▁xornal	-9.9819
▁casou	-9.98193
▁Cor	-9.98216
▁vinte	-9.98331
ran	-9.98353
ania	-9.98418
▁compositor	-9.98442
▁deben	-9.98451
▁Romano	-9.98452
▁recibir	-9.98452
▁Luis	-9.98556
▁1987	-9.98575
ego	-9.9859
▁Liga	-9.98597
▁comida	-9.98628
▁vén	-9.98646
presión	-9.98648
▁usada	-9.98662
▁Israel	-9.9871
▁táboa	-9.98711
amp	-9.98737
▁dixo	-9.98741
▁portugu	-9.98753
▁escudo	-9.98768
IB	-9.98932
▁clara	-9.9899
▁viven	-9.99026
▁seguiu	-9.99045
▁realiza	-9.99089
ue	-9.99126
▁Sa	-9.99137
▁relacionada	-9.99141
▁dado	-9.99216
ragón	-9.99236
▁noso	-9.99249
▁aproba	-9.99281
▁Día	-9.99283
illiam	-9.99292
▁estranxeiro	-9.99389
▁ámbito	-9.99389
▁To	-9.99404
▁misión	-9.99507
▁Gu	-9.9956
trás	-9.9957
▁permitir	-9.99578
▁Española	-9.99634
▁usando	-9.99754
cos	-9.99775
▁perder	-9.9982
▁atrás	-9.99902
▁1983	-9.99935
▁Nó	-10.0001
▁pintor	-10.0003
▁vi	-10.0014
▁disto	-10.0021
▁curta	-10.0021
▁dificultade	-10.0022
quanto	-10.0026
▁casas	-10.0031
▁labor	-10.0032
▁ensino	-10.0039
lhe	-10.0041
G	-10.0043
▁75	-10.0058
▁inimigo	-10.0062
▁castro	-10.0066
▁então	-10.0083
▁esforzo	-10.0092
▁traballador	-10.0098
▁v	-10.0106
▁san	-10.0107
▁moderno	-10.0112
▁aberto	-10.0114
▁fe	-10.0121
▁estrela	-10.0122
▁seria	-10.0125
▁produtor	-10.0127
▁extrema	-10.0145
▁participación	-10.0148
▁Ministro	-10.0148
▁acontece	-10.0154
▁comerciais	-10.0159
▁Aten	-10.017
▁XV	-10.0173
▁visita	-10.0179
malia	-10.0181
▁ría	-10.0182
▁1988	-10.0187
▁denominada	-10.0189
▁pessoa	-10.0196
▁Ese	-10.0199
▁Sá	-10.0202
▁variante	-10.0207
▁mudar	-10.0227
▁bandeira	-10.0243
▁alguns	-10.0243
▁perdeu	-10.025
iano	-10.0261
▁Suec	-10.0262
▁determinado	-10.0266
▁taxa	-10.0267
▁compañeiro	-10.0271
▁contexto	-10.0271
ie	-10.0273
▁gaña	-10.0274
▁concentración	-10.0275
▁rápido	-10.0296
▁mostrar	-10.0297
▁comunista	-10.0316
▁Ela	-10.0318
▁vive	-10.0322
▁urbano	-10.0325
▁fortes	-10.0334
▁contar	-10.0335
▁obrigado	-10.0336
▁Toda	-10.0342
▁arquitecto	-10.0343
▁gregos	-10.0349
▁sala	-10.0351
▁Mo	-10.0354
▁acabou	-10.0357
▁modelos	-10.037
▁dividida	-10.037
▁fabrica	-10.0371
▁figuras	-10.0372
▁cidadán	-10.0374
▁contaba	-10.0375
▁variación	-10.0396
▁Asemblea	-10.0399
▁Internet	-10.0399
▁asociación	-10.0401
▁Cidade	-10.0402
▁barco	-10.0403
▁1976	-10.0408
▁atmosfera	-10.0413
▁precipitación	-10.0413
▁arco	-10.0428
▁constitución	-10.0431
▁deixa	-10.0442
ig	-10.0466
▁Cal	-10.0471
▁diso	-10.0473
▁usa	-10.0476
enínsula	-10.0483
▁pe	-10.0488
▁Martín	-10.0493
▁memoria	-10.0499
▁mozo	-10.0499
▁rematar	-10.0502
▁pista	-10.0506
▁f	-10.0508
▁1977	-10.0524
▁provoca	-10.0524
▁monarca	-10.0542
▁espa	-10.0546
▁continúa	-10.0547
▁substituído	-10.0547
▁descendente	-10.0548
▁vou	-10.0552
▁médico	-10.0555
▁dividido	-10.0557
▁estándar	-10.0557
▁nive	-10.0566
▁cantante	-10.0573
▁realizado	-10.0574
▁utilizada	-10.0599
▁catedral	-10.06
▁vivía	-10.0601
▁moléculas	-10.0613
▁38	-10.0621
▁ven	-10.0622
▁mm	-10.0631
▁33	-10.0632
▁complexo	-10.0632
▁recupera	-10.0633
▁activo	-10.0638
▁vento	-10.0641
▁poboado	-10.0643
▁1984	-10.0644
▁protección	-10.0644
▁simples	-10.0645
▁torno	-10.0647
▁aliado	-10.0647
▁menores	-10.0649
▁duas	-10.065
▁fundación	-10.0651
▁Torre	-10.0678
▁Deste	-10.0689
▁presidencia	-10.0703
▁dimensión	-10.0703
aría	-10.0709
▁EUA	-10.0732
▁Virxe	-10.0732
▁candidato	-10.0747
▁posesión	-10.0747
▁gravación	-10.0751
▁aumentar	-10.0753
iana	-10.0757
▁discurso	-10.0762
▁intención	-10.0765
▁Vi	-10.077
▁so	-10.0784
▁dela	-10.0786
▁décadas	-10.0789
▁Eduard	-10.0791
▁notable	-10.0791
▁Per	-10.0797
▁correspondente	-10.0797
▁curto	-10.0806
▁ocupación	-10.0813
travé	-10.0816
▁Exército	-10.0821
íxeno	-10.0821
▁medo	-10.0821
▁Novo	-10.0821
ccidente	-10.0825
▁segur	-10.0827
▁diferenzas	-10.083
▁Asturia	-10.0833
▁medicina	-10.0836
▁tecido	-10.0836
▁mandato	-10.0837
▁Trá	-10.0837
▁producido	-10.0842
▁raza	-10.0843
▁acabar	-10.0846
▁Xunta	-10.0852
▁Air	-10.0852
▁desaparece	-10.0853
▁motores	-10.0856
ica	-10.0857
▁frota	-10.0865
▁máquina	-10.0867
▁August	-10.087
▁altas	-10.0876
▁continenta	-10.0878
▁colaboración	-10.0896
▁aspectos	-10.0899
▁prové	-10.0907
▁nosa	-10.0907
▁ataques	-10.0907
▁destacar	-10.0924
▁verdadeira	-10.0927
▁Mil	-10.0934
▁antigas	-10.094
▁meirande	-10.094
,5	-10.0944
che	-10.0954
▁Club	-10.0955
▁rexistro	-10.0961
▁For	-10.0964
th	-10.0967
▁Albert	-10.0972
▁coñeceu	-10.0979
▁saír	-10.0984
▁pan	-10.0998
▁literario	-10.1001
▁XIV	-10.1001
▁ollo	-10.1004
▁Ar	-10.1007
▁preciso	-10.1008
▁tornou	-10.1013
cía	-10.1016
▁riqueza	-10.1016
▁residencia	-10.1018
▁valore	-10.1025
dores	-10.1032
▁comunidades	-10.1039
tar	-10.1039
tal	-10.1054
▁trazo	-10.1058
▁responsable	-10.1062
▁póden	-10.1062
▁nesa	-10.1064
▁tocar	-10.1068
▁participa	-10.1068
▁1974	-10.1072
▁2016	-10.1077
▁abundante	-10.108
▁Te	-10.1081
▁catalán	-10.1082
▁exposición	-10.1094
ong	-10.1095
ide	-10.1111
▁Um	-10.1118
▁instrumentos	-10.1124
▁Berl	-10.1127
▁falante	-10.113
▁chamar	-10.1131
▁cristiá	-10.1134
▁perde	-10.1135
▁filósofo	-10.1141
▁experimento	-10.1148
▁excepción	-10.1154
gar	-10.1164
▁duración	-10.1164
▁neno	-10.1166
▁1981	-10.1169
▁tradución	-10.1186
▁perigo	-10.1188
emos	-10.1188
▁construída	-10.1189
IX	-10.1191
▁1973	-10.1196
▁mantiv	-10.1196
▁aprender	-10.12
▁elección	-10.1206
▁profesional	-10.1212
▁Can	-10.1236
▁Bem	-10.1236
ita	-10.1238
▁ocorre	-10.1246
▁recoñecido	-10.1246
▁disputa	-10.1248
▁existía	-10.1249
tiva	-10.125
▁creada	-10.1255
▁célula	-10.1256
▁páxina	-10.1277
▁nacionalista	-10.1286
▁160	-10.129
tor	-10.129
▁instalación	-10.1297
▁consta	-10.1298
rez	-10.1306
▁morrer	-10.1309
nel	-10.1309
▁fic	-10.131
▁Olímpico	-10.1327
▁conde	-10.133
▁tenho	-10.133
▁demais	-10.1341
▁Island	-10.1341
boa	-10.1346
▁orixina	-10.135
▁monarquía	-10.1355
▁alcalde	-10.1356
▁nativo	-10.1358
▁ingles	-10.1366
▁2015	-10.1372
▁azul	-10.1388
▁poemas	-10.1398
▁trasladou	-10.14
▁democracia	-10.1404
▁feita	-10.1405
▁publicada	-10.1414
▁presentar	-10.1417
▁portuguesa	-10.1424
▁nela	-10.1425
▁crea	-10.1427
▁rápida	-10.1434
▁asunto	-10.1435
▁acadar	-10.1436
▁Miño	-10.144
▁Com	-10.1441
▁dados	-10.1443
▁bloque	-10.1446
SS	-10.1452
xa	-10.1454
▁métodos	-10.1459
▁Po	-10.1461
▁monumento	-10.1466
▁opinión	-10.1467
▁Sen	-10.1475
▁certas	-10.1476
▁lanzamento	-10.1483
▁radiación	-10.1485
enrique	-10.1486
bra	-10.1507
▁socialista	-10.1509
▁campión	-10.1513
▁Record	-10.1514
ú	-10.1523
▁acontecemento	-10.1533
riano	-10.1547
▁experi	-10.1551
▁círculo	-10.1554
▁cérebro	-10.1561
▁xeo	-10.1566
▁suma	-10.157
▁ocupar	-10.1572
▁muralla	-10.1578
▁Rodr	-10.1582
▁xogar	-10.1586
▁cruz	-10.1592
ol	-10.1596
▁Los	-10.16
▁xene	-10.1604
▁instrumento	-10.1608
▁rematou	-10.1609
▁revolta	-10.1609
▁usuario	-10.1609
▁Occidental	-10.161
▁pasaxeiro	-10.161
▁significativa	-10.1611
▁interna	-10.1613
▁presentan	-10.1614
▁reserva	-10.1617
▁Ver	-10.1627
▁42	-10.1632
tu	-10.1636
▁inicial	-10.1638
▁administrativa	-10.1642
▁deriva	-10.1651
bel	-10.1655
▁tratar	-10.1657
▁capitán	-10.1658
▁quero	-10.166
▁avance	-10.166
▁absoluta	-10.1672
▁paisaxe	-10.1674
▁formal	-10.1675
▁mulheres	-10.1676
▁facía	-10.1685
▁culto	-10.169
▁funciona	-10.1699
ean	-10.1701
ham	-10.1701
▁fácil	-10.1707
▁universal	-10.171
▁mellora	-10.171
▁Mediterráneo	-10.1723
▁episodio	-10.1723
▁prensa	-10.1723
▁Mor	-10.1725
▁verde	-10.1725
▁asasinado	-10.174
▁reforma	-10.175
▁formato	-10.1754
▁declarou	-10.1755
▁Cruz	-10.1756
▁consello	-10.1757
▁ecuación	-10.176
américa	-10.1764
▁Ferrol	-10.1768
▁proximidade	-10.1772
▁dirixiu	-10.178
▁120	-10.1781
▁programas	-10.179
▁pazo	-10.179
art	-10.1794
▁azucre	-10.1804
▁secuencia	-10.1804
▁dalgún	-10.1805
▁debuxo	-10.1821
▁democrática	-10.1837
▁circuíto	-10.1837
▁inmediata	-10.184
ura	-10.1856
▁construíu	-10.1857
▁debate	-10.1863
▁saíu	-10.1864
▁identidade	-10.187
▁crenza	-10.1872
▁Ri	-10.1873
▁result	-10.1877
▁tribos	-10.1879
▁nalgunha	-10.1886
▁dito	-10.1887
ashington	-10.1887
▁Cuba	-10.1889
▁civilización	-10.189
▁amplo	-10.1892
▁líderes	-10.19
ume	-10.1902
▁cancro	-10.1903
▁inicialmente	-10.1904
▁Pro	-10.1906
ero	-10.1908
▁regras	-10.1912
▁estudio	-10.1919
▁indíxena	-10.192
▁placa	-10.1921
▁37	-10.1922
▁torneo	-10.1937
▁prodúce	-10.1937
▁obten	-10.1937
▁Galego	-10.1937
▁supux	-10.1941
▁converte	-10.1942
▁mariña	-10.1942
▁tecnologia	-10.1953
▁vos	-10.197
▁profundidade	-10.197
▁museo	-10.197
▁mecánica	-10.197
▁Bill	-10.1973
▁acadou	-10.1974
▁comun	-10.1975
▁praia	-10.1976
▁Gal	-10.1987
VIII	-10.1987
▁podían	-10.1999
▁adiante	-10.2003
▁prezo	-10.2005
▁Comunista	-10.202
▁cousa	-10.2027
▁emprego	-10.2033
▁Asociación	-10.2037
▁americana	-10.2038
▁obst	-10.2038
▁65	-10.2041
nch	-10.2044
▁grave	-10.2046
▁deserto	-10.2054
gi	-10.2061
▁atopou	-10.207
▁signo	-10.207
▁raíz	-10.2072
ment	-10.2075
amos	-10.2088
▁cruceiro	-10.2088
▁Lis	-10.2092
▁costume	-10.2094
▁certos	-10.2095
▁viru	-10.2117
▁medidas	-10.2119
▁Michael	-10.2121
▁acerca	-10.2121
▁Cre	-10.2123
▁sofre	-10.2131
ungr	-10.2132
▁ritmo	-10.2138
▁Dereito	-10.2141
ato	-10.2142
▁Divisi	-10.2146
▁autonomía	-10.2154
▁cristian	-10.2155
▁cadrado	-10.2158
▁diario	-10.2159
▁64	-10.2169
▁nuclear	-10.2171
▁patrón	-10.2172
▁Uma	-10.2174
cher	-10.2176
uda	-10.218
▁observación	-10.2182
▁vídeo	-10.2187
▁Thom	-10.2199
tou	-10.2205
▁estreita	-10.2206
▁fortaleza	-10.2206
▁Bla	-10.2209
▁artigos	-10.2219
▁tería	-10.2221
unha	-10.2228
▁terzo	-10.2237
▁converténdo	-10.224
▁recuperar	-10.2245
▁Orde	-10.2249
▁roda	-10.225
▁verdadeiro	-10.2264
▁incluído	-10.2292
▁lixeira	-10.2298
lt	-10.2301
▁pel	-10.2304
▁Estudou	-10.2306
▁600	-10.2315
▁desa	-10.2318
nacionais	-10.2324
▁niño	-10.2324
▁i	-10.2328
▁secretario	-10.234
▁Ve	-10.2354
▁reais	-10.2374
▁Socialista	-10.2379
▁abandonar	-10.2385
▁oportunidade	-10.2388
▁Sal	-10.2389
▁soberan	-10.2395
▁empregar	-10.2395
▁mantén	-10.2405
▁Sobre	-10.2409
▁176	-10.241
▁escravos	-10.2411
▁documentos	-10.2412
▁seguido	-10.2422
▁integra	-10.2426
▁cabalo	-10.2428
▁Mu	-10.243
▁accidente	-10.2434
▁marxe	-10.2446
▁fracaso	-10.2448
▁cadro	-10.2449
▁actri	-10.2459
▁ingreso	-10.2463
▁italiana	-10.2466
xica	-10.2473
▁debería	-10.2474
▁López	-10.2483
▁órbita	-10.2483
▁frío	-10.2483
▁costas	-10.2486
▁toca	-10.25
▁deixando	-10.2509
▁sal	-10.2509
▁von	-10.2512
▁carreiras	-10.252
▁prim	-10.2521
inais	-10.2524
▁Ribad	-10.2534
▁xornalista	-10.2539
▁fa	-10.2542
▁55	-10.2553
▁celébra	-10.2554
eo	-10.2559
estival	-10.256
▁deuse	-10.2561
▁norma	-10.2564
▁meio	-10.2565
▁franco	-10.2571
▁bizantino	-10.2571
▁dúbida	-10.2571
pouco	-10.2577
im	-10.2582
▁técnico	-10.2589
▁acontecer	-10.259
▁chaira	-10.2596
▁débe	-10.2602
▁cabe	-10.2612
ho	-10.2622
▁católico	-10.2625
▁exacta	-10.2625
▁trans	-10.2626
▁tensión	-10.2626
▁chamou	-10.2631
▁matemática	-10.2632
▁latino	-10.2634
▁atopan	-10.2641
▁señor	-10.2642
▁posíbe	-10.2643
▁posta	-10.2653
▁34	-10.2657
▁super	-10.2658
▁xunta	-10.2669
▁vivo	-10.2672
▁exilio	-10.2678
▁árabes	-10.2678
▁inscrición	-10.2696
▁Serra	-10.2702
▁emisión	-10.2703
▁explica	-10.2704
▁Temos	-10.2711
▁ARN	-10.2714
▁Lo	-10.2717
▁ovo	-10.2719
▁liderado	-10.2719
▁espírito	-10.272
▁corresponde	-10.272
▁eléctrico	-10.2724
avera	-10.2726
▁autoridades	-10.2737
▁publicar	-10.2748
▁entender	-10.2753
▁800	-10.2754
▁Suíz	-10.2757
▁axi	-10.276
▁Aire	-10.2767
▁vermella	-10.2768
▁destacado	-10.2773
▁Vasco	-10.2773
est	-10.2776
▁consegui	-10.2784
▁finalizar	-10.279
nova	-10.2794
▁Unidas	-10.2798
▁documenta	-10.2801
▁alguém	-10.2801
▁Ibéric	-10.2806
▁area	-10.2807
▁St	-10.2817
▁estiver	-10.2819
▁ci	-10.282
▁entidade	-10.2824
▁editado	-10.2826
▁definitivamente	-10.2827
▁Limita	-10.2842
▁aberta	-10.2843
▁rica	-10.2856
▁legal	-10.2859
▁occidenta	-10.2876
▁policía	-10.2877
▁exerce	-10.2882
▁desenvolve	-10.2887
▁leite	-10.2896
▁Moita	-10.2898
▁poema	-10.29
▁aquel	-10.2901
rse	-10.2903
▁1972	-10.291
▁Pér	-10.2925
▁rama	-10.2931
▁miña	-10.2936
▁ficar	-10.2942
▁sabemos	-10.2942
▁presentes	-10.2943
val	-10.2947
▁parcial	-10.2957
D	-10.2961
▁esencial	-10.2967
ación	-10.2968
▁Mon	-10.297
▁h	-10.297
▁Nin	-10.297
▁44	-10.2973
▁estreito	-10.2974
▁39	-10.2975
ett	-10.2976
▁água	-10.2976
▁separada	-10.2979
▁explicar	-10.2982
▁sinal	-10.2982
▁divíde	-10.2987
▁corazón	-10.2987
▁Ciencia	-10.2988
▁considerable	-10.2988
vam	-10.2988
▁desexo	-10.2991
▁prat	-10.2992
▁unir	-10.2996
▁lanzado	-10.3001
▁Ni	-10.3004
céano	-10.301
agás	-10.3015
▁auto	-10.302
▁asociado	-10.3046
▁Tom	-10.305
▁Nobel	-10.3053
▁dita	-10.3054
▁Ber	-10.3054
▁propósito	-10.3061
▁evidencia	-10.3062
▁enviou	-10.3062
▁Tre	-10.3062
▁reformas	-10.3072
▁vão	-10.3074
▁Charles	-10.3077
▁útil	-10.308
▁musicais	-10.308
▁lonxe	-10.3089
▁observar	-10.309
▁explotación	-10.3091
id	-10.3096
▁mensaxe	-10.3096
▁imperial	-10.3103
▁volve	-10.3106
▁separado	-10.3114
▁escasa	-10.3123
▁levaba	-10.3123
▁vermello	-10.3137
▁funcionamento	-10.314
▁custo	-10.3145
▁protesta	-10.3147
▁fundado	-10.3154
▁artística	-10.3155
▁enfrontamento	-10.3156
▁Mundo	-10.3157
▁celta	-10.3164
▁sae	-10.3169
▁afirma	-10.3173
▁norteamericano	-10.3174
▁transición	-10.3176
▁Fo	-10.3182
▁xaponesa	-10.3193
▁corpos	-10.3199
▁antig	-10.3201
▁Lú	-10.3202
▁insecto	-10.3211
entro	-10.3212
▁acaba	-10.3213
▁derivado	-10.3216
▁Sim	-10.3217
▁públicas	-10.3218
▁43	-10.3219
▁popularidade	-10.3227
▁diámetro	-10.323
▁hidróxeno	-10.323
▁turco	-10.323
▁existi	-10.3246
ivís	-10.3249
P	-10.3251
▁crecente	-10.3252
▁organiza	-10.3253
▁directa	-10.3256
▁quedar	-10.3258
▁chegan	-10.3261
▁nem	-10.3265
▁bacteria	-10.3268
▁cerebro	-10.3268
▁restante	-10.3271
▁sexo	-10.3276
▁flores	-10.3278
▁localizada	-10.3279
▁serve	-10.3285
▁perspectiva	-10.3287
▁pronto	-10.3287
▁bordo	-10.3287
▁Campionato	-10.3306
▁curva	-10.3306
▁seguro	-10.3307
ood	-10.3317
rich	-10.3319
▁abaixo	-10.332
▁barcos	-10.3321
▁garda	-10.3323
▁trabalhar	-10.3325
▁demanda	-10.3326
der	-10.3329
▁Don	-10.3337
▁regular	-10.3341
▁Guillerm	-10.3345
▁voga	-10.3345
▁circula	-10.335
▁conflitos	-10.3355
ína	-10.336
▁fusión	-10.3361
▁metropolitana	-10.3364
▁relevo	-10.3364
at	-10.337
ografía	-10.3371
▁qual	-10.3373
▁derrotado	-10.3377
▁ensaio	-10.3383
▁alianza	-10.3391
licio	-10.3391
▁manifestación	-10.3392
▁proxectos	-10.3397
▁teña	-10.3402
▁fórmula	-10.3403
▁cambiar	-10.3406
▁descubriu	-10.341
lá	-10.3414
▁48	-10.3415
▁Max	-10.3417
▁quinto	-10.3421
▁vehículo	-10.3421
▁xerais	-10.3422
▁remata	-10.3427
▁moral	-10.3428
▁poboada	-10.3431
▁identifica	-10.344
▁ferramentas	-10.3441
▁republicano	-10.3444
▁152	-10.3445
▁espada	-10.345
▁ha	-10.3453
▁ti	-10.3455
▁humanidade	-10.3461
▁mudou	-10.3461
illas	-10.3463
▁litora	-10.3475
▁Salvado	-10.3479
▁170	-10.348
lez	-10.348
▁documento	-10.3481
▁175	-10.3487
▁somos	-10.3492
▁establece	-10.3505
▁Senado	-10.3505
▁Marco	-10.3505
▁limita	-10.3513
▁47	-10.352
▁aumenta	-10.3535
▁tren	-10.3536
▁solo	-10.3538
▁ameaza	-10.3538
▁retirada	-10.3539
ien	-10.3544
▁potencial	-10.3545
▁poderían	-10.3554
▁choiva	-10.3557
▁escenario	-10.3558
▁investigador	-10.3561
▁Bél	-10.358
▁sei	-10.3588
▁temporal	-10.3588
mar	-10.3592
▁alimenta	-10.3593
▁liberal	-10.3594
des	-10.3594
▁electrón	-10.3596
▁especiais	-10.3606
▁min	-10.3607
▁ángulo	-10.362
▁rochas	-10.3621
▁Chile	-10.3622
▁biblioteca	-10.3636
▁líquido	-10.3636
▁Louis	-10.3636
▁asasinato	-10.3636
leccións	-10.3644
▁electora	-10.3646
▁reis	-10.3649
▁Desta	-10.3651
▁mamífero	-10.3656
▁representan	-10.3656
▁correntes	-10.3657
ru	-10.366
▁cifra	-10.3666
▁fluxo	-10.3671
▁xeográfica	-10.3675
▁artístico	-10.3675
▁atol	-10.3684
ésar	-10.3685
▁sexual	-10.3686
▁Valencia	-10.3692
▁Mont	-10.3694
▁seren	-10.3695
▁guitarrista	-10.3695
▁haber	-10.3699
▁Federación	-10.3709
▁lagoa	-10.3714
▁argumento	-10.3715
▁Teatr	-10.3718
▁celebración	-10.3726
BA	-10.3727
▁Vicent	-10.3732
▁cu	-10.3734
▁homenaxe	-10.3735
▁banco	-10.3736
▁estadio	-10.3741
▁cola	-10.3742
▁solución	-10.3744
ston	-10.375
▁múltiple	-10.3755
▁parlamento	-10.3755
▁pluma	-10.3755
▁resolver	-10.3757
▁determinar	-10.3764
▁41	-10.3771
▁lograr	-10.3774
responsabilidade	-10.3775
▁cerimonia	-10.3775
▁rural	-10.3775
▁Nada	-10.3777
▁Comunidade	-10.3796
▁ler	-10.3797
▁deus	-10.3802
▁matemáticas	-10.3807
▁natal	-10.3814
▁afluente	-10.3815
▁básica	-10.3815
▁describe	-10.3815
▁dominante	-10.3818
▁logra	-10.3821
▁hospital	-10.3834
▁Turqu	-10.3836
ble	-10.3839
OE	-10.3843
▁convérte	-10.3855
▁chamadas	-10.3858
▁vosso	-10.386
▁impostos	-10.3866
▁Podemo	-10.3867
tos	-10.387
▁46	-10.3871
▁disso	-10.3878
▁conteñ	-10.3881
▁escritura	-10.3895
▁lanzou	-10.3895
ine	-10.3899
▁tornar	-10.3904
▁gole	-10.3906
▁Dan	-10.3908
▁separación	-10.3909
po	-10.3913
ant	-10.3914
▁descrición	-10.3918
▁latina	-10.3918
all	-10.3924
▁Ouro	-10.3927
▁ditadura	-10.3936
▁específico	-10.3956
▁bronce	-10.3956
▁Richard	-10.3956
ade	-10.3958
gt	-10.3965
▁ocupada	-10.3967
▁Fillo	-10.3969
▁empregada	-10.3972
▁foram	-10.3972
▁controlar	-10.3974
▁Napoleón	-10.3977
▁meridiona	-10.3977
▁concreta	-10.3978
▁económicas	-10.3982
ário	-10.3991
indo	-10.3996
▁fotografía	-10.3997
▁Radio	-10.3997
▁libera	-10.3998
▁enviado	-10.4003
ían	-10.4007
▁Dou	-10.4009
▁secundario	-10.4038
▁vella	-10.404
▁procede	-10.4041
▁localización	-10.4049
▁plataforma	-10.4059
tion	-10.4061
▁rara	-10.4063
ut	-10.4063
rd	-10.4067
▁representar	-10.407
▁Gonz	-10.4071
▁estuda	-10.4078
▁basicamente	-10.4079
▁reunión	-10.4081
▁variable	-10.4081
▁centros	-10.4082
▁quase	-10.4085
cha	-10.4098
▁eram	-10.4104
▁decidir	-10.4105
▁tenta	-10.4114
cho	-10.4114
▁previa	-10.412
▁peixes	-10.4123
▁claramente	-10.4128
▁ascende	-10.4128
breza	-10.4137
▁visto	-10.4139
▁descuberto	-10.4141
▁conferencia	-10.4142
▁mariño	-10.4143
▁federal	-10.4155
▁herdeiro	-10.4157
▁sentir	-10.4161
▁doutrina	-10.4162
▁soviético	-10.4162
▁colonos	-10.4162
▁interacción	-10.4163
▁Tal	-10.4167
▁consideraba	-10.4167
▁elevado	-10.4175
▁penso	-10.4176
▁volcán	-10.4182
▁cuarta	-10.4183
▁comezan	-10.4184
▁52	-10.4191
▁149	-10.4191
▁transformación	-10.4192
eland	-10.4195
▁quente	-10.4199
azz	-10.42
▁Provincia	-10.4203
▁solitario	-10.4203
▁americanos	-10.4209
▁redes	-10.4216
▁quería	-10.4221
▁to	-10.4224
▁precisamos	-10.4238
▁considéra	-10.4244
▁rusa	-10.4245
▁lume	-10.4246
▁axudar	-10.4258
▁chin	-10.4259
▁Cá	-10.426
ráfico	-10.4265
▁pagar	-10.4265
▁Mississip	-10.4266
▁energia	-10.4266
▁serra	-10.4269
▁producida	-10.4271
▁obriga	-10.4272
▁Bi	-10.4285
fama	-10.4285
ur	-10.4287
▁Dinamarca	-10.4287
dio	-10.4294
▁implica	-10.4298
▁abandonou	-10.4298
▁minerais	-10.4308
▁Vol	-10.4316
▁equivalente	-10.4316
▁químico	-10.4318
▁53	-10.432
iz	-10.4327
▁localizado	-10.4328
▁rectangular	-10.4329
▁electrónico	-10.433
▁suave	-10.4332
▁estable	-10.4334
▁puxo	-10.4338
▁ocupou	-10.4338
▁sou	-10.4338
ñen	-10.4338
▁erro	-10.4345
▁recolle	-10.4349
▁autónoma	-10.435
▁competencia	-10.435
▁rango	-10.435
xi	-10.4358
▁Ta	-10.4368
▁intervención	-10.4372
▁ausencia	-10.4372
▁gravar	-10.4373
▁empezou	-10.4374
▁Costa	-10.4375
▁estata	-10.4383
ult	-10.4392
▁mante	-10.4396
▁vías	-10.4396
▁átomos	-10.4397
▁aquilo	-10.4398
▁inmigrante	-10.4398
▁André	-10.4401
▁vemos	-10.441
▁rebelión	-10.4414
▁personalidade	-10.4435
▁vantaxe	-10.4435
▁terminou	-10.4439
evilla	-10.444
quí	-10.4442
▁defender	-10.4445
NG	-10.4448
▁Marti	-10.4454
▁vaca	-10.4454
▁descuberta	-10.4457
A	-10.4457
▁Roc	-10.4472
▁Sistema	-10.4478
▁café	-10.4478
▁iniciativa	-10.4479
▁consideran	-10.448
▁Fa	-10.4495
▁fronteiras	-10.4496
be	-10.4496
▁vontade	-10.45
▁xaponés	-10.45
▁aparente	-10.4501
▁Cara	-10.4503
▁existir	-10.4508
▁te	-10.4514
▁56	-10.4514
rico	-10.4517
▁Ministerio	-10.4521
▁exipcio	-10.4521
▁Aqui	-10.4524
▁conto	-10.4529
▁morto	-10.453
fa	-10.4539
▁acepta	-10.454
▁combinación	-10.4555
▁segura	-10.4556
▁específica	-10.4564
▁dinheiro	-10.4564
▁mortos	-10.4565
▁hipótese	-10.4566
▁Mariña	-10.4568
ad	-10.4568
T	-10.457
▁seco	-10.457
▁amizade	-10.4574
encia	-10.4582
riental	-10.4586
▁mínimo	-10.4586
▁palacio	-10.4586
▁empréga	-10.4586
▁ferrocarr	-10.4586
▁fogar	-10.4586
▁XI	-10.4587
▁existentes	-10.4592
▁Manch	-10.4595
▁entrega	-10.4598
▁santo	-10.4603
▁brazo	-10.4608
▁debut	-10.4609
▁clave	-10.4615
▁Bar	-10.4626
▁dias	-10.4627
▁maioritaria	-10.4629
▁arqueolóxico	-10.4629
▁consérva	-10.4629
▁alcance	-10.463
▁intensa	-10.463
▁euro	-10.4634
▁experimenta	-10.4634
laborou	-10.4638
▁levan	-10.464
car	-10.464
▁escritores	-10.4641
olonia	-10.4643
TA	-10.4651
▁minoría	-10.4651
▁Xoan	-10.4659
las	-10.4661
▁falada	-10.4671
▁adultos	-10.4673
▁arcebispo	-10.4673
▁derradeiro	-10.4673
▁fósil	-10.4673
▁comandante	-10.4673
▁coalición	-10.4673
▁brillante	-10.4674
▁ordenador	-10.4674
▁tribuna	-10.4676
▁Sar	-10.4679
▁nel	-10.468
▁vossa	-10.4681
▁infan	-10.4701
▁levado	-10.4702
▁Medio	-10.4704
ís	-10.471
▁circular	-10.4712
▁transmisión	-10.4717
▁Campo	-10.472
▁bomba	-10.472
▁Sociedade	-10.4734
▁equilibrio	-10.4739
▁corre	-10.4746
▁PS	-10.4749
O	-10.4751
▁neve	-10.4762
▁54	-10.4764
▁toneladas	-10.4776
▁alcanzar	-10.4777
L	-10.4787
▁verbo	-10.479
▁77	-10.4796
▁Comezou	-10.4805
▁Póde	-10.4805
▁plena	-10.4827
▁enxeñeiro	-10.4828
▁prazo	-10.4828
▁probab	-10.483
▁Castel	-10.483
▁baía	-10.4831
lin	-10.4838
▁palavras	-10.4846
FA	-10.4849
▁cana	-10.485
▁sufrir	-10.485
▁asinou	-10.485
▁protestante	-10.4865
▁pena	-10.4868
▁suxeito	-10.4872
▁marchou	-10.4872
▁boas	-10.4872
▁ceo	-10.4879
▁xudicia	-10.4879
iza	-10.489
▁atacar	-10.4891
▁noticia	-10.4894
▁57	-10.4896
▁Ana	-10.4896
▁rec	-10.49
▁quiz	-10.4907
▁fins	-10.4908
▁esperanza	-10.4911
▁dalgunha	-10.4916
▁feminino	-10.4916
▁sorte	-10.4918
▁164	-10.492
▁adaptación	-10.4921
▁puidese	-10.4922
▁mudan	-10.4923
▁deseñado	-10.4924
▁ni	-10.4925
ilis	-10.4926
▁computador	-10.4932
▁Tol	-10.4933
▁portugues	-10.4934
▁achega	-10.4938
▁profundo	-10.4939
▁paralelo	-10.4939
▁Rosa	-10.4962
▁ali	-10.4964
▁conexión	-10.4966
▁Fe	-10.4967
▁Carolina	-10.497
▁copias	-10.4979
forme	-10.4982
▁típico	-10.4984
▁Cámara	-10.4985
▁servir	-10.5004
▁unido	-10.5005
▁titulado	-10.5006
▁Norueg	-10.5006
▁testemuña	-10.5006
▁Du	-10.5023
▁49	-10.5023
▁crece	-10.5026
▁actúa	-10.5029
▁incluída	-10.5029
▁negativa	-10.5029
▁Franco	-10.503
▁habilidade	-10.503
▁li	-10.5032
eorxia	-10.5033
▁58	-10.5044
▁románica	-10.5052
▁modificación	-10.5057
▁CD	-10.5063
▁sacerdote	-10.5073
▁metais	-10.5074
▁secundaria	-10.5074
bal	-10.5075
▁empregan	-10.5077
▁aconteceu	-10.5077
▁doenza	-10.5078
▁millón	-10.5086
▁individual	-10.5088
▁Boe	-10.5094
ent	-10.5096
▁licenza	-10.5097
▁85	-10.5099
▁Tribuna	-10.5099
▁Martin	-10.5101
▁encargado	-10.5102
▁viño	-10.5103
▁Xunto	-10.5104
▁fortemente	-10.5107
▁Fu	-10.5108
▁cambiou	-10.5113
▁canón	-10.5127
▁diz	-10.5129
▁falece	-10.5137
▁Bos	-10.514
▁provocar	-10.5141
▁caracteríza	-10.5143
▁statu	-10.5143
▁Conde	-10.5147
▁250	-10.5154
iñeiro	-10.5155
▁declaración	-10.5156
▁Tour	-10.5158
▁quanto	-10.5159
▁abrangue	-10.5166
▁renda	-10.5167
NE	-10.5168
▁adestrador	-10.5172
▁celular	-10.5177
B	-10.5181
tura	-10.5181
▁retirar	-10.5188
▁colexio	-10.5189
▁visible	-10.5195
base	-10.5206
▁diversidade	-10.5212
▁TV	-10.5213
ida	-10.5223
▁utilizando	-10.5224
▁exclusivamente	-10.5226
▁peixe	-10.5232
tación	-10.5232
▁Grazas	-10.5235
▁teatra	-10.5235
▁refíre	-10.5239
▁ancho	-10.5239
▁automóbil	-10.5248
li	-10.5248
▁UE	-10.5256
▁dedicada	-10.5262
▁proporción	-10.5262
▁xoga	-10.5265
▁Moscov	-10.5265
▁caracter	-10.5266
ord	-10.527
▁impulso	-10.527
▁mina	-10.5272
▁indio	-10.5275
gueira	-10.528
▁outeiro	-10.5285
▁establecemento	-10.5286
▁ton	-10.5293
▁fundamentais	-10.5307
eda	-10.531
quez	-10.5327
▁veciña	-10.5328
▁Concello	-10.5328
▁alternativo	-10.5328
▁ponto	-10.5332
▁carro	-10.5334
▁independentes	-10.5335
bi	-10.5342
▁dada	-10.5347
▁brasileiro	-10.5351
▁encima	-10.5352
▁consig	-10.5352
▁cálculo	-10.5354
▁punta	-10.5355
▁tam	-10.5359
▁Ei	-10.5359
▁realizada	-10.5363
ncias	-10.5374
▁2017	-10.5376
lar	-10.5377
▁ópera	-10.5377
▁elevada	-10.538
▁dando	-10.5392
▁vir	-10.5407
S	-10.5412
▁eixo	-10.5413
▁xorde	-10.5422
▁administrativo	-10.5422
▁barroco	-10.5422
ados	-10.5424
▁captura	-10.5431
fusión	-10.5438
▁bando	-10.5439
ilidade	-10.5444
▁encóntra	-10.5445
▁capítulo	-10.5445
▁urbana	-10.5448
▁concelleiro	-10.5449
▁700	-10.5455
▁Vien	-10.5463
▁frase	-10.5468
▁membrana	-10.5469
▁territorial	-10.5469
▁xenética	-10.5469
▁retablo	-10.5469
▁agrícola	-10.5471
▁fica	-10.5472
▁residente	-10.5475
▁disciplina	-10.548
▁seguida	-10.5482
▁1000	-10.5483
▁comprende	-10.5485
▁estavam	-10.5489
ish	-10.5491
▁chámase	-10.5491
▁bisesto	-10.5493
▁Canaria	-10.5493
▁mitoloxía	-10.5493
▁estatua	-10.5495
▁uniu	-10.5511
▁recoñecida	-10.5516
▁pico	-10.5518
▁Esa	-10.552
▁dedicado	-10.5523
▁decide	-10.5532
amento	-10.5533
▁definir	-10.5534
▁debaixo	-10.5536
▁vivenda	-10.5537
▁alumno	-10.554
▁Guinea	-10.554
▁abrir	-10.554
▁trinta	-10.554
▁Dar	-10.5558
▁posuía	-10.5562
▁tumba	-10.5564
▁fazem	-10.5564
▁sucesión	-10.5565
▁buscar	-10.5572
▁aplica	-10.5572
▁enviar	-10.5575
▁portas	-10.5579
▁escuro	-10.5581
▁Bis	-10.5587
▁destinado	-10.5588
▁fría	-10.5589
▁ingresos	-10.5592
▁Antón	-10.5597
▁Ant	-10.5599
▁ascenso	-10.5612
▁disposición	-10.5613
▁mellorar	-10.5614
berg	-10.5618
arl	-10.5632
▁galaxia	-10.5636
▁Comisión	-10.5637
▁Paz	-10.5642
▁espera	-10.5644
ip	-10.5649
▁totalidade	-10.5657
▁canadense	-10.566
▁Civi	-10.5661
▁Armada	-10.5661
ano	-10.5672
▁pedir	-10.5676
tro	-10.5682
▁aceite	-10.5684
▁partidario	-10.5685
▁primaria	-10.5685
▁mãe	-10.5685
▁redución	-10.5689
▁Chi	-10.5706
▁verso	-10.5706
▁magnético	-10.5708
▁percorrido	-10.5708
▁lóxica	-10.5708
▁dispoñible	-10.5709
▁So	-10.5713
▁68	-10.5714
▁Bueno	-10.5715
▁realización	-10.5719
▁utilizan	-10.5719
antes	-10.5721
▁hábitat	-10.5733
▁Depois	-10.5733
▁desenvolvida	-10.5733
▁probabilidade	-10.5735
inas	-10.5741
▁olhar	-10.5745
▁vivos	-10.5746
▁Siri	-10.5747
▁foto	-10.5747
▁Peter	-10.5748
▁pop	-10.5754
▁xurisdición	-10.5757
▁ventos	-10.5757
▁pata	-10.5759
▁pergunta	-10.576
▁except	-10.5765
▁marido	-10.5765
▁51	-10.5766
▁Ab	-10.5767
▁rexeita	-10.5769
V	-10.5769
▁xuízo	-10.577
ins	-10.5773
▁require	-10.5781
▁executivo	-10.5781
▁caixa	-10.579
▁quere	-10.5791
▁extensa	-10.5793
▁celebrou	-10.5806
▁electrónica	-10.5806
▁Carl	-10.5807
▁roupa	-10.5807
▁anarquista	-10.5807
▁setentriona	-10.5808
▁montes	-10.5808
▁inicia	-10.5815
▁destrución	-10.583
▁vapor	-10.583
▁Cór	-10.583
▁comunica	-10.5831
▁partida	-10.5833
▁pasan	-10.5837
▁Che	-10.5849
▁colocar	-10.585
▁públicos	-10.5851
▁prisión	-10.5855
▁retorno	-10.5855
▁interessante	-10.5856
▁Pai	-10.5858
▁introdución	-10.5858
▁escano	-10.5861
ama	-10.5864
▁los	-10.5866
▁pobres	-10.5868
▁riba	-10.5877
▁modernos	-10.5879
▁Atópa	-10.588
▁Sicilia	-10.588
▁montañosa	-10.588
▁Tanto	-10.5884
▁Conta	-10.5886
▁ordenou	-10.589
▁xestión	-10.5892
▁Vene	-10.5895
▁facil	-10.5895
▁actitude	-10.5901
▁tinham	-10.5902
▁define	-10.5902
▁ligado	-10.5903
▁174	-10.5909
▁marcado	-10.591
▁seguidor	-10.5912
▁parede	-10.5917
▁recentes	-10.5925
▁contribuí	-10.5927
▁aérea	-10.5929
▁salto	-10.5929
▁pun	-10.5939
▁lenta	-10.5945
▁quedan	-10.5949
▁típica	-10.5954
▁cumio	-10.5954
▁gráfico	-10.5955
▁xogou	-10.5964
▁asumi	-10.5966
▁ofrece	-10.597
▁tarefa	-10.597
▁pedras	-10.5976
▁intelectual	-10.5979
▁bom	-10.5981
▁cima	-10.5982
producen	-10.5984
▁151	-10.5999
lín	-10.6
▁viva	-10.6005
▁Gales	-10.6006
▁centrais	-10.6008
▁Federa	-10.602
▁có	-10.602
▁Pi	-10.6021
▁pertencen	-10.6023
▁95	-10.6026
▁naquela	-10.6027
▁Grupo	-10.6029
▁circunstancia	-10.6029
▁chinesa	-10.6029
▁rolda	-10.6033
▁usan	-10.604
udar	-10.6043
▁rela	-10.6053
▁depósito	-10.6054
▁baséa	-10.6054
▁baleiro	-10.6054
▁combustible	-10.6054
aram	-10.6054
▁questão	-10.6074
▁serviu	-10.6078
▁sabor	-10.6079
▁concreto	-10.6079
▁intensidade	-10.6079
▁presentación	-10.6084
▁pura	-10.6084
nxele	-10.6084
▁Pin	-10.6093
▁reducir	-10.6098
▁mapa	-10.6103
oseph	-10.6105
▁escultura	-10.6105
cesión	-10.6114
▁fuxir	-10.6114
▁Pedra	-10.6115
▁Corea	-10.6115
▁escura	-10.6119
▁sesión	-10.612
▁130	-10.6121
▁definitiva	-10.6123
▁patrimoni	-10.6123
▁positiva	-10.6123
▁praias	-10.6125
▁protagonista	-10.6129
▁externa	-10.6129
▁pertencía	-10.6129
▁buque	-10.6129
ed	-10.613
▁Rafa	-10.613
▁relevante	-10.6133
▁ocupado	-10.6135
▁permanecer	-10.6142
▁Chic	-10.6144
▁profunda	-10.6149
▁falecido	-10.6155
▁possível	-10.6155
▁crítico	-10.6156
▁Nace	-10.6163
▁passado	-10.6163
▁apoiar	-10.6164
▁indican	-10.6172
▁raios	-10.6173
▁normas	-10.6175
▁Vitoria	-10.618
▁Democrátic	-10.6181
▁exportación	-10.6184
eza	-10.6185
▁atravesa	-10.62
▁organizar	-10.6201
▁magnitude	-10.6205
▁retrato	-10.6205
▁investimento	-10.6206
▁xusto	-10.6208
▁determinada	-10.6212
▁comer	-10.6213
ctor	-10.6214
▁atopado	-10.622
▁boca	-10.6225
▁chave	-10.6226
▁crónica	-10.6231
▁avó	-10.6231
migración	-10.6231
▁orienta	-10.6232
▁mide	-10.6244
▁literal	-10.6257
▁Schuma	-10.6257
▁desaparición	-10.6257
▁informe	-10.6258
▁negros	-10.6278
▁grav	-10.628
▁Comité	-10.6282
▁sociedades	-10.6284
▁descubrir	-10.6284
▁car	-10.6285
▁Vou	-10.6285
▁revolucionario	-10.6299
▁Batalla	-10.6299
▁limitado	-10.63
▁Van	-10.6308
▁Serbi	-10.6309
▁Pazo	-10.631
▁asociada	-10.631
▁pegada	-10.6311
▁rebelde	-10.6316
▁mecanismo	-10.6319
▁evidente	-10.6331
ohann	-10.6331
▁mínima	-10.6334
▁ribeira	-10.6334
▁fibra	-10.6334
▁resolución	-10.6335
▁can	-10.6341
▁166	-10.6343
▁pediu	-10.6347
▁imp	-10.6356
▁fo	-10.6358
oubo	-10.6358
▁sueco	-10.6359
▁nube	-10.636
▁tanta	-10.636
▁razão	-10.6362
▁estratexia	-10.6364
era	-10.6365
▁diocese	-10.637
▁Pan	-10.6373
▁gañador	-10.6374
▁tanque	-10.6381
▁Forma	-10.6384
▁beleza	-10.6385
▁Stone	-10.6386
▁lúa	-10.6388
▁acho	-10.6393
ni	-10.6393
▁limitada	-10.6395
▁Federic	-10.6397
▁Obrigado	-10.6402
▁Tole	-10.6405
▁desaparecer	-10.641
▁enteiro	-10.6413
▁facelo	-10.6413
▁continuo	-10.6417
han	-10.6419
▁fim	-10.6421
▁artificial	-10.6423
homa	-10.6428
▁desenvolvido	-10.6429
▁medir	-10.6429
▁Muito	-10.6438
▁Cabo	-10.6441
▁sólido	-10.6444
▁Pla	-10.6446
▁cociña	-10.6448
▁poñer	-10.6448
▁introduciu	-10.6449
▁Car	-10.6451
▁describir	-10.6463
mperador	-10.6465
▁pobreza	-10.6467
▁Sil	-10.6473
▁actuar	-10.6473
▁sinxela	-10.6481
▁representado	-10.6486
aco	-10.6502
▁visual	-10.6503
▁Leste	-10.6509
▁torna	-10.6509
▁pés	-10.6512
▁videoxogo	-10.6516
tí	-10.6519
▁62	-10.6532
▁escoc	-10.6535
▁comuna	-10.654
▁pon	-10.6542
▁espectáculo	-10.6542
uedan	-10.6542
▁promoción	-10.6542
▁havia	-10.6543
▁psic	-10.6543
▁River	-10.6543
nstein	-10.655
▁tío	-10.6554
▁incluía	-10.6555
▁funcionar	-10.6555
▁ac	-10.6556
st	-10.6564
▁Ga	-10.6565
▁alternativa	-10.6568
▁violen	-10.6568
▁electric	-10.6569
▁processo	-10.6569
▁soporte	-10.6569
▁decreto	-10.6569
▁Clar	-10.6575
ited	-10.6579
▁tive	-10.6587
▁71	-10.659
▁pensa	-10.659
▁Sam	-10.6591
▁contemporáneo	-10.6595
▁intercambio	-10.6595
orld	-10.6595
▁caer	-10.6596
▁gobernante	-10.6598
▁navega	-10.6598
▁Tu	-10.6599
▁elimina	-10.6599
ester	-10.6602
▁falan	-10.6605
ster	-10.6606
▁lados	-10.6609
▁Maior	-10.6609
▁húmido	-10.6622
▁aparello	-10.6622
▁Coroa	-10.6623
▁UR	-10.6623
▁Si	-10.6623
▁Alto	-10.6635
▁Golf	-10.664
▁máquinas	-10.6645
▁turístico	-10.6648
▁adoptou	-10.6648
▁Palacio	-10.6649
▁Sir	-10.6651
▁família	-10.6652
▁merc	-10.6652
▁Var	-10.6656
▁metro	-10.6662
ros	-10.6663
▁unida	-10.6664
▁96	-10.6664
▁coordenada	-10.6675
▁fogo	-10.6676
▁gente	-10.6676
▁tralo	-10.6678
▁mesa	-10.6684
▁adquiri	-10.6686
▁dependencia	-10.6692
ico	-10.6692
cer	-10.6694
▁Marte	-10.6694
lan	-10.67
▁aumentou	-10.6701
▁feminina	-10.6702
▁lectura	-10.6702
▁muíño	-10.6702
▁Virxi	-10.6702
▁cabaleiro	-10.6702
▁Far	-10.6703
▁comparación	-10.6712
▁preso	-10.6713
senta	-10.6715
▁inter	-10.6719
▁raí	-10.6723
▁aeroliña	-10.6728
▁esténde	-10.6728
▁alma	-10.6734
▁opción	-10.6737
▁enlace	-10.6741
▁Lago	-10.6744
▁escolar	-10.6749
nza	-10.6752
▁descender	-10.6753
▁encontra	-10.6754
▁contribución	-10.6756
▁xudía	-10.6757
▁Parque	-10.6758
▁158	-10.676
▁gradual	-10.6765
▁Oscar	-10.6769
18	-10.6775
▁Daniel	-10.6782
▁tese	-10.6783
▁definida	-10.6785
▁gal	-10.6794
▁Destaca	-10.6795
▁Est	-10.6795
▁156	-10.6796
▁173	-10.6805
▁feitas	-10.6805
▁Nesa	-10.6808
▁suposto	-10.681
▁ideoloxía	-10.681
▁postura	-10.681
▁outono	-10.6811
▁comparte	-10.6813
▁Cit	-10.6813
▁acusado	-10.6816
▁162	-10.6818
ficou	-10.6818
áz	-10.6821
▁paredes	-10.6822
▁fixa	-10.6825
▁denomínase	-10.683
▁ocorreu	-10.683
▁sucedeu	-10.6832
▁gand	-10.6833
▁bar	-10.6833
▁vexa	-10.6834
▁ruína	-10.6836
▁General	-10.6836
▁trigo	-10.6837
óxido	-10.684
▁convento	-10.6843
▁puider	-10.6851
▁sonora	-10.6854
marc	-10.6858
▁aceiro	-10.6858
▁Domingo	-10.6864
▁editou	-10.6864
ire	-10.6865
▁172	-10.6868
▁dirixente	-10.6868
▁vasco	-10.687
▁separa	-10.6873
▁Normal	-10.6874
▁identificar	-10.6876
▁abre	-10.6878
▁Cu	-10.689
▁utilizou	-10.6891
▁Baixa	-10.6891
▁militante	-10.6894
▁nota	-10.69
▁porcentaxe	-10.6918
▁xardín	-10.6918
▁Ferrari	-10.6918
▁retirou	-10.6924
▁condenado	-10.6928
damente	-10.6929
▁Alta	-10.6929
▁via	-10.6931
▁nacionalismo	-10.6934
▁acepto	-10.6937
ssim	-10.6942
▁viax	-10.6943
▁após	-10.6946
▁sindicato	-10.6947
▁Francesa	-10.6947
▁soberano	-10.6949
▁Tui	-10.6952
▁comece	-10.6953
▁tri	-10.6954
▁deseñada	-10.6973
▁infantil	-10.6974
▁distinguir	-10.6976
▁Corporación	-10.6979
▁Ví	-10.698
▁exemplos	-10.6981
tbol	-10.6985
dia	-10.6985
▁espacial	-10.6986
▁casar	-10.6986
▁98	-10.6988
▁causar	-10.699
▁protexer	-10.6992
▁Vamo	-10.6994
nacemento	-10.7
▁disolución	-10.7001
▁Prus	-10.7001
▁interesante	-10.7001
▁Texas	-10.7005
gem	-10.7008
▁63	-10.7009
▁153	-10.7025
▁muda	-10.7028
▁asinar	-10.7031
ion	-10.7032
altar	-10.7043
▁Finl	-10.7048
uel	-10.7053
▁dividir	-10.7056
▁loitar	-10.7056
▁recinto	-10.7056
▁construir	-10.7064
▁capita	-10.7065
▁concepción	-10.7069
▁debeu	-10.7074
▁Maced	-10.7078
ovia	-10.7081
▁67	-10.7083
▁piano	-10.7086
▁molécula	-10.7087
▁orquestra	-10.7089
▁ave	-10.7092
▁utilíza	-10.71
▁perceber	-10.7108
▁iniciar	-10.711
▁triunfo	-10.7112
▁cinema	-10.7114
▁longobardo	-10.7119
▁permitía	-10.712
▁alcanza	-10.7124
▁coruñ	-10.7132
▁queremos	-10.7135
▁suxire	-10.7139
▁Suprem	-10.7139
▁Organización	-10.7141
▁óso	-10.7146
▁bi	-10.715
▁rexional	-10.7153
▁coloniza	-10.7159
▁execución	-10.7167
▁mata	-10.7171
▁72	-10.7173
▁profesiona	-10.7173
▁Leonard	-10.7178
▁deportiva	-10.7196
▁médicos	-10.7199
▁Tam	-10.72
▁habitada	-10.7201
istas	-10.7206
▁estrea	-10.7211
▁cumprir	-10.7216
▁tornado	-10.7217
fi	-10.7219
▁Músic	-10.7224
▁abriu	-10.7224
▁soviética	-10.7224
▁imagem	-10.7224
▁índice	-10.7224
▁Red	-10.7229
▁Xuli	-10.7238
▁sabem	-10.7246
N	-10.7251
▁vítimas	-10.7252
▁atómico	-10.7252
▁manuscrito	-10.7252
▁nível	-10.7253
elas	-10.7256
misión	-10.7258
▁Forza	-10.7259
▁fez	-10.726
▁tribo	-10.7267
▁matar	-10.7271
▁xorna	-10.728
▁pirata	-10.7298
▁superar	-10.7304
▁du	-10.7308
▁rurais	-10.7309
▁quinta	-10.7309
▁predominante	-10.7312
▁viña	-10.7316
▁declarado	-10.7319
orra	-10.7324
rra	-10.7325
▁necesita	-10.7326
uero	-10.7329
▁78	-10.7333
▁155	-10.7335
▁campesiño	-10.7337
▁individuais	-10.7337
▁milenio	-10.7337
▁infección	-10.734
▁procedemento	-10.7342
▁gasto	-10.7342
▁1951	-10.7346
▁165	-10.7346
▁vales	-10.735
▁dirixir	-10.7353
▁cen	-10.7354
▁privada	-10.7356
laboración	-10.7358
▁canta	-10.7359
▁arma	-10.7367
▁reprodución	-10.7369
▁Fú	-10.7371
▁Morre	-10.7375
▁nomeamento	-10.7375
▁designado	-10.7376
▁coro	-10.7383
▁sementes	-10.7384
ux	-10.7384
▁82	-10.7385
▁seguía	-10.7393
▁quatro	-10.7396
▁medalla	-10.7396
▁falado	-10.7407
▁artes	-10.741
▁Nela	-10.7413
▁intentar	-10.7415
▁cita	-10.7423
▁crime	-10.7423
▁Pena	-10.7439
▁químicos	-10.7439
▁mental	-10.7446
▁gobernamenta	-10.7452
▁apelido	-10.7452
▁dedicou	-10.7452
▁candidatura	-10.7452
▁lobo	-10.7452
▁cardea	-10.7452
▁lagos	-10.7456
▁Mel	-10.7458
nés	-10.7458
▁ideal	-10.7463
▁atopaba	-10.747
▁escribe	-10.7476
▁complexos	-10.7476
▁creador	-10.7476
ling	-10.7486
▁consistente	-10.7489
mas	-10.7501
▁dependente	-10.7502
▁percorre	-10.7507
▁Estatuto	-10.751
▁explicación	-10.751
▁incendio	-10.751
▁Deportiv	-10.751
▁Negro	-10.7517
▁marcada	-10.7518
▁propietario	-10.7519
▁Mal	-10.7522
▁terá	-10.7526
xia	-10.7534
▁Ano	-10.7535
▁formaba	-10.7535
xustiza	-10.7537
▁descenso	-10.7539
▁petición	-10.7539
▁Alfred	-10.7539
▁bóveda	-10.7539
erusalé	-10.7539
▁matemático	-10.754
▁mineral	-10.7541
liberación	-10.7542
▁xera	-10.7544
▁Tra	-10.7546
▁Prim	-10.755
ual	-10.7551
▁Vell	-10.7556
▁fundar	-10.7558
▁tomada	-10.7563
▁periódica	-10.7568
▁homem	-10.757
▁poderoso	-10.757
▁amosa	-10.7578
▁Cultura	-10.7578
▁Galile	-10.7579
▁66	-10.7581
▁observa	-10.7582
▁Br	-10.759
▁aproveita	-10.7592
▁herba	-10.7597
▁deportivo	-10.7597
▁récord	-10.7597
▁arriba	-10.7599
▁complexa	-10.7602
▁diaria	-10.7602
▁negociación	-10.7606
▁traballaba	-10.7606
ssem	-10.7613
▁senador	-10.7613
varez	-10.7616
tas	-10.7624
▁Príncipe	-10.7627
▁ecosistema	-10.7627
▁alberga	-10.7627
▁illote	-10.7627
▁latitude	-10.7627
▁portada	-10.7627
▁volcánica	-10.7627
▁Ohio	-10.7628
▁funcionario	-10.7631
con	-10.7636
▁tiro	-10.7641
▁beneficios	-10.7642
▁Andr	-10.7647
▁capace	-10.765
onda	-10.7654
▁coidado	-10.7654
▁asiático	-10.7656
▁vidro	-10.7656
▁Terceir	-10.7657
▁Menor	-10.7658
▁incremento	-10.7658
erú	-10.7664
▁absoluto	-10.7669
▁vilas	-10.7673
▁naval	-10.7675
▁Romaní	-10.7676
▁colonial	-10.7682
▁laterais	-10.7685
▁tubo	-10.7686
▁regresar	-10.7687
▁Tiña	-10.769
▁humanas	-10.7695
▁cambia	-10.7698
▁detido	-10.7701
▁1912	-10.7708
▁editor	-10.7709
▁maioria	-10.7713
▁honor	-10.7715
▁médica	-10.7715
▁Canto	-10.7716
▁servidor	-10.7716
▁planetas	-10.7718
▁suceso	-10.7719
▁notas	-10.7721
enr	-10.7723
▁Florenci	-10.7724
▁castelá	-10.7725
▁tarefas	-10.7726
▁entende	-10.7727
▁fabricante	-10.7728
▁Inter	-10.7729
▁homens	-10.7741
▁nomeada	-10.7742
▁domingo	-10.7745
▁narrativa	-10.7745
▁0,	-10.7746
▁humor	-10.7746
▁dieta	-10.7746
▁Traballo	-10.7747
▁Marro	-10.7748
▁Confederación	-10.7749
▁acompañado	-10.7753
▁Mandel	-10.7754
▁xeograf	-10.7757
▁entrevista	-10.7758
▁pleno	-10.776
▁regra	-10.776
▁especialista	-10.7762
▁viver	-10.7765
▁Xur	-10.7765
▁Lin	-10.7767
▁certeza	-10.7775
xenti	-10.7775
avier	-10.7776
▁reducido	-10.778
▁Funda	-10.7781
▁neto	-10.7786
▁conxunta	-10.7788
cito	-10.7789
aquia	-10.7789
▁154	-10.7797
▁National	-10.7806
▁uniforme	-10.7815
eas	-10.7816
ier	-10.7819
▁acostuma	-10.782
▁empeza	-10.7824
▁parecer	-10.7828
▁ab	-10.783
tre	-10.7831
▁mañá	-10.7834
▁heroe	-10.7835
▁terminar	-10.7835
▁lector	-10.7835
▁Mesm	-10.7835
▁Banc	-10.7836
▁temporada	-10.7837
▁mundia	-10.7844
▁situa	-10.7844
▁visigodo	-10.7847
bert	-10.7847
▁76	-10.7849
▁encoro	-10.7854
▁armada	-10.7857
▁Parroquia	-10.7864
▁frente	-10.7864
▁gótico	-10.7865
▁125	-10.7865
▁folga	-10.7866
▁correo	-10.787
FC	-10.7877
▁veu	-10.7877
▁Gregori	-10.7879
▁Antiga	-10.7883
oz	-10.7891
▁laboratorio	-10.7895
▁rexeitou	-10.7895
▁bolsa	-10.7896
itude	-10.7897
▁organizado	-10.7899
ud	-10.79
▁caró	-10.7902
▁anua	-10.7903
▁escaso	-10.7905
DA	-10.7906
▁servi	-10.7924
▁multitude	-10.7925
▁privilexio	-10.7925
▁turista	-10.7925
▁Toronto	-10.7925
attus	-10.7925
▁resistente	-10.7926
▁primario	-10.7926
ras	-10.7929
▁celebrada	-10.7934
▁programación	-10.794
▁Vietnam	-10.7955
▁dessa	-10.7955
▁poderosa	-10.7956
▁masculino	-10.7959
▁Gar	-10.7959
ós	-10.7959
▁foresta	-10.7962
▁dano	-10.7965
riba	-10.7968
▁lhe	-10.7969
▁achado	-10.7969
▁integrante	-10.7973
▁golfo	-10.7974
▁estaría	-10.7976
lhes	-10.7978
▁voar	-10.7979
▁Sha	-10.7981
▁Linn	-10.7984
▁habitua	-10.7984
▁erupción	-10.7985
▁Bibli	-10.7986
ren	-10.799
▁colabora	-10.799
únic	-10.7997
▁abundan	-10.7997
▁intenta	-10.8001
▁Luc	-10.8001
▁pretende	-10.8004
NES	-10.8007
▁nacer	-10.8009
▁demostrou	-10.8016
▁espectador	-10.8016
▁causas	-10.8016
▁hemisferio	-10.8016
▁socio	-10.8019
▁futura	-10.8022
unto	-10.8028
▁poderá	-10.8031
▁alcanzou	-10.8034
oll	-10.8036
▁vender	-10.8038
▁irland	-10.8043
iva	-10.8046
▁sucesiva	-10.8046
▁proclamou	-10.8046
▁causou	-10.8046
▁comerciante	-10.8046
▁Minne	-10.8047
▁masiva	-10.8049
▁fresco	-10.8051
▁construíron	-10.8052
▁meta	-10.8054
▁lanza	-10.8058
▁propux	-10.8059
▁Michel	-10.8063
sexan	-10.8065
▁usou	-10.8066
▁tentou	-10.8067
▁mover	-10.8068
nio	-10.8068
gando	-10.8075
▁monxe	-10.8077
▁establecido	-10.8077
▁obtido	-10.8077
▁temática	-10.8078
▁recoñecer	-10.8086
▁seca	-10.8086
▁caminho	-10.8088
▁59	-10.8093
▁reunir	-10.8094
▁erros	-10.8094
▁crista	-10.8099
▁carbón	-10.8104
▁concurso	-10.8105
▁Condado	-10.8108
▁mancha	-10.8109
ñez	-10.8113
▁pesado	-10.8114
▁Antigo	-10.8117
cesto	-10.812
▁extra	-10.8126
▁Alm	-10.8131
▁fuxi	-10.8133
untos	-10.8135
▁carros	-10.8136
▁Ucra	-10.8139
▁aprobou	-10.8139
▁distinción	-10.8139
▁consoante	-10.8139
▁poética	-10.8139
▁obreiro	-10.8142
▁fases	-10.8143
▁precis	-10.8144
▁hab	-10.8156
▁críticos	-10.8167
▁cerámica	-10.817
▁Camiño	-10.817
▁cuberto	-10.817
▁pronuncia	-10.8171
▁Andalu	-10.8171
▁celebra	-10.8174
▁substituír	-10.8177
▁organizou	-10.818
▁descende	-10.8181
▁168	-10.8183
▁usados	-10.8197
▁polémica	-10.8201
▁reflicte	-10.8201
▁conquistou	-10.8201
▁167	-10.8201
▁acada	-10.8201
▁naquel	-10.8203
▁Cerv	-10.8205
tada	-10.8206
▁integrado	-10.8211
▁Prag	-10.8212
▁Territorio	-10.8213
▁audiencia	-10.8214
edo	-10.8217
▁Colle	-10.8218
▁Plan	-10.8218
gue	-10.8219
▁Galia	-10.8225
▁eliminar	-10.8228
▁compra	-10.823
ístico	-10.8231
▁Maria	-10.8231
▁establecida	-10.8232
▁navío	-10.8232
▁restauración	-10.8232
▁destruída	-10.8232
▁estética	-10.8232
▁himno	-10.8232
▁discípulo	-10.8232
▁quince	-10.8232
▁influente	-10.8232
▁Pale	-10.8234
tero	-10.8236
▁din	-10.8238
▁supera	-10.8245
▁organizada	-10.8245
▁milla	-10.825
▁xurdir	-10.8256
▁fixera	-10.8257
▁espectro	-10.8263
▁vendido	-10.8263
▁norteamericana	-10.8265
▁Bach	-10.8269
▁homónimo	-10.8271
▁leve	-10.8273
▁pobre	-10.8274
▁gravado	-10.828
▁coñécese	-10.8289
▁termina	-10.8296
▁nacionalidade	-10.8297
▁guión	-10.8297
▁pretendía	-10.8298
izar	-10.8306
▁visitar	-10.8306
▁incluír	-10.8306
úa	-10.8306
ierre	-10.8318
▁Gui	-10.8318
▁dist	-10.8321
▁gris	-10.8323
▁prato	-10.8325
▁Vatican	-10.8326
▁descrito	-10.8327
▁transformar	-10.8327
▁92	-10.8328
▁avogado	-10.8329
▁Esto	-10.8332
▁93	-10.8334
▁preocupación	-10.8337
mort	-10.8337
▁porco	-10.8338
avia	-10.8339
▁Art	-10.8341
▁flor	-10.8341
▁podia	-10.8346
uro	-10.8352
otter	-10.8353
▁Bob	-10.8357
▁discusión	-10.8358
▁titular	-10.8358
▁arcos	-10.8362
▁levada	-10.8363
erra	-10.8367
▁abandona	-10.8369
uxe	-10.8372
▁tramo	-10.838
▁radical	-10.8383
▁gera	-10.8386
▁variada	-10.8386
▁mulher	-10.8386
▁Iugoslav	-10.8389
▁estatuto	-10.8389
▁remate	-10.8389
▁herdanza	-10.8389
▁hum	-10.839
▁xove	-10.8392
▁quem	-10.8393
▁tropica	-10.8396
ner	-10.8396
▁estendeu	-10.8402
▁proteína	-10.8412
▁caracteriza	-10.8415
▁adoptar	-10.8416
▁polaco	-10.8418
▁99	-10.8419
▁Superior	-10.8421
▁discográfica	-10.8421
▁suposta	-10.8421
▁recoñece	-10.8422
▁expresa	-10.8426
diz	-10.8427
▁147	-10.8432
▁corda	-10.8436
▁froita	-10.8436
ulf	-10.844
▁efectiva	-10.8449
du	-10.845
▁157	-10.8451
▁estudante	-10.8451
▁apertura	-10.8453
▁Parece	-10.8453
▁arrecife	-10.8467
uga	-10.8469
▁visitante	-10.8472
▁armado	-10.8476
ava	-10.8482
▁Scott	-10.8485
▁académico	-10.8485
▁incursión	-10.8485
▁extinción	-10.8485
▁aprendiza	-10.8486
▁fixéron	-10.8486
▁balon	-10.8486
▁rival	-10.849
▁73	-10.849
▁perna	-10.8494
▁cordas	-10.8502
▁Vilar	-10.8504
gner	-10.8504
▁asegurar	-10.8505
▁oral	-10.8508
tina	-10.8513
▁escultor	-10.8517
▁salvar	-10.8519
▁existente	-10.8521
adas	-10.8523
▁expulsado	-10.8524
estamento	-10.8525
▁mariñeiro	-10.8531
arago	-10.8534
▁oposto	-10.8542
▁representada	-10.8547
▁interno	-10.8549
▁vocalista	-10.855
▁vencer	-10.8554
▁atopába	-10.8557
▁vertical	-10.856
har	-10.8567
▁Pertence	-10.857
dro	-10.857
ome	-10.8572
▁privado	-10.858
▁densa	-10.8581
▁ONU	-10.8581
▁bebida	-10.8581
▁sext	-10.8585
▁Univers	-10.8588
▁algué	-10.8593
▁intentou	-10.8595
▁84	-10.8598
▁nazi	-10.8598
▁ningué	-10.8601
▁intelixen	-10.8607
▁Podem	-10.8611
MS	-10.8613
▁Particip	-10.8614
▁decoración	-10.8614
▁instituto	-10.8614
▁persecución	-10.8614
▁queixo	-10.8614
▁chineses	-10.8614
▁declara	-10.862
▁Fronte	-10.8622
▁conca	-10.8629
▁Vo	-10.8632
▁fosse	-10.8633
▁sentimento	-10.8633
▁millo	-10.8636
▁vector	-10.8637
▁drogas	-10.8642
▁Florida	-10.8646
▁substitución	-10.8646
▁Gra	-10.865
▁pares	-10.8654
▁demostrar	-10.8655
▁87	-10.8655
▁preparar	-10.8663
▁gravou	-10.8667
▁Iso	-10.8672
per	-10.8676
▁complexidade	-10.8679
▁éuscar	-10.8679
mbolo	-10.8689
▁proporciona	-10.8694
▁Beta	-10.8701
▁lanzar	-10.8704
▁coloca	-10.8706
▁163	-10.8707
▁Cela	-10.8709
ibr	-10.8709
▁centímetro	-10.8711
▁climática	-10.8711
▁terremoto	-10.8711
▁Prat	-10.8712
▁combina	-10.8713
▁consciente	-10.8713
▁gramática	-10.8714
▁violenta	-10.8716
▁configuración	-10.8718
▁fazemos	-10.8718
▁Armeni	-10.8718
mp	-10.8721
▁79	-10.8735
▁hard	-10.874
▁Colomb	-10.8744
▁hebreo	-10.8744
▁paxaro	-10.8744
▁románico	-10.8744
▁rol	-10.8747
▁exp	-10.875
curso	-10.8753
▁dispositivo	-10.8755
▁aniversario	-10.8755
▁pasaba	-10.8759
▁agrícolas	-10.8764
▁Granad	-10.8771
▁baix	-10.8773
▁mostran	-10.8774
nta	-10.8774
▁Británica	-10.8777
▁Indonesia	-10.8777
▁Tiv	-10.8777
▁designar	-10.8781
▁Carme	-10.8783
▁escritora	-10.8785
▁Burgo	-10.8787
▁promove	-10.8797
▁dispositivos	-10.88
▁enxeñ	-10.8804
▁Lemo	-10.8805
▁88	-10.8805
▁oferta	-10.881
▁firme	-10.881
▁presas	-10.881
▁referend	-10.8811
▁xapones	-10.8812
▁Compañ	-10.8813
▁escapar	-10.8814
▁declarada	-10.8816
▁débeda	-10.8826
▁favorece	-10.8834
▁passar	-10.8836
cción	-10.8837
▁contemporánea	-10.8843
00	-10.8843
▁amarela	-10.8843
▁Conferencia	-10.8843
▁traxectoria	-10.8843
▁marea	-10.8844
▁Vallad	-10.8844
▁conclusión	-10.8846
▁vital	-10.8847
▁prop	-10.8848
▁manga	-10.885
▁cero	-10.885
▁Bela	-10.8851
▁rotación	-10.8856
▁espécie	-10.8858
able	-10.8864
▁Croa	-10.8871
▁Cant	-10.8871
▁61	-10.8872
▁Saint	-10.8876
▁defensor	-10.8876
▁externo	-10.8876
▁mostrou	-10.8876
▁recuperou	-10.8876
▁síntoma	-10.8876
▁compromiso	-10.8876
▁andar	-10.8877
▁receptor	-10.888
▁sétim	-10.8884
▁profundamente	-10.8885
▁dixital	-10.8888
colm	-10.8889
▁própria	-10.891
▁refuxio	-10.891
▁asemblea	-10.891
▁constitucional	-10.891
ubi	-10.8913
▁editorial	-10.8919
festival	-10.892
▁contou	-10.8925
▁pu	-10.8928
▁feira	-10.8929
▁sé	-10.893
▁sobriño	-10.8932
▁opera	-10.8932
▁inc	-10.8932
ñón	-10.8935
▁participante	-10.8936
▁Educa	-10.8943
he	-10.8943
▁Columbia	-10.8945
▁148	-10.896
▁diferen	-10.8962
▁característico	-10.8965
▁Am	-10.8966
▁Bre	-10.8969
▁aplicar	-10.8976
▁guerreiro	-10.8977
▁marítima	-10.8977
▁móbil	-10.8977
▁contorna	-10.8977
▁Lourenz	-10.8977
▁refire	-10.8977
▁princesa	-10.8977
▁cadeira	-10.8977
▁Libro	-10.8978
▁Ull	-10.8979
▁colectivo	-10.8983
▁serbio	-10.8987
ngel	-10.899
▁úsa	-10.8994
tán	-10.8996
og	-10.8997
▁sim	-10.8999
▁cria	-10.9
▁proclama	-10.9001
▁Mari	-10.9002
mais	-10.9003
▁fun	-10.9005
▁rocha	-10.9005
▁étnico	-10.901
▁talento	-10.901
▁revela	-10.9011
▁convertéron	-10.9013
▁posso	-10.9013
▁xer	-10.9017
▁69	-10.9018
▁tenda	-10.9018
▁incorpora	-10.9021
▁Ven	-10.9024
▁rexiona	-10.9024
▁Verde	-10.9025
▁computadores	-10.9029
▁chea	-10.9029
▁historic	-10.9035
▁89	-10.9038
▁Nicola	-10.904
▁Voc	-10.9041
▁74	-10.9043
▁bóla	-10.9044
▁axudou	-10.9044
▁xeometría	-10.9044
▁Smith	-10.9045
▁tivese	-10.9046
▁orixinaria	-10.9047
fica	-10.9049
▁Letr	-10.9053
▁contraste	-10.9054
▁gr	-10.906
▁161	-10.9063
▁dispó	-10.9066
▁Vermello	-10.9068
▁singular	-10.9072
▁confian	-10.9073
▁afirmou	-10.9076
▁devandito	-10.9078
▁estranxeira	-10.9078
▁progresiva	-10.9078
▁segredo	-10.9078
▁vitamina	-10.9078
▁reputa	-10.9078
▁Lingua	-10.9078
▁correr	-10.9079
▁reducida	-10.9081
ami	-10.9082
▁iniciais	-10.9084
▁federación	-10.9084
▁milhar	-10.9088
▁conquistar	-10.9091
▁mencionado	-10.9092
nzos	-10.9092
▁indicar	-10.9093
quín	-10.9095
▁celebrar	-10.9102
ix	-10.9105
▁97	-10.9108
▁Chris	-10.911
aribe	-10.9111
R	-10.9114
▁Celta	-10.9114
▁Darí	-10.9116
▁fame	-10.912
▁salva	-10.9121
mán	-10.9122
▁facían	-10.9126
▁81	-10.9127
NT	-10.9132
▁doutor	-10.9136
illiams	-10.9137
uer	-10.9141
▁parecido	-10.9146
▁impresión	-10.9146
▁constituíu	-10.9148
▁Love	-10.9149
▁doen	-10.9149
▁Sebasti	-10.9151
xencia	-10.9153
▁accede	-10.9153
▁86	-10.9157
▁Alp	-10.9161
▁Star	-10.9162
▁terrorista	-10.9173
▁gra	-10.9177
▁controversia	-10.918
▁progreso	-10.918
▁astronom	-10.918
▁eficaz	-10.918
▁levantamento	-10.9182
▁sucede	-10.9186
▁responder	-10.9189
▁prisioneiros	-10.9194
▁pago	-10.9197
▁Bal	-10.9214
▁Precisa	-10.9215
▁décimo	-10.9215
▁Mozart	-10.9215
▁escollido	-10.9215
▁constituído	-10.9222
▁igualdade	-10.9224
▁Daco	-10.9227
▁obtén	-10.9228
▁derivada	-10.9236
▁funda	-10.9243
nica	-10.9244
pania	-10.9244
▁pacientes	-10.9247
▁biolox	-10.9248
▁Green	-10.9248
ospital	-10.9249
▁Lu	-10.9252
▁numera	-10.9255
▁produci	-10.9257
▁corredor	-10.9258
▁Dic	-10.9259
▁peor	-10.9262
▁Ale	-10.9265
▁Nel	-10.9268
lianza	-10.9271
▁Rose	-10.9273
▁prestixio	-10.9274
▁Tint	-10.9278
▁Independenc	-10.9284
▁cromosoma	-10.9284
▁rico	-10.9284
▁desembocadura	-10.9286
umanidade	-10.9287
▁esperar	-10.9295
▁conseguimos	-10.9296
▁US	-10.9296
▁Gó	-10.9298
▁prima	-10.93
ff	-10.9302
unt	-10.9304
▁acceder	-10.9311
▁Carr	-10.9312
▁enfermo	-10.9319
▁esfera	-10.9319
▁soporta	-10.9319
taneamente	-10.9319
▁regresa	-10.9327
▁solu	-10.9328
▁poderia	-10.9331
▁ninguém	-10.9332
▁significativo	-10.9332
▁depresión	-10.9333
fu	-10.9334
bar	-10.9334
torio	-10.9336
▁Rena	-10.9339
tem	-10.9345
▁atopá	-10.9345
▁Mate	-10.9351
▁pla	-10.9353
▁cemiterio	-10.9353
▁tocou	-10.9354
▁enteira	-10.9354
▁Bernard	-10.9354
▁datan	-10.9361
▁granito	-10.9365
oland	-10.9368
▁clasificar	-10.9368
▁146	-10.9368
▁viaxar	-10.937
▁Valde	-10.9372
▁conversa	-10.9373
olid	-10.9376
E	-10.9385
▁aceptar	-10.9385
▁xermánica	-10.9388
▁carballo	-10.9388
▁adestramento	-10.9389
enezuela	-10.9393
▁detalles	-10.9397
inho	-10.9401
▁diferencia	-10.9401
▁síntese	-10.9403
▁enfrontar	-10.941
▁Patt	-10.9419
▁Rexión	-10.9423
▁mantiña	-10.9423
▁mención	-10.9425
▁ensinar	-10.9425
▁SI	-10.9428
▁Be	-10.9429
▁Sanch	-10.943
iam	-10.9432
▁separar	-10.9433
▁Tri	-10.9437
▁140	-10.9448
▁ferida	-10.9459
nha	-10.9465
▁lento	-10.9467
▁sob	-10.947
▁livro	-10.9477
▁orientación	-10.9484
▁medra	-10.9486
▁110	-10.9493
▁congreso	-10.9494
▁subespecie	-10.9494
▁considerou	-10.9494
▁gusto	-10.9494
▁raro	-10.9498
mez	-10.9498
50	-10.9504
▁afecta	-10.9509
▁145	-10.9512
▁conservan	-10.9514
hi	-10.9518
▁Music	-10.9527
▁amarelo	-10.9529
▁conciencia	-10.9529
▁perfecta	-10.9529
▁iguais	-10.9529
▁Stalin	-10.953
▁Sou	-10.953
▁educativo	-10.9531
▁rexistrada	-10.9533
oven	-10.9536
▁flora	-10.9536
▁facilidade	-10.9538
ordan	-10.954
▁mecanismos	-10.9549
▁Fil	-10.955
▁negocio	-10.9553
▁exercer	-10.9559
▁momentos	-10.956
▁reloxo	-10.9565
▁teórico	-10.9565
▁Concili	-10.9565
▁descrita	-10.9566
▁embaixador	-10.9566
▁filhos	-10.9566
qu	-10.9569
▁sair	-10.9575
▁otomán	-10.9576
▁celebrado	-10.958
▁radica	-10.9593
▁protexido	-10.9601
▁custos	-10.9601
▁imposible	-10.9601
▁elite	-10.9603
▁defende	-10.9606
▁Estudo	-10.9608
▁pechado	-10.9609
▁Chan	-10.9623
riño	-10.9628
▁Lenin	-10.9637
▁periódico	-10.9637
▁Segui	-10.9637
▁reconstrución	-10.9639
▁fiz	-10.9649
▁migración	-10.9651
▁referente	-10.9653
amora	-10.9656
ío	-10.9659
stem	-10.9668
▁negou	-10.9673
▁Dr	-10.9677
▁XXI	-10.9684
▁negocios	-10.9684
▁Carta	-10.9687
▁Linu	-10.9705
▁satélite	-10.9705
▁rendemento	-10.9709
▁escavación	-10.9713
▁mudanza	-10.9715
▁Sabe	-10.9723
▁experimental	-10.9726
vel	-10.9727
▁Mac	-10.9729
▁Poder	-10.973
▁economia	-10.9745
▁permiso	-10.9745
▁aparencia	-10.9745
▁cantiga	-10.9745
▁Movement	-10.9745
▁cren	-10.9748
▁manifesta	-10.975
▁oración	-10.975
▁Abu	-10.9754
▁substituí	-10.9754
▁xornada	-10.9755
▁Carball	-10.976
▁Come	-10.9762
alvez	-10.9767
ovo	-10.9772
M	-10.9772
▁copia	-10.9779
▁derradeira	-10.9781
▁débil	-10.9781
▁provavelmente	-10.9782
▁vaso	-10.9783
▁tira	-10.9783
▁centena	-10.9784
▁cabal	-10.9785
▁pechada	-10.9786
▁1880	-10.9791
▁Aparece	-10.9793
▁Die	-10.9794
▁popula	-10.9794
pía	-10.9794
forte	-10.9797
▁Secretari	-10.9798
raft	-10.9815
▁decidi	-10.9817
▁Mondoñedo	-10.9818
▁térmica	-10.9818
▁téxtil	-10.9818
▁puro	-10.9822
CE	-10.9825
unta	-10.9844
▁fina	-10.9848
▁Defens	-10.9854
▁cabeceira	-10.9854
▁enterrado	-10.9854
▁imagens	-10.9854
▁músculo	-10.9854
▁larva	-10.9855
▁graxa	-10.9855
F	-10.9855
▁Nil	-10.9856
▁cuántic	-10.9856
▁moza	-10.9857
▁xuven	-10.9858
▁deulle	-10.9866
▁engadir	-10.9866
▁fornece	-10.9867
▁darlle	-10.9868
▁preparación	-10.9868
▁simplesmente	-10.9872
ticamente	-10.9875
▁designa	-10.9877
▁Rosal	-10.9879
iño	-10.9881
ambém	-10.9889
▁Luxemburg	-10.9891
▁Posúe	-10.9891
▁virtude	-10.9891
ugo	-10.9891
▁instrución	-10.9895
mb	-10.9899
▁quedaba	-10.99
▁finalidade	-10.9901
▁sombra	-10.9905
▁relativo	-10.9905
▁Ru	-10.9909
ablo	-10.9924
▁lexislativo	-10.9928
▁sílaba	-10.9928
▁aéreo	-10.9928
▁conduta	-10.9928
▁Ecua	-10.9928
▁Basil	-10.993
▁electo	-10.9931
finada	-10.9934
▁romance	-10.9934
ló	-10.9935
▁aten	-10.9937
ssemos	-10.9948
▁causada	-10.9958
▁realizadas	-10.9962
posición	-10.9964
▁arxentino	-10.9965
▁marítimo	-10.9965
▁pantalla	-10.9965
▁pacto	-10.9966
▁Let	-10.9969
▁diminuí	-10.9969
atrimonio	-10.9971
▁afastado	-10.9972
ega	-10.9974
▁tesouro	-10.9975
▁afectada	-10.9975
ecia	-10.9979
▁algum	-10.9979
▁recurso	-10.9981
▁tivera	-10.9981
▁dedicar	-10.9991
▁positivo	-10.9992
err	-10.9993
▁deusa	-10.9998
▁graves	-11
▁afirmación	-11.0001
▁Iraq	-11.0002
▁austríaco	-11.0002
▁contorno	-11.0002
▁ficheiro	-11.0002
▁visitou	-11.0002
▁fui	-11.0003
▁Bel	-11.0004
▁casca	-11.0007
mbra	-11.0008
lice	-11.0008
▁aquele	-11.0012
▁catalá	-11.0027
▁cura	-11.0029
▁autoestrada	-11.003
abria	-11.0032
pita	-11.0036
▁devandita	-11.004
▁peregrino	-11.004
▁contiña	-11.004
ctuou	-11.004
▁ricos	-11.0043
ansa	-11.0043
▁piso	-11.0045
▁rapa	-11.0046
▁dici	-11.0049
▁cora	-11.0052
▁ad	-11.0053
▁modernas	-11.0055
▁excelente	-11.0058
▁básicos	-11.0069
▁consistía	-11.0077
▁descoñecido	-11.0077
▁Salaman	-11.0081
rre	-11.0083
▁comando	-11.0085
▁Ferro	-11.0085
▁And	-11.0087
▁integrada	-11.0092
▁ouvir	-11.0095
▁costeira	-11.0097
▁fila	-11.0098
▁orgánica	-11.0099
▁Pres	-11.0109
▁Amai	-11.011
▁cova	-11.0111
▁DVD	-11.0115
▁constituída	-11.0115
▁protocolo	-11.0115
▁intelectuais	-11.0115
▁Nalgún	-11.0115
cadencia	-11.0115
▁vigor	-11.0115
▁Estrada	-11.0118
▁substituída	-11.0122
▁procesa	-11.0122
▁destacada	-11.0122
▁transforma	-11.0124
▁fi	-11.0125
▁taxas	-11.0126
ola	-11.0135
▁axente	-11.0136
crist	-11.0141
▁atracción	-11.0142
ima	-11.0143
▁Fri	-11.0145
▁releva	-11.0147
▁aproveitar	-11.015
▁diplomático	-11.0152
▁exercicio	-11.0152
▁universitario	-11.0152
▁informática	-11.0152
▁feminista	-11.0154
▁isótopo	-11.0155
▁rodeada	-11.0158
▁elevación	-11.0159
hara	-11.0162
▁extenso	-11.0164
▁manteñ	-11.0167
CO	-11.0171
nico	-11.0175
mina	-11.0176
▁tentativa	-11.0177
▁histórias	-11.0185
▁plantación	-11.0185
▁ocasional	-11.0188
▁169	-11.0188
▁alcume	-11.019
▁queria	-11.019
▁Palma	-11.019
▁desastre	-11.0191
▁franquista	-11.0191
▁lixeiro	-11.0195
▁mão	-11.0196
▁Pobr	-11.0199
▁94	-11.02
▁nomeou	-11.02
▁rodeado	-11.0203
▁Món	-11.0203
ificación	-11.0206
▁concedeu	-11.0209
▁Garda	-11.0212
sota	-11.0213
▁instalar	-11.0213
▁Templ	-11.0216
attle	-11.0218
ulo	-11.0222
úpiter	-11.0228
▁Google	-11.0228
▁sometido	-11.0228
▁gráfica	-11.0228
▁Grand	-11.0229
▁Xusti	-11.023
▁inspiración	-11.0234
▁abade	-11.0234
▁dependen	-11.0238
▁afeccionado	-11.0245
▁melhores	-11.0246
bur	-11.0247
▁mantí	-11.0254
▁adquirir	-11.0256
▁átomo	-11.0259
▁Estamo	-11.026
▁incluíu	-11.0266
▁obrigou	-11.0266
▁Modern	-11.0266
▁Isa	-11.027
▁som	-11.0273
ária	-11.0274
▁Ricard	-11.0277
▁equipa	-11.0277
▁quais	-11.0277
▁exame	-11.0279
▁comprar	-11.0281
▁constantemente	-11.0283
ot	-11.0283
▁Live	-11.0293
▁operativo	-11.0298
▁American	-11.0298
▁recibido	-11.0298
▁fol	-11.0299
▁inspirado	-11.0302
▁estudoso	-11.0304
▁cúpula	-11.0305
electromagnética	-11.0306
rían	-11.0306
▁nucleares	-11.0307
▁Vega	-11.0311
▁carto	-11.0311
▁Praz	-11.0311
ecto	-11.0315
cemento	-11.0328
▁Señora	-11.0331
▁tende	-11.0332
atedral	-11.0342
▁cincuenta	-11.0343
▁epidemia	-11.0343
▁lesión	-11.0344
▁linha	-11.0344
▁mi	-11.0345
▁molecular	-11.0347
▁moda	-11.0347
eta	-11.035
▁condena	-11.0351
▁Alba	-11.0358
▁expuls	-11.0358
▁vendeu	-11.0362
▁Ser	-11.0368
▁asistencia	-11.0369
grado	-11.0372
▁tomando	-11.0378
▁elixir	-11.038
▁agrupación	-11.038
▁ferramenta	-11.0381
▁salvo	-11.0381
▁Aristóteles	-11.0382
▁biolóxica	-11.0382
▁realíza	-11.0382
▁islam	-11.0383
▁top	-11.0389
▁explorar	-11.0393
▁exploración	-11.0393
▁coral	-11.0397
▁passa	-11.0397
lica	-11.0404
tei	-11.0405
▁Villa	-11.041
ónica	-11.0418
▁descoñecida	-11.0421
▁lexislación	-11.0421
▁xeográfico	-11.0421
▁precursor	-11.0421
▁primitivo	-11.0421
▁atentado	-11.0421
▁Colón	-11.0421
lho	-11.0421
▁Teodo	-11.0421
▁Il	-11.0421
▁desafio	-11.0424
▁EP	-11.0426
▁pr	-11.0426
▁conselleiro	-11.0427
▁Gro	-11.0427
▁Foro	-11.0428
▁Católico	-11.0429
▁Arz	-11.0432
fianza	-11.0433
▁presa	-11.0437
▁Ge	-11.0438
▁cego	-11.0445
▁Cultural	-11.0446
▁sequer	-11.045
bro	-11.0451
▁mala	-11.0451
rum	-11.0458
nicialmente	-11.0459
▁democrático	-11.0459
▁groso	-11.046
▁etnia	-11.0464
▁dinámica	-11.0465
▁900	-11.0466
▁Arou	-11.0468
▁emisora	-11.0468
▁sensación	-11.047
▁medrar	-11.0471
▁clasificado	-11.0473
uli	-11.048
▁falaba	-11.0484
▁presentado	-11.0487
▁seguran	-11.0494
▁alga	-11.0497
▁metálico	-11.0499
▁responsábe	-11.0499
▁tormenta	-11.0499
▁TED	-11.0501
▁Risa	-11.0501
▁Adolf	-11.0502
▁mantendo	-11.0503
▁Estaba	-11.0504
▁levando	-11.0504
▁palavra	-11.0505
ec	-11.0506
▁completar	-11.051
evento	-11.0515
▁resultante	-11.0518
▁axentes	-11.0522
▁viol	-11.0533
iteratura	-11.0537
prendeu	-11.0537
▁Sch	-11.0537
▁primitiva	-11.0538
▁etiqueta	-11.0538
▁cómpre	-11.0539
▁Bulga	-11.0539
▁Souto	-11.054
ápol	-11.0541
▁interpreta	-11.0541
▁governo	-11.0545
▁estima	-11.0546
▁adopta	-11.0546
▁básico	-11.0546
▁cedo	-11.0547
▁Estou	-11.0547
▁Europeo	-11.0556
riz	-11.0566
▁Vida	-11.0574
▁nativa	-11.0577
▁Física	-11.0577
▁lateral	-11.0577
▁censura	-11.0577
▁salvaxe	-11.0579
▁conduci	-11.058
▁avanzada	-11.0583
▁Bor	-11.0592
▁contan	-11.0594
▁atoparon	-11.0595
▁ref	-11.0595
▁mandou	-11.0595
▁estende	-11.0596
▁vira	-11.06
▁sexua	-11.0602
▁Teñ	-11.0605
▁ligada	-11.0605
▁capturado	-11.0606
▁illada	-11.0608
▁sobrevivir	-11.0613
▁CA	-11.0615
▁Departamento	-11.0617
▁molusco	-11.0617
▁cárcere	-11.0617
▁fála	-11.0617
osfera	-11.0617
▁Distrito	-11.0617
▁instalou	-11.0617
▁estreou	-11.0618
▁narra	-11.0618
▁paralela	-11.0618
▁infant	-11.0623
▁atrae	-11.0625
▁colaborar	-11.0625
▁alteración	-11.0634
ger	-11.0636
▁mito	-11.0636
▁aventuras	-11.0638
▁adoitaba	-11.0639
▁evita	-11.0639
▁representaba	-11.0649
rán	-11.065
▁orzamento	-11.0656
▁tripulación	-11.0656
▁eficiente	-11.0656
▁acento	-11.0657
▁início	-11.0657
▁incidente	-11.0658
▁83	-11.0659
▁empresario	-11.066
▁estea	-11.0664
▁mono	-11.0666
▁Volta	-11.0669
ern	-11.067
▁semella	-11.0671
▁tra	-11.0672
▁cruzar	-11.0678
ñ	-11.0687
▁comp	-11.0692
▁filosófica	-11.0696
▁Babil	-11.0697
esta	-11.0698
▁describiu	-11.0702
▁introducir	-11.0703
▁Español	-11.0704
▁soño	-11.0707
▁correspondencia	-11.0709
▁imposto	-11.0715
▁Orle	-11.0716
▁Del	-11.0717
▁falla	-11.0717
▁realizan	-11.073
▁Redond	-11.0732
lio	-11.0732
ore	-11.0734
▁destruído	-11.0736
▁fonema	-11.0736
▁intervalo	-11.0736
▁pendente	-11.0736
▁cinematográfica	-11.0736
▁Moore	-11.0737
▁alcohol	-11.0737
▁asedio	-11.0739
▁desenvolvimento	-11.0739
▁Libre	-11.0741
▁cheo	-11.0741
▁naquele	-11.0743
▁combater	-11.0746
▁observador	-11.0747
▁Ti	-11.0751
▁parecen	-11.0756
▁financeiro	-11.0757
▁citado	-11.0758
▁querem	-11.0764
▁Case	-11.0764
tado	-11.077
▁interpretar	-11.0772
▁semifina	-11.0776
▁marxista	-11.0776
▁cloruro	-11.0776
▁diálogo	-11.0776
▁Super	-11.0777
▁saga	-11.0778
▁Duque	-11.0778
▁Colexio	-11.0784
▁Toqu	-11.0785
▁lunar	-11.0786
▁pasaxe	-11.0789
▁Señor	-11.079
▁Traba	-11.0791
▁Lord	-11.0793
quel	-11.0795
▁liberado	-11.0804
▁Roch	-11.0805
▁húngaro	-11.0805
dando	-11.0808
▁dicía	-11.0812
▁bombardeo	-11.0817
▁carlista	-11.0818
▁orixinario	-11.0818
▁especializada	-11.0819
▁perdido	-11.082
fauna	-11.082
▁Comeza	-11.0822
▁animación	-11.0822
clive	-11.0823
ata	-11.0827
▁investiga	-11.0834
▁prosa	-11.0835
imburg	-11.0843
▁serven	-11.0847
▁Tai	-11.0848
▁Paso	-11.0849
xía	-11.0849
▁esquerdo	-11.0857
mica	-11.0862
▁casamento	-11.0865
▁amante	-11.0866
▁Ci	-11.0866
▁ocorrer	-11.0866
▁responde	-11.0868
▁Feli	-11.0874
▁perdas	-11.0875
▁115	-11.0877
▁rodea	-11.088
lfo	-11.0882
▁apoia	-11.0883
▁realista	-11.0885
▁musulmá	-11.0889
ieito	-11.089
▁solares	-11.0891
▁criterios	-11.0894
▁domina	-11.0895
▁colegas	-11.0896
▁Massachus	-11.0898
▁Gallego	-11.0898
▁paquete	-11.0898
▁arroz	-11.0898
▁localíza	-11.0898
▁esencia	-11.0901
▁derrot	-11.0902
ándo	-11.0903
▁Coo	-11.0903
▁Rai	-11.0903
end	-11.0905
▁Cald	-11.0905
▁Televisió	-11.0908
▁Irá	-11.0913
ónimo	-11.0923
▁impedir	-11.0924
▁renuncia	-11.0931
▁Aeroporto	-11.0939
▁ligazón	-11.0939
▁ducado	-11.0939
▁Nic	-11.0939
▁semellanza	-11.094
▁desprazamento	-11.094
▁Bell	-11.0947
ford	-11.0948
▁Persi	-11.0953
ugh	-11.0954
▁Mer	-11.0955
▁vasalo	-11.0955
▁definitivo	-11.0958
▁serio	-11.0959
10	-11.0963
▁alimentar	-11.0964
▁altera	-11.0967
▁africanos	-11.097
▁tropicais	-11.0977
▁firma	-11.0979
▁Gallega	-11.098
▁eclesiástica	-11.098
▁incorporou	-11.098
▁cordilleira	-11.098
ven	-11.098
▁descobrir	-11.0982
▁Festa	-11.0983
▁recta	-11.0986
Veig	-11.099
▁clientes	-11.0993
▁aceptada	-11.0995
ang	-11.1006
▁pintores	-11.1006
▁Andre	-11.1006
▁declarar	-11.101
▁criado	-11.1013
▁renova	-11.1017
▁substituíu	-11.102
▁matemáticos	-11.102
▁Británico	-11.1021
▁mocidade	-11.1021
▁single	-11.1021
▁recollida	-11.1022
▁Amb	-11.1024
ana	-11.1027
▁menciona	-11.103
teve	-11.103
▁Master	-11.1032
lor	-11.1041
▁Piñeiro	-11.1043
▁inaugura	-11.1045
▁Bur	-11.1049
made	-11.1055
▁Ch	-11.1062
▁explosión	-11.1062
▁aliaxe	-11.1062
▁publicidade	-11.1063
▁eventual	-11.1068
▁colectiva	-11.1076
▁respondeu	-11.1092
▁conversión	-11.1093
▁calci	-11.1095
▁faría	-11.1098
▁Sul	-11.11
▁alterna	-11.1103
▁belga	-11.1104
▁abarca	-11.1104
▁corresponden	-11.1105
▁Roger	-11.1105
▁futbolista	-11.1105
ofre	-11.1106
▁conservador	-11.1107
▁anaco	-11.1108
▁Tem	-11.1117
▁pole	-11.1118
▁corent	-11.112
illa	-11.1121
▁conforman	-11.1122
iga	-11.1122
▁subir	-11.1123
▁Deputado	-11.1123
▁liñaxe	-11.1124
vose	-11.1127
▁empregou	-11.1127
olinesia	-11.1132
▁competir	-11.1133
▁nazis	-11.1135
▁casado	-11.1135
ov	-11.1137
▁Brit	-11.1138
▁Igual	-11.1145
▁regato	-11.1146
▁favorable	-11.1146
▁debida	-11.1146
▁quixo	-11.1147
▁Cartag	-11.1153
▁concesión	-11.1153
▁dentes	-11.1153
empre	-11.1157
▁agr	-11.1161
▁sabia	-11.1162
▁PP	-11.1165
▁Ovi	-11.117
▁Lim	-11.1172
▁ilumina	-11.1179
▁conter	-11.1179
▁estancia	-11.1186
▁tabaco	-11.1187
▁faraón	-11.1187
▁modalidade	-11.1187
▁desemboca	-11.119
▁Social	-11.1191
adores	-11.1191
▁FI	-11.1199
▁Estev	-11.1199
▁Colonia	-11.1201
▁Bilba	-11.1203
▁promover	-11.1204
▁ofrecer	-11.1206
▁Fai	-11.1213
ivo	-11.1216
▁Scho	-11.1217
▁ofensiva	-11.1217
▁coincidi	-11.1219
▁compoñen	-11.1222
▁danza	-11.1227
iria	-11.1229
▁húmida	-11.1229
▁arquitectónico	-11.1229
▁intenso	-11.123
omo	-11.123
▁casco	-11.1231
ein	-11.1232
▁xerar	-11.1232
▁Preto	-11.1239
▁afectado	-11.1251
▁Blanco	-11.1256
ganist	-11.1257
▁fotos	-11.1258
▁ruptura	-11.1271
▁innovación	-11.1271
▁Xeneral	-11.1271
▁recibía	-11.1271
ite	-11.1272
▁Fried	-11.1272
▁efeito	-11.1273
▁Airb	-11.1275
port	-11.1283
ené	-11.1294
▁haver	-11.1296
▁irá	-11.1301
▁voltar	-11.1306
▁Roo	-11.1311
▁Pireneo	-11.1314
▁pensei	-11.1314
▁vestixio	-11.1314
▁Gustav	-11.1314
▁comité	-11.1314
▁espiritual	-11.1314
viera	-11.1314
▁Borbón	-11.1315
▁teclado	-11.1318
▁Tralo	-11.1318
▁illado	-11.1319
pesar	-11.1319
▁india	-11.1319
▁foco	-11.1319
aíña	-11.1323
▁Pobo	-11.1323
▁Valle	-11.1325
▁350	-11.1326
▁Big	-11.1326
▁minuto	-11.1328
▁gol	-11.1328
▁partícula	-11.1328
▁Parte	-11.1328
uc	-11.1329
▁consideración	-11.1332
ington	-11.1349
▁Filosof	-11.1356
▁célebre	-11.1356
▁Connect	-11.1356
▁facultade	-11.1357
▁Arabi	-11.1357
▁olhos	-11.1362
▁feliz	-11.1364
▁mercados	-11.1365
▁transmitir	-11.137
▁mu	-11.137
▁apoiado	-11.1371
ér	-11.1373
▁rexistrado	-11.138
canda	-11.138
▁mestra	-11.1381
tico	-11.1382
fase	-11.1383
▁sitúan	-11.1383
▁importa	-11.1385
▁científicas	-11.1387
▁deve	-11.1388
▁aboli	-11.1388
▁ábsida	-11.1399
▁cunca	-11.14
mer	-11.1408
▁rapaz	-11.1411
llón	-11.1415
▁estatística	-11.1417
bre	-11.1418
▁aprobada	-11.1421
▁cama	-11.1423
▁Roll	-11.1424
ueens	-11.1424
▁forno	-11.1425
tica	-11.1431
▁pontes	-11.1432
▁cortes	-11.1438
ruguai	-11.1441
▁Antártida	-11.1442
▁ateniense	-11.1442
▁chumbo	-11.1442
▁estrita	-11.1442
▁tamanho	-11.1442
▁tarxeta	-11.1442
▁Cinc	-11.1443
thur	-11.1443
▁moderado	-11.1447
quilo	-11.1448
acque	-11.1449
ota	-11.1456
▁Tradicional	-11.1457
▁ví	-11.1458
lona	-11.1466
viron	-11.147
ntario	-11.147
▁Esparta	-11.147
▁comedia	-11.1471
olítico	-11.1473
▁Negra	-11.1474
▁vela	-11.1476
▁conseguem	-11.1482
▁principado	-11.1484
▁asteroide	-11.1485
▁módulo	-11.1485
▁dizem	-11.1485
▁telescopio	-11.1485
▁potente	-11.1485
icut	-11.1486
▁invención	-11.1491
íamos	-11.1497
▁Teodor	-11.1498
▁invadi	-11.15
▁Rub	-11.1502
▁esperan	-11.1508
▁próprio	-11.1509
▁Pol	-11.1509
outh	-11.1509
▁definido	-11.1512
▁Autónoma	-11.1528
▁lírica	-11.1528
▁tínhamo	-11.1528
▁128	-11.1529
▁Militar	-11.153
▁parlamentaria	-11.153
▁ocupan	-11.1535
▁restrición	-11.1535
▁tirada	-11.1538
▁Mellor	-11.1538
tuc	-11.154
▁Obrigad	-11.1544
▁ma	-11.1555
▁tráta	-11.1555
▁Saturn	-11.1561
▁além	-11.1567
bio	-11.1569
fluencia	-11.157
▁proveniente	-11.1572
▁tronco	-11.1572
▁Mestre	-11.1572
▁Adam	-11.1574
▁presénta	-11.1574
▁comprender	-11.1579
▁enfrontou	-11.1579
ague	-11.1579
▁mencionada	-11.158
▁Stan	-11.1584
▁Pascua	-11.1586
▁cume	-11.1586
▁fragmentos	-11.1587
rot	-11.1587
rece	-11.1591
▁convertería	-11.1593
▁verdes	-11.1593
▁trataba	-11.1594
SO	-11.1595
inha	-11.1596
▁dáse	-11.1598
▁ética	-11.16
▁bos	-11.1602
ini	-11.1604
▁emoción	-11.1607
▁fiei	-11.1607
▁Ac	-11.1608
▁brasileira	-11.1615
▁movimento	-11.1615
▁orbita	-11.1615
▁diploma	-11.1615
▁sentimentos	-11.1615
▁destacou	-11.1616
tróxeno	-11.1616
▁elixida	-11.1616
▁dise	-11.1617
▁primo	-11.162
▁State	-11.1621
▁burgues	-11.1621
▁Fé	-11.1624
▁Liber	-11.1627
▁Gil	-11.1629
▁té	-11.163
olo	-11.1631
por	-11.1632
▁comunicar	-11.1633
▁asegura	-11.1633
▁reside	-11.1641
▁gravados	-11.1641
▁contamina	-11.1646
▁cometa	-11.1652
loxía	-11.1657
▁bombardeiro	-11.1659
▁cráter	-11.1659
▁fértil	-11.1659
▁predecesor	-11.1659
▁escravitude	-11.1659
▁sinónimo	-11.1659
▁fungo	-11.166
▁galeguista	-11.1661
ogo	-11.1662
▁Long	-11.1666
▁perigoso	-11.1671
▁Sof	-11.1678
000	-11.1683
▁controlada	-11.1684
▁especificamente	-11.1689
alter	-11.1692
▁Caso	-11.1695
rei	-11.1696
▁Ban	-11.1698
ólogo	-11.1702
▁chegaba	-11.1703
▁experto	-11.1703
▁hindú	-11.1703
▁tartaruga	-11.1703
▁xenético	-11.1703
▁dividiu	-11.1703
▁trastorno	-11.1703
▁oitavo	-11.1704
▁voluntario	-11.1704
▁fizemos	-11.1704
▁especializado	-11.1706
▁extremos	-11.1709
▁interiores	-11.171
▁neurona	-11.1711
▁medición	-11.1711
mundo	-11.1712
offs	-11.1713
▁granxa	-11.1716
izado	-11.1716
▁protexe	-11.1719
▁procurar	-11.1727
▁127	-11.1729
amia	-11.1731
▁Bolo	-11.1738
▁desas	-11.174
▁complexas	-11.1741
▁santuario	-11.1748
▁Enrique	-11.1748
censión	-11.1748
▁califa	-11.1748
úas	-11.1748
▁Anders	-11.1752
▁tsar	-11.1753
▁usual	-11.1754
adura	-11.1755
▁acusación	-11.1757
torce	-11.1758
▁óxido	-11.1758
▁Natural	-11.1762
▁comisión	-11.1769
▁cantar	-11.1769
▁CO	-11.1775
▁Mos	-11.1777
▁Ribeira	-11.1777
ph	-11.1785
▁setent	-11.179
▁espectacular	-11.1792
▁ilegal	-11.1792
▁intérprete	-11.1792
▁capite	-11.1792
▁transferencia	-11.1792
▁australiano	-11.1792
▁colleita	-11.1792
▁felicidade	-11.1793
▁inmediato	-11.1793
▁conhecimento	-11.1794
▁recoñeceu	-11.1796
▁possa	-11.1797
▁derrotar	-11.1797
▁Nú	-11.1798
▁adop	-11.18
▁bit	-11.1801
▁votación	-11.1802
▁educa	-11.1803
▁rua	-11.1804
atura	-11.1806
▁Camp	-11.1809
▁usaba	-11.1818
▁nega	-11.1821
▁conquistada	-11.1822
▁estivera	-11.1824
▁tratou	-11.1824
▁Steve	-11.1836
▁participan	-11.1836
stante	-11.1837
▁Biblioteca	-11.1837
▁biolóxico	-11.1837
▁mediterráneo	-11.1837
▁destinada	-11.1837
▁comigo	-11.1837
▁vítima	-11.1837
▁Alfons	-11.1837
▁adulto	-11.1837
▁doutoramento	-11.1838
▁xenoma	-11.1838
▁Tenho	-11.1841
▁canal	-11.1842
ali	-11.1842
olf	-11.1843
▁mares	-11.1845
▁lembra	-11.1851
▁físicas	-11.1854
▁resultar	-11.1857
▁Leon	-11.1857
▁List	-11.186
▁podendo	-11.1862
▁argumenta	-11.1862
ún	-11.1864
▁aceptado	-11.1865
ã	-11.1865
▁Sacr	-11.1865
enta	-11.1868
▁emigrante	-11.1869
▁barra	-11.1872
▁dirixe	-11.1875
▁anuncio	-11.1875
▁Cabe	-11.188
▁bicicleta	-11.1882
▁tributo	-11.1882
▁vulgar	-11.1882
▁Adoita	-11.1882
▁ovella	-11.1882
▁troux	-11.1882
▁Municipal	-11.1883
▁Brux	-11.1883
▁piñeiro	-11.1884
▁peito	-11.1884
▁paciente	-11.1885
hite	-11.1885
▁nena	-11.1886
▁cable	-11.1887
▁masculina	-11.1891
uliu	-11.1891
orge	-11.1894
▁viaxa	-11.1907
▁ideias	-11.1908
▁Alexand	-11.1909
U	-11.191
▁denuncia	-11.1914
▁chegaría	-11.1917
▁linea	-11.1918
▁expresar	-11.1918
remos	-11.1922
▁Moi	-11.1923
▁peda	-11.1926
▁fío	-11.1927
▁daba	-11.1927
▁protón	-11.1929
▁Rod	-11.193
▁irregular	-11.1931
▁Vive	-11.1931
cion	-11.1931
▁cereais	-11.1934
▁estimación	-11.1947
usta	-11.1948
▁holandes	-11.1958
▁climático	-11.1972
▁descobre	-11.1972
▁escaleira	-11.1972
▁fluído	-11.1972
▁testemuño	-11.1972
▁mámoa	-11.1972
▁defíne	-11.1972
▁pataca	-11.1976
▁Clement	-11.1978
▁culmina	-11.1984
▁demostración	-11.1985
▁anuncia	-11.1986
▁fluvia	-11.1988
▁PC	-11.1988
I	-11.1996
▁118	-11.2003
▁Cong	-11.2008
▁Ros	-11.2012
▁controlado	-11.2012
▁Ernest	-11.2017
▁armenio	-11.2017
▁estratéxica	-11.2017
▁fantástico	-11.2017
▁melodía	-11.2017
▁doazón	-11.2017
▁bolxevique	-11.2017
▁galería	-11.2019
ardo	-11.202
▁cadrada	-11.202
▁mortalidade	-11.2021
tomán	-11.2021
cido	-11.2022
▁trasladado	-11.2023
▁falsa	-11.2023
▁raio	-11.2031
▁privadas	-11.2033
▁patente	-11.2034
▁esqueleto	-11.2047
burgo	-11.2048
idez	-11.2052
▁determinadas	-11.2055
▁exitosa	-11.2063
▁Xefe	-11.2063
▁dicionario	-11.2064
▁Báltic	-11.2064
eeth	-11.2068
▁internas	-11.2069
▁confirmou	-11.2073
▁Será	-11.2077
▁121	-11.2089
▁Canal	-11.2096
maior	-11.2102
SD	-11.2104
▁dominado	-11.2105
eus	-11.2105
▁Marcel	-11.2106
▁acolle	-11.2106
▁Xera	-11.2106
▁anatom	-11.2109
▁prototipo	-11.2109
▁Penso	-11.2109
▁apoiou	-11.211
▁exceso	-11.2111
▁asento	-11.2117
▁126	-11.2117
▁trompeta	-11.2118
viación	-11.2119
▁drama	-11.2119
▁Pear	-11.212
▁Rio	-11.2122
tismo	-11.2124
▁vasca	-11.2125
rt	-11.213
▁beneficio	-11.2131
▁Latin	-11.2132
▁disciplinas	-11.2134
rgoña	-11.2134
pón	-11.2134
▁132	-11.2144
▁absor	-11.2155
▁degrada	-11.2155
▁exipcia	-11.2155
▁franxa	-11.2155
▁mediterránea	-11.2155
▁oitenta	-11.2155
▁paradoxo	-11.2155
▁segmento	-11.2155
▁evolutiva	-11.2155
▁mesquita	-11.2155
▁visão	-11.2157
▁favorito	-11.2157
▁acelera	-11.2158
ane	-11.2163
▁milleiro	-11.2164
▁Artur	-11.2172
▁afirmar	-11.2175
lasca	-11.2181
▁inmigra	-11.2182
▁bota	-11.2183
▁tirar	-11.2184
▁ofreceu	-11.2186
ternet	-11.2193
▁enormes	-11.2195
▁compux	-11.2197
▁almacena	-11.2197
rac	-11.2198
▁rescat	-11.2198
▁Montes	-11.22
▁bizantina	-11.2201
▁compreender	-11.2201
▁constelación	-11.2201
▁dinosauro	-11.2201
▁islámica	-11.2201
▁renacentista	-11.2201
▁restaurante	-11.2201
▁enfoque	-11.2201
▁obstáculo	-11.2201
▁esquema	-11.2201
▁subi	-11.2203
▁rexente	-11.2203
▁actua	-11.2213
▁denominar	-11.2213
ronel	-11.2215
▁ordenado	-11.2218
quera	-11.2219
▁financeira	-11.2223
▁simul	-11.2224
▁compon	-11.2232
12	-11.2235
▁marcia	-11.2236
▁marchar	-11.2238
cub	-11.2242
úl	-11.2243
▁altar	-11.2243
▁abertura	-11.2248
▁nutriente	-11.2248
▁Compan	-11.225
▁Palestin	-11.225
▁identificado	-11.2252
enda	-11.2254
▁trasladar	-11.2256
▁Estiv	-11.2259
▁táctica	-11.2263
CD	-11.2268
▁padr	-11.2269
▁tenente	-11.2271
▁anda	-11.2272
▁Bea	-11.2283
▁pesquisa	-11.2294
▁prosperidade	-11.2294
▁ruído	-11.2294
▁submarino	-11.2294
▁transcrición	-11.2294
▁buraco	-11.2294
▁caudal	-11.2294
▁compara	-11.2295
▁gaita	-11.2295
▁Alban	-11.2297
▁plural	-11.2297
▁intre	-11.2297
▁Emili	-11.2297
▁permitindo	-11.2298
▁gobernar	-11.2301
▁Rin	-11.2301
▁gaélico	-11.2303
▁Pre	-11.2307
verde	-11.2308
▁hax	-11.2309
▁atopada	-11.2311
igh	-11.2311
op	-11.2312
anto	-11.2317
▁xuíz	-11.2327
mara	-11.2332
▁proporcional	-11.2334
ther	-11.2335
smo	-11.2337
▁Berga	-11.2339
aro	-11.2339
▁Iglesia	-11.2341
▁Recibi	-11.2341
▁comprensión	-11.2341
▁orgánico	-11.2341
▁revolucionaria	-11.2341
▁xermánico	-11.2341
▁óptica	-11.2341
▁protexida	-11.2341
lvaro	-11.2341
▁sagrado	-11.2342
▁Mauric	-11.2343
▁Trin	-11.2348
▁extrac	-11.235
▁asumir	-11.2357
▁105	-11.2361
▁admira	-11.2362
▁mutación	-11.2362
▁combinado	-11.2365
tía	-11.2372
▁negativo	-11.2372
lmente	-11.2373
66	-11.2375
▁Padr	-11.2375
uiro	-11.2377
ib	-11.2378
▁autonómica	-11.2383
▁diplomática	-11.2389
▁celeste	-11.2389
▁vertente	-11.2389
▁descarga	-11.239
▁croata	-11.2392
▁medro	-11.2393
amburg	-11.2393
▁Fix	-11.2394
▁Fonte	-11.2395
guerra	-11.2397
30	-11.2399
▁pasaría	-11.2399
▁Contra	-11.2403
▁abandonado	-11.241
▁doado	-11.2411
▁123	-11.2418
▁Bull	-11.2422
ntu	-11.2426
▁negras	-11.2435
▁Administración	-11.2436
▁Considéra	-11.2436
▁Irmandade	-11.2436
▁desaparecido	-11.2436
▁fotografia	-11.2436
▁sufraxio	-11.2436
▁vocabul	-11.2436
▁xurídico	-11.2436
▁clínica	-11.2436
▁reuniu	-11.2436
▁gabinete	-11.2436
▁Fraga	-11.2436
▁percepción	-11.2436
▁coroado	-11.2437
▁Alxer	-11.2437
▁confirma	-11.2438
zar	-11.2438
▁baseándo	-11.2439
▁lembrar	-11.2439
▁satélites	-11.244
▁pesada	-11.2441
msterda	-11.2444
▁asinado	-11.2446
▁racional	-11.2447
▁pensamos	-11.2449
▁Porta	-11.245
▁foille	-11.2451
▁póla	-11.2453
ríamos	-11.2455
▁facilitar	-11.2456
▁relata	-11.246
core	-11.2467
sodio	-11.2467
▁Braga	-11.2468
grafía	-11.247
▁Luca	-11.2472
▁adaptado	-11.2474
▁coopera	-11.2474
▁aplicada	-11.2474
▁avan	-11.2481
▁consolida	-11.2481
▁coordina	-11.2483
▁autónomo	-11.2484
▁chuvia	-11.2484
▁hectárea	-11.2484
▁confundir	-11.2484
▁desenvólve	-11.2484
▁castaña	-11.2484
▁edificación	-11.2484
▁nómade	-11.2484
▁insular	-11.2484
▁legado	-11.2484
fo	-11.2487
▁deber	-11.2489
▁recorda	-11.2489
▁forzado	-11.2489
▁empezar	-11.2491
▁saí	-11.2495
▁possam	-11.2496
▁confusión	-11.2496
▁fabricar	-11.2496
▁Ib	-11.2497
▁Mag	-11.2498
▁calcular	-11.2498
▁más	-11.25
▁passo	-11.2502
▁imaginar	-11.2512
▁Xustin	-11.2513
▁Pí	-11.2518
▁micro	-11.2519
▁mandar	-11.2519
axe	-11.2519
▁arquivos	-11.2519
▁contribúe	-11.252
▁pensaba	-11.252
echt	-11.2521
iscal	-11.2523
▁auxiliar	-11.2531
▁concilio	-11.2531
▁hormona	-11.2531
▁montañoso	-11.2531
▁tuberculose	-11.2531
▁Oxford	-11.2531
▁prohibición	-11.2531
▁remónta	-11.2531
▁continentes	-11.2533
▁pulmón	-11.2533
▁sí	-11.2535
posto	-11.2537
▁estivese	-11.2539
▁uní	-11.2542
▁ensina	-11.2542
▁interve	-11.2543
ation	-11.2555
▁rota	-11.2559
▁et	-11.2561
▁israelí	-11.2571
▁asisti	-11.2571
▁Tudo	-11.2579
▁im	-11.2579
▁absorbe	-11.258
▁fiscal	-11.258
▁asistente	-11.2581
▁Sonic	-11.2586
ath	-11.2588
▁Lee	-11.2589
▁Chá	-11.2589
▁utilizaba	-11.259
▁Islam	-11.2591
▁proporcionar	-11.2594
▁abandono	-11.2595
▁transcorre	-11.2596
velt	-11.26
▁Eri	-11.2603
▁lat	-11.2614
▁parentes	-11.2617
▁facción	-11.262
▁barreira	-11.2626
aren	-11.2626
▁culpa	-11.2627
▁Exemplo	-11.2628
▁fariña	-11.2628
▁sorpresa	-11.2628
▁variado	-11.2628
▁comentario	-11.2629
▁Samo	-11.2632
▁Rico	-11.2632
▁virtual	-11.2642
▁xiro	-11.2642
triz	-11.2645
▁Buc	-11.2649
▁mostras	-11.2653
▁implanta	-11.266
▁prepara	-11.2663
ena	-11.2668
▁Dela	-11.267
parte	-11.2671
▁Dado	-11.2674
▁extraordinaria	-11.2676
▁filosófico	-11.2676
▁indústria	-11.2676
▁Amazon	-11.2676
▁Apple	-11.2676
▁étnica	-11.2676
▁convención	-11.2676
▁Associa	-11.2676
▁biografía	-11.2677
▁plástico	-11.2677
NU	-11.2678
com	-11.2678
▁normando	-11.268
oan	-11.2683
usti	-11.2686
▁suevo	-11.2688
▁escocesa	-11.2688
▁fundo	-11.2689
dal	-11.269
▁citada	-11.269
nada	-11.269
rea	-11.2692
▁correcta	-11.2693
▁explorador	-11.2694
▁suicid	-11.2697
▁chamaba	-11.2699
ntiño	-11.2705
▁variar	-11.271
▁traballan	-11.271
▁cruzado	-11.2713
▁Galla	-11.2718
▁ordena	-11.2719
▁tenden	-11.2721
▁Ball	-11.2724
▁International	-11.2725
▁distingue	-11.2725
▁indoeuropea	-11.2725
▁mármore	-11.2725
▁máxico	-11.2725
▁Ocean	-11.2725
▁desempreg	-11.2725
▁dramática	-11.2725
▁previsto	-11.2726
▁achegar	-11.2727
▁Interior	-11.273
▁droga	-11.2731
▁Ron	-11.2731
▁acompañada	-11.2733
pta	-11.2733
▁horizontal	-11.2735
imos	-11.2736
▁Nar	-11.2739
▁materna	-11.2739
▁fal	-11.274
▁teste	-11.2744
ovens	-11.2748
▁prote	-11.2761
▁escoitar	-11.2762
▁gatos	-11.2763
var	-11.2765
▁operador	-11.2766
▁serem	-11.277
▁atraer	-11.2773
▁cadáver	-11.2774
▁embarcación	-11.2774
▁inaugurou	-11.2774
▁territoriais	-11.2774
▁sucesso	-11.2774
▁teito	-11.2778
▁Land	-11.2778
▁mira	-11.2779
▁denomina	-11.278
▁elaborado	-11.2783
▁engadido	-11.2784
▁Gi	-11.2788
▁metaboli	-11.2789
▁influenciado	-11.2791
ares	-11.2798
▁perigosa	-11.2799
▁muscular	-11.28
▁condutor	-11.2804
▁partilhar	-11.2804
▁nomear	-11.2804
ambi	-11.2805
ngelo	-11.2808
▁medicamentos	-11.2809
▁verba	-11.2816
▁integrar	-11.2819
up	-11.2819
▁galo	-11.282
izada	-11.282
▁Pensilv	-11.2823
▁informático	-11.2823
▁triángulo	-11.2823
▁patriarca	-11.2823
▁rosa	-11.2829
▁facilita	-11.283
ável	-11.2834
▁xacemento	-11.2834
▁africano	-11.2836
▁neerland	-11.2836
nder	-11.284
▁Brun	-11.2843
▁Medicin	-11.2843
▁rematada	-11.2843
▁Naquel	-11.2847
▁costeiras	-11.2847
tah	-11.2847
▁mel	-11.2848
ith	-11.2848
andro	-11.2852
vida	-11.2855
▁107	-11.2856
▁morta	-11.286
▁checo	-11.2865
▁ermida	-11.2866
▁mantiver	-11.2868
▁determina	-11.2868
▁mexicano	-11.2873
▁Situad	-11.2873
ndico	-11.2873
▁longe	-11.2873
▁obtida	-11.2873
▁teorema	-11.2873
lumini	-11.2874
▁asalto	-11.2874
▁instancia	-11.2874
ilton	-11.2875
▁causado	-11.288
▁parti	-11.2883
▁fallo	-11.2886
▁Fin	-11.2889
ética	-11.2893
dison	-11.2894
▁Petersburg	-11.29
bese	-11.2901
lgunha	-11.2908
DE	-11.2909
▁adicional	-11.291
min	-11.2919
▁adquire	-11.2923
▁Mesopot	-11.2923
▁Beatles	-11.2923
▁emitir	-11.2923
▁consenso	-11.2923
▁robot	-11.2923
▁puxer	-11.2924
▁escrever	-11.2925
▁More	-11.2925
▁Campión	-11.2925
▁sinala	-11.2925
ndez	-11.2927
▁retirado	-11.2932
istor	-11.2934
▁cant	-11.2936
▁Bang	-11.294
▁oxida	-11.2941
▁Solar	-11.2942
▁Cort	-11.2944
▁asistir	-11.2951
venta	-11.2955
▁Rodrig	-11.2968
▁xuí	-11.2969
▁teu	-11.2969
▁planifica	-11.2969
▁Ciro	-11.2972
▁adulta	-11.2973
▁sítio	-11.2973
▁temperá	-11.2973
▁aparato	-11.2973
▁redac	-11.2974
▁votar	-11.2974
▁vicepresidente	-11.2974
▁Montre	-11.2975
▁bico	-11.2977
heav	-11.2978
▁introducido	-11.2979
hl	-11.2981
▁br	-11.2981
▁122	-11.2994
▁Out	-11.2997
▁pregunta	-11.2998
▁produtora	-11.2999
▁amosan	-11.3
▁xenera	-11.3001
púxo	-11.3004
▁acompaña	-11.3004
▁nervioso	-11.3007
amin	-11.3008
▁secreta	-11.301
TV	-11.3012
▁Vari	-11.3014
▁habita	-11.3021
▁pastor	-11.3023
▁laranxa	-11.3023
▁lexislativa	-11.3023
▁turística	-11.3023
▁promesa	-11.3023
▁PSdeG	-11.3023
▁Servizo	-11.3023
▁crescimento	-11.3024
▁activista	-11.3024
▁provisional	-11.3025
PS	-11.3031
▁encargou	-11.3033
▁convencional	-11.3034
hire	-11.3035
▁Fla	-11.3035
▁escoita	-11.3036
▁obrigada	-11.3039
▁Tr	-11.3044
▁Mario	-11.3045
venceu	-11.3046
▁bebé	-11.3046
▁codifica	-11.3046
▁incrementa	-11.3049
▁incorporación	-11.305
▁pá	-11.3058
▁pape	-11.3063
dra	-11.3067
▁Balcán	-11.3073
▁arciprestado	-11.3073
▁exiliado	-11.3073
▁traducido	-11.3073
▁paixón	-11.3073
minación	-11.3077
▁sultán	-11.3077
▁perdida	-11.3078
▁Metal	-11.308
▁oceano	-11.3081
▁ducia	-11.3081
▁Gre	-11.3086
▁tenha	-11.309
▁caracterizado	-11.3094
▁Pamp	-11.31
aime	-11.3102
iu	-11.3102
▁Duca	-11.3107
▁GP	-11.3108
▁137	-11.311
▁propaga	-11.3122
▁pescozo	-11.3124
▁lexión	-11.3124
▁choque	-11.3124
▁delegado	-11.3124
▁nisto	-11.3125
▁sentenza	-11.3126
▁Paquist	-11.3128
▁fundamento	-11.3129
▁emite	-11.3129
chi	-11.3131
▁dedica	-11.3132
▁anti	-11.3133
▁cantón	-11.3134
▁intelixente	-11.3135
▁emocional	-11.3137
▁perguntar	-11.3141
ello	-11.3141
cento	-11.3141
▁púxo	-11.3144
caia	-11.3145
▁estender	-11.3146
▁cans	-11.3147
▁infinito	-11.3149
▁prisioneiro	-11.3155
▁ampliación	-11.3156
▁respira	-11.3158
▁reparti	-11.3165
▁pele	-11.3172
▁Anatoli	-11.3175
▁adxectivo	-11.3175
▁suízo	-11.3175
▁vixente	-11.3175
▁alternativas	-11.3176
▁adecuada	-11.3178
▁lixo	-11.318
▁sabía	-11.3183
▁perto	-11.3186
▁142	-11.3186
▁aproximación	-11.3187
▁deberá	-11.3191
tempo	-11.3195
▁coñecen	-11.3195
▁Sun	-11.3199
tolic	-11.3199
▁fabricado	-11.3201
▁florece	-11.3204
▁vaga	-11.3206
ara	-11.3208
▁cliente	-11.3209
▁Dumb	-11.321
▁inventor	-11.3213
▁Th	-11.3214
▁cuarte	-11.3223
▁mecánico	-11.3226
▁oceánico	-11.3226
▁petróglifo	-11.3226
▁quantidade	-11.3226
▁cumpre	-11.3226
▁Escribiu	-11.3226
▁sigla	-11.3227
▁fiestra	-11.3227
▁cátedra	-11.3227
▁rumor	-11.3227
▁nacido	-11.3228
▁Bizan	-11.3228
▁lidera	-11.323
▁franquía	-11.3231
ónico	-11.3232
▁atraso	-11.3234
▁situar	-11.3235
X	-11.3235
▁disparo	-11.3236
▁invadir	-11.3241
▁acha	-11.3242
▁avanzado	-11.3243
▁Bai	-11.3243
▁desenvolvidos	-11.3243
▁trec	-11.3247
loc	-11.3247
ador	-11.3248
▁narración	-11.325
▁Medi	-11.3251
net	-11.3254
▁floresta	-11.3257
cast	-11.3259
aló	-11.3261
▁Ría	-11.3263
▁testa	-11.3264
▁prol	-11.3264
▁dominar	-11.3265
▁estudado	-11.3274
mit	-11.3275
▁contraria	-11.3277
▁plana	-11.3277
▁atractivo	-11.3278
▁transformou	-11.3278
▁economic	-11.3278
▁moderada	-11.328
▁adicionais	-11.3281
▁editar	-11.3282
▁refuxiado	-11.3287
▁143	-11.3287
▁dele	-11.3287
▁carece	-11.3287
▁violento	-11.3288
▁formulación	-11.3289
▁concluí	-11.3294
▁bio	-11.3296
▁Moz	-11.3296
▁festiva	-11.3296
▁Esp	-11.3297
atro	-11.3299
pro	-11.3301
▁garantir	-11.3302
▁preferi	-11.3302
▁sobrevivi	-11.3316
▁enclave	-11.3319
▁Free	-11.3324
AF	-11.3327
▁Microsoft	-11.333
▁fonética	-11.333
▁léxico	-11.333
▁peninsular	-11.333
▁Noutra	-11.333
▁cota	-11.3334
▁rito	-11.3334
▁lava	-11.3335
▁incrível	-11.3336
ral	-11.334
▁taller	-11.3342
▁Chama	-11.3344
▁conecta	-11.3347
▁experimentar	-11.3347
▁Lama	-11.3347
▁114	-11.3348
▁inf	-11.335
▁Cristi	-11.3352
▁Alemán	-11.3355
▁Dos	-11.3356
vana	-11.3356
▁Sala	-11.3357
có	-11.3359
▁Ora	-11.3366
200	-11.3367
▁Pit	-11.3373
ureza	-11.3374
for	-11.3377
▁profundas	-11.338
▁descontento	-11.3382
▁nocturno	-11.3382
▁série	-11.3382
▁pseudónimo	-11.3382
▁Bas	-11.3382
▁reflexión	-11.3382
▁nessa	-11.3382
▁lámina	-11.3383
▁balea	-11.3383
▁Montaña	-11.3384
▁sexta	-11.3388
▁modificado	-11.3393
▁cabelo	-11.3395
▁deixan	-11.3397
▁Sab	-11.3409
▁roman	-11.3412
▁Cun	-11.3413
▁convertido	-11.3413
▁preocupa	-11.3414
rais	-11.3415
viv	-11.3418
▁algod	-11.3418
ebec	-11.3423
ust	-11.3424
▁afirman	-11.3427
▁1800	-11.3428
▁abertas	-11.3432
▁arqueolóxica	-11.3434
▁cavidade	-11.3434
▁laboratório	-11.3434
▁titulada	-11.3434
▁previo	-11.3434
▁legais	-11.3435
▁prohibido	-11.3435
▁freguesía	-11.3435
▁Simon	-11.3438
15	-11.3438
▁internos	-11.3441
▁destruír	-11.3444
▁Cerca	-11.345
regulares	-11.3451
▁ocupaba	-11.3457
ula	-11.3457
▁Xene	-11.3459
▁compartir	-11.346
▁gramo	-11.3461
▁gótica	-11.3477
mond	-11.3479
▁controla	-11.3479
▁design	-11.3479
▁conservadores	-11.3484
▁fortuna	-11.3487
▁mitocondria	-11.3487
▁pirámide	-11.3487
▁baile	-11.3487
▁ensinanza	-11.3487
eft	-11.3488
ich	-11.3489
▁trama	-11.3491
▁cuncha	-11.3495
▁africana	-11.3497
fl	-11.3497
▁establecé	-11.35
▁paga	-11.35
fil	-11.3506
▁holand	-11.3507
▁Lib	-11.3513
▁evolucion	-11.3519
▁axencia	-11.352
▁108	-11.3522
his	-11.3527
▁conducir	-11.3527
▁Ali	-11.3533
▁Davi	-11.3537
▁paseo	-11.3539
▁cónsul	-11.3539
▁réptil	-11.354
▁túnel	-11.354
▁Dom	-11.354
▁barroca	-11.3541
▁errado	-11.3541
▁EE	-11.3542
▁señorío	-11.3542
▁plasma	-11.3543
▁escolha	-11.3543
▁mailo	-11.3544
▁falso	-11.3544
▁erosi	-11.3545
▁elaborada	-11.3545
iberia	-11.3547
▁selva	-11.3551
▁Tim	-11.3553
▁cruza	-11.3554
▁manifesto	-11.3555
engala	-11.3556
▁irlandesa	-11.3558
▁All	-11.3559
▁Sabem	-11.356
▁Deputa	-11.3568
▁Amor	-11.3568
▁Ur	-11.3572
▁construídas	-11.3577
▁infante	-11.3579
▁Berg	-11.3579
idad	-11.3583
NA	-11.3584
▁aristocra	-11.3593
▁campamento	-11.3593
▁residuo	-11.3593
▁sanguíneo	-11.3593
▁sábado	-11.3593
▁estendida	-11.3593
▁sólida	-11.3593
▁diagnóstico	-11.3593
▁atacou	-11.3593
▁balón	-11.3594
▁fortificación	-11.3595
▁Litu	-11.3595
▁consola	-11.3596
▁contando	-11.3597
▁Uni	-11.3598
▁misioneiro	-11.3599
▁aliada	-11.36
▁cortar	-11.36
▁pedido	-11.3601
▁equipamento	-11.3601
▁empregaba	-11.3605
▁gravada	-11.3605
▁124	-11.3609
▁terían	-11.361
▁descenden	-11.361
▁escas	-11.3612
▁durar	-11.3613
▁South	-11.3613
ático	-11.3615
▁ideais	-11.3621
▁goberna	-11.3621
▁Allen	-11.3623
▁relativ	-11.3627
▁pra	-11.363
▁caro	-11.3636
▁alas	-11.3637
abana	-11.3637
▁atravesad	-11.364
pp	-11.3641
furt	-11.3643
▁apo	-11.3643
▁Lexislativ	-11.3646
▁Street	-11.3646
▁chocolate	-11.3646
▁galardón	-11.3646
▁descanso	-11.3646
▁consecutiva	-11.3647
▁profesión	-11.3647
▁catálogo	-11.3647
▁Mallor	-11.3647
▁aprobado	-11.3647
▁penetra	-11.3648
▁cotiá	-11.365
▁elixiu	-11.3656
onía	-11.3659
▁cruzada	-11.3662
tivos	-11.3665
▁logro	-11.3669
▁escolle	-11.367
▁Port	-11.3678
▁Pico	-11.3688
▁Pop	-11.3692
▁aeronave	-11.37
▁cerebral	-11.37
▁turca	-11.37
▁língua	-11.37
cal	-11.3702
▁Gobernador	-11.3702
▁lan	-11.3704
▁introducida	-11.3705
▁disseram	-11.3705
▁encargada	-11.3706
▁liderada	-11.3706
▁Xer	-11.3707
▁450	-11.3708
▁adoptada	-11.371
▁conservar	-11.3711
▁Pelo	-11.3715
▁gato	-11.3715
▁xamai	-11.3717
▁modificar	-11.3718
▁vem	-11.3719
▁Rac	-11.3731
uso	-11.3737
▁romaniza	-11.3738
umentando	-11.3739
▁partiu	-11.374
▁Malai	-11.374
▁Gold	-11.374
itat	-11.3745
▁riva	-11.3746
organ	-11.3747
▁comezaba	-11.3749
▁bala	-11.3752
▁Butt	-11.3753
▁Galeguista	-11.3754
▁patio	-11.3754
▁agraria	-11.3754
▁blue	-11.3754
▁lousa	-11.3754
▁sublevación	-11.3754
▁eslavo	-11.3755
▁colapso	-11.3757
▁adquisición	-11.3757
lena	-11.3758
▁faga	-11.3758
▁Glas	-11.3761
▁ancha	-11.3766
▁adoptado	-11.3769
▁habitado	-11.377
▁138	-11.3771
▁parto	-11.3772
▁exclusiva	-11.3777
▁Victoria	-11.3778
▁professores	-11.378
baixo	-11.3783
▁detectar	-11.3784
erife	-11.3792
▁mol	-11.3794
▁rob	-11.3794
▁Republican	-11.3794
▁doentes	-11.3797
▁producí	-11.3799
▁reuní	-11.3804
▁portanto	-11.3807
▁combusti	-11.3808
▁Gabriel	-11.3809
▁cilindro	-11.3809
▁deshabitada	-11.3809
▁escaravello	-11.3809
absburgo	-11.3809
▁glicosa	-11.3809
miento	-11.3809
▁decisiva	-11.3809
▁lexislatura	-11.3809
▁impide	-11.3809
▁Crime	-11.3811
▁Cla	-11.3812
arris	-11.3814
▁ácha	-11.3814
▁rumb	-11.3815
▁Antig	-11.3815
▁apoiada	-11.3819
▁divide	-11.382
▁colaboradores	-11.3836
▁percorrer	-11.3837
▁colocado	-11.3839
▁rego	-11.3841
▁sucedido	-11.3841
▁Men	-11.3842
▁Dav	-11.3858
▁pegar	-11.3861
▁competi	-11.3862
▁Económica	-11.3863
▁escuadra	-11.3863
▁esplendor	-11.3863
▁guionista	-11.3863
▁institui	-11.3863
▁secreto	-11.3863
▁temperado	-11.3863
▁xurídica	-11.3863
▁asturiano	-11.3863
▁arxentina	-11.3863
▁emitida	-11.3863
▁manobra	-11.3863
▁largo	-11.3863
▁teórica	-11.3863
▁amiga	-11.3864
▁suspensión	-11.3864
▁Lenno	-11.3864
▁Imaginem	-11.3865
▁condes	-11.3867
▁Lud	-11.3869
▁Casare	-11.3873
▁saqueo	-11.3873
▁parada	-11.3875
▁abandonada	-11.3876
acob	-11.3877
isne	-11.3879
▁Amar	-11.3885
▁peto	-11.3887
▁rea	-11.3887
▁evoluciona	-11.3888
▁salas	-11.3889
▁madura	-11.3893
inda	-11.3898
▁representando	-11.3898
ele	-11.3904
▁controlo	-11.3905
▁inda	-11.3907
▁presidid	-11.3908
▁tend	-11.3908
▁coñecía	-11.3911
▁manda	-11.3912
▁Estra	-11.3912
▁ampl	-11.3914
arvard	-11.3918
▁correcto	-11.3918
▁céntra	-11.3918
▁desembarco	-11.3918
▁distribuída	-11.3918
▁divindade	-11.3918
▁eclesiástico	-11.3918
▁islámico	-11.3918
▁parámetro	-11.3918
▁término	-11.3918
▁Leopold	-11.3918
▁aterraxe	-11.3918
▁palestra	-11.3918
xeo	-11.3918
▁sinatura	-11.3918
▁obreira	-11.3918
▁Recente	-11.3918
▁decisivo	-11.3918
clero	-11.392
▁daquel	-11.3924
▁gobernada	-11.3925
▁134	-11.3927
▁dominada	-11.3928
▁cinto	-11.3932
▁solucións	-11.3932
▁funcional	-11.3932
▁republicana	-11.3932
nsito	-11.3934
▁formados	-11.3937
▁Outeir	-11.3937
den	-11.3938
▁posib	-11.3939
▁gobernado	-11.394
▁ferido	-11.3944
▁infraestrutura	-11.3944
▁Silv	-11.3945
▁axudante	-11.3955
tario	-11.3955
▁Asi	-11.3964
▁Ura	-11.3964
▁atómica	-11.3967
▁Ll	-11.3967
▁Estadi	-11.3971
elena	-11.3971
▁Marshall	-11.3973
▁arbusto	-11.3973
▁viquingo	-11.3973
▁vándalo	-11.3973
▁delegación	-11.3973
▁Dragon	-11.3973
▁emitido	-11.3973
▁defecto	-11.3974
▁interface	-11.3974
▁Reg	-11.3974
▁polígono	-11.3974
▁Política	-11.3974
▁troco	-11.3974
▁exposto	-11.3974
▁meseta	-11.3975
▁estimula	-11.3977
▁protectora	-11.3977
▁Lorenz	-11.3977
▁Bona	-11.3977
▁oficinas	-11.3979
cuña	-11.3982
ple	-11.3985
▁colo	-11.3985
▁pór	-11.3988
▁voda	-11.399
▁Madon	-11.399
▁parecía	-11.3992
▁Eti	-11.3993
▁instalado	-11.3995
▁precisam	-11.4
ime	-11.4003
▁dona	-11.4003
▁corrup	-11.4003
▁piar	-11.4008
▁pese	-11.401
▁infla	-11.4017
▁Ton	-11.4017
▁Fala	-11.4019
▁querer	-11.4021
onal	-11.4022
20	-11.4026
lie	-11.4027
ómpre	-11.4028
▁aminoácidos	-11.4029
▁atinxi	-11.4029
▁proxección	-11.4029
▁Branca	-11.4029
▁Chegou	-11.4029
▁Rexiona	-11.4029
▁Formou	-11.4029
▁Investigación	-11.4029
▁revisión	-11.403
▁Capita	-11.4031
▁esculturas	-11.4033
oceno	-11.4036
▁Mani	-11.4036
▁faixa	-11.4036
▁Catar	-11.4037
▁sonho	-11.4038
▁trazado	-11.404
ind	-11.4041
▁peste	-11.4042
▁excepcional	-11.4042
▁Barro	-11.4043
igan	-11.4044
▁aventura	-11.4049
▁leito	-11.4054
▁Doutr	-11.4057
▁pot	-11.4059
▁artificia	-11.406
▁xigante	-11.4061
berto	-11.4064
▁afección	-11.4065
▁nenhum	-11.4066
▁Nir	-11.4068
▁acadando	-11.4068
▁129	-11.4069
▁117	-11.407
▁Ang	-11.4072
▁Americana	-11.4073
tido	-11.4075
▁fiel	-11.4077
▁recollido	-11.4085
▁soterrado	-11.4085
▁teléfono	-11.4085
▁romaría	-11.4085
▁continuidade	-11.4087
▁efectivo	-11.4087
▁hu	-11.4088
▁terrorismo	-11.4088
▁subministración	-11.4089
▁comporta	-11.4089
▁poboaciona	-11.4089
▁Ce	-11.4093
▁Arms	-11.4094
▁superficial	-11.4095
▁guía	-11.4096
▁pensou	-11.4102
▁Ste	-11.4103
14	-11.4104
stre	-11.4105
▁tomado	-11.4108
SA	-11.4108
▁realizá	-11.4111
▁comum	-11.4113
negro	-11.4113
▁aprende	-11.4116
passe	-11.4117
▁vacina	-11.412
col	-11.4122
▁oscila	-11.4124
▁urbanas	-11.4129
▁pin	-11.4129
▁109	-11.4129
▁encargo	-11.413
osteiro	-11.4132
▁Capel	-11.4135
▁Segur	-11.4136
anzas	-11.4136
▁Fort	-11.4138
IA	-11.4138
▁coincide	-11.4141
itanni	-11.4141
▁disputou	-11.4141
▁doméstica	-11.4141
▁notábe	-11.4141
▁Bizantin	-11.4142
▁espira	-11.4142
▁Arm	-11.4143
▁pique	-11.4143
▁ciclista	-11.4143
▁gama	-11.4143
▁Sound	-11.4144
▁cruce	-11.4151
▁rivalidade	-11.4152
▁recita	-11.4153
▁habitación	-11.4161
úric	-11.4164
llino	-11.4166
▁buscaba	-11.4166
rial	-11.4167
ávena	-11.4178
▁Or	-11.4178
▁impux	-11.4187
▁traza	-11.4191
▁economista	-11.4198
▁sometida	-11.4198
▁substantivo	-11.4198
▁veterano	-11.4198
▁Mercedes	-11.4198
▁furacán	-11.4198
▁demográfico	-11.4198
▁trofeo	-11.4198
ática	-11.4204
colleu	-11.4205
▁violación	-11.4209
▁Neve	-11.4212
▁Pica	-11.4212
▁iniciada	-11.4212
▁cristal	-11.4212
▁be	-11.4214
▁misa	-11.4217
▁Director	-11.422
lini	-11.4221
▁tip	-11.4222
scar	-11.4223
▁trato	-11.4224
▁merece	-11.4226
▁liberar	-11.4231
▁escribi	-11.4233
vez	-11.4234
▁frases	-11.4235
▁Orienta	-11.4239
▁alterar	-11.4239
▁copa	-11.4241
▁regi	-11.4244
▁hipóteses	-11.4249
▁presentada	-11.4249
candinavia	-11.4254
▁sensible	-11.4254
▁Iorque	-11.4254
▁exposta	-11.4254
▁oitava	-11.4255
▁véx	-11.4255
▁Supp	-11.4255
▁budista	-11.4258
▁ortodoxa	-11.4259
aba	-11.4261
▁Oh	-11.4264
día	-11.4265
▁DC	-11.4269
▁neutral	-11.427
▁Ala	-11.4271
▁seda	-11.4272
▁move	-11.4276
helm	-11.4276
▁repartido	-11.4283
vivencia	-11.4285
mir	-11.4296
▁homónim	-11.4298
voa	-11.4298
▁Lar	-11.4303
▁repetir	-11.4304
alles	-11.4306
▁conservado	-11.4307
▁pessoal	-11.4309
▁Panamá	-11.4312
▁antecesor	-11.4312
▁asiática	-11.4312
▁actina	-11.4312
▁viagem	-11.4314
▁lema	-11.4318
▁fillas	-11.4325
lix	-11.4328
abi	-11.4331
▁conectado	-11.4333
telecomunicación	-11.4338
ave	-11.4338
ng	-11.434
▁Baio	-11.4341
▁deter	-11.4345
▁Essa	-11.4349
▁119	-11.4351
▁doente	-11.4355
▁probar	-11.4358
ap	-11.436
enberg	-11.4362
▁recoller	-11.4366
▁levantar	-11.4368
ntificado	-11.4369
▁axeitado	-11.4369
hattan	-11.4369
▁dándolle	-11.4369
▁oposta	-11.4369
▁utilidade	-11.4369
▁proposto	-11.437
▁Odise	-11.4371
▁violín	-11.4371
▁Tahi	-11.4373
▁delito	-11.4376
▁modificada	-11.4376
▁polar	-11.4379
▁salientar	-11.4382
▁romper	-11.4388
▁Sara	-11.439
▁chamamos	-11.4394
▁livros	-11.4396
▁incorporar	-11.4398
▁especia	-11.4407
▁Comba	-11.4407
▁acr	-11.4409
ndres	-11.4411
▁Pública	-11.4412
▁Game	-11.4414
▁finaliz	-11.4417
tiño	-11.4422
▁astrónomo	-11.4424
▁filho	-11.4425
▁geral	-11.4427
▁Douglas	-11.4427
▁independentista	-11.4427
▁luxo	-11.4427
▁receita	-11.4427
olivia	-11.4427
▁basílica	-11.4427
▁complicado	-11.4427
▁parlamentario	-11.4428
▁nisso	-11.4428
▁estendido	-11.443
▁toque	-11.443
our	-11.443
▁parar	-11.4431
▁rapaza	-11.4431
▁agrupa	-11.4431
lines	-11.4431
▁sentía	-11.4434
▁Fi	-11.4435
▁transporta	-11.4438
▁Fro	-11.4443
▁Marc	-11.4443
gua	-11.4446
▁Liberal	-11.4446
▁ambientes	-11.4446
▁Norman	-11.4449
▁Eric	-11.4451
▁soste	-11.4451
▁naturalista	-11.4454
▁AB	-11.4457
▁Abadí	-11.4458
▁asina	-11.4463
▁Sant	-11.4465
▁envia	-11.4472
▁cálculos	-11.4477
ixo	-11.4481
▁Fór	-11.4482
▁auténtico	-11.4485
▁búlgaro	-11.4485
▁defendía	-11.4485
▁requisito	-11.4485
▁Dur	-11.4485
▁flamengo	-11.4485
▁McL	-11.4485
▁educativa	-11.4485
▁sorprendente	-11.4486
▁online	-11.4486
▁rompe	-11.4486
▁loito	-11.4486
tivemos	-11.4486
▁fizeram	-11.4487
▁milicia	-11.4487
▁inundación	-11.4488
▁inestab	-11.4489
cano	-11.449
▁eixe	-11.4491
▁servía	-11.4493
▁Tinha	-11.4495
▁deseñou	-11.4495
uem	-11.4499
riente	-11.45
enri	-11.45
▁regulación	-11.4501
▁cedeu	-11.4501
▁renunci	-11.4504
▁nenhuma	-11.4504
▁influí	-11.4505
▁ditador	-11.4505
▁rep	-11.4505
titan	-11.4506
autista	-11.451
▁tocaba	-11.451
▁00	-11.4513
▁135	-11.4513
mede	-11.4516
▁infraestruturas	-11.4516
omeo	-11.452
▁Meli	-11.4521
▁Tolo	-11.4522
▁oficina	-11.4526
▁tortura	-11.4526
▁Católic	-11.4531
▁delta	-11.4532
▁test	-11.4533
▁elevadas	-11.4533
▁marqu	-11.4533
▁concentra	-11.4536
▁eficac	-11.4538
▁fraga	-11.4541
▁glándula	-11.4543
▁neutrón	-11.4543
▁vangarda	-11.4543
▁Cambridge	-11.4543
▁estraño	-11.4544
▁ourensá	-11.4544
▁pracer	-11.4544
▁Fundou	-11.4544
▁Salom	-11.4544
▁feble	-11.4545
▁pertencer	-11.4545
▁pior	-11.4545
▁Limi	-11.4546
▁hostilidade	-11.4546
▁136	-11.4546
▁recompensa	-11.4548
▁criterio	-11.4549
▁ouvi	-11.4553
▁hotel	-11.4555
▁Varia	-11.4556
▁adolescentes	-11.4559
▁agricultores	-11.4561
▁anxo	-11.4562
▁112	-11.4565
▁Roda	-11.457
▁Franc	-11.4571
bido	-11.4571
▁multi	-11.4572
▁Cruce	-11.4573
▁cole	-11.4574
▁feridos	-11.4575
nc	-11.4577
▁eliminado	-11.458
▁Blue	-11.4581
▁edita	-11.4582
▁provocada	-11.4584
▁habería	-11.4586
▁adaptar	-11.4589
▁peculiar	-11.4596
etivo	-11.46
▁limitación	-11.4601
▁Celtic	-11.4602
▁expandir	-11.4602
▁mercenario	-11.4602
▁burato	-11.4602
▁IP	-11.4602
▁acesso	-11.4603
▁vós	-11.4603
▁inversa	-11.4604
▁renunciar	-11.4604
▁síndrome	-11.4605
▁ataca	-11.4605
▁capturar	-11.4611
▁747	-11.4611
▁corporal	-11.4612
▁vale	-11.4614
▁manual	-11.4616
anda	-11.4616
▁caracterizada	-11.4617
▁houve	-11.4619
▁administrador	-11.4619
ovem	-11.4626
ob	-11.4629
▁financeiros	-11.4631
▁ficha	-11.4644
▁precedentes	-11.4648
▁Laxe	-11.4649
▁misterio	-11.4651
▁cru	-11.4651
▁amea	-11.4653
▁terror	-11.4655
▁completou	-11.4655
▁Bat	-11.4656
▁habitan	-11.4658
▁Pat	-11.4659
▁artill	-11.4661
▁antepasado	-11.4661
▁atmosférica	-11.4661
▁mísil	-11.4661
▁oceánica	-11.4661
▁perfecto	-11.4661
▁repercusión	-11.4661
▁Luft	-11.4661
▁fusela	-11.4662
▁mentais	-11.4662
▁torná	-11.4662
▁xuventude	-11.4662
▁metálica	-11.4662
rtico	-11.4664
▁inspirada	-11.4665
▁That	-11.4667
▁esperaba	-11.4667
▁investigar	-11.4668
▁dirixía	-11.4668
▁estimada	-11.467
▁ambientais	-11.467
▁trá	-11.4672
cesio	-11.4672
▁bola	-11.4672
▁Sarde	-11.4673
▁executado	-11.4678
mentr	-11.4679
▁Cro	-11.4686
▁vencedor	-11.4686
▁Debe	-11.4687
▁foca	-11.4687
▁oportunidades	-11.4688
▁equivale	-11.4696
mad	-11.4702
▁nesse	-11.4703
tland	-11.4704
▁Sud	-11.4704
▁diferenciar	-11.4705
▁aprendi	-11.4706
▁Tit	-11.4708
tribuíu	-11.4712
▁senso	-11.4714
proclamado	-11.4718
▁concedido	-11.4721
▁exatamente	-11.4721
▁orixinou	-11.4721
▁distíngue	-11.4721
▁esquina	-11.4721
▁dimiti	-11.4721
▁ferroviaria	-11.4721
▁sonda	-11.4722
▁prioridade	-11.4724
▁propagand	-11.4724
▁discorre	-11.4724
▁vinculado	-11.4726
▁volvería	-11.473
▁viúva	-11.4731
▁Francesc	-11.4735
món	-11.4739
▁Elvi	-11.4739
▁designación	-11.4739
▁Tur	-11.4742
▁Ter	-11.4743
▁vári	-11.4744
▁aco	-11.4746
▁defensiva	-11.4749
▁litro	-11.4752
ater	-11.4757
▁Unidade	-11.476
▁foguete	-11.476
▁Tele	-11.4769
▁Coma	-11.4773
▁contempla	-11.4781
▁fantasía	-11.4781
▁NASA	-11.4781
▁reconstruída	-11.4781
▁castigo	-11.4781
▁azuis	-11.4781
▁colocou	-11.4781
▁castrexo	-11.4788
▁reclama	-11.4789
▁East	-11.479
▁godo	-11.4791
▁alimentaria	-11.4799
▁remonta	-11.4809
rar	-11.481
nar	-11.4813
▁North	-11.4815
eminario	-11.4818
eoría	-11.4818
▁rematado	-11.4824
can	-11.4825
▁text	-11.4826
ump	-11.4834
tando	-11.4834
▁diminuír	-11.4835
▁espacia	-11.4838
▁Eva	-11.484
acultade	-11.4841
▁Cáucaso	-11.4841
▁Giovann	-11.4841
▁paradigma	-11.4841
▁horizonte	-11.4841
▁recordo	-11.4841
ourne	-11.4841
▁Presenta	-11.4842
▁clan	-11.4845
▁superviven	-11.4845
▁severa	-11.4845
▁afastada	-11.4848
▁armamento	-11.4848
▁Barr	-11.4853
▁desenvolven	-11.4853
▁datado	-11.4855
▁nu	-11.4858
▁cultivar	-11.486
▁Dev	-11.4862
▁Cova	-11.4866
▁grava	-11.4866
▁dólar	-11.4867
ique	-11.4868
eron	-11.487
▁herd	-11.4872
▁Alex	-11.4873
▁cubrir	-11.4874
▁afectan	-11.488
uld	-11.488
▁terem	-11.4881
▁veñ	-11.4881
▁polio	-11.4881
▁regularmente	-11.4882
▁negocia	-11.4884
▁talo	-11.4885
▁acabado	-11.4888
usto	-11.4891
▁Tail	-11.4893
liga	-11.4896
▁Carlom	-11.4896
▁Sega	-11.4897
▁causando	-11.4898
▁Ex	-11.4898
▁Castrelo	-11.4902
▁eucariota	-11.4902
▁simboliza	-11.4902
▁tóxico	-11.4902
▁Após	-11.4902
▁conduce	-11.4902
ergé	-11.4902
▁sueca	-11.4902
▁barato	-11.4903
▁cálido	-11.4907
▁feudal	-11.491
▁Soto	-11.4912
▁custa	-11.4915
▁substancial	-11.4921
▁Cos	-11.4927
▁Gonza	-11.4928
▁lidar	-11.4928
▁ocasiona	-11.4931
▁Plat	-11.4931
right	-11.4933
▁perguntas	-11.4936
▁invasor	-11.4948
▁tu	-11.4948
▁imposi	-11.495
▁irlandes	-11.4953
▁embora	-11.4953
agno	-11.4955
▁Acho	-11.4958
▁empresaria	-11.4958
▁Cen	-11.496
▁cidadan	-11.4963
▁confederación	-11.4963
▁diminúe	-11.4963
▁excesiva	-11.4963
▁hospitais	-11.4963
▁separou	-11.4963
▁Aérea	-11.4963
▁adolescencia	-11.4963
▁xeométrica	-11.4963
▁intermedio	-11.4963
▁Branco	-11.4963
▁progresista	-11.4963
▁cinta	-11.4963
▁Cente	-11.4964
▁salario	-11.4967
▁teoria	-11.4968
▁interesado	-11.4969
zul	-11.4969
▁bater	-11.4969
▁traslado	-11.4973
▁producía	-11.4974
ball	-11.4978
▁ambiental	-11.498
▁Sub	-11.4985
▁sint	-11.4991
tudo	-11.4992
▁codia	-11.4995
▁sinalar	-11.4995
▁Tive	-11.4997
▁Cabana	-11.4999
oto	-11.5004
▁presidi	-11.5013
▁Les	-11.5013
▁citar	-11.5014
▁perfi	-11.5015
▁Estre	-11.5017
▁rap	-11.5019
▁funera	-11.5023
▁Checoslov	-11.5024
▁autóctona	-11.5024
▁intestino	-11.5024
▁xestiona	-11.5024
▁Gramm	-11.5024
▁Natureza	-11.5025
ale	-11.5025
▁vendida	-11.5026
▁convencer	-11.5028
▁xulgado	-11.5032
▁continuaba	-11.5036
▁reg	-11.5041
▁quar	-11.5049
▁Cri	-11.5051
▁pos	-11.5056
▁toman	-11.5058
▁Mina	-11.5059
▁avanza	-11.5059
▁melhorar	-11.5061
orio	-11.5063
monos	-11.5073
▁Vel	-11.5074
▁crecer	-11.508
▁rendi	-11.5082
▁finaliza	-11.5082
▁alcumad	-11.5086
▁observou	-11.5086
▁práctico	-11.5086
▁tecnolóxico	-11.5086
▁xerarquía	-11.5086
▁festividade	-11.5086
▁fermosa	-11.5086
▁suprimi	-11.5086
▁espello	-11.5086
▁preferencia	-11.5086
▁madurez	-11.5086
▁escoller	-11.5086
▁tradutor	-11.5087
▁centrada	-11.5089
dne	-11.5089
evara	-11.509
▁island	-11.5093
▁acumulación	-11.5098
▁Urban	-11.5099
▁representativo	-11.5102
cena	-11.5103
▁orientada	-11.5107
▁Bec	-11.5109
▁Barreiro	-11.5112
▁respecta	-11.5116
▁Angeles	-11.5118
umi	-11.5119
podo	-11.5119
▁libra	-11.5119
▁Gau	-11.5119
▁arque	-11.5123
spírito	-11.5126
▁levaría	-11.5128
▁Face	-11.513
▁estrutural	-11.513
▁Galax	-11.5136
▁pol	-11.5136
▁Noroeste	-11.5137
▁xeno	-11.5141
cepción	-11.5142
▁notar	-11.5143
▁106	-11.5148
▁atlántica	-11.5148
▁dignidade	-11.5148
▁inmensa	-11.5148
▁préstamo	-11.5148
▁sufixo	-11.5148
▁manufactura	-11.5148
▁Adriá	-11.5148
▁bacharel	-11.5148
▁financiamento	-11.5148
▁pasta	-11.5148
▁profeta	-11.5148
▁arqueólogo	-11.5148
▁humilde	-11.5148
▁reduce	-11.5148
▁Filad	-11.5149
▁complicada	-11.5149
▁engade	-11.5149
▁santa	-11.5162
▁superioridade	-11.5162
▁dezaseis	-11.5167
omero	-11.5169
▁rexeitar	-11.5172
erman	-11.5173
▁Common	-11.5176
▁disputar	-11.5177
▁aula	-11.5177
▁demostra	-11.5179
▁Cha	-11.5185
▁malo	-11.5187
▁Tro	-11.5188
▁computadora	-11.5194
▁topo	-11.5194
▁alunos	-11.5195
▁antibióticos	-11.5195
▁Post	-11.5199
dón	-11.5207
▁Desenvolve	-11.5209
▁curtametraxe	-11.521
▁estratéxico	-11.521
▁hélice	-11.521
▁migratoria	-11.521
▁prefire	-11.521
▁impreso	-11.5211
▁crédito	-11.5211
▁condi	-11.5211
▁Dra	-11.5212
▁Leo	-11.5213
▁Bush	-11.5213
arold	-11.5215
▁Mao	-11.5215
▁conspiración	-11.5216
▁estadía	-11.5219
▁integral	-11.5219
▁falecemento	-11.522
▁ilustración	-11.5222
▁amosar	-11.5225
rin	-11.5226
▁contribuír	-11.523
▁proveñ	-11.5233
bade	-11.5235
▁baño	-11.5237
▁rexeitado	-11.5245
▁continuamente	-11.5246
▁ratos	-11.5246
▁ilustrado	-11.5252
▁permanecen	-11.5252
▁encarga	-11.5253
▁Aria	-11.5254
▁politica	-11.5262
ones	-11.5263
▁terapia	-11.5264
▁alza	-11.5267
▁marcar	-11.527
▁mitos	-11.5271
▁amid	-11.5271
▁complemento	-11.5273
▁fascista	-11.5273
▁olímpico	-11.5273
▁vínculo	-11.5273
▁difire	-11.5273
▁cerco	-11.5273
▁vixil	-11.5273
erzo	-11.5274
▁posi	-11.5275
▁Groenl	-11.5275
▁Anxo	-11.5275
▁Circ	-11.5277
▁Orti	-11.5277
▁consecuente	-11.5278
▁contratado	-11.5281
▁sustenta	-11.5281
gens	-11.5285
▁navegante	-11.5288
▁cientistas	-11.5292
ologia	-11.5294
▁crescer	-11.5294
▁indu	-11.5298
▁Avi	-11.53
struíu	-11.5304
▁Exe	-11.5316
▁bela	-11.5317
▁integrou	-11.5321
senciais	-11.5321
▁desempeña	-11.5323
▁serpe	-11.5325
▁digital	-11.533
acto	-11.533
▁castrex	-11.533
▁domésticos	-11.5331
▁Pasa	-11.5335
▁Consérva	-11.5337
▁adxacente	-11.5337
▁estranho	-11.5337
▁extraordinario	-11.5337
▁superfície	-11.5337
▁revelou	-11.5337
▁bretón	-11.5337
▁maxia	-11.5337
PD	-11.534
▁sasánida	-11.534
▁nacen	-11.5342
▁incr	-11.5346
▁determinante	-11.5347
▁encontrou	-11.535
▁3000	-11.5351
▁colocada	-11.5357
▁obviamente	-11.5357
▁recep	-11.5361
▁Principa	-11.5365
▁Facend	-11.5366
▁Chega	-11.5372
▁Cret	-11.5372
▁France	-11.5372
▁panor	-11.5375
▁rexe	-11.5376
▁Mala	-11.5376
▁Ott	-11.5376
▁capazes	-11.5376
▁patrocin	-11.5381
▁Tar	-11.5389
▁tenham	-11.5395
▁apóstolo	-11.54
▁guerrilla	-11.54
▁limpeza	-11.54
▁representou	-11.54
▁exitoso	-11.54
▁Estím	-11.54
▁livre	-11.54
▁Saúde	-11.54
▁apartamento	-11.54
▁traiz	-11.5401
▁semelhante	-11.5401
▁teria	-11.5402
▁inclinación	-11.5403
▁entregado	-11.5405
laga	-11.5409
▁Steven	-11.5409
ole	-11.5411
ocupando	-11.5412
▁enverg	-11.5419
ight	-11.5419
▁divorcio	-11.5424
▁vimos	-11.5428
▁inova	-11.5436
▁st	-11.5437
▁eido	-11.5437
▁notícias	-11.544
▁elaborar	-11.544
pol	-11.5442
▁industrializa	-11.5443
▁pensador	-11.5444
▁presentaba	-11.5445
▁frac	-11.5446
▁rexistra	-11.5447
▁Guadal	-11.5462
▁Az	-11.5462
▁Claudi	-11.5463
▁fenicio	-11.5464
▁opositor	-11.5464
▁pigmento	-11.5464
▁universitaria	-11.5464
▁enderezo	-11.5464
▁eclipse	-11.5464
▁estím	-11.5464
▁grosa	-11.5464
▁mongo	-11.5465
▁prefectura	-11.5465
▁ladeira	-11.5465
▁lealdade	-11.5465
▁teólogo	-11.5465
▁graxo	-11.5466
▁outorgou	-11.5466
▁mineira	-11.5467
▁constituía	-11.5469
▁decena	-11.5471
▁signific	-11.5473
▁levouno	-11.5473
etos	-11.5473
▁acudi	-11.5473
▁nominal	-11.5475
▁sentado	-11.5475
rabe	-11.5476
▁homosexual	-11.5476
mbre	-11.5476
▁interpretada	-11.5477
▁ignora	-11.5489
▁pensam	-11.549
▁pintar	-11.5493
▁incrementar	-11.5495
▁xesta	-11.5499
▁sacar	-11.55
▁observado	-11.5502
▁falando	-11.5504
▁especialidade	-11.5507
▁explora	-11.5508
▁Rede	-11.5511
▁resistir	-11.5517
▁operar	-11.5521
▁perce	-11.5523
▁Apóstolo	-11.5529
▁Realizou	-11.5529
▁académica	-11.5529
▁antecedente	-11.5529
▁emitiu	-11.5529
▁fármaco	-11.5529
▁romántico	-11.5529
▁lidero	-11.5529
▁direito	-11.5529
▁presb	-11.5529
▁Nevad	-11.553
utonomía	-11.5532
▁retóric	-11.5533
▁desempeño	-11.5536
▁enviada	-11.5539
▁emigrar	-11.554
▁porción	-11.5541
unge	-11.5543
doro	-11.5543
▁digo	-11.5545
▁contactos	-11.5545
ficina	-11.5546
▁arran	-11.5547
▁veem	-11.5548
▁sost	-11.5548
▁afroamericano	-11.5549
eida	-11.5553
▁entran	-11.5554
▁Sete	-11.5557
▁asume	-11.5559
70	-11.556
ebra	-11.5561
▁coiro	-11.5562
▁lazo	-11.5564
▁devido	-11.5573
▁Mich	-11.5574
▁cativo	-11.5575
▁abdica	-11.5579
conomía	-11.5581
▁aplicado	-11.5583
madura	-11.5586
▁Institut	-11.5588
▁constituínte	-11.5594
▁curiosidade	-11.5594
▁parecida	-11.5594
▁substituto	-11.5594
▁traducida	-11.5594
▁válvula	-11.5594
▁xermano	-11.5594
▁visuais	-11.5594
▁sedimento	-11.5594
▁Mad	-11.5594
▁porteiro	-11.5595
▁reduciu	-11.5595
▁fuga	-11.5595
▁levantou	-11.5595
▁Fale	-11.5598
agre	-11.56
▁Nicol	-11.56
▁sindical	-11.56
▁cualificación	-11.5601
ova	-11.5603
▁permitiulle	-11.5603
▁Esloven	-11.5603
▁Figuer	-11.5604
▁escuras	-11.5604
oung	-11.5605
▁tivesse	-11.5608
▁Pontede	-11.5613
▁indicador	-11.5616
▁ortodoxo	-11.562
▁afectar	-11.5621
▁importación	-11.5622
▁dire	-11.5623
▁consumidores	-11.5624
▁duma	-11.5624
▁salón	-11.5625
stro	-11.5629
▁desexaba	-11.5633
▁Spu	-11.5636
▁dixita	-11.5637
iterio	-11.5638
▁ATP	-11.5642
▁goza	-11.5643
let	-11.5644
▁Valencian	-11.5645
tida	-11.5646
pra	-11.5647
▁xefes	-11.5648
▁apoiaba	-11.565
▁invento	-11.5652
▁BM	-11.5652
▁Vai	-11.5653
▁facéndo	-11.5653
▁Decreto	-11.5659
▁dramático	-11.5659
▁Convención	-11.5659
▁instalá	-11.5659
▁Tód	-11.5659
▁denominou	-11.5659
▁asirio	-11.5659
▁pavillón	-11.5659
▁Tempo	-11.5662
▁referido	-11.5663
▁Apoll	-11.5667
▁doméstico	-11.5668
▁vídeos	-11.5668
▁artesán	-11.567
▁bate	-11.567
▁subida	-11.5671
▁gostaria	-11.5672
▁Clara	-11.5675
BM	-11.5675
▁aproximada	-11.5675
▁proceden	-11.5677
▁estoniano	-11.5678
▁adora	-11.5679
▁rexeitada	-11.5679
▁xogan	-11.5686
▁viaxeiro	-11.5686
▁occitan	-11.5688
ate	-11.5689
▁Campos	-11.5698
vina	-11.5699
uman	-11.5703
▁supor	-11.5706
▁noven	-11.5716
sol	-11.5717
ect	-11.5721
▁Consell	-11.5722
▁Bab	-11.5724
▁apreciar	-11.5724
▁aplíca	-11.5725
▁contrário	-11.5725
▁fantástica	-11.5725
▁guerrilleiro	-11.5725
▁microorganismo	-11.5725
▁monopolio	-11.5725
▁repertorio	-11.5725
▁sistemática	-11.5725
▁Exterior	-11.5725
▁radar	-11.5725
▁icona	-11.5725
▁tinta	-11.5726
▁Traballa	-11.5726
▁inv	-11.5726
▁sábe	-11.5728
▁reforzo	-11.5731
▁vestido	-11.5732
▁Cout	-11.5732
▁vertebrado	-11.5734
ax	-11.5734
▁analiza	-11.5735
▁comparado	-11.5742
▁Timo	-11.5743
and	-11.5747
▁arras	-11.5748
▁113	-11.5749
▁Sho	-11.5749
▁decorado	-11.5751
rroco	-11.576
▁face	-11.5761
mio	-11.5764
▁Usa	-11.5766
▁predomina	-11.5767
▁consulta	-11.5769
▁regula	-11.577
▁conforma	-11.5771
▁documentado	-11.5778
ned	-11.578
▁emerxe	-11.5783
▁obtiver	-11.5784
▁pecha	-11.5785
▁mosca	-11.5787
▁relaciona	-11.5789
ngele	-11.5791
▁hexem	-11.5791
▁Proxecto	-11.5791
▁claustro	-11.5791
▁cobertura	-11.5791
▁fígado	-11.5791
▁magnética	-11.5791
▁nórdico	-11.5791
▁sacrificio	-11.5791
▁Coñéce	-11.5791
▁Demócrata	-11.5791
▁inteligente	-11.5792
▁navegador	-11.5792
▁nicho	-11.5792
▁Representante	-11.5796
▁apunta	-11.5797
▁Maur	-11.5798
▁Sport	-11.5798
▁sepulcro	-11.5799
▁insurrec	-11.58
▁diga	-11.5801
▁outorgado	-11.5803
▁Flavi	-11.5804
▁satisfac	-11.5805
▁basea	-11.5808
▁arquivo	-11.5809
▁crer	-11.5812
▁Republicano	-11.5812
iev	-11.5813
chig	-11.5813
alf	-11.5818
▁termodinámic	-11.5824
▁elector	-11.5824
▁visi	-11.5824
▁Pala	-11.5826
▁Pon	-11.5837
▁depender	-11.5838
▁atletas	-11.5838
▁Va	-11.5839
▁Lagos	-11.584
▁constituír	-11.584
▁pau	-11.5846
▁comercializa	-11.5846
tais	-11.5848
▁repous	-11.5849
▁neles	-11.5851
uselle	-11.5854
▁agudo	-11.5855
▁budis	-11.5856
▁conmemora	-11.5856
▁Best	-11.5856
▁aritmética	-11.5858
▁crustáceo	-11.5858
▁mensagem	-11.5858
púsc	-11.5858
▁Ubu	-11.5858
▁estímulo	-11.5858
align	-11.5858
▁orella	-11.5858
▁protagonizada	-11.5859
▁Serie	-11.5861
asia	-11.5863
▁sabedor	-11.5866
▁fotógrafo	-11.5868
▁labrego	-11.5871
▁Sid	-11.5872
▁encontramos	-11.5873
▁solista	-11.5874
erse	-11.5877
▁conquistador	-11.5877
rosio	-11.5879
lav	-11.5892
ure	-11.5893
▁clar	-11.5895
▁fornecer	-11.5899
▁xustifica	-11.5905
adi	-11.5906
▁Membro	-11.5908
nexión	-11.5911
stancia	-11.5917
▁iniciado	-11.5922
▁antrop	-11.5925
▁adóita	-11.5925
▁inspirou	-11.5925
▁minúscula	-11.5925
▁necessidade	-11.5925
▁ostrogodo	-11.5925
▁princípio	-11.5925
▁recompilatorio	-11.5925
▁sucesivo	-11.5925
▁abadía	-11.5925
▁matriz	-11.5925
▁Risco	-11.5925
▁Nelson	-11.5927
▁Christian	-11.5927
oane	-11.5929
▁Brian	-11.593
▁corno	-11.593
▁audi	-11.5932
▁Magno	-11.5932
▁ingredientes	-11.5933
▁Publicou	-11.5935
▁matou	-11.5937
cel	-11.5937
▁chegado	-11.5942
▁navarro	-11.5945
▁dono	-11.5947
▁Unida	-11.5948
pé	-11.5951
▁Tan	-11.5952
igg	-11.5952
▁cela	-11.5953
▁Malv	-11.5954
▁Tor	-11.5959
imi	-11.5962
imm	-11.5962
cles	-11.5962
▁permane	-11.5965
araguai	-11.5967
▁Vivi	-11.597
▁Bra	-11.5972
volución	-11.5973
▁Sé	-11.5978
fendeu	-11.5979
▁estará	-11.598
▁139	-11.5982
anxo	-11.5986
▁pontos	-11.5989
▁Orixina	-11.5991
dura	-11.5991
ditorial	-11.5992
▁Líbano	-11.5992
▁atributo	-11.5992
▁demográfica	-11.5992
▁emprazamento	-11.5992
▁rituais	-11.5992
▁frauta	-11.5992
▁Noutro	-11.5993
▁lámpada	-11.5993
▁desenvolvé	-11.5993
▁mapas	-11.5998
▁Reich	-11.5999
▁Riva	-11.6002
▁clasificada	-11.6002
▁ane	-11.6005
▁habitaba	-11.6006
ring	-11.6007
▁Boa	-11.6008
▁capitalista	-11.6011
▁louc	-11.6015
▁fixe	-11.6017
torial	-11.602
▁rato	-11.6027
▁afirmaba	-11.603
▁amosou	-11.6031
dán	-11.6032
▁executar	-11.6035
▁morfoloxía	-11.6037
▁correctamente	-11.6037
▁multiplica	-11.6038
▁poñen	-11.604
▁engadiu	-11.604
tua	-11.6046
▁concede	-11.6051
▁certamente	-11.6052
▁sexos	-11.6052
iñeira	-11.6052
ramos	-11.6055
apitán	-11.606
▁curiosa	-11.6061
▁Bohemia	-11.6061
▁Stephen	-11.6061
▁ideolóxica	-11.6061
▁possibilidade	-11.6061
▁respectivo	-11.6061
▁subdivisión	-11.6061
▁divino	-11.6061
▁estampa	-11.6061
▁entregou	-11.6062
▁adecuado	-11.6062
▁tido	-11.6065
▁Sill	-11.6067
▁morais	-11.6068
▁BB	-11.6069
▁puntuación	-11.6069
▁cultivada	-11.6069
▁seleccionado	-11.607
▁representativa	-11.6072
▁BD	-11.6073
▁Transi	-11.6074
latino	-11.6074
rme	-11.6077
▁denomína	-11.6077
▁ecua	-11.608
▁Banda	-11.6081
▁xigantes	-11.6084
▁Troi	-11.6096
▁Band	-11.6099
▁definiu	-11.61
liz	-11.6105
▁rompeu	-11.6105
▁Anna	-11.6109
sider	-11.6109
feso	-11.611
▁ampliar	-11.6117
▁criou	-11.6125
▁protector	-11.6125
▁preserva	-11.6128
▁bispado	-11.6129
▁bárbaro	-11.6129
▁campesiña	-11.6129
▁frecha	-11.6129
▁indirecta	-11.6129
▁visíbe	-11.6129
▁maquina	-11.6129
▁promociona	-11.6129
▁triunfa	-11.6129
▁asasino	-11.6129
▁Prado	-11.6129
▁compite	-11.6129
▁accesible	-11.6129
▁volcánico	-11.613
▁globo	-11.613
▁Doutor	-11.613
▁novelista	-11.613
▁procesión	-11.6131
▁divina	-11.6131
▁masivo	-11.6133
▁autoriza	-11.6133
ef	-11.6133
▁consci	-11.6135
▁mencionar	-11.6141
▁Gr	-11.6141
▁144	-11.6144
▁fotón	-11.6145
fia	-11.6146
▁assunto	-11.6151
▁narrador	-11.6151
▁Lot	-11.6151
▁impediu	-11.6152
egel	-11.6153
▁ofrecen	-11.6158
▁vocal	-11.6159
▁Aleix	-11.6159
real	-11.6163
▁Torne	-11.6163
anchur	-11.6163
▁forzada	-11.6169
▁divulga	-11.6174
▁excluí	-11.6178
emen	-11.6179
▁afastar	-11.6182
lot	-11.6182
▁neurónios	-11.6186
▁Muro	-11.6189
▁Octavi	-11.6198
▁acuática	-11.6198
▁aleatoria	-11.6198
▁auténtica	-11.6198
▁caracterizou	-11.6198
▁pulmonar	-11.6198
▁novidade	-11.6198
▁repente	-11.6199
▁Carballed	-11.62
▁fume	-11.62
▁benestar	-11.6201
▁larga	-11.6202
▁adición	-11.6204
▁Operación	-11.6206
▁milita	-11.6207
▁116	-11.621
zig	-11.6222
▁Independente	-11.6222
sistencia	-11.6224
▁utilízan	-11.6227
rís	-11.6228
ES	-11.6229
mbala	-11.6229
vila	-11.623
ixeria	-11.6236
▁verbal	-11.6241
▁instala	-11.6242
▁Chec	-11.6244
▁Alan	-11.6245
▁desprazar	-11.6249
▁Marqu	-11.6249
▁Ferreiro	-11.6251
ncora	-11.6253
▁Bah	-11.6255
▁mau	-11.626
▁similitude	-11.6261
riam	-11.6265
gada	-11.6266
▁Dubl	-11.6266
▁Especial	-11.6267
▁cardíaco	-11.6267
▁conservou	-11.6267
▁palco	-11.6267
▁reflexo	-11.6267
▁crucial	-11.6267
▁xeolóxico	-11.6267
▁produtividade	-11.6268
▁Moisés	-11.6268
▁chip	-11.6268
▁Reforma	-11.6268
▁arranxo	-11.6268
▁horta	-11.6269
▁fonda	-11.6269
▁exclusivo	-11.627
▁quarto	-11.6271
▁Cantábric	-11.6271
▁cruzamento	-11.6273
▁limite	-11.6274
▁exhibición	-11.6275
▁adaptada	-11.6276
▁instrumental	-11.6281
▁devem	-11.6287
▁diferenciada	-11.6294
▁Grim	-11.6296
▁próprios	-11.6299
340	-11.6299
ung	-11.6301
▁senti	-11.6301
ere	-11.6305
▁cobra	-11.6308
fectou	-11.6308
▁agrupad	-11.6309
▁Charl	-11.631
▁voa	-11.6313
▁significativos	-11.632
collida	-11.6322
▁influenciada	-11.6327
▁conquistado	-11.633
▁secas	-11.6331
▁Flame	-11.6333
grama	-11.6334
▁estive	-11.6337
▁biodiversidade	-11.6337
▁convocou	-11.6337
▁devanceiro	-11.6337
▁dramaturgo	-11.6337
▁escisión	-11.6337
▁escándalo	-11.6337
▁eucalipto	-11.6337
▁interpretou	-11.6337
▁página	-11.6337
▁periodic	-11.6337
▁Saudita	-11.6338
▁aguda	-11.6338
▁textura	-11.6338
▁biling	-11.6338
▁peche	-11.634
▁inícia	-11.634
lmirant	-11.6342
▁Azore	-11.6342
▁avanzar	-11.6343
ufra	-11.6344
operación	-11.6346
▁posuír	-11.6348
▁transmite	-11.6348
▁devemos	-11.6352
▁Industrial	-11.6353
poleto	-11.6355
ove	-11.6356
▁ce	-11.6357
▁presta	-11.636
▁xerada	-11.636
▁interpretado	-11.6362
▁Mira	-11.6367
hai	-11.6372
▁Sex	-11.6373
▁Corpo	-11.6376
▁quest	-11.6377
▁comparti	-11.6377
▁algoritmo	-11.6389
▁Robin	-11.6389
▁Cang	-11.6389
▁comprobar	-11.639
▁faro	-11.6393
▁detalle	-11.6393
gregación	-11.6403
versa	-11.6405
racha	-11.6406
▁precede	-11.6406
pureza	-11.6406
▁continxente	-11.6408
▁necessário	-11.6408
▁poético	-11.6408
▁substitúe	-11.6408
▁vocábulo	-11.6408
▁xeolóxica	-11.6408
▁cervexa	-11.6408
▁audiovisua	-11.6408
▁Virgin	-11.6408
▁interesse	-11.6408
▁Rú	-11.6409
▁ceder	-11.641
▁LP	-11.6414
▁constrúe	-11.6414
urt	-11.6414
▁cabra	-11.6415
▁astrónomos	-11.6415
▁linguagem	-11.642
▁reivindicación	-11.6421
sburgo	-11.6424
elfi	-11.6426
▁profesora	-11.6427
▁qualidade	-11.643
▁preferido	-11.6431
▁Sobrad	-11.6444
▁conservadora	-11.6446
▁Estava	-11.6446
▁filia	-11.645
ild	-11.6453
▁brill	-11.6453
17	-11.6454
▁deseñador	-11.6456
gas	-11.6457
▁exploradores	-11.646
cur	-11.6461
▁banca	-11.6467
▁Eslov	-11.6468
ambul	-11.6469
▁acudir	-11.6469
▁Nice	-11.6469
ager	-11.6473
▁Guatemala	-11.6479
▁Imperial	-11.6479
▁arxila	-11.6479
▁peregrinación	-11.6479
▁reliquia	-11.6479
▁campá	-11.6479
▁simbólico	-11.6479
▁Alcalá	-11.6479
▁Xacobe	-11.6479
▁rapidez	-11.6479
▁pecado	-11.6479
▁cháman	-11.6479
▁Pompei	-11.6479
▁praga	-11.6481
▁oído	-11.6484
▁monumental	-11.6485
▁dragón	-11.6486
▁Volveu	-11.6487
▁Matt	-11.6488
▁It	-11.6493
▁reúne	-11.6494
omé	-11.6495
ncio	-11.6502
eresa	-11.6509
▁someter	-11.651
▁Esse	-11.651
▁emprende	-11.6515
▁encontran	-11.6517
▁Paris	-11.6518
▁penal	-11.652
▁ocorren	-11.6523
▁quenda	-11.6527
▁cumpri	-11.6527
▁constru	-11.6529
torga	-11.653
▁Stu	-11.653
▁Fiz	-11.6531
▁Libera	-11.6536
▁abuso	-11.654
▁Agu	-11.6547
▁alicerce	-11.655
▁progresivo	-11.655
▁túmulo	-11.655
▁traducir	-11.655
▁tardío	-11.655
▁tecnologias	-11.655
▁traxedia	-11.655
▁Plut	-11.655
▁outorga	-11.6551
▁aprendizagem	-11.6551
▁rexurdi	-11.6551
▁arteria	-11.6553
▁diferencial	-11.6553
▁Brut	-11.6553
nell	-11.6555
▁envía	-11.6556
▁maila	-11.6556
▁Consegui	-11.6559
▁pontevedr	-11.6559
▁suxeriu	-11.6561
▁entregar	-11.6563
▁laboral	-11.6563
▁cir	-11.6567
▁Indo	-11.6567
▁vólve	-11.6569
▁busc	-11.6569
▁Sever	-11.6572
ii	-11.6572
▁Executivo	-11.6572
▁podiam	-11.6578
▁Arsen	-11.6579
llas	-11.658
▁produ	-11.6582
▁levanta	-11.6589
▁colaborador	-11.6589
▁funcion	-11.6591
▁Mé	-11.6591
▁fixar	-11.6593
tava	-11.66
nterior	-11.6601
▁Sm	-11.6603
RC	-11.6603
▁león	-11.6604
notación	-11.6605
▁tua	-11.6609
▁implicación	-11.6612
▁atacado	-11.6614
▁achar	-11.6614
▁Dun	-11.6621
▁Mc	-11.6621
▁defensivo	-11.6622
▁metrópole	-11.6622
▁vietnamita	-11.6622
▁axeitada	-11.6622
▁bruto	-11.6622
▁reproducir	-11.6622
▁diamante	-11.6622
▁máxica	-11.6622
▁pomba	-11.6622
▁consciencia	-11.6622
▁Curti	-11.6622
▁reactor	-11.6623
▁transparente	-11.6624
▁berc	-11.6625
▁modifica	-11.6629
▁Clod	-11.6631
▁editada	-11.6631
▁corporación	-11.6631
▁raia	-11.6633
▁lanzada	-11.6637
dela	-11.6639
▁conservada	-11.6645
▁pasto	-11.6646
▁radioactivo	-11.6647
▁construtores	-11.6649
▁flúe	-11.6649
▁acreditar	-11.6653
▁inventou	-11.6655
▁valeu	-11.6659
▁contend	-11.666
minou	-11.6661
ntena	-11.6661
▁Latino	-11.6664
▁pase	-11.6668
ear	-11.6669
▁mãos	-11.6671
uanto	-11.6675
▁iria	-11.668
▁ánimo	-11.6681
▁sensa	-11.6682
▁133	-11.6683
▁ouvido	-11.6683
lada	-11.6683
auber	-11.6693
cional	-11.6693
ódigo	-11.6693
SM	-11.6694
listas	-11.6694
▁acústica	-11.6695
▁alcaldía	-11.6695
▁anfibio	-11.6695
▁catástrofe	-11.6695
▁descoberta	-11.6695
▁garantía	-11.6695
▁guarnición	-11.6695
▁sospeita	-11.6695
▁angular	-11.6695
▁castiñeiro	-11.6695
▁coloración	-11.6695
▁Século	-11.6695
▁imposta	-11.6695
▁obrigatoria	-11.6695
▁exacto	-11.6695
▁milagre	-11.6696
íxer	-11.6697
▁álx	-11.6698
▁suceder	-11.6699
▁Pac	-11.67
▁mercadoría	-11.6702
▁escoces	-11.6705
▁cuidados	-11.6707
▁esfor	-11.6712
dson	-11.6715
ións	-11.6716
▁Sin	-11.6716
▁aragon	-11.6716
▁Lev	-11.672
▁glaciares	-11.6722
▁lexítimo	-11.6724
▁seminario	-11.6724
▁academia	-11.6726
▁superado	-11.6729
▁noruegu	-11.6732
historia	-11.6733
ivelmente	-11.6734
▁Audio	-11.6742
▁encabezado	-11.6749
▁deixara	-11.675
▁Pila	-11.6752
xenes	-11.6754
▁rodean	-11.676
obio	-11.6761
▁March	-11.6765
▁desorde	-11.6766
▁direitos	-11.6767
▁voluntaria	-11.6768
▁concéntra	-11.6768
▁dependía	-11.6768
▁manhã	-11.6768
▁máscara	-11.6768
▁perpendicular	-11.6768
▁pretensión	-11.6768
▁Abraham	-11.6768
▁Athlet	-11.6768
▁traduciu	-11.6768
▁aguia	-11.6768
▁promotor	-11.6768
▁prática	-11.6768
▁Carnot	-11.6768
▁Belé	-11.6769
▁podio	-11.6769
▁catedrático	-11.6772
▁Fiste	-11.6773
▁traxe	-11.6773
▁Museu	-11.6774
▁ministerio	-11.6775
▁asentar	-11.6782
▁normativa	-11.6783
▁Bruc	-11.6788
toc	-11.6788
▁Ramir	-11.6789
▁daqueles	-11.6789
▁Valentin	-11.6792
▁2,5	-11.6792
▁aposta	-11.6793
VE	-11.6794
▁ucraíno	-11.6795
▁bautizado	-11.68
▁coco	-11.68
▁oculta	-11.6803
▁professor	-11.6806
▁Interes	-11.6807
ísm	-11.6807
▁revolu	-11.6808
▁Victor	-11.6811
▁Consist	-11.6815
rraca	-11.6825
▁esquecer	-11.6828
▁ligadas	-11.6829
▁chegara	-11.6833
▁toleran	-11.6834
arts	-11.6839
▁acredito	-11.6841
▁acuático	-11.6841
▁convencido	-11.6841
▁suxeita	-11.6841
▁sánscrit	-11.6841
▁pantanos	-11.6841
▁Memoria	-11.6841
▁etimoloxía	-11.6841
▁lomb	-11.6841
▁masacre	-11.6842
▁macizo	-11.6843
▁apartado	-11.6843
▁expoñente	-11.6844
▁esixencia	-11.6845
pones	-11.6846
▁mérito	-11.6847
▁pulo	-11.6848
▁estabelecer	-11.6851
▁estabelece	-11.6852
▁Dour	-11.6854
dicto	-11.6856
▁camada	-11.6857
▁coñéce	-11.6864
▁xerador	-11.6865
▁escravo	-11.6865
▁exista	-11.6865
▁Calvo	-11.6867
▁falou	-11.6868
▁proporcionan	-11.6869
bón	-11.687
▁Dá	-11.6872
▁Lor	-11.6874
▁noruegues	-11.6877
▁ameazada	-11.6878
▁Gordo	-11.6878
▁incluían	-11.6879
▁Fá	-11.6886
▁superan	-11.6888
▁atribúe	-11.6889
▁vindo	-11.6889
penas	-11.6892
sperma	-11.6893
▁ornamenta	-11.6897
esco	-11.6904
terminación	-11.6905
▁Sr	-11.6909
▁atravesar	-11.6911
▁padece	-11.6911
▁luta	-11.6912
▁trae	-11.6912
▁deixaba	-11.6913
▁desencade	-11.6915
▁gastronom	-11.6915
▁lóxico	-11.6915
▁peirao	-11.6915
▁veneciano	-11.6915
▁dourada	-11.6916
▁Esco	-11.6916
▁ultramar	-11.6916
▁roubo	-11.6917
▁tempora	-11.6917
▁implicado	-11.6919
▁descobrimos	-11.6919
▁maiúscula	-11.6922
adeira	-11.6925
▁Carte	-11.6928
▁prova	-11.6929
ávamos	-11.6929
ain	-11.6938
▁oscilación	-11.6939
▁Fre	-11.6942
tafe	-11.6943
eracl	-11.6944
▁fará	-11.6944
▁Apolo	-11.6945
▁Andrea	-11.6945
▁pescador	-11.6946
▁crías	-11.6952
▁ábre	-11.6956
▁polares	-11.6958
rquitectura	-11.6958
proximadamente	-11.6958
▁estatísticas	-11.6958
mione	-11.6959
▁Xermánic	-11.6959
▁She	-11.6963
▁maia	-11.6965
13	-11.6965
telo	-11.6977
▁Deza	-11.698
▁obradoiro	-11.6982
▁poderosos	-11.6985
▁minhas	-11.6988
ash	-11.6989
▁Vladimir	-11.699
▁bérber	-11.699
▁constituíndo	-11.699
▁idéntica	-11.699
▁invitado	-11.699
▁mazá	-11.699
▁psicolóxico	-11.699
▁feixe	-11.699
▁vostede	-11.699
ealth	-11.699
▁xesuíta	-11.699
▁Exposición	-11.699
▁escudería	-11.699
▁vencido	-11.699
▁montaxe	-11.6991
▁galiña	-11.6992
▁percebe	-11.6994
enegal	-11.6994
▁dispers	-11.6995
▁correspondía	-11.6997
▁administrada	-11.6998
▁acorde	-11.7001
▁disposto	-11.7007
espear	-11.7008
▁potas	-11.7008
▁cega	-11.7017
▁Catal	-11.7022
nal	-11.7023
uco	-11.7024
▁Euro	-11.7024
rix	-11.7025
ilde	-11.7029
▁asimila	-11.7034
ning	-11.7035
▁ligar	-11.7037
▁Revolucionari	-11.7038
▁fluviais	-11.7038
ledor	-11.7039
▁aulas	-11.7041
▁interessa	-11.7042
▁moderniza	-11.7052
▁alega	-11.7056
▁manto	-11.7059
▁imaxina	-11.7059
nesse	-11.7061
▁Rui	-11.7061
▁recomenda	-11.7063
▁resultaba	-11.7063
▁Declara	-11.7065
▁Presidencia	-11.7065
▁comprendida	-11.7065
▁incapaz	-11.7065
▁longametraxe	-11.7065
▁metáfora	-11.7065
▁nocturna	-11.7065
▁taboleiro	-11.7065
▁calcaria	-11.7065
▁Moldav	-11.7065
▁permita	-11.7065
▁abastece	-11.7065
▁astro	-11.7065
▁Comerci	-11.7065
dución	-11.7066
▁autob	-11.707
▁inclusión	-11.7073
▁Corre	-11.7073
▁God	-11.7075
▁ensinou	-11.7076
▁Feder	-11.708
enstein	-11.7084
▁naturalmente	-11.7086
▁pioneiro	-11.7087
▁vectoria	-11.7088
pera	-11.709
▁trabalha	-11.7091
▁consecutivos	-11.7092
▁massa	-11.7093
▁pano	-11.7094
▁incorporado	-11.7099
▁intervir	-11.7099
▁celulares	-11.7105
▁doada	-11.7108
▁fito	-11.7111
▁resta	-11.7114
▁Sacra	-11.7115
rsal	-11.7116
▁helio	-11.7123
▁Cam	-11.7132
▁Gañ	-11.7133
xéne	-11.7133
▁debuxa	-11.7139
quisición	-11.714
▁Detroit	-11.7141
▁botánica	-11.7141
▁helicóptero	-11.7141
▁idéntico	-11.7141
▁planicie	-11.7141
▁simbólica	-11.7141
▁Acordo	-11.7141
▁camisola	-11.7141
▁colisión	-11.7141
▁fideli	-11.7141
▁ritual	-11.7141
▁introduce	-11.7141
▁biomas	-11.7141
▁cachot	-11.7142
▁Portela	-11.7142
▁tard	-11.7143
▁costeiro	-11.7143
▁móve	-11.7143
▁protagonistas	-11.7143
▁destacable	-11.7143
▁errada	-11.7144
▁sepultura	-11.7144
mencl	-11.7144
▁permitido	-11.7145
▁solicit	-11.7145
▁frontal	-11.7146
▁Russel	-11.7147
▁Net	-11.7149
▁orientado	-11.715
▁video	-11.715
▁Aquile	-11.7151
▁reconquista	-11.7152
▁concentrar	-11.7152
▁Bri	-11.7153
▁che	-11.7154
▁convidado	-11.7155
▁significar	-11.7156
▁realizaba	-11.7159
▁ascendente	-11.7159
▁Liña	-11.7162
▁xerado	-11.7162
▁Roman	-11.7166
▁Mat	-11.7166
▁controlaba	-11.7168
▁raz	-11.7169
▁residi	-11.7169
▁expulsar	-11.7173
▁distante	-11.7173
▁aprecia	-11.718
▁boi	-11.7183
antar	-11.7183
▁Vé	-11.7184
▁sobe	-11.7184
amot	-11.7187
▁ret	-11.7188
▁Ross	-11.719
eff	-11.719
▁engadi	-11.7191
▁131	-11.7204
▁Ric	-11.7205
▁Times	-11.7206
▁datada	-11.7207
▁fazia	-11.7208
▁Sarri	-11.7209
▁anarquis	-11.7213
▁neo	-11.7216
▁estelar	-11.7216
▁Natura	-11.7217
▁atleta	-11.7217
▁extremidade	-11.7217
▁subtropica	-11.7217
▁espiña	-11.7217
▁autovía	-11.7217
▁térmico	-11.7217
▁barata	-11.7218
▁canteira	-11.7218
redo	-11.7218
▁troll	-11.7219
▁remoto	-11.7221
▁Lope	-11.7222
▁estudios	-11.7223
▁mineiro	-11.7223
▁Salmo	-11.7228
▁frequente	-11.7229
▁incorporada	-11.7233
lase	-11.7234
aldo	-11.7235
▁One	-11.7235
▁tratan	-11.7235
osh	-11.7238
▁fracción	-11.7239
▁perseguido	-11.7242
▁imagina	-11.7247
▁Salt	-11.7249
▁hip	-11.7251
▁Barca	-11.7252
▁Angel	-11.7254
▁insisti	-11.7255
▁sequ	-11.7256
▁UN	-11.7256
▁ostenta	-11.7257
▁afundi	-11.726
▁op	-11.7261
lig	-11.7262
▁escolher	-11.7267
▁encontrado	-11.7269
▁diversifica	-11.7272
bondo	-11.7274
▁Parti	-11.7275
▁vende	-11.7275
▁vivem	-11.7281
▁analizar	-11.7283
▁subsisten	-11.7283
ibn	-11.7285
▁comezara	-11.7286
▁sentiu	-11.7291
▁Entro	-11.7293
▁Church	-11.7294
▁Missouri	-11.7294
▁atribuído	-11.7294
▁ecolóxico	-11.7294
▁polícia	-11.7294
▁Oficial	-11.7294
▁demócrata	-11.7294
▁establéce	-11.7294
▁hóspede	-11.7294
▁trasláda	-11.7294
▁tambor	-11.7294
▁estraña	-11.7294
▁eliminatoria	-11.7294
▁pronome	-11.7295
▁prohibida	-11.7295
▁privados	-11.7296
▁xura	-11.7297
▁Cels	-11.73
▁cultivado	-11.7301
▁repetición	-11.7301
▁lenzo	-11.7303
▁poñendo	-11.7303
▁102	-11.7307
▁Valen	-11.7308
▁pretendente	-11.7308
▁patrona	-11.7311
▁Froila	-11.7311
▁comparar	-11.7315
▁disolveu	-11.7316
▁sufrimento	-11.732
ceos	-11.7321
▁armadas	-11.7326
▁equipado	-11.7327
▁Tara	-11.7329
▁pelota	-11.7331
▁Tale	-11.7331
▁embaixada	-11.7331
▁oficio	-11.7332
af	-11.7333
encio	-11.7334
▁Bom	-11.7336
síntese	-11.7338
▁administrado	-11.7339
▁recibida	-11.7344
▁crean	-11.7344
▁240	-11.7345
▁aleta	-11.7353
nom	-11.7358
cionario	-11.7358
ete	-11.7358
illo	-11.7362
▁critica	-11.7366
fici	-11.7366
▁feminis	-11.7369
rredor	-11.7371
▁perímetro	-11.7371
icaragua	-11.7371
▁Mongol	-11.7371
▁australiana	-11.7372
▁Drive	-11.7372
▁Uxí	-11.7372
tila	-11.7372
▁proposición	-11.7373
iñas	-11.7374
▁Old	-11.7375
▁dianteira	-11.7375
▁preparada	-11.7385
▁acta	-11.7387
▁provocan	-11.7388
tendendo	-11.7389
▁tectónica	-11.739
▁acabaría	-11.7391
▁xitano	-11.7391
▁chaman	-11.7395
ixón	-11.7398
▁Thi	-11.7398
▁compostelá	-11.7399
▁Chap	-11.7407
▁emigr	-11.7407
ucho	-11.7412
▁Ebr	-11.7415
▁coller	-11.7419
▁Camil	-11.742
▁Magn	-11.742
ilus	-11.7421
▁revelar	-11.7422
quitan	-11.7424
▁fino	-11.7427
▁vertica	-11.7428
▁recorre	-11.7429
ladas	-11.744
▁clasifica	-11.7441
puxo	-11.7444
electromagnético	-11.745
iribati	-11.745
▁atribuída	-11.745
▁embarazo	-11.745
▁harmonía	-11.745
▁instaura	-11.745
▁polímero	-11.745
▁xemelgo	-11.745
▁Life	-11.745
▁agulla	-11.745
▁alusión	-11.745
fiquei	-11.745
▁EEUU	-11.745
▁salientable	-11.745
▁previr	-11.745
▁mexicana	-11.745
lmí	-11.745
▁Gilbert	-11.7453
ER	-11.7453
▁atender	-11.7454
sunción	-11.7455
▁virxe	-11.7455
▁velo	-11.7456
▁aproveitamento	-11.7459
▁limpa	-11.7464
▁uva	-11.7467
▁denso	-11.7468
▁galardoado	-11.7471
▁usam	-11.7471
▁casada	-11.7475
▁tea	-11.7475
▁neoclásico	-11.7478
▁investir	-11.7481
▁Dioc	-11.7483
▁chá	-11.7486
▁cultiva	-11.7486
▁excede	-11.7487
▁reduci	-11.75
▁necesitaba	-11.75
▁aproxima	-11.751
▁nó	-11.7516
▁reuni	-11.7521
▁maneiras	-11.7522
eficiencia	-11.7527
▁almacén	-11.7528
▁aproveitou	-11.7528
▁comprendido	-11.7528
▁correspónde	-11.7528
▁curioso	-11.7528
▁enerxético	-11.7528
▁extraterrestre	-11.7528
▁ferroviario	-11.7528
▁hórreo	-11.7528
▁restablece	-11.7528
▁abreviatura	-11.7528
▁vasta	-11.7528
▁billón	-11.7529
▁sabio	-11.7529
cidio	-11.7529
▁anime	-11.753
▁escribía	-11.7531
ochet	-11.7533
▁encarcerado	-11.7534
▁retira	-11.7535
▁Dia	-11.7536
▁Vilal	-11.7536
▁tipoloxía	-11.7537
▁750	-11.7538
▁média	-11.7538
▁aspiración	-11.7541
euta	-11.7546
quita	-11.7547
▁combinada	-11.755
▁contracción	-11.7556
tain	-11.7558
gard	-11.7559
▁estendía	-11.756
estra	-11.7562
▁usamos	-11.7563
▁beber	-11.7565
▁radia	-11.7566
▁defenden	-11.7574
rovenza	-11.7576
▁diferenciado	-11.7577
▁Part	-11.758
und	-11.7581
▁Dio	-11.7581
▁criaturas	-11.7581
▁manten	-11.7581
▁xuda	-11.7584
composición	-11.7585
vora	-11.7589
▁Ferr	-11.759
nix	-11.7591
▁reforzar	-11.7595
▁preparado	-11.7597
GT	-11.76
▁percebi	-11.7603
nseca	-11.7604
▁Berengue	-11.7608
▁déficit	-11.7608
▁pertenza	-11.7608
▁rehabilita	-11.7608
▁válida	-11.7608
▁informou	-11.7608
cotiledón	-11.7608
▁Depende	-11.7608
▁aspeto	-11.7608
▁Bouza	-11.7608
▁Balear	-11.7608
▁espero	-11.7609
▁vinculada	-11.7611
▁cesa	-11.7612
▁involucrado	-11.7616
▁biólogo	-11.7617
▁emenda	-11.762
llan	-11.7622
▁Socie	-11.7627
▁alcan	-11.7628
▁Barc	-11.7629
▁documentada	-11.7638
missão	-11.7638
▁Pard	-11.7641
▁mortal	-11.7642
▁import	-11.7642
rase	-11.7647
▁conseguia	-11.7649
▁choca	-11.7649
▁transportar	-11.765
▁Fan	-11.7655
▁aparecía	-11.7657
▁falamos	-11.7662
▁Dub	-11.7662
▁evacua	-11.7662
▁precisaba	-11.7663
▁colle	-11.7664
▁But	-11.7665
aspar	-11.7665
▁negócio	-11.7666
▁estoup	-11.7666
▁adolescente	-11.7667
ancia	-11.767
▁lun	-11.7671
▁formig	-11.7676
▁Atlanta	-11.7688
▁Ortega	-11.7688
▁atinxe	-11.7688
▁cardíaca	-11.7688
▁diabetes	-11.7688
▁entusiasmo	-11.7688
▁piscina	-11.7688
▁razoamento	-11.7688
▁arquitectónica	-11.7688
▁cadeia	-11.7688
▁bélico	-11.7688
▁seareiro	-11.7688
▁Fidel	-11.7688
▁surpreendente	-11.7689
▁educado	-11.7689
ovic	-11.7689
▁valenciano	-11.769
▁chancel	-11.769
▁Open	-11.769
▁infinita	-11.7691
▁produzir	-11.7693
▁Arco	-11.7694
▁Cat	-11.7694
estar	-11.7695
▁asesor	-11.77
▁manex	-11.77
▁eslava	-11.7701
▁Corn	-11.7701
▁estreada	-11.7702
▁cazadores	-11.7703
mov	-11.7705
▁Miran	-11.7709
▁apresenta	-11.7714
▁conversas	-11.7717
lacant	-11.772
boo	-11.7721
▁estrato	-11.7721
▁efectivos	-11.7722
MI	-11.7722
▁celebrá	-11.7728
▁Nado	-11.7729
▁considerábe	-11.7732
▁Universit	-11.7733
▁adic	-11.7735
gado	-11.7742
▁adicou	-11.7745
ágora	-11.7745
▁consumidor	-11.7746
▁Tex	-11.7746
▁Ul	-11.7747
ván	-11.7749
▁dispostos	-11.7749
▁fuxid	-11.775
stone	-11.7754
▁comportamentos	-11.7757
▁entradas	-11.7761
▁Papúa	-11.7768
▁bairro	-11.7768
▁distintivo	-11.7768
▁neutro	-11.7768
▁tsunami	-11.7768
▁conceito	-11.7768
▁desigualdade	-11.7769
▁óleo	-11.777
▁formá	-11.777
ohns	-11.7771
mail	-11.7772
▁abella	-11.7773
▁preferente	-11.7773
itita	-11.7773
edalla	-11.7773
▁Ronald	-11.7775
ender	-11.7776
guía	-11.7777
▁Sudá	-11.7778
▁Puerto	-11.7783
▁balan	-11.7787
▁Rev	-11.7788
▁Time	-11.7793
▁característicos	-11.7797
ámo	-11.78
▁tranquil	-11.7801
▁Tru	-11.7804
▁cargada	-11.7807
▁ingresa	-11.7819
▁resultan	-11.7819
▁Bada	-11.782
▁cloro	-11.7821
▁fosfato	-11.7821
▁asasinar	-11.7837
▁fórma	-11.784
▁dotado	-11.7841
idas	-11.7842
xente	-11.7845
▁Comun	-11.7847
róximo	-11.7849
volvendo	-11.7849
▁intermedia	-11.7849
▁Iniciou	-11.785
▁Singapur	-11.785
▁estético	-11.785
▁fonético	-11.785
▁líquida	-11.785
▁maioritario	-11.785
▁sensibilidade	-11.785
▁mixto	-11.785
▁Crónica	-11.785
▁Chámase	-11.785
▁rostro	-11.785
▁falcón	-11.785
▁Certo	-11.785
▁insulin	-11.785
rnst	-11.785
▁enquisa	-11.785
▁supremo	-11.785
▁Studio	-11.785
▁elevados	-11.7851
▁prevista	-11.7851
▁Night	-11.7852
▁prestixioso	-11.7859
▁pozo	-11.7859
▁traseira	-11.7865
▁compartido	-11.7866
▁curmán	-11.787
▁anunciar	-11.7871
▁apart	-11.7872
tívo	-11.788
▁Luci	-11.7886
▁Cast	-11.7892
▁vota	-11.7893
▁Barba	-11.7894
▁Patric	-11.7894
▁secular	-11.7896
▁mortais	-11.7899
vill	-11.7901
▁esquí	-11.7901
linio	-11.7904
▁pastore	-11.7905
▁oco	-11.7907
▁leira	-11.7908
TP	-11.7909
americana	-11.791
▁coinciden	-11.7913
▁temor	-11.7913
▁Aran	-11.7913
eria	-11.7914
▁Shi	-11.7915
▁Fl	-11.7915
▁semanal	-11.7916
▁mostraba	-11.7916
▁Mercur	-11.7921
▁incrementou	-11.7925
ustin	-11.7925
▁evolucionar	-11.7925
▁luce	-11.7928
▁triste	-11.7929
▁indoeuropeo	-11.7931
▁Lincoln	-11.7932
▁memória	-11.7932
▁pacífica	-11.7932
▁prexuízo	-11.7932
▁subxénero	-11.7932
▁envío	-11.7932
▁valioso	-11.7932
▁húngara	-11.7932
▁burro	-11.7932
▁fisicamente	-11.7932
▁Daquel	-11.7934
▁cheiro	-11.7935
▁pagamento	-11.7937
▁ancián	-11.7939
▁carte	-11.794
▁Caraca	-11.794
▁conceptual	-11.794
▁comparada	-11.7944
▁xurado	-11.7944
▁Lanza	-11.7944
▁gozar	-11.7947
▁Stor	-11.7948
▁influído	-11.7949
▁bra	-11.7949
▁Peña	-11.7951
moción	-11.7952
reixa	-11.7953
▁inaugurad	-11.7956
carta	-11.7957
▁prob	-11.7962
▁tentativas	-11.7962
mil	-11.7964
▁Belgra	-11.7969
eroe	-11.7969
▁vita	-11.7975
burg	-11.7977
onec	-11.7977
▁Emilia	-11.7978
uímica	-11.7979
▁Atene	-11.7979
▁compostelán	-11.7984
Cl	-11.7985
▁planea	-11.7997
▁devia	-11.7999
▁ecolox	-11.8
▁org	-11.8001
▁polaca	-11.8001
▁Anto	-11.8002
nocenci	-11.8006
▁Parada	-11.8008
▁Izquierd	-11.8014
▁botánico	-11.8014
▁inflúe	-11.8014
▁triangular	-11.8014
▁estendé	-11.8014
▁racial	-11.8014
▁represénta	-11.8014
▁depredador	-11.8014
▁ampliou	-11.8014
▁quilómetro	-11.8014
▁filtro	-11.8014
▁Machine	-11.8015
sticio	-11.8015
▁directiva	-11.8015
▁Vanua	-11.8015
▁evolutivo	-11.8015
▁veleno	-11.8016
▁prominente	-11.8016
▁velho	-11.8016
▁diversa	-11.8017
▁Vers	-11.8017
▁Savo	-11.8018
▁horario	-11.8019
▁procedía	-11.8019
▁instante	-11.8019
gor	-11.8021
rcego	-11.8021
▁criticado	-11.8028
▁tango	-11.803
▁esquece	-11.8033
▁rápidos	-11.8035
▁pronunciado	-11.8037
elo	-11.804
▁veio	-11.804
▁mercar	-11.8041
▁Flores	-11.8044
▁napoleónica	-11.8045
▁daría	-11.8045
renal	-11.8046
▁Villar	-11.8051
▁caca	-11.8058
▁arame	-11.8062
gunt	-11.8064
servatorio	-11.8067
▁botar	-11.8068
▁Mendo	-11.808
ebas	-11.8085
▁mesturado	-11.8096
▁Puebl	-11.8098
▁dialecta	-11.8098
▁exercía	-11.8098
▁periférico	-11.8098
▁unificado	-11.8098
▁árbitro	-11.8098
▁fascismo	-11.8098
▁compartía	-11.8098
▁vasto	-11.8098
▁glori	-11.8098
▁indicio	-11.8098
▁bili	-11.8098
▁puidera	-11.8098
▁obrigatorio	-11.8098
▁Semana	-11.81
▁Igna	-11.81
oito	-11.8101
▁Luz	-11.8104
lbum	-11.8105
▁reprodutora	-11.8109
▁talla	-11.8109
▁Seu	-11.811
quistá	-11.8111
▁comunicado	-11.8112
▁atacada	-11.8115
▁Cup	-11.8115
▁Licenciad	-11.8116
▁urban	-11.8119
▁220	-11.8121
▁fóron	-11.8122
▁Mach	-11.8123
▁listaxe	-11.8126
▁preocupado	-11.8127
tores	-11.8129
▁preguntas	-11.8132
ugia	-11.8133
▁sobresae	-11.8135
lava	-11.8148
▁At	-11.815
vários	-11.815
untar	-11.8157
▁saco	-11.8159
ulg	-11.8163
▁retiro	-11.8166
consi	-11.8174
▁métrica	-11.8175
▁cós	-11.8176
eu	-11.8176
▁Corpora	-11.8177
▁practicar	-11.8178
▁Das	-11.8179
ntic	-11.818
▁holandesa	-11.8181
▁obsérva	-11.8182
▁perspetiva	-11.8182
▁restaurado	-11.8182
▁ribosoma	-11.8182
▁variábe	-11.8182
▁monstro	-11.8182
▁xadrez	-11.8182
▁clasifíca	-11.8182
▁reclamo	-11.8182
▁cronista	-11.8182
▁inteiro	-11.8182
▁Evanxeo	-11.8182
▁interferencia	-11.8182
▁prohibiu	-11.8182
hídrico	-11.8182
▁urbanización	-11.8182
▁Agosti	-11.8183
▁barro	-11.8183
▁envolve	-11.8184
▁proviña	-11.8184
▁adicada	-11.8184
▁pensem	-11.8186
▁Colli	-11.8186
▁deseñar	-11.8187
▁compartida	-11.819
▁tardía	-11.8191
▁metano	-11.8192
éntase	-11.8193
▁informativo	-11.8193
▁Philip	-11.8194
▁recto	-11.8194
▁escalar	-11.8195
▁parasito	-11.8198
▁xeolox	-11.82
▁Loc	-11.8208
▁mutuamente	-11.8208
etano	-11.8211
▁Trac	-11.8213
▁pagán	-11.8214
▁esixi	-11.8215
oloca	-11.8216
▁escritorio	-11.822
▁povo	-11.822
tório	-11.8221
cum	-11.8222
▁sinto	-11.8223
▁Barrio	-11.8225
ncer	-11.8229
▁Seg	-11.8229
▁Sand	-11.823
▁reitor	-11.8232
▁Riba	-11.8233
▁inclusiv	-11.8233
▁palma	-11.8235
▁sente	-11.8236
eito	-11.8236
▁Buda	-11.8244
enia	-11.8245
itúa	-11.8245
▁irregulares	-11.8249
▁Selec	-11.8251
onostia	-11.8252
▁queira	-11.8256
nesia	-11.8257
▁prohib	-11.8261
▁Gan	-11.8262
▁estaciona	-11.8262
▁aconte	-11.8266
ércul	-11.8266
▁anglosaxón	-11.8266
▁cinética	-11.8266
▁coloquial	-11.8266
▁hidroeléctrica	-11.8266
▁psicolóxica	-11.8266
▁rinoceronte	-11.8266
▁substrato	-11.8266
▁vacú	-11.8266
▁pesqueira	-11.8266
▁Bridge	-11.8266
▁cognitiva	-11.8266
▁incerteza	-11.8266
▁ocorrido	-11.8267
ílico	-11.8267
▁resonancia	-11.8267
▁causante	-11.8267
▁pórtico	-11.8267
▁erudito	-11.8268
▁expreso	-11.8268
▁abstracta	-11.8269
▁Brad	-11.8269
▁convertida	-11.827
▁volven	-11.827
▁replica	-11.8272
▁habe	-11.8272
énico	-11.8272
breiro	-11.8273
▁Consta	-11.8274
▁centrado	-11.8275
▁glaciación	-11.8277
▁edifício	-11.828
▁pane	-11.828
▁nariz	-11.8282
▁fixese	-11.8283
▁dianteiro	-11.8283
▁queima	-11.8284
▁escríbe	-11.8286
▁funcionan	-11.8286
▁perd	-11.8288
▁103	-11.8288
ller	-11.8288
▁dálle	-11.8288
ogh	-11.8292
▁servid	-11.8296
▁Feira	-11.8297
▁gañado	-11.8298
llst	-11.83
▁filo	-11.8306
▁conversación	-11.831
▁administrar	-11.8315
▁Camba	-11.8322
▁pensado	-11.8322
▁repetida	-11.8325
xano	-11.8325
▁abreviad	-11.834
▁famílias	-11.834
▁empera	-11.8347
▁inmedia	-11.8348
▁rexistrou	-11.8348
eoloxía	-11.8348
▁achegado	-11.8349
mico	-11.8349
onstitucional	-11.835
istórico	-11.8351
ground	-11.8352
▁Ningué	-11.8352
▁ameixa	-11.8352
▁compilación	-11.8352
▁híbrido	-11.8352
▁ladrillo	-11.8352
▁preparou	-11.8352
▁redonda	-11.8352
▁Empréga	-11.8352
▁contradición	-11.8352
▁procesador	-11.8352
▁filha	-11.8352
▁agrario	-11.8353
▁impedi	-11.8354
gger	-11.8355
amaica	-11.8355
▁Road	-11.8356
▁transmitida	-11.8358
▁Tong	-11.8358
▁Good	-11.8359
▁visitado	-11.8362
▁pide	-11.8363
▁desembarcar	-11.8365
itz	-11.8366
▁render	-11.8369
▁Leva	-11.837
▁precedente	-11.8373
▁roca	-11.8374
▁Mame	-11.8377
▁Area	-11.8384
▁Casal	-11.8389
▁condensa	-11.839
▁nelas	-11.8395
▁trab	-11.8396
▁cresce	-11.8396
▁queren	-11.8396
cón	-11.84
▁buscan	-11.8403
rote	-11.8405
▁Rubi	-11.841
▁Fal	-11.8412
▁crente	-11.8417
▁Sla	-11.8423
▁edifícios	-11.8424
ive	-11.8426
▁caixas	-11.8426
▁Pereira	-11.8428
▁pinta	-11.8433
▁101	-11.8433
ntico	-11.8435
▁Algun	-11.8437
▁lexitim	-11.8438
▁astronómico	-11.8438
▁companhia	-11.8438
▁milímetro	-11.8438
▁olímpica	-11.8438
▁propicio	-11.8438
▁revé	-11.8438
▁afeta	-11.8438
adical	-11.8438
▁Freud	-11.8438
▁bula	-11.8439
▁sublevado	-11.844
▁impresionista	-11.844
▁Tudh	-11.8442
▁lentes	-11.8442
▁produza	-11.8442
▁considéran	-11.8443
▁emerxente	-11.8444
▁Pensa	-11.8444
AR	-11.8444
▁Mill	-11.8446
▁Georg	-11.8447
▁Dona	-11.8449
actitude	-11.845
▁pilota	-11.8453
▁decae	-11.8453
▁Castill	-11.8454
▁redactor	-11.8454
▁gramatical	-11.8454
áveis	-11.8456
▁competidor	-11.8465
▁medicamento	-11.8465
▁sonoras	-11.8477
▁indicación	-11.848
▁desexa	-11.8482
▁fra	-11.8484
tória	-11.8486
▁reacciona	-11.8486
▁queixa	-11.8486
▁gobernaba	-11.849
▁traz	-11.8494
▁prado	-11.8495
▁talle	-11.8498
▁Pond	-11.8506
▁olha	-11.8512
▁acusa	-11.8518
omer	-11.852
▁coala	-11.8521
éxime	-11.8524
▁Tes	-11.8525
ópteros	-11.8525
▁McCart	-11.8525
▁astronauta	-11.8525
▁demonstra	-11.8525
▁ecolóxica	-11.8525
▁estuario	-11.8525
▁institucional	-11.8525
▁monetaria	-11.8525
▁múltiplo	-11.8525
▁pianista	-11.8525
▁pneumático	-11.8525
▁gasolin	-11.8525
▁válido	-11.8525
▁detallada	-11.8525
▁essencial	-11.8525
▁Taboad	-11.8526
▁marrón	-11.8526
▁veciñanza	-11.8526
▁cranio	-11.8526
suna	-11.8532
▁cubo	-11.8534
▁Vela	-11.8535
▁Pesca	-11.8536
▁supoñen	-11.8537
▁conectada	-11.8541
▁discrimina	-11.8542
▁contribui	-11.8546
bold	-11.8547
▁monárquico	-11.8549
ohan	-11.8553
▁sanción	-11.8553
▁Mei	-11.8555
▁precisar	-11.8556
▁Espart	-11.8561
▁pré	-11.8565
▁Im	-11.8565
▁Lé	-11.8566
izz	-11.8567
▁Tir	-11.8569
▁marcador	-11.8571
▁opoñente	-11.8572
▁espécies	-11.8572
▁señoria	-11.8579
▁existencial	-11.858
fina	-11.8582
▁termin	-11.8583
▁Teo	-11.8583
▁partilha	-11.8585
gli	-11.8585
MA	-11.8588
▁Turí	-11.859
▁pó	-11.8594
▁evolu	-11.8595
▁Industria	-11.8596
▁escoll	-11.8597
▁Ved	-11.8598
uais	-11.8609
▁municipalidade	-11.8609
anela	-11.8612
▁patria	-11.8613
▁proporcionou	-11.8613
▁Copenhague	-11.8613
▁carbonato	-11.8613
▁desaparecida	-11.8613
▁dinámico	-11.8613
▁enfrontá	-11.8613
▁tecnolóxica	-11.8613
▁tempestade	-11.8613
▁inventado	-11.8613
▁impren	-11.8613
▁Inclus	-11.8613
▁diagrama	-11.8614
▁Musso	-11.8614
cada	-11.8614
▁Muita	-11.8615
▁carteira	-11.8615
▁guarda	-11.8615
▁mate	-11.8616
▁ultra	-11.8617
▁xoia	-11.8617
▁camión	-11.8617
garden	-11.8619
▁chámaselle	-11.8619
ídeo	-11.862
toba	-11.862
▁postulado	-11.862
▁Mid	-11.862
▁Polic	-11.8621
▁passei	-11.8621
▁acordou	-11.8627
pia	-11.8628
▁transformada	-11.863
hit	-11.8631
▁fomos	-11.8632
▁sumerio	-11.8633
razo	-11.8634
▁receber	-11.8634
CP	-11.8636
támos	-11.8638
▁Mend	-11.8642
▁Mot	-11.8643
▁Agui	-11.8645
▁Direc	-11.8645
▁suficientes	-11.8648
irão	-11.8651
▁numerosa	-11.8651
▁episcopa	-11.8651
vidos	-11.8656
▁bebés	-11.8661
ngola	-11.8662
▁tumor	-11.8666
▁desprende	-11.8668
▁terminal	-11.8669
▁malas	-11.8671
▁Oro	-11.8672
dn	-11.8672
▁abordage	-11.868
▁pechar	-11.868
lém	-11.8681
derram	-11.8681
▁arde	-11.8682
▁obes	-11.8684
▁Eur	-11.8685
▁morrera	-11.8687
▁Berna	-11.869
▁presentador	-11.8691
▁Cou	-11.8691
▁film	-11.8699
▁Denomína	-11.8701
▁batallón	-11.8701
▁conífera	-11.8701
▁matéria	-11.8701
▁suplemento	-11.8701
▁Infante	-11.8701
▁comprou	-11.8701
▁Labor	-11.8702
▁consequ	-11.8702
▁Xuventude	-11.8702
▁Margarida	-11.8703
▁cente	-11.8703
▁Román	-11.8704
▁rug	-11.8705
ueen	-11.8705
▁incapacidade	-11.8706
▁afasta	-11.8706
▁Aquele	-11.8706
▁Soft	-11.8707
▁aviso	-11.8709
▁Aliado	-11.8711
▁especulación	-11.8711
▁predominan	-11.8714
▁Vincen	-11.8715
▁linda	-11.8716
▁concorda	-11.8721
▁procedencia	-11.8723
▁anano	-11.8725
tável	-11.8726
tis	-11.8733
▁influír	-11.8733
▁barba	-11.8733
▁Dada	-11.8734
vais	-11.8737
▁Cous	-11.8743
▁adapta	-11.8745
▁gostam	-11.875
▁provocado	-11.875
▁abrigo	-11.875
sur	-11.8752
▁Loi	-11.8753
▁defini	-11.8756
▁devolver	-11.8759
▁empate	-11.8764
▁raparigas	-11.8766
▁saca	-11.8774
▁bons	-11.8776
▁xesto	-11.8776
▁qué	-11.8777
▁Coto	-11.8781
▁salin	-11.8781
▁Base	-11.8784
ernández	-11.8788
llar	-11.879
▁Copérnico	-11.8791
▁accidentad	-11.8791
▁brilhante	-11.8791
▁carballeira	-11.8791
▁créa	-11.8791
▁herexía	-11.8791
▁mandíbula	-11.8791
▁monopraza	-11.8791
▁sintético	-11.8791
▁terrible	-11.8791
▁estrito	-11.8791
▁agresión	-11.8791
▁esposo	-11.8791
▁necrópole	-11.8791
▁Bagdad	-11.8791
udhon	-11.8791
▁adversario	-11.8791
▁manifestou	-11.8791
▁moble	-11.8791
▁certificado	-11.8791
▁Pastor	-11.8792
▁arrestado	-11.8793
▁Petro	-11.8793
▁comen	-11.8793
▁abstracto	-11.8793
▁xeada	-11.8794
lsacia	-11.8795
▁Obra	-11.8796
▁Estrela	-11.8796
▁cruel	-11.8796
▁alelo	-11.8796
▁láser	-11.8797
▁avenida	-11.8798
▁tellado	-11.8799
▁silvestre	-11.8802
▁cinzas	-11.8802
▁Iber	-11.8802
▁Nai	-11.8802
▁neta	-11.8804
latón	-11.8805
▁fizer	-11.8805
▁set	-11.8809
▁104	-11.8813
continente	-11.8819
▁fórman	-11.8822
▁preparados	-11.8823
▁Divers	-11.8825
▁Lan	-11.8826
▁xuntar	-11.8833
mudo	-11.8834
▁ecuatoria	-11.8835
▁organizador	-11.8836
▁confirmar	-11.8836
hop	-11.8839
ush	-11.8843
▁limi	-11.885
ísticos	-11.8854
▁fundi	-11.8855
▁Chad	-11.8862
▁procesado	-11.8863
gula	-11.8868
▁Camer	-11.8869
▁Esquer	-11.8871
▁fertili	-11.8872
▁determinan	-11.8872
▁integr	-11.8873
▁campan	-11.888
▁Pensem	-11.888
▁cabina	-11.8881
▁endémica	-11.8881
clasicis	-11.8881
▁Frederic	-11.8881
chéga	-11.8881
▁autobiograf	-11.8881
▁suburbio	-11.8881
▁sobreviventes	-11.8881
pula	-11.8882
▁Court	-11.8883
▁embrión	-11.8883
▁rexemento	-11.8885
▁cuarteto	-11.8887
▁sopa	-11.8888
▁Axi	-11.8888
▁Sei	-11.8889
▁retina	-11.889
▁reparación	-11.8891
seguinte	-11.8892
▁Fire	-11.8892
fan	-11.8892
▁reparar	-11.8892
▁Rich	-11.8898
▁galaico	-11.8898
▁ordenada	-11.89
▁Ocup	-11.89
▁comenta	-11.8901
▁Sociedad	-11.8902
▁combinar	-11.8907
rixid	-11.8908
▁Acer	-11.8908
ível	-11.891
gang	-11.8912
▁Milan	-11.8913
▁vin	-11.8914
ltimo	-11.8915
▁magne	-11.8919
▁almacenar	-11.8923
▁deteriora	-11.8923
▁capta	-11.8924
▁intera	-11.8927
▁liso	-11.8927
▁perden	-11.893
▁ánim	-11.8934
versão	-11.8934
▁passou	-11.8937
▁vence	-11.8939
▁reorganiza	-11.894
▁Gene	-11.8946
▁transportado	-11.8948
edro	-11.8948
▁culmin	-11.8948
▁Sist	-11.8948
att	-11.8952
▁úte	-11.8952
▁protagoniz	-11.8955
▁usá	-11.8955
▁silencio	-11.8961
▁franqu	-11.8961
▁estivesse	-11.8961
▁Fermi	-11.8969
óveda	-11.8971
▁Chamberl	-11.8972
▁Little	-11.8972
▁atlántico	-11.8972
▁carecía	-11.8972
▁circundante	-11.8972
▁desafío	-11.8972
▁desintegra	-11.8972
▁luteran	-11.8972
▁restaurar	-11.8972
▁óptico	-11.8972
▁Salvat	-11.8972
▁adhesión	-11.8972
▁elenco	-11.8972
▁fermentación	-11.8972
▁inverna	-11.8972
▁Pronto	-11.8972
▁Nuev	-11.8972
▁Programa	-11.8972
▁deformación	-11.8972
▁recipiente	-11.8972
▁funerario	-11.8972
ashing	-11.8973
génio	-11.8974
▁debuxante	-11.8974
▁hemo	-11.8975
▁Gius	-11.8976
▁lendario	-11.8976
▁semanario	-11.8977
▁Trent	-11.8978
▁Cibr	-11.898
bemos	-11.898
▁Informa	-11.898
▁túa	-11.8981
▁transferido	-11.8983
oalición	-11.8984
▁Mariño	-11.8987
▁glic	-11.8991
▁exce	-11.8991
▁pou	-11.8994
lhi	-11.8995
húngaro	-11.8997
toria	-11.9004
▁vea	-11.9005
▁albanes	-11.9009
▁coca	-11.9012
▁enfronta	-11.9016
▁estudada	-11.9017
▁autora	-11.902
▁entrevistas	-11.9024
▁axudan	-11.9025
▁magnet	-11.9026
▁remo	-11.9027
zán	-11.9027
▁Gor	-11.9032
▁sentidos	-11.9032
▁léva	-11.9035
▁Pau	-11.9038
ísticas	-11.9042
▁Pand	-11.9042
▁funcionais	-11.9046
▁investido	-11.9047
▁metalur	-11.9049
04	-11.9049
▁tarda	-11.9057
lecer	-11.9059
▁excelen	-11.9059
▁derrotada	-11.9062
▁entro	-11.9063
▁inconsciente	-11.9063
▁Charlotte	-11.9063
▁Coñecid	-11.9063
▁circunscrición	-11.9063
▁desacordo	-11.9063
▁diacrítico	-11.9063
▁discográfico	-11.9063
▁móstra	-11.9063
▁chamába	-11.9063
▁humanista	-11.9064
▁esgota	-11.9065
▁creativa	-11.9066
▁faceta	-11.9069
▁Cabra	-11.907
▁Force	-11.9071
▁alcanzan	-11.9071
ócrat	-11.9072
▁Cruzada	-11.9072
▁consentimento	-11.9073
ttel	-11.9074
hou	-11.9075
▁Saga	-11.9077
▁conhecido	-11.9078
tanasi	-11.9078
▁coñecían	-11.9084
▁conhecer	-11.9088
▁Matth	-11.9089
▁sexualidade	-11.9092
streito	-11.9094
▁programador	-11.9097
▁Cine	-11.9099
▁déron	-11.9102
▁perdera	-11.9103
▁Vinc	-11.9107
▁concentrado	-11.9112
▁detención	-11.9114
▁Damas	-11.9116
ntaxe	-11.9117
▁expectativas	-11.9122
EC	-11.9122
ulia	-11.9127
▁Xén	-11.9128
▁elefante	-11.9129
▁brit	-11.9132
▁elei	-11.9135
▁imita	-11.9137
▁patro	-11.9138
▁conectar	-11.9139
▁pudesse	-11.914
▁AP	-11.914
max	-11.9141
320	-11.9145
▁Conserva	-11.9146
▁relacionar	-11.9152
dore	-11.9153
▁inventar	-11.9154
▁Budapest	-11.9156
▁Christoph	-11.9156
▁Recibe	-11.9156
▁conxunción	-11.9156
▁invertebrad	-11.9156
▁retirá	-11.9156
▁tímpano	-11.9156
▁ultravioleta	-11.9156
▁vulnerable	-11.9156
▁valiosa	-11.9156
▁inercia	-11.9156
▁prefixo	-11.9156
▁extinto	-11.9156
▁vingan	-11.9156
▁fervenza	-11.9156
▁incuba	-11.9156
▁Comarca	-11.9156
▁produtiva	-11.9156
genhei	-11.9157
▁ambición	-11.9157
▁ausente	-11.9157
▁gozo	-11.9157
▁navegar	-11.9159
▁Freire	-11.9159
▁centenario	-11.916
▁remota	-11.916
▁consolidar	-11.916
▁divisor	-11.916
▁rendimento	-11.9161
▁Carva	-11.9161
uten	-11.9164
▁molde	-11.9165
▁determinou	-11.9165
▁cicl	-11.9166
▁aprendemos	-11.9166
▁instalada	-11.9167
▁pintada	-11.9167
▁transmitido	-11.9169
▁Marian	-11.9169
▁solicitar	-11.9171
ritz	-11.9172
vía	-11.9172
▁Tanz	-11.9173
pirit	-11.9173
▁genes	-11.9178
▁Somo	-11.918
cismo	-11.9186
▁fican	-11.9186
ev	-11.9186
▁Baco	-11.9189
▁trío	-11.9191
▁viría	-11.9192
▁cera	-11.9193
▁Mug	-11.9193
▁confirmado	-11.9193
elda	-11.9197
▁executa	-11.9199
video	-11.9201
concerto	-11.9202
▁impar	-11.9205
▁Great	-11.9209
adri	-11.9212
▁xogaba	-11.9215
▁grel	-11.9217
▁Caban	-11.9222
▁ganhar	-11.9222
▁Gondo	-11.9229
▁gozaba	-11.923
oc	-11.923
▁configura	-11.9231
▁negar	-11.9235
▁pasada	-11.9236
▁dificulta	-11.9237
▁disputado	-11.9238
▁elabora	-11.9241
uve	-11.9246
quino	-11.9247
▁atraído	-11.9249
▁austríaca	-11.9249
▁constitucionais	-11.9249
▁desgraza	-11.9249
▁mítico	-11.9249
▁rupestre	-11.9249
▁adheri	-11.9249
▁reconstruír	-11.9249
▁únese	-11.9249
▁cineasta	-11.9249
▁extinta	-11.9249
▁dedíca	-11.9249
▁Certa	-11.9249
▁Anthon	-11.925
▁céltica	-11.925
▁casual	-11.925
▁folcl	-11.925
▁microscopio	-11.925
▁direita	-11.925
▁carencia	-11.925
▁amostra	-11.9251
▁encarna	-11.9251
▁terríve	-11.9252
▁cálida	-11.9253
▁referida	-11.9253
▁foxo	-11.9253
▁cónta	-11.9254
▁comezaría	-11.9254
▁peseta	-11.9259
▁acumula	-11.9259
▁vistos	-11.926
▁sensor	-11.926
▁consumir	-11.9263
abía	-11.9263
▁admite	-11.927
forma	-11.9272
▁algoritmos	-11.9274
▁coello	-11.9277
▁reivindica	-11.9278
ciden	-11.9278
▁observada	-11.9281
▁fé	-11.9281
▁renome	-11.9289
▁despedido	-11.9294
rner	-11.9294
▁financeiras	-11.93
▁linear	-11.9303
lariz	-11.9313
▁dividía	-11.9318
rque	-11.9321
▁cómic	-11.9336
▁centenar	-11.9337
▁despraza	-11.9338
▁dispersa	-11.9341
▁sho	-11.9343
▁Atlétic	-11.9344
▁apercebe	-11.9344
▁pesqueiro	-11.9344
▁rochosa	-11.9344
▁romántica	-11.9344
▁sinfonía	-11.9344
▁tridimensiona	-11.9344
▁vicerrei	-11.9344
▁mascota	-11.9344
▁ventá	-11.9344
▁dedicá	-11.9344
▁vírus	-11.9344
▁hidrográfica	-11.9344
▁mistura	-11.9344
▁acontecido	-11.9344
rpool	-11.9344
▁terciario	-11.9344
▁Deporte	-11.9344
▁fiable	-11.9344
▁presentá	-11.9344
▁discutir	-11.9344
▁Intel	-11.9345
▁rendeu	-11.9346
▁obteñ	-11.9346
▁Foot	-11.9346
▁elegante	-11.9347
▁Dominica	-11.9347
▁simetr	-11.9347
▁observatorio	-11.9347
▁primordial	-11.9348
▁Boo	-11.9348
▁lutar	-11.9349
▁Phil	-11.9349
▁baixar	-11.935
▁Austra	-11.9351
▁sonoro	-11.9351
osep	-11.9351
▁viola	-11.9352
▁comici	-11.9352
▁Obtiv	-11.9353
▁rexionalista	-11.9354
▁Manet	-11.9356
▁Ferreir	-11.9358
▁pintado	-11.9364
▁abondo	-11.937
▁aprobar	-11.937
▁Inc	-11.9376
▁Anta	-11.9378
rne	-11.9386
▁debilita	-11.9392
▁abdom	-11.9397
tag	-11.9403
▁Song	-11.9405
▁pinto	-11.9409
▁Tomá	-11.9411
▁post	-11.9412
squerda	-11.9419
▁frequ	-11.9424
▁PN	-11.9425
▁herdeir	-11.9426
▁Act	-11.9427
▁protagonis	-11.9436
inastía	-11.9438
▁conseguido	-11.9438
ipedia	-11.9439
▁Bangladesh	-11.9439
▁Semifina	-11.9439
▁acompañou	-11.9439
▁asegurou	-11.9439
▁candidata	-11.9439
▁explosivo	-11.9439
▁gripe	-11.9439
▁inimiga	-11.9439
▁prehistórico	-11.9439
▁restaurada	-11.9439
▁vértice	-11.9439
▁bloco	-11.9439
▁marxismo	-11.9439
▁numérico	-11.9439
▁Dream	-11.9439
▁Deixem	-11.9439
▁facenda	-11.9439
▁Saur	-11.944
▁modernista	-11.9441
▁pensá	-11.9441
tección	-11.9443
▁impresionante	-11.9443
filia	-11.9445
▁CF	-11.9445
▁troca	-11.9445
▁Palm	-11.9449
▁Salced	-11.945
▁axita	-11.9452
▁compá	-11.9452
mostrado	-11.9452
▁motivación	-11.9453
▁Liv	-11.9454
▁Margar	-11.9455
▁criada	-11.9463
▁negócios	-11.9465
reg	-11.9466
▁actuaba	-11.9466
▁porqu	-11.9467
▁Main	-11.9467
mini	-11.9467
▁liberada	-11.9472
▁federa	-11.9474
itter	-11.9475
▁Moren	-11.9478
eide	-11.9481
lus	-11.9482
▁viñer	-11.9484
▁demostran	-11.9491
rco	-11.9491
aldi	-11.9495
orta	-11.9497
▁regres	-11.9501
▁ficam	-11.9503
▁Fox	-11.9505
▁Cristian	-11.9506
▁contro	-11.9507
áctea	-11.9508
cencia	-11.951
▁tratada	-11.9514
▁360	-11.9518
▁imperia	-11.9521
▁Film	-11.9526
▁Lour	-11.9529
▁Correo	-11.953
▁Pie	-11.953
▁galeguis	-11.9531
▁Globo	-11.9535
▁bolboreta	-11.9535
▁compañeira	-11.9535
▁confesión	-11.9535
▁explicou	-11.9535
▁flamenc	-11.9535
▁fotográfica	-11.9535
▁menstrua	-11.9535
▁tiburón	-11.9535
▁Muller	-11.9536
▁interesou	-11.9536
▁pelexa	-11.9536
▁malária	-11.9537
▁poemario	-11.9538
eptu	-11.9539
▁administra	-11.954
▁solidariedade	-11.9541
rús	-11.9541
▁maxistrado	-11.9543
▁Segura	-11.9546
▁socialdemócrata	-11.9548
▁concentrada	-11.9548
▁dezase	-11.9549
nome	-11.9549
mont	-11.9549
▁pir	-11.955
▁Chao	-11.9551
▁materno	-11.9551
▁han	-11.9552
▁céu	-11.9554
▁dé	-11.9555
▁celo	-11.9555
udio	-11.9556
arco	-11.9559
xestión	-11.9561
▁estimado	-11.9564
▁Donat	-11.9566
▁construíndo	-11.9569
▁divisa	-11.9576
▁sonata	-11.9581
▁caen	-11.9582
▁identificada	-11.9583
▁disputada	-11.9583
▁Blu	-11.9583
▁úsan	-11.9584
unqueira	-11.9592
liveira	-11.9595
goberno	-11.9601
▁gala	-11.9602
▁pilas	-11.961
▁cadra	-11.9611
brindo	-11.9612
▁Dez	-11.9613
▁governos	-11.9615
▁Greg	-11.9618
ití	-11.9621
▁corvo	-11.9623
▁Pereir	-11.9629
▁ordenar	-11.9631
▁intui	-11.9632
▁Metropolitan	-11.9632
▁estómago	-11.9632
▁lípido	-11.9632
▁minoritaria	-11.9632
▁orgullo	-11.9632
▁tripulante	-11.9632
▁aborixe	-11.9632
▁miniatura	-11.9632
▁fermoso	-11.9632
▁lugu	-11.9632
▁bautism	-11.9632
▁Birm	-11.9632
▁Cabaleiro	-11.9633
▁predición	-11.9633
▁pensan	-11.9634
▁Cornell	-11.9634
▁Gates	-11.9634
▁Light	-11.9635
▁saiu	-11.9635
▁surrealista	-11.9635
▁afiliado	-11.9636
▁xenr	-11.9636
▁barreiras	-11.9636
▁medi	-11.9637
▁dominaba	-11.9638
▁colega	-11.9638
▁vice	-11.964
▁mensual	-11.964
▁voceiro	-11.9641
imén	-11.9642
edade	-11.9644
▁optou	-11.9644
ioquí	-11.9645
▁encontraba	-11.9647
▁737	-11.9648
▁mansión	-11.9649
▁lit	-11.965
▁criminal	-11.965
▁conseguira	-11.9652
▁probou	-11.9652
▁demora	-11.9654
▁escur	-11.9658
▁particularidade	-11.9658
▁diria	-11.9672
▁Fr	-11.969
▁Toma	-11.9691
▁devo	-11.9691
stein	-11.9694
▁construtor	-11.9696
queira	-11.9698
▁fisi	-11.9698
▁cargado	-11.97
▁Pino	-11.9701
▁pioneiros	-11.9702
iña	-11.9703
▁glaciar	-11.9706
▁practicante	-11.9707
▁marxina	-11.9708
▁Lind	-11.9708
▁instrumenta	-11.9711
▁descobri	-11.9714
▁boxe	-11.9717
spacial	-11.9719
▁Iria	-11.972
▁Trist	-11.9721
▁Vim	-11.9722
▁plásticos	-11.9728
▁catarata	-11.973
▁cinematográfico	-11.973
▁controvertido	-11.973
▁drasticamente	-11.973
▁extraído	-11.973
▁invernadoiro	-11.973
▁rochoso	-11.973
▁tópico	-11.973
▁violoncell	-11.973
▁accidental	-11.973
▁enerxética	-11.973
▁enzima	-11.973
▁dolmen	-11.973
▁clínico	-11.973
▁unitario	-11.973
▁alongada	-11.973
▁Again	-11.973
▁Morris	-11.9731
▁Arquivo	-11.9731
▁fenda	-11.9732
▁xuntanza	-11.9732
▁Tosca	-11.9732
▁Abel	-11.9737
▁pratica	-11.9739
▁alerta	-11.974
▁prefect	-11.9741
▁montar	-11.9741
▁inaugurada	-11.9741
▁cartaxines	-11.9744
▁bin	-11.9744
▁consagrado	-11.9744
▁histori	-11.9745
▁IU	-11.9746
▁avanz	-11.9748
▁antenas	-11.9754
tío	-11.9755
▁Comp	-11.9759
▁brando	-11.9763
▁proceder	-11.9767
▁Naval	-11.9773
iel	-11.9774
▁escapa	-11.9777
▁sumar	-11.9778
▁exercida	-11.9784
▁conquistas	-11.9785
azor	-11.9785
▁Age	-11.9785
▁ní	-11.9786
▁Pav	-11.9786
▁renomead	-11.9789
▁araña	-11.9791
▁recorrer	-11.9791
▁neerlandes	-11.9794
allac	-11.9795
▁irmão	-11.9797
▁hábitos	-11.9797
▁proclamar	-11.9802
▁Lice	-11.9806
▁convenceu	-11.9807
▁estaleiro	-11.9809
▁reconhecer	-11.9815
▁ilustra	-11.9819
ilicia	-11.9819
piro	-11.982
▁moleculares	-11.982
▁cuántico	-11.9824
▁carecen	-11.9825
▁creá	-11.9828
▁achegan	-11.9828
▁Eurocopa	-11.9829
▁Tíbe	-11.9829
▁cidadãos	-11.9829
▁clarinete	-11.9829
▁intoxicación	-11.9829
▁limítrofe	-11.9829
▁meteorolóxica	-11.9829
▁nebulosa	-11.9829
▁néboa	-11.9829
▁nórdica	-11.9829
▁plaqueta	-11.9829
▁oculto	-11.9829
▁parcela	-11.9829
▁gravitacional	-11.9829
▁depressa	-11.9829
▁situou	-11.9829
▁roedor	-11.9829
arbor	-11.9829
▁procuro	-11.9829
▁limpo	-11.9829
▁proteger	-11.983
▁dubido	-11.983
▁autentic	-11.983
▁berro	-11.983
voz	-11.9831
▁gandeira	-11.9832
▁Gut	-11.9833
▁inestable	-11.9833
▁regulamento	-11.9834
▁crego	-11.9836
▁compaixão	-11.9836
zbequ	-11.9837
▁abondosa	-11.9838
▁mercante	-11.9841
▁Deixo	-11.9842
▁enseada	-11.9842
▁Alvar	-11.9844
▁imparti	-11.9845
xenx	-11.9846
▁padrão	-11.9848
▁imitación	-11.9849
antís	-11.985
ótico	-11.9858
▁Sabi	-11.9858
▁Vermell	-11.9858
bage	-11.9862
▁negativos	-11.9865
▁contrasta	-11.9867
▁acordar	-11.9878
ectivo	-11.988
hol	-11.9888
▁árvores	-11.9891
▁conheci	-11.9894
▁reina	-11.9898
▁Burt	-11.9899
▁estudaba	-11.99
▁Enter	-11.99
▁Luter	-11.9905
▁tratando	-11.9906
▁ingl	-11.9907
▁Xordan	-11.9911
▁ist	-11.9914
▁sito	-11.9915
▁verificar	-11.9915
elixido	-11.9916
▁estepa	-11.9917
▁reprodutor	-11.9922
▁paraíso	-11.9923
▁Caracteríza	-11.9929
▁agasallo	-11.9929
▁enterramento	-11.9929
▁galáxia	-11.9929
▁imposíbe	-11.9929
▁interrupción	-11.9929
▁madrugada	-11.9929
▁mártir	-11.9929
▁orgánulo	-11.9929
▁turbina	-11.9929
▁Converte	-11.9929
▁enfrónta	-11.9929
▁fraude	-11.9929
▁lagarto	-11.9929
▁telemóvel	-11.9929
▁camiseta	-11.9929
▁empeor	-11.9929
▁analítica	-11.9929
▁eólica	-11.9929
▁perfeita	-11.9929
▁articulación	-11.993
▁amorosa	-11.993
heim	-11.993
▁mobilidade	-11.993
▁tórna	-11.993
estade	-11.9933
parecían	-11.9934
▁comisario	-11.9934
▁trasladada	-11.9935
▁Niet	-11.9937
▁Mostra	-11.9939
urio	-11.9939
uiza	-11.994
hel	-11.9942
▁abusos	-11.9944
sita	-11.9944
isterio	-11.9948
▁esloveno	-11.9948
▁operativos	-11.995
pressão	-11.9951
▁propoñe	-11.9952
▁recomendación	-11.9953
▁parente	-11.9956
rrección	-11.9962
▁bloqueo	-11.9963
lvan	-11.9964
▁anotador	-11.9964
▁importar	-11.9965
▁invadid	-11.9966
ascar	-11.997
▁capturada	-11.997
▁descríbe	-11.9971
▁cinc	-11.9973
▁Olive	-11.9974
▁Ling	-11.9974
▁esperado	-11.9974
ranio	-11.9979
▁incerta	-11.9979
niz	-11.998
▁Mec	-11.9982
veiro	-11.9984
rros	-11.9985
▁Marcia	-11.9987
▁Numa	-11.999
▁Tesal	-11.9991
pur	-11.9993
▁empregos	-11.9996
▁preservar	-12.0004
▁consagra	-12.0008
correu	-12.0013
util	-12.0014
▁vermes	-12.0014
▁achegas	-12.0014
▁Vanc	-12.0014
▁Der	-12.0015
▁soci	-12.0018
ída	-12.002
▁Debut	-12.0022
▁Casp	-12.0022
▁fragmenta	-12.0022
▁repoboa	-12.0026
▁somete	-12.003
▁significante	-12.003
▁Bonifac	-12.003
▁Círculo	-12.003
▁Saxonia	-12.003
▁Science	-12.003
▁anónima	-12.003
▁dificuldade	-12.003
▁ecrã	-12.003
▁evanxeo	-12.003
▁helenístic	-12.003
▁iniciá	-12.003
▁logaritmo	-12.003
▁lucro	-12.003
▁perpetua	-12.003
▁recoñecía	-12.003
▁sozinho	-12.003
▁temperada	-12.003
▁triplo	-12.003
▁concedida	-12.003
▁graduou	-12.003
imalaia	-12.003
▁solucionar	-12.003
▁raposo	-12.0031
▁Administrativa	-12.0031
eród	-12.0031
▁colocá	-12.0031
▁diagona	-12.0031
▁sério	-12.0032
▁produtivo	-12.0032
▁penalti	-12.0033
▁malaria	-12.0034
coñécese	-12.0034
▁cumprimento	-12.0034
▁trazer	-12.0034
▁apropiado	-12.0035
▁Méri	-12.0037
▁alfa	-12.0038
▁decisão	-12.0039
▁ofrecía	-12.0041
vari	-12.0042
▁Toro	-12.0042
▁recae	-12.0043
▁sagrada	-12.0043
▁Muñ	-12.0044
▁vibración	-12.0044
entrando	-12.0045
▁extr	-12.0045
▁fans	-12.0047
▁mai	-12.0048
▁Mour	-12.0051
vend	-12.0056
▁audición	-12.0057
▁rapariga	-12.0058
▁asocia	-12.0058
▁detecta	-12.006
llada	-12.006
▁favorecer	-12.006
▁Brai	-12.0065
▁certame	-12.0067
▁reto	-12.0069
innat	-12.0073
▁Alb	-12.0073
▁vivemos	-12.0075
▁Coca	-12.0081
▁Barb	-12.0087
▁quilos	-12.0088
▁excelentes	-12.0089
▁elaborou	-12.0091
longa	-12.0093
▁curar	-12.0094
rbona	-12.0098
ead	-12.0099
▁Soci	-12.0099
raña	-12.01
▁pato	-12.0108
▁responden	-12.0109
▁convenciona	-12.011
▁combatente	-12.0112
▁Sco	-12.0117
▁Merc	-12.012
▁bote	-12.0122
▁mergull	-12.0124
▁preven	-12.0128
▁Pot	-12.0128
▁dimens	-12.013
xio	-12.0131
ategoría	-12.0131
▁bactéria	-12.0132
▁campus	-12.0132
▁combustíbe	-12.0132
▁comprendía	-12.0132
▁semicircular	-12.0132
▁charla	-12.0132
▁mosaico	-12.0132
▁bordea	-12.0132
▁convocatoria	-12.0132
▁Girl	-12.0132
▁súpe	-12.0132
▁fractura	-12.0133
▁mosquitos	-12.0134
itanic	-12.0134
▁mantida	-12.0134
▁faino	-12.0135
▁imaxinario	-12.0135
▁Emma	-12.0135
▁comandada	-12.0136
hazi	-12.0136
▁Nazi	-12.0138
guiar	-12.0139
▁mastro	-12.0142
▁host	-12.0142
arve	-12.0142
▁pausa	-12.0143
▁ascendido	-12.0143
▁xusta	-12.0146
▁cronolox	-12.0148
▁avaliación	-12.0148
▁disparar	-12.0148
▁parecem	-12.0148
▁consisten	-12.0152
▁derivan	-12.0152
▁Mora	-12.0152
▁fresca	-12.0154
▁Ner	-12.0155
abilidade	-12.0156
errer	-12.0158
▁Claud	-12.0159
ular	-12.016
▁Ordo	-12.0162
▁criatura	-12.0168
▁eleva	-12.0169
▁cabid	-12.017
▁ignor	-12.0172
▁cop	-12.0175
▁Fall	-12.0175
▁Curi	-12.0177
▁garanti	-12.0178
ciente	-12.0182
▁entraba	-12.0185
monte	-12.0185
▁Dam	-12.0185
omen	-12.0186
dC	-12.0196
▁equivalentes	-12.0198
▁dinamarqu	-12.0199
▁poderiam	-12.02
timo	-12.0201
▁queimar	-12.0212
▁sentar	-12.0213
▁emisor	-12.0213
▁elíptica	-12.0215
▁recebe	-12.0215
▁Monterre	-12.0216
pei	-12.0217
▁tut	-12.0217
▁lim	-12.0217
▁Meir	-12.0218
alia	-12.0218
▁resalta	-12.0219
bane	-12.022
▁ventr	-12.0221
▁Dei	-12.0225
▁Dante	-12.0225
alle	-12.0229
sagrada	-12.023
nodo	-12.0233
▁Matemática	-12.0235
▁asturiana	-12.0235
▁cúbico	-12.0235
▁discrepancia	-12.0235
▁genoma	-12.0235
▁neutrino	-12.0235
▁sistemático	-12.0235
▁trasladá	-12.0235
▁decorada	-12.0235
▁rigorosa	-12.0235
▁Monumento	-12.0235
▁estimou	-12.0235
rtiza	-12.0235
▁Corint	-12.0236
▁Descart	-12.0236
▁fogueira	-12.0236
▁armadura	-12.0237
▁mera	-12.0237
▁engloba	-12.0237
▁especifica	-12.0238
▁Gome	-12.0239
▁Verd	-12.0239
▁multinaciona	-12.0239
▁mobilización	-12.0239
▁pesa	-12.024
▁cristalina	-12.0241
▁emerxencia	-12.0241
▁rata	-12.0244
▁resumo	-12.0245
▁nula	-12.0245
▁Mada	-12.0246
▁xurdido	-12.0247
▁Conrad	-12.0249
▁crema	-12.0251
▁captar	-12.0253
▁primate	-12.0256
▁designada	-12.0259
▁Planta	-12.026
▁xenérico	-12.0261
▁ganha	-12.0266
▁debilidade	-12.0268
▁Anne	-12.0271
▁rematan	-12.0274
raba	-12.0283
▁funcionaba	-12.0284
▁franca	-12.0284
▁definidos	-12.0286
▁Nav	-12.0287
éria	-12.0287
ianz	-12.0289
cultura	-12.0294
▁retornar	-12.0294
▁Cart	-12.0294
▁ramo	-12.0295
▁Terr	-12.0299
▁informal	-12.03
feito	-12.0302
▁fossem	-12.0303
▁Porqu	-12.0303
▁portador	-12.0305
▁telefone	-12.0307
▁axudado	-12.031
▁saía	-12.0311
▁avaliar	-12.0316
▁poste	-12.0317
▁milhão	-12.0317
teís	-12.0319
▁executados	-12.0322
▁AC	-12.0323
▁cede	-12.0323
▁Carballi	-12.0323
▁Cañ	-12.0325
matic	-12.0334
▁escap	-12.0334
▁linde	-12.0338
embrand	-12.0339
prusiana	-12.0339
▁ambicioso	-12.0339
▁apéndice	-12.0339
▁defendida	-12.0339
▁fronteiriza	-12.0339
▁ilegais	-12.0339
▁metodoloxía	-12.0339
▁portátil	-12.0339
▁prusiano	-12.0339
▁ríxida	-12.0339
▁cornixa	-12.0339
▁publíca	-12.0339
▁consolidou	-12.0339
▁globais	-12.0339
▁estatístico	-12.034
▁pulso	-12.034
▁taxonom	-12.034
▁Guarda	-12.034
▁banana	-12.034
▁terreno	-12.034
▁recompilación	-12.034
▁repite	-12.034
▁biologia	-12.034
▁decorativo	-12.034
▁poliniza	-12.034
▁morren	-12.0341
▁deficiencia	-12.0341
GC	-12.0341
▁mantido	-12.0342
▁Morto	-12.0342
▁mouro	-12.0342
▁mudá	-12.0343
▁fertilizante	-12.0344
neses	-12.0345
▁colonizado	-12.0346
▁furón	-12.0348
▁Magda	-12.0349
▁propor	-12.0352
▁burguesa	-12.0352
▁concibido	-12.0353
▁Creou	-12.0355
▁mutua	-12.0358
▁homo	-12.0365
▁pensava	-12.0366
▁iría	-12.0369
▁fich	-12.037
▁reclamación	-12.0371
▁influ	-12.0375
cado	-12.0375
dín	-12.0377
▁construí	-12.0378
▁Dé	-12.0378
▁detri	-12.0379
gne	-12.038
otel	-12.0381
▁aumentan	-12.0381
▁acababa	-12.0389
▁Amigo	-12.0391
▁Tá	-12.0394
▁Alemá	-12.0395
▁Novos	-12.0395
ssex	-12.0396
▁calzada	-12.0398
perfección	-12.0398
udiencia	-12.0399
onra	-12.0402
▁Arqu	-12.0403
▁perla	-12.0403
bain	-12.0406
▁elevar	-12.0408
▁conformad	-12.0408
▁rexistrar	-12.0409
palo	-12.0412
▁positivos	-12.0414
rain	-12.0414
▁fil	-12.0414
▁establecen	-12.0416
▁inmun	-12.0418
▁trás	-12.0421
▁Mariana	-12.0425
▁nervios	-12.0426
▁medran	-12.0439
red	-12.0442
▁babilonio	-12.0445
▁chileno	-12.0445
▁controvertida	-12.0445
▁hurrita	-12.0445
▁ideolóxico	-12.0445
▁lévedo	-12.0445
▁manipulación	-12.0445
▁xoguete	-12.0445
▁mixta	-12.0445
▁cualidade	-12.0445
▁dispoñíbe	-12.0445
▁córtex	-12.0445
▁amósa	-12.0445
▁flanco	-12.0445
▁xeógrafo	-12.0445
▁Spring	-12.0445
▁saxón	-12.0445
▁baleira	-12.0445
▁simpatía	-12.0445
urbio	-12.0445
▁Pipin	-12.0445
▁dispostas	-12.0445
▁fusilado	-12.0446
▁confiar	-12.0446
▁matanza	-12.0446
▁fomenta	-12.0446
▁persiste	-12.0446
▁deixado	-12.0446
▁radicalmente	-12.0447
eimar	-12.0447
cinco	-12.0448
▁Escritor	-12.0448
▁chão	-12.0448
▁catedra	-12.0448
▁adicado	-12.0448
▁Cleve	-12.0448
▁ganancia	-12.0448
▁Familia	-12.0449
▁reflectida	-12.045
▁Theodor	-12.0451
▁Ilustra	-12.0451
zaret	-12.0451
▁lucense	-12.0451
▁ordenamento	-12.0452
▁supervivente	-12.0457
▁misteriosa	-12.0459
ingham	-12.046
▁Villen	-12.0462
correr	-12.0463
▁caldeira	-12.0464
angio	-12.0465
▁xeorxiano	-12.0466
▁Mart	-12.0466
▁Aní	-12.0466
eciano	-12.0467
▁xeran	-12.0468
ouver	-12.0468
▁admiti	-12.0469
▁adquirida	-12.0476
▁irmã	-12.0479
evi	-12.048
▁Eix	-12.048
▁ingresar	-12.0485
▁Gol	-12.0489
▁paulatina	-12.049
▁recollen	-12.049
▁Cade	-12.0491
▁contida	-12.0493
▁portuaria	-12.0494
▁bocado	-12.0494
▁gañada	-12.0499
▁transcenden	-12.0502
▁Xi	-12.0502
▁acadan	-12.0503
▁persegui	-12.0504
▁alban	-12.0505
▁fur	-12.0507
range	-12.0507
▁funcionam	-12.0508
▁dixer	-12.051
▁incluíron	-12.0513
▁Bad	-12.0517
▁acredita	-12.0519
ulli	-12.0523
omme	-12.0527
▁universa	-12.0528
mentou	-12.0529
▁factoría	-12.0532
goña	-12.0534
▁consisti	-12.0536
▁tornam	-12.0542
▁chegue	-12.0546
▁patentes	-12.0548
▁cromat	-12.0551
▁prolifera	-12.0551
▁Caballero	-12.0551
▁Continent	-12.0551
▁Descobri	-12.0551
▁Número	-12.0551
▁Transporte	-12.0551
▁alzhéimer	-12.0551
▁anexionad	-12.0551
▁billete	-12.0551
▁castaño	-12.0551
▁cheminea	-12.0551
▁clasificou	-12.0551
▁confrontación	-12.0551
▁dialéctic	-12.0551
▁incompleta	-12.0551
▁incrible	-12.0551
▁inútil	-12.0551
▁pictórica	-12.0551
▁videoclip	-12.0551
▁Sucedeu	-12.0551
▁estrofa	-12.0551
▁indicou	-12.0551
▁pechou	-12.0551
▁rigoroso	-12.0551
▁ansiedade	-12.0551
▁cartucho	-12.0551
▁envellece	-12.0551
▁automaticamente	-12.0551
▁garante	-12.0551
▁sulfato	-12.0551
▁innovador	-12.0552
▁heroína	-12.0552
epler	-12.0552
▁renovable	-12.0552
▁diríxe	-12.0552
▁Grove	-12.0553
▁saiba	-12.0553
▁gelo	-12.0553
▁Frente	-12.0553
sonte	-12.0554
▁refén	-12.0554
▁xema	-12.0555
▁Bot	-12.0555
▁favorita	-12.0555
▁valid	-12.0555
▁unanim	-12.0555
▁circo	-12.0556
lorado	-12.0557
▁malaio	-12.0558
▁convocado	-12.0559
▁metafísic	-12.056
▁artesana	-12.0561
▁refería	-12.0562
▁conduzir	-12.0563
▁aclamado	-12.0564
▁atlet	-12.0564
▁admitido	-12.0565
▁morcegos	-12.0566
inson	-12.0569
▁Led	-12.0571
▁empat	-12.0573
▁salgada	-12.0577
▁poli	-12.0578
▁exig	-12.0582
▁resolveu	-12.0584
▁vestir	-12.0585
▁alimentan	-12.0585
frontar	-12.0586
▁Too	-12.0586
▁posibilita	-12.0587
▁sacou	-12.0589
▁Constanci	-12.059
▁ostra	-12.0595
▁xenio	-12.0595
▁ato	-12.0597
▁mago	-12.0597
grán	-12.0603
▁sendeir	-12.0605
IC	-12.0605
▁animados	-12.0606
▁oficios	-12.0608
▁dispoñib	-12.0616
gricultura	-12.0622
▁Seis	-12.0627
▁pega	-12.063
▁Disp	-12.063
▁Frei	-12.0631
▁neuro	-12.0631
▁grá	-12.0636
▁gramatica	-12.0638
▁tomo	-12.064
▁agua	-12.064
▁etern	-12.0642
▁Pois	-12.0642
▁circunfer	-12.0644
mediatamente	-12.0644
▁Acta	-12.0645
▁eminente	-12.0647
dí	-12.0648
▁Bus	-12.0651
azán	-12.0657
lección	-12.0657
▁intelig	-12.0658
eppe	-12.0658
narquía	-12.0659
▁Contemporáne	-12.0659
▁Lombard	-12.0659
▁Técnica	-12.0659
▁artefacto	-12.0659
▁expandiu	-12.0659
▁gaivota	-12.0659
▁gigante	-12.0659
▁hidrocarburo	-12.0659
▁hinduís	-12.0659
▁impossível	-12.0659
▁indirecto	-12.0659
▁mercancía	-12.0659
▁nucleótido	-12.0659
▁profecía	-12.0659
▁promovido	-12.0659
▁propriedade	-12.0659
▁secuela	-12.0659
▁Democracia	-12.0659
▁Estatística	-12.0659
▁licenciou	-12.0659
▁organíza	-12.0659
▁Elizabe	-12.0659
▁Róm	-12.0659
▁aldeia	-12.0659
▁volvía	-12.0659
▁impresa	-12.0659
▁montanha	-12.0659
obedien	-12.0659
▁caloroso	-12.0659
▁secuestrado	-12.0659
▁honest	-12.0659
▁timbre	-12.0659
▁permanecía	-12.0659
▁ozono	-12.066
▁acima	-12.066
▁encontrei	-12.066
▁dixestivo	-12.0661
▁pól	-12.0661
▁insuficiente	-12.0662
ierr	-12.0664
▁Fight	-12.0665
▁Faz	-12.0666
▁expux	-12.0666
▁creativo	-12.0666
▁recorrente	-12.0667
▁teor	-12.0667
▁Four	-12.0667
▁sap	-12.0668
▁policial	-12.0672
▁dó	-12.0673
▁finito	-12.0676
▁encabez	-12.0677
▁paro	-12.0679
AA	-12.0679
▁brigada	-12.068
▁Cambi	-12.0682
▁repartida	-12.0684
▁hidr	-12.0684
▁Mino	-12.0685
▁sufría	-12.0686
▁tirado	-12.0688
▁compet	-12.0689
incidencia	-12.0689
▁filamentos	-12.069
▁constituíron	-12.0692
▁vacinas	-12.07
▁America	-12.0701
▁apreciado	-12.0701
ius	-12.0702
▁Sina	-12.0711
▁mostrando	-12.0714
▁Nord	-12.0714
▁Reco	-12.0716
▁Principal	-12.0718
exa	-12.0719
▁adquirido	-12.0721
ound	-12.0721
▁chora	-12.0729
▁fragmento	-12.073
▁Xust	-12.0732
lanos	-12.0738
▁condutores	-12.0738
upe	-12.0738
▁260	-12.0738
▁Fene	-12.0739
▁cómico	-12.0741
▁sil	-12.0743
▁limitar	-12.0744
céde	-12.0745
pato	-12.0746
▁aspira	-12.0747
▁homosexua	-12.0748
▁arrastra	-12.0749
400	-12.0749
▁Oca	-12.0751
meiro	-12.0752
▁gene	-12.0753
▁recada	-12.0757
▁Thor	-12.0757
▁dividen	-12.076
▁Pequena	-12.0761
▁causan	-12.0765
▁Salón	-12.0767
▁aparelho	-12.0767
▁automática	-12.0767
▁burocracia	-12.0767
▁décima	-12.0767
▁fricción	-12.0767
▁inscrito	-12.0767
▁macedonio	-12.0767
▁pantalón	-12.0767
▁rechamante	-12.0767
▁connosco	-12.0767
▁xeométrico	-12.0768
▁refrac	-12.0768
▁registo	-12.0768
▁campanha	-12.0768
▁estré	-12.0768
▁besta	-12.077
▁Broad	-12.077
entemente	-12.077
▁mecena	-12.0771
▁xanela	-12.0772
▁incluindo	-12.0772
baixá	-12.0773
▁apuntan	-12.0775
▁comandado	-12.0775
▁Cabeza	-12.0777
▁dúvida	-12.0777
▁cualificado	-12.078
seguida	-12.0784
▁recolec	-12.0785
▁especificación	-12.0786
nqueiro	-12.0787
▁neolítico	-12.0788
▁Vale	-12.0789
▁mentalidade	-12.0791
▁cirurgia	-12.0793
ards	-12.0796
▁arrest	-12.0797
▁Nem	-12.0801
▁lisa	-12.0805
▁clor	-12.081
OS	-12.0812
▁olharem	-12.0814
▁Mann	-12.0815
▁exclusi	-12.0815
▁indivíduos	-12.0816
▁Cuart	-12.0817
▁abelhas	-12.0824
▁Fid	-12.0825
▁revelación	-12.0825
▁Sem	-12.0828
▁Mr	-12.0829
▁celebran	-12.083
q	-12.0831
▁Blanc	-12.0832
▁efectuar	-12.0836
▁acompañar	-12.0839
▁impulsar	-12.0842
▁preocupar	-12.0842
clamación	-12.0843
▁dirixi	-12.0853
uru	-12.0856
▁descansa	-12.0861
hard	-12.0861
eres	-12.0863
▁roto	-12.0864
▁arrefria	-12.0865
▁cai	-12.0867
▁comprenden	-12.0867
▁Ph	-12.0869
▁hoube	-12.0869
▁opini	-12.0869
▁Isid	-12.0873
▁traxecto	-12.0876
asílica	-12.0877
▁Princes	-12.0877
▁Rhode	-12.0877
▁aborto	-12.0877
▁canguro	-12.0877
▁carbohidrato	-12.0877
▁cuadrangular	-12.0877
▁cápsula	-12.0877
▁naufraxio	-12.0877
▁persoeiro	-12.0877
▁plástica	-12.0877
▁transfórma	-12.0877
ásico	-12.0877
▁maorí	-12.0877
▁retomou	-12.0877
▁Relación	-12.0877
▁Gandhi	-12.0877
▁sintética	-12.0877
▁érgue	-12.0878
▁Manzan	-12.0878
▁Bolív	-12.0878
▁amigable	-12.0878
▁freo	-12.0878
▁corsario	-12.0878
▁retroces	-12.0878
trópo	-12.0878
▁cubría	-12.0878
▁goma	-12.0878
▁Metro	-12.088
▁suxerir	-12.0881
▁Regres	-12.0882
▁impulsado	-12.0884
▁esixe	-12.0885
▁coida	-12.0885
▁querido	-12.0886
▁acusada	-12.0887
▁Baden	-12.0888
▁sobreviven	-12.0888
▁disolver	-12.0889
▁Segue	-12.089
minente	-12.089
▁africanas	-12.0891
▁Corp	-12.0893
erald	-12.0894
▁cometido	-12.0895
▁Punt	-12.0896
▁balada	-12.0898
▁prever	-12.0899
▁Podería	-12.0899
▁prestar	-12.0903
▁libertar	-12.0904
▁competitivo	-12.0904
▁Indiana	-12.0905
bec	-12.0905
▁reclamar	-12.0908
▁agresivo	-12.0908
▁nacente	-12.0911
▁sinalan	-12.0912
▁enlaza	-12.0913
ntica	-12.0913
▁cubano	-12.0914
▁semántic	-12.0917
EA	-12.0919
hec	-12.0921
sella	-12.0924
▁anula	-12.0924
compoñer	-12.0926
▁medido	-12.0927
▁agresiva	-12.093
▁leon	-12.0935
liño	-12.0935
▁acaban	-12.0936
ágar	-12.0936
▁Amade	-12.0937
▁pica	-12.0937
AM	-12.0938
nunciou	-12.094
▁Mata	-12.0942
▁Medici	-12.0946
▁selecciona	-12.0947
▁Susan	-12.0947
▁Lad	-12.0952
industrializados	-12.0952
▁Commo	-12.0955
osef	-12.0956
▁estabeleceu	-12.0957
▁sobriñ	-12.096
▁gui	-12.0964
media	-12.0964
▁elementa	-12.0969
▁sobreviver	-12.0969
▁obrigación	-12.0973
forzou	-12.0973
▁azar	-12.0978
▁condiciona	-12.0979
▁Mato	-12.098
▁equipamentos	-12.0981
▁Xuv	-12.0982
▁ateo	-12.0985
▁pneumon	-12.0988
▁Acontece	-12.0988
▁Utilíza	-12.0988
▁alimenticio	-12.0988
▁atmosférico	-12.0988
▁bioquímica	-12.0988
▁cerebrais	-12.0988
▁comprometido	-12.0988
▁edulcorante	-12.0988
▁enferma	-12.0988
▁genética	-12.0988
[...]
