<unk>	0
<s>	0
</s>	0
<pad>	0
▁,	-3.07925
s	-3.12799
▁.	-3.26562
▁a	-3.60345
▁de	-3.68303
▁que	-3.7029
▁o	-4.09192
▁e	-4.11059
;	-4.14334
▁&	-4.17467
quot	-4.193
▁é	-4.63157
▁	-4.79001
▁para	-4.88359
-	-4.88396
▁um	-4.93282
▁uma	-5.01338
▁do	-5.06868
▁E	-5.07104
r	-5.10733
▁da	-5.17463
▁em	-5.254
▁não	-5.26997
o	-5.27315
▁os	-5.31575
▁com	-5.35408
▁se	-5.36615
mos	-5.37375
m	-5.41254
▁A	-5.4931
a	-5.50965
▁no	-5.51264
▁como	-5.56559
▁na	-5.57109
▁as	-5.62355
▁mais	-5.68566
▁?	-5.68679
▁:	-5.6871
▁por	-5.70161
u	-5.79258
se	-5.79993
n	-5.83298
▁O	-5.86001
mente	-6.03695
▁muito	-6.03767
do	-6.0787
ando	-6.08714
▁ao	-6.09809
l	-6.10498
▁eu	-6.11742
ção	-6.13593
▁)	-6.15715
(	-6.1591
▁ser	-6.18118
▁ou	-6.18568
▁Mas	-6.24102
▁pessoas	-6.24592
▁à	-6.24717
me	-6.25311
▁isso	-6.29121
ão	-6.3042
▁são	-6.31446
▁mas	-6.31524
▁dos	-6.33006
▁—	-6.34106
▁está	-6.35212
▁nos	-6.35479
▁fazer	-6.4066
▁Por	-6.42133
da	-6.42321
▁qu	-6.452
▁isto	-6.46314
▁anos	-6.482
▁esta	-6.49349
es	-6.50085
▁porque	-6.52232
i	-6.52521
▁en	-6.52792
▁sobre	-6.53294
▁É	-6.53613
▁meu	-6.54122
▁un	-6.54773
▁ver	-6.59984
▁foi	-6.60306
em	-6.60383
is	-6.61528
▁era	-6.6178
▁das	-6.62684
▁mundo	-6.63052
▁seu	-6.66413
ndo	-6.67563
▁este	-6.70561
▁há	-6.72556
e	-6.72603
nde	-6.7551
▁ter	-6.75579
▁nós	-6.76481
▁me	-6.77303
▁Não	-6.78985
▁todos	-6.79007
lo	-6.79639
▁sua	-6.7997
▁minha	-6.81017
▁forma	-6.81277
la	-6.83829
▁Se	-6.84123
▁mesmo	-6.85081
nos	-6.85088
▁nossa	-6.85181
▁nosso	-6.86056
am	-6.87938
▁temos	-6.89548
▁Eu	-6.89832
t	-6.92471
▁vida	-6.92606
▁pode	-6.92638
▁ele	-6.94317
▁tempo	-6.94476
▁toda	-6.94642
▁estão	-6.9566
os	-6.96441
ar	-6.96897
▁também	-6.9814
ia	-6.98849
ntão	-7.00072
▁tem	-7.00478
▁coisas	-7.01572
á	-7.02315
d	-7.02482
va	-7.03121
▁unha	-7.03379
▁vez	-7.0408
▁non	-7.05192
dos	-7.05294
te	-7.06002
c	-7.06077
ções	-7.06455
ra	-7.06458
▁podemos	-7.08252
▁aqui	-7.10787
▁Riso	-7.11108
to	-7.13304
ram	-7.14295
▁eles	-7.14513
que	-7.14879
p	-7.15353
▁só	-7.15467
▁apenas	-7.16585
▁coisa	-7.17691
▁parte	-7.20427
ta	-7.21052
▁têm	-7.22113
▁podem	-7.22468
▁num	-7.2446
▁todo	-7.25447
▁agora	-7.25579
▁algo	-7.26587
▁Aplausos	-7.2666
▁Com	-7.26892
▁tipo	-7.27497
▁depois	-7.27857
▁T	-7.2836
▁até	-7.28638
▁dizer	-7.28695
▁re	-7.29064
▁con	-7.29637
tão	-7.30113
.	-7.30281
▁Esta	-7.3111
▁pelo	-7.33402
▁disse	-7.33654
▁estava	-7.33815
▁Qu	-7.35082
▁numa	-7.35225
▁S	-7.35532
mo	-7.3569
▁cada	-7.36566
▁tinha	-7.36617
ca	-7.36777
▁dia	-7.37603
das	-7.37618
idade	-7.38442
▁entre	-7.3882
▁tudo	-7.39567
í	-7.39772
▁De	-7.41129
▁Ist	-7.41154
de	-7.41465
▁pela	-7.41815
▁bem	-7.43292
ei	-7.44185
▁Ele	-7.44543
▁Os	-7.44628
▁falar	-7.44629
ti	-7.45167
▁grande	-7.4548
▁estamos	-7.45773
as	-7.46048
▁...	-7.46984
▁essa	-7.4855
en	-7.49699
▁pouco	-7.49761
▁vocês	-7.50605
▁in	-7.50776
vos	-7.51131
ou	-7.51509
ción	-7.53912
▁máis	-7.54054
▁alguma	-7.54249
▁assim	-7.5473
já	-7.54908
▁muita	-7.55613
f	-7.55797
ões	-7.5601
▁vai	-7.56439
▁Este	-7.5731
▁ir	-7.57382
g	-7.57394
▁verdade	-7.5771
tanto	-7.57741
▁trabalho	-7.57797
no	-7.57847
y	-7.57964
▁ainda	-7.58042
▁ela	-7.58229
nte	-7.58817
▁estas	-7.59714
b	-7.59773
▁pensar	-7.59938
▁esse	-7.60262
▁melhor	-7.60763
▁outra	-7.60777
▁nas	-7.61505
▁I	-7.62015
▁problema	-7.62231
▁maior	-7.62655
ce	-7.62988
▁sem	-7.63234
▁realmente	-7.63332
▁No	-7.63761
gora	-7.6378
▁Na	-7.64113
co	-7.64675
▁vezes	-7.64694
▁ano	-7.65051
▁outros	-7.65156
▁%	-7.66484
▁qualquer	-7.67714
mento	-7.69234
▁Há	-7.6932
▁♫	-7.69625
na	-7.69692
▁exemplo	-7.69807
▁sistema	-7.70052
▁importante	-7.71146
▁história	-7.71379
▁casa	-7.71467
▁sempre	-7.72247
▁C	-7.72273
▁estes	-7.73543
ci	-7.73569
▁outro	-7.73681
▁ideia	-7.73958
▁menos	-7.73984
▁vi	-7.7424
res	-7.74735
▁As	-7.74885
▁milhões	-7.75492
▁hoje	-7.75614
▁durante	-7.7635
▁co	-7.7671
▁poder	-7.782
▁dois	-7.7846
▁estar	-7.78537
▁lá	-7.786
er	-7.79095
▁nunca	-7.79577
li	-7.79768
▁facto	-7.79818
▁lado	-7.80169
h	-7.81472
▁primeira	-7.83742
ga	-7.84844
▁mim	-7.85128
▁usar	-7.85299
ma	-7.85352
di	-7.85631
▁son	-7.8573
▁neste	-7.86066
ámos	-7.86989
▁deste	-7.87492
▁outras	-7.88231
▁primeiro	-7.88966
▁momento	-7.8897
▁então	-7.89045
▁três	-7.89061
ria	-7.89464
▁Em	-7.89931
▁volta	-7.90214
▁alguns	-7.90456
quanto	-7.91747
re	-7.91792
▁antes	-7.935
an	-7.93717
▁ca	-7.93938
▁mesma	-7.94035
▁criar	-7.95464
▁nada	-7.95641
▁estou	-7.95813
▁vou	-7.96124
▁!	-7.96232
rem	-7.96238
1	-7.97426
▁si	-7.979
▁dua	-7.98185
▁diferentes	-7.98481
ro	-7.98871
▁seja	-7.98875
é	-7.99644
▁pessoa	-7.99741
los	-8.00036
go	-8.00392
▁existe	-8.00451
▁dar	-8.01267
▁tenho	-8.01283
ntes	-8.01308
▁feito	-8.01501
al	-8.01507
▁tentar	-8.02145
ada	-8.02465
▁cérebro	-8.03637
le	-8.03674
▁Bem	-8.03829
▁á	-8.04303
▁mulheres	-8.04683
▁vos	-8.04841
▁talvez	-8.05089
ía	-8.05644
lhe	-8.06145
ri	-8.06493
▁contra	-8.06522
▁mil	-8.06724
ve	-8.0709
▁Para	-8.07204
▁faz	-8.07246
▁resposta	-8.07725
ado	-8.08425
vi	-8.08454
▁lugar	-8.08574
▁novo	-8.08599
dor	-8.08648
▁tecnologia	-8.08943
▁cerca	-8.09236
▁Um	-8.09431
▁significa	-8.09623
▁crianças	-8.09816
▁nova	-8.09906
ba	-8.09934
▁quero	-8.10015
pe	-8.10333
sso	-8.10615
ter	-8.11471
emos	-8.11477
travé	-8.11594
▁10	-8.11679
▁P	-8.11688
ó	-8.12186
▁pequena	-8.12681
▁país	-8.13409
▁J	-8.1382
▁espaço	-8.1392
pa	-8.14099
▁realidade	-8.1414
vam	-8.14796
dores	-8.15065
ne	-8.15614
▁alguém	-8.16057
on	-8.16233
▁diferente	-8.16805
▁dados	-8.16866
▁Uma	-8.17462
▁água	-8.17718
▁encontrar	-8.18085
▁vamo	-8.18128
▁Temos	-8.18204
000	-8.18217
▁vão	-8.18641
apos	-8.18696
▁nesta	-8.18831
bo	-8.19272
▁qual	-8.19331
▁B	-8.19471
las	-8.19608
▁desta	-8.19717
▁Foi	-8.19796
z	-8.19901
▁acontece	-8.20041
▁-	-8.20159
▁nem	-8.20285
nda	-8.20685
▁trabalhar	-8.21415
▁futuro	-8.2147
▁informação	-8.22465
▁escola	-8.23077
▁Nó	-8.23805
rá	-8.24024
▁pre	-8.24064
▁po	-8.24633
▁di	-8.24697
▁mudar	-8.24847
▁dentro	-8.2496
▁Pero	-8.25672
▁difícil	-8.25774
▁vosso	-8.26651
▁causa	-8.26985
▁olhar	-8.27127
▁altura	-8.27182
▁for	-8.27185
▁começar	-8.27305
▁disso	-8.27415
▁eram	-8.27515
▁sei	-8.28312
▁número	-8.28539
▁quase	-8.28823
▁20	-8.28848
▁foram	-8.28938
▁países	-8.29204
fi	-8.29689
▁hai	-8.29892
▁dias	-8.29896
▁aí	-8.29992
▁último	-8.30267
▁ten	-8.30325
▁precisamos	-8.30605
▁energia	-8.30686
▁cor	-8.3076
tos	-8.3131
▁saber	-8.31568
▁moi	-8.31747
▁claro	-8.32232
▁somos	-8.32285
▁sido	-8.32296
▁tive	-8.32566
tar	-8.32582
▁sabemos	-8.33203
▁elas	-8.33552
▁Que	-8.33575
▁cando	-8.33644
▁conta	-8.33664
▁dinheiro	-8.33668
▁desde	-8.33944
▁quanto	-8.3407
▁En	-8.35014
▁mostrar	-8.35443
▁parece	-8.35454
▁modo	-8.35597
▁palavras	-8.35635
v	-8.35762
▁diz	-8.3602
▁bastante	-8.36082
▁maneira	-8.36127
▁facer	-8.36275
▁xente	-8.3631
▁acontecer	-8.3636
▁simples	-8.36419
▁sou	-8.36671
▁seria	-8.37012
sí	-8.37212
▁penso	-8.37972
▁tanto	-8.37975
▁fora	-8.38593
▁corpo	-8.38603
▁tal	-8.38804
▁su	-8.39215
in	-8.39451
▁súa	-8.39737
▁problemas	-8.39762
▁ficar	-8.39764
x	-8.39823
ça	-8.40419
▁Re	-8.40483
▁cidade	-8.40669
▁luz	-8.40687
▁meio	-8.41197
▁saúde	-8.41537
ron	-8.41595
▁Ca	-8.418
▁te	-8.42077
▁longo	-8.42241
▁dólares	-8.42257
▁sala	-8.42281
▁bom	-8.42424
des	-8.42731
▁ponto	-8.42842
▁Aqui	-8.42936
▁real	-8.43102
▁vemos	-8.43538
ê	-8.43589
▁fazem	-8.43745
▁Ela	-8.43869
▁estavam	-8.43991
▁lhe	-8.44418
▁experiência	-8.44583
▁Todo	-8.44657
▁le	-8.44711
▁pequeno	-8.44837
▁mãe	-8.44867
▁Depois	-8.45375
k	-8.45778
▁aprender	-8.45871
xe	-8.46265
ir	-8.46352
▁funciona	-8.46983
ver	-8.47129
▁humanos	-8.47464
ú	-8.47495
▁♪	-8.47563
▁certo	-8.47637
▁humano	-8.47662
▁caso	-8.47714
▁tinham	-8.48109
▁deles	-8.48121
▁man	-8.48357
▁questão	-8.48416
▁quem	-8.48728
▁ma	-8.48745
▁ali	-8.48778
▁pergunta	-8.4897
▁pero	-8.49084
▁possível	-8.49571
0	-8.49597
▁pai	-8.4977
▁passado	-8.49868
▁pa	-8.50284
bi	-8.5055
▁&#9	-8.50589
cia	-8.50654
▁mal	-8.50971
▁Vou	-8.51216
▁Non	-8.5129
▁li	-8.51554
▁razão	-8.51619
▁per	-8.51814
ados	-8.51907
▁tornar	-8.51925
▁Obrigado	-8.51926
pi	-8.52118
▁meses	-8.52255
▁células	-8.52275
▁única	-8.52398
▁Muito	-8.52403
ço	-8.52409
▁fim	-8.52416
▁aquela	-8.52433
▁ajudar	-8.52483
▁grupo	-8.52745
2	-8.52816
▁vossa	-8.53015
▁3	-8.53338
tra	-8.53361
▁havia	-8.5345
▁processo	-8.53711
bra	-8.53819
▁chegar	-8.54235
▁baixo	-8.54241
▁mar	-8.54423
or	-8.54464
po	-8.54631
▁gente	-8.54796
▁&#93;	-8.55041
us	-8.55233
▁segundo	-8.5548
lu	-8.55605
ais	-8.55617
ida	-8.55732
▁família	-8.56058
xi	-8.5625
tiva	-8.57032
tro	-8.57061
▁Vamo	-8.57262
▁será	-8.58016
▁chamado	-8.58283
▁nome	-8.58705
S	-8.59254
vamos	-8.59371
▁grandes	-8.59396
▁cinco	-8.59419
io	-8.59599
amos	-8.59684
▁comunidade	-8.59806
▁sentido	-8.5992
▁noite	-8.60099
▁imagem	-8.60263
▁sabem	-8.60536
▁nível	-8.60545
▁fez	-8.60571
▁perceber	-8.60605
be	-8.60606
▁medo	-8.60653
▁Está	-8.608
▁acho	-8.61045
▁iso	-8.61167
▁base	-8.6122
tivo	-8.61402
▁homem	-8.61507
▁construir	-8.61528
▁boa	-8.61642
▁social	-8.61684
▁sociedade	-8.6188
▁quatro	-8.61969
gi	-8.6205
ni	-8.62236
▁Podemo	-8.62619
▁interessante	-8.62789
▁maioria	-8.62799
C	-8.63181
▁aquilo	-8.63372
▁dessa	-8.63459
▁ciência	-8.63515
▁viver	-8.63657
▁capacidade	-8.63998
▁leva	-8.64256
▁F	-8.64408
▁local	-8.64474
ência	-8.64496
ón	-8.64599
▁amigos	-8.64772
▁homens	-8.64883
ssem	-8.65488
ecei	-8.6559
▁teñ	-8.65713
▁normal	-8.66019
▁Era	-8.66046
▁pro	-8.66173
▁partir	-8.66178
vo	-8.66893
▁D	-8.66951
▁Terra	-8.67306
▁H	-8.67574
▁guerra	-8.67575
▁estado	-8.67895
lle	-8.67937
▁Assi	-8.67992
▁especial	-8.6809
▁EUA	-8.68184
▁Pode	-8.68315
▁ambiente	-8.68493
▁chamada	-8.68786
▁contar	-8.68863
▁caminho	-8.68907
▁cultura	-8.69024
▁queremos	-8.69351
ho	-8.69361
▁global	-8.69407
▁2	-8.69426
▁África	-8.69722
▁Ou	-8.69987
▁moito	-8.70144
▁podia	-8.70599
▁horas	-8.70716
▁50	-8.70976
▁ben	-8.71261
▁M	-8.71482
ing	-8.71838
▁Quero	-8.71896
▁Internet	-8.71917
▁mulher	-8.72077
▁Podem	-8.72212
ng	-8.72229
▁sub	-8.72233
▁atrás	-8.72331
íamos	-8.72437
▁100	-8.72492
ul	-8.72702
ina	-8.72845
▁preciso	-8.72953
▁enorme	-8.72959
▁arte	-8.72983
▁morte	-8.73244
fa	-8.73277
▁30	-8.73444
▁novas	-8.73512
ssemos	-8.73543
▁fosse	-8.7383
▁frente	-8.73854
▁aconteceu	-8.74031
té	-8.74112
▁Vi	-8.74332
▁universo	-8.74811
cha	-8.74829
▁sabe	-8.75054
▁fazemos	-8.7536
▁empresas	-8.75403
▁ba	-8.75618
▁sen	-8.75783
▁K	-8.75857
za	-8.75904
ble	-8.75936
ste	-8.76099
▁música	-8.76124
▁deixar	-8.76295
▁f	-8.76318
▁planeta	-8.76712
▁século	-8.76788
▁miña	-8.76788
▁bo	-8.76794
▁própria	-8.77121
▁Sim	-8.77189
▁pais	-8.77198
▁mudança	-8.77417
▁fácil	-8.77457
▁precisa	-8.77487
▁passar	-8.7759
ita	-8.77796
mi	-8.77845
▁estrutura	-8.77857
amente	-8.77897
▁sim	-8.77905
▁Da	-8.77917
▁espécie	-8.78123
▁posso	-8.78181
▁alta	-8.7835
tas	-8.78547
E	-8.7884
▁empresa	-8.78869
4	-8.78957
▁tarde	-8.79146
▁suficiente	-8.79148
▁programa	-8.79576
ica	-8.79621
nta	-8.79747
▁campo	-8.79882
▁destas	-8.80161
qui	-8.8027
▁medida	-8.80338
▁cara	-8.80408
ação	-8.80577
it	-8.80661
▁conseguimos	-8.81062
▁ninguém	-8.81265
▁milhar	-8.81305
gu	-8.81496
▁humana	-8.817
▁Con	-8.8174
▁vê	-8.8177
▁animais	-8.81947
▁ajuda	-8.8232
▁levar	-8.82558
▁5	-8.82602
▁risco	-8.82613
▁filhos	-8.82768
▁Nova	-8.82903
il	-8.83138
▁sociais	-8.83319
▁voz	-8.83396
▁rede	-8.83402
▁tra	-8.8368
▁comida	-8.83965
ja	-8.8411
cer	-8.84229
▁livro	-8.84312
▁cancro	-8.84394
▁certa	-8.84423
▁so	-8.84469
▁Só	-8.84518
ista	-8.84623
car	-8.84645
▁queria	-8.84697
▁único	-8.8475
▁histórias	-8.85019
▁p	-8.85044
▁final	-8.85119
cio	-8.85306
▁torna	-8.8533
▁computador	-8.85339
▁economia	-8.85497
▁termos	-8.85577
▁provavelmente	-8.85844
▁projeto	-8.85891
▁passa	-8.86093
▁carro	-8.86231
▁simplesmente	-8.86234
lhes	-8.86281
ismo	-8.86423
▁imagens	-8.86571
▁política	-8.86583
▁cousas	-8.86639
▁seguir	-8.86678
▁trata	-8.86841
ambém	-8.86935
▁Você	-8.86936
ur	-8.8714
▁vídeo	-8.87339
▁seguinte	-8.87352
▁completamente	-8.87373
▁disto	-8.87466
▁próximo	-8.87676
▁modelo	-8.87742
▁imp	-8.87838
▁poderia	-8.87841
▁acerca	-8.88049
▁fui	-8.88053
▁algum	-8.88142
▁força	-8.8825
▁ó	-8.88391
ch	-8.88505
▁15	-8.88794
▁papel	-8.88797
ura	-8.88802
▁procura	-8.88869
▁Estado	-8.88915
▁desse	-8.89192
▁oportunidade	-8.89303
▁aquele	-8.89321
▁mão	-8.8936
▁4	-8.89528
▁sentir	-8.89654
▁dele	-8.89668
▁melhores	-8.89738
▁inter	-8.89774
▁ve	-8.90665
▁tamén	-8.9069
▁par	-8.90821
▁criança	-8.90915
▁quais	-8.90917
sas	-8.9112
adas	-8.91173
▁linha	-8.91476
▁Mo	-8.91543
▁coa	-8.91557
▁chega	-8.91563
▁i	-8.91788
▁fiz	-8.918
istas	-8.91876
▁começa	-8.91998
▁possa	-8.92134
▁Pa	-8.92246
▁vir	-8.92363
▁Risa	-8.92784
▁público	-8.92907
▁Ma	-8.92959
▁deixa	-8.93163
▁L	-8.9339
ante	-8.93518
▁V	-8.93613
▁doença	-8.9375
st	-8.93879
▁deve	-8.94228
▁ouvir	-8.9444
▁palavra	-8.94584
▁início	-8.94588
▁conjunto	-8.94987
▁governo	-8.94987
eira	-8.95013
gar	-8.95103
min	-8.95138
▁pensa	-8.95319
▁desenvolvimento	-8.954
▁fazê	-8.95439
▁escala	-8.95489
dora	-8.95771
▁nosa	-8.9588
▁mo	-8.95937
▁ex	-8.96201
▁valor	-8.96253
▁ti	-8.96641
▁querem	-8.97485
▁mostra	-8.97508
▁segunda	-8.97821
▁descobrir	-8.97937
▁última	-8.98232
alvez	-8.98236
▁Estou	-8.9828
par	-8.9829
▁polo	-8.98355
▁conseguir	-8.9859
▁soluç	-8.98606
5	-8.98823
▁están	-8.98914
▁dun	-8.99051
▁chama	-8.99102
▁TED	-8.99477
▁particular	-8.99478
tá	-8.99688
▁ADN	-8.99895
▁cento	-8.99911
▁cima	-8.99928
▁dá	-8.99929
▁voltar	-9.00051
▁ra	-9.00281
gem	-9.00781
▁ga	-9.00966
▁fe	-9.00979
▁área	-9.01018
iam	-9.0107
▁olhos	-9.01074
lar	-9.01114
▁espera	-9.01131
ban	-9.01158
▁pensei	-9.01179
sta	-9.0125
ito	-9.0127
▁ro	-9.0147
▁ideias	-9.01497
ge	-9.01552
▁conversa	-9.01568
▁locais	-9.01587
▁idade	-9.01596
▁começou	-9.01668
man	-9.01903
▁equipa	-9.0202
3	-9.0234
▁hora	-9.02363
A	-9.02379
▁semana	-9.0238
▁cabeça	-9.02443
▁matemática	-9.02443
▁tamanho	-9.02443
▁relação	-9.02445
▁além	-9.0245
▁sa	-9.025
▁c	-9.02535
xa	-9.02691
iz	-9.02726
▁conseguem	-9.02789
▁201	-9.02947
▁dizem	-9.03025
▁fi	-9.03077
▁ce	-9.03228
6	-9.03293
▁tínhamo	-9.03307
▁día	-9.03311
▁marca	-9.03524
▁Obrigad	-9.03662
ntón	-9.03772
nt	-9.0378
▁formas	-9.03968
teve	-9.04006
▁aqueles	-9.04012
▁tenta	-9.04085
▁estudo	-9.04166
▁Mai	-9.04172
8	-9.04178
▁movimento	-9.04179
▁vista	-9.04241
▁sabia	-9.04298
tri	-9.04329
▁Ho	-9.04439
▁próprio	-9.04627
pesar	-9.04671
▁Deus	-9.04786
▁historia	-9.0481
jo	-9.05022
▁terra	-9.05043
▁fizemos	-9.05093
▁manter	-9.05118
▁auto	-9.05219
▁mente	-9.05241
▁cria	-9.05248
▁minutos	-9.05262
▁Co	-9.05334
▁noso	-9.05458
el	-9.05496
M	-9.05509
▁super	-9.05572
▁recente	-9.05665
▁Ao	-9.05852
▁conhecimento	-9.05959
▁diferença	-9.06002
rei	-9.06315
et	-9.06362
▁Tenho	-9.06401
ente	-9.06435
tou	-9.06556
▁Ha	-9.06707
▁Ok	-9.06812
▁verdadeira	-9.06888
tal	-9.06922
▁cerebro	-9.0729
▁segurança	-9.07335
▁obrigado	-9.07354
▁totalmente	-9.07454
▁delas	-9.0756
▁Bo	-9.07977
▁lle	-9.08348
▁Po	-9.08413
▁cidades	-9.08608
▁impacto	-9.08654
▁dela	-9.08663
ck	-9.08735
▁maiores	-9.08871
ário	-9.0894
▁sob	-9.08954
▁carros	-9.09105
▁natureza	-9.09113
▁Penso	-9.09113
▁centro	-9.09119
che	-9.09205
▁estaba	-9.09215
▁Unidos	-9.09288
▁fica	-9.0943
▁colocar	-9.0956
▁jovens	-9.09573
▁visão	-9.09604
T	-9.09654
▁pi	-9.09672
▁200	-9.09745
ría	-9.09793
▁importa	-9.10042
D	-9.10098
▁pola	-9.10424
▁xa	-9.10582
▁semanas	-9.10594
▁compreender	-9.10613
▁Precisa	-9.10618
▁vidas	-9.10718
▁Ve	-9.10725
tei	-9.10873
▁pesquisa	-9.10969
dia	-9.11004
▁dicir	-9.11076
▁tenha	-9.11106
▁fundo	-9.11407
▁centena	-9.11438
▁So	-9.11454
▁Le	-9.1171
▁som	-9.11828
▁comigo	-9.11914
pre	-9.11915
▁população	-9.11972
▁In	-9.12114
▁ler	-9.12127
▁resultado	-9.12369
▁resolver	-9.12524
▁você	-9.12782
▁filme	-9.1286
▁coma	-9.12924
▁seis	-9.12993
▁pensamos	-9.13021
▁imaginar	-9.1308
▁passo	-9.13093
▁Europa	-9.13339
lá	-9.13358
▁resto	-9.13545
▁haver	-9.13572
▁Tem	-9.13625
▁CA	-9.1387
▁seguro	-9.14122
▁ferramentas	-9.14241
▁confiança	-9.14306
▁pequenos	-9.14362
▁porta	-9.14548
▁Sabe	-9.14611
▁sol	-9.14623
▁continuar	-9.14672
▁indústria	-9.14788
▁mercado	-9.15301
▁Toda	-9.1531
▁sistemas	-9.15402
▁Me	-9.15472
nas	-9.15528
▁min	-9.1556
nha	-9.15683
▁design	-9.15724
▁persoas	-9.15761
▁entrar	-9.15764
▁miúdo	-9.15766
▁sucesso	-9.15766
▁serem	-9.15801
▁situação	-9.15819
▁Ro	-9.15918
ín	-9.16125
ión	-9.16223
tivos	-9.16247
▁demasiado	-9.16258
▁atenção	-9.16264
I	-9.16278
velmente	-9.16352
▁estudantes	-9.16433
▁Estas	-9.16478
▁natural	-9.16512
▁longe	-9.16753
▁partilhar	-9.16758
▁violência	-9.16797
▁Ba	-9.16966
▁amor	-9.16985
▁G	-9.17141
▁8	-9.17201
P	-9.17229
▁comportamento	-9.17342
gue	-9.17355
ber	-9.17417
▁pe	-9.17512
▁Di	-9.17677
▁40	-9.17916
▁escrever	-9.17968
▁decidi	-9.17985
▁ensino	-9.18256
▁nun	-9.18267
▁crescimento	-9.18269
gen	-9.18285
▁La	-9.18412
▁aquí	-9.18556
▁Primeiro	-9.18758
▁física	-9.18761
▁caixa	-9.18763
▁obter	-9.18783
▁esa	-9.18933
tado	-9.18937
▁amigo	-9.18946
▁fa	-9.18971
▁entender	-9.18975
iro	-9.19219
ido	-9.19352
▁sair	-9.19393
▁Hai	-9.19675
ie	-9.19739
ic	-9.19802
▁educação	-9.19886
tor	-9.19915
▁perto	-9.19933
▁fala	-9.2009
án	-9.20246
▁quantidade	-9.20289
▁floresta	-9.20438
▁principal	-9.20602
um	-9.20602
w	-9.20646
▁foto	-9.20655
O	-9.20677
▁certeza	-9.20805
▁usa	-9.21038
▁Li	-9.21273
▁vári	-9.21278
zo	-9.21305
▁rapidamente	-9.21323
▁podía	-9.21329
▁presente	-9.21376
▁incrível	-9.21399
▁alto	-9.21452
▁usando	-9.21456
por	-9.21535
▁série	-9.21844
▁nessa	-9.21847
▁ci	-9.2193
▁can	-9.22256
▁laboratório	-9.22367
▁tornou	-9.22451
ira	-9.22468
th	-9.23154
▁la	-9.23221
▁médico	-9.23275
ran	-9.23303
▁cal	-9.23311
▁baixa	-9.23424
▁N	-9.23579
▁Do	-9.23674
ix	-9.23777
▁máquina	-9.23823
▁teste	-9.23824
▁controlo	-9.23825
▁material	-9.24526
lha	-9.24617
▁portanto	-9.24667
ten	-9.24715
▁vem	-9.24795
▁língua	-9.25027
▁logo	-9.2503
enta	-9.25039
via	-9.25074
xo	-9.25333
▁tomar	-9.25334
gre	-9.25363
▁disseram	-9.25555
▁professores	-9.25657
▁idea	-9.25702
▁novos	-9.25774
der	-9.25831
▁Is	-9.26002
▁China	-9.26118
▁visto	-9.26145
cre	-9.26175
R	-9.26338
▁1	-9.26365
nho	-9.26493
▁Imaginem	-9.26697
7	-9.26727
▁Tudo	-9.26773
▁pobres	-9.27184
▁palestra	-9.27207
▁próxima	-9.27207
▁esperança	-9.27209
▁Sou	-9.27319
lla	-9.27391
▁preocupa	-9.27577
tura	-9.27646
▁olha	-9.27664
▁precisam	-9.27776
▁mapa	-9.27823
▁consegue	-9.27869
▁áreas	-9.27947
▁continua	-9.28047
▁recursos	-9.28159
▁colegas	-9.2824
▁sexo	-9.28246
▁ouvi	-9.28481
▁sete	-9.28494
cul	-9.28572
▁funcionar	-9.28653
▁representa	-9.28676
▁finalmente	-9.28686
▁entra	-9.28829
▁importantes	-9.28832
▁lugares	-9.28836
▁media	-9.28862
▁democracia	-9.28873
▁petróleo	-9.28873
qu	-9.28905
con	-9.28919
▁nenhum	-9.28969
ces	-9.29005
▁resultados	-9.29054
▁aprendi	-9.2937
▁físico	-9.29435
▁comum	-9.29466
remos	-9.2951
ha	-9.29548
▁livros	-9.29558
iva	-9.29623
N	-9.29735
▁dunha	-9.30013
▁doenças	-9.30067
▁Clar	-9.30099
▁possam	-9.30153
ven	-9.30211
9	-9.30245
▁Iorque	-9.30569
▁Músic	-9.30569
▁Ora	-9.30642
lles	-9.30715
▁uso	-9.30851
K	-9.30876
tina	-9.30922
fu	-9.31042
tico	-9.31114
▁começá	-9.3114
▁18	-9.31153
▁andar	-9.31159
▁viagem	-9.31162
▁tratamento	-9.31211
ion	-9.3127
▁ensinar	-9.31274
ivo	-9.31409
▁perguntar	-9.31419
▁falta	-9.31435
▁senti	-9.31454
B	-9.3147
▁planta	-9.31505
▁Essa	-9.31566
▁Bu	-9.31588
ico	-9.31669
▁nesse	-9.31728
▁canto	-9.31843
im	-9.31938
▁W	-9.31988
▁geral	-9.32115
▁altera	-9.32131
▁grupos	-9.32151
ud	-9.3223
▁carbono	-9.32293
▁nisso	-9.32293
▁tu	-9.32559
ol	-9.32615
▁capaz	-9.32723
▁nenhuma	-9.32797
▁após	-9.32814
¿	-9.32874
▁América	-9.32874
▁fizeram	-9.32945
▁mundial	-9.32969
▁Al	-9.32979
▁Fi	-9.33069
L	-9.33228
inho	-9.3324
▁aumentar	-9.33395
▁fundamental	-9.33459
▁experiências	-9.33562
▁pegar	-9.33654
▁tanta	-9.33707
▁filho	-9.33796
▁houve	-9.33939
▁nisto	-9.34047
▁basicamente	-9.34048
▁acesso	-9.34052
▁tiña	-9.3406
▁pu	-9.34141
▁80	-9.34367
▁perguntas	-9.34442
▁ata	-9.3454
▁Existe	-9.3464
eiro	-9.34673
▁médicos	-9.34804
je	-9.34815
▁redes	-9.35074
▁rápido	-9.35234
▁exatamente	-9.35234
▁90	-9.35334
tua	-9.35343
▁económico	-9.35369
▁Pe	-9.35613
▁desafio	-9.35626
▁acabar	-9.35696
▁teu	-9.35768
▁im	-9.35775
▁Google	-9.35833
▁estrada	-9.35834
▁metade	-9.35857
▁cu	-9.35872
▁forte	-9.35887
▁Acho	-9.36081
▁Mar	-9.36095
encia	-9.36194
▁juntos	-9.36238
ña	-9.36279
▁igual	-9.36429
▁minhas	-9.36432
▁tecido	-9.3645
▁norte	-9.3646
▁vivo	-9.3651
▁60	-9.36595
ável	-9.36911
▁U	-9.36993
▁car	-9.37048
▁estudar	-9.37211
▁embora	-9.37445
▁morrer	-9.37491
▁poden	-9.37579
▁teoria	-9.37652
▁sangue	-9.37658
▁plano	-9.37672
▁bi	-9.3785
ária	-9.37938
▁Sabem	-9.37967
▁R	-9.38199
ton	-9.38351
▁perder	-9.38352
▁sequer	-9.3839
▁fonte	-9.38539
▁mellor	-9.3872
▁produtos	-9.38761
ze	-9.38805
▁melhorar	-9.38822
▁irá	-9.38862
▁vós	-9.38882
pois	-9.38959
▁Duran	-9.38969
pro	-9.39039
▁computadores	-9.3915
▁teria	-9.39339
▁jovem	-9.39503
▁naquele	-9.39505
▁alunos	-9.39536
▁25	-9.39571
▁12	-9.39572
eiros	-9.39844
▁Des	-9.39982
▁jogo	-9.40129
▁persoa	-9.40135
▁fun	-9.40149
▁Fa	-9.40211
▁cientistas	-9.40246
▁capazes	-9.40297
▁interior	-9.40358
▁Ben	-9.40402
▁lei	-9.40526
he	-9.40679
nto	-9.40784
▁regi	-9.40851
▁depende	-9.40863
aram	-9.40922
▁terem	-9.41094
▁cre	-9.41355
▁Nun	-9.41434
▁pensamento	-9.41466
▁metros	-9.41505
▁tirar	-9.41691
▁comer	-9.41813
▁notícias	-9.41825
00	-9.4184
▁fotos	-9.41905
▁estive	-9.41998
▁livre	-9.42027
▁oceano	-9.42027
ig	-9.42035
▁permite	-9.42224
▁correr	-9.42343
▁pedir	-9.42365
ad	-9.42515
▁crescer	-9.42598
▁levou	-9.42668
▁objetivo	-9.42668
▁nunha	-9.42684
▁Neste	-9.42689
▁Su	-9.42765
▁ia	-9.42862
rio	-9.42885
▁Fu	-9.42913
▁g	-9.42968
cas	-9.43138
▁Pro	-9.43193
▁Sa	-9.4321
▁pensam	-9.43253
▁taxa	-9.43322
▁devido	-9.43338
▁sejam	-9.43355
▁digo	-9.43421
▁veem	-9.43552
▁produto	-9.43596
▁pontos	-9.43638
▁tan	-9.43667
▁tivesse	-9.43671
▁boas	-9.4368
fo	-9.43793
▁6	-9.43849
▁Índia	-9.43962
▁materiais	-9.43987
▁Per	-9.44122
inda	-9.44123
▁duma	-9.44133
▁números	-9.44185
▁exp	-9.44345
rmos	-9.44437
▁busca	-9.44636
▁gostaria	-9.44796
▁direito	-9.44828
▁ne	-9.44884
▁total	-9.45043
▁contrário	-9.45274
▁questões	-9.45277
▁desejo	-9.45285
▁muda	-9.45332
én	-9.45382
▁escolas	-9.45445
▁efeito	-9.4545
▁feliz	-9.45778
▁comp	-9.45836
▁x	-9.45851
▁utiliza	-9.45886
▁inteligente	-9.45936
▁liberdade	-9.45936
▁À	-9.45936
▁11	-9.45979
▁consig	-9.45991
per	-9.45992
▁custo	-9.46084
▁Un	-9.46151
▁mensagem	-9.46603
▁acordo	-9.46603
▁oito	-9.46652
▁iria	-9.46906
▁célula	-9.47003
▁cos	-9.47072
▁9	-9.47099
▁explicar	-9.47152
▁tecnologias	-9.47255
▁necessidade	-9.47274
▁defini	-9.47344
▁fin	-9.47655
passe	-9.4779
bre	-9.47858
▁escrito	-9.47904
▁branco	-9.4795
▁padrões	-9.4795
ger	-9.48138
tur	-9.48153
com	-9.48169
▁desenvolver	-9.48205
▁doentes	-9.48221
▁corre	-9.48228
ramos	-9.48345
ec	-9.48372
▁favor	-9.48601
▁próprios	-9.48615
quê	-9.48617
▁fal	-9.48624
▁código	-9.4863
▁fantástico	-9.4863
▁res	-9.48633
▁animal	-9.48751
▁Oh	-9.48753
▁Estava	-9.48814
▁crise	-9.48943
▁lidar	-9.48993
▁responder	-9.4912
▁rec	-9.4913
▁Quer	-9.49131
▁assunto	-9.49315
▁varia	-9.49324
▁Car	-9.49413
▁via	-9.49494
▁Ra	-9.49501
▁neurónios	-9.49558
ríamos	-9.49628
▁usado	-9.49803
▁começaram	-9.49821
▁mau	-9.49827
▁hospital	-9.50004
▁medicina	-9.50005
▁extra	-9.50017
▁j	-9.5002
son	-9.5003
▁preço	-9.50075
j	-9.50077
▁observar	-9.50092
▁tiver	-9.50099
lho	-9.50429
▁relações	-9.507
▁quarto	-9.50703
▁Lo	-9.50781
▁nasce	-9.50784
▁Y	-9.50813
▁rua	-9.50819
G	-9.50834
▁podería	-9.50892
▁gra	-9.51267
▁pasa	-9.51294
▁transforma	-9.513
▁zona	-9.514
▁errado	-9.51401
▁devem	-9.51427
▁pagar	-9.5144
vio	-9.51476
dio	-9.51542
izar	-9.51614
▁pôr	-9.51636
▁Nos	-9.51677
▁cri	-9.51723
ava	-9.5174
▁mãos	-9.51841
▁fotografia	-9.51941
▁millóns	-9.51963
▁b	-9.5197
▁tenham	-9.51977
▁Mu	-9.51993
id	-9.52012
fer	-9.52051
▁esquerda	-9.52102
▁necessário	-9.52102
▁interesse	-9.52104
▁linguagem	-9.52108
▁coração	-9.52158
tais	-9.52173
▁pública	-9.52201
▁qualidade	-9.52339
▁devemos	-9.52406
▁comprar	-9.52422
▁70	-9.52473
▁permitir	-9.52565
▁humanidade	-9.52812
▁solar	-9.52826
▁curso	-9.52881
▁diga	-9.53252
inha	-9.53377
cri	-9.5338
▁procurar	-9.53385
▁dis	-9.53489
▁xeito	-9.53526
▁pessoal	-9.5361
nce	-9.53625
▁fai	-9.53654
▁aprendizagem	-9.53659
▁chamamos	-9.53662
▁pra	-9.53724
▁cá	-9.53741
▁morre	-9.53991
▁direitos	-9.54012
til	-9.54014
▁pior	-9.54129
▁superfície	-9.54245
▁velocidade	-9.54245
▁Parece	-9.54245
▁mudou	-9.54246
▁verdadeiro	-9.54322
▁cuidados	-9.54431
▁gráfico	-9.54455
▁comunidades	-9.54693
▁primeiros	-9.54752
▁descoberta	-9.5497
▁consciência	-9.54971
▁online	-9.54973
▁7	-9.55046
▁Mi	-9.55057
▁salvar	-9.55421
▁opera	-9.55431
▁digital	-9.55432
ámo	-9.55435
ávamos	-9.55525
▁nuclear	-9.55541
▁mental	-9.55675
▁buraco	-9.557
▁câmara	-9.557
▁manhã	-9.557
▁pedaço	-9.557
▁extrema	-9.55838
▁luta	-9.55856
▁podiam	-9.55878
ct	-9.56103
ment	-9.56192
ac	-9.56203
▁Esse	-9.56401
▁conseguia	-9.56421
▁acredito	-9.56435
▁sítio	-9.56459
▁lista	-9.56509
▁estiver	-9.56602
▁trans	-9.56904
▁trás	-9.56959
▁inc	-9.57017
▁familiar	-9.57048
ância	-9.57135
▁período	-9.57176
▁medi	-9.57262
rre	-9.5737
▁aula	-9.57395
▁descobrimos	-9.57534
▁poderá	-9.5774
eza	-9.57774
▁combina	-9.57924
▁investigação	-9.57968
▁gran	-9.58167
▁interessa	-9.58274
ncia	-9.58354
▁Tinha	-9.58358
▁regras	-9.58395
▁massa	-9.58454
▁transformar	-9.58548
▁repente	-9.58685
▁geração	-9.58809
▁fo	-9.58855
▁dura	-9.59033
cos	-9.59219
▁poderoso	-9.59441
▁fazia	-9.59482
▁sexa	-9.59527
▁abrir	-9.59702
▁face	-9.59749
▁mesmos	-9.59979
▁coloca	-9.60189
▁distância	-9.60195
▁frequente	-9.60195
▁pobreza	-9.60203
▁roda	-9.6023
▁encontra	-9.60305
▁traballo	-9.60354
▁vivem	-9.60502
▁ob	-9.6071
▁ge	-9.60838
▁Ten	-9.60932
▁polícia	-9.60964
▁prazo	-9.60975
▁17	-9.60978
▁parque	-9.61127
▁visual	-9.61183
▁dou	-9.61403
▁acaba	-9.61432
▁segura	-9.61595
▁pé	-9.61643
▁instituições	-9.61739
▁Univers	-9.6174
▁naquela	-9.61747
▁Quanto	-9.61748
▁carta	-9.61935
▁acreditar	-9.61943
▁escolha	-9.62014
▁bebé	-9.62025
▁percebi	-9.62046
▁lembrar	-9.62137
ador	-9.62139
mpre	-9.62209
▁toca	-9.62326
▁esperar	-9.62421
▁abaixo	-9.62521
▁longa	-9.62521
▁média	-9.62521
▁época	-9.62523
▁pois	-9.62574
▁sinal	-9.62598
▁escolher	-9.6262
▁usam	-9.62664
▁mor	-9.62747
▁aumenta	-9.6276
▁Ti	-9.63046
▁X	-9.63047
▁mu	-9.63064
▁projecto	-9.63311
▁faço	-9.63339
▁alimentar	-9.63354
fiquei	-9.63376
▁pena	-9.63527
▁tema	-9.63569
▁pacientes	-9.63605
▁parecer	-9.6373
sen	-9.63908
▁nin	-9.63976
▁pouca	-9.64104
▁antigo	-9.64133
▁antiga	-9.64139
▁usamos	-9.64146
▁Chama	-9.6415
▁custa	-9.6417
dade	-9.6418
▁aspeto	-9.64205
izado	-9.64398
▁enviar	-9.64442
posta	-9.64489
ndi	-9.64639
▁vive	-9.64672
▁ensina	-9.64735
pen	-9.64815
▁razões	-9.64902
▁ameaça	-9.64902
▁cadeia	-9.64902
▁surpreendente	-9.64954
▁sinto	-9.64958
▁produção	-9.65028
▁exce	-9.65029
▁espa	-9.65063
▁traz	-9.65123
▁sonho	-9.65454
ry	-9.65533
▁absoluta	-9.65708
▁análise	-9.65708
▁universidade	-9.65708
▁conceito	-9.65708
▁Outra	-9.65762
▁informações	-9.65764
▁toma	-9.65841
▁direc	-9.66028
tes	-9.66057
▁13	-9.6612
▁consegui	-9.66163
▁negócio	-9.66197
▁produzir	-9.66415
▁arma	-9.66449
▁h	-9.66492
ança	-9.66506
▁sorte	-9.66522
▁limite	-9.6658
▁líderes	-9.66586
▁rapaz	-9.66653
▁famílias	-9.66702
▁ru	-9.67178
▁vimos	-9.67255
▁memória	-9.67341
▁Vejam	-9.67374
▁bio	-9.67464
▁partículas	-9.67482
▁esc	-9.67641
▁ignor	-9.67694
▁Ga	-9.6804
lin	-9.68125
▁algún	-9.68171
▁veio	-9.68211
idos	-9.68227
zi	-9.68324
▁ligação	-9.6833
▁observa	-9.684
for	-9.68443
ine	-9.68538
▁Si	-9.68541
vía	-9.68572
▁casos	-9.68725
▁ouvido	-9.68768
▁nove	-9.68774
▁medicamentos	-9.68892
▁exacta	-9.69001
▁daquele	-9.69007
F	-9.69033
dra	-9.69123
▁tratar	-9.69158
▁pr	-9.69213
ke	-9.69258
▁ven	-9.69335
▁ligar	-9.6955
▁vale	-9.69557
▁mesa	-9.69569
▁ri	-9.69708
▁perspetiva	-9.69841
▁inteiro	-9.69841
▁espécies	-9.69852
▁chamar	-9.69867
▁Mesm	-9.70005
▁Tive	-9.70067
▁moléculas	-9.70236
▁moita	-9.70238
cção	-9.70264
▁fixe	-9.70452
▁modelos	-9.70536
▁profunda	-9.70623
▁contexto	-9.70688
▁chegou	-9.70688
▁aberto	-9.70715
▁bons	-9.70724
▁auga	-9.70742
▁edifícios	-9.70752
▁querer	-9.70788
net	-9.70917
▁devia	-9.70935
▁partilha	-9.71082
▁povo	-9.71099
▁criado	-9.7117
gan	-9.71288
▁anti	-9.71441
▁Chris	-9.71545
▁azul	-9.71545
▁filha	-9.71568
▁gosto	-9.71779
tem	-9.72124
oje	-9.72125
▁edifício	-9.72341
▁Algun	-9.72395
▁afeta	-9.72406
▁muller	-9.72407
▁revolução	-9.72436
icamente	-9.72541
▁usada	-9.72666
ã	-9.72726
▁literal	-9.72838
▁confi	-9.73065
▁Qual	-9.73188
ficou	-9.73205
▁década	-9.73247
▁tendência	-9.73275
▁envia	-9.7328
▁vejo	-9.73302
▁juntar	-9.73509
▁sociedades	-9.73544
▁Ne	-9.73616
▁tocar	-9.73634
ntro	-9.73684
▁rep	-9.73685
▁verde	-9.73691
▁abordage	-9.7376
at	-9.73925
pul	-9.73963
▁raparigas	-9.74007
▁medio	-9.7412
▁Facebook	-9.74152
▁esforço	-9.74152
▁palabra	-9.74152
▁guarda	-9.74152
▁Muita	-9.74172
▁capital	-9.74195
▁poderosa	-9.74223
▁km	-9.74319
ren	-9.74533
▁fomos	-9.74711
▁pensem	-9.74744
▁potencial	-9.74871
▁demonstra	-9.74893
▁matéria	-9.75037
▁transporte	-9.75037
▁superior	-9.75042
▁199	-9.75043
▁calquer	-9.75069
▁emprego	-9.75075
▁moral	-9.75077
▁feita	-9.75111
H	-9.75157
▁comunicação	-9.75169
có	-9.75199
▁essencial	-9.75207
tica	-9.75338
▁Son	-9.75423
ização	-9.75626
▁soa	-9.7564
▁comeza	-9.75679
▁fizer	-9.75942
▁topo	-9.75951
mbos	-9.76003
▁colabora	-9.76011
▁brilhante	-9.76039
ações	-9.76242
entes	-9.76413
▁Ri	-9.76475
▁obviamente	-9.76538
ide	-9.76539
▁14	-9.76539
▁onda	-9.76572
les	-9.76629
tudo	-9.76792
▁mês	-9.76831
▁significado	-9.76924
▁Qua	-9.76955
▁estranho	-9.76979
ow	-9.77031
▁prote	-9.77272
▁posição	-9.77407
▁passou	-9.77408
▁ac	-9.77481
▁dança	-9.77512
▁aplica	-9.77536
▁pratica	-9.77547
génio	-9.7774
▁cadeira	-9.7774
▁Bom	-9.77781
áveis	-9.77812
▁estudos	-9.77857
wa	-9.77939
▁erro	-9.77985
amento	-9.78057
▁espero	-9.78128
▁considera	-9.7816
if	-9.78211
▁genes	-9.78295
▁mover	-9.78324
▁perna	-9.785
▁pudesse	-9.7861
▁políticas	-9.78622
▁bola	-9.78646
responsabilidade	-9.78657
▁científica	-9.78657
▁palco	-9.78658
▁sensação	-9.78659
▁veces	-9.78686
▁Vai	-9.7874
▁incri	-9.78753
▁colo	-9.78811
▁nenos	-9.78849
▁políticos	-9.79047
▁acha	-9.79065
dé	-9.7922
▁conhecido	-9.79226
▁recebe	-9.79262
▁to	-9.79573
▁rendimento	-9.79583
▁opini	-9.79586
▁avó	-9.79587
▁suposto	-9.796
▁daquela	-9.79607
▁peso	-9.79643
▁debate	-9.79663
▁inovação	-9.79687
▁cart	-9.7976
▁má	-9.79775
▁artista	-9.79845
▁receber	-9.79856
▁aprendemos	-9.79888
este	-9.80008
▁controlar	-9.80046
ticamente	-9.80122
▁Pensem	-9.80163
▁ab	-9.80172
▁explorar	-9.80192
▁sina	-9.80287
ler	-9.80298
▁micro	-9.80514
▁governos	-9.80517
▁climática	-9.80518
▁direita	-9.80518
▁investimento	-9.80546
▁amostra	-9.80564
▁pregunta	-9.80608
▁ha	-9.80648
▁bili	-9.80707
▁tira	-9.80715
▁terríve	-9.80748
▁conhecer	-9.80806
▁negócios	-9.80892
▁sentimento	-9.80896
▁serviços	-9.80916
tivas	-9.8092
▁frase	-9.81094
men	-9.81138
▁terceiro	-9.81169
▁Dr	-9.81234
▁doente	-9.81235
▁anterior	-9.81361
▁estrelas	-9.81437
▁plástico	-9.81461
▁química	-9.81461
▁vírus	-9.81521
▁professor	-9.81757
▁semelhante	-9.81802
▁utilizar	-9.81872
ell	-9.8213
▁cun	-9.82137
▁tres	-9.82148
▁unidade	-9.82157
▁diria	-9.82159
adores	-9.82184
▁perda	-9.82203
▁carreira	-9.82413
▁bloco	-9.82414
tório	-9.82414
▁Deixem	-9.82419
▁começam	-9.82436
▁perce	-9.82681
▁nacional	-9.82751
mba	-9.82756
▁segui	-9.8286
▁lu	-9.82874
▁bomba	-9.82989
▁actual	-9.8299
▁tre	-9.83087
▁ficam	-9.83214
▁cambio	-9.83375
▁céu	-9.83377
▁malária	-9.83407
▁construção	-9.83454
▁lutar	-9.83456
ixe	-9.83522
▁máquinas	-9.83613
up	-9.83695
▁Tom	-9.83716
▁organização	-9.83772
▁esca	-9.83798
▁Fo	-9.83942
bro	-9.83974
▁descobri	-9.83996
▁ganhar	-9.84185
▁característica	-9.84347
bilidade	-9.84376
▁décadas	-9.84377
▁porquê	-9.84829
by	-9.84872
lí	-9.84932
▁Be	-9.85007
▁encontro	-9.85018
▁16	-9.85064
▁morta	-9.85103
tores	-9.85111
use	-9.85154
tan	-9.85207
▁fé	-9.8523
▁bacteria	-9.85326
▁evolução	-9.85326
▁texto	-9.85326
▁apoio	-9.85328
▁banco	-9.85329
pressão	-9.85334
▁sendo	-9.85492
▁ocorre	-9.8561
▁Ex	-9.85645
▁ás	-9.85954
ord	-9.85986
▁árvores	-9.86007
▁aumento	-9.86081
▁visita	-9.86301
▁depressa	-9.86316
▁padrão	-9.86316
▁árabe	-9.86316
▁Sh	-9.86374
▁compaixão	-9.86407
▁irmão	-9.86539
▁ganha	-9.86667
▁fan	-9.86668
▁ta	-9.86704
▁cola	-9.86735
▁reconhecer	-9.86893
▁complexo	-9.86911
▁membros	-9.86958
▁Jo	-9.87074
▁indica	-9.87311
▁identidade	-9.87316
▁perfeita	-9.87316
▁consciente	-9.87316
▁económica	-9.87316
▁telemóvel	-9.87317
▁hoxe	-9.87317
▁inglês	-9.87318
▁ritmo	-9.87318
▁condições	-9.87333
▁integra	-9.87339
▁cidadãos	-9.87351
▁anda	-9.87353
▁carne	-9.87365
▁proteger	-9.87368
col	-9.87429
▁nota	-9.8744
▁pele	-9.87509
izada	-9.87529
▁chave	-9.87668
▁cama	-9.87864
▁parede	-9.87958
▁inici	-9.87969
▁be	-9.88203
▁facil	-9.88323
▁ecrã	-9.88326
▁sério	-9.88326
▁afecta	-9.88327
▁decisão	-9.88328
▁sozinho	-9.88329
ídeo	-9.88331
▁trazer	-9.88381
versão	-9.88388
▁Segund	-9.88399
▁publica	-9.88403
▁neuro	-9.88425
▁avalia	-9.88491
rios	-9.88585
ño	-9.88635
▁cura	-9.88712
▁apercebe	-9.88902
▁fre	-9.88943
▁fase	-9.89033
cho	-9.89043
▁vivemos	-9.89079
▁evitar	-9.89213
▁saí	-9.89223
▁medir	-9.89249
▁pó	-9.8927
▁New	-9.89359
▁dixo	-9.89397
▁The	-9.89468
▁tri	-9.89611
ite	-9.8974
▁calor	-9.89851
▁parecem	-9.89906
▁telefone	-9.89946
▁leis	-9.89949
▁custos	-9.90167
U	-9.9022
▁genoma	-9.90378
▁imaxe	-9.90378
▁milhão	-9.90378
▁braço	-9.90378
▁segredo	-9.90387
▁menor	-9.90469
▁Ka	-9.90584
▁apresenta	-9.90593
cido	-9.90711
iano	-9.90786
▁terceir	-9.90792
▁Vo	-9.90802
vol	-9.90858
▁Che	-9.90858
▁nela	-9.90918
▁tom	-9.90969
▁desenvolve	-9.91024
▁compra	-9.91046
▁cousa	-9.9122
▁entende	-9.91404
▁Grazas	-9.9142
▁terreno	-9.91425
▁biologia	-9.91427
▁aberta	-9.91451
▁sur	-9.91459
▁crea	-9.91502
▁esteja	-9.91526
▁mudanças	-9.91541
▁implica	-9.91607
▁sexual	-9.91618
quí	-9.91687
lmente	-9.91739
▁tua	-9.91784
▁hi	-9.9183
▁gostam	-9.91895
▁lembra	-9.91935
▁paga	-9.91945
uro	-9.91958
▁parecia	-9.92205
▁irmã	-9.92245
▁Ter	-9.92257
▁hipótese	-9.92283
▁fra	-9.92329
▁debaixo	-9.92472
▁presidente	-9.92472
▁negra	-9.92472
▁vostede	-9.92475
▁chão	-9.92477
▁Unha	-9.92505
▁fossem	-9.92597
▁independente	-9.92642
▁alimento	-9.92677
▁elementos	-9.92913
▁Ta	-9.92977
▁bocado	-9.92992
iana	-9.93228
▁tens	-9.93369
▁possibilidade	-9.93396
▁princípio	-9.93397
hi	-9.93443
▁enfermidade	-9.93536
▁fenómeno	-9.93536
▁propósito	-9.93536
▁temperatura	-9.93536
▁vontade	-9.93536
▁Descobri	-9.93536
▁decisões	-9.93536
▁Têm	-9.93537
▁noutro	-9.93541
▁errada	-9.93541
▁pensava	-9.93586
vários	-9.93648
nica	-9.93685
▁gelo	-9.93694
missão	-9.93705
▁usá	-9.93776
▁liberta	-9.93802
támos	-9.9398
▁daqui	-9.94108
▁cedo	-9.9412
▁foca	-9.94208
cou	-9.94209
▁viu	-9.94247
▁certamente	-9.94254
▁rio	-9.94284
eis	-9.94295
▁aparece	-9.94295
llo	-9.94297
▁camada	-9.94329
▁Faz	-9.94341
▁funcionam	-9.94349
▁sal	-9.94364
stro	-9.94455
▁cami	-9.94478
▁motor	-9.94485
▁tarefa	-9.94525
▁peça	-9.94572
“	-9.94611
▁fábrica	-9.94611
▁gigante	-9.94611
▁propriedade	-9.94611
▁tecnoloxía	-9.94611
▁aldeia	-9.94611
▁montanha	-9.94617
cional	-9.94619
▁acima	-9.94621
▁encontrei	-9.94629
▁impossível	-9.94632
▁lixo	-9.94652
,	-9.94842
▁Hav	-9.94989
▁liga	-9.95025
▁exemplos	-9.95048
▁indivíduos	-9.9521
▁conduzir	-9.95232
bal	-9.95303
▁encontramos	-9.95348
den	-9.95351
▁Sul	-9.95432
▁gosta	-9.95442
▁Fe	-9.95494
▁considerar	-9.95664
▁aparelho	-9.95698
▁campanha	-9.95698
▁cirurgia	-9.95698
▁tradicional	-9.95698
▁afirma	-9.95698
▁connosco	-9.95699
▁Tal	-9.95699
▁dúvida	-9.95701
▁registo	-9.95728
▁incluindo	-9.95732
▁deixem	-9.95746
▁abelhas	-9.95837
▁nele	-9.95861
▁facelo	-9.9592
▁motivo	-9.95954
tic	-9.96044
▁casas	-9.96092
ed	-9.96144
▁van	-9.96147
riam	-9.96235
▁deveria	-9.96309
▁far	-9.96343
▁matar	-9.96432
▁case	-9.96469
▁tornam	-9.96521
▁maneiras	-9.96596
cro	-9.96708
doras	-9.96744
▁espírito	-9.96797
▁inteligência	-9.96797
▁mistura	-9.96797
▁software	-9.96797
▁direção	-9.96798
▁curva	-9.96799
▁adapta	-9.968
▁estrela	-9.96826
▁24	-9.96852
▁Est	-9.97033
▁viva	-9.97169
▁olharem	-9.97194
ham	-9.97248
mas	-9.97267
imi	-9.97268
ard	-9.97369
▁compara	-9.97413
▁ama	-9.97534
▁rece	-9.97549
mar	-9.97884
▁Acontece	-9.97908
▁exterior	-9.97908
▁genética	-9.97908
▁consumo	-9.97908
▁motiva	-9.97963
▁Pre	-9.98001
▁comunicar	-9.9803
ático	-9.98064
▁atra	-9.98082
ust	-9.98088
▁familia	-9.98091
▁neurona	-9.98143
har	-9.98225
▁dor	-9.98264
cabou	-9.98554
icos	-9.98743
▁boca	-9.98804
▁erros	-9.98814
▁sobreviver	-9.98929
▁tiveram	-9.98937
▁Ei	-9.99026
▁complexidade	-9.99032
▁fantástica	-9.99032
▁janela	-9.99032
▁rápida	-9.99032
▁processa	-9.99032
▁escrita	-9.99032
▁Pensa	-9.99036
▁imediatamente	-9.99085
▁ponta	-9.99123
▁aspecto	-9.99136
▁objeto	-9.9915
▁ferramenta	-9.99174
▁cabo	-9.99252
▁negros	-9.99462
ner	-9.99577
▁Disse	-9.99641
▁cresce	-9.99665
▁instru	-9.99718
▁Nem	-9.99723
▁Wi	-9.99851
▁fila	-9.99897
tida	-9.9994
▁preto	-9.99955
▁monte	-10.0005
▁trabalh	-10.0009
▁alternativa	-10.0017
▁razón	-10.0017
▁stress	-10.0017
▁excelente	-10.0017
▁convosco	-10.0017
▁vermelho	-10.0017
▁junta	-10.0018
▁dizia	-10.002
▁subir	-10.0023
ki	-10.0033
▁rapariga	-10.0036
ália	-10.0039
bol	-10.004
▁funda	-10.004
V	-10.0042
▁revela	-10.0046
▁drogas	-10.0049
ática	-10.0049
▁valore	-10.0073
▁norma	-10.0074
nza	-10.0077
▁tido	-10.0084
▁home	-10.0087
▁vo	-10.0088
▁oportunidades	-10.0092
▁Sol	-10.0108
vel	-10.0115
▁fome	-10.0127
▁Alguma	-10.0132
▁epidemia	-10.0132
▁útil	-10.0132
▁breve	-10.0132
▁ciclo	-10.0132
▁barato	-10.0132
▁interac	-10.0135
▁Posso	-10.014
▁Gr	-10.0145
▁falha	-10.015
ém	-10.0154
▁página	-10.0154
▁prática	-10.0154
▁emocional	-10.0167
▁conhecemos	-10.0168
▁vêem	-10.0178
▁Z	-10.0187
▁criação	-10.0192
▁precisava	-10.0194
▁especialista	-10.0205
▁efeitos	-10.0212
▁resulta	-10.0223
▁poida	-10.0236
▁conteúdo	-10.0248
▁cálculo	-10.0248
▁importância	-10.0248
▁médica	-10.0248
▁veículo	-10.0248
▁beleza	-10.0248
▁orienta	-10.0248
▁provoca	-10.0248
▁prova	-10.025
▁pronto	-10.0252
▁aparecer	-10.0254
▁profundo	-10.0257
▁alterar	-10.0259
▁sai	-10.026
▁leve	-10.0264
ka	-10.0266
▁paz	-10.0267
▁poderiam	-10.0273
▁demais	-10.0276
éis	-10.028
▁che	-10.0293
DA	-10.0301
▁relativa	-10.0303
▁sentem	-10.0318
▁sentado	-10.0319
▁algué	-10.0326
▁500	-10.0328
▁grava	-10.0339
cent	-10.0339
▁perigo	-10.0344
ído	-10.0347
riamente	-10.0349
▁alí	-10.0351
itar	-10.0362
▁difíc	-10.0364
▁Mundial	-10.0366
trás	-10.0367
▁rosto	-10.0369
▁central	-10.0376
▁marido	-10.0381
▁costumava	-10.0382
▁ligado	-10.0384
bur	-10.039
▁Marte	-10.0391
▁dez	-10.0406
ual	-10.0411
▁olho	-10.0412
▁San	-10.0417
▁vivi	-10.0436
▁Tra	-10.0438
▁espi	-10.0438
▁Ver	-10.0439
▁investigador	-10.0451
ento	-10.0452
▁grave	-10.0456
nón	-10.0462
land	-10.0465
iu	-10.0469
tion	-10.0476
▁aulas	-10.048
▁mercados	-10.0484
▁descubri	-10.0485
▁maravilhosa	-10.0485
▁complexa	-10.0485
▁prisão	-10.0485
▁estilo	-10.0485
▁algunha	-10.0486
▁desenho	-10.0487
▁punto	-10.0487
▁perguntei	-10.0487
▁quiserem	-10.0494
and	-10.0506
cionais	-10.0507
▁controla	-10.0509
▁agir	-10.0511
▁felizes	-10.0513
▁xene	-10.0519
▁armas	-10.0526
▁simple	-10.0529
▁casamento	-10.0532
▁viram	-10.0543
plicação	-10.0552
▁entrevista	-10.0553
▁apresentar	-10.0555
▁solo	-10.0584
▁eficaz	-10.0589
▁mensagens	-10.0605
▁pintura	-10.0605
▁inteira	-10.0605
▁evento	-10.0607
▁vindo	-10.0613
▁alma	-10.0613
▁pedra	-10.0615
▁religião	-10.0615
▁queriam	-10.0617
▁sul	-10.0617
▁conseguiu	-10.0651
▁acredita	-10.0652
▁gene	-10.0663
▁gera	-10.0666
▁americanos	-10.0677
vin	-10.0677
▁sofre	-10.0678
mer	-10.0682
▁Ge	-10.0702
▁infe	-10.0716
uta	-10.0717
▁site	-10.0721
▁Sem	-10.0723
▁dú	-10.0727
▁Acredit	-10.0727
▁John	-10.0727
▁Ningué	-10.0727
▁órgão	-10.0727
▁moderno	-10.0727
▁respeito	-10.0728
▁imaginem	-10.0728
▁198	-10.0728
▁falamos	-10.0729
▁vejam	-10.0731
▁termo	-10.0735
▁trabalhadores	-10.0737
▁letra	-10.0737
▁jornalista	-10.074
▁autor	-10.0742
▁parar	-10.0755
▁mira	-10.0757
▁localiza	-10.0773
▁recebi	-10.0774
▁peixe	-10.0782
▁prim	-10.0787
▁bebés	-10.0805
▁mala	-10.0815
▁passei	-10.0815
▁estuda	-10.0824
pat	-10.0825
ível	-10.0829
▁investir	-10.0836
▁alcançar	-10.0851
▁objecto	-10.0851
▁compreensão	-10.0853
▁receita	-10.0857
▁fascinante	-10.0859
▁cheia	-10.0861
▁soube	-10.0862
▁segue	-10.0865
▁clara	-10.0866
▁reais	-10.0883
▁enfrentar	-10.0891
▁ruas	-10.09
dura	-10.0913
▁acham	-10.0915
▁alvo	-10.0919
▁Pr	-10.0927
▁encar	-10.0932
▁atividade	-10.0936
▁informa	-10.0944
▁ataque	-10.0947
▁programas	-10.0954
▁ricos	-10.0954
ent	-10.0958
rdem	-10.0962
▁atingir	-10.0972
▁Natureza	-10.0976
▁necessária	-10.0976
▁perspectiva	-10.0976
▁riqueza	-10.0976
▁Oriente	-10.0976
▁deixou	-10.0976
▁organizações	-10.0976
▁culpa	-10.0976
▁Norte	-10.0976
▁GP	-10.0978
▁brincar	-10.0979
▁cheguei	-10.098
bido	-10.0998
▁claramente	-10.1001
▁adultos	-10.1004
▁voar	-10.1008
▁Polo	-10.101
▁pega	-10.1013
▁Par	-10.1016
▁Can	-10.1026
dí	-10.1029
▁Ni	-10.1033
quei	-10.1037
▁artigo	-10.104
▁dispositivo	-10.1041
▁molécula	-10.1043
▁minuto	-10.1044
▁depressão	-10.1047
▁conflito	-10.1049
▁subi	-10.1064
ibi	-10.1067
▁vítimas	-10.1067
▁anima	-10.1068
▁popular	-10.107
posto	-10.1073
▁Afeganistão	-10.1102
▁moderna	-10.1102
▁sequência	-10.1102
▁transporta	-10.1102
▁roupa	-10.1102
▁gás	-10.1103
▁reforma	-10.1107
▁permiti	-10.1116
fere	-10.1125
▁desaparece	-10.113
▁Tu	-10.117
▁Har	-10.1173
▁serviço	-10.1176
▁político	-10.1176
▁300	-10.1198
▁rato	-10.12
50	-10.1202
antes	-10.1212
▁costa	-10.1217
ley	-10.1225
▁básica	-10.123
▁diversidade	-10.123
▁frequência	-10.123
▁organismo	-10.123
▁trouxe	-10.123
▁túa	-10.123
▁dividi	-10.123
▁crença	-10.123
▁direta	-10.1231
▁sensor	-10.1233
▁cego	-10.1242
▁vento	-10.1257
▁crear	-10.126
▁tor	-10.1264
▁perde	-10.1268
▁Davi	-10.1271
▁repara	-10.1286
▁traballa	-10.1294
▁quilómetros	-10.1299
▁terminar	-10.1302
▁método	-10.1309
▁negro	-10.1311
▁paciente	-10.1311
▁san	-10.1322
▁técnicas	-10.1332
▁br	-10.1335
▁completa	-10.1337
▁competi	-10.1339
penas	-10.1353
▁extraordinário	-10.136
▁maravilhoso	-10.136
▁cabelo	-10.136
▁confus	-10.1362
▁aceitar	-10.1363
▁Ja	-10.1363
▁reduzir	-10.1364
▁condutor	-10.1364
▁pré	-10.1365
▁areia	-10.1367
▁Outro	-10.1369
▁etc	-10.137
▁puder	-10.1383
▁deseja	-10.1385
▁existir	-10.139
▁caro	-10.1391
▁certas	-10.1392
corre	-10.1397
posição	-10.1407
final	-10.1408
▁contacto	-10.1413
▁dito	-10.1413
▁preso	-10.1415
nse	-10.142
▁ratos	-10.1425
▁identificar	-10.1431
▁Ser	-10.1438
▁tornaram	-10.1444
▁robô	-10.1447
▁diante	-10.1449
▁estudante	-10.1455
▁Unido	-10.1468
▁vossas	-10.1472
▁inclus	-10.1473
▁acidente	-10.1476
▁honest	-10.1492
▁Londres	-10.1492
▁extraordinária	-10.1492
▁felicidade	-10.1492
▁probabilidade	-10.1492
▁pensá	-10.1493
▁café	-10.1494
▁explica	-10.1495
▁escuro	-10.1495
▁dão	-10.1495
uros	-10.1503
▁utilizador	-10.1507
▁documentos	-10.1509
▁capt	-10.1513
nel	-10.1522
▁Rein	-10.1523
▁fortes	-10.1541
▁lar	-10.1546
quilo	-10.1549
▁Ar	-10.1551
ill	-10.1552
bel	-10.1561
▁Quere	-10.1564
▁19	-10.1572
▁notas	-10.1573
▁trabalha	-10.1582
▁chamo	-10.1595
ex	-10.1597
▁Ru	-10.1603
▁estivesse	-10.1605
▁travé	-10.1618
▁género	-10.1625
▁plataforma	-10.1625
▁profissionais	-10.1625
▁triste	-10.1628
▁activa	-10.1632
ografia	-10.1642
níveis	-10.1644
▁limita	-10.1645
▁proporciona	-10.1652
ctor	-10.1665
▁adoro	-10.1666
▁baseada	-10.1669
▁audi	-10.1676
▁algu	-10.17
▁control	-10.1703
▁raio	-10.1709
line	-10.1718
▁cai	-10.1722
▁artistas	-10.1722
▁adolescentes	-10.1723
▁enormes	-10.1724
▁Ch	-10.1732
▁participa	-10.175
ino	-10.176
▁Consegui	-10.176
▁Israel	-10.176
▁atmosfera	-10.176
▁básico	-10.176
▁individual	-10.176
▁micróbio	-10.176
▁carvão	-10.176
▁paixão	-10.176
▁Certo	-10.176
▁grazas	-10.176
▁justiça	-10.176
▁naturais	-10.176
▁cr	-10.1761
▁loja	-10.1761
▁cunha	-10.1765
monos	-10.1774
▁equipamento	-10.1775
▁Wa	-10.1777
▁revista	-10.1778
▁salva	-10.1795
▁profundamente	-10.1799
▁Alé	-10.1801
cta	-10.1804
▁pista	-10.1824
▁construído	-10.183
▁peixes	-10.1838
▁formação	-10.1845
▁permitem	-10.1856
▁construí	-10.1859
▁invent	-10.1863
▁científico	-10.1868
▁velho	-10.1871
▁roub	-10.1871
▁cientista	-10.1871
art	-10.1872
▁sentimos	-10.1872
▁avançar	-10.1877
▁diferenças	-10.188
tre	-10.1881
lica	-10.1883
damente	-10.189
▁move	-10.1892
pera	-10.1892
ô	-10.1894
▁conclus	-10.1897
▁clínica	-10.1897
▁escritório	-10.1897
▁hormona	-10.1897
▁matemático	-10.1897
▁satélite	-10.1897
▁ótimo	-10.1897
▁linguaxe	-10.1899
▁perigoso	-10.1903
▁bu	-10.1906
tive	-10.1909
▁Cha	-10.1913
▁fato	-10.1922
▁desce	-10.1924
▁tr	-10.1934
▁robôs	-10.1944
▁principa	-10.1952
tam	-10.1984
▁eficiente	-10.1985
ly	-10.1998
▁ped	-10.2002
agens	-10.2005
▁desaparecer	-10.201
▁companhia	-10.2013
▁bairro	-10.2013
▁escolhe	-10.2019
ético	-10.2031
entemente	-10.2031
▁ós	-10.2035
▁agricultura	-10.2036
▁bicicleta	-10.2036
▁proxecto	-10.2036
▁silêncio	-10.2036
▁imenso	-10.2036
▁imensa	-10.2036
gún	-10.2037
▁amiga	-10.2037
▁autismo	-10.2037
▁197	-10.2037
ire	-10.2037
▁perfeito	-10.2038
▁sombra	-10.2042
▁convida	-10.2043
▁recuperar	-10.2045
▁requer	-10.2049
▁ponte	-10.2055
ib	-10.2055
dy	-10.2058
▁Gu	-10.2058
▁realiza	-10.2063
▁progresso	-10.2064
▁planetas	-10.2068
▁proteção	-10.207
▁fór	-10.207
▁Rec	-10.2075
bar	-10.2079
▁produ	-10.2091
▁senhor	-10.2096
ui	-10.2113
▁pares	-10.212
▁cuidado	-10.2141
▁prov	-10.2147
▁estud	-10.2174
▁sentia	-10.2176
▁ocupa	-10.2177
▁História	-10.2177
▁Twitter	-10.2177
▁complicado	-10.2177
▁estratégia	-10.2177
▁símbolo	-10.2177
▁barreira	-10.2177
▁lembro	-10.2177
▁discurso	-10.2177
▁parecido	-10.2178
▁cheio	-10.218
▁graça	-10.2182
para	-10.2185
▁designer	-10.2189
▁meia	-10.2192
▁apareceu	-10.2217
▁crime	-10.2218
▁acreditam	-10.2226
▁moda	-10.2237
▁quis	-10.224
▁Sei	-10.2243
cado	-10.225
▁conheci	-10.2252
ntem	-10.2257
▁converte	-10.2268
▁reparar	-10.227
▁Ali	-10.2279
tável	-10.2281
▁vender	-10.2304
▁pesca	-10.2306
cidente	-10.2319
▁Brasil	-10.232
▁arquitetura	-10.232
▁faculdade	-10.232
▁ilumina	-10.232
▁individuais	-10.232
▁variedade	-10.232
▁parceiro	-10.232
▁axuda	-10.232
▁menina	-10.232
▁comuns	-10.232
▁noutra	-10.2321
▁internacional	-10.2321
▁quanta	-10.2321
▁diagnóstico	-10.2321
nstein	-10.2321
▁acabe	-10.2322
▁clima	-10.2322
▁escura	-10.2322
▁fixo	-10.2323
▁creo	-10.2334
▁imaginação	-10.2339
▁Médio	-10.2339
▁radical	-10.2347
▁simula	-10.2354
▁civiliza	-10.2359
▁começamos	-10.2368
▁corrente	-10.2372
▁gu	-10.2392
▁obes	-10.2393
▁baseado	-10.2396
expressão	-10.2402
gua	-10.2411
▁afastar	-10.2414
lé	-10.2421
▁comunica	-10.2422
▁Man	-10.2434
▁realizar	-10.2439
▁jornal	-10.2449
▁disponíve	-10.2451
▁fio	-10.2459
▁For	-10.2461
▁Higgs	-10.2465
▁círculo	-10.2465
▁divertido	-10.2465
▁privacidade	-10.2465
▁insecto	-10.2465
▁narrativa	-10.2465
▁coopera	-10.2465
▁infantil	-10.2465
▁provável	-10.2466
▁criatividade	-10.2466
▁divis	-10.2466
▁vantage	-10.2467
▁televisão	-10.2468
▁velha	-10.2469
▁avião	-10.2469
▁acaso	-10.2469
▁estranha	-10.2483
▁catro	-10.2484
▁zero	-10.2491
▁Trata	-10.2497
▁analisar	-10.2498
▁fotografias	-10.25
▁larga	-10.2503
▁desafios	-10.2515
▁Deve	-10.252
ássemos	-10.2524
▁fazerem	-10.2526
▁cultural	-10.2544
▁partido	-10.2544
▁chi	-10.2549
pção	-10.2571
▁terá	-10.2571
tamente	-10.2595
▁Du	-10.2603
▁levanta	-10.2604
▁perturba	-10.2612
▁VIH	-10.2612
▁batalha	-10.2612
▁experiencia	-10.2612
▁flutua	-10.2612
▁xunto	-10.2612
▁quadro	-10.2612
▁Espero	-10.2612
▁referi	-10.2612
▁treino	-10.2613
▁aranha	-10.2613
▁Irão	-10.2613
bio	-10.2618
▁información	-10.2618
▁viola	-10.2619
▁pobre	-10.2622
▁descrever	-10.2623
▁arranjar	-10.263
▁escreveu	-10.2636
▁virtual	-10.2637
▁cortar	-10.2643
▁có	-10.2647
▁Cal	-10.265
dei	-10.2651
IB	-10.2662
cé	-10.2681
▁atualmente	-10.2692
▁consequências	-10.27
rosa	-10.2703
pol	-10.271
lina	-10.2711
▁tivessem	-10.2713
▁Ah	-10.2714
▁retira	-10.2716
▁apanhar	-10.2717
▁sermos	-10.2718
▁interpreta	-10.2722
pé	-10.2728
▁alimenta	-10.2732
▁governa	-10.2742
aba	-10.2746
▁venda	-10.2746
▁plan	-10.2747
ah	-10.2751
▁sup	-10.2756
▁grav	-10.276
▁goberno	-10.2761
▁mortalidade	-10.2761
▁administra	-10.2761
▁curto	-10.2761
▁audiência	-10.2763
▁investi	-10.2766
▁mecanismo	-10.2771
▁cresci	-10.2773
▁corte	-10.2782
▁dedica	-10.2788
▁significativa	-10.2798
▁extens	-10.2805
▁bela	-10.2806
▁diretor	-10.2813
▁bactérias	-10.2815
▁Cri	-10.2817
▁apoia	-10.2821
▁troca	-10.2823
▁produzi	-10.2825
▁encontram	-10.2829
▁multi	-10.2833
▁Cor	-10.2835
▁toneladas	-10.2848
▁Poi	-10.2852
▁proba	-10.2853
▁pedi	-10.2853
▁cozinha	-10.2855
▁decidir	-10.2868
▁pés	-10.2879
▁ligada	-10.2879
▁testar	-10.288
▁ultrapassar	-10.2881
▁constante	-10.2889
▁teriam	-10.2889
▁incríve	-10.2892
ches	-10.2894
▁pude	-10.2894
▁desenhar	-10.2899
▁inten	-10.2906
ética	-10.2912
▁tradicionais	-10.2913
▁web	-10.2913
▁Gostaria	-10.2913
▁chuva	-10.2913
▁volume	-10.2913
▁prazer	-10.2913
▁reserva	-10.2913
▁fazendo	-10.2913
▁eleições	-10.2913
▁Aquele	-10.2913
órni	-10.2914
▁participar	-10.2914
▁quinta	-10.2916
▁funcion	-10.2916
▁ganho	-10.2918
MS	-10.2918
▁responde	-10.2926
ística	-10.2926
▁encontrámos	-10.293
▁passam	-10.2932
▁medicamento	-10.2932
▁colega	-10.2936
▁parti	-10.2938
▁clientes	-10.2947
▁Cre	-10.2964
▁frio	-10.2965
gestão	-10.2968
,5	-10.2971
vida	-10.2996
▁construímo	-10.3
americanos	-10.301
tadas	-10.3015
▁sentimentos	-10.3017
▁reduz	-10.3029
▁consumi	-10.3064
▁admira	-10.3066
▁efecto	-10.3066
▁específico	-10.3066
▁exército	-10.3066
▁óbvio	-10.3066
▁estimula	-10.3067
▁cenário	-10.3067
▁rádio	-10.3067
▁origem	-10.3067
▁museu	-10.3067
▁expans	-10.3067
▁possu	-10.3068
▁fillo	-10.3069
▁agricultores	-10.3071
▁lua	-10.3071
▁queima	-10.3072
ego	-10.3073
▁fogo	-10.3073
▁impressão	-10.3077
ís	-10.3088
▁formar	-10.3095
▁inovador	-10.3101
▁proteínas	-10.3103
▁envolve	-10.3105
▁Gra	-10.3109
▁primo	-10.3109
▁aproxima	-10.3111
▁magi	-10.3117
▁vacinas	-10.3117
▁reuni	-10.3127
▁conhecem	-10.3131
creio	-10.3132
▁dispositivos	-10.3141
ana	-10.3152
▁faça	-10.3155
▁fabrica	-10.3165
▁más	-10.3177
▁concentra	-10.3184
▁civil	-10.3188
▁previs	-10.3193
ple	-10.3204
lga	-10.321
▁assustador	-10.3213
▁falam	-10.3214
▁feitas	-10.3216
▁sítios	-10.3218
▁positiva	-10.3223
▁bonito	-10.3223
▁conselho	-10.3223
▁herói	-10.3223
▁completo	-10.3223
▁máxim	-10.3223
▁Calif	-10.3223
▁conecta	-10.3224
vergonha	-10.3224
▁pudé	-10.3224
▁igualdade	-10.3224
▁dezena	-10.3225
▁kg	-10.3226
▁inst	-10.3228
▁esper	-10.3228
▁barco	-10.323
▁lenta	-10.3236
▁agr	-10.3241
▁obrigada	-10.3242
▁bate	-10.3242
▁surgir	-10.325
▁Go	-10.325
▁engenharia	-10.3251
▁técnica	-10.3257
▁voto	-10.327
pra	-10.3275
▁confiar	-10.3282
wi	-10.3283
▁conven	-10.3285
▁americana	-10.3287
▁mentr	-10.3288
▁saiba	-10.3288
▁conhecida	-10.3293
ñ	-10.3294
▁façam	-10.3298
▁precisar	-10.3304
▁dado	-10.3305
▁meta	-10.3318
ux	-10.332
▁atopar	-10.3326
ced	-10.3335
▁dum	-10.334
▁libertar	-10.3342
ph	-10.3346
▁começo	-10.3351
▁tes	-10.3354
▁Lu	-10.3361
lamento	-10.3362
▁400	-10.3374
▁termina	-10.3379
▁nervo	-10.338
▁acompanha	-10.3381
▁saudável	-10.3381
▁privado	-10.3381
▁Houve	-10.3382
▁elefante	-10.3382
▁famoso	-10.3383
▁desenvolvido	-10.3384
▁preparar	-10.3384
rovavelmente	-10.3388
▁tarefas	-10.3394
▁conversas	-10.3395
▁disponíveis	-10.3397
▁limpa	-10.34
▁rei	-10.3413
▁identifica	-10.3419
tividade	-10.3431
▁Sal	-10.3437
▁segundos	-10.344
▁Pense	-10.3446
▁pá	-10.3459
▁pão	-10.3468
▁humanas	-10.3477
▁galáxias	-10.3484
▁pasar	-10.3485
▁luzes	-10.3491
▁preocupar	-10.3499
▁momentos	-10.3506
▁hab	-10.351
gh	-10.3518
fre	-10.3524
▁objetos	-10.3526
▁meios	-10.3526
▁intenta	-10.3536
▁lingua	-10.3539
▁Canadá	-10.3543
▁cerebral	-10.3543
▁crítico	-10.3543
▁ecossistema	-10.3543
▁secundário	-10.3543
▁surpresa	-10.3543
▁universal	-10.3543
▁charla	-10.3543
▁infraestrutura	-10.3543
▁crítica	-10.3543
▁chegá	-10.3544
▁poema	-10.3544
▁2008	-10.3547
▁150	-10.3548
▁haja	-10.3551
▁22	-10.3553
▁criou	-10.3556
▁elevado	-10.3563
▁pudessem	-10.3563
▁projetos	-10.3563
jam	-10.3565
edes	-10.3571
▁chora	-10.3574
▁chamou	-10.358
▁públicos	-10.3586
▁redu	-10.3589
▁árvore	-10.3594
▁notícia	-10.3594
chi	-10.3599
amén	-10.3612
▁devo	-10.3615
▁antibióticos	-10.3622
▁Xa	-10.3633
estre	-10.3639
▁pan	-10.3644
▁surge	-10.3662
▁serve	-10.3682
▁costum	-10.3684
▁junto	-10.3687
▁tumor	-10.3691
▁Col	-10.3691
▁vídeos	-10.3691
▁recupera	-10.3699
▁atopa	-10.3701
▁XX	-10.3706
▁desempenho	-10.3707
▁equivalente	-10.3707
▁hospitais	-10.3707
▁recompensa	-10.3707
▁sustentável	-10.3707
▁conferência	-10.3707
▁figura	-10.3707
▁evolui	-10.3707
▁pertence	-10.3707
▁York	-10.3707
▁actividade	-10.3708
▁ilustra	-10.3708
▁libera	-10.3708
▁Nesta	-10.371
▁Bill	-10.371
▁visitar	-10.371
▁marcha	-10.3717
▁guia	-10.3718
▁riso	-10.3724
▁ollo	-10.3724
▁dixe	-10.3727
▁patente	-10.3727
▁popula	-10.3727
▁conseguirmos	-10.3732
▁constantemente	-10.3733
▁arredor	-10.3735
▁rapazes	-10.3739
▁interessantes	-10.375
▁estados	-10.3753
▁descobriu	-10.3759
▁oposto	-10.376
▁gastar	-10.3766
▁membro	-10.3766
hei	-10.3776
▁chamam	-10.3781
▁paso	-10.3782
▁1,	-10.3785
▁Ás	-10.3786
▁defender	-10.3788
▁imagina	-10.3791
we	-10.3795
▁daquilo	-10.3796
▁espacial	-10.3799
▁forças	-10.3801
óns	-10.3809
▁determina	-10.3809
▁continuam	-10.381
▁mostram	-10.3814
▁escolhas	-10.3814
▁din	-10.3817
▁45	-10.3823
▁gato	-10.3823
▁gostava	-10.3856
▁proje	-10.3859
▁bar	-10.3862
▁curiosidade	-10.3873
▁financeira	-10.3873
▁frustra	-10.3873
▁mecânica	-10.3873
▁quadrado	-10.3873
▁telemóveis	-10.3873
▁modifica	-10.3873
▁bonita	-10.3873
▁Guerra	-10.3874
▁talento	-10.3877
tis	-10.3879
▁1000	-10.388
▁35	-10.3881
▁distribuiç	-10.3883
▁dentes	-10.3885
▁peças	-10.3887
▁mata	-10.389
amp	-10.3905
▁original	-10.3906
cular	-10.3907
▁rara	-10.392
▁estejam	-10.3927
▁atravessar	-10.3928
▁Senti	-10.3931
▁Mor	-10.3932
▁disp	-10.394
▁complexos	-10.3941
▁fico	-10.3944
▁refugiados	-10.3947
▁Fica	-10.3949
feira	-10.3954
ába	-10.3972
vidade	-10.3972
▁crece	-10.3973
▁He	-10.3975
▁Fala	-10.3976
▁benefícios	-10.3979
nch	-10.3981
▁aves	-10.3986
sistente	-10.3987
▁certos	-10.3992
▁olhem	-10.3997
▁digita	-10.4006
▁flores	-10.4008
▁abri	-10.4009
lógico	-10.4042
▁continente	-10.4043
▁córtex	-10.4043
▁espantoso	-10.4043
▁educación	-10.4043
▁infância	-10.4043
▁Japão	-10.4043
▁profesor	-10.4043
▁Começa	-10.4043
▁incluí	-10.4043
▁barata	-10.4043
▁destino	-10.4043
▁habilidade	-10.4044
▁exame	-10.4046
▁Austr	-10.4046
▁Nobel	-10.4049
▁Teñ	-10.405
▁chip	-10.4052
▁precisão	-10.4053
▁atual	-10.4053
▁artificial	-10.4055
▁responsável	-10.4058
▁falso	-10.4061
▁desenha	-10.4062
▁tentativa	-10.4063
▁dir	-10.4064
▁ouro	-10.4064
▁Foram	-10.407
▁Numa	-10.4085
▁habitua	-10.4091
▁Acab	-10.4095
tención	-10.4096
▁comece	-10.4099
forma	-10.4101
▁deviam	-10.4103
feito	-10.4104
▁nu	-10.4104
▁indivíduo	-10.412
▁relacionada	-10.4123
▁oferecer	-10.4135
▁Mil	-10.4139
▁andava	-10.4142
▁construída	-10.4143
mail	-10.4145
▁substituir	-10.4149
▁Tes	-10.4149
▁fer	-10.4149
▁apoiar	-10.4153
ston	-10.4165
▁sof	-10.4176
▁mentira	-10.418
ional	-10.4181
▁percebe	-10.4189
▁presa	-10.4197
▁militar	-10.4204
▁empregos	-10.4208
▁aprende	-10.4212
▁Washington	-10.4215
▁financeiro	-10.4215
▁garantir	-10.4215
▁médio	-10.4215
▁terapia	-10.4215
▁eletricidade	-10.4215
▁Frank	-10.4215
▁vidro	-10.4215
▁chefe	-10.4215
▁relación	-10.4215
▁xogo	-10.4215
▁merece	-10.4216
▁idosos	-10.4216
▁transmitir	-10.4216
▁comparti	-10.4216
▁deserto	-10.4217
▁puide	-10.4217
▁convencer	-10.4217
▁TV	-10.4226
▁exploração	-10.4237
▁qué	-10.4252
▁perdido	-10.4254
▁cena	-10.4259
▁criativo	-10.426
▁coche	-10.426
▁cita	-10.4261
ular	-10.4262
▁retirar	-10.4271
▁comercial	-10.4274
▁apartamento	-10.4275
▁Vemo	-10.429
lguém	-10.4293
▁fronteira	-10.4299
▁queríamos	-10.4304
▁cambiar	-10.4323
▁seda	-10.4325
▁pô	-10.4333
▁frases	-10.4336
▁quiser	-10.4337
▁Gost	-10.4339
▁duro	-10.434
▁Num	-10.4351
▁invisíve	-10.4382
▁México	-10.4391
▁acontecimento	-10.4391
▁fundamentais	-10.4391
▁relevante	-10.4391
▁específica	-10.4391
▁Infeliz	-10.4391
▁classe	-10.4391
▁proceso	-10.4391
▁dirigi	-10.4391
▁empatia	-10.4391
▁folha	-10.4393
▁consumidores	-10.4394
▁2009	-10.4394
▁Entre	-10.4397
▁fibra	-10.4399
versa	-10.4402
▁infelizmente	-10.4402
▁financi	-10.4403
▁Mal	-10.4409
▁existia	-10.4429
▁Á	-10.4436
▁apanha	-10.4443
ían	-10.4448
▁prever	-10.4451
▁emissões	-10.4461
▁experimentar	-10.4466
▁sonhos	-10.4474
▁graus	-10.4476
▁quente	-10.4478
▁estaria	-10.4482
▁falando	-10.4495
▁viajar	-10.4498
▁poderem	-10.4502
▁prepara	-10.4512
ándo	-10.4526
▁cair	-10.4531
▁páginas	-10.4534
▁produz	-10.4545
éria	-10.4547
▁arranj	-10.4548
▁Diz	-10.4551
gráfica	-10.4569
▁diálogo	-10.4569
▁complicada	-10.4569
▁espantosa	-10.4569
▁Apple	-10.4569
▁Trabalh	-10.4569
▁inferior	-10.4569
▁desculpa	-10.4569
▁avô	-10.4569
▁obtemos	-10.4569
▁tivé	-10.4569
▁moeda	-10.457
▁Anders	-10.4572
▁Volt	-10.4574
▁voltei	-10.4574
▁xoga	-10.4575
▁xeo	-10.4579
▁21	-10.459
érci	-10.459
▁perguntou	-10.4594
▁explora	-10.4595
▁Ber	-10.4598
inhas	-10.4602
▁editor	-10.4603
▁rica	-10.4604
▁entend	-10.4609
▁organiz	-10.4611
▁dita	-10.4612
▁Uni	-10.4624
▁dizemos	-10.4644
▁primeiras	-10.4656
▁conflitos	-10.4657
▁nasci	-10.4665
W	-10.4668
▁torná	-10.467
▁lava	-10.4678
ónico	-10.4687
▁falhar	-10.469
▁Tur	-10.4696
▁iriam	-10.4701
▁salto	-10.4703
▁cole	-10.4706
▁confront	-10.4711
▁falo	-10.4718
cut	-10.472
▁seriam	-10.4725
▁anunci	-10.4726
tória	-10.4747
▁envolver	-10.4747
▁argumento	-10.4751
▁molecular	-10.4751
▁objectivo	-10.4751
▁madeira	-10.4751
▁truque	-10.4751
▁distante	-10.4751
▁aproximadamente	-10.4752
▁Lembro	-10.4752
▁Torn	-10.4752
▁compromisso	-10.4752
▁rodea	-10.4755
gito	-10.4757
han	-10.4761
▁gerações	-10.4764
▁ligações	-10.4765
▁princípios	-10.4775
▁treina	-10.4781
▁criativa	-10.4781
▁porco	-10.4798
▁Pelo	-10.4802
▁descobriram	-10.4815
camente	-10.4816
▁sabedor	-10.4817
▁clar	-10.4825
▁louco	-10.4825
▁acto	-10.4826
▁gr	-10.4828
▁elemento	-10.4833
▁Vão	-10.4839
▁passaram	-10.4851
▁lat	-10.4853
▁fixemos	-10.4853
▁experimenta	-10.4857
▁pensarmos	-10.4859
▁monta	-10.4861
▁imita	-10.4862
estar	-10.4864
▁diminui	-10.4881
▁ouvimos	-10.4904
her	-10.4911
▁criá	-10.4915
▁poupar	-10.4916
▁Aí	-10.4923
▁flor	-10.4925
▁xera	-10.4936
▁autocarro	-10.4936
▁desigualdade	-10.4936
▁fármaco	-10.4936
▁metáfora	-10.4936
▁pássaro	-10.4936
▁telescópio	-10.4936
▁videoxogo	-10.4936
▁gripe	-10.4936
▁ensaio	-10.4936
▁desastre	-10.4936
▁vermelha	-10.4936
▁esfera	-10.4936
▁terrorismo	-10.4937
▁sozinha	-10.4937
▁libro	-10.494
▁macho	-10.494
▁dimensões	-10.4941
▁restri	-10.4941
▁tinta	-10.4944
ologia	-10.4945
▁gira	-10.4945
▁festa	-10.4945
▁terrorista	-10.4945
▁autoridade	-10.4946
▁debería	-10.4947
▁contas	-10.4951
▁combustível	-10.4956
▁Grande	-10.4959
▁adicionar	-10.4968
▁inventar	-10.4969
▁atira	-10.4986
▁abre	-10.4986
▁fraca	-10.5013
▁obras	-10.502
▁Us	-10.5022
▁gerir	-10.5022
▁escreve	-10.5036
▁Poderia	-10.5038
▁destrui	-10.504
▁her	-10.5043
▁indi	-10.5046
▁vacina	-10.5063
▁encoraja	-10.507
▁mosquitos	-10.5071
▁Fiz	-10.5074
▁analis	-10.5084
▁test	-10.5088
▁propor	-10.5094
▁torno	-10.5103
val	-10.511
▁pessoais	-10.5111
▁saír	-10.5113
▁aceita	-10.5123
▁classifica	-10.5125
▁manipula	-10.5125
▁poupança	-10.5125
▁Alemanha	-10.5125
▁diferenza	-10.5125
▁especie	-10.5125
▁océano	-10.5125
▁sofrimento	-10.5125
▁branca	-10.5125
▁cantidade	-10.5125
▁Iraque	-10.5125
▁poesia	-10.5125
almoço	-10.5125
▁dieta	-10.5125
vivência	-10.5126
▁prestes	-10.5126
▁Fal	-10.5127
util	-10.5129
▁interesante	-10.5133
▁gritar	-10.5142
▁aplicações	-10.5143
▁sabíamos	-10.5148
▁possibilidades	-10.515
▁caça	-10.5155
▁saída	-10.516
▁vizinhos	-10.5168
izou	-10.5169
▁acelera	-10.517
▁Mc	-10.5178
▁repeti	-10.5198
▁cem	-10.52
▁75	-10.52
▁pico	-10.5213
▁beber	-10.5218
▁ataques	-10.5226
▁faziam	-10.5235
ez	-10.5236
▁vivia	-10.5247
ford	-10.5248
lec	-10.525
▁pedido	-10.5251
▁inova	-10.5255
▁lançar	-10.526
▁gasta	-10.5263
▁droga	-10.5264
▁espalha	-10.5267
▁pesa	-10.5284
▁bater	-10.5284
▁comportamentos	-10.5286
▁engenheiros	-10.5307
▁email	-10.5311
avam	-10.5312
▁causar	-10.5313
ânia	-10.5317
▁aniversário	-10.5317
▁exercício	-10.5317
▁iguais	-10.5317
▁muçulmano	-10.5317
▁reputação	-10.5317
▁título	-10.5317
▁vazio	-10.5317
▁adquiri	-10.5317
▁fluxo	-10.5317
▁mostrou	-10.5317
▁mantém	-10.5317
▁literatura	-10.5318
▁Final	-10.5318
▁esperanza	-10.5319
▁coragem	-10.532
▁opções	-10.5322
▁27	-10.5323
▁bairros	-10.5349
▁hipóteses	-10.5352
▁permitiu	-10.5364
▁votar	-10.5378
▁bl	-10.5394
▁contribui	-10.5401
▁demora	-10.5404
tró	-10.5405
▁pensado	-10.5405
▁criada	-10.5427
▁emprega	-10.5434
tualmente	-10.5439
▁semelhantes	-10.5442
▁Stan	-10.5449
into	-10.545
▁Log	-10.5452
▁jogar	-10.5462
▁esqui	-10.5463
▁Queria	-10.5466
▁proteína	-10.5467
▁ideal	-10.5468
▁afasta	-10.5472
ivamente	-10.5488
▁revis	-10.5492
▁provar	-10.5495
▁programar	-10.5495
▁líder	-10.5498
▁seguintes	-10.5505
▁conhece	-10.5507
▁conto	-10.5507
▁Angeles	-10.5513
▁Francisco	-10.5513
▁Institut	-10.5513
▁circuito	-10.5513
▁competência	-10.5513
▁consciencia	-10.5513
▁instituição	-10.5513
▁jantar	-10.5513
▁persegui	-10.5513
▁positivo	-10.5513
▁trânsito	-10.5513
▁técnico	-10.5513
▁interliga	-10.5513
▁reprodu	-10.5514
▁aprecia	-10.5514
posições	-10.5514
▁economista	-10.5514
▁funcionário	-10.5515
▁lucro	-10.5516
▁incrible	-10.5517
▁devasta	-10.5518
▁eixo	-10.5518
▁dificuldades	-10.5534
▁Paris	-10.5538
▁Steve	-10.5545
ograma	-10.5546
eu	-10.5563
▁gor	-10.5567
▁interagir	-10.557
▁raça	-10.5576
▁Lev	-10.5577
▁Min	-10.5587
▁paredes	-10.5587
▁quiz	-10.5588
▁métodos	-10.5592
▁corpos	-10.5593
▁escrevi	-10.5614
▁Dia	-10.5625
▁criaturas	-10.5632
BG	-10.5634
▁decidiu	-10.5634
▁mudaram	-10.5647
▁val	-10.5647
▁atravessa	-10.565
▁diminu	-10.5651
▁sabiam	-10.5665
▁práticas	-10.5675
ect	-10.5692
▁situa	-10.5695
▁compaix	-10.5695
fia	-10.5707
▁noção	-10.5707
▁observ	-10.5708
▁rapa	-10.571
▁agrícola	-10.5713
▁barulho	-10.5713
▁bocadinho	-10.5713
▁histórico	-10.5713
▁imprensa	-10.5713
▁mensaxe	-10.5713
▁núcleo	-10.5713
▁personaliza	-10.5713
▁America	-10.5713
▁cabeza	-10.5713
▁urbano	-10.5713
▁Feliz	-10.5713
▁prémio	-10.5713
▁mistério	-10.5714
▁profissional	-10.5714
▁ampla	-10.5714
▁cavalo	-10.5714
▁envolvido	-10.5714
Breta	-10.5714
▁aceite	-10.5714
▁entrou	-10.5715
▁probable	-10.5715
oloxía	-10.5717
▁desloca	-10.5717
▁Adoro	-10.5717
▁infec	-10.5718
▁resistência	-10.5718
▁banho	-10.5719
ling	-10.5719
▁Nacional	-10.5722
▁restaurante	-10.5728
▁militares	-10.5732
▁servir	-10.5735
▁manda	-10.5735
▁Fique	-10.5736
▁Seria	-10.5738
▁detalhes	-10.5741
▁expandir	-10.5742
tradição	-10.5742
bert	-10.5746
▁recolher	-10.576
▁conté	-10.576
ç	-10.5762
▁metro	-10.5763
▁quisermos	-10.5768
▁Bang	-10.5773
▁mono	-10.5776
▁transformação	-10.5776
rico	-10.578
▁presen	-10.5781
▁electric	-10.5787
▁regressar	-10.5787
▁diziam	-10.5805
▁terço	-10.5805
americana	-10.5833
▁194	-10.5838
▁vira	-10.5844
▁Ken	-10.5844
partamento	-10.5847
▁enfrent	-10.5848
▁senhora	-10.585
▁obriga	-10.5863
▁comentários	-10.5869
▁sugerir	-10.588
▁bloque	-10.588
▁entrada	-10.5884
▁mundia	-10.5884
zar	-10.5892
logia	-10.5907
▁morto	-10.5908
▁gan	-10.5913
▁Começámo	-10.5917
▁Inglaterra	-10.5917
▁académico	-10.5917
▁clínico	-10.5917
▁comprimento	-10.5917
▁dívida	-10.5917
▁esqueleto	-10.5917
▁esquerdo	-10.5917
▁existência	-10.5917
▁fêmea	-10.5917
▁implementa	-10.5917
▁informático	-10.5917
▁quântica	-10.5917
▁reconstruir	-10.5917
▁privada	-10.5917
▁Quénia	-10.5917
▁codifica	-10.5917
▁Consegue	-10.5917
▁deficiência	-10.5917
▁similar	-10.5917
▁transferi	-10.5918
▁transição	-10.5918
▁sapato	-10.5918
▁legal	-10.5918
▁conheç	-10.5918
▁obra	-10.5919
▁paisagem	-10.5919
▁ciencia	-10.5921
▁Repare	-10.5923
▁hum	-10.5924
▁elimina	-10.5924
▁liña	-10.5924
▁loita	-10.5927
▁afro	-10.5927
▁Norma	-10.5929
▁Leva	-10.5934
▁cega	-10.5937
▁jun	-10.5944
▁Contu	-10.5946
▁generos	-10.5951
▁embar	-10.5955
rmais	-10.5969
▁seguida	-10.5971
▁nivel	-10.5978
▁organizar	-10.5981
ago	-10.5987
▁Vive	-10.5994
▁sentar	-10.5997
▁aplicar	-10.6
▁ouviram	-10.6003
▁pap	-10.6005
▁determinar	-10.6007
▁gostar	-10.6015
▁cão	-10.6015
▁Wal	-10.6015
▁pegada	-10.602
mag	-10.6033
▁senta	-10.6033
ecido	-10.6034
rido	-10.6036
▁facemos	-10.6046
▁segur	-10.6047
▁focar	-10.6049
▁seguido	-10.6059
▁pato	-10.6064
▁trabalham	-10.6079
rían	-10.6088
▁sería	-10.6089
▁mandar	-10.609
▁provas	-10.6091
▁23	-10.6097
▁tende	-10.6099
▁industria	-10.6103
▁dificuldade	-10.6104
▁continu	-10.6106
tude	-10.6108
▁imagi	-10.6117
▁sofrer	-10.6119
▁Harvard	-10.6126
▁beneficia	-10.6126
▁certifica	-10.6126
▁distinta	-10.6126
▁globais	-10.6126
▁oxitocina	-10.6126
▁personalidade	-10.6126
▁reconhecimento	-10.6126
▁sujeito	-10.6126
▁possíveis	-10.6126
▁Mãe	-10.6126
▁esposa	-10.6126
▁honra	-10.6126
▁absorv	-10.6126
▁cuidar	-10.6126
▁tód	-10.6126
▁colocá	-10.6127
▁sente	-10.6128
▁proposta	-10.613
▁eventual	-10.6132
aneiro	-10.6133
▁rocha	-10.6134
▁situações	-10.6135
▁fatores	-10.6135
▁aparente	-10.6145
▁banda	-10.6147
▁advogado	-10.615
▁levantar	-10.6151
▁dispara	-10.6154
▁juntas	-10.617
gica	-10.617
▁velhos	-10.6171
▁Sen	-10.6173
▁descreve	-10.6179
▁cruz	-10.618
▁contrato	-10.6181
ko	-10.6192
▁espalhar	-10.6193
▁criam	-10.6208
▁ilha	-10.621
▁oferece	-10.6224
▁assistir	-10.6228
lhando	-10.6235
▁voo	-10.6241
▁estatísticas	-10.6242
▁traballar	-10.6244
▁combate	-10.6244
▁sons	-10.6277
agem	-10.628
▁agarra	-10.6287
▁Eram	-10.629
▁estranhos	-10.6313
▁presta	-10.6315
▁combustíve	-10.6316
▁percorrer	-10.6319
▁repetir	-10.6325
▁colle	-10.6327
▁surpreende	-10.633
▁aluno	-10.6331
▁Aplauso	-10.6331
▁Tínhamo	-10.6339
▁cardíaca	-10.6339
▁cardíaco	-10.6339
▁cerebrais	-10.6339
▁climático	-10.6339
▁compreendi	-10.6339
▁desconhecido	-10.6339
▁laboratorio	-10.6339
▁manifesta	-10.6339
▁maravilha	-10.6339
▁microscópio	-10.6339
▁obstáculo	-10.6339
▁prioridade	-10.6339
▁avanço	-10.6339
▁promessa	-10.6339
▁perfura	-10.6339
▁mentais	-10.6339
▁bolsa	-10.6339
▁Homem	-10.6339
▁documenta	-10.6339
▁común	-10.634
▁exposição	-10.6341
▁muta	-10.6345
▁neno	-10.6346
▁Big	-10.6348
▁ilusão	-10.6349
▁chan	-10.635
▁placa	-10.6355
íveis	-10.6355
▁sobrevive	-10.6357
▁SI	-10.6367
▁praia	-10.6367
▁explicação	-10.6376
▁americano	-10.6377
▁respondeu	-10.6381
▁reação	-10.6385
▁Usa	-10.6385
▁belo	-10.6386
▁piada	-10.6387
pont	-10.6411
riba	-10.6418
▁amar	-10.6424
▁acabado	-10.6436
▁naturalmente	-10.6444
▁artigos	-10.6445
▁apercebi	-10.6447
▁toque	-10.646
▁interessados	-10.6473
▁empreendedor	-10.6477
▁limitado	-10.6484
▁atingi	-10.6484
▁verdes	-10.6488
▁Joe	-10.6505
▁estarem	-10.6506
▁xen	-10.6535
▁dimens	-10.6546
▁virar	-10.6553
▁Nenhum	-10.6556
▁YouTube	-10.6556
▁armazena	-10.6556
▁diploma	-10.6556
▁envellece	-10.6556
▁incentivos	-10.6556
▁saudáveis	-10.6556
▁voluntário	-10.6556
▁ambiental	-10.6556
▁violenta	-10.6556
uropeia	-10.6556
▁França	-10.6556
▁website	-10.6556
▁permanente	-10.6556
▁aventura	-10.6556
▁Richar	-10.6556
▁ótima	-10.6557
▁disposto	-10.6557
▁desliga	-10.6558
▁fracasso	-10.656
▁poboaci	-10.6561
▁nervoso	-10.6562
▁calcula	-10.6563
▁aproveitar	-10.6563
▁resistente	-10.6565
▁assusta	-10.657
▁aprov	-10.6571
▁mon	-10.6573
▁refere	-10.6573
▁Paul	-10.6573
▁setembro	-10.6581
egu	-10.6585
▁coral	-10.6595
▁mortos	-10.6596
▁fornece	-10.6599
ancia	-10.6603
▁passada	-10.6608
▁concentrar	-10.661
▁associa	-10.6612
▁viera	-10.6612
▁Dois	-10.6616
ótica	-10.6616
▁equaç	-10.6621
▁ordenador	-10.6624
▁saco	-10.6625
ilha	-10.6631
▁trabalhava	-10.6634
▁dormir	-10.6634
▁escrev	-10.6642
nifica	-10.6647
▁costas	-10.666
▁ajudam	-10.6667
▁escoita	-10.6669
▁fronteiras	-10.6671
▁químicos	-10.6677
▁Nada	-10.6685
▁virem	-10.6697
▁corta	-10.6699
und	-10.672
▁acelerar	-10.6725
▁traduzi	-10.6727
chei	-10.6728
guei	-10.6744
▁curar	-10.6754
▁aspectos	-10.6757
▁religi	-10.6759
▁data	-10.676
▁impedir	-10.6771
▁eliminar	-10.6771
▁Ban	-10.6775
▁Significa	-10.6778
▁aconteça	-10.6778
▁ajudou	-10.6778
▁colónia	-10.6778
▁distinto	-10.6778
▁especiais	-10.6778
▁influência	-10.6778
▁inglés	-10.6778
▁jardim	-10.6778
▁liderança	-10.6778
▁ligeiramente	-10.6778
▁mamífero	-10.6778
▁encaixa	-10.6778
▁refleti	-10.6778
▁resolu	-10.6778
▁ultra	-10.6778
▁biblioteca	-10.6778
▁fósseis	-10.6778
▁trauma	-10.6778
▁flui	-10.6779
▁levá	-10.6779
▁estima	-10.6779
▁conquista	-10.6779
▁engano	-10.678
▁condena	-10.6781
▁remata	-10.6782
▁Thom	-10.6782
▁pilha	-10.6784
▁chá	-10.6785
▁Podia	-10.6785
▁separar	-10.6786
▁Moita	-10.6788
íxen	-10.6788
▁adicion	-10.6788
▁Gab	-10.6795
▁falei	-10.6798
▁carga	-10.6811
▁nano	-10.6812
▁corrida	-10.6812
▁Arte	-10.6816
▁salvo	-10.6828
▁esconder	-10.683
▁abordar	-10.6842
▁perdemos	-10.686
▁entusiasmado	-10.6862
▁excep	-10.687
▁testemunha	-10.6891
▁extremo	-10.6895
▁usou	-10.69
▁querido	-10.6917
▁africanos	-10.6924
▁fose	-10.6926
SA	-10.6926
▁habita	-10.6927
▁Hu	-10.6928
ñen	-10.6932
▁Pu	-10.6951
▁milha	-10.6964
óli	-10.6965
udio	-10.6972
▁algoritmos	-10.6976
▁criaram	-10.699
▁mecanismos	-10.6991
▁investigar	-10.6996
▁faria	-10.6997
▁comezar	-10.6999
▁Alzheimer	-10.7005
▁Número	-10.7005
▁acontecido	-10.7005
▁alcance	-10.7005
▁alegria	-10.7005
▁criminoso	-10.7005
▁crédito	-10.7005
▁discussão	-10.7005
▁distúrbio	-10.7005
▁doméstica	-10.7005
▁elétrico	-10.7005
▁entropia	-10.7005
▁referência	-10.7005
▁êxito	-10.7005
▁enerxía	-10.7005
▁interface	-10.7005
▁potência	-10.7005
▁propia	-10.7006
▁clase	-10.7006
▁sugere	-10.7006
▁Perceb	-10.7007
▁elevada	-10.7008
▁mexer	-10.7008
▁Jam	-10.701
▁corresponde	-10.7014
▁raza	-10.7014
▁ataca	-10.7017
▁inje	-10.7024
rês	-10.7031
▁disciplina	-10.7034
ony	-10.7035
▁invenç	-10.7035
▁abraç	-10.7035
▁pago	-10.7038
▁conduzi	-10.7042
▁companhias	-10.7044
ótico	-10.705
▁científicos	-10.7055
▁olhou	-10.7067
▁aproximar	-10.7071
táveis	-10.7073
▁extrem	-10.7073
▁deixá	-10.7074
▁cantar	-10.7085
org	-10.7087
ight	-10.7095
ff	-10.7097
▁osso	-10.7111
▁Medi	-10.7129
alquer	-10.7132
▁regula	-10.7159
▁mov	-10.7163
▁gerar	-10.7165
▁átomos	-10.7183
▁viaja	-10.7191
ólogos	-10.7195
▁inicial	-10.7222
▁result	-10.7222
▁passava	-10.7226
▁necesita	-10.7238
▁chimpanzé	-10.7238
▁cêntimo	-10.7238
▁dinâmica	-10.7238
▁equilíbrio	-10.7238
▁posible	-10.7238
▁protótipo	-10.7238
▁George	-10.7238
▁baleia	-10.7238
▁impulso	-10.7238
▁azuis	-10.7238
▁tráf	-10.7238
▁explosão	-10.7238
▁curiosa	-10.7238
▁macaco	-10.7238
▁comboio	-10.7238
▁Pessoa	-10.7238
▁dizendo	-10.7238
▁Web	-10.7238
▁Nessa	-10.7238
▁zum	-10.7238
▁produtividade	-10.7239
▁soldado	-10.7239
óxido	-10.724
▁fizesse	-10.724
▁salário	-10.7241
▁cujo	-10.7243
▁2007	-10.7243
▁Estive	-10.7243
▁Charles	-10.7244
▁cometa	-10.7245
▁intervenç	-10.7246
▁fixa	-10.7246
▁comunicación	-10.7247
fle	-10.7252
▁gasto	-10.7254
▁recebem	-10.7257
▁algoritmo	-10.7268
ker	-10.7277
▁vibra	-10.7277
▁Real	-10.7278
ity	-10.7281
▁decidiram	-10.7292
▁dançar	-10.7299
▁levado	-10.7299
▁caí	-10.73
▁reunir	-10.7312
▁corri	-10.7313
▁regress	-10.7313
▁lições	-10.7318
chu	-10.7322
▁comparação	-10.7323
tric	-10.7328
▁abandona	-10.7329
▁cambia	-10.733
▁ocorrer	-10.7331
▁atrai	-10.7336
▁combater	-10.7344
▁esquece	-10.7346
▁Imp	-10.7361
▁diminuir	-10.7382
▁considerado	-10.7388
▁nega	-10.7392
▁Ze	-10.7393
▁esperava	-10.7396
▁instrumentos	-10.7413
chave	-10.7415
▁agência	-10.7425
▁vende	-10.7434
▁mina	-10.7438
▁apert	-10.7441
▁dólar	-10.746
▁ví	-10.7463
▁acrescent	-10.7465
▁achava	-10.7467
▁desafia	-10.7469
Q	-10.7476
▁Presidente	-10.7476
▁dinosauro	-10.7476
▁escaravelho	-10.7476
▁evidência	-10.7476
▁filósofo	-10.7476
▁inimigo	-10.7476
▁intestino	-10.7476
▁mostrei	-10.7476
▁necessita	-10.7476
▁prosperidade	-10.7476
▁prótese	-10.7476
▁visuais	-10.7476
▁choque	-10.7476
▁percurso	-10.7477
▁anúncio	-10.7477
▁correcta	-10.7478
▁XXI	-10.7478
▁cheiro	-10.7479
▁categoria	-10.7479
▁vaca	-10.7481
▁hipo	-10.7481
▁instante	-10.7482
▁ativista	-10.7484
▁amplia	-10.7486
▁radiaç	-10.7486
tima	-10.7487
▁capitalism	-10.7493
▁lago	-10.7493
▁basta	-10.7493
▁mellore	-10.7495
▁carregar	-10.7499
cioso	-10.7507
tus	-10.7507
▁forza	-10.7507
▁Olhem	-10.7511
▁botão	-10.7527
▁chegam	-10.7534
▁Ouvi	-10.754
▁saiu	-10.7542
▁portát	-10.7547
▁ocorreu	-10.7552
▁arco	-10.7554
▁relacionado	-10.7555
UU	-10.7556
▁discutir	-10.7574
▁componentes	-10.7576
▁Pete	-10.7577
▁reconhece	-10.7578
▁invi	-10.7581
▁industrial	-10.7587
▁esquecer	-10.7608
▁aprendem	-10.761
tismo	-10.7627
▁rico	-10.7638
▁vela	-10.764
▁Encontr	-10.7646
sibilidade	-10.7647
▁Fre	-10.7654
▁posto	-10.7657
▁revelar	-10.766
▁mencion	-10.7686
▁conserva	-10.7695
▁voc	-10.7698
▁250	-10.7706
▁correta	-10.7713
▁comporta	-10.7719
lândia	-10.772
▁aquecimento	-10.772
▁arquitectura	-10.772
▁candidato	-10.772
▁conectoma	-10.772
▁envelhecimento	-10.772
▁imigrante	-10.772
▁ingrediente	-10.772
▁músico	-10.772
▁publicidade	-10.772
▁úteis	-10.772
▁lembrem	-10.772
▁mínimo	-10.772
▁orçamento	-10.772
▁acumula	-10.772
▁rexión	-10.772
▁modela	-10.772
▁market	-10.772
▁retrato	-10.772
▁arrast	-10.7721
▁Museu	-10.7721
▁tornei	-10.7721
▁profundidade	-10.7721
▁obtive	-10.7721
▁empeza	-10.7721
▁sintomas	-10.7722
▁vá	-10.7723
▁coidado	-10.7723
▁xust	-10.7723
▁99	-10.7723
▁sementes	-10.7727
▁xeración	-10.7727
▁neve	-10.7732
▁fugir	-10.7733
▁biólogo	-10.7734
▁PM	-10.7737
30	-10.7738
ntal	-10.7743
▁vinha	-10.7745
▁nuvem	-10.7749
▁abrigo	-10.7751
▁eficazes	-10.7752
▁linda	-10.7753
▁ficamos	-10.7754
▁perigosa	-10.7755
▁Ki	-10.7761
iña	-10.7761
▁tiro	-10.7772
▁Espera	-10.7772
▁empurra	-10.7785
pta	-10.7786
▁sentada	-10.7787
▁existi	-10.7787
▁lida	-10.7791
bviamente	-10.78
cub	-10.7805
▁regular	-10.7805
toria	-10.781
mbora	-10.7811
▁representação	-10.7817
▁cozinhar	-10.7818
▁empregado	-10.7826
▁sector	-10.783
▁Park	-10.7849
▁acabam	-10.7854
▁significativo	-10.7865
▁doce	-10.7865
▁planea	-10.7866
▁pregunt	-10.7875
▁assin	-10.7883
triz	-10.7884
▁Ua	-10.7886
▁ética	-10.7887
lice	-10.7904
▁Som	-10.7905
▁Wo	-10.7912
ladas	-10.7917
▁questionar	-10.7929
▁responsáve	-10.7947
▁tomada	-10.795
▁resta	-10.7956
▁iam	-10.796
▁representar	-10.7962
▁rever	-10.7963
▁representam	-10.7968
▁CRISPR	-10.797
▁FOX	-10.797
▁Michael	-10.797
▁amanhã	-10.797
▁circunstâncias	-10.797
▁descoberto	-10.797
▁evoluí	-10.797
▁horrível	-10.797
▁lógica	-10.797
▁músculo	-10.797
▁negocia	-10.797
▁tribuna	-10.797
▁cinema	-10.797
▁hidro	-10.797
▁relatório	-10.797
▁curioso	-10.797
▁tijolo	-10.797
▁recrut	-10.797
▁bolso	-10.797
▁incerteza	-10.797
▁curta	-10.797
▁menino	-10.7971
▁detecta	-10.7971
▁biológico	-10.7971
▁mantêm	-10.7971
▁colaps	-10.7972
▁Times	-10.7973
▁sanita	-10.7974
▁leitura	-10.7974
▁Nesse	-10.7974
▁favorito	-10.7975
▁espiritual	-10.7975
▁Aquela	-10.7975
▁detetar	-10.7977
▁extrair	-10.7978
▁Faça	-10.7979
▁Lin	-10.7984
▁mold	-10.7988
▁inspiração	-10.7991
▁CO	-10.7993
▁Mary	-10.7996
▁circula	-10.7997
▁caminhar	-10.7997
▁sabor	-10.8002
terminado	-10.8006
▁monitoriza	-10.8022
▁alter	-10.8029
▁consiste	-10.8033
▁relato	-10.8033
▁amosar	-10.8034
▁interna	-10.8037
ólogo	-10.8038
▁adolescente	-10.8039
▁vítima	-10.804
▁louca	-10.804
▁Ár	-10.8042
▁recurso	-10.8043
▁morreram	-10.8043
▁instrumento	-10.8047
▁preferida	-10.8049
▁Fizemo	-10.8061
▁Gol	-10.8064
ior	-10.8073
▁recorda	-10.8082
▁preferido	-10.8084
▁desenvolvemos	-10.8088
▁escoitar	-10.8091
▁pensou	-10.8102
▁observamos	-10.8117
▁inde	-10.8118
▁Podería	-10.8121
▁permanece	-10.8134
tentei	-10.8145
▁vaso	-10.8158
▁Meu	-10.8163
iño	-10.8169
▁levam	-10.8176
▁atacar	-10.8184
▁tendem	-10.8192
▁capita	-10.8197
▁k	-10.8221
▁transpar	-10.8226
▁satisfa	-10.8226
▁MIT	-10.8226
▁XIX	-10.8226
▁crucial	-10.8226
▁desperdício	-10.8226
▁dignidade	-10.8226
▁flexíve	-10.8226
▁ilegal	-10.8226
▁intelectual	-10.8226
▁morcego	-10.8226
▁recicla	-10.8226
▁Consider	-10.8226
▁navegar	-10.8226
▁teatro	-10.8226
▁solución	-10.8226
▁correcto	-10.8226
▁telhado	-10.8227
▁chinês	-10.8227
▁biológica	-10.8227
▁atinge	-10.8227
▁destruir	-10.8227
▁Grã	-10.8228
▁Mulher	-10.8228
▁famosa	-10.8229
▁essência	-10.8229
▁voltou	-10.8233
▁cuja	-10.8233
▁partilhado	-10.8237
▁recorre	-10.824
▁Her	-10.825
itude	-10.8251
▁Inter	-10.8255
culos	-10.8273
▁tio	-10.8276
▁mudam	-10.828
▁roubar	-10.8281
▁preferi	-10.829
▁perdida	-10.8291
▁Basic	-10.8303
▁aprend	-10.8308
▁ocorr	-10.8309
dutor	-10.8311
ney	-10.8313
▁prestar	-10.8314
redor	-10.8315
ficiente	-10.8321
▁dici	-10.8321
▁composto	-10.8325
LA	-10.8327
▁pergunt	-10.8351
▁executa	-10.8352
▁Tinham	-10.8365
▁rota	-10.8376
▁construír	-10.8377
▁descrev	-10.8407
▁entrega	-10.8409
clama	-10.8416
▁funcione	-10.8428
▁reside	-10.8436
ciência	-10.8445
berg	-10.845
vés	-10.8452
sistem	-10.8455
▁achar	-10.8457
▁mega	-10.8471
▁constru	-10.8474
▁consiga	-10.8478
▁Aprendi	-10.8489
lóxico	-10.849
▁igreja	-10.849
▁inevitáve	-10.849
▁necessariamente	-10.849
▁percentagem	-10.849
▁privilégio	-10.849
▁respondi	-10.849
▁veterano	-10.849
▁evidente	-10.849
▁tremenda	-10.849
▁iniciativa	-10.849
▁receptor	-10.849
▁gasolin	-10.849
▁agulha	-10.849
▁declara	-10.849
▁religiosa	-10.849
▁visível	-10.849
▁hábito	-10.849
▁éxito	-10.8491
▁camiño	-10.8491
▁vencedor	-10.8491
▁presença	-10.8493
▁ficção	-10.8494
▁escapar	-10.8494
▁puxa	-10.8496
▁inspira	-10.8499
▁nutriente	-10.85
▁Hoxe	-10.8501
▁conex	-10.8502
erra	-10.8504
▁preparados	-10.8504
▁automóvel	-10.8505
▁impressionante	-10.8509
▁bateria	-10.8509
▁pergunto	-10.8512
▁Ciro	-10.8515
▁emociona	-10.852
▁sinta	-10.8521
▁recon	-10.8522
▁Coca	-10.8528
▁acusa	-10.8534
▁falsa	-10.8544
▁pura	-10.8545
▁percebem	-10.8545
ario	-10.8545
▁Estud	-10.8545
▁nucleares	-10.8548
▁gesto	-10.855
▁recusa	-10.8554
▁recu	-10.856
▁agarrar	-10.8561
tenta	-10.8561
▁notável	-10.8566
gueira	-10.857
▁multiplica	-10.8581
▁africano	-10.8586
▁galáxia	-10.8587
▁fabricante	-10.8588
▁regra	-10.8589
▁canta	-10.8595
▁Quais	-10.8597
▁partilhada	-10.8643
fé	-10.8648
▁compreende	-10.8659
▁rir	-10.8667
▁caminh	-10.8669
▁Ig	-10.8672
▁faga	-10.8675
▁escurid	-10.8681
▁w	-10.8686
cionado	-10.8691
▁devolv	-10.8692
▁recolhe	-10.8697
▁vol	-10.8702
▁pla	-10.8724
▁soma	-10.8732
▁calcular	-10.8754
▁transmiti	-10.8758
▁envelhece	-10.876
▁Prémio	-10.876
▁aleatória	-10.876
▁celebra	-10.876
▁escondida	-10.876
▁iPhone	-10.876
▁mañá	-10.876
▁ningunha	-10.876
▁preconceito	-10.876
▁procedimento	-10.876
▁suicida	-10.876
▁tecnológica	-10.876
▁tópico	-10.876
▁universitário	-10.876
▁divulga	-10.876
▁genético	-10.876
▁cámara	-10.876
▁respeita	-10.876
▁justo	-10.876
▁defesa	-10.876
▁fechado	-10.876
▁196	-10.876
nny	-10.876
▁insulin	-10.876
▁cultivo	-10.8761
▁Robert	-10.8761
▁espazo	-10.8763
▁humor	-10.8764
▁mito	-10.8765
▁transparente	-10.8765
woo	-10.8766
▁radio	-10.8767
▁bolha	-10.8768
abilidade	-10.8772
▁demostra	-10.8772
▁36	-10.8772
▁Querem	-10.8773
▁tubo	-10.8773
▁excitante	-10.8775
▁significava	-10.8775
áron	-10.8779
▁retina	-10.8793
▁funções	-10.8798
▁resolve	-10.8798
▁barra	-10.8806
tributo	-10.8811
bé	-10.8812
▁diso	-10.8813
▁concord	-10.8813
▁competição	-10.8827
▁influencia	-10.8828
▁descer	-10.8828
▁conduz	-10.8836
▁operação	-10.8843
▁viven	-10.8849
▁determinada	-10.885
▁Jon	-10.8856
▁Mande	-10.8864
▁consequência	-10.8873
▁criatura	-10.8878
▁pintar	-10.8886
Cola	-10.8895
▁autoriza	-10.8895
▁barb	-10.8899
▁vaga	-10.8903
▁volver	-10.8911
▁rai	-10.8913
▁construi	-10.8928
▁concorda	-10.8943
▁contribuir	-10.8946
▁vendedor	-10.8956
▁metal	-10.8964
▁conform	-10.8965
rey	-10.8968
▁Dix	-10.8974
▁disco	-10.8988
▁ningué	-10.8993
▁centra	-10.9
▁publicado	-10.9007
▁morrem	-10.9018
gram	-10.9024
tula	-10.903
rris	-10.9035
▁Amazóni	-10.9038
▁Darwin	-10.9038
▁William	-10.9038
▁capítulo	-10.9038
▁instalações	-10.9038
▁judeu	-10.9038
▁maçã	-10.9038
▁microfone	-10.9038
▁tragédia	-10.9038
▁Direito	-10.9038
▁eficiência	-10.9038
▁amarelo	-10.9038
▁medula	-10.9038
▁pirata	-10.9038
▁Paquist	-10.9038
sucedido	-10.9038
▁equipo	-10.9038
▁vegeta	-10.9038
▁video	-10.9038
▁atitude	-10.9038
▁limpo	-10.9038
▁exigi	-10.9038
▁cópia	-10.9039
▁nariz	-10.9039
▁contamina	-10.904
▁toler	-10.904
rizon	-10.9041
▁alucinación	-10.9041
▁especificamente	-10.9043
▁vencer	-10.9045
ómica	-10.9045
▁casca	-10.9046
▁lento	-10.9049
▁diária	-10.905
▁pagamento	-10.905
▁ocidental	-10.9051
▁choc	-10.9053
▁Anti	-10.9055
scola	-10.9057
fiquem	-10.9057
▁domínio	-10.9058
▁muro	-10.9059
▁32	-10.9059
▁cru	-10.907
▁premi	-10.9074
▁crescente	-10.9076
▁capa	-10.9077
▁limi	-10.9086
▁houvesse	-10.9089
▁sugeri	-10.909
▁aponta	-10.9096
▁grit	-10.91
▁visualiza	-10.91
traves	-10.9104
▁utilizando	-10.9104
▁estabelecer	-10.9109
▁estivessem	-10.9112
▁lança	-10.9113
▁Dá	-10.9118
▁tridimensiona	-10.9121
▁constitui	-10.9124
▁percebemos	-10.9125
▁valoriza	-10.9142
▁pessoalmente	-10.9144
▁ombro	-10.9145
▁protege	-10.9148
▁fri	-10.9162
▁químico	-10.9165
▁estatística	-10.9166
▁corpora	-10.9168
▁relaciona	-10.9171
▁vas	-10.9182
▁lindo	-10.9182
▁entusiasma	-10.9191
▁tirada	-10.9206
▁Creo	-10.9207
▁trocar	-10.9207
▁ficava	-10.9213
▁Fazemo	-10.9215
gráfico	-10.9239
▁trai	-10.924
▁desistir	-10.9249
▁estiveram	-10.9256
▁saltar	-10.9275
SP	-10.9278
▁avaliar	-10.9279
▁reto	-10.928
▁estará	-10.9281
▁domina	-10.9285
▁deixam	-10.9287
▁brilha	-10.9289
cabaram	-10.9295
scal	-10.9298
▁fascina	-10.9303
▁cultiva	-10.9304
▁gravar	-10.9308
▁respira	-10.9311
▁conceb	-10.9317
▁julga	-10.9319
▁Dou	-10.9319
▁sorri	-10.932
paração	-10.9321
▁cirurgiã	-10.9323
▁duplica	-10.9323
▁emergente	-10.9323
▁garrafa	-10.9323
▁líquido	-10.9323
▁prisioneiro	-10.9323
▁ângulo	-10.9323
▁ONG	-10.9323
▁adequada	-10.9323
▁gratuita	-10.9323
▁resistir	-10.9323
▁desesperada	-10.9323
▁preenche	-10.9323
▁Decidi	-10.9323
▁reagir	-10.9323
▁Ciência	-10.9323
▁eletrónica	-10.9323
▁expressa	-10.9323
▁fisicamente	-10.9324
▁inverno	-10.9324
▁Desculp	-10.9324
▁montaña	-10.9325
▁irrita	-10.9325
ministro	-10.9325
▁admitir	-10.9325
▁acreditava	-10.9326
▁mestre	-10.9326
▁enfrentamos	-10.9326
▁luxo	-10.9326
▁apaixonada	-10.9327
▁lançamento	-10.9328
▁faixa	-10.9328
▁ódio	-10.9329
▁aspira	-10.933
▁dominante	-10.9335
▁Unidas	-10.9335
▁pesar	-10.9336
▁habitat	-10.9336
▁acessível	-10.9339
▁atop	-10.9341
▁surgiu	-10.9347
▁raro	-10.9353
▁perfi	-10.9355
érica	-10.9364
▁funcional	-10.9365
▁andam	-10.9371
▁fondo	-10.9374
▁verificar	-10.9374
▁Nat	-10.9374
▁refei	-10.9379
▁correto	-10.9391
▁pediu	-10.9392
▁falou	-10.9397
▁Junt	-10.9413
▁tam	-10.9414
▁ido	-10.9434
▁viaj	-10.9448
▁65	-10.9467
▁mir	-10.9468
▁participante	-10.9469
▁unir	-10.9476
▁captar	-10.9478
▁ocasi	-10.948
▁Lua	-10.9486
▁chegaram	-10.9504
▁Gan	-10.9508
▁volt	-10.9509
▁imaxina	-10.9511
▁fornecer	-10.9514
▁morri	-10.9518
▁sequenci	-10.9531
cultura	-10.9532
plan	-10.9534
orden	-10.9539
▁escutar	-10.9543
▁pel	-10.9543
unha	-10.9551
▁poñer	-10.9554
▁interessado	-10.9559
▁origina	-10.956
sistência	-10.9562
▁definir	-10.9563
▁sentirem	-10.9571
▁treinar	-10.9575
▁falava	-10.9583
veriam	-10.9584
▁contact	-10.9587
▁carrega	-10.9589
▁distribu	-10.9599
zinha	-10.961
▁orden	-10.9613
scolhi	-10.9616
▁legisla	-10.9617
▁Central	-10.9617
▁World	-10.9617
▁ansiedade	-10.9617
▁corrupção	-10.9617
▁currículo	-10.9617
▁diabetes	-10.9617
▁distancia	-10.9617
▁espetacular	-10.9617
▁hotel	-10.9617
▁informática	-10.9617
▁injustiça	-10.9617
▁manuscrito	-10.9617
▁película	-10.9617
▁transformou	-10.9617
▁tuberculose	-10.9617
▁argumenta	-10.9617
▁arroz	-10.9617
▁espelho	-10.9617
▁infinita	-10.9617
▁dúzia	-10.9617
▁encantado	-10.9617
▁parceria	-10.9617
▁superfici	-10.9617
▁diagrama	-10.9617
▁condición	-10.9618
▁ecológica	-10.9618
▁ajust	-10.9618
▁abertura	-10.9618
posición	-10.9618
▁pénis	-10.9618
▁internacionais	-10.9618
▁liceu	-10.9618
▁quisesse	-10.9618
▁promete	-10.9619
ísica	-10.9621
▁investigación	-10.9622
▁gaña	-10.9624
▁aviso	-10.9625
▁alemã	-10.9627
▁passagem	-10.9628
▁metano	-10.9628
▁guiar	-10.963
▁cadra	-10.9631
▁patr	-10.9639
▁acción	-10.9643
▁põe	-10.9646
ick	-10.9646
▁jur	-10.9656
ificação	-10.9657
▁inclusiv	-10.9659
▁tele	-10.966
▁motores	-10.9665
▁hiper	-10.9667
sustentabilidade	-10.9674
▁conseguirem	-10.9676
▁poli	-10.9678
▁observação	-10.9699
▁potencialmente	-10.97
▁director	-10.9721
▁chamava	-10.9724
▁imaxinar	-10.9725
▁indicador	-10.9731
▁preocupação	-10.9736
▁Esa	-10.9745
▁barri	-10.9748
▁associado	-10.9759
▁queixa	-10.9774
▁Bab	-10.9782
▁ignorar	-10.9789
▁inspirar	-10.9799
▁evita	-10.9829
pós	-10.9833
▁encontrado	-10.9835
▁mí	-10.9848
gosto	-10.9848
DI	-10.9863
▁bota	-10.9866
▁melhoria	-10.9894
▁tornado	-10.9895
▁comparar	-10.9898
▁perdi	-10.9903
▁limpar	-10.9904
▁impress	-10.9905
▁orgulho	-10.9907
▁conseguiram	-10.991
mite	-10.991
▁grau	-10.9915
▁generaliza	-10.992
▁ajudá	-10.992
▁astronauta	-10.992
▁cobertura	-10.992
▁comprimido	-10.992
▁concluir	-10.992
▁corazón	-10.992
▁diferencia	-10.992
▁musical	-10.992
▁principio	-10.992
▁valioso	-10.992
▁vigilância	-10.992
▁índice	-10.992
▁Saúde	-10.992
▁expedi	-10.992
▁Ruanda	-10.992
ómetro	-10.9921
▁raíz	-10.9921
▁abuso	-10.9921
▁memoria	-10.9921
▁primata	-10.9921
▁turma	-10.9921
▁sexta	-10.9921
▁dicía	-10.9921
▁olhá	-10.9921
▁convencido	-10.9921
xéne	-10.9922
▁directamente	-10.9922
▁lobo	-10.9922
▁condiciona	-10.9922
▁rap	-10.9923
▁proibi	-10.9925
▁pontua	-10.9928
▁escultura	-10.9928
▁2005	-10.9929
▁publicar	-10.9931
▁movemento	-10.9931
avera	-10.9931
▁ambi	-10.9933
▁negativo	-10.9934
▁diário	-10.9939
▁confiante	-10.994
▁Algo	-10.994
▁obxectivo	-10.9944
▁comezou	-10.9947
▁surpreendido	-10.9949
▁Bob	-10.9955
▁Passa	-10.9956
sola	-10.9957
▁apontar	-10.9957
▁Cente	-10.996
▁manual	-10.996
▁reino	-10.9963
▁alimentação	-10.9965
▁apaga	-10.9967
torio	-10.9971
▁assistência	-10.9971
▁psico	-10.9972
▁Pedi	-10.9978
▁mergulho	-10.9983
▁saca	-10.9999
▁Kan	-11.0001
▁Mira	-11.0009
▁rejeita	-11.0011
▁Chic	-11.0012
▁passeio	-11.0012
▁regresso	-11.0019
▁organizado	-11.0025
▁desenvolveu	-11.0042
▁verifica	-11.0049
▁Cria	-11.0061
▁limitada	-11.0081
▁volve	-11.0089
▁Cost	-11.0099
▁componente	-11.0103
▁cumprir	-11.0108
▁assegurar	-11.0112
dução	-11.0117
▁especializa	-11.0131
▁contribu	-11.0143
nteriores	-11.0153
▁poñe	-11.0163
▁tratado	-11.0164
▁190	-11.0166
poder	-11.0175
▁precis	-11.0203
peito	-11.0221
envolvimento	-11.0224
▁exclu	-11.023
▁NASA	-11.0233
▁Neanderta	-11.0233
▁Professor	-11.0233
▁Públic	-11.0233
▁absoluto	-11.0233
▁britânico	-11.0233
▁cilindro	-11.0233
▁estrangeiro	-11.0233
▁gabinete	-11.0233
▁hacker	-11.0233
▁lâmpada	-11.0233
▁movimenta	-11.0233
▁mágico	-11.0233
▁orixina	-11.0233
▁personagens	-11.0233
▁romance	-11.0233
▁vulneráveis	-11.0233
▁vulgar	-11.0233
▁externa	-11.0233
▁bigode	-11.0233
▁degrada	-11.0233
▁diverso	-11.0233
▁pareça	-11.0233
▁variáve	-11.0233
▁etiqueta	-11.0233
▁profiss	-11.0233
▁terramoto	-11.0233
▁coluna	-11.0233
▁conseguí	-11.0233
▁concerto	-11.0233
▁retorno	-11.0233
▁quaisquer	-11.0233
▁poeta	-11.0233
▁ocupado	-11.0234
▁Gostava	-11.0234
▁Sabia	-11.0234
▁entidade	-11.0235
ctuais	-11.0235
▁ruído	-11.0235
▁resistencia	-11.0235
▁recibi	-11.0235
▁policia	-11.0236
▁cognitivo	-11.0236
▁Gates	-11.0237
▁coletiva	-11.0238
ovembro	-11.0238
▁vello	-11.0239
▁globalização	-11.0239
▁investidores	-11.0239
▁assumir	-11.0241
▁desafiar	-11.0242
▁correio	-11.0243
▁acende	-11.0243
▁alerta	-11.0244
▁Funda	-11.0247
▁ergue	-11.0247
▁sonhar	-11.0248
▁decide	-11.0253
ngue	-11.0254
▁cultivar	-11.0254
▁adulta	-11.0255
▁produzem	-11.0258
▁invisíveis	-11.0259
▁Diga	-11.0261
▁grá	-11.0262
▁contraste	-11.0271
governamenta	-11.0272
▁Parti	-11.0281
▁introduzi	-11.0284
▁leite	-11.0285
▁extin	-11.0287
▁puser	-11.0301
▁fariam	-11.0302
▁piores	-11.0303
▁perdeu	-11.0308
embro	-11.0308
▁Gran	-11.0315
▁joga	-11.0316
▁associada	-11.0321
▁preguntar	-11.0323
▁desenvolv	-11.0323
▁inspirado	-11.0324
▁aumentou	-11.0332
▁pedimos	-11.0332
▁adop	-11.0354
▁conhecia	-11.0354
▁comete	-11.0355
niso	-11.0357
olly	-11.0369
▁apareci	-11.0371
▁tap	-11.0406
▁vivir	-11.0408
▁Estaba	-11.0417
▁entendi	-11.0421
▁bactéria	-11.0438
▁neurónio	-11.044
raça	-11.0475
leta	-11.0504
RA	-11.0521
▁neto	-11.0525
▁sú	-11.0527
▁aproveit	-11.053
▁Passe	-11.0534
▁Naquel	-11.0554
róstata	-11.0556
▁Imaxin	-11.0556
▁arquiteto	-11.0556
▁centímetro	-11.0556
▁configura	-11.0556
▁duplo	-11.0556
▁edificio	-11.0556
▁experimento	-11.0556
▁livrar	-11.0556
▁parecida	-11.0556
▁robótica	-11.0556
▁sanguíneo	-11.0556
▁Nelson	-11.0556
▁companheiro	-11.0556
▁especula	-11.0556
▁passámos	-11.0556
▁rurais	-11.0556
▁vertical	-11.0556
▁Procur	-11.0556
▁infla	-11.0556
▁confirma	-11.0556
▁Coloca	-11.0556
▁remoto	-11.0556
▁jamai	-11.0556
▁franca	-11.0557
▁foguet	-11.0557
▁the	-11.0557
▁resili	-11.0558
▁esqueci	-11.0558
▁mudá	-11.0559
▁define	-11.0559
▁disposta	-11.0559
▁ferida	-11.056
▁Senhor	-11.056
passageiro	-11.056
▁julgamento	-11.0561
▁giro	-11.0562
panhe	-11.0564
▁morais	-11.0564
▁191	-11.0564
▁oculta	-11.0564
▁estimativa	-11.0564
▁distra	-11.0566
▁interno	-11.057
▁haber	-11.0572
▁centrais	-11.0572
▁Síri	-11.0578
▁grão	-11.0589
▁aparecem	-11.059
▁projetar	-11.0591
▁avançada	-11.0592
▁promo	-11.0593
▁reunião	-11.0594
▁emiti	-11.0601
▁testa	-11.0601
▁abriu	-11.0615
▁partida	-11.0615
vul	-11.0615
▁juntam	-11.0616
▁funcionamento	-11.0621
▁ultrapassa	-11.0625
▁apresentação	-11.0625
▁cana	-11.0637
▁esperto	-11.0639
▁eletr	-11.064
▁fus	-11.0641
▁espon	-11.0653
▁contou	-11.0659
▁regime	-11.0659
▁permanecer	-11.0673
▁cumpri	-11.0686
scrição	-11.0687
sani	-11.0687
▁crescem	-11.0694
▁escava	-11.0696
▁Van	-11.0696
nés	-11.0698
▁Observ	-11.0722
spacial	-11.0722
▁professora	-11.0729
▁adorar	-11.0741
ónica	-11.0753
▁venha	-11.0759
▁mirar	-11.0762
▁pesado	-11.0766
▁cli	-11.0768
▁condiç	-11.0771
▁calha	-11.0774
▁colec	-11.0774
▁coller	-11.0777
▁habitual	-11.0793
▁intenciona	-11.0795
▁planear	-11.0796
yan	-11.0809
▁sexua	-11.0825
▁coñece	-11.0835
▁assisti	-11.084
▁impor	-11.0855
▁pretende	-11.0858
cionamento	-11.0888
+	-11.0889
▁Ocidental	-11.0889
▁Street	-11.0889
▁brincadeira	-11.0889
▁brinquedo	-11.0889
▁eficácia	-11.0889
▁empréstimo	-11.0889
▁enfermeira	-11.0889
▁engraçado	-11.0889
▁licença	-11.0889
▁ridícul	-11.0889
▁secundária	-11.0889
▁smartphone	-11.0889
▁tamaño	-11.0889
▁cães	-11.0889
▁desempenha	-11.0889
▁empresário	-11.0889
▁equilibra	-11.0889
▁expressõe	-11.0889
▁prolonga	-11.0889
▁Texas	-11.0889
▁demasiada	-11.0889
▁fertiliza	-11.0889
▁inveja	-11.0889
▁reforça	-11.0889
▁explodi	-11.0889
▁pression	-11.0889
▁esquizofr	-11.0889
▁recife	-11.0889
▁esmagado	-11.0889
▁diversas	-11.0889
▁propio	-11.0889
▁tranquil	-11.0889
▁conduci	-11.0889
▁mapear	-11.0889
▁Brun	-11.0889
▁ventila	-11.0889
▁acabá	-11.0889
▁vapor	-11.0889
▁compensa	-11.089
▁dê	-11.089
▁paradoxo	-11.089
▁financiamento	-11.089
▁colocou	-11.0891
▁transmissão	-11.0891
▁esgota	-11.0891
▁deixei	-11.0891
▁lê	-11.0892
▁Sub	-11.0892
▁exposto	-11.0893
▁separado	-11.0896
▁Quanta	-11.0896
▁otimis	-11.0899
▁apelo	-11.09
▁Basta	-11.0901
▁exige	-11.0902
▁Mark	-11.0903
▁negativa	-11.0903
▁pinto	-11.0903
▁Sinto	-11.0904
▁Vê	-11.0908
▁inventor	-11.0913
▁emocionante	-11.0915
▁excremento	-11.0916
utub	-11.0921
▁tumores	-11.0922
▁Chega	-11.0928
▁agita	-11.0928
▁tanque	-11.0931
▁cobra	-11.0946
▁sustenta	-11.0951
▁mellorar	-11.0953
▁solares	-11.0965
▁avançado	-11.0968
▁deixaram	-11.0968
▁canal	-11.0973
▁encontrou	-11.0996
▁pense	-11.0999
▁escada	-11.1005
▁Lei	-11.1009
▁acu	-11.1031
▁dur	-11.1033
▁195	-11.1039
▁teto	-11.106
▁testemunh	-11.1061
▁nó	-11.1077
▁leitor	-11.1085
▁lavar	-11.1098
▁quebrar	-11.1102
▁aconteceria	-11.1105
▁sab	-11.1121
▁electr	-11.1124
▁acreditem	-11.113
gradável	-11.1136
▁educ	-11.1148
J	-11.115
édia	-11.1156
▁nutri	-11.116
gência	-11.1166
▁montar	-11.119
▁circular	-11.1196
▁potencia	-11.1203
tempo	-11.1203
▁excita	-11.1215
▁Comece	-11.1228
eamento	-11.1228
▁introdu	-11.1233
▁Lembram	-11.1234
▁explicou	-11.1234
▁aeroporto	-11.1234
▁clássico	-11.1234
▁divertida	-11.1234
▁dupla	-11.1234
▁estúdio	-11.1234
▁europeu	-11.1234
▁horizonte	-11.1234
▁obcecado	-11.1234
▁obxecto	-11.1234
▁personagem	-11.1234
▁suicídio	-11.1234
▁tempestade	-11.1234
▁transferência	-11.1234
▁chinesa	-11.1234
▁Leonard	-11.1234
▁automática	-11.1234
▁celular	-11.1234
▁havido	-11.1234
taneamente	-11.1234
▁infra	-11.1234
▁vén	-11.1234
▁desporto	-11.1234
▁aparência	-11.1234
▁doutoramento	-11.1234
▁sucede	-11.1234
▁pormenor	-11.1234
▁precisávamos	-11.1235
▁infant	-11.1235
▁Martin	-11.1235
▁adiante	-11.1236
morou	-11.1236
▁Podía	-11.1236
▁Conselh	-11.1238
▁intelixente	-11.1238
íssimo	-11.1239
ópia	-11.1239
▁Super	-11.124
▁resolvido	-11.124
▁protesto	-11.1241
▁Arqui	-11.1241
▁beira	-11.1244
▁colaboradores	-11.1245
▁impedi	-11.1246
▁26	-11.1248
▁contig	-11.1251
▁Má	-11.1252
▁facia	-11.1253
▁pronta	-11.1253
▁mentalidade	-11.1264
▁vital	-11.1269
ícia	-11.1271
▁trabalhado	-11.1271
▁geri	-11.1274
▁Record	-11.1275
▁activo	-11.1276
▁Natal	-11.1278
▁1.	-11.1279
▁foco	-11.1284
iñeiro	-11.1298
▁Mundo	-11.1298
▁colocado	-11.1307
▁nena	-11.1309
▁respirar	-11.1312
▁lidera	-11.1313
bage	-11.1318
▁escuta	-11.1325
▁investiga	-11.1334
▁Desta	-11.1349
▁fará	-11.1355
▁dominar	-11.1379
DE	-11.1392
▁visualizar	-11.141
▁fita	-11.1411
▁perguntaram	-11.1413
▁nese	-11.1414
▁grato	-11.1431
▁afastado	-11.1433
▁haveria	-11.1434
▁pinta	-11.1443
▁abandonar	-11.1451
▁demorar	-11.1475
▁relacionar	-11.149
▁Casa	-11.1507
▁cliente	-11.1512
▁vizinho	-11.1513
▁liderar	-11.1514
▁adulto	-11.1529
NA	-11.1532
▁introduzir	-11.1533
▁II	-11.1554
▁120	-11.1564
▁ilus	-11.1572
rdu	-11.1577
▁brinc	-11.1581
▁dependente	-11.1582
▁integr	-11.1583
▁continuava	-11.1584
▁discrimina	-11.1591
▁urbaniza	-11.1591
▁Congresso	-11.1591
▁Scott	-11.1591
▁agradecer	-11.1591
▁anatomia	-11.1591
▁desconfortáve	-11.1591
▁dinossauro	-11.1591
▁economía	-11.1591
▁egípcio	-11.1591
▁entusiasmo	-11.1591
▁escondido	-11.1591
▁frigorífico	-11.1591
▁improvisa	-11.1591
▁justifica	-11.1591
▁orgânico	-11.1591
▁preocupe	-11.1591
▁raciocínio	-11.1591
▁sagrado	-11.1591
▁simpático	-11.1591
▁supermercado	-11.1591
▁típica	-11.1591
▁órbita	-11.1591
▁ONU	-11.1591
▁adequado	-11.1591
▁bandeira	-11.1591
▁humilde	-11.1591
▁oficial	-11.1591
▁abrandar	-11.1591
▁corrigir	-11.1591
▁furac	-11.1591
▁idiota	-11.1591
▁angaria	-11.1591
▁educativo	-11.1591
▁possivel	-11.1591
▁sufri	-11.1591
▁descobre	-11.1591
▁nalgum	-11.1591
▁Centro	-11.1591
▁agressiv	-11.1591
▁Cerca	-11.1591
▁Manhat	-11.1591
▁futura	-11.1591
▁brazo	-11.1591
▁parcial	-11.1591
▁permita	-11.1591
▁enganado	-11.1591
▁óleo	-11.1591
▁Islão	-11.1591
▁religioso	-11.1591
▁encolhe	-11.1591
▁agrupa	-11.1591
▁urso	-11.1592
▁Melhor	-11.1592
▁comedia	-11.1592
▁contido	-11.1592
▁quarta	-11.1592
▁secreta	-11.1593
▁contente	-11.1593
▁recém	-11.1593
▁camiña	-11.1594
▁Deixa	-11.1594
▁corredor	-11.1596
▁agrega	-11.1596
▁elabor	-11.1597
▁uniforme	-11.16
▁infección	-11.1601
▁exista	-11.1606
▁fosso	-11.1607
▁cuart	-11.1609
▁vasto	-11.1609
▁traço	-11.1612
▁extinção	-11.1616
▁vasta	-11.1618
▁2001	-11.1619
▁astrónomos	-11.1619
▁corporal	-11.1621
▁estica	-11.1629
▁promover	-11.1636
▁idosa	-11.1639
reparem	-11.1643
ilicon	-11.1644
▁coñecer	-11.1644
▁copo	-11.1651
▁compreendemos	-11.1655
▁mentir	-11.1665
▁Hum	-11.1703
▁600	-11.1713
▁Emma	-11.1719
▁acorda	-11.1727
▁fraco	-11.1738
▁migr	-11.1758
▁800	-11.1761
prime	-11.1763
▁recordar	-11.1798
americano	-11.1811
▁vota	-11.1815
vagar	-11.1816
▁agard	-11.1819
▁sustentar	-11.1822
▁darlle	-11.1828
ergu	-11.1857
▁baseia	-11.1869
▁surgi	-11.1875
X	-11.1877
▁partícula	-11.1897
▁copia	-11.1901
▁materia	-11.1921
▁infeliz	-11.1937
▁considerada	-11.1938
ntin	-11.1945
▁espacia	-11.1951
▁compromet	-11.1955
▁Cambridge	-11.1961
▁abundância	-11.1961
▁acontecia	-11.1961
▁alavanca	-11.1961
▁beneficio	-11.1961
▁chineses	-11.1961
▁clube	-11.1961
▁cuestión	-11.1961
▁discussões	-11.1961
▁distinguir	-11.1961
▁divertir	-11.1961
▁doloroso	-11.1961
▁feedback	-11.1961
▁francês	-11.1961
▁futebol	-11.1961
▁jornada	-11.1961
▁jornais	-11.1961
▁minúsculo	-11.1961
▁recoñece	-11.1961
▁transplante	-11.1961
▁urbana	-11.1961
▁desfruta	-11.1961
▁incorpora	-11.1961
▁ténis	-11.1961
▁urgência	-11.1961
▁ajude	-11.1961
▁ciúme	-11.1961
▁estaminais	-11.1961
▁vestido	-11.1961
▁exigência	-11.1961
▁marítim	-11.1961
▁enferma	-11.1961
▁polui	-11.1961
▁justa	-11.1961
▁rural	-11.1961
▁palma	-11.1962
▁tecla	-11.1962
▁imigração	-11.1962
▁poliniza	-11.1962
▁intensidade	-11.1962
▁africana	-11.1962
▁porcento	-11.1962
▁grego	-11.1962
▁àquele	-11.1962
▁Mostra	-11.1962
▁fechar	-11.1963
▁usei	-11.1963
▁sitio	-11.1963
▁fluorescente	-11.1964
▁inclina	-11.1964
▁desenvolvida	-11.1964
▁virtude	-11.1964
▁confort	-11.1965
▁borda	-11.1965
▁chame	-11.1967
▁relacionamento	-11.1967
▁vario	-11.1968
▁RM	-11.1969
▁ferro	-11.197
▁favorita	-11.197
▁confund	-11.197
▁nascimento	-11.1971
▁prega	-11.1971
▁clicar	-11.1972
▁tribo	-11.1972
▁excesso	-11.1976
▁deriva	-11.1977
▁fotógrafo	-11.1979
strut	-11.1979
▁apaixonado	-11.1983
▁aplicación	-11.1984
▁remov	-11.1985
▁entusiasmante	-11.1994
▁adorava	-11.1996
▁adv	-11.1996
▁Aprende	-11.1996
▁inicialmente	-11.2
▁gama	-11.2001
▁educar	-11.2002
▁Lá	-11.2003
▁peor	-11.2004
▁psicólogo	-11.2006
▁revolucion	-11.2011
▁intensa	-11.2012
▁intenção	-11.2015
▁parou	-11.2019
▁ub	-11.2023
▁Gar	-11.2032
▁merc	-11.2043
▁Pela	-11.2043
▁desapare	-11.2049
▁redond	-11.2054
▁sensíve	-11.2057
▁Dizem	-11.206
▁metais	-11.2061
▁lonxe	-11.2061
▁Continua	-11.2077
▁sentí	-11.209
▁saído	-11.2102
▁marabillosa	-11.2109
▁magn	-11.2113
▁salta	-11.2161
▁trabalhador	-11.2166
▁Eric	-11.2212
▁incluir	-11.2216
▁sabede	-11.2223
▁replic	-11.223
▁influenciar	-11.2249
▁nuve	-11.225
tecnologia	-11.2262
▁psic	-11.228
▁Mag	-11.2282
▁documento	-11.2296
▁abelha	-11.2297
▁detalhe	-11.2299
▁tê	-11.2303
▁examin	-11.2305
▁apaixon	-11.2318
▁terror	-11.2332
▁múltipl	-11.2338
logicamente	-11.2344
▁Suécia	-11.2346
▁amizade	-11.2346
▁cerveja	-11.2346
▁democrático	-11.2346
▁desconhecida	-11.2346
▁desperdiç	-11.2346
▁diapositivo	-11.2346
▁energética	-11.2346
▁espectro	-11.2346
▁estadounidense	-11.2346
▁estímulo	-11.2346
▁harmon	-11.2346
▁inspirou	-11.2346
▁instalação	-11.2346
▁lacuna	-11.2346
▁sofisticado	-11.2346
▁substância	-11.2346
▁violento	-11.2346
▁computação	-11.2346
▁espello	-11.2346
▁filmar	-11.2346
▁precedente	-11.2346
▁comerciais	-11.2346
▁tradições	-11.2346
▁consulta	-11.2346
▁filtra	-11.2346
▁xenial	-11.2346
▁Lembre	-11.2346
▁milagre	-11.2346
▁Palestin	-11.2346
▁piloto	-11.2346
▁nalgún	-11.2346
▁Justin	-11.2346
▁Pouco	-11.2346
▁razoáve	-11.2346
▁orelha	-11.2346
▁blogue	-11.2346
▁noticia	-11.2346
▁pausa	-11.2347
▁selvagem	-11.2347
▁balão	-11.2347
▁aleatori	-11.2347
▁densidade	-11.2347
▁inunda	-11.2347
▁Nike	-11.2348
▁cognitiva	-11.2348
▁disparo	-11.2348
▁àquela	-11.2348
▁separada	-11.2349
▁bordo	-11.2349
▁paraíso	-11.2349
▁aviões	-11.2349
▁posibilidade	-11.235
▁Nick	-11.2351
▁penic	-11.2351
▁remover	-11.2351
▁soño	-11.2351
▁GG	-11.2352
▁colectiva	-11.2352
▁isolado	-11.2354
▁ficá	-11.2354
traumátic	-11.2354
▁silenciosa	-11.2354
▁vitória	-11.2355
▁Jenn	-11.2356
nforme	-11.2356
▁Liber	-11.2356
▁India	-11.2359
▁esquina	-11.2359
▁doutra	-11.2359
▁28	-11.2361
ware	-11.2362
▁peço	-11.2362
▁inventou	-11.2362
▁calça	-11.2363
▁fusão	-11.2368
émolo	-11.2373
▁pastor	-11.2373
▁inglesa	-11.2374
▁respiração	-11.2376
▁función	-11.238
▁conservação	-11.2381
▁cimento	-11.2381
▁amarra	-11.2392
▁juntá	-11.2394
tentou	-11.2396
▁0,	-11.2411
▁bloquear	-11.2418
▁copiar	-11.2432
▁desenvolveram	-11.244
prima	-11.2442
▁tomate	-11.2458
▁Jane	-11.2463
egr	-11.2466
▁acordar	-11.2468
▁louc	-11.2473
▁iniciar	-11.2478
▁fumar	-11.2481
▁traduç	-11.2487
▁torre	-11.2505
real	-11.2519
▁Fale	-11.2532
▁conseguiria	-11.254
▁Usamo	-11.2552
▁resolv	-11.2564
▁95	-11.2567
▁utilizá	-11.2569
▁defend	-11.2589
▁Jun	-11.2598
pareceram	-11.2615
▁Core	-11.263
ábia	-11.2633
juntamente	-11.265
frica	-11.2673
▁Nig	-11.2681
▁conseguisse	-11.2681
▁adopta	-11.2696
viv	-11.2697
▁existencia	-11.2701
▁sabía	-11.2727
grafo	-11.2733
▁alucina	-11.274
▁inspirador	-11.2743
peto	-11.2743
▁coincid	-11.2744
▁fác	-11.2745
Ó	-11.2746
▁abundante	-11.2746
▁anónima	-11.2746
▁assassina	-11.2746
▁açúcar	-11.2746
▁brillante	-11.2746
▁chocolate	-11.2746
▁conxunt	-11.2746
▁destruída	-11.2746
▁egoísta	-11.2746
▁espetáculo	-11.2746
▁expectativa	-11.2746
▁gratidão	-11.2746
▁humanitário	-11.2746
▁incapacidade	-11.2746
▁inquérito	-11.2746
▁introvertido	-11.2746
▁israelita	-11.2746
▁milénio	-11.2746
▁mobiliza	-11.2746
▁optimista	-11.2746
▁paradigma	-11.2746
▁puzzle	-11.2746
▁reinventar	-11.2746
▁telefónica	-11.2746
▁transformá	-11.2746
▁típico	-11.2746
▁túnel	-11.2746
▁Norueg	-11.2746
▁assinatura	-11.2746
▁desespero	-11.2746
▁fragmento	-11.2746
▁horror	-11.2746
▁práctica	-11.2746
▁ícone	-11.2746
▁efetiva	-11.2746
▁juven	-11.2746
fício	-11.2746
▁colheita	-11.2746
▁engenho	-11.2746
▁suporte	-11.2746
▁telescopio	-11.2746
▁computaciona	-11.2746
▁concreto	-11.2746
▁eleitores	-11.2746
▁penetra	-11.2746
▁vermello	-11.2746
▁sinapse	-11.2746
▁minoria	-11.2746
▁arranca	-11.2746
▁multa	-11.2746
▁xenética	-11.2746
▁maluco	-11.2746
▁envolvida	-11.2747
▁gordura	-11.2747
▁relva	-11.2747
cionista	-11.2747
▁aceder	-11.2747
▁visión	-11.2747
frontal	-11.2748
▁escolhido	-11.2748
▁chocante	-11.2748
▁anual	-11.2749
▁chove	-11.2751
▁sorriso	-11.2751
▁mobilidade	-11.2751
▁conceber	-11.2753
▁sobreviventes	-11.2753
▁Despo	-11.2753
▁convencional	-11.2755
▁renováveis	-11.2755
▁solid	-11.2757
▁continuou	-11.2757
▁finais	-11.2758
▁quilos	-11.2759
▁polariza	-11.2759
▁constitu	-11.276
▁MT	-11.2761
▁produce	-11.2764
▁cómo	-11.2765
▁reator	-11.277
▁denso	-11.2771
▁definición	-11.2779
▁Ilha	-11.2783
▁Ment	-11.2787
▁canción	-11.2789
▁examinar	-11.2789
▁poupa	-11.2794
▁insisti	-11.2798
▁Parte	-11.28
▁planifica	-11.2808
▁desat	-11.2811
▁Tre	-11.2818
▁questiona	-11.2819
▁passea	-11.2824
▁mama	-11.2835
▁cave	-11.2844
poñe	-11.2861
utono	-11.2861
▁160	-11.2864
▁inclui	-11.287
▁acordado	-11.2878
▁viral	-11.2882
▁acheg	-11.2884
▁atingido	-11.2892
itz	-11.2907
▁Tenta	-11.292
▁substitui	-11.2929
▁tentámo	-11.2964
▁Junta	-11.2997
ombros	-11.3006
rganização	-11.3006
atch	-11.3025
▁caracter	-11.303
ítica	-11.3031
▁projet	-11.3051
missões	-11.3056
dez	-11.3077
estrutura	-11.3082
▁Wall	-11.3094
▁independ	-11.3095
▁encontrá	-11.3115
▁atraí	-11.3125
▁comezo	-11.3128
▁impressiona	-11.3131
tembro	-11.3132
▁fugi	-11.3139
▁automóve	-11.314
▁acessíve	-11.3142
▁cidadão	-11.3148
▁erradica	-11.3162
xtraterrestre	-11.3162
▁Amazon	-11.3162
▁Hubble	-11.3162
▁Humanidade	-11.3162
▁aconselha	-11.3162
▁aterroriza	-11.3162
▁biodiversidade	-11.3162
▁cinzento	-11.3162
▁considero	-11.3162
▁dicionário	-11.3162
▁diâmetro	-11.3162
▁episódio	-11.3162
▁estúpida	-11.3162
▁fabrico	-11.3162
▁fígado	-11.3162
▁fórmula	-11.3162
▁incomoda	-11.3162
▁indígena	-11.3162
▁inesperado	-11.3162
▁minúscula	-11.3162
▁módulo	-11.3162
▁preservativo	-11.3162
▁secretária	-11.3162
▁simplific	-11.3162
▁tecnológico	-11.3162
▁teléfono	-11.3162
▁trajetória	-11.3162
▁tweet	-11.3162
▁xigante	-11.3162
▁xorna	-11.3162
▁óbvia	-11.3162
▁plateia	-11.3163
▁glicos	-11.3163
▁emergência	-11.3163
▁Green	-11.3163
▁multidão	-11.3163
▁pioneiro	-11.3163
▁lanço	-11.3163
▁considere	-11.3163
▁despedi	-11.3163
▁rúa	-11.3163
▁autista	-11.3163
▁divide	-11.3163
▁Brian	-11.3163
▁esquema	-11.3163
▁slide	-11.3163
▁nalgun	-11.3163
mónio	-11.3163
▁Parkinson	-11.3163
▁tabu	-11.3163
▁forneci	-11.3163
▁propens	-11.3163
▁secreto	-11.3163
▁Vale	-11.3163
▁formou	-11.3164
▁indiano	-11.3164
▁fotografía	-11.3164
▁sobrevivi	-11.3164
▁Criança	-11.3164
ílio	-11.3165
▁describ	-11.3165
▁concurso	-11.3166
▁Inici	-11.3167
▁filosofia	-11.3167
▁asocia	-11.3168
▁goza	-11.3168
▁coñecemento	-11.3168
▁goste	-11.3169
▁cheira	-11.3169
▁adicional	-11.317
▁lançado	-11.317
▁fã	-11.317
▁múltiplas	-11.3171
▁anaco	-11.3171
▁séria	-11.3171
▁tropicais	-11.3172
volución	-11.3173
▁mozo	-11.3174
▁trigo	-11.3177
▁reuniões	-11.3177
▁gusta	-11.3177
▁vexa	-11.3178
▁Gene	-11.3179
▁Tiña	-11.318
▁laço	-11.318
▁acrescentar	-11.3183
▁Flor	-11.3186
▁cargo	-11.3187
xía	-11.3187
▁alinha	-11.3191
▁capace	-11.3191
▁escritores	-11.3192
edicina	-11.3194
▁illa	-11.32
leste	-11.3201
▁predador	-11.3205
▁parasita	-11.3207
▁piso	-11.3209
ccidente	-11.322
▁Colle	-11.322
▁exponencial	-11.3223
▁Médi	-11.3229
▁mencionar	-11.3233
▁preocupante	-11.3249
▁tede	-11.3281
▁prato	-11.3295
▁telefon	-11.3342
▁preparada	-11.336
each	-11.3363
▁execu	-11.3375
▁litera	-11.3377
▁substituí	-11.3386
▁frac	-11.3386
▁indu	-11.3395
OR	-11.3397
▁politica	-11.3403
sopa	-11.3425
▁marabillos	-11.3426
omé	-11.3444
▁direto	-11.3445
▁clic	-11.3447
▁Continu	-11.3463
▁repetida	-11.347
▁percepç	-11.3473
▁Precis	-11.3487
▁relativ	-11.3501
▁etern	-11.3502
▁fixera	-11.3506
▁avança	-11.351
▁doutor	-11.3514
▁radica	-11.3515
ibera	-11.3524
ológica	-11.3532
PA	-11.3544
▁falh	-11.3557
▁Jim	-11.358
cionar	-11.3591
lóxica	-11.3597
▁Construí	-11.3597
▁procurá	-11.3597
▁Antártida	-11.3597
▁aborrecido	-11.3597
▁diagnosticado	-11.3597
▁eléctrica	-11.3597
▁eléctrico	-11.3597
▁estivé	-11.3597
▁feminina	-11.3597
▁hambúrguer	-11.3597
▁idêntica	-11.3597
▁infinito	-11.3597
▁jardin	-11.3597
▁joelho	-11.3597
▁juíz	-11.3597
▁móveis	-11.3597
▁nódulo	-11.3597
▁pirâmide	-11.3597
▁prejudica	-11.3597
▁reflecti	-11.3597
▁repensar	-11.3597
▁Funciona	-11.3597
▁inconsciente	-11.3597
▁mecânico	-11.3597
▁recomenda	-11.3597
▁automático	-11.3597
▁masculino	-11.3597
▁origens	-11.3597
▁antecipa	-11.3597
▁prisões	-11.3597
▁decisión	-11.3597
▁filtro	-11.3597
▁Story	-11.3597
▁máscara	-11.3597
▁reflete	-11.3597
▁abandono	-11.3597
▁pólen	-11.3597
▁arquivo	-11.3597
▁fechada	-11.3597
▁instalar	-11.3597
▁Simples	-11.3597
▁fraude	-11.3597
▁caverna	-11.3598
▁drama	-11.3598
▁ascens	-11.3598
▁eletrónico	-11.3598
▁enviou	-11.3598
▁póster	-11.3598
▁recorde	-11.3598
▁instinto	-11.3598
▁Josh	-11.3598
▁rodeia	-11.3599
▁passiva	-11.3599
▁cruel	-11.3599
▁peguei	-11.36
▁remota	-11.36
▁comprender	-11.36
▁prédio	-11.36
▁Jesu	-11.36
▁blog	-11.36
▁etapa	-11.36
▁transações	-11.3601
▁sensat	-11.3601
▁impede	-11.3602
▁bosque	-11.3602
abilóni	-11.3602
▁fô	-11.3602
▁civi	-11.3602
▁magoa	-11.3604
▁carteira	-11.3604
▁condução	-11.3607
▁desagradáve	-11.361
▁29	-11.3611
▁viaxa	-11.3612
▁escoll	-11.3613
▁mercar	-11.3613
▁pecha	-11.3614
▁despert	-11.3616
▁intuição	-11.3616
▁puni	-11.3617
▁altruísta	-11.3619
▁Chamo	-11.3622
▁Contra	-11.3623
▁Scho	-11.3626
Corp	-11.363
riedade	-11.364
stria	-11.364
▁contest	-11.3642
▁derrete	-11.3644
▁garage	-11.3649
▁sentei	-11.3649
▁concordar	-11.3662
▁cale	-11.3668
▁luc	-11.3693
▁residente	-11.3697
▁densa	-11.3701
móvel	-11.3709
ncialmente	-11.3731
▁habitante	-11.374
▁evit	-11.3759
▁Sara	-11.3779
▁fotografa	-11.3795
▁700	-11.3805
▁propaga	-11.3848
olhei	-11.3859
▁discuti	-11.3865
▁critica	-11.39
▁prove	-11.3908
▁empurr	-11.3931
órdi	-11.3944
órum	-11.3948
têm	-11.3966
pouco	-11.397
▁gui	-11.3976
zero	-11.3997
▁começava	-11.4002
▁defende	-11.4005
▁assumi	-11.404
▁chegue	-11.4042
ânico	-11.405
Í	-11.4052
▁circun	-11.4052
▁desencade	-11.4052
▁solucionar	-11.4052
génese	-11.4052
▁Atlanta	-11.4052
▁Brown	-11.4052
▁Pacífico	-11.4052
▁ambientais	-11.4052
▁atribui	-11.4052
▁concluí	-11.4052
▁contemporâne	-11.4052
▁estufa	-11.4052
▁feminino	-11.4052
▁garantia	-11.4052
▁golpe	-11.4052
▁imediato	-11.4052
▁lágrimas	-11.4052
▁microbiana	-11.4052
▁oficiais	-11.4052
▁partilhá	-11.4052
▁quarteir	-11.4052
▁quotidiana	-11.4052
▁regenera	-11.4052
▁responsabiliz	-11.4052
▁sinxela	-11.4052
▁sinxelo	-11.4052
▁sofisticada	-11.4052
▁síndrome	-11.4052
▁Smith	-11.4052
▁brutal	-11.4052
▁conspira	-11.4052
▁extraordinaria	-11.4052
▁histórica	-11.4052
▁repórter	-11.4052
▁revelou	-11.4052
▁valiosa	-11.4052
fortuna	-11.4052
▁efectiva	-11.4052
▁percepción	-11.4052
▁Chile	-11.4052
▁globo	-11.4052
▁dilema	-11.4052
▁carrinha	-11.4052
▁medicação	-11.4052
▁Jean	-11.4052
▁profeta	-11.4052
▁pulso	-11.4052
▁ecológico	-11.4052
▁analogia	-11.4052
▁interroga	-11.4052
▁memoriz	-11.4052
▁acepta	-11.4052
▁legado	-11.4052
▁protexer	-11.4052
▁eólica	-11.4052
ministra	-11.4052
▁cristal	-11.4052
MA	-11.4052
▁amplo	-11.4052
▁Ébola	-11.4052
▁psicologia	-11.4053
▁chamá	-11.4053
▁segrega	-11.4053
▁confortável	-11.4053
▁Terceir	-11.4053
▁pânico	-11.4053
▁acadar	-11.4054
▁Holly	-11.4055
▁atuais	-11.4055
▁registar	-11.4055
▁preveni	-11.4056
▁Mike	-11.4056
▁laser	-11.4056
▁transcri	-11.4057
▁agenda	-11.4057
▁conservadores	-11.4057
▁comprometer	-11.406
▁concebido	-11.406
▁Espere	-11.4061
▁alega	-11.4064
▁discord	-11.4064
▁previsões	-11.4068
▁Long	-11.407
▁enviá	-11.407
▁engenheiro	-11.4076
▁perito	-11.4077
ssonância	-11.4077
▁admit	-11.4079
▁Pega	-11.4093
▁estrat	-11.4099
▁kit	-11.4102
▁pretend	-11.4116
basti	-11.4118
▁pisca	-11.413
▁Naquele	-11.4135
arecía	-11.4149
▁concorr	-11.4153
▁restante	-11.4167
▁marge	-11.4176
▁acopl	-11.4185
cirurgiões	-11.4193
▁afund	-11.4228
▁usem	-11.4244
▁aproxim	-11.4253
▁converti	-11.4281
▁criminal	-11.4324
▁digitaliza	-11.433
▁Oxf	-11.4335
▁delicad	-11.4344
▁cour	-11.4355
▁MR	-11.4385
▁prové	-11.4395
▁estabelece	-11.4406
▁preve	-11.4427
▁progress	-11.4433
demais	-11.4445
gurança	-11.4446
untu	-11.4464
▁restaura	-11.4498
▁ocidenta	-11.4505
▁correspond	-11.4509
▁Corre	-11.451
▁evolucion	-11.4512
vexo	-11.4512
▁Revolu	-11.4516
nternacional	-11.4527
istério	-11.4528
▁dificulta	-11.4528
▁Andrew	-11.4528
▁Android	-11.4528
▁aperfeiço	-11.4528
▁artístico	-11.4528
▁barbearia	-11.4528
▁consentimento	-11.4528
▁convincente	-11.4528
▁corajosa	-11.4528
▁desflorestação	-11.4528
▁dopamina	-11.4528
▁energético	-11.4528
▁escenario	-11.4528
▁escribir	-11.4528
▁estigma	-11.4528
▁fortalece	-11.4528
▁ingresos	-11.4528
▁largura	-11.4528
▁magnífico	-11.4528
▁piscina	-11.4528
▁procrastina	-11.4528
▁publicou	-11.4528
▁rastreio	-11.4528
▁reconstruç	-11.4528
▁satisfeito	-11.4528
▁subjacente	-11.4528
▁térmica	-11.4528
Donald	-11.4528
▁carácter	-11.4528
▁japon	-11.4528
▁urgente	-11.4528
instantaneamente	-11.4528
▁High	-11.4528
▁aérea	-11.4528
▁feminista	-11.4528
▁namorada	-11.4528
▁rabisca	-11.4528
▁reproduzir	-11.4528
▁cociña	-11.4528
▁definitivamente	-11.4528
▁educativa	-11.4528
▁neural	-11.4528
▁Conheci	-11.4528
▁implanta	-11.4528
▁tiroteio	-11.4528
▁xunta	-11.4528
▁favela	-11.4528
▁regulamenta	-11.4528
▁Escreve	-11.4528
▁Começo	-11.4528
▁Goliat	-11.4528
▁fingir	-11.4528
íssima	-11.4528
▁Saturn	-11.4529
▁orbita	-11.4529
▁óssea	-11.4529
▁gelado	-11.4529
▁confortáveis	-11.4529
▁resume	-11.4529
▁Líbia	-11.4529
▁homo	-11.4529
▁coberto	-11.4529
▁encripta	-11.4529
▁firme	-11.453
▁robot	-11.453
▁mudei	-11.453
▁Globa	-11.453
bjetiva	-11.453
▁prático	-11.4531
▁Algún	-11.4532
tío	-11.4532
▁sólido	-11.4532
▁Jack	-11.4532
▁exclusiva	-11.4532
▁familiarizado	-11.4533
drena	-11.4533
▁gota	-11.4533
▁invasiva	-11.4534
▁paralelo	-11.4534
▁Franc	-11.4534
▁Venez	-11.4535
▁opción	-11.4535
▁entendimento	-11.4535
▁matern	-11.4537
▁febre	-11.4537
▁mergulhar	-11.4539
▁sorprendente	-11.4539
▁habitación	-11.454
pólio	-11.454
▁72	-11.4542
▁tirei	-11.4543
▁libre	-11.4543
▁doutro	-11.4544
▁exibi	-11.4545
▁viaxe	-11.4545
▁recuar	-11.4548
▁Matt	-11.4548
▁coletivo	-11.4549
▁manua	-11.4558
▁clique	-11.4559
▁propri	-11.4561
▁adivinhar	-11.4564
▁fundador	-11.4577
profe	-11.4582
▁organizada	-11.4583
erdão	-11.4589
▁puro	-11.4593
▁mutante	-11.4615
▁continue	-11.4618
▁convic	-11.4621
mbia	-11.4622
▁lanz	-11.4632
47	-11.4668
ésia	-11.4701
▁propagand	-11.4747
utores	-11.4756
▁soubesse	-11.4793
▁Gor	-11.4817
▁falecid	-11.4828
▁percorre	-11.4855
▁bó	-11.489
▁Aprendemo	-11.4894
▁dormi	-11.4894
▁lonxev	-11.4894
▁traball	-11.4895
▁utiliz	-11.4897
▁prender	-11.4904
▁mergulh	-11.4914
Y	-11.4944
▁pesc	-11.4953
▁imediata	-11.5004
cript	-11.5005
▁intui	-11.5006
▁revoluç	-11.501
▁agricultor	-11.5012
▁promove	-11.5021
▁precise	-11.5026
▁fronte	-11.5027
▁Britânic	-11.5028
▁CMU	-11.5028
▁DVD	-11.5028
▁Daniel	-11.5028
▁Exército	-11.5028
▁Gandhi	-11.5028
▁Jeopardy	-11.5028
▁adolescencia	-11.5028
▁candidata	-11.5028
▁catástrofe	-11.5028
▁censura	-11.5028
▁colmeia	-11.5028
▁compañeir	-11.5028
▁compañía	-11.5028
▁contínua	-11.5028
▁credibilidade	-11.5028
▁cromossoma	-11.5028
▁endereço	-11.5028
▁estatuto	-11.5028
▁guerreiro	-11.5028
▁homicídio	-11.5028
▁horríveis	-11.5028
▁idêntico	-11.5028
▁inacreditáve	-11.5028
▁lâmina	-11.5028
▁multiverso	-11.5028
▁navegador	-11.5028
▁orgânica	-11.5028
▁pequenina	-11.5028
▁primordial	-11.5028
▁pulmões	-11.5028
▁sustentáveis	-11.5028
▁tubarões	-11.5028
▁álbum	-11.5028
▁cobrir	-11.5028
▁incentiva	-11.5028
▁limpeza	-11.5028
▁subestima	-11.5028
▁colisão	-11.5028
▁galeria	-11.5028
▁ideologia	-11.5028
▁sensación	-11.5028
▁território	-11.5028
▁escravos	-11.5028
▁juiz	-11.5028
▁diarreia	-11.5028
▁acceso	-11.5028
▁constroem	-11.5028
▁tabela	-11.5028
▁derrub	-11.5028
▁sotaque	-11.5028
▁respect	-11.5028
▁impressora	-11.5028
▁estabeleci	-11.5028
▁levantou	-11.5028
▁producir	-11.5028
▁tatuage	-11.5028
▁irmán	-11.5028
▁terrestre	-11.5028
▁magnética	-11.5028
▁fuga	-11.5028
▁entorno	-11.5029
▁intimida	-11.5029
▁ecologia	-11.5029
▁grávida	-11.5029
▁comportamenta	-11.5029
▁Geral	-11.5029
▁dirige	-11.5029
▁externo	-11.5029
▁gradual	-11.5029
▁gustaría	-11.5029
▁gruta	-11.5029
▁monstro	-11.5029
▁assinala	-11.503
▁avance	-11.503
▁microbio	-11.503
ridge	-11.503
▁seringa	-11.5031
▁cadea	-11.5031
▁tradutor	-11.5031
▁templo	-11.5031
▁xir	-11.5032
▁balea	-11.5032
▁hard	-11.5032
▁Tanto	-11.5033
▁funera	-11.5033
▁educadores	-11.5033
▁racional	-11.5034
▁paisagens	-11.5034
▁barriga	-11.5035
▁reduzida	-11.5035
▁desexo	-11.5036
▁fizeste	-11.5036
▁selva	-11.5036
▁orgulhoso	-11.5038
▁Law	-11.5038
▁punha	-11.504
▁Encontrei	-11.5041
▁orgulhosa	-11.5041
▁esperma	-11.5041
▁aprendiza	-11.5041
▁invas	-11.5043
▁peza	-11.5056
▁interesa	-11.5056
▁semellante	-11.5065
▁embri	-11.5068
▁atraente	-11.509
▁educado	-11.5093
▁tripl	-11.51
▁gostaría	-11.5103
▁aborda	-11.5113
▁cartaz	-11.5126
▁interage	-11.5136
issão	-11.5168
▁Encontrámo	-11.5172
▁depend	-11.5193
▁detecç	-11.5203
zinho	-11.5217
lóri	-11.5221
▁bebe	-11.5314
▁ascend	-11.5339
▁triba	-11.5362
RB	-11.5366
▁ganhe	-11.5382
campo	-11.5472
▁chor	-11.5499
▁artificia	-11.5518
▁ampli	-11.5532
prendeu	-11.5542
▁Bitcoin	-11.5554
▁Brooklyn	-11.5554
▁Gustaría	-11.5554
▁Matemática	-11.5554
▁Project	-11.5554
▁ancestral	-11.5554
▁armadilha	-11.5554
▁blockchain	-11.5554
▁cachorro	-11.5554
▁cadáver	-11.5554
▁cinzenta	-11.5554
▁consecuencia	-11.5554
▁cualificación	-11.5554
▁democratiza	-11.5554
▁diagnose	-11.5554
▁diagnosticar	-11.5554
▁efectivo	-11.5554
▁eleitoral	-11.5554
▁elétrica	-11.5554
▁enfermeiro	-11.5554
▁estrés	-11.5554
▁gratuito	-11.5554
▁gémeo	-11.5554
▁helicóptero	-11.5554
▁hemisfério	-11.5554
▁humilhação	-11.5554
▁ilegais	-11.5554
▁imunitário	-11.5554
▁inesperada	-11.5554
▁institución	-11.5554
▁lançámo	-11.5554
▁leopardo	-11.5554
▁membrana	-11.5554
▁milímetro	-11.5554
▁musicais	-11.5554
▁oficina	-11.5554
▁palestino	-11.5554
▁preferência	-11.5554
▁quantia	-11.5554
▁reconstruí	-11.5554
▁relógio	-11.5554
▁semelhança	-11.5554
▁sincroniza	-11.5554
▁submarino	-11.5554
▁vulnerável	-11.5554
▁árbore	-11.5554
▁abstrac	-11.5554
▁brilho	-11.5554
▁cigarro	-11.5554
▁dixital	-11.5554
▁inocente	-11.5554
▁mutuamente	-11.5554
▁questionário	-11.5554
▁Geogra	-11.5554
▁catedra	-11.5554
▁formiga	-11.5554
▁julho	-11.5554
▁redefini	-11.5554
▁Parecia	-11.5554
▁tradición	-11.5554
▁fruta	-11.5554
▁reconheç	-11.5554
▁mostrá	-11.5554
▁dádiva	-11.5554
▁aborto	-11.5554
▁consultor	-11.5554
▁galinha	-11.5554
▁ocasional	-11.5554
▁aplicá	-11.5554
▁Publi	-11.5554
▁pacote	-11.5554
▁utilidade	-11.5554
▁capacita	-11.5555
▁amarela	-11.5555
▁bruto	-11.5555
▁refina	-11.5555
▁engadi	-11.5555
▁recordo	-11.5555
▁espanhol	-11.5555
▁tripula	-11.5555
▁facía	-11.5555
▁Associa	-11.5555
▁atleta	-11.5555
▁castig	-11.5555
▁interativo	-11.5555
▁exporta	-11.5555
▁traduci	-11.5555
▁Cresci	-11.5555
▁deposita	-11.5555
▁distribuído	-11.5555
▁elegante	-11.5555
▁fumo	-11.5556
▁Gius	-11.5556
▁pleno	-11.5556
▁ausência	-11.5556
▁Doaa	-11.5556
▁Certa	-11.5557
▁Archi	-11.5557
▁moldura	-11.5557
▁Whit	-11.5558
▁Juli	-11.5558
▁precioso	-11.556
▁Algunha	-11.5561
well	-11.5561
▁Moham	-11.5561
▁baby	-11.5563
▁Carolin	-11.5564
▁Uber	-11.5564
▁permissão	-11.5565
▁Hill	-11.5565
▁intersecç	-11.5566
▁Vejo	-11.5568
▁Holand	-11.5568
▁concepto	-11.5568
▁atento	-11.5573
▁emoción	-11.5576
▁Henr	-11.5585
grafia	-11.5587
She	-11.5588
▁deitado	-11.5591
▁ritual	-11.563
▁millón	-11.5661
▁apostar	-11.569
organ	-11.5695
▁interpret	-11.5696
prenderam	-11.5722
percebi	-11.5745
▁faría	-11.5765
▁nit	-11.5786
rdín	-11.5791
brimos	-11.5792
▁compará	-11.5796
▁tornámo	-11.5801
recuper	-11.5809
rude	-11.5827
▁detetor	-11.584
ssexua	-11.5842
▁histori	-11.5864
Bay	-11.5918
vivencia	-11.5929
▁rasg	-11.5972
xting	-11.5978
▁Imagin	-11.6069
▁altruís	-11.6082
▁compromis	-11.6106
▁assemelha	-11.611
▁congestiona	-11.611
▁Alexand	-11.611
▁Microsoft	-11.611
▁Saudita	-11.611
▁Scratch	-11.611
▁aglomera	-11.611
▁ambulância	-11.611
▁apropriado	-11.611
▁automaticamente	-11.611
▁celebridade	-11.611
▁comunitário	-11.611
▁contínuo	-11.611
▁crânio	-11.611
▁democrática	-11.611
▁difusão	-11.611
▁disponibiliz	-11.611
▁estômago	-11.611
▁exercicio	-11.611
▁expetativa	-11.611
▁fabulosa	-11.611
▁farmacêutica	-11.611
▁horário	-11.611
▁humanitária	-11.611
▁húmid	-11.611
▁italiano	-11.611
▁microARN	-11.611
▁orquestra	-11.611
▁patrocina	-11.611
▁protocolo	-11.611
▁psiquiatra	-11.611
▁reflexão	-11.611
▁requisito	-11.611
▁singular	-11.611
▁tsunami	-11.611
▁tóxico	-11.611
▁vitamina	-11.611
▁xubila	-11.611
▁zangado	-11.611
▁anfitri	-11.611
▁castanho	-11.611
▁conferencia	-11.611
▁derramamento	-11.611
▁estabiliza	-11.611
▁inevita	-11.611
▁invulgar	-11.611
▁inútil	-11.611
▁pronunci	-11.611
▁suspeita	-11.611
▁voluntaria	-11.611
▁vínculo	-11.611
▁artística	-11.611
▁basquete	-11.611
▁drone	-11.611
▁sincero	-11.611
▁trivial	-11.611
▁Oceano	-11.611
▁lixeira	-11.611
▁sepultura	-11.611
▁pendura	-11.611
▁Fizeram	-11.611
▁estreito	-11.611
▁inserir	-11.611
▁essenciais	-11.611
▁estreita	-11.611
▁sábado	-11.611
▁causou	-11.611
▁anónimo	-11.611
▁muscular	-11.611
▁rebelde	-11.611
▁Escrevi	-11.611
▁precoce	-11.611
▁enzima	-11.611
▁programáve	-11.611
▁dirixi	-11.611
▁arterial	-11.611
▁autentic	-11.611
▁articula	-11.611
▁reverbera	-11.611
▁desempreg	-11.611
▁ironia	-11.611
▁banana	-11.611
▁Noutra	-11.611
▁Segui	-11.611
attle	-11.611
▁magnético	-11.611
▁Nathan	-11.6111
▁controvers	-11.6111
▁Earth	-11.6111
▁alugar	-11.6111
▁biolóxica	-11.6111
▁decidí	-11.6111
▁deseñado	-11.6111
▁xenético	-11.6111
▁alegre	-11.6111
▁emerxe	-11.6111
▁mantido	-11.6111
▁neurociência	-11.6111
▁morea	-11.6111
▁estrañ	-11.6111
íbli	-11.6111
▁fogueira	-11.6111
▁inferno	-11.6112
▁Espanh	-11.6112
▁germe	-11.6112
▁coincidência	-11.6112
▁geneticamente	-11.6113
▁facilitar	-11.6113
▁Albert	-11.6113
▁1960	-11.6114
▁bossa	-11.6114
▁adormec	-11.6115
▁tortura	-11.6115
▁exato	-11.6115
clave	-11.6115
▁liguei	-11.6115
fobia	-11.6117
▁orixe	-11.6118
▁alarme	-11.6118
▁patrón	-11.6123
▁interese	-11.6125
▁poñ	-11.6131
▁West	-11.6135
▁Passá	-11.6153
▁viñ	-11.6159
ocial	-11.6199
▁gere	-11.6209
posíbe	-11.624
▁átomo	-11.6246
▁comentário	-11.6246
émoslle	-11.6291
▁explor	-11.6369
▁193	-11.6409
▁inscri	-11.6473
▁nive	-11.6522
▁veñ	-11.653
▁autó	-11.661
pública	-11.6614
frontar	-11.6642
q	-11.6647
▁semella	-11.6657
▁sínt	-11.6661
▁Inclu	-11.669
▁reabilita	-11.6698
▁secundari	-11.6698
$	-11.6698
=	-11.6698
Rabbit	-11.6698
judicial	-11.6698
tlântico	-11.6698
▁Câmara	-11.6698
▁FreeSpeech	-11.6698
▁Primeira	-11.6698
▁Stephen	-11.6698
▁Talibã	-11.6698
▁Tunísia	-11.6698
▁Utiliz	-11.6698
▁arrecife	-11.6698
▁banqueiro	-11.6698
▁campus	-11.6698
▁cemitério	-11.6698
▁congelado	-11.6698
▁constrói	-11.6698
▁contempla	-11.6698
▁coñecí	-11.6698
▁descodific	-11.6698
▁diapositiva	-11.6698
▁distinção	-11.6698
▁dramática	-11.6698
▁exprimir	-11.6698
▁heroína	-11.6698
▁individuo	-11.6698
▁líquida	-11.6698
▁manutenção	-11.6698
▁negocio	-11.6698
▁origami	-11.6698
▁pingüín	-11.6698
▁presidencia	-11.6698
▁prossegui	-11.6698
▁reconcilia	-11.6698
▁subúrbio	-11.6698
▁sussurr	-11.6698
▁trágico	-11.6698
▁óptimo	-11.6698
▁Jeff	-11.6698
▁Pergunta	-11.6698
▁abasteci	-11.6698
▁esforzo	-11.6698
▁esforça	-11.6698
▁fruto	-11.6698
▁misteriosa	-11.6698
▁necesaria	-11.6698
▁rigorosa	-11.6698
▁sintetiza	-11.6698
▁Uganda	-11.6698
▁mochila	-11.6698
▁renunci	-11.6698
▁profesiona	-11.6698
▁sujeita	-11.6698
▁batalla	-11.6698
▁conduta	-11.6698
▁espetro	-11.6698
▁mazá	-11.6698
alifornia	-11.6698
▁balança	-11.6698
▁desconfi	-11.6698
▁Stew	-11.6698
▁enigma	-11.6698
▁culinári	-11.6698
▁ultrasson	-11.6698
▁legais	-11.6698
▁prostitui	-11.6698
▁protegido	-11.6698
▁armazé	-11.6698
▁Irland	-11.6698
▁asiático	-11.6699
▁concreta	-11.6699
▁electrónico	-11.6699
▁espreita	-11.6699
▁alargar	-11.6699
▁aterrador	-11.6699
equivoca	-11.6699
▁Video	-11.6699
▁procede	-11.6699
▁asfalt	-11.6699
Ministro	-11.6699
▁tangíve	-11.6699
▁axencia	-11.6699
▁Humano	-11.6699
▁habitáve	-11.6699
▁enxeñ	-11.67
▁transmite	-11.67
▁acertar	-11.67
▁sólida	-11.67
▁cruzamento	-11.67
▁fatia	-11.67
▁Glass	-11.67
▁arranh	-11.67
▁conexión	-11.6701
▁frasco	-11.6701
iforme	-11.6701
▁aderir	-11.6702
▁psiqu	-11.6702
▁cauda	-11.6702
gradua	-11.6702
▁Wood	-11.6703
▁atrasado	-11.6703
▁primário	-11.6704
▁pegá	-11.6707
▁percebam	-11.6708
▁Cinc	-11.6709
▁dereito	-11.6711
▁vigia	-11.6712
▁viesse	-11.6713
▁executivo	-11.6717
▁aliena	-11.672
gelada	-11.6733
▁Charl	-11.6735
▁embalage	-11.6737
▁autonom	-11.6744
▁servidor	-11.6757
▁fornecedor	-11.6792
▁previsíve	-11.6804
▁mosquito	-11.6872
limp	-11.6904
▁substitu	-11.6958
▁construtor	-11.6967
dimensional	-11.7031
▁desisti	-11.7053
▁reage	-11.7237
▁detet	-11.7238
Z	-11.7239
▁canaliz	-11.7252
petição	-11.7272
trónomos	-11.7274
▁imitador	-11.7278
▁Cong	-11.728
▁denuncia	-11.7283
▁colocamo	-11.7288
▁silencio	-11.7304
▁tropica	-11.7309
▁renováve	-11.7309
▁Necesita	-11.7323
▁Academi	-11.7323
▁GCH	-11.7323
▁Jerusalém	-11.7323
▁Júpiter	-11.7323
▁Shakespear	-11.7323
▁TEDTalk	-11.7323
▁abrangente	-11.7323
▁aleatório	-11.7323
▁alzhéimer	-11.7323
▁anestesia	-11.7323
▁arquitecto	-11.7323
▁autêntico	-11.7323
▁bailarino	-11.7323
▁borracha	-11.7323
▁cidadan	-11.7323
▁crocodilo	-11.7323
▁declínio	-11.7323
▁documentário	-11.7323
▁doméstico	-11.7323
▁décimo	-11.7323
▁estúpido	-11.7323
▁gravidez	-11.7323
▁hélice	-11.7323
▁incómodo	-11.7323
▁instalación	-11.7323
▁mínima	-11.7323
▁pressuposto	-11.7323
▁problemático	-11.7323
▁proximidade	-11.7323
▁psiquiátrico	-11.7323
▁rapidez	-11.7323
▁responsable	-11.7323
▁rígido	-11.7323
▁solidariedade	-11.7323
▁subsídio	-11.7323
▁vizinhança	-11.7323
▁vocabul	-11.7323
▁CEO	-11.7323
▁calcário	-11.7323
▁cardiovascular	-11.7323
▁cicatriz	-11.7323
▁defensor	-11.7323
▁derradeir	-11.7323
▁espectacular	-11.7323
▁límite	-11.7323
▁pulmão	-11.7323
▁rituais	-11.7323
▁trastorno	-11.7323
▁tubarão	-11.7323
▁Bronx	-11.7323
▁ISI	-11.7323
▁critério	-11.7323
▁ficheiro	-11.7323
▁inúmer	-11.7323
▁maquina	-11.7323
▁procuro	-11.7323
▁Sistema	-11.7323
▁distrito	-11.7323
▁império	-11.7323
▁incluem	-11.7323
▁maciça	-11.7323
▁obedece	-11.7323
▁toalha	-11.7323
▁Árabe	-11.7323
▁interromp	-11.7323
▁rastrea	-11.7323
▁solteira	-11.7323
▁séc	-11.7323
▁gaiola	-11.7323
▁obtém	-11.7323
▁trafica	-11.7323
▁paliativ	-11.7323
▁esqueçam	-11.7323
▁síntoma	-11.7323
▁viñeta	-11.7323
▁Curios	-11.7323
▁acolhi	-11.7323
▁autónomo	-11.7323
▁arrog	-11.7323
▁descrito	-11.7323
▁direções	-11.7323
▁evapora	-11.7323
▁permít	-11.7323
▁Suponh	-11.7323
▁psicológica	-11.7323
▁Yale	-11.7323
▁posiciona	-11.7323
▁destroço	-11.7323
▁reacção	-11.7323
▁renova	-11.7324
▁centavo	-11.7324
▁irriga	-11.7324
▁crónica	-11.7324
▁intervalo	-11.7324
Gowan	-11.7324
▁reducir	-11.7324
▁televisión	-11.7324
▁obtêm	-11.7324
▁presión	-11.7325
▁Permite	-11.7325
▁exaust	-11.7325
▁prometi	-11.7325
▁Tanz	-11.7327
▁proxeri	-11.7327
▁hesit	-11.7328
▁silencioso	-11.7329
▁Roset	-11.7329
▁Indon	-11.7329
▁capitã	-11.7329
íbia	-11.733
mergir	-11.733
▁escoit	-11.7332
▁colher	-11.7339
▁economiza	-11.7344
▁ramificaç	-11.7344
▁Chamá	-11.7355
rgentin	-11.7365
▁metaboli	-11.7366
▁pusemo	-11.7386
▁existisse	-11.7512
▁confe	-11.7549
▁traduz	-11.7554
▁coll	-11.7564
▁assegura	-11.7575
▁Vinc	-11.7675
▁comercializa	-11.7759
▁fuma	-11.7771
▁esconde	-11.7835
▁relat	-11.7839
▁geografi	-11.7864
disciplina	-11.7905
célula	-11.7906
perceberam	-11.7911
▁Pergunto	-11.799
^	-11.799
▁Líbano	-11.799
▁Perguntei	-11.799
▁Tecnologi	-11.799
▁Watson	-11.799
▁Wikipedia	-11.799
▁XVIII	-11.799
▁acampamento	-11.799
▁aceitável	-11.799
▁altitude	-11.799
▁amígdala	-11.799
▁ansioso	-11.799
▁asteroide	-11.799
▁australian	-11.799
▁autoestrada	-11.799
▁britânica	-11.799
▁compreendo	-11.799
▁drasticamente	-11.799
▁empolgante	-11.799
▁espingarda	-11.799
▁evidencia	-11.799
▁frágil	-11.799
▁gargal	-11.799
▁genocídio	-11.799
▁hidróxeno	-11.799
▁incomplet	-11.799
▁incrementa	-11.799
▁incêndio	-11.799
▁intangíve	-11.799
▁interruptor	-11.799
▁licenciatura	-11.799
▁marginal	-11.799
▁nanopartícula	-11.799
▁omnipresente	-11.799
▁peculiar	-11.799
▁persuadi	-11.799
▁proprietário	-11.799
▁proveniente	-11.799
▁quântico	-11.799
▁recipiente	-11.799
▁reflexo	-11.799
▁refrigera	-11.799
▁ultravioleta	-11.799
▁vulnerable	-11.799
▁xemelgo	-11.799
▁Domingo	-11.799
▁Health	-11.799
▁Jordan	-11.799
▁analizar	-11.799
▁apropriada	-11.799
▁cereais	-11.799
▁consomem	-11.799
▁desenrola	-11.799
▁fantasia	-11.799
▁malicioso	-11.799
▁reconhecida	-11.799
▁textura	-11.799
▁vazia	-11.799
▁vestígio	-11.799
▁aceitou	-11.799
▁almacena	-11.799
▁fantasma	-11.799
▁prosperar	-11.799
▁reacciona	-11.799
▁debuxo	-11.799
▁desvantage	-11.799
▁chámase	-11.799
▁AVC	-11.799
▁Black	-11.799
▁díxo	-11.799
▁paixões	-11.799
▁prefiro	-11.799
▁procure	-11.799
▁coelho	-11.799
▁neutro	-11.799
▁depósito	-11.799
▁Sky	-11.799
▁botões	-11.799
▁recolha	-11.799
▁refiro	-11.799
▁retorna	-11.799
▁vulc	-11.799
▁abstrat	-11.799
▁holand	-11.799
▁paralisia	-11.799
▁clona	-11.799
▁intensivo	-11.799
▁suspeito	-11.799
▁Stasi	-11.799
▁invadi	-11.799
▁revolta	-11.799
▁selecciona	-11.799
▁dolorosa	-11.799
▁considerá	-11.799
▁engoli	-11.799
▁vendida	-11.799
▁Stein	-11.799
▁ambicioso	-11.799
▁denomina	-11.799
▁plasma	-11.799
▁institucional	-11.7991
▁potente	-11.7991
▁sueco	-11.7991
▁insult	-11.7991
▁premissa	-11.7991
▁vendido	-11.7991
▁Columb	-11.7991
▁expande	-11.7991
▁doenza	-11.7991
▁postura	-11.7991
▁Sabía	-11.7991
▁fermoso	-11.7991
▁asunto	-11.7992
▁oferta	-11.7992
▁desprez	-11.7993
▁latino	-11.7993
▁colatera	-11.7993
▁balde	-11.7993
ittle	-11.7993
namorado	-11.7994
▁alonga	-11.7994
▁houb	-11.7994
▁Clint	-11.8001
▁desliza	-11.8006
▁atreve	-11.8011
▁Aceit	-11.8035
▁insegura	-11.804
sistimos	-11.8153
▁seguimo	-11.8163
▁acredite	-11.8197
▁caracteriza	-11.8207
existente	-11.8222
▁benefício	-11.8253
▁adestra	-11.8271
pacto	-11.8273
contentores	-11.8371
pareciam	-11.8407
▁industrializa	-11.8448
nvolvi	-11.8451
▁rejei	-11.8491
▁imóve	-11.852
conómico	-11.8538
▁monitor	-11.8554
duzir	-11.8564
▁convert	-11.8649
corpo	-11.867
▁televis	-11.8685
nacci	-11.8699
ustiça	-11.8703
▁imprevisíve	-11.8704
▁intermediári	-11.8704
▁Independ	-11.8704
▁Kepler	-11.8704
▁centrifugador	-11.8704
▁fisioterap	-11.8704
▁simultâne	-11.8704
▁tartaruga	-11.8704
hhhh	-11.8704
▁Ajuda	-11.8704
▁Edward	-11.8704
▁Geoff	-11.8704
▁Industrial	-11.8704
▁Missouri	-11.8704
▁Rapariga	-11.8704
▁Zimbab	-11.8704
▁absurdo	-11.8704
▁acústica	-11.8704
▁antidepressivo	-11.8704
▁apresentá	-11.8704
▁arbusto	-11.8704
▁chapéu	-11.8704
▁cidadán	-11.8704
▁cineasta	-11.8704
▁combustible	-11.8704
▁coñecido	-11.8704
▁destruído	-11.8704
▁dinâmico	-11.8704
▁educacional	-11.8704
▁enriqueci	-11.8704
▁escravatura	-11.8704
▁espectáculo	-11.8704
▁espessura	-11.8704
▁experimente	-11.8704
▁flexibilidade	-11.8704
▁fíxo	-11.8704
▁golfe	-11.8704
▁golfinho	-11.8704
▁gravitacional	-11.8704
▁iPad	-11.8704
▁impotente	-11.8704
▁indícios	-11.8704
▁instituto	-11.8704
▁intrigante	-11.8704
▁irregular	-11.8704
▁logística	-11.8704
▁necesario	-11.8704
▁polímero	-11.8704
▁porcentaxe	-11.8704
▁propiedade	-11.8704
▁providencia	-11.8704
▁quantitativa	-11.8704
▁rabisco	-11.8704
▁saudita	-11.8704
▁teórico	-11.8704
▁túmulo	-11.8704
▁vulnerabilidade	-11.8704
▁válvula	-11.8704
▁Óscar	-11.8704
▁álcool	-11.8704
▁Conhecem	-11.8704
▁Projeto	-11.8704
▁besouro	-11.8704
▁detalhada	-11.8704
▁expresión	-11.8704
▁fraqueza	-11.8704
▁guitarra	-11.8704
▁incapaz	-11.8704
▁páxina	-11.8704
▁espalhou	-11.8704
▁lucrativo	-11.8704
▁mesquita	-11.8704
▁sábio	-11.8704
▁arriscado	-11.8704
▁pantalla	-11.8704
▁íntima	-11.8704
▁reacción	-11.8704
▁reprimi	-11.8704
▁presumi	-11.8704
▁sincera	-11.8704
▁ferimento	-11.8704
▁dúbida	-11.8704
▁selvagens	-11.8704
▁pesadelo	-11.8704
▁escaleira	-11.8704
▁mestrado	-11.8704
▁arriscar	-11.8704
▁dispersa	-11.8704
▁relaxa	-11.8704
▁arrepend	-11.8704
▁Helen	-11.8704
▁Odisse	-11.8704
▁pouqui	-11.8704
▁Civi	-11.8704
▁electrónica	-11.8704
▁empezo	-11.8704
▁urina	-11.8704
▁convite	-11.8704
▁Hanna	-11.8704
▁Gert	-11.8704
▁domingo	-11.8705
▁require	-11.8705
▁multinaciona	-11.8705
▁novembro	-11.8705
▁explique	-11.8705
▁propuls	-11.8705
▁artesana	-11.8705
▁caneta	-11.8705
▁ensiná	-11.8705
▁adaptáve	-11.8705
castanha	-11.8705
▁minima	-11.8705
▁practica	-11.8705
▁intervir	-11.8706
tuário	-11.8706
▁festiva	-11.8706
▁noturno	-11.8706
▁contracep	-11.8706
▁inerente	-11.8707
▁danificado	-11.8707
▁fermosa	-11.8708
▁repete	-11.8708
▁digno	-11.8708
▁heroe	-11.8709
▁Viaj	-11.8711
▁Control	-11.8712
▁confessa	-11.8712
▁cintur	-11.8712
▁Desenh	-11.8721
afari	-11.8726
▁escute	-11.8728
▁falsificaç	-11.8734
▁isolada	-11.8743
▁mantemo	-11.8749
▁Barb	-11.8775
▁trilh	-11.8793
▁fricç	-11.8834
african	-11.8835
▁síri	-11.8876
ácte	-11.8877
andamento	-11.8936
▁criminaliza	-11.9022
▁tonelada	-11.9023
destrador	-11.9159
▁interagi	-11.9248
▁signific	-11.9255
▁Hond	-11.9258
▁respir	-11.9275
ducação	-11.9308
▁Compreend	-11.9351
▁expandi	-11.9363
strume	-11.9381
abrigo	-11.9389
volucionária	-11.9395
provar	-11.9398
▁ingles	-11.9416
▁concep	-11.9431
▁ativis	-11.945
▁fóss	-11.9473
▁infidel	-11.9473
▁Virgin	-11.9473
íduos	-11.9473
▁HIV	-11.9473
▁Kennedy	-11.9473
▁Representa	-11.9473
▁Toronto	-11.9473
▁Ushahidi	-11.9473
▁Voyage	-11.9473
▁adolescência	-11.9473
▁alienígena	-11.9473
▁assassino	-11.9473
▁assassínio	-11.9473
▁cerimónia	-11.9473
▁clasifica	-11.9473
▁controvérsia	-11.9473
▁convidou	-11.9473
▁cívico	-11.9473
▁desvanece	-11.9473
▁dispoñible	-11.9473
▁esquadra	-11.9473
▁fabuloso	-11.9473
▁filmado	-11.9473
▁fragmentação	-11.9473
▁frequentar	-11.9473
▁galaxia	-11.9473
▁humildade	-11.9473
▁icebergue	-11.9473
▁imperativo	-11.9473
▁influente	-11.9473
▁magnífica	-11.9473
▁maximizar	-11.9473
▁neurocientista	-11.9473
▁obsessão	-11.9473
▁obsoleto	-11.9473
▁orgullo	-11.9473
▁pesticida	-11.9473
▁prateleira	-11.9473
▁promissor	-11.9473
▁prostituta	-11.9473
▁sacrifício	-11.9473
▁solitário	-11.9473
▁universitária	-11.9473
▁usuario	-11.9473
▁xurdi	-11.9473
ü	-11.9473
▁Princeton	-11.9473
▁abutre	-11.9473
▁contextual	-11.9473
▁embaixador	-11.9473
▁empenhado	-11.9473
▁enriquece	-11.9473
▁federal	-11.9473
▁hetero	-11.9473
▁julgo	-11.9473
▁lealdade	-11.9473
▁maratona	-11.9473
▁policía	-11.9473
▁suxeito	-11.9473
▁2020	-11.9473
▁Transform	-11.9473
▁asegurar	-11.9473
▁axeitada	-11.9473
▁depresión	-11.9473
▁dificil	-11.9473
▁higien	-11.9473
▁inmediata	-11.9473
▁perfecta	-11.9473
▁pistola	-11.9473
▁Movimento	-11.9473
▁consenso	-11.9473
▁primitiva	-11.9473
▁unidimensional	-11.9473
▁artéria	-11.9473
▁gramática	-11.9473
▁psicopata	-11.9473
▁consisti	-11.9473
▁petición	-11.9473
▁íntimo	-11.9473
▁Frequente	-11.9473
▁lúa	-11.9473
▁passivo	-11.9473
▁urbanis	-11.9473
▁General	-11.9473
▁ameaza	-11.9473
▁válida	-11.9473
▁Johnny	-11.9473
▁preciosa	-11.9473
▁elogio	-11.9473
▁remonta	-11.9473
▁adoitaba	-11.9473
▁bebida	-11.9473
▁perplex	-11.9473
▁minimiza	-11.9473
▁Orienta	-11.9474
▁Premio	-11.9474
▁meirande	-11.9474
▁coberta	-11.9474
▁ruína	-11.9474
▁táxi	-11.9474
▁skate	-11.9474
▁experto	-11.9474
▁sufoca	-11.9474
▁caravana	-11.9474
▁acolher	-11.9474
frío	-11.9474
▁mentiroso	-11.9474
▁retiro	-11.9474
▁vixil	-11.9474
▁modula	-11.9474
firmou	-11.9474
▁statu	-11.9474
▁maluca	-11.9474
▁remix	-11.9474
▁padre	-11.9475
▁lamenta	-11.9475
▁esgoto	-11.9475
▁mecanic	-11.9475
▁fralda	-11.9475
▁tablet	-11.9475
▁Mostre	-11.9476
▁Bueno	-11.9476
▁Reserv	-11.9476
Planet	-11.9478
▁Ucr	-11.9478
▁suponh	-11.9479
▁cotiá	-11.9481
▁tremor	-11.9481
▁espantad	-11.9484
núnci	-11.9486
rump	-11.9495
▁terrivel	-11.9498
▁constat	-11.95
uther	-11.9507
ncipe	-11.9515
▁bilh	-11.9516
▁comprend	-11.9575
reparou	-11.9591
▁ímp	-11.9593
▁protecç	-11.9645
▁pombo	-11.9684
bservámos	-11.969
▁enfronta	-11.973
▁contento	-11.9848
▁quilómetro	-11.9857
▁Aparece	-11.9885
migração	-11.9916
▁particip	-11.9937
▁sinaliza	-12.0168
curso	-12.021
terrâneo	-12.022
mínio	-12.0243
▁encontre	-12.0292
proveitamento	-12.0295
▁filosof	-12.0297
▁categor	-12.0297
gnóstico	-12.03
hinês	-12.0306
retrovira	-12.0307
▁alcançá	-12.0307
▁complementa	-12.0307
▁disfarça	-12.0307
▁duvido	-12.0307
▁reformula	-12.0307
gradeço	-12.0307
judiciais	-12.0307
térmico	-12.0307
▁FBI	-12.0307
▁Himalaias	-12.0307
▁IGF	-12.0307
▁Islâmic	-12.0307
▁Kiribati	-12.0307
▁Olímpic	-12.0307
▁Pensilvânia	-12.0307
▁Soviética	-12.0307
▁Toraja	-12.0307
▁Trouxe	-12.0307
▁Virgínia	-12.0307
▁afegã	-12.0307
▁ambiciosa	-12.0307
▁biomolécula	-12.0307
▁bitcoins	-12.0307
▁carpinteiro	-12.0307
▁conselheiro	-12.0307
▁cápsula	-12.0307
▁descubrí	-12.0307
▁dramático	-12.0307
▁débeda	-12.0307
▁díxenlle	-12.0307
▁engraçada	-12.0307
▁exossomas	-12.0307
▁filosófica	-12.0307
▁garantido	-12.0307
▁hierarqui	-12.0307
▁híbrido	-12.0307
▁iPod	-12.0307
▁instantânea	-12.0307
▁legítimo	-12.0307
▁maiúscul	-12.0307
▁manufatura	-12.0307
▁meteorológico	-12.0307
▁miseric	-12.0307
▁muçulmana	-12.0307
▁móbil	-12.0307
▁noticiário	-12.0307
▁publicitári	-12.0307
▁rebentar	-12.0307
▁recomendo	-12.0307
▁retângulo	-12.0307
▁romântic	-12.0307
▁simplic	-12.0307
▁sintética	-12.0307
▁soberana	-12.0307
▁terapeuta	-12.0307
▁vehículo	-12.0307
▁bancada	-12.0307
▁bizarra	-12.0307
▁colidir	-12.0307
▁emprestado	-12.0307
▁enterrado	-12.0307
▁evacua	-12.0307
▁instintiva	-12.0307
▁necesidade	-12.0307
▁pizza	-12.0307
▁propinas	-12.0307
▁simetria	-12.0307
▁visitei	-12.0307
▁Galile	-12.0307
▁Titã	-12.0307
▁cintila	-12.0307
▁implacáve	-12.0307
▁tronco	-12.0307
▁Copenhag	-12.0307
▁amplifica	-12.0307
▁decifra	-12.0307
▁festeja	-12.0307
▁slogan	-12.0307
▁sombria	-12.0307
▁chávena	-12.0307
▁monumento	-12.0307
▁ultima	-12.0307
▁Pregunt	-12.0307
▁Connect	-12.0307
▁Hospita	-12.0307
▁aéreo	-12.0307
▁botón	-12.0307
▁costeira	-12.0307
▁árduo	-12.0307
▁modesto	-12.0307
▁encaixe	-12.0307
▁imaginei	-12.0307
▁distribuída	-12.0307
▁alicerce	-12.0307
▁coerente	-12.0307
▁protões	-12.0307
▁Disney	-12.0307
▁agressor	-12.0307
▁gentil	-12.0307
▁irradia	-12.0307
▁válido	-12.0307
clive	-12.0307
▁savana	-12.0307
▁reúne	-12.0307
▁racial	-12.0307
▁Cháma	-12.0307
▁paisaxe	-12.0307
▁filmage	-12.0307
▁medalha	-12.0307
▁instalado	-12.0307
alojamento	-12.0307
▁desmonta	-12.0307
imétrica	-12.0307
▁vestir	-12.0307
▁desgasta	-12.0307
▁razoa	-12.0307
▁gratifica	-12.0307
▁baile	-12.0307
▁envergonhado	-12.0307
▁Rachel	-12.0307
▁alberga	-12.0307
bbie	-12.0307
▁alumno	-12.0308
▁veneno	-12.0308
▁Natural	-12.0308
▁otimiza	-12.0308
▁Irmã	-12.0308
▁tambor	-12.0308
xustiza	-12.0308
▁paviment	-12.0308
▁presun	-12.0309
▁invoca	-12.0309
▁reorganiza	-12.031
▁imprud	-12.0311
▁Filip	-12.0312
▁excessiv	-12.0313
▁Virtu	-12.0314
▁ligá	-12.0314
▁cartograf	-12.0314
arganta	-12.0316
▁transcend	-12.0316
▁calibr	-12.0321
métrico	-12.0324
▁Escrit	-12.0328
▁Blak	-12.0331
▁incert	-12.0336
▁aquátic	-12.0341
gúst	-12.0376
▁sorprend	-12.0481
heguei	-12.0484
caminhada	-12.0573
▁entrevist	-12.0695
▁antibiótico	-12.0765
▁respet	-12.0808
▁fotograf	-12.0871
nvolvente	-12.1
▁atualiza	-12.1036
ngenharia	-12.1049
▁economi	-12.1123
violência	-12.1132
▁cogni	-12.12
rkinson	-12.1214
elescopio	-12.1216
#	-12.1216
▁imortal	-12.1216
conhecê	-12.1216
▁Desenvolve	-12.1216
▁Reconhece	-12.1216
▁descarrega	-12.1216
▁distingue	-12.1216
▁homossexual	-12.1216
▁impressionou	-12.1216
▁inscrever	-12.1216
▁negligenci	-12.1216
è	-12.1216
▁Accenture	-12.1216
▁Fantástic	-12.1216
▁Gronelândia	-12.1216
▁Sarajevo	-12.1216
▁System	-12.1216
▁Tribun	-12.1216
▁aborrecida	-12.1216
▁aminoácidos	-12.1216
▁ancestrais	-12.1216
▁ansiosa	-12.1216
▁aprofunda	-12.1216
▁autêntica	-12.1216
▁benéfico	-12.1216
▁brasileiro	-12.1216
▁bronze	-12.1216
▁calendário	-12.1216
▁característico	-12.1216
▁cibernétic	-12.1216
▁cogumelo	-12.1216
▁comunitária	-12.1216
▁continúa	-12.1216
▁coñecida	-12.1216
▁cósmico	-12.1216
▁dalgunha	-12.1216
▁deliciosa	-12.1216
’	-12.2216
	-12.3327
‘	-12.3327
à	-12.4493
@	-12.4577
ö	-12.7672
ä	-13.2172
`	-13.2172
	-13.5505
¡	-13.5505
Ã	-13.5505
ō	-13.5505
Ú	-13.5505
Á	-14.0422
*	-14.0505
_	-14.0505
È	-14.0505
ù	-14.0505
ā	-14.0505
ย	-14.0505
ร	-14.0505
่	-14.0505
⁄	-14.0505
ï	-14.0505
ẽ	-15.0482
©	-15.0483
อ	-15.0484
́	-15.0485
Â	-15.0486
	-15.0487
€	-15.0488
ń	-15.0489
/	-15.049
”	-15.0491
–	-15.0492
À	-15.0493
♪	-15.0494
!	-15.0495
♫	-15.0496
%	-15.0497
â	-15.0498
É	-15.0499
—	-15.05
)	-15.0501
õ	-15.0502
:	-15.0503
?	-15.0504
Ç	-15.0505
ŕ	-15.0505
&	-15.0505
\	-15.0505
	-15.0505
«	-15.0505
°	-15.0505
»	-15.0505
Ê	-15.0505
Ë	-15.0505
Č	-15.0505
Ō	-15.0505
ő	-15.0505
