<unk>	0
<s>	0
</s>	0
<pad>	0
▁,	-3.00855
▁	-3.17023
▁.	-3.22279
s	-3.26966
▁a	-3.6389
▁de	-3.66659
▁que	-3.69547
;	-4.04108
▁&	-4.0565
quot	-4.10029
▁e	-4.12498
▁o	-4.14821
▁é	-4.57387
-	-4.6676
▁um	-4.73626
▁para	-4.80269
▁uma	-4.81448
▁da	-4.94289
▁do	-5.04254
▁E	-5.05212
▁não	-5.07244
▁em	-5.07992
▁com	-5.19997
▁os	-5.24666
▁se	-5.42442
o	-5.4761
▁no	-5.48197
▁como	-5.48543
▁mais	-5.50437
mos	-5.51012
▁as	-5.52155
▁na	-5.56384
▁A	-5.58727
▁:	-5.62105
▁?	-5.64148
▁por	-5.65372
m	-5.71243
▁O	-5.79628
a	-5.82881
▁muito	-5.83999
ando	-5.93264
mente	-5.95719
▁eu	-5.97334
se	-5.98957
▁Mas	-6.04126
▁pessoas	-6.04716
▁à	-6.04955
▁ser	-6.07321
▁ao	-6.07714
▁isso	-6.09352
ão	-6.09776
▁são	-6.11808
▁mas	-6.14198
▁)	-6.15968
(	-6.16207
▁ou	-6.16946
r	-6.2047
ção	-6.2089
▁fazer	-6.20915
▁—	-6.24183
▁dos	-6.27295
▁qu	-6.29857
▁nos	-6.32655
▁Por	-6.33009
▁está	-6.34675
me	-6.40961
▁esta	-6.41433
▁isto	-6.41774
▁anos	-6.42627
▁porque	-6.44628
▁meu	-6.45998
▁É	-6.4651
▁sobre	-6.48142
▁foi	-6.50777
es	-6.53017
▁há	-6.5309
▁era	-6.54336
▁Não	-6.59294
0	-6.59322
á	-6.60229
▁mundo	-6.60747
▁sua	-6.61545
▁minha	-6.61925
▁ver	-6.62213
▁seu	-6.64265
▁nossa	-6.65221
▁nosso	-6.66287
▁nós	-6.66535
▁ter	-6.66833
os	-6.67953
▁todos	-6.70248
l	-6.70698
▁este	-6.71274
em	-6.71988
u	-6.73538
is	-6.74561
▁Eu	-6.75259
▁estão	-6.75886
▁mesmo	-6.77506
▁também	-6.78374
▁forma	-6.79425
ntão	-6.8091
▁ele	-6.81039
▁coisas	-6.81276
▁temos	-6.82608
▁tem	-6.83189
▁1	-6.8489
▁toda	-6.85905
nos	-6.8809
am	-6.88383
▁vida	-6.88568
▁Se	-6.89247
▁aqui	-6.90897
▁tempo	-6.93669
▁me	-6.94086
▁pode	-6.95187
▁apenas	-6.96952
▁Riso	-6.97717
▁coisa	-6.98548
▁vez	-6.98977
▁eles	-6.9941
onde	-7.01983
▁podemos	-7.02203
▁têm	-7.02347
▁podem	-7.02405
▁num	-7.06818
▁depois	-7.07859
▁até	-7.09846
▁dizer	-7.10322
▁H	-7.1128
e	-7.11536
ções	-7.13719
▁estava	-7.14023
▁pelo	-7.14117
▁numa	-7.15323
▁Qu	-7.15715
▁tinha	-7.16972
▁parte	-7.18862
▁tudo	-7.20141
tão	-7.20568
i	-7.20758
▁tipo	-7.21147
▁só	-7.21415
▁agora	-7.21452
▁pela	-7.21991
▁Aplausos	-7.22566
▁disse	-7.22609
do	-7.23239
▁bem	-7.23475
▁Com	-7.24157
▁dia	-7.25496
▁Ele	-7.26042
lo	-7.28289
▁Esta	-7.28574
▁essa	-7.28617
▁vocês	-7.30715
▁algo	-7.30781
▁Ist	-7.32303
.	-7.34121
já	-7.34338
▁grande	-7.34408
▁alguma	-7.34466
▁cada	-7.35256
tanto	-7.35621
▁muita	-7.35844
▁assim	-7.36043
▁Os	-7.36462
▁falar	-7.36876
▁ainda	-7.38662
ndo	-7.40233
▁esse	-7.40398
ões	-7.40788
▁todo	-7.41011
▁trabalho	-7.41559
▁entre	-7.41674
▁T	-7.42763
vos	-7.44505
▁sem	-7.4471
ei	-7.44729
vamos	-7.44833
▁vezes	-7.44875
▁ela	-7.4521
▁pouco	-7.45291
que	-7.45332
▁melhor	-7.45533
▁verdade	-7.45589
▁qualquer	-7.47947
▁N	-7.51255
▁Este	-7.51846
▁nas	-7.52044
▁história	-7.52244
▁pensar	-7.52472
íamos	-7.53313
as	-7.53442
▁vai	-7.54084
▁problema	-7.54326
▁S	-7.54332
▁ideia	-7.54825
▁estas	-7.54899
▁I	-7.5511
▁milhões	-7.55725
▁hoje	-7.55846
▁realmente	-7.56787
▁dois	-7.58097
▁outros	-7.58713
ou	-7.58978
▁ano	-7.59713
▁...	-7.60555
▁Na	-7.60737
gora	-7.60971
▁maior	-7.61136
▁No	-7.61345
▁exemplo	-7.61936
▁poder	-7.62114
ia	-7.62181
ma	-7.62275
▁outra	-7.63128
▁sempre	-7.63162
▁lá	-7.64744
▁mim	-7.65367
to	-7.65647
▁estes	-7.68167
▁sistema	-7.68687
▁então	-7.68817
▁menos	-7.68976
▁outro	-7.68982
▁três	-7.69294
▁As	-7.69743
▁facto	-7.70017
00	-7.70046
▁estar	-7.70333
▁Em	-7.70383
▁importante	-7.70566
▁alguns	-7.71218
▁nunca	-7.71251
▁casa	-7.71344
▁estamo	-7.72286
▁lado	-7.72705
▁durante	-7.74552
la	-7.756
▁usar	-7.77333
▁criar	-7.77577
▁outras	-7.78418
▁dua	-7.78571
1	-7.7877
▁seja	-7.79138
▁primeira	-7.79274
▁neste	-7.79945
▁pessoa	-7.8073
▁ir	-7.80772
▁deste	-7.80877
▁tenho	-7.81497
▁De	-7.8241
▁tentar	-7.8307
▁cérebro	-7.8387
▁Bem	-7.83931
▁mulheres	-7.84911
▁primeiro	-7.85796
▁talvez	-7.86633
▁vou	-7.868
▁mesma	-7.86965
▁volta	-7.8768
▁antes	-7.88516
▁faz	-7.88731
▁dar	-7.8907
▁crianças	-7.89773
▁tecnologia	-7.89966
▁diferentes	-7.90261
▁estou	-7.90666
▁momento	-7.90858
▁cerca	-7.93331
▁espaço	-7.94171
▁nada	-7.95435
▁dados	-7.9548
idade	-7.95791
▁alguém	-7.96212
▁existe	-7.96241
da	-7.96492
ncia	-7.97453
▁nova	-7.97984
▁água	-7.97999
▁vão	-7.98923
sso	-7.99712
▁quero	-8.00306
▁nem	-8.00762
▁Para	-8.01048
▁qual	-8.02118
▁informação	-8.0269
▁trabalhar	-8.03488
▁encontrar	-8.03643
▁eram	-8.03714
lhe	-8.04348
▁resposta	-8.04813
▁novo	-8.05019
ós	-8.05164
▁país	-8.06256
A	-8.06316
▁olhar	-8.06523
▁vosso	-8.06876
▁diferente	-8.0728
▁dias	-8.07889
▁pequena	-8.08025
▁significa	-8.08196
▁Temos	-8.08543
▁10	-8.08706
▁foram	-8.08979
▁quase	-8.09052
ámos	-8.09136
▁altura	-8.0946
▁começar	-8.09537
▁Foi	-8.09885
▁mudar	-8.09968
apos	-8.10104
▁disso	-8.10116
▁feito	-8.10484
▁quem	-8.10913
▁energia	-8.10945
▁vos	-8.1261
▁sido	-8.13535
▁dinheiro	-8.139
000	-8.14215
▁nesta	-8.14551
▁lugar	-8.15057
▁acontece	-8.15244
▁futuro	-8.15425
▁palavras	-8.15523
▁número	-8.15608
▁quanto	-8.15936
▁difícil	-8.16088
▁seria	-8.16849
▁diz	-8.17012
▁realidade	-8.1722
▁elas	-8.17516
▁claro	-8.17921
▁precisamos	-8.18119
▁sou	-8.18175
▁desta	-8.18574
▁simples	-8.18746
▁dentro	-8.18982
ar	-8.19008
▁países	-8.20317
va	-8.2105
▁sei	-8.21103
és	-8.21596
▁meio	-8.22
▁acontecer	-8.22044
▁modo	-8.22242
▁mil	-8.22261
▁penso	-8.22913
▁escola	-8.22979
ram	-8.23668
▁ponto	-8.23698
▁estavam	-8.23761
▁fazem	-8.23907
▁desde	-8.24734
▁somos	-8.2476
▁contra	-8.24866
▁Aqui	-8.25206
▁mostrar	-8.25233
▁p	-8.25405
▁experiência	-8.25447
▁Depois	-8.25584
▁último	-8.25828
los	-8.26235
n	-8.26274
▁P	-8.26506
uns	-8.26658
▁consegui	-8.27504
▁fora	-8.27944
▁tinham	-8.27982
▁cidade	-8.28287
▁questão	-8.28569
▁Ela	-8.28783
▁maneira	-8.29042
t	-8.29241
▁possível	-8.29803
▁passado	-8.29926
mento	-8.30108
▁bastante	-8.30314
▁enquan	-8.30547
▁atrav	-8.30832
▁razão	-8.31852
▁Obrigado	-8.32361
▁fim	-8.3247
▁sabemos	-8.32516
▁Muito	-8.32632
lhes	-8.32994
▁tal	-8.33112
▁corpo	-8.33224
das	-8.33426
▁vossa	-8.33876
▁processo	-8.33944
▁en	-8.34837
▁pequeno	-8.34966
▁longo	-8.35006
▁gente	-8.3507
▁saber	-8.35353
▁mãe	-8.35527
▁dólares	-8.35556
mo	-8.35591
▁bom	-8.35859
▁problemas	-8.36798
▁aquela	-8.36907
▁família	-8.36925
▁quer	-8.37444
▁havia	-8.38204
▁luz	-8.38259
▁Vamo	-8.38849
▁ficar	-8.38919
▁ajudar	-8.39284
▁C	-8.39563
▁saúde	-8.39652
▁si	-8.39871
▁imagem	-8.40514
▁sabem	-8.40571
▁tornar	-8.40752
▁nível	-8.40821
res	-8.40911
▁ali	-8.40922
▁vemos	-8.41151
▁homem	-8.41629
▁certo	-8.42197
▁quatro	-8.42201
▁Vou	-8.42253
▁parece	-8.42642
▁dessa	-8.42662
▁acho	-8.43097
▁deles	-8.43122
▁maioria	-8.43177
▁interessante	-8.43653
▁humanos	-8.4378
▁caso	-8.44135
emos	-8.4447
▁fez	-8.44664
▁homens	-8.45113
▁construir	-8.45158
no	-8.4526
▁aquilo	-8.45342
▁aprender	-8.45346
▁perceber	-8.45632
▁D	-8.45733
▁grupo	-8.45838
▁meses	-8.46675
▁causa	-8.46832
▁única	-8.48111
▁Todo	-8.48446
▁humano	-8.48616
las	-8.48651
▁caminho	-8.49078
▁Assi	-8.49519
▁vi	-8.50206
▁Podem	-8.50479
quanto	-8.50813
▁pai	-8.50857
▁comunidade	-8.50871
▁partir	-8.51428
▁viver	-8.51492
▁sala	-8.51593
▁chegar	-8.51623
▁tanto	-8.51688
▁for	-8.51701
▁ciência	-8.51892
▁mulher	-8.52339
▁local	-8.52767
ecei	-8.52998
▁podia	-8.53036
▁Podemo	-8.5329
▁noite	-8.53582
▁frente	-8.54069
▁fosse	-8.54211
▁pergunta	-8.54307
▁chamado	-8.54451
▁baixo	-8.54519
▁funciona	-8.54585
▁cinco	-8.55044
▁amigos	-8.55221
▁fazemos	-8.5563
▁aconteceu	-8.55874
▁Era	-8.5659
▁lhe	-8.56792
▁sociedade	-8.56898
▁medo	-8.5734
▁própria	-8.57362
▁queremos	-8.57925
▁estado	-8.58019
▁boa	-8.58026
▁Terra	-8.58028
▁guerra	-8.58082
▁preciso	-8.58083
▁mudança	-8.58285
▁posso	-8.58364
▁grandes	-8.58559
er	-8.58576
▁valor	-8.58841
▁espécie	-8.58989
▁milhar	-8.59311
▁segundo	-8.59339
▁aí	-8.59427
ssemos	-8.59454
frica	-8.59737
▁Internet	-8.60061
te	-8.60344
▁real	-8.60765
▁sentido	-8.61189
▁queria	-8.61396
▁fácil	-8.61443
▁ninguém	-8.61443
▁horas	-8.61584
de	-8.61677
▁vê	-8.62044
▁base	-8.62503
▁empresas	-8.62614
▁filhos	-8.62628
▁passar	-8.62762
▁células	-8.62981
▁cor	-8.63133
▁histórias	-8.63304
▁cultura	-8.63419
▁Está	-8.63494
▁B	-8.64369
▁Ou	-8.64541
▁enorme	-8.64794
▁contar	-8.64858
▁Que	-8.65406
▁deixar	-8.65703
▁economia	-8.65717
▁social	-8.66041
▁provavelmente	-8.66076
▁global	-8.66395
▁simplesmente	-8.66487
▁projeto	-8.66708
▁atrás	-8.66719
▁imagens	-8.66801
▁livro	-8.66935
▁normal	-8.66937
ambém	-8.67162
▁Você	-8.67181
cerca	-8.67394
▁planeta	-8.67443
▁Sim	-8.67644
▁100	-8.67692
▁carro	-8.68225
▁fui	-8.68282
▁algum	-8.68389
▁desse	-8.68841
▁computador	-8.68936
▁tarde	-8.6903
▁pais	-8.69064
▁especial	-8.69824
▁melhores	-8.69919
▁aquele	-8.70176
▁alta	-8.70328
▁mão	-8.70368
▁certa	-8.7069
▁termos	-8.70724
▁tive	-8.70829
▁quais	-8.7101
▁linha	-8.71701
▁criança	-8.7177
▁ajuda	-8.72067
▁arte	-8.72202
▁mal	-8.72428
▁Nova	-8.72546
▁querem	-8.72785
▁ambiente	-8.72962
▁música	-8.73243
▁completamente	-8.73297
▁dele	-8.73462
▁c	-8.73765
▁sim	-8.73765
▁destas	-8.7393
▁doença	-8.74626
▁início	-8.74821
▁conjunto	-8.75268
▁campo	-8.75404
▁universo	-8.75433
▁palavra	-8.75456
▁sabe	-8.75575
▁desenvolvimento	-8.75628
d	-8.75632
▁fazê	-8.75643
▁modelo	-8.75852
▁risco	-8.76021
▁voz	-8.76096
ência	-8.76118
▁novas	-8.76241
teve	-8.76255
▁governo	-8.76318
▁Quero	-8.76359
▁empresa	-8.76495
▁M	-8.77034
▁próximo	-8.77236
▁sentir	-8.7742
▁possa	-8.77482
▁comida	-8.77735
▁chamada	-8.77972
▁nome	-8.78049
▁passa	-8.78085
▁morte	-8.78119
▁poderia	-8.78133
▁rede	-8.78464
▁começa	-8.78546
▁papel	-8.79293
▁suficiente	-8.79315
▁ideias	-8.79489
▁estrutura	-8.79685
▁descobrir	-8.79992
▁seguir	-8.80096
▁século	-8.80108
▁sociais	-8.80128
▁Só	-8.80153
alvez	-8.80228
▁conta	-8.80264
dos	-8.80526
▁animais	-8.80561
pesar	-8.8059
▁dela	-8.80792
▁voltar	-8.80897
▁capacidade	-8.80994
▁humana	-8.8105
▁olhos	-8.81075
▁vídeo	-8.81427
▁único	-8.8182
▁começou	-8.81851
▁medida	-8.81894
▁fiz	-8.82119
▁relação	-8.82676
▁tamanho	-8.8268
▁oportunidade	-8.82763
▁cima	-8.82769
▁conseguem	-8.82922
▁ouvir	-8.82986
▁in	-8.83167
▁dizem	-8.83177
▁levar	-8.83481
▁tínhamo	-8.83541
▁Estado	-8.83549
▁além	-8.83551
▁formas	-8.83679
▁conseguir	-8.83844
▁locais	-8.83975
▁Obrigad	-8.83993
▁escala	-8.84091
vam	-8.85315
▁fizemos	-8.85373
ssem	-8.85385
▁público	-8.8548
▁política	-8.85486
▁próprio	-8.85519
▁F	-8.85842
▁Tenho	-8.86642
▁diferença	-8.86921
01	-8.8739
▁segurança	-8.87551
▁obrigado	-8.87993
▁sabia	-8.88188
▁aqueles	-8.88868
▁carros	-8.88955
dores	-8.88999
▁soluç	-8.89364
ns	-8.89513
▁jovens	-8.89806
▁última	-8.89806
▁visão	-8.89869
▁seguinte	-8.90184
▁re	-8.90247
▁final	-8.90586
ntes	-8.90794
▁torna	-8.90807
ndia	-8.91245
c	-8.91535
▁particular	-8.91672
▁cancro	-8.92154
▁população	-8.92187
in	-8.92476
▁segunda	-8.92616
▁mar	-8.92675
▁serem	-8.9306
▁Estou	-8.93121
▁compreender	-8.93149
▁você	-8.93709
▁cidades	-8.93823
▁haver	-8.93877
▁tenha	-8.93988
▁teria	-8.9408
▁área	-8.94128
▁semana	-8.94311
▁Ao	-8.94467
▁equipa	-8.94583
▁precisa	-8.94632
▁verdadeira	-8.94701
▁confiança	-8.94752
▁indústria	-8.95053
▁cabeça	-8.9514
▁conhecimento	-8.9519
on	-8.95365
▁ADN	-8.95508
▁filme	-8.95517
▁pensei	-8.95517
▁centena	-8.95525
▁dá	-8.9554
▁maiores	-8.95592
▁colocar	-8.95742
▁situação	-8.96012
▁sucesso	-8.96058
▁CA	-8.96114
h	-8.96522
▁atenção	-8.96793
▁continuar	-8.96941
▁longe	-8.96986
▁violência	-8.97216
▁disto	-8.97535
▁imaginar	-8.9769
iam	-8.97841
▁força	-8.97865
▁TED	-8.98038
▁partilhar	-8.98074
▁crescimento	-8.98491
▁procura	-8.98557
▁delas	-8.99028
▁minutos	-8.99223
▁vidas	-8.99367
▁resolver	-8.99478
an	-8.99618
ra	-8.99621
▁Penso	-8.99716
▁deve	-8.99724
▁hora	-8.99885
▁som	-8.99895
▁En	-8.99931
▁educação	-9.00112
▁impacto	-9.00524
▁quantidade	-9.00524
▁floresta	-9.00552
▁terra	-9.00659
▁estudo	-9.0072
será	-9.00858
▁design	-9.01293
▁sair	-9.01357
▁incrível	-9.01598
vés	-9.01678
▁programa	-9.01693
▁totalmente	-9.01718
▁nessa	-9.02076
▁série	-9.02076
▁perto	-9.02099
▁centro	-9.0216
▁escrever	-9.02203
▁movimento	-9.02467
▁certeza	-9.02601
▁tornou	-9.02629
▁possam	-9.03336
g	-9.0369
▁vem	-9.04057
▁controlo	-9.04281
oje	-9.04325
▁comigo	-9.04335
na	-9.04559
▁semanas	-9.04637
▁matemática	-9.04648
▁natureza	-9.04722
▁vista	-9.04804
▁atra	-9.04931
▁portanto	-9.05021
▁teste	-9.05106
al	-9.05236
▁língua	-9.0526
▁rapidamente	-9.0526
▁disseram	-9.05445
▁sistemas	-9.05475
▁Deus	-9.05519
▁pensamos	-9.05614
▁recente	-9.05851
▁professores	-9.05885
▁R	-9.06114
▁Pode	-9.0632
▁miúdo	-9.06344
▁Sabem	-9.06372
▁pequenos	-9.06429
▁idade	-9.06516
en	-9.06562
▁Tem	-9.06824
▁Tudo	-9.06919
▁Toda	-9.06949
▁Imaginem	-9.06984
▁ler	-9.0782
▁palestra	-9.07992
▁precisam	-9.08112
▁minhas	-9.08346
nte	-9.08545
▁seis	-9.08637
▁resultado	-9.08684
▁fundo	-9.08687
▁livros	-9.08771
nde	-9.08819
amente	-9.08826
▁perguntar	-9.08835
▁entrar	-9.09087
▁comum	-9.09215
▁nenhum	-9.09306
▁doenças	-9.09403
▁manter	-9.09618
▁Ora	-9.10044
▁cria	-9.10203
▁natural	-9.10627
or	-9.11073
▁V	-9.11314
▁começá	-9.11373
▁viagem	-9.11384
▁Essa	-9.11451
▁pesquisa	-9.12009
▁nesse	-9.12086
▁geral	-9.12106
▁amigo	-9.1222
▁experiências	-9.12273
▁vári	-9.1235
▁nisso	-9.12526
rá	-9.1281
▁nenhuma	-9.12916
▁Primeiro	-9.13107
▁fizeram	-9.13185
▁comportamento	-9.13402
▁ferramentas	-9.13582
▁estudantes	-9.1369
▁colegas	-9.13776
nidos	-9.13985
▁acesso	-9.1428
▁Europa	-9.14285
▁resto	-9.14308
▁China	-9.1432
▁terem	-9.14414
▁filho	-9.14648
▁após	-9.14799
▁próxima	-9.14871
▁estiver	-9.14889
▁usando	-9.14912
▁consegue	-9.1518
▁obter	-9.15366
▁demasiado	-9.15469
▁Iorque	-9.15469
▁exatamente	-9.15551
quê	-9.15617
▁chama	-9.15763
▁juntos	-9.15847
▁esperança	-9.15859
▁principal	-9.16237
▁Acho	-9.16715
▁Sou	-9.17004
▁passo	-9.17027
▁laboratório	-9.17097
▁áreas	-9.17178
▁mercado	-9.17182
▁Mai	-9.17237
▁amor	-9.17297
▁perguntas	-9.17345
▁Clar	-9.17461
▁embora	-9.17693
▁redes	-9.17867
▁teoria	-9.17885
▁sob	-9.1801
▁trata	-9.18153
▁melhorar	-9.1839
▁importantes	-9.18435
▁aumentar	-9.18652
▁espera	-9.18742
té	-9.19026
▁máquina	-9.19038
▁pegar	-9.19213
▁ar	-9.19283
ação	-9.19572
▁alunos	-9.19586
▁jovem	-9.19736
▁naquele	-9.19736
▁iria	-9.19812
▁decidi	-9.19984
▁cientistas	-9.20195
▁irá	-9.20284
▁novos	-9.20319
▁América	-9.20361
▁Existe	-9.20361
▁capazes	-9.20505
▁crescer	-9.20537
▁conversa	-9.20757
▁desafio	-9.2085
▁ensino	-9.21512
▁físico	-9.21622
▁carbono	-9.21637
▁acabar	-9.21743
▁notícias	-9.21815
▁estrada	-9.21889
▁grupos	-9.22072
▁basicamente	-9.22259
▁tanta	-9.2226
▁livre	-9.22272
▁alto	-9.22277
▁funcionar	-9.22497
▁computadores	-9.22514
▁sejam	-9.22564
▁pontos	-9.22797
▁objetivo	-9.22906
▁plano	-9.22945
▁pensam	-9.22967
▁recursos	-9.23132
▁tiver	-9.23147
▁capaz	-9.23398
▁vir	-9.23476
▁devido	-9.23547
▁veem	-9.23548
▁médico	-9.23647
▁tomar	-9.23766
▁tivesse	-9.24011
▁mundial	-9.24245
▁duma	-9.24319
inda	-9.24487
▁finalmente	-9.24565
▁resultados	-9.2471
▁Estamo	-9.24843
▁visto	-9.24965
▁tecnologias	-9.24984
▁gostaria	-9.25021
▁leva	-9.25382
▁fundamental	-9.25453
▁material	-9.25507
▁questões	-9.25512
▁contrário	-9.25514
▁direito	-9.25689
▁efeito	-9.25804
ê	-9.2597
z	-9.26067
▁inteligente	-9.26213
▁rob	-9.26692
p	-9.26773
▁mensagem	-9.26835
▁números	-9.26948
▁sete	-9.26982
▁correr	-9.27297
▁marca	-9.27437
▁necessidade	-9.27506
▁norte	-9.27583
▁económico	-9.27653
▁próprios	-9.27878
oogle	-9.28182
▁tecido	-9.28183
▁padrões	-9.28185
▁tenham	-9.28272
rem	-9.28554
▁uso	-9.28766
▁sexo	-9.2919
▁porta	-9.29271
▁seguro	-9.29548
▁assunto	-9.29563
▁pobres	-9.29566
▁tratamento	-9.29575
▁neurónios	-9.29658
▁começaram	-9.29937
▁fica	-9.30214
▁metade	-9.3024
▁sequer	-9.30243
▁pensamento	-9.30261
▁andar	-9.30272
▁Quer	-9.30373
▁mãos	-9.30906
▁nisto	-9.30932
▁quarto	-9.30936
▁relações	-9.31069
▁dist	-9.31205
▁continua	-9.31223
▁devem	-9.3131
▁rua	-9.3134
▁lidar	-9.31681
lguns	-9.31838
▁te	-9.31931
▁estudar	-9.32325
▁linguagem	-9.32335
▁devemos	-9.3236
▁coração	-9.32459
▁oito	-9.32609
▁houve	-9.32658
▁mapa	-9.32776
▁fotografia	-9.32802
▁ensinar	-9.33032
▁pessoal	-9.33342
▁tirar	-9.33459
▁direitos	-9.33561
▁escolas	-9.33737
▁materiais	-9.33758
▁errado	-9.33818
▁fonte	-9.33843
▁aprendizagem	-9.33886
▁altera	-9.34084
▁procurar	-9.34121
▁co	-9.34186
▁lugares	-9.34249
▁caixa	-9.34288
ismo	-9.34321
▁superfície	-9.34478
▁boas	-9.34673
ta	-9.34922
▁física	-9.34999
▁11	-9.35027
urante	-9.35174
▁Músic	-9.35203
▁fantástico	-9.35203
▁consciência	-9.3522
▁pod	-9.35233
▁comprar	-9.35495
▁aprendi	-9.3555
▁produtos	-9.35777
C	-9.35892
passe	-9.35919
▁pedaço	-9.35932
▁levou	-9.35938
▁digo	-9.35943
▁Neste	-9.35967
▁cento	-9.36001
▁descoberta	-9.36014
▁Esse	-9.36067
▁podiam	-9.36152
▁ia	-9.36283
▁auto	-9.36384
▁consig	-9.36506
▁online	-9.36668
▁código	-9.36668
▁acredito	-9.36794
▁lei	-9.37051
▁custo	-9.37198
▁sítio	-9.37326
▁liberdade	-9.37409
▁mudou	-9.37415
ria	-9.37506
▁descobrimos	-9.37708
▁mostra	-9.37725
ing	-9.37733
▁democracia	-9.38019
▁investigação	-9.38188
▁sangue	-9.38271
▁Nos	-9.38312
▁pagar	-9.38367
▁pior	-9.38373
ivelmente	-9.38464
le	-9.38555
▁permite	-9.38573
▁Tinha	-9.38673
▁trás	-9.38782
▁geração	-9.39048
▁planta	-9.39256
▁doentes	-9.39516
▁fazia	-9.39657
▁buraco	-9.39664
▁explicar	-9.39858
nica	-9.40135
▁metros	-9.4023
▁morrer	-9.4044
▁frequente	-9.40453
▁vivem	-9.40519
▁qualidade	-9.40525
▁extrema	-9.40669
▁Estava	-9.4075
▁médicos	-9.41076
▁li	-9.41093
mara	-9.41167
▁branco	-9.41167
▁repente	-9.41197
▁polícia	-9.41198
▁período	-9.41972
▁Quanto	-9.41973
▁instituições	-9.41973
▁Precisa	-9.41974
▁comunidades	-9.42036
▁usam	-9.42118
▁chega	-9.42209
▁aula	-9.42353
▁parar	-9.42534
eis	-9.42628
▁Da	-9.4274
▁média	-9.42756
▁falta	-9.42936
▁entender	-9.43284
▁faço	-9.43541
▁naquela	-9.43543
▁verdadeiro	-9.43557
unca	-9.43561
▁curso	-9.43911
▁massa	-9.43925
▁produto	-9.44261
il	-9.44329
▁aspeto	-9.44334
▁crise	-9.44482
▁manhã	-9.44538
▁digital	-9.44551
▁Oh	-9.44974
▁famílias	-9.4504
▁razões	-9.45134
▁surpreendente	-9.45141
▁cara	-9.45197
▁luta	-9.45202
▁produção	-9.45277
▁nuclear	-9.4581
▁media	-9.45834
▁velocidade	-9.45941
▁informações	-9.45948
D	-9.46091
▁poderá	-9.46121
▁desejo	-9.46202
▁sonho	-9.46231
▁observar	-9.46319
▁f	-9.4641
▁pedir	-9.46584
▁escolha	-9.46686
▁paciente	-9.46754
▁forte	-9.46819
▁acreditar	-9.46956
▁salvar	-9.46987
▁negócio	-9.47058
▁carta	-9.47274
are	-9.4733
▁igual	-9.4756
▁pobreza	-9.47575
▁limite	-9.47582
▁animal	-9.47599
▁primeiros	-9.47645
▁fotos	-9.47701
▁Cad	-9.479
í	-9.47992
ste	-9.48105
▁total	-9.48106
▁devia	-9.48114
▁Sabe	-9.48382
▁veio	-9.484
▁esquerda	-9.48401
▁produzir	-9.48409
gem	-9.48443
▁ligação	-9.48477
▁espécies	-9.48553
▁esperar	-9.48682
▁sol	-9.48714
▁interior	-9.48789
▁via	-9.48877
▁Parece	-9.49104
▁líderes	-9.49294
fiquei	-9.49378
▁importa	-9.49384
I	-9.4946
▁comer	-9.49681
ais	-9.49906
▁perspetiva	-9.50074
▁petróleo	-9.50074
▁inteiro	-9.50074
▁povo	-9.50165
▁ouvido	-9.50254
▁regi	-9.5034
▁edifícios	-9.5037
▁presente	-9.50495
▁jogo	-9.5052
co	-9.50721
▁Vejam	-9.50762
▁deveria	-9.51284
▁chamamos	-9.51571
▁cuidados	-9.51618
▁parque	-9.51832
▁medicina	-9.51908
▁bons	-9.52377
▁célula	-9.5262
▁época	-9.52661
▁revolução	-9.52679
▁gosto	-9.52718
▁transformar	-9.52759
▁responder	-9.52771
▁regras	-9.5278
ficou	-9.52883
▁escolher	-9.52928
▁Co	-9.53059
▁pensem	-9.53125
▁bebé	-9.53194
▁edifício	-9.53201
▁lista	-9.53243
▁hospital	-9.53332
▁desenvolver	-9.53341
▁conseguia	-9.53429
,	-9.53479
▁antigo	-9.53509
▁Qual	-9.53593
▁vejo	-9.53683
▁raparigas	-9.53691
▁baixa	-9.53755
▁cont	-9.53855
▁modelos	-9.53873
vários	-9.53954
▁Mar	-9.53985
▁longa	-9.54385
▁vítima	-9.54385
▁humanidade	-9.54385
▁Muita	-9.54388
▁pois	-9.54418
▁mesmos	-9.5442
▁esforço	-9.54435
▁parecer	-9.54468
▁par	-9.5452
▁essencial	-9.54585
▁acordo	-9.55143
▁favor	-9.5525
▁comunicação	-9.55291
▁familiar	-9.55426
▁olha	-9.55442
▁percebi	-9.55578
▁Pensem	-9.55936
▁solar	-9.56044
ro	-9.56132
▁Vi	-9.56158
▁topo	-9.56324
▁necessário	-9.56914
▁super	-9.5694
▁feliz	-9.57053
▁transporte	-9.57065
▁pouca	-9.57065
▁mês	-9.57068
ca	-9.57096
▁gráfico	-9.57165
▁absoluta	-9.57224
▁passou	-9.57244
▁abrir	-9.57271
▁genes	-9.57361
▁senti	-9.57397
▁foto	-9.57806
▁estranho	-9.57831
▁tens	-9.57841
▁lembrar	-9.58152
▁cá	-9.5817
▁prazo	-9.58397
▁usada	-9.58401
▁pena	-9.58463
▁Mesm	-9.58632
▁oceano	-9.58728
▁sensação	-9.5889
▁palco	-9.5889
▁poderosa	-9.58921
▁posição	-9.58977
▁abaixo	-9.59066
▁pudesse	-9.59131
▁sociedades	-9.5924
▁governos	-9.59243
▁Re	-9.59538
▁incr	-9.59597
▁rápido	-9.59692
▁rendimento	-9.59816
▁vós	-9.59826
▁inovação	-9.59872
▁inter	-9.59893
▁Ne	-9.60104
▁negócios	-9.60401
▁mental	-9.60441
ado	-9.60526
▁ligar	-9.60563
▁serviços	-9.6069
▁climática	-9.6075
▁Face	-9.60751
▁amostra	-9.60753
▁terríve	-9.60827
▁direita	-9.60896
▁muda	-9.60952
▁permitir	-9.61233
▁Bom	-9.61264
▁Do	-9.61272
▁Fu	-9.61377
▁matéria	-9.61541
▁gostam	-9.61547
▁lutar	-9.61562
▁emprego	-9.61716
▁vimos	-9.61994
▁vírus	-9.62008
ém	-9.62019
▁professor	-9.62108
▁começam	-9.62311
tivemos	-9.62327
nico	-9.62548
▁casos	-9.62587
▁projecto	-9.62634
▁mau	-9.6266
▁semelhante	-9.62673
▁feita	-9.6268
▁onda	-9.62711
▁roda	-9.62747
▁pensa	-9.6278
re	-9.62909
▁ficam	-9.62958
▁sinal	-9.62982
▁bloco	-9.63164
boo	-9.63317
▁fizer	-9.63403
▁malária	-9.63611
▁universidade	-9.63612
▁construção	-9.6364
▁vivo	-9.63717
▁fomos	-9.63737
▁preço	-9.63772
▁Deixem	-9.63782
▁céu	-9.638
P	-9.63852
▁organização	-9.63949
▁mesa	-9.64043
mbos	-9.64591
▁conceito	-9.6464
▁análise	-9.64687
tudo	-9.64774
ard	-9.64922
▁porquê	-9.65152
▁can	-9.65282
▁utilizar	-9.65358
▁aspecto	-9.65559
▁sorte	-9.65559
f	-9.65652
▁potencial	-9.65665
▁cadeia	-9.65666
▁deixa	-9.65793
▁árvores	-9.65861
▁bili	-9.66148
ne	-9.66252
▁descobri	-9.66388
▁enviar	-9.66425
▁evolução	-9.6644
▁perder	-9.66452
▁zona	-9.66524
▁cadeira	-9.66549
▁compaixão	-9.6655
▁Tive	-9.6656
▁padrão	-9.6656
▁filha	-9.66677
▁perna	-9.66682
▁usado	-9.66792
▁depressa	-9.66818
▁abordage	-9.66821
S	-9.66869
▁ganhar	-9.66893
▁políticos	-9.67051
▁querer	-9.6707
▁tu	-9.67127
▁dança	-9.67253
▁cidadãos	-9.67507
niversidade	-9.67545
▁telemóvel	-9.67549
▁inglês	-9.67549
▁chegou	-9.67554
▁Outra	-9.67555
▁condições	-9.67568
▁perfeita	-9.67575
▁fala	-9.68015
eb	-9.68271
▁trazer	-9.68574
▁sério	-9.68576
▁decisão	-9.68733
▁parecem	-9.68776
▁aprendemos	-9.68803
▁década	-9.68839
▁artista	-9.68841
▁doente	-9.69027
▁vivemos	-9.69158
éis	-9.69254
▁sinto	-9.6955
▁contexto	-9.6958
ramos	-9.69637
▁aberto	-9.69655
▁Bo	-9.69662
▁explorar	-9.6968
▁visual	-9.69693
▁mudanças	-9.69809
▁literal	-9.69818
▁fun	-9.69826
▁sentimento	-9.69929
ina	-9.69936
▁busca	-9.69989
▁pensava	-9.70045
▁políticas	-9.70154
▁décadas	-9.70325
▁encontro	-9.70491
▁genoma	-9.70611
▁superior	-9.70615
▁milhão	-9.70641
▁pé	-9.70763
▁ouvi	-9.70875
▁conhecer	-9.70924
▁reconhecer	-9.7102
▁tua	-9.71092
▁import	-9.71309
▁partículas	-9.71411
x	-9.71443
▁juntar	-9.71648
▁biologia	-9.71653
▁terreno	-9.71653
▁peso	-9.71658
▁investimento	-9.71659
▁Par	-9.71766
ávamos	-9.71792
▁máquinas	-9.71944
▁dor	-9.72084
▁significado	-9.72166
▁obviamente	-9.72225
▁usamos	-9.72226
▁frase	-9.72258
▁fossem	-9.72268
▁anterior	-9.7228
▁diga	-9.72433
▁proteger	-9.72696
▁chão	-9.72708
▁pele	-9.7271
responsabilidade	-9.7271
▁esteja	-9.72789
▁dev	-9.72815
▁daqui	-9.72839
▁alimentar	-9.72857
▁vive	-9.72908
▁teu	-9.72953
▁conduzir	-9.73008
▁estudos	-9.73126
▁parede	-9.73149
▁erro	-9.73169
▁funcionam	-9.73174
▁Est	-9.7318
▁irmã	-9.73203
▁Po	-9.73457
cia	-9.73607
▁Têm	-9.73786
▁logo	-9.73803
▁gelo	-9.7382
▁decisões	-9.73938
▁camada	-9.73997
▁possibilidade	-9.74262
▁princípio	-9.74263
ti	-9.74612
▁receber	-9.74755
▁aldeia	-9.74844
▁montanha	-9.74844
▁soft	-9.74852
▁impossível	-9.74855
▁azul	-9.74977
▁acima	-9.74988
▁controlar	-9.74992
▁Sul	-9.74999
▁indivíduos	-9.75048
▁espero	-9.75096
▁Ser	-9.75104
▁capital	-9.75261
▁interesse	-9.75321
▁peça	-9.75402
▁recebe	-9.75604
▁chamar	-9.75662
▁depende	-9.75786
▁sobreviver	-9.75848
▁nove	-9.75892
▁abelhas	-9.75894
▁aparelho	-9.75931
▁dúvida	-9.75931
▁campanha	-9.75931
▁incluindo	-9.75944
▁daquela	-9.75947
▁encontrei	-9.75961
▁cirurgia	-9.76047
▁pública	-9.76167
▁acham	-9.76519
▁complexo	-9.76535
remos	-9.7667
▁taxa	-9.76681
▁inteligência	-9.7703
▁opini	-9.7703
▁direção	-9.77034
▁olharem	-9.77066
inais	-9.77104
pressão	-9.7714
▁leis	-9.77283
▁avó	-9.77414
▁tocar	-9.77417
nia	-9.77616
▁hipótese	-9.77696
▁terceiro	-9.77745
M	-9.77897
man	-9.77907
▁chave	-9.78034
▁Acontece	-9.78141
▁presidente	-9.78141
▁ritmo	-9.78147
▁estrelas	-9.78192
▁per	-9.7835
▁entra	-9.78463
▁casas	-9.78807
▁memória	-9.78815
plicação	-9.78865
▁defini	-9.78882
▁membros	-9.79211
▁janela	-9.79264
ohn	-9.7927
▁maneiras	-9.79282
▁imediatamente	-9.79322
▁tiveram	-9.79793
▁Hav	-9.79834
é	-9.79994
▁objeto	-9.80017
▁t	-9.80221
▁dizia	-9.80316
▁tratar	-9.80333
▁tornam	-9.80338
▁connosco	-9.80401
▁vermelho	-9.80401
ália	-9.80405
▁mec	-9.80432
▁verde	-9.80436
▁tido	-9.80468
▁estive	-9.80636
▁criado	-9.80877
▁encontramos	-9.81057
▁certamente	-9.81182
▁escrito	-9.81309
▁drogas	-9.81359
▁Posso	-9.81588
▁efeitos	-9.81606
▁debate	-9.81629
missão	-9.81692
▁Alguma	-9.81706
▁exemplos	-9.81739
▁conhecemos	-9.81807
▁vêem	-9.81948
▁criação	-9.8204
▁utilizador	-9.8234
▁nasce	-9.82366
▁Nem	-9.82384
▁prática	-9.82404
▁página	-9.82407
▁aumento	-9.82608
▁Chris	-9.8263
▁nacional	-9.82685
▁fábrica	-9.82713
▁cedo	-9.82766
▁tenta	-9.82797
▁banco	-9.82824
▁olho	-9.82831
▁custos	-9.82842
▁considerar	-9.82881
▁sentem	-9.82917
▁rapariga	-9.83641
▁usa	-9.8367
▁difíc	-9.83881
▁convosco	-9.83889
▁química	-9.83889
▁vontade	-9.83889
▁rosto	-9.83893
ídeo	-9.83906
▁Vai	-9.83995
▁especialista	-9.84037
▁costumava	-9.84089
▁di	-9.84299
eiro	-9.84327
▁poderiam	-9.84423
▁viram	-9.84591
▁deu	-9.84611
▁queriam	-9.84814
▁deixem	-9.84965
▁prisão	-9.8508
▁perguntei	-9.85083
▁escrita	-9.85084
▁cresce	-9.85129
▁quiserem	-9.85162
▁agir	-9.85183
▁ligado	-9.85237
▁felizes	-9.85278
▁mover	-9.85333
son	-9.85421
▁ameaça	-9.85446
▁sendo	-9.85696
▁diria	-9.85972
▁apoio	-9.86176
▁vindo	-9.86196
▁puder	-9.8621
▁rapaz	-9.86261
▁complexidade	-9.86285
▁mensagens	-9.86285
▁inteira	-9.86285
▁monte	-9.86322
▁sul	-9.86411
▁religião	-9.8644
▁apresentar	-9.86477
▁casamento	-9.86498
▁site	-9.8655
▁nota	-9.86799
▁bomba	-9.868
génio	-9.8688
▁atingir	-9.86967
▁facil	-9.8743
▁epidemia	-9.87504
▁pintura	-9.87504
▁exterior	-9.87504
▁órgão	-9.87535
▁trabalhadores	-9.87556
▁económica	-9.87587
▁jornalista	-9.87615
▁imaginem	-9.8775
▁passei	-9.87755
▁Sol	-9.87856
▁terceir	-9.87964
▁ruas	-9.88021
▁alterar	-9.88048
▁erros	-9.88207
el	-9.88392
▁bocado	-9.88615
▁tendência	-9.88641
▁objecto	-9.88739
▁característica	-9.88739
▁moral	-9.88743
▁cheia	-9.88752
▁Descobri	-9.88764
▁compreensão	-9.88775
▁texto	-9.88822
▁alcançar	-9.88844
▁Tal	-9.88948
▁aparecer	-9.88951
▁exacta	-9.88955
ie	-9.89022
▁enfrentar	-9.89098
▁armas	-9.89235
▁The	-9.89273
▁Qua	-9.89367
▁alvo	-9.89471
▁medicamentos	-9.89535
▁carreira	-9.89816
▁aulas	-9.89843
▁Ei	-9.89899
▁ecrã	-9.89901
▁poderoso	-9.89956
▁espírito	-9.89989
▁temperatura	-9.89989
▁Natureza	-9.89989
▁organizações	-9.89993
▁tradicional	-9.89996
▁paz	-9.90005
▁subir	-9.90012
▁prova	-9.90065
▁evitar	-9.90175
▁acaba	-9.90181
▁debaixo	-9.90222
ável	-9.90283
▁Des	-9.90414
▁depressão	-9.90422
ada	-9.90469
▁viu	-9.90471
T	-9.90493
▁medir	-9.90497
penas	-9.9057
▁morre	-9.9079
cabou	-9.90822
final	-9.91023
▁Afeganistão	-9.91255
▁fenómeno	-9.91255
▁propósito	-9.91255
▁barato	-9.91255
▁daquele	-9.9126
▁breve	-9.91262
▁estrela	-9.91289
▁brincar	-9.91297
▁usá	-9.91331
▁moléculas	-9.91397
▁vale	-9.91409
lá	-9.91415
camente	-9.9145
▁mercados	-9.9157
▁vossas	-9.91667
▁vejam	-9.91728
▁negros	-9.918
▁parecia	-9.92197
▁le	-9.92283
▁tr	-9.92391
▁respeito	-9.92431
▁stress	-9.92437
▁Mundial	-9.92537
▁pronto	-9.92537
▁direta	-9.9255
▁marido	-9.92557
▁acreditam	-9.92605
▁serviço	-9.9262
▁alimento	-9.92652
▁crença	-9.9268
▁Ma	-9.92957
▁motivo	-9.92972
▁matar	-9.93233
im	-9.93544
▁ca	-9.93547
▁oportunidades	-9.93573
▁solo	-9.93662
▁eficaz	-9.93685
▁acidente	-9.93698
▁encontra	-9.93705
▁ponta	-9.93834
▁beleza	-9.93835
▁areia	-9.93845
▁consumo	-9.93865
▁identidade	-9.93872
▁reduzir	-9.93901
lém	-9.94029
versão	-9.941
PS	-9.94109
▁tornaram	-9.94393
▁tema	-9.9474
it	-9.94823
▁documentos	-9.95109
▁extraordinária	-9.95151
▁gás	-9.95154
▁curva	-9.95197
▁dão	-9.95236
▁conhecido	-9.95379
▁terminar	-9.95544
dade	-9.9559
▁sub	-9.95665
tais	-9.95711
▁relativa	-9.95772
▁rio	-9.95823
▁central	-9.96137
▁Vo	-9.96425
▁estivesse	-9.96428
▁género	-9.96484
▁profissionais	-9.96484
▁noutro	-9.96485
▁lixo	-9.96488
▁calor	-9.96488
▁científico	-9.96518
▁So	-9.96641
irão	-9.96709
▁ferramenta	-9.96736
▁programas	-9.96844
b	-9.96877
níveis	-9.96884
▁visita	-9.96896
▁bebés	-9.96969
▁quilómetros	-9.97054
▁diferenças	-9.97086
▁conseguiu	-9.97127
▁ex	-9.97137
▁adoro	-9.97181
▁formação	-9.97207
ce	-9.97269
▁viva	-9.97538
▁elementos	-9.9756
embro	-9.97645
ante	-9.97811
inguém	-9.97833
▁micróbio	-9.97836
▁carvão	-9.97836
▁paixão	-9.97836
▁justiça	-9.97836
▁carne	-9.97839
▁dez	-9.9785
▁cheguei	-9.97852
▁preso	-9.97897
▁avançar	-9.98145
▁Chama	-9.98245
ve	-9.98342
▁representa	-9.98388
▁permitem	-9.9844
▁caro	-9.98625
▁investir	-9.98762
ana	-9.98927
▁fome	-9.98942
▁escritório	-9.99206
▁segredo	-9.99206
▁estilo	-9.99207
▁ótimo	-9.99207
▁sentado	-9.99252
ic	-9.99315
▁claramente	-9.99427
▁perda	-9.99523
▁Ca	-9.99553
▁velho	-9.99582
▁cientista	-9.99666
ordem	-9.99673
▁falamos	-9.999
▁cart	-9.99987
▁toca	-10.0008
ça	-10.0013
O	-10.0019
io	-10.0021
▁artistas	-10.0022
▁sentia	-10.0028
▁meia	-10.0032
▁seda	-10.0046
▁pensá	-10.0055
▁silêncio	-10.006
▁proteção	-10.0062
▁cabelo	-10.0062
▁Oriente	-10.0063
▁dito	-10.0066
pe	-10.0068
▁imensa	-10.007
▁aceitar	-10.007
▁imenso	-10.0074
▁rápida	-10.0092
▁companhia	-10.0099
▁bairro	-10.01
▁ataque	-10.0101
▁senhor	-10.0113
ura	-10.0131
▁fortes	-10.0151
▁Certo	-10.02
▁felicidade	-10.02
▁graça	-10.0201
▁deixou	-10.0202
etc	-10.0204
▁exce	-10.0207
▁História	-10.021
▁Marte	-10.0212
expressão	-10.0215
▁designer	-10.0215
▁ti	-10.0218
ter	-10.0224
▁organismo	-10.0234
▁pratica	-10.0243
▁brilhante	-10.0247
ton	-10.0248
▁científica	-10.0255
▁aparece	-10.0285
▁motor	-10.0304
ho	-10.0316
▁menina	-10.0343
▁médica	-10.0343
▁fascinante	-10.0344
▁quanta	-10.0344
▁arquitetura	-10.0345
itter	-10.0345
▁desafios	-10.0346
▁Médio	-10.0346
▁imaginação	-10.0349
▁construído	-10.0352
▁profundo	-10.0356
▁comunicar	-10.0357
▁conheci	-10.0358
▁crime	-10.036
▁começamos	-10.0362
▁má	-10.0364
dor	-10.0369
▁gosta	-10.0372
▁existir	-10.0374
▁profunda	-10.0375
▁sai	-10.0377
▁Pens	-10.039
▁fotografias	-10.0393
▁método	-10.0396
▁bola	-10.0397
▁descrever	-10.0397
▁cuidado	-10.0411
▁tarefa	-10.0412
▁Vemo	-10.042
▁útil	-10.0436
▁conflito	-10.0444
▁fazerem	-10.0463
▁disponíve	-10.0477
▁certas	-10.0477
▁chamo	-10.048
▁naturais	-10.0488
▁criatividade	-10.0488
▁acha	-10.0488
▁letra	-10.0488
▁provável	-10.0488
▁Norte	-10.0489
▁televisão	-10.049
▁vantage	-10.0491
▁avião	-10.0492
▁analisar	-10.0492
▁cego	-10.0492
▁velha	-10.0492
▁dever	-10.0503
▁voar	-10.0505
▁americanos	-10.0509
▁sons	-10.0511
este	-10.0524
▁maravilhoso	-10.0532
H	-10.0543
▁genética	-10.0543
▁cama	-10.0545
▁antiga	-10.0547
mpre	-10.0548
▁independente	-10.0557
▁zero	-10.0569
▁rato	-10.0578
ista	-10.0598
▁algu	-10.0598
▁irmão	-10.0605
▁Segund	-10.0605
▁Brasil	-10.0635
▁atmosfera	-10.0635
▁riqueza	-10.0635
▁treino	-10.0635
ondres	-10.0635
▁surgir	-10.0635
▁roupa	-10.0636
▁Irão	-10.0638
▁reais	-10.0638
▁batalha	-10.0639
▁quadro	-10.0642
▁amiga	-10.0645
▁técnicas	-10.0646
▁arranjar	-10.0647
▁passam	-10.0648
▁cabo	-10.065
▁cai	-10.065
▁extra	-10.065
▁escreveu	-10.0655
▁pares	-10.0663
▁aranha	-10.0665
ações	-10.067
▁varia	-10.0673
▁ultrapassar	-10.0681
▁frequência	-10.0689
▁consequências	-10.0689
▁atualmente	-10.0694
trás	-10.0694
▁tivessem	-10.0696
▁aberta	-10.0696
▁cri	-10.0714
▁poderem	-10.072
▁comuns	-10.0722
▁sermos	-10.0727
▁principa	-10.0741
▁inf	-10.0747
▁popular	-10.0754
▁termo	-10.0764
▁menor	-10.0769
▁audiência	-10.0785
▁sombra	-10.0786
▁narrativa	-10.0787
▁bela	-10.0789
▁desenhar	-10.0791
ostaria	-10.0795
▁bactérias	-10.0809
▁un	-10.0848
▁Sem	-10.0852
▁político	-10.0863
amos	-10.0876
▁evento	-10.088
▁interessa	-10.0895
▁fase	-10.091
▁sexual	-10.0911
▁reparar	-10.0923
▁fé	-10.0925
▁individuais	-10.0936
▁chuva	-10.0936
▁fazendo	-10.0936
▁eleições	-10.0936
▁acaso	-10.0936
▁revista	-10.0938
▁baseado	-10.095
▁conclus	-10.0951
▁frio	-10.0956
▁notas	-10.0967
▁encontrámos	-10.0985
▁conteúdo	-10.1012
▁telefone	-10.1012
▁minuto	-10.1019
▁façam	-10.1052
▁fal	-10.1058
nas	-10.106
quilo	-10.1077
▁canto	-10.1078
▁cenário	-10.109
▁círculo	-10.109
▁rádio	-10.109
▁Aquele	-10.109
▁lua	-10.1092
▁impressão	-10.1093
▁óbvio	-10.1094
mica	-10.1095
▁origem	-10.1099
▁Som	-10.1102
▁conhecem	-10.1102
▁preocupa	-10.1104
▁meios	-10.1105
▁sítios	-10.1107
▁micro	-10.1111
▁contacto	-10.1111
▁magi	-10.1112
▁aumenta	-10.1114
▁Mi	-10.1114
ir	-10.1117
▁testar	-10.1118
▁profundamente	-10.1118
▁pista	-10.1119
▁incríve	-10.1121
▁anti	-10.1129
▁falam	-10.1135
▁afirma	-10.1148
▁perigo	-10.1168
▁dispositivo	-10.1178
▁forças	-10.1178
▁negro	-10.1179
▁ratos	-10.1181
▁sentimos	-10.1217
▁precisava	-10.1221
▁lembro	-10.1234
▁feitas	-10.1241
▁Calif	-10.1246
▁privacidade	-10.1246
▁pudé	-10.1246
▁plástico	-10.1246
▁plataforma	-10.1246
▁dezena	-10.1246
▁ciclo	-10.1247
▁obrigada	-10.1248
▁agricultores	-10.1249
▁alma	-10.1251
▁apanhar	-10.1256
▁Acredit	-10.126
▁divis	-10.127
órni	-10.1271
▁conhecida	-10.1275
▁adolescentes	-10.1275
▁trabalha	-10.1282
▁investigador	-10.1286
▁dado	-10.1287
▁engenharia	-10.1288
▁desaparecer	-10.1299
▁projetos	-10.13
▁escuro	-10.1301
▁precisar	-10.1312
▁quis	-10.1313
▁vento	-10.1315
▁arma	-10.1321
▁perfeito	-10.1327
▁ganho	-10.1329
au	-10.1336
▁árabe	-10.1338
▁actual	-10.134
▁perce	-10.134
▁sentimentos	-10.1359
▁quente	-10.1359
▁construímo	-10.1363
pção	-10.1371
▁dum	-10.1375
bilidade	-10.1382
▁encontram	-10.1384
▁começo	-10.1396
▁interessantes	-10.1404
▁insecto	-10.1405
▁símbolo	-10.1405
▁Houve	-10.1405
▁saudável	-10.1405
▁fogo	-10.1405
▁Outro	-10.1406
▁realizar	-10.1413
▁disponíveis	-10.1418
▁Man	-10.1439
▁civil	-10.1442
▁objetos	-10.1459
nido	-10.1463
▁galáxias	-10.147
▁luzes	-10.1492
▁maravilhosa	-10.1504
▁mostram	-10.1506
▁sozinho	-10.1507
▁artigo	-10.1507
▁continuam	-10.1515
rovavelmente	-10.1526
▁pudessem	-10.1536
▁momentos	-10.1546
▁pão	-10.1562
▁perspectiva	-10.1566
▁tradicionais	-10.1566
▁probabilidade	-10.1566
▁chegá	-10.1566
▁surpresa	-10.1567
▁haja	-10.1567
▁surge	-10.1574
▁agricultura	-10.1578
▁desaparece	-10.1582
▁cura	-10.1588
▁gene	-10.1594
▁implica	-10.1602
▁so	-10.1605
▁vender	-10.161
▁participar	-10.1619
tendo	-10.1645
ong	-10.165
▁enormes	-10.1653
▁primo	-10.1653
▁café	-10.1656
▁trabalh	-10.1664
▁decidir	-10.1671
▁Ba	-10.1671
▁acredita	-10.1671
▁escolhas	-10.1674
▁árvore	-10.168
▁notícia	-10.168
▁chamam	-10.1684
▁Disse	-10.169
olução	-10.1715
▁conseguirmos	-10.1718
▁custa	-10.1719
▁boca	-10.1721
▁estejam	-10.1726
▁fixe	-10.173
▁receita	-10.173
▁sustentável	-10.1731
▁desempenho	-10.1734
▁Ali	-10.1734
▁parecido	-10.1738
▁criou	-10.1738
▁apareceu	-10.1744
▁descobriu	-10.175
▁rapazes	-10.175
▁evolui	-10.1751
▁autor	-10.1754
▁Tom	-10.1779
americanos	-10.1794
▁oferecer	-10.1796
▁gostava	-10.1797
▁peças	-10.1812
▁daquilo	-10.1817
▁Fo	-10.1834
ados	-10.1841
▁progresso	-10.1842
▁criá	-10.1847
▁peixe	-10.185
▁cozinha	-10.1856
▁jornal	-10.1885
▁dentes	-10.1885
▁pude	-10.1895
▁básica	-10.1897
▁complicado	-10.1897
▁telemóveis	-10.1897
▁máxim	-10.1897
feira	-10.19
▁discurso	-10.1901
▁demais	-10.1902
▁leve	-10.1903
▁clara	-10.1905
▁original	-10.1912
▁1,	-10.1913
creio	-10.1916
▁segundos	-10.1957
ncias	-10.1958
▁refugiados	-10.196
▁benefícios	-10.1987
▁públicos	-10.1993
▁errada	-10.1993
▁gastar	-10.1998
▁pro	-10.2002
▁andava	-10.2012
▁recuperar	-10.2018
▁din	-10.2022
▁Tu	-10.2028
▁gostar	-10.2048
▁ben	-10.2048
▁unidade	-10.2054
▁oposto	-10.2066
▁clima	-10.2067
▁igualdade	-10.2067
▁preto	-10.2069
▁espantoso	-10.2071
▁precisão	-10.2072
▁Foram	-10.2073
▁responsável	-10.2074
apão	-10.2076
▁deviam	-10.2082
▁positiva	-10.2085
▁Numa	-10.2097
▁Rein	-10.2098
▁faça	-10.2107
▁traz	-10.2108
▁porco	-10.2138
▁Dr	-10.2162
▁pré	-10.2169
▁subi	-10.2171
▁formar	-10.2186
▁contas	-10.2187
▁faculdade	-10.2193
▁cheio	-10.2195
jo	-10.2196
ego	-10.2199
▁indivíduo	-10.2206
▁constante	-10.2213
▁excelente	-10.2214
▁registo	-10.2214
▁Precisam	-10.2216
▁irem	-10.2221
▁prazer	-10.2223
▁vídeos	-10.2225
▁Mo	-10.2228
MS	-10.223
▁humanas	-10.2232
ntica	-10.2233
▁trouxe	-10.2236
▁eletricidade	-10.2239
▁médio	-10.2239
▁bonito	-10.2239
▁voto	-10.224
▁artificial	-10.2247
DA	-10.2247
▁falso	-10.2248
▁baseada	-10.2249
redor	-10.2251
▁exploração	-10.2252
▁atravessar	-10.2253
▁substituir	-10.2259
▁ON	-10.2265
▁ricos	-10.2268
▁venda	-10.2287
▁chefe	-10.2292
▁morta	-10.2297
▁idosos	-10.2298
▁viajar	-10.231
▁av	-10.2318
lguém	-10.233
ood	-10.2332
▁visitar	-10.2341
ac	-10.2341
▁toneladas	-10.2346
di	-10.2357
▁sonhos	-10.2359
▁espacial	-10.2363
▁Dar	-10.2367
▁pés	-10.2375
▁Trata	-10.2379
▁Num	-10.2385
▁equipamento	-10.2386
▁colega	-10.2389
▁identificar	-10.2407
▁clientes	-10.2409
▁cami	-10.2413
vergonha	-10.2414
▁exército	-10.2414
▁classe	-10.2414
▁moda	-10.2415
▁empregos	-10.2416
eza	-10.2416
▁cena	-10.2417
▁riso	-10.2418
▁conversas	-10.2422
▁empatia	-10.2422
▁lenta	-10.2424
▁americana	-10.2424
▁infelizmente	-10.2425
▁defender	-10.2434
▁Infeliz	-10.2438
▁cola	-10.2443
riamente	-10.2443
▁invisíve	-10.2446
▁quiser	-10.245
▁graus	-10.2458
▁existia	-10.2459
▁páginas	-10.246
▁estaria	-10.2464
ine	-10.2466
▁larga	-10.2467
▁emissões	-10.2471
ell	-10.2497
nstein	-10.2497
▁ouro	-10.2513
▁cultural	-10.2518
▁más	-10.2529
▁cair	-10.2535
▁preocupar	-10.254
▁extraordinário	-10.2566
▁sequência	-10.2567
▁fantástica	-10.2569
▁emocional	-10.2572
▁molécula	-10.2572
▁tumor	-10.2577
▁militar	-10.2579
▁ignor	-10.2592
▁internacional	-10.2593
▁vidro	-10.2593
▁chip	-10.2593
▁cortar	-10.2593
uerra	-10.2594
▁TV	-10.2596
▁mentira	-10.2596
▁garantir	-10.2597
▁confiar	-10.26
▁motiva	-10.26
▁perguntou	-10.2601
▁atividade	-10.2606
▁fibra	-10.261
▁deserto	-10.2614
érci	-10.2617
▁retirar	-10.2617
▁seriam	-10.2618
▁transforma	-10.2626
▁con	-10.2629
▁partilha	-10.2642
▁dizemos	-10.2677
▁princípios	-10.269
▁vivia	-10.2692
tar	-10.2701
▁torná	-10.2708
▁grave	-10.2718
neo	-10.2732
▁vacinas	-10.2733
áveis	-10.2736
▁atual	-10.2745
▁quinta	-10.2748
▁nele	-10.2757
▁desenho	-10.2758
▁costa	-10.2759
▁libertar	-10.2759
▁braço	-10.2759
IB	-10.2762
▁Higgs	-10.2774
▁compromisso	-10.2774
▁crítica	-10.2774
▁noutra	-10.2774
▁barata	-10.2774
▁infantil	-10.2774
▁objectivo	-10.2776
▁voltei	-10.2777
▁significativa	-10.2779
▁gerações	-10.278
▁ligações	-10.2781
▁técnica	-10.2781
▁Pelo	-10.2782
▁Poder	-10.2786
▁segura	-10.2796
▁constantemente	-10.2802
▁poupar	-10.2804
▁preparar	-10.2817
▁devo	-10.282
▁planetas	-10.2821
▁descobriram	-10.2826
▁passaram	-10.2841
ficaram	-10.2846
▁pensarmos	-10.2849
▁Vão	-10.285
▁proteínas	-10.2886
▁Eram	-10.2898
▁x	-10.2898
▁diminui	-10.2937
▁1000	-10.2937
▁Fran	-10.294
dia	-10.2946
▁fato	-10.2951
▁Contu	-10.2951
▁pobre	-10.2954
▁autocarro	-10.296
▁variedade	-10.296
▁sozinha	-10.296
▁famoso	-10.296
ntico	-10.296
▁Canadá	-10.296
▁divertido	-10.296
ngulo	-10.2961
▁mortalidade	-10.2961
▁Nesta	-10.2961
▁obtemos	-10.2963
▁Espero	-10.2963
▁noção	-10.2964
▁dimensões	-10.2964
▁telescópio	-10.2964
▁vermelha	-10.2964
▁prever	-10.2965
▁terrorista	-10.2966
▁tivé	-10.2966
▁perdido	-10.2969
▁combustível	-10.297
▁volume	-10.2976
▁gerir	-10.2977
▁rara	-10.298
▁completa	-10.2991
▁certos	-10.2993
▁adicionar	-10.2993
mail	-10.2995
F	-10.2998
▁ouvimos	-10.3032
▁cem	-10.304
idão	-10.3041
▁possibilidades	-10.3061
▁afastar	-10.3068
▁conflitos	-10.3078
▁tarefas	-10.3078
▁ataques	-10.3093
▁data	-10.3095
aram	-10.3106
▁Ri	-10.3111
▁pessoais	-10.3121
id	-10.313
daí	-10.3135
▁Fique	-10.3147
▁Alemanha	-10.3148
▁específico	-10.3148
▁poesia	-10.3148
▁sofrimento	-10.3148
▁equivalente	-10.3149
▁fundamentais	-10.3149
▁sabíamos	-10.315
▁gritar	-10.315
vivência	-10.315
▁prestes	-10.3151
▁estudante	-10.3151
▁olhem	-10.3152
▁provar	-10.3152
▁curto	-10.3153
▁vizinhos	-10.3158
▁ganha	-10.3159
▁propriedade	-10.316
▁far	-10.3161
icamente	-10.3163
▁anda	-10.3168
▁Iraque	-10.3169
▁recebi	-10.3191
▁grav	-10.3192
▁falhar	-10.3193
▁aplicações	-10.3203
ava	-10.3208
▁faziam	-10.322
▁ponte	-10.3226
ássemos	-10.3253
▁adultos	-10.3255
▁distribuiç	-10.3277
tro	-10.3283
▁bairros	-10.3285
nsito	-10.3291
▁Começa	-10.3297
▁engenheiros	-10.3306
▁sofrer	-10.332
adas	-10.3322
▁expans	-10.3334
▁semelhantes	-10.3336
▁saí	-10.334
▁aniversário	-10.3341
▁diálogo	-10.3341
▁exercício	-10.3341
▁vazio	-10.3341
▁mantém	-10.3341
▁macho	-10.3341
▁bonita	-10.3341
▁opções	-10.3341
▁reputação	-10.3341
▁coragem	-10.3342
▁universal	-10.3348
▁muçulmano	-10.3348
▁membro	-10.3352
▁argumento	-10.3354
▁jogar	-10.3362
ol	-10.3368
ver	-10.337
▁terrorismo	-10.3371
▁Querem	-10.3397
▁trabalham	-10.3409
▁dispositivos	-10.3425
▁Al	-10.3439
▁criam	-10.3447
agens	-10.3447
▁digita	-10.3452
▁salto	-10.3471
gestão	-10.3483
us	-10.3486
▁dificuldades	-10.3497
B	-10.3504
▁org	-10.3505
▁email	-10.3512
▁Pro	-10.3519
▁apoiar	-10.3534
▁hospitais	-10.3537
▁gripe	-10.3537
▁destino	-10.3537
▁jantar	-10.3537
▁diversidade	-10.3537
▁instituição	-10.3538
▁funcionário	-10.3538
▁secundário	-10.354
ário	-10.3541
▁moderna	-10.355
▁pedido	-10.3553
▁estranha	-10.3556
▁interagir	-10.3558
▁branca	-10.3559
ler	-10.3562
ga	-10.3566
N	-10.358
com	-10.3582
▁práticas	-10.3589
igo	-10.3593
▁Entre	-10.3594
▁recolher	-10.3597
▁focar	-10.3601
▁opera	-10.3613
▁mudaram	-10.3642
▁Queria	-10.3645
▁sabiam	-10.3651
▁sugerir	-10.3656
▁instru	-10.3675
▁indica	-10.368
▁obra	-10.369
tório	-10.3692
▁votar	-10.3694
▁bri	-10.3703
posição	-10.371
▁gas	-10.3713
▁Fiz	-10.372
▁detalhes	-10.3731
▁Israel	-10.3736
▁bocadinho	-10.3737
▁imprensa	-10.3737
▁prémio	-10.3737
▁urbano	-10.3737
▁Feliz	-10.3737
ashington	-10.3737
▁circuito	-10.3737
▁Austr	-10.3737
▁tinta	-10.3737
▁triste	-10.3737
▁Adoro	-10.3737
▁economista	-10.3737
▁resistência	-10.3737
▁envolvido	-10.3737
▁mistério	-10.3737
▁barulho	-10.3737
▁mostrou	-10.3739
▁consumidores	-10.3741
▁obras	-10.3748
▁museu	-10.3752
▁pedra	-10.3757
▁negra	-10.3757
▁necessária	-10.3758
▁bio	-10.376
▁Paris	-10.376
▁Seria	-10.377
▁transformação	-10.3773
▁quisermos	-10.3782
▁limita	-10.3787
▁terço	-10.3788
▁recupera	-10.3798
▁Ah	-10.3803
▁banho	-10.3804
▁diziam	-10.3808
ed	-10.3811
▁raça	-10.3815
E	-10.3815
▁hipóteses	-10.3823
▁complexos	-10.3831
▁regressar	-10.384
▁participa	-10.3851
▁senhora	-10.3863
▁comentários	-10.387
▁estados	-10.3879
ha	-10.3883
▁juntas	-10.3891
▁produz	-10.3898
▁Bill	-10.3907
▁orienta	-10.3923
▁líder	-10.3926
americana	-10.3929
tas	-10.3929
▁México	-10.3941
▁VIH	-10.3941
▁comprimento	-10.3941
▁dívida	-10.3941
▁Começámo	-10.3941
▁poema	-10.3941
▁existência	-10.3941
▁reconstruir	-10.3941
agem	-10.3942
▁Quénia	-10.3942
▁paisagem	-10.3943
▁transição	-10.3943
▁festa	-10.3943
▁provas	-10.3949
inha	-10.3956
▁Ver	-10.3961
▁esqueleto	-10.3964
land	-10.3966
▁completo	-10.3966
▁face	-10.3972
▁nela	-10.3972
▁fronteira	-10.3973
▁droga	-10.3975
▁perigoso	-10.3978
▁sapato	-10.3979
▁moeda	-10.3982
▁sensor	-10.399
▁ouviram	-10.3996
ogo	-10.4003
at	-10.4019
▁corpos	-10.4031
▁inventar	-10.4043
▁comportamentos	-10.4044
▁estarem	-10.4052
▁mosquitos	-10.406
▁cão	-10.4069
▁pensado	-10.407
▁frases	-10.4071
▁nomes	-10.4081
inho	-10.409
▁dura	-10.4091
▁velhos	-10.4098
▁espalhar	-10.4115
cção	-10.4121
ição	-10.4131
▁envolver	-10.4144
▁destrui	-10.4148
▁desastre	-10.4149
▁específica	-10.4149
▁oxitocina	-10.4149
▁possíveis	-10.4149
▁relevante	-10.4149
▁reconhecimento	-10.4149
▁cuidar	-10.4149
▁Mãe	-10.415
▁esquerdo	-10.415
▁situações	-10.4151
▁seguida	-10.4154
▁técnico	-10.4154
▁exame	-10.4156
▁fatores	-10.4158
▁mistura	-10.4158
▁popula	-10.4167
▁chamou	-10.4167
▁fila	-10.4172
▁virtual	-10.4177
▁corrente	-10.4182
▁diagnóstico	-10.4183
▁advogado	-10.4186
▁estranhos	-10.4187
▁loja	-10.4188
▁decidiu	-10.4189
▁dificuldade	-10.4191
▁Sr	-10.42
▁peixes	-10.4208
▁experimentar	-10.4212
▁Sei	-10.4229
▁Bro	-10.423
tualmente	-10.4238
lhando	-10.4257
▁bater	-10.4264
▁profissional	-10.427
▁ato	-10.4271
▁comercial	-10.4276
▁elemento	-10.4285
▁publica	-10.4305
▁liga	-10.4312
rande	-10.4331
▁causar	-10.4333
▁vacina	-10.4346
▁torno	-10.435
▁combustíve	-10.4361
▁curiosidade	-10.4362
▁iguais	-10.4362
▁metáfora	-10.4362
▁promessa	-10.4362
▁terapia	-10.4362
▁Francisco	-10.4362
▁microscópio	-10.4362
▁exposição	-10.4362
▁piada	-10.4363
▁permitiu	-10.4364
▁Tínhamo	-10.4367
▁saída	-10.4367
▁reação	-10.4368
▁restaurante	-10.4369
▁beber	-10.4373
▁bl	-10.4374
▁explicação	-10.4375
▁Consegue	-10.4378
▁acabado	-10.438
▁militares	-10.438
▁Homem	-10.4385
▁eixo	-10.4393
▁barco	-10.4398
▁estratégia	-10.4409
▁mecanismo	-10.4411
▁Anders	-10.4413
▁apercebi	-10.4419
▁interessados	-10.4426
▁percorrer	-10.4426
▁ilusão	-10.4438
▁aluno	-10.444
▁contrato	-10.4443
▁requer	-10.4447
ível	-10.4448
▁corre	-10.4448
▁virem	-10.4452
▁passada	-10.4456
ua	-10.4456
▁paredes	-10.4489
▁trabalhava	-10.452
▁ajudam	-10.4526
▁liberta	-10.4528
▁Cri	-10.4566
▁Inglaterra	-10.4579
▁Nenhum	-10.4579
▁personalidade	-10.4579
ebsite	-10.4579
▁ótima	-10.4579
▁saudáveis	-10.4579
▁eventual	-10.458
▁França	-10.458
▁fracasso	-10.4582
▁belo	-10.4585
▁dormir	-10.4589
▁fluxo	-10.4594
lu	-10.46
▁setembro	-10.4603
▁relacionada	-10.4604
▁Dois	-10.4608
▁seguintes	-10.4622
▁circuns	-10.4628
▁tentativa	-10.4631
bo	-10.4633
▁veículo	-10.4639
▁primeiras	-10.4662
bido	-10.4673
▁nervoso	-10.4674
▁utiliza	-10.4691
▁repetir	-10.4694
▁programar	-10.4695
▁Ni	-10.4699
▁dada	-10.47
▁factos	-10.4723
▁contribui	-10.4759
▁recebem	-10.4773
▁religi	-10.4778
▁chegam	-10.4782
ord	-10.479
▁vira	-10.4795
▁h	-10.4801
▁cardíaco	-10.4801
▁esposa	-10.4801
▁clínica	-10.4801
▁influência	-10.4801
▁jardim	-10.4801
▁proposta	-10.4801
▁liderança	-10.4801
▁colónia	-10.4802
▁fósseis	-10.4802
▁convencer	-10.4802
▁Big	-10.4802
▁Angeles	-10.4803
▁ligeiramente	-10.4804
▁aconteça	-10.4805
▁esconder	-10.4806
▁passava	-10.4809
avelmente	-10.481
▁expandir	-10.481
▁salas	-10.4811
▁ajudou	-10.4811
▁Consegui	-10.4813
gito	-10.4815
▁transmitir	-10.4817
▁corrida	-10.482
▁organizar	-10.4825
▁recompensa	-10.4827
▁equaç	-10.4834
▁lançar	-10.4837
▁falo	-10.4855
▁conselho	-10.4867
▁alternativa	-10.4871
juntamente	-10.4872
▁moderno	-10.4878
istas	-10.4883
ent	-10.4895
▁escura	-10.4901
▁servir	-10.4912
cidente	-10.4919
nel	-10.4924
▁tom	-10.4924
▁individual	-10.4945
▁aproxima	-10.4949
▁Diz	-10.4952
▁duro	-10.4958
▁companhias	-10.4963
▁criaram	-10.497
rã	-10.4976
▁faria	-10.5002
▁soa	-10.5006
▁Dia	-10.501
▁discussão	-10.5029
▁distúrbio	-10.5029
▁elétrico	-10.5029
▁histórico	-10.5029
▁prioridade	-10.5029
▁título	-10.5029
▁êxito	-10.5029
▁madeira	-10.5029
▁Apple	-10.5029
▁Final	-10.5031
▁entropia	-10.5035
▁alegria	-10.5038
rmais	-10.5043
rês	-10.5047
▁aprende	-10.505
▁gerar	-10.505
▁criminoso	-10.5052
▁olhou	-10.5052
▁positivo	-10.5065
▁assistir	-10.5066
▁acelerar	-10.5067
chave	-10.5068
▁usou	-10.5069
▁limpa	-10.5079
ço	-10.5081
▁amar	-10.5087
▁esperava	-10.5093
▁passos	-10.5095
▁junto	-10.5103
▁bicicleta	-10.5106
▁cálculo	-10.5108
▁medicamento	-10.5113
▁osso	-10.512
▁aceite	-10.5122
▁coloca	-10.5129
▁conferência	-10.513
▁pa	-10.5135
▁admira	-10.515
R	-10.5154
ntrou	-10.5165
iriam	-10.5195
▁achava	-10.5196
▁aproximar	-10.5203
abb	-10.5205
▁Rec	-10.5209
▁usados	-10.5222
ni	-10.5238
▁clar	-10.5242
▁mundia	-10.5244
doria	-10.5246
anha	-10.5248
▁capacidades	-10.5254
▁acontecido	-10.5261
▁comboio	-10.5261
▁equilíbrio	-10.5261
▁inferior	-10.5261
▁protótipo	-10.5261
▁desigualdade	-10.5261
▁cujo	-10.5261
▁Pessoa	-10.5261
▁dizendo	-10.5261
▁literatura	-10.5261
▁Nessa	-10.5261
▁aproveitar	-10.5262
▁salário	-10.5262
chei	-10.5264
▁Rich	-10.5267
▁considerado	-10.5271
▁respondeu	-10.5272
▁su	-10.5272
lin	-10.5276
▁Arte	-10.5278
▁diante	-10.5278
▁explosão	-10.5281
▁Norma	-10.5284
▁lições	-10.5286
▁decidiram	-10.5286
▁extens	-10.5288
▁Fi	-10.5288
▁oceanos	-10.5294
▁civilizaç	-10.5295
▁violenta	-10.5298
▁virar	-10.5301
▁impedir	-10.5304
▁comparação	-10.5305
bol	-10.5308
▁Eis	-10.5309
▁voo	-10.5312
▁fugir	-10.5313
▁agência	-10.5316
▁levado	-10.5319
▁competi	-10.5323
▁levantar	-10.5331
▁aplicar	-10.5341
▁gigante	-10.5352
ticamente	-10.5353
▁proteína	-10.5355
▁pega	-10.536
▁mandar	-10.5362
▁partido	-10.5373
▁honra	-10.5379
▁Ent	-10.538
▁raio	-10.5386
▁carregar	-10.5395
▁ilha	-10.5406
▁acabam	-10.5411
▁métodos	-10.5412
▁perturba	-10.542
▁chora	-10.5427
nio	-10.5449
▁fico	-10.5469
▁troca	-10.5479
▁fronteiras	-10.548
▁tento	-10.548
tores	-10.5486
estar	-10.5492
▁propor	-10.5498
posições	-10.5499
▁académico	-10.5499
▁doméstica	-10.5499
▁hormona	-10.5499
▁globais	-10.5499
▁percurso	-10.5499
▁ampla	-10.55
▁nação	-10.55
▁Nobel	-10.5501
▁rica	-10.5501
▁anúncio	-10.5501
▁Significa	-10.5501
tradição	-10.5502
▁saco	-10.5503
▁botão	-10.5506
▁Institut	-10.5507
▁ativista	-10.5507
▁maus	-10.5508
▁aproximadamente	-10.5509
▁evidência	-10.5513
▁braços	-10.5519
▁Paul	-10.552
▁Ed	-10.5522
▁correta	-10.5528
▁químicos	-10.5531
▁pico	-10.5536
▁aprendem	-10.5546
▁diminuir	-10.5549
▁componentes	-10.555
▁radiaç	-10.5567
▁guia	-10.5575
▁africanos	-10.5591
▁espantosa	-10.5593
▁privado	-10.5597
▁desenvolvido	-10.5598
▁americano	-10.5617
▁jogos	-10.562
▁interesses	-10.5624
▁combater	-10.5636
ab	-10.5645
tentei	-10.5651
▁assustador	-10.5655
▁direcç	-10.5657
▁brilhantes	-10.5665
lmente	-10.567
▁ficamos	-10.5683
▁representam	-10.5688
bac	-10.5696
▁tendem	-10.5697
▁Du	-10.5705
▁sofre	-10.5706
▁seguido	-10.5715
▁preços	-10.5729
tei	-10.5741
▁cerebral	-10.5743
▁conectoma	-10.5743
▁mamífero	-10.5743
▁imigrante	-10.5743
▁permanente	-10.5743
▁produtividade	-10.5743
▁Museu	-10.5743
▁vinha	-10.5744
eorge	-10.5744
▁portát	-10.5744
▁aparente	-10.5744
zum	-10.5746
▁funcion	-10.5747
▁envelhecimento	-10.575
▁especiais	-10.575
▁banda	-10.5759
▁orçamento	-10.576
▁rei	-10.5763
▁saiu	-10.5764
▁nuvem	-10.5766
▁aquecimento	-10.5771
▁eficazes	-10.5772
▁cozinhar	-10.5773
▁levam	-10.5774
▁criaturas	-10.5776
mar	-10.5777
▁representação	-10.578
▁eliminar	-10.5783
▁Thom	-10.5785
▁sintomas	-10.5797
▁SI	-10.5798
▁questionar	-10.5799
▁querido	-10.5804
▁combina	-10.581
net	-10.5816
▁repara	-10.5822
one	-10.5827
▁artigos	-10.5833
car	-10.5841
▁soube	-10.5842
▁cometa	-10.5852
▁guarda	-10.5856
▁trans	-10.5858
▁electric	-10.5859
nicos	-10.587
▁úteis	-10.5884
▁Mu	-10.5886
▁legal	-10.5886
▁corte	-10.5887
▁Davi	-10.5891
▁Di	-10.5911
pa	-10.5914
▁veículos	-10.5924
▁mudam	-10.5926
▁Ha	-10.5927
ur	-10.5954
▁maravilha	-10.5963
mbora	-10.5964
▁responsáve	-10.5985
▁dimens	-10.5986
▁g	-10.599
▁CRISPR	-10.5993
▁descoberto	-10.5993
▁horrível	-10.5993
▁intestino	-10.5993
▁tijolo	-10.5993
▁lógica	-10.5993
▁relatório	-10.5993
▁menino	-10.5993
▁choque	-10.5993
▁discutir	-10.5994
▁leitura	-10.5994
▁propriedades	-10.5994
eting	-10.5995
▁extrair	-10.5996
▁Bang	-10.5996
▁Nesse	-10.5997
▁pre	-10.5999
▁mantêm	-10.6
all	-10.6
▁preferida	-10.6003
▁inspiração	-10.6003
▁arco	-10.6006
▁detetar	-10.6006
▁amanhã	-10.6012
▁Faz	-10.6018
▁limitado	-10.6018
alquer	-10.602
aiti	-10.602
▁partilhado	-10.6022
▁observa	-10.6023
▁soldado	-10.6024
▁caminhar	-10.6024
▁Olhem	-10.6031
▁morreram	-10.6033
▁respira	-10.6042
▁pedi	-10.6047
▁oxi	-10.6054
▁descer	-10.6058
▁Fizemo	-10.6059
▁Quere	-10.6061
▁toque	-10.6065
▁investigar	-10.6071
▁nano	-10.6074
▁lembrem	-10.6075
éria	-10.6111
▁financeira	-10.6114
▁quadrado	-10.6119
▁ecossistema	-10.6122
▁agarrar	-10.6126
▁segui	-10.613
▁revela	-10.6138
▁norma	-10.6142
li	-10.6152
he	-10.6156
▁Ter	-10.6167
▁conheç	-10.6172
entemente	-10.619
▁viera	-10.6198
Bret	-10.6199
tude	-10.6207
ten	-10.6215
▁engano	-10.6245
▁daqueles	-10.6249
▁cinema	-10.625
▁telhado	-10.625
▁biológica	-10.625
▁cuja	-10.625
▁suposto	-10.625
▁Mulher	-10.625
▁chinês	-10.625
▁cantar	-10.6251
▁essência	-10.6251
▁Aquela	-10.6252
▁Nacional	-10.6252
▁biblioteca	-10.6252
▁sentada	-10.6256
▁PM	-10.6256
ó	-10.6258
▁mães	-10.6263
▁placa	-10.6268
▁pós	-10.627
▁representar	-10.627
▁ensaio	-10.6279
▁flor	-10.6285
▁Me	-10.6287
▁tira	-10.6288
▁sal	-10.6297
▁destruir	-10.6304
▁louca	-10.6306
▁Times	-10.6315
▁instrumentos	-10.6326
▁gera	-10.6335
▁Tinham	-10.6338
▁verdes	-10.6342
▁olham	-10.6351
▁radical	-10.6361
▁algoritmos	-10.6367
▁pesca	-10.6369
▁aves	-10.6379
▁algoritmo	-10.6393
▁Ta	-10.6395
▁avalia	-10.6398
▁eficiente	-10.6403
ad	-10.6407
▁empreendedor	-10.6409
▁cavalo	-10.6412
▁Basic	-10.6418
▁condutor	-10.6423
có	-10.6437
▁elevado	-10.6438
Cola	-10.6443
▁escrevi	-10.6446
ford	-10.6449
▁gasto	-10.6454
▁toma	-10.646
▁diretor	-10.6463
sia	-10.6481
▁inicial	-10.6497
▁deram	-10.65
▁previs	-10.6501
▁pergunto	-10.6506
▁responde	-10.6508
ago	-10.6509
Tub	-10.6513
▁agulha	-10.6513
▁filósofo	-10.6513
▁mínimo	-10.6513
▁núcleo	-10.6513
▁privilégio	-10.6513
▁tribuna	-10.6513
▁veterano	-10.6513
▁obstáculo	-10.6513
▁Harvard	-10.6513
▁igreja	-10.6513
▁conex	-10.6513
▁famosa	-10.6513
▁Aprendi	-10.6513
▁mostrei	-10.6514
▁percentagem	-10.6514
▁Coca	-10.6515
▁transpar	-10.6515
▁Ciro	-10.6515
▁ficção	-10.6518
▁bateria	-10.6519
▁percebem	-10.6521
▁automóvel	-10.6521
ização	-10.6524
▁séculos	-10.6527
▁notável	-10.6528
▁necessariamente	-10.6531
▁religiosa	-10.6531
▁presença	-10.6532
▁visível	-10.6535
▁abordar	-10.6537
▁sente	-10.6546
▁junta	-10.6563
▁significava	-10.6564
▁deixam	-10.6567
▁perigosa	-10.6568
▁Quais	-10.6573
▁movimentos	-10.6581
▁cheiro	-10.6602
▁estatísticas	-10.6602
▁Ouvi	-10.661
▁acabe	-10.6611
▁grava	-10.6612
▁habita	-10.6635
▁milha	-10.6639
▁inevitáve	-10.6651
▁abrigo	-10.6662
▁elefante	-10.6667
▁complexa	-10.6671
▁gato	-10.6672
▁galáxia	-10.6673
▁morto	-10.6673
▁fio	-10.6674
▁antigas	-10.6674
▁tio	-10.6677
▁desce	-10.668
▁pago	-10.6685
▁escolar	-10.6695
▁casar	-10.6697
▁Acab	-10.6702
ba	-10.6705
ames	-10.6705
▁oh	-10.6705
et	-10.6715
▁ficava	-10.6716
▁industrial	-10.6723
uc	-10.6728
▁acto	-10.674
▁res	-10.6741
SP	-10.6755
osto	-10.6766
▁ilumina	-10.6767
▁dólar	-10.6768
▁Prémio	-10.6783
▁aleatória	-10.6783
▁inimigo	-10.6783
▁procedimento	-10.6783
▁tecnológica	-10.6783
▁universitário	-10.6783
▁MIT	-10.6783
▁iniciativa	-10.6784
▁fechado	-10.6785
▁bolha	-10.6787
▁cega	-10.6788
▁figura	-10.6789
▁mexer	-10.6789
▁justo	-10.6789
▁relacionado	-10.6794
▁falei	-10.6795
▁pintar	-10.6796
▁serve	-10.6797
▁funções	-10.6804
▁candidato	-10.6806
▁operação	-10.6811
▁tomada	-10.6813
▁conform	-10.6814
▁morri	-10.6829
▁competição	-10.6829
▁construí	-10.6832
▁defesa	-10.6836
▁parceiros	-10.6853
▁verem	-10.6857
▁contribuir	-10.6857
po	-10.6864
▁satélites	-10.6864
▁caixas	-10.6864
▁tent	-10.6868
▁acção	-10.688
▁sozinhos	-10.6883
▁formos	-10.6896
▁mortos	-10.6896
▁basta	-10.6904
▁falava	-10.6909
▁naturalmente	-10.691
iro	-10.6915
▁públicas	-10.6924
▁colaboraç	-10.6928
▁ocorrer	-10.6941
▁átomos	-10.6942
▁rai	-10.6946
▁criativo	-10.6954
▁consequência	-10.6959
▁recurso	-10.6963
▁criada	-10.6967
▁avaliar	-10.6969
▁nev	-10.6971
ntro	-10.6973
não	-10.6978
ês	-10.698
▁acab	-10.6987
▁fi	-10.7005
▁Son	-10.7021
▁africano	-10.7025
▁vá	-10.7026
tis	-10.7028
▁salva	-10.7032
▁levanta	-10.7038
▁cresci	-10.7041
ama	-10.7052
▁capita	-10.7052
▁lados	-10.7053
▁agentes	-10.7056
▁lembra	-10.7058
▁Alzheimer	-10.7061
▁tópico	-10.7061
▁Paquist	-10.7061
▁microfone	-10.7061
▁tragédia	-10.7061
▁atitude	-10.7061
▁Direito	-10.7061
▁instalações	-10.7061
▁mentais	-10.7061
▁judeu	-10.7061
▁diária	-10.7061
▁prosperidade	-10.7062
▁Amazóni	-10.7062
▁voltou	-10.7066
dula	-10.7068
▁ocidental	-10.7068
▁fabricante	-10.7069
▁pagamento	-10.707
▁eficiência	-10.7078
▁domínio	-10.7078
▁alcance	-10.708
▁tirada	-10.7086
▁pilha	-10.7086
▁estabelecer	-10.7086
▁estivessem	-10.7091
▁navegar	-10.7092
▁publicado	-10.7098
▁refere	-10.7103
▁houvesse	-10.7106
▁crescente	-10.7107
▁percebemos	-10.7108
▁matemáticos	-10.711
▁negocia	-10.7114
▁morrem	-10.7119
▁afeta	-10.7123
ida	-10.715
▁desistir	-10.7151
▁prestar	-10.7164
▁voluntários	-10.7168
▁Volt	-10.7169
▁flores	-10.717
▁atacar	-10.717
▁pessoalmente	-10.717
▁tentam	-10.7171
▁nascer	-10.7178
riam	-10.7187
▁presentes	-10.7203
▁Ten	-10.7213
▁reforma	-10.7216
▁seca	-10.722
▁competências	-10.7225
▁referência	-10.7234
▁dissemos	-10.7235
▁criador	-10.7238
▁desconhecido	-10.724
▁referi	-10.7242
▁crítico	-10.7247
▁achar	-10.7247
▁infraestrutura	-10.7249
▁estatística	-10.7251
▁Repare	-10.726
▁continente	-10.7265
▁ilustra	-10.7275
▁patente	-10.7278
▁conseguirem	-10.7286
▁metro	-10.7308
med	-10.7308
▁Stan	-10.7311
▁sugere	-10.7311
▁potência	-10.7331
▁andam	-10.7333
▁diploma	-10.734
▁escreve	-10.7341
ze	-10.7344
▁Poderia	-10.7344
line	-10.7345
▁curiosa	-10.7347
▁dignidade	-10.7347
▁gratuita	-10.7347
▁Ciência	-10.7347
▁garrafa	-10.7347
▁Ro	-10.7347
▁Fazemo	-10.7347
▁lançamento	-10.7348
▁san	-10.7348
▁tornei	-10.7348
▁cópia	-10.7348
▁publicidade	-10.7349
▁adequada	-10.7349
▁separar	-10.7351
▁Presidente	-10.7354
▁surgiu	-10.7354
▁acessível	-10.7355
▁correto	-10.7356
▁poderosos	-10.7359
▁treinar	-10.7364
▁eletrónica	-10.7367
▁tubo	-10.7367
▁associa	-10.7368
▁constitui	-10.7373
▁localiza	-10.7373
▁enfrentamos	-10.7375
▁lindo	-10.7376
▁nucleares	-10.7401
▁saltar	-10.7401
▁ódio	-10.7404
▁crédito	-10.7405
▁antepassados	-10.741
▁escutar	-10.7435
▁ocorre	-10.7436
▁sentirem	-10.7437
▁Min	-10.7448
eira	-10.7453
▁chegaram	-10.7453
ang	-10.7459
▁falha	-10.7474
bviamente	-10.7479
▁captar	-10.748
▁combate	-10.7481
▁inovador	-10.7482
▁v	-10.7485
▁acontecem	-10.7502
▁entrevista	-10.7506
rmos	-10.7507
▁concentrar	-10.751
▁reagir	-10.7514
▁desculpa	-10.7523
▁consciente	-10.7528
▁sentar	-10.754
▁nervos	-10.754
▁colaps	-10.7541
▁entrada	-10.7543
▁trabalhos	-10.7544
▁sujeito	-10.7545
▁Ar	-10.7545
▁complicada	-10.7547
nea	-10.7553
▁satélite	-10.7554
▁verificar	-10.7555
▁instrumento	-10.7558
▁pássaros	-10.7563
▁interessado	-10.757
go	-10.7571
▁dançar	-10.7587
▁doce	-10.7611
▁capitalism	-10.7612
▁iam	-10.7612
ri	-10.762
▁resulta	-10.7626
▁heróis	-10.7633
▁reserva	-10.7637
▁estima	-10.7637
▁abertura	-10.7641
▁cardíaca	-10.7641
▁curioso	-10.7641
▁injustiça	-10.7641
▁ecológica	-10.7641
▁parceria	-10.7641
▁amarelo	-10.7641
▁músculo	-10.7641
▁pirata	-10.7641
▁Número	-10.7641
▁liceu	-10.7641
▁Decidi	-10.7642
▁favorito	-10.7643
▁excitante	-10.7643
▁alemã	-10.7646
▁passagem	-10.7646
▁falsa	-10.7647
▁curta	-10.7647
▁dúzia	-10.7648
vi	-10.7648
▁espetacular	-10.7649
▁manuscrito	-10.7652
▁Meu	-10.7658
▁pénis	-10.7661
▁corrupção	-10.7661
▁associado	-10.7664
▁tendências	-10.7665
▁observação	-10.7665
▁retina	-10.7666
▁perdida	-10.7666
▁costas	-10.7667
▁desenvolvemos	-10.7671
▁evidente	-10.7673
▁encontrado	-10.7673
▁ideal	-10.7679
▁preocupação	-10.7679
▁perdemos	-10.7685
art	-10.7689
▁vivos	-10.7689
▁apontar	-10.7698
▁registos	-10.7704
▁tornado	-10.7704
▁falando	-10.7711
▁unidades	-10.7715
▁pura	-10.7718
▁pertence	-10.772
▁medi	-10.7723
▁nasci	-10.7732
▁fo	-10.7732
ide	-10.7746
▁cêntimos	-10.775
▁tratado	-10.7759
▁complexas	-10.7765
▁governa	-10.7766
▁melhoria	-10.7777
▁revelar	-10.7778
▁fios	-10.7783
▁taxas	-10.7783
▁lar	-10.7784
amento	-10.7786
▁Ban	-10.7787
▁apresenta	-10.7793
▁Vive	-10.7811
▁funda	-10.7818
▁conduz	-10.783
▁Bab	-10.7831
▁demora	-10.7836
▁bolas	-10.7837
▁perguntam	-10.7837
▁alternativas	-10.7849
▁pain	-10.7852
▁curar	-10.7855
▁ambientes	-10.7857
▁criativa	-10.7864
▁irmãos	-10.7866
▁parceiro	-10.7866
▁construída	-10.7868
▁ligada	-10.787
▁grau	-10.7874
▁Pe	-10.7881
raça	-10.7908
▁conhecidos	-10.791
▁Podia	-10.7914
▁evoluí	-10.7926
▁molecular	-10.7928
▁orgulho	-10.7933
▁vigil	-10.7943
▁esquecer	-10.7943
óxido	-10.7944
▁cobertura	-10.7944
▁crucial	-10.7944
▁ilegal	-10.7944
▁Michael	-10.7944
▁esfera	-10.7944
▁fisicamente	-10.7944
▁olhá	-10.7944
▁primata	-10.7945
▁resistente	-10.7948
▁bar	-10.7949
▁sexta	-10.7949
sustentabilidade	-10.7949
▁maçã	-10.7951
▁pato	-10.7952
▁mergulho	-10.7954
▁alimentação	-10.7955
▁arquitectura	-10.7957
▁produzi	-10.7958
euros	-10.7962
▁assistência	-10.7968
▁especificamente	-10.7972
▁barreiras	-10.7973
▁assegurar	-10.7975
ers	-10.798
▁Estive	-10.7984
▁roubar	-10.7987
▁invenç	-10.7995
▁ostra	-10.7999
▁calcular	-10.8002
org	-10.8002
▁escur	-10.8004
▁carga	-10.8006
▁posto	-10.8009
▁CO	-10.801
▁viaj	-10.8011
▁assumir	-10.8023
▁potencialmente	-10.8026
▁Mil	-10.803
▁chamadas	-10.8036
▁cita	-10.8054
▁memórias	-10.8067
gens	-10.8071
▁ocorreu	-10.8073
amp	-10.8122
v	-10.8124
V	-10.8135
íbia	-10.8144
▁profundas	-10.8148
▁incerteza	-10.8166
▁ativo	-10.8172
▁elevada	-10.8176
▁praia	-10.8178
fa	-10.8184
▁componente	-10.8189
▁culpa	-10.8202
inhas	-10.8205
▁fundos	-10.8206
▁passeio	-10.8218
▁intervenç	-10.8235
nidas	-10.8237
maras	-10.8248
▁processa	-10.8248
ostava	-10.8256
▁profiss	-10.8256
▁variáve	-10.8256
▁bigode	-10.8256
▁limpo	-10.8256
▁retorno	-10.8256
▁vulneráveis	-10.8256
▁ansiedade	-10.8256
▁terramoto	-10.8256
▁feed	-10.8256
▁gabinete	-10.8256
▁Professor	-10.8256
▁concluir	-10.8256
▁nariz	-10.8256
▁mágico	-10.8256
▁quaisquer	-10.8256
▁personagens	-10.8256
▁infinita	-10.8258
▁grá	-10.8258
▁pareça	-10.8258
▁correio	-10.8258
▁globalização	-10.826
▁retrato	-10.826
▁coletiva	-10.8263
▁intelectual	-10.8264
▁lento	-10.8265
▁metal	-10.8274
▁produzem	-10.8275
nião	-10.8275
▁invisíveis	-10.8278
▁fornecer	-10.8283
▁associada	-10.8284
▁motores	-10.829
vo	-10.8294
att	-10.8299
▁fariam	-10.8305
▁entendem	-10.8314
▁construi	-10.8315
▁sonhar	-10.8317
▁neuro	-10.8318
▁córtex	-10.832
▁piores	-10.832
▁afro	-10.8321
▁ignorar	-10.8323
iga	-10.8324
▁apartamento	-10.8331
▁determinar	-10.8333
▁calha	-10.8336
▁ligadas	-10.8342
▁desafiar	-10.8343
▁inicia	-10.8362
ip	-10.8372
ariamente	-10.8399
▁Bob	-10.8419
dição	-10.8421
▁ga	-10.8422
▁disciplina	-10.8424
▁trocar	-10.8426
ul	-10.8452
▁cordas	-10.8453
▁aparecem	-10.8454
▁escrev	-10.846
▁existi	-10.846
▁cirurgiã	-10.8462
▁redu	-10.8468
almoço	-10.8472
▁conhecia	-10.8475
▁crescem	-10.8475
▁sa	-10.8482
mico	-10.8487
▁aplica	-10.8493
▁instante	-10.8512
▁nações	-10.8513
▁Espera	-10.8518
▁distante	-10.8521
▁matemático	-10.8522
▁adolescente	-10.8525
▁regra	-10.8526
▁neurónio	-10.8526
▁Pa	-10.8532
▁bactéria	-10.8533
▁fêmea	-10.8539
▁formam	-10.8541
nt	-10.8561
▁perdi	-10.8575
▁duplo	-10.8579
▁transformou	-10.8579
▁rurais	-10.8579
▁iPhone	-10.8579
▁companheiro	-10.8579
▁NASA	-10.8579
▁romance	-10.8579
▁cognitivo	-10.8579
▁grão	-10.8579
▁hotel	-10.8579
▁tuberculose	-10.8579
ovembro	-10.8579
▁sanita	-10.8579
▁internacionais	-10.8579
▁julgamento	-10.858
▁estimativa	-10.858
▁vaca	-10.858
▁nutriente	-10.858
▁Síri	-10.8581
▁investidores	-10.8581
▁desesperada	-10.8582
▁subst	-10.8583
▁marcha	-10.8584
▁comprimido	-10.8584
▁projetar	-10.8585
up	-10.8586
▁avançada	-10.8589
▁reunir	-10.859
▁perdeu	-10.859
▁reunião	-10.8591
▁passámos	-10.8594
▁pediu	-10.8594
▁apresentação	-10.8601
▁Devem	-10.8609
▁admitir	-10.8611
▁gravar	-10.8615
▁franca	-10.8616
▁levá	-10.8616
▁vencer	-10.862
▁fantásticas	-10.8622
erante	-10.8622
▁prim	-10.8633
▁inova	-10.8637
▁regime	-10.8645
▁caça	-10.8653
▁demorar	-10.8654
▁converte	-10.8655
▁necessários	-10.8655
ámo	-10.8658
▁obes	-10.8658
▁planear	-10.866
▁escapar	-10.8669
▁rico	-10.8688
▁clínicos	-10.8691
▁vibra	-10.8694
▁digam	-10.8711
▁professora	-10.8713
▁corredor	-10.8728
▁condiç	-10.8734
▁determinado	-10.8737
▁introduzir	-10.8749
▁preparados	-10.8758
▁saibam	-10.8765
▁empregado	-10.8768
▁move	-10.8783
▁corresponde	-10.8785
▁definir	-10.8792
▁plantar	-10.8792
cabaram	-10.8801
▁Fica	-10.8813
▁ética	-10.8816
scrição	-10.882
▁normas	-10.8834
lina	-10.8835
▁mecanismos	-10.8836
▁rir	-10.884
ston	-10.8843
▁genético	-10.8844
▁lago	-10.8845
▁partilhada	-10.8862
▁truque	-10.8865
▁químico	-10.8868
▁criatura	-10.8868
▁necessárias	-10.8876
tra	-10.8876
ale	-10.8883
▁acreditem	-10.8885
izar	-10.8892
▁conversar	-10.8892
▁soma	-10.8904
▁mina	-10.8906
▁ambiental	-10.8907
▁sexua	-10.891
orld	-10.8912
▁Saúde	-10.8912
▁azuis	-10.8912
▁cerebrais	-10.8912
▁cilindro	-10.8912
▁impulso	-10.8912
▁secundária	-10.8912
▁recife	-10.8912
▁licença	-10.8912
▁Ocidental	-10.8913
▁expressõe	-10.8913
▁transmissão	-10.8913
▁dominante	-10.8913
▁profundidade	-10.8913
▁Quanta	-10.8913
▁centrais	-10.8914
▁engraçado	-10.8915
▁inveja	-10.8915
▁mapear	-10.8915
▁brinquedo	-10.8916
▁correcta	-10.8916
▁colocou	-10.8916
▁abriu	-10.8917
▁folhas	-10.8918
▁apaixonada	-10.8919
▁vaso	-10.8919
▁raíz	-10.8921
be	-10.8923
EM	-10.8923
▁utilizando	-10.8924
▁coral	-10.8925
▁avançado	-10.8925
▁básicos	-10.8932
▁voc	-10.8933
▁cães	-10.8934
▁Real	-10.8937
▁teto	-10.8938
▁diagrama	-10.8944
▁aumentou	-10.8947
▁conhece	-10.895
▁eficácia	-10.895
▁lê	-10.8952
▁Steve	-10.8953
érias	-10.8956
▁suficientes	-10.8958
▁participante	-10.8963
▁limitada	-10.8964
za	-10.8964
▁ido	-10.8975
▁result	-10.8977
▁armazena	-10.8978
sopa	-10.8982
ía	-10.8985
abilidade	-10.8988
▁inspirar	-10.8989
▁resistir	-10.8991
▁permanecer	-10.8993
▁aconteceria	-10.8998
qui	-10.9008
▁publicar	-10.902
▁deixaram	-10.902
▁San	-10.9031
▁Senti	-10.9031
ternet	-10.9033
▁ret	-10.9035
▁Per	-10.9035
▁funcione	-10.9039
▁mapas	-10.9041
▁pareceu	-10.9053
ane	-10.9056
▁viola	-10.9066
▁dispostos	-10.9066
▁guiar	-10.9071
▁proje	-10.9073
▁Torn	-10.9078
▁ce	-10.9081
▁prepara	-10.9088
▁Olha	-10.9097
▁ganham	-10.9097
▁fixa	-10.9112
▁amb	-10.9113
▁esc	-10.9114
▁ha	-10.9114
▁origina	-10.9124
olina	-10.9136
▁cálculos	-10.9137
▁queda	-10.9147
▁perde	-10.916
▁Pod	-10.9161
êm	-10.9186
▁envolve	-10.9188
▁eletr	-10.9188
▁dir	-10.9203
▁car	-10.9205
▁formato	-10.9209
▁desperdício	-10.921
▁barreira	-10.9224
▁acreditava	-10.9227
▁autoridade	-10.9228
DI	-10.9231
ira	-10.9235
▁navios	-10.9235
ates	-10.9246
th	-10.9247
▁falhas	-10.9248
▁deficiência	-10.9253
pareceram	-10.9256
ópia	-10.9256
▁capítulo	-10.9257
▁clássico	-10.9257
▁currículo	-10.9257
▁dupla	-10.9257
▁europeu	-10.9257
▁obcecado	-10.9257
▁personagem	-10.9257
▁tanque	-10.9257
▁estúdio	-10.9257
▁havido	-10.9257
▁aparência	-10.9257
▁desporto	-10.9257
▁transferência	-10.9257
▁protesto	-10.9257
▁precisávamos	-10.9257
▁robótica	-10.9257
▁louco	-10.9257
▁investi	-10.9257
▁simult	-10.9258
morou	-10.9259
▁dieta	-10.9261
▁teatro	-10.9262
den	-10.9262
▁Natal	-10.9263
▁Desta	-10.9266
embram	-10.927
▁luxo	-10.927
▁inventor	-10.9272
tiva	-10.9273
▁acontecimentos	-10.9277
▁aperceber	-10.9279
▁esperto	-10.9286
▁visualizar	-10.9287
▁continuava	-10.9288
▁desenhos	-10.929
▁lobo	-10.9292
▁pegada	-10.9293
▁suicídio	-10.9296
▁Tra	-10.9299
uras	-10.9299
▁pedimos	-10.9313
▁muro	-10.9315
▁leite	-10.932
▁the	-10.9325
▁avanço	-10.9335
ill	-10.9336
netos	-10.9343
▁Sabia	-10.9345
▁perguntaram	-10.9353
▁mala	-10.9355
▁partilhamos	-10.9357
grafia	-10.9359
fia	-10.9359
▁consumi	-10.9362
▁montar	-10.9383
▁morcegos	-10.9391
▁houver	-10.9392
gradável	-10.9393
nacionais	-10.9401
ee	-10.9407
▁excremento	-10.9407
▁demonstra	-10.9408
▁proporcionar	-10.9409
ber	-10.9414
▁explica	-10.9426
cionamento	-10.9431
iz	-10.9434
▁confus	-10.9438
▁forçado	-10.9438
▁Dizem	-10.9443
irei	-10.9446
▁haveria	-10.9449
eet	-10.9457
▁esper	-10.949
ologia	-10.9498
quei	-10.9499
▁processar	-10.9501
▁avaliaç	-10.9502
▁escuta	-10.9505
▁desejos	-10.9512
▁sementes	-10.9513
▁Trabalh	-10.9518
édia	-10.9525
atina	-10.9531
▁Mc	-10.9546
▁guardar	-10.9548
▁inspirado	-10.955
▁partida	-10.9554
ciência	-10.9559
▁bolso	-10.958
mago	-10.9583
um	-10.959
▁poupanças	-10.9592
▁financeiro	-10.9592
▁acontecimento	-10.9593
▁básico	-10.9593
▁presa	-10.9594
▁extremo	-10.9594
▁vizinho	-10.9597
▁giro	-10.96
▁interna	-10.9602
▁nuve	-10.9607
bage	-10.9612
▁abund	-10.9613
▁Central	-10.9614
▁Congresso	-10.9614
▁egípcio	-10.9614
▁raciocínio	-10.9614
▁brincadeira	-10.9614
▁óleo	-10.9614
▁Street	-10.9614
▁tremenda	-10.9614
▁mudá	-10.9614
▁bandeira	-10.9614
▁arroz	-10.9614
▁recém	-10.9615
▁Melhor	-10.9615
▁doutoramento	-10.9615
▁habilidade	-10.9615
eonard	-10.9615
▁quarta	-10.9615
▁anatomia	-10.9616
▁adequado	-10.9616
▁colaboradores	-10.9617
▁extinção	-10.9617
▁grato	-10.9617
▁deixei	-10.9618
▁fosso	-10.9618
▁convencido	-10.9619
▁trabalhado	-10.962
▁corrigir	-10.9621
▁ombro	-10.9621
▁vasta	-10.9622
▁vasto	-10.9622
▁II	-10.9625
▁idosa	-10.9626
▁adulta	-10.9628
▁mentalidade	-10.9628
úss	-10.9629
▁possivel	-10.963
avera	-10.9633
▁Islão	-10.9635
▁abrandar	-10.9635
▁manual	-10.9636
▁integra	-10.9637
▁perfi	-10.9637
▁informática	-10.9639
▁ajudá	-10.9641
gueira	-10.9641
▁traço	-10.9643
▁contente	-10.9644
▁fizesse	-10.9646
▁falou	-10.9646
▁compreendemos	-10.9649
▁neles	-10.9649
▁Basta	-10.9655
▁encontrou	-10.9656
▁dominar	-10.9658
ore	-10.966
▁traduç	-10.9663
▁diversas	-10.9666
▁multi	-10.9667
▁planea	-10.9671
▁mentir	-10.9675
▁demonstrar	-10.9675
inson	-10.9675
▁solares	-10.9676
▁fraco	-10.9681
▁comparar	-10.9693
▁dividir	-10.9697
▁coopera	-10.9699
▁precisavam	-10.9703
▁entram	-10.9705
▁Cente	-10.9706
▁dita	-10.9709
▁ligam	-10.9723
▁incentivos	-10.9723
▁ac	-10.9731
▁cour	-10.9731
▁circular	-10.9734
▁antibióticos	-10.9734
▁Nat	-10.974
▁Har	-10.9741
▁combinar	-10.9749
▁insetos	-10.9753
▁est	-10.9754
der	-10.9771
▁sofrem	-10.9772
▁abre	-10.9782
ita	-10.9795
▁génio	-10.9801
▁colocá	-10.9821
▁chimpanzés	-10.9827
▁Bla	-10.9831
metro	-10.9835
▁informáticos	-10.9842
tivos	-10.9845
▁Conselh	-10.9855
▁rever	-10.9868
▁repeti	-10.987
▁consiga	-10.9871
▁editor	-10.9872
ional	-10.9881
via	-10.9891
▁esperam	-10.9907
▁respondi	-10.9909
▁compras	-10.991
▁gasta	-10.991
mina	-10.9921
▁nelas	-10.9931
eamento	-10.9932
tecnologia	-10.9939
▁limpar	-10.9947
▁Naquel	-10.9949
▁medidas	-10.9952
▁Cheg	-10.9953
▁tra	-10.997
▁consiste	-10.9974
▁entusiasmado	-10.9977
▁folha	-10.9978
▁entende	-10.9984
▁Cerca	-10.9984
▁acontecia	-10.9984
▁ciúme	-10.9984
▁discussões	-10.9984
▁horizonte	-10.9984
▁jornada	-10.9984
▁jornais	-10.9984
▁minúsculo	-10.9984
▁rural	-10.9984
▁túne	-10.9984
▁órbita	-10.9984
▁entusiasmo	-10.9984
▁Ruanda	-10.9984
▁descobre	-10.9984
▁exigência	-10.9984
▁futura	-10.9985
▁urgência	-10.9985
▁futebol	-10.9985
▁polui	-10.9985
▁Neanderta	-10.9985
▁centímetro	-10.9985
▁imigração	-10.9985
▁composto	-10.9985
hattan	-10.9985
▁àquele	-10.9985
▁estaminais	-10.9985
▁bolsa	-10.9985
▁jamai	-10.9985
▁Chic	-10.9985
▁apelo	-10.9986
▁metano	-10.9986
▁relacionamento	-10.9987
▁Sinto	-10.9987
▁clube	-10.9987
illiam	-10.9987
reparem	-10.9988
▁entusiasmante	-10.9989
▁idiota	-10.9989
▁tentá	-10.9991
▁vaga	-10.9993
▁Pela	-10.9993
▁excesso	-10.9994
▁lavar	-10.9994
▁musical	-10.9994
▁automática	-10.9994
▁quebrar	-10.9995
▁contraste	-10.9998
▁justa	-10.9999
▁aviso	-10.9999
▁sector	-11
▁disco	-11.0001
▁intenção	-11.0002
sta	-11.0007
▁francês	-11.001
▁alavanca	-11.0011
▁uniforme	-11.0011
▁cumprir	-11.0017
▁Polo	-11.0021
▁divertir	-11.0026
▁abandonar	-11.0026
▁põe	-11.0026
▁diverso	-11.0027
▁escolhemos	-11.0029
▁ténis	-11.0032
▁sustentar	-11.0037
▁relacionar	-11.004
▁aço	-11.0041
▁dobro	-11.0041
▁pir	-11.0043
▁salvo	-11.0044
fiquem	-11.0044
▁emociona	-11.0047
▁estud	-11.0051
▁testemunha	-11.0058
▁nascimento	-11.0076
pós	-11.0081
▁ba	-11.0081
▁erradas	-11.0084
▁juntam	-11.0098
▁prisioneiros	-11.0098
▁preocupam	-11.0108
▁classifica	-11.0121
▁acabá	-11.0124
▁percebe	-11.0128
ente	-11.0129
▁excep	-11.0129
scar	-11.013
▁setor	-11.014
▁Perceb	-11.0141
▁ficarem	-11.0142
tor	-11.0148
▁tornarem	-11.0156
gosto	-11.0158
▁eficientes	-11.0159
▁Dá	-11.0164
paração	-11.0176
reen	-11.0183
▁Tur	-11.0189
▁durar	-11.0193
▁Estavam	-11.0198
▁obtive	-11.021
▁gigantes	-11.0218
▁baleias	-11.0221
▁Fil	-11.0244
▁Continua	-11.0247
▁modernos	-11.0257
▁j	-11.0267
▁segurar	-11.0269
▁Dan	-11.0279
▁rota	-11.0281
▁preocupados	-11.0286
▁lojas	-11.0298
▁po	-11.0313
▁canal	-11.0328
▁negras	-11.0329
▁transferi	-11.0332
cento	-11.0338
▁pensaram	-11.0341
▁indo	-11.035
▁dê	-11.0358
▁dirigi	-11.0359
▁ciências	-11.0361
▁linda	-11.0361
americano	-11.0363
▁ultra	-11.0364
▁impressionante	-11.0369
▁aeroporto	-11.0369
▁chinesa	-11.0369
▁desconhecida	-11.0369
▁cerveja	-11.0369
▁chineses	-11.0369
▁energética	-11.0369
▁computação	-11.0369
▁parcial	-11.0369
▁Suécia	-11.0369
▁sagrado	-11.0369
▁negativa	-11.0369
▁tradições	-11.0369
▁ruído	-11.0369
▁instalação	-11.0369
▁externa	-11.037
▁peço	-11.037
▁chá	-11.037
▁selvagem	-11.037
▁diapositivo	-11.037
▁àquela	-11.037
▁orelha	-11.0371
rão	-11.0372
▁vertical	-11.0372
▁rocha	-11.0372
▁privada	-11.0373
▁poeta	-11.0374
▁conservação	-11.0374
▁vitória	-11.0375
tri	-11.0375
▁balão	-11.0376
▁mito	-11.038
▁detalhe	-11.0381
▁cliente	-11.0381
▁segue	-11.0381
▁abelha	-11.0382
▁apaixonado	-11.0383
▁saído	-11.0391
lha	-11.0391
mide	-11.0391
aneamente	-11.0393
▁presas	-11.0393
▁ocupado	-11.0394
▁educar	-11.0395
▁barri	-11.0397
▁sobrevive	-11.0398
▁aviões	-11.0399
▁inici	-11.0399
▁documento	-11.04
▁respiração	-11.0401
▁colocado	-11.0402
▁Fe	-11.0403
▁barra	-11.0404
▁contou	-11.0404
ner	-11.0405
▁cultivar	-11.0406
▁anima	-11.0406
▁sono	-11.0409
▁considerada	-11.041
▁secreta	-11.0415
▁habitual	-11.0418
▁desenvolveram	-11.0419
▁sugeri	-11.0419
▁loucos	-11.0422
▁atividades	-11.0424
ate	-11.0433
▁incluir	-11.0433
▁agente	-11.0438
▁decide	-11.0449
▁deixado	-11.0451
▁astrónomos	-11.0451
▁fusão	-11.0454
▁excelentes	-11.0454
▁razoáve	-11.0459
▁dependente	-11.0471
▁deitar	-11.0477
▁remover	-11.0477
ja	-11.0481
▁laboratórios	-11.0484
▁infraestruturas	-11.0503
▁interpreta	-11.0505
▁Mostra	-11.0514
▁dissesse	-11.0514
adores	-11.0521
▁Emma	-11.0522
gama	-11.0535
▁afetar	-11.0552
▁conto	-11.0552
tamente	-11.0569
ota	-11.0583
▁falh	-11.061
tion	-11.061
▁sexos	-11.0611
▁nu	-11.0612
001	-11.0613
ius	-11.063
▁macacos	-11.0632
▁raios	-11.0636
▁declaraç	-11.0645
▁parti	-11.0646
rei	-11.0652
▁possu	-11.0654
ens	-11.0656
▁cr	-11.0657
old	-11.0664
▁conseguiria	-11.0667
▁portas	-11.0679
▁caras	-11.068
▁descrev	-11.069
vel	-11.0692
▁and	-11.0692
▁correm	-11.0695
▁termina	-11.0697
▁Cost	-11.0706
▁Charles	-11.0723
▁proporciona	-11.0748
▁Pete	-11.0751
enta	-11.0752
▁chamava	-11.0753
▁vulgar	-11.0753
tivé	-11.0756
róstata	-11.0766
▁toler	-11.0768
nicas	-11.0768
▁vapor	-11.0769
▁influenciar	-11.0769
▁açúcar	-11.0769
▁desespero	-11.0769
▁espetáculo	-11.0769
▁gratidão	-11.0769
▁humilde	-11.0769
▁introvertido	-11.0769
▁minoria	-11.0769
▁músico	-11.0769
▁paradoxo	-11.0769
▁telefónica	-11.0769
▁ícone	-11.0769
▁Cambridge	-11.0769
▁assinatura	-11.0769
▁doloroso	-11.0769
▁ferida	-11.0769
▁inquérito	-11.0769
▁inverno	-11.0769
▁líquido	-11.0769
▁maluco	-11.0769
▁simpático	-11.0769
▁milénio	-11.0769
▁colheita	-11.0769
▁enfermeira	-11.0769
▁comerciais	-11.0769
▁escondido	-11.0769
▁escultura	-11.077
▁Martin	-11.077
▁gordura	-11.077
▁clicar	-11.0771
▁pausa	-11.0771
▁cimento	-11.0772
▁divertida	-11.0772
▁distinguir	-11.0772
▁reator	-11.0772
▁destruída	-11.0773
▁suporte	-11.0773
▁Tex	-11.0774
▁Ilha	-11.0775
▁raro	-11.0775
▁transplante	-11.0776
▁demasiada	-11.0776
▁refletir	-11.0777
▁aceder	-11.0777
▁assistente	-11.0778
▁fác	-11.0778
▁escritor	-11.0778
▁efetiva	-11.0779
▁típica	-11.0779
▁desenvolveu	-11.078
▁pesado	-11.078
▁atingido	-11.0781
▁promover	-11.0781
▁fraca	-11.0782
▁Stor	-11.0783
▁escolhido	-11.0786
▁renováveis	-11.0787
▁escaravelho	-11.079
▁desenvolvida	-11.079
▁agrícola	-11.079
▁categoria	-11.0791
▁reino	-11.0792
▁demonstração	-11.0793
▁conceber	-11.0793
▁parou	-11.0794
▁acordado	-11.0794
▁poupança	-11.0794
▁fotógrafo	-11.0794
▁navio	-11.0795
▁discrimina	-11.0797
▁fumar	-11.0798
▁talento	-11.08
▁financeiros	-11.0804
▁MT	-11.0805
▁inicialmente	-11.081
▁financiamento	-11.0815
▁capa	-11.0816
▁foco	-11.0816
leste	-11.082
reio	-11.0821
▁tornando	-11.0825
▁manipular	-11.0825
▁truques	-11.0827
▁eleitores	-11.0829
ária	-11.083
▁aspira	-11.083
▁remoto	-11.0835
▁Mal	-11.0836
▁indicador	-11.0843
▁liderar	-11.0846
▁ensinou	-11.0847
▁amplia	-11.0855
▁piloto	-11.087
atch	-11.0875
▁construídas	-11.088
▁encorajar	-11.0882
▁copiar	-11.0885
▁levaram	-11.0886
▁He	-11.0886
▁estará	-11.0888
tal	-11.0888
▁Chamamos	-11.089
▁escolhe	-11.0908
▁implementar	-11.0909
▁adapta	-11.091
dora	-11.0915
▁tia	-11.0918
otável	-11.0918
har	-11.092
ge	-11.0921
▁ativa	-11.0926
▁sobreviventes	-11.0927
▁aumentam	-11.094
▁fa	-11.0941
▁perceberam	-11.0947
eram	-11.0949
nteriores	-11.0973
▁separado	-11.0975
▁causas	-11.0977
olhei	-11.0985
▁mega	-11.0992
▁b	-11.0994
▁vila	-11.1002
▁existentes	-11.1024
▁louc	-11.1038
▁bord	-11.1044
▁quebra	-11.1049
avam	-11.1051
▁trai	-11.1052
▁cortes	-11.1058
▁Isl	-11.1061
felizmente	-11.1062
ontem	-11.1068
▁usaram	-11.107
▁verifica	-11.1073
▁conseguiam	-11.1074
▁herói	-11.1092
▁apresentam	-11.11
▁estratégias	-11.1104
▁espacia	-11.1106
▁lucros	-11.111
tivo	-11.1111
▁procuramos	-11.1115
▁Con	-11.1118
▁integrado	-11.1133
▁percepç	-11.1135
rosa	-11.1138
▁pedras	-11.1143
▁utilizado	-11.1145
▁substitui	-11.1146
▁mencion	-11.1153
▁rios	-11.1156
▁começava	-11.1157
▁humor	-11.1161
▁agradecer	-11.1171
▁acessíve	-11.1173
▁restri	-11.1178
▁fechar	-11.118
az	-11.1182
▁unir	-11.1185
▁Algo	-11.1185
▁Amazon	-11.1186
▁Nelson	-11.1186
▁chocante	-11.1186
▁parecida	-11.1186
▁plateia	-11.1186
▁emergência	-11.1186
▁Brian	-11.1186
▁secretária	-11.1186
▁Pouco	-11.1186
▁dicionário	-11.1186
▁supermercado	-11.1186
▁trajetória	-11.1186
▁actividade	-11.1186
▁filmar	-11.1186
▁Robert	-11.1186
▁egoísta	-11.1186
▁Criança	-11.1186
▁filosofia	-11.1186
▁beira	-11.1186
▁fã	-11.1186
▁cinzento	-11.1186
▁resili	-11.1186
▁explicou	-11.1187
ento	-11.1187
▁transformá	-11.1187
▁preservativo	-11.1188
▁cave	-11.1189
▁laço	-11.1189
▁reuniões	-11.119
▁multidão	-11.119
▁Nig	-11.1192
▁aleatori	-11.1192
▁episódio	-11.1193
▁ensinam	-11.1193
▁tropicais	-11.1193
▁regresso	-11.1194
▁fita	-11.1195
▁óbvia	-11.1196
▁tecnológico	-11.1196
▁israelita	-11.1196
▁directamente	-11.1198
ci	-11.1198
▁jan	-11.1199
▁recentes	-11.12
▁flexíve	-11.1201
▁tridimensiona	-11.1207
▁Fal	-11.1209
▁Cria	-11.1209
▁percebeu	-11.121
▁interface	-11.1214
▁turma	-11.1214
▁novidade	-11.1219
▁secreto	-11.1221
▁automóve	-11.1223
▁corporal	-11.1226
tembro	-11.1227
▁parasita	-11.1228
▁resolve	-11.1229
▁consider	-11.1237
▁considera	-11.1238
▁aprendido	-11.124
▁cidadão	-11.1252
▁sabendo	-11.1254
dura	-11.1258
▁reside	-11.1262
▁observamos	-11.1264
▁lata	-11.1271
▁visuais	-11.1272
▁Sal	-11.1275
▁pól	-11.1278
▁estende	-11.1281
enn	-11.1283
▁múltiplas	-11.1284
▁Cal	-11.1285
▁flutua	-11.1289
▁fabrico	-11.1292
▁ingredientes	-11.1297
▁ficá	-11.13
▁acrescentar	-11.13
▁diriam	-11.1308
▁aventura	-11.1311
▁iniciar	-11.1337
ito	-11.1357
hac	-11.1358
▁árabes	-11.1366
▁escondidas	-11.137
▁ajudaram	-11.1379
▁departamento	-11.1381
correu	-11.1382
▁assustadora	-11.1387
▁acelera	-11.139
▁Oba	-11.1392
bro	-11.1396
du	-11.1399
▁agita	-11.1413
▁Funda	-11.1424
tenção	-11.1431
▁Devi	-11.1439
▁of	-11.1442
ivo	-11.1443
▁ensina	-11.1444
▁queiram	-11.1449
▁souber	-11.1449
▁causado	-11.1458
ust	-11.1474
ilo	-11.1476
▁Mande	-11.1485
▁recorda	-11.1496
▁praticar	-11.15
agar	-11.1507
▁organizado	-11.1509
▁soar	-11.1519
▁assisti	-11.1526
ap	-11.1528
▁compra	-11.1531
idos	-11.1532
▁permanece	-11.1533
▁vistos	-11.1544
▁entrega	-11.1557
▁calça	-11.1566
▁cadeias	-11.1573
▁In	-11.1577
▁Cong	-11.1592
anop	-11.1593
imento	-11.1597
▁vela	-11.1598
▁Sa	-11.1599
▁alerta	-11.1599
▁limi	-11.1603
▁civi	-11.1605
íveis	-11.1606
▁viam	-11.1609
ísica	-11.1617
▁Ton	-11.1618
▁trauma	-11.162
▁amizade	-11.1621
▁idêntica	-11.1621
▁paradigma	-11.1621
▁puzzle	-11.1621
▁hambúrguer	-11.1621
▁origens	-11.1621
▁prisões	-11.1621
▁contempor	-11.1621
▁Simples	-11.1621
▁eletrónico	-11.1621
▁concerto	-11.1621
▁disparo	-11.1621
▁intensidade	-11.1621
▁exposto	-11.1621
▁concurso	-11.1621
▁condução	-11.1621
▁joelho	-11.1621
▁índice	-11.1621
▁estádio	-11.1621
▁silenciosa	-11.1621
▁cruel	-11.1621
▁impede	-11.1621
▁similar	-11.1621
▁transações	-11.1621
▁Andre	-11.1622
▁reinventar	-11.1623
▁aborrecido	-11.1623
▁passiva	-11.1623
▁desenhado	-11.1625
▁altruísta	-11.1625
vil	-11.1625
▁fechada	-11.1626
▁intuição	-11.1626
▁repensar	-11.1627
▁colaborar	-11.1629
▁tiro	-11.163
▁enviado	-11.1632
▁garage	-11.1632
▁enganado	-11.1633
▁desagradáve	-11.1635
▁Parte	-11.1635
tes	-11.1639
▁acordar	-11.164
▁culpado	-11.1641
▁Pai	-11.1641
▁blogue	-11.1643
▁rodeia	-11.1647
▁prato	-11.1647
▁palma	-11.1651
▁móveis	-11.1652
▁utilizá	-11.1653
▁For	-11.1654
▁denso	-11.1655
▁densa	-11.1657
▁adorava	-11.1657
▁tumores	-11.1658
han	-11.1664
▁funcionava	-11.1664
▁transparente	-11.1666
▁desligar	-11.1667
▁Vida	-11.1668
▁estrangeiro	-11.1669
▁instalar	-11.167
▁definitiva	-11.167
▁insisti	-11.167
▁perderam	-11.1671
▁Star	-11.1673
▁escada	-11.1677
▁significativo	-11.1678
▁psicólogo	-11.1678
▁Sara	-11.168
▁sequências	-11.1684
▁preencher	-11.1685
▁eco	-11.1687
▁partilham	-11.1687
▁Dez	-11.1688
▁viaja	-11.1689
▁pretende	-11.1691
▁transportar	-11.1693
▁Brit	-11.1694
▁im	-11.1695
ster	-11.1695
▁emocionalmente	-11.1698
óis	-11.1701
▁Core	-11.1708
▁reflete	-11.171
▁falado	-11.1711
▁apreciar	-11.1712
cas	-11.1719
anz	-11.1725
▁lanço	-11.1726
▁Deve	-11.1727
▁duplicar	-11.1741
▁cana	-11.1741
▁marge	-11.1741
ui	-11.1751
▁Fale	-11.1774
táveis	-11.1795
▁Cor	-11.1803
▁colocam	-11.1811
▁pesquisar	-11.182
ino	-11.1828
▁emergentes	-11.1828
▁custar	-11.183
▁pó	-11.1837
ux	-11.1841
▁atravessam	-11.1844
▁ecossistemas	-11.1847
udio	-11.1861
▁imita	-11.1862
▁Precis	-11.1863
▁baixar	-11.1863
▁investiga	-11.1864
▁preconceitos	-11.1864
uropeia	-11.1898
▁imagina	-11.1921
▁recolhe	-11.193
eral	-11.1932
móvel	-11.1935
eu	-11.1935
0.	-11.1939
▁procurá	-11.1943
par	-11.195
▁desenvolve	-11.195
▁litera	-11.1968
▁cuidadosa	-11.1971
▁fugi	-11.1974
prenderam	-11.1986
▁vias	-11.1995
▁caí	-11.1999
▁ocupa	-11.2001
▁ascen	-11.2007
ger	-11.2008
▁perfura	-11.2009
▁inten	-11.2015
seguem	-11.2025
▁comemos	-11.2029
▁vende	-11.2033
▁atinge	-11.2041
▁Casa	-11.2042
▁Eric	-11.2046
▁conseguisse	-11.2047
▁infeliz	-11.2049
▁educador	-11.2054
▁nascem	-11.2056
▁bab	-11.2059
ud	-11.206
▁les	-11.2062
ib	-11.2063
▁activa	-11.2067
peito	-11.207
Corp	-11.2071
est	-11.2071
▁atravessa	-11.2071
▁casca	-11.2073
▁generos	-11.2075
▁anónima	-11.2075
▁eléctrico	-11.2075
▁eólica	-11.2075
▁imediato	-11.2075
▁milagre	-11.2075
▁sinapse	-11.2075
▁carrinha	-11.2075
▁nódulo	-11.2075
▁repórter	-11.2075
▁analogia	-11.2075
▁módulo	-11.2075
▁ecológico	-11.2075
▁incapacidade	-11.2075
▁psicologia	-11.2075
▁computaciona	-11.2075
▁autismo	-11.2075
▁cognitiva	-11.2075
▁paraíso	-11.2075
▁confortável	-11.2075
▁Atlanta	-11.2075
▁concebido	-11.2075
▁predador	-11.2075
▁agenda	-11.2076
▁estufa	-11.2076
▁ocasi	-11.2076
▁legado	-11.2076
▁virtude	-11.2077
untos	-11.2077
▁vinho	-11.2077
▁formou	-11.2077
▁chove	-11.2078
▁Chamo	-11.2079
▁perito	-11.2079
▁exige	-11.208
▁propagand	-11.208
▁projectos	-11.2081
uh	-11.2082
ndula	-11.2083
▁preocupante	-11.2083
▁medicação	-11.2084
▁intensa	-11.2086
▁previsões	-11.2086
▁partilhá	-11.2087
▁feminina	-11.2087
▁tomate	-11.2087
▁infinito	-11.2087
▁continuou	-11.2089
▁quotidiana	-11.2093
▁inglesa	-11.2096
▁0,	-11.2099
▁parto	-11.2101
▁separada	-11.2103
▁lágrimas	-11.2104
▁Atrav	-11.2107
▁exponencial	-11.2108
▁directo	-11.211
▁Aprendemo	-11.2112
bé	-11.2118
▁garantia	-11.2118
▁Scho	-11.2119
▁seguras	-11.212
▁temas	-11.2122
▁borda	-11.2124
ez	-11.2126
▁Cons	-11.2127
▁significar	-11.2127
▁ouviu	-11.2129
▁frigorífico	-11.2134
▁copo	-11.2136
▁acompanhar	-11.2137
▁rápidos	-11.2137
▁comparado	-11.214
▁mata	-11.214
▁expressar	-11.2143
▁abuso	-11.2145
▁atuais	-11.2147
▁Naquele	-11.215
▁habitat	-11.2156
▁determinada	-11.2157
▁preferido	-11.216
▁convidado	-11.216
▁distantes	-11.2161
▁espelho	-11.2162
▁apoia	-11.2173
▁atrair	-11.218
▁Oxf	-11.2184
▁leitor	-11.2188
▁criativas	-11.2199
▁preveni	-11.2205
▁Brun	-11.2207
jam	-11.2208
▁nave	-11.221
▁lucro	-11.2212
▁engenheiro	-11.2216
▁poli	-11.2216
▁Seja	-11.2219
▁meta	-11.222
▁refeiç	-11.2229
▁natal	-11.2231
▁patentes	-11.2235
▁almoço	-11.2235
▁críticos	-11.2237
▁manifesta	-11.2237
berg	-11.2242
▁maravilhosas	-11.2255
▁seco	-11.2256
▁criativos	-11.2257
▁corpora	-11.226
▁reutiliza	-11.2261
▁Sha	-11.2269
operar	-11.2274
▁gatos	-11.2275
▁nascido	-11.2287
▁Façam	-11.229
cos	-11.2295
cho	-11.2295
▁n	-11.2298
▁diabo	-11.2299
▁forçar	-11.2302
▁adquirir	-11.2303
▁ambi	-11.2315
▁surgi	-11.2319
▁pareciam	-11.2345
▁sucedido	-11.2361
ráfico	-11.2364
▁vivi	-11.2366
▁genéticas	-11.2369
nce	-11.2377
▁tentado	-11.2379
▁procuram	-11.2381
▁bicicletas	-11.2389
▁flutuar	-11.2396
ever	-11.2399
▁mostrado	-11.2402
ann	-11.2403
▁convers	-11.2408
▁Comece	-11.2409
▁paga	-11.2419
▁próteses	-11.242
gar	-11.243
▁juven	-11.2435
▁envia	-11.2461
ah	-11.2482
mer	-11.2489
▁Arqui	-11.2494
▁conceitos	-11.2521
▁Fala	-11.2526
▁direto	-11.2528
▁tê	-11.2529
per	-11.253
str	-11.2531
embrem	-11.2531
and	-11.2533
▁inclina	-11.2536
▁ocidenta	-11.2539
▁Ber	-11.2549
istério	-11.255
▁Conheci	-11.2551
▁High	-11.2551
▁Singapura	-11.2551
▁dopamina	-11.2551
▁estúpida	-11.2551
▁feminino	-11.2551
▁fórmula	-11.2551
▁histórica	-11.2551
▁rastreio	-11.2551
▁típico	-11.2551
▁álbu	-11.2551
▁energético	-11.2551
▁tiroteio	-11.2551
eopard	-11.2551
▁urgente	-11.2551
▁prático	-11.2551
▁Ébola	-11.2551
▁óssea	-11.2551
▁esquema	-11.2551
▁largura	-11.2551
▁confortáveis	-11.2551
▁reproduzir	-11.2551
▁Centro	-11.2552
▁térmica	-11.2552
▁Col	-11.2552
▁Humanidade	-11.2552
▁educativo	-11.2552
▁morais	-11.2552
▁Scott	-11.2552
▁Começo	-11.2553
▁gelado	-11.2553
▁barbearia	-11.2553
▁entendimento	-11.2553
▁desflorestação	-11.2553
▁favorita	-11.2554
▁sorriso	-11.2554
▁sofisticado	-11.2555
▁dedicado	-11.2555
instantaneamente	-11.2555
▁tirei	-11.2555
▁colar	-11.2555
▁atirar	-11.2556
▁comunicações	-11.2556
▁reações	-11.2557
▁surpreendeu	-11.2557
▁infeções	-11.2557
▁reconstruç	-11.2557
▁enviou	-11.2557
▁piso	-11.2558
▁Disseram	-11.2559
▁emocionante	-11.2559
▁fizé	-11.2561
▁coletivo	-11.2562
▁mama	-11.2563
▁Butão	-11.2565
▁feminista	-11.2565
▁adivinhar	-11.2566
▁merecem	-11.2566
▁progredir	-11.2568
▁pagam	-11.2568
▁restante	-11.2568
▁rabisca	-11.2569
nça	-11.2571
▁fingir	-11.2573
▁dirigir	-11.2577
▁Tim	-11.2577
▁escritores	-11.258
▁examinar	-11.2582
▁perdem	-11.2583
culos	-11.2583
▁baseia	-11.2585
▁inventou	-11.2586
▁movem	-11.2588
▁mergulhar	-11.259
▁mudado	-11.2592
▁Diga	-11.2593
▁Deixa	-11.2594
▁detecç	-11.2595
▁ouve	-11.2596
▁aplicada	-11.2596
▁afetado	-11.2599
▁Mel	-11.2599
cirurgiões	-11.2599
▁duração	-11.26
▁Mund	-11.2601
▁agarra	-11.2608
men	-11.2608
▁utilizada	-11.261
▁servem	-11.2612
▁Tenta	-11.2614
RB	-11.2616
▁definido	-11.2616
ansa	-11.2621
▁quisesse	-11.2622
▁isola	-11.2624
▁tela	-11.2624
▁extraordinários	-11.2627
▁politica	-11.2629
▁reconhece	-11.263
adé	-11.263
▁Ben	-11.2634
j	-11.2638
▁afetada	-11.2638
▁diário	-11.2652
▁partícula	-11.2664
▁respeita	-11.2669
▁gesto	-11.2669
▁jun	-11.2671
▁sanguíneo	-11.2675
▁brilhar	-11.2676
▁clique	-11.2679
▁preocupado	-11.2684
▁físicas	-11.269
▁ferro	-11.269
▁sucedida	-11.269
▁configuraç	-11.2699
cr	-11.2702
basti	-11.2717
▁empréstimos	-11.272
▁viveram	-11.2729
▁elimina	-11.273
tura	-11.2734
din	-11.2735
▁RM	-11.2739
▁tráf	-11.2741
▁fra	-11.2741
▁Acha	-11.2742
ice	-11.2747
▁realiza	-11.2761
▁estivemos	-11.2762
▁proibi	-11.2765
▁realiz	-11.2767
▁elefantes	-11.2767
▁tempora	-11.2771
▁Val	-11.2771
▁To	-11.2773
▁bloc	-11.2778
▁porto	-11.2783
▁europeia	-11.2786
▁conteúdos	-11.2801
▁quadrados	-11.2801
let	-11.2802
ero	-11.2802
▁fum	-11.2804
▁ramo	-11.2818
▁biólogos	-11.2821
▁referir	-11.2831
▁Tes	-11.2841
oço	-11.2848
▁lançado	-11.2849
aneir	-11.285
▁merece	-11.2853
▁tomam	-11.2855
ob	-11.286
▁mortal	-11.2879
▁audi	-11.2891
velmente	-11.2897
ena	-11.2907
▁defeito	-11.2909
▁fornecem	-11.2911
▁encontrarem	-11.2919
▁exista	-11.2924
lon	-11.2924
enia	-11.2935
▁habitua	-11.2938
▁passea	-11.294
tou	-11.2942
▁continu	-11.2951
▁angaria	-11.296
▁ri	-11.2961
lamento	-11.2961
▁Pega	-11.2965
▁colo	-11.2974
▁biológicos	-11.2978
▁Dei	-11.2981
▁interage	-11.2987
▁casais	-11.2988
▁Sch	-11.2993
min	-11.301
▁vim	-11.301
▁instant	-11.3023
▁manua	-11.3024
▁imediata	-11.3025
▁revoluç	-11.3028
envolvimento	-11.3041
▁terror	-11.3046
▁Pacífico	-11.3051
▁biodiversidade	-11.3051
▁colmeia	-11.3051
▁endereço	-11.3051
▁estatuto	-11.3051
▁estigma	-11.3051
▁globo	-11.3051
▁horríveis	-11.3051
▁idêntico	-11.3051
▁inspirou	-11.3051
▁limpeza	-11.3051
▁multiverso	-11.3051
▁tabela	-11.3051
▁território	-11.3051
▁tubarões	-11.3051
▁Smith	-11.3051
▁aérea	-11.3051
▁homicídio	-11.3051
▁ideologia	-11.3051
▁sotaque	-11.3051
▁sustentáveis	-11.3051
▁pulso	-11.3051
▁contínua	-11.3051
▁cromossoma	-11.3051
▁fraude	-11.3051
▁grávida	-11.3051
▁juiz	-11.3051
▁Veem	-11.3051
▁terrestre	-11.3051
▁piscina	-11.3051
▁tatuage	-11.3051
▁templo	-11.3052
▁mobilidade	-11.3052
▁barriga	-11.3052
▁póster	-11.3052
▁seringa	-11.3052
▁impressora	-11.3052
▁paralelo	-11.3053
▁Encontrei	-11.3053
▁pulmões	-11.3053
▁abundante	-11.3053
chain	-11.3053
▁colocamo	-11.3053
▁esquina	-11.3054
▁revelou	-11.3054
▁esquizofr	-11.3055
▁fins	-11.3055
▁Adam	-11.3055
▁carteira	-11.3055
▁paisagens	-11.3056
▁estímulo	-11.3056
▁usei	-11.3057
▁fizeste	-11.3057
▁diarreia	-11.3057
▁FO	-11.3057
▁bo	-11.3057
▁convencional	-11.3057
▁estudado	-11.3058
▁orgulhosa	-11.3058
▁reduzida	-11.3058
▁queixa	-11.3059
▁remota	-11.306
▁erva	-11.306
▁organizada	-11.306
▁atingiu	-11.3061
▁recuar	-11.3062
▁orgulhoso	-11.3063
▁legislação	-11.3063
▁iniciou	-11.3063
▁constroem	-11.3064
▁Sand	-11.3065
▁Encontrámo	-11.3066
▁sentei	-11.3066
▁sólido	-11.3068
▁monitorizar	-11.3069
▁ARN	-11.3069
▁anual	-11.307
▁rebo	-11.3071
▁conservadores	-11.3072
▁isl	-11.3074
▁cartaz	-11.3075
bra	-11.3078
▁presta	-11.3079
▁governamenta	-11.308
▁condutores	-11.3081
▁recebido	-11.3083
▁cabeças	-11.3084
▁usavam	-11.3085
▁apareci	-11.3085
▁deixando	-11.3085
▁colisão	-11.3087
▁considero	-11.3087
▁fará	-11.309
▁ecologia	-11.3091
raiz	-11.3091
ch	-11.3092
▁focado	-11.3093
▁fator	-11.3093
rações	-11.3094
scola	-11.3095
▁rodar	-11.3096
▁teia	-11.3097
nternacional	-11.31
▁construíram	-11.3102
▁suave	-11.3104
▁deficiências	-11.3106
▁autoridades	-11.3106
▁aguentar	-11.3108
▁punha	-11.3108
▁fuga	-11.3109
▁atraente	-11.3112
▁reprodu	-11.3113
▁inst	-11.3115
▁testemunhar	-11.3119
smo	-11.3122
▁meter	-11.3124
pto	-11.3125
▁inacreditáve	-11.3125
▁confusa	-11.3126
▁alimentares	-11.3128
▁bloquear	-11.3129
▁inspira	-11.3129
▁ouvia	-11.3131
▁impostos	-11.3131
▁gruta	-11.3133
ung	-11.3134
▁representado	-11.3138
▁desempenhar	-11.314
ido	-11.3143
tempo	-11.3145
▁conter	-11.3146
▁libertado	-11.3153
támos	-11.3158
▁deixá	-11.3173
▁compara	-11.3177
mpada	-11.3178
▁confiante	-11.3179
▁Fazem	-11.318
▁biológico	-11.3183
▁Passe	-11.3185
▁pássaro	-11.3187
▁propri	-11.3194
▁Tai	-11.3204
▁tende	-11.3206
gramas	-11.3207
▁dinossauros	-11.3207
▁dispostas	-11.3207
▁Anda	-11.3221
SA	-11.3231
▁negativo	-11.3235
▁resume	-11.3237
▁recorde	-11.3242
▁puxar	-11.3245
▁dando	-11.3248
▁ge	-11.325
▁funcional	-11.3263
ean	-11.3265
éli	-11.3266
▁conquista	-11.3275
▁dono	-11.3277
▁public	-11.3279
▁queira	-11.3296
▁adicional	-11.3302
▁integr	-11.3303
lan	-11.3306
▁ampli	-11.3308
▁juntá	-11.3318
▁sabermos	-11.332
▁inovadoras	-11.3323
▁dependem	-11.3331
▁costum	-11.3334
▁consigam	-11.3335
▁faixas	-11.3355
hop	-11.3357
▁esquecemo	-11.3376
▁independentes	-11.3377
▁muta	-11.3381
▁seta	-11.3383
▁caracter	-11.3386
▁provoca	-11.3387
▁alimenta	-11.3394
▁civiliza	-11.3395
▁1.	-11.3398
▁Super	-11.3416
▁provocar	-11.3416
▁controla	-11.3419
▁conselhos	-11.3422
ato	-11.3428
▁adop	-11.3432
▁depender	-11.3435
▁Sejam	-11.3441
▁ocupar	-11.3443
▁revis	-11.3446
▁pr	-11.3458
samos	-11.3459
▁inclui	-11.3471
▁criminal	-11.3477
▁conhecimentos	-11.3483
▁direc	-11.3485
▁voltam	-11.3493
sperma	-11.3501
▁continue	-11.3503
▁Air	-11.3504
ion	-11.3505
▁sentidos	-11.3522
▁dava	-11.3531
▁esqui	-11.3532
Ba	-11.3534
▁Contra	-11.3537
▁libera	-11.3538
▁cre	-11.3544
▁precise	-11.3549
▁planifica	-11.3552
▁torre	-11.3554
▁tri	-11.3556
che	-11.3558
▁controlado	-11.3561
▁sabor	-11.3562
▁glaciar	-11.3567
▁foca	-11.3569
lobal	-11.3577
▁divide	-11.3578
▁levantou	-11.3578
▁Bitcoin	-11.3578
▁Cresci	-11.3578
▁Exército	-11.3578
▁Vejo	-11.3578
▁armadilha	-11.3578
▁carácter	-11.3578
▁consentimento	-11.3578
▁convincente	-11.3578
▁dádiva	-11.3578
▁etiqueta	-11.3578
▁ilegais	-11.3578
▁imunitário	-11.3578
▁oficiais	-11.3578
▁satisfeito	-11.3578
▁valiosa	-11.3578
▁vulnerável	-11.3578
▁credibilidade	-11.3578
▁hemisfério	-11.3578
▁questionário	-11.3578
▁Matemátic	-11.3578
▁caverna	-11.3578
▁efectiva	-11.3578
▁máscara	-11.3578
▁quantia	-11.3578
▁Daniel	-11.3578
▁Associa	-11.3578
▁preferência	-11.3578
▁Satur	-11.3578
▁julho	-11.3578
▁video	-11.3578
▁brilho	-11.3578
▁furac	-11.3578
▁moldura	-11.3578
▁ausência	-11.3578
▁Tanto	-11.3578
▁cinzenta	-11.3578
▁selva	-11.3578
▁Doaa	-11.3578
▁autorização	-11.3579
▁invasiva	-11.3579
▁intersecç	-11.3579
aza	-11.3579
▁estimulante	-11.358
▁litro	-11.358
▁mudei	-11.358
▁namorada	-11.358
▁permissão	-11.358
▁financiar	-11.3581
▁interativo	-11.3581
▁incidente	-11.3581
▁humilhação	-11.3581
▁activo	-11.3582
▁cachorro	-11.3582
▁espanhol	-11.3582
▁elétrica	-11.3583
ábia	-11.3583
▁enganar	-11.3585
▁eleitoral	-11.3585
▁querida	-11.3586
▁documentar	-11.3587
▁contrair	-11.3589
▁Terceir	-11.3591
▁Parecia	-11.3591
▁Holand	-11.3591
▁pacote	-11.3591
▁gémeo	-11.3591
▁apercebeu	-11.3591
▁fabricar	-11.3592
▁puro	-11.3593
▁interacção	-11.3596
▁filtro	-11.3596
▁espiritual	-11.3598
▁infeç	-11.3599
▁totalidade	-11.3601
▁desconfortáve	-11.3602
▁mencionar	-11.3604
▁beneficiar	-11.3604
▁explora	-11.3605
▁variações	-11.3607
▁gradual	-11.3607
▁It	-11.3612
▁relógio	-11.3615
▁ecrãs	-11.3615
▁galinha	-11.3615
▁fruta	-11.3616
▁suportar	-11.3619
▁consideração	-11.362
▁dobrar	-11.3621
nsidade	-11.3624
▁subida	-11.3625
▁detetor	-11.3629
▁emoção	-11.363
▁radicalmente	-11.3633
▁menores	-11.3633
▁Conseguir	-11.3633
▁talentos	-11.3638
▁ambul	-11.3641
▁preparada	-11.3641
▁bolo	-11.3649
▁queres	-11.3654
▁artístico	-11.366
▁nutri	-11.3663
▁modela	-11.3667
▁panor	-11.3669
▁descreveu	-11.367
▁habitante	-11.3672
▁diretora	-11.3672
▁sexualmente	-11.3673
ex	-11.3673
▁chegada	-11.3676
▁tiram	-11.3676
▁inovar	-11.3679
▁Segunda	-11.3688
▁atributo	-11.3692
▁pegue	-11.3694
▁precedentes	-11.3698
▁absorver	-11.3699
▁Haver	-11.37
ash	-11.3701
para	-11.3703
vidade	-11.3705
▁posse	-11.3706
▁traduzir	-11.3709
▁suicida	-11.3711
▁consulta	-11.372
chi	-11.372
▁fria	-11.372
▁Can	-11.3729
▁lançámo	-11.3737
▁ouvirem	-11.3738
▁prótese	-11.3739
▁interno	-11.374
▁rec	-11.374
▁pisca	-11.374
▁adoram	-11.3742
feitos	-11.3745
▁adaptar	-11.3747
▁concordar	-11.3748
▁entrevistas	-11.3752
▁gado	-11.3753
▁explodir	-11.3759
▁oficial	-11.3762
missões	-11.3765
▁marcar	-11.3765
▁tornámo	-11.3777
▁exigir	-11.3783
▁Cidade	-11.3784
▁astronautas	-11.3787
▁elite	-11.3788
▁Sam	-11.3791
▁usem	-11.3796
▁oferece	-11.3811
▁Cha	-11.3812
▁compreendia	-11.3823
▁relaciona	-11.3825
▁arquitetos	-11.3832
omi	-11.3832
gie	-11.3833
▁protegem	-11.3835
▁acumula	-11.3838
▁empresaria	-11.3838
▁empresários	-11.3845
▁SE	-11.3847
▁telefones	-11.3849
▁Ros	-11.3861
▁indicar	-11.3862
uro	-11.3872
▁Faça	-11.3876
▁vota	-11.3876
▁surpreendidos	-11.3877
▁fundador	-11.3883
▁ataca	-11.3886
▁resultar	-11.3891
each	-11.3893
▁livrar	-11.3896
▁bon	-11.3901
oga	-11.3902
▁abertas	-11.3903
▁tratava	-11.3903
▁dizerem	-11.3906
▁pan	-11.3909
▁pus	-11.391
She	-11.3912
▁Ra	-11.3912
ílio	-11.3915
dial	-11.3916
▁pesc	-11.392
▁trabalhe	-11.3922
▁partidos	-11.3929
▁visualiza	-11.3929
▁acorda	-11.3941
ficado	-11.3954
▁aconselha	-11.3961
▁programador	-11.3967
parem	-11.3967
▁cooperar	-11.3991
▁ador	-11.3996
▁gira	-11.4005
▁ó	-11.4022
▁preferidos	-11.4036
▁vegeta	-11.404
▁Va	-11.4047
▁sustenta	-11.4051
▁adorar	-11.4058
▁bos	-11.406
génese	-11.407
▁perigosos	-11.4072
▁esperem	-11.4077
▁necessita	-11.4094
▁múltipl	-11.4096
▁independ	-11.4097
ador	-11.4099
▁test	-11.4099
▁agrícolas	-11.4103
▁estranhas	-11.4107
▁radica	-11.4111
▁trabalhador	-11.4114
▁rom	-11.4119
▁vendedor	-11.4122
▁prender	-11.4124
▁altruís	-11.4128
dela	-11.4129
▁contamos	-11.4132
▁pens	-11.4133
▁basquete	-11.4133
▁Antártida	-11.4133
▁Saudita	-11.4133
▁Scratch	-11.4133
▁aborto	-11.4133
▁comunitário	-11.4133
▁contínuo	-11.4133
▁expetativa	-11.4133
▁farmacêutica	-11.4133
▁helicóptero	-11.4133
▁invulgar	-11.4133
▁precoce	-11.4133
▁sepultura	-11.4133
▁correcto	-11.4133
▁drone	-11.4133
▁ambientais	-11.4133
▁reverbera	-11.4133
▁castanho	-11.4133
▁gordo	-11.4133
▁magnífico	-11.4133
▁infecç	-11.4133
▁essenciais	-11.4133
▁drama	-11.4133
▁coincidência	-11.4133
▁neurociência	-11.4134
andhi	-11.4134
▁alarme	-11.4134
▁banana	-11.4134
▁cargo	-11.4134
▁feia	-11.4134
▁zangado	-11.4134
▁Fizeram	-11.4134
▁exato	-11.4134
▁elegante	-11.4134
▁geneticamente	-11.4134
▁alugar	-11.4134
▁desenvolvi	-11.4135
▁deitado	-11.4135
▁bruto	-11.4135
▁cobre	-11.4135
▁bossa	-11.4135
▁abraçar	-11.4135
▁sonora	-11.4135
▁inocente	-11.4136
▁racista	-11.4136
▁liguei	-11.4136
▁Fez	-11.4137
▁fascinado	-11.4137
▁Moham	-11.4137
▁reage	-11.4137
▁difusão	-11.4138
▁sofisticada	-11.4138
▁personalizada	-11.4138
▁praça	-11.4138
▁betão	-11.4139
▁hidro	-11.4139
▁pormenores	-11.4141
▁distribuído	-11.4141
lívi	-11.4142
▁certificado	-11.4142
▁trouxeram	-11.4142
▁horário	-11.4143
▁Oceano	-11.4143
▁Escrevi	-11.4143
▁Holl	-11.4143
▁concentração	-11.4144
▁rosa	-11.4144
dução	-11.4144
▁comportamenta	-11.4145
▁vivido	-11.4145
dições	-11.4146
ham	-11.4146
ínio	-11.4147
▁espira	-11.4147
terminado	-11.4147
▁Hill	-11.4147
▁celebridade	-11.4148
▁fármaco	-11.4148
▁cigarro	-11.4149
▁Tempo	-11.4149
▁finais	-11.4149
▁entusiasmados	-11.415
▁especializado	-11.4151
▁reflexão	-11.4153
▁crescido	-11.4158
▁ironia	-11.4158
▁escolhi	-11.4161
▁rece	-11.4162
▁Peter	-11.4163
▁ensinada	-11.4163
▁marítimo	-11.4166
▁produzido	-11.4166
▁apropriado	-11.4173
▁ouvem	-11.4173
écia	-11.4175
▁intencional	-11.4175
▁Archi	-11.4176
▁perfurado	-11.4177
▁perseguir	-11.4177
partamento	-11.4177
uses	-11.4177
fo	-11.4178
▁compreendem	-11.418
▁mosquiteiro	-11.4187
▁avanços	-11.4198
▁germe	-11.4202
▁utilizam	-11.4205
▁Venez	-11.4205
▁chegado	-11.4205
▁pontua	-11.4207
▁Funciona	-11.4209
▁chamaram	-11.4216
ania	-11.422
iade	-11.4222
ata	-11.4223
▁ocasional	-11.4226
▁demonstram	-11.4228
bre	-11.4231
▁marinho	-11.4236
▁fêmeas	-11.4242
▁consistente	-11.4243
▁Olho	-11.4243
▁realista	-11.4255
▁costume	-11.4259
▁Pass	-11.426
▁importam	-11.4261
▁batedor	-11.4267
For	-11.4269
▁mede	-11.4274
▁resumir	-11.4274
▁infra	-11.4283
▁interessam	-11.4283
pública	-11.4289
bu	-11.4294
▁divulgar	-11.4295
▁treinador	-11.4297
▁comece	-11.43
▁adora	-11.4309
▁enviam	-11.431
▁vestido	-11.4311
▁equ	-11.4314
▁conscientes	-11.4315
▁macaco	-11.4329
▁chamá	-11.4331
▁integrar	-11.4331
▁quilos	-11.4333
▁Aplauso	-11.4336
evolução	-11.434
▁conseguí	-11.4342
▁séria	-11.4342
▁cal	-11.4345
▁saíre	-11.4347
▁comentário	-11.435
ele	-11.435
ctuais	-11.4356
▁controlam	-11.4358
▁guardas	-11.4364
▁confuso	-11.4373
▁mel	-11.4377
abul	-11.438
▁fotografa	-11.438
▁vinda	-11.4383
▁emite	-11.4392
vindo	-11.4392
▁gravado	-11.4398
olf	-11.4399
▁protege	-11.4401
▁beneficia	-11.4403
sus	-11.4405
▁cobrir	-11.4417
▁questiona	-11.4419
tação	-11.4423
nus	-11.4426
indo	-11.4433
▁linear	-11.4433
▁fique	-11.446
▁lembram	-11.4461
inas	-11.4462
▁At	-11.4463
▁simula	-11.4466
▁queima	-11.4472
▁grito	-11.4472
▁volt	-11.4475
▁disparar	-11.4477
▁apanhado	-11.4478
▁recordar	-11.4479
▁interessar	-11.4483
▁confi	-11.449
bi	-11.4491
icidade	-11.4493
por	-11.4494
▁desejar	-11.4511
▁poliniza	-11.452
bl	-11.4524
▁conferências	-11.4526
▁senso	-11.4532
ografia	-11.4538
▁manipula	-11.454
▁chegava	-11.4541
▁deseja	-11.4541
▁previsíve	-11.4549
▁darem	-11.4558
▁motivado	-11.4563
▁aposta	-11.4567
scrições	-11.457
ibé	-11.4572
ach	-11.4582
▁treinado	-11.4583
ett	-11.4588
▁Sentia	-11.4594
▁Senhor	-11.4594
▁Espanh	-11.4597
▁encaixa	-11.4608
ager	-11.4622
▁MR	-11.4623
▁Her	-11.4624
▁traduzi	-11.4628
ins	-11.4628
▁Nic	-11.463
▁forneci	-11.4635
▁condena	-11.4645
▁servi	-11.4648
▁bate	-11.4664
▁lido	-11.4666
▁gestor	-11.4671
▁comecem	-11.4676
▁encontrá	-11.4679
▁escaravelhos	-11.4691
▁categorias	-11.4691
▁constru	-11.4692
ED	-11.4695
▁modernas	-11.4698
▁cobra	-11.47
▁venh	-11.4701
cul	-11.4705
▁mor	-11.4705
▁artificia	-11.4706
▁importar	-11.4708
▁fina	-11.471
▁verbal	-11.471
▁Via	-11.4716
ganda	-11.4716
▁ficaria	-11.4717
rueg	-11.4718
▁Tunísia	-11.4721
▁automático	-11.4721
▁cadáver	-11.4721
▁culinári	-11.4721
▁fruto	-11.4721
▁fígado	-11.4721
▁manutenção	-11.4721
▁membrana	-11.4721
▁mutuamente	-11.4721
▁origami	-11.4721
▁reabilita	-11.4721
▁subúrbio	-11.4721
▁FreeSpeech	-11.4721
▁psiquiatra	-11.4721
▁Talibã	-11.4721
▁distinção	-11.4721
▁prostitui	-11.4721
▁óptimo	-11.4721
▁magnético	-11.4721
▁trágico	-11.4721
▁chocolate	-11.4721
▁rumo	-11.4721
▁enviá	-11.4721
▁cruzamento	-11.4721
▁espetro	-11.4721
▁constrói	-11.4722
▁optimista	-11.4722
▁colaborativo	-11.4722
▁inesperada	-11.4722
▁mantido	-11.4722
▁milímetro	-11.4722
▁protocolo	-11.4722
▁dilema	-11.4722
eve	-11.4722
▁abasteci	-11.4722
▁protegido	-11.4722
▁pegá	-11.4723
▁atento	-11.4723
oel	-11.4723
outub	-11.4723
▁improvável	-11.4724
▁receptor	-11.4724
▁expedição	-11.4725
▁vital	-11.4725
▁ultrasson	-11.4725
▁apresentou	-11.4725
▁alargar	-11.4726
▁viesse	-11.4726
▁alegre	-11.4727
▁permitido	-11.4727
▁familiarizado	-11.4728
▁caridade	-11.4728
▁Digo	-11.4729
▁estreita	-11.473
▁prossegui	-11.473
▁armazé	-11.4731
▁vencedores	-11.4732
▁compreende	-11.4732
▁previsto	-11.4733
▁saíram	-11.4735
▁registar	-11.4735
▁enigma	-11.4737
▁microbiana	-11.4737
▁congelado	-11.4737
CH	-11.4738
▁afastado	-11.4739
▁Even	-11.474
▁superar	-11.4741
▁confronto	-11.4743
▁histori	-11.4743
▁interligado	-11.4746
▁Meta	-11.4747
▁envelhecer	-11.4748
▁exprimir	-11.4749
▁imprimir	-11.4749
▁imitar	-11.4749
▁seguiu	-11.475
▁afectam	-11.475
▁industria	-11.4751
▁primor	-11.4752
▁juntou	-11.4753
▁disser	-11.4759
▁continuo	-11.476
▁residente	-11.476
▁rim	-11.4762
▁monitoriza	-11.4763
▁disposição	-11.4763
▁atingem	-11.4766
▁oposta	-11.4767
▁Ai	-11.4769
▁Cinc	-11.4774
▁mostrando	-11.4774
▁nalguma	-11.4774
▁pede	-11.4775
▁puser	-11.4775
▁requisito	-11.4776
▁investido	-11.4776
▁acrescenta	-11.4778
▁democrática	-11.4779
▁Pensa	-11.478
▁South	-11.478
▁inserir	-11.4782
▁habituados	-11.4785
TI	-11.4786
▁juntaram	-11.479
▁escritora	-11.4799
nto	-11.4801
und	-11.4806
▁pediram	-11.4807
▁estilistas	-11.4808
▁fornece	-11.4808
▁pap	-11.4808
▁ciente	-11.4816
▁ensinaram	-11.4816
▁habitáve	-11.4818
uge	-11.4824
▁Bur	-11.4826
▁gra	-11.4828
▁Cit	-11.4829
▁protegidas	-11.4833
▁mexicano	-11.4833
▁Americano	-11.4849
irb	-11.4853
▁haviam	-11.4853
gen	-11.4863
▁vier	-11.4868
▁travar	-11.4875
▁venha	-11.4878
▁administra	-11.4881
▁generosa	-11.4888
▁Ti	-11.4898
▁ouvida	-11.4898
andamento	-11.4899
▁aderir	-11.4903
▁impresso	-11.4907
▁Mah	-11.4911
▁ferve	-11.4917
▁isolar	-11.4918
▁falem	-11.4919
Tal	-11.492
ite	-11.4927
▁abis	-11.4927
pre	-11.4933
▁indiano	-11.4934
▁valioso	-11.4938
▁entregue	-11.4939
▁continentes	-11.494
éni	-11.4941
ive	-11.4944
▁resolvido	-11.4946
▁pronta	-11.4946
▁Ste	-11.4947
▁nervosa	-11.4947
ment	-11.4947
▁coluna	-11.4949
▁Bru	-11.495
▁atingi	-11.4953
▁baleia	-11.4954
▁informático	-11.4955
▁tratada	-11.4955
berr	-11.4959
▁incluí	-11.4962
▁descreve	-11.4967
▁Perde	-11.4967
lice	-11.4971
▁multa	-11.4982
▁religiosos	-11.4982
eto	-11.4983
▁colocadas	-11.499
▁saiba	-11.4993
▁lida	-11.5006
▁mostraram	-11.5014
▁Carolin	-11.5026
sani	-11.5037
▁inspirador	-11.5045
▁nó	-11.5047
▁medos	-11.5053
▁percorre	-11.5055
▁transformam	-11.5056
▁desisti	-11.5057
mbia	-11.5065
▁pinto	-11.5066
▁reconhecem	-11.5083
▁Bali	-11.509
▁potencia	-11.5091
▁facilita	-11.5094
▁Passá	-11.5098
▁acontecerá	-11.5122
▁Teria	-11.5134
▁imitador	-11.5134
▁recusa	-11.5162
ble	-11.5163
bril	-11.5167
spacial	-11.5172
▁Rei	-11.5176
▁juíz	-11.5189
fi	-11.5202
▁contada	-11.5209
▁Mor	-11.5213
▁manterem	-11.5222
ene	-11.5233
▁perdas	-11.5235
▁contam	-11.524
▁determina	-11.5244
sessão	-11.5246
▁impor	-11.5252
ares	-11.5264
▁filhas	-11.5269
▁caír	-11.5276
unt	-11.5288
▁percebam	-11.5304
zi	-11.531
▁inunda	-11.5319
ling	-11.5322
▁censura	-11.5323
▁relva	-11.5327
▁usava	-11.5327
lic	-11.533
▁renováve	-11.5334
▁obriga	-11.5337
iu	-11.5338
▁rochas	-11.5341
▁privadas	-11.5342
▁jardin	-11.5344
conforto	-11.5344
erusalém	-11.5346
úpiter	-11.5346
▁Bronx	-11.5346
▁absoluto	-11.5346
▁aleatório	-11.5346
▁autêntico	-11.5346
▁borracha	-11.5346
▁catástrofe	-11.5346
▁critério	-11.5346
▁enzima	-11.5346
▁harmonia	-11.5346
▁incluem	-11.5346
▁maciça	-11.5346
▁mínima	-11.5346
▁problemático	-11.5346
▁rígido	-11.5346
▁silencioso	-11.5346
▁singular	-11.5346
▁subsídio	-11.5346
▁utilidade	-11.5346
▁autentic	-11.5346
▁declínio	-11.5346
▁psicológica	-11.5346
▁enfermaria	-11.5346
▁democratiza	-11.5346
▁destroço	-11.5346
▁tabu	-11.5346
▁irriga	-11.5346
▁império	-11.5346
▁cauda	-11.5346
▁inconsciente	-11.5346
▁inferno	-11.5346
▁frasco	-11.5346
▁gravidez	-11.5346
▁obtém	-11.5346
▁vizinhança	-11.5346
▁orbita	-11.5346
▁autista	-11.5347
▁Primeira	-11.5347
▁toalha	-11.5347
▁tradutor	-11.5347
▁tubarão	-11.5347
▁calcário	-11.5347
▁ficheiro	-11.5347
▁Certa	-11.5347
▁Chile	-11.5347
▁estágio	-11.5347
▁hélice	-11.5347
▁anjo	-11.5347
▁resson	-11.5347
▁russo	-11.5347
▁Carne	-11.5347
▁solidariedade	-11.5347
▁fixo	-11.5347
▁Vietname	-11.5347
▁rodeado	-11.5347
▁direções	-11.5347
▁solucionar	-11.5347
▁receio	-11.5348
▁inúmer	-11.5348
rgentin	-11.5348
▁atrasado	-11.5348
▁Evan	-11.5348
▁mochila	-11.5349
▁hard	-11.5349
rabe	-11.5349
nch	-11.535
▁SS	-11.535
▁dividida	-11.5351
▁tremendo	-11.5351
▁Hubble	-11.5351
▁abrangente	-11.5351
▁Fazer	-11.5351
▁trazido	-11.5352
▁ISI	-11.5352
▁esqueçam	-11.5352
▁sentou	-11.5352
▁colina	-11.5352
▁Estud	-11.5353
▁franceses	-11.5353
▁décimo	-11.5353
▁diversão	-11.5353
▁pulmão	-11.5353
▁Roset	-11.5354
▁convidar	-11.5355
▁reduzem	-11.5355
nb	-11.5356
poeira	-11.5356
▁obtêm	-11.5356
▁reacção	-11.5356
▁preta	-11.5357
▁grandeza	-11.5359
▁encolher	-11.5359
▁aceitação	-11.5361
▁quinto	-11.5362
▁justificar	-11.5362
▁enfrentam	-11.5362
▁retirado	-11.5363
▁Microsoft	-11.5363
▁campus	-11.5363
un	-11.5364
▁cosmos	-11.5364
▁comprometer	-11.5364
▁condenado	-11.5368
▁comunicam	-11.5368
▁Desculpem	-11.5369
▁girar	-11.537
▁personalizado	-11.5372
▁ensinado	-11.5372
▁subtil	-11.5372
▁pleno	-11.5375
▁unida	-11.5379
obi	-11.5379
▁estável	-11.5382
▁pedem	-11.5383
▁Cla	-11.5383
▁afastada	-11.5384
▁bailarino	-11.5384
til	-11.5387
▁recicla	-11.5392
▁ilustrar	-11.5393
▁testemunho	-11.5394
▁objetiva	-11.5395
▁queijo	-11.5398
▁Considerem	-11.5405
▁protecç	-11.5405
▁dirige	-11.5407
▁combinado	-11.5409
▁enviada	-11.5411
▁publicada	-11.5413
sistência	-11.5415
rí	-11.5418
▁encaixar	-11.5419
▁surpreender	-11.542
▁localidade	-11.542
▁entend	-11.5421
▁percebido	-11.5422
itude	-11.5424
edicina	-11.5426
lga	-11.5426
▁receberam	-11.5427
▁anónimo	-11.5428
▁clic	-11.5431
▁sentiu	-11.5433
▁aplausos	-11.5439
▁decorrer	-11.544
▁regressa	-11.544
▁capitã	-11.5444
▁voltarem	-11.5447
▁fluido	-11.546
▁iraniano	-11.5463
▁possui	-11.5463
▁escravos	-11.5468
▁devolver	-11.5468
▁espreita	-11.5473
▁tentava	-11.5476
▁confirma	-11.5479
▁corria	-11.5481
▁inclusiva	-11.5487
▁argumenta	-11.5488
▁expectativas	-11.5491
▁comp	-11.5494
▁apartamentos	-11.5499
eff	-11.5502
▁evapora	-11.5504
▁existisse	-11.5505
▁valoriza	-11.5511
▁amo	-11.5513
▁queimar	-11.5522
leção	-11.553
▁malas	-11.553
▁pusemo	-11.5532
▁Far	-11.5533
▁orden	-11.5533
▁acertar	-11.5536
▁Parti	-11.5539
▁causada	-11.5543
▁evita	-11.5545
ater	-11.5547
▁perguntamos	-11.5549
▁complicadas	-11.5552
▁escrevem	-11.5554
▁executar	-11.5554
gu	-11.5558
▁coberto	-11.5562
▁assinar	-11.5564
▁Rica	-11.5567
▁sex	-11.5573
ica	-11.5573
▁dispara	-11.5575
▁penetra	-11.5577
▁produtor	-11.5577
útil	-11.5581
▁laser	-11.5592
▁Boa	-11.5596
ico	-11.5599
▁slide	-11.5605
▁dano	-11.5607
▁humanitário	-11.5607
▁tribo	-11.561
▁hábito	-11.5615
▁faixa	-11.5618
▁chimpanzé	-11.5621
▁competência	-11.5623
▁átomo	-11.5623
▁mosquito	-11.5624
▁sinta	-11.5628
▁tornem	-11.5628
▁criadas	-11.5638
▁universos	-11.5651
▁trav	-11.5659
▁oculta	-11.5673
▁ban	-11.5673
▁traduz	-11.5684
▁atrai	-11.5688
▁lentes	-11.5689
rea	-11.5691
▁reparado	-11.5692
▁reformar	-11.5697
xi	-11.5701
issão	-11.5703
petição	-11.5707
▁secular	-11.5708
▁apercebemos	-11.571
aria	-11.5717
▁fases	-11.5717
▁deixada	-11.5721
▁sintam	-11.5723
▁balança	-11.5726
▁ira	-11.5726
▁Te	-11.5733
▁satisfa	-11.5736
▁colunas	-11.576
▁celebrar	-11.5761
dutor	-11.5761
▁come	-11.5762
▁divulga	-11.5763
▁estabelece	-11.5766
▁adopta	-11.5767
▁Hall	-11.5772
▁silic	-11.5781
▁reforça	-11.5784
▁devasta	-11.5788
▁Hol	-11.579
▁reuni	-11.5792
▁nativa	-11.5805
▁deriva	-11.5813
▁verme	-11.5814
▁suicidas	-11.5816
ordan	-11.5816
tem	-11.5816
bon	-11.5818
▁científicas	-11.5825
cera	-11.5825
▁agricultor	-11.5835
ig	-11.5849
▁preserva	-11.587
otel	-11.5882
▁corta	-11.5891
▁mis	-11.5901
▁servidor	-11.5901
▁aplicá	-11.5906
▁artístic	-11.5911
▁pi	-11.5914
▁liberal	-11.5915
▁Alex	-11.5916
tado	-11.592
▁deixe	-11.593
▁Dev	-11.5932
era	-11.5941
▁menti	-11.5941
▁acompanha	-11.5943
▁degrada	-11.5951
▁aventuras	-11.5954
▁congestiona	-11.5954
▁fizessem	-11.5955
▁museus	-11.596
▁exibi	-11.5975
▁Matt	-11.5976
▁interacç	-11.5993
top	-11.5993
▁bi	-11.5996
nho	-11.5996
ética	-11.6003
▁promove	-11.601
▁giga	-11.6011
triz	-11.6012
▁Video	-11.6013
▁DVD	-11.6013
▁altitude	-11.6013
▁ancestral	-11.6013
▁catedra	-11.6013
▁cereais	-11.6013
▁compreendo	-11.6013
▁dramática	-11.6013
▁empolgante	-11.6013
▁genocídio	-11.6013
▁incêndio	-11.6013
▁nanopartícula	-11.6013
▁neuronal	-11.6013
▁proprietário	-11.6013
▁tsunami	-11.6013
▁vínculo	-11.6013
▁defensor	-11.6013
▁espingarda	-11.6013
▁favela	-11.6013
▁intangíve	-11.6013
▁paixões	-11.6013
▁colectiva	-11.6013
▁controle	-11.6013
▁paralisia	-11.6013
▁oferta	-11.6013
▁vulc	-11.6013
▁Irland	-11.6013
▁licenciatura	-11.6013
▁premissa	-11.6013
▁externo	-11.6013
▁institucional	-11.6013
▁interruptor	-11.6013
▁dolorosa	-11.6013
▁musicais	-11.6013
▁vestígio	-11.6013
▁Permite	-11.6013
▁intervalo	-11.6013
▁diabetes	-11.6013
▁apropriada	-11.6013
▁Stasi	-11.6013
▁plasma	-11.6013
▁neural	-11.6013
▁creche	-11.6013
▁firme	-11.6013
▁vazia	-11.6013
▁produtiva	-11.6013
iberdade	-11.6013
▁frágil	-11.6013
▁acampamento	-11.6013
▁desvantage	-11.6013
▁fantasia	-11.6014
▁legais	-11.6014
▁autoestrada	-11.6014
▁agrupamento	-11.6014
▁tristeza	-11.6014
▁Fa	-11.6014
▁descrito	-11.6014
▁desfrutar	-11.6014
▁solteira	-11.6014
▁asiático	-11.6014
▁distrito	-11.6014
ittle	-11.6014
▁Perguntei	-11.6014
▁Vinc	-11.6014
▁mestre	-11.6015
▁estreito	-11.6015
▁ninho	-11.6015
atson	-11.6015
▁botões	-11.6015
▁coloquei	-11.6015
▁aceitável	-11.6015
▁tropica	-11.6016
▁trafica	-11.6016
▁Atl	-11.6016
▁consomem	-11.6017
acci	-11.6017
▁aceitou	-11.6017
▁negação	-11.6017
▁sábado	-11.6017
▁suspeito	-11.6017
▁reconhecida	-11.6018
▁memori	-11.6018
▁séc	-11.6019
▁coelho	-11.6019
▁Tecnologi	-11.6019
▁AVC	-11.602
▁caçadores	-11.602
▁desenhada	-11.602
▁gostaría	-11.6021
▁poupa	-11.6022
▁vendida	-11.6022
▁percebo	-11.6022
fre	-11.6023
attle	-11.6024
▁melhora	-11.6024
▁Americana	-11.6024
▁inventado	-11.6024
▁teclado	-11.6025
▁puseram	-11.6026
▁regularmente	-11.6027
▁Albert	-11.6028
▁síndrome	-11.6028
▁aptidão	-11.6029
▁ameaçado	-11.603
▁penic	-11.603
▁cantores	-11.603
▁brutal	-11.6031
▁fantasma	-11.6031
▁Maria	-11.6032
caria	-11.6032
▁imaginado	-11.6032
▁flexíveis	-11.6033
▁tirou	-11.6033
▁glaciares	-11.6033
▁vendedores	-11.6034
▁impressionado	-11.6034
▁salvou	-11.6035
▁introduzido	-11.6037
▁pesada	-11.6037
hen	-11.6038
▁cubo	-11.6038
cimo	-11.6038
eiras	-11.6039
▁aposto	-11.604
▁notar	-11.6041
▁recolha	-11.6042
pólio	-11.6043
▁rebelde	-11.6044
▁medições	-11.6045
abilóni	-11.6047
▁Chega	-11.6049
▁ignorada	-11.6051
▁aquecer	-11.6056
▁reflexo	-11.6057
▁deus	-11.6057
itne	-11.6057
▁Pensava	-11.6059
▁lindamente	-11.606
▁pen	-11.6061
▁tigre	-11.6061
stro	-11.6062
▁asteroide	-11.6062
▁navegador	-11.6062
contentores	-11.6066
▁prosperar	-11.607
▁exercer	-11.6071
▁fricç	-11.6073
▁Caso	-11.6074
▁conscientemente	-11.6076
▁Nasci	-11.608
▁perguntámos	-11.6085
ev	-11.6086
▁relato	-11.6092
▁observam	-11.6097
▁compensa	-11.6097
▁modificar	-11.6099
▁ocorrem	-11.6099
fiel	-11.6104
▁monta	-11.6109
▁gast	-11.6112
▁extrovertidos	-11.6119
▁distribuir	-11.6119
▁condicionado	-11.6119
▁celebra	-11.6126
▁encarar	-11.6132
▁Palestin	-11.6137
▁celular	-11.6139
▁cela	-11.6151
▁diferencia	-11.6152
rar	-11.6153
ish	-11.6154
ut	-11.6155
▁Vá	-11.6157
ct	-11.6159
▁graves	-11.616
▁colocámos	-11.616
into	-11.6167
▁minúsculas	-11.6169
▁mineiro	-11.6169
ronel	-11.6169
xting	-11.617
▁Henr	-11.6174
ire	-11.6183
▁amava	-11.6191
▁Corre	-11.6197
▁flui	-11.6203
▁capta	-11.6204
ear	-11.6207
▁testa	-11.6214
▁interpretar	-11.6224
▁Hum	-11.6224
▁moscas	-11.6228
▁Tente	-11.6233
▁desculpas	-11.6237
▁imóve	-11.6237
▁preservar	-11.6238
▁observado	-11.624
▁d	-11.6242
▁estudá	-11.6244
▁regulamenta	-11.6251
▁filantropi	-11.6257
▁Si	-11.626
▁Ch	-11.6262
▁tentem	-11.6263
▁ten	-11.6266
▁mutaç	-11.6268
nc	-11.6271
ave	-11.6273
▁Sir	-11.6275
sucedido	-11.6288
▁esperanças	-11.6293
▁recorrer	-11.6298
▁suspeita	-11.6305
▁gota	-11.6306
▁subjacente	-11.6311
▁democrático	-11.6311
▁doador	-11.6316
▁faltam	-11.6318
▁prédio	-11.6319
▁urbana	-11.6324
▁posta	-11.6324
▁lacuna	-11.6325
▁tempestade	-11.6329
▁urso	-11.633
▁masculino	-11.633
▁capturar	-11.6331
▁surpreendido	-11.6333
▁preconceito	-11.6334
▁biólogo	-11.6338
DE	-11.6339
▁juntamo	-11.6345
ificação	-11.6347
▁elevados	-11.6347
▁Recebe	-11.635
▁preparado	-11.6353
▁adulto	-11.6356
▁Roma	-11.636
▁actor	-11.6363
micas	-11.6366
▁entidades	-11.637
▁roubo	-11.6372
▁desejam	-11.6374
▁olhava	-11.6379
▁ministro	-11.6381
▁assumi	-11.6382
▁benefício	-11.6389
▁avança	-11.6389
▁tempestades	-11.6399
▁criarem	-11.6402
▁torne	-11.6406
▁corda	-11.6408
▁apostar	-11.6409
▁concordo	-11.6411
▁contratar	-11.6418
▁analis	-11.6423
▁hábitos	-11.6428
▁comportar	-11.6432
▁privados	-11.6438
▁concordam	-11.6448
▁desloca	-11.6449
▁Vem	-11.6452
0.0	-11.6459
tese	-11.6464
▁circula	-11.6467
▁localizado	-11.6468
▁Academi	-11.6481
▁obeso	-11.6492
▁geri	-11.6496
pra	-11.6498
▁salta	-11.6506
ain	-11.6507
▁apanha	-11.6511
▁espalha	-11.6513
scal	-11.6521
buc	-11.6522
▁simulaç	-11.6522
▁Construímo	-11.6527
▁Acreditam	-11.6528
▁existente	-11.6529
▁sorri	-11.6544
dit	-11.6545
▁aponta	-11.6547
▁propaga	-11.6558
▁formado	-11.6564
rus	-11.6565
▁destaca	-11.6565
ã	-11.6571
▁trazem	-11.6574
▁Vê	-11.6576
▁modelar	-11.6584
ónia	-11.6586
▁colher	-11.6591
▁venham	-11.6594
▁comem	-11.66
▁precis	-11.6601
her	-11.6601
▁adoramo	-11.6602
▁Mari	-11.661
▁Mac	-11.661
▁transporta	-11.6611
▁diagnósticos	-11.6614
tter	-11.6621
ores	-11.6624
▁honest	-11.6624
ula	-11.6625
▁viv	-11.6644
▁considerem	-11.6644
qu	-11.6644
▁metas	-11.6645
▁gl	-11.6649
▁defende	-11.665
nco	-11.6658
ight	-11.6658
▁apresentado	-11.6665
▁invas	-11.6667
▁transformado	-11.667
▁cidad	-11.668
▁Hava	-11.6683
▁Ram	-11.669
▁desejava	-11.6695
▁corri	-11.6699
gi	-11.67
▁prolonga	-11.6705
▁identidades	-11.6706
▁refei	-11.6707
▁encontrava	-11.6708
▁situa	-11.6713
▁muni	-11.6713
▁autora	-11.6713
gurança	-11.6716
▁policia	-11.6719
▁chegue	-11.672
ustiça	-11.6727
stria	-11.6727
ipedia	-11.6727
▁Missouri	-11.6727
▁Rapariga	-11.6727
▁ansioso	-11.6727
▁antidepressivo	-11.6727
▁arbusto	-11.6727
▁besouro	-11.6727
▁causou	-11.6727
▁cineasta	-11.6727
▁drasticamente	-11.6727
▁escravatura	-11.6727
▁espessura	-11.6727
▁estúpido	-11.6727
▁fabulosa	-11.6727
▁febre	-11.6727
▁fraqueza	-11.6727
▁golfe	-11.6727
▁golfinho	-11.6727
▁incapaz	-11.6727
▁polímero	-11.6727
▁presidencia	-11.6727
▁proveniente	-11.6727
▁proximidade	-11.6727
▁quantitativa	-11.6727
▁submarino	-11.6727
▁válvula	-11.6727
▁álcool	-11.6727
▁Stephen	-11.6727
▁apresentá	-11.6727
▁detalhada	-11.6727
▁ferimento	-11.6727
▁sábio	-11.6727
▁autónomo	-11.6727
▁flexibilidade	-11.6727
▁túmulo	-11.6727
▁rabisco	-11.6727
▁etapa	-11.6727
▁Antiga	-11.6727
▁ambicioso	-11.6727
▁sólida	-11.6727
▁refiro	-11.6727
▁malicioso	-11.6727
▁omnipresente	-11.6727
▁País	-11.6727
▁noturno	-11.6727
epler	-11.6727
▁suposta	-11.6727
▁inerente	-11.6727
▁enfermeiro	-11.6728
▁teórico	-11.6728
▁chapéu	-11.6728
▁precioso	-11.6728
▁monstro	-11.6728
▁muscular	-11.6728
▁mágica	-11.6728
▁matriz	-11.6728
▁saudita	-11.6728
▁rotina	-11.6728
▁amarela	-11.6728
▁educativa	-11.6728
▁fogueira	-11.6728
▁produtivo	-11.6728
▁espectro	-11.6728
▁largo	-11.6728
▁Chef	-11.6728
▁exposta	-11.6728
▁CEO	-11.6728
▁feio	-11.6728
▁arterial	-11.6728
▁fomenta	-11.6728
▁artesana	-11.6728
▁injeç	-11.6728
▁escasse	-11.6729
▁Peço	-11.6729
▁renda	-11.6729
▁guitarra	-11.6729
eoff	-11.6729
▁Projeto	-11.6729
▁irónico	-11.6729
▁Hanna	-11.6729
▁selvagens	-11.6729
▁trigo	-11.673
castanha	-11.673
▁surto	-11.673
▁mestrado	-11.673
▁minima	-11.673
▁Deixo	-11.6731
▁comprou	-11.6732
▁campe	-11.6732
▁hot	-11.6732
▁espont	-11.6732
▁trilh	-11.6732
▁caneta	-11.6733
▁informar	-11.6733
▁neutro	-11.6733
▁poço	-11.6733
▁irritante	-11.6733
▁falsificaç	-11.6733
▁conven	-11.6733
▁escute	-11.6734
▁fundamento	-11.6734
▁sensíve	-11.6734
▁subti	-11.6734
▁entusiasmada	-11.6734
▁espalhou	-11.6734
ustine	-11.6735
▁equilibrar	-11.6735
▁arredor	-11.6736
▁detectar	-11.6736
▁horizontal	-11.6736
▁Odisse	-11.6737
▁logística	-11.6737
▁oradores	-11.6737
▁arrisca	-11.6738
▁arquitecto	-11.6738
▁deixava	-11.6738
▁sequenciar	-11.6738
▁programáve	-11.6739
▁abordagens	-11.6739
▁Dê	-11.6739
▁projecta	-11.6739
▁vendido	-11.6739
▁identificação	-11.6739
▁educada	-11.6739
▁policial	-11.674
▁quarteirão	-11.6741
sibilidade	-11.6742
▁fortalecer	-11.6742
▁bateu	-11.6742
▁Dic	-11.6743
▁indícios	-11.6744
▁dividido	-11.6745
▁comporta	-11.6745
▁eléctrica	-11.6746
▁primária	-11.6747
▁Bell	-11.6747
▁preocupem	-11.6747
ited	-11.6747
▁circulação	-11.6748
▁CD	-11.6749
▁TB	-11.675
▁honestamente	-11.6752
▁danificado	-11.6752
▁telefonema	-11.6753
▁Buda	-11.6753
▁Harr	-11.6754
▁comparada	-11.6754
▁contracep	-11.6754
ndonési	-11.6754
▁colatera	-11.6755
▁terminal	-11.6756
▁valorizar	-11.6756
▁marinha	-11.6763
▁isolada	-11.6763
▁consideramo	-11.6763
▁Car	-11.6766
▁espalhada	-11.6767
▁digno	-11.6771
▁imprevisíve	-11.6774
▁Viaj	-11.6775
ezas	-11.6775
▁postura	-11.6778
▁Milh	-11.6781
▁usámo	-11.6783
▁virou	-11.6789
▁localizar	-11.6792
▁julgava	-11.6796
▁ouço	-11.6798
▁repetida	-11.6798
▁produzida	-11.68
erra	-11.6802
▁gravada	-11.6802
▁estimula	-11.6806
▁casaco	-11.6808
▁Devo	-11.6809
▁biografia	-11.6813
▁cortina	-11.6815
isco	-11.6815
▁pagamos	-11.6816
▁limitar	-11.682
▁recolhem	-11.6823
▁outono	-11.6824
▁Sant	-11.6825
▁dores	-11.6825
▁construtor	-11.6826
ães	-11.6828
erança	-11.6828
▁passarem	-11.683
▁aplicado	-11.6831
▁colecç	-11.6837
▁dobra	-11.6837
iva	-11.6837
▁desvio	-11.6847
bert	-11.6857
▁Ex	-11.6857
▁Br	-11.6859
▁arrancar	-11.6859
▁valer	-11.6863
▁interiores	-11.6866
▁adaptáve	-11.6875
▁visões	-11.688
▁criava	-11.6882
▁custam	-11.6883
▁equipamentos	-11.6884
▁Senhora	-11.6885
.0	-11.6892
▁cru	-11.6898
ila	-11.6903
▁andares	-11.6903
armados	-11.6903
tá	-11.6906
▁ganhe	-11.6909
ança	-11.6911
▁eleito	-11.6914
▁convence	-11.6915
▁contador	-11.692
▁encher	-11.6921
▁Sab	-11.6921
▁atenta	-11.693
▁calcula	-11.6934
▁sonda	-11.6934
itz	-11.6938
▁representada	-11.6939
▁Hond	-11.694
evei	-11.6941
err	-11.6941
entes	-11.6958
▁especula	-11.696
▁sof	-11.6963
▁elevar	-11.6966
▁sujeitos	-11.6968
▁Sud	-11.6971
▁fortemente	-11.6974
▁economiza	-11.6976
▁sede	-11.6977
een	-11.6981
▁goste	-11.6982
ocial	-11.6991
▁separa	-11.6995
lar	-11.7003
onar	-11.7006
ológica	-11.701
▁andarem	-11.7015
▁Morto	-11.7018
▁Chamava	-11.7026
▁bala	-11.7032
▁Dado	-11.7037
órdi	-11.7042
▁fiáve	-11.7046
▁electr	-11.7056
abrigo	-11.7062
úteis	-11.7062
▁educado	-11.7062
unho	-11.7068
▁estrutural	-11.707
▁começarem	-11.7071
▁deslocar	-11.7073
▁Anna	-11.7073
▁instinto	-11.7074
ndado	-11.7077
▁comunica	-11.7077
▁ajudarem	-11.7082
▁africana	-11.7086
▁inevit	-11.7094
▁smartphone	-11.7095
▁puxa	-11.7097
▁entidade	-11.7099
▁multiplica	-11.7104
▁abraço	-11.7105
tus	-11.7106
▁dispersa	-11.7106
zero	-11.7107
▁trocas	-11.7108
▁lente	-11.7109
▁sobe	-11.7111
▁Pedi	-11.7112
▁entrava	-11.7113
ech	-11.7116
▁depend	-11.7117
▁financeiras	-11.7124
▁fezes	-11.7124
▁sensibili	-11.7126
▁apercebemo	-11.7132
▁misturar	-11.7133
▁honesto	-11.714
▁ursos	-11.7144
tirando	-11.7144
▁faci	-11.7154
▁recorre	-11.7154
▁aborda	-11.716
êssemos	-11.7166
▁historiador	-11.7167
alha	-11.7175
▁inovadora	-11.7182
▁desenvolvidos	-11.7188
▁veja	-11.7205
cu	-11.7207
▁certifica	-11.721
▁eleva	-11.7212
amamos	-11.7215
▁rastrea	-11.7229
▁Tor	-11.723
essão	-11.7236
▁Be	-11.7243
▁esmagado	-11.7247
▁Hal	-11.7249
▁sab	-11.7253
▁dona	-11.7255
mónio	-11.7258
alter	-11.7263
▁Inc	-11.7271
▁Carol	-11.7278
▁ur	-11.7285
▁cabe	-11.7289
tz	-11.7291
▁senta	-11.7298
mpadas	-11.7302
▁confiantes	-11.7302
▁lama	-11.7304
▁cole	-11.7312
▁tentativas	-11.7314
▁aba	-11.7314
▁deixámo	-11.7319
▁retira	-11.7319
▁comete	-11.7326
▁escava	-11.7327
▁assusta	-11.733
▁Ross	-11.7331
sola	-11.7333
nforme	-11.7345
▁interroga	-11.7353
rganização	-11.7365
▁habitats	-11.7366
▁Compreend	-11.7366
ona	-11.7369
▁mudaria	-11.7375
▁inclus	-11.7376
tável	-11.7378
▁procuro	-11.7378
▁prov	-11.7378
▁encoraja	-11.738
▁envolvem	-11.7381
▁expressa	-11.7381
▁be	-11.7385
▁Hans	-11.7385
▁instáve	-11.7387
▁escrevia	-11.739
▁Project	-11.7391
▁quisessem	-11.7394
▁viria	-11.7394
▁equipas	-11.7402
gua	-11.7404
▁interagi	-11.7412
áudi	-11.7415
▁descrevi	-11.7416
ficando	-11.7423
▁salaria	-11.7424
▁adotar	-11.7434
ivas	-11.7439
▁cól	-11.7441
▁Toma	-11.7445
trónomos	-11.7445
luz	-11.7447
▁interliga	-11.7449
rda	-11.745
▁personaliza	-11.7458
▁posiciona	-11.7458
ara	-11.7461
▁Vivia	-11.7463
ágio	-11.7465
nifer	-11.7466
▁define	-11.7468
▁resta	-11.747
▁polariza	-11.7473
▁pl	-11.7475
▁engenho	-11.7481
ático	-11.7482
▁interpret	-11.7484
▁gras	-11.7485
▁triba	-11.7486
núnci	-11.7491
▁ativis	-11.7492
▁Fri	-11.7495
fectar	-11.7495
▁insegura	-11.7496
shahidi	-11.7497
íduos	-11.7497
▁HIV	-11.7497
▁Movimento	-11.7497
▁Toronto	-11.7497
▁abutre	-11.7497
▁adolescência	-11.7497
▁assassino	-11.7497
▁cerimónia	-11.7497
▁climático	-11.7497
▁controvérsia	-11.7497
▁cívico	-11.7497
▁diagnosticar	-11.7497
▁italiano	-11.7497
▁mesquita	-11.7497
▁persuadi	-11.7497
▁pesticida	-11.7497
▁prateleira	-11.7497
▁recipiente	-11.7497
▁textura	-11.7497
▁universitária	-11.7497
▁coberta	-11.7497
▁contempla	-11.7497
▁elogio	-11.7497
▁esgoto	-11.7497
▁gravitacional	-11.7497
▁maratona	-11.7497
▁sacrifício	-11.7497
▁táxi	-11.7497
▁asfalt	-11.7497
▁julgo	-11.7497
▁enriquece	-11.7497
▁icebergue	-11.7497
▁neurocientista	-11.7497
▁rapidez	-11.7497
▁banqueiro	-11.7497
▁infidel	-11.7497
▁rituais	-11.7497
▁obsessão	-11.7497
▁selecciona	-11.7497
▁crónica	-11.7497
▁fragmentação	-11.7497
▁lealdade	-11.7497
▁pesadelo	-11.7497
▁intrigante	-11.7497
▁convite	-11.7497
▁rasto	-11.7497
▁Orienta	-11.7497
▁finança	-11.7497
▁íman	-11.7497
▁Virgin	-11.7497
▁automaticamente	-11.7497
▁convicç	-11.7497
▁fóss	-11.7497
▁sobrevivi	-11.7497
▁caravana	-11.7497
▁superpoder	-11.7497
▁Faço	-11.7497
▁artéria	-11.7497
▁fralda	-11.7497
VIII	-11.7497
▁novembro	-11.7497
▁manteve	-11.7497
▁isolado	-11.7497
▁Força	-11.7497
▁unidimensional	-11.7498
▁mentiroso	-11.7498
chran	-11.7498
▁federal	-11.7498
▁veia	-11.7498
▁imagino	-11.7498
▁oscila	-11.7498
▁Cabo	-11.7498
eneral	-11.7498
▁extremidade	-11.7499
▁aliança	-11.7499
▁convidou	-11.7499
▁Narrador	-11.7499
▁grata	-11.75
▁RV	-11.75
▁festiva	-11.75
▁maluca	-11.7501
▁alienígena	-11.7501
▁cascata	-11.7502
▁pasta	-11.7502
▁permitindo	-11.7502
▁esquadra	-11.7502
▁Canal	-11.7502
▁matou	-11.7502
▁larva	-11.7504
▁espectacular	-11.7504
▁conceção	-11.7504
▁bilh	-11.7505
▁Denn	-11.7505
Donald	-11.7506
migração	-11.7507
▁consumidor	-11.7507
▁biomas	-11.7507
▁Recordo	-11.7507
▁aperfeiçoar	-11.7508
▁adicionais	-11.7508
▁absurdo	-11.7509
▁assassínio	-11.7509
▁amadores	-11.7509
▁acompanhado	-11.7509
▁pego	-11.7509
▁espada	-11.751
▁sensíveis	-11.751
▁Steven	-11.7511
▁Frequente	-11.7511
dental	-11.7511
▁Perdi	-11.7511
▁arriscado	-11.7512
enda	-11.7512
▁foguetão	-11.7513
▁experimental	-11.7514
tina	-11.7514
▁compreendida	-11.7514
rit	-11.7514
▁Descobriram	-11.7515
▁controversa	-11.7516
▁atuar	-11.7516
▁gaiola	-11.7517
▁prostituta	-11.7517
▁concebida	-11.7517
▁coleção	-11.7518
▁masculina	-11.7518
▁modificada	-11.752
▁proto	-11.752
▁Ponto	-11.752
▁flutuante	-11.752
▁generaliza	-11.7521
▁fluente	-11.7521
▁balde	-11.7521
▁optar	-11.7521
▁lançada	-11.7522
▁demonstrado	-11.7522
▁permitisse	-11.7523
▁permitam	-11.7523
▁determinação	-11.7523
Bit	-11.7525
▁espalhado	-11.7525
eda	-11.7525
▁Muda	-11.7526
▁reuniram	-11.7526
▁lidam	-11.7527
▁mobilizar	-11.7527
tico	-11.7528
▁fardo	-11.753
▁rap	-11.7533
▁agrada	-11.7534
▁colorido	-11.7534
▁CE	-11.7534
▁massiva	-11.7535
▁crescia	-11.7536
▁desviar	-11.7536
▁Nair	-11.7537
▁perguntem	-11.7537
▁definem	-11.7539
▁transportado	-11.7539
▁psicopata	-11.7539
▁satisfaze	-11.754
▁anunciou	-11.7542
▁faca	-11.7543
ressões	-11.7545
bur	-11.7547
taram	-11.7552
▁experiente	-11.7552
▁pombo	-11.7554
▁mortais	-11.7555
gramática	-11.7556
▁chegarem	-11.7556
▁padre	-11.7557
▁Isa	-11.7562
▁afectada	-11.7566
▁morar	-11.7571
▁chi	-11.7573
▁Cole	-11.7573
▁empenhado	-11.7575
▁levando	-11.7576
▁gerada	-11.7576
▁bombeiros	-11.7579
▁correntes	-11.7582
EB	-11.7582
▁chamavam	-11.7584
▁Bel	-11.7585
▁estimular	-11.7587
▁interven	-11.7591
▁imp	-11.7592
▁Conta	-11.7593
▁resumi	-11.7594
▁afetam	-11.7595
▁terrivel	-11.7598
rins	-11.7599
▁precisas	-11.7604
▁responderam	-11.7604
▁matemáticas	-11.7607
▁guiado	-11.7609
▁causam	-11.7609
▁Stac	-11.7621
ron	-11.7621
▁factor	-11.7621
▁lidera	-11.7623
▁ouça	-11.7623
▁sincera	-11.7624
enne	-11.7626
▁competitivo	-11.7628
▁noiva	-11.7629
▁editora	-11.7635
▁navega	-11.7637
estrutura	-11.7638
▁lava	-11.7639
nfim	-11.7646
▁Voa	-11.7647
▁alterado	-11.7649
▁multinaciona	-11.765
▁ajude	-11.7651
▁adoraria	-11.7652
▁classificar	-11.7653
▁empurra	-11.7654
gue	-11.7655
nta	-11.7669
▁cano	-11.7671
TO	-11.7678
▁formigas	-11.7678
▁fragmentos	-11.7678
cton	-11.768
▁operaciona	-11.7684
ix	-11.7685
tamos	-11.7686
▁cometer	-11.7695
▁sorrir	-11.7701
ich	-11.7704
▁compram	-11.7704
▁cheios	-11.7705
▁lança	-11.771
▁prové	-11.7715
▁levantam	-11.7717
evin	-11.7721
▁mostrava	-11.7725
omé	-11.7731
▁marcado	-11.7734
▁sentiram	-11.7734
▁Imagin	-11.7737
rais	-11.774
▁frequentar	-11.7743
▁falante	-11.7743
▁Sete	-11.7745
▁lógico	-11.7766
guel	-11.7767
▁curador	-11.7772
▁Compra	-11.7775
ilicon	-11.778
▁absorve	-11.7783
▁incentiva	-11.779
red	-11.7791
ilhas	-11.7795
ergu	-11.7801
▁neo	-11.7801
▁provoc	-11.7804
▁entregar	-11.7808
▁passageiros	-11.7812
▁concorda	-11.7814
▁Bol	-11.7823
▁ético	-11.7828
▁ultrapassa	-11.7836
▁sujeita	-11.7844
▁indígenas	-11.7846
rtic	-11.7849
▁apreci	-11.7852
▁camar	-11.7863
▁virtua	-11.7863
▁Che	-11.7867
▁reta	-11.7873
af	-11.7877
une	-11.788
▁crio	-11.7882
▁Estudo	-11.7882
ministro	-11.7883
▁processador	-11.7886
cha	-11.7892
▁isolados	-11.7901
▁mantemo	-11.7903
▁abraç	-11.7905
▁gratuito	-11.7908
▁humanitária	-11.7908
ssões	-11.7909
estre	-11.7912
lé	-11.7912
▁semelhança	-11.7914
▁Inver	-11.7915
MA	-11.7916
head	-11.7917
▁caminh	-11.7918
▁inesperado	-11.7918
▁corajosa	-11.7922
▁arquivo	-11.7924
▁violento	-11.7927
▁envolvida	-11.7928
▁chorava	-11.7928
▁saque	-11.793
▁maré	-11.7932
▁arquiteto	-11.7935
▁emergente	-11.7937
ardu	-11.7939
▁nervo	-11.7941
▁performa	-11.795
timo	-11.7954
▁captura	-11.7962
lad	-11.797
▁excita	-11.7971
▁z	-11.7973
▁And	-11.7973
▁Ap	-11.7977
▁nativo	-11.7982
▁pá	-11.7988
lix	-11.7994
▁Falam	-11.7996
linear	-11.7998
▁deixasse	-11.7999
▁afirmar	-11.8014
▁prontas	-11.8017
▁resolvidos	-11.8017
▁enfrenta	-11.8017
▁confessa	-11.8018
▁pop	-11.8018
ilv	-11.8024
▁estica	-11.8045
pen	-11.8051
▁artes	-11.8054
▁solid	-11.8054
real	-11.8054
▁Passa	-11.806
▁animado	-11.8062
stop	-11.8068
zer	-11.807
▁Tas	-11.8076
TC	-11.8076
diante	-11.8082
les	-11.8095
uta	-11.8095
ração	-11.8098
▁Muni	-11.8101
olhemos	-11.811
ú	-11.8116
▁escuras	-11.8117
ple	-11.8118
▁Pop	-11.8121
▁impedi	-11.8137
oster	-11.8149
▁pontuaç	-11.8149
▁fr	-11.815
▁diários	-11.8156
▁vendem	-11.8158
ducação	-11.8177
▁inclusiv	-11.8179
▁perguntasse	-11.8181
▁Aparece	-11.8183
rder	-11.8187
▁pesa	-11.8189
▁signific	-11.8189
▁espelhos	-11.819
▁Shad	-11.8203
▁preferia	-11.8203
ington	-11.8215
▁invent	-11.8223
▁acolher	-11.8229
▁jogador	-11.8229
cel	-11.823
▁regula	-11.823
▁significativos	-11.8233
cut	-11.824
▁declar	-11.8255
▁Sub	-11.8255
ones	-11.8256
lema	-11.8262
eoa	-11.8264
▁geram	-11.8266
▁pau	-11.8267
▁ridícul	-11.8269
▁analisá	-11.8273
▁afecta	-11.8286
▁prometi	-11.8287
▁preenche	-11.8289
▁engoli	-11.8292
q	-11.8293
pin	-11.8295
ónio	-11.8295
▁costumam	-11.8296
cri	-11.8296
íssimo	-11.83
▁esqueci	-11.8301
untu	-11.8302
ith	-11.8303
▁patri	-11.8312
▁aparecia	-11.8314
▁revolta	-11.8314
▁tecla	-11.8314
▁Esperem	-11.8315
▁justifica	-11.8315
ncipe	-11.8317
gram	-11.8319
▁pró	-11.8322
▁hiper	-11.8324
hinês	-11.8329
▁introdu	-11.8329
▁extraordin	-11.8329
▁guardi	-11.833
iribati	-11.833
▁Himalaias	-11.833
▁Virgínia	-11.833
▁biomolécula	-11.833
▁bitcoins	-11.833
▁bizarra	-11.833
▁chávena	-11.833
▁conselheiro	-11.833
▁consenso	-11.833
▁cápsula	-11.833
▁emprestado	-11.833
▁engraçada	-11.833
▁espectáculo	-11.833
▁evacua	-11.833
▁exossomas	-11.833
▁gentil	-11.833
▁hierarqui	-11.833
▁judaica	-11.833
▁maximizar	-11.833
▁meteorológico	-11.833
▁noticiário	-11.833
▁peculiar	-11.833
▁ruína	-11.833
▁simetria	-11.833
▁sombria	-11.833
▁veneno	-11.833
▁válida	-11.833
▁árduo	-11.833
▁Faiza	-11.833
▁concreta	-11.833
▁duche	-11.833
▁slogan	-11.833
▁Noutra	-11.833
▁envergonhado	-11.833
▁tronco	-11.833
▁Titã	-11.833
▁chocado	-11.833
▁desmonta	-11.833
▁distinta	-11.833
arganta	-11.833
▁filmado	-11.833
▁híbrido	-11.833
▁propinas	-11.833
▁Earth	-11.833
▁Escrit	-11.833
▁ideais	-11.833
▁Trum	-11.833
▁savana	-11.833
▁trinta	-11.833
▁Industrial	-11.833
▁Helen	-11.833
▁difere	-11.833
▁taça	-11.833
▁desaparecido	-11.833
▁protões	-11.833
▁Control	-11.833
▁Pronto	-11.833
▁rodeada	-11.833
▁coerente	-11.8331
▁seroton	-11.8331
▁rainha	-11.8331
▁ácido	-11.8331
▁Copen	-11.8331
▁revolucionar	-11.8331
▁executivo	-11.8331
▁imaginei	-11.8331
▁calculadora	-11.8331
▁vizinha	-11.8331
▁confrontado	-11.8331
▁agressor	-11.8331
▁amplo	-11.8331
▁fatal	-11.8332
▁cheque	-11.8332
Rabbit	-11.8332
▁prefiro	-11.8332
▁atrasar	-11.8332
▁impressionantes	-11.8332
▁Q	-11.8333
lábios	-11.8333
▁colidir	-11.8333
▁Curios	-11.8333
▁gigantesco	-11.8333
▁copa	-11.8334
iforme	-11.8334
▁educacional	-11.8335
▁gigantesca	-11.8335
▁medalha	-11.8335
▁Chern	-11.8335
▁legítimo	-11.8335
▁enterrado	-11.8336
▁Max	-11.8336
▁registado	-11.8336
▁conspiração	-11.8336
▁detido	-11.8336
▁turno	-11.8337
▁desperdiçar	-11.8337
▁Clint	-11.8338
▁reduzido	-11.8338
tenta	-11.8339
filia	-11.834
▁derreter	-11.834
▁redefinir	-11.8342
▁recebo	-11.8342
▁desafiante	-11.8342
ína	-11.8343
▁mercadoria	-11.8343
▁lote	-11.8343
▁lesões	-11.8344
▁espin	-11.8344
▁ambientalista	-11.8344
▁vice	-11.8344
▁Vêem	-11.8345
▁ateu	-11.8345
▁suspensa	-11.8345
▁assume	-11.8346
evantem	-11.8346
▁geografia	-11.8347
▁distribuída	-11.8348
▁nobre	-11.8348
▁Tipo	-11.8349
▁ovo	-11.835
▁concordaram	-11.835
▁estático	-11.835
▁preferem	-11.835
▁frustrada	-11.835
▁maxilar	-11.835
▁CP	-11.8351
▁adesivo	-11.8352
▁tomei	-11.8353
▁honesta	-11.8354
▁suspenso	-11.8354
▁atacado	-11.8354
▁bebida	-11.8355
▁concentrado	-11.8356
▁filmage	-11.8356
▁concorrente	-11.8357
iço	-11.8358
▁suor	-11.8358
grama	-11.8358
▁aplicam	-11.8359
▁empurrar	-11.8359
▁transformando	-11.8361
▁tóxico	-11.8363
▁autonom	-11.8363
▁anestesia	-11.8364
mit	-11.8368
▁porno	-11.8369
▁lançaram	-11.8375
▁fabrica	-11.8377
▁Apol	-11.8379
▁afasta	-11.8379
▁latino	-11.838
▁levavam	-11.8381
▁estática	-11.8381
▁pontes	-11.8381
▁lares	-11.8382
▁otimis	-11.8382
source	-11.8383
▁confiss	-11.8383
▁violada	-11.8383
▁deprimido	-11.8384
▁diretores	-11.8385
▁ativar	-11.8387
▁implacáve	-11.8389
▁dedicar	-11.8389
▁escolhem	-11.839
▁remove	-11.839
▁hipo	-11.839
▁heroína	-11.8391
▁certificar	-11.8392
▁Monte	-11.8392
▁regress	-11.8393
OR	-11.8393
▁activado	-11.8393
assem	-11.8394
▁recetor	-11.8399
▁reclamar	-11.8399
▁Alan	-11.8403
▁valida	-11.8403
▁revisor	-11.8405
▁embarcar	-11.8407
caminhada	-11.8408
▁festeja	-11.8411
▁vestir	-11.8414
▁viajante	-11.8414
▁automa	-11.8416
▁racis	-11.8422
▁metais	-11.8424
▁Dre	-11.8426
▁lin	-11.8427
▁comprado	-11.8428
▁Podiam	-11.8432
▁leu	-11.8432
▁provou	-11.8432
▁preocupada	-11.8437
ISA	-11.8441
▁viciado	-11.8442
▁vinte	-11.8444
▁agressivo	-11.8444
▁simpl	-11.8447
▁quantifica	-11.8448
▁saberem	-11.8449
ndi	-11.8452
▁eterna	-11.8454
▁violar	-11.8456
ácia	-11.8458
▁bocados	-11.8465
▁recorte	-11.847
▁pouso	-11.8471
▁pondo	-11.8473
▁duram	-11.8482
▁aterrar	-11.8484
▁reformado	-11.8493
▁representante	-11.8495
▁atravess	-11.8503
▁AB	-11.8503
▁Trabalho	-11.8512
uros	-11.8514
▁Mer	-11.8516
▁utilizamos	-11.8517
▁entraram	-11.852
▁mi	-11.8521
▁manufatura	-11.8525
▁gerado	-11.8526
▁conduzi	-11.8529
▁adiciona	-11.8536
▁lerem	-11.8538
▁Pat	-11.8541
stem	-11.8543
▁subestima	-11.8545
▁devida	-11.8547
▁resum	-11.8548
▁relativ	-11.8549
▁influencia	-11.855
BM	-11.8551
▁Net	-11.8554
▁parada	-11.8555
hr	-11.8556
▁colocarem	-11.8557
▁faculdades	-11.8561
▁seguiram	-11.8565
▁cinto	-11.8568
lidade	-11.8571
mmel	-11.858
▁Devia	-11.8584
MM	-11.8598
▁CR	-11.8601
▁pioneiros	-11.8601
ffit	-11.8602
▁esticar	-11.8608
▁destacar	-11.8609
▁medita	-11.861
andei	-11.8614
eguei	-11.8617
▁Representa	-11.8626
▁Pic	-11.8627
▁Ever	-11.8629
▁Crist	-11.8629
▁extraterrestres	-11.8638
osh	-11.8639
▁progressos	-11.864
▁atraso	-11.864
manda	-11.8646
▁desconhecidos	-11.8657
▁milh	-11.8658
▁aliado	-11.8658
▁comercializa	-11.8661
ES	-11.8665
▁continuamente	-11.8673
▁pressionar	-11.8675
▁aprendermos	-11.8675
cer	-11.8677
▁encomenda	-11.8677
▁influenciado	-11.8679
ários	-11.868
▁sufoca	-11.8687
▁informa	-11.8699
▁HA	-11.8707
▁introduzi	-11.8717
ncialmente	-11.8721
▁Dra	-11.8722
▁possibilita	-11.8724
hrir	-11.8728
▁pintor	-11.8728
▁montage	-11.8736
tam	-11.8737
▁abri	-11.8739
▁dali	-11.8747
▁envolvidas	-11.8749
▁moti	-11.8757
▁Sonh	-11.8761
00.	-11.8765
▁Mall	-11.8766
▁cavalos	-11.8768
for	-11.877
▁trabalharem	-11.8771
▁consegu	-11.8771
fus	-11.8772
▁preferi	-11.8774
rico	-11.8782
cre	-11.8784
▁smartphones	-11.8786
▁Cá	-11.879
iana	-11.8793
▁sino	-11.8795
senhei	-11.8795
▁Indo	-11.8802
▁Hu	-11.8803
▁honestos	-11.8805
curso	-11.8806
violência	-11.8809
▁Ho	-11.8811
▁urbanizaç	-11.8814
deus	-11.8814
▁articula	-11.8818
▁caber	-11.882
prazo	-11.8821
andado	-11.8823
▁fluorescente	-11.8823
▁lacunas	-11.8823
▁otimista	-11.8824
▁coc	-11.8825
▁Cap	-11.8827
▁atleta	-11.8827
▁pass	-11.883
▁galeria	-11.8831
▁pequenina	-11.8831
▁suja	-11.8834
▁indígena	-11.8838
▁aceita	-11.8839
▁religioso	-11.8843
▁empresário	-11.8844
▁escondida	-11.8846
▁tonelada	-11.8851
▁quilómetro	-11.8852
▁colocada	-11.8856
▁entusiasma	-11.8858
teção	-11.8858
▁treme	-11.8859
vendo	-11.8863
▁pu	-11.8865
▁testemunh	-11.8865
cional	-11.8875
guei	-11.8877
arlamento	-11.8878
▁Cara	-11.8878
▁espantosas	-11.888
▁entrarem	-11.8886
tur	-11.8894
▁avaliado	-11.8904
▁caminha	-11.8913
▁ator	-11.8913
fica	-11.8916
▁passá	-11.8917
▁dur	-11.8919
▁Trabalham	-11.8923
0,000	-11.8925
▁explodi	-11.8927
▁papa	-11.8927
▁argumentar	-11.8929
▁bla	-11.893
▁movimentar	-11.8931
▁davam	-11.8943
NT	-11.895
▁concord	-11.8954
▁resolv	-11.8954
▁aero	-11.8955
▁pertencer	-11.896
▁acredite	-11.8962
ior	-11.8964
▁conquistas	-11.9007
conheceu	-11.9012
▁negativos	-11.9013
▁enche	-11.9013
▁acolhi	-11.9014
pta	-11.9017
umentada	-11.9018
▁Dou	-11.9019
▁historia	-11.9022
ph	-11.9027
▁Cre	-11.9034
mera	-11.9035
▁evoca	-11.9037
▁mera	-11.9041
pende	-11.9041
▁rápidas	-11.9042
ring	-11.9048
idas	-11.9051
▁promo	-11.9064
▁realizador	-11.9072
tato	-11.9075
izado	-11.9076
▁encantado	-11.9077
▁cristal	-11.9078
▁avanç	-11.9085
loc	-11.9087
▁ganh	-11.9097
▁legisla	-11.9098
lho	-11.9103
▁manhãs	-11.9105
nne	-11.9109
▁vol	-11.9121
spir	-11.9124
▁maiorit	-11.9126
izou	-11.9138
▁reduz	-11.9138
▁psico	-11.9146
struiu	-11.9149
▁Medi	-11.9151
▁diminu	-11.9155
▁nalgum	-11.9156
▁misturado	-11.9156
▁monitor	-11.9159
▁vencedor	-11.9159
▁falecid	-11.9161
ant	-11.9163
▁reciclado	-11.9172
▁orientar	-11.9174
▁ventila	-11.9175
ícia	-11.9176
▁Públic	-11.9178
▁implementa	-11.9179
▁magn	-11.9181
▁explos	-11.9183
▁Pensam	-11.9187
▁demonstr	-11.919
▁ang	-11.9191
bit	-11.9192
▁ingles	-11.9196
▁Pin	-11.9197
▁Seis	-11.92
▁ave	-11.9205
▁visualizaç	-11.9206
▁contribu	-11.9206
▁refrigera	-11.9207
▁Sala	-11.9208
▁soubesse	-11.9208
ombros	-11.921
▁forno	-11.921
▁aliena	-11.921
▁compará	-11.921
▁fertiliza	-11.9215
▁maio	-11.9217
▁Charl	-11.9217
▁mono	-11.9218
▁directa	-11.9218
heguei	-11.922
fer	-11.9222
ile	-11.9222
▁secundários	-11.9224
▁blog	-11.9226
confiança	-11.9226
▁confort	-11.9227
▁leito	-11.9227
▁envio	-11.9227
▁diminuí	-11.9228
aqui	-11.923
chu	-11.9233
ridge	-11.9233
▁mostro	-11.9236
▁atribui	-11.9238
▁fóru	-11.9238
irtual	-11.9239
greja	-11.9239
▁píxe	-11.9239
uiné	-11.9239
▁Accenture	-11.9239
▁Android	-11.9239
▁Sarajevo	-11.9239
▁acidental	-11.9239
▁aminoácidos	-11.9239
▁ancestrais	-11.9239
▁autêntica	-11.9239
▁benéfico	-11.9239
▁calendário	-11.9239
▁carpinteiro	-11.9239
▁cogumelo	-11.9239
▁dramático	-11.9239
▁esculpi	-11.9239
▁esponja	-11.9239
▁feroz	-11.9239
▁humildade	-11.9239
▁hóspede	-11.9239
▁iPad	-11.9239
▁imperativo	-11.9239
▁imunitária	-11.9239
▁influente	-11.9239
▁líquida	-11.9239
▁marinheiro	-11.9239
▁miseric	-11.9239
▁neurologista	-11.9239
▁sintética	-11.9239
▁tablet	-11.9239
▁vitamina	-11.9239
▁voluntária	-11.9239
▁vulnerabilidade	-11.9239
▁comunitária	-11.9239
▁inconveniente	-11.9239
▁intensivo	-11.9239
ácte	-11.9239
▁íntima	-11.9239
▁despesa	-11.9239
▁pizza	-11.9239
▁bronze	-11.9239
▁correlação	-11.9239
▁deliciosa	-11.9239
▁garante	-11.9239
▁péssimo	-11.9239
▁baralho	-11.9239
▁geometria	-11.9239
▁pistola	-11.9239
▁golpe	-11.9239
▁scanner	-11.9239
▁Segui	-11.9239
▁correspondência	-11.9239
▁visíveis	-11.9239
▁vagina	-11.9239
▁fotões	-11.9239
▁guerreiro	-11.9239
▁traseira	-11.9239
▁roedor	-11.9239
▁fotográfica	-11.9239
▁titã	-11.9239
▁domingo	-11.9239
▁Princeton	-11.9239
▁ocorrido	-11.9239
▁patologia	-11.9239
▁obtido	-11.9239
▁magnética	-11.9239
gipto	-11.9239
▁evolutiva	-11.9239
▁deparei	-11.9239
▁comprei	-11.9239
▁arqueólog	-11.9239
▁etnia	-11.9239
▁populacional	-11.9239
▁sentença	-11.924
▁confrontar	-11.924
▁dentista	-11.924
rizon	-11.924
▁Design	-11.924
▁confiam	-11.924
shirt	-11.924
▁impressionou	-11.924
▁encerra	-11.924
▁duna	-11.924
▁Orle	-11.924
▁distinto	-11.924
▁acalmar	-11.924
▁roc	-11.924
thur	-11.924
▁replicar	-11.924
▁diamante	-11.924
▁Bush	-11.924
▁recrutamento	-11.9241
▁Soviética	-11.9241
▁Desenvolvimento	-11.9241
▁cristão	-11.9241
▁memoriz	-11.9241
▁aborrecida	-11.9241
▁picar	-11.9242
▁ramificações	-11.9242
tzman	-11.9242
▁Constituição	-11.9242
▁comprá	-11.9242
▁recolhido	-11.9242
▁garantido	-11.9243
▁laranja	-11.9243
▁fenomenal	-11.9243
▁incómodo	-11.9243
minente	-11.9243
▁excedente	-11.9244
▁mandato	-11.9244
▁destinado	-11.9244
▁levava	-11.9244
▁martel	-11.9245
▁sócio	-11.9245
▁camisa	-11.9245
▁infantis	-11.9246
▁ajustar	-11.9246
▁homossexual	-11.9246
▁frustrante	-11.9247
espear	-11.9247
▁ceder	-11.9248
▁Verde	-11.9248
▁codificador	-11.9248
▁prejudicar	-11.9248
▁criptografi	-11.9248
▁observei	-11.9249
▁fornecedores	-11.9249
▁moldar	-11.925
▁prometeu	-11.925
▁mensal	-11.9251
▁Filip	-11.9251
▁levantem	-11.9252
▁piano	-11.9254
▁concebemos	-11.9254
▁Amor	-11.9254
▁exclusivamente	-11.9256
▁frustração	-11.9256
▁confiamos	-11.9257
▁tornava	-11.9259
▁generalizada	-11.9259
▁invenções	-11.9259
▁ritual	-11.926
RS	-11.9261
▁sín	-11.9261
▁palpite	-11.9262
▁roubado	-11.9262
▁terapeuta	-11.9264
▁cabana	-11.9264
▁composta	-11.9264
▁farto	-11.9264
▁mostrámos	-11.9265
▁inscrever	-11.9266
▁Public	-11.9266
▁danificada	-11.9266
▁imortal	-11.9266
▁crie	-11.9267
▁anunciado	-11.9267
▁controlada	-11.9268
▁mutante	-11.9268
▁eliminado	-11.9269
▁inspirada	-11.9269
▁revelações	-11.927
ocol	-11.9271
▁Prim	-11.9272
▁regressou	-11.9272
▁informal	-11.9273
▁doar	-11.9275
▁apanhada	-11.9277
▁identificado	-11.9279
▁simular	-11.9279
▁soubessem	-11.928
▁potenciar	-11.928
▁algodão	-11.9281
ami	-11.9281
▁vago	-11.9281
▁doido	-11.9282
cup	-11.9287
▁selecç	-11.9287
▁funera	-11.9287
▁crista	-11.929
▁apresentada	-11.9291
▁puniç	-11.9292
▁esmagadora	-11.9292
▁State	-11.9292
▁aceitamos	-11.9292
▁Mur	-11.9293
▁qualidades	-11.9293
▁plena	-11.9293
▁credíve	-11.9294
▁encaixe	-11.9294
ind	-11.9298
grade	-11.9298
▁importava	-11.9299
▁devastadora	-11.9299
▁invoca	-11.9301
▁levem	-11.9302
▁agressiva	-11.9303
▁Sho	-11.9304
▁urina	-11.9304
▁reden	-11.9305
▁poluente	-11.9306
▁descodificar	-11.9306
▁interligada	-11.9306
▁entrevistar	-11.9309
▁traumática	-11.931
▁operadora	-11.9311
▁exist	-11.9312
bel	-11.9313
▁incert	-11.9314
▁amada	-11.9316
▁achá	-11.9317
▁recomendo	-11.9318
▁aglomerado	-11.9318
▁manobra	-11.9318
▁gu	-11.9319
▁Apar	-11.932
▁falhado	-11.9321
▁redonda	-11.9323
▁apoiado	-11.9324
▁atraído	-11.9327
▁instalado	-11.9329
▁apagar	-11.9329
▁Peg	-11.933
lóri	-11.933
▁bota	-11.933
▁Tentá	-11.9331
▁mon	-11.9332
▁extremos	-11.9335
▁Médico	-11.9335
▁atómica	-11.935
▁demoram	-11.9351
▁permitiram	-11.9351
▁localizada	-11.9352
▁requerer	-11.9352
▁individualmente	-11.9353
▁alcançá	-11.9353
▁despertar	-11.9354
▁abriram	-11.9356
▁juntarem	-11.9357
usa	-11.9358
▁vislumbre	-11.9359
rough	-11.9363
oc	-11.9365
Cash	-11.9368
▁Passo	-11.937
▁aumentado	-11.9373
▁implante	-11.9378
▁quintas	-11.9381
ér	-11.9389
▁guardado	-11.939
▁fá	-11.9391
▁Biologi	-11.9393
▁inspiradora	-11.9396
▁assento	-11.9397
lab	-11.9398
▁Turqu	-11.94
▁extremistas	-11.9403
ricat	-11.9408
▁criminaliza	-11.941
▁programados	-11.9413
▁atira	-11.9414
▁assustar	-11.9421
nvolvente	-11.9427
prima	-11.943
▁Mad	-11.9431
ola	-11.9433
▁reunimos	-11.9437
▁Ministro	-11.9439
▁viverem	-11.9439
evou	-11.9439
▁obterem	-11.944
▁cali	-11.9441
tim	-11.9441
▁tit	-11.9442
▁eros	-11.9442
▁tenda	-11.9443
logicamente	-11.9444
ério	-11.9445
▁perigos	-11.9447
▁gastam	-11.9449
▁concretizar	-11.9453
micos	-11.9453
▁Ande	-11.9456
▁uni	-11.9461
arch	-11.9464
▁agi	-11.9465
▁largar	-11.9472
▁espetador	-11.9474
▁preven	-11.9476
▁praias	-11.9482
▁exigi	-11.9484
ilha	-11.9486
▁compor	-11.9493
▁manda	-11.9499
▁dorme	-11.95
▁encontrada	-11.9502
▁aprofunda	-11.9511
▁acende	-11.9522
▁rejeitar	-11.953
▁levarem	-11.9533
▁ficasse	-11.9533
▁marco	-11.9534
▁narrador	-11.9547
▁ligarem	-11.955
▁respeitar	-11.9552
erdão	-11.9554
▁admirado	-11.9569
elo	-11.9571
▁moram	-11.9571
▁demónio	-11.9572
▁movimenta	-11.9573
▁aprova	-11.9577
uz	-11.958
▁Deu	-11.9592
▁Pre	-11.9597
▁propenso	-11.9598
▁ju	-11.9599
▁saía	-11.9602
etas	-11.9602
erne	-11.9607
▁RN	-11.9613
cionar	-11.9614
▁Ven	-11.9615
▁voam	-11.9616
ngelo	-11.9624
▁emergir	-11.9626
▁faltava	-11.963
▁retiramo	-11.9635
ntem	-11.9635
▁interessadas	-11.9637
▁mantenham	-11.9648
▁reagi	-11.9654
▁acusa	-11.9659
ance	-11.9674
percebi	-11.9678
▁Sher	-11.968
▁colabor	-11.9692
▁experienciar	-11.9693
▁violentos	-11.9701
ibilidade	-11.9712
▁entendia	-11.9721
ng	-11.9722
inhos	-11.9725
primas	-11.9729
itar	-11.9733
▁descrevemo	-11.9736
▁ditado	-11.9736
ald	-11.9745
▁vinga	-11.9746
▁exp	-11.9748
▁desencade	-11.9749
esta	-11.9751
▁arranha	-11.9752
av	-11.9773
drena	-11.9774
ssola	-11.9778
▁Adora	-11.9781
▁urbanas	-11.9783
edade	-11.9794
excremento	-11.9802
▁mete	-11.9811
▁donos	-11.9812
▁alega	-11.9813
▁misteriosa	-11.9817
▁primário	-11.9824
▁tribos	-11.9825
▁Floren	-11.9826
▁diagnosticado	-11.9828
▁julga	-11.9831
▁acender	-11.9833
▁grego	-11.9833
▁frac	-11.9834
▁insul	-11.9837
umentando	-11.9837
vinda	-11.9838
▁procur	-11.9839
ustin	-11.9842
▁astronauta	-11.9844
plicações	-11.9844
▁seguimo	-11.9845
▁transcri	-11.9845
▁morcego	-11.9847
▁inseto	-11.9848
▁voluntário	-11.9849
▁refugiado	-11.9858
estrada	-11.9859
▁interessada	-11.9859
▁Port	-11.9861
▁propens	-11.9862
▁frequências	-11.9865
hia	-11.9865
pé	-11.9867
lec	-11.9873
▁sobrevivente	-11.9876
▁sentimo	-11.988
▁tratam	-11.9888
▁gere	-11.9891
reta	-11.9898
ov	-11.9903
▁consideram	-11.9903
▁flu	-11.991
lica	-11.9915
▁Venha	-11.9917
▁concretiza	-11.9925
▁castig	-11.9932
▁narra	-11.9932
▁pendura	-11.9939
▁governado	-11.9942
▁pesquisas	-11.9944
▁experimenta	-11.9945
▁permitia	-11.9947
▁Pri	-11.9949
▁suponh	-11.9953
▁luto	-11.9953
ist	-11.9954
▁carrega	-11.9955
▁generoso	-11.9959
▁gostem	-11.996
▁reflecti	-11.9961
▁encolhe	-11.9962
end	-11.9962
sol	-11.9963
mbo	-11.9965
▁erguer	-11.9976
vend	-11.9978
mões	-11.9978
▁voltaria	-11.9979
pressa	-11.9984
▁operado	-11.9987
▁associar	-11.9993
▁inc	-11.9997
oh	-11.9998
▁medido	-12.0002
uel	-12.0006
▁prega	-12.0009
▁minimiza	-12.0014
pot	-12.0014
ign	-12.0015
▁cheira	-12.0016
zinho	-12.0017
▁ferr	-12.0017
je	-12.0018
▁Su	-12.0019
▁Observe	-12.0022
▁contado	-12.0024
▁acústic	-12.0026
▁ajudem	-12.0029
▁avaliam	-12.0029
▁procure	-12.0032
▁gan	-12.0034
▁alimentam	-12.0035
carregar	-12.0035
ística	-12.0042
reca	-12.0044
▁Cas	-12.0051
▁arranca	-12.0055
▁passe	-12.0057
ini	-12.0057
▁desempenha	-12.0063
tados	-12.0063
▁escapa	-12.0066
▁descem	-12.0067
▁promete	-12.0068
▁tip	-12.0069
▁acabava	-12.008
▁tomado	-12.0081
▁angari	-12.0084
▁intra	-12.0096
▁surpreende	-12.01
▁regenera	-12.0107
▁tomarem	-12.0108
ótica	-12.012
▁despedid	-12.0123
▁repor	-12.0125
▁Ano	-12.0125
tivas	-12.0126
itt	-12.0127
▁Continu	-12.0127
▁observador	-12.0129
▁particip	-12.013
▁procurava	-12.013
▁pinta	-12.0133
▁constitu	-12.0139
▁Rebe	-12.0143
▁use	-12.0152
▁Digam	-12.0159
▁racional	-12.0165
▁exponencia	-12.0166
▁Bio	-12.0168
cunha	-12.0169
ren	-12.0174
▁sintetiza	-12.0175
▁síri	-12.0178
▁Mich	-12.0183
▁estabiliza	-12.0184
▁general	-12.0188
▁passageiro	-12.0197
▁protetor	-12.0199
▁Tee	-12.02
oeste	-12.02
▁subterr	-12.0201
▁devesse	-12.0201
aticamente	-12.0201
▁permita	-12.0205
▁Pra	-12.0205
▁perfei	-12.0207
rand	-12.0208
▁North	-12.0209
▁apercebem	-12.0209
ixar	-12.0209
▁reforçar	-12.0211
▁prende	-12.0214
▁aptid	-12.0215
▁imaginam	-12.0216
anus	-12.0216
▁escolheria	-12.0217
,1	-12.0218
▁Refi	-12.0223
▁Roc	-12.0223
▁sensibiliza	-12.0228
▁coloco	-12.0229
▁embar	-12.0229
▁espanto	-12.023
▁urbanis	-12.0235
versa	-12.0236
▁alivia	-12.0237
▁feminis	-12.0238
▁embalage	-12.0238
▁fluoresc	-12.0239
eogra	-12.0239
strume	-12.0239
légio	-12.0239
íbano	-12.0239
▁Audiência	-12.0239
▁Rachel	-12.0239
▁Tribun	-12.0239
▁académica	-12.0239
▁alarmante	-12.0239
▁anomalia	-12.0239
▁atribuída	-12.0239
▁brasileiro	-12.0239
▁clássica	-12.0239
▁dispendioso	-12.0239
▁distingue	-12.0239
▁enraizada	-12.0239
▁enxaqueca	-12.0239
▁esboço	-12.0239
▁estrangeira	-12.0239
▁fabuloso	-12.0239
▁faísca	-12.0239
▁fiscais	-12.0239
▁formidáve	-12.0239
▁gaveta	-12.0239
▁genérico	-12.0239
▁gravitacionais	-12.0239
▁hectare	-12.0239
▁iPod	-12.0239
▁impotente	-12.0239
▁infeciosa	-12.0239
▁intacto	-12.0239
▁mamute	-12.0239
▁metodologia	-12.0239
▁monumento	-12.0239
▁obcecada	-12.0239
▁obsoleto	-12.0239
▁quimioterapia	-12.0239
▁rasteja	-12.0239
▁rejeiç	-12.0239
▁ridiculariza	-12.0239
▁visitei	-12.0239
▁Titan	-12.0239
▁cancerígenas	-12.0239
▁carruage	-12.0239
▁desportivo	-12.0239
▁duradoura	-12.0239
▁envelope	-12.0239
▁esparg	-12.0239
▁geográfica	-12.0239
▁remessa	-12.0239
▁retrospe	-12.0239
▁sueco	-12.0239
▁Hospita	-12.0239
▁bancária	-12.0239
▁instintiva	-12.0239
▁introspe	-12.0239
▁sensata	-12.0239
celulo	-12.0239
▁modesto	-12.0239
▁tampa	-12.0239
▁Rapaz	-12.0239
▁Stuxne	-12.0239
▁horrorizada	-12.0239
▁pontinho	-12.0239
▁maquina	-12.0239
▁característico	-12.0239
▁depósito	-12.0239
▁melodia	-12.0239
▁adormece	-12.0239
▁coreano	-12.0239
▁exagero	-12.0239
▁Natural	-12.0239
▁desculpem	-12.0239
▁converg	-12.0239
▁rigoroso	-12.0239
▁crocodilo	-12.0239
▁predominante	-12.0239
▁bancário	-12.0239
▁legenda	-12.0239
▁solitária	-12.0239
▁Sistema	-12.0239
▁substancial	-12.0239
▁repito	-12.0239
▁retalho	-12.0239
▁violino	-12.0239
▁comediante	-12.0239
▁nerd	-12.0239
▁miúda	-12.0239
▁rolar	-12.0239
▁pilares	-12.0239
▁conveniente	-12.0239
▁estética	-12.0239
▁barbeiro	-12.0239
▁girafa	-12.0239
mínio	-12.0239
▁modula	-12.0239
▁turista	-12.0239
▁Victor	-12.0239
▁lápi	-12.0239
érsia	-12.0239
▁Roger	-12.024
▁ciclista	-12.024
▁porreiro	-12.024
▁relev	-12.024
óide	-12.024
▁Micro	-12.024
▁quadrada	-12.024
▁cabina	-12.024
íbli	-12.024
▁jato	-12.024
▁trivial	-12.024
▁apicultor	-12.024
▁protestar	-12.024
▁Reserv	-12.024
▁manada	-12.024
▁válido	-12.024
▁aplaudir	-12.024
▁rebentar	-12.024
▁bancada	-12.024
▁descendente	-12.024
▁elaborada	-12.0241
▁Insta	-12.0241
haga	-12.0241
▁digna	-12.0241
▁Bu	-12.0241
atidão	-12.0241
▁disfunciona	-12.0241
▁Donna	-12.0241
imbabu	-12.0241
▁pigmenta	-12.0241
▁contactar	-12.0241
▁alucinações	-12.0241
▁aluna	-12.0241
▁Coisa	-12.0241
▁parafuso	-12.0242
▁barro	-12.0242
▁reduzindo	-12.0242
▁perdão	-12.0242
▁sugestão	-12.0242
▁picada	-12.0242
▁reconhecido	-12.0242
▁regulamento	-12.0242
▁Costumava	-12.0242
▁genial	-12.0243
▁memorizar	-12.0243
adora	-12.0243
▁treta	-12.0243
▁morada	-12.0243
▁calc	-12.0243
▁punho	-12.0243
▁almofada	-12.0244
▁Ensino	-12.0244
▁latina	-12.0244
▁tambor	-12.0244
osfera	-12.0245
▁papaia	-12.0245
▁salientar	-12.0245
▁cabra	-12.0246
▁fecho	-12.0246
▁excecional	-12.0248
▁tangível	-12.0248
▁simplificar	-12.0248
▁Raz	-12.0248
▁Visua	-12.0249
▁funcionalidade	-12.0249
▁BB	-12.0249
▁livraria	-12.0249
▁Abri	-12.0249
jor	-12.025
▁Deah	-12.025
▁Ficou	-12.025
▁irracional	-12.0251
nsações	-12.0251
▁zoom	-12.0252
▁restrita	-12.0252
▁calma	-12.0252
▁Olhei	-12.0252
▁pêlo	-12.0252
▁cerco	-12.0254
▁conduziu	-12.0254
▁filtrar	-12.0254
▁consultor	-12.0255
▁Cabe	-12.0255
▁superficial	-12.0255
▁japonesa	-12.0255
▁Cat	-12.0255
teís	-12.0256
▁bloqueia	-12.0256
▁arriscada	-12.0257
▁implementado	-12.0257
▁inverter	-12.0257
▁esforçar	-12.0258
▁esquecido	-12.0258
▁Harle	-12.0259
▁envolvendo	-12.0259
▁aprendam	-12.026
▁Peer	-12.026
▁pertença	-12.026
▁transmitido	-12.026
▁diplomata	-12.0261
▁atribuir	-12.0262
▁competente	-12.0264
▁explicações	-12.0264
▁comprometido	-12.0266
▁pata	-12.0266
▁ardente	-12.0266
▁Cooper	-12.0266
▁zonamento	-12.0267
▁dica	-12.0267
▁citações	-12.0267
▁inventada	-12.0267
▁qualificado	-12.0268
▁animada	-12.0268
▁coer	-12.0269
▁colocando	-12.0269
▁vivida	-12.0269
▁bambo	-12.0269
▁combinam	-12.0271
▁envelhecemos	-12.0272
▁retirada	-12.0273
▁Reparei	-12.0273
▁combinações	-12.0273
▁Ted	-12.0274
his	-12.0274
▁saia	-12.0274
▁patr	-12.0274
▁obrigar	-12.0274
▁interligar	-12.0275
▁Envolve	-12.0276
▁agregado	-12.0278
▁Minha	-12.0278
▁permiti	-12.0278
morei	-12.0278
fundei	-12.0279
firmou	-12.028
▁danifica	-12.0281
▁transferido	-12.0281
▁inversa	-12.0282
▁valia	-12.0282
▁reproduz	-12.0283
ên	-12.0283
▁inundado	-12.0284
▁convenciona	-12.0284
vaz	-12.0284
▁emitir	-12.0288
▁alimentada	-12.0288
▁agarrado	-12.0289
▁bato	-12.0289
▁estabelecida	-12.0289
▁necessitam	-12.029
▁flutuação	-12.029
▁dirá	-12.0293
▁moleculares	-12.0293
▁obscuro	-12.0293
▁modificado	-12.0295
▁roubada	-12.0296
▁encosta	-12.0297
▁St	-12.0298
▁pomo	-12.03
ibera	-12.03
▁insulto	-12.03
▁amarra	-12.0301
▁embri	-12.0302
▁exacto	-12.0304
grado	-12.0305
▁dirigida	-12.0307
▁Pública	-12.0307
▁capacita	-12.0307
▁cortaram	-12.031
▁entendam	-12.0312
▁ridícula	-12.0313
brisa	-12.0314
ufas	-12.0319
▁perturbador	-12.032
obra	-12.032
▁aluguer	-12.0322
▁Ph	-12.0322
▁aceitaram	-12.0324
▁transformadora	-12.0325
▁enquadra	-12.0328
▁Marco	-12.033
dson	-12.033
batido	-12.0332
▁lidamos	-12.0332
▁necessitamos	-12.0333
▁excel	-12.0334
▁tolo	-12.0337
▁bolsos	-12.0337
▁ida	-12.0339
▁bloquei	-12.0344
pil	-12.0348
▁capt	-12.0352
cats	-12.0353
tica	-12.0353
▁costuma	-12.0353
▁suín	-12.0353
▁Hama	-12.0356
▁falaram	-12.0357
▁Adicion	-12.0359
▁compulsiv	-12.0362
▁irre	-12.0364
▁enviaram	-12.0365
▁Pap	-12.0372
▁magoa	-12.0374
▁guardada	-12.0375
▁gozar	-12.0375
▁desperdícios	-12.0381
▁interrompe	-12.0383
▁Roo	-12.0384
ntrámos	-12.0388
▁duvida	-12.0391
▁atua	-12.0392
▁Novo	-12.0392
▁informados	-12.0393
▁Dis	-12.0398
▁materna	-12.0398
anical	-12.0402
▁recrutar	-12.0402
▁admiráve	-12.0405
▁Fazia	-12.0406
▁chor	-12.0413
▁reclama	-12.0421
preender	-12.0424
▁Deveria	-12.0425
▁electrónico	-12.0425
▁erradicar	-12.0426
▁Voltemo	-12.0429
▁democracias	-12.0431
▁Domingos	-12.0437
▁Federa	-12.0438
▁unido	-12.0441
anhar	-12.0442
▁Elv	-12.0444
▁morador	-12.045
▁hip	-12.0462
estruturas	-12.0465
▁Han	-12.0468
▁distribui	-12.0468
▁namorado	-12.0469
▁calcul	-12.0469
▁escreveram	-12.0471
▁Tratava	-12.0472
▁serra	-12.0477
▁abria	-12.0481
▁mangas	-12.0482
▁florescer	-12.0482
▁hi	-12.0484
▁admiti	-12.0493
imi	-12.0498
eva	-12.0498
▁perseguido	-12.0505
▁acrescent	-12.0511
▁elevadas	-12.0518
▁Fund	-12.0519
▁tocava	-12.0521
Sac	-12.0524
▁reformula	-12.0524
▁Int	-12.0528
▁portal	-12.0535
▁respondem	-12.0536
gia	-12.0536
▁Amb	-12.0537
bri	-12.0539
▁investigadora	-12.0543
▁gui	-12.0544
▁dominado	-12.0545
ilar	-12.0558
▁conheçam	-12.0558
dis	-12.0559
▁vitr	-12.0566
▁condutora	-12.057
▁recordo	-12.057
▁programada	-12.058
▁mostrada	-12.0582
▁abrimo	-12.0584
▁Percebem	-12.0585
▁Berl	-12.0587
arismo	-12.059
▁leg	-12.0594
▁fluir	-12.0596
▁Perguntem	-12.0599
tórias	-12.06
▁caracteriza	-12.0602
▁Home	-12.0608
ped	-12.0612
▁molde	-12.0615
igan	-12.062
▁anca	-12.0621
▁marcador	-12.0621
adiante	-12.0622
▁Carlo	-12.0622
▁alter	-12.0623
▁mur	-12.0643
▁infiltra	-12.0646
▁gregos	-12.0662
▁viajam	-12.0664
deste	-12.0668
pont	-12.0676
▁estrat	-12.0682
▁avi	-12.0712
iano	-12.0713
▁bu	-12.0713
▁Volta	-12.0717
▁rep	-12.0718
▁alg	-12.0718
▁observ	-12.0722
EA	-12.0723
▁administrar	-12.0734
venda	-12.0737
▁lat	-12.0739
inger	-12.0748
▁animados	-12.0754
▁arquivos	-12.0755
▁Cho	-12.0763
pacto	-12.077
▁indu	-12.0772
▁copia	-12.0774
activ	-12.0788
▁joga	-12.0789
▁conservador	-12.0797
ón	-12.0797
▁Pedir	-12.0801
▁Mala	-12.0802
▁arruma	-12.0808
▁aud	-12.0808
roso	-12.0809
▁Chu	-12.0811
hi	-12.0829
vida	-12.0831
▁instal	-12.0834
▁libertam	-12.0837
▁pescador	-12.084
▁Ru	-12.0844
▁suporta	-12.0844
▁Sen	-12.0856
▁Dal	-12.0857
RN	-12.086
▁esconde	-12.0862
egon	-12.0867
▁agradáve	-12.0871
▁remix	-12.0872
Q	-12.0874
arl	-12.0879
união	-12.0879
ixo	-12.0885
▁digest	-12.0886
pera	-12.0892
▁humanitários	-12.0892
▁desliza	-12.0894
fobia	-12.0895
bed	-12.0897
-1	-12.0897
▁Desenh	-12.0898
▁forçada	-12.09
NA	-12.0903
logia	-12.0905
nascido	-12.0911
elite	-12.0911
escolar	-12.0911
▁transportam	-12.0917
campo	-12.092
obs	-12.0924
célula	-12.0927
ces	-12.0929
▁vo	-12.0933
ven	-12.0935
entos	-12.0937
▁cemitério	-12.0939
▁fatia	-12.0942
lah	-12.0942
▁documenta	-12.0945
metros	-12.0949
▁Mostr	-12.0954
▁Van	-12.0955
▁empréstimo	-12.0956
▁confiáve	-12.0958
▁disposto	-12.0959
▁clínico	-12.0959
▁tripl	-12.0962
▁cêntimo	-12.0962
ativos	-12.0968
▁idoso	-12.0973
▁admit	-12.0975
▁relacionam	-12.0975
ugu	-12.0976
▁detri	-12.0978
▁extraterrestre	-12.0978
▁Freu	-12.098
▁Ficar	-12.0981
▁delega	-12.0982
▁realizado	-12.0982
cidades	-12.0993
▁acontecera	-12.0994
▁desat	-12.1009
▁pesquis	-12.1012
gras	-12.1014
▁alinha	-12.1014
▁descol	-12.1015
▁testámo	-12.1018
▁reparam	-12.1018
▁concentra	-12.102
▁Olhe	-12.1021
▁quererem	-12.1021
▁impress	-12.1028
▁But	-12.1038
▁duplica	-12.1039
▁sondage	-12.104
▁semi	-12.1041
llo	-12.1041
Car	-12.1044
▁assenta	-12.1044
▁improvisa	-12.1045
▁desafia	-12.1048
▁experiencia	-12.105
▁Arg	-12.1052
▁dividi	-12.1052
▁recebia	-12.1055
cóci	-12.1056
▁Shar	-12.106
▁ganharem	-12.106
▁Mei	-12.1065
▁evolu	-12.1066
▁recria	-12.1067
▁completar	-12.1067
int	-12.1079
▁domin	-12.108
umi	-12.1084
▁Post	-12.109
▁foguet	-12.1091
leitores	-12.1101
▁Marc	-12.1106
dotado	-12.1112
▁ameaçar	-12.112
▁Coloca	-12.1122
▁candidata	-12.1125
▁decorre	-12.1125
▁formula	-12.1127
▁tortura	-12.1133
▁desprez	-12.1138
▁acreditarem	-12.1144
itu	-12.1145
volução	-12.1158
▁barcos	-12.116
▁administraç	-12.1164
▁apontam	-12.1166
▁internos	-12.1167
▁electrónic	-12.1172
▁tornamo	-12.1173
▁abusos	-12.1175
▁salvado	-12.1188
▁modern	-12.1193
▁embaixador	-12.1193
gri	-12.1198
▁Algum	-12.12
moinho	-12.1203
▁pense	-12.1207
▁profund	-12.1207
gência	-12.1212
▁val	-12.1212
▁voa	-12.1218
▁levámo	-12.1219
▁transmiti	-12.122
▁bó	-12.1235
antes	-12.1235
▁adv	-12.1241
▁higien	-12.1242
rava	-12.1244
▁estrangeiros	-12.1254
▁Cur	-12.1258
ife	-12.1262
▁reconheç	-12.1266
▁executa	-12.1267
▁cortado	-12.1269
▁interfaces	-12.1272
▁turmas	-12.1272
▁contribuí	-12.1278
▁aquece	-12.1279
énia	-12.1281
▁frustra	-12.1282
▁explorado	-12.1284
▁Ric	-12.1284
ilhagem	-12.1285
▁ilus	-12.1288
▁comido	-12.1299
rito	-12.1301
áculo	-12.1307
▁universa	-12.1307
jeito	-12.131
ani	-12.1313
ín	-12.1315
▁adivinh	-12.1315
▁repete	-12.1316
▁otimiza	-12.1321
stoc	-12.1321
▁caix	-12.1321
ason	-12.1322
▁incomoda	-12.1323
egas	-12.1323
▁lembrava	-12.1324
▁distancia	-12.1328
▁Padr	-12.1328
▁quad	-12.1332
▁pormenor	-12.1335
▁abandono	-12.1337
▁impossíve	-12.1338
▁enviamo	-12.1338
▁úte	-12.1339
▁Pegue	-12.1341
ubble	-12.1342
▁imagi	-12.1342
▁fasc	-12.1343
▁infla	-12.1344
▁Fico	-12.1344
▁telefonar	-12.1344
▁estudamo	-12.1345
▁expor	-12.1348
rill	-12.1348
untamente	-12.1349
conveniência	-12.1349
▁lucra	-12.1349
▁horror	-12.1349
▁propuls	-12.135
nglês	-12.135
▁bilhete	-12.135
▁Esqueci	-12.135
▁Maravilha	-12.135
▁holand	-12.135
overno	-12.135
telecomunicações	-12.135
▁Aeroporto	-12.135
▁Beatbox	-12.135
▁Brancotopia	-12.135
▁Cameron	-12.135
▁Cidadão	-12.135
▁Especial	-12.135
▁Fantástic	-12.135
▁OPEP	-12.135
▁Permitam	-12.135
▁Photos	-12.135
▁ambiguidade	-12.135
▁amígdala	-12.135
▁apanhou	-12.135
▁borboleta	-12.135
▁circo	-12.135
▁cobarde	-12.135
▁consoante	-12.135
▁descansar	-12.135
▁dificil	-12.135
▁elástica	-12.135
▁empreendimento	-12.135
▁espécime	-12.135
▁estratégico	-12.135
▁exclusão	-12.135
▁explode	-12.135
▁fachada	-12.135
▁filosófico	-12.135
▁finito	-12.135
▁fósforo	-12.135
▁inaceitáve	-12.135
▁indiferente	-12.135
▁intacta	-12.135
▁intrínseca	-12.135
▁microscópico	-12.135
▁miniaturiza	-12.135
▁oftalmologista	-12.135
▁pacífica	-12.135
▁pastilha	-12.135
▁portugues	-12.135
▁prematura	-12.135
▁repleto	-12.135
▁rígida	-12.135
▁rótulo	-12.135
▁sanitário	-12.135
▁tartaruga	-12.135
▁tesouro	-12.135
▁tímida	-12.135
▁tímido	-12.135
▁visceral	-12.135
▁vácuo	-12.135
▁árbitro	-12.135
▁FBI	-12.135
▁Hiroshi	-12.135
▁Patric	-12.135
▁colisões	-12.135
▁cúbico	-12.135
▁microscópica	-12.135
▁partilhei	-12.135
▁Telescópio	-12.135
▁aéreo	-12.135
▁cósmica	-12.135
▁gafanhoto	-12.135
▁precursor	-12.135
iblioteca	-12.135
▁beijo	-12.135
▁pertencia	-12.135
efferson	-12.135
▁cenoura	-12.135
▁colaborativa	-12.135
▁detergente	-12.135
▁impensáve	-12.135
▁ultravioleta	-12.135
▁mapeamento	-12.135
▁psicossocia	-12.135
▁polegar	-12.135
▁íntimo	-12.135
▁suborno	-12.135
▁adjacente	-12.135
▁multicultura	-12.135
▁capacete	-12.135
▁Bear	-12.135
▁Isabel	-12.135
▁Connect	-12.135
▁miseráve	-12.135
▁centavo	-12.135
▁linguística	-12.135
▁moderada	-12.135
▁virtuoso	-12.135
▁carrinho	-12.135
▁adversário	-12.135
▁insegurança	-12.135
▁prejudicial	-12.135
▁cabine	-12.135
▁precauç	-12.135
▁gangue	-12.135
▁autoestima	-12.135
▁oiçam	-12.135
▁quieta	-12.135
▁soletra	-12.135
▁statu	-12.135
▁mantida	-12.135
▁praga	-12.135
▁matem	-12.135
▁Anima	-12.135
▁cessar	-12.135
▁partitura	-12.135
▁arsena	-12.135
▁temporária	-12.135
▁interativa	-12.1351
▁Ferm	-12.1351
▁latrina	-12.1351
▁imã	-12.1351
▁modalidade	-12.1351
▁espinha	-12.1351
▁ultima	-12.1351
▁movido	-12.1351
▁revolucionária	-12.1351
▁tarte	-12.1351
▁trili	-12.1351
▁purifica	-12.1351
▁imune	-12.1351
▁anua	-12.1351
▁mandou	-12.1351
▁infravermelh	-12.1351
▁signo	-12.1351
hite	-12.1351
▁balc	-12.1351
▁ciclovia	-12.1351
imburg	-12.1351
mografia	-12.1352
▁hostilidade	-12.1352
▁substituto	-12.1352
▁Metro	-12.1352
▁potente	-12.1352
▁poça	-12.1352
▁feto	-12.1352
▁pontapé	-12.1352
▁mandei	-12.1352
▁pomar	-12.1352
▁facial	-12.1352
▁pára	-12.1352
▁sujo	-12.1352
▁extinto	-12.1352
imunidade	-12.1352
▁mastiga	-12.1352
▁veado	-12.1353
▁simplista	-12.1353
▁levantei	-12.1353
▁Economia	-12.1353
▁freira	-12.1353
▁abstracta	-12.1353
▁juntei	-12.1353
▁bombista	-12.1353
▁recolhida	-12.1354
▁bimet	-12.1354
▁esclarecer	-12.1354
▁mantendo	-12.1354
▁repercuss	-12.1354
▁mecanic	-12.1354
▁reconciliaç	-12.1355
▁Passaram	-12.1355
▁inventámos	-12.1355
▁robótico	-12.1355
▁gerou	-12.1356
▁Israelita	-12.1356
▁consultoria	-12.1356
▁represento	-12.1356
▁autorizado	-12.1356
▁Stone	-12.1356
ulho	-12.1356
▁mantiveram	-12.1356
mediatamente	-12.1356
▁Pesquisa	-12.1357
▁ligou	-12.1357
▁ub	-12.1357
▁alterou	-12.1357
▁cintur	-12.1357
percebê	-12.1357
▁oferecida	-12.1358
▁Perguntou	-12.1359
ltima	-12.1359
▁sistemática	-12.1359
▁analista	-12.136
▁ensinamento	-12.136
▁garantida	-12.136
▁aterrorizado	-12.1361
▁desenrolar	-12.1361
▁sensoriais	-12.1362
▁entregou	-12.1362
▁perseguição	-12.1362
uíç	-12.1362
▁azeit	-12.1363
▁desfavorecid	-12.1363
▁arranjou	-12.1363
gelada	-12.1363
▁refleti	-12.1364
▁matá	-12.1365
▁Sobre	-12.1365
▁reivindica	-12.1367
▁rejeitado	-12.1367
▁Tune	-12.1367
▁Deli	-12.1367
▁derrubar	-12.1367
▁nomeada	-12.1368
▁dedicada	-12.1368
eah	-12.1369
usor	-12.1369
▁Noite	-12.137
▁multiplicar	-12.1371
▁faceta	-12.1372
▁libra	-12.1372
▁dominada	-12.1373
▁cientifica	-12.1374
▁substituída	-12.1374
▁calado	-12.1374
▁aprecia	-12.1374
▁gatinho	-12.1374
▁Chamaram	-12.1374
cél	-12.1375
▁linfático	-12.1375
▁generalizado	-12.1375
çamb	-12.1376
▁documentado	-12.1376
▁Ab	-12.1377
▁desconforto	-12.1377
▁competitiva	-12.1377
▁aproveitador	-12.1377
▁colorida	-12.1378
reg	-12.1378
▁desconfortáveis	-12.1378
▁acostumado	-12.1378
▁gerido	-12.1378
▁Brexit	-12.1381
▁primitiva	-12.1381
▁consequente	-12.1381
▁movia	-12.1382
▁assassinada	-12.1383
▁barulhento	-12.1383
▁corrupto	-12.1383
▁ignorante	-12.1384
▁métrica	-12.1384
▁planeia	-12.1385
venida	-12.1388
▁relvado	-12.1388
▁amado	-12.1389
▁incluído	-12.139
▁treinada	-12.139
▁Rua	-12.139
▁Aprende	-12.139
▁divino	-12.1391
▁amarrado	-12.1393
▁culpada	-12.1393
▁repetidamente	-12.1393
▁transmitida	-12.1395
▁reunido	-12.1395
▁Simon	-12.1395
▁acciona	-12.1395
▁adot	-12.1396
▁montada	-12.1397
▁enfrent	-12.1397
▁tente	-12.1399
▁apertar	-12.1401
▁operam	-12.1402
▁manifestação	-12.1403
▁queixar	-12.1405
▁cobrar	-12.1405
▁Vivi	-12.1405
▁vigor	-12.1405
▁levei	-12.1406
▁Torna	-12.1406
arz	-12.1406
▁tirado	-12.1406
▁oferecem	-12.1407
▁codificada	-12.141
▁parlamento	-12.1411
▁explorada	-12.1412
óru	-12.1412
▁amante	-12.1413
▁cruzada	-12.1415
▁abstrata	-12.1415
▁levantaram	-12.1416
▁Terá	-12.1417
cio	-12.1418
▁fic	-12.1419
▁debater	-12.142
genia	-12.142
▁Suponham	-12.1421
▁have	-12.1422
▁revelam	-12.1422
▁obedecer	-12.1422
ício	-12.1422
▁encantadora	-12.1423
almar	-12.1425
▁feridos	-12.1425
▁sincero	-12.1429
▁verbo	-12.1429
▁raciocina	-12.143
▁ventilado	-12.143
▁falharam	-12.143
▁vencedora	-12.1431
▁ativamente	-12.1431
▁explosivo	-12.1431
ndalo	-12.1432
▁subsarian	-12.1432
▁volto	-12.1432
▁integral	-12.1434
▁contei	-12.1434
▁El	-12.1435
▁inimagináve	-12.1435
▁agradeço	-12.1435
▁migrante	-12.1436
▁Mada	-12.1439
▁ocupada	-12.144
quez	-12.1443
▁aperceberam	-12.1443
▁Olímpico	-12.1447
▁armazenado	-12.1452
▁governante	-12.1453
▁nutritiv	-12.1453
▁conectado	-12.1455
▁Deste	-12.1456
▁estadia	-12.1462
▁Ce	-12.1465
right	-12.1465
▁especialidade	-12.1466
▁observámos	-12.1468
▁normalidade	-12.147
▁prest	-12.147
prime	-12.1473
▁combinada	-12.1477
▁realçar	-12.1478
▁regiona	-12.1478
▁baseiam	-12.148
▁digitalizar	-12.1482
▁coca	-12.1487
▁mergulhador	-12.1489
▁despeja	-12.149
▁alojamento	-12.149
▁proporcional	-12.1492
▁sugerem	-12.1494
▁adaptado	-12.1495
ague	-12.15
▁depositar	-12.1501
▁integrada	-12.1503
dico	-12.1503
▁carreiras	-12.1513
▁Repar	-12.1516
▁Colocamos	-12.1517
tões	-12.1518
▁transformaram	-12.1518
▁lembrarem	-12.1518
▁deficiente	-12.1519
▁confirmar	-12.1519
Fi	-12.152
omen	-12.152
tiliza	-12.1521
▁Civis	-12.1523
▁aquático	-12.1524
▁intermediários	-12.1524
▁escrevam	-12.1525
▁pague	-12.1526
dicação	-12.1526
▁compreensíve	-12.1527
▁visse	-12.1529
mida	-12.1532
lor	-12.1533
port	-12.1533
▁Mes	-12.1535
▁Alta	-12.1535
ude	-12.1537
House	-12.154
▁concluí	-12.1541
▁brav	-12.1543
▁abranda	-12.155
▁restaurar	-12.1551
▁tremor	-12.1552
icina	-12.1553
ope	-12.1564
▁tentação	-12.1565
utub	-12.1565
▁psiquiátricos	-12.1573
▁lucrativos	-12.1573
▁fertilizantes	-12.1575
▁operador	-12.1575
▁Olh	-12.1576
rett	-12.1578
▁virado	-12.1581
▁reforço	-12.1583
▁enriqueci	-12.1585
▁nua	-12.159
▁foguete	-12.1591
▁pra	-12.1596
▁Fre	-12.1597
▁lut	-12.1598
bbie	-12.16
▁DM	-12.1602
▁virá	-12.1603
▁cicatrize	-12.1603
▁Rain	-12.1606
▁IP	-12.1613
ruz	-12.1615
▁soava	-12.1616
▁candidatar	-12.1617
▁fino	-12.1621
▁deixo	-12.1627
▁arranj	-12.1629
▁incomodar	-12.163
▁embeleza	-12.1631
▁cro	-12.1631
ival	-12.1632
▁mero	-12.1635
▁descarrega	-12.1636
noite	-12.1636
▁off	-12.1637
▁ful	-12.1638
▁misturada	-12.1641
▁erradica	-12.1647
▁possuía	-12.1649
▁perguntado	-12.1652
▁julgar	-12.1653
▁instantes	-12.1653
▁arame	-12.1654
▁sê	-12.1655
ug	-12.1663
▁misturam	-12.1663
▁Rot	-12.1668
ór	-12.1671
▁simulado	-12.1671
▁pressupostos	-12.1674
▁respir	-12.1674
iri	-12.1676
▁Aceit	-12.1676
▁Humanos	-12.1677
▁aterra	-12.168
▁sabi	-12.1684
▁reflectir	-12.1685
ax	-12.1685
tividade	-12.1698
▁variada	-12.1698
▁mentalmente	-12.17
▁Ann	-12.1712
▁contamina	-12.1712
▁recusar	-12.1717
▁Observa	-12.1717
▁voador	-12.1721
ebra	-12.1725
ólogos	-12.1727
▁tentasse	-12.1733
▁tor	-12.1738
hua	-12.1739
▁fil	-12.1742
▁Bin	-12.175
▁seguia	-12.176
▁eletro	-12.1765
▁previ	-12.1766
▁cumpri	-12.1768
PA	-12.1779
▁cala	-12.178
pit	-12.1783
oshu	-12.1783
▁Ponham	-12.1784
▁lutam	-12.1786
▁mex	-12.1792
▁atirador	-12.1799
▁Conhecemo	-12.1801
if	-12.1801
▁encripta	-12.1803
▁Tenh	-12.1803
▁Sex	-12.1805
oeiro	-12.1805
▁explor	-12.1807
usta	-12.1813
▁instrutor	-12.1815
▁alteram	-12.1819
▁potências	-12.1819
▁referências	-12.182
▁reformas	-12.182
▁morremos	-12.1822
reter	-12.1822
▁receberia	-12.1824
cionado	-12.1825
▁fobia	-12.1828
▁construír	-12.1832
▁Pres	-12.1834
▁sofr	-12.1838
zinhos	-12.1839
▁presum	-12.1842
▁comportam	-12.1849
▁arrastar	-12.1852
▁testá	-12.1853
▁conquistar	-12.1853
rol	-12.1854
▁gal	-12.1865
▁preve	-12.1866
▁galerias	-12.1878
▁pequeninas	-12.1878
▁geologi	-12.1882
▁salvador	-12.1887
▁acert	-12.1896
agan	-12.1897
▁acre	-12.1903
ala	-12.1906
ef	-12.1909
imp	-12.1917
▁funcionais	-12.1918
▁corajosas	-12.193
▁Prov	-12.1931
▁FM	-12.1934
▁juntem	-12.1935
▁Saber	-12.1936
▁acrescento	-12.1937
▁impulsionar	-12.1945
▁adquiri	-12.1947
▁Sh	-12.1948
▁medidor	-12.195
▁acusado	-12.1952
▁perfeitos	-12.1953
▁sup	-12.1955
▁enfia	-12.1961
▁tranquil	-12.1963
▁decidida	-12.1964
▁equipado	-12.1971
▁Hei	-12.1972
▁Encontramo	-12.1977
bras	-12.1977
▁recu	-12.1978
▁Pla	-12.1983
▁Receb	-12.1984
▁cer	-12.1988
▁expandi	-12.1995
▁marés	-12.1998
egr	-12.2007
isto	-12.2008
órdio	-12.201
▁pol	-12.2012
ff	-12.2014
▁concentrarmo	-12.2015
▁mandam	-12.2018
▁fuma	-12.2026
▁entendi	-12.2033
▁sinaliza	-12.2034
▁prédios	-12.2035
▁brinca	-12.2039
▁focam	-12.2041
▁masculinos	-12.2042
▁Trouxe	-12.2044
▁actua	-12.205
▁Robin	-12.2051
▁presumi	-12.2055
tic	-12.2064
epsi	-12.2067
scolhi	-12.2073
▁mexe	-12.2077
▁slides	-12.2087
▁rouba	-12.2094
▁dinam	-12.2095
▁Alexandr	-12.2099
sticamente	-12.2101
▁especulador	-12.2104
gner	-12.2109
ésimo	-12.211
cioso	-12.2111
anca	-12.2119
▁travage	-12.212
▁atraí	-12.2125
▁Bra	-12.2128
traumátic	-12.2137
▁valiosos	-12.214
▁bani	-12.2142
▁termino	-12.2144
▁Dur	-12.2145
▁Has	-12.2146
passageiro	-12.2148
▁projet	-12.215
▁Don	-12.2151
▁pratic	-12.2152
▁exata	-12.2153
oficial	-12.2159
▁extrem	-12.2159
▁dantes	-12.2164
banho	-12.2165
ilusão	-12.2166
potência	-12.2167
conflito	-12.2167
vírus	-12.2169
descobrir	-12.217
imaginar	-12.217
▁detet	-12.2172
lógico	-12.2173
marca	-12.2174
mira	-12.2175
semana	-12.2176
ddie	-12.2179
ano	-12.2181
▁corrigi	-12.2182
▁doméstico	-12.2184
▁destruído	-12.2184
▁abandonado	-12.2186
▁documentário	-12.2189
▁cruz	-12.2189
▁rigorosa	-12.2189
▁pioneiro	-12.2198
▁aprovado	-12.22
▁dinossauro	-12.2206
▁disposta	-12.2206
bul	-12.2208
▁Dav	-12.2208
▁prisioneiro	-12.2208
ólogo	-12.2209
▁maravilhosos	-12.2211
rio	-12.2212
▁regular	-12.2216
▁Free	-12.2219
▁aprovar	-12.222
▁identificam	-12.2222
▁Pal	-12.2224
fro	-12.2225
fiada	-12.2225
▁mosca	-12.2226
rada	-12.2228
▁acerta	-12.223
▁Ris	-12.2233
forma	-12.2233
▁Nasce	-12.2236
▁Bus	-12.2239
▁apercebe	-12.2246
▁escape	-12.226
▁Sente	-12.2264
▁sanguíne	-12.2271
tt	-12.2271
ique	-12.2271
fase	-12.2276
AM	-12.2281
▁arrasta	-12.2295
▁anunciar	-12.2298
▁evit	-12.2305
gnóstico	-12.2311
▁Im	-12.2317
▁prote	-12.2318
▁gel	-12.2318
▁mu	-12.2322
▁arrast	-12.2324
tributo	-12.2325
ventura	-12.2329
▁ob	-12.2331
riedade	-12.2338
▁Cru	-12.2338
iv	-12.2343
▁Demora	-12.2348
▁espeta	-12.235
▁sur	-12.2351
▁Exce	-12.2351
▁Deixe	-12.2355
▁anfitriã	-12.2362
more	-12.2362
▁talentoso	-12.2364
▁solta	-12.2367
▁incentivo	-12.2369
ónica	-12.2376
▁discord	-12.2382
▁legitim	-12.2386
▁abenço	-12.2386
▁deteta	-12.2389
▁Carte	-12.2391
dimensional	-12.2396
len	-12.2412
▁determinadas	-12.2416
▁col	-12.2424
fere	-12.2427
▁afect	-12.2431
▁desliga	-12.2431
▁Entra	-12.2431
▁post	-12.2432
▁poupam	-12.2434
casional	-12.2435
nergia	-12.2437
▁Mard	-12.2439
lins	-12.2444
▁Ficam	-12.2444
lito	-12.2445
assa	-12.2445
▁gross	-12.2447
gregação	-12.2448
▁Inter	-12.245
▁determin	-12.2452
bb	-12.2462
▁transparentes	-12.2465
▁boom	-12.247
utono	-12.2471
▁Vale	-12.2475
▁Interna	-12.2476
▁desenvolv	-12.2478
uther	-12.2479
▁maiúscul	-12.2485
minação	-12.2485
▁tratá	-12.2488
▁conhec	-12.2489
oose	-12.2493
bio	-12.2493
▁calibr	-12.2495
▁America	-12.2495
▁invi	-12.2502
damente	-12.2502
bai	-12.2513
▁húmid	-12.2513
mad	-12.2514
atra	-12.2523
▁concorr	-12.2528
nismo	-12.2528
▁urbaniza	-12.2531
▁reconstruí	-12.2532
cipal	-12.2535
▁reis	-12.2535
phi	-12.2536
▁obtiver	-12.2538
▁tocam	-12.2538
estado	-12.2538
alfabeto	-12.2543
▁assassina	-12.2546
▁permanecem	-12.2547
▁proteg	-12.255
ilh	-12.2555
▁fingi	-12.2555
▁Espere	-12.2556
▁alcança	-12.2556
▁Ajuda	-12.2557
▁injec	-12.256
▁hum	-12.256
▁nenhu	-12.2562
▁correlaciona	-12.2562
▁Chad	-12.2562
▁distribuí	-12.2563
▁transmite	-12.2564
▁renova	-12.2565
▁mantê	-12.2567
▁ansiosa	-12.2569
▁Desculpe	-12.2575
▁quarteir	-12.2576
▁providencia	-12.2578
▁Desculp	-12.2579
▁quise	-12.2579
▁japon	-12.2582
▁piratea	-12.2584
▁priva	-12.2584
▁sedutor	-12.2586
▁retiro	-12.2589
▁mostre	-12.2593
cript	-12.2596
▁doutora	-12.2598
▁premi	-12.2598
▁patern	-12.26
angular	-12.26
▁drive	-12.26
ergaminho	-12.26
iorquino	-12.26
ssembleia	-12.26
▁Aristóteles	-12.26
▁Barulho	-12.26
▁Panamá	-12.26
▁Portugal	-12.26
▁analítico	-12.26
▁apercebam	-12.26
▁apetite	-12.26
▁apresentei	-12.26
▁artefacto	-12.26
▁astronomia	-12.26
▁banquete	-12.26
▁campainha	-12.26
▁catastrófica	-12.26
▁cimeira	-12.26
▁cirúrgica	-12.26
▁clã	-12.26
▁compreendam	-12.26
▁criptodivisa	-12.26
▁defeca	-12.26
▁desvaloriza	-12.26
▁diagnosticada	-12.26
▁disparidade	-12.26
▁dispendiosa	-12.26
▁distorcida	-12.26
▁doutrina	-12.26
▁epifania	-12.26
▁espectador	-12.26
▁estatístico	-12.26
▁farmacêutico	-12.26
▁genérica	-12.26
▁hidroelétric	-12.26
▁ineficaz	-12.26
▁inquieta	-12.26
▁italiana	-12.26
▁laboratoria	-12.26
▁medíocre	-12.26
▁minhoca	-12.26
▁motosserra	-12.26
▁muitíssimo	-12.26
▁optimiza	-12.26
▁pandemia	-12.26
▁paramédico	-12.26
▁parágrafo	-12.26
▁pigmento	-12.26
▁publique	-12.26
▁ratinho	-12.26
▁refúgio	-12.26
▁salamandra	-12.26
▁tabaco	-12.26
▁tabuleiro	-12.26
▁trágica	-12.26
▁utilitári	-12.26
▁vírgula	-12.26
▁zodíaco	-12.26
▁Bósnia	-12.26
▁chocada	-12.26
▁cósmico	-12.26
▁derradeir	-12.26
▁estragar	-12.26
▁flash	-12.26
▁fresca	-12.26
▁intelectuais	-12.26
▁memorando	-12.26
▁misterioso	-12.26
▁primitivo	-12.26
▁péssima	-12.26
▁réplica	-12.26
▁Bangladesh	-12.26
▁Negro	-12.26
▁autodetermina	-12.26
▁dentária	-12.26
▁fisioterap	-12.26
▁fresco	-12.26
▁incendi	-12.26
▁interactivo	-12.26
▁tecnic	-12.26
▁trecho	-12.26
▁cratera	-12.26
▁garra	-12.26
▁psicótica	-12.26
▁remédio	-12.26
licioso	-12.26
▁Mediterr	-12.26
▁Mountain	-12.26
▁estudanti	-12.26
▁usual	-12.26
▁cometido	-12.26
▁mancha	-12.26
▁Child	-12.26
▁pequenino	-12.26
▁cultivo	-12.26
▁emblema	-12.26
▁espessa	-12.26
▁psicológico	-12.26
▁ratazana	-12.26
▁rácio	-12.26
▁Birm	-12.26
▁Chamei	-12.26
▁agressão	-12.26
▁Antigo	-12.26
▁bipolar	-12.26
▁remonta	-12.26
▁pétala	-12.26
▁chumbo	-12.26
▁aquecida	-12.26
▁liminar	-12.26
▁pulga	-12.26
▁dessaliniza	-12.26
▁ópera	-12.26
▁concreto	-12.26
▁mangueira	-12.26
▁prepará	-12.26
▁abanar	-12.26
▁oficina	-12.26
▁pseud	-12.26
▁russa	-12.26
▁vício	-12.26
▁medieva	-12.26
▁reutilizável	-12.26
▁temporário	-12.26
▁excerto	-12.26
▁intuitiva	-12.26
▁metido	-12.26
▁sigam	-12.26
▁Campo	-12.26
▁agrava	-12.2601
discreta	-12.2601
▁investe	-12.2601
▁revolucionário	-12.2601
lírio	-12.2601
▁Fried	-12.2601
▁ditadura	-12.2601
rupo	-12.2601
▁residência	-12.2601
▁prevê	-12.2601
▁relembrar	-12.2601
▁camelo	-12.2601
▁homo	-12.2601
▁turbina	-12.2601
▁Nicola	-12.2601
▁bêbado	-12.2601
hafi	-12.2601
▁traçado	-12.2601
▁distorce	-12.2601
▁adversidade	-12.2601
▁lingu	-12.2601
iteral	-12.2601
▁passadeira	-12.2601
▁bú	-12.2601
▁persistência	-12.2601
eneticamente	-12.2601
▁intima	-12.2601
▁muco	-12.2602
▁preocupe	-12.2602
▁reservatório	-12.2602
▁CIA	-12.2602
▁Ahmed	-12.2602
▁Broad	-12.2602
▁amendoi	-12.2602
▁reparei	-12.2602
nough	-12.2602
▁revestimento	-12.2602
▁Ficá	-12.2602
alile	-12.2602
▁vedaç	-12.2602
▁refé	-12.2602
ubara	-12.2602
▁fenda	-12.2602
▁resolvida	-12.2602
▁pneumo	-12.2603
▁deitada	-12.2603
▁cumprimento	-12.2603
▁Negra	-12.2603
▁paraquedas	-12.2603
▁escasso	-12.2603
▁TE	-12.2603
▁enquadramento	-12.2604
ref	-12.2604
▁distraído	-12.2604
letim	-12.2604
child	-12.2604
▁regar	-12.2604
▁tocou	-12.2604
▁interferir	-12.2604
▁Convid	-12.2605
▁privilegiado	-12.2605
▁Narra	-12.2605
▁aproximou	-12.2605
vangelho	-12.2605
▁acena	-12.2605
▁amorosa	-12.2605
▁Tirar	-12.2606
▁troco	-12.2606
▁minerais	-12.2606
▁ascendente	-12.2606
judicial	-12.2606
▁genitais	-12.2606
▁tolerante	-12.2606
▁persistente	-12.2606
▁representativa	-12.2606
▁óptica	-12.2606
▁oprimidos	-12.2606
▁degener	-12.2607
▁Crai	-12.2607
▁sentíamo	-12.2607
▁chamem	-12.2608
▁mudo	-12.2608
▁negar	-12.2609
▁taco	-12.2609
▁chamei	-12.2609
▁severa	-12.2609
▁Administra	-12.2609
▁Hebraica	-12.261
▁paliativos	-12.261
▁radar	-12.261
▁Tech	-12.2611
▁libertou	-12.2612
▁recreio	-12.2612
▁compete	-12.2613
▁odeiam	-12.2613
▁cativar	-12.2613
▁egípcia	-12.2613
▁contradição	-12.2614
▁bal	-12.2614
atrina	-12.2615
▁residencia	-12.2615
▁trabalhem	-12.2615
▁ternur	-12.2615
▁arena	-12.2616
▁exploradores	-12.2616
▁intenso	-12.2616
▁aterrorizada	-12.2616
▁Caval	-12.2616
▁centrada	-12.2616
▁sequenciação	-12.2616
▁polares	-12.2616
▁pedest	-12.2617
▁Conduzi	-12.2617
▁TEDx	-12.2617
xatamente	-12.2617
▁contabilidade	-12.2617
▁hipoteca	-12.2617
▁fê	-12.2618
▁ganso	-12.2618
▁urna	-12.2619
▁retro	-12.2619
tendimento	-12.2619
▁Procura	-12.2619
▁assassinado	-12.262
▁ingénuo	-12.262
▁esquecida	-12.262
▁convencida	-12.262
▁continha	-12.262
peer	-12.262
▁render	-12.262
▁gratifica	-12.262
▁centrado	-12.262
▁licenciado	-12.262
outube	-12.2621
▁capturado	-12.2621
▁antecipada	-12.2622
▁conduzido	-12.2622
▁condicional	-12.2623
ciais	-12.2624
▁governam	-12.2624
▁depress	-12.2625
ulian	-12.2625
▁Hunt	-12.2625
▁postal	-12.2626
▁compreendido	-12.2626
▁entrasse	-12.2627
▁responsabilizar	-12.2627
▁antecipar	-12.2627
▁Cesar	-12.2627
▁animações	-12.2629
▁numera	-12.2629
▁removido	-12.263
▁ofereceu	-12.263
▁congelada	-12.2631
▁sirva	-12.2631
▁manchetes	-12.2631
▁orador	-12.2633
rnal	-12.2634
▁popularidade	-12.2634
▁oral	-12.2634
▁adaptarem	-12.2634
▁agarrada	-12.2634
▁palestino	-12.2635
▁xadrez	-12.2635
▁intervir	-12.2635
▁Harri	-12.2636
▁TR	-12.2636
▁capacitar	-12.2638
▁cron	-12.264
vul	-12.264
▁prado	-12.264
▁berço	-12.2641
▁partiu	-12.2642
▁prévio	-12.2642
▁crente	-12.2642
▁pertencem	-12.2643
III	-12.2644
▁sentam	-12.2644
▁obrigação	-12.2644
tória	-12.2647
far	-12.2648
▁interpessoa	-12.2649
▁cruzar	-12.2649
▁concentrada	-12.265
▁entro	-12.265
▁frame	-12.265
▁antropólogo	-12.265
▁holo	-12.265
Soph	-12.2651
▁polar	-12.2652
nicialmente	-12.2652
▁sustento	-12.2657
▁afectado	-12.2658
▁sudo	-12.2659
▁inoc	-12.266
▁experimentado	-12.2661
▁comun	-12.2661
▁desencadear	-12.2663
▁ironi	-12.2663
▁degradado	-12.2664
zinha	-12.2664
▁revelaram	-12.2664
ponte	-12.2664
pso	-12.2664
▁municipa	-12.2666
▁sexualidade	-12.2668
▁lider	-12.2671
▁ger	-12.2671
▁exigente	-12.2672
▁eleitora	-12.2673
▁transferida	-12.2674
▁pretendem	-12.2674
▁ouvinte	-12.2675
▁dispor	-12.2675
▁insensíve	-12.2676
▁Carta	-12.2677
▁libertada	-12.2677
azar	-12.2678
▁encontravam	-12.2679
▁perguntava	-12.2679
▁NP	-12.268
▁Conf	-12.2681
▁amas	-12.2682
▁inaugura	-12.2682
▁participam	-12.2684
▁paralisado	-12.2686
▁medem	-12.2686
▁sentamos	-12.269
▁húmida	-12.269
▁crua	-12.269
▁cunhad	-12.2691
▁transformada	-12.2692
▁tripula	-12.2692
fing	-12.2693
▁impe	-12.2694
▁canadiano	-12.2696
▁Ig	-12.2698
▁constituído	-12.2699
▁aproveitamento	-12.2699
▁lateral	-12.2699
▁interessei	-12.2699
▁aguenta	-12.2699
▁desenvolvem	-12.2699
▁imu	-12.2703
corp	-12.2703
▁focada	-12.2704
▁Pratica	-12.2704
▁preventiv	-12.2704
▁iluminar	-12.2705
▁remo	-12.2706
▁demitir	-12.2708
▁deslocada	-12.2709
▁tend	-12.271
▁poroso	-12.2712
▁criticar	-12.2714
▁Bot	-12.2714
▁Visit	-12.2716
▁equilibrado	-12.2718
▁publicitário	-12.2719
▁afegão	-12.272
cida	-12.2722
▁alimentado	-12.2722
▁prazeres	-12.2722
▁beijar	-12.2723
▁actuar	-12.2728
▁fabricado	-12.2731
imba	-12.2732
▁suma	-12.2734
▁Ida	-12.2734
cito	-12.2735
▁Hom	-12.2735
▁declarar	-12.2738
▁virei	-12.2739
▁identifica	-12.2739
▁rox	-12.2739
▁inicio	-12.2741
▁saram	-12.2741
squecemo	-12.2743
▁inclusivo	-12.2747
▁Multi	-12.2749
▁iluminada	-12.2751
olícia	-12.2752
venta	-12.2754
▁Organizaç	-12.2755
▁variado	-12.276
▁Acabar	-12.276
quio	-12.276
▁conceder	-12.2761
▁defin	-12.2764
▁contato	-12.2766
▁promotor	-12.2767
▁australiano	-12.277
uia	-12.277
▁regresse	-12.277
cionistas	-12.2771
▁pesava	-12.2772
▁escal	-12.2775
▁enviarem	-12.2775
▁organizá	-12.2776
▁defendem	-12.2778
▁Continuo	-12.2781
mita	-12.2782
▁jur	-12.2792
▁IN	-12.2795
▁batatas	-12.2799
▁Acabam	-12.2801
▁ousado	-12.2802
venceu	-12.2802
▁achas	-12.2806
▁armadas	-12.2807
▁amam	-12.2808
dar	-12.2816
▁ES	-12.2818
hão	-12.2818
irel	-12.2819
▁existencial	-12.282
▁caminham	-12.282
MI	-12.2822
▁Preocupa	-12.2824
▁encantador	-12.2825
▁tomava	-12.2826
▁Bet	-12.2829
▁reincid	-12.2831
▁ajudando	-12.2833
▁conchas	-12.2834
▁palh	-12.2837
fesa	-12.2839
▁agr	-12.2843
▁Deram	-12.2851
ndal	-12.2852
▁Viva	-12.2854
▁Veja	-12.2854
▁sensoria	-12.2863
▁índi	-12.2869
sburg	-12.287
▁passasse	-12.2872
ranha	-12.2877
▁partilhadas	-12.2879
▁Hous	-12.2883
▁open	-12.2885
▁Cro	-12.2887
▁proclam	-12.2888
▁desgasta	-12.2894
▁vivam	-12.2898
▁ci	-12.2901
▁Estar	-12.2906
▁estre	-12.2916
▁assustados	-12.2918
▁Ron	-12.2923
▁fada	-12.2927
▁saír	-12.2928
▁fundi	-12.2928
▁cente	-12.2932
ond	-12.2934
▁rebento	-12.2939
▁ameaçada	-12.294
anda	-12.2945
▁saberia	-12.295
▁assin	-12.2952
▁estati	-12.2959
▁dançam	-12.2963
mundo	-12.2967
▁analisam	-12.2967
ourne	-12.2969
▁rotu	-12.297
fred	-12.2972
▁roub	-12.2973
orde	-12.2974
▁colá	-12.2975
▁considerava	-12.2981
▁codifica	-12.2981
traiu	-12.2983
▁Construí	-12.2987
▁extensa	-12.299
▁pla	-12.2992
▁aplicamos	-12.2999
▁interessava	-12.3
▁Ficava	-12.3004
▁fizera	-12.3009
nunciaram	-12.301
▁retornar	-12.301
▁bebi	-12.3011
▁Shan	-12.3013
▁Map	-12.3014
▁Falar	-12.3018
monstrou	-12.3022
▁rigorosas	-12.3029
▁documentários	-12.3029
▁Carl	-12.3029
▁afastarmo	-12.303
▁ades	-12.3031
▁aprovados	-12.3031
▁visualiz	-12.3034
▁arranje	-12.3037
baixo	-12.3039
▁encontrasse	-12.304
▁Film	-12.304
▁Perceber	-12.3041
iais	-12.3042
▁reportage	-12.3046
▁empreendedora	-12.3048
▁trem	-12.3055
ello	-12.3056
▁acredit	-12.3056
ence	-12.3059
▁boi	-12.306
▁radio	-12.306
▁experiment	-12.3064
▁definida	-12.3065
ran	-12.3068
▁mili	-12.307
▁critica	-12.3072
▁mares	-12.3073
pareciam	-12.3074
▁ligá	-12.3078
▁encara	-12.3082
▁cemitérios	-12.3087
▁fatias	-12.3087
▁devastador	-12.309
▁termin	-12.3092
regulares	-12.3093
ping	-12.31
▁recriar	-12.3101
neta	-12.3104
▁compensar	-12.3105
▁Rep	-12.3107
izz	-12.3107
▁tomem	-12.3107
▁entrevist	-12.3109
▁defend	-12.3112
▁sofria	-12.3113
▁reduzimo	-12.3119
▁entradas	-12.3126
▁pedisse	-12.3131
▁acr	-12.3139
▁AS	-12.3142
izada	-12.3143
▁Pris	-12.3144
▁diagnosticados	-12.3146
▁medidos	-12.3147
▁Apost	-12.3148
▁crias	-12.3161
▁abrange	-12.3168
▁Fin	-12.3169
íri	-12.3171
orden	-12.3176
neas	-12.319
▁percorr	-12.319
bora	-12.3191
ering	-12.3193
▁perderem	-12.3197
▁acumular	-12.3199
ceira	-12.32
▁Heath	-12.3203
▁Men	-12.3204
▁atletas	-12.3206
▁Palm	-12.3208
▁permitirmos	-12.3215
▁transformador	-12.3217
▁cata	-12.3218
▁distorç	-12.322
▁drena	-12.3223
▁ignorá	-12.3235
▁dormia	-12.3239
▁Escreve	-12.3239
fel	-12.324
▁digitar	-12.3244
uf	-12.3245
▁interrogar	-12.3253
▁inesperados	-12.3265
▁inala	-12.3268
▁Vivem	-12.327
ctor	-12.3274
gado	-12.3278
▁simul	-12.3279
▁Cont	-12.3285
doras	-12.3289
▁Teríamo	-12.3292
▁seleciona	-12.3294
▁escolherem	-12.33
▁cur	-12.33
▁extras	-12.33
▁compreendi	-12.3304
gica	-12.3305
▁Image	-12.3306
▁favorece	-12.3309
▁salt	-12.3312
itamos	-12.3314
▁africanas	-12.3326
enstein	-12.3334
bala	-12.3342
mbio	-12.3346
ngue	-12.3346
▁mostrarem	-12.3348
▁opressão	-12.335
▁Damos	-12.3357
▁Nove	-12.3367
largado	-12.3375
patia	-12.3379
▁entenderem	-12.3382
▁extenso	-12.3384
▁consistia	-12.3385
onze	-12.339
▁passem	-12.3393
▁preocupava	-12.3394
▁parem	-12.3407
▁Vári	-12.3415
mag	-12.3422
▁observava	-12.3429
▁convidad	-12.3436
cionais	-12.3443
▁sonha	-12.3444
▁MS	-12.3446
▁empilha	-12.3447
▁observá	-12.345
▁Alexand	-12.3453
ima	-12.3454
▁Pen	-12.346
▁convenc	-12.3463
▁melhoram	-12.3465
▁Reg	-12.3468
▁aguarda	-12.347
ela	-12.3473
▁ás	-12.3475
▁Qa	-12.3477
ntário	-12.3491
▁contextualiza	-12.3494
penetrar	-12.3501
ert	-12.3501
▁funcionaria	-12.3505
▁indianos	-12.3508
▁multas	-12.3508
pul	-12.3509
cei	-12.3513
▁exporta	-12.3515
▁suposiç	-12.3515
itas	-12.3518
▁pegam	-12.3528
▁apreciam	-12.3528
▁filantrop	-12.3529
▁trop	-12.3529
▁brilha	-12.3529
▁habituar	-12.3531
iões	-12.3534
▁Investiga	-12.3538
▁lembre	-12.3543
▁Fest	-12.3544
ft	-12.3564
▁NA	-12.357
▁vestidos	-12.3571
▁revi	-12.3576
fazer	-12.3589
ronia	-12.3591
▁preferir	-12.3592
mite	-12.3597
bomba	-12.3597
ajuda	-12.3598
▁magnífica	-12.3599
▁seletiva	-12.36
à	-12.36
cou	-12.3603
sucedida	-12.3603
▁Morre	-12.3608
voz	-12.3609
▁realizada	-12.3613
▁Pare	-12.3619
▁testado	-12.362
▁ocupam	-12.362
▁pressuposto	-12.3621
▁disponibiliz	-12.3621
▁moro	-12.3622
▁mí	-12.3624
fur	-12.3628
água	-12.3629
▁Humano	-12.3631
▁comunicado	-12.3631
dez	-12.3633
randes	-12.3633
▁ingrediente	-12.3636
▁muçulmana	-12.3639
▁antibiótico	-12.3641
▁fri	-12.3647
▁soci	-12.3647
▁encontrámo	-12.3648
▁Cam	-12.365
▁consol	-12.3657
▁estudam	-12.3674
lvia	-12.3676
ather	-12.3676
▁limpas	-12.3682
▁lavage	-12.3684
▁aproxim	-12.3685
▁criem	-12.3691
▁encontrem	-12.3692
▁contorna	-12.3695
▁conceptual	-12.3696
▁inventa	-12.3699
▁beneficiam	-12.3706
▁Aprender	-12.3707
▁esgota	-12.3711
eta	-12.3715
▁retiram	-12.3715
▁prosper	-12.3717
▁Bon	-12.3718
▁Cem	-12.3718
▁escavar	-12.3719
▁tomá	-12.3724
▁evitá	-12.3724
▁aproximam	-12.3725
▁deslocam	-12.3725
▁Aumenta	-12.3726
▁Aquil	-12.3727
dados	-12.3728
▁Obte	-12.373
uário	-12.3733
▁contact	-12.3734
▁Arm	-12.3739
▁Tó	-12.3742
quart	-12.3749
▁Malá	-12.375
▁imens	-12.3751
▁restar	-12.3753
▁mexican	-12.3755
▁estro	-12.3757
rta	-12.3757
bsoluta	-12.376
prendizagem	-12.376
tone	-12.3761
olu	-12.3763
▁advogad	-12.3765
▁explicam	-12.3768
▁delicad	-12.3769
▁simboliza	-12.377
▁emerge	-12.3772
IO	-12.3773
▁mineir	-12.3775
▁Ob	-12.3777
star	-12.3777
▁Code	-12.3778
▁compreens	-12.3779
▁Observ	-12.3782
▁inflex	-12.3787
▁Avanç	-12.3792
llan	-12.3798
▁decente	-12.3803
ssenta	-12.3806
▁une	-12.3807
▁desempreg	-12.3818
CR	-12.3824
cisão	-12.3825
íssemos	-12.3827
▁discut	-12.3829
▁contesta	-12.3829
▁pretend	-12.383
▁Escolhe	-12.3834
corpo	-12.3845
iti	-12.3846
ngenharia	-12.3855
conómico	-12.3855
▁olhasse	-12.3857
▁representava	-12.3858
vidente	-12.3863
api	-12.3865
▁hist	-12.3866
▁saltam	-12.3869
▁observe	-12.3874
▁abr	-12.3874
▁imers	-12.3879
▁envelhece	-12.388
▁atirá	-12.3885
▁camp	-12.3891
▁Bi	-12.3903
▁centrifugador	-12.3908
▁tripulaç	-12.3909
▁alonga	-12.391
▁salvam	-12.391
ue	-12.3914
▁incomplet	-12.3916
▁fracas	-12.3917
cond	-12.3922
▁Pensar	-12.3923
▁engana	-12.3925
african	-12.3926
▁consideráve	-12.3926
lever	-12.3931
▁intermédi	-12.3937
▁chef	-12.3939
▁marítim	-12.3942
▁responsabiliza	-12.3944
▁verificá	-12.3946
▁coincidi	-12.3947
lie	-12.3951
▁Suponh	-12.3951
▁daria	-12.3953
gente	-12.3955
hup	-12.3958
▁conserva	-12.3959
fol	-12.396
onas	-12.3968
guai	-12.397
▁barb	-12.397
▁irrita	-12.3971
▁colori	-12.3971
▁antecipa	-12.3973
film	-12.3973
corn	-12.3973
▁matam	-12.3974
▁prefere	-12.3977
▁pensador	-12.3977
▁mostrá	-12.3987
▁Bal	-12.3988
▁infeta	-12.3988
▁equip	-12.3989
▁expande	-12.3992
▁fascina	-12.3992
▁cancros	-12.3995
▁imaginá	-12.3996
▁Bud	-12.3996
▁disputa	-12.3998
▁propus	-12.3999
▁intimida	-12.4001
▁especifica	-12.4002
▁espiritua	-12.4004
▁relaxa	-12.4004
▁indigna	-12.4005
▁precipita	-12.4005
▁intui	-12.4005
▁cli	-12.4005
▁disfarça	-12.4006
▁imprud	-12.4007
▁Dever	-12.4008
▁dissi	-12.4009
upremo	-12.401
▁irregular	-12.4012
riram	-12.4013
▁frances	-12.4013
▁compromete	-12.4015
▁tangíve	-12.4016
alvo	-12.4016
▁abate	-12.4017
▁metaboli	-12.4018
fortuna	-12.4019
▁Branc	-12.4019
▁deter	-12.4019
▁levo	-12.402
▁SO	-12.4022
▁Concentr	-12.4022
bil	-12.4023
▁redefini	-12.4023
▁reacç	-12.4023
▁transborda	-12.4024
▁Faci	-12.4024
▁exclusiva	-12.4025
▁terminam	-12.4026
ruga	-12.4028
aboratório	-12.4028
conomist	-12.4028
strói	-12.4028
▁arrog	-12.4028
ctav	-12.4029
▁Elizabe	-12.4029
▁explicit	-12.4029
neurotransmissor	-12.4029
nload	-12.4029
▁BitCoin	-12.4029
▁Brother	-12.4029
▁Cuidado	-12.4029
▁Círculo	-12.4029
▁Defini	-12.4029
▁Democrata	-12.4029
▁Detroit	-12.4029
▁Espaço	-12.4029
▁Império	-12.4029
▁MOOC	-12.4029
▁Surpreende	-12.4029
▁absurda	-12.4029
▁alicerce	-12.4029
▁amadurece	-12.4029
▁ambígua	-12.4029
▁anedota	-12.4029
▁aritmétic	-12.4029
▁autocolante	-12.4029
▁benéfica	-12.4029
▁burocra	-12.4029
▁bênção	-12.4029
▁cabeludo	-12.4029
▁candeeiro	-12.4029
▁cardiovascular	-12.4029
▁circulo	-12.4029
▁compassiva	-12.4029
▁condescendente	-12.4029
▁confundir	-12.4029
▁contrapartida	-12.4029
▁coreografia	-12.4029
▁costeira	-12.4029
▁cotovelo	-12.4029
▁cívica	-12.4029
▁descanso	-12.4029
▁desfecho	-12.4029
▁empolgado	-12.4029
▁engorda	-12.4029
▁entusiasta	-12.4029
▁envolva	-12.4029
▁esfomeado	-12.4029
▁estupidez	-12.4029
▁evidencia	-12.4029
▁filosófica	-12.4029
▁flagrante	-12.4029
▁flecha	-12.4029
▁furiosa	-12.4029
▁fábula	-12.4029
▁glóbulo	-12.4029
▁gorila	-12.4029
▁grelha	-12.4029
▁greve	-12.4029
▁gémea	-12.4029
▁inadequado	-12.4029
▁inexplicáve	-12.4029
▁infecciosa	-12.4029
▁micrometeorito	-12.4029
▁mobília	-12.4029
▁multimilionário	-12.4029
▁nigeriano	-12.4029
▁orfanato	-12.4029
▁patogénico	-12.4029
▁pedacinho	-12.4029
▁perpétua	-12.4029
▁plural	-12.4029
▁pradaria	-12.4029
▁prejuízo	-12.4029
▁preparei	-12.4029
▁racial	-12.4029
▁rafeiro	-12.4029
▁recomeça	-12.4029
▁repositório	-12.4029
▁reviravolta	-12.4029
▁simbólico	-12.4029
▁soberana	-12.4029
▁soberania	-12.4029
▁socioeconómica	-12.4029
▁soviético	-12.4029
▁suprema	-12.4029
▁torradeira	-12.4029
▁transcende	-12.4029
▁transmissíve	-12.4029
▁trégua	-12.4029
▁ténue	-12.4029
▁utensílio	-12.4029
▁óptima	-12.4029
▁Digita	-12.4029
▁Massachus	-12.4029
▁atribuído	-12.4029
▁boleia	-12.4029
▁boneca	-12.4029
▁bonobo	-12.4029
▁consultório	-12.4029
▁fragilidade	-12.4029
▁grega	-12.4029
▁hazara	-12.4029
▁nanómetro	-12.4029
▁planalto	-12.4029
▁acidentad	-12.4029
▁convidá	-12.4029
▁dificulta	-12.4029
▁exagerar	-12.4029
▁fisiologi	-12.4029
▁pacífico	-12.4029
▁pintei	-12.4029
▁polémic	-12.4029
▁quiosque	-12.4029
▁repentina	-12.4029
▁suicidou	-12.4029
▁ultrapassou	-12.4029
▁Hindu	-12.4029
▁sentinela	-12.4029
▁Moisés	-12.4029
▁companheira	-12.4029
▁duradouro	-12.4029
▁encarceramento	-12.4029
▁enrolar	-12.4029
▁lunar	-12.4029
▁supervisiona	-12.4029
▁posterior	-12.4029
▁anteced	-12.4029
▁cativeiro	-12.4029
▁enredo	-12.4029
▁esquisito	-12.4029
▁sanitária	-12.4029
▁Convenção	-12.4029
▁Céu	-12.4029
▁TAC	-12.4029
▁analógico	-12.4029
▁estudioso	-12.4029
ebcam	-12.4029
▁Document	-12.4029
▁concluiu	-12.4029
roup	-12.4029
▁traseiro	-12.4029
▁trenó	-12.4029
▁unicórnio	-12.4029
ivro	-12.4029
▁Abraham	-12.4029
▁torrada	-12.4029
▁bacteriana	-12.4029
▁aquecido	-12.4029
▁atalho	-12.4029
▁nómada	-12.4029
▁redireciona	-12.4029
▁crónico	-12.4029
▁estrita	-12.4029
▁verificou	-12.4029
▁Church	-12.4029
▁dísp	-12.4029
▁plut	-12.4029
▁presun	-12.4029
▁reprimitiva	-12.4029
antoche	-12.4029
▁simpática	-12.4029
▁constrangimento	-12.4029
▁neurológico	-12.4029
▁automonta	-12.4029
▁bife	-12.4029
▁pecado	-12.4029
▁tábua	-12.4029
▁mitologia	-12.4029
▁sopro	-12.4029
▁segmento	-12.4029
▁baloiç	-12.4029
▁léxico	-12.4029
▁sétim	-12.4029
▁Empresa	-12.4029
▁deprimente	-12.4029
▁Nichol	-12.4029
▁Fuller	-12.4029
▁Benjam	-12.4029
tórica	-12.4029
▁quadrante	-12.4029
▁cancela	-12.4029
inócu	-12.4029
▁Doença	-12.4029
▁asneira	-12.4029
▁próspera	-12.4029
▁escudo	-12.4029
▁mexerico	-12.4029
▁caótica	-12.4029
▁Planeta	-12.403
▁Presum	-12.403
▁luva	-12.403
▁bacteriano	-12.403
▁secretário	-12.403
▁subproduto	-12.403
▁beneficiário	-12.403
▁tutu	-12.403
▁católica	-12.403
▁Escute	-12.403
▁ciber	-12.403
▁desuman	-12.403
▁alternativo	-12.403
▁quebrou	-12.403
▁assimétrica	-12.403
Reddit	-12.403
▁evolutivo	-12.403
▁bidimensional	-12.403
▁auditiva	-12.403
▁Quarto	-12.403
▁taxista	-12.403
▁armadura	-12.403
▁grosseira	-12.403
▁Moore	-12.403
▁daninha	-12.403
▁transfere	-12.403
▁resiliente	-12.4031
▁matur	-12.4031
▁zangada	-12.4031
▁letal	-12.4031
▁embalagens	-12.4031
▁cabeçalho	-12.4031
▁preparou	-12.4031
▁fóruns	-12.4031
▁espalhe	-12.4031
▁sobrinha	-12.4032
▁exótico	-12.4032
▁lenda	-12.4032
▁cartografia	-12.4032
▁agarrou	-12.4032
▁Toca	-12.4032
▁banal	-12.4032
▁repará	-12.4032
▁bastou	-12.4032
▁peões	-12.4032
▁barbear	-12.4032
▁editar	-12.4032
▁Clima	-12.4032
▁fideli	-12.4032
▁humilhante	-12.4032
▁sonoro	-12.4032
▁surfista	-12.4032
▁vegetariano	-12.4033
▁Menina	-12.4033
▁marcá	-12.4033
▁fungo	-12.4033
tum	-12.4033
▁olfat	-12.4033
▁rup	-12.4033
▁bacia	-12.4033
▁Programa	-12.4033
▁Pitt	-12.4033
▁cativante	-12.4033
▁disseminado	-12.4034
judiciais	-12.4034
▁numérica	-12.4034
▁recusou	-12.4034
▁Nathan	-12.4034
▁expulso	-12.4035
▁longitudina	-12.4035
▁Medica	-12.4035
▁viúva	-12.4035
▁arqueologi	-12.4036
▁Computador	-12.4036
▁comentador	-12.4036
▁preenchida	-12.4036
NIC	-12.4036
▁fazenda	-12.4037
▁afundar	-12.4037
▁cancerosa	-12.4037
▁sublinhar	-12.4037
▁Put	-12.4037
▁inflamaç	-12.4038
▁suposições	-12.4038
▁Olimp	-12.4038
▁imunológic	-12.4038
age	-12.4038
▁repetitivo	-12.4038
▁Deixei	-12.4038
▁uau	-12.4038
▁patrões	-12.4038
▁deitava	-12.4038
▁incomu	-12.4039
▁suprimi	-12.4039
▁descrita	-12.4039
▁atacá	-12.4039
▁rapto	-12.4039
controláve	-12.4039
oC	-12.4039
▁Conheço	-12.4039
▁carri	-12.4039
▁espiritualidade	-12.4039
▁cooperam	-12.404
▁frita	-12.404
▁avaria	-12.404
▁reorganizar	-12.404
▁escova	-12.404
▁possuímos	-12.404
▁semestre	-12.404
▁reaproveita	-12.404
▁extraído	-12.4041
▁stressante	-12.4041
▁desagrega	-12.4042
▁traçar	-12.4042
▁triplica	-12.4042
▁oferecido	-12.4042
▁enviem	-12.4043
▁resina	-12.4043
óli	-12.4043
▁bata	-12.4043
▁Marro	-12.4043
▁Vel	-12.4044
▁tapar	-12.4044
▁estendido	-12.4045
▁abandonou	-12.4045
▁reúnem	-12.4046
zac	-12.4046
▁alcançado	-12.4046
▁pique	-12.4046
▁Desejo	-12.4046
▁ordenar	-12.4046
▁bloqueada	-12.4047
mbai	-12.4047
▁empregada	-12.4047
▁empurrão	-12.4048
penhamento	-12.4048
▁alargada	-12.4048
▁Membro	-12.4048
▁cume	-12.4048
▁falido	-12.4049
▁Criaram	-12.4049
▁divina	-12.405
▁fundir	-12.4051
▁diminuído	-12.4051
▁auxiliar	-12.4051
▁jornalística	-12.4052
▁Apanhei	-12.4052
cro	-12.4052
▁Coloque	-12.4053
▁compassivo	-12.4053
▁filmá	-12.4053
▁grandioso	-12.4053
▁Considero	-12.4054
▁pano	-12.4054
▁Tendem	-12.4054
▁apertada	-12.4055
ushi	-12.4055
▁esmagar	-12.4055
diava	-12.4055
▁autoritári	-12.4055
arac	-12.4056
▁polarizada	-12.4056
▁assemelhar	-12.4056
▁surdo	-12.4059
▁atrever	-12.4059
▁correspondente	-12.4059
tern	-12.406
▁montá	-12.406
sari	-12.406
▁acusação	-12.4062
mã	-12.4063
▁azo	-12.4063
▁Testa	-12.4064
▁infetada	-12.4064
adrões	-12.4064
▁celulares	-12.4064
▁pressiona	-12.4065
▁sussurrar	-12.4065
▁BD	-12.4065
▁Chamámos	-12.4065
▁Teor	-12.4065
▁treina	-12.4066
▁Republicano	-12.4067
▁Cher	-12.4067
▁rel	-12.4067
▁empurrado	-12.4068
▁apuro	-12.4069
▁compositor	-12.4069
▁Blue	-12.407
▁riu	-12.407
▁construtiva	-12.4071
▁Thor	-12.4071
▁fundações	-12.4071
▁aceitam	-12.4072
zzi	-12.4072
rove	-12.4072
▁sabores	-12.4075
▁refletida	-12.4075
▁tridimensionais	-12.4076
▁ignorado	-12.4076
▁mutila	-12.4077
ostam	-12.4077
▁sábia	-12.4077
▁ligeiro	-12.4079
▁tentador	-12.4079
▁empenhar	-12.408
▁incidência	-12.4082
▁Caminh	-12.4082
▁Vermelha	-12.4082
▁hei	-12.4082
▁acompanhada	-12.4084
▁envolveu	-12.4084
▁mola	-12.4084
▁aprovada	-12.4085
▁mini	-12.4086
atma	-12.4086
▁convenci	-12.4087
▁vegetação	-12.4087
▁proibido	-12.4089
▁vulgares	-12.4089
▁Independente	-12.4089
áscar	-12.409
▁Pica	-12.409
▁mago	-12.409
▁brinco	-12.4092
▁deslocado	-12.4094
▁motorista	-12.4095
▁processada	-12.4096
▁surda	-12.4097
▁perplexo	-12.4097
▁intitulad	-12.4097
beis	-12.4097
▁corante	-12.4097
▁alertar	-12.4104
bien	-12.4105
▁chamamento	-12.4105
▁pesquisado	-12.4106
▁Retir	-12.4107
▁desejavam	-12.4107
ting	-12.4108
▁encar	-12.4109
MC	-12.4109
▁convenceram	-12.4111
pular	-12.4112
▁Denisovano	-12.4112
▁Abram	-12.4116
▁capitalista	-12.4116
▁atingida	-12.4116
▁acharam	-12.4117
▁esforça	-12.4117
abha	-12.4118
▁coleciona	-12.4118
▁aprendiz	-12.4119
▁insinua	-12.4119
▁Construir	-12.4121
▁quebrada	-12.4121
▁assustada	-12.4122
▁estuda	-12.4123
▁coroa	-12.4125
▁resultante	-12.4125
▁atacada	-12.4126
▁Poderiam	-12.4126
▁envolverem	-12.4128
▁dígitos	-12.4128
▁preguiçosos	-12.4128
▁entendida	-12.4129
▁Emil	-12.4129
▁excessiva	-12.4129
▁afastamo	-12.413
▁perfurar	-12.413
▁promissora	-12.4132
▁bruta	-12.4132
▁corporativo	-12.4133
▁amigáve	-12.4134
▁trava	-12.4134
▁supervis	-12.4134
▁lembrado	-12.4134
▁clipe	-12.4137
▁Christin	-12.4138
▁artifício	-12.414
▁conectividade	-12.414
▁tese	-12.4142
▁bamb	-12.4142
▁apanharam	-12.4144
▁chato	-12.4145
▁apoiada	-12.4146
▁Canto	-12.4147
▁casta	-12.4151
▁centrifugadora	-12.4151
▁convida	-12.4152
▁fundada	-12.4152
▁somar	-12.4153
▁desvia	-12.4153
▁escolhida	-12.4154
▁deduzir	-12.416
▁magoar	-12.416
▁apoiá	-12.4162
▁Sê	-12.4163
▁discordam	-12.4166
▁habituada	-12.4168
olho	-12.4168
▁culpar	-12.4169
pita	-12.4171
▁financiado	-12.4172
cados	-12.4172
▁fundamentalista	-12.4173
▁condenada	-12.4174
▁põem	-12.4174
▁electro	-12.4177
polis	-12.4179
▁estátua	-12.4182
▁hesitar	-12.4183
▁exausto	-12.4184
▁matarem	-12.4185
▁apontou	-12.4186
▁disseste	-12.4188
▁juro	-12.4189
▁vest	-12.419
▁cane	-12.4191
▁modifica	-12.4192
ronica	-12.4193
nie	-12.4193
▁cansados	-12.4194
▁perfis	-12.4195
▁abrem	-12.4195
▁comparáve	-12.4196
ucci	-12.4197
▁Apresento	-12.4198
▁abandona	-12.4198
▁raciona	-12.42
▁acreditavam	-12.42
▁bombea	-12.4203
▁classificado	-12.4203
hab	-12.4205
▁Tornar	-12.4206
▁preocupo	-12.4206
▁conheceram	-12.4208
▁duvido	-12.4208
▁dispensa	-12.4211
▁surf	-12.4212
▁internas	-12.4213
fúri	-12.4213
▁perpetua	-12.4213
▁unha	-12.4214
▁Cloud	-12.4215
▁alve	-12.4216
▁prospera	-12.4216
▁maravilhado	-12.4217
late	-12.4217
▁habilitaç	-12.4217
▁decli	-12.4219
▁Russel	-12.4221
▁voltava	-12.4224
gh	-12.4224
▁regenerar	-12.4225
▁armazenada	-12.4236
pla	-12.4237
EC	-12.4238
embra	-12.4238
▁Rand	-12.4241
▁colada	-12.4242
▁Hat	-12.4246
rido	-12.4248
▁guardam	-12.4248
peste	-12.4249
▁acordou	-12.425
▁fu	-12.4259
▁profetas	-12.426
▁saudades	-12.426
bes	-12.4268
▁prestem	-12.4269
ndava	-12.427
▁pastore	-12.4273
▁impressiona	-12.4275
▁matérias	-12.428
▁pedirem	-12.4281
▁Reconhece	-12.4281
▁Falta	-12.4282
rec	-12.4283
▁planeado	-12.4284
▁inv	-12.4285
▁tiraram	-12.4288
▁Over	-12.4288
▁espantad	-12.4288
▁elevador	-12.429
▁esgotar	-12.4294
▁Subi	-12.4294
▁pisar	-12.4295
▁Fort	-12.4296
ético	-12.4297
▁Teste	-12.4298
alai	-12.43
▁provocador	-12.43
▁Marian	-12.43
▁espi	-12.4301
▁pix	-12.4304
▁alu	-12.4307
▁entendido	-12.4307
▁SA	-12.4314
▁odiar	-12.4316
▁ponham	-12.4319
▁Irmão	-12.4324
▁exi	-12.4326
▁céticos	-12.4327
▁variante	-12.4327
▁antenas	-12.4327
▁adicion	-12.4328
▁atreve	-12.433
▁lagos	-12.4333
▁assinalar	-12.4334
▁ressoar	-12.4335
▁Peru	-12.4337
▁min	-12.4338
▁desafiou	-12.4341
▁eleg	-12.435
▁deixemos	-12.4352
apa	-12.4355
▁inchad	-12.4362
▁epil	-12.4364
▁Tomm	-12.4365
▁Mona	-12.4366
▁dó	-12.4374
▁perguntando	-12.4375
cca	-12.4377
▁polinizar	-12.4378
ofi	-12.4381
▁Começam	-12.4382
▁chique	-12.4383
▁genéticos	-12.4386
▁entregá	-12.4393
▁passivos	-12.4393
orque	-12.4394
▁solitários	-12.4394
▁Tomem	-12.4396
▁frustrados	-12.4396
▁Direct	-12.4397
▁pú	-12.4398
▁batida	-12.4404
▁exportar	-12.4409
▁invadir	-12.441
▁desafiador	-12.441
enes	-12.4412
▁Vent	-12.4412
▁ligamos	-12.4414
▁juízo	-12.4414
ucas	-12.4416
▁mude	-12.4423
ília	-12.4424
▁fracassar	-12.4429
ociedade	-12.4432
▁motivada	-12.4447
▁Dissemos	-12.4447
▁presencia	-12.4448
avesso	-12.445
▁gelat	-12.4451
▁melhorado	-12.4453
▁Mec	-12.4453
ael	-12.4454
▁Tornam	-12.4458
▁Th	-12.4458
ot	-12.4458
▁Peguem	-12.4466
▁traumátic	-12.4471
▁Cub	-12.4473
▁combiná	-12.4473
▁incertezas	-12.4479
▁Rese	-12.4484
diar	-12.4484
plan	-12.4486
▁assumimo	-12.4491
▁Ac	-12.4511
ancou	-12.4516
▁colhe	-12.4525
▁esperado	-12.4525
▁epi	-12.4528
cência	-12.453
organ	-12.4532
ntemente	-12.4532
dro	-12.4535
▁foge	-12.4535
▁One	-12.4536
▁aterr	-12.4539
ding	-12.4543
▁explorá	-12.4545
zar	-12.4549
▁experimento	-12.455
rgi	-12.4554
imm	-12.4557
▁Acabou	-12.4563
▁grit	-12.4568
▁comprem	-12.457
inh	-12.4576
gerem	-12.4579
▁red	-12.4579
▁Ia	-12.4583
In	-12.4585
itos	-12.4597
▁rebel	-12.46
▁ativado	-12.4607
acqu	-12.4607
inação	-12.4609
▁sequencia	-12.4616
▁exigia	-12.4618
▁alf	-12.4626
▁descend	-12.4628
▁Haz	-12.4629
citar	-12.4634
▁milésim	-12.4634
▁cin	-12.4637
▁renuncia	-12.4639
erem	-12.4641
▁pretendia	-12.4643
▁alinhar	-12.4649
▁10.	-12.4657
▁desenha	-12.4659
▁Exat	-12.4665
▁primários	-12.4669
▁Flor	-12.4673
▁calmo	-12.4675
jord	-12.4679
▁prima	-12.4683
ual	-12.4686
arr	-12.4696
▁cu	-12.47
ep	-12.4703
▁metr	-12.4723
▁tape	-12.4727
▁bebe	-12.4737
▁fluorescentes	-12.4738
▁otimistas	-12.4739
▁cafés	-12.474
▁Cel	-12.4745
tismo	-12.4746
▁sumo	-12.4748
▁regista	-12.475
▁Rob	-12.4763
▁mentor	-12.4764
▁Existia	-12.4764
▁merecedor	-12.477
▁restaura	-12.4774
▁aqu	-12.4778
▁Alas	-12.4785
▁arranh	-12.4789
▁Procur	-12.479
▁contando	-12.479
aparecerem	-12.4792
▁significaria	-12.4792
▁Cr	-12.4795
▁geo	-12.4796
▁Sta	-12.4802
▁domésticos	-12.4804
sistimos	-12.4806
▁Casar	-12.4807
▁semelhanças	-12.4809
▁juntámo	-12.4815
articular	-12.4821
▁defendi	-12.4823
▁dispers	-12.4824
▁chamaria	-12.4828
▁prestava	-12.4828
▁escap	-12.4828
▁dif	-12.4828
▁Bern	-12.4829
▁Nam	-12.4834
▁quilo	-12.4843
▁SM	-12.485
▁choro	-12.4862
▁conhecesse	-12.4871
▁batem	-12.4878
▁dormi	-12.4881
deira	-12.4887
▁curvar	-12.4891
▁implementá	-12.4893
▁Plan	-12.4895
ónico	-12.4896
▁atualiza	-12.49
▁arranja	-12.4912
▁ín	-12.4915
▁ganhava	-12.4919
▁marginal	-12.4922
▁gest	-12.4923
rich	-12.4923
▁Pedr	-12.4929
▁tornarmo	-12.493
▁bati	-12.4931
úl	-12.4931
▁morra	-12.4932
▁reverte	-12.4936
▁fotograf	-12.4939
▁paviment	-12.4947
pura	-12.4951
▁democráticos	-12.4951
▁subjacentes	-12.4951
▁Ocident	-12.4953
puta	-12.4956
brimos	-12.497
▁calculam	-12.4974
▁Altera	-12.4975
fim	-12.4977
▁trato	-12.498
▁cham	-12.4993
▁Angel	-12.4997
▁implant	-12.5004
▁especializa	-12.5009
▁aux	-12.5016
▁recruta	-12.5023
icha	-12.503
ical	-12.503
onia	-12.5032
▁estacion	-12.5035
▁tornaria	-12.5039
▁cone	-12.5049
▁mudarem	-12.505
▁comentar	-12.505
▁tornasse	-12.505
rial	-12.5057
▁busc	-12.5057
plin	-12.5063
recia	-12.5068
ivre	-12.5081
udd	-12.5096
▁fundar	-12.5096
▁Rai	-12.5101
gan	-12.5101
escrever	-12.5106
▁lamenta	-12.511
ndr	-12.5115
ancro	-12.5125
bico	-12.5127
dorava	-12.5128
▁baix	-12.5134
▁bomb	-12.5138
▁servido	-12.5141
▁ensiná	-12.5141
▁regulamentaç	-12.5146
▁denuncia	-12.5148
▁ventos	-12.5149
dentes	-12.5163
▁cas	-12.5166
▁acabara	-12.5169
▁resolvem	-12.5177
▁basear	-12.518
izados	-12.518
▁nomear	-12.5182
▁AM	-12.5183
▁sobra	-12.5187
▁consult	-12.5198
▁colocava	-12.5199
▁assustado	-12.5206
▁Cart	-12.5207
▁modific	-12.5209
cadas	-12.521
rob	-12.521
▁Sentimo	-12.521
▁derrota	-12.5213
▁Aceita	-12.5218
poder	-12.5246
▁mudem	-12.5246
▁constipaç	-12.5247
▁Bola	-12.525
nutri	-12.5254
▁abandonam	-12.5255
▁FI	-12.5256
clique	-12.5256
fabrico	-12.5257
▁sérias	-12.5258
ji	-12.5258
piloto	-12.5262
chefe	-12.5263
segundos	-12.5265
normal	-12.5266
▁ambiciosa	-12.5267
rim	-12.5268
Qa	-12.5277
organismo	-12.5278
▁solitário	-12.5281
ivamente	-12.5284
▁infetado	-12.5284
hip	-12.5285
ning	-12.5286
tima	-12.5286
▁Esquece	-12.5287
espacial	-12.5289
shop	-12.5289
▁manga	-12.5291
arões	-12.5291
ença	-12.5292
▁frustrado	-12.5293
▁formiga	-12.5295
▁fragmento	-12.5295
▁circun	-12.5297
▁minúscula	-12.5297
▁marcante	-12.5298
▁expectativa	-12.5298
▁precedente	-12.5301
uven	-12.5302
▁antepassado	-12.5305
correntes	-12.531
▁cicatriz	-12.5318
▁Tri	-12.5319
nascimento	-12.5322
Cidade	-12.5344
▁resisti	-12.5346
▁enlouquece	-12.5352
▁van	-12.5356
▁set	-12.5357
▁gran	-12.536
▁conv	-12.5366
▁imaginaria	-12.5371
▁conhecerem	-12.5374
nesse	-12.5378
cabeças	-12.5382
enho	-12.5388
▁revel	-12.5388
▁Hon	-12.5392
▁Time	-12.5394
▁Calcul	-12.5395
▁sintoma	-12.5399
eller	-12.5399
▁múltipla	-12.5401
▁pagas	-12.5403
▁Mont	-12.5405
▁espe	-12.5406
▁iranian	-12.5407
▁redond	-12.5409
▁Senta	-12.5412
nect	-12.5412
▁enfrentá	-12.5415
▁rejeita	-12.5415
ild	-12.5416
▁Conseguia	-12.542
eração	-12.5421
lloc	-12.5421
▁Inici	-12.5422
crita	-12.5426
tratos	-12.5429
▁Brand	-12.5437
▁Ag	-12.5438
▁acorde	-12.545
screveu	-12.545
▁prestam	-12.5454
▁psicólog	-12.5463
boro	-12.5465
▁frigoríficos	-12.5468
▁copos	-12.5468
▁espalham	-12.5472
iji	-12.5472
Se	-12.5479
ngli	-12.548
▁virge	-12.5481
álg	-12.5485
▁injust	-12.5485
africano	-12.5486
▁Conto	-12.5491
▁McC	-12.5492
▁razo	-12.5492
elho	-12.5494
▁debat	-12.5494
▁passivo	-12.5495
▁net	-12.5495
▁australian	-12.55
cle	-12.5506
▁organizam	-12.5512
culares	-12.5513
▁etern	-12.5516
▁esmaga	-12.5519
▁estabilizar	-12.552
▁situam	-12.5521
▁hosped	-12.553
▁Chec	-12.5531
▁bru	-12.5535
▁Escolh	-12.5539
▁Tentem	-12.5539
homa	-12.5542
▁best	-12.5546
▁apoiam	-12.5547
▁acompanham	-12.5549
pício	-12.555
rrado	-12.5551
▁clon	-12.5555
▁pic	-12.5555
vin	-12.5556
▁Bert	-12.5563
▁substituí	-12.5563
put	-12.5564
▁escond	-12.5564
▁barrage	-12.5564
▁fornecedor	-12.5565
▁plane	-12.5566
▁alug	-12.5568
▁adult	-12.557
▁clip	-12.5571
▁micr	-12.5572
[...]
