<unk>	0
<s>	0
</s>	0
<pad>	0
▁,	-2.98392
▁.	-3.19771
s	-3.22151
▁a	-3.60628
▁de	-3.64035
▁que	-3.67047
;	-4.02839
▁&	-4.05685
quot	-4.07572
▁o	-4.08167
▁e	-4.09519
▁	-4.47185
▁é	-4.54907
-	-4.67285
▁um	-4.71167
▁para	-4.77793
▁uma	-4.78984
▁da	-4.90496
▁do	-5.01213
▁não	-5.04776
▁em	-5.04838
▁E	-5.06093
▁com	-5.17529
▁os	-5.22192
▁se	-5.37704
mos	-5.45235
▁no	-5.45312
▁como	-5.46083
o	-5.47815
▁mais	-5.47979
▁as	-5.50716
▁na	-5.536
▁A	-5.55027
▁:	-5.59648
▁?	-5.6169
▁por	-5.62892
▁muito	-5.81542
▁O	-5.81626
m	-5.84082
a	-5.84824
ando	-5.9095
▁eu	-5.94913
mente	-5.96874
se	-5.99149
▁ser	-6.00393
ão	-6.0115
▁Mas	-6.01938
▁pessoas	-6.02293
▁à	-6.02493
▁ao	-6.0463
▁isso	-6.06894
▁são	-6.09236
▁mas	-6.11777
▁)	-6.13511
(	-6.1375
▁ou	-6.1377
r	-6.14382
▁fazer	-6.18445
ção	-6.18512
▁—	-6.21726
▁dos	-6.25364
▁nos	-6.28906
▁qu	-6.29307
▁Por	-6.30554
▁está	-6.32217
▁esta	-6.38574
▁isto	-6.39306
▁anos	-6.40236
me	-6.41331
▁porque	-6.42172
▁meu	-6.43532
▁É	-6.44052
▁sobre	-6.45685
▁foi	-6.4832
es	-6.49877
▁há	-6.50633
á	-6.50846
▁era	-6.51903
▁Não	-6.56847
▁mundo	-6.5828
▁sua	-6.59083
▁ver	-6.5922
▁minha	-6.59285
▁seu	-6.61711
▁nossa	-6.62764
▁nosso	-6.63829
▁nós	-6.64079
▁ter	-6.64148
u	-6.64327
is	-6.67652
▁todos	-6.67887
em	-6.67977
▁este	-6.68303
l	-6.7123
▁Eu	-6.7273
▁estão	-6.73429
▁mesmo	-6.74866
os	-6.7541
▁também	-6.75916
▁forma	-6.76546
▁ele	-6.7826
▁coisas	-6.78982
ntão	-6.79421
▁temos	-6.80148
▁tem	-6.80365
am	-6.83128
▁toda	-6.83444
▁me	-6.8585
▁vida	-6.85906
▁Se	-6.86302
▁aqui	-6.88431
nos	-6.88461
▁tempo	-6.91328
▁pode	-6.92719
▁apenas	-6.94493
▁Riso	-6.95255
▁coisa	-6.95897
▁vez	-6.96509
▁eles	-6.97192
▁podemos	-6.99762
▁têm	-6.99877
▁podem	-6.99913
▁num	-7.04365
▁depois	-7.05402
▁até	-7.074
▁dizer	-7.07858
▁H	-7.09115
ções	-7.11609
▁estava	-7.11614
▁pelo	-7.11661
▁numa	-7.12859
▁Qu	-7.13631
▁tinha	-7.14553
▁parte	-7.16396
▁tudo	-7.17419
do	-7.17622
▁tipo	-7.18688
▁só	-7.18961
▁agora	-7.19048
▁pela	-7.19535
▁disse	-7.2
tão	-7.20077
▁Aplausos	-7.20111
▁bem	-7.21017
▁Com	-7.2174
▁dia	-7.2281
▁Ele	-7.23403
▁Esta	-7.25283
e	-7.25804
▁essa	-7.26159
lo	-7.26434
▁vocês	-7.28296
▁algo	-7.28324
▁Ist	-7.29875
ndo	-7.31439
▁grande	-7.31757
já	-7.3184
▁alguma	-7.31989
i	-7.32795
▁cada	-7.32798
▁muita	-7.33387
▁assim	-7.33586
▁Os	-7.34053
▁falar	-7.34415
▁ainda	-7.3621
tanto	-7.36297
ões	-7.37027
▁esse	-7.3792
▁todo	-7.38358
▁trabalho	-7.38938
▁entre	-7.39208
.	-7.39358
ei	-7.40732
nde	-7.41002
▁sem	-7.42054
▁vezes	-7.42425
▁ela	-7.42574
vamos	-7.42697
▁pouco	-7.42834
▁melhor	-7.43075
▁verdade	-7.43169
vos	-7.45039
▁qualquer	-7.4549
que	-7.46083
▁N	-7.47023
▁T	-7.47182
▁Este	-7.49347
▁história	-7.49594
▁pensar	-7.49992
íamos	-7.50181
▁nas	-7.507
▁I	-7.51165
▁vai	-7.51602
▁problema	-7.51675
▁ideia	-7.52175
▁estas	-7.53053
▁milhões	-7.53268
▁hoje	-7.53389
▁%	-7.53873
▁realmente	-7.54329
▁dois	-7.55749
as	-7.56197
▁outros	-7.56431
▁ano	-7.56635
▁...	-7.58098
ia	-7.58302
▁No	-7.58363
gora	-7.58435
▁maior	-7.58676
▁exemplo	-7.59291
▁Na	-7.59292
▁poder	-7.59444
▁S	-7.59464
▁outra	-7.60476
▁sempre	-7.60706
ou	-7.60719
▁lá	-7.61934
▁mim	-7.62909
to	-7.63402
▁ir	-7.64408
▁sistema	-7.66037
▁Em	-7.66206
▁estes	-7.66236
▁outro	-7.66332
▁então	-7.66395
▁menos	-7.66519
▁três	-7.66837
▁facto	-7.67393
▁estar	-7.67397
▁importante	-7.67916
▁casa	-7.68668
▁alguns	-7.68776
▁nunca	-7.68793
▁As	-7.68954
▁estamo	-7.69986
▁lado	-7.70074
▁durante	-7.72094
la	-7.72741
onde	-7.73002
▁♫	-7.73119
▁usar	-7.74872
▁criar	-7.75111
▁dua	-7.76131
▁outras	-7.76188
▁primeira	-7.76635
▁seja	-7.76702
▁neste	-7.77488
▁pessoa	-7.78069
idade	-7.78157
▁deste	-7.78371
▁De	-7.78751
▁tenho	-7.7904
▁tentar	-7.80621
▁cérebro	-7.81413
▁Bem	-7.8147
▁mulheres	-7.82456
▁primeiro	-7.83147
▁talvez	-7.84175
▁vou	-7.84342
▁mesma	-7.84504
▁volta	-7.85109
▁antes	-7.86061
▁faz	-7.86268
▁!	-7.86673
▁tecnologia	-7.87176
▁Um	-7.87351
▁crianças	-7.87401
▁diferentes	-7.87968
▁estou	-7.88208
▁momento	-7.88214
▁dar	-7.88336
da	-7.88947
▁cerca	-7.89409
▁espaço	-7.91699
▁nada	-7.92949
▁dados	-7.93039
▁alguém	-7.93763
▁existe	-7.94113
▁Uma	-7.95153
▁nova	-7.9538
▁água	-7.95503
sso	-7.96399
▁vão	-7.9644
▁quero	-7.9777
▁nem	-7.98306
▁Para	-7.98529
▁qual	-7.99068
▁informação	-8.00218
▁trabalhar	-8.0103
▁eram	-8.01057
▁encontrar	-8.01162
▁resposta	-8.02355
▁novo	-8.02373
ós	-8.02986
lhe	-8.0348
▁país	-8.03794
1	-8.03972
▁olhar	-8.04072
▁vos	-8.04241
▁vosso	-8.04416
▁diferente	-8.04628
▁quem	-8.05004
▁pequena	-8.05568
▁significa	-8.05625
▁10	-8.05802
▁dias	-8.05864
▁Temos	-8.06087
ámos	-8.06232
▁foram	-8.06493
▁quase	-8.06594
▁altura	-8.07003
▁começar	-8.07077
▁feito	-8.07387
▁Foi	-8.07428
▁mudar	-8.07489
va	-8.07853
apos	-8.0814
▁disso	-8.08269
▁energia	-8.08488
▁un	-8.09272
▁20	-8.102
▁sido	-8.11078
ram	-8.11318
▁quanto	-8.11337
▁dinheiro	-8.11443
▁nesta	-8.12094
▁J	-8.12541
▁lugar	-8.12595
▁acontece	-8.12775
▁número	-8.12957
▁futuro	-8.12968
▁palavras	-8.13173
▁difícil	-8.1363
▁seria	-8.14488
▁diz	-8.14524
▁realidade	-8.14767
▁elas	-8.15444
▁claro	-8.15462
▁sou	-8.15513
▁precisamos	-8.1567
▁desta	-8.15924
▁simples	-8.16292
▁dentro	-8.16531
▁países	-8.17865
▁sei	-8.18076
▁-	-8.18307
▁meio	-8.19352
▁acontecer	-8.19589
▁modo	-8.19789
▁P	-8.20171
▁mil	-8.20244
▁escola	-8.20398
▁penso	-8.20435
000	-8.20635
és	-8.20926
▁ponto	-8.21046
▁estavam	-8.21201
▁fazem	-8.21465
▁contra	-8.22005
▁desde	-8.22294
▁somos	-8.22312
▁Aqui	-8.22695
▁mostrar	-8.22763
▁experiência	-8.22796
▁Depois	-8.23127
▁último	-8.2337
los	-8.23653
▁consegui	-8.24677
mo	-8.25259
▁tinham	-8.25396
▁fora	-8.25525
▁cidade	-8.25622
▁lhe	-8.25909
▁Ela	-8.25978
mento	-8.26024
▁questão	-8.26127
▁maneira	-8.26392
▁enquan	-8.26633
▁p	-8.26705
▁possível	-8.27346
▁passado	-8.27476
▁bastante	-8.27857
ar	-8.28396
▁razão	-8.29395
▁Obrigado	-8.29898
▁fim	-8.29941
▁sabemos	-8.30067
▁Muito	-8.30174
▁ficar	-8.30213
▁atrav	-8.30294
▁tal	-8.30391
▁corpo	-8.30584
▁en	-8.30783
▁vossa	-8.31226
▁processo	-8.31486
▁pequeno	-8.32315
▁mãe	-8.32332
▁longo	-8.32549
▁gente	-8.32571
▁saber	-8.3283
▁dólares	-8.33099
▁bom	-8.33132
▁família	-8.34274
▁tive	-8.34377
▁aquela	-8.3445
▁problemas	-8.34785
▁si	-8.35211
▁luz	-8.3569
▁havia	-8.35789
▁quer	-8.36356
▁Vamo	-8.36405
▁ajudar	-8.36823
▁saúde	-8.37194
▁imagem	-8.38038
emos	-8.3806
▁sabem	-8.38093
▁tornar	-8.38268
▁nível	-8.38334
▁vemos	-8.38688
▁homem	-8.39172
▁ali	-8.39375
▁certo	-8.39513
▁quatro	-8.39744
▁Vou	-8.39793
▁parece	-8.39839
▁tanto	-8.3985
▁caso	-8.40136
▁dessa	-8.40212
▁&#9	-8.40609
▁acho	-8.40626
▁maioria	-8.40724
▁deles	-8.40794
▁interessante	-8.41003
▁humanos	-8.41486
▁fez	-8.42202
▁homens	-8.42655
▁construir	-8.42691
▁aprender	-8.42789
▁aquilo	-8.42889
▁grupo	-8.43153
▁perceber	-8.43171
▁C	-8.43732
▁meses	-8.44223
▁causa	-8.44368
▁D	-8.44875
▁única	-8.45654
▁&#93;	-8.45654
res	-8.45894
▁EUA	-8.45959
▁Todo	-8.45964
▁humano	-8.45968
▁vi	-8.46466
▁Assi	-8.46542
▁caminho	-8.46619
▁partir	-8.47556
▁pai	-8.47613
y	-8.48095
▁comunidade	-8.4822
▁Podem	-8.48442
no	-8.48847
▁for	-8.48883
▁sala	-8.48931
▁ciência	-8.48982
▁viver	-8.49007
▁chegar	-8.49104
▁mulher	-8.49862
ecei	-8.50261
▁local	-8.50315
▁Podemo	-8.50421
▁podia	-8.506
las	-8.50802
▁noite	-8.5102
▁pergunta	-8.51499
▁frente	-8.51612
▁funciona	-8.51676
▁fosse	-8.51784
▁baixo	-8.51988
▁chamado	-8.51996
▁cinco	-8.52586
▁amigos	-8.52873
▁fazemos	-8.53165
quanto	-8.53345
▁aconteceu	-8.53434
te	-8.53741
▁sociedade	-8.54244
▁Era	-8.54269
▁medo	-8.54725
de	-8.54735
▁própria	-8.54899
▁boa	-8.55325
▁estado	-8.5533
▁queremos	-8.55486
▁Terra	-8.55571
▁guerra	-8.55586
▁preciso	-8.55619
▁mudança	-8.55634
▁posso	-8.55906
frica	-8.56216
▁espécie	-8.56337
▁valor	-8.5636
d	-8.5644
lhes	-8.56442
ssemos	-8.56671
▁segundo	-8.56689
▁milhar	-8.56705
▁grandes	-8.56772
▁Internet	-8.57604
▁aí	-8.57873
▁real	-8.57932
▁sentido	-8.58533
▁queria	-8.58929
▁fácil	-8.58986
▁ninguém	-8.58986
▁passar	-8.59068
▁horas	-8.5926
▁vê	-8.59582
▁contar	-8.59823
▁base	-8.60053
▁filhos	-8.60286
▁empresas	-8.60328
▁células	-8.60602
▁cultura	-8.60886
▁cor	-8.61024
▁Está	-8.61106
▁histórias	-8.61436
▁enorme	-8.62143
▁Ou	-8.6216
▁social	-8.62529
▁livro	-8.62536
n	-8.62993
▁deixar	-8.63257
▁economia	-8.63259
▁30	-8.63469
▁provavelmente	-8.63619
das	-8.63806
▁global	-8.63934
▁simplesmente	-8.64025
▁projeto	-8.64056
▁atrás	-8.6426
▁imagens	-8.64344
▁normal	-8.64425
ambém	-8.64706
▁Você	-8.64717
▁planeta	-8.64793
▁100	-8.65036
▁Sim	-8.65099
▁Que	-8.65268
▁carro	-8.65574
vam	-8.65605
▁fui	-8.65825
▁algum	-8.65983
▁computador	-8.66432
▁desse	-8.66518
▁tarde	-8.66573
▁pais	-8.66881
▁especial	-8.67301
▁melhores	-8.67477
▁aquele	-8.67524
▁mão	-8.67572
▁re	-8.67663
▁alta	-8.67826
▁certa	-8.68042
cerca	-8.68068
▁termos	-8.68495
▁quais	-8.68551
▁50	-8.68877
▁criança	-8.69118
▁linha	-8.69241
▁ajuda	-8.69511
▁arte	-8.69569
▁mal	-8.69578
▁Nova	-8.70101
▁ambiente	-8.70314
dos	-8.70321
▁querem	-8.70494
▁música	-8.70786
▁completamente	-8.70839
t	-8.70995
▁sim	-8.71058
▁dele	-8.71292
ência	-8.71503
▁destas	-8.71813
▁doença	-8.71975
▁início	-8.72365
▁conjunto	-8.72778
▁universo	-8.72792
▁palavra	-8.72797
▁campo	-8.72835
▁sabe	-8.73102
▁desenvolvimento	-8.73172
▁fazê	-8.73187
▁modelo	-8.73201
▁voz	-8.73455
▁risco	-8.73564
▁governo	-8.73634
▁empresa	-8.73834
▁possa	-8.73875
▁Quero	-8.73933
▁nome	-8.74021
▁F	-8.74067
▁in	-8.74105
▁novas	-8.74213
ssem	-8.74545
▁passa	-8.74554
▁próximo	-8.74778
▁sentir	-8.74947
▁rede	-8.75163
▁comida	-8.75275
▁chamada	-8.75326
▁B	-8.75439
▁2	-8.75443
teve	-8.75602
▁morte	-8.75618
▁começa	-8.75621
▁poderia	-8.75704
▁estrutura	-8.75981
▁suficiente	-8.76608
▁papel	-8.76836
▁conta	-8.76852
▁descobrir	-8.77413
▁século	-8.77456
▁seguir	-8.77646
▁sociais	-8.77671
▁Só	-8.77694
▁ideias	-8.77707
alvez	-8.77776
▁soluç	-8.78004
▁animais	-8.78105
▁dela	-8.78117
▁capacidade	-8.78332
▁humana	-8.78356
▁M	-8.78414
▁15	-8.7843
▁voltar	-8.78595
▁olhos	-8.7869
▁vídeo	-8.78776
▁medida	-8.79224
▁ouvir	-8.79353
▁único	-8.79362
▁começou	-8.79397
▁fiz	-8.79737
▁oportunidade	-8.80111
▁relação	-8.80219
▁tamanho	-8.80223
▁cima	-8.80243
na	-8.80383
▁conseguem	-8.80435
▁dizem	-8.80738
▁levar	-8.81036
▁tínhamo	-8.81084
▁além	-8.8112
▁Estado	-8.8117
▁conseguir	-8.81385
▁locais	-8.81518
▁escala	-8.8159
pesar	-8.82021
▁formas	-8.8273
▁público	-8.82829
▁política	-8.82834
▁próprio	-8.82845
▁fizemos	-8.8292
▁Tenho	-8.84183
▁diferença	-8.84233
er	-8.84354
▁3	-8.84438
▁Obrigad	-8.8444
ntes	-8.84871
▁segurança	-8.85094
í	-8.85117
▁obrigado	-8.85536
▁sabia	-8.85766
ns	-8.86119
▁cancro	-8.8643
▁aqueles	-8.86646
▁carros	-8.86737
rá	-8.86876
▁final	-8.86999
dores	-8.87191
▁jovens	-8.87349
▁última	-8.87349
▁visão	-8.87364
iam	-8.87449
▁seguinte	-8.87533
▁torna	-8.88262
▁particular	-8.89215
▁população	-8.89731
▁segunda	-8.90159
▁Ok	-8.90588
▁Estou	-8.90664
▁compreender	-8.90683
▁tenha	-8.9094
▁você	-8.91003
▁serem	-8.91067
▁haver	-8.9139
▁área	-8.91476
▁semana	-8.91524
▁cidades	-8.9161
▁Ao	-8.91707
▁precisa	-8.9187
▁equipa	-8.91937
▁verdadeira	-8.92086
▁confiança	-8.92136
▁cabeça	-8.92466
▁conhecimento	-8.92487
▁indústria	-8.92563
▁ADN	-8.93051
▁centena	-8.93056
▁pensei	-8.9306
▁dá	-8.93083
▁filme	-8.93086
▁maiores	-8.93152
▁colocar	-8.93294
▁teria	-8.93374
▁situação	-8.93555
▁sucesso	-8.9356
▁CA	-8.93574
▁disto	-8.9399
▁atenção	-8.94345
▁continuar	-8.94519
▁longe	-8.94529
▁violência	-8.94591
▁R	-8.94745
▁imaginar	-8.95012
▁força	-8.95407
vés	-8.95445
▁partilhar	-8.95591
▁idade	-8.95774
▁procura	-8.95929
▁crescimento	-8.96034
▁delas	-8.96741
h	-8.96745
▁minutos	-8.96831
▁programa	-8.96965
▁resolver	-8.97016
▁hora	-8.97172
▁Penso	-8.97211
▁som	-8.97415
▁deve	-8.97472
▁iria	-8.97565
p	-8.976
▁educação	-8.97657
▁En	-8.97977
▁estudo	-8.98039
▁impacto	-8.98067
▁quantidade	-8.98067
▁floresta	-8.98095
▁terra	-8.98201
▁vidas	-8.98458
▁atra	-8.9862
▁design	-8.98731
▁vári	-8.98808
▁sair	-8.98894
▁incrível	-8.99141
▁totalmente	-8.99259
▁série	-8.99619
▁nessa	-8.99619
▁perto	-8.99645
▁escrever	-8.99646
▁centro	-8.99663
▁movimento	-8.99815
▁certeza	-9.00144
▁tornou	-9.00174
ra	-9.00397
nte	-9.00412
oje	-9.01431
▁vem	-9.01602
▁controlo	-9.01755
▁comigo	-9.01876
▁matemática	-9.02003
▁natureza	-9.02265
▁vista	-9.02298
amente	-9.02322
▁possam	-9.02387
▁semanas	-9.02397
▁portanto	-9.02552
▁teste	-9.02627
▁língua	-9.02802
▁rapidamente	-9.02802
▁disseram	-9.03005
▁Deus	-9.03065
▁pensamos	-9.03165
▁recente	-9.03211
▁TED	-9.03356
▁professores	-9.0343
▁Pode	-9.03603
▁sistemas	-9.03778
▁miúdo	-9.03886
▁Tem	-9.0436
▁pequenos	-9.0437
▁Toda	-9.04439
▁Tudo	-9.04465
▁ler	-9.045
▁Imaginem	-9.04534
▁manter	-9.05073
▁V	-9.05323
▁cria	-9.05363
▁1	-9.05522
▁palestra	-9.05535
▁precisam	-9.05608
▁Sabem	-9.05799
▁resultado	-9.06032
▁fundo	-9.06038
▁201	-9.06221
▁perguntar	-9.06412
▁entrar	-9.06627
▁livros	-9.06662
2	-9.06716
▁comum	-9.06758
▁nenhum	-9.06857
▁seis	-9.06922
▁doenças	-9.07222
▁40	-9.07381
▁fica	-9.07456
▁Ora	-9.07501
▁minhas	-9.08069
▁natural	-9.08108
▁ar	-9.08873
▁começá	-9.08916
▁viagem	-9.08927
▁Essa	-9.08999
▁pesquisa	-9.09304
▁mente	-9.09482
▁nesse	-9.09528
▁amigo	-9.09563
▁geral	-9.09619
▁nisso	-9.10068
▁experiências	-9.1028
▁nenhuma	-9.10447
▁Primeiro	-9.1065
▁fizeram	-9.1073
▁comportamento	-9.1075
▁5	-9.11059
▁ferramentas	-9.1121
▁estudantes	-9.11293
▁colegas	-9.11384
▁mar	-9.11562
▁acesso	-9.11823
▁Europa	-9.11828
▁China	-9.11844
▁resto	-9.1185
▁Mai	-9.11869
▁filho	-9.11992
▁Unidos	-9.12051
▁após	-9.12363
▁próxima	-9.12414
▁usando	-9.12451
▁estiver	-9.12603
▁consegue	-9.12763
▁obter	-9.12861
▁chama	-9.12971
▁terem	-9.13007
▁demasiado	-9.13012
▁Iorque	-9.13012
▁exatamente	-9.13096
▁esperança	-9.13211
▁juntos	-9.1344
▁principal	-9.13814
▁Acho	-9.14258
▁passo	-9.14358
▁laboratório	-9.14446
▁mercado	-9.14481
ta	-9.14494
▁Sou	-9.14555
▁amor	-9.14848
▁sob	-9.14958
▁áreas	-9.14967
▁Clar	-9.14981
rem	-9.1507
▁perguntas	-9.15222
▁embora	-9.15248
▁espera	-9.15424
▁teoria	-9.15428
▁trata	-9.15454
▁decidi	-9.1556
▁melhorar	-9.15902
té	-9.15971
▁redes	-9.16072
▁aumentar	-9.16222
▁máquina	-9.16386
▁pegar	-9.16767
▁importantes	-9.16827
▁alunos	-9.17185
S	-9.17261
▁jovem	-9.17278
▁naquele	-9.17279
quê	-9.17642
▁te	-9.17673
▁cientistas	-9.17826
▁América	-9.17903
▁Existe	-9.17903
▁irá	-9.1797
▁capazes	-9.18053
▁conversa	-9.18065
▁crescer	-9.18146
▁desafio	-9.18185
ndia	-9.18249
▁ia	-9.18303
▁novos	-9.18471
▁ensino	-9.19034
▁físico	-9.19165
▁carbono	-9.1918
▁acabar	-9.19215
▁estrada	-9.19236
▁notícias	-9.19433
▁basicamente	-9.19802
▁tanta	-9.19802
▁livre	-9.19816
▁alto	-9.19819
▁grupos	-9.20033
▁sejam	-9.20043
z	-9.20061
▁computadores	-9.20065
▁funcionar	-9.2014
ê	-9.20312
▁objetivo	-9.2045
▁vir	-9.20467
▁plano	-9.20479
▁pensam	-9.20493
0	-9.20681
▁recursos	-9.2072
▁pontos	-9.20864
▁capaz	-9.20936
▁médico	-9.20995
▁veem	-9.21089
▁devido	-9.2109
▁tomar	-9.21311
ação	-9.21404
▁tivesse	-9.21608
▁mundial	-9.21792
▁duma	-9.21859
▁finalmente	-9.22103
▁visto	-9.22314
▁resultados	-9.22483
al	-9.22493
▁gostaria	-9.22606
▁leva	-9.22607
▁Estamo	-9.2261
▁tiver	-9.22958
▁fundamental	-9.22996
▁direito	-9.23036
▁material	-9.23049
▁questões	-9.23057
▁contrário	-9.23057
▁efeito	-9.2309
▁tecnologias	-9.23277
inda	-9.23506
▁inteligente	-9.23724
▁co	-9.23811
▁200	-9.23945
▁rob	-9.24208
on	-9.24288
00	-9.24321
▁mensagem	-9.24378
ing	-9.24391
▁sete	-9.24521
▁marca	-9.24729
▁correr	-9.24884
▁necessidade	-9.25049
▁norte	-9.25071
▁números	-9.25083
▁económico	-9.25144
▁próprios	-9.25719
▁tecido	-9.25725
▁padrões	-9.25728
en	-9.25819
▁uso	-9.26279
▁Google	-9.26405
▁sexo	-9.26532
▁porta	-9.26538
▁tenham	-9.26654
4	-9.2687
▁seguro	-9.27091
▁assunto	-9.27091
▁tratamento	-9.27119
▁pobres	-9.27181
▁estudar	-9.27225
▁neurónios	-9.27243
▁começaram	-9.27505
▁metade	-9.27783
▁sequer	-9.27786
▁pensamento	-9.27805
▁andar	-9.27808
▁Quer	-9.27911
▁continua	-9.28156
▁60	-9.28199
▁80	-9.28362
▁nisto	-9.28474
▁quarto	-9.28475
▁relações	-9.28511
▁rua	-9.28699
▁mãos	-9.28807
▁devem	-9.28808
▁li	-9.28848
▁lidar	-9.29229
▁tirar	-9.29273
lguns	-9.293
▁linguagem	-9.29878
▁coração	-9.29927
▁devemos	-9.2993
▁Precisa	-9.29999
▁mapa	-9.30123
▁fotografia	-9.3015
▁houve	-9.30155
ismo	-9.30175
▁oito	-9.30197
c	-9.30475
▁ensinar	-9.30571
▁pessoal	-9.30887
▁materiais	-9.31301
▁direitos	-9.31315
▁fonte	-9.31346
▁errado	-9.31375
▁aprendizagem	-9.31432
▁caixa	-9.31634
▁altera	-9.31642
▁procurar	-9.3172
▁lugares	-9.31806
urante	-9.31823
▁escolas	-9.31862
▁auto	-9.3189
▁superfície	-9.32021
▁física	-9.32346
C	-9.32634
▁boas	-9.32635
▁Músic	-9.32745
▁consciência	-9.32745
▁fantástico	-9.32745
▁pod	-9.3281
▁cento	-9.32965
▁comprar	-9.33052
▁aprendi	-9.33161
▁produtos	-9.33472
▁pedaço	-9.33475
▁levou	-9.33481
▁digo	-9.33486
▁descoberta	-9.33497
▁Neste	-9.33501
▁Esse	-9.33601
▁podiam	-9.3365
▁4	-9.33875
▁consig	-9.34043
▁lei	-9.34107
▁código	-9.34211
▁online	-9.34211
▁acredito	-9.34331
▁custo	-9.34534
▁sítio	-9.34674
▁trás	-9.3477
▁feliz	-9.34797
▁liberdade	-9.34951
▁mostra	-9.34958
▁mudou	-9.34958
▁descobrimos	-9.35268
▁democracia	-9.3537
▁sangue	-9.35729
▁investigação	-9.35731
K	-9.35778
passe	-9.35832
▁pagar	-9.35908
▁pior	-9.3593
ivelmente	-9.36049
▁permite	-9.36157
▁Tinha	-9.36248
gem	-9.36372
▁geração	-9.36532
▁planta	-9.36758
▁digital	-9.36759
▁Nos	-9.37045
▁doentes	-9.37196
▁buraco	-9.37207
▁fazia	-9.3724
▁explicar	-9.37407
▁25	-9.37462
▁metros	-9.37538
▁12	-9.37561
▁11	-9.37611
▁qualidade	-9.37902
▁morrer	-9.37974
▁distância	-9.37976
▁frequente	-9.38002
▁vivem	-9.38044
ca	-9.3811
▁extrema	-9.3823
▁Estava	-9.38363
▁branco	-9.38709
▁repente	-9.3874
▁polícia	-9.38741
▁médicos	-9.38851
▁chega	-9.3902
▁período	-9.39515
▁Quanto	-9.39516
▁instituições	-9.39516
▁90	-9.39643
▁usam	-9.39646
▁aula	-9.39798
▁comunidades	-9.40064
▁falta	-9.40254
▁média	-9.40297
▁escolha	-9.40309
▁entender	-9.40814
co	-9.40819
▁L	-9.4101
▁faço	-9.41084
▁naquela	-9.41086
▁verdadeiro	-9.41105
unca	-9.41109
ria	-9.4115
▁curso	-9.41185
▁parar	-9.41253
▁massa	-9.41451
▁cara	-9.41697
▁manhã	-9.4182
▁aspeto	-9.41877
▁produto	-9.41941
▁crise	-9.42022
▁Oh	-9.42609
▁luta	-9.42666
▁razões	-9.42677
▁surpreendente	-9.42687
▁produção	-9.42719
▁Sabe	-9.4306
▁media	-9.43068
▁famílias	-9.43157
▁nuclear	-9.43334
▁velocidade	-9.43484
▁informações	-9.43492
▁desejo	-9.43553
▁sonho	-9.43577
▁poderá	-9.4379
▁observar	-9.43884
▁pedir	-9.44119
▁forte	-9.44173
▁paciente	-9.44302
▁negócio	-9.44406
▁acreditar	-9.44538
▁salvar	-9.44543
▁interior	-9.44635
▁carta	-9.44792
▁importa	-9.44925
▁igual	-9.45101
▁pobreza	-9.45118
▁limite	-9.45124
▁animal	-9.45142
▁sol	-9.45285
▁fotos	-9.45421
▁70	-9.45613
▁via	-9.45628
▁total	-9.45646
an	-9.45668
▁comer	-9.45733
▁devia	-9.45772
▁produzir	-9.45826
▁baixa	-9.45916
▁veio	-9.45943
▁esquerda	-9.45944
▁ligação	-9.46025
▁primeiros	-9.46162
▁esperar	-9.46266
▁18	-9.46408
▁espécies	-9.46574
▁Parece	-9.46634
▁líderes	-9.46839
in	-9.46845
▁perspetiva	-9.47616
▁petróleo	-9.47616
▁inteiro	-9.47617
▁povo	-9.47676
fiquei	-9.47701
▁ouvido	-9.47805
▁presente	-9.47842
▁jogo	-9.47867
▁regi	-9.4805
▁Cad	-9.48075
▁edifícios	-9.48103
ti	-9.48529
▁Vejam	-9.4878
▁Re	-9.48803
▁inter	-9.48833
▁cuidados	-9.48985
▁chamamos	-9.49145
▁deveria	-9.49166
▁medicina	-9.49354
▁parque	-9.49374
▁parecer	-9.49375
f	-9.49516
▁gosto	-9.49576
ste	-9.49595
▁célula	-9.4974
▁bons	-9.49959
ais	-9.50046
▁escolher	-9.50115
▁época	-9.50204
▁responder	-9.5021
▁revolução	-9.50225
▁transformar	-9.50308
▁regras	-9.50375
▁bebé	-9.50542
▁edifício	-9.50549
▁lista	-9.50773
▁pensem	-9.50798
▁desenvolver	-9.50872
▁hospital	-9.50878
▁conseguia	-9.50996
▁antigo	-9.51052
▁abrir	-9.5106
▁vejo	-9.51097
▁Qual	-9.51112
▁olha	-9.5116
▁raparigas	-9.51379
5	-9.51407
▁modelos	-9.51842
▁longa	-9.51927
▁vítima	-9.51927
▁Muita	-9.51928
▁humanidade	-9.51929
▁pois	-9.51951
▁esforço	-9.51972
▁senti	-9.52254
▁essencial	-9.52278
▁acordo	-9.52674
▁favor	-9.52777
▁matéria	-9.52813
▁comunicação	-9.52834
▁percebi	-9.52843
▁familiar	-9.52958
▁f	-9.53364
▁Pensem	-9.53406
▁pena	-9.53476
ado	-9.53549
▁solar	-9.53579
eis	-9.53683
▁par	-9.53739
▁topo	-9.53763
▁necessário	-9.54216
ficou	-9.54267
▁Da	-9.54318
▁super	-9.54395
▁incr	-9.54449
ância	-9.54486
▁pouca	-9.54606
▁transporte	-9.54607
▁mês	-9.54607
▁gráfico	-9.54635
▁absoluta	-9.54772
▁passou	-9.54803
▁mesmos	-9.54857
▁genes	-9.55011
▁Co	-9.55023
▁posição	-9.55113
▁foto	-9.55168
▁estranho	-9.55178
▁tens	-9.55326
D	-9.55397
▁cá	-9.55401
I	-9.5555
▁prazo	-9.55629
▁lembrar	-9.55729
▁usada	-9.55732
g	-9.5587
▁oceano	-9.56075
▁Mesm	-9.56233
le	-9.56396
▁palco	-9.56433
▁sensação	-9.56433
▁poderosa	-9.56462
▁abaixo	-9.56608
▁pudesse	-9.56672
▁cont	-9.56718
▁rápido	-9.57038
▁governos	-9.57233
▁sociedades	-9.57325
▁Univers	-9.57344
▁rendimento	-9.57359
▁vós	-9.57368
ina	-9.57391
▁inovação	-9.57416
▁17	-9.57448
▁mental	-9.57997
▁ligar	-9.58061
▁negócios	-9.58168
▁climática	-9.58293
▁amostra	-9.58296
▁direita	-9.58332
▁terríve	-9.58374
▁serviços	-9.58375
▁Bom	-9.58642
▁permitir	-9.58758
▁câmara	-9.59008
▁emprego	-9.59063
▁lutar	-9.59175
▁pensa	-9.59202
▁vírus	-9.5932
▁km	-9.59366
▁vimos	-9.5962
ve	-9.59631
▁professor	-9.59657
▁começam	-9.59755
▁Fu	-9.59878
▁mau	-9.59978
▁projecto	-9.59991
▁semelhante	-9.60018
▁feita	-9.60027
ém	-9.60035
x	-9.6007
▁roda	-9.60132
▁bloco	-9.60189
▁onda	-9.60348
▁ficam	-9.60541
▁sinal	-9.60591
▁bili	-9.60717
▁fizer	-9.60771
▁gostam	-9.60901
▁casos	-9.60918
man	-9.61012
▁preço	-9.6104
▁vivo	-9.61067
▁universidade	-9.6115
▁malária	-9.61154
▁construção	-9.61183
▁céu	-9.61202
▁fomos	-9.61316
▁Deixem	-9.61336
▁organização	-9.61361
▁can	-9.61537
▁mesa	-9.61682
▁19	-9.61683
▁muda	-9.61744
mbos	-9.61766
▁conceito	-9.61986
▁análise	-9.6215
▁porquê	-9.62681
A	-9.62875
▁utilizar	-9.62916
▁deixa	-9.62922
▁cadeia	-9.63012
▁Vi	-9.63077
▁aspecto	-9.63102
▁sorte	-9.63102
▁potencial	-9.63182
ávamos	-9.63205
▁evolução	-9.63452
▁árvores	-9.63522
▁G	-9.63814
▁descobri	-9.63886
▁perder	-9.63938
▁enviar	-9.63964
il	-9.64001
▁filha	-9.64018
▁zona	-9.64065
▁compaixão	-9.64092
▁cadeira	-9.64092
▁Tive	-9.64094
▁padrão	-9.64103
▁usado	-9.64142
▁tu	-9.64218
▁perna	-9.64222
▁depressa	-9.64367
▁8	-9.64422
▁fala	-9.64423
▁abordage	-9.64449
▁querer	-9.64567
▁ganhar	-9.64597
▁políticos	-9.64723
▁dança	-9.64813
▁cidadãos	-9.65046
▁telemóvel	-9.65092
▁inglês	-9.65092
▁Outra	-9.65097
▁chegou	-9.65098
▁condições	-9.65112
▁perfeita	-9.65122
▁per	-9.65265
tudo	-9.65405
▁Facebook	-9.66102
8	-9.66105
▁sério	-9.66107
▁trazer	-9.66111
▁década	-9.66187
▁artista	-9.66189
▁parecem	-9.66267
▁decisão	-9.6628
▁aprendemos	-9.66353
▁doente	-9.6639
▁Do	-9.66691
▁vivemos	-9.66717
éis	-9.66761
ma	-9.66807
▁contexto	-9.67122
▁visual	-9.6714
▁aberto	-9.67149
▁explorar	-9.67225
▁sentimento	-9.67272
▁literal	-9.67419
▁busca	-9.67477
▁pé	-9.6779
▁dor	-9.67876
▁mudanças	-9.67947
▁ouvi	-9.68012
▁encontro	-9.68022
▁décadas	-9.68067
9	-9.68111
▁pensava	-9.68145
▁políticas	-9.68152
▁genoma	-9.68153
▁superior	-9.68155
▁milhão	-9.68186
▁conhecer	-9.68456
▁reconhecer	-9.68579
▁fun	-9.68594
▁tua	-9.68618
son	-9.68667
ada	-9.68968
▁partículas	-9.68995
▁terreno	-9.69196
▁biologia	-9.69196
▁investimento	-9.69203
▁peso	-9.69203
▁diga	-9.69204
▁juntar	-9.69243
eiro	-9.69244
▁vive	-9.69312
▁frase	-9.69488
▁chamar	-9.69557
▁máquinas	-9.697
▁fossem	-9.69722
▁significado	-9.69731
▁usamos	-9.69777
▁obviamente	-9.69798
▁sinto	-9.69808
▁anterior	-9.69827
ramos	-9.6983
▁esteja	-9.70074
▁proteger	-9.70232
▁pele	-9.70248
▁chão	-9.70249
responsabilidade	-9.70254
▁alimentar	-9.70405
▁daqui	-9.70454
▁teu	-9.70474
▁parede	-9.70495
▁erro	-9.70513
é	-9.70514
▁conduzir	-9.70565
▁funcionam	-9.70603
▁irmã	-9.70755
▁Est	-9.70812
vários	-9.71056
▁estudos	-9.71071
cia	-9.71144
▁So	-9.71299
▁Têm	-9.71328
▁logo	-9.71342
▁gelo	-9.71348
▁decisões	-9.71468
▁camada	-9.71472
▁tocar	-9.71499
▁possibilidade	-9.71609
▁princípio	-9.7161
▁dev	-9.71697
ro	-9.72195
▁receber	-9.72259
▁aldeia	-9.72387
▁montanha	-9.72387
▁impossível	-9.72398
▁azul	-9.72524
▁acima	-9.7253
▁Sul	-9.72535
▁controlar	-9.72539
▁recebe	-9.72592
▁espero	-9.72617
▁14	-9.72648
▁capital	-9.72649
▁interesse	-9.72651
▁indivíduos	-9.72713
▁peça	-9.72737
▁13	-9.72762
▁pública	-9.7293
ter	-9.73092
▁entra	-9.73236
▁depende	-9.73289
▁sobreviver	-9.73431
▁aparelho	-9.73474
▁dúvida	-9.73474
▁campanha	-9.73474
▁encontrei	-9.73484
▁incluindo	-9.73488
▁daquela	-9.7349
▁abelhas	-9.73492
▁nove	-9.73533
▁cirurgia	-9.73545
3	-9.73589
▁complexo	-9.73882
▁taxa	-9.74017
▁chave	-9.74084
pressão	-9.74244
▁inteligência	-9.74573
▁opini	-9.74573
▁direção	-9.74578
remos	-9.74654
▁olharem	-9.74669
dade	-9.74685
▁c	-9.74692
▁avó	-9.74791
▁hipótese	-9.75023
▁leis	-9.7514
▁terceiro	-9.75252
▁aparecer	-9.75339
T	-9.75678
▁sina	-9.75683
▁Acontece	-9.75684
▁presidente	-9.75684
▁ritmo	-9.75685
▁estrelas	-9.75832
▁memória	-9.76161
k	-9.76233
plicação	-9.76349
▁defini	-9.76419
▁199	-9.76738
▁janela	-9.76807
▁nacional	-9.76823
▁imediatamente	-9.76864
▁membros	-9.76868
▁tiveram	-9.77192
▁objeto	-9.77364
▁Hav	-9.7755
▁maneiras	-9.77696
▁estive	-9.77759
▁acham	-9.77806
▁verde	-9.77815
▁casas	-9.77875
▁dizia	-9.7791
▁tratar	-9.77927
▁connosco	-9.77944
▁vermelho	-9.77944
▁tornam	-9.77946
▁Ca	-9.77975
ália	-9.77991
▁tido	-9.7802
▁tenta	-9.78049
▁encontramos	-9.78624
▁certamente	-9.78718
▁criado	-9.78804
▁escrito	-9.78918
▁sub	-9.79
▁drogas	-9.79011
▁debate	-9.79119
▁Posso	-9.79129
▁Alguma	-9.79239
▁Nem	-9.79297
▁Po	-9.79303
▁conhecemos	-9.79366
▁efeitos	-9.79416
▁vêem	-9.79509
▁criação	-9.79521
missão	-9.79621
▁utilizador	-9.7967
▁nasce	-9.79706
▁prática	-9.79751
▁página	-9.79754
▁olho	-9.80048
▁Chris	-9.8012
▁aumento	-9.80141
▁fábrica	-9.80256
▁importância	-9.80256
▁banco	-9.80281
▁cedo	-9.8032
▁considerar	-9.8035
▁sentem	-9.80579
re	-9.80579
P	-9.80676
▁custos	-9.80694
▁Ser	-9.8085
▁usa	-9.80854
▁rapariga	-9.80988
▁exemplos	-9.80992
▁le	-9.81264
▁difíc	-9.81426
ídeo	-9.8143
▁convosco	-9.81432
▁vontade	-9.81432
▁rosto	-9.81433
▁química	-9.81436
▁Vai	-9.81537
▁especialista	-9.81582
▁costumava	-9.817
▁16	-9.8172
▁acha	-9.8182
▁poderiam	-9.8192
▁t	-9.82055
▁viram	-9.82214
▁cresce	-9.824
▁queriam	-9.82448
▁deixem	-9.82509
▁prisão	-9.82623
▁software	-9.82624
▁perguntei	-9.82626
▁escrita	-9.82627
▁quiserem	-9.82709
▁agir	-9.8274
▁ligado	-9.82792
▁felizes	-9.82871
▁mover	-9.8289
▁ameaça	-9.83079
▁vindo	-9.83124
▁6	-9.83142
▁diria	-9.83557
▁rapaz	-9.83701
▁apoio	-9.83706
▁sendo	-9.8378
▁The	-9.83808
▁complexidade	-9.83827
▁mensagens	-9.83827
▁inteira	-9.83828
▁sul	-9.83915
▁puder	-9.8394
▁site	-9.83971
▁religião	-9.83973
▁monte	-9.83993
▁apresentar	-9.84022
▁casamento	-9.84051
▁bomba	-9.84053
▁Des	-9.84153
▁Qua	-9.84258
▁ca	-9.84461
▁atingir	-9.84532
▁facil	-9.84658
▁nota	-9.84729
▁deu	-9.84828
▁epidemia	-9.85047
▁pintura	-9.85047
▁órgão	-9.85047
▁exterior	-9.85047
▁económica	-9.85069
▁jornalista	-9.85097
▁trabalhadores	-9.851
▁imaginem	-9.8532
▁Tal	-9.85406
pe	-9.85415
▁passei	-9.85483
▁Ei	-9.85499
▁alterar	-9.85587
▁terceir	-9.85735
▁ruas	-9.85913
▁bocado	-9.85961
▁tendência	-9.85988
▁erros	-9.86028
▁característica	-9.86282
▁objecto	-9.86282
▁moral	-9.86284
▁Descobri	-9.86284
▁cheia	-9.86285
▁texto	-9.86304
▁compreensão	-9.86321
▁alcançar	-9.86393
▁exacta	-9.86515
▁acaba	-9.86604
▁enfrentar	-9.86655
▁alvo	-9.86707
▁armas	-9.86831
ável	-9.8705
▁carreira	-9.87158
▁medicamentos	-9.87183
▁ecrã	-9.87279
▁poderoso	-9.87303
▁subir	-9.87445
▁prova	-9.87453
▁espírito	-9.87532
▁temperatura	-9.87532
▁Natureza	-9.87532
▁organizações	-9.87536
▁tradicional	-9.87541
▁paz	-9.87549
▁ti	-9.87596
génio	-9.87613
▁evitar	-9.87718
▁debaixo	-9.87763
▁aulas	-9.87902
▁medir	-9.88043
▁depressão	-9.88058
▁viu	-9.88066
▁morre	-9.88269
cabou	-9.88455
▁daquele	-9.88607
▁estrela	-9.88637
▁usá	-9.88777
▁Afeganistão	-9.88797
▁fenómeno	-9.88797
▁propósito	-9.88797
▁barato	-9.88798
▁breve	-9.88804
▁brincar	-9.88857
▁moléculas	-9.89079
▁so	-9.89104
ça	-9.89143
▁negros	-9.89504
▁mercados	-9.89524
▁vejam	-9.89668
6	-9.89698
▁parecia	-9.89783
▁respeito	-9.89961
▁serviço	-9.89968
▁stress	-9.89975
▁Mundial	-9.90079
▁pronto	-9.9008
▁direta	-9.90096
▁marido	-9.90097
▁crença	-9.90118
▁Mo	-9.90138
▁vossas	-9.9015
ce	-9.90205
▁alimento	-9.90298
▁motivo	-9.90317
▁vale	-9.90533
▁matar	-9.90786
▁representa	-9.91037
▁encontra	-9.912
▁identidade	-9.91216
▁eficaz	-9.91223
▁solo	-9.91275
▁ponta	-9.91373
▁beleza	-9.91378
▁GP	-9.91385
▁New	-9.91389
▁acidente	-9.914
▁areia	-9.91407
▁consumo	-9.91407
▁reduzir	-9.91439
▁Ma	-9.91446
lém	-9.91547
▁curva	-9.91655
final	-9.91702
camente	-9.91707
▁oportunidades	-9.91707
penas	-9.91749
ard	-9.9186
▁tema	-9.91962
▁tornaram	-9.91972
ante	-9.92218
▁acreditam	-9.92332
ie	-9.92413
▁24	-9.92459
▁extraordinária	-9.92694
▁gás	-9.92697
▁documentos	-9.92718
▁conhecido	-9.92728
▁dão	-9.92778
▁rio	-9.92878
▁ex	-9.93079
▁terminar	-9.93116
▁relativa	-9.93373
▁central	-9.93785
▁estivesse	-9.93994
▁género	-9.94027
▁profissionais	-9.94027
▁noutro	-9.94028
▁calor	-9.94029
▁lixo	-9.9403
▁científico	-9.94036
▁ferramenta	-9.94083
tais	-9.94278
lá	-9.94323
▁visita	-9.94394
níveis	-9.94466
▁quilómetros	-9.94626
▁adoro	-9.94672
▁conseguiu	-9.94734
▁500	-9.94762
▁bebés	-9.94815
▁formação	-9.94884
▁programas	-9.95068
▁viva	-9.95117
▁diferenças	-9.95217
▁elementos	-9.95229
▁micro	-9.95245
inguém	-9.95376
▁micróbio	-9.95379
▁carvão	-9.95379
▁justiça	-9.95379
▁paixão	-9.95379
▁carne	-9.9538
▁cheguei	-9.95392
▁W	-9.95433
▁preso	-9.95442
▁dez	-9.95497
▁Chama	-9.95593
▁avançar	-9.95701
▁permitem	-9.95908
ho	-9.9597
▁investir	-9.96319
▁caro	-9.96388
io	-9.96414
▁fome	-9.96552
▁toca	-9.96586
▁Lo	-9.96741
▁escritório	-9.96749
▁segredo	-9.96749
▁John	-9.96749
▁ótimo	-9.96749
▁estilo	-9.96754
▁sentado	-9.96798
▁perda	-9.96876
▁velho	-9.9692
▁cart	-9.96942
▁cientista	-9.96945
▁claramente	-9.96968
▁falamos	-9.97474
▁7	-9.9753
▁gosta	-9.97661
ura	-9.97734
▁meia	-9.97916
M	-9.98014
▁artistas	-9.9803
▁pensá	-9.98054
▁silêncio	-9.98139
▁Oriente	-9.98147
▁proteção	-9.9816
▁cabelo	-9.98163
▁dito	-9.98185
▁rápida	-9.9823
▁imensa	-9.98243
▁aceitar	-9.98244
▁imenso	-9.98275
▁vento	-9.98305
▁companhia	-9.9834
▁bairro	-9.98346
▁ataque	-9.98356
▁senhor	-9.98721
▁seda	-9.9879
L	-9.98928
▁sentia	-9.99071
▁fortes	-9.99393
▁aparece	-9.99416
▁exce	-9.99516
▁Certo	-9.99546
▁graça	-9.99554
▁deixou	-9.99562
▁História	-9.99571
▁felicidade	-9.99572
▁Marte	-9.996
▁designer	-9.99614
▁científica	-9.9978
▁brilhante	-9.99812
▁reparar	-9.99918
▁americanos	-10.0006
amos	-10.0006
expressão	-10.0008
▁pratica	-10.0009
▁varia	-10.0014
▁organismo	-10.0037
▁198	-10.0039
▁má	-10.0043
▁sai	-10.0047
▁motor	-10.0056
▁Tom	-10.007
▁conheci	-10.0076
▁médica	-10.0097
▁menina	-10.0097
▁quanta	-10.0097
▁fascinante	-10.0098
▁arquitetura	-10.01
▁Médio	-10.01
▁imaginação	-10.0104
▁construído	-10.0106
▁profunda	-10.0107
▁profundo	-10.0109
▁comunicar	-10.0112
▁crime	-10.0114
▁existir	-10.0118
▁útil	-10.0122
▁começamos	-10.0124
▁método	-10.013
▁bola	-10.013
▁tarefa	-10.0135
▁comuns	-10.0142
▁conflito	-10.0144
▁cuidado	-10.0144
▁desafios	-10.0145
▁descrever	-10.0151
▁Vemo	-10.017
▁fotografias	-10.0187
▁disponíve	-10.0231
im	-10.0232
▁chamo	-10.0233
▁dever	-10.0234
▁fazerem	-10.0242
▁naturais	-10.0242
▁Norte	-10.0242
▁criatividade	-10.0242
▁letra	-10.0243
▁provável	-10.0243
▁cego	-10.0243
▁vantage	-10.0243
▁televisão	-10.0244
▁analisar	-10.0246
▁avião	-10.0247
▁velha	-10.0247
▁sons	-10.0251
▁voar	-10.026
▁zero	-10.0264
▁maravilhoso	-10.0266
▁genética	-10.0278
▁antiga	-10.0281
▁rato	-10.0283
▁independente	-10.0291
▁cama	-10.0303
▁certas	-10.0306
▁irmão	-10.0339
dor	-10.0348
▁fé	-10.0357
mpre	-10.0358
▁algu	-10.0358
▁Segund	-10.036
▁300	-10.0374
etc	-10.0389
▁Brasil	-10.0389
▁Londres	-10.0389
▁atmosfera	-10.0389
▁riqueza	-10.0389
▁treino	-10.0389
▁café	-10.0389
▁amiga	-10.039
▁quadro	-10.039
▁roupa	-10.0392
▁Irão	-10.0392
▁batalha	-10.0393
▁reais	-10.0393
▁cai	-10.0395
ista	-10.0397
▁arranjar	-10.0401
▁cabo	-10.0403
▁escreveu	-10.041
▁técnicas	-10.0416
▁pares	-10.0418
▁aranha	-10.0419
▁frequência	-10.0423
▁surgir	-10.0429
▁aberta	-10.0431
▁di	-10.0432
▁passam	-10.0446
▁ultrapassar	-10.0446
▁tivessem	-10.0446
by	-10.0446
▁atualmente	-10.0454
▁consequências	-10.0454
▁principa	-10.0487
▁K	-10.0491
▁Sem	-10.0495
▁extra	-10.0497
▁popular	-10.0499
▁termo	-10.0504
▁menor	-10.0523
▁audiência	-10.0539
▁sombra	-10.0539
▁narrativa	-10.0541
▁bela	-10.0543
▁desenhar	-10.0545
▁implica	-10.0558
▁bactérias	-10.0573
▁autor	-10.0575
▁político	-10.0595
▁Sol	-10.0601
▁fase	-10.0606
▁Ba	-10.0609
▁evento	-10.0631
▁interessa	-10.0636
ados	-10.0643
▁cri	-10.0651
▁acredita	-10.0652
▁sexual	-10.0665
U	-10.0675
▁individuais	-10.069
▁chuva	-10.069
▁Twitter	-10.069
▁fazendo	-10.069
▁eleições	-10.069
▁acaso	-10.0691
▁revista	-10.0693
▁Gostaria	-10.0694
▁conclus	-10.0702
▁frio	-10.0703
▁baseado	-10.0705
▁sermos	-10.0707
H	-10.0727
▁poderem	-10.0728
▁notas	-10.0737
▁encontrámos	-10.0742
▁conteúdo	-10.0746
▁telefone	-10.0751
▁minuto	-10.0754
trás	-10.0763
▁preocupa	-10.0809
▁canto	-10.0831
▁aumenta	-10.0833
▁cenário	-10.0844
▁círculo	-10.0844
▁rádio	-10.0844
▁Aquele	-10.0844
▁lua	-10.0845
▁óbvio	-10.0845
▁impressão	-10.0848
▁origem	-10.0853
▁fal	-10.0856
▁façam	-10.0857
▁conhecem	-10.0858
▁magi	-10.0859
▁contacto	-10.0864
▁trabalha	-10.0866
▁pista	-10.087
▁incríve	-10.0872
▁profundamente	-10.0872
▁testar	-10.0872
▁falam	-10.0885
▁anti	-10.0885
▁afirma	-10.0897
▁sítios	-10.0902
▁perigo	-10.0903
▁Tu	-10.0907
▁dispositivo	-10.0912
▁negro	-10.0914
▁ratos	-10.0957
nas	-10.0976
versão	-10.0979
▁sentimos	-10.098
▁precisava	-10.0981
▁Acredit	-10.0983
▁meios	-10.0987
▁lembro	-10.0989
▁forças	-10.0991
▁plástico	-10.1
▁privacidade	-10.1
▁pudé	-10.1
▁Calif	-10.1
▁plataforma	-10.1
▁dezena	-10.1001
▁ciclo	-10.1002
▁agricultores	-10.1004
órni	-10.1006
▁apanhar	-10.101
▁divis	-10.1014
▁obrigada	-10.1019
▁conhecida	-10.1021
▁engenharia	-10.1024
▁feitas	-10.1028
▁alma	-10.1032
▁investigador	-10.1039
▁adolescentes	-10.1039
▁trabalh	-10.1042
▁precisar	-10.1045
▁escuro	-10.1053
▁desaparecer	-10.1054
▁perfeito	-10.1061
▁con	-10.1065
▁ganho	-10.1065
▁árabe	-10.1072
bilidade	-10.1074
▁perce	-10.1081
▁quis	-10.11
▁dado	-10.111
▁construímo	-10.1123
▁Dr	-10.1127
or	-10.1131
▁dum	-10.1132
▁encontram	-10.1135
▁projetos	-10.1138
▁sentimentos	-10.1143
▁começo	-10.1146
pção	-10.1154
▁insecto	-10.1159
▁símbolo	-10.1159
▁Houve	-10.1159
▁saudável	-10.1159
▁Outro	-10.1161
▁fogo	-10.1162
▁realizar	-10.1168
▁disponíveis	-10.1173
▁quente	-10.1176
b	-10.1181
▁Man	-10.1184
▁civil	-10.1191
quilo	-10.1193
▁galáxias	-10.1236
▁maravilhosa	-10.1238
▁objetos	-10.1241
▁sozinho	-10.1242
▁artigo	-10.1242
▁Fo	-10.1246
▁luzes	-10.1249
▁interessantes	-10.1265
▁custa	-10.1275
rovavelmente	-10.1275
▁mostram	-10.1282
▁pudessem	-10.1291
▁actual	-10.1307
▁continuam	-10.132
▁desaparece	-10.132
▁perspectiva	-10.132
▁tradicionais	-10.132
▁chegá	-10.132
▁probabilidade	-10.132
▁surpresa	-10.1321
▁haja	-10.1322
▁Vo	-10.1323
▁pão	-10.1324
el	-10.1327
▁surge	-10.1331
▁agricultura	-10.1333
▁gene	-10.1333
▁vender	-10.1364
▁arma	-10.1379
▁participar	-10.1388
▁primo	-10.1398
▁árvore	-10.1414
▁notícia	-10.1415
▁Ali	-10.1428
▁chamam	-10.1432
▁Disse	-10.1437
▁decidir	-10.144
▁olhem	-10.1458
▁cola	-10.1474
tar	-10.1475
▁boca	-10.1475
▁momentos	-10.148
▁conseguirmos	-10.1481
▁fixe	-10.1484
▁sustentável	-10.1484
▁receita	-10.1485
▁desempenho	-10.1485
▁parecido	-10.1487
▁criou	-10.1493
▁escolhas	-10.1495
▁enormes	-10.1496
ações	-10.1498
▁apareceu	-10.1499
▁evolui	-10.1503
▁rapazes	-10.1505
▁descobriu	-10.1506
▁estejam	-10.1523
▁pro	-10.1524
▁9	-10.1549
▁oferecer	-10.1552
▁criá	-10.1564
▁daquilo	-10.1572
▁progresso	-10.1576
▁gostava	-10.1578
▁peixe	-10.1585
adas	-10.159
▁venda	-10.1593
▁Unido	-10.1594
▁peças	-10.1597
▁cozinha	-10.1608
di	-10.1613
▁partilha	-10.1615
ry	-10.1616
▁197	-10.1622
▁pude	-10.1623
▁jornal	-10.1639
▁leve	-10.1643
▁básica	-10.1651
▁complicado	-10.1651
▁mecânica	-10.1651
▁máxim	-10.1651
▁telemóveis	-10.1651
▁demais	-10.1653
▁discurso	-10.1655
▁clara	-10.1659
DA	-10.1659
feira	-10.1661
▁distribuiç	-10.1662
▁original	-10.1669
▁dentes	-10.167
pa	-10.168
creio	-10.1687
dia	-10.1714
▁refugiados	-10.1718
▁errada	-10.1728
▁benefícios	-10.1746
▁gastar	-10.1755
▁Ent	-10.1762
▁segundos	-10.1777
▁ben	-10.178
▁recuperar	-10.1784
▁andava	-10.1797
▁unidade	-10.1799
▁faça	-10.1807
▁Japão	-10.182
▁infância	-10.182
▁clima	-10.182
▁igualdade	-10.1822
50	-10.1822
▁públicos	-10.1822
▁preto	-10.1824
▁espantoso	-10.1825
▁positiva	-10.1826
▁precisão	-10.1827
▁Foram	-10.1828
▁responsável	-10.1829
▁deviam	-10.1832
▁oposto	-10.1837
▁gostar	-10.1844
este	-10.185
▁Numa	-10.1851
▁Rein	-10.1857
▁U	-10.1858
americanos	-10.1872
▁formar	-10.189
▁pré	-10.1913
▁americana	-10.1915
riamente	-10.1916
▁faculdade	-10.1927
▁cheio	-10.1929
▁indivíduo	-10.194
▁porco	-10.1947
▁registo	-10.1949
▁excelente	-10.1949
▁opera	-10.1955
▁constante	-10.1968
▁subi	-10.1975
▁prazer	-10.1976
▁cura	-10.1978
▁trouxe	-10.199
▁médio	-10.1993
▁bonito	-10.1993
▁eletricidade	-10.1993
▁voto	-10.1994
▁artificial	-10.2002
▁falso	-10.2002
▁baseada	-10.2005
▁exploração	-10.2007
▁atravessar	-10.2008
▁chefe	-10.2015
▁x	-10.2015
▁substituir	-10.2016
▁pa	-10.2025
▁contas	-10.2028
▁devo	-10.2032
▁ricos	-10.2033
▁morta	-10.204
▁idosos	-10.2055
▁vídeos	-10.2059
▁humanas	-10.2067
▁viajar	-10.2067
icamente	-10.2071
▁av	-10.2075
lguém	-10.2076
▁toneladas	-10.2078
▁espacial	-10.2086
▁visitar	-10.21
▁traz	-10.2101
▁Som	-10.211
▁equipamento	-10.2121
▁Trata	-10.2122
▁colega	-10.2123
▁Num	-10.214
redor	-10.2143
ci	-10.2148
▁sonhos	-10.2156
▁pés	-10.2162
▁identificar	-10.2163
▁larga	-10.2165
▁cami	-10.2167
vergonha	-10.2168
▁Infeliz	-10.2168
▁exército	-10.2168
▁classe	-10.2168
nstein	-10.2168
▁lenta	-10.2169
▁moda	-10.217
▁clientes	-10.2172
▁riso	-10.2173
▁cena	-10.2177
▁empatia	-10.2177
▁infelizmente	-10.2178
▁defender	-10.2189
▁quiser	-10.2196
▁Pens	-10.2196
▁invisíve	-10.22
▁empregos	-10.2207
▁graus	-10.2223
▁emissões	-10.2227
▁conversas	-10.2232
▁ganha	-10.2232
G	-10.224
▁páginas	-10.2245
▁ouro	-10.2263
ne	-10.2266
▁motiva	-10.2266
▁cultural	-10.2283
tro	-10.2288
▁cair	-10.2288
áveis	-10.2292
▁preocupar	-10.2296
▁extraordinário	-10.2301
▁sequência	-10.2301
▁fantástica	-10.2304
▁molécula	-10.2307
▁más	-10.2309
▁emocional	-10.2327
▁Al	-10.2327
▁tumor	-10.2331
▁militar	-10.2333
▁atividade	-10.234
▁existia	-10.2343
▁Guerra	-10.2347
▁internacional	-10.2347
▁kg	-10.2347
▁vidro	-10.2347
▁chip	-10.2347
▁cortar	-10.2348
▁TV	-10.235
▁garantir	-10.2352
▁confiar	-10.2354
▁ignor	-10.2354
▁fibra	-10.2355
▁seriam	-10.2356
▁perguntou	-10.2356
▁retirar	-10.2365
▁transforma	-10.2366
▁deserto	-10.2369
érci	-10.2372
▁mentira	-10.2373
éria	-10.2383
▁saí	-10.2396
▁Le	-10.2414
MS	-10.2416
▁dizemos	-10.2429
▁torná	-10.2459
▁atual	-10.246
▁princípios	-10.2478
▁quinta	-10.2483
▁grave	-10.2484
▁nele	-10.2492
▁desenho	-10.2492
▁costa	-10.2493
▁braço	-10.2494
▁técnica	-10.2501
▁vacinas	-10.2504
▁libertar	-10.2512
▁ponte	-10.2516
▁segura	-10.2524
▁Higgs	-10.2529
▁compromisso	-10.2529
▁crítica	-10.2529
▁noutra	-10.2529
▁barata	-10.2529
▁infantil	-10.2529
▁objectivo	-10.253
▁Bo	-10.2531
▁voltei	-10.2531
▁anda	-10.2533
▁significativa	-10.2533
▁gerações	-10.2534
▁Pelo	-10.2536
▁ligações	-10.2536
IB	-10.2541
▁1000	-10.2546
▁vivia	-10.2549
li	-10.2551
▁grav	-10.2551
▁constantemente	-10.2556
▁poupar	-10.256
▁estaria	-10.2572
▁preparar	-10.2573
▁tivé	-10.2576
▁descobriram	-10.2583
▁passaram	-10.2601
▁Vão	-10.2614
▁Poder	-10.2617
▁pensarmos	-10.264
▁proteínas	-10.2655
▁Eram	-10.2662
▁irem	-10.2663
ic	-10.2667
▁planetas	-10.2673
▁diminui	-10.2688
▁pobre	-10.2689
▁fato	-10.2703
▁Contu	-10.2705
▁autocarro	-10.2714
▁variedade	-10.2714
▁vermelha	-10.2714
▁sozinha	-10.2714
▁famoso	-10.2714
▁Canadá	-10.2714
▁divertido	-10.2715
▁Nesta	-10.2715
▁telescópio	-10.2715
▁mortalidade	-10.2715
▁2008	-10.2716
▁terrorista	-10.2717
▁Espero	-10.2718
▁obtemos	-10.2718
▁dimensões	-10.2719
▁prever	-10.272
▁rara	-10.272
▁volume	-10.272
▁perdido	-10.2723
▁combustível	-10.2725
▁gerir	-10.2732
mail	-10.2736
▁completa	-10.274
▁adicionar	-10.2749
▁Grande	-10.2754
▁cem	-10.2758
ordem	-10.2762
,5	-10.2781
▁noção	-10.2787
▁ouvimos	-10.279
▁far	-10.2806
idão	-10.2808
▁afastar	-10.282
▁Ri	-10.2821
eza	-10.2838
tas	-10.2838
▁possibilidades	-10.285
ço	-10.2857
▁conflitos	-10.2858
▁tarefas	-10.2858
▁certos	-10.2874
▁ataques	-10.2874
▁pessoais	-10.2876
▁provar	-10.2883
ir	-10.2885
▁propriedade	-10.2885
▁estudante	-10.2886
ticamente	-10.2891
▁Alemanha	-10.2903
▁específico	-10.2903
▁poesia	-10.2903
▁sofrimento	-10.2903
▁Lembro	-10.2903
▁equivalente	-10.2903
▁fundamentais	-10.2903
▁sabíamos	-10.2904
▁gritar	-10.2904
vivência	-10.2905
▁prestes	-10.2905
▁curto	-10.2907
▁Iraque	-10.2908
▁recebi	-10.2913
▁vizinhos	-10.2923
▁Fique	-10.293
▁falhar	-10.2949
▁Di	-10.295
▁aplicações	-10.2959
▁faziam	-10.2968
▁adultos	-10.3012
▁Começa	-10.3034
jo	-10.304
tório	-10.3047
▁bairros	-10.3066
▁engenheiros	-10.3068
▁membro	-10.3085
▁expans	-10.3087
▁sofrer	-10.3089
▁diálogo	-10.3095
▁exercício	-10.3095
▁reputação	-10.3095
▁vazio	-10.3095
▁mantém	-10.3095
▁bonita	-10.3095
▁macho	-10.3095
▁opções	-10.3095
▁coragem	-10.3097
▁aniversário	-10.3098
▁muçulmano	-10.3098
▁universal	-10.3103
▁argumento	-10.3103
▁terrorismo	-10.3103
▁jogar	-10.3116
▁data	-10.312
ássemos	-10.312
▁semelhantes	-10.313
B	-10.3142
aram	-10.3148
▁Mar	-10.3159
▁participa	-10.3167
ley	-10.3175
7	-10.3178
▁gas	-10.319
▁digita	-10.3197
▁dispositivos	-10.3204
ário	-10.3205
▁salto	-10.3218
▁dificuldades	-10.327
▁email	-10.3271
▁secundário	-10.3274
▁moderna	-10.3285
▁apoiar	-10.3289
▁estranha	-10.3291
▁gripe	-10.3291
▁hospitais	-10.3291
▁trânsito	-10.3291
▁destino	-10.3291
▁jantar	-10.3291
▁diversidade	-10.3291
▁instituição	-10.3292
▁funcionário	-10.3292
▁2009	-10.3293
▁trabalham	-10.3293
▁branca	-10.3297
▁pedido	-10.3308
▁interagir	-10.3312
▁corre	-10.3321
▁raça	-10.3324
▁criam	-10.3334
▁recolher	-10.3356
lmente	-10.3359
agens	-10.3361
▁focar	-10.3368
▁Entre	-10.3373
▁práticas	-10.3377
▁sabiam	-10.3391
▁espalhar	-10.3396
▁mudaram	-10.3403
▁sugerir	-10.3413
▁Queria	-10.3419
▁obra	-10.3426
▁indica	-10.3437
▁Fiz	-10.344
▁votar	-10.3455
▁juntas	-10.3479
▁museu	-10.3487
▁Israel	-10.3491
▁triste	-10.3491
▁bocadinho	-10.3491
▁imprensa	-10.3491
▁Feliz	-10.3491
▁prémio	-10.3491
▁circuito	-10.3491
▁mistério	-10.3491
▁economista	-10.3491
▁Adoro	-10.3491
▁tinta	-10.3491
▁pedra	-10.3491
▁envolvido	-10.3491
▁resistência	-10.3491
▁barulho	-10.3492
▁negra	-10.3492
▁Austr	-10.3492
▁necessária	-10.3493
▁mostrou	-10.3494
▁urbano	-10.3495
▁detalhes	-10.3495
▁consumidores	-10.3496
▁obras	-10.3496
▁Paris	-10.3499
ver	-10.3506
▁21	-10.3507
▁banho	-10.3509
▁terço	-10.3513
gestão	-10.3514
▁transformação	-10.3517
nel	-10.3519
▁limita	-10.3531
▁recupera	-10.3535
▁quisermos	-10.3539
▁Uni	-10.3553
▁diziam	-10.3556
▁Ah	-10.3557
▁Seria	-10.3566
tude	-10.3582
▁Bill	-10.3592
▁regressar	-10.3598
▁Querem	-10.3605
▁senhora	-10.3611
▁hipóteses	-10.3613
▁complexos	-10.3621
▁comentários	-10.3631
tendo	-10.3634
▁liga	-10.3657
▁dura	-10.366
igo	-10.3674
▁requer	-10.3676
▁orienta	-10.3677
▁líder	-10.368
ha	-10.3692
▁México	-10.3695
▁VIH	-10.3695
▁comprimento	-10.3695
▁dívida	-10.3695
▁quântica	-10.3695
▁Washington	-10.3695
▁Começámo	-10.3695
▁poema	-10.3695
▁existência	-10.3695
▁reconstruir	-10.3696
▁Quénia	-10.3696
▁paisagem	-10.3697
▁transição	-10.3697
▁festa	-10.3697
▁400	-10.3701
▁esqueleto	-10.3701
▁face	-10.3702
▁nela	-10.3706
▁moeda	-10.3706
▁fronteira	-10.3707
▁droga	-10.371
ton	-10.3712
▁perigoso	-10.3712
▁produz	-10.3713
▁completo	-10.3715
inho	-10.3717
▁Ver	-10.3722
▁sensor	-10.3726
▁sapato	-10.3729
▁provas	-10.3735
▁cão	-10.3744
▁ouviram	-10.3755
▁estados	-10.3756
com	-10.3757
▁su	-10.3764
▁Precisam	-10.3767
posição	-10.3779
▁Sei	-10.3799
▁inventar	-10.38
inha	-10.3806
ler	-10.3814
▁mosquitos	-10.382
▁Pro	-10.3826
cção	-10.3846
▁pensado	-10.3847
▁bater	-10.3848
▁estarem	-10.3861
▁frases	-10.3863
▁comportamentos	-10.3868
▁Sr	-10.3871
▁destrui	-10.3876
▁velhos	-10.3882
▁envolver	-10.3898
▁desastre	-10.3903
▁específica	-10.3903
▁oxitocina	-10.3903
▁possíveis	-10.3903
▁relevante	-10.3903
▁cuidar	-10.3904
▁reconhecimento	-10.3904
▁exame	-10.3904
▁Mãe	-10.3904
▁esquerdo	-10.3904
▁técnico	-10.3905
▁situações	-10.3906
▁seguida	-10.3908
▁fatores	-10.3912
▁mistura	-10.3916
▁corrente	-10.3916
▁diagnóstico	-10.3917
▁loja	-10.3922
▁chamou	-10.3923
▁fila	-10.3925
▁dificuldade	-10.3925
▁popula	-10.3932
▁virtual	-10.3932
▁corpos	-10.3936
▁advogado	-10.3937
▁bio	-10.3948
▁decidiu	-10.3948
▁ato	-10.3957
▁nomes	-10.3961
▁experimentar	-10.3969
tualmente	-10.3983
▁peixes	-10.3987
▁estranhos	-10.3987
americana	-10.3999
▁comercial	-10.4016
▁profissional	-10.4019
▁junta	-10.402
▁elemento	-10.4023
▁publica	-10.4028
▁bl	-10.4044
▁h	-10.407
▁vacina	-10.4074
▁35	-10.4078
▁causar	-10.4097
lhando	-10.4099
▁torno	-10.4104
▁res	-10.4114
▁combustíve	-10.4115
▁curiosidade	-10.4116
▁iguais	-10.4116
▁metáfora	-10.4116
▁promessa	-10.4116
▁terapia	-10.4116
▁Francisco	-10.4116
▁microscópio	-10.4116
▁exposição	-10.4117
▁aceite	-10.4117
▁piada	-10.4117
▁permitiu	-10.4119
▁restaurante	-10.4119
▁Tínhamo	-10.4121
▁saída	-10.4122
▁reação	-10.4123
▁Homem	-10.4128
▁beber	-10.4128
▁explicação	-10.4129
▁ilha	-10.413
▁barco	-10.4131
▁Consegue	-10.4132
▁militares	-10.4135
▁acabado	-10.4135
▁ilusão	-10.414
▁estratégia	-10.4144
▁mecanismo	-10.4145
▁eixo	-10.415
▁Anders	-10.4151
▁aluno	-10.4157
gito	-10.4168
▁apercebi	-10.4174
▁dada	-10.418
▁percorrer	-10.4182
▁passada	-10.4187
▁contrato	-10.4195
▁interessados	-10.4195
▁trans	-10.4209
cidente	-10.4223
▁virem	-10.4226
za	-10.4227
▁vira	-10.4246
▁22	-10.4255
▁individual	-10.4256
F	-10.4261
▁troca	-10.4264
go	-10.4264
▁ajudam	-10.4268
▁paredes	-10.4283
▁Cri	-10.429
istas	-10.4294
▁liberta	-10.4305
▁gerar	-10.4317
▁Du	-10.432
▁trabalhava	-10.433
▁admira	-10.433
▁Inglaterra	-10.4333
▁Nenhum	-10.4333
▁personalidade	-10.4333
▁web	-10.4333
▁website	-10.4333
▁ótima	-10.4333
▁saudáveis	-10.4334
▁França	-10.4334
▁eventual	-10.4334
▁fracasso	-10.4337
▁fluxo	-10.4337
O	-10.4338
▁belo	-10.4339
uros	-10.4344
▁dormir	-10.4344
▁fico	-10.4348
▁relacionada	-10.435
▁setembro	-10.4358
▁Dois	-10.4361
▁tentativa	-10.4365
▁veículo	-10.4374
▁amar	-10.4405
▁utiliza	-10.441
▁45	-10.4415
bido	-10.4419
▁nervoso	-10.4421
▁150	-10.443
▁programar	-10.4438
▁repetir	-10.4465
▁seguintes	-10.4469
agem	-10.4472
▁pega	-10.4474
ível	-10.4487
▁aproxima	-10.4492
▁contribui	-10.4513
▁Li	-10.4526
avelmente	-10.4528
▁religi	-10.453
▁Consegui	-10.4542
▁equaç	-10.4555
▁aconteça	-10.4556
▁cardíaco	-10.4556
▁clínica	-10.4556
▁esposa	-10.4556
▁jardim	-10.4556
▁influência	-10.4556
▁liderança	-10.4556
▁proposta	-10.4556
▁colónia	-10.4556
▁fósseis	-10.4556
▁convencer	-10.4556
▁Big	-10.4557
▁Angeles	-10.4558
▁ligeiramente	-10.4558
▁corrida	-10.4563
▁esconder	-10.4563
▁ajudou	-10.4566
▁expandir	-10.4567
▁recompensa	-10.4567
▁transmitir	-10.4572
ava	-10.4572
▁organizar	-10.458
▁lançar	-10.4591
ização	-10.4594
▁conselho	-10.4601
▁alternativa	-10.4606
▁falo	-10.4607
▁moderno	-10.4612
▁recebem	-10.4619
▁tom	-10.4623
▁chegam	-10.463
▁escura	-10.4635
▁Dia	-10.4638
▁duro	-10.466
▁primeiras	-10.4683
▁servir	-10.4684
▁Diz	-10.4693
▁salas	-10.4704
iro	-10.4718
▁criaram	-10.4735
▁pre	-10.474
▁companhias	-10.475
▁faria	-10.476
lu	-10.4762
▁factos	-10.4767
▁rei	-10.477
▁segui	-10.4781
▁passava	-10.4782
▁discussão	-10.4783
▁distúrbio	-10.4783
▁elétrico	-10.4783
▁histórico	-10.4783
▁prioridade	-10.4783
▁título	-10.4783
▁êxito	-10.4783
▁madeira	-10.4783
posições	-10.4783
▁Apple	-10.4783
▁Final	-10.4783
▁entropia	-10.4789
▁aprende	-10.479
▁coloca	-10.4791
▁positivo	-10.4793
▁alegria	-10.4793
rês	-10.4803
▁criminoso	-10.4804
▁olhou	-10.4809
mar	-10.4809
▁limpa	-10.4815
▁assistir	-10.4821
▁acelerar	-10.4823
▁civilizaç	-10.4824
rmais	-10.4826
▁usou	-10.4827
tores	-10.4834
▁junto	-10.4837
▁bicicleta	-10.484
▁cálculo	-10.4843
po	-10.4843
▁conferência	-10.4845
▁medicamento	-10.4847
▁soa	-10.4877
▁acab	-10.4916
▁passos	-10.4923
ntrou	-10.4928
▁osso	-10.4929
▁La	-10.4935
▁esperava	-10.4943
anha	-10.4954
▁aproximar	-10.4968
▁diante	-10.4975
N	-10.4981
▁mundia	-10.4996
doria	-10.5003
▁acontecido	-10.5016
▁comboio	-10.5016
▁equilíbrio	-10.5016
▁inferior	-10.5016
▁protótipo	-10.5016
▁Pessoa	-10.5016
▁Nessa	-10.5016
▁desigualdade	-10.5016
▁dizendo	-10.5016
▁cujo	-10.5016
▁literatura	-10.5016
▁aproveitar	-10.5016
▁salário	-10.5017
car	-10.5019
▁clar	-10.5019
▁usados	-10.5023
▁Rich	-10.5023
▁violenta	-10.5025
▁considerado	-10.5026
▁respondeu	-10.5027
▁Arte	-10.5031
▁explosão	-10.5036
▁Rec	-10.5041
▁decidiram	-10.5043
▁lições	-10.5043
▁extens	-10.505
▁impedir	-10.5055
▁Norma	-10.5055
▁mandar	-10.5056
▁achava	-10.5056
▁virar	-10.5057
bol	-10.5059
▁comparação	-10.506
▁voo	-10.5061
ição	-10.5062
▁levado	-10.5076
▁fugir	-10.5077
▁chora	-10.5083
▁agência	-10.5084
▁carregar	-10.5088
▁gigante	-10.5088
▁levantar	-10.5089
▁proteína	-10.509
▁partido	-10.5095
▁oceanos	-10.5099
▁aplicar	-10.51
▁competi	-10.51
▁capacidades	-10.5117
▁raio	-10.5125
▁honra	-10.5129
▁tento	-10.5131
R	-10.5136
chave	-10.5137
▁direcç	-10.5148
▁americano	-10.5159
▁perturba	-10.5166
▁Quere	-10.5169
lin	-10.5172
▁Fi	-10.5181
nt	-10.5194
W	-10.5197
▁métodos	-10.5199
land	-10.5221
▁Eis	-10.5226
▁sal	-10.5226
▁fronteiras	-10.5244
▁acabam	-10.5247
▁propor	-10.5252
▁Institut	-10.5254
▁académico	-10.5254
▁doméstica	-10.5254
▁globais	-10.5254
▁hormona	-10.5254
▁ampla	-10.5254
▁percurso	-10.5254
▁Paul	-10.5255
▁Nobel	-10.5255
▁Significa	-10.5255
▁anúncio	-10.5255
▁ativista	-10.5255
▁rica	-10.5255
▁saco	-10.5256
▁botão	-10.5259
▁aproximadamente	-10.5264
tradição	-10.5267
▁evidência	-10.5268
▁pico	-10.5279
▁correta	-10.5289
▁aprendem	-10.5299
▁químicos	-10.53
▁braços	-10.53
▁guia	-10.5303
▁diminuir	-10.5308
▁radiaç	-10.5313
▁maus	-10.5317
▁componentes	-10.532
▁seca	-10.5324
▁espantosa	-10.5328
▁privado	-10.5331
▁desenvolvido	-10.5332
▁nação	-10.5336
▁africanos	-10.5362
ork	-10.5372
et	-10.538
▁combater	-10.5396
▁sofre	-10.5406
▁assustador	-10.541
▁interesses	-10.5422
▁sa	-10.5429
▁jogos	-10.5431
▁fo	-10.544
▁funcion	-10.5444
▁toque	-10.5445
▁brilhantes	-10.5453
▁representam	-10.5457
▁ficamos	-10.5475
▁Davi	-10.5482
E	-10.5492
riam	-10.5496
▁revela	-10.5497
▁cerebral	-10.5498
▁conectoma	-10.5498
▁mamífero	-10.5498
▁permanente	-10.5498
▁imigrante	-10.5498
▁produtividade	-10.5498
▁Museu	-10.5498
▁vinha	-10.5498
▁aparente	-10.5499
▁portát	-10.5499
▁repara	-10.5503
ga	-10.5504
▁envelhecimento	-10.5504
▁especiais	-10.5504
▁aquecimento	-10.5505
chei	-10.5505
zum	-10.5506
▁tendem	-10.5507
▁ce	-10.5509
▁banda	-10.551
fa	-10.5511
▁orçamento	-10.5512
▁nuvem	-10.5518
▁saiu	-10.552
▁SI	-10.5522
▁eficazes	-10.5527
▁cozinhar	-10.5529
▁preços	-10.5534
▁representação	-10.5536
▁úteis	-10.5537
▁Ga	-10.5539
▁Thom	-10.554
▁eliminar	-10.554
▁combina	-10.5542
▁criaturas	-10.5545
▁seguido	-10.5548
▁levam	-10.5549
▁sintomas	-10.5555
▁questionar	-10.5556
olução	-10.5558
▁querido	-10.5563
▁soube	-10.5572
▁guarda	-10.5582
▁respira	-10.5586
▁cometa	-10.5591
estar	-10.5601
▁electric	-10.5606
▁artigos	-10.5617
▁tira	-10.5621
▁corte	-10.5628
▁legal	-10.5633
▁Log	-10.5635
ago	-10.5636
▁Mu	-10.5645
vi	-10.5669
▁27	-10.5672
▁Me	-10.5672
aiti	-10.5681
BG	-10.5684
▁mudam	-10.5697
▁veículos	-10.5701
▁maravilha	-10.5716
mbora	-10.5721
▁norma	-10.5731
▁dimens	-10.5737
▁responsáve	-10.5739
▁CRISPR	-10.5748
▁descoberto	-10.5748
▁horrível	-10.5748
▁intestino	-10.5748
▁lógica	-10.5748
▁relatório	-10.5748
▁tijolo	-10.5748
▁choque	-10.5748
▁Frank	-10.5748
▁menino	-10.5748
▁leitura	-10.5748
▁2007	-10.5749
▁Nesse	-10.5749
▁extrair	-10.5751
▁mantêm	-10.5753
▁Bang	-10.5754
▁iam	-10.5754
▁preferida	-10.5755
▁soldado	-10.5757
▁discutir	-10.5757
▁inspiração	-10.5758
▁detetar	-10.5762
▁arco	-10.5763
tei	-10.5764
▁amanhã	-10.5766
▁Faz	-10.5771
▁pedi	-10.5772
▁limitado	-10.5774
qui	-10.5774
▁propriedades	-10.5775
alquer	-10.5776
▁partilhado	-10.578
▁caminhar	-10.5782
▁circunstâncias	-10.5785
▁Web	-10.5785
eira	-10.5789
ni	-10.5789
▁morreram	-10.579
▁oxi	-10.5809
có	-10.581
▁lembrem	-10.5814
▁Fizemo	-10.5814
▁nano	-10.5815
▁observa	-10.5818
▁pós	-10.5819
▁investigar	-10.5828
▁descer	-10.5828
▁Olhem	-10.5848
▁financeira	-10.5848
▁rai	-10.585
▁quadrado	-10.5853
▁ecossistema	-10.5854
dora	-10.5871
▁agarrar	-10.5884
tentei	-10.5885
▁conheç	-10.5919
▁fio	-10.5924
ur	-10.5944
Bret	-10.5946
▁Ter	-10.5947
entemente	-10.5949
▁escrevi	-10.5986
▁gera	-10.5992
▁engano	-10.5999
▁aves	-10.6003
▁cinema	-10.6004
▁telhado	-10.6004
▁cuja	-10.6004
▁suposto	-10.6004
▁biológica	-10.6004
▁Grã	-10.6004
▁chinês	-10.6004
▁Mulher	-10.6004
▁refere	-10.6004
▁cantar	-10.6005
▁essência	-10.6006
▁Aquela	-10.6006
▁Nacional	-10.6006
▁biblioteca	-10.6006
▁sentada	-10.6008
▁PM	-10.6009
▁placa	-10.601
▁194	-10.6024
▁ensaio	-10.6031
v	-10.6036
▁representar	-10.6042
▁daqueles	-10.6043
▁cita	-10.6049
▁louca	-10.6059
▁destruir	-10.6062
▁Times	-10.6072
ó	-10.6075
▁Tinham	-10.6081
ego	-10.6081
ck	-10.6082
▁instrumentos	-10.6097
▁radical	-10.6098
▁pago	-10.6115
▁toma	-10.6119
▁pesca	-10.6123
▁cavalo	-10.6124
▁algoritmo	-10.6128
▁flor	-10.6132
▁empreendedor	-10.6133
▁eficiente	-10.6137
▁algoritmos	-10.6141
▁verdes	-10.6142
ford	-10.6161
▁condutor	-10.618
▁lembra	-10.6183
▁Basic	-10.6184
▁gasto	-10.6188
▁elevado	-10.6191
▁responde	-10.6217
▁mães	-10.6217
▁diretor	-10.6219
up	-10.624
▁inicial	-10.6252
▁previs	-10.6258
▁pergunto	-10.6259
▁Ua	-10.626
▁grava	-10.6264
▁market	-10.6265
▁tribuna	-10.6267
▁Harvard	-10.6267
▁agulha	-10.6267
▁filósofo	-10.6267
▁mínimo	-10.6267
▁núcleo	-10.6267
▁obstáculo	-10.6267
▁privilégio	-10.6267
▁veterano	-10.6267
▁igreja	-10.6267
▁conex	-10.6267
▁famosa	-10.6267
▁Aprendi	-10.6268
Tub	-10.6268
▁percentagem	-10.6268
▁mostrei	-10.6268
▁transpar	-10.6269
▁Coca	-10.627
▁Ciro	-10.627
▁necessariamente	-10.6272
▁presença	-10.6272
▁religiosa	-10.6272
▁visível	-10.6273
▁percebem	-10.6273
▁bateria	-10.6274
▁ficção	-10.6275
▁automóvel	-10.6275
▁notável	-10.6281
▁75	-10.6283
at	-10.6288
▁abordar	-10.6291
▁cheiro	-10.6291
▁escolar	-10.63
▁abrigo	-10.6307
ch	-10.6313
▁sente	-10.632
▁perigosa	-10.6324
▁Quais	-10.6331
▁Ouvi	-10.636
▁olham	-10.6363
▁Gan	-10.6367
▁deixam	-10.6372
ine	-10.6374
▁estatísticas	-10.6374
▁desce	-10.6376
▁Jam	-10.6385
▁significava	-10.6388
▁tent	-10.6393
▁oh	-10.6397
▁habita	-10.64
▁elefante	-10.6402
▁gato	-10.6403
▁séculos	-10.6405
▁complexa	-10.6405
▁reserva	-10.6407
▁galáxia	-10.6408
▁morto	-10.6408
▁inevitáve	-10.6409
▁196	-10.6412
▁Acab	-10.6414
▁entrevista	-10.6426
▁industrial	-10.6428
▁movimentos	-10.6435
▁tio	-10.6436
▁23	-10.6444
▁antigas	-10.6465
line	-10.647
▁casar	-10.6483
▁ilumina	-10.6499
▁milha	-10.6503
▁avalia	-10.6509
sia	-10.6511
▁viera	-10.6513
net	-10.6515
▁construí	-10.6518
▁pilha	-10.6521
▁dólar	-10.6522
▁acto	-10.6525
juntamente	-10.653
▁sentar	-10.6533
▁MIT	-10.6537
▁Prémio	-10.6537
▁aleatória	-10.6537
▁inimigo	-10.6537
▁universitário	-10.6537
▁procedimento	-10.6537
▁tecnológica	-10.6537
▁iniciativa	-10.6538
▁fechado	-10.6538
▁deram	-10.6539
▁cega	-10.6539
▁figura	-10.6541
▁bolha	-10.6542
▁mexer	-10.6543
▁justo	-10.6544
▁estima	-10.6546
▁relacionado	-10.6549
▁falei	-10.6549
▁pintar	-10.6551
▁candidato	-10.6558
▁funções	-10.6559
▁tomada	-10.6561
▁Gab	-10.6566
der	-10.6567
▁operação	-10.6569
▁funda	-10.6574
▁serve	-10.6578
iz	-10.6582
▁competição	-10.6584
▁morri	-10.6587
▁san	-10.6592
▁defesa	-10.6594
Cola	-10.6604
▁contribuir	-10.661
bra	-10.6616
ten	-10.6618
▁referi	-10.662
▁parceiros	-10.6625
▁satélites	-10.6636
▁acção	-10.6644
▁conform	-10.6645
SP	-10.6646
ed	-10.6654
▁basta	-10.6658
▁naturalmente	-10.6663
▁colaboraç	-10.6665
▁mortos	-10.6671
▁sozinhos	-10.6671
▁formos	-10.6673
mba	-10.6683
▁criativo	-10.6688
fi	-10.6692
▁caixas	-10.6693
▁consequência	-10.6694
▁recurso	-10.6698
▁criada	-10.6703
▁átomos	-10.6705
▁processa	-10.6708
▁africano	-10.671
ita	-10.6716
▁metro	-10.6717
30	-10.6723
▁ocorrer	-10.6723
▁avaliar	-10.6723
▁públicas	-10.6729
▁verem	-10.6733
▁ficava	-10.6737
ntro	-10.6746
▁levanta	-10.6746
▁cresci	-10.6767
▁nev	-10.6769
tis	-10.6777
▁salva	-10.6781
▁vá	-10.6785
▁falava	-10.6799
▁capita	-10.6803
▁Mal	-10.6812
▁Alzheimer	-10.6815
▁microfone	-10.6815
▁negocia	-10.6815
▁tópico	-10.6815
▁Direito	-10.6815
▁Paquist	-10.6815
▁tragédia	-10.6815
▁atitude	-10.6815
▁mentais	-10.6815
▁instalações	-10.6815
▁diária	-10.6815
▁judeu	-10.6816
▁prosperidade	-10.6816
▁Amazóni	-10.6817
dula	-10.6817
▁pagamento	-10.6817
▁voltou	-10.6821
▁ocidental	-10.6822
▁fabricante	-10.6824
▁agentes	-10.6824
vo	-10.6832
▁eficiência	-10.6833
▁domínio	-10.6833
▁tirada	-10.6833
▁alcance	-10.6835
▁crescente	-10.6838
▁estivessem	-10.6841
▁estabelecer	-10.6841
▁navegar	-10.6848
▁publicado	-10.6848
▁instru	-10.6852
▁percebemos	-10.6863
▁morrem	-10.6865
▁houvesse	-10.687
▁Ta	-10.688
▁matemáticos	-10.6881
▁afeta	-10.6889
▁desistir	-10.6907
▁achar	-10.6917
▁prestar	-10.6924
▁pessoalmente	-10.6925
▁voluntários	-10.6928
▁criador	-10.6928
▁atacar	-10.693
▁reforma	-10.6937
rmos	-10.6952
ês	-10.6953
▁y	-10.696
▁Volt	-10.696
▁escreve	-10.6965
▁referência	-10.6968
▁desconhecido	-10.6974
▁crítico	-10.6982
▁infraestrutura	-10.6983
▁continente	-10.6985
bo	-10.6985
▁estatística	-10.6985
▁competências	-10.6988
▁nascer	-10.6989
ntem	-10.6991
▁potência	-10.6993
ja	-10.6994
▁flores	-10.6995
▁ilustra	-10.7017
▁patente	-10.702
▁presentes	-10.7024
▁dissemos	-10.7065
▁sugere	-10.707
não	-10.7079
▁Fazemo	-10.7079
▁Min	-10.7082
▁g	-10.7083
▁diploma	-10.7094
▁George	-10.7101
▁curiosa	-10.7101
▁dignidade	-10.7101
▁gratuita	-10.7101
▁ângulo	-10.7101
▁Ciência	-10.7101
▁garrafa	-10.7101
▁Poderia	-10.7101
▁cópia	-10.7102
▁lançamento	-10.7102
▁tornei	-10.7102
▁Presidente	-10.7103
▁adequada	-10.7103
▁publicidade	-10.7103
▁separar	-10.7106
▁eletrónica	-10.7107
▁tubo	-10.7107
▁acessível	-10.7109
▁surgiu	-10.7109
▁correto	-10.7111
▁tentam	-10.7116
▁crédito	-10.7116
▁ódio	-10.7119
▁Lua	-10.712
▁associa	-10.7121
▁conseguirem	-10.7121
▁lados	-10.7124
▁treinar	-10.7127
▁constitui	-10.7128
▁lindo	-10.713
▁enfrentamos	-10.713
▁Stan	-10.7144
▁nucleares	-10.7157
▁saltar	-10.7157
▁poderosos	-10.7158
▁ocorre	-10.7166
▁antepassados	-10.7168
▁doce	-10.7172
▁andam	-10.7182
ida	-10.7188
▁escutar	-10.7194
▁acontecem	-10.72
▁sentirem	-10.7212
▁chegaram	-10.7214
▁ba	-10.7218
bviamente	-10.7225
▁inovador	-10.723
▁combate	-10.7234
▁captar	-10.7237
▁Gost	-10.7245
▁desculpa	-10.7256
▁consciente	-10.7257
▁concentrar	-10.7263
▁ativo	-10.7266
▁reagir	-10.7271
▁entrada	-10.7278
▁sujeito	-10.7279
▁dinâmica	-10.728
▁complicada	-10.7281
▁satélite	-10.7288
▁instrumento	-10.7291
▁Gra	-10.7293
▁interessado	-10.7306
▁falha	-10.7306
▁Pa	-10.7312
▁nervos	-10.7312
med	-10.7316
▁verificar	-10.7317
▁Ten	-10.7322
▁Ar	-10.7322
▁pássaros	-10.7328
▁dançar	-10.7348
th	-10.736
▁lar	-10.7366
▁capitalism	-10.739
▁colaps	-10.7391
▁cardíaca	-10.7395
▁curioso	-10.7395
▁injustiça	-10.7395
▁abertura	-10.7395
▁ecológica	-10.7395
▁pirata	-10.7395
▁músculo	-10.7395
▁parceria	-10.7395
▁amarelo	-10.7395
▁liceu	-10.7395
▁Número	-10.7395
▁favorito	-10.7396
▁Decidi	-10.7396
▁dúzia	-10.7397
▁excitante	-10.7398
▁alemã	-10.74
▁ideal	-10.74
▁pénis	-10.74
▁corrupção	-10.7401
▁falsa	-10.7401
▁curta	-10.7401
▁passagem	-10.7401
▁retina	-10.7403
▁espetacular	-10.7404
▁manuscrito	-10.7405
▁resulta	-10.7406
▁heróis	-10.7407
▁i	-10.7409
▁disciplina	-10.7411
▁Meu	-10.7411
▁perdida	-10.7413
one	-10.7419
▁associado	-10.742
▁observação	-10.742
▁pura	-10.7421
▁desenvolvemos	-10.7427
▁evidente	-10.7428
▁encontrado	-10.7429
▁Estive	-10.7431
▁preocupação	-10.7435
▁perdemos	-10.7441
id	-10.7446
▁costas	-10.7454
▁apontar	-10.7457
▁tornado	-10.7461
▁tendências	-10.7466
▁falando	-10.7468
▁pertence	-10.7469
▁caça	-10.7484
▁Vive	-10.7486
▁registos	-10.7492
▁nasci	-10.7499
▁cêntimos	-10.7504
▁unidades	-10.7505
▁vivos	-10.7505
▁governa	-10.7509
▁apresenta	-10.7512
izar	-10.7512
▁Repare	-10.7514
▁tratado	-10.7518
▁melhoria	-10.7537
▁complexas	-10.7541
▁revelar	-10.7542
▁perguntam	-10.7567
▁Bab	-10.7568
▁fios	-10.7579
▁tra	-10.7581
▁demora	-10.7589
▁taxas	-10.7592
▁criativa	-10.7598
▁parceiro	-10.7601
▁construída	-10.7602
▁ligada	-10.7606
▁curar	-10.7607
▁grau	-10.761
▁escur	-10.7628
▁alternativas	-10.763
▁bolas	-10.7632
▁fi	-10.7638
▁conduz	-10.7639
▁n	-10.7648
▁250	-10.7653
▁irmãos	-10.7658
art	-10.7659
▁produzi	-10.7667
▁Podia	-10.7673
▁Darwin	-10.7677
▁evoluí	-10.7679
▁molecular	-10.7682
▁orgulho	-10.7687
▁esquecer	-10.7696
óxido	-10.7698
▁Michael	-10.7698
▁cobertura	-10.7698
▁crucial	-10.7698
▁fisicamente	-10.7698
▁ilegal	-10.7698
▁esfera	-10.7698
▁olhá	-10.7698
▁primata	-10.77
▁maçã	-10.77
▁vigilância	-10.77
▁resistente	-10.7704
▁sexta	-10.7704
▁mergulho	-10.7707
▁pato	-10.7708
▁alimentação	-10.771
▁conhecidos	-10.7711
▁arquitectura	-10.7711
▁carga	-10.7715
▁CO	-10.7717
sustentabilidade	-10.7718
▁assistência	-10.7723
▁ma	-10.7723
▁especificamente	-10.7727
▁assegurar	-10.773
▁ama	-10.7733
▁conhece	-10.774
▁roubar	-10.7742
▁barreiras	-10.7745
▁invenç	-10.7747
▁ostra	-10.7748
▁calcular	-10.775
▁trabalhos	-10.7762
▁ambientes	-10.7763
▁viaj	-10.7767
▁posto	-10.7774
▁vencer	-10.7775
▁potencialmente	-10.7779
▁assumir	-10.7782
▁bar	-10.7783
ol	-10.7814
▁ocorreu	-10.7816
▁Kan	-10.7817
▁intervenç	-10.7834
▁Par	-10.7857
▁memórias	-10.7876
▁incerteza	-10.7899
▁elevada	-10.791
▁praia	-10.7912
via	-10.7913
▁medi	-10.7917
▁passeio	-10.7922
▁componente	-10.7924
▁dir	-10.7929
▁chamadas	-10.7932
▁profundas	-10.7945
▁Har	-10.7953
▁culpa	-10.796
▁existi	-10.7967
ânia	-10.8009
▁profiss	-10.801
▁bigode	-10.8011
▁britânico	-10.8011
▁pareça	-10.8011
▁retorno	-10.8011
▁variáve	-10.8011
▁vulneráveis	-10.8011
▁ansiedade	-10.8011
▁lâmpada	-10.8011
▁terramoto	-10.8011
▁gabinete	-10.8011
▁mágico	-10.8011
▁concluir	-10.8011
▁Professor	-10.8011
▁nariz	-10.8011
▁quaisquer	-10.8011
▁personagens	-10.8011
▁limpo	-10.8011
▁lento	-10.8011
▁Bob	-10.8011
▁Gostava	-10.8012
▁grá	-10.8012
▁infinita	-10.8012
▁intelectual	-10.8013
▁correio	-10.8013
▁Unidas	-10.8014
▁retrato	-10.8014
▁globalização	-10.8014
▁Mary	-10.8016
ah	-10.8016
▁coletiva	-10.8018
inhas	-10.8021
▁ONG	-10.8022
▁córtex	-10.8028
▁metal	-10.8029
▁produzem	-10.803
▁associada	-10.803
▁construi	-10.8033
▁invisíveis	-10.8034
▁fornecer	-10.8035
▁motores	-10.8045
▁fariam	-10.8054
▁formam	-10.8057
▁neuro	-10.806
▁Per	-10.8061
▁ha	-10.8063
▁apartamento	-10.8069
▁calha	-10.8069
▁fundos	-10.8071
édia	-10.8073
▁sonhar	-10.8073
▁ignorar	-10.8075
▁piores	-10.8077
dição	-10.808
▁Pe	-10.8093
▁determinar	-10.8094
gens	-10.8103
▁mina	-10.8105
▁afro	-10.8109
▁ligadas	-10.8115
men	-10.8118
▁desafiar	-10.8121
ze	-10.8126
▁inicia	-10.8134
▁v	-10.8142
▁pain	-10.8159
▁escrev	-10.8199
tiva	-10.8199
ternet	-10.8201
▁trocar	-10.8202
▁cordas	-10.8209
▁aparecem	-10.8219
▁aplica	-10.8225
▁instante	-10.8239
▁distante	-10.8253
▁Espera	-10.8254
▁matemático	-10.8257
▁fêmea	-10.8257
▁adolescente	-10.8259
▁regra	-10.8261
▁neurónio	-10.8261
▁bactéria	-10.8261
▁crescem	-10.8268
ity	-10.8274
▁redu	-10.8277
▁segue	-10.8278
▁ido	-10.8294
▁rico	-10.8295
▁entende	-10.8301
ney	-10.8303
▁nações	-10.8307
ariamente	-10.8307
ámo	-10.8317
▁vibra	-10.8321
▁acabe	-10.8324
▁conhecia	-10.8327
▁duplo	-10.8333
▁iPhone	-10.8333
▁romance	-10.8333
▁transformou	-10.8333
▁NASA	-10.8333
▁companheiro	-10.8333
▁rurais	-10.8333
ovembro	-10.8333
▁grão	-10.8333
▁hotel	-10.8333
▁sanita	-10.8333
▁cognitivo	-10.8333
▁tuberculose	-10.8333
▁giro	-10.8333
▁vaca	-10.8333
▁internacionais	-10.8334
▁estimativa	-10.8334
▁julgamento	-10.8334
▁escultura	-10.8334
▁nutriente	-10.8334
▁Síri	-10.8335
▁investidores	-10.8336
▁marcha	-10.8336
▁desesperada	-10.8337
▁projetar	-10.8338
▁comprimido	-10.8339
▁avançada	-10.8341
▁perdi	-10.8343
▁reunir	-10.8345
▁perdeu	-10.8345
▁reunião	-10.8346
▁passámos	-10.8349
▁pediu	-10.835
▁rir	-10.8353
▁apresentação	-10.8355
▁admitir	-10.8362
▁levá	-10.8368
▁franca	-10.8373
▁prim	-10.838
▁gravar	-10.8382
▁San	-10.8388
▁inova	-10.8393
▁regime	-10.8399
▁converte	-10.8404
▁Charles	-10.8407
▁fantásticas	-10.8412
▁câmaras	-10.8413
▁demorar	-10.8414
▁planear	-10.8419
ama	-10.8423
▁ética	-10.8426
▁entendem	-10.8426
▁escapar	-10.8428
amp	-10.8433
▁obes	-10.8434
uras	-10.8437
ston	-10.845
▁Fica	-10.8451
▁clínicos	-10.8451
erante	-10.8451
▁professora	-10.8464
▁determinado	-10.8481
▁necessários	-10.8482
▁condiç	-10.8504
▁move	-10.8511
▁introduzir	-10.8511
▁corredor	-10.8518
ng	-10.8518
▁preparados	-10.8522
▁Ka	-10.8526
▁Devem	-10.8536
▁corresponde	-10.8538
fo	-10.854
almoço	-10.8547
▁empregado	-10.8552
▁definir	-10.8561
▁repeti	-10.8562
▁car	-10.8565
▁plantar	-10.8567
scrição	-10.8572
▁genético	-10.8577
cabaram	-10.858
▁ombro	-10.8584
▁lago	-10.8585
▁partilhada	-10.8591
▁truque	-10.86
▁químico	-10.8602
▁criatura	-10.8603
▁result	-10.8609
▁mecanismos	-10.8621
▁respondi	-10.8624
▁normas	-10.8625
▁saibam	-10.8626
▁génio	-10.8644
▁sexua	-10.8654
▁conversar	-10.8657
▁necessárias	-10.8663
▁ambiental	-10.8666
▁Saúde	-10.8666
▁azuis	-10.8666
▁cerebrais	-10.8666
▁cilindro	-10.8666
▁impulso	-10.8666
▁raíz	-10.8666
▁secundária	-10.8666
▁licença	-10.8667
▁Ocidental	-10.8667
▁Quanta	-10.8667
▁expressõe	-10.8667
▁transmissão	-10.8667
▁acreditem	-10.8668
▁profundidade	-10.8668
▁dominante	-10.8668
▁centrais	-10.8668
▁recife	-10.8669
▁vaso	-10.8669
▁inveja	-10.867
▁mapear	-10.867
▁engraçado	-10.867
▁brinquedo	-10.867
▁colocou	-10.8671
▁correcta	-10.8671
▁abriu	-10.8672
▁apaixonada	-10.8674
▁soma	-10.8674
▁eficácia	-10.8677
▁coral	-10.8677
▁Real	-10.8678
▁lê	-10.8678
▁utilizando	-10.8679
▁avançado	-10.868
▁digam	-10.8683
▁diagrama	-10.8684
▁voc	-10.8688
▁cães	-10.8688
▁folhas	-10.869
▁teto	-10.8694
▁limitada	-10.8704
▁básicos	-10.8704
▁aumentou	-10.8704
▁Steve	-10.8705
▁eletr	-10.8714
▁Mil	-10.8715
érias	-10.8719
▁cirurgiã	-10.872
▁participante	-10.872
wa	-10.8725
▁inspirar	-10.8743
▁Senti	-10.8747
▁resistir	-10.8748
sopa	-10.8749
▁aconteceria	-10.8754
▁avaliaç	-10.8767
▁permanecer	-10.8772
▁armazena	-10.8779
▁deixaram	-10.8781
▁publicar	-10.8794
ira	-10.8794
che	-10.8795
▁dispostos	-10.8798
▁bi	-10.8817
▁Olha	-10.8817
▁pareceu	-10.8822
ba	-10.8823
▁guiar	-10.8827
▁prepara	-10.8833
quei	-10.8838
▁Torn	-10.8841
▁Ro	-10.8845
▁origina	-10.8851
▁trai	-10.8854
▁fixa	-10.886
▁perde	-10.8868
grafia	-10.887
▁suficientes	-10.8871
tivos	-10.8872
▁investi	-10.8873
abilidade	-10.8875
▁Park	-10.8877
▁mo	-10.8878
▁quebrar	-10.8886
▁mapas	-10.8891
▁nu	-10.8898
▁funcione	-10.89
zi	-10.8903
▁Pod	-10.8915
▁envolve	-10.8917
▁cálculos	-10.8921
▁desperdício	-10.8944
▁barreira	-10.8958
olina	-10.896
ito	-10.8961
▁autoridade	-10.8964
▁formato	-10.897
▁ganham	-10.8973
▁acreditava	-10.8987
▁deficiência	-10.8988
▁louco	-10.8992
▁navios	-10.9007
lina	-10.901
▁World	-10.9011
▁capítulo	-10.9011
▁clássico	-10.9011
▁currículo	-10.9011
▁dupla	-10.9011
▁europeu	-10.9011
▁obcecado	-10.9011
▁personagem	-10.9011
▁estúdio	-10.9011
▁tanque	-10.9011
▁aparência	-10.9011
▁desporto	-10.9011
▁havido	-10.9011
▁transferência	-10.9011
▁protesto	-10.9011
▁robótica	-10.9012
▁precisávamos	-10.9012
▁falhas	-10.9012
▁dieta	-10.9012
ópia	-10.9012
▁the	-10.9013
morou	-10.9014
▁teatro	-10.9016
▁Natal	-10.9017
▁Lembram	-10.9021
▁Desta	-10.9021
▁suicídio	-10.9022
▁luxo	-10.9024
▁inventor	-10.9025
▁ac	-10.9028
▁aperceber	-10.9032
▁leite	-10.9035
tor	-10.9037
▁esperto	-10.9038
▁pegada	-10.9039
▁visualizar	-10.9042
▁lobo	-10.9049
▁acontecimentos	-10.9051
▁excremento	-10.9051
▁avanço	-10.9058
▁muro	-10.9065
tri	-10.9068
▁demonstra	-10.907
▁pedimos	-10.907
▁queda	-10.9076
fia	-10.9078
▁desenhos	-10.9082
▁Son	-10.9085
▁consumi	-10.9087
ul	-10.9098
ivo	-10.9102
▁99	-10.911
▁perguntaram	-10.9114
▁Jan	-10.9115
▁partilhamos	-10.9116
ri	-10.9121
▁Sabia	-10.9123
▁montar	-10.9124
gradável	-10.9142
▁morcegos	-10.9152
▁explica	-10.9157
▁houver	-10.9157
▁continuava	-10.9161
êm	-10.9169
▁proporcionar	-10.917
▁Joe	-10.9179
ficaram	-10.9181
▁proje	-10.9186
▁forçado	-10.9199
▁confus	-10.9206
cionamento	-10.9207
▁65	-10.9208
ente	-10.9217
▁Trabalh	-10.9235
▁haveria	-10.9237
netos	-10.9237
▁Dizem	-10.9249
ciência	-10.9254
▁integra	-10.9257
sta	-10.9266
ologia	-10.9274
▁sementes	-10.9278
▁partida	-10.9284
ip	-10.9286
▁guardar	-10.9287
nta	-10.9293
▁processar	-10.9297
▁planea	-10.9309
▁bolso	-10.9314
▁barra	-10.9317
▁financeiro	-10.9326
▁36	-10.9327
▁acontecimento	-10.9328
▁básico	-10.9328
▁extremo	-10.9328
▁presa	-10.9329
▁inspirado	-10.9329
▁vizinho	-10.9331
ía	-10.9334
▁interna	-10.9342
j	-10.9349
▁II	-10.935
▁desejos	-10.9354
▁nuve	-10.9359
▁poupanças	-10.9364
cos	-10.9365
bage	-10.9366
▁Central	-10.9368
▁Congresso	-10.9368
▁egípcio	-10.9368
▁frigorífico	-10.9368
▁orgânico	-10.9368
▁raciocínio	-10.9368
▁brincadeira	-10.9368
▁óleo	-10.9368
▁Street	-10.9368
▁tremenda	-10.9368
▁Islão	-10.9368
▁mudá	-10.9368
▁informática	-10.9368
▁Leonard	-10.9369
▁arroz	-10.9369
▁bandeira	-10.9369
▁quarta	-10.9369
▁Melhor	-10.9369
▁recém	-10.9369
▁doutoramento	-10.9369
▁habilidade	-10.9369
tamente	-10.9369
▁copo	-10.937
▁anatomia	-10.937
▁jamai	-10.937
▁adequado	-10.9371
▁extinção	-10.9371
▁colaboradores	-10.9371
▁grato	-10.9371
▁deixei	-10.9372
ale	-10.9374
▁convencido	-10.9374
▁fosso	-10.9374
▁mentir	-10.9374
▁perfi	-10.9375
▁trabalhado	-10.9375
▁vasta	-10.9376
▁vasto	-10.9376
▁idosa	-10.9376
▁corrigir	-10.9377
▁possivel	-10.9379
▁adulta	-10.9381
▁mentalidade	-10.9385
avera	-10.9387
ph	-10.9388
▁traço	-10.9389
▁abrandar	-10.939
ica	-10.9392
▁ajudá	-10.9393
▁manual	-10.9394
úss	-10.9394
▁fizesse	-10.9398
▁contente	-10.9399
▁falou	-10.9402
▁compreendemos	-10.9404
gueira	-10.9409
▁Basta	-10.9411
▁encontrou	-10.9415
▁traduç	-10.9421
▁Ch	-10.9422
▁diversas	-10.9423
be	-10.9425
▁multi	-10.9428
▁fraco	-10.943
▁Cente	-10.943
▁Go	-10.9432
▁solares	-10.9433
▁32	-10.944
▁dominar	-10.9441
▁cour	-10.9441
scar	-10.9442
▁neles	-10.9443
um	-10.9445
▁demonstrar	-10.9445
▁coopera	-10.945
▁precisavam	-10.945
▁comparar	-10.9451
▁dita	-10.9455
▁dividir	-10.9455
▁escuta	-10.9465
▁antibióticos	-10.9475
▁mala	-10.9478
▁incentivos	-10.9483
▁circular	-10.9486
▁consiga	-10.9493
▁ligam	-10.9495
▁influenciar	-10.9495
bi	-10.9499
▁combinar	-10.9503
▁copiar	-10.9507
ge	-10.9509
▁insetos	-10.9515
▁entram	-10.9537
and	-10.9541
▁gasta	-10.955
tion	-10.9557
▁esper	-10.9572
tra	-10.9572
▁sofrem	-10.9576
▁colocá	-10.9579
▁abre	-10.9583
▁Conselh	-10.9586
▁chimpanzés	-10.9593
gi	-10.9605
▁informáticos	-10.9608
▁rever	-10.9621
▁Ed	-10.9629
▁editor	-10.9632
eamento	-10.9652
▁Cheg	-10.9658
▁Lei	-10.9658
▁and	-10.9659
▁possu	-10.9663
▁26	-10.9674
pareceram	-10.9675
rão	-10.9683
adores	-10.9684
▁Nat	-10.9687
▁compras	-10.9688
▁esc	-10.9706
▁limpar	-10.9706
ong	-10.9706
▁Naquel	-10.9706
▁Jane	-10.9709
▁entusiasmado	-10.9711
▁folha	-10.9713
▁nelas	-10.9722
▁consiste	-10.9729
▁aviso	-10.9734
▁Cerca	-10.9739
▁Ruanda	-10.9739
▁abundância	-10.9739
▁acontecia	-10.9739
▁centímetro	-10.9739
▁ciúme	-10.9739
▁clube	-10.9739
▁descobre	-10.9739
▁discussões	-10.9739
▁entusiasmo	-10.9739
▁estaminais	-10.9739
▁horizonte	-10.9739
▁jornada	-10.9739
▁jornais	-10.9739
▁minúsculo	-10.9739
▁rural	-10.9739
▁urgência	-10.9739
▁órbita	-10.9739
▁exigência	-10.9739
▁túne	-10.9739
▁futebol	-10.9739
▁futura	-10.9739
▁bolsa	-10.9739
▁musical	-10.9739
▁Neanderta	-10.9739
▁imigração	-10.9739
▁polui	-10.9739
▁àquele	-10.9739
hattan	-10.9739
▁agradecer	-10.974
▁apelo	-10.974
▁William	-10.974
▁metano	-10.9741
▁relacionamento	-10.9741
▁Sinto	-10.9741
▁automática	-10.9741
▁idiota	-10.9743
▁entusiasmante	-10.9743
ord	-10.9743
ido	-10.9745
▁francês	-10.9746
▁uniforme	-10.9747
▁vaga	-10.9747
▁Pela	-10.9747
ang	-10.9748
▁excesso	-10.9748
▁lavar	-10.9749
▁fechar	-10.9749
▁composto	-10.9751
pós	-10.9751
▁contraste	-10.9752
▁sector	-10.9755
▁esperam	-10.9755
▁justa	-10.9757
▁intenção	-10.9757
▁disco	-10.9758
▁tentá	-10.9761
▁percebe	-10.9764
▁Polo	-10.9764
▁nascimento	-10.9766
▁alavanca	-10.9766
▁Chic	-10.9771
ças	-10.9771
▁cumprir	-10.9773
▁diverso	-10.9777
▁põe	-10.9782
▁divertir	-10.9782
▁abandonar	-10.9782
▁escolhemos	-10.9785
▁dobro	-10.979
ional	-10.9791
▁ténis	-10.9791
▁emociona	-10.9794
▁salvo	-10.9795
▁sustentar	-10.9796
▁relacionar	-10.9797
▁unir	-10.9801
▁testemunha	-10.9804
DI	-10.9809
▁In	-10.9816
▁estud	-10.9824
ka	-10.9825
▁indo	-10.9828
▁obtive	-10.9837
▁Ban	-10.9837
▁prisioneiros	-10.9859
paração	-10.9874
▁medidas	-10.9875
▁classifica	-10.9879
▁juntam	-10.988
▁erradas	-10.9883
▁excep	-10.9886
▁preocupam	-10.9893
▁aço	-10.9899
▁Perceb	-10.9904
nacionais	-10.991
▁tornarem	-10.9919
▁Dá	-10.9925
▁setor	-10.9928
▁termina	-10.9931
reparem	-10.9937
tico	-10.9938
▁est	-10.994
▁eficientes	-10.9942
▁Estavam	-10.9945
▁anima	-10.9953
▁ficarem	-10.9961
V	-10.9964
▁durar	-10.9973
▁Continua	-10.9985
rey	-10.9987
▁baleias	-10.9988
gosto	-10.9996
ke	-10.9997
▁gigantes	-11.0003
tecnologia	-11.0007
tivo	-11.0009
▁acabá	-11.0021
st	-11.0031
▁segurar	-11.0037
▁modernos	-11.0045
▁preocupados	-11.0057
▁rota	-11.0064
▁canal	-11.0076
▁lojas	-11.0089
▁transferi	-11.0091
▁linda	-11.0098
▁impressionante	-11.0103
▁rocha	-11.0107
▁privada	-11.0108
▁dirigi	-11.0109
▁dê	-11.0111
▁herói	-11.0112
▁cliente	-11.0116
▁detalhe	-11.0116
▁pensaram	-11.0117
▁abelha	-11.0117
▁ultra	-11.0118
▁negras	-11.0122
▁aeroporto	-11.0123
▁chinesa	-11.0123
▁desconhecida	-11.0123
▁externa	-11.0123
▁cerveja	-11.0123
▁chineses	-11.0123
▁feedback	-11.0123
▁substância	-11.0123
▁energética	-11.0123
▁parcial	-11.0123
▁computação	-11.0123
▁ruído	-11.0123
▁Suécia	-11.0123
▁Nike	-11.0123
▁sagrado	-11.0123
▁negativa	-11.0124
▁tradições	-11.0124
▁peço	-11.0124
▁chá	-11.0124
▁instalação	-11.0124
▁selvagem	-11.0124
▁decide	-11.0124
▁diapositivo	-11.0124
▁àquela	-11.0124
▁orelha	-11.0126
▁inici	-11.0126
▁vertical	-11.0127
▁mito	-11.0127
▁2005	-11.0128
▁poeta	-11.0128
▁conservação	-11.0129
▁vitória	-11.0129
▁apaixonado	-11.0131
▁barri	-11.0132
▁documento	-11.0133
▁balão	-11.0133
▁aviões	-11.0133
▁sobrevive	-11.0137
▁saído	-11.0147
▁sugeri	-11.0148
▁Emma	-11.0149
▁im	-11.015
▁fusão	-11.015
▁educar	-11.015
▁ocupado	-11.0152
▁considerada	-11.0154
utub	-11.0155
▁respiração	-11.0156
▁colocado	-11.0158
▁contou	-11.0159
idos	-11.0159
▁sono	-11.0159
▁aspira	-11.0168
▁presas	-11.0169
▁secreta	-11.0175
▁desenvolveram	-11.0176
▁cultivar	-11.0183
▁habitual	-11.0183
▁incluir	-11.0185
▁agente	-11.0189
▁Fil	-11.0192
▁loucos	-11.0198
▁deixado	-11.0209
▁astrónomos	-11.0209
▁razoáve	-11.0215
▁atividades	-11.0221
▁dependente	-11.0226
▁deitar	-11.0234
ndado	-11.0235
▁remover	-11.0235
▁conto	-11.0241
▁excelentes	-11.0254
▁Mostra	-11.0259
▁interpreta	-11.0267
▁falh	-11.0271
ad	-11.0276
▁infraestruturas	-11.0285
▁Us	-11.0304
▁afetar	-11.0317
▁For	-11.035
▁ciências	-11.0351
▁Ge	-11.036
bre	-11.0361
▁laboratórios	-11.0366
▁parti	-11.0368
▁declaraç	-11.0373
▁descrev	-11.0376
▁Con	-11.0396
▁macacos	-11.04
cento	-11.0406
americano	-11.0414
▁Mi	-11.0416
ento	-11.0416
▁raios	-11.0425
ária	-11.0455
▁Fal	-11.0467
▁sexos	-11.0471
▁Cost	-11.0483
otável	-11.0498
▁Pete	-11.0504
▁vulgar	-11.0507
▁proporciona	-11.0511
▁amplia	-11.0513
▁chamava	-11.0514
▁fraca	-11.0515
róstata	-11.052
▁toler	-11.0522
▁vapor	-11.0523
▁ONU	-11.0523
▁assinatura	-11.0523
▁açúcar	-11.0523
▁desespero	-11.0523
▁espetáculo	-11.0523
▁gratidão	-11.0523
▁humilde	-11.0523
▁introvertido	-11.0523
▁músico	-11.0523
▁telefónica	-11.0523
▁ícone	-11.0523
▁Cambridge	-11.0523
▁ferida	-11.0523
▁líquido	-11.0523
▁minoria	-11.0523
▁doloroso	-11.0523
▁inquérito	-11.0523
▁inverno	-11.0523
▁paradoxo	-11.0523
▁maluco	-11.0523
▁colheita	-11.0523
▁milénio	-11.0523
▁Martin	-11.0524
▁simpático	-11.0524
▁comerciais	-11.0524
▁enfermeira	-11.0524
▁escondido	-11.0524
▁escaravelho	-11.0524
▁clicar	-11.0524
▁gordura	-11.0525
▁agrícola	-11.0525
▁raro	-11.0525
▁cimento	-11.0525
▁pausa	-11.0525
▁divertida	-11.0525
▁categoria	-11.0526
▁reator	-11.0526
▁típica	-11.0526
▁efetiva	-11.0526
▁destruída	-11.0526
▁Gates	-11.0526
▁distinguir	-11.0526
▁Tex	-11.0527
▁suporte	-11.0527
▁demasiada	-11.0528
▁poupança	-11.0529
▁Ilha	-11.0529
▁navio	-11.0529
▁transplante	-11.053
▁discrimina	-11.0531
▁refletir	-11.0532
▁aceder	-11.0532
▁assistente	-11.0532
▁renováveis	-11.0534
▁talento	-11.0535
▁pesado	-11.0535
▁desenvolveu	-11.0535
▁fác	-11.0536
▁financiamento	-11.0536
▁atingido	-11.0536
▁promover	-11.0536
▁desenvolvida	-11.0538
▁correm	-11.0538
▁escritor	-11.0538
▁escolhido	-11.0541
▁conseguiria	-11.0541
▁remoto	-11.0543
cas	-11.0543
▁acordado	-11.0543
▁2001	-11.0543
▁caras	-11.0547
▁reino	-11.0547
▁fotógrafo	-11.0547
▁parou	-11.0547
▁demonstração	-11.0548
▁conceber	-11.0548
▁escolhe	-11.055
▁piloto	-11.055
▁fumar	-11.0554
▁portas	-11.056
▁inicialmente	-11.0564
▁foco	-11.0565
lha	-11.0565
▁eleitores	-11.0567
it	-11.057
▁indicador	-11.0573
▁financeiros	-11.0573
gama	-11.0574
▁capa	-11.058
▁manipular	-11.0581
▁tornando	-11.0585
gen	-11.0593
▁ativa	-11.0598
▁quebra	-11.0599
▁Lá	-11.0602
▁ficá	-11.0602
▁liderar	-11.0604
▁truques	-11.0605
▁ensinou	-11.0608
▁adapta	-11.063
stro	-11.063
▁levaram	-11.0648
▁encorajar	-11.0648
▁Chamamos	-11.0652
▁MT	-11.0654
▁ri	-11.0654
▁meta	-11.0657
▁construídas	-11.066
▁pól	-11.0666
▁implementar	-11.0668
▁tia	-11.0676
tal	-11.0678
▁perceberam	-11.0689
▁sobreviventes	-11.069
ony	-11.069
▁Jenn	-11.0698
▁dissesse	-11.0699
un	-11.07
amento	-11.0704
ico	-11.0709
nce	-11.0711
▁aumentam	-11.0714
▁estará	-11.072
▁separado	-11.0725
nteriores	-11.0727
reio	-11.0729
ner	-11.0736
mer	-11.075
rei	-11.0754
▁vila	-11.0759
my	-11.076
ster	-11.0782
▁existentes	-11.0792
▁louc	-11.0794
eu	-11.0798
▁custar	-11.0798
▁800	-11.0798
▁Dan	-11.0807
▁simul	-11.0822
▁conseguiam	-11.0822
rdem	-11.0828
▁bord	-11.0838
▁usaram	-11.0842
▁cortes	-11.0843
▁espacia	-11.0861
▁verifica	-11.0862
▁percepç	-11.0867
▁apresentam	-11.087
▁leitor	-11.0874
▁lucros	-11.0882
▁ocupa	-11.0888
▁procuramos	-11.0889
▁substitui	-11.0892
▁estratégias	-11.0897
▁integrado	-11.0904
▁mencion	-11.0907
tembro	-11.0917
▁humor	-11.0919
dura	-11.0921
▁restri	-11.0923
▁considera	-11.0925
▁acessíve	-11.0928
olhei	-11.0929
▁120	-11.093
▁resolve	-11.0934
atch	-11.0938
▁Algo	-11.0939
▁pedras	-11.0939
▁Lembre	-11.094
▁Amazon	-11.094
▁Nelson	-11.094
▁chocante	-11.094
▁diâmetro	-11.094
▁parecida	-11.094
▁plateia	-11.094
▁tweet	-11.094
▁emergência	-11.094
▁Pouco	-11.094
▁secretária	-11.094
▁Brian	-11.094
▁dicionário	-11.094
▁jan	-11.094
▁supermercado	-11.094
▁trajetória	-11.094
▁cinzento	-11.094
▁Robert	-11.094
▁Criança	-11.094
▁egoísta	-11.094
▁filosofia	-11.094
▁beira	-11.094
▁resili	-11.094
▁filmar	-11.0941
▁fã	-11.0941
▁actividade	-11.0941
▁explicou	-11.0941
▁laço	-11.0941
▁transformá	-11.0941
woo	-11.0941
▁preservativo	-11.0942
▁utilizado	-11.0942
▁cave	-11.0943
▁óbvia	-11.0943
▁tecnológico	-11.0943
▁israelita	-11.0943
▁episódio	-11.0943
▁reuniões	-11.0944
▁multidão	-11.0945
▁Nig	-11.0945
▁flexíve	-11.0946
▁automóve	-11.0947
▁aleatori	-11.0947
▁turma	-11.0948
▁interface	-11.0948
▁tropicais	-11.0948
▁fita	-11.0948
▁regresso	-11.0949
▁directamente	-11.0952
▁parasita	-11.0953
▁tridimensiona	-11.0954
▁percebeu	-11.0958
▁corporal	-11.0959
▁visuais	-11.0963
▁fabrico	-11.0968
▁Ra	-11.0973
▁causas	-11.0973
▁secreto	-11.0973
▁novidade	-11.0974
▁rios	-11.0974
▁consider	-11.0975
▁Devi	-11.0977
bé	-11.0983
▁lata	-11.0984
▁cidadão	-11.0988
▁aprendido	-11.0997
anop	-11.1004
az	-11.1007
▁sabendo	-11.1015
▁b	-11.1018
▁ensinam	-11.1019
▁Cria	-11.1019
▁observamos	-11.1023
▁reconhece	-11.1025
▁Mark	-11.1037
▁múltiplas	-11.1043
▁reside	-11.1046
▁flutua	-11.1046
▁aventura	-11.1047
▁diriam	-11.1048
▁acrescentar	-11.105
gar	-11.1051
iu	-11.1053
▁compra	-11.1056
▁ingredientes	-11.1057
▁w	-11.1067
▁Wi	-11.1075
era	-11.108
tura	-11.1083
▁iniciar	-11.1096
▁ensina	-11.1097
▁recentes	-11.1107
▁causado	-11.1115
▁nave	-11.1119
▁escondidas	-11.113
▁assustadora	-11.1139
▁departamento	-11.1141
▁ajudaram	-11.1146
▁acelera	-11.1149
▁Funda	-11.1157
tenção	-11.116
ib	-11.1164
▁cana	-11.1164
▁assisti	-11.1164
▁agita	-11.1165
▁jun	-11.1168
▁ramo	-11.1173
▁árabes	-11.1174
▁Cons	-11.1178
▁marge	-11.1185
▁Junt	-11.119
ust	-11.1224
ide	-11.1224
▁Mande	-11.1227
▁queiram	-11.1232
ey	-11.1236
▁souber	-11.1244
nça	-11.1244
▁surgi	-11.1246
▁Deve	-11.1249
▁Pai	-11.1252
▁ok	-11.1252
▁permanece	-11.1255
▁recorda	-11.1256
ua	-11.1262
den	-11.1268
▁praticar	-11.127
udio	-11.127
▁soar	-11.1276
▁Cong	-11.1294
▁entrega	-11.1299
▁Usamo	-11.1317
ino	-11.1319
rosa	-11.1324
▁calça	-11.1338
culos	-11.1342
táveis	-11.1345
▁vela	-11.1346
▁estende	-11.1346
▁of	-11.1349
▁alerta	-11.1352
▁Wa	-11.1353
▁limi	-11.1356
íveis	-11.1358
▁viam	-11.1359
▁civi	-11.136
berg	-11.1365
▁tiro	-11.1366
taneamente	-11.1374
▁trauma	-11.1374
ísica	-11.1374
▁amizade	-11.1375
▁disparo	-11.1375
▁hambúrguer	-11.1375
▁idêntica	-11.1375
▁mecânico	-11.1375
▁origens	-11.1375
▁paradigma	-11.1375
▁pirâmide	-11.1375
▁puzzle	-11.1375
▁Simples	-11.1375
▁prisões	-11.1375
▁Parkinson	-11.1375
▁Story	-11.1375
▁eletrónico	-11.1375
▁concerto	-11.1375
▁joelho	-11.1375
▁silenciosa	-11.1375
▁intensidade	-11.1375
▁exposto	-11.1375
▁índice	-11.1375
▁concurso	-11.1375
▁cruel	-11.1375
▁condução	-11.1375
▁estádio	-11.1375
▁Jesu	-11.1375
▁similar	-11.1376
▁impede	-11.1376
▁Sa	-11.1376
▁transações	-11.1376
▁fechada	-11.1376
▁GG	-11.1376
▁aborrecido	-11.1378
▁reinventar	-11.1378
▁passiva	-11.1378
▁móveis	-11.1378
▁garage	-11.1379
▁desenhado	-11.1379
▁altruísta	-11.138
▁intuição	-11.1381
▁repensar	-11.1382
▁lanço	-11.1382
▁colaborar	-11.1382
▁Wall	-11.1383
▁acordar	-11.1385
▁enviado	-11.1387
▁enganado	-11.1388
▁começava	-11.1388
▁desagradáve	-11.139
▁utilizá	-11.139
▁pretende	-11.1391
▁culpado	-11.1396
▁blogue	-11.1397
▁prato	-11.1399
▁transparente	-11.14
▁instalar	-11.14
▁estrangeiro	-11.1403
▁organizado	-11.1403
▁palma	-11.1403
▁Parte	-11.1404
▁viaja	-11.1405
▁tráf	-11.1405
▁denso	-11.1407
▁tempora	-11.1409
▁rodeia	-11.141
▁densa	-11.1411
▁significativo	-11.1412
▁tumores	-11.1414
▁cadeias	-11.1416
▁adorava	-11.142
▁escada	-11.1421
▁insisti	-11.1423
▁desligar	-11.1423
▁definitiva	-11.1428
▁psicólogo	-11.1428
▁perderam	-11.1429
▁vistos	-11.143
▁Vida	-11.1432
▁partilham	-11.1438
▁Sara	-11.1439
▁preencher	-11.1442
▁Core	-11.145
▁transportar	-11.1451
▁emocionalmente	-11.1452
▁Dez	-11.1461
▁falado	-11.1466
▁apreciar	-11.1471
▁recolhe	-11.1472
▁cre	-11.1472
▁reflete	-11.1485
▁sequências	-11.1488
▁Josh	-11.149
▁les	-11.1494
▁duplicar	-11.1504
uel	-11.1518
▁Cha	-11.1526
óis	-11.1534
▁torre	-11.1535
▁almoço	-11.154
agar	-11.155
▁colocam	-11.1589
▁Precis	-11.1591
▁emergentes	-11.1593
▁imagina	-11.1594
▁pesquisar	-11.1606
fiquem	-11.1615
▁atravessam	-11.1616
▁caí	-11.1619
▁imita	-11.163
▁preconceitos	-11.1631
▁Lin	-11.1634
▁ecossistemas	-11.1636
▁investiga	-11.1636
uropeia	-11.1648
tivé	-11.1658
uk	-11.1659
ger	-11.1661
▁ro	-11.1669
▁foca	-11.168
▁Cor	-11.1691
▁baixar	-11.1693
móvel	-11.1695
▁litera	-11.1696
▁Fale	-11.1701
▁desenvolve	-11.1705
min	-11.1708
▁fugi	-11.1709
▁Mc	-11.1722
▁localiza	-11.1736
▁procurá	-11.1737
▁ascen	-11.1742
▁refeiç	-11.1742
▁educador	-11.1755
▁hi	-11.1756
▁Col	-11.1757
▁atravessa	-11.176
▁perfura	-11.1761
▁inten	-11.1768
▁Casa	-11.1782
▁atinge	-11.1799
▁infeliz	-11.1804
fu	-11.1821
▁seco	-11.1825
▁casca	-11.1827
▁anónima	-11.1829
▁eléctrico	-11.1829
▁imediato	-11.1829
▁milagre	-11.1829
▁repórter	-11.1829
▁carrinha	-11.1829
▁eólica	-11.1829
▁incapacidade	-11.1829
▁módulo	-11.1829
▁nódulo	-11.1829
▁analogia	-11.1829
▁sinapse	-11.1829
▁ecológico	-11.1829
▁psicologia	-11.1829
▁autismo	-11.1829
▁computaciona	-11.1829
▁propagand	-11.183
▁cognitiva	-11.183
▁concebido	-11.183
▁paraíso	-11.183
▁confortável	-11.183
▁predador	-11.183
▁ocasi	-11.183
▁estufa	-11.183
▁agenda	-11.183
▁chove	-11.183
▁perito	-11.183
▁legado	-11.183
▁pânico	-11.183
▁virtude	-11.1832
▁formou	-11.1832
▁vinho	-11.1832
▁exige	-11.1832
▁feminina	-11.1832
▁partilhá	-11.1832
▁infinito	-11.1833
peito	-11.1833
▁Chamo	-11.1834
▁Atlanta	-11.1834
▁comemos	-11.1834
▁kit	-11.1835
▁tomate	-11.1835
Corp	-11.1838
▁preocupante	-11.1838
▁medicação	-11.1839
▁vende	-11.184
▁previsões	-11.1841
▁intensa	-11.1841
▁continuou	-11.1844
▁ambi	-11.1846
▁quotidiana	-11.1847
▁Tra	-11.1848
▁inglesa	-11.185
▁separada	-11.1851
▁Scho	-11.1852
▁vias	-11.1854
▁parto	-11.1855
▁nascem	-11.1855
leste	-11.1857
▁Gene	-11.1859
▁lágrimas	-11.1859
▁Aprendemo	-11.1859
▁Atrav	-11.186
▁generos	-11.1861
▁directo	-11.1865
▁exponencial	-11.1869
▁borda	-11.1871
▁funcionava	-11.1872
diante	-11.1873
uck	-11.1874
▁atrair	-11.1879
▁abuso	-11.1879
▁garantia	-11.1879
▁vivi	-11.188
▁determinada	-11.1882
▁cuidadosa	-11.1883
▁espelho	-11.1885
▁ouviu	-11.1889
▁habitat	-11.1889
▁comparado	-11.1889
▁activa	-11.1893
▁suicida	-11.1893
▁acompanhar	-11.1894
▁preferido	-11.1895
▁corpora	-11.1896
▁apoia	-11.1898
▁expressar	-11.1901
▁Naquele	-11.1902
▁atuais	-11.1904
▁sucedido	-11.1905
▁natal	-11.1905
▁Eric	-11.1905
▁lucro	-11.1907
▁nascido	-11.1911
▁engenheiro	-11.1912
▁convidado	-11.1912
▁seguras	-11.1925
▁Seja	-11.1928
▁projectos	-11.1932
▁preveni	-11.1933
▁temas	-11.194
▁distantes	-11.1944
▁Brun	-11.1948
prenderam	-11.1948
jam	-11.1956
▁pó	-11.1965
▁fique	-11.1967
▁atirar	-11.1967
▁manifesta	-11.197
▁pareciam	-11.1977
▁significar	-11.198
▁criativas	-11.1984
▁rápidos	-11.1991
▁poli	-11.1993
▁reutiliza	-11.2007
▁28	-11.2014
▁Oxf	-11.2016
▁patentes	-11.2022
▁críticos	-11.2024
lar	-11.204
tina	-11.204
▁criativos	-11.2045
imento	-11.2049
▁diabo	-11.2054
▁gatos	-11.2064
▁forçar	-11.2064
▁Fala	-11.2065
▁adquirir	-11.2065
▁maravilhosas	-11.2068
avam	-11.2082
▁Gr	-11.2085
▁Lati	-11.2085
▁95	-11.2087
ez	-11.2092
▁procuram	-11.2097
ac	-11.2101
▁Façam	-11.2104
ham	-11.2111
▁He	-11.2122
ever	-11.2122
▁tentado	-11.2144
▁600	-11.2145
▁envia	-11.2145
▁flutuar	-11.2147
din	-11.2147
▁Diga	-11.2149
▁paga	-11.2155
▁Tenta	-11.2161
ty	-11.2161
▁convers	-11.2162
▁mostrado	-11.2169
▁conseguisse	-11.2174
▁próteses	-11.2179
▁bicicletas	-11.2185
J	-11.2187
▁genéticas	-11.2189
▁Pass	-11.2201
▁1,	-11.2209
ren	-11.221
▁Ben	-11.222
▁provoca	-11.2236
▁Comece	-11.2246
▁Her	-11.2251
▁Arqui	-11.2251
▁passea	-11.226
▁juven	-11.2271
▁Ti	-11.2275
▁direto	-11.2281
▁inclina	-11.2289
embro	-11.229
▁ocidenta	-11.2293
istério	-11.2305
▁Conheci	-11.2306
▁High	-11.2306
▁Humanidade	-11.2306
▁Singapura	-11.2306
▁dopamina	-11.2306
▁energético	-11.2306
▁estúpida	-11.2306
▁feminino	-11.2306
▁fórmula	-11.2306
▁histórica	-11.2306
▁rastreio	-11.2306
▁térmica	-11.2306
▁típico	-11.2306
▁urgente	-11.2306
▁álbu	-11.2306
▁tiroteio	-11.2306
▁Começo	-11.2306
▁Andrew	-11.2306
▁óssea	-11.2306
▁esquema	-11.2306
▁prático	-11.2306
▁Ébola	-11.2306
▁Brown	-11.2306
▁largura	-11.2306
▁Centro	-11.2306
▁reproduzir	-11.2306
▁confortáveis	-11.2306
▁educativo	-11.2306
▁Líbia	-11.2306
▁laser	-11.2306
instantaneamente	-11.2306
▁morais	-11.2306
▁gelado	-11.2307
▁favorita	-11.2307
▁gay	-11.2307
▁Tim	-11.2307
▁barbearia	-11.2307
▁feminista	-11.2308
▁entendimento	-11.2308
▁tirei	-11.2308
▁desflorestação	-11.2308
▁mama	-11.2308
▁inventou	-11.2308
▁sorriso	-11.2308
▁Scott	-11.2309
▁sofisticado	-11.2309
▁dedicado	-11.2309
▁comunicações	-11.231
▁reações	-11.2311
▁infeções	-11.2311
▁surpreendeu	-11.2312
▁reconstruç	-11.2312
▁enviou	-11.2312
▁piso	-11.2313
▁emocionante	-11.2314
▁Disseram	-11.2315
▁coletivo	-11.2315
▁fizé	-11.2316
▁merecem	-11.2317
▁pagam	-11.2319
▁adivinhar	-11.2319
▁Butão	-11.2322
▁Pr	-11.2322
▁progredir	-11.2323
▁tê	-11.2323
▁rabisca	-11.2324
▁agarra	-11.2325
▁mega	-11.2327
▁fingir	-11.2328
▁Tai	-11.2329
▁restante	-11.2332
▁perdem	-11.2332
▁dirigir	-11.2333
▁escritores	-11.2334
oço	-11.2336
▁continu	-11.2337
▁examinar	-11.2338
▁aplicada	-11.2338
▁Jer	-11.2342
▁sucedida	-11.2343
▁mergulhar	-11.2344
▁clique	-11.2344
vil	-11.2344
ay	-11.2345
▁defeito	-11.2346
▁mudado	-11.2347
▁baseia	-11.2347
▁Long	-11.2347
▁Deixa	-11.2348
▁utilizada	-11.2348
par	-11.2349
▁detecç	-11.235
adé	-11.2352
▁afetado	-11.2355
▁duração	-11.2356
▁servem	-11.2359
▁respeita	-11.2364
▁afetada	-11.2365
▁quisesse	-11.2372
▁definido	-11.2373
▁conceitos	-11.2374
▁isola	-11.2375
▁colar	-11.2377
▁tela	-11.2381
▁diário	-11.2386
tt	-11.2387
▁ouve	-11.2388
▁movem	-11.2391
▁partícula	-11.2399
▁politica	-11.2405
cho	-11.2408
▁ferro	-11.241
▁sanguíneo	-11.2417
▁preocupado	-11.242
per	-11.2427
▁extraordinários	-11.2436
▁brilhar	-11.2438
enia	-11.2439
▁160	-11.2461
▁Acha	-11.247
nco	-11.2471
▁Ken	-11.2477
▁pi	-11.2482
▁empréstimos	-11.2483
▁Mund	-11.2483
▁elimina	-11.2489
▁gesto	-11.249
▁estivemos	-11.249
▁viveram	-11.2495
▁proibi	-11.2499
▁europeia	-11.2504
▁realiza	-11.2506
▁bo	-11.252
chi	-11.2525
▁RM	-11.2527
let	-11.2535
▁colo	-11.254
▁porto	-11.2543
basti	-11.2545
cirurgiões	-11.2545
▁elefantes	-11.2553
bro	-11.2565
RB	-11.2568
▁Oba	-11.2571
▁angaria	-11.2574
▁físicas	-11.2578
▁d	-11.2587
▁biólogos	-11.2589
▁merece	-11.2592
▁quadrados	-11.2595
▁motivado	-11.2596
▁Anda	-11.2597
10	-11.2598
▁referir	-11.2602
▁Car	-11.2608
▁Sal	-11.2608
▁lançado	-11.2611
▁Junta	-11.2615
▁conteúdos	-11.262
ares	-11.2629
▁mortal	-11.263
▁rec	-11.2633
▁integrar	-11.2634
tação	-11.2654
ett	-11.2654
pto	-11.2655
▁Ja	-11.2656
▁Te	-11.266
velmente	-11.2664
▁audi	-11.2668
▁habitua	-11.2673
▁fornecem	-11.2674
▁Mel	-11.2674
▁presta	-11.2689
▁fum	-11.2697
ã	-11.27
▁revis	-11.27
▁Tes	-11.2702
▁Pega	-11.2706
▁biológicos	-11.271
▁eco	-11.271
vel	-11.2714
▁fa	-11.2719
▁vim	-11.2733
▁tomam	-11.2733
▁Dei	-11.2759
▁dores	-11.276
▁estabelece	-11.2761
▁encontrarem	-11.2768
▁manua	-11.277
mago	-11.277
▁casais	-11.2774
▁imediata	-11.278
▁revoluç	-11.278
▁queixa	-11.2784
▁colocamo	-11.2794
envolvimento	-11.2795
ú	-11.2797
▁terror	-11.28
▁realiz	-11.2801
▁CMU	-11.2806
▁Jeopardy	-11.2806
▁Pacífico	-11.2806
▁biodiversidade	-11.2806
▁colmeia	-11.2806
▁constroem	-11.2806
▁estatuto	-11.2806
▁estigma	-11.2806
▁fraude	-11.2806
▁horríveis	-11.2806
▁ideologia	-11.2806
▁idêntico	-11.2806
▁inspirou	-11.2806
▁limpeza	-11.2806
▁lâmina	-11.2806
▁multiverso	-11.2806
▁orgânica	-11.2806
▁sotaque	-11.2806
▁tabela	-11.2806
▁território	-11.2806
▁tubarões	-11.2806
▁Smith	-11.2806
▁homicídio	-11.2806
▁pulso	-11.2806
▁sustentáveis	-11.2806
▁aérea	-11.2806
▁contínua	-11.2806
▁cromossoma	-11.2806
▁endereço	-11.2806
▁cobrir	-11.2806
▁globo	-11.2806
▁Veem	-11.2806
▁tatuage	-11.2806
▁grávida	-11.2806
▁terrestre	-11.2806
▁piscina	-11.2806
▁juiz	-11.2806
▁gota	-11.2806
▁barriga	-11.2806
▁abundante	-11.2806
▁templo	-11.2806
▁Law	-11.2806
▁Britânic	-11.2806
▁mobilidade	-11.2806
▁paralelo	-11.2807
▁impressora	-11.2807
▁seringa	-11.2807
▁póster	-11.2807
▁pulmões	-11.2807
▁recuar	-11.2807
▁revelou	-11.2808
▁Encontrei	-11.2808
▁esquina	-11.2808
▁esquizofr	-11.2809
▁usei	-11.2809
▁FO	-11.2809
▁Adam	-11.281
▁carteira	-11.281
▁fizeste	-11.281
▁paisagens	-11.281
▁reduzida	-11.281
▁estímulo	-11.2811
▁diarreia	-11.2811
▁governamenta	-11.2812
▁convencional	-11.2812
▁organizada	-11.2812
▁Un	-11.2812
▁estudado	-11.2812
▁orgulhosa	-11.2813
anz	-11.2814
▁erva	-11.2815
▁colisão	-11.2815
▁conservadores	-11.2816
▁atingiu	-11.2816
▁orgulhoso	-11.2817
▁legislação	-11.2817
▁iniciou	-11.2817
▁apareci	-11.2818
▁sentei	-11.2819
▁remota	-11.2819
▁sólido	-11.282
▁fuga	-11.2821
▁ARN	-11.2823
▁monitorizar	-11.2824
▁interage	-11.2825
▁rebo	-11.2827
▁gruta	-11.2827
▁anual	-11.2828
▁cartaz	-11.2829
▁Encontrámo	-11.2829
▁Geral	-11.2833
▁condutores	-11.2836
▁usavam	-11.2837
▁recebido	-11.2839
▁mata	-11.2839
▁considero	-11.2841
▁deixando	-11.2843
scola	-11.2844
▁fará	-11.2849
▁fator	-11.285
▁teia	-11.2851
▁punha	-11.2852
▁ecologia	-11.2853
▁focado	-11.2855
nternacional	-11.2856
▁fins	-11.2857
uses	-11.2859
▁construíram	-11.2859
▁aguentar	-11.2861
▁bloquear	-11.2862
ania	-11.2862
▁pus	-11.2864
sperma	-11.2866
▁atraente	-11.2868
▁rodar	-11.2869
▁reprodu	-11.2874
▁confusa	-11.2877
▁suave	-11.2879
▁inacreditáve	-11.2882
▁alimentares	-11.2884
▁inspira	-11.2886
▁impostos	-11.2889
▁compara	-11.2889
▁deficiências	-11.289
▁autoridades	-11.289
▁meter	-11.2891
▁testemunhar	-11.2891
▁desempenhar	-11.2898
▁representado	-11.2899
▁pr	-11.2905
▁tende	-11.2906
▁libertado	-11.2908
▁confiante	-11.2913
▁biológico	-11.2918
▁pássaro	-11.2922
▁deixá	-11.2922
▁fra	-11.2924
▁negativo	-11.2925
▁resta	-11.2933
tempo	-11.2935
▁comp	-11.2941
▁conquista	-11.2946
▁cabeças	-11.2951
▁ouvia	-11.2961
▁queira	-11.2964
▁dono	-11.2965
▁dinossauros	-11.297
▁dispostas	-11.297
raiz	-11.2976
▁Fazem	-11.2976
correu	-11.2976
▁Air	-11.2982
▁ó	-11.2992
nho	-11.3006
▁funcional	-11.3006
▁volt	-11.3006
▁puxar	-11.3008
smo	-11.3016
▁72	-11.3017
▁resume	-11.3018
cu	-11.3019
▁recorde	-11.3026
▁Observ	-11.3034
▁adicional	-11.3065
▁juntá	-11.3069
▁deseja	-11.307
tou	-11.3072
▁controla	-11.3074
▁caracter	-11.3077
bu	-11.3082
▁Leva	-11.3087
▁costum	-11.309
▁inovadoras	-11.3091
▁public	-11.3092
▁integr	-11.3094
▁vier	-11.3096
▁cole	-11.3099
▁dependem	-11.3105
▁adop	-11.3109
▁sabermos	-11.3121
▁Medi	-11.3121
▁voltam	-11.3124
▁esquecemo	-11.3125
▁faixas	-11.3126
▁exista	-11.3134
▁Super	-11.3145
onica	-11.318
▁depender	-11.3203
▁independentes	-11.3203
▁provocar	-11.3204
▁seta	-11.3218
▁ampli	-11.3222
▁conselhos	-11.3223
ui	-11.3224
▁inclui	-11.3226
15	-11.3227
▁criminal	-11.3228
▁queres	-11.323
▁explora	-11.3235
▁ocupar	-11.3236
▁Sejam	-11.325
▁bon	-11.3259
▁consigam	-11.329
▁esqui	-11.3292
▁libera	-11.3293
ráfico	-11.3294
ínio	-11.3301
▁It	-11.3306
▁nutri	-11.3314
▁planifica	-11.3315
▁sabor	-11.3316
▁glaciar	-11.3321
▁infeç	-11.3325
▁Contra	-11.333
▁divide	-11.3332
▁levantou	-11.3332
▁Bitcoin	-11.3332
▁Exército	-11.3332
▁armadilha	-11.3332
▁brilho	-11.3332
▁carácter	-11.3332
▁consentimento	-11.3332
▁convincente	-11.3332
▁dádiva	-11.3332
▁efectiva	-11.3332
▁elétrica	-11.3332
▁etiqueta	-11.3332
▁imunitário	-11.3332
▁oficiais	-11.3332
▁pacote	-11.3332
▁satisfeito	-11.3332
▁valiosa	-11.3332
▁vulnerável	-11.3332
▁Cresci	-11.3332
▁blockchain	-11.3332
▁credibilidade	-11.3332
▁hemisfério	-11.3332
▁quantia	-11.3332
▁questionário	-11.3332
▁Matemátic	-11.3332
▁caverna	-11.3332
▁ilegais	-11.3332
▁máscara	-11.3332
▁instinto	-11.3332
▁Daniel	-11.3332
▁Associa	-11.3332
▁cinzenta	-11.3332
▁preferência	-11.3332
▁julho	-11.3332
▁video	-11.3332
▁Satur	-11.3332
▁ausência	-11.3332
▁furac	-11.3332
▁Tanto	-11.3332
▁moldura	-11.3332
▁Vejo	-11.3332
ssonância	-11.3332
▁Uber	-11.3332
▁selva	-11.3332
▁Doaa	-11.3332
▁Holand	-11.3332
▁autorização	-11.3333
▁intersecç	-11.3333
▁invasiva	-11.3333
▁interativo	-11.3334
▁namorada	-11.3334
▁mudei	-11.3334
▁estimulante	-11.3334
▁litro	-11.3335
▁financiar	-11.3335
▁permissão	-11.3335
▁test	-11.3335
▁gémeo	-11.3336
▁incidente	-11.3336
▁humilhação	-11.3336
▁cachorro	-11.3336
▁espanhol	-11.3336
▁eleitoral	-11.3339
▁querida	-11.3339
▁enganar	-11.334
ap	-11.3341
▁contrair	-11.3341
▁espiritual	-11.3342
▁relógio	-11.3342
▁documentar	-11.3342
▁fruta	-11.3342
▁galinha	-11.3342
▁muta	-11.3343
▁SE	-11.3343
▁controlado	-11.3344
▁Terceir	-11.3346
gu	-11.3346
▁apercebeu	-11.3346
▁fabricar	-11.3347
▁filtro	-11.3349
▁Parecia	-11.335
ice	-11.3351
▁interacção	-11.3352
▁Va	-11.3353
▁mencionar	-11.3356
▁desconfortáve	-11.3357
▁viola	-11.3357
▁activo	-11.3358
▁totalidade	-11.336
bert	-11.3361
▁variações	-11.3363
▁consideração	-11.3365
▁subida	-11.3369
▁gradual	-11.337
▁detetor	-11.337
▁puro	-11.337
▁bolo	-11.337
▁suportar	-11.3375
▁preparada	-11.3376
ig	-11.3377
▁beneficiar	-11.3379
▁dobrar	-11.338
▁oficial	-11.3381
▁gado	-11.3382
▁Gor	-11.3385
nsidade	-11.3386
▁radicalmente	-11.3387
▁emoção	-11.3387
▁elite	-11.3389
▁menores	-11.3389
rações	-11.3398
ato	-11.3403
ador	-11.3403
▁modela	-11.3405
▁chegada	-11.3408
▁artístico	-11.3409
▁posse	-11.3414
ábia	-11.342
▁diretora	-11.3423
▁servi	-11.3423
▁habitante	-11.3426
▁sexualmente	-11.3426
▁descreveu	-11.3427
▁Conseguir	-11.343
▁dando	-11.3437
▁inovar	-11.3438
▁Segunda	-11.3441
▁Cidade	-11.3446
▁conhecimentos	-11.3449
▁atributo	-11.345
▁ecrãs	-11.3455
▁consulta	-11.3456
▁precedentes	-11.3459
▁Haver	-11.346
▁absorver	-11.346
▁traduzir	-11.3462
▁talentos	-11.3465
▁fria	-11.3472
▁prótese	-11.3474
▁interno	-11.3474
▁lançámo	-11.3479
▁ador	-11.3482
▁rosa	-11.3492
▁Win	-11.3492
▁propri	-11.3494
▁pisca	-11.3495
con	-11.3499
▁ouvirem	-11.3502
▁relaciona	-11.3506
nny	-11.3512
▁concordar	-11.3512
lho	-11.3518
▁explodir	-11.3521
missões	-11.3522
▁adaptar	-11.3526
▁marcar	-11.3528
▁rece	-11.3536
▁alimenta	-11.3538
▁adoram	-11.3539
▁tornámo	-11.354
▁dava	-11.3542
ec	-11.3543
vidade	-11.3545
▁exigir	-11.3548
▁astronautas	-11.3552
para	-11.3555
▁oferece	-11.3558
▁tiram	-11.3558
▁Faça	-11.356
▁sentidos	-11.3567
▁fundador	-11.357
▁acumula	-11.3577
▁Sam	-11.358
omi	-11.3584
▁empresários	-11.3585
ara	-11.3591
▁vota	-11.3597
hop	-11.3598
▁arquitetos	-11.3599
▁entrevistas	-11.3601
▁investido	-11.3603
▁empresaria	-11.3604
▁comece	-11.3606
▁protegem	-11.3611
▁ataca	-11.3615
▁compreendia	-11.3625
▁indicar	-11.3625
▁programador	-11.3629
gie	-11.3631
▁usem	-11.3635
ula	-11.3639
▁aconselha	-11.3646
▁surpreendidos	-11.3647
12	-11.3648
▁livrar	-11.365
▁resultar	-11.3655
▁recusa	-11.3663
▁telefones	-11.3674
cul	-11.3676
▁la	-11.3676
▁precise	-11.3677
▁gira	-11.3678
▁acorda	-11.3693
▁civiliza	-11.3694
▁Sh	-11.3694
▁pesc	-11.3696
▁dizerem	-11.3699
▁continue	-11.3702
ntal	-11.3715
▁partidos	-11.3731
▁abertas	-11.3732
▁55	-11.3741
▁tratava	-11.3742
▁cooperar	-11.3753
fre	-11.3754
▁sustenta	-11.3767
▁Can	-11.3774
▁direc	-11.3783
▁vegeta	-11.379
▁0	-11.3795
▁Pensa	-11.3797
▁Be	-11.3807
▁bos	-11.3808
▁preferidos	-11.3814
génese	-11.3815
▁prender	-11.3819
dução	-11.3824
▁adorar	-11.3825
cer	-11.3829
ílio	-11.383
▁esperem	-11.3835
mi	-11.3837
ata	-11.3837
▁independ	-11.384
each	-11.384
uro	-11.3843
▁múltipl	-11.3851
▁necessita	-11.3853
▁radica	-11.3865
▁trabalhador	-11.387
▁vendedor	-11.3878
▁perigosos	-11.388
parem	-11.3881
▁altruís	-11.3881
▁agrícolas	-11.3886
▁reverbera	-11.3887
▁Antártida	-11.3887
▁Gandhi	-11.3887
▁Saudita	-11.3887
▁Scratch	-11.3887
▁aborto	-11.3887
▁ambulância	-11.3887
▁castanho	-11.3887
▁comunitário	-11.3887
▁contínuo	-11.3887
▁drone	-11.3887
▁expetativa	-11.3887
▁farmacêutica	-11.3887
▁gratuito	-11.3887
▁helicóptero	-11.3887
▁humanitária	-11.3887
▁infecç	-11.3887
▁invulgar	-11.3887
▁magnífico	-11.3887
▁precoce	-11.3887
▁sepultura	-11.3887
▁Brooklyn	-11.3887
▁correcto	-11.3887
▁basquete	-11.3887
▁ambientais	-11.3887
▁essenciais	-11.3888
▁banana	-11.3888
▁drama	-11.3888
▁coincidência	-11.3888
ware	-11.3888
▁Fizeram	-11.3888
▁feia	-11.3888
▁neurociência	-11.3888
▁zangado	-11.3888
▁alarme	-11.3888
▁exato	-11.3888
▁crânio	-11.3888
▁Moham	-11.3888
▁cargo	-11.3888
▁baby	-11.3888
▁alugar	-11.3888
▁elegante	-11.3888
▁Jean	-11.3889
▁geneticamente	-11.3889
▁suspeita	-11.3889
▁cobre	-11.3889
▁deitado	-11.3889
▁bruto	-11.3889
▁abraçar	-11.3889
▁bossa	-11.3889
▁sonora	-11.389
▁comportamenta	-11.389
▁inocente	-11.389
▁praça	-11.389
▁Fez	-11.389
▁86	-11.389
▁liguei	-11.389
▁racista	-11.389
▁sofisticada	-11.3891
▁celebridade	-11.3891
▁fármaco	-11.3891
▁personalizada	-11.3892
▁fascinado	-11.3892
▁difusão	-11.3893
écia	-11.3893
▁gordo	-11.3893
▁hidro	-11.3894
▁betão	-11.3894
▁Hill	-11.3895
▁pormenores	-11.3895
▁distribuído	-11.3896
▁horário	-11.3896
▁Oceano	-11.3896
▁reflexão	-11.3897
▁germe	-11.3897
▁certificado	-11.3897
▁trouxeram	-11.3897
▁concentração	-11.3898
▁apropriado	-11.3898
▁desenvolvi	-11.3898
▁Escrevi	-11.39
▁finais	-11.39
▁vivido	-11.3901
dições	-11.3901
▁cigarro	-11.3902
▁Tempo	-11.3903
▁especializado	-11.3905
ew	-11.3905
▁espira	-11.3906
▁ensinada	-11.3909
▁ironia	-11.3911
▁crescido	-11.3913
partamento	-11.3916
▁Gu	-11.3917
▁Globa	-11.3917
▁marítimo	-11.3918
▁estranhas	-11.3918
▁Peter	-11.3919
lívi	-11.392
▁contamos	-11.3921
▁marinho	-11.3921
pen	-11.3922
▁produzido	-11.3922
▁ouvem	-11.3923
▁Mike	-11.3923
▁29	-11.3927
▁consistente	-11.393
▁perfurado	-11.3933
dial	-11.3933
▁escolhi	-11.3933
▁compreendem	-11.3934
▁perseguir	-11.3934
▁intencional	-11.3935
▁Archi	-11.3935
▁entusiasmados	-11.3935
ow	-11.3936
▁mosquiteiro	-11.3937
rea	-11.3946
aria	-11.3949
▁utilizam	-11.3949
▁importam	-11.3949
▁Venez	-11.3954
▁vinda	-11.3955
▁realista	-11.3962
▁chegado	-11.3963
▁linear	-11.3967
▁Funciona	-11.3974
▁adora	-11.3976
▁resumir	-11.3977
▁chamaram	-11.3978
ring	-11.3983
iade	-11.3983
▁avanços	-11.3985
ion	-11.3986
▁ocasional	-11.3989
tes	-11.399
▁infra	-11.3992
▁Olho	-11.3997
uh	-11.4
▁interessam	-11.4005
▁costume	-11.401
▁700	-11.4012
▁pegue	-11.4015
▁batedor	-11.4021
▁fotografa	-11.4024
▁diferencia	-11.4029
▁fêmeas	-11.4032
▁demonstram	-11.4036
▁vestido	-11.4045
▁mede	-11.4046
▁reage	-11.4047
▁séria	-11.4053
▁divulgar	-11.4056
▁treinador	-11.4056
▁macaco	-11.4064
▁Aplauso	-11.4071
▁conseguí	-11.4072
▁comentário	-11.4085
éni	-11.4088
▁chamá	-11.4088
▁mel	-11.4088
ent	-11.4089
▁visualiza	-11.4089
▁queima	-11.409
▁quilos	-11.4096
cy	-11.4096
▁rim	-11.4104
ética	-11.4106
▁lido	-11.4106
▁enviam	-11.4107
▁conscientes	-11.4109
▁confuso	-11.411
ano	-11.4111
▁equ	-11.4116
ctuais	-11.4117
▁protege	-11.4133
irei	-11.4147
▁beneficia	-11.4148
ak	-11.4148
▁cal	-11.415
▁190	-11.4158
▁191	-11.4159
yan	-11.4165
▁guardas	-11.4168
▁Bru	-11.4169
▁mor	-11.4172
▁questiona	-11.4172
▁configura	-11.4188
▁controlam	-11.4193
▁gravado	-11.4193
▁grito	-11.4194
dela	-11.4194
ud	-11.4198
tado	-11.4205
tá	-11.4207
▁penetra	-11.4217
ite	-11.4218
▁recordar	-11.4223
▁pens	-11.4237
▁disparar	-11.4245
▁interessar	-11.4254
ivas	-11.4258
icidade	-11.4269
▁encaixa	-11.4269
▁lembram	-11.4275
▁poliniza	-11.4278
▁apanhado	-11.4282
▁abis	-11.4286
▁previsíve	-11.4299
abul	-11.4302
▁confi	-11.4305
scrições	-11.4315
▁traduzi	-11.4317
▁z	-11.4324
▁desejar	-11.4326
▁bate	-11.4328
▁conferências	-11.4331
▁senso	-11.4335
▁comecem	-11.4344
▁treinado	-11.4347
For	-11.4352
▁Senhor	-11.4356
▁gestor	-11.4356
▁aposta	-11.4357
pública	-11.4359
▁Dar	-11.4366
She	-11.4377
▁importar	-11.4384
▁Via	-11.4387
▁Espanh	-11.4393
▁posta	-11.44
▁Sentia	-11.4404
▁pontua	-11.4405
▁darem	-11.4407
▁forneci	-11.4408
▁lida	-11.4415
▁condena	-11.4416
▁Si	-11.4421
▁encontrá	-11.4431
▁venh	-11.4433
▁compreende	-11.4439
pi	-11.4441
▁cobra	-11.4449
▁po	-11.4455
▁artificia	-11.4458
nto	-11.4462
▁pede	-11.4464
lândia	-11.4468
▁puser	-11.4468
rueg	-11.4474
▁industria	-11.4474
▁escaravelhos	-11.4475
▁categorias	-11.4475
▁Câmara	-11.4476
▁Tunísia	-11.4476
▁Uganda	-11.4476
▁automático	-11.4476
▁cadáver	-11.4476
▁culinári	-11.4476
▁distinção	-11.4476
▁espetro	-11.4476
▁fígado	-11.4476
▁manutenção	-11.4476
▁membrana	-11.4476
▁mutuamente	-11.4476
▁origami	-11.4476
▁reabilita	-11.4476
▁subúrbio	-11.4476
▁FreeSpeech	-11.4476
▁trágico	-11.4476
▁chocolate	-11.4476
▁fruto	-11.4476
▁prostitui	-11.4476
▁Talibã	-11.4476
▁óptimo	-11.4476
▁magnético	-11.4476
▁cruzamento	-11.4476
▁colaborativo	-11.4476
▁enviá	-11.4476
▁constrói	-11.4476
▁inesperada	-11.4476
▁optimista	-11.4476
▁abasteci	-11.4476
▁protocolo	-11.4476
▁milímetro	-11.4476
▁mantido	-11.4476
▁dilema	-11.4476
well	-11.4476
▁ciente	-11.4476
▁atento	-11.4477
▁protegido	-11.4477
▁verbal	-11.4477
▁Jack	-11.4478
▁rumo	-11.4478
▁improvável	-11.4478
▁receptor	-11.4479
▁Lego	-11.4479
▁Lab	-11.4479
▁expedição	-11.4479
▁vital	-11.4479
▁ultrasson	-11.4479
▁pegá	-11.4479
▁South	-11.448
▁apresentou	-11.448
▁alargar	-11.448
▁microbiana	-11.448
▁viesse	-11.4481
▁estreita	-11.4482
▁alegre	-11.4482
▁familiarizado	-11.4482
▁permitido	-11.4482
▁Digo	-11.4483
▁caridade	-11.4483
▁prossegui	-11.4484
▁Holly	-11.4484
▁armazé	-11.4486
▁vencedores	-11.4486
▁disposição	-11.4487
▁previsto	-11.4487
▁pap	-11.4488
▁registar	-11.449
ung	-11.449
▁congelado	-11.4492
▁enigma	-11.4492
evolução	-11.4492
▁saíram	-11.4492
▁psiquiatra	-11.4493
▁Bur	-11.4494
▁afastado	-11.4494
▁confronto	-11.4496
▁requisito	-11.4498
org	-11.4498
▁Even	-11.4499
▁interligado	-11.4501
▁Meta	-11.4502
▁afectam	-11.4502
▁exprimir	-11.4502
sol	-11.4503
▁imprimir	-11.4504
▁imitar	-11.4505
▁monitoriza	-11.451
▁seguiu	-11.451
▁juntou	-11.4511
▁fina	-11.4512
▁primor	-11.4512
▁modernas	-11.4513
▁haviam	-11.4513
▁residente	-11.4515
▁atingem	-11.4515
▁continuo	-11.4515
▁envelhecer	-11.4516
tus	-11.4518
vindo	-11.4519
▁nalguma	-11.4526
han	-11.4526
▁constru	-11.4527
▁mostrando	-11.4533
▁oposta	-11.4534
▁Leo	-11.4534
▁democrática	-11.4535
▁manipula	-11.4541
▁habituados	-11.4542
nia	-11.4547
▁saiba	-11.4549
▁juntaram	-11.455
▁acrescenta	-11.455
▁escritora	-11.4551
inas	-11.4554
▁fornece	-11.4555
▁Cinc	-11.4563
▁inserir	-11.4563
▁estilistas	-11.4567
▁Americano	-11.4567
▁pediram	-11.4567
▁gra	-11.457
▁Chega	-11.4573
▁histori	-11.4574
▁habitáve	-11.4575
éli	-11.4576
▁ensinaram	-11.4576
▁mexicano	-11.4578
▁ten	-11.4588
tlântico	-11.4588
SA	-11.4591
▁superar	-11.4591
▁Jon	-11.4591
▁protegidas	-11.4593
sani	-11.4597
▁chegava	-11.4602
▁Km	-11.4604
▁ouvida	-11.4607
▁Jim	-11.461
▁incluí	-11.4611
dutor	-11.4615
▁venha	-11.4624
▁travar	-11.4631
TI	-11.4631
ografia	-11.4632
▁Ko	-11.464
▁generosa	-11.4643
▁impresso	-11.4644
támos	-11.4644
▁tratada	-11.4646
eram	-11.4649
▁Liber	-11.4656
▁Mah	-11.466
▁aderir	-11.4665
▁indiano	-11.4668
▁isolar	-11.4669
▁ferve	-11.4671
▁valioso	-11.4671
▁k	-11.4672
▁disser	-11.4674
▁multa	-11.4679
▁resolvido	-11.468
▁pronta	-11.468
▁54	-11.4681
▁coluna	-11.4683
por	-11.4687
▁baleia	-11.4689
▁informático	-11.4689
bl	-11.469
▁nervosa	-11.4696
▁atingi	-11.4703
hi	-11.4709
▁Passe	-11.4711
▁Rei	-11.4719
seguem	-11.4724
▁instruç	-11.4727
▁continentes	-11.4738
terminado	-11.474
▁falem	-11.4742
▁espalha	-11.4747
▁religiosos	-11.475
▁colocadas	-11.4755
▁vend	-11.4756
▁Perde	-11.4757
▁inspirador	-11.4762
▁Boy	-11.4768
▁entregue	-11.4772
▁nó	-11.478
▁Gar	-11.4783
▁facilita	-11.4784
▁38	-11.4785
▁mostraram	-11.4787
▁desisti	-11.4787
▁Carolin	-11.4791
▁ficaria	-11.4794
▁Ros	-11.4795
▁descreve	-11.4803
▁MR	-11.4807
▁pu	-11.4809
olly	-11.481
rade	-11.4817
▁potencia	-11.4833
hen	-11.4834
▁transformam	-11.4834
▁contada	-11.4835
▁percorre	-11.4838
▁pinto	-11.4847
lon	-11.4869
▁imitador	-11.4886
▁reconhecem	-11.4889
bril	-11.4923
spacial	-11.4923
ero	-11.4923
▁acontecerá	-11.4923
▁Bali	-11.4936
ificação	-11.4937
▁Rica	-11.4947
ber	-11.4948
▁juíz	-11.4954
▁impor	-11.4961
▁entend	-11.4965
▁Hol	-11.4966
▁Teria	-11.4969
▁determina	-11.4972
▁deus	-11.4974
cera	-11.4974
▁ge	-11.4977
▁Ho	-11.4988
▁come	-11.4999
▁manterem	-11.5005
▁Mari	-11.5019
▁Passá	-11.5023
ight	-11.5023
yd	-11.5032
▁At	-11.5044
▁causada	-11.5044
▁St	-11.5055
▁Jo	-11.5061
ício	-11.5066
▁produtor	-11.5069
▁inunda	-11.5072
▁censura	-11.5076
▁perdas	-11.5077
▁relva	-11.5079
▁trabalhe	-11.508
▁he	-11.5087
▁renováve	-11.5087
▁usava	-11.5088
▁tri	-11.5088
▁percebam	-11.5095
▁jardin	-11.5098
▁Bronx	-11.5101
▁Chile	-11.5101
▁GCH	-11.5101
▁Jerusalém	-11.5101
▁Júpiter	-11.5101
▁absoluto	-11.5101
▁aleatório	-11.5101
▁autêntico	-11.5101
▁borracha	-11.5101
▁catástrofe	-11.5101
▁critério	-11.5101
▁enzima	-11.5101
▁incluem	-11.5101
▁maciça	-11.5101
▁mochila	-11.5101
▁mínima	-11.5101
▁problemático	-11.5101
▁rígido	-11.5101
▁silencioso	-11.5101
▁singular	-11.5101
▁subsídio	-11.5101
▁utilidade	-11.5101
▁autentic	-11.5101
▁autista	-11.5101
▁declínio	-11.5101
▁harmonia	-11.5101
▁inferno	-11.5101
▁misteriosa	-11.5101
▁destroço	-11.5101
▁psicológica	-11.5101
▁tabu	-11.5101
▁democratiza	-11.5101
▁enfermaria	-11.5101
▁irriga	-11.5101
▁império	-11.5101
▁inconsciente	-11.5101
▁cauda	-11.5101
▁obtém	-11.5101
▁gravidez	-11.5101
▁orbita	-11.5101
▁frasco	-11.5101
▁vizinhança	-11.5101
▁toalha	-11.5101
▁Primeira	-11.5101
▁hélice	-11.5101
▁tubarão	-11.5101
▁solidariedade	-11.5101
▁ficheiro	-11.5101
▁tradutor	-11.5101
▁calcário	-11.5101
▁Certa	-11.5101
▁capitã	-11.5101
▁Carne	-11.5101
▁queijo	-11.5101
▁fixo	-11.5101
▁Vietname	-11.5101
▁estágio	-11.5101
▁receio	-11.5102
▁solucionar	-11.5102
▁rodeado	-11.5102
▁direções	-11.5102
▁ISI	-11.5102
▁inúmer	-11.5102
rgentin	-11.5102
▁hard	-11.5102
▁sentou	-11.5102
▁russo	-11.5103
▁Evan	-11.5103
▁atrasado	-11.5103
rabe	-11.5104
▁colina	-11.5104
▁dividida	-11.5104
▁Fazer	-11.5105
▁Microsoft	-11.5105
▁campus	-11.5105
▁Hubble	-11.5105
▁tremendo	-11.5106
▁abrangente	-11.5106
▁trazido	-11.5106
▁esqueçam	-11.5107
▁diversão	-11.5107
▁décimo	-11.5107
▁franceses	-11.5107
nb	-11.5108
lamento	-11.5108
▁pulmão	-11.5108
▁obtêm	-11.5109
▁reduzem	-11.5109
▁Estud	-11.511
▁reacção	-11.5112
▁preta	-11.5112
Gowan	-11.5113
▁enfrentam	-11.5115
▁aceitação	-11.5115
▁encolher	-11.5117
▁justificar	-11.5117
▁quinto	-11.5117
▁retirado	-11.5118
▁convidar	-11.5118
▁cosmos	-11.5119
▁comprometer	-11.512
▁grandeza	-11.5121
▁Desculpem	-11.5121
sistência	-11.5122
▁condenado	-11.5123
erra	-11.5124
▁SS	-11.5126
▁girar	-11.5126
▁recicla	-11.5126
▁pleno	-11.5126
▁Liga	-11.5127
▁ensinado	-11.5127
▁personalizado	-11.5127
▁afastada	-11.5127
poeira	-11.5128
▁rochas	-11.5128
▁privadas	-11.5129
▁estável	-11.513
▁subtil	-11.5131
LA	-11.5132
▁pedem	-11.5133
▁contam	-11.5134
▁bailarino	-11.5135
▁unida	-11.5137
▁caír	-11.5139
pre	-11.514
ling	-11.5141
▁orden	-11.5145
▁enviada	-11.5146
▁testemunho	-11.5146
▁obriga	-11.5148
▁filhas	-11.515
▁ilustrar	-11.515
▁publicada	-11.5151
▁objetiva	-11.5152
irb	-11.5154
▁protecç	-11.5156
▁administra	-11.5156
▁medos	-11.516
sus	-11.5164
▁combinado	-11.5166
▁Considerem	-11.5166
▁pusemo	-11.5167
bon	-11.5167
▁Roset	-11.5173
nus	-11.5173
▁fluido	-11.5175
▁dirige	-11.5175
ifer	-11.5176
▁surpreender	-11.5178
▁encaixar	-11.5178
▁assinar	-11.5179
▁percebido	-11.518
guei	-11.5182
▁decorrer	-11.5183
▁anjo	-11.5183
▁anónimo	-11.5185
▁receberam	-11.5186
▁localidade	-11.5188
edicina	-11.5198
▁aplausos	-11.5198
▁sentiu	-11.5198
▁Wood	-11.5198
▁ira	-11.5201
▁espreita	-11.5205
▁iraniano	-11.5206
rar	-11.5214
▁argumenta	-11.5217
▁silic	-11.522
▁evapora	-11.5226
▁devolver	-11.5227
▁escravos	-11.5227
▁possui	-11.5231
▁valoriza	-11.5231
tz	-11.5232
andamento	-11.5237
▁Boa	-11.5238
▁evita	-11.5242
eiras	-11.5243
leção	-11.5245
▁regressa	-11.5245
▁saíre	-11.525
▁inclusiva	-11.5252
▁Parti	-11.5252
▁expectativas	-11.5253
ill	-11.5258
▁dano	-11.526
▁atrai	-11.5263
▁West	-11.5269
▁armado	-11.527
▁satisfa	-11.5271
▁voltarem	-11.5273
▁queimar	-11.5283
▁Mor	-11.5288
▁malas	-11.5291
▁apartamentos	-11.5295
▁existisse	-11.5305
▁comunicam	-11.5305
▁sinta	-11.5307
▁Ru	-11.5316
▁dispara	-11.5317
dy	-11.5334
▁acertar	-11.5335
▁slide	-11.5338
▁humanitário	-11.5341
▁tribo	-11.5343
▁hábito	-11.5349
▁complicadas	-11.5351
▁perguntamos	-11.5351
w	-11.5352
tem	-11.5352
▁faixa	-11.5353
ila	-11.5353
rda	-11.5354
▁chimpanzé	-11.5356
▁deixada	-11.5356
▁competência	-11.5357
▁átomo	-11.5357
▁mosquito	-11.5359
▁pan	-11.5359
▁executar	-11.537
▁trav	-11.5371
ell	-11.5374
▁Gro	-11.5376
▁corria	-11.5377
▁coberto	-11.5383
▁confirma	-11.5401
spir	-11.5402
▁Maria	-11.5406
▁tornem	-11.541
▁balança	-11.5425
ach	-11.5427
▁escrevem	-11.5431
▁criadas	-11.5431
erne	-11.5433
tter	-11.5438
▁oculta	-11.544
▁traduz	-11.5444
ith	-11.5448
lice	-11.5449
into	-11.5453
▁Usa	-11.5459
▁lentes	-11.5459
uge	-11.5466
ko	-11.5468
▁reformar	-11.5468
ake	-11.5472
▁tentava	-11.5474
▁corta	-11.5474
▁apercebemos	-11.5482
▁31	-11.5486
▁reparado	-11.5495
for	-11.5499
▁secular	-11.5499
dit	-11.5507
izou	-11.5509
▁reforça	-11.5514
▁War	-11.5516
▁celebrar	-11.5525
▁divulga	-11.5527
▁colunas	-11.5536
▁devasta	-11.5544
cton	-11.5547
issão	-11.5549
▁nativa	-11.5553
oh	-11.5555
▁reuni	-11.5555
ime	-11.5556
▁sintam	-11.5556
▁amo	-11.5558
▁verme	-11.5558
▁deriva	-11.556
▁fases	-11.556
au	-11.556
▁emite	-11.5565
bri	-11.5588
til	-11.5596
▁agricultor	-11.5599
▁notar	-11.5608
▁Toma	-11.5618
xi	-11.5619
bal	-11.562
▁simula	-11.5621
▁to	-11.5633
we	-11.5635
▁preserva	-11.5644
▁epi	-11.5647
▁be	-11.5652
tam	-11.5654
▁Dev	-11.5656
▁liberal	-11.5666
▁servidor	-11.5667
petição	-11.5668
▁artístic	-11.567
▁melhora	-11.5672
▁menti	-11.5673
▁suicidas	-11.5673
▁científicas	-11.5675
▁gostaría	-11.5675
98	-11.5677
▁aplicá	-11.5681
▁deixe	-11.5687
▁adopta	-11.5693
▁excita	-11.57
lga	-11.5703
▁acompanha	-11.5704
útil	-11.5706
▁fizessem	-11.5711
▁compensa	-11.5714
▁universos	-11.5715
▁degrada	-11.5718
▁congestiona	-11.5727
▁Br	-11.573
▁poupa	-11.5731
▁memori	-11.574
▁aventuras	-11.5741
▁interacç	-11.5743
▁promove	-11.5746
▁Hum	-11.5747
enta	-11.5749
▁mutaç	-11.5755
▁Hava	-11.5755
▁precis	-11.5759
▁Video	-11.5767
▁DVD	-11.5767
▁Jordan	-11.5767
▁TEDTalk	-11.5767
▁altitude	-11.5767
▁ancestral	-11.5767
▁catedra	-11.5767
▁cereais	-11.5767
▁colectiva	-11.5767
▁compreendo	-11.5767
▁controle	-11.5767
▁dramática	-11.5767
▁empolgante	-11.5767
▁espingarda	-11.5767
▁genocídio	-11.5767
▁incêndio	-11.5767
▁nanopartícula	-11.5767
▁neuronal	-11.5767
▁proprietário	-11.5767
▁quântico	-11.5767
▁tsunami	-11.5767
▁vínculo	-11.5767
▁Watson	-11.5767
▁defensor	-11.5767
▁favela	-11.5767
▁paixões	-11.5767
▁Stasi	-11.5767
▁interruptor	-11.5767
▁paralisia	-11.5767
▁intangíve	-11.5767
▁plasma	-11.5767
▁Irland	-11.5767
▁oferta	-11.5767
▁institucional	-11.5767
▁premissa	-11.5767
▁licenciatura	-11.5767
▁vazia	-11.5767
▁externo	-11.5767
▁dolorosa	-11.5767
▁musicais	-11.5767
▁vestígio	-11.5767
▁intervalo	-11.5767
▁Permite	-11.5767
▁diabetes	-11.5767
▁firme	-11.5767
▁neural	-11.5767
▁apropriada	-11.5767
▁distrito	-11.5767
▁trafica	-11.5767
▁produtiva	-11.5768
▁distribuir	-11.5768
▁frágil	-11.5768
▁asiático	-11.5768
▁creche	-11.5768
▁acampamento	-11.5768
▁desvantage	-11.5768
▁coelho	-11.5768
▁solteira	-11.5768
acci	-11.5768
▁legais	-11.5768
▁Albert	-11.5768
▁fantasia	-11.5768
▁mestre	-11.5768
▁autoestrada	-11.5768
▁Glass	-11.5768
▁agrupamento	-11.5768
▁desfrutar	-11.5768
▁Sandy	-11.5768
▁tristeza	-11.5768
▁sábado	-11.5768
▁Perguntei	-11.5768
▁suspeito	-11.5769
▁séc	-11.5769
▁estreito	-11.5769
▁botões	-11.5769
ocial	-11.5769
▁ninho	-11.5769
▁coloquei	-11.5769
▁aceitável	-11.577
▁Gius	-11.577
▁consomem	-11.577
▁reconhecida	-11.5771
▁aceitou	-11.5771
▁negação	-11.5772
▁fantasma	-11.5772
▁King	-11.5773
▁desenhada	-11.5773
▁rebelde	-11.5773
▁2,5	-11.5774
triz	-11.5774
▁Tecnologi	-11.5774
▁tropica	-11.5774
▁AVC	-11.5774
▁caçadores	-11.5774
▁vendida	-11.5775
▁percebo	-11.5776
▁síndrome	-11.5777
▁penic	-11.5778
▁Americana	-11.5778
▁inventado	-11.5779
▁teclado	-11.578
▁tigre	-11.578
▁neo	-11.5781
ores	-11.5782
▁museus	-11.5782
xy	-11.5783
▁regularmente	-11.5783
▁aptidão	-11.5784
▁cantores	-11.5785
ães	-11.5786
▁brutal	-11.5786
▁pesada	-11.5787
▁imaginado	-11.5787
▁impressionado	-11.5788
▁tirou	-11.5788
▁glaciares	-11.5788
▁celular	-11.5788
▁vendedores	-11.5789
▁flexíveis	-11.5789
▁puseram	-11.5789
▁cubo	-11.579
▁salvou	-11.5792
▁introduzido	-11.5792
▁ameaçado	-11.5793
▁cól	-11.5799
▁medições	-11.5799
abilóni	-11.5801
▁doador	-11.5803
▁ignorada	-11.5803
▁reflexo	-11.5808
▁Far	-11.5808
▁pen	-11.581
▁aquecer	-11.5813
stria	-11.5814
▁lindamente	-11.5814
feitos	-11.5815
▁navegador	-11.5817
▁asteroide	-11.5818
alha	-11.5818
▁exibi	-11.5819
▁Pensava	-11.5825
▁celebra	-11.5825
▁prosperar	-11.5826
▁Alex	-11.5827
▁4.	-11.5828
▁Caso	-11.5829
▁exercer	-11.5829
▁fricç	-11.5829
▁conscientemente	-11.5829
▁recolha	-11.5838
pólio	-11.5841
▁perguntámos	-11.5843
▁observam	-11.5843
▁descrito	-11.5843
▁conter	-11.5845
▁simulaç	-11.5845
▁modificar	-11.5848
▁cela	-11.5852
▁Nasci	-11.5853
▁ministro	-11.5864
▁condicionado	-11.5865
▁ocorrem	-11.5876
▁Palestin	-11.5876
▁extrovertidos	-11.5878
▁viv	-11.5878
cimo	-11.5889
▁flui	-11.5894
EM	-11.5906
▁confort	-11.5906
▁mineiro	-11.5908
attle	-11.5908
▁abrimo	-11.5916
▁Corre	-11.5917
col	-11.5918
▁colocámos	-11.5923
arlamento	-11.5923
xting	-11.5928
▁relato	-11.5929
▁minúsculas	-11.5931
▁Vá	-11.5932
▁aposto	-11.5937
▁96	-11.5938
▁viria	-11.5939
▁encarar	-11.5939
eto	-11.5942
▁ultrapassa	-11.5948
▁avança	-11.595
silo	-11.5957
▁interpretar	-11.5971
▁imóve	-11.5973
▁capta	-11.5974
▁Ha	-11.5976
lé	-11.5978
▁estudá	-11.5981
contentores	-11.5983
▁graves	-11.5991
ly	-11.5991
▁moscas	-11.5992
▁testa	-11.5998
DE	-11.6001
▁amava	-11.6003
▁preservar	-11.6004
▁Lar	-11.6011
▁contratar	-11.6018
▁aba	-11.6022
caria	-11.6027
▁observado	-11.6029
he	-11.6029
▁faltam	-11.6035
▁desculpas	-11.6039
▁subjacente	-11.6044
▁democrático	-11.6044
▁Tente	-11.605
▁colher	-11.605
▁aponta	-11.6051
▁prédio	-11.6053
▁lacuna	-11.6059
▁apostar	-11.606
▁urbana	-11.606
▁urso	-11.6062
▁tempestade	-11.6063
▁masculino	-11.6063
▁recorrer	-11.6064
▁43	-11.6065
▁concordo	-11.6067
▁surpreendido	-11.6068
▁preconceito	-11.6068
▁tentem	-11.6069
▁roubo	-11.607
▁biólogo	-11.6072
scal	-11.6073
ker	-11.6078
▁filantropi	-11.6081
▁benefício	-11.6087
▁preparado	-11.6088
▁adulto	-11.6091
▁actor	-11.6092
▁assumi	-11.6094
▁comercializa	-11.6095
▁Cla	-11.6099
▁capturar	-11.6103
▁Ex	-11.6104
▁Recebe	-11.611
▁Roma	-11.6111
▁analis	-11.6115
▁localizado	-11.6128
▁mis	-11.6129
▁torne	-11.6131
▁93	-11.6136
▁entidades	-11.6143
▁Henr	-11.6143
▁corda	-11.6148
▁elevados	-11.6154
▁existente	-11.6158
▁tempestades	-11.6173
▁ban	-11.6189
▁comportar	-11.6196
▁criarem	-11.6202
▁desloca	-11.6204
▁hábitos	-11.6204
▁obeso	-11.6205
her	-11.6206
▁geri	-11.6208
▁195	-11.6217
-2	-11.622
raça	-11.6223
▁apanha	-11.6224
▁circula	-11.6224
▁olhava	-11.6241
▁electr	-11.6244
▁transporta	-11.625
▁privados	-11.6252
▁salta	-11.6255
▁Vem	-11.626
▁Academi	-11.6265
tese	-11.6268
fer	-11.6268
▁esperanças	-11.6277
▁Construímo	-11.6285
▁corri	-11.6286
▁regulamenta	-11.6289
▁sorri	-11.6291
▁propaga	-11.6304
▁adoramo	-11.6308
ff	-11.6312
▁Mur	-11.6315
▁destaca	-11.6316
▁Vê	-11.6324
▁defende	-11.6338
▁dobra	-11.6345
▁venham	-11.6359
▁modelar	-11.6359
▁Star	-11.636
▁formado	-11.6362
sucedido	-11.6363
▁concordam	-11.6367
lix	-11.6376
▁honest	-11.6381
sessão	-11.6386
▁alega	-11.639
estre	-11.6396
ona	-11.6396
ab	-11.641
ológica	-11.6414
▁invas	-11.6416
operar	-11.6419
▁Acreditam	-11.642
▁apresentado	-11.6421
▁juntamo	-11.643
▁desejam	-11.6431
▁transformado	-11.6432
▁cidad	-11.6433
bar	-11.6437
▁diagnósticos	-11.6438
pera	-11.644
▁autora	-11.6441
▁muni	-11.6444
▁prov	-11.6448
▁comporta	-11.6449
ónia	-11.6454
▁Green	-11.6454
▁desejava	-11.6454
▁prolonga	-11.6461
▁considerem	-11.6462
eda	-11.6465
▁encontrava	-11.6468
gurança	-11.6471
▁policia	-11.6472
▁situa	-11.6473
▁chegue	-11.6475
▁Jeff	-11.6482
▁Projeto	-11.6482
▁causou	-11.6482
▁Geoff	-11.6482
▁Kepler	-11.6482
▁Missouri	-11.6482
▁Rapariga	-11.6482
▁Sky	-11.6482
▁Wikipedia	-11.6482
▁ansioso	-11.6482
▁antidepressivo	-11.6482
▁apresentá	-11.6482
▁arbusto	-11.6482
▁besouro	-11.6482
▁cineasta	-11.6482
▁dinâmico	-11.6482
▁drasticamente	-11.6482
▁escravatura	-11.6482
▁espalhou	-11.6482
▁espessura	-11.6482
▁estúpido	-11.6482
▁fabulosa	-11.6482
▁febre	-11.6482
▁ferimento	-11.6482
▁fraqueza	-11.6482
▁golfe	-11.6482
▁golfinho	-11.6482
▁guitarra	-11.6482
▁hacker	-11.6482
▁incapaz	-11.6482
▁indícios	-11.6482
▁polímero	-11.6482
▁presidencia	-11.6482
▁proveniente	-11.6482
▁proximidade	-11.6482
▁quantitativa	-11.6482
▁submarino	-11.6482
▁sábio	-11.6482
▁válvula	-11.6482
▁álcool	-11.6482
▁Stephen	-11.6482
▁detalhada	-11.6482
▁autónomo	-11.6482
▁Antiga	-11.6482
▁flexibilidade	-11.6482
▁rabisco	-11.6482
▁chapéu	-11.6482
▁etapa	-11.6482
▁sólida	-11.6482
▁ambicioso	-11.6482
▁saudita	-11.6482
▁túmulo	-11.6482
▁malicioso	-11.6482
▁monstro	-11.6482
▁inerente	-11.6482
▁noturno	-11.6482
▁refiro	-11.6482
ustiça	-11.6482
▁espectro	-11.6482
▁omnipresente	-11.6482
▁precioso	-11.6482
▁suposta	-11.6482
▁teórico	-11.6482
▁enfermeiro	-11.6482
▁artesana	-11.6482
▁amarela	-11.6482
▁matriz	-11.6482
▁País	-11.6482
▁mágica	-11.6482
▁educativa	-11.6482
▁muscular	-11.6482
▁renda	-11.6482
▁exposta	-11.6482
▁rotina	-11.6482
▁produtivo	-11.6482
▁CEO	-11.6482
▁simultâne	-11.6482
▁fogueira	-11.6482
▁feio	-11.6482
▁trigo	-11.6482
▁Chef	-11.6482
▁Peço	-11.6482
▁selvagens	-11.6482
▁arterial	-11.6482
▁largo	-11.6483
▁injeç	-11.6483
▁fomenta	-11.6483
▁hot	-11.6483
▁desvio	-11.6483
▁escasse	-11.6483
▁Hanna	-11.6483
▁Newton	-11.6483
▁trilh	-11.6484
▁lama	-11.6484
▁irónico	-11.6484
ático	-11.6485
▁surto	-11.6485
▁mestrado	-11.6485
▁Justine	-11.6485
▁Deixo	-11.6485
▁campe	-11.6485
▁poço	-11.6486
▁caneta	-11.6486
▁eléctrica	-11.6487
▁sensíve	-11.6487
▁neutro	-11.6487
▁chi	-11.6487
▁falsificaç	-11.6487
▁primária	-11.6487
▁programáve	-11.6487
▁comprou	-11.6487
▁entusiasmada	-11.6487
▁irritante	-11.6487
▁48	-11.6488
▁fundamento	-11.6489
▁subti	-11.6489
▁equilibrar	-11.6489
▁informar	-11.6489
▁arrisca	-11.649
▁minima	-11.649
▁arredor	-11.649
▁consideramo	-11.649
▁Odisse	-11.649
▁telefonema	-11.6491
▁detectar	-11.6491
▁logística	-11.6491
▁arquitecto	-11.6491
▁oradores	-11.6492
▁cru	-11.6492
▁horizontal	-11.6492
▁educada	-11.6493
▁abordagens	-11.6493
▁sequenciar	-11.6493
▁Dê	-11.6494
▁policial	-11.6494
▁conven	-11.6495
▁Bell	-11.6495
▁postura	-11.6496
▁quarteirão	-11.6496
fiel	-11.6497
▁fortalecer	-11.6497
▁bateu	-11.6498
▁vendido	-11.6498
▁preocupem	-11.6498
▁identificação	-11.6499
▁dividido	-11.65
▁CD	-11.65
▁deixava	-11.65
castanha	-11.6501
▁comparada	-11.6501
▁circulação	-11.6503
▁TB	-11.6504
▁biografia	-11.6505
▁honestamente	-11.6506
▁eleito	-11.6507
▁Buda	-11.6507
▁cortina	-11.6507
▁isolada	-11.6508
▁danificado	-11.6508
▁contracep	-11.6508
▁marinha	-11.651
▁colatera	-11.651
▁ELA	-11.651
▁usámo	-11.651
▁terminal	-11.6511
ington	-11.6511
▁valorizar	-11.6512
▁animado	-11.6512
▁espalhada	-11.6514
▁Milh	-11.6514
▁metas	-11.6517
ndonési	-11.6519
▁digno	-11.6523
▁localizar	-11.6526
▁visões	-11.6527
▁imprevisíve	-11.6527
▁repetida	-11.6529
damente	-11.653
▁estimula	-11.653
▁Viaj	-11.653
▁produzida	-11.6534
gua	-11.6536
▁gravada	-11.6542
▁virou	-11.6543
▁projecta	-11.6546
▁Devo	-11.6547
▁encoraja	-11.6553
ezas	-11.6566
▁ouço	-11.6569
▁construtor	-11.6569
▁pagamos	-11.6572
▁identidades	-11.6574
▁casaco	-11.6578
▁limitar	-11.6579
▁outono	-11.6583
▁valer	-11.6584
▁aplicado	-11.6584
▁gast	-11.6593
▁julgava	-11.6593
▁goste	-11.6599
sibilidade	-11.6607
▁Sab	-11.6609
▁Hal	-11.6611
▁passarem	-11.6616
▁Tor	-11.6617
▁arrancar	-11.662
▁Hu	-11.662
▁custam	-11.6621
▁interiores	-11.6627
▁Senhora	-11.663
▁adaptáve	-11.6631
▁sonda	-11.6632
▁colecç	-11.6635
▁representada	-11.6636
rga	-11.6638
▁criminaliza	-11.6641
▁bala	-11.6645
▁faci	-11.6654
▁panor	-11.6655
itz	-11.6656
▁comem	-11.6662
▁andares	-11.6663
▁empurra	-11.6664
▁Isa	-11.6666
ment	-11.6667
▁exist	-11.6674
▁convence	-11.6679
erança	-11.6679
▁encher	-11.6684
ana	-11.6688
▁sof	-11.6696
▁atenta	-11.6696
▁mi	-11.6706
▁calcula	-11.6708
▁escrevia	-11.6712
▁especula	-11.6714
aki	-11.6717
▁economiza	-11.6717
▁veja	-11.6721
▁equipamentos	-11.6724
▁fortemente	-11.6725
▁contador	-11.6726
▁sensibili	-11.6727
▁Anna	-11.6735
▁fiáve	-11.674
ower	-11.6752
▁We	-11.6753
▁37	-11.6757
▁elevar	-11.6764
▁Morto	-11.6771
▁Dado	-11.6774
▁sujeitos	-11.6774
▁separa	-11.6777
▁instáve	-11.6783
▁Pedi	-11.6788
▁Sud	-11.6792
wan	-11.6793
▁depend	-11.6802
▁sede	-11.6806
▁andarem	-11.6816
▁africana	-11.6819
▁senta	-11.682
▁Hond	-11.6825
▁smartphone	-11.6828
▁abraço	-11.6829
▁entidade	-11.6833
▁inevit	-11.6837
▁deslocar	-11.684
▁puxa	-11.6841
▁lente	-11.6842
▁aborda	-11.6849
▁refei	-11.6852
▁ajudarem	-11.6854
▁estrutural	-11.6855
sen	-11.6856
▁começarem	-11.6859
▁multiplica	-11.6863
▁apercebemo	-11.6867
nforme	-11.6867
▁Chamava	-11.687
órdi	-11.6873
▁honesto	-11.6874
▁dispersa	-11.6875
▁AK	-11.6883
▁educado	-11.6888
▁fezes	-11.689
▁recorre	-11.6913
▁inovadora	-11.6915
▁misturar	-11.6918
▁ursos	-11.692
▁historiador	-11.6926
rus	-11.6928
▁reta	-11.6937
▁financeiras	-11.6939
▁recolhem	-11.6939
▁entrava	-11.6942
▁fic	-11.6957
old	-11.6961
▁comunica	-11.6974
êssemos	-11.6979
▁Kev	-11.6985
▁certifica	-11.6997
▁64	-11.6998
mónio	-11.7
▁rastrea	-11.7003
▁desenvolvidos	-11.7007
▁esmagado	-11.7012
42	-11.7033
▁trocas	-11.7038
▁0,	-11.7038
▁eleva	-11.7039
▁escava	-11.7042
▁Ur	-11.7045
▁Carol	-11.7045
▁sab	-11.7047
▁Ross	-11.7049
▁sobe	-11.705
pta	-11.7051
▁criava	-11.7058
▁gras	-11.706
▁46	-11.7069
▁retira	-11.7071
▁dona	-11.7074
▁comete	-11.7078
▁deixámo	-11.708
▁Vivia	-11.7083
▁confiantes	-11.7087
▁interroga	-11.7097
mbo	-11.71
▁cabe	-11.7101
▁navega	-11.7102
▁passe	-11.711
▁assusta	-11.7119
▁fr	-11.7122
▁procuro	-11.7123
ech	-11.7124
▁expressa	-11.713
abrigo	-11.7133
úteis	-11.7136
▁Project	-11.7138
▁tentativas	-11.714
lidade	-11.714
mas	-11.7146
▁interliga	-11.715
▁habitats	-11.7155
▁quisessem	-11.7155
▁adotar	-11.7157
▁CE	-11.7164
▁interagi	-11.7166
▁Compreend	-11.7169
zero	-11.7171
▁193	-11.7171
▁envolvem	-11.7176
▁performa	-11.718
▁Inc	-11.7181
▁mudaria	-11.7181
trónomos	-11.7198
▁descrevi	-11.72
iv	-11.72
sola	-11.7209
▁posiciona	-11.7211
▁personaliza	-11.7212
▁salaria	-11.7213
▁Bol	-11.7214
▁cast	-11.7214
bur	-11.7215
lema	-11.7219
nfim	-11.7222
▁define	-11.7225
▁tr	-11.723
▁Wo	-11.7233
▁engenho	-11.7235
▁triba	-11.7239
▁interpret	-11.7242
▁isolado	-11.7243
▁inclus	-11.7244
▁carrega	-11.7244
▁polariza	-11.7245
▁ativis	-11.7245
núnci	-11.7245
▁causam	-11.7247
▁insegura	-11.7251
ágio	-11.7251
íduos	-11.7251
▁General	-11.7251
▁HIV	-11.7251
▁Kennedy	-11.7251
▁Movimento	-11.7251
▁Orienta	-11.7251
▁Toronto	-11.7251
▁Ushahidi	-11.7251
▁Voyage	-11.7251
▁abutre	-11.7251
▁adolescência	-11.7251
▁assassino	-11.7251
▁assassínio	-11.7251
▁cerimónia	-11.7251
▁climático	-11.7251
▁contempla	-11.7251
▁controvérsia	-11.7251
▁cívico	-11.7251
▁diagnosticar	-11.7251
▁gaiola	-11.7251
▁infidel	-11.7251
▁italiano	-11.7251
▁julgo	-11.7251
▁mesquita	-11.7251
▁persuadi	-11.7251
▁pesticida	-11.7251
▁prateleira	-11.7251
▁recipiente	-11.7251
▁sacrifício	-11.7251
▁textura	-11.7251
▁táxi	-11.7251
▁universitária	-11.7251
▁coberta	-11.7251
▁elogio	-11.7251
▁gravitacional	-11.7251
▁pesadelo	-11.7251
▁esgoto	-11.7251
▁banqueiro	-11.7251
▁icebergue	-11.7251
▁lealdade	-11.7251
▁neurocientista	-11.7251
▁rapidez	-11.7251
▁crónica	-11.7251
▁maluca	-11.7251
▁asfalt	-11.7251
▁enriquece	-11.7251
▁rasto	-11.7251
▁convite	-11.7251
▁sobrevivi	-11.7251
▁obsessão	-11.7251
▁rituais	-11.7251
▁selecciona	-11.7251
▁artéria	-11.7251
▁fragmentação	-11.7251
▁Virgin	-11.7251
▁intrigante	-11.7251
▁íman	-11.7251
▁Stew	-11.7251
chran	-11.7251
▁convicç	-11.7251
▁finança	-11.7251
▁desviar	-11.7251
▁fóss	-11.7251
▁Faço	-11.7251
▁Johnny	-11.7251
▁automaticamente	-11.7251
▁caravana	-11.7251
▁superpoder	-11.7251
▁fralda	-11.7251
▁manteve	-11.7251
VIII	-11.7251
▁novembro	-11.7251
▁veia	-11.7252
▁Ponto	-11.7252
▁monta	-11.7252
▁mentiroso	-11.7252
▁unidimensional	-11.7252
▁aliança	-11.7252
▁federal	-11.7252
▁imagino	-11.7252
▁Cabo	-11.7252
▁balde	-11.7252
▁rap	-11.7253
▁oscila	-11.7253
▁convidou	-11.7254
▁Lib	-11.7254
▁extremidade	-11.7254
▁Levei	-11.7254
▁RV	-11.7254
▁Canal	-11.7254
▁festiva	-11.7254
▁grata	-11.7254
▁Força	-11.7255
▁Narrador	-11.7255
▁alienígena	-11.7255
▁pasta	-11.7255
▁esquadra	-11.7256
▁maratona	-11.7256
▁prostituta	-11.7256
▁cascata	-11.7256
▁permitindo	-11.7256
▁concebida	-11.7257
▁Shad	-11.7257
▁biomas	-11.7258
fectar	-11.7258
▁bilh	-11.7259
▁espectacular	-11.7259
▁conceção	-11.7259
▁matou	-11.7259
▁larva	-11.7259
qu	-11.726
▁pego	-11.726
elândia	-11.7261
▁aperfeiçoar	-11.7261
▁Recordo	-11.7262
▁Steven	-11.7262
stop	-11.7263
▁compreendida	-11.7263
▁adicionais	-11.7263
▁absurdo	-11.7264
▁Ram	-11.7264
▁acompanhado	-11.7264
▁amadores	-11.7264
▁colorido	-11.7265
▁sensíveis	-11.7265
▁experiente	-11.7266
▁consumidor	-11.7266
▁Mig	-11.7266
▁correntes	-11.7266
▁modificada	-11.7266
▁arriscado	-11.7266
▁mobilizar	-11.7267
▁experimental	-11.7269
▁foguetão	-11.7269
▁lançada	-11.7269
▁controversa	-11.7269
▁Descobriram	-11.7271
▁pontuaç	-11.7271
GO	-11.7271
▁Nick	-11.7271
▁atuar	-11.7271
▁masculina	-11.7272
▁permitam	-11.7274
▁Perdi	-11.7274
▁flutuante	-11.7275
▁proto	-11.7275
▁lidam	-11.7275
▁optar	-11.7276
▁fluente	-11.7276
▁psicopata	-11.7277
▁demonstrado	-11.7278
▁determinação	-11.7278
▁Muni	-11.7278
▁Muda	-11.7281
les	-11.7281
Bit	-11.7282
▁reuniram	-11.7282
▁coleção	-11.7284
▁permitisse	-11.7284
▁espalhado	-11.7285
▁espada	-11.7285
▁generaliza	-11.7286
▁fardo	-11.7286
▁satisfaze	-11.7287
migração	-11.7287
vin	-11.7288
▁definem	-11.7289
Donald	-11.7289
▁agrada	-11.729
▁transportado	-11.7294
▁perguntem	-11.7295
▁pombo	-11.7298
lia	-11.7299
▁resumi	-11.7299
▁faca	-11.73
▁afectada	-11.7301
▁Nair	-11.7304
▁massiva	-11.7306
▁factor	-11.7308
▁Bel	-11.7308
▁padre	-11.7309
▁gerada	-11.731
▁anunciou	-11.731
▁informa	-11.7313
▁caminh	-11.7313
▁mortais	-11.7313
▁Fri	-11.7316
▁empenhado	-11.7321
▁morar	-11.7322
▁lógico	-11.7324
▁Frequente	-11.7324
▁concorda	-11.7324
▁Cole	-11.7324
nze	-11.7324
▁Lee	-11.7325
▁articula	-11.7327
▁Conta	-11.733
▁chamavam	-11.7334
▁competitivo	-11.7335
▁afetam	-11.7336
▁bombeiros	-11.7338
▁levando	-11.7338
ssões	-11.7346
▁estimular	-11.7346
▁lava	-11.7346
obi	-11.7356
▁Voa	-11.7361
▁provoc	-11.7362
▁terrivel	-11.7362
▁Berk	-11.7364
▁guiado	-11.7364
▁responderam	-11.7366
MA	-11.7367
▁crescia	-11.7371
har	-11.7382
▁editora	-11.7384
▁multinaciona	-11.7388
▁sincera	-11.7388
▁lança	-11.7393
▁ajude	-11.7394
▁noiva	-11.7396
cri	-11.7403
ct	-11.7406
luz	-11.7408
▁alterado	-11.741
gramática	-11.7413
▁regula	-11.7415
▁classificar	-11.7415
NG	-11.7415
lly	-11.7423
▁formigas	-11.7442
▁fragmentos	-11.7442
▁curador	-11.7446
▁adoraria	-11.7447
▁regress	-11.745
▁cometer	-11.7457
▁sorrir	-11.7463
▁Imagin	-11.7463
▁equipas	-11.7464
eguei	-11.7467
▁cano	-11.747
▁ético	-11.7475
ncialmente	-11.7476
▁levantam	-11.7479
▁operaciona	-11.7484
ressões	-11.7491
▁chegarem	-11.7493
▁falante	-11.7503
▁frequentar	-11.7503
▁sentiram	-11.7504
▁manda	-11.7519
▁prové	-11.7521
rins	-11.7522
▁cinto	-11.7527
▁Passa	-11.7529
▁Sete	-11.7531
▁Wal	-11.7534
▁Compra	-11.7536
▁pop	-11.7537
▁compram	-11.7538
▁marcado	-11.7546
▁ganhe	-11.7553
▁cheios	-11.7553
estrutura	-11.7557
ub	-11.756
▁Hans	-11.7561
xo	-11.7566
▁ouça	-11.7571
▁entregar	-11.7575
▁incentiva	-11.7575
▁acende	-11.7579
▁passageiros	-11.7583
▁virtua	-11.7591
▁Bi	-11.7593
ix	-11.7596
▁Estudo	-11.7603
▁sujeita	-11.7606
▁imp	-11.7608
▁apreci	-11.7611
▁crio	-11.7612
essão	-11.7616
▁camar	-11.7616
▁absorve	-11.7619
▁indígenas	-11.7619
▁declar	-11.762
TO	-11.763
▁tend	-11.7634
iva	-11.7637
ux	-11.7638
▁confessa	-11.7646
▁semelhança	-11.7647
▁saque	-11.7648
▁matemáticas	-11.7649
▁processador	-11.7652
▁inesperado	-11.7652
▁corajosa	-11.7655
▁mantemo	-11.7655
ain	-11.7658
▁arquivo	-11.7658
▁violento	-11.7661
▁envolvida	-11.7662
▁maré	-11.7664
mit	-11.7667
▁arquiteto	-11.7669
omé	-11.7669
▁emergente	-11.7672
▁nervo	-11.7675
▁Cal	-11.7676
▁Pop	-11.7676
▁isolados	-11.7676
▁localizaç	-11.7679
▁Inver	-11.7684
▁lidera	-11.7689
▁abraç	-11.7691
▁captura	-11.7695
▁julga	-11.7696
▁precisas	-11.7704
onar	-11.7721
▁solid	-11.7726
▁enfrenta	-11.7737
▁afirmar	-11.7742
▁mostrava	-11.7751
ndi	-11.7752
▁interven	-11.7752
▁pá	-11.7768
▁Ki	-11.7775
▁ganh	-11.7777
timo	-11.7779
áudi	-11.7779
rais	-11.7792
▁estica	-11.7792
▁prontas	-11.7799
▁resolvidos	-11.7799
oga	-11.78
▁inclusiv	-11.7803
▁Che	-11.7805
▁Stac	-11.7806
▁nativo	-11.7808
real	-11.7812
assem	-11.7829
▁chorava	-11.7832
▁porno	-11.7834
▁mono	-11.7836
▁Coloca	-11.7838
ergu	-11.7839
▁33	-11.7844
iana	-11.7853
tim	-11.7862
usa	-11.7865
bel	-11.7886
▁gu	-11.7896
conforto	-11.79
▁observ	-11.79
gram	-11.7904
▁impedi	-11.7907
rder	-11.791
▁Aparece	-11.7915
tenta	-11.7923
ilicon	-11.7931
▁diários	-11.7945
▁escuras	-11.7947
cro	-11.795
▁concretiza	-11.7952
▁pesa	-11.7953
▁Charl	-11.7954
▁jogador	-11.7956
cha	-11.7956
▁Su	-11.796
ministro	-11.7961
▁Sy	-11.7962
▁vendem	-11.7963
▁Han	-11.7964
ducação	-11.7974
▁acolher	-11.7975
rdu	-11.7979
▁Ni	-11.798
▁espelhos	-11.7982
fro	-11.7983
▁afasta	-11.7987
▁escut	-11.7988
ior	-11.7991
▁Falam	-11.7995
▁conduzi	-11.7999
▁gere	-11.8
ick	-11.8
▁invent	-11.8005
▁constitu	-11.8007
▁pau	-11.801
rtic	-11.8014
▁preferi	-11.8015
▁patri	-11.8015
ena	-11.8018
gue	-11.8019
▁fabrica	-11.8019
▁ridícul	-11.8026
▁geram	-11.8026
mart	-11.8027
▁significativos	-11.8027
▁analisá	-11.8028
ína	-11.803
▁ida	-11.8033
▁Gol	-11.8035
od	-11.8038
q	-11.8041
chu	-11.8042
linear	-11.8044
▁engoli	-11.8044
ft	-11.8046
▁afecta	-11.8047
▁deixasse	-11.8049
íssimo	-11.8051
▁Sir	-11.8052
ónio	-11.8054
▁prometi	-11.8054
▁esqueci	-11.8058
▁encolhe	-11.8062
▁tecla	-11.8068
▁revolta	-11.8068
▁subestima	-11.8069
oster	-11.8071
▁justifica	-11.8071
ya	-11.8071
▁hiper	-11.8074
ncipe	-11.808
▁pró	-11.8082
▁difere	-11.8082
▁introdu	-11.8083
terrâneo	-11.8084
▁extraordin	-11.8084
▁bizarra	-11.8084
▁distinta	-11.8084
▁gentil	-11.8084
▁instantânea	-11.8084
▁maximizar	-11.8084
▁Faiza	-11.8084
▁Himalaias	-11.8084
▁Islâmic	-11.8084
▁Kiribati	-11.8084
▁Pensilvânia	-11.8084
▁Titã	-11.8084
▁Virgínia	-11.8084
▁biomolécula	-11.8084
▁bitcoins	-11.8084
▁chocado	-11.8084
▁chávena	-11.8084
▁conselheiro	-11.8084
▁consenso	-11.8084
▁cápsula	-11.8084
▁emprestado	-11.8084
▁engraçada	-11.8084
▁espectáculo	-11.8084
▁evacua	-11.8084
▁exossomas	-11.8084
▁guardi	-11.8084
▁hierarqui	-11.8084
▁judaica	-11.8084
▁magnífica	-11.8084
▁meteorológico	-11.8084
▁noticiário	-11.8084
▁peculiar	-11.8084
▁prefiro	-11.8084
▁romântic	-11.8084
▁simetria	-11.8084
▁slogan	-11.8084
▁sombria	-11.8084
▁veneno	-11.8084
▁válida	-11.8084
▁árduo	-11.8084
▁concreta	-11.8084
▁Noutra	-11.8084
▁envergonhado	-11.8084
▁ideais	-11.8084
▁desmonta	-11.8084
▁híbrido	-11.8084
▁medalha	-11.8084
▁ruína	-11.8084
▁tronco	-11.8084
▁Earth	-11.8084
▁duche	-11.8084
▁seletiva	-11.8084
▁Chern	-11.8084
▁savana	-11.8084
arganta	-11.8084
▁propinas	-11.8084
▁Industrial	-11.8084
▁Edward	-11.8084
▁adesivo	-11.8084
▁Trum	-11.8084
▁retângulo	-11.8084
▁ácido	-11.8084
▁trinta	-11.8084
▁Valley	-11.8084
▁rainha	-11.8084
▁taça	-11.8084
▁desaparecido	-11.8085
▁protões	-11.8085
▁colidir	-11.8085
▁Control	-11.8085
▁amplo	-11.8085
▁seroton	-11.8085
▁Pronto	-11.8085
▁coerente	-11.8085
▁filmado	-11.8085
▁calculadora	-11.8085
▁rodeada	-11.8085
▁cheque	-11.8085
▁revolucionar	-11.8085
▁imaginei	-11.8085
▁executivo	-11.8085
▁agressor	-11.8085
▁Helen	-11.8085
▁Copen	-11.8085
▁confrontado	-11.8086
▁Kong	-11.8086
▁fatal	-11.8086
▁vizinha	-11.8086
iforme	-11.8086
▁Turk	-11.8086
▁atrasar	-11.8086
▁funera	-11.8087
▁Curios	-11.8087
▁turno	-11.8088
▁lote	-11.8088
▁gigantesco	-11.8088
Rabbit	-11.8089
▁copa	-11.8089
▁legítimo	-11.8089
▁educacional	-11.8089
▁gigantesca	-11.809
▁Apol	-11.809
▁enterrado	-11.809
orker	-11.809
▁Max	-11.8091
▁muçulmana	-11.8091
▁conspiração	-11.8091
▁desperdiçar	-11.8091
▁registado	-11.8091
▁detido	-11.8092
▁CR	-11.8092
▁Clint	-11.8093
▁reduzido	-11.8093
▁ateu	-11.8094
pende	-11.8094
▁concorrente	-11.8095
▁derreter	-11.8095
▁39	-11.8097
▁mercadoria	-11.8097
▁redefinir	-11.8097
▁distribuída	-11.8097
lábios	-11.8098
▁suspensa	-11.8099
▁frustrada	-11.8099
▁ambientalista	-11.8099
▁lesões	-11.8099
▁Levantem	-11.8099
tirando	-11.8099
▁vice	-11.8099
▁Vêem	-11.81
▁desafiante	-11.81
▁heroína	-11.81
▁caminha	-11.81
▁geografia	-11.8101
▁preferem	-11.8101
▁bebida	-11.8102
▁racis	-11.8102
▁aplicam	-11.8103
▁Tipo	-11.8103
tável	-11.8103
▁34	-11.8103
▁Sub	-11.8104
▁maxilar	-11.8104
▁nobre	-11.8105
▁concordaram	-11.8106
0,000	-11.8106
▁cintur	-11.8107
▁honesta	-11.8107
▁suspenso	-11.8107
▁espin	-11.8107
▁Jones	-11.8108
▁violada	-11.8108
▁tomei	-11.8109
▁recebo	-11.811
▁atacado	-11.811
▁suor	-11.8111
▁concentrado	-11.8111
▁automa	-11.8114
▁Alan	-11.8114
▁tóxico	-11.8114
iço	-11.8115
▁pol	-11.8115
▁provou	-11.8116
▁empurrar	-11.8117
▁anestesia	-11.8118
▁transformando	-11.8119
filia	-11.8121
▁autonom	-11.8121
▁pouso	-11.8122
▁Bu	-11.8123
▁testado	-11.8125
OR	-11.8126
▁estático	-11.8126
▁quad	-11.8126
▁pondo	-11.813
awi	-11.8131
senhei	-11.8131
▁latino	-11.8131
▁lançaram	-11.8132
▁impressionantes	-11.8132
▁estática	-11.8133
▁realizada	-11.8134
▁levavam	-11.8135
▁lares	-11.8137
source	-11.8137
▁escolhem	-11.8137
▁dedicar	-11.8139
▁confiss	-11.814
▁deprimido	-11.8141
▁diretores	-11.8141
▁embarcar	-11.8141
▁otimis	-11.8143
▁ativar	-11.8144
▁reproduz	-11.8144
▁certificar	-11.8145
▁implacáve	-11.8145
▁uni	-11.8145
▁influencia	-11.8145
▁Monte	-11.8147
▁activado	-11.8151
▁viajante	-11.8153
▁preocupada	-11.8155
sey	-11.8157
▁reclamar	-11.8157
▁recetor	-11.8158
und	-11.8159
▁violar	-11.816
▁revisor	-11.816
▁festeja	-11.8162
▁Mall	-11.8165
▁remove	-11.8167
▁simpl	-11.8168
▁Esperem	-11.8169
▁contemporâneo	-11.817
fere	-11.817
▁vestir	-11.8171
cup	-11.8173
▁Podiam	-11.8174
dow	-11.8174
▁evoca	-11.8174
▁ovo	-11.8174
ylan	-11.8175
▁leu	-11.8182
▁metais	-11.8185
▁viciado	-11.8186
▁agressivo	-11.8188
▁quantifica	-11.8189
▁aparecia	-11.8195
▁artes	-11.8196
▁vinte	-11.8203
▁executa	-11.821
▁eterna	-11.8216
▁costumam	-11.8216
▁comprado	-11.8218
▁duram	-11.8219
▁Trabalho	-11.822
ácia	-11.8227
▁ju	-11.8234
lica	-11.8236
▁recorte	-11.8237
▁exp	-11.8238
▁Usámo	-11.8249
▁saberem	-11.825
▁aterrar	-11.8252
venda	-11.8252
BM	-11.8255
▁assenta	-11.8256
▁valida	-11.8257
▁representante	-11.826
tato	-11.826
▁AB	-11.8264
▁manufatura	-11.8266
▁preenche	-11.827
▁lider	-11.8276
▁utilizamos	-11.828
cional	-11.8284
▁entraram	-11.8287
▁atravess	-11.8288
▁perguntasse	-11.829
▁pontes	-11.829
EB	-11.8291
▁relativ	-11.8292
▁Fe	-11.8293
▁reformado	-11.8297
▁milh	-11.8301
▁lerem	-11.8302
▁recu	-11.8315
▁adiciona	-11.8321
▁devida	-11.8322
▁colocarem	-11.8322
▁assume	-11.8326
▁gerado	-11.8329
▁Sant	-11.8335
▁preferia	-11.8339
▁seguiram	-11.8341
▁voador	-11.8353
▁mera	-11.8359
▁bocados	-11.8363
▁pioneiros	-11.837
▁visualizaç	-11.8371
▁medita	-11.8373
▁destacar	-11.8373
▁Cre	-11.8374
▁esticar	-11.8374
▁libert	-11.8379
▁Crist	-11.8379
▁Representa	-11.8384
▁atraso	-11.8388
▁resum	-11.8391
▁procur	-11.8396
▁Escrit	-11.8396
▁espi	-11.8405
daí	-11.8407
▁extraterrestres	-11.8408
▁parada	-11.8409
▁85	-11.8409
▁Pat	-11.8412
RA	-11.8414
▁faculdades	-11.8419
▁Kar	-11.8421
▁encomenda	-11.8422
mmel	-11.8425
▁continuamente	-11.8426
▁sufoca	-11.8426
ónica	-11.843
▁aliado	-11.8433
▁pressionar	-11.8434
pont	-11.8435
caminhada	-11.8437
▁introduzi	-11.8444
▁influenciado	-11.845
dal	-11.8456
eve	-11.8458
▁possibilita	-11.8461
▁filmage	-11.8462
nch	-11.8474
▁desconhecidos	-11.8475
▁pintor	-11.8481
▁pe	-11.8487
entes	-11.8494
▁passá	-11.8498
▁sino	-11.8498
▁agi	-11.8499
▁aprendermos	-11.8501
▁progressos	-11.8502
▁estre	-11.8504
▁moti	-11.851
manda	-11.8515
▁envolvidas	-11.8525
tric	-11.8541
▁caber	-11.8541
▁aceita	-11.8543
lab	-11.8544
cut	-11.8545
▁serra	-11.8545
ven	-11.8547
▁Cá	-11.8552
▁fluorescente	-11.8556
▁brinca	-11.8557
▁otimista	-11.8557
▁atleta	-11.8561
▁trabalharem	-11.8563
▁galeria	-11.8564
▁smartphones	-11.8564
▁montage	-11.8564
▁pequenina	-11.8564
▁suja	-11.8572
▁indígena	-11.8572
▁Sonh	-11.8573
▁religioso	-11.8577
▁empresário	-11.8578
▁escondida	-11.858
▁honestos	-11.8582
▁consegu	-11.8583
▁tonelada	-11.8586
▁historia	-11.8586
▁quilómetro	-11.8586
▁Cap	-11.8587
▁Cat	-11.8591
▁colocada	-11.8592
▁cavalos	-11.8592
▁desafia	-11.8594
▁Indo	-11.8601
▁entusiasma	-11.8602
▁lacunas	-11.8604
▁Cara	-11.861
ire	-11.8611
▁testemunh	-11.8612
▁treme	-11.8613
logia	-11.8619
ISA	-11.8634
▁ang	-11.8634
ek	-11.8646
teção	-11.8647
iga	-11.8648
▁Dou	-11.8651
▁explodi	-11.8668
▁doar	-11.8684
▁Pare	-11.8689
▁avaliado	-11.8693
▁entrarem	-11.8693
▁argumentar	-11.8697
▁resolv	-11.8699
MM	-11.8704
▁Gui	-11.871
▁movimentar	-11.8711
▁espantosas	-11.8711
▁signific	-11.8711
itar	-11.8713
▁Abri	-11.8721
hrir	-11.8736
▁pertencer	-11.8738
hinês	-11.875
▁Trabalham	-11.8751
▁prop	-11.8757
▁enche	-11.8757
▁acolhi	-11.8758
ór	-11.8759
▁ator	-11.8762
bit	-11.8766
▁Escreve	-11.8766
onda	-11.8768
een	-11.8776
▁Hall	-11.8776
ary	-11.8783
▁identifica	-11.8793
izado	-11.8794
▁conquistas	-11.8798
ES	-11.88
▁negativos	-11.8803
umentada	-11.8804
moinho	-11.8805
▁realizador	-11.8811
pil	-11.8812
▁cristal	-11.8814
▁53	-11.8816
▁Gri	-11.8816
ttle	-11.882
▁Vinc	-11.8826
▁encantado	-11.8826
▁promo	-11.8827
▁ave	-11.8833
▁legisla	-11.8837
▁leito	-11.8841
▁Devia	-11.8846
▁Sala	-11.8846
▁3.	-11.8847
▁Ne	-11.8849
▁maiorit	-11.8855
ffit	-11.8858
▁ga	-11.8865
▁concord	-11.8866
Bay	-11.887
curso	-11.8874
violência	-11.8877
▁encar	-11.8877
prazo	-11.8886
▁reduz	-11.8897
▁psico	-11.8902
▁monitor	-11.8905
▁vol	-11.8906
▁papa	-11.8907
▁diminu	-11.8907
▁nalgum	-11.8915
▁Peg	-11.8916
▁vencedor	-11.8916
▁falecid	-11.8919
▁misturado	-11.8922
▁grama	-11.8926
▁ventila	-11.893
▁rápidas	-11.8931
TC	-11.8932
▁Públic	-11.8935
▁orientar	-11.8936
▁forno	-11.8937
▁implementa	-11.8938
ridge	-11.8938
▁explos	-11.8939
gência	-11.8942
▁Pin	-11.8947
▁abri	-11.8948
▁cali	-11.8949
▁improvisa	-11.895
▁ingles	-11.8951
▁reciclado	-11.8956
▁Jud	-11.8957
▁acredite	-11.8959
▁aliena	-11.896
▁refrigera	-11.8961
íbia	-11.8962
▁soubesse	-11.8967
▁maio	-11.897
▁fertiliza	-11.8971
▁vulc	-11.8972
▁directa	-11.8973
arch	-11.8974
▁compará	-11.8974
cida	-11.8976
▁blog	-11.8979
▁envio	-11.898
▁diminuí	-11.898
struiu	-11.8981
▁mostro	-11.8984
▁atribui	-11.8987
▁contribu	-11.8989
▁Ajuda	-11.899
▁magni	-11.8992
▁fóru	-11.8992
irtual	-11.8993
greja	-11.8993
▁miseric	-11.8993
#	-11.8993
▁baralho	-11.8993
▁Accenture	-11.8993
▁Android	-11.8993
▁Guiné	-11.8993
▁Sarajevo	-11.8993
▁Segui	-11.8993
▁Shakespear	-11.8993
▁acidental	-11.8993
▁aminoácidos	-11.8993
▁ancestrais	-11.8993
▁ansiosa	-11.8993
▁autêntica	-11.8993
▁benéfico	-11.8993
▁calendário	-11.8993
▁carpinteiro	-11.8993
▁cogumelo	-11.8993
▁desgasta	-11.8993
▁dramático	-11.8993
▁encaixe	-11.8993
▁esculpi	-11.8993
▁feroz	-11.8993
▁humildade	-11.8993
▁hóspede	-11.8993
▁iPad	-11.8993
▁imperativo	-11.8993
▁imunitária	-11.8993
▁influente	-11.8993
▁islâmico	-11.8993
▁líquida	-11.8993
▁marinheiro	-11.8993
▁neurologista	-11.8993
▁sintética	-11.8993
▁tablet	-11.8993
▁terapeuta	-11.8993
▁titã	-11.8993
▁vitamina	-11.8993
▁voluntária	-11.8993
▁vulnerabilidade	-11.8993
▁comunitária	-11.8993
▁glândula	-11.8993
▁pistola	-11.8993
▁ambiciosa	-11.8993
▁garante	-11.8993
▁inconveniente	-11.8993
▁intensivo	-11.8993
▁pizza	-11.8993
▁píxe	-11.8993
▁North	-11.8993
▁cabana	-11.8993
▁deliciosa	-11.8993
▁despesa	-11.8993
▁distinto	-11.8993
▁íntima	-11.8993
▁bronze	-11.8993
▁correlação	-11.8993
▁etnia	-11.8993
▁geometria	-11.8993
▁péssimo	-11.8993
▁magnética	-11.8993
▁scanner	-11.8993
conveniência	-11.8993
▁correspondência	-11.8993
▁esponja	-11.8993
▁Black	-11.8993
▁Princeton	-11.8993
▁visíveis	-11.8993
▁fotográfica	-11.8993
▁vagina	-11.8993
▁guerreiro	-11.8993
▁golpe	-11.8994
▁traseira	-11.8994
▁fotões	-11.8994
▁evolutiva	-11.8994
▁obtido	-11.8994
▁domingo	-11.8994
▁deparei	-11.8994
▁patologia	-11.8994
▁arqueólog	-11.8994
▁comprei	-11.8994
▁Design	-11.8994
▁desprez	-11.8994
▁ocorrido	-11.8994
gipto	-11.8994
▁confrontar	-11.8994
▁populacional	-11.8994
▁link	-11.8994
▁diamante	-11.8994
▁sentença	-11.8994
shirt	-11.8994
▁Orle	-11.8994
▁dentista	-11.8994
▁encerra	-11.8994
sky	-11.8994
▁roedor	-11.8994
▁impressionou	-11.8994
▁piano	-11.8994
rizon	-11.8994
▁acalmar	-11.8994
crâni	-11.8994
▁replicar	-11.8994
▁sócio	-11.8994
▁recolhido	-11.8994
tzman	-11.8994
▁State	-11.8995
▁recrutamento	-11.8995
▁Soviética	-11.8995
▁picar	-11.8995
▁Desenvolvimento	-11.8995
▁aborrecida	-11.8995
▁cristão	-11.8995
▁confiam	-11.8996
▁ramificações	-11.8996
▁2020	-11.8996
▁Constituição	-11.8996
minente	-11.8997
▁remo	-11.8997
▁laranja	-11.8997
▁garantido	-11.8997
▁incómodo	-11.8997
▁fenomenal	-11.8998
▁excedente	-11.8998
▁martel	-11.8998
▁comprá	-11.8998
▁destinado	-11.8999
▁mandato	-11.8999
▁camisa	-11.9
▁Gronelândia	-11.9
▁duna	-11.9
ácte	-11.9
▁ceder	-11.9
▁infantis	-11.9
▁homossexual	-11.9
igan	-11.9001
▁frustrante	-11.9001
▁sín	-11.9002
▁Prim	-11.9002
▁criptografi	-11.9003
▁Verde	-11.9003
▁84	-11.9003
ícia	-11.9003
▁codificador	-11.9003
▁prejudicar	-11.9003
rough	-11.9003
▁fornecedores	-11.9004
▁observei	-11.9004
▁Bush	-11.9005
âmbi	-11.9005
▁inscrever	-11.9005
▁ajustar	-11.9005
▁prometeu	-11.9006
▁mensal	-11.9006
▁44	-11.9006
▁levantem	-11.9007
▁Filip	-11.9007
▁Leste	-11.9007
▁moldar	-11.9007
▁generalizada	-11.9008
▁levava	-11.9009
▁concebemos	-11.9009
▁exclusivamente	-11.901
▁confiamos	-11.901
▁frustração	-11.9011
▁poluente	-11.9011
▁danificada	-11.9013
▁52	-11.9013
thur	-11.9014
▁invenções	-11.9014
▁controlada	-11.9015
▁palpite	-11.9016
▁inspirada	-11.9016
▁roubado	-11.9017
▁puniç	-11.9018
▁ritual	-11.9019
▁farto	-11.9019
▁arruma	-11.9019
▁imortal	-11.9019
▁apanhada	-11.902
▁anunciado	-11.902
▁mostrámos	-11.9021
▁Public	-11.9021
▁davam	-11.9023
▁mutante	-11.9023
▁atómica	-11.9023
▁marco	-11.9023
▁aglomerado	-11.9024
▁eliminado	-11.9024
▁composta	-11.9025
▁tornava	-11.9026
▁revelações	-11.9027
▁programados	-11.9029
▁informal	-11.9029
▁regressou	-11.903
▁soubessem	-11.903
▁vago	-11.9032
▁apresentada	-11.9032
▁simular	-11.9036
▁algodão	-11.9036
▁potenciar	-11.9036
▁crista	-11.9039
▁interligada	-11.9039
▁selecç	-11.904
▁reden	-11.9041
▁localizada	-11.9043
▁Ven	-11.9043
▁atira	-11.9043
▁levem	-11.9044
▁memoriz	-11.9046
▁Ministro	-11.9046
▁urina	-11.9047
▁credíve	-11.9048
▁identificado	-11.9049
▁esmagadora	-11.9049
▁aceitamos	-11.9049
▁devastadora	-11.905
▁plena	-11.9051
▁Sher	-11.9051
▁invoca	-11.9054
▁agressiva	-11.9056
▁val	-11.906
▁traumática	-11.906
▁operadora	-11.9061
▁bu	-11.9061
▁descodificar	-11.9062
▁manobra	-11.9062
▁Amor	-11.9063
▁apoiado	-11.9063
▁Tentá	-11.9064
▁bota	-11.9064
▁recomendo	-11.9065
▁achá	-11.9066
▁amada	-11.9067
▁demonstr	-11.907
▁incert	-11.907
▁instalado	-11.9072
▁entrevistar	-11.9073
▁Apar	-11.9074
▁Oakl	-11.9075
tados	-11.9075
▁secundários	-11.9076
▁hipo	-11.9077
▁falhado	-11.9078
tões	-11.9079
▁redonda	-11.9079
▁requerer	-11.908
ocol	-11.908
fica	-11.908
▁Médico	-11.9081
▁atraído	-11.9083
rganização	-11.9084
▁urbanizaç	-11.9085
▁Fa	-11.9085
▁pomo	-11.9091
▁manhãs	-11.9091
▁demoram	-11.9092
▁Mard	-11.9094
▁embar	-11.9096
▁Turqu	-11.9096
lóri	-11.9102
▁1.	-11.9106
▁alcançá	-11.9107
▁despertar	-11.911
▁individualmente	-11.9111
▁permitiram	-11.9112
lick	-11.9114
▁Mac	-11.9115
▁juntarem	-11.9118
▁abriram	-11.9122
▁avanç	-11.9123
▁vislumbre	-11.9129
▁implante	-11.9129
ron	-11.9132
ock	-11.9133
▁aumentado	-11.9133
▁fá	-11.9135
▁Passo	-11.9138
tur	-11.914
▁inspiradora	-11.9142
▁extremos	-11.9143
▁extremistas	-11.9146
60	-11.9147
▁apagar	-11.9147
▁doido	-11.9147
▁assento	-11.9147
▁eros	-11.9149
▁Ever	-11.9149
▁guardado	-11.915
wi	-11.9154
mões	-11.9157
je	-11.9159
▁contamina	-11.9167
▁assustar	-11.9167
▁exigi	-11.9172
▁encontrada	-11.9178
▁compor	-11.9178
▁Biologi	-11.9184
▁Seis	-11.9192
nvolvente	-11.9192
▁reunimos	-11.9202
nne	-11.9211
▁capacita	-11.9213
lec	-11.9219
▁aprofunda	-11.9221
▁espetador	-11.9227
▁viverem	-11.9227
▁largar	-11.9234
▁modificado	-11.9236
▁importava	-11.9237
▁quintas	-11.9241
non	-11.9243
▁concretizar	-11.9246
▁marcante	-11.9256
▁dorme	-11.9259
▁irre	-11.926
▁preven	-11.9264
▁Pergunta	-11.9264
▁obterem	-11.9276
Cash	-11.9277
ração	-11.9281
▁qualidades	-11.9292
▁narrador	-11.9292
▁movimenta	-11.9294
ota	-11.9295
▁aprova	-11.9295
▁rejeitar	-11.9297
ricat	-11.9298
▁praias	-11.93
▁levarem	-11.9301
▁propenso	-11.9317
inger	-11.932
▁perigos	-11.9322
▁Tur	-11.9323
▁respeitar	-11.9323
▁tenda	-11.9327
▁urbaniza	-11.933
confiança	-11.9335
▁admirado	-11.9336
▁demónio	-11.9336
logicamente	-11.934
zer	-11.9341
▁dali	-11.9343
roso	-11.935
▁mentor	-11.9353
jor	-11.9359
edade	-11.9361
▁ligarem	-11.9364
▁retiramo	-11.937
gnóstico	-11.9372
ngelo	-11.9373
inhos	-11.9373
cionar	-11.9374
▁bla	-11.9375
ex	-11.9376
▁dur	-11.9379
▁Mad	-11.9379
▁gui	-11.9386
gramas	-11.9386
▁Lu	-11.9391
▁2.	-11.9391
▁gastam	-11.9391
▁Nasce	-11.9393
ora	-11.9395
▁reagi	-11.9399
▁Deu	-11.9404
▁interessadas	-11.9405
▁acusa	-11.9406
▁My	-11.941
▁emergir	-11.9413
▁lat	-11.9419
lay	-11.9421
▁voam	-11.9421
ore	-11.9422
▁tomado	-11.9426
▁desencade	-11.9441
▁Repar	-11.9444
▁arranha	-11.9448
▁experienciar	-11.9463
prima	-11.9473
▁violentos	-11.9479
▁vinga	-11.9486
▁saía	-11.9487
▁descrevemo	-11.9488
▁presumi	-11.9494
gia	-11.9498
ibilidade	-11.9498
▁mantenham	-11.9502
erdão	-11.9502
▁use	-11.9504
▁colabor	-11.9508
▁moram	-11.9513
▁ci	-11.9516
▁ditado	-11.952
20	-11.9522
▁crie	-11.9527
icha	-11.9529
▁insul	-11.9535
▁transcri	-11.954
▁Adora	-11.9546
▁Ob	-11.9553
▁Floren	-11.9554
aqui	-11.9554
▁Map	-11.9554
▁gan	-11.9555
▁primário	-11.9558
▁entendia	-11.9559
▁diagnosticado	-11.9561
▁urbanas	-11.9567
▁grego	-11.9567
▁Kin	-11.9572
wei	-11.9573
▁Port	-11.9574
▁mete	-11.9575
ect	-11.9577
▁astronauta	-11.9578
▁morcego	-11.9582
▁inseto	-11.9582
▁convida	-11.9582
▁voluntário	-11.9583
▁luto	-11.9584
ssola	-11.9586
ério	-11.9588
▁sobrevivente	-11.9591
▁refugiado	-11.9593
plicações	-11.9595
▁interessada	-11.9595
▁donos	-11.9598
▁Ano	-11.9605
▁Sen	-11.9605
▁tribos	-11.961
▁Pensam	-11.9613
▁frac	-11.9614
▁j	-11.9617
▁130	-11.9618
▁sentimo	-11.9618
far	-11.9626
▁Van	-11.9634
▁tratam	-11.9636
ên	-11.9636
▁experimenta	-11.9637
▁acerta	-11.9641
▁generoso	-11.9643
▁castig	-11.9649
▁propens	-11.9658
▁Gi	-11.9663
ilha	-11.9666
▁passageiro	-11.9667
▁Rot	-11.9667
▁pendura	-11.9671
▁violaç	-11.9673
▁suponh	-11.9676
▁flu	-11.9677
mbia	-11.9679
▁trazem	-11.9692
▁estabiliza	-11.9693
▁narra	-11.9694
▁consideram	-11.9694
▁acender	-11.9698
oby	-11.9699
umentando	-11.9702
▁reflecti	-11.9709
▁governado	-11.9713
▁minimiza	-11.9717
isco	-11.9724
percebi	-11.9724
▁Usam	-11.973
▁erguer	-11.973
▁2.0	-11.9732
zinho	-11.9732
▁faltava	-11.9734
tivas	-11.9736
pressa	-11.9737
▁assin	-11.9742
etas	-11.9743
▁domin	-11.9749
▁frequências	-11.9757
firmou	-11.976
▁prega	-11.9761
▁escapa	-11.9769
▁associar	-11.9773
▁Rebe	-11.9776
▁Kell	-11.978
▁treina	-11.978
▁Mat	-11.9781
▁encara	-11.9781
▁medido	-11.9786
▁operado	-11.9788
▁avaliam	-11.9792
▁cheira	-11.9793
▁acústic	-11.9797
▁ajudem	-11.9798
▁voltaria	-11.98
▁desempenha	-11.9806
▁alimentam	-11.9812
▁promete	-11.9813
▁contado	-11.9821
▁Ku	-11.9822
deus	-11.9828
▁permitia	-11.9828
▁Pre	-11.983
▁gostem	-11.9831
▁geo	-11.9832
▁seguimo	-11.9832
▁descem	-11.9836
▁tip	-11.9844
▁repor	-11.9848
▁costuma	-11.9849
▁observador	-11.985
▁erradica	-11.9851
▁arranca	-11.9852
▁regenera	-11.9854
▁Organizaç	-11.9854
▁ferr	-11.986
esta	-11.9861
▁intra	-11.9865
▁amb	-11.9867
est	-11.987
heguei	-11.987
drena	-11.9871
excremento	-11.9875
estrada	-11.9876
otel	-11.9877
▁envelhece	-11.9879
▁Venha	-11.9882
▁permiti	-11.9889
▁contemporâne	-11.9891
ixar	-11.9892
ótica	-11.9893
▁tomarem	-11.9896
ian	-11.9899
▁pinta	-11.99
▁exponencia	-11.9903
vaz	-11.9906
▁Mich	-11.9906
▁racional	-11.9909
▁alter	-11.9909
▁bloquei	-11.9918
▁sensibiliza	-11.9919
▁síri	-11.9927
▁surpreende	-11.9928
ble	-11.9928
▁general	-11.9931
▁despedid	-11.9943
vinda	-11.9944
▁expandi	-11.9944
▁Ce	-11.9945
FL	-11.9946
▁900	-11.995
▁sintetiza	-11.9952
▁configuraç	-11.9955
▁perfei	-11.9957
▁protetor	-11.996
▁apercebem	-11.9961
▁permita	-11.9964
▁aptid	-11.9967
▁ondula	-11.9969
▁prende	-11.9969
▁an	-11.9975
▁particip	-11.9981
▁coloco	-11.9982
▁espanto	-11.9984
▁Inici	-11.9986
▁inc	-11.9987
mínio	-11.9987
▁Continu	-11.999
▁bal	-11.999
▁feminis	-11.999
RS	-11.9991
,3	-11.9992
▁alivia	-11.9992
▁skate	-11.9992
▁embalage	-11.9993
▁fluoresc	-11.9993
strume	-11.9993
vida	-11.9993
lfabeto	-11.9993
▁Tribun	-11.9993
▁introspe	-11.9993
▁instintiva	-11.9993
légio	-11.9993
▁Audiência	-11.9993
▁Geogra	-11.9993
▁LOLcat	-11.9993
▁Líbano	-11.9993
▁Rachel	-11.9993
▁Rapaz	-11.9993
▁System	-11.9993
▁Trouxe	-11.9993
▁académica	-11.9993
▁alarmante	-11.9993
▁anomalia	-11.9993
▁apicultor	-11.9993
▁atribuída	-11.9993
▁bancária	-11.9993
▁bancário	-11.9993
▁brasileiro	-11.9993
▁cancerígenas	-11.9993
▁clássica	-11.9993
▁dispendioso	-11.9993
▁distingue	-11.9993
▁envelope	-11.9993
▁enxaqueca	-11.9993
▁esboço	-11.9993
▁estrangeira	-11.9993
▁exagero	-11.9993
▁fabuloso	-11.9993
▁faísca	-11.9993
▁fiscais	-11.9993
▁formidáve	-11.9993
▁gaveta	-11.9993
▁genérico	-11.9993
▁hectare	-11.9993
▁iPod	-11.9993
▁impotente	-11.9993
▁infeciosa	-11.9993
▁inseguro	-11.9993
▁intacto	-11.9993
▁jitney	-11.9993
▁mamute	-11.9993
▁metodologia	-11.9993
▁modesto	-11.9993
▁monumento	-11.9993
▁obcecada	-11.9993
▁obsoleto	-11.9993
▁quimioterapia	-11.9993
▁rasteja	-11.9993
▁ridiculariza	-11.9993
▁titâni	-11.9993
▁transborda	-11.9993
▁urânio	-11.9993
▁visitei	-11.9993
▁xamã	-11.9993
▁carruage	-11.9993
▁desportivo	-11.9993
▁duradoura	-11.9993
▁enraizada	-11.9993
▁gravitacionais	-11.9993
▁legitim	-11.9993
▁pontinho	-11.9993
▁quadrada	-11.9993
▁remessa	-11.9993
▁retrospe	-11.9993
▁sensata	-11.9993
▁Hospita	-11.9993
▁depósito	-11.9993
▁desculpem	-11.9993
▁geográfica	-11.9993
▁legenda	-11.9993
▁rejeiç	-11.9993
▁sueco	-11.9993
▁watt	-11.9993
▁tampa	-11.9993
celulo	-11.9993
▁Stuxne	-11.9993
▁crocodilo	-11.9993
▁horrorizada	-11.9993
▁maquina	-11.9993
▁conveniente	-11.9993
▁melodia	-11.9993
▁característico	-11.9993
▁miúda	-11.9993
▁nerd	-11.9993
▁pilares	-11.9993
▁Natural	-11.9993
▁rigoroso	-11.9993
▁Litera	-11.9993
▁Titan	-11.9993
▁adormece	-11.9993
▁converg	-11.9993
▁predominante	-11.9993
▁Sistema	-11.9993
▁solitária	-11.9993
▁violino	-11.9993
▁retalho	-11.9993
▁repito	-11.9993
▁Sch	-11.9993
▁Micro	-11.9993
▁aplaudir	-11.9993
▁cinza	-11.9993
▁pêlo	-11.9993
▁encosta	-11.9993
▁turista	-11.9993
▁trivial	-11.9994
▁favorece	-11.9994
▁comediante	-11.9994
▁estética	-11.9994
▁esparg	-11.9994
▁jato	-11.9994
▁Islândia	-11.9994
▁barbeiro	-11.9994
▁Victor	-11.9994
▁Roger	-11.9994
▁manada	-11.9994
▁bancada	-11.9994
▁girafa	-11.9994
óide	-11.9994
▁protestar	-11.9994
▁instância	-11.9994
▁ciclista	-11.9994
▁inverter	-11.9994
▁intermédi	-11.9994
▁Tee	-11.9994
▁porreiro	-11.9994
▁modula	-11.9994
▁cabina	-11.9994
▁válido	-11.9994
▁seleciona	-11.9994
▁rebentar	-11.9994
▁descendente	-11.9994
haga	-11.9994
▁Reserv	-11.9995
▁Walter	-11.9995
▁disfunciona	-11.9995
atidão	-11.9995
▁digna	-11.9995
▁Visua	-11.9995
▁elaborada	-11.9995
▁Insta	-11.9995
▁contactar	-11.9995
▁Demora	-11.9995
imbabu	-11.9996
▁parafuso	-11.9996
▁Coisa	-11.9996
▁barro	-11.9996
▁Donna	-11.9996
▁alucinações	-11.9996
▁picada	-11.9996
▁1,3	-11.9996
▁aluna	-11.9996
▁pigmenta	-11.9996
▁punho	-11.9996
▁perdão	-11.9996
▁reduzindo	-11.9996
▁cabra	-11.9996
▁treta	-11.9996
▁Levou	-11.9996
▁reforçar	-11.9996
▁reconhecido	-11.9997
▁sugestão	-11.9997
▁memorizar	-11.9997
▁Costumava	-11.9997
▁regulamento	-11.9997
▁latina	-11.9997
▁almofada	-11.9998
▁66	-11.9998
▁tambor	-11.9998
▁substancial	-11.9998
▁Kent	-11.9998
▁morada	-11.9998
brisa	-11.9999
▁calma	-11.9999
▁salientar	-11.9999
▁papaia	-11.9999
ntrámos	-11.9999
▁Fey	-12
osfera	-12
cunha	-12
▁Ensino	-12
▁Cooper	-12.0001
▁Raz	-12.0001
▁calc	-12.0001
egon	-12.0001
óli	-12.0002
▁tangível	-12.0002
▁Cabe	-12.0002
▁BB	-12.0002
▁Peer	-12.0002
▁qualificado	-12.0002
▁excecional	-12.0003
▁lápi	-12.0003
▁simplificar	-12.0003
nsações	-12.0004
▁livraria	-12.0004
íbli	-12.0004
▁zoom	-12.0005
▁funcionalidade	-12.0005
▁Ficou	-12.0005
▁irracional	-12.0006
▁cerco	-12.0006
▁Olhei	-12.0006
▁Pap	-12.0007
▁restrita	-12.0007
▁japonesa	-12.0009
▁filtrar	-12.0009
▁consultor	-12.0009
▁Drea	-12.001
▁Deah	-12.001
▁arriscada	-12.001
▁conduziu	-12.001
dis	-12.001
▁Usei	-12.0011
▁fecho	-12.0012
▁coreano	-12.0012
▁superficial	-12.0012
▁aprendam	-12.0012
▁implementado	-12.0013
▁esforçar	-12.0013
▁ardente	-12.0013
▁esquecido	-12.0013
▁envolvendo	-12.0015
▁transmitido	-12.0016
▁inventada	-12.0016
▁desligada	-12.0016
▁estabelecida	-12.0017
▁animada	-12.0017
▁coer	-12.0017
▁diplomata	-12.0017
▁retirada	-12.0018
▁dica	-12.0018
▁comprometido	-12.0018
▁atribuir	-12.0018
▁Maslow	-12.0018
▁competente	-12.0018
▁explicações	-12.0019
▁pertença	-12.0019
▁Ted	-12.002
▁pesquisas	-12.002
▁rolar	-12.002
▁zonamento	-12.0022
▁vivida	-12.0023
ala	-12.0023
▁bambo	-12.0024
▁Reparei	-12.0025
▁enquadra	-12.0025
▁compulsiv	-12.0026
▁colocando	-12.0026
▁Envolve	-12.0026
▁citações	-12.0028
▁pata	-12.0028
▁genial	-12.0028
▁combinações	-12.0028
▁alimentada	-12.0029
zinha	-12.003
▁Minha	-12.003
▁obrigar	-12.0031
▁interligar	-12.0031
▁Matt	-12.0034
▁roubada	-12.0034
▁necessitam	-12.0037
▁Perguntem	-12.0037
▁transferido	-12.0037
▁envelhecemos	-12.0038
▁inversa	-12.004
▁inundado	-12.004
ily	-12.0042
▁dirigida	-12.0042
▁corrigi	-12.0042
▁obscuro	-12.0043
▁bato	-12.0043
▁vo	-12.0043
▁emitir	-12.0044
▁convenciona	-12.0045
▁agarrado	-12.0046
▁flutuação	-12.0046
▁danifica	-12.0046
anical	-12.0048
▁moleculares	-12.0049
▁insulto	-12.0049
▁Q	-12.005
▁Cas	-12.0051
▁valia	-12.0051
▁administraç	-12.0052
▁patr	-12.0052
▁exacto	-12.0054
▁ficasse	-12.0054
▁combinam	-12.0055
▁imaginam	-12.0056
▁dirá	-12.0057
▁Pública	-12.0058
rta	-12.0059
▁agregado	-12.0059
▁namorado	-12.006
carregar	-12.006
▁angari	-12.0062
▁ridícula	-12.0064
▁tolo	-12.0066
▁cortaram	-12.0067
▁aluguer	-12.0068
▁transformadora	-12.0072
▁amarra	-12.0075
▁entendam	-12.0076
▁Marco	-12.0077
▁Net	-12.0079
aticamente	-12.0083
▁25.	-12.0083
▁aceitaram	-12.0084
▁excel	-12.0088
▁guardada	-12.0089
gri	-12.009
▁necessitamos	-12.0091
▁lidamos	-12.0092
ratória	-12.0092
▁Hama	-12.0093
▁devesse	-12.0094
▁embri	-12.0097
▁interrompe	-12.0097
▁perturbador	-12.01
▁Arm	-12.0101
morei	-12.0104
▁Bat	-12.0106
preender	-12.0108
▁Adicion	-12.0108
▁ás	-12.0108
dson	-12.0109
▁Bio	-12.0112
▁fil	-12.0118
▁suín	-12.0122
▁enviaram	-12.0123
▁Novo	-12.0123
▁duvida	-12.0124
obra	-12.0124
▁Elv	-12.0127
fundei	-12.0128
llo	-12.013
▁gozar	-12.0134
▁atua	-12.0135
pé	-12.0136
▁calcul	-12.0136
▁bolsos	-12.0152
▁escal	-12.0154
▁tor	-12.0155
▁pra	-12.0159
▁recrutar	-12.0162
ários	-12.0163
▁electrónico	-12.0164
▁admiráve	-12.0164
▁Gold	-12.0168
▁unido	-12.0171
▁Federa	-12.0175
▁falaram	-12.018
▁Voltemo	-12.0184
▁informados	-12.0188
▁reclama	-12.019
▁mur	-12.0192
ixo	-12.0193
▁Fazia	-12.0194
▁erradicar	-12.0197
▁desperdícios	-12.0198
▁Domingos	-12.0202
▁bloqueia	-12.0206
▁materna	-12.021
▁350	-12.021
▁Post	-12.0216
▁morador	-12.0218
▁fluir	-12.0219
▁aterr	-12.0231
▁Deveria	-12.0234
mag	-12.0235
▁reformula	-12.0237
▁escreveram	-12.024
▁mostrada	-12.0244
andei	-12.0246
▁admiti	-12.0248
▁mangas	-12.0249
rit	-12.025
▁florescer	-12.0252
▁magoa	-12.0252
rack	-12.0253
cente	-12.0254
▁anca	-12.0256
ers	-12.0257
▁programada	-12.0259
▁Freu	-12.0262
▁saia	-12.0265
▁marcador	-12.0269
▁perseguido	-12.027
▁77	-12.0274
▁procurava	-12.0279
ague	-12.0281
▁condutora	-12.0281
▁investigadora	-12.0288
▁portal	-12.0292
▁Tratava	-12.0293
▁recordo	-12.0298
94	-12.0315
tórias	-12.0318
▁But	-12.0319
low	-12.0322
gy	-12.0324
▁mili	-12.0326
▁Berl	-12.0327
▁Volta	-12.0328
ask	-12.0335
batido	-12.0337
▁elevadas	-12.0342
▁conheçam	-12.0344
▁Digam	-12.0344
▁infiltra	-12.0348
▁Home	-12.0349
▁Cho	-12.0351
▁tocava	-12.0354
▁alinha	-12.0357
▁Carlo	-12.0366
▁Utiliz	-12.0368
▁respondem	-12.037
▁caracteriza	-12.0371
▁leg	-12.0373
▁Marc	-12.0377
cionado	-12.038
▁mu	-12.0384
▁escolheria	-12.0389
▁revel	-12.0389
Sac	-12.039
▁dominado	-12.04
ilar	-12.0404
▁Harle	-12.0408
▁aud	-12.0425
▁ret	-12.0432
▁gregos	-12.0438
▁acabava	-12.0439
▁Olhe	-12.0441
▁molde	-12.0442
▁abria	-12.0442
▁cente	-12.0448
▁levada	-12.0449
▁digest	-12.0454
▁Percebem	-12.0463
▁democracias	-12.0465
▁forçada	-12.0466
▁chor	-12.0467
▁mon	-12.0477
reca	-12.048
▁administrar	-12.0492
▁viajam	-12.0493
▁acrescent	-12.0494
▁instal	-12.05
▁Ande	-12.0503
▁joga	-12.0507
▁pescador	-12.0508
imi	-12.0513
bed	-12.0523
deste	-12.0531
▁urbanis	-12.0533
▁arquivos	-12.0536
▁trem	-12.0538
▁esconde	-12.0548
▁Fund	-12.0554
▁Vie	-12.0554
▁Dal	-12.0562
fus	-12.0563
ace	-12.0575
▁animados	-12.0607
▁Bon	-12.0609
▁remix	-12.0615
uário	-12.0622
▁documenta	-12.063
▁agradáve	-12.0641
grado	-12.0646
▁libertam	-12.0646
▁Pedir	-12.0648
▁Desenh	-12.0657
▁ob	-12.0664
ón	-12.067
▁estrat	-12.0671
▁cemitério	-12.0672
▁tente	-12.0673
ufas	-12.0673
▁fatia	-12.0676
▁alg	-12.0678
▁copia	-12.068
▁humanitários	-12.0681
▁empréstimo	-12.069
▁disposto	-12.0693
▁clínico	-12.0694
▁cêntimo	-12.0697
▁idoso	-12.0704
▁transportam	-12.0708
▁Ficar	-12.0713
▁extraterrestre	-12.0713
versa	-12.0722
▁confiáve	-12.0724
▁cu	-12.0726
primas	-12.0727
▁delega	-12.0728
pacto	-12.0728
grama	-12.0743
volução	-12.0743
06	-12.0744
▁admit	-12.0745
ín	-12.0745
rico	-12.075
▁Mostr	-12.0756
cóci	-12.0757
▁MS	-12.0759
▁realizado	-12.0759
▁detri	-12.0763
int	-12.0766
▁concentra	-12.0767
ugu	-12.0768
▁duplica	-12.0771
▁pesquis	-12.0776
▁Has	-12.0779
▁tortura	-12.078
▁testámo	-12.078
▁Bal	-12.0784
▁tripl	-12.0788
▁descol	-12.0789
▁pense	-12.0792
▁recria	-12.0792
▁dividi	-12.0794
▁seguia	-12.0796
▁semi	-12.0798
▁suporta	-12.08
entos	-12.08
▁experiencia	-12.0802
▁impress	-12.0804
▁reparam	-12.0806
▁quererem	-12.0809
▁ger	-12.0812
▁capt	-12.0813
▁desat	-12.0815
▁cit	-12.0816
▁Lis	-12.082
▁Mei	-12.082
end	-12.0823
▁Bus	-12.0828
▁avi	-12.0832
ash	-12.0834
▁regular	-12.0835
▁Don	-12.0835
▁evolu	-12.0845
teís	-12.0846
▁foguet	-12.0848
▁Arg	-12.085
▁ocorr	-12.085
▁arranj	-12.0851
▁ganharem	-12.0852
▁completar	-12.0858
▁formula	-12.0861
▁ameaçar	-12.0864
▁cultiva	-12.0864
▁acontecera	-12.0867
▁candidata	-12.0867
▁desliza	-12.0869
▁voa	-12.0873
▁sondage	-12.0879
▁tornamo	-12.088
▁relacionam	-12.0882
icina	-12.0882
▁codifica	-12.0884
ruz	-12.0888
▁Pal	-12.0896
lah	-12.0897
▁modern	-12.0908
97	-12.0914
anhar	-12.0917
▁aprecia	-12.0922
47	-12.0924
▁acreditarem	-12.0936
▁sabi	-12.0938
▁apontam	-12.0939
▁salvado	-12.095
nica	-12.0951
Q	-12.0951
▁Bear	-12.0952
▁pesar	-12.0955
▁embaixador	-12.0956
▁electrónic	-12.0958
▁Algum	-12.0963
▁chamem	-12.0966
▁profund	-12.0968
▁internos	-12.0976
▁abusos	-12.0981
▁higien	-12.0981
▁levámo	-12.0981
fobia	-12.0981
escolar	-12.0984
▁Will	-12.0984
cei	-12.0985
▁transmiti	-12.0985
nascido	-12.0986
elite	-12.0986
campo	-12.0988
célula	-12.0989
▁adv	-12.0992
▁clic	-12.0993
less	-12.0997
▁procure	-12.0999
▁ilus	-12.1005
▁contribuí	-12.1007
▁enviamo	-12.1008
▁infla	-12.101
▁reconheç	-12.1019
▁bó	-12.102
▁Usar	-12.1024
▁cortado	-12.1025
▁barcos	-12.1025
▁aquece	-12.1029
tive	-12.1029
RN	-12.1038
▁saír	-12.1039
▁explorado	-12.104
▁recebia	-12.1043
▁frustra	-12.1043
onia	-12.1043
jeito	-12.1054
▁anua	-12.1055
▁hip	-12.1056
▁universa	-12.1056
egr	-12.1059
▁estrangeiros	-12.1063
▁incomoda	-12.1069
venida	-12.1071
▁adivinh	-12.1072
▁Dav	-12.1073
▁fascina	-12.1075
▁repete	-12.1075
▁Padr	-12.1075
▁caix	-12.1077
▁intimida	-12.1077
▁distancia	-12.1081
▁interfaces	-12.1082
▁turmas	-12.1082
cidades	-12.1083
▁otimiza	-12.1084
PA	-12.1086
▁lembrava	-12.1086
▁pormenor	-12.1089
▁abandono	-12.1091
▁impossíve	-12.1092
▁úte	-12.1092
▁estudamo	-12.1093
▁have	-12.1094
▁imagi	-12.1096
▁Torna	-12.1096
ubble	-12.1096
▁fasc	-12.1097
▁Refi	-12.1099
▁Fico	-12.11
▁adot	-12.1103
▁telefonar	-12.1103
▁lucra	-12.1103
fortuna	-12.1104
▁horror	-12.1104
nglês	-12.1104
▁bilhete	-12.1104
▁holand	-12.1104
▁Connect	-12.1104
▁Especial	-12.1104
▁Permitam	-12.1104
▁dificil	-12.1104
▁Desenvolve	-12.1104
▁Maravilha	-12.1104
▁apanhou	-12.1104
telecomunicações	-12.1104
▁Aeroporto	-12.1104
▁Beatbox	-12.1104
▁Cameron	-12.1104
▁Cidadão	-12.1104
▁Economia	-12.1104
▁Esqueci	-12.1104
▁FBI	-12.1104
▁Fantástic	-12.1104
▁Hiroshi	-12.1104
▁OPEP	-12.1104
▁Pesquisa	-12.1104
▁Photos	-12.1104
▁Quântic	-12.1104
▁Snowden	-12.1104
▁ambiguidade	-12.1104
▁amígdala	-12.1104
▁beijo	-12.1104
▁borboleta	-12.1104
▁circo	-12.1104
▁cobarde	-12.1104
▁colisões	-12.1104
▁consoante	-12.1104
▁cósmica	-12.1104
▁descansar	-12.1104
▁elástica	-12.1104
▁empreendimento	-12.1104
▁esclarecer	-12.1104
▁escândalo	-12.1104
▁espécime	-12.1104
▁estratégico	-12.1104
▁exclusão	-12.1104
▁explode	-12.1104
▁fachada	-12.1104
▁filosófico	-12.1104
▁fósforo	-12.1104
▁gigawatt	-12.1104
▁inaceitáve	-12.1104
▁indiferente	-12.1104
▁infravermelh	-12.1104
▁intacta	-12.1104
▁intrínseca	-12.1104
▁microscópico	-12.1104
▁miniaturiza	-12.1104
▁oferecida	-12.1104
▁oftalmologista	-12.1104
▁pacífica	-12.1104
▁pastilha	-12.1104
▁portugues	-12.1104
▁prematura	-12.1104
▁repleto	-12.1104
▁rígida	-12.1104
▁rótulo	-12.1104
▁sanitário	-12.1104
▁tartaruga	-12.1104
▁tesouro	-12.1104
▁tímida	-12.1104
▁tímido	-12.1104
▁visceral	-12.1104
▁vácuo	-12.1104
▁árbitro	-12.1104
▁Brancotopia	-12.1104
▁cenoura	-12.1104
▁cúbico	-12.1104
▁engrenage	-12.1104
▁microscópica	-12.1104
▁partilhei	-12.1104
▁precursor	-12.1104
▁simboliza	-12.1104
▁Telescópio	-12.1104
▁Toyota	-12.1104
▁aéreo	-12.1104
▁gafanhoto	-12.1104
▁pertencia	-12.1104
▁Jefferson	-12.1104
▁capacete	-12.1104
▁suborno	-12.1104
▁colaborativa	-12.1104
▁despeja	-12.1104
▁detergente	-12.1104
▁finito	-12.1104
▁ultravioleta	-12.1104
▁Barb	-12.1104
▁impensáve	-12.1104
▁mapeamento	-12.1104
▁polegar	-12.1104
▁propuls	-12.1104
▁precauç	-12.1104
▁linguística	-12.1104
▁adjacente	-12.1104
▁psicossocia	-12.1104
▁miseráve	-12.1104
▁ultima	-12.1104
▁multicultura	-12.1104
▁Isabel	-12.1104
▁centavo	-12.1104
▁statu	-12.1104
▁íntimo	-12.1105
▁latrina	-12.1105
▁cabine	-12.1105
▁gangue	-12.1105
▁virtuoso	-12.1105
▁adversário	-12.1105
▁moderada	-12.1105
▁tarte	-12.1105
▁quieta	-12.1105
▁Show	-12.1105
▁recolhida	-12.1105
iblioteca	-12.1105
▁insegurança	-12.1105
▁carrinho	-12.1105
▁mandou	-12.1105
▁prejudicial	-12.1105
▁autoestima	-12.1105
▁soletra	-12.1105
▁Anima	-12.1105
▁praga	-12.1105
▁cessar	-12.1105
▁mantida	-12.1105
▁purifica	-12.1105
▁oiçam	-12.1105
▁imune	-12.1105
▁signo	-12.1105
▁mandei	-12.1105
▁Hawking	-12.1105
▁partitura	-12.1105
▁temporária	-12.1105
nsin	-12.1105
▁espinha	-12.1105
▁interativa	-12.1105
▁modalidade	-12.1105
▁imã	-12.1105
▁revolucionária	-12.1105
▁trili	-12.1105
▁robótico	-12.1105
▁pomar	-12.1105
▁veado	-12.1105
▁balc	-12.1105
▁reconciliaç	-12.1105
▁Ferm	-12.1106
▁possuía	-12.1106
▁LED	-12.1106
▁movido	-12.1106
▁feto	-12.1106
▁Israelita	-12.1106
▁mastiga	-12.1106
▁substituto	-12.1106
▁ciclovia	-12.1106
▁potente	-12.1106
▁facial	-12.1106
▁pontapé	-12.1106
▁Metro	-12.1106
▁hostilidade	-12.1106
▁Wave	-12.1106
▁pára	-12.1106
▁sujo	-12.1106
▁extinto	-12.1107
▁brav	-12.1107
▁Rock	-12.1107
▁levantei	-12.1107
▁bombista	-12.1107
▁simplista	-12.1107
▁vigor	-12.1107
çamb	-12.1107
▁juntei	-12.1108
▁soft	-12.1108
▁abstracta	-12.1108
▁freira	-12.1108
▁repercuss	-12.1108
▁autorizado	-12.1108
▁1912	-12.1108
▁libra	-12.1108
▁mantendo	-12.1108
▁Patric	-12.1109
▁1997	-12.1109
▁reivindica	-12.1109
▁inventámos	-12.1109
usor	-12.1109
▁poça	-12.1109
▁expor	-12.111
▁Passaram	-12.111
▁Stone	-12.111
▁gerou	-12.111
imunidade	-12.111
▁consultoria	-12.111
▁mantiveram	-12.1111
▁alterou	-12.1111
▁Tune	-12.1111
▁US	-12.1111
▁subsarian	-12.1111
▁White	-12.1111
▁ligou	-12.1112
▁represento	-12.1112
▁matem	-12.1112
unho	-12.1112
▁Brexit	-12.1113
▁consequente	-12.1113
▁primitiva	-12.1113
▁Governo	-12.1113
▁garantida	-12.1113
gras	-12.1113
▁sistemática	-12.1113
▁bimet	-12.1113
▁gorda	-12.1114
▁ensinamento	-12.1114
▁Noite	-12.1115
▁analista	-12.1115
▁Perguntou	-12.1115
▁aterrorizado	-12.1116
▁desenrolar	-12.1116
▁entregou	-12.1116
▁sensoriais	-12.1117
ddie	-12.1117
▁perseguição	-12.1117
▁Sobre	-12.1117
▁dedicada	-12.1117
▁retro	-12.1117
ibera	-12.1118
▁azeit	-12.1118
▁arranjou	-12.1118
▁desfavorecid	-12.1119
▁gelat	-12.1119
▁derrubar	-12.112
▁substituída	-12.1121
▁rejeitado	-12.1122
▁colorida	-12.1124
▁coca	-12.1124
▁nomeada	-12.1127
▁debater	-12.1127
▁multiplicar	-12.1127
▁linfático	-12.1127
▁gatinho	-12.1127
▁assassinada	-12.1127
▁desconforto	-12.1128
▁faceta	-12.1129
▁aproveitador	-12.1129
▁acostumado	-12.113
▁cientifica	-12.113
▁calado	-12.113
▁dominada	-12.113
▁Deli	-12.113
▁generalizado	-12.113
percebê	-12.113
▁competitiva	-12.1131
mediatamente	-12.1131
▁Chamaram	-12.1131
▁documentado	-12.1132
▁Int	-12.1132
cél	-12.1133
▁Aprende	-12.1133
pro	-12.1133
▁gerido	-12.1134
▁71	-12.1134
▁montada	-12.1134
▁desconfortáveis	-12.1134
▁barulhento	-12.1134
▁corrupto	-12.1134
▁comido	-12.1135
▁conectado	-12.1135
▁transmitida	-12.1135
▁refleti	-12.1136
▁arsena	-12.1136
▁ignorante	-12.1137
▁Simon	-12.1138
▁culpada	-12.1138
▁métrica	-12.1141
▁divino	-12.1142
▁alojamento	-12.1143
gelada	-12.1143
▁relvado	-12.1144
▁planeia	-12.1145
▁treinada	-12.1145
▁acciona	-12.1146
▁incluído	-12.1146
▁best	-12.1147
▁repetidamente	-12.1148
▁amado	-12.1148
▁amarrado	-12.1149
▁reunido	-12.115
▁explorada	-12.1151
wire	-12.1152
▁oferecem	-12.1153
▁codificada	-12.1153
▁levei	-12.1153
▁Luca	-12.1156
ward	-12.1158
▁manifestação	-12.1158
▁cobrar	-12.1162
▁parlamento	-12.1162
▁IP	-12.1163
▁Jose	-12.1164
▁Rua	-12.1164
▁tirado	-12.1164
▁verbo	-12.1165
▁cruzada	-12.1166
▁abstrata	-12.1166
▁76	-12.1168
▁Robin	-12.1172
▁enfrent	-12.1172
Car	-12.1173
▁encantadora	-12.1174
uíç	-12.1174
▁ocupada	-12.1174
▁May	-12.1175
▁levantaram	-12.1175
▁inimagináve	-12.1176
▁DM	-12.1176
▁sincero	-12.1177
▁amante	-12.1179
▁explosivo	-12.1179
▁Free	-12.1179
▁Terá	-12.1179
▁obedecer	-12.118
▁vencedora	-12.1182
▁revelam	-12.1182
▁ventilado	-12.1183
▁movia	-12.1183
▁Suponham	-12.1183
▁feridos	-12.1183
▁migrante	-12.1184
▁apertar	-12.1185
▁ativamente	-12.1185
▁operam	-12.1185
▁falharam	-12.1189
▁contei	-12.119
▁raciocina	-12.1192
▁Olímpico	-12.1192
▁agradeço	-12.1192
▁queixar	-12.1193
óru	-12.1194
▁sê	-12.1195
▁integral	-12.1196
▁volto	-12.1196
▁combinada	-12.1196
▁ín	-12.12
▁aperceberam	-12.12
▁observámos	-12.1201
quez	-12.1201
▁Mes	-12.1202
egas	-12.1203
▁Hei	-12.1205
▁Deste	-12.1208
▁governante	-12.1209
▁armazenado	-12.121
▁deficiente	-12.1213
▁concluí	-12.1213
ariana	-12.1214
mida	-12.1217
▁integrada	-12.1217
▁nutritiv	-12.1219
▁adaptado	-12.1222
▁aterrador	-12.1223
▁digitalizar	-12.1223
▁enriqueci	-12.1224
dar	-12.1228
▁baseiam	-12.1228
▁fobia	-12.1229
▁estadia	-12.123
▁sugerem	-12.123
áculo	-12.1232
▁realçar	-12.1237
lins	-12.1237
▁especialidade	-12.1243
▁matá	-12.1243
▁mergulhador	-12.1245
▁normalidade	-12.1247
▁Olh	-12.1248
▁resiste	-12.1249
▁lut	-12.1255
mografia	-12.1262
▁regiona	-12.1263
pit	-12.1263
right	-12.1264
▁Multi	-12.1268
▁proporcional	-12.1271
▁ub	-12.1272
▁tremor	-12.1272
▁depositar	-12.1274
dicação	-12.1275
▁aquático	-12.1278
▁lembrarem	-12.1281
▁compreensíve	-12.1282
▁transformaram	-12.1283
▁74	-12.1284
▁Kit	-12.1285
▁Civis	-12.1287
▁intermediários	-12.1288
▁Vale	-12.1289
▁escrevam	-12.1296
▁Colocamos	-12.1296
▁misturada	-12.1303
▁amam	-12.1305
▁abranda	-12.1316
reta	-12.1326
▁Alta	-12.1327
▁reforço	-12.1327
▁tentação	-12.1328
▁confirmar	-12.1329
▁acre	-12.1331
▁arame	-12.1332
▁mero	-12.1338
ory	-12.1338
▁psiquiátricos	-12.1339
▁lucrativos	-12.1339
▁foguete	-12.134
▁fertilizantes	-12.1341
▁ful	-12.1349
▁virado	-12.1351
iel	-12.1352
▁cicatrize	-12.1352
▁variada	-12.1356
MI	-12.1359
▁gal	-12.136
▁embeleza	-12.1363
▁nua	-12.1366
▁restaurar	-12.1369
bbie	-12.1374
▁virá	-12.1375
▁fino	-12.1377
▁candidatar	-12.1383
ombros	-12.1384
▁off	-12.1386
▁incomodar	-12.1394
NT	-12.1398
▁operador	-12.1399
▁Querid	-12.1401
neta	-12.1402
▁sup	-12.1402
▁deixo	-12.1404
▁cala	-12.1412
▁acrescento	-12.1413
more	-12.1419
▁perguntado	-12.1421
▁instrutor	-12.1423
▁misturam	-12.143
▁soava	-12.1438
▁Aceit	-12.144
▁reflectir	-12.1443
▁pressupostos	-12.1445
▁Humanos	-12.1445
▁enfia	-12.1445
▁instantes	-12.1448
▁mentalmente	-12.1451
▁pague	-12.146
▁carreiras	-12.146
▁acert	-12.1465
▁julgar	-12.1467
oeiro	-12.1468
▁bani	-12.1475
▁simulado	-12.148
▁lutam	-12.1485
▁previ	-12.1496
iti	-12.1496
▁cumpri	-12.1504
ish	-12.1506
noite	-12.152
▁Vivi	-12.1523
▁Lut	-12.153
ack	-12.1534
▁restaura	-12.1535
▁medidor	-12.1535
▁Bin	-12.1537
▁Conhecemo	-12.1538
Fi	-12.154
▁atirador	-12.1546
▁encripta	-12.1554
dico	-12.1554
▁termino	-12.1557
▁tentasse	-12.1562
▁preve	-12.1563
▁fuma	-12.1565
▁alteram	-12.1565
conheceu	-12.157
▁recusar	-12.157
ple	-12.157
89	-12.1571
▁Ponham	-12.1572
56	-12.1573
prime	-12.1574
▁impe	-12.1579
▁quilo	-12.1579
▁descarrega	-12.1582
ulho	-12.1585
▁rep	-12.1594
▁morremos	-12.1596
ted	-12.1598
▁arrastar	-12.1606
▁testá	-12.1607
▁dinâmicas	-12.1608
puta	-12.1613
▁Tenh	-12.1617
zinhos	-12.1621
▁conquistar	-12.1625
▁Ann	-12.1628
ped	-12.1633
▁reformas	-12.1641
▁funcionais	-12.1642
▁salvador	-12.1643
▁sofr	-12.1644
▁Pic	-12.1646
▁receberia	-12.1653
▁adquiri	-12.166
orden	-12.166
▁actua	-12.1661
▁galerias	-12.1661
▁pequeninas	-12.1661
▁potências	-12.1662
▁referências	-12.1663
▁Pegue	-12.167
▁comportam	-12.1687
▁Pra	-12.1689
▁explor	-12.1689
▁presum	-12.1695
▁Carte	-12.1697
órdio	-12.1697
▁Pres	-12.17
▁impulsionar	-12.1703
▁Dra	-12.1707
cionais	-12.171
▁corajosas	-12.1715
scolhi	-12.1718
eller	-12.1721
▁acusado	-12.1722
▁construír	-12.1722
▁entendi	-12.1722
▁juntem	-12.1724
▁Receb	-12.1725
▁Encontramo	-12.1729
lito	-12.1731
▁geologi	-12.1733
▁ne	-12.1733
▁aterra	-12.1745
▁tranquil	-12.1746
▁equipado	-12.1749
icks	-12.1755
énia	-12.1761
▁prest	-12.1765
▁mascar	-12.1767
▁marés	-12.1771
▁sur	-12.1771
ef	-12.1778
▁concentrarmo	-12.1779
▁vitr	-12.1786
▁dinam	-12.1793
dan	-12.1796
▁Saber	-12.1796
▁tratá	-12.1805
cioso	-12.1806
▁decidida	-12.1808
▁Alexandr	-12.1812
▁Plan	-12.1816
▁pass	-12.1818
▁pratic	-12.182
▁Gosta	-12.1822
ística	-12.1822
tividade	-12.1823
▁prédios	-12.1826
▁atraí	-12.1831
▁masculinos	-12.1832
lk	-12.1835
▁deteta	-12.1836
▁sinaliza	-12.1843
▁atualiza	-12.1845
▁especulador	-12.1849
ésimo	-12.1859
▁agrega	-12.1862
▁perfeitos	-12.1868
▁cruz	-12.1869
▁mexe	-12.1869
▁Veja	-12.1873
▁slides	-12.1881
▁mandam	-12.1882
▁extrem	-12.1885
▁exata	-12.1886
▁inst	-12.1894
▁destruído	-12.1917
▁doméstico	-12.1918
▁Prov	-12.1918
▁abandonado	-12.1919
▁documentário	-12.1923
▁rigorosa	-12.1923
▁denuncia	-12.1926
ivamente	-12.1932
▁pioneiro	-12.1932
▁aprovado	-12.1934
▁Ron	-12.1934
▁valiosos	-12.1937
▁dinossauro	-12.194
▁disposta	-12.194
▁prisioneiro	-12.1943
▁mosca	-12.1945
▁travage	-12.1946
▁projet	-12.1952
16	-12.1969
▁140	-12.197
▁arrasta	-12.1979
▁apercebe	-12.1982
▁render	-12.1989
▁focam	-12.1991
▁450	-12.1993
idas	-12.1993
bio	-12.1994
▁Lament	-12.1995
isto	-12.2002
▁aprovar	-12.2005
▁talentoso	-12.201
cca	-12.2011
kh	-12.2014
▁identificam	-12.2029
▁espeta	-12.2035
▁Jérs	-12.2038
ctor	-12.2039
fiada	-12.204
▁respir	-12.2042
▁prima	-12.2042
fesa	-12.2044
▁anunciar	-12.2044
ival	-12.2049
ela	-12.2053
assa	-12.2055
▁sanguíne	-12.2056
▁gran	-12.2061
▁rouba	-12.2063
antes	-12.2069
ny	-12.207
tributo	-12.2071
ventura	-12.2076
▁prote	-12.2078
▁dantes	-12.2082
▁Sente	-12.2085
▁HA	-12.2087
▁matern	-12.2088
riedade	-12.2092
▁incentivo	-12.2092
▁abenço	-12.2092
gner	-12.2093
▁Deixe	-12.2095
▁Grand	-12.2098
▁Exce	-12.2101
mad	-12.2109
ation	-12.2109
▁escape	-12.2111
▁evit	-12.2113
mita	-12.2117
▁boom	-12.2125
▁discord	-12.2128
ique	-12.2134
▁Dick	-12.2135
▁maravilhosos	-12.2144
agan	-12.2148
▁conhec	-12.2155
▁desliga	-12.2157
▁arrast	-12.2157
dimensional	-12.2181
casional	-12.2181
nergia	-12.2187
▁Ama	-12.2191
▁post	-12.2191
▁acr	-12.2191
▁discut	-12.2195
▁conservador	-12.2197
▁afect	-12.2198
ji	-12.2199
utono	-12.2201
▁Joan	-12.2205
mundo	-12.2205
▁poupam	-12.2207
▁gross	-12.2212
▁mago	-12.2222
▁Observa	-12.2222
▁determin	-12.2225
▁Interna	-12.2227
▁determinadas	-12.2227
ânico	-12.2227
tima	-12.2229
traumátic	-12.2229
passageiro	-12.2232
▁desenvolv	-12.2233
oficial	-12.2235
banho	-12.2235
ilusão	-12.2237
conflito	-12.2237
vírus	-12.2238
imaginar	-12.2238
descobrir	-12.2238
potência	-12.2238
semana	-12.224
▁Hous	-12.2241
▁polar	-12.2241
marca	-12.2243
lógico	-12.2245
▁maiúscul	-12.2245
▁quise	-12.2252
▁America	-12.2255
▁Cru	-12.2259
▁húmid	-12.227
▁concorr	-12.2276
dega	-12.2281
▁transparentes	-12.2281
if	-12.2283
cipal	-12.2287
▁colhe	-12.2295
▁tocam	-12.2296
íri	-12.2297
▁fingi	-12.2297
ical	-12.23
▁permanecem	-12.2303
▁Ke	-12.2303
▁proteg	-12.2304
forma	-12.2305
▁Procura	-12.2306
▁reconstruí	-12.2307
▁injec	-12.2307
▁assassina	-12.2311
▁Harr	-12.2311
punha	-12.2315
yon	-12.2318
▁renova	-12.2318
itamos	-12.2321
▁transmite	-12.2323
▁preocupe	-12.2324
▁nenhu	-12.2325
▁mantê	-12.2326
▁quarteir	-12.2328
▁providencia	-12.2331
▁Desculpe	-12.2332
▁TE	-12.2333
▁Desculp	-12.2334
▁japon	-12.2336
▁piratea	-12.2337
▁priva	-12.2338
▁retiro	-12.2341
▁distribuí	-12.2342
▁cron	-12.2342
▁circun	-12.2345
ónico	-12.2346
▁sedutor	-12.2347
▁mostre	-12.2348
▁hum	-12.2348
ótico	-12.2349
▁Whit	-12.2352
▁premi	-12.2352
▁doutora	-12.2352
cript	-12.2353
▁câm	-12.2354
▁garra	-12.2354
▁patern	-12.2354
▁homo	-12.2354
▁apercebam	-12.2354
▁fisioterap	-12.2354
▁banquete	-12.2354
▁burocrátic	-12.2354
▁compreendam	-12.2354
▁defeca	-12.2354
▁estragar	-12.2354
▁flash	-12.2354
▁fotovoltaic	-12.2354
▁tecnic	-12.2354
ergaminho	-12.2354
iorquino	-12.2354
ssembleia	-12.2354
▁Aristóteles	-12.2354
▁Barulho	-12.2354
▁Broad	-12.2354
▁Bósnia	-12.2354
▁Child	-12.2354
▁Galile	-12.2354
▁Panamá	-12.2354
▁Portugal	-12.2354
▁Starbucks	-12.2354
▁analítico	-12.2354
▁apetite	-12.2354
▁apresentei	-12.2354
▁artefacto	-12.2354
▁atempada	-12.2354
▁campainha	-12.2354
▁catastrófica	-12.2354
▁chocada	-12.2354
▁cimeira	-12.2354
▁cirúrgica	-12.2354
▁clã	-12.2354
▁confunde	-12.2354
▁criptodivisa	-12.2354
▁crowd	-12.2354
▁cósmico	-12.2354
▁desvaloriza	-12.2354
▁detalhado	-12.2354
▁diagnosticada	-12.2354
▁disparidade	-12.2354
▁dispendiosa	-12.2354
▁distorcida	-12.2354
▁doutrina	-12.2354
▁drive	-12.2354
▁epifania	-12.2354
▁espectador	-12.2354
▁espessa	-12.2354
▁estatístico	-12.2354
▁farmacêutico	-12.2354
▁genérica	-12.2354
▁hidroelétric	-12.2354
▁ineficaz	-12.2354
▁instantâneo	-12.2354
▁intelectuais	-12.2354
▁italiana	-12.2354
▁jurídica	-12.2354
▁laboratoria	-12.2354
▁medíocre	-12.2354
▁memorando	-12.2354
▁minhoca	-12.2354
▁misterioso	-12.2354
▁mortífer	-12.2354
▁motosserra	-12.2354
▁muitíssimo	-12.2354
▁optimiza	-12.2354
▁pandemia	-12.2354
▁paramédico	-12.2354
▁parágrafo	-12.2354
▁pigmento	-12.2354
▁publique	-12.2354
▁péssima	-12.2354
▁ratinho	-12.2354
▁refúgio	-12.2354
▁rácio	-12.2354
▁salamandra	-12.2354
▁tabaco	-12.2354
▁tabuleiro	-12.2354
▁trágica	-12.2354
▁usual	-12.2354
▁utilitári	-12.2354
▁vírgula	-12.2354
▁zodíaco	-12.2354
▁Grupo	-12.2354
▁cratera	-12.2354
▁derradeir	-12.2354
▁fresca	-12.2354
▁fresco	-12.2354
▁inquieta	-12.2354
▁mancha	-12.2354
▁medieva	-12.2354
▁primitivo	-12.2354
▁Bangladesh	-12.2354
▁Negro	-12.2354
▁autodetermina	-12.2354
▁cultivo	-12.2354
▁dentária	-12.2354
▁emblema	-12.2354
▁incendi	-12.2354
▁interactivo	-12.2354
▁ratazana	-12.2354
▁remédio	-12.2354
▁réplica	-12.2354
▁estudanti	-12.2354
▁psicótica	-12.2354
▁pátio	-12.2354
▁Mountain	-12.2354
▁chumbo	-12.2354
▁embaraços	-12.2354
child	-12.2354
▁intervir	-12.2354
▁agressão	-12.2354
▁pequenino	-12.2354
▁Disney	-12.2354
▁cometido	-12.2354
▁psicológico	-12.2354
▁Antigo	-12.2354
▁pétala	-12.2354
▁sigam	-12.2354
▁Chamei	-12.2354
▁radar	-12.2354
outube	-12.2355
▁bipolar	-12.2355
▁mangueira	-12.2355
▁trecho	-12.2355
licioso	-12.2355
▁Birm	-12.2355
▁interferir	-12.2355
▁dessaliniza	-12.2355
▁russa	-12.2355
▁concreto	-12.2355
▁prepará	-12.2355
▁degener	-12.2355
▁fenda	-12.2355
▁pulga	-12.2355
▁aquecida	-12.2355
▁oficina	-12.2355
▁ópera	-12.2355
▁remonta	-12.2355
▁abanar	-12.2355
▁pseud	-12.2355
▁Negra	-12.2355
▁anonima	-12.2355
▁revolucionário	-12.2355
▁lingu	-12.2355
▁reutilizável	-12.2355
▁temporário	-12.2355
▁Campo	-12.2355
▁excerto	-12.2355
▁intuitiva	-12.2355
▁investe	-12.2355
▁Cesar	-12.2355
▁Fried	-12.2355
▁metido	-12.2355
▁vício	-12.2355
▁residência	-12.2355
▁liminar	-12.2355
▁protagonista	-12.2355
▁relembrar	-12.2355
▁urna	-12.2355
▁prevê	-12.2355
▁ditadura	-12.2355
▁camelo	-12.2355
▁bú	-12.2355
▁traçado	-12.2355
▁turbina	-12.2355
▁bêbado	-12.2355
▁rebel	-12.2355
▁relutante	-12.2355
▁adversidade	-12.2355
untu	-12.2355
▁taco	-12.2355
▁Job	-12.2355
lírio	-12.2355
▁vedaç	-12.2355
▁amendoi	-12.2355
nough	-12.2356
▁distorce	-12.2356
▁passadeira	-12.2356
▁CIA	-12.2356
▁Narra	-12.2356
olícia	-12.2356
▁persistência	-12.2356
▁Ficá	-12.2356
hafi	-12.2356
▁Ahmed	-12.2356
▁reservatório	-12.2356
▁muco	-12.2356
▁refé	-12.2356
▁reparei	-12.2356
▁resolvida	-12.2356
▁revestimento	-12.2356
▁paraquedas	-12.2356
▁intima	-12.2357
▁troco	-12.2357
letim	-12.2357
▁2040	-12.2357
▁deitada	-12.2357
▁Face	-12.2357
▁cumprimento	-12.2357
▁escasso	-12.2358
▁progressista	-12.2358
▁Visit	-12.2358
▁enquadramento	-12.2358
reza	-12.2358
▁distraído	-12.2358
▁Live	-12.2358
▁Lyn	-12.2358
▁residencia	-12.2359
▁sentíamo	-12.2359
▁tocou	-12.2359
▁privilegiado	-12.2359
▁aproximou	-12.2359
▁amorosa	-12.2359
▁Buck	-12.236
vangelho	-12.236
▁tolerante	-12.236
▁Tirar	-12.236
▁Convid	-12.236
▁ascendente	-12.236
▁óptica	-12.2361
▁oprimidos	-12.2361
▁persistente	-12.2361
▁genitais	-12.2361
▁minerais	-12.2361
▁Administra	-12.2361
▁trabalhem	-12.2361
▁representativa	-12.2361
▁Gasta	-12.2362
▁regar	-12.2362
▁57	-12.2362
▁severa	-12.2363
nicialmente	-12.2363
▁83	-12.2363
▁ternur	-12.2363
▁UC	-12.2363
▁governam	-12.2363
▁Hebraica	-12.2363
▁islâmica	-12.2364
▁palestino	-12.2364
▁xadrez	-12.2364
▁mudo	-12.2364
▁negar	-12.2364
▁paliativos	-12.2364
▁chamei	-12.2364
▁centrada	-12.2364
▁LP	-12.2365
▁Tech	-12.2366
▁odeiam	-12.2366
▁arena	-12.2366
▁aterrorizada	-12.2366
▁Carta	-12.2367
▁Hunt	-12.2367
▁compete	-12.2367
▁egípcia	-12.2368
▁Conduzi	-12.2368
▁cativar	-12.2368
▁pneumo	-12.2368
▁convencida	-12.2369
▁contradição	-12.2369
▁recreio	-12.2369
▁Harri	-12.2369
▁esquecida	-12.237
▁Nicola	-12.237
▁Indian	-12.237
▁intenso	-12.237
▁libertou	-12.237
▁exploradores	-12.237
▁180	-12.2371
▁fê	-12.2371
▁polares	-12.2371
▁ganso	-12.2371
▁sequenciação	-12.2371
▁Bot	-12.2372
▁TEDx	-12.2372
▁contabilidade	-12.2372
▁hipoteca	-12.2372
▁centrado	-12.2373
▁ingénuo	-12.2373
▁Caval	-12.2373
tendimento	-12.2373
judicial	-12.2374
ncre	-12.2374
▁Ficam	-12.2374
▁pedest	-12.2374
▁assassinado	-12.2375
▁gratifica	-12.2375
▁congelada	-12.2376
▁oral	-12.2376
▁capturado	-12.2376
▁antropólogo	-12.2378
fase	-12.2378
▁conduzido	-12.2378
▁constituído	-12.238
▁canadiano	-12.238
▁lateral	-12.2381
▁condicional	-12.2381
▁entro	-12.2381
▁antecipada	-12.2381
▁responsabilizar	-12.2381
▁agarrada	-12.2381
▁compreendido	-12.2382
▁removido	-12.2382
▁antecipar	-12.2382
xatamente	-12.2382
▁Fest	-12.2383
▁animações	-12.2384
▁postal	-12.2384
▁licenciado	-12.2385
▁continha	-12.2387
▁manchetes	-12.2387
▁ofereceu	-12.2387
▁Estranh	-12.2388
▁TR	-12.2388
▁pertencem	-12.2388
▁LE	-12.2389
▁numera	-12.239
▁adaptarem	-12.239
▁concentrada	-12.2391
▁berço	-12.2392
▁adquirida	-12.2392
mira	-12.2392
▁sentam	-12.2393
▁prévio	-12.2394
▁Encontr	-12.2394
▁popularidade	-12.2394
▁sirva	-12.2396
▁capacitar	-12.2397
▁prado	-12.2398
byte	-12.2399
▁depress	-12.2399
▁obrigação	-12.24
▁frame	-12.24
▁partiu	-12.24
▁cruzar	-12.24
▁crente	-12.2401
bioma	-12.2401
▁inoc	-12.2402
▁sexualidade	-12.2403
▁interpessoa	-12.2404
▁Preocupa	-12.2404
▁sustento	-12.2406
▁cunhad	-12.2407
▁saram	-12.2407
▁transferida	-12.2409
▁desencadear	-12.2412
▁solta	-12.2414
pra	-12.2414
▁afectado	-12.2414
▁experimentado	-12.2415
▁fabricado	-12.2416
▁libertada	-12.2417
atrina	-12.2418
gica	-12.2418
▁degradado	-12.242
▁municipa	-12.2422
▁eleitora	-12.2423
▁revelaram	-12.2424
▁NP	-12.2424
▁Continuo	-12.2424
▁alcança	-12.2424
▁Denn	-12.2426
▁transformada	-12.2426
ilhas	-12.2427
▁exigente	-12.2427
vul	-12.2427
▁rox	-12.2427
▁inaugura	-12.2428
▁medem	-12.2428
▁encontravam	-12.2429
▁deslocada	-12.2429
▁parem	-12.2429
▁insensíve	-12.2429
dotado	-12.2431
▁ouvinte	-12.2431
▁paralisado	-12.2432
▁dispor	-12.2433
▁colá	-12.2434
▁húmida	-12.2439
▁participam	-12.244
▁focada	-12.244
▁interessei	-12.2441
▁crua	-12.2442
minação	-12.2442
▁desenvolvem	-12.2442
▁plân	-12.2446
▁fri	-12.2447
▁sentamos	-12.2449
ebra	-12.2451
▁astronomia	-12.2452
▁demitir	-12.2454
▁poroso	-12.2455
▁imu	-12.2456
▁aproveitamento	-12.2456
▁perguntava	-12.2456
▁acena	-12.2457
▁obtiver	-12.2459
port	-12.2459
ilhagem	-12.246
▁eletro	-12.2462
▁Entra	-12.2462
▁iluminada	-12.2462
▁publicitário	-12.2463
▁afegão	-12.2463
▁iluminar	-12.2466
peer	-12.247
▁suma	-12.247
yer	-12.2471
▁comun	-12.2472
▁preventiv	-12.2472
▁criticar	-12.2474
cionistas	-12.2475
▁equilibrado	-12.2476
▁Conf	-12.2476
▁alimentado	-12.2477
▁prazeres	-12.2481
▁Men	-12.2484
af	-12.2486
▁declarar	-12.2487
▁aguenta	-12.2487
▁beijar	-12.2489
▁actuar	-12.2489
dag	-12.2491
▁Ber	-12.2493
ope	-12.2493
▁inclusivo	-12.2495
▁inicio	-12.2495
▁Qa	-12.2496
▁acredit	-12.2497
▁virei	-12.2498
▁ousado	-12.2499
▁sensoria	-12.2502
III	-12.2504
▁Pratica	-12.2505
▁orador	-12.2505
▁Espere	-12.2506
▁Ig	-12.251
▁australiano	-12.2512
▁drena	-12.2514
rk	-12.2519
▁conceder	-12.2523
▁contato	-12.2524
squecemo	-12.2524
▁Film	-12.2525
▁jur	-12.2525
▁min	-12.2525
▁organizá	-12.2525
▁variado	-12.2528
LL	-12.2528
▁promotor	-12.253
▁índi	-12.2532
▁organizador	-12.2536
▁enviarem	-12.2538
▁Image	-12.2545
▁roub	-12.2547
▁Acabar	-12.2548
▁intenciona	-12.255
▁Val	-12.2552
▁Bay	-12.2554
▁conchas	-12.2563
quio	-12.2563
▁batatas	-12.2563
tone	-12.2564
▁Gil	-12.2567
▁sudo	-12.2567
▁pretendem	-12.2568
ranja	-12.2569
▁Pris	-12.2569
tic	-12.2569
▁armadas	-12.2577
▁Code	-12.2577
▁Bet	-12.2579
gente	-12.2581
▁fu	-12.2582
▁encantador	-12.2585
▁decli	-12.2587
▁pesava	-12.2588
▁Grito	-12.2592
▁fada	-12.2592
▁reis	-12.2595
▁calibr	-12.2596
cência	-12.2596
▁Ida	-12.2597
▁ameaçada	-12.2597
▁existencial	-12.2598
km	-12.2605
▁ajudando	-12.261
▁defin	-12.2613
ami	-12.2614
▁reincid	-12.262
▁ES	-12.2624
estado	-12.2624
▁Kal	-12.2624
▁palh	-12.2631
▁Deram	-12.2633
▁vivam	-12.2637
▁mex	-12.2638
▁estudava	-12.2642
▁defendem	-12.2649
▁fech	-12.2651
▁rebento	-12.2652
▁fundi	-12.2659
▁Perceber	-12.2664
▁entrasse	-12.2665
MP	-12.2668
▁dançam	-12.2669
▁Heath	-12.2675
▁consta	-12.268
▁definida	-12.268
▁boi	-12.2683
▁invi	-12.2683
▁assustados	-12.2689
▁contextualiza	-12.2698
tica	-12.2698
quart	-12.271
▁anfitriã	-12.2712
▁entrevist	-12.2712
▁partilhadas	-12.2712
brigada	-12.2717
venta	-12.2717
▁caminham	-12.2723
▁Hom	-12.2725
▁extensa	-12.2727
▁Acabam	-12.2732
▁Construí	-12.2734
▁mares	-12.2743
▁britânicas	-12.2744
ciais	-12.2749
▁Chad	-12.2752
monstrou	-12.2753
▁inala	-12.2757
▁Falar	-12.276
▁fizera	-12.2763
▁analisam	-12.2765
▁ego	-12.2766
▁Gest	-12.2773
▁aplicamos	-12.2773
▁Len	-12.2774
▁cirurgi	-12.2775
▁open	-12.278
▁radio	-12.278
fred	-12.2781
▁visualiz	-12.2782
nunciaram	-12.2782
▁empreendedora	-12.2783
▁retornar	-12.2786
▁aux	-12.2791
▁afastarmo	-12.2793
eah	-12.2801
▁bebi	-12.2802
▁ru	-12.2804
▁passasse	-12.2805
▁rigorosas	-12.2806
▁documentários	-12.2806
ich	-12.2807
▁aprovados	-12.2808
ping	-12.281
ponte	-12.2811
▁visse	-12.2813
▁decorre	-12.2813
▁domina	-12.2813
▁estro	-12.282
▁reportage	-12.282
▁tripula	-12.2821
▁defend	-12.2825
ence	-12.2825
▁ligá	-12.2828
▁gest	-12.2828
llan	-12.2832
▁devastador	-12.2834
▁ades	-12.2841
▁Cr	-12.2842
▁percorr	-12.2843
▁FM	-12.2843
rgo	-12.2843
▁considerava	-12.2852
▁abrange	-12.2856
▁interessava	-12.2857
▁recriar	-12.2859
▁Shan	-12.2859
rio	-12.2861
▁cemitérios	-12.2868
▁fatias	-12.2868
▁92	-12.2868
▁encontrasse	-12.2873
▁reduzimo	-12.2876
▁compensar	-12.2878
tória	-12.2883
lan	-12.2885
▁cata	-12.2891
ólogos	-12.2891
ik	-12.2892
▁Ficava	-12.2898
▁67	-12.2899
lma	-12.2901
bora	-12.2902
▁Ab	-12.2903
red	-12.2906
▁red	-12.2911
ody	-12.2914
ceira	-12.2918
▁Mer	-12.2918
kin	-12.292
▁Tó	-12.2924
▁cur	-12.2927
▁medidos	-12.2928
▁Palm	-12.2929
▁diagnosticados	-12.293
▁Alexand	-12.293
ering	-12.2932
▁Nove	-12.2935
▁Jona	-12.2937
▁emprega	-12.2942
ranha	-12.2943
▁compreendi	-12.2943
▁saberia	-12.2944
ronia	-12.2949
▁187	-12.2954
▁tre	-12.2962
▁distorç	-12.2965
▁entradas	-12.2968
▁sofria	-12.2968
▁transformador	-12.2969
▁acumular	-12.2972
▁critica	-12.2974
▁Nam	-12.2979
ngue	-12.2981
▁tomem	-12.2986
▁ignorá	-12.2992
▁atletas	-12.2992
cel	-12.2993
hei	-12.2994
pareciam	-12.2994
▁permitirmos	-12.3005
atra	-12.3008
▁pedisse	-12.3008
▁trop	-12.3017
▁empurr	-12.3017
sistem	-12.302
▁projec	-12.3023
▁on	-12.3027
▁digitar	-12.3027
união	-12.3028
▁perderem	-12.303
▁unificad	-12.3031
▁Teríamo	-12.3034
▁Damos	-12.3038
▁interrogar	-12.3041
ini	-12.3041
reter	-12.3043
gregação	-12.3043
▁inesperados	-12.3055
▁ironi	-12.3061
▁trato	-12.3066
▁Lind	-12.3068
▁experiment	-12.307
ança	-12.3075
pita	-12.3084
▁Altera	-12.3087
▁extenso	-12.3088
▁salt	-12.3089
▁tomava	-12.3094
▁dormia	-12.3102
▁Urs	-12.3102
baixo	-12.3109
▁revi	-12.3109
patia	-12.3115
▁Wh	-12.3119
▁africanas	-12.312
▁lamenta	-12.3126
▁escolherem	-12.3136
ED	-12.3137
▁mostrarem	-12.3138
▁passem	-12.3139
ki	-12.314
▁filantrop	-12.3141
▁conv	-12.3142
nismo	-12.317
▁encorajador	-12.3171
íssemos	-12.3178
ue	-12.3179
traiu	-12.318
▁convenc	-12.3187
▁Vári	-12.3187
cular	-12.3187
ncia	-12.319
▁aguarda	-12.3192
▁sonha	-12.3194
▁prosper	-12.3198
▁extras	-12.3202
age	-12.3208
▁brilha	-12.3217
▁entenderem	-12.3218
pin	-12.3224
▁contorna	-12.3225
▁opressão	-12.3227
▁Gostar	-12.3229
▁Viva	-12.3233
ntário	-12.3237
▁Pen	-12.324
▁suposiç	-12.3242
álg	-12.3249
▁tripulaç	-12.3249
▁tese	-12.3255
▁Walk	-12.3258
lit	-12.3262
▁Cont	-12.3265
▁exporta	-12.3271
▁AS	-12.3277
▁termin	-12.3278
azar	-12.3291
▁grad	-12.3292
▁Investiga	-12.3299
▁consistia	-12.3304
▁multas	-12.3312
▁indianos	-12.3312
▁Kn	-12.3313
▁inventa	-12.3317
loc	-12.3317
▁habituar	-12.3318
▁disponibiliz	-12.3321
▁britânica	-12.3351
▁pressuposto	-12.3355
taram	-12.3355
▁Humano	-12.3355
▁melhoram	-12.3356
▁funcionaria	-12.3357
ólogo	-12.3358
▁soci	-12.336
▁ingrediente	-12.337
▁preocupava	-12.3372
▁antibiótico	-12.3375
▁conceptual	-12.3376
▁observá	-12.3378
▁vestidos	-12.3378
▁encontrámo	-12.3383
▁contesta	-12.3385
▁Morre	-12.3387
▁Rep	-12.3388
uri	-12.3389
▁arranje	-12.339
rido	-12.3392
achi	-12.3392
▁vence	-12.3396
▁preferir	-12.3407
cond	-12.3409
▁moro	-12.3414
fing	-12.3431
kins	-12.3435
▁aproxim	-12.3436
ray	-12.3436
▁Aumenta	-12.3437
▁esgota	-12.3447
▁Aprender	-12.3451
iais	-12.3454
▁ocupam	-12.3457
venceu	-12.346
inh	-12.3462
▁receb	-12.3462
▁observava	-12.3462
rgi	-12.3462
ática	-12.347
▁Fin	-12.347
burg	-12.347
rinho	-12.347
▁criem	-12.3471
▁estudam	-12.3472
▁LI	-12.3474
arismo	-12.3477
▁exib	-12.3483
▁beneficiam	-12.3487
▁Escolhe	-12.3489
▁apreciam	-12.3489
▁deslocam	-12.3489
▁Barr	-12.349
culares	-12.3496
▁compreens	-12.3496
▁pretend	-12.3497
▁mecanic	-12.3497
▁retiram	-12.3498
lvia	-12.3498
▁empilha	-12.35
▁360	-12.35
▁Avanç	-12.3502
▁contact	-12.3502
▁tomá	-12.3506
bsoluta	-12.3507
prendizagem	-12.3507
ubara	-12.351
▁escavar	-12.3515
▁aproximam	-12.352
▁imens	-12.352
▁desempreg	-12.3524
▁Gale	-12.353
▁inseri	-12.3532
▁mexican	-12.3534
▁lavage	-12.3534
ssenta	-12.3534
▁Aquil	-12.3536
▁evitá	-12.3538
corp	-12.3541
▁delicad	-12.3541
▁pú	-12.3543
▁advogad	-12.3543
▁Obte	-12.3543
▁explicam	-12.3544
▁inflex	-12.3544
▁regresse	-12.3545
▁consol	-12.3552
▁estuda	-12.3552
▁crias	-12.356
▁limpas	-12.3572
gado	-12.3579
▁Crai	-12.3581
▁mineir	-12.3582
▁encontrem	-12.3594
uther	-12.3597
av	-12.3597
largado	-12.3598
▁aproximava	-12.3604
ngenharia	-12.3605
conómico	-12.3606
vidente	-12.3613
EC	-12.3614
▁Lord	-12.3614
cisão	-12.3619
▁Pensar	-12.362
▁Vivem	-12.3627
head	-12.3628
▁Cin	-12.363
▁saltam	-12.3635
▁atirá	-12.3636
eneticamente	-12.364
NA	-12.3641
▁pegam	-12.3642
▁imers	-12.3643
▁Inter	-12.3648
▁camp	-12.3651
▁cli	-12.3653
▁conserva	-12.3655
fazer	-12.3656
▁Carl	-12.3658
estruturas	-12.366
▁alonga	-12.3661
sucedida	-12.3665
▁Ris	-12.3666
ajuda	-12.3666
▁Jun	-12.3666
à	-12.3667
bomba	-12.3667
▁centrifugador	-12.3669
▁Bla	-12.367
▁salvam	-12.3672
lever	-12.3673
▁amas	-12.3676
▁incomplet	-12.3677
voz	-12.3678
▁sequestr	-12.3681
▁engana	-12.3688
african	-12.3689
zação	-12.3691
▁chef	-12.3693
In	-12.3694
▁Suponh	-12.3701
▁vest	-12.3701
▁marítim	-12.3701
dez	-12.3705
▁compromete	-12.3706
▁pensador	-12.3707
▁decente	-12.3708
▁imaginá	-12.3708
▁coincidi	-12.3712
rador	-12.3715
▁Dever	-12.3716
gh	-12.3716
▁verificá	-12.3716
▁inv	-12.3716
água	-12.3717
guai	-12.3718
▁matam	-12.3718
▁fracas	-12.3718
▁Sex	-12.3719
▁antecipa	-12.3721
▁pla	-12.3721
▁consideráve	-12.3724
▁irrita	-12.373
corn	-12.3731
▁colori	-12.3732
▁prefere	-12.3733
hão	-12.3738
▁mostrá	-12.3739
▁cas	-12.374
▁retrata	-12.3743
enal	-12.3749
▁infeta	-12.3749
atma	-12.375
▁expande	-12.3751
▁Bud	-12.3751
▁mí	-12.3752
▁espiritua	-12.3752
▁especifica	-12.3757
▁relaxa	-12.3757
▁resgata	-12.3758
▁indigna	-12.3758
▁intui	-12.3759
▁equip	-12.376
▁imprud	-12.3761
▁disputa	-12.3761
tê	-12.3761
▁redefini	-12.3761
▁precipita	-12.3761
tum	-12.3761
▁SM	-12.3761
▁dissi	-12.3762
▁disfarça	-12.3762
▁âm	-12.3764
▁reacç	-12.3765
▁irregular	-12.3766
▁abate	-12.3766
▁frances	-12.3767
▁Branc	-12.3768
▁metaboli	-12.3768
▁escute	-12.377
▁tangíve	-12.377
▁levo	-12.3773
49	-12.3775
▁Faci	-12.3776
▁Concentr	-12.3776
▁Cem	-12.3776
upremo	-12.3778
▁supervis	-12.3778
▁exclusiva	-12.3778
,7	-12.378
conomist	-12.3781
strói	-12.3782
ctav	-12.3783
▁Surpreende	-12.3783
▁burocra	-12.3783
▁plut	-12.3783
▁Defini	-12.3783
▁plural	-12.3783
neurotransmissor	-12.3783
▁BitCoin	-12.3783
▁Brother	-12.3783
▁Cheryl	-12.3783
▁Cuidado	-12.3783
▁Círculo	-12.3783
▁Democrata	-12.3783
▁Detroit	-12.3783
▁Elizabe	-12.3783
▁Espaço	-12.3783
▁Frankenstein	-12.3783
▁Importa	-12.3783
▁Império	-12.3783
▁MOOC	-12.3783
▁absurda	-12.3783
▁alicerce	-12.3783
▁amadurece	-12.3783
▁ambígua	-12.3783
▁anedota	-12.3783
▁aritmétic	-12.3783
▁atribuído	-12.3783
▁autocolante	-12.3783
▁automonta	-12.3783
▁auxiliar	-12.3783
▁benéfica	-12.3783
▁boleia	-12.3783
▁bonobo	-12.3783
▁bênção	-12.3783
▁cabeludo	-12.3783
▁cancerosa	-12.3783
▁cardiovascular	-12.3783
▁circulo	-12.3783
▁condescendente	-12.3783
▁confundir	-12.3783
▁contrapartida	-12.3783
▁coreografia	-12.3783
▁costeira	-12.3783
▁cotovelo	-12.3783
▁cívica	-12.3783
▁descanso	-12.3783
▁desfecho	-12.3783
▁download	-12.3783
▁dísp	-12.3783
▁empolgado	-12.3783
▁engorda	-12.3783
▁enrolar	-12.3783
▁entusiasta	-12.3783
▁envolva	-12.3783
▁esfomeado	-12.3783
▁estupidez	-12.3783
▁exagerar	-12.3783
▁filosófica	-12.3783
▁flagrante	-12.3783
▁flecha	-12.3783
▁fragilidade	-12.3783
▁furiosa	-12.3783
▁fábula	-12.3783
▁glóbulo	-12.3783
▁grelha	-12.3783
▁gémea	-12.3783
▁inadequado	-12.3783
▁inexplicáve	-12.3783
▁infecciosa	-12.3783
▁inorgânica	-12.3783
▁insinua	-12.3783
▁micrometeorito	-12.3783
▁mobília	-12.3783
▁multimilionário	-12.3783
▁nigeriano	-12.3783
▁oferecido	-12.3783
▁orfanato	-12.3783
▁pacífico	-12.3783
▁padroniza	-12.3783
▁parâmetros	-12.3783
▁patogénico	-12.3783
▁pedacinho	-12.3783
▁perpétua	-12.3783
▁prejuízo	-12.3783
▁preocupo	-12.3783
▁preparei	-12.3783
▁racial	-12.3783
▁rafeiro	-12.3783
▁recomeça	-12.3783
▁renuncia	-12.3783
▁repentina	-12.3783
▁repositório	-12.3783
▁reviravolta	-12.3783
▁simbólico	-12.3783
▁simpática	-12.3783
▁soberana	-12.3783
▁soberania	-12.3783
▁socioeconómica	-12.3783
▁soviético	-12.3783
▁subproduto	-12.3783
▁suicidou	-12.3783
▁suprema	-12.3783
▁torradeira	-12.3783
▁transmissíve	-12.3783
▁trégua	-12.3783
▁ténue	-12.3783
▁utensílio	-12.3783
▁workshop	-12.3783
▁óptima	-12.3783
▁acidentad	-12.3783
▁boneca	-12.3783
▁convidá	-12.3783
▁encarceramento	-12.3783
▁evidencia	-12.3783
▁grega	-12.3783
▁greve	-12.3783
▁hazara	-12.3783
▁lunar	-12.3783
▁quadrante	-12.3783
▁quiosque	-12.3783
▁ultrapassou	-12.3783
▁Abraham	-12.3783
▁Digita	-12.3783
▁Hindu	-12.3783
▁Massachus	-12.3783
▁TAC	-12.3783
▁bife	-12.3783
▁candeeiro	-12.3783
▁companheira	-12.3783
▁consultório	-12.3783
▁dificulta	-12.3783
▁esquisito	-12.3783
▁explicit	-12.3783
▁fisiologi	-12.3783
▁gâ	-12.3783
▁nanómetro	-12.3783
▁planalto	-12.3783
▁polémic	-12.3783
▁possuímos	-12.3783
▁rodoviári	-12.3783
▁supervisiona	-12.3783
▁torrada	-12.3783
▁tutu	-12.3783
▁vincula	-12.3783
▁bacteriana	-12.3783
▁posterior	-12.3783
▁sentinela	-12.3783
▁trenó	-12.3783
▁webcam	-12.3783
▁Chamámos	-12.3783
▁Céu	-12.3783
▁Moisés	-12.3783
▁enredo	-12.3783
▁Document	-12.3783
▁Nichol	-12.3783
▁analógico	-12.3783
▁atacá	-12.3783
▁crónico	-12.3783
▁gorila	-12.3783
▁sanitária	-12.3783
▁cativeiro	-12.3783
▁duradouro	-12.3783
▁longitudina	-12.3783
▁sobrinha	-12.3783
▁anteced	-12.3783
▁lenda	-12.3783
▁nómada	-12.3783
▁Blue	-12.3783
▁Convenção	-12.3783
▁estudioso	-12.3783
▁Jacqu	-12.3783
▁incomu	-12.3783
▁léxico	-12.3783
▁presun	-12.3783
NIC	-12.3783
▁amigáve	-12.3783
▁concluiu	-12.3783
▁sétim	-12.3783
▁atalho	-12.3783
▁traseiro	-12.3783
▁assimétrica	-12.3783
▁ciber	-12.3783
▁redireciona	-12.3783
▁aquecido	-12.3783
▁suprimi	-12.3783
▁verificou	-12.3783
▁estrita	-12.3783
▁arrog	-12.3783
▁fazenda	-12.3783
▁Church	-12.3783
▁escudo	-12.3783
▁segmento	-12.3783
▁Schwarz	-12.3783
▁constrangimento	-12.3783
▁tábua	-12.3783
▁luva	-12.3783
▁reprimitiva	-12.3783
▁bacteriano	-12.3783
▁neurológico	-12.3783
▁desuman	-12.3783
▁pintei	-12.3783
▁relevância	-12.3783
▁olfat	-12.3783
▁Fuller	-12.3783
▁mitologia	-12.3783
▁católica	-12.3783
▁preenchida	-12.3783
antoche	-12.3783
▁Empresa	-12.3783
▁deprimente	-12.3783
▁Clima	-12.3783
▁asneira	-12.3783
▁baloiç	-12.3783
▁Benjam	-12.3783
▁Toca	-12.3783
tórica	-12.3784
▁exótico	-12.3784
▁Doença	-12.3784
▁próspera	-12.3784
▁transfere	-12.3784
▁Invent	-12.3784
▁triplica	-12.3784
▁sopro	-12.3784
inócu	-12.3784
▁unicórnio	-12.3784
▁secretário	-12.3784
▁inchad	-12.3784
▁beneficiário	-12.3784
▁cancela	-12.3784
▁caótica	-12.3784
▁Moore	-12.3784
▁pecado	-12.3784
▁Planeta	-12.3784
▁Presum	-12.3784
▁alternativo	-12.3784
▁mexerico	-12.3784
▁uau	-12.3784
▁quebrou	-12.3784
▁Escute	-12.3784
▁evolutivo	-12.3784
▁daninha	-12.3784
▁bidimensional	-12.3784
▁Khan	-12.3784
▁Quarto	-12.3784
▁auditiva	-12.3784
▁Lovel	-12.3784
▁armadura	-12.3784
▁taxista	-12.3785
▁UV	-12.3785
▁Pitt	-12.3785
▁grosseira	-12.3785
▁Julian	-12.3785
▁resiliente	-12.3785
▁fideli	-12.3785
▁assinalad	-12.3785
▁Louis	-12.3785
▁marcá	-12.3785
▁letal	-12.3785
▁embalagens	-12.3785
▁preparou	-12.3785
▁Programa	-12.3785
▁escova	-12.3785
▁banal	-12.3785
▁zangada	-12.3785
▁barb	-12.3786
▁fóruns	-12.3786
▁inflamaç	-12.3786
▁espalhe	-12.3786
▁cartografia	-12.3786
▁editar	-12.3786
▁bastou	-12.3786
▁repará	-12.3786
▁agarrou	-12.3786
▁sonoro	-12.3786
▁bacia	-12.3786
▁cabeçalho	-12.3787
▁barbear	-12.3787
▁matur	-12.3787
▁humilhante	-12.3787
▁surfista	-12.3787
▁vegetariano	-12.3787
▁like	-12.3787
▁Menina	-12.3787
▁Abram	-12.3787
▁disseminado	-12.3787
▁comentador	-12.3787
▁rup	-12.3787
▁cativante	-12.3788
▁fungo	-12.3788
▁numérica	-12.3788
controláve	-12.3788
ucker	-12.3788
▁Membro	-12.3788
▁expulso	-12.3788
Reddit	-12.3788
▁Nathan	-12.3789
▁cooperam	-12.3789
▁recusou	-12.3789
▁viúva	-12.3789
▁Caça	-12.379
▁tapar	-12.379
▁alve	-12.379
▁Computador	-12.3791
▁Deixei	-12.3791
▁ligeiro	-12.3791
▁arqueologi	-12.3792
▁sublinhar	-12.3792
▁reaproveita	-12.3792
▁afundar	-12.3792
▁imunológic	-12.3792
▁Kate	-12.3792
▁pradaria	-12.3792
▁suposições	-12.3793
▁terminam	-12.3793
▁Medica	-12.3793
▁patrões	-12.3793
▁traçar	-12.3793
▁descrita	-12.3793
▁rapto	-12.3793
▁Conheço	-12.3794
▁Cub	-12.3794
▁carri	-12.3794
▁compositor	-12.3794
▁repetitivo	-12.3794
zac	-12.3794
▁Swan	-12.3794
▁frita	-12.3794
▁desfazer	-12.3794
penhamento	-12.3795
▁stressante	-12.3795
▁construtiva	-12.3795
▁reorganizar	-12.3795
▁enviem	-12.3795
▁extraído	-12.3795
▁peões	-12.3795
lyp	-12.3795
▁espiritualidade	-12.3796
▁desagrega	-12.3796
▁mutila	-12.3797
▁semestre	-12.3797
▁sábia	-12.3797
▁Testa	-12.3797
▁deitava	-12.3797
▁bloqueada	-12.3797
▁alargada	-12.3797
▁incidência	-12.3797
▁resina	-12.3798
▁autoritári	-12.3798
▁Vel	-12.3798
▁reúnem	-12.3798
▁estendido	-12.38
▁alcançado	-12.38
▁Whe	-12.3801
judiciais	-12.3801
▁Desejo	-12.3801
▁ML	-12.3801
▁abandonou	-12.3801
▁embutid	-12.3801
▁avaria	-12.3802
▁empregada	-12.3802
▁Jab	-12.3803
▁divina	-12.3803
▁polarizada	-12.3804
▁falido	-12.3804
▁pique	-12.3804
▁bombea	-12.3805
▁jornalística	-12.3805
▁Ley	-12.3805
▁Criaram	-12.3805
▁ordenar	-12.3805
abha	-12.3805
▁Teor	-12.3805
▁grandioso	-12.3806
▁diminuído	-12.3806
▁Put	-12.3806
▁fundir	-12.3807
▁compassivo	-12.3807
▁Considero	-12.3808
▁infetada	-12.3808
▁Apanhei	-12.3809
▁cume	-12.3809
▁Thor	-12.3809
▁Olimp	-12.381
pular	-12.381
▁bata	-12.381
▁apertada	-12.381
▁esmagar	-12.381
bul	-12.3811
▁empurrão	-12.3811
▁assemelhar	-12.3812
▁BD	-12.3812
▁artifício	-12.3813
▁conectividade	-12.3813
▁Coloque	-12.3813
▁azo	-12.3814
▁sussurrar	-12.3814
▁atrever	-12.3814
▁correspondente	-12.3814
▁surdo	-12.3815
▁apuro	-12.3815
diava	-12.3815
▁refletida	-12.3816
ushi	-12.3817
▁acusação	-12.3817
▁IN	-12.3818
▁Republicano	-12.3819
▁aceitam	-12.3819
▁celulares	-12.382
▁traumátic	-12.3821
sari	-12.3821
▁raciona	-12.3822
▁convidad	-12.3823
▁acompanhada	-12.3823
▁Lam	-12.3824
▁aprovada	-12.3824
mbai	-12.3824
▁Pica	-12.3828
▁empurrado	-12.3828
▁sabores	-12.383
▁Caminh	-12.3831
▁empenhar	-12.3831
▁fundações	-12.3831
▁daria	-12.3831
▁surda	-12.3831
▁Cloud	-12.3833
▁ignorado	-12.3833
▁tridimensionais	-12.3833
aboratório	-12.3833
▁Vermelha	-12.3834
▁riu	-12.3835
▁entendida	-12.3836
▁Av	-12.3836
▁Tw	-12.3836
▁responsabiliza	-12.3836
▁Russel	-12.3836
dados	-12.3837
▁Tendem	-12.3838
▁convenci	-12.384
▁processada	-12.3842
▁vegetação	-12.3843
▁envolveu	-12.3844
▁Independente	-12.3844
▁atingida	-12.3844
▁vulgares	-12.3845
▁proibido	-12.3845
▁mini	-12.3846
▁Brand	-12.3846
▁corante	-12.3846
▁brinco	-12.3848
mã	-12.3848
▁assustada	-12.3849
beis	-12.3849
▁motorista	-12.385
▁Peru	-12.3851
▁deslocado	-12.3851
▁atacada	-12.3851
▁quebrada	-12.3852
▁desejavam	-12.3853
áscar	-12.3854
▁41	-12.3857
▁unha	-12.3857
▁Retir	-12.3858
▁intitulad	-12.3858
ndal	-12.3861
▁Denisovano	-12.3862
▁chamamento	-12.3862
▁alertar	-12.3863
▁sap	-12.3865
▁apoiada	-12.3867
▁escolhida	-12.3869
▁Poderiam	-12.387
▁convenceram	-12.387
▁aprendiz	-12.3871
▁entendido	-12.3871
▁bamb	-12.3871
▁capitalista	-12.3872
corpo	-12.3872
▁bruta	-12.3877
▁ponham	-12.3878
▁corporativo	-12.3879
▁Construir	-12.3879
▁habituada	-12.3879
▁dó	-12.388
▁estátua	-12.388
▁promissora	-12.388
▁resultante	-12.3881
▁fundada	-12.3881
▁coroa	-12.3881
▁condenada	-12.3882
▁juro	-12.3883
▁esforça	-12.3885
▁excessiva	-12.3885
▁acharam	-12.3886
▁tentador	-12.3886
▁mola	-12.3886
▁8.	-12.3887
▁envolverem	-12.3887
▁dígitos	-12.3888
▁preguiçosos	-12.3888
▁clipe	-12.3888
▁perfurar	-12.3889
▁afastamo	-12.3889
▁Malá	-12.389
▁Livro	-12.389
▁impressiona	-12.3891
▁chato	-12.3892
cados	-12.3894
ellows	-12.3896
▁pesquisado	-12.3896
▁Hat	-12.3897
▁NA	-12.3898
▁centrifugadora	-12.3898
▁coleciona	-12.3899
izada	-12.3902
▁lembrado	-12.3902
▁Canto	-12.3902
▁batida	-12.3902
nca	-12.3904
▁apanharam	-12.3905
▁somar	-12.3909
▁põem	-12.391
▁apoiá	-12.3911
▁abr	-12.3913
▁culpar	-12.3914
25	-12.3914
▁Sê	-12.3916
zzi	-12.3916
lyn	-12.3917
▁magoar	-12.3918
▁And	-12.3919
▁comparáve	-12.3919
▁mot	-12.392
▁abandona	-12.3921
ndy	-12.3922
▁perplexo	-12.3922
▁armazenada	-12.3926
▁exausto	-12.3926
▁fundamentalista	-12.3929
vy	-12.3929
▁abrem	-12.3931
▁duvido	-12.3935
▁discordam	-12.3936
▁acreditavam	-12.3939
▁elevador	-12.3941
▁pastore	-12.3941
gre	-12.3942
▁hesitar	-12.3943
▁habilitaç	-12.3943
▁deduzir	-12.3943
▁alu	-12.3944
▁disseste	-12.3944
▁apontou	-12.3945
▁colada	-12.3946
▁matarem	-12.3947
ax	-12.3948
▁dispensa	-12.3949
▁classificado	-12.3955
▁observe	-12.3956
▁Coro	-12.3957
▁cansados	-12.3958
▁trava	-12.3962
▁Christin	-12.3963
▁47	-12.3963
activ	-12.3968
▁conheceram	-12.3974
▁Tornar	-12.3974
▁cane	-12.3975
▁maravilhado	-12.3978
▁Reconhece	-12.3982
▁Falta	-12.3983
▁hist	-12.3987
▁perpetua	-12.3989
▁regenerar	-12.399
rrado	-12.399
▁hei	-12.3992
▁surf	-12.3998
iões	-12.4
orque	-12.4
plan	-12.4009
▁Plat	-12.4015
▁Apresento	-12.4016
▁exi	-12.4016
▁Subi	-12.4021
▁emerge	-12.4022
▁acordou	-12.4025
▁Over	-12.4025
▁profetas	-12.4026
▁saudades	-12.4026
▁financiado	-12.4028
▁prestem	-12.4035
▁rotu	-12.4036
▁perfis	-12.4038
▁One	-12.4041
aste	-12.4042
▁jac	-12.4043
▁guardam	-12.4046
▁pedirem	-12.4047
▁set	-12.4047
[...]
