<unk>	0
<s>	0
</s>	0
<pad>	0
▁,	-2.98161
▁.	-3.19534
s	-3.21166
▁a	-3.60288
▁de	-3.63784
▁que	-3.66817
;	-4.02608
▁&	-4.05453
▁o	-4.06263
quot	-4.07341
▁e	-4.08976
▁é	-4.54671
-	-4.67447
▁um	-4.70935
▁para	-4.77571
▁uma	-4.78753
▁	-4.89771
▁da	-4.90164
▁do	-5.00913
▁em	-5.04538
▁não	-5.04544
▁E	-5.05822
▁com	-5.17271
▁os	-5.22109
▁se	-5.37244
▁no	-5.45029
mos	-5.45031
▁como	-5.45855
o	-5.47149
▁mais	-5.47748
▁as	-5.50632
▁na	-5.53287
▁A	-5.54569
▁:	-5.59416
▁?	-5.61459
▁por	-5.62657
▁muito	-5.81311
▁O	-5.81388
m	-5.83674
a	-5.84883
ando	-5.90754
▁eu	-5.94681
mente	-5.96927
se	-5.99302
ão	-5.99853
▁ser	-6.00136
▁Mas	-6.0171
▁pessoas	-6.02067
▁à	-6.02261
▁ao	-6.04395
▁isso	-6.06664
▁são	-6.08989
▁mas	-6.11385
▁)	-6.1328
▁ou	-6.13427
(	-6.13519
▁fazer	-6.18214
ção	-6.1848
r	-6.19843
▁—	-6.21495
▁dos	-6.25209
▁nos	-6.28535
▁qu	-6.28904
▁Por	-6.30291
▁está	-6.31978
▁esta	-6.38325
▁isto	-6.39073
▁anos	-6.40013
me	-6.41421
▁porque	-6.41942
▁meu	-6.43301
▁É	-6.43821
▁sobre	-6.45454
▁foi	-6.48089
es	-6.49483
á	-6.50401
▁há	-6.50401
▁era	-6.51664
▁Não	-6.56617
▁mundo	-6.58047
▁ver	-6.58585
▁sua	-6.58853
▁minha	-6.59027
▁seu	-6.61478
▁nossa	-6.62533
▁nosso	-6.636
▁nós	-6.63849
▁ter	-6.63919
u	-6.64657
is	-6.67652
▁todos	-6.67671
▁este	-6.67952
em	-6.6829
l	-6.71077
▁Eu	-6.725
▁estão	-6.73195
os	-6.74344
▁mesmo	-6.7461
▁também	-6.75685
▁forma	-6.76296
▁ele	-6.77993
▁coisas	-6.78778
ntão	-6.79231
▁temos	-6.79919
▁tem	-6.80132
am	-6.80817
▁toda	-6.83213
▁me	-6.84979
▁vida	-6.85646
▁Se	-6.86079
▁aqui	-6.88196
nos	-6.8864
▁tempo	-6.91097
▁pode	-6.92497
▁apenas	-6.94262
▁Riso	-6.95024
▁coisa	-6.95634
▁vez	-6.96277
▁eles	-6.96999
▁podemos	-6.99534
▁têm	-6.99644
▁podem	-6.99682
▁num	-7.04134
▁depois	-7.05171
nde	-7.06118
▁até	-7.0717
▁dizer	-7.07627
▁H	-7.08616
▁estava	-7.11377
▁pelo	-7.1143
ções	-7.11662
▁numa	-7.12628
▁Qu	-7.1345
▁tinha	-7.14321
▁parte	-7.16164
do	-7.16984
▁tudo	-7.17156
▁tipo	-7.18462
▁só	-7.18571
▁agora	-7.18822
▁pela	-7.19304
▁disse	-7.19767
▁Aplausos	-7.19881
▁bem	-7.20786
tão	-7.21031
▁Com	-7.21548
▁dia	-7.2253
▁Ele	-7.23171
▁Esta	-7.25082
e	-7.25693
▁essa	-7.25928
lo	-7.26066
▁vocês	-7.28071
▁algo	-7.28093
▁Ist	-7.29645
ndo	-7.30385
▁grande	-7.31496
já	-7.31699
i	-7.31752
▁alguma	-7.31756
▁cada	-7.32567
▁muita	-7.33156
▁assim	-7.33355
▁Os	-7.33665
▁falar	-7.3418
ões	-7.34602
▁ainda	-7.35981
tanto	-7.36453
▁esse	-7.37696
▁todo	-7.38095
▁trabalho	-7.38685
▁entre	-7.38976
.	-7.3934
ei	-7.40352
▁sem	-7.41799
▁vezes	-7.42195
▁ela	-7.42325
▁pouco	-7.42603
▁melhor	-7.4284
▁verdade	-7.42939
vos	-7.45228
▁qualquer	-7.45259
que	-7.4541
▁T	-7.46295
▁N	-7.46731
▁Este	-7.49114
▁história	-7.49332
▁pensar	-7.49758
íamos	-7.49956
▁nas	-7.50642
▁I	-7.50938
▁vai	-7.51367
▁problema	-7.51413
▁ideia	-7.51914
▁estas	-7.52921
▁milhões	-7.53037
▁hoje	-7.53158
ia	-7.53522
▁%	-7.53642
▁realmente	-7.54098
▁dois	-7.55518
as	-7.56077
▁outros	-7.56229
▁ano	-7.56379
▁...	-7.57867
▁No	-7.58086
gora	-7.58197
▁maior	-7.58441
▁exemplo	-7.59032
▁poder	-7.59191
▁Na	-7.59235
▁S	-7.59403
▁outra	-7.60214
▁sempre	-7.60475
▁lá	-7.61788
▁mim	-7.62678
to	-7.63253
▁ir	-7.63828
▁sistema	-7.65775
▁Em	-7.65988
▁outro	-7.66071
▁estes	-7.66088
▁então	-7.66181
▁menos	-7.66288
▁três	-7.66606
▁estar	-7.67106
▁facto	-7.67151
ou	-7.67341
▁importante	-7.67655
▁casa	-7.68417
▁alguns	-7.68546
▁nunca	-7.68562
▁As	-7.68843
▁estamo	-7.69655
▁lado	-7.69819
la	-7.7154
▁durante	-7.71863
▁♫	-7.72888
▁usar	-7.74638
▁criar	-7.74875
▁dua	-7.75898
▁outras	-7.75994
▁primeira	-7.76379
▁seja	-7.76473
▁neste	-7.77257
idade	-7.77775
▁pessoa	-7.77805
▁deste	-7.78135
▁De	-7.7855
▁tenho	-7.78809
▁tentar	-7.80389
▁cérebro	-7.81182
▁Bem	-7.81239
▁mulheres	-7.82226
▁primeiro	-7.82887
▁talvez	-7.83944
▁vou	-7.84111
▁mesma	-7.84273
▁volta	-7.84893
▁antes	-7.8583
▁faz	-7.86034
▁!	-7.86442
▁tecnologia	-7.86898
▁Um	-7.87119
▁crianças	-7.87184
da	-7.87753
▁diferentes	-7.87764
▁dar	-7.87887
▁momento	-7.87955
▁estou	-7.87975
▁cerca	-7.89002
▁espaço	-7.91466
▁nada	-7.92728
▁dados	-7.92812
▁alguém	-7.93533
▁existe	-7.93888
▁Uma	-7.94922
▁nova	-7.95119
▁água	-7.95267
sso	-7.95752
▁vão	-7.96205
▁quero	-7.97542
▁nem	-7.98075
▁Para	-7.98297
▁qual	-7.98837
▁informação	-7.99985
▁trabalhar	-8.00797
▁eram	-8.00847
▁encontrar	-8.00931
▁novo	-8.02115
▁resposta	-8.02124
ós	-8.02793
lhe	-8.03183
▁vos	-8.03314
▁país	-8.03563
▁olhar	-8.03838
1	-8.04125
▁vosso	-8.04186
▁diferente	-8.04365
▁quem	-8.0486
▁pequena	-8.05337
▁significa	-8.05407
▁10	-8.05552
▁dias	-8.05703
▁-	-8.05741
ámos	-8.05811
▁Temos	-8.05858
▁foram	-8.06264
▁quase	-8.06363
▁altura	-8.06772
▁começar	-8.06838
▁feito	-8.07095
▁Foi	-8.07197
▁mudar	-8.0725
▁vamo	-8.07546
va	-8.07643
apos	-8.07945
▁disso	-8.08036
▁energia	-8.08257
▁un	-8.08908
ram	-8.0997
▁20	-8.09983
▁sido	-8.10846
▁quanto	-8.10852
▁dinheiro	-8.11212
▁nesta	-8.11863
▁J	-8.12334
▁lugar	-8.12364
▁acontece	-8.12555
▁número	-8.12696
▁futuro	-8.12737
▁palavras	-8.1296
▁difícil	-8.13399
▁seria	-8.14274
▁diz	-8.14287
▁realidade	-8.14536
▁claro	-8.15232
▁sou	-8.15253
▁elas	-8.15284
▁precisamos	-8.1544
▁desta	-8.15668
▁simples	-8.16061
▁dentro	-8.163
vamos	-8.17032
▁países	-8.17634
▁sei	-8.17788
▁meio	-8.19092
▁acontecer	-8.1934
▁modo	-8.19558
▁mil	-8.20003
▁escola	-8.20153
▁penso	-8.20194
000	-8.20447
▁ponto	-8.20785
és	-8.2087
▁estavam	-8.2097
▁contra	-8.21052
▁fazem	-8.21233
▁P	-8.21726
▁desde	-8.22065
▁lhe	-8.22078
▁somos	-8.22086
▁Aqui	-8.22454
▁mostrar	-8.22525
▁experiência	-8.22534
▁Depois	-8.22896
▁último	-8.23139
los	-8.23404
▁ficar	-8.23669
mo	-8.24014
▁consegui	-8.24464
▁tinham	-8.25166
▁fora	-8.25293
▁cidade	-8.25359
▁Ela	-8.25717
▁questão	-8.25896
mento	-8.26124
▁maneira	-8.26131
▁enquan	-8.26301
▁possível	-8.27115
▁passado	-8.27244
▁bastante	-8.27626
ar	-8.28644
▁razão	-8.29164
▁Obrigado	-8.29668
▁en	-8.29687
▁fim	-8.2971
▁sabemos	-8.29838
▁Muito	-8.29943
▁tal	-8.30239
▁corpo	-8.30329
▁atrav	-8.30415
▁vossa	-8.30966
▁processo	-8.31255
▁pequeno	-8.32053
▁mãe	-8.32074
▁longo	-8.32318
▁gente	-8.32333
▁saber	-8.32588
▁dólares	-8.32868
▁bom	-8.32898
▁família	-8.34012
▁tive	-8.3406
▁aquela	-8.34219
▁problemas	-8.34624
▁quer	-8.34885
▁luz	-8.35445
▁havia	-8.35557
▁si	-8.35587
▁Vamo	-8.36175
▁ajudar	-8.36577
▁saúde	-8.36963
▁imagem	-8.37807
▁sabem	-8.37862
emos	-8.37896
▁tornar	-8.38027
▁nível	-8.38098
▁vemos	-8.38457
▁tanto	-8.38537
▁homem	-8.38941
▁ali	-8.39159
▁certo	-8.3925
▁quatro	-8.39513
▁Vou	-8.39561
▁parece	-8.39858
▁caso	-8.39872
▁dessa	-8.39984
▁&#9	-8.40378
▁acho	-8.40396
▁maioria	-8.40499
▁deles	-8.40612
▁interessante	-8.40743
▁humanos	-8.41283
▁fez	-8.4197
▁homens	-8.42424
▁construir	-8.42461
▁aprender	-8.4251
▁aquilo	-8.42658
▁grupo	-8.42887
▁perceber	-8.42937
▁D	-8.43657
▁meses	-8.43993
▁causa	-8.44138
▁C	-8.44215
▁única	-8.45423
▁&#93;	-8.45423
▁humano	-8.45706
▁EUA	-8.45728
▁Todo	-8.45733
▁vi	-8.45813
res	-8.45857
y	-8.46299
▁Assi	-8.46311
▁caminho	-8.46387
no	-8.47006
▁partir	-8.47324
▁pai	-8.47339
▁comunidade	-8.47958
▁Podem	-8.48211
▁for	-8.48604
▁sala	-8.48671
▁ciência	-8.48691
▁viver	-8.48765
▁chegar	-8.48867
▁mulher	-8.49628
ecei	-8.50067
▁local	-8.5008
▁Podemo	-8.50161
▁podia	-8.5037
▁noite	-8.5078
las	-8.50835
▁pergunta	-8.51234
▁frente	-8.51381
▁funciona	-8.51466
▁fosse	-8.51552
▁baixo	-8.51748
▁chamado	-8.51765
▁cinco	-8.52355
▁amigos	-8.52661
▁fazemos	-8.52935
▁♪	-8.5301
te	-8.53104
▁aconteceu	-8.53202
de	-8.53569
quanto	-8.53634
▁sociedade	-8.53982
▁Era	-8.5403
onde	-8.54119
▁medo	-8.54473
▁própria	-8.54667
▁boa	-8.55057
▁estado	-8.55066
▁queremos	-8.55258
▁Terra	-8.5534
▁guerra	-8.5535
▁mudança	-8.55372
▁preciso	-8.55385
▁posso	-8.55676
▁espécie	-8.56075
▁valor	-8.56129
▁segundo	-8.56428
▁milhar	-8.56465
ssemos	-8.56468
d	-8.56616
▁grandes	-8.56647
▁Internet	-8.57373
▁real	-8.5763
▁aí	-8.57699
▁cor	-8.58143
▁sentido	-8.58275
▁queria	-8.58731
▁fácil	-8.58755
▁ninguém	-8.58755
▁passar	-8.5882
n	-8.58864
▁horas	-8.5905
▁África	-8.59105
▁vê	-8.59351
▁contar	-8.59575
▁base	-8.59821
▁filhos	-8.60074
▁empresas	-8.60124
▁células	-8.60384
▁cultura	-8.60647
lhes	-8.60943
▁histórias	-8.61299
▁Está	-8.61368
▁enorme	-8.61882
▁Ou	-8.61949
▁livro	-8.62273
▁social	-8.62297
▁re	-8.62876
▁deixar	-8.63022
▁economia	-8.63028
▁30	-8.63179
▁provavelmente	-8.63384
▁global	-8.63704
▁simplesmente	-8.63794
▁projeto	-8.63795
▁atrás	-8.64028
▁imagens	-8.64113
▁normal	-8.64186
ambém	-8.64474
▁Você	-8.64485
▁planeta	-8.64532
▁100	-8.64805
▁Sim	-8.64869
▁Que	-8.64957
▁carro	-8.65311
▁fui	-8.65594
▁algum	-8.65756
▁computador	-8.66195
▁desse	-8.66303
▁tarde	-8.66341
das	-8.66456
vam	-8.66677
▁pais	-8.66683
▁especial	-8.67055
▁melhores	-8.67249
▁aquele	-8.67262
▁mão	-8.67323
▁alta	-8.67595
▁certa	-8.6778
cerca	-8.68224
▁termos	-8.68282
▁quais	-8.68321
dos	-8.68498
▁50	-8.68552
▁criança	-8.68855
▁linha	-8.69009
▁ajuda	-8.69286
▁arte	-8.69315
▁mal	-8.69355
▁Nova	-8.6987
▁ambiente	-8.70054
t	-8.70254
▁dele	-8.70302
▁querem	-8.70309
▁música	-8.70555
▁completamente	-8.70608
▁sim	-8.7082
ência	-8.71547
▁destas	-8.71639
▁doença	-8.71712
▁F	-8.72088
▁início	-8.72134
▁in	-8.72152
▁palavra	-8.72533
▁universo	-8.72536
▁conjunto	-8.72543
▁voz	-8.72563
▁campo	-8.72591
▁sabe	-8.72878
▁modelo	-8.72939
▁desenvolvimento	-8.72941
▁fazê	-8.72956
▁risco	-8.73333
▁governo	-8.73368
▁empresa	-8.73571
▁possa	-8.73672
▁Quero	-8.73696
▁nome	-8.73764
ssem	-8.73784
▁novas	-8.74049
▁passa	-8.74357
▁próximo	-8.74547
▁sentir	-8.74706
▁rede	-8.749
▁2	-8.74969
▁comida	-8.75049
▁chamada	-8.75067
▁morte	-8.75382
▁começa	-8.75418
▁poderia	-8.75482
▁estrutura	-8.75649
teve	-8.75715
▁B	-8.76004
▁suficiente	-8.76342
▁conta	-8.76589
▁papel	-8.76605
▁soluç	-8.77081
▁descobrir	-8.77162
▁século	-8.77196
▁seguir	-8.77411
▁sociais	-8.7744
▁Só	-8.77461
alvez	-8.77543
▁ideias	-8.77582
▁animais	-8.77874
▁M	-8.77879
▁dela	-8.77901
▁capacidade	-8.78071
▁humana	-8.7809
▁15	-8.78157
▁voltar	-8.78319
▁olhos	-8.78471
▁vídeo	-8.78514
▁medida	-8.78963
▁ouvir	-8.79115
▁único	-8.79131
▁começou	-8.79166
▁fiz	-8.79506
na	-8.79814
▁oportunidade	-8.7985
▁relação	-8.79988
▁tamanho	-8.79992
▁cima	-8.8002
▁conseguem	-8.80205
▁dizem	-8.80505
▁levar	-8.80783
▁tínhamo	-8.80853
▁além	-8.80892
▁Estado	-8.80951
▁conseguir	-8.81118
▁locais	-8.81287
er	-8.81328
▁escala	-8.81353
pesar	-8.82211
▁público	-8.82568
▁política	-8.82572
▁próprio	-8.8258
▁fizemos	-8.8269
▁formas	-8.82715
í	-8.83084
▁Tenho	-8.83952
▁diferença	-8.83967
▁3	-8.8406
▁Obrigad	-8.842
ntes	-8.84787
▁final	-8.84856
▁segurança	-8.84863
ns	-8.84869
▁obrigado	-8.85306
▁sabia	-8.85534
p	-8.85556
▁cancro	-8.86199
▁aqueles	-8.86453
▁carros	-8.86545
▁jovens	-8.87118
▁última	-8.87118
▁visão	-8.87133
rá	-8.87213
▁seguinte	-8.87273
iam	-8.87696
▁torna	-8.88046
dores	-8.88443
▁particular	-8.88983
▁população	-8.895
▁segunda	-8.89928
▁Ok	-8.90361
▁Estou	-8.90431
▁vári	-8.90441
▁compreender	-8.90452
▁tenha	-8.90728
▁você	-8.90733
▁serem	-8.90832
▁haver	-8.91156
▁área	-8.91213
▁semana	-8.91248
▁cidades	-8.91423
▁Ao	-8.91539
▁precisa	-8.91625
▁equipa	-8.9167
▁verdadeira	-8.91856
▁confiança	-8.91885
▁cabeça	-8.92204
▁conhecimento	-8.92222
▁indústria	-8.92332
▁ADN	-8.9282
▁centena	-8.92825
▁pensei	-8.92829
▁filme	-8.92855
▁dá	-8.9286
▁maiores	-8.92923
h	-8.92931
▁colocar	-8.9306
▁teria	-8.93137
▁situação	-8.93324
▁sucesso	-8.93324
▁CA	-8.93335
▁disto	-8.93753
▁R	-8.93924
▁atenção	-8.94115
▁continuar	-8.94274
▁longe	-8.94298
▁idade	-8.94312
▁violência	-8.94339
vés	-8.94583
▁imaginar	-8.94762
▁força	-8.95163
▁partilhar	-8.9535
▁procura	-8.95674
▁crescimento	-8.95802
▁delas	-8.96559
▁minutos	-8.9661
▁programa	-8.96755
▁resolver	-8.96781
▁hora	-8.96902
▁Penso	-8.96978
▁som	-8.97212
▁deve	-8.97292
▁iria	-8.97339
▁educação	-8.97427
▁atra	-8.97675
▁estudo	-8.97763
▁impacto	-8.97834
▁quantidade	-8.97836
▁floresta	-8.97864
▁En	-8.97952
▁terra	-8.97966
▁vidas	-8.98458
▁design	-8.98484
▁sair	-8.98659
nte	-8.98892
▁incrível	-8.9891
▁totalmente	-8.99028
▁série	-8.99388
▁nessa	-8.99388
▁escrever	-8.99397
▁perto	-8.99417
▁centro	-8.99424
▁movimento	-8.99554
▁certeza	-8.99912
▁tornou	-8.99943
amente	-9.00109
▁mente	-9.00852
oje	-9.01202
▁vem	-9.01367
▁controlo	-9.01516
▁comigo	-9.01645
▁matemática	-9.01747
▁natureza	-9.02034
▁vista	-9.02058
▁possam	-9.02119
▁semanas	-9.02201
▁portanto	-9.02319
▁teste	-9.02388
▁Tem	-9.02512
▁língua	-9.02571
▁rapidamente	-9.02571
▁disseram	-9.02778
▁Deus	-9.02835
▁pensamos	-9.02936
▁recente	-9.02948
▁TED	-9.03119
▁professores	-9.032
▁V	-9.03403
▁Pode	-9.03435
▁miúdo	-9.03655
▁sistemas	-9.03666
ra	-9.03978
▁ler	-9.04159
▁pequenos	-9.04203
▁Toda	-9.04208
▁Tudo	-9.04235
▁1	-9.04271
▁Imaginem	-9.04302
▁manter	-9.04843
▁cria	-9.05086
▁ar	-9.05118
▁palestra	-9.05304
▁precisam	-9.05378
▁Sabem	-9.05534
▁fica	-9.05703
▁resultado	-9.0577
▁fundo	-9.05778
▁201	-9.05874
▁perguntar	-9.06172
▁entrar	-9.06388
▁livros	-9.06474
▁comum	-9.06526
2	-9.06572
▁nenhum	-9.06627
▁seis	-9.06755
▁doenças	-9.07036
▁40	-9.07122
▁Ora	-9.07258
▁natural	-9.07869
▁minhas	-9.08152
▁começá	-9.08684
▁viagem	-9.08696
▁Essa	-9.08769
▁pesquisa	-9.09045
▁nesse	-9.09285
▁amigo	-9.09304
▁geral	-9.09382
S	-9.0969
▁nisso	-9.09837
▁experiências	-9.10123
▁nenhuma	-9.10215
▁5	-9.10281
▁Primeiro	-9.10419
▁comportamento	-9.10489
▁fizeram	-9.105
▁ferramentas	-9.10993
▁mar	-9.11049
▁estudantes	-9.11072
▁colegas	-9.11164
▁acesso	-9.11592
▁Europa	-9.11597
▁China	-9.1161
▁resto	-9.11621
▁Mai	-9.11679
▁filho	-9.11729
▁Unidos	-9.11831
▁após	-9.12133
▁próxima	-9.12183
▁usando	-9.1222
▁estiver	-9.12416
▁consegue	-9.12531
▁obter	-9.12632
▁terem	-9.12735
▁chama	-9.12738
rem	-9.12767
▁Iorque	-9.12778
▁demasiado	-9.1278
▁exatamente	-9.12865
▁esperança	-9.12953
▁juntos	-9.13217
▁te	-9.13224
▁principal	-9.13583
▁Acho	-9.14027
▁passo	-9.14098
▁laboratório	-9.14185
▁mercado	-9.14213
▁Sou	-9.1431
▁amor	-9.14613
▁sob	-9.14736
▁áreas	-9.14776
▁Clar	-9.14787
▁embora	-9.15019
▁perguntas	-9.1505
ta	-9.1508
▁espera	-9.15194
▁teoria	-9.15197
▁trata	-9.15234
▁decidi	-9.15325
té	-9.1556
▁melhorar	-9.15663
▁redes	-9.15891
▁aumentar	-9.15983
▁máquina	-9.16123
▁ia	-9.16431
▁pegar	-9.16533
▁importantes	-9.16728
▁alunos	-9.16963
▁jovem	-9.17047
▁naquele	-9.17048
▁cientistas	-9.17609
▁América	-9.17672
▁Existe	-9.17672
▁irá	-9.17745
▁conversa	-9.17815
▁capazes	-9.17822
▁crescer	-9.1791
▁desafio	-9.17923
▁novos	-9.18334
▁ensino	-9.18804
▁acabar	-9.18916
▁físico	-9.18934
▁carbono	-9.18949
▁estrada	-9.18981
▁notícias	-9.19214
▁basicamente	-9.19571
▁tanta	-9.19571
▁livre	-9.19585
▁alto	-9.19588
z	-9.19711
▁sejam	-9.19812
▁computadores	-9.19835
▁grupos	-9.19869
▁funcionar	-9.19885
ê	-9.20134
▁objetivo	-9.20219
▁vir	-9.20232
quê	-9.20234
▁plano	-9.20255
▁pensam	-9.20262
▁recursos	-9.20497
0	-9.20698
▁capaz	-9.20705
▁pontos	-9.20716
▁médico	-9.20732
▁veem	-9.20858
▁devido	-9.20859
▁tomar	-9.21073
ação	-9.21191
▁tivesse	-9.21376
▁Índia	-9.21507
al	-9.21513
▁mundial	-9.21561
▁duma	-9.21628
▁co	-9.21688
▁finalmente	-9.21879
▁visto	-9.22054
▁leva	-9.22165
▁Estamo	-9.22241
▁resultados	-9.22289
▁gostaria	-9.22375
on	-9.22523
▁fundamental	-9.22764
▁direito	-9.22774
▁material	-9.22818
▁contrário	-9.22826
▁questões	-9.22826
▁efeito	-9.22828
▁tiver	-9.2292
▁tecnologias	-9.23163
inda	-9.23267
00	-9.23405
▁À	-9.2348
▁inteligente	-9.23488
▁200	-9.2374
▁mensagem	-9.24147
▁sete	-9.24311
▁marca	-9.24531
▁correr	-9.24666
▁necessidade	-9.24818
▁norte	-9.24833
▁económico	-9.24906
▁números	-9.24945
ing	-9.24994
▁tecido	-9.25494
▁padrões	-9.25496
▁próprios	-9.25536
▁uso	-9.2605
▁Google	-9.26174
▁li	-9.26225
▁sexo	-9.26272
▁porta	-9.2629
▁tenham	-9.26396
4	-9.26827
▁seguro	-9.26859
▁assunto	-9.2686
▁tratamento	-9.26888
▁pobres	-9.26962
▁estudar	-9.26993
▁neurónios	-9.27018
en	-9.27103
▁começaram	-9.27283
▁metade	-9.27552
▁sequer	-9.27555
▁pensamento	-9.27574
▁andar	-9.27577
▁Quer	-9.27625
c	-9.27889
▁60	-9.27934
▁continua	-9.27947
▁80	-9.28109
▁nisto	-9.28243
▁quarto	-9.28244
▁relações	-9.28268
▁rua	-9.28437
gem	-9.28521
▁devem	-9.28577
▁mãos	-9.28633
▁lidar	-9.28997
▁pôr	-9.29003
▁tirar	-9.29044
lguns	-9.29062
C	-9.29567
▁linguagem	-9.29647
▁Precisa	-9.29657
▁coração	-9.29688
▁devemos	-9.29702
▁mapa	-9.29862
▁fotografia	-9.29888
▁houve	-9.29946
▁oito	-9.29992
▁auto	-9.30279
▁ensinar	-9.30336
▁pessoal	-9.30657
ismo	-9.30686
▁materiais	-9.3107
▁fonte	-9.31115
▁direitos	-9.31119
▁errado	-9.31145
▁aprendizagem	-9.31202
▁caixa	-9.31373
▁procurar	-9.3149
▁lugares	-9.31577
▁altera	-9.31599
▁escolas	-9.31722
▁superfície	-9.3179
urante	-9.32046
▁física	-9.32086
▁boas	-9.32471
▁Músic	-9.32514
▁consciência	-9.32514
▁fantástico	-9.32514
▁pod	-9.3258
▁cento	-9.32664
▁comprar	-9.32818
▁aprendi	-9.32935
▁pedaço	-9.33244
▁levou	-9.3325
▁digo	-9.33254
▁descoberta	-9.33259
▁produtos	-9.33268
▁Neste	-9.3327
▁Esse	-9.33369
▁podiam	-9.3342
▁4	-9.33468
K	-9.33557
▁lei	-9.3371
▁consig	-9.33804
▁código	-9.3398
▁online	-9.3398
▁acredito	-9.34093
▁custo	-9.34272
▁trás	-9.34353
▁sítio	-9.34411
▁feliz	-9.34566
▁liberdade	-9.3472
▁mudou	-9.34727
▁mostra	-9.34761
▁descobrimos	-9.35038
▁democracia	-9.35112
▁sangue	-9.35487
▁investigação	-9.355
▁pagar	-9.35671
▁pior	-9.35703
ivelmente	-9.35755
▁permite	-9.35925
passe	-9.35978
▁Tinha	-9.36018
▁geração	-9.36293
▁digital	-9.36522
▁planta	-9.36524
▁buraco	-9.36976
▁doentes	-9.36988
▁Nos	-9.36995
▁fazia	-9.37021
▁12	-9.37155
▁explicar	-9.37172
▁25	-9.37205
▁metros	-9.37316
▁11	-9.37374
▁qualidade	-9.37645
▁morrer	-9.3774
▁distância	-9.37743
▁frequente	-9.3777
▁vivem	-9.37812
▁extrema	-9.38002
▁Estava	-9.38034
ria	-9.38132
▁branco	-9.38478
▁repente	-9.38509
▁polícia	-9.38509
▁médicos	-9.38658
▁chega	-9.38832
▁período	-9.39284
▁Quanto	-9.39285
▁instituições	-9.39285
▁90	-9.3941
▁usam	-9.39415
▁aula	-9.3953
ca	-9.39735
▁L	-9.39846
▁parar	-9.39861
▁comunidades	-9.3991
▁falta	-9.40035
▁escolha	-9.40047
▁média	-9.40066
▁entender	-9.40582
▁faço	-9.40853
▁naquela	-9.40855
▁verdadeiro	-9.40874
unca	-9.40876
▁curso	-9.40921
▁massa	-9.41194
▁cara	-9.41393
▁manhã	-9.41554
▁aspeto	-9.41646
▁produto	-9.41711
▁crise	-9.4179
co	-9.42166
▁Oh	-9.42382
▁luta	-9.4243
▁razões	-9.42446
▁surpreendente	-9.42456
▁produção	-9.42476
▁media	-9.42821
▁Sabe	-9.42888
▁famílias	-9.43017
▁Re	-9.43017
▁nuclear	-9.431
▁velocidade	-9.43252
▁informações	-9.43261
▁desejo	-9.43291
▁sonho	-9.43314
▁poderá	-9.43563
▁observar	-9.43655
▁pedir	-9.43882
▁forte	-9.43911
▁paciente	-9.44069
▁negócio	-9.44143
▁acreditar	-9.44294
▁salvar	-9.44308
▁interior	-9.44401
▁carta	-9.4456
▁importa	-9.44721
▁sol	-9.4487
▁igual	-9.4487
▁pobreza	-9.44887
▁limite	-9.44893
▁animal	-9.44911
▁fotos	-9.45218
▁via	-9.45308
▁70	-9.45356
▁total	-9.45414
▁devia	-9.45544
▁comer	-9.45551
▁baixa	-9.45574
▁produzir	-9.45589
▁veio	-9.45712
▁esquerda	-9.45713
▁ligação	-9.45794
▁esperar	-9.4603
▁primeiros	-9.46082
▁18	-9.46179
▁Parece	-9.46403
▁espécies	-9.46419
▁líderes	-9.46608
g	-9.47132
in	-9.47135
ti	-9.47236
▁perspetiva	-9.47385
▁petróleo	-9.47385
▁inteiro	-9.47386
▁povo	-9.47469
▁Co	-9.47476
▁ouvido	-9.47575
▁presente	-9.4758
▁jogo	-9.47602
▁regi	-9.47815
▁edifícios	-9.47903
▁Cad	-9.47923
fiquei	-9.48227
▁Vejam	-9.48543
▁inter	-9.4858
f	-9.48632
▁cuidados	-9.48723
▁chamamos	-9.48916
▁deveria	-9.48931
▁medicina	-9.49111
▁parque	-9.49143
▁per	-9.49235
▁gosto	-9.49259
ste	-9.4931
▁célula	-9.49449
an	-9.49479
5	-9.49513
▁bons	-9.49733
▁escolher	-9.49778
▁época	-9.49973
▁responder	-9.49975
ais	-9.49975
▁revolução	-9.49994
▁parecer	-9.50023
▁transformar	-9.50067
▁regras	-9.50152
▁bebé	-9.50279
▁edifício	-9.50286
▁lista	-9.50541
▁pensem	-9.50562
▁desenvolver	-9.50636
▁hospital	-9.50647
▁conseguia	-9.50764
▁antigo	-9.50821
▁vejo	-9.5085
▁Qual	-9.50891
▁abrir	-9.50978
▁olha	-9.50998
▁raparigas	-9.51172
▁modelos	-9.51679
▁longa	-9.51696
▁vítima	-9.51696
▁Muita	-9.51697
▁humanidade	-9.51698
▁pois	-9.5173
▁esforço	-9.5174
ado	-9.51742
▁senti	-9.51976
▁essencial	-9.52048
D	-9.52338
▁acordo	-9.52443
▁favor	-9.5253
▁percebi	-9.5258
▁matéria	-9.52582
▁comunicação	-9.52603
▁familiar	-9.52726
▁pena	-9.52788
▁par	-9.5294
▁Da	-9.53077
▁Pensem	-9.53172
▁solar	-9.53347
▁topo	-9.53516
▁necessário	-9.53949
ância	-9.54189
▁incr	-9.54215
▁super	-9.54303
▁pouca	-9.54375
▁transporte	-9.54375
▁mês	-9.54377
eis	-9.54382
▁gráfico	-9.54393
▁absoluta	-9.54541
▁passou	-9.54571
▁posição	-9.54714
▁genes	-9.54797
▁foto	-9.54907
▁estranho	-9.54916
▁mesmos	-9.55027
▁tens	-9.55075
▁cá	-9.55139
▁cont	-9.55185
▁prazo	-9.5536
▁usada	-9.55478
▁lembrar	-9.55493
▁p	-9.55578
▁oceano	-9.55814
▁Mesm	-9.56005
▁sensação	-9.56202
▁palco	-9.56202
▁poderosa	-9.56231
▁abaixo	-9.56377
▁pudesse	-9.56442
ve	-9.56603
▁rápido	-9.56777
ficou	-9.56804
le	-9.57008
▁governos	-9.57074
▁Univers	-9.57113
ina	-9.57124
▁rendimento	-9.57128
▁vós	-9.57137
▁sociedades	-9.5718
▁inovação	-9.57185
▁17	-9.57224
▁mental	-9.57766
▁ligar	-9.57824
▁negócios	-9.57973
▁climática	-9.58062
▁amostra	-9.58065
▁direita	-9.58103
▁terríve	-9.58138
▁serviços	-9.58167
▁Bom	-9.58377
▁permitir	-9.58521
▁câmara	-9.58746
▁emprego	-9.58801
▁lutar	-9.58926
▁pensa	-9.58939
▁vírus	-9.59061
▁km	-9.59105
ávamos	-9.59178
▁vimos	-9.59397
▁professor	-9.59426
▁começam	-9.59526
ém	-9.59564
▁mau	-9.59728
▁projecto	-9.5973
▁semelhante	-9.59756
x	-9.59763
▁feita	-9.59765
▁roda	-9.59917
▁bloco	-9.59958
▁onda	-9.60076
▁sinal	-9.6032
▁ficam	-9.60321
▁bili	-9.60484
▁fizer	-9.60539
▁Fu	-9.60577
▁gostam	-9.60642
▁preço	-9.60768
▁casos	-9.60789
▁vivo	-9.60806
▁universidade	-9.60919
▁malária	-9.60923
▁construção	-9.60952
▁céu	-9.60953
ante	-9.61036
▁fomos	-9.61088
▁Deixem	-9.61104
▁organização	-9.61156
▁can	-9.6126
▁mesa	-9.61464
▁muda	-9.61543
▁19	-9.61602
mbos	-9.61643
▁conceito	-9.61724
▁análise	-9.6191
▁porquê	-9.62435
il	-9.62495
▁utilizar	-9.62683
▁deixa	-9.62708
▁cadeia	-9.6275
▁Vi	-9.62799
▁aspecto	-9.62871
▁sorte	-9.62871
▁potencial	-9.62913
▁evolução	-9.63158
▁árvores	-9.6331
ma	-9.63439
▁8	-9.63638
▁descobri	-9.63667
▁perder	-9.63702
▁enviar	-9.63728
▁filha	-9.63757
▁zona	-9.63834
▁compaixão	-9.63861
▁cadeira	-9.63861
▁Tive	-9.63863
▁padrão	-9.63872
▁usado	-9.6388
▁tu	-9.63948
▁perna	-9.64004
▁G	-9.64045
▁depressa	-9.64075
▁fala	-9.64217
▁abordage	-9.6425
▁querer	-9.64331
▁ganhar	-9.64349
▁políticos	-9.64513
▁dança	-9.64586
▁cidadãos	-9.64816
▁telemóvel	-9.64861
▁inglês	-9.64861
▁Outra	-9.64866
▁chegou	-9.64867
▁condições	-9.64881
▁perfeita	-9.64891
A	-9.65242
tudo	-9.655
cia	-9.65765
▁Facebook	-9.65871
▁sério	-9.65874
▁trazer	-9.6588
▁década	-9.65924
▁artista	-9.65926
▁parecem	-9.66032
▁decisão	-9.66049
▁aprendemos	-9.66123
▁doente	-9.66126
▁dor	-9.66165
8	-9.66175
man	-9.66183
▁Do	-9.66452
▁vivemos	-9.66489
éis	-9.66503
▁visual	-9.66888
▁contexto	-9.66891
▁aberto	-9.66912
▁explorar	-9.66992
▁sentimento	-9.67009
▁pé	-9.67157
▁literal	-9.67189
▁busca	-9.6723
9	-9.67325
ada	-9.67537
▁ouvi	-9.67786
▁encontro	-9.67791
▁mudanças	-9.67809
▁décadas	-9.67868
▁pensava	-9.67891
▁genoma	-9.67922
▁superior	-9.67924
▁milhão	-9.67955
▁políticas	-9.67994
▁conhecer	-9.68229
▁fun	-9.68251
▁Est	-9.68264
▁reconhecer	-9.68345
▁tua	-9.68386
▁t	-9.68522
▁partículas	-9.68771
▁terreno	-9.68965
▁biologia	-9.68965
▁peso	-9.6897
▁investimento	-9.68972
▁diga	-9.68975
▁juntar	-9.69029
eiro	-9.69079
▁vive	-9.69109
▁frase	-9.69213
▁chamar	-9.69317
son	-9.69338
▁fossem	-9.69492
▁significado	-9.69503
▁máquinas	-9.69508
▁usamos	-9.69549
▁obviamente	-9.69577
▁sinto	-9.69584
▁anterior	-9.69588
▁esteja	-9.69858
▁proteger	-9.69998
▁pele	-9.70018
▁chão	-9.70018
responsabilidade	-9.70022
▁So	-9.70118
▁alimentar	-9.70172
▁daqui	-9.70222
dade	-9.70222
▁parede	-9.70233
▁teu	-9.70249
▁erro	-9.7025
▁conduzir	-9.70333
▁funcionam	-9.70376
▁irmã	-9.7052
▁estudos	-9.70907
ramos	-9.70924
▁–	-9.7108
▁Têm	-9.71098
▁logo	-9.7111
▁gelo	-9.71146
ter	-9.71199
▁camada	-9.71237
▁decisões	-9.71237
▁tocar	-9.7126
▁possibilidade	-9.71346
▁princípio	-9.71348
▁dev	-9.7171
ro	-9.71769
▁receber	-9.72013
▁aldeia	-9.72156
▁montanha	-9.72156
▁impossível	-9.72167
▁azul	-9.72293
▁Sul	-9.723
▁controlar	-9.72305
▁recebe	-9.72382
▁espero	-9.72387
▁interesse	-9.72388
▁14	-9.72402
▁capital	-9.72419
▁acima	-9.7244
▁peça	-9.72474
▁indivíduos	-9.72502
▁13	-9.72528
▁pública	-9.72597
▁entra	-9.73028
▁depende	-9.73071
▁sobreviver	-9.7319
▁aparelho	-9.73242
▁dúvida	-9.73242
▁campanha	-9.73243
▁encontrei	-9.7325
▁incluindo	-9.73257
▁daquela	-9.73259
▁abelhas	-9.7327
T	-9.73304
▁cirurgia	-9.73311
▁nove	-9.73331
3	-9.73547
▁complexo	-9.73604
▁chave	-9.73674
▁taxa	-9.73754
▁inteligência	-9.74341
▁opini	-9.74342
▁direção	-9.74347
▁avó	-9.74384
▁olharem	-9.74435
remos	-9.74495
▁hipótese	-9.74758
▁aparecer	-9.74835
▁leis	-9.74962
▁terceiro	-9.75023
▁Acontece	-9.75453
▁presidente	-9.75453
▁ritmo	-9.75453
▁estrelas	-9.75629
▁memória	-9.75899
▁sina	-9.75984
plicação	-9.76106
▁defini	-9.762
▁199	-9.765
▁janela	-9.76576
▁nacional	-9.76591
▁imediatamente	-9.76633
▁membros	-9.76655
▁tiveram	-9.76943
▁objeto	-9.77101
re	-9.77232
pressão	-9.77382
▁estive	-9.77429
▁Hav	-9.77443
▁verde	-9.77559
▁acham	-9.77566
▁maneiras	-9.77601
▁tratar	-9.77681
▁dizia	-9.77692
▁tornam	-9.77711
▁connosco	-9.77712
▁vermelho	-9.77713
ália	-9.77759
▁tido	-9.7779
▁casas	-9.77867
▁tenta	-9.77884
▁encontramos	-9.78203
▁certamente	-9.78486
▁criado	-9.78579
▁sub	-9.78694
▁escrito	-9.787
▁drogas	-9.78798
▁debate	-9.78881
▁Posso	-9.78898
▁Po	-9.78998
▁Alguma	-9.79007
▁Nem	-9.79062
▁conhecemos	-9.79144
▁efeitos	-9.79234
missão	-9.79277
▁vêem	-9.79277
▁criação	-9.79291
▁utilizador	-9.79411
▁prática	-9.79488
▁página	-9.79491
▁nasce	-9.79561
▁apresentar	-9.79596
▁Ca	-9.79614
▁olho	-9.79764
P	-9.79772
▁Chris	-9.79889
▁aumento	-9.7991
▁le	-9.79931
/	-9.80025
▁fábrica	-9.80025
▁importância	-9.80025
▁banco	-9.80043
▁cedo	-9.8009
▁considerar	-9.80112
▁sentem	-9.8035
▁custos	-9.80513
▁usa	-9.80583
▁Ser	-9.80683
▁rapariga	-9.80725
▁exemplos	-9.81013
▁difíc	-9.81195
ídeo	-9.81199
▁convosco	-9.81201
▁vontade	-9.81201
▁rosto	-9.81202
▁química	-9.81205
▁f	-9.81305
▁Vai	-9.81307
▁especialista	-9.81353
▁16	-9.81435
▁costumava	-9.81466
▁acha	-9.81477
▁poderiam	-9.8169
k	-9.81987
▁viram	-9.8199
▁so	-9.82172
▁cresce	-9.82184
▁queriam	-9.8222
▁deixem	-9.82277
▁6	-9.82381
▁prisão	-9.82392
▁software	-9.82392
▁perguntei	-9.82395
▁escrita	-9.82396
▁c	-9.82438
▁quiserem	-9.82477
▁agir	-9.82509
▁ligado	-9.82562
▁felizes	-9.82641
▁mover	-9.82654
▁vindo	-9.82819
▁ameaça	-9.8288
▁diria	-9.83326
▁rapaz	-9.83457
▁apoio	-9.83476
▁Qua	-9.8356
▁The	-9.83576
▁complexidade	-9.83596
▁mensagens	-9.83596
▁inteira	-9.83597
▁sendo	-9.83609
▁ca	-9.83656
pe	-9.83668
▁sul	-9.83684
▁puder	-9.83722
▁site	-9.83736
▁religião	-9.83741
▁monte	-9.83763
▁bomba	-9.83786
▁casamento	-9.83819
▁Des	-9.84155
▁atingir	-9.84298
▁facil	-9.84396
▁deu	-9.84427
▁nota	-9.84508
▁epidemia	-9.84816
▁órgão	-9.84816
▁exterior	-9.84816
▁pintura	-9.84816
▁económica	-9.84831
▁jornalista	-9.84859
▁trabalhadores	-9.84869
▁imaginem	-9.85088
▁Tal	-9.85175
ce	-9.85242
▁passei	-9.85254
▁alterar	-9.8533
▁Ei	-9.85341
▁terceir	-9.85549
▁bocado	-9.85701
▁tendência	-9.85726
▁ruas	-9.85738
M	-9.8575
▁erros	-9.85834
▁objecto	-9.86051
▁característica	-9.86051
▁Descobri	-9.86051
▁cheia	-9.86053
▁moral	-9.86053
▁texto	-9.86065
▁compreensão	-9.8609
▁alcançar	-9.8616
▁exacta	-9.86288
▁enfrentar	-9.86421
▁alvo	-9.86439
▁ti	-9.86469
▁acaba	-9.8652
▁armas	-9.86769
▁carreira	-9.86898
▁medicamentos	-9.8697
▁ecrã	-9.87017
▁poderoso	-9.87041
▁prova	-9.87127
▁subir	-9.87194
▁espírito	-9.873
▁temperatura	-9.873
▁Natureza	-9.87301
▁organizações	-9.87305
▁tradicional	-9.8731
▁paz	-9.87313
▁evitar	-9.87485
▁Ma	-9.87531
▁debaixo	-9.87532
▁aulas	-9.87722
▁depressão	-9.87743
génio	-9.87775
▁medir	-9.87808
▁viu	-9.87834
cabou	-9.8798
▁morre	-9.88032
ável	-9.88245
▁daquele	-9.88344
▁estrela	-9.88374
▁Afeganistão	-9.88566
▁fenómeno	-9.88566
▁propósito	-9.88566
▁barato	-9.88567
▁breve	-9.88573
▁usá	-9.88583
▁brincar	-9.88626
ça	-9.88868
▁moléculas	-9.88871
é	-9.89053
▁negros	-9.89299
▁mercados	-9.89359
▁vejam	-9.89425
▁parecia	-9.8955
6	-9.89556
▁Mo	-9.89677
▁serviço	-9.89705
▁respeito	-9.89727
▁stress	-9.89737
▁Mundial	-9.89848
▁pronto	-9.89849
▁direta	-9.89865
▁marido	-9.89867
▁crença	-9.89874
vários	-9.90014
▁motivo	-9.90061
▁vossas	-9.90064
▁alimento	-9.90066
▁vale	-9.9036
▁matar	-9.90529
▁encontra	-9.9058
▁representa	-9.90844
▁identidade	-9.90955
▁eficaz	-9.90991
▁solo	-9.91027
▁curva	-9.91135
▁ponta	-9.91142
▁beleza	-9.91147
▁GP	-9.91154
▁New	-9.91157
▁areia	-9.91168
▁consumo	-9.91176
▁acidente	-9.91179
▁reduzir	-9.91208
lém	-9.91317
camente	-9.91378
ie	-9.91568
▁oportunidades	-9.9157
▁tema	-9.91697
▁tornaram	-9.91753
final	-9.91858
▁ex	-9.91934
▁acreditam	-9.92067
▁24	-9.92189
penas	-9.9219
▁robô	-9.92424
▁extraordinária	-9.92463
▁gás	-9.92466
▁conhecido	-9.92466
▁documentos	-9.92498
▁dão	-9.92545
▁rio	-9.92581
▁terminar	-9.92892
▁relativa	-9.93151
▁central	-9.93582
tais	-9.93616
▁estivesse	-9.93763
▁género	-9.93796
▁profissionais	-9.93796
▁noutro	-9.93797
▁calor	-9.93798
▁lixo	-9.93798
▁científico	-9.93802
▁ferramenta	-9.9382
▁visita	-9.94167
níveis	-9.94267
▁viva	-9.94268
▁quilómetros	-9.944
▁adoro	-9.94411
▁conseguiu	-9.945
▁500	-9.94542
lá	-9.94571
ho	-9.94604
▁bebés	-9.94633
▁formação	-9.94659
▁programas	-9.94915
▁elementos	-9.95019
▁micro	-9.95023
▁diferenças	-9.95079
inguém	-9.95145
▁micróbio	-9.95148
▁carvão	-9.95148
▁justiça	-9.95148
▁paixão	-9.95148
▁carne	-9.95149
▁cheguei	-9.95161
▁preso	-9.95207
▁dez	-9.9525
▁Chama	-9.95368
▁avançar	-9.95468
▁permitem	-9.95679
ura	-9.95918
ard	-9.96011
▁investir	-9.96081
▁caro	-9.96127
▁Lo	-9.9623
▁W	-9.96268
▁fome	-9.96338
▁toca	-9.96352
▁cart	-9.96449
▁escritório	-9.96517
▁segredo	-9.96517
▁John	-9.96518
▁ótimo	-9.96518
▁estilo	-9.96523
▁sentado	-9.96567
▁robôs	-9.96613
▁perda	-9.96623
▁velho	-9.96657
▁cientista	-9.96673
▁claramente	-9.96737
amos	-9.97063
▁7	-9.97074
▁falamos	-9.97246
▁gosta	-9.97462
▁meia	-9.97748
▁artistas	-9.97843
▁silêncio	-9.97907
▁Oriente	-9.97913
▁proteção	-9.97929
▁cabelo	-9.97932
▁dito	-9.97954
▁rápida	-9.97969
▁aceitar	-9.98009
▁imensa	-9.98012
▁vento	-9.98017
▁imenso	-9.98044
or	-9.98059
▁companhia	-9.98078
▁bairro	-9.98084
▁ataque	-9.98093
io	-9.98132
▁pensá	-9.98273
▁seda	-9.98436
▁senhor	-9.98493
▁sentia	-9.98937
▁aparece	-9.99095
▁exce	-9.99143
▁fortes	-9.99217
▁Certo	-9.99315
▁graça	-9.99323
▁deixou	-9.99331
▁História	-9.99332
▁felicidade	-9.99332
▁Marte	-9.99345
▁designer	-9.99384
▁científica	-9.99504
▁americanos	-9.99525
▁brilhante	-9.99549
tc	-9.99551
▁reparar	-9.99684
▁pratica	-9.99856
▁varia	-9.99919
▁198	-10.001
▁organismo	-10.0013
▁má	-10.0016
▁sai	-10.0018
▁motor	-10.0032
ados	-10.0035
▁conheci	-10.0049
▁Tom	-10.0072
▁médica	-10.0074
▁menina	-10.0074
▁quanta	-10.0074
▁fascinante	-10.0075
▁arquitetura	-10.0076
▁Médio	-10.0077
▁profunda	-10.008
▁imaginação	-10.0081
▁construído	-10.0083
▁profundo	-10.0086
▁comunicar	-10.0089
▁útil	-10.0091
▁crime	-10.0091
▁existir	-10.0096
▁começamos	-10.0102
▁método	-10.0104
▁bola	-10.0104
▁tarefa	-10.0108
▁conflito	-10.0113
▁cuidado	-10.0117
▁descrever	-10.0127
▁desafios	-10.0129
▁comuns	-10.013
expressão	-10.0131
▁fé	-10.0146
▁Vemo	-10.0148
▁fotografias	-10.017
▁disponíve	-10.0208
▁chamo	-10.021
▁dever	-10.0215
▁fazerem	-10.0218
▁naturais	-10.0219
▁Norte	-10.0219
▁criatividade	-10.0219
▁letra	-10.0219
▁provável	-10.022
▁vantage	-10.022
▁cego	-10.022
▁televisão	-10.0221
▁analisar	-10.0223
▁velha	-10.0223
▁avião	-10.0224
▁sons	-10.0226
▁zero	-10.0234
▁voar	-10.0237
▁maravilhoso	-10.024
im	-10.0241
ista	-10.0243
▁genética	-10.0251
▁antiga	-10.0255
▁rato	-10.0258
▁independente	-10.0265
▁cama	-10.0282
▁di	-10.0289
L	-10.029
▁certas	-10.0294
▁irmão	-10.0313
▁algu	-10.0335
mpre	-10.0337
▁Segund	-10.0337
▁300	-10.0352
▁Brasil	-10.0366
▁Londres	-10.0366
▁atmosfera	-10.0366
▁riqueza	-10.0366
▁treino	-10.0366
▁café	-10.0366
▁quadro	-10.0366
▁roupa	-10.0368
▁Irão	-10.0369
▁batalha	-10.037
▁reais	-10.037
▁cai	-10.0374
dor	-10.0375
▁amiga	-10.0376
▁arranjar	-10.0378
▁cabo	-10.0379
▁escreveu	-10.0387
▁pares	-10.0394
▁técnicas	-10.0396
▁aranha	-10.0396
▁frequência	-10.0397
▁surgir	-10.0404
▁aberta	-10.0405
▁autor	-10.0409
▁passam	-10.0421
▁ultrapassar	-10.0423
▁tivessem	-10.0423
▁atualmente	-10.0431
▁consequências	-10.0433
▁encontram	-10.0433
by	-10.0452
▁principa	-10.0464
▁extra	-10.047
▁Sem	-10.047
▁popular	-10.0474
▁termo	-10.0478
▁K	-10.0499
▁menor	-10.05
▁audiência	-10.0516
▁sombra	-10.0516
▁narrativa	-10.0518
▁bela	-10.052
▁desenhar	-10.0522
▁implica	-10.0535
▁bactérias	-10.0551
▁político	-10.0569
▁Sol	-10.0573
▁fase	-10.0575
▁evento	-10.0606
▁interessa	-10.0612
▁acredita	-10.0632
▁sexual	-10.0642
▁cri	-10.0649
▁individuais	-10.0667
▁Twitter	-10.0667
▁fazendo	-10.0667
▁eleições	-10.0667
▁chuva	-10.0667
▁acaso	-10.0668
▁revista	-10.067
▁Gostaria	-10.0671
▁frio	-10.0679
▁conclus	-10.0679
▁baseado	-10.0682
▁sermos	-10.0693
U	-10.0694
▁poderem	-10.0696
▁notas	-10.0719
▁encontrámos	-10.072
▁conteúdo	-10.072
▁telefone	-10.0725
▁minuto	-10.0727
H	-10.0743
▁Ba	-10.0747
trás	-10.0779
▁preocupa	-10.079
▁canto	-10.0809
▁aumenta	-10.081
▁cenário	-10.0821
▁círculo	-10.0821
▁rádio	-10.0821
▁Aquele	-10.0821
▁lua	-10.0821
▁óbvio	-10.0822
▁impressão	-10.0825
▁origem	-10.083
▁pista	-10.0831
▁façam	-10.0832
▁fal	-10.0833
▁magi	-10.0835
▁conhecem	-10.0837
▁contacto	-10.084
▁trabalha	-10.0846
▁testar	-10.0849
▁profundamente	-10.0849
▁incríve	-10.0849
▁arma	-10.0853
▁anti	-10.0859
▁falam	-10.0862
▁Tu	-10.0864
▁afirma	-10.0876
▁perigo	-10.0877
▁sítios	-10.0886
▁dispositivo	-10.0886
▁negro	-10.0887
▁ratos	-10.0937
▁sentimos	-10.0957
▁precisava	-10.0958
▁Acredit	-10.0959
▁lembro	-10.0966
▁plástico	-10.0977
▁privacidade	-10.0977
▁pudé	-10.0977
▁plataforma	-10.0977
▁Calif	-10.0977
▁dezena	-10.0977
▁forças	-10.0977
▁ciclo	-10.0979
▁agricultores	-10.0981
▁meios	-10.0983
órni	-10.0984
▁apanhar	-10.0986
▁divis	-10.0991
▁obrigada	-10.0996
▁conhecida	-10.0997
▁engenharia	-10.0999
▁alma	-10.1009
▁feitas	-10.101
▁ganho	-10.101
▁investigador	-10.1012
▁adolescentes	-10.1017
▁precisar	-10.1018
▁desaparecer	-10.1028
▁escuro	-10.103
bilidade	-10.1033
▁perfeito	-10.1034
▁trabalh	-10.1042
▁árabe	-10.1046
nas	-10.1048
▁perce	-10.1059
▁quis	-10.1077
▁Dr	-10.1093
▁construímo	-10.1098
▁dado	-10.11
el	-10.1103
▁dum	-10.1109
▁começo	-10.1123
▁sentimentos	-10.1125
▁projetos	-10.1128
b	-10.1136
▁insecto	-10.1136
▁símbolo	-10.1136
▁Houve	-10.1136
▁saudável	-10.1136
▁Outro	-10.1138
▁fogo	-10.1138
pção	-10.1144
▁realizar	-10.1144
▁disponíveis	-10.115
▁quente	-10.116
▁civil	-10.1168
▁pão	-10.1183
pa	-10.1184
▁pro	-10.1185
▁maravilhosa	-10.1212
▁galáxias	-10.1214
▁sozinho	-10.1215
▁artigo	-10.1216
quilo	-10.1218
▁objetos	-10.1222
▁Man	-10.1224
▁luzes	-10.1226
▁Fo	-10.125
rovavelmente	-10.1256
▁mostram	-10.1258
▁interessantes	-10.1258
▁custa	-10.126
▁pudessem	-10.1267
▁actual	-10.1282
▁continuam	-10.1295
▁perspectiva	-10.1297
▁tradicionais	-10.1297
▁chegá	-10.1297
▁probabilidade	-10.1297
▁surpresa	-10.1297
▁haja	-10.1299
▁desaparece	-10.13
▁Vo	-10.1302
▁surge	-10.1308
▁gene	-10.1309
▁agricultura	-10.1309
▁opera	-10.1328
▁vender	-10.134
▁participar	-10.1364
▁primo	-10.1377
▁con	-10.1377
▁árvore	-10.1388
▁notícia	-10.1389
▁Ali	-10.1399
▁chamam	-10.1409
▁Disse	-10.1414
▁decidir	-10.1418
▁9	-10.1418
▁olhem	-10.1441
▁cola	-10.1447
▁boca	-10.1452
▁conseguirmos	-10.1458
▁fixe	-10.1461
▁sustentável	-10.1461
▁receita	-10.1462
▁desempenho	-10.1462
▁parecido	-10.1463
▁criou	-10.1469
▁apareceu	-10.1476
▁escolhas	-10.1478
▁evolui	-10.1482
▁rapazes	-10.1482
▁descobriu	-10.1483
▁momentos	-10.1483
▁enormes	-10.1486
ações	-10.1487
adas	-10.1492
tar	-10.1493
▁estejam	-10.1498
▁oferecer	-10.1529
tro	-10.1535
▁Ent	-10.154
▁daquilo	-10.1549
▁criá	-10.1549
▁progresso	-10.155
▁gostava	-10.1554
▁peixe	-10.1558
▁partilha	-10.156
▁venda	-10.1564
▁Unido	-10.1568
▁peças	-10.1579
ry	-10.1586
▁cozinha	-10.1586
▁pude	-10.1598
▁197	-10.1599
▁jornal	-10.1616
▁leve	-10.1617
▁básica	-10.1628
▁complicado	-10.1628
▁mecânica	-10.1628
▁máxim	-10.1628
▁telemóveis	-10.1628
▁demais	-10.163
▁discurso	-10.1632
▁clara	-10.1636
▁distribuiç	-10.1639
feira	-10.1639
DA	-10.1642
▁dentes	-10.1646
▁original	-10.1646
dia	-10.1664
creio	-10.1679
▁refugiados	-10.1695
▁errada	-10.1702
este	-10.1715
▁benefícios	-10.1723
▁gastar	-10.1732
▁ben	-10.1747
▁recuperar	-10.176
▁pa	-10.176
▁segundos	-10.1765
▁unidade	-10.1771
▁andava	-10.1773
▁faça	-10.1785
▁Japão	-10.1797
▁infância	-10.1797
▁clima	-10.1797
▁igualdade	-10.1799
▁positiva	-10.1801
▁preto	-10.1801
▁espantoso	-10.1802
ci	-10.1804
▁precisão	-10.1804
▁Foram	-10.1805
▁responsável	-10.1806
▁U	-10.1806
▁deviam	-10.1809
▁públicos	-10.1811
▁oposto	-10.1814
▁gostar	-10.1825
▁Numa	-10.1828
▁formar	-10.1829
▁Rein	-10.1839
50	-10.1841
▁x	-10.1849
▁americana	-10.186
americanos	-10.1889
▁pré	-10.1889
▁faculdade	-10.1901
▁porco	-10.1902
▁cheio	-10.1902
tas	-10.1904
▁indivíduo	-10.1914
▁registo	-10.1922
▁excelente	-10.1923
G	-10.193
▁constante	-10.1945
▁prazer	-10.1953
▁cura	-10.196
▁subi	-10.1961
▁trouxe	-10.1967
▁médio	-10.197
▁eletricidade	-10.197
▁bonito	-10.197
▁voto	-10.1971
▁artificial	-10.1979
▁falso	-10.1979
ne	-10.1982
▁baseada	-10.1982
▁exploração	-10.1984
▁atravessar	-10.1985
▁chefe	-10.1988
▁substituir	-10.1992
▁ricos	-10.2011
▁contas	-10.2017
▁morta	-10.2017
icamente	-10.2019
▁idosos	-10.2032
▁devo	-10.2033
▁viajar	-10.2043
▁vídeos	-10.2049
lguém	-10.2052
▁toneladas	-10.2053
▁humanas	-10.2056
▁espacial	-10.2064
▁visitar	-10.2076
▁traz	-10.2077
▁equipamento	-10.2094
▁colega	-10.2097
▁Trata	-10.21
▁Num	-10.2117
▁larga	-10.2131
▁pés	-10.2135
▁Som	-10.2136
▁sonhos	-10.2139
▁identificar	-10.214
▁cami	-10.2144
vergonha	-10.2145
▁Infeliz	-10.2145
▁exército	-10.2145
▁classe	-10.2145
nstein	-10.2145
▁lenta	-10.2145
▁moda	-10.2147
▁riso	-10.215
▁clientes	-10.215
▁cena	-10.2152
▁empatia	-10.2154
▁infelizmente	-10.2155
▁defender	-10.2166
▁quiser	-10.2173
▁Pens	-10.2177
▁invisíve	-10.2177
▁empregos	-10.219
▁graus	-10.2202
▁emissões	-10.2204
▁ganha	-10.2206
redor	-10.2215
▁conversas	-10.2217
▁páginas	-10.2226
▁ouro	-10.2243
▁motiva	-10.2247
▁Le	-10.2253
áveis	-10.2258
ir	-10.2259
▁cultural	-10.2261
▁cair	-10.2262
▁preocupar	-10.2271
versão	-10.2274
▁extraordinário	-10.2275
▁sequência	-10.2275
▁fantástica	-10.2277
▁molécula	-10.2281
li	-10.2286
▁Al	-10.2287
▁más	-10.229
▁emocional	-10.2303
car	-10.2306
▁tumor	-10.2308
▁militar	-10.231
▁atividade	-10.2314
riamente	-10.2317
▁Guerra	-10.2324
▁internacional	-10.2324
▁kg	-10.2324
▁vidro	-10.2324
▁chip	-10.2324
▁cortar	-10.2325
▁TV	-10.2326
▁garantir	-10.2329
▁existia	-10.2329
▁ignor	-10.233
▁confiar	-10.233
▁fibra	-10.2331
▁perguntou	-10.2333
▁seriam	-10.2334
▁transforma	-10.2341
▁retirar	-10.2342
▁deserto	-10.2346
érci	-10.2348
▁avô	-10.2352
▁mentira	-10.2352
▁saí	-10.2362
éria	-10.2366
▁Ri	-10.2374
▁dizemos	-10.2406
▁anda	-10.2414
▁Y	-10.242
▁atual	-10.2437
▁torná	-10.2438
MS	-10.245
▁grave	-10.2456
▁quinta	-10.2456
▁princípios	-10.246
▁nele	-10.2465
▁desenho	-10.2466
▁costa	-10.2467
▁braço	-10.2467
▁técnica	-10.2473
▁vacinas	-10.2484
▁ponte	-10.2485
▁libertar	-10.2489
▁segura	-10.2498
▁XX	-10.2505
▁Higgs	-10.2506
▁compromisso	-10.2506
▁crítica	-10.2506
▁noutra	-10.2506
▁barata	-10.2506
▁infantil	-10.2506
▁objectivo	-10.2507
▁voltei	-10.2508
▁significativa	-10.2511
▁gerações	-10.2511
▁ligações	-10.2513
▁Pelo	-10.2513
IB	-10.2519
▁1000	-10.2523
▁grav	-10.2532
▁constantemente	-10.2533
▁vivia	-10.2534
▁poupar	-10.2536
▁tivé	-10.254
▁estaria	-10.2549
▁preparar	-10.2549
▁descobriram	-10.2561
▁passaram	-10.2579
▁Poder	-10.2588
▁Vão	-10.2593
▁pensarmos	-10.2619
ic	-10.2626
▁proteínas	-10.2635
▁irem	-10.2644
▁Eram	-10.2648
▁pobre	-10.2663
▁planetas	-10.2665
▁diminui	-10.2666
▁fato	-10.2681
▁autocarro	-10.2691
▁variedade	-10.2691
▁vermelha	-10.2691
▁sozinha	-10.2691
▁famoso	-10.2691
▁Canadá	-10.2691
▁divertido	-10.2691
▁telescópio	-10.2692
▁Nesta	-10.2692
▁mortalidade	-10.2692
▁2008	-10.2692
▁terrorista	-10.2693
▁Espero	-10.2695
▁rara	-10.2695
▁obtemos	-10.2695
▁dimensões	-10.2696
▁volume	-10.2696
▁prever	-10.2696
▁Contu	-10.2697
▁perdido	-10.27
▁combustível	-10.2701
▁gerir	-10.2708
mail	-10.2713
▁completa	-10.2715
▁adicionar	-10.2725
▁Grande	-10.2732
▁cem	-10.2734
▁Bo	-10.2765
▁junta	-10.2766
▁ouvimos	-10.2768
,5	-10.2768
▁noção	-10.2768
▁far	-10.2776
eza	-10.2788
idão	-10.2788
ço	-10.2793
▁afastar	-10.2797
▁corre	-10.2804
▁Mar	-10.2825
▁possibilidades	-10.2832
▁conflitos	-10.2839
▁tarefas	-10.2839
▁su	-10.2844
▁pessoais	-10.2851
▁provar	-10.2853
▁ataques	-10.2855
▁propriedade	-10.2858
▁estudante	-10.286
▁certos	-10.287
ticamente	-10.2874
▁Alemanha	-10.2879
▁específico	-10.2879
▁poesia	-10.2879
▁sofrimento	-10.288
▁Lembro	-10.288
▁equivalente	-10.288
▁fundamentais	-10.288
▁sabíamos	-10.2881
▁gritar	-10.2881
▁prestes	-10.2882
vivência	-10.2883
▁Iraque	-10.2883
▁curto	-10.2884
▁recebi	-10.2888
▁vizinhos	-10.2901
▁Fique	-10.2906
▁falhar	-10.2925
▁aplicações	-10.2936
▁faziam	-10.2945
▁Di	-10.2965
▁adultos	-10.299
▁Começa	-10.3011
tório	-10.3024
▁engenheiros	-10.3047
▁bairros	-10.3047
B	-10.3049
▁expans	-10.3052
▁membro	-10.3058
▁sofrer	-10.3065
▁diálogo	-10.3072
▁exercício	-10.3072
▁reputação	-10.3072
▁vazio	-10.3072
▁mantém	-10.3072
▁bonita	-10.3072
▁macho	-10.3072
▁opções	-10.3072
▁coragem	-10.3073
▁aniversário	-10.3075
▁muçulmano	-10.3075
▁terrorismo	-10.3077
▁argumento	-10.308
▁universal	-10.308
ver	-10.3082
ário	-10.3087
ássemos	-10.309
▁jogar	-10.3093
▁semelhantes	-10.3113
▁La	-10.3114
▁data	-10.312
▁participa	-10.3143
7	-10.3149
ley	-10.3154
▁gas	-10.3164
▁digita	-10.3173
▁dispositivos	-10.3185
▁salto	-10.319
▁secundário	-10.3248
▁email	-10.3249
▁dificuldades	-10.325
▁moderna	-10.3259
▁estranha	-10.3265
▁apoiar	-10.3265
▁trabalham	-10.3267
▁gripe	-10.3268
▁hospitais	-10.3268
▁trânsito	-10.3268
▁destino	-10.3268
▁jantar	-10.3268
▁diversidade	-10.3268
▁instituição	-10.3269
▁funcionário	-10.3269
▁2009	-10.327
▁branca	-10.3272
▁pedido	-10.3285
aram	-10.3288
▁interagir	-10.3289
▁raça	-10.329
inha	-10.3306
▁criam	-10.3309
agens	-10.3316
▁recolher	-10.333
lmente	-10.3336
▁res	-10.3342
▁focar	-10.3345
▁Entre	-10.3351
▁práticas	-10.3359
▁sabiam	-10.3368
tude	-10.337
▁espalhar	-10.3372
▁mudaram	-10.3382
com	-10.3387
▁sugerir	-10.3388
▁obra	-10.3394
▁Queria	-10.3397
▁Fiz	-10.3417
▁indica	-10.3424
▁votar	-10.3431
ha	-10.3459
▁museu	-10.346
▁negra	-10.3466
▁necessária	-10.3466
▁pedra	-10.3467
▁Israel	-10.3468
▁triste	-10.3468
“	-10.3468
▁bocadinho	-10.3468
▁imprensa	-10.3468
▁prémio	-10.3468
▁circuito	-10.3468
▁Feliz	-10.3468
▁mistério	-10.3468
▁tinta	-10.3468
▁Adoro	-10.3468
▁economista	-10.3468
▁envolvido	-10.3468
▁resistência	-10.3468
▁barulho	-10.3469
▁Austr	-10.3469
O	-10.3469
▁mostrou	-10.3471
▁urbano	-10.3472
▁consumidores	-10.3473
▁detalhes	-10.3474
▁obras	-10.3476
▁Paris	-10.3476
▁banho	-10.348
▁21	-10.3484
▁terço	-10.3487
▁transformação	-10.3493
▁acab	-10.3498
▁juntas	-10.3507
▁limita	-10.351
▁recupera	-10.3513
▁quisermos	-10.3516
▁Uni	-10.353
▁diziam	-10.3533
▁Ah	-10.3542
▁Seria	-10.3544
jo	-10.3574
▁regressar	-10.3575
▁Querem	-10.3576
inho	-10.3582
▁Bill	-10.3585
▁senhora	-10.3587
nel	-10.3595
▁hipóteses	-10.3595
go	-10.3604
▁complexos	-10.3604
▁comentários	-10.3609
▁dura	-10.362
▁liga	-10.3639
▁requer	-10.3654
▁líder	-10.3656
▁orienta	-10.3657
▁VIH	-10.3672
▁México	-10.3672
▁comprimento	-10.3672
▁dívida	-10.3672
▁quântica	-10.3672
▁”	-10.3672
▁Washington	-10.3672
▁Ás	-10.3672
▁Começámo	-10.3672
▁poema	-10.3672
▁existência	-10.3672
▁reconstruir	-10.3673
▁Quénia	-10.3673
▁paisagem	-10.3674
▁transição	-10.3674
▁festa	-10.3674
▁face	-10.3676
▁esqueleto	-10.3676
▁400	-10.3678
▁moeda	-10.3679
▁nela	-10.368
▁fronteira	-10.3681
▁droga	-10.3683
▁perigoso	-10.3686
▁produz	-10.3687
▁completo	-10.3691
▁Ver	-10.3701
▁sensor	-10.3702
▁sapato	-10.3706
gestão	-10.3713
▁provas	-10.3717
▁cão	-10.3717
▁ouviram	-10.3733
▁fico	-10.3738
igo	-10.3739
posição	-10.3745
▁estados	-10.3752
ton	-10.3759
▁Sei	-10.3774
▁inventar	-10.3776
▁Precisam	-10.3777
▁bater	-10.3792
▁mosquitos	-10.3798
▁Sr	-10.381
ler	-10.3818
cção	-10.3825
▁pensado	-10.3827
▁estarem	-10.3838
▁frases	-10.3847
▁comportamentos	-10.3856
▁destrui	-10.3856
▁h	-10.3858
▁velhos	-10.3864
▁envolver	-10.3874
▁desastre	-10.388
▁específica	-10.388
▁oxitocina	-10.388
▁possíveis	-10.388
▁relevante	-10.388
▁cuidar	-10.388
▁reconhecimento	-10.388
▁Mãe	-10.3881
▁exame	-10.3881
▁esquerdo	-10.3881
▁técnico	-10.3881
▁situações	-10.3883
▁seguida	-10.3885
▁fatores	-10.3889
▁corrente	-10.389
▁diagnóstico	-10.3891
uros	-10.3894
▁mistura	-10.3895
▁loja	-10.3896
▁dificuldade	-10.3899
▁chamou	-10.39
▁fila	-10.3902
▁virtual	-10.3909
▁popula	-10.3911
▁bio	-10.3912
▁advogado	-10.3914
▁decidiu	-10.3925
▁ato	-10.3931
▁corpos	-10.3935
▁experimentar	-10.3946
▁nomes	-10.3953
tualmente	-10.3959
▁peixes	-10.3968
▁estranhos	-10.3971
▁comercial	-10.3991
▁profissional	-10.3991
▁elemento	-10.3997
▁Pro	-10.4003
▁publica	-10.4005
▁bl	-10.4006
americana	-10.4015
▁ilha	-10.4023
lu	-10.4038
▁vacina	-10.4048
▁35	-10.4053
▁causar	-10.4058
lhando	-10.4075
▁torno	-10.4081
▁combustíve	-10.4092
▁curiosidade	-10.4093
▁iguais	-10.4093
▁metáfora	-10.4093
▁promessa	-10.4093
▁terapia	-10.4093
▁Francisco	-10.4093
▁microscópio	-10.4093
▁exposição	-10.4094
▁aceite	-10.4094
▁piada	-10.4094
▁permitiu	-10.4096
▁restaurante	-10.4096
▁Tínhamo	-10.4098
▁saída	-10.4099
▁reação	-10.41
za	-10.4102
▁Homem	-10.4104
▁beber	-10.4105
▁barco	-10.4105
istas	-10.4106
▁explicação	-10.4106
▁Consegue	-10.4107
▁ilusão	-10.411
▁militares	-10.4112
▁acabado	-10.4113
▁estratégia	-10.4117
▁mecanismo	-10.4119
▁Anders	-10.4126
▁eixo	-10.4127
▁aluno	-10.4128
▁dada	-10.4132
▁Li	-10.4145
gito	-10.4147
▁apercebi	-10.4151
▁percorrer	-10.4158
▁passada	-10.4162
▁vira	-10.4163
▁trans	-10.4174
▁interessados	-10.4174
▁contrato	-10.4174
cidente	-10.4185
▁virem	-10.4203
v	-10.4219
di	-10.4231
▁22	-10.4231
▁individual	-10.4233
▁troca	-10.4236
▁ajudam	-10.4245
F	-10.4246
▁Cri	-10.4259
▁paredes	-10.4267
▁liberta	-10.4281
▁gerar	-10.4291
▁trabalhava	-10.4304
▁admira	-10.4306
▁web	-10.431
▁Inglaterra	-10.431
▁Nenhum	-10.431
▁personalidade	-10.431
▁website	-10.431
▁ótima	-10.431
▁saudáveis	-10.431
▁França	-10.431
▁eventual	-10.4311
▁fluxo	-10.4313
▁fracasso	-10.4313
▁belo	-10.4316
▁dormir	-10.4321
▁relacionada	-10.4327
▁setembro	-10.4335
▁Dois	-10.4338
▁tentativa	-10.4338
▁veículo	-10.4348
nt	-10.4369
▁amar	-10.4375
▁45	-10.4386
bido	-10.4389
▁nervoso	-10.4398
▁programar	-10.4408
▁150	-10.441
▁utiliza	-10.4425
▁repetir	-10.4441
▁pega	-10.4452
▁seguintes	-10.446
ível	-10.4465
▁i	-10.4471
▁aproxima	-10.4471
po	-10.4482
▁contribui	-10.4492
avelmente	-10.4496
▁religi	-10.4507
▁Consegui	-10.4519
▁Du	-10.4519
ização	-10.4528
▁equaç	-10.4528
▁convencer	-10.4532
▁aconteça	-10.4533
▁cardíaco	-10.4533
▁clínica	-10.4533
▁esposa	-10.4533
▁jardim	-10.4533
▁influência	-10.4533
▁liderança	-10.4533
▁proposta	-10.4533
▁colónia	-10.4533
▁fósseis	-10.4533
▁Big	-10.4533
▁pilha	-10.4534
▁Angeles	-10.4535
▁ligeiramente	-10.4535
▁corrida	-10.4538
▁esconder	-10.454
▁recompensa	-10.454
E	-10.4541
▁ajudou	-10.4543
▁expandir	-10.4543
▁transmitir	-10.4548
▁toque	-10.4557
▁organizar	-10.4557
▁tom	-10.4564
▁lançar	-10.4568
▁conselho	-10.4575
▁alternativa	-10.4579
▁falo	-10.4584
▁moderno	-10.4586
▁recebem	-10.4593
▁Dia	-10.46
▁chegam	-10.4604
▁escura	-10.4609
▁duro	-10.4616
iro	-10.4629
R	-10.4649
▁servir	-10.4661
ava	-10.4662
▁Ar	-10.4662
▁Diz	-10.467
▁primeiras	-10.4697
▁salas	-10.4701
▁criaram	-10.4716
mar	-10.4719
▁rei	-10.4728
▁companhias	-10.4732
N	-10.4733
▁faria	-10.4737
▁passava	-10.475
▁civilizaç	-10.4752
▁discussão	-10.476
▁distúrbio	-10.476
▁elétrico	-10.476
▁histórico	-10.476
▁prioridade	-10.476
▁título	-10.476
▁êxito	-10.476
posições	-10.476
▁madeira	-10.476
▁Apple	-10.476
▁Final	-10.476
▁segui	-10.4762
▁entropia	-10.4766
▁positivo	-10.4766
▁aprende	-10.4767
▁alegria	-10.477
▁coloca	-10.4774
tores	-10.4777
rês	-10.4778
▁criminoso	-10.4781
▁factos	-10.4783
▁olhou	-10.4786
▁limpa	-10.4789
rmais	-10.4791
ck	-10.4797
▁assistir	-10.4797
▁acelerar	-10.4799
▁usou	-10.4804
▁junto	-10.4811
▁bicicleta	-10.4814
▁cálculo	-10.4817
▁conferência	-10.4817
▁medicamento	-10.4821
agem	-10.4852
▁soa	-10.4891
ntrou	-10.4904
▁passos	-10.4912
▁esperava	-10.4916
▁diante	-10.4932
▁aproximar	-10.4945
anha	-10.4949
▁osso	-10.4957
▁sa	-10.4961
▁mundia	-10.4973
doria	-10.4983
▁clar	-10.4988
vi	-10.4991
▁acontecido	-10.4992
▁comboio	-10.4992
▁equilíbrio	-10.4992
▁inferior	-10.4992
▁protótipo	-10.4992
▁Pessoa	-10.4992
▁Nessa	-10.4992
▁cujo	-10.4992
▁desigualdade	-10.4992
▁dizendo	-10.4992
▁literatura	-10.4992
▁aproveitar	-10.4993
▁salário	-10.4994
▁violenta	-10.4999
▁Rich	-10.5
▁considerado	-10.5003
▁respondeu	-10.5004
▁usados	-10.5007
▁Arte	-10.5008
▁explosão	-10.5013
ten	-10.5014
▁decidiram	-10.502
▁lições	-10.502
▁Rec	-10.5023
▁Norma	-10.5027
▁extens	-10.5027
▁achava	-10.5031
▁impedir	-10.5031
▁mandar	-10.5033
▁virar	-10.5033
bol	-10.5035
▁voo	-10.5037
▁comparação	-10.5037
▁tento	-10.5047
▁fugir	-10.5052
▁levado	-10.5054
▁carregar	-10.5056
▁pre	-10.5058
▁gigante	-10.5061
▁agência	-10.5061
▁proteína	-10.5063
▁levantar	-10.5066
▁partido	-10.5068
▁aplicar	-10.5076
▁competi	-10.5077
▁direcç	-10.508
▁chora	-10.5081
▁oceanos	-10.5084
▁raio	-10.5099
rdem	-10.5099
▁honra	-10.5106
lin	-10.5106
▁americano	-10.511
▁capacidades	-10.5111
▁ce	-10.5114
ição	-10.5132
▁perturba	-10.5144
▁Quere	-10.5148
▁Fi	-10.5152
chave	-10.5153
▁métodos	-10.5181
W	-10.5196
▁fo	-10.5207
land	-10.521
▁Eis	-10.521
▁sal	-10.522
▁fronteiras	-10.5223
▁acabam	-10.5223
▁propor	-10.5229
▁Institut	-10.5231
▁académico	-10.5231
▁doméstica	-10.5231
▁globais	-10.5231
▁hormona	-10.5231
▁ampla	-10.5231
▁percurso	-10.5231
▁Paul	-10.5232
▁Nobel	-10.5232
▁Significa	-10.5232
▁anúncio	-10.5232
▁ativista	-10.5232
▁rica	-10.5232
▁saco	-10.5233
▁botão	-10.5236
▁aproximadamente	-10.5241
ago	-10.5244
▁evidência	-10.5245
tradição	-10.5252
▁pico	-10.5258
▁correta	-10.5267
▁guia	-10.5275
▁aprendem	-10.5276
▁químicos	-10.5279
▁braços	-10.5281
▁diminuir	-10.5283
▁radiaç	-10.5289
có	-10.5294
▁maus	-10.5299
▁componentes	-10.5299
▁espantosa	-10.5301
▁tira	-10.5302
▁privado	-10.5305
▁desenvolvido	-10.5306
▁nação	-10.5319
ga	-10.5321
▁africanos	-10.534
▁seca	-10.5358
▁combater	-10.5372
▁sofre	-10.5386
▁assustador	-10.5386
▁interesses	-10.5406
▁Ga	-10.5412
▁jogos	-10.5417
▁funcion	-10.5424
▁representam	-10.5433
▁brilhantes	-10.5436
▁Davi	-10.5453
▁ficamos	-10.5456
▁revela	-10.5467
▁cerebral	-10.5474
▁conectoma	-10.5474
▁mamífero	-10.5474
▁permanente	-10.5474
▁produtividade	-10.5474
▁imigrante	-10.5474
▁Museu	-10.5474
▁vinha	-10.5475
▁aparente	-10.5476
▁portát	-10.5476
▁aquecimento	-10.5479
▁You	-10.5481
▁envelhecimento	-10.5481
▁especiais	-10.5481
▁SI	-10.5485
▁tendem	-10.5487
zum	-10.5487
▁banda	-10.5487
ur	-10.5489
chei	-10.5489
▁orçamento	-10.5489
▁repara	-10.5493
▁nuvem	-10.5494
▁saiu	-10.5497
riam	-10.55
▁úteis	-10.5502
▁eficazes	-10.5504
▁cozinhar	-10.5504
▁representação	-10.5513
▁levam	-10.5516
▁eliminar	-10.5517
▁Thom	-10.5517
▁combina	-10.5518
▁preços	-10.5519
▁seguido	-10.552
▁criaturas	-10.5524
▁iam	-10.5527
fa	-10.553
▁sintomas	-10.5532
▁questionar	-10.5533
▁cometa	-10.5539
▁querido	-10.5541
▁soube	-10.5542
▁respira	-10.5554
▁guarda	-10.5557
ch	-10.5578
tei	-10.5582
▁electric	-10.5583
estar	-10.5593
▁artigos	-10.5599
▁Me	-10.5602
▁legal	-10.561
▁Log	-10.562
vo	-10.5624
▁corte	-10.5643
▁27	-10.5645
aiti	-10.5661
▁mudam	-10.5672
▁veículos	-10.5682
▁maravilha	-10.5692
mbora	-10.5697
▁responsáve	-10.5712
▁dimens	-10.5712
▁norma	-10.5715
▁CRISPR	-10.5724
▁descoberto	-10.5724
▁horrível	-10.5724
▁intestino	-10.5724
▁lógica	-10.5724
▁relatório	-10.5724
▁tijolo	-10.5724
▁choque	-10.5724
▁Frank	-10.5724
▁menino	-10.5724
▁leitura	-10.5725
▁2007	-10.5726
▁Nesse	-10.5726
▁extrair	-10.5727
▁Bang	-10.573
▁mantêm	-10.573
▁preferida	-10.5731
▁soldado	-10.5731
▁discutir	-10.5734
▁inspiração	-10.5734
et	-10.5737
▁detetar	-10.5739
▁arco	-10.5739
▁amanhã	-10.5743
▁Faz	-10.5749
▁pedi	-10.575
▁limitado	-10.5751
alquer	-10.5751
▁propriedades	-10.5756
eira	-10.5757
▁partilhado	-10.5757
▁caminhar	-10.5759
BG	-10.576
▁Web	-10.5762
▁circunstâncias	-10.5762
qui	-10.5764
▁morreram	-10.5768
▁pós	-10.5783
▁oxi	-10.5785
▁observa	-10.579
▁lembrem	-10.5791
▁Fizemo	-10.5791
tendo	-10.5792
dora	-10.5795
▁nano	-10.5798
▁descer	-10.5803
▁investigar	-10.5804
▁financeira	-10.5822
▁Olhem	-10.5824
▁quadrado	-10.5827
▁ecossistema	-10.5828
▁habita	-10.5842
▁rai	-10.5853
▁Mu	-10.5856
▁aves	-10.5856
▁agarrar	-10.586
▁conheç	-10.5896
▁fio	-10.59
entemente	-10.593
▁Ter	-10.593
Bret	-10.5942
▁pago	-10.5942
olução	-10.5956
▁escrevi	-10.5958
▁engano	-10.5976
▁cinema	-10.5981
▁telhado	-10.5981
▁Grã	-10.5981
▁suposto	-10.5981
▁cuja	-10.5981
▁biológica	-10.5981
▁chinês	-10.5981
▁Mulher	-10.5981
▁194	-10.5981
▁refere	-10.5981
▁cantar	-10.5982
▁York	-10.5982
▁essência	-10.5983
▁Aquela	-10.5983
▁Nacional	-10.5983
▁biblioteca	-10.5983
▁sentada	-10.5985
▁placa	-10.5985
▁PM	-10.5986
ni	-10.5989
▁gera	-10.6004
▁ensaio	-10.6008
▁representar	-10.6019
▁daqueles	-10.6026
▁cita	-10.603
▁louca	-10.6036
▁destruir	-10.6037
▁Times	-10.6049
▁Tinham	-10.6058
▁flor	-10.6063
▁radical	-10.6074
▁instrumentos	-10.6077
ine	-10.6094
▁cavalo	-10.6095
▁toma	-10.61
▁algoritmo	-10.6102
ego	-10.6108
▁pesca	-10.6111
▁tent	-10.6111
▁empreendedor	-10.6111
▁eficiente	-10.612
▁algoritmos	-10.6121
▁verdes	-10.6126
ja	-10.6131
ford	-10.6138
▁condutor	-10.6157
▁Basic	-10.6158
▁gasto	-10.616
▁lembra	-10.616
▁elevado	-10.6167
▁grava	-10.6189
▁responde	-10.6194
▁diretor	-10.6195
▁mães	-10.6221
tentei	-10.6224
▁inicial	-10.6229
▁previs	-10.6234
▁pergunto	-10.6236
▁Ua	-10.6237
▁market	-10.6242
▁tribuna	-10.6244
▁Harvard	-10.6244
▁agulha	-10.6244
▁filósofo	-10.6244
▁mínimo	-10.6244
▁núcleo	-10.6244
▁privilégio	-10.6244
▁veterano	-10.6244
▁obstáculo	-10.6244
▁igreja	-10.6244
▁conex	-10.6244
▁famosa	-10.6244
▁Aprendi	-10.6244
Tub	-10.6245
▁percentagem	-10.6245
▁mostrei	-10.6245
▁transpar	-10.6246
▁Ciro	-10.6247
▁Coca	-10.6247
▁necessariamente	-10.6247
▁presença	-10.6247
▁religiosa	-10.6247
▁visível	-10.6248
▁percebem	-10.625
▁escolar	-10.6251
▁bateria	-10.6251
fi	-10.6252
▁automóvel	-10.6252
▁ficção	-10.6252
▁75	-10.626
der	-10.6261
▁cheiro	-10.6261
▁notável	-10.6266
▁abordar	-10.6267
▁abrigo	-10.6271
up	-10.6278
▁Gan	-10.6284
▁sente	-10.6296
iz	-10.63
▁perigosa	-10.6302
▁Quais	-10.6308
▁olham	-10.6335
▁Ouvi	-10.6339
▁deixam	-10.6347
▁desce	-10.6354
▁estatísticas	-10.6354
▁X	-10.6357
▁significava	-10.6362
▁Jam	-10.6363
▁elefante	-10.6375
▁gato	-10.6377
▁complexa	-10.6379
▁galáxia	-10.6381
▁morto	-10.6382
▁inevitáve	-10.6384
▁196	-10.6385
▁reserva	-10.6386
ida	-10.6389
▁23	-10.6391
▁Acab	-10.6393
▁industrial	-10.6398
mba	-10.64
▁séculos	-10.6401
▁entrevista	-10.6402
▁oh	-10.6406
▁tio	-10.6414
▁movimentos	-10.6427
▁casar	-10.6446
▁antigas	-10.6448
line	-10.6457
tis	-10.6466
▁construí	-10.6473
▁ilumina	-10.6475
net	-10.6476
▁milha	-10.6486
▁acto	-10.6498
▁dólar	-10.6499
▁sentar	-10.65
▁y	-10.6511
▁MIT	-10.6514
▁Prémio	-10.6514
▁aleatória	-10.6514
▁inimigo	-10.6514
▁universitário	-10.6514
▁procedimento	-10.6514
▁tecnológica	-10.6514
▁XXI	-10.6515
▁iniciativa	-10.6515
▁fechado	-10.6515
▁cega	-10.6516
▁figura	-10.6516
▁bolha	-10.6518
▁mexer	-10.652
▁estima	-10.652
▁justo	-10.6521
▁funda	-10.6526
▁relacionado	-10.6526
▁falei	-10.6526
▁viera	-10.6527
▁pintar	-10.6528
▁candidato	-10.6534
▁funções	-10.6536
▁tomada	-10.6537
▁Gab	-10.6548
▁operação	-10.6548
▁serve	-10.6557
▁competição	-10.6561
▁deram	-10.6563
▁morri	-10.6563
▁defesa	-10.6571
▁san	-10.6581
▁contribuir	-10.6584
▁avalia	-10.6589
▁referi	-10.6597
Cola	-10.6602
▁parceiros	-10.6604
▁satélites	-10.6616
▁acção	-10.6622
▁conform	-10.6627
▁basta	-10.6635
ó	-10.6638
tico	-10.6638
▁naturalmente	-10.664
▁colaboraç	-10.6641
bra	-10.6644
▁mortos	-10.6651
▁formos	-10.6651
▁sozinhos	-10.6654
▁criativo	-10.6662
▁consequência	-10.6667
▁recurso	-10.6671
▁criada	-10.6677
▁africano	-10.6678
▁caixas	-10.6682
▁átomos	-10.6683
▁processa	-10.6687
▁metro	-10.6692
▁g	-10.6695
▁ocorrer	-10.6697
▁avaliar	-10.6698
▁verem	-10.671
▁públicas	-10.6714
▁ficava	-10.6717
ed	-10.6718
▁salva	-10.6719
ntro	-10.6722
▁levanta	-10.6723
30	-10.674
▁cresci	-10.6741
▁nev	-10.6745
▁vá	-10.6763
▁falava	-10.677
rmos	-10.6774
SP	-10.6777
ita	-10.678
▁capita	-10.678
▁Alzheimer	-10.6792
▁microfone	-10.6792
▁negocia	-10.6792
▁tópico	-10.6792
▁tragédia	-10.6792
▁Direito	-10.6792
▁Paquist	-10.6792
▁atitude	-10.6792
▁mentais	-10.6792
▁instalações	-10.6792
▁diária	-10.6792
▁judeu	-10.6792
▁prosperidade	-10.6793
dula	-10.6794
▁Amazóni	-10.6794
▁pagamento	-10.6794
▁voltou	-10.6798
▁ocidental	-10.6799
▁fabricante	-10.6801
▁agentes	-10.6804
▁eficiência	-10.681
▁domínio	-10.681
▁tirada	-10.681
▁Ta	-10.6811
▁alcance	-10.6812
▁crescente	-10.6812
▁achar	-10.6816
▁estabelecer	-10.6817
▁estivessem	-10.6818
▁navegar	-10.6825
▁publicado	-10.6825
▁percebemos	-10.6841
▁morrem	-10.6842
▁houvesse	-10.6847
▁matemáticos	-10.6861
▁afeta	-10.6868
▁criador	-10.6881
▁desistir	-10.6882
ntem	-10.6894
▁pessoalmente	-10.6902
▁prestar	-10.6902
▁voluntários	-10.6906
▁atacar	-10.6907
▁reforma	-10.691
▁Volt	-10.6934
▁instru	-10.6934
▁referência	-10.6942
▁escreve	-10.6944
ês	-10.6945
▁desconhecido	-10.6948
▁crítico	-10.6955
▁nascer	-10.6956
▁continente	-10.6957
▁infraestrutura	-10.6957
▁potência	-10.6959
▁estatística	-10.6959
▁competências	-10.6966
▁flores	-10.6967
ordem	-10.6977
▁patente	-10.6985
▁ilustra	-10.6996
▁presentes	-10.7011
▁ba	-10.7033
▁dissemos	-10.7046
▁sugere	-10.7047
▁Fazemo	-10.7056
▁Min	-10.706
▁diploma	-10.7071
▁George	-10.7078
▁XIX	-10.7078
▁curiosa	-10.7078
▁dignidade	-10.7078
▁gratuita	-10.7078
▁ângulo	-10.7078
▁Ciência	-10.7078
▁garrafa	-10.7078
▁ódio	-10.7078
▁Poderia	-10.7079
▁cópia	-10.7079
▁lançamento	-10.7079
▁Presidente	-10.7079
▁tornei	-10.7079
▁adequada	-10.708
▁publicidade	-10.708
▁eletrónica	-10.7082
▁tubo	-10.7082
▁separar	-10.7082
▁acessível	-10.7086
▁surgiu	-10.7086
▁crédito	-10.7088
▁correto	-10.7089
▁tentam	-10.7089
▁conseguirem	-10.7095
▁Lua	-10.7097
▁associa	-10.7098
não	-10.7101
▁treinar	-10.7104
▁constitui	-10.7106
▁enfrentamos	-10.7107
▁lindo	-10.7108
▁segue	-10.7118
▁Stan	-10.7123
▁saltar	-10.7133
▁nucleares	-10.7134
▁lados	-10.7136
▁poderosos	-10.7142
▁antepassados	-10.7145
▁ocorre	-10.7146
▁Pa	-10.7156
▁andam	-10.7157
▁conhece	-10.7159
▁doce	-10.7161
be	-10.717
▁escutar	-10.7171
▁acontecem	-10.7178
▁sentirem	-10.7188
▁chegaram	-10.7194
▁ativo	-10.7196
bviamente	-10.7199
▁inovador	-10.72
▁captar	-10.7212
▁combate	-10.7212
at	-10.7216
▁Gra	-10.7223
▁Gost	-10.7223
▁consciente	-10.723
▁desculpa	-10.7231
▁concentrar	-10.7241
▁reagir	-10.7246
▁dinâmica	-10.725
▁entrada	-10.7251
▁sujeito	-10.7253
▁complicada	-10.7255
▁satélite	-10.7262
▁instrumento	-10.7265
▁interessado	-10.7279
▁lar	-10.7283
▁falha	-10.7289
▁n	-10.7289
▁nervos	-10.729
▁pássaros	-10.7307
▁verificar	-10.7311
one	-10.7319
▁dançar	-10.7322
med	-10.7328
ol	-10.7352
▁capitalism	-10.7361
▁colaps	-10.7368
▁cardíaca	-10.7372
▁curioso	-10.7372
▁injustiça	-10.7372
▁abertura	-10.7372
▁ecológica	-10.7372
▁pirata	-10.7372
▁músculo	-10.7372
▁parceria	-10.7372
▁liceu	-10.7372
▁amarelo	-10.7372
▁Número	-10.7372
▁favorito	-10.7373
▁Decidi	-10.7373
▁dúzia	-10.7373
▁ideal	-10.7374
▁retina	-10.7374
▁pura	-10.7375
▁excitante	-10.7375
▁pénis	-10.7376
▁corrupção	-10.7376
▁alemã	-10.7377
▁falsa	-10.7378
▁curta	-10.7378
▁apresenta	-10.7378
▁passagem	-10.7379
▁espetacular	-10.7381
▁manuscrito	-10.7382
▁disciplina	-10.7383
▁heróis	-10.7384
▁Meu	-10.7388
▁perdida	-10.7389
▁resulta	-10.7395
▁associado	-10.7397
▁observação	-10.7397
▁fi	-10.7402
▁desenvolvemos	-10.7404
▁evidente	-10.7405
▁encontrado	-10.7406
▁Estive	-10.7408
▁preocupação	-10.7412
▁Ten	-10.7412
▁Per	-10.7417
▁perdemos	-10.7418
ng	-10.7428
izar	-10.743
▁apontar	-10.7434
▁costas	-10.7436
▁tornado	-10.7439
▁falando	-10.7446
▁pertence	-10.7446
▁tendências	-10.7451
▁caça	-10.7462
▁Vive	-10.7464
▁Repare	-10.7474
▁registos	-10.7475
▁nasci	-10.7481
▁cêntimos	-10.7481
▁unidades	-10.7487
▁governa	-10.7489
▁vivos	-10.7492
▁tratado	-10.7496
▁revelar	-10.7519
▁melhoria	-10.7521
▁complexas	-10.7522
▁perguntam	-10.7546
▁Bab	-10.7547
▁fios	-10.756
▁tra	-10.7563
▁demora	-10.757
▁criativa	-10.7572
▁parceiro	-10.7575
▁construída	-10.7576
▁taxas	-10.7577
▁ligada	-10.7579
▁grau	-10.7583
▁curar	-10.7584
th	-10.7585
▁pô	-10.7601
▁escur	-10.7604
id	-10.7608
▁alternativas	-10.7611
▁bolas	-10.7616
▁conduz	-10.7616
▁250	-10.7632
▁irmãos	-10.7642
▁Podia	-10.765
▁produzi	-10.7652
▁Darwin	-10.7653
▁evoluí	-10.7655
▁molecular	-10.7659
▁ama	-10.7661
▁orgulho	-10.7664
▁invenç	-10.7669
▁esquecer	-10.7673
óxido	-10.7675
▁Michael	-10.7675
▁cobertura	-10.7675
▁crucial	-10.7675
▁fisicamente	-10.7675
▁ilegal	-10.7675
▁esfera	-10.7675
▁olhá	-10.7675
▁maçã	-10.7676
▁vigilância	-10.7676
▁primata	-10.7677
▁ma	-10.7679
▁resistente	-10.7681
▁sexta	-10.7681
▁mergulho	-10.7684
▁pato	-10.7684
▁carga	-10.7686
▁alimentação	-10.7686
▁arquitectura	-10.7688
▁CO	-10.7689
▁conhecidos	-10.7695
▁assistência	-10.77
sustentabilidade	-10.7704
▁especificamente	-10.7704
▁assegurar	-10.7707
▁mina	-10.7716
▁roubar	-10.7719
tri	-10.772
▁Par	-10.7722
▁barreiras	-10.7725
▁ostra	-10.7725
▁intervenç	-10.7725
▁calcular	-10.7727
▁Kan	-10.7732
▁viaj	-10.7738
▁bar	-10.7739
▁posto	-10.7745
inhas	-10.7745
▁vencer	-10.7755
▁potencialmente	-10.7756
▁assumir	-10.7759
▁ambientes	-10.7762
dição	-10.7766
▁ocorreu	-10.7784
▁trabalhos	-10.7799
▁Pe	-10.7853
art	-10.786
▁memórias	-10.7862
▁incerteza	-10.7873
▁ha	-10.7883
▁elevada	-10.7884
▁praia	-10.7886
▁componente	-10.7898
▁passeio	-10.7899
▁dir	-10.79
▁medi	-10.7916
▁existi	-10.7925
▁profundas	-10.7929
▁chamadas	-10.793
▁Har	-10.7934
▁culpa	-10.7941
via	-10.7958
ânia	-10.7986
▁profiss	-10.7987
▁bigode	-10.7987
▁britânico	-10.7987
▁limpo	-10.7987
▁pareça	-10.7987
▁retorno	-10.7987
▁variáve	-10.7987
▁vulneráveis	-10.7987
▁Professor	-10.7987
▁ansiedade	-10.7987
▁lâmpada	-10.7987
▁terramoto	-10.7987
▁mágico	-10.7987
▁gabinete	-10.7987
▁personagens	-10.7987
▁concluir	-10.7987
▁nariz	-10.7987
▁quaisquer	-10.7987
▁lento	-10.7988
▁Bob	-10.7988
▁Gostava	-10.7989
▁intelectual	-10.7989
▁infinita	-10.7989
▁correio	-10.799
▁Unidas	-10.799
▁retrato	-10.7991
▁globalização	-10.7991
▁grá	-10.7991
▁Mary	-10.7993
▁coletiva	-10.7995
▁córtex	-10.7999
▁ONG	-10.7999
▁metal	-10.8006
▁associada	-10.8007
▁produzem	-10.8007
▁construi	-10.8011
▁invisíveis	-10.8011
▁fornecer	-10.8011
▁motores	-10.8022
▁fariam	-10.8031
▁neuro	-10.8038
▁formam	-10.8041
▁apartamento	-10.8043
édia	-10.8044
▁sonhar	-10.8049
▁calha	-10.805
▁ignorar	-10.8051
▁piores	-10.8054
▁fundos	-10.8065
▁determinar	-10.807
▁afro	-10.8085
▁ligadas	-10.8096
▁desafiar	-10.8097
▁inicia	-10.8123
gens	-10.8127
▁pain	-10.8128
men	-10.8139
▁escrev	-10.8174
▁trocar	-10.8179
juntamente	-10.8184
▁cordas	-10.8187
▁ido	-10.8195
▁aparecem	-10.8196
amp	-10.82
ternet	-10.8203
▁aplica	-10.8203
▁instante	-10.8213
▁distante	-10.8227
▁fêmea	-10.8229
▁matemático	-10.823
▁rir	-10.8231
▁Espera	-10.8232
▁adolescente	-10.8233
▁regra	-10.8234
▁bactéria	-10.8234
▁neurónio	-10.8234
▁crescem	-10.8243
▁rico	-10.8257
ito	-10.8258
ity	-10.8265
▁redu	-10.8272
ariamente	-10.828
ámo	-10.8281
ney	-10.8283
▁entende	-10.8284
▁nações	-10.8285
▁Ka	-10.8287
▁vibra	-10.8298
▁prim	-10.8308
▁duplo	-10.831
▁iPhone	-10.831
▁romance	-10.831
▁companheiro	-10.831
▁transformou	-10.831
▁NASA	-10.831
▁rurais	-10.831
ovembro	-10.831
▁vaca	-10.831
▁hotel	-10.831
▁sanita	-10.831
▁cognitivo	-10.831
▁giro	-10.831
▁tuberculose	-10.831
▁internacionais	-10.8311
▁estimativa	-10.8311
▁julgamento	-10.8311
▁escultura	-10.8311
▁nutriente	-10.8311
▁Síri	-10.8312
▁investidores	-10.8313
▁conhecia	-10.8313
▁marcha	-10.8313
▁desesperada	-10.8314
▁grão	-10.8315
▁projetar	-10.8315
▁comprimido	-10.8316
▁avançada	-10.8317
▁reunir	-10.8321
▁perdeu	-10.8322
▁reunião	-10.8323
▁passámos	-10.8326
▁pediu	-10.8327
▁perdi	-10.8328
▁apresentação	-10.8333
▁admitir	-10.8339
st	-10.834
▁levá	-10.8347
▁franca	-10.8347
▁gravar	-10.8356
ba	-10.8363
▁regime	-10.8376
▁inova	-10.8377
▁obes	-10.8379
▁converte	-10.8383
▁ética	-10.8384
▁Charles	-10.8384
▁demorar	-10.8386
▁planear	-10.8394
▁fantásticas	-10.8395
▁entendem	-10.84
▁câmaras	-10.84
▁San	-10.8404
▁escapar	-10.8404
tiva	-10.8412
▁clínicos	-10.8429
▁Fica	-10.8433
uras	-10.8433
▁professora	-10.844
ston	-10.8444
▁determinado	-10.8453
▁necessários	-10.847
▁ombro	-10.8474
▁condiç	-10.8478
▁introduzir	-10.8488
▁move	-10.849
▁preparados	-10.85
ah	-10.8501
▁corredor	-10.8507
▁Devem	-10.8509
▁corresponde	-10.8513
▁génio	-10.8517
ze	-10.8525
▁empregado	-10.853
▁definir	-10.8536
fo	-10.8543
▁repeti	-10.8545
▁plantar	-10.8545
▁genético	-10.8551
scrição	-10.8552
▁lago	-10.8559
almoço	-10.8564
▁partilhada	-10.8564
▁mo	-10.8573
▁truque	-10.8574
▁químico	-10.8576
▁criatura	-10.8577
▁result	-10.8581
cabaram	-10.8595
▁saibam	-10.86
▁respondi	-10.8602
▁mecanismos	-10.8603
▁normas	-10.8606
▁avaliaç	-10.8625
▁conversar	-10.8627
ira	-10.8628
▁sexua	-10.8631
▁ambiental	-10.8643
lândia	-10.8643
+	-10.8643
▁Saúde	-10.8643
▁azuis	-10.8643
▁cerebrais	-10.8643
▁cilindro	-10.8643
▁impulso	-10.8643
▁raíz	-10.8643
▁secundária	-10.8643
▁licença	-10.8643
▁Ocidental	-10.8644
▁acreditem	-10.8644
▁Quanta	-10.8644
▁transmissão	-10.8644
▁profundidade	-10.8645
▁dominante	-10.8645
▁recife	-10.8645
▁vaso	-10.8645
▁centrais	-10.8645
▁necessárias	-10.8646
▁mapear	-10.8646
▁inveja	-10.8646
▁engraçado	-10.8647
▁brinquedo	-10.8647
▁colocou	-10.8648
▁correcta	-10.8648
▁abriu	-10.865
▁eficácia	-10.865
▁apaixonada	-10.865
▁lê	-10.8651
▁soma	-10.8653
▁coral	-10.8654
▁Real	-10.8655
▁digam	-10.8655
▁avançado	-10.8657
▁expressõe	-10.8658
▁utilizando	-10.8659
▁diagrama	-10.866
▁voc	-10.8665
▁cães	-10.8665
▁folhas	-10.867
▁teto	-10.8672
zi	-10.8675
▁limitada	-10.8679
▁aumentou	-10.8681
▁Steve	-10.8681
▁básicos	-10.8684
bo	-10.869
▁Mil	-10.8691
▁acabe	-10.8695
wa	-10.8696
▁participante	-10.8697
▁v	-10.8704
▁bi	-10.8714
▁inspirar	-10.8718
▁Senti	-10.8724
▁resistir	-10.8725
▁aconteceria	-10.8736
che	-10.8738
ama	-10.8738
▁permanecer	-10.8746
▁armazena	-10.8756
▁deixaram	-10.8761
▁publicar	-10.8768
quei	-10.8769
▁dispostos	-10.8773
sopa	-10.8781
▁nu	-10.879
▁Olha	-10.8797
▁pareceu	-10.8798
▁trai	-10.8803
▁guiar	-10.8804
▁Torn	-10.8821
▁cirurgiã	-10.8823
tivos	-10.8826
▁origina	-10.883
▁fixa	-10.8836
êm	-10.8838
▁investi	-10.8842
▁Ro	-10.8843
▁perde	-10.8847
▁Park	-10.8851
grafia	-10.8853
▁quebrar	-10.8861
▁suficientes	-10.8871
▁funcione	-10.8873
▁mapas	-10.8882
abilidade	-10.8884
▁Pod	-10.8889
▁car	-10.8893
▁envolve	-10.8895
sta	-10.8897
▁cálculos	-10.8902
ri	-10.8903
▁desperdício	-10.8917
olina	-10.893
▁barreira	-10.8932
▁autoridade	-10.8938
▁prepara	-10.8947
▁formato	-10.8947
▁ganham	-10.8948
▁deficiência	-10.8962
▁acreditava	-10.8964
▁louco	-10.8966
tor	-10.8974
▁navios	-10.8986
▁World	-10.8988
▁capítulo	-10.8988
▁clássico	-10.8988
▁currículo	-10.8988
▁dupla	-10.8988
▁estúdio	-10.8988
▁europeu	-10.8988
▁obcecado	-10.8988
▁personagem	-10.8988
▁robótica	-10.8988
▁tanque	-10.8988
▁desporto	-10.8988
▁havido	-10.8988
▁aparência	-10.8988
▁transferência	-10.8988
▁protesto	-10.8988
▁dieta	-10.8988
▁precisávamos	-10.8989
▁the	-10.8989
ópia	-10.899
morou	-10.899
▁falhas	-10.8991
▁teatro	-10.8993
▁Natal	-10.8994
▁suicídio	-10.8995
▁Lembram	-10.8998
▁Desta	-10.8999
ivo	-10.9001
▁luxo	-10.9001
▁inventor	-10.9002
stro	-10.9005
▁leite	-10.9008
▁aperceber	-10.9009
▁excremento	-10.9015
▁pegada	-10.9015
ka	-10.9018
▁visualizar	-10.9019
▁lobo	-10.9026
▁avanço	-10.9026
▁esperto	-10.9028
▁acontecimentos	-10.9031
▁ac	-10.9035
▁Son	-10.9036
▁muro	-10.9043
ico	-10.9045
▁demonstra	-10.9046
▁pedimos	-10.9047
lina	-10.905
▁consumi	-10.9057
▁desenhos	-10.9065
▁queda	-10.9083
▁99	-10.9087
érias	-10.9088
fia	-10.9089
▁Jan	-10.909
▁partilhamos	-10.9092
▁perguntaram	-10.9093
▁Sabia	-10.9099
▁montar	-10.9099
gradável	-10.9118
▁houver	-10.9123
▁morcegos	-10.913
▁continuava	-10.9133
▁explica	-10.9137
cionamento	-10.9142
▁proporcionar	-10.9145
▁Joe	-10.9157
▁proje	-10.9163
▁Trabalh	-10.9169
▁forçado	-10.9178
▁confus	-10.9182
▁65	-10.9185
tion	-10.9192
▁haveria	-10.9215
▁Dizem	-10.9224
ologia	-10.9226
▁integra	-10.9233
tra	-10.9234
▁sementes	-10.9257
▁guardar	-10.926
▁partida	-10.9265
▁36	-10.9267
bi	-10.9268
j	-10.9269
ciência	-10.927
▁barra	-10.9271
ph	-10.9272
▁processar	-10.9272
ente	-10.9277
▁planea	-10.928
▁perfi	-10.9281
▁bolso	-10.9288
▁and	-10.9293
▁esper	-10.93
▁financeiro	-10.93
▁acontecimento	-10.9301
▁básico	-10.9302
▁extremo	-10.9302
▁presa	-10.9302
▁vizinho	-10.9305
▁inspirado	-10.9308
▁interna	-10.9316
▁II	-10.9326
I	-10.9335
tamente	-10.9337
▁nuve	-10.9341
bage	-10.9343
▁poupanças	-10.9343
ido	-10.9344
▁desejos	-10.9344
▁mentir	-10.9344
▁Central	-10.9345
▁Congresso	-10.9345
▁egípcio	-10.9345
▁frigorífico	-10.9345
▁orgânico	-10.9345
▁raciocínio	-10.9345
▁brincadeira	-10.9345
▁óleo	-10.9345
▁Street	-10.9345
▁tremenda	-10.9345
▁Islão	-10.9345
▁informática	-10.9345
▁mudá	-10.9345
▁Leonard	-10.9345
▁bandeira	-10.9345
▁arroz	-10.9345
▁quarta	-10.9346
▁Melhor	-10.9346
▁recém	-10.9346
▁Basta	-10.9346
▁doutoramento	-10.9346
▁habilidade	-10.9346
▁anatomia	-10.9347
▁jamai	-10.9347
▁copo	-10.9347
▁adequado	-10.9348
▁extinção	-10.9348
▁colaboradores	-10.9348
▁grato	-10.9348
▁deixei	-10.9349
▁convencido	-10.9351
▁fosso	-10.9351
▁vasta	-10.9352
▁vasto	-10.9353
▁idosa	-10.9353
▁corrigir	-10.9353
▁trabalhado	-10.9354
▁possivel	-10.9355
úss	-10.9357
▁adulta	-10.9358
▁mentalidade	-10.9362
avera	-10.9364
▁traço	-10.9365
▁abrandar	-10.9367
▁manual	-10.9371
▁ajudá	-10.9372
▁contente	-10.9375
▁fizesse	-10.9375
netos	-10.9376
▁Go	-10.9376
▁falou	-10.9378
▁compreendemos	-10.9381
gueira	-10.9386
▁encontrou	-10.9391
▁cour	-10.9393
▁traduç	-10.9397
▁diversas	-10.94
▁multi	-10.9408
▁solares	-10.941
▁Cente	-10.9416
▁fraco	-10.9416
▁32	-10.9417
▁dominar	-10.9418
▁demonstrar	-10.9419
▁Z	-10.9423
▁neles	-10.9426
▁coopera	-10.9427
▁precisavam	-10.9427
▁comparar	-10.9429
▁dividir	-10.9432
▁dita	-10.9436
▁Ze	-10.9443
▁escuta	-10.9445
▁mala	-10.9445
▁antibióticos	-10.9451
▁incentivos	-10.9461
▁circular	-10.9463
▁ligam	-10.9465
▁ro	-10.9468
▁influenciar	-10.9471
▁consiga	-10.9475
▁combinar	-10.9478
▁copiar	-10.9483
▁po	-10.9489
▁insetos	-10.9493
▁entram	-10.9512
▁gasta	-10.9527
ía	-10.9535
▁Lei	-10.9535
▁simulaç	-10.9546
rão	-10.9549
▁sofrem	-10.9551
▁abre	-10.956
▁Conselh	-10.9564
▁chimpanzés	-10.9571
▁termina	-10.9582
▁informáticos	-10.9587
▁rever	-10.9589
um	-10.9596
▁colocá	-10.96
ul	-10.9605
▁editor	-10.9608
adores	-10.9635
▁possu	-10.9635
eamento	-10.9637
▁Cheg	-10.9645
▁26	-10.9651
▁compras	-10.9667
▁limpar	-10.9678
▁Naquel	-10.9684
▁Con	-10.9684
▁entusiasmado	-10.9685
▁folha	-10.9686
▁Jane	-10.969
▁Nat	-10.9699
▁percebe	-10.97
▁nelas	-10.9704
▁consiste	-10.9706
▁aviso	-10.9708
▁põe	-10.9709
▁esc	-10.9713
▁Cerca	-10.9716
▁Ruanda	-10.9716
▁abundância	-10.9716
▁acontecia	-10.9716
▁centímetro	-10.9716
▁ciúme	-10.9716
▁clube	-10.9716
▁discussões	-10.9716
▁estaminais	-10.9716
▁horizonte	-10.9716
▁jornada	-10.9716
▁jornais	-10.9716
▁minúsculo	-10.9716
▁rural	-10.9716
▁urgência	-10.9716
▁órbita	-10.9716
▁descobre	-10.9716
▁entusiasmo	-10.9716
▁túne	-10.9716
▁exigência	-10.9716
▁futebol	-10.9716
▁bolsa	-10.9716
▁futura	-10.9716
▁musical	-10.9716
▁Neanderta	-10.9716
▁polui	-10.9716
▁àquele	-10.9716
▁imigração	-10.9716
hattan	-10.9716
▁agradecer	-10.9717
▁apelo	-10.9717
▁William	-10.9717
▁automática	-10.9718
▁metano	-10.9718
▁relacionamento	-10.9718
▁Sinto	-10.9718
▁idiota	-10.972
▁entusiasmante	-10.972
▁francês	-10.972
▁uniforme	-10.9722
▁vaga	-10.9724
▁Pela	-10.9724
▁lavar	-10.9725
▁excesso	-10.9725
▁fechar	-10.9725
▁composto	-10.9728
▁contraste	-10.9729
▁esperam	-10.9731
▁sector	-10.9732
▁justa	-10.9734
▁intenção	-10.9734
▁nascimento	-10.9735
▁disco	-10.9735
▁Polo	-10.9741
▁alavanca	-10.9743
▁Chic	-10.9747
era	-10.9747
▁cumprir	-10.9751
idos	-10.9754
ças	-10.9754
▁diverso	-10.9754
▁divertir	-10.9759
▁abandonar	-10.9759
▁estud	-10.9761
▁escolhemos	-10.9762
▁dobro	-10.9767
▁ténis	-10.9768
▁m	-10.9769
pós	-10.9771
▁salvo	-10.9771
▁sustentar	-10.9773
ord	-10.9774
▁relacionar	-10.9775
ional	-10.9778
▁unir	-10.9783
▁emociona	-10.9784
▁testemunha	-10.9785
▁tentá	-10.9789
▁Ch	-10.9796
paração	-10.9803
▁indo	-10.9808
▁verifica	-10.9811
▁obtive	-10.9816
▁Ban	-10.9818
ong	-10.9825
▁prisioneiros	-10.9836
▁simul	-10.985
▁classifica	-10.9855
▁juntam	-10.9859
▁erradas	-10.9867
▁preocupam	-10.9869
▁excep	-10.9869
▁In	-10.9872
▁medidas	-10.9877
▁aço	-10.9879
▁Perceb	-10.9881
▁tornarem	-10.9896
▁Dá	-10.9905
▁setor	-10.9905
▁Estavam	-10.9918
▁anima	-10.9924
▁eficientes	-10.9924
▁durar	-10.9944
tivo	-10.9949
▁Continua	-10.9958
▁ficarem	-10.9965
▁baleias	-10.9967
V	-10.9981
wi	-10.9981
rey	-10.9985
▁gigantes	-10.9985
▁Ed	-11.0008
gosto	-11.0011
▁segurar	-11.0014
tecnologia	-11.0022
▁modernos	-11.0028
▁preocupados	-11.0036
▁im	-11.0039
▁rota	-11.0046
▁canal	-11.0053
cas	-11.006
▁transferi	-11.0068
▁lojas	-11.0072
▁linda	-11.0075
▁impressionante	-11.0076
and	-11.0079
▁rocha	-11.008
▁privada	-11.0081
▁herói	-11.0085
▁dirigi	-11.0087
▁dê	-11.0088
▁cliente	-11.0089
▁detalhe	-11.0089
▁abelha	-11.0091
▁inici	-11.0091
▁ultra	-11.0095
▁aeroporto	-11.01
▁chinesa	-11.01
▁desconhecida	-11.01
▁externa	-11.01
▁cerveja	-11.01
▁chineses	-11.01
▁feedback	-11.01
▁orelha	-11.01
▁substância	-11.01
▁energética	-11.01
▁parcial	-11.01
▁ruído	-11.01
▁computação	-11.01
▁Suécia	-11.01
▁Nike	-11.01
▁sagrado	-11.01
▁negativa	-11.01
▁tradições	-11.01
▁chá	-11.01
▁peço	-11.01
▁instalação	-11.0101
▁selvagem	-11.0101
▁decide	-11.0101
▁diapositivo	-11.0101
▁àquela	-11.0101
▁pensaram	-11.0102
▁mito	-11.0104
▁vertical	-11.0104
▁2005	-11.0105
▁poeta	-11.0105
▁negras	-11.0105
▁documento	-11.0106
▁conservação	-11.0106
▁vitória	-11.0106
▁barri	-11.0107
▁apaixonado	-11.0107
▁aviões	-11.0108
▁balão	-11.011
▁sobrevive	-11.0116
▁fusão	-11.012
▁acabá	-11.0121
▁saído	-11.0125
▁Emma	-11.0127
▁educar	-11.0127
▁sugeri	-11.0128
▁ocupado	-11.0129
▁considerada	-11.013
utub	-11.0131
▁respiração	-11.0133
▁contou	-11.0134
▁colocado	-11.0135
▁sono	-11.0137
▁aspira	-11.0145
▁presas	-11.0149
▁secreta	-11.0152
▁desenvolveram	-11.0154
▁incluir	-11.016
▁cultivar	-11.016
▁habitual	-11.016
▁agente	-11.0162
▁Fil	-11.0163
▁eletr	-11.0167
▁loucos	-11.0179
▁deixado	-11.0186
▁astrónomos	-11.0187
▁razoáve	-11.0191
▁dependente	-11.0202
▁atividades	-11.0205
gi	-11.021
▁remover	-11.0212
▁deitar	-11.0216
ndado	-11.0219
ica	-11.022
▁conto	-11.0228
▁falh	-11.0238
▁excelentes	-11.0238
▁leitor	-11.0239
▁interpreta	-11.0249
▁Mostra	-11.0259
nce	-11.0261
▁ri	-11.0264
▁infraestruturas	-11.0266
▁afetar	-11.0291
▁Us	-11.0312
▁For	-11.0318
bre	-11.0324
▁fique	-11.0345
▁parti	-11.0347
▁declaraç	-11.0347
▁descrev	-11.0348
ento	-11.0359
▁ciências	-11.0361
▁pó	-11.0361
▁laboratórios	-11.0362
▁pi	-11.0378
▁macacos	-11.0379
▁Mi	-11.0389
ge	-11.0405
▁raios	-11.0407
cento	-11.0422
americano	-11.0427
▁Ge	-11.0436
cos	-11.044
▁Fal	-11.0456
rei	-11.0462
▁sexos	-11.0465
▁Pete	-11.0482
lha	-11.0484
▁vulgar	-11.0484
▁fraca	-11.0491
▁proporciona	-11.0491
▁chamava	-11.0491
róstata	-11.0497
▁escaravelho	-11.0498
▁agrícola	-11.0498
▁toler	-11.0498
▁categoria	-11.0499
▁vapor	-11.05
▁Ár	-11.05
▁ONU	-11.05
▁assinatura	-11.05
▁açúcar	-11.05
▁desespero	-11.05
▁espetáculo	-11.05
▁humilde	-11.05
▁introvertido	-11.05
▁líquido	-11.05
▁minoria	-11.05
▁músico	-11.05
▁telefónica	-11.05
▁ícone	-11.05
▁Cambridge	-11.05
▁ferida	-11.05
▁gratidão	-11.05
▁doloroso	-11.05
▁inquérito	-11.05
▁inverno	-11.05
▁paradoxo	-11.05
▁maluco	-11.05
▁colheita	-11.05
▁milénio	-11.05
▁Martin	-11.05
▁simpático	-11.05
▁comerciais	-11.05
▁enfermeira	-11.05
▁escondido	-11.0501
▁clicar	-11.0501
▁gordura	-11.0501
▁raro	-11.0502
▁cimento	-11.0502
▁efetiva	-11.0502
▁típica	-11.0502
▁divertida	-11.0502
▁pausa	-11.0502
▁poupança	-11.0502
▁reator	-11.0503
▁navio	-11.0503
▁Cost	-11.0503
▁Tex	-11.0503
▁destruída	-11.0503
▁Gates	-11.0503
▁distinguir	-11.0503
▁suporte	-11.0504
▁demasiada	-11.0505
▁discrimina	-11.0505
▁Ilha	-11.0506
▁transplante	-11.0507
▁talento	-11.0508
▁refletir	-11.0508
▁financiamento	-11.0509
▁aceder	-11.0509
▁assistente	-11.0509
▁renováveis	-11.051
▁escritor	-11.0511
▁fác	-11.0512
▁pesado	-11.0512
▁desenvolveu	-11.0512
▁promover	-11.0513
▁atingido	-11.0513
▁remoto	-11.0514
▁desenvolvida	-11.0515
▁escolhido	-11.0518
▁piloto	-11.0518
▁conseguiria	-11.0519
▁acordado	-11.052
▁2001	-11.052
▁parou	-11.0523
▁reino	-11.0524
▁fotógrafo	-11.0524
▁demonstração	-11.0525
▁escolhe	-11.0525
▁conceber	-11.0525
▁correm	-11.0529
▁fumar	-11.0531
ária	-11.0534
▁indicador	-11.0534
▁eleitores	-11.0535
▁caras	-11.0539
▁foco	-11.054
▁inicialmente	-11.0541
▁amplia	-11.0542
▁capa	-11.0552
▁financeiros	-11.0553
mer	-11.0554
▁manipular	-11.0559
▁portas	-11.0561
▁tornando	-11.0562
gama	-11.057
reparem	-11.0579
▁Lá	-11.0579
▁quebra	-11.0579
▁liderar	-11.0581
▁ensinou	-11.0585
▁truques	-11.0586
ad	-11.0591
▁ficá	-11.0596
gen	-11.0597
▁ativa	-11.0603
▁adapta	-11.0607
▁encorajar	-11.0624
▁levaram	-11.0627
▁Chamamos	-11.0629
▁MT	-11.0632
▁meta	-11.0636
▁construídas	-11.0641
▁implementar	-11.0644
▁pól	-11.0645
reio	-11.0652
tal	-11.0655
▁tia	-11.0656
it	-11.0658
iu	-11.0659
ner	-11.0665
▁perceberam	-11.0667
▁sobreviventes	-11.0668
ony	-11.0671
▁Jenn	-11.0672
▁dissesse	-11.0681
▁aumentam	-11.069
▁estará	-11.0699
▁separado	-11.0701
nteriores	-11.0707
▁ramo	-11.0733
nacionais	-11.0735
▁vila	-11.0736
▁custar	-11.0754
my	-11.0755
▁cortes	-11.076
▁louc	-11.0771
▁existentes	-11.0771
▁800	-11.0776
▁conseguiam	-11.0804
▁bord	-11.0814
▁usaram	-11.0826
▁Ra	-11.0836
▁espacia	-11.0838
tivé	-11.084
▁percepç	-11.0841
pareceram	-11.0845
▁apresentam	-11.0849
▁lucros	-11.0862
▁Mal	-11.0867
▁procuramos	-11.0867
▁substitui	-11.087
▁ocupa	-11.0871
▁integrado	-11.0879
▁estratégias	-11.088
▁mencion	-11.0884
▁reside	-11.089
▁restri	-11.0893
tembro	-11.0893
▁considera	-11.0894
DI	-11.0901
▁acessíve	-11.0905
▁humor	-11.0908
▁120	-11.0911
▁resolve	-11.0911
atch	-11.0915
▁Algo	-11.0916
▁Amazon	-11.0917
▁Nelson	-11.0917
▁chocante	-11.0917
▁diâmetro	-11.0917
▁parecida	-11.0917
▁plateia	-11.0917
▁tweet	-11.0917
▁emergência	-11.0917
▁Lembre	-11.0917
▁Pouco	-11.0917
▁secretária	-11.0917
▁Brian	-11.0917
▁jan	-11.0917
▁dicionário	-11.0917
▁supermercado	-11.0917
▁trajetória	-11.0917
▁cinzento	-11.0917
▁Robert	-11.0917
▁Criança	-11.0917
▁egoísta	-11.0917
▁filosofia	-11.0917
▁beira	-11.0917
▁resili	-11.0917
▁fã	-11.0917
▁filmar	-11.0918
▁laço	-11.0918
▁actividade	-11.0918
▁explicou	-11.0918
▁transformá	-11.0918
woo	-11.0918
▁óbvia	-11.0919
▁tecnológico	-11.0919
▁israelita	-11.0919
▁preservativo	-11.0919
▁pedras	-11.0919
▁cave	-11.092
▁episódio	-11.092
▁Nig	-11.0921
▁reuniões	-11.0921
▁utilizado	-11.0921
▁turma	-11.0922
▁flexíve	-11.0922
▁interface	-11.0922
▁multidão	-11.0922
▁aleatori	-11.0924
▁automóve	-11.0924
▁tropicais	-11.0925
▁fita	-11.0926
▁regresso	-11.0926
den	-11.0927
▁parasita	-11.0927
▁directamente	-11.0929
▁tridimensiona	-11.0931
▁visuais	-11.0932
▁corporal	-11.0933
▁percebeu	-11.0934
▁fabrico	-11.0936
bé	-11.0937
tura	-11.094
dura	-11.094
▁Devi	-11.0941
▁secreto	-11.095
▁novidade	-11.0951
▁lata	-11.0956
ust	-11.0958
▁rios	-11.0962
▁cidadão	-11.0962
amento	-11.0964
▁consider	-11.0972
▁aprendido	-11.0974
▁causas	-11.0984
▁w	-11.0985
▁sabendo	-11.0992
▁pôs	-11.0993
▁ensinam	-11.0993
▁reconhece	-11.0996
▁observamos	-11.1
▁Cria	-11.1001
▁Wi	-11.1017
▁Mark	-11.1019
▁múltiplas	-11.1021
▁aventura	-11.1021
▁acrescentar	-11.1024
▁diriam	-11.1025
▁flutua	-11.1027
▁compra	-11.103
▁ingredientes	-11.1035
olhei	-11.105
▁Cor	-11.1051
▁iniciar	-11.107
nta	-11.1072
▁ensina	-11.1078
anop	-11.1081
az	-11.1095
▁causado	-11.1098
▁nave	-11.1101
▁recentes	-11.1107
▁escondidas	-11.1109
▁assustadora	-11.1117
▁departamento	-11.1119
▁jun	-11.1121
▁ajudaram	-11.1127
▁acelera	-11.1129
▁Funda	-11.1134
▁Dan	-11.1136
▁assisti	-11.1139
▁agita	-11.114
tenção	-11.1143
▁b	-11.1146
▁Sal	-11.1151
ke	-11.1152
▁cana	-11.1154
▁Junt	-11.1156
ey	-11.1157
gar	-11.1157
ib	-11.1159
▁árabes	-11.116
▁Cons	-11.1193
▁Mande	-11.1195
▁ok	-11.1206
▁queiram	-11.1207
ua	-11.1222
▁surgi	-11.1227
▁audi	-11.1227
▁recorda	-11.123
▁Deve	-11.123
▁Pai	-11.1232
▁souber	-11.1234
▁permanece	-11.1235
táveis	-11.1242
▁soar	-11.1249
▁praticar	-11.125
nça	-11.1265
▁lanço	-11.1268
ide	-11.1271
▁entrega	-11.1277
▁marge	-11.1283
▁Cong	-11.1288
▁Usamo	-11.1293
▁Cha	-11.1296
min	-11.1315
▁calça	-11.1316
culos	-11.1316
▁vela	-11.1322
íveis	-11.1322
▁alerta	-11.133
▁limi	-11.1333
▁civi	-11.1336
eu	-11.134
▁viam	-11.1341
▁tiro	-11.1343
ui	-11.1343
▁of	-11.1344
▁começava	-11.1347
taneamente	-11.1351
▁trauma	-11.1351
ísica	-11.1351
▁amizade	-11.1352
▁disparo	-11.1352
▁hambúrguer	-11.1352
▁idêntica	-11.1352
▁mecânico	-11.1352
▁origens	-11.1352
▁paradigma	-11.1352
▁pirâmide	-11.1352
▁puzzle	-11.1352
▁joelho	-11.1352
▁prisões	-11.1352
▁Parkinson	-11.1352
▁Simples	-11.1352
▁Story	-11.1352
▁eletrónico	-11.1352
▁concerto	-11.1352
▁silenciosa	-11.1352
▁intensidade	-11.1352
▁exposto	-11.1352
▁índice	-11.1352
▁concurso	-11.1352
▁fô	-11.1352
▁cruel	-11.1352
▁condução	-11.1352
▁Jesu	-11.1352
▁similar	-11.1353
▁impede	-11.1353
▁transações	-11.1353
▁fechada	-11.1353
▁GG	-11.1353
▁móveis	-11.1354
▁acordar	-11.1354
▁reinventar	-11.1354
▁garage	-11.1354
▁aborrecido	-11.1354
berg	-11.1355
▁passiva	-11.1355
▁tempora	-11.1355
▁palma	-11.1356
▁desenhado	-11.1356
▁altruísta	-11.1357
▁intuição	-11.1358
▁repensar	-11.1359
▁colaborar	-11.1359
▁Wall	-11.136
▁enviado	-11.1364
▁enganado	-11.1365
▁les	-11.1366
▁desagradáve	-11.1367
▁estádio	-11.1368
▁pretende	-11.1371
▁culpado	-11.1373
▁blogue	-11.1374
▁transparente	-11.1374
▁instalar	-11.1374
▁estrangeiro	-11.1376
▁prato	-11.1376
▁Parte	-11.1381
▁denso	-11.1384
▁significativo	-11.1386
▁viaja	-11.1386
▁rodeia	-11.1387
▁organizado	-11.1388
▁densa	-11.1389
▁tumores	-11.1391
▁press	-11.1393
▁adorava	-11.1396
ster	-11.1398
▁escada	-11.1399
▁desligar	-11.14
▁insisti	-11.1401
ino	-11.1403
▁psicólogo	-11.1405
▁definitiva	-11.1405
▁tráf	-11.1406
▁cadeias	-11.1406
▁perderam	-11.1407
▁Vida	-11.1411
▁partilham	-11.1416
▁preencher	-11.1418
▁cre	-11.1419
▁transportar	-11.1427
▁vistos	-11.1427
▁emocionalmente	-11.1429
▁utilizá	-11.1429
▁Core	-11.143
udio	-11.1434
▁Dez	-11.1435
▁falado	-11.1445
▁apreciar	-11.1448
▁recolhe	-11.145
par	-11.1452
▁reflete	-11.1462
▁almoço	-11.1464
▁Josh	-11.1467
▁sequências	-11.1472
▁duplicar	-11.148
uel	-11.1496
▁estende	-11.1505
▁Wa	-11.1518
agar	-11.1519
▁colocam	-11.1566
▁Precis	-11.1567
▁emergentes	-11.1572
▁imagina	-11.1574
▁pesquisar	-11.1581
▁caí	-11.1585
▁atravessam	-11.1592
▁preconceitos	-11.161
▁ecossistemas	-11.1619
uropeia	-11.1624
▁investiga	-11.1627
ger	-11.163
▁foca	-11.1635
▁refeiç	-11.1642
móvel	-11.1652
▁imita	-11.1655
▁Sara	-11.1662
▁baixar	-11.1665
▁Fale	-11.1668
▁litera	-11.1672
un	-11.1678
▁desenvolve	-11.1683
▁fugi	-11.1689
▁hi	-11.169
▁Mc	-11.1699
▁Lin	-11.1702
▁ascen	-11.1712
▁educador	-11.1726
rosa	-11.1733
▁torre	-11.1738
▁atravessa	-11.1738
▁perfura	-11.1739
▁inten	-11.174
▁Sa	-11.1742
▁Casa	-11.1759
tina	-11.1776
▁atinge	-11.1776
▁infeliz	-11.178
▁seco	-11.1784
▁localiza	-11.1787
▁casca	-11.1804
▁anónima	-11.1806
▁eléctrico	-11.1806
▁imediato	-11.1806
▁milagre	-11.1806
▁repórter	-11.1806
▁carrinha	-11.1806
▁eólica	-11.1806
▁incapacidade	-11.1806
▁módulo	-11.1806
▁nódulo	-11.1806
▁analogia	-11.1806
▁sinapse	-11.1806
▁ecológico	-11.1806
▁psicologia	-11.1806
▁autismo	-11.1806
▁computaciona	-11.1806
▁estufa	-11.1806
▁propagand	-11.1806
▁cognitiva	-11.1806
▁pânico	-11.1807
▁concebido	-11.1807
▁paraíso	-11.1807
▁predador	-11.1807
▁confortável	-11.1807
▁ocasi	-11.1807
▁agenda	-11.1807
▁chove	-11.1807
▁legado	-11.1807
▁perito	-11.1808
▁feminina	-11.1808
▁partilhá	-11.1808
▁virtude	-11.1809
▁infinito	-11.1809
▁formou	-11.1809
▁vinho	-11.1809
▁exige	-11.1809
▁procurá	-11.1809
▁Chamo	-11.1811
▁Atlanta	-11.1811
▁kit	-11.1812
▁tomate	-11.1812
▁comemos	-11.1814
▁preocupante	-11.1815
peito	-11.1815
▁medicação	-11.1816
fu	-11.1817
▁vende	-11.1817
▁previsões	-11.1818
▁intensa	-11.1819
▁ambi	-11.1819
▁continuou	-11.1821
Corp	-11.1823
▁quotidiana	-11.1824
▁Tra	-11.1825
▁inglesa	-11.1827
▁separada	-11.1828
▁nascem	-11.1829
▁Scho	-11.1829
▁funcionava	-11.1832
▁parto	-11.1832
▁Aprendemo	-11.1835
▁lágrimas	-11.1837
▁vivi	-11.1837
▁generos	-11.1837
▁Atrav	-11.1838
▁directo	-11.1843
▁pegue	-11.1845
▁exponencial	-11.1846
▁Gene	-11.1846
▁borda	-11.1847
▁vias	-11.1848
▁abuso	-11.1852
uck	-11.1854
▁determinada	-11.1855
▁atrair	-11.1855
▁corpora	-11.1856
▁sucedido	-11.1857
▁garantia	-11.1857
▁espelho	-11.1858
▁Eric	-11.1859
▁habitat	-11.1863
▁ouviu	-11.1865
▁comparado	-11.1866
▁suicida	-11.1867
▁preferido	-11.1868
▁nascido	-11.1872
▁acompanhar	-11.1872
▁activa	-11.1873
▁natal	-11.1874
▁expressar	-11.1874
▁apoia	-11.1876
▁lucro	-11.1876
▁Car	-11.1876
▁Naquele	-11.1879
▁engenheiro	-11.1881
▁atuais	-11.1882
▁cuidadosa	-11.1887
▁convidado	-11.1889
diante	-11.1902
▁Seja	-11.1909
▁seguras	-11.191
lar	-11.1914
▁preveni	-11.1918
▁projectos	-11.1924
▁distantes	-11.1926
▁temas	-11.193
▁significar	-11.1931
▁Brun	-11.1932
▁pareciam	-11.1941
▁atirar	-11.1944
▁manifesta	-11.1944
▁poli	-11.1965
▁criativas	-11.1966
▁28	-11.1983
▁rápidos	-11.1983
▁reutiliza	-11.1992
▁Oxf	-11.1995
▁patentes	-11.2004
ez	-11.2005
jam	-11.2005
▁críticos	-11.2006
avam	-11.201
▁la	-11.2012
▁Pass	-11.2019
▁criativos	-11.2028
▁diabo	-11.2029
▁forçar	-11.2031
▁Tenta	-11.2032
prenderam	-11.2039
cu	-11.2039
▁adquirir	-11.204
▁gatos	-11.2046
▁Fala	-11.2047
▁maravilhosas	-11.2054
▁95	-11.2064
▁Gr	-11.2067
leste	-11.2073
▁procuram	-11.2075
▁He	-11.2077
▁Façam	-11.2079
imento	-11.2088
per	-11.2089
ren	-11.2112
▁flutuar	-11.212
▁convers	-11.212
▁600	-11.2123
ever	-11.2124
▁tentado	-11.2125
▁Diga	-11.2127
▁envia	-11.2129
▁paga	-11.213
ham	-11.2135
▁mostrado	-11.2144
ty	-11.2145
▁conseguisse	-11.2156
▁próteses	-11.2161
▁Her	-11.2162
▁bicicletas	-11.2168
▁1,	-11.2169
▁d	-11.2171
▁genéticas	-11.2176
▁Ben	-11.2186
J	-11.2202
▁Comece	-11.2206
chi	-11.2227
▁Arqui	-11.2229
▁Pr	-11.2243
▁juven	-11.2246
▁provoca	-11.2249
▁direto	-11.2259
▁inclina	-11.2266
embro	-11.2266
▁ocidenta	-11.227
uk	-11.228
istério	-11.2282
▁Conheci	-11.2282
▁High	-11.2282
▁Humanidade	-11.2282
▁Singapura	-11.2282
▁dopamina	-11.2282
▁energético	-11.2282
▁estúpida	-11.2282
▁feminino	-11.2282
▁fórmula	-11.2282
▁histórica	-11.2282
▁rastreio	-11.2282
▁térmica	-11.2282
▁típico	-11.2282
▁urgente	-11.2282
▁álbu	-11.2282
▁tiroteio	-11.2282
▁Começo	-11.2282
▁Andrew	-11.2282
▁óssea	-11.2282
▁esquema	-11.2282
▁prático	-11.2283
▁Ébola	-11.2283
▁Brown	-11.2283
▁largura	-11.2283
▁Centro	-11.2283
▁reproduzir	-11.2283
▁educativo	-11.2283
▁confortáveis	-11.2283
▁laser	-11.2283
▁Líbia	-11.2283
vil	-11.2283
▁morais	-11.2283
▁gelado	-11.2283
▁propri	-11.2283
instantaneamente	-11.2284
▁favorita	-11.2284
▁gay	-11.2284
▁rabisca	-11.2284
▁barbearia	-11.2284
▁Tim	-11.2284
▁feminista	-11.2284
▁entendimento	-11.2285
▁tirei	-11.2285
▁desflorestação	-11.2285
▁mama	-11.2285
▁inventou	-11.2285
▁sorriso	-11.2285
▁Scott	-11.2286
▁sofisticado	-11.2286
▁dedicado	-11.2286
▁comunicações	-11.2287
▁reconstruç	-11.2288
▁infeções	-11.2288
▁reações	-11.2289
▁surpreendeu	-11.2289
▁piso	-11.2289
▁enviou	-11.2289
▁defeito	-11.229
▁emocionante	-11.2291
▁fizé	-11.2291
▁tê	-11.2291
▁Disseram	-11.2292
▁coletivo	-11.2292
▁merecem	-11.2294
▁Lati	-11.2295
▁adivinhar	-11.2296
▁pagam	-11.2296
▁Butão	-11.2298
▁progredir	-11.23
▁agarra	-11.2304
▁mega	-11.2305
▁fingir	-11.2305
▁Tai	-11.2306
▁sucedida	-11.2308
▁dirigir	-11.2308
▁restante	-11.2309
▁perdem	-11.2309
▁clique	-11.231
▁escritores	-11.2311
▁passea	-11.2313
▁aplicada	-11.2314
▁examinar	-11.2314
ay	-11.2316
▁Jer	-11.232
▁mergulhar	-11.232
▁mudado	-11.2324
▁utilizada	-11.2324
adé	-11.2325
▁detecç	-11.2326
▁Long	-11.2326
▁Deixa	-11.2327
▁baseia	-11.2327
▁respeita	-11.2331
▁afetado	-11.2332
oço	-11.2333
▁duração	-11.2333
▁servem	-11.2336
▁dores	-11.2339
din	-11.2339
▁afetada	-11.234
▁colar	-11.2343
▁quisesse	-11.2349
▁definido	-11.235
▁continu	-11.235
▁isola	-11.2355
▁diário	-11.2359
▁Ti	-11.236
▁tela	-11.236
▁conceitos	-11.2366
▁movem	-11.2366
▁ouve	-11.2368
▁bo	-11.2368
▁partícula	-11.2373
cho	-11.2377
▁Mund	-11.2379
▁politica	-11.2383
▁ferro	-11.2385
tt	-11.2393
▁preocupado	-11.2394
▁sanguíneo	-11.2394
▁revis	-11.2399
nco	-11.2399
tou	-11.2409
enia	-11.2415
▁brilhar	-11.2415
▁extraordinários	-11.2422
óis	-11.2429
let	-11.2432
▁Ken	-11.2442
▁160	-11.2443
▁Oba	-11.2444
▁Acha	-11.2454
▁empréstimos	-11.2461
▁elimina	-11.2463
▁estivemos	-11.2468
▁viveram	-11.2476
▁europeia	-11.2477
▁proibi	-11.2477
▁realiza	-11.2481
▁gesto	-11.2482
▁Te	-11.2485
▁colo	-11.2516
▁pr	-11.2518
▁fa	-11.2521
▁porto	-11.2529
▁elefantes	-11.2536
bro	-11.2543
▁angaria	-11.2561
▁Mel	-11.2564
basti	-11.2567
▁biólogos	-11.2568
▁Anda	-11.257
▁motivado	-11.257
▁físicas	-11.2575
▁quadrados	-11.2578
▁referir	-11.2579
▁merece	-11.2579
otável	-11.2581
ett	-11.2588
▁lançado	-11.259
dio	-11.26
▁Junta	-11.2604
▁mortal	-11.2607
▁conteúdos	-11.2607
▁Ja	-11.2613
▁integrar	-11.2613
bu	-11.2615
▁eco	-11.2623
10	-11.2629
ares	-11.2633
tação	-11.2638
pto	-11.2642
▁habitua	-11.2649
▁fornecem	-11.265
▁fum	-11.2666
velmente	-11.2666
▁presta	-11.2669
ã	-11.2677
cirurgiões	-11.2678
RB	-11.268
▁Pega	-11.268
▁biológicos	-11.2685
onica	-11.2688
▁Tes	-11.2695
▁RM	-11.2696
vel	-11.2706
▁tomam	-11.2708
▁vim	-11.2715
▁pus	-11.2721
▁estabelece	-11.2739
▁encontrarem	-11.2741
▁manua	-11.2747
▁casais	-11.2751
▁imediata	-11.2757
▁revoluç	-11.2757
▁Dei	-11.2757
▁queixa	-11.2763
▁colocamo	-11.2765
▁resta	-11.2767
envolvimento	-11.2772
▁terror	-11.2777
▁Can	-11.2781
ak	-11.2782
▁CMU	-11.2782
▁Jeopardy	-11.2782
▁Pacífico	-11.2782
▁biodiversidade	-11.2782
▁colmeia	-11.2782
▁constroem	-11.2782
▁estatuto	-11.2782
▁estigma	-11.2782
▁fraude	-11.2782
▁horríveis	-11.2782
▁ideologia	-11.2782
▁idêntico	-11.2782
▁inspirou	-11.2782
▁limpeza	-11.2782
▁lâmina	-11.2782
▁multiverso	-11.2782
▁orgânica	-11.2782
▁sotaque	-11.2782
▁sustentáveis	-11.2782
▁tabela	-11.2782
▁território	-11.2782
▁tubarões	-11.2782
▁Smith	-11.2782
▁aérea	-11.2782
▁homicídio	-11.2782
▁pulso	-11.2782
▁contínua	-11.2782
▁cromossoma	-11.2782
▁endereço	-11.2782
▁globo	-11.2782
▁Veem	-11.2783
▁grávida	-11.2783
▁terrestre	-11.2783
▁piscina	-11.2783
▁juiz	-11.2783
▁gota	-11.2783
▁cobrir	-11.2783
▁barriga	-11.2783
▁abundante	-11.2783
▁tatuage	-11.2783
▁templo	-11.2783
▁Law	-11.2783
▁Britânic	-11.2783
▁mobilidade	-11.2783
▁paralelo	-11.2783
▁impressora	-11.2784
▁seringa	-11.2784
▁póster	-11.2784
▁pulmões	-11.2784
▁recuar	-11.2784
▁revelou	-11.2785
▁Encontrei	-11.2785
▁esquina	-11.2785
▁governamenta	-11.2785
▁interage	-11.2786
▁esquizofr	-11.2786
▁usei	-11.2786
▁Adam	-11.2787
▁carteira	-11.2787
▁reduzida	-11.2787
▁fizeste	-11.2787
▁paisagens	-11.2787
▁estímulo	-11.2787
▁diarreia	-11.2788
▁convencional	-11.2789
▁colisão	-11.2789
▁organizada	-11.2789
▁apareci	-11.2789
anz	-11.2789
▁estudado	-11.2789
▁orgulhosa	-11.279
▁fra	-11.279
▁erva	-11.2791
▁conservadores	-11.2792
▁fuga	-11.2793
▁atingiu	-11.2793
▁orgulhoso	-11.2793
▁iniciou	-11.2794
▁legislação	-11.2794
▁sentei	-11.2796
▁remota	-11.2796
▁gruta	-11.2797
▁sólido	-11.2797
▁monitorizar	-11.28
▁ARN	-11.28
▁anual	-11.2805
▁cartaz	-11.2805
scola	-11.2805
▁Encontrámo	-11.2806
▁Un	-11.2807
▁Geral	-11.281
ania	-11.281
▁condutores	-11.2813
▁punha	-11.2814
▁usavam	-11.2814
▁rebo	-11.2815
▁recebido	-11.2816
▁considero	-11.2818
▁mata	-11.2818
▁deixando	-11.282
▁fator	-11.2824
▁fará	-11.2826
▁ecologia	-11.283
▁teia	-11.2831
▁focado	-11.2833
nternacional	-11.2833
▁bloquear	-11.2835
▁construíram	-11.2836
▁aguentar	-11.2837
▁fins	-11.2837
▁ó	-11.2841
▁rodar	-11.2843
sperma	-11.2845
▁atraente	-11.2845
▁confusa	-11.2854
▁inacreditáve	-11.2858
▁compara	-11.2858
▁suave	-11.2858
▁reprodu	-11.2858
ú	-11.2859
▁alimentares	-11.2861
▁testemunhar	-11.2864
▁impostos	-11.2866
▁realiz	-11.2866
▁meter	-11.2869
▁inspira	-11.2869
▁deficiências	-11.2871
▁autoridades	-11.2871
▁desempenhar	-11.2875
▁representado	-11.2876
▁confiante	-11.2886
▁libertado	-11.2889
▁biológico	-11.2891
▁negativo	-11.2893
▁pássaro	-11.2895
▁deixá	-11.2905
▁conquista	-11.2913
▁tende	-11.2917
▁ouvia	-11.2944
▁cabeças	-11.2946
▁dinossauros	-11.2948
▁dispostas	-11.2948
▁queira	-11.2949
▁Fazem	-11.2953
▁dono	-11.2956
fiquem	-11.2967
▁Air	-11.2967
tempo	-11.2973
▁funcional	-11.2982
▁puxar	-11.2984
▁72	-11.2992
▁resume	-11.2994
▁volt	-11.2994
▁recorde	-11.2998
▁Observ	-11.2998
uses	-11.3004
smo	-11.3005
▁vier	-11.3017
▁caracter	-11.3034
▁deseja	-11.3041
▁adicional	-11.3043
▁juntá	-11.3048
raiz	-11.3055
▁controla	-11.306
▁costum	-11.3067
▁adop	-11.3067
▁inovadoras	-11.307
▁public	-11.307
▁integr	-11.3072
▁cole	-11.3073
▁dependem	-11.3081
▁sabermos	-11.31
▁esquecemo	-11.3102
▁voltam	-11.3104
▁faixas	-11.3105
gu	-11.3108
▁Medi	-11.311
▁Super	-11.3116
▁exista	-11.3128
uro	-11.3139
▁rec	-11.3146
▁ampli	-11.3164
▁depender	-11.3174
▁provocar	-11.3177
cer	-11.319
▁independentes	-11.3192
▁bon	-11.3197
▁criminal	-11.3203
ice	-11.3204
▁vegeta	-11.3205
▁inclui	-11.3205
▁conselhos	-11.3207
▁queres	-11.3208
▁ocupar	-11.3209
ec	-11.321
ac	-11.321
▁explora	-11.3212
ador	-11.3213
▁Sejam	-11.3225
ráfico	-11.3242
▁consigam	-11.3266
▁esqui	-11.3269
▁libera	-11.3269
ínio	-11.3277
▁nutri	-11.3279
▁seta	-11.3289
▁sabor	-11.3292
▁planifica	-11.3294
▁test	-11.3297
▁glaciar	-11.3298
▁infeç	-11.3302
▁It	-11.3305
▁Contra	-11.3307
▁Bitcoin	-11.3309
▁Exército	-11.3309
▁FOX	-11.3309
▁armadilha	-11.3309
▁brilho	-11.3309
▁carácter	-11.3309
▁consentimento	-11.3309
▁convincente	-11.3309
▁divide	-11.3309
▁dádiva	-11.3309
▁efectiva	-11.3309
▁elétrica	-11.3309
▁etiqueta	-11.3309
▁imunitário	-11.3309
▁levantou	-11.3309
▁oficiais	-11.3309
▁pacote	-11.3309
▁satisfeito	-11.3309
▁valiosa	-11.3309
▁vulnerável	-11.3309
▁Cresci	-11.3309
▁blockchain	-11.3309
▁credibilidade	-11.3309
▁hemisfério	-11.3309
▁máscara	-11.3309
▁quantia	-11.3309
▁questionário	-11.3309
▁Matemátic	-11.3309
▁caverna	-11.3309
▁ilegais	-11.3309
▁instinto	-11.3309
▁cinzenta	-11.3309
▁Daniel	-11.3309
▁Associa	-11.3309
▁preferência	-11.3309
▁julho	-11.3309
▁Satur	-11.3309
▁video	-11.3309
▁furac	-11.3309
▁ausência	-11.3309
▁Tanto	-11.3309
ssonância	-11.3309
▁moldura	-11.3309
▁Vejo	-11.3309
▁Uber	-11.3309
▁selva	-11.3309
▁Doaa	-11.3309
▁Holand	-11.3309
▁autorização	-11.331
▁intersecç	-11.331
▁invasiva	-11.331
▁interativo	-11.331
▁namorada	-11.3311
▁estimulante	-11.3311
▁mudei	-11.3311
▁gémeo	-11.3311
nho	-11.3311
▁financiar	-11.3312
▁litro	-11.3312
▁permissão	-11.3312
▁humilhação	-11.3313
▁incidente	-11.3313
▁cachorro	-11.3313
▁espanhol	-11.3313
▁relógio	-11.3315
▁fruta	-11.3316
▁galinha	-11.3316
▁enganar	-11.3316
▁eleitoral	-11.3316
▁querida	-11.3317
▁espiritual	-11.3317
▁documentar	-11.3318
▁contrair	-11.3319
▁puro	-11.3321
▁SE	-11.3321
▁controlado	-11.3322
▁Terceir	-11.3323
▁apercebeu	-11.3323
▁fabricar	-11.3324
▁filtro	-11.3325
▁Parecia	-11.3327
▁Va	-11.3329
▁interacção	-11.3329
▁mencionar	-11.3332
▁desconfortáve	-11.3333
▁activo	-11.3335
▁totalidade	-11.3337
bert	-11.334
▁variações	-11.334
▁consideração	-11.334
▁oficial	-11.3341
▁subida	-11.3345
▁gado	-11.3345
▁bolo	-11.3345
▁elite	-11.3347
▁detetor	-11.3347
▁gradual	-11.3348
15	-11.3348
▁suportar	-11.3351
▁preparada	-11.3352
▁beneficiar	-11.3353
▁dobrar	-11.3357
▁radicalmente	-11.3363
nsidade	-11.3364
▁emoção	-11.3364
▁menores	-11.3366
▁rece	-11.3372
▁habitante	-11.3377
ite	-11.338
▁chegada	-11.3383
▁posse	-11.3383
▁modela	-11.3385
▁artístico	-11.3386
▁diretora	-11.34
▁sexualmente	-11.3403
▁descreveu	-11.3404
▁Conseguir	-11.3404
▁servi	-11.3409
▁Cidade	-11.3411
▁Gor	-11.3415
▁inovar	-11.3415
▁Segunda	-11.3417
▁rosa	-11.3419
▁fria	-11.3427
▁atributo	-11.3427
▁Haver	-11.3429
▁0	-11.343
▁viola	-11.3431
▁absorver	-11.3436
▁traduzir	-11.3437
▁precedentes	-11.3437
ábia	-11.3437
▁consulta	-11.3439
rações	-11.344
▁ecrãs	-11.3446
▁talentos	-11.3446
▁prótese	-11.3447
▁ador	-11.3448
▁interno	-11.3448
▁lançámo	-11.3452
▁conhecimentos	-11.3457
▁pisca	-11.3463
▁dando	-11.3464
▁muta	-11.3465
ato	-11.3467
▁Win	-11.3471
▁ouvirem	-11.3478
▁relaciona	-11.3484
vidade	-11.3485
▁concordar	-11.3488
lho	-11.349
▁marcar	-11.3496
▁explodir	-11.3498
▁adaptar	-11.3498
▁tornámo	-11.3511
missões	-11.3512
▁alimenta	-11.3513
▁adoram	-11.3517
nny	-11.3517
▁exigir	-11.3523
▁dava	-11.353
▁astronautas	-11.3531
▁oferece	-11.3535
▁fundador	-11.3537
▁Faça	-11.3539
▁Sam	-11.3554
▁acumula	-11.3555
▁tiram	-11.3556
▁empresários	-11.3561
▁programador	-11.3567
▁comece	-11.3575
▁vota	-11.3576
para	-11.3577
▁arquitetos	-11.3578
▁empresaria	-11.3581
▁sentidos	-11.3584
▁entrevistas	-11.3584
▁protegem	-11.3587
▁investido	-11.3589
▁ataca	-11.3592
hop	-11.3594
omi	-11.3596
▁indicar	-11.3598
gie	-11.3602
▁compreendia	-11.3606
▁usem	-11.3612
▁aconselha	-11.3622
▁resultar	-11.3623
▁surpreendidos	-11.3626
▁livrar	-11.3627
▁precise	-11.363
▁recusa	-11.3642
▁continue	-11.3649
each	-11.3657
▁gira	-11.3658
▁telefones	-11.3662
▁pesc	-11.3662
ntal	-11.3668
▁acorda	-11.3671
▁dizerem	-11.3673
▁700	-11.3676
12	-11.3687
▁sustenta	-11.3706
▁55	-11.371
▁partidos	-11.3715
▁tratava	-11.3716
▁penetra	-11.372
▁abertas	-11.3721
▁cooperar	-11.3729
▁Cla	-11.3749
▁prender	-11.3757
parem	-11.3765
dução	-11.3766
▁Pensa	-11.3772
▁z	-11.378
X	-11.3785
▁civiliza	-11.3787
▁bos	-11.3789
génese	-11.3791
ílio	-11.3791
▁preferidos	-11.3795
▁adorar	-11.3797
▁independ	-11.3815
dições	-11.3816
▁Gu	-11.3819
▁esperem	-11.3822
▁múltipl	-11.3828
▁necessita	-11.3833
▁Be	-11.3839
▁radica	-11.3842
▁trabalhador	-11.3845
▁vendedor	-11.3855
ula	-11.3857
▁altruís	-11.3858
con	-11.3863
▁Antártida	-11.3864
▁Gandhi	-11.3864
▁Saudita	-11.3864
▁Scratch	-11.3864
▁ambulância	-11.3864
▁basquete	-11.3864
▁castanho	-11.3864
▁comunitário	-11.3864
▁contínuo	-11.3864
▁drone	-11.3864
▁estômago	-11.3864
▁expetativa	-11.3864
▁farmacêutica	-11.3864
▁gratuito	-11.3864
▁helicóptero	-11.3864
▁humanitária	-11.3864
▁infecç	-11.3864
▁invulgar	-11.3864
▁magnífico	-11.3864
▁precoce	-11.3864
▁sepultura	-11.3864
▁Brooklyn	-11.3864
▁correcto	-11.3864
▁reverbera	-11.3864
▁aborto	-11.3864
▁ambientais	-11.3864
▁banana	-11.3864
▁essenciais	-11.3864
▁drama	-11.3865
▁feia	-11.3865
▁coincidência	-11.3865
▁Fizeram	-11.3865
▁neurociência	-11.3865
▁crânio	-11.3865
▁zangado	-11.3865
ware	-11.3865
▁alarme	-11.3865
▁exato	-11.3865
▁Moham	-11.3865
▁cargo	-11.3865
▁baby	-11.3865
▁alugar	-11.3865
▁elegante	-11.3865
▁Jean	-11.3865
▁praça	-11.3865
▁geneticamente	-11.3866
▁cobre	-11.3866
▁suspeita	-11.3866
▁deitado	-11.3866
▁perigosos	-11.3866
▁bruto	-11.3866
▁abraçar	-11.3866
▁direc	-11.3866
▁bossa	-11.3866
▁sonora	-11.3866
▁comportamenta	-11.3867
▁celebridade	-11.3867
▁fármaco	-11.3867
▁inocente	-11.3867
▁agrícolas	-11.3867
▁86	-11.3867
▁Fez	-11.3867
▁liguei	-11.3867
▁racista	-11.3867
▁sofisticada	-11.3868
▁personalizada	-11.3869
▁fascinado	-11.3869
▁to	-11.3869
▁difusão	-11.387
▁gordo	-11.387
▁hidro	-11.3871
▁betão	-11.3871
▁apropriado	-11.3871
▁Tempo	-11.3872
▁Hill	-11.3872
▁pormenores	-11.3872
▁reflexão	-11.3872
▁distribuído	-11.3873
▁horário	-11.3873
▁Oceano	-11.3873
▁certificado	-11.3874
▁trouxeram	-11.3875
▁germe	-11.3875
▁concentração	-11.3875
▁finais	-11.3877
▁Escrevi	-11.3877
▁vivido	-11.3877
▁desenvolvi	-11.3878
dial	-11.3879
▁cigarro	-11.3879
▁especializado	-11.3882
▁espira	-11.3883
▁ensinada	-11.3885
ring	-11.3888
▁Globa	-11.3889
▁crescido	-11.389
▁marinho	-11.389
partamento	-11.3891
ow	-11.3893
▁29	-11.3894
▁Peter	-11.3894
yan	-11.3895
▁marítimo	-11.3895
▁ironia	-11.3895
lívi	-11.3898
▁consistente	-11.3899
▁produzido	-11.3899
▁Mike	-11.39
tável	-11.39
▁ouvem	-11.39
▁contamos	-11.39
▁estranhas	-11.3904
▁vinda	-11.391
▁perfurado	-11.391
▁compreendem	-11.3911
▁perseguir	-11.3911
▁escolhi	-11.3912
▁mosquiteiro	-11.3914
▁intencional	-11.3914
▁u	-11.3916
▁entusiasmados	-11.3917
▁linear	-11.3917
▁Archi	-11.392
▁importam	-11.3926
▁utilizam	-11.3928
▁Venez	-11.3933
▁realista	-11.3934
▁chegado	-11.3941
▁Si	-11.3951
▁Funciona	-11.3952
▁resumir	-11.3953
▁chamaram	-11.3957
▁adora	-11.3958
iade	-11.3966
▁ocasional	-11.3968
▁avanços	-11.3968
▁infra	-11.397
▁Olho	-11.3975
▁interessam	-11.3981
aria	-11.3981
écia	-11.3986
▁costume	-11.3987
▁batedor	-11.3996
▁diferencia	-11.401
▁demonstram	-11.4012
▁fêmeas	-11.4015
por	-11.4015
cul	-11.4018
▁vestido	-11.4018
▁séria	-11.4022
uh	-11.4024
▁mede	-11.4025
▁confort	-11.403
▁treinador	-11.403
▁reage	-11.4031
▁divulgar	-11.4033
▁fotografa	-11.4034
▁Liber	-11.4036
tado	-11.4036
▁macaco	-11.4037
▁conseguí	-11.404
ivas	-11.4044
▁Aplauso	-11.4045
▁lido	-11.4053
▁ten	-11.4054
▁comentário	-11.4058
cy	-11.4059
▁mel	-11.4068
▁queima	-11.407
▁quilos	-11.4074
▁chamá	-11.4082
▁cal	-11.4082
▁enviam	-11.4083
▁confuso	-11.4087
▁conscientes	-11.4092
▁rim	-11.4093
ctuais	-11.4094
ew	-11.4098
ética	-11.4098
▁pens	-11.4099
▁mor	-11.41
▁equ	-11.4107
eram	-11.4108
▁protege	-11.4113
▁191	-11.4121
ud	-11.4124
tes	-11.4126
▁beneficia	-11.4133
▁190	-11.4143
▁questiona	-11.4151
▁guardas	-11.4153
▁grito	-11.4158
▁visualiza	-11.4161
▁gravado	-11.4166
▁controlam	-11.4167
▁Bru	-11.4171
éni	-11.4189
▁recordar	-11.4196
ell	-11.4214
▁disparar	-11.422
bri	-11.4224
pi	-11.4231
▁interessar	-11.4233
dela	-11.4233
icidade	-11.4245
tá	-11.4246
▁Sh	-11.4246
▁encaixa	-11.4247
▁abis	-11.425
▁lembram	-11.4251
mi	-11.4257
▁configura	-11.4259
abul	-11.4259
▁poliniza	-11.4261
▁apanhado	-11.4262
▁previsíve	-11.4276
▁bate	-11.4287
scrições	-11.4298
▁desejar	-11.4308
▁traduzi	-11.4311
▁senso	-11.4315
▁conferências	-11.4316
▁comecem	-11.4318
correu	-11.4324
▁Via	-11.4324
▁Dar	-11.4327
▁treinado	-11.4327
▁gestor	-11.4328
fer	-11.4333
▁Senhor	-11.4333
▁confi	-11.4338
▁aposta	-11.4341
▁importar	-11.4347
▁Ha	-11.4359
▁Br	-11.4363
▁Espanh	-11.4368
For	-11.4371
▁posta	-11.4371
pública	-11.4374
▁Sentia	-11.4386
▁forneci	-11.4386
▁lida	-11.4392
▁condena	-11.4395
▁darem	-11.4406
▁encontrá	-11.4407
▁venh	-11.4408
She	-11.4421
▁compreende	-11.4421
▁cobra	-11.4427
▁pede	-11.4432
▁artificia	-11.4435
▁pontua	-11.4444
▁puser	-11.4444
▁industria	-11.4448
rueg	-11.4451
▁reabilita	-11.4453
=	-11.4453
▁Câmara	-11.4453
▁Tunísia	-11.4453
▁Uganda	-11.4453
▁automático	-11.4453
▁cadáver	-11.4453
▁culinári	-11.4453
▁distinção	-11.4453
▁espetro	-11.4453
▁fígado	-11.4453
▁manutenção	-11.4453
▁membrana	-11.4453
▁mutuamente	-11.4453
▁origami	-11.4453
▁subúrbio	-11.4453
▁óptimo	-11.4453
▁FreeSpeech	-11.4453
▁fruto	-11.4453
▁trágico	-11.4453
▁chocolate	-11.4453
▁prostitui	-11.4453
▁Talibã	-11.4453
▁magnético	-11.4453
▁cruzamento	-11.4453
▁protocolo	-11.4453
▁colaborativo	-11.4453
▁constrói	-11.4453
▁abasteci	-11.4453
▁enviá	-11.4453
▁inesperada	-11.4453
▁optimista	-11.4453
▁mantido	-11.4453
▁milímetro	-11.4453
▁dilema	-11.4453
well	-11.4453
▁ciente	-11.4453
▁atento	-11.4454
▁protegido	-11.4454
▁Jack	-11.4454
▁verbal	-11.4455
▁rumo	-11.4455
▁improvável	-11.4455
▁receptor	-11.4455
▁Lego	-11.4456
▁expedição	-11.4456
▁vital	-11.4456
▁microbiana	-11.4456
▁ultrasson	-11.4456
▁Lab	-11.4456
▁South	-11.4456
▁escaravelhos	-11.4456
▁categorias	-11.4457
▁apresentou	-11.4457
▁alargar	-11.4457
▁pegá	-11.4457
▁viesse	-11.4458
▁estreita	-11.4458
▁alegre	-11.4459
▁familiarizado	-11.4459
▁permitido	-11.4459
▁disposição	-11.446
▁caridade	-11.446
▁Digo	-11.446
▁Holly	-11.4461
▁prossegui	-11.4461
▁instruç	-11.4461
▁armazé	-11.4462
▁vencedores	-11.4463
▁previsto	-11.4464
▁registar	-11.4467
▁enigma	-11.4469
▁congelado	-11.4469
rar	-11.4469
▁psiquiatra	-11.4469
▁saíram	-11.4469
▁Bur	-11.447
▁superar	-11.4471
▁requisito	-11.4471
▁afastado	-11.4471
▁confronto	-11.4472
SA	-11.4477
▁Meta	-11.4478
▁interligado	-11.4478
▁afectam	-11.4479
▁exprimir	-11.4479
▁imitar	-11.4481
▁imprimir	-11.4481
▁primor	-11.4482
▁fina	-11.4484
▁monitoriza	-11.4486
▁seguiu	-11.4487
▁juntou	-11.4487
▁Even	-11.4488
▁residente	-11.4492
▁atingem	-11.4492
▁continuo	-11.4492
▁haviam	-11.4493
▁envelhecer	-11.4493
▁modernas	-11.4499
inas	-11.45
pen	-11.4502
▁constru	-11.4502
▁nalguma	-11.4503
▁acrescenta	-11.4507
▁Leo	-11.4509
▁manipula	-11.451
▁mostrando	-11.4511
▁oposta	-11.4511
▁democrática	-11.4512
▁habituados	-11.452
TI	-11.452
▁escritora	-11.4527
▁juntaram	-11.4529
▁saiba	-11.4531
▁Chega	-11.4535
▁fornece	-11.4535
▁Americano	-11.454
▁inserir	-11.454
▁Cinc	-11.454
vindo	-11.4542
▁Ko	-11.4542
▁estilistas	-11.4544
▁pediram	-11.4546
▁pap	-11.4546
han	-11.4547
▁histori	-11.4548
▁habitáve	-11.4551
▁Mari	-11.4551
sani	-11.4553
▁mexicano	-11.4554
▁ensinaram	-11.4555
▁chegava	-11.4566
tlântico	-11.4566
▁protegidas	-11.4571
pre	-11.4573
▁Km	-11.458
▁incluí	-11.458
▁ouvida	-11.458
▁Jim	-11.4586
sol	-11.4597
ografia	-11.4597
▁Jon	-11.4598
▁venha	-11.4601
dutor	-11.4606
▁travar	-11.4606
támos	-11.4608
▁Mah	-11.4614
▁disser	-11.4617
▁tratada	-11.4619
▁generosa	-11.462
▁impresso	-11.4623
▁pu	-11.4626
▁Ex	-11.4628
▁indiano	-11.4641
ber	-11.4642
▁aderir	-11.4642
▁isolar	-11.4644
▁valioso	-11.4645
▁multa	-11.4649
▁ferve	-11.465
ion	-11.4651
▁resolvido	-11.4653
▁pronta	-11.4654
▁coluna	-11.4657
▁54	-11.4658
▁Passe	-11.4661
▁baleia	-11.4662
▁informático	-11.4663
evolução	-11.4664
▁nervosa	-11.4674
▁atingi	-11.4682
▁Rei	-11.4686
ent	-11.4691
bl	-11.4692
hi	-11.4694
▁vend	-11.4694
nia	-11.4711
fre	-11.4711
▁falem	-11.4717
▁continentes	-11.4722
bril	-11.4726
▁espalha	-11.4727
▁religiosos	-11.4729
▁inspirador	-11.4732
cera	-11.4733
▁colocadas	-11.4734
▁Boy	-11.4738
▁Gar	-11.4739
▁Perde	-11.4743
dy	-11.4746
▁entregue	-11.475
lamento	-11.4751
▁ge	-11.4757
▁nó	-11.4758
▁38	-11.4762
▁desisti	-11.4768
▁mostraram	-11.477
▁Carolin	-11.4774
▁Ros	-11.478
▁descreve	-11.4783
▁facilita	-11.4792
tus	-11.4796
rade	-11.4798
rganização	-11.4803
▁contada	-11.4803
▁informar	-11.4805
▁entend	-11.4808
▁transformam	-11.481
▁potencia	-11.4811
hen	-11.4819
▁percorre	-11.482
elo	-11.4823
▁pinto	-11.4829
rda	-11.4829
olly	-11.4834
▁ficaria	-11.4843
org	-11.4843
▁imitador	-11.486
▁reconhecem	-11.4865
▁pe	-11.4871
lon	-11.4876
▁k	-11.4878
spacial	-11.4899
▁acontecerá	-11.4902
▁gra	-11.4902
▁Bali	-11.4914
▁tri	-11.4915
au	-11.4919
▁juíz	-11.4931
▁impor	-11.4936
▁deus	-11.4942
▁Hol	-11.4943
▁Teria	-11.4946
▁determina	-11.495
▁Ho	-11.4956
▁come	-11.4962
guei	-11.4975
▁manterem	-11.4981
▁trabalhe	-11.4984
▁tend	-11.4986
bal	-11.4989
into	-11.499
ight	-11.4994
▁Rica	-11.4998
▁causada	-11.5003
ificação	-11.5008
yd	-11.5016
erra	-11.5019
▁produtor	-11.5021
▁Jo	-11.5027
ício	-11.5043
▁inunda	-11.5049
▁censura	-11.5053
▁relva	-11.5056
▁renováve	-11.5064
▁usava	-11.5065
▁perdas	-11.507
▁percebam	-11.507
terminado	-11.5073
▁jardin	-11.5075
▁Bronx	-11.5078
▁Chile	-11.5078
▁GCH	-11.5078
▁Jerusalém	-11.5078
▁Júpiter	-11.5078
▁absoluto	-11.5078
▁aleatório	-11.5078
▁autentic	-11.5078
▁autêntico	-11.5078
▁borracha	-11.5078
▁catástrofe	-11.5078
▁critério	-11.5078
▁enzima	-11.5078
▁incluem	-11.5078
▁maciça	-11.5078
▁mochila	-11.5078
▁mínima	-11.5078
▁problemático	-11.5078
▁rígido	-11.5078
▁silencioso	-11.5078
▁singular	-11.5078
▁subsídio	-11.5078
▁utilidade	-11.5078
▁autista	-11.5078
▁declínio	-11.5078
▁harmonia	-11.5078
▁inferno	-11.5078
▁irriga	-11.5078
▁destroço	-11.5078
▁misteriosa	-11.5078
▁psicológica	-11.5078
▁democratiza	-11.5078
▁enfermaria	-11.5078
▁império	-11.5078
▁inconsciente	-11.5078
▁cauda	-11.5078
▁orbita	-11.5078
▁tabu	-11.5078
▁frasco	-11.5078
▁gravidez	-11.5078
▁obtém	-11.5078
▁vizinhança	-11.5078
▁solidariedade	-11.5078
▁toalha	-11.5078
▁Primeira	-11.5078
▁hélice	-11.5078
▁tubarão	-11.5078
▁ficheiro	-11.5078
▁tradutor	-11.5078
▁calcário	-11.5078
▁Certa	-11.5078
▁capitã	-11.5078
▁Carne	-11.5078
▁queijo	-11.5078
rgentin	-11.5078
▁estágio	-11.5078
▁fixo	-11.5078
sistência	-11.5078
▁Vietname	-11.5078
▁receio	-11.5078
▁solucionar	-11.5078
▁rodeado	-11.5079
▁sentou	-11.5079
▁direções	-11.5079
▁inúmer	-11.5079
▁ISI	-11.5079
▁hard	-11.5079
▁russo	-11.508
▁Evan	-11.508
▁atrasado	-11.508
▁Microsoft	-11.508
▁colina	-11.5081
▁campus	-11.5081
▁Estud	-11.5081
▁dividida	-11.5081
▁Fazer	-11.5082
▁At	-11.5082
▁Hubble	-11.5082
▁abrangente	-11.5083
▁tremendo	-11.5083
▁trazido	-11.5083
ko	-11.5083
▁diversão	-11.5084
▁décimo	-11.5084
▁franceses	-11.5084
nb	-11.5085
▁pulmão	-11.5085
▁reduzem	-11.5086
▁obtêm	-11.5086
▁preta	-11.5088
▁reacção	-11.5089
▁enfrentam	-11.5092
▁aceitação	-11.5092
▁encolher	-11.5093
▁justificar	-11.5093
▁convidar	-11.5094
▁retirado	-11.5095
▁quinto	-11.5095
Gowan	-11.5095
▁esqueçam	-11.5096
▁cosmos	-11.5096
▁comprometer	-11.5097
ling	-11.5098
▁Desculpem	-11.5098
▁grandeza	-11.5099
▁condenado	-11.51
▁girar	-11.5101
▁orden	-11.5102
▁pleno	-11.5103
▁afastada	-11.5104
▁ensinado	-11.5104
▁personalizado	-11.5104
▁Liga	-11.5106
▁SS	-11.5106
▁recicla	-11.5107
▁subtil	-11.5108
▁estável	-11.5109
▁pedem	-11.511
▁rochas	-11.5111
▁bailarino	-11.5111
▁privadas	-11.5112
▁ira	-11.5114
▁unida	-11.5115
▁enviada	-11.5121
▁contam	-11.5121
▁testemunho	-11.5123
▁ilustrar	-11.5125
▁publicada	-11.5127
▁obriga	-11.5127
irb	-11.5128
▁caír	-11.5128
▁objetiva	-11.513
▁protecç	-11.5132
poeira	-11.5135
LA	-11.5139
ifer	-11.5141
▁Considerem	-11.5142
▁combinado	-11.5143
▁pusemo	-11.5144
▁filhas	-11.5146
▁fluido	-11.5148
▁pan	-11.5148
▁Roset	-11.515
▁dirige	-11.5152
▁valoriza	-11.5152
▁assinar	-11.5154
▁encaixar	-11.5156
▁surpreender	-11.5156
▁percebido	-11.5157
▁silic	-11.5158
▁decorrer	-11.5159
▁anjo	-11.516
▁anónimo	-11.5161
▁receberam	-11.5165
▁localidade	-11.5166
▁Wood	-11.5173
▁sentiu	-11.5174
edicina	-11.5175
bon	-11.5175
▁aplausos	-11.5175
▁satisfa	-11.5176
▁iraniano	-11.5183
▁medos	-11.5184
▁espreita	-11.5189
▁argumenta	-11.5194
▁Col	-11.5198
▁devolver	-11.5203
▁evapora	-11.5204
▁escravos	-11.5205
▁administra	-11.5206
▁Boa	-11.521
▁evita	-11.5211
▁Passá	-11.5214
▁possui	-11.5215
▁Mor	-11.5218
▁regressa	-11.5218
leção	-11.5221
▁Ru	-11.5224
▁Parti	-11.5226
▁inclusiva	-11.5231
▁saíre	-11.5231
▁expectativas	-11.5231
▁colher	-11.5239
▁MR	-11.5244
▁West	-11.5245
▁voltarem	-11.5248
▁atrai	-11.5249
▁dano	-11.525
ill	-11.5255
▁armado	-11.5256
▁queimar	-11.5258
▁be	-11.5261
dit	-11.5265
sus	-11.5273
▁malas	-11.5274
▁apartamentos	-11.5278
▁comunicam	-11.528
▁existisse	-11.5282
▁sinta	-11.5286
tam	-11.5287
▁dispara	-11.5297
▁acertar	-11.5312
▁slide	-11.5312
eiras	-11.5313
▁humanitário	-11.5314
▁tribo	-11.5317
▁hábito	-11.5322
▁deixada	-11.5324
▁faixa	-11.5326
▁chimpanzé	-11.5329
▁competência	-11.5331
▁átomo	-11.5331
▁perguntamos	-11.5332
▁mosquito	-11.5333
▁complicadas	-11.5335
▁executar	-11.5344
izou	-11.5346
▁Gro	-11.5346
▁trav	-11.5351
ake	-11.5351
spir	-11.5362
▁coberto	-11.5365
▁corria	-11.5366
ores	-11.5368
▁confirma	-11.5375
ila	-11.5376
▁tornem	-11.5386
nus	-11.5386
▁Yu	-11.539
rea	-11.5393
tem	-11.5404
▁escrevem	-11.5404
▁traduz	-11.5405
▁Usa	-11.5407
▁balança	-11.5408
tter	-11.541
▁criadas	-11.5415
▁oculta	-11.5424
ith	-11.5433
▁Maria	-11.5435
ly	-11.5439
▁lentes	-11.5439
▁tentava	-11.5443
▁reformar	-11.5451
lice	-11.5455
▁31	-11.5459
▁corta	-11.5461
▁apercebemos	-11.5462
w	-11.5465
cton	-11.547
▁reparado	-11.5471
▁secular	-11.5475
uge	-11.5476
til	-11.548
brimos	-11.5482
▁War	-11.5482
▁reforça	-11.5491
▁celebrar	-11.55
▁divulga	-11.5506
for	-11.5511
▁colunas	-11.5517
▁devasta	-11.5524
▁sintam	-11.5531
▁emite	-11.5531
▁reuni	-11.5533
▁deriva	-11.5535
▁verme	-11.5542
▁mutaç	-11.555
▁fases	-11.5551
issão	-11.5557
▁notar	-11.5565
▁amo	-11.5573
▁Toma	-11.5575
▁agricultor	-11.5576
erne	-11.5585
▁nativa	-11.5593
we	-11.561
ime	-11.561
oh	-11.5614
andamento	-11.5615
ndi	-11.5621
▁preserva	-11.563
▁Dev	-11.5635
▁melhora	-11.5635
▁servidor	-11.5638
▁liberal	-11.5638
▁gostaría	-11.5639
▁artístic	-11.5647
▁menti	-11.5649
▁suicidas	-11.5655
▁aplicá	-11.5658
▁deixe	-11.5664
▁científicas	-11.5666
▁excita	-11.5678
▁compensa	-11.5679
▁acompanha	-11.568
▁fizessem	-11.5688
▁pen	-11.5688
▁adopta	-11.5691
lga	-11.5693
▁degrada	-11.5696
ara	-11.5696
eto	-11.5697
▁epi	-11.5698
98	-11.57
▁congestiona	-11.5705
▁poupa	-11.5709
▁memori	-11.5716
▁interacç	-11.5719
▁Hum	-11.572
▁aventuras	-11.5723
▁promove	-11.5724
▁engenho	-11.5732
▁universos	-11.5735
▁Hava	-11.5735
▁Video	-11.5744
^	-11.5744
▁DVD	-11.5744
▁Jordan	-11.5744
▁TEDTalk	-11.5744
▁Watson	-11.5744
▁altitude	-11.5744
▁ancestral	-11.5744
▁catedra	-11.5744
▁cereais	-11.5744
▁colectiva	-11.5744
▁compreendo	-11.5744
▁controle	-11.5744
▁defensor	-11.5744
▁dramática	-11.5744
▁empolgante	-11.5744
▁espingarda	-11.5744
▁genocídio	-11.5744
▁incêndio	-11.5744
▁nanopartícula	-11.5744
▁neuronal	-11.5744
▁proprietário	-11.5744
▁quântico	-11.5744
▁tsunami	-11.5744
▁vínculo	-11.5744
▁Árabe	-11.5744
▁favela	-11.5744
▁interruptor	-11.5744
▁paixões	-11.5744
▁paralisia	-11.5744
▁Irland	-11.5744
▁intangíve	-11.5744
▁plasma	-11.5744
▁oferta	-11.5744
▁premissa	-11.5744
▁vazia	-11.5744
▁institucional	-11.5744
▁licenciatura	-11.5744
▁dolorosa	-11.5744
▁externo	-11.5744
▁musicais	-11.5744
▁vestígio	-11.5744
▁distrito	-11.5744
▁intervalo	-11.5744
▁Permite	-11.5744
▁diabetes	-11.5744
▁firme	-11.5744
▁neural	-11.5744
▁apropriada	-11.5744
▁asiático	-11.5744
▁trafica	-11.5744
▁Stasi	-11.5744
▁distribuir	-11.5744
▁frágil	-11.5744
▁produtiva	-11.5744
▁creche	-11.5745
▁desvantage	-11.5745
▁acampamento	-11.5745
▁solteira	-11.5745
acci	-11.5745
▁coelho	-11.5745
▁legais	-11.5745
▁Albert	-11.5745
▁fantasia	-11.5745
▁autoestrada	-11.5745
▁Glass	-11.5745
▁agrupamento	-11.5745
▁desfrutar	-11.5745
▁mestre	-11.5745
▁sábado	-11.5745
▁Sandy	-11.5745
▁Yale	-11.5745
▁suspeito	-11.5745
▁séc	-11.5745
▁tristeza	-11.5745
▁Perguntei	-11.5745
▁estreito	-11.5746
▁botões	-11.5746
▁ninho	-11.5746
▁coloquei	-11.5746
▁aceitável	-11.5746
▁Gius	-11.5747
▁consomem	-11.5747
▁fantasma	-11.5748
ocial	-11.5748
▁reconhecida	-11.5748
▁aceitou	-11.5748
▁rebelde	-11.5748
▁negação	-11.5749
▁desenhada	-11.575
▁King	-11.575
▁2,5	-11.575
▁tropica	-11.5751
▁Tecnologi	-11.5751
triz	-11.5751
▁AVC	-11.5751
▁caçadores	-11.5751
▁vendida	-11.5751
▁celular	-11.5753
▁tigre	-11.5753
▁percebo	-11.5753
▁síndrome	-11.5754
ata	-11.5754
▁Americana	-11.5755
▁inventado	-11.5756
▁penic	-11.5757
▁teclado	-11.5757
útil	-11.5757
xy	-11.576
▁regularmente	-11.5761
▁cantores	-11.5761
▁aptidão	-11.5762
ães	-11.5763
▁pesada	-11.5763
▁brutal	-11.5763
▁puseram	-11.5764
▁imaginado	-11.5764
▁impressionado	-11.5764
▁neo	-11.5765
▁tirou	-11.5765
▁glaciares	-11.5765
▁vendedores	-11.5765
▁precis	-11.5766
▁flexíveis	-11.5766
▁cubo	-11.5767
▁cól	-11.5768
▁salvou	-11.5768
▁introduzido	-11.5769
▁museus	-11.577
▁ameaçado	-11.5772
▁medições	-11.5776
abilóni	-11.5778
▁ignorada	-11.578
▁doador	-11.5781
▁reflexo	-11.5784
▁aquecer	-11.579
▁lindamente	-11.5791
▁navegador	-11.5793
stria	-11.5794
▁asteroide	-11.5795
▁Far	-11.5795
▁exibi	-11.5798
▁Pensava	-11.5801
▁prosperar	-11.5804
▁Alex	-11.5804
▁4.	-11.5805
▁tr	-11.5805
▁fricç	-11.5806
▁Caso	-11.5806
▁celebra	-11.5806
▁conscientemente	-11.5806
▁exercer	-11.5807
▁ministro	-11.5809
ven	-11.581
irei	-11.5811
▁cela	-11.5813
▁recolha	-11.5816
▁ELA	-11.5816
▁conter	-11.582
▁observam	-11.582
▁perguntámos	-11.582
▁descrito	-11.582
▁modificar	-11.5824
▁Nasci	-11.5831
petição	-11.5832
nto	-11.5838
▁flui	-11.5839
▁condicionado	-11.584
lé	-11.5843
▁Palestin	-11.5851
pólio	-11.5852
▁ocorrem	-11.5853
▁extrovertidos	-11.5856
▁viv	-11.5858
enta	-11.5864
xi	-11.5865
▁ban	-11.5882
attle	-11.5884
▁mineiro	-11.5885
▁aponta	-11.5891
▁relato	-11.5894
▁gere	-11.5895
ach	-11.5896
▁colocámos	-11.59
ig	-11.5901
▁avança	-11.5905
xting	-11.5907
▁minúsculas	-11.5909
▁Vá	-11.5912
▁aposto	-11.5912
▁encarar	-11.5915
▁96	-11.5915
▁Corre	-11.5915
▁viria	-11.5916
▁ultrapassa	-11.5929
cimo	-11.5929
▁interpretar	-11.5942
▁Mur	-11.5951
alha	-11.5952
arlamento	-11.5953
▁estudá	-11.596
▁capta	-11.5963
▁he	-11.597
▁moscas	-11.597
silo	-11.5976
▁testa	-11.5977
▁amava	-11.5978
▁graves	-11.5981
▁preservar	-11.5981
▁imóve	-11.5981
▁concordo	-11.5988
▁contratar	-11.5991
caria	-11.6005
▁observado	-11.6007
▁faltam	-11.6013
▁subjacente	-11.6018
▁democrático	-11.6018
▁Tente	-11.6021
▁desculpas	-11.6024
▁prédio	-11.6027
▁apostar	-11.6029
▁roubo	-11.6029
▁lacuna	-11.6033
▁urbana	-11.6034
DE	-11.6034
▁urso	-11.6036
▁analis	-11.6036
▁tempestade	-11.6037
▁masculino	-11.6037
feitos	-11.6039
▁recorrer	-11.6039
▁43	-11.6041
▁surpreendido	-11.6041
▁preconceito	-11.6042
▁biólogo	-11.6046
▁Lar	-11.6048
▁tentem	-11.6053
scal	-11.6056
ker	-11.6056
▁benefício	-11.6056
he	-11.6061
▁aba	-11.6061
▁preparado	-11.6062
▁actor	-11.6064
▁adulto	-11.6064
▁mis	-11.6066
▁assumi	-11.6074
▁capturar	-11.6078
▁comercializa	-11.6079
contentores	-11.6084
▁Roma	-11.6084
▁Recebe	-11.6086
ung	-11.6087
▁comp	-11.6093
▁localizado	-11.6102
▁torne	-11.6109
▁93	-11.6113
▁existente	-11.6119
▁filantropi	-11.612
▁entidades	-11.6123
▁corda	-11.6125
▁elevados	-11.614
▁Henr	-11.6145
▁tempestades	-11.6154
▁comportar	-11.617
▁criarem	-11.6177
▁electr	-11.6181
▁obeso	-11.6182
▁hábitos	-11.6185
▁desloca	-11.6185
▁195	-11.6192
-2	-11.6194
▁circula	-11.6202
▁apanha	-11.6209
▁olhava	-11.6213
▁geri	-11.6224
ano	-11.6227
▁chi	-11.6228
▁salta	-11.6228
▁transporta	-11.623
tz	-11.6238
▁privados	-11.6238
▁Vem	-11.6239
▁corri	-11.6242
col	-11.6254
raça	-11.6258
▁Construímo	-11.6259
▁Bi	-11.6266
▁sorri	-11.627
▁Academi	-11.6277
▁adoramo	-11.628
▁esperanças	-11.6286
ff	-11.6291
▁destaca	-11.6296
▁Vê	-11.6301
▁Star	-11.6313
▁dobra	-11.6315
▁defende	-11.6318
bar	-11.6323
▁regulamenta	-11.6332
▁modelar	-11.6333
▁venham	-11.6336
▁concordam	-11.6341
▁formado	-11.6344
▁honest	-11.6357
sucedido	-11.6379
▁alega	-11.638
▁invas	-11.6387
ológica	-11.639
▁apresentado	-11.6403
▁Acreditam	-11.6404
▁desejam	-11.6405
▁cidad	-11.6409
▁transformado	-11.641
estre	-11.6419
▁muni	-11.6421
▁prov	-11.6425
▁diagnósticos	-11.6426
▁comporta	-11.6429
▁Green	-11.6429
ónia	-11.643
▁desejava	-11.6431
▁considerem	-11.6435
▁prolonga	-11.6438
▁autora	-11.6444
▁encontrava	-11.6445
gurança	-11.6448
▁policia	-11.645
▁situa	-11.6451
▁chegue	-11.6452
▁Jeff	-11.6458
▁Projeto	-11.6459
▁Geoff	-11.6459
▁Kepler	-11.6459
▁Missouri	-11.6459
▁Rapariga	-11.6459
▁Stephen	-11.6459
▁Wikipedia	-11.6459
▁ansioso	-11.6459
▁antidepressivo	-11.6459
▁apresentá	-11.6459
▁arbusto	-11.6459
▁besouro	-11.6459
▁causou	-11.6459
▁cineasta	-11.6459
▁dinâmico	-11.6459
▁drasticamente	-11.6459
▁escravatura	-11.6459
▁espalhou	-11.6459
▁espessura	-11.6459
▁estúpido	-11.6459
▁fabulosa	-11.6459
▁febre	-11.6459
▁ferimento	-11.6459
▁fraqueza	-11.6459
▁golfe	-11.6459
▁golfinho	-11.6459
▁guitarra	-11.6459
▁hacker	-11.6459
▁incapaz	-11.6459
▁indícios	-11.6459
▁polímero	-11.6459
▁presidencia	-11.6459
▁proveniente	-11.6459
▁proximidade	-11.6459
▁quantitativa	-11.6459
▁submarino	-11.6459
▁sábio	-11.6459
▁válvula	-11.6459
▁Óscar	-11.6459
▁álcool	-11.6459
▁detalhada	-11.6459
▁autónomo	-11.6459
▁Antiga	-11.6459
▁flexibilidade	-11.6459
▁rabisco	-11.6459
▁chapéu	-11.6459
▁ambicioso	-11.6459
▁etapa	-11.6459
▁saudita	-11.6459
▁sólida	-11.6459
▁espectro	-11.6459
▁malicioso	-11.6459
▁inerente	-11.6459
▁noturno	-11.6459
▁túmulo	-11.6459
ustiça	-11.6459
▁monstro	-11.6459
▁refiro	-11.6459
▁omnipresente	-11.6459
▁precioso	-11.6459
▁suposta	-11.6459
▁enfermeiro	-11.6459
▁teórico	-11.6459
▁artesana	-11.6459
▁amarela	-11.6459
▁renda	-11.6459
▁matriz	-11.6459
▁mágica	-11.6459
▁CEO	-11.6459
▁País	-11.6459
▁muscular	-11.6459
▁educativa	-11.6459
▁exposta	-11.6459
▁feio	-11.6459
▁rotina	-11.6459
ágio	-11.6459
▁produtivo	-11.6459
▁fogueira	-11.6459
▁simultâne	-11.6459
▁selvagens	-11.6459
▁Chef	-11.6459
▁Peço	-11.6459
▁arterial	-11.6459
▁trigo	-11.6459
▁Sky	-11.6459
▁largo	-11.6459
▁hot	-11.646
▁Hanna	-11.646
▁injeç	-11.646
▁fomenta	-11.646
▁conven	-11.646
▁desvio	-11.646
▁escasse	-11.646
▁Newton	-11.646
▁poço	-11.646
▁trilh	-11.6461
▁lama	-11.6461
▁irónico	-11.6461
▁surto	-11.6461
▁mestrado	-11.6462
▁Justine	-11.6462
▁eléctrica	-11.6462
▁primária	-11.6462
▁Deixo	-11.6462
▁campe	-11.6462
▁caneta	-11.6462
▁contracep	-11.6463
▁cru	-11.6463
▁consideramo	-11.6463
▁neutro	-11.6464
▁sensíve	-11.6464
▁falsificaç	-11.6464
▁programáve	-11.6464
▁comprou	-11.6464
▁entusiasmada	-11.6464
▁irritante	-11.6464
▁48	-11.6465
▁fundamento	-11.6466
▁equilibrar	-11.6466
damente	-11.6466
▁subti	-11.6467
▁arredor	-11.6467
▁minima	-11.6467
▁detectar	-11.6467
▁Odisse	-11.6467
lix	-11.6467
▁telefonema	-11.6468
▁arrisca	-11.6468
▁logística	-11.6468
▁arquitecto	-11.6468
▁postura	-11.6468
▁oradores	-11.6469
▁horizontal	-11.6469
▁educada	-11.647
▁sequenciar	-11.647
▁eleito	-11.647
▁abordagens	-11.647
▁Dê	-11.6471
▁policial	-11.6471
▁Bell	-11.6472
▁quarteirão	-11.6473
▁fortalecer	-11.6474
▁biografia	-11.6475
▁bateu	-11.6475
▁vendido	-11.6475
▁preocupem	-11.6475
▁usámo	-11.6476
▁identificação	-11.6476
▁cortina	-11.6477
▁dividido	-11.6477
▁deixava	-11.6477
▁CD	-11.6477
▁comparada	-11.6478
ana	-11.6479
▁circulação	-11.648
▁TB	-11.6481
▁honestamente	-11.6483
▁isolada	-11.6484
▁Buda	-11.6484
▁danificado	-11.6485
ático	-11.6486
▁colatera	-11.6487
▁marinha	-11.6487
▁valorizar	-11.6488
ington	-11.6488
▁terminal	-11.6489
castanha	-11.6489
▁espalhada	-11.649
▁visões	-11.6491
▁Milh	-11.6491
ndonési	-11.6496
▁animado	-11.6496
▁digno	-11.65
▁localizar	-11.6501
fiel	-11.6501
▁metas	-11.6503
▁repetida	-11.6504
▁imprevisíve	-11.6504
▁Viaj	-11.6506
▁estimula	-11.6508
▁produzida	-11.6509
▁propaga	-11.6512
▁virou	-11.6516
▁gravada	-11.6518
▁abri	-11.6518
▁projecta	-11.6526
▁Devo	-11.6527
itz	-11.6531
▁encoraja	-11.6539
▁valer	-11.6543
▁construtor	-11.6545
▁ouço	-11.6546
▁pagamos	-11.655
▁casaco	-11.655
▁limitar	-11.6551
▁outono	-11.6562
▁aplicado	-11.6565
ezas	-11.6568
▁identidades	-11.6568
▁julgava	-11.6569
▁Hu	-11.6577
▁goste	-11.6578
▁passe	-11.6578
▁juntamo	-11.6587
▁Sab	-11.6588
▁sonda	-11.6591
▁passarem	-11.6593
▁arrancar	-11.6595
sibilidade	-11.6596
▁exist	-11.6598
▁custam	-11.6598
gue	-11.6599
▁Tor	-11.6601
▁gast	-11.6603
▁Hal	-11.6604
▁interiores	-11.6604
▁adaptáve	-11.6606
▁Senhora	-11.6606
▁fic	-11.6607
▁representada	-11.6608
gua	-11.661
▁colecç	-11.6611
▁criminaliza	-11.6618
▁comem	-11.6627
▁bala	-11.6628
▁andares	-11.664
▁Anna	-11.6641
▁empurra	-11.6642
▁Isa	-11.6644
▁panor	-11.6644
ment	-11.6645
rga	-11.6647
▁convence	-11.6655
▁faci	-11.6656
▁encher	-11.6661
▁atenta	-11.6672
▁sof	-11.6676
▁contador	-11.6681
▁sensibili	-11.6691
▁calcula	-11.6696
▁especula	-11.6698
▁escrevia	-11.6701
▁fortemente	-11.6702
▁veja	-11.6705
▁economiza	-11.6708
▁Cara	-11.6708
▁equipamentos	-11.6714
▁We	-11.6718
▁mi	-11.6718
eda	-11.6722
▁fiáve	-11.6723
▁37	-11.6733
▁elevar	-11.6741
▁Morto	-11.6745
lidade	-11.675
▁Sud	-11.6757
▁Dado	-11.6759
▁sujeitos	-11.676
▁articula	-11.6764
ower	-11.6765
wan	-11.6767
▁separa	-11.6768
▁cast	-11.6774
▁Pedi	-11.6774
▁senta	-11.678
▁instáve	-11.678
▁depend	-11.6781
▁andarem	-11.6792
▁africana	-11.6792
▁sede	-11.6795
▁abraço	-11.6797
▁smartphone	-11.6802
▁aborda	-11.6802
▁Hond	-11.6803
▁entidade	-11.6806
▁puxa	-11.6813
nforme	-11.6814
▁deslocar	-11.6815
▁lente	-11.6816
▁informa	-11.6816
▁inevit	-11.6818
ab	-11.6823
vin	-11.6827
▁ajudarem	-11.683
▁estrutural	-11.6832
▁começarem	-11.6835
▁multiplica	-11.684
▁apercebemo	-11.684
▁Chamava	-11.6843
▁honesto	-11.6848
▁imp	-11.6851
órdi	-11.6852
▁fezes	-11.6869
▁educado	-11.687
▁AK	-11.6871
▁dispersa	-11.6877
▁misturar	-11.6887
▁inovadora	-11.6889
sen	-11.689
▁Vivia	-11.6891
▁recorre	-11.6893
▁historiador	-11.6897
▁ursos	-11.69
▁alter	-11.6909
▁reta	-11.691
▁recolhem	-11.6913
▁entrava	-11.6914
▁financeiras	-11.6925
erança	-11.6946
▁Leva	-11.6951
▁comunica	-11.6956
êssemos	-11.6963
▁rastrea	-11.6966
▁refei	-11.6968
▁64	-11.6975
mónio	-11.6976
old	-11.6978
▁certifica	-11.6979
▁Kev	-11.6989
▁esmagado	-11.6991
▁0,	-11.6994
▁desenvolvidos	-11.6994
rus	-11.6996
▁escava	-11.6996
▁uni	-11.7004
▁gras	-11.7006
pta	-11.7016
▁procuro	-11.7018
▁Carol	-11.7019
▁Ur	-11.702
▁sobe	-11.702
▁criava	-11.702
▁eleva	-11.7021
▁trocas	-11.7026
▁Ross	-11.7027
▁retira	-11.7042
▁dona	-11.7043
▁46	-11.7044
les	-11.7048
mbo	-11.7051
▁deixámo	-11.7052
▁sab	-11.7053
▁comete	-11.7056
▁regula	-11.7058
▁confiantes	-11.7069
tese	-11.7074
▁interroga	-11.7076
▁navega	-11.7081
▁cabe	-11.7085
▁assusta	-11.71
▁CE	-11.7111
▁carrega	-11.7112
▁Project	-11.7113
▁tentativas	-11.7128
▁interliga	-11.7129
▁quisessem	-11.7131
▁adotar	-11.7133
▁fr	-11.7133
▁habitats	-11.7137
▁Compreend	-11.7142
▁interagi	-11.7144
▁193	-11.7147
abrigo	-11.7149
▁envolvem	-11.7152
aki	-11.7154
úteis	-11.7155
▁caminh	-11.7156
▁performa	-11.7158
▁Inc	-11.7158
ct	-11.7161
▁pontuaç	-11.7164
▁mudaria	-11.7168
trónomos	-11.7175
▁Bol	-11.7181
zero	-11.7186
fectar	-11.7187
▁posiciona	-11.7188
▁personaliza	-11.7188
▁descrevi	-11.7189
▁salaria	-11.719
▁define	-11.7202
▁factor	-11.7208
nfim	-11.721
▁isolado	-11.7214
▁triba	-11.7216
▁interpret	-11.7216
▁polariza	-11.7219
▁inclus	-11.722
▁ativis	-11.7222
núnci	-11.7222
▁causam	-11.7227
▁insegura	-11.7228
▁fóss	-11.7228
íduos	-11.7228
▁General	-11.7228
▁HIV	-11.7228
▁Kennedy	-11.7228
▁Movimento	-11.7228
▁Orienta	-11.7228
▁Toronto	-11.7228
▁Ushahidi	-11.7228
▁Voyage	-11.7228
▁abutre	-11.7228
▁adolescência	-11.7228
▁assassino	-11.7228
▁assassínio	-11.7228
▁cerimónia	-11.7228
▁climático	-11.7228
▁contempla	-11.7228
▁controvérsia	-11.7228
▁cívico	-11.7228
▁diagnosticar	-11.7228
▁gaiola	-11.7228
▁italiano	-11.7228
▁julgo	-11.7228
▁mesquita	-11.7228
▁persuadi	-11.7228
▁pesticida	-11.7228
▁prateleira	-11.7228
▁recipiente	-11.7228
▁sacrifício	-11.7228
▁textura	-11.7228
▁táxi	-11.7228
▁universitária	-11.7228
▁coberta	-11.7228
▁elogio	-11.7228
▁esgoto	-11.7228
▁gravitacional	-11.7228
▁pesadelo	-11.7228
▁infidel	-11.7228
▁lealdade	-11.7228
▁neurocientista	-11.7228
▁rapidez	-11.7228
▁asfalt	-11.7228
▁banqueiro	-11.7228
▁crónica	-11.7228
▁maluca	-11.7228
▁icebergue	-11.7228
▁enriquece	-11.7228
▁sobrevivi	-11.7228
▁artéria	-11.7228
▁obsessão	-11.7228
▁rituais	-11.7228
▁XVIII	-11.7228
▁convite	-11.7228
▁fragmentação	-11.7228
▁íman	-11.7228
▁Stew	-11.7228
▁selecciona	-11.7228
▁Virgin	-11.7228
▁intrigante	-11.7228
▁finança	-11.7228
chran	-11.7228
▁rasto	-11.7228
▁desviar	-11.7228
▁convicç	-11.7228
▁fralda	-11.7228
▁Faço	-11.7228
▁caravana	-11.7228
▁automaticamente	-11.7228
▁superpoder	-11.7228
▁Johnny	-11.7228
▁veia	-11.7228
▁novembro	-11.7228
▁Ponto	-11.7229
▁mentiroso	-11.7229
▁unidimensional	-11.7229
▁Cabo	-11.7229
▁aliança	-11.7229
▁federal	-11.7229
▁imagino	-11.7229
▁balde	-11.7229
▁manteve	-11.723
▁oscila	-11.723
▁convidou	-11.723
▁extremidade	-11.723
▁Levei	-11.7231
▁Lib	-11.7231
▁RV	-11.7231
▁pego	-11.7231
▁Canal	-11.7231
▁lábio	-11.7231
▁festiva	-11.7231
▁grata	-11.7231
▁maratona	-11.7231
▁prostituta	-11.7231
▁Força	-11.7231
▁concebida	-11.7232
▁Narrador	-11.7232
▁pasta	-11.7232
▁alienígena	-11.7232
▁esquadra	-11.7233
▁Shad	-11.7233
▁permitindo	-11.7233
▁cascata	-11.7234
▁biomas	-11.7234
▁bilh	-11.7235
▁espectacular	-11.7236
▁matou	-11.7236
▁conceção	-11.7236
▁larva	-11.7236
▁experiente	-11.7238
▁correntes	-11.7238
▁aperfeiçoar	-11.7238
stop	-11.7239
▁Recordo	-11.7239
▁Steven	-11.724
▁compreendida	-11.724
▁adicionais	-11.724
▁absurdo	-11.7241
▁amadores	-11.7241
▁acompanhado	-11.7241
▁mobilizar	-11.7241
▁colorido	-11.7242
▁sensíveis	-11.7242
▁consumidor	-11.7243
GO	-11.7243
▁modificada	-11.7243
▁arriscado	-11.7243
▁Mig	-11.7244
▁lançada	-11.7246
▁experimental	-11.7246
▁foguetão	-11.7246
▁controversa	-11.7246
▁atuar	-11.7247
▁Nick	-11.7248
▁Descobriram	-11.7248
▁masculina	-11.7248
▁permitam	-11.7251
bur	-11.7251
▁Perdi	-11.7251
▁flutuante	-11.7251
▁psicopata	-11.7252
▁lidam	-11.7252
▁optar	-11.7252
▁proto	-11.7253
▁fluente	-11.7253
▁demonstrado	-11.7255
▁determinação	-11.7255
▁ra	-11.7257
▁Muni	-11.7257
▁Muda	-11.7258
▁reuniram	-11.726
▁coleção	-11.7261
▁espada	-11.7261
▁permitisse	-11.7261
▁espalhado	-11.7262
▁fardo	-11.7263
▁Ram	-11.7264
▁generaliza	-11.7264
▁definem	-11.7266
▁satisfaze	-11.7266
▁agrada	-11.7267
sola	-11.7269
▁transportado	-11.7272
▁perguntem	-11.7272
Bit	-11.7275
▁resumi	-11.7275
▁afectada	-11.7276
▁lógico	-11.7276
▁pombo	-11.7279
▁rap	-11.728
▁faca	-11.7281
▁Nair	-11.7283
migração	-11.7283
▁Cole	-11.7283
▁massiva	-11.7284
▁provoc	-11.7285
▁gerada	-11.7285
▁padre	-11.7286
Donald	-11.7286
▁anunciou	-11.7287
▁Hans	-11.7288
▁mortais	-11.729
▁Bel	-11.7296
▁morar	-11.7297
nze	-11.7297
▁empenhado	-11.7298
▁Lee	-11.73
▁Frequente	-11.73
obi	-11.7301
▁concorda	-11.7303
▁competitivo	-11.7307
▁acolher	-11.731
▁chamavam	-11.7311
▁lava	-11.7312
qu	-11.7313
▁afetam	-11.7314
▁bombeiros	-11.7315
▁Conta	-11.7316
▁levando	-11.7316
▁1.	-11.7323
▁estimular	-11.7323
▁Berk	-11.7331
▁terrivel	-11.7333
▁lança	-11.7335
▁Voa	-11.7337
▁monta	-11.7343
▁guiado	-11.7344
▁responderam	-11.7345
▁crescia	-11.7355
▁multinaciona	-11.7356
▁editora	-11.736
▁sincera	-11.7367
▁pá	-11.737
▁ajude	-11.7372
▁Fri	-11.7373
▁ganhe	-11.7374
▁noiva	-11.7375
lly	-11.7376
sessão	-11.7379
cri	-11.738
▁alterado	-11.7388
▁classificar	-11.7393
42	-11.74
mas	-11.7405
▁curador	-11.7407
▁cinto	-11.741
▁formigas	-11.742
▁fragmentos	-11.742
▁adoraria	-11.7424
luz	-11.7425
▁cometer	-11.7432
▁sorrir	-11.7438
essão	-11.744
▁Imagin	-11.7442
ncialmente	-11.7447
NG	-11.7448
ech	-11.745
▁levantam	-11.7457
▁manda	-11.7463
▁chegarem	-11.7463
▁regress	-11.7463
▁cano	-11.7468
iana	-11.7468
seguem	-11.7469
▁frequentar	-11.7478
▁falante	-11.7481
▁Wo	-11.7483
▁equipas	-11.7484
▁sentiram	-11.7486
har	-11.7488
gramática	-11.7491
tivas	-11.7494
▁operaciona	-11.7497
▁prové	-11.7498
▁compram	-11.7511
▁Sete	-11.7511
▁Bal	-11.7511
▁Compra	-11.7517
▁Wal	-11.752
ang	-11.7521
▁marcado	-11.7521
▁Passa	-11.7524
omé	-11.7527
▁localizaç	-11.7529
fere	-11.7533
xo	-11.754
▁cheios	-11.7545
▁ouça	-11.7547
▁entregar	-11.7548
▁declar	-11.7553
▁ético	-11.7554
▁pop	-11.7554
▁acende	-11.7554
▁man	-11.7556
estrutura	-11.7558
▁passageiros	-11.7562
▁virtua	-11.7567
▁incentiva	-11.757
▁Estudo	-11.758
iva	-11.7584
▁sujeita	-11.7585
▁camar	-11.7587
▁apreci	-11.7587
▁crio	-11.7589
▁absorve	-11.759
▁indígenas	-11.7598
▁Cal	-11.7608
▁semelhança	-11.7621
mit	-11.7623
▁saque	-11.7624
▁processador	-11.7624
▁inesperado	-11.7625
▁corajosa	-11.7629
▁mantemo	-11.7629
▁arquivo	-11.7632
ix	-11.7633
tim	-11.7633
ale	-11.7634
▁violento	-11.7635
▁envolvida	-11.7635
▁maré	-11.7636
ior	-11.7638
▁confessa	-11.7642
▁arquiteto	-11.7642
áudi	-11.7644
▁Che	-11.7645
▁emergente	-11.7645
rins	-11.7647
▁nervo	-11.7649
lia	-11.7653
▁isolados	-11.7657
▁Pop	-11.7662
onar	-11.7662
▁Inver	-11.7664
▁matemáticas	-11.7666
▁lidera	-11.767
▁captura	-11.7675
▁expressa	-11.7676
▁julga	-11.7676
▁abraç	-11.7679
▁solid	-11.769
▁afirmar	-11.7704
▁mostrava	-11.7717
▁enfrenta	-11.7718
▁precisas	-11.7727
MI	-11.7754
▁Ki	-11.7758
ap	-11.7762
▁caminha	-11.7763
▁estica	-11.777
▁mono	-11.7777
▁inclusiv	-11.7777
▁prontas	-11.778
▁resolvidos	-11.778
▁nativo	-11.7787
▁ida	-11.7788
cha	-11.7794
▁chorava	-11.7801
TO	-11.7803
▁gu	-11.7804
▁33	-11.7805
ain	-11.7811
▁Coloca	-11.7817
real	-11.7831
▁porno	-11.7844
ô	-11.7859
iv	-11.7867
ergu	-11.7871
▁Aparece	-11.7872
▁pesa	-11.7874
mart	-11.7877
rder	-11.7881
▁impedi	-11.7887
usa	-11.7907
▁interven	-11.7921
▁observ	-11.7922
▁jogador	-11.7925
▁concretiza	-11.7925
lema	-11.7926
▁Ni	-11.7927
▁diários	-11.7928
cro	-11.7932
▁escuras	-11.7936
tenta	-11.7937
▁Charl	-11.7939
▁vendem	-11.794
▁Sy	-11.7941
ena	-11.7944
rdu	-11.7947
ducação	-11.7949
▁patri	-11.7951
od	-11.7956
ilicon	-11.7959
▁preferi	-11.7959
▁espelhos	-11.7965
▁afasta	-11.7967
▁Falam	-11.7968
▁conduzi	-11.7972
dal	-11.7973
ministro	-11.7978
▁constitu	-11.7981
▁pau	-11.7982
▁invent	-11.7984
ft	-11.7997
ína	-11.8
▁fabrica	-11.8002
▁ridícul	-11.8003
▁geram	-11.8003
▁Gol	-11.8003
▁escut	-11.8009
▁significativos	-11.8011
oster	-11.8015
▁ganh	-11.8016
▁engoli	-11.8021
rais	-11.8022
q	-11.8024
▁Sir	-11.8027
íssimo	-11.8029
▁deixasse	-11.803
ónio	-11.8031
▁prometi	-11.8032
▁esqueci	-11.8035
▁encolhe	-11.8041
▁tecla	-11.8045
▁revolta	-11.8045
▁subestima	-11.8046
ór	-11.8048
▁justifica	-11.8049
▁hiper	-11.8051
fro	-11.8055
ncipe	-11.8057
▁pró	-11.8058
▁difere	-11.8059
▁introdu	-11.806
terrâneo	-11.806
▁extraordin	-11.8061
linear	-11.8061
▁guardi	-11.8061
▁veneno	-11.8061
$	-11.8061
▁Faiza	-11.8061
▁Himalaias	-11.8061
▁Islâmic	-11.8061
▁Kiribati	-11.8061
▁Pensilvânia	-11.8061
▁Titã	-11.8061
▁Virgínia	-11.8061
▁agressor	-11.8061
▁biomolécula	-11.8061
▁bitcoins	-11.8061
▁bizarra	-11.8061
▁chocado	-11.8061
▁chávena	-11.8061
▁concreta	-11.8061
▁conselheiro	-11.8061
▁consenso	-11.8061
▁cápsula	-11.8061
▁distinta	-11.8061
▁emprestado	-11.8061
▁engraçada	-11.8061
▁espectáculo	-11.8061
▁exossomas	-11.8061
▁gentil	-11.8061
▁hierarqui	-11.8061
▁instantânea	-11.8061
▁judaica	-11.8061
▁magnífica	-11.8061
▁maximizar	-11.8061
▁meteorológico	-11.8061
▁noticiário	-11.8061
▁peculiar	-11.8061
▁prefiro	-11.8061
▁propinas	-11.8061
▁romântic	-11.8061
▁simetria	-11.8061
▁slogan	-11.8061
▁válida	-11.8061
▁árduo	-11.8061
▁evacua	-11.8061
▁ideais	-11.8061
▁sombria	-11.8061
▁tronco	-11.8061
▁Noutra	-11.8061
▁Zimbab	-11.8061
▁envergonhado	-11.8061
▁desmonta	-11.8061
▁híbrido	-11.8061
▁ruína	-11.8061
▁medalha	-11.8061
▁Earth	-11.8061
▁duche	-11.8061
▁Chern	-11.8061
▁savana	-11.8061
▁seletiva	-11.8061
arganta	-11.8061
▁Industrial	-11.8061
▁ácido	-11.8061
▁adesivo	-11.8061
▁Trum	-11.8061
▁Edward	-11.8061
▁trinta	-11.8061
▁retângulo	-11.8061
▁Valley	-11.8061
▁amplo	-11.8061
▁desaparecido	-11.8061
▁protões	-11.8061
▁colidir	-11.8061
▁Control	-11.8062
▁seroton	-11.8062
▁Pronto	-11.8062
▁coerente	-11.8062
▁cheque	-11.8062
▁calculadora	-11.8062
▁filmado	-11.8062
▁rodeada	-11.8062
▁revolucionar	-11.8062
▁imaginei	-11.8062
▁executivo	-11.8062
▁rainha	-11.8062
▁Helen	-11.8062
▁Copen	-11.8062
iforme	-11.8062
▁Kong	-11.8062
▁confrontado	-11.8063
▁fatal	-11.8063
▁taça	-11.8063
▁vizinha	-11.8063
▁Turk	-11.8063
▁atrasar	-11.8063
▁lote	-11.8063
▁funera	-11.8064
▁turno	-11.8064
▁Curios	-11.8064
▁gigantesco	-11.8065
▁muçulmana	-11.8065
▁legítimo	-11.8066
▁educacional	-11.8066
▁Yorker	-11.8066
▁copa	-11.8066
▁gigantesca	-11.8067
▁Apol	-11.8067
▁enterrado	-11.8067
▁desperdiçar	-11.8067
▁conspiração	-11.8068
▁Max	-11.8068
▁registado	-11.8068
▁detido	-11.8069
Rabbit	-11.8069
▁Clint	-11.8069
▁CR	-11.807
▁reduzido	-11.807
▁concorrente	-11.807
▁ateu	-11.8071
ux	-11.8071
▁analisá	-11.8071
▁derreter	-11.8071
▁heroína	-11.8072
▁Sub	-11.8072
▁redefinir	-11.8073
▁distribuída	-11.8074
▁39	-11.8074
▁mercadoria	-11.8074
▁frustrada	-11.8075
▁suspensa	-11.8076
▁ambientalista	-11.8076
▁Levantem	-11.8076
▁lesões	-11.8076
▁Vêem	-11.8077
▁desafiante	-11.8077
▁vice	-11.8077
▁geografia	-11.8078
▁afecta	-11.8078
▁bebida	-11.8078
▁preferem	-11.8078
▁aplicam	-11.8079
▁Tipo	-11.808
▁34	-11.808
▁maxilar	-11.808
▁nobre	-11.8081
▁concordaram	-11.8083
▁honesta	-11.8084
▁cintur	-11.8084
▁suspenso	-11.8084
▁provou	-11.8084
▁espin	-11.8085
▁violada	-11.8085
▁Jones	-11.8085
▁tomei	-11.8086
▁pouso	-11.8086
▁recebo	-11.8087
▁atacado	-11.8087
▁concentrado	-11.8088
▁suor	-11.8091
▁automa	-11.8091
▁tóxico	-11.8091
iço	-11.8092
▁Alan	-11.8092
▁Bu	-11.8092
▁empurrar	-11.8093
0,000	-11.8094
▁transformando	-11.8096
▁anestesia	-11.8096
▁autonom	-11.8098
▁quad	-11.8102
▁pondo	-11.8102
▁testado	-11.8102
▁Su	-11.8103
▁latino	-11.8108
▁lançaram	-11.8109
▁realizada	-11.8109
senhei	-11.811
▁estática	-11.8112
▁levavam	-11.8112
▁dedicar	-11.8113
OR	-11.8114
▁Mall	-11.8114
▁lares	-11.8114
▁confiss	-11.8114
▁escolhem	-11.8114
source	-11.8114
filia	-11.8115
▁simpl	-11.8115
▁impressionantes	-11.8116
▁deprimido	-11.8118
▁diretores	-11.8118
▁embarcar	-11.8118
▁ativar	-11.8118
▁estático	-11.8121
▁implacáve	-11.8121
▁otimis	-11.8121
▁reproduz	-11.8121
▁certificar	-11.8122
▁frac	-11.8124
▁Monte	-11.8124
▁preocupada	-11.8129
▁activado	-11.8129
▁viajante	-11.8129
▁violar	-11.8132
▁reclamar	-11.8135
▁recetor	-11.8136
▁influencia	-11.8137
lica	-11.814
▁revisor	-11.8141
▁Apar	-11.8142
▁festeja	-11.8143
▁remove	-11.8143
▁Esperem	-11.8145
▁contemporâneo	-11.8147
▁vestir	-11.8147
dow	-11.815
▁Podiam	-11.8151
ylan	-11.8155
sey	-11.8159
▁leu	-11.8159
▁metais	-11.8163
▁viciado	-11.8163
▁agressivo	-11.8165
▁Trabalho	-11.8168
▁quantifica	-11.817
▁aparecia	-11.8171
▁vinte	-11.818
▁pol	-11.8185
ona	-11.8185
▁costumam	-11.8191
▁comprado	-11.8191
cup	-11.8192
▁estre	-11.8192
▁eterna	-11.8194
▁evoca	-11.8194
▁racis	-11.8195
▁duram	-11.8197
▁ang	-11.8197
▁visualizaç	-11.8209
▁executa	-11.821
ácia	-11.821
pende	-11.8212
▁recorte	-11.8213
▁ovo	-11.8223
▁artes	-11.8224
▁Usámo	-11.8224
▁saberem	-11.8225
▁aterrar	-11.8231
▁assenta	-11.8233
▁representante	-11.8236
▁manufatura	-11.8242
▁AB	-11.8243
▁preenche	-11.8247
cional	-11.8247
▁lider	-11.8249
▁valida	-11.8256
ya	-11.8256
▁utilizamos	-11.8257
▁relativ	-11.8263
▁atravess	-11.8265
▁Fe	-11.8268
▁entraram	-11.8269
▁perguntasse	-11.827
▁reformado	-11.8274
▁grama	-11.8275
▁lerem	-11.8279
▁pontes	-11.8282
venda	-11.8293
▁assume	-11.8294
und	-11.8295
▁colocarem	-11.8299
▁adiciona	-11.8299
▁devida	-11.8299
▁recu	-11.8299
BM	-11.8309
▁gerado	-11.8309
bel	-11.831
▁seguiram	-11.8322
itar	-11.8325
▁mera	-11.8326
▁voador	-11.8327
▁ju	-11.8332
▁Fa	-11.8339
▁preferia	-11.8342
▁pioneiros	-11.8349
▁milh	-11.8349
▁Crist	-11.8349
▁esticar	-11.8351
▁libert	-11.8351
▁destacar	-11.8355
▁atraso	-11.8358
▁Sant	-11.836
▁medita	-11.8361
▁bocados	-11.8362
▁Representa	-11.8362
ónica	-11.837
▁Escrit	-11.8372
▁resum	-11.8372
RA	-11.8377
gram	-11.8379
ssões	-11.8379
▁Cre	-11.8383
ários	-11.8384
▁85	-11.8386
▁extraterrestres	-11.8388
▁espi	-11.8399
▁parada	-11.8402
mmel	-11.8402
▁continuamente	-11.8402
▁procur	-11.8404
▁Kar	-11.8406
▁Pat	-11.8408
▁pressionar	-11.8411
▁encomenda	-11.8411
▁sufoca	-11.8412
▁faculdades	-11.8412
pont	-11.842
▁introduzi	-11.8422
▁aliado	-11.8424
▁influenciado	-11.8425
▁agi	-11.8425
▁filmage	-11.8435
▁possibilita	-11.844
▁pintor	-11.8449
ore	-11.8461
▁desconhecidos	-11.8462
▁passá	-11.8474
eve	-11.8477
▁aprendermos	-11.8482
▁serra	-11.8493
▁moti	-11.8494
▁progressos	-11.8496
entes	-11.8501
▁caber	-11.8505
▁envolvidas	-11.8506
▁sino	-11.8513
▁aceita	-11.8522
EB	-11.8524
▁Cat	-11.8524
cut	-11.8529
▁Cá	-11.853
▁fluorescente	-11.853
▁otimista	-11.8531
▁ta	-11.8533
▁atleta	-11.8534
▁val	-11.8535
▁brinca	-11.8537
▁galeria	-11.8538
▁pequenina	-11.8538
▁trabalharem	-11.8538
▁smartphones	-11.8545
▁indígena	-11.8546
▁Sonh	-11.8548
▁suja	-11.855
▁Cap	-11.855
▁religioso	-11.855
▁empresário	-11.8552
▁escondida	-11.8554
pro	-11.8557
manda	-11.8557
▁tonelada	-11.8559
▁quilómetro	-11.856
▁ga	-11.8562
▁honestos	-11.8563
▁montage	-11.8564
▁codifica	-11.8564
▁colocada	-11.8566
▁bu	-11.8566
nch	-11.8569
▁historia	-11.8574
▁consegu	-11.8574
▁desafia	-11.8575
▁cavalos	-11.858
▁entusiasma	-11.8581
▁Indo	-11.8582
▁lacunas	-11.8585
lab	-11.8585
▁testemunh	-11.8586
een	-11.8601
caminhada	-11.8608
ES	-11.8613
▁signific	-11.8615
oga	-11.8617
▁ave	-11.862
▁Dou	-11.862
teção	-11.8627
▁treme	-11.8637
antes	-11.8637
▁explodi	-11.8646
logia	-11.8652
▁avaliado	-11.8655
▁argumentar	-11.866
▁entrarem	-11.8668
▁doar	-11.8672
hrir	-11.8674
▁Pare	-11.8676
▁resolv	-11.8677
iga	-11.8685
▁movimentar	-11.8687
ily	-11.8688
▁espantosas	-11.87
pil	-11.8701
ub	-11.8711
▁pertencer	-11.8715
▁Trabalham	-11.8732
▁enche	-11.8734
▁acolhi	-11.8734
hinês	-11.8734
▁ator	-11.8739
▁leito	-11.874
▁j	-11.8746
▁Gri	-11.8751
▁Escreve	-11.8754
▁Hall	-11.8754
izado	-11.8779
▁identifica	-11.878
moinho	-11.878
▁realizador	-11.878
▁conquistas	-11.8782
edade	-11.8786
▁negativos	-11.8786
umentada	-11.8786
▁cristal	-11.8788
▁Ne	-11.8788
ary	-11.879
▁Gui	-11.8791
▁53	-11.8793
▁promo	-11.8798
ttle	-11.8798
▁papa	-11.8802
▁encantado	-11.8803
onda	-11.8805
▁legisla	-11.8805
ISA	-11.8812
ire	-11.8819
▁Ven	-11.8824
▁3.	-11.8824
▁Vinc	-11.8825
ick	-11.883
assem	-11.883
▁maiorit	-11.8832
▁encar	-11.8841
▁Devia	-11.8853
▁Sala	-11.8854
▁vol	-11.8868
▁reduz	-11.8875
ffit	-11.8879
▁monitor	-11.8882
▁diminu	-11.8883
▁psico	-11.8884
▁Ya	-11.8886
Bay	-11.8888
curso	-11.8889
▁nalgum	-11.8892
violência	-11.8893
▁vencedor	-11.8893
▁Peg	-11.8894
tive	-11.8894
▁falecid	-11.8896
▁Stac	-11.89
prazo	-11.8902
▁misturado	-11.8902
▁cali	-11.8904
▁ventila	-11.8904
▁Pin	-11.8905
▁acredite	-11.8907
▁orientar	-11.891
▁forno	-11.891
ridge	-11.8911
▁Públic	-11.8912
▁explos	-11.8914
▁implementa	-11.8919
gência	-11.892
▁concord	-11.8924
▁improvisa	-11.8927
▁reciclado	-11.8927
▁rápidas	-11.8928
▁ingles	-11.8928
▁Jud	-11.8937
▁aliena	-11.8937
▁refrigera	-11.8938
▁soubesse	-11.8944
struiu	-11.8948
▁fertiliza	-11.8948
▁maio	-11.8948
íbia	-11.8949
▁vulc	-11.8949
▁compará	-11.895
▁directa	-11.895
ên	-11.8956
▁blog	-11.8956
▁envio	-11.8957
▁diminuí	-11.8957
cida	-11.8959
▁mostro	-11.896
▁atribui	-11.8965
▁Ajuda	-11.8967
▁contribu	-11.8967
▁magni	-11.8969
▁fóru	-11.8969
greja	-11.897
irtual	-11.897
▁japon	-11.897
#	-11.897
▁esculpi	-11.897
▁feroz	-11.897
▁Accenture	-11.897
▁Android	-11.897
▁Guiné	-11.897
▁Sarajevo	-11.897
▁Shakespear	-11.897
▁acidental	-11.897
▁aminoácidos	-11.897
▁ancestrais	-11.897
▁ansiosa	-11.897
▁autêntica	-11.897
▁baralho	-11.897
▁benéfico	-11.897
▁calendário	-11.897
▁carpinteiro	-11.897
▁cogumelo	-11.897
▁dramático	-11.897
▁encaixe	-11.897
▁humildade	-11.897
▁hóspede	-11.897
▁iPad	-11.897
▁imperativo	-11.897
▁imunitária	-11.897
▁influente	-11.897
▁islâmico	-11.897
▁líquida	-11.897
▁marinheiro	-11.897
▁miseric	-11.897
▁neurologista	-11.897
▁pizza	-11.897
▁píxe	-11.897
▁sintética	-11.897
▁tablet	-11.897
▁terapeuta	-11.897
▁titã	-11.897
▁vitamina	-11.897
▁voluntária	-11.897
▁vulnerabilidade	-11.897
▁Segui	-11.897
▁comunitária	-11.897
▁desgasta	-11.897
▁garante	-11.897
▁glândula	-11.897
▁pistola	-11.897
▁ambiciosa	-11.897
▁inconveniente	-11.897
▁intensivo	-11.897
▁link	-11.897
▁North	-11.897
▁despesa	-11.897
▁íntima	-11.897
▁bronze	-11.897
▁cabana	-11.897
▁deliciosa	-11.897
▁distinto	-11.897
▁etnia	-11.897
▁geometria	-11.897
▁péssimo	-11.897
▁correlação	-11.897
▁magnética	-11.897
▁scanner	-11.897
▁correspondência	-11.897
▁Black	-11.897
▁esponja	-11.897
conveniência	-11.897
▁Princeton	-11.897
▁visíveis	-11.897
▁fotográfica	-11.897
▁vagina	-11.897
▁guerreiro	-11.897
▁golpe	-11.897
▁traseira	-11.897
▁fotões	-11.897
▁obtido	-11.897
▁evolutiva	-11.897
▁comprei	-11.897
▁domingo	-11.8971
▁patologia	-11.8971
▁deparei	-11.8971
▁populacional	-11.8971
gipto	-11.8971
▁arqueólog	-11.8971
▁Design	-11.8971
▁confrontar	-11.8971
▁ocorrido	-11.8971
▁desprez	-11.8971
▁piano	-11.8971
shirt	-11.8971
▁sentença	-11.8971
▁Orle	-11.8971
▁diamante	-11.8971
▁encerra	-11.8971
▁dentista	-11.8971
▁impressionou	-11.8971
▁acalmar	-11.8971
▁sócio	-11.8971
▁roedor	-11.8971
rizon	-11.8971
tzman	-11.8971
▁replicar	-11.8971
▁recolhido	-11.8971
crâni	-11.8971
thur	-11.8972
▁recrutamento	-11.8972
▁Soviética	-11.8972
▁Desenvolvimento	-11.8972
▁aborrecida	-11.8972
▁picar	-11.8972
▁cristão	-11.8972
▁confiam	-11.8973
▁ramificações	-11.8973
minente	-11.8973
▁2020	-11.8973
▁Constituição	-11.8973
▁laranja	-11.8974
▁comprá	-11.8974
▁garantido	-11.8974
▁incómodo	-11.8974
▁fenomenal	-11.8974
▁Gronelândia	-11.8975
▁excedente	-11.8975
igan	-11.8975
▁martel	-11.8975
▁remo	-11.8975
▁mandato	-11.8976
▁sín	-11.8976
▁duna	-11.8977
▁camisa	-11.8977
ácte	-11.8977
▁ci	-11.8977
▁infantis	-11.8977
▁simular	-11.8977
▁ceder	-11.8977
▁homossexual	-11.8978
▁frustrante	-11.8978
▁criptografi	-11.8979
▁Prim	-11.8979
▁Verde	-11.898
▁codificador	-11.898
▁prejudicar	-11.898
▁84	-11.898
▁destinado	-11.898
▁inscrever	-11.898
▁fornecedores	-11.8981
ícia	-11.8981
▁observei	-11.8981
▁Bush	-11.8981
▁poluente	-11.8982
▁ajustar	-11.8982
▁prometeu	-11.8983
▁mensal	-11.8983
▁44	-11.8983
▁moldar	-11.8983
▁Filip	-11.8983
▁levantem	-11.8983
▁Leste	-11.8984
▁generalizada	-11.8985
▁levava	-11.8986
▁concebemos	-11.8986
âmbi	-11.8987
▁davam	-11.8987
▁exclusivamente	-11.8987
▁confiamos	-11.8987
▁frustração	-11.8988
▁danificada	-11.8989
▁52	-11.899
▁atómica	-11.899
▁invenções	-11.8991
▁controlada	-11.8992
▁palpite	-11.8992
▁inspirada	-11.8992
▁roubado	-11.8994
▁puniç	-11.8994
▁aglomerado	-11.8995
▁urbanizaç	-11.8995
▁farto	-11.8996
▁apanhada	-11.8996
▁ritual	-11.8996
▁imortal	-11.8997
▁arruma	-11.8997
▁anunciado	-11.8997
▁mostrámos	-11.8998
▁marco	-11.8999
▁mutante	-11.8999
▁apagar	-11.8999
▁Public	-11.9001
▁composta	-11.9001
▁eliminado	-11.9002
▁tornava	-11.9003
▁revelações	-11.9004
▁Ministro	-11.9005
▁regressou	-11.9006
▁programados	-11.9006
▁soubessem	-11.9007
▁informal	-11.9009
▁apresentada	-11.9009
▁vago	-11.9009
▁potenciar	-11.9011
▁algodão	-11.9013
▁Sher	-11.9015
▁interligada	-11.9015
▁selecç	-11.9017
▁crista	-11.9017
▁localizada	-11.9018
▁reden	-11.9019
▁levem	-11.9021
▁memoriz	-11.9023
▁credíve	-11.9024
▁urina	-11.9026
▁esmagadora	-11.9026
▁aceitamos	-11.9026
▁devastadora	-11.9026
▁identificado	-11.9027
▁plena	-11.9028
▁atira	-11.9028
fica	-11.9033
▁agressiva	-11.9033
▁descodificar	-11.9036
▁traumática	-11.9037
▁operadora	-11.9037
▁invoca	-11.9038
▁apoiado	-11.9039
▁recomendo	-11.9039
▁Amor	-11.9039
▁Tentá	-11.904
▁manobra	-11.9042
▁bota	-11.9042
▁amada	-11.9043
▁entrevistar	-11.9046
▁instalado	-11.9048
▁incert	-11.9048
▁hipo	-11.905
▁achá	-11.9054
ocol	-11.9055
▁requerer	-11.9056
▁falhado	-11.9056
▁redonda	-11.9057
▁Médico	-11.9058
sky	-11.9059
▁atraído	-11.9061
MM	-11.9061
tato	-11.9065
▁Oakl	-11.9065
arch	-11.9066
▁secundários	-11.9068
▁State	-11.9069
▁demoram	-11.9069
▁demonstr	-11.9071
tões	-11.9071
▁fá	-11.9072
▁embar	-11.9073
▁Turqu	-11.9075
lóri	-11.9079
▁Mard	-11.9081
▁alcançá	-11.9084
▁despertar	-11.9086
▁individualmente	-11.9087
ron	-11.909
▁permitiram	-11.9092
▁juntarem	-11.9095
cionais	-11.9097
lick	-11.9098
▁manhãs	-11.9101
▁abriram	-11.9103
▁vislumbre	-11.9105
▁implante	-11.9106
▁aumentado	-11.9111
▁eros	-11.9115
▁Passo	-11.9117
▁inspiradora	-11.9118
▁extremistas	-11.9122
▁assento	-11.9127
▁guardado	-11.9128
▁extremos	-11.9128
▁Ever	-11.9139
▁assustar	-11.9142
▁avanç	-11.9144
tirando	-11.9144
▁contamina	-11.9146
▁exigi	-11.9147
▁encontrada	-11.915
tados	-11.9155
▁Mac	-11.9161
her	-11.9161
nvolvente	-11.9163
▁Biologi	-11.9169
60	-11.917
▁doido	-11.917
▁compor	-11.9179
▁reunimos	-11.918
▁Seis	-11.9183
tur	-11.9186
▁preven	-11.9187
lec	-11.9188
rough	-11.9194
▁espetador	-11.92
▁viverem	-11.9203
▁importava	-11.9205
▁largar	-11.9206
▁mentor	-11.9208
▁aprofunda	-11.9213
mões	-11.9217
▁capacita	-11.9218
▁irre	-11.922
▁concretizar	-11.922
▁modificado	-11.9223
non	-11.923
▁marcante	-11.9232
▁quintas	-11.9235
▁dorme	-11.9235
ricat	-11.9239
▁Mostr	-11.9244
▁Pergunta	-11.9246
▁obterem	-11.9249
▁narrador	-11.9265
▁aprova	-11.9266
▁movimenta	-11.9272
nne	-11.9274
▁rejeitar	-11.9274
▁levarem	-11.9278
je	-11.9283
zer	-11.9286
▁praias	-11.9287
▁propenso	-11.9294
▁lat	-11.9299
▁qualidades	-11.9303
▁respeitar	-11.9306
operar	-11.9312
▁demónio	-11.9314
▁perigos	-11.9316
inger	-11.9316
more	-11.9322
logicamente	-11.9325
▁Lu	-11.9326
▁admirado	-11.9327
▁apag	-11.9329
▁bla	-11.9332
ota	-11.9333
ração	-11.9334
▁Mad	-11.9335
▁dali	-11.9337
▁ligarem	-11.9338
▁retiramo	-11.9345
gnóstico	-11.9347
confiança	-11.9348
heguei	-11.9354
ora	-11.936
cionar	-11.9363
▁gastam	-11.9365
▁tenda	-11.9367
roso	-11.9368
▁2.	-11.9369
▁gui	-11.9369
▁Tur	-11.9374
▁Deu	-11.9374
▁gan	-11.9378
▁reagi	-11.9381
▁interessadas	-11.9385
▁acusa	-11.9386
▁urbaniza	-11.9387
▁emergir	-11.9388
▁Nasce	-11.939
▁voam	-11.9397
Cash	-11.9401
▁desencade	-11.9412
▁My	-11.9412
▁tomado	-11.9414
inhos	-11.9422
pera	-11.9428
▁experienciar	-11.944
zinha	-11.9447
▁crie	-11.9449
▁arranha	-11.945
▁ret	-11.9453
▁luto	-11.9456
▁descrevemo	-11.9459
▁violentos	-11.946
▁dur	-11.9462
▁vinga	-11.9466
▁saía	-11.9472
erdão	-11.9475
ibilidade	-11.9476
▁mantenham	-11.9476
prima	-11.948
▁moram	-11.948
▁violaç	-11.9482
▁presumi	-11.9486
TC	-11.9489
▁colabor	-11.9492
▁ditado	-11.9498
▁tor	-11.9502
▁insul	-11.9508
▁use	-11.9515
▁transcri	-11.9517
▁Adora	-11.9522
▁primário	-11.9531
▁diagnosticado	-11.9535
20	-11.9536
▁grego	-11.9541
▁entendia	-11.9542
▁Sen	-11.9542
▁Floren	-11.9546
▁mete	-11.9546
▁urbanas	-11.9549
wei	-11.9549
▁convida	-11.955
▁Kin	-11.9551
▁Port	-11.9551
▁astronauta	-11.9552
ério	-11.9553
▁morcego	-11.9556
▁inseto	-11.9556
▁voluntário	-11.9557
▁Map	-11.9562
▁sobrevivente	-11.9562
▁Repar	-11.9566
▁refugiado	-11.9566
▁interessada	-11.9569
far	-11.9569
▁donos	-11.957
timo	-11.9571
plicações	-11.9571
ssola	-11.9576
icha	-11.9586
▁sentimo	-11.9592
▁tribos	-11.9592
▁Pensam	-11.9594
▁Ano	-11.9595
▁130	-11.9597
▁experimenta	-11.9601
▁passageiro	-11.9609
▁Rot	-11.9611
▁tratam	-11.9614
▁estabiliza	-11.9619
▁castig	-11.9619
▁generoso	-11.962
▁propens	-11.9624
▁acerta	-11.9626
▁Van	-11.9631
▁suponh	-11.9652
cima	-11.9657
▁pendura	-11.9658
mbia	-11.9659
▁Gi	-11.9666
▁flu	-11.9668
▁trazem	-11.9669
▁consideram	-11.9671
▁narra	-11.9674
▁assin	-11.9675
oby	-11.9676
▁Za	-11.9676
▁acender	-11.9678
▁Ku	-11.9679
▁reflecti	-11.9692
umentando	-11.9692
zinho	-11.9692
▁governado	-11.9695
▁faltava	-11.9697
▁erguer	-11.9706
gia	-11.9706
▁2.0	-11.9708
▁Usam	-11.9708
▁minimiza	-11.9709
▁ás	-11.9711
isco	-11.9712
rta	-11.9722
▁domin	-11.9724
firmou	-11.9725
▁ger	-11.9731
▁Kell	-11.9739
percebi	-11.9741
▁prega	-11.9743
ect	-11.9746
▁associar	-11.9751
▁frequências	-11.9755
▁Pre	-11.9758
▁treina	-11.976
▁escapa	-11.9761
▁medido	-11.9761
bit	-11.9762
▁avaliam	-11.9766
▁cheira	-11.9768
▁Sch	-11.9769
▁acústic	-11.9774
▁ajudem	-11.9774
▁operado	-11.9776
▁configuraç	-11.978
pé	-11.978
▁Zi	-11.9781
▁encara	-11.9783
otel	-11.9783
▁desempenha	-11.9783
▁voltaria	-11.9784
▁promete	-11.9787
▁alimentam	-11.9789
▁Ob	-11.9795
▁Rebe	-11.9796
▁seguimo	-11.9801
▁contado	-11.9803
▁gostem	-11.9805
▁observador	-11.9811
▁descem	-11.9812
▁geo	-11.9814
▁intra	-11.9815
▁permitia	-11.9816
pur	-11.982
▁tip	-11.982
▁Mich	-11.9821
▁ferr	-11.9821
▁repor	-11.9824
est	-11.9824
▁regenera	-11.9829
▁arranca	-11.9832
▁erradica	-11.9832
▁costuma	-11.9833
deus	-11.9845
▁sensibiliza	-11.9847
▁permiti	-11.9855
▁envelhece	-11.9856
ixar	-11.9864
▁contemporâne	-11.9868
vaz	-11.9868
▁tomarem	-11.9871
▁Venha	-11.9873
ótica	-11.9876
▁pesar	-11.9876
▁pinta	-11.9877
▁bloquei	-11.9878
▁exponencia	-11.988
▁vo	-11.9882
▁racional	-11.9884
jor	-11.9888
drena	-11.9889
excremento	-11.9891
estrada	-11.9891
Y	-11.9892
carregar	-11.9898
▁síri	-11.9903
▁surpreende	-11.9903
aqui	-11.9906
▁general	-11.9908
▁bal	-11.9909
▁expandi	-11.9921
▁administraç	-11.9923
▁pra	-11.9923
▁despedid	-11.9925
▁900	-11.9927
mag	-11.9934
▁perfei	-11.9934
▁inc	-11.9934
▁Cas	-11.9934
▁pomo	-11.9934
FL	-11.9935
▁Ce	-11.9936
▁protetor	-11.9937
▁apercebem	-11.9937
▁sintetiza	-11.9939
▁permita	-11.994
▁aptid	-11.9944
▁prende	-11.9946
▁ondula	-11.9946
▁comun	-11.9952
▁coloco	-11.9959
▁espanto	-11.9961
vinda	-11.9962
▁Inici	-11.9963
mínio	-11.9964
▁particip	-11.9965
▁reforçar	-11.9966
▁feminis	-11.9966
lfabeto	-11.9967
,3	-11.9969
▁skate	-11.9969
▁embalage	-11.997
▁alivia	-11.997
▁fluoresc	-11.997
strume	-11.997
▁Rapaz	-11.997
▁apicultor	-11.997
légio	-11.997
ñ	-11.997
▁Audiência	-11.997
▁Geogra	-11.997
▁Hospita	-11.997
▁LOLcat	-11.997
▁Líbano	-11.997
▁Rachel	-11.997
▁System	-11.997
▁Trouxe	-11.997
▁académica	-11.997
▁alarmante	-11.997
▁anomalia	-11.997
▁atribuída	-11.997
▁bancária	-11.997
▁bancário	-11.997
▁brasileiro	-11.997
▁cancerígenas	-11.997
▁clássica	-11.997
▁dispendioso	-11.997
▁distingue	-11.997
▁enxaqueca	-11.997
▁esboço	-11.997
▁estrangeira	-11.997
▁exagero	-11.997
▁fabuloso	-11.997
▁faísca	-11.997
▁fiscais	-11.997
▁formidáve	-11.997
▁gaveta	-11.997
▁genérico	-11.997
▁hectare	-11.997
▁iPod	-11.997
▁impotente	-11.997
▁infeciosa	-11.997
▁inseguro	-11.997
▁instintiva	-11.997
▁intacto	-11.997
▁introspe	-11.997
▁jitney	-11.997
▁metodologia	-11.997
▁modesto	-11.997
▁monumento	-11.997
▁obcecada	-11.997
▁obsoleto	-11.997
▁quimioterapia	-11.997
▁rasteja	-11.997
▁ridiculariza	-11.997
▁titâni	-11.997
▁transborda	-11.997
▁urânio	-11.997
▁visitei	-11.997
▁xamã	-11.997
▁Ótim	-11.997
▁carruage	-11.997
▁depósito	-11.997
▁desportivo	-11.997
▁duradoura	-11.997
▁enraizada	-11.997
▁envelope	-11.997
▁gravitacionais	-11.997
▁mamute	-11.997
▁pontinho	-11.997
▁quadrada	-11.997
▁remessa	-11.997
▁watt	-11.997
▁Tribun	-11.997
▁desculpem	-11.997
▁geográfica	-11.997
▁legenda	-11.997
▁legitim	-11.997
▁rejeiç	-11.997
▁sensata	-11.997
▁sueco	-11.997
▁crocodilo	-11.997
▁maquina	-11.997
▁miúda	-11.997
▁retrospe	-11.997
▁tampa	-11.997
▁Stuxne	-11.997
▁horrorizada	-11.997
▁nerd	-11.997
▁pilares	-11.997
▁característico	-11.997
▁conveniente	-11.997
▁melodia	-11.997
▁Titan	-11.997
▁estética	-11.997
▁rigoroso	-11.997
▁Natural	-11.997
▁repito	-11.997
▁adormece	-11.997
▁Litera	-11.997
▁Sistema	-11.997
▁converg	-11.997
▁japonesa	-11.997
▁solitária	-11.997
▁violino	-11.997
▁predominante	-11.997
▁retalho	-11.997
▁turista	-11.997
▁aplaudir	-11.997
▁Micro	-11.997
▁cinza	-11.997
▁encosta	-11.997
▁trivial	-11.997
▁comediante	-11.997
▁jato	-11.997
▁esparg	-11.9971
▁barbeiro	-11.9971
▁Victor	-11.9971
▁Roger	-11.9971
▁bancada	-11.9971
▁girafa	-11.9971
óide	-11.9971
▁protestar	-11.9971
▁instância	-11.9971
▁ciclista	-11.9971
▁Islândia	-11.9971
▁intermédi	-11.9971
▁inverter	-11.9971
▁porreiro	-11.9971
▁modula	-11.9971
▁perdão	-11.9971
▁cabina	-11.9971
▁válido	-11.9971
▁seleciona	-11.9971
▁rebentar	-11.9971
▁punho	-11.9971
▁descendente	-11.9971
haga	-11.9971
atidão	-11.9971
▁Reserv	-11.9971
▁disfunciona	-11.9972
▁Walter	-11.9972
▁digna	-11.9972
▁Visua	-11.9972
▁elaborada	-11.9972
▁Insta	-11.9972
▁contactar	-11.9972
▁rolar	-11.9972
▁Demora	-11.9972
▁parafuso	-11.9973
▁barro	-11.9973
▁Donna	-11.9973
▁alucinações	-11.9973
▁Coisa	-11.9973
▁1,3	-11.9973
▁aluna	-11.9973
▁picada	-11.9973
▁Levou	-11.9973
▁cabra	-11.9973
▁reduzindo	-11.9973
▁treta	-11.9973
▁pigmenta	-11.9973
▁reconhecido	-11.9973
▁memorizar	-11.9974
▁sugestão	-11.9974
▁Costumava	-11.9974
▁manada	-11.9974
▁latina	-11.9974
▁regulamento	-11.9974
▁almofada	-11.9974
▁66	-11.9975
▁substancial	-11.9975
▁Kent	-11.9975
▁tambor	-11.9975
▁morada	-11.9975
▁Cooper	-11.9975
▁salientar	-11.9976
▁Home	-11.9976
brisa	-11.9976
ntrámos	-11.9976
▁calma	-11.9976
▁papaia	-11.9976
▁qualificado	-11.9977
▁Ensino	-11.9977
▁Fey	-11.9977
▁calc	-11.9977
▁Raz	-11.9978
osfera	-11.9978
egon	-11.9978
▁Mat	-11.9979
▁tangível	-11.9979
▁Cabe	-11.9979
▁BB	-11.9979
▁excecional	-11.9979
▁Peer	-11.9979
▁simplificar	-11.998
íbli	-11.9981
▁lápi	-11.9981
nsações	-11.9981
▁Pap	-11.9981
▁livraria	-11.9981
▁zoom	-11.9982
▁funcionalidade	-11.9982
▁Ficou	-11.9982
▁cerco	-11.9983
▁Olhei	-11.9983
▁irracional	-11.9983
▁pêlo	-11.9983
▁Tee	-11.9983
▁Deah	-11.9985
▁restrita	-11.9985
▁filtrar	-11.9985
▁Drea	-11.9986
▁consultor	-11.9987
▁arriscada	-11.9987
▁conduziu	-11.9987
▁Usei	-11.9988
▁ardente	-11.9989
▁fecho	-11.9989
▁esforçar	-11.9989
▁Q	-11.9989
▁coreano	-11.9989
▁superficial	-11.9989
▁aprendam	-11.9989
▁implementado	-11.999
▁esquecido	-11.999
óli	-11.999
▁estabelecida	-11.9991
▁desligada	-11.9992
▁compulsiv	-11.9992
▁inventada	-11.9992
▁envolvendo	-11.9993
▁transmitido	-11.9993
▁animada	-11.9994
▁atribuir	-11.9994
▁retirada	-11.9994
▁comprometido	-11.9995
▁dica	-11.9995
▁competente	-11.9995
▁coer	-11.9995
▁Maslow	-11.9995
▁explicações	-11.9996
▁diplomata	-11.9996
▁pertença	-11.9996
cunha	-11.9996
▁Ted	-11.9997
▁enquadra	-11.9997
▁zonamento	-11.9999
ilha	-11.9999
▁vivida	-12
▁bambo	-12.0001
▁Reparei	-12.0002
▁pata	-12.0003
▁colocando	-12.0004
▁citações	-12.0005
▁Envolve	-12.0005
▁alimentada	-12.0005
▁combinações	-12.0005
▁obrigar	-12.0006
▁genial	-12.0006
▁an	-12.0006
▁interligar	-12.0007
▁angari	-12.0008
▁Minha	-12.0008
▁Matt	-12.001
▁roubada	-12.001
▁Bat	-12.0012
▁necessitam	-12.0014
▁Perguntem	-12.0014
▁transferido	-12.0015
▁envelhecemos	-12.0015
▁avi	-12.0016
▁corrigi	-12.0016
▁inundado	-12.0017
▁namorado	-12.0017
▁inversa	-12.0017
▁dirigida	-12.0018
▁obscuro	-12.002
▁bato	-12.002
▁emitir	-12.0021
▁flutuação	-12.0023
▁agarrado	-12.0023
anical	-12.0025
▁insulto	-12.0026
▁moleculares	-12.0026
vida	-12.0026
▁imaginam	-12.0029
▁valia	-12.0031
▁exacto	-12.0031
▁combinam	-12.0032
▁Continu	-12.0033
▁dirá	-12.0034
▁patr	-12.0034
▁fil	-12.0034
▁convenciona	-12.0035
▁Pública	-12.0035
▁danifica	-12.0035
▁Net	-12.0036
▁agregado	-12.0038
▁ridícula	-12.0041
▁tolo	-12.0041
▁pesquisas	-12.0041
▁regular	-12.0044
▁aluguer	-12.0045
▁cortaram	-12.0046
▁transformadora	-12.0049
▁Marco	-12.0054
gramas	-12.0054
▁entendam	-12.0055
▁25.	-12.006
▁amarra	-12.0061
▁aceitaram	-12.0063
aticamente	-12.0063
▁guardada	-12.0063
▁excel	-12.0065
▁ficasse	-12.0067
▁necessitamos	-12.0068
▁lidamos	-12.0069
ratória	-12.007
▁Hama	-12.0073
▁devesse	-12.0073
▁perturbador	-12.0076
ué	-12.008
▁interrompe	-12.0083
dson	-12.0085
▁embri	-12.0085
preender	-12.0089
▁aero	-12.0094
▁Novo	-12.0097
▁Adicion	-12.0099
esta	-12.0099
▁enviaram	-12.0102
▁calcul	-12.0102
llo	-12.0102
▁alinha	-12.0104
▁Elv	-12.0105
▁suín	-12.0109
▁duvida	-12.011
▁gozar	-12.0111
▁Bio	-12.0114
▁atua	-12.0114
morei	-12.0126
▁escal	-12.0133
▁recrutar	-12.0137
▁bolsos	-12.0138
▁admiráve	-12.014
▁electrónico	-12.0141
▁Federa	-12.0146
obra	-12.0148
▁Gold	-12.0151
▁unido	-12.0156
▁Voltemo	-12.0161
▁St	-12.0161
onia	-12.0165
▁informados	-12.0166
▁reclama	-12.0167
▁erradicar	-12.0169
▁Fazia	-12.0171
▁fluir	-12.0178
fundei	-12.018
▁Domingos	-12.018
ixo	-12.0181
▁falaram	-12.0182
▁amb	-12.0183
▁mur	-12.0184
▁desperdícios	-12.0185
▁materna	-12.0188
tic	-12.0189
▁marcador	-12.0191
▁350	-12.0193
▁Post	-12.0194
▁Arm	-12.0194
▁morador	-12.0196
▁bloqueia	-12.0198
cente	-12.0203
▁anca	-12.0208
▁Deveria	-12.021
▁mostrada	-12.0214
▁escreveram	-12.0222
▁florescer	-12.0227
▁mangas	-12.0228
▁admiti	-12.0229
▁programada	-12.023
▁reformula	-12.023
▁Freu	-12.023
▁procurava	-12.0242
▁perseguido	-12.0245
rack	-12.0246
▁magoa	-12.0248
▁77	-12.0251
▁recordo	-12.0257
▁condutora	-12.0257
▁saia	-12.026
▁investigadora	-12.0264
▁Cho	-12.0266
▁Tratava	-12.0267
▁portal	-12.027
rit	-12.028
gy	-12.028
▁But	-12.0293
tórias	-12.0296
low	-12.0297
▁mili	-12.0307
ask	-12.0309
▁Berl	-12.0309
▁Volta	-12.0316
▁instal	-12.0316
▁Digam	-12.0319
▁conheçam	-12.0323
▁tocava	-12.0328
▁elevadas	-12.033
▁tente	-12.0333
▁respondem	-12.0345
▁infiltra	-12.0347
▁Carlo	-12.0349
int	-12.035
▁dominado	-12.0351
ble	-12.0353
▁caracteriza	-12.0357
cionado	-12.0358
▁Utiliz	-12.036
▁escolheria	-12.0362
▁chor	-12.0363
▁leg	-12.0365
▁Dal	-12.037
▁revel	-12.0379
▁cente	-12.038
▁Harle	-12.0381
ers	-12.0389
▁acabava	-12.0402
▁levada	-12.0411
ilar	-12.0411
▁aud	-12.0414
▁molde	-12.0416
▁gregos	-12.0419
▁digest	-12.042
▁Marc	-12.0423
▁Olhe	-12.0424
▁forçada	-12.0429
volução	-12.0434
▁Percebem	-12.0435
▁cu	-12.0438
▁pescador	-12.0445
▁joga	-12.0456
imi	-12.0462
▁trem	-12.0465
batido	-12.0465
▁administrar	-12.0468
▁viajam	-12.0469
94	-12.0476
▁democracias	-12.0481
▁mon	-12.0483
▁MS	-12.0486
▁aterr	-12.0492
▁urbanis	-12.0501
dis	-12.0512
▁arquivos	-12.0518
▁esconde	-12.0523
▁Vie	-12.0533
▁mu	-12.0536
▁Fund	-12.054
▁Mala	-12.0562
deste	-12.0564
bed	-12.0577
ufas	-12.0585
▁documenta	-12.0587
▁animados	-12.0589
▁abria	-12.0592
fus	-12.0593
egr	-12.0594
▁remix	-12.0595
▁impress	-12.0607
▁Desenh	-12.0611
▁Pedir	-12.0615
▁agradáve	-12.0618
▁libertam	-12.0621
RS	-12.0625
pacto	-12.0634
▁estrat	-12.0639
▁Pegue	-12.0646
▁cemitério	-12.0646
▁Bon	-12.0648
▁fatia	-12.065
▁alg	-12.0655
ace	-12.0659
▁humanitários	-12.0664
▁empréstimo	-12.0664
▁disposto	-12.0667
▁clínico	-12.0667
▁cêntimo	-12.0671
▁copia	-12.0673
▁idoso	-12.0678
▁transportam	-12.0684
▁Ficar	-12.0686
▁extraterrestre	-12.0687
▁acrescent	-12.0688
▁confiáve	-12.0691
▁submete	-12.0702
▁Han	-12.0709
▁admit	-12.0719
06	-12.072
▁suporta	-12.0725
▁delega	-12.0728
grama	-12.0734
conforto	-12.0735
▁tripl	-12.074
▁realizado	-12.0741
▁tortura	-12.0745
▁concentra	-12.0745
entos	-12.0745
▁duplica	-12.075
rico	-12.0751
▁pesquis	-12.0753
▁testámo	-12.0754
▁Don	-12.0764
▁recria	-12.0769
▁dividi	-12.0771
ugu	-12.0771
ny	-12.0772
▁pense	-12.0773
▁semi	-12.0781
▁capt	-12.0781
▁reparam	-12.0781
▁cit	-12.0782
▁experiencia	-12.0782
▁quererem	-12.0785
▁seguia	-12.0792
▁Bus	-12.0794
▁ob	-12.08
▁descol	-12.0802
▁evolu	-12.0808
cóci	-12.0811
ruz	-12.0817
▁ameaçar	-12.0821
▁foguet	-12.0825
▁Mei	-12.0826
▁ocorr	-12.0826
▁ganharem	-12.0828
▁candidata	-12.0841
▁completar	-12.0846
▁tornamo	-12.0848
▁cultiva	-12.0849
▁acontecera	-12.0849
▁detri	-12.0851
grado	-12.0852
▁relacionam	-12.0854
▁arranj	-12.0856
icina	-12.0859
▁voa	-12.086
ek	-12.0861
▁formula	-12.0864
ín	-12.0864
▁desliza	-12.0871
reca	-12.0872
versa	-12.0872
ash	-12.0876
▁procure	-12.0876
▁sondage	-12.088
▁Lis	-12.0881
anhar	-12.0883
▁modern	-12.0886
▁sabi	-12.0887
teís	-12.0893
▁aprecia	-12.0902
tric	-12.0904
▁acreditarem	-12.0912
▁Has	-12.0918
▁apontam	-12.0918
▁salvado	-12.093
▁Bear	-12.0931
ón	-12.0933
▁embaixador	-12.0933
▁electrónic	-12.0936
éli	-12.0937
▁chamem	-12.094
▁Algum	-12.0941
▁profund	-12.0944
ED	-12.095
▁levámo	-12.0951
▁Will	-12.0951
▁higien	-12.0957
97	-12.0957
▁bó	-12.096
▁internos	-12.096
▁clic	-12.0962
ebra	-12.0964
▁transmiti	-12.0964
▁abusos	-12.0966
47	-12.0966
▁adv	-12.0967
Q	-12.0968
primas	-12.0968
▁Pal	-12.097
▁enviamo	-12.0976
▁ilus	-12.0978
▁contribuí	-12.0983
▁infla	-12.099
▁Usar	-12.0993
less	-12.0994
▁reconheç	-12.0995
fobia	-12.0999
escolar	-12.1
unho	-12.1001
▁Padr	-12.1002
nascido	-12.1002
elite	-12.1003
campo	-12.1003
célula	-12.1004
▁aquece	-12.1005
▁cortado	-12.1006
▁hip	-12.1014
▁conv	-12.1015
espacial	-12.1018
▁barcos	-12.1018
▁frustra	-12.1021
▁explorado	-12.1021
RN	-12.1023
jeito	-12.1032
▁anua	-12.1032
▁universa	-12.1033
dar	-12.1037
▁recebia	-12.1037
nsin	-12.104
▁incomoda	-12.1049
▁estrangeiros	-12.1049
▁adivinh	-12.105
venida	-12.105
▁repete	-12.1052
▁fascina	-12.1052
▁caix	-12.1053
▁intimida	-12.1055
▁distancia	-12.1059
▁otimiza	-12.1062
▁lembrava	-12.1062
▁tratá	-12.1064
▁pormenor	-12.1065
▁estudamo	-12.1067
▁abandono	-12.1067
▁saír	-12.1068
▁interfaces	-12.1068
▁turmas	-12.1068
▁úte	-12.1069
▁impossíve	-12.1069
▁Torna	-12.1069
▁imagi	-12.1073
▁have	-12.1073
ubble	-12.1073
▁fasc	-12.1074
▁debater	-12.1076
▁vigor	-12.1077
▁Fico	-12.1077
▁telefonar	-12.1079
▁lucra	-12.108
fortuna	-12.108
▁horror	-12.1081
nglês	-12.1081
▁bilhete	-12.1081
▁propuls	-12.1081
▁holand	-12.1081
▁Hiroshi	-12.1081
▁infravermelh	-12.1081
▁miniaturiza	-12.1081
▁Especial	-12.1081
▁Maravilha	-12.1081
▁esclarecer	-12.1081
▁tartaruga	-12.1081
telecomunicações	-12.1081
	-12.1081
’	-12.1081
▁Aeroporto	-12.1081
▁Beatbox	-12.1081
▁Cameron	-12.1081
▁Cidadão	-12.1081
▁Desenvolve	-12.1081
▁Economia	-12.1081
▁Esqueci	-12.1081
▁FBI	-12.1081
▁Fantástic	-12.1081
▁OPEP	-12.1081
▁Permitam	-12.1081
▁Pesquisa	-12.1081
▁Photos	-12.1081
▁Quântic	-12.1081
▁Snowden	-12.1081
▁ambiguidade	-12.1081
▁amígdala	-12.1081
▁apanhou	-12.1081
▁beijo	-12.1081
▁borboleta	-12.1081
▁circo	-12.1081
▁cobarde	-12.1081
▁colisões	-12.1081
▁consoante	-12.1081
▁cósmica	-12.1081
▁descansar	-12.1081
▁dificil	-12.1081
▁elástica	-12.1081
▁empreendimento	-12.1081
▁escândalo	-12.1081
▁espécime	-12.1081
▁estratégico	-12.1081
▁exclusão	-12.1081
▁explode	-12.1081
▁fachada	-12.1081
▁filosófico	-12.1081
▁fósforo	-12.1081
▁gigawatt	-12.1081
▁inaceitáve	-12.1081
▁indiferente	-12.1081
▁intacta	-12.1081
▁intrínseca	-12.1081
▁microscópico	-12.1081
▁oferecida	-12.1081
▁oftalmologista	-12.1081
▁pacífica	-12.1081
▁pastilha	-12.1081
▁portugues	-12.1081
▁prematura	-12.1081
▁repleto	-12.1081
▁robótico	-12.1081
▁rígida	-12.1081
▁rótulo	-12.1081
▁sanitário	-12.1081
▁tesouro	-12.1081
▁tímida	-12.1081
▁tímido	-12.1081
▁ultima	-12.1081
▁visceral	-12.1081
▁vácuo	-12.1081
▁Âng	-12.1081
▁Índic	-12.1081
▁árbitro	-12.1081
è	-12.1081
▁Brancotopia	-12.1081
▁aéreo	-12.1081
▁cenoura	-12.1081
▁cúbico	-12.1081
▁engrenage	-12.1081
▁microscópica	-12.1081
▁partilhei	-12.1081
▁precursor	-12.1081
▁simboliza	-12.1081
▁Connect	-12.1081
▁Telescópio	-12.1081
▁Toyota	-12.1081
▁gafanhoto	-12.1081
▁pertencia	-12.1081
▁Jefferson	-12.1081
▁capacete	-12.1081
▁colaborativa	-12.1081
▁detergente	-12.1081
▁mapeamento	-12.1081
▁suborno	-12.1081
▁ultravioleta	-12.1081
▁despeja	-12.1081
▁finito	-12.1081
▁impensáve	-12.1081
▁linguística	-12.1081
▁polegar	-12.1081
▁precauç	-12.1081
▁statu	-12.1081
▁adjacente	-12.1081
▁miseráve	-12.1081
▁latrina	-12.1081
▁psicossocia	-12.1081
▁multicultura	-12.1081
▁íntimo	-12.1081
▁Isabel	-12.1081
▁centavo	-12.1081
▁cabine	-12.1081
▁tarte	-12.1081
▁gangue	-12.1081
▁quieta	-12.1081
▁Barb	-12.1081
▁virtuoso	-12.1081
▁lamenta	-12.1081
▁Show	-12.1081
▁adversário	-12.1081
▁moderada	-12.1081
iblioteca	-12.1082
▁insegurança	-12.1082
▁recolhida	-12.1082
▁carrinho	-12.1082
▁prejudicial	-12.1082
▁Anima	-12.1082
▁soletra	-12.1082
▁autoestima	-12.1082
▁mantida	-12.1082
▁cessar	-12.1082
▁praga	-12.1082
▁mandou	-12.1082
▁oiçam	-12.1082
▁imune	-12.1082
▁purifica	-12.1082
▁signo	-12.1082
▁Hawking	-12.1082
▁mandei	-12.1082
▁partitura	-12.1082
▁temporária	-12.1082
▁espinha	-12.1082
▁interativa	-12.1082
▁modalidade	-12.1082
▁imã	-12.1082
▁reconciliaç	-12.1082
▁veado	-12.1082
▁trili	-12.1082
▁pontapé	-12.1082
▁feto	-12.1082
▁balc	-12.1082
▁Ferm	-12.1082
▁revolucionária	-12.1083
▁pomar	-12.1083
▁possuía	-12.1083
▁Israelita	-12.1083
▁movido	-12.1083
▁LED	-12.1083
▁ciclovia	-12.1083
▁substituto	-12.1083
▁mastiga	-12.1083
▁potente	-12.1083
▁facial	-12.1083
▁hostilidade	-12.1083
▁Wave	-12.1083
▁Metro	-12.1083
▁pára	-12.1083
▁sujo	-12.1083
▁extinto	-12.1084
▁Rock	-12.1084
▁levantei	-12.1084
▁bombista	-12.1084
▁reivindica	-12.1084
▁simplista	-12.1084
çamb	-12.1084
▁juntei	-12.1084
▁soft	-12.1085
▁freira	-12.1085
▁abstracta	-12.1085
▁repercuss	-12.1085
▁autorizado	-12.1085
▁1912	-12.1085
▁Patric	-12.1085
▁libra	-12.1085
▁1997	-12.1086
▁expor	-12.1086
▁mantendo	-12.1086
▁inventámos	-12.1086
▁Passaram	-12.1087
▁Stone	-12.1087
▁Brexit	-12.1087
▁consequente	-12.1087
▁primitiva	-12.1087
▁gerou	-12.1087
▁consultoria	-12.1088
▁mantiveram	-12.1088
▁Tune	-12.1088
▁White	-12.1088
▁subsarian	-12.1088
▁ligou	-12.1088
▁poça	-12.1089
▁US	-12.1089
▁represento	-12.1089
▁matem	-12.1089
▁alterou	-12.1089
▁garantida	-12.109
▁Governo	-12.109
imunidade	-12.109
▁gorda	-12.109
▁sistemática	-12.109
▁bimet	-12.109
▁ensinamento	-12.1091
▁Perguntou	-12.1092
ddie	-12.1092
▁Noite	-12.1092
▁analista	-12.1092
▁aterrorizado	-12.1093
▁desenrolar	-12.1093
▁gelat	-12.1093
▁entregou	-12.1093
▁dedicada	-12.1093
▁sensoriais	-12.1094
▁perseguição	-12.1094
▁Sobre	-12.1094
▁arranjou	-12.1095
▁desfavorecid	-12.1095
▁azeit	-12.1095
▁retro	-12.1095
ibera	-12.1096
▁derrubar	-12.1097
▁substituída	-12.1097
▁rejeitado	-12.1099
▁colorida	-12.11
▁multiplicar	-12.1101
▁desconforto	-12.1102
▁coca	-12.1102
▁conectado	-12.1103
▁assassinada	-12.1104
▁linfático	-12.1104
▁nomeada	-12.1104
▁gatinho	-12.1104
cidades	-12.1104
▁calado	-12.1105
▁Int	-12.1105
▁métrica	-12.1106
▁dominada	-12.1106
▁aproveitador	-12.1106
▁acostumado	-12.1107
▁faceta	-12.1107
▁cientifica	-12.1107
▁generalizado	-12.1107
▁alojamento	-12.1107
▁competitiva	-12.1108
▁Deli	-12.1108
▁Chamaram	-12.1109
▁documentado	-12.1109
cél	-12.1109
▁montada	-12.111
▁71	-12.1111
▁gerido	-12.1111
▁desconfortáveis	-12.1111
▁transmitida	-12.1111
▁barulhento	-12.1111
▁corrupto	-12.1111
▁Robin	-12.1112
▁ín	-12.1112
▁Aprende	-12.1113
▁pneumo	-12.1113
▁arsena	-12.1113
▁culpada	-12.1115
▁Simon	-12.1116
▁ignorante	-12.1117
▁divino	-12.1119
▁refleti	-12.1119
mediatamente	-12.112
▁treinada	-12.1121
percebê	-12.1121
▁relvado	-12.1121
▁planeia	-12.1122
▁incluído	-12.1123
▁best	-12.1124
▁acciona	-12.1124
▁repetidamente	-12.1124
▁76	-12.1125
▁amarrado	-12.1126
▁explorada	-12.1126
gras	-12.1127
▁reunido	-12.1127
▁amado	-12.1128
▁oferecem	-12.113
▁levei	-12.1131
ward	-12.1133
▁adot	-12.1133
▁Luca	-12.1133
▁verbo	-12.1133
▁migrante	-12.1135
▁manifestação	-12.1135
▁parlamento	-12.1136
▁cobrar	-12.1136
▁DM	-12.1137
▁comido	-12.1139
▁IP	-12.114
gelada	-12.114
▁Jose	-12.1141
▁codificada	-12.1141
▁Rua	-12.1141
▁sê	-12.1142
▁abstrata	-12.1143
▁cruzada	-12.1143
▁tirado	-12.1143
▁inimagináve	-12.1146
▁enfrent	-12.1148
▁ocupada	-12.1149
▁encantadora	-12.115
uíç	-12.1153
▁levantaram	-12.1154
▁May	-12.1154
▁sincero	-12.1154
▁explosivo	-12.1156
▁Free	-12.1156
▁Terá	-12.1157
▁Hei	-12.1157
▁vencedora	-12.1158
▁obedecer	-12.1158
▁revelam	-12.1159
▁movia	-12.1159
▁amante	-12.116
lins	-12.116
▁Suponham	-12.1161
▁feridos	-12.1161
▁ativamente	-12.1162
▁apertar	-12.1163
▁ventilado	-12.1163
▁fobia	-12.1164
▁queixar	-12.1165
▁falharam	-12.1168
▁contei	-12.1168
▁Olímpico	-12.1169
▁agradeço	-12.1169
Car	-12.1171
▁combinada	-12.1171
▁raciocina	-12.1172
▁integral	-12.1173
▁volto	-12.1174
lah	-12.1175
▁concluí	-12.1175
óru	-12.1177
▁operam	-12.1177
▁duvido	-12.1177
▁aperceberam	-12.1178
quez	-12.1178
▁observámos	-12.1178
▁governante	-12.1185
▁Deste	-12.1186
▁ub	-12.1187
▁armazenado	-12.1188
egas	-12.119
ariana	-12.1191
▁integrada	-12.1191
wire	-12.1192
▁nutritiv	-12.1195
▁digitalizar	-12.1197
▁adaptado	-12.12
▁enriqueci	-12.1201
▁aterrador	-12.1201
mida	-12.1202
▁baseiam	-12.1206
ian	-12.1207
▁estadia	-12.1207
▁sugerem	-12.1207
▁acrescento	-12.1208
▁realçar	-12.1213
áculo	-12.1215
▁brav	-12.1217
▁mergulhador	-12.122
▁especialidade	-12.122
▁Olh	-12.1222
▁normalidade	-12.1225
▁Mes	-12.1231
▁simulado	-12.1232
▁deficiente	-12.1233
▁resiste	-12.1233
mografia	-12.1239
▁regiona	-12.124
pit	-12.1245
▁proporcional	-12.1248
▁tremor	-12.1249
▁quilo	-12.1249
dicação	-12.125
▁depositar	-12.125
right	-12.1251
▁74	-12.1252
▁aquático	-12.1255
▁lembrarem	-12.1257
▁Vale	-12.1258
▁compreensíve	-12.126
▁Dav	-12.1264
▁transformaram	-12.1264
▁Civis	-12.1265
▁intermediários	-12.1266
▁Kit	-12.1267
▁matá	-12.1269
▁misturada	-12.1274
▁Colocamos	-12.1274
▁Multi	-12.1274
▁escrevam	-12.1275
▁amam	-12.1292
▁abranda	-12.1292
▁reforço	-12.1297
▁acre	-12.1299
▁termino	-12.13
▁confirmar	-12.1305
▁tentação	-12.1305
▁Alta	-12.1308
▁arame	-12.1308
▁mero	-12.1308
▁sin	-12.131
▁gal	-12.1314
▁foguete	-12.1316
▁ful	-12.1317
▁psiquiátricos	-12.1318
▁lucrativos	-12.1318
▁fertilizantes	-12.132
ory	-12.1323
▁variada	-12.1324
▁cicatrize	-12.1328
▁virado	-12.1334
▁restaurar	-12.1344
▁nua	-12.1345
▁embeleza	-12.1346
▁virá	-12.1351
▁fino	-12.1356
▁candidatar	-12.1363
▁incomodar	-12.1369
▁off	-12.137
chu	-12.1379
▁deixo	-12.1381
▁Aceit	-12.1387
ex	-12.1391
▁operador	-12.1396
▁instrutor	-12.1398
▁aterra	-12.1399
▁ne	-12.14
▁perguntado	-12.14
▁gest	-12.1403
ped	-12.1404
▁misturam	-12.1408
▁reflectir	-12.1414
▁soava	-12.1414
▁enfia	-12.1417
▁sup	-12.1418
▁lut	-12.1423
iel	-12.1424
▁pressupostos	-12.1425
▁Humanos	-12.1425
oeiro	-12.1427
▁mentalmente	-12.1427
▁instantes	-12.1437
▁pague	-12.1438
▁acert	-12.1441
▁julgar	-12.1441
▁pla	-12.1448
bbie	-12.1448
▁Querid	-12.1449
▁lutam	-12.1463
▁carreiras	-12.1465
EM	-12.1466
▁previ	-12.1467
▁cala	-12.1477
▁cumpri	-12.1483
▁medidor	-12.1487
▁bani	-12.1493
▁geologi	-12.1499
▁Organizaç	-12.1505
▁exp	-12.1507
▁Conhecemo	-12.1513
ence	-12.1515
▁atirador	-12.1518
▁restaura	-12.1518
ish	-12.1524
▁fuma	-12.1532
noite	-12.1532
▁encripta	-12.1533
ock	-12.1535
▁Bin	-12.1536
▁tentasse	-12.1539
ala	-12.1542
▁recusar	-12.1542
tica	-12.1543
▁preve	-12.1544
ulho	-12.1545
▁Ponham	-12.1547
Fi	-12.1548
▁alteram	-12.155
puta	-12.156
▁render	-12.1564
▁explor	-12.1572
▁morremos	-12.1575
▁arrastar	-12.1575
▁Tenh	-12.1576
ted	-12.1586
▁testá	-12.1587
▁conquistar	-12.1598
▁dinâmicas	-12.1599
zinhos	-12.1602
▁Pra	-12.1603
port	-12.1605
▁funcionais	-12.1612
▁salvador	-12.1614
▁descarrega	-12.1615
▁sofr	-12.1621
▁Pic	-12.1623
▁reformas	-12.1632
▁receberia	-12.1632
▁actua	-12.1636
▁Ande	-12.1638
▁galerias	-12.1642
▁pequeninas	-12.1642
▁adquiri	-12.1643
▁presum	-12.1652
▁potências	-12.1653
▁referências	-12.1653
nismo	-12.1656
voz	-12.1657
▁comportam	-12.1662
▁impe	-12.1666
órdio	-12.1674
▁impulsionar	-12.1675
ombros	-12.168
▁prima	-12.168
▁Pres	-12.1681
iti	-12.1682
▁entendi	-12.1693
▁acusado	-12.1697
▁corajosas	-12.1697
orden	-12.1698
▁juntem	-12.17
lk	-12.1701
▁Receb	-12.1703
dico	-12.1703
▁Encontramo	-12.1704
scolhi	-12.1704
icks	-12.1716
cioso	-12.1718
eller	-12.1718
▁tranquil	-12.1721
▁Dra	-12.1724
▁Ann	-12.1726
énia	-12.1727
▁equipado	-12.173
▁intenciona	-12.1733
▁Lut	-12.1737
▁Carte	-12.1738
neta	-12.1738
prime	-12.1741
▁concentrarmo	-12.175
▁Vivi	-12.1751
▁marés	-12.1753
▁Plan	-12.1755
▁Saber	-12.1756
▁Refi	-12.176
▁Hous	-12.177
▁sur	-12.1771
▁prest	-12.1779
▁dinam	-12.1784
ística	-12.1784
▁decidida	-12.1784
▁pratic	-12.179
▁deteta	-12.1795
ef	-12.1795
56	-12.1795
▁atraí	-12.1798
▁construír	-12.1799
▁Gosta	-12.1802
▁Alexandr	-12.1802
▁pass	-12.1805
▁prédios	-12.1809
riedade	-12.1814
▁especulador	-12.1815
▁masculinos	-12.1815
kh	-12.1821
MA	-12.1829
▁agrega	-12.1832
age	-12.1837
ésimo	-12.1838
89	-12.1839
▁cruz	-12.1839
PA	-12.1839
▁mexe	-12.1843
▁cirurgi	-12.1848
▁Jérs	-12.1848
dan	-12.1853
▁extrem	-12.1856
▁mandam	-12.1858
▁Veja	-12.1859
▁exata	-12.186
tividade	-12.1861
red	-12.1862
▁slides	-12.1865
▁mago	-12.1867
▁perfeitos	-12.1869
▁atualiza	-12.1869
▁sinaliza	-12.1871
▁vitr	-12.1883
▁destruído	-12.1891
▁doméstico	-12.1891
▁abandonado	-12.1892
▁Ron	-12.1893
▁documentário	-12.1896
▁rigorosa	-12.1896
▁Prov	-12.1901
▁pioneiro	-12.1906
▁aprovado	-12.1907
▁inst	-12.1908
ivamente	-12.191
▁dinossauro	-12.1913
▁disposta	-12.1914
▁mosca	-12.1915
▁prisioneiro	-12.1917
▁denuncia	-12.1919
▁valiosos	-12.1921
reta	-12.1926
▁projet	-12.1932
▁travage	-12.1933
gri	-12.1944
▁140	-12.195
▁apercebe	-12.1953
▁arrasta	-12.1959
▁focam	-12.1969
▁450	-12.1972
▁respir	-12.1974
kin	-12.1977
▁aprovar	-12.1986
▁talentoso	-12.1986
▁boom	-12.1986
cca	-12.199
16	-12.2003
▁identificam	-12.2006
▁espeta	-12.2014
▁anunciar	-12.2014
fesa	-12.2017
ival	-12.2018
▁sanguíne	-12.2032
tributo	-12.2047
▁rouba	-12.2047
ventura	-12.2052
ctor	-12.2054
▁prote	-12.2056
▁incentivo	-12.206
▁matern	-12.2064
▁abenço	-12.2064
▁Sente	-12.2067
▁dantes	-12.2067
dez	-12.2068
fiada	-12.207
gner	-12.2072
▁Deixe	-12.2073
▁HA	-12.2076
ela	-12.2076
▁Grand	-12.2077
▁conhec	-12.2078
▁escape	-12.208
▁colhe	-12.2082
▁discord	-12.2106
▁Exce	-12.2111
▁Dick	-12.2115
isto	-12.2118
ique	-12.2119
assa	-12.2121
▁evit	-12.2136
▁desliga	-12.2136
eguei	-12.2137
▁arrast	-12.214
▁maravilhosos	-12.2147
ji	-12.2149
▁post	-12.2153
casional	-12.2155
mita	-12.2159
nergia	-12.2163
▁acr	-12.2163
dimensional	-12.2167
mundo	-12.2169
▁discut	-12.2169
▁Lament	-12.2172
▁afect	-12.2174
▁conservador	-12.2174
▁Joan	-12.2175
utono	-12.2176
▁poupam	-12.2183
▁gross	-12.2189
agan	-12.2193
ki	-12.2196
lito	-12.2196
▁polar	-12.2202
▁Sta	-12.2202
▁Interna	-12.2203
▁determin	-12.2203
mad	-12.2203
▁desenvolv	-12.2205
▁determinadas	-12.2213
▁maiúscul	-12.2222
▁Observa	-12.2223
▁Ke	-12.2226
▁quise	-12.223
▁America	-12.2232
andei	-12.2233
ânico	-12.2236
▁Ber	-12.2239
▁Cru	-12.2245
pressa	-12.2245
▁húmid	-12.2247
traumátic	-12.2248
▁concorr	-12.2249
passageiro	-12.225
banho	-12.2251
oficial	-12.2251
ilusão	-12.2253
conflito	-12.2253
vírus	-12.2253
imaginar	-12.2253
descobrir	-12.2254
potência	-12.2254
semana	-12.2255
▁Harr	-12.2257
marca	-12.2259
cipal	-12.2264
lógico	-12.2266
▁transparentes	-12.2267
▁tocam	-12.2273
▁fingi	-12.2273
ical	-12.2274
▁permanecem	-12.2279
itamos	-12.228
▁proteg	-12.228
▁injec	-12.2283
▁Procura	-12.2283
dega	-12.2283
▁depress	-12.2284
▁reconstruí	-12.2285
▁assassina	-12.2288
daí	-12.229
▁renova	-12.2296
yon	-12.2298
▁transmite	-12.23
▁preocupe	-12.2301
▁nenhu	-12.2301
▁mantê	-12.2302
▁quarteir	-12.2305
▁TE	-12.2307
▁Desculpe	-12.2309
▁providencia	-12.2309
▁Desculp	-12.231
íri	-12.2312
▁gran	-12.2313
▁piratea	-12.2314
pra	-12.2314
▁priva	-12.2315
▁parem	-12.2316
▁cron	-12.2318
▁retiro	-12.2318
▁distribuí	-12.2318
▁Yor	-12.232
ónico	-12.2322
▁sedutor	-12.2323
▁circun	-12.2323
forma	-12.2324
punha	-12.2325
▁mostre	-12.2325
▁hum	-12.2325
▁premi	-12.2328
▁Whit	-12.2329
ue	-12.2329
▁doutora	-12.2329
cript	-12.233
▁garra	-12.2331
▁câm	-12.2331
▁homo	-12.2331
▁lingu	-12.2331
▁patern	-12.2331
▁Child	-12.2331
▁apercebam	-12.2331
▁burocrátic	-12.2331
▁compreendam	-12.2331
▁desvaloriza	-12.2331
▁fotovoltaic	-12.2331
▁inquieta	-12.2331
▁optimiza	-12.2331
iorquino	-12.2331
ssembleia	-12.2331
‘	-12.2331
▁Aristóteles	-12.2331
▁Barulho	-12.2331
▁Bósnia	-12.2331
▁Galile	-12.2331
▁Hebraica	-12.2331
▁Panamá	-12.2331
▁Portugal	-12.2331
▁Starbucks	-12.2331
▁Youtube	-12.2331
▁analítico	-12.2331
▁apetite	-12.2331
▁apresentei	-12.2331
▁artefacto	-12.2331
▁atempada	-12.2331
▁banquete	-12.2331
▁campainha	-12.2331
▁catastrófica	-12.2331
▁chocada	-12.2331
▁cimeira	-12.2331
▁cirúrgica	-12.2331
▁clã	-12.2331
▁confunde	-12.2331
▁cratera	-12.2331
▁criptodivisa	-12.2331
▁crowd	-12.2331
▁cósmico	-12.2331
▁detalhado	-12.2331
▁diagnosticada	-12.2331
▁disparidade	-12.2331
▁dispendiosa	-12.2331
▁distorcida	-12.2331
▁doutrina	-12.2331
▁drive	-12.2331
▁epifania	-12.2331
▁espectador	-12.2331
▁espessa	-12.2331
▁estatístico	-12.2331
▁estragar	-12.2331
▁farmacêutico	-12.2331
▁flash	-12.2331
▁genérica	-12.2331
▁hidroelétric	-12.2331
▁incendi	-12.2331
▁ineficaz	-12.2331
▁instantâneo	-12.2331
▁intelectuais	-12.2331
▁italiana	-12.2331
▁jurídica	-12.2331
▁laboratoria	-12.2331
▁medieva	-12.2331
▁medíocre	-12.2331
▁memorando	-12.2331
▁minhoca	-12.2331
▁misterioso	-12.2331
▁mortífer	-12.2331
▁motosserra	-12.2331
▁muitíssimo	-12.2331
▁pandemia	-12.2331
▁paramédico	-12.2331
▁parágrafo	-12.2331
▁pigmento	-12.2331
▁publique	-12.2331
▁péssima	-12.2331
▁ratinho	-12.2331
▁refúgio	-12.2331
▁residencia	-12.2331
▁rácio	-12.2331
▁salamandra	-12.2331
▁sustento	-12.2331
▁tabuleiro	-12.2331
▁tecnic	-12.2331
▁trágica	-12.2331
▁utilitári	-12.2331
▁vírgula	-12.2331
▁zodíaco	-12.2331
ergaminho	-12.2331
▁Grupo	-12.2331
▁cultivo	-12.2331
▁defeca	-12.2331
▁emblema	-12.2331
▁primitivo	-12.2331
▁ratazana	-12.2331
▁remédio	-12.2331
▁usual	-12.2331
▁Óp	-12.2331
▁Broad	-12.2331
▁Negro	-12.2331
▁autodetermina	-12.2331
▁fisioterap	-12.2331
▁interactivo	-12.2331
▁réplica	-12.2331
▁Bangladesh	-12.2331
▁dentária	-12.2331
▁estudanti	-12.2331
▁fresca	-12.2331
▁psicótica	-12.2331
▁residência	-12.2331
▁tabaco	-12.2331
▁Mountain	-12.2331
▁embaraços	-12.2331
▁pátio	-12.2331
▁fresco	-12.2331
▁pequenino	-12.2331
▁agressão	-12.2331
▁cometido	-12.2331
▁intervir	-12.2331
▁Disney	-12.2331
▁pseud	-12.2331
▁psicológico	-12.2331
child	-12.2331
▁sigam	-12.2331
▁pétala	-12.2331
▁Chamei	-12.2331
▁Antigo	-12.2331
▁bipolar	-12.2331
▁mancha	-12.2331
▁trecho	-12.2331
▁Birm	-12.2331
▁fenda	-12.2331
licioso	-12.2331
▁prevê	-12.2331
▁interferir	-12.2331
▁russa	-12.2331
▁ópera	-12.2331
▁troco	-12.2331
▁dessaliniza	-12.2331
▁concreto	-12.2331
▁pulga	-12.2331
▁remonta	-12.2331
▁aquecida	-12.2332
▁degener	-12.2332
▁oficina	-12.2332
▁abanar	-12.2332
▁Negra	-12.2332
▁radar	-12.2332
▁revolucionário	-12.2332
▁anonima	-12.2332
▁reutilizável	-12.2332
▁temporário	-12.2332
▁excerto	-12.2332
▁investe	-12.2332
▁Fried	-12.2332
▁mangueira	-12.2332
▁Campo	-12.2332
▁Cesar	-12.2332
▁intuitiva	-12.2332
▁urna	-12.2332
▁vício	-12.2332
▁metido	-12.2332
▁liminar	-12.2332
▁protagonista	-12.2332
▁relembrar	-12.2332
▁bú	-12.2332
▁ditadura	-12.2332
untu	-12.2332
▁camelo	-12.2332
▁traçado	-12.2332
▁turbina	-12.2332
▁bêbado	-12.2332
▁Narra	-12.2332
▁baralha	-12.2332
▁vedaç	-12.2332
▁adversidade	-12.2332
▁rebel	-12.2332
géli	-12.2332
▁Job	-12.2332
▁chumbo	-12.2332
▁amendoi	-12.2332
▁relutante	-12.2332
▁passadeira	-12.2332
nough	-12.2332
▁distorce	-12.2333
lírio	-12.2333
▁CIA	-12.2333
▁Ahmed	-12.2333
hafi	-12.2333
▁persistência	-12.2333
▁muco	-12.2333
▁Ficá	-12.2333
▁reservatório	-12.2333
▁refé	-12.2333
▁resolvida	-12.2333
▁intima	-12.2333
▁revestimento	-12.2333
▁paraquedas	-12.2333
▁reparei	-12.2333
▁Continuo	-12.2333
letim	-12.2334
▁2040	-12.2334
▁deitada	-12.2334
▁cumprimento	-12.2334
▁Face	-12.2334
▁progressista	-12.2335
olícia	-12.2335
▁Visit	-12.2335
▁escasso	-12.2335
▁enquadramento	-12.2335
▁distraído	-12.2335
▁Lyn	-12.2335
▁sentíamo	-12.2336
▁Live	-12.2336
▁taco	-12.2336
▁aproximou	-12.2336
▁tocou	-12.2336
▁privilegiado	-12.2336
▁amorosa	-12.2336
▁Administra	-12.2336
▁Buck	-12.2337
vangelho	-12.2337
▁Tirar	-12.2337
▁Convid	-12.2337
▁ascendente	-12.2337
▁óptica	-12.2337
▁islâmica	-12.2337
▁palestino	-12.2337
▁xadrez	-12.2337
▁persistente	-12.2338
▁oprimidos	-12.2338
▁trabalhem	-12.2338
▁genitais	-12.2338
▁minerais	-12.2338
ótico	-12.2338
▁tolerante	-12.2338
▁Gasta	-12.2339
▁representativa	-12.2339
▁regar	-12.2339
▁57	-12.2339
nicialmente	-12.234
▁83	-12.234
▁ternur	-12.234
▁severa	-12.234
▁Bot	-12.234
▁governam	-12.234
▁UC	-12.234
▁negar	-12.2341
▁mudo	-12.2341
cei	-12.2341
▁centrada	-12.2341
▁paliativos	-12.2341
▁chamei	-12.2341
▁LP	-12.2342
▁Tech	-12.2342
▁aterrorizada	-12.2343
▁odeiam	-12.2343
▁arena	-12.2343
▁Hunt	-12.2343
▁fê	-12.2344
▁cativar	-12.2344
▁egípcia	-12.2345
idas	-12.2345
▁Carta	-12.2345
▁compete	-12.2345
▁convencida	-12.2345
▁contradição	-12.2346
▁esquecida	-12.2346
▁Conduzi	-12.2346
▁Nicola	-12.2347
▁Harri	-12.2347
▁libertou	-12.2347
▁Ficam	-12.2347
▁recreio	-12.2347
▁intenso	-12.2347
▁exploradores	-12.2347
▁180	-12.2347
pin	-12.2348
▁polares	-12.2348
▁constituído	-12.2348
▁canadiano	-12.2348
▁sequenciação	-12.2348
▁ganso	-12.2348
▁lateral	-12.2349
▁TEDx	-12.2349
▁contabilidade	-12.2349
ope	-12.2349
▁Caval	-12.2349
▁ingénuo	-12.235
▁centrado	-12.235
tendimento	-12.235
▁Ref	-12.235
▁pedest	-12.2351
▁gratifica	-12.2351
▁antropólogo	-12.2351
MP	-12.2351
▁assassinado	-12.2352
▁congelada	-12.2352
▁oral	-12.2352
▁capturado	-12.2354
▁hipoteca	-12.2355
▁conduzido	-12.2356
ncre	-12.2356
▁responsabilizar	-12.2357
▁condicional	-12.2357
lan	-12.2357
▁LE	-12.2357
▁agarrada	-12.2358
▁antecipar	-12.2358
▁antecipada	-12.2358
▁compreendido	-12.2359
▁licenciado	-12.2359
▁removido	-12.2359
▁Fest	-12.2359
end	-12.2359
xatamente	-12.236
judicial	-12.2361
▁animações	-12.2361
▁postal	-12.2361
▁ofereceu	-12.2364
▁continha	-12.2364
▁manchetes	-12.2364
▁Estranh	-12.2365
▁pertencem	-12.2365
▁concentrada	-12.2367
▁TR	-12.2367
▁adaptarem	-12.2367
▁adquirida	-12.2368
▁berço	-12.2369
▁sirva	-12.237
▁sentam	-12.237
▁prévio	-12.237
▁entro	-12.2371
▁popularidade	-12.2371
▁numera	-12.2371
▁Encontr	-12.2372
▁capacitar	-12.2372
▁saram	-12.2373
▁cunhad	-12.2375
byte	-12.2375
▁cruzar	-12.2376
▁prado	-12.2376
▁inoc	-12.2376
▁partiu	-12.2377
▁obrigação	-12.2377
▁sexualidade	-12.2377
▁frame	-12.2377
▁crente	-12.2378
▁interpessoa	-12.238
ctav	-12.2381
▁transferida	-12.2384
▁fabricado	-12.2385
▁desencadear	-12.2387
▁colá	-12.2389
▁afectado	-12.2392
▁plân	-12.2393
▁libertada	-12.2393
▁experimentado	-12.2394
▁Denn	-12.2395
fase	-12.2395
▁degradado	-12.2398
▁eleitora	-12.2398
▁municipa	-12.2399
▁NP	-12.2401
▁revelaram	-12.2402
▁transformada	-12.2402
▁alcança	-12.2403
▁deslocada	-12.2403
▁rox	-12.2403
▁exigente	-12.2404
▁medem	-12.2405
bioma	-12.2406
▁armadas	-12.2406
▁encontravam	-12.2406
▁insensíve	-12.2406
▁inaugura	-12.2407
▁min	-12.2407
▁ouvinte	-12.2408
▁solta	-12.2408
▁paralisado	-12.2409
atrina	-12.2411
▁dispor	-12.2411
cionistas	-12.2412
▁focada	-12.2415
▁húmida	-12.2416
▁fri	-12.2416
▁participam	-12.2417
minação	-12.2418
▁crua	-12.2418
▁interessei	-12.2419
▁desenvolvem	-12.2419
vul	-12.242
▁obtiver	-12.2423
▁sentamos	-12.2427
▁astronomia	-12.2429
▁demitir	-12.2431
▁poroso	-12.2433
▁índi	-12.2433
▁perguntava	-12.2433
▁acena	-12.2433
▁iluminada	-12.2436
▁iluminar	-12.2436
▁drena	-12.2438
▁imu	-12.244
▁publicitário	-12.244
▁afegão	-12.244
ança	-12.2442
▁Qa	-12.2442
▁prepará	-12.2445
▁Preocupa	-12.2446
▁preventiv	-12.2448
ack	-12.245
▁eletro	-12.2451
yer	-12.2452
▁criticar	-12.2453
▁equilibrado	-12.2454
cond	-12.2455
▁alimentado	-12.2458
▁prazeres	-12.2458
▁Espere	-12.246
▁declarar	-12.246
▁aproveitamento	-12.2461
▁suma	-12.2461
▁beijar	-12.2465
▁sensoria	-12.2467
▁Bert	-12.2468
▁actuar	-12.2468
▁aguenta	-12.2469
gica	-12.2469
▁Bay	-12.2471
▁inclusivo	-12.2472
▁inicio	-12.2473
▁virei	-12.2475
▁Entra	-12.2476
▁Ig	-12.2481
▁Pratica	-12.2483
▁ousado	-12.2483
▁organizador	-12.2484
▁Conf	-12.2487
▁estro	-12.2488
▁orador	-12.2489
▁australiano	-12.249
dag	-12.2491
▁conceder	-12.2498
▁contato	-12.2502
▁organizá	-12.2502
▁Film	-12.2503
▁palh	-12.2503
squecemo	-12.2503
▁variado	-12.2506
▁Acabar	-12.2507
▁promotor	-12.2507
▁jur	-12.2512
▁enviarem	-12.2514
▁Image	-12.252
▁Gil	-12.2523
▁on	-12.2534
if	-12.2534
▁fada	-12.2536
quio	-12.254
▁pretendem	-12.2541
▁conchas	-12.2541
tone	-12.2542
▁batatas	-12.2542
▁Men	-12.2542
ping	-12.2543
peer	-12.2543
ciais	-12.2544
▁roub	-12.2545
▁Ama	-12.2545
gente	-12.2547
▁Bet	-12.2551
▁Pris	-12.2553
▁acredit	-12.2554
▁encantador	-12.2558
▁Grito	-12.2559
▁pesava	-12.2563
cência	-12.2563
▁decli	-12.2563
▁ameaçada	-12.2567
mira	-12.2567
▁sudo	-12.2567
▁existencial	-12.2576
LL	-12.2579
▁contextualiza	-12.2583
▁Code	-12.2584
▁ego	-12.2587
▁Ida	-12.2588
▁ru	-12.2588
▁ajudando	-12.2589
▁vivam	-12.2592
▁Val	-12.2592
▁defin	-12.2599
▁Kal	-12.2601
km	-12.2601
▁rebento	-12.2605
▁reis	-12.2608
▁reincid	-12.2609
▁Deram	-12.2615
▁estudava	-12.2617
▁mex	-12.2621
▁defendem	-12.2623
lô	-12.2623
▁Indian	-12.2628
ranja	-12.263
rgo	-12.2631
▁ES	-12.2637
▁fech	-12.2638
estado	-12.2638
▁fundi	-12.2639
▁Heath	-12.2645
▁entrasse	-12.2646
▁Perceber	-12.2647
▁dançam	-12.2647
▁definida	-12.2647
venta	-12.2651
▁invi	-12.2651
▁boi	-12.2661
▁assustados	-12.2669
rgi	-12.2669
▁consta	-12.2673
▁entrevist	-12.2684
▁partilhadas	-12.2702
monstrou	-12.2702
▁extensa	-12.2703
af	-12.2705
▁Len	-12.2716
▁Construí	-12.2716
▁Acabam	-12.2718
▁caminham	-12.2719
NT	-12.2719
▁mares	-12.2722
▁vence	-12.2724
▁Falar	-12.2724
▁britânicas	-12.2725
▁anfitriã	-12.2731
tória	-12.2732
fred	-12.2733
▁open	-12.2736
▁fizera	-12.274
▁Gest	-12.2742
▁analisam	-12.2745
▁aux	-12.2749
brigada	-12.2749
▁aplicamos	-12.2753
▁inala	-12.2755
ody	-12.2757
▁empreendedora	-12.2758
▁radio	-12.2758
▁Chad	-12.2761
▁retornar	-12.2761
▁afastarmo	-12.2765
nunciaram	-12.2767
▁defend	-12.2768
▁passasse	-12.2784
▁Shan	-12.2785
▁rigorosas	-12.2786
▁documentários	-12.2786
▁visualiz	-12.2788
▁decorre	-12.2788
▁bebi	-12.2788
▁aprovados	-12.2789
dotado	-12.2792
▁reportage	-12.28
▁domina	-12.2803
▁devastador	-12.2805
▁ligá	-12.2808
▁Jona	-12.2808
▁47	-12.281
▁visse	-12.2815
▁trato	-12.2822
llan	-12.2822
▁considerava	-12.2824
▁percorr	-12.2825
▁ades	-12.2827
ponte	-12.2829
▁interessava	-12.283
ceira	-12.2835
▁mot	-12.2836
▁recriar	-12.2839
▁92	-12.2845
▁cemitérios	-12.2849
▁fatias	-12.2849
ini	-12.2849
▁reduzimo	-12.285
▁compensar	-12.2852
▁projec	-12.2853
▁encontrasse	-12.2853
▁abrange	-12.2856
elho	-12.2868
▁Ficava	-12.2869
lma	-12.287
ami	-12.2872
▁67	-12.2875
▁cata	-12.2879
ólogos	-12.288
RI	-12.2881
▁red	-12.2882
▁Palm	-12.2889
▁Alexand	-12.2893
▁distorç	-12.2899
bora	-12.29
▁cur	-12.2903
▁Mer	-12.2904
quart	-12.2906
▁Vel	-12.2906
▁tripula	-12.2909
▁compreendi	-12.2909
▁medidos	-12.2909
▁diagnosticados	-12.2911
▁187	-12.2926
▁Tó	-12.2928
▁saberia	-12.2933
ering	-12.2935
▁tre	-12.2936
▁transformador	-12.294
ranha	-12.294
▁acumular	-12.2944
▁Nove	-12.2944
▁revi	-12.2947
▁critica	-12.2948
ngue	-12.295
▁sofria	-12.2951
▁tomem	-12.2958
▁entradas	-12.2959
▁emprega	-12.2969
▁ignorá	-12.2969
▁atletas	-12.2975
▁Cr	-12.2979
sistem	-12.298
ilhas	-12.2982
▁permitirmos	-12.2984
▁pedisse	-12.2987
▁Nam	-12.2989
▁trop	-12.2994
▁filantrop	-12.2995
pareciam	-12.2996
rio	-12.2998
▁Plant	-12.3
▁empurr	-12.3001
atra	-12.3003
▁perderem	-12.3004
▁digitar	-12.3006
▁Teríamo	-12.3007
▁Ab	-12.3016
gregação	-12.3018
▁interrogar	-12.3019
▁Damos	-12.3024
▁favorece	-12.3026
▁unificad	-12.3038
▁inesperados	-12.3038
rk	-12.3042
▁tomava	-12.3051
▁Escolhe	-12.3061
▁grad	-12.3063
▁extenso	-12.3066
▁Altera	-12.3067
hei	-12.3071
pita	-12.3075
▁Lind	-12.3078
▁Urs	-12.3084
▁ironi	-12.3085
▁dormia	-12.3088
ague	-12.3095
ubara	-12.3101
▁pal	-12.3102
▁africanas	-12.3102
patia	-12.3102
▁escolherem	-12.311
▁tripulaç	-12.3111
▁mostrarem	-12.3113
▁passem	-12.3121
▁encorajador	-12.3122
baixo	-12.3125
▁pú	-12.3127
▁salt	-12.3138
▁experiment	-12.3147
▁tese	-12.3158
▁prosper	-12.3158
▁opressão	-12.3165
▁convenc	-12.3165
íssemos	-12.3167
ik	-12.3172
▁sonha	-12.3181
▁entenderem	-12.3191
▁brilha	-12.3195
▁Gostar	-12.3196
▁aguarda	-12.32
▁Viva	-12.3202
▁Hom	-12.3205
▁extras	-12.3208
▁Walk	-12.3217
ntário	-12.3221
reza	-12.3222
▁Crai	-12.3234
tê	-12.3237
▁exporta	-12.3239
▁Pen	-12.3245
▁fu	-12.325
▁Vári	-12.3252
ancro	-12.326
ray	-12.3264
álg	-12.3269
▁suposiç	-12.3275
▁inventa	-12.3277
ich	-12.3277
▁contorna	-12.3281
▁Investiga	-12.3281
▁disponibiliz	-12.3288
uther	-12.3289
▁Kn	-12.329
▁consistia	-12.3294
traiu	-12.3296
ation	-12.3296
▁multas	-12.3297
▁indianos	-12.3297
▁habituar	-12.3298
▁Dur	-12.33
▁AS	-12.3323
▁britânica	-12.3325
azar	-12.3327
▁pressuposto	-12.3328
▁Humano	-12.3328
▁arranje	-12.3331
ólogo	-12.3332
▁preocupava	-12.3339
▁funcionaria	-12.334
▁soci	-12.334
ática	-12.3343
▁ingrediente	-12.3344
loc	-12.3349
▁observá	-12.3349
▁antibiótico	-12.3349
▁moro	-12.3351
▁conceptual	-12.3351
▁encontrámo	-12.3357
▁Rep	-12.336
▁vestidos	-12.3364
▁melhoram	-12.3364
iais	-12.3373
uário	-12.338
▁Morre	-12.3385
▁pretend	-12.3388
▁preferir	-12.3398
taram	-12.34
rador	-12.3401
achi	-12.3406
▁Cont	-12.3407
▁aproxim	-12.3412
▁Aprender	-12.3419
▁Aumenta	-12.342
▁esgota	-12.3422
▁observava	-12.3429
cular	-12.3429
▁LI	-12.3432
▁ocupam	-12.3433
rinho	-12.3442
▁receb	-12.3443
▁mecanic	-12.3446
▁criem	-12.3446
▁estudam	-12.3451
▁exib	-12.3451
▁beneficiam	-12.3463
arismo	-12.3463
▁apreciam	-12.3464
▁deslocam	-12.3465
▁regresse	-12.3466
culares	-12.3467
▁Barr	-12.3468
kins	-12.347
▁Malá	-12.347
▁Avanç	-12.3471
▁compreens	-12.3472
▁retiram	-12.3476
▁360	-12.348
bsoluta	-12.3483
prendizagem	-12.3483
ndal	-12.3485
▁contact	-12.3485
▁escavar	-12.3493
▁Gale	-12.3494
▁desempreg	-12.3496
▁aproximam	-12.3496
lvia	-12.3496
▁imens	-12.3497
burg	-12.3497
▁Aquil	-12.3505
▁Fin	-12.351
ssenta	-12.351
▁inseri	-12.351
▁mexican	-12.3511
▁consol	-12.3511
▁Obte	-12.3512
▁evitá	-12.3514
▁empilha	-12.3514
rido	-12.3517
▁delicad	-12.3518
▁explicam	-12.3519
▁advogad	-12.352
▁inflex	-12.3521
▁lavage	-12.3535
▁estuda	-12.3537
bio	-12.3555
▁mineir	-12.3559
▁termin	-12.3563
fing	-12.3563
etas	-12.3566
▁encontrem	-12.3568
▁aproximava	-12.3569
▁limpas	-12.3571
▁Pensar	-12.3579
ngenharia	-12.3581
conómico	-12.3582
▁contesta	-12.3585
▁conserva	-12.3585
vidente	-12.3589
african	-12.3592
▁Lord	-12.3592
gado	-12.3597
▁crias	-12.3602
▁Vivem	-12.3604
▁Cin	-12.3607
▁saltam	-12.3611
▁pegam	-12.3615
▁SM	-12.3618
▁Inter	-12.3618
▁imers	-12.3619
eneticamente	-12.362
cisão	-12.3623
inh	-12.3626
▁cli	-12.3626
▁camp	-12.3628
▁salvam	-12.3634
▁pensador	-12.3636
▁alonga	-12.3639
lever	-12.3641
▁Jun	-12.3642
▁centrifugador	-12.3646
NA	-12.3649
▁incomplet	-12.3653
▁sequestr	-12.3658
▁escute	-12.3663
▁engana	-12.3665
zação	-12.3669
▁chef	-12.3669
▁atirá	-12.367
fazer	-12.3671
Zer	-12.3674
largado	-12.3676
▁Suponh	-12.3676
▁marítim	-12.3678
▁imaginá	-12.3681
sucedida	-12.3681
ajuda	-12.3682
▁compromete	-12.3682
à	-12.3682
bomba	-12.3683
▁vest	-12.3683
▁consideráve	-12.3686
▁coincidi	-12.3687
In	-12.3688
▁amas	-12.3693
▁verificá	-12.3693
corn	-12.3694
guai	-12.3694
▁Dever	-12.3694
▁matam	-12.3695
▁antecipa	-12.3699
▁tomá	-12.3705
▁fracas	-12.3706
▁irrita	-12.3707
▁Carl	-12.3709
▁decente	-12.371
▁prefere	-12.371
▁colori	-12.371
▁Sex	-12.3711
▁mostrá	-12.3716
head	-12.3717
▁retrata	-12.372
AM	-12.3722
▁Wh	-12.3723
atma	-12.3724
▁infeta	-12.3726
▁expande	-12.3728
água	-12.3728
▁Bud	-12.3728
▁espiritua	-12.3729
▁dissi	-12.3732
▁âm	-12.3733
▁especifica	-12.3734
▁relaxa	-12.3734
nca	-12.3735
▁indigna	-12.3735
▁intui	-12.3736
▁resgata	-12.3736
▁equip	-12.3736
▁mí	-12.3736
▁imprud	-12.3737
tum	-12.3738
▁precipita	-12.3738
▁disputa	-12.3738
▁redefini	-12.3739
▁disfarça	-12.3739
enal	-12.374
erante	-12.374
▁reacç	-12.3741
▁abate	-12.3741
▁irregular	-12.3743
▁frances	-12.3744
▁metaboli	-12.3744
▁Branc	-12.3746
▁IN	-12.3746
▁tangíve	-12.3747
▁traumátic	-12.3749
▁Juli	-12.375
▁levo	-12.3751
▁destina	-12.3752
▁Concentr	-12.3753
▁Faci	-12.3753
▁supervis	-12.3754
▁exclusiva	-12.3755
▁Angel	-12.3756
▁Cem	-12.3756
upremo	-12.3756
,7	-12.3757
conomist	-12.3758
strói	-12.3759
▁gâ	-12.376
neurotransmissor	-12.376
▁Massachus	-12.376
@	-12.376
▁BitCoin	-12.376
▁Brother	-12.376
▁Cheryl	-12.376
▁Convenção	-12.376
▁Círculo	-12.376
▁Defini	-12.376
▁Democrata	-12.376
▁Detroit	-12.376
▁Elizabe	-12.376
▁Espaço	-12.376
▁Frankenstein	-12.376
▁Império	-12.376
▁MOOC	-12.376
▁Surpreende	-12.376
▁absurda	-12.376
▁alicerce	-12.376
▁amadurece	-12.376
▁ambígua	-12.376
▁anedota	-12.376
▁aritmétic	-12.376
▁atribuído	-12.376
▁autocolante	-12.376
▁auxiliar	-12.376
▁benéfica	-12.376
▁boleia	-12.376
▁bonobo	-12.376
▁bênção	-12.376
▁cabeludo	-12.376
▁cancerosa	-12.376
▁cardiovascular	-12.376
▁circulo	-12.376
▁condescendente	-12.376
▁confundir	-12.376
▁contrapartida	-12.376
▁coreografia	-12.376
▁costeira	-12.376
▁cotovelo	-12.376
▁cívica	-12.376
▁descanso	-12.376
▁desfecho	-12.376
▁download	-12.376
▁dísp	-12.376
▁empolgado	-12.376
▁encarceramento	-12.376
▁engorda	-12.376
▁enrolar	-12.376
▁entusiasta	-12.376
▁envolva	-12.376
▁esfomeado	-12.376
▁estupidez	-12.376
▁exagerar	-12.376
▁explicit	-12.376
▁filosófica	-12.376
▁flagrante	-12.376
▁flecha	-12.376
▁fragilidade	-12.376
▁furiosa	-12.376
▁glóbulo	-12.376
▁gémea	-12.376
▁inadequado	-12.376
▁inexplicáve	-12.376
▁infecciosa	-12.376
▁inorgânica	-12.376
▁insinua	-12.376
▁micrometeorito	-12.376
▁mobília	-12.376
▁multimilionário	-12.376
▁nigeriano	-12.376
▁oferecido	-12.376
▁orfanato	-12.376
▁pacífico	-12.376
▁padroniza	-12.376
▁parâmetros	-12.376
▁patogénico	-12.376
▁pedacinho	-12.376
▁perpétua	-12.376
▁plural	-12.376
▁prejuízo	-12.376
▁rafeiro	-12.376
▁recomeça	-12.376
▁repentina	-12.376
▁repositório	-12.376
▁reviravolta	-12.376
▁simbólico	-12.376
▁simpática	-12.376
▁soberana	-12.376
▁soberania	-12.376
▁socioeconómica	-12.376
▁soviético	-12.376
▁subproduto	-12.376
▁transmissíve	-12.376
▁trégua	-12.376
▁tábua	-12.376
▁ténue	-12.376
▁ultrapassou	-12.376
▁utensílio	-12.376
▁vegetariano	-12.376
▁workshop	-12.376
▁óptima	-12.376
▁Cuidado	-12.376
▁Hindu	-12.376
▁TAC	-12.376
▁acidentad	-12.376
▁boneca	-12.376
▁candeeiro	-12.376
▁companheira	-12.376
▁consciencios	-12.376
▁evidencia	-12.376
▁fábula	-12.376
▁grelha	-12.376
▁hazara	-12.376
▁lunar	-12.376
▁nanómetro	-12.376
▁planalto	-12.376
▁quadrante	-12.376
▁quiosque	-12.376
▁racial	-12.376
▁rodoviári	-12.376
▁suprema	-12.376
▁Abraham	-12.376
▁Digita	-12.376
▁Importa	-12.376
▁automonta	-12.376
▁bife	-12.376
▁burocra	-12.376
▁consultório	-12.376
▁convidá	-12.376
▁dificulta	-12.376
▁esquisito	-12.376
▁fisiologi	-12.376
▁plut	-12.376
▁polémic	-12.376
▁preocupo	-12.376
▁renuncia	-12.376
▁suicidou	-12.376
▁vincula	-12.376
▁bacteriana	-12.376
▁supervisiona	-12.376
▁torrada	-12.376
▁possuímos	-12.376
▁posterior	-12.376
▁sentinela	-12.376
▁trenó	-12.376
▁tutu	-12.376
▁webcam	-12.376
▁Chamámos	-12.376
▁Céu	-12.376
▁Moisés	-12.376
▁Nichol	-12.376
▁atacá	-12.376
▁desproporcionad	-12.376
▁enredo	-12.376
▁Document	-12.376
▁analógico	-12.376
▁crónico	-12.376
▁gorila	-12.376
▁sanitária	-12.376
▁cativeiro	-12.376
▁duradouro	-12.376
▁greve	-12.376
▁lenda	-12.376
▁longitudina	-12.376
▁léxico	-12.376
▁sobrinha	-12.376
▁sétim	-12.376
▁Blue	-12.376
▁anteced	-12.376
▁estudioso	-12.376
▁nómada	-12.376
▁torradeira	-12.376
▁Jacqu	-12.376
▁presun	-12.376
▁incomu	-12.376
▁concluiu	-12.376
▁disseminado	-12.376
▁atalho	-12.376
▁traseiro	-12.376
▁arrog	-12.376
▁assimétrica	-12.376
▁aquecido	-12.376
▁verificou	-12.376
▁ciber	-12.376
▁redireciona	-12.376
▁suprimi	-12.376
▁bacteriano	-12.376
▁fazenda	-12.376
▁estrita	-12.376
▁luva	-12.376
▁próspera	-12.376
▁Church	-12.376
▁escudo	-12.376
▁Schwarz	-12.376
▁segmento	-12.376
▁constrangimento	-12.376
▁reprimitiva	-12.376
▁desuman	-12.376
▁neurológico	-12.376
▁pintei	-12.376
▁relevância	-12.376
▁católica	-12.376
▁estendido	-12.376
▁olfat	-12.376
▁Fuller	-12.376
▁grega	-12.376
▁mitologia	-12.376
▁preenchida	-12.376
▁alternativo	-12.376
▁Empresa	-12.376
▁deprimente	-12.376
NIC	-12.376
antoche	-12.376
▁asneira	-12.376
▁baloiç	-12.376
▁Benjam	-12.376
▁Toca	-12.376
▁Clima	-12.376
tórica	-12.376
▁exótico	-12.376
▁Planeta	-12.376
▁Doença	-12.376
▁Invent	-12.3761
▁transfere	-12.3761
▁triplica	-12.3761
inócu	-12.3761
▁unicórnio	-12.3761
▁Julian	-12.3761
▁cancela	-12.3761
▁inchad	-12.3761
▁caótica	-12.3761
▁secretário	-12.3761
▁beneficiário	-12.3761
▁Presum	-12.3761
▁Moore	-12.3761
▁sopro	-12.3761
▁quebrou	-12.3761
▁pecado	-12.3761
▁uau	-12.3761
▁Verific	-12.3761
▁arqueologi	-12.3761
▁Escute	-12.3761
▁mexerico	-12.3761
▁evolutivo	-12.3761
▁daninha	-12.3761
▁bidimensional	-12.3761
▁Khan	-12.3761
▁Quarto	-12.3761
▁Lovel	-12.3761
▁taxista	-12.3761
▁Pitt	-12.3761
▁armadura	-12.3761
▁UV	-12.3761
▁fideli	-12.3762
▁grosseira	-12.3762
tima	-12.3762
▁resiliente	-12.3762
▁auditiva	-12.3762
▁marcá	-12.3762
▁Louis	-12.3762
▁Programa	-12.3762
▁preparei	-12.3762
▁letal	-12.3762
▁embalagens	-12.3762
▁escova	-12.3762
▁preparou	-12.3762
▁zangada	-12.3762
▁banal	-12.3762
▁fóruns	-12.3762
▁pradaria	-12.3763
▁inflamaç	-12.3763
▁editar	-12.3763
▁espalhe	-12.3763
▁barbear	-12.3763
▁bastou	-12.3763
▁cartografia	-12.3763
▁repará	-12.3763
▁agarrou	-12.3763
▁sonoro	-12.3763
▁like	-12.3763
▁cabeçalho	-12.3764
▁humilhante	-12.3764
▁matur	-12.3764
▁bacia	-12.3764
▁Menina	-12.3764
▁surfista	-12.3764
▁Abram	-12.3764
▁rup	-12.3764
▁comentador	-12.3764
▁cativante	-12.3765
▁numérica	-12.3765
▁expulso	-12.3765
▁Membro	-12.3765
▁fungo	-12.3765
ucker	-12.3765
áscar	-12.3765
▁cooperam	-12.3766
▁Nathan	-12.3766
▁recusou	-12.3766
▁viúva	-12.3766
▁compositor	-12.3767
▁Olimp	-12.3767
▁Africa	-12.3767
▁Computador	-12.3768
controláve	-12.3768
▁alve	-12.3768
▁sublinhar	-12.3768
▁Deixei	-12.3768
▁construtiva	-12.3768
▁ligeiro	-12.3768
▁afundar	-12.3768
▁imunológic	-12.3769
▁mutila	-12.3769
▁sábia	-12.3769
▁traçar	-12.3769
▁incidência	-12.377
▁Kate	-12.377
▁suposições	-12.377
▁descrita	-12.377
▁Yea	-12.377
▁patrões	-12.377
▁rapto	-12.377
▁carri	-12.377
▁Conheço	-12.377
zac	-12.3771
▁repetitivo	-12.3771
▁Cub	-12.3771
▁Swan	-12.3771
Reddit	-12.3771
▁desfazer	-12.3771
penhamento	-12.3771
▁Medica	-12.3771
▁reorganizar	-12.3772
▁frita	-12.3772
▁enviem	-12.3772
▁bombea	-12.3772
▁extraído	-12.3772
▁espiritualidade	-12.3773
▁assinalad	-12.3773
▁desagrega	-12.3773
▁semestre	-12.3774
▁Testa	-12.3774
▁deitava	-12.3774
▁Whe	-12.3774
▁bloqueada	-12.3774
▁alargada	-12.3774
lyp	-12.3775
▁autoritári	-12.3775
▁reúnem	-12.3775
▁resina	-12.3775
▁stressante	-12.3775
▁peões	-12.3776
▁avaria	-12.3776
▁ML	-12.3777
▁alcançado	-12.3777
▁terminam	-12.3778
▁Desejo	-12.3778
▁abandonou	-12.3778
▁empregada	-12.3778
▁ordenar	-12.3779
▁embutid	-12.3779
▁artifício	-12.378
▁conectividade	-12.378
▁divina	-12.378
▁polarizada	-12.378
abha	-12.3781
▁Coloque	-12.3781
▁jornalística	-12.3782
▁falido	-12.3782
▁fundir	-12.3782
▁Jab	-12.3782
▁Ley	-12.3782
▁Criaram	-12.3782
▁Teor	-12.3783
▁pique	-12.3783
▁Put	-12.3783
▁grandioso	-12.3783
▁diminuído	-12.3783
EC	-12.3783
▁compassivo	-12.3784
▁infetada	-12.3784
▁Considero	-12.3785
▁cume	-12.3786
▁Apanhei	-12.3786
▁apertada	-12.3786
▁esmagar	-12.3786
▁tapar	-12.3786
judiciais	-12.3787
▁barb	-12.3787
▁assemelhar	-12.3787
cel	-12.3788
▁Thor	-12.3788
▁bata	-12.3788
▁empurrão	-12.3789
▁BD	-12.379
▁sussurrar	-12.379
▁atrever	-12.379
▁azo	-12.379
pular	-12.3791
▁correspondente	-12.3791
▁refletida	-12.3791
▁surdo	-12.3792
diava	-12.3792
▁Cloud	-12.3793
▁acusação	-12.3794
▁Republicano	-12.3796
▁aceitam	-12.3796
▁celulares	-12.3797
▁acompanhada	-12.3799
▁aprovada	-12.38
▁inv	-12.3801
mbai	-12.3803
▁Pica	-12.3803
▁empurrado	-12.3806
▁empenhar	-12.3806
▁surda	-12.3806
▁sabores	-12.3807
▁entendida	-12.3808
▁fundações	-12.3808
sari	-12.3808
▁Caminh	-12.3808
▁tridimensionais	-12.381
▁Vermelha	-12.381
aboratório	-12.381
▁ignorado	-12.3811
▁riu	-12.3813
▁Tw	-12.3817
▁convenci	-12.3817
▁processada	-12.3818
▁Russel	-12.3819
▁convidad	-12.3819
▁unha	-12.3819
▁atingida	-12.382
▁apuro	-12.382
▁envolveu	-12.3821
▁Independente	-12.3821
▁mini	-12.3822
ábu	-12.3822
▁vulgares	-12.3822
▁proibido	-12.3823
▁vegetação	-12.3823
▁assustada	-12.3824
▁dó	-12.3824
▁brinco	-12.3825
▁entendido	-12.3825
mã	-12.3825
▁atacada	-12.3826
▁quebrada	-12.3827
▁motorista	-12.3828
▁deslocado	-12.3828
▁Tendem	-12.3829
▁NA	-12.3829
▁Peru	-12.383
▁desejavam	-12.383
▁ponham	-12.3832
▁Retir	-12.3832
ushi	-12.3832
▁41	-12.3833
▁juro	-12.3834
▁alertar	-12.3835
▁Brand	-12.3836
▁intitulad	-12.3836
▁Denisovano	-12.3839
▁chamamento	-12.3839
beis	-12.3839
▁sap	-12.384
▁apoiada	-12.3842
▁responsabiliza	-12.3842
▁escolhida	-12.3844
▁bamb	-12.3844
▁Ris	-12.3846
▁aprendiz	-12.3846
▁Poderiam	-12.3847
▁tentador	-12.3847
▁convenceram	-12.3849
▁Envia	-12.3849
▁capitalista	-12.385
▁batida	-12.385
▁habituada	-12.3853
▁bruta	-12.3855
▁Construir	-12.3855
▁fundada	-12.3855
▁corporativo	-12.3856
▁condenada	-12.3856
▁promissora	-12.3857
▁estátua	-12.3858
▁resultante	-12.3859
dados	-12.3859
▁impressiona	-12.3859
▁mola	-12.386
▁afastamo	-12.3861
▁perfurar	-12.3862
▁excessiva	-12.3862
▁envolverem	-12.3863
▁coroa	-12.3864
▁8.	-12.3864
▁esforça	-12.3864
▁clipe	-12.3865
▁acharam	-12.3865
▁dígitos	-12.3866
▁preguiçosos	-12.3866
izada	-12.3867
▁amigáve	-12.3867
▁Hat	-12.3868
▁chato	-12.3869
▁Livro	-12.3869
▁culpar	-12.387
ellows	-12.3873
▁daria	-12.3874
▁centrifugadora	-12.3875
plan	-12.3876
corpo	-12.3879
▁lembrado	-12.388
▁bic	-12.3883
oli	-12.3884
▁apanharam	-12.3884
▁somar	-12.3886
cados	-12.3886
▁coleciona	-12.3888
▁apoiá	-12.3888
▁põem	-12.3888
▁magoar	-12.3889
zzi	-12.3889
▁pesquisado	-12.389
▁Sê	-12.3892
▁comparáve	-12.3896
▁armazenada	-12.3898
▁perplexo	-12.3899
▁Canto	-12.3899
▁abandona	-12.3899
▁elevador	-12.39
▁exausto	-12.3903
lyn	-12.3905
▁fundamentalista	-12.3907
▁abrem	-12.3908
▁discordam	-12.3914
▁acreditavam	-12.3916
▁habilitaç	-12.3917
▁colada	-12.3919
▁hesitar	-12.3919
▁hei	-12.392
▁observe	-12.3921
▁pastore	-12.3921
▁deduzir	-12.3921
▁disseste	-12.3921
▁apontou	-12.3922
▁matarem	-12.3923
▁trava	-12.3924
▁hist	-12.3924
▁abr	-12.3929
vy	-12.393
▁dispensa	-12.3933
▁cansados	-12.3936
aw	-12.3937
▁classificado	-12.3939
▁altern	-12.3939
ndy	-12.3939
▁Christin	-12.394
▁Tornar	-12.3942
▁Reconhece	-12.3944
▁Coro	-12.3945
25	-12.3947
hão	-12.3953
zar	-12.3953
▁cane	-12.3955
rrado	-12.3955
▁bati	-12.3955
▁conheceram	-12.3956
▁maravilhado	-12.3956
▁Falta	-12.3965
estruturas	-12.3967
activ	-12.3967
▁regenerar	-12.397
▁perpetua	-12.3972
▁surf	-12.3975
▁Apresento	-12.3981
▁Sac	-12.3983
▁cas	-12.3984
▁Plat	-12.3986
▁experimento	-12.399
▁emerge	-12.3999
▁acordou	-12.4001
▁profetas	-12.4005
▁saudades	-12.4005
▁prestem	-12.401
▁Subi	-12.4011
▁financiado	-12.4012
▁Over	-12.4012
gh	-12.4017
▁pedirem	-12.4023
▁guardam	-12.4024
▁Irmão	-12.4026
▁Teste	-12.4028
[...]
