<unk>	0
<s>	0
</s>	0
▁,	-2.69874
▁.	-3.14055
е	-3.8373
и	-3.99701
▁в	-3.99701
▁	-4.03563
▁и	-4.10655
й	-4.35256
▁что	-4.46871
а	-4.51835
▁на	-4.64818
х	-4.67689
▁не	-4.68521
▁с	-4.89596
ы	-4.91447
▁это	-4.97972
м	-4.99467
▁я	-5.02431
у	-5.06487
▁мы	-5.15182
ся	-5.1909
-	-5.29988
я	-5.30567
▁как	-5.38118
▁И	-5.45841
ть	-5.46691
▁—	-5.48147
▁:	-5.4834
▁по	-5.50121
;	-5.52519
го	-5.59699
▁&	-5.60635
ot	-5.6166
qu	-5.62009
▁?	-5.62805
▁из	-5.64933
▁вы	-5.66088
▁Я	-5.66228
ов	-5.68067
о	-5.7128
ю	-5.72564
▁Это	-5.79504
ом	-5.80896
▁о	-5.83398
▁к	-5.85011
«	-5.8536
▁»	-5.86211
т	-5.86334
▁для	-5.89385
▁у	-5.92671
▁за	-5.93661
ая	-5.97947
▁то	-6.00359
▁они	-6.01171
▁)	-6.01734
(	-6.01836
ой	-6.02327
▁В	-6.08508
ую	-6.09287
то	-6.11376
▁от	-6.11608
▁так	-6.12498
▁но	-6.15098
▁Но	-6.171
▁Мы	-6.17958
▁чтобы	-6.19
▁был	-6.19706
▁бы	-6.21253
ми	-6.25547
▁когда	-6.31132
▁он	-6.32706
▁или	-6.3548
▁а	-6.37512
▁же	-6.38447
▁их	-6.3946
▁было	-6.4149
▁эти	-6.42253
▁если	-6.43155
▁есть	-6.43353
▁все	-6.44513
▁очень	-6.47268
▁которые	-6.47599
▁нас	-6.51558
▁меня	-6.52107
▁его	-6.52127
▁может	-6.55321
▁А	-6.5673
▁до	-6.60807
▁том	-6.631
▁мне	-6.66258
ли	-6.67082
▁-	-6.69466
▁лет	-6.70247
ь	-6.7131
▁всё	-6.71842
▁Смех	-6.73181
▁только	-6.73863
ем	-6.74892
ами	-6.78576
▁С	-6.79263
▁нам	-6.84358
▁потому	-6.86196
▁людей	-6.86228
▁того	-6.87007
▁чем	-6.87067
ей	-6.87176
▁больше	-6.87205
▁просто	-6.8803
▁быть	-6.88471
в	-6.89035
▁вам	-6.90156
▁она	-6.91592
▁этого	-6.96681
▁при	-6.96939
▁Они	-6.98809
▁Так	-6.99067
лись	-7.01685
▁который	-7.0183
▁этом	-7.02781
▁раз	-7.03223
▁Он	-7.03424
▁На	-7.03856
▁У	-7.04091
▁где	-7.04499
▁об	-7.05053
▁можно	-7.06037
▁ли	-7.06449
▁вот	-7.06647
▁время	-7.0714
▁люди	-7.08981
▁была	-7.09877
▁более	-7.10132
▁вас	-7.10265
ого	-7.11368
▁ещё	-7.12135
▁Вы	-7.13233
▁Если	-7.13639
▁будет	-7.13642
ет	-7.14487
▁которо	-7.15741
ться	-7.15941
▁них	-7.16694
▁этот	-7.17988
▁её	-7.18807
▁под	-7.20236
▁со	-7.20608
▁–	-7.21183
.	-7.21561
с	-7.21569
л	-7.21785
▁Вот	-7.22633
сь	-7.23006
▁♫	-7.24455
▁Аплодисменты	-7.25479
▁во	-7.2801
те	-7.28917
▁уже	-7.29018
▁даже	-7.29253
▁нужно	-7.29538
▁сделать	-7.30407
▁много	-7.30741
ют	-7.31228
▁кто	-7.32829
▁Как	-7.33103
но	-7.3361
лось	-7.33804
▁жизни	-7.34282
▁можем	-7.35671
▁здесь	-7.35834
з	-7.35883
ок	-7.38238
▁этой	-7.38732
▁тем	-7.38932
▁всего	-7.39006
▁нет	-7.39133
▁себя	-7.39444
му	-7.4053
▁сейчас	-7.41992
ах	-7.43118
▁также	-7.44165
▁свое	-7.44824
▁один	-7.44877
▁сказал	-7.46717
▁которая	-7.48251
▁про	-7.49025
▁!	-7.49878
▁Не	-7.50323
▁самом	-7.50602
▁могут	-7.50978
д	-7.51315
▁Что	-7.51386
ла	-7.52372
▁Когда	-7.52381
▁должны	-7.53397
ется	-7.5358
ются	-7.54475
▁думаю	-7.54756
▁По	-7.55247
ка	-7.5598
▁всех	-7.56576
▁вопрос	-7.56883
▁деле	-7.58491
ная	-7.59547
▁там	-7.5969
▁свои	-7.6109
ных	-7.61425
▁мир	-7.62461
ен	-7.63028
▁эту	-7.63492
▁назад	-7.6357
ной	-7.64076
▁мое	-7.64344
хочу	-7.6514
ых	-7.6551
ные	-7.6553
лась	-7.65676
за	-7.66049
▁этим	-7.6669
▁Она	-7.67119
▁...	-7.67456
▁Итак	-7.69048
▁через	-7.69451
▁ты	-7.69606
▁наш	-7.70301
▁К	-7.71447
▁Да	-7.71513
▁%	-7.71705
сти	-7.71755
на	-7.72257
ки	-7.72491
ый	-7.72577
▁человек	-7.72949
▁себе	-7.73355
же	-7.74073
н	-7.74381
▁ни	-7.75052
ную	-7.75323
ло	-7.75964
▁жизнь	-7.76135
▁несколько	-7.76474
ко	-7.76801
▁само	-7.77245
▁делать	-7.777
▁которы	-7.77703
▁лучше	-7.7913
пример	-7.79626
▁после	-7.7974
▁котор	-7.80124
▁день	-7.80244
▁Спасибо	-7.80843
▁мире	-7.81082
▁эта	-7.8243
▁году	-7.82525
к	-7.8287
▁им	-7.83263
▁друг	-7.83517
ный	-7.83591
▁действительно	-7.83641
▁года	-7.84217
▁времени	-7.84755
ые	-7.86056
чи	-7.87992
▁без	-7.88726
▁между	-7.88786
▁над	-7.89492
▁возможно	-7.90951
▁хотел	-7.91391
ам	-7.9169
▁сегодня	-7.9204
▁образом	-7.92441
▁происходит	-7.93366
▁некоторы	-7.94139
▁каждый	-7.94149
ного	-7.95823
▁сказать	-7.9725
1	-7.97692
▁тех	-7.98589
▁почему	-7.98591
▁момент	-7.98697
▁видит	-7.98872
▁два	-7.99235
▁именно	-8.00259
▁является	-8.00612
▁Е	-8.00616
▁одна	-8.0139
▁других	-8.0164
▁теперь	-8.02026
▁могли	-8.02106
▁10	-8.0211
▁человека	-8.02205
ти	-8.02238
▁детей	-8.02495
▁пол	-8.02919
▁всегда	-8.03028
▁мои	-8.03044
▁То	-8.0317
юсь	-8.03794
▁Поэтому	-8.03908
п	-8.04614
▁никогда	-8.04692
▁вместе	-8.04863
▁часть	-8.0535
▁нашей	-8.05462
▁наши	-8.0605
▁пример	-8.06531
▁год	-8.06861
▁те	-8.07593
▁будут	-8.08195
▁знаю	-8.08313
▁мой	-8.08386
либо	-8.08946
▁пока	-8.09016
▁использовать	-8.09399
вою	-8.09641
▁тогда	-8.10608
лся	-8.10982
▁Мне	-8.12656
▁такие	-8.12757
▁говорил	-8.12982
▁три	-8.13377
▁такой	-8.13381
ст	-8.13505
▁да	-8.13567
р	-8.13797
▁пере	-8.13831
▁вещи	-8.14155
▁могу	-8.14351
▁важно	-8.14595
▁лишь	-8.15572
▁тысяч	-8.15631
▁О	-8.15777
▁Одна	-8.16045
▁другой	-8.16362
ешь	-8.17648
▁тот	-8.17704
▁потом	-8.18519
г	-8.18854
▁наших	-8.19406
▁него	-8.19567
▁ничего	-8.20536
▁немного	-8.20822
ое	-8.20985
▁перед	-8.21323
▁США	-8.21448
▁затем	-8.21457
ку	-8.21857
▁таким	-8.21862
▁говорит	-8.22195
сть	-8.22604
знаем	-8.2308
▁Теперь	-8.23089
▁хорошо	-8.23241
▁мира	-8.23309
ным	-8.23454
▁истории	-8.23553
▁понять	-8.24377
▁конечно	-8.24545
▁таких	-8.24904
▁миллион	-8.25291
▁последни	-8.25338
еще	-8.25642
▁около	-8.25712
▁проблема	-8.25731
▁начал	-8.26155
ым	-8.26658
▁знаете	-8.27591
▁одной	-8.28707
▁способ	-8.2906
▁другие	-8.29537
▁П	-8.29545
▁оно	-8.30223
▁поэтому	-8.30398
▁разны	-8.30426
▁такое	-8.30469
▁чего	-8.30997
▁долларов	-8.31714
▁20	-8.32083
▁З	-8.32139
▁наше	-8.32195
▁помощью	-8.32774
▁снова	-8.32802
▁место	-8.33006
▁ему	-8.3338
▁Все	-8.33459
▁&#9	-8.33461
▁идея	-8.33549
▁возможность	-8.33578
▁найти	-8.33689
▁&#93;	-8.33701
▁000	-8.33934
▁;	-8.33947
▁новы	-8.34275
▁Для	-8.34599
▁создать	-8.34664
▁которым	-8.34734
▁проблемы	-8.35288
▁сам	-8.35785
ное	-8.35876
сколько	-8.3638
▁Потому	-8.37074
ра	-8.38106
▁случае	-8.38547
▁работы	-8.38715
та	-8.39093
▁результат	-8.39291
▁процесс	-8.399
емся	-8.40106
ейчас	-8.40602
нибудь	-8.41084
▁моя	-8.41159
▁Почему	-8.41343
▁данные	-8.41616
▁работает	-8.41758
▁первы	-8.41927
ма	-8.42301
▁каждо	-8.42587
▁имеет	-8.42707
▁пор	-8.42956
▁достаточно	-8.43229
▁течение	-8.43468
▁работа	-8.43501
▁всем	-8.43867
▁почти	-8.44501
▁работать	-8.44584
да	-8.44656
▁Нам	-8.44765
▁ответ	-8.44855
▁проект	-8.44925
тся	-8.4544
▁увидеть	-8.45484
ж	-8.45535
▁надо	-8.45569
▁должен	-8.45574
▁значит	-8.45838
ны	-8.46246
▁ее	-8.46658
▁технологии	-8.46886
▁котором	-8.47424
▁пыта	-8.47478
▁мозга	-8.48035
▁количество	-8.48133
▁одно	-8.48216
▁Эти	-8.48471
▁работу	-8.4859
▁мог	-8.48692
ш	-8.48857
ч	-8.48967
▁ваш	-8.48989
▁многие	-8.49056
▁двух	-8.49386
▁кажет	-8.49621
▁какой	-8.49645
тоже	-8.49733
огда	-8.5013
▁стали	-8.50501
▁За	-8.50742
▁весь	-8.51216
▁Давайте	-8.51231
▁больш	-8.51501
▁людям	-8.52085
▁меньше	-8.52325
▁показать	-8.52607
▁делает	-8.52849
▁групп	-8.53144
▁ваше	-8.53189
▁мозг	-8.53653
▁часто	-8.53766
▁Мо	-8.54015
ни	-8.54611
ф	-8.54635
▁прямо	-8.5465
▁этому	-8.55766
▁дело	-8.55774
▁изменить	-8.56007
ля	-8.56014
▁Во	-8.56124
a	-8.56217
▁всему	-8.56359
▁своё	-8.56509
ди	-8.56514
▁видим	-8.56806
▁совершенно	-8.56959
▁Ну	-8.56996
округ	-8.57257
▁быстро	-8.57363
▁свой	-8.58092
▁слишком	-8.58565
▁необходимо	-8.58596
▁женщин	-8.58839
ясь	-8.59072
ль	-8.59092
e	-8.59136
▁Нет	-8.59154
▁говорить	-8.59247
▁смысл	-8.59315
га	-8.59426
▁совсем	-8.59567
▁любо	-8.59884
▁ведь	-8.59913
ри	-8.59983
▁одного	-8.60065
▁стал	-8.60081
▁система	-8.60102
▁тут	-8.6015
ё	-8.60638
▁собой	-8.60819
▁примерно	-8.61152
▁ряд	-8.61181
▁системы	-8.61338
▁стать	-8.61542
▁ко	-8.61556
▁страны	-8.61815
▁Д	-8.6198
▁две	-8.62208
▁видеть	-8.62399
▁довольно	-8.62509
▁начали	-8.62526
роде	-8.6263
▁миру	-8.62741
ния	-8.62876
▁многих	-8.63689
▁части	-8.63882
▁своим	-8.64166
десь	-8.64167
▁буду	-8.64332
ру	-8.64465
▁Эта	-8.64699
▁3	-8.64927
▁форм	-8.64936
место	-8.64977
▁сделали	-8.65079
▁проблем	-8.65325
ва	-8.65343
▁2	-8.65589
▁ин	-8.65592
▁внимание	-8.65604
▁сами	-8.66085
▁говорят	-8.66256
▁Всё	-8.6687
▁причин	-8.66889
▁информации	-8.66981
хотим	-8.67122
▁подумал	-8.67375
ыми	-8.6751
▁видео	-8.67648
▁конце	-8.67695
ном	-8.67825
столько	-8.6786
▁стоит	-8.68223
▁обычно	-8.6837
▁внутри	-8.68658
▁существует	-8.68757
▁делают	-8.68818
▁история	-8.68828
ин	-8.69011
▁дома	-8.69333
▁новые	-8.69639
▁различны	-8.69725
▁стороны	-8.69883
ан	-8.70146
▁получить	-8.70363
▁Ес	-8.7038
ными	-8.70771
▁100	-8.70915
▁сделал	-8.71495
▁самых	-8.71698
▁находит	-8.71907
ностью	-8.72485
▁должно	-8.72592
▁людьми	-8.7272
▁данных	-8.72956
▁начала	-8.73133
▁сильно	-8.73423
▁энергии	-8.73749
ями	-8.73997
▁рассказать	-8.74087
▁войн	-8.74179
▁дети	-8.74294
▁При	-8.74344
ние	-8.74552
▁историю	-8.7456
▁решения	-8.74576
означает	-8.74581
▁особенно	-8.75049
▁Сегодня	-8.75839
▁30	-8.76011
▁ним	-8.76184
менее	-8.76219
ев	-8.76557
▁всю	-8.7674
▁хотя	-8.77149
▁TED	-8.77313
▁Люд	-8.77353
▁создал	-8.77377
▁50	-8.7739
▁становит	-8.7744
▁важны	-8.77641
▁одну	-8.77933
▁основ	-8.78021
▁слова	-8.78166
▁Нью	-8.78549
ёт	-8.7858
▁называет	-8.78769
▁чём	-8.78901
▁города	-8.79208
б	-8.79419
▁друга	-8.79925
▁неё	-8.80049
▁перво	-8.8012
▁компании	-8.80237
▁точно	-8.80246
▁постоянно	-8.80249
▁места	-8.80383
▁рост	-8.80505
▁факт	-8.80954
▁исследования	-8.81266
▁свет	-8.81372
ически	-8.81647
▁компьютер	-8.81861
▁ново	-8.81915
▁увидел	-8.81997
▁вид	-8.82194
▁большой	-8.82202
до	-8.82388
▁помоч	-8.8239
▁кого	-8.82535
i	-8.82683
▁деньги	-8.82806
▁представить	-8.82969
▁рас	-8.83017
▁благодаря	-8.83199
▁возможности	-8.83284
▁воды	-8.83923
не	-8.84083
▁Э	-8.84129
▁зрения	-8.84233
▁процент	-8.84319
ле	-8.84472
▁ник	-8.8459
▁Конечн	-8.84763
▁понял	-8.84812
▁эксперимент	-8.85152
▁мере	-8.85585
▁точки	-8.85724
▁начинает	-8.85794
▁начать	-8.85833
▁опыт	-8.85868
▁стран	-8.85918
▁стало	-8.86334
▁говорю	-8.86641
▁будем	-8.86899
▁иметь	-8.86907
▁минут	-8.87183
▁женщины	-8.87205
▁технологи	-8.87502
▁такого	-8.88069
▁горазд	-8.88079
▁сказала	-8.88129
▁множество	-8.88164
▁та	-8.8819
▁информацию	-8.88283
▁5	-8.88529
▁сможем	-8.88732
▁решение	-8.88832
▁Таким	-8.89348
▁спросил	-8.89596
▁Б	-8.89641
▁большинство	-8.89667
▁должна	-8.89672
▁сложно	-8.89761
s	-8.89903
▁против	-8.90053
▁самы	-8.90161
▁вещей	-8.90436
▁мной	-8.90594
▁выбор	-8.90619
▁Может	-8.90751
ду	-8.90758
ре	-8.91017
▁работаю	-8.91174
вер	-8.91204
▁1	-8.91319
он	-8.91321
▁дела	-8.9159
▁изменения	-8.91759
ша	-8.9176
ты	-8.91988
▁4	-8.91994
первы	-8.92033
▁идеи	-8.92101
▁телефон	-8.92267
▁нашем	-8.92615
▁туда	-8.92716
▁перв	-8.92847
▁15	-8.92963
ят	-8.93055
▁систему	-8.93189
по	-8.93289
▁программ	-8.93298
▁жить	-8.93313
ём	-8.93354
▁взять	-8.93387
йти	-8.93388
▁спасибо	-8.93525
▁выглядит	-8.93674
▁сколько	-8.93753
▁оказа	-8.93885
▁буд	-8.94027
▁ними	-8.94224
▁следующи	-8.94554
▁интересно	-8.94673
▁знал	-8.94703
▁нечто	-8.94993
▁намного	-8.95
▁размер	-8.9508
▁помощи	-8.95138
▁раньше	-8.95138
▁странах	-8.95176
▁посмотреть	-8.95285
▁стране	-8.95292
▁вами	-8.95372
▁вообще	-8.95582
▁Мож	-8.95799
▁слово	-8.95897
▁нравит	-8.95923
▁лучши	-8.96055
жи	-8.96202
▁куда	-8.96301
▁считаю	-8.96369
▁клетки	-8.96387
▁нужны	-8.96432
▁ваши	-8.96565
▁другом	-8.96667
ор	-8.9684
▁Или	-8.96947
па	-8.97002
▁делаем	-8.97837
вляются	-8.97941
▁хотят	-8.98032
▁думать	-8.98219
▁Хорошо	-8.98322
▁моё	-8.98467
▁закон	-8.98575
▁имеют	-8.98635
тебя	-8.98761
▁пути	-8.98922
▁мест	-8.99004
▁произошло	-8.99131
дальше	-8.99734
▁какие	-9.00019
тор	-9.0026
ец	-9.00283
▁звук	-9.0044
▁ответил	-9.00542
▁стала	-9.0057
от	-9.00928
▁инструмент	-9.0106
▁смогл	-9.01121
▁дня	-9.01236
дать	-9.01294
▁месяцев	-9.01723
▁Кто	-9.01897
▁нами	-9.02113
▁друго	-9.02122
▁итог	-9.02249
бо	-9.02302
▁думал	-9.02309
▁ей	-9.0269
▁области	-9.02816
▁спустя	-9.02827
▁Зате	-9.02871
▁бизнес	-9.03664
▁мало	-9.03678
▁видели	-9.03732
▁вопросы	-9.03749
▁Возможно	-9.03792
▁От	-9.0391
▁месте	-9.041
▁40	-9.04131
менно	-9.04146
▁уровень	-9.04451
▁приходит	-9.0451
ком	-9.04515
▁занима	-9.04564
лен	-9.0487
▁нов	-9.04905
ал	-9.04948
▁невероятно	-9.05062
ту	-9.05383
▁структур	-9.05455
▁оста	-9.05495
ке	-9.05722
▁подход	-9.05801
▁кажд	-9.05922
▁крайне	-9.06073
▁среди	-9.06266
▁огромно	-9.06286
▁Т	-9.0641
▁уровне	-9.06511
▁зале	-9.06532
▁город	-9.06671
▁животных	-9.06729
▁узна	-9.07001
▁четыре	-9.07094
э	-9.07099
би	-9.07172
▁легко	-9.07393
▁Ты	-9.07457
▁плохо	-9.0748
ши	-9.07591
▁самым	-9.07645
▁населения	-9.07763
▁ДНК	-9.07891
▁знать	-9.07912
▁большое	-9.07951
▁рода	-9.08217
шего	-9.08241
ил	-9.08248
ость	-9.08294
▁Тогда	-9.08417
или	-9.08583
▁тела	-9.08769
▁работал	-9.08775
▁думает	-9.08785
▁цвет	-9.08785
▁кое	-9.08863
▁защит	-9.08898
▁хотите	-9.09073
▁пять	-9.09223
▁Ф	-9.09261
▁взгляд	-9.09282
▁смерт	-9.09351
ще	-9.09394
▁маленьки	-9.09466
▁До	-9.0958
▁денег	-9.09755
▁одним	-9.09854
▁пару	-9.09863
смотря	-9.09952
могла	-9.10033
ости	-9.10427
▁вещь	-9.10442
▁карт	-9.1052
▁решил	-9.10523
▁будущем	-9.10622
▁создания	-9.10996
▁общества	-9.11077
ющие	-9.11253
▁второ	-9.11378
говорим	-9.11386
ическ	-9.11461
▁океан	-9.11713
▁решили	-9.11718
▁После	-9.12011
▁модель	-9.12468
льзя	-9.12477
ющих	-9.1249
▁Один	-9.12895
ющий	-9.13392
▁появи	-9.13619
▁никак	-9.13739
▁наконец	-9.1377
▁подобны	-9.13774
o	-9.13784
▁развития	-9.13798
▁экономик	-9.14119
▁долго	-9.14199
▁Африке	-9.14554
▁другим	-9.14664
йте	-9.14701
▁фильм	-9.14704
▁прошлом	-9.14789
▁Индии	-9.14844
▁давайте	-9.15031
▁М	-9.15216
▁сред	-9.15295
▁число	-9.15304
ности	-9.15423
▁часов	-9.15451
▁идёт	-9.15568
▁связи	-9.15579
▁нашим	-9.15582
▁путь	-9.15611
ски	-9.15635
▁абсолютно	-9.15835
▁используют	-9.15885
▁Большо	-9.16445
▁уда	-9.16746
▁равно	-9.17023
▁миллиардов	-9.17045
нию	-9.17074
▁будущее	-9.17217
▁Там	-9.17232
▁уверен	-9.17239
са	-9.17365
▁Представь	-9.17397
ставить	-9.17427
ение	-9.17449
бы	-9.17508
что	-9.17598
▁человеческо	-9.17661
▁работе	-9.17836
че	-9.17943
▁социальны	-9.18007
об	-9.18183
▁виду	-9.18192
▁частью	-9.18255
▁Некоторы	-9.18383
нём	-9.18405
▁источник	-9.18431
▁6	-9.18515
▁Из	-9.18691
▁Кажды	-9.18787
етесь	-9.19009
ён	-9.19228
▁наибол	-9.19263
▁ту	-9.19386
▁сети	-9.19427
ар	-9.19554
▁б	-9.19639
▁Ин	-9.19682
▁одном	-9.1993
▁руки	-9.20131
▁называем	-9.20372
▁дней	-9.20472
▁правильно	-9.20544
▁использовани	-9.20926
▁голов	-9.20954
▁лаборатори	-9.21062
ков	-9.21354
▁знает	-9.21575
ча	-9.21693
зи	-9.21752
▁такая	-9.22059
▁говоря	-9.22071
▁Чтоб	-9.22179
▁18	-9.22274
▁состоит	-9.22341
▁известно	-9.22348
▁Музыка	-9.22459
ци	-9.2255
тер	-9.22566
▁позволяет	-9.22739
▁сразу	-9.22995
▁знали	-9.23112
▁пришлось	-9.23313
▁имею	-9.23384
▁бо	-9.23536
▁другими	-9.23553
ось	-9.23779
▁невозможно	-9.24078
ну	-9.24371
▁сотн	-9.24439
▁центр	-9.24487
стати	-9.24494
▁Многи	-9.24673
▁создавать	-9.24686
ность	-9.24728
▁машины	-9.24832
ижу	-9.251
▁чувство	-9.25122
бер	-9.25192
▁права	-9.25334
▁глаза	-9.25617
▁видов	-9.25642
ги	-9.25705
▁сама	-9.25732
али	-9.25772
▁интернет	-9.25874
▁фотографии	-9.26083
▁дом	-9.26092
▁полно	-9.26095
▁т	-9.26151
▁гор	-9.26187
▁трудно	-9.26265
ро	-9.26325
▁скорее	-9.26488
▁собственны	-9.2715
▁похоже	-9.27211
▁движение	-9.27235
▁период	-9.27304
▁решить	-9.27312
▁сил	-9.27472
▁Про	-9.27484
▁язык	-9.27488
▁протяжени	-9.27729
▁Х	-9.27765
▁проблему	-9.27853
▁обратно	-9.2786
▁образование	-9.27874
▁самые	-9.2791
▁нейрон	-9.28001
▁вернуть	-9.28036
▁покажу	-9.28043
про	-9.28205
▁домой	-9.28385
▁Р	-9.28415
тебе	-9.28422
▁прав	-9.28436
▁свобод	-9.28569
▁Оно	-9.28597
▁заключается	-9.28743
▁типа	-9.28822
ник	-9.28886
▁станет	-9.28947
мер	-9.29186
▁движения	-9.29507
▁речь	-9.29811
▁школу	-9.29983
▁семьи	-9.3011
▁каким	-9.30213
стро	-9.30263
▁мужчин	-9.30275
▁мою	-9.30349
▁качестве	-9.30566
▁следует	-9.30671
▁Мой	-9.30769
▁сут	-9.30831
▁г	-9.31002
▁собственно	-9.31069
ба	-9.31106
▁дизайн	-9.31252
▁практически	-9.31276
▁цел	-9.3172
▁Меня	-9.31878
▁используем	-9.31882
▁модели	-9.31882
правда	-9.31908
▁далеко	-9.32018
овать	-9.32265
▁группа	-9.32618
▁используя	-9.32742
▁однажды	-9.32761
во	-9.32798
▁связь	-9.32951
ись	-9.32989
▁цели	-9.32994
▁названием	-9.33004
2	-9.33162
▁даёт	-9.33204
▁нескольки	-9.33247
▁голос	-9.33442
▁хороши	-9.33508
▁уж	-9.33654
си	-9.34095
t	-9.34098
▁планеты	-9.34101
▁сигнал	-9.34196
▁посмотрим	-9.34277
▁уровня	-9.34347
▁поскольк	-9.34364
▁небольшо	-9.34388
▁женщина	-9.34417
▁роль	-9.34478
▁S	-9.35112
едь	-9.3513
▁увидите	-9.3532
er	-9.35324
▁пред	-9.35386
вая	-9.35406
давно	-9.35522
▁понима	-9.35545
кой	-9.3571
пл	-9.3573
▁Вам	-9.35816
▁доступ	-9.36011
ятся	-9.36047
▁культур	-9.3623
▁способны	-9.36483
▁цель	-9.36489
▁моим	-9.36652
▁хотела	-9.36655
▁шаг	-9.36697
ому	-9.36887
ения	-9.36971
▁общество	-9.37124
▁де	-9.37278
▁мысли	-9.3732
▁план	-9.37323
▁причина	-9.37347
▁12	-9.37489
▁Ш	-9.37542
▁зна	-9.37647
▁интерес	-9.37727
▁ночь	-9.37749
▁обнаружили	-9.3775
▁Был	-9.37772
▁планете	-9.37787
▁безопасности	-9.37829
ской	-9.37895
ировать	-9.38043
ходить	-9.38204
щё	-9.38243
▁идею	-9.38273
ер	-9.38332
ше	-9.38346
друг	-9.38363
▁C	-9.38364
▁25	-9.38428
▁образ	-9.38484
▁каждом	-9.38509
▁отношения	-9.38579
▁случилось	-9.38621
первых	-9.38642
▁книги	-9.38764
ста	-9.38819
ман	-9.38926
▁правительство	-9.38942
▁хочет	-9.39122
▁света	-9.39293
▁сюда	-9.39296
▁чему	-9.39483
▁воздух	-9.39935
живут	-9.39939
▁прежде	-9.39995
ня	-9.40067
▁выше	-9.40233
▁обо	-9.40462
▁кем	-9.40556
чу	-9.40576
▁поговорить	-9.40835
▁последне	-9.41011
сс	-9.41025
▁дале	-9.41051
▁прекрасно	-9.41138
ц	-9.41178
▁разговор	-9.41198
▁концов	-9.41459
▁хороше	-9.41595
▁века	-9.41595
▁ситуаци	-9.41607
▁готовы	-9.41668
гра	-9.42012
▁Наш	-9.42593
▁местах	-9.42631
▁вариант	-9.42636
▁половин	-9.4268
▁значение	-9.42819
▁видел	-9.42956
▁понимает	-9.43084
▁теори	-9.43108
▁трёх	-9.43161
воду	-9.43196
ходят	-9.43291
▁реально	-9.43311
▁класс	-9.43404
▁здания	-9.43406
▁получил	-9.43498
ась	-9.43636
▁самого	-9.43691
▁годы	-9.43895
▁наде	-9.4398
▁семь	-9.44055
▁природ	-9.44179
▁цен	-9.44244
▁социально	-9.44259
▁помощь	-9.44293
▁принцип	-9.44321
▁вероятно	-9.44368
▁нужна	-9.44581
▁большие	-9.44601
▁исследование	-9.44804
▁масштаб	-9.44893
▁результаты	-9.45263
▁правд	-9.45265
▁право	-9.45332
▁вниз	-9.45439
люблю	-9.45501
▁пространство	-9.45559
думаем	-9.45566
▁болезн	-9.45568
▁исследований	-9.4562
▁сфер	-9.45635
ров	-9.45649
жа	-9.45822
▁19	-9.46042
▁Земле	-9.4605
▁столько	-9.46116
▁расскажу	-9.46337
вал	-9.46352
бр	-9.46371
▁основном	-9.46398
r	-9.46439
▁Америк	-9.46587
вести	-9.46707
▁написал	-9.46766
вы	-9.46866
▁находятся	-9.46928
▁8	-9.46933
де	-9.47032
▁7	-9.47138
ща	-9.47179
▁фото	-9.4721
▁начинают	-9.47241
▁Очень	-9.4731
▁Знает	-9.47354
▁политик	-9.47447
▁остальны	-9.47495
кс	-9.47585
▁тело	-9.4759
5	-9.47604
▁нуж	-9.47657
думать	-9.47674
▁образования	-9.47748
▁11	-9.47821
▁быстрее	-9.48068
▁Г	-9.48155
▁границ	-9.48191
вших	-9.4821
хотелось	-9.48235
дер	-9.48248
▁делали	-9.48314
▁организации	-9.48379
▁верну	-9.48401
су	-9.48462
▁иначе	-9.48503
▁больши	-9.48615
ющая	-9.48677
▁окружающе	-9.48686
ек	-9.48703
настоящему	-9.48708
▁смотреть	-9.49069
др	-9.49094
ство	-9.491
▁показывает	-9.49135
лю	-9.49146
ющей	-9.49247
Р	-9.49309
▁провел	-9.49321
▁Ко	-9.49322
▁молоды	-9.49337
▁игра	-9.49468
лько	-9.49473
▁отец	-9.49692
▁Потом	-9.49727
▁слышали	-9.49738
▁человечески	-9.49757
▁эффект	-9.49837
▁доби	-9.49997
▁Со	-9.5007
▁Интернет	-9.50099
▁реальность	-9.50125
сто	-9.50133
▁большим	-9.50199
▁Просто	-9.50429
▁матери	-9.50468
▁шесть	-9.50702
▁метров	-9.50786
▁здорово	-9.50908
▁поведение	-9.50997
▁слов	-9.51224
тель	-9.51232
▁задач	-9.51285
▁поверхности	-9.51319
ский	-9.51368
▁попросил	-9.51377
ёр	-9.51386
▁Второ	-9.51431
▁действия	-9.51556
▁60	-9.51621
▁клеток	-9.51637
цы	-9.51648
▁миллиона	-9.51745
▁часа	-9.5184
▁собира	-9.51848
Йорк	-9.51864
ры	-9.51868
ос	-9.52008
▁школе	-9.5204
▁штат	-9.52047
▁сможет	-9.52088
▁посмотрите	-9.52428
▁зон	-9.52459
▁машин	-9.52579
▁словами	-9.52798
▁главно	-9.52807
▁развитие	-9.52832
▁силы	-9.52863
ью	-9.5295
▁буквально	-9.52961
▁Позволь	-9.53209
▁200	-9.53216
▁сравнени	-9.53233
М	-9.53257
ите	-9.53265
▁круг	-9.53269
▁степени	-9.53325
▁технология	-9.53397
▁высоко	-9.53418
▁страх	-9.53469
▁КА	-9.53518
▁вес	-9.53538
▁возника	-9.53638
ского	-9.53759
▁становят	-9.53884
▁целы	-9.54171
гу	-9.54318
▁нашли	-9.54322
▁виде	-9.54374
прав	-9.54466
ских	-9.54467
▁сеть	-9.54726
▁решени	-9.55029
▁сторону	-9.55149
y	-9.55306
▁заметил	-9.55324
▁смог	-9.55351
пи	-9.55354
▁большинств	-9.55357
▁настоящи	-9.55464
А	-9.55476
▁природы	-9.55626
▁рука	-9.55768
▁успех	-9.55769
▁компания	-9.55782
▁системе	-9.55821
▁риск	-9.55821
чен	-9.55867
▁игры	-9.55868
▁проекта	-9.55916
▁рак	-9.56011
▁общем	-9.56016
лу	-9.56037
▁ребёнка	-9.56177
▁мысль	-9.56434
▁придёт	-9.56434
▁получили	-9.56491
▁видно	-9.56596
▁поняли	-9.5666
D	-9.56828
жды	-9.56857
▁пар	-9.57163
▁вода	-9.57538
▁опять	-9.57554
ирует	-9.57758
▁задача	-9.58033
▁Google	-9.58359
▁одновременно	-9.5837
ел	-9.58408
ик	-9.58419
▁сторон	-9.58448
▁мужчины	-9.58499
▁счёт	-9.58584
▁изменени	-9.586
▁имени	-9.587
▁Об	-9.58812
▁Л	-9.58863
▁Думаю	-9.5898
▁рака	-9.58998
▁дел	-9.59025
▁таком	-9.59148
чувствовать	-9.59218
▁эволюци	-9.59227
▁удивительно	-9.59233
▁школы	-9.59256
▁метод	-9.59303
▁рассказал	-9.5934
▁начало	-9.59413
▁сын	-9.59453
▁объясни	-9.59472
▁пришли	-9.5948
▁ресурс	-9.59582
могут	-9.59651
▁похожи	-9.59743
▁человеком	-9.59747
▁Крис	-9.59783
▁смех	-9.60015
ает	-9.60016
▁Земли	-9.60024
▁способность	-9.60064
шь	-9.60225
думайте	-9.60289
▁глаз	-9.60307
▁изображение	-9.60413
▁кому	-9.60416
дут	-9.60426
▁Ник	-9.60447
▁доход	-9.60487
▁фотография	-9.60618
▁вида	-9.60701
▁вирус	-9.60842
▁Африки	-9.60864
▁интересны	-9.6099
▁построить	-9.61282
ющихся	-9.61288
▁лицо	-9.61332
▁значительно	-9.61353
▁Америке	-9.61391
▁идей	-9.61397
▁состоянии	-9.61447
▁Первы	-9.61451
▁устройство	-9.61563
стью	-9.61629
▁шанс	-9.61698
▁мама	-9.61702
знают	-9.6175
вёл	-9.61789
иться	-9.6197
▁кроме	-9.6205
овые	-9.62144
▁климата	-9.6219
▁средства	-9.62194
▁использовали	-9.62217
▁разниц	-9.62331
верить	-9.62364
▁вверх	-9.62366
▁миллиарда	-9.62418
делиться	-9.62431
▁известны	-9.62524
▁появля	-9.62588
c	-9.62617
▁орган	-9.62806
▁Видео	-9.63206
▁скоро	-9.63277
▁тво	-9.63424
▁лично	-9.63437
▁лица	-9.63455
▁руку	-9.63475
▁силу	-9.63579
▁включа	-9.63698
▁пяти	-9.6384
▁ситуация	-9.63841
▁график	-9.63888
▁тюрьм	-9.63971
▁организаци	-9.64057
▁ВИЧ	-9.64083
▁ген	-9.64227
▁маленькие	-9.64302
вали	-9.64388
▁принять	-9.64441
S	-9.64472
▁влияние	-9.64512
▁здание	-9.64514
▁Нужн	-9.64532
▁ре	-9.64546
▁поиска	-9.64552
▁сердце	-9.64565
▁рынк	-9.64586
ды	-9.64588
▁высот	-9.64656
▁80	-9.64674
▁называют	-9.64775
▁Те	-9.64864
▁T	-9.64915
▁представляет	-9.64975
▁очевидно	-9.65124
▁Ба	-9.65137
▁сила	-9.65168
мню	-9.65238
▁лес	-9.65261
▁чуть	-9.65329
овой	-9.65384
▁создание	-9.65404
▁член	-9.65754
лет	-9.6583
▁предмет	-9.65874
нее	-9.65892
К	-9.65916
▁огромн	-9.66099
▁каза	-9.66181
▁времена	-9.66217
▁узнал	-9.66271
▁касает	-9.66352
▁глубоко	-9.66373
▁ж	-9.6643
▁ну	-9.66597
раз	-9.66688
▁друзей	-9.6677
▁материал	-9.66776
▁сожалению	-9.66804
▁машина	-9.66865
▁вер	-9.67084
▁получает	-9.67149
▁месяц	-9.67178
▁пре	-9.67266
ис	-9.67316
ска	-9.67351
▁какое	-9.67456
▁идее	-9.67523
▁Посмотрите	-9.67686
▁M	-9.67839
▁пут	-9.67902
▁приводит	-9.67943
▁любом	-9.67992
йтесь	-9.68219
▁виды	-9.68244
▁считают	-9.68384
▁явля	-9.68483
вшие	-9.68493
▁G	-9.68495
▁продолжать	-9.68568
▁центре	-9.68579
писать	-9.68679
▁бедны	-9.68775
▁сначала	-9.68798
▁угодно	-9.68911
▁недель	-9.68915
▁существую	-9.68956
нии	-9.68996
▁произойд	-9.69077
ний	-9.69131
чь	-9.69159
▁использует	-9.69281
▁голову	-9.69313
▁ради	-9.69323
▁леса	-9.69454
▁наверное	-9.69567
▁фактически	-9.69567
▁случая	-9.69707
9	-9.69771
▁создаёт	-9.69935
▁Сан	-9.69955
▁правительства	-9.70074
▁целом	-9.70099
▁ранее	-9.70134
нести	-9.7016
▁миллиард	-9.70188
▁пытаемся	-9.70316
ишь	-9.7033
жу	-9.70371
▁родители	-9.7047
▁представление	-9.70497
сон	-9.70522
кр	-9.70575
▁труд	-9.70726
▁власти	-9.70773
▁инноваци	-9.70796
▁искусства	-9.7096
верю	-9.70976
▁A	-9.70984
чик	-9.70989
▁пользу	-9.71047
▁Их	-9.71051
ол	-9.71227
▁океана	-9.7127
▁думали	-9.71337
▁недостаточно	-9.7138
▁любовь	-9.71418
▁болезнь	-9.71428
▁обща	-9.71436
▁проблемой	-9.71494
▁знания	-9.71551
▁рассказыва	-9.71584
▁тип	-9.71619
▁музык	-9.71733
▁необходимы	-9.71748
▁магазин	-9.71767
▁заниматься	-9.71887
▁тест	-9.7191
▁Где	-9.72062
▁лечения	-9.72209
ющее	-9.72217
▁любим	-9.72219
▁живёт	-9.72224
дел	-9.72259
▁возможностей	-9.72392
▁код	-9.72562
▁книгу	-9.7262
▁скажу	-9.72625
▁Большинство	-9.72701
▁момента	-9.72885
▁получается	-9.72891
▁делаю	-9.72919
▁отношени	-9.72926
▁политически	-9.73025
вин	-9.73045
▁километров	-9.73058
▁прекрасны	-9.73184
▁неделю	-9.73338
▁экономически	-9.73386
▁кажды	-9.73386
7	-9.73422
▁условиях	-9.73542
▁получают	-9.7365
▁улучши	-9.73659
▁данны	-9.73698
▁другу	-9.73793
▁9	-9.73847
▁сложн	-9.73939
▁энерги	-9.73945
▁B	-9.74257
▁Благодар	-9.74309
▁посмотрел	-9.74309
▁делал	-9.74337
▁урок	-9.74387
▁работали	-9.74419
▁семья	-9.74447
▁глубин	-9.74457
пер	-9.74487
▁действительност	-9.74494
лин	-9.74518
▁живём	-9.74648
▁здравоохранения	-9.74755
▁элемент	-9.74806
▁рук	-9.74887
▁позже	-9.75057
▁процессе	-9.75091
8	-9.75121
▁детям	-9.75293
▁имя	-9.75376
▁поиск	-9.75396
▁чувства	-9.75409
I	-9.75425
▁пациент	-9.75426
▁дорог	-9.7547
▁пациентов	-9.75634
▁создани	-9.75672
шёл	-9.75766
▁всём	-9.75785
▁Китай	-9.75826
▁смогу	-9.75837
▁земле	-9.75856
ран	-9.75937
▁информация	-9.75954
▁правила	-9.75978
▁набор	-9.76037
▁участие	-9.7604
▁желание	-9.76054
▁анализ	-9.76212
▁внимания	-9.76286
тельны	-9.76375
▁разум	-9.76491
▁сад	-9.76527
4	-9.76694
щих	-9.76765
▁огромны	-9.76816
▁курс	-9.76824
нг	-9.76827
▁прогресс	-9.76946
▁галактик	-9.76954
▁помогает	-9.77024
▁сможете	-9.77044
пол	-9.7709
дти	-9.77213
▁научны	-9.77343
▁верно	-9.77527
фи	-9.77561
▁замечательно	-9.77567
▁земли	-9.77598
▁парень	-9.77629
▁определить	-9.77641
▁зависит	-9.77655
▁ног	-9.77691
▁обучения	-9.77783
▁использование	-9.77883
▁500	-9.77979
▁месяца	-9.78003
нд	-9.78115
ель	-9.78252
▁страна	-9.78259
▁Ма	-9.78264
▁играть	-9.78303
▁местны	-9.78417
нных	-9.78543
бе	-9.78625
▁выглядел	-9.78644
▁выясни	-9.78879
нные	-9.78894
▁понимание	-9.78922
▁птиц	-9.7893
▁машину	-9.79125
▁целью	-9.79155
купить	-9.79228
▁ребёнок	-9.79327
▁секс	-9.7936
▁част	-9.79466
▁улиц	-9.79479
▁Дж	-9.79517
вод	-9.79558
▁достичь	-9.7967
▁эмоци	-9.79731
▁студентов	-9.79778
▁научно	-9.79806
▁убедить	-9.8003
▁вполне	-9.80102
таки	-9.80231
▁теле	-9.80237
▁вперёд	-9.80272
шла	-9.80361
▁физически	-9.80379
является	-9.80413
▁ф	-9.80487
▁откуда	-9.805
▁ма	-9.80734
ируем	-9.80782
▁выбора	-9.80957
▁количества	-9.80964
▁вывод	-9.81045
▁Пол	-9.8106
▁единственны	-9.81082
могло	-9.81164
▁D	-9.8125
▁э	-9.81279
ден	-9.81418
▁позволи	-9.81419
▁секунд	-9.81436
▁конца	-9.81457
▁важна	-9.81491
вают	-9.81614
бор	-9.81615
▁сообщества	-9.81727
▁картин	-9.81776
▁жив	-9.81809
▁имеем	-9.81863
▁изменение	-9.81904
щей	-9.81946
▁инфраструктур	-9.82109
▁чаще	-9.8211
▁городе	-9.82133
▁ужасно	-9.82184
▁стары	-9.82349
▁глобально	-9.82354
▁бес	-9.82446
▁условия	-9.82473
▁суть	-9.82517
бра	-9.82526
▁общественно	-9.82613
▁сложны	-9.82669
▁понимаю	-9.82687
аль	-9.82697
ства	-9.8279
▁температур	-9.82837
▁пара	-9.82897
▁книг	-9.82952
▁секрет	-9.83064
▁состояние	-9.83069
изм	-9.83173
С	-9.83197
другому	-9.83199
ним	-9.83234
▁поддержк	-9.83252
▁этап	-9.83318
▁отлично	-9.83395
▁механизм	-9.83498
▁СМИ	-9.83542
▁производства	-9.8378
▁взял	-9.83896
▁недели	-9.8391
▁сайт	-9.83957
▁надею	-9.83979
▁устройства	-9.84095
торая	-9.84101
▁белы	-9.84143
▁показал	-9.8421
▁Бог	-9.84214
▁рад	-9.8422
▁возраста	-9.84242
▁десятк	-9.84254
▁собрать	-9.84257
▁будущего	-9.84264
▁занимает	-9.84265
ила	-9.84361
вой	-9.8439
▁оказывает	-9.84443
▁час	-9.84465
▁объект	-9.84472
▁человечества	-9.84503
▁страниц	-9.84616
▁организм	-9.84632
▁ясно	-9.84673
▁дух	-9.84694
▁науки	-9.84708
▁миллионы	-9.84757
▁Под	-9.84803
кон	-9.84886
▁обществе	-9.84914
▁остава	-9.84998
▁услуг	-9.85053
И	-9.85076
▁велики	-9.85114
▁цифр	-9.85144
ному	-9.85149
бл	-9.85192
▁будете	-9.85275
▁удивительны	-9.85302
00	-9.85346
▁форма	-9.85402
рон	-9.85416
▁называю	-9.85442
▁последствия	-9.85456
пу	-9.85467
▁всеми	-9.85476
ющиеся	-9.85547
▁временем	-9.85729
▁провести	-9.85784
▁лекарства	-9.85814
▁мать	-9.8582
▁90	-9.8587
▁воз	-9.86037
▁мечта	-9.86054
▁алгоритм	-9.86067
▁очередь	-9.86077
▁высоки	-9.86095
Йорке	-9.86115
▁давно	-9.86122
ском	-9.86184
▁форму	-9.8621
лов	-9.86274
▁основан	-9.86371
▁рынок	-9.86435
▁реакци	-9.86441
▁двумя	-9.86606
Г	-9.86663
искать	-9.86678
ист	-9.86731
▁случай	-9.8677
▁16	-9.86794
▁пространства	-9.86808
on	-9.86888
▁продукт	-9.86899
▁первым	-9.86972
▁изображения	-9.87019
▁возраст	-9.87097
▁странно	-9.87103
▁многим	-9.87174
▁хуже	-9.87175
▁сделан	-9.87221
▁I	-9.87263
▁нового	-9.87327
▁Кроме	-9.87548
ились	-9.87578
▁кризис	-9.87636
со	-9.87682
▁работаем	-9.87726
бежать	-9.87929
▁частиц	-9.88122
шу	-9.88164
▁друзья	-9.88167
рат	-9.88211
▁17	-9.88252
▁земл	-9.88281
▁поколение	-9.88301
▁14	-9.88336
летни	-9.88395
▁пришёл	-9.884
▁поколения	-9.88426
▁систем	-9.88436
▁относительно	-9.88446
ца	-9.88557
▁нефт	-9.88643
▁дизайна	-9.88759
▁двигаться	-9.888
▁13	-9.88814
▁Перв	-9.88868
▁будь	-9.89137
▁вашем	-9.89168
▁Европе	-9.89324
▁реальност	-9.89331
▁искусство	-9.89417
▁религи	-9.89482
▁получаем	-9.89487
▁аппарат	-9.89525
ус	-9.89558
▁программу	-9.89562
П	-9.89563
нул	-9.89589
▁нужда	-9.896
▁демократи	-9.89614
▁картинк	-9.89622
▁совместно	-9.89647
▁компаний	-9.89658
▁команда	-9.89682
▁начинае	-9.89905
▁поверхность	-9.90031
▁поток	-9.90045
ают	-9.90102
тон	-9.9025
3	-9.90354
оп	-9.90565
▁Ли	-9.90659
▁возрасте	-9.90756
нный	-9.90774
три	-9.90867
▁сердца	-9.90936
▁Проблем	-9.90955
▁позволил	-9.90984
▁вселенной	-9.91011
▁примеров	-9.91242
▁данным	-9.91254
ющего	-9.91261
чно	-9.91309
▁Пока	-9.9139
▁взяли	-9.91432
▁ситуацию	-9.91492
p	-9.91497
▁случайно	-9.91616
кл	-9.91621
▁новости	-9.91646
ско	-9.91652
▁ощущение	-9.91713
▁представь	-9.91729
▁понятия	-9.91733
▁ход	-9.91752
▁правило	-9.91806
▁Чере	-9.91921
ками	-9.91944
▁объём	-9.91998
▁удар	-9.92004
▁создают	-9.92062
▁совет	-9.92103
▁длин	-9.92135
▁Наши	-9.92246
▁кон	-9.9226
▁изучать	-9.92266
▁стара	-9.92326
▁Ни	-9.92477
▁справа	-9.9252
▁сидел	-9.92527
▁изучени	-9.92534
читаем	-9.9263
ская	-9.92782
ственн	-9.92963
▁вне	-9.92996
▁вести	-9.93001
ar	-9.93016
▁мужчина	-9.93122
▁следующе	-9.93124
▁дороги	-9.93135
стер	-9.93143
▁символ	-9.93226
▁интеллект	-9.93357
▁ресурсов	-9.93379
О	-9.93391
▁управлять	-9.93414
▁современно	-9.93429
▁считать	-9.93471
▁Ч	-9.93569
тельно	-9.93569
▁живы	-9.93596
l	-9.93639
▁любимы	-9.93641
▁номер	-9.93715
▁любв	-9.93752
▁естественно	-9.93793
▁ошибк	-9.93797
▁муж	-9.93801
щие	-9.93838
▁Ещ	-9.93846
▁готов	-9.93934
▁надежд	-9.94018
▁программа	-9.94084
▁появилась	-9.942
▁район	-9.94219
▁читать	-9.94226
▁серьёзно	-9.94228
▁Джон	-9.9425
▁нормально	-9.94252
▁собираю	-9.94318
▁Раз	-9.94322
u	-9.94343
вши	-9.94471
▁происходил	-9.94485
▁конец	-9.94513
▁полици	-9.94566
▁события	-9.9461
▁боя	-9.94611
▁кор	-9.94647
Б	-9.9467
▁обнаружил	-9.94853
▁хорош	-9.94864
▁основны	-9.94936
▁выглядеть	-9.94938
▁здоровья	-9.9495
▁журнал	-9.94959
▁спор	-9.9507
▁принимать	-9.95077
фор	-9.95086
ируют	-9.95208
▁успеха	-9.95228
▁создан	-9.95341
▁позволит	-9.95358
▁размера	-9.95399
▁линии	-9.955
▁стол	-9.95524
▁взгляну	-9.95543
▁остров	-9.9558
▁связаны	-9.95637
▁потенциал	-9.95662
▁порядке	-9.95734
нуть	-9.9579
▁Ла	-9.95842
▁определённо	-9.95936
▁регион	-9.95982
▁осознал	-9.9599
▁можешь	-9.9608
▁способом	-9.96081
давать	-9.9609
▁вызов	-9.96111
▁робот	-9.9612
вторы	-9.96135
▁цвета	-9.96145
ится	-9.96204
▁управления	-9.96235
▁никаки	-9.9627
▁Тем	-9.96274
▁чрезвычайно	-9.96288
▁сельско	-9.96291
нес	-9.96312
▁сегодняшни	-9.96328
▁наблюдать	-9.96331
▁сосед	-9.96403
▁игр	-9.96411
зы	-9.96412
▁собираем	-9.96455
▁д	-9.96487
▁широко	-9.96545
▁углерод	-9.9658
▁ноги	-9.96582
▁американски	-9.96627
▁следующем	-9.96736
род	-9.96737
огласно	-9.96875
▁сто	-9.9691
▁здоровье	-9.9692
▁подобное	-9.96961
▁влияет	-9.96963
▁жизнью	-9.97021
▁Тут	-9.97054
▁ста	-9.97278
▁открыты	-9.97326
▁связан	-9.97367
n	-9.97374
▁аудитори	-9.97398
▁общи	-9.97535
щем	-9.97559
ющим	-9.9766
щего	-9.97716
▁музыку	-9.97728
▁хоть	-9.97736
▁созда	-9.97778
▁Вселенн	-9.979
▁смотрите	-9.97983
цен	-9.98032
▁детьми	-9.98145
▁животные	-9.98161
▁наука	-9.98288
▁выступления	-9.98353
▁70	-9.98368
▁качества	-9.98369
рос	-9.98372
▁продолжает	-9.98397
▁писать	-9.98455
▁черт	-9.98465
дин	-9.98479
▁моем	-9.98569
▁дни	-9.98583
▁режим	-9.98603
▁случаев	-9.98663
▁фактор	-9.98685
▁слайд	-9.98699
тро	-9.98752
▁помнит	-9.98761
▁среду	-9.98771
▁учёные	-9.98975
▁отношение	-9.98993
▁улице	-9.99
▁городов	-9.99001
▁борьб	-9.9906
▁процесса	-9.99078
▁повсюду	-9.9908
креп	-9.99109
▁разработал	-9.99113
▁привести	-9.99135
▁книга	-9.99253
▁обеспечи	-9.99329
▁Чем	-9.99331
▁реклам	-9.99347
▁сделано	-9.99348
▁крупны	-9.99443
▁замечательны	-9.99456
▁Перво	-9.99464
при	-9.9955
▁конечном	-9.99561
▁предел	-9.99671
▁мнение	-9.9969
▁боль	-9.99741
▁способности	-9.99742
▁хороший	-9.99819
▁сквоз	-9.99847
▁направлении	-9.99907
ели	-9.99918
▁стоимость	-10.0018
▁расти	-10.0022
▁приехал	-10.0024
▁родителей	-10.0024
▁открыто	-10.0026
▁пе	-10.0027
▁конц	-10.0028
вор	-10.0029
▁рек	-10.0033
бу	-10.0033
▁граждан	-10.0034
▁эффективно	-10.004
частью	-10.0046
▁частно	-10.0048
▁треть	-10.006
▁семье	-10.0064
▁помога	-10.0071
▁числа	-10.0075
▁учиться	-10.0078
▁народ	-10.0091
▁важное	-10.0097
инг	-10.01
▁Хотя	-10.0109
k	-10.0119
▁следующее	-10.0131
▁какая	-10.0135
al	-10.014
▁жил	-10.0149
▁букв	-10.0151
▁развити	-10.0164
▁музыка	-10.0172
ции	-10.0174
Х	-10.0186
▁300	-10.0189
▁середин	-10.0194
▁поле	-10.02
▁станови	-10.02
▁поводу	-10.0202
нет	-10.0204
▁настоящее	-10.0212
нов	-10.0226
▁вероятность	-10.0229
▁языка	-10.0236
▁остально	-10.0243
▁ла	-10.0253
▁лист	-10.0257
делаем	-10.0257
ирован	-10.0259
▁единственно	-10.026
▁канал	-10.0264
▁сделала	-10.0265
▁поможет	-10.0281
▁вершин	-10.0281
▁Оказывает	-10.0281
▁геном	-10.0281
▁население	-10.0284
пустить	-10.0289
▁веке	-10.0296
чер	-10.0296
▁практик	-10.0306
▁лечение	-10.031
пис	-10.0315
ала	-10.0322
▁придумал	-10.0323
▁среде	-10.0323
▁доктор	-10.034
▁зову	-10.0341
ток	-10.0347
▁способы	-10.0352
▁P	-10.0352
▁рыб	-10.0365
вший	-10.0371
▁водой	-10.0379
▁определённы	-10.0387
▁человеку	-10.0392
▁многое	-10.0398
▁Боле	-10.0399
▁потрясающе	-10.0402
▁чисто	-10.0404
▁узнали	-10.0407
▁первых	-10.0413
▁особо	-10.0426
▁обычны	-10.0437
▁новым	-10.0437
▁пространстве	-10.0442
▁выступление	-10.0442
▁угроз	-10.0446
▁список	-10.0456
▁сильны	-10.046
▁получи	-10.0468
▁одни	-10.0474
▁насчёт	-10.0476
▁компьютеры	-10.0486
ря	-10.0487
ющую	-10.0493
▁аспект	-10.0494
▁средств	-10.0494
▁род	-10.0497
Т	-10.0499
▁пришла	-10.0513
▁реальны	-10.0513
▁научить	-10.0515
тра	-10.0529
▁Ка	-10.0535
▁супер	-10.0536
▁считает	-10.0537
ческо	-10.0539
▁обязательно	-10.0544
▁область	-10.0544
pos	-10.0556
▁мечт	-10.0558
ина	-10.0559
▁мобильны	-10.0559
▁дали	-10.056
▁Китае	-10.0565
нная	-10.0585
▁еду	-10.0599
итесь	-10.0602
▁остаёт	-10.0605
жд	-10.0614
▁показывают	-10.0615
▁экономическо	-10.0629
▁показали	-10.0634
В	-10.0634
▁зависимости	-10.0634
▁составляет	-10.0636
дите	-10.0637
▁ответственность	-10.0642
▁обучение	-10.0644
▁24	-10.0644
▁специально	-10.0645
▁запис	-10.065
▁находить	-10.0662
▁мирово	-10.0669
C	-10.0671
▁понимал	-10.0676
вать	-10.0676
ново	-10.0678
▁особенност	-10.0678
Л	-10.0681
▁экран	-10.0691
▁задума	-10.0692
ально	-10.0693
▁сумм	-10.0694
A	-10.0695
▁нему	-10.0695
▁движени	-10.0707
▁Ра	-10.0713
▁перемен	-10.0713
▁документ	-10.0713
▁политическо	-10.0717
▁обратить	-10.0726
зу	-10.0728
▁строить	-10.0732
▁данном	-10.0736
▁неправильно	-10.0752
▁понимаем	-10.0754
▁бактери	-10.0758
▁E	-10.0759
▁секунду	-10.0761
▁контакт	-10.077
▁скажет	-10.077
▁звучит	-10.077
▁растения	-10.0776
▁проходит	-10.0795
▁скоростью	-10.0802
▁качество	-10.0803
▁получится	-10.0805
▁чувствовал	-10.0811
▁Лос	-10.0814
▁увидим	-10.0815
▁спасти	-10.0818
нное	-10.0825
an	-10.0834
▁автомобиль	-10.0839
▁языке	-10.0842
рен	-10.0843
▁слыш	-10.0861
▁Видите	-10.0862
нос	-10.0862
▁небольш	-10.0879
уществует	-10.0883
▁меняет	-10.0884
▁связанны	-10.0901
▁Южно	-10.0902
▁контролирова	-10.0903
юю	-10.0903
▁использовал	-10.0903
▁близко	-10.0911
начала	-10.0912
▁ближе	-10.0914
▁сним	-10.0916
▁положение	-10.0918
▁исследова	-10.0919
оз	-10.0923
▁офис	-10.0929
▁космос	-10.0936
▁свободно	-10.0939
▁снимк	-10.0941
h	-10.0945
▁любя	-10.0958
▁след	-10.0959
▁происходя	-10.0961
▁военны	-10.0963
▁вышл	-10.0971
▁хоч	-10.0973
просить	-10.0974
лон	-10.0981
▁путешествие	-10.0983
ительн	-10.0984
▁Эй	-10.0989
▁сталкива	-10.0997
▁Одно	-10.1004
▁некоторо	-10.1005
▁ответить	-10.1006
оборот	-10.1009
▁тяжело	-10.102
▁мусор	-10.1022
тически	-10.1023
▁усили	-10.1028
▁фильма	-10.1028
шел	-10.1033
▁неудач	-10.1043
▁везде	-10.1047
▁пользоваться	-10.105
▁Дело	-10.1051
▁велосипед	-10.1052
▁своем	-10.1053
▁чувствую	-10.1053
▁суд	-10.1055
▁насилия	-10.1062
▁изменило	-10.1066
▁доступны	-10.1074
▁Само	-10.1075
▁энергия	-10.1086
▁Мои	-10.1087
учиться	-10.109
▁медицин	-10.1091
▁Вопрос	-10.1094
под	-10.1103
▁выбрать	-10.1104
▁Ле	-10.1107
льше	-10.1118
▁шар	-10.1119
▁отдельны	-10.1122
▁расположен	-10.1122
▁желез	-10.1125
▁ниже	-10.1141
▁сделаю	-10.1142
▁маленьк	-10.1147
g	-10.1167
▁цифрово	-10.1174
▁государства	-10.1188
кра	-10.1202
ван	-10.1211
щая	-10.1212
▁оценк	-10.1213
кры	-10.1221
▁генетически	-10.1231
ьте	-10.1238
▁небольши	-10.1241
▁наверняка	-10.1249
▁политики	-10.1255
▁пройти	-10.1255
▁газ	-10.1259
▁попыта	-10.1266
▁личност	-10.1268
▁прошлого	-10.1269
работ	-10.1269
▁случа	-10.1274
ошёл	-10.1279
▁умны	-10.1279
ур	-10.1282
▁журналист	-10.1284
ены	-10.1288
▁выход	-10.1292
▁микро	-10.1293
▁столь	-10.1297
▁материалы	-10.1305
имся	-10.1315
▁задать	-10.132
▁скорост	-10.1322
▁Ха	-10.1324
▁2000	-10.1326
тан	-10.1332
▁ООН	-10.1332
▁онлайн	-10.1334
▁возможны	-10.1351
▁доме	-10.1353
▁способов	-10.1355
▁мер	-10.136
▁норм	-10.1361
▁вклад	-10.1362
▁скорость	-10.1364
▁предложил	-10.1365
▁жили	-10.1366
▁Пере	-10.1371
▁назвать	-10.1378
▁выглядят	-10.138
▁попробовать	-10.1386
▁внутрь	-10.1387
▁растени	-10.1389
▁маленько	-10.1393
▁пытался	-10.1395
вид	-10.1398
▁пациента	-10.1399
▁эксперт	-10.1399
ника	-10.1401
няя	-10.1405
▁взрослы	-10.1413
▁изменит	-10.1414
▁страну	-10.1415
▁солнечны	-10.142
▁Ж	-10.1421
▁поведения	-10.1422
▁живо	-10.1426
▁конференции	-10.1428
▁Япони	-10.143
▁решать	-10.1431
помнить	-10.1431
M	-10.1432
▁компьютера	-10.1433
▁прибор	-10.1442
▁заболевания	-10.1442
▁независимо	-10.1445
▁красот	-10.1453
▁дают	-10.1457
▁комнате	-10.146
▁приём	-10.1461
Д	-10.1461
куп	-10.1463
▁живу	-10.1464
▁важным	-10.1471
смотрим	-10.1483
▁назвал	-10.1489
ехать	-10.1492
станут	-10.1496
▁истин	-10.1498
вание	-10.1506
▁газа	-10.151
▁лиц	-10.1516
▁нашёл	-10.1524
▁точк	-10.1525
▁дал	-10.1527
▁четырёх	-10.1536
▁открыть	-10.1538
▁п	-10.1541
лучилось	-10.155
▁продуктов	-10.1564
▁связано	-10.1567
▁вынужден	-10.1576
▁отличие	-10.1576
ак	-10.1577
▁живущи	-10.1577
▁компонент	-10.1581
▁ш	-10.1586
▁рассказ	-10.1594
▁Ро	-10.1595
▁развивать	-10.1603
▁заставил	-10.161
▁море	-10.1611
▁кра	-10.1615
▁еды	-10.1619
▁атмосфер	-10.162
▁Бразили	-10.1625
▁каких	-10.1632
▁душ	-10.1632
▁утром	-10.1635
▁старше	-10.1639
▁хочется	-10.1653
▁методы	-10.1656
▁доверя	-10.1676
▁имел	-10.1679
▁баз	-10.168
▁потрясающи	-10.1697
▁уме	-10.17
▁архитектур	-10.1704
▁рыбы	-10.1709
фа	-10.1715
▁городах	-10.1717
▁требует	-10.172
▁Такие	-10.1721
ился	-10.1726
▁рождения	-10.1735
▁смотрит	-10.1744
▁био	-10.1747
▁шести	-10.1752
▁президент	-10.1755
▁понимают	-10.1762
▁действий	-10.1763
▁сме	-10.1766
▁роботов	-10.1767
▁точка	-10.1772
▁экосистем	-10.1775
▁сильнее	-10.1776
▁км	-10.1777
▁играет	-10.178
▁вернулся	-10.1781
▁успешно	-10.1786
▁отца	-10.1797
▁пожалуйста	-10.18
▁переход	-10.1802
сер	-10.1803
▁пытается	-10.1805
▁огромные	-10.1808
гер	-10.1808
in	-10.181
▁планета	-10.1813
▁стоял	-10.1815
▁Земля	-10.1815
▁Лондон	-10.1817
▁страшно	-10.1826
▁творчески	-10.183
це	-10.1849
ывает	-10.1851
▁ранни	-10.1852
▁достигл	-10.1854
▁Великобритании	-10.1861
▁архитектор	-10.1876
▁людях	-10.1876
▁запас	-10.1878
▁мальчик	-10.1879
▁ужас	-10.188
▁интервью	-10.1883
▁открытия	-10.1884
▁400	-10.1886
▁автор	-10.1887
▁Де	-10.1889
▁привело	-10.1892
▁голоса	-10.1894
▁умер	-10.1896
▁плохи	-10.1896
▁отдел	-10.1904
ред	-10.1905
▁конфликт	-10.1906
▁воде	-10.1908
▁столкну	-10.1914
▁биологически	-10.1915
▁лекарство	-10.1917
▁Без	-10.1918
▁получать	-10.1918
▁пу	-10.1922
▁собственн	-10.1925
▁честно	-10.1926
▁ресторан	-10.1927
жить	-10.1931
шн	-10.1931
▁встреча	-10.1936
▁сохранить	-10.1946
▁приходят	-10.1949
▁вперед	-10.195
▁власть	-10.195
▁вкус	-10.1951
▁перевод	-10.1954
▁словно	-10.1955
она	-10.1958
▁используется	-10.1969
▁посредств	-10.1979
▁опыта	-10.1983
▁ценности	-10.1984
тен	-10.1985
▁заставляет	-10.199
▁собрали	-10.199
▁действова	-10.1993
ично	-10.1994
▁кино	-10.1998
▁коробк	-10.2
овсе	-10.2006
вар	-10.2007
▁сообщество	-10.2007
▁вод	-10.2007
▁развивающих	-10.2015
нец	-10.202
▁признать	-10.2023
▁находи	-10.2029
▁написан	-10.2029
▁девочка	-10.203
▁Н	-10.2031
▁знаний	-10.2032
▁едино	-10.2034
▁деревья	-10.2034
▁действие	-10.2034
▁учителя	-10.2039
▁мост	-10.204
▁Идея	-10.2044
▁обмен	-10.2045
▁решила	-10.2046
▁радио	-10.205
▁производство	-10.2051
▁химически	-10.2052
▁масштаба	-10.2059
P	-10.206
▁Та	-10.2065
▁революции	-10.2074
▁письмо	-10.2082
▁бороться	-10.2085
▁наблюдаем	-10.2092
▁общего	-10.2094
нут	-10.2095
▁сложные	-10.2096
▁знакомы	-10.2097
▁вызывает	-10.2098
▁слышал	-10.2099
▁оружие	-10.2103
▁появил	-10.2104
▁экологически	-10.2114
▁вырос	-10.2122
▁служб	-10.2132
▁территории	-10.2132
▁забот	-10.2134
▁медленно	-10.2136
▁усилия	-10.2137
▁проб	-10.2141
тесь	-10.2144
гла	-10.2153
▁представляют	-10.216
кажем	-10.2164
▁вред	-10.217
▁понимания	-10.217
пад	-10.2186
▁лежит	-10.2187
▁богаты	-10.219
▁верси	-10.2193
▁имели	-10.2193
▁требуется	-10.2194
▁открытие	-10.2202
▁смерть	-10.2205
нной	-10.2208
лек	-10.2211
▁видят	-10.2229
▁ума	-10.2229
▁ценность	-10.2235
▁ребята	-10.2235
▁Ирак	-10.2243
▁Мир	-10.2246
▁изменил	-10.2247
▁среднем	-10.2247
▁новость	-10.2248
▁поднять	-10.225
▁достижения	-10.225
▁каком	-10.2253
▁смотрел	-10.2254
▁подобно	-10.2254
▁возвраща	-10.2255
менить	-10.227
▁представления	-10.2271
▁похож	-10.2274
▁сектор	-10.2275
▁каса	-10.2276
▁работающи	-10.2276
▁согласи	-10.2277
ники	-10.2279
▁открыт	-10.2282
▁счастье	-10.2292
▁Запад	-10.2292
▁масс	-10.2293
▁прошло	-10.2298
▁попасть	-10.2304
▁изменили	-10.2307
▁событий	-10.2307
▁заболеваний	-10.231
▁помогл	-10.2318
▁утра	-10.2337
вый	-10.2338
▁фотографию	-10.2346
▁плане	-10.2346
▁понрави	-10.2347
▁социальн	-10.235
▁различия	-10.235
▁волос	-10.2354
▁кампани	-10.2357
▁ба	-10.2359
▁теория	-10.2359
▁оказался	-10.236
▁рынка	-10.2361
ажен	-10.2363
▁замети	-10.2364
нь	-10.2364
▁прогноз	-10.2387
кажут	-10.2389
▁состав	-10.2398
▁начиная	-10.2399
▁важнее	-10.2403
ющими	-10.2407
ложить	-10.2409
▁Сам	-10.2411
▁счастливы	-10.2425
▁поддерживать	-10.2425
▁находимся	-10.2426
▁рабочих	-10.243
▁жител	-10.2432
▁горы	-10.2434
▁занять	-10.2436
▁затрат	-10.2436
▁схем	-10.2439
▁экране	-10.2441
▁чувствует	-10.2446
▁деятельности	-10.2453
▁биологии	-10.2453
▁вновь	-10.2453
вит	-10.2458
▁родил	-10.2469
стей	-10.2474
▁показан	-10.2474
▁отправить	-10.2487
▁просты	-10.2488
▁университета	-10.249
▁науке	-10.2491
щую	-10.2497
▁техник	-10.2498
▁красивы	-10.2503
нер	-10.2505
▁восемь	-10.2507
▁научили	-10.2509
▁рамках	-10.2512
▁удовольствие	-10.2519
летне	-10.252
▁началось	-10.2529
d	-10.2533
▁взаимодействия	-10.2533
▁воздуха	-10.2546
▁друзьями	-10.2547
▁реальном	-10.255
▁название	-10.255
▁бомб	-10.2557
▁построен	-10.2557
▁растёт	-10.2561
▁Перед	-10.2568
▁Обычно	-10.2569
сил	-10.2575
▁вещества	-10.2585
лева	-10.2615
▁называемы	-10.262
▁Ю	-10.2621
▁команды	-10.2623
▁век	-10.2627
ват	-10.2628
▁подходит	-10.2633
▁защитить	-10.2635
▁контроля	-10.2637
▁цивилизаци	-10.264
▁21	-10.2641
ики	-10.2641
▁вопроса	-10.2652
▁крови	-10.2652
▁плат	-10.2659
▁учат	-10.266
▁самостоятельно	-10.2667
▁сверху	-10.267
▁дерево	-10.2671
▁американцев	-10.2672
▁оп	-10.2674
▁хватает	-10.2674
▁север	-10.2675
▁пост	-10.2681
▁Марс	-10.2682
▁тонн	-10.2684
▁позици	-10.2686
▁существу	-10.2687
ству	-10.2692
пы	-10.2696
скольк	-10.2702
▁средни	-10.2703
вшего	-10.2716
▁150	-10.272
▁эффективны	-10.2721
▁особ	-10.2723
▁понятие	-10.2729
▁мимо	-10.2731
▁позволяю	-10.2731
чные	-10.2732
▁разобраться	-10.2732
▁жителе	-10.2732
работать	-10.2736
▁передать	-10.2741
▁Калифорнии	-10.275
чная	-10.2757
▁восприятие	-10.2757
▁сложност	-10.2766
▁лекарств	-10.2768
▁существовал	-10.2773
▁контроль	-10.2774
▁туалет	-10.2781
▁Вашингтон	-10.2781
▁Факт	-10.2782
▁технически	-10.2782
▁Северно	-10.2784
▁организация	-10.2787
▁разве	-10.2799
лучается	-10.28
▁охран	-10.2803
▁внезапно	-10.2804
▁вечер	-10.2805
▁бумаги	-10.281
▁семей	-10.281
▁группу	-10.2811
▁дорого	-10.2812
▁отправил	-10.2834
жать	-10.2834
▁спрашиваю	-10.2835
▁задумать	-10.2837
acebook	-10.2837
▁учёных	-10.2837
▁ткани	-10.2837
▁одному	-10.284
▁прошлое	-10.2842
▁перспектив	-10.2845
▁получит	-10.2852
▁осозна	-10.2855
▁редко	-10.2856
▁произ	-10.2864
дж	-10.2864
лы	-10.2871
▁пределам	-10.2875
▁увеличить	-10.2879
E	-10.2893
▁Сколько	-10.2893
▁шимпанзе	-10.2893
▁вещах	-10.2893
▁сцене	-10.2896
▁общин	-10.2897
▁Билл	-10.2898
▁услышал	-10.29
▁мышления	-10.2905
▁проводить	-10.2908
легка	-10.2909
▁общения	-10.2912
▁сложнее	-10.2913
6	-10.2914
▁зачем	-10.2922
ским	-10.2926
▁проще	-10.2926
▁двер	-10.2926
▁минуту	-10.293
▁цикл	-10.293
▁отношении	-10.2935
▁га	-10.2936
▁культура	-10.294
▁активно	-10.294
нс	-10.2941
стан	-10.2944
цев	-10.2948
▁чёрны	-10.2949
▁Вообще	-10.295
▁неделе	-10.2955
▁шум	-10.2957
нц	-10.2958
▁элементы	-10.2964
▁добавить	-10.2967
▁бесплатно	-10.2968
▁Три	-10.2972
▁безопасность	-10.2974
▁эпох	-10.2992
▁получени	-10.2996
▁бизнеса	-10.3005
T	-10.3007
▁хлеб	-10.3007
▁высок	-10.301
ировал	-10.3011
ген	-10.3013
▁медицински	-10.3015
▁робота	-10.3015
▁довери	-10.3017
▁относит	-10.3017
▁вашим	-10.3025
▁ди	-10.3026
▁лёгки	-10.3029
▁средне	-10.303
▁образц	-10.3031
▁утро	-10.3035
▁гены	-10.3038
▁Бо	-10.3039
▁отличны	-10.3039
▁построили	-10.3046
▁историй	-10.3048
▁настоящ	-10.3062
▁память	-10.3064
▁деятельность	-10.3064
▁Мак	-10.3066
кладыва	-10.3077
вели	-10.3081
▁выходит	-10.3082
▁Па	-10.3085
▁плава	-10.3086
▁мо	-10.3094
▁пуст	-10.31
▁велико	-10.3105
▁признак	-10.3106
▁бор	-10.3118
▁информацией	-10.3121
▁памяти	-10.3121
▁обработк	-10.3122
▁единственн	-10.3122
▁запах	-10.3122
▁Лад	-10.3123
▁приходилось	-10.3123
▁класса	-10.3129
▁рассмотре	-10.3131
▁нефть	-10.3132
мимо	-10.3145
▁компанию	-10.3145
▁звёзд	-10.3149
▁планет	-10.3154
▁мировы	-10.3154
▁студенты	-10.316
▁долг	-10.3165
▁завод	-10.3175
▁Ре	-10.3178
▁индустри	-10.3178
▁полу	-10.3178
▁продукты	-10.3179
▁девочек	-10.3179
▁ВВП	-10.3179
▁материалов	-10.3182
браться	-10.3183
▁предложение	-10.3188
чки	-10.3189
▁идет	-10.3199
лучится	-10.3203
мор	-10.3205
▁определяет	-10.3208
▁любил	-10.3211
ует	-10.3218
▁поставил	-10.3222
▁финансовы	-10.3222
▁молодо	-10.3225
▁проектов	-10.3227
▁Зач	-10.3228
▁ум	-10.3238
▁срок	-10.3239
es	-10.324
исты	-10.3244
▁обе	-10.3245
ъ	-10.3246
прежнем	-10.3247
▁причинам	-10.3249
▁представител	-10.3259
▁Им	-10.3267
▁поля	-10.3276
▁прийти	-10.3277
астую	-10.3277
▁игру	-10.3281
▁закончил	-10.3283
▁име	-10.3285
▁возможным	-10.329
▁зач	-10.3295
▁Австрали	-10.3296
▁задумыва	-10.3296
▁мил	-10.3297
▁какую	-10.3302
▁борьбе	-10.3306
▁половина	-10.3307
нять	-10.3308
кер	-10.3312
▁детски	-10.3316
▁штата	-10.3321
▁существа	-10.3322
▁простым	-10.3337
▁животно	-10.3339
▁Ди	-10.3347
▁Аль	-10.3349
▁Хо	-10.3352
▁автобус	-10.3355
▁сделает	-10.3355
▁услышать	-10.3355
▁телескоп	-10.3355
▁университет	-10.3356
ун	-10.3359
▁рассказывал	-10.3363
ваем	-10.3366
▁континент	-10.3369
▁директор	-10.3371
эй	-10.3373
▁понятно	-10.3375
▁важн	-10.3382
▁продолжи	-10.339
▁комнат	-10.3398
▁ведёт	-10.3398
▁наук	-10.3398
▁оцени	-10.3398
▁помог	-10.3404
▁маленьким	-10.3404
▁коротки	-10.3411
▁инвестици	-10.3411
▁грипп	-10.3414
▁содержит	-10.3414
▁Вмест	-10.3415
▁жертв	-10.3431
▁насилие	-10.3432
▁конкретно	-10.3452
▁невероятны	-10.3453
▁правы	-10.3459
▁красиво	-10.3463
▁гражданско	-10.3466
▁Значит	-10.347
▁Университет	-10.3473
▁благотворительн	-10.3473
▁груди	-10.3474
▁благо	-10.3474
▁поехал	-10.3474
бит	-10.3479
▁сообщение	-10.3487
▁позволя	-10.3492
▁парня	-10.3494
▁создава	-10.3496
▁остановить	-10.3497
▁солдат	-10.3504
▁доступно	-10.3506
▁N	-10.3506
ирование	-10.351
ика	-10.3512
▁пищи	-10.3519
чный	-10.3527
▁ключ	-10.3529
▁собирает	-10.3531
▁окружающ	-10.3532
▁постепенно	-10.3533
▁Ответ	-10.3534
▁Соединённы	-10.3535
▁шоу	-10.3536
слева	-10.3538
▁участи	-10.3542
▁солнечно	-10.3547
щий	-10.3548
▁речи	-10.3555
▁глазами	-10.3559
▁электрически	-10.3563
шло	-10.3565
▁самолёт	-10.3565
▁исследовани	-10.3565
отен	-10.3567
▁движет	-10.3567
▁закончить	-10.3571
▁роли	-10.3577
▁красны	-10.3578
▁представлен	-10.3587
▁коррупци	-10.3593
▁картина	-10.3595
▁результатов	-10.3596
▁учителе	-10.3599
▁Рас	-10.3601
▁линия	-10.3601
▁кожи	-10.3602
▁брат	-10.3603
▁позволь	-10.3606
▁кусочк	-10.3606
▁отличается	-10.3608
идеть	-10.3612
▁района	-10.3612
доль	-10.3623
▁трех	-10.3625
▁серьёзны	-10.3626
▁медицинско	-10.3627
▁полезны	-10.3634
m	-10.364
▁Нас	-10.3647
▁полны	-10.3649
▁па	-10.3653
▁веб	-10.3657
▁игрок	-10.3665
▁переста	-10.3673
▁банк	-10.3682
▁занимал	-10.3683
вается	-10.3688
нного	-10.3689
▁школ	-10.3701
▁предложи	-10.3706
ников	-10.3712
▁смотрю	-10.3716
▁единиц	-10.3717
▁обнаружить	-10.3719
▁стволовы	-10.3722
раж	-10.3724
▁потеря	-10.3737
▁искал	-10.3739
эн	-10.3741
лер	-10.3754
▁спин	-10.3754
▁неожиданно	-10.3758
▁продолжительно	-10.3766
▁газет	-10.3767
▁чист	-10.3771
▁Джордж	-10.3776
▁удастся	-10.3776
▁существ	-10.3777
▁35	-10.3779
R	-10.378
▁третий	-10.378
пуск	-10.3784
ена	-10.379
ойти	-10.379
▁ближайши	-10.3794
▁стади	-10.3796
▁взрыв	-10.3799
▁причине	-10.3799
▁прочита	-10.3799
▁занимают	-10.3801
▁районе	-10.3802
▁сидит	-10.3803
▁измерения	-10.3812
тели	-10.3814
▁пик	-10.3818
▁смотрели	-10.3821
▁теми	-10.3825
ировали	-10.3825
▁поместить	-10.3827
▁Хоч	-10.3828
▁зуб	-10.383
▁самим	-10.3831
▁открыл	-10.3832
▁инженер	-10.3837
▁исключение	-10.3843
▁смотрят	-10.3844
▁устройств	-10.3844
▁честь	-10.3848
▁внутренне	-10.3858
▁R	-10.3863
▁правил	-10.3865
▁Друго	-10.3871
▁сознание	-10.3873
▁биологи	-10.3874
▁встретил	-10.3877
▁множеств	-10.3879
▁примени	-10.3881
▁телевизор	-10.3883
вает	-10.3884
оставить	-10.3891
▁Ричард	-10.39
▁Индия	-10.39
▁опасно	-10.3902
▁объекты	-10.3903
▁природа	-10.3907
▁мед	-10.3909
▁торговл	-10.3911
▁кол	-10.3923
тки	-10.3928
образн	-10.3932
▁учитыва	-10.3933
▁глобальны	-10.3933
▁воспользова	-10.3935
▁общественны	-10.3943
▁взросл	-10.3951
▁полезно	-10.3951
▁другому	-10.3952
▁какого	-10.3959
▁традиционны	-10.396
легче	-10.3962
▁костюм	-10.3963
▁клиник	-10.3964
▁блок	-10.3964
▁проводим	-10.3965
▁знак	-10.3971
▁труда	-10.3971
▁Земл	-10.3988
▁математик	-10.3989
▁Иран	-10.3989
▁общ	-10.3995
▁болезней	-10.3996
▁любит	-10.3997
ации	-10.4
▁получила	-10.4007
щи	-10.4012
▁ос	-10.4015
стоит	-10.4017
▁правильны	-10.402
▁фонд	-10.402
есь	-10.4023
▁читал	-10.4027
▁c	-10.4027
▁любы	-10.403
▁Кажд	-10.4039
▁экономика	-10.404
▁Африка	-10.4042
▁ребёнком	-10.4044
▁измери	-10.4058
▁сущност	-10.4063
▁пригласил	-10.4071
иц	-10.4078
▁театр	-10.4081
▁разговарива	-10.4082
▁роман	-10.4086
▁деревьев	-10.4089
▁пошли	-10.409
▁травм	-10.409
▁десять	-10.4099
▁производить	-10.41
▁разнообразие	-10.4105
▁страха	-10.4105
▁установить	-10.4105
▁отвечаю	-10.4105
▁кофе	-10.4114
▁морско	-10.4115
▁частны	-10.4116
▁Африк	-10.4122
▁кровь	-10.4124
▁Кита	-10.4126
▁университете	-10.4131
▁сотруднича	-10.4143
▁сторона	-10.4145
▁блог	-10.415
▁Наконец	-10.4152
▁внутренни	-10.4153
▁жена	-10.4154
чат	-10.4168
▁слушать	-10.4169
▁числе	-10.4169
▁машине	-10.4169
▁небо	-10.4173
▁взаимосвяз	-10.4194
йдём	-10.4195
▁ограничен	-10.4196
сты	-10.4197
У	-10.4198
▁существующи	-10.4199
▁сообща	-10.4208
▁сообщения	-10.4209
▁сверх	-10.4219
шен	-10.4221
▁люб	-10.4223
▁команд	-10.4224
▁характер	-10.4225
▁оставил	-10.4227
▁проверить	-10.4229
▁юг	-10.4232
▁современны	-10.4234
▁материала	-10.4236
le	-10.4238
чных	-10.4241
▁сери	-10.4247
▁значения	-10.425
▁прос	-10.4257
▁заключа	-10.4262
▁операции	-10.4262
▁ужасны	-10.4263
▁данно	-10.4267
▁ожидал	-10.4276
▁Человек	-10.4281
▁Нигери	-10.4281
▁выброс	-10.4285
▁Боже	-10.4286
вшая	-10.4288
▁текст	-10.4289
b	-10.429
шек	-10.4292
▁ходил	-10.4294
it	-10.4294
альны	-10.4295
▁безопасно	-10.4296
▁мол	-10.4298
▁пят	-10.4299
▁справить	-10.4308
▁исключительно	-10.4308
▁знаком	-10.4315
ари	-10.4321
▁системой	-10.4324
нным	-10.4336
вол	-10.4336
▁спас	-10.4342
▁предотврати	-10.4346
▁мышц	-10.4348
▁едва	-10.4349
▁верил	-10.4352
▁топлива	-10.4358
▁стандарт	-10.4359
скажем	-10.436
▁соглас	-10.4363
▁Штата	-10.4365
кая	-10.4366
▁ощущения	-10.4378
кам	-10.4382
▁75	-10.4384
▁дверь	-10.439
▁перестал	-10.439
▁прош	-10.4394
▁актив	-10.4398
▁карта	-10.44
▁влия	-10.4401
▁война	-10.4409
скую	-10.4409
▁Конгресс	-10.4411
▁работ	-10.4412
▁протез	-10.4412
▁помогаю	-10.4414
▁комнату	-10.4416
▁книге	-10.4417
спе	-10.4417
▁мозге	-10.4422
▁продолжа	-10.4426
▁Бр	-10.443
▁Джо	-10.4438
▁Би	-10.4438
▁призна	-10.4445
▁обед	-10.4445
▁парк	-10.4456
▁возникл	-10.4456
▁штук	-10.4459
▁пресс	-10.4465
▁интересное	-10.4466
вшей	-10.4467
уют	-10.4468
▁идеально	-10.4469
▁прошли	-10.4474
▁полагаю	-10.4474
▁спрашива	-10.4475
▁катастроф	-10.4476
▁поезд	-10.4477
▁баланс	-10.4477
▁Мужчин	-10.4477
▁минимум	-10.4477
▁открывает	-10.4478
▁отвечает	-10.4485
зер	-10.4485
▁надея	-10.4486
▁долги	-10.449
▁Много	-10.449
▁бывает	-10.45
▁дочь	-10.4506
пре	-10.4508
кал	-10.4509
▁углу	-10.4512
▁попытать	-10.4521
or	-10.4535
▁потратил	-10.454
▁импульс	-10.4543
очки	-10.455
▁Кени	-10.4552
чную	-10.4552
лад	-10.4558
▁одинаково	-10.4558
▁поставить	-10.4559
▁Ваш	-10.4562
▁сознания	-10.4569
чка	-10.4577
▁молод	-10.458
ром	-10.458
▁пищ	-10.458
ётся	-10.4585
▁капитал	-10.4587
леп	-10.4592
▁пустын	-10.4596
▁национально	-10.4597
▁превратить	-10.46
▁Каков	-10.4603
▁ядерно	-10.4605
щик	-10.461
▁Эйнштейн	-10.461
▁карман	-10.4612
▁приняли	-10.4612
▁фотографий	-10.4612
▁опасност	-10.4613
▁мод	-10.4618
яя	-10.4622
▁создаё	-10.4623
▁использую	-10.4625
Н	-10.4625
▁глубоки	-10.4625
▁солнце	-10.4627
▁сотрудничеств	-10.4632
▁нос	-10.4634
▁Че	-10.4649
▁назвали	-10.4652
▁собирать	-10.4653
▁клетка	-10.4658
▁физическо	-10.4659
▁молекул	-10.4661
▁заинтересован	-10.4668
▁термин	-10.4669
▁Азии	-10.4673
▁сидя	-10.4673
▁критик	-10.4677
участвовать	-10.4679
▁повезло	-10.468
пла	-10.4685
▁видела	-10.4685
▁питания	-10.4686
▁Два	-10.4689
▁45	-10.4696
▁одинаковы	-10.4698
▁проектом	-10.4704
▁фотограф	-10.4711
▁сообществ	-10.4713
▁масса	-10.4717
▁кус	-10.4718
▁играю	-10.472
▁жен	-10.4723
▁больниц	-10.4743
▁простые	-10.475
▁степень	-10.4753
▁альтернатив	-10.4763
▁отправили	-10.4763
▁детстве	-10.477
▁местност	-10.4775
▁жизне	-10.4777
шей	-10.4781
▁приносит	-10.4781
▁мощны	-10.4781
▁квартир	-10.4782
▁произошл	-10.479
▁счастлив	-10.4798
▁пещер	-10.4801
▁окружающи	-10.4806
▁риска	-10.4808
▁операци	-10.4811
▁Очевидно	-10.4813
▁зарплат	-10.4813
▁изучить	-10.4813
▁датчик	-10.4813
▁моря	-10.4816
▁стар	-10.4821
рис	-10.4821
▁сегодняшне	-10.4822
▁инструментов	-10.4825
▁жест	-10.4829
▁преврати	-10.483
печат	-10.4833
▁лучшим	-10.484
режде	-10.4845
▁ждать	-10.4856
▁микроб	-10.486
▁обеспечени	-10.4866
▁творчеств	-10.4866
▁Правд	-10.4866
▁поднима	-10.4867
▁реакция	-10.488
лён	-10.4881
▁Твиттер	-10.4881
▁опрос	-10.4883
▁вскоре	-10.4883
▁развива	-10.4883
▁песня	-10.4885
▁хороша	-10.4888
▁пер	-10.4889
▁длинны	-10.489
▁авари	-10.4892
▁звезд	-10.4894
▁кредит	-10.4894
Ф	-10.4902
en	-10.4903
▁привыкл	-10.4908
ступить	-10.491
▁профессор	-10.4912
▁морски	-10.4915
▁вечером	-10.4919
▁прост	-10.4919
▁основно	-10.4923
▁природу	-10.4924
фер	-10.4924
▁рисунк	-10.4925
▁миров	-10.4925
▁течени	-10.4928
▁градус	-10.4928
▁годов	-10.4928
▁Кар	-10.4932
▁принимают	-10.4933
▁скульптур	-10.4934
▁надежды	-10.4942
▁настояще	-10.4947
▁мирового	-10.4947
бежал	-10.4951
▁коллег	-10.4953
▁пришло	-10.4954
▁Дети	-10.4957
▁молекулы	-10.4957
▁дополнительны	-10.4959
▁непосредственно	-10.4959
▁Отлично	-10.4962
▁событие	-10.4963
изма	-10.4965
▁управление	-10.4966
енные	-10.4967
▁Лун	-10.497
▁личны	-10.4972
▁эпидеми	-10.4976
▁поступил	-10.4976
▁Бе	-10.498
▁компьютерны	-10.4983
▁доказа	-10.4986
▁семи	-10.499
▁институт	-10.499
хожу	-10.5005
тре	-10.5006
чески	-10.5009
▁средство	-10.5011
▁отдельно	-10.5017
▁литератур	-10.502
▁письма	-10.502
▁прототип	-10.502
▁подготовк	-10.502
▁аплодисменты	-10.5023
рез	-10.5025
▁хорошим	-10.5026
▁оружия	-10.5028
вые	-10.5029
▁экономи	-10.5031
B	-10.5033
▁лидеров	-10.5036
дра	-10.5045
начал	-10.5046
▁работой	-10.5047
▁любую	-10.5048
Франциск	-10.505
▁животным	-10.5052
▁национальны	-10.5056
▁американц	-10.5058
▁врач	-10.506
▁поколени	-10.5063
▁компьютеров	-10.5065
▁образовани	-10.5066
ления	-10.5069
▁ведут	-10.5071
▁главным	-10.5073
▁ежедневно	-10.5074
▁враг	-10.5078
▁верит	-10.508
▁убежден	-10.5088
▁концепци	-10.5088
растут	-10.5089
▁Андерсон	-10.509
▁портрет	-10.509
▁плод	-10.509
▁поразительно	-10.509
▁распространения	-10.509
▁анти	-10.5092
▁сексуально	-10.5097
▁победи	-10.5102
▁сентября	-10.5104
стоять	-10.5106
▁физики	-10.5107
▁атмосферу	-10.5109
пит	-10.511
▁Кон	-10.5111
▁роди	-10.5122
▁производит	-10.5129
▁обладаю	-10.5133
▁перемены	-10.5134
▁ответа	-10.5134
щее	-10.5135
▁Гор	-10.5148
▁арми	-10.515
▁Самы	-10.5152
▁раздел	-10.5155
ней	-10.5157
▁Причин	-10.5161
▁Ми	-10.5163
▁слышать	-10.5164
▁детали	-10.5172
▁забыл	-10.5175
▁диск	-10.5176
▁Другим	-10.5181
▁нрави	-10.5182
▁Марк	-10.5182
▁авто	-10.5183
▁нежел	-10.5188
▁рыба	-10.5223
▁коммуникаци	-10.5226
кар	-10.5227
▁оказаться	-10.5228
овал	-10.5229
▁отчёт	-10.5231
▁Дэвид	-10.5232
▁избавиться	-10.5235
▁интересует	-10.5236
▁экономике	-10.524
ограф	-10.5242
▁обраща	-10.5246
▁крив	-10.5262
▁бесконечно	-10.5267
бросить	-10.5269
▁Ne	-10.5271
ках	-10.5271
▁парти	-10.5274
▁выда	-10.5281
▁рассказываю	-10.5289
тар	-10.529
▁бактерий	-10.5291
▁триллион	-10.5292
▁Наде	-10.53
▁счастья	-10.5302
▁детско	-10.5304
▁вчера	-10.5305
▁доступа	-10.5307
▁специалист	-10.531
ция	-10.5311
▁спрос	-10.5312
▁самолет	-10.5313
▁явление	-10.5315
▁Ло	-10.5316
лей	-10.5319
▁песн	-10.5322
▁Ниче	-10.5322
▁маленькую	-10.5337
ир	-10.5337
▁транспорт	-10.5338
▁купил	-10.535
ана	-10.535
части	-10.536
▁процента	-10.536
▁десятилетия	-10.5363
▁стены	-10.537
▁округ	-10.5374
▁международны	-10.5376
▁тепло	-10.5379
▁структура	-10.5382
▁картины	-10.5382
▁Ча	-10.539
▁запрет	-10.5392
▁опасны	-10.5393
▁трав	-10.5395
▁Вас	-10.5398
▁22	-10.5402
▁климат	-10.5403
носят	-10.5405
▁главны	-10.5406
▁наблюдения	-10.5413
▁необходимост	-10.542
▁площад	-10.5421
▁камеры	-10.5422
▁команду	-10.5423
▁Англии	-10.5423
▁держать	-10.5426
▁обязан	-10.5429
нно	-10.5434
▁Друг	-10.5441
▁интерфейс	-10.5447
▁Га	-10.5447
▁2010	-10.5447
▁электронны	-10.5448
▁покупк	-10.5449
▁участник	-10.5449
▁уверены	-10.5456
▁доктора	-10.546
▁сосуд	-10.5463
▁бедност	-10.5463
▁напоминает	-10.5465
▁смен	-10.5467
енный	-10.5467
▁разным	-10.5468
мент	-10.5481
▁дает	-10.5482
нок	-10.5483
▁бюджет	-10.5489
▁бог	-10.5492
▁среда	-10.5493
▁повлия	-10.5504
▁международно	-10.5507
▁мусульман	-10.5512
▁превращает	-10.5512
▁сетк	-10.5513
▁2008	-10.5521
▁стратеги	-10.5526
▁выбрали	-10.5527
▁жизненно	-10.5529
▁центра	-10.5531
▁Бер	-10.5535
ива	-10.5544
▁позвонил	-10.5544
▁23	-10.5558
▁Му	-10.556
▁медицины	-10.5561
▁дохода	-10.5562
▁местно	-10.5563
▁смысла	-10.5563
брос	-10.5564
▁сбор	-10.5574
▁порядка	-10.5575
водить	-10.5577
▁мал	-10.5577
▁политика	-10.5578
▁содержание	-10.5586
▁рамк	-10.5591
▁встретить	-10.5591
▁финансово	-10.5597
▁орбит	-10.5597
▁звезды	-10.5599
▁Разве	-10.5603
▁пес	-10.5605
тр	-10.5606
▁изменила	-10.5607
▁девочки	-10.5623
▁конкретны	-10.5625
▁уверенность	-10.5625
▁провал	-10.5629
воз	-10.564
▁отсутствие	-10.5641
▁космически	-10.5644
re	-10.5644
▁искусственно	-10.5645
▁боли	-10.5645
▁ферм	-10.5647
роз	-10.5658
▁замечательн	-10.5661
рн	-10.5661
▁лучш	-10.5662
долго	-10.5664
▁волн	-10.5665
▁диагноз	-10.5667
▁Интересно	-10.5667
▁найдёт	-10.5667
нёс	-10.5668
▁оборудование	-10.5668
▁точне	-10.5668
▁миф	-10.567
▁Ар	-10.567
▁счет	-10.5671
▁ребенка	-10.5676
▁планету	-10.5677
▁потребност	-10.5678
▁спросит	-10.5684
▁древни	-10.5684
знач	-10.5693
▁Бога	-10.5698
▁мозгу	-10.5705
▁зрение	-10.5708
▁полос	-10.5712
▁порядо	-10.5713
▁огромным	-10.5714
▁феномен	-10.5718
▁естественны	-10.5739
▁показатели	-10.5742
▁привлечь	-10.5742
▁изначально	-10.5742
▁реформ	-10.5742
▁Последни	-10.5742
▁потребител	-10.5743
▁мелки	-10.5744
▁специальны	-10.5745
▁умирают	-10.5746
▁созданны	-10.5748
▁электричеств	-10.5749
▁автомобиля	-10.5754
▁двига	-10.5758
▁долин	-10.5763
▁голуб	-10.5773
▁Больше	-10.5777
изу	-10.5778
▁крупнейши	-10.5783
дет	-10.5785
N	-10.5789
▁коллеги	-10.5792
▁приятно	-10.5793
▁восстановить	-10.5794
▁0	-10.5796
▁истори	-10.5798
▁полёт	-10.58
тическо	-10.5804
▁эксперимента	-10.5804
рт	-10.5808
уп	-10.581
▁цена	-10.5812
▁считали	-10.5812
сад	-10.5814
брасыва	-10.5815
▁выбрал	-10.5815
▁головно	-10.5816
▁начнём	-10.5817
▁нравятся	-10.5817
▁путе	-10.5818
▁99	-10.5819
▁психологи	-10.5819
▁бур	-10.5821
▁презентаци	-10.5823
ёк	-10.5828
▁отсюда	-10.5831
▁принимает	-10.5832
▁предположи	-10.5836
▁спорт	-10.5836
пон	-10.5839
▁воспоминания	-10.5847
▁Бу	-10.5848
▁сделанны	-10.5856
даст	-10.5857
▁закончи	-10.5859
▁революция	-10.5859
▁человеческ	-10.5861
▁кар	-10.5865
▁давление	-10.5867
▁насекомых	-10.5867
▁предостави	-10.5868
▁собрал	-10.5878
▁некотором	-10.5885
▁глазах	-10.5886
▁ником	-10.5887
▁распозна	-10.5893
▁астероид	-10.5893
▁ландшафт	-10.5893
ян	-10.5894
▁развиты	-10.5897
▁труб	-10.5909
▁зданий	-10.592
▁предметы	-10.5928
▁20-	-10.5929
▁всяки	-10.593
▁пчёл	-10.5932
▁равны	-10.5936
▁электричество	-10.5962
▁предсказа	-10.5963
▁стреми	-10.5964
▁бренд	-10.5969
▁религиозны	-10.597
▁медиа	-10.5974
▁беженце	-10.5975
▁способа	-10.5976
фф	-10.598
ing	-10.598
▁Помнит	-10.5985
▁проекте	-10.5985
▁акт	-10.5988
▁Други	-10.5989
▁спрашивал	-10.599
▁стресс	-10.5995
▁государственны	-10.6006
▁собирал	-10.6016
ница	-10.6017
▁Буду	-10.6021
▁государств	-10.6023
▁чувствуют	-10.6028
▁бед	-10.6031
▁свете	-10.6032
туда	-10.6032
▁платить	-10.6035
▁назван	-10.604
▁парне	-10.6046
▁происхождени	-10.6046
▁Работа	-10.6046
▁объединить	-10.6047
▁списк	-10.6048
▁крошечны	-10.6048
▁обладает	-10.6049
▁зарабатыва	-10.6049
▁вруч	-10.6052
верим	-10.6054
▁высше	-10.6056
▁старо	-10.606
нта	-10.6062
▁ушл	-10.6064
▁работников	-10.6066
▁завтра	-10.6073
вых	-10.6076
▁симптом	-10.6089
▁мыши	-10.6092
▁радость	-10.6093
▁школа	-10.6102
▁включает	-10.6103
▁развивает	-10.6104
▁активист	-10.6108
▁государственно	-10.6109
▁объектов	-10.612
ид	-10.6121
▁Джеймс	-10.6124
▁показатель	-10.6124
▁размышля	-10.6125
тка	-10.6129
▁резко	-10.6129
▁прорыв	-10.6132
▁квадрат	-10.6138
▁чётко	-10.6139
▁определение	-10.6139
▁камера	-10.6141
кажите	-10.6142
сов	-10.6145
▁подума	-10.6146
▁похожа	-10.6147
▁микроскоп	-10.615
▁состояния	-10.6153
▁задание	-10.6153
▁минуты	-10.6155
▁стоил	-10.6158
истов	-10.6159
▁ран	-10.6161
▁добра	-10.6174
▁среднего	-10.6175
▁динозавр	-10.6184
верят	-10.6187
▁Эд	-10.6191
▁коротко	-10.6193
▁чувств	-10.6195
▁взаимодействие	-10.6196
▁веществ	-10.62
▁ноутбук	-10.6202
▁опухоль	-10.6202
▁плюс	-10.6202
▁дорогу	-10.6203
▁Германии	-10.6204
▁отвеча	-10.6205
▁кости	-10.6214
▁колледж	-10.6222
▁ученик	-10.6225
▁создает	-10.623
рыв	-10.6234
▁задачу	-10.6237
ление	-10.6237
▁коп	-10.6239
▁автомобилей	-10.625
▁космическо	-10.6251
▁расход	-10.6257
▁странам	-10.6257
▁сел	-10.6266
▁попытка	-10.627
▁традици	-10.6273
▁компьютерно	-10.6274
▁круто	-10.6275
▁лесов	-10.628
▁фрагмент	-10.6281
▁Ц	-10.6285
▁открыли	-10.6297
▁производят	-10.6299
▁Поз	-10.6299
альный	-10.63
▁внешне	-10.6304
▁контексте	-10.6304
▁говори	-10.6305
▁выяснил	-10.6305
▁придет	-10.6307
▁карте	-10.6309
▁устойчиво	-10.6312
▁Какой	-10.6319
казано	-10.6329
▁имена	-10.6331
▁принесл	-10.6334
плоть	-10.6336
▁культуре	-10.6336
вания	-10.6339
▁граждански	-10.634
▁африкански	-10.634
против	-10.6342
▁последовательно	-10.6349
▁бутылк	-10.6351
▁нужд	-10.6351
▁зелёны	-10.6352
▁периода	-10.6354
вала	-10.6359
▁уйти	-10.636
▁начнёт	-10.636
▁Голос	-10.636
▁Каж	-10.6361
▁Томас	-10.6361
▁наград	-10.6364
▁писал	-10.6365
▁Кол	-10.6366
▁расс	-10.6368
▁Марсе	-10.6369
▁стоят	-10.6371
вес	-10.6371
▁присутствующи	-10.6375
▁предела	-10.6381
▁учили	-10.6388
▁острова	-10.6389
▁ярки	-10.639
▁называть	-10.6393
▁вечно	-10.6398
▁компани	-10.6408
▁почв	-10.6409
▁пункт	-10.6415
▁слышит	-10.6415
et	-10.6416
▁существова	-10.6422
▁головы	-10.6427
щ	-10.6428
▁природны	-10.6431
▁спектр	-10.6436
▁Звук	-10.644
▁квартал	-10.644
▁фабрик	-10.6443
▁загляну	-10.6443
▁частично	-10.6445
▁поэт	-10.6445
казать	-10.6448
▁распространение	-10.6449
▁плеч	-10.645
шься	-10.6452
▁региона	-10.6462
▁прибыль	-10.6464
▁народа	-10.6467
етей	-10.6477
▁песню	-10.6477
▁ритм	-10.6478
▁лё	-10.6482
нными	-10.6484
ог	-10.6489
▁статистик	-10.6492
▁хакер	-10.6493
▁полицейски	-10.6494
▁опубликовал	-10.6498
▁доклад	-10.6499
▁разработки	-10.6501
▁кризиса	-10.6501
▁сострадание	-10.6502
▁Майкл	-10.6505
▁стен	-10.6507
▁идеал	-10.6508
ниц	-10.6511
▁танц	-10.6512
▁неплохо	-10.6521
▁потребления	-10.6521
▁проверк	-10.6522
▁выполни	-10.6522
▁2009	-10.6523
▁здоров	-10.6525
справить	-10.6527
▁высоким	-10.6534
▁игрушк	-10.654
овое	-10.6547
▁Афганистан	-10.6548
▁надежда	-10.6548
нием	-10.6551
▁установлен	-10.6551
▁путешествия	-10.6552
▁обрати	-10.6563
▁органы	-10.6565
ёл	-10.6566
▁Европы	-10.6567
▁функци	-10.6568
▁вспомни	-10.6569
▁Афганистане	-10.6575
▁увеличение	-10.6576
чек	-10.6577
▁ранне	-10.6582
телей	-10.6582
▁воздействие	-10.6583
▁простая	-10.6584
веду	-10.6592
▁60-	-10.6596
▁аргумент	-10.6602
▁хвост	-10.6602
▁Почти	-10.6602
▁передачи	-10.6602
▁крыс	-10.6604
точку	-10.6604
▁организмы	-10.6605
▁выращива	-10.6608
▁чтоб	-10.6608
▁рабоче	-10.6613
▁нерв	-10.6614
▁делается	-10.6617
▁плох	-10.6618
▁различи	-10.662
▁помогал	-10.6633
▁чернокожи	-10.6646
▁собираются	-10.6646
▁Южн	-10.6646
енных	-10.6646
▁физик	-10.6647
▁чип	-10.665
▁позволяющи	-10.6651
ило	-10.6652
▁финансов	-10.6653
▁разрешение	-10.6656
▁заболевание	-10.6661
▁Следующи	-10.667
▁симметри	-10.6671
▁библиотек	-10.6672
▁отличн	-10.668
▁первом	-10.6683
▁утверждаю	-10.6684
▁метра	-10.6684
кладывать	-10.6689
▁стиле	-10.669
▁тема	-10.6691
шки	-10.6692
водит	-10.6693
▁акул	-10.6697
▁подростков	-10.6699
▁девушка	-10.6703
ur	-10.6708
ap	-10.6709
▁применения	-10.6711
▁рабочие	-10.6713
▁поездк	-10.6715
▁телефона	-10.6719
▁новом	-10.672
дём	-10.6721
▁атак	-10.6728
▁Ку	-10.6729
▁доверие	-10.673
com	-10.6734
▁звуков	-10.6736
▁ужин	-10.6736
клад	-10.6739
реб	-10.674
ставляют	-10.6741
▁80-	-10.6741
генов	-10.6743
▁частот	-10.6752
▁величин	-10.6762
виду	-10.6764
▁гипотез	-10.6767
▁наслажда	-10.6767
▁выразить	-10.6767
▁The	-10.6767
▁рассматривать	-10.6767
▁палец	-10.6767
ирования	-10.6767
▁риф	-10.6769
▁отличаются	-10.6772
▁Бен	-10.6774
тельный	-10.6776
▁направление	-10.6776
▁заканчива	-10.6779
▁сделаны	-10.6779
▁здоровы	-10.6781
▁мнения	-10.6784
▁женщинам	-10.6787
▁проходил	-10.6787
▁составляют	-10.6788
is	-10.6791
▁др	-10.6791
сле	-10.6799
▁склад	-10.6801
▁еда	-10.681
▁фундаментальны	-10.681
▁останет	-10.6813
▁задавать	-10.6821
▁камеру	-10.6822
▁добавил	-10.6824
▁предложения	-10.6825
▁какими	-10.6826
▁подобного	-10.6832
▁гигантски	-10.6833
▁дорога	-10.6833
▁большом	-10.6834
▁обеспечение	-10.6841
▁политическ	-10.6846
▁процвета	-10.6847
▁вход	-10.6847
▁углекисл	-10.6848
стран	-10.685
▁восторг	-10.685
▁потребует	-10.685
▁пляж	-10.685
▁Важно	-10.6851
▁кадр	-10.6851
▁Привет	-10.6851
▁лечить	-10.6853
▁выгод	-10.6854
▁пожар	-10.686
▁Канад	-10.6861
▁хозяйства	-10.6863
▁примера	-10.6863
▁оба	-10.6863
▁значительны	-10.6865
▁души	-10.6869
▁улица	-10.6869
▁ро	-10.6871
остью	-10.6872
▁противостоя	-10.6875
▁товаров	-10.6875
▁человечество	-10.6875
▁навыки	-10.6877
▁верх	-10.6878
▁Оказа	-10.6878
есть	-10.6881
▁успешны	-10.6882
▁существования	-10.6887
знаком	-10.6889
▁приведу	-10.6891
▁бу	-10.6892
▁попадает	-10.6895
▁мор	-10.6897
▁сестр	-10.6898
ший	-10.6898
▁заказ	-10.6911
▁рукой	-10.6913
▁погод	-10.6913
изации	-10.6919
▁электронно	-10.692
овым	-10.6926
▁категори	-10.6927
▁фокус	-10.6931
▁професси	-10.6933
▁кандидат	-10.6934
▁процедур	-10.6934
▁вернёмся	-10.6934
▁млн	-10.6934
▁навсегда	-10.6934
▁черн	-10.6947
▁малы	-10.6949
▁брак	-10.695
▁функции	-10.6957
моем	-10.6958
▁уменьшить	-10.6964
▁запись	-10.6967
▁земля	-10.6969
ита	-10.6971
▁вируса	-10.6975
строения	-10.6976
▁страсть	-10.6977
ремя	-10.6981
пал	-10.6982
рес	-10.6985
▁родственник	-10.6987
▁запрос	-10.6987
▁культуру	-10.7005
▁Ново	-10.7008
▁превраща	-10.701
▁сомнени	-10.7011
▁комплекс	-10.7012
▁расп	-10.7012
▁камен	-10.7013
кус	-10.7018
▁обитания	-10.7019
▁грузовик	-10.7022
▁толп	-10.7023
▁выставк	-10.7024
▁Америка	-10.7025
▁отметить	-10.7025
▁страда	-10.7028
гло	-10.7028
▁берут	-10.7031
жалуйста	-10.7032
▁хирург	-10.7043
▁живет	-10.7043
▁превратил	-10.7044
▁Пре	-10.7047
▁исторически	-10.7049
рож	-10.7054
▁полученны	-10.7055
▁активность	-10.7055
▁отход	-10.7062
▁старши	-10.7062
▁играл	-10.7064
▁расстояни	-10.7071
дом	-10.7074
▁Росси	-10.7076
крыл	-10.7081
▁отражает	-10.7083
▁красив	-10.7085
▁городски	-10.7087
ении	-10.709
▁красно	-10.7095
▁соответстви	-10.7104
▁областях	-10.7104
▁ткань	-10.7104
▁окажет	-10.7104
▁звука	-10.7105
▁основал	-10.7107
аньше	-10.7109
▁волну	-10.711
▁недавн	-10.7111
илась	-10.7112
▁существенно	-10.7113
▁дли	-10.7118
мир	-10.7119
▁организма	-10.712
▁ждал	-10.712
▁восприятия	-10.7124
▁жук	-10.7125
▁уход	-10.7131
явить	-10.7134
▁годах	-10.7135
▁городско	-10.7138
▁экономическ	-10.7139
▁склонны	-10.7141
▁правительств	-10.7148
тобой	-10.7149
▁побед	-10.715
▁льда	-10.7154
▁добро	-10.7154
▁английском	-10.716
▁Возьмё	-10.7171
▁особы	-10.7173
шие	-10.7174
▁600	-10.7175
▁художник	-10.7177
▁смертност	-10.7183
▁низко	-10.7184
▁делом	-10.7184
▁желания	-10.7185
любить	-10.7186
лететь	-10.7186
▁талант	-10.719
▁динамик	-10.719
▁юмор	-10.7191
▁сцену	-10.7191
▁технологиями	-10.7193
▁площадь	-10.7194
▁определенны	-10.7195
ывать	-10.7196
▁Понимает	-10.7196
▁1000	-10.7197
▁основани	-10.7199
▁статью	-10.72
▁фильмов	-10.7201
▁обществ	-10.721
▁соверши	-10.7212
▁электро	-10.7213
пир	-10.7218
▁ислам	-10.7219
▁нахожу	-10.7224
готов	-10.7224
▁Зна	-10.7227
▁зала	-10.7227
▁умерл	-10.723
▁участников	-10.7231
▁опер	-10.7235
▁голод	-10.7237
▁мух	-10.7239
бла	-10.7243
▁капитала	-10.7252
▁деревне	-10.7253
▁кислород	-10.7255
▁менять	-10.7256
▁поддержку	-10.7258
▁мяч	-10.7263
▁проводят	-10.7266
▁главный	-10.7268
▁стена	-10.7269
ация	-10.7273
▁максимально	-10.7277
▁коллекци	-10.7277
▁iPhone	-10.7277
▁внимательно	-10.7277
▁аэропорт	-10.7277
▁Среди	-10.7278
▁нищет	-10.7278
▁мэр	-10.7279
ющегося	-10.728
▁ошибок	-10.7281
▁лини	-10.7284
▁чьи	-10.7287
ведения	-10.7287
▁встречал	-10.7287
▁английски	-10.7289
▁раком	-10.7289
▁воображение	-10.7291
▁распространен	-10.7293
▁преимущество	-10.7293
▁уходит	-10.7297
▁проводит	-10.7302
▁зал	-10.7302
▁произойт	-10.7305
айте	-10.7305
▁исполни	-10.7308
▁студи	-10.7308
▁вдвое	-10.7309
▁больно	-10.7311
▁Ру	-10.7313
▁отлича	-10.7323
▁рассказа	-10.7328
вет	-10.7331
▁интересна	-10.7331
▁би	-10.7333
▁Дэн	-10.7336
▁угол	-10.7339
ладно	-10.734
▁хими	-10.7341
▁потер	-10.7343
даём	-10.7345
▁запуска	-10.7345
бол	-10.735
▁ламп	-10.7352
▁зло	-10.7359
▁топливо	-10.736
▁замуж	-10.7363
▁Доктор	-10.7365
▁пакет	-10.7365
сек	-10.7371
▁повлиял	-10.7374
новому	-10.7375
▁журнала	-10.7375
▁колен	-10.7375
▁капитализм	-10.7379
▁целое	-10.7379
▁женщину	-10.738
▁лиш	-10.7386
▁женщинами	-10.7391
▁домашни	-10.7403
▁отрыв	-10.7405
▁ролик	-10.7406
▁порог	-10.7408
▁знание	-10.7408
▁s	-10.7415
▁чудо	-10.7416
▁Мал	-10.7419
▁никого	-10.7421
ro	-10.7422
рин	-10.7423
▁фи	-10.7425
▁Стив	-10.7425
▁массово	-10.7427
▁голода	-10.7431
▁главн	-10.7431
наружи	-10.7432
▁прекрасн	-10.7435
▁доказательства	-10.7444
▁определенно	-10.7446
▁математики	-10.7448
▁потеряли	-10.7449
▁клинически	-10.7454
▁Спуст	-10.7454
▁сезон	-10.7454
▁дерева	-10.7454
▁произведения	-10.7454
▁Речь	-10.7455
▁сини	-10.7455
▁попытк	-10.7458
▁Ги	-10.7458
▁описал	-10.746
▁уникальны	-10.746
▁вырасти	-10.7461
▁близки	-10.7462
▁Кан	-10.7474
▁основа	-10.7476
▁наличие	-10.7476
▁бок	-10.7476
▁снег	-10.7481
▁штука	-10.7482
▁сыр	-10.7483
▁Какие	-10.7486
▁биологическо	-10.7489
▁доля	-10.7489
▁стратегии	-10.75
▁больнице	-10.7504
▁больных	-10.751
▁жела	-10.7522
▁появлени	-10.7522
▁вызвал	-10.7522
▁необычно	-10.7523
ард	-10.7524
▁стену	-10.7525
▁ошибка	-10.7527
▁встречи	-10.7537
▁расходы	-10.7537
грамм	-10.7541
▁НАСА	-10.7543
▁участвовал	-10.7543
ouTube	-10.7543
▁впечатление	-10.7543
▁расчёт	-10.7543
▁конструкци	-10.7544
▁2007	-10.7545
▁Соединенны	-10.7547
гру	-10.7551
▁цепочк	-10.7553
▁находящи	-10.7554
▁диалог	-10.7558
▁коров	-10.7559
▁выполнять	-10.7567
▁эмоционально	-10.7567
убить	-10.757
▁берёт	-10.757
▁сотрудников	-10.7576
▁пишет	-10.7585
▁задачей	-10.7589
▁подел	-10.7594
лок	-10.7594
▁поднимает	-10.7599
▁занятия	-10.7599
пар	-10.7601
лик	-10.7601
▁каково	-10.7603
▁математически	-10.7608
▁экологи	-10.7611
щу	-10.7611
▁удивительное	-10.7612
▁ге	-10.7613
▁вызыва	-10.7615
атив	-10.7627
▁батаре	-10.7628
▁ценност	-10.763
▁рецепт	-10.7631
очно	-10.7633
▁ежегодно	-10.7633
▁положил	-10.7633
▁Мартин	-10.7633
▁снизить	-10.7634
▁часы	-10.7639
▁объясняет	-10.7642
▁ветер	-10.7647
▁существование	-10.7648
▁окна	-10.7653
▁польз	-10.7657
▁школах	-10.7662
▁твои	-10.7662
▁90-	-10.7667
дали	-10.7673
▁следовать	-10.7677
▁доллар	-10.7677
▁современных	-10.7678
▁ледник	-10.768
▁роде	-10.7683
▁стоимост	-10.7686
▁игре	-10.7689
▁Ге	-10.7692
el	-10.7694
▁неизвестно	-10.7694
▁положительны	-10.7694
▁ожидания	-10.7695
▁детств	-10.7703
▁дума	-10.7705
▁перес	-10.7706
▁военно	-10.7706
▁оборот	-10.7706
▁относи	-10.771
скоре	-10.7712
▁комментари	-10.7724
▁Одним	-10.7724
▁убеждения	-10.7726
▁промышленно	-10.7728
▁технологически	-10.7732
жно	-10.7737
▁падает	-10.7738
▁изучал	-10.7739
бил	-10.774
▁слав	-10.7743
▁депрессии	-10.7745
ряд	-10.7745
лом	-10.775
▁продолжают	-10.7751
шить	-10.7752
▁прочи	-10.7754
▁команде	-10.7757
▁пожилы	-10.776
▁брать	-10.7769
▁судьб	-10.7773
▁высокого	-10.7775
▁бесед	-10.7775
▁цифровы	-10.7779
ированны	-10.778
читыва	-10.7781
▁изобретение	-10.7783
лез	-10.7785
▁Всего	-10.7786
▁пластик	-10.7787
▁ветра	-10.7788
▁тёмно	-10.7788
рг	-10.779
▁разумно	-10.7796
▁настоящим	-10.7796
▁ошиба	-10.7797
▁ребят	-10.7805
▁рис	-10.781
▁сайте	-10.7812
▁искусственны	-10.7813
▁объекта	-10.7814
▁волны	-10.7815
▁радикально	-10.7815
▁взаимодействова	-10.7816
▁демонстраци	-10.7816
▁участок	-10.7816
▁времён	-10.7816
▁Около	-10.7816
▁сюжет	-10.7816
эр	-10.7816
▁распространя	-10.7816
изация	-10.7827
▁разработать	-10.7831
▁обычных	-10.7832
▁Смотрит	-10.7833
▁общее	-10.7835
▁ничто	-10.7837
▁сострадани	-10.7837
▁слой	-10.7842
▁грани	-10.7848
▁нижне	-10.7848
▁обнаружен	-10.7849
▁снять	-10.7849
▁свойства	-10.7853
▁предназначен	-10.7857
▁родилась	-10.7859
▁Говоря	-10.7861
▁лидеры	-10.7861
▁Том	-10.7865
▁дне	-10.7871
граф	-10.7872
разном	-10.7873
us	-10.7873
▁наблюдает	-10.7878
▁Солнце	-10.7879
▁найден	-10.7882
▁отвечал	-10.7887
▁рейтинг	-10.7888
▁дыр	-10.7893
▁явно	-10.7897
▁стимул	-10.7898
▁единственным	-10.79
▁отказа	-10.7901
▁делала	-10.7902
▁коллективно	-10.7907
звлечь	-10.7908
▁GPS	-10.7908
▁Действительно	-10.7908
▁январ	-10.7908
давая	-10.7909
▁безусловно	-10.7911
▁кур	-10.7912
▁27	-10.7912
стях	-10.7914
Э	-10.7914
▁девять	-10.7914
▁Женщины	-10.7915
▁секунды	-10.7918
▁преодолеть	-10.7919
аж	-10.7921
▁70-	-10.7928
▁пас	-10.7928
▁творчество	-10.7929
льных	-10.7931
▁Всемирн	-10.7942
▁компаниям	-10.7952
▁Дале	-10.7956
▁карьер	-10.7958
▁реальн	-10.7964
раб	-10.7964
▁объяснение	-10.7965
▁врачи	-10.7969
▁удивительн	-10.7975
▁защищать	-10.7977
▁наблюдали	-10.7982
▁следи	-10.7983
▁позад	-10.7984
жит	-10.7985
▁ше	-10.7986
уча	-10.7987
▁господ	-10.7991
▁необходим	-10.7994
▁сотрудник	-10.7995
▁Ган	-10.7995
▁территори	-10.8001
▁диабет	-10.8002
▁моделей	-10.8002
▁Господ	-10.8002
оль	-10.8002
▁лазер	-10.8002
час	-10.8009
▁этаж	-10.8011
писано	-10.8013
▁доллара	-10.8013
▁экономист	-10.8013
▁считал	-10.8017
▁делиться	-10.8018
▁достижени	-10.802
▁быстры	-10.803
▁скрыт	-10.8031
▁деталь	-10.8033
шая	-10.8034
▁Го	-10.8035
▁холодно	-10.8039
▁женщиной	-10.804
▁попал	-10.8041
▁интернета	-10.8044
ol	-10.8048
la	-10.8049
▁платформ	-10.8051
▁сократить	-10.8051
▁необходимость	-10.8053
▁исследовательск	-10.8054
▁Центр	-10.8059
▁взрыва	-10.8062
ган	-10.8064
▁снизу	-10.8069
▁бел	-10.807
жима	-10.8073
▁дар	-10.8075
▁облака	-10.8076
▁Франции	-10.8078
ходим	-10.808
щим	-10.8083
▁домов	-10.8084
енная	-10.8085
▁справи	-10.8089
▁Примерн	-10.8089
▁вакцин	-10.809
▁температура	-10.8091
▁многом	-10.8093
▁убива	-10.8095
▁языков	-10.8095
▁горизонт	-10.8095
▁Чикаго	-10.8096
▁Опять	-10.8097
▁автоматически	-10.8097
дель	-10.8098
▁решает	-10.8098
кладывают	-10.8098
▁Жизнь	-10.8099
▁десяти	-10.81
▁показало	-10.8105
▁попытки	-10.8105
ed	-10.8106
▁отношениях	-10.8107
▁остановиться	-10.8108
▁гриб	-10.8111
▁двигатель	-10.8111
вшим	-10.8112
▁представляю	-10.8113
▁250	-10.8117
▁деревни	-10.8126
▁считается	-10.8126
▁Стивен	-10.8128
ранее	-10.813
▁трати	-10.8137
▁замеча	-10.8139
▁упомина	-10.8139
пс	-10.8141
▁заключённы	-10.8141
▁языком	-10.8142
▁учить	-10.8146
▁здравоохранение	-10.8148
▁вещами	-10.8152
▁Весь	-10.8154
▁личность	-10.8157
▁фраз	-10.8158
▁тайн	-10.8159
▁кро	-10.8161
▁солнц	-10.8167
▁исход	-10.8169
▁золото	-10.818
▁увеличени	-10.818
▁съёмк	-10.818
ab	-10.8183
▁коллегами	-10.8186
▁Больш	-10.8188
▁программно	-10.819
▁пожалуй	-10.8191
▁заявил	-10.8191
▁Бостон	-10.8191
▁земно	-10.8192
▁шкал	-10.8192
▁малыш	-10.8192
▁спокойно	-10.8193
▁сража	-10.8193
▁страдания	-10.8193
▁понадобится	-10.8194
▁приведёт	-10.8194
▁днём	-10.8194
▁пользователей	-10.8195
селенная	-10.8201
▁занимаем	-10.8201
▁мышление	-10.8201
▁здани	-10.8209
▁результата	-10.8216
▁подошл	-10.8216
чет	-10.8217
▁необходима	-10.8218
▁точек	-10.8222
▁пора	-10.8223
▁клуб	-10.8225
▁одежд	-10.8228
▁религия	-10.8235
▁проводили	-10.8236
мон	-10.8237
▁демократия	-10.8237
▁окружени	-10.824
▁закона	-10.8241
▁ограничения	-10.8243
▁замен	-10.8244
▁воспринимать	-10.8246
▁Мор	-10.825
▁борьба	-10.8251
ch	-10.8254
▁видение	-10.8255
▁тщательно	-10.8256
▁генетическо	-10.8258
▁Пер	-10.8259
▁открытым	-10.8263
▁роботы	-10.827
центов	-10.8272
▁эффективность	-10.8281
▁ребен	-10.8282
▁испыта	-10.8283
▁непросто	-10.8283
нутри	-10.8284
▁случайны	-10.8284
▁поздно	-10.8287
▁последующи	-10.8288
▁книж	-10.8288
▁понадоби	-10.8289
▁съед	-10.8289
▁плач	-10.8293
▁разбира	-10.8294
▁встреч	-10.8296
очка	-10.8298
▁расширя	-10.83
▁темп	-10.8303
▁статус	-10.8303
▁кот	-10.8304
▁врачей	-10.8306
▁выиграл	-10.8308
▁обезьян	-10.8309
▁осуществить	-10.8316
▁диет	-10.8318
▁переговор	-10.8321
аты	-10.8324
▁напряму	-10.8325
▁интересным	-10.8329
овали	-10.8329
▁управляет	-10.8337
▁снял	-10.8338
пут	-10.8338
▁Конго	-10.8339
▁опубликован	-10.834
▁почувствовал	-10.8351
▁животного	-10.8351
▁собственным	-10.8357
▁продемонстрир	-10.8361
▁противоположно	-10.8375
▁строительство	-10.8378
▁Западно	-10.8379
▁достигает	-10.8383
▁Истори	-10.8384
▁тишин	-10.8384
▁скелет	-10.8384
▁учёт	-10.8384
▁изучил	-10.8385
▁дешевле	-10.8385
▁актёр	-10.8385
▁Руанд	-10.8386
▁потребление	-10.8387
▁отдал	-10.8392
▁Национально	-10.8392
▁бросил	-10.8395
▁парни	-10.8397
▁Женщина	-10.84
шедш	-10.8401
▁патент	-10.8402
очень	-10.8403
▁трудности	-10.841
▁шла	-10.8413
▁поврежден	-10.8414
▁жизненны	-10.8416
▁принимаем	-10.8417
▁потребность	-10.8417
▁риску	-10.8422
▁обратил	-10.8422
▁отходов	-10.8424
▁изучение	-10.8425
▁ящик	-10.8427
▁прочим	-10.8429
говор	-10.8432
меры	-10.8432
▁упомянул	-10.8437
▁Хар	-10.8437
эк	-10.8442
▁Тот	-10.8448
▁вещество	-10.8453
лево	-10.8455
▁государство	-10.8456
▁выполнени	-10.8458
▁оказывают	-10.8459
▁изображений	-10.8462
▁партнёр	-10.8462
ню	-10.8467
▁учитель	-10.8467
гал	-10.8472
▁зим	-10.8473
▁справедливост	-10.8476
▁переехал	-10.8477
▁воссозда	-10.8478
рва	-10.848
чение	-10.8481
▁растение	-10.8481
▁проводил	-10.8482
▁адрес	-10.8482
▁Существую	-10.8482
▁взгляне	-10.8482
▁инициатив	-10.8482
▁вечеринк	-10.8483
▁трюк	-10.8483
▁ритуал	-10.8483
▁побочны	-10.8483
▁немноги	-10.8483
▁ответственности	-10.8484
▁фильме	-10.8488
ступает	-10.8489
▁Будь	-10.8495
▁потери	-10.8497
ируя	-10.8504
▁шарик	-10.8508
▁выбирать	-10.8508
▁окно	-10.851
рад	-10.851
стать	-10.8514
▁выросла	-10.8515
▁луч	-10.8515
▁хозяйство	-10.8518
▁массы	-10.8521
▁известна	-10.8522
li	-10.8525
▁счастливым	-10.8526
спать	-10.8529
▁обычн	-10.8529
▁рос	-10.8531
▁низки	-10.8531
▁лун	-10.8536
▁занял	-10.8536
▁пыльц	-10.8536
▁красн	-10.8537
▁измен	-10.8543
▁называ	-10.8544
▁моральны	-10.8546
▁разно	-10.8548
ткуда	-10.8549
▁виртуально	-10.8553
▁посеща	-10.8555
платить	-10.8555
▁показывал	-10.8561
▁созданы	-10.8571
альная	-10.8574
▁счита	-10.8577
▁преимущества	-10.8579
▁Апплодисменты	-10.8581
▁долгосрочно	-10.8581
▁покупать	-10.8581
▁водоросл	-10.8581
▁добыч	-10.8583
▁глобализаци	-10.8584
▁выражение	-10.8587
▁встрети	-10.8588
▁тесно	-10.8588
▁анализа	-10.8589
▁генома	-10.8595
▁революци	-10.8606
▁борт	-10.8606
▁кислорода	-10.8607
▁продаж	-10.861
▁музей	-10.8611
жат	-10.8613
▁наблюда	-10.8616
▁напомина	-10.8618
ённые	-10.8619
▁65	-10.862
▁находя	-10.8624
гар	-10.8625
▁бабушка	-10.8625
▁рыбу	-10.8625
▁целую	-10.8626
▁клетку	-10.863
▁магнит	-10.8631
▁ярко	-10.8635
яет	-10.8637
ческ	-10.864
▁выступа	-10.8642
ливо	-10.8646
▁изобрел	-10.8646
действуют	-10.8647
▁ограничени	-10.8648
▁количестве	-10.8649
▁карьеру	-10.8649
▁возвращает	-10.8658
▁некоторым	-10.8663
▁лечени	-10.8665
▁применять	-10.8671
▁Давай	-10.8675
▁агент	-10.8675
▁частя	-10.8676
▁принципе	-10.8677
▁опухоли	-10.8681
емых	-10.8683
ланд	-10.8684
▁Адам	-10.8684
▁2005	-10.8684
▁случиться	-10.8684
▁имела	-10.8685
рас	-10.8686
▁ч	-10.8686
▁существо	-10.869
▁приблизительно	-10.8693
▁промышленност	-10.8696
▁создател	-10.87
▁папа	-10.8701
▁учился	-10.8703
▁увеличивается	-10.8705
тремя	-10.8706
▁Наше	-10.8709
▁относят	-10.8713
▁двое	-10.8717
▁реактор	-10.8719
йдут	-10.872
▁втор	-10.8721
звать	-10.8724
чем	-10.8725
мок	-10.8728
▁ед	-10.873
▁сложным	-10.8732
▁направлен	-10.8733
▁поменять	-10.8735
▁прибыли	-10.8736
▁Любо	-10.8737
▁поступ	-10.874
▁отбор	-10.8741
▁поп	-10.8746
▁традиционно	-10.875
сор	-10.875
миль	-10.8752
мысл	-10.8753
50	-10.8755
ошел	-10.8764
▁приложение	-10.8765
▁доск	-10.8766
▁пациентам	-10.8769
▁обычным	-10.877
ожидать	-10.8772
▁мем	-10.8772
▁выпуска	-10.8772
▁определени	-10.8777
▁Ал	-10.8779
вел	-10.878
▁установк	-10.878
▁организовать	-10.8782
▁постройк	-10.8783
▁связей	-10.8783
▁кусочек	-10.8783
▁Разум	-10.8784
▁сравнить	-10.8784
▁Исследовани	-10.8784
▁концерт	-10.8785
▁Никогда	-10.879
▁погибл	-10.879
▁следующ	-10.8795
▁ищет	-10.88
▁Стар	-10.88
▁стул	-10.8801
▁предприниматель	-10.8801
▁следующим	-10.8801
▁слабы	-10.8802
▁потребова	-10.8805
▁разрешения	-10.8807
▁крыш	-10.8807
▁расширить	-10.8808
▁влияния	-10.8811
▁мотор	-10.8822
▁пальц	-10.8825
▁американско	-10.8834
▁популяци	-10.8834
▁летом	-10.8834
зор	-10.8836
▁4-	-10.8836
▁запад	-10.8838
▁определения	-10.8841
▁ребёнк	-10.8847
▁потерял	-10.8849
▁постоянны	-10.8849
бывают	-10.885
▁метафор	-10.8852
▁сложность	-10.8858
at	-10.8859
▁глуб	-10.8861
ённых	-10.8863
▁ядерны	-10.8865
▁фильтр	-10.8866
▁факторов	-10.8867
▁пле	-10.8869
▁БД	-10.8874
▁глав	-10.8876
▁вычисления	-10.8878
▁Apple	-10.8885
▁полиомиелит	-10.8885
▁энергетик	-10.8885
▁Чарльз	-10.8885
▁рассчитыва	-10.8885
▁микрофон	-10.8885
▁Наверно	-10.8885
▁Эрик	-10.8886
▁пережил	-10.8889
▁продолжал	-10.8889
▁50-	-10.8891
▁ПМ	-10.8894
тянуть	-10.8895
▁вовлечен	-10.8897
▁науку	-10.8901
ением	-10.8906
▁внешни	-10.8911
следовательность	-10.8916
▁получал	-10.8918
▁цифра	-10.8921
▁принял	-10.8922
▁проходя	-10.8922
▁разговора	-10.8925
▁придума	-10.8928
▁профессиональны	-10.8928
▁Верно	-10.8929
дают	-10.893
▁Интернете	-10.8932
▁картинка	-10.8933
▁активност	-10.8934
▁инфекци	-10.8936
▁начнут	-10.8937
план	-10.8937
▁согласны	-10.8941
▁требуют	-10.8942
▁формировани	-10.8943
работает	-10.8951
▁такова	-10.8953
рел	-10.8953
▁един	-10.8955
▁искусств	-10.8957
▁лице	-10.8958
жил	-10.8959
▁скал	-10.8961
▁мно	-10.8963
▁просил	-10.8967
▁формат	-10.8978
▁пап	-10.8978
▁рисова	-10.8978
▁ребенк	-10.8982
▁слушал	-10.8984
▁интересовал	-10.8986
▁ценны	-10.8986
▁Прямо	-10.8988
▁посреди	-10.8988
▁смартфон	-10.8988
▁соотношени	-10.8988
▁экспедици	-10.8988
▁Проект	-10.8988
▁сервис	-10.8988
ork	-10.8988
▁пригород	-10.8992
▁торговы	-10.8997
▁оркестр	-10.9
▁повторя	-10.9006
▁обеспечива	-10.9006
▁Пус	-10.9007
▁смешно	-10.9009
▁называли	-10.9009
▁перешл	-10.9016
▁разработан	-10.9021
льной	-10.9026
▁меняют	-10.9028
▁написала	-10.9032
▁молодым	-10.9034
▁выживани	-10.9035
▁применение	-10.9044
▁центрально	-10.9046
▁испытания	-10.9047
ri	-10.9047
▁пород	-10.9056
▁мастер	-10.9056
▁явления	-10.9057
чк	-10.9057
фу	-10.9061
▁возможностям	-10.9062
▁метро	-10.9064
▁спуска	-10.9066
▁расстояния	-10.9066
▁восьми	-10.9072
гляд	-10.9072
▁тратить	-10.9073
▁лаборатория	-10.9081
▁чёрно	-10.9082
Анджелес	-10.9084
▁слабо	-10.9084
▁разума	-10.9085
th	-10.9091
▁возьмём	-10.9092
▁соответствует	-10.9092
▁принадлежит	-10.9093
▁устроен	-10.9093
▁пилот	-10.9093
▁избега	-10.9096
▁подверга	-10.9099
▁Закон	-10.9099
▁посетил	-10.9099
▁мышь	-10.9101
st	-10.9101
▁показано	-10.9106
илл	-10.9109
▁Солнца	-10.9113
▁кг	-10.9114
▁называемо	-10.9115
▁лекци	-10.9117
ошли	-10.9119
▁32	-10.9121
дей	-10.9126
фон	-10.9129
▁взаимосвязан	-10.9129
▁снимал	-10.9133
▁занят	-10.9134
▁цеп	-10.9142
рал	-10.9143
▁ра	-10.9149
низу	-10.9153
▁будущи	-10.916
▁летать	-10.916
▁пары	-10.9167
▁школьны	-10.9171
▁убил	-10.9172
▁струн	-10.9174
▁сердечны	-10.9176
▁скучно	-10.918
▁научн	-10.9181
чего	-10.9181
гл	-10.9185
▁заняты	-10.9191
▁шрифт	-10.9197
▁кратко	-10.9197
▁вдохновил	-10.9198
▁опира	-10.9198
▁подар	-10.92
▁конфликта	-10.9202
нами	-10.9203
▁крупн	-10.9211
▁флаг	-10.9211
▁домашне	-10.9213
▁Суть	-10.9214
▁серьезно	-10.9214
▁инвалид	-10.9215
▁полов	-10.9217
▁провод	-10.922
▁принятия	-10.9223
▁сосредоточен	-10.9225
▁чудесны	-10.9227
▁Джим	-10.9227
вис	-10.9228
▁мяс	-10.9229
▁смотря	-10.923
▁философ	-10.923
▁великолепны	-10.9238
▁правду	-10.9239
▁министр	-10.924
тика	-10.9241
▁источника	-10.9242
▁богатства	-10.9246
▁проектировани	-10.9249
▁творческо	-10.9251
▁преступления	-10.9252
▁корн	-10.9259
▁сер	-10.9261
▁бар	-10.9262
▁автомобили	-10.9262
▁противо	-10.9263
▁взяты	-10.9265
▁площадк	-10.9268
▁охот	-10.9268
▁клиент	-10.9272
▁сине	-10.9274
▁философи	-10.9276
▁рано	-10.9278
▁битв	-10.9278
▁сериал	-10.9293
▁разрушен	-10.9295
▁увеличи	-10.9296
▁разработк	-10.9297
▁пенси	-10.93
пользуются	-10.9303
▁организовал	-10.9303
▁траектори	-10.9303
▁трансформаци	-10.9303
▁2011	-10.9303
▁микроорганизм	-10.9303
▁холм	-10.9304
▁берём	-10.9304
▁возвращени	-10.9304
▁немало	-10.9304
▁подходящи	-10.9305
▁ракет	-10.9306
▁служит	-10.9307
▁воздушны	-10.9308
▁жила	-10.9319
▁соединить	-10.9324
▁Никак	-10.9328
▁разреши	-10.9329
▁двум	-10.9329
▁останавлива	-10.933
▁Ок	-10.933
▁собак	-10.9332
вучит	-10.9337
▁отсутстви	-10.9342
тельной	-10.9342
▁небе	-10.9343
пят	-10.9343
▁создала	-10.9346
▁показывать	-10.9347
▁открыва	-10.9353
▁специалистов	-10.9355
▁руководств	-10.9357
▁полтор	-10.9359
▁торгов	-10.9361
сход	-10.9363
▁кода	-10.9364
▁Гу	-10.9369
нка	-10.9374
▁совершил	-10.938
сен	-10.9382
▁стоя	-10.9386
▁настроен	-10.939
▁квадратны	-10.9391
▁Вселенная	-10.9397
▁северно	-10.9399
смотр	-10.9403
▁силе	-10.9404
▁исходя	-10.9408
▁колледже	-10.9409
▁возл	-10.941
▁Марса	-10.9411
▁редки	-10.9411
▁добры	-10.9413
▁разрыв	-10.9418
пред	-10.9419
▁Могу	-10.9419
▁участки	-10.9424
▁Хороши	-10.9425
очек	-10.9425
▁нога	-10.9428
▁профессионал	-10.9429
держать	-10.9432
▁строк	-10.9434
озьмите	-10.9442
▁заключение	-10.9446
▁корм	-10.9448
кол	-10.9451
▁дискусси	-10.9452
▁куск	-10.9456
▁скот	-10.9461
▁предлагаю	-10.9465
рик	-10.9468
берг	-10.9472
▁сущность	-10.9472
дова	-10.9472
ведение	-10.9472
▁Ман	-10.9472
▁третье	-10.9476
▁лодк	-10.948
▁заботить	-10.9485
хватить	-10.9487
▁желани	-10.9493
▁музыкальны	-10.9498
▁Северн	-10.9504
▁клеткам	-10.9508
▁показала	-10.9512
▁прожи	-10.9515
▁жир	-10.9516
▁захочет	-10.952
▁придумыва	-10.952
▁таблиц	-10.952
▁отправ	-10.952
▁слышим	-10.9523
нова	-10.9524
▁кожу	-10.9527
НБ	-10.9527
▁донор	-10.9531
ас	-10.9533
чел	-10.9534
▁влияю	-10.9537
▁математика	-10.9541
▁пришел	-10.9541
▁мотиваци	-10.9542
▁мутаци	-10.9545
▁африканск	-10.9551
▁параметр	-10.9551
▁десятилетий	-10.9557
▁сенсор	-10.9557
▁неравенство	-10.9558
▁враща	-10.9562
кую	-10.9562
▁студент	-10.9566
▁сталкиваем	-10.9568
▁задал	-10.9578
▁тра	-10.9581
щихся	-10.9584
▁10-	-10.9586
▁дед	-10.9587
▁широки	-10.9591
▁изобретения	-10.9605
▁дам	-10.9611
▁жар	-10.9617
носим	-10.9629
▁Институт	-10.963
▁эквивалент	-10.963
▁шоколад	-10.963
▁объем	-10.963
▁поэзи	-10.963
▁рекорд	-10.963
▁дочери	-10.963
▁представлять	-10.963
▁просьб	-10.9631
▁включить	-10.9633
вшее	-10.9635
▁визуально	-10.9636
▁появление	-10.9637
метр	-10.964
▁потерять	-10.964
▁означало	-10.964
▁чёрн	-10.9641
близи	-10.9642
▁30-	-10.9642
▁преми	-10.9643
▁предыдущи	-10.9647
▁удаётся	-10.9647
▁кроват	-10.9654
▁программировани	-10.9654
▁музее	-10.9657
▁лов	-10.9662
▁плана	-10.9673
▁обнаружила	-10.9674
ук	-10.9675
▁открытом	-10.9682
▁карикатур	-10.9683
подобие	-10.9691
▁женски	-10.9691
реш	-10.97
▁двор	-10.9709
▁стене	-10.971
▁разговаривал	-10.9715
▁эволюция	-10.9716
▁газов	-10.9716
▁версия	-10.9719
▁независимы	-10.9722
▁крупно	-10.9723
▁ссылк	-10.9725
▁Швеци	-10.9741
▁учёб	-10.9741
▁ущерб	-10.9741
▁хромосом	-10.9741
▁разнообразны	-10.9741
▁196	-10.9741
▁транс	-10.9741
▁пойдёт	-10.9741
▁глядя	-10.9742
▁способствуе	-10.9742
▁виртуальны	-10.9743
▁персонаж	-10.9744
▁ожидаем	-10.975
▁потенциально	-10.9754
▁ката	-10.9755
▁бег	-10.9756
▁Сири	-10.9771
▁происходить	-10.9773
▁подобным	-10.9777
▁понимани	-10.9777
▁изображен	-10.9779
бывать	-10.9781
▁показываю	-10.9784
▁культурны	-10.9787
▁объяснил	-10.9789
▁Похоже	-10.9794
▁полёта	-10.9796
▁Интернета	-10.9796
▁полет	-10.9798
▁ключевы	-10.9801
▁обращать	-10.9804
водят	-10.9804
▁осознава	-10.9805
▁стереотип	-10.9805
чт	-10.981
▁иллюзи	-10.9812
as	-10.9812
▁трубк	-10.9812
▁дики	-10.9812
▁лент	-10.9816
▁кров	-10.9817
бес	-10.9819
десят	-10.9821
▁движ	-10.9828
▁попадают	-10.9833
▁сценари	-10.9837
▁попросить	-10.984
▁зайти	-10.9842
право	-10.9845
▁справля	-10.9846
▁организмов	-10.9847
▁формируют	-10.985
▁пра	-10.9852
▁Альцгеймер	-10.9853
▁приоритет	-10.9853
▁всевозможны	-10.9853
▁пейзаж	-10.9853
▁сомнева	-10.9853
▁гнев	-10.9853
▁теряет	-10.9853
▁сцены	-10.9855
▁хищник	-10.9855
▁преступник	-10.9856
▁связать	-10.9856
▁фон	-10.9856
▁неизбежно	-10.986
▁Этим	-10.9861
лан	-10.9861
▁социальным	-10.9863
звали	-10.9865
▁комикс	-10.9865
▁дала	-10.9868
▁металл	-10.9873
▁пис	-10.9876
бан	-10.9878
▁Тим	-10.9883
▁глобальн	-10.9884
▁просматрива	-10.9888
▁улучшения	-10.9888
нем	-10.9889
▁построил	-10.9889
▁значимы	-10.989
▁камер	-10.9891
▁держит	-10.9892
▁улыба	-10.9895
▁учреждения	-10.9897
▁велика	-10.9899
▁семейны	-10.9899
▁порт	-10.9903
кто	-10.9912
▁соверш	-10.9913
▁обозначен	-10.9915
▁голосов	-10.9915
▁губ	-10.9917
▁прочитал	-10.9921
▁расстояние	-10.9924
▁четырех	-10.9926
▁Кор	-10.9928
▁обратн	-10.9928
▁соответствую	-10.9932
▁современн	-10.9935
марк	-10.9941
▁репутаци	-10.9942
▁надел	-10.9945
▁питательны	-10.9949
так	-10.995
▁Можем	-10.9954
▁программе	-10.9959
,5	-10.996
▁Бел	-10.9964
▁психически	-10.9967
▁Фонд	-10.9967
▁парниковы	-10.9967
▁пал	-10.9967
▁положении	-10.9968
щими	-10.9968
тянул	-10.9969
▁умирает	-10.9975
▁рассмотри	-10.9978
▁оси	-10.998
▁родителями	-10.9981
▁остановил	-10.9981
▁протест	-10.9983
▁Гарвард	-10.9986
вил	-10.9993
▁обсуждать	-10.9993
▁цифров	-10.9994
ачива	-10.9997
▁маги	-10.9999
▁составил	-11
▁рул	-11
▁повседневно	-11.0006
▁умира	-11.0006
строить	-11.0011
▁заднем	-11.0011
▁странным	-11.0013
▁тропически	-11.0014
▁Стр	-11.0016
▁упал	-11.0018
▁математике	-11.0018
▁предлагает	-11.0019
бел	-11.002
▁оставля	-11.0021
▁направить	-11.0022
▁Каждо	-11.0022
un	-11.0022
▁сестра	-11.0023
▁остаться	-11.0023
▁оптимизм	-11.0023
▁получали	-11.0026
▁Мари	-11.003
▁прекрасна	-11.0033
▁рассказывает	-11.0034
▁поразил	-11.0036
▁корпораци	-11.0037
стве	-11.0047
били	-11.005
▁уничтожи	-11.0052
▁положить	-11.0055
▁находим	-11.006
▁представи	-11.0064
▁китов	-11.0068
▁товар	-11.0068
▁продела	-11.0071
▁панел	-11.0073
▁поддерживает	-11.0073
▁конкуренци	-11.0082
▁несомненно	-11.0082
▁проследи	-11.0082
▁ткане	-11.0082
▁валют	-11.0083
▁поразительны	-11.0084
▁климатически	-11.0084
▁промышленны	-11.0086
▁пальцев	-11.0087
▁типичны	-11.009
▁выигра	-11.0092
▁Восток	-11.0096
▁тратят	-11.0096
▁школьно	-11.0097
▁страдаю	-11.0101
▁прошёл	-11.0102
дар	-11.0107
▁количеств	-11.0114
▁образова	-11.012
лки	-11.0122
З	-11.0122
▁вещам	-11.0129
▁неважно	-11.0129
▁собака	-11.013
▁публично	-11.013
▁проведени	-11.0131
▁жал	-11.0138
▁Нача	-11.0138
▁Каким	-11.0138
▁неверно	-11.0139
▁подхода	-11.0144
▁основыва	-11.0148
▁Фа	-11.0149
▁цветов	-11.0152
▁запустили	-11.0153
▁дизайнеры	-11.0155
▁информационны	-11.0156
▁Син	-11.0163
▁корне	-11.0165
▁наклон	-11.0166
усь	-11.0172
тек	-11.0173
▁карьеры	-11.0173
▁идеальны	-11.0176
▁доказательство	-11.0177
▁тро	-11.018
▁объявил	-11.0188
▁Год	-11.019
▁больницу	-11.019
над	-11.0195
▁банка	-11.0195
▁меж	-11.0198
▁архив	-11.0198
▁корабль	-11.0198
▁пирамид	-11.0198
▁покупател	-11.02
▁обсудить	-11.0203
▁солнечн	-11.0203
▁диагностик	-11.0207
кучу	-11.021
▁наблюдал	-11.0211
▁Взгляните	-11.0213
▁копи	-11.0213
▁опасность	-11.0213
▁Гер	-11.0214
кинуть	-11.0214
▁северо	-11.0215
▁продавать	-11.0215
▁элит	-11.0218
клон	-11.022
▁лево	-11.0223
▁Лу	-11.0224
▁интеллектуальны	-11.0232
▁видны	-11.0234
▁аналоги	-11.0235
▁церкви	-11.0237
▁справедливо	-11.0244
▁инженеров	-11.0261
▁женско	-11.0264
▁95	-11.0268
▁нескольким	-11.0275
▁сотрудничество	-11.0278
▁опас	-11.028
гли	-11.0285
рам	-11.0288
▁биолог	-11.0289
тора	-11.0291
▁чувствовала	-11.0295
▁остальным	-11.0297
▁налогов	-11.0299
▁перспективе	-11.03
▁посыла	-11.0305
альным	-11.0311
▁сохранен	-11.0315
▁адвокат	-11.0315
▁посвящен	-11.0316
▁самоубийств	-11.0316
▁гольф	-11.0316
▁предпочитаю	-11.0316
▁ждёт	-11.0316
▁Роберт	-11.0316
▁дизайнер	-11.0317
лла	-11.032
▁терроризм	-11.0324
▁окруж	-11.0326
▁нуля	-11.0328
цин	-11.033
▁достига	-11.0338
▁догада	-11.0339
▁приступ	-11.0339
▁Мексик	-11.0339
▁поступать	-11.0342
▁восстановления	-11.0343
▁скрыты	-11.0343
▁нарисова	-11.0345
▁поддержани	-11.0345
▁Джона	-11.0347
▁шли	-11.0349
▁Фор	-11.035
фил	-11.0351
▁действует	-11.0352
▁раск	-11.0352
▁Две	-11.0355
▁прям	-11.0356
делайте	-11.0358
▁электроник	-11.0361
чок	-11.0364
▁станции	-11.0373
▁общественные	-11.0377
▁снижа	-11.0386
▁десят	-11.0387
▁выступал	-11.0388
теля	-11.0391
▁подпис	-11.0395
▁способна	-11.0398
▁Мэри	-11.04
▁горд	-11.04
▁лежа	-11.0402
▁мужчинам	-11.0404
▁голосовани	-11.0406
▁приз	-11.0407
произвести	-11.0408
едят	-11.0417
▁всяко	-11.0417
▁заинтересовал	-11.0418
▁фигур	-11.0418
▁института	-11.0418
стараюсь	-11.0419
▁начинали	-11.042
ad	-11.0421
▁магазина	-11.0422
носить	-11.0425
глу	-11.0429
▁волнует	-11.0429
▁технологией	-11.043
▁Результат	-11.0435
▁Эфиопи	-11.0435
▁Техас	-11.0435
▁воспитани	-11.0435
▁решают	-11.0436
▁2004	-11.0437
▁просыпа	-11.0438
▁пользова	-11.0438
▁использован	-11.0438
роб	-11.0439
▁овощ	-11.0439
▁Ту	-11.0441
телем	-11.0441
▁пита	-11.0443
▁Пять	-11.0443
▁обучени	-11.0444
▁операционн	-11.0448
▁огонь	-11.0449
▁трагеди	-11.0449
▁безумно	-11.0451
▁реали	-11.0451
▁нуждается	-11.0452
▁цитат	-11.0455
ори	-11.0457
▁трудны	-11.0459
▁оборудовани	-11.0462
▁Штатов	-11.0467
▁южно	-11.0467
▁применя	-11.0469
▁начинаю	-11.047
▁исследованиях	-11.0471
▁электрон	-11.0472
вшийся	-11.0474
▁беспоко	-11.0475
▁пониманию	-11.0475
сюда	-11.0476
▁рот	-11.0477
▁шагом	-11.0478
нал	-11.0478
счет	-11.0478
▁изменяет	-11.0497
▁свин	-11.0497
▁установили	-11.0499
анные	-11.05
▁технологиях	-11.0504
▁плот	-11.0505
▁мысле	-11.0515
▁продолжил	-11.0517
▁Восточно	-11.0518
▁условий	-11.0523
▁существовани	-11.0525
▁магнитно	-11.0531
▁мечтал	-11.0533
▁взяла	-11.0537
▁музыкант	-11.0544
▁изменять	-11.0545
▁некий	-11.0547
▁трети	-11.0548
▁нормальны	-11.0554
▁научила	-11.0555
▁мгновенно	-11.0555
▁полушари	-11.0555
▁посередине	-11.0555
▁учёный	-11.0555
▁Британи	-11.0555
▁гармони	-11.0555
▁составлял	-11.0559
▁невероятн	-11.056
▁программист	-11.056
▁произведение	-11.056
ень	-11.0561
▁конкурс	-11.0561
▁демократически	-11.0563
▁кожа	-11.0565
▁эмоциональны	-11.0567
▁завис	-11.057
▁Банк	-11.0575
▁посчита	-11.0575
▁уникально	-11.0576
▁строи	-11.0582
▁снизи	-11.0584
▁Вер	-11.0586
эл	-11.0587
▁следствие	-11.0587
▁бега	-11.0594
остей	-11.0595
▁операция	-11.0597
джи	-11.0599
▁стратегия	-11.06
выше	-11.0604
▁принтер	-11.0607
▁формул	-11.0609
несли	-11.061
▁исследователе	-11.0613
▁коммерчески	-11.0613
ратор	-11.0621
▁выжив	-11.0621
▁Бы	-11.0624
▁Ей	-11.0626
▁привели	-11.0628
▁достижение	-11.0628
БР	-11.0632
▁вопросами	-11.0635
▁дик	-11.0637
▁доста	-11.0638
▁800	-11.064
слать	-11.0646
▁прием	-11.0648
ваться	-11.0649
▁груз	-11.065
▁тратит	-11.0651
▁узнает	-11.0652
▁дому	-11.0654
▁красным	-11.0661
▁бумаг	-11.0662
▁сообщени	-11.0664
▁голубо	-11.0666
▁лев	-11.0671
▁700	-11.0671
▁печат	-11.0672
▁ручк	-11.0672
▁подс	-11.0674
▁сопровожда	-11.0677
▁шаблон	-11.0677
▁Таймс	-11.0677
▁прыга	-11.0677
▁нехватк	-11.0677
▁паразит	-11.0677
▁нелегко	-11.0677
▁2012	-11.0678
▁2006	-11.0679
▁кабинет	-11.0681
▁сахар	-11.0681
▁детал	-11.0682
▁получа	-11.0684
вно	-11.0684
▁сомнения	-11.0688
▁беспокоить	-11.0689
▁последняя	-11.0695
▁отцом	-11.0699
▁Необходимо	-11.0705
▁Посмотрим	-11.0706
▁выросли	-11.0707
▁яйца	-11.0713
▁отказыва	-11.0713
▁120	-11.0713
▁замер	-11.0715
▁встал	-11.0716
▁удивлени	-11.0717
▁сводит	-11.0718
▁стиль	-11.0719
▁мозгов	-11.0721
▁умере	-11.0723
▁возник	-11.0724
▁поднял	-11.0725
▁художников	-11.0726
▁незнакомц	-11.0727
▁видом	-11.0727
▁собран	-11.073
▁правилам	-11.073
▁обстановк	-11.0733
▁медицинск	-11.0734
▁начну	-11.0737
▁транспорта	-11.0742
▁бело	-11.0746
▁задания	-11.0746
▁Кир	-11.0754
▁фермер	-11.0754
▁носить	-11.0755
,000	-11.0757
▁слайде	-11.0759
▁приходить	-11.0763
▁неправильны	-11.0764
льш	-11.0767
▁снижени	-11.077
▁сыгра	-11.0772
▁потеплени	-11.0774
худ	-11.0774
▁Недавн	-11.0775
▁способно	-11.0778
▁гул	-11.0781
▁достиг	-11.0782
▁точност	-11.0794
▁Совет	-11.0796
▁состоят	-11.0798
▁учим	-11.0798
▁Компьютер	-11.08
▁Правительств	-11.08
▁синдром	-11.08
▁тарелк	-11.08
▁покинул	-11.0801
▁семьёй	-11.0801
▁выйдет	-11.0801
▁заявление	-11.0802
▁Питер	-11.0803
▁фунтов	-11.0805
▁Будет	-11.0807
▁дешёвы	-11.0807
▁Особенно	-11.0808
звините	-11.0812
атель	-11.0814
▁живым	-11.0815
▁положения	-11.0819
▁техническо	-11.082
▁категории	-11.0825
▁неза	-11.0827
▁живот	-11.0827
▁радиаци	-11.0829
▁выборы	-11.083
елл	-11.0832
▁Ор	-11.0836
▁пережива	-11.0837
▁последствий	-11.0838
▁поворот	-11.084
ir	-11.084
▁иммунн	-11.0842
▁веру	-11.0846
▁визуальны	-11.0846
зади	-11.0847
▁Мар	-11.0848
▁края	-11.0848
▁Сер	-11.085
▁убедил	-11.0855
▁капл	-11.0859
▁голова	-11.0861
▁устойчивы	-11.0861
▁26	-11.0865
▁гормон	-11.0866
▁станци	-11.0867
▁синтез	-11.0878
▁логик	-11.088
▁хирурги	-11.0884
▁жилищ	-11.0887
▁мужско	-11.0888
▁фундаментально	-11.0889
▁боле	-11.0893
▁шок	-11.0901
▁заканчивает	-11.0903
▁дизайне	-11.0904
▁прожива	-11.0906
▁изменя	-11.0908
кин	-11.0911
▁недостатк	-11.0913
▁небольшим	-11.0914
▁проста	-11.0922
▁обман	-11.0922
▁MIT	-11.0925
▁дефицит	-11.0925
▁механик	-11.0925
▁редактор	-11.0925
▁Вероятно	-11.0925
▁муравьёв	-11.0925
▁дождь	-11.0925
▁писатель	-11.0926
▁исследователи	-11.0926
▁Эбол	-11.0928
▁Союз	-11.0928
▁названия	-11.0929
▁печата	-11.0931
▁дико	-11.0932
нном	-11.0934
▁индивидуально	-11.0936
▁психо	-11.0936
льная	-11.0937
▁наполнен	-11.0938
▁спутников	-11.0938
▁западно	-11.0939
▁шелк	-11.0941
▁берет	-11.0941
▁психолог	-11.0942
▁весом	-11.0946
▁No	-11.0955
ины	-11.0956
▁образы	-11.0956
▁любым	-11.0957
▁поймёт	-11.096
▁предсказыва	-11.096
▁иностранны	-11.0965
▁Пу	-11.0966
▁муравьи	-11.0966
▁поддерживают	-11.0968
▁стрел	-11.0968
▁наличи	-11.0973
▁выхода	-11.0976
▁неожиданны	-11.0978
▁американской	-11.0981
▁деревня	-11.0987
▁продукта	-11.0989
▁ногами	-11.0994
▁фермеры	-11.1001
министр	-11.1001
▁Тер	-11.1002
▁строительства	-11.1003
▁разумеет	-11.1004
▁Гаи	-11.1004
▁компьютере	-11.101
▁эффективност	-11.1013
▁врача	-11.102
дадим	-11.1034
▁чисты	-11.1035
▁демократию	-11.1035
тянут	-11.104
▁броса	-11.1043
▁телом	-11.1046
▁отдать	-11.1046
▁нож	-11.1046
▁распределение	-11.1047
▁сообщи	-11.1048
▁Википеди	-11.1052
▁Лучше	-11.1052
▁приглаша	-11.1052
▁холодильник	-11.1052
▁маршрут	-11.1052
▁раскрыть	-11.1052
▁худши	-11.1052
▁забыть	-11.1053
▁психологически	-11.1055
▁повреждения	-11.1056
▁технологическо	-11.1057
▁водород	-11.1057
▁находитесь	-11.1058
▁Ан	-11.106
▁повторить	-11.1062
▁Западе	-11.1063
▁присоедини	-11.1064
▁западны	-11.1066
▁направления	-11.1069
▁хаос	-11.107
▁наркотик	-11.1071
▁плакат	-11.1084
▁наркотиков	-11.1086
▁пишут	-11.109
▁подверг	-11.109
▁комар	-11.1091
▁массовы	-11.1093
▁воображения	-11.1094
▁обсуждения	-11.1094
▁Рад	-11.1095
▁стремление	-11.1096
▁весело	-11.1097
▁представлял	-11.1097
▁Штат	-11.1099
▁объединяет	-11.1101
▁столетия	-11.1102
▁энергией	-11.1104
▁активны	-11.1104
▁чувствуе	-11.1107
▁наблюдение	-11.1107
▁поведени	-11.111
▁великолепно	-11.1115
G	-11.1116
остр	-11.1119
▁Калифорни	-11.1121
▁контрол	-11.1123
▁Тай	-11.1128
бин	-11.1133
▁ночно	-11.1135
▁интенсивно	-11.1137
думаешь	-11.1139
▁отзыв	-11.114
▁пишу	-11.1143
▁веков	-11.1151
▁прекратить	-11.1151
▁сокращ	-11.1153
ровать	-11.1154
бивают	-11.1154
▁потрясающ	-11.1155
▁подвержен	-11.1156
▁содержат	-11.1159
▁Буш	-11.116
▁сознани	-11.116
энд	-11.1161
▁белк	-11.1162
▁Боб	-11.1163
▁сфера	-11.1164
ставим	-11.1164
▁эффективным	-11.1166
▁эффекты	-11.1167
▁Эт	-11.117
▁пересмотре	-11.117
▁экрана	-11.1173
ица	-11.1176
▁череп	-11.1177
▁путешестви	-11.1178
▁безопасны	-11.1179
енс	-11.118
▁пистолет	-11.118
▁премьер	-11.118
▁помощник	-11.118
▁галере	-11.118
▁заложен	-11.118
▁привычк	-11.118
▁Молод	-11.118
▁жестоки	-11.1181
▁юрист	-11.1181
▁поставлен	-11.1181
▁шахт	-11.1182
вари	-11.1183
▁сообщил	-11.1184
▁поддержа	-11.1185
▁открытий	-11.1186
▁громко	-11.1187
▁деньгам	-11.119
▁учебник	-11.119
▁свобода	-11.1191
▁испытал	-11.1191
▁выращивани	-11.1193
▁кафе	-11.1195
▁пластиковы	-11.1198
▁давал	-11.1199
▁предки	-11.1207
▁научился	-11.1215
▁маленьком	-11.1216
▁общение	-11.122
▁прошлы	-11.1223
▁привел	-11.1226
▁космоса	-11.1228
▁образуют	-11.1229
▁готовить	-11.1233
мира	-11.1233
▁руководство	-11.1234
▁антибиотик	-11.1236
▁сумасшедши	-11.1237
▁продвига	-11.1241
▁годам	-11.125
▁комната	-11.1251
▁заменя	-11.1253
▁дву	-11.1254
▁характеристик	-11.1254
ворот	-11.1259
▁внести	-11.1259
▁временно	-11.1269
▁убрать	-11.1272
▁свободны	-11.1272
▁представили	-11.1275
▁летучи	-11.1283
▁Европ	-11.1283
▁Начнё	-11.1285
льд	-11.1286
▁гора	-11.1287
▁пойма	-11.1294
▁отрица	-11.1298
▁записать	-11.13
▁сна	-11.1307
▁диапазон	-11.131
▁энтузиазм	-11.131
▁исполнени	-11.131
▁предотвращени	-11.131
▁продовольственн	-11.131
▁регулярно	-11.131
▁сформировал	-11.131
▁бензин	-11.131
▁обложк	-11.131
▁горячи	-11.131
▁Между	-11.131
▁интереса	-11.1313
▁важность	-11.1313
▁намерения	-11.1314
▁присутствует	-11.1316
▁принято	-11.1321
▁Дик	-11.1322
▁уважение	-11.1323
▁2001	-11.1327
▁льв	-11.1327
▁встречают	-11.1328
▁выбросы	-11.1329
▁птица	-11.1331
▁точны	-11.1332
▁генетик	-11.1333
▁вирусов	-11.1337
▁мобильно	-11.1338
▁передвига	-11.134
▁давали	-11.134
зол	-11.1341
▁задают	-11.1342
два	-11.1348
▁перенос	-11.1349
вались	-11.1356
▁перемеща	-11.1359
образить	-11.1361
▁млекопитающих	-11.1363
▁длинн	-11.1363
▁связыва	-11.1364
стил	-11.1366
▁ходу	-11.1369
▁верхне	-11.1371
▁Лет	-11.1372
▁микробов	-11.1376
▁полезным	-11.1378
▁подходил	-11.1379
▁клетк	-11.1381
▁встретили	-11.1382
▁захотел	-11.1387
▁беременност	-11.1387
▁имеющих	-11.139
чувств	-11.139
▁вин	-11.1391
▁строят	-11.1394
▁низ	-11.1394
далеко	-11.1396
▁ответственны	-11.1397
▁общая	-11.1401
▁самц	-11.1401
30	-11.1415
вот	-11.1416
▁склон	-11.1425
▁электрод	-11.1425
▁входит	-11.1426
▁стоящи	-11.1426
▁льд	-11.1427
▁мышей	-11.1428
▁способност	-11.1429
реки	-11.143
▁выражен	-11.1434
▁жестоко	-11.1434
джа	-11.1435
▁распространяет	-11.1436
▁лед	-11.1438
плыв	-11.1439
нтов	-11.144
▁восхища	-11.1442
▁ингредиент	-11.1442
▁компромисс	-11.1442
льскохозяйственн	-11.1442
▁Довольно	-11.1442
▁сэкономи	-11.1442
▁начинать	-11.1442
▁ураган	-11.1442
▁обожаю	-11.1442
▁сравним	-11.1442
▁мелоч	-11.1442
▁областе	-11.1443
▁акци	-11.1444
▁терапии	-11.1445
▁предполагает	-11.145
▁линз	-11.1452
▁передавать	-11.1453
▁называл	-11.1453
▁услышит	-11.1456
ата	-11.1456
▁покида	-11.1457
▁Созда	-11.146
▁включ	-11.1465
▁Рим	-11.1465
▁твёрдо	-11.1471
▁принима	-11.1477
▁восточно	-11.148
сни	-11.1481
▁культурно	-11.1486
▁работники	-11.1488
▁расширени	-11.1491
ёй	-11.1491
▁Ага	-11.1493
▁очереди	-11.1494
▁суда	-11.1494
▁соединения	-11.1495
▁предприятия	-11.1496
▁стекл	-11.1497
▁намерен	-11.1506
▁коллектив	-11.1506
▁кнопк	-11.1511
ic	-11.1513
третьи	-11.152
▁заключен	-11.1523
▁товары	-11.1527
▁распознавани	-11.1529
▁мотив	-11.1533
▁взаимодействи	-11.1536
▁28	-11.1539
▁облако	-11.1541
▁вооруж	-11.1549
▁публику	-11.155
▁находят	-11.1558
▁Пред	-11.1564
▁повторно	-11.1566
восточн	-11.1568
▁маленького	-11.1568
▁упоминал	-11.1568
▁управляем	-11.157
▁массив	-11.1571
▁шест	-11.1574
▁подтвержден	-11.1575
▁Оксфорд	-11.1575
▁ископаемы	-11.1575
▁поблагодари	-11.1575
▁диаметр	-11.1575
▁контракт	-11.1575
▁обеспокоен	-11.1575
▁дебат	-11.1575
▁производим	-11.1575
▁приземли	-11.1575
▁развить	-11.1577
▁радости	-11.1579
▁разработке	-11.158
▁располага	-11.1584
▁реализаци	-11.1585
▁относиться	-11.1587
and	-11.1588
▁звонк	-11.1589
▁публикаци	-11.1597
▁старая	-11.1598
▁передвижения	-11.16
двиг	-11.1601
▁балл	-11.1605
▁прошла	-11.1609
▁тяжёлы	-11.1609
▁современном	-11.1609
селе	-11.1611
▁Бэ	-11.1612
▁фермеров	-11.1612
▁дизайнеров	-11.1615
▁полном	-11.1615
▁наверху	-11.1616
▁приобре	-11.1617
▁краск	-11.1622
▁сильным	-11.1624
▁Система	-11.1625
▁английско	-11.1626
▁Пакистан	-11.1626
▁тёмн	-11.1633
▁производител	-11.1633
▁низким	-11.1634
▁готова	-11.1635
▁уровн	-11.1641
▁сравнива	-11.1641
▁убийств	-11.1643
▁рукам	-11.1643
лизм	-11.1647
▁заняти	-11.1648
▁диаграмм	-11.1652
▁архитектуры	-11.1655
вест	-11.1656
▁крест	-11.1656
▁подобн	-11.1658
▁велик	-11.166
▁Мама	-11.1661
▁Точно	-11.1663
▁горе	-11.1663
▁нашел	-11.1666
▁изучали	-11.1667
▁сопереживани	-11.1671
▁заметит	-11.1673
▁Эл	-11.1677
▁дыры	-11.1683
ЭС	-11.1686
▁дат	-11.1687
id	-11.1689
▁Новы	-11.1693
▁уважени	-11.1697
▁удержива	-11.1697
▁объединя	-11.1699
▁мастерск	-11.17
▁раствор	-11.1702
▁СПИД	-11.1706
▁корабля	-11.171
▁октябр	-11.171
▁Скоре	-11.171
▁показателе	-11.171
▁запечатле	-11.1711
фин	-11.1711
▁Браун	-11.1711
▁сложил	-11.1712
40	-11.1712
▁ТВ	-11.1714
окс	-11.1714
▁ветр	-11.1716
▁китайски	-11.1716
летают	-11.1719
▁приспособлен	-11.1719
▁собственном	-11.1719
▁подряд	-11.1721
▁обзор	-11.1722
▁здравоохранени	-11.1722
▁Люб	-11.1723
▁строительны	-11.1723
▁столиц	-11.1724
рр	-11.1727
20	-11.1727
▁удач	-11.1728
▁изучаем	-11.1728
▁инженеры	-11.1732
▁сыграл	-11.1734
▁словам	-11.1736
▁присмотр	-11.1738
▁дым	-11.1738
▁изобрета	-11.1741
скоп	-11.1743
▁новост	-11.1746
▁файл	-11.1748
▁доказательств	-11.1749
▁соедини	-11.1751
▁популярно	-11.1755
▁рассматрива	-11.1755
▁лестнице	-11.1756
▁каковы	-11.1757
щут	-11.1757
▁понят	-11.1757
▁получаю	-11.1761
▁столе	-11.1762
▁слон	-11.1766
▁спутник	-11.1767
▁остро	-11.1767
▁пропуска	-11.1773
▁всеобще	-11.1774
▁описывает	-11.1776
▁зона	-11.1777
▁мило	-11.1778
вшую	-11.1779
▁познакоми	-11.1781
▁распределени	-11.1781
▁высказывани	-11.1786
дол	-11.1788
▁ищу	-11.1789
▁метр	-11.1791
▁нарушения	-11.1792
▁брал	-11.1798
▁m	-11.1799
звонить	-11.1801
▁Ганд	-11.1803
▁белка	-11.1803
▁определять	-11.181
▁подводны	-11.1812
▁килограмм	-11.1812
▁одиночк	-11.1814
▁тестировани	-11.1817
▁СПИДа	-11.1821
▁приходили	-11.1825
▁спрашивает	-11.1831
▁стыд	-11.1832
▁коры	-11.1835
▁вызван	-11.1836
▁выстрел	-11.1837
de	-11.1838
▁бедность	-11.1842
▁зелены	-11.1842
▁волонтёр	-11.1847
▁кошмар	-11.1847
▁пешеход	-11.1847
▁Манхэттен	-11.1847
▁Учёные	-11.1847
▁выпустил	-11.1847
▁инвестировать	-11.1847
▁переосмысли	-11.1847
▁проповед	-11.1847
▁убежда	-11.1847
▁отклик	-11.1847
▁Уганд	-11.1847
▁надпись	-11.1847
▁ученых	-11.1847
▁доставк	-11.1847
▁обучать	-11.1848
▁Часто	-11.1849
▁весел	-11.1849
▁снимать	-11.1849
▁чашк	-11.1849
▁БФ	-11.185
▁работник	-11.185
▁паук	-11.1852
▁оставши	-11.1853
▁территория	-11.1853
▁примат	-11.1854
▁изменениям	-11.1857
▁комет	-11.1858
здор	-11.186
▁наилучш	-11.1861
▁страдает	-11.1861
▁производстве	-11.1862
ушек	-11.1864
▁слышала	-11.1864
▁лёгко	-11.1864
рс	-11.1865
сайт	-11.1871
▁играли	-11.1871
▁попада	-11.1873
▁потратить	-11.1876
▁мас	-11.1881
нни	-11.1882
бирать	-11.1887
▁парол	-11.1888
▁малярии	-11.1891
▁куб	-11.1892
▁продают	-11.1896
▁сухо	-11.1899
▁начинал	-11.19
▁стоп	-11.19
▁прекрасным	-11.1901
▁удовлетворени	-11.1911
переди	-11.1912
▁выделить	-11.1915
▁повыша	-11.1918
▁наследие	-11.1922
▁противоречи	-11.1922
▁учит	-11.1925
▁гонк	-11.1926
▁таблетк	-11.1928
▁богат	-11.1929
▁описыва	-11.1932
▁смея	-11.1938
▁созданно	-11.1939
▁Ху	-11.1939
▁сидящи	-11.194
▁отража	-11.1944
▁мясо	-11.1948
▁повод	-11.1948
▁навык	-11.1949
▁звучал	-11.1949
▁детск	-11.1949
▁Сдела	-11.1961
охо	-11.1964
▁спе	-11.1967
работало	-11.1971
▁изуча	-11.1971
▁пи	-11.1974
▁уголк	-11.1975
▁проигра	-11.1976
▁попали	-11.1976
▁зависим	-11.1979
▁сработал	-11.1981
▁избирател	-11.1984
▁взволнован	-11.1986
▁геноцид	-11.1986
▁колонии	-11.1986
▁супруг	-11.1986
▁отчаяни	-11.1986
кручива	-11.1986
▁смешива	-11.1986
▁переработк	-11.1986
▁представляем	-11.1987
▁строит	-11.1987
▁происходящее	-11.1987
▁ствол	-11.1987
▁билет	-11.1988
▁клеточн	-11.1989
▁покажет	-11.199
▁предпринимателе	-11.1991
▁десятилетие	-11.1991
▁холод	-11.1991
▁Гугл	-11.1991
слушайте	-11.1992
▁инструмента	-11.1992
▁начальник	-11.1993
▁ветеран	-11.1994
нервнича	-11.1994
▁мысля	-11.1995
правительственны	-11.1996
▁Смит	-11.1996
▁традиция	-11.1998
▁Удивительно	-11.1999
▁равенств	-11.2002
▁соглаша	-11.2002
ави	-11.2003
▁Неуж	-11.2005
▁увеличива	-11.2006
▁благ	-11.2008
▁мечтать	-11.2009
▁ветрян	-11.2011
▁предоставил	-11.2012
▁смертность	-11.2014
▁метан	-11.2016
▁указывает	-11.2016
▁улыбк	-11.202
знать	-11.2023
▁маляри	-11.2025
▁остановк	-11.2026
▁старени	-11.2026
▁дало	-11.2027
▁клиентов	-11.2031
▁задавал	-11.2032
▁разрабатыва	-11.2033
▁Оста	-11.2034
▁дальн	-11.2036
▁сердечно	-11.2038
▁полюс	-11.2039
▁бит	-11.2043
▁кит	-11.2046
▁непрерывно	-11.2047
▁бесплатны	-11.2048
▁клей	-11.2049
▁потенциальны	-11.2051
▁коже	-11.2051
▁деревн	-11.2053
▁кнопку	-11.2053
▁Кам	-11.2053
▁финансирование	-11.2054
▁задали	-11.2054
▁устал	-11.2054
▁жидкость	-11.2057
енной	-11.206
▁восток	-11.2062
▁останови	-11.2062
▁основным	-11.2065
▁зд	-11.2066
гласит	-11.2071
▁залив	-11.2071
▁льш	-11.2072
▁образу	-11.2072
▁низкой	-11.2074
▁предыдуще	-11.2079
▁графика	-11.2079
▁невидимы	-11.2088
▁вакцины	-11.2096
▁Кит	-11.2096
▁усовершенствова	-11.2099
ряду	-11.2102
▁доказал	-11.2107
▁стихи	-11.211
▁шутк	-11.2112
▁чувству	-11.2115
▁21-	-11.2115
▁Роб	-11.212
▁Сп	-11.2121
▁сторонник	-11.2124
▁нагрузк	-11.2127
▁электростанци	-11.2127
▁фармацевт	-11.2127
▁мелоди	-11.2127
▁послание	-11.2127
▁фанат	-11.2127
▁семена	-11.2127
▁одиночеств	-11.2127
▁приходил	-11.2128
▁получен	-11.2128
▁предпринять	-11.2129
▁рецептор	-11.2129
▁2003	-11.213
▁отправлять	-11.2133
▁передвигаться	-11.2136
▁институты	-11.2136
▁удобно	-11.2137
Анджелесе	-11.2138
▁удовольствия	-11.214
▁рез	-11.2141
▁зелёно	-11.2141
▁прямы	-11.2141
▁Мил	-11.2141
▁реальным	-11.2149
▁передаёт	-11.2154
▁решающ	-11.2159
▁Дарвин	-11.2159
▁целя	-11.2159
▁воздействия	-11.2161
▁местным	-11.2163
▁закрыва	-11.2165
▁глупо	-11.2166
кий	-11.2169
am	-11.2171
оби	-11.2176
▁насекомы	-11.2176
▁хор	-11.2176
▁взаимоотношения	-11.2178
▁тенденция	-11.218
▁приложения	-11.2181
▁способностью	-11.2182
▁телу	-11.2189
▁15-	-11.2195
▁сельски	-11.2197
▁разделить	-11.22
▁родно	-11.2201
ёшь	-11.2211
чал	-11.2214
тные	-11.2216
▁умру	-11.2217
▁приближа	-11.2221
▁американск	-11.2225
ните	-11.2228
▁слух	-11.2234
▁дав	-11.2234
▁темноте	-11.2236
▁предложени	-11.2242
▁расстройства	-11.2242
▁обезьяны	-11.2249
▁порой	-11.2251
▁универсальны	-11.2255
▁типов	-11.2256
▁делят	-11.2258
▁изучаю	-11.2258
▁Карл	-11.2261
▁хранит	-11.2262
▁автомат	-11.2268
▁утверждает	-11.227
▁церемони	-11.227
▁погружа	-11.227
▁удвои	-11.227
▁Флорид	-11.227
дышать	-11.227
▁Брайан	-11.227
▁исчезает	-11.227
▁засух	-11.2271
▁1,5	-11.2272
▁приятны	-11.2272
▁2,5	-11.2272
▁довод	-11.2272
▁камне	-11.2272
▁вряд	-11.2274
▁реагирует	-11.2274
▁расширение	-11.2275
▁Рио	-11.2276
▁находился	-11.2278
▁ошиб	-11.228
▁герои	-11.2281
▁Ша	-11.2283
рок	-11.2291
▁Дела	-11.2293
▁спасени	-11.2293
▁умеет	-11.2299
▁присоединя	-11.23
▁потепление	-11.23
▁Мед	-11.2308
▁вспышк	-11.2311
um	-11.2317
юр	-11.2319
▁особенность	-11.2326
▁ростом	-11.2326
дон	-11.2326
рил	-11.2327
▁умею	-11.2328
▁снижает	-11.233
▁представлени	-11.2331
▁тестов	-11.2338
ладить	-11.234
▁королев	-11.2342
▁необычны	-11.2346
▁бабушки	-11.2352
▁верны	-11.2354
▁устойчивость	-11.2358
▁контроле	-11.2359
▁испытани	-11.2362
▁повсеместно	-11.2366
▁экологическо	-11.2368
▁собаки	-11.2375
▁совпада	-11.2376
▁рада	-11.2378
▁лекции	-11.2381
▁маск	-11.2382
▁эволюционно	-11.2382
▁Po	-11.2383
▁умение	-11.2383
▁удален	-11.239
▁физическ	-11.2391
▁получат	-11.2391
▁вызва	-11.2392
▁страной	-11.2392
изаци	-11.24
▁сосредоточи	-11.2401
▁преподавател	-11.2402
▁достигнут	-11.2403
▁длинно	-11.2407
▁убиты	-11.2409
▁St	-11.241
▁Micros	-11.2415
▁Нобелевск	-11.2415
▁Хиггс	-11.2415
▁бассейн	-11.2415
▁кукуруз	-11.2415
▁накаплива	-11.2415
▁презерватив	-11.2415
▁супермаркет	-11.2415
▁критери	-11.2415
▁известен	-11.2415
▁шприц	-11.2415
▁ставит	-11.2415
▁обнаружени	-11.2415
▁импери	-11.2415
▁разреша	-11.2415
▁визит	-11.2415
▁тонки	-11.2416
▁умнее	-11.2417
▁листья	-11.2418
▁съест	-11.2419
▁сумма	-11.242
▁заполнен	-11.2421
▁лицензи	-11.2423
▁попробуем	-11.2423
▁студентам	-11.2425
▁формирует	-11.2433
▁естественным	-11.2434
▁предположение	-11.2435
▁недавни	-11.2437
▁знакомо	-11.2438
▁астроном	-11.2438
▁материальны	-11.2442
▁финансировани	-11.2442
▁метода	-11.2443
▁Наук	-11.2444
▁любопытно	-11.2444
▁газеты	-11.2445
▁решит	-11.2446
▁2-	-11.2448
влекательн	-11.245
▁статья	-11.2451
▁художника	-11.2452
▁мальчика	-11.2454
▁музыкально	-11.2454
ношу	-11.2454
▁волна	-11.2456
▁мудрость	-11.2456
▁быстр	-11.2457
▁мамы	-11.2458
▁Мас	-11.2464
▁базовы	-11.2465
▁составляющи	-11.2467
▁ожида	-11.2469
▁Войн	-11.2473
▁побережье	-11.2475
▁проче	-11.2477
▁снижение	-11.2479
▁распространи	-11.2488
▁гидро	-11.2492
▁Огромно	-11.2493
▁угроза	-11.2495
▁контролирует	-11.2497
▁упаковк	-11.2499
▁забавно	-11.2501
▁вдохновение	-11.2504
▁черны	-11.2509
полне	-11.251
om	-11.2512
▁производительно	-11.2514
оедино	-11.252
▁правом	-11.252
▁придержива	-11.2531
▁почву	-11.2531
▁отклонения	-11.2538
▁осознание	-11.254
▁жителям	-11.2543
кормить	-11.2545
▁Кинг	-11.2547
▁толк	-11.2548
▁оказыва	-11.2548
▁основы	-11.2549
▁беженц	-11.255
бег	-11.2552
▁стихотворение	-11.2559
▁Ваши	-11.2559
▁передне	-11.256
▁причё	-11.256
▁конкурент	-11.2561
▁Четыре	-11.2562
▁коридор	-11.2562
▁предупреждени	-11.2562
▁тревог	-11.2562
▁акцент	-11.2562
▁печень	-11.2562
▁еде	-11.2563
▁медуз	-11.2563
▁подготовить	-11.2564
▁освеща	-11.2564
▁указыва	-11.2565
▁длительно	-11.2565
▁вспомнил	-11.2566
▁смелы	-11.2569
▁некое	-11.257
▁Гре	-11.2572
▁сократи	-11.2573
▁добыва	-11.2573
▁побережья	-11.2574
▁носил	-11.2574
▁пережить	-11.2574
▁хранить	-11.2574
▁настоящем	-11.2575
▁зрител	-11.2576
▁бывши	-11.2577
▁совмести	-11.2577
▁Велико	-11.2578
▁решен	-11.2579
▁содержани	-11.2579
▁холодны	-11.2581
ктивн	-11.2583
▁беспокоит	-11.2583
▁свойство	-11.2585
▁минимальн	-11.2586
▁искусстве	-11.2596
▁реагирова	-11.2598
▁зеркал	-11.26
BM	-11.26
▁терпе	-11.26
▁Дом	-11.2603
▁сочувствие	-11.2609
▁блага	-11.2611
▁продать	-11.2616
▁встретила	-11.2618
▁ведущи	-11.2618
▁Должн	-11.2618
казаться	-11.2625
▁умел	-11.2626
▁отпуск	-11.2627
▁состоял	-11.2628
▁Школ	-11.2631
▁продавал	-11.2633
▁позволят	-11.2633
ёмся	-11.2633
▁индивидуальны	-11.2633
▁использовала	-11.2633
▁займ	-11.2637
▁упад	-11.2639
цами	-11.2639
▁ставк	-11.2643
▁реч	-11.2647
▁Чего	-11.2647
▁развивают	-11.2649
▁подняли	-11.2651
▁пан	-11.2651
▁33	-11.2652
▁теряют	-11.2653
▁зависимость	-11.2654
▁похорон	-11.2657
▁цене	-11.2659
того	-11.2662
▁факта	-11.2662
гры	-11.2666
▁обсуждали	-11.2667
▁запомни	-11.2668
▁увеличил	-11.267
▁парке	-11.267
▁Немног	-11.2671
▁уши	-11.2671
▁задумал	-11.2674
рус	-11.2676
▁Хай	-11.2679
▁Йо	-11.2681
▁персонал	-11.2682
▁происходящи	-11.2684
▁скач	-11.2686
▁поход	-11.2686
▁крут	-11.2687
падают	-11.2691
▁описан	-11.2692
связ	-11.2692
▁определяют	-11.2695
▁маркетинг	-11.2698
▁решении	-11.2699
▁CA	-11.2701
▁сос	-11.2703
▁корол	-11.2703
▁мощно	-11.2704
терапи	-11.2708
▁поменя	-11.271
▁декабр	-11.2711
▁запущен	-11.2711
▁лагерь	-11.2711
▁немедленно	-11.2711
▁сетчатк	-11.2711
▁эволюционировал	-11.2711
▁заголовк	-11.2711
▁Честно	-11.2711
▁камня	-11.2711
▁гипер	-11.2711
▁рационально	-11.2711
▁Кевин	-11.2711
▁гараж	-11.2712
▁сказав	-11.2714
▁новостях	-11.2714
▁курса	-11.2715
▁окружение	-11.2715
▁твит	-11.2715
▁процветани	-11.2716
Обама	-11.272
▁фирм	-11.272
▁депресси	-11.2721
▁лидерам	-11.2721
▁странице	-11.2721
▁глупы	-11.2723
▁Начина	-11.2723
▁тайны	-11.2726
▁палочк	-11.2726
▁мысленно	-11.2726
▁вычислени	-11.2728
▁шара	-11.2729
▁глубок	-11.2732
▁точностью	-11.2734
▁образов	-11.2735
▁раковы	-11.2738
▁Какое	-11.2739
▁пластика	-11.2741
▁лидер	-11.2742
логи	-11.2742
▁обеспечивает	-11.2745
▁черта	-11.2749
▁тур	-11.2753
▁держал	-11.2754
▁дворе	-11.2757
▁предположения	-11.2757
▁вспомина	-11.2763
▁третьего	-11.2766
▁применени	-11.2771
▁пустыне	-11.2779
▁насили	-11.2783
▁готово	-11.2783
▁выжил	-11.2783
▁Расскажи	-11.2784
▁заработать	-11.2784
▁спроектирован	-11.2785
▁горди	-11.2787
▁фоне	-11.2788
▁профессионально	-11.2788
читать	-11.2789
▁несчасть	-11.2789
▁заполни	-11.2793
▁важнейши	-11.2794
ойдёт	-11.2794
▁парковк	-11.2794
ышел	-11.2795
▁Красны	-11.2795
▁парка	-11.2799
▁занятие	-11.28
▁сложное	-11.2802
цел	-11.2806
▁воображени	-11.2807
▁столети	-11.2808
▁исходит	-11.281
чуть	-11.281
▁интуици	-11.2812
▁призыв	-11.2816
▁гламур	-11.2818
▁обманыва	-11.282
▁День	-11.2821
мель	-11.2823
▁обстоятельства	-11.2825
▁река	-11.2831
▁Пар	-11.2842
▁Хан	-11.2849
▁особенны	-11.285
▁Стран	-11.2852
▁уравнение	-11.2853
▁повышени	-11.2854
енько	-11.2855
▁подробно	-11.2858
▁дошл	-11.2859
▁помеща	-11.286
▁Газ	-11.2862
▁Александр	-11.2862
▁подъём	-11.2862
▁электроэнерги	-11.2862
▁Гейтс	-11.2862
▁администраци	-11.2862
▁спонсор	-11.2862
▁Индию	-11.2863
▁оператор	-11.2863
▁Совсем	-11.2863
▁детях	-11.2863
▁энергетически	-11.2864
▁уехал	-11.2864
▁пугающ	-11.2864
▁2050	-11.2866
▁индийски	-11.2867
▁легки	-11.2867
▁управляют	-11.2869
▁заповедник	-11.2871
▁ехал	-11.2871
▁сумк	-11.2871
▁размеща	-11.2872
▁Вернём	-11.2873
▁добива	-11.2876
▁ужасн	-11.2877
▁Коре	-11.2878
▁коллега	-11.2881
▁давления	-11.2882
▁функция	-11.2884
года	-11.2889
▁включен	-11.2889
анной	-11.289
▁питание	-11.289
▁шёл	-11.2893
▁едет	-11.2895
родом	-11.2898
▁куча	-11.2898
▁привык	-11.2901
▁молча	-11.2908
▁крылья	-11.2911
кос	-11.2916
▁уничтожени	-11.2917
▁купили	-11.2918
ближе	-11.2918
▁конфликтов	-11.292
вольн	-11.2922
▁девушк	-11.2923
▁подсказ	-11.2923
▁упомяну	-11.2931
▁предлага	-11.2932
▁правильном	-11.2934
▁дедушка	-11.2934
▁держа	-11.2937
▁29	-11.2942
лучше	-11.2943
▁утверждение	-11.2947
▁девяти	-11.2949
▁текуще	-11.2952
▁урожай	-11.2953
▁друзьям	-11.2953
ийся	-11.2958
▁статьи	-11.2961
▁участка	-11.2963
героев	-11.2963
▁исследу	-11.2963
▁Анд	-11.2964
▁статистически	-11.2964
▁Ск	-11.2965
▁мощн	-11.2974
прощения	-11.2974
▁континента	-11.2979
▁образцов	-11.2979
▁неизвестны	-11.298
▁уязвим	-11.298
▁иск	-11.2982
▁меняться	-11.2988
▁тени	-11.2991
▁интеллектуально	-11.2995
▁слеп	-11.3001
▁дыхание	-11.3004
остаточно	-11.3004
▁избави	-11.3009
▁штуку	-11.3011
▁квантово	-11.3015
▁человечеств	-11.3015
▁Мирово	-11.3016
▁Голливуд	-11.3016
▁адаптаци	-11.3016
▁воплотить	-11.3016
▁клавиатур	-11.3016
▁парадигм	-11.3016
▁паутин	-11.3016
▁республик	-11.3016
▁фантастик	-11.3016
▁феврал	-11.3016
▁земель	-11.3016
▁контейнер	-11.3016
▁напуган	-11.3016
▁эфир	-11.3016
▁протокол	-11.3016
▁выигрыва	-11.3016
▁дальнейше	-11.3016
▁изобили	-11.3017
▁запрограммирова	-11.3017
▁решаем	-11.3017
▁протеин	-11.3017
▁механически	-11.3018
▁очевидны	-11.3019
▁выражения	-11.3019
▁списка	-11.3019
▁своя	-11.302
▁религиозно	-11.302
▁МК	-11.3022
▁творить	-11.3022
▁удивил	-11.3022
▁значил	-11.3026
▁Атлант	-11.3027
▁имело	-11.303
▁перевести	-11.3035
▁отвлек	-11.3039
▁присоединить	-11.3039
ard	-11.3039
▁пропаганд	-11.3039
▁молекула	-11.3039
▁лампочк	-11.3041
▁запусти	-11.3041
▁направлени	-11.3043
метров	-11.3044
▁подавлен	-11.3045
▁газета	-11.3046
▁удиви	-11.3048
▁Брун	-11.3049
▁берегу	-11.3056
▁эпохи	-11.3057
▁инновационны	-11.3057
▁столкновения	-11.3058
▁узор	-11.3059
▁глобальном	-11.306
▁учебны	-11.3066
ологи	-11.3067
▁разу	-11.3077
▁гибки	-11.308
буд	-11.308
▁заметно	-11.3084
▁вспоминаю	-11.3085
▁Пару	-11.3087
▁богатство	-11.3089
▁дополнительно	-11.309
▁хозяйств	-11.3091
ul	-11.3093
▁изобретени	-11.3094
▁чест	-11.3096
▁красоты	-11.3097
▁вертикально	-11.3099
▁спал	-11.3106
op	-11.3107
▁Эли	-11.3107
▁ледников	-11.311
▁рентген	-11.3111
▁африканц	-11.3118
ступают	-11.3119
▁бедным	-11.3119
▁мальчиков	-11.3122
▁аутизма	-11.3123
▁премии	-11.3124
▁позитивно	-11.3129
▁дипломат	-11.3133
▁привлекл	-11.3134
▁начально	-11.3136
▁гарантирова	-11.3137
▁Тро	-11.3138
▁закончили	-11.3142
▁позитивны	-11.3145
рут	-11.3149
▁создавал	-11.315
встреч	-11.3152
▁выпуск	-11.3152
Ш	-11.3153
▁кадры	-11.3154
ложите	-11.3157
▁стремя	-11.3162
▁Привед	-11.3165
▁потребителе	-11.3165
▁либерал	-11.3166
▁саму	-11.3168
▁зл	-11.3169
▁надёжны	-11.3171
▁схема	-11.3171
▁Бангладеш	-11.3173
▁индекс	-11.3173
▁ископаемо	-11.3173
▁подключа	-11.3173
▁правосуди	-11.3173
▁Каролин	-11.3173
▁фантази	-11.3173
▁экзамен	-11.3173
▁эпизод	-11.3173
▁погрузи	-11.3173
▁мембран	-11.3173
▁тренд	-11.3173
▁Альберт	-11.3173
▁Мисс	-11.3173
▁обвиня	-11.3173
▁отправляет	-11.3173
▁заполня	-11.3173
▁Генри	-11.3174
▁заработал	-11.3175
▁храм	-11.3175
▁виноват	-11.3176
▁фантастически	-11.3178
▁химикат	-11.318
▁остры	-11.3182
▁организациям	-11.3183
▁пищев	-11.3183
▁свод	-11.3185
▁запомина	-11.3187
▁устроил	-11.319
▁демонстрирует	-11.3193
▁Стэнфорд	-11.3193
▁отслежива	-11.3193
▁разрабатываем	-11.3193
▁узл	-11.3193
▁рисовал	-11.3197
▁ожидает	-11.3198
ходили	-11.3198
▁забрать	-11.3199
▁душе	-11.3205
▁восстановление	-11.3206
▁гуманитарн	-11.3207
▁пересека	-11.3208
▁Амазонк	-11.3209
▁Майк	-11.3211
▁пил	-11.3212
гни	-11.3215
станем	-11.3216
▁проник	-11.3219
▁соответствующи	-11.322
▁Име	-11.3221
▁прочего	-11.3221
▁заходит	-11.3223
▁информационно	-11.3226
▁кресло	-11.3231
▁объяснения	-11.3232
▁слое	-11.3235
▁принципов	-11.3239
коп	-11.3243
▁звезда	-11.3244
▁явлени	-11.3248
▁изготовлени	-11.3249
▁истинно	-11.3252
▁Ch	-11.3259
▁начне	-11.3259
стараться	-11.326
▁поместили	-11.326
сани	-11.3262
▁Солнечно	-11.3264
▁забира	-11.3266
▁основания	-11.3271
▁эпидемия	-11.3272
0	-11.3272
▁поступить	-11.3275
▁поиски	-11.3278
▁угрозы	-11.328
▁нанял	-11.3281
сок	-11.3281
▁предоставлени	-11.3282
▁Куд	-11.3282
▁деталя	-11.3282
▁женой	-11.3287
▁больница	-11.3289
▁вулкан	-11.3292
▁измерени	-11.3292
▁сдвиг	-11.3293
▁футбол	-11.3294
▁крыше	-11.3295
▁вспомнит	-11.3304
▁Европа	-11.3306
больше	-11.3313
миллион	-11.3314
падает	-11.3315
▁взаимодействую	-11.3318
▁никуд	-11.332
▁болезням	-11.3322
▁буквальном	-11.3324
нтерес	-11.3324
▁улучшени	-11.3325
▁отобра	-11.3325
▁финанс	-11.3326
▁глин	-11.3328
▁великим	-11.3329
▁матерью	-11.3331
▁наступил	-11.3331
▁путешествовал	-11.3331
▁2015	-11.3331
▁дьявол	-11.3331
▁лагеря	-11.3331
▁подвижн	-11.3331
▁резерв	-11.3331
▁футов	-11.3331
▁Библи	-11.3331
▁непонят	-11.3331
▁Дерек	-11.3331
▁приготовлени	-11.3331
▁звен	-11.3331
▁камни	-11.3332
▁угля	-11.3332
▁Чарл	-11.3332
▁отметк	-11.3332
▁дорожк	-11.3332
▁высши	-11.3332
▁мистер	-11.3333
▁поражен	-11.3333
▁миг	-11.3335
▁Трети	-11.3335
▁оборон	-11.3336
цию	-11.3336
▁эры	-11.3337
▁клип	-11.3337
▁органически	-11.334
▁куриц	-11.3341
ставляет	-11.3342
▁цу	-11.3342
щение	-11.3343
▁дыхани	-11.3344
▁лидерств	-11.3344
▁проделал	-11.3345
бель	-11.3348
▁аутизм	-11.3351
▁налог	-11.3351
▁Париже	-11.3352
▁серьёзная	-11.3352
▁демографическ	-11.3354
▁приводят	-11.3354
▁продавц	-11.3354
▁следит	-11.3357
▁пробк	-11.3357
▁сорт	-11.3359
▁ледян	-11.3362
▁процессор	-11.3363
▁музея	-11.3364
▁крик	-11.3365
▁вопросам	-11.3368
▁ходит	-11.3371
▁достать	-11.3372
▁оставляет	-11.3375
вато	-11.3376
▁данн	-11.3378
▁пласт	-11.3379
▁договор	-11.3379
▁трое	-11.3381
▁объёма	-11.3381
▁Джен	-11.3381
▁аналогичн	-11.3386
▁требования	-11.3387
▁иду	-11.3388
▁доступна	-11.339
▁боро	-11.3391
ара	-11.3392
▁Цель	-11.3393
▁скрыва	-11.3394
▁выходны	-11.3394
ружу	-11.3396
▁характеристики	-11.34
▁растущи	-11.34
разу	-11.3401
▁ездил	-11.3402
▁неравенства	-11.3403
бар	-11.3405
▁щит	-11.3406
▁оценива	-11.3411
пан	-11.3417
▁уча	-11.3418
правляю	-11.3419
▁достойны	-11.3421
▁спусти	-11.3422
▁служи	-11.3422
▁передают	-11.3424
▁36	-11.3426
▁Пит	-11.3427
▁ведет	-11.3427
рол	-11.3428
▁судебны	-11.3429
делить	-11.3429
▁побывал	-11.343
▁третьем	-11.3431
▁уделя	-11.3433
значения	-11.3434
▁глава	-11.3437
зовём	-11.3439
▁стекло	-11.3439
▁85	-11.3442
▁невидимо	-11.3446
▁левы	-11.3447
▁сканировани	-11.3447
▁тяжёло	-11.3448
▁радикальны	-11.3449
▁грязн	-11.345
▁зеркало	-11.345
▁принятие	-11.3454
▁снимков	-11.3455
▁чудесно	-11.3455
▁забрал	-11.3456
▁круга	-11.3458
▁объясн	-11.3459
▁морально	-11.3461
▁пел	-11.3462
▁умирал	-11.3463
▁проигрыва	-11.3463
зывают	-11.3466
добав	-11.3469
▁органа	-11.3469
росла	-11.3471
▁тёмны	-11.3475
▁Фар	-11.3477
половин	-11.3478
▁тр	-11.3478
вела	-11.3484
▁рабочи	-11.3484
спользуя	-11.3487
▁принес	-11.3487
▁приговор	-11.3488
▁используемы	-11.3489
▁чай	-11.3492
▁Президент	-11.3493
▁воспитыва	-11.3493
▁попробовал	-11.3493
▁продукци	-11.3493
▁пузырь	-11.3493
▁реализовать	-11.3493
▁сооружени	-11.3493
▁Скотт	-11.3493
▁внедрени	-11.3493
▁пересечени	-11.3493
утверждать	-11.3493
▁предвиде	-11.3493
▁скоплени	-11.3493
amp	-11.3494
▁прогулк	-11.3495
▁ловушк	-11.3495
▁молекулярны	-11.3495
▁характера	-11.3495
▁стремительно	-11.3495
изован	-11.3495
▁проявления	-11.3498
▁несёт	-11.3498
▁духовно	-11.3498
▁президента	-11.3498
чку	-11.3499
▁заработ	-11.3501
▁меньшинств	-11.3506
писания	-11.3507
лед	-11.3507
▁обрабатыва	-11.3508
▁фаз	-11.3508
▁погиб	-11.3508
▁человеческим	-11.3511
▁банки	-11.3512
▁встрече	-11.3512
шат	-11.3513
▁Кал	-11.3515
▁объектив	-11.3518
▁ближайше	-11.3519
▁воспринимаем	-11.3519
▁знамениты	-11.3523
▁постав	-11.353
▁старик	-11.3531
▁повернуть	-11.3534
▁последн	-11.3534
▁перенес	-11.3535
▁замет	-11.3538
ура	-11.3538
▁многочисленны	-11.3544
камер	-11.3546
▁депрессия	-11.3547
▁предоставляет	-11.3547
▁заняло	-11.3547
зел	-11.3548
▁убивает	-11.3549
▁нынешни	-11.3552
▁взглянул	-11.3552
▁Зрител	-11.3552
▁препараты	-11.3554
▁производств	-11.3554
▁познакомить	-11.3555
▁подключить	-11.3557
тревож	-11.3559
▁Золото	-11.356
▁доступным	-11.356
▁технологиям	-11.3563
▁Обратит	-11.3566
▁кухне	-11.3573
делать	-11.3576
▁Суд	-11.3579
▁зов	-11.3584
pe	-11.3584
▁отказать	-11.3584
▁Пал	-11.3585
нимаешь	-11.3588
▁страст	-11.3591
▁носит	-11.3592
образован	-11.3592
▁повыси	-11.3593
всюду	-11.3595
▁следовал	-11.3596
▁жажд	-11.3598
▁самолёта	-11.3601
▁требовал	-11.3601
▁Хорош	-11.3603
▁освещени	-11.3604
▁заставля	-11.3605
▁слаб	-11.3606
▁противник	-11.3608
вращени	-11.361
▁СО	-11.3612
▁старт	-11.3612
▁несчастны	-11.3614
Сити	-11.3624
▁схожи	-11.3625
▁изобретател	-11.3627
▁Либ	-11.3628
воль	-11.3631
сим	-11.3636
▁слез	-11.3637
сегда	-11.3642
▁Оп	-11.3643
культур	-11.3644
▁определённ	-11.3646
▁вино	-11.3648
▁Рей	-11.3649
просту	-11.3653
▁размышлял	-11.3653
▁ключево	-11.3655
▁шизофрени	-11.3657
▁этническ	-11.3657
▁Фрэнк	-11.3657
▁аккумулятор	-11.3657
▁искренне	-11.3657
▁окситоцин	-11.3657
▁путешествовать	-11.3657
▁подчеркну	-11.3657
▁пульс	-11.3657
▁свидани	-11.3657
▁тунца	-11.3657
▁инвестирован	-11.3657
▁модифицирова	-11.3657
▁поговорил	-11.3657
▁разработчик	-11.3657
▁совместны	-11.3658
▁190	-11.3658
▁участк	-11.366
▁звер	-11.3661
▁значени	-11.3663
▁лишен	-11.3664
▁концепция	-11.3664
▁описание	-11.3665
▁твоё	-11.3665
▁страхов	-11.3666
▁электронн	-11.3668
▁белок	-11.3668
▁сделк	-11.3671
▁теряем	-11.3671
▁повернул	-11.3673
▁Коран	-11.3673
▁жёлты	-11.3676
▁парадокс	-11.3677
▁берега	-11.3679
▁лома	-11.368
▁менеджер	-11.3682
Times	-11.3686
▁вероятности	-11.3687
▁имеющие	-11.369
▁появ	-11.3691
▁Давид	-11.3693
▁экспериментальн	-11.3693
▁Сахары	-11.3695
▁освобождени	-11.3696
▁Внутри	-11.3696
▁лежал	-11.3696
▁дрон	-11.3699
▁километра	-11.3699
▁Стои	-11.3699
▁паник	-11.3701
▁сырь	-11.3703
▁полна	-11.3704
▁окончания	-11.3705
▁следуют	-11.3708
▁миссия	-11.3714
▁страница	-11.3716
▁контекст	-11.3717
▁невероятным	-11.3722
едим	-11.3726
▁братья	-11.3726
▁Ama	-11.3727
одно	-11.3729
▁мощь	-11.3736
▁выполняет	-11.3739
▁времен	-11.374
▁создавали	-11.3749
▁добавля	-11.3749
▁гос	-11.3754
▁ужасающ	-11.3758
▁молодёж	-11.3759
▁Парк	-11.3764
▁статистика	-11.3765
ством	-11.3767
▁включил	-11.3768
▁воспроизв	-11.3769
▁просмотр	-11.3769
ждут	-11.3772
▁кость	-11.3778
▁мировом	-11.3779
▁разрабатывать	-11.378
▁китайско	-11.3782
▁Джин	-11.3783
син	-11.3792
▁доходит	-11.3793
▁едины	-11.3802
▁связанно	-11.3802
▁зрительны	-11.3804
ace	-11.3807
ерс	-11.3807
▁исходны	-11.3808
▁обслуживани	-11.381
▁обнаружит	-11.3812
пользуемся	-11.3814
йдем	-11.3816
▁искр	-11.3816
-2	-11.3817
развит	-11.3818
▁изображени	-11.3819
мигрант	-11.3819
▁посети	-11.3819
▁открывать	-11.382
▁тенденции	-11.382
▁уголь	-11.3822
▁Кембридж	-11.3823
▁захотите	-11.3823
▁иерархи	-11.3823
▁инстинкт	-11.3823
▁интуитивно	-11.3823
▁ложь	-11.3823
▁мгновение	-11.3823
▁возникновени	-11.3823
▁молитв	-11.3823
▁артери	-11.3823
▁моделировани	-11.3823
▁прошедши	-11.3823
▁азот	-11.3823
▁провинци	-11.3823
▁нацелен	-11.3825
▁март	-11.3825
▁посадк	-11.3826
▁усы	-11.3827
▁Добро	-11.3827
▁сексуальны	-11.3828
▁Чили	-11.3829
▁строго	-11.383
сли	-11.3831
▁близких	-11.3833
▁добави	-11.3833
▁помещени	-11.3836
▁пятниц	-11.3836
▁использующи	-11.3836
герой	-11.3838
▁опор	-11.3839
▁стану	-11.3839
▁разнообрази	-11.384
▁Кен	-11.384
▁удивительным	-11.3845
станет	-11.3845
▁Свет	-11.3847
▁песен	-11.3849
▁исполня	-11.3851
▁42	-11.3851
▁Мин	-11.3853
▁существующе	-11.3855
▁зелен	-11.3855
▁шансов	-11.3856
▁забавны	-11.386
▁действи	-11.386
ut	-11.3861
▁стадион	-11.3863
братьев	-11.387
ходишь	-11.3871
влечения	-11.3874
▁выявля	-11.3875
▁слоя	-11.3877
дадут	-11.3878
▁опуска	-11.3883
▁переговоров	-11.3883
▁конфиденциально	-11.3884
▁партнер	-11.3885
▁белого	-11.3889
▁трущоб	-11.389
▁55	-11.389
▁предполагаю	-11.389
▁открыла	-11.3893
▁подоб	-11.3894
столом	-11.3894
▁холодн	-11.3895
▁слушател	-11.3905
▁врачам	-11.391
▁кухн	-11.3911
▁заражени	-11.3912
▁обману	-11.3913
нимаю	-11.3915
▁гол	-11.3915
▁артист	-11.3915
▁совершенств	-11.3916
▁успешным	-11.3918
▁разреза	-11.392
▁Таков	-11.3921
▁отдыха	-11.393
дир	-11.3935
▁жидк	-11.3938
▁страдал	-11.3942
▁окончани	-11.3943
▁мета	-11.3945
▁улучшение	-11.3947
▁направлениях	-11.3949
▁жидкост	-11.3952
▁колледжа	-11.3952
серьёз	-11.3952
▁одежды	-11.3954
▁Теб	-11.3956
▁исчез	-11.3958
▁сжига	-11.3961
пить	-11.3963
▁вселенн	-11.3965
▁Задума	-11.3967
▁принципа	-11.397
▁пояс	-11.397
▁предпоч	-11.3974
▁племени	-11.3975
▁сумасшедш	-11.3978
▁основанны	-11.3982
▁арест	-11.3985
▁рисун	-11.3989
шоу	-11.399
стар	-11.399
▁бабушк	-11.3992
▁Невозможно	-11.3993
▁альбом	-11.3993
▁бесконечны	-11.3993
▁беспорядк	-11.3993
▁максимум	-11.3993
▁употребля	-11.3993
▁Нельсон	-11.3993
▁наставник	-11.3993
▁необычайно	-11.3993
▁парашют	-11.3993
▁чёрт	-11.3993
▁эксплуатаци	-11.3993
▁шляп	-11.3993
▁тренер	-11.3993
▁Иисус	-11.3993
▁рубашк	-11.3993
▁барабан	-11.3993
▁полагать	-11.3993
▁поистин	-11.3993
▁насекомо	-11.3993
▁колонн	-11.3993
▁Хотит	-11.3993
▁социолог	-11.3994
▁вариаци	-11.3994
▁Джефф	-11.3994
▁дороже	-11.3994
▁квантов	-11.3994
▁Настоящ	-11.3994
▁треугольник	-11.3994
▁платя	-11.3995
▁пиани	-11.3996
▁уменьшает	-11.3997
▁пул	-11.3997
▁Тихо	-11.3998
▁разместить	-11.3998
▁одиноки	-11.4
атомов	-11.4001
▁родителям	-11.4001
▁справляться	-11.4005
▁эффективне	-11.4009
▁Дальше	-11.4009
ледовательно	-11.401
▁террорист	-11.4013
▁свидетельство	-11.4014
▁напомнил	-11.4014
▁сохрани	-11.4015
ind	-11.4015
▁Уолл	-11.4018
▁медсестр	-11.4019
▁попрош	-11.4022
▁согласились	-11.4024
▁лидером	-11.4027
▁1990-	-11.403
▁глобальным	-11.4031
прям	-11.4034
▁взаимодейству	-11.4036
▁четверт	-11.4038
▁образа	-11.4041
▁выделяет	-11.4041
▁бож	-11.4041
▁такси	-11.4042
▁осталась	-11.4043
▁препятствия	-11.4043
▁свежи	-11.4044
▁ха	-11.4045
▁критически	-11.4047
▁метафора	-11.4048
нимает	-11.4048
▁Тре	-11.4051
▁эффекта	-11.4051
ёв	-11.4051
▁читает	-11.4054
▁текущи	-11.4058
▁захотели	-11.4063
▁привязан	-11.4063
▁месяце	-11.4065
чинить	-11.4073
▁пролета	-11.4073
▁задействова	-11.4075
▁бога	-11.4077
▁шир	-11.4079
▁спинно	-11.408
▁предмета	-11.4081
лист	-11.4084
казывают	-11.4086
▁поступает	-11.4086
▁захватывающи	-11.4087
▁водо	-11.4088
▁брали	-11.4089
▁шу	-11.4092
▁пригласи	-11.4097
▁мощност	-11.4099
▁веры	-11.4099
▁Бра	-11.41
▁идущи	-11.4102
▁обстоятельствах	-11.4104
▁задавали	-11.411
▁плотность	-11.4112
ber	-11.4115
спа	-11.4118
▁втором	-11.4118
▁Египте	-11.4121
сол	-11.4124
▁сосредоточить	-11.4127
▁организован	-11.413
▁шума	-11.4135
▁счастливо	-11.4135
▁героя	-11.4138
▁воспринимают	-11.4139
▁Re	-11.4143
▁моделью	-11.4143
ящий	-11.4144
пра	-11.4145
▁захватывающе	-11.4147
▁цикла	-11.4148
▁потока	-11.4148
▁участвую	-11.4149
▁гром	-11.4151
центр	-11.4159
волю	-11.416
▁трудне	-11.416
клеточн	-11.4161
▁извлека	-11.4163
▁марш	-11.4165
▁август	-11.4165
▁заслуживаю	-11.4165
▁инсталляци	-11.4165
▁млрд	-11.4165
▁мотоцикл	-11.4165
▁официально	-11.4165
▁разместил	-11.4165
▁фосфор	-11.4165
▁церковь	-11.4165
▁Поднимите	-11.4165
▁совпадени	-11.4165
▁авторитет	-11.4165
▁отметил	-11.4165
▁цензур	-11.4165
▁сказк	-11.4165
влёк	-11.4165
▁допустим	-11.4166
▁минус	-11.4166
▁европейски	-11.4167
бытия	-11.4167
▁осадк	-11.4167
▁принимал	-11.4169
▁интереснее	-11.417
▁разрушить	-11.4172
▁отражение	-11.4173
▁предков	-11.4173
▁разумны	-11.4173
▁иллюстраци	-11.4175
▁экспорт	-11.4176
▁Организаци	-11.4176
послед	-11.4183
▁мёртвы	-11.4184
▁отрез	-11.4185
▁перенести	-11.4186
▁яблок	-11.4187
▁залива	-11.419
▁сценарий	-11.4192
▁женщине	-11.4194
▁существенны	-11.4194
▁объединили	-11.4194
живают	-11.4197
▁мел	-11.4199
▁кораллов	-11.42
▁Тон	-11.4201
▁девушки	-11.4201
▁недостато	-11.4202
▁Центрально	-11.4202
▁неверны	-11.4206
,7	-11.4207
▁осмотр	-11.4207
▁произноси	-11.421
▁Главны	-11.421
▁выполняют	-11.4211
▁комаров	-11.4212
▁воспринимает	-11.4215
▁распоряжении	-11.4216
▁развито	-11.4217
▁мен	-11.4222
▁значимо	-11.4222
▁ощути	-11.4228
▁светом	-11.423
▁приложени	-11.4232
▁Италии	-11.4233
▁моментом	-11.4237
▁плотно	-11.4244
▁Всем	-11.4247
ьер	-11.4249
▁считала	-11.4249
правления	-11.4249
▁участникам	-11.4251
▁демократ	-11.4251
▁загадк	-11.4252
▁сочетание	-11.4253
▁положительно	-11.4253
дл	-11.4254
▁коллективны	-11.4257
▁покрыва	-11.4258
▁чувствительны	-11.4258
▁полным	-11.4259
▁стимулирова	-11.4261
▁интересов	-11.4262
▁писали	-11.4263
думают	-11.4266
истом	-11.4266
▁услови	-11.4271
▁слома	-11.4272
▁персональны	-11.4272
▁правильн	-11.4273
▁Ваше	-11.4274
▁Национальны	-11.4275
▁бедно	-11.428
▁ожидани	-11.4281
▁Север	-11.4283
▁Вид	-11.4285
▁спутника	-11.4285
▁рискова	-11.4286
▁подразумевает	-11.4288
▁аппарата	-11.4294
оны	-11.4295
▁сочувстви	-11.43
айн	-11.4301
▁Единственно	-11.4305
▁пассажир	-11.4306
▁фонда	-11.4306
▁хватит	-11.4312
▁прицел	-11.4313
ровень	-11.4314
▁продажи	-11.4316
уса	-11.4317
▁обход	-11.4317
▁Востоке	-11.4319
▁отправляют	-11.4322
▁инженери	-11.4322
▁негативны	-11.4323
▁гена	-11.4328
▁крах	-11.4329
▁инструкци	-11.4331
▁учёным	-11.4331
▁отда	-11.4331
▁промышленность	-11.4332
ури	-11.4332
▁взлома	-11.4333
▁Какая	-11.4334
▁потряс	-11.4335
▁установил	-11.4335
▁девушек	-11.4341
▁дилемм	-11.4341
▁долгосрочны	-11.4341
▁кристалл	-11.4341
▁оптимальн	-11.4341
▁продовольстви	-11.4341
▁рычаг	-11.4341
▁тормоз	-11.4341
▁убеждён	-11.4341
▁враждебн	-11.4341
▁корабле	-11.4341
▁матерей	-11.4341
▁утверждал	-11.4341
▁новшеств	-11.4341
▁лагере	-11.4341
▁Джейн	-11.4341
▁направляет	-11.4341
▁чужи	-11.4341
▁привлекает	-11.4341
▁забуду	-11.4341
водим	-11.4342
▁агрессивны	-11.4342
▁верхушк	-11.4345
▁сохранения	-11.4346
▁поставщик	-11.4346
▁миссии	-11.4347
▁достойно	-11.4347
▁наблюдени	-11.4348
явления	-11.4348
▁сцена	-11.4348
▁отц	-11.4349
▁исследовали	-11.435
▁Оба	-11.4353
▁Ближнем	-11.4354
▁находили	-11.4359
▁преступление	-11.4362
мана	-11.4363
▁закат	-11.4366
▁признал	-11.4369
▁смесь	-11.4369
▁1950-	-11.437
пин	-11.4375
▁мудрост	-11.4378
▁установ	-11.4379
▁мягко	-11.4379
нцев	-11.4384
RB	-11.4384
садить	-11.4385
▁поступают	-11.4389
▁динозавра	-11.4389
инга	-11.4391
ведё	-11.4393
▁готовил	-11.4394
▁деятел	-11.4399
▁рожда	-11.4401
▁странные	-11.4404
▁зрителе	-11.4404
▁d	-11.4408
▁повысить	-11.4409
▁реагирую	-11.4411
▁прожил	-11.4412
▁соединение	-11.4412
▁присутстви	-11.4414
▁блоки	-11.4418
▁лежат	-11.4419
▁строительств	-11.442
▁толка	-11.4421
▁соединя	-11.4423
▁студентами	-11.4424
▁инфицирован	-11.4425
▁законам	-11.4428
▁нап	-11.4432
▁Согласн	-11.4433
▁кровеносны	-11.4436
▁техника	-11.4439
▁нервно	-11.4441
▁пусто	-11.4441
пасть	-11.4441
ation	-11.4446
изирован	-11.4447
▁запустил	-11.4448
▁президентом	-11.4449
▁ехать	-11.4455
▁разочарован	-11.4455
▁мин	-11.4455
▁справедливость	-11.4456
▁доступными	-11.4457
▁характерны	-11.4457
▁нынешне	-11.4459
▁четыр	-11.446
▁сильн	-11.4462
▁мисси	-11.4464
▁общени	-11.4467
▁передо	-11.4468
▁распространять	-11.4469
▁воск	-11.4469
▁смело	-11.4475
▁Цел	-11.4478
▁величайши	-11.4481
▁чудеса	-11.4482
пиш	-11.4482
глуб	-11.4482
▁уменьши	-11.4485
▁Шер	-11.4492
▁черно	-11.4496
▁расходов	-11.45
▁исчезаю	-11.4501
▁практику	-11.4503
рочно	-11.4507
▁Главно	-11.4507
▁давлением	-11.4508
▁анатоми	-11.4513
▁показывали	-11.4514
▁башн	-11.4514
▁подходяще	-11.4514
▁Германи	-11.4515
▁необходимым	-11.4517
▁Зеланди	-11.4519
▁Уильям	-11.4519
▁детектор	-11.4519
▁защищен	-11.4519
▁интерпретаци	-11.4519
▁лошадь	-11.4519
▁режиссёр	-11.4519
▁свадьб	-11.4519
▁хозяин	-11.4519
▁Правильно	-11.4519
▁пугает	-11.4519
▁тренировк	-11.4519
▁колония	-11.4519
▁полагаем	-11.4519
▁отрасли	-11.4519
▁Алекс	-11.4519
▁подчиня	-11.4519
▁запрещен	-11.4519
▁элементарны	-11.4519
▁горяче	-11.452
▁ухажива	-11.452
▁исключения	-11.452
▁Стал	-11.452
▁тупик	-11.4521
▁Род	-11.4522
▁специфическ	-11.4524
▁нано	-11.4524
▁китайц	-11.4525
▁содержал	-11.4526
▁основанно	-11.4527
▁владел	-11.4527
▁ничем	-11.4528
▁Израиль	-11.4529
▁математическо	-11.453
▁пусты	-11.4531
▁разрыва	-11.4532
▁послал	-11.4533
стрит	-11.4533
▁резин	-11.4534
▁Гар	-11.4536
мышленн	-11.4536
▁гей	-11.4536
▁наруша	-11.4537
▁избавля	-11.4537
▁июл	-11.4539
▁соблазн	-11.4539
▁поверь	-11.4544
▁реш	-11.4545
своем	-11.4547
▁индийск	-11.4548
мешает	-11.4548
▁исследуем	-11.4549
▁кадров	-11.4549
тащить	-11.455
▁политическим	-11.455
▁уязвимы	-11.4552
▁союзник	-11.4553
сажива	-11.4553
емян	-11.4554
жённ	-11.4557
▁привлечени	-11.456
▁вакцина	-11.4561
▁встроен	-11.4564
▁огня	-11.4564
▁сталкиваютс	-11.4567
▁захват	-11.457
▁заболе	-11.4572
▁отказ	-11.4573
▁друж	-11.458
▁ду	-11.4582
▁призыва	-11.4582
хотят	-11.4593
▁дружб	-11.4594
▁кислот	-11.4597
▁разработ	-11.4597
▁жертву	-11.46
ице	-11.4602
▁гражданам	-11.4603
▁расстройство	-11.4607
▁повышает	-11.4608
следовало	-11.461
▁задействован	-11.4613
▁внук	-11.4615
копать	-11.4617
▁испытыва	-11.4618
▁семейно	-11.4619
▁могил	-11.4624
▁денежны	-11.4625
▁убит	-11.4629
▁пальца	-11.4633
▁значительн	-11.4633
▁измерять	-11.4635
▁вмешательства	-11.464
▁ненавист	-11.4642
выков	-11.4642
▁одержим	-11.4645
▁обменива	-11.4647
▁выступлений	-11.4647
▁12-	-11.4652
▁древн	-11.4655
▁сбора	-11.4658
▁снят	-11.4663
▁внутренн	-11.4664
▁проявля	-11.4666
▁поступки	-11.4667
пытался	-11.4668
▁цитата	-11.4669
▁Лес	-11.467
▁подруг	-11.4671
▁городом	-11.4672
▁начались	-11.4673
▁анимаци	-11.4677
▁лидера	-11.4678
▁уменьшени	-11.468
▁Искусств	-11.4682
▁фраза	-11.4684
▁младен	-11.4687
ay	-11.469
▁выступаю	-11.469
▁Прошло	-11.4691
дна	-11.4693
▁бейсбол	-11.4695
▁диплом	-11.4695
▁сахара	-11.4696
▁дешев	-11.47
▁Индонези	-11.4701
▁Процесс	-11.4701
▁Юпитер	-11.4701
▁ориентаци	-11.4701
▁преобразовать	-11.4701
▁примитивны	-11.4701
▁синтетическ	-11.4701
▁сознательно	-11.4701
▁сюрприз	-11.4701
▁энтропи	-11.4701
▁впечатления	-11.4701
▁индивидуум	-11.4701
▁клиническо	-11.4701
▁локально	-11.4701
▁решётк	-11.4701
▁загружа	-11.4701
▁ученые	-11.4701
▁писателе	-11.4701
▁сумел	-11.4702
▁осторожны	-11.4702
▁углом	-11.4703
▁Программ	-11.4703
▁беспилотник	-11.4703
▁манер	-11.4704
▁всемирно	-11.4704
▁тихо	-11.4704
▁совершают	-11.4705
▁подробности	-11.4706
можешь	-11.4707
▁наглядно	-11.4708
▁предполага	-11.4708
временно	-11.4709
▁способствую	-11.471
▁испытывал	-11.4711
▁больны	-11.4712
▁сайта	-11.4715
▁методом	-11.4717
▁молекулярно	-11.4717
▁достигнуть	-11.4717
▁гнезд	-11.4719
резать	-11.472
▁бетон	-11.4722
▁испытывают	-11.4724
▁Рик	-11.4725
▁воспринима	-11.4725
▁мет	-11.4728
▁познакомил	-11.473
▁взлет	-11.4735
▁современным	-11.4739
▁плит	-11.4742
▁службу	-11.4742
▁молоко	-11.4747
ne	-11.4747
▁свеже	-11.4751
▁негативно	-11.4751
▁ощущает	-11.4751
▁ветв	-11.4751
▁приносят	-11.4754
▁выступлени	-11.4759
▁ад	-11.4761
ce	-11.4772
▁Зал	-11.4773
▁умрёт	-11.4774
▁переходит	-11.4777
▁пря	-11.4777
▁Солнечн	-11.4781
▁зарази	-11.4782
▁бара	-11.4783
▁поменял	-11.4789
▁увеличит	-11.4791
▁черепах	-11.4793
▁верхни	-11.4796
▁палат	-11.4797
▁облак	-11.4797
▁устанавлива	-11.48
ленд	-11.48
▁похожим	-11.4802
▁спине	-11.4802
ig	-11.4804
▁ОК	-11.4804
▁цивилизация	-11.4805
▁материально	-11.4805
▁страдающи	-11.4805
▁собственность	-11.4808
os	-11.481
▁наркотикам	-11.481
80	-11.4812
▁успел	-11.4816
▁удивление	-11.4817
▁3-	-11.4817
позна	-11.482
▁властью	-11.4821
ездить	-11.4828
▁поражает	-11.4829
▁открытость	-11.4829
прыгнул	-11.483
▁вина	-11.4832
▁последнем	-11.4835
▁Велики	-11.4836
▁спроектировал	-11.4837
▁Игра	-11.484
▁влиятельны	-11.484
▁оплат	-11.4841
▁национальн	-11.4844
▁типично	-11.4844
▁гуманитарны	-11.4845
▁произнес	-11.4845
▁кампания	-11.4846
▁знакомств	-11.4847
джер	-11.4849
учения	-11.4849
порт	-11.4849
кладываем	-11.485
▁пингвин	-11.4852
▁кружк	-11.4852
шер	-11.4854
▁экстр	-11.4854
▁создаю	-11.4854
▁Джер	-11.4858
▁лап	-11.4862
згляните	-11.4864
▁кончик	-11.4865
16	-11.4868
ent	-11.4868
▁почте	-11.4872
▁терроризма	-11.4873
▁стандартны	-11.4874
▁изгиб	-11.4874
▁формировать	-11.4879
цепи	-11.488
▁посетител	-11.4881
▁оригинал	-11.4883
▁агресси	-11.4884
▁мульти	-11.4886
▁Невероятно	-11.4886
▁Паркинсон	-11.4886
▁ассоциаци	-11.4886
▁вертолёт	-11.4886
▁поздне	-11.4886
▁размножени	-11.4886
▁священник	-11.4886
▁сформировать	-11.4886
▁фестивал	-11.4886
▁послушать	-11.4886
▁симуляци	-11.4886
▁поиграть	-11.4886
▁пирог	-11.4886
▁немнож	-11.4886
▁Пекин	-11.4886
хотеть	-11.4886
▁вибраци	-11.4886
▁далёко	-11.4886
▁проделыва	-11.4886
▁возьме	-11.4886
▁состоящ	-11.4887
▁Сомали	-11.4887
▁географи	-11.4887
▁ноябр	-11.4887
▁загрязнения	-11.4887
▁ложны	-11.4887
▁богаче	-11.4887
▁наполни	-11.4887
▁Грин	-11.4888
▁атомно	-11.4888
▁поверил	-11.4888
▁привлекательно	-11.4888
▁План	-11.4889
▁антрополог	-11.4889
▁натур	-11.489
▁загрязнение	-11.4891
нил	-11.4891
▁боевик	-11.4892
▁очевидным	-11.4892
американск	-11.4892
▁2002	-11.4892
▁Буд	-11.4893
▁рациональны	-11.4895
английски	-11.4896
▁Co	-11.4897
▁поместил	-11.4897
▁благосостояни	-11.4898
▁признание	-11.4898
▁Джонсон	-11.4901
▁спальн	-11.4901
▁нейро	-11.4903
▁пробовал	-11.4903
▁платил	-11.4903
▁еврейск	-11.4904
▁пробел	-11.4904
▁действии	-11.4905
▁масло	-11.4905
▁любопытство	-11.4907
▁Филипп	-11.491
▁ширин	-11.4913
▁услышан	-11.4915
▁обеда	-11.4915
Каид	-11.4918
▁ценно	-11.492
▁игров	-11.4923
▁применяем	-11.4926
замен	-11.4929
▁принадлежат	-11.4931
нял	-11.4931
▁конференция	-11.4937
▁выделен	-11.4939
▁оценка	-11.4939
▁выделя	-11.494
▁Музе	-11.4944
▁шут	-11.4947
▁близ	-11.4948
▁став	-11.4949
▁царств	-11.495
▁предполагаем	-11.4951
летня	-11.4954
▁преступлени	-11.4954
▁разруша	-11.496
▁задни	-11.4965
▁дельфин	-11.4965
стаёт	-11.4967
▁упражнения	-11.4968
▁мини	-11.4969
▁мертв	-11.4971
▁АК	-11.4975
▁популярны	-11.4975
вне	-11.4977
▁Следующе	-11.4977
▁фирмы	-11.4979
▁Мол	-11.4982
▁задани	-11.4983
▁комбинаци	-11.4984
▁величайших	-11.4985
▁конференци	-11.4987
▁19-	-11.4988
▁сохранять	-11.4989
▁отслеживать	-11.499
▁слои	-11.499
ip	-11.4992
▁запуск	-11.4992
▁ровно	-11.4993
▁Джонс	-11.4993
▁груд	-11.4996
▁присутствие	-11.4996
▁французск	-11.4998
▁преступност	-11.5
▁Долж	-11.5003
▁сотовы	-11.5006
▁рождает	-11.5007
▁тенденци	-11.5007
▁городк	-11.5008
▁знаниями	-11.5008
▁крас	-11.5008
рабатывают	-11.5009
▁стресса	-11.501
▁Бор	-11.5013
▁to	-11.5017
▁директора	-11.502
▁отказал	-11.5022
▁выживание	-11.5022
терн	-11.5024
зировать	-11.5032
▁Дарвина	-11.5032
▁вычисли	-11.5034
▁запутанн	-11.5036
▁говорящи	-11.5036
ложение	-11.5039
▁блестящи	-11.5041
▁учителям	-11.5044
▁абстрактны	-11.5044
▁заключени	-11.5048
▁вычислительн	-11.505
▁провед	-11.5051
▁изучает	-11.5052
Е	-11.5053
телями	-11.5055
▁Мон	-11.5057
▁двадцат	-11.5057
lo	-11.5057
ером	-11.5059
▁проведё	-11.506
ступать	-11.5061
▁улучша	-11.5062
бот	-11.5068
▁исчезли	-11.5068
▁исчезнут	-11.5068
▁соединяет	-11.5068
▁давай	-11.507
▁гарант	-11.5074
▁слепот	-11.5074
▁Эндрю	-11.5075
▁Антарктик	-11.5075
▁Государств	-11.5075
▁Понятно	-11.5075
▁вырубк	-11.5075
▁необязательно	-11.5075
▁сопротивление	-11.5075
▁впоследстви	-11.5075
▁контент	-11.5075
▁кишечник	-11.5075
▁устаревш	-11.5075
▁воспроизвести	-11.5075
▁Бруклин	-11.5075
▁печени	-11.5075
▁обитател	-11.5075
▁аудитория	-11.5076
▁переполнен	-11.5076
▁Pro	-11.5076
▁загадочн	-11.5077
▁разрушения	-11.5077
▁демократическо	-11.5077
▁II	-11.5078
▁2020	-11.5078
▁моно	-11.5078
▁движут	-11.5079
▁двигает	-11.5079
дневн	-11.5081
▁привет	-11.5083
ключить	-11.5085
учим	-11.5085
▁спектра	-11.5085
▁собираете	-11.5089
няет	-11.509
ющему	-11.509
▁хвата	-11.5091
▁выбираем	-11.5093
▁маме	-11.5096
даются	-11.5101
▁исчезновения	-11.5103
▁Джек	-11.5104
▁игнорировать	-11.5105
анцы	-11.5106
▁некотор	-11.5107
▁аспекта	-11.511
▁рассматриваем	-11.5111
▁общественн	-11.5113
▁варианта	-11.5115
▁уравнения	-11.5115
▁восстанови	-11.5115
▁Мура	-11.5116
стон	-11.5117
▁камерой	-11.5117
▁кита	-11.5118
▁океаны	-11.5123
▁удержать	-11.5124
▁юридически	-11.5127
92	-11.5127
▁телефонны	-11.5128
▁связывает	-11.5129
щиеся	-11.5131
▁провода	-11.5131
▁распространяют	-11.5135
▁образовательны	-11.5135
▁Предположи	-11.5136
▁сектора	-11.5137
следствие	-11.5143
▁Город	-11.5143
▁Пожалуй	-11.5145
▁пить	-11.5147
▁принимали	-11.5149
▁металлическ	-11.515
▁упаков	-11.5151
▁записан	-11.5151
▁печально	-11.5152
▁гражданин	-11.5152
▁порази	-11.5153
▁повторять	-11.5154
▁намеренно	-11.5155
▁сантиметров	-11.5157
▁троп	-11.5157
▁мечту	-11.5158
▁воп	-11.5163
▁наследи	-11.5164
▁слонов	-11.5165
▁парков	-11.5167
▁создади	-11.5168
бирают	-11.5168
▁Кому	-11.5171
▁эксперты	-11.5176
сик	-11.5176
▁страшны	-11.5179
▁ощущени	-11.518
живать	-11.518
▁профессора	-11.5181
нувши	-11.5181
▁добира	-11.5183
▁Форд	-11.5183
▁учитывать	-11.5185
▁брата	-11.5187
▁возьми	-11.5189
▁методик	-11.52
▁отмечен	-11.5203
▁пола	-11.5207
ia	-11.5207
▁ожирение	-11.5209
▁пребывани	-11.5216
▁муч	-11.5216
▁здоровым	-11.5216
орд	-11.5217
▁работало	-11.5218
▁беспокоил	-11.5219
▁194	-11.522
▁собирают	-11.5222
▁волшебны	-11.5222
▁нарисовал	-11.5222
▁зрительно	-11.5223
▁проявляет	-11.5224
▁спроектирова	-11.5224
текает	-11.5226
▁тысячелетия	-11.5226
▁навыкам	-11.5229
▁духовны	-11.5229
▁защищает	-11.5234
▁закрыты	-11.5235
▁узнава	-11.5239
▁серы	-11.5241
▁излуча	-11.5243
▁завтрак	-11.5244
▁мощность	-11.5245
▁наверно	-11.5246
▁зелён	-11.5246
▁отделение	-11.5249
▁Иде	-11.5252
▁шутка	-11.5256
▁ели	-11.5258
▁объединен	-11.526
▁Элл	-11.526
▁серьезн	-11.5261
▁содержащ	-11.5263
▁мыслям	-11.5265
▁белым	-11.5266
▁Сингапур	-11.5267
▁Танзани	-11.5267
▁верблюд	-11.5267
▁головоломк	-11.5267
▁лихорадк	-11.5267
▁логотип	-11.5267
▁прекраща	-11.5267
▁разворачива	-11.5267
▁чиновник	-11.5267
▁Вьетнам	-11.5267
▁консультант	-11.5267
▁таракан	-11.5267
▁Ребён	-11.5267
▁восхищен	-11.5267
▁кардинальн	-11.5267
▁толщин	-11.5267
▁местоположени	-11.5267
▁паралич	-11.5267
itter	-11.5267
▁ошибочно	-11.5267
▁дождя	-11.5267
▁МРТ	-11.5267
▁неловко	-11.5268
▁переключ	-11.5268
▁нулево	-11.5269
▁вовремя	-11.5269
▁крепко	-11.5269
▁материалом	-11.5269
▁нигде	-11.5269
▁живопис	-11.5269
▁роботизированн	-11.527
▁Мозг	-11.527
▁лифт	-11.5271
▁2030	-11.5271
▁чья	-11.5273
▁питьев	-11.5273
▁полагал	-11.5274
▁перерыв	-11.5275
▁удивлен	-11.5276
▁колес	-11.5278
▁проведен	-11.5279
▁Тысяч	-11.5279
дающие	-11.5282
▁природно	-11.5282
▁руководителе	-11.5283
▁партнёра	-11.5288
▁рисовани	-11.5295
▁порядк	-11.5296
▁голосова	-11.5296
▁Сол	-11.5297
▁коротк	-11.53
▁переходи	-11.53
▁возвращают	-11.5302
▁местном	-11.5304
000	-11.5305
▁стадия	-11.5308
▁последним	-11.5308
▁кресла	-11.5309
▁рассматривал	-11.5309
▁оглядыва	-11.531
▁указан	-11.5313
жимает	-11.5315
▁владе	-11.5318
▁текстов	-11.5319
▁заставит	-11.5321
▁окончательно	-11.5322
▁записывать	-11.5322
▁христиан	-11.5323
▁стру	-11.5324
▁четверть	-11.5325
▁МТ	-11.5325
ставлю	-11.5325
▁помещения	-11.5325
▁правильным	-11.5326
▁Бур	-11.5328
▁случил	-11.5328
▁снято	-11.5329
▁угрожа	-11.5329
вшими	-11.533
▁поддержива	-11.533
▁чрезмерно	-11.5332
▁вычислительны	-11.5334
▁экс	-11.5335
▁власт	-11.5338
▁мечет	-11.5338
▁Единственны	-11.5339
▁31	-11.534
▁Кре	-11.5342
▁дно	-11.5345
виз	-11.5348
▁внешн	-11.5348
▁закончен	-11.5348
▁металла	-11.5351
ставлять	-11.5351
▁подарил	-11.5351
▁этапа	-11.5353
▁танцева	-11.5353
▁беседу	-11.5357
▁непрост	-11.5358
▁удобны	-11.5359
▁муравья	-11.536
▁продуктами	-11.536
▁массовой	-11.5361
держал	-11.5365
▁историческо	-11.537
▁дедушк	-11.5372
▁Разниц	-11.5372
даётся	-11.5376
▁Треть	-11.5376
▁угла	-11.5377
▁5-	-11.5377
щиков	-11.5378
▁предоставлять	-11.5379
▁сигналов	-11.5379
▁учила	-11.5381
▁фондов	-11.5382
рести	-11.5386
▁публичны	-11.5389
ключения	-11.539
▁Технологи	-11.5394
▁платформу	-11.5399
разнообразия	-11.5401
▁глуп	-11.5401
▁статистике	-11.5403
▁судья	-11.5406
▁вон	-11.5407
▁классически	-11.5407
▁милы	-11.5411
▁приняла	-11.5412
▁концентраци	-11.5413
▁дамы	-11.5414
▁предлагают	-11.5421
▁бал	-11.5421
▁груб	-11.5422
▁развлека	-11.5422
вре	-11.5425
▁Сме	-11.5426
▁препарат	-11.5427
▁полюса	-11.5432
▁успешн	-11.5433
▁последовал	-11.5437
▁193	-11.544
▁образовательн	-11.5441
▁стату	-11.5442
▁заботит	-11.5443
▁наибольше	-11.5446
крытия	-11.5449
▁евре	-11.5449
▁коммерческо	-11.545
▁проводя	-11.5453
сутствует	-11.5454
▁бен	-11.5458
▁закончит	-11.5458
▁пища	-11.5458
▁насос	-11.5459
▁коралловы	-11.5459
▁серия	-11.5459
анда	-11.546
льное	-11.546
▁реабилитаци	-11.5461
▁психиатр	-11.5461
▁состояни	-11.5462
▁аспирант	-11.5462
▁Силиконов	-11.5463
▁Групп	-11.5463
▁возьмёт	-11.5463
▁галлюцинаци	-11.5463
▁идентичны	-11.5463
▁многообрази	-11.5463
▁озабочен	-11.5463
▁транзистор	-11.5463
▁химиотерапи	-11.5463
▁Аристотел	-11.5463
▁симфони	-11.5463
▁композици	-11.5463
▁глагол	-11.5463
▁плёнк	-11.5463
▁очарован	-11.5463
▁бирж	-11.5463
▁распределя	-11.5463
▁Девочк	-11.5463
▁Подобны	-11.5463
▁диаре	-11.5463
▁Цвет	-11.5464
▁ускорени	-11.5464
▁Мандел	-11.5464
▁проникает	-11.5464
▁выучил	-11.5464
▁увидев	-11.5465
▁МВ	-11.5468
▁круглы	-11.5468
▁изменим	-11.5468
▁рождаются	-11.5469
▁брон	-11.5469
▁привод	-11.5471
▁футболк	-11.5474
▁голубы	-11.5476
▁фотографировал	-11.5476
▁продолжали	-11.5478
▁фонар	-11.5478
▁героин	-11.5479
▁доли	-11.5479
▁Пришло	-11.548
▁тень	-11.5481
▁разделен	-11.5481
▁недостатка	-11.5482
ставляем	-11.5483
▁пытаетесь	-11.5485
▁сломан	-11.5488
▁вечера	-11.5488
нис	-11.5489
▁выступил	-11.549
▁случалось	-11.549
▁замечаем	-11.5491
▁литров	-11.5492
▁Лондона	-11.5499
▁половине	-11.55
▁прилага	-11.55
▁Ясно	-11.5502
▁потребляем	-11.5502
▁террористов	-11.5503
близости	-11.5504
▁перелом	-11.5505
▁край	-11.5508
▁жалова	-11.5508
▁подключен	-11.5509
▁шагов	-11.551
▁изоляци	-11.5512
▁испытывает	-11.5512
▁прямом	-11.5514
▁обеспеч	-11.5518
▁окружающим	-11.5521
▁рассказы	-11.5523
▁бактерия	-11.5527
▁дыра	-11.5531
▁партнёров	-11.5533
▁влияни	-11.5536
▁испытывать	-11.5536
▁достоинство	-11.5536
▁ученики	-11.5538
▁свист	-11.5538
▁молодёжь	-11.5539
▁младше	-11.5541
▁предпринимател	-11.5546
ологии	-11.5547
▁Маленьки	-11.5548
▁цепь	-11.5551
чаты	-11.5552
▁опусти	-11.5553
▁рай	-11.5554
▁урожа	-11.5555
▁Израиле	-11.5555
▁институтов	-11.5562
▁определя	-11.5566
▁рок	-11.5567
▁невозможным	-11.5567
▁лоб	-11.5567
▁попыт	-11.5568
▁Дума	-11.5568
▁Правил	-11.5569
▁границу	-11.557
▁турист	-11.5571
▁когнитивны	-11.5572
▁человеческом	-11.5574
▁состояла	-11.5574
рган	-11.5576
▁изучают	-11.5576
▁душа	-11.558
▁преследу	-11.558
▁развил	-11.5581
▁предоставля	-11.5582
▁нарко	-11.5583
▁разницы	-11.5584
▁потерян	-11.5584
▁предпринима	-11.5586
▁возобновляем	-11.5587
▁Ого	-11.5588
▁помещение	-11.5588
▁эмоциональн	-11.5589
▁естественн	-11.5592
▁база	-11.5593
▁продолжение	-11.5594
▁лестниц	-11.5595
▁бум	-11.5597
▁Гал	-11.5601
▁соревновани	-11.5604
▁песк	-11.5604
▁свято	-11.5607
▁стола	-11.5614
▁фермерам	-11.5618
▁дешёво	-11.5619
▁серьёзн	-11.562
▁наблюдают	-11.5623
плыть	-11.5624
▁трога	-11.5626
▁отпуска	-11.5628
▁анализиру	-11.5628
▁смешн	-11.5629
▁интерактивны	-11.5633
▁меньши	-11.5633
▁продаже	-11.5634
пта	-11.5636
▁теста	-11.5637
▁женск	-11.5637
убийц	-11.5638
▁трагедия	-11.5639
▁Ази	-11.5639
дует	-11.5646
излучени	-11.5647
▁тысячам	-11.5647
▁меш	-11.5647
учится	-11.5648
▁слуша	-11.565
пива	-11.5656
▁разрушает	-11.5657
▁союз	-11.5658
▁морали	-11.5659
▁прекрати	-11.566
▁засел	-11.566
▁нейробиолог	-11.5661
▁ориентир	-11.5662
▁Клинтон	-11.5663
▁Компании	-11.5663
▁Человеческ	-11.5663
▁консерватор	-11.5663
▁обдумыва	-11.5663
▁позаботи	-11.5663
▁посчастливи	-11.5663
▁регулировани	-11.5663
▁цилиндр	-11.5663
▁бонобо	-11.5663
▁конфет	-11.5663
▁неандертальц	-11.5663
▁пандеми	-11.5663
▁пьес	-11.5663
▁Аудитори	-11.5663
▁джунгл	-11.5663
▁Габб	-11.5663
▁миграци	-11.5663
▁оруди	-11.5663
▁умственны	-11.5663
▁пьян	-11.5663
,4	-11.5663
▁корзин	-11.5663
▁передачу	-11.5663
▁оболочк	-11.5663
▁проникнуть	-11.5664
▁банан	-11.5664
▁сокращения	-11.5665
▁незначительны	-11.5665
▁Мистер	-11.5665
▁Гарри	-11.5665
▁целым	-11.5665
▁общим	-11.5666
▁ошеломляющ	-11.5667
чёл	-11.5667
▁владени	-11.5668
▁англ	-11.5668
▁танцор	-11.5668
▁звонок	-11.5668
74	-11.5668
▁слепых	-11.567
▁тигр	-11.5671
▁тракт	-11.5672
▁суши	-11.5675
▁гравитаци	-11.5676
▁закрыть	-11.5677
▁повышение	-11.5677
править	-11.5681
▁стойк	-11.5682
▁изучен	-11.5682
▁тяжелы	-11.5682
▁Эль	-11.5684
▁пр	-11.5687
▁старым	-11.5688
▁кибер	-11.5689
▁убеди	-11.569
енность	-11.5693
▁воли	-11.5693
▁желающи	-11.5695
▁выбирает	-11.5697
▁подумает	-11.5699
▁пингвинов	-11.5701
▁калорий	-11.5702
▁трудов	-11.5703
▁отцов	-11.5703
▁сохраня	-11.5705
Бар	-11.5707
▁ориентирован	-11.5709
▁химик	-11.571
▁коз	-11.5712
▁Ген	-11.5715
▁пика	-11.5718
▁выбирают	-11.572
▁прозрачность	-11.5723
▁проверять	-11.5727
▁коренны	-11.5727
▁левом	-11.5729
▁беру	-11.5733
▁встречается	-11.5734
техническ	-11.5736
▁Часть	-11.5738
org	-11.574
▁тюрьма	-11.574
▁продал	-11.5742
верси	-11.5744
▁государственн	-11.5744
▁предпочтения	-11.5745
▁генетическ	-11.5745
▁Рэй	-11.5746
▁грудь	-11.5748
▁означа	-11.5748
▁Куб	-11.5749
▁призываю	-11.575
▁неба	-11.5756
▁южн	-11.5758
ставили	-11.5761
льный	-11.5762
▁лег	-11.5765
анный	-11.5766
ймите	-11.5766
▁разработка	-11.5767
▁сфокусировать	-11.5769
▁рассмотрени	-11.577
▁круж	-11.5774
▁Стан	-11.5774
▁пыль	-11.5774
▁первичн	-11.5774
▁сочетани	-11.5776
контролируем	-11.5776
▁адаптировать	-11.5777
▁известным	-11.5782
▁стих	-11.5784
▁проща	-11.5785
▁фигуры	-11.5789
▁препарата	-11.5791
▁определили	-11.5799
▁Перу	-11.5799
▁достал	-11.5802
▁пошло	-11.5804
all	-11.5808
▁электрическо	-11.581
▁освещение	-11.5811
▁уличны	-11.5812
▁ключев	-11.5815
▁ограниченны	-11.582
▁увлека	-11.582
▁служил	-11.5822
▁верхнем	-11.5822
▁взглядом	-11.5825
▁обширн	-11.5825
▁общественност	-11.5826
▁900	-11.5826
форд	-11.5826
▁арабски	-11.5828
▁судьбы	-11.5829
▁временны	-11.5836
поминают	-11.5836
▁научил	-11.5837
70	-11.584
▁яблоко	-11.5842
▁волшебно	-11.5844
▁предпринимателя	-11.5848
▁врачу	-11.585
▁измеря	-11.585
▁Ближн	-11.5851
▁предка	-11.5853
▁бросает	-11.5855
▁медленн	-11.5856
▁динозавры	-11.5856
▁продолжала	-11.5857
▁переживал	-11.5858
▁заболеваниям	-11.5858
▁услышала	-11.5858
вилл	-11.5859
▁сильна	-11.5864
▁потребля	-11.5867
▁генерал	-11.5867
▁медикамент	-11.5867
▁1999	-11.5867
▁Аргентин	-11.5867
▁Лучши	-11.5867
▁Сиэтл	-11.5867
▁вмешива	-11.5867
▁возврат	-11.5867
▁выпущен	-11.5867
▁джихад	-11.5867
▁прислал	-11.5867
▁антенн	-11.5867
▁пицц	-11.5867
▁волокна	-11.5867
▁изобрё	-11.5867
▁подъем	-11.5867
▁Артур	-11.5867
▁ненулево	-11.5867
▁сканер	-11.5867
▁мамонт	-11.5868
▁Книг	-11.5869
▁Количеств	-11.5869
▁штан	-11.5869
▁недооценива	-11.587
▁сервер	-11.587
▁включают	-11.5871
▁постара	-11.5872
▁заслуживает	-11.5873
▁протеста	-11.5873
▁богатым	-11.5876
▁350	-11.5877
▁выбран	-11.588
▁совершал	-11.588
▁эру	-11.5881
▁разгляде	-11.5883
▁замкнут	-11.5884
▁дождев	-11.5885
▁тел	-11.5885
▁основатель	-11.5886
▁племен	-11.5886
▁пустот	-11.5892
▁накопи	-11.5894
▁Турци	-11.5896
▁пользователя	-11.5897
▁вожд	-11.5901
▁помести	-11.5901
▁доказывает	-11.5902
▁Простит	-11.5903
▁британски	-11.5904
▁шип	-11.5907
▁международн	-11.5908
▁далеки	-11.591
▁туман	-11.5912
▁морск	-11.5912
▁Природа	-11.5914
▁жарко	-11.5915
▁двигают	-11.5916
ho	-11.5916
▁умно	-11.5918
менем	-11.592
▁справляются	-11.5921
▁оптическ	-11.5923
▁счета	-11.5923
▁телевизора	-11.5925
▁студентом	-11.5925
тас	-11.5926
▁искусством	-11.5927
▁уничтожен	-11.5928
▁перемещения	-11.593
▁очища	-11.5933
▁Сво	-11.5934
▁банд	-11.5934
▁ступн	-11.5938
▁художником	-11.594
резал	-11.5942
▁руч	-11.5944
▁привычно	-11.5945
▁продолжит	-11.5947
▁классны	-11.5951
▁нация	-11.5952
▁победил	-11.5957
▁французски	-11.596
▁маму	-11.596
онов	-11.5962
▁достоинства	-11.5963
▁берегов	-11.5964
car	-11.5964
▁правительственн	-11.5965
▁телевидени	-11.5967
▁местность	-11.597
карт	-11.5974
▁словар	-11.5975
▁Кур	-11.5975
▁главе	-11.5976
ak	-11.598
▁приют	-11.5982
▁неприятны	-11.5982
▁упражнени	-11.5984
▁просит	-11.5984
▁мероприяти	-11.5989
▁границе	-11.599
▁распространить	-11.5991
качать	-11.5994
▁37	-11.5994
▁представляли	-11.5995
▁тонко	-11.5996
▁объединяют	-11.5996
▁голодны	-11.5997
▁телевидение	-11.5997
лежащ	-11.5999
▁препятствие	-11.6
▁зме	-11.6004
▁будущим	-11.6004
нув	-11.6005
▁стоим	-11.6006
▁классно	-11.6007
▁разрешени	-11.6013
▁расстройств	-11.6014
▁населени	-11.6016
▁широком	-11.6018
▁приняти	-11.6019
▁сенсорны	-11.6019
▁скромно	-11.6021
ладельц	-11.6022
▁суде	-11.6023
▁наверх	-11.6025
▁следу	-11.6027
▁отражают	-11.6029
▁столкнул	-11.6031
▁рассужда	-11.6032
▁Смотр	-11.6035
▁исчезл	-11.6039
▁атмосфера	-11.604
▁древ	-11.6041
йших	-11.6042
чник	-11.6045
▁инвестиру	-11.6049
▁черепа	-11.6049
часов	-11.6049
учесть	-11.605
▁детство	-11.605
▁плохим	-11.605
▁брака	-11.6051
▁провож	-11.6052
▁Канады	-11.6052
▁выпускник	-11.6055
▁Титан	-11.6056
гнать	-11.6056
▁выделил	-11.6058
▁Кра	-11.606
▁кирпич	-11.6063
▁рацион	-11.6065
▁материя	-11.6065
▁Вспомнит	-11.6067
▁спасение	-11.6068
очку	-11.6068
люс	-11.6069
▁знаменит	-11.607
▁дисциплин	-11.607
▁удивля	-11.6072
25	-11.6072
▁подруга	-11.6072
▁персонажа	-11.6073
▁удоб	-11.6074
,3	-11.6074
▁воздействи	-11.6074
▁Больши	-11.6075
▁1998	-11.6076
▁2013	-11.6076
▁Сноуден	-11.6076
▁Студент	-11.6076
▁игнориру	-11.6076
▁интегрирован	-11.6076
▁лошади	-11.6076
▁опустош	-11.6076
▁отверстие	-11.6076
▁пешком	-11.6076
▁посредник	-11.6076
▁тротуар	-11.6076
▁2014	-11.6076
▁археолог	-11.6076
▁потрачен	-11.6076
▁разрушил	-11.6076
▁мебель	-11.6076
▁обоснован	-11.6076
▁хранят	-11.6076
▁шлем	-11.6076
▁пересадк	-11.6076
▁полноценно	-11.6076
▁атлет	-11.6076
▁субсиди	-11.6076
▁растет	-11.6076
▁ладон	-11.6077
▁сражени	-11.6078
▁постели	-11.6079
▁освободить	-11.6079
▁конструкция	-11.608
▁завершить	-11.6081
▁углекислы	-11.6081
▁воин	-11.6082
▁томографи	-11.6082
▁противоположны	-11.6082
▁равенство	-11.6083
▁добавляет	-11.6083
BC	-11.6083
▁систематически	-11.6084
▁пользовани	-11.6085
▁отражен	-11.6085
▁увлечен	-11.6087
▁движущи	-11.6087
▁мышечн	-11.6087
▁заболел	-11.6088
▁производитель	-11.6089
▁Жив	-11.6089
▁разделение	-11.609
▁захотелось	-11.6091
▁обслужива	-11.6092
▁осуществлять	-11.6093
▁индустрия	-11.6094
▁нелепо	-11.6099
▁арабском	-11.6101
▁фантастическ	-11.6101
ыглядит	-11.6103
▁ядра	-11.6103
▁крошечн	-11.6107
вич	-11.611
▁содержать	-11.6111
▁слоё	-11.6114
▁Кенне	-11.6115
▁жёстки	-11.6116
▁набрал	-11.6116
▁достигают	-11.6119
двинуть	-11.6119
▁Акт	-11.6121
▁грубо	-11.6121
▁учите	-11.6122
прочем	-11.6124
▁стиральн	-11.6125
▁осуществлени	-11.6126
▁исп	-11.6126
▁тяжёл	-11.6127
▁Шта	-11.6133
Sh	-11.6137
▁увелич	-11.6137
оид	-11.6139
▁курени	-11.614
▁свидетеле	-11.6141
▁ранен	-11.6141
▁абстрактно	-11.6144
▁Дели	-11.6144
▁уменьша	-11.6144
▁защитник	-11.6144
▁Технология	-11.6146
▁универсально	-11.6146
▁изобре	-11.615
▁собственност	-11.6151
▁вдохновени	-11.6159
▁обращает	-11.6165
▁гости	-11.6169
▁приобрел	-11.617
▁ценностям	-11.6171
ндер	-11.6173
▁независимост	-11.6174
долю	-11.6176
росло	-11.6176
▁водны	-11.6181
жечь	-11.6185
▁строя	-11.6187
▁управлял	-11.6188
▁отделени	-11.6188
▁гон	-11.6189
▁Вод	-11.619
▁очередно	-11.6191
▁текста	-11.6194
▁записал	-11.6195
нга	-11.6197
▁палатк	-11.6197
▁стабильно	-11.6198
▁синим	-11.6201
▁закрыт	-11.6206
▁ставят	-11.6209
▁превращают	-11.6212
▁требовани	-11.6214
ороче	-11.6216
▁поврежд	-11.6216
▁судь	-11.6216
▁прозрачн	-11.6216
▁покрыт	-11.6217
▁поезда	-11.6219
счёт	-11.6222
▁ракеты	-11.6224
▁трат	-11.6224
▁лжи	-11.6239
стическ	-11.6239
▁Супер	-11.624
▁представил	-11.6243
▁интерактивно	-11.6243
▁поймё	-11.6244
▁доз	-11.6248
▁48	-11.6253
безопас	-11.6253
▁сэр	-11.6254
▁открытк	-11.6256
▁художественно	-11.6257
▁гостин	-11.6257
опустим	-11.6259
▁низк	-11.626
▁взрослым	-11.6262
▁функционировани	-11.6264
▁качеств	-11.6265
▁Париж	-11.6267
▁акулы	-11.6267
▁окружен	-11.627
▁банкир	-11.6273
сан	-11.6275
▁афро	-11.6284
▁сопротивля	-11.6288
▁Ирланди	-11.6288
▁Управление	-11.6288
▁Филадельфи	-11.6288
▁вдохновляет	-11.6288
▁возбужден	-11.6288
▁расшифрова	-11.6288
▁сопротивления	-11.6288
▁стипенди	-11.6288
▁Эдвард	-11.6288
▁аромат	-11.6288
▁выражать	-11.6288
▁чужо	-11.6288
▁Зелён	-11.6289
▁публике	-11.6289
ect	-11.6289
▁содержимо	-11.6289
▁испуга	-11.6289
▁потолк	-11.6289
▁стремимся	-11.6289
▁Робот	-11.629
▁воспоминани	-11.6291
▁затрону	-11.6291
co	-11.6293
▁1900	-11.6293
▁Ничто	-11.6294
▁восстанавливать	-11.6294
▁сокращение	-11.6295
▁займёт	-11.6295
жаль	-11.6296
▁сложивш	-11.6298
▁кабель	-11.63
▁планетарн	-11.63
▁Ливи	-11.63
▁попала	-11.6303
▁оцен	-11.6305
▁Ньютон	-11.6305
▁подростка	-11.6309
▁печ	-11.6312
▁Каза	-11.6314
▁полез	-11.6316
▁сложен	-11.6316
▁финал	-11.6317
▁устойчивост	-11.6318
▁девочку	-11.6318
ракт	-11.6319
▁изобретен	-11.632
▁Данные	-11.632
▁геологическ	-11.6321
▁драм	-11.6322
▁нормальным	-11.6324
групп	-11.6327
▁значимость	-11.6329
ливает	-11.633
▁моста	-11.6333
▁отчаянно	-11.6335
▁обратите	-11.6337
▁размышления	-11.6338
▁документальны	-11.6338
▁перемещать	-11.6341
▁финансирова	-11.6343
▁Испании	-11.6344
▁неврологи	-11.6345
▁автомобиле	-11.6348
тивн	-11.6351
▁представитель	-11.6351
▁танца	-11.6352
▁исток	-11.6352
▁сделанно	-11.6358
▁развивающие	-11.6364
▁распознава	-11.6366
▁привычны	-11.6371
▁проанализирова	-11.6372
▁оригами	-11.6373
слыша	-11.6374
▁наличия	-11.6374
▁увеличивать	-11.6376
▁удачно	-11.638
вление	-11.638
▁поража	-11.6383
▁подключи	-11.6385
▁обращал	-11.6385
▁бак	-11.6386
▁отличать	-11.6393
▁вступил	-11.6394
▁плоск	-11.6394
▁Берлин	-11.6398
▁Послушай	-11.6398
▁усвоил	-11.6399
▁весит	-11.6399
ждём	-11.64
▁образованны	-11.6403
▁переживания	-11.6405
▁публик	-11.6409
видимом	-11.6411
▁поведенчески	-11.6414
▁счастливе	-11.6415
▁числ	-11.6416
▁сбережения	-11.6418
▁воспоминание	-11.6418
▁Ден	-11.6418
▁гордость	-11.6419
ie	-11.6422
▁любопытны	-11.6424
▁рекламны	-11.6426
Мер	-11.6428
▁товара	-11.643
▁девочкам	-11.643
▁правительстве	-11.6433
▁прошлым	-11.6435
▁жду	-11.6437
▁крыль	-11.6451
ацию	-11.6452
▁воле	-11.6454
▁быстрого	-11.6455
▁преобразовани	-11.6455
▁рожден	-11.6457
▁ставить	-11.6457
▁перехода	-11.6458
▁четвёрто	-11.6465
▁изнасилован	-11.6466
▁вредны	-11.6467
▁продолжае	-11.6469
▁препод	-11.6471
▁заглядыва	-11.6473
▁анализирова	-11.6473
несла	-11.6473
кинс	-11.6476
▁конечны	-11.6476
▁световы	-11.6477
▁размышлени	-11.6479
▁разновидност	-11.648
▁подач	-11.648
▁43	-11.6481
▁выгоды	-11.6482
▁соседни	-11.6483
▁позиция	-11.6486
бирает	-11.6487
▁оптимист	-11.6487
▁урока	-11.6488
▁авиа	-11.6488
▁ток	-11.6489
▁звонит	-11.649
▁посе	-11.6491
▁огне	-11.6492
ter	-11.6492
▁разбива	-11.6492
▁измерение	-11.6492
▁нижн	-11.65
▁объявлен	-11.6501
▁субъект	-11.6505
▁Антарктид	-11.6506
▁Возвраща	-11.6506
▁Гренланди	-11.6506
▁Республик	-11.6506
▁айсберг	-11.6506
▁бесполезны	-11.6506
▁джентльмен	-11.6506
▁иероглиф	-11.6506
▁интеграци	-11.6506
▁милосерди	-11.6506
▁привилеги	-11.6506
▁сегмент	-11.6506
▁сигарет	-11.6506
▁туберкулёз	-11.6506
▁ускорить	-11.6506
▁Арктик	-11.6506
▁Мэтт	-11.6506
▁благоприятн	-11.6506
▁заблуждени	-11.6506
▁приспосаблива	-11.6506
▁реконструкци	-11.6506
▁капитан	-11.6506
▁двойно	-11.6506
▁обнаружим	-11.6506
▁расстроен	-11.6506
▁маркер	-11.6506
▁жилья	-11.6506
▁Арави	-11.6506
▁доминирую	-11.6506
▁водителя	-11.6507
▁пират	-11.6507
▁форум	-11.6507
▁половы	-11.6507
▁приключени	-11.6508
гвозд	-11.6508
▁бизнесмен	-11.6508
▁Сэм	-11.6508
▁колёс	-11.6508
▁устрани	-11.6509
▁Шесть	-11.651
▁апрел	-11.651
▁пожил	-11.651
▁высказать	-11.651
▁Помн	-11.651
▁отрицательны	-11.6511
▁крупным	-11.6511
▁изменяют	-11.6511
▁Богу	-11.6512
▁знаменитост	-11.6513
нья	-11.6515
инди	-11.6515
ходила	-11.6515
▁учёными	-11.6517
▁батарейк	-11.6518
▁изобража	-11.6519
ницы	-11.6519
▁производителей	-11.6528
▁складывает	-11.6529
▁ухо	-11.6529
▁господин	-11.6529
▁чистый	-11.6531
▁повлияет	-11.6531
▁Леонардо	-11.6532
▁Кем	-11.6532
▁вторым	-11.6535
▁стремит	-11.6537
▁луг	-11.6538
▁студента	-11.6538
▁художники	-11.6539
▁интересуют	-11.654
▁постановк	-11.6541
ливать	-11.6543
▁восстановлени	-11.6544
▁растуще	-11.6544
▁послужил	-11.6546
▁технику	-11.6546
▁описания	-11.6548
▁этически	-11.655
меньше	-11.655
▁воздушн	-11.655
▁судить	-11.6551
,2	-11.6552
даль	-11.6553
▁толч	-11.6554
▁объясня	-11.6558
▁щел	-11.6558
▁отчет	-11.656
▁сутк	-11.656
▁любител	-11.6561
▁рубеж	-11.6565
▁звуча	-11.6566
кнул	-11.6568
▁чей	-11.6568
▁сохраняет	-11.6569
▁удовлетвори	-11.6571
▁биотехнологи	-11.6575
▁кошки	-11.6576
▁Трудно	-11.6577
▁пароли	-11.6582
▁собрания	-11.6583
рева	-11.6585
▁вырабатыва	-11.6587
▁матк	-11.6589
▁монет	-11.6592
▁простит	-11.6595
▁бюджета	-11.6599
▁спутниковы	-11.6601
едем	-11.6602
▁пиксел	-11.6602
▁врачом	-11.6602
▁адаптирова	-11.6602
вным	-11.6602
▁гео	-11.6603
▁раннем	-11.6607
ошла	-11.6608
▁община	-11.6611
▁начнет	-11.6612
▁блюд	-11.6613
▁Др	-11.6614
ni	-11.6621
▁отправлен	-11.6622
клин	-11.6622
▁одева	-11.6622
▁неприятно	-11.6623
▁физика	-11.6624
▁переезжа	-11.6626
▁отдавать	-11.6629
▁чтение	-11.6631
вист	-11.6636
▁идеологи	-11.664
▁Одн	-11.6642
▁ускоря	-11.6645
▁дяд	-11.6648
▁вера	-11.6649
▁бездомны	-11.6651
▁мертвы	-11.6651
▁строител	-11.6653
▁Будд	-11.6654
наче	-11.6655
▁скат	-11.6656
ill	-11.6657
▁Третье	-11.6658
▁иностранн	-11.6659
▁Замет	-11.6659
▁Следующ	-11.6659
▁тяг	-11.6662
▁6-	-11.6664
▁практическо	-11.6665
▁успе	-11.6669
ТС	-11.667
▁использованы	-11.6672
▁либеральн	-11.6679
▁тренирова	-11.668
▁Тур	-11.668
бал	-11.6682
▁гре	-11.6688
▁обходит	-11.6689
берите	-11.6691
летним	-11.6695
▁развивающе	-11.6697
▁заинтересовать	-11.6698
▁выдерж	-11.67
▁Сара	-11.6701
▁приви	-11.6702
▁уверенным	-11.6704
▁выплат	-11.6707
становиться	-11.6707
слан	-11.6708
▁родин	-11.6708
▁обмана	-11.6713
▁стеклянны	-11.6714
куда	-11.6717
▁выходил	-11.6718
спасатель	-11.6721
▁руб	-11.6723
▁взгляда	-11.6724
▁основание	-11.6726
▁эго	-11.6728
▁Детройт	-11.6728
▁Линкольн	-11.6728
▁Пациент	-11.6728
▁бамбук	-11.6728
▁вовлечь	-11.6728
▁издержк	-11.6728
▁мальчишк	-11.6728
▁муравей	-11.6728
▁протоклетк	-11.6728
▁психическо	-11.6728
▁светодиод	-11.6728
▁выигрыш	-11.6728
▁прибрежн	-11.6728
▁добровольц	-11.6728
▁Взрыв	-11.6728
▁комеди	-11.6728
▁шкаф	-11.6728
▁шторм	-11.6728
▁параллельно	-11.6728
▁вернёт	-11.6728
▁патоген	-11.6728
▁Последне	-11.6728
▁упрости	-11.6728
▁завоева	-11.6728
▁1984	-11.6728
▁ремонт	-11.6729
▁ходьб	-11.6729
▁лучи	-11.6729
▁расцвет	-11.6729
▁японски	-11.6729
▁чертовск	-11.6729
▁повторил	-11.673
▁пенис	-11.673
▁японско	-11.673
▁рассказчик	-11.6731
▁убедительно	-11.6732
▁Семь	-11.6732
▁банальн	-11.6732
▁Арабск	-11.6733
▁скуча	-11.6733
▁потеряла	-11.6734
▁найдет	-11.6734
▁беспокойство	-11.6734
▁чертеж	-11.6734
▁решка	-11.6735
▁посещени	-11.6735
▁превышает	-11.6736
пускать	-11.6737
▁простат	-11.6738
▁инновация	-11.6739
▁продвинуть	-11.6742
▁войска	-11.6742
▁Ван	-11.6744
▁тюрем	-11.6745
▁геометрическ	-11.6748
▁кубик	-11.6755
▁применим	-11.6755
▁определённым	-11.6755
▁машинами	-11.6757
▁перевернул	-11.6758
▁получение	-11.676
▁подтвердил	-11.6766
▁комисси	-11.6767
▁платит	-11.6767
▁блестящ	-11.6768
▁окружае	-11.6768
▁национальном	-11.677
▁Вес	-11.6774
▁1960-	-11.6774
▁младши	-11.6775
▁планирование	-11.6776
мешать	-11.6778
▁возглавля	-11.6782
▁Прекрасно	-11.6783
пресс	-11.6785
▁поймал	-11.6786
▁суп	-11.6787
ложим	-11.6789
▁свят	-11.6793
▁взятк	-11.6812
▁дядя	-11.6812
▁лыжа	-11.6814
▁улучшает	-11.6815
▁возобновляемы	-11.6817
▁знаков	-11.682
▁Норвегии	-11.682
▁совместн	-11.6821
▁учреждений	-11.6823
▁новаторств	-11.6824
▁журналистик	-11.6824
▁построены	-11.6825
▁Фр	-11.6825
важно	-11.6827
▁бри	-11.683
▁фрукт	-11.6831
▁осознани	-11.6834
▁плав	-11.6836
▁впечатляющи	-11.6836
▁чуд	-11.6841
▁изменят	-11.6841
▁приступа	-11.6846
крытие	-11.6847
тверж	-11.6848
▁оценкам	-11.6849
▁заряд	-11.6858
▁высоком	-11.686
▁инвестор	-11.6863
▁кофейн	-11.6864
▁столб	-11.6865
▁проход	-11.6868
▁завися	-11.6869
▁выключа	-11.687
▁ударил	-11.687
ld	-11.6874
хватил	-11.6874
▁130	-11.6878
▁чис	-11.688
▁действующи	-11.6881
▁удавал	-11.6885
▁доктором	-11.6887
▁продвижени	-11.6887
▁признан	-11.6888
▁здоровьем	-11.6891
жка	-11.6896
▁Первым	-11.69
▁гибел	-11.6904
▁1990	-11.6905
▁хватил	-11.6906
▁фундамент	-11.6907
▁аудиторию	-11.691
▁посвяти	-11.691
▁строение	-11.6914
▁поверну	-11.6915
▁обратим	-11.6918
▁минимально	-11.6919
▁стира	-11.692
▁бумажны	-11.6921
▁Отличн	-11.6924
▁пройд	-11.6928
▁посчитал	-11.6932
▁совета	-11.6939
ell	-11.6942
следование	-11.6942
▁одобрен	-11.6944
▁Франци	-11.6945
▁Джули	-11.6946
▁человечност	-11.6946
▁прочес	-11.6948
▁сделав	-11.6949
езусловно	-11.6954
▁культ	-11.6955
▁физиологи	-11.6955
пряжен	-11.6955
▁компакт	-11.6955
Second	-11.6955
▁Бенджамин	-11.6955
▁Бронкс	-11.6955
▁Здорово	-11.6955
▁Сьерра	-11.6955
▁Шекспир	-11.6955
▁безграничн	-11.6955
▁восприня	-11.6955
▁детеныш	-11.6955
▁импровизаци	-11.6955
▁находк	-11.6955
▁официальны	-11.6955
▁охлаждени	-11.6955
▁попробую	-11.6955
▁предупреди	-11.6955
▁прикосновени	-11.6955
▁притяжени	-11.6955
▁спортсмен	-11.6955
▁темнокожи	-11.6955
▁факультет	-11.6955
▁шоссе	-11.6955
▁Аполлон	-11.6955
▁догадыва	-11.6955
▁конфигураци	-11.6955
▁легенд	-11.6955
▁преоблада	-11.6955
▁пшениц	-11.6955
▁экстремальны	-11.6955
▁эмбрион	-11.6955
▁отследи	-11.6955
▁комитет	-11.6955
▁проявление	-11.6955
▁обруши	-11.6955
▁преград	-11.6955
▁поднимите	-11.6955
▁труп	-11.6956
▁розовы	-11.6956
▁ПМС	-11.6956
▁Плох	-11.6957
▁пострадал	-11.6957
▁поражён	-11.6957
▁платье	-11.6957
▁совершать	-11.6958
чество	-11.6958
▁волновать	-11.6958
▁кукл	-11.6959
▁исключа	-11.6959
▁вдохновить	-11.6959
▁схож	-11.696
▁Сотн	-11.696
▁Номер	-11.6961
▁оптимизаци	-11.6961
▁участвует	-11.6961
▁увлекательно	-11.6962
▁Лично	-11.6962
бс	-11.6962
▁Лин	-11.6962
▁Кин	-11.6963
▁берем	-11.6963
вёрт	-11.6963
▁Уверен	-11.6964
▁видимо	-11.6964
▁купол	-11.6965
▁поспори	-11.6965
▁транспортны	-11.6966
нку	-11.6967
▁Современн	-11.6967
порить	-11.6968
▁5000	-11.6968
▁нефтяно	-11.697
▁проектами	-11.6971
▁раковин	-11.6973
▁тонк	-11.6975
▁просмотра	-11.6976
растает	-11.6977
▁соглашение	-11.6977
▁Учитыва	-11.6977
▁свалк	-11.6978
▁нервны	-11.6983
люби	-11.6984
▁неделя	-11.6985
▁тёт	-11.6985
▁Роз	-11.6986
▁слепо	-11.6986
▁смири	-11.6989
▁приняты	-11.6989
▁приход	-11.699
▁осознанно	-11.6993
ack	-11.6995
▁пользователям	-11.6995
▁препаратов	-11.6996
▁линейн	-11.6997
▁стыдно	-11.6997
стало	-11.6999
▁канализаци	-11.7002
чистить	-11.7002
спор	-11.7005
▁отмен	-11.7006
▁сгиб	-11.7006
только	-11.7006
▁позвол	-11.7008
технологи	-11.7008
▁стере	-11.7009
▁пада	-11.7011
▁устроить	-11.7012
▁следил	-11.7013
проект	-11.7014
▁различие	-11.7015
▁суб	-11.7016
▁подбира	-11.702
▁свободным	-11.702
▁рассматривает	-11.702
▁выреза	-11.7021
▁кричал	-11.7021
▁подразумеваю	-11.7022
▁ядро	-11.7022
▁дизайнера	-11.7023
▁Рам	-11.7024
хождения	-11.7025
▁Белы	-11.703
оставлять	-11.703
▁читаю	-11.7032
▁встречает	-11.7032
▁инсулин	-11.7035
дающий	-11.7036
▁Международно	-11.7039
▁колебания	-11.704
чтения	-11.7043
▁татуировк	-11.7046
▁благодар	-11.705
▁производственн	-11.7052
▁взят	-11.7052
▁серьёзным	-11.7054
▁одет	-11.7055
▁идиот	-11.7063
▁осуществи	-11.7063
▁дур	-11.7066
▁красивой	-11.7066
▁вертикальн	-11.7067
▁Израил	-11.7067
звонил	-11.7068
▁прослушивани	-11.7069
▁общественным	-11.7076
▁бумагу	-11.7076
▁несут	-11.7081
▁пыли	-11.7082
▁срока	-11.7083
▁проявить	-11.7086
алл	-11.7089
▁Мес	-11.7092
▁способностям	-11.7093
▁млекопитающи	-11.7094
▁затрагива	-11.7094
▁смертельно	-11.7096
▁транспортно	-11.71
▁обратном	-11.7101
▁показыва	-11.7107
▁овц	-11.7108
▁физике	-11.7108
▁управлении	-11.7109
▁подража	-11.7111
▁двигать	-11.7112
▁путешеству	-11.7115
▁магнитны	-11.7117
▁вымирани	-11.7121
▁помни	-11.7132
▁развод	-11.7139
▁грамотност	-11.7143
▁реку	-11.7145
▁астрономи	-11.7146
▁жертвам	-11.715
▁пише	-11.7152
▁замедлить	-11.7157
▁расширяет	-11.7158
▁детально	-11.7158
ers	-11.716
▁соединени	-11.7164
▁клик	-11.7169
▁гравитации	-11.7169
▁невидим	-11.7171
▁равна	-11.7175
▁перейдё	-11.7178
▁кач	-11.718
▁распр	-11.7182
▁монитор	-11.7183
▁волшебство	-11.7184
руба	-11.7185
▁объед	-11.7187
▁преувеличен	-11.7188
▁CRISPR	-11.7188
▁Внезапн	-11.7188
▁Здравствуй	-11.7188
▁Палестин	-11.7188
▁Поразительно	-11.7188
▁Ребят	-11.7188
▁Талибан	-11.7188
▁Фейсбук	-11.7188
▁воплоща	-11.7188
▁динамическ	-11.7188
▁заблокирова	-11.7188
▁запясть	-11.7188
▁инфляци	-11.7188
▁карандаш	-11.7188
▁метаболизм	-11.7188
▁отталкива	-11.7188
▁переворачива	-11.7188
▁стрекоз	-11.7188
▁штамм	-11.7188
▁штраф	-11.7188
▁экспонат	-11.7188
▁Глобальн	-11.7188
▁Медицин	-11.7188
▁Свобод	-11.7188
▁вслух	-11.7188
▁корпус	-11.7188
▁подразделени	-11.7188
▁верёвк	-11.7188
▁Брэд	-11.7188
▁лотере	-11.7188
▁тяжест	-11.7188
▁земледели	-11.7188
▁спрятан	-11.7188
▁кольцо	-11.7188
▁осужда	-11.7188
▁хранил	-11.7188
▁подготовил	-11.7188
▁искажен	-11.7189
▁слияни	-11.7189
▁драйв	-11.7189
▁узки	-11.7189
▁кролик	-11.719
▁весёл	-11.719
▁происходящего	-11.719
▁удалить	-11.7191
▁ненужн	-11.7191
▁мобильник	-11.7192
▁приглашение	-11.7193
▁кассет	-11.7194
▁стандартно	-11.7194
▁беспрецедентн	-11.7195
▁Ран	-11.7195
▁пространств	-11.7196
▁средн	-11.7196
▁родов	-11.7197
▁распада	-11.7198
▁протестирова	-11.7198
▁узко	-11.7198
нты	-11.7201
▁Долин	-11.7201
▁Абсолютно	-11.7202
▁подписал	-11.7204
▁полагает	-11.7204
▁улови	-11.7207
▁планировал	-11.7207
▁энергетическо	-11.7207
плен	-11.7211
▁виден	-11.7212
▁пригодн	-11.7214
▁племена	-11.7216
▁бедн	-11.7218
▁вообрази	-11.7219
▁экологичны	-11.7222
▁1970-	-11.7224
▁заявления	-11.7224
▁отклонени	-11.7225
▁планирования	-11.7228
▁выступающи	-11.7229
▁возможностя	-11.723
▁порождает	-11.723
▁сетям	-11.723
▁дельфинов	-11.7231
ыграть	-11.7231
▁Никол	-11.7234
▁посвятил	-11.7234
▁некоммерческ	-11.7237
▁больным	-11.7239
▁получ	-11.7245
Ч	-11.7248
▁путешествую	-11.725
▁виртуальн	-11.7251
▁демонстрируют	-11.7252
▁миллиметр	-11.7252
▁кормить	-11.7252
▁архитектуру	-11.7253
▁соседям	-11.7253
▁упорно	-11.7255
▁звёзды	-11.7255
▁копию	-11.7256
▁слона	-11.7257
▁видеоигры	-11.7258
защит	-11.7258
▁кораллы	-11.7258
▁СП	-11.7258
правду	-11.7259
▁красивым	-11.7262
▁Хилл	-11.7267
эль	-11.7268
▁Пор	-11.7272
▁записыва	-11.7273
▁беспроводны	-11.7276
▁огранич	-11.7278
уляци	-11.7279
▁дельфины	-11.7281
▁распространённы	-11.7282
▁мягки	-11.7285
▁жертвой	-11.7287
▁Северном	-11.729
стами	-11.7294
▁поверхност	-11.7299
▁зла	-11.7302
▁делим	-11.7302
▁бедстви	-11.7305
▁Движение	-11.7306
▁гражданск	-11.7309
▁казни	-11.7309
щите	-11.731
▁новейш	-11.7316
▁завершени	-11.7317
▁осп	-11.7321
▁навоз	-11.7324
▁возьму	-11.7325
люд	-11.7326
▁оказывать	-11.7327
▁свеч	-11.7327
ровал	-11.733
▁доброт	-11.733
▁километр	-11.733
▁обсуждени	-11.7331
▁18-	-11.7331
▁демон	-11.7332
▁талантливы	-11.7332
▁функциональн	-11.7332
▁реклама	-11.7332
▁Пакистане	-11.7334
▁Прост	-11.7336
▁идеальн	-11.7336
▁резюм	-11.7337
▁ведущих	-11.7338
▁способствова	-11.734
Леон	-11.7341
стен	-11.7344
▁Пара	-11.7346
▁барьер	-11.7351
▁Мало	-11.7357
промышленн	-11.7358
▁лодки	-11.7359
▁страстно	-11.7366
▁напечата	-11.7369
▁44	-11.7369
▁ежедневны	-11.7377
ort	-11.7378
▁площадки	-11.7381
▁служа	-11.7385
▁пожела	-11.7388
▁хватал	-11.7389
▁осознавал	-11.7389
▁зелено	-11.739
▁пище	-11.7392
льц	-11.7392
▁счастлива	-11.7395
ированн	-11.7396
▁убийство	-11.7397
▁телевидении	-11.7401
go	-11.7404
▁организованно	-11.7405
▁окон	-11.7408
▁возвращать	-11.7409
▁королевск	-11.7412
▁новатор	-11.7412
▁тайно	-11.7412
▁скрывать	-11.7413
▁превыша	-11.7417
▁приводил	-11.7422
▁британско	-11.7422
▁духа	-11.7423
▁рабоч	-11.7424
▁швейцар	-11.7426
▁шедевр	-11.7426
▁Мальчик	-11.7426
▁Совершенн	-11.7426
▁блокчейн	-11.7426
▁вакуум	-11.7426
▁диспле	-11.7426
▁заплатил	-11.7426
▁инсульт	-11.7426
▁лауреат	-11.7426
▁марсоход	-11.7426
▁памятник	-11.7426
▁педагог	-11.7426
▁пестицид	-11.7426
▁урбанизаци	-11.7426
▁учёного	-11.7426
▁экземпляр	-11.7426
сплеск	-11.7426
▁общепринят	-11.7426
▁покупают	-11.7426
▁помнят	-11.7426
▁сфотографировал	-11.7426
▁немыслим	-11.7426
▁сустав	-11.7426
▁каркас	-11.7426
▁Дисне	-11.7426
,8	-11.7426
▁ограничивает	-11.7427
▁Задач	-11.7427
▁коляск	-11.7427
▁посадил	-11.7427
▁взбира	-11.7427
▁Половин	-11.7427
▁покров	-11.7427
▁соседству	-11.7428
▁жалоб	-11.7428
TI	-11.7429
▁вернем	-11.7429
▁поглощен	-11.7429
▁3,5	-11.743
▁детка	-11.743
▁справедлив	-11.743
▁расположенны	-11.743
▁Тор	-11.7431
▁Исследовател	-11.7432
▁планируем	-11.7432
▁останк	-11.7432
▁полимер	-11.7433
▁размещен	-11.7433
▁потребительск	-11.7434
компан	-11.7435
даваемы	-11.7436
▁школьник	-11.7439
▁обсуждаем	-11.7442
ствовать	-11.7442
▁покупает	-11.7445
▁радиус	-11.7446
вернуть	-11.7447
▁четверти	-11.7451
DA	-11.7452
▁примет	-11.7452
▁людск	-11.7454
▁продвинуты	-11.7456
▁УФ	-11.7457
▁спит	-11.7458
▁росли	-11.7459
▁триллиона	-11.746
ram	-11.7461
▁SE	-11.7462
▁обладать	-11.7466
▁уникальна	-11.7467
▁грязны	-11.7468
▁описывал	-11.7468
▁Модел	-11.7469
▁коробка	-11.7471
▁предста	-11.7471
онколог	-11.7472
▁двигателе	-11.7472
▁машинно	-11.7473
▁изделия	-11.7478
▁мешк	-11.7478
▁собрани	-11.748
▁управляющи	-11.7481
▁визуализаци	-11.7481
▁рассчита	-11.7485
падать	-11.7486
нападени	-11.7488
▁обращают	-11.749
▁контролируют	-11.7494
▁вымирания	-11.7496
▁песка	-11.7497
▁сломал	-11.7498
▁продвижения	-11.7498
▁выгодно	-11.7498
▁переключател	-11.7498
▁стреля	-11.75
▁Фри	-11.7502
▁худше	-11.7504
▁зелёным	-11.7505
▁качественно	-11.7508
▁подражани	-11.751
▁печаль	-11.7511
▁16-	-11.7516
▁смертельны	-11.752
▁логика	-11.7522
хватывают	-11.7522
▁затрагивает	-11.7522
▁сбережени	-11.7523
▁позор	-11.7525
▁ужасным	-11.7525
▁страховк	-11.7525
▁дополнение	-11.7526
▁98	-11.7526
▁ресурсами	-11.7527
▁кресл	-11.7527
▁грех	-11.7528
▁звуковы	-11.7528
▁сердц	-11.7529
▁вылечить	-11.753
▁предположил	-11.7531
▁столов	-11.7534
▁разбил	-11.7535
вязать	-11.7536
▁гигантско	-11.7542
▁72	-11.7547
▁комфортно	-11.7549
▁набора	-11.755
▁лёгкость	-11.755
▁Реш	-11.7551
▁договори	-11.7552
▁парочк	-11.7553
▁наблюдала	-11.7553
▁Мел	-11.7561
чём	-11.7561
▁РНК	-11.7565
▁трёхмерн	-11.757
▁собаку	-11.7571
▁офиса	-11.7572
▁Гл	-11.7575
12	-11.758
▁сборк	-11.7585
▁осторожно	-11.7586
▁остановит	-11.7587
▁Дон	-11.7588
звуч	-11.7589
▁бывал	-11.7593
фар	-11.7593
▁Bu	-11.7596
почту	-11.7596
читаю	-11.7597
▁берёте	-11.7599
▁конкретн	-11.7599
растают	-11.76
▁посылает	-11.7601
▁обезьяна	-11.7601
me	-11.7602
лос	-11.7603
▁старение	-11.7603
бивает	-11.7603
сот	-11.7605
▁посмотри	-11.7606
▁подсчита	-11.7611
▁дизайнерски	-11.7612
▁заставлял	-11.7616
▁ненавидел	-11.762
▁сентябр	-11.762
▁1960	-11.762
▁1980	-11.762
▁подвал	-11.7624
▁остатк	-11.7625
▁народов	-11.7625
▁западн	-11.7626
▁фар	-11.7627
▁диалога	-11.7628
▁художественны	-11.7629
▁четвёрты	-11.763
▁Мексике	-11.763
▁нижни	-11.7633
▁уничтожил	-11.7635
▁золота	-11.7637
▁уничтожение	-11.7639
▁открывают	-11.7642
▁писала	-11.7643
дёшь	-11.7644
▁рисков	-11.7657
▁алкогол	-11.7657
▁кабел	-11.7659
▁возникну	-11.7661
▁грустн	-11.7661
▁толку	-11.7662
▁чемпион	-11.7663
был	-11.7663
▁заняли	-11.7664
▁крупнейше	-11.7664
▁b	-11.7666
сылают	-11.7667
▁Пр	-11.7667
▁мышлени	-11.7669
▁атаку	-11.7669
▁Гонконг	-11.767
▁Зимбабв	-11.767
▁Йемен	-11.767
▁Стюарт	-11.767
▁координаци	-11.767
▁космонавт	-11.767
▁леопард	-11.767
▁мельчайши	-11.767
▁модификаци	-11.767
▁освобожда	-11.767
▁престарелы	-11.767
▁робототехник	-11.767
▁священны	-11.767
▁специализиру	-11.767
▁удовлетворя	-11.767
▁ультразвук	-11.767
▁федерально	-11.767
▁Олимпиад	-11.767
▁Электро	-11.767
▁Фотограф	-11.767
▁возрождени	-11.767
▁далёки	-11.767
▁уважать	-11.767
▁наушник	-11.767
▁Лютер	-11.767
▁секвой	-11.767
▁витамин	-11.767
▁гитар	-11.767
▁столкнё	-11.767
▁обозначи	-11.767
▁проекци	-11.767
▁Тунис	-11.767
▁Американско	-11.767
▁Верховн	-11.767
▁штуковин	-11.767
▁авторско	-11.767
▁прирост	-11.767
▁Христ	-11.767
▁исчезнет	-11.767
▁рассвет	-11.7671
▁зарождени	-11.7671
▁опережа	-11.7671
▁русски	-11.7671
▁предельно	-11.7671
▁горизонтально	-11.7671
▁Вчера	-11.7671
▁дорожны	-11.7671
▁карточк	-11.7672
▁вступа	-11.7672
▁дорожно	-11.7672
▁Лонг	-11.7672
▁ослеп	-11.7673
▁погибши	-11.7673
▁чьё	-11.7673
▁спасать	-11.7673
▁свидетельства	-11.7675
▁товарищ	-11.7675
▁аэро	-11.7675
▁излучение	-11.7676
▁видна	-11.7676
▁петл	-11.7678
▁наброск	-11.7678
▁астм	-11.7679
▁заража	-11.7679
▁полагают	-11.7681
▁несправедлив	-11.7681
▁захватывает	-11.7683
▁словарь	-11.7684
▁июне	-11.7685
▁переживани	-11.7685
▁настроение	-11.7687
даем	-11.7688
▁задаю	-11.7688
▁ступен	-11.7692
▁бумага	-11.7693
▁мани	-11.7693
▁вдохн	-11.7693
▁рта	-11.7694
▁мамой	-11.7695
▁принадлежал	-11.7696
▁Сила	-11.7699
▁берег	-11.7705
▁пункта	-11.7705
▁эра	-11.7708
▁косну	-11.7708
▁ремн	-11.772
▁присутствовал	-11.7722
▁физическим	-11.7723
▁применил	-11.7724
▁лодка	-11.7728
▁высота	-11.7728
держим	-11.7729
▁вкратце	-11.7729
▁покрыты	-11.7731
▁Здани	-11.7733
▁Швейцарии	-11.7733
перёд	-11.7734
▁механизма	-11.7734
тягивает	-11.7734
▁выполнен	-11.7737
звезд	-11.7741
▁перевоз	-11.7741
da	-11.7743
▁Пример	-11.7746
▁задаём	-11.7746
▁старался	-11.7748
▁градуса	-11.775
▁привез	-11.7751
▁Рак	-11.7751
▁выдающим	-11.7752
▁начав	-11.7752
▁почувствовала	-11.7755
жир	-11.7757
▁достигнет	-11.776
▁улицам	-11.776
▁пообещал	-11.7761
ческим	-11.7764
▁мёртв	-11.7766
▁подняла	-11.7767
▁членами	-11.7767
▁тверд	-11.7767
▁поступал	-11.7768
▁свечени	-11.7775
▁Справ	-11.7776
▁восприяти	-11.7776
▁позвон	-11.7778
▁Машин	-11.7778
▁прыж	-11.7781
▁сдержива	-11.7782
тиф	-11.7784
▁неустойчив	-11.7784
▁сконцентрирова	-11.7785
▁неопределённост	-11.7789
▁скрыто	-11.7789
▁испытание	-11.779
▁дискриминации	-11.7792
▁зашл	-11.7794
▁Лед	-11.7796
▁выдающ	-11.7796
▁спортивны	-11.7797
▁представл	-11.7798
▁сравнивать	-11.7799
▁оценивает	-11.7801
▁коралл	-11.7801
▁переместить	-11.7802
▁хрупк	-11.7805
▁согласован	-11.7809
▁позволял	-11.781
▁стандартам	-11.7811
▁чтени	-11.7814
вляется	-11.7814
▁деревянны	-11.7819
▁судя	-11.782
▁Южном	-11.7822
ходящих	-11.7823
▁итальянск	-11.7825
▁180	-11.7826
▁160	-11.7827
▁предубеждени	-11.7827
▁уверенност	-11.7829
▁потребовал	-11.7829
▁составляющих	-11.783
▁плоскост	-11.7833
▁внешним	-11.7841
▁вызывал	-11.7842
▁научным	-11.7842
запад	-11.7842
▁исключительны	-11.7843
▁просну	-11.7845
▁Массачусетск	-11.7846
▁функционально	-11.7848
▁видеоигр	-11.7851
▁любовн	-11.7853
скольз	-11.7854
▁взаимо	-11.7859
▁трёхмерно	-11.7862
▁фразы	-11.7864
▁маг	-11.7866
▁застрял	-11.7868
▁Гэ	-11.7868
▁действиям	-11.7868
▁Лар	-11.7869
▁незаконно	-11.7869
▁ковр	-11.7869
▁Уол	-11.7872
▁беспроводно	-11.7874
шестви	-11.7876
▁крошечно	-11.7876
▁прежне	-11.7877
▁мусульмански	-11.7877
▁откроет	-11.7878
гружен	-11.7878
▁выпустить	-11.7879
▁одежда	-11.788
▁беременны	-11.7884
▁отвечающи	-11.7885
равня	-11.789
▁биологическ	-11.7892
▁убивали	-11.7893
▁уголовно	-11.7893
▁знакомых	-11.7895
▁гнездо	-11.7895
▁геометри	-11.7898
▁платформа	-11.7898
▁собрание	-11.7903
▁мужски	-11.7905
▁Фил	-11.7905
▁академи	-11.7907
▁клиентам	-11.7908
кричать	-11.7908
▁глупост	-11.7909
▁невинн	-11.791
▁мут	-11.791
▁слышат	-11.7911
▁Дизайн	-11.7916
▁гладко	-11.7917
▁принят	-11.7917
чар	-11.7917
▁ограниченным	-11.7918
▁беспорядо	-11.7919
▁основывая	-11.7919
▁брош	-11.792
▁Sky	-11.792
▁1995	-11.792
▁iPod	-11.792
▁Иерусалим	-11.792
▁Копенгаген	-11.792
▁Мухаммед	-11.792
▁альтруизм	-11.792
▁губернатор	-11.792
▁коннектом	-11.792
▁обусловлен	-11.792
▁осужден	-11.792
▁подталкива	-11.792
▁произошедше	-11.792
▁усердно	-11.792
▁шахмат	-11.792
▁экспоненциально	-11.792
▁Чувств	-11.792
▁заседани	-11.792
▁сказанно	-11.792
▁снабжа	-11.792
▁чемодан	-11.792
▁анонимно	-11.792
▁дорогостоящ	-11.792
▁Беркли	-11.792
▁индивид	-11.792
▁бригад	-11.792
▁принципиально	-11.792
▁застройк	-11.792
▁суббот	-11.792
▁планшет	-11.792
▁Монтере	-11.792
▁локальны	-11.792
▁аудио	-11.792
▁Замечательн	-11.792
▁монах	-11.792
▁Абед	-11.792
▁куратор	-11.792
▁поцелу	-11.7921
▁Сьюз	-11.7921
▁пожаловать	-11.7921
▁покупал	-11.7921
▁молочно	-11.7921
▁полутора	-11.7921
▁баррел	-11.7921
▁обыча	-11.7921
▁шрам	-11.7921
▁облада	-11.7921
▁дальнейши	-11.7921
▁Цельси	-11.7921
▁Бутан	-11.7921
▁седьмо	-11.7921
▁приблизить	-11.7922
▁пройдёт	-11.7922
▁минерал	-11.7922
▁широт	-11.7923
▁пиво	-11.7923
▁Решение	-11.7923
▁законодательн	-11.7923
▁медленны	-11.7924
▁the	-11.7924
▁11-	-11.7925
▁ГГ	-11.7925
▁кратер	-11.7926
▁образует	-11.7926
▁вспышка	-11.7928
▁революционны	-11.7929
▁динамичн	-11.793
▁ночам	-11.793
▁волновал	-11.7931
▁звучат	-11.7931
▁убрал	-11.7932
▁девочкой	-11.7934
▁тепла	-11.7934
▁повтор	-11.7934
▁возмож	-11.7935
▁указал	-11.7936
▁8-	-11.7936
▁слушает	-11.7936
▁обсуждение	-11.7937
▁разрушение	-11.7937
▁конкретном	-11.7938
▁заплыв	-11.7939
▁отеле	-11.7939
▁сперм	-11.7941
▁ограниченно	-11.7941
▁исключи	-11.7942
▁антибиотикам	-11.7944
▁растительн	-11.7944
▁сведения	-11.7945
монт	-11.7946
▁падения	-11.795
▁парламента	-11.7951
-15	-11.7951
▁обрел	-11.7952
▁корпораций	-11.7954
▁увидит	-11.7957
▁владельце	-11.7961
▁основател	-11.7964
▁Велик	-11.7966
ушка	-11.7966
▁Основ	-11.7966
▁очевид	-11.7968
▁поступк	-11.7968
▁вооружённы	-11.797
▁участков	-11.7973
▁математическ	-11.7974
▁обширны	-11.7974
▁пищевы	-11.7975
▁совершенны	-11.7979
▁побег	-11.7983
▁концентрация	-11.7985
▁читают	-11.7986
▁классов	-11.7989
▁чётки	-11.7991
▁центральны	-11.7991
▁музыкантов	-11.7993
.5	-11.7996
прыгну	-11.7996
▁десятка	-11.7997
▁ожирени	-11.7997
▁сыну	-11.7997
▁проведённы	-11.7998
▁нарушение	-11.7999
машин	-11.7999
▁постиг	-11.8
▁объединять	-11.8002
▁жизнеспособн	-11.8004
▁Белл	-11.8004
▁руководи	-11.8008
▁достаточн	-11.8011
▁малярия	-11.8011
▁спутники	-11.8012
▁постараюсь	-11.8012
▁приближает	-11.8013
▁обсуждают	-11.8014
▁подушк	-11.8015
▁поворачива	-11.8018
гадать	-11.8019
▁возросл	-11.8021
▁достойн	-11.8023
▁мероприятия	-11.8025
▁диаграмма	-11.8029
▁умения	-11.8029
▁осуществля	-11.8029
▁нарушени	-11.8031
▁поощря	-11.8031
▁подводит	-11.8035
▁спад	-11.8036
▁Красн	-11.8038
▁распространённо	-11.8045
сво	-11.8047
▁устойчив	-11.8047
▁средним	-11.8052
▁перерабатыва	-11.8055
▁включать	-11.8058
▁просмотре	-11.8059
▁задне	-11.8059
▁38	-11.8061
▁ощущал	-11.8062
данного	-11.8069
▁пещера	-11.807
▁создаются	-11.8071
▁расово	-11.8071
▁обстоятельств	-11.8073
▁особенным	-11.8074
▁убийства	-11.8077
▁обеща	-11.8077
▁взаимоотношени	-11.8083
▁всеобщ	-11.8085
пользуется	-11.8086
щения	-11.8087
▁забав	-11.809
▁96	-11.809
▁задаёт	-11.8092
▁подтверждает	-11.8098
▁Цен	-11.8098
▁семьями	-11.81
▁Прав	-11.8101
▁лав	-11.8102
▁домик	-11.8103
▁химическо	-11.8105
▁ирони	-11.8108
▁опубликова	-11.811
▁построенны	-11.8111
сосудист	-11.8112
▁безопасне	-11.8117
казывать	-11.8119
правилась	-11.8122
▁Колумби	-11.8124
▁обладал	-11.8127
▁применяет	-11.8127
▁присутствую	-11.8127
▁ключевым	-11.8128
▁сантиметр	-11.8129
Паул	-11.8133
▁вынес	-11.8133
▁оценивать	-11.8134
бур	-11.8135
▁подлинно	-11.8136
▁поясн	-11.8137
▁первоначальн	-11.814
▁Пен	-11.8142
▁Кро	-11.8144
▁колод	-11.8145
▁молок	-11.8145
бьют	-11.8147
▁смешанн	-11.8148
▁феминист	-11.8152
▁выстраива	-11.8153
▁согласил	-11.8156
▁планирова	-11.8157
▁Лор	-11.8159
▁террор	-11.8162
▁показателям	-11.8162
▁34	-11.8164
▁постоянн	-11.8165
▁механизмов	-11.8168
▁скор	-11.8171
лишком	-11.8172
▁дожде	-11.8174
этажн	-11.8174
,6	-11.8175
▁состоящи	-11.8176
▁звон	-11.8176
▁грамм	-11.8176
▁пропорци	-11.8176
загрузить	-11.8176
▁Компания	-11.8176
▁Моцарт	-11.8176
▁Эверест	-11.8176
▁аккаунт	-11.8176
▁восхитительно	-11.8176
▁вредоносн	-11.8176
▁египтян	-11.8176
▁жизня	-11.8176
▁заброшенн	-11.8176
▁защищённ	-11.8176
▁иммиграци	-11.8176
▁кладбищ	-11.8176
▁мировоззрени	-11.8176
▁неокортекс	-11.8176
▁развлечений	-11.8176
▁расшифровк	-11.8176
▁сэндвич	-11.8176
▁транспортировк	-11.8176
▁филантроп	-11.8176
▁Происходи	-11.8176
▁помешан	-11.8176
▁матриц	-11.8176
▁обувь	-11.8176
▁добровольно	-11.8176
▁смотришь	-11.8176
▁сомнительн	-11.8176
▁Подобно	-11.8176
▁устарел	-11.8176
▁побежда	-11.8176
▁гамма	-11.8176
▁Наибол	-11.8177
▁жильё	-11.8177
▁Числ	-11.8177
▁выявил	-11.8177
▁водопад	-11.8177
▁маммографи	-11.8177
▁фермент	-11.8177
▁овладе	-11.8177
▁агентства	-11.8178
таскива	-11.8178
▁Аляск	-11.8178
▁Язык	-11.8178
▁матч	-11.8178
▁отвращение	-11.8178
▁объединения	-11.8178
▁диван	-11.8179
▁пауз	-11.818
▁умным	-11.8181
▁утечк	-11.8181
▁прогрессивн	-11.8182
▁помех	-11.8184
▁производил	-11.8185
▁башни	-11.8186
▁разделяют	-11.8186
▁потере	-11.8188
▁угрожает	-11.8188
▁тряс	-11.8189
▁медведей	-11.8189
▁объяснени	-11.8192
▁наполня	-11.8192
▁получалось	-11.8193
▁позволяющ	-11.8193
▁резки	-11.8193
▁суше	-11.8193
▁оказать	-11.8193
▁диагност	-11.8196
▁международным	-11.8198
▁возникающи	-11.8199
▁землетрясения	-11.82
▁разгар	-11.82
▁двадцать	-11.8201
▁государством	-11.8201
▁Смысл	-11.8205
геев	-11.8206
▁уменьшение	-11.8207
ования	-11.8208
▁постер	-11.8208
▁полог	-11.8208
▁хлопа	-11.8209
▁отдалённы	-11.821
какие	-11.8212
▁склонность	-11.8212
▁произведен	-11.8214
▁библиотека	-11.8215
▁встречаться	-11.8217
онным	-11.8219
▁инструкции	-11.822
▁Воз	-11.822
▁разговариваю	-11.822
▁богато	-11.8222
чур	-11.8222
▁обойти	-11.8223
▁колоссально	-11.8223
▁поглоща	-11.8224
▁исполнитель	-11.8225
▁дайте	-11.8225
▁падение	-11.8226
▁готовит	-11.8229
▁обращаем	-11.8229
▁запута	-11.8233
▁замечательным	-11.8233
▁условие	-11.8236
индивидуальность	-11.8236
▁толст	-11.8237
▁самолёты	-11.8237
▁заявля	-11.8239
▁замедлен	-11.8239
▁завершение	-11.8241
▁законом	-11.8242
▁субъективн	-11.8246
▁читала	-11.8246
живани	-11.8246
▁соединяют	-11.8247
▁таково	-11.8247
▁Национальн	-11.8252
▁Великобритани	-11.8253
▁Пят	-11.8256
▁открывал	-11.8256
▁неэффективны	-11.8257
▁эффективна	-11.8261
▁натуральн	-11.8262
▁Греции	-11.8262
▁отличия	-11.8264
▁крыша	-11.8266
▁Возьм	-11.8266
▁14-	-11.8267
▁17-	-11.8267
▁иллюзия	-11.8271
▁неизбежны	-11.8272
▁критическо	-11.8276
▁Линд	-11.8278
▁развили	-11.828
летнем	-11.828
▁рождени	-11.8282
▁шага	-11.8282
▁зонд	-11.8283
бирая	-11.8285
▁принадлежащ	-11.8286
▁родитель	-11.8286
ритм	-11.8291
▁набирает	-11.8292
▁продан	-11.8294
▁медвед	-11.8296
to	-11.8297
смел	-11.83
▁положен	-11.8301
▁любимым	-11.831
▁слежки	-11.8313
▁впечатля	-11.8315
▁болезненны	-11.8315
▁творени	-11.8315
ология	-11.8316
▁исследователь	-11.8317
▁традиционным	-11.832
▁прыжк	-11.8321
▁зубов	-11.8322
▁искусственн	-11.8326
▁глухи	-11.8328
▁Si	-11.8329
раг	-11.833
▁мам	-11.8331
▁140	-11.8331
▁Корее	-11.8331
ick	-11.8331
▁Тво	-11.8332
▁выпал	-11.8335
▁Сил	-11.8335
слушаем	-11.8336
▁приносил	-11.8339
▁дискуссия	-11.8339
▁заменил	-11.8339
▁цифровым	-11.834
▁почва	-11.8341
ore	-11.8343
▁новаторск	-11.8343
▁перемена	-11.8345
▁поглощает	-11.8346
▁Города	-11.8348
RI	-11.835
▁вложения	-11.8351
▁Международны	-11.8352
▁держат	-11.8353
▁расизм	-11.8353
▁останавливает	-11.8355
▁порци	-11.8357
▁растениям	-11.8358
▁рису	-11.8358
▁перемещени	-11.8358
▁влюбил	-11.836
ub	-11.836
▁бросают	-11.8362
льски	-11.837
▁Эми	-11.8376
▁СС	-11.8377
циальн	-11.8378
▁визуализации	-11.8378
▁охоти	-11.8382
▁применяют	-11.8385
▁установка	-11.8386
▁воспита	-11.8389
▁вращает	-11.8389
ловно	-11.839
▁направлены	-11.8391
▁Корн	-11.8395
▁сточны	-11.8395
▁ставил	-11.8396
тиль	-11.8397
▁езди	-11.8399
▁распространены	-11.8399
▁плоски	-11.8402
▁светящ	-11.8402
рка	-11.8406
▁черед	-11.8407
▁заботят	-11.8407
▁равновеси	-11.8408
▁невидимым	-11.8411
▁пожарны	-11.8412
▁инженерны	-11.8413
▁жертва	-11.8415
▁нагре	-11.8416
▁скучны	-11.8418
▁обнаруживает	-11.8419
▁принадлежност	-11.8419
▁деревьям	-11.8422
ански	-11.8422
▁благосостояние	-11.8423
▁заповед	-11.8425
▁помещает	-11.8427
▁поднят	-11.8429
▁фабрика	-11.8431
держивает	-11.8432
▁необычным	-11.8433
▁Pa	-11.8435
▁вдох	-11.8438
▁Франк	-11.8439
▁1994	-11.8439
▁1997	-11.8439
▁Граждан	-11.8439
▁Естественно	-11.8439
▁Множеств	-11.8439
▁Пенсильвани	-11.8439
▁индикатор	-11.8439
▁инфракрасн	-11.8439
▁манускрипт	-11.8439
▁неподалёку	-11.8439
▁неприемлем	-11.8439
▁основополагающ	-11.8439
▁предотвраща	-11.8439
▁промежуточн	-11.8439
▁репортаж	-11.8439
▁священно	-11.8439
▁сформулирова	-11.8439
▁фальшив	-11.8439
▁швед	-11.8439
▁ерунд	-11.8439
▁невежеств	-11.8439
▁улавлива	-11.8439
▁Мумба	-11.8439
▁мудры	-11.8439
▁плакал	-11.8439
▁ангел	-11.8439
▁отправляем	-11.8439
▁выражает	-11.8439
▁запреща	-11.8439
▁торжеств	-11.8439
▁космолог	-11.8439
▁гениально	-11.8439
▁экспресс	-11.8439
▁обуви	-11.844
▁сканиру	-11.844
▁штаб	-11.844
▁ныря	-11.844
▁соперник	-11.844
▁удалённы	-11.844
▁эгоистичн	-11.844
▁беднейши	-11.844
▁умственно	-11.844
▁колонк	-11.844
▁отверга	-11.844
▁токсин	-11.844
▁проехал	-11.844
▁выразил	-11.844
▁влажно	-11.8441
ound	-11.8441
▁грант	-11.8441
ord	-11.8441
▁1,2	-11.8441
▁бактериям	-11.8441
▁Джошу	-11.8441
▁Политик	-11.8441
▁господств	-11.8442
▁НП	-11.8442
▁осень	-11.8442
▁видеокамер	-11.8442
▁Мексиканск	-11.8443
▁переводчик	-11.8443
▁обязанности	-11.8443
▁Океан	-11.8444
йроби	-11.8444
▁определен	-11.8444
▁деревень	-11.8444
▁переворот	-11.8445
регулировать	-11.8446
▁совершает	-11.8448
▁Хью	-11.8449
▁патологи	-11.8451
▁воплощение	-11.8451
▁Кибер	-11.8451
прош	-11.8451
▁сокращать	-11.8452
▁инвестиционн	-11.8453
▁владеет	-11.8453
▁учебно	-11.8454
▁зерновы	-11.8454
▁стад	-11.8458
▁отрази	-11.8458
▁сокращает	-11.8458
▁инфекционны	-11.8459
▁расположена	-11.8459
▁Дэ	-11.846
▁честны	-11.8463
▁учил	-11.8465
▁актер	-11.8465
▁случайность	-11.8468
▁лишни	-11.8468
▁любимое	-11.8468
▁авторски	-11.847
▁интересовать	-11.8471
▁Холл	-11.8478
ist	-11.8479
▁бумажн	-11.848
▁боевы	-11.8482
▁поддерживаем	-11.8482
▁казн	-11.8482
▁армия	-11.8483
гибают	-11.8483
▁строили	-11.8484
▁загадка	-11.8485
▁разраста	-11.8487
▁обращения	-11.8487
▁предприяти	-11.8487
▁опозна	-11.8487
▁случивш	-11.8487
▁произвел	-11.8488
▁привлекательным	-11.849
▁истощен	-11.8492
▁француз	-11.8499
▁Сар	-11.8499
▁СПИДом	-11.85
▁столкновение	-11.8504
дарить	-11.8505
▁гибко	-11.8508
▁ферма	-11.8509
▁неудивительно	-11.8513
▁токсичны	-11.8514
▁подозревал	-11.8518
▁торт	-11.8521
Ж	-11.8522
▁соединен	-11.8522
▁мощ	-11.8522
▁избранны	-11.8522
▁страховани	-11.8524
▁мотивирова	-11.8524
▁подарк	-11.8525
▁оправдан	-11.8526
son	-11.8526
▁Врачи	-11.8529
одиночк	-11.853
▁Любов	-11.8535
▁танк	-11.8538
▁предоставляют	-11.8539
▁найдут	-11.8539
▁составит	-11.8541
школ	-11.8544
Джер	-11.8544
▁преподаю	-11.8549
▁пчел	-11.8549
▁медицинским	-11.855
▁сложить	-11.8551
▁простира	-11.8551
▁осознают	-11.8555
▁пунктов	-11.8555
▁страшн	-11.8559
кратно	-11.8559
▁фирма	-11.856
▁повторю	-11.8561
▁Ким	-11.8569
▁аналогов	-11.857
▁впечатляюще	-11.857
▁столкновени	-11.8571
▁автомобильны	-11.8572
▁планов	-11.8573
следования	-11.8576
▁подсчёта	-11.8578
▁лишил	-11.8579
▁удобрения	-11.858
▁термина	-11.8582
▁преступность	-11.8584
жав	-11.8585
носител	-11.8586
Mar	-11.8587
возят	-11.8588
▁напиш	-11.859
кур	-11.8592
▁Восточн	-11.8592
▁победа	-11.8596
▁защища	-11.8597
ставлял	-11.8597
▁питает	-11.8597
▁97	-11.8601
▁жестокост	-11.8607
▁объяснять	-11.8609
▁бунт	-11.861
▁поселени	-11.8617
АС	-11.862
▁стояще	-11.8622
▁космическ	-11.8626
▁чудовищ	-11.8626
▁силам	-11.8627
▁сотрудникам	-11.863
▁проявляют	-11.8631
▁имплантирова	-11.8631
▁обозначает	-11.8636
гри	-11.864
▁цар	-11.864
ймут	-11.864
▁луны	-11.8642
▁читател	-11.8643
▁заговор	-11.8643
▁рисую	-11.8646
▁колоссальны	-11.8647
▁парус	-11.8651
▁приказ	-11.8652
ag	-11.8654
судим	-11.8656
▁хлоп	-11.8658
▁оберну	-11.8663
ллер	-11.8664
▁танцевал	-11.8667
▁закрыто	-11.8668
▁Бали	-11.8668
▁жира	-11.8669
▁достигне	-11.8671
▁сняты	-11.8671
▁хаоса	-11.8673
▁принося	-11.8675
▁синтеза	-11.8675
▁серьезны	-11.8679
▁картон	-11.868
▁словаре	-11.8683
▁классическо	-11.8686
▁переменам	-11.8687
глядеть	-11.8695
▁располагает	-11.8696
▁лягушк	-11.8696
▁Пут	-11.8697
▁аренд	-11.87
▁ощущать	-11.8704
▁персонаже	-11.8706
▁Взглян	-11.8709
▁студенческ	-11.871
▁National	-11.871
▁Практически	-11.871
▁алфавит	-11.871
▁астронавт	-11.871
▁бухгалтер	-11.871
▁внимательны	-11.871
▁контрабанд	-11.871
▁организовыва	-11.871
▁отверстия	-11.871
▁отключа	-11.871
▁откровенно	-11.871
▁прокурор	-11.871
▁сероводород	-11.871
▁терапевт	-11.871
▁федеральны	-11.871
▁функционирует	-11.871
▁Исланди	-11.871
▁детёныш	-11.871
▁забываем	-11.871
▁капсул	-11.871
▁министерств	-11.871
▁недовери	-11.871
▁двоюродн	-11.871
▁синапс	-11.871
▁профиль	-11.871
▁холер	-11.871
▁волокон	-11.871
▁укрепля	-11.871
▁Норден	-11.871
▁дефект	-11.871
▁Голуб	-11.871
▁местонахождени	-11.871
▁акустическ	-11.871
▁контраст	-11.871
▁контур	-11.871
▁Олимпийск	-11.871
▁навязыва	-11.871
▁актуальны	-11.871
▁соотноси	-11.871
▁назову	-11.871
▁ракурс	-11.871
▁NAS	-11.871
сфотографировать	-11.871
▁увижу	-11.871
▁композитор	-11.871
▁сетево	-11.8711
▁колесо	-11.8711
▁озера	-11.8711
▁заверш	-11.8711
▁пришельц	-11.8711
▁страданий	-11.8712
▁тихи	-11.8712
▁притворя	-11.8712
▁забудь	-11.8712
ink	-11.8712
психопат	-11.8712
▁IP	-11.8712
▁МакК	-11.8713
▁Брюс	-11.8714
▁3000	-11.8714
▁Начн	-11.8714
▁расчет	-11.8715
▁оттенк	-11.8715
10	-11.8715
бьёт	-11.8715
▁строчк	-11.8716
▁решим	-11.8717
▁планирует	-11.8718
▁МР	-11.8721
▁обновлен	-11.8721
▁дроб	-11.8722
▁посещал	-11.8723
▁Слав	-11.8723
▁охотник	-11.8723
▁нефтяны	-11.8724
▁Al	-11.8724
▁взаимодействует	-11.8725
▁альтернативны	-11.8726
близнец	-11.8729
▁небеса	-11.8729
▁останавливаться	-11.873
▁комфорт	-11.8733
▁сравнил	-11.8733
▁Атлантик	-11.8733
▁Санта	-11.8733
ообразны	-11.8736
▁задала	-11.8737
▁рабочем	-11.8737
▁иммигрантов	-11.874
▁школьн	-11.874
▁зрелище	-11.8741
▁свиней	-11.8741
▁равновесие	-11.8743
▁приближени	-11.8743
▁владельца	-11.8744
▁стабильност	-11.8746
▁братьями	-11.8749
▁банков	-11.8753
si	-11.8754
▁девушкой	-11.8754
▁довело	-11.8755
▁подал	-11.8757
▁авиаци	-11.8759
толог	-11.8759
▁ловл	-11.8761
▁Измен	-11.8762
▁приезжа	-11.8764
▁дочк	-11.8765
▁краб	-11.8765
▁ловит	-11.8766
▁незаконн	-11.8767
▁подробнее	-11.8767
▁требующи	-11.8769
▁остану	-11.877
▁Англи	-11.8772
минутн	-11.8772
▁Центральн	-11.8774
▁выявлен	-11.8774
▁Слушай	-11.8778
▁преуспе	-11.8778
▁Кас	-11.8782
стают	-11.8783
▁записали	-11.8784
▁выраст	-11.8785
▁пчелы	-11.8786
▁бедностью	-11.8786
уровне	-11.8795
▁свидетеля	-11.8795
▁увлечён	-11.8798
▁безразлич	-11.88
▁предоставлен	-11.88
▁полицейск	-11.8801
инженер	-11.8802
▁громадны	-11.8803
▁Росс	-11.8806
шку	-11.8808
систем	-11.881
▁облегчи	-11.881
▁соглашения	-11.8813
красил	-11.8814
▁Сатурна	-11.8816
▁Стен	-11.8816
▁логически	-11.8817
ступления	-11.882
▁жажду	-11.882
▁предприятие	-11.8823
▁терпени	-11.8827
▁преуспели	-11.8831
▁соревнования	-11.8833
▁выставка	-11.8834
Лайн	-11.8835
▁Мам	-11.8835
▁приключения	-11.8836
60	-11.884
▁52	-11.8841
▁De	-11.8842
▁обучающ	-11.8843
▁отправим	-11.8846
▁опасным	-11.8846
▁Келл	-11.8849
▁популярных	-11.8853
▁благополучие	-11.8853
▁последовател	-11.8856
▁Порт	-11.8858
▁удобрени	-11.8858
дание	-11.8858
▁фигура	-11.886
▁высказыва	-11.8862
▁напечатан	-11.8863
▁учеб	-11.8863
▁землетрясение	-11.8863
модели	-11.8863
▁выступ	-11.8864
▁восстани	-11.8869
спр	-11.8873
▁Министерство	-11.8873
ализации	-11.8874
▁трущоба	-11.8877
▁соответствова	-11.8879
▁принимающи	-11.8881
будить	-11.8882
▁воспользу	-11.8885
рожден	-11.889
▁поступлени	-11.8891
▁щек	-11.8892
▁заразить	-11.8892
▁громадн	-11.8893
▁соль	-11.8894
▁ведом	-11.8895
▁золот	-11.8899
▁лобби	-11.89
рония	-11.8903
▁надежн	-11.8904
▁предупрежда	-11.8906
▁поднимать	-11.8906
▁повествовани	-11.8912
bo	-11.8914
▁кривы	-11.8917
▁остал	-11.8922
▁мук	-11.8924
▁раков	-11.8927
▁ощуща	-11.8928
▁создающи	-11.8928
▁некоммерчески	-11.8928
▁условиям	-11.893
ледует	-11.893
▁передает	-11.893
▁сдава	-11.8931
▁пятна	-11.8932
▁сотов	-11.8935
▁патентов	-11.8937
▁передово	-11.8937
▁преимуществ	-11.894
▁Основн	-11.8942
▁желт	-11.8944
▁Гос	-11.8945
потреблени	-11.8948
▁отправляли	-11.8948
▁эко	-11.895
ложения	-11.8952
▁близким	-11.8953
▁скрывает	-11.8953
▁обязательства	-11.8958
▁подавля	-11.8962
▁обитаю	-11.8964
▁управлени	-11.8964
▁партнёрств	-11.8965
▁ссыла	-11.8965
▁отмеч	-11.8968
метить	-11.897
▁46	-11.8972
очков	-11.8974
▁коровы	-11.8976
▁прилив	-11.8976
▁дистанци	-11.8981
▁сужден	-11.8986
орреспондент	-11.8987
продюсер	-11.8987
▁Джесси	-11.8987
▁Джефферсон	-11.8987
▁Микеланджело	-11.8987
▁Потрясающ	-11.8987
▁Публика	-11.8987
▁альпинист	-11.8987
▁аналитик	-11.8987
▁асфальт	-11.8987
▁восхитительны	-11.8987
▁гамбургер	-11.8987
▁глюкоз	-11.8987
▁диктатор	-11.8987
▁интерьер	-11.8987
▁комплект	-11.8987
▁наслаждени	-11.8987
▁пассивны	-11.8987
▁поджелудочн	-11.8987
▁профилактик	-11.8987
▁рассуждени	-11.8987
▁слизевик	-11.8987
▁догадк	-11.8987
▁наводнени	-11.8987
▁охлажда	-11.8987
▁принцесс	-11.8987
▁сестёр	-11.8987
▁Ситуаци	-11.8987
▁безработиц	-11.8987
▁здравы	-11.8987
▁монстр	-11.8987
▁очистк	-11.8987
▁помидор	-11.8987
▁немецки	-11.8987
▁удваива	-11.8987
▁неформальн	-11.8987
▁стакан	-11.8987
▁немецко	-11.8988
▁проституци	-11.8988
[...]
