<unk>	0
<s>	0
</s>	0
<pad>	0
▁,	-2.6971
▁.	-3.13885
е	-3.83409
▁в	-3.98789
и	-3.99728
▁и	-4.10041
▁	-4.27643
й	-4.35101
▁что	-4.46704
а	-4.51751
▁на	-4.64613
х	-4.67587
▁не	-4.683
▁с	-4.88884
ы	-4.91926
▁это	-4.97799
м	-4.99365
▁я	-5.0201
у	-5.06036
▁мы	-5.15014
ся	-5.19319
я	-5.30071
-	-5.30209
▁как	-5.37948
ть	-5.45283
▁И	-5.45698
▁—	-5.47983
▁:	-5.48177
▁по	-5.49748
;	-5.52739
го	-5.59186
▁&	-5.60471
ot	-5.61447
qu	-5.61846
▁?	-5.62642
▁из	-5.64771
▁вы	-5.66063
▁Я	-5.66063
ов	-5.67562
о	-5.70814
ю	-5.72414
▁Это	-5.79341
ом	-5.80152
▁о	-5.82444
▁к	-5.84442
т	-5.84796
«	-5.85197
▁»	-5.86048
▁для	-5.89222
▁у	-5.91704
▁за	-5.93645
ая	-5.97515
▁то	-5.98968
▁они	-6.01008
▁)	-6.0157
(	-6.01673
ой	-6.01979
▁В	-6.07919
ую	-6.09213
то	-6.11365
▁от	-6.11495
▁так	-6.1232
▁но	-6.14774
▁Но	-6.16869
▁Мы	-6.17796
▁чтобы	-6.18836
▁был	-6.19591
▁бы	-6.20978
ми	-6.24956
▁когда	-6.30969
▁он	-6.32506
▁а	-6.34147
▁или	-6.35319
▁же	-6.38182
▁их	-6.39311
▁было	-6.41327
▁эти	-6.42082
▁если	-6.42992
▁есть	-6.43183
▁все	-6.44356
▁очень	-6.471
▁которые	-6.47438
▁нас	-6.51363
▁меня	-6.5193
▁его	-6.51943
▁может	-6.55158
▁А	-6.56081
▁до	-6.60532
▁том	-6.62986
ли	-6.6468
▁мне	-6.66094
▁-	-6.67769
▁лет	-6.6994
ь	-6.71658
▁всё	-6.71679
▁Смех	-6.73018
▁только	-6.73697
ем	-6.75045
ами	-6.77667
▁С	-6.7878
▁нам	-6.84194
▁потому	-6.86033
▁людей	-6.86065
▁того	-6.86852
▁чем	-6.86895
▁больше	-6.87037
ей	-6.87675
▁просто	-6.87867
▁быть	-6.8832
в	-6.89596
▁вам	-6.90005
▁она	-6.91415
▁этого	-6.96531
▁при	-6.97442
▁Они	-6.98647
▁Так	-6.98902
▁который	-7.01668
лись	-7.01743
▁этом	-7.02615
▁раз	-7.02978
▁Он	-7.03258
▁где	-7.04333
▁об	-7.04789
▁На	-7.05248
▁У	-7.05359
▁ли	-7.0568
▁можно	-7.05874
▁вот	-7.06499
▁время	-7.06977
▁люди	-7.08817
▁была	-7.09723
▁более	-7.09966
▁вас	-7.10125
ого	-7.10376
▁ещё	-7.11971
ет	-7.1323
▁Вы	-7.13262
▁будет	-7.13468
▁Если	-7.13476
▁которо	-7.15588
ться	-7.15702
▁них	-7.16532
▁этот	-7.17861
▁её	-7.18642
л	-7.19105
▁под	-7.19786
▁со	-7.20351
▁–	-7.2102
с	-7.21343
.	-7.21781
▁Вот	-7.22473
сь	-7.22522
▁♫	-7.24291
▁Аплодисменты	-7.25316
▁во	-7.28103
те	-7.28118
▁уже	-7.28855
▁даже	-7.29092
▁нужно	-7.29374
ют	-7.29559
▁сделать	-7.30244
▁много	-7.3058
▁кто	-7.32659
▁Как	-7.32936
лось	-7.33437
▁жизни	-7.34119
но	-7.34185
▁можем	-7.35503
▁здесь	-7.3567
з	-7.36582
▁этой	-7.38595
▁тем	-7.38768
▁всего	-7.38848
ок	-7.3896
▁нет	-7.39005
▁себя	-7.3928
му	-7.39351
▁сейчас	-7.4183
ах	-7.42743
▁также	-7.44002
▁свое	-7.44649
▁один	-7.44649
▁сказал	-7.46552
ла	-7.47735
▁которая	-7.48089
▁про	-7.48296
д	-7.49541
▁!	-7.49714
▁Не	-7.50173
▁самом	-7.50445
▁могут	-7.50769
▁Что	-7.51212
▁Когда	-7.52217
ется	-7.52966
▁должны	-7.53234
▁По	-7.53579
▁думаю	-7.53837
ются	-7.54099
ка	-7.5505
▁всех	-7.56417
▁вопрос	-7.5672
▁деле	-7.58289
ная	-7.593
▁там	-7.59527
▁свои	-7.6091
ных	-7.61164
▁мир	-7.62256
ной	-7.62942
▁эту	-7.63329
▁назад	-7.63407
▁мое	-7.64159
ых	-7.64472
лась	-7.65667
ные	-7.65725
▁этим	-7.6655
хочу	-7.66558
за	-7.6662
▁Она	-7.66957
▁...	-7.67293
▁Итак	-7.68884
ки	-7.69281
▁через	-7.69288
▁ты	-7.69341
▁наш	-7.6996
▁Да	-7.71269
ен	-7.71444
▁%	-7.71541
▁К	-7.71839
ый	-7.72188
на	-7.72479
сти	-7.725
▁человек	-7.72776
▁себе	-7.73192
н	-7.73992
же	-7.74209
▁ни	-7.74639
ную	-7.75011
▁жизнь	-7.75971
ко	-7.76004
▁несколько	-7.76309
▁само	-7.76749
▁делать	-7.77528
▁которы	-7.77551
ло	-7.77905
▁лучше	-7.78955
▁после	-7.7957
пример	-7.79846
▁котор	-7.79873
▁день	-7.80075
▁Спасибо	-7.8068
▁года	-7.80745
▁мире	-7.80927
к	-7.81555
▁эта	-7.82245
▁году	-7.82369
ный	-7.82652
▁друг	-7.83241
▁им	-7.83442
▁действительно	-7.83507
▁времени	-7.84603
ые	-7.85805
чи	-7.86958
▁без	-7.88558
▁между	-7.88623
▁над	-7.89291
▁возможно	-7.9079
ам	-7.90805
▁хотел	-7.91077
▁сегодня	-7.91877
▁образом	-7.92279
▁происходит	-7.93203
▁некоторы	-7.9397
▁каждый	-7.93986
ного	-7.96549
▁сказать	-7.97089
▁тех	-7.97604
1	-7.97909
▁почему	-7.98428
▁момент	-7.98529
▁видит	-7.98711
▁два	-7.99054
▁именно	-8.00097
▁является	-8.00385
▁Е	-8.00566
▁одна	-8.01226
▁других	-8.01477
▁теперь	-8.01863
▁10	-8.01941
▁могли	-8.01945
▁человека	-8.02044
ти	-8.0215
▁детей	-8.02331
▁пол	-8.02537
▁всегда	-8.02866
▁мои	-8.02872
▁да	-8.03011
▁То	-8.03383
▁знаю	-8.03484
юсь	-8.03494
▁Поэтому	-8.03745
п	-8.04247
р	-8.04376
▁никогда	-8.04529
▁вместе	-8.04699
▁часть	-8.05187
▁нашей	-8.05301
▁пример	-8.05789
▁наши	-8.05882
▁год	-8.06103
▁те	-8.06268
▁будут	-8.08034
▁мой	-8.08203
▁пока	-8.08862
либо	-8.08943
вою	-8.09482
лся	-8.09872
▁тогда	-8.10445
▁использовать	-8.1231
▁Мне	-8.12492
▁такие	-8.12593
▁говорил	-8.13027
▁три	-8.13156
▁такой	-8.13225
г	-8.13945
▁вещи	-8.13992
▁могу	-8.14191
▁важно	-8.14418
▁тысяч	-8.15318
▁О	-8.15358
▁пере	-8.1538
▁лишь	-8.15408
▁Одна	-8.15881
▁другой	-8.16201
ешь	-8.1748
▁тот	-8.17598
▁потом	-8.18258
▁наших	-8.19244
▁него	-8.19471
▁ничего	-8.20372
▁немного	-8.20658
ку	-8.2127
▁США	-8.21285
▁затем	-8.21293
▁таким	-8.21698
▁говорит	-8.21997
ое	-8.22135
▁Теперь	-8.22925
▁хорошо	-8.23074
▁мира	-8.23115
ным	-8.23281
▁истории	-8.2339
знаем	-8.23622
▁перед	-8.24161
▁понять	-8.24214
▁конечно	-8.24382
сть	-8.2473
▁таких	-8.2474
ым	-8.24786
▁миллион	-8.25106
еще	-8.25116
▁последни	-8.25174
▁около	-8.25549
▁проблема	-8.25578
▁начал	-8.25935
ст	-8.26866
▁знаете	-8.27431
▁;	-8.27598
▁одной	-8.28546
▁способ	-8.28695
▁П	-8.29045
▁другие	-8.29373
▁оно	-8.30067
▁разны	-8.30218
▁поэтому	-8.30235
▁такое	-8.30304
▁чего	-8.30804
▁долларов	-8.31542
▁20	-8.31899
▁З	-8.31952
▁наше	-8.31998
▁место	-8.32577
▁помощью	-8.32611
▁снова	-8.32637
ра	-8.32756
▁ему	-8.33184
▁Все	-8.33294
▁&#9	-8.33298
▁идея	-8.33385
▁возможность	-8.33413
▁найти	-8.33527
▁&#93;	-8.33537
▁000	-8.33755
▁новы	-8.34154
▁Для	-8.34437
▁создать	-8.34502
▁которым	-8.3461
та	-8.35116
▁проблемы	-8.35123
ж	-8.35338
ное	-8.35678
▁сам	-8.35683
сколько	-8.36603
▁Потому	-8.36912
▁случае	-8.38324
▁работы	-8.38551
▁результат	-8.3912
да	-8.39399
▁процесс	-8.39725
емся	-8.39882
ейчас	-8.40434
нибудь	-8.40921
▁моя	-8.40996
тся	-8.41028
▁Почему	-8.41179
▁данные	-8.41444
▁первы	-8.41527
▁работает	-8.41564
▁пор	-8.42268
▁каждо	-8.42455
▁имеет	-8.42541
▁достаточно	-8.43066
▁работа	-8.43228
▁течение	-8.43305
▁всем	-8.43729
▁почти	-8.44337
▁работать	-8.44365
▁Нам	-8.44382
▁ответ	-8.44687
▁проект	-8.44732
▁увидеть	-8.45321
▁должен	-8.45411
▁надо	-8.45411
▁значит	-8.45675
▁ее	-8.45678
ны	-8.46007
▁технологии	-8.46722
▁мог	-8.47169
▁пыта	-8.47294
▁котором	-8.47306
ма	-8.47313
▁мозга	-8.47874
▁одно	-8.47965
▁количество	-8.47971
▁Эти	-8.48307
▁работу	-8.48427
▁многие	-8.48893
▁ваш	-8.48974
▁двух	-8.49221
▁кажет	-8.49454
▁какой	-8.49503
огда	-8.49965
▁стали	-8.50338
▁За	-8.5057
▁весь	-8.51062
▁Давайте	-8.51068
▁больш	-8.51319
▁людям	-8.51922
▁меньше	-8.52145
ля	-8.52285
▁видим	-8.52375
▁показать	-8.52415
▁делает	-8.52688
ч	-8.52778
ни	-8.52865
▁групп	-8.52949
▁ваше	-8.53005
▁мозг	-8.53473
▁часто	-8.53582
▁Мо	-8.53617
▁прямо	-8.54491
ш	-8.54549
ф	-8.55544
▁этому	-8.55644
▁дело	-8.55667
▁Во	-8.55762
▁изменить	-8.55844
▁всему	-8.56205
▁своё	-8.56346
га	-8.5659
▁совершенно	-8.5678
▁Ну	-8.56814
▁быстро	-8.57185
округ	-8.5748
▁свой	-8.57863
▁слишком	-8.58402
тоже	-8.58404
ри	-8.58414
▁необходимо	-8.58463
▁смысл	-8.58659
▁женщин	-8.5866
ва	-8.58906
ру	-8.5898
ясь	-8.58991
▁Нет	-8.58994
▁говорить	-8.59079
ль	-8.59303
▁совсем	-8.59404
▁ко	-8.59451
▁любо	-8.59734
▁ведь	-8.59757
▁одного	-8.59904
▁система	-8.59941
▁стал	-8.59947
▁тут	-8.59988
ди	-8.60556
▁собой	-8.60655
▁ряд	-8.60766
ё	-8.60926
▁примерно	-8.60989
▁системы	-8.61174
▁стать	-8.61342
▁Д	-8.61549
ния	-8.61597
▁страны	-8.61649
▁две	-8.62026
▁видеть	-8.62241
▁довольно	-8.62346
▁начали	-8.62363
▁миру	-8.62585
роде	-8.62858
a	-8.62924
▁форм	-8.63075
▁многих	-8.63526
▁части	-8.63628
десь	-8.64005
▁своим	-8.64047
▁буду	-8.64163
▁Эта	-8.64536
▁3	-8.64651
▁сделали	-8.64916
▁проблем	-8.65146
место	-8.65197
▁2	-8.65204
▁внимание	-8.65446
▁сами	-8.65983
▁говорят	-8.66095
ыми	-8.66457
▁Всё	-8.66706
▁причин	-8.66714
▁информации	-8.66818
хотим	-8.66958
▁подумал	-8.67275
▁видео	-8.67488
▁конце	-8.67535
ном	-8.6762
▁стоит	-8.67994
ан	-8.68059
столько	-8.68081
▁обычно	-8.68211
▁внутри	-8.68496
▁ин	-8.68503
▁существует	-8.68595
▁делают	-8.68659
▁история	-8.68665
▁дома	-8.69164
▁новые	-8.69485
ин	-8.69533
▁различны	-8.69561
▁стороны	-8.69718
▁Ес	-8.69816
▁получить	-8.70201
ными	-8.7035
▁100	-8.70748
▁сделал	-8.7133
▁самых	-8.71537
▁находит	-8.71784
ностью	-8.72424
▁должно	-8.72458
▁людьми	-8.72556
▁данных	-8.72793
▁начала	-8.72875
ние	-8.73158
▁сильно	-8.73255
ями	-8.73508
▁энергии	-8.73586
▁рассказать	-8.73924
▁дети	-8.7413
▁историю	-8.74396
▁решения	-8.74413
означает	-8.74509
▁особенно	-8.74912
▁При	-8.75456
▁Сегодня	-8.75676
▁30	-8.75814
▁ним	-8.75892
менее	-8.76115
▁всю	-8.76488
ёт	-8.7653
▁хотя	-8.76982
ев	-8.77
▁50	-8.77184
▁Люд	-8.77196
▁создал	-8.77239
▁становит	-8.77295
▁важны	-8.77469
▁одну	-8.7777
▁основ	-8.7787
▁слова	-8.7814
▁Нью	-8.78386
▁называет	-8.78615
▁чём	-8.78718
▁города	-8.79044
б	-8.79168
▁друга	-8.79769
▁неё	-8.79883
▁перво	-8.79986
▁компании	-8.80074
▁постоянно	-8.80087
▁точно	-8.80111
▁места	-8.80222
ле	-8.8032
▁рост	-8.80345
▁факт	-8.80786
▁ново	-8.80983
▁исследования	-8.81102
▁свет	-8.81388
▁компьютер	-8.81691
▁TED	-8.81701
▁увидел	-8.81834
▁вид	-8.81903
▁большой	-8.8204
ически	-8.8215
▁помоч	-8.82227
▁кого	-8.824
▁деньги	-8.82642
▁представить	-8.82806
ре	-8.82907
не	-8.8298
▁благодаря	-8.83036
▁возможности	-8.83119
▁Э	-8.83632
▁воды	-8.83758
▁зрения	-8.84069
▁процент	-8.84148
▁ник	-8.84209
▁Конечн	-8.846
▁понял	-8.84648
▁эксперимент	-8.84951
▁стран	-8.85604
▁мере	-8.85651
▁начинает	-8.85659
▁начать	-8.8567
▁опыт	-8.85677
▁точки	-8.85792
▁стало	-8.8615
▁оказа	-8.86375
▁говорю	-8.86477
▁будем	-8.86734
▁иметь	-8.86742
▁минут	-8.87018
▁женщины	-8.87037
▁рас	-8.87121
▁та	-8.87169
▁технологи	-8.87334
▁горазд	-8.879
▁такого	-8.87919
▁сказала	-8.8797
▁множество	-8.88008
▁информацию	-8.88119
▁5	-8.88165
e	-8.88204
ор	-8.88476
▁♪	-8.88534
жи	-8.88553
▁сможем	-8.88569
▁решение	-8.88672
▁Таким	-8.89185
▁спросил	-8.89431
▁большинство	-8.89507
▁должна	-8.89509
▁сложно	-8.89624
до	-8.89655
▁Б	-8.89694
▁против	-8.89795
па	-8.89824
вер	-8.89863
▁самы	-8.89987
▁1	-8.90174
ты	-8.90255
▁вещей	-8.90273
▁мной	-8.90422
▁выбор	-8.90461
▁Может	-8.90588
▁работаю	-8.91045
▁дела	-8.9135
он	-8.91576
▁изменения	-8.91587
▁4	-8.91665
▁идеи	-8.91938
▁телефон	-8.92109
первы	-8.92252
ят	-8.92394
▁нашем	-8.92475
▁туда	-8.92481
▁перв	-8.92619
ша	-8.92792
▁15	-8.92801
ём	-8.9288
▁сколько	-8.92912
▁систему	-8.93026
▁жить	-8.93053
▁программ	-8.93177
▁взять	-8.93224
йти	-8.93244
▁спасибо	-8.93361
▁выглядит	-8.93512
▁ними	-8.94066
от	-8.94183
▁следующи	-8.94388
▁интересно	-8.94491
▁знал	-8.94627
▁размер	-8.9474
▁нечто	-8.94828
▁намного	-8.94834
по	-8.94959
▁помощи	-8.94974
▁раньше	-8.94974
▁странах	-8.95013
▁буд	-8.95014
▁посмотреть	-8.95122
▁стране	-8.95137
▁вообще	-8.95419
▁вами	-8.95454
▁слово	-8.95756
▁нравит	-8.95799
▁Мож	-8.95815
▁лучши	-8.95878
▁куда	-8.96112
▁считаю	-8.96181
▁клетки	-8.96223
▁нужны	-8.96269
▁ваши	-8.96394
▁другом	-8.96508
▁Или	-8.96862
ду	-8.97353
▁делаем	-8.9754
s	-8.97725
вляются	-8.97777
▁думать	-8.97801
▁хотят	-8.97841
ец	-8.97916
▁Хорошо	-8.98158
▁моё	-8.98304
▁закон	-8.9842
▁ей	-8.98427
▁имеют	-8.98482
тебя	-8.986
▁пути	-8.98759
▁мест	-8.98824
▁произошло	-8.98968
дальше	-8.99789
▁какие	-8.99838
би	-9.00105
▁звук	-9.00267
тор	-9.00341
▁ответил	-9.00369
▁стала	-9.00409
▁инструмент	-9.00863
▁смогл	-9.00977
▁дня	-9.01072
▁месяцев	-9.0156
▁Кто	-9.01729
▁нами	-9.01991
▁друго	-9.02025
▁итог	-9.02087
▁думал	-9.02168
▁области	-9.02653
▁спустя	-9.02663
▁Зате	-9.0271
▁Т	-9.02778
ал	-9.03
▁бизнес	-9.03482
▁видели	-9.0357
▁вопросы	-9.03572
▁Возможно	-9.03615
▁мало	-9.03709
▁От	-9.03795
▁40	-9.03924
▁месте	-9.03944
менно	-9.03992
▁уровень	-9.04287
▁занима	-9.04341
▁приходит	-9.04354
▁нов	-9.04373
бо	-9.04488
▁невероятно	-9.04901
или	-9.04914
▁оста	-9.04983
▁структур	-9.05272
▁подход	-9.05602
▁кажд	-9.05624
ке	-9.05627
▁узна	-9.05724
▁крайне	-9.05909
ком	-9.05925
▁среди	-9.06104
▁огромно	-9.06141
▁уровне	-9.06325
▁зале	-9.06384
ши	-9.06449
▁животных	-9.06565
ту	-9.06633
▁город	-9.06709
▁четыре	-9.0691
ость	-9.06923
▁легко	-9.0723
▁Ты	-9.07313
▁плохо	-9.07323
э	-9.07326
▁До	-9.07418
▁самым	-9.07495
▁населения	-9.076
▁знать	-9.07715
▁ДНК	-9.07727
▁большое	-9.07787
ости	-9.07899
▁рода	-9.08082
шего	-9.08123
▁Тогда	-9.08254
▁цвет	-9.0861
▁тела	-9.08614
ще	-9.08621
▁думает	-9.08624
▁защит	-9.08707
▁кое	-9.0874
▁работал	-9.08744
▁Ф	-9.08758
▁хотите	-9.0891
▁пять	-9.0904
▁смерт	-9.09111
▁взгляд	-9.09112
▁человеческо	-9.09119
▁маленьки	-9.09283
▁денег	-9.09592
▁одним	-9.09692
об	-9.09726
▁пару	-9.09738
o	-9.10071
смотря	-9.10194
▁вещь	-9.10278
▁карт	-9.103
▁решил	-9.10359
▁будущем	-9.10458
▁долго	-9.1058
ил	-9.10665
▁создания	-9.10834
▁общества	-9.10915
▁второ	-9.11264
▁М	-9.11428
▁решили	-9.11554
▁океан	-9.1156
могла	-9.11582
ющие	-9.11739
▁После	-9.11849
ющих	-9.11855
▁Из	-9.11883
лен	-9.12266
льзя	-9.12282
▁модель	-9.12285
▁войн	-9.12566
▁Один	-9.12729
ющий	-9.13157
▁появи	-9.13401
▁никак	-9.13575
▁наконец	-9.13606
▁подобны	-9.1361
▁развития	-9.13635
ставить	-9.13821
говорим	-9.13954
▁экономик	-9.13965
▁т	-9.14
ическ	-9.14049
ности	-9.14163
▁Африке	-9.14394
▁другим	-9.145
▁фильм	-9.14526
▁прошлом	-9.14626
▁Индии	-9.14681
▁давайте	-9.14868
▁сред	-9.15066
▁число	-9.15151
▁часов	-9.15255
▁идёт	-9.15405
▁связи	-9.15414
ски	-9.15425
▁путь	-9.15451
▁нашим	-9.15457
дать	-9.15614
йте	-9.15666
▁абсолютно	-9.15672
▁используют	-9.15734
са	-9.16112
▁правд	-9.16234
▁Большо	-9.16285
▁уда	-9.16398
▁миллиардов	-9.16883
▁равно	-9.1689
▁будущее	-9.17053
▁Там	-9.17067
▁уверен	-9.17072
бы	-9.1723
▁Представь	-9.17233
▁работе	-9.17674
что	-9.178
▁социальны	-9.17837
▁частью	-9.17925
▁виду	-9.17944
▁б	-9.18037
▁Некоторы	-9.18219
▁6	-9.18224
нию	-9.1823
нём	-9.18242
▁источник	-9.18259
▁г	-9.18592
▁Кажды	-9.18625
ён	-9.18736
зи	-9.18815
етесь	-9.18865
ков	-9.19044
▁ту	-9.19045
▁наибол	-9.19099
▁сети	-9.19266
ци	-9.19747
▁одном	-9.19767
▁руки	-9.19968
▁называем	-9.20153
▁дней	-9.20309
▁правильно	-9.20382
▁использовани	-9.20753
▁голов	-9.20856
▁лаборатори	-9.2088
че	-9.20901
тер	-9.21178
▁знает	-9.21408
ро	-9.21728
▁такая	-9.21922
▁говоря	-9.21937
ча	-9.2202
▁Чтоб	-9.22071
▁известно	-9.22077
▁18	-9.22141
▁состоит	-9.22177
▁Музыка	-9.22298
ар	-9.2239
▁позволяет	-9.22576
▁сразу	-9.22831
мер	-9.22937
▁знали	-9.22954
▁пришлось	-9.2315
▁центр	-9.23221
▁имею	-9.23234
▁другими	-9.2339
▁невозможно	-9.23915
▁сотн	-9.24274
▁Многи	-9.2451
▁создавать	-9.24526
▁машины	-9.24666
али	-9.24728
ну	-9.24857
ижу	-9.24934
стати	-9.24944
ось	-9.25
▁Ин	-9.25041
▁чувство	-9.25145
▁права	-9.25192
бер	-9.25264
i	-9.25387
▁глаза	-9.25452
▁видов	-9.25481
▁сама	-9.2556
▁интернет	-9.25707
▁гор	-9.2574
▁фотографии	-9.25919
▁дом	-9.25976
▁трудно	-9.26093
▁полно	-9.26095
▁скорее	-9.26323
ность	-9.2649
во	-9.26643
про	-9.26754
кой	-9.26814
▁собственны	-9.26976
▁похоже	-9.27049
▁движение	-9.27074
▁период	-9.27139
▁решить	-9.27149
▁сил	-9.27182
▁язык	-9.27307
ник	-9.27456
▁Х	-9.27471
▁покажу	-9.27475
▁протяжени	-9.27566
▁прав	-9.27654
▁проблему	-9.27695
▁обратно	-9.27698
▁образование	-9.27713
▁Р	-9.27734
▁самые	-9.27757
▁нейрон	-9.27844
▁вернуть	-9.27865
▁шаг	-9.28183
▁домой	-9.28223
си	-9.28372
▁свобод	-9.28426
▁Оно	-9.28445
тебе	-9.28491
▁заключается	-9.2858
▁типа	-9.28634
▁станет	-9.28736
▁S	-9.29047
▁Про	-9.29057
ги	-9.29105
ение	-9.29326
▁движения	-9.29345
▁бо	-9.29534
▁речь	-9.29648
▁школу	-9.2982
▁семьи	-9.29947
▁каким	-9.30049
▁мужчин	-9.30083
r	-9.30139
▁мою	-9.30184
▁качестве	-9.30338
▁следует	-9.30509
▁сут	-9.30615
▁Мой	-9.30625
▁собственно	-9.30954
▁практически	-9.31112
▁дизайн	-9.31173
овать	-9.31226
▁цел	-9.31488
▁используем	-9.317
▁Меня	-9.31715
▁модели	-9.31733
▁далеко	-9.31793
ба	-9.31963
▁”	-9.32142
▁де	-9.32206
▁группа	-9.32475
ста	-9.32513
▁используя	-9.32579
▁однажды	-9.32597
▁связь	-9.32787
▁даёт	-9.3279
▁цели	-9.32834
▁названием	-9.32841
▁нескольки	-9.3306
ись	-9.33233
▁голос	-9.33268
2	-9.33312
▁хороши	-9.33333
▁уж	-9.33552
▁зна	-9.33625
▁пред	-9.33671
ер	-9.33683
ство	-9.33749
▁планеты	-9.33937
▁сигнал	-9.34016
ому	-9.34102
▁посмотрим	-9.34114
▁уровня	-9.34184
▁поскольк	-9.34201
▁небольшо	-9.34254
▁женщина	-9.34257
▁роль	-9.34314
вая	-9.34866
едь	-9.35042
▁увидите	-9.35157
▁понима	-9.35346
▁Вам	-9.35676
давно	-9.35829
▁доступ	-9.35847
▁культур	-9.36026
▁прежде	-9.36078
▁способны	-9.36308
▁цель	-9.36324
▁хотела	-9.36504
▁моим	-9.3652
гра	-9.3669
ше	-9.3682
▁мысли	-9.36901
ры	-9.36931
▁общество	-9.36973
▁причина	-9.37186
ц	-9.37259
▁12	-9.37279
▁план	-9.37294
▁Ш	-9.37346
ятся	-9.37474
пл	-9.37492
▁интерес	-9.37574
▁Был	-9.37578
▁ночь	-9.37586
▁обнаружили	-9.37587
▁планете	-9.37627
▁безопасности	-9.37666
щё	-9.38001
лю	-9.38076
▁идею	-9.38109
▁25	-9.38219
ходить	-9.38244
▁образ	-9.38252
жа	-9.38359
▁каждом	-9.38401
▁отношения	-9.38416
ировать	-9.38453
▁случилось	-9.3846
друг	-9.38583
▁книги	-9.38601
ской	-9.38733
▁правительство	-9.38789
первых	-9.38865
▁хочет	-9.38968
▁сюда	-9.3906
ения	-9.39099
▁света	-9.39128
▁чему	-9.39357
ров	-9.39709
▁воздух	-9.3977
▁Г	-9.39808
▁обо	-9.39834
▁выше	-9.39933
▁кем	-9.40405
▁поговорить	-9.40671
▁дале	-9.4076
▁последне	-9.4084
▁прекрасно	-9.40981
▁разговор	-9.4103
▁концов	-9.41297
оду	-9.41329
вал	-9.41338
▁хороше	-9.41425
▁ситуаци	-9.41441
▁века	-9.41454
ня	-9.41466
▁готовы	-9.41508
чу	-9.41609
стро	-9.41842
▁Наш	-9.42213
▁наде	-9.42239
y	-9.42262
живут	-9.42414
▁половин	-9.42452
▁вариант	-9.4247
▁местах	-9.4247
t	-9.42517
▁значение	-9.42656
ась	-9.42763
▁видел	-9.42792
▁понимает	-9.42924
▁теори	-9.42942
▁трёх	-9.42998
▁реально	-9.43187
▁класс	-9.43211
▁здания	-9.43243
ходят	-9.43276
▁получил	-9.43352
▁самого	-9.43547
▁годы	-9.43736
▁19	-9.43775
▁цен	-9.43865
▁семь	-9.43887
сс	-9.43926
▁природ	-9.44022
▁помощь	-9.4413
▁социально	-9.44135
▁принцип	-9.44138
▁вероятно	-9.44209
▁нужна	-9.44417
▁большие	-9.44445
гу	-9.44528
▁исследование	-9.44644
▁масштаб	-9.44715
ос	-9.4485
вших	-9.4506
▁результаты	-9.4509
▁столько	-9.45118
▁право	-9.45156
дер	-9.45206
▁вниз	-9.45239
вы	-9.45351
▁пространство	-9.45389
люблю	-9.45404
▁болезн	-9.45407
▁исследований	-9.45458
▁сфер	-9.45476
5	-9.45765
ек	-9.45869
▁Земле	-9.4589
думаем	-9.46047
▁расскажу	-9.46166
▁основном	-9.46236
▁Америк	-9.46395
▁8	-9.46443
▁написал	-9.46601
▁находятся	-9.46765
вести	-9.46884
де	-9.46936
ща	-9.46998
тель	-9.47041
▁фото	-9.47064
▁начинают	-9.47084
▁Очень	-9.47147
▁Знает	-9.47191
▁политик	-9.47261
▁остальны	-9.47329
▁тело	-9.47423
бр	-9.47464
▁нуж	-9.47504
кс	-9.4751
▁образования	-9.47586
▁11	-9.47657
▁пар	-9.47842
▁быстрее	-9.47905
ёр	-9.47954
▁границ	-9.48036
▁делали	-9.48154
▁верну	-9.48211
▁организации	-9.48216
ющей	-9.48277
▁иначе	-9.4834
▁больши	-9.48432
▁матери	-9.48491
▁окружающе	-9.48503
▁Ко	-9.48682
настоящему	-9.48717
хотелось	-9.48787
▁смотреть	-9.48905
▁показывает	-9.48973
▁провел	-9.49145
▁молоды	-9.49174
▁Со	-9.49208
лько	-9.49302
▁игра	-9.49316
Р	-9.49435
ющая	-9.4947
▁отец	-9.49537
▁Потом	-9.49561
др	-9.49568
▁слышали	-9.49574
▁человечески	-9.49587
▁доби	-9.49638
▁эффект	-9.49658
су	-9.4966
сто	-9.49916
▁Интернет	-9.49927
▁реальность	-9.49957
цы	-9.50037
▁большим	-9.5005
▁Просто	-9.50266
▁шесть	-9.50539
▁метров	-9.50558
мен	-9.50673
ман	-9.50733
▁здорово	-9.50752
▁поведение	-9.50835
▁слов	-9.51054
▁задач	-9.51091
▁поверхности	-9.51155
думать	-9.51183
▁попросил	-9.51213
▁ген	-9.51229
▁Второ	-9.51268
▁действия	-9.51382
▁60	-9.51423
▁клеток	-9.51473
▁собира	-9.51482
▁миллиона	-9.51606
▁часа	-9.51687
Йорк	-9.51722
ите	-9.51805
▁штат	-9.51879
▁школе	-9.5188
▁сможет	-9.51917
чен	-9.51967
▁7	-9.52046
▁высоко	-9.52131
▁посмотрите	-9.52264
▁зон	-9.52276
ью	-9.5236
▁машин	-9.5238
М	-9.52405
▁словами	-9.52638
▁главно	-9.52648
▁развитие	-9.52672
▁силы	-9.52695
▁буквально	-9.52797
▁Позволь	-9.53046
▁200	-9.5305
▁сравнени	-9.53069
▁круг	-9.53101
▁вес	-9.5313
▁степени	-9.53163
▁технология	-9.53236
▁страх	-9.53297
▁КА	-9.53354
▁возника	-9.53498
▁становят	-9.53731
▁ре	-9.53905
▁целы	-9.54014
прав	-9.54125
▁нашли	-9.54175
▁виде	-9.54187
▁сеть	-9.54586
▁решени	-9.54856
ает	-9.54909
ства	-9.54927
▁сторону	-9.5499
▁Л	-9.55003
▁смог	-9.55049
▁большинств	-9.55186
▁заметил	-9.55213
▁настоящи	-9.55293
▁игры	-9.55398
▁природы	-9.55459
лу	-9.55464
▁рука	-9.55548
▁компания	-9.55599
▁успех	-9.55603
А	-9.55641
▁системе	-9.55663
▁риск	-9.55751
▁проекта	-9.55762
пи	-9.55795
▁рак	-9.55831
▁общем	-9.55852
▁ребёнка	-9.56014
ских	-9.56061
▁мысль	-9.5627
▁придёт	-9.56271
ский	-9.56304
▁получили	-9.56326
▁видно	-9.56431
▁поняли	-9.56497
жды	-9.56656
ик	-9.56682
▁Об	-9.57092
▁вода	-9.57382
▁опять	-9.57391
▁задача	-9.57877
ского	-9.58039
▁сторон	-9.58158
▁Google	-9.58196
▁одновременно	-9.58199
▁мужчины	-9.58331
▁лес	-9.58348
▁счёт	-9.5837
▁изменени	-9.58426
▁дел	-9.5851
▁имени	-9.58571
▁ну	-9.5868
ирует	-9.58684
иться	-9.587
▁вер	-9.58723
▁Думаю	-9.58817
▁рака	-9.58835
▁удивительно	-9.59038
▁эволюци	-9.5906
▁школы	-9.59091
▁метод	-9.59119
▁таком	-9.59161
чувствовать	-9.59164
▁рассказал	-9.59214
▁объясни	-9.59264
▁сын	-9.59275
▁начало	-9.59296
▁пришли	-9.59316
▁C	-9.59377
▁ресурс	-9.59416
вали	-9.59457
▁похожи	-9.59564
▁человеком	-9.59599
▁Крис	-9.5962
▁смех	-9.59856
▁Земли	-9.59861
▁способность	-9.599
дут	-9.59974
правда	-9.60005
▁глаз	-9.60138
могут	-9.60174
думайте	-9.60175
▁изображение	-9.6025
▁доход	-9.60253
▁кому	-9.60264
▁Ник	-9.60288
▁фотография	-9.60455
▁включа	-9.60498
▁вида	-9.60513
▁ма	-9.60598
▁вирус	-9.60641
▁Африки	-9.60703
▁интересны	-9.60819
ющихся	-9.60964
▁идей	-9.61097
▁построить	-9.61119
▁значительно	-9.61193
▁лицо	-9.61194
▁Америке	-9.61236
▁состоянии	-9.61284
▁Первы	-9.61289
▁мама	-9.6134
▁устройство	-9.61415
▁шанс	-9.61532
▁кроме	-9.61887
овые	-9.61895
▁климата	-9.62027
▁средства	-9.62043
▁использовали	-9.62049
▁разниц	-9.6217
▁вверх	-9.62204
вёл	-9.62235
▁миллиарда	-9.62263
▁появля	-9.62354
▁известны	-9.62357
стью	-9.6243
▁орган	-9.62635
делиться	-9.62671
верить	-9.62691
кажем	-9.63007
▁Видео	-9.63042
▁скоро	-9.63143
шь	-9.63233
▁лично	-9.63289
▁лица	-9.63307
▁руку	-9.63314
▁силу	-9.6342
▁тво	-9.6344
ел	-9.63657
▁ситуация	-9.6368
▁пяти	-9.63681
▁график	-9.63722
▁тюрьм	-9.63801
▁организаци	-9.63889
▁ВИЧ	-9.6392
▁маленькие	-9.64151
▁принять	-9.64277
ды	-9.64288
▁влияние	-9.64351
▁здание	-9.64353
▁поиска	-9.64361
овой	-9.64395
▁сердце	-9.64403
▁Нужн	-9.64414
▁рынк	-9.64414
▁80	-9.64445
▁высот	-9.6449
▁ж	-9.64528
▁называют	-9.64638
▁Те	-9.64659
▁представляет	-9.64812
D	-9.6489
▁каза	-9.64906
▁сила	-9.64949
▁скажу	-9.6495
▁очевидно	-9.64961
мню	-9.65065
▁чуть	-9.65088
▁создание	-9.65249
▁член	-9.65609
▁предмет	-9.65704
йтесь	-9.65879
▁огромн	-9.65885
▁ф	-9.65936
▁пре	-9.65994
нее	-9.66074
К	-9.66136
▁времена	-9.66177
▁глубоко	-9.66215
▁касает	-9.66232
▁узнал	-9.66272
кр	-9.66315
▁вывод	-9.66346
▁друзей	-9.66607
▁материал	-9.66608
лет	-9.66636
▁сожалению	-9.6664
▁Ма	-9.66662
▁A	-9.66735
▁машина	-9.66743
▁получает	-9.66988
▁месяц	-9.67
ишь	-9.6701
вшие	-9.67103
́	-9.67214
▁какое	-9.67273
▁идее	-9.67359
▁Посмотрите	-9.67523
▁пут	-9.67619
ний	-9.67743
▁приводит	-9.67773
▁любом	-9.67857
ска	-9.67905
▁виды	-9.68072
▁явля	-9.68229
▁считают	-9.68252
▁продолжать	-9.68412
▁центре	-9.68459
нии	-9.68516
▁бедны	-9.68603
▁сначала	-9.68636
▁пользу	-9.68737
▁угодно	-9.68747
▁недель	-9.68749
▁существую	-9.6876
чь	-9.68802
▁произойд	-9.68849
писать	-9.68903
▁использует	-9.69118
▁голову	-9.69153
▁ради	-9.69193
ол	-9.69235
▁фактически	-9.69404
▁наверное	-9.69405
▁леса	-9.69529
▁случая	-9.69545
▁Сан	-9.69784
▁создаёт	-9.69791
u	-9.69815
▁ранее	-9.69844
▁миллиард	-9.69859
▁правительства	-9.69913
▁целом	-9.69942
9	-9.69992
▁пытаемся	-9.70135
ющее	-9.70271
▁родители	-9.70307
▁курс	-9.70317
▁представление	-9.70335
▁труд	-9.70569
▁власти	-9.7061
▁инноваци	-9.70628
нести	-9.70631
жу	-9.70635
▁искусства	-9.70797
▁Их	-9.70995
чик	-9.71022
▁океана	-9.71103
▁думали	-9.71175
▁недостаточно	-9.71222
▁любовь	-9.71254
▁болезнь	-9.71268
▁обща	-9.71277
сон	-9.7129
▁проблемой	-9.71333
▁рассказыва	-9.71346
▁G	-9.71386
▁знания	-9.71388
▁тип	-9.71485
▁музык	-9.71532
▁необходимы	-9.71581
▁магазин	-9.71594
▁заниматься	-9.71723
▁тест	-9.71726
S	-9.71732
дел	-9.71771
ис	-9.71837
▁Где	-9.71899
▁живёт	-9.72029
▁любим	-9.72032
▁лечения	-9.72046
▁возможностей	-9.72229
▁книгу	-9.72459
▁Большинство	-9.72538
нный	-9.72546
c	-9.72703
▁получается	-9.72727
▁момента	-9.72728
▁делаю	-9.7275
▁отношени	-9.72752
▁код	-9.72826
er	-9.72836
▁политически	-9.72852
▁километров	-9.72895
▁прекрасны	-9.73017
▁неделю	-9.73175
вин	-9.73214
▁экономически	-9.73223
▁9	-9.73226
▁кажды	-9.73291
▁условиях	-9.7338
▁стол	-9.73404
▁улучши	-9.73495
▁получают	-9.73498
▁другу	-9.73652
▁сложн	-9.73719
▁энерги	-9.73769
▁данны	-9.74075
▁действительност	-9.74131
▁Благодар	-9.74146
▁посмотрел	-9.74146
▁делал	-9.74164
▁урок	-9.74214
▁работали	-9.74262
▁семья	-9.74286
▁глубин	-9.74307
▁живём	-9.74485
пер	-9.74551
▁здравоохранения	-9.74592
▁элемент	-9.74628
▁рук	-9.7466
тельны	-9.74862
лин	-9.74867
▁позже	-9.74874
▁процессе	-9.74956
пол	-9.74995
▁детям	-9.75129
▁пациент	-9.75186
▁поиск	-9.75214
▁имя	-9.75226
▁дорог	-9.75241
▁смогу	-9.75329
8	-9.75342
▁пациентов	-9.75473
раз	-9.75486
▁создани	-9.75489
▁чувства	-9.7551
▁всём	-9.75615
▁земле	-9.75697
▁Китай	-9.75748
▁информация	-9.7579
▁правила	-9.75808
▁участие	-9.75881
▁сад	-9.75884
нных	-9.75884
▁желание	-9.75894
▁набор	-9.75904
шёл	-9.7598
▁анализ	-9.76056
бе	-9.7606
▁внимания	-9.76123
▁разум	-9.76358
▁огромны	-9.76651
▁прогресс	-9.76783
▁галактик	-9.7679
4	-9.76855
▁помогает	-9.76862
▁сможете	-9.7689
ойны	-9.76985
дти	-9.7705
нг	-9.77075
▁научны	-9.77186
ран	-9.77206
верю	-9.77378
▁замечательно	-9.77414
▁земли	-9.77435
▁парень	-9.77465
▁определить	-9.77478
▁зависит	-9.77491
▁верно	-9.775
▁обучения	-9.77604
фи	-9.77606
вод	-9.77643
щих	-9.77652
ель	-9.77683
▁использование	-9.77734
▁/	-9.778
▁500	-9.77815
▁точк	-9.77816
▁месяца	-9.77847
▁ног	-9.78032
▁Дж	-9.78045
▁страна	-9.78086
▁играть	-9.78149
▁местны	-9.78224
бор	-9.78288
изм	-9.78326
▁выглядел	-9.7848
▁выясни	-9.78616
▁птиц	-9.78758
▁понимание	-9.78766
▁машину	-9.78965
▁целью	-9.78992
▁бес	-9.79005
▁част	-9.79048
вают	-9.79157
▁ребёнок	-9.79163
▁секс	-9.7917
купить	-9.7923
▁улиц	-9.793
▁достичь	-9.79507
▁эмоци	-9.79565
▁студентов	-9.79615
▁научно	-9.79665
▁убедить	-9.79871
▁Ба	-9.79904
▁вполне	-9.79941
нд	-9.79973
▁теле	-9.80009
пу	-9.80069
▁вперёд	-9.80111
таки	-9.80177
▁физически	-9.80202
▁откуда	-9.80337
нные	-9.80372
С	-9.80474
ируем	-9.80561
ден	-9.80577
является	-9.80737
▁количества	-9.80799
▁выбора	-9.80806
▁позволи	-9.80855
7	-9.80859
▁единственны	-9.80917
▁секунд	-9.81273
▁конца	-9.81299
▁важна	-9.81331
шла	-9.81366
▁рад	-9.81373
▁жив	-9.81387
▁Пол	-9.81502
▁сообщества	-9.81569
▁картин	-9.81577
▁имеем	-9.81697
▁изменение	-9.81749
▁инфраструктур	-9.81946
▁чаще	-9.81946
▁городе	-9.81971
▁ужасно	-9.82024
ист	-9.82138
▁глобально	-9.82202
▁условия	-9.82299
▁э	-9.82322
▁суть	-9.82361
▁мер	-9.82381
▁P	-9.82503
▁сложны	-9.82508
▁понимаю	-9.8252
▁общественно	-9.82522
▁стары	-9.8264
▁температур	-9.82671
ус	-9.82706
▁книг	-9.8277
▁состояние	-9.82906
▁секрет	-9.82909
могло	-9.82951
▁пара	-9.82983
ально	-9.82998
▁поддержк	-9.83086
▁этап	-9.83167
▁отлично	-9.83235
▁механизм	-9.83315
▁СМИ	-9.83379
▁изучени	-9.83384
другому	-9.8342
ца	-9.83535
▁форма	-9.83567
ним	-9.83576
▁производства	-9.83616
лов	-9.83637
▁сайт	-9.83682
▁взял	-9.83738
▁недели	-9.83747
l	-9.83894
▁устройства	-9.83939
торая	-9.83964
▁белы	-9.83987
▁собрать	-9.84095
▁будущего	-9.841
▁возраста	-9.84104
▁десятк	-9.84105
▁показал	-9.84112
▁Бог	-9.84128
▁занимает	-9.84129
▁час	-9.84138
▁оказывает	-9.84281
▁объект	-9.84286
рон	-9.84317
▁человечества	-9.8434
▁надею	-9.84362
▁страниц	-9.84419
▁организм	-9.84446
▁ясно	-9.84516
▁дух	-9.84529
▁науки	-9.84546
▁миллионы	-9.84578
щей	-9.84607
▁обществе	-9.84678
ному	-9.8477
▁Под	-9.84804
„	-9.84809
▁всеми	-9.84839
▁услуг	-9.84876
▁велики	-9.84941
▁цифр	-9.84968
00	-9.85042
▁удивительны	-9.85136
кон	-9.8516
И	-9.85205
▁будете	-9.85225
▁называю	-9.85249
▁последствия	-9.85271
ющиеся	-9.85331
▁давно	-9.85342
▁M	-9.85434
▁остава	-9.85447
ились	-9.85469
▁временем	-9.85572
▁провести	-9.8562
▁лекарства	-9.85652
▁90	-9.8567
▁мать	-9.85738
▁мечта	-9.85858
Йорке	-9.85902
▁алгоритм	-9.85903
▁очередь	-9.85913
▁высоки	-9.85924
со	-9.86096
▁форму	-9.86148
▁основан	-9.86219
▁рынок	-9.86271
▁реакци	-9.86275
▁двумя	-9.86444
▁16	-9.86551
▁случай	-9.86574
▁пространства	-9.86644
искать	-9.86703
▁продукт	-9.86732
Г	-9.86754
▁возраст	-9.86843
▁первым	-9.86845
нул	-9.86851
▁изображения	-9.86856
▁странно	-9.86946
▁многим	-9.87011
▁хуже	-9.87011
▁сделан	-9.87086
▁нового	-9.87178
▁Кроме	-9.87385
летни	-9.87464
▁кризис	-9.8747
▁работаем	-9.87562
шу	-9.87643
бежать	-9.87766
▁частиц	-9.8798
▁друзья	-9.88003
▁земл	-9.8809
▁17	-9.88127
▁поколение	-9.88141
▁14	-9.88173
▁систем	-9.88204
▁пришёл	-9.88236
▁поколения	-9.88264
рат	-9.88312
▁относительно	-9.88317
▁нефт	-9.88479
бл	-9.88496
▁дизайна	-9.88596
▁двигаться	-9.88637
▁13	-9.88645
▁Перв	-9.88693
ируют	-9.88717
▁будь	-9.8893
Б	-9.88972
▁вашем	-9.89033
▁реальност	-9.89129
▁Европе	-9.89163
ками	-9.89225
▁искусство	-9.89261
▁религи	-9.89269
▁получаем	-9.89324
▁аппарат	-9.89359
вши	-9.89361
ющего	-9.89366
▁программу	-9.89405
рен	-9.8941
▁нужда	-9.89441
▁картинк	-9.8949
▁совместно	-9.89493
▁компаний	-9.89496
П	-9.89505
▁команда	-9.89522
▁начинае	-9.89662
▁кон	-9.89724
▁поверхность	-9.89868
▁поток	-9.89908
ском	-9.90094
оп	-9.90182
▁муж	-9.90512
щие	-9.90546
▁обеспечи	-9.90557
3	-9.9057
▁возрасте	-9.90602
▁сердца	-9.90773
▁Проблем	-9.90792
три	-9.90839
▁вселенной	-9.90848
▁позволил	-9.9085
ают	-9.91014
▁примеров	-9.91092
▁данным	-9.91108
▁сосед	-9.9119
▁Пока	-9.91223
▁взяли	-9.91262
▁T	-9.91274
▁ситуацию	-9.9133
▁стара	-9.91427
▁ход	-9.9143
▁новости	-9.91483
▁случайно	-9.91495
ится	-9.91546
▁ощущение	-9.91551
▁представь	-9.91566
▁понятия	-9.9157
▁правило	-9.91645
▁объём	-9.91829
▁совет	-9.91899
▁создают	-9.91902
тельно	-9.91915
чно	-9.92008
▁Наши	-9.92086
▁изучать	-9.92104
ско	-9.92156
▁удар	-9.92166
▁длин	-9.92167
▁вести	-9.9223
цен	-9.92303
▁справа	-9.92357
▁сидел	-9.92364
▁Ни	-9.92397
A	-9.92411
▁Чере	-9.92468
читаем	-9.92471
кл	-9.92814
▁демократи	-9.92845
▁вне	-9.9285
тон	-9.92887
▁хоч	-9.92906
▁следующе	-9.92933
▁мужчина	-9.92945
▁дороги	-9.92973
▁символ	-9.93083
ственн	-9.93093
▁интеллект	-9.93179
▁боя	-9.93203
▁ресурсов	-9.93218
▁управлять	-9.93255
▁считать	-9.93312
▁современно	-9.93316
▁воз	-9.93374
▁живы	-9.93443
▁Ч	-9.93451
▁D	-9.93492
▁любимы	-9.935
О	-9.93532
▁готов	-9.9355
▁номер	-9.93573
стер	-9.93583
▁любв	-9.93589
▁естественно	-9.93642
▁ошибк	-9.93644
▁Ещ	-9.93826
▁надежд	-9.93855
▁программа	-9.93926
▁кор	-9.93931
▁расположен	-9.93941
▁читать	-9.93972
▁Джон	-9.93998
▁появилась	-9.94036
▁район	-9.94038
▁серьёзно	-9.94069
▁нормально	-9.94095
▁собираю	-9.94131
▁Раз	-9.94178
▁происходил	-9.94322
▁конец	-9.94351
▁полици	-9.94406
▁события	-9.94447
ток	-9.94554
▁обнаружил	-9.94688
▁хорош	-9.9469
нос	-9.94692
▁основны	-9.94726
ала	-9.9477
▁выглядеть	-9.94774
▁журнал	-9.94786
▁здоровья	-9.94787
▁спор	-9.94809
▁принимать	-9.94914
аль	-9.9503
▁успеха	-9.95069
ила	-9.95213
▁создан	-9.95221
нес	-9.95221
▁размера	-9.95265
▁взгляну	-9.95317
▁линии	-9.95342
▁остров	-9.9541
▁связаны	-9.9547
▁потенциал	-9.95498
▁ста	-9.95501
▁порядке	-9.95572
▁Ле	-9.95585
▁позволит	-9.95633
▁регион	-9.95668
▁определённо	-9.95794
▁Ла	-9.95799
▁можешь	-9.95832
при	-9.95869
▁робот	-9.95884
▁осознал	-9.95884
▁способом	-9.95933
▁вызов	-9.95948
▁цвета	-9.95993
▁управления	-9.96072
▁сто	-9.96089
▁никаки	-9.96108
знают	-9.96112
▁Тем	-9.96113
▁чрезвычайно	-9.96125
▁сельско	-9.96139
▁сегодняшни	-9.96164
▁наблюдать	-9.96189
▁собираем	-9.96314
нной	-9.96339
▁ноги	-9.96341
▁игр	-9.96353
▁широко	-9.96381
▁углерод	-9.96418
вторы	-9.96418
давать	-9.96432
огласно	-9.96462
▁американски	-9.96507
▁следующем	-9.96589
ская	-9.96679
▁здоровье	-9.96758
ели	-9.96774
▁влияет	-9.968
▁подобное	-9.96803
▁жизнью	-9.96863
▁Тут	-9.96891
▁рек	-9.9697
▁открыты	-9.97017
▁созда	-9.97109
▁связан	-9.97232
▁аудитори	-9.97232
ции	-9.97397
▁общи	-9.97413
▁помнит	-9.97446
▁музыку	-9.97569
▁хоть	-9.97571
▁Вселенн	-9.97733
▁писать	-9.97777
▁смотрите	-9.97826
▁детьми	-9.97982
▁животные	-9.97998
вор	-9.9801
▁70	-9.98092
▁наука	-9.98128
▁выступления	-9.9819
▁качества	-9.98208
▁продолжает	-9.98266
щем	-9.98276
▁черт	-9.9829
ющим	-9.98386
▁дни	-9.98415
▁моем	-9.9842
▁H	-9.98431
▁режим	-9.98444
▁случаев	-9.98497
▁фактор	-9.98524
▁слайд	-9.98532
тра	-9.98592
▁среду	-9.98615
зы	-9.98621
▁род	-9.98775
▁учёные	-9.98816
▁отношение	-9.98839
▁городов	-9.9884
▁улице	-9.98843
▁борьб	-9.98888
▁повсюду	-9.98915
▁процесса	-9.9893
▁разработал	-9.98952
▁привести	-9.98971
креп	-9.98973
▁книга	-9.99101
▁Чем	-9.99175
▁сделано	-9.99186
▁реклам	-9.99229
▁крупны	-9.9929
▁замечательны	-9.99291
▁Перво	-9.99297
▁конечном	-9.994
▁предел	-9.99461
▁мнение	-9.99546
▁способности	-9.99556
▁открыто	-9.99602
▁хороший	-9.9966
▁сквоз	-9.99684
▁боль	-9.99728
▁треть	-9.99729
▁направлении	-9.99744
▁I	-9.99978
▁стоимость	-9.99984
▁Ли	-9.99993
▁граждан	-10.0001
▁расти	-10.0005
▁приехал	-10.0007
▁родителей	-10.0007
▁станови	-10.0009
▁конц	-10.0012
▁народ	-10.0025
▁эффективно	-10.0027
ительн	-10.0027
▁учиться	-10.0027
▁пе	-10.0037
▁помога	-10.0045
▁семье	-10.0049
▁числа	-10.0058
▁частно	-10.0061
частью	-10.0068
род	-10.0075
дж	-10.008
▁важное	-10.0085
▁Хотя	-10.0092
бу	-10.0099
▁жил	-10.0107
▁поводу	-10.0112
▁следующее	-10.0116
▁какая	-10.013
▁букв	-10.0134
“	-10.0135
▁развити	-10.0147
▁музыка	-10.0155
нет	-10.0158
▁300	-10.0172
▁середин	-10.0179
инг	-10.0187
w	-10.0192
▁настоящее	-10.0195
вший	-10.0199
▁поле	-10.0206
Х	-10.0208
▁вероятность	-10.0212
▁языка	-10.0221
▁остально	-10.0228
▁единственно	-10.0243
▁лист	-10.0249
▁канал	-10.0249
▁сделала	-10.0249
щего	-10.0251
▁поможет	-10.0264
▁вершин	-10.0264
▁Оказывает	-10.0265
▁население	-10.0267
▁геном	-10.0271
делаем	-10.0279
▁веке	-10.0281
чер	-10.029
▁практик	-10.0291
▁лечение	-10.0294
нная	-10.0307
▁среде	-10.0309
▁придумал	-10.0317
ирован	-10.0317
▁первых	-10.0323
▁зову	-10.0325
пис	-10.0325
▁доктор	-10.0327
▁способы	-10.0334
▁рыб	-10.0349
жд	-10.0358
an	-10.0359
▁водой	-10.0362
▁определённы	-10.037
ческо	-10.0371
тро	-10.0378
▁человеку	-10.0378
вание	-10.0379
▁Боле	-10.0383
▁потрясающе	-10.0386
▁многое	-10.0391
▁узнали	-10.0391
▁чисто	-10.0392
ó	-10.0395
▁п	-10.0396
▁особо	-10.0411
▁пространстве	-10.0415
▁обычны	-10.0419
▁B	-10.042
нов	-10.0423
▁новым	-10.0426
▁выступление	-10.0426
▁угроз	-10.0429
▁мусор	-10.0439
▁список	-10.0439
▁сильны	-10.0443
ван	-10.0449
▁одни	-10.0458
▁насчёт	-10.0459
вать	-10.0463
▁получи	-10.0463
▁компьютеры	-10.0468
▁F	-10.0471
фор	-10.0472
▁средств	-10.0473
▁аспект	-10.0476
▁научить	-10.0482
пустить	-10.049
оз	-10.0491
▁пришла	-10.0496
▁реальны	-10.0498
нуть	-10.0502
ря	-10.0502
Т	-10.051
лева	-10.0511
▁супер	-10.052
▁считает	-10.0521
▁обязательно	-10.0528
▁область	-10.0528
итесь	-10.0528
▁мечт	-10.0536
▁дали	-10.0538
pos	-10.0539
▁мобильны	-10.0542
ющую	-10.0543
▁еду	-10.0543
▁ла	-10.0545
▁Китае	-10.0549
▁остаёт	-10.059
▁показывают	-10.0599
дите	-10.0606
▁экономическо	-10.0616
▁показали	-10.0617
▁зависимости	-10.0618
▁составляет	-10.062
▁ответственность	-10.0626
▁обучение	-10.0628
▁специально	-10.063
▁запис	-10.063
▁24	-10.0633
▁находить	-10.0649
▁особенност	-10.0653
В	-10.0656
▁мирово	-10.0658
▁задума	-10.0664
рос	-10.0671
▁экран	-10.0674
▁понимал	-10.0676
ина	-10.0685
b	-10.0685
ново	-10.0687
▁движени	-10.0689
▁нему	-10.0695
▁сумм	-10.0698
▁документ	-10.0698
▁перемен	-10.0701
▁строить	-10.0702
Л	-10.0704
▁Ка	-10.0705
▁политическо	-10.0706
нное	-10.0706
▁обратить	-10.0711
▁неправильно	-10.0736
▁данном	-10.0737
▁бактери	-10.074
al	-10.074
зу	-10.0745
▁секунду	-10.0745
▁понимаем	-10.0745
▁контакт	-10.0753
▁скажет	-10.0753
▁звучит	-10.0753
▁растения	-10.0758
бра	-10.0767
▁проходит	-10.0784
▁скоростью	-10.0786
▁качество	-10.0788
▁получится	-10.0788
▁чувствовал	-10.0797
▁Лос	-10.0798
▁увидим	-10.0799
▁спасти	-10.0802
▁слыш	-10.0821
▁автомобиль	-10.0824
▁языке	-10.0827
n	-10.0827
▁Видите	-10.0845
▁Ра	-10.0852
▁небольш	-10.0856
уществует	-10.0866
▁живу	-10.0866
щая	-10.0875
▁контролирова	-10.0878
▁связанны	-10.0882
▁ближе	-10.0887
▁использовал	-10.0887
▁меняет	-10.0888
▁Южно	-10.0889
лон	-10.0889
▁исследова	-10.089
▁близко	-10.0895
▁сним	-10.0898
▁положение	-10.0902
▁офис	-10.091
▁свободно	-10.0918
▁космос	-10.092
▁военны	-10.092
▁снимк	-10.0929
начала	-10.0934
▁вышл	-10.0937
кра	-10.0937
▁любя	-10.0944
▁происходя	-10.0945
просить	-10.0959
сер	-10.0961
▁путешествие	-10.0967
▁Эй	-10.0974
▁сталкива	-10.0979
▁некоторо	-10.0989
▁ответить	-10.0989
тически	-10.0993
▁тяжело	-10.1004
▁усили	-10.1006
▁фильма	-10.1013
▁неудач	-10.1023
▁Одно	-10.1025
▁везде	-10.103
оборот	-10.1031
▁суд	-10.1032
▁пользоваться	-10.1034
юю	-10.1034
▁Дело	-10.1035
▁велосипед	-10.1036
▁изменило	-10.1039
▁чувствую	-10.104
▁своем	-10.1045
▁насилия	-10.1046
▁доступны	-10.1054
льше	-10.1055
▁Само	-10.1059
▁энергия	-10.107
▁Мои	-10.1072
▁Вопрос	-10.1077
▁медицин	-10.1083
▁выбрать	-10.1085
▁след	-10.1094
▁шар	-10.1099
▁отдельны	-10.1104
▁желез	-10.111
шел	-10.1111
ур	-10.1118
под	-10.112
▁ниже	-10.1124
▁сделаю	-10.1125
▁маленьк	-10.1127
учиться	-10.1141
▁цифрово	-10.1163
▁государства	-10.1172
ывает	-10.1179
▁оценк	-10.1197
ьте	-10.1205
▁генетически	-10.1215
▁небольши	-10.1223
▁наверняка	-10.1232
on	-10.1232
вой	-10.1236
▁попыта	-10.1236
▁политики	-10.1239
▁пройти	-10.1239
вар	-10.124
▁газ	-10.1242
▁личност	-10.1248
▁ш	-10.1253
▁прошлого	-10.1253
▁случа	-10.1259
▁умны	-10.1261
ошёл	-10.1265
▁журналист	-10.1267
имся	-10.1269
▁микро	-10.1276
▁выход	-10.1283
▁столь	-10.1284
▁материалы	-10.1288
работ	-10.129
▁задать	-10.1292
▁скорост	-10.1302
▁Ха	-10.1308
▁2000	-10.131
f	-10.131
▁ООН	-10.1315
▁онлайн	-10.1317
▁оп	-10.1328
▁Пере	-10.1329
▁возможны	-10.1334
▁способов	-10.134
▁вклад	-10.1344
▁доме	-10.1346
▁скорость	-10.1348
▁жили	-10.135
▁предложил	-10.1355
C	-10.136
▁назвать	-10.1361
▁выглядят	-10.1364
▁пытался	-10.1369
▁внутрь	-10.1369
▁попробовать	-10.1369
▁норм	-10.137
▁растени	-10.1371
▁маленько	-10.1379
▁эксперт	-10.1381
▁пациента	-10.1382
няя	-10.1393
▁взрослы	-10.1398
▁изменит	-10.1398
▁страну	-10.1399
▁солнечны	-10.1405
▁поведения	-10.1405
▁конференции	-10.1412
▁Япони	-10.1414
▁решать	-10.1414
вид	-10.1414
▁живо	-10.1418
▁Ж	-10.1419
▁компьютера	-10.142
▁дают	-10.1423
▁заболевания	-10.1424
▁прибор	-10.1426
▁независимо	-10.1435
h	-10.1435
▁красот	-10.1437
▁приём	-10.1444
▁комнате	-10.1444
▁важным	-10.1458
Д	-10.1468
смотрим	-10.1472
▁назвал	-10.1473
▁истин	-10.1483
▁лиц	-10.1487
дин	-10.1488
▁газа	-10.1494
▁дал	-10.1505
▁нашёл	-10.1508
▁четырёх	-10.1518
▁открыть	-10.1521
лучилось	-10.1526
▁кра	-10.1534
ехать	-10.1536
▁продуктов	-10.1548
▁связано	-10.1551
▁вынужден	-10.1559
▁отличие	-10.156
▁живущи	-10.1563
▁компонент	-10.1564
куп	-10.1575
▁рассказ	-10.1579
▁заставил	-10.1588
▁развивать	-10.1589
▁море	-10.16
▁еды	-10.1601
▁атмосфер	-10.1603
▁Ро	-10.1608
▁Бразили	-10.1609
▁душ	-10.1614
▁каких	-10.1616
▁утром	-10.1619
жить	-10.1624
ника	-10.1624
▁старше	-10.1629
ак	-10.1629
▁хочется	-10.1637
▁методы	-10.1639
ar	-10.1651
▁доверя	-10.166
▁имел	-10.1661
станут	-10.1662
помнить	-10.1668
▁баз	-10.1672
▁потрясающи	-10.1681
▁сме	-10.1683
▁архитектур	-10.1691
▁рыбы	-10.1692
ился	-10.1694
▁уме	-10.1697
▁городах	-10.1701
▁требует	-10.1704
▁Такие	-10.1705
▁рождения	-10.1718
тан	-10.1722
▁смотрит	-10.1727
▁шести	-10.1735
▁понимают	-10.1747
▁действий	-10.1747
▁роботов	-10.1751
▁экосистем	-10.1759
▁сильнее	-10.176
ред	-10.1763
▁играет	-10.1764
▁вернулся	-10.1765
▁км	-10.1769
▁успешно	-10.1771
▁пу	-10.1775
▁пожалуйста	-10.1784
▁отца	-10.1784
▁пытается	-10.1789
▁переход	-10.179
▁огромные	-10.1793
▁планета	-10.1797
▁Земля	-10.1799
▁Лондон	-10.18
нут	-10.1809
▁страшно	-10.181
▁стоял	-10.1811
▁творчески	-10.1812
▁д	-10.1832
▁ранни	-10.1836
▁достигл	-10.1842
▁Великобритании	-10.1845
гер	-10.1847
▁E	-10.1854
▁архитектор	-10.186
▁людях	-10.186
▁мальчик	-10.1862
▁запас	-10.1862
▁интервью	-10.1867
▁открытия	-10.1867
▁400	-10.1869
▁Без	-10.187
▁ужас	-10.187
▁Де	-10.1871
▁привело	-10.1876
▁плохи	-10.1878
▁умер	-10.1878
▁голоса	-10.1879
▁автор	-10.1883
▁конфликт	-10.1888
▁воде	-10.1892
▁отдел	-10.1892
▁столкну	-10.1894
▁собственн	-10.1899
▁биологически	-10.1899
▁получать	-10.1902
▁лекарство	-10.1902
▁встреча	-10.1908
▁честно	-10.191
▁перевод	-10.1911
▁ресторан	-10.1911
▁ба	-10.1912
це	-10.1917
кры	-10.192
▁сохранить	-10.193
▁приходят	-10.1933
▁власть	-10.1933
▁вкус	-10.1936
▁словно	-10.1939
▁вперед	-10.1946
▁используется	-10.1952
▁Н	-10.1958
▁посредств	-10.1962
▁опыта	-10.1967
нец	-10.1968
▁точка	-10.1968
▁ценности	-10.1968
▁собрали	-10.1971
▁действова	-10.1973
▁заставляет	-10.1974
шн	-10.198
▁кино	-10.1982
▁коробк	-10.1984
▁находи	-10.1985
▁признать	-10.1986
овсе	-10.199
▁Та	-10.199
▁био	-10.1992
▁сообщество	-10.1994
▁развивающих	-10.1999
▁девочка	-10.2013
▁деревья	-10.2014
▁знаний	-10.2015
▁действие	-10.2018
▁написан	-10.2019
▁учителя	-10.2022
▁мост	-10.2022
чки	-10.2024
▁Идея	-10.2028
▁решила	-10.203
гл	-10.2031
▁вод	-10.2032
▁химически	-10.2035
▁производство	-10.2035
▁радио	-10.2036
▁масштаба	-10.2044
▁обмен	-10.2046
нь	-10.2052
▁письмо	-10.2066
▁бороться	-10.2068
▁революции	-10.2069
▁наблюдаем	-10.2076
▁общего	-10.2077
▁сложные	-10.2081
▁знакомы	-10.2081
▁вызывает	-10.2081
▁слышал	-10.2082
▁проб	-10.2084
▁оружие	-10.2087
▁экологически	-10.2098
▁появил	-10.2106
▁служб	-10.2113
▁вырос	-10.2113
▁забот	-10.2113
▁территории	-10.2116
▁усилия	-10.2119
▁медленно	-10.212
▁представляют	-10.2144
▁вред	-10.2151
▁понимания	-10.2152
вый	-10.2156
▁верси	-10.2167
▁лежит	-10.217
▁богаты	-10.2173
▁имели	-10.2176
▁требуется	-10.2177
▁открытие	-10.2186
▁смерть	-10.219
ром	-10.2193
▁ума	-10.2206
▁видят	-10.2207
лек	-10.2213
пы	-10.2217
ажен	-10.2217
▁ребята	-10.2218
▁ценность	-10.2218
она	-10.2223
▁возвраща	-10.2225
▁Ирак	-10.2227
▁среднем	-10.2231
▁новость	-10.2232
▁поднять	-10.2233
▁достижения	-10.2234
▁Мир	-10.2235
пад	-10.2235
▁смотрел	-10.2238
▁подобно	-10.224
▁каса	-10.2242
▁мол	-10.2242
ложить	-10.2242
щую	-10.2245
▁изменил	-10.2245
менить	-10.225
вит	-10.2254
▁представления	-10.2254
▁похож	-10.2257
▁сектор	-10.2258
▁работающи	-10.226
▁помогл	-10.2269
▁Запад	-10.2275
▁счастье	-10.2276
▁каком	-10.2276
ники	-10.228
▁прошло	-10.2281
▁плане	-10.2281
▁замети	-10.2282
▁согласи	-10.2288
▁попасть	-10.2288
▁изменили	-10.229
▁событий	-10.2291
P	-10.2293
▁заболеваний	-10.2293
рез	-10.2299
▁утра	-10.232
▁социальн	-10.2323
▁понрави	-10.2326
▁фотографию	-10.2329
▁различия	-10.2334
▁волос	-10.2335
▁кампани	-10.234
▁масс	-10.2343
▁теория	-10.2343
▁оказался	-10.2344
▁рынка	-10.2346
▁состав	-10.2357
▁открыт	-10.2359
▁прогноз	-10.2374
▁начиная	-10.2383
▁важнее	-10.2387
нер	-10.2391
▁Сам	-10.2399
▁счастливы	-10.2406
▁находимся	-10.2409
▁поддерживать	-10.2409
▁едино	-10.241
▁рабочих	-10.2414
▁затрат	-10.2416
▁горы	-10.2417
▁занять	-10.242
▁жител	-10.2422
▁схем	-10.2423
ющими	-10.2425
▁экране	-10.2425
▁чувствует	-10.243
летне	-10.2432
▁родил	-10.2433
p	-10.2433
▁деятельности	-10.2436
▁биологии	-10.2436
▁вновь	-10.2436
6	-10.2441
стей	-10.245
▁показан	-10.2458
▁отправить	-10.2472
ично	-10.2473
▁университета	-10.2474
▁науке	-10.2475
▁техник	-10.2482
▁красивы	-10.2486
▁восемь	-10.249
▁научили	-10.2492
▁просты	-10.2492
▁рамках	-10.2495
▁удовольствие	-10.2503
▁началось	-10.2512
▁взаимодействия	-10.2517
▁данно	-10.2522
▁воздуха	-10.253
▁друзьями	-10.2531
▁название	-10.2534
▁реальном	-10.2534
▁бомб	-10.254
▁построен	-10.2543
▁растёт	-10.2545
▁Перед	-10.2547
▁Обычно	-10.2553
ским	-10.2554
ировал	-10.2558
▁вещества	-10.2569
чные	-10.2578
▁пост	-10.258
вшего	-10.2581
фа	-10.2585
ген	-10.2591
▁плат	-10.2604
▁команды	-10.2607
▁Ю	-10.2607
▁называемы	-10.261
▁защитить	-10.2619
▁подходит	-10.262
▁контроля	-10.262
чная	-10.2622
▁цивилизаци	-10.2623
▁21	-10.2625
▁век	-10.2625
▁крови	-10.2636
▁вопроса	-10.2638
▁учат	-10.2646
▁самостоятельно	-10.2651
▁дерево	-10.2654
▁сверху	-10.2654
▁американцев	-10.2656
▁хватает	-10.2658
▁учитыва	-10.2659
▁север	-10.266
▁га	-10.2662
▁стар	-10.2664
▁Марс	-10.2664
▁тонн	-10.2666
▁существу	-10.2666
▁позици	-10.2667
сил	-10.2676
▁мимо	-10.2678
скольк	-10.2686
▁средни	-10.2687
▁эффективны	-10.2703
▁150	-10.2704
▁особ	-10.2706
▁жителе	-10.2711
▁понятие	-10.2712
▁разобраться	-10.2716
▁передать	-10.2722
▁Калифорнии	-10.2734
O	-10.2735
▁позволяю	-10.2737
▁восприятие	-10.2741
▁сложност	-10.2743
▁лекарств	-10.2751
▁контроль	-10.2751
работать	-10.2758
in	-10.2758
▁туалет	-10.2765
▁Вашингтон	-10.2765
▁технически	-10.2766
▁Факт	-10.2766
▁организация	-10.2769
▁Северно	-10.2773
▁разве	-10.2776
▁семей	-10.2782
▁вечер	-10.2787
▁охран	-10.2787
▁внезапно	-10.2788
▁бумаги	-10.2793
ики	-10.2795
▁группу	-10.2796
▁дорого	-10.2798
стан	-10.2798
▁получени	-10.2802
▁существовал	-10.2812
▁отправил	-10.282
лучается	-10.2821
▁осозна	-10.2821
▁Facebook	-10.2821
▁ткани	-10.2821
▁учёных	-10.2821
▁спрашиваю	-10.2823
▁задумать	-10.2824
▁одному	-10.2825
▁прошлое	-10.2826
▁перспектив	-10.2827
g	-10.2832
тесь	-10.2835
▁получит	-10.2837
▁редко	-10.284
▁произ	-10.2862
▁увеличить	-10.2863
▁пределам	-10.2869
▁W	-10.2876
▁Сколько	-10.2877
▁шимпанзе	-10.2877
▁вещах	-10.2877
▁анти	-10.2879
▁сцене	-10.2879
▁Билл	-10.2882
▁проще	-10.2883
▁общин	-10.2883
▁услышал	-10.2884
▁мышления	-10.2888
▁проводить	-10.2892
▁сложнее	-10.2894
▁общения	-10.2895
▁шум	-10.2901
▁зачем	-10.2905
легка	-10.2906
k	-10.2906
▁цикл	-10.2907
▁минуту	-10.2915
▁двер	-10.2916
▁отношении	-10.2919
▁культура	-10.2925
лы	-10.2928
▁Вообще	-10.2934
▁чёрны	-10.2934
▁неделе	-10.2938
▁Ре	-10.294
▁активно	-10.2943
▁элементы	-10.2947
▁добавить	-10.2951
▁бесплатно	-10.2952
▁Три	-10.2956
▁безопасность	-10.2957
▁бор	-10.2962
▁животно	-10.2971
▁эпох	-10.2975
▁бизнеса	-10.299
▁хлеб	-10.299
▁относит	-10.2993
▁медицински	-10.2996
▁президент	-10.2997
▁высок	-10.2998
▁робота	-10.2998
▁довери	-10.2998
▁пуст	-10.3002
▁мил	-10.3004
▁Бо	-10.3005
▁вашим	-10.3011
▁средне	-10.3012
▁лёгки	-10.3013
тен	-10.3017
▁утро	-10.3017
▁образц	-10.3019
E	-10.3021
▁отличны	-10.3022
▁построили	-10.3029
▁историй	-10.3031
▁гены	-10.3038
▁обе	-10.3044
▁настоящ	-10.3047
▁память	-10.3047
▁деятельность	-10.3048
▁брат	-10.3052
кладыва	-10.3063
▁плава	-10.3065
▁выходит	-10.3067
▁Мак	-10.3069
▁Па	-10.307
нс	-10.3074
▁признак	-10.3075
▁велико	-10.3093
▁театр	-10.3097
▁завод	-10.3097
▁мо	-10.3098
ват	-10.3099
▁единственн	-10.3102
▁информацией	-10.3105
▁памяти	-10.3105
▁обработк	-10.3105
▁запах	-10.3106
чный	-10.3106
▁приходилось	-10.3107
▁рассмотре	-10.3107
▁класса	-10.3114
▁Лад	-10.3114
▁нефть	-10.3116
▁компанию	-10.3129
▁звёзд	-10.3131
▁ди	-10.3135
▁планет	-10.3138
▁мировы	-10.3141
▁студенты	-10.3144
▁индустри	-10.3145
▁долг	-10.3152
исты	-10.3157
ует	-10.3158
ены	-10.3158
▁продукты	-10.3162
▁ВВП	-10.3163
▁девочек	-10.3163
▁материалов	-10.3166
мимо	-10.3167
▁полу	-10.3169
▁предложение	-10.3172
лучится	-10.3172
▁идет	-10.3183
▁поставил	-10.3185
нц	-10.3189
▁определяет	-10.3192
R	-10.3194
▁любил	-10.3194
▁Им	-10.32
мор	-10.3204
▁финансовы	-10.3208
нять	-10.3209
▁Зач	-10.3212
▁проектов	-10.3212
вели	-10.3219
▁молодо	-10.3221
▁срок	-10.3222
браться	-10.3227
▁причинам	-10.3234
нного	-10.3241
▁ум	-10.3243
▁представител	-10.3251
▁игру	-10.3252
▁поля	-10.3257
▁зач	-10.326
▁прийти	-10.326
астую	-10.326
▁актив	-10.3263
ъ	-10.3266
▁возможным	-10.3275
▁закончил	-10.3276
▁Австрали	-10.3279
▁задумыва	-10.3279
▁борьбе	-10.3291
▁какую	-10.3291
▁половина	-10.3291
прежнем	-10.3299
▁детски	-10.3299
▁Ди	-10.33
▁существа	-10.3303
▁штата	-10.3306
▁простым	-10.3323
▁важн	-10.3332
▁Хо	-10.3335
▁Аль	-10.3336
▁автобус	-10.3338
▁сделает	-10.3338
▁услышать	-10.3338
▁телескоп	-10.3338
▁университет	-10.3343
▁континент	-10.3348
тели	-10.3348
цев	-10.3353
▁продолжи	-10.3353
▁директор	-10.3355
кер	-10.3358
▁понятно	-10.3359
▁рассказывал	-10.3359
ваем	-10.3366
▁оцени	-10.3366
▁ведёт	-10.3375
▁комнат	-10.338
▁помог	-10.3387
ун	-10.3388
▁маленьким	-10.3393
▁инвестици	-10.3394
▁коротки	-10.3394
▁грипп	-10.3397
▁содержит	-10.3397
▁Вмест	-10.3398
щий	-10.3404
▁наук	-10.3408
▁жертв	-10.3415
▁насилие	-10.3416
отен	-10.3423
▁конкретно	-10.3436
▁невероятны	-10.3436
T	-10.3441
ика	-10.3443
▁правы	-10.3447
▁красиво	-10.3447
▁гражданско	-10.3449
▁R	-10.345
▁Значит	-10.3454
▁позволя	-10.3456
▁Университет	-10.3457
▁благотворительн	-10.3457
▁груди	-10.3457
▁поехал	-10.3458
▁парня	-10.3459
▁нос	-10.346
▁благо	-10.346
▁сообщение	-10.3471
эй	-10.3472
▁создава	-10.348
▁остановить	-10.3481
ирование	-10.3483
бит	-10.3485
▁солдат	-10.3486
▁Кар	-10.3488
▁доступно	-10.3493
▁пищи	-10.3503
▁шоу	-10.3506
▁ключ	-10.3513
▁постепенно	-10.3517
▁Ответ	-10.3518
▁Соединённы	-10.3519
▁окружающ	-10.352
▁собирает	-10.3522
▁участи	-10.3525
d	-10.3535
▁солнечно	-10.3535
▁речи	-10.3539
▁глазами	-10.3543
▁исследовани	-10.3546
▁электрически	-10.3546
▁самолёт	-10.3548
▁движет	-10.3553
▁закончить	-10.3556
▁роли	-10.3558
▁Рас	-10.3559
▁име	-10.356
I	-10.3562
▁красны	-10.3562
эн	-10.3565
▁представлен	-10.3569
шло	-10.357
▁N	-10.3574
▁коррупци	-10.3577
лад	-10.3578
▁Би	-10.3579
▁картина	-10.3579
▁результатов	-10.3581
▁учителе	-10.3583
▁линия	-10.3586
▁кожи	-10.3586
▁позволь	-10.3589
▁кусочк	-10.359
▁Нас	-10.3591
▁отличается	-10.3592
идеть	-10.3594
▁района	-10.3597
▁трех	-10.3608
▁серьёзны	-10.3608
▁медицинско	-10.3611
доль	-10.3614
▁полезны	-10.3616
лер	-10.362
▁переста	-10.3631
▁полны	-10.364
▁веб	-10.3641
▁игрок	-10.3648
вается	-10.3657
▁ходил	-10.366
▁банк	-10.3665
▁кредит	-10.367
альны	-10.367
▁школ	-10.3674
▁занимал	-10.3677
▁предложи	-10.3687
ировали	-10.3692
▁потеря	-10.3693
жать	-10.3698
▁смотрю	-10.3699
▁единиц	-10.3701
▁обнаружить	-10.3703
▁стволовы	-10.3706
▁искал	-10.3723
▁чист	-10.3741
▁неожиданно	-10.3742
▁спин	-10.3745
▁газет	-10.375
тки	-10.3752
▁продолжительно	-10.3755
▁Джордж	-10.376
▁удастся	-10.376
▁35	-10.3762
▁третий	-10.3764
ойти	-10.3768
▁прочита	-10.377
▁ближайши	-10.3777
▁стади	-10.3779
▁причине	-10.3779
▁взрыв	-10.3782
▁существ	-10.3782
есь	-10.3785
▁сидит	-10.3786
▁районе	-10.3787
▁занимают	-10.3794
▁измерения	-10.3796
▁пик	-10.3805
▁смотрели	-10.3805
▁открыл	-10.3809
▁примени	-10.381
▁Хоч	-10.381
▁зуб	-10.381
▁поместить	-10.3811
▁теми	-10.3812
▁инженер	-10.3813
вает	-10.3817
▁самим	-10.3817
▁устройств	-10.3823
▁исключение	-10.3826
▁смотрят	-10.3828
▁любит	-10.3828
▁честь	-10.3832
▁внутренне	-10.3841
▁правил	-10.3847
▁сознание	-10.3857
▁биологи	-10.3858
▁Друго	-10.3858
▁кол	-10.3859
▁множеств	-10.386
▁встретил	-10.3863
▁телевизор	-10.3866
▁мед	-10.3867
▁другому	-10.387
ников	-10.3879
▁Ричард	-10.3884
▁Индия	-10.3884
▁объекты	-10.3886
▁опасно	-10.3888
▁природа	-10.389
▁взросл	-10.3898
▁торговл	-10.3902
пла	-10.3905
▁воспользова	-10.3916
▁глобальны	-10.3917
▁ос	-10.3919
образн	-10.3921
▁общественны	-10.393
▁полезно	-10.3935
кая	-10.3942
▁традиционны	-10.3943
▁костюм	-10.3946
▁общ	-10.3947
▁клиник	-10.3947
▁проводим	-10.3949
легче	-10.3951
▁блок	-10.3952
▁какого	-10.3955
▁труда	-10.3955
▁Земл	-10.397
▁математик	-10.3971
▁Иран	-10.3972
▁знак	-10.3974
▁болезней	-10.398
▁получила	-10.3989
сты	-10.3999
▁правильны	-10.4003
▁фонд	-10.4003
▁любы	-10.4016
▁Африка	-10.4017
▁Кажд	-10.4019
▁читал	-10.4021
чных	-10.4024
▁экономика	-10.4024
▁ребёнком	-10.4028
иц	-10.4033
▁измери	-10.4036
стоит	-10.4039
▁сущност	-10.4044
▁разговарива	-10.4055
▁пригласил	-10.4059
▁роман	-10.407
▁травм	-10.4071
▁па	-10.4071
▁деревьев	-10.4072
▁пошли	-10.4074
▁Африк	-10.4079
▁война	-10.4082
▁десять	-10.4083
▁производить	-10.4084
ации	-10.4086
▁установить	-10.4088
▁страха	-10.4089
M	-10.4096
▁Джо	-10.4097
▁отвечаю	-10.4097
щи	-10.4098
▁кофе	-10.4098
овал	-10.4099
▁частны	-10.41
▁морско	-10.4101
▁разнообразие	-10.4105
▁кровь	-10.4108
▁Кита	-10.4112
▁университете	-10.4115
▁сотруднича	-10.4117
▁сторона	-10.4129
▁блог	-10.4135
▁Наконец	-10.4136
▁внутренни	-10.4137
▁жена	-10.414
▁числе	-10.4145
▁небо	-10.4149
▁слушать	-10.4153
▁машине	-10.4154
▁люб	-10.4156
ству	-10.4174
▁взаимосвяз	-10.4178
▁ограничен	-10.418
▁существующи	-10.4182
вшей	-10.4188
▁сообща	-10.4191
▁сообщения	-10.4193
▁мал	-10.4194
▁юг	-10.4197
▁оставил	-10.4197
▁сверх	-10.4203
▁команд	-10.4207
вшая	-10.4207
йдём	-10.4209
▁характер	-10.4209
▁проверить	-10.4213
▁современны	-10.4217
▁значения	-10.4218
▁материала	-10.422
У	-10.422
▁сери	-10.4228
▁прос	-10.4241
▁заключа	-10.4243
▁ужасны	-10.4245
▁операции	-10.4246
▁знаком	-10.4255
▁пят	-10.4255
▁справить	-10.4265
▁Человек	-10.4265
▁Нигери	-10.4265
▁выброс	-10.4267
▁Боже	-10.427
▁поездк	-10.4272
▁текст	-10.4272
▁безопасно	-10.4281
▁исключительно	-10.4292
уп	-10.4301
▁системой	-10.4308
▁соглас	-10.4322
▁c	-10.4329
▁предотврати	-10.433
▁мышц	-10.4332
▁едва	-10.4333
▁топлива	-10.4342
ари	-10.4344
▁стандарт	-10.4344
▁верил	-10.4345
▁работ	-10.4347
изма	-10.4348
▁Штата	-10.435
шек	-10.4353
▁ощущения	-10.4362
▁спас	-10.4364
▁75	-10.4368
▁прош	-10.437
раж	-10.437
▁дверь	-10.4373
спе	-10.438
▁карта	-10.4382
чат	-10.4382
▁влия	-10.4383
▁перестал	-10.4386
печат	-10.4391
▁прост	-10.4391
▁Конгресс	-10.4395
▁протез	-10.4396
▁помогаю	-10.4396
▁комнату	-10.44
▁книге	-10.4402
ян	-10.4402
▁продолжа	-10.4402
▁поезд	-10.4403
▁ядерно	-10.4404
▁ожидал	-10.4409
▁мозге	-10.4411
▁Бр	-10.4415
▁обед	-10.4434
▁пресс	-10.4437
▁штук	-10.4441
чка	-10.4442
▁спрашива	-10.4443
▁возникл	-10.4445
▁интересное	-10.4453
▁полагаю	-10.4453
▁идеально	-10.4455
▁прошли	-10.4458
▁катастроф	-10.4459
▁баланс	-10.4461
▁Мужчин	-10.4461
▁минимум	-10.4461
шен	-10.4463
зер	-10.4463
▁открывает	-10.4463
▁парк	-10.4467
▁отвечает	-10.4468
▁надея	-10.4473
▁долги	-10.4474
▁Много	-10.4474
пре	-10.4477
▁Че	-10.4478
вол	-10.4484
телей	-10.4484
▁бывает	-10.4484
▁дочь	-10.449
▁попытать	-10.4511
чную	-10.4524
▁потратил	-10.4525
▁импульс	-10.4527
▁углу	-10.4532
▁Кени	-10.4536
▁одинаково	-10.4543
▁поставить	-10.4548
▁молод	-10.4551
▁сознания	-10.4553
▁Ваш	-10.4557
ётся	-10.4564
▁пищ	-10.4565
▁капитал	-10.457
леп	-10.4574
фер	-10.4575
▁назвали	-10.4579
▁пустын	-10.4582
▁национально	-10.4585
▁превратить	-10.4586
▁Каков	-10.4591
щик	-10.4592
▁Эйнштейн	-10.4594
▁опасност	-10.4594
▁приняли	-10.4595
▁карман	-10.4595
▁фотографий	-10.4596
▁расс	-10.4596
▁использую	-10.4603
скую	-10.4604
▁создаё	-10.4609
▁глубоки	-10.4609
▁солнце	-10.4611
▁сотрудничеств	-10.4614
▁мод	-10.4616
▁Кон	-10.4616
▁масса	-10.4619
▁клетка	-10.4638
▁собирать	-10.464
▁молекул	-10.4644
▁физическо	-10.4644
Н	-10.4645
▁термин	-10.4651
▁Азии	-10.4656
▁заинтересован	-10.4659
▁критик	-10.4661
▁сидя	-10.4661
▁кус	-10.4663
участвовать	-10.4663
▁повезло	-10.4664
▁питания	-10.467
▁видела	-10.467
▁Два	-10.4673
▁фотограф	-10.4678
▁45	-10.4679
▁одинаковы	-10.4682
▁Ми	-10.4684
re	-10.4688
▁проектом	-10.4689
▁раздел	-10.469
▁сообществ	-10.4692
▁жен	-10.4699
▁играю	-10.4707
нным	-10.4713
▁больниц	-10.4725
x	-10.4728
▁простые	-10.4735
▁степень	-10.4737
▁отправили	-10.4746
▁альтернатив	-10.4749
рис	-10.4752
▁жизне	-10.4754
▁детстве	-10.4754
▁квартир	-10.4758
▁местност	-10.4759
▁приносит	-10.4761
шей	-10.4761
▁мощны	-10.4765
B	-10.477
es	-10.4774
▁произошл	-10.4774
▁счастлив	-10.4776
кал	-10.4778
▁пещер	-10.4785
▁окружающи	-10.4789
▁преврати	-10.4789
▁риска	-10.4793
▁операци	-10.4794
▁моря	-10.4796
▁Очевидно	-10.4796
▁зарплат	-10.4796
▁изучить	-10.4796
▁датчик	-10.4796
пуск	-10.4799
▁пер	-10.4801
▁сегодняшне	-10.4806
▁жест	-10.4806
▁чувств	-10.481
▁инструментов	-10.481
рт	-10.4812
режде	-10.483
▁лучшим	-10.483
▁ждать	-10.4831
▁развива	-10.4841
▁микроб	-10.4841
▁творчеств	-10.4847
▁Правд	-10.4852
▁обеспечени	-10.4855
it	-10.4857
лён	-10.4861
▁реакция	-10.4864
▁Твиттер	-10.4865
▁скульптур	-10.4865
▁опрос	-10.4865
▁звезд	-10.4866
▁вскоре	-10.4868
▁песня	-10.4869
очки	-10.4874
▁хороша	-10.4875
▁авари	-10.4876
▁длинны	-10.4876
▁говори	-10.4878
ступить	-10.4895
▁профессор	-10.4895
▁привыкл	-10.4897
▁морски	-10.4899
▁миров	-10.4902
▁вечером	-10.4903
яя	-10.4904
▁природу	-10.4908
▁рисунк	-10.491
▁основно	-10.491
▁течени	-10.4911
▁градус	-10.4911
▁принимают	-10.4917
▁настояще	-10.492
лей	-10.4921
▁надежды	-10.4925
▁годов	-10.4926
▁мирового	-10.4931
бежал	-10.4934
▁коллег	-10.4937
▁пришло	-10.4937
вые	-10.494
▁молекулы	-10.494
▁Дети	-10.4941
▁дополнительны	-10.4943
▁непосредственно	-10.4943
▁Отлично	-10.4945
▁событие	-10.4946
▁управление	-10.495
уют	-10.4952
▁Бе	-10.4953
▁Лун	-10.4954
чески	-10.4957
▁поступил	-10.496
▁эпидеми	-10.496
▁компьютерны	-10.4961
▁поднима	-10.4967
ках	-10.4968
▁личны	-10.497
▁верит	-10.4972
▁институт	-10.4972
▁семи	-10.4976
хожу	-10.4988
▁литератур	-10.5003
▁письма	-10.5003
▁прототип	-10.5003
▁подготовк	-10.5004
▁отдельно	-10.5006
▁средство	-10.5006
▁экономи	-10.5007
▁аплодисменты	-10.5007
ления	-10.5011
▁оружия	-10.5011
▁хорошим	-10.5013
▁лидеров	-10.5019
▁комплекс	-10.5024
▁работой	-10.503
▁доказа	-10.5031
▁любую	-10.5032
▁животным	-10.5036
ас	-10.5038
▁национальны	-10.5041
▁врач	-10.5041
▁американц	-10.5045
▁ведут	-10.5045
▁поколени	-10.5046
▁образовани	-10.5048
▁компьютеров	-10.5049
кам	-10.5051
▁главным	-10.5058
▁ежедневно	-10.5058
▁враг	-10.5062
▁убежден	-10.5071
▁концепци	-10.5072
▁Андерсон	-10.5073
▁портрет	-10.5073
▁плод	-10.5073
начал	-10.5073
▁поразительно	-10.5074
▁распространения	-10.5074
ана	-10.5077
▁сексуально	-10.5079
растут	-10.508
▁округ	-10.5086
▁выда	-10.5086
▁сентября	-10.5088
▁физики	-10.5091
▁атмосферу	-10.5093
ция	-10.5096
▁Ар	-10.51
▁производит	-10.5112
нно	-10.5113
▁призна	-10.5115
▁подума	-10.5115
▁перемены	-10.5117
▁ответа	-10.5119
ставляют	-10.5121
Франциск	-10.5122
ней	-10.5133
▁арми	-10.5133
▁обладаю	-10.5136
▁Самы	-10.5137
воз	-10.5139
▁существова	-10.514
▁Причин	-10.5145
▁диск	-10.5146
▁нрави	-10.5147
▁слышать	-10.5148
▁детали	-10.5155
▁забыл	-10.5159
▁Марк	-10.516
▁авто	-10.5161
▁Гор	-10.5162
▁Другим	-10.5169
▁Бога	-10.5172
▁победи	-10.5173
▁нежел	-10.5174
пит	-10.518
ограф	-10.5181
▁оказаться	-10.5199
▁рыба	-10.5204
▁коммуникаци	-10.5208
▁отчёт	-10.5214
▁Дэвид	-10.5215
▁обраща	-10.5218
▁избавиться	-10.5218
▁интересует	-10.5219
▁роди	-10.5222
▁экономике	-10.5227
en	-10.5227
▁крив	-10.5245
оставить	-10.5248
бросить	-10.5253
▁бесконечно	-10.5256
▁парти	-10.5257
▁бактерий	-10.5275
▁триллион	-10.5275
▁рассказываю	-10.5278
▁счастья	-10.5286
▁идеал	-10.5287
▁вчера	-10.5289
▁доступа	-10.5291
▁специалист	-10.5291
▁детско	-10.5293
▁спрос	-10.5295
▁самолет	-10.5297
▁явление	-10.5298
▁Ниче	-10.5304
▁песн	-10.5307
▁маленькую	-10.5321
▁транспорт	-10.5323
кар	-10.5326
▁Ло	-10.5328
тар	-10.5332
ёк	-10.5334
▁купил	-10.5334
▁процента	-10.5346
▁десятилетия	-10.5346
▁стены	-10.5353
▁международны	-10.5359
▁прибыль	-10.5364
части	-10.5365
▁картины	-10.5365
▁структура	-10.5368
▁тепло	-10.5368
▁опасны	-10.5374
▁запрет	-10.5375
▁трав	-10.5378
▁держать	-10.5384
▁необходимост	-10.5385
▁22	-10.5385
▁климат	-10.5387
▁Ча	-10.5388
▁главны	-10.539
▁Вас	-10.539
▁наблюдения	-10.5396
дра	-10.5397
▁площад	-10.5398
▁Наде	-10.5404
▁камеры	-10.5405
▁команду	-10.5406
▁Англии	-10.5407
▁обязан	-10.5413
тре	-10.542
▁Друг	-10.5421
m	-10.5427
▁участник	-10.543
▁интерфейс	-10.543
▁2010	-10.5431
▁покупк	-10.5432
▁сосуд	-10.5433
▁электронны	-10.5435
▁уверены	-10.5438
▁Га	-10.5444
▁доктора	-10.5446
▁бедност	-10.5447
▁напоминает	-10.5449
▁бог	-10.546
▁разным	-10.5469
▁бюджет	-10.5472
▁среда	-10.5478
▁Му	-10.5479
▁Бер	-10.5481
▁дает	-10.549
▁орбит	-10.5491
▁международно	-10.5492
▁повлия	-10.5494
▁превращает	-10.5499
▁сетк	-10.5501
▁мусульман	-10.5503
▁2008	-10.5505
стоять	-10.5505
нок	-10.5508
▁стратеги	-10.5509
▁выбрали	-10.551
▁жизненно	-10.5515
▁позвонил	-10.5519
▁центра	-10.5524
▁местно	-10.5535
▁23	-10.5543
▁медицины	-10.5544
▁дохода	-10.5548
▁смысла	-10.5553
брос	-10.5554
▁сбор	-10.5558
▁порядка	-10.5559
▁политика	-10.5562
енные	-10.5568
▁содержание	-10.557
пал	-10.5574
▁рамк	-10.5574
▁встретить	-10.5576
▁звезды	-10.5582
ива	-10.5584
водить	-10.5585
▁Разве	-10.5587
▁пес	-10.5588
▁изменила	-10.559
▁финансово	-10.5591
▁человеческ	-10.5596
▁девочки	-10.5607
▁уверенность	-10.5608
▁конкретны	-10.5609
▁провал	-10.5614
▁отсутствие	-10.5625
▁космически	-10.5628
▁счет	-10.563
▁искусственно	-10.5631
▁ферм	-10.5632
▁замечательн	-10.5641
▁лучш	-10.5646
▁волн	-10.5646
▁диагноз	-10.5651
▁Интересно	-10.5651
▁найдёт	-10.5651
нёс	-10.5651
▁миф	-10.5651
▁точне	-10.5652
▁оборудование	-10.5652
▁смен	-10.5659
▁ребенка	-10.566
▁планету	-10.5661
▁ч	-10.5662
▁потребност	-10.5662
le	-10.5675
▁древни	-10.5676
▁спросит	-10.5679
ард	-10.5686
долго	-10.5687
дём	-10.5689
▁мозгу	-10.5691
▁феномен	-10.5691
▁зрение	-10.5692
▁полос	-10.5693
▁порядо	-10.5695
▁огромным	-10.57
▁двига	-10.5718
▁естественны	-10.5723
изу	-10.5725
▁показатели	-10.5726
▁привлечь	-10.5726
▁изначально	-10.5726
▁реформ	-10.5726
▁Последни	-10.5726
▁мелки	-10.5728
▁специальны	-10.5729
▁электричеств	-10.573
▁умирают	-10.573
▁потребител	-10.5731
▁голуб	-10.5734
▁созданны	-10.5735
ена	-10.5735
▁боли	-10.5738
▁автомобиля	-10.5738
знач	-10.5742
▁долин	-10.5748
енный	-10.5755
▁0	-10.5759
▁Больше	-10.5761
▁головно	-10.5762
▁крупнейши	-10.5767
чек	-10.5776
▁коллеги	-10.5776
тическо	-10.5776
▁приятно	-10.5777
▁истори	-10.5782
▁полёт	-10.5784
▁восстановить	-10.5785
▁эксперимента	-10.5787
▁парне	-10.5792
▁считали	-10.5794
▁цена	-10.5798
брасыва	-10.5798
▁предположи	-10.5798
▁выбрал	-10.5799
▁бур	-10.58
▁начнём	-10.5801
▁нравятся	-10.5801
▁путе	-10.5802
▁99	-10.5802
▁презентаци	-10.5806
дет	-10.5806
N	-10.5811
▁отсюда	-10.5815
ниц	-10.5815
▁принимает	-10.5816
▁закончи	-10.5816
▁предостави	-10.5818
▁психологи	-10.5823
▁спорт	-10.5825
▁воспоминания	-10.5831
▁Бу	-10.5832
тр	-10.5835
▁сделанны	-10.5838
сад	-10.5844
▁революция	-10.5848
вых	-10.5849
▁насекомых	-10.5851
▁давление	-10.5851
ир	-10.5852
рыв	-10.5854
истов	-10.5863
▁собрал	-10.5864
▁некотором	-10.5869
▁глазах	-10.587
▁распозна	-10.5874
▁астероид	-10.5877
▁ландшафт	-10.5877
ление	-10.5878
▁развиты	-10.588
▁кар	-10.5882
▁труб	-10.5886
▁ником	-10.5888
▁зданий	-10.5903
▁20-	-10.5911
▁предметы	-10.5911
▁пчёл	-10.5914
▁всяки	-10.5915
▁равны	-10.5922
▁стреми	-10.594
фф	-10.5942
▁предсказа	-10.5946
▁электричество	-10.5949
▁бренд	-10.5953
▁религиозны	-10.5954
Ф	-10.5958
▁медиа	-10.5958
▁беженце	-10.5963
▁Други	-10.5967
▁Помнит	-10.5969
▁способа	-10.5972
сле	-10.5974
▁акт	-10.5975
▁проекте	-10.5976
▁стресс	-10.5979
▁спрашивал	-10.5985
▁платить	-10.5989
▁государственны	-10.599
▁Буду	-10.6006
▁государств	-10.6009
▁чувствуют	-10.6013
казать	-10.6015
▁собирал	-10.6017
▁свете	-10.6017
▁назван	-10.6024
▁бед	-10.6028
▁ран	-10.6029
ница	-10.6029
▁чётко	-10.603
▁происхождени	-10.603
▁Работа	-10.603
▁ушл	-10.603
▁объединить	-10.6031
▁списк	-10.6031
▁обладает	-10.6033
▁крошечны	-10.6033
▁вруч	-10.6034
▁высше	-10.604
▁нерв	-10.6042
▁работников	-10.605
▁завтра	-10.6053
туда	-10.6055
▁зарабатыва	-10.6064
▁симптом	-10.6073
▁радость	-10.6077
▁мыши	-10.6078
щее	-10.6079
▁школа	-10.6086
тка	-10.6091
▁включает	-10.6092
▁активист	-10.6093
▁развивает	-10.6095
▁государственно	-10.6096
сов	-10.6097
верим	-10.6099
▁размышля	-10.6101
▁коп	-10.6102
кажите	-10.6103
▁объектов	-10.6104
▁Джеймс	-10.6107
▁показатель	-10.6108
▁резко	-10.6113
верят	-10.6115
▁прорыв	-10.6116
▁добра	-10.6117
мент	-10.6118
▁квадрат	-10.6122
▁микроскоп	-10.6123
▁определение	-10.6124
▁камера	-10.6127
даст	-10.6128
▁похожа	-10.6131
▁состояния	-10.6136
▁минуты	-10.6137
▁задание	-10.6137
▁стоил	-10.6141
▁трати	-10.6153
▁среднего	-10.6159
▁динозавр	-10.6167
▁Эд	-10.6171
▁отвеча	-10.6173
▁коротко	-10.6178
▁взаимодействие	-10.618
▁др	-10.618
▁веществ	-10.6182
▁ноутбук	-10.6186
▁опухоль	-10.6186
▁плюс	-10.6186
▁Германии	-10.6188
▁дорогу	-10.6188
альный	-10.6197
▁кости	-10.6201
▁колледж	-10.6206
▁создает	-10.6216
▁Поз	-10.622
▁задачу	-10.6222
▁сел	-10.6225
▁автомобилей	-10.6234
▁расход	-10.624
▁космическо	-10.624
бан	-10.6243
▁ученик	-10.625
▁странам	-10.625
▁компьютерно	-10.6253
▁стоят	-10.6254
▁попытка	-10.6255
▁традици	-10.6257
▁фрагмент	-10.6264
▁Ц	-10.6268
▁лесов	-10.6273
▁открыли	-10.6279
▁внешне	-10.6287
▁контексте	-10.6288
▁придет	-10.6291
ing	-10.6291
▁производят	-10.6294
▁карте	-10.6298
▁Го	-10.6301
▁устойчиво	-10.6301
▁Какой	-10.6306
казано	-10.6309
▁выяснил	-10.6312
слева	-10.6316
ur	-10.6318
▁принесл	-10.6319
▁культуре	-10.6322
▁граждански	-10.6323
▁африкански	-10.6324
▁Пре	-10.6329
▁зелёны	-10.6331
▁последовательно	-10.6335
▁бутылк	-10.6336
▁периода	-10.6338
▁писал	-10.6341
▁Каж	-10.6341
▁уйти	-10.6343
нием	-10.6344
▁начнёт	-10.6344
▁Голос	-10.6344
▁Томас	-10.6344
плоть	-10.6346
▁нужд	-10.6347
▁наград	-10.6348
▁вечно	-10.635
вания	-10.6352
▁Ге	-10.6353
▁Кол	-10.6355
▁Марсе	-10.6355
▁присутствующи	-10.6359
▁предела	-10.636
▁имена	-10.6361
против	-10.6364
▁круто	-10.6369
▁учили	-10.6372
▁ярки	-10.6374
▁острова	-10.6374
▁называть	-10.6378
ёл	-10.6378
▁компани	-10.6391
▁почв	-10.6392
▁пункт	-10.6393
▁слышит	-10.6399
овое	-10.6403
ню	-10.6406
▁природны	-10.6409
▁головы	-10.6409
▁лё	-10.6413
▁спектр	-10.6416
▁плеч	-10.6421
▁Звук	-10.6424
▁квартал	-10.6424
нта	-10.6424
▁фабрик	-10.6426
▁загляну	-10.6427
▁выполни	-10.6428
▁частично	-10.6428
▁поэт	-10.6429
▁старо	-10.6431
▁распространение	-10.6433
ита	-10.6434
шься	-10.6445
▁ритм	-10.645
or	-10.6453
▁народа	-10.6454
▁новом	-10.6457
▁хакер	-10.646
▁песню	-10.6461
етей	-10.6462
▁стен	-10.6463
рн	-10.6464
▁статистик	-10.6475
▁региона	-10.6476
▁полицейски	-10.6478
▁доклад	-10.6481
▁разработки	-10.6484
▁опубликовал	-10.6485
▁кризиса	-10.6485
▁сострадание	-10.6486
▁Майкл	-10.6491
ог	-10.6496
▁здоров	-10.6503
▁потребления	-10.6504
▁неплохо	-10.6505
▁проверк	-10.6505
▁2009	-10.6506
▁танц	-10.6516
▁высоким	-10.6519
▁вспомни	-10.652
▁игрушк	-10.6524
ило	-10.6525
▁Афганистан	-10.6531
▁надежда	-10.6532
▁путешествия	-10.6536
▁установлен	-10.6537
▁обрати	-10.6545
вала	-10.6547
▁органы	-10.6548
▁Европы	-10.655
справить	-10.655
▁функци	-10.6552
лок	-10.6553
▁Афганистане	-10.6559
▁увеличение	-10.656
щ	-10.6563
▁ранне	-10.6565
▁воздействие	-10.6567
▁простая	-10.6569
▁выращива	-10.6579
▁60-	-10.658
▁аргумент	-10.6586
▁хвост	-10.6586
▁Почти	-10.6586
▁крыс	-10.6587
▁организмы	-10.6588
▁чтоб	-10.6596
▁рабоче	-10.6596
▁плох	-10.6598
▁делается	-10.66
▁различи	-10.6602
▁мор	-10.6604
шки	-10.6609
пон	-10.6618
▁финансов	-10.6623
▁Южн	-10.6624
▁помогал	-10.6627
▁чернокожи	-10.663
▁физик	-10.663
▁собираются	-10.663
▁чип	-10.6633
▁позволяющи	-10.6635
▁разрешение	-10.664
▁заболевание	-10.6645
▁Ку	-10.6647
▁Следующи	-10.6654
▁симметри	-10.6654
▁L	-10.6661
▁отличн	-10.6662
▁библиотек	-10.6663
▁Ново	-10.6666
▁утверждаю	-10.6668
▁метра	-10.6668
▁первом	-10.6672
▁стиле	-10.6673
кладывать	-10.6675
L	-10.6675
▁тема	-10.6678
▁акул	-10.6681
▁подростков	-10.6683
▁X	-10.6687
▁девушка	-10.6688
▁применения	-10.6695
▁рабочие	-10.6697
▁атак	-10.6697
▁телефона	-10.6706
▁передачи	-10.6707
com	-10.6709
▁доверие	-10.6714
▁O	-10.672
▁ужин	-10.672
▁звуков	-10.6721
ирования	-10.6724
▁80-	-10.6725
веду	-10.6725
▁величин	-10.6746
▁электро	-10.6749
▁гипотез	-10.675
▁наслажда	-10.675
▁выразить	-10.675
▁The	-10.675
▁рассматривать	-10.6751
▁палец	-10.6751
▁риф	-10.6752
▁частот	-10.6754
▁заканчива	-10.6754
▁отличаются	-10.6755
▁проходил	-10.6758
▁составляют	-10.6759
▁фигур	-10.676
▁Бен	-10.676
▁направление	-10.676
▁сделаны	-10.6762
▁здоровы	-10.6763
тельный	-10.6765
▁мнения	-10.6769
▁женщинам	-10.6771
водит	-10.6774
▁склад	-10.6782
виду	-10.6786
▁еда	-10.6789
▁фундаментальны	-10.6795
▁останет	-10.6797
▁бу	-10.68
▁задавать	-10.6805
▁камеру	-10.6806
▁предложения	-10.6809
▁какими	-10.6811
▁добавил	-10.6812
дом	-10.6816
▁гигантски	-10.6816
▁подобного	-10.6816
▁политическ	-10.6819
▁дорога	-10.6819
▁обеспечение	-10.6826
▁процвета	-10.683
▁углекисл	-10.683
▁вход	-10.6831
▁большом	-10.6831
▁потребует	-10.6834
▁восторг	-10.6834
▁пляж	-10.6834
▁Важно	-10.6834
▁кадр	-10.6834
▁Привет	-10.6835
▁лечить	-10.6836
▁выгод	-10.6838
овым	-10.6841
▁пожар	-10.6844
▁Канад	-10.6845
▁хозяйства	-10.6847
▁значительны	-10.6849
▁примера	-10.6852
▁души	-10.6853
▁противостоя	-10.6854
▁оба	-10.6854
▁улица	-10.6855
▁товаров	-10.6859
▁Оказа	-10.686
▁навыки	-10.6861
▁человечество	-10.6861
▁успешны	-10.6865
▁приведу	-10.6869
▁существования	-10.6871
есть	-10.6877
▁попадает	-10.6879
▁верх	-10.688
▁сестр	-10.688
изации	-10.6888
▁заказ	-10.6892
▁рукой	-10.6897
▁погод	-10.6898
▁категори	-10.691
▁фокус	-10.6914
▁электронно	-10.6914
знаком	-10.6915
▁професси	-10.6916
▁кандидат	-10.6918
▁млн	-10.6918
▁процедур	-10.6918
▁вернёмся	-10.6918
▁навсегда	-10.6918
ремя	-10.6926
остью	-10.6936
▁един	-10.6936
la	-10.694
▁функции	-10.6941
клад	-10.6942
▁уменьшить	-10.6948
рож	-10.695
▁запись	-10.6951
▁земля	-10.6957
▁страсть	-10.696
▁вируса	-10.696
▁страда	-10.6961
айте	-10.6967
▁родственник	-10.6968
▁запрос	-10.697
моем	-10.698
▁малы	-10.6983
▁превраща	-10.6987
▁культуру	-10.699
▁камен	-10.6994
▁сомнени	-10.6994
▁расп	-10.6996
▁обитания	-10.7002
▁берут	-10.7005
строения	-10.7006
▁грузовик	-10.7006
▁Америка	-10.7007
▁толп	-10.7007
▁выставк	-10.7008
▁отметить	-10.7009
▁побед	-10.7015
▁би	-10.7018
▁ро	-10.7019
▁брак	-10.7021
▁сыгра	-10.7022
▁хирург	-10.7023
нными	-10.7025
▁живет	-10.7027
рес	-10.703
▁исторически	-10.7033
ший	-10.7035
жалуйста	-10.7038
▁полученны	-10.7038
▁превратил	-10.7039
▁отход	-10.7042
▁активность	-10.7044
▁старши	-10.7047
▁расстояни	-10.7054
▁играл	-10.7059
▁Росси	-10.7059
▁красив	-10.706
▁отражает	-10.7067
▁городски	-10.7069
▁дли	-10.7078
▁недавн	-10.7079
кус	-10.7082
▁соответстви	-10.7088
▁областях	-10.7088
▁ткань	-10.7088
▁окажет	-10.7088
▁звука	-10.7091
▁красно	-10.7092
аньше	-10.7092
▁волну	-10.7094
▁существенно	-10.7096
▁ждал	-10.7104
▁основал	-10.7105
▁жук	-10.7106
▁организма	-10.7106
▁восприятия	-10.7107
▁городско	-10.711
▁экономическ	-10.7114
илась	-10.712
явить	-10.713
▁уход	-10.7131
▁добро	-10.7135
▁склонны	-10.7137
▁льда	-10.7138
▁английском	-10.7144
▁правительств	-10.7146
атив	-10.7151
▁Возьмё	-10.7155
▁вызвал	-10.7156
▁600	-10.7158
▁художник	-10.7158
▁особы	-10.716
ad	-10.7163
▁желания	-10.7165
тобой	-10.7165
ении	-10.7166
et	-10.7166
▁годах	-10.7168
▁делом	-10.7168
▁низко	-10.717
▁смертност	-10.7171
▁талант	-10.7174
▁динамик	-10.7174
▁юмор	-10.7175
▁сцену	-10.7175
▁Понимает	-10.7177
▁технологиями	-10.7177
▁определенны	-10.7178
▁площадь	-10.7178
▁J	-10.7179
▁основани	-10.7181
▁1000	-10.7181
▁статью	-10.7184
▁фильмов	-10.7186
ывать	-10.719
▁обществ	-10.7195
▁соверши	-10.7196
▁ислам	-10.7206
▁Зна	-10.7207
▁нахожу	-10.7207
▁мух	-10.7213
▁участников	-10.7215
▁опер	-10.7222
▁голод	-10.7226
▁лини	-10.7231
▁капитала	-10.7236
▁умерл	-10.7237
▁деревне	-10.7237
вес	-10.7238
▁кислород	-10.7238
▁поддержку	-10.7242
готов	-10.7243
▁зала	-10.7245
▁мяч	-10.7247
▁проводят	-10.7251
▁главный	-10.7252
▁английски	-10.7254
▁стена	-10.7255
▁коллекци	-10.7261
▁iPhone	-10.7261
▁внимательно	-10.7261
▁аэропорт	-10.7261
▁максимально	-10.7261
▁Среди	-10.7261
▁нищет	-10.7261
▁мэр	-10.7262
▁s	-10.7263
▁ошибок	-10.7265
ющегося	-10.7266
▁чьи	-10.7269
ация	-10.7273
▁раком	-10.7273
▁воображение	-10.7275
ведения	-10.7277
▁распространен	-10.7277
▁преимущество	-10.7278
▁менять	-10.728
▁уходит	-10.7281
▁исполни	-10.7282
пир	-10.7284
▁встречал	-10.7285
▁студи	-10.7285
▁больно	-10.7287
▁проводит	-10.7287
▁произойт	-10.7288
▁вдвое	-10.7293
▁отлича	-10.7297
▁Ру	-10.73
▁рассказа	-10.73
▁интересна	-10.7307
▁зал	-10.7314
вет	-10.732
▁Дэн	-10.7321
▁угол	-10.7323
▁запуска	-10.7324
▁хими	-10.7325
ладно	-10.7326
▁потер	-10.733
▁ламп	-10.7334
▁фи	-10.7335
бла	-10.7342
▁топливо	-10.7344
▁замуж	-10.7346
▁Доктор	-10.7349
▁пакет	-10.7349
▁повлиял	-10.7349
▁плач	-10.7353
▁колен	-10.7355
▁журнала	-10.736
▁целое	-10.7363
▁капитализм	-10.7363
▁женщину	-10.7367
ck	-10.737
▁роде	-10.737
▁женщинами	-10.7376
▁лиш	-10.7378
лететь	-10.7382
▁домашни	-10.7386
▁бок	-10.7386
▁отрыв	-10.739
▁порог	-10.7392
▁ролик	-10.7393
▁знание	-10.7395
ch	-10.7396
▁главн	-10.7402
▁чудо	-10.7403
▁никого	-10.7406
▁зло	-10.7408
▁прекрасн	-10.7409
▁массово	-10.741
гло	-10.741
▁Стив	-10.7411
любить	-10.7411
▁голода	-10.7411
наружи	-10.7416
▁дума	-10.7417
жно	-10.7417
▁доказательства	-10.7429
▁основа	-10.743
▁определенно	-10.7431
▁математики	-10.7432
▁потеряли	-10.7433
▁вырасти	-10.7437
▁клинически	-10.7437
▁Спуст	-10.7437
▁сезон	-10.7437
▁дерева	-10.7438
▁произведения	-10.7438
▁Речь	-10.7438
▁сини	-10.7441
▁попытк	-10.7442
▁уникальны	-10.7443
▁близки	-10.7444
▁описал	-10.7444
▁наличие	-10.746
▁снег	-10.7465
▁штука	-10.7467
▁Какие	-10.747
us	-10.747
▁появлени	-10.7472
▁биологическо	-10.7476
▁доля	-10.7477
▁продемонстрир	-10.7479
ид	-10.748
▁Мал	-10.7481
▁стратегии	-10.7484
▁сыр	-10.7486
▁больнице	-10.7488
рин	-10.7493
▁больных	-10.7494
▁Ги	-10.7502
▁перес	-10.7503
смотр	-10.7503
▁необычно	-10.7508
▁стену	-10.7509
▁жела	-10.751
▁ошибка	-10.7512
▁встречи	-10.752
▁расходы	-10.752
▁исследовательск	-10.7521
▁YouTube	-10.7526
▁НАСА	-10.7526
▁участвовал	-10.7526
▁впечатление	-10.7526
▁расчёт	-10.7527
▁конструкци	-10.7527
▁Кан	-10.7528
▁2007	-10.7528
▁Соединенны	-10.7531
▁цепочк	-10.7539
▁многом	-10.7541
▁диалог	-10.7541
▁коров	-10.7545
▁выполнять	-10.755
▁берёт	-10.7552
▁эмоционально	-10.7553
▁революци	-10.7553
лом	-10.7554
бил	-10.7554
▁сотрудников	-10.7559
даём	-10.7562
реб	-10.7563
грамм	-10.7565
▁военно	-10.7565
▁пишет	-10.757
▁задачей	-10.7572
▁поднимает	-10.7574
▁вызыва	-10.7578
▁занятия	-10.7583
▁экологи	-10.7585
▁каково	-10.7588
▁математически	-10.7592
сек	-10.7593
▁учит	-10.7594
▁подел	-10.7595
▁удивительное	-10.7598
▁находящи	-10.7606
▁ше	-10.7608
▁батаре	-10.7611
▁ценност	-10.7612
▁рецепт	-10.7615
▁оборот	-10.7615
▁ежегодно	-10.7617
рел	-10.7617
▁Мартин	-10.7617
гру	-10.7618
▁снизить	-10.7618
▁часы	-10.7621
▁объясняет	-10.7626
▁ветер	-10.7631
▁существование	-10.7633
▁окна	-10.7636
▁польз	-10.764
▁твои	-10.7645
дали	-10.7646
▁школах	-10.7646
▁90-	-10.765
▁следовать	-10.7651
is	-10.7653
убить	-10.7655
льных	-10.7659
▁доллар	-10.7659
▁современных	-10.7662
▁ледник	-10.7663
▁стоимост	-10.767
▁игре	-10.7674
▁положительны	-10.7675
▁жал	-10.7676
▁ожидания	-10.7679
▁неизвестно	-10.768
ированны	-10.7681
илл	-10.7683
▁детств	-10.7685
очно	-10.7687
жит	-10.7696
▁падает	-10.7699
лик	-10.7703
▁относи	-10.7705
скоре	-10.7706
▁комментари	-10.7707
$	-10.7707
▁Одним	-10.7708
▁убеждения	-10.771
овали	-10.771
▁положил	-10.7711
▁промышленно	-10.7712
▁технологически	-10.7716
▁брать	-10.7719
▁изучал	-10.7727
▁слав	-10.7728
▁депрессии	-10.7729
▁ге	-10.7735
▁продолжают	-10.7736
аты	-10.7739
▁прочи	-10.7739
▁Y	-10.7741
▁рис	-10.7742
▁команде	-10.7742
пар	-10.7745
▁пожилы	-10.7745
шить	-10.7746
▁судьб	-10.7756
▁бесед	-10.776
▁высокого	-10.7761
▁цифровы	-10.7763
читыва	-10.7765
ряд	-10.7765
▁изобретение	-10.7767
лез	-10.7767
▁пас	-10.777
▁пластик	-10.777
▁Всего	-10.7772
▁ветра	-10.7772
▁разумно	-10.7777
▁тёмно	-10.7777
▁ошиба	-10.778
▁настоящим	-10.7782
▁ребят	-10.7787
▁распространя	-10.7788
▁объекта	-10.7797
▁волны	-10.7798
▁искусственны	-10.7799
▁ман	-10.7799
▁наблюда	-10.7799
▁взаимодействова	-10.7799
▁демонстраци	-10.7799
▁участок	-10.7799
▁времён	-10.7799
▁Около	-10.7799
▁сюжет	-10.7799
▁радикально	-10.78
▁сайте	-10.78
новому	-10.7805
▁Том	-10.781
изация	-10.7813
▁разработать	-10.7814
▁обычных	-10.7816
▁Смотрит	-10.7817
▁общее	-10.7818
▁ничто	-10.782
▁сострадани	-10.782
▁слой	-10.7825
▁грани	-10.7831
▁нижне	-10.7831
ваться	-10.7832
▁предназначен	-10.7833
▁дне	-10.7833
▁обнаружен	-10.7833
▁родилась	-10.7835
▁снять	-10.7835
▁свойства	-10.7839
▁дар	-10.7842
▁лидеры	-10.7844
шие	-10.7854
▁кур	-10.7858
▁Солнце	-10.7862
▁найден	-10.7866
вшим	-10.7867
щу	-10.7868
▁отказа	-10.7871
▁рейтинг	-10.7872
▁дыр	-10.7873
▁стимул	-10.7875
▁Говоря	-10.7877
▁делиться	-10.7877
▁господ	-10.7877
разном	-10.7878
шая	-10.7879
▁отвечал	-10.788
▁явно	-10.7882
▁единственным	-10.7885
▁коллективно	-10.7888
▁делала	-10.7888
звлечь	-10.7892
▁GPS	-10.7892
▁Действительно	-10.7892
▁январ	-10.7892
▁безусловно	-10.7895
▁девять	-10.7898
▁Женщины	-10.7898
▁27	-10.7899
▁секунды	-10.7901
енных	-10.7902
▁преодолеть	-10.7903
▁наблюдает	-10.7905
▁70-	-10.7911
▁уделя	-10.7912
▁творчество	-10.7917
стях	-10.7917
граф	-10.7918
▁бел	-10.7921
▁Всемирн	-10.7924
▁следи	-10.7926
Э	-10.7936
▁карьер	-10.7941
▁Дале	-10.7942
▁компаниям	-10.7943
▁объяснение	-10.7949
час	-10.7952
▁врачи	-10.7953
▁удивительн	-10.7955
▁реальн	-10.7956
▁защищать	-10.7961
▁наблюдали	-10.797
▁позад	-10.7971
▁необходим	-10.7975
▁сотрудник	-10.7976
рад	-10.7976
▁территори	-10.7984
▁диабет	-10.7985
▁моделей	-10.7985
▁Господ	-10.7985
▁лазер	-10.7986
▁Ган	-10.7989
писано	-10.799
▁экономист	-10.7998
▁доллара	-10.7998
▁достижени	-10.8003
жима	-10.8007
▁считал	-10.8008
▁быстры	-10.8012
▁деталь	-10.8016
▁разно	-10.8022
▁платформ	-10.8023
▁женщиной	-10.8025
▁холодно	-10.8028
▁интернета	-10.8029
▁этаж	-10.803
▁попал	-10.8034
▁необходимость	-10.8035
▁сократить	-10.8035
▁Центр	-10.8041
▁убива	-10.8042
▁взрыва	-10.8047
эр	-10.8048
давая	-10.8048
▁снизу	-10.8053
▁облака	-10.8062
▁Франции	-10.8064
щим	-10.8068
▁Примерн	-10.8069
▁домов	-10.8069
▁показало	-10.8069
▁справи	-10.807
▁вакцин	-10.8073
▁температура	-10.8075
▁горизонт	-10.8079
▁Чикаго	-10.808
▁языков	-10.808
▁десяти	-10.808
▁Опять	-10.8081
▁автоматически	-10.8081
▁решает	-10.8082
ходим	-10.8083
▁Жизнь	-10.8083
▁гриб	-10.8084
кладывают	-10.8085
▁попытки	-10.8089
▁остановиться	-10.8091
▁отношениях	-10.8091
▁представляю	-10.8096
▁двигатель	-10.8097
▁ожида	-10.8101
дель	-10.8102
▁250	-10.8102
▁считается	-10.8109
▁Стивен	-10.8109
▁деревни	-10.8109
▁упомина	-10.811
оль	-10.8111
▁начинал	-10.8111
▁склон	-10.8112
▁кро	-10.8113
▁замеча	-10.8115
ган	-10.8116
▁заключённы	-10.8125
▁языком	-10.8127
▁здравоохранение	-10.8132
▁учить	-10.8134
▁вещами	-10.8136
▁Весь	-10.8138
▁личность	-10.8141
▁тайн	-10.8141
▁фраз	-10.8145
▁солнц	-10.815
▁исход	-10.8151
ранее	-10.8152
▁программно	-10.8153
стать	-10.8154
▁увеличени	-10.8162
мон	-10.8163
▁съёмк	-10.8165
▁золото	-10.8166
▁малыш	-10.8169
▁коллегами	-10.817
▁Больш	-10.817
▁пожалуй	-10.8174
▁заявил	-10.8175
▁Бостон	-10.8175
▁земно	-10.8175
▁шкал	-10.8176
▁спокойно	-10.8176
▁сража	-10.8177
▁страдания	-10.8177
▁днём	-10.8177
▁понадобится	-10.8177
▁мышление	-10.8179
▁пользователей	-10.8179
селенная	-10.818
▁приведёт	-10.8182
альная	-10.8183
носят	-10.8189
▁здани	-10.8191
ённые	-10.8197
▁занимаем	-10.8201
▁клуб	-10.8202
▁необходима	-10.8202
▁подошл	-10.8203
▁бег	-10.8204
▁точек	-10.8208
▁результата	-10.821
▁одежд	-10.8212
чет	-10.8212
▁демократия	-10.8217
ro	-10.8218
▁Мор	-10.8218
▁религия	-10.8219
▁проводили	-10.8221
▁окружени	-10.8221
▁ограничения	-10.8222
▁закона	-10.8225
▁воспринимать	-10.823
▁пора	-10.8234
ств	-10.8235
▁борьба	-10.8235
▁видение	-10.8238
▁тщательно	-10.824
▁генетическо	-10.8246
▁открытым	-10.8253
▁роботы	-10.8253
▁испыта	-10.8256
▁эффективность	-10.8262
▁непросто	-10.8263
центов	-10.8263
▁случайны	-10.8267
нутри	-10.8267
▁поздно	-10.8271
▁ребен	-10.8271
▁последующи	-10.8271
▁книж	-10.8272
▁съед	-10.8273
▁понадоби	-10.8273
▁разбира	-10.8274
▁донор	-10.8276
▁расширя	-10.8279
▁шла	-10.8286
▁статус	-10.8287
▁встреч	-10.8288
▁рос	-10.8288
▁врачей	-10.8289
▁обезьян	-10.829
▁цеп	-10.8294
v	-10.8297
▁замен	-10.8297
▁выиграл	-10.8299
▁осуществить	-10.83
▁переговор	-10.8302
▁диет	-10.8302
▁Пер	-10.8305
▁темп	-10.8307
▁напряму	-10.8308
▁кот	-10.8315
▁интересным	-10.8315
▁поп	-10.832
▁управляет	-10.8321
▁снял	-10.8321
▁Конго	-10.8326
▁опубликован	-10.8333
▁почувствовал	-10.8335
▁животного	-10.8338
▁парни	-10.8348
▁собственным	-10.8349
▁поврежден	-10.8359
▁строительство	-10.8363
▁Западно	-10.8364
▁Истори	-10.8368
▁тишин	-10.8368
▁скелет	-10.8368
▁учёт	-10.8368
▁достигает	-10.8368
▁изучил	-10.8368
▁дешевле	-10.8369
▁актёр	-10.8369
▁Руанд	-10.8369
▁потребление	-10.837
▁противоположно	-10.8371
▁бросил	-10.8376
▁Национально	-10.8383
▁Женщина	-10.8384
▁патент	-10.8384
▁риску	-10.8387
шедш	-10.8389
▁трудности	-10.8393
▁потребность	-10.8401
пут	-10.8404
▁принимаем	-10.8404
▁жизненны	-10.8406
▁отходов	-10.8407
▁ящик	-10.841
▁обратил	-10.8411
▁прочим	-10.8414
рг	-10.8416
▁Хар	-10.8416
at	-10.8421
▁партнёр	-10.8421
стве	-10.8421
очка	-10.8423
▁упомянул	-10.8424
дова	-10.8425
очень	-10.8425
говор	-10.8428
▁Тот	-10.8438
▁вещество	-10.8439
▁государство	-10.844
▁выполнени	-10.8442
▁отдал	-10.8443
▁оказывают	-10.8445
▁изображений	-10.8446
▁зим	-10.8446
пс	-10.845
▁учитель	-10.8451
▁справедливост	-10.8458
▁воссозда	-10.8461
ступает	-10.8461
▁переехал	-10.8465
▁адрес	-10.8466
▁Существую	-10.8466
▁взгляне	-10.8466
▁инициатив	-10.8466
▁растение	-10.8466
▁вечеринк	-10.8466
▁ритуал	-10.8466
▁трюк	-10.8467
▁побочны	-10.8467
▁немноги	-10.8467
ируя	-10.8468
▁ответственности	-10.8468
▁проводил	-10.8468
▁фильме	-10.8475
▁Будь	-10.8478
эк	-10.8479
▁потери	-10.8481
▁придума	-10.8485
▁окно	-10.8491
▁шарик	-10.8492
▁выбирать	-10.8492
▁луч	-10.8496
▁выросла	-10.8499
▁красн	-10.85
▁массы	-10.8503
▁хозяйство	-10.8505
▁моральны	-10.8506
▁известна	-10.8507
▁обычн	-10.851
льной	-10.8512
▁лун	-10.8514
▁низки	-10.8514
▁счастливым	-10.8514
▁называ	-10.8515
▁находя	-10.8516
ткуда	-10.8517
▁ед	-10.8517
▁занял	-10.8519
▁пыльц	-10.852
сор	-10.8526
▁посеща	-10.8531
▁виртуально	-10.8543
▁втор	-10.8545
▁показывал	-10.8546
▁изучение	-10.8552
▁выступа	-10.8553
▁созданы	-10.8554
спать	-10.8559
▁преимущества	-10.8564
▁Апплодисменты	-10.8565
▁долгосрочно	-10.8565
▁покупать	-10.8565
▁водоросл	-10.8565
рас	-10.8565
▁добыч	-10.8566
▁глобализаци	-10.8568
▁выражение	-10.8571
▁счита	-10.8572
▁тесно	-10.8573
▁анализа	-10.8573
▁генома	-10.8579
платить	-10.8581
▁борт	-10.859
▁кислорода	-10.8591
▁количестве	-10.8593
▁продаж	-10.8593
▁напомина	-10.8594
▁встрети	-10.8594
▁музей	-10.8595
ливо	-10.8596
емых	-10.8597
▁целую	-10.8608
▁бабушка	-10.8609
▁рыбу	-10.861
▁65	-10.8613
▁клетку	-10.8613
▁магнит	-10.8619
▁ярко	-10.8622
▁измен	-10.8628
▁ограничени	-10.8631
▁карьеру	-10.8633
▁изобрел	-10.8635
теля	-10.8644
кую	-10.8647
▁лечени	-10.8647
▁возвращает	-10.8649
▁применять	-10.8656
жат	-10.8657
▁некоторым	-10.8658
▁частя	-10.8658
z	-10.8658
▁Давай	-10.8658
▁принципе	-10.8664
▁опухоли	-10.8665
▁имела	-10.8665
мок	-10.8667
▁элит	-10.8667
▁Адам	-10.8668
▁2005	-10.8668
▁случиться	-10.8668
чение	-10.8669
ланд	-10.8673
▁приблизительно	-10.8676
▁промышленност	-10.8677
лево	-10.868
▁папа	-10.8685
▁учился	-10.8686
▁существо	-10.8687
▁увеличивается	-10.8689
▁относят	-10.869
▁двое	-10.8693
▁Наше	-10.8694
▁реактор	-10.8694
▁направлен	-10.8709
▁поступ	-10.8711
чем	-10.8713
тремя	-10.8719
▁прибыли	-10.8719
▁поменять	-10.872
▁сложным	-10.872
йдут	-10.8723
▁Любо	-10.8723
▁отбор	-10.8727
▁традиционно	-10.8734
▁мем	-10.8736
▁создател	-10.8744
▁доск	-10.8745
▁выпуска	-10.8747
▁приложение	-10.8749
50	-10.8753
▁противоречи	-10.8754
▁обычным	-10.8757
▁пациентам	-10.8759
▁определени	-10.876
гар	-10.8764
▁установк	-10.8766
▁организовать	-10.8766
▁бега	-10.8766
▁постройк	-10.8766
▁связей	-10.8766
▁кусочек	-10.8766
▁Исследовани	-10.8767
▁Разум	-10.8767
▁сравнить	-10.8768
▁концерт	-10.8769
▁погибл	-10.8773
▁потребова	-10.8773
▁Никогда	-10.8773
▁ядерны	-10.8777
мысл	-10.878
▁следующ	-10.8781
▁крыш	-10.8783
▁ищет	-10.8784
▁стул	-10.8785
▁предприниматель	-10.8785
▁Стар	-10.8786
▁следующим	-10.8787
▁слабы	-10.8787
▁разрешения	-10.8791
▁расширить	-10.8792
▁влияния	-10.8795
▁мотор	-10.8798
▁пальц	-10.88
енная	-10.8808
вел	-10.8814
▁запад	-10.8817
▁популяци	-10.8818
яет	-10.8818
▁4-	-10.8819
▁глуб	-10.8824
генов	-10.8824
▁определения	-10.8824
зор	-10.8827
▁БД	-10.883
▁ребёнк	-10.883
▁потерял	-10.8831
▁постоянны	-10.8834
▁метафор	-10.8835
▁летом	-10.8837
ошел	-10.8838
▁сложность	-10.884
▁американско	-10.8846
ённых	-10.8849
▁фильтр	-10.8849
▁факторов	-10.8851
▁вычисления	-10.8861
▁Apple	-10.8868
▁полиомиелит	-10.8868
▁энергетик	-10.8868
▁Чарльз	-10.8868
▁рассчитыва	-10.8868
▁микрофон	-10.8869
▁Наверно	-10.8869
▁Эрик	-10.887
▁пережил	-10.8872
▁продолжал	-10.8873
▁50-	-10.8874
▁проходя	-10.8876
▁ПМ	-10.8878
▁вовлечен	-10.8878
тянуть	-10.8878
▁Ман	-10.888
▁стоя	-10.888
следовательность	-10.8882
▁науку	-10.8886
▁внешни	-10.8894
гал	-10.8898
▁принял	-10.8906
▁цифра	-10.8907
▁получал	-10.8909
▁разговора	-10.8911
▁профессиональны	-10.8913
▁Верно	-10.8913
▁инфекци	-10.8916
▁картинка	-10.8919
▁Интернете	-10.8919
звать	-10.8922
▁начнут	-10.8922
▁активност	-10.8924
▁согласны	-10.8925
▁требуют	-10.8926
▁формировани	-10.8931
▁глав	-10.8934
▁мно	-10.8935
▁такова	-10.8937
тельной	-10.8939
▁искусств	-10.8942
чк	-10.8946
▁скал	-10.8947
дают	-10.895
▁лице	-10.8951
▁просил	-10.8951
▁рисова	-10.8954
▁пап	-10.8957
▁ребенк	-10.896
▁повторя	-10.8967
▁ценны	-10.8968
▁Пус	-10.8968
▁New	-10.897
▁интересовал	-10.8971
á	-10.8971
▁Прямо	-10.8971
▁посреди	-10.8971
▁смартфон	-10.8971
▁соотношени	-10.8971
▁экспедици	-10.8971
▁Проект	-10.8971
▁сервис	-10.8971
работает	-10.8975
▁пригород	-10.8976
▁смотря	-10.8976
▁формат	-10.8976
▁слушал	-10.8976
▁оркестр	-10.8981
▁торговы	-10.8982
▁спуска	-10.8991
▁перешл	-10.8991
▁называли	-10.8992
▁смешно	-10.8993
▁разработан	-10.9012
нами	-10.9015
▁написала	-10.9017
▁явления	-10.9017
▁выживани	-10.9017
▁молодым	-10.9021
▁меняют	-10.9024
▁Уж	-10.9024
▁применение	-10.9028
▁Ал	-10.9031
▁испытания	-10.9031
▁мастер	-10.9032
▁V	-10.9033
▁центрально	-10.9033
▁провод	-10.9036
план	-10.9036
▁обеспечива	-10.9044
▁возможностям	-10.9048
▁метро	-10.9049
миль	-10.905
▁расстояния	-10.905
▁восьми	-10.9055
гляд	-10.9063
▁крут	-10.9065
▁лаборатория	-10.9066
Анджелес	-10.9067
▁разума	-10.9069
▁избега	-10.9071
ошли	-10.9071
▁тратить	-10.9072
▁чёрно	-10.9073
▁слабо	-10.9074
▁возьмём	-10.9075
▁соответствует	-10.9075
▁устроен	-10.9076
▁принадлежит	-10.9076
▁подверга	-10.9076
▁пилот	-10.9077
ставим	-10.9077
▁мышь	-10.9078
▁Закон	-10.9082
▁посетил	-10.9089
▁показано	-10.909
li	-10.9091
▁Солнца	-10.9097
▁лекци	-10.9101
▁32	-10.9104
▁взаимосвязан	-10.9112
▁занят	-10.9115
▁называемо	-10.9118
▁снимал	-10.9118
▁пород	-10.912
▁кг	-10.9122
▁крупн	-10.9122
ap	-10.9124
▁летать	-10.9136
▁будущи	-10.9142
▁сер	-10.9143
вил	-10.9147
фон	-10.9151
щихся	-10.9151
▁школьны	-10.9156
▁научн	-10.916
▁сердечны	-10.916
▁струн	-10.9162
▁скучно	-10.9164
▁убил	-10.9166
нка	-10.9167
▁пары	-10.9174
▁заняты	-10.9175
▁фермер	-10.9175
▁шрифт	-10.9181
▁охот	-10.9181
▁вдохновил	-10.9181
▁опира	-10.9181
▁подар	-10.9184
▁конфликта	-10.9187
▁министр	-10.9191
▁флаг	-10.9195
▁домашне	-10.9196
низу	-10.9196
▁Суть	-10.9198
▁инвалид	-10.9199
чего	-10.92
▁стро	-10.9201
▁серьезно	-10.9202
▁принятия	-10.9206
▁сосредоточен	-10.9209
▁мяс	-10.9209
▁полов	-10.9209
▁чудесны	-10.9211
▁Джим	-10.9211
▁философ	-10.9216
ением	-10.9217
▁великолепны	-10.9222
▁богатства	-10.923
▁источника	-10.9231
▁бар	-10.9231
▁проектировани	-10.9232
сен	-10.9233
▁преступления	-10.9236
▁творческо	-10.9238
▁корн	-10.9249
▁взяты	-10.9249
▁автомобили	-10.9252
▁увеличи	-10.9253
▁клиент	-10.9254
▁площадк	-10.9256
▁сине	-10.9257
▁философи	-10.926
▁рано	-10.9261
▁битв	-10.9262
вис	-10.9267
▁разрушен	-10.9279
▁сериал	-10.9282
▁пенси	-10.9283
▁разработк	-10.9284
бывают	-10.9286
▁организовал	-10.9287
▁траектори	-10.9287
▁трансформаци	-10.9287
▁2011	-10.9287
▁микроорганизм	-10.9287
▁холм	-10.9287
▁берём	-10.9287
▁транс	-10.9287
▁возвращени	-10.9287
▁немало	-10.9288
▁подходящи	-10.9288
▁ракет	-10.929
▁правду	-10.9292
▁воздушны	-10.9293
▁жила	-10.9303
▁разреши	-10.9307
▁соединить	-10.9308
▁останавлива	-10.931
▁Никак	-10.9312
▁собак	-10.9314
▁двум	-10.9316
вучит	-10.9321
фу	-10.9322
▁открыва	-10.9325
▁отсутстви	-10.9325
▁торгов	-10.9326
▁показывать	-10.9331
▁создала	-10.9332
▁руководств	-10.9334
▁специалистов	-10.9339
▁служит	-10.9342
▁полтор	-10.9343
▁небе	-10.9343
▁кода	-10.9348
▁носит	-10.9357
пят	-10.9358
el	-10.9359
▁настроен	-10.9372
▁совершил	-10.9372
▁квадратны	-10.9374
лан	-10.9378
▁Вселенная	-10.9381
▁северно	-10.9381
▁силе	-10.9384
бес	-10.9386
▁исходя	-10.9387
▁Гу	-10.939
уча	-10.9391
▁колледже	-10.9392
▁Марса	-10.9395
▁редки	-10.9395
▁добры	-10.9397
▁разрыв	-10.94
▁Могу	-10.9404
▁участки	-10.9407
▁профессионал	-10.9408
▁Хороши	-10.9408
▁нога	-10.9414
сход	-10.9421
▁оставля	-10.9421
озьмите	-10.9424
▁заключение	-10.943
▁корм	-10.9433
▁дискусси	-10.9435
над	-10.9436
▁скот	-10.9439
▁куск	-10.9444
берг	-10.9446
▁предлагаю	-10.9452
▁Ок	-10.9454
▁сущность	-10.9456
▁возл	-10.9461
ведение	-10.9463
▁лодк	-10.9464
▁третье	-10.9464
очек	-10.9468
▁Северн	-10.9472
▁желани	-10.9473
хватить	-10.9476
▁отправ	-10.9476
▁прожи	-10.9477
▁заботить	-10.9477
держать	-10.9478
пред	-10.948
▁жир	-10.9483
▁музыкальны	-10.9484
▁Бар	-10.9484
▁ра	-10.9486
▁мотиваци	-10.9489
▁показала	-10.9496
▁клеткам	-10.95
▁лов	-10.9501
▁захочет	-10.9503
▁придумыва	-10.9503
▁таблиц	-10.9503
▁мутаци	-10.9503
▁слышим	-10.9506
▁тра	-10.9508
вшее	-10.951
▁кожу	-10.951
НБ	-10.9513
▁африканск	-10.9521
▁пришел	-10.9525
ледовательно	-10.9525
▁математика	-10.9526
▁влияю	-10.9529
▁враща	-10.953
▁параметр	-10.9534
▁студент	-10.9538
▁десятилетий	-10.954
▁крупно	-10.9542
▁неравенство	-10.9542
▁сенсор	-10.9545
▁сталкиваем	-10.9555
телем	-10.9559
▁карикатур	-10.956
▁задал	-10.9565
чел	-10.9567
▁10-	-10.9568
ic	-10.9571
ed	-10.9573
▁широки	-10.9574
пользуются	-10.9583
G	-10.9584
▁изобретения	-10.9589
▁дед	-10.959
▁жар	-10.96
▁Институт	-10.9613
▁шоколад	-10.9613
▁объем	-10.9613
▁поэзи	-10.9613
▁рекорд	-10.9613
▁дочери	-10.9614
▁представлять	-10.9614
▁просьб	-10.9615
▁чёрн	-10.9615
▁включить	-10.9618
▁строк	-10.9621
▁визуально	-10.9623
▁означало	-10.9624
▁появление	-10.9625
▁потерять	-10.9625
▁30-	-10.9625
▁преми	-10.9627
▁предыдущи	-10.963
▁удаётся	-10.963
кто	-10.9632
▁кроват	-10.9637
▁программировани	-10.9639
▁музее	-10.9641
близи	-10.9644
nd	-10.9645
▁плана	-10.9653
рик	-10.9654
реш	-10.9657
▁обнаружила	-10.9658
рал	-10.9665
▁U	-10.9667
▁открытом	-10.9669
▁женски	-10.9674
носим	-10.9677
ворот	-10.968
ук	-10.9688
подобие	-10.9688
мир	-10.9694
▁стене	-10.9695
▁двор	-10.9699
▁газов	-10.97
▁эволюция	-10.97
▁версия	-10.9703
▁K	-10.9706
▁независимы	-10.9706
▁ссылк	-10.9709
кол	-10.9714
▁разговаривал	-10.9715
▁приз	-10.9722
▁Швеци	-10.9724
▁учёб	-10.9724
▁ущерб	-10.9724
▁хромосом	-10.9724
▁разнообразны	-10.9724
▁держит	-10.9724
▁196	-10.9724
▁пойдёт	-10.9725
метр	-10.9725
▁глядя	-10.9725
▁ката	-10.9726
▁способствуе	-10.9726
▁виртуальны	-10.9728
▁персонаж	-10.9729
th	-10.9733
ожидать	-10.9738
▁потенциально	-10.9739
▁ожидаем	-10.974
▁лент	-10.974
били	-10.975
▁формул	-10.9752
▁Сири	-10.9755
▁происходить	-10.9756
▁дам	-10.976
▁понимани	-10.976
▁изображен	-10.9763
▁пис	-10.9765
▁культурны	-10.9766
▁подобным	-10.9767
нем	-10.9769
▁рул	-10.9773
▁Похоже	-10.9777
▁показываю	-10.9779
▁Интернета	-10.978
▁полёта	-10.978
▁осознава	-10.9781
▁ключевы	-10.9785
▁полет	-10.9787
▁стереотип	-10.9789
▁объяснил	-10.979
▁обращать	-10.9792
альным	-10.9795
▁иллюзи	-10.9796
▁дики	-10.9796
▁фон	-10.9801
▁трубк	-10.9801
▁движ	-10.9803
X	-10.9809
▁кров	-10.9812
▁попадают	-10.9817
▁сценари	-10.9821
жил	-10.9821
▁попросить	-10.9824
▁зайти	-10.9826
▁справля	-10.9829
бывать	-10.983
▁организмов	-10.9831
▁формируют	-10.9834
▁приоритет	-10.9837
▁Альцгеймер	-10.9837
▁всевозможны	-10.9837
▁пейзаж	-10.9837
▁сомнева	-10.9837
▁гнев	-10.9837
▁теряет	-10.9837
▁сцены	-10.9838
▁хищник	-10.9839
▁преступник	-10.9839
▁связать	-10.984
десят	-10.9844
▁неизбежно	-10.9844
▁Этим	-10.9845
▁комикс	-10.9849
▁камер	-10.9851
▁социальным	-10.9856
▁металл	-10.9858
▁глобальн	-10.9859
водят	-10.9864
право	-10.9866
▁Тим	-10.9867
▁просматрива	-10.9871
▁улучшения	-10.9872
▁построил	-10.9873
▁дала	-10.9873
нова	-10.9873
▁значимы	-10.9874
▁Син	-10.9876
▁улыба	-10.9878
▁учреждения	-10.988
▁Кор	-10.988
▁семейны	-10.9882
▁порт	-10.9883
▁велика	-10.9885
▁губ	-10.9889
▁соверш	-10.9889
тика	-10.9895
▁обозначен	-10.9896
▁современн	-10.9899
▁голосов	-10.99
▁пал	-10.9904
▁расстояние	-10.9909
▁обратн	-10.9911
▁четырех	-10.9911
▁прочитал	-10.9918
▁раск	-10.9923
▁репутаци	-10.9926
▁питательны	-10.9934
▁Можем	-10.9938
▁рассмотри	-10.9943
,5	-10.9944
▁Бел	-10.9946
▁программе	-10.9946
▁психически	-10.995
▁Фонд	-10.995
▁парниковы	-10.995
▁положении	-10.9952
тянул	-10.9953
▁умирает	-10.9959
щими	-10.9959
▁распространи	-10.9962
▁протест	-10.9962
▁цифров	-10.9963
▁родителями	-10.9965
действуют	-10.9966
▁остановил	-10.9968
▁оси	-10.9972
▁Гарвард	-10.9972
ачива	-10.9973
ческ	-10.9974
дар	-10.9975
▁обсуждать	-10.9977
▁составил	-10.9979
▁умира	-10.9983
▁повседневно	-10.9994
▁заднем	-10.9995
▁маги	-10.9996
▁странным	-10.9997
так	-10.9998
▁тропически	-10.9998
▁математике	-11.0003
▁предлагает	-11.0003
▁направить	-11.0005
▁остаться	-11.0007
▁оптимизм	-11.0007
▁упал	-11.0007
▁сестра	-11.0008
▁получали	-11.001
▁Каждо	-11.001
▁поразил	-11.0013
▁Мари	-11.0017
▁рассказывает	-11.0019
▁корпораци	-11.002
▁прекрасна	-11.0022
строить	-11.0027
▁образова	-11.0028
▁уничтожи	-11.003
▁продела	-11.0037
▁Мил	-11.0038
▁положить	-11.004
▁представи	-11.0044
▁находим	-11.0044
▁Стр	-11.0047
▁китов	-11.0053
▁товар	-11.0055
▁панел	-11.0057
▁поддерживает	-11.0057
▁конкуренци	-11.0065
▁несомненно	-11.0065
▁проследи	-11.0065
▁ткане	-11.0066
льд	-11.0067
▁выигра	-11.0067
▁валют	-11.0067
▁поразительны	-11.0068
▁климатически	-11.0068
▁промышленны	-11.0068
чт	-11.0069
лки	-11.007
▁пальцев	-11.0071
▁лежа	-11.0072
▁типичны	-11.0074
▁Восток	-11.0079
▁тратят	-11.008
▁прошёл	-11.0086
▁тро	-11.0086
▁школьно	-11.0088
стран	-11.0103
▁Нача	-11.0107
▁проведени	-11.0112
▁вещам	-11.0113
▁неважно	-11.0113
▁публично	-11.0115
▁собака	-11.0115
марк	-11.0122
▁Каким	-11.0123
▁неверно	-11.0123
▁страдаю	-11.0125
▁подхода	-11.0129
ve	-11.0132
▁цветов	-11.0139
▁дизайнеры	-11.0139
▁запустили	-11.014
▁информационны	-11.0141
З	-11.0141
▁количеств	-11.0141
▁основыва	-11.0145
▁корне	-11.0149
▁наклон	-11.0151
▁карьеры	-11.0157
▁идеальны	-11.0159
цин	-11.016
▁Фа	-11.016
▁лево	-11.0162
▁доказательство	-11.0166
▁объявил	-11.0173
▁больницу	-11.0175
▁солнечн	-11.0175
▁противо	-11.0179
▁банка	-11.0181
▁меж	-11.0181
▁архив	-11.0182
▁корабль	-11.0182
▁пирамид	-11.0182
▁пра	-11.0182
▁покупател	-11.0184
▁Год	-11.0186
▁диагностик	-11.0191
▁обсудить	-11.0195
▁Взгляните	-11.0196
▁опасность	-11.0197
▁скрыты	-11.0197
кинуть	-11.0198
▁северо	-11.0198
▁продавать	-11.0199
▁Лу	-11.0202
ством	-11.0209
▁аналоги	-11.0214
▁интеллектуальны	-11.0216
▁видны	-11.0218
▁наблюдал	-11.0218
▁церкви	-11.022
▁замер	-11.0224
▁Гер	-11.0232
▁справедливо	-11.0232
▁инженеров	-11.0245
▁женско	-11.0251
▁95	-11.0254
▁дизайнер	-11.0255
▁сотрудничество	-11.0263
▁биолог	-11.0266
▁посыла	-11.0266
▁нескольким	-11.0272
▁чувствовала	-11.0279
▁налогов	-11.028
лла	-11.0281
▁остальным	-11.0285
▁перспективе	-11.0285
▁опас	-11.0293
тек	-11.0298
▁сохранен	-11.0298
▁адвокат	-11.0299
▁посвящен	-11.0299
▁самоубийств	-11.0299
▁гольф	-11.0299
▁предпочитаю	-11.0299
▁ждёт	-11.0299
▁Роберт	-11.0299
▁прям	-11.0304
▁терроризм	-11.0308
нал	-11.031
▁нуля	-11.0312
▁копи	-11.0312
▁приступ	-11.0317
▁достига	-11.0319
вшийся	-11.032
▁Мексик	-11.0321
▁догада	-11.0322
▁нарисова	-11.0324
▁поступать	-11.0326
▁восстановления	-11.0326
▁десят	-11.0327
▁окруж	-11.0328
▁действует	-11.0329
тора	-11.0329
▁поддержани	-11.0331
▁Две	-11.0332
▁шли	-11.0333
▁Фор	-11.0336
▁электроник	-11.0346
▁разрабатыва	-11.0351
роб	-11.0351
▁горд	-11.0352
▁станции	-11.0356
▁Джона	-11.0357
вно	-11.036
▁общественные	-11.0361
▁снижа	-11.0366
▁способна	-11.0381
▁Мэри	-11.0382
▁выступал	-11.0382
▁подпис	-11.0388
▁голосовани	-11.0391
▁заинтересовал	-11.0391
▁пита	-11.0398
K	-11.0398
▁пользова	-11.0404
▁мужчинам	-11.0404
▁института	-11.0405
делайте	-11.0407
▁магазина	-11.0409
▁всяко	-11.0409
бел	-11.0412
▁волнует	-11.0413
▁технологией	-11.0414
произвести	-11.0417
▁Результат	-11.0418
▁Эфиопи	-11.0418
▁Техас	-11.0418
▁воспитани	-11.0419
▁решают	-11.0419
▁2004	-11.0421
▁просыпа	-11.0421
едят	-11.0421
▁овощ	-11.0423
▁использован	-11.0423
▁обучени	-11.0427
▁Пять	-11.0427
▁огонь	-11.043
▁операционн	-11.0431
▁трагеди	-11.0432
▁нуждается	-11.0435
▁безумно	-11.0436
▁цитат	-11.0439
▁трудны	-11.044
▁оборудовани	-11.0445
▁применя	-11.0446
▁рот	-11.0447
▁плот	-11.045
▁начинаю	-11.045
▁Штатов	-11.0451
▁беспоко	-11.0453
▁реали	-11.0455
▁исследованиях	-11.0455
▁южно	-11.0458
▁Ту	-11.0458
▁пониманию	-11.0459
носить	-11.0459
▁бра	-11.0461
▁электрон	-11.0476
▁шагом	-11.0477
▁свин	-11.0481
кажут	-11.0481
▁установили	-11.0483
▁изменяет	-11.0484
▁технологиях	-11.0488
фил	-11.0494
▁мысле	-11.0495
▁начинали	-11.0498
сюда	-11.0498
▁надел	-11.0499
▁Восточно	-11.05
▁условий	-11.0507
счет	-11.0509
▁магнитно	-11.051
▁продолжил	-11.0518
▁Карл	-11.0519
▁взяла	-11.0521
▁существовани	-11.0524
▁музыкант	-11.0527
глу	-11.0529
▁изменять	-11.053
клон	-11.053
▁трети	-11.0531
бол	-11.0533
▁некий	-11.0533
om	-11.0534
▁нормальны	-11.0537
▁научила	-11.0538
▁мгновенно	-11.0539
▁полушари	-11.0539
▁посередине	-11.0539
▁Британи	-11.0539
▁гармони	-11.0539
▁учёный	-11.054
▁невероятн	-11.0541
▁мечтал	-11.0542
▁составлял	-11.0542
▁произведение	-11.0544
▁конкурс	-11.0545
стараюсь	-11.0547
▁программист	-11.0548
▁кожа	-11.055
▁завис	-11.055
▁посчита	-11.0551
▁эмоциональны	-11.0552
остей	-11.0553
▁Банк	-11.0556
▁снизи	-11.0563
▁уникально	-11.0567
▁Бра	-11.0572
чок	-11.0576
▁принтер	-11.0579
▁операция	-11.0581
усь	-11.0582
▁стратегия	-11.0584
▁Вер	-11.0594
▁коммерчески	-11.0597
атель	-11.06
▁демократически	-11.06
▁следствие	-11.0602
▁исследователе	-11.0605
▁дик	-11.0606
▁привели	-11.0611
▁достижение	-11.0613
▁Ей	-11.0613
▁доста	-11.0615
▁печат	-11.0619
▁вопросами	-11.0623
выше	-11.0623
▁800	-11.0625
▁прием	-11.0625
▁пле	-11.0627
▁груз	-11.0632
▁лев	-11.0633
БР	-11.0635
▁Бы	-11.0637
▁получа	-11.0638
▁узнает	-11.0638
слать	-11.064
▁дому	-11.0645
▁бумаг	-11.0645
▁сообщени	-11.0647
▁красным	-11.0647
▁Роб	-11.0653
▁700	-11.0656
▁антибиотик	-11.0658
▁ручк	-11.0659
▁сопровожда	-11.0661
▁шаблон	-11.0661
▁Таймс	-11.0661
▁прыга	-11.0661
▁нехватк	-11.0661
▁паразит	-11.0661
▁нелегко	-11.0661
▁2012	-11.0662
▁2006	-11.0662
▁кабинет	-11.0665
▁сахар	-11.0665
▁детал	-11.0665
вались	-11.0666
▁голубо	-11.0671
▁сомнения	-11.0672
▁беспокоить	-11.0676
▁последняя	-11.0679
▁отцом	-11.0682
▁тратит	-11.0684
▁Необходимо	-11.0689
▁отказыва	-11.0689
▁Посмотрим	-11.069
ори	-11.0691
▁выросли	-11.0691
несли	-11.0694
▁яйца	-11.0697
▁120	-11.0698
▁медицинск	-11.0698
▁умере	-11.0698
▁удивлени	-11.07
▁встал	-11.0702
▁стиль	-11.0702
анные	-11.0703
▁мозгов	-11.0704
▁возник	-11.0704
▁сводит	-11.0705
▁носить	-11.0705
▁незнакомц	-11.0707
▁художников	-11.071
▁поднял	-11.0712
st	-11.0713
▁видом	-11.0713
▁собран	-11.0714
▁обстановк	-11.0717
эл	-11.0717
▁правилам	-11.0718
▁начну	-11.0719
▁транспорта	-11.0725
▁задания	-11.073
▁Недавн	-11.0734
▁подс	-11.0738
▁Кир	-11.0739
,000	-11.0741
▁слайде	-11.0744
▁приходить	-11.0748
▁неправильны	-11.0748
▁точност	-11.0751
▁снижени	-11.0753
▁достиг	-11.0754
худ	-11.0756
▁учим	-11.0757
▁потеплени	-11.0757
льш	-11.0761
▁способно	-11.0761
▁бело	-11.0765
▁состоят	-11.0767
▁York	-11.0784
▁Компьютер	-11.0784
▁Правительств	-11.0784
▁синдром	-11.0784
▁тарелк	-11.0784
▁покинул	-11.0784
▁неза	-11.0785
▁семьёй	-11.0785
▁выйдет	-11.0785
▁заявление	-11.0786
▁Питер	-11.0786
ины	-11.0788
▁фунтов	-11.0788
льная	-11.0789
▁Будет	-11.0791
▁пережива	-11.0791
▁дешёвы	-11.0792
▁Особенно	-11.0792
звините	-11.0796
▁техническо	-11.0799
▁положения	-11.0803
▁живым	-11.0806
▁радиаци	-11.0807
▁категории	-11.0809
▁выборы	-11.0811
▁Совет	-11.0816
▁строи	-11.0821
▁последствий	-11.0822
▁живот	-11.0822
▁иммунн	-11.0825
зади	-11.0829
▁поворот	-11.083
▁визуальны	-11.0831
▁края	-11.0833
роз	-11.0839
▁Сер	-11.084
▁убедил	-11.0843
▁устойчивы	-11.0844
▁капл	-11.0846
▁голова	-11.0846
▁Ор	-11.0848
▁гормон	-11.0849
▁станци	-11.085
гли	-11.0851
▁26	-11.0852
▁веру	-11.0859
▁логик	-11.0862
▁синтез	-11.0864
▁мужско	-11.0869
▁жилищ	-11.0871
▁хирурги	-11.0873
▁фундаментально	-11.0876
▁индивидуально	-11.0877
▁изменя	-11.0879
▁дизайне	-11.0882
рам	-11.0883
▁психолог	-11.0887
▁No	-11.0894
▁обман	-11.0895
▁заканчивает	-11.0896
▁недостатк	-11.0896
▁Мар	-11.0897
▁прожива	-11.0897
▁шок	-11.0897
▁плакат	-11.0899
▁небольшим	-11.0901
▁Рад	-11.0908
▁MIT	-11.0909
▁дефицит	-11.0909
▁механик	-11.0909
▁редактор	-11.0909
▁Вероятно	-11.0909
▁муравьёв	-11.0909
▁дождь	-11.0909
▁писатель	-11.0909
▁исследователи	-11.091
▁Эбол	-11.0911
▁Союз	-11.0912
▁названия	-11.0913
▁проста	-11.0913
un	-11.0914
▁печата	-11.0915
▁психо	-11.092
▁спутников	-11.0921
▁шелк	-11.0921
▁берет	-11.0922
▁наполнен	-11.0922
▁передач	-11.0924
▁дико	-11.0926
▁весом	-11.0931
▁западно	-11.0934
▁образы	-11.0938
▁любым	-11.0943
▁предсказыва	-11.0944
▁поймёт	-11.0944
▁муравьи	-11.095
▁иностранны	-11.095
▁поддерживают	-11.0952
▁стрел	-11.0953
двиг	-11.0954
▁наличи	-11.0956
▁выхода	-11.096
de	-11.0961
▁неожиданны	-11.0962
▁американской	-11.0965
▁Пу	-11.097
▁деревня	-11.0971
▁продукта	-11.0974
▁ногами	-11.0978
аш	-11.0984
▁строительства	-11.0987
▁разумеет	-11.0988
▁эффективност	-11.0989
▁Гаи	-11.0989
▁фермеры	-11.0997
▁компьютере	-11.1
▁врача	-11.1002
▁отдать	-11.1004
te	-11.1009
▁демократию	-11.1015
▁броса	-11.1018
дадим	-11.1019
▁сообщи	-11.1022
министр	-11.1023
H	-11.1024
тянут	-11.1024
▁чисты	-11.1026
▁телом	-11.103
▁распределение	-11.1031
ктивн	-11.1034
▁холодильник	-11.1036
▁Википеди	-11.1036
▁Лучше	-11.1036
▁маршрут	-11.1036
▁раскрыть	-11.1036
▁худши	-11.1036
▁пересмотре	-11.1036
▁забыть	-11.1037
▁временно	-11.1037
▁приглаша	-11.1038
▁психологически	-11.1039
▁присоедини	-11.1039
▁повреждения	-11.104
▁технологическо	-11.104
▁находитесь	-11.1042
▁Ан	-11.1042
▁повторить	-11.1046
▁Западе	-11.1049
▁наркотик	-11.1049
▁западны	-11.1051
▁направления	-11.1053
▁хаос	-11.1053
▁Тер	-11.1054
▁наркотиков	-11.107
▁подверг	-11.1074
▁водород	-11.1074
▁пишут	-11.1074
▁комар	-11.1075
▁массовы	-11.1077
▁воображения	-11.1078
▁обсуждения	-11.1078
▁стремление	-11.108
▁представлял	-11.1081
▁бол	-11.1081
▁весело	-11.1081
▁отзыв	-11.1083
▁Штат	-11.1083
▁объединяет	-11.1085
▁столетия	-11.1086
кин	-11.1086
▁нож	-11.1087
▁энергией	-11.1087
▁наблюдение	-11.1091
▁поведени	-11.1093
▁футбол	-11.1093
▁великолепно	-11.11
▁Калифорни	-11.1105
▁скрыт	-11.1106
▁Тай	-11.1115
▁ночно	-11.1118
▁интенсивно	-11.1121
энд	-11.1121
▁пишу	-11.1126
▁поддержа	-11.113
мира	-11.1133
▁прекратить	-11.1135
▁веков	-11.1136
▁сокращ	-11.1137
▁Боб	-11.1137
▁потрясающ	-11.1138
▁содержат	-11.114
▁подвержен	-11.114
▁Эт	-11.1141
▁Буш	-11.1142
▁активны	-11.1142
▁сознани	-11.1142
▁чувствуе	-11.1147
▁эффекты	-11.1149
▁сфера	-11.1151
▁эффективным	-11.1153
▁белк	-11.1155
чку	-11.1157
▁экрана	-11.1158
▁череп	-11.1161
▁безопасны	-11.1161
▁путешестви	-11.1161
кучу	-11.1163
▁пистолет	-11.1164
▁премьер	-11.1164
▁помощник	-11.1164
▁галере	-11.1164
▁заложен	-11.1164
▁привычк	-11.1164
▁Молод	-11.1164
▁жестоки	-11.1164
▁юрист	-11.1164
▁шахт	-11.1166
▁поставлен	-11.1166
▁открытий	-11.1169
бивают	-11.1173
▁учебник	-11.1174
▁деньгам	-11.1174
▁свобода	-11.1175
остр	-11.1177
▁сообщил	-11.1178
▁кафе	-11.1178
▁выращивани	-11.1179
▁пластиковы	-11.1182
▁испытал	-11.1187
▁привел	-11.1189
▁контрол	-11.119
▁предки	-11.1192
▁руководство	-11.1192
думаешь	-11.1196
▁научился	-11.1199
▁маленьком	-11.1202
▁давал	-11.1203
▁общение	-11.1204
▁прошлы	-11.1207
▁готовить	-11.121
▁космоса	-11.1212
▁образуют	-11.1215
▁сумасшедши	-11.1219
▁продвига	-11.1222
▁внести	-11.1228
▁дву	-11.1232
▁заменя	-11.1234
▁комната	-11.1236
▁характеристик	-11.1238
▁пойма	-11.1243
▁свободны	-11.1252
▁убрать	-11.1255
▁представили	-11.1259
ица	-11.1265
▁Европ	-11.1267
▁летучи	-11.1267
▁Начнё	-11.127
▁отрица	-11.1281
▁гора	-11.1281
▁записать	-11.1283
▁длинн	-11.1285
op	-11.1288
▁продовольственн	-11.1294
▁регулярно	-11.1294
▁сформировал	-11.1294
▁Между	-11.1294
▁диапазон	-11.1294
▁исполнени	-11.1294
▁предотвращени	-11.1294
▁энтузиазм	-11.1294
▁бензин	-11.1294
▁обложк	-11.1294
▁горячи	-11.1294
▁важность	-11.1295
▁интереса	-11.1298
▁намерения	-11.1298
▁сна	-11.1298
▁присутствует	-11.13
зол	-11.1302
▁низ	-11.1302
▁принято	-11.1306
▁уважение	-11.1307
▁льв	-11.1308
▁2001	-11.1311
▁генетик	-11.1312
ата	-11.1312
▁выбросы	-11.1312
▁Дик	-11.1315
▁птица	-11.1318
▁передвига	-11.1318
енс	-11.1319
раб	-11.1321
▁встречают	-11.1321
▁вирусов	-11.1322
▁перенос	-11.1323
▁мобильно	-11.1328
▁задают	-11.1328
▁перемеща	-11.1332
▁давали	-11.1333
▁подходил	-11.1339
бин	-11.134
плыв	-11.1342
▁встретили	-11.1344
▁вин	-11.1344
▁связыва	-11.1345
▁млекопитающих	-11.1347
вари	-11.1353
▁верхне	-11.1355
▁микробов	-11.136
▁клетк	-11.136
▁ходу	-11.1361
▁полезным	-11.1365
образить	-11.1368
▁захотел	-11.137
▁беременност	-11.1372
▁льд	-11.1374
▁имеющих	-11.1374
▁ответственны	-11.1378
два	-11.138
▁пи	-11.1381
▁общая	-11.1385
▁точны	-11.1386
▁самц	-11.1402
30	-11.1406
▁электрод	-11.1407
▁входит	-11.141
▁способност	-11.141
▁мышей	-11.1412
▁стоящи	-11.1412
чувств	-11.1413
▁лед	-11.1413
елл	-11.1415
▁выражен	-11.1418
далеко	-11.1418
▁жестоко	-11.1421
▁восхища	-11.1424
льскохозяйственн	-11.1425
▁сэкономи	-11.1425
▁Довольно	-11.1425
▁ингредиент	-11.1425
▁компромисс	-11.1425
▁начинать	-11.1425
▁ураган	-11.1425
▁обожаю	-11.1426
▁сравним	-11.1426
▁мелоч	-11.1426
▁областе	-11.1426
▁CO	-11.1427
▁строят	-11.1427
▁акци	-11.1427
▁терапии	-11.1428
▁распространяет	-11.1429
▁линз	-11.1434
▁Лет	-11.1435
▁предполагает	-11.1435
▁Созда	-11.1436
▁передавать	-11.1436
▁услышит	-11.144
▁покида	-11.144
▁называл	-11.1444
▁Рим	-11.1449
стил	-11.1453
▁восточно	-11.1455
▁твёрдо	-11.1457
лед	-11.146
▁культурно	-11.1462
ёй	-11.1471
▁работники	-11.1472
ровать	-11.1473
▁расширени	-11.1474
▁стекл	-11.1476
▁очереди	-11.1477
▁соединения	-11.1477
▁суда	-11.148
▁предприятия	-11.148
▁Ага	-11.1483
▁намерен	-11.1489
▁коллектив	-11.1494
▁кнопк	-11.1495
▁управляем	-11.1496
▁кажу	-11.1497
вот	-11.1505
▁заключен	-11.1506
▁товары	-11.1511
▁изобрета	-11.1513
▁мотив	-11.1514
▁распознавани	-11.1514
▁взаимодействи	-11.1518
▁принима	-11.1526
▁28	-11.153
▁публику	-11.1531
▁вооруж	-11.1533
▁шест	-11.1539
▁облако	-11.154
▁находят	-11.1542
▁повторно	-11.1548
V	-11.1552
▁маленького	-11.1552
▁Над	-11.1554
▁массив	-11.1556
▁звонк	-11.1556
▁Оксфорд	-11.1559
▁ископаемы	-11.1559
▁подтвержден	-11.1559
▁диаметр	-11.1559
▁поблагодари	-11.1559
▁контракт	-11.1559
▁обеспокоен	-11.1559
▁дебат	-11.1559
▁производим	-11.1559
▁приземли	-11.1559
▁включ	-11.156
▁упоминал	-11.1561
▁развить	-11.1561
▁располага	-11.1562
▁радости	-11.1563
▁разработке	-11.1565
восточн	-11.1569
▁Пред	-11.157
▁реализаци	-11.157
▁относиться	-11.1571
▁Мама	-11.1573
лены	-11.1576
▁публикаци	-11.1581
▁передвижения	-11.1583
сни	-11.1583
▁приобре	-11.1589
▁тяжёлы	-11.159
▁Бэ	-11.1593
▁прошла	-11.1593
▁современном	-11.1595
▁дизайнеров	-11.1599
▁наверху	-11.16
▁полном	-11.16
▁старая	-11.1601
▁балл	-11.1602
▁фермеров	-11.1603
▁тёмн	-11.1606
▁производител	-11.1607
▁Система	-11.1609
▁Пакистан	-11.1609
▁английско	-11.1611
▁сильным	-11.1611
▁краск	-11.1612
▁низким	-11.1618
▁готова	-11.1619
▁убийств	-11.1624
▁сравнива	-11.1624
▁уровн	-11.1624
▁горе	-11.1629
▁заняти	-11.1631
▁велик	-11.1632
вест	-11.1633
▁диаграмм	-11.1635
▁подобн	-11.1636
лизм	-11.1637
▁архитектуры	-11.1638
▁крест	-11.1641
▁удержива	-11.1647
▁Точно	-11.1648
▁изучали	-11.1651
▁нашел	-11.1651
▁сопереживани	-11.1655
▁рукам	-11.1659
▁дыры	-11.1666
▁Эл	-11.1674
▁объединя	-11.1674
▁мастерск	-11.1679
▁уважени	-11.168
▁китайски	-11.1684
▁раствор	-11.1684
▁СПИД	-11.1689
▁корабля	-11.1694
▁октябр	-11.1694
▁Скоре	-11.1694
40	-11.1694
▁показателе	-11.1694
▁запечатле	-11.1695
▁Браун	-11.1695
▁ТВ	-11.1697
▁приспособлен	-11.17
ЭС	-11.1703
▁Люб	-11.1704
▁здравоохранени	-11.1705
▁подряд	-11.1705
▁обзор	-11.1706
▁строительны	-11.1708
▁столиц	-11.1711
▁собственном	-11.1711
▁изучаем	-11.1711
▁боле	-11.1712
▁ветр	-11.1712
▁Новы	-11.1712
▁инженеры	-11.1715
▁звал	-11.1715
▁дым	-11.1716
▁словам	-11.1719
▁удач	-11.172
тные	-11.172
третьи	-11.1721
▁присмотр	-11.1721
▁заметит	-11.1723
▁раб	-11.1724
▁файл	-11.1724
▁метр	-11.1724
▁рассматрива	-11.1724
▁доказательств	-11.1725
▁остро	-11.1728
▁Z	-11.1732
джа	-11.1732
▁соедини	-11.1733
▁лестнице	-11.174
▁каковы	-11.1741
▁усовершенствова	-11.1741
20	-11.1742
▁понят	-11.1743
▁ищу	-11.1745
▁популярно	-11.1745
▁получаю	-11.1748
▁спутник	-11.1749
▁новост	-11.175
▁слон	-11.1752
▁пропуска	-11.1756
▁всеобще	-11.1758
вшую	-11.176
▁познакоми	-11.176
▁описывает	-11.176
щут	-11.1762
▁зона	-11.1763
▁распределени	-11.1764
фин	-11.1769
▁высказывани	-11.177
▁Ганд	-11.1771
▁нарушения	-11.1776
▁белка	-11.1788
▁сложил	-11.1793
▁определять	-11.1795
▁килограмм	-11.1796
▁подводны	-11.1796
ol	-11.1797
▁тестировани	-11.1803
▁СПИДа	-11.1804
▁приходили	-11.1808
▁мило	-11.1813
▁спрашивает	-11.1816
▁стыд	-11.1816
▁выстрел	-11.1822
▁коры	-11.1823
нном	-11.1823
▁бедность	-11.1825
▁попада	-11.1827
▁зелены	-11.1829
звонить	-11.1829
▁производстве	-11.183
▁переосмысли	-11.1831
▁волонтёр	-11.1831
▁кошмар	-11.1831
▁пешеход	-11.1831
▁Манхэттен	-11.1831
▁Учёные	-11.1831
▁инвестировать	-11.1831
▁выпустил	-11.1831
▁проповед	-11.1831
▁убежда	-11.1831
▁отклик	-11.1831
▁Уганд	-11.1831
▁надпись	-11.1831
▁ученых	-11.1831
▁доставк	-11.1831
▁обучать	-11.1831
▁зд	-11.1831
▁весел	-11.1832
▁работник	-11.1832
▁Часто	-11.1832
▁снимать	-11.1833
▁БФ	-11.1833
▁паук	-11.1836
▁чашк	-11.1836
▁территория	-11.1837
▁примат	-11.1838
дол	-11.1841
▁комет	-11.1841
▁наилучш	-11.1845
▁страдает	-11.1845
здор	-11.1847
▁слышала	-11.1848
▁оставши	-11.1851
▁изменениям	-11.1851
▁лёгко	-11.1853
▁вызван	-11.1853
▁играли	-11.1856
переди	-11.186
▁потратить	-11.186
▁спе	-11.1864
▁куб	-11.1869
▁малярии	-11.1875
▁Кам	-11.1881
▁продают	-11.1882
▁сухо	-11.1883
бирать	-11.1886
▁прекрасным	-11.1888
▁стоп	-11.189
сайт	-11.1894
▁удовлетворени	-11.1895
нни	-11.1896
▁повыша	-11.1898
▁парол	-11.1899
▁выделить	-11.1899
▁навык	-11.19
▁богат	-11.1904
▁наследие	-11.1906
▁мас	-11.1908
▁описыва	-11.1911
▁гонк	-11.1912
▁таблетк	-11.1914
▁льш	-11.1914
▁детск	-11.1921
▁смея	-11.1923
▁сидящи	-11.1923
▁Ху	-11.1925
▁отража	-11.1926
▁звучал	-11.1927
▁созданно	-11.1928
летают	-11.1931
▁повод	-11.1933
▁столе	-11.1933
▁мясо	-11.1935
▁изуча	-11.194
▁Сдела	-11.194
▁клеточн	-11.1942
▁бит	-11.1944
▁m	-11.1949
▁сыграл	-11.195
▁проигра	-11.1951
▁попали	-11.1961
▁времен	-11.1962
▁зависим	-11.1963
▁уголк	-11.1963
▁сработал	-11.1963
▁избирател	-11.1968
+	-11.197
▁взволнован	-11.197
▁геноцид	-11.197
▁колонии	-11.197
▁супруг	-11.197
▁отчаяни	-11.197
кручива	-11.197
▁смешива	-11.197
▁переработк	-11.197
▁ствол	-11.197
▁представляем	-11.197
▁происходящее	-11.1971
▁билет	-11.1971
▁Гугл	-11.1972
▁мысля	-11.1972
▁предпринимателе	-11.1974
▁покажет	-11.1974
▁десятилетие	-11.1975
охо	-11.1976
▁начальник	-11.1977
▁ветеран	-11.1978
нервнича	-11.1979
▁Смит	-11.198
▁традиция	-11.1982
▁увеличива	-11.1982
▁Удивительно	-11.1983
▁соглаша	-11.1985
очку	-11.1987
▁равенств	-11.1988
▁благ	-11.1988
▁Неуж	-11.1989
▁брал	-11.1991
кий	-11.1993
▁холод	-11.1994
▁ветрян	-11.1995
▁мечтать	-11.1996
▁смертность	-11.1997
▁метан	-11.1999
работало	-11.1999
▁Оста	-11.2
▁указывает	-11.2
▁инструмента	-11.2001
▁улыбк	-11.2007
▁маляри	-11.2009
▁дальн	-11.201
▁остановк	-11.2011
▁кит	-11.2011
▁Стои	-11.2011
▁предоставил	-11.2012
▁клиентов	-11.2015
▁задавал	-11.2017
▁дало	-11.202
▁полюс	-11.2022
▁сердечно	-11.2022
▁строит	-11.2024
as	-11.2025
▁восток	-11.2029
▁бесплатны	-11.2032
▁коже	-11.2035
▁деревн	-11.2036
▁клей	-11.2036
▁потенциальны	-11.2036
▁вызва	-11.2036
▁непрерывно	-11.2036
▁устал	-11.2037
▁кнопку	-11.2037
▁одиночк	-11.2038
▁финансирование	-11.2038
▁жидкость	-11.2041
ави	-11.2041
▁задали	-11.2041
▁останови	-11.2044
▁чувству	-11.2048
▁образу	-11.2051
▁основным	-11.2052
гласит	-11.2055
▁залив	-11.2055
▁низкой	-11.2058
▁предыдуще	-11.2062
▁графика	-11.2064
▁старени	-11.2066
▁невидимы	-11.2071
▁Кит	-11.2074
▁вакцины	-11.2079
рил	-11.2084
слушайте	-11.2089
▁приходил	-11.209
▁стихи	-11.2093
▁черны	-11.2096
▁агент	-11.2096
▁доказал	-11.2097
▁21-	-11.2098
▁шутк	-11.21
скоп	-11.2101
▁сторонник	-11.2105
▁нагрузк	-11.2111
▁фармацевт	-11.2111
▁электростанци	-11.2111
▁мелоди	-11.2111
▁послание	-11.2111
▁фанат	-11.2111
▁одиночеств	-11.2111
▁семена	-11.2112
▁предпринять	-11.2112
▁2003	-11.2113
▁рецептор	-11.2113
▁рез	-11.2116
▁отправлять	-11.2117
▁институты	-11.2119
▁передвигаться	-11.2119
▁получен	-11.2121
Анджелесе	-11.2122
▁удобно	-11.2123
▁удовольствия	-11.2123
▁прямы	-11.2129
рс	-11.213
▁зелёно	-11.2132
▁передаёт	-11.2133
▁реальным	-11.2135
▁решающ	-11.2142
▁Дарвин	-11.2143
▁целя	-11.2143
▁воздействия	-11.2144
▁закрыва	-11.2145
ушек	-11.215
▁хор	-11.215
▁местным	-11.2154
селе	-11.2156
ёшь	-11.2159
▁насекомы	-11.2159
▁глупо	-11.2161
▁взаимоотношения	-11.2162
▁тенденция	-11.2164
▁приложения	-11.2165
▁способностью	-11.2166
▁телу	-11.2173
▁15-	-11.2177
▁сельски	-11.2181
▁разделить	-11.2184
▁Сп	-11.2186
▁приближа	-11.2191
▁умру	-11.2199
▁дав	-11.22
▁слух	-11.2216
▁американск	-11.2217
▁темноте	-11.222
▁предложени	-11.2225
▁расстройства	-11.2228
▁обезьяны	-11.2233
▁делят	-11.2236
▁порой	-11.2239
▁универсальны	-11.2239
▁изучаю	-11.224
рр	-11.2241
▁типов	-11.2242
▁хранит	-11.2246
▁автомат	-11.2248
▁довод	-11.2252
▁кратко	-11.2253
▁утверждает	-11.2253
▁партнер	-11.2253
▁удвои	-11.2253
▁церемони	-11.2253
▁погружа	-11.2253
▁Флорид	-11.2253
дышать	-11.2253
▁Брайан	-11.2254
▁исчезает	-11.2254
▁засух	-11.2255
▁1,5	-11.2255
▁2,5	-11.2256
▁камне	-11.2256
▁ошиб	-11.2256
▁приятны	-11.2257
▁реагирует	-11.2257
▁вряд	-11.2259
▁расширение	-11.2259
▁Рио	-11.226
▁находился	-11.2262
▁контроле	-11.2264
▁герои	-11.2264
▁спасени	-11.227
▁эквивалент	-11.2271
дон	-11.2271
▁родно	-11.2272
▁Ша	-11.2276
▁Дела	-11.2277
▁присоединя	-11.2281
▁умеет	-11.2283
▁потепление	-11.2285
▁Мед	-11.2292
▁вспышк	-11.2292
знать	-11.2302
▁особенность	-11.2307
▁ростом	-11.2312
ладить	-11.2313
▁представлени	-11.2314
▁снижает	-11.2318
▁королев	-11.2321
▁умею	-11.2322
▁тестов	-11.2323
▁необычны	-11.2329
▁бабушки	-11.2335
▁устойчивость	-11.2342
▁испытани	-11.2344
▁сумма	-11.2346
ряду	-11.2347
▁повсеместно	-11.2353
▁проче	-11.2355
▁экологическо	-11.2356
▁совпада	-11.2356
▁Кен	-11.2357
▁собаки	-11.2359
ень	-11.2362
▁лекции	-11.2364
▁рада	-11.2365
▁умение	-11.2367
▁физическ	-11.2368
▁эволюционно	-11.2369
▁страной	-11.2377
▁сосредоточи	-11.2385
▁преподавател	-11.2386
▁достигнут	-11.2387
юр	-11.2388
▁носил	-11.2391
изаци	-11.2392
▁удален	-11.2395
▁получат	-11.2395
▁запусти	-11.2398
▁Нобелевск	-11.2398
▁Хиггс	-11.2398
▁бассейн	-11.2398
▁критери	-11.2398
▁кукуруз	-11.2398
▁презерватив	-11.2398
▁супермаркет	-11.2398
▁накаплива	-11.2398
▁известен	-11.2398
▁шприц	-11.2398
▁обнаружени	-11.2399
▁импери	-11.2399
▁разреша	-11.2399
▁убиты	-11.2399
▁ставит	-11.2399
▁визит	-11.2399
▁тонки	-11.24
▁длинно	-11.24
правительственны	-11.24
▁умнее	-11.2401
ара	-11.2401
▁мамы	-11.2401
▁листья	-11.2402
▁съест	-11.2402
крыл	-11.2404
рок	-11.2404
▁заполнен	-11.2404
▁лицензи	-11.2406
▁верны	-11.2407
▁попробуем	-11.2407
▁студентам	-11.2409
um	-11.2411
▁еде	-11.2413
▁формирует	-11.2418
▁естественным	-11.2419
▁предположение	-11.2419
▁недавни	-11.242
▁метода	-11.2426
▁финансировани	-11.2426
▁астроном	-11.2426
▁Наук	-11.2427
▁газеты	-11.2427
▁материальны	-11.2428
▁любопытно	-11.2428
▁знакомо	-11.2428
▁2-	-11.2431
▁быстр	-11.2431
▁решит	-11.2432
влекательн	-11.2437
▁статья	-11.2438
▁художника	-11.2438
▁мудрость	-11.244
▁мальчика	-11.2441
▁волна	-11.2442
▁музыкально	-11.2444
▁базовы	-11.2449
▁составляющи	-11.245
▁побережье	-11.2458
▁коз	-11.2463
▁снижение	-11.2464
am	-11.2469
▁гидро	-11.2473
▁настоящем	-11.2475
▁Огромно	-11.2476
▁угроза	-11.2481
▁контролирует	-11.2484
▁забавно	-11.2486
▁упаковк	-11.2486
▁вдохновение	-11.2488
оедино	-11.2494
▁Дом	-11.2495
▁тр	-11.25
цами	-11.25
▁Мас	-11.2504
▁правом	-11.2509
нтов	-11.2512
▁придержива	-11.2513
коп	-11.2514
цию	-11.2514
▁почву	-11.2516
▁оказыва	-11.2517
▁добыва	-11.2517
▁основы	-11.252
полне	-11.252
▁отклонения	-11.2522
▁толк	-11.2523
▁указыва	-11.2524
▁осознание	-11.2524
▁беженц	-11.2527
▁жителям	-11.2527
▁Кинг	-11.2531
▁передне	-11.2533
▁причё	-11.2537
▁терпе	-11.2542
▁стихотворение	-11.2543
▁Ваши	-11.2543
▁конкурент	-11.2545
▁коридор	-11.2545
▁Microsoft	-11.2545
▁Четыре	-11.2545
▁предупреждени	-11.2545
▁тревог	-11.2545
▁акцент	-11.2545
▁печень	-11.2546
▁блюд	-11.2546
▁медуз	-11.2547
▁подготовить	-11.2548
▁освеща	-11.2548
▁длительно	-11.2549
▁смелы	-11.2552
▁сократи	-11.2553
▁Гре	-11.2554
▁некое	-11.2555
▁решен	-11.2557
▁побережья	-11.2557
▁пережить	-11.2558
▁хранить	-11.2558
▁совмести	-11.2561
▁вспомнил	-11.2562
▁содержани	-11.2562
▁зрител	-11.2564
▁Велико	-11.2565
▁беспокоит	-11.2566
ьер	-11.2567
▁минимальн	-11.2567
▁холодны	-11.2568
вольн	-11.2571
BM	-11.2573
▁искусстве	-11.2573
▁реагирова	-11.2575
▁зеркал	-11.2578
▁пан	-11.2584
▁производительно	-11.2584
▁свойство	-11.2584
кормить	-11.2585
▁продать	-11.2592
▁сочувствие	-11.2594
▁блага	-11.2595
▁Должн	-11.2595
▁встретила	-11.2598
▁отпуск	-11.2599
▁ведущи	-11.2601
▁друж	-11.2607
▁умел	-11.2609
ёмся	-11.261
▁состоял	-11.2612
▁Школ	-11.2617
▁продавал	-11.2617
▁использовала	-11.2617
▁индивидуальны	-11.2617
▁выжив	-11.2618
▁зависимость	-11.262
▁займ	-11.262
▁бывши	-11.2624
▁позволят	-11.2625
▁упад	-11.2626
▁подняли	-11.2631
▁ставк	-11.2631
▁Чего	-11.2632
нимаю	-11.2632
▁теряют	-11.2637
▁33	-11.2639
▁развивают	-11.2641
▁цене	-11.2643
▁похорон	-11.2646
▁обсуждали	-11.2651
▁запомни	-11.2651
▁Немног	-11.2651
▁факта	-11.2652
▁Йо	-11.2654
▁парке	-11.2656
▁уши	-11.2656
▁скач	-11.2657
▁поход	-11.2657
чал	-11.2658
логи	-11.2658
дей	-11.2658
▁разнообрази	-11.266
▁депресси	-11.266
▁CA	-11.2663
▁Хай	-11.2664
▁персонал	-11.2666
▁увеличил	-11.2667
▁происходящи	-11.2667
▁двойн	-11.267
▁задумал	-11.2674
▁описан	-11.2678
▁определяют	-11.2679
связ	-11.2679
▁маркетинг	-11.2682
▁решении	-11.2683
▁поменя	-11.2685
▁корол	-11.2689
рус	-11.269
терапи	-11.2692
▁мощно	-11.2694
▁декабр	-11.2695
▁запущен	-11.2695
▁лагерь	-11.2695
▁немедленно	-11.2695
▁сетчатк	-11.2695
▁эволюционировал	-11.2695
▁заголовк	-11.2695
▁Честно	-11.2695
▁камня	-11.2695
▁гипер	-11.2695
▁рационально	-11.2695
▁Кевин	-11.2695
▁гараж	-11.2696
▁сказав	-11.2697
▁новостях	-11.2698
▁шёл	-11.2698
▁твит	-11.2699
▁окружение	-11.2699
▁сос	-11.27
▁процветани	-11.2702
▁фирм	-11.2703
▁странице	-11.2706
▁Начина	-11.2707
▁глупы	-11.2708
ышел	-11.2709
▁тайны	-11.271
▁мысленно	-11.2711
▁лидер	-11.2711
▁лидерам	-11.2712
▁вычислени	-11.2712
▁палочк	-11.2712
▁глубок	-11.2713
▁шара	-11.2714
▁держал	-11.2717
▁точностью	-11.2717
▁образов	-11.2718
▁Какое	-11.2721
▁раковы	-11.2722
▁пластика	-11.2725
▁обеспечивает	-11.2729
▁дворе	-11.2732
падают	-11.2734
▁черта	-11.2735
▁St	-11.2738
▁реч	-11.2739
▁предположения	-11.2741
Обама	-11.2741
▁курса	-11.2745
▁вспомина	-11.2748
▁третьего	-11.275
▁применени	-11.2754
телями	-11.2762
▁пустыне	-11.2764
▁выжил	-11.2765
▁заполни	-11.2767
▁заработать	-11.2767
▁Расскажи	-11.2768
ношу	-11.277
▁готово	-11.277
▁насили	-11.2771
▁несчасть	-11.2771
▁фоне	-11.2773
того	-11.2774
▁профессионально	-11.2776
▁важнейши	-11.2778
▁Красны	-11.278
▁спроектирован	-11.2782
▁парковк	-11.2782
▁занятие	-11.2784
▁воображени	-11.279
▁парка	-11.2791
▁День	-11.2792
▁столети	-11.2792
реки	-11.2792
▁сложное	-11.2793
▁исходит	-11.2794
▁призыв	-11.2795
цел	-11.2795
▁интуици	-11.2795
▁горди	-11.2796
ните	-11.28
▁гламур	-11.2802
▁обманыва	-11.2809
▁обстоятельства	-11.281
ойдёт	-11.2811
▁Стран	-11.2812
▁Хан	-11.2819
читать	-11.2823
▁дошл	-11.2826
енько	-11.2826
▁особенны	-11.283
чуть	-11.2834
▁повышени	-11.2837
▁уравнение	-11.2837
▁ужасн	-11.284
▁подробно	-11.2842
▁помеща	-11.2843
▁Газ	-11.2845
▁Александр	-11.2846
=	-11.2846
▁подъём	-11.2846
▁электроэнерги	-11.2846
▁Гейтс	-11.2846
▁администраци	-11.2846
▁спонсор	-11.2846
▁Индию	-11.2846
▁оператор	-11.2846
▁Совсем	-11.2846
▁детях	-11.2846
▁энергетически	-11.2847
▁уехал	-11.2847
▁пугающ	-11.2848
▁2050	-11.285
▁индийски	-11.2851
▁река	-11.2851
▁легки	-11.2851
▁размеща	-11.2853
▁управляют	-11.2853
▁ехал	-11.2853
▁заповедник	-11.2854
▁сумк	-11.2855
▁Вернём	-11.2857
▁включен	-11.2861
▁Коре	-11.2861
▁коллега	-11.2864
▁давления	-11.2866
▁словар	-11.2868
▁функция	-11.2868
ратор	-11.287
▁Ск	-11.2871
мель	-11.2873
▁питание	-11.2874
▁едет	-11.2881
▁крылья	-11.2895
ближе	-11.2896
▁уничтожени	-11.2899
▁молча	-11.29
▁купили	-11.2901
▁держа	-11.2902
▁конфликтов	-11.2905
▁девушк	-11.2905
▁предлага	-11.2907
▁привык	-11.2908
▁куча	-11.2908
▁упомяну	-11.2909
▁подсказ	-11.2912
▁Анд	-11.2912
▁дедушка	-11.2918
▁правильном	-11.2918
ul	-11.2922
▁29	-11.2926
▁утверждение	-11.293
▁мощн	-11.293
▁девяти	-11.2932
▁статистически	-11.2934
▁текуще	-11.2935
▁друзьям	-11.2937
▁урожай	-11.2942
года	-11.2946
▁статьи	-11.2946
▁исследу	-11.2946
▁участка	-11.2948
▁уязвим	-11.2962
▁образцов	-11.2964
▁неизвестны	-11.2965
лучше	-11.2967
▁тени	-11.2969
▁меняться	-11.2972
▁континента	-11.2975
▁слеп	-11.298
▁интеллектуально	-11.2982
▁добива	-11.2983
▁дыхание	-11.2988
▁удивил	-11.2991
▁избави	-11.2992
▁человечеств	-11.2995
▁штуку	-11.2995
▁республик	-11.3
▁Голливуд	-11.3
▁адаптаци	-11.3
▁воплотить	-11.3
▁земель	-11.3
▁клавиатур	-11.3
▁контейнер	-11.3
▁парадигм	-11.3
▁паутин	-11.3
▁фантастик	-11.3
▁феврал	-11.3
▁выигрыва	-11.3
▁напуган	-11.3
▁эфир	-11.3
▁протокол	-11.3
▁дальнейше	-11.3
▁Мирово	-11.3
▁изобили	-11.3
▁запрограммирова	-11.3
▁решаем	-11.3
▁протеин	-11.3001
▁механически	-11.3001
▁Пар	-11.3001
▁очевидны	-11.3002
▁выражения	-11.3003
▁религиозно	-11.3003
▁своя	-11.3003
▁списка	-11.3003
бег	-11.3005
▁квантово	-11.3006
▁творить	-11.3006
▁МК	-11.3006
▁зл	-11.3009
▁значил	-11.3009
▁имело	-11.3012
▁следовал	-11.3014
героев	-11.3018
▁пропаганд	-11.3018
▁перевести	-11.3018
остаточно	-11.3021
▁отвлек	-11.3022
▁молекула	-11.3025
▁направлени	-11.3026
▁Атлант	-11.3026
▁подавлен	-11.3027
▁лампочк	-11.3027
▁присоединить	-11.3027
▁иск	-11.303
▁газета	-11.3032
▁Брун	-11.3032
▁разу	-11.3036
ологи	-11.3039
▁берегу	-11.304
▁эпохи	-11.3041
▁инновационны	-11.3042
▁столкновения	-11.3042
▁узор	-11.3043
▁глобальном	-11.3049
▁учебны	-11.305
▁гибки	-11.3064
▁вспоминаю	-11.3065
метров	-11.3066
буд	-11.3067
ard	-11.3067
▁заметно	-11.3068
▁хозяйств	-11.3069
▁Пару	-11.307
▁саму	-11.3072
▁богатство	-11.3073
▁фантастически	-11.3074
▁удиви	-11.3076
камер	-11.3076
▁дополнительно	-11.3077
▁изобретени	-11.3077
▁гул	-11.3078
▁красоты	-11.308
прощения	-11.308
нар	-11.3083
▁Эли	-11.3085
▁вертикально	-11.3085
ложите	-11.3089
▁африканц	-11.3091
▁рентген	-11.3091
ступают	-11.3093
▁ледников	-11.3094
анной	-11.3102
▁мальчиков	-11.3106
▁тур	-11.3106
▁аутизма	-11.3107
▁премии	-11.3108
▁бедным	-11.3109
▁спал	-11.3114
▁позитивно	-11.3115
▁дипломат	-11.3117
▁гарантирова	-11.3118
▁привлекл	-11.3119
▁Тро	-11.312
▁закончили	-11.3124
▁Привед	-11.3124
▁начально	-11.3125
▁позитивны	-11.3129
▁выпуск	-11.313
▁моно	-11.3132
▁кадры	-11.3138
▁стремя	-11.3139
▁потребителе	-11.3139
▁пищев	-11.3139
▁создавал	-11.314
▁либерал	-11.315
▁запомина	-11.3155
▁надёжны	-11.3156
▁схема	-11.3156
▁Бангладеш	-11.3156
▁индекс	-11.3156
▁ископаемо	-11.3156
▁подключа	-11.3156
▁правосуди	-11.3156
▁фантази	-11.3156
▁экзамен	-11.3156
▁эпизод	-11.3156
▁Каролин	-11.3156
▁погрузи	-11.3156
▁мембран	-11.3156
▁тренд	-11.3156
▁Альберт	-11.3157
▁обвиня	-11.3157
▁Мисс	-11.3157
▁отправляет	-11.3157
▁заполня	-11.3157
▁заработал	-11.3157
▁Генри	-11.3158
▁храм	-11.3158
▁виноват	-11.316
▁остры	-11.3164
▁химикат	-11.3164
▁морально	-11.3165
▁свод	-11.3166
▁громко	-11.3171
▁устроил	-11.3171
▁организациям	-11.3174
▁ездил	-11.3174
встреч	-11.3174
▁отслежива	-11.3174
Ш	-11.3175
▁демонстрирует	-11.3176
▁узл	-11.3177
▁забрать	-11.3178
▁разрабатываем	-11.3181
▁Стэнфорд	-11.3183
▁чест	-11.3184
▁соответствующи	-11.3186
and	-11.3187
рут	-11.3187
▁гуманитарн	-11.3188
▁пересека	-11.319
▁восстановление	-11.319
▁Майк	-11.3191
▁рисовал	-11.3192
▁душе	-11.3193
▁Амазонк	-11.3194
▁проник	-11.3206
▁прочего	-11.3206
▁заходит	-11.3207
▁слое	-11.3214
▁информационно	-11.3214
▁объяснения	-11.3216
▁кресло	-11.3217
станем	-11.3219
▁забира	-11.3223
▁принципов	-11.3224
id	-11.3227
▁звезда	-11.323
▁пил	-11.323
▁явлени	-11.3231
▁истинно	-11.3231
▁изготовлени	-11.3233
казаться	-11.3235
▁начне	-11.3237
правляю	-11.3238
кос	-11.3242
▁поместили	-11.3244
▁Солнечно	-11.3253
▁основания	-11.3255
▁эпидемия	-11.3256
▁поступить	-11.3259
▁поиски	-11.3262
▁угрозы	-11.3262
▁нанял	-11.3263
▁ходит	-11.3265
▁предоставлени	-11.3266
▁деталя	-11.3266
▁иду	-11.3275
▁измерени	-11.3275
▁больница	-11.3275
▁вулкан	-11.3276
▁женой	-11.3277
▁крыше	-11.3278
▁ожидает	-11.328
▁сдвиг	-11.3281
▁уча	-11.3283
джер	-11.3284
▁Куд	-11.3287
▁Европа	-11.329
вато	-11.3295
▁взаимодействую	-11.3296
▁никуд	-11.3302
▁болезням	-11.3307
нтерес	-11.3307
▁отобра	-11.3307
▁буквальном	-11.3307
▁улучшени	-11.3308
▁служи	-11.3309
▁миг	-11.3311
▁глин	-11.3311
▁финанс	-11.3314
▁матерью	-11.3315
▁наступил	-11.3315
▁путешествовал	-11.3315
▁резерв	-11.3315
▁2015	-11.3315
▁дьявол	-11.3315
▁лагеря	-11.3315
▁футов	-11.3315
▁подвижн	-11.3315
▁Библи	-11.3315
▁непонят	-11.3315
▁Дерек	-11.3315
▁приготовлени	-11.3315
▁звен	-11.3315
▁камни	-11.3315
▁Чарл	-11.3316
▁отметк	-11.3316
▁побывал	-11.3316
▁угля	-11.3316
▁дорожк	-11.3316
▁высши	-11.3316
▁мистер	-11.3316
▁поражен	-11.3316
сани	-11.3317
▁великим	-11.3318
нцев	-11.3319
▁Трети	-11.3319
▁оборон	-11.3319
▁эры	-11.3321
co	-11.3321
▁клип	-11.3322
▁органически	-11.3323
▁цу	-11.3324
▁куриц	-11.3324
ставляет	-11.3325
щение	-11.3327
▁дыхани	-11.3327
▁аутизм	-11.3334
больше	-11.3335
▁вспомнит	-11.3335
▁Париже	-11.3336
▁серьёзная	-11.3336
миллион	-11.3336
▁приводят	-11.3337
▁демографическ	-11.3338
▁продавц	-11.3339
падает	-11.3339
▁лидерств	-11.334
▁договор	-11.334
▁проделал	-11.334
▁крик	-11.3342
сок	-11.3344
▁сорт	-11.3344
▁данн	-11.3345
▁ледян	-11.3345
▁Джен	-11.3346
▁музея	-11.3347
▁пласт	-11.3348
▁процессор	-11.3349
▁щит	-11.3352
▁вопросам	-11.3353
▁гена	-11.3354
▁достать	-11.3358
▁оставляет	-11.3359
▁пробк	-11.3362
▁трое	-11.3365
▁стану	-11.3365
▁объёма	-11.3367
▁требования	-11.3371
▁доступна	-11.3371
гни	-11.3372
▁скрыва	-11.3372
▁выходны	-11.3373
▁аналогичн	-11.3374
ружу	-11.3376
▁Цель	-11.3376
▁боро	-11.3378
▁характеристики	-11.3384
▁растущи	-11.3384
▁отказать	-11.3386
▁следит	-11.3386
▁неравенства	-11.3387
▁отрез	-11.3388
▁ведет	-11.3392
нимаешь	-11.3396
▁передают	-11.3404
▁достойны	-11.3406
▁36	-11.3409
▁судебны	-11.3413
▁забрал	-11.3413
▁глава	-11.3414
▁Име	-11.3416
▁проигрыва	-11.3416
▁президента	-11.3416
▁третьем	-11.3417
▁оценива	-11.3418
▁Пит	-11.3421
стараться	-11.3425
▁грязн	-11.3426
▁стекло	-11.3429
▁85	-11.3429
зовём	-11.343
▁сканировани	-11.3431
▁радикальны	-11.3433
▁левы	-11.3433
▁тяжёло	-11.3435
▁принятие	-11.3438
▁снимков	-11.3439
▁невидимо	-11.3439
вращени	-11.3439
▁зеркало	-11.344
▁чудесно	-11.344
▁встрече	-11.3442
▁объясн	-11.3443
▁принес	-11.3444
▁круга	-11.3445
os	-11.3446
разу	-11.3447
▁Либ	-11.3447
▁умирал	-11.3455
делить	-11.3457
добав	-11.3458
▁органа	-11.3459
▁Кал	-11.3459
бель	-11.3459
значения	-11.3461
▁тёмны	-11.3462
▁рабочи	-11.3465
▁черно	-11.3468
спользуя	-11.347
▁приговор	-11.3471
▁чай	-11.3472
▁пел	-11.3474
▁Президент	-11.3476
▁воспитыва	-11.3476
▁попробовал	-11.3476
▁продукци	-11.3476
▁пузырь	-11.3476
▁реализовать	-11.3476
▁сооружени	-11.3476
▁прогулк	-11.3476
▁Скотт	-11.3476
▁внедрени	-11.3476
▁пересечени	-11.3476
утверждать	-11.3476
▁скоплени	-11.3477
▁предвиде	-11.3477
amp	-11.3478
▁молекулярны	-11.3478
▁ловушк	-11.3478
▁стремительно	-11.3479
изован	-11.3479
▁характера	-11.3479
▁заработ	-11.348
▁проявления	-11.3481
▁несёт	-11.3482
▁банки	-11.3484
▁перенес	-11.3485
▁меньшинств	-11.3487
▁используемы	-11.3487
бар	-11.3489
▁духовно	-11.349
▁фаз	-11.349
зывают	-11.3491
▁спусти	-11.3496
F	-11.3499
▁человеческим	-11.3499
половин	-11.35
▁объектив	-11.3501
▁ближайше	-11.3501
me	-11.3503
▁воспринимаем	-11.3503
▁ха	-11.3506
▁обрабатыва	-11.3508
▁знамениты	-11.3509
▁постав	-11.351
▁погиб	-11.3513
▁замет	-11.3514
▁Фар	-11.3517
▁последн	-11.3518
▁повернуть	-11.3518
писания	-11.352
0	-11.3522
▁старик	-11.3523
▁многочисленны	-11.3528
▁разреза	-11.3528
▁Пал	-11.353
▁депрессия	-11.3531
▁предоставляет	-11.3531
▁заняло	-11.3531
▁убивает	-11.3533
▁нынешни	-11.3535
▁Зрител	-11.3537
▁препараты	-11.3537
пан	-11.354
▁познакомить	-11.3542
▁подключить	-11.3543
▁доступным	-11.3544
▁Золото	-11.3544
▁технологиям	-11.3546
▁зов	-11.3549
▁Обратит	-11.355
ездить	-11.3553
одно	-11.3555
▁производств	-11.3557
▁кухне	-11.3558
▁взглянул	-11.3561
шат	-11.3563
▁Суд	-11.3563
тревож	-11.3574
▁страст	-11.3575
▁повыси	-11.3576
▁слаб	-11.3578
▁жажд	-11.358
▁противник	-11.3583
лист	-11.3585
▁Хорош	-11.3586
▁самолёта	-11.3586
▁освещени	-11.3587
▁Супер	-11.3593
▁СО	-11.3596
▁лишен	-11.3597
▁требовал	-11.3598
▁гос	-11.3599
▁несчастны	-11.36
росла	-11.3606
▁схожи	-11.3608
▁определённ	-11.3619
▁слез	-11.3622
сегда	-11.3625
▁налог	-11.3627
▁младен	-11.3631
▁электронн	-11.3634
▁вино	-11.3636
делать	-11.3639
▁шизофрени	-11.364
▁этническ	-11.364
▁Фрэнк	-11.364
▁аккумулятор	-11.364
▁искренне	-11.364
▁менеджер	-11.364
▁окситоцин	-11.364
▁подчеркну	-11.364
▁путешествовать	-11.364
▁пульс	-11.364
▁свидани	-11.364
▁тунца	-11.364
▁инвестирован	-11.364
▁модифицирова	-11.364
▁поговорил	-11.3641
▁разработчик	-11.3641
▁участк	-11.3641
▁190	-11.3641
▁парадокс	-11.3643
▁ключево	-11.3643
▁звер	-11.3643
▁совместны	-11.3644
▁Рей	-11.3644
Сити	-11.3644
▁изобретател	-11.3644
▁значени	-11.3645
▁страхов	-11.3647
▁концепция	-11.3648
▁описание	-11.3649
▁твоё	-11.3649
▁белок	-11.365
▁размышлял	-11.3654
▁теряем	-11.3655
▁сделк	-11.3655
▁Коран	-11.3657
▁повернул	-11.3657
▁лома	-11.3659
▁жёлты	-11.3661
▁Оп	-11.3662
▁берега	-11.3663
культур	-11.3666
спа	-11.3668
▁появ	-11.3669
▁вероятности	-11.3671
▁километра	-11.3671
Times	-11.3675
▁восстанови	-11.3676
▁Давид	-11.3676
▁подоб	-11.3678
▁имеющие	-11.3678
просту	-11.3679
▁Сахары	-11.3679
▁освобождени	-11.3679
▁Внутри	-11.368
▁следуют	-11.3682
стар	-11.3683
▁паник	-11.3683
▁дрон	-11.3683
▁старт	-11.3684
▁полна	-11.3685
▁сырь	-11.3687
▁окончания	-11.3689
всюду	-11.3697
образован	-11.3698
▁миссия	-11.3699
▁контекст	-11.3699
▁страница	-11.3702
▁древн	-11.3702
▁лежал	-11.3704
▁невероятным	-11.3708
▁братья	-11.3711
▁мощь	-11.3711
▁выполняет	-11.3723
▁экспериментальн	-11.3723
▁Парк	-11.3727
▁добавля	-11.373
▁создавали	-11.3731
едим	-11.3739
▁ужасающ	-11.3742
▁молодёж	-11.3742
▁гол	-11.3744
▁статистика	-11.375
▁включил	-11.3752
▁Ch	-11.3752
▁воспроизв	-11.3753
▁посети	-11.3757
▁кость	-11.3761
▁Джин	-11.3765
pe	-11.3766
▁мировом	-11.3766
▁китайско	-11.3768
▁просмотр	-11.3771
▁доходит	-11.3777
ийся	-11.3778
сим	-11.3779
▁связанно	-11.3781
сли	-11.3784
▁разрабатывать	-11.3784
ерс	-11.3786
▁зрительны	-11.3788
рабатывают	-11.3789
▁исходны	-11.3792
▁обслуживани	-11.3794
▁обнаружит	-11.3795
▁Co	-11.3798
▁изображени	-11.3801
мигрант	-11.3803
▁тенденции	-11.3804
▁открывать	-11.3805
▁добави	-11.3806
▁Кембридж	-11.3807
▁захотите	-11.3807
▁иерархи	-11.3807
▁инстинкт	-11.3807
▁интуитивно	-11.3807
▁ложь	-11.3807
▁мгновение	-11.3807
▁возникновени	-11.3807
▁молитв	-11.3807
▁артери	-11.3807
▁моделировани	-11.3807
-2	-11.3807
▁прошедши	-11.3807
▁азот	-11.3807
▁провинци	-11.3807
йдем	-11.3807
▁усы	-11.3808
▁уголь	-11.3809
▁нацелен	-11.3809
▁март	-11.3809
▁посадк	-11.381
▁сексуальны	-11.381
▁Добро	-11.3811
герой	-11.3811
▁Чили	-11.3813
пра	-11.3816
▁близких	-11.3817
▁помещени	-11.3818
▁пятниц	-11.382
▁искр	-11.3822
▁песен	-11.3822
▁использующи	-11.3822
▁опор	-11.3825
▁зелен	-11.3825
▁существующе	-11.3827
▁Свет	-11.3831
▁исполня	-11.3831
▁удивительным	-11.3832
▁42	-11.3834
вела	-11.3839
▁шансов	-11.3841
▁действи	-11.3843
▁холодн	-11.3844
▁бак	-11.3844
▁забавны	-11.3844
▁стадион	-11.3846
▁ду	-11.3846
▁выявля	-11.3859
▁опуска	-11.3859
▁слоя	-11.386
▁переговоров	-11.3867
ходишь	-11.3869
влечения	-11.387
▁предполагаю	-11.3871
▁трущоб	-11.3872
▁светом	-11.3872
▁строго	-11.3872
▁белого	-11.3873
▁конфиденциально	-11.3874
▁открыла	-11.3877
станет	-11.3879
▁55	-11.388
▁совершенств	-11.3889
рол	-11.3893
▁кухн	-11.3894
щиеся	-11.3895
▁заражени	-11.3896
▁обману	-11.3897
братьев	-11.3899
▁заставля	-11.39
▁врачам	-11.3901
▁артист	-11.3901
▁успешным	-11.3904
▁отдыха	-11.391
▁жидк	-11.3913
▁слушател	-11.3916
▁Таков	-11.3921
▁окончани	-11.3926
▁мета	-11.3928
▁едины	-11.393
▁улучшение	-11.3931
▁основанны	-11.3931
▁направлениях	-11.3933
▁жидкост	-11.3935
▁колледжа	-11.3936
▁одежды	-11.3937
▁страдал	-11.3943
▁Теб	-11.3943
▁сжига	-11.3944
серьёз	-11.3944
▁пояс	-11.3944
▁Задума	-11.3948
▁предпоч	-11.395
▁черн	-11.395
▁исчез	-11.3951
▁вселенн	-11.3951
▁принципа	-11.3956
развит	-11.3958
▁племени	-11.3959
▁сумасшедш	-11.3962
▁арест	-11.3968
▁бож	-11.3968
пить	-11.3969
▁рисун	-11.3969
▁квантов	-11.397
▁бабушк	-11.3976
‐	-11.3976
▁Невозможно	-11.3976
▁бесконечны	-11.3976
▁максимум	-11.3976
▁употребля	-11.3976
▁Нельсон	-11.3976
▁беспорядк	-11.3976
▁наставник	-11.3976
▁необычайно	-11.3976
▁эксплуатаци	-11.3976
▁альбом	-11.3976
▁парашют	-11.3976
▁чёрт	-11.3976
▁тренер	-11.3976
▁шляп	-11.3976
▁Иисус	-11.3976
▁рубашк	-11.3977
▁полагать	-11.3977
▁барабан	-11.3977
▁поистин	-11.3977
▁насекомо	-11.3977
▁колонн	-11.3977
▁Хотит	-11.3977
▁социолог	-11.3977
▁вариаци	-11.3977
▁Джефф	-11.3978
▁дороже	-11.3978
▁Настоящ	-11.3978
▁треугольник	-11.3978
▁пиани	-11.398
▁Тихо	-11.3982
▁разместить	-11.3982
▁одиноки	-11.3983
дир	-11.3984
▁уменьшает	-11.3985
▁родителям	-11.3985
атомов	-11.3987
▁террорист	-11.3987
▁сохрани	-11.3988
▁справляться	-11.3989
▁эффективне	-11.3993
▁свидетельство	-11.3993
▁Дальше	-11.3993
▁напомнил	-11.3998
▁Уолл	-11.4003
▁медсестр	-11.4005
пользуемся	-11.4005
▁попрош	-11.4006
истом	-11.4007
▁согласились	-11.4008
▁лидером	-11.4011
шоу	-11.4012
▁шу	-11.4012
▁1990-	-11.4014
▁пролета	-11.4014
▁глобальным	-11.4018
ящий	-11.4019
▁взаимодейству	-11.402
▁четверт	-11.4022
▁пул	-11.4023
▁осталась	-11.4027
▁препятствия	-11.4027
▁выделяет	-11.4027
▁свежи	-11.4028
▁образа	-11.4029
▁критически	-11.4031
▁метафора	-11.4032
▁шир	-11.4035
▁эффекта	-11.4037
нимает	-11.404
▁текущи	-11.4042
▁спинно	-11.4042
▁привязан	-11.4042
▁читает	-11.4046
▁захотели	-11.4047
▁месяце	-11.4053
▁задействова	-11.4057
дадут	-11.4057
▁такси	-11.4059
айн	-11.4061
▁бога	-11.4062
▁водо	-11.4062
прям	-11.4068
▁захватывающи	-11.407
▁предмета	-11.407
▁поступает	-11.407
▁пригласи	-11.4071
▁платя	-11.4071
казывают	-11.4077
чинить	-11.4079
▁мощност	-11.4081
▁идущи	-11.4086
▁обстоятельствах	-11.4087
▁мел	-11.4092
▁задавали	-11.4092
▁плотность	-11.4096
▁Re	-11.4099
▁Египте	-11.4105
▁извлека	-11.411
▁втором	-11.4111
▁Le	-11.4112
▁организован	-11.4113
▁сосредоточить	-11.4115
▁веры	-11.4116
▁героя	-11.4118
▁шума	-11.4121
волю	-11.4123
▁воспринимают	-11.4124
ёв	-11.4124
▁моделью	-11.4128
▁счастливо	-11.4128
йших	-11.4129
▁захватывающе	-11.4131
▁цикла	-11.4133
▁гром	-11.4134
▁потока	-11.4134
▁трудне	-11.4142
▁марш	-11.4149
▁август	-11.4149
▁заслуживаю	-11.4149
▁инсталляци	-11.4149
▁млрд	-11.4149
▁мотоцикл	-11.4149
▁официально	-11.4149
▁разместил	-11.4149
▁фосфор	-11.4149
▁церковь	-11.4149
▁Поднимите	-11.4149
▁совпадени	-11.4149
▁авторитет	-11.4149
▁отметил	-11.4149
▁цензур	-11.4149
▁сказк	-11.4149
влёк	-11.4149
▁чувствительны	-11.4149
▁допустим	-11.4149
▁минус	-11.4149
▁участвую	-11.415
▁европейски	-11.415
▁осадк	-11.4151
▁разумны	-11.4152
▁интереснее	-11.4154
▁разрушить	-11.4155
▁отражение	-11.4156
▁предков	-11.4157
▁иллюстраци	-11.4158
▁принимал	-11.416
▁Организаци	-11.416
▁экспорт	-11.4163
▁залива	-11.4163
▁брали	-11.4165
▁перенести	-11.4169
▁яблок	-11.417
▁мёртвы	-11.417
▁объединили	-11.4175
▁сценарий	-11.4176
▁существенны	-11.4177
центр	-11.4179
▁кораллов	-11.4181
послед	-11.4181
▁недостато	-11.4182
клеточн	-11.4183
▁девушки	-11.4185
бытия	-11.4187
▁неверны	-11.419
▁женщине	-11.419
,7	-11.4191
▁развито	-11.4191
▁произноси	-11.4193
▁Центрально	-11.4195
▁выполняют	-11.4195
живают	-11.4195
▁Главны	-11.4196
▁комаров	-11.4196
▁отда	-11.4197
▁ощути	-11.4199
▁распоряжении	-11.42
▁осмотр	-11.4201
▁воспринимает	-11.4202
▁Тре	-11.4204
▁соединя	-11.4205
org	-11.421
▁значимо	-11.4211
▁Тон	-11.4211
▁приложени	-11.4213
▁Италии	-11.4216
▁слома	-11.4217
▁инфицирован	-11.422
▁упор	-11.4227
▁моментом	-11.4229
▁Всем	-11.4231
▁считала	-11.4231
▁плотно	-11.4234
▁стимулирова	-11.4236
▁сочетание	-11.4237
▁сажа	-11.4238
▁положительно	-11.4238
▁загадк	-11.4239
▁мисси	-11.424
▁коллективны	-11.4241
▁участникам	-11.4241
▁покрыва	-11.4242
▁неустойчив	-11.4244
▁полным	-11.4246
▁писали	-11.4246
▁интересов	-11.4247
оны	-11.4248
▁правильн	-11.4253
▁услови	-11.4253
▁тверд	-11.4255
▁персональны	-11.4256
▁Ваше	-11.4257
правления	-11.426
▁Национальны	-11.4261
уса	-11.4268
▁спутника	-11.4271
▁подразумевает	-11.4273
▁обход	-11.4273
▁бедно	-11.4276
▁Север	-11.4277
воль	-11.4278
▁аппарата	-11.4279
ждут	-11.428
▁рискова	-11.4281
▁сочувстви	-11.4282
▁Единственно	-11.4288
▁хватит	-11.4288
▁пассажир	-11.4289
▁фонда	-11.429
▁мин	-11.4291
▁признал	-11.4292
▁ехать	-11.4297
▁Вид	-11.4297
ровень	-11.4297
▁прицел	-11.4299
▁продажи	-11.43
мана	-11.43
▁ожидани	-11.43
▁Востоке	-11.4304
▁инженери	-11.4306
▁негативны	-11.4307
ent	-11.4307
▁Оба	-11.4308
▁отправляют	-11.4308
▁крах	-11.4314
▁инструкци	-11.4314
▁промышленность	-11.4315
▁учёным	-11.4316
▁взлома	-11.4316
▁установил	-11.4318
▁находили	-11.4321
▁Amazon	-11.4324
▁девушек	-11.4324
▁дилемм	-11.4324
▁долгосрочны	-11.4324
▁кристалл	-11.4324
▁рычаг	-11.4324
▁тормоз	-11.4324
▁враждебн	-11.4324
▁корабле	-11.4324
▁матерей	-11.4324
▁оптимальн	-11.4324
▁продовольстви	-11.4324
▁убеждён	-11.4324
▁утверждал	-11.4324
▁лагере	-11.4324
▁новшеств	-11.4324
▁Джейн	-11.4324
▁направляет	-11.4324
▁чужи	-11.4324
▁Какая	-11.4324
▁забуду	-11.4325
▁привлекает	-11.4325
▁бывал	-11.4325
▁агрессивны	-11.4326
▁верхушк	-11.4328
▁сохранения	-11.4329
▁поставщик	-11.433
ури	-11.433
▁наблюдени	-11.4331
▁сцена	-11.4332
▁достойно	-11.4333
▁исследовали	-11.4334
▁миссии	-11.4334
зел	-11.4336
▁Ближнем	-11.4338
▁отц	-11.4346
▁преступление	-11.4346
ленд	-11.4349
▁закат	-11.435
водим	-11.4351
▁установ	-11.4351
▁смесь	-11.4353
▁1950-	-11.4353
▁нап	-11.4354
▁мудрост	-11.436
▁мягко	-11.4368
▁поступают	-11.4373
▁динозавра	-11.4375
инга	-11.4377
▁готовил	-11.4379
▁рожда	-11.438
▁зрителе	-11.4382
RB	-11.4384
▁странные	-11.4388
▁реагирую	-11.4391
▁повысить	-11.4394
▁деятел	-11.4394
▁потряс	-11.4395
▁соединение	-11.4397
▁присутстви	-11.4397
▁блоки	-11.4401
▁строительств	-11.4401
глуб	-11.4404
▁студентами	-11.4408
▁толка	-11.4411
▁прожил	-11.4414
сол	-11.4416
▁законам	-11.4419
▁президентом	-11.442
▁кровеносны	-11.4421
▁техника	-11.4423
▁передо	-11.4431
явления	-11.4433
▁разочарован	-11.4437
▁сильн	-11.4438
▁характерны	-11.4439
▁справедливость	-11.444
▁доступными	-11.4441
▁нынешне	-11.4442
▁четыр	-11.4443
▁лежат	-11.4444
▁убит	-11.4446
изирован	-11.4447
▁воск	-11.4447
▁общени	-11.445
▁нервно	-11.4457
▁распространять	-11.4457
▁смело	-11.446
▁пусто	-11.4461
▁Цел	-11.4463
▁запустил	-11.4463
▁величайши	-11.4465
▁уменьши	-11.4465
▁чудеса	-11.4466
виз	-11.4467
▁Wi	-11.4474
садить	-11.4475
мышленн	-11.4475
▁исчезаю	-11.4478
жённ	-11.4479
▁Шер	-11.4479
▁практику	-11.4481
пин	-11.4481
▁расходов	-11.4486
▁Согласн	-11.4487
ходили	-11.4488
▁Главно	-11.4491
▁давлением	-11.4491
▁нано	-11.4492
▁анатоми	-11.4496
▁показывали	-11.4497
▁Род	-11.4497
▁башн	-11.4498
▁Германи	-11.4498
▁подходяще	-11.4498
▁Зеланди	-11.4503
▁Уильям	-11.4503
▁детектор	-11.4503
▁защищен	-11.4503
▁интерпретаци	-11.4503
▁лошадь	-11.4503
▁режиссёр	-11.4503
▁свадьб	-11.4503
▁хозяин	-11.4503
▁Life	-11.4503
▁Правильно	-11.4503
▁пугает	-11.4503
▁тренировк	-11.4503
▁колония	-11.4503
▁полагаем	-11.4503
▁отрасли	-11.4503
▁Алекс	-11.4503
▁подчиня	-11.4503
▁запрещен	-11.4503
▁элементарны	-11.4503
▁горяче	-11.4503
▁ухажива	-11.4503
▁необходимым	-11.4503
▁исключения	-11.4504
▁тупик	-11.4505
▁Стал	-11.4507
▁специфическ	-11.4508
▁китайц	-11.4508
▁содержал	-11.451
▁ничем	-11.4512
▁Израиль	-11.4512
▁основанно	-11.4512
▁пусты	-11.4514
▁владел	-11.4515
▁послал	-11.4517
▁резин	-11.4517
▁разрыва	-11.4518
▁наруша	-11.452
▁математическо	-11.452
стрит	-11.4521
▁избавля	-11.4521
▁индийск	-11.4524
▁соблазн	-11.4527
▁поверь	-11.4528
ce	-11.4529
▁гей	-11.4531
▁привлечени	-11.4532
▁исследуем	-11.4533
▁кадров	-11.4534
сажива	-11.4534
тащить	-11.4534
▁уязвимы	-11.4535
▁союзник	-11.4536
▁реш	-11.4536
▁политическим	-11.454
ver	-11.4542
емян	-11.4543
мешает	-11.4543
▁сталкиваютс	-11.4544
пасть	-11.4545
▁вакцина	-11.4545
▁заболе	-11.4545
▁огня	-11.4548
▁захват	-11.4553
▁Мин	-11.4554
▁встроен	-11.4555
▁отказ	-11.4556
▁июл	-11.4564
своем	-11.457
▁разработ	-11.4572
▁жертву	-11.4572
▁кислот	-11.4583
▁призыва	-11.4583
пиш	-11.4585
дл	-11.4588
▁испытыва	-11.4589
▁дружб	-11.4593
▁семейно	-11.4594
▁расстройство	-11.4595
▁повышает	-11.4596
▁соответствую	-11.4597
▁гражданам	-11.4598
▁задействован	-11.4599
▁значительн	-11.4601
▁могил	-11.4605
▁внук	-11.4608
▁денежны	-11.4609
няет	-11.4612
▁пальца	-11.4613
хотят	-11.4613
▁измерять	-11.462
▁рыболов	-11.4621
▁вмешательства	-11.4624
▁ненавист	-11.4625
▁обменива	-11.4627
▁Гар	-11.4629
▁одержим	-11.4629
▁выступлений	-11.4631
▁12-	-11.4635
▁проявля	-11.4642
▁сбора	-11.4643
▁снят	-11.4645
▁внутренн	-11.4647
▁поступки	-11.4651
▁цитата	-11.4653
▁подруг	-11.4653
▁мет	-11.4656
▁начались	-11.4657
▁городом	-11.4657
родом	-11.4658
▁лидера	-11.4659
▁анимаци	-11.466
▁уменьшени	-11.4663
▁Искусств	-11.4666
▁фраза	-11.4668
ставлять	-11.4675
▁Прошло	-11.4675
▁выступаю	-11.4676
▁бейсбол	-11.4678
▁диплом	-11.4678
▁сахара	-11.4679
▁предполага	-11.4681
выков	-11.4681
▁дешев	-11.4683
▁воспита	-11.4684
▁Индонези	-11.4685
▁Процесс	-11.4685
▁Юпитер	-11.4685
▁индивидуум	-11.4685
▁клиническо	-11.4685
▁ориентаци	-11.4685
▁преобразовать	-11.4685
▁примитивны	-11.4685
▁синтетическ	-11.4685
▁сознательно	-11.4685
▁энтропи	-11.4685
▁впечатления	-11.4685
▁сюрприз	-11.4685
▁локально	-11.4685
▁загружа	-11.4685
▁решётк	-11.4685
▁ученые	-11.4685
▁писателе	-11.4685
▁сумел	-11.4685
▁осторожны	-11.4686
▁углом	-11.4686
▁Программ	-11.4686
▁беспилотник	-11.4687
▁всемирно	-11.4687
▁тихо	-11.4687
▁совершают	-11.4688
▁Рик	-11.4689
▁подробности	-11.469
▁больны	-11.4691
▁взлет	-11.4691
▁наглядно	-11.4692
▁манер	-11.4695
▁молекулярно	-11.4697
▁гнезд	-11.4699
копать	-11.4701
▁достигнуть	-11.4701
▁сайта	-11.4702
▁методом	-11.4702
▁воспринима	-11.4704
▁испытывал	-11.4706
▁бетон	-11.4707
▁испытывают	-11.4707
пытался	-11.4713
▁Лес	-11.4715
▁познакомил	-11.4716
▁плит	-11.472
▁службу	-11.4727
▁современным	-11.4728
можешь	-11.4729
▁приносят	-11.4732
▁негативно	-11.4734
▁ветв	-11.4735
▁молоко	-11.4735
▁свеже	-11.4735
▁ощущает	-11.4737
▁выступлени	-11.4742
▁облак	-11.4756
▁умрёт	-11.4758
▁Солнечн	-11.4759
▁зарази	-11.4762
▁бара	-11.4766
▁ОК	-11.4769
▁Зал	-11.477
▁переходит	-11.4771
▁пря	-11.4772
▁палат	-11.4777
▁черепах	-11.4777
резать	-11.4779
▁верхни	-11.4781
▁устанавлива	-11.4781
▁поменял	-11.4784
▁спине	-11.4787
▁страдающи	-11.4789
▁собственность	-11.4789
▁цивилизация	-11.4789
▁закрыл	-11.4789
▁материально	-11.4793
▁похожим	-11.4795
▁увеличит	-11.4799
▁национальн	-11.4799
▁3-	-11.4799
▁наркотикам	-11.4801
▁удивление	-11.4802
▁властью	-11.4805
▁Джер	-11.4806
ig	-11.4807
▁успел	-11.4808
▁поражает	-11.4812
▁вина	-11.4813
▁открытость	-11.4813
▁произнес	-11.4814
▁Велики	-11.482
80	-11.4823
▁оплат	-11.4824
▁последнем	-11.4824
▁влиятельны	-11.4825
▁спроектировал	-11.4827
▁кампания	-11.483
▁типично	-11.483
▁гуманитарны	-11.4832
кладываем	-11.4834
▁пингвин	-11.4835
▁лап	-11.4836
▁кружк	-11.484
згляните	-11.4848
▁кончик	-11.485
▁создаю	-11.4851
▁почте	-11.4851
▁стандартны	-11.4856
▁изгиб	-11.4856
▁терроризма	-11.4857
▁знакомств	-11.4862
▁формировать	-11.4864
▁оригинал	-11.4867
▁агресси	-11.4868
▁экстр	-11.4869
▁мульти	-11.487
▁Невероятно	-11.487
▁Паркинсон	-11.487
▁ассоциаци	-11.487
▁вертолёт	-11.487
▁поздне	-11.487
▁размножени	-11.487
▁священник	-11.487
▁сформировать	-11.487
▁фестивал	-11.487
▁послушать	-11.487
▁симуляци	-11.487
▁пирог	-11.487
▁поиграть	-11.487
▁немнож	-11.487
▁Пекин	-11.487
▁вибраци	-11.487
хотеть	-11.487
▁возьме	-11.487
▁далёко	-11.487
▁проделыва	-11.487
▁состоящ	-11.487
▁Сомали	-11.487
люби	-11.487
▁географи	-11.4871
▁ноябр	-11.4871
▁загрязнения	-11.4871
▁ложны	-11.4871
▁наполни	-11.4871
▁богаче	-11.4871
▁Грин	-11.4872
▁атомно	-11.4872
▁поверил	-11.4872
▁привлекательно	-11.4872
▁антрополог	-11.4873
▁План	-11.4873
▁загрязнение	-11.4875
порт	-11.4875
▁боевик	-11.4875
▁2002	-11.4876
▁обеда	-11.4876
▁очевидным	-11.4876
▁Буд	-11.4877
временно	-11.4878
▁рациональны	-11.4879
▁благосостояни	-11.4881
▁признание	-11.4882
▁близ	-11.4884
▁поместил	-11.4884
▁Джонсон	-11.4884
▁маме	-11.4884
▁спальн	-11.4885
ставлю	-11.4887
▁еврейск	-11.4887
▁пробел	-11.4887
▁пробовал	-11.4888
▁действии	-11.4889
▁масло	-11.4889
▁проверя	-11.4891
▁любопытство	-11.4892
ation	-11.4892
▁Филипп	-11.4894
16	-11.4895
▁нейро	-11.4896
▁ширин	-11.4896
позна	-11.4897
▁платил	-11.4898
▁услышан	-11.4898
▁ценно	-11.4898
▁Игра	-11.4903
▁посетител	-11.4906
▁игров	-11.4907
Каид	-11.491
▁применяем	-11.491
▁Мол	-11.4911
▁крас	-11.4913
американск	-11.4914
▁принадлежат	-11.4915
▁выделя	-11.4917
английски	-11.4918
▁выделен	-11.4918
▁конференция	-11.492
▁оценка	-11.4923
▁Музе	-11.4927
▁предполагаем	-11.4935
▁шут	-11.4936
▁преступлени	-11.4937
▁разруша	-11.4939
▁мини	-11.494
летня	-11.494
ющему	-11.4941
▁задни	-11.4948
▁дельфин	-11.4949
▁став	-11.4951
▁конференци	-11.4952
▁упражнения	-11.4952
стаёт	-11.4953
▁отказал	-11.4955
▁популярны	-11.4958
▁АК	-11.4959
▁мертв	-11.496
▁Следующе	-11.4961
▁фирмы	-11.4962
▁царств	-11.4963
▁задани	-11.4966
▁комбинаци	-11.4968
▁французск	-11.4969
▁величайших	-11.4969
▁слои	-11.4973
▁запуск	-11.4974
▁сохранять	-11.4974
▁отслеживать	-11.4975
▁ели	-11.4976
▁ровно	-11.4978
рочно	-11.4979
▁груд	-11.4979
льное	-11.498
▁19-	-11.498
▁присутствие	-11.4981
▁Джонс	-11.4982
шер	-11.4984
▁преступност	-11.4984
▁тенденци	-11.4991
▁сотовы	-11.4991
▁знаниями	-11.4993
▁стресса	-11.4995
▁Долж	-11.4995
▁рождает	-11.4996
даются	-11.4996
▁городк	-11.4996
▁Бор	-11.4999
▁директора	-11.5006
▁выживание	-11.5007
▁Дарвина	-11.5016
терн	-11.5016
▁вычисли	-11.5017
▁говорящи	-11.5022
замен	-11.5023
▁блестящи	-11.5025
ложение	-11.5026
▁запутанн	-11.5029
▁абстрактны	-11.5029
▁заключени	-11.5031
▁провед	-11.5032
▁учителям	-11.5033
▁вычислительн	-11.5033
▁исчезнут	-11.5036
▁изучает	-11.5036
▁проведё	-11.5037
▁улучша	-11.5039
▁двадцат	-11.5041
▁исчезли	-11.5052
▁мен	-11.5053
▁двигает	-11.5053
▁давай	-11.5054
▁соединяет	-11.5056
▁гарант	-11.5058
▁Государств	-11.5058
▁Антарктик	-11.5058
▁Понятно	-11.5058
▁Эндрю	-11.5058
▁вырубк	-11.5058
▁необязательно	-11.5058
▁сопротивление	-11.5058
▁впоследстви	-11.5058
▁контент	-11.5059
▁кишечник	-11.5059
▁воспроизвести	-11.5059
▁устаревш	-11.5059
▁Бруклин	-11.5059
▁печени	-11.5059
▁обитател	-11.5059
▁переполнен	-11.5059
▁II	-11.506
▁рубеж	-11.506
▁аудитория	-11.506
▁загадочн	-11.506
▁разрушения	-11.5061
▁слепот	-11.5061
▁2020	-11.5062
▁движут	-11.5063
анцы	-11.5067
▁привет	-11.5067
Е	-11.5068
ключить	-11.5068
▁собираете	-11.5073
▁спектра	-11.5076
▁выбираем	-11.5076
▁Пожалуй	-11.5077
▁общественн	-11.5085
▁исчезновения	-11.5087
▁Джек	-11.5088
▁некотор	-11.5088
▁игнорировать	-11.5089
▁пить	-11.5092
▁рассматриваем	-11.5095
▁телефонны	-11.5098
▁хвата	-11.5099
▁уравнения	-11.5099
▁аспекта	-11.5099
▁океаны	-11.51
▁Мура	-11.51
▁камерой	-11.5101
▁варианта	-11.5101
▁кита	-11.5106
▁удержать	-11.5108
дневн	-11.5109
▁юридически	-11.511
▁связывает	-11.5114
▁Предположи	-11.5118
▁муч	-11.5119
учим	-11.5121
стон	-11.5121
▁образовательны	-11.5122
▁сектора	-11.5122
▁распространяют	-11.5125
▁Город	-11.5127
▁упаков	-11.5129
▁принимали	-11.513
▁сантиметров	-11.513
▁провода	-11.5131
▁металлическ	-11.5133
▁записан	-11.5134
▁гражданин	-11.5135
▁печально	-11.5135
▁порази	-11.5137
орд	-11.5139
▁намеренно	-11.514
▁повторять	-11.514
ke	-11.514
▁мечту	-11.5143
▁троп	-11.5144
▁наследи	-11.5147
▁работало	-11.5147
▁слонов	-11.5149
▁парков	-11.515
▁создади	-11.515
▁to	-11.5156
▁Кому	-11.5156
▁эксперты	-11.5158
▁Мон	-11.5161
▁ощущени	-11.5163
92	-11.5164
▁страшны	-11.5164
▁профессора	-11.5167
▁добира	-11.5167
▁Форд	-11.5167
ступать	-11.5167
бирают	-11.5168
вне	-11.5169
следствие	-11.5169
нувши	-11.5172
▁отмечен	-11.5176
▁неудоб	-11.5177
▁возьми	-11.5177
▁переходи	-11.5178
▁методик	-11.5184
▁спроектирова	-11.5185
живать	-11.5187
▁узнава	-11.5189
▁ожирение	-11.5193
▁пребывани	-11.5202
▁учитывать	-11.5203
▁Иде	-11.5205
бот	-11.5205
▁брата	-11.5207
▁волшебны	-11.5207
▁беспокоил	-11.5208
▁здоровым	-11.5208
▁собирают	-11.5209
▁тысячелетия	-11.521
текает	-11.5211
▁зрительно	-11.5211
▁проявляет	-11.5212
▁духовны	-11.5214
▁нарисовал	-11.5214
▁природно	-11.5216
▁закрыты	-11.5216
▁зелён	-11.5217
▁защищает	-11.5217
▁навыкам	-11.5219
▁d	-11.5221
▁излуча	-11.5226
▁завтрак	-11.5227
▁мощность	-11.5228
▁наверно	-11.5229
▁серьезн	-11.5232
▁отделение	-11.5232
▁194	-11.5234
▁серы	-11.5236
▁воп	-11.5238
▁шутка	-11.5241
▁объединен	-11.5243
▁содержащ	-11.5247
▁дно	-11.5247
▁проведен	-11.5249
▁Вьетнам	-11.5251
▁Ребён	-11.5251
▁Сингапур	-11.5251
▁Танзани	-11.5251
▁верблюд	-11.5251
▁лихорадк	-11.5251
▁логотип	-11.5251
▁чиновник	-11.5251
▁Twitter	-11.5251
▁головоломк	-11.5251
▁консультант	-11.5251
▁прекраща	-11.5251
▁разворачива	-11.5251
▁таракан	-11.5251
▁восхищен	-11.5251
▁кардинальн	-11.5251
▁толщин	-11.5251
▁местоположени	-11.5251
▁паралич	-11.5251
▁ошибочно	-11.5251
▁МРТ	-11.5251
▁дождя	-11.5251
▁неловко	-11.5251
▁крепко	-11.5252
▁нулево	-11.5252
▁вовремя	-11.5252
▁переключ	-11.5253
▁нигде	-11.5253
▁живопис	-11.5253
▁роботизированн	-11.5254
▁Мозг	-11.5254
▁лифт	-11.5254
▁2030	-11.5254
▁материалом	-11.5254
▁мыслям	-11.5255
▁чья	-11.5255
▁питьев	-11.5256
▁белым	-11.5257
▁полагал	-11.5258
▁перерыв	-11.5258
▁колес	-11.5259
▁Элл	-11.526
▁удивлен	-11.526
▁угла	-11.5261
▁Тысяч	-11.5263
▁голосова	-11.5269
▁руководителе	-11.5269
▁древ	-11.527
следовало	-11.5277
▁партнёра	-11.5278
▁пола	-11.5279
ia	-11.5279
▁порядк	-11.5279
нял	-11.528
▁коротк	-11.5281
▁рисовани	-11.5281
ице	-11.5289
▁владе	-11.5289
▁указан	-11.529
▁местном	-11.529
▁стадия	-11.5292
ологии	-11.5293
▁последним	-11.5294
▁оглядыва	-11.5294
▁кресла	-11.5295
▁поддержива	-11.5295
▁возвращают	-11.5297
▁христиан	-11.5298
▁стру	-11.53
▁лоб	-11.53
жимает	-11.5304
▁текстов	-11.5306
▁окончательно	-11.5306
▁записывать	-11.5307
▁рассматривал	-11.5307
▁четверть	-11.5309
▁помещения	-11.5309
▁МТ	-11.5309
сик	-11.531
дна	-11.5311
▁Бур	-11.5312
▁правильным	-11.5313
▁случил	-11.5314
▁снято	-11.5314
▁экс	-11.5317
▁закончен	-11.5317
▁чрезмерно	-11.5318
▁танцева	-11.5319
▁вычислительны	-11.532
▁Единственны	-11.5323
▁31	-11.5325
▁мечет	-11.5325
▁власт	-11.5327
▁Сол	-11.533
▁внешн	-11.5331
▁правительственн	-11.5332
▁подарил	-11.5335
▁металла	-11.5335
▁гео	-11.5335
▁беседу	-11.5338
▁этапа	-11.5342
▁муравья	-11.5343
▁удобны	-11.5344
▁продуктами	-11.5345
▁массовой	-11.5345
000	-11.5347
▁5-	-11.5352
▁Кре	-11.5353
▁дедушк	-11.5355
▁Разниц	-11.5356
▁историческо	-11.5359
▁Треть	-11.536
щиков	-11.5364
▁предоставлять	-11.5364
▁сигналов	-11.5365
▁учила	-11.5365
▁фондов	-11.5367
ключения	-11.5373
▁публичны	-11.5374
▁Технологи	-11.5377
▁глуп	-11.5379
▁платформу	-11.5384
рести	-11.5384
▁статистике	-11.5389
▁судья	-11.5389
▁классически	-11.5391
нис	-11.5391
▁груб	-11.5395
▁приняла	-11.5396
▁концентраци	-11.5396
▁дамы	-11.5397
▁развлека	-11.54
▁последовал	-11.5404
▁бал	-11.5406
▁предлагают	-11.5407
▁успешн	-11.5409
▁препарат	-11.5409
▁заставит	-11.5414
▁полюса	-11.5416
▁образовательн	-11.5423
син	-11.5424
▁стату	-11.5425
▁евре	-11.5429
▁наибольше	-11.5429
держал	-11.543
▁заботит	-11.5431
▁проводя	-11.5434
▁бен	-11.5435
▁означа	-11.5436
ставляем	-11.5439
▁коммерческо	-11.5439
▁милы	-11.544
крытия	-11.5441
▁пища	-11.5442
▁серия	-11.5444
▁реабилитаци	-11.5444
▁состояни	-11.5445
▁психиатр	-11.5445
▁аспирант	-11.5445
▁коралловы	-11.5445
▁Групп	-11.5447
▁Силиконов	-11.5447
▁возьмёт	-11.5447
▁галлюцинаци	-11.5447
▁глагол	-11.5447
▁идентичны	-11.5447
▁многообрази	-11.5447
▁озабочен	-11.5447
▁транзистор	-11.5447
▁химиотерапи	-11.5447
▁Аристотел	-11.5447
▁симфони	-11.5447
▁композици	-11.5447
▁плёнк	-11.5447
▁распределя	-11.5447
▁бирж	-11.5447
▁Девочк	-11.5447
▁Подобны	-11.5447
▁диаре	-11.5447
▁прилага	-11.5447
▁Цвет	-11.5447
▁ускорени	-11.5448
▁Мандел	-11.5448
▁выучил	-11.5448
▁проникает	-11.5448
▁увидев	-11.5448
▁насос	-11.5449
▁привод	-11.5451
▁круглы	-11.5452
▁изменим	-11.5452
▁брон	-11.5453
▁рождаются	-11.5453
▁вон	-11.5455
▁разделен	-11.5457
сутствует	-11.5459
▁чернил	-11.5459
▁фотографировал	-11.546
▁продолжали	-11.5461
▁193	-11.5462
▁фонар	-11.5462
▁Пришло	-11.5463
▁героин	-11.5463
▁тень	-11.5464
▁недостатка	-11.5468
▁голубы	-11.5469
▁пытаетесь	-11.5469
▁опусти	-11.547
▁выступил	-11.5474
▁случалось	-11.5474
▁замечаем	-11.5474
▁слуша	-11.5476
▁вечера	-11.5476
▁литров	-11.5476
▁рок	-11.548
▁Лондона	-11.5483
▁закончит	-11.5483
▁изоляци	-11.5485
▁потребляем	-11.5486
▁Ясно	-11.5486
▁террористов	-11.5487
▁перелом	-11.5488
▁доли	-11.549
▁половине	-11.549
▁подключен	-11.5494
▁край	-11.5496
▁испытывает	-11.5496
▁рассказы	-11.5499
чаты	-11.5499
▁прямом	-11.55
близости	-11.5501
▁жалова	-11.5502
▁сломан	-11.5503
▁окружающим	-11.5508
▁бактерия	-11.5508
▁влияни	-11.5509
▁дыра	-11.5516
▁рай	-11.5517
▁партнёров	-11.5517
▁испытывать	-11.552
▁ученики	-11.5522
▁свист	-11.5522
▁лег	-11.5523
▁молодёжь	-11.5523
▁младше	-11.5525
▁достоинство	-11.5526
▁шагов	-11.5528
▁предпринимател	-11.5528
▁Маленьки	-11.5532
▁урожа	-11.5538
▁Израиле	-11.5539
▁цепь	-11.5542
▁определя	-11.5542
▁институтов	-11.5546
▁база	-11.5547
▁попыт	-11.555
▁невозможным	-11.5551
▁Дума	-11.5551
▁Правил	-11.5552
▁турист	-11.5552
▁футболк	-11.5555
▁когнитивны	-11.5556
▁границу	-11.5556
▁состояла	-11.5558
▁предпринима	-11.5559
▁изучают	-11.5561
▁преследу	-11.5562
▁предоставля	-11.5563
▁эмоциональн	-11.5565
▁душа	-11.5565
▁разницы	-11.5565
вшими	-11.5565
▁развил	-11.5567
▁нарко	-11.5567
▁естественн	-11.5568
▁возобновляем	-11.5568
▁песк	-11.557
▁помещение	-11.5573
рение	-11.5573
▁непрост	-11.5578
▁продолжение	-11.5579
▁лестниц	-11.5579
▁роз	-11.5579
▁Ого	-11.558
енность	-11.5586
▁бум	-11.5586
▁ориентирован	-11.5586
▁соревновани	-11.5587
▁Гал	-11.5589
▁серьёзн	-11.5591
▁женск	-11.5593
▁свято	-11.5603
▁дешёво	-11.5604
▁трога	-11.5607
▁меш	-11.561
▁анализиру	-11.561
▁смешн	-11.5611
рган	-11.5614
▁меньши	-11.5614
▁отпуска	-11.5616
▁пр	-11.5616
▁интерактивны	-11.5618
▁продаже	-11.5618
▁Сме	-11.5622
▁трагедия	-11.5623
пта	-11.5624
▁теста	-11.5624
▁засел	-11.5625
убийц	-11.5627
▁Ази	-11.5627
▁прекрати	-11.5634
▁союз	-11.5642
▁разрушает	-11.5642
▁наблюдают	-11.5643
▁нейробиолог	-11.5645
▁ориентир	-11.5646
▁Человеческ	-11.5647
▁Клинтон	-11.5647
▁Компании	-11.5647
▁джунгл	-11.5647
▁консерватор	-11.5647
▁неандертальц	-11.5647
▁посчастливи	-11.5647
▁регулировани	-11.5647
▁цилиндр	-11.5647
▁бонобо	-11.5647
▁обдумыва	-11.5647
▁пандеми	-11.5647
▁позаботи	-11.5647
▁пьес	-11.5647
▁Аудитори	-11.5647
▁конфет	-11.5647
▁Габб	-11.5647
▁миграци	-11.5647
▁умственны	-11.5647
▁оруди	-11.5647
▁пьян	-11.5647
,4	-11.5647
▁корзин	-11.5647
▁оболочк	-11.5647
▁проникнуть	-11.5647
▁банан	-11.5648
▁морали	-11.5648
даётся	-11.5648
▁сокращения	-11.5648
▁незначительны	-11.5648
▁Мистер	-11.5648
▁потерян	-11.5648
▁Гарри	-11.5649
чёл	-11.565
▁ошеломляющ	-11.565
▁англ	-11.5651
▁звонок	-11.5651
▁танцор	-11.5652
▁тысячам	-11.5653
▁владени	-11.5653
▁тигр	-11.5653
▁общим	-11.5654
▁слепых	-11.5654
▁целым	-11.5654
▁тракт	-11.5656
▁суши	-11.5658
▁гравитаци	-11.566
▁закрыть	-11.566
▁повышение	-11.5661
▁фермерам	-11.5662
▁кибер	-11.5662
▁стойк	-11.5666
▁изучен	-11.5667
▁убеди	-11.5668
▁тяжелы	-11.5669
▁желающи	-11.5679
▁Эль	-11.5679
▁выбирает	-11.568
▁сохраня	-11.5681
74	-11.5684
▁пингвинов	-11.5685
▁старым	-11.5685
▁калорий	-11.5686
▁подумает	-11.5687
▁отцов	-11.5687
▁трудов	-11.5689
▁химик	-11.5692
▁воли	-11.5692
льный	-11.5699
дует	-11.5699
править	-11.57
▁государственн	-11.5701
▁пика	-11.5701
▁выбирают	-11.5705
▁коренны	-11.5705
▁прозрачность	-11.5706
▁беру	-11.5709
▁левом	-11.5714
▁генетическ	-11.5717
▁встречается	-11.5718
▁Часть	-11.5721
пива	-11.5723
▁южн	-11.5725
▁предпочтения	-11.5728
▁тюрьма	-11.5729
▁Рэй	-11.573
▁продал	-11.573
техническ	-11.5731
▁грудь	-11.5731
▁Куб	-11.5732
резал	-11.5733
▁неба	-11.5734
▁призываю	-11.5737
▁проверять	-11.5744
плыть	-11.5749
ймите	-11.575
▁стих	-11.575
▁передачу	-11.5751
▁разработка	-11.5753
▁сфокусировать	-11.5755
▁круж	-11.5756
▁рассмотрени	-11.5756
▁первичн	-11.5757
▁пыль	-11.5757
▁Стан	-11.5758
▁сочетани	-11.5759
дающие	-11.5761
▁адаптировать	-11.5764
▁временны	-11.5765
верси	-11.5769
▁известным	-11.5769
▁проща	-11.5771
▁препарата	-11.5777
▁Перу	-11.5782
▁определили	-11.5782
▁Тур	-11.5788
▁пошло	-11.5788
▁ключев	-11.5789
▁стола	-11.579
▁общественност	-11.5794
▁освещение	-11.5796
▁ограниченны	-11.5797
▁уличны	-11.5797
▁достал	-11.5797
▁электрическо	-11.5799
▁арабски	-11.58
форд	-11.5801
▁увлека	-11.5806
▁верхнем	-11.5806
▁обширн	-11.5807
▁взглядом	-11.5812
▁900	-11.5812
▁судьбы	-11.5812
▁Ген	-11.5814
▁очища	-11.5816
▁служил	-11.5817
ороче	-11.5819
▁научил	-11.5825
▁яблоко	-11.5826
▁фигуры	-11.5827
▁волшебно	-11.5829
▁постара	-11.5831
70	-11.5831
▁измеря	-11.5831
▁врачу	-11.5834
▁Ближн	-11.5835
▁предпринимателя	-11.5836
▁медленн	-11.5837
ne	-11.5837
▁динозавры	-11.5839
▁продолжала	-11.5841
▁бросает	-11.5842
▁услышала	-11.5843
▁разгляде	-11.5846
поминают	-11.5848
▁очарован	-11.5849
▁потребля	-11.5849
▁1999	-11.5851
▁Аргентин	-11.5851
▁Лучши	-11.5851
▁Сиэтл	-11.5851
▁возврат	-11.5851
▁выпущен	-11.5851
▁джихад	-11.5851
▁заболеваниям	-11.5851
▁медикамент	-11.5851
▁антенн	-11.5851
▁вмешива	-11.5851
▁прислал	-11.5851
▁волокна	-11.5851
▁пицц	-11.5851
▁подъем	-11.5851
▁изобрё	-11.5851
▁генерал	-11.5851
▁ненулево	-11.5851
▁сканер	-11.5851
▁мамонт	-11.5852
▁Книг	-11.5852
▁жду	-11.5852
▁Количеств	-11.5852
▁штан	-11.5853
▁тел	-11.5853
▁недооценива	-11.5854
▁сервер	-11.5854
▁сильна	-11.5855
▁дождев	-11.5857
▁заслуживает	-11.5857
▁Артур	-11.5857
▁предка	-11.5857
▁переживал	-11.586
▁протеста	-11.586
▁выбран	-11.5861
▁350	-11.5861
временн	-11.5862
▁племен	-11.5864
▁эру	-11.5864
▁совершал	-11.5865
▁следу	-11.5865
▁богатым	-11.5866
▁замкнут	-11.5866
▁включают	-11.5868
▁основатель	-11.5876
▁a	-11.5876
▁пустот	-11.5877
▁пользователя	-11.5878
▁накопи	-11.588
▁морск	-11.5882
▁международн	-11.5883
▁Турци	-11.5883
▁атакова	-11.5885
▁шип	-11.5885
▁доказывает	-11.5886
▁Простит	-11.5887
▁британски	-11.5888
▁вожд	-11.589
▁туман	-11.5894
▁помести	-11.5895
▁далеки	-11.5895
▁гон	-11.5895
▁Природа	-11.5898
▁жарко	-11.5899
▁уничтожен	-11.59
▁маму	-11.5901
▁руч	-11.5903
▁справляются	-11.5905
▁телевизора	-11.5909
▁студентом	-11.5909
▁счета	-11.591
▁искусством	-11.591
▁двигают	-11.5911
▁оптическ	-11.5913
▁перемещения	-11.5914
▁банд	-11.5918
онов	-11.5922
▁ступн	-11.5923
▁художником	-11.5925
▁умно	-11.5926
▁классны	-11.5929
▁французски	-11.593
▁привычно	-11.5931
контролируем	-11.5935
▁главе	-11.5939
▁нация	-11.5942
активны	-11.5942
▁просит	-11.5942
▁аренд	-11.5945
▁достоинства	-11.5947
▁берегов	-11.5948
▁телевидени	-11.5949
вилл	-11.5952
▁местность	-11.5953
▁победил	-11.5958
окс	-11.596
▁неприятны	-11.5967
▁границе	-11.5967
▁упражнени	-11.5967
▁мероприяти	-11.5972
▁приют	-11.5972
▁Тор	-11.5973
▁37	-11.5976
▁представляли	-11.5978
▁голодны	-11.5979
▁телевидение	-11.5982
▁объединяют	-11.5984
▁препятствие	-11.5984
▁зме	-11.5987
▁Кра	-11.5988
▁стоим	-11.5989
▁расстройств	-11.5989
▁будущим	-11.599
▁классно	-11.599
нув	-11.5992
▁тонко	-11.5993
▁разрешени	-11.5995
▁продолжит	-11.5997
▁населени	-11.5998
качать	-11.5998
карт	-11.6
car	-11.6
▁сенсорны	-11.6001
▁приняти	-11.6002
▁использоваться	-11.6004
ладельц	-11.6005
▁широком	-11.6005
▁наверх	-11.6009
менем	-11.601
▁скромно	-11.6012
▁отражают	-11.6014
▁рассужда	-11.6016
чник	-11.6017
▁дисциплин	-11.6018
▁Смотр	-11.6019
▁атмосфера	-11.6024
вич	-11.6028
▁провож	-11.603
▁столкнул	-11.6031
▁инвестиру	-11.6032
▁Канады	-11.6035
▁черепа	-11.6035
учесть	-11.6035
▁детство	-11.6035
▁исчезл	-11.6036
▁выпускник	-11.6039
▁плохим	-11.6039
▁Титан	-11.6039
▁знаменит	-11.604
▁выделил	-11.6041
нил	-11.6044
▁кирпич	-11.6046
▁рацион	-11.6048
▁брака	-11.605
▁распространить	-11.6052
▁спасение	-11.6052
▁удивля	-11.6052
гнать	-11.6053
▁исп	-11.6053
▁производитель	-11.6053
▁ставить	-11.6054
▁Вспомнит	-11.6054
▁демократическо	-11.6055
▁подруга	-11.6056
▁воздействи	-11.6057
▁набрал	-11.6057
▁персонажа	-11.6058
,3	-11.6058
▁материя	-11.6058
▁Больши	-11.6058
нга	-11.6059
°	-11.6059
▁1998	-11.6059
▁2013	-11.6059
▁Студент	-11.6059
▁археолог	-11.6059
▁интегрирован	-11.6059
▁лошади	-11.6059
▁опустош	-11.6059
▁отверстие	-11.6059
▁пешком	-11.6059
▁посредник	-11.6059
▁тротуар	-11.6059
▁2014	-11.6059
▁Сноуден	-11.6059
▁игнориру	-11.6059
▁потрачен	-11.6059
▁разрушил	-11.6059
▁мебель	-11.6059
▁обоснован	-11.6059
▁хранят	-11.6059
▁шлем	-11.6059
▁пересадк	-11.606
▁полноценно	-11.606
▁субсиди	-11.606
▁атлет	-11.606
▁воин	-11.606
▁растет	-11.606
▁ладон	-11.606
▁сражени	-11.6061
▁освободить	-11.6062
▁постели	-11.6062
▁конструкция	-11.6064
▁завершить	-11.6065
▁томографи	-11.6065
BC	-11.6066
▁противоположны	-11.6067
▁углекислы	-11.6067
▁отражен	-11.6067
▁систематически	-11.6068
▁добавляет	-11.6068
▁равенство	-11.607
▁увлечен	-11.607
▁крошечн	-11.6071
▁движущи	-11.6071
▁мышечн	-11.6071
▁пользовани	-11.6072
▁Жив	-11.6073
▁захотелось	-11.6073
▁разделение	-11.6074
▁обслужива	-11.6075
▁осуществлять	-11.6078
▁индустрия	-11.6078
▁ядра	-11.608
часов	-11.608
▁ранен	-11.608
▁заболел	-11.6082
люс	-11.6083
▁нелепо	-11.6083
▁арабском	-11.6084
▁удоб	-11.6085
ыглядит	-11.6085
▁трат	-11.6089
▁содержать	-11.6094
▁слоё	-11.6097
▁жёстки	-11.61
▁Кенне	-11.6102
▁достигают	-11.6103
▁Акт	-11.6105
▁тяжёл	-11.6105
▁осуществлени	-11.6109
▁стиральн	-11.611
▁собственност	-11.6111
▁гости	-11.6113
▁Шта	-11.6114
▁грубо	-11.6115
тас	-11.6116
▁увелич	-11.6118
▁Кур	-11.6119
▁курени	-11.6119
▁уменьша	-11.612
▁изобре	-11.6123
▁защитник	-11.6123
▁свидетеле	-11.6125
25	-11.6128
▁Дели	-11.6129
▁Технология	-11.613
▁абстрактно	-11.6131
двинуть	-11.6133
▁наблюдател	-11.6134
руба	-11.6137
▁универсально	-11.6139
▁вдохновени	-11.6142
▁суде	-11.6143
▁независимост	-11.6147
росло	-11.6152
▁ценностям	-11.6155
▁водны	-11.6156
▁обращает	-11.6157
▁прозрачн	-11.6166
▁доз	-11.6166
▁ставят	-11.6166
▁приобрел	-11.617
▁отделени	-11.6171
▁управлял	-11.6176
▁закрыт	-11.6177
▁текста	-11.6179
▁покрыт	-11.618
▁открытк	-11.6183
▁записал	-11.6183
▁очередно	-11.6183
▁палатк	-11.6186
▁синим	-11.6186
▁стабильно	-11.6187
▁требовани	-11.6198
▁судь	-11.6201
▁превращают	-11.6202
▁ракеты	-11.6207
стическ	-11.6208
▁лжи	-11.6212
▁поезда	-11.6213
▁окружен	-11.6218
▁Послушай	-11.6219
льц	-11.6222
▁поймё	-11.6226
▁представил	-11.6232
▁сэр	-11.6236
▁интерактивно	-11.6236
▁48	-11.6238
ter	-11.6241
безопас	-11.6243
счёт	-11.6245
тура	-11.6245
▁низк	-11.6246
▁финал	-11.6247
жечь	-11.6247
▁художественно	-11.6248
▁функционировани	-11.6249
▁Париж	-11.625
▁акулы	-11.625
ндер	-11.6252
▁взрослым	-11.6253
прочем	-11.6256
▁качеств	-11.6258
▁демократ	-11.6264
▁афро	-11.6268
▁гостин	-11.627
▁сопротивля	-11.6271
▁расшифрова	-11.6272
▁Ирланди	-11.6272
▁Управление	-11.6272
▁Филадельфи	-11.6272
▁вдохновляет	-11.6272
▁возбужден	-11.6272
▁сопротивления	-11.6272
▁стипенди	-11.6272
▁Эдвард	-11.6272
▁выражать	-11.6272
▁чужо	-11.6272
▁аромат	-11.6272
▁Зелён	-11.6272
▁банкир	-11.6272
▁содержимо	-11.6273
▁испуга	-11.6273
▁стремимся	-11.6273
▁потолк	-11.6273
▁публике	-11.6273
▁воспоминани	-11.6273
▁Робот	-11.6274
▁затрону	-11.6275
▁восстанавливать	-11.6277
▁1900	-11.6277
▁Ничто	-11.6278
опустим	-11.6278
▁сокращение	-11.6278
▁займёт	-11.6279
▁сложивш	-11.628
▁Ливи	-11.6283
▁кабель	-11.6283
▁планетарн	-11.6284
▁поврежд	-11.6285
сан	-11.6286
▁подростка	-11.6288
▁Ньютон	-11.6289
▁попала	-11.6289
▁оцен	-11.6291
ракт	-11.6294
▁устойчивост	-11.6295
▁Каза	-11.6298
▁полез	-11.63
▁сложен	-11.63
▁девочку	-11.6302
▁драм	-11.6303
▁изобретен	-11.6303
▁Данные	-11.6303
чество	-11.6304
▁геологическ	-11.6305
▁обратите	-11.6305
▁нормальным	-11.6309
▁значимость	-11.6313
▁финансирова	-11.6313
▁отчаянно	-11.6319
▁печ	-11.6319
▁моста	-11.632
▁размышления	-11.6322
▁неврологи	-11.6323
▁документальны	-11.6323
▁Испании	-11.6327
▁сделанно	-11.6329
▁перемещать	-11.6329
▁автомобиле	-11.6333
▁исток	-11.6334
▁представитель	-11.6335
▁танца	-11.6336
▁оригами	-11.6338
▁строя	-11.6344
▁ток	-11.6345
ливает	-11.6347
оид	-11.6347
▁проанализирова	-11.6348
групп	-11.6349
▁тренирова	-11.6349
▁развивающие	-11.635
▁распознава	-11.6353
▁весит	-11.6353
▁привычны	-11.6355
▁наличия	-11.6358
▁g	-11.636
▁удачно	-11.6362
▁поража	-11.6364
▁подключи	-11.6366
▁увеличивать	-11.6369
▁плоск	-11.6374
▁вступил	-11.6379
▁правительстве	-11.6381
▁обращал	-11.6383
▁образованны	-11.6384
▁отличать	-11.6384
▁усвоил	-11.6385
▁пада	-11.6388
▁переживания	-11.6389
▁Берлин	-11.639
▁публик	-11.6394
▁поведенчески	-11.6397
▁счастливе	-11.6401
▁сбережения	-11.6402
▁воспоминание	-11.6402
▁гордость	-11.6403
▁азиат	-11.6405
тивн	-11.6406
▁рекламны	-11.6407
▁звонит	-11.6407
▁любопытны	-11.6408
▁рожден	-11.641
▁Ден	-11.6412
ждём	-11.6412
▁числ	-11.6413
видимом	-11.6415
▁товара	-11.6418
▁девочкам	-11.6418
▁прошлым	-11.6419
▁анализирова	-11.6428
кинс	-11.6429
▁крыль	-11.6432
▁пиксел	-11.6437
▁преобразовани	-11.6439
толог	-11.6441
▁перехода	-11.6442
▁быстрого	-11.6443
ss	-11.6446
▁Богу	-11.6447
▁учите	-11.6447
▁вредны	-11.6449
▁изнасилован	-11.6449
▁препод	-11.645
▁воле	-11.6452
▁посе	-11.6452
▁четвёрто	-11.6455
▁заглядыва	-11.6455
▁огне	-11.646
▁световы	-11.6461
▁конечны	-11.6461
ставили	-11.6462
▁разбива	-11.6462
▁размышлени	-11.6463
▁разновидност	-11.6464
▁выгоды	-11.6465
▁43	-11.6466
▁продолжае	-11.6466
▁Лин	-11.6467
▁подач	-11.6469
слыша	-11.6469
▁авиа	-11.647
▁биотехнологи	-11.647
▁позиция	-11.647
лежащ	-11.6471
▁оптимист	-11.6473
▁натур	-11.6476
▁урока	-11.6476
▁измерение	-11.6477
▁соседни	-11.6478
▁пожил	-11.6484
▁объявлен	-11.6484
▁знаменитост	-11.6489
▁субъект	-11.6489
▁Антарктид	-11.6489
▁Возвраща	-11.6489
▁Гренланди	-11.6489
▁Мэтт	-11.6489
▁Республик	-11.6489
▁Трудно	-11.6489
▁айсберг	-11.6489
▁бесполезны	-11.6489
▁благоприятн	-11.6489
▁джентльмен	-11.6489
▁заблуждени	-11.6489
▁иероглиф	-11.6489
▁интеграци	-11.6489
▁привилеги	-11.6489
▁приспосаблива	-11.6489
▁сегмент	-11.6489
▁сигарет	-11.6489
▁туберкулёз	-11.6489
▁ускорить	-11.6489
▁Арктик	-11.6489
▁милосерди	-11.6489
▁реконструкци	-11.6489
▁капитан	-11.6489
▁маркер	-11.6489
▁расстроен	-11.649
▁обнаружим	-11.649
▁жилья	-11.649
▁Арави	-11.649
▁приключени	-11.649
▁доминирую	-11.649
▁нижн	-11.6491
бирает	-11.6491
▁пират	-11.6491
▁водителя	-11.6491
▁форум	-11.6491
▁колёс	-11.6491
▁устрани	-11.6491
▁Сэм	-11.6492
гвозд	-11.6493
▁Шесть	-11.6493
▁апрел	-11.6493
▁высказать	-11.6494
▁отрицательны	-11.6494
▁удовлетвори	-11.6497
▁изменяют	-11.6499
▁крупным	-11.65
▁половы	-11.6501
▁изобража	-11.6501
▁бизнесмен	-11.6502
▁батарейк	-11.6502
▁учёными	-11.6502
▁производителей	-11.6511
▁Кем	-11.6512
▁складывает	-11.6513
▁господин	-11.6513
▁чистый	-11.6515
несла	-11.6515
▁повлияет	-11.6515
▁Леонардо	-11.6516
▁луг	-11.6516
▁вторым	-11.6517
▁ухо	-11.6518
▁выходил	-11.6519
▁воздушн	-11.652
ницы	-11.6521
ive	-11.6522
▁студента	-11.6522
▁восстановлени	-11.6522
▁художники	-11.6523
▁интересуют	-11.6524
▁любител	-11.6524
цепи	-11.6525
▁постановк	-11.6525
▁растуще	-11.6527
▁послужил	-11.6529
▁технику	-11.6531
▁щел	-11.6531
ошла	-11.6532
▁описания	-11.6532
▁объясня	-11.6533
,2	-11.6535
▁судить	-11.6536
▁переезжа	-11.6537
▁Помн	-11.6538
▁этически	-11.6538
▁звуча	-11.6538
▁толч	-11.654
▁стремит	-11.654
▁помни	-11.6541
▁отчет	-11.6543
▁чей	-11.6554
кнул	-11.6555
▁сохраняет	-11.6557
▁кошки	-11.656
▁пароли	-11.6566
▁собрания	-11.6567
меньше	-11.6572
▁монет	-11.6572
вным	-11.6573
▁вырабатыва	-11.6574
▁адаптирова	-11.6583
▁бюджета	-11.6583
▁матк	-11.6587
▁врачом	-11.6587
▁спутниковы	-11.6588
▁раннем	-11.6591
▁одева	-11.6596
▁община	-11.6598
▁скат	-11.6599
▁начнет	-11.6604
▁физика	-11.6608
наче	-11.661
▁неприятно	-11.661
▁отдавать	-11.6613
▁отправлен	-11.6614
▁Одн	-11.6621
▁сутк	-11.6622
вист	-11.6623
▁идеологи	-11.6623
▁ускоря	-11.6625
▁выреза	-11.6626
▁дяд	-11.663
▁бездомны	-11.6635
▁мертвы	-11.6636
▁Франци	-11.6638
▁иностранн	-11.6639
▁Будд	-11.6639
▁Замет	-11.6641
▁успе	-11.6642
▁Третье	-11.6642
▁руб	-11.6643
▁тяг	-11.6643
▁Следующ	-11.6643
▁6-	-11.6648
▁выдерж	-11.6649
▁практическо	-11.6651
▁либеральн	-11.6653
ТС	-11.6653
▁использованы	-11.6655
▁Др	-11.6659
▁чтение	-11.6668
▁родин	-11.6669
берите	-11.6674
▁Сара	-11.6675
▁приви	-11.6677
▁развивающе	-11.668
▁обходит	-11.668
▁заинтересовать	-11.6681
ацию	-11.6689
▁уверенным	-11.6689
▁выплат	-11.669
▁Bu	-11.6696
▁обмана	-11.6697
▁стеклянны	-11.6699
нья	-11.6701
инди	-11.6705
▁эго	-11.6706
▁строител	-11.6706
▁вера	-11.6706
ложим	-11.6709
▁психическо	-11.6712
▁Детройт	-11.6712
▁Линкольн	-11.6712
▁Пациент	-11.6712
▁бамбук	-11.6712
▁вовлечь	-11.6712
▁выигрыш	-11.6712
▁мальчишк	-11.6712
▁муравей	-11.6712
▁подтвердил	-11.6712
▁прибрежн	-11.6712
▁протоклетк	-11.6712
▁светодиод	-11.6712
▁издержк	-11.6712
▁шкаф	-11.6712
▁Взрыв	-11.6712
▁комеди	-11.6712
▁шторм	-11.6712
▁параллельно	-11.6712
▁патоген	-11.6712
▁вернёт	-11.6712
▁Последне	-11.6712
▁завоева	-11.6712
▁1984	-11.6712
▁взгляда	-11.6712
▁основание	-11.6712
▁упрости	-11.6712
▁ремонт	-11.6712
▁ходьб	-11.6712
▁японски	-11.6713
▁расцвет	-11.6713
▁чертовск	-11.6713
▁пенис	-11.6713
▁японско	-11.6714
▁Арабск	-11.6715
▁рассказчик	-11.6715
▁Семь	-11.6716
▁убедительно	-11.6716
▁повторил	-11.6716
▁скуча	-11.6717
▁лучи	-11.6717
▁найдет	-11.6718
▁потеряла	-11.6718
▁чертеж	-11.6718
▁решка	-11.6718
▁посещени	-11.6719
▁беспокойство	-11.6719
▁превышает	-11.672
▁инновация	-11.6722
лос	-11.6722
▁продвинуть	-11.6726
▁войска	-11.6727
▁тюрем	-11.6728
▁Ван	-11.6729
▁применим	-11.6729
стами	-11.6731
▁геометрическ	-11.6732
летним	-11.6737
▁кубик	-11.6738
▁простат	-11.674
пускать	-11.674
▁машинами	-11.6742
▁перевернул	-11.6742
▁определённым	-11.6744
▁распр	-11.6744
▁признан	-11.6745
▁комисси	-11.6749
бал	-11.6749
▁блестящ	-11.6751
▁платит	-11.6753
слан	-11.6755
▁национальном	-11.6756
▁1960-	-11.6758
▁младши	-11.6758
ливать	-11.676
▁возглавля	-11.676
▁планирование	-11.6761
▁куч	-11.6762
▁свят	-11.6762
рева	-11.6763
▁Прекрасно	-11.6767
даль	-11.6767
▁Вес	-11.6768
▁окружае	-11.677
мешать	-11.6771
▁получение	-11.6774
ha	-11.6777
куда	-11.6786
▁поймал	-11.6787
▁совместн	-11.6796
▁дядя	-11.6796
▁лыжа	-11.6799
▁взятк	-11.68
▁улучшает	-11.6803
▁Норвегии	-11.6804
▁возобновляемы	-11.6804
бс	-11.6805
▁знаков	-11.6805
▁суп	-11.6807
▁построены	-11.6807
пресс	-11.6807
▁учреждений	-11.6807
▁бри	-11.6807
▁журналистик	-11.6808
▁чуд	-11.6812
▁фрукт	-11.6814
▁Вод	-11.6815
▁чтени	-11.6819
▁впечатляющи	-11.682
▁осознани	-11.6821
▁приступа	-11.6825
▁выключа	-11.6829
▁плав	-11.6833
▁заряд	-11.6833
▁изменят	-11.6834
крытие	-11.6835
▁оценкам	-11.6836
тверж	-11.6836
▁инвестор	-11.6845
клин	-11.6845
▁кофейн	-11.6848
едем	-11.685
важно	-11.6851
▁хватил	-11.6852
▁итальянск	-11.6852
▁проход	-11.6852
▁ударил	-11.6853
▁новаторств	-11.6856
▁чис	-11.686
▁130	-11.6865
▁действующи	-11.6865
▁завися	-11.6865
▁продвижени	-11.6871
▁доктором	-11.6871
▁здоровьем	-11.6875
хватил	-11.6875
жка	-11.688
▁удавал	-11.688
разнообразия	-11.688
▁высоком	-11.6883
▁посвяти	-11.6884
▁столб	-11.6885
▁Первым	-11.6886
▁1990	-11.6889
▁фундамент	-11.6889
▁гибел	-11.689
▁аудиторию	-11.6894
▁поверну	-11.6896
▁стира	-11.6899
▁обратим	-11.6902
▁Ba	-11.6904
вление	-11.6905
▁бумажны	-11.6906
▁минимально	-11.6907
▁Отличн	-11.6908
растает	-11.6909
▁строение	-11.691
▁пройд	-11.6911
▁прочес	-11.6912
▁совета	-11.6927
▁одобрен	-11.6928
▁Джули	-11.6929
▁посчитал	-11.693
▁человечност	-11.6932
▁сделав	-11.6933
▁Wal	-11.6935
▁миллиметр	-11.6936
езусловно	-11.6938
▁культ	-11.6938
▁физиологи	-11.6939
пряжен	-11.6939
▁предупреди	-11.6939
Second	-11.6939
▁Аполлон	-11.6939
▁Бенджамин	-11.6939
▁Бронкс	-11.6939
▁Здорово	-11.6939
▁Сьерра	-11.6939
▁Шекспир	-11.6939
▁безграничн	-11.6939
▁восприня	-11.6939
▁импровизаци	-11.6939
▁компакт	-11.6939
▁конфигураци	-11.6939
▁официальны	-11.6939
▁охлаждени	-11.6939
▁попробую	-11.6939
▁преоблада	-11.6939
▁спортсмен	-11.6939
▁темнокожи	-11.6939
▁факультет	-11.6939
▁шоссе	-11.6939
▁эмбрион	-11.6939
▁детеныш	-11.6939
▁догадыва	-11.6939
▁легенд	-11.6939
▁находк	-11.6939
▁прикосновени	-11.6939
▁притяжени	-11.6939
▁пшениц	-11.6939
▁экстремальны	-11.6939
▁отследи	-11.6939
▁комитет	-11.6939
▁проявление	-11.6939
▁обруши	-11.6939
▁преград	-11.6939
▁поднимите	-11.6939
▁XXI	-11.6939
▁Кин	-11.694
▁труп	-11.694
▁ПМС	-11.694
▁Плох	-11.694
▁поражён	-11.694
▁пострадал	-11.694
▁платье	-11.694
▁совершать	-11.6941
▁волновать	-11.6942
▁кукл	-11.6942
▁исключа	-11.6943
▁вдохновить	-11.6943
чайш	-11.6943
▁схож	-11.6944
▁Сотн	-11.6944
▁оптимизаци	-11.6945
▁участвует	-11.6945
▁Лично	-11.6945
держим	-11.6945
▁увлекательно	-11.6945
▁транспортны	-11.6946
вёрт	-11.6947
▁Уверен	-11.6947
▁купол	-11.6948
▁тонк	-11.6949
▁поспори	-11.6949
▁5000	-11.6951
▁нефтяно	-11.6954
порить	-11.6955
▁раковин	-11.6957
▁проектами	-11.6958
▁Рам	-11.696
▁Номер	-11.696
▁просмотра	-11.696
▁розовы	-11.6961
▁Учитыва	-11.6961
▁соглашение	-11.6961
▁Фр	-11.6963
▁свалк	-11.6963
▁функциональн	-11.6964
▁смири	-11.6967
▁линейн	-11.6968
▁неделя	-11.6969
▁Роз	-11.697
▁тёт	-11.697
▁слепо	-11.697
▁приняты	-11.6974
▁берем	-11.6975
▁осознанно	-11.6978
▁препаратов	-11.6979
▁приход	-11.6981
▁стыдно	-11.6981
▁Воз	-11.6983
▁пользователям	-11.6983
▁подбира	-11.6985
▁канализаци	-11.6985
▁стере	-11.6987
▁сгиб	-11.6989
▁позвол	-11.6991
▁кричал	-11.6995
▁устроить	-11.6996
чистить	-11.6999
жаль	-11.7001
▁различие	-11.7001
▁подразумеваю	-11.7001
▁дизайнера	-11.7007
▁ядро	-11.7008
▁рассматривает	-11.7008
▁свободным	-11.7008
Мер	-11.7009
▁суб	-11.7012
▁гре	-11.7014
▁встречает	-11.7015
▁инсулин	-11.7015
▁Белы	-11.7016
▁следил	-11.7019
хождения	-11.702
▁нервны	-11.7022
▁овц	-11.7024
▁колебания	-11.7024
дающий	-11.7024
стало	-11.7027
▁взят	-11.7028
только	-11.7028
▁Международно	-11.7028
технологи	-11.703
▁татуировк	-11.7031
▁производственн	-11.7032
▁осуществи	-11.7033
проект	-11.7036
▁дур	-11.7037
▁несут	-11.7038
▁благодар	-11.7041
▁серьёзным	-11.7044
жные	-11.7045
▁одет	-11.7045
▁вертикальн	-11.7046
спор	-11.7049
▁Израил	-11.705
▁красивой	-11.7051
▁прослушивани	-11.7053
▁идиот	-11.7056
▁маск	-11.7057
▁бумагу	-11.706
▁общественным	-11.7064
▁пыли	-11.7066
▁срока	-11.7068
▁проявить	-11.707
▁пише	-11.7075
ect	-11.7077
▁млекопитающи	-11.7077
▁способностям	-11.7077
▁затрагива	-11.7077
▁двигать	-11.708
▁показыва	-11.708
▁транспортно	-11.7082
▁смертельно	-11.7082
▁читаю	-11.7086
▁обратном	-11.7086
▁Мес	-11.709
нку	-11.7092
▁подража	-11.7092
▁управлении	-11.7092
▁физике	-11.7094
▁путешеству	-11.71
▁магнитны	-11.71
▁вымирани	-11.7104
▁Ран	-11.7105
▁невидим	-11.7111
▁развод	-11.7114
▁кач	-11.7116
▁астрономи	-11.7123
стен	-11.7129
▁бедн	-11.7138
▁перейдё	-11.714
▁замедлить	-11.7141
▁детально	-11.7142
▁соединени	-11.7147
▁жертвам	-11.7149
▁расширяет	-11.7151
▁гравитации	-11.7153
▁клик	-11.7153
▁реку	-11.7158
▁получ	-11.7163
▁вообрази	-11.7163
▁протестирова	-11.7163
▁монитор	-11.7166
▁стандартно	-11.7169
▁волшебство	-11.7169
▁объед	-11.7171
▁CRISPR	-11.7171
▁Внезапн	-11.7171
▁Глобальн	-11.7171
▁Здравствуй	-11.7171
▁Медицин	-11.7171
▁Палестин	-11.7171
▁Поразительно	-11.7171
▁Ребят	-11.7171
▁Свобод	-11.7171
▁Талибан	-11.7171
▁Фейсбук	-11.7171
▁динамическ	-11.7171
▁запясть	-11.7171
▁инфляци	-11.7171
▁карандаш	-11.7171
▁метаболизм	-11.7171
▁отталкива	-11.7171
▁преувеличен	-11.7171
▁стрекоз	-11.7171
▁штамм	-11.7171
▁штраф	-11.7171
▁экспонат	-11.7171
▁воплоща	-11.7171
▁вслух	-11.7171
▁заблокирова	-11.7171
▁переворачива	-11.7171
▁корпус	-11.7171
▁подразделени	-11.7171
▁верёвк	-11.7171
▁лотере	-11.7171
▁Брэд	-11.7172
▁тяжест	-11.7172
▁земледели	-11.7172
▁спрятан	-11.7172
▁кольцо	-11.7172
▁равна	-11.7172
▁полагает	-11.7172
▁осужда	-11.7172
▁хранил	-11.7172
▁подготовил	-11.7172
▁беспрецедентн	-11.7172
анда	-11.7172
▁искажен	-11.7172
▁драйв	-11.7173
▁слияни	-11.7173
▁узки	-11.7173
▁кролик	-11.7173
▁весёл	-11.7174
▁происходящего	-11.7174
▁кормить	-11.7174
▁удалить	-11.7175
▁мобильник	-11.7175
▁ненужн	-11.7176
▁приглашение	-11.7176
TI	-11.7177
▁кассет	-11.7178
▁виден	-11.7179
▁распада	-11.7181
▁узко	-11.7182
ированн	-11.7185
▁Долин	-11.7185
▁Абсолютно	-11.7186
▁энергетическо	-11.7187
▁отмен	-11.7187
▁подписал	-11.7189
▁улови	-11.7191
▁пригодн	-11.7195
▁племена	-11.7203
▁планировал	-11.7205
▁экологичны	-11.7206
▁возможностя	-11.7207
▁заявления	-11.7208
▁1970-	-11.7208
▁отклонени	-11.7209
▁планирования	-11.7212
▁Lab	-11.7214
▁выступающи	-11.7214
▁порождает	-11.7214
▁дельфинов	-11.7215
▁сетям	-11.7215
▁Никол	-11.7216
▁виртуальн	-11.7217
▁некоммерческ	-11.7221
▁больным	-11.7225
▁родов	-11.7226
▁пространств	-11.7227
▁скрыто	-11.7227
▁посвятил	-11.7228
▁средн	-11.7231
▁путешествую	-11.7232
▁демонстрируют	-11.7236
▁звёзды	-11.7238
▁архитектуру	-11.7238
▁копию	-11.7239
▁видеоигры	-11.7241
▁кораллы	-11.7241
▁СП	-11.7242
▁слона	-11.7243
▁записыва	-11.7246
▁гражданск	-11.7251
▁Хилл	-11.7253
▁красивым	-11.7253
▁соседям	-11.7253
▁беспроводны	-11.7262
▁дельфины	-11.7264
▁распространённы	-11.7266
▁мягки	-11.7269
Ч	-11.727
▁жертвой	-11.7271
▁огранич	-11.7271
▁Северном	-11.7275
защит	-11.728
правду	-11.7281
▁поверхност	-11.7285
▁бедстви	-11.7288
▁делим	-11.7288
▁учени	-11.7288
▁зла	-11.7289
эль	-11.729
▁Движение	-11.729
In	-11.7292
▁казни	-11.7293
▁завершени	-11.7298
▁Прост	-11.73
▁упорно	-11.7303
▁возьму	-11.7305
▁напечата	-11.7309
▁оказывать	-11.7312
▁способствова	-11.7313
▁18-	-11.7313
▁обсуждени	-11.7313
▁идеальн	-11.7314
▁новейш	-11.7315
▁свеч	-11.7316
▁реклама	-11.7316
▁талантливы	-11.7316
люд	-11.7318
▁Пакистане	-11.7319
▁ведущих	-11.7322
▁доброт	-11.7323
▁навоз	-11.7323
▁осп	-11.7324
▁демон	-11.7326
▁резюм	-11.7327
▁километр	-11.733
▁барьер	-11.7335
▁хватал	-11.7342
▁лодки	-11.7343
▁Мало	-11.7344
▁страстно	-11.7349
щите	-11.735
▁новатор	-11.7356
▁44	-11.7356
▁Пара	-11.7356
▁Пр	-11.7357
Леон	-11.7358
▁ежедневны	-11.7361
▁площадки	-11.7365
▁служа	-11.7368
▁пожела	-11.7369
▁королевск	-11.7372
▁счастлива	-11.738
▁телевидении	-11.7384
▁убийство	-11.7384
▁зелено	-11.7388
становиться	-11.7389
▁организованно	-11.7389
▁окон	-11.7391
▁осознавал	-11.7395
▁скрывать	-11.7398
▁превыша	-11.7401
▁тайно	-11.7402
ld	-11.7402
▁приводил	-11.7405
▁возвращать	-11.7406
▁духа	-11.7409
▁британско	-11.7409
▁справедлив	-11.7409
▁рабоч	-11.7409
промышленн	-11.7409
▁Мальчик	-11.741
▁Совершенн	-11.741
▁блокчейн	-11.741
▁вакуум	-11.741
▁диспле	-11.741
▁заплатил	-11.741
▁инсульт	-11.741
▁лауреат	-11.741
▁марсоход	-11.741
▁общепринят	-11.741
▁педагог	-11.741
▁пестицид	-11.741
▁урбанизаци	-11.741
▁швейцар	-11.741
▁шедевр	-11.741
▁экземпляр	-11.741
сплеск	-11.741
▁покупают	-11.741
▁помнят	-11.741
▁немыслим	-11.741
▁сустав	-11.741
▁каркас	-11.741
▁Дисне	-11.741
,8	-11.741
▁ограничивает	-11.741
▁Задач	-11.741
▁коляск	-11.741
▁посадил	-11.741
▁взбира	-11.7411
▁Половин	-11.7411
▁покров	-11.7411
▁пище	-11.7411
▁полимер	-11.7413
▁поглощен	-11.7413
▁жалоб	-11.7413
▁вернем	-11.7413
▁3,5	-11.7413
▁детка	-11.7413
▁учёного	-11.7414
▁памятник	-11.7414
▁машинно	-11.7415
▁планируем	-11.7416
▁останк	-11.7416
▁размещен	-11.7416
▁потребительск	-11.7418
даваемы	-11.7419
компан	-11.742
▁школьник	-11.7423
▁обсуждаем	-11.7426
▁покупает	-11.7429
▁радиус	-11.743
ell	-11.7431
▁людск	-11.7431
▁четверти	-11.7435
▁примет	-11.7436
ческим	-11.7436
▁УФ	-11.7437
▁мешк	-11.7438
▁продвинуты	-11.7441
ствовать	-11.7442
▁спит	-11.7442
▁росли	-11.7443
▁триллиона	-11.7445
уляци	-11.7448
▁обладать	-11.745
▁уникальна	-11.7453
▁грязны	-11.7454
▁b	-11.7456
▁коробка	-11.7457
▁предста	-11.7458
▁Модел	-11.7461
▁соседству	-11.7461
▁SE	-11.7461
▁изделия	-11.7462
▁собрани	-11.7463
▁двигателе	-11.7463
▁описывал	-11.7464
▁управляющи	-11.7464
▁визуализаци	-11.7465
▁заплыв	-11.7466
▁обеспечен	-11.7467
вернуть	-11.7468
растают	-11.747
▁Фри	-11.7471
▁стреля	-11.7475
▁вымирания	-11.748
▁контролируют	-11.7481
▁обращают	-11.7481
▁продвижения	-11.7481
▁выгодно	-11.7482
▁песка	-11.7482
нападени	-11.7482
▁переключател	-11.7484
▁худше	-11.7485
▁рассчита	-11.7486
▁зелёным	-11.7491
▁неопределённост	-11.7493
▁сломал	-11.7495
▁подражани	-11.7496
алл	-11.7497
▁печаль	-11.7498
▁16-	-11.7499
▁De	-11.7499
▁кресл	-11.7505
▁логика	-11.7506
▁смертельны	-11.7506
▁затрагивает	-11.7507
▁сбережени	-11.7507
▁позор	-11.7509
▁грех	-11.751
▁дополнение	-11.751
▁ресурсами	-11.7511
▁сердц	-11.7511
▁угрожа	-11.7512
▁качественно	-11.7513
▁ужасным	-11.7513
fi	-11.7514
▁вылечить	-11.7515
▁98	-11.7515
▁звуковы	-11.7516
▁страховк	-11.7517
хватывают	-11.7518
▁РНК	-11.7519
▁комфортно	-11.7523
вязать	-11.7524
▁72	-11.7526
▁лёгкость	-11.7531
▁предположил	-11.7531
▁трёхмерн	-11.7531
▁разбил	-11.7535
▁гигантско	-11.7535
▁набора	-11.7535
▁Реш	-11.7539
▁остановит	-11.754
▁западн	-11.7545
▁вдохн	-11.7547
▁наблюдала	-11.7553
▁собаку	-11.7555
ble	-11.7556
▁офиса	-11.7558
▁Мел	-11.7565
▁договори	-11.7565
▁конкретн	-11.7569
▁прежне	-11.757
▁осторожно	-11.757
звуч	-11.7571
▁заставлял	-11.7574
▁Li	-11.7575
почту	-11.7576
▁Дон	-11.7576
▁фар	-11.7576
▁Пост	-11.7578
▁парочк	-11.7578
нты	-11.7581
hi	-11.7583
▁обезьяна	-11.7583
▁ставил	-11.7583
▁берёте	-11.7585
▁старение	-11.7587
▁подсчита	-11.7587
▁посылает	-11.7588
▁сборк	-11.7589
▁посмотри	-11.7593
▁дизайнерски	-11.7595
чём	-11.7596
бивает	-11.76
онколог	-11.7601
12	-11.7602
▁сентябр	-11.7603
▁1960	-11.7604
▁1980	-11.7604
▁ненавидел	-11.761
▁подвал	-11.761
▁народов	-11.7611
▁остатк	-11.7612
▁диалога	-11.7613
▁художественны	-11.7614
гнуть	-11.7615
▁четвёрты	-11.7615
▁Мексике	-11.7616
▁нижни	-11.7617
читаю	-11.7619
▁авторско	-11.7621
▁золота	-11.7622
▁уничтожение	-11.7623
▁несправедлив	-11.7625
▁писала	-11.7627
▁возникну	-11.7628
▁открывают	-11.7629
▁уничтожил	-11.763
жир	-11.7634
▁заняли	-11.7637
дёшь	-11.764
go	-11.764
▁алкогол	-11.7641
▁рисков	-11.7642
▁кабел	-11.7642
▁карточк	-11.7644
▁грустн	-11.7645
▁толку	-11.7646
▁чемпион	-11.7646
▁крупнейше	-11.7647
▁вступа	-11.7647
▁атаку	-11.7648
▁мышлени	-11.7651
j	-11.7653
▁федерально	-11.7653
▁Гонконг	-11.7653
▁Зимбабв	-11.7653
▁Йемен	-11.7653
▁Стюарт	-11.7653
▁Электро	-11.7653
▁координаци	-11.7653
▁космонавт	-11.7653
▁леопард	-11.7653
▁мельчайши	-11.7653
▁модификаци	-11.7653
▁освобожда	-11.7653
▁престарелы	-11.7653
▁робототехник	-11.7653
▁священны	-11.7653
▁специализиру	-11.7653
▁удовлетворя	-11.7653
▁ультразвук	-11.7653
▁Олимпиад	-11.7653
▁возрождени	-11.7653
▁уважать	-11.7653
▁Фотограф	-11.7653
▁далёки	-11.7654
▁Лютер	-11.7654
▁наушник	-11.7654
▁секвой	-11.7654
▁витамин	-11.7654
▁гитар	-11.7654
▁столкнё	-11.7654
▁XX	-11.7654
▁обозначи	-11.7654
▁Тунис	-11.7654
▁Американско	-11.7654
▁Верховн	-11.7654
▁проекци	-11.7654
▁штуковин	-11.7654
▁прирост	-11.7654
▁Христ	-11.7654
▁исчезнет	-11.7654
▁русски	-11.7654
▁зарождени	-11.7654
▁опережа	-11.7654
▁рассвет	-11.7654
▁предельно	-11.7655
▁Вчера	-11.7655
▁мамой	-11.7655
▁горизонтально	-11.7655
▁дорожны	-11.7655
▁дорожно	-11.7655
▁Лонг	-11.7655
▁ослеп	-11.7655
▁чьё	-11.7656
▁погибши	-11.7656
▁спасать	-11.7657
▁свидетельства	-11.7658
▁аэро	-11.7659
▁товарищ	-11.7659
▁видна	-11.7659
▁астм	-11.7661
▁наброск	-11.7662
▁петл	-11.7662
▁заража	-11.7662
▁захватывает	-11.7667
▁июне	-11.7669
▁настроение	-11.767
▁переживани	-11.767
▁словарь	-11.7673
▁ступен	-11.7673
▁задаю	-11.7674
▁рта	-11.7674
ушка	-11.7676
▁Сила	-11.7676
▁бумага	-11.7677
▁принадлежал	-11.7681
▁полагают	-11.7684
▁перевоз	-11.7686
▁берег	-11.7687
▁Гл	-11.7687
▁расположенны	-11.7689
▁косну	-11.7691
▁эра	-11.7691
▁пункта	-11.7692
сылают	-11.7693
▁Пример	-11.7702
ходила	-11.7703
▁ремн	-11.7708
был	-11.7708
▁присутствовал	-11.771
▁Порт	-11.771
▁вкратце	-11.7713
▁лодка	-11.7713
сот	-11.7713
▁высота	-11.7714
перёд	-11.7716
▁физическим	-11.7716
▁Здани	-11.7717
▁Швейцарии	-11.7717
▁покрыты	-11.7717
▁старался	-11.7719
▁привез	-11.7721
▁выполнен	-11.7721
▁механизма	-11.7722
тягивает	-11.7727
▁задаём	-11.7728
фар	-11.773
▁Рак	-11.7732
▁градуса	-11.7735
▁выдающим	-11.7735
▁начав	-11.7737
▁почувствовала	-11.7739
▁сфотографировал	-11.774
▁мёртв	-11.7741
▁достигнет	-11.7744
▁столов	-11.7745
▁сконцентрирова	-11.7746
▁сдержива	-11.7746
▁пообещал	-11.7747
▁улицам	-11.7748
▁аль	-11.7748
▁применил	-11.7748
▁подняла	-11.7749
▁зашл	-11.7749
▁членами	-11.7751
▁Mi	-11.7752
▁свечени	-11.7753
▁поступал	-11.7755
▁восприяти	-11.7759
▁позвон	-11.776
▁Справ	-11.776
▁Машин	-11.7761
звезд	-11.7763
▁хрупк	-11.7767
▁прыж	-11.7767
тиф	-11.7767
▁дискриминации	-11.7776
▁испытание	-11.7776
▁согласован	-11.7781
▁спортивны	-11.7783
▁сравнивать	-11.7784
▁облада	-11.7785
▁коралл	-11.7785
сво	-11.7786
▁оценивает	-11.7787
▁переместить	-11.7788
▁ковр	-11.7792
вляется	-11.7797
▁стандартам	-11.7799
▁деревянны	-11.7803
▁судя	-11.7806
▁позволял	-11.7806
▁Южном	-11.7808
▁представл	-11.7808
▁предубеждени	-11.7811
▁составляющих	-11.7814
▁180	-11.7814
▁160	-11.7815
▁уверенност	-11.7818
▁плоскост	-11.7821
▁просну	-11.7822
▁внешним	-11.7827
▁исключительны	-11.7828
▁вызывал	-11.7828
▁Массачусетск	-11.783
▁научным	-11.783
▁любовн	-11.7834
▁видеоигр	-11.7835
▁потребовал	-11.784
▁фразы	-11.7847
▁взаимо	-11.785
▁Лар	-11.7853
▁Уол	-11.7853
▁незаконно	-11.7854
▁застрял	-11.7855
▁выпустить	-11.7856
ходящих	-11.7857
▁Лед	-11.7861
▁откроет	-11.7861
▁мусульмански	-11.7861
шестви	-11.7862
гружен	-11.7862
▁беспроводно	-11.7863
▁маг	-11.7863
▁действиям	-11.7863
▁одежда	-11.7864
▁биологическ	-11.7865
▁трёхмерно	-11.7866
▁чита	-11.7867
▁беременны	-11.7869
▁отвечающи	-11.787
даем	-11.7874
рка	-11.7875
▁убивали	-11.7877
▁основывая	-11.7879
▁глупост	-11.7879
▁знакомых	-11.7879
▁крошечно	-11.7881
▁геометри	-11.7881
▁Pro	-11.7881
▁платформа	-11.7884
▁гнездо	-11.7884
▁уголовно	-11.7885
монт	-11.7887
▁собрание	-11.7888
▁невинн	-11.7889
▁академи	-11.7891
▁излучение	-11.7892
▁Фил	-11.7893
▁слышат	-11.7895
▁мужски	-11.7895
▁Гэ	-11.7897
запад	-11.7897
▁клиентам	-11.7897
▁принят	-11.7899
▁Дизайн	-11.7899
шку	-11.7902
▁беспорядо	-11.7903
▁брош	-11.7903
▁индивид	-11.7903
é	-11.7903
▁1995	-11.7903
▁DVD	-11.7903
▁Иерусалим	-11.7903
▁Копенгаген	-11.7903
▁коннектом	-11.7903
▁обусловлен	-11.7903
▁подталкива	-11.7903
▁произошедше	-11.7903
▁усердно	-11.7903
▁чётки	-11.7903
▁шахмат	-11.7903
▁экспоненциально	-11.7903
▁Sky	-11.7903
▁iPod	-11.7903
▁Мухаммед	-11.7903
▁Чувств	-11.7903
▁альтруизм	-11.7903
▁губернатор	-11.7903
▁заседани	-11.7903
▁осужден	-11.7903
▁сказанно	-11.7903
▁снабжа	-11.7903
▁чемодан	-11.7903
▁анонимно	-11.7903
▁дорогостоящ	-11.7903
▁Беркли	-11.7904
▁бригад	-11.7904
▁застройк	-11.7904
▁принципиально	-11.7904
▁суббот	-11.7904
▁планшет	-11.7904
▁Монтере	-11.7904
▁локальны	-11.7904
▁монах	-11.7904
▁куратор	-11.7904
▁аудио	-11.7904
▁Замечательн	-11.7904
▁Абед	-11.7904
▁поцелу	-11.7904
▁Сьюз	-11.7904
▁пожаловать	-11.7904
▁покупал	-11.7904
▁полутора	-11.7904
▁баррел	-11.7904
▁молочно	-11.7904
▁шрам	-11.7905
▁обыча	-11.7905
▁Бутан	-11.7905
▁Цельси	-11.7905
▁дальнейши	-11.7905
▁седьмо	-11.7905
▁гладко	-11.7905
▁приблизить	-11.7905
▁минерал	-11.7905
▁пройдёт	-11.7905
▁динамичн	-11.7906
▁широт	-11.7906
▁пиво	-11.7906
▁Решение	-11.7907
▁законодательн	-11.7907
▁ограниченным	-11.7908
▁11-	-11.7908
▁the	-11.7908
▁ГГ	-11.7909
▁кратер	-11.7909
▁революционны	-11.791
▁медленны	-11.7911
▁вспышка	-11.7912
▁убрал	-11.7914
▁ночам	-11.7914
▁повтор	-11.7914
▁волновал	-11.7915
▁ограниченно	-11.7917
▁девочкой	-11.7917
▁тепла	-11.7918
▁образует	-11.7919
▁8-	-11.7919
▁указал	-11.792
▁слушает	-11.792
▁разрушение	-11.7921
▁возмож	-11.7921
падать	-11.7921
▁обсуждение	-11.7921
▁вооружённы	-11.7925
▁исключи	-11.7925
оставлять	-11.7927
▁сперм	-11.7927
▁конкретном	-11.7927
▁функционально	-11.7928
▁парламента	-11.7929
▁сведения	-11.793
▁растительн	-11.793
▁падения	-11.7934
▁звучат	-11.7936
▁корпораций	-11.7938
▁обрел	-11.794
▁увидит	-11.794
▁Велик	-11.7944
▁выдающ	-11.7944
▁владельце	-11.7946
-15	-11.7946
▁математическ	-11.7948
▁очевид	-11.7952
▁жизнеспособн	-11.7955
▁поступк	-11.7956
▁участков	-11.7957
▁антибиотикам	-11.796
▁обширны	-11.796
кричать	-11.7961
▁совершенны	-11.7963
▁побег	-11.7963
▁пищевы	-11.7965
▁Основ	-11.7967
▁концентрация	-11.7969
▁читают	-11.7973
ag	-11.7975
▁классов	-11.7976
▁музыкантов	-11.7977
▁основател	-11.7978
▁ожирени	-11.7979
▁руководи	-11.7979
.5	-11.798
▁проплы	-11.7981
▁нарушение	-11.7984
▁центральны	-11.7984
▁сыну	-11.7984
▁десятка	-11.7984
▁проведённы	-11.7984
скольз	-11.7987
щения	-11.7987
▁объединять	-11.7989
▁достаточн	-11.7994
▁Пен	-11.7994
▁постараюсь	-11.7995
▁малярия	-11.7995
▁спутники	-11.7996
▁возросл	-11.7997
▁обсуждают	-11.7999
▁поворачива	-11.7999
▁достойн	-11.8001
▁Белл	-11.8001
▁подушк	-11.8001
прыгну	-11.8002
▁Кро	-11.8002
▁приближает	-11.8003
▁просмотре	-11.8006
▁осуществля	-11.8007
ci	-11.8007
▁мероприятия	-11.8009
▁отеле	-11.8012
▁умения	-11.8013
▁диаграмма	-11.8013
гадать	-11.8013
▁поощря	-11.8014
▁нарушени	-11.8014
равня	-11.8015
бур	-11.8017
▁устойчив	-11.8018
▁подводит	-11.8019
чтения	-11.802
▁Красн	-11.802
▁спад	-11.8021
машин	-11.8022
▁расово	-11.8032
▁распространённо	-11.8033
▁постиг	-11.8036
▁средним	-11.8038
▁задне	-11.804
▁перерабатыва	-11.8044
▁грамм	-11.8046
ология	-11.8048
▁38	-11.805
▁создаются	-11.8054
▁обстоятельств	-11.8055
▁ощущал	-11.8055
▁пещера	-11.8056
▁опубликова	-11.8057
▁включать	-11.806
▁особенным	-11.8061
▁убийства	-11.8062
▁задаёт	-11.8063
▁взаимоотношени	-11.8067
▁лав	-11.8067
▁Цен	-11.8071
▁всеобщ	-11.8072
▁96	-11.8077
▁Прав	-11.8078
▁планирова	-11.808
▁настаива	-11.8081
ования	-11.8083
▁подтверждает	-11.8083
▁еже	-11.8084
▁семьями	-11.8084
▁домик	-11.8088
▁забав	-11.8089
▁ирони	-11.809
▁построенны	-11.8092
▁химическо	-11.8094
▁вынес	-11.8097
▁безопасне	-11.8101
▁Колумби	-11.8107
правилась	-11.8109
▁присутствую	-11.8111
▁сантиметр	-11.8112
казывать	-11.8113
▁ключевым	-11.8114
простите	-11.8114
нимаем	-11.8116
▁первоначальн	-11.8117
▁Тво	-11.8117
▁выстраива	-11.8119
▁применяет	-11.812
▁обеща	-11.812
▁оценивать	-11.8121
▁гуля	-11.8123
▁обладал	-11.8123
▁молок	-11.8129
▁позволяющ	-11.8132
▁скор	-11.8132
▁феминист	-11.8135
онным	-11.814
сосудист	-11.8141
▁подлинно	-11.8143
▁террор	-11.8143
▁постоянн	-11.8143
долю	-11.8148
▁показателям	-11.8149
▁34	-11.8149
▁поясн	-11.8151
▁механизмов	-11.8153
▁смешанн	-11.8154
▁согласил	-11.8155
этажн	-11.8158
лишком	-11.8158
,6	-11.8159
▁состоящи	-11.8159
▁пропорци	-11.816
загрузить	-11.816
▁Компания	-11.816
▁Моцарт	-11.816
▁Эверест	-11.816
▁аккаунт	-11.816
▁восхитительно	-11.816
▁вредоносн	-11.816
▁египтян	-11.816
▁жизня	-11.816
▁заброшенн	-11.816
▁защищённ	-11.816
▁иммиграци	-11.816
▁кладбищ	-11.816
▁мировоззрени	-11.816
▁неокортекс	-11.816
▁развлечений	-11.816
▁расшифровк	-11.816
▁сэндвич	-11.816
▁транспортировк	-11.816
▁филантроп	-11.816
▁электромагнит	-11.816
▁Происходи	-11.816
▁помешан	-11.816
▁обувь	-11.816
▁добровольно	-11.816
▁матриц	-11.816
▁смотришь	-11.816
▁сомнительн	-11.816
▁маммографи	-11.816
▁Подобно	-11.816
▁побежда	-11.816
▁устарел	-11.816
▁гамма	-11.816
▁Наибол	-11.816
▁жильё	-11.816
▁Числ	-11.816
▁водопад	-11.816
▁выявил	-11.816
▁фермент	-11.8161
▁овладе	-11.8161
▁Аляск	-11.8161
таскива	-11.8161
▁Язык	-11.8161
▁матч	-11.8162
▁отвращение	-11.8162
▁объединения	-11.8162
▁диван	-11.8162
▁пауз	-11.8163
▁прогрессивн	-11.8165
▁утечк	-11.8165
▁помех	-11.8168
▁потере	-11.8168
▁производил	-11.8169
▁башни	-11.8169
▁угрожает	-11.8169
▁разделяют	-11.8169
▁Лор	-11.817
▁медведей	-11.8173
▁дожде	-11.8173
▁тряс	-11.8173
▁библиотека	-11.8173
▁наполня	-11.8174
▁объяснени	-11.8175
▁умным	-11.8175
▁получалось	-11.8176
▁суше	-11.8177
▁резки	-11.8177
▁диагност	-11.818
▁возникающи	-11.8182
▁хлопа	-11.8183
▁разгар	-11.8184
▁землетрясения	-11.8184
▁двадцать	-11.8184
▁государством	-11.8186
▁международным	-11.8186
▁постер	-11.8188
▁Смысл	-11.8189
бьют	-11.819
▁уменьшение	-11.8191
▁отдалённы	-11.8193
▁Ma	-11.8194
ie	-11.8194
▁произведен	-11.8195
▁полог	-11.8199
▁встречаться	-11.8201
▁инструкции	-11.8204
▁склонность	-11.8204
▁запута	-11.8204
▁поглоща	-11.8206
▁обойти	-11.8207
чур	-11.8208
▁исполнитель	-11.821
▁падение	-11.821
▁колоссально	-11.821
▁разговариваю	-11.8211
▁дайте	-11.8214
▁Национальн	-11.8214
льски	-11.8215
▁обращаем	-11.8216
▁толст	-11.8218
Паул	-11.8219
▁субъективн	-11.8219
▁заявля	-11.8219
▁самолёты	-11.822
▁готовит	-11.822
▁условие	-11.8221
▁богато	-11.8221
▁замечательным	-11.8222
▁замедлен	-11.8225
▁завершение	-11.8226
▁колод	-11.8229
▁законом	-11.8231
какие	-11.8235
▁читала	-11.8235
▁Великобритани	-11.8237
▁Пят	-11.8241
▁неэффективны	-11.8241
▁исследователь	-11.8242
▁натуральн	-11.8242
▁эффективна	-11.8244
ma	-11.8246
▁Греции	-11.8246
▁Возьм	-11.8247
▁отличия	-11.8248
▁соединяют	-11.8249
▁14-	-11.8249
▁17-	-11.825
▁таково	-11.8251
▁крыша	-11.8252
▁иллюзия	-11.8255
▁неизбежны	-11.8256
▁развили	-11.8261
▁открывал	-11.8262
▁способствую	-11.8263
son	-11.8264
▁рождени	-11.8265
▁критическо	-11.8265
геев	-11.8267
▁принадлежащ	-11.8268
живани	-11.827
▁Линд	-11.827
бирая	-11.8271
▁родитель	-11.8275
▁набирает	-11.8275
▁зонд	-11.8279
▁продан	-11.8279
▁медвед	-11.8279
▁производя	-11.828
RI	-11.8285
▁положен	-11.8285
▁болезненны	-11.8291
ist	-11.8296
▁слежки	-11.8297
▁искусственн	-11.8297
▁любимым	-11.8298
▁впечатля	-11.8301
▁прыжк	-11.8302
▁зубов	-11.8307
▁традиционным	-11.8309
ритм	-11.8311
▁глухи	-11.8312
▁новаторск	-11.8315
▁140	-11.8315
▁Корее	-11.8316
летнем	-11.832
▁приносил	-11.8321
▁творени	-11.8323
▁дискуссия	-11.8323
▁заменил	-11.8326
▁почва	-11.8326
▁цифровым	-11.8329
▁перемена	-11.833
▁Сил	-11.833
▁поглощает	-11.8331
▁Города	-11.8332
▁СС	-11.8333
▁вложения	-11.8336
▁Международны	-11.8337
▁выпал	-11.8337
▁расизм	-11.8339
▁рису	-11.8342
▁перемещени	-11.8342
▁бросают	-11.8346
▁останавливает	-11.8347
▁растениям	-11.8352
▁держат	-11.8358
▁Эми	-11.8359
▁визуализации	-11.8362
▁Al	-11.8365
▁установка	-11.8371
▁применяют	-11.8373
▁порци	-11.8373
▁направлены	-11.8374
▁нагре	-11.838
▁распространены	-11.8382
▁заботят	-11.8383
▁Корн	-11.8383
▁сточны	-11.8384
▁плоски	-11.8385
▁вращает	-11.8389
▁равновеси	-11.839
▁пожарны	-11.8394
▁инженерны	-11.8394
▁жертва	-11.8397
▁черед	-11.8399
▁невидимым	-11.84
ловно	-11.8402
▁принадлежност	-11.8403
▁скучны	-11.8403
▁обнаруживает	-11.8404
▁благосостояние	-11.8407
▁заповед	-11.8409
циальн	-11.841
▁стад	-11.8411
▁поднят	-11.8413
▁помещает	-11.8416
▁фабрика	-11.8417
▁необычным	-11.8419
▁деревьям	-11.8421
▁Франк	-11.8423
▁промежуточн	-11.8423
▁фальшив	-11.8423
▁1994	-11.8423
▁1997	-11.8423
▁Граждан	-11.8423
▁Естественно	-11.8423
▁Множеств	-11.8423
▁Пенсильвани	-11.8423
▁ерунд	-11.8423
▁индикатор	-11.8423
▁инфракрасн	-11.8423
▁манускрипт	-11.8423
▁неподалёку	-11.8423
▁неприемлем	-11.8423
▁основополагающ	-11.8423
▁репортаж	-11.8423
▁священно	-11.8423
▁улавлива	-11.8423
▁швед	-11.8423
▁невежеств	-11.8423
▁предотвраща	-11.8423
▁сформулирова	-11.8423
▁Мумба	-11.8423
▁ангел	-11.8423
▁плакал	-11.8423
▁мудры	-11.8423
▁выражает	-11.8423
▁отправляем	-11.8423
▁торжеств	-11.8423
▁запреща	-11.8423
▁космолог	-11.8423
▁экспресс	-11.8423
▁гениально	-11.8423
▁обуви	-11.8423
▁сканиру	-11.8423
▁штаб	-11.8423
▁ныря	-11.8423
▁соперник	-11.8423
▁удалённы	-11.8423
▁эгоистичн	-11.8424
▁умственно	-11.8424
▁беднейши	-11.8424
▁отверга	-11.8424
▁колонк	-11.8424
▁токсин	-11.8424
▁проехал	-11.8424
▁выразил	-11.8424
▁влажно	-11.8424
▁грант	-11.8424
▁1,2	-11.8425
▁Политик	-11.8425
▁Джошу	-11.8425
тиль	-11.8425
▁осень	-11.8426
▁НП	-11.8426
▁охоти	-11.8426
▁видеокамер	-11.8426
▁Мексиканск	-11.8426
▁переводчик	-11.8427
▁обязанности	-11.8427
▁Океан	-11.8428
йроби	-11.8428
▁деревень	-11.8428
регулировать	-11.843
▁переворот	-11.843
▁бактериям	-11.8431
▁совершает	-11.8432
▁учебно	-11.8432
▁Хью	-11.8433
▁мотивирова	-11.8434
▁Кибер	-11.8435
▁воплощение	-11.8435
▁патологи	-11.8436
▁сокращать	-11.8436
▁определен	-11.8437
▁владеет	-11.8437
▁актер	-11.8438
▁зерновы	-11.8438
▁инвестиционн	-11.8438
▁Дэ	-11.8438
all	-11.8438
▁честны	-11.8439
▁отрази	-11.844
▁сокращает	-11.8442
▁инфекционны	-11.8442
держивает	-11.8444
слушаем	-11.8446
▁случайность	-11.845
▁авторски	-11.8451
▁любимое	-11.8452
▁лишни	-11.8453
▁учил	-11.8453
ански	-11.8454
▁интересовать	-11.8455
гибают	-11.846
▁бумажн	-11.8462
▁Холл	-11.8462
▁казн	-11.8463
▁поддерживаем	-11.8466
▁боевы	-11.8467
▁армия	-11.8468
▁предприяти	-11.847
▁опозна	-11.847
▁произвел	-11.847
▁разраста	-11.847
▁обращения	-11.8471
▁загадка	-11.8471
индивидуальность	-11.8474
▁привлекательным	-11.8475
▁истощен	-11.8476
▁СПИДом	-11.8484
▁строили	-11.8484
▁светящ	-11.8486
▁торт	-11.8487
▁столкновение	-11.8488
▁случивш	-11.8491
▁оправдан	-11.8491
прош	-11.8492
▁ферма	-11.8495
▁неудивительно	-11.8496
▁составит	-11.85
▁токсичны	-11.85
▁гибко	-11.85
▁танк	-11.8501
▁влюбил	-11.8502
▁француз	-11.8503
▁соединен	-11.8506
▁избранны	-11.8506
▁страховани	-11.8508
дарить	-11.851
▁подозревал	-11.8512
▁Врачи	-11.8512
▁подарк	-11.8513
▁мощ	-11.8517
▁Любов	-11.8519
▁предоставляют	-11.8523
▁простира	-11.8527
▁найдут	-11.8527
▁преподаю	-11.8528
▁пчел	-11.8533
раг	-11.8534
▁страшн	-11.8538
▁бунт	-11.8539
▁осознают	-11.8539
▁медицинским	-11.854
▁пунктов	-11.854
▁повторю	-11.854
▁сложить	-11.8543
Ж	-11.8544
▁Сар	-11.8544
▁фирма	-11.8546
▁автомобильны	-11.855
▁Ким	-11.855
▁агентства	-11.8552
одиночк	-11.8553
W	-11.8553
▁столкновени	-11.8553
▁аналогов	-11.8554
▁впечатляюще	-11.8554
ллер	-11.8555
▁Ред	-11.8557
▁планов	-11.8558
▁вдох	-11.8561
▁подсчёта	-11.8563
▁удобрения	-11.8564
кратно	-11.8565
▁Восточн	-11.8565
школ	-11.8565
Джер	-11.8566
▁термина	-11.8567
▁преступность	-11.8568
▁лишил	-11.8569
se	-11.857
▁напиш	-11.8572
▁остану	-11.8575
▁защища	-11.8575
▁цар	-11.8578
▁97	-11.8584
▁победа	-11.8585
▁жестокост	-11.8586
▁питает	-11.8589
▁космическ	-11.859
▁объяснять	-11.8593
▁поселени	-11.86
возят	-11.8601
▁стояще	-11.8603
▁чудовищ	-11.8611
▁имплантирова	-11.8612
ставлял	-11.8613
▁проявляют	-11.8617
▁обозначает	-11.862
▁сотрудникам	-11.8621
▁рисую	-11.8623
▁заговор	-11.8624
▁луны	-11.8625
▁Бали	-11.8627
▁колоссальны	-11.8632
ймут	-11.8632
▁приказ	-11.8633
▁силам	-11.8634
▁парус	-11.8635
смел	-11.8642
▁оберну	-11.8645
▁последовател	-11.8647
▁хлоп	-11.8651
▁жира	-11.8655
▁достигне	-11.8655
▁сняты	-11.8656
▁хаоса	-11.8657
▁принося	-11.8658
▁синтеза	-11.8659
▁серьезны	-11.8661
▁картон	-11.8661
зировать	-11.8663
▁закрыто	-11.8664
▁читател	-11.8669
▁танцевал	-11.8671
▁носят	-11.8673
жав	-11.8674
▁переменам	-11.8676
▁Начн	-11.8679
▁классическо	-11.868
▁персонаже	-11.8682
▁лягушк	-11.8684
▁располагает	-11.8685
ологически	-11.8687
▁ощущать	-11.8689
▁Взглян	-11.8693
▁NAS	-11.8693
▁National	-11.8693
▁Голуб	-11.8693
▁Практически	-11.8693
▁алфавит	-11.8693
▁астронавт	-11.8693
▁бухгалтер	-11.8693
▁внимательны	-11.8693
▁двоюродн	-11.8693
▁контрабанд	-11.8693
▁недовери	-11.8693
▁отверстия	-11.8693
▁прокурор	-11.8693
▁сероводород	-11.8693
▁синапс	-11.8693
▁студенческ	-11.8693
▁терапевт	-11.8693
▁федеральны	-11.8693
▁функционирует	-11.8693
▁Исланди	-11.8693
▁детёныш	-11.8693
▁забываем	-11.8693
▁капсул	-11.8693
▁министерств	-11.8693
▁организовыва	-11.8693
▁отключа	-11.8693
▁откровенно	-11.8693
▁холер	-11.8693
▁профиль	-11.8693
▁волокон	-11.8693
▁укрепля	-11.8693
▁Норден	-11.8693
▁местонахождени	-11.8693
▁дефект	-11.8693
▁акустическ	-11.8693
▁Олимпийск	-11.8693
▁контраст	-11.8693
▁навязыва	-11.8693
▁актуальны	-11.8693
▁ракурс	-11.8693
▁соотноси	-11.8693
▁назову	-11.8693
▁увижу	-11.8694
▁композитор	-11.8694
▁сетево	-11.8694
▁контур	-11.8694
▁озера	-11.8695
▁пришельц	-11.8695
▁тихи	-11.8695
▁притворя	-11.8695
▁страданий	-11.8695
▁забудь	-11.8695
▁IP	-11.8696
▁приезжа	-11.8696
▁МакК	-11.8696
▁Пут	-11.8696
▁заверш	-11.8697
▁Брюс	-11.8697
▁3000	-11.8698
▁колесо	-11.8698
▁оттенк	-11.8698
▁расчет	-11.8698
▁дроб	-11.87
▁МВ	-11.87
▁решим	-11.87
▁планирует	-11.8702
▁Кас	-11.8703
бьёт	-11.8704
▁школьн	-11.8704
▁обновлен	-11.8705
▁МР	-11.8705
▁охотник	-11.8706
▁господств	-11.8707
глядеть	-11.8707
▁альтернативны	-11.8708
▁Слав	-11.8708
▁нефтяны	-11.8708
▁взаимодействует	-11.8708
▁небеса	-11.8713
▁останавливаться	-11.8714
▁Атлантик	-11.8716
▁комфорт	-11.8717
▁сравнил	-11.8717
▁Санта	-11.8718
близнец	-11.8718
ообразны	-11.8719
▁краб	-11.8721
следования	-11.8722
▁рабочем	-11.8723
▁задала	-11.8723
▁иммигрантов	-11.8723
▁свиней	-11.8724
▁зрелище	-11.8725
▁приближени	-11.8725
▁стабильност	-11.8726
▁равновесие	-11.8727
▁владельца	-11.8728
10	-11.8729
▁посещал	-11.873
▁братьями	-11.8733
▁довело	-11.8737
▁девушкой	-11.8738
▁подробнее	-11.8738
▁авиаци	-11.8739
▁банков	-11.8741
to	-11.8741
▁незаконн	-11.8748
▁выявлен	-11.8749
▁Центральн	-11.8749
▁требующи	-11.8753
▁строчк	-11.8754
▁преуспе	-11.8755
▁Слушай	-11.8757
▁Англи	-11.8757
минутн	-11.876
▁выраст	-11.8767
▁ловит	-11.8767
▁записали	-11.8767
▁пчелы	-11.8769
▁бедностью	-11.877
ub	-11.8774
▁свидетеля	-11.8779
▁безразлич	-11.8783
▁полицейск	-11.8784
▁ловл	-11.8785
▁предоставлен	-11.8785
▁увлечён	-11.8786
▁громадны	-11.8788
▁Росс	-11.879
▁Стен	-11.8793
▁облегчи	-11.8795
▁Сатурна	-11.88
▁логически	-11.8801
стают	-11.8804
▁жажду	-11.8804
ступления	-11.8806
▁предприятие	-11.8807
▁соглашения	-11.8809
▁обучающ	-11.8812
▁мук	-11.8814
▁преуспели	-11.8815
▁терпени	-11.8815
уровне	-11.8817
▁соревнования	-11.8817
▁выставка	-11.8819
▁приключения	-11.8819
▁подал	-11.8822
▁52	-11.8823
инженер	-11.8826
▁Келл	-11.8827
материал	-11.8829
▁отправим	-11.883
ki	-11.8832
систем	-11.8832
ace	-11.8834
▁щек	-11.8835
▁опасным	-11.8836
▁популярных	-11.8836
▁благополучие	-11.8837
▁маски	-11.8838
ens	-11.8839
▁удобрени	-11.8842
▁выступ	-11.8842
▁высказыва	-11.8844
he	-11.8845
▁землетрясение	-11.8847
60	-11.8851
Лайн	-11.8851
пользуется	-11.8851
дание	-11.8853
▁учеб	-11.8853
▁восстани	-11.8854
▁соответствова	-11.8857
красил	-11.8857
глав	-11.8857
▁ведом	-11.8859
ализации	-11.8862
▁принимающи	-11.8863
▁трущоба	-11.8863
▁Министерство	-11.8865
▁передово	-11.8867
▁поднимать	-11.8868
▁золот	-11.8869
▁воспользу	-11.887
кур	-11.8872
▁поступлени	-11.8873
▁громадн	-11.8875
▁словаре	-11.8879
▁заразить	-11.888
▁соль	-11.8882
будить	-11.8886
▁напечатан	-11.8886
▁предупрежда	-11.8889
рония	-11.8895
▁повествовани	-11.8895
▁ощуща	-11.8896
▁Основн	-11.8898
АС	-11.8906
▁кривы	-11.8907
▁передает	-11.8911
▁некоммерчески	-11.8912
▁раков	-11.8912
▁сотов	-11.8913
▁создающи	-11.8913
▁Исследовател	-11.8915
▁преимуществ	-11.8917
ледует	-11.8917
рожден	-11.8917
▁надежн	-11.8917
▁сдава	-11.8919
▁условиям	-11.8921
▁пятна	-11.8924
▁желт	-11.8925
▁патентов	-11.8925
▁эко	-11.8927
▁дочк	-11.8931
▁отправляли	-11.8931
потреблени	-11.8932
ложения	-11.8934
▁обязательства	-11.8942
▁близким	-11.8943
▁скрывает	-11.8945
▁подавля	-11.8945
▁управлени	-11.8947
▁тактик	-11.8948
▁ссыла	-11.8949
▁обитаю	-11.8949
▁46	-11.8957
▁летит	-11.8958
▁прилив	-11.8959
▁коровы	-11.896
очков	-11.8963
▁дистанци	-11.8965
▁информационн	-11.8965
▁отмеч	-11.8967
▁ответственно	-11.8968
▁сужден	-11.897
▁Потрясающ	-11.8971
орреспондент	-11.8971
продюсер	-11.8971
▁Джесси	-11.8971
▁Джефферсон	-11.8971
▁Микеланджело	-11.8971
▁Публика	-11.8971
▁альпинист	-11.8971
▁аналитик	-11.8971
▁асфальт	-11.8971
▁восхитительны	-11.8971
▁гамбургер	-11.8971
▁глюкоз	-11.8971
▁диктатор	-11.8971
▁интерьер	-11.8971
▁комплект	-11.8971
▁наслаждени	-11.8971
▁пассивны	-11.8971
▁поджелудочн	-11.8971
▁принцесс	-11.8971
▁проституци	-11.8971
[...]
