<unk>	0
<s>	0
</s>	0
<pad>	0
▁,	-2.71837
▁	-3.02975
▁.	-3.1607
е	-3.88717
▁в	-4.02503
и	-4.04218
▁и	-4.16038
й	-4.3972
▁что	-4.4886
а	-4.54699
▁на	-4.67305
х	-4.70954
▁не	-4.70968
▁с	-4.91619
ы	-4.97209
▁это	-5.00015
м	-5.04082
▁я	-5.06781
у	-5.07285
▁мы	-5.17175
ся	-5.19333
-	-5.28639
я	-5.30498
▁как	-5.4009
▁И	-5.47906
;	-5.48656
▁—	-5.50109
▁:	-5.50302
▁&	-5.50325
▁по	-5.5243
ть	-5.54564
го	-5.59339
ot	-5.63287
qu	-5.63971
▁?	-5.64767
▁из	-5.66665
▁вы	-5.67052
▁Я	-5.68203
ов	-5.71581
о	-5.71775
ю	-5.74246
▁Это	-5.81465
ом	-5.83834
«	-5.87322
т	-5.88097
▁»	-5.88173
▁к	-5.88259
▁о	-5.89736
▁для	-5.91347
▁за	-5.95616
ая	-5.99422
▁у	-6.02892
▁они	-6.03072
▁)	-6.03696
(	-6.03798
ой	-6.06007
▁то	-6.0741
то	-6.10254
▁В	-6.10492
ую	-6.10856
▁от	-6.14518
▁так	-6.14534
▁но	-6.18414
▁Но	-6.19129
▁Мы	-6.19919
▁чтобы	-6.20952
▁бы	-6.23838
ми	-6.25124
▁когда	-6.33093
▁был	-6.33264
▁он	-6.35011
▁или	-6.37441
▁же	-6.4092
▁их	-6.41817
▁было	-6.4339
▁эти	-6.44196
▁если	-6.45117
▁есть	-6.45441
▁все	-6.46707
▁очень	-6.49271
▁которые	-6.49538
▁об	-6.5045
▁нас	-6.53454
▁меня	-6.54232
▁его	-6.54249
▁может	-6.57283
▁С	-6.57672
▁А	-6.61118
▁а	-6.61428
▁до	-6.63852
▁том	-6.64828
▁мне	-6.69941
▁лет	-6.72275
▁всё	-6.7384
ем	-6.74964
▁Смех	-6.75143
ь	-6.7563
▁только	-6.75846
ли	-6.76968
ей	-6.77821
ами	-6.8344
▁-	-6.85363
▁нам	-6.86065
▁потому	-6.88157
▁людей	-6.8819
▁того	-6.88989
▁чем	-6.8909
▁больше	-6.89201
▁просто	-6.90018
▁быть	-6.90401
e	-6.91054
▁вам	-6.92147
▁она	-6.93573
в	-6.94988
▁при	-6.97471
▁этого	-6.98655
▁Они	-7.00697
▁Так	-7.01048
▁раз	-7.03492
▁который	-7.03772
▁этом	-7.04491
▁Он	-7.05498
лись	-7.05547
▁где	-7.06479
▁У	-7.06496
▁можно	-7.07999
▁На	-7.08548
▁вот	-7.08637
▁время	-7.091
▁люди	-7.10943
▁была	-7.11468
▁более	-7.12089
▁вас	-7.1224
▁ли	-7.12494
▁ещё	-7.14103
▁Вы	-7.15497
▁Если	-7.15598
▁будет	-7.1573
сь	-7.15814
ет	-7.16844
▁которо	-7.1753
▁под	-7.18041
▁них	-7.18631
▁этот	-7.19931
ого	-7.20038
▁её	-7.20782
.	-7.20944
ться	-7.21522
▁со	-7.22532
▁Вот	-7.24588
те	-7.26013
л	-7.26074
o	-7.26086
▁Аплодисменты	-7.27441
▁уже	-7.30937
▁даже	-7.3121
▁во	-7.31322
▁нужно	-7.31499
▁сделать	-7.32369
▁много	-7.33143
с	-7.33746
▁кто	-7.3477
▁Как	-7.35093
ок	-7.35607
▁жизни	-7.36244
но	-7.37381
▁можем	-7.37665
лось	-7.3771
▁здесь	-7.37796
▁этой	-7.40177
▁всего	-7.40971
▁тем	-7.41035
▁себя	-7.41405
▁нет	-7.41418
▁сейчас	-7.43949
му	-7.44606
ют	-7.44852
▁также	-7.46101
▁один	-7.4681
д	-7.47243
▁сказал	-7.48713
ах	-7.49116
▁которая	-7.50209
▁Не	-7.52315
▁самом	-7.52527
▁могут	-7.53351
▁Что	-7.53523
▁Когда	-7.54342
ла	-7.54778
▁про	-7.5507
▁должны	-7.55359
▁По	-7.57783
▁всех	-7.58467
ка	-7.58802
з	-7.58883
▁вопрос	-7.58987
ются	-7.60254
ется	-7.60366
▁деле	-7.60545
▁там	-7.61302
▁свои	-7.62969
▁думаю	-7.63177
▁мир	-7.64397
ная	-7.64607
хочу	-7.64948
▁эту	-7.65454
▁назад	-7.65532
за	-7.65892
▁мое	-7.66395
ные	-7.66883
лась	-7.68533
ной	-7.6857
▁этим	-7.68716
▁Она	-7.69014
▁...	-7.69418
ных	-7.70722
▁Итак	-7.71009
▁через	-7.71413
▁наш	-7.71644
к	-7.71724
ен	-7.71925
▁ты	-7.72438
ых	-7.72605
▁Да	-7.73706
▁человек	-7.74978
▁себе	-7.75317
▁К	-7.75956
н	-7.76227
ый	-7.7651
0	-7.76511
▁1	-7.76653
ки	-7.76993
ко	-7.77235
▁жизнь	-7.78102
пример	-7.78425
▁несколько	-7.78439
ную	-7.78496
▁само	-7.78727
▁которы	-7.79107
▁делать	-7.7974
▁ни	-7.80728
▁после	-7.81507
▁день	-7.82259
▁Спасибо	-7.82805
▁мире	-7.82918
▁котор	-7.83202
▁им	-7.83722
на	-7.84174
▁эта	-7.84442
▁году	-7.84488
▁лучше	-7.84714
сти	-7.85015
▁действительно	-7.85862
▁года	-7.8624
▁друг	-7.86624
▁времени	-7.86712
ный	-7.89792
▁между	-7.90748
▁без	-7.90783
же	-7.91383
▁над	-7.91456
▁возможно	-7.92926
▁хотел	-7.93757
▁сегодня	-7.94003
▁образом	-7.944
А	-7.94643
▁происходит	-7.95333
ам	-7.9538
▁некоторы	-7.96088
▁каждый	-7.96104
ые	-7.96228
▁свое	-7.98439
чи	-7.98564
▁сказать	-7.99211
▁тех	-8.00543
▁почему	-8.00553
ло	-8.0057
▁момент	-8.00735
▁два	-8.01332
▁Е	-8.01464
▁именно	-8.02209
t	-8.02282
▁является	-8.03125
▁одна	-8.03353
▁других	-8.03625
▁10	-8.03966
▁теперь	-8.03988
▁могли	-8.04055
▁человека	-8.04125
▁пол	-8.04214
▁детей	-8.04457
▁мои	-8.04988
▁всегда	-8.04989
▁Поэтому	-8.0587
▁То	-8.06145
ного	-8.06377
▁никогда	-8.06654
▁вместе	-8.06824
▁часть	-8.0731
▁нашей	-8.07415
▁наши	-8.07886
▁год	-8.0904
▁будут	-8.10152
либо	-8.10423
▁мой	-8.1045
▁пока	-8.11158
вою	-8.11241
р	-8.11538
юсь	-8.12212
ти	-8.12323
▁тогда	-8.12569
▁пример	-8.12963
▁использовать	-8.14425
▁Мне	-8.14617
▁такие	-8.14706
п	-8.15257
▁такой	-8.15274
▁вещи	-8.16117
лся	-8.16217
▁три	-8.16248
▁могу	-8.16313
▁пере	-8.16498
▁те	-8.17342
▁лишь	-8.17531
▁тысяч	-8.17698
▁Одна	-8.18004
▁другой	-8.18298
▁важно	-8.1844
▁знаю	-8.19102
▁О	-8.19174
видите	-8.19595
▁тот	-8.19597
ешь	-8.20492
▁потом	-8.20535
▁наших	-8.21377
▁него	-8.21535
▁ничего	-8.22498
▁немного	-8.22824
знаем	-8.23332
▁затем	-8.23418
▁таким	-8.23837
▁говорит	-8.24471
▁Теперь	-8.25051
▁хорошо	-8.25209
▁мира	-8.25343
ку	-8.25415
▁истории	-8.25507
▁перед	-8.25878
▁понять	-8.26335
▁таких	-8.27034
▁последни	-8.27345
▁миллион	-8.27396
▁говорил	-8.27434
▁проблема	-8.27516
та	-8.2754
▁около	-8.27674
еще	-8.28082
▁конечно	-8.288
▁начал	-8.29344
▁знаете	-8.29513
▁П	-8.29821
ным	-8.29856
ое	-8.29955
▁да	-8.30281
▁одной	-8.3062
ма	-8.30637
▁разны	-8.31228
▁2	-8.31237
▁способ	-8.31429
▁другие	-8.31493
▁оно	-8.32109
▁поэтому	-8.3236
▁такое	-8.32404
сть	-8.32445
тоже	-8.32516
91	-8.32612
▁наше	-8.32849
▁чего	-8.332
▁долларов	-8.33745
▁З	-8.34184
были	-8.34353
▁помощью	-8.34734
▁снова	-8.34768
ым	-8.35024
сколько	-8.35174
▁Все	-8.35452
▁идея	-8.35509
▁возможность	-8.35527
▁ему	-8.35595
▁найти	-8.35639
93;	-8.35663
ст	-8.35922
▁новы	-8.36196
▁000	-8.36255
▁Для	-8.36561
▁создать	-8.36606
▁которым	-8.36907
▁проблемы	-8.37222
▁место	-8.37324
▁20	-8.37646
▁Потому	-8.39036
▁сам	-8.39556
▁случае	-8.40568
▁работы	-8.40674
▁процесс	-8.4201
г	-8.42366
ж	-8.42568
ейчас	-8.42574
ём	-8.42607
их	-8.42899
нибудь	-8.43046
▁моя	-8.43098
▁Почему	-8.43304
емся	-8.43461
▁результат	-8.43501
▁данные	-8.43609
ное	-8.43973
▁работает	-8.43983
ри	-8.44141
▁каждо	-8.44148
▁имеет	-8.44637
▁достаточно	-8.45153
▁течение	-8.45415
▁первы	-8.45703
▁всем	-8.45797
ф	-8.45833
▁Нам	-8.46047
своей	-8.46192
▁пор	-8.46393
▁почти	-8.46463
▁работать	-8.47018
▁ответ	-8.47031
▁надо	-8.47325
▁увидеть	-8.47446
▁должен	-8.47536
▁проект	-8.47785
▁значит	-8.47799
▁работа	-8.47956
▁технологии	-8.48146
▁котором	-8.4901
▁пыта	-8.49429
ра	-8.49811
▁ваш	-8.49853
▁мозга	-8.4995
▁количество	-8.50103
▁Эти	-8.5045
▁работу	-8.50554
▁3	-8.50595
▁многие	-8.51018
▁одно	-8.51073
тся	-8.51219
ны	-8.51322
▁двух	-8.51339
▁какой	-8.51408
▁кажет	-8.51583
▁больш	-8.51783
огда	-8.5209
ш	-8.52234
▁стали	-8.52292
да	-8.52429
▁Мо	-8.52689
▁За	-8.52751
▁весь	-8.53192
▁Давайте	-8.53193
▁19	-8.53766
▁мог	-8.5381
▁людям	-8.54047
▁меньше	-8.54427
▁показать	-8.54599
▁ее	-8.5476
▁делает	-8.54801
б	-8.54923
округ	-8.55147
▁групп	-8.55427
▁ваше	-8.55529
▁часто	-8.55713
▁мозг	-8.55761
▁прямо	-8.56625
ч	-8.56986
▁Д	-8.572
▁этому	-8.57631
▁дело	-8.57823
▁изменить	-8.57965
▁всему	-8.58297
▁своё	-8.58474
▁совершенно	-8.58685
u	-8.58774
▁Ну	-8.58879
▁видим	-8.58959
▁быстро	-8.59305
▁свой	-8.59995
▁слишком	-8.60527
▁Во	-8.60683
▁необходимо	-8.60814
▁женщин	-8.61029
роде	-8.61049
▁Нет	-8.61084
▁говорить	-8.61297
▁совсем	-8.61529
▁ведь	-8.61861
5	-8.61867
▁система	-8.62017
▁одного	-8.62035
▁тут	-8.62112
ля	-8.62335
▁любо	-8.62343
▁собой	-8.6278
ясь	-8.62914
▁примерно	-8.63108
▁системы	-8.6329
место	-8.63399
▁страны	-8.63746
▁стать	-8.63926
▁Б	-8.64263
▁видеть	-8.64337
▁начали	-8.64351
▁две	-8.64397
▁довольно	-8.64476
▁миру	-8.64698
▁многих	-8.65651
десь	-8.66128
▁части	-8.66346
▁своим	-8.66364
столько	-8.66661
▁Эта	-8.66671
▁форм	-8.66829
▁стал	-8.66852
▁сделали	-8.66969
▁внимание	-8.67564
▁проблем	-8.676
▁говорят	-8.68217
▁буду	-8.68225
▁сами	-8.68419
ния	-8.68664
▁Всё	-8.68831
▁информации	-8.68943
хотим	-8.69083
▁видео	-8.69605
▁конце	-8.69674
▁подумал	-8.70223
▁обычно	-8.70317
▁ин	-8.70346
ва	-8.70383
▁внутри	-8.70614
▁существует	-8.70714
▁стоит	-8.70745
▁делают	-8.70751
▁ряд	-8.70757
▁история	-8.7078
ё	-8.70793
▁причин	-8.71025
▁дома	-8.71156
ном	-8.71449
▁новые	-8.71478
га	-8.71579
▁различны	-8.7167
▁стороны	-8.71827
▁Ес	-8.71896
▁получить	-8.72489
ными	-8.73563
▁сделал	-8.73571
▁самых	-8.7364
▁находит	-8.73701
▁100	-8.73839
ностью	-8.7418
▁людьми	-8.74682
ль	-8.74706
▁должно	-8.74839
▁данных	-8.7491
▁слова	-8.75063
▁сильно	-8.75358
ыми	-8.75384
▁начала	-8.75531
▁энергии	-8.75686
▁рассказать	-8.76044
▁дети	-8.76262
означает	-8.76288
▁историю	-8.7652
▁решения	-8.76527
▁ко	-8.7709
▁особенно	-8.77236
ние	-8.77343
▁рас	-8.77377
ев	-8.7752
▁При	-8.77742
▁Сегодня	-8.77801
▁30	-8.77839
менее	-8.77973
дать	-8.78597
▁Люд	-8.78905
ар	-8.78944
▁создал	-8.78968
▁всю	-8.78999
▁хотя	-8.79126
▁становит	-8.79175
▁ним	-8.79302
▁50	-8.79476
▁важны	-8.79536
▁одну	-8.79895
ру	-8.80288
▁Нью	-8.80476
▁называет	-8.80578
▁чём	-8.80771
▁основ	-8.80778
ни	-8.80983
▁города	-8.81098
▁200	-8.8111
▁перво	-8.81646
ями	-8.81874
▁неё	-8.81901
▁друга	-8.81943
▁компании	-8.82187
▁постоянно	-8.82208
▁места	-8.82248
▁точно	-8.82517
▁факт	-8.83046
ди	-8.8318
▁исследования	-8.83242
▁увидел	-8.83959
▁большой	-8.84157
▁кого	-8.84337
▁помоч	-8.84352
▁свет	-8.84472
▁деньги	-8.84765
▁представить	-8.84927
▁компьютер	-8.8501
▁благодаря	-8.8516
▁возможности	-8.85232
▁ново	-8.85319
▁воды	-8.85815
▁5	-8.86043
▁зрения	-8.86194
▁процент	-8.86345
▁ник	-8.86535
▁Конечн	-8.86729
▁понял	-8.86851
ёт	-8.87187
▁эксперимент	-8.87224
ле	-8.87255
▁мере	-8.8731
▁точки	-8.87551
▁начинает	-8.87734
▁начать	-8.87859
▁вид	-8.88146
▁стало	-8.88413
▁стран	-8.88467
▁говорю	-8.88604
ре	-8.88688
▁иметь	-8.88854
▁будем	-8.88856
▁женщины	-8.89117
▁минут	-8.8919
▁работаю	-8.89754
ты	-8.89782
ор	-8.89907
▁такого	-8.8993
▁сказала	-8.8995
▁множество	-8.90132
ин	-8.90182
▁горазд	-8.90186
▁информацию	-8.90244
▁смысл	-8.90543
▁закон	-8.90638
▁сможем	-8.90694
▁решение	-8.9076
первы	-8.90869
ду	-8.91133
▁Таким	-8.91303
▁спросил	-8.9155
▁должна	-8.91634
▁большинство	-8.91636
2	-8.91677
▁самы	-8.91786
▁сложно	-8.91951
00	-8.91957
▁против	-8.92173
▁вещей	-8.92392
▁мной	-8.92613
▁Может	-8.92709
▁выбор	-8.92912
▁изменения	-8.93681
▁дела	-8.93965
▁идеи	-8.9406
▁Э	-8.94344
▁15	-8.94375
▁нашем	-8.94441
▁телефон	-8.94727
вер	-8.94736
йти	-8.94825
▁опыт	-8.94987
▁систему	-8.95149
▁туда	-8.95278
▁взять	-8.95349
он	-8.95356
▁спасибо	-8.95486
▁вами	-8.95628
▁выглядит	-8.95632
▁перв	-8.95674
ком	-8.95749
▁программ	-8.96091
▁ними	-8.96095
▁жить	-8.96214
▁следующи	-8.96573
▁интересно	-8.96751
▁нечто	-8.96962
▁намного	-8.97017
▁раньше	-8.971
▁помощи	-8.97118
▁странах	-8.97122
▁стране	-8.97135
▁посмотреть	-8.97247
oo	-8.97331
▁размер	-8.97365
▁оказа	-8.97459
▁буд	-8.97525
орошо	-8.97538
▁вообще	-8.97544
▁нравит	-8.97821
▁слово	-8.97928
▁лучши	-8.98094
▁считаю	-8.98261
▁Или	-8.98314
▁клетки	-8.98339
▁нужны	-8.98376
▁куда	-8.98526
▁другом	-8.98586
▁Мож	-8.98654
не	-8.99019
ан	-8.99136
ша	-8.99267
вляются	-8.9927
по	-8.99505
▁ваши	-8.99748
до	-8.99893
▁хотят	-9.00264
▁моё	-9.00464
▁имеют	-9.00541
тебя	-9.00716
▁пути	-9.00839
▁делаем	-9.0093
▁произошло	-9.01093
би	-9.01162
▁та	-9.01273
▁сколько	-9.01583
▁какие	-9.02048
▁мест	-9.02335
▁ответил	-9.02437
▁друго	-9.02453
▁звук	-9.02512
▁стала	-9.0255
правда	-9.02699
▁думать	-9.0287
▁смогл	-9.02906
▁дня	-9.03195
▁рост	-9.03334
▁инструмент	-9.03414
жи	-9.03672
▁нами	-9.03673
▁месяцев	-9.03685
▁Т	-9.03817
▁Кто	-9.03858
▁итог	-9.04244
▁области	-9.04778
▁спустя	-9.04788
▁Зате	-9.04838
от	-9.0509
▁мало	-9.05486
▁От	-9.05545
▁вопросы	-9.05546
▁видели	-9.05627
▁бизнес	-9.05735
▁Возможно	-9.0574
▁месте	-9.0591
▁нов	-9.0627
ил	-9.06302
▁уровень	-9.06412
менно	-9.0643
▁приходит	-9.06461
▁невероятно	-9.07013
▁узна	-9.07046
ец	-9.07232
дальше	-9.07474
▁структур	-9.07644
тор	-9.07821
▁крайне	-9.08034
▁огромно	-9.08087
ал	-9.08179
▁среди	-9.082
▁подход	-9.08305
▁цвет	-9.08359
могла	-9.08448
▁зале	-9.08587
▁уровне	-9.08659
▁животных	-9.0869
смотря	-9.08723
говорим	-9.08951
▁Р	-9.09008
▁оста	-9.092
▁четыре	-9.09233
▁кажд	-9.09255
▁город	-9.09296
▁легко	-9.09356
▁плохо	-9.09403
▁Ты	-9.09423
▁б	-9.09434
ят	-9.09583
ке	-9.09586
▁самым	-9.09639
▁рода	-9.09718
▁населения	-9.09725
▁ДНК	-9.09852
▁большое	-9.09908
0-	-9.10046
▁знать	-9.10201
▁кое	-9.10308
▁Тогда	-9.10379
▁работал	-9.10649
▁тела	-9.10719
▁хотите	-9.11039
▁защит	-9.11118
▁занима	-9.11307
▁взгляд	-9.11355
▁пять	-9.11358
▁денег	-9.11717
▁маленьки	-9.11792
▁одним	-9.11812
▁пару	-9.11825
▁Из	-9.11838
ба	-9.11988
шего	-9.12317
▁вещь	-9.12404
▁равно	-9.12451
▁будущем	-9.12615
▁решил	-9.12621
▁создания	-9.12945
▁общества	-9.13018
ён	-9.13394
▁решили	-9.13581
ость	-9.13655
▁второ	-9.13719
па	-9.13829
▁После	-9.14142
льзя	-9.14541
▁модель	-9.14599
▁Один	-9.14854
▁подобны	-9.15628
▁наконец	-9.15732
▁развития	-9.15758
▁знал	-9.15881
▁экономик	-9.1619
▁появи	-9.16193
что	-9.16207
▁М	-9.16387
▁Африке	-9.16482
ши	-9.16673
▁другим	-9.16697
▁долго	-9.16711
▁прошлом	-9.16737
▁Индии	-9.16806
▁фильм	-9.1693
▁давайте	-9.16994
▁океан	-9.17204
▁число	-9.17281
▁путь	-9.17433
▁идёт	-9.1753
▁связи	-9.17564
▁часов	-9.177
▁нашим	-9.1773
▁сред	-9.17787
▁абсолютно	-9.17796
▁используют	-9.17836
▁Большо	-9.1836
ности	-9.18617
ставить	-9.18648
▁миллиардов	-9.18988
▁Там	-9.19142
▁будущее	-9.19247
▁уверен	-9.19278
▁Представь	-9.19358
▁человеческо	-9.19513
▁социальны	-9.19764
▁работе	-9.19785
ющие	-9.19798
или	-9.19936
ро	-9.20031
▁До	-9.2004
▁Некоторы	-9.2034
нём	-9.20441
▁Ин	-9.20616
▁источник	-9.20657
ер	-9.2067
▁Кажды	-9.20692
▁уда	-9.20787
▁виду	-9.20847
бо	-9.20907
ну	-9.20922
▁наибол	-9.21224
▁сети	-9.21371
▁частью	-9.2163
▁одном	-9.21737
йте	-9.2185
▁руки	-9.22028
ски	-9.22042
▁дней	-9.22378
▁правильно	-9.22532
ости	-9.22612
▁называем	-9.22832
▁использовани	-9.22893
лен	-9.23053
▁лаборатори	-9.23165
▁Чтоб	-9.23186
ту	-9.23208
са	-9.23573
▁знает	-9.23619
думать	-9.23725
▁такая	-9.24003
▁говоря	-9.24131
стати	-9.24144
ически	-9.24217
▁ту	-9.24222
ющий	-9.24253
▁состоит	-9.24303
▁думал	-9.2434
▁Музыка	-9.24473
▁знали	-9.24513
▁известно	-9.24648
▁позволяет	-9.24691
▁сразу	-9.24959
етесь	-9.25214
▁пришлось	-9.25277
▁имею	-9.25405
▁другими	-9.25433
ще	-9.25797
об	-9.25897
▁невозможно	-9.2604
знают	-9.26064
▁центр	-9.26068
ическ	-9.26299
▁создавать	-9.26608
▁Многи	-9.26635
тер	-9.26711
▁машины	-9.26758
▁права	-9.27083
▁чувство	-9.27247
▁видов	-9.27569
▁глаза	-9.27572
ось	-9.27612
▁сама	-9.2767
ющих	-9.27754
▁интернет	-9.27878
ник	-9.27965
▁фотографии	-9.28045
▁скорее	-9.2846
▁собственны	-9.28902
▁движение	-9.29169
▁похоже	-9.29178
▁вернуть	-9.29264
▁решить	-9.29268
ча	-9.29287
ность	-9.29506
тебе	-9.29638
▁протяжени	-9.2969
▁самые	-9.29732
▁язык	-9.29751
▁проблему	-9.2981
▁образование	-9.29825
▁обратно	-9.29844
▁покажу	-9.30003
воду	-9.30181
▁пред	-9.30289
▁домой	-9.30316
▁трудно	-9.30361
▁Оно	-9.30506
▁заключается	-9.30701
▁типа	-9.30746
▁свобод	-9.31144
▁станет	-9.31303
▁движения	-9.31454
▁речь	-9.31763
▁школу	-9.31941
▁семьи	-9.32006
ци	-9.3203
че	-9.32082
▁сил	-9.32125
▁мою	-9.32128
▁каким	-9.32199
9	-9.32514
▁мужчин	-9.32553
▁качестве	-9.32564
ков	-9.32623
▁следует	-9.32632
▁полно	-9.32663
▁Мой	-9.32682
▁сут	-9.329
давно	-9.32945
ись	-9.33062
бы	-9.33119
▁собственно	-9.33177
▁практически	-9.33237
▁дизайн	-9.33355
▁нейрон	-9.33463
▁Об	-9.33653
▁Меня	-9.3384
си	-9.33989
▁модели	-9.34137
▁группа	-9.34215
▁используем	-9.34291
ги	-9.34322
▁далеко	-9.34504
3	-9.34654
▁прав	-9.34694
▁используя	-9.34699
▁однажды	-9.34722
▁связь	-9.34914
▁названием	-9.34954
▁нескольки	-9.35089
▁цели	-9.35108
дер	-9.35109
бер	-9.35168
▁уж	-9.35697
▁хороши	-9.35785
▁голос	-9.35877
▁планеты	-9.36049
▁цел	-9.36187
едь	-9.36193
чно	-9.36221
▁Про	-9.36229
▁посмотрим	-9.36232
▁женщина	-9.36269
▁уровня	-9.36307
▁небольшо	-9.36318
▁поскольк	-9.36323
▁роль	-9.36436
▁даёт	-9.36467
живут	-9.3676
друг	-9.37195
первых	-9.37402
▁бо	-9.37409
ц	-9.37556
▁Вам	-9.37684
▁дом	-9.37735
щё	-9.37756
▁9	-9.3785
мер	-9.38106
▁увидите	-9.38155
▁способны	-9.38181
во	-9.38199
▁понима	-9.38246
пу	-9.38292
ение	-9.38335
▁доступ	-9.38357
▁хотела	-9.38459
вая	-9.38504
▁12	-9.38713
▁моим	-9.38726
ходить	-9.38741
▁шаг	-9.38871
▁общество	-9.39117
▁причина	-9.39156
▁Был	-9.39311
▁период	-9.39429
▁мысли	-9.39532
▁обнаружили	-9.39665
▁культур	-9.39667
▁ночь	-9.39707
про	-9.39709
▁планете	-9.39712
▁безопасности	-9.398
▁цель	-9.40033
▁каждом	-9.40062
войны	-9.40154
▁идею	-9.40234
▁отношения	-9.40538
▁случилось	-9.40571
▁книги	-9.40671
ман	-9.40767
ому	-9.40801
▁правительство	-9.40962
▁хочет	-9.41066
▁гор	-9.41141
▁света	-9.41176
▁25	-9.41212
▁чему	-9.41421
Р	-9.41451
али	-9.41491
▁интерес	-9.41523
вы	-9.41654
▁сюда	-9.41873
▁прежде	-9.41897
▁план	-9.41899
▁воздух	-9.41929
▁кем	-9.4239
▁образ	-9.42486
▁поговорить	-9.42797
▁де	-9.42927
▁выше	-9.42988
▁последне	-9.4308
▁прекрасно	-9.43088
▁разговор	-9.43286
стро	-9.43392
▁концов	-9.43417
▁века	-9.43431
▁готовы	-9.43559
▁ситуаци	-9.43598
▁Наш	-9.4372
▁дале	-9.43815
кой	-9.44152
ста	-9.44194
▁местах	-9.44541
▁11	-9.4458
▁вариант	-9.4472
▁значение	-9.44765
▁понимает	-9.45016
▁видел	-9.45017
▁теори	-9.45089
ходят	-9.45115
▁трёх	-9.45123
ью	-9.4522
▁половин	-9.45256
▁здания	-9.45356
▁реально	-9.45472
думаем	-9.456
▁сигнал	-9.45646
▁самого	-9.45649
▁годы	-9.45713
▁получил	-9.45782
▁социально	-9.45945
вал	-9.45968
▁семь	-9.46121
▁класс	-9.46237
вших	-9.4625
▁помощь	-9.46261
мен	-9.46327
▁вероятно	-9.46364
▁большие	-9.46374
ятся	-9.4639
▁нужна	-9.46531
▁принцип	-9.467
▁исследование	-9.46744
▁результаты	-9.47071
▁пространство	-9.47083
ировать	-9.47121
люблю	-9.47353
▁болезн	-9.47445
▁вниз	-9.47515
ась	-9.47539
▁тело	-9.47551
▁исследований	-9.47561
▁масштаб	-9.47853
▁сфер	-9.47914
▁Земле	-9.47972
1	-9.48041
▁расскажу	-9.48297
▁природ	-9.48302
нию	-9.48334
▁основном	-9.48352
ел	-9.48361
хотелось	-9.48515
▁право	-9.48637
ры	-9.48657
▁написал	-9.48764
▁находятся	-9.48891
ской	-9.49158
▁начинают	-9.49195
▁Очень	-9.49272
▁Знает	-9.49314
▁остальны	-9.49405
технологий	-9.49482
▁Г	-9.4957
▁нуж	-9.49605
▁политик	-9.49689
ров	-9.49702
▁образования	-9.49707
зи	-9.49806
▁быстрее	-9.50029
▁границ	-9.50101
▁делали	-9.50144
настоящему	-9.50263
▁организации	-9.50272
▁иначе	-9.50493
▁смотреть	-9.51031
▁окружающе	-9.51049
▁показывает	-9.51091
▁молоды	-9.51096
▁провел	-9.51102
сотни	-9.51122
ющей	-9.51452
лько	-9.51574
▁отец	-9.51631
▁слышали	-9.51661
▁Потом	-9.51689
ель	-9.51728
ща	-9.51742
▁эффект	-9.51847
▁доби	-9.5202
▁хороше	-9.52059
▁реальность	-9.52066
▁большим	-9.52096
▁человечески	-9.52163
▁Интернет	-9.52224
▁Просто	-9.52386
лю	-9.52473
▁матери	-9.52481
▁слов	-9.52571
▁шесть	-9.52654
▁фото	-9.52656
▁здорово	-9.52763
▁поведение	-9.52947
цы	-9.53126
вижу	-9.53143
вести	-9.53227
▁поверхности	-9.53265
▁метров	-9.53274
▁попросил	-9.53338
ский	-9.53342
▁Второ	-9.53387
▁г	-9.53438
▁действия	-9.53473
▁задач	-9.5356
▁клеток	-9.53598
▁Со	-9.5361
пи	-9.53735
ющая	-9.53848
▁миллиона	-9.5385
▁школе	-9.53947
▁голов	-9.53982
▁часа	-9.54004
▁игра	-9.54039
▁сможет	-9.54152
▁штат	-9.54207
▁посмотрите	-9.5439
▁высоко	-9.54398
▁главно	-9.5469
▁зон	-9.54723
▁силы	-9.54764
▁словами	-9.54764
▁развитие	-9.54773
▁технология	-9.54879
▁буквально	-9.54957
▁карт	-9.55046
▁Позволь	-9.55171
▁сравнени	-9.55187
▁обо	-9.55269
▁степени	-9.55282
▁столько	-9.55384
▁больши	-9.55544
▁страх	-9.55585
▁КА	-9.55653
▁целы	-9.55695
▁машин	-9.55735
ство	-9.55762
▁становят	-9.55829
кс	-9.55927
▁верну	-9.55978
▁виде	-9.5609
▁нашли	-9.56166
э	-9.56311
думаете	-9.56464
▁сеть	-9.5658
▁сторону	-9.57105
▁заметил	-9.57115
▁наде	-9.57127
▁решени	-9.57139
▁рука	-9.57229
могут	-9.57249
▁большинств	-9.57305
▁вес	-9.57418
▁настоящи	-9.57474
▁природы	-9.57528
▁проекта	-9.57599
▁компания	-9.57634
де	-9.57651
▁риск	-9.57685
▁системе	-9.57708
▁игры	-9.57766
▁успех	-9.57787
▁общем	-9.58
▁смог	-9.58063
▁рак	-9.58111
▁ребёнка	-9.58131
▁получили	-9.58355
▁Л	-9.5838
▁придёт	-9.58396
▁мысль	-9.58398
▁поняли	-9.58467
▁видно	-9.58545
▁вода	-9.59103
верю	-9.59292
жды	-9.59502
▁опять	-9.59515
лу	-9.59578
▁задача	-9.59844
гу	-9.59921
▁одновременно	-9.60324
▁мужчины	-9.60406
су	-9.60511
▁таком	-9.60587
тель	-9.60591
▁изменени	-9.60632
▁имени	-9.6068
▁счёт	-9.6092
▁рака	-9.60924
▁Думаю	-9.60939
делиться	-9.60965
дут	-9.60972
чувствовать	-9.60973
▁пар	-9.6117
▁сын	-9.61182
▁школы	-9.61197
▁эволюци	-9.61214
▁рассказал	-9.61233
▁сторон	-9.6131
овать	-9.61321
ик	-9.61357
▁начало	-9.61407
▁пришли	-9.61441
▁удивительно	-9.61553
▁метод	-9.61596
▁человеком	-9.61656
▁ресурс	-9.61683
ше	-9.61751
▁похожи	-9.6177
▁круг	-9.6182
▁смех	-9.61904
▁Земли	-9.61951
думайте	-9.62014
вёл	-9.62049
М	-9.62069
▁способность	-9.62076
▁Ник	-9.6216
▁глаз	-9.62322
из	-9.62347
▁изображение	-9.62364
▁кому	-9.62374
▁фотография	-9.62581
ского	-9.62596
▁интересны	-9.62622
сто	-9.62629
верить	-9.62783
▁Африки	-9.62786
▁Америке	-9.62906
▁доход	-9.62917
▁вирус	-9.63152
▁Америк	-9.63186
▁Первы	-9.63239
▁построить	-9.63242
▁Крис	-9.63246
▁значительно	-9.63298
▁идей	-9.63323
▁состоянии	-9.63398
ис	-9.63546
▁устройство	-9.63557
▁мама	-9.63642
▁шанс	-9.63672
▁лицо	-9.63681
овые	-9.63924
▁кроме	-9.64011
▁средства	-9.6402
▁использовали	-9.64025
▁миллиарда	-9.64034
▁климата	-9.64139
ющихся	-9.6417
▁разниц	-9.64296
▁вверх	-9.64326
▁известны	-9.64435
▁включа	-9.6458
▁зна	-9.64662
▁скоро	-9.64842
▁Видео	-9.65168
▁лица	-9.65339
шь	-9.65383
▁руку	-9.65424
снить	-9.65467
жа	-9.65515
▁силу	-9.65519
▁ситуация	-9.65771
▁график	-9.65916
▁пяти	-9.65916
▁ВИЧ	-9.66045
ёр	-9.66063
ект	-9.66066
▁маленькие	-9.66073
смерти	-9.66197
▁организаци	-9.66302
▁поиска	-9.66364
▁принять	-9.66387
▁здание	-9.66453
▁влияние	-9.66484
▁лично	-9.66518
▁сердце	-9.6652
▁войн	-9.66536
▁сила	-9.6664
▁рынк	-9.66659
▁называют	-9.66673
ос	-9.66742
▁Нужн	-9.66778
▁высот	-9.6681
▁представляет	-9.66937
▁очевидно	-9.67085
ска	-9.67105
К	-9.67272
▁создание	-9.6736
оп	-9.67367
▁касает	-9.67406
писать	-9.67466
▁никако	-9.67529
мню	-9.67532
▁член	-9.67724
▁чуть	-9.67941
▁лес	-9.68033
▁времена	-9.68128
йтесь	-9.68226
▁глубоко	-9.68321
ите	-9.68346
▁появля	-9.6839
ишь	-9.68463
род	-9.68601
▁огромн	-9.68647
▁пут	-9.68655
ских	-9.68661
▁машина	-9.68707
▁друзей	-9.68732
▁сожалению	-9.68764
стью	-9.68766
гра	-9.68914
▁существую	-9.68924
▁получает	-9.69102
▁материал	-9.69113
нести	-9.69153
▁какое	-9.69193
▁месяц	-9.69379
▁идее	-9.69479
пол	-9.69482
лин	-9.6959
▁Посмотрите	-9.69648
▁любом	-9.69661
▁дел	-9.69721
▁приводит	-9.69949
тра	-9.6998
▁виды	-9.70055
овой	-9.70184
▁считают	-9.70282
▁бедны	-9.70308
▁возника	-9.70369
шла	-9.70377
▁центре	-9.70379
▁продолжать	-9.70393
дел	-9.70452
▁надею	-9.70614
ды	-9.70684
▁технологи	-9.70696
▁каза	-9.70755
ним	-9.70758
▁сначала	-9.70766
▁предмет	-9.70869
▁угодно	-9.70873
▁недель	-9.70905
▁ради	-9.70937
▁голову	-9.70991
чь	-9.71018
раз	-9.71074
▁произойд	-9.7108
нии	-9.71161
▁леса	-9.71189
▁использует	-9.71237
▁вида	-9.71491
▁орган	-9.71493
▁наверное	-9.71513
▁фактически	-9.71519
прав	-9.71605
▁случая	-9.71649
▁узнал	-9.7179
▁создаёт	-9.7187
▁Их	-9.71908
▁правительства	-9.72
▁целом	-9.7203
▁явля	-9.72052
ения	-9.72148
ели	-9.72212
▁родители	-9.72431
▁представление	-9.72438
▁пытаемся	-9.72447
▁власти	-9.72449
▁думали	-9.72478
ирует	-9.72649
вали	-9.72751
ня	-9.7277
ек	-9.72786
▁инноваци	-9.72803
▁искусства	-9.72902
▁океана	-9.72927
тельны	-9.72942
▁труд	-9.72971
вшие	-9.73026
▁ранее	-9.73154
▁недостаточно	-9.73346
▁любовь	-9.73379
▁проблемой	-9.73428
▁болезнь	-9.7343
▁знания	-9.73506
▁обща	-9.73512
▁Сан	-9.7354
С	-9.73542
▁необходимы	-9.73628
▁тип	-9.73682
▁заниматься	-9.73824
лет	-9.73938
▁музык	-9.73944
▁Где	-9.74023
вин	-9.74039
▁магазин	-9.74039
▁лечения	-9.7417
▁тест	-9.74173
▁видит	-9.74262
▁возможностей	-9.74353
▁момента	-9.74466
шёл	-9.74514
▁книгу	-9.74577
▁любим	-9.74587
▁Большинство	-9.74663
▁действительност	-9.74724
▁скажу	-9.74779
▁кажды	-9.74783
▁получается	-9.74856
▁делаю	-9.74867
▁код	-9.74896
ус	-9.74955
▁километров	-9.75018
▁прекрасны	-9.75036
▁отношени	-9.7509
▁данны	-9.75238
▁политически	-9.75288
▁неделю	-9.753
пер	-9.75359
▁условиях	-9.75484
▁экономически	-9.75504
▁получают	-9.75526
ou	-9.75595
▁улучши	-9.7562
▁рассказыва	-9.75672
чен	-9.75685
▁энерги	-9.7578
▁другу	-9.75995
▁работали	-9.76176
▁делал	-9.76185
П	-9.76223
▁Благодар	-9.76271
▁посмотрел	-9.76271
ол	-9.76274
▁семья	-9.76407
ющее	-9.76558
▁урок	-9.76611
▁живём	-9.76617
сс	-9.76623
▁процессе	-9.76645
▁здравоохранения	-9.76716
▁сложн	-9.76757
▁элемент	-9.76997
▁всём	-9.77007
▁позже	-9.77185
▁создани	-9.77219
является	-9.77246
▁детям	-9.77254
▁чувства	-9.77324
▁имя	-9.77352
щих	-9.77492
могло	-9.77512
▁пациентов	-9.77582
▁Китай	-9.77622
▁поиск	-9.77736
▁пациент	-9.7779
▁земле	-9.77804
▁дорог	-9.77811
▁рук	-9.77857
▁правила	-9.77868
▁информация	-9.77915
te	-9.77932
▁пользу	-9.77971
▁участие	-9.77985
▁желание	-9.78018
▁набор	-9.7803
▁Те	-9.78039
▁миллиард	-9.78147
▁внимания	-9.78248
▁анализ	-9.78469
▁огромны	-9.78498
▁сможете	-9.78875
▁галактик	-9.78916
▁помогает	-9.78978
▁разум	-9.7898
▁верно	-9.79136
▁смогу	-9.79143
дти	-9.7916
▁научны	-9.79177
▁курс	-9.79204
▁собираю	-9.79225
▁замечательно	-9.79479
▁земли	-9.79493
▁местны	-9.795
▁парень	-9.79589
▁определить	-9.79601
▁зависит	-9.79615
нее	-9.79753
▁обучения	-9.79761
▁использование	-9.79811
▁месяца	-9.79811
▁прогресс	-9.79871
▁страна	-9.80053
бор	-9.80104
▁собира	-9.8018
▁играть	-9.80192
нул	-9.80377
▁ж	-9.8042
▁500	-9.80494
▁ног	-9.80576
пл	-9.80583
▁выглядел	-9.80606
купить	-9.80804
▁понимание	-9.8089
▁машину	-9.81072
▁ну	-9.81075
▁целью	-9.81101
▁птиц	-9.81113
таки	-9.81278
▁ребёнок	-9.81289
▁секс	-9.81306
иться	-9.81315
▁достичь	-9.81642
▁убедить	-9.81651
▁эмоци	-9.81731
▁научно	-9.81731
▁студентов	-9.81735
▁выясни	-9.81844
▁част	-9.81874
другому	-9.81995
▁вполне	-9.82026
▁улиц	-9.82033
▁возраста	-9.82079
▁вперёд	-9.82224
▁физически	-9.82398
▁откуда	-9.82459
▁выбора	-9.82504
▁теле	-9.8261
▁количества	-9.82898
▁единственны	-9.82923
▁глубин	-9.82991
орке	-9.83114
ний	-9.8332
▁конца	-9.83354
▁секунд	-9.83437
▁тюрьм	-9.8356
▁сообщества	-9.83599
со	-9.83689
▁изменение	-9.83792
▁имеем	-9.83818
▁городе	-9.83864
▁занимает	-9.83871
▁важна	-9.83916
ца	-9.83962
▁картин	-9.83966
▁сложны	-9.84027
▁ужасно	-9.84056
▁инфраструктур	-9.84071
▁чаще	-9.84072
▁позволи	-9.84075
▁глобально	-9.84146
▁стары	-9.84263
▁ре	-9.84403
▁условия	-9.8442
О	-9.8443
▁понимаю	-9.84451
▁суть	-9.84466
▁ген	-9.84601
▁вывод	-9.84623
▁пара	-9.84631
▁общественно	-9.84722
др	-9.84731
▁температур	-9.84886
▁состояние	-9.85018
▁отлично	-9.85151
сон	-9.85162
▁поддержк	-9.85215
▁Пол	-9.85216
▁книг	-9.85326
▁секрет	-9.85373
▁СМИ	-9.85507
торая	-9.85524
▁этап	-9.85535
▁будете	-9.85655
ает	-9.85696
▁механизм	-9.85732
▁производства	-9.85737
ируем	-9.85737
▁белы	-9.85835
▁недели	-9.85871
▁цен	-9.85886
▁оказывает	-9.85929
▁устройства	-9.85949
▁Ко	-9.85991
▁жив	-9.86144
▁собрать	-9.86225
▁взял	-9.86246
▁будущего	-9.86248
▁десятк	-9.86359
нных	-9.86408
▁Бог	-9.86434
▁человечества	-9.86458
▁миллионы	-9.86525
▁Под	-9.86567
▁дух	-9.86599
▁науки	-9.86627
ря	-9.86654
▁ясно	-9.86722
▁Ма	-9.86733
смысле	-9.86949
▁обществе	-9.8696
▁организм	-9.87033
▁услуг	-9.87063
▁сайт	-9.8709
▁удивительны	-9.87139
▁велики	-9.87242
▁показал	-9.87265
вод	-9.87295
▁называю	-9.87309
▁последствия	-9.8736
▁цифр	-9.87367
▁мать	-9.87411
▁час	-9.87517
▁остава	-9.8757
▁временем	-9.87689
лов	-9.87713
▁провести	-9.87736
▁лекарства	-9.87738
ющиеся	-9.87831
▁очередь	-9.88038
искать	-9.88133
▁форму	-9.88142
▁90	-9.88219
▁высоки	-9.88329
▁рынок	-9.88396
▁пространства	-9.88419
▁реакци	-9.88425
шу	-9.88488
▁двумя	-9.88561
стер	-9.88666
аль	-9.8876
вают	-9.88808
бл	-9.88822
▁основан	-9.88837
▁странно	-9.88951
▁изображения	-9.8897
▁первым	-9.89026
▁продукт	-9.89034
▁многим	-9.89136
▁хуже	-9.89138
▁нового	-9.89282
бе	-9.89285
▁всеми	-9.89345
▁возраст	-9.89486
▁Кроме	-9.8951
▁работаем	-9.89656
▁кризис	-9.89658
Г	-9.89677
▁сделан	-9.89799
бежать	-9.89888
▁форма	-9.89975
бу	-9.89991
нные	-9.90129
▁друзья	-9.9016
▁частиц	-9.90181
▁живёт	-9.90188
летни	-9.90194
▁поколение	-9.90234
▁земл	-9.9028
▁поколения	-9.90363
▁пришёл	-9.90365
ская	-9.90433
▁демократи	-9.90535
кр	-9.90576
▁нефт	-9.90596
▁получи	-9.90643
▁дизайна	-9.90648
изм	-9.90669
▁относительно	-9.907
▁двигаться	-9.90759
щие	-9.90788
▁вашем	-9.90829
▁реальност	-9.90884
▁будь	-9.90922
▁систем	-9.91152
▁искусство	-9.91198
▁случай	-9.91252
▁Европе	-9.91265
▁получаем	-9.91441
▁Ч	-9.91479
▁религи	-9.91492
▁программу	-9.915
▁совместно	-9.91509
▁аппарат	-9.91551
▁картинк	-9.9156
▁команда	-9.91586
▁компаний	-9.91595
▁мечта	-9.9162
▁нужда	-9.91694
ден	-9.91724
▁позволил	-9.9175
▁начинае	-9.91928
при	-9.91946
▁13	-9.91971
▁поверхность	-9.91994
▁поток	-9.92026
нд	-9.92163
▁возрасте	-9.92571
тон	-9.92723
▁сердца	-9.92881
▁муж	-9.92885
чик	-9.92905
▁Проблем	-9.92917
ному	-9.92947
▁Перв	-9.92968
▁вселенной	-9.92971
▁интеллект	-9.93121
▁примеров	-9.93126
▁взяли	-9.93157
орк	-9.93219
И	-9.93261
тельно	-9.93383
▁данным	-9.93413
▁ситуацию	-9.93445
▁Дж	-9.9347
▁Пока	-9.93487
ском	-9.93542
▁новости	-9.93595
▁ощущение	-9.93663
▁представь	-9.93691
▁понятия	-9.93693
▁правило	-9.93768
▁давно	-9.93808
Б	-9.93884
огласно	-9.93972
▁думает	-9.93996
▁создают	-9.93999
читаем	-9.94064
рен	-9.94083
▁Наши	-9.9413
▁ход	-9.94211
▁изучать	-9.94217
▁удар	-9.94291
рон	-9.9431
▁совет	-9.94342
▁сад	-9.94365
кон	-9.94454
▁справа	-9.9448
▁сидел	-9.94489
ают	-9.94588
▁своем	-9.9474
▁мужчина	-9.94807
▁естественно	-9.94901
щей	-9.94903
▁хорош	-9.94931
▁живы	-9.94967
▁алгоритм	-9.95051
▁воз	-9.9509
▁Чере	-9.95096
▁любимы	-9.951
▁дороги	-9.95218
▁Ни	-9.95307
▁ресурсов	-9.95325
оз	-9.95342
▁управлять	-9.95368
▁следующе	-9.95498
ющего	-9.95549
▁боя	-9.9558
▁символ	-9.95607
▁номер	-9.95634
вторы	-9.95697
▁любв	-9.95707
▁программа	-9.95715
▁основны	-9.95775
▁ошибк	-9.95926
▁черт	-9.96046
▁надежд	-9.96065
ируют	-9.96157
▁появилась	-9.96157
▁серьёзно	-9.96194
▁нормально	-9.96198
▁Джон	-9.96261
▁происходил	-9.96447
▁читать	-9.96469
▁конец	-9.96474
▁длин	-9.96532
▁события	-9.96565
▁считать	-9.9667
юю	-9.96715
▁район	-9.96724
▁полици	-9.96808
▁выглядеть	-9.96899
▁здоровья	-9.96913
▁создан	-9.96943
▁обнаружил	-9.9698
▁размера	-9.97017
▁принимать	-9.97027
▁успеха	-9.971
▁Ли	-9.97107
▁собираем	-9.97125
▁стара	-9.97207
жу	-9.97242
▁никаки	-9.97437
▁линии	-9.975
Т	-9.97501
▁позволит	-9.97527
давать	-9.97538
▁связаны	-9.97547
▁потенциал	-9.97626
▁порядке	-9.97674
▁осознал	-9.97747
▁взгляну	-9.9776
▁остров	-9.97789
нный	-9.97793
▁готов	-9.97849
▁определённо	-9.97855
▁цвета	-9.97935
▁способом	-9.97987
▁Тем	-9.98069
▁регион	-9.98144
▁управления	-9.98194
есть	-9.98217
▁чрезвычайно	-9.98244
▁наблюдать	-9.98271
▁открыты	-9.98277
▁сельско	-9.98298
▁сегодняшни	-9.98308
▁тво	-9.98367
▁вне	-9.98491
▁широко	-9.98542
▁следующем	-9.98563
▁игр	-9.98691
▁можешь	-9.98755
▁робот	-9.98798
▁подобное	-9.98828
▁сосед	-9.9884
▁ноги	-9.98857
частью	-9.98904
▁здоровье	-9.98908
▁влияет	-9.98917
▁жизнью	-9.98935
▁ф	-9.98948
▁углерод	-9.98996
▁Тут	-9.99019
отя	-9.99111
вор	-9.99212
▁Перво	-9.99265
ак	-9.99356
▁Раз	-9.99376
▁аудитори	-9.99393
▁вести	-9.99469
фи	-9.99515
▁открыто	-9.99541
▁бес	-9.99579
▁связан	-9.9959
▁музыку	-9.99686
▁хоть	-9.99705
нет	-9.99713
▁Ещ	-9.99802
фор	-9.99809
▁Вселенн	-9.9986
▁смотрите	-9.99907
ющим	-10.0001
▁моем	-10.0002
▁продолжает	-10.0002
▁детьми	-10.0011
▁животные	-10.0012
▁наука	-10.0019
▁качества	-10.0029
▁выступления	-10.0031
ками	-10.0041
три	-10.0041
▁дни	-10.0053
нг	-10.0057
▁случаев	-10.0059
ства	-10.0063
▁правд	-10.0066
▁процесса	-10.007
▁фактор	-10.0071
▁среду	-10.0072
▁слайд	-10.0077
▁отношение	-10.0084
▁улице	-10.0085
▁Ла	-10.0087
▁городов	-10.0092
▁учёные	-10.0094
▁книга	-10.0096
бра	-10.0097
ант	-10.0099
▁повсюду	-10.0104
▁современно	-10.0105
▁разработал	-10.0106
▁привести	-10.0109
▁крупны	-10.011
делаем	-10.0113
▁конц	-10.0115
▁борьб	-10.0116
▁Чем	-10.0121
▁конечном	-10.0123
▁замечательны	-10.0124
▁журнал	-10.013
▁сделано	-10.013
▁обеспечи	-10.0163
▁хороший	-10.0168
▁сквоз	-10.0181
▁направлении	-10.0185
зы	-10.0186
▁способности	-10.019
▁кон	-10.0203
▁важное	-10.0205
▁пре	-10.0213
▁стоимость	-10.0215
▁расти	-10.0215
▁боль	-10.0219
▁родителей	-10.022
▁приехал	-10.0222
думают	-10.0222
▁предел	-10.0242
▁семье	-10.0257
▁частно	-10.0257
▁эффективно	-10.0258
▁числа	-10.0267
▁граждан	-10.0269
▁поле	-10.0304
▁следующее	-10.0316
▁какая	-10.0344
▁букв	-10.0347
▁мнение	-10.0347
пис	-10.0353
▁развити	-10.0365
▁музыка	-10.0373
▁рад	-10.0378
▁помнит	-10.0378
чер	-10.0382
▁языка	-10.0389
▁придумал	-10.039
▁многое	-10.0407
▁поводу	-10.0409
▁настоящее	-10.0418
▁вероятность	-10.042
ист	-10.0432
▁остально	-10.0438
▁общи	-10.0439
говорили	-10.0443
▁сделала	-10.0447
работ	-10.0448
▁доктор	-10.0458
▁единственно	-10.0458
▁треть	-10.0459
ила	-10.046
щем	-10.0469
▁геном	-10.0476
▁поможет	-10.0477
▁вершин	-10.0477
▁Оказывает	-10.0477
▁население	-10.048
▁300	-10.048
▁писать	-10.0484
▁веке	-10.0485
▁Ба	-10.0488
▁среде	-10.0491
▁лечение	-10.0503
▁жил	-10.0507
▁практик	-10.0509
▁канал	-10.0516
щего	-10.0517
▁способы	-10.0524
▁научить	-10.0526
▁зову	-10.0537
▁учиться	-10.0546
цен	-10.0548
▁водой	-10.0564
▁определённы	-10.0572
▁узнали	-10.058
лы	-10.0581
ина	-10.0584
▁человеку	-10.0585
▁особо	-10.0596
▁потрясающе	-10.06
▁Боле	-10.0602
▁чисто	-10.0608
▁обычны	-10.0619
ур	-10.0622
▁выступление	-10.0636
▁сильны	-10.0649
▁список	-10.0652
▁угроз	-10.0657
▁новым	-10.0659
▁компьютеры	-10.0665
▁насчёт	-10.0671
▁одни	-10.0672
нес	-10.0676
ника	-10.0691
▁реальны	-10.0691
▁средств	-10.0699
ред	-10.0709
▁пришла	-10.0711
чу	-10.0712
▁аспект	-10.0715
▁находить	-10.0721
▁меняет	-10.0721
▁сто	-10.0724
▁никак	-10.0728
▁считает	-10.0733
▁супер	-10.0733
ново	-10.0734
▁лист	-10.0735
▁обязательно	-10.074
▁область	-10.0741
▁мобильны	-10.0748
▁Китае	-10.075
▁мечт	-10.0769
тро	-10.077
▁сумм	-10.0773
▁пространстве	-10.0782
▁понимал	-10.0788
▁остаёт	-10.0791
▁помога	-10.0793
▁особенност	-10.0797
▁экономическо	-10.0802
▁показывают	-10.0811
▁показали	-10.0813
▁спор	-10.0816
▁нему	-10.0818
слева	-10.0818
▁вызов	-10.0823
▁зависимости	-10.083
▁пе	-10.0831
▁составляет	-10.0832
▁мирово	-10.0836
▁ответственность	-10.0837
ится	-10.0839
▁обучение	-10.084
начала	-10.0841
▁документ	-10.0841
▁запис	-10.0851
▁дали	-10.0862
▁обратить	-10.0873
▁станови	-10.0882
оборот	-10.0887
ехать	-10.089
▁народ	-10.0893
вой	-10.0899
▁движени	-10.0911
ческо	-10.0913
▁политическо	-10.0914
▁данном	-10.0918
▁экран	-10.0922
итесь	-10.0934
В	-10.0936
▁неправильно	-10.0947
вать	-10.0947
▁понимаем	-10.0949
▁секунду	-10.0957
▁растения	-10.0963
▁Само	-10.0964
▁бактери	-10.0966
▁скажет	-10.0966
▁звучит	-10.0966
скажем	-10.0973
▁перемен	-10.0974
▁проходит	-10.0981
▁реклам	-10.0984
▁скоростью	-10.0998
▁получится	-10.1001
▁качество	-10.1002
▁языке	-10.101
▁увидим	-10.1011
▁чувствовал	-10.1011
▁Лос	-10.1013
▁спасти	-10.1014
зу	-10.1014
▁небольш	-10.1016
нец	-10.102
▁еду	-10.1025
▁строить	-10.1046
жной	-10.1049
▁стол	-10.1052
▁связанны	-10.1053
пустить	-10.1055
▁Видите	-10.1058
ились	-10.1068
▁автомобиль	-10.1072
▁свободно	-10.1073
уществует	-10.1077
▁случайно	-10.1082
▁любя	-10.1093
помнить	-10.11
вар	-10.1101
▁снимк	-10.1102
ран	-10.1106
▁близко	-10.1108
▁контролирова	-10.1109
просить	-10.1111
▁положение	-10.1114
▁Эй	-10.113
▁изменило	-10.1132
▁космос	-10.1136
▁военны	-10.1148
▁исследова	-10.1154
▁происходя	-10.1156
под	-10.1161
▁использовал	-10.1171
креп	-10.1173
▁путешествие	-10.1175
ально	-10.1181
ун	-10.1183
▁фильма	-10.1188
пад	-10.1192
▁Одно	-10.1197
▁некоторо	-10.1198
ственн	-10.1199
▁ответить	-10.1201
▁слыш	-10.1206
▁ближе	-10.1207
▁тяжело	-10.1209
▁офис	-10.1214
учиться	-10.1218
▁норм	-10.1224
▁усили	-10.123
▁доступны	-10.1233
▁чувствую	-10.1237
▁первых	-10.1237
▁Н	-10.1242
▁везде	-10.1246
▁пользоваться	-10.1246
▁ш	-10.1246
▁Дело	-10.1246
▁маленьк	-10.1254
▁насилия	-10.1258
▁американски	-10.1259
нная	-10.1271
▁задума	-10.1274
▁энергия	-10.1281
▁Мои	-10.1282
▁след	-10.1283
▁Вопрос	-10.129
▁велосипед	-10.1292
▁выбрать	-10.1299
▁отдельны	-10.1304
▁неудач	-10.1306
▁медицин	-10.1307
▁ниже	-10.1328
▁расположен	-10.133
льше	-10.1337
▁сделаю	-10.1338
▁шар	-10.1341
станут	-10.136
▁цифрово	-10.1367
▁государства	-10.1368
▁желез	-10.1372
▁суд	-10.1372
дите	-10.1378
вший	-10.1387
Д	-10.139
▁контакт	-10.1391
ющую	-10.1395
▁оценк	-10.1414
▁генетически	-10.1436
▁политики	-10.1436
▁наверняка	-10.1444
▁личност	-10.1445
кра	-10.1445
▁пройти	-10.145
▁умны	-10.1451
▁газ	-10.1456
▁прошлого	-10.1466
ошёл	-10.1475
▁журналист	-10.148
▁скорост	-10.1482
▁материалы	-10.1494
▁небольши	-10.1501
▁кино	-10.1503
▁доме	-10.1507
▁сталкива	-10.1509
▁взрослы	-10.1519
▁живо	-10.1522
▁ООН	-10.1528
▁рыб	-10.1529
▁случа	-10.1529
▁компьютера	-10.1529
▁онлайн	-10.153
▁задать	-10.1537
▁возможны	-10.1541
▁способов	-10.1542
▁выход	-10.1543
▁предложил	-10.1543
▁жили	-10.1547
ван	-10.1548
шло	-10.1549
вид	-10.1552
▁скорость	-10.156
▁вклад	-10.1561
дин	-10.1575
▁пациента	-10.1575
▁выглядят	-10.1576
▁страниц	-10.1582
▁попробовать	-10.1582
▁км	-10.1591
▁назвать	-10.1594
▁внутрь	-10.1595
▁растени	-10.1596
смотрим	-10.1601
▁солнечны	-10.1602
▁маленько	-10.1603
▁изменит	-10.1606
▁эксперт	-10.1607
▁страну	-10.1609
▁поведения	-10.1616
▁конференции	-10.1622
нь	-10.1624
▁Япони	-10.1626
▁решать	-10.1626
▁заболевания	-10.1627
нуть	-10.1634
▁прибор	-10.1638
ены	-10.1638
▁комнате	-10.1647
оставить	-10.1649
ьте	-10.1651
▁красот	-10.1652
тически	-10.1653
▁специально	-10.1668
ток	-10.1676
▁важным	-10.1676
▁Ка	-10.1677
▁пытался	-10.1686
▁назвал	-10.1693
▁био	-10.1693
▁газа	-10.1697
▁независимо	-10.17
тан	-10.1711
уча	-10.1712
▁лиц	-10.1713
▁нашёл	-10.1722
тр	-10.1724
имся	-10.1729
▁открыть	-10.173
▁развивать	-10.1731
▁вышл	-10.1732
▁четырёх	-10.1741
жить	-10.1745
et	-10.176
▁продуктов	-10.1761
▁связано	-10.1761
▁истин	-10.1764
▁режим	-10.1768
▁отличие	-10.1771
▁вынужден	-10.1772
кры	-10.1773
▁созда	-10.178
▁рассказ	-10.1788
▁компонент	-10.1788
ирован	-10.1788
to	-10.179
▁изучени	-10.1791
▁дал	-10.1794
ско	-10.1796
▁живущи	-10.1802
▁море	-10.1806
▁действова	-10.1815
▁еды	-10.1821
▁Бразили	-10.1821
▁атмосфер	-10.1822
щая	-10.1824
▁утром	-10.1829
▁точка	-10.1829
▁Ра	-10.183
▁старше	-10.1837
▁баз	-10.1837
▁Та	-10.1841
▁душ	-10.1844
▁методы	-10.1845
▁хочется	-10.1849
▁заставил	-10.1852
▁дают	-10.1874
▁ста	-10.1877
эн	-10.1885
▁имел	-10.1888
▁доверя	-10.1888
ир	-10.1891
▁рыбы	-10.1893
уп	-10.1894
▁потрясающи	-10.19
▁городах	-10.1903
▁Такие	-10.1909
няя	-10.1911
▁требует	-10.1916
▁жителе	-10.1924
▁рождения	-10.1931
▁Сам	-10.1936
▁смотрит	-10.1945
▁понимают	-10.1953
▁Де	-10.1954
▁действий	-10.1958
лучилось	-10.1959
▁роботов	-10.1962
▁играет	-10.197
▁экосистем	-10.1971
▁стоял	-10.1972
▁сильнее	-10.1973
▁успешно	-10.1976
▁вернулся	-10.1977
▁архитектур	-10.1981
▁огромные	-10.199
▁отца	-10.1991
▁пожалуйста	-10.1996
▁планета	-10.1998
▁пытается	-10.1998
стей	-10.2
▁Земля	-10.2011
▁достигл	-10.2013
▁страшно	-10.2016
▁Лондон	-10.2016
▁Ле	-10.2017
▁переход	-10.2022
▁творчески	-10.2026
▁воде	-10.2026
▁собрали	-10.2043
▁ранни	-10.2043
▁Великобритании	-10.2056
▁признать	-10.206
▁каких	-10.2062
▁голоса	-10.2071
▁архитектор	-10.2073
▁людях	-10.2073
▁вперед	-10.2073
▁запас	-10.2074
▁интервью	-10.2079
▁честно	-10.2085
▁привело	-10.209
▁мусор	-10.2093
▁открытия	-10.2096
▁получать	-10.2107
▁появил	-10.2113
▁Без	-10.2114
▁плохи	-10.2115
▁лекарство	-10.2116
▁биологически	-10.2124
▁конфликт	-10.2124
▁опыта	-10.2129
Л	-10.213
▁попыта	-10.213
▁сохранить	-10.2138
▁власть	-10.2143
▁приходят	-10.2145
▁словно	-10.215
нос	-10.2156
ции	-10.2164
▁используется	-10.2166
инг	-10.2169
▁посредств	-10.2175
▁ценности	-10.2175
▁столкну	-10.2175
▁перевод	-10.218
▁вкус	-10.2183
щую	-10.2186
▁заставляет	-10.2187
▁масштаба	-10.2188
овсе	-10.2198
▁развивающих	-10.2203
▁сообщество	-10.221
▁деревья	-10.2214
▁коробк	-10.2215
пы	-10.2216
▁девочка	-10.2221
▁решила	-10.2224
ад	-10.2225
фа	-10.2226
▁знаний	-10.2227
▁собственн	-10.2228
▁учителя	-10.2228
▁действие	-10.2229
менить	-10.223
▁позволяю	-10.2232
▁умер	-10.2232
эй	-10.2232
илл	-10.2233
▁Идея	-10.224
▁производство	-10.2251
▁радио	-10.2253
▁шести	-10.2254
▁мост	-10.2254
▁химически	-10.2254
гер	-10.2254
▁велико	-10.2255
шел	-10.2266
▁революции	-10.2266
▁письмо	-10.2278
▁бороться	-10.2281
▁обмен	-10.2282
▁сложные	-10.2282
▁знакомы	-10.2284
шн	-10.2286
▁смерть	-10.2286
▁наблюдаем	-10.2288
▁вызывает	-10.2291
▁медленно	-10.2293
▁смерт	-10.2294
▁общего	-10.2296
▁оружие	-10.23
▁слышал	-10.2306
щий	-10.2307
▁экологически	-10.2314
дж	-10.2318
▁Ро	-10.2319
▁приём	-10.232
▁усилия	-10.2323
▁территории	-10.2324
▁встреча	-10.2331
▁представляют	-10.2355
▁каком	-10.2364
▁богаты	-10.2366
▁имели	-10.2369
нов	-10.2371
▁понимания	-10.238
▁ума	-10.2382
▁лежит	-10.2383
▁требуется	-10.239
▁ценность	-10.2396
▁изменили	-10.2402
▁работающи	-10.2409
▁вред	-10.2416
▁похож	-10.2419
▁ребята	-10.2421
▁столь	-10.2424
▁Мир	-10.2428
▁новость	-10.2436
▁среднем	-10.2439
▁Ирак	-10.2439
▁достижения	-10.2442
▁поднять	-10.2445
▁микро	-10.2451
▁смотрел	-10.246
рос	-10.2461
▁представления	-10.2466
▁видят	-10.2473
▁верси	-10.2475
▁масс	-10.2477
▁подобно	-10.2481
▁сектор	-10.2481
▁счастье	-10.2488
▁сме	-10.2489
ложить	-10.25
▁попасть	-10.25
▁событий	-10.2503
▁заболеваний	-10.2505
▁прошло	-10.2508
▁плане	-10.2508
▁написан	-10.2514
▁открытие	-10.252
▁вырос	-10.2523
▁родил	-10.2532
▁помогл	-10.2534
▁рынка	-10.2537
▁фотографию	-10.2542
▁различия	-10.2544
▁автор	-10.2549
▁теория	-10.255
кажут	-10.2553
▁утра	-10.2555
▁оказался	-10.2556
▁согласи	-10.2556
вый	-10.2556
▁кампани	-10.2557
▁состав	-10.2569
▁сверх	-10.2586
▁счастливы	-10.2594
▁прогноз	-10.2595
▁начиная	-10.2595
▁горы	-10.2596
▁важнее	-10.2599
▁сним	-10.26
вит	-10.2608
▁понрави	-10.2614
работать	-10.2615
▁поддерживать	-10.2619
▁21	-10.2621
▁экране	-10.2622
▁находимся	-10.2622
▁рабочих	-10.2626
▁занять	-10.2629
летне	-10.2631
▁схем	-10.2638
▁биологии	-10.2642
▁чувствует	-10.2646
▁социальн	-10.2648
▁затрат	-10.2648
▁деятельности	-10.2649
▁вновь	-10.2649
ест	-10.2655
ала	-10.2668
▁университета	-10.2671
ики	-10.2674
▁научили	-10.2675
▁отправить	-10.2677
▁просты	-10.2678
▁науке	-10.2679
нной	-10.2686
▁красивы	-10.269
ющими	-10.2693
▁техник	-10.2694
▁замети	-10.2698
▁восемь	-10.2703
▁каса	-10.2707
▁рамках	-10.2707
▁вопроса	-10.271
▁удовольствие	-10.2716
▁пуст	-10.2719
отен	-10.2724
▁началось	-10.2726
▁взаимодействия	-10.2729
▁называемы	-10.2734
▁реальном	-10.2734
▁воздуха	-10.2735
▁век	-10.274
▁друзьями	-10.2741
екты	-10.2741
▁название	-10.2749
▁Перед	-10.2751
▁бомб	-10.2752
▁едино	-10.2753
▁изменил	-10.2756
▁растёт	-10.2757
▁Обычно	-10.2765
▁вещества	-10.277
▁задумать	-10.2786
ники	-10.2786
▁учат	-10.2787
лучается	-10.2799
сер	-10.281
це	-10.2815
▁команды	-10.2816
▁спрашиваю	-10.282
▁построен	-10.2823
▁защитить	-10.2828
▁контроля	-10.2828
▁крови	-10.2842
▁цивилизаци	-10.2844
▁Марс	-10.2847
▁Пере	-10.2848
▁тонн	-10.2851
▁подходит	-10.2853
чные	-10.2861
▁самостоятельно	-10.2862
▁дерево	-10.2867
▁американцев	-10.2868
▁хватает	-10.287
▁позици	-10.2872
▁сложност	-10.2872
▁сверху	-10.2877
скольк	-10.2883
▁север	-10.289
▁средни	-10.2896
▁существовал	-10.2918
▁понятие	-10.2924
▁эффективны	-10.2926
▁разобраться	-10.2928
ительн	-10.2931
▁передать	-10.2939
▁Калифорнии	-10.2943
вши	-10.2947
▁восприятие	-10.2951
▁лекарств	-10.2968
▁организация	-10.2968
▁туалет	-10.2978
▁Вашингтон	-10.2978
▁технически	-10.2981
рез	-10.2981
нным	-10.2985
▁особ	-10.2988
▁внезапно	-10.3
▁дорого	-10.3002
▁охран	-10.3002
▁бумаги	-10.3002
▁группу	-10.3005
▁вечер	-10.3022
мимо	-10.3023
▁Северно	-10.3024
▁199	-10.3025
▁относит	-10.3026
▁контроль	-10.3026
▁прошлое	-10.3027
▁осозна	-10.3032
▁учёных	-10.3033
▁ткани	-10.3033
▁одному	-10.3034
▁Им	-10.3036
▁150	-10.3037
▁возвраща	-10.3041
▁перспектив	-10.3054
▁редко	-10.3055
она	-10.306
карту	-10.3063
▁увеличить	-10.3072
ился	-10.3075
▁разве	-10.3079
легка	-10.3081
▁пределам	-10.3084
▁семей	-10.3085
▁культура	-10.3088
▁Сколько	-10.309
▁шимпанзе	-10.309
▁вещах	-10.309
▁сцене	-10.3091
▁Билл	-10.3094
▁услышал	-10.3096
▁общин	-10.3096
▁мышления	-10.3101
▁проводить	-10.3103
очу	-10.3104
▁общения	-10.3109
▁отправил	-10.3116
браться	-10.3117
▁отношении	-10.3117
▁зачем	-10.3118
▁получит	-10.3122
▁минуту	-10.3125
▁сложнее	-10.313
▁шум	-10.3131
вшего	-10.3141
▁Вообще	-10.3146
▁неделе	-10.3151
▁элементы	-10.3153
▁активно	-10.3153
▁добавить	-10.3161
▁бесплатно	-10.3162
▁безопасность	-10.3169
▁опасно	-10.3169
прежнем	-10.3175
▁Три	-10.3177
▁отличны	-10.3182
ует	-10.3183
▁бизнеса	-10.3189
▁робота	-10.3193
▁высок	-10.3195
▁эпох	-10.3197
▁хлеб	-10.3203
▁гены	-10.3204
▁проще	-10.3206
▁получени	-10.3206
▁признак	-10.321
нут	-10.3213
▁настоящ	-10.3217
▁вашим	-10.3222
▁утро	-10.3231
▁2000	-10.3234
▁лёгки	-10.3239
▁историй	-10.3239
▁средне	-10.3242
▁мимо	-10.3244
▁медицински	-10.3249
▁построили	-10.3249
▁президент	-10.3252
▁довери	-10.3258
▁память	-10.326
▁деятельность	-10.326
▁собирает	-10.3269
▁Мак	-10.3272
▁класса	-10.3279
▁Запад	-10.3286
▁произ	-10.3297
▁выходит	-10.3299
▁плава	-10.3302
цев	-10.3307
▁материалов	-10.3307
гла	-10.3308
▁мировы	-10.3311
▁Лад	-10.3315
▁информацией	-10.3317
▁памяти	-10.3317
▁обработк	-10.3318
▁запах	-10.3318
▁приходилось	-10.3319
ваем	-10.3323
▁пят	-10.3328
▁нефть	-10.333
▁долг	-10.3337
▁компанию	-10.3341
▁студенты	-10.3354
▁единственн	-10.3361
▁существу	-10.3362
▁Бо	-10.3364
▁продукты	-10.3369
▁п	-10.337
▁ВВП	-10.3375
▁девочек	-10.3375
▁предложение	-10.3382
▁жертв	-10.3384
▁планет	-10.3385
▁завод	-10.3388
тесь	-10.3392
▁определяет	-10.3394
▁полу	-10.3394
▁финансовы	-10.3395
▁занимал	-10.3398
▁рассмотре	-10.3401
▁любил	-10.3405
лучится	-10.3407
▁идет	-10.3409
▁проектов	-10.3418
▁звёзд	-10.3421
▁причинам	-10.3436
▁Зач	-10.3439
нер	-10.344
▁отдел	-10.3446
▁срок	-10.3449
▁суб	-10.3452
▁представител	-10.3453
▁рек	-10.3454
▁показан	-10.3454
кар	-10.3459
кер	-10.3459
астую	-10.3462
▁пост	-10.3466
▁прийти	-10.3473
▁индустри	-10.3478
▁игру	-10.3483
▁штата	-10.3484
▁стар	-10.3485
▁борьбе	-10.3488
▁возможным	-10.3488
▁какую	-10.3491
▁Австрали	-10.3492
▁задумыва	-10.3492
▁половина	-10.3494
▁существа	-10.3496
▁закончил	-10.3503
тата	-10.3513
▁поставил	-10.3523
▁занимают	-10.3526
▁животно	-10.3532
▁окружающ	-10.3537
ским	-10.354
▁простым	-10.3543
▁детски	-10.3544
уют	-10.3546
▁автобус	-10.3551
▁сделает	-10.3551
▁услышать	-10.3551
▁телескоп	-10.3551
▁Рас	-10.3551
▁зач	-10.3559
▁понятно	-10.3566
▁директор	-10.3577
есь	-10.3582
▁фотограф	-10.3598
▁университет	-10.3598
вет	-10.36
▁находи	-10.3602
▁наук	-10.3602
▁поля	-10.3604
▁важн	-10.3605
▁правы	-10.3606
▁инвестици	-10.3607
▁Аль	-10.3609
▁грипп	-10.361
▁содержит	-10.361
▁коротки	-10.3615
▁маленьким	-10.3618
мор	-10.362
ывает	-10.3623
▁комнат	-10.3623
▁насилие	-10.3628
▁невероятны	-10.3633
▁ведёт	-10.3636
▁оцени	-10.3636
▁конкретно	-10.3643
▁гражданско	-10.3648
ог	-10.3651
▁красиво	-10.3655
▁прос	-10.3656
нц	-10.366
▁Значит	-10.3667
▁груди	-10.3668
▁Университет	-10.3669
▁благотворительн	-10.3669
▁сообщение	-10.3679
▁продолжи	-10.368
▁поехал	-10.3682
▁остановить	-10.3686
▁полны	-10.3687
▁движет	-10.3688
▁парня	-10.3691
нять	-10.3693
▁доступно	-10.37
▁солдат	-10.3709
▁пищи	-10.3709
▁солнечно	-10.3716
▁ключ	-10.3725
чат	-10.3725
чная	-10.3725
▁постепенно	-10.3729
▁Соединённы	-10.3729
▁речи	-10.373
▁Ответ	-10.373
▁позволь	-10.3735
▁красны	-10.3739
▁участи	-10.374
▁района	-10.3744
жать	-10.375
▁помог	-10.3752
▁исследовани	-10.3753
▁глазами	-10.3754
роста	-10.3756
▁закончить	-10.3759
▁электрически	-10.3763
ана	-10.3764
▁роли	-10.3773
кал	-10.3777
▁картина	-10.3777
▁результатов	-10.3779
▁самолёт	-10.3784
доль	-10.3787
▁коррупци	-10.379
▁учителе	-10.3795
▁кожи	-10.3797
▁линия	-10.3797
идеть	-10.3803
▁кусочк	-10.3803
▁отличается	-10.3804
▁серьёзны	-10.3806
▁Вмест	-10.3806
▁име	-10.3807
▁Ре	-10.3807
▁медицинско	-10.3811
▁роди	-10.3813
▁полезны	-10.3816
▁брат	-10.3817
▁бор	-10.3821
▁трех	-10.3823
▁представлен	-10.3828
генов	-10.3829
ству	-10.3845
▁шоу	-10.3846
▁теми	-10.3847
очки	-10.3855
▁веб	-10.3859
▁игрок	-10.3861
▁континент	-10.3868
▁ресторан	-10.3882
▁прочита	-10.3883
▁причине	-10.3893
стоит	-10.3899
тре	-10.3908
▁единиц	-10.3912
▁смотрю	-10.3913
▁обнаружить	-10.3915
▁благо	-10.3917
▁стволовы	-10.3919
ойти	-10.3931
▁искал	-10.3934
▁предложи	-10.3954
▁стади	-10.3954
▁неожиданно	-10.3956
▁помогаю	-10.3961
▁война	-10.3966
иц	-10.3969
▁продолжительно	-10.3972
▁Джордж	-10.3972
Н	-10.3973
▁удастся	-10.3973
▁третий	-10.3974
▁районе	-10.398
▁школ	-10.3986
▁потеря	-10.3988
▁чист	-10.3989
▁кор	-10.3992
ич	-10.3992
▁ближайши	-10.3993
▁сидит	-10.3998
▁взрыв	-10.4004
▁газет	-10.4004
ена	-10.4006
▁измерения	-10.4007
▁смотрели	-10.4007
▁поместить	-10.4018
▁самим	-10.4023
ген	-10.4024
▁исключение	-10.4039
▁смотрят	-10.4039
▁35	-10.404
▁честь	-10.4041
▁спин	-10.4046
▁Ди	-10.405
▁проб	-10.4051
▁устройств	-10.4052
▁существ	-10.4052
▁какого	-10.4062
▁Друго	-10.4064
▁внутренне	-10.4064
▁точк	-10.4066
▁сознание	-10.4067
▁знак	-10.4069
▁биологи	-10.4071
▁правил	-10.4071
▁множеств	-10.4073
езд	-10.4074
▁торговл	-10.4075
▁открыл	-10.4078
точку	-10.408
▁телевизор	-10.4085
▁природа	-10.4087
ирование	-10.4091
▁встретил	-10.4092
▁Ричард	-10.4096
▁Индия	-10.4096
▁Нас	-10.41
▁блок	-10.4104
▁глобальны	-10.4105
▁цикл	-10.4106
аж	-10.4111
ян	-10.4116
▁общественны	-10.4123
легче	-10.4136
▁учитыва	-10.414
▁традиционны	-10.4142
▁полезно	-10.4144
▁воспользова	-10.4148
У	-10.415
▁труда	-10.4154
▁костюм	-10.4159
▁клиник	-10.416
▁проводим	-10.4161
▁хоч	-10.4171
▁любы	-10.4177
вание	-10.4178
▁получила	-10.4181
тен	-10.4185
▁отвечаю	-10.4187
▁болезней	-10.4194
▁Земл	-10.4202
начал	-10.4202
▁правильны	-10.4204
ясн	-10.421
▁роман	-10.4219
▁экономика	-10.422
▁математик	-10.422
▁карта	-10.423
меры	-10.423
▁фонд	-10.423
▁играю	-10.4239
▁ребёнком	-10.424
▁юг	-10.4246
▁пригласил	-10.4249
▁частны	-10.4251
▁ужас	-10.4255
▁Кажд	-10.4265
▁травм	-10.4266
▁Африка	-10.427
▁разнообразие	-10.427
▁сущност	-10.4276
▁страха	-10.4278
▁деревьев	-10.4285
▁десять	-10.4295
▁производить	-10.4298
нного	-10.4298
▁установить	-10.4303
нием	-10.4309
▁примени	-10.4311
▁кофе	-10.4312
▁университете	-10.4315
▁морско	-10.4315
▁измери	-10.4317
▁кровь	-10.4321
▁ожидал	-10.4324
▁сторона	-10.4327
▁машине	-10.4333
пуск	-10.4339
▁пошли	-10.434
орка	-10.4342
реб	-10.4342
▁блог	-10.4347
▁Наконец	-10.4349
▁мол	-10.4357
▁внутренни	-10.4363
▁числе	-10.4363
▁небо	-10.4366
▁слушать	-10.4368
ечен	-10.4368
▁ужасны	-10.4372
▁взаимосвяз	-10.439
стоять	-10.44
▁сообщения	-10.4402
▁современны	-10.4402
▁существующи	-10.4406
▁материала	-10.441
▁сотруднича	-10.4419
▁Африк	-10.4419
▁проверить	-10.4425
▁разговарива	-10.4434
▁попытать	-10.4435
▁команд	-10.4444
▁сери	-10.4445
▁перестал	-10.445
▁операции	-10.4451
▁характер	-10.4457
▁текст	-10.4462
▁Кита	-10.4475
▁Человек	-10.4477
▁Нигери	-10.4477
▁Боже	-10.4481
▁ограничен	-10.4482
▁ум	-10.4482
ee	-10.4491
▁безопасно	-10.4492
чных	-10.4493
▁выброс	-10.4493
пан	-10.4495
▁прош	-10.45
▁Па	-10.4502
лон	-10.4502
▁исключительно	-10.4504
▁оставил	-10.4505
шек	-10.4509
скую	-10.4513
▁системой	-10.4518
▁верил	-10.4523
▁любит	-10.4532
лён	-10.4533
▁прост	-10.4542
▁предотврати	-10.4542
▁мышц	-10.4545
▁мозге	-10.4547
▁едва	-10.4548
▁топлива	-10.4554
ция	-10.4555
ировали	-10.4556
лер	-10.4557
▁служб	-10.4559
▁пик	-10.4561
▁дверь	-10.4562
▁живу	-10.4562
▁жена	-10.457
▁использую	-10.457
▁ощущения	-10.4573
▁Иран	-10.4577
▁значения	-10.4577
▁мальчик	-10.4577
раж	-10.4584
▁забот	-10.4592
▁книге	-10.4592
▁возникл	-10.4592
▁э	-10.4594
▁надея	-10.46
▁Конгресс	-10.4608
▁протез	-10.4608
▁комнату	-10.4612
▁интересное	-10.4616
▁стандарт	-10.4633
▁Кени	-10.4637
▁открывает	-10.4642
▁идеально	-10.4659
▁справить	-10.466
▁прошли	-10.4661
▁штук	-10.4672
▁Мужчин	-10.4673
▁минимум	-10.4673
▁полагаю	-10.4677
▁отвечает	-10.468
вые	-10.4683
▁Много	-10.4685
▁жен	-10.4699
▁дочь	-10.4702
▁нос	-10.4702
печат	-10.4704
▁вер	-10.4708
вес	-10.4712
▁пресс	-10.4714
яя	-10.4725
▁парк	-10.4725
▁другому	-10.4728
▁собирать	-10.4728
▁Ваш	-10.4729
▁долги	-10.4729
▁потратил	-10.4729
спе	-10.4738
▁импульс	-10.474
ясняет	-10.4742
▁поезд	-10.4743
▁поставить	-10.4752
▁одинаково	-10.4752
▁пищ	-10.4753
▁превратить	-10.4759
▁сознания	-10.4765
▁люб	-10.477
▁Каков	-10.477
▁соглас	-10.4771
▁капитал	-10.4782
▁бывает	-10.4782
▁национально	-10.4783
▁знаком	-10.4786
дет	-10.4788
▁приняли	-10.4792
▁пустын	-10.4792
ром	-10.4793
▁ядерно	-10.4795
▁22	-10.4795
▁отправили	-10.4795
вшая	-10.4799
▁чёрны	-10.4802
шей	-10.4803
ват	-10.4805
▁карман	-10.4806
▁фотографий	-10.4809
▁кра	-10.4816
▁актив	-10.4817
▁обед	-10.4818
▁клетка	-10.4818
ётся	-10.4821
▁солнце	-10.4821
▁сотрудничеств	-10.4826
вшей	-10.4829
кая	-10.483
▁глубоки	-10.4831
▁назвали	-10.4836
▁физическо	-10.484
ников	-10.4854
▁производит	-10.4865
▁Азии	-10.4866
▁видела	-10.4868
участвовать	-10.4874
пре	-10.4874
ард	-10.4875
▁повезло	-10.4876
▁питания	-10.4882
▁Два	-10.4885
▁молекул	-10.4886
▁одинаковы	-10.4887
▁проектом	-10.4894
чки	-10.49
ранциск	-10.4903
▁мощны	-10.4904
ировал	-10.4907
▁мер	-10.4908
▁продолжа	-10.4911
▁термин	-10.4913
▁создаё	-10.4913
▁сообществ	-10.4918
эр	-10.4924
▁сидя	-10.4929
▁масса	-10.4929
▁заинтересован	-10.493
▁простые	-10.4935
▁Джо	-10.4936
▁создава	-10.4939
ика	-10.4939
▁степень	-10.495
▁местност	-10.4953
▁детстве	-10.4959
▁Че	-10.4963
▁головно	-10.4968
▁риска	-10.4978
щик	-10.4978
▁жизне	-10.4979
овал	-10.498
▁спрашива	-10.4983
▁произошл	-10.4986
▁больниц	-10.4989
▁основно	-10.4991
▁Очевидно	-10.5009
▁изучить	-10.5009
▁зарплат	-10.5009
режде	-10.501
▁датчик	-10.5012
▁инструментов	-10.5016
▁операци	-10.5023
жны	-10.5026
▁молод	-10.5027
▁приносит	-10.5031
▁моря	-10.5032
▁компьютерны	-10.5034
▁длинны	-10.5035
вается	-10.5036
ления	-10.5036
▁альтернатив	-10.5038
▁счастлив	-10.504
▁анти	-10.5045
▁квартир	-10.5045
▁обеспечени	-10.5051
▁творчеств	-10.5055
▁работ	-10.5056
▁Правд	-10.5058
▁микроб	-10.5063
▁привыкл	-10.5063
▁лучшим	-10.5064
актически	-10.5065
▁реакция	-10.5072
▁вскоре	-10.5075
▁Твиттер	-10.5077
▁песня	-10.5079
▁опрос	-10.5086
даст	-10.5086
▁пещер	-10.5086
дра	-10.5087
▁авари	-10.5088
изма	-10.5089
лад	-10.5094
ступить	-10.5097
ации	-10.5101
звать	-10.5102
▁баланс	-10.5102
▁окружающи	-10.5112
▁вечером	-10.5114
▁ждать	-10.5115
▁профессор	-10.5115
▁природу	-10.5119
▁рисунк	-10.5119
▁годов	-10.5119
ней	-10.5119
сты	-10.5125
▁принимают	-10.5125
вания	-10.5126
▁непосредственно	-10.5131
▁надежды	-10.5132
▁скульптур	-10.5132
▁течени	-10.5134
▁градус	-10.5136
▁Кон	-10.514
▁мирового	-10.5144
▁дополнительны	-10.5148
▁молекулы	-10.5148
▁морски	-10.515
▁пришло	-10.5152
▁Дети	-10.5152
▁Лун	-10.5156
▁Отлично	-10.5158
▁событие	-10.5158
▁управление	-10.5163
▁личны	-10.5163
▁коллег	-10.5163
▁миров	-10.5163
▁поступил	-10.517
▁семи	-10.5178
▁кредит	-10.5201
хожу	-10.5202
▁звезд	-10.5206
▁влия	-10.5207
▁настояще	-10.5208
▁институт	-10.5209
енный	-10.5209
▁Бр	-10.521
▁обладаю	-10.521
▁рассказываю	-10.5216
▁литератур	-10.5216
▁письма	-10.5216
▁прототип	-10.5216
▁подготовк	-10.5216
▁аплодисменты	-10.5219
▁оружия	-10.5224
▁средство	-10.5226
▁отдельно	-10.5229
▁лидеров	-10.5231
▁образовани	-10.5231
▁хорошим	-10.5234
кам	-10.5238
▁национальны	-10.5239
части	-10.5241
▁работой	-10.5243
▁любую	-10.5243
щ	-10.5245
▁животным	-10.5248
▁экономи	-10.525
▁компьютеров	-10.5251
▁врач	-10.5261
чески	-10.5264
вели	-10.5265
▁ежедневно	-10.5269
▁поколени	-10.527
▁главным	-10.5275
▁ответа	-10.5279
▁враг	-10.528
ках	-10.5283
▁Андерсон	-10.5286
▁портрет	-10.5286
▁поразительно	-10.5286
▁концепци	-10.5286
▁плод	-10.5289
растут	-10.5289
▁физики	-10.5295
▁Марк	-10.5296
вых	-10.5298
▁распространения	-10.53
▁сентября	-10.53
▁сексуально	-10.5304
▁атмосферу	-10.5305
стан	-10.5316
▁перемены	-10.5323
▁американц	-10.5323
▁Самы	-10.5332
▁кус	-10.5335
▁ведут	-10.5339
дём	-10.5352
грамм	-10.5353
▁арми	-10.5353
▁Гор	-10.5355
▁нежел	-10.5361
▁слышать	-10.5361
▁спас	-10.5361
▁Причин	-10.5367
▁уме	-10.5369
▁детали	-10.5373
▁авто	-10.5382
▁рыба	-10.5386
альны	-10.5388
▁экономике	-10.5396
▁доказа	-10.5398
▁нрави	-10.54
▁Другим	-10.5409
▁оказаться	-10.5422
носят	-10.5426
▁Дэвид	-10.5428
▁отчёт	-10.5429
▁избавиться	-10.5431
▁интересует	-10.5431
▁23	-10.5435
▁необходимост	-10.5438
▁хороша	-10.5443
▁коммуникаци	-10.5445
▁смысла	-10.5445
ган	-10.5449
бросить	-10.5461
▁раздел	-10.5463
ектов	-10.5469
ап	-10.5472
▁бактерий	-10.5479
▁явление	-10.5482
▁поднима	-10.5482
щи	-10.5483
▁трав	-10.5484
йдём	-10.5484
▁песн	-10.5485
▁парти	-10.5487
явить	-10.5488
▁доступа	-10.5489
▁процента	-10.5496
▁счастья	-10.5499
▁триллион	-10.55
▁вчера	-10.5501
▁детско	-10.5502
▁бесконечно	-10.5503
▁крив	-10.5503
▁превращает	-10.5504
▁самолет	-10.5508
нное	-10.5517
▁Ниче	-10.5518
▁спрос	-10.5524
▁специалист	-10.5526
▁местно	-10.5528
реки	-10.5529
▁маленькую	-10.5533
▁структура	-10.5533
▁жест	-10.5536
▁главны	-10.5541
▁эпидеми	-10.5541
▁стены	-10.5545
долго	-10.5547
▁открыт	-10.5551
▁международны	-10.5553
бит	-10.5558
▁десятилетия	-10.5559
▁купил	-10.5559
▁заключа	-10.556
▁опасны	-10.556
▁картины	-10.5569
брос	-10.5573
▁развива	-10.5574
пит	-10.5583
енные	-10.5587
рис	-10.559
▁запрет	-10.5595
▁Вас	-10.56
чка	-10.5603
▁климат	-10.5603
▁мод	-10.5604
▁наблюдения	-10.5607
▁образц	-10.5607
▁камеры	-10.5617
▁Англии	-10.5617
▁электронны	-10.5618
▁команду	-10.562
▁изменила	-10.5623
▁обязан	-10.5626
▁дает	-10.5634
▁транспорт	-10.5636
▁уверены	-10.5637
▁Друг	-10.5639
▁интерфейс	-10.5643
▁площад	-10.5644
▁бедност	-10.5645
▁Наде	-10.5648
▁участник	-10.5652
▁напоминает	-10.5659
▁2010	-10.566
▁среда	-10.5664
ива	-10.5671
▁центра	-10.5673
▁встретить	-10.5676
▁сообща	-10.5684
▁Ар	-10.5686
▁международно	-10.5688
важен	-10.5689
▁сетк	-10.569
▁бюджет	-10.569
▁сосуд	-10.5696
▁дохода	-10.5707
ге	-10.5707
▁выбрали	-10.5707
▁рассказывал	-10.5713
водить	-10.5724
▁жизненно	-10.5726
▁позвонил	-10.5738
▁покупк	-10.5749
▁медицины	-10.5751
▁политика	-10.5753
▁преврати	-10.5759
▁Ло	-10.5763
▁порядка	-10.577
▁ос	-10.577
▁разным	-10.5772
▁коротко	-10.5773
▁стратеги	-10.5775
▁мусульман	-10.5779
▁цена	-10.578
▁содержание	-10.5781
единить	-10.5784
▁сбор	-10.5786
▁финансово	-10.5786
▁звезды	-10.5791
▁рамк	-10.5796
▁Бер	-10.5798
▁Бу	-10.5803
▁конкретны	-10.5807
▁данно	-10.5811
ление	-10.5815
▁доктора	-10.5816
▁искусственно	-10.5818
▁девочки	-10.5818
▁уверенность	-10.5822
▁Разве	-10.5823
▁Му	-10.5831
▁лучш	-10.5834
▁мо	-10.5835
▁отсутствие	-10.5835
▁держать	-10.5838
исты	-10.5856
▁космически	-10.5858
▁оборудование	-10.5862
▁диагноз	-10.5864
▁Интересно	-10.5864
▁найдёт	-10.5864
▁точне	-10.5864
лей	-10.5865
нёс	-10.5865
▁ребенка	-10.587
▁Бога	-10.587
▁повлия	-10.5872
▁планету	-10.5872
▁потребност	-10.5876
знала	-10.5876
роз	-10.588
▁созданны	-10.588
▁миф	-10.588
▁обраща	-10.5883
опасности	-10.5887
▁ферм	-10.5887
тическо	-10.5895
▁существова	-10.5895
▁замечательн	-10.5896
▁мозгу	-10.5898
▁углу	-10.5902
▁зрение	-10.5904
▁порядо	-10.5908
туда	-10.5909
▁древни	-10.5911
▁феномен	-10.5911
▁смен	-10.5916
середине	-10.5921
▁огромным	-10.5921
▁естественны	-10.5924
▁переста	-10.5924
▁спросит	-10.5926
▁психологи	-10.5934
▁специальны	-10.5934
▁электричеств	-10.5936
▁изначально	-10.5938
▁показатели	-10.5938
▁привлечь	-10.5938
▁реформ	-10.5938
▁бог	-10.5938
▁Последни	-10.5938
▁считали	-10.594
▁мелки	-10.594
▁умирают	-10.5942
▁беженце	-10.5942
▁автомобиля	-10.595
▁эксперимента	-10.5951
▁полос	-10.5951
▁боли	-10.5953
▁долин	-10.5957
▁выда	-10.5959
▁восстановить	-10.5966
▁Больше	-10.5966
▁способа	-10.5976
▁коллеги	-10.598
шен	-10.5984
▁приятно	-10.5989
▁крупнейши	-10.5998
▁взросл	-10.6
▁сделанны	-10.6001
▁Кар	-10.6002
▁бур	-10.6003
▁орбит	-10.6003
▁полёт	-10.6007
брасыва	-10.6011
▁начнём	-10.6013
▁нравятся	-10.6014
пон	-10.6014
▁истори	-10.6022
▁принимает	-10.6023
▁отсюда	-10.6027
▁презентаци	-10.6031
▁тепло	-10.6033
▁карте	-10.6039
▁Га	-10.6041
▁воспоминания	-10.6042
▁20-	-10.6043
▁революция	-10.6055
▁человеческ	-10.6058
▁насекомых	-10.6062
▁ником	-10.6063
▁давление	-10.6064
▁глазах	-10.6073
▁некотором	-10.6075
▁проекте	-10.6075
▁распозна	-10.6085
▁счет	-10.6089
▁астероид	-10.6089
▁ландшафт	-10.6089
▁Эд	-10.6099
▁развиты	-10.61
▁предположи	-10.6101
чную	-10.6101
▁предметы	-10.6109
▁зданий	-10.6112
верим	-10.6113
ари	-10.6115
эк	-10.6117
▁труб	-10.6124
▁равны	-10.6124
▁всяки	-10.6125
реш	-10.6126
▁спрашивал	-10.6128
▁выбрал	-10.6133
▁Ча	-10.6136
ший	-10.6136
▁пчёл	-10.6145
▁свете	-10.6146
▁путе	-10.6149
▁развивает	-10.6151
▁Други	-10.6154
▁закончи	-10.6157
▁предсказа	-10.6158
нят	-10.616
▁бренд	-10.6166
▁электричество	-10.6168
▁религиозны	-10.6168
▁медиа	-10.6169
фер	-10.6176
вра	-10.6178
▁Помнит	-10.6179
▁государственны	-10.6191
▁стресс	-10.6196
▁предостави	-10.6202
▁добро	-10.6207
▁Буду	-10.6215
верят	-10.6222
против	-10.6223
▁чувствуют	-10.6223
мент	-10.6223
▁крошечны	-10.6236
▁вруч	-10.6238
▁стреми	-10.6238
▁диск	-10.6241
▁происхождени	-10.6242
▁Работа	-10.6242
▁обладает	-10.6245
▁победи	-10.6246
▁высше	-10.6251
▁списк	-10.6252
▁работников	-10.6261
лева	-10.6261
▁мыши	-10.6262
▁компьютерно	-10.627
▁государств	-10.6276
▁старо	-10.6277
▁Кол	-10.6277
▁радость	-10.6279
▁школа	-10.628
▁парне	-10.628
▁включает	-10.6284
▁симптом	-10.6286
▁завтра	-10.63
яснение	-10.6303
▁государственно	-10.631
▁камера	-10.6314
нно	-10.632
▁Джеймс	-10.632
▁показатель	-10.632
новому	-10.6323
енных	-10.6324
▁резко	-10.6325
▁прорыв	-10.6328
50	-10.6329
▁определение	-10.6329
▁минуты	-10.633
▁стоил	-10.6332
▁чётко	-10.6334
▁активист	-10.6335
▁задание	-10.634
шие	-10.6344
▁похожа	-10.6345
▁размышля	-10.6347
▁состояния	-10.6348
кажите	-10.6359
▁создает	-10.636
▁среднего	-10.6371
ид	-10.6376
▁квадрат	-10.6377
▁мал	-10.638
▁ученик	-10.6381
▁микроскоп	-10.6381
ница	-10.6382
▁кости	-10.6386
▁взаимодействие	-10.6388
▁Германии	-10.6397
▁ноутбук	-10.6398
▁опухоль	-10.6398
▁плюс	-10.6398
▁дорогу	-10.64
▁выяснил	-10.6402
онд	-10.6404
▁динозавр	-10.6405
▁персонаж	-10.6406
▁веществ	-10.6406
водит	-10.641
справить	-10.6411
рыв	-10.6416
▁колледж	-10.6418
ёк	-10.6419
▁волн	-10.6423
жители	-10.6431
▁задачу	-10.6433
▁предела	-10.6435
▁попытка	-10.6439
▁круто	-10.6444
▁пл	-10.6444
▁автомобилей	-10.6444
▁странам	-10.6447
▁открыли	-10.6458
▁мед	-10.6459
▁космическо	-10.6461
клад	-10.6464
▁лесов	-10.6466
думала	-10.6467
▁фрагмент	-10.6477
ас	-10.6477
▁чувств	-10.6477
▁традици	-10.6478
рин	-10.6482
▁культуре	-10.6483
▁периода	-10.6485
tu	-10.6489
плоть	-10.6489
▁Какой	-10.6491
▁платить	-10.6493
▁производят	-10.6494
▁контексте	-10.6496
кладыва	-10.6501
▁придет	-10.6503
пло	-10.651
▁внешне	-10.6512
▁устойчиво	-10.6514
рани	-10.6525
▁головы	-10.6528
▁учили	-10.6533
▁острова	-10.6537
▁позволя	-10.6539
▁нужд	-10.654
▁Поз	-10.6544
айте	-10.6545
▁уйти	-10.6552
▁расход	-10.6555
▁начнёт	-10.6556
▁Голос	-10.6556
▁Томас	-10.6557
▁Каж	-10.6558
▁граждански	-10.6558
▁наград	-10.656
▁бутылк	-10.6561
нс	-10.6562
▁лини	-10.6564
▁зелёны	-10.6564
▁называть	-10.6569
▁имена	-10.657
▁присутствующи	-10.6571
сил	-10.6573
▁общ	-10.6585
▁плеч	-10.659
▁принесл	-10.6598
▁африкански	-10.6598
▁слышит	-10.6602
▁критик	-10.6604
▁Марсе	-10.6608
▁последовательно	-10.6613
двига	-10.6613
▁ярки	-10.6613
▁народа	-10.6616
▁почв	-10.6618
▁региона	-10.6619
▁компани	-10.662
▁Ми	-10.6622
щее	-10.6628
ниц	-10.6629
виду	-10.663
сов	-10.6634
▁Звук	-10.6636
▁квартал	-10.6636
▁частично	-10.6643
▁писал	-10.6648
рож	-10.6648
пал	-10.665
ило	-10.6653
▁доклад	-10.6665
▁фабрик	-10.6667
▁помогал	-10.667
▁песню	-10.6673
▁поэт	-10.6677
▁опубликовал	-10.6679
овое	-10.6683
▁кризиса	-10.6684
▁вечно	-10.6688
▁отвеча	-10.6689
▁сострадание	-10.6692
▁разработки	-10.6692
▁прибыль	-10.6693
▁Майкл	-10.67
▁статистик	-10.6703
▁неплохо	-10.6716
▁потребления	-10.6718
▁проверк	-10.6718
▁2009	-10.6723
екта	-10.6724
▁банк	-10.6726
▁тема	-10.673
▁надежда	-10.6733
▁игрушк	-10.6735
▁органы	-10.6735
▁высоким	-10.6736
▁путешествия	-10.6747
казать	-10.6752
▁Ново	-10.6752
▁двига	-10.6753
▁Афганистан	-10.6754
▁Европы	-10.676
▁Афганистане	-10.6761
▁добра	-10.6762
▁увеличение	-10.6768
▁вспомни	-10.6775
▁воздействие	-10.6779
▁ранне	-10.6779
альный	-10.6782
▁функци	-10.6784
▁волос	-10.6784
▁ритм	-10.6786
▁установлен	-10.6791
▁плох	-10.6792
▁организмы	-10.6792
▁здоров	-10.6795
▁аргумент	-10.6798
▁хвост	-10.6798
▁Почти	-10.6798
▁передачи	-10.6799
▁акт	-10.6799
▁Бен	-10.68
знаком	-10.6802
▁распространение	-10.6808
▁делается	-10.6814
▁читал	-10.6819
▁различи	-10.6823
моем	-10.6824
▁рабоче	-10.6826
етей	-10.6827
▁позволяющи	-10.6827
▁первом	-10.6831
▁стоят	-10.6832
▁простая	-10.6833
▁телефона	-10.6834
▁собираются	-10.6838
▁театр	-10.6847
▁разрешение	-10.6853
▁чип	-10.6856
▁заболевание	-10.6858
тки	-10.6858
▁Следующи	-10.6863
▁библиотек	-10.6867
▁чернокожи	-10.6868
любить	-10.6869
▁симметри	-10.6869
▁спектр	-10.6871
▁метра	-10.6873
▁физик	-10.6876
▁утверждаю	-10.688
▁стиле	-10.6882
▁девушка	-10.6884
▁финансов	-10.6889
вол	-10.6894
▁подростков	-10.6896
▁рабочие	-10.6904
▁поездк	-10.6905
▁вод	-10.6906
▁применения	-10.6907
▁акул	-10.6909
▁доверие	-10.6912
▁примера	-10.6916
▁здоровы	-10.6918
▁выращива	-10.692
ряд	-10.6926
нными	-10.6935
тка	-10.6937
▁ужин	-10.694
▁улица	-10.6945
▁политическ	-10.6953
▁рассматривать	-10.6955
▁величин	-10.6955
▁нерв	-10.6957
▁частот	-10.6957
▁верх	-10.6961
жно	-10.6961
чек	-10.6962
▁гипотез	-10.6963
▁наслажда	-10.6963
▁выразить	-10.6963
▁палец	-10.6963
▁сделаны	-10.6964
▁отличаются	-10.6967
▁направление	-10.6968
▁риф	-10.6969
лететь	-10.6969
▁чтоб	-10.6971
▁женщинам	-10.6976
▁спорт	-10.6987
▁дорога	-10.6988
▁атак	-10.6988
сек	-10.6989
▁обрати	-10.6989
▁какими	-10.699
▁составляют	-10.6994
▁фундаментальны	-10.6998
▁добавил	-10.6998
▁электро	-10.6999
▁сел	-10.7
▁останет	-10.7003
▁большом	-10.7008
▁задавать	-10.7018
▁предложения	-10.7018
рес	-10.702
▁камеру	-10.7021
▁склад	-10.7025
▁подобного	-10.7028
▁обеспечение	-10.703
воз	-10.7037
▁Америка	-10.7037
▁гигантски	-10.7041
▁звуков	-10.7041
▁восторг	-10.7046
▁потребует	-10.7046
▁пляж	-10.7047
▁Важно	-10.7047
▁значительны	-10.7047
▁проходил	-10.7048
▁Привет	-10.7048
▁лечить	-10.7049
▁кадр	-10.7049
▁еда	-10.7049
▁души	-10.705
▁хозяйства	-10.705
истов	-10.7052
казано	-10.7053
▁успешны	-10.7057
леп	-10.7057
▁Канад	-10.7061
▁малы	-10.7062
▁навыки	-10.7064
дом	-10.7065
▁углекисл	-10.7066
▁процвета	-10.7067
▁вызвал	-10.7068
▁товаров	-10.707
▁человечество	-10.7076
▁выгод	-10.7077
▁Оказа	-10.7078
▁мнения	-10.7079
▁вход	-10.7079
▁существования	-10.7083
▁приведу	-10.7087
ческ	-10.7087
▁попадает	-10.7089
строения	-10.709
готов	-10.7095
▁пожар	-10.7098
▁рукой	-10.7106
▁заказ	-10.7112
▁мнени	-10.7114
▁сестр	-10.7114
▁электронно	-10.7119
вала	-10.7122
▁фокус	-10.7123
▁правительств	-10.7127
▁1000	-10.713
▁кандидат	-10.713
▁процедур	-10.713
▁млн	-10.713
▁вернёмся	-10.713
▁навсегда	-10.713
▁страсть	-10.7131
▁професси	-10.7132
▁Пре	-10.7134
чный	-10.7137
жалуйста	-10.7139
дель	-10.714
▁побед	-10.7142
кус	-10.7145
▁функции	-10.7145
▁вируса	-10.7147
▁провал	-10.7148
▁погод	-10.715
тельный	-10.7152
▁пес	-10.7156
▁уменьшить	-10.7158
▁брак	-10.7162
▁запись	-10.7163
акт	-10.7177
▁земля	-10.7177
▁запрос	-10.7185
▁пер	-10.7188
▁родственник	-10.719
▁заканчива	-10.7191
▁сегодняшне	-10.7193
▁культуру	-10.7196
▁западн	-10.7198
▁зло	-10.7204
▁99	-10.7208
▁смертност	-10.7211
▁сомнени	-10.7212
▁выполни	-10.7214
▁обитания	-10.7215
овым	-10.7215
▁грузовик	-10.7218
▁толп	-10.7219
эт	-10.7219
▁отметить	-10.7222
▁выставк	-10.7228
ремя	-10.7228
▁др	-10.7229
▁играл	-10.7229
▁отражает	-10.723
▁полученны	-10.7233
▁менять	-10.7234
▁мил	-10.7236
▁комплекс	-10.7236
▁живет	-10.7238
▁основал	-10.7244
▁красно	-10.7248
▁активность	-10.7248
▁исторически	-10.7248
▁организма	-10.7257
▁дли	-10.7257
▁звука	-10.7258
▁хирург	-10.7261
тобой	-10.7263
▁Росси	-10.727
▁отход	-10.7277
▁расстояни	-10.7277
▁старши	-10.7278
▁городски	-10.728
▁катастроф	-10.7287
▁годах	-10.729
▁соответстви	-10.73
▁областях	-10.73
▁ткань	-10.73
▁окажет	-10.7301
аньше	-10.7303
▁умерл	-10.7305
▁существенно	-10.7309
▁особы	-10.731
▁городско	-10.731
ёл	-10.731
▁ждал	-10.7316
▁берут	-10.7317
▁восприятия	-10.7319
лик	-10.7322
ация	-10.7325
▁склонны	-10.7335
▁жук	-10.7337
▁уход	-10.7337
▁Мор	-10.7343
▁интересна	-10.7343
▁льда	-10.7345
▁делом	-10.7346
бежал	-10.7347
▁английском	-10.735
▁пункт	-10.7358
▁красив	-10.7363
пла	-10.7366
▁повлиял	-10.7368
ладно	-10.7368
▁экономическ	-10.7369
пир	-10.737
▁основани	-10.7372
▁низко	-10.7377
▁технологиями	-10.7379
▁определенны	-10.7382
изу	-10.7385
▁талант	-10.7386
▁динамик	-10.7387
▁юмор	-10.7389
▁фильмов	-10.739
▁статью	-10.7392
▁Понимает	-10.7392
▁площадь	-10.7395
▁недавн	-10.7398
▁художник	-10.7406
▁обществ	-10.7408
▁встречал	-10.7412
▁сцену	-10.7412
▁Возьмё	-10.7415
▁желания	-10.7416
▁нахожу	-10.7417
▁зала	-10.7421
▁зал	-10.7423
▁участников	-10.7426
▁ислам	-10.7428
▁соверши	-10.7428
телей	-10.7429
▁больно	-10.7437
▁капитала	-10.7444
▁деревне	-10.7445
▁инженер	-10.7447
убить	-10.7448
▁хакер	-10.745
даём	-10.7451
▁проводят	-10.7452
▁поддержку	-10.7454
▁кислород	-10.7454
▁главный	-10.7459
▁мор	-10.746
▁мяч	-10.7462
▁печат	-10.7464
▁Пу	-10.7466
▁максимально	-10.7466
▁коллекци	-10.7473
▁аэропорт	-10.7473
▁внимательно	-10.7473
▁нищет	-10.7474
▁Среди	-10.7474
▁ошибок	-10.7477
▁мэр	-10.7478
▁раком	-10.7482
▁Мал	-10.7484
▁воображение	-10.7485
▁проводит	-10.7489
▁преимущество	-10.7493
▁голод	-10.7498
▁уходит	-10.7499
▁произойт	-10.7501
▁чьи	-10.7502
▁вдвое	-10.7505
пс	-10.7509
ирования	-10.7513
▁мух	-10.7514
ывать	-10.7518
▁журнала	-10.7519
щим	-10.7519
▁Эйнштейн	-10.752
ющегося	-10.7524
▁главн	-10.7525
▁Дэн	-10.7526
▁потер	-10.754
▁угол	-10.7544
▁ламп	-10.7547
▁хими	-10.7547
▁Зна	-10.7549
▁рассказа	-10.7553
▁топливо	-10.7557
▁замуж	-10.7559
▁Доктор	-10.7561
▁пакет	-10.7561
▁студи	-10.7562
рас	-10.7562
▁колен	-10.7562
▁бед	-10.7562
шки	-10.7572
глу	-10.7573
▁женщину	-10.7573
▁женщинами	-10.7574
▁целое	-10.7574
▁капитализм	-10.7575
▁поднимает	-10.7579
▁прекрасн	-10.7579
зер	-10.759
▁многом	-10.7591
кормить	-10.7592
ласт	-10.7593
▁ролик	-10.7594
▁запуска	-10.7599
▁расс	-10.7605
нок	-10.7606
спо	-10.761
▁домашни	-10.7613
наружи	-10.7613
▁никого	-10.7615
▁отрыв	-10.7616
▁сини	-10.7617
лок	-10.7618
остью	-10.7619
▁коп	-10.7619
▁Стив	-10.7621
▁порог	-10.7621
▁чудо	-10.7622
▁массово	-10.7627
▁потеряли	-10.7627
▁математики	-10.763
▁доказательства	-10.7635
▁английски	-10.7638
бла	-10.7646
▁близки	-10.7649
▁уникальны	-10.7649
▁определенно	-10.7649
▁дерева	-10.765
▁клинически	-10.765
▁сезон	-10.765
▁Спуст	-10.765
▁произведения	-10.7651
▁Речь	-10.7651
▁штука	-10.7655
стях	-10.7656
▁описал	-10.7657
орд	-10.7664
▁наличие	-10.7666
▁биологическо	-10.7666
▁ди	-10.7668
ведения	-10.767
▁Какие	-10.7672
▁снег	-10.7673
▁сыр	-10.7674
▁30-	-10.7676
▁доля	-10.7677
▁ошибка	-10.7677
▁необычно	-10.7682
▁новом	-10.7684
арт	-10.7685
▁стратегии	-10.7686
▁больнице	-10.7688
▁попытк	-10.7689
▁находящи	-10.769
сад	-10.7696
▁стену	-10.7701
▁больных	-10.7704
▁вырасти	-10.7719
▁коров	-10.7723
▁основа	-10.7723
▁встречи	-10.7728
▁расходы	-10.7728
ожидать	-10.7738
▁НАСА	-10.7739
▁Соединенны	-10.7739
▁участвовал	-10.7739
▁впечатление	-10.7739
▁расчёт	-10.7739
▁конструкци	-10.7741
ук	-10.7745
▁кур	-10.7745
▁цепочк	-10.7746
▁страда	-10.7752
▁эмоционально	-10.7755
▁окна	-10.7758
▁выполнять	-10.7761
▁диалог	-10.7762
▁удивительное	-10.7769
раб	-10.777
▁сотрудников	-10.7771
▁берёт	-10.778
▁пишет	-10.7781
▁задачей	-10.7787
000	-10.779
Э	-10.7791
▁занятия	-10.7793
▁каково	-10.7795
вшим	-10.7798
бил	-10.78
▁твои	-10.7806
▁камен	-10.7808
анс	-10.781
▁повторя	-10.781
пар	-10.7813
▁математически	-10.7817
▁снизить	-10.7822
▁батаре	-10.7824
▁рецепт	-10.7825
▁часы	-10.7825
▁ежегодно	-10.7829
▁Мартин	-10.783
▁отлича	-10.783
▁бу	-10.7832
разном	-10.7835
▁лё	-10.7835
▁существование	-10.7838
илась	-10.7839
▁ветер	-10.7842
▁кол	-10.7843
▁назван	-10.7853
▁школах	-10.7855
▁игре	-10.7856
▁ценност	-10.7861
▁современных	-10.7872
▁тёмно	-10.7873
▁стоимост	-10.7877
▁па	-10.7886
▁ожидания	-10.7888
▁экологи	-10.7893
писано	-10.7896
▁положил	-10.7898
▁90-	-10.7899
▁доллар	-10.7902
▁детств	-10.7909
▁положительны	-10.791
▁Ге	-10.7911
▁комментари	-10.792
▁Одним	-10.7921
▁технологически	-10.7924
▁продолжают	-10.7924
▁депрессии	-10.7934
▁пожилы	-10.7937
▁команде	-10.7937
▁прочи	-10.7938
▁слав	-10.7938
▁цифровы	-10.7938
▁изучал	-10.7941
▁ледник	-10.7941
▁военно	-10.7941
▁250	-10.7943
▁разумно	-10.7945
бывают	-10.7947
шить	-10.7951
остр	-10.7954
▁бесед	-10.7963
очка	-10.7964
есс	-10.7966
▁промышленно	-10.7971
▁высокого	-10.7973
▁судьб	-10.7976
▁изобретение	-10.7977
▁ветра	-10.7979
▁следовать	-10.7981
▁убеждения	-10.7982
▁сайте	-10.7982
▁Всего	-10.7984
▁пластик	-10.7987
▁ошиба	-10.799
▁идеал	-10.7991
▁искусственны	-10.8001
▁настоящим	-10.8001
▁волны	-10.8002
ранее	-10.8003
▁наблюдает	-10.8009
▁радикально	-10.8009
▁предназначен	-10.801
▁времён	-10.8012
▁демонстраци	-10.8012
▁участок	-10.8012
▁Около	-10.8012
▁сюжет	-10.8012
изнь	-10.8013
▁ребят	-10.8013
,5	-10.8019
енщины	-10.8022
▁занимаем	-10.8022
▁обычных	-10.8024
▁Смотрит	-10.8026
▁разработать	-10.8027
▁отвечал	-10.8027
▁слой	-10.8032
▁ничто	-10.8033
▁общее	-10.8035
дают	-10.804
▁снять	-10.804
▁сострадани	-10.8041
▁зарабатыва	-10.8047
▁свойства	-10.8047
▁исследовательск	-10.8047
▁жела	-10.8051
▁Говоря	-10.8051
▁лидеры	-10.8055
▁коллективно	-10.8066
ставляют	-10.8067
сле	-10.807
▁нижне	-10.8072
▁Солнце	-10.8074
ходим	-10.8075
▁явно	-10.8076
ентр	-10.8078
▁бок	-10.8078
ходили	-10.8081
двери	-10.8084
▁рейтинг	-10.8084
▁Том	-10.8085
▁стимул	-10.8087
▁делала	-10.8087
▁показало	-10.8091
▁грани	-10.8095
▁обнаружен	-10.8096
▁единственным	-10.8096
лево	-10.8102
звлечь	-10.8104
▁Действительно	-10.8104
▁январ	-10.8104
▁секунды	-10.8104
ара	-10.8105
▁безусловно	-10.8108
▁противо	-10.8108
▁девять	-10.8111
▁преодолеть	-10.8114
▁найден	-10.8114
яснил	-10.8118
▁родилась	-10.812
▁падает	-10.8121
шая	-10.8126
пред	-10.8133
▁творчество	-10.8135
кладывают	-10.8136
▁направ	-10.8137
гру	-10.8144
▁Ган	-10.8146
▁Дале	-10.8147
▁брать	-10.8148
▁врачи	-10.8157
▁карьер	-10.8159
▁наблюдали	-10.8163
▁Всемирн	-10.8164
гал	-10.8166
▁программно	-10.817
▁защищать	-10.8172
лез	-10.8172
▁зуб	-10.8175
▁доллара	-10.8181
▁считал	-10.8183
▁компаниям	-10.8183
▁господ	-10.8185
▁десяти	-10.8193
▁диабет	-10.8198
▁моделей	-10.8198
▁Господ	-10.8198
▁сотрудник	-10.8198
скоре	-10.8199
▁лазер	-10.82
▁экономист	-10.8201
▁быстры	-10.8203
▁удивительн	-10.8208
▁территори	-10.8209
▁исполни	-10.8221
▁Ку	-10.8221
▁реальн	-10.8224
▁интернета	-10.8225
▁достижени	-10.8226
▁женщиной	-10.8227
▁следи	-10.823
▁необходим	-10.8231
▁голода	-10.8232
▁позад	-10.8234
▁Примерн	-10.8234
▁необходимость	-10.8234
дали	-10.8238
енная	-10.8241
▁сократить	-10.8242
▁деталь	-10.8243
▁взрыва	-10.8245
головой	-10.8248
▁плат	-10.825
ении	-10.8257
▁холодно	-10.8261
▁домов	-10.8262
ранции	-10.8262
▁температура	-10.8264
фу	-10.8264
▁облака	-10.8265
▁попал	-10.8266
▁снизу	-10.8266
▁платформ	-10.8278
давая	-10.8279
очень	-10.8284
миль	-10.8289
рам	-10.8289
▁горизонт	-10.8292
▁Чикаго	-10.8292
▁решает	-10.8292
▁попытки	-10.8293
▁автоматически	-10.8293
▁Опять	-10.8293
▁отношениях	-10.8295
▁остановиться	-10.8305
▁представляю	-10.831
▁языков	-10.831
▁деревни	-10.8317
▁отказа	-10.832
▁считается	-10.8322
▁Стивен	-10.8325
▁заключённы	-10.8326
▁языком	-10.8333
▁забыл	-10.8334
стать	-10.8336
изации	-10.8339
▁здравоохранение	-10.8339
▁учить	-10.8339
▁скрыт	-10.8341
▁вещами	-10.8342
▁изучение	-10.8345
▁пора	-10.8348
▁загляну	-10.8349
▁двигатель	-10.8349
▁трати	-10.8349
▁личность	-10.8352
▁Весь	-10.8352
▁вызыва	-10.8357
▁увеличени	-10.8363
▁солнц	-10.8366
пят	-10.8367
▁золото	-10.8367
▁проводили	-10.8368
▁подума	-10.8369
▁фраз	-10.8369
фф	-10.8373
▁замеча	-10.8377
▁коллегами	-10.8379
▁тайн	-10.8383
▁пожалуй	-10.8387
▁Бостон	-10.8388
▁шкал	-10.8388
▁земно	-10.8388
▁днём	-10.8389
▁сража	-10.8389
▁Ал	-10.8389
▁страдания	-10.8389
▁вакцин	-10.8389
▁понадобится	-10.839
▁приведёт	-10.839
▁спокойно	-10.8391
▁пользователей	-10.8392
▁отличн	-10.8408
▁необходима	-10.841
▁Больш	-10.8413
▁подошл	-10.8415
платить	-10.8416
▁точек	-10.8416
▁окружени	-10.8417
селенная	-10.8417
▁религия	-10.8422
▁здани	-10.8422
▁справи	-10.8426
▁генетическо	-10.8426
▁видение	-10.8427
▁демократия	-10.8432
▁малыш	-10.8435
▁воспринимать	-10.8436
▁одежд	-10.8437
▁борьба	-10.844
▁непросто	-10.8441
▁мышление	-10.8442
▁тщательно	-10.8451
▁роботы	-10.8457
▁темп	-10.8465
▁стена	-10.8469
▁закона	-10.847
▁ребен	-10.8471
▁открытым	-10.8471
▁понадоби	-10.8474
▁ограничения	-10.8474
▁выиграл	-10.8474
▁взаимодействова	-10.8478
▁обратил	-10.848
нутри	-10.8482
▁поздно	-10.8483
▁последующи	-10.8484
▁дар	-10.8486
▁клуб	-10.8486
▁исход	-10.849
▁эффективность	-10.8494
▁распространя	-10.8495
▁плач	-10.8496
▁статус	-10.8498
центов	-10.8501
▁врачей	-10.8503
▁поврежден	-10.8507
енщина	-10.8508
▁Западно	-10.8509
▁осуществить	-10.851
лом	-10.8514
▁опубликован	-10.8518
▁напряму	-10.8519
▁обезьян	-10.8523
учу	-10.8523
▁переговор	-10.8526
▁управляет	-10.8528
ошел	-10.8529
воль	-10.853
▁испыта	-10.8531
▁снял	-10.8534
▁интересным	-10.8536
▁Конго	-10.8537
▁животного	-10.8548
чет	-10.8549
▁почувствовал	-10.8553
▁оборот	-10.8554
▁достигает	-10.8558
▁парни	-10.8565
▁противоположно	-10.8572
▁Тот	-10.8576
▁строительство	-10.8577
▁Истори	-10.858
▁скелет	-10.8581
▁тишин	-10.8581
▁Руанд	-10.8581
▁учёт	-10.8581
▁дешевле	-10.8581
▁актёр	-10.8581
▁изучил	-10.8584
▁потребление	-10.8587
▁собственным	-10.859
▁заявил	-10.8593
▁Национально	-10.8596
▁расширя	-10.8596
▁возвращает	-10.8598
▁Пер	-10.8598
шедш	-10.8601
▁трудности	-10.8602
▁патент	-10.8604
▁бросил	-10.8604
▁оказывают	-10.8608
▁жизненны	-10.8608
▁ящик	-10.8609
▁потребность	-10.8614
▁принимаем	-10.8614
▁32	-10.8617
▁отходов	-10.8618
▁упомянул	-10.862
▁фильме	-10.8623
▁прочим	-10.8629
эм	-10.8637
спать	-10.8641
▁окно	-10.8643
▁природны	-10.8646
▁запад	-10.8648
▁середин	-10.8649
щу	-10.865
▁справедливост	-10.865
▁отдал	-10.8652
▁выполнени	-10.8652
▁вещество	-10.8654
▁государство	-10.8655
▁изображений	-10.8655
▁упомина	-10.8657
▁Будь	-10.8658
▁растение	-10.8661
▁Ор	-10.8663
▁убива	-10.8668
▁переехал	-10.8668
▁верит	-10.867
▁известна	-10.8671
ступает	-10.8678
▁учитель	-10.8678
▁адрес	-10.8678
▁Существую	-10.8679
▁взгляне	-10.8679
▁инициатив	-10.8679
▁трюк	-10.8679
▁вечеринк	-10.8679
▁побочны	-10.8679
▁ответственности	-10.8679
▁ритуал	-10.868
▁разбира	-10.868
▁немноги	-10.8681
▁потери	-10.8683
▁встреч	-10.8683
▁дума	-10.8686
▁хозяйство	-10.869
▁перес	-10.8693
рад	-10.8695
метр	-10.8696
▁воссозда	-10.8699
▁выбирать	-10.8702
▁шарик	-10.8703
▁партнёр	-10.8707
▁массы	-10.8711
▁выросла	-10.8711
▁га	-10.8714
▁ценны	-10.8716
▁проводил	-10.8719
▁противостоя	-10.8726
▁замен	-10.8728
▁красн	-10.8729
▁моральны	-10.8733
▁пыльц	-10.8733
нами	-10.8737
▁округ	-10.8739
▁проходя	-10.8742
▁счастливым	-10.8745
▁низки	-10.8746
▁виртуально	-10.8748
▁луч	-10.875
▁созданы	-10.8755
клеточн	-10.8757
льных	-10.8757
▁показывал	-10.8762
▁преимущества	-10.8767
чем	-10.877
▁риску	-10.8773
▁борт	-10.8774
▁генома	-10.8774
▁анализа	-10.8776
▁Апплодисменты	-10.8778
▁долгосрочно	-10.8778
▁покупать	-10.8778
олл	-10.8778
▁лун	-10.8778
▁добыч	-10.8778
▁обычн	-10.8779
теля	-10.878
▁глобализаци	-10.878
▁выражение	-10.8783
▁тесно	-10.8788
▁создател	-10.8792
▁посеща	-10.8799
▁кислорода	-10.88
▁музей	-10.8807
▁рыбу	-10.8807
▁занял	-10.881
▁бабушка	-10.8813
▁изобрел	-10.8814
▁целую	-10.8817
работает	-10.8822
ированны	-10.8822
▁принципе	-10.8823
▁клетку	-10.8825
▁ограничени	-10.883
▁продаж	-10.8831
▁революци	-10.8835
▁ярко	-10.8837
тремя	-10.8837
▁карьеру	-10.8845
▁количестве	-10.8849
▁применять	-10.885
▁имела	-10.8853
очек	-10.8853
▁поп	-10.8856
пользуются	-10.8859
▁частя	-10.8861
▁промышленност	-10.8866
▁некоторым	-10.8866
▁лечени	-10.8867
▁Давай	-10.8871
▁агент	-10.8871
▁кро	-10.8875
▁опухоли	-10.8878
▁влияю	-10.8878
▁погибл	-10.8879
▁случиться	-10.8881
▁Адам	-10.8882
кол	-10.8885
▁приблизительно	-10.8889
▁следующ	-10.889
▁существо	-10.8892
▁папа	-10.8895
▁учился	-10.8898
▁увеличивается	-10.8901
▁Наше	-10.8907
▁относят	-10.8909
▁2005	-10.8911
▁поменять	-10.8914
▁находя	-10.8916
родом	-10.8925
граф	-10.8929
▁доск	-10.8929
▁традиционно	-10.893
▁поступ	-10.8933
▁опер	-10.8936
▁отбор	-10.8936
▁ходил	-10.8937
▁направлен	-10.8937
▁кот	-10.8939
кажем	-10.8948
▁сложным	-10.8955
▁приложение	-10.8957
▁наблюда	-10.8957
▁Би	-10.8963
сток	-10.8968
▁пациентам	-10.8968
нова	-10.8971
▁установк	-10.8975
▁двое	-10.8976
▁определени	-10.8976
▁слабы	-10.8976
▁летом	-10.8977
▁организовать	-10.8979
▁кусочек	-10.8979
▁связей	-10.8979
▁Разум	-10.898
▁сравнить	-10.898
▁концерт	-10.898
▁реактор	-10.8982
▁обычным	-10.8983
,	-10.8984
следовани	-10.8985
▁Стар	-10.8986
▁Никогда	-10.8986
▁следующим	-10.899
▁стул	-10.8993
▁ищет	-10.8994
▁расширить	-10.9002
▁разрешения	-10.9003
▁влияния	-10.9007
овали	-10.9008
▁выпуска	-10.9012
▁измен	-10.9016
▁называ	-10.902
чт	-10.9022
▁популяци	-10.9031
чего	-10.9031
▁меняют	-10.9032
мон	-10.9033
следовательность	-10.9034
▁постоянны	-10.9034
▁определения	-10.9036
сор	-10.9036
▁вовлечен	-10.9037
▁собирал	-10.904
▁потерял	-10.9042
▁продолжал	-10.9045
▁ребёнк	-10.9047
▁сложность	-10.9048
▁цифра	-10.905
▁прибыли	-10.9055
▁пальц	-10.9055
▁ядерны	-10.9057
▁американско	-10.9058
▁факторов	-10.906
▁метафор	-10.9063
▁крыш	-10.9068
▁вычисления	-10.9068
▁разговора	-10.9071
▁бега	-10.9073
▁ге	-10.908
▁Интернете	-10.908
▁полиомиелит	-10.9081
▁энергетик	-10.9081
▁Чарльз	-10.9081
▁рассчитыва	-10.9081
▁микрофон	-10.9081
▁Наверно	-10.9081
▁активност	-10.9084
▁пережил	-10.9084
▁мотор	-10.9084
явления	-10.9088
▁ПМ	-10.9089
▁картинка	-10.909
тянуть	-10.9091
альная	-10.9091
▁науку	-10.9097
▁Эрик	-10.9098
▁рисова	-10.9103
▁предприниматель	-10.9103
ткуда	-10.9103
держать	-10.9106
▁формировани	-10.9119
▁смешно	-10.912
▁мем	-10.9122
низу	-10.9126
▁внешни	-10.9126
▁Верно	-10.9128
▁лице	-10.913
▁начнут	-10.9131
▁требуют	-10.9132
▁согласны	-10.9135
▁такова	-10.9143
▁торговы	-10.9149
▁голуб	-10.9149
▁называли	-10.9151
▁бел	-10.9152
▁просил	-10.9154
▁принял	-10.9155
держал	-10.9156
▁Кан	-10.9158
▁постройк	-10.9164
▁формат	-10.9165
кос	-10.917
▁глуб	-10.918
▁Прямо	-10.9184
▁посреди	-10.9184
▁смартфон	-10.9184
▁соотношени	-10.9184
▁экспедици	-10.9184
▁оркестр	-10.9184
▁сервис	-10.9184
▁БД	-10.9186
ижу	-10.9188
▁пригород	-10.9189
▁ребенк	-10.9189
▁называемо	-10.9195
▁инфекци	-10.9199
▁Проект	-10.92
▁Го	-10.9201
ела	-10.9206
▁кг	-10.921
▁выступа	-10.9215
▁написала	-10.9215
ируя	-10.922
лек	-10.9225
▁искусств	-10.9227
▁мно	-10.923
▁выживани	-10.9233
▁применение	-10.9238
▁чёрно	-10.9239
▁испытания	-10.9241
▁центрально	-10.9242
▁молодым	-10.9243
▁счита	-10.9244
▁танц	-10.9246
▁слабо	-10.9249
▁полицейски	-10.9249
емых	-10.9254
▁Северн	-10.926
▁расстояния	-10.926
▁метро	-10.9262
▁тратить	-10.9264
▁перешл	-10.9266
▁разума	-10.9266
▁восьми	-10.9268
▁лаборатория	-10.9274
▁посетил	-10.9276
▁возможностям	-10.928
ограф	-10.9282
▁возьмём	-10.9288
▁соответствует	-10.9288
▁принадлежит	-10.9289
▁мышь	-10.9289
Анджелес	-10.929
▁собрал	-10.9292
▁показано	-10.9293
▁Закон	-10.9294
скор	-10.9296
▁Солнца	-10.9308
▁корн	-10.9311
▁убил	-10.9313
▁намерен	-10.9314
▁делиться	-10.9325
▁взаимосвязан	-10.9326
▁лекци	-10.9331
▁мастер	-10.9333
▁пары	-10.9336
▁источника	-10.934
▁будущи	-10.9348
▁избега	-10.935
▁школьны	-10.9353
▁водоросл	-10.9356
ведение	-10.9359
▁конфликта	-10.936
▁глав	-10.9365
▁сердечны	-10.9366
▁струн	-10.9367
▁скучно	-10.9368
▁бар	-10.9369
▁научн	-10.9372
▁заняты	-10.9373
▁шрифт	-10.9393
▁вдохновил	-10.9393
▁кратко	-10.9393
▁опира	-10.9394
▁занят	-10.94
▁лент	-10.94
говор	-10.94
▁Джим	-10.9401
зор	-10.9406
▁серьезно	-10.9406
▁флаг	-10.9407
▁чудесны	-10.9409
мысл	-10.941
▁домашне	-10.9411
▁Суть	-10.9413
▁принятия	-10.9419
▁полов	-10.9419
▁великолепны	-10.9422
▁мяс	-10.9425
▁проектировани	-10.9425
▁сосредоточен	-10.9426
▁творческо	-10.9428
▁инвалид	-10.9431
▁корм	-10.9431
▁летать	-10.9432
правительственны	-10.9434
▁подар	-10.9436
▁говори	-10.9436
▁философ	-10.944
▁богатства	-10.944
▁взяты	-10.9444
▁устроен	-10.9446
▁преступления	-10.9446
▁ран	-10.9446
▁служит	-10.9446
▁небе	-10.9448
▁Пус	-10.9452
▁пород	-10.9457
▁рано	-10.9461
▁правду	-10.9462
▁площадк	-10.9463
▁соединить	-10.9464
▁автомобили	-10.9465
▁неизвестно	-10.9466
▁философи	-10.9466
▁битв	-10.9468
▁сине	-10.9471
▁клиент	-10.9483
▁сериал	-10.9486
▁воздушны	-10.9487
▁нога	-10.9488
тика	-10.949
▁избирател	-10.9498
▁пенси	-10.9498
▁50-	-10.9499
▁создала	-10.9499
▁возвращени	-10.95
▁организовал	-10.95
▁траектори	-10.95
▁микроорганизм	-10.95
▁холм	-10.95
▁берём	-10.95
▁немало	-10.9501
▁2011	-10.9501
▁жила	-10.9503
сен	-10.9506
единя	-10.9507
▁разработк	-10.9512
▁силе	-10.9516
анные	-10.9518
▁Никак	-10.9524
▁подходящи	-10.9525
▁доста	-10.9527
ланд	-10.9527
▁квадратны	-10.9529
▁кода	-10.9536
елл	-10.9536
эл	-10.9536
▁совершил	-10.9539
вучит	-10.954
▁показывать	-10.954
▁отсутстви	-10.9541
▁северно	-10.9542
▁полтор	-10.9543
вшее	-10.9545
▁специалистов	-10.9549
▁разрушен	-10.9549
▁собак	-10.9552
▁дам	-10.9561
водят	-10.9572
▁заботить	-10.9575
▁знание	-10.9576
вис	-10.9578
▁явления	-10.9583
▁руководств	-10.9587
▁исходя	-10.9588
▁подверга	-10.9588
▁Вселенная	-10.9592
▁нес	-10.9594
смотр	-10.9594
▁Марса	-10.9601
▁останавлива	-10.9604
▁профессионал	-10.9605
изация	-10.9607
▁пилот	-10.9608
▁редки	-10.9608
▁разреши	-10.961
▁увеличи	-10.9612
▁участки	-10.9614
▁Могу	-10.9615
▁колледже	-10.9619
▁предлагаю	-10.9623
продемонстрирова	-10.963
▁разрыв	-10.9631
стран	-10.9631
▁желани	-10.9637
▁заключение	-10.9637
▁разработан	-10.9642
езжа	-10.9642
оди	-10.9645
▁куск	-10.9648
▁дискусси	-10.965
▁строк	-10.9654
гл	-10.9655
▁появлени	-10.9658
ённых	-10.9661
хватить	-10.9664
▁сталкиваем	-10.9665
▁показала	-10.9666
▁сущность	-10.967
▁торгов	-10.9673
бывать	-10.9674
▁ед	-10.9675
▁скот	-10.9679
▁музыкальны	-10.9682
ективно	-10.9686
▁третье	-10.9695
▁пап	-10.9696
▁фильтр	-10.9698
▁лодк	-10.9698
▁призна	-10.9701
берг	-10.9703
десят	-10.9704
гли	-10.9706
▁появление	-10.9707
▁спуска	-10.9712
▁придумыва	-10.9716
аг	-10.9716
▁мутаци	-10.9716
▁математика	-10.9718
▁захочет	-10.9718
▁слышим	-10.9719
НБ	-10.9719
▁кожу	-10.9721
▁приз	-10.9729
▁пришел	-10.9735
▁клеткам	-10.9737
▁донор	-10.9737
▁дед	-10.9739
▁крупн	-10.9746
▁параметр	-10.9748
▁добры	-10.9749
▁десятилетий	-10.9751
▁африканск	-10.9753
▁возл	-10.9755
▁неравенство	-10.9757
▁дыр	-10.9758
▁плана	-10.9778
оль	-10.9785
▁открыва	-10.9788
▁широки	-10.9796
▁изобретения	-10.9797
▁студент	-10.9802
▁201	-10.9802
▁твое	-10.9802
тельной	-10.9809
▁визуально	-10.9812
▁стене	-10.9812
▁шла	-10.9814
▁культурны	-10.9814
▁страдаю	-10.982
▁охот	-10.9821
▁преми	-10.9821
▁включить	-10.9825
▁сенсор	-10.9825
▁Институт	-10.9826
▁поэзи	-10.9826
▁шоколад	-10.9826
▁рекорд	-10.9826
▁дочери	-10.9826
▁представлять	-10.9826
цепи	-10.9827
▁потерять	-10.9827
▁просьб	-10.9827
▁обращать	-10.983
▁10-	-10.983
▁программировани	-10.9832
▁означало	-10.9835
остей	-10.9837
▁удаётся	-10.9843
подобие	-10.9845
▁кроват	-10.9846
вает	-10.9846
▁разговаривал	-10.9849
▁обнаружила	-10.985
▁предыдущи	-10.9851
▁открытом	-10.9851
▁музее	-10.9856
▁связать	-10.986
▁Над	-10.9863
рек	-10.9864
ошли	-10.9869
▁задал	-10.9877
▁протест	-10.9881
▁встрети	-10.9881
строить	-10.9881
рел	-10.9886
▁жир	-10.9887
действуют	-10.9903
▁мотиваци	-10.9904
▁версия	-10.9907
▁независимы	-10.991
▁эволюция	-10.9911
сход	-10.9911
▁газов	-10.9916
нка	-10.9917
▁женски	-10.9918
▁ссылк	-10.9919
▁виртуальны	-10.9923
▁двум	-10.9923
кучу	-10.9927
бес	-10.9933
▁чёрн	-10.9935
▁транс	-10.9936
▁учёб	-10.9937
▁ущерб	-10.9937
▁держит	-10.9937
▁пойдёт	-10.9937
▁хромосом	-10.9937
▁способствуе	-10.9938
▁глядя	-10.994
▁Сири	-10.9942
▁потенциально	-10.9944
ёж	-10.9958
▁происходить	-10.9958
▁жар	-10.9961
▁превраща	-10.9962
чк	-10.9966
▁ключевы	-10.9967
▁понимани	-10.9967
дей	-10.9969
▁Интернета	-10.9973
едят	-10.9974
▁полёта	-10.9974
веци	-10.9977
гар	-10.9977
▁трубк	-10.9978
▁отправ	-10.9982
▁изображен	-10.9983
▁Похоже	-10.9988
▁подобным	-10.9993
▁надел	-11.0007
лан	-11.0008
гляд	-11.0009
▁показываю	-11.0011
З	-11.0013
жил	-11.0015
▁разнообразны	-11.0021
▁Этим	-11.0021
▁попадают	-11.0021
▁дне	-11.0024
▁осознава	-11.003
▁дала	-11.0032
▁гриб	-11.0032
вато	-11.0034
▁попросить	-11.0035
▁ракет	-11.0035
▁зайти	-11.0036
▁формируют	-11.0036
▁дики	-11.0038
▁теряет	-11.0039
▁организмов	-11.004
молодой	-11.0042
▁семейны	-11.0043
▁справля	-11.0044
▁приоритет	-11.0049
▁Альцгеймер	-11.0049
▁всевозможны	-11.0049
▁пейзаж	-11.0049
▁сомнева	-11.0049
▁гнев	-11.0049
▁хищник	-11.0051
▁сценари	-11.0051
▁преступник	-11.0052
▁программе	-11.0055
▁поразил	-11.0058
звали	-11.0058
▁неизбежно	-11.0061
▁комикс	-11.0061
▁крупно	-11.0064
▁195	-11.0065
▁оси	-11.0068
▁Тим	-11.0075
ес	-11.0076
кин	-11.0079
▁враща	-11.0081
▁улучшения	-11.0084
▁бег	-11.0089
▁улыба	-11.0089
атив	-11.009
▁учреждения	-11.009
▁построил	-11.0093
▁металл	-11.0094
▁рос	-11.0095
йдут	-11.0098
▁социальным	-11.01
▁кров	-11.01
▁неза	-11.0101
лоп	-11.0102
▁ведущ	-11.0103
▁четырех	-11.0109
▁расстояние	-11.011
▁обозначен	-11.0111
▁велика	-11.0115
▁сцены	-11.0117
▁лиш	-11.0119
▁просматрива	-11.0122
▁банка	-11.0122
▁прочитал	-11.0123
▁обратн	-11.0125
▁получали	-11.0128
▁представи	-11.0131
▁маги	-11.0134
▁соверш	-11.0134
▁питательны	-11.0138
▁стен	-11.0143
▁голубо	-11.0144
▁Можем	-11.0147
фин	-11.0149
▁оба	-11.0149
▁настроен	-11.0154
▁сер	-11.0156
▁репутаци	-11.0159
▁психически	-11.0163
▁парниковы	-11.0163
▁голосов	-11.0163
▁положении	-11.0164
тянул	-11.0165
▁Мари	-11.0165
▁родителями	-11.0168
▁организован	-11.0171
▁умирает	-11.0171
столом	-11.0174
носить	-11.0176
производител	-11.0185
▁обсуждать	-11.0187
▁математике	-11.0189
▁Гарвард	-11.0191
▁сестра	-11.0192
▁повседневно	-11.0192
▁Каждо	-11.0196
▁глобальн	-11.0201
щихся	-11.0201
▁проведени	-11.0206
▁странным	-11.0207
▁предлагает	-11.0208
▁заднем	-11.0212
▁рассказывает	-11.0212
▁рассмотри	-11.0213
▁остаться	-11.0214
▁упал	-11.0218
▁оптимизм	-11.0219
▁губ	-11.0222
▁направить	-11.0224
▁находим	-11.0225
▁составил	-11.0225
▁цифров	-11.0227
счет	-11.0231
▁тропически	-11.0237
▁корпораци	-11.0239
▁панел	-11.0248
▁положить	-11.0249
▁Ман	-11.025
▁поддерживает	-11.0254
▁95	-11.0262
льной	-11.0262
▁школьно	-11.0262
▁фон	-11.0267
▁китов	-11.0268
▁типичны	-11.0277
▁конкуренци	-11.0278
▁несомненно	-11.0278
▁проследи	-11.0278
▁интеллектуальны	-11.0278
▁ткане	-11.0279
▁климатически	-11.0279
▁поразительны	-11.028
▁валют	-11.028
стараюсь	-11.028
▁пальцев	-11.0283
▁промышленны	-11.0288
▁товар	-11.029
▁умира	-11.0291
▁тратят	-11.0291
▁подхода	-11.0292
▁прекрасна	-11.0293
▁прошёл	-11.0297
▁уничтожи	-11.0299
▁Восток	-11.0304
▁карикатур	-11.0305
▁количеств	-11.0306
▁собака	-11.0308
▁рот	-11.032
▁публично	-11.0323
▁продела	-11.0324
▁выигра	-11.0325
▁неважно	-11.0326
▁Гу	-11.0326
делайте	-11.0331
▁Каким	-11.0331
▁вещам	-11.0333
▁неверно	-11.0334
▁информационны	-11.0335
▁камер	-11.0336
▁запустили	-11.0341
▁дизайнеры	-11.0347
▁движ	-11.0349
ины	-11.0352
▁наклон	-11.0355
ивает	-11.0356
сюда	-11.0356
кую	-11.0357
▁цветов	-11.0357
▁опасность	-11.0357
▁идеальны	-11.0358
▁корне	-11.0359
▁карьеры	-11.0364
роб	-11.0371
▁Год	-11.0371
татов	-11.0375
бол	-11.038
▁больницу	-11.0385
ённые	-11.0386
▁доказательство	-11.0389
▁Ги	-11.039
▁удач	-11.0392
▁меж	-11.0394
▁корабль	-11.0394
▁пирамид	-11.0394
▁архив	-11.0394
▁фи	-11.0396
носим	-11.0398
▁обсудить	-11.0398
▁диагностик	-11.0403
▁магнит	-11.0406
кинуть	-11.0406
▁видны	-11.0407
▁Взгляните	-11.0408
▁наблюдал	-11.0409
▁продавать	-11.0412
щение	-11.0412
▁раск	-11.042
рал	-11.0422
▁церкви	-11.0431
щими	-11.0432
▁инженеров	-11.0437
▁женско	-11.0446
▁современн	-11.0453
▁Лу	-11.0453
дар	-11.0454
единяет	-11.0459
▁справедливо	-11.046
▁перспективе	-11.0468
▁сотрудничество	-11.0476
▁чувствовала	-11.0477
▁налогов	-11.0479
▁скрыты	-11.0479
▁солнечн	-11.0486
▁вооруж	-11.0486
▁элит	-11.0487
так	-11.0488
выше	-11.0499
▁магазина	-11.0502
льш	-11.0504
▁остальным	-11.0506
▁адвокат	-11.0512
▁ждёт	-11.0512
▁посвящен	-11.0512
▁самоубийств	-11.0512
▁гольф	-11.0512
▁Роберт	-11.0512
ряду	-11.0514
▁молодо	-11.052
▁Кор	-11.0522
▁подел	-11.0522
▁поддержани	-11.0523
▁терроризм	-11.0523
▁одержим	-11.0527
▁дизайнер	-11.0529
▁нуля	-11.0533
▁необ	-11.0534
▁восстановления	-11.0539
▁поступать	-11.0539
▁догада	-11.054
▁нескольким	-11.0541
произвести	-11.0542
▁шли	-11.0544
▁роде	-11.0545
▁достига	-11.0549
▁Стр	-11.0551
▁биолог	-11.0552
▁воспитани	-11.0554
▁выступал	-11.0554
▁общественные	-11.0555
▁нарисова	-11.0557
▁электроник	-11.0557
▁голосовани	-11.0557
▁станции	-11.056
▁Мексик	-11.0561
▁Джона	-11.0561
▁способна	-11.0564
▁волнует	-11.0565
▁технологией	-11.0565
▁приступ	-11.0566
ица	-11.0566
▁Две	-11.057
▁мужчинам	-11.0582
▁института	-11.0584
▁трудны	-11.0592
▁Тер	-11.0593
▁аналоги	-11.0596
▁Мэри	-11.0596
▁подпис	-11.06
▁начинали	-11.0601
▁изменяет	-11.0601
▁действует	-11.0607
▁голова	-11.0613
▁магнитно	-11.0621
▁проста	-11.0623
ливо	-11.0623
жат	-11.0627
ора	-11.0627
▁Результат	-11.0631
▁Эфиопи	-11.0631
▁Техас	-11.0631
▁просыпа	-11.0634
▁операционн	-11.0634
▁продолжил	-11.0636
▁овощ	-11.0637
▁Пять	-11.0639
▁всяко	-11.0641
▁мечтал	-11.0641
▁обучени	-11.0642
▁реали	-11.0643
▁решают	-11.0643
▁безумно	-11.0643
▁исследованиях	-11.0644
▁встретили	-11.0644
▁окруж	-11.0645
▁нуждается	-11.0646
телем	-11.0647
енное	-11.065
▁трагеди	-11.065
▁огонь	-11.0657
▁цитат	-11.066
▁оборудовани	-11.0661
▁снижа	-11.0661
рок	-11.0663
▁научила	-11.0666
альным	-11.0668
▁шагом	-11.0669
▁пониманию	-11.0669
▁начинаю	-11.067
▁использован	-11.067
нем	-11.0672
▁взяла	-11.0673
▁тро	-11.0673
▁строи	-11.0676
▁прожи	-11.0679
▁установили	-11.068
▁свин	-11.0683
▁технологиях	-11.069
тора	-11.0693
▁горд	-11.0703
несли	-11.0705
▁существовани	-11.0706
▁изменять	-11.0708
▁Ей	-11.0713
▁Син	-11.0716
▁условий	-11.0716
▁музыкант	-11.072
▁полет	-11.0721
-1	-11.0723
eo	-11.0728
▁иллюзи	-11.0729
▁относи	-11.0732
▁фигур	-11.0735
▁некий	-11.0736
▁нормальны	-11.0738
▁эмоциональны	-11.0744
▁мысле	-11.0746
▁трети	-11.0749
▁точност	-11.075
▁Британи	-11.0751
▁гармони	-11.0751
▁учёный	-11.0751
▁Ту	-11.0752
▁гора	-11.0754
▁пользова	-11.0754
▁составлял	-11.0755
▁произведение	-11.0756
▁конкурс	-11.0757
▁лево	-11.0757
▁демократически	-11.0759
▁кожа	-11.0759
план	-11.0761
▁Банк	-11.0764
▁стоя	-11.0766
▁программист	-11.0768
▁полном	-11.0772
▁опас	-11.0777
вшийся	-11.0778
▁Восточно	-11.0778
бан	-11.0782
▁рул	-11.0784
▁дому	-11.0785
▁операция	-11.0786
стве	-11.0786
▁стратегия	-11.0787
▁мгновенно	-11.0787
▁уникально	-11.0788
▁невероятн	-11.0791
БР	-11.0793
▁применя	-11.0794
вот	-11.0796
▁вопросами	-11.0806
▁привели	-11.0815
слать	-11.0816
▁посередине	-11.0817
▁дико	-11.0817
▁профессиональны	-11.0818
▁исследователе	-11.082
▁достижение	-11.0821
▁заинтересовал	-11.0821
▁120	-11.0822
▁коммерчески	-11.0828
елен	-11.083
▁ручк	-11.084
▁груз	-11.0841
▁формул	-11.0841
▁медицинск	-11.0844
▁беспоко	-11.0845
веду	-11.0846
▁тратит	-11.0846
▁жал	-11.0846
▁южно	-11.0848
▁узнает	-11.0848
▁электрон	-11.0852
▁копи	-11.0855
▁беспокоить	-11.0855
ерс	-11.0859
▁напомина	-11.0862
▁красным	-11.0865
▁веру	-11.0866
▁посыла	-11.0866
▁бело	-11.0867
ивши	-11.0867
▁способно	-11.0867
▁ката	-11.0869
▁бумаг	-11.0871
▁сопровожда	-11.0873
▁шаблон	-11.0873
▁Таймс	-11.0873
▁паразит	-11.0873
▁нехватк	-11.0873
▁нелегко	-11.0873
▁сообщени	-11.0875
нном	-11.0875
▁кабинет	-11.0877
▁2012	-11.0877
▁сомнения	-11.0878
▁сахар	-11.0881
▁последняя	-11.0891
▁детал	-11.0891
▁умере	-11.0891
▁отцом	-11.0895
▁принтер	-11.0897
▁выросли	-11.0898
▁Посмотрим	-11.0901
▁Необходимо	-11.0901
▁Эл	-11.0901
▁заканчивает	-11.0902
▁категории	-11.0903
▁видом	-11.0905
▁длинн	-11.0907
▁сводит	-11.0907
▁яйца	-11.0908
▁встал	-11.0908
зади	-11.0909
▁удивлени	-11.0912
▁художников	-11.092
войну	-11.0922
▁слайде	-11.0923
▁Эт	-11.0927
▁стиль	-11.0928
▁транспорта	-11.093
▁правилам	-11.0933
ваться	-11.0933
▁снизи	-11.0935
юр	-11.0936
▁начну	-11.0936
▁приходить	-11.0936
▁задания	-11.0939
▁сна	-11.0947
▁Кир	-11.095
▁незнакомц	-11.095
думаешь	-11.0955
бивают	-11.0955
▁умею	-11.0956
▁собран	-11.0967
шься	-11.0971
▁снижени	-11.0972
▁иммунн	-11.0972
▁потеплени	-11.0974
▁следствие	-11.0974
▁обстановк	-11.0979
▁мозгов	-11.0982
▁основыва	-11.0983
еден	-11.0986
льная	-11.0987
▁выборы	-11.099
▁дешёвы	-11.0995
▁Компьютер	-11.0997
▁синдром	-11.0997
▁Правительств	-11.0997
▁тарелк	-11.0997
▁покинул	-11.0997
▁семьёй	-11.0997
▁выйдет	-11.0998
▁гул	-11.0998
▁Питер	-11.1
▁фунтов	-11.1001
▁Будет	-11.1001
▁результата	-11.1003
звините	-11.1007
▁Особенно	-11.1008
▁края	-11.1009
▁положения	-11.1014
▁заявление	-11.1014
▁пра	-11.1016
▁пита	-11.1018
▁радиаци	-11.102
▁последствий	-11.1027
▁визуальны	-11.1028
▁состоят	-11.1029
▁поворот	-11.1035
▁устойчивы	-11.1038
▁дизайне	-11.1039
▁Совет	-11.104
▁живым	-11.1044
▁техническо	-11.1049
▁хирурги	-11.1049
▁Ок	-11.1051
анд	-11.1052
рг	-11.1053
▁капл	-11.1055
▁живот	-11.1056
▁мужско	-11.1058
ачива	-11.1059
▁бол	-11.106
▁гормон	-11.1064
жит	-11.1067
▁десят	-11.1068
▁компьютере	-11.1069
орош	-11.107
▁станци	-11.1074
▁точны	-11.1078
▁интересовал	-11.1082
▁фундаментально	-11.1084
▁достиг	-11.1085
▁логик	-11.1087
третьи	-11.1091
▁балл	-11.1099
▁синтез	-11.1099
▁отказыва	-11.1103
▁скал	-11.1114
▁дефицит	-11.1122
▁дождь	-11.1122
▁механик	-11.1122
▁редактор	-11.1122
▁Вероятно	-11.1122
▁муравьёв	-11.1122
▁небольшим	-11.1122
▁писатель	-11.1122
▁исследователи	-11.1122
▁Эбол	-11.1123
▁образы	-11.1124
▁Союз	-11.1124
▁названия	-11.1124
▁иностранны	-11.1135
▁поднял	-11.1136
▁эффективност	-11.1137
▁весом	-11.1139
▁продукта	-11.1139
▁недостатк	-11.1144
тели	-11.1147
▁предсказыва	-11.1148
▁Гаи	-11.1152
▁берет	-11.1157
▁поддерживают	-11.1159
▁любым	-11.1159
▁выхода	-11.116
▁муравьи	-11.1161
▁врача	-11.1164
▁принима	-11.1165
▁спутников	-11.1168
▁обман	-11.1168
▁американской	-11.1168
▁поймёт	-11.1169
▁разно	-11.1169
▁Гер	-11.117
▁лев	-11.117
▁психо	-11.1171
▁неожиданны	-11.1171
▁возник	-11.1173
▁наличи	-11.1177
▁сфера	-11.1179
▁деревня	-11.1181
▁нож	-11.1181
▁разумеет	-11.1187
▁ногами	-11.1188
▁фермеры	-11.1189
▁превратил	-11.119
▁Вер	-11.1193
▁пережива	-11.1195
▁учим	-11.1195
▁мас	-11.1197
▁Западе	-11.1197
▁строительства	-11.1197
▁Рад	-11.1198
▁стрел	-11.12
▁интереса	-11.1201
▁чисты	-11.1206
дадим	-11.121
чел	-11.1211
▁встречают	-11.122
▁замер	-11.122
▁чувствуе	-11.1228
▁демократию	-11.123
▁телом	-11.123
▁неот	-11.1235
тянут	-11.1237
▁распределение	-11.1238
рт	-11.1245
▁подверг	-11.1248
орт	-11.1248
▁Википеди	-11.1248
▁Лучше	-11.1248
▁холодильник	-11.1248
▁маршрут	-11.1248
▁раскрыть	-11.1248
▁худши	-11.1249
▁технологическо	-11.125
цены	-11.1251
▁психологически	-11.1251
▁приглаша	-11.1251
▁повреждения	-11.1252
▁находитесь	-11.1254
▁повторить	-11.1256
▁прожива	-11.126
▁двер	-11.1262
▁забыть	-11.1262
▁направления	-11.1265
▁хаос	-11.1269
▁печата	-11.127
▁сообщи	-11.1277
▁наркотик	-11.1279
▁наркотиков	-11.1281
▁отдать	-11.1282
чувств	-11.1282
▁северо	-11.1284
▁пишут	-11.1285
▁свободны	-11.1286
▁весело	-11.1286
▁комар	-11.1286
▁предпочитаю	-11.1287
▁стремление	-11.1289
▁обсуждения	-11.1289
▁массовы	-11.1289
▁воображения	-11.129
▁порт	-11.129
далеко	-11.1291
▁3-	-11.1291
жн	-11.1293
гло	-11.1294
▁столетия	-11.1297
▁носить	-11.1297
▁наблюдение	-11.1299
▁обеспечива	-11.1301
▁энергией	-11.1303
▁экрана	-11.1308
▁представлял	-11.1311
▁великолепно	-11.1311
▁министр	-11.1311
▁поведени	-11.1312
▁психолог	-11.1318
▁индивидуально	-11.1321
▁изменя	-11.1324
▁Тай	-11.1324
▁потрясающ	-11.1325
▁Калифорни	-11.1325
знать	-11.1326
▁броса	-11.1329
дол	-11.1329
▁Бы	-11.1334
▁прекратить	-11.1335
▁испытал	-11.1336
▁пишу	-11.1339
▁свобода	-11.1342
▁череп	-11.1342
два	-11.1343
▁эффекты	-11.1344
▁веков	-11.1346
▁сообщил	-11.1347
фар	-11.135
▁белк	-11.135
▁годам	-11.1353
▁активны	-11.1355
▁сокращ	-11.1355
▁отзыв	-11.1356
▁интенсивно	-11.1357
▁содержат	-11.136
лки	-11.1361
▁выращивани	-11.1362
▁безопасны	-11.1362
▁распространяет	-11.1362
▁оставля	-11.1364
▁сознани	-11.1367
▁пересмотре	-11.1372
▁кафе	-11.1373
▁премьер	-11.1376
▁пистолет	-11.1376
▁помощник	-11.1376
▁галере	-11.1376
▁заложен	-11.1376
▁привычк	-11.1376
▁Молод	-11.1377
▁принято	-11.1377
▁жестоки	-11.1377
▁поставлен	-11.1379
▁эффективным	-11.138
▁шахт	-11.1381
▁ночно	-11.1382
▁привел	-11.1384
▁деньгам	-11.1385
▁подвержен	-11.1385
▁учебник	-11.1386
▁заменя	-11.1387
▁путешестви	-11.1387
▁руководство	-11.1389
▁маленьком	-11.1392
▁пластиковы	-11.1395
▁образуют	-11.1395
▁вызван	-11.1396
▁юрист	-11.1397
▁предки	-11.1403
▁фермер	-11.1404
▁Боб	-11.1406
▁продвига	-11.141
▁научился	-11.141
▁комната	-11.1413
▁космоса	-11.1415
▁общение	-11.1415
ворот	-11.1421
▁прошлы	-11.1422
скоп	-11.1424
▁0,	-11.1427
▁летучи	-11.1428
явил	-11.1431
▁давали	-11.1435
▁сумасшедши	-11.1437
▁мощно	-11.1439
▁птица	-11.1443
▁открытий	-11.1446
▁польз	-11.1448
вил	-11.1453
▁представили	-11.1453
▁плот	-11.1458
бин	-11.1462
▁зим	-11.1463
▁убрать	-11.1464
▁Недавн	-11.1467
клон	-11.1473
работало	-11.1474
час	-11.1475
энд	-11.1476
▁культурно	-11.1482
▁готовить	-11.1486
рр	-11.1489
ёй	-11.1492
▁отрица	-11.1493
▁мило	-11.1494
▁Европ	-11.1495
▁записать	-11.1497
▁присоедини	-11.1499
летают	-11.1502
образить	-11.1503
▁важность	-11.1504
▁льд	-11.1506
▁продовольственн	-11.1506
▁Между	-11.1506
▁диапазон	-11.1506
▁исполнени	-11.1506
▁предотвращени	-11.1506
▁сформировал	-11.1506
▁энтузиазм	-11.1506
▁обложк	-11.1506
▁бензин	-11.1506
▁намерения	-11.151
▁Лет	-11.1512
▁присутствует	-11.1513
▁пойма	-11.1513
▁кита	-11.1517
▁выбросы	-11.1518
▁уважение	-11.1519
▁вирусов	-11.1528
▁функциональн	-11.1534
▁лед	-11.1534
▁Дик	-11.1538
▁Начнё	-11.154
▁мобильно	-11.1545
▁общая	-11.1546
▁льв	-11.1546
▁шест	-11.1557
▁млекопитающих	-11.1558
▁рис	-11.1565
▁волну	-11.1568
▁микробов	-11.157
▁получа	-11.157
▁верхне	-11.157
▁генетик	-11.157
▁имеющих	-11.157
▁Люб	-11.1571
▁задают	-11.1572
вари	-11.1575
▁старая	-11.1575
енс	-11.1581
▁беременност	-11.1582
▁ходу	-11.1583
▁регулярно	-11.1585
▁строят	-11.159
▁захотел	-11.159
▁перенос	-11.1591
▁ответственны	-11.1593
▁полезным	-11.1593
щут	-11.1593
▁самц	-11.1595
рва	-11.1596
▁горячи	-11.1597
рик	-11.1605
▁внести	-11.1606
▁клетк	-11.1617
▁электрод	-11.1619
▁входит	-11.1621
▁называл	-11.1621
Уже	-11.1622
▁мышей	-11.1624
вел	-11.1624
▁предполагает	-11.1627
▁способност	-11.163
▁выражен	-11.1631
▁западны	-11.1632
льскохозяйственн	-11.1638
▁ингредиент	-11.1638
▁компромисс	-11.1638
▁начинать	-11.1638
▁услышит	-11.1638
▁сэкономи	-11.1638
▁ураган	-11.1638
▁обожаю	-11.1638
▁сравним	-11.1638
▁Довольно	-11.1638
▁мелоч	-11.1638
▁договор	-11.1641
▁акци	-11.1641
▁областе	-11.1642
▁терапии	-11.1643
▁суда	-11.1644
▁стоящи	-11.1644
▁передавать	-11.1648
▁восхища	-11.165
▁случайны	-11.1652
▁покида	-11.1657
▁распространен	-11.1657
▁жестоко	-11.1657
▁стекл	-11.1659
▁склон	-11.166
▁Ага	-11.1662
▁твёрдо	-11.1664
▁линз	-11.1665
▁Рим	-11.1667
читыва	-11.1669
▁смотря	-11.167
▁сыгра	-11.1672
▁работники	-11.1674
восточн	-11.1679
▁временно	-11.168
▁очереди	-11.1685
▁плакат	-11.1689
▁предприятия	-11.1689
▁расширени	-11.1689
▁соединения	-11.1694
▁подходил	-11.1696
яснения	-11.1698
▁публику	-11.1699
ношу	-11.1701
▁Созда	-11.1707
▁краск	-11.1707
▁кнопк	-11.1708
енной	-11.1709
▁поддержа	-11.1711
▁этаж	-11.1712
▁упоминал	-11.172
▁товары	-11.172
▁убежден	-11.1721
▁распознавани	-11.1721
кул	-11.1722
жная	-11.1724
▁заключен	-11.1729
▁находят	-11.1734
▁повторно	-11.1735
▁лучшем	-11.1737
▁взаимодействи	-11.174
▁восточно	-11.174
сайт	-11.1742
▁связыва	-11.1746
▁современном	-11.1758
чал	-11.176
▁маленького	-11.1763
▁разработке	-11.1765
▁тяжёлы	-11.1765
осе	-11.177
▁Оксфорд	-11.1771
▁диаметр	-11.1771
▁ископаемы	-11.1771
▁поблагодари	-11.1771
▁обеспокоен	-11.1771
▁дебат	-11.1771
▁контракт	-11.1771
▁производим	-11.1771
▁приземли	-11.1771
▁звонк	-11.1772
▁развить	-11.1773
▁2001	-11.1774
▁радости	-11.1774
▁относиться	-11.178
▁реализаци	-11.178
▁коллектив	-11.1782
▁33	-11.1784
▁публикаци	-11.1786
▁новост	-11.1787
▁массив	-11.1791
▁передвижения	-11.1795
▁провод	-11.1795
дон	-11.1796
▁Любо	-11.1796
▁мастерск	-11.18
▁фермеров	-11.1805
▁прошла	-11.1807
▁потребител	-11.1809
▁дизайнеров	-11.181
▁подобн	-11.1811
▁сыграл	-11.1811
▁английско	-11.1812
▁наверху	-11.1812
ЭС	-11.1813
▁рукам	-11.1815
▁облако	-11.1818
▁Система	-11.182
▁готова	-11.182
▁нашел	-11.1825
▁Новы	-11.1826
▁всеобще	-11.1828
▁крест	-11.1829
▁собственном	-11.183
▁низким	-11.1834
▁уровн	-11.1836
▁зона	-11.1836
▁сильным	-11.1836
▁получаю	-11.1837
▁архитектуры	-11.1837
▁Пакистан	-11.1837
▁столе	-11.184
казаться	-11.184
▁заняти	-11.1843
▁изучали	-11.1846
фон	-11.1846
мира	-11.1853
▁убийств	-11.1854
▁диаграмм	-11.1857
▁дыры	-11.1857
ушек	-11.1861
▁сопереживани	-11.1862
били	-11.1864
▁Мама	-11.1864
▁Точно	-11.1866
фил	-11.187
▁заметит	-11.1876
▁инженеры	-11.1876
▁двор	-11.1877
звонить	-11.1888
▁инструмента	-11.189
▁уважени	-11.1894
▁раствор	-11.1899
▁перемеща	-11.19
▁низ	-11.1905
▁СПИД	-11.1906
РНК	-11.1906
▁корабля	-11.1906
▁октябр	-11.1906
▁Скоре	-11.1906
▁показателе	-11.1907
▁Браун	-11.1907
▁приобре	-11.1907
▁ТВ	-11.191
▁строительны	-11.1912
▁смертность	-11.1913
лла	-11.1918
▁располага	-11.1918
▁ветр	-11.1919
▁столиц	-11.192
▁велик	-11.1921
▁изучаем	-11.1924
▁здравоохранени	-11.1926
бел	-11.1926
▁обзор	-11.1926
лорид	-11.1927
▁коры	-11.1929
▁гонк	-11.1933
▁словам	-11.1934
▁доказательств	-11.1935
▁приспособлен	-11.1936
▁слон	-11.1937
▁Ганд	-11.1942
▁дым	-11.1943
▁каковы	-11.1943
ните	-11.1946
▁лестнице	-11.195
ездить	-11.1954
▁описывает	-11.1957
▁остро	-11.1961
▁причё	-11.1963
▁пропуска	-11.1969
▁китайски	-11.1969
вались	-11.1969
дова	-11.1975
▁белка	-11.1978
рол	-11.1978
▁высказывани	-11.1979
▁распределени	-11.1981
ходила	-11.1981
▁сложил	-11.1983
▁зелены	-11.1983
▁нарушения	-11.1983
▁производстве	-11.1986
▁мощн	-11.1993
▁определять	-11.1997
▁подводны	-11.2
▁спутник	-11.2
▁тестировани	-11.2
▁приходили	-11.2001
▁звучал	-11.2003
▁килограмм	-11.201
▁СПИДа	-11.2014
▁спрашивает	-11.2015
▁файл	-11.2015
вест	-11.2015
▁созданно	-11.2017
ави	-11.2019
таты	-11.2029
▁играли	-11.2032
▁стыд	-11.2035
▁бедность	-11.2037
▁моно	-11.2039
▁оставши	-11.2039
▁чашк	-11.2041
▁территория	-11.2043
ставляет	-11.2043
▁Манхэттен	-11.2043
▁Учёные	-11.2043
▁волонтёр	-11.2043
▁инвестировать	-11.2043
▁кошмар	-11.2043
▁переосмысли	-11.2043
▁проповед	-11.2043
▁отклик	-11.2043
▁убежда	-11.2043
▁надпись	-11.2043
▁ученых	-11.2043
▁Уганд	-11.2043
▁доставк	-11.2044
▁Часто	-11.2044
▁обучать	-11.2044
▁снимать	-11.2045
▁примат	-11.2046
▁паук	-11.2047
▁боле	-11.2048
▁слышала	-11.2051
▁тёмн	-11.2055
▁страдает	-11.2056
▁комет	-11.2056
ровать	-11.2057
▁выстрел	-11.2057
▁наилучш	-11.2057
▁парол	-11.2059
▁лёгко	-11.2059
страницы	-11.2062
▁выпустил	-11.2063
▁работник	-11.207
▁потратить	-11.207
▁познакоми	-11.2071
▁изменениям	-11.2078
▁смея	-11.208
▁малярии	-11.208
▁детск	-11.2082
▁Кит	-11.2086
▁рассматрива	-11.2092
▁сухо	-11.2096
▁всеоб	-11.2096
зная	-11.2105
▁удовлетворени	-11.2106
ура	-11.2107
▁пал	-11.2107
▁прекрасным	-11.2108
▁выделить	-11.2114
▁ужасн	-11.2117
▁наследие	-11.2118
▁задали	-11.2119
ышел	-11.2121
▁таблетк	-11.2121
▁куб	-11.2121
бирать	-11.2125
считать	-11.2128
▁предоставил	-11.2129
▁повод	-11.2129
▁стоп	-11.2129
▁начинал	-11.2137
▁сидящи	-11.2138
▁попали	-11.2138
▁противоречи	-11.2144
▁старени	-11.2151
▁мясо	-11.2153
▁доказал	-11.216
логи	-11.2162
▁богат	-11.2164
ёшь	-11.2167
▁непрерывно	-11.2168
▁1,	-11.2175
единили	-11.2176
▁традиция	-11.2179
▁взволнован	-11.2182
▁геноцид	-11.2182
иггс	-11.2182
▁супруг	-11.2182
▁отчаяни	-11.2182
▁смешива	-11.2182
кручива	-11.2182
▁переработк	-11.2182
▁представляем	-11.2183
▁происходящее	-11.2183
▁билет	-11.2183
▁колонии	-11.2183
▁десятилетие	-11.2185
▁покажет	-11.2186
▁мечтать	-11.2186
нервнича	-11.2187
▁Гугл	-11.2187
▁дало	-11.2188
▁начальник	-11.2188
▁прямы	-11.219
▁ветеран	-11.219
▁Смит	-11.2194
▁Неуж	-11.2195
▁Удивительно	-11.2195
▁соглаша	-11.2197
▁категори	-11.2197
▁уголк	-11.2197
▁метан	-11.2198
▁благ	-11.22
▁продают	-11.22
▁указывает	-11.2203
▁Сер	-11.2204
▁улыбк	-11.2206
▁удержива	-11.2209
▁ствол	-11.2211
▁изобрета	-11.2215
нит	-11.2215
▁весел	-11.2218
▁сравнива	-11.2219
▁сердечно	-11.2221
▁Мил	-11.2221
▁одиночк	-11.2222
▁проигра	-11.2223
▁клиентов	-11.2226
▁верны	-11.2228
▁бесплатны	-11.2228
▁потенциальны	-11.2229
▁маляри	-11.223
▁коже	-11.2234
джа	-11.2235
▁родно	-11.2235
▁полюс	-11.2237
▁изуча	-11.2241
▁клей	-11.2242
▁остановк	-11.2242
▁графика	-11.2244
▁финансирование	-11.2246
▁невидимы	-11.2247
▁контроле	-11.2248
▁предпринимателе	-11.2248
▁кнопку	-11.2249
▁жидкость	-11.2249
джи	-11.2251
▁строит	-11.2251
▁низкой	-11.2261
гласит	-11.2266
▁деревн	-11.2266
▁иск	-11.2267
▁залив	-11.2271
▁задавал	-11.2271
вшую	-11.2273
▁устал	-11.2274
гни	-11.2275
▁предыдуще	-11.2279
▁основным	-11.228
▁записан	-11.2282
оби	-11.2283
▁вакцины	-11.2285
▁зелёно	-11.2297
▁Пред	-11.2299
▁удобно	-11.23
▁стихи	-11.2302
▁шутк	-11.2307
переди	-11.2307
▁сторонник	-11.2311
▁черны	-11.2312
▁21-	-11.2316
Анджелесе	-11.232
▁попада	-11.232
▁нагрузк	-11.2323
▁электростанци	-11.2323
▁мелоди	-11.2323
▁легенд	-11.2323
▁фанат	-11.2323
▁одиночеств	-11.2324
▁предпринять	-11.2325
▁послание	-11.2325
уметь	-11.2325
▁институты	-11.2325
▁семена	-11.2328
▁отправлять	-11.2329
▁передвигаться	-11.2329
▁рецептор	-11.233
▁2003	-11.2333
▁целя	-11.2334
▁диет	-11.2335
▁удовольствия	-11.2336
▁Роб	-11.2342
▁горе	-11.2343
▁делят	-11.2348
▁передаёт	-11.2349
единения	-11.2351
▁реальным	-11.2355
▁мальчика	-11.2355
▁воздействия	-11.2357
▁Дарвин	-11.2359
▁умел	-11.2369
▁взаимоотношения	-11.2372
▁насекомы	-11.2374
▁цене	-11.2375
▁тенденция	-11.2375
▁способностью	-11.2375
▁глупо	-11.2375
▁приложения	-11.2376
слушайте	-11.2378
▁управляем	-11.2383
▁телу	-11.2384
▁умру	-11.239
▁образу	-11.2395
▁разделить	-11.2396
явлений	-11.2399
▁местным	-11.2404
▁восток	-11.2406
▁спасени	-11.2407
▁Карл	-11.2408
▁расстройства	-11.241
▁разрабатыва	-11.2415
▁соединя	-11.2415
▁подсказ	-11.2421
▁сотн	-11.2422
кий	-11.2423
усь	-11.2425
▁темноте	-11.2427
▁порой	-11.2429
▁снижает	-11.2431
ставим	-11.2433
▁сельски	-11.2434
▁слух	-11.2435
емен	-11.2438
▁обезьяны	-11.2439
▁универсальны	-11.2442
▁предложени	-11.2446
▁маск	-11.2447
▁навык	-11.2448
▁ростом	-11.2448
▁держа	-11.2449
▁зависим	-11.2451
▁приходил	-11.2452
▁типов	-11.2454
▁американск	-11.2456
▁остановил	-11.2458
▁изучаю	-11.2459
▁приятны	-11.2459
▁метр	-11.2462
крыл	-11.2462
▁получат	-11.2464
▁потребителе	-11.2465
▁расширение	-11.2465
▁удвои	-11.2466
▁утверждает	-11.2466
▁церемони	-11.2466
дышать	-11.2466
▁Брайан	-11.2466
▁исчезает	-11.2466
▁засух	-11.2467
▁камне	-11.2469
▁реагирует	-11.2469
▁необычны	-11.2472
▁находился	-11.2472
охо	-11.2472
▁Рио	-11.2474
▁1,5	-11.2475
▁2,5	-11.2476
▁Сдела	-11.2481
▁закрыва	-11.2482
▁увеличива	-11.2483
▁довод	-11.2485
▁вряд	-11.2485
▁умеет	-11.2486
▁эквивалент	-11.2486
▁чувству	-11.2487
▁Дела	-11.2491
▁кит	-11.2491
▁потепление	-11.2492
▁ошиб	-11.2492
▁Мед	-11.2498
▁присоединя	-11.2502
▁втор	-11.2503
▁особенность	-11.2504
▁Анд	-11.2506
▁включ	-11.2507
▁автомат	-11.2509
▁представлени	-11.2518
▁сработал	-11.252
▁бабушки	-11.2525
ладить	-11.2526
айн	-11.2526
▁погружа	-11.2536
▁вспышк	-11.2537
ош	-11.2542
ога	-11.2542
▁экологическо	-11.2543
чуть	-11.2544
▁холод	-11.2545
▁тестов	-11.2546
▁испытани	-11.2547
▁волна	-11.2547
▁устойчивость	-11.2551
▁задумал	-11.2554
▁метода	-11.2557
▁повсеместно	-11.256
▁собаки	-11.2561
▁Мас	-11.2563
▁лекции	-11.2563
▁убиты	-11.2566
▁умение	-11.2566
▁длинно	-11.2568
▁эволюционно	-11.2569
▁знакомо	-11.2571
цел	-11.2577
▁страной	-11.2578
▁получен	-11.2582
▁физическ	-11.2594
▁обнаружени	-11.2597
▁странице	-11.2598
▁ставит	-11.2598
бег	-11.2598
▁преподавател	-11.2599
▁достигнут	-11.26
цами	-11.2602
▁встретила	-11.2604
▁решит	-11.2604
▁художника	-11.261
▁формирует	-11.261
▁бассейн	-11.2611
▁критери	-11.2611
▁презерватив	-11.2611
▁супермаркет	-11.2611
▁Нобелевск	-11.2611
▁кукуруз	-11.2611
▁известен	-11.2611
▁шприц	-11.2611
▁интеллектуально	-11.2611
▁импери	-11.2611
▁визит	-11.2611
▁разреша	-11.2611
▁листья	-11.2614
▁умнее	-11.2615
▁заполнен	-11.2616
▁попробуем	-11.262
▁развивают	-11.262
▁финансировани	-11.2622
▁тонки	-11.2622
▁студентам	-11.2627
▁материальны	-11.2627
▁предположение	-11.2628
▁приближа	-11.2628
▁дав	-11.263
▁естественным	-11.263
▁газеты	-11.2631
▁музыкально	-11.2632
▁Наук	-11.2633
▁удален	-11.2633
▁статья	-11.2638
▁упаковк	-11.2638
▁лицензи	-11.264
▁любопытно	-11.264
▁снижение	-11.264
▁Войн	-11.2647
▁рада	-11.2651
▁мамы	-11.2652
▁угроза	-11.2653
▁мудрость	-11.2653
ставили	-11.2659
▁позволят	-11.266
зол	-11.266
▁хранит	-11.2661
▁базовы	-11.2661
▁составляющи	-11.2665
мери	-11.2666
▁тур	-11.2666
▁побережье	-11.2669
▁контролирует	-11.267
▁ожидаем	-11.2677
▁использовала	-11.2678
▁решающ	-11.2684
▁Огромно	-11.2685
▁зрител	-11.2686
▁спе	-11.2693
▁15-	-11.2693
связ	-11.2693
▁основы	-11.2694
▁забавно	-11.2694
оедино	-11.2696
▁факта	-11.2697
▁вдохновение	-11.2698
анной	-11.2702
ратор	-11.2708
▁отклонения	-11.271
▁убеждени	-11.2714
▁холодны	-11.2719
▁астроном	-11.2722
син	-11.2723
▁почву	-11.2726
▁вспомнил	-11.2728
влекательн	-11.2731
чок	-11.2731
рика	-11.2732
▁жителям	-11.2732
▁придержива	-11.2734
позна	-11.2734
▁решен	-11.2735
▁ше	-11.2737
▁подняли	-11.2738
▁осознание	-11.2741
▁гидро	-11.2742
▁антибиотик	-11.2743
▁корол	-11.2744
▁горди	-11.2744
▁увеличил	-11.2747
▁дик	-11.2749
стаёт	-11.2749
▁Кинг	-11.2751
▁стихотворение	-11.2751
▁река	-11.2757
▁конкурент	-11.2758
▁беспокоит	-11.2758
▁Четыре	-11.2758
▁коридор	-11.2758
▁тревог	-11.2758
▁печень	-11.2758
▁акцент	-11.2758
▁медуз	-11.2759
▁подготовить	-11.276
▁освеща	-11.276
▁длительно	-11.2761
▁Должн	-11.2761
▁191	-11.2763
▁некое	-11.2766
▁дву	-11.2766
▁пережить	-11.2767
▁побережья	-11.2769
▁хранить	-11.277
▁смелы	-11.2775
▁недавни	-11.2775
▁дворе	-11.2775
▁содержани	-11.2776
лены	-11.2781
▁искусстве	-11.2783
▁быстр	-11.2784
▁свойство	-11.2787
лучше	-11.279
▁блага	-11.2792
падают	-11.2792
▁королев	-11.2792
▁сосредоточи	-11.2795
▁Ваши	-11.2797
▁сочувствие	-11.28
инга	-11.2801
ители	-11.2804
▁зеркал	-11.2816
Обама	-11.2819
▁индивидуальны	-11.2823
▁Оста	-11.2829
▁55	-11.2829
анг	-11.283
▁толк	-11.2833
▁отпуск	-11.2837
▁уши	-11.284
▁теряют	-11.284
▁Чего	-11.284
▁упад	-11.2843
▁парке	-11.2845
▁займ	-11.2849
ближе	-11.285
▁решении	-11.285
▁похорон	-11.2853
▁пул	-11.2854
▁продать	-11.2854
▁обсуждали	-11.2856
▁процветани	-11.287
▁сложное	-11.287
▁курса	-11.2873
▁состоял	-11.2877
▁определяют	-11.2877
▁правом	-11.2878
▁реагирова	-11.2878
▁Гре	-11.288
▁продавал	-11.2883
▁происходящи	-11.2884
▁отража	-11.2887
▁распространи	-11.2891
▁глупы	-11.2892
мель	-11.2894
▁маркетинг	-11.2895
▁шара	-11.2897
прощения	-11.2897
▁тайны	-11.2898
рус	-11.2898
tte	-11.2899
▁окружение	-11.2901
▁Расскажи	-11.2903
▁декабр	-11.2907
▁запущен	-11.2907
▁лагерь	-11.2907
▁немедленно	-11.2907
▁сетчатк	-11.2907
▁эволюционировал	-11.2907
▁заголовк	-11.2907
▁Честно	-11.2907
▁камня	-11.2907
▁гипер	-11.2907
▁рационально	-11.2907
▁Кевин	-11.2908
▁новостях	-11.291
▁сказав	-11.2911
▁твит	-11.2911
▁раковы	-11.2913
▁глубок	-11.2915
▁Начина	-11.2917
▁Какое	-11.2919
▁сократи	-11.292
▁мысленно	-11.292
▁палочк	-11.2922
▁29	-11.2925
▁черта	-11.2926
▁получал	-11.2928
▁точностью	-11.2929
▁лидерам	-11.293
▁пластика	-11.2931
▁вычислени	-11.2932
▁обеспечивает	-11.2933
▁минимальн	-11.2935
▁описан	-11.2936
▁поход	-11.2937
▁готово	-11.2939
стараться	-11.294
▁фирм	-11.2943
▁взаимодействую	-11.2947
▁удивил	-11.2947
▁скач	-11.2948
▁спроектирован	-11.295
▁предположения	-11.2951
метров	-11.2954
▁пис	-11.2955
▁парка	-11.2956
▁насили	-11.2957
▁пустыне	-11.2957
того	-11.2959
▁настоящем	-11.2962
▁третьего	-11.2962
▁профессионально	-11.2968
▁применени	-11.2969
▁выжил	-11.297
образован	-11.2971
ойдёт	-11.2972
▁Красны	-11.2974
▁лидер	-11.2976
▁фоне	-11.2976
зывают	-11.2977
▁парковк	-11.2977
▁заработать	-11.2981
▁трансформаци	-11.2986
героев	-11.2989
▁занятие	-11.2991
▁квантово	-11.2992
нни	-11.2996
▁производительно	-11.3002
▁исходит	-11.3003
лежащ	-11.3004
▁столети	-11.3005
▁обманыва	-11.3006
▁воображени	-11.3008
▁интуици	-11.3008
▁обстоятельства	-11.3011
▁сумма	-11.3018
Е	-11.3018
▁усовершенствова	-11.3018
▁призыв	-11.302
▁зависимость	-11.3022
ведё	-11.3024
емлем	-11.3024
▁особенны	-11.3024
▁управляют	-11.303
▁Газ	-11.3031
ждут	-11.3033
▁важнейши	-11.3033
▁льш	-11.3035
▁совершенств	-11.3039
▁гламур	-11.3042
▁День	-11.3042
▁статьи	-11.3043
встреч	-11.3045
▁включен	-11.3046
кру	-11.3047
▁уравнение	-11.3048
▁заполни	-11.3051
▁присоединить	-11.3054
▁подробно	-11.3055
▁повышени	-11.3055
▁добива	-11.3056
остаточно	-11.3057
▁Стран	-11.3058
▁функция	-11.3059
▁Александр	-11.3059
▁администраци	-11.3059
▁спонсор	-11.3059
▁электроэнерги	-11.3059
▁Гейтс	-11.3059
▁Индию	-11.3059
▁оператор	-11.3059
▁детях	-11.3059
▁Совсем	-11.3059
▁описыва	-11.3062
▁энергетически	-11.3063
▁2050	-11.3063
▁образов	-11.3064
енько	-11.3066
▁заповедник	-11.3067
▁сумк	-11.3067
ушли	-11.3068
▁Вернём	-11.3069
▁Коре	-11.3071
▁коллега	-11.3071
▁давления	-11.3078
▁уехал	-11.3081
▁купили	-11.3083
▁куча	-11.3085
▁проче	-11.3088
▁питание	-11.3089
▁запусти	-11.309
▁крылья	-11.3091
▁правильном	-11.3095
▁уничтожени	-11.3099
▁конфликтов	-11.3105
▁гостин	-11.3108
▁несчасть	-11.3111
▁едет	-11.3111
гри	-11.3112
▁вспоминаю	-11.3112
▁меняться	-11.3115
▁участка	-11.3115
▁депресси	-11.3117
▁прям	-11.3122
▁дедушка	-11.3122
падает	-11.3124
▁молча	-11.3132
▁утверждение	-11.3141
▁девяти	-11.3141
▁оказыва	-11.3143
▁друзьям	-11.3144
▁индийски	-11.3147
▁упомяну	-11.3147
▁газета	-11.3148
учения	-11.315
▁закончили	-11.315
▁континента	-11.315
▁образцов	-11.315
▁размеща	-11.3151
▁девушк	-11.3157
▁текуще	-11.3159
▁неизвестны	-11.3161
▁урожай	-11.3164
волю	-11.3165
▁жилищ	-11.3166
вно	-11.3166
▁исследу	-11.3167
▁Дом	-11.317
▁Либ	-11.3171
долю	-11.3171
▁китайско	-11.3174
▁молекула	-11.3179
▁пояс	-11.3179
▁Ан	-11.3187
▁африканц	-11.3188
▁дыхание	-11.3192
больше	-11.3193
▁лишен	-11.3197
▁списка	-11.3198
▁очевидны	-11.32
▁создавал	-11.3201
▁покупател	-11.3201
▁человечеств	-11.3205
▁Мирово	-11.3205
▁избави	-11.3206
▁имело	-11.3206
▁штуку	-11.3207
▁тени	-11.3207
▁Мар	-11.321
▁предлага	-11.321
▁Голливуд	-11.3212
▁адаптаци	-11.3212
▁воплотить	-11.3212
▁клавиатур	-11.3212
▁контейнер	-11.3212
▁парадигм	-11.3212
▁паутин	-11.3212
▁фантастик	-11.3212
▁феврал	-11.3212
▁эфир	-11.3213
▁земель	-11.3213
▁выигрыва	-11.3213
▁напуган	-11.3213
▁решаем	-11.3213
▁дальнейше	-11.3213
▁изобили	-11.3213
▁запрограммирова	-11.3213
▁протокол	-11.3213
▁протеин	-11.3213
▁выражения	-11.3215
▁глобальном	-11.3215
ступают	-11.3215
▁Привед	-11.3216
▁своя	-11.3216
▁механически	-11.3217
▁уязвим	-11.3217
▁значил	-11.3218
▁творить	-11.3218
▁МК	-11.3218
делить	-11.3221
▁религиозно	-11.3223
▁пропаганд	-11.3224
сани	-11.3225
▁шок	-11.3225
▁терпе	-11.3228
▁эпохи	-11.3228
▁перевести	-11.323
▁2-	-11.323
▁инновационны	-11.323
волосы	-11.3232
▁подавлен	-11.3235
▁вертикально	-11.3236
▁наполнен	-11.3238
▁лампочк	-11.3239
▁подтверждени	-11.324
▁направлени	-11.3242
▁Брун	-11.3242
▁учебны	-11.3247
▁крут	-11.3248
▁привлекл	-11.3249
▁берегу	-11.3252
▁узор	-11.3253
▁рез	-11.3253
▁столкновения	-11.3253
▁еде	-11.326
разу	-11.326
▁привык	-11.3262
▁дополнительно	-11.3263
▁характеристик	-11.3267
▁фантастически	-11.3271
▁заметно	-11.3275
▁значимы	-11.3276
▁Пару	-11.3278
▁гибки	-11.3279
▁красоты	-11.3281
цию	-11.3284
▁статистически	-11.3285
▁богатство	-11.3286
▁пи	-11.3288
▁обез	-11.329
▁мальчиков	-11.3292
ёмки	-11.3292
шат	-11.3293
▁изобретени	-11.3294
▁отвлек	-11.3301
значения	-11.3304
▁рентген	-11.3304
▁ледников	-11.3306
▁ожидает	-11.3306
станем	-11.3307
▁премии	-11.331
▁позитивно	-11.3312
росла	-11.3314
▁спал	-11.3315
▁аутизма	-11.3316
▁начально	-11.3319
▁истинно	-11.3324
ложите	-11.3328
▁Нача	-11.3329
нимаешь	-11.333
▁позитивны	-11.3333
▁192	-11.3334
делать	-11.3337
▁сталь	-11.3337
▁выпуск	-11.3338
▁бедным	-11.3339
полне	-11.334
много	-11.3343
▁хозяйств	-11.3343
▁кадры	-11.3344
5-	-11.3345
▁дипломат	-11.3346
▁слое	-11.3348
▁используемы	-11.3351
▁схема	-11.3353
▁надёжны	-11.3355
▁саму	-11.3355
▁образова	-11.3357
половин	-11.3358
▁либерал	-11.3367
▁пил	-11.3368
▁Мисс	-11.3368
▁Бангладеш	-11.3369
▁индекс	-11.3369
▁ископаемо	-11.3369
▁правосуди	-11.3369
▁эпизод	-11.3369
▁Каролин	-11.3369
▁экзамен	-11.3369
▁погрузи	-11.3369
▁тренд	-11.3369
▁мембран	-11.3369
▁Альберт	-11.3369
▁отправляет	-11.3369
▁обвиня	-11.3369
▁заполня	-11.3369
▁химикат	-11.337
▁Генри	-11.337
▁ездил	-11.3374
▁душе	-11.3375
▁виноват	-11.3376
▁рисовал	-11.3376
▁храм	-11.3377
▁Куд	-11.3379
▁круга	-11.3382
▁слуша	-11.3384
▁демонстрирует	-11.3387
▁разрабатываем	-11.3388
▁забрать	-11.3389
▁подключа	-11.339
▁звезда	-11.3391
▁больница	-11.3392
▁информационно	-11.3393
▁заработал	-11.3394
всюду	-11.3395
▁пищев	-11.3396
▁восстановление	-11.3398
▁соответствующи	-11.34
▁стремя	-11.3401
▁остры	-11.3401
▁организациям	-11.3402
▁Стэнфорд	-11.3403
▁находили	-11.3404
▁Амазонк	-11.3404
▁Майк	-11.3409
▁пробк	-11.3415
▁прочего	-11.3416
▁заходит	-11.3423
сим	-11.3425
▁принципов	-11.3426
▁поиски	-11.343
▁кресло	-11.3432
▁проник	-11.3435
▁женой	-11.344
▁изготовлени	-11.3441
▁поместили	-11.3442
▁гуманитарн	-11.3444
▁эпидемия	-11.3446
▁отслежива	-11.3446
здор	-11.3447
▁Солнечно	-11.3448
▁начне	-11.3455
▁пересека	-11.3457
▁ехал	-11.3458
▁сдвиг	-11.346
▁деталя	-11.3462
▁угрозы	-11.3462
▁дошл	-11.3462
▁основания	-11.3467
▁поступить	-11.3467
уса	-11.3468
▁бит	-11.3473
▁предоставлени	-11.3474
▁гарантирова	-11.3475
▁нанял	-11.3475
слеп	-11.3478
▁свод	-11.3482
атель	-11.3482
▁крыше	-11.3485
▁Пар	-11.3495
▁проделал	-11.3497
разнообразия	-11.3497
▁футбол	-11.3498
▁Европа	-11.3498
▁буквальном	-11.3499
дис	-11.3499
▁выходны	-11.3499
▁измерени	-11.35
▁болезням	-11.35
▁Пит	-11.3505
▁вулкан	-11.3506
▁страница	-11.3514
▁вспомнит	-11.3514
▁следит	-11.3514
▁Кал	-11.3517
культур	-11.3519
▁данн	-11.3521
▁Сп	-11.3522
нтерес	-11.3522
▁поражен	-11.3523
▁улучшени	-11.3527
▁дьявол	-11.3527
▁лагеря	-11.3527
▁наступил	-11.3527
▁путешествовал	-11.3527
▁резерв	-11.3527
▁Библи	-11.3527
▁футов	-11.3527
▁матерью	-11.3528
▁подвижн	-11.3528
▁непонят	-11.3528
▁приготовлени	-11.3528
▁звен	-11.3528
▁лягуш	-11.3528
▁угля	-11.3528
▁камни	-11.3528
▁отметк	-11.3528
▁Чарл	-11.3528
▁Дерек	-11.3528
▁дорожк	-11.3528
▁высши	-11.3529
▁Трети	-11.353
▁оборон	-11.3531
▁мистер	-11.3532
▁отобра	-11.3532
▁доступна	-11.3532
▁органически	-11.3533
▁лидерств	-11.3533
▁2015	-11.3533
▁эры	-11.3538
▁куриц	-11.3539
▁платя	-11.354
▁финанс	-11.354
▁Париже	-11.3541
▁великим	-11.3542
▁забира	-11.3542
▁трое	-11.3544
▁Тон	-11.3545
▁глин	-11.3546
▁серьёзная	-11.3548
▁дыхани	-11.3549
▁став	-11.355
▁приводят	-11.355
▁умирал	-11.355
▁характеристики	-11.355
▁аутизм	-11.3551
▁клип	-11.3551
▁продавц	-11.3552
▁демографическ	-11.3552
▁вопросам	-11.3554
▁Бэ	-11.3555
зовём	-11.3556
▁никуд	-11.3557
▁воск	-11.3558
▁ледян	-11.3558
▁музея	-11.3558
▁цу	-11.3559
кур	-11.356
бель	-11.3562
▁иду	-11.3563
▁банки	-11.3563
пользуемся	-11.3564
сли	-11.357
сона	-11.3571
развит	-11.3571
платы	-11.3572
▁Джен	-11.3572
следовало	-11.3572
▁оставляет	-11.3573
▁достать	-11.3573
ружу	-11.3574
▁невидимо	-11.358
▁требования	-11.3581
▁грязн	-11.3588
▁левы	-11.3589
▁собираете	-11.3589
эд	-11.3591
писания	-11.3591
▁достойны	-11.36
ёмся	-11.3602
марк	-11.3602
▁тёмны	-11.3603
▁Исследовани	-11.3604
▁президента	-11.3607
▁глава	-11.3608
▁процессор	-11.3611
▁третьем	-11.3611
▁растущи	-11.3614
▁тяжёло	-11.3615
добав	-11.3617
▁таблиц	-11.3617
▁передают	-11.362
▁зеркало	-11.3625
▁дальн	-11.3626
станет	-11.3631
▁боро	-11.3635
▁сканировани	-11.3635
буд	-11.3635
▁радикальны	-11.3637
▁крик	-11.3639
камер	-11.364
▁удиви	-11.3644
▁морально	-11.3644
▁принятие	-11.3644
▁взглянул	-11.3645
▁электронн	-11.3646
▁снимков	-11.3646
▁чудесно	-11.3647
▁сорт	-11.3648
▁лов	-11.3652
▁неравенства	-11.3655
▁отказать	-11.3656
кладывать	-11.366
▁стекло	-11.3662
едим	-11.3669
▁лежал	-11.367
▁характера	-11.3671
учится	-11.3672
▁полна	-11.3672
▁добыва	-11.3672
▁познакомить	-11.3675
▁черно	-11.3675
▁духовно	-11.3677
▁разу	-11.3677
ектив	-11.3677
▁рабочи	-11.3678
▁прыга	-11.3678
года	-11.3682
▁последн	-11.3685
спользуя	-11.3687
▁лежа	-11.3688
▁слеп	-11.3688
▁Президент	-11.3689
▁воспитыва	-11.3689
▁попробовал	-11.3689
▁продукци	-11.3689
▁реализовать	-11.3689
▁пересечени	-11.3689
утверждать	-11.3689
▁Скотт	-11.3689
▁предвиде	-11.3689
▁ловушк	-11.369
▁скоплени	-11.369
▁стремительно	-11.3691
▁знамениты	-11.3692
просту	-11.3692
▁прогулк	-11.3694
▁молекулярны	-11.3695
▁Име	-11.3699
▁холодн	-11.37
▁бал	-11.37
▁дат	-11.3706
▁несёт	-11.3707
▁пласт	-11.3708
месячн	-11.371
▁забрал	-11.3712
▁человеческим	-11.3713
▁подключить	-11.3713
▁внедрени	-11.3714
▁чай	-11.3714
▁воспринимаем	-11.3715
▁встрече	-11.3716
▁фаз	-11.3716
▁повернуть	-11.3717
ентрально	-11.3718
▁производств	-11.3718
▁едины	-11.3721
▁заработ	-11.3721
▁меньшинств	-11.3727
▁ближайше	-11.3728
▁оценива	-11.3731
▁проявления	-11.3731
▁скрыва	-11.3732
даются	-11.3735
▁многочисленны	-11.3735
гры	-11.3735
▁предоставляет	-11.3738
▁старик	-11.3739
▁убивает	-11.374
▁депрессия	-11.3741
▁заняло	-11.3742
▁технологиям	-11.3746
▁препараты	-11.3747
Сити	-11.3749
▁Золото	-11.375
▁самолёта	-11.375
ийся	-11.3752
▁доступным	-11.3753
▁постав	-11.3757
▁кухне	-11.376
▁Зрител	-11.3761
пить	-11.3762
▁противник	-11.3769
▁Обратит	-11.3769
садить	-11.377
▁устроил	-11.3771
▁нынешни	-11.3773
▁контрол	-11.3776
▁вино	-11.3776
▁ходит	-11.3777
▁щит	-11.3779
енность	-11.3779
▁создавали	-11.3781
▁проигрыва	-11.3786
▁Рей	-11.3788
дадут	-11.379
▁ведет	-11.379
▁замет	-11.3793
правляю	-11.3795
▁размышлял	-11.3796
отите	-11.3797
▁несчастны	-11.38
нач	-11.3802
▁освещени	-11.3803
▁Суд	-11.3809
▁Супер	-11.3815
▁изобретател	-11.3818
рана	-11.382
ответственно	-11.3821
▁совместны	-11.3824
▁схожи	-11.3829
▁перенес	-11.3829
сок	-11.383
▁ключево	-11.3831
▁слез	-11.3834
▁зов	-11.384
сегда	-11.3842
▁СО	-11.3843
удш	-11.3843
▁снимал	-11.3847
▁разреза	-11.3848
▁служи	-11.3849
▁шизофрени	-11.3853
▁аккумулятор	-11.3853
▁искренне	-11.3853
▁окситоцин	-11.3853
▁подчеркну	-11.3853
▁путешествовать	-11.3853
▁пульс	-11.3853
▁свидани	-11.3853
▁тунца	-11.3853
рэнк	-11.3853
▁инвестирован	-11.3853
▁модифицирова	-11.3853
▁концепция	-11.3855
▁описание	-11.3861
▁экспериментальн	-11.3861
▁предполагаю	-11.3862
▁разработчик	-11.3862
▁звер	-11.3863
▁жёлты	-11.3863
▁берега	-11.3865
пра	-11.3865
▁сделк	-11.3867
▁теряем	-11.3867
▁парадокс	-11.3868
шоу	-11.3869
▁значени	-11.387
▁имеющие	-11.3871
▁связанно	-11.3873
▁километра	-11.3874
▁паник	-11.3878
▁Коран	-11.3878
▁вероятности	-11.388
▁просмотр	-11.3883
▁белок	-11.3884
▁побывал	-11.3885
▁брал	-11.3886
▁определённ	-11.3888
▁Давид	-11.3888
▁страхов	-11.3889
▁Сахары	-11.389
▁освобождени	-11.389
▁твоё	-11.3891
▁Внутри	-11.3891
▁слаб	-11.3892
▁Парк	-11.3892
▁кость	-11.3896
▁сырь	-11.3899
▁окончания	-11.3901
▁миссия	-11.3906
▁лома	-11.3908
▁Стои	-11.3913
▁участк	-11.3913
▁включил	-11.3914
▁Ск	-11.3917
▁братья	-11.392
▁менеджер	-11.3925
▁выполняет	-11.3925
▁невероятным	-11.3926
ством	-11.3927
▁вин	-11.3932
▁контекст	-11.3936
▁Пр	-11.3945
▁помеща	-11.3946
▁мировом	-11.3952
братьев	-11.3952
▁молодёж	-11.3953
▁статистика	-11.3953
▁Кен	-11.3956
▁паст	-11.396
▁разрабатывать	-11.3961
▁добавля	-11.3966
▁мощь	-11.3968
▁учит	-11.3968
▁Джин	-11.3972
▁исходны	-11.3972
▁открывать	-11.3974
▁меш	-11.3974
▁погиб	-11.3975
▁значимо	-11.3977
▁принципа	-11.398
явлен	-11.3981
▁следуют	-11.3984
▁доходит	-11.3986
ёма	-11.3988
▁зрительны	-11.399
▁миг	-11.399
дна	-11.3994
▁появ	-11.3996
единение	-11.3997
данного	-11.3998
▁Таков	-11.3999
▁обслуживани	-11.4003
▁открыла	-11.4008
▁обнаружит	-11.4009
▁тенденции	-11.4009
▁требовал	-11.4015
▁заставля	-11.4017
▁Кембридж	-11.4019
▁возникновени	-11.4019
▁иерархи	-11.4019
▁инстинкт	-11.4019
▁интуитивно	-11.4019
▁ложь	-11.4019
▁молитв	-11.4019
▁артери	-11.4019
▁моделировани	-11.4019
▁азот	-11.402
▁прошедши	-11.402
▁провинци	-11.402
▁захотите	-11.402
▁изображени	-11.4021
▁мгновение	-11.4021
▁посадк	-11.4022
▁нацелен	-11.4022
▁опор	-11.4023
▁Добро	-11.4023
линг	-11.4024
▁близких	-11.4025
▁Чили	-11.4025
герой	-11.4026
▁забавны	-11.403
▁сексуальны	-11.403
▁строго	-11.4033
министр	-11.4034
▁пятниц	-11.4034
слушали	-11.4034
▁усы	-11.4036
▁повернул	-11.4037
▁артист	-11.4038
▁песен	-11.4039
ороши	-11.4042
▁спинно	-11.4044
▁помещени	-11.4045
▁стадион	-11.4046
▁шансов	-11.4046
вре	-11.405
▁удивительным	-11.405
▁уголь	-11.4051
живают	-11.4053
▁слоя	-11.4058
▁страдал	-11.4059
▁Свет	-11.4061
▁существующе	-11.4061
▁искр	-11.4063
▁посети	-11.4065
▁бож	-11.4066
▁основанны	-11.4067
▁стереотип	-11.4073
▁действи	-11.4075
нцев	-11.4077
▁переговоров	-11.4077
серьёз	-11.4078
▁белого	-11.4083
▁конфиденциально	-11.409
▁партнер	-11.409
▁добави	-11.4093
▁веры	-11.4096
▁популярно	-11.41
пытался	-11.4101
▁заражени	-11.4104
алл	-11.4106
▁принес	-11.4107
▁исполня	-11.4108
▁обману	-11.4112
▁племени	-11.4114
▁образа	-11.4115
▁кухн	-11.4116
▁передвига	-11.4116
▁лежат	-11.4122
▁гена	-11.4123
▁признал	-11.4124
чинить	-11.4125
▁уменьшает	-11.4126
▁колледжа	-11.4128
▁рисун	-11.4129
▁успешным	-11.4129
казывают	-11.413
▁ра	-11.4131
▁жидкост	-11.4131
▁отдыха	-11.4132
▁фантази	-11.4135
лизм	-11.4136
▁Теб	-11.4136
▁улучшение	-11.4137
▁окончани	-11.4139
▁слушател	-11.4139
▁направлениях	-11.4142
▁одежды	-11.4143
▁прием	-11.4147
нимает	-11.4149
ице	-11.4154
▁крыс	-11.4159
▁сумасшедш	-11.4159
▁трущоб	-11.416
▁мета	-11.4161
▁вселенн	-11.4163
▁бога	-11.4172
▁Задума	-11.4175
▁сосредоточить	-11.4177
▁врачам	-11.418
▁выделяет	-11.418
▁родителям	-11.4182
▁арест	-11.4182
▁сос	-11.4183
▁запечатле	-11.4185
▁времен	-11.4187
мигрант	-11.4187
▁Невозможно	-11.4189
▁бесконечны	-11.4189
▁беспорядк	-11.4189
▁максимум	-11.4189
▁наставник	-11.4189
▁необычайно	-11.4189
▁эксплуатаци	-11.4189
▁альбом	-11.4189
▁парашют	-11.4189
▁чёрт	-11.4189
▁Нельсон	-11.4189
▁тренер	-11.4189
▁шляп	-11.4189
▁Иисус	-11.4189
▁читает	-11.4189
▁барабан	-11.4189
▁полагать	-11.4189
▁поистин	-11.4189
▁рубашк	-11.4189
▁насекомо	-11.4189
▁участвую	-11.419
▁социолог	-11.419
▁дороже	-11.419
▁Джефф	-11.419
▁Настоящ	-11.419
▁вариаци	-11.4191
▁треугольник	-11.4191
атомов	-11.4192
▁пиани	-11.4192
▁опуска	-11.4194
▁разместить	-11.4194
▁эффекта	-11.4195
▁одиноки	-11.4196
▁втором	-11.4197
▁бедно	-11.4199
▁подряд	-11.42
▁Тихо	-11.42
окс	-11.42
▁справляться	-11.42
▁женщине	-11.42
послед	-11.4201
▁эффективне	-11.4203
▁193	-11.4203
▁месяце	-11.4205
▁Дальше	-11.4205
илипп	-11.4207
селе	-11.4213
▁5-	-11.4215
▁медсестр	-11.4216
▁Немног	-11.4217
▁герои	-11.4218
▁согласились	-11.4218
▁метафора	-11.4219
▁попрош	-11.4219
▁лидером	-11.4223
▁такси	-11.4227
▁бабушк	-11.4229
▁разумны	-11.423
▁1990-	-11.4231
плен	-11.4232
▁своеобразн	-11.4233
▁Уолл	-11.4236
▁осталась	-11.4237
▁препятствия	-11.4237
▁глобальным	-11.4241
▁брали	-11.4243
▁сталкиваютс	-11.4248
▁свежи	-11.4249
▁захотели	-11.4249
▁критически	-11.425
▁террорист	-11.4253
нации	-11.4255
▁190	-11.4259
министра	-11.4262
▁цикла	-11.4262
▁хор	-11.4269
▁реагирую	-11.4271
▁задавали	-11.4272
рение	-11.4276
▁привязан	-11.4276
▁текущи	-11.4276
▁счастливо	-11.4277
▁поступает	-11.4282
▁цеп	-11.4285
▁обстоятельствах	-11.4296
▁плотность	-11.4296
оны	-11.4298
▁черн	-11.4302
▁потока	-11.4305
▁исчез	-11.4306
▁колонн	-11.4306
▁Оп	-11.4308
▁захватывающи	-11.4308
▁героя	-11.4308
▁Египте	-11.4311
▁шума	-11.4311
▁употребля	-11.4312
▁считала	-11.4318
пати	-11.4318
▁воспринимают	-11.4319
▁идущи	-11.4327
ологи	-11.4329
бытия	-11.4334
▁моделью	-11.4334
▁трудне	-11.4336
▁приговор	-11.4337
изаци	-11.4338
▁пригласи	-11.4344
▁гром	-11.4346
▁зелен	-11.4348
▁инженери	-11.4354
▁захватывающе	-11.4354
▁воспринимает	-11.4355
▁мёртвы	-11.4357
▁август	-11.4361
▁заслуживаю	-11.4361
▁инсталляци	-11.4361
▁млрд	-11.4361
▁мотоцикл	-11.4361
▁официально	-11.4361
▁разместил	-11.4361
▁фосфор	-11.4361
▁церковь	-11.4361
▁Поднимите	-11.4361
▁авторитет	-11.4361
▁цензур	-11.4361
▁отметил	-11.4361
▁марш	-11.4361
▁сказк	-11.4361
влёк	-11.4361
▁допустим	-11.4361
▁совпадени	-11.4362
▁минус	-11.4363
▁разрушить	-11.4365
▁интереснее	-11.4366
яснять	-11.4366
▁взлома	-11.4367
▁европейски	-11.4368
▁отражение	-11.4368
▁предков	-11.4369
▁Всем	-11.437
▁Организаци	-11.4371
▁отправляют	-11.4373
▁принимал	-11.4376
▁сценарий	-11.4376
тивны	-11.4377
▁существенны	-11.4377
▁экспорт	-11.4378
озьмите	-11.4381
питер	-11.4381
▁иллюстраци	-11.4381
▁перенести	-11.4382
▁яблок	-11.4383
▁носит	-11.4383
▁девушки	-11.4388
▁Главны	-11.4396
▁неверны	-11.4398
▁распространять	-11.44
▁выполняют	-11.4402
▁осмотр	-11.4402
выков	-11.4404
▁залива	-11.4405
▁комаров	-11.4407
▁моментом	-11.4407
▁светом	-11.4409
▁распоряжении	-11.441
▁произноси	-11.4411
▁интересов	-11.4419
▁коллективны	-11.4419
▁недостато	-11.4419
хотят	-11.442
▁Италии	-11.4426
своем	-11.4428
▁участникам	-11.4435
▁писали	-11.4437
▁квантов	-11.4438
▁кораллов	-11.444
▁сочетание	-11.4442
▁положительно	-11.4442
йших	-11.4444
▁чувствительны	-11.4445
▁крах	-11.4447
▁спутника	-11.4448
нтов	-11.4453
▁ожидани	-11.4456
▁загадк	-11.4458
▁персональны	-11.4459
▁обрабатыва	-11.4459
▁един	-11.446
▁аппарата	-11.4461
▁Национальны	-11.4462
▁носил	-11.4463
▁стимулирова	-11.4463
▁приложени	-11.4463
▁Вид	-11.4464
одно	-11.4465
ёв	-11.4466
▁отрез	-11.4466
▁отда	-11.4468
▁ощути	-11.4469
▁подразумевает	-11.447
▁полным	-11.4472
▁фонда	-11.4476
▁услови	-11.4476
▁привлечени	-11.448
тревож	-11.4481
▁Ваше	-11.4482
▁отц	-11.4483
▁кан	-11.4488
▁ценно	-11.4488
▁ищу	-11.449
▁расходов	-11.4496
▁Единственно	-11.4496
рид	-11.4496
▁развито	-11.4497
▁продажи	-11.4499
▁плотно	-11.45
▁Востоке	-11.45
▁подоб	-11.4501
▁сочувстви	-11.4502
▁прицел	-11.4503
▁пассажир	-11.4503
▁правильн	-11.4508
ровень	-11.451
▁осадк	-11.451
▁негативны	-11.4511
влечения	-11.4514
▁прожил	-11.4517
▁исследовали	-11.4521
▁промышленность	-11.4527
▁миссии	-11.4527
▁сцена	-11.4528
▁хватит	-11.453
▁древн	-11.4531
▁Какая	-11.4532
▁громко	-11.4533
▁инструкци	-11.4535
▁учёным	-11.4535
▁толка	-11.4535
▁враждебн	-11.4537
▁девушек	-11.4537
▁долгосрочны	-11.4537
▁кристалл	-11.4537
▁продовольстви	-11.4537
▁рычаг	-11.4537
▁дилемм	-11.4537
▁тормоз	-11.4537
▁утверждал	-11.4537
▁корабле	-11.4537
▁лагере	-11.4537
▁достойно	-11.4537
▁привлекает	-11.4537
▁забуду	-11.4537
▁матерей	-11.4537
▁направляет	-11.4538
▁установил	-11.4538
▁динозавра	-11.4539
▁верхушк	-11.4541
▁поставщик	-11.4542
▁Джейн	-11.4544
правления	-11.4547
▁Ближнем	-11.455
▁Род	-11.4551
▁преступление	-11.4552
копать	-11.4553
ектом	-11.4553
▁наблюдени	-11.4554
лить	-11.4555
нял	-11.4556
слыша	-11.4558
▁понят	-11.4563
▁смесь	-11.4565
▁мудрост	-11.4565
▁готовил	-11.4567
▁1950-	-11.4568
▁слома	-11.457
▁сохранения	-11.4572
▁разочарован	-11.4578
▁повысить	-11.4581
рады	-11.4581
▁поступают	-11.4585
▁мысля	-11.4585
▁покрыва	-11.4586
можешь	-11.4587
▁основанно	-11.4588
временно	-11.4588
бот	-11.4588
▁повышает	-11.4589
прям	-11.459
▁рискова	-11.4591
▁деятел	-11.4593
▁странные	-11.4598
сол	-11.46
▁характерны	-11.4604
▁передо	-11.4606
▁установ	-11.4608
▁студентами	-11.461
▁поменял	-11.461
▁соединение	-11.4611
▁строительств	-11.4614
▁сильн	-11.4615
▁присутстви	-11.4615
▁напомнил	-11.4618
▁техника	-11.462
▁агрессивны	-11.462
шит	-11.4622
▁кровеносны	-11.4624
ступать	-11.4629
▁президентом	-11.4629
▁июл	-11.463
тари	-11.4633
▁запустил	-11.464
▁доступными	-11.4645
летит	-11.4646
▁справедливость	-11.4651
▁чудеса	-11.4653
▁общени	-11.466
▁четыр	-11.4665
центр	-11.4667
ллер	-11.4669
▁нынешне	-11.4672
▁семейно	-11.4672
▁исчезаю	-11.4675
▁величайши	-11.4679
▁законам	-11.468
▁водо	-11.4681
▁показывали	-11.4681
▁уязвимы	-11.4682
▁задействован	-11.4683
▁гей	-11.4688
ut	-11.4691
▁мягко	-11.4694
▁нервно	-11.4695
▁давлением	-11.4696
▁разрыва	-11.4698
▁владел	-11.4699
жение	-11.4699
▁Главно	-11.4703
▁смело	-11.4703
▁потребова	-11.4704
▁зрителе	-11.4707
▁индийск	-11.4708
▁математическо	-11.4709
▁пусты	-11.4714
▁вакцина	-11.4714
▁анатоми	-11.4715
▁Зеланди	-11.4715
▁Уильям	-11.4715
▁защищен	-11.4715
▁интерпретаци	-11.4715
▁лошадь	-11.4715
▁пугает	-11.4715
▁режиссёр	-11.4715
▁свадьб	-11.4715
▁хозяин	-11.4715
▁детектор	-11.4715
▁тренировк	-11.4715
▁Правильно	-11.4715
▁полагаем	-11.4715
▁отрасли	-11.4715
▁необходимым	-11.4715
▁огня	-11.4715
▁подчиня	-11.4715
▁запрещен	-11.4715
▁элементарны	-11.4716
▁ухажива	-11.4716
▁колония	-11.4716
▁исключения	-11.4716
▁башн	-11.4717
▁тупик	-11.4717
▁Германи	-11.4718
учим	-11.4719
мешает	-11.4723
▁китайц	-11.4723
▁ничем	-11.4724
▁Израиль	-11.4724
▁Алекс	-11.4725
▁послал	-11.4725
▁Лес	-11.4725
▁содержал	-11.4728
▁резин	-11.4729
▁подходяще	-11.4731
▁Тро	-11.4731
▁шёл	-11.4732
▁четверт	-11.4736
▁Бел	-11.4737
▁чужи	-11.4738
▁поверь	-11.4738
▁избавля	-11.4738
▁практику	-11.4739
▁исследуем	-11.4745
▁запомина	-11.4746
▁союзник	-11.4746
▁наруша	-11.475
тащить	-11.475
▁кадров	-11.4754
емян	-11.4756
уди	-11.4758
резать	-11.4761
▁рожда	-11.4761
▁гражданам	-11.4764
спа	-11.4765
▁политическим	-11.4766
▁пальца	-11.4768
▁Стал	-11.4771
▁отказ	-11.4773
английски	-11.4775
▁запомни	-11.478
льный	-11.4783
▁Вод	-11.4785
▁соблазн	-11.4789
сни	-11.479
▁дружб	-11.4795
▁внутренн	-11.4795
▁Кам	-11.4797
▁уменьши	-11.4797
сажива	-11.48
▁кислот	-11.4801
стрит	-11.4801
вела	-11.4802
▁могил	-11.4806
▁призыва	-11.4806
▁сайта	-11.4807
▁друж	-11.4807
жин	-11.481
▁соответствую	-11.4811
▁денежны	-11.4812
▁расстройство	-11.4812
следствие	-11.4814
▁накаплива	-11.4817
пасть	-11.4817
▁измерять	-11.482
пространств	-11.482
▁разработ	-11.4826
▁мел	-11.4829
▁вмешательства	-11.4832
чиков	-11.4833
▁ненавист	-11.4836
▁пусто	-11.4836
▁лидера	-11.4837
▁выступлений	-11.4838
▁сбора	-11.4844
ифров	-11.4846
▁Тре	-11.4849
▁внук	-11.4851
▁поступки	-11.4852
дающие	-11.4853
▁цитата	-11.4856
▁городом	-11.4857
▁фраза	-11.4859
▁жертву	-11.4863
▁испытывал	-11.4864
очку	-11.4864
▁заболе	-11.4866
▁природно	-11.4867
эп	-11.4868
▁выступаю	-11.4868
▁выжив	-11.4873
▁взаимодейству	-11.4876
чку	-11.4877
йдем	-11.4877
▁Искусств	-11.4878
▁уменьшени	-11.4879
▁подруг	-11.4881
▁испытыва	-11.4881
▁начались	-11.4882
▁Прошло	-11.4883
▁младен	-11.4884
▁познакомил	-11.4885
▁телефонны	-11.4886
▁сахара	-11.4886
▁бейсбол	-11.4891
▁службу	-11.4893
▁анимаци	-11.4894
▁диплом	-11.4895
▁дешев	-11.4896
▁экстр	-11.4896
▁больны	-11.4896
▁индивидуум	-11.4897
▁сюрприз	-11.4897
▁Индонези	-11.4897
▁Процесс	-11.4897
▁клиническо	-11.4897
▁ориентаци	-11.4897
▁преобразовать	-11.4897
▁решётк	-11.4897
▁синтетическ	-11.4897
▁сознательно	-11.4897
▁энтропи	-11.4897
▁впечатления	-11.4897
▁ученые	-11.4897
▁сумел	-11.4898
▁углом	-11.4898
▁манер	-11.4899
▁беспилотник	-11.4899
▁Программ	-11.4899
▁совершают	-11.49
▁подробности	-11.4902
▁совмести	-11.4903
▁облак	-11.4903
▁наглядно	-11.4904
▁тихо	-11.4904
▁ощущает	-11.4905
▁методом	-11.4906
▁Зал	-11.4907
▁локально	-11.4908
▁гол	-11.4909
▁увеличит	-11.4911
▁достигнуть	-11.4913
▁шут	-11.4914
▁испытывают	-11.4917
▁пешеход	-11.4919
водим	-11.492
▁Гар	-11.4921
▁двигает	-11.4924
▁писателе	-11.4924
▁всемирно	-11.4926
замен	-11.4927
▁вина	-11.4928
▁бетон	-11.4935
▁негативно	-11.4937
▁молекулярно	-11.4941
▁создаю	-11.4942
▁нена	-11.4943
▁приносят	-11.4949
▁бара	-11.4951
▁молоко	-11.4956
▁ветв	-11.4956
ленд	-11.4959
▁спине	-11.4959
▁современным	-11.4959
▁переходит	-11.4968
▁последнем	-11.4969
▁выступлени	-11.4971
▁плит	-11.4972
▁цивилизация	-11.4974
▁захват	-11.4975
▁страдающи	-11.4975
▁умрёт	-11.4976
▁значительн	-11.4977
▁стану	-11.4979
▁Оба	-11.4979
▁собственность	-11.4979
даем	-11.498
▁верхни	-11.4982
▁стандартны	-11.4985
▁черепах	-11.4987
▁палат	-11.4987
▁успел	-11.4987
рочно	-11.4988
▁наркотикам	-11.499
▁Солнечн	-11.4992
▁провед	-11.4993
▁примитивны	-11.4994
▁гуманитарны	-11.4994
▁свеже	-11.4996
▁спроектировал	-11.4998
▁материально	-11.4999
вне	-11.5001
дневн	-11.5002
шер	-11.5004
▁закрыл	-11.5004
кладываем	-11.5005
▁реч	-11.5007
▁удивление	-11.5008
▁лап	-11.5008
▁воспринима	-11.501
▁властью	-11.5014
прыгнул	-11.5016
▁открытость	-11.5016
▁типично	-11.5018
зел	-11.5018
▁поражает	-11.5019
▁устанавлива	-11.5022
▁влиятельны	-11.5026
даётся	-11.5028
▁кампания	-11.5028
▁знакомств	-11.5031
▁следовал	-11.5032
▁рождает	-11.5038
▁распространяют	-11.504
▁похожим	-11.5041
строили	-11.5043
▁кружк	-11.5045
▁демократ	-11.5047
оставлять	-11.5047
▁пингвин	-11.5049
▁персонал	-11.505
▁извлека	-11.505
▁зарази	-11.5056
▁Велики	-11.5056
▁посетител	-11.5057
▁пола	-11.5061
згляните	-11.5061
пин	-11.5062
▁состоящ	-11.5062
▁терроризма	-11.5064
▁Игра	-11.5066
▁милы	-11.5069
▁почте	-11.5069
▁возвращают	-11.5071
▁неправильны	-11.5075
▁проявляет	-11.5076
▁обеда	-11.5077
страсти	-11.5079
▁оригинал	-11.5079
▁кончик	-11.5081
▁снят	-11.5082
▁мульти	-11.5082
▁Невероятно	-11.5082
▁Паркинсон	-11.5082
▁ассоциаци	-11.5082
▁вертолёт	-11.5082
▁географи	-11.5082
▁размножени	-11.5082
▁фестивал	-11.5082
▁ноябр	-11.5082
▁симуляци	-11.5082
▁поздне	-11.5082
▁вибраци	-11.5082
▁поиграть	-11.5082
▁немнож	-11.5082
▁Пекин	-11.5082
хотеть	-11.5082
▁проделыва	-11.5083
▁далёко	-11.5083
▁боевик	-11.5083
▁пирог	-11.5083
▁Сомали	-11.5083
▁ложны	-11.5083
▁возьме	-11.5083
▁загрязнения	-11.5083
▁богаче	-11.5083
▁ширин	-11.5083
▁наполни	-11.5084
▁поверил	-11.5084
▁Грин	-11.5084
▁услышан	-11.5084
▁священник	-11.5084
▁привлекательно	-11.5085
▁атомно	-11.5086
▁антрополог	-11.5086
▁План	-11.5087
▁загрязнение	-11.5087
▁очевидным	-11.5089
▁поместил	-11.5089
▁изгиб	-11.5091
вшими	-11.5091
▁рациональны	-11.5091
▁действии	-11.5092
Каид	-11.5093
▁еврейск	-11.5094
▁Рик	-11.5094
шире	-11.5095
▁пробовал	-11.5096
▁спальн	-11.5097
▁гарант	-11.51
▁пробел	-11.51
▁Север	-11.51
▁благосостояни	-11.5101
▁масло	-11.5101
▁нейро	-11.5101
▁любопытство	-11.5107
▁оценка	-11.5108
▁закат	-11.5108
▁Джонсон	-11.511
▁обменива	-11.5113
▁городк	-11.5114
▁вон	-11.5114
▁признание	-11.5114
▁Джонс	-11.5115
▁применяем	-11.5122
▁горяче	-11.5122
▁принадлежат	-11.5124
▁2002	-11.5126
▁запуск	-11.5131
▁провода	-11.5132
▁конференция	-11.5132
▁послушать	-11.5133
▁мисси	-11.5133
▁французск	-11.5138
▁гнезд	-11.514
▁отказал	-11.5142
▁царств	-11.5142
▁предполагаем	-11.5146
жном	-11.5146
▁Музе	-11.5147
▁произнес	-11.5154
ящий	-11.5154
▁игров	-11.5156
▁ОК	-11.5157
▁популярны	-11.5157
▁слои	-11.5157
▁упражнения	-11.5161
▁преступлени	-11.5162
ури	-11.5166
▁дельфин	-11.5167
▁АК	-11.5168
▁фирмы	-11.5169
▁сохранять	-11.5175
▁отслеживать	-11.5175
▁Следующе	-11.5176
▁блоки	-11.5177
▁величайших	-11.5179
▁голосова	-11.5179
▁сотовы	-11.518
▁выделен	-11.5184
▁мыслям	-11.5185
▁директора	-11.5185
▁комбинаци	-11.5185
▁задани	-11.5185
▁присутствие	-11.5187
бита	-11.519
▁преступност	-11.519
▁аспекта	-11.5191
▁задни	-11.5193
▁мертв	-11.5193
ером	-11.5193
▁стресса	-11.5195
▁груд	-11.5198
коп	-11.5199
▁мет	-11.5199
▁ровно	-11.5203
▁знаниями	-11.5204
▁выживание	-11.5206
нувши	-11.5206
▁повыша	-11.5207
бирают	-11.521
▁тенденци	-11.5213
▁варианта	-11.5214
▁вдох	-11.5214
▁национальн	-11.5218
▁Бра	-11.5222
▁Дарвина	-11.5224
▁абстрактны	-11.5227
▁исчезнут	-11.523
▁вычисли	-11.5231
▁изучает	-11.5232
▁беспокоил	-11.5234
▁плати	-11.5234
▁разруша	-11.5236
▁заключени	-11.5238
▁говорящи	-11.5244
▁пролета	-11.5247
▁океаны	-11.525
▁двадцат	-11.5253
▁предполага	-11.5255
плыв	-11.5256
▁аудитория	-11.5259
▁исчезли	-11.526
слушал	-11.5262
▁блестящи	-11.5262
читали	-11.5264
▁запутанн	-11.5264
▁совпада	-11.5265
▁давай	-11.5266
▁учителям	-11.5266
▁Долж	-11.5267
▁Государств	-11.5271
▁Антарктик	-11.5271
▁Эндрю	-11.5271
▁вырубк	-11.5271
▁необязательно	-11.5271
▁сопротивление	-11.5271
▁контент	-11.5271
▁Понятно	-11.5271
▁впоследстви	-11.5271
▁воспроизвести	-11.5271
▁устаревш	-11.5271
▁Бруклин	-11.5271
▁кишечник	-11.5271
▁печени	-11.5271
▁обитател	-11.5272
▁переполнен	-11.5272
▁разрушения	-11.5273
▁близ	-11.5273
▁2020	-11.5273
▁демократическо	-11.5274
▁удобны	-11.5274
▁движут	-11.5275
▁маме	-11.5275
▁выделя	-11.5276
ключить	-11.5276
▁слепот	-11.5276
▁тюрьма	-11.528
▁загружа	-11.5281
▁вычислительн	-11.5282
▁загадочн	-11.5283
▁сжига	-11.5283
▁Джер	-11.5286
лист	-11.5286
Бар	-11.5287
явление	-11.5287
▁привет	-11.5288
▁выбираем	-11.529
▁Джек	-11.529
▁связывает	-11.529
▁мини	-11.5291
▁соединяет	-11.5292
▁образовательны	-11.5294
▁создади	-11.5294
▁принимали	-11.5297
живать	-11.5298
▁исчезновения	-11.5299
▁игнорировать	-11.5299
▁сектора	-11.53
▁рассматриваем	-11.5306
▁уравнения	-11.5309
▁Мура	-11.5311
▁камерой	-11.5312
▁дно	-11.5316
▁металлическ	-11.5318
нис	-11.5319
▁удержать	-11.5321
▁голубы	-11.5325
стар	-11.5326
▁юридически	-11.5331
▁зл	-11.5333
▁Предположи	-11.5337
▁мощность	-11.5337
Леон	-11.5338
▁улучша	-11.5342
▁конференци	-11.5342
▁ряда	-11.5343
▁гражданин	-11.5344
▁Город	-11.5344
▁Кому	-11.5346
тюрьму	-11.5349
▁12-	-11.535
▁страшны	-11.535
▁проведё	-11.5351
порт	-11.5351
▁31	-11.5354
▁мечту	-11.5354
▁колес	-11.5356
▁эксперты	-11.5356
▁слонов	-11.5356
▁Мон	-11.5357
▁сформировать	-11.5358
▁профессора	-11.5358
▁Кра	-11.5358
▁повторять	-11.5359
▁наследи	-11.5359
ющему	-11.5359
▁учитывать	-11.536
▁троп	-11.5362
▁брата	-11.5364
▁некотор	-11.5365
▁намеренно	-11.5367
▁учила	-11.5368
▁добира	-11.5379
близи	-11.5383
▁парков	-11.5383
▁закрыты	-11.5384
▁общественн	-11.5385
▁методик	-11.5385
▁серы	-11.5386
контролируем	-11.5386
▁ощущени	-11.5387
▁возникаю	-11.5389
▁зрительно	-11.5391
▁нарисовал	-11.5393
▁навыкам	-11.5396
▁отмечен	-11.5402
▁заговор	-11.5402
▁спектра	-11.5404
▁пребывани	-11.5406
▁Бор	-11.5408
Америку	-11.5409
▁ожирение	-11.5409
▁тысячелетия	-11.5411
▁Гал	-11.5411
▁печально	-11.5412
▁духовны	-11.5413
▁доли	-11.5414
▁этапа	-11.5415
текает	-11.5416
▁Иде	-11.542
▁пря	-11.5425
▁собирают	-11.5425
▁защищает	-11.5425
▁последним	-11.5427
▁отделение	-11.543
▁шутка	-11.5431
▁рассматривал	-11.5431
▁сантиметров	-11.5438
▁излуча	-11.5442
▁завтрак	-11.5444
▁наверно	-11.5452
▁здоровым	-11.5454
становиться	-11.5455
▁содержащ	-11.5456
▁материалом	-11.5459
▁партнёра	-11.546
▁Ребён	-11.5463
▁Сингапур	-11.5463
▁Танзани	-11.5463
▁верблюд	-11.5463
▁головоломк	-11.5463
▁дождя	-11.5463
▁консультант	-11.5463
▁лихорадк	-11.5463
▁логотип	-11.5463
▁прекраща	-11.5463
▁таракан	-11.5463
▁толщин	-11.5463
▁чиновник	-11.5463
▁Вьетнам	-11.5463
▁кардинальн	-11.5463
▁восхищен	-11.5463
▁местоположени	-11.5463
▁2030	-11.5463
▁паралич	-11.5463
▁МРТ	-11.5464
▁ошибочно	-11.5464
▁вовремя	-11.5465
▁нулево	-11.5465
▁нигде	-11.5465
▁живопис	-11.5466
▁Мозг	-11.5466
▁роботизированн	-11.5466
▁Бур	-11.5467
▁лифт	-11.5467
▁заботит	-11.5467
▁крепко	-11.5467
▁питьев	-11.5468
телями	-11.5469
▁полагал	-11.547
▁перерыв	-11.547
▁разворачива	-11.5472
▁рисовани	-11.5473
▁Тысяч	-11.5475
▁местном	-11.5477
▁внешн	-11.5477
▁руководителе	-11.5478
поминают	-11.5478
▁Кре	-11.5478
▁чья	-11.5478
▁Элл	-11.5479
▁удивлен	-11.548
▁кресла	-11.548
▁указан	-11.5482
росло	-11.5484
▁убеждён	-11.5484
▁Велико	-11.5486
▁коротк	-11.5491
изирован	-11.5492
▁вычислительны	-11.5493
▁лоб	-11.5493
▁белым	-11.5493
▁мотив	-11.5493
▁стадия	-11.5497
▁спроектирова	-11.5498
дир	-11.5498
▁Мин	-11.5504
▁четверть	-11.5505
тас	-11.5508
▁порядк	-11.5508
▁снято	-11.5509
▁чрезмерно	-11.5509
ключения	-11.551
▁МТ	-11.5511
▁окончательно	-11.5511
зубы	-11.5512
▁записывать	-11.5512
жер	-11.5519
▁мечет	-11.5519
▁Единственны	-11.552
▁помещения	-11.5521
▁серьезн	-11.5523
едем	-11.5523
▁зелён	-11.5525
▁стру	-11.5531
жаль	-11.5532
анда	-11.5532
▁правильным	-11.5532
▁металла	-11.5533
▁родн	-11.5535
инфицированны	-11.5536
▁подарил	-11.5538
▁проведен	-11.5538
▁сигналов	-11.5538
▁доз	-11.5539
▁убит	-11.5539
▁Пожалуй	-11.5544
▁массовой	-11.5546
▁влияни	-11.5547
▁выявля	-11.5548
▁муравья	-11.5549
▁переключ	-11.5549
▁продуктами	-11.5553
▁историческо	-11.5555
▁волшебны	-11.5558
▁закончен	-11.5558
▁угла	-11.5559
зировать	-11.5561
▁Разниц	-11.5562
▁фондов	-11.5565
▁предоставлять	-11.5566
▁Треть	-11.5567
▁беседу	-11.5571
▁статистике	-11.5574
▁публичны	-11.5575
▁дедушк	-11.5578
▁Тор	-11.5578
▁оглядыва	-11.5579
▁приняла	-11.5581
▁предпринима	-11.5585
▁угрожа	-11.5587
верси	-11.5587
▁свято	-11.5588
▁уни	-11.5589
▁закончит	-11.5591
▁Технологи	-11.5591
▁край	-11.5593
▁судья	-11.5593
▁продолжали	-11.5594
▁танцева	-11.5594
▁платформу	-11.5595
▁обход	-11.5595
▁развлека	-11.5595
летня	-11.5599
▁коралловы	-11.5604
▁заставит	-11.5605
▁прямом	-11.5606
▁полушари	-11.5607
▁дыра	-11.5607
▁дамы	-11.5607
▁половине	-11.5607
▁переходи	-11.5608
▁предлагают	-11.5608
▁сломан	-11.5609
▁текстов	-11.5609
▁случил	-11.5609
▁концентраци	-11.5609
▁бен	-11.5612
▁полюса	-11.5612
чать	-11.5613
▁вечера	-11.5613
▁героин	-11.5617
,000	-11.5624
▁недостатка	-11.5624
дует	-11.5624
рут	-11.5625
▁ужасающ	-11.5626
зин	-11.5626
▁останови	-11.5627
▁классически	-11.5627
▁мин	-11.5628
ставляем	-11.5631
▁хвата	-11.5631
▁коммерческо	-11.5632
ективны	-11.5632
▁проводя	-11.5636
▁стату	-11.5638
▁возьми	-11.5642
▁пища	-11.5646
сутствует	-11.565
▁наибольше	-11.565
▁серия	-11.5651
▁футболк	-11.5651
следовательно	-11.5652
крытия	-11.5653
▁песк	-11.5655
▁препарат	-11.5657
▁реабилитаци	-11.5657
▁аспирант	-11.5658
▁психиатр	-11.5658
▁галлюцинаци	-11.5659
▁Аристотел	-11.5659
▁Групп	-11.5659
▁Силиконов	-11.5659
▁возьмёт	-11.5659
▁идентичны	-11.5659
▁композици	-11.5659
▁многообрази	-11.5659
▁озабочен	-11.5659
▁распределя	-11.5659
▁транзистор	-11.5659
▁химиотерапи	-11.5659
▁симфони	-11.5659
▁бирж	-11.5659
▁глагол	-11.5659
▁очарован	-11.5659
▁Подобны	-11.5659
▁Девочк	-11.566
▁плёнк	-11.566
▁диаре	-11.566
▁насос	-11.566
▁художественно	-11.566
▁литров	-11.566
▁евре	-11.566
ложение	-11.566
▁проникает	-11.566
▁Мандел	-11.566
▁ускорени	-11.5661
▁органа	-11.5661
▁увидев	-11.5661
▁последовал	-11.5661
▁выучил	-11.5663
▁МВ	-11.5664
▁круглы	-11.5664
▁изменим	-11.5664
▁рождаются	-11.5665
▁образовательн	-11.5665
▁брон	-11.5665
▁предпоч	-11.5666
▁потребляем	-11.5667
▁правительстве	-11.5669
▁900	-11.567
▁поддержива	-11.5671
▁глуп	-11.5671
близости	-11.5672
▁фотографировал	-11.5673
▁человеческом	-11.5674
▁фонар	-11.5675
▁Пришло	-11.5675
▁состояни	-11.5675
тс	-11.5676
▁стола	-11.5677
▁тень	-11.5678
▁проявля	-11.5679
▁Лондона	-11.5681
▁выступил	-11.5683
▁разделен	-11.5683
▁успешн	-11.5683
▁случалось	-11.5685
▁замечаем	-11.5686
инди	-11.5687
править	-11.5692
прочем	-11.5693
▁Ясно	-11.5694
▁прилага	-11.5697
▁террористов	-11.5698
▁шагов	-11.5698
▁состояла	-11.5699
▁бактерия	-11.57
▁Эль	-11.57
▁испытывает	-11.5702
▁привод	-11.5709
▁книж	-11.5714
▁ученики	-11.5715
▁цепь	-11.5715
куда	-11.5716
▁пить	-11.5717
▁потерян	-11.5717
▁рассказы	-11.5717
▁груб	-11.5719
▁связал	-11.5721
излучени	-11.5721
▁окружающим	-11.5722
▁испытывать	-11.5724
мана	-11.5725
чтения	-11.5726
▁теста	-11.5727
▁партнёров	-11.5728
▁предпринимател	-11.5729
▁19-	-11.573
чаты	-11.573
▁порази	-11.573
▁пытаетесь	-11.573
▁задействова	-11.5732
▁перелом	-11.5732
▁свист	-11.5736
▁покуп	-11.5737
жимает	-11.5737
▁младше	-11.5738
▁молодёжь	-11.5739
▁душа	-11.574
▁рай	-11.574
▁жалова	-11.574
▁воли	-11.574
▁Маленьки	-11.5743
▁водны	-11.5747
▁достоинство	-11.5747
▁Израиле	-11.575
▁преследу	-11.5755
▁институтов	-11.5755
тивно	-11.5756
▁урожа	-11.5756
▁разницы	-11.5757
▁когнитивны	-11.5759
▁Правил	-11.5761
▁границу	-11.5762
▁невозможным	-11.5765
▁изучают	-11.5766
▁наблюдают	-11.577
▁Дума	-11.5771
▁попыт	-11.5772
▁помещение	-11.5774
▁тысячам	-11.5776
виз	-11.5776
▁Ого	-11.5777
▁обеспеч	-11.5778
▁нарко	-11.5778
▁убедил	-11.5779
▁посчита	-11.5786
▁воле	-11.5787
▁подключен	-11.579
▁продолжение	-11.579
▁женск	-11.5791
▁фермерам	-11.5792
резал	-11.5794
убийц	-11.5794
▁лестниц	-11.5795
▁изоляци	-11.5797
▁потряс	-11.5798
▁дешёво	-11.5799
часов	-11.58
▁предоставля	-11.5802
▁Ази	-11.5803
▁соревновани	-11.5806
▁турист	-11.5807
наче	-11.5807
▁отпуска	-11.5807
▁коз	-11.5808
▁база	-11.581
пива	-11.5811
▁христиан	-11.5814
▁интерактивны	-11.5815
щиеся	-11.5817
тёр	-11.5817
анный	-11.5819
▁налог	-11.582
анна	-11.582
техническ	-11.5822
ехал	-11.5825
▁продаже	-11.5826
▁морали	-11.5826
▁трагедия	-11.5826
▁возобновляем	-11.5827
▁трога	-11.5829
▁читаю	-11.5832
▁разрушает	-11.5832
▁эмоциональн	-11.5835
сан	-11.5835
бран	-11.5836
▁предмета	-11.5836
▁бак	-11.5846
▁двигают	-11.5848
▁владени	-11.5848
▁естественн	-11.5851
плыть	-11.5853
▁тяжелы	-11.5855
стон	-11.5857
▁союз	-11.5857
▁нейробиолог	-11.5857
▁ориентир	-11.5858
▁желающи	-11.5859
▁джунгл	-11.5859
▁Компании	-11.5859
▁Человеческ	-11.5859
▁консерватор	-11.5859
▁неандертальц	-11.5859
▁пандеми	-11.5859
▁посчастливи	-11.5859
▁Клинтон	-11.5859
▁бонобо	-11.5859
▁конфет	-11.5859
▁меньши	-11.5859
▁обдумыва	-11.5859
▁позаботи	-11.5859
▁пьес	-11.5859
▁цилиндр	-11.5859
▁Аудитори	-11.5859
▁миграци	-11.5859
▁умственны	-11.5859
▁передачу	-11.5859
▁оруди	-11.586
▁пьян	-11.586
▁Габб	-11.586
▁оболочк	-11.586
▁корзин	-11.586
▁проникнуть	-11.586
▁банан	-11.586
▁сокращения	-11.586
▁Мистер	-11.5861
▁незначительны	-11.5861
ue	-11.5861
▁регулировани	-11.5861
▁Гарри	-11.5862
чёл	-11.5862
▁ошеломляющ	-11.5863
▁звонок	-11.5864
▁целым	-11.5865
▁слепых	-11.5866
▁повышение	-11.5866
▁танцор	-11.5867
▁развил	-11.5869
▁суши	-11.5871
▁тигр	-11.5871
▁ограниченны	-11.5872
▁закрыть	-11.5872
▁Ген	-11.5879
▁англ	-11.588
▁гравитаци	-11.5883
▁общественност	-11.5883
▁классны	-11.5883
▁изучен	-11.5887
▁анализиру	-11.589
▁выбирает	-11.5891
▁работало	-11.5891
▁пингвинов	-11.5896
▁калорий	-11.5897
▁бум	-11.5899
▁отцов	-11.5899
▁определя	-11.59
▁трудов	-11.5903
▁химик	-11.5904
изован	-11.5905
▁Куб	-11.5906
▁старым	-11.5909
▁адаптировать	-11.5909
▁увлека	-11.591
▁продолжит	-11.5912
▁нано	-11.5914
▁левом	-11.5915
▁проверять	-11.5916
▁выбирают	-11.5916
▁прозрачность	-11.5919
▁первичн	-11.5919
СС	-11.5919
▁рассмотрени	-11.5921
▁разработка	-11.5923
вилл	-11.5923
▁Часть	-11.5924
▁серьёзн	-11.5926
▁350	-11.5926
▁владе	-11.5927
▁встречается	-11.5928
▁общим	-11.5929
▁Рэй	-11.5933
▁сфокусировать	-11.5934
▁призываю	-11.5934
▁свидетельство	-11.5934
▁победил	-11.5935
кара	-11.5935
▁предпочтения	-11.5936
▁морск	-11.5937
НИ	-11.5942
▁коренны	-11.5942
▁превращают	-11.5945
▁грудь	-11.5947
ймите	-11.595
▁определили	-11.5953
▁беру	-11.5953
▁уделя	-11.5956
▁препарата	-11.5959
▁государственн	-11.5961
▁продолжала	-11.5961
▁генетическ	-11.5963
▁кибер	-11.597
▁столкнул	-11.5971
▁гос	-11.5971
▁засел	-11.5973
▁фигуры	-11.5976
▁пыль	-11.5977
▁служил	-11.5979
▁сочетани	-11.598
▁переживал	-11.5983
▁известным	-11.5984
▁Сме	-11.5984
▁прекрати	-11.5987
▁Перу	-11.5988
▁равенство	-11.5991
▁проща	-11.5991
единяют	-11.5993
▁уличны	-11.5995
▁электрическо	-11.5996
▁Стан	-11.5998
▁ехать	-11.6
▁освещение	-11.6001
▁круж	-11.6002
▁пика	-11.6005
▁бросает	-11.6007
▁взглядом	-11.6011
▁верхнем	-11.6012
▁предпринимателя	-11.6017
▁судьбы	-11.6017
▁давал	-11.602
▁результатам	-11.602
▁достал	-11.6027
рма	-11.6034
▁яблоко	-11.6038
▁открытк	-11.6039
▁обращает	-11.604
▁динозавры	-11.6042
▁услышала	-11.6042
▁предка	-11.6043
▁узнава	-11.6044
▁Ближн	-11.6048
▁трат	-11.6053
▁тракт	-11.6057
ование	-11.6057
▁здраво	-11.6059
▁пошло	-11.6059
▁совершал	-11.606
▁собственност	-11.6061
▁включают	-11.6062
▁южн	-11.6062
▁генерал	-11.6063
▁Аргентин	-11.6063
▁Лучши	-11.6063
▁британски	-11.6063
▁выпущен	-11.6063
▁джихад	-11.6063
▁изобрё	-11.6063
▁медикамент	-11.6063
подробнее	-11.6063
▁Сиэтл	-11.6063
▁вмешива	-11.6063
▁пицц	-11.6063
▁прислал	-11.6063
▁возврат	-11.6063
▁волокна	-11.6063
▁Артур	-11.6063
▁ненулево	-11.6064
▁Природа	-11.6064
▁мамонт	-11.6064
▁сканер	-11.6064
▁Книг	-11.6064
▁Количеств	-11.6065
▁антенн	-11.6066
▁сервер	-11.6066
▁штан	-11.6066
▁неба	-11.6067
▁1999	-11.6068
▁оптическ	-11.6069
▁дрон	-11.6069
▁заслуживает	-11.6069
20	-11.607
▁недооценива	-11.607
▁обширн	-11.607
▁приняти	-11.6071
▁вожд	-11.6072
▁пользователя	-11.6074
▁пустот	-11.6075
▁замкнут	-11.6078
▁ключев	-11.608
тона	-11.6081
▁приют	-11.6081
▁Атлант	-11.6082
жного	-11.6083
▁счета	-11.6083
▁основатель	-11.6084
▁эру	-11.6085
▁накопи	-11.6089
▁Турци	-11.6092
▁Простит	-11.6093
▁измеря	-11.6093
▁дождев	-11.6094
▁банд	-11.6095
▁доказывает	-11.6095
▁Тур	-11.6096
▁нап	-11.6096
роду	-11.6097
▁сохраня	-11.6099
▁стих	-11.6099
▁богатым	-11.61
▁телевизора	-11.6102
▁заболеваниям	-11.6102
▁Кур	-11.6104
▁туман	-11.6105
▁далеки	-11.6107
▁искусством	-11.6109
▁врачу	-11.6109
▁справляются	-11.6111
жечь	-11.6112
онов	-11.6112
▁производитель	-11.6113
▁жарко	-11.6113
▁главе	-11.6113
даль	-11.6116
▁опыте	-11.6116
▁студентом	-11.6119
▁перемещения	-11.6124
▁маму	-11.6126
▁исчезл	-11.6128
▁рок	-11.613
▁привычно	-11.613
▁классно	-11.6131
▁уничтожен	-11.6131
▁художником	-11.6135
▁свидетеле	-11.6138
▁шип	-11.614
качать	-11.6141
▁сохрани	-11.6142
▁голодны	-11.6142
▁выбран	-11.6149
▁арабски	-11.6154
▁распространить	-11.6155
▁достоинства	-11.6157
▁сенсорны	-11.6157
▁берегов	-11.6158
▁нация	-11.616
▁местность	-11.616
пта	-11.6166
▁неприятны	-11.6169
▁сильна	-11.6171
▁учите	-11.6173
▁представляли	-11.6174
▁широком	-11.6176
▁разгляде	-11.6178
▁телевидени	-11.6178
▁тел	-11.6181
▁ранен	-11.6183
▁упражнени	-11.6184
▁телевидение	-11.6186
▁мероприяти	-11.6188
▁отражают	-11.6193
▁препятствие	-11.6197
▁скромно	-11.6198
▁эко	-11.6199
▁провож	-11.6199
▁увлечен	-11.6201
▁собирали	-11.6201
▁разрешени	-11.6201
▁воин	-11.6203
щиков	-11.6206
групп	-11.6207
▁стоим	-11.6208
▁населени	-11.621
▁грубо	-11.6211
▁атмосфера	-11.6211
▁будущим	-11.6212
счёт	-11.6215
▁тонко	-11.6216
▁международн	-11.6218
ладельц	-11.6219
▁наверх	-11.622
▁углекислы	-11.6221
▁Буш	-11.6221
▁просит	-11.6221
▁зме	-11.6223
▁отличать	-11.6224
▁брака	-11.6225
американск	-11.6228
ктивн	-11.6229
образн	-11.623
▁рассужда	-11.6232
гнать	-11.6232
▁крошечн	-11.6235
▁заболел	-11.6235
▁пользовани	-11.6236
▁Послушай	-11.6238
▁границе	-11.6238
▁Смотр	-11.6238
▁Канады	-11.6239
▁черепа	-11.624
▁расстройств	-11.624
падать	-11.6242
▁беженц	-11.6243
▁приобрел	-11.6247
учесть	-11.6248
▁детство	-11.6248
▁использоваться	-11.6249
▁выпускник	-11.6253
▁спасение	-11.6254
▁выделил	-11.6254
▁Титан	-11.6254
▁подруга	-11.6255
▁добавляет	-11.6256
▁противоположны	-11.6258
▁материя	-11.6258
▁курени	-11.6258
▁кирпич	-11.6259
▁рацион	-11.6261
менем	-11.6262
▁конструкция	-11.6267
▁осуществлять	-11.6269
▁плохим	-11.6269
▁посредник	-11.6272
▁Сноуден	-11.6272
▁Студент	-11.6272
▁игнориру	-11.6272
▁интегрирован	-11.6272
▁лошади	-11.6272
▁отверстие	-11.6272
▁пешком	-11.6272
▁тротуар	-11.6272
▁разрушил	-11.6272
▁археолог	-11.6272
▁потрачен	-11.6272
▁воздействи	-11.6272
▁мебель	-11.6272
▁обоснован	-11.6272
▁шлем	-11.6272
▁хранят	-11.6272
▁пересадк	-11.6272
▁полноценно	-11.6272
▁атлет	-11.6272
▁ладон	-11.6272
▁растет	-11.6273
▁сражени	-11.6273
▁2013	-11.6273
▁Вспомнит	-11.6274
▁постели	-11.6275
▁томографи	-11.6275
▁отражен	-11.6275
▁огне	-11.6276
▁завершить	-11.6276
▁систематически	-11.628
▁разделение	-11.6281
▁освободить	-11.6281
▁мышечн	-11.6281
▁движущи	-11.6282
▁Больши	-11.6282
▁индустрия	-11.6283
рна	-11.6284
▁захотелось	-11.6288
▁ядра	-11.6288
▁нелепо	-11.629
▁научил	-11.6292
бал	-11.6295
▁постара	-11.6296
▁арабском	-11.6296
▁французски	-11.6297
▁обслужива	-11.6299
▁слоё	-11.6302
ыглядит	-11.6304
▁содержать	-11.6306
▁Кенне	-11.6309
▁помести	-11.6311
▁достигают	-11.6311
▁танца	-11.6314
▁осуществлени	-11.632
▁стиральн	-11.6321
злом	-11.6321
ацию	-11.6322
▁Акт	-11.6322
нув	-11.6323
▁защитник	-11.6323
▁жёстки	-11.6325
двинуть	-11.6327
▁обращал	-11.6328
▁универсально	-11.6329
▁суде	-11.6331
▁абстрактно	-11.6331
▁Дели	-11.6335
▁рекламны	-11.6337
▁Технология	-11.634
единил	-11.6343
опустим	-11.6344
▁создав	-11.6344
▁опусти	-11.6349
▁дисциплин	-11.6352
▁вдохновени	-11.6357
▁знаменит	-11.636
▁текста	-11.6361
▁ценностям	-11.6361
▁развивающе	-11.6366
▁управлял	-11.6368
▁разнообрази	-11.6368
▁публике	-11.637
нил	-11.637
▁отделени	-11.6373
иеся	-11.6376
▁очередно	-11.6376
▁очища	-11.6376
▁поезда	-11.6377
▁сделанно	-11.6378
истом	-11.6383
▁палатк	-11.6385
▁продолжае	-11.6385
▁приви	-11.6386
▁независимост	-11.6386
▁перемещать	-11.6393
ыграть	-11.6394
▁изобре	-11.6394
▁тяжёл	-11.6396
▁записал	-11.6396
▁увелич	-11.6404
безопас	-11.6404
▁ракеты	-11.6404
▁неловко	-11.6407
▁волшебно	-11.6408
▁синим	-11.6408
▁низк	-11.641
▁стабильно	-11.641
▁строя	-11.6412
▁130	-11.6412
▁требовани	-11.6413
▁судь	-11.6414
▁интерактивно	-11.6419
▁превратили	-11.642
▁поймё	-11.6422
▁старт	-11.6423
ливает	-11.6428
меньше	-11.6429
▁удивля	-11.6438
▁вспомина	-11.6438
▁представил	-11.6441
▁устойчивост	-11.6444
видимом	-11.6445
▁функционировани	-11.6449
нус	-11.6449
▁руч	-11.6451
▁закрыт	-11.6452
▁акулы	-11.6453
▁попала	-11.6459
▁моста	-11.646
очной	-11.6463
▁персонажа	-11.6463
▁прозрачн	-11.6466
шее	-11.6467
▁увеличивать	-11.6467
▁Париж	-11.6469
▁лжи	-11.6471
▁банкир	-11.6474
терапи	-11.6474
▁водород	-11.6474
ставлю	-11.6476
▁афро	-11.6481
▁обратите	-11.6482
▁сопротивля	-11.6484
иладельфи	-11.6485
▁Ирланди	-11.6485
▁Управление	-11.6485
▁вдохновляет	-11.6485
▁расшифрова	-11.6485
▁сопротивления	-11.6485
▁стипенди	-11.6485
▁Эдвард	-11.6485
▁аромат	-11.6485
▁выражать	-11.6485
експир	-11.6485
▁Зелён	-11.6485
▁испуга	-11.6485
▁содержимо	-11.6485
▁уменьша	-11.6485
▁взрослым	-11.6485
▁потолк	-11.6486
▁стремимся	-11.6486
▁сокращение	-11.6486
▁качеств	-11.6486
▁Робот	-11.6487
▁сложивш	-11.649
▁окружен	-11.649
▁Ничто	-11.6491
▁займёт	-11.6491
▁кабель	-11.6496
▁планетарн	-11.6496
▁Ливи	-11.6496
▁Помн	-11.6497
▁воспоминани	-11.6498
▁оцен	-11.6501
▁восстанавливать	-11.6504
▁геологическ	-11.6505
▁сэр	-11.6506
▁Каза	-11.6508
вист	-11.6512
▁сложен	-11.6513
▁неврологи	-11.6514
▁Данные	-11.6514
▁девочку	-11.6514
▁значимость	-11.6522
▁изобретен	-11.6523
оид	-11.6525
▁нормальным	-11.6527
▁урока	-11.6527
▁отчаянно	-11.6531
▁документальны	-11.6532
▁древ	-11.6533
▁размышления	-11.6534
▁Испании	-11.6537
▁развивающие	-11.6539
▁стремит	-11.6544
▁драм	-11.6544
▁покрыт	-11.6545
хватил	-11.6547
▁автомобиле	-11.6548
▁сутк	-11.655
стен	-11.6554
▁вредны	-11.6558
▁привычны	-11.656
▁Ньютон	-11.6563
▁родов	-11.6566
▁нижн	-11.6567
льное	-11.6569
▁наличия	-11.657
▁помни	-11.6572
▁периодическ	-11.6577
▁вступил	-11.6577
▁распознава	-11.6579
▁счастливе	-11.6583
▁1900	-11.6584
▁вера	-11.6584
▁поража	-11.6585
▁усвоил	-11.6586
▁образованны	-11.6587
▁товара	-11.6594
▁переживания	-11.6595
▁изменяют	-11.6599
▁полез	-11.6599
звонил	-11.66
▁числ	-11.6602
▁проанализирова	-11.6602
▁удачно	-11.6604
медик	-11.6604
▁сбережения	-11.6606
▁воспоминание	-11.6606
▁любопытны	-11.6609
▁посе	-11.661
нья	-11.6611
▁гордость	-11.6611
▁половы	-11.6611
▁завися	-11.6612
важно	-11.6617
▁Берлин	-11.6618
▁протеста	-11.6619
▁означа	-11.6622
▁нажима	-11.6624
▁прошлым	-11.6627
▁анализирова	-11.663
▁перехода	-11.663
2-	-11.6632
▁знаменитост	-11.6633
▁ставят	-11.6638
▁подключи	-11.6638
▁финансирова	-11.6642
▁поврежд	-11.6642
▁девочкам	-11.6643
▁поведенчески	-11.6644
вич	-11.6647
▁плоск	-11.6647
▁Пал	-11.6652
▁преобразовани	-11.6652
▁быстрого	-11.6655
▁четвёрто	-11.6656
▁подач	-11.6659
▁конечны	-11.6659
▁случайност	-11.6662
▁Др	-11.6664
▁продал	-11.6666
▁выгоды	-11.6667
▁световы	-11.6668
▁весит	-11.6669
▁разновидност	-11.6676
▁соседни	-11.6676
▁измерение	-11.6676
▁размышлени	-11.6677
▁изнасилован	-11.6679
▁позиция	-11.6681
ницы	-11.6684
▁Ран	-11.6686
▁набрал	-11.6689
▁крыль	-11.6691
▁Эли	-11.6692
▁Кем	-11.6698
▁сохраняет	-11.6699
▁Возвраща	-11.6702
ейсбук	-11.6702
▁Антарктид	-11.6702
▁Гренланди	-11.6702
▁Леонардо	-11.6702
▁айсберг	-11.6702
▁бесполезны	-11.6702
▁благоприятн	-11.6702
▁джентльмен	-11.6702
▁заблуждени	-11.6702
▁иероглиф	-11.6702
▁интеграци	-11.6702
▁милосерди	-11.6702
▁привилеги	-11.6702
▁приспосаблива	-11.6702
▁реконструкци	-11.6702
▁сегмент	-11.6702
▁туберкулёз	-11.6702
▁Арктик	-11.6702
▁Республик	-11.6702
▁капитан	-11.6702
▁сигарет	-11.6702
▁двойно	-11.6702
▁ускорить	-11.6702
▁Мэтт	-11.6702
▁пират	-11.6702
▁обнаружим	-11.6702
▁жилья	-11.6702
▁маркер	-11.6702
▁община	-11.6702
гвозд	-11.6702
▁доминирую	-11.6702
▁Арави	-11.6702
▁водителя	-11.6703
▁производителей	-11.6703
▁авиа	-11.6704
▁форум	-11.6704
няет	-11.6704
пользуется	-11.6704
▁устрани	-11.6704
▁учёными	-11.6704
▁апрел	-11.6706
▁высказать	-11.6706
▁отрицательны	-11.6707
▁колёс	-11.6709
▁приключени	-11.6709
▁чистый	-11.6712
▁батарейк	-11.6713
▁бизнесмен	-11.6714
▁художники	-11.6715
▁складывает	-11.6717
▁студента	-11.6719
▁Богу	-11.6719
▁матк	-11.672
▁расстроен	-11.6722
▁ухо	-11.6722
▁господин	-11.6724
▁оригами	-11.6724
▁повлияет	-11.6726
▁поменя	-11.6727
новить	-11.6728
▁чтение	-11.6728
▁крупным	-11.6728
▁категория	-11.6732
▁интересуют	-11.6733
▁Сэм	-11.6735
▁изобража	-11.6735
▁спутниковы	-11.6735
▁посчитал	-11.6735
летним	-11.6735
▁послужил	-11.6738
▁толч	-11.6738
▁судить	-11.6739
▁технику	-11.6742
▁пожил	-11.6743
▁чуж	-11.6743
▁описания	-11.6743
▁вторым	-11.6744
▁этически	-11.6748
бирает	-11.675
▁растуще	-11.6753
▁отчет	-11.6754
порить	-11.6756
▁оптимист	-11.6756
▁постановк	-11.6756
▁Согласн	-11.676
▁пароли	-11.6763
стало	-11.6767
▁кошки	-11.6769
уйте	-11.677
▁луг	-11.6772
▁волнующ	-11.6773
▁восстановлени	-11.6774
▁садов	-11.6774
▁Трудно	-11.6776
▁собрания	-11.6777
▁бюджета	-11.6779
▁чей	-11.6779
ждём	-11.6782
▁взгляда	-11.6785
▁Воз	-11.6788
▁раннем	-11.679
зли	-11.6794
▁врачом	-11.6796
▁физика	-11.6798
▁родин	-11.6802
▁Сара	-11.6803
▁Будд	-11.6807
▁начнет	-11.6809
▁мертвы	-11.6814
▁пузырь	-11.6814
▁монет	-11.6815
▁разбива	-11.6822
▁блюд	-11.6823
▁отдавать	-11.6824
▁эго	-11.6826
▁живёте	-11.6829
очный	-11.683
▁окружае	-11.683
арди	-11.683
▁отправлен	-11.6831
люби	-11.6833
▁бездомны	-11.6834
ологии	-11.6838
▁идеологи	-11.6839
▁Вес	-11.684
▁звонит	-11.6843
▁повторил	-11.6843
явили	-11.6844
▁возвращать	-11.6845
▁неприятно	-11.6846
▁тяг	-11.6854
▁представитель	-11.6854
▁Третье	-11.6854
▁использованы	-11.6858
▁практическо	-11.686
пускать	-11.686
▁Следующ	-11.686
берите	-11.686
рабатывают	-11.6861
▁Замет	-11.6861
ствовать	-11.6863
▁заинтересовать	-11.6865
ороший	-11.6867
▁одева	-11.6868
▁адаптирова	-11.6869
глуб	-11.6871
▁осознани	-11.6873
▁Одн	-11.6874
мощности	-11.6875
ТС	-11.688
▁воздушн	-11.6883
только	-11.6884
▁минимально	-11.6884
▁2,	-11.6886
▁уверенным	-11.6891
▁стеклянны	-11.6893
форд	-11.6895
▁потеряла	-11.6895
▁лег	-11.6897
▁иностранн	-11.6901
▁следу	-11.6905
держим	-11.6906
▁Белы	-11.6906
▁поймал	-11.6907
▁ускоря	-11.6908
▁обмана	-11.6911
▁основание	-11.6914
ставлять	-11.6917
▁рожден	-11.6918
▁инновация	-11.6918
▁любител	-11.6918
▁войска	-11.6919
▁успе	-11.6921
▁ветрян	-11.6924
▁психическо	-11.6924
▁Детройт	-11.6924
▁Линкольн	-11.6924
▁Пациент	-11.6924
▁бамбук	-11.6924
▁вовлечь	-11.6924
▁выигрыш	-11.6924
▁дядя	-11.6924
▁издержк	-11.6924
▁мальчишк	-11.6924
▁муравей	-11.6924
▁новаторств	-11.6924
▁прибрежн	-11.6924
▁протоклетк	-11.6924
▁светодиод	-11.6924
▁Взрыв	-11.6924
▁комеди	-11.6924
▁шкаф	-11.6924
▁шторм	-11.6924
▁параллельно	-11.6924
▁патоген	-11.6924
▁Последне	-11.6924
▁завоева	-11.6924
▁упрости	-11.6925
▁ремонт	-11.6925
▁решка	-11.6925
▁ходьб	-11.6925
▁приняты	-11.6925
▁японски	-11.6925
▁расцвет	-11.6925
▁чертовск	-11.6925
▁пенис	-11.6926
▁японско	-11.6926
▁убедительно	-11.6927
▁Арабск	-11.6928
▁Семь	-11.6929
▁получение	-11.693
▁найдет	-11.693
▁скуча	-11.6931
▁превышает	-11.6932
▁чертеж	-11.6932
▁посещени	-11.6932
▁беспокойство	-11.6934
▁банальн	-11.6934
▁блестящ	-11.6934
▁рассказчик	-11.6936
▁продвинуть	-11.6937
▁национальном	-11.6938
орел	-11.6939
▁гибел	-11.6943
ложим	-11.6943
▁умно	-11.6943
▁геометрическ	-11.6944
▁машинами	-11.6946
▁кубик	-11.6949
▁лыжа	-11.695
▁простат	-11.695
▁вернёт	-11.6952
▁удовлетвори	-11.6957
▁применим	-11.696
льц	-11.6961
▁переезжа	-11.6961
▁улучшает	-11.6962
▁комисси	-11.6963
▁Рам	-11.6963
▁возобновляемы	-11.6965
▁подтвердил	-11.6966
▁обходит	-11.6968
▁определённым	-11.6968
▁планирование	-11.697
ливать	-11.6973
▁младши	-11.6976
▁Прекрасно	-11.6978
▁вырабатыва	-11.6981
▁формировать	-11.6982
единять	-11.6984
▁перевернул	-11.6984
▁возглавля	-11.6986
▁взятк	-11.6988
▁встроен	-11.6989
▁изменят	-11.6991
▁тюрем	-11.6992
▁гре	-11.6995
▁средн	-11.7002
мешать	-11.7003
верите	-11.7007
▁пас	-11.7007
▁плав	-11.7009
▁Норвегии	-11.7012
▁журналистик	-11.7014
▁ударил	-11.7015
▁учреждений	-11.7015
▁чуд	-11.7017
▁построены	-11.7017
кнул	-11.7021
▁фрукт	-11.7022
▁знаков	-11.7025
▁совета	-11.7031
дающий	-11.7031
▁впечатляющи	-11.7035
▁приступа	-11.7036
▁племена	-11.7039
▁признан	-11.704
▁оценкам	-11.7042
▁следил	-11.7046
ильм	-11.705
▁соедини	-11.705
▁пише	-11.7051
▁столб	-11.7054
▁кофейн	-11.7054
анин	-11.706
толог	-11.7062
▁оплат	-11.7063
▁удавал	-11.7066
▁проход	-11.7069
▁здоровьем	-11.7069
ваты	-11.707
▁инвестор	-11.7072
платили	-11.7072
▁суп	-11.7075
▁транспортны	-11.7079
▁доктором	-11.7079
▁Первым	-11.708
▁бумажны	-11.7081
▁финал	-11.7081
▁чис	-11.7084
▁продвижени	-11.7086
несла	-11.7086
▁нервны	-11.7087
▁платит	-11.7088
▁действующи	-11.7097
▁заряд	-11.7097
▁обратим	-11.7097
▁Лин	-11.7098
правительственн	-11.7099
▁строение	-11.71
▁аудиторию	-11.7103
▁фундамент	-11.7106
▁биотехнологи	-11.7108
▁Кин	-11.7108
крытие	-11.7112
▁расширяет	-11.7115
▁совместн	-11.7117
▁1990	-11.7118
▁видимо	-11.7118
▁поверну	-11.7119
▁Отличн	-11.7119
▁посвяти	-11.712
рести	-11.7121
▁Номер	-11.713
▁человечност	-11.7132
▁тонк	-11.7132
Ч	-11.7132
▁слепо	-11.7136
правду	-11.7136
▁стира	-11.7139
▁лучи	-11.714
▁подразумеваю	-11.7142
защит	-11.7142
▁Джули	-11.7142
чество	-11.7144
▁одобрен	-11.7144
▁сделав	-11.7144
▁рассматривает	-11.7146
руба	-11.7146
▁магнитны	-11.7147
▁схож	-11.7147
езусловно	-11.715
▁культ	-11.7151
▁физиологи	-11.7151
▁Аполлон	-11.7151
▁Бенджамин	-11.7151
▁Бронкс	-11.7151
▁Здорово	-11.7151
▁Сьерра	-11.7151
▁британско	-11.7151
▁детеныш	-11.7151
▁импровизаци	-11.7151
▁компакт	-11.7151
▁конфигураци	-11.7151
▁находк	-11.7151
▁отследи	-11.7151
▁официальны	-11.7151
▁охлаждени	-11.7151
▁попробую	-11.7151
▁прикосновени	-11.7151
▁темнокожи	-11.7151
▁факультет	-11.7151
▁шоссе	-11.7151
▁восприня	-11.7151
▁догадыва	-11.7151
▁преоблада	-11.7151
▁притяжени	-11.7151
▁пшениц	-11.7151
▁спортсмен	-11.7151
▁экстремальны	-11.7151
▁эмбрион	-11.7151
пряжен	-11.7151
▁предупреди	-11.7151
▁комитет	-11.7151
▁преград	-11.7151
▁обруши	-11.7151
▁поднимите	-11.7152
▁труп	-11.7152
▁платье	-11.7152
▁Плох	-11.7152
▁поражён	-11.7153
▁пострадал	-11.7153
▁ПМС	-11.7153
▁совершать	-11.7153
▁волновать	-11.7154
▁кукл	-11.7154
▁проектами	-11.7154
▁розовы	-11.7154
▁вдохновить	-11.7155
▁Сотн	-11.7156
▁смири	-11.7156
▁Лично	-11.7157
▁участвует	-11.7157
▁оптимизаци	-11.7157
▁увлекательно	-11.7158
вёрт	-11.7158
▁исключа	-11.716
рушени	-11.7161
▁Уверен	-11.7161
▁поспори	-11.7161
▁безграничн	-11.7163
▁Современн	-11.7164
▁купол	-11.7165
▁нефтяно	-11.7166
▁просмотра	-11.7166
растает	-11.7166
▁Учитыва	-11.7166
▁соглашение	-11.7167
▁гости	-11.7167
чистить	-11.7168
▁раковин	-11.7169
▁приход	-11.717
▁подбира	-11.7171
▁хватал	-11.7171
▁основывая	-11.7173
▁свалк	-11.7173
образно	-11.7173
▁машинно	-11.7175
▁тёт	-11.7178
▁пиксел	-11.7178
▁неделя	-11.7178
проект	-11.718
▁осознанно	-11.7183
▁различие	-11.7188
▁стыдно	-11.719
▁препаратов	-11.719
сылают	-11.7192
▁дизайнера	-11.7192
▁канализаци	-11.7194
▁бедн	-11.7197
▁встречает	-11.7199
▁звуча	-11.7201
▁дур	-11.7202
▁ядро	-11.7203
▁астрономи	-11.7205
▁устроить	-11.7206
▁Роз	-11.7207
▁Международно	-11.7207
▁пользователям	-11.721
▁двигать	-11.721
▁позволял	-11.7211
▁королевск	-11.7219
▁транспортно	-11.7219
▁перейдё	-11.722
▁одет	-11.7222
▁сгиб	-11.7223
▁инсулин	-11.7224
бьют	-11.7228
▁колебания	-11.7232
▁свят	-11.7236
▁стандартно	-11.7236
▁заглядыва	-11.7238
худ	-11.7238
▁татуировк	-11.7238
▁5000	-11.724
спор	-11.724
нити	-11.7241
▁красивой	-11.7241
ранс	-11.7245
▁воп	-11.7246
▁срока	-11.7247
▁обратном	-11.7251
▁свободным	-11.7253
▁стере	-11.7253
тверж	-11.7257
читать	-11.7259
домом	-11.7259
▁заявля	-11.726
▁прослушивани	-11.726
▁путешествую	-11.7261
▁жизнеспособн	-11.7262
▁шелк	-11.7263
▁физике	-11.7263
▁судебны	-11.7263
▁Израил	-11.7266
▁повыси	-11.7267
▁идиот	-11.727
▁берем	-11.7271
▁бумагу	-11.7272
▁пыли	-11.7272
бар	-11.7273
▁зелено	-11.7274
▁остановит	-11.7274
▁проявить	-11.7275
▁видам	-11.728
▁серьёзным	-11.7282
▁смертельно	-11.7282
▁способностям	-11.7283
▁ориентирован	-11.7283
▁млекопитающи	-11.7292
▁управлении	-11.7298
▁осуществи	-11.7299
▁общественным	-11.7299
эль	-11.7301
▁кричал	-11.7303
▁крас	-11.7306
▁предупреждени	-11.7309
ороче	-11.731
промышленн	-11.731
карт	-11.7318
▁вымирани	-11.7319
ошла	-11.7323
▁завис	-11.7323
▁подража	-11.7328
вернуть	-11.7328
▁детально	-11.7333
полон	-11.7336
матер	-11.7336
▁замедлить	-11.7337
сот	-11.7344
▁виден	-11.7345
яснени	-11.7348
▁равна	-11.7348
▁клик	-11.7349
▁вертикальн	-11.7351
▁некоммерческ	-11.7355
▁гравитации	-11.7356
▁жертвам	-11.7364
▁слона	-11.7364
ранк	-11.7368
онколог	-11.7371
▁соединени	-11.7372
Мер	-11.7374
▁показыва	-11.7374
▁планировал	-11.7377
▁возможностя	-11.7378
▁монитор	-11.7378
люд	-11.7382
▁Здравствуй	-11.7384
▁Внезапн	-11.7384
▁Глобальн	-11.7384
▁Медицин	-11.7384
▁Палестин	-11.7384
▁Поразительно	-11.7384
▁Ребят	-11.7384
▁Свобод	-11.7384
▁Талибан	-11.7384
▁воплоща	-11.7384
▁заблокирова	-11.7384
▁запясть	-11.7384
▁карандаш	-11.7384
▁метаболизм	-11.7384
▁отталкива	-11.7384
▁страстно	-11.7384
▁стрекоз	-11.7384
▁штамм	-11.7384
▁штраф	-11.7384
▁экспонат	-11.7384
▁вслух	-11.7384
▁динамическ	-11.7384
▁корпус	-11.7384
▁верёвк	-11.7384
▁подразделени	-11.7384
▁новаторск	-11.7384
▁придуман	-11.7384
▁тяжест	-11.7384
▁лотере	-11.7384
▁земледели	-11.7384
▁кольцо	-11.7384
▁спрятан	-11.7384
▁волшебство	-11.7384
▁осужда	-11.7384
▁Брэд	-11.7384
▁подготовил	-11.7385
▁подписал	-11.7385
▁продли	-11.7385
▁слияни	-11.7385
▁узки	-11.7385
▁кролик	-11.7385
▁весёл	-11.7386
▁происходящего	-11.7386
▁драйв	-11.7386
▁мобильник	-11.7387
▁удалить	-11.7388
▁искажен	-11.7389
▁приглашение	-11.7389
▁кассет	-11.739
▁ведущих	-11.7392
▁узко	-11.7393
▁обращают	-11.7393
ированно	-11.7395
▁Долин	-11.7396
▁развод	-11.7396
▁гражданск	-11.7397
▁выступающи	-11.7397
▁хранил	-11.7398
▁Абсолютно	-11.7398
▁полагает	-11.7399
▁производственн	-11.74
▁Мало	-11.7403
▁реку	-11.7406
▁выреза	-11.7408
▁взят	-11.7413
▁переворачива	-11.7416
▁посвятил	-11.7417
▁отмен	-11.7417
▁экологичны	-11.7419
▁распада	-11.742
▁порождает	-11.7422
▁сетям	-11.7423
▁планирования	-11.7423
▁дельфинов	-11.7426
▁гео	-11.7427
▁соседям	-11.7429
▁зла	-11.7429
▁звёзды	-11.7431
▁Никол	-11.7432
▁благодар	-11.7432
лос	-11.7433
▁хватил	-11.7436
▁энергетическо	-11.7436
▁расположенны	-11.7438
▁красивым	-11.7439
красн	-11.7439
▁беспроводны	-11.7441
▁демонстрируют	-11.7442
почту	-11.7442
▁архитектуру	-11.7444
▁заявления	-11.7446
▁копию	-11.7447
▁больным	-11.7448
▁упорно	-11.7448
▁кораллы	-11.745
▁видеоигры	-11.745
▁Мес	-11.7452
▁линейн	-11.7453
▁прочес	-11.7456
▁реклама	-11.7456
▁отклонени	-11.7461
▁упаков	-11.7462
единённ	-11.7463
▁протестирова	-11.7467
щите	-11.7469
▁Северном	-11.747
▁дельфины	-11.7472
▁делим	-11.7472
читаю	-11.7474
▁огранич	-11.748
▁жертвой	-11.7481
▁виртуальн	-11.7484
▁СП	-11.7485
олли	-11.7489
▁завершени	-11.7491
▁выдающ	-11.7496
▁рисков	-11.7496
▁путешеству	-11.7497
▁проявление	-11.7499
▁Движение	-11.75
▁мягки	-11.75
▁несут	-11.7504
▁Пакистане	-11.7505
▁бедстви	-11.7507
▁оказывать	-11.7508
▁осознавал	-11.7509
▁навоз	-11.751
чар	-11.7513
ектами	-11.7514
▁талантливы	-11.7516
▁новейш	-11.7516
▁казни	-11.7518
▁описывал	-11.7523
уляци	-11.7525
▁возьму	-11.7526
▁лодки	-11.7537
▁изучении	-11.754
▁обсуждени	-11.754
▁вообрази	-11.7543
▁барьер	-11.7551
▁площадки	-11.7553
▁светящ	-11.7556
▁заняли	-11.7557
▁свеч	-11.7557
▁ежедневны	-11.7557
▁километр	-11.7558
▁тайно	-11.7562
▁доброт	-11.7565
▁трёхмерн	-11.7565
учение	-11.7571
▁резюм	-11.7572
▁коробка	-11.7574
▁Прост	-11.7575
▁посме	-11.7575
▁идеальн	-11.7576
▁духа	-11.7577
▁поверхност	-11.7578
▁служа	-11.7579
▁счастлива	-11.758
▁скрывать	-11.7583
▁окон	-11.7585
▁грязны	-11.7585
▁приводил	-11.7587
▁телевидении	-11.7588
тиль	-11.7588
▁кач	-11.7594
▁рабоч	-11.7595
▁убийство	-11.7596
▁столов	-11.7598
▁звуковы	-11.7603
▁бюрократ	-11.7606
▁пожела	-11.7609
▁рубеж	-11.7609
▁осп	-11.7612
▁приблизи	-11.7613
▁превыша	-11.7614
смел	-11.7617
▁триллиона	-11.7617
звезд	-11.7619
▁четверти	-11.7622
▁швейцар	-11.7622
сплеск	-11.7622
▁Совершенн	-11.7622
▁блокчейн	-11.7622
▁вакуум	-11.7622
▁диспле	-11.7622
▁инсульт	-11.7622
▁каркас	-11.7622
▁лауреат	-11.7622
▁марсоход	-11.7622
▁общепринят	-11.7622
▁памятник	-11.7622
▁педагог	-11.7622
▁пестицид	-11.7622
▁сфотографировал	-11.7622
▁урбанизаци	-11.7622
▁шедевр	-11.7622
▁экземпляр	-11.7622
▁Мальчик	-11.7622
▁сустав	-11.7622
▁немыслим	-11.7622
▁Дисне	-11.7622
▁художественны	-11.7622
▁учёного	-11.7622
▁Задач	-11.7623
ледовательно	-11.7623
▁коляск	-11.7623
▁посадил	-11.7623
▁ограничивает	-11.7623
▁помнят	-11.7623
▁взбира	-11.7623
▁покров	-11.7623
▁Половин	-11.7623
▁покупают	-11.7623
▁соседству	-11.7624
▁жалоб	-11.7624
▁поглощен	-11.7625
▁потребительск	-11.7625
▁останк	-11.7627
▁детка	-11.7627
▁планируем	-11.7628
▁Исследовател	-11.7629
▁размещен	-11.7629
▁3,5	-11.763
▁полимер	-11.763
▁продвинуты	-11.763
▁Велик	-11.7633
▁школьник	-11.7634
даваемы	-11.7636
▁беспрецедентн	-11.7636
▁спит	-11.7637
▁обсуждаем	-11.7638
▁справедлив	-11.7642
▁субсиди	-11.7642
▁покупает	-11.7642
▁вызывал	-11.7643
скольз	-11.7643
▁предположил	-11.7644
▁радиус	-11.7645
▁сломал	-11.7645
▁примет	-11.7646
▁заставлял	-11.7646
▁росли	-11.7649
▁офиса	-11.7651
▁напечата	-11.7653
▁обладать	-11.7656
▁непрост	-11.7657
аутист	-11.7659
▁стреля	-11.7662
▁Лед	-11.7662
▁качественно	-11.7666
▁людск	-11.7671
▁контролируют	-11.7672
▁управляющи	-11.7673
▁изделия	-11.7673
▁собрани	-11.7673
▁способствова	-11.7678
▁выгодно	-11.7681
▁переключател	-11.7681
▁подражани	-11.7685
▁визуализаци	-11.7685
▁смертельны	-11.7685
▁песка	-11.7688
▁затрагивает	-11.7688
▁вымирания	-11.769
вязать	-11.769
▁продвижения	-11.7691
▁подняла	-11.7692
▁страховк	-11.7692
щения	-11.7701
▁двигателе	-11.7701
▁наблюдала	-11.7706
▁логика	-11.7709
▁зелёным	-11.7709
▁набора	-11.7711
▁гигантско	-11.7712
▁уничтожил	-11.7712
▁позор	-11.7716
▁невидим	-11.7717
▁ресурсами	-11.7717
▁вылечить	-11.7718
▁худше	-11.7719
казывать	-11.7719
▁дополнение	-11.772
▁лёгкость	-11.7721
▁уникальна	-11.7722
▁грех	-11.7724
носител	-11.7726
▁применил	-11.7727
чести	-11.7728
▁Пор	-11.7728
▁сбережени	-11.7729
▁ужасным	-11.773
▁посылает	-11.7731
▁потребовало	-11.7733
▁разбил	-11.7734
спр	-11.7735
▁открывают	-11.7738
жка	-11.7738
▁Модел	-11.7738
▁сборк	-11.7741
▁сердц	-11.7741
индивидуальность	-11.7744
▁кресл	-11.7747
кола	-11.7749
▁согласован	-11.7749
▁пище	-11.7751
▁медленны	-11.7752
▁парочк	-11.7754
▁авторско	-11.7757
▁считыва	-11.7757
▁казн	-11.776
▁улови	-11.7762
▁берёте	-11.7763
▁остал	-11.7765
▁обезьяна	-11.7765
▁карточк	-11.7765
звуч	-11.7766
▁собаку	-11.7766
▁Сол	-11.7769
▁скрыто	-11.7774
вным	-11.7774
▁остатк	-11.7778
растают	-11.778
▁республик	-11.778
▁жду	-11.7784
▁высоком	-11.7787
▁пункта	-11.7789
▁старение	-11.7789
▁осторожно	-11.779
▁гнездо	-11.779
ождения	-11.7793
▁Мексике	-11.7798
▁мальчики	-11.78
▁записыва	-11.78
▁диалога	-11.7803
▁народов	-11.7804
▁ненавидел	-11.7804
▁посмотри	-11.7805
равня	-11.7809
▁писала	-11.7811
▁механизма	-11.7812
▁жажд	-11.7814
▁выключа	-11.7815
▁начав	-11.7815
▁комфортно	-11.7816
▁сентябр	-11.7816
▁четвёрты	-11.7817
▁возникну	-11.7818
пустил	-11.7818
▁подвал	-11.7821
▁уничтожение	-11.7821
ватит	-11.7825
▁золота	-11.7829
▁Дон	-11.7829
▁информирова	-11.7831
▁способствую	-11.7834
▁предста	-11.7836
▁передне	-11.7839
▁дизайнерски	-11.7839
▁договори	-11.7839
▁высота	-11.784
▁конкретн	-11.784
бивает	-11.7842
▁сотня	-11.7843
▁открыти	-11.7848
▁организованно	-11.785
▁толку	-11.7851
▁Рак	-11.7851
▁видна	-11.7852
▁полагают	-11.7852
▁алкогол	-11.7854
▁кабел	-11.7855
▁натур	-11.7861
▁задаю	-11.7862
▁чемпион	-11.7864
▁космонавт	-11.7866
▁Гонконг	-11.7866
▁Зимбабв	-11.7866
▁Олимпиад	-11.7866
▁Стюарт	-11.7866
▁застрял	-11.7866
▁координаци	-11.7866
▁леопард	-11.7866
▁мельчайши	-11.7866
▁модификаци	-11.7866
▁освобожда	-11.7866
▁престарелы	-11.7866
▁робототехник	-11.7866
▁специализиру	-11.7866
▁удовлетворя	-11.7866
▁Электро	-11.7866
▁уважать	-11.7866
▁возрождени	-11.7866
▁далёки	-11.7866
▁гитар	-11.7866
▁наушник	-11.7866
▁Лютер	-11.7866
▁словарь	-11.7866
▁витамин	-11.7866
▁секвой	-11.7866
▁столкнё	-11.7866
▁Американско	-11.7866
▁Тунис	-11.7866
▁федерально	-11.7866
▁Верховн	-11.7866
▁штуковин	-11.7866
▁исчезнет	-11.7867
▁опережа	-11.7867
▁рассвет	-11.7867
▁зарождени	-11.7867
▁предельно	-11.7867
▁ультразвук	-11.7867
▁Здани	-11.7867
▁горизонтально	-11.7867
▁Вчера	-11.7867
▁Лонг	-11.7867
▁дорожны	-11.7868
▁дорожно	-11.7868
▁спасать	-11.7869
▁русски	-11.7869
▁погибши	-11.7869
▁Пен	-11.787
▁грустн	-11.787
▁ступен	-11.787
▁товарищ	-11.7871
▁астм	-11.7873
▁петл	-11.7873
▁наброск	-11.7874
▁заража	-11.7874
▁переживани	-11.7875
машин	-11.7875
▁косну	-11.7877
▁захватывает	-11.7878
▁июне	-11.7879
▁чьё	-11.7879
▁согласил	-11.788
▁настроение	-11.7881
▁бумага	-11.7881
▁присутствовал	-11.7881
▁лодка	-11.7882
▁излучение	-11.7884
▁покрыты	-11.7885
▁мышлени	-11.7885
▁принадлежал	-11.7889
▁мамой	-11.789
▁крупнейше	-11.7894
▁Сила	-11.7895
▁градуса	-11.7902
тази	-11.7902
▁эра	-11.7905
▁овц	-11.7906
▁нижни	-11.7907
▁рта	-11.7907
тягивает	-11.7917
▁Бол	-11.7918
▁берег	-11.7919
▁выходил	-11.7922
▁вкратце	-11.7923
-15	-11.7925
вейцарии	-11.7927
▁Реш	-11.7928
▁атаку	-11.793
▁свечени	-11.7935
▁почувствовала	-11.7936
перёд	-11.7937
▁выполнен	-11.7937
▁вступа	-11.7939
▁оценивает	-11.7939
▁разговариваю	-11.794
▁звучат	-11.7941
▁задаём	-11.7942
кричать	-11.7946
▁выдающим	-11.7947
▁сигнала	-11.7948
▁поступал	-11.7951
▁пообещал	-11.7951
▁крем	-11.7952
▁улицам	-11.7954
запад	-11.7957
▁членами	-11.7958
▁физическим	-11.7958
▁образует	-11.796
▁спортивны	-11.7961
▁достигнет	-11.7962
будить	-11.7964
▁судя	-11.7966
▁переместить	-11.7967
▁хрупк	-11.7967
▁священны	-11.7968
▁приближает	-11.7969
▁инфицирова	-11.797
▁представл	-11.7971
▁ограниченно	-11.7972
▁маг	-11.7973
▁Машин	-11.7978
гнуть	-11.7979
ходящих	-11.798
▁сравнивать	-11.798
▁восприяти	-11.798
▁дискриминации	-11.7982
▁уверенност	-11.7983
▁Справ	-11.7987
▁прыж	-11.7987
▁вернем	-11.7987
▁испытание	-11.7988
▁позвон	-11.7989
▁стандартам	-11.7989
▁плоскост	-11.7998
Паул	-11.7999
раг	-11.7999
▁Ад	-11.8
▁деревянны	-11.8
▁проекци	-11.8001
▁незаконно	-11.8001
▁инженерны	-11.8005
▁Лар	-11.8007
▁коралл	-11.8008
▁мешк	-11.8009
▁Буд	-11.8018
▁составляющих	-11.8022
▁мёртв	-11.8023
▁привез	-11.8024
восстанавлива	-11.8024
▁уголовно	-11.8025
▁исключительны	-11.8025
вляется	-11.8027
▁Белл	-11.8027
▁предубеждени	-11.8027
▁сконцентрирова	-11.8033
▁глупост	-11.8035
▁любовн	-11.8035
▁беспроводно	-11.8037
▁Мел	-11.8039
▁внешним	-11.8046
▁научным	-11.8046
▁видеоигр	-11.805
▁Массачусетск	-11.805
▁фразы	-11.805
ходишь	-11.8052
▁одежда	-11.8054
▁взаимо	-11.8057
▁выпустить	-11.8059
▁старался	-11.806
▁перевоз	-11.806
▁десятка	-11.8061
▁беременны	-11.8061
▁Уол	-11.8064
▁платформа	-11.8067
▁тверд	-11.8069
▁откроет	-11.807
▁антибиотикам	-11.8071
АС	-11.8072
▁убедили	-11.8073
▁убивали	-11.8074
▁вере	-11.8078
▁знакомых	-11.8078
▁биологическ	-11.808
▁мужски	-11.8083
шестви	-11.8084
▁отвечающи	-11.8085
простите	-11.8086
какие	-11.8086
▁конкретном	-11.8087
▁собрание	-11.8088
▁позволяющ	-11.809
▁мусульмански	-11.8091
▁пещера	-11.8092
гружен	-11.8093
▁геометри	-11.8094
воспита	-11.8094
риса	-11.8095
▁несправедлив	-11.8098
▁пищевы	-11.8099
▁Бат	-11.81
гадать	-11.8101
▁Пример	-11.8102
▁действиям	-11.8103
▁гладко	-11.8104
▁академи	-11.8106
▁клиентам	-11.8106
▁отеле	-11.8107
▁вспышка	-11.8107
красил	-11.8109
▁слышат	-11.811
▁лав	-11.8111
▁Дизайн	-11.8112
▁обширны	-11.8112
▁просну	-11.8114
▁беспорядо	-11.8115
▁невинн	-11.8115
▁брош	-11.8116
▁Иерусалим	-11.8116
▁Копенгаген	-11.8116
▁Мухаммед	-11.8116
▁альтруизм	-11.8116
▁бригад	-11.8116
▁губернатор	-11.8116
▁заседани	-11.8116
▁коннектом	-11.8116
▁обусловлен	-11.8116
▁произошедше	-11.8116
▁усердно	-11.8116
▁шахмат	-11.8116
▁экспоненциально	-11.8116
▁подталкива	-11.8116
▁снабжа	-11.8116
▁Беркли	-11.8116
▁Чувств	-11.8116
▁чемодан	-11.8116
▁анонимно	-11.8116
▁дорогостоящ	-11.8116
▁принципиально	-11.8116
▁планшет	-11.8116
▁широт	-11.8116
▁Монтере	-11.8116
▁суббот	-11.8117
▁Абед	-11.8117
▁пожаловать	-11.8117
▁куратор	-11.8117
▁индивид	-11.8117
▁поцелу	-11.8117
▁полутора	-11.8117
▁Сьюз	-11.8117
дёшь	-11.8117
▁баррел	-11.8117
▁Решение	-11.8117
▁монах	-11.8117
▁пройдёт	-11.8117
▁шрам	-11.8117
▁дальнейши	-11.8117
▁обыча	-11.8118
▁седьмо	-11.8118
▁Бутан	-11.8118
▁инженера	-11.8119
▁пиво	-11.8119
▁законодательн	-11.8119
▁кратер	-11.812
▁минерал	-11.812
▁локальны	-11.8121
▁ГГ	-11.8121
▁аудио	-11.8123
▁революционны	-11.8123
▁поговорил	-11.8124
оставляют	-11.8125
▁ночам	-11.8125
▁волновал	-11.8126
▁тепла	-11.8126
▁сведения	-11.8127
▁заплыв	-11.8129
▁девочкой	-11.8129
▁обсуждение	-11.8129
судим	-11.8129
▁указал	-11.813
тиф	-11.8131
▁охоти	-11.8132
▁разрушение	-11.8133
▁повторю	-11.8134
лекс	-11.8138
монт	-11.8138
▁корпораций	-11.8139
▁падения	-11.8139
▁сперм	-11.814
▁парламента	-11.814
▁исключи	-11.8141
▁молочно	-11.8141
▁1995	-11.8143
▁словаре	-11.8151
▁ирони	-11.8151
▁растительн	-11.8152
▁совершенны	-11.8152
▁получ	-11.8155
▁11-	-11.8156
прош	-11.8157
▁покупал	-11.8157
▁владельце	-11.8158
▁математическ	-11.8159
▁центральны	-11.8159
▁рассчита	-11.8163
▁увидит	-11.8164
альд	-11.8165
▁читают	-11.8165
▁построенны	-11.8165
▁ограниченным	-11.8166
▁применяет	-11.8167
▁участков	-11.8167
ческим	-11.8168
▁обрел	-11.8169
▁классов	-11.8171
▁ступн	-11.8172
▁распространённо	-11.8178
▁побег	-11.8178
▁крошечно	-11.818
▁концентрация	-11.818
▁возмож	-11.8184
сосудист	-11.8184
▁музыкантов	-11.8187
▁ожирени	-11.8187
ритм	-11.8191
▁проведённы	-11.8191
▁спутники	-11.8192
▁сыну	-11.8195
▁нарушение	-11.8195
▁чётки	-11.8197
▁ощущал	-11.8199
▁обсуждают	-11.8201
равенства	-11.8205
▁малярия	-11.8206
▁постараюсь	-11.8209
геев	-11.8209
▁диаграмма	-11.8209
▁поступк	-11.821
▁подушк	-11.8211
▁очевид	-11.8212
▁лишил	-11.8212
прыгну	-11.8212
▁умения	-11.8217
▁мероприятия	-11.8217
жир	-11.822
▁возросл	-11.8221
шелка	-11.8222
правилась	-11.8225
▁включать	-11.8225
▁горны	-11.8225
▁поощря	-11.8229
▁мам	-11.8229
▁пробы	-11.823
▁основател	-11.823
▁убрал	-11.8234
▁ужаса	-11.8236
▁подводит	-11.8239
▁убийства	-11.8243
▁обладал	-11.8243
▁настаива	-11.8243
▁вооружённы	-11.8243
▁Возьм	-11.8248
▁средним	-11.8252
▁перерабатыва	-11.8253
▁читала	-11.8254
▁неустойчив	-11.8254
▁сдержива	-11.8254
▁достойн	-11.8255
▁защища	-11.8256
▁чужо	-11.8258
▁постиг	-11.8262
▁создаются	-11.8262
▁Красн	-11.8264
▁спад	-11.8264
▁руководи	-11.8264
▁открывал	-11.8264
▁возникающи	-11.8267
▁расово	-11.8267
▁вращает	-11.8271
▁ковр	-11.8273
▁застройк	-11.8274
▁подтверждает	-11.8274
▁домик	-11.8277
▁шага	-11.8277
▁свидетельства	-11.828
▁химическо	-11.828
▁взаимоотношени	-11.8284
▁трёхмерно	-11.8285
▁задне	-11.8285
▁особенным	-11.8286
единённы	-11.8286
▁задаёт	-11.8291
▁обстоятельств	-11.8292
▁семьями	-11.8293
▁заплатил	-11.8294
▁планирова	-11.8296
▁добавлен	-11.8299
▁динамичн	-11.83
▁оценивать	-11.8304
▁таково	-11.8307
▁обращаем	-11.8307
▁зимо	-11.8309
чили	-11.831
▁безопасне	-11.8311
▁оказать	-11.8316
▁Прав	-11.832
летнем	-11.8322
▁присутствую	-11.8323
▁молок	-11.8324
▁Колумби	-11.8325
▁сантиметр	-11.8325
▁прода	-11.8327
▁осуществля	-11.833
▁развили	-11.8332
▁дожде	-11.8334
жав	-11.8335
▁ключевым	-11.8336
▁нарушени	-11.8337
▁устойчив	-11.834
енности	-11.834
▁указыва	-11.8345
▁падение	-11.8348
▁террор	-11.8351
емлющ	-11.8354
▁механизмов	-11.8355
▁временны	-11.8356
лишком	-11.8362
▁останавливает	-11.8363
▁прирост	-11.8365
▁последовател	-11.8366
▁башни	-11.8371
▁жизня	-11.8372
загрузить	-11.8372
▁Моцарт	-11.8372
▁Эверест	-11.8372
▁аккаунт	-11.8372
▁восхитительно	-11.8372
▁вредоносн	-11.8372
▁египтян	-11.8372
▁заброшенн	-11.8372
▁кладбищ	-11.8372
▁мировоззрени	-11.8372
▁неокортекс	-11.8372
▁развлечений	-11.8372
▁расшифровк	-11.8372
▁сэндвич	-11.8372
▁транспортировк	-11.8372
▁филантроп	-11.8372
▁Компания	-11.8372
▁Наибол	-11.8372
▁Происходи	-11.8372
▁матриц	-11.8372
▁помешан	-11.8372
▁сомнительн	-11.8372
▁обувь	-11.8372
▁Подобно	-11.8372
▁смотришь	-11.8372
▁побежда	-11.8372
▁гамма	-11.8373
▁устарел	-11.8373
▁добровольно	-11.8373
▁матч	-11.8373
▁глухи	-11.8373
▁Числ	-11.8373
▁фермент	-11.8373
▁жильё	-11.8373
▁водопад	-11.8373
▁маммографи	-11.8373
▁агентства	-11.8374
▁Язык	-11.8374
▁Аляск	-11.8374
таскива	-11.8374
▁заботят	-11.8374
▁диван	-11.8374
▁показателям	-11.8375
▁Кро	-11.8375
оксид	-11.8375
▁пауз	-11.8375
▁инструкции	-11.8375
▁тряс	-11.8376
▁разделяют	-11.8376
▁овладе	-11.8377
▁готовит	-11.8377
▁утечк	-11.8377
▁прогрессивн	-11.8378
▁распространени	-11.8379
▁укрепи	-11.8379
▁зашл	-11.8379
▁помех	-11.8379
▁производил	-11.8381
▁запута	-11.8382
▁потрясен	-11.8382
еникс	-11.8383
▁угрожает	-11.8383
▁колод	-11.8384
▁богато	-11.8386
▁получалось	-11.8386
▁государством	-11.8386
▁медведей	-11.8386
▁потребовал	-11.8387
▁резки	-11.8389
▁суше	-11.8389
▁вынес	-11.8391
▁смешанн	-11.8391
▁постоянн	-11.8393
▁разгар	-11.8394
▁крыша	-11.8395
▁землетрясения	-11.8396
▁двадцать	-11.8397
▁сказанно	-11.8397
▁боевы	-11.8398
▁Основ	-11.8398
▁колоссально	-11.8398
▁уменьшение	-11.8398
▁хлопа	-11.84
▁опубликова	-11.84
▁состоящи	-11.84
▁отдалённы	-11.8402
▁перемена	-11.8405
▁Смысл	-11.8407
▁склонность	-11.8408
▁встречаться	-11.8409
▁постер	-11.8409
▁исполнитель	-11.8412
▁подлинно	-11.8413
▁наполня	-11.8414
▁диагност	-11.8414
одиночк	-11.8414
▁библиотека	-11.8414
▁международным	-11.8414
▁потере	-11.8414
▁просмотре	-11.8415
▁миллиметр	-11.8415
▁самолёты	-11.8416
▁эффективна	-11.8418
▁произведен	-11.842
▁иллюзия	-11.842
▁строител	-11.8422
▁Тво	-11.8423
▁завершение	-11.8428
Джер	-11.843
▁условие	-11.843
▁честны	-11.8432
▁умным	-11.8432
▁Национальн	-11.8441
▁замечательным	-11.8442
шир	-11.8442
▁помещает	-11.8443
▁обойти	-11.8445
▁выстраива	-11.8446
▁Линд	-11.8448
бирая	-11.8449
▁Пят	-11.8454
▁отличия	-11.8455
▁Греции	-11.8456
▁Великобритани	-11.8457
▁зонд	-11.846
▁зубов	-11.846
▁критическо	-11.8463
▁верн	-11.8463
▁неизбежны	-11.8465
▁неэффективны	-11.8468
▁рождени	-11.8472
▁толст	-11.8474
тронуты	-11.8477
▁набирает	-11.8479
держивает	-11.8484
циальн	-11.8485
▁затрону	-11.8486
миллиона	-11.8487
▁Гэ	-11.8488
▁подальше	-11.8495
▁почва	-11.8496
▁принадлежащ	-11.8497
▁натуральн	-11.8499
▁медвед	-11.85
▁пожарны	-11.8502
▁положен	-11.8503
▁слежки	-11.8503
носили	-11.8503
бон	-11.8504
▁прыжк	-11.8507
▁применяют	-11.8508
▁распространены	-11.8511
▁болезненны	-11.8511
▁любимым	-11.8513
▁поднимать	-11.8514
▁Корее	-11.8514
▁поглощает	-11.8515
▁заменил	-11.852
▁порци	-11.8523
▁выпал	-11.8526
▁вложения	-11.8528
▁соединяют	-11.853
▁дискуссия	-11.8531
▁первоначальн	-11.8532
▁фабрика	-11.8532
▁жертва	-11.8534
быть	-11.8535
▁Международны	-11.8538
▁Города	-11.8538
▁творени	-11.8539
▁бросают	-11.8541
▁впечатля	-11.8541
▁традиционным	-11.8543
▁держат	-11.8546
лип	-11.8548
▁установка	-11.855
▁прет	-11.855
▁коре	-11.8551
▁спусти	-11.8552
▁Корн	-11.8552
▁автомобильны	-11.8556
ловно	-11.8558
▁расизм	-11.8558
▁перемещени	-11.8558
▁цифровым	-11.8561
▁полог	-11.8561
▁пригодн	-11.8564
▁визуализации	-11.8566
▁черед	-11.8568
▁токсичны	-11.8569
▁ферма	-11.857
▁направлены	-11.8576
▁питает	-11.8582
метить	-11.8587
▁учебно	-11.8587
▁обнаруживает	-11.8588
▁растениям	-11.859
▁термина	-11.8594
▁скучны	-11.8594
▁зависе	-11.8595
▁поворачива	-11.8598
▁волшебн	-11.8602
▁приносил	-11.8605
▁читател	-11.8607
▁плоски	-11.8608
▁благосостояние	-11.8609
▁принадлежност	-11.8613
▁влюбил	-11.8616
▁искусственн	-11.8616
▁заповед	-11.8621
ушка	-11.8622
▁авторски	-11.8623
▁лишни	-11.8624
▁расположена	-11.8625
▁убеди	-11.8628
▁невидимым	-11.8631
▁необычным	-11.8635
▁манускрипт	-11.8636
регулировать	-11.8636
▁Естественно	-11.8636
▁Множеств	-11.8636
▁Пенсильвани	-11.8636
▁индикатор	-11.8636
▁неподалёку	-11.8636
▁основополагающ	-11.8636
▁предотвраща	-11.8636
▁промежуточн	-11.8636
▁равновесие	-11.8636
▁репортаж	-11.8636
▁сформулирова	-11.8636
▁улавлива	-11.8636
▁экспресс	-11.8636
▁ерунд	-11.8636
▁невежеств	-11.8636
пружин	-11.8636
▁Мумба	-11.8636
▁выражает	-11.8636
▁запреща	-11.8636
▁отправляем	-11.8636
▁гениально	-11.8636
▁мудры	-11.8636
▁торжеств	-11.8636
▁штаб	-11.8636
▁сканиру	-11.8636
▁космолог	-11.8636
▁обуви	-11.8636
▁соперник	-11.8636
▁удалённы	-11.8636
▁ангел	-11.8636
▁умственно	-11.8636
▁эгоистичн	-11.8636
▁грант	-11.8636
▁токсин	-11.8636
▁беднейши	-11.8636
▁инфекционны	-11.8636
▁ныря	-11.8636
▁отверга	-11.8636
▁выразил	-11.8636
возят	-11.8637
отограф	-11.8637
▁Политик	-11.8637
▁Джошу	-11.8637
▁осень	-11.8638
▁швед	-11.8638
▁видеокамер	-11.8638
▁сплош	-11.8639
▁Мексиканск	-11.8639
▁обязанности	-11.8639
йроби	-11.864
▁деревень	-11.864
▁Океан	-11.8641
▁напиш	-11.8641
▁переворот	-11.8641
▁1,2	-11.8641
▁рисую	-11.8642
▁совершает	-11.8642
▁нагре	-11.8643
▁проехал	-11.8643
▁бактериям	-11.8644
кратно	-11.8644
▁господств	-11.8645
▁патологи	-11.8646
гибают	-11.8646
▁влажно	-11.8646
▁сокращать	-11.8647
▁воплощение	-11.8647
▁ловл	-11.8648
▁Кибер	-11.8649
▁владеет	-11.8649
▁инвестиционн	-11.8649
▁забав	-11.8651
▁зерновы	-11.8651
▁сокращает	-11.8652
▁страховани	-11.8653
▁поднят	-11.8654
▁загадка	-11.8655
▁переводчик	-11.8656
квалифицированны	-11.8656
▁отрази	-11.8656
инженер	-11.8658
▁режима	-11.8659
▁родитель	-11.866
▁актер	-11.8661
▁любимое	-11.8662
▁интересовать	-11.8662
▁случайность	-11.8663
▁подал	-11.8663
дающих	-11.8665
▁сточны	-11.8665
шку	-11.8666
▁армия	-11.8669
дарить	-11.8671
▁поддерживаем	-11.8677
▁вкладывать	-11.8677
чур	-11.8678
▁обращения	-11.8681
▁подозревал	-11.8683
▁52	-11.8683
технологи	-11.8684
▁истощен	-11.8684
▁отвращение	-11.8687
цену	-11.8687
▁разраста	-11.8688
уровне	-11.8691
▁столкновение	-11.8692
▁СПИДом	-11.8694
▁найдут	-11.8695
▁Джей	-11.8695
▁привлекательным	-11.8695
систем	-11.8696
▁опозна	-11.8696
▁избранны	-11.8696
▁предприяти	-11.8697
рейд	-11.8698
деления	-11.87
▁деревьям	-11.8701
арень	-11.8702
▁служба	-11.8702
▁произвел	-11.8703
▁космическ	-11.8709
▁неудивительно	-11.871
▁облада	-11.871
сво	-11.8711
ставлял	-11.8713
▁подарк	-11.8714
▁фирма	-11.8715
▁бумажн	-11.8719
▁гибко	-11.872
▁Врачи	-11.8721
▁француз	-11.8723
▁Любов	-11.8723
кажешь	-11.8725
▁соединен	-11.8725
▁предоставляют	-11.8726
▁дочк	-11.8731
▁ожида	-11.8736
▁сложить	-11.8737
▁проявляют	-11.8739
▁пунктов	-11.874
▁осознают	-11.874
▁планов	-11.8744
▁силам	-11.8747
▁ловит	-11.8751
▁пчел	-11.8754
глядеть	-11.8754
▁оправдан	-11.8754
▁жестокост	-11.8755
▁подсчёта	-11.8758
▁Ким	-11.876
▁медицинским	-11.8766
▁удобрения	-11.8768
▁впечатляюще	-11.8769
▁аналогов	-11.8772
▁располагает	-11.8775
▁Восточн	-11.8775
▁столкновени	-11.8777
▁картон	-11.8777
▁аренд	-11.8778
▁победа	-11.8778
▁альтернативны	-11.8783
требовать	-11.8784
▁преступность	-11.8786
ранци	-11.8786
▁танцевал	-11.8787
тает	-11.8789
▁фигура	-11.879
▁простира	-11.8791
рожден	-11.8798
▁посещал	-11.8799
▁стояще	-11.8807
▁сотрудникам	-11.8809
▁предпочита	-11.881
силь	-11.8815
▁рису	-11.8815
▁имплантирова	-11.8816
▁поселени	-11.8818
▁Основн	-11.882
▁парус	-11.882
ймут	-11.8823
▁серьезны	-11.8824
▁страшн	-11.8825
▁колоссальны	-11.8826
▁присмотр	-11.8827
▁луны	-11.8827
становилась	-11.8828
▁свидетеля	-11.8828
▁банке	-11.8829
▁сооружени	-11.883
▁колонк	-11.8831
▁задала	-11.8831
▁сняты	-11.8831
▁жира	-11.8833
▁танк	-11.8836
льски	-11.884
▁закрыто	-11.884
▁случивш	-11.8842
живал	-11.885
▁неопределённост	-11.8851
▁цар	-11.8853
▁приказ	-11.8855
▁классическо	-11.8856
еньк	-11.8857
▁достигне	-11.8857
▁чудовищ	-11.8857
▁Сил	-11.8859
▁ощущать	-11.886
▁хаоса	-11.8863
▁синтеза	-11.8864
▁учил	-11.8865
ология	-11.8866
▁3000	-11.8868
▁принося	-11.8871
▁хлоп	-11.8872
▁торт	-11.8874
▁переменам	-11.8876
модели	-11.8878
▁определен	-11.8882
▁оберну	-11.8889
бьёт	-11.8901
▁Взглян	-11.8905
▁астронавт	-11.8906
▁контрабанд	-11.8906
▁недовери	-11.8906
сфотографировать	-11.8906
▁Исланди	-11.8906
▁алфавит	-11.8906
▁бухгалтер	-11.8906
▁внимательны	-11.8906
▁детёныш	-11.8906
▁отверстия	-11.8906
▁прокурор	-11.8906
▁студенческ	-11.8906
▁федеральны	-11.8906
▁функционирует	-11.8906
▁двоюродн	-11.8906
▁забываем	-11.8906
▁капсул	-11.8906
▁министерств	-11.8906
▁откровенно	-11.8906
▁синапс	-11.8906
▁волокон	-11.8906
▁профиль	-11.8906
▁иммигрантов	-11.8906
▁укрепля	-11.8906
▁Норден	-11.8906
▁Голуб	-11.8906
▁Олимпийск	-11.8906
▁акустическ	-11.8906
▁холер	-11.8906
▁контраст	-11.8906
▁контур	-11.8906
▁назову	-11.8906
▁актуальны	-11.8906
▁навязыва	-11.8906
▁ракурс	-11.8906
▁Мад	-11.8906
▁Практически	-11.8906
▁дефект	-11.8906
▁сетево	-11.8907
▁озера	-11.8907
▁композитор	-11.8907
▁страданий	-11.8907
▁полицейск	-11.8908
▁забудь	-11.8908
▁сероводород	-11.8908
▁пришельц	-11.8908
▁притворя	-11.8908
▁МакК	-11.8909
▁стабильност	-11.8909
▁оттенк	-11.891
▁рабочем	-11.891
▁расчет	-11.8911
близнец	-11.8912
ообразны	-11.8912
▁планирует	-11.8913
▁кривы	-11.8914
▁банков	-11.8915
▁Бали	-11.8915
▁игл	-11.8916
▁приблизить	-11.8916
▁строчк	-11.8917
▁дроб	-11.8918
▁МР	-11.8918
▁взаимодействует	-11.8919
▁охотник	-11.8919
▁нефтяны	-11.892
▁краб	-11.892
▁Слав	-11.8921
психопат	-11.8921
▁обновлен	-11.8922
▁небеса	-11.8922
▁Атлантик	-11.8923
▁останавливаться	-11.8925
▁сравнил	-11.8926
▁приближени	-11.8928
▁Начн	-11.8929
▁Санта	-11.8931
▁зрелище	-11.8934
▁руб	-11.8937
▁владельца	-11.8938
▁свиней	-11.8939
▁Слушай	-11.8943
ныне	-11.8944
▁братьями	-11.8945
▁девушкой	-11.8949
▁решим	-11.8949
▁довело	-11.8951
езжает	-11.8951
минутн	-11.8952
▁трущоба	-11.8953
▁Мам	-11.8957
▁записали	-11.8958
▁комфорт	-11.8959
▁громадны	-11.896
▁передово	-11.8964
▁скрывает	-11.8967
▁заразить	-11.8972
▁терпени	-11.8972
▁ответствен	-11.8973
▁местонахождени	-11.8973
▁Англи	-11.8976
▁пчелы	-11.8978
▁авиаци	-11.898
▁бедностью	-11.898
.5	-11.898
подобн	-11.8981
антибиотиков	-11.8982
ологически	-11.8983
▁жажду	-11.8984
▁обозначает	-11.8987
▁трени	-11.8989
▁требующи	-11.8989
▁священно	-11.899
страда	-11.8994
▁демон	-11.8994
▁активн	-11.8994
▁создающи	-11.8997
офф	-11.8997
▁выставка	-11.8998
▁облегчи	-11.9002
▁образца	-11.9003
▁предоставлен	-11.9004
▁безразлич	-11.9007
▁Росс	-11.9008
▁преуспе	-11.9009
▁Сатурна	-11.9009
▁напечатан	-11.901
▁повтор	-11.9011
▁предприятие	-11.9012
▁увлечён	-11.9012
▁Дэ	-11.9012
▁бунт	-11.9013
▁соглашения	-11.9015
▁Лор	-11.9019
▁восстани	-11.9021
▁преуспели	-11.9022
▁Стен	-11.9022
▁соревнования	-11.9023
▁выраст	-11.9023
▁логически	-11.9023
▁приключения	-11.9026
▁заверш	-11.9027
▁Порт	-11.903
▁отправим	-11.9031
▁незаконн	-11.9033
▁соль	-11.9037
▁составит	-11.9038
емлемо	-11.904
▁Ван	-11.9042
▁продемонстрир	-11.9042
▁популярных	-11.9045
светить	-11.9047
▁благополучие	-11.9047
▁выплат	-11.9048
▁школьн	-11.9049
▁Исследование	-11.905
▁землетрясение	-11.9055
▁распа	-11.9057
▁случи	-11.9059
▁колесо	-11.9061
▁удобрени	-11.9062
ступления	-11.9063
▁принимающи	-11.9063
▁высказыва	-11.9068
▁поглоща	-11.9072
▁Келл	-11.9074
▁Эми	-11.9075
▁опасным	-11.9078
ледует	-11.9078
боев	-11.9085
▁воспользу	-11.9085
▁передает	-11.9089
▁выступ	-11.9094
▁хорошем	-11.9094
▁Министерство	-11.9096
▁обучающ	-11.91
слушаем	-11.91
▁поступлени	-11.9101
▁встроенны	-11.9107
▁палк	-11.9109
▁возвращаем	-11.911
▁повествовани	-11.9111
▁предупрежда	-11.9111
▁мили	-11.9115
▁патентов	-11.9116
рония	-11.9117
▁исследователь	-11.912
▁отправляли	-11.9121
стают	-11.9122
▁раков	-11.9125
▁покой	-11.9125
▁громадн	-11.9129
▁продвигать	-11.9129
потреблени	-11.9135
▁ведом	-11.9136
▁тактик	-11.9136
говорить	-11.9139
▁организовыва	-11.9142
▁собранны	-11.9143
▁обязательства	-11.9144
▁партнёрств	-11.9146
▁клиента	-11.915
▁преимуществ	-11.915
▁Гос	-11.9151
▁условиям	-11.9151
▁учеб	-11.9153
▁бутыл	-11.9153
▁использующ	-11.9153
▁коровы	-11.9155
очков	-11.9158
▁зарегистрирован	-11.9159
▁подавля	-11.9159
▁сотов	-11.9159
▁свидетельств	-11.916
▁водитель	-11.9162
▁золот	-11.9163
▁стакан	-11.9166
▁управлени	-11.9169
▁обитаю	-11.917
▁соответствова	-11.9173
шель	-11.9175
▁прилив	-11.9175
▁продуктивны	-11.9183
▁дистанци	-11.9183
▁проституци	-11.9184
орреспондент	-11.9184
продюсер	-11.9184
▁Джефферсон	-11.9184
▁Микеланджело	-11.9184
▁Потрясающ	-11.9184
▁Публика	-11.9184
▁альпинист	-11.9184
▁аналитик	-11.9184
▁асфальт	-11.9184
▁восхитительны	-11.9184
▁гамбургер	-11.9184
▁глюкоз	-11.9184
▁диктатор	-11.9184
▁догадк	-11.9184
▁здравы	-11.9184
▁интерьер	-11.9184
▁комплект	-11.9184
▁наводнени	-11.9184
▁наслаждени	-11.9184
▁пассивны	-11.9184
▁поджелудочн	-11.9184
▁профилактик	-11.9184
▁слизевик	-11.9184
▁фрактал	-11.9184
▁охлажда	-11.9184
▁очистк	-11.9184
▁Ситуаци	-11.9184
▁безработиц	-11.9184
▁монстр	-11.9184
▁помидор	-11.9184
▁сестёр	-11.9184
▁Джесси	-11.9184
▁неформальн	-11.9184
▁принцесс	-11.9184
▁удваива	-11.9184
▁рентгеновски	-11.9184
▁трасс	-11.9184
▁суперкомпьютер	-11.9184
моложе	-11.9184
▁взаимно	-11.9184
▁свиньи	-11.9184
▁последующе	-11.9184
▁климатическо	-11.9184
▁суждения	-11.9184
▁собрала	-11.9185
▁остану	-11.9185
▁четко	-11.9185
▁близким	-11.9186
▁географически	-11.9186
▁мега	-11.9186
▁рассуждени	-11.9186
бежит	-11.9186
▁атомны	-11.9186
▁отмеч	-11.9186
▁глубоководн	-11.9187
▁джаз	-11.9187
▁вакцинаци	-11.9187
▁вторжени	-11.9187
▁проживания	-11.9188
▁трудностей	-11.9188
▁физическом	-11.919
передача	-11.919
▁ссыла	-11.9191
▁Кап	-11.9191
▁Анна	-11.9192
▁коричневы	-11.9192
▁обойтись	-11.9193
▁рту	-11.9193
▁соответствовал	-11.9195
▁ядерная	-11.9195
▁измеряет	-11.9196
▁забота	-11.9197
▁надежн	-11.9198
▁показываем	-11.9199
▁увижу	-11.92
▁умерши	-11.9201
▁мотивирова	-11.9201
хранения	-11.9205
▁одеты	-11.9205
▁нанотехнологи	-11.9207
давить	-11.921
▁поддерживали	-11.9213
▁организационн	-11.9213
зрел	-11.9214
▁продан	-11.9217
▁некоммерчески	-11.9218
▁ценить	-11.9221
▁возьмите	-11.9223
ентральн	-11.9225
▁кукол	-11.9226
▁историк	-11.9229
▁изобретатель	-11.923
▁уголка	-11.923
▁смс	-11.9233
▁сознанием	-11.9233
▁кап	-11.9234
12	-11.9234
▁каменны	-11.9236
▁аутизмом	-11.9236
▁посыл	-11.9236
▁желт	-11.9238
▁насыщен	-11.9242
▁сынов	-11.9242
▁умени	-11.9243
▁обеспечиваю	-11.9243
▁очищен	-11.9244
▁пошл	-11.9245
ридж	-11.9246
следняя	-11.9247
класс	-11.9248
ноги	-11.9251
▁килограммов	-11.9253
▁кончи	-11.9253
▁рождение	-11.9256
▁контекста	-11.9257
▁театра	-11.9259
▁стремлени	-11.9259
▁Ред	-11.9259
▁составлен	-11.926
▁внедря	-11.926
▁щек	-11.9262
▁печ	-11.9263
▁подозреваю	-11.9264
▁немецки	-11.9264
▁газон	-11.9266
▁начальны	-11.9267
▁пен	-11.9267
Лайн	-11.9267
▁темнот	-11.9272
▁Кэт	-11.9273
ясняют	-11.9274
вольно	-11.9278
▁старом	-11.928
▁информационн	-11.9283
▁отдела	-11.9283
▁сдава	-11.9285
▁Всемирны	-11.9285
верен	-11.9286
▁малыша	-11.929
чайш	-11.9291
▁ворота	-11.9292
▁обучен	-11.9292
▁спасательн	-11.9296
▁исходно	-11.9299
▁классическ	-11.9304
▁мощным	-11.9306
▁жестокость	-11.9307
▁Скоро	-11.9307
▁Средни	-11.931
идим	-11.931
▁комбинация	-11.9312
▁ощуща	-11.9313
▁единств	-11.9313
▁понятны	-11.9313
▁чипс	-11.9313
▁теоретически	-11.9316
▁расскажи	-11.9316
▁изолированны	-11.9317
▁Эйнштейна	-11.9317
▁рассказывала	-11.9318
▁гигантск	-11.9318
головок	-11.9319
▁благодарн	-11.9319
▁интернетом	-11.9322
▁пальм	-11.9322
▁популяция	-11.9323
▁прежне	-11.9324
▁нанесен	-11.9329
▁малым	-11.9329
▁празднова	-11.9333
▁широк	-11.9334
▁звон	-11.9336
▁слуха	-11.9337
▁пользователи	-11.9337
▁самолётов	-11.9341
▁грибов	-11.9342
▁Видн	-11.9344
▁препода	-11.9346
▁трёхмерны	-11.9349
живших	-11.935
берут	-11.9352
▁замечал	-11.9359
▁желаю	-11.936
▁Сатурн	-11.9361
пост	-11.9361
ставать	-11.9362
▁великолепн	-11.9366
▁разработанны	-11.9368
▁плату	-11.9368
▁змея	-11.9372
▁снимали	-11.9372
▁сожале	-11.9373
▁вселенны	-11.9374
▁популярным	-11.9376
▁Готов	-11.9379
▁легки	-11.9387
▁скромны	-11.9388
поляр	-11.939
▁Оке	-11.939
▁международном	-11.9391
▁отключа	-11.9397
▁медицинском	-11.9397
▁Гарвардско	-11.9398
▁кошка	-11.9403
▁присмотре	-11.9406
▁судно	-11.9406
▁отдельност	-11.9409
▁прозрачност	-11.9418
▁Вест	-11.942
▁переносит	-11.9424
[...]
