<unk>	0
<s>	0
</s>	0
<pad>	0
▁.	-2.98305
▁,	-3.19026
▁bir	-3.80951
;	-3.86575
▁&	-3.8778
▁ve	-4.11041
t	-4.13337
quo	-4.45908
▁bu	-4.56522
apos	-4.69823
n	-4.76547
▁	-5.03974
a	-5.09458
▁için	-5.1502
▁Bu	-5.15184
▁da	-5.19788
e	-5.20478
▁Ve	-5.4091
▁çok	-5.41887
▁de	-5.42494
▁?	-5.47878
lar	-5.49926
m	-5.53618
▁daha	-5.54037
k	-5.55297
▁ki	-5.79107
▁)	-5.80067
(	-5.80151
ler	-5.8343
▁var	-5.8387
▁:	-5.84822
▁gibi	-5.87224
▁olarak	-5.90622
i	-5.92173
▁şey	-5.98863
▁—	-6.03035
▁...	-6.03212
▁ne	-6.05295
▁olan	-6.08806
▁kadar	-6.1402
▁o	-6.1792
▁en	-6.20968
den	-6.23891
▁her	-6.24475
nın	-6.31593
▁ya	-6.32924
▁ile	-6.32931
▁değil	-6.33782
de	-6.3574
nin	-6.35842
ları	-6.36932
ya	-6.37769
la	-6.38142
leri	-6.38298
da	-6.39267
le	-6.3957
dan	-6.41743
▁ama	-6.45893
▁olduğunu	-6.46486
▁iyi	-6.47187
▁zaman	-6.50599
▁Ama	-6.50851
▁büyük	-6.51529
▁sonra	-6.52073
ye	-6.52305
▁bunu	-6.52388
▁Bir	-6.52408
▁nasıl	-6.53867
na	-6.57523
▁sadece	-6.60507
er	-6.61295
▁çünkü	-6.67921
ki	-6.69541
in	-6.7006
▁şekilde	-6.71948
z	-6.73609
▁önce	-6.74972
▁şu	-6.75056
.	-6.77733
▁fazla	-6.7846
ce	-6.79079
p	-6.81583
-	-6.82171
▁iki	-6.82594
li	-6.82606
si	-6.82793
▁yıl	-6.83093
ü	-6.83513
yi	-6.85036
▁aynı	-6.88085
▁gerçekten	-6.88299
dir	-6.88927
ı	-6.89195
▁O	-6.89371
▁yeni	-6.89379
ne	-6.90466
▁Yani	-6.92699
▁Şimdi	-6.96037
▁;	-6.98165
▁benim	-6.98445
▁insan	-6.99555
▁hakkında	-7.00227
▁olduğu	-7.00262
▁ben	-7.01695
yı	-7.03223
▁tüm	-7.03462
▁Ben	-7.03721
▁farklı	-7.06046
▁ilk	-7.0705
en	-7.07746
dır	-7.08212
▁içinde	-7.09864
▁insanlar	-7.09958
larını	-7.10909
lerin	-7.11043
▁kendi	-7.11474
ların	-7.11513
s	-7.124
▁ilgili	-7.12425
▁diğer	-7.12706
▁aslında	-7.12848
▁mi	-7.13875
▁sahip	-7.14229
▁bunun	-7.14317
uz	-7.14665
r	-7.1467
▁küçük	-7.14691
▁yok	-7.15246
▁Gülüşmeler	-7.156
▁veya	-7.16292
▁başka	-7.16303
lı	-7.17941
▁bile	-7.18734
▁doğru	-7.19748
▁♫	-7.20089
di	-7.20654
▁ise	-7.22309
▁burada	-7.22658
l	-7.23107
lerini	-7.23577
sı	-7.24261
ca	-7.25139
▁önemli	-7.2554
▁eğer	-7.25608
▁bana	-7.26913
▁in	-7.26963
▁Faka	-7.28726
yla	-7.29646
▁şeyler	-7.29899
▁biri	-7.30886
▁size	-7.32575
▁biz	-7.33205
▁bizim	-7.3349
▁Eğ	-7.3403
yle	-7.34712
▁tek	-7.35199
▁biraz	-7.35746
u	-7.35809
lara	-7.37465
lik	-7.38757
▁gün	-7.38895
▁insanların	-7.39144
ken	-7.39693
ın	-7.4004
▁son	-7.40102
▁bütün	-7.40367
ma	-7.40733
▁hiç	-7.40997
lere	-7.41981
▁oldu	-7.42862
▁geri	-7.44526
y	-7.45668
▁Bunu	-7.45695
um	-7.46746
▁diye	-7.47664
▁yüzden	-7.47871
▁neden	-7.4831
ni	-7.49339
▁zamanda	-7.49846
▁vardı	-7.50458
▁böyle	-7.50747
▁az	-7.5129
▁Çünk	-7.5182
▁Kahkaha	-7.53366
▁üzerinde	-7.53761
▁tarafından	-7.5436
▁onu	-7.545
▁-	-7.54535
▁bazı	-7.54718
▁karşı	-7.55431
▁tam	-7.55939
▁göre	-7.5668
iz	-7.57325
ndan	-7.5761
▁an	-7.58318
▁şimdi	-7.58811
▁yer	-7.58971
▁yapmak	-7.59732
▁iş	-7.59775
▁İşte	-7.60155
▁istiyorum	-7.60412
▁üç	-7.60426
▁gerçek	-7.60692
▁nın	-7.60705
▁olmak	-7.61871
▁mı	-7.62547
ti	-7.62992
▁Çok	-7.6311
▁a	-7.63125
siniz	-7.63324
▁su	-7.64094
sa	-7.64961
▁ortaya	-7.67078
▁olacak	-7.67776
an	-7.67842
tan	-7.67937
▁bize	-7.68269
▁oldukça	-7.68779
▁fakat	-7.69369
▁şeyi	-7.69607
▁Bunun	-7.7006
▁Peki	-7.70163
▁dünya	-7.70246
▁oluyor	-7.72243
dı	-7.72362
▁Her	-7.7243
▁yani	-7.72598
▁beni	-7.72633
▁S	-7.72987
▁birkaç	-7.73483
▁ın	-7.74207
▁güzel	-7.74444
▁10	-7.74539
▁Burada	-7.74906
▁onları	-7.75124
sine	-7.75225
▁Aslında	-7.75276
nız	-7.75331
▁kişi	-7.7577
▁Dünya	-7.75884
▁soru	-7.75896
▁Alkış	-7.75923
▁hareket	-7.76204
▁tekrar	-7.76222
▁anda	-7.77143
▁bunlar	-7.77536
▁uzun	-7.77706
▁etmek	-7.77712
▁boyunca	-7.78112
me	-7.78156
▁devam	-7.78402
▁e	-7.78441
▁Alkışlar	-7.7885
▁bilgi	-7.79719
lardan	-7.79825
▁onun	-7.80043
▁olabilir	-7.80778
miz	-7.80872
ydi	-7.8121
▁zor	-7.81226
nda	-7.81324
▁kötü	-7.81331
daki	-7.81415
lık	-7.81593
niz	-7.81961
ten	-7.82001
▁i	-7.82136
larına	-7.82424
▁fark	-7.83181
du	-7.83271
▁yüzde	-7.83424
lerden	-7.83892
▁olması	-7.84228
▁birçok	-7.8426
ş	-7.8483
lerine	-7.85744
tir	-7.85757
▁A	-7.86563
im	-7.86785
▁milyon	-7.8683
▁Anca	-7.8726
sel	-7.87382
▁!	-7.88091
tır	-7.88682
▁Daha	-7.89045
mız	-7.89084
▁onlar	-7.89292
▁Evet	-7.89422
o	-7.89483
▁Siz	-7.89676
▁yol	-7.89932
▁Ne	-7.90408
▁geliyor	-7.91171
▁20	-7.91241
▁belki	-7.9173
▁karar	-7.91827
▁açık	-7.92134
▁orada	-7.92209
arak	-7.92213
sanız	-7.92223
▁tamamen	-7.92904
▁arasında	-7.9309
d	-7.93174
▁birlikte	-7.93255
mi	-7.93591
▁Biz	-7.94165
▁yüksek	-7.94821
larının	-7.94885
lerle	-7.95341
▁dedi	-7.95635
ydı	-7.95784
▁hayal	-7.95959
▁tür	-7.96115
▁para	-7.96192
▁yerine	-7.96891
se	-7.97246
▁gereken	-7.97438
▁öyle	-7.98621
▁harika	-8.00059
▁dünyanın	-8.0011
▁işte	-8.00209
▁buna	-8.00328
▁basit	-8.00441
tı	-8.00553
▁gelen	-8.00585
▁pek	-8.01409
nı	-8.01441
▁şöyle	-8.01472
▁bugün	-8.01607
▁artık	-8.01737
▁üzerine	-8.01793
▁olur	-8.01884
▁daki	-8.0211
▁Bunlar	-8.02252
▁yardım	-8.02307
▁Afrika	-8.02355
dur	-8.02691
mış	-8.02705
larla	-8.03409
▁nin	-8.0408
sini	-8.04674
lu	-8.05037
lardı	-8.05115
▁eden	-8.05467
▁hiçbir	-8.06181
lerde	-8.0654
ini	-8.06574
deki	-8.07056
▁Böylece	-8.07251
▁Amerika	-8.07484
▁çocuk	-8.08982
▁ederim	-8.09053
▁enerji	-8.09349
▁yakın	-8.09962
lerinin	-8.09981
▁vardır	-8.10673
larda	-8.1111
▁onların	-8.11125
sını	-8.11432
▁hızlı	-8.11771
erek	-8.12006
un	-8.12273
▁geldi	-8.12375
▁kaç	-8.14099
sına	-8.14294
▁ediyor	-8.1441
▁ancak	-8.1454
▁Sade	-8.14667
▁konusunda	-8.14691
▁çoğu	-8.15094
▁işe	-8.15243
▁sosyal	-8.1543
▁sonunda	-8.16334
ip	-8.16463
▁yeniden	-8.16561
▁Sonra	-8.16604
▁Tamam	-8.16852
▁yaklaşık	-8.17036
▁bizi	-8.17234
▁ta	-8.17382
▁alan	-8.17432
▁teknoloji	-8.17882
▁tane	-8.1817
▁nokta	-8.18232
▁yerde	-8.19047
▁Şu	-8.19179
▁hale	-8.19413
▁onlara	-8.19452
▁süre	-8.19584
▁bilim	-8.19937
▁zorunda	-8.2011
▁sizin	-8.20191
▁elde	-8.20791
▁sene	-8.20803
▁ona	-8.22111
%	-8.22418
▁olmayan	-8.22453
▁hem	-8.22494
larında	-8.2261
▁dört	-8.22665
▁herhangi	-8.22705
▁ilginç	-8.22899
▁temel	-8.23063
▁fikir	-8.23112
▁hemen	-8.2337
ım	-8.23455
▁Benim	-8.23475
▁kadın	-8.23573
▁kat	-8.23863
▁dan	-8.23977
f	-8.24312
▁eski	-8.2437
▁durum	-8.24531
▁yaşam	-8.24645
▁E	-8.24837
▁ay	-8.24854
▁özel	-8.24884
▁şeyleri	-8.25076
▁konu	-8.25135
dim	-8.25584
▁hikaye	-8.25772
▁altında	-8.25788
▁böylece	-8.26054
▁çalışma	-8.26326
yu	-8.26529
▁insanları	-8.26594
▁göz	-8.26834
▁’	-8.27109
▁Onlar	-8.27138
lerinden	-8.27561
▁Teşekkürler	-8.27729
▁durumda	-8.27782
sunuz	-8.2788
▁hala	-8.27903
▁istediğim	-8.2836
▁demek	-8.28466
▁milyar	-8.28513
▁bilgisayar	-8.2854
▁den	-8.28776
▁sorun	-8.28899
▁inanılmaz	-8.28986
▁3	-8.2908
▁parça	-8.30306
▁dolar	-8.30404
▁kontrol	-8.31159
g	-8.3118
▁adam	-8.31273
ci	-8.31511
▁güçlü	-8.31581
sin	-8.32341
▁örnek	-8.33028
▁saat	-8.33093
▁dair	-8.332
larından	-8.33469
▁etti	-8.33738
▁izin	-8.34265
lerinde	-8.3468
▁dünyada	-8.34909
sınız	-8.35162
▁yine	-8.35169
▁Ya	-8.35334
▁beyin	-8.35368
h	-8.3611
▁veri	-8.3616
▁genç	-8.36178
▁başladı	-8.36246
▁olma	-8.36254
▁te	-8.36293
▁un	-8.36344
1	-8.36452
▁En	-8.36493
▁şunu	-8.36773
▁hatta	-8.3678
inde	-8.37134
▁Bugün	-8.3716
▁siz	-8.37517
▁hafta	-8.37589
miş	-8.37692
ını	-8.38073
▁gelir	-8.38262
▁birşey	-8.38279
▁Neden	-8.38304
ine	-8.38597
▁parçası	-8.39057
▁bunları	-8.39396
nde	-8.39554
▁eğitim	-8.39814
▁inşa	-8.39919
▁kimse	-8.40558
▁mümkün	-8.41147
▁B	-8.41411
▁G	-8.41463
▁benzer	-8.41934
▁30	-8.42072
▁bence	-8.43244
▁yalnız	-8.43252
mı	-8.43312
▁ülke	-8.43655
▁herkes	-8.43655
▁kabul	-8.43841
▁kolay	-8.44441
▁beş	-8.4466
▁edin	-8.44979
▁İlk	-8.45302
▁insanlara	-8.45371
▁çıkar	-8.45446
▁hava	-8.45498
▁dedim	-8.4574
ik	-8.45773
ız	-8.45853
▁değildir	-8.45857
▁kez	-8.45889
▁yolu	-8.45891
▁New	-8.46431
▁hepsi	-8.46608
▁yanlış	-8.46687
▁neredeyse	-8.46742
▁yapma	-8.46792
▁sürü	-8.46843
▁tahmin	-8.46995
▁araba	-8.47142
▁çalışan	-8.47243
▁ye	-8.47366
▁yapmaya	-8.48169
▁sizi	-8.4822
▁C	-8.48431
▁hayat	-8.48702
▁çevre	-8.48884
▁proje	-8.48897
▁kız	-8.49139
▁özellikle	-8.49255
▁mu	-8.49482
▁araya	-8.49554
▁2	-8.50046
▁yaptığı	-8.50812
▁güç	-8.51273
▁gerek	-8.51375
▁birisi	-8.51537
▁gösteriyor	-8.51666
▁50	-8.51826
▁kısa	-8.51857
▁yere	-8.5197
▁yüz	-8.52086
▁Hindistan	-8.52097
▁gerekiyor	-8.5213
▁gördüğünüz	-8.52157
▁değildi	-8.52253
▁olduğuna	-8.52955
▁neler	-8.53025
al	-8.53232
▁doğal	-8.53312
▁genel	-8.53597
mizi	-8.54258
▁üzere	-8.54383
nden	-8.54878
▁yapan	-8.55305
mak	-8.55346
▁altı	-8.55447
▁gelecek	-8.55621
b	-8.55972
ri	-8.56071
▁ses	-8.56539
▁cevap	-8.56595
▁verici	-8.5664
ıp	-8.56907
▁düşünün	-8.56979
▁kullanarak	-8.57118
▁geçen	-8.57438
▁grup	-8.57555
▁bakın	-8.57625
acak	-8.58015
▁Son	-8.58091
▁dakika	-8.58275
▁aile	-8.58605
▁şeyin	-8.58674
▁ı	-8.58759
▁Aynı	-8.58765
▁başladım	-8.58825
▁aşağı	-8.589
liği	-8.58978
▁savaş	-8.59426
▁bundan	-8.59442
▁ana	-8.59533
▁Tüm	-8.59735
lığı	-8.59765
▁T	-8.60141
seniz	-8.60153
▁arasındaki	-8.60402
mızı	-8.60443
cı	-8.60561
▁araştırma	-8.60645
▁yoktu	-8.60652
nızı	-8.6074
sal	-8.60758
▁çeşit	-8.60871
dik	-8.60964
▁sonraki	-8.61024
▁olmadığını	-8.61119
▁ifade	-8.61765
▁bunların	-8.618
ç	-8.61859
▁sağlık	-8.62334
▁ihtiyacımız	-8.62586
ına	-8.62605
▁TED	-8.62648
on	-8.62772
▁tedavi	-8.62954
yız	-8.6299
▁yapıyor	-8.62994
mek	-8.63048
siz	-8.63178
▁sistemi	-8.63204
▁gece	-8.63208
▁rağmen	-8.63371
▁yapı	-8.6344
▁biliyoruz	-8.63727
▁derece	-8.63733
▁alıp	-8.64109
▁yılda	-8.64187
▁İnsanlar	-8.642
▁Çin	-8.64206
sinin	-8.64329
▁değer	-8.64361
▁olsa	-8.64587
▁beraber	-8.64624
▁Belki	-8.64683
▁15	-8.64745
▁iletişim	-8.65008
▁100	-8.65031
▁dolayı	-8.65251
nizi	-8.66009
el	-8.66197
▁düşünüyorum	-8.66308
▁bağlı	-8.66383
dım	-8.66568
▁görüyorsunuz	-8.66758
▁bin	-8.66799
▁bak	-8.66893
▁kim	-8.66895
▁Ban	-8.67007
▁insanın	-8.6711
▁H	-8.67436
▁hasta	-8.6747
▁ikinci	-8.67811
▁erkek	-8.67863
▁konuşma	-8.6805
▁York	-8.68081
▁görebilirsiniz	-8.68546
▁ele	-8.68821
▁K	-8.69248
▁olduğumuz	-8.69253
▁teşekkür	-8.69383
▁anlama	-8.69913
▁yardımcı	-8.69916
▁tasarım	-8.70098
▁etmeye	-8.70315
▁içine	-8.70381
▁işi	-8.7043
sın	-8.70596
▁ettim	-8.70721
▁yaptığımız	-8.70743
▁muhtemelen	-8.70846
▁Ayrıca	-8.7099
▁görmek	-8.71052
▁olsun	-8.71148
▁yaptık	-8.71169
▁nedir	-8.71369
▁D	-8.71592
sun	-8.71596
▁bazen	-8.71779
re	-8.71883
▁karmaşık	-8.71901
▁asla	-8.71985
▁olup	-8.72094
▁düşündüm	-8.72514
▁yaşayan	-8.72711
▁etme	-8.72714
ir	-8.734
c	-8.7346
▁dışında	-8.73538
ça	-8.73587
▁al	-8.73885
▁küresel	-8.73901
▁adı	-8.74094
▁kelime	-8.74096
▁başına	-8.74188
▁yılında	-8.74225
▁dünyayı	-8.74712
▁sebep	-8.74979
▁on	-8.75039
▁çocuklar	-8.75269
▁hep	-8.75664
larımız	-8.75794
▁sanat	-8.75846
â	-8.75914
▁kendini	-8.75916
▁hücre	-8.76055
▁I	-8.76129
▁ortak	-8.76154
▁ışık	-8.76458
▁bakış	-8.76538
▁derin	-8.76553
▁yapılan	-8.77052
▁ev	-8.77491
▁ekonomik	-8.77509
▁olmadığı	-8.77564
▁vermek	-8.77604
sız	-8.7762
sek	-8.77715
▁sürekli	-8.77728
nun	-8.77779
sinde	-8.77898
▁söz	-8.78022
▁konuda	-8.78032
▁beri	-8.78064
▁Büyük	-8.78077
sak	-8.78438
▁sistem	-8.78775
▁video	-8.7915
▁kesinlikle	-8.79187
▁binlerce	-8.79268
▁görüyoruz	-8.79431
luk	-8.79674
▁almak	-8.79685
su	-8.7978
▁Yeni	-8.79921
il	-8.79924
▁güneş	-8.80187
▁gerektiğini	-8.80394
▁Avrupa	-8.80639
ba	-8.80742
▁dolu	-8.80784
▁el	-8.80866
▁çıktı	-8.8107
▁Bütün	-8.81101
▁fikri	-8.81191
▁arada	-8.81258
ecek	-8.81432
es	-8.81573
.000	-8.81719
▁geniş	-8.81765
▁sebebi	-8.82225
▁5	-8.82258
▁defa	-8.82343
▁içerisinde	-8.82372
▁dikkat	-8.82438
▁bulunan	-8.82677
▁takip	-8.82701
us	-8.82826
▁L	-8.83197
▁deniz	-8.83314
▁başarılı	-8.83433
tik	-8.83593
lama	-8.83887
▁Bizim	-8.83914
▁biliyor	-8.83971
▁Buna	-8.84151
▁Gerçekten	-8.84218
▁düşünce	-8.84238
▁yaşında	-8.84348
▁nedenle	-8.84476
ar	-8.84614
▁haline	-8.84647
▁oyun	-8.84767
▁dünyadaki	-8.84871
▁uygun	-8.85155
▁geç	-8.85243
▁Teşekkür	-8.85282
▁hayatta	-8.85344
▁yaptım	-8.8555
▁at	-8.85596
dum	-8.85725
▁deki	-8.85958
▁evet	-8.86168
▁gidip	-8.86213
▁ait	-8.86368
▁mükemmel	-8.86389
▁Hayır	-8.864
lerimiz	-8.86736
▁mutlu	-8.86804
▁merak	-8.86833
ır	-8.86912
▁ileri	-8.86976
▁olurdu	-8.8729
▁hazır	-8.87343
▁problem	-8.87397
▁varsa	-8.87547
▁iç	-8.87655
▁ediyorum	-8.87783
▁hepimiz	-8.8795
iyor	-8.88174
▁başarı	-8.88179
▁canlı	-8.88309
▁İki	-8.88343
▁tabii	-8.88433
▁ölüm	-8.88597
▁adım	-8.8861
▁toplum	-8.8869
▁ihtiyaç	-8.888
▁acı	-8.88912
▁sonuç	-8.88921
▁sayesinde	-8.88961
▁yavaş	-8.88979
▁sık	-8.89049
▁Diğer	-8.89251
▁DNA	-8.89327
▁F	-8.89719
▁u	-8.90002
▁yemek	-8.90048
▁bina	-8.90208
▁değişim	-8.90221
▁hangi	-8.90241
maya	-8.90281
▁4	-8.90493
▁kadınlar	-8.90759
▁haber	-8.90772
▁elektrik	-8.9083
▁yaptı	-8.9084
▁baş	-8.91048
▁doğa	-8.9109
▁başladık	-8.91109
yım	-8.91282
▁gerekir	-8.91383
▁ayrıca	-8.91411
lan	-8.91413
▁40	-8.91553
▁anne	-8.9156
▁zamanlar	-8.91627
S	-8.91639
▁şehir	-8.91817
▁ön	-8.91854
yken	-8.91931
va	-8.91933
▁veren	-8.92078
▁kısmı	-8.92132
▁1	-8.92277
▁ilişki	-8.92372
▁madde	-8.92554
alım	-8.92577
inin	-8.92602
▁yıldır	-8.92656
ydu	-8.92746
▁resim	-8.92917
ıyor	-8.92924
▁Ma	-8.92975
▁musunuz	-8.93004
▁olmadan	-8.93025
▁sağ	-8.93076
▁fotoğraf	-8.93282
▁müzik	-8.93292
▁düşük	-8.93333
▁ABD	-8.93516
▁eder	-8.93528
▁şeye	-8.93608
▁muhteşem	-8.93904
▁ciddi	-8.9395
min	-8.94378
▁ilgi	-8.94467
▁biliyorum	-8.94559
▁nerede	-8.94561
leriyle	-8.94625
▁Kendi	-8.94777
▁olmalı	-8.94932
▁gerekli	-8.95101
▁söyledi	-8.95205
sinden	-8.9562
▁yaptığım	-8.95677
yim	-8.95706
▁film	-8.95791
▁internet	-8.95892
▁anlamak	-8.95928
▁normal	-8.95954
ra	-8.96145
B	-8.96446
▁üst	-8.96483
▁kişisel	-8.96802
▁asıl	-8.96828
▁200	-8.96839
▁çıkan	-8.96894
sının	-8.9695
▁sen	-8.9724
▁yanı	-8.97407
ro	-8.97667
▁6	-8.97831
▁aldı	-8.98005
▁bağlantı	-8.98019
▁gücü	-8.98294
dığı	-8.98335
inden	-8.98357
▁olay	-8.9838
▁ister	-8.98523
ün	-8.9862
▁olacağını	-8.98715
▁sinir	-8.98795
▁göstermek	-8.98828
▁dahil	-8.98917
▁kendimi	-8.98954
▁yı	-8.99214
▁okul	-8.99409
▁model	-8.9945
dığını	-8.99548
▁bilirsiniz	-8.99604
▁emin	-8.99832
▁ara	-8.99865
▁verdi	-8.99878
▁beyaz	-8.99954
▁sesi	-9.0007
▁deney	-9.00111
▁test	-9.00194
2	-9.00354
▁çözüm	-9.00394
man	-9.00589
▁ettik	-9.00658
▁birinin	-9.00825
▁yanında	-9.00858
▁makine	-9.00886
▁yaz	-9.00954
çe	-9.01044
D	-9.01103
lü	-9.01353
▁etki	-9.01458
▁anlamın	-9.01627
▁yukarı	-9.01785
meye	-9.01786
ında	-9.0203
▁Müzik	-9.0203
muş	-9.02034
▁metre	-9.02224
▁uzak	-9.02369
▁nun	-9.02396
▁oluşan	-9.02466
▁fiziksel	-9.02468
▁mevcut	-9.02646
▁alma	-9.02685
▁alanı	-9.02709
▁veriyor	-9.02877
▁U	-9.03111
▁yan	-9.03206
▁öğrenme	-9.03241
ch	-9.03298
▁herkesin	-9.03331
▁kitap	-9.03538
▁ek	-9.03693
▁hayvan	-9.03703
▁oda	-9.03841
▁sıra	-9.03981
▁M	-9.0405
▁12	-9.04085
▁tepki	-9.04282
▁nedeni	-9.04335
▁buraya	-9.04377
▁zaten	-9.04386
▁Artık	-9.04388
▁dil	-9.04449
▁El	-9.04452
imiz	-9.04453
▁yedi	-9.04503
▁bulmak	-9.04553
▁kan	-9.04717
▁görünüyor	-9.04823
▁kendisi	-9.0497
▁Amerikan	-9.05084
▁Örneğin	-9.05256
▁sayı	-9.05257
▁birini	-9.05434
▁görme	-9.05564
▁olursa	-9.05676
▁mavi	-9.05919
bi	-9.05947
▁çizgi	-9.06383
▁der	-9.06499
▁&#9	-9.06577
▁henüz	-9.06578
▁belli	-9.06609
▁söylemek	-9.06659
▁düşünme	-9.06758
▁ortalama	-9.06769
▁Al	-9.06808
▁olmaya	-9.06826
▁yeterli	-9.06857
to	-9.06866
▁kalan	-9.06963
▁Başka	-9.07021
▁araç	-9.07082
▁San	-9.07139
▁aldım	-9.07257
lo	-9.07421
▁çocukların	-9.07598
▁devlet	-9.076
▁olduğum	-9.07763
▁Onun	-9.07946
▁bakar	-9.08009
ur	-9.08055
is	-9.08103
▁gelip	-9.08155
▁bakalım	-9.08159
▁şeylerden	-9.08243
▁&#93;	-9.08364
▁ufak	-9.08609
▁sahibi	-9.08971
gi	-9.09071
▁çalışıyor	-9.09088
leme	-9.09358
mda	-9.09435
▁60	-9.09467
▁Güney	-9.09728
▁Bazı	-9.10117
▁yıllık	-9.10119
▁gördüm	-9.10121
▁diyor	-9.10137
▁verdim	-9.10182
▁resmi	-9.10242
▁telefon	-9.10446
tu	-9.10493
▁hastalık	-9.10572
▁orta	-9.10676
▁yatırım	-9.10814
ktan	-9.11003
ması	-9.11122
▁edecek	-9.11196
▁Kuzey	-9.11339
▁kalp	-9.1141
▁katı	-9.11431
▁derecede	-9.1153
▁Birleşi	-9.11599
▁korku	-9.11698
▁tamam	-9.11819
▁biçimde	-9.11857
▁heyecan	-9.11878
▁tarafta	-9.11928
▁CA	-9.12065
lerdi	-9.12371
▁kaynak	-9.12472
▁Google	-9.12508
▁sanırım	-9.12519
▁kapı	-9.12724
▁idi	-9.12815
▁şirket	-9.12817
▁ağ	-9.12857
▁tabi	-9.12936
▁halde	-9.12962
▁yerlerde	-9.13025
▁sayıda	-9.13148
▁dünyaya	-9.13218
▁Mars	-9.13292
abiliriz	-9.135
▁zengin	-9.1356
▁ilaç	-9.13568
▁buradaki	-9.13856
abilir	-9.13921
▁gittim	-9.13949
▁işin	-9.14001
9	-9.14124
▁güven	-9.14142
▁mücadele	-9.14239
▁oldukları	-9.14304
▁yerel	-9.14484
▁medya	-9.14609
▁Bunları	-9.14614
▁yeşil	-9.14646
▁aşırı	-9.14725
ebilir	-9.14731
▁dijital	-9.14886
▁Nasıl	-9.14887
▁gidiyor	-9.14959
▁lazım	-9.15004
▁destek	-9.15254
▁uzay	-9.1532
▁ediyoruz	-9.15346
▁olduklarını	-9.15475
▁bazıları	-9.15505
▁yapıyoruz	-9.15515
ge	-9.15625
▁azından	-9.15642
liğe	-9.15695
▁şeylerin	-9.15701
▁tanesi	-9.1572
,000	-9.15801
ha	-9.15959
▁göster	-9.15967
unu	-9.16003
▁ihtiyacı	-9.16136
▁Tanrı	-9.16327
▁kafa	-9.16497
▁kullanma	-9.16538
▁alt	-9.16539
▁etkili	-9.16545
▁arka	-9.16619
▁şekli	-9.16767
▁hoş	-9.1685
▁günde	-9.17354
anırım	-9.1739
lerimizi	-9.17399
▁sağlıyor	-9.1741
▁zamanlarda	-9.17437
▁kanser	-9.17517
▁istedim	-9.17547
▁kişinin	-9.17549
larımızı	-9.17553
▁saniye	-9.17835
▁takım	-9.17976
▁yaratmak	-9.1799
▁hayır	-9.18064
▁Hatta	-9.18067
▁milyonlarca	-9.18089
mizin	-9.18154
▁olacaktır	-9.18276
▁18	-9.18334
▁gösteren	-9.18404
▁nde	-9.18687
▁şaşırtıcı	-9.18813
▁üstünde	-9.18865
yan	-9.18877
▁görüntü	-9.19042
▁büyüme	-9.19285
▁11	-9.19316
▁biliyorsunuz	-9.19455
▁yaşlı	-9.19474
sında	-9.19504
st	-9.1956
▁kendine	-9.19643
▁konusu	-9.19816
▁fakir	-9.19885
▁ekonomi	-9.19888
▁Herkes	-9.19937
▁merkezi	-9.19985
▁25	-9.20051
▁çift	-9.2006
▁Böyle	-9.20186
▁sağlayan	-9.20212
▁anlamı	-9.20251
▁noktada	-9.2026
larıyla	-9.20473
▁çalışmak	-9.20676
▁yerinde	-9.20723
▁Birkaç	-9.20843
▁seçim	-9.20858
▁adında	-9.20894
imi	-9.20903
▁işler	-9.20969
▁Mesel	-9.21086
▁açısından	-9.21123
▁sahne	-9.21161
▁yüzünden	-9.21209
▁Su	-9.21551
mesi	-9.21606
dür	-9.21606
▁yapar	-9.21657
▁durumu	-9.21779
▁bununla	-9.22208
ru	-9.22529
▁J	-9.22821
or	-9.22825
▁görsel	-9.2291
▁teşekkürler	-9.2301
▁R	-9.2301
▁ilham	-9.23161
v	-9.23298
▁kırmızı	-9.2343
▁iklim	-9.2349
sam	-9.23533
▁yıllar	-9.2356
▁şarkı	-9.23571
dık	-9.23615
▁mesela	-9.23686
▁başında	-9.23749
C	-9.23782
▁De	-9.23795
▁örneğin	-9.23828
▁insanlarla	-9.23854
▁bölge	-9.23979
zi	-9.23979
▁meydana	-9.24244
▁ayrı	-9.2425
yiz	-9.24644
▁plan	-9.24651
▁çeşitli	-9.24782
▁altın	-9.24851
▁zamanı	-9.24867
ing	-9.24946
▁eş	-9.25008
▁koruma	-9.25014
00	-9.25027
▁sanki	-9.25074
▁hâl	-9.25179
cu	-9.25218
▁ortada	-9.25312
▁sayısı	-9.25356
▁sonucu	-9.25612
▁tercih	-9.2581
▁Ha	-9.25813
▁etkisi	-9.26018
▁alıyor	-9.26028
lanmış	-9.26046
▁k	-9.26157
▁değilim	-9.26552
▁çıkıyor	-9.26608
▁üniversite	-9.26631
diği	-9.26652
▁istiyoruz	-9.26677
▁kamera	-9.26758
▁anlamda	-9.26946
▁80	-9.27063
▁göstereceğim	-9.27153
▁yoksa	-9.27258
▁olmuş	-9.27384
diğini	-9.27433
▁alır	-9.27553
▁Onu	-9.27558
▁gizli	-9.27699
▁inanıyorum	-9.27725
▁yaratıcı	-9.27742
lığın	-9.27758
▁İyi	-9.27786
▁yazı	-9.27903
▁içindeki	-9.27915
▁tip	-9.28089
▁7	-9.2856
▁oray	-9.28676
▁Hiç	-9.28802
T	-9.2884
be	-9.29116
A	-9.29248
▁satın	-9.29671
▁mü	-9.29727
ılmış	-9.29735
▁Orada	-9.29797
▁icin	-9.29814
▁gerçekte	-9.29941
▁yapabiliriz	-9.30008
▁s	-9.30095
mın	-9.30184
▁garip	-9.30201
▁İkinci	-9.30287
▁ucuz	-9.30288
▁söylüyor	-9.30297
▁bilimsel	-9.30316
▁konuşmak	-9.3034
▁robot	-9.30401
▁temsil	-9.30582
▁petrol	-9.30597
▁umut	-9.30762
layan	-9.30777
ının	-9.30797
▁üzerinden	-9.30811
▁önceki	-9.30897
▁olsaydı	-9.31082
lardır	-9.31392
▁uygulama	-9.31416
▁kendimizi	-9.31426
son	-9.31439
▁ürün	-9.31471
▁olmasını	-9.31579
vi	-9.31609
▁yüzlerce	-9.31614
▁demokrasi	-9.31898
▁Dolayısıyla	-9.319
▁önünde	-9.32009
▁hedef	-9.32022
abilirsiniz	-9.32049
▁Tabii	-9.3209
▁yap	-9.32151
▁gelecekte	-9.32176
▁dış	-9.32187
▁yaptıkları	-9.3223
▁günlük	-9.32232
▁gerektiği	-9.32338
mıştı	-9.32341
▁bakarsa	-9.32352
bo	-9.32359
▁gider	-9.32362
▁ince	-9.32393
▁sağlıklı	-9.32437
▁korkunç	-9.3247
▁ders	-9.32566
▁cep	-9.32764
▁dizi	-9.32853
6	-9.32871
▁kullan	-9.32902
▁dışı	-9.32961
tim	-9.33098
▁eve	-9.33244
▁olduğunda	-9.3331
▁suç	-9.33502
▁zarar	-9.33508
▁kalma	-9.33555
▁seviyorum	-9.33652
▁N	-9.33769
▁kullanmak	-9.33869
▁Ta	-9.33877
▁Biraz	-9.33928
▁bilmiyorum	-9.33949
çi	-9.34011
▁işaret	-9.3408
▁yapılmış	-9.34142
▁elbette	-9.34207
▁türlü	-9.34259
▁gördüğümüz	-9.34277
▁et	-9.34307
▁koy	-9.34408
▁8	-9.34579
▁esas	-9.34607
▁nerey	-9.34669
▁getirmek	-9.34718
▁risk	-9.34719
▁anlat	-9.34729
▁la	-9.3486
▁sorunu	-9.34989
▁dışarı	-9.35012
ku	-9.35162
▁yi	-9.35177
▁başlıyor	-9.35245
5	-9.35291
▁olanlar	-9.3532
▁Video	-9.35382
▁açıdan	-9.35437
▁akıl	-9.35466
▁güvenli	-9.35499
▁sınıf	-9.35512
▁bas	-9.35519
▁aşı	-9.35616
▁giden	-9.35647
▁olduğundan	-9.35649
▁sayfa	-9.35676
▁kaynağı	-9.35785
▁üzerindeki	-9.35865
▁yoktur	-9.35925
▁Gerçek	-9.35984
▁edilen	-9.36021
▁etrafında	-9.36021
yse	-9.36033
▁sabah	-9.36052
▁miyiz	-9.36362
▁mesaj	-9.36416
tur	-9.36532
elim	-9.36557
▁kendilerini	-9.36704
▁ülkeler	-9.36707
K	-9.36934
▁İnsan	-9.36939
▁kişiler	-9.37092
ici	-9.37122
▁buldum	-9.37167
dü	-9.37197
▁fikirler	-9.37317
▁edilmiş	-9.37404
▁pazar	-9.37512
▁hücreleri	-9.37781
▁geleneksel	-9.37787
▁gitmek	-9.37794
▁gördük	-9.37825
▁baskı	-9.37854
▁kere	-9.3787
ko	-9.38063
▁kara	-9.38238
▁bunlardan	-9.38337
acağız	-9.38368
ysa	-9.38376
▁piyasa	-9.3838
▁erkekler	-9.38435
ğ	-9.3851
▁önemlisi	-9.38595
▁hata	-9.38646
▁üçüncü	-9.38754
sem	-9.3882
▁bilgiyi	-9.38902
▁icat	-9.38997
ğı	-9.39005
▁P	-9.39381
▁bitki	-9.39383
sıyla	-9.3944
▁Onları	-9.39466
▁verme	-9.39504
▁düşünmeye	-9.39581
▁genetik	-9.3961
▁geldiğini	-9.39726
▁yaş	-9.39893
▁hayatın	-9.39897
▁oldum	-9.39932
8	-9.39979
▁değiştirmek	-9.39979
▁Ç	-9.40026
▁değişik	-9.40026
▁Mo	-9.40183
mızın	-9.40196
▁insanı	-9.40252
▁sırasında	-9.40298
bu	-9.40306
▁Sen	-9.40325
▁Sa	-9.40381
▁yapıyorlar	-9.40599
▁yapmayı	-9.40769
▁hastalığı	-9.40782
za	-9.40896
▁Batı	-9.40948
▁arkadaşım	-9.40996
▁temiz	-9.41023
ga	-9.41116
▁anlamaya	-9.4119
▁evrim	-9.41211
▁genellik	-9.41265
▁ettiği	-9.41303
ımız	-9.41355
liğin	-9.41378
▁yiyecek	-9.41413
▁Birçok	-9.41479
▁öğrenci	-9.41652
larımızın	-9.4167
▁program	-9.41685
▁yoğun	-9.41688
▁fazlası	-9.4172
▁beynin	-9.41767
▁deneyim	-9.41825
▁gelişme	-9.41933
3	-9.41987
▁balık	-9.41989
▁teşvik	-9.42102
▁numara	-9.42259
▁tıp	-9.42259
▁aracı	-9.42367
▁Pekala	-9.42419
▁Beni	-9.4244
ley	-9.42492
▁yaparken	-9.42495
▁İş	-9.42534
▁Burası	-9.42535
▁bizler	-9.42551
▁belirli	-9.42674
▁verdik	-9.42678
▁sonsuz	-9.42682
▁Orta	-9.42725
▁olağanüstü	-9.42736
▁senin	-9.42869
▁İnsanların	-9.4313
▁halinde	-9.4315
▁çalışıyoruz	-9.4317
▁70	-9.4318
N	-9.43357
▁yapacak	-9.4336
▁politik	-9.43531
▁Tam	-9.43542
▁bulduk	-9.43689
▁modern	-9.43826
▁fırsat	-9.43832
nu	-9.43905
ve	-9.43919
▁alakalı	-9.43953
▁kültür	-9.43989
▁ikna	-9.44021
▁amacı	-9.44024
▁Geçen	-9.44027
▁ayak	-9.4403
▁kesin	-9.44035
▁yaparak	-9.4406
▁herşey	-9.44064
4	-9.44163
▁uç	-9.44164
▁gıda	-9.44339
▁deneme	-9.44351
mıza	-9.44404
▁sahibiz	-9.44509
▁Tek	-9.44515
lerdir	-9.44634
▁hayatı	-9.44775
▁verir	-9.4496
▁dahi	-9.44987
▁mil	-9.4502
▁budur	-9.45089
ğa	-9.45106
▁sağlamak	-9.45183
▁sıcak	-9.45394
▁kadınların	-9.45473
▁çocukları	-9.45532
▁erken	-9.45686
▁yarısı	-9.4569
▁geriye	-9.45763
▁İnternet	-9.45802
▁yeterin	-9.45806
▁anlam	-9.45909
▁harita	-9.45923
▁sorular	-9.45963
▁başlar	-9.45981
adlı	-9.45996
▁masa	-9.46044
▁Me	-9.46156
▁din	-9.4628
▁sekiz	-9.46297
▁çekici	-9.46303
ed	-9.46377
▁yasa	-9.46564
▁hizmet	-9.46639
▁görev	-9.46681
▁si	-9.46734
▁şekil	-9.4681
▁yapabilir	-9.46929
▁verin	-9.47039
▁çalışıyorum	-9.47043
▁sırada	-9.47045
▁yarı	-9.47072
▁şirketler	-9.47079
▁siyah	-9.47111
mde	-9.47125
▁başta	-9.47239
▁akıllı	-9.47289
▁aldık	-9.47303
▁rol	-9.47388
der	-9.4746
▁oranı	-9.47491
H	-9.47507
▁ediyorlar	-9.47537
▁90	-9.47568
▁yağmur	-9.47624
▁şiddet	-9.47663
▁sonuçlar	-9.47828
▁ortasında	-9.47902
▁9	-9.47974
▁Demek	-9.47979
▁demektir	-9.481
▁gezegen	-9.48252
▁olmasına	-9.48252
▁karbon	-9.48288
▁sonrasında	-9.48307
▁kendime	-9.48319
ıpkı	-9.4832
eyim	-9.48442
san	-9.48717
▁kök	-9.48743
▁ziyaret	-9.48856
▁inan	-9.48925
▁bebek	-9.48996
ran	-9.49001
duk	-9.49049
▁ten	-9.49164
▁yaşıyor	-9.49182
▁kutu	-9.49299
▁davet	-9.49318
▁aç	-9.49455
▁nefes	-9.49647
▁Öyle	-9.49656
ebiliriz	-9.49725
▁hakkındaki	-9.49819
▁ikisi	-9.49834
▁karanlık	-9.4992
▁mal	-9.49928
▁istediğimiz	-9.50118
dığımız	-9.50257
▁kurma	-9.50264
▁nesil	-9.50308
▁ilerleme	-9.50572
▁boş	-9.50658
▁/	-9.50674
▁çalışmaya	-9.50681
▁süreç	-9.50787
▁boyutlu	-9.51049
yor	-9.51051
▁programı	-9.51074
▁süreci	-9.51197
lığ	-9.51223
▁adına	-9.51339
▁Hepimiz	-9.5135
▁adını	-9.51408
abilecek	-9.51599
cık	-9.51647
7	-9.51694
P	-9.51938
malıyız	-9.51949
raya	-9.51981
hi	-9.52
▁yöntem	-9.52042
▁yaygın	-9.52059
▁hayvanlar	-9.521
▁geldiği	-9.52157
▁yana	-9.5239
▁sıfır	-9.5241
▁ısı	-9.52411
birine	-9.52437
▁olduğumu	-9.52447
▁hayatını	-9.5246
▁ışığı	-9.52464
▁miktarda	-9.52483
▁sol	-9.52514
▁ağır	-9.52641
▁gaye	-9.52644
▁zeki	-9.52648
▁Üç	-9.52768
▁kar	-9.52809
kten	-9.52835
▁vücut	-9.52916
▁Ba	-9.52971
▁yapmamız	-9.52988
▁tehlikeli	-9.53042
ebilirsiniz	-9.53062
▁Doğu	-9.53129
▁devre	-9.53199
▁seyahat	-9.53466
▁noktası	-9.53495
▁çaba	-9.53535
▁çapında	-9.53542
▁ülkede	-9.5355
▁çalıştığım	-9.53617
landı	-9.53637
ton	-9.53714
▁onunla	-9.53721
iniz	-9.5373
▁süper	-9.53737
mu	-9.53756
mize	-9.53763
as	-9.53827
▁makale	-9.53865
w	-9.5391
ıyla	-9.53933
▁güvenlik	-9.54087
▁Buradaki	-9.54224
▁kal	-9.54278
▁yaşındaki	-9.54486
▁hesap	-9.54513
gu	-9.54566
rken	-9.54621
▁anlatmak	-9.5466
▁babam	-9.54663
▁olmayacak	-9.54817
▁mesele	-9.54828
▁tartışma	-9.54893
▁bağ	-9.54899
▁pahalı	-9.5493
▁buz	-9.5519
▁akşam	-9.55252
▁Bazen	-9.55254
▁Öyleyse	-9.55261
M	-9.55303
▁teori	-9.55339
▁telefonu	-9.55369
▁ederek	-9.55618
▁getiriyor	-9.5566
▁oy	-9.55687
▁birine	-9.55735
▁ton	-9.55834
siyle	-9.56121
▁Sonuç	-9.56293
▁edici	-9.56339
▁yeri	-9.56356
lanan	-9.56415
▁tecrübe	-9.56487
▁hücreler	-9.56567
▁muazzam	-9.56704
▁konuş	-9.56734
▁okula	-9.56737
▁bulma	-9.56834
▁kap	-9.56925
ayım	-9.56959
▁16	-9.57035
▁kenar	-9.57131
▁anı	-9.57165
▁dur	-9.57183
▁söylediği	-9.57205
▁öğrendim	-9.57212
▁örneği	-9.57294
▁ardından	-9.57296
▁gerekiyordu	-9.57392
▁tarz	-9.57435
▁alın	-9.57438
▁isteyen	-9.57478
▁duygu	-9.57484
▁sağlayacak	-9.57507
▁teknik	-9.57511
▁sanal	-9.5753
▁almaya	-9.57564
▁sana	-9.57571
▁okuma	-9.57637
▁Bilim	-9.57648
▁tarihi	-9.57734
▁gitti	-9.57739
▁getirdi	-9.57777
ö	-9.57809
▁Yine	-9.57823
▁Çocuk	-9.58024
iyorum	-9.5812
lük	-9.58128
▁işbirliği	-9.58178
▁yapmış	-9.5821
▁Sizin	-9.58248
likle	-9.58368
▁dans	-9.5841
meyi	-9.58427
▁İ	-9.58458
çı	-9.58587
▁bi	-9.58729
▁rahat	-9.58844
▁olmayı	-9.58968
▁alanda	-9.58993
▁çoğunu	-9.59064
▁edebilir	-9.59215
▁tehdit	-9.59311
▁biyolojik	-9.59313
▁getir	-9.59486
▁olmaları	-9.59509
▁görüş	-9.59537
▁annem	-9.59552
▁Va	-9.59569
▁cok	-9.59573
▁çalış	-9.59577
ul	-9.59599
iyoruz	-9.59632
▁gir	-9.59663
▁sağladı	-9.59696
▁ateş	-9.59716
▁köpek	-9.59723
▁Çoğu	-9.59755
▁istiyor	-9.59878
▁silah	-9.59878
▁olduğumuzu	-9.59884
▁hızla	-9.59912
▁yabancı	-9.59993
▁Güneş	-9.6005
ndaki	-9.60132
▁benziyor	-9.60208
os	-9.60219
▁edildi	-9.60242
▁sonu	-9.60276
▁müthiş	-9.60429
▁neyse	-9.60447
miyor	-9.60497
▁benzeri	-9.60536
▁kazan	-9.60655
▁can	-9.60685
x	-9.60712
▁Ona	-9.60783
▁Chris	-9.60809
▁İngiltere	-9.60809
▁”	-9.60809
ği	-9.6103
▁birşeyler	-9.61067
▁ettiler	-9.61089
▁tarih	-9.61101
▁halk	-9.6111
mayı	-9.61142
▁görürsünüz	-9.61191
▁tan	-9.61204
▁duruyor	-9.6133
▁olmaz	-9.61412
▁öğrenmek	-9.61432
▁burası	-9.61446
kı	-9.61536
lenmiş	-9.61542
mişti	-9.6155
▁hepimizin	-9.61695
▁Ko	-9.61733
▁düşünmek	-9.61737
▁görmeye	-9.61823
▁fare	-9.61872
▁14	-9.61991
▁verilen	-9.62157
▁toprak	-9.62174
▁eğlenceli	-9.6227
ol	-9.62271
▁üretim	-9.62282
▁sefer	-9.62315
▁zayıf	-9.62344
▁içeri	-9.62353
▁kare	-9.62381
masını	-9.62514
▁li	-9.62531
▁Devletler	-9.62536
▁f	-9.62596
▁onlarla	-9.62605
muz	-9.62611
“	-9.62732
▁buçuk	-9.62735
▁yaklaşım	-9.62869
▁burda	-9.62916
▁Ra	-9.63033
▁Küçük	-9.63134
▁Ev	-9.63203
lanma	-9.63264
▁Hem	-9.63288
▁kilo	-9.63332
G	-9.63344
▁gücünü	-9.63533
▁Dr	-9.63582
▁sonuçları	-9.63619
▁problemi	-9.63663
leşmiş	-9.63702
eceğiz	-9.63733
▁na	-9.63734
▁sordu	-9.63764
ize	-9.63771
▁yazılım	-9.63852
diğimiz	-9.63856
eceğini	-9.63899
▁tuhaf	-9.63904
▁nefret	-9.63916
▁göreceksiniz	-9.63918
cak	-9.63924
▁benimle	-9.63966
▁W	-9.63989
▁Do	-9.6411
▁endişe	-9.64179
▁kod	-9.6419
▁teknolojinin	-9.64262
▁gel	-9.64284
▁okyanus	-9.64326
▁sevgi	-9.64477
▁yada	-9.6454
▁ünlü	-9.64704
▁algı	-9.64721
▁tepe	-9.64751
▁modeli	-9.64754
▁görünen	-9.64772
▁olmamız	-9.64984
▁arazi	-9.64999
▁soğuk	-9.65012
▁sey	-9.65029
▁dediler	-9.65058
▁saygı	-9.65067
▁araçlar	-9.65107
▁sordum	-9.65107
▁arama	-9.65169
po	-9.65234
ıcı	-9.6524
▁bildiğimiz	-9.65311
nca	-9.65314
▁günü	-9.65348
▁ha	-9.65353
▁hikâye	-9.65428
▁The	-9.65506
▁arası	-9.65521
▁kullanılan	-9.65534
▁parti	-9.65547
▁İngilizce	-9.65588
diniz	-9.65654
yo	-9.65685
▁çalıştım	-9.6569
ünü	-9.65724
▁kullanıyor	-9.65796
▁renk	-9.66252
▁yaşama	-9.66301
▁eşit	-9.66365
▁buydu	-9.66465
dikleri	-9.66511
▁başa	-9.66515
▁gen	-9.66592
▁malzeme	-9.66676
▁biyoloji	-9.66677
▁Elbette	-9.66693
▁Tabi	-9.66717
▁alanlar	-9.66756
▁olduğunuz	-9.66878
acağını	-9.66967
▁suyu	-9.6702
▁yara	-9.67073
▁duygusal	-9.67118
▁sıradan	-9.67165
▁bulunuyor	-9.67191
▁Adam	-9.6726
▁tut	-9.67304
go	-9.67314
▁24	-9.67332
▁bil	-9.67345
▁mikro	-9.67485
▁Şöyle	-9.67504
▁geleceği	-9.67528
iş	-9.6762
▁dönü	-9.67688
▁buldu	-9.67722
▁yıldız	-9.67795
▁13	-9.67812
▁değiştir	-9.67831
ımı	-9.67855
▁top	-9.67863
▁HIV	-9.67912
ebilecek	-9.67927
▁di	-9.67944
▁yüzyıl	-9.67968
▁alet	-9.68001
sından	-9.68077
▁bırak	-9.6819
▁çocuğun	-9.68209
▁sizinle	-9.68244
mızda	-9.6825
▁sağlar	-9.68301
▁Harika	-9.68324
▁ettiğimiz	-9.68325
▁yapabilirsiniz	-9.68403
ıldı	-9.68432
▁doktor	-9.68486
fi	-9.68498
L	-9.68603
▁rüzgar	-9.68616
▁mimari	-9.68658
▁cihaz	-9.6868
▁tarım	-9.68721
▁plastik	-9.68734
▁geçerli	-9.6876
layıp	-9.68807
▁farkında	-9.6899
▁çalışır	-9.69028
▁hafif	-9.69147
▁bulunduğu	-9.69198
larca	-9.69202
▁Asya	-9.69237
▁ölü	-9.6926
▁gelişmiş	-9.69287
▁duyu	-9.69404
▁üstüne	-9.69435
ör	-9.69515
▁kilometre	-9.69563
▁baba	-9.69577
▁17	-9.69712
▁virüs	-9.69716
▁Ş	-9.69757
diğim	-9.69771
kar	-9.69783
▁liste	-9.69838
▁Yüz	-9.69864
▁balığı	-9.69871
▁sürdürülebilir	-9.69979
▁olduk	-9.70029
▁zorundayız	-9.70059
▁rahatsız	-9.70141
▁çocuğu	-9.70284
▁Re	-9.70328
▁kas	-9.70364
▁kağıt	-9.70502
ilmiş	-9.70582
▁değerli	-9.70589
▁zeka	-9.70591
▁çek	-9.70811
▁edip	-9.70818
▁giderek	-9.70833
▁ağaç	-9.7092
▁Hadi	-9.7093
▁şehrin	-9.70985
▁yapıyorum	-9.71007
▁hal	-9.71172
▁olanı	-9.7126
▁yaratma	-9.71396
▁Kim	-9.7143
▁Se	-9.71447
▁yaptığını	-9.71479
▁evrenin	-9.71479
▁seviye	-9.71512
▁sesleri	-9.71648
▁kamu	-9.71668
▁bisiklet	-9.71705
▁önemlidir	-9.71732
▁miktar	-9.71739
▁gerçeği	-9.71794
▁şeyden	-9.71964
▁sevdiğim	-9.72054
▁adamı	-9.72332
▁kısmını	-9.72366
▁cevabı	-9.72373
▁yu	-9.72389
ze	-9.72429
▁davranış	-9.72464
▁fotoğrafı	-9.72661
▁oyunu	-9.72733
ey	-9.72749
▁Doğru	-9.72809
▁değiliz	-9.72842
▁km	-9.72894
acağım	-9.72913
▁kaya	-9.73076
▁geldiğinde	-9.73151
▁hükümet	-9.73207
▁verdiği	-9.73241
nize	-9.73249
▁türü	-9.7327
▁engel	-9.73284
▁imkansız	-9.73317
▁bakmak	-9.73333
▁Ki	-9.73339
▁Di	-9.73369
▁Afganistan	-9.73376
▁sabit	-9.73377
▁öğren	-9.73407
▁amaç	-9.73434
mo	-9.73515
▁düşünüyor	-9.7352
▁ülkelerde	-9.73559
▁etkileşim	-9.73735
▁geçti	-9.73736
▁olmadı	-9.73786
▁uluslararası	-9.73809
▁yapıldı	-9.73816
▁olun	-9.73817
▁evde	-9.73822
▁oluşturmak	-9.73989
I	-9.73996
▁bağımsız	-9.73997
▁ila	-9.74037
▁görüyor	-9.74046
▁gaz	-9.74107
▁verimli	-9.74113
▁hak	-9.74143
▁Amerikalı	-9.7448
▁cam	-9.7449
▁bilmek	-9.74527
pe	-9.74588
▁değiller	-9.74614
▁politika	-9.74661
▁sorunları	-9.74724
▁çıkı	-9.74827
▁yapay	-9.74929
▁Bize	-9.75015
▁şirketi	-9.75026
▁düz	-9.75035
▁dağ	-9.75063
▁parmak	-9.75108
ür	-9.75116
▁önümüzde	-9.75121
▁paylaşmak	-9.75136
▁iddia	-9.75192
nizin	-9.75271
ış	-9.7531
▁hepsini	-9.75422
▁nevi	-9.75491
▁olmuştu	-9.75587
▁geçmiş	-9.75591
▁hali	-9.75679
ndeki	-9.75723
▁tanı	-9.75821
▁kimyasal	-9.75964
▁Man	-9.75995
▁Gördüğünüz	-9.76002
▁Eski	-9.76043
▁mantıklı	-9.76085
imizin	-9.76092
▁değiştirme	-9.7614
▁Sonun	-9.76159
▁ver	-9.7619
▁çoğunlukla	-9.76292
ay	-9.76462
▁bilinen	-9.7649
lıyız	-9.76595
▁bilme	-9.76595
▁Da	-9.76601
▁şeklinde	-9.76608
▁strateji	-9.76636
▁He	-9.76756
▁geçir	-9.76769
no	-9.76786
▁korumak	-9.76843
▁adamın	-9.76983
▁devrim	-9.77075
▁park	-9.77124
▁olabilecek	-9.77133
▁hayatımı	-9.77171
unun	-9.77177
▁ol	-9.77221
▁verileri	-9.77235
▁V	-9.77273
nün	-9.77325
▁gösterdi	-9.7735
▁parçaları	-9.77356
▁hatırlıyorum	-9.77363
nıza	-9.7738
▁şeydir	-9.77441
▁kaldır	-9.77445
F	-9.77492
▁ölçüde	-9.7766
▁İngiliz	-9.77679
▁nda	-9.77785
▁spor	-9.77822
▁geçme	-9.77852
▁Hiçbir	-9.77854
▁neyin	-9.7787
yen	-9.77896
▁yayın	-9.7791
▁fazlasını	-9.77955
▁açısı	-9.77956
taki	-9.77958
▁toplumun	-9.77962
▁ötesinde	-9.77976
▁ada	-9.78015
co	-9.78045
▁açıklama	-9.78069
▁yola	-9.78264
▁yılı	-9.78311
▁gitme	-9.78403
▁La	-9.78418
▁sizlere	-9.78435
▁alanında	-9.78505
lanıyor	-9.78523
▁yerler	-9.78537
▁yüzyılda	-9.78608
▁John	-9.78687
▁Londra	-9.78699
▁gerekirse	-9.78782
▁kapalı	-9.78786
▁sınır	-9.78814
▁yönetim	-9.78834
▁dediği	-9.7885
▁işlem	-9.78879
▁boya	-9.78945
▁alacak	-9.78956
▁tarafı	-9.78985
▁denge	-9.79032
▁duyma	-9.79129
▁kısım	-9.79144
▁şeker	-9.79156
▁cinsiyet	-9.79165
▁olabileceğini	-9.79228
▁bölümü	-9.79295
▁yılın	-9.79326
ck	-9.79344
yorum	-9.79348
▁fikirleri	-9.79452
▁cinsel	-9.79452
▁doku	-9.79454
▁sorumlu	-9.79461
▁saldırı	-9.79494
▁sanatçı	-9.79522
▁kural	-9.79587
▁tespit	-9.79614
▁parlak	-9.79615
▁değişimi	-9.79626
▁Ka	-9.79697
▁bölüm	-9.79706
▁arkadaş	-9.79714
▁diyorum	-9.79739
▁molekül	-9.79827
▁dediğimiz	-9.79871
▁Davi	-9.79948
▁cümle	-9.80075
▁web	-9.80075
▁verecek	-9.80089
▁gittik	-9.80127
▁edebilirsiniz	-9.80137
▁bakteri	-9.80161
▁tasarruf	-9.80246
kçe	-9.80346
▁çalıştığımız	-9.80368
▁analiz	-9.80405
▁Hepsi	-9.80437
▁önem	-9.80454
▁kanseri	-9.80515
▁matematik	-9.80529
▁suyun	-9.80535
▁siyasi	-9.80558
inizi	-9.80563
▁ayı	-9.80625
▁aktif	-9.80673
▁başarısız	-9.80747
▁kaldı	-9.8078
▁Bilirsiniz	-9.81009
▁nükleer	-9.81012
▁kitabı	-9.8105
▁çıkarmak	-9.81054
▁yolculuk	-9.81103
mektedir	-9.81113
▁dikkatli	-9.81118
▁orman	-9.81129
▁evren	-9.81195
▁şans	-9.81242
▁seni	-9.81314
▁geçiyor	-9.81358
▁ka	-9.81448
ilen	-9.8154
lerimizin	-9.81586
▁insanlardan	-9.81675
ah	-9.81776
ver	-9.81781
▁hakkı	-9.81813
ydim	-9.81828
▁Onların	-9.81873
ebiliyor	-9.81921
▁önüne	-9.8194
▁olabilirsiniz	-9.81943
▁mutluluk	-9.8198
▁düşündük	-9.82023
▁değiştirebilir	-9.82071
▁öldü	-9.82119
▁herşeyi	-9.82228
▁farkın	-9.82264
▁Birincisi	-9.82297
▁Bak	-9.82366
lıyor	-9.82377
▁hayata	-9.82391
▁Güzel	-9.82414
▁gelişmekte	-9.82428
▁gelmiş	-9.82431
meliyiz	-9.82437
▁saye	-9.82449
▁nüfus	-9.82631
▁arkasında	-9.82669
mıştım	-9.82717
▁koyu	-9.82809
bir	-9.82858
▁epey	-9.82886
▁doğum	-9.82985
▁500	-9.8301
▁birbirin	-9.83076
▁işleri	-9.83143
▁gerçeklik	-9.83204
▁değiştirdi	-9.83219
▁başladılar	-9.83236
▁kuru	-9.83254
▁halka	-9.83256
▁yapacağı	-9.83321
▁toplam	-9.8341
▁olacağı	-9.83426
▁sessiz	-9.83496
▁teknolojiyi	-9.83581
▁ödeme	-9.83662
eceğim	-9.83669
▁yetiştir	-9.83727
▁yaptılar	-9.83749
▁lütfen	-9.8384
▁bakma	-9.83847
maktadır	-9.83893
▁radyo	-9.83906
▁çiz	-9.83923
▁isterim	-9.83933
▁kullanıyoruz	-9.83943
▁televizyon	-9.84024
▁karşısında	-9.84025
▁standart	-9.84113
▁elimizde	-9.84174
▁polis	-9.84269
ste	-9.84306
▁çöp	-9.84357
▁me	-9.84439
R	-9.84454
▁kol	-9.84474
▁nereden	-9.84536
▁gözlem	-9.84583
▁dava	-9.84609
▁olmaktan	-9.8461
▁paylaş	-9.84636
▁öğretmen	-9.84669
▁hesaplama	-9.84687
▁gelme	-9.84694
▁sergi	-9.84734
▁ma	-9.84762
▁Teknoloji	-9.84804
ıl	-9.84837
▁site	-9.84878
up	-9.85025
leşme	-9.85129
▁dışarıda	-9.85134
▁Yap	-9.85149
diler	-9.85232
▁gönder	-9.85245
▁kullandığımız	-9.85274
▁Bazıları	-9.85275
▁motor	-9.85382
▁ün	-9.85382
▁hikayeler	-9.85427
▁dek	-9.85444
▁geçiş	-9.85466
▁Le	-9.85503
abilmek	-9.85601
▁kayıt	-9.85687
▁yakında	-9.85699
▁şimdiye	-9.85743
liğini	-9.85748
dy	-9.85768
▁komik	-9.85785
▁istedi	-9.85825
▁bahsetmek	-9.85827
▁Üniversitesi	-9.85839
suz	-9.85851
▁Bakın	-9.85858
iyle	-9.859
▁hissi	-9.85915
▁vermeye	-9.85915
fa	-9.85947
▁girdi	-9.85989
lüğü	-9.8602
▁ani	-9.8608
▁yaşamak	-9.86122
teki	-9.86124
imizi	-9.86181
▁Na	-9.86236
▁istiyorlar	-9.86266
▁seç	-9.86271
▁nesne	-9.86355
▁kullanan	-9.86358
▁gemi	-9.8636
▁aşama	-9.86389
▁bakarak	-9.86389
▁diyoruz	-9.86448
▁bulmaya	-9.8655
▁şeydi	-9.86771
▁açıkça	-9.86805
▁toplantı	-9.86815
▁bakıp	-9.8682
▁yaşıyoruz	-9.86886
▁bitir	-9.86901
▁yolunu	-9.87006
▁199	-9.87144
▁taklit	-9.87257
▁etmeyi	-9.87266
▁yollar	-9.87285
▁yarar	-9.8738
▁dönüş	-9.87433
▁kon	-9.87531
▁istedik	-9.87532
▁yağ	-9.87588
▁hakları	-9.87618
▁ürünü	-9.87669
▁doğrudan	-9.87672
▁artış	-9.87677
▁ettiğim	-9.87703
▁altyapı	-9.87721
▁deri	-9.87722
▁gösterir	-9.87787
▁sor	-9.87789
▁dönem	-9.87798
▁veriler	-9.87808
▁edebiliriz	-9.87825
▁musun	-9.87831
▁anlamıyla	-9.87898
abiliyor	-9.87934
▁dokuz	-9.87945
kte	-9.87954
E	-9.8802
lığını	-9.88043
▁Bo	-9.88097
yum	-9.88148
▁hız	-9.88158
▁adet	-9.88176
▁sandalye	-9.88266
▁tıbbi	-9.88286
ger	-9.88382
▁terk	-9.88392
▁ihtiyacınız	-9.88505
▁girme	-9.88522
lerim	-9.88552
▁seks	-9.88593
▁karşılık	-9.88595
▁ekran	-9.88596
▁Ah	-9.88632
▁değeri	-9.88644
▁dev	-9.88813
▁san	-9.88823
▁ak	-9.88864
▁duvar	-9.88872
▁büyüdü	-9.88925
▁gittikç	-9.88992
▁gazete	-9.88992
▁kişiye	-9.88993
dılar	-9.89009
ılan	-9.89028
layarak	-9.89175
▁gösterme	-9.89268
▁farkı	-9.89321
▁kitle	-9.89328
▁ters	-9.89387
▁dolarlık	-9.8946
han	-9.89466
▁Önce	-9.895
▁tehlike	-9.89519
▁ulaşmak	-9.89615
▁mesafe	-9.89622
rek	-9.89757
▁Ro	-9.89874
▁kalıyor	-9.89993
▁taki	-9.90001
▁batı	-9.9004
▁etmiş	-9.90136
▁yerden	-9.90463
▁misin	-9.90477
▁giriş	-9.90506
▁So	-9.90517
▁söyleme	-9.9055
▁sistemleri	-9.90584
▁yazar	-9.90677
▁serbest	-9.90791
ist	-9.9083
▁başlama	-9.90832
▁kullanımı	-9.90915
una	-9.90987
▁kendilerine	-9.91011
layacak	-9.91048
▁kurmak	-9.91066
▁300	-9.91072
mıyor	-9.91094
▁dişi	-9.91095
▁uzakta	-9.91264
▁Tekrar	-9.91306
▁sermaye	-9.91306
▁Irak	-9.91317
▁özgür	-9.91359
land	-9.91368
▁görüyorum	-9.91378
▁tablo	-9.91419
▁şehri	-9.91431
▁yetişkin	-9.91463
▁yerlere	-9.91529
▁sıkı	-9.91582
▁potansiyel	-9.91585
▁merkez	-9.9164
▁dalga	-9.91697
ren	-9.91797
▁Uzun	-9.91829
▁bakım	-9.91831
▁gönüllü	-9.9184
▁sorunlar	-9.91851
▁sert	-9.91864
▁geliştirme	-9.91887
▁kıta	-9.91903
th	-9.91905
▁2000	-9.91906
▁kanıt	-9.91921
▁denen	-9.91926
▁uyum	-9.91952
▁bahçe	-9.91996
▁kuş	-9.92027
▁ülkelerin	-9.92027
lardaki	-9.92084
▁çıkma	-9.92109
▁topluluk	-9.92122
▁Geri	-9.92196
▁mağara	-9.92345
▁ulusal	-9.9238
▁kayıp	-9.92387
▁yarım	-9.9242
▁düşünüyoruz	-9.92442
▁askeri	-9.92451
▁gurur	-9.92455
▁edersiniz	-9.92487
▁hikayesi	-9.92547
iyorlar	-9.92568
ıyoruz	-9.92611
▁olabileceği	-9.92653
luğu	-9.92698
▁olanak	-9.9274
▁yakıt	-9.92795
larsa	-9.92803
▁getirme	-9.92813
mizde	-9.92859
▁yerini	-9.929
leniyor	-9.92931
▁ruh	-9.92961
▁açtı	-9.93097
▁parçalar	-9.93149
▁değişikliği	-9.9315
lanır	-9.93153
▁ediliyor	-9.93166
müş	-9.93186
W	-9.9322
▁adamları	-9.93273
▁içi	-9.93281
▁kimin	-9.93345
▁tavsiye	-9.93395
▁kendinizi	-9.93445
▁tutku	-9.93547
▁etmesi	-9.93693
▁çılgın	-9.93772
▁olursak	-9.93912
▁uçak	-9.93914
▁berbat	-9.93924
▁görün	-9.94008
▁Yaklaşı	-9.94021
▁çekme	-9.94057
▁istediğiniz	-9.94123
▁sır	-9.94125
▁ihtimalle	-9.9414
▁olacaktı	-9.94143
▁bilmiyor	-9.94158
▁elinde	-9.94176
men	-9.94199
▁An	-9.943
do	-9.94365
▁sağlığı	-9.94378
▁kriz	-9.94379
▁Facebook	-9.94456
▁oksijen	-9.94456
▁ticari	-9.94456
▁zevk	-9.94456
▁Üçüncü	-9.94457
▁lerde	-9.94478
▁tur	-9.94491
▁sarı	-9.94531
▁Ses	-9.9458
lanması	-9.94591
▁kes	-9.94608
▁ihtiyacım	-9.94638
▁olmaması	-9.9469
▁karşıya	-9.9472
şe	-9.94934
▁p	-9.94954
▁yük	-9.94956
malısınız	-9.94963
▁yorum	-9.94972
▁Biliyorsunuz	-9.95044
▁dile	-9.95047
dıkları	-9.9514
▁anahtar	-9.95143
▁beyni	-9.95181
▁endüstri	-9.9519
▁yüzü	-9.95264
lenme	-9.95277
lerdeki	-9.95331
▁bulun	-9.95357
üm	-9.95379
▁başlangıç	-9.95513
▁Brezilya	-9.95529
▁İsrail	-9.95529
▁inanç	-9.95841
▁yaratıyor	-9.95845
▁ettiğini	-9.95895
unda	-9.95911
▁benden	-9.9592
▁karakter	-9.95948
▁bulunma	-9.95962
▁Kar	-9.95979
▁talep	-9.9607
▁sev	-9.96095
▁dayalı	-9.961
▁evrensel	-9.96113
▁performans	-9.96149
▁ihtiyaçları	-9.9634
▁rakam	-9.96351
▁isim	-9.96425
▁besin	-9.96427
lamak	-9.9649
▁gelebilir	-9.96681
▁dal	-9.96734
▁hastalıklar	-9.96745
▁yapılması	-9.96814
▁Y	-9.96827
▁düşün	-9.96828
▁yazık	-9.96851
ab	-9.96888
▁görüşme	-9.96926
▁düşündü	-9.96952
▁döndü	-9.96984
▁Ay	-9.97007
ji	-9.97047
▁Şunu	-9.97129
▁edilmesi	-9.97145
▁hafıza	-9.97159
▁sivil	-9.97161
▁sıvı	-9.97162
▁oluşturan	-9.97217
▁gördü	-9.97242
eri	-9.97245
▁eminim	-9.97265
▁güney	-9.97346
▁kurtar	-9.97394
▁marka	-9.97449
▁gösteri	-9.9751
▁gibiydi	-9.97567
▁herkese	-9.97572
▁hassas	-9.97604
▁g	-9.97622
▁robotlar	-9.97647
▁tanım	-9.97655
▁daire	-9.97736
▁istiyorsanız	-9.97773
▁miydi	-9.97956
▁is	-9.97972
▁Dedi	-9.98087
▁İkincisi	-9.98092
▁giriyor	-9.98178
▁çalıştık	-9.98189
▁alabilir	-9.9819
▁meydan	-9.98195
yseniz	-9.98247
▁eylem	-9.98264
▁Kimse	-9.9832
▁aksine	-9.98347
amaz	-9.98376
▁alarak	-9.98408
▁değişiklik	-9.98437
▁yolla	-9.98574
▁yoluyla	-9.98577
▁fiyat	-9.98607
▁deniyor	-9.98668
▁ü	-9.9868
▁diğeri	-9.98729
▁çalışmalar	-9.98738
▁yemeği	-9.98776
▁kurallar	-9.98824
dığım	-9.98824
▁elektronik	-9.98829
▁kadının	-9.98833
▁çıkardı	-9.98886
▁edilebilir	-9.98896
yoruz	-9.98933
▁görünür	-9.98992
▁keşif	-9.99043
▁kullanım	-9.99081
▁ortam	-9.99106
▁uydu	-9.99124
▁çocuklara	-9.99154
▁Ku	-9.9916
▁hareketi	-9.99174
▁öğrendik	-9.99241
sen	-9.99277
mesini	-9.99313
▁toplumsal	-9.9943
▁isterseniz	-9.99456
▁sal	-9.99466
ılması	-9.99491
▁ismi	-9.99498
▁hissetme	-9.99528
▁hastane	-9.99548
▁eğitimi	-9.99695
larımı	-9.99749
nızın	-9.99761
ho	-9.99791
▁özelliği	-9.99928
▁AIDS	-9.99937
lerimi	-9.99941
tık	-9.99942
abileceği	-9.9999
▁yumurta	-10.0003
▁dönemde	-10.0005
▁grubu	-10.0011
▁gruplar	-10.0013
▁sahiptir	-10.0014
ber	-10.0018
▁zamanlı	-10.0018
▁durumunda	-10.0018
▁değişti	-10.0019
▁türden	-10.0027
▁araçları	-10.0028
▁kendisini	-10.0035
miştim	-10.0039
▁sorunun	-10.004
▁müdahale	-10.005
▁kredi	-10.0054
▁laboratuvar	-10.0059
▁Almanya	-10.0063
▁atom	-10.0065
▁ödül	-10.0066
▁kemik	-10.0068
▁ağı	-10.0069
▁olduğunuzu	-10.007
▁yaşamın	-10.0079
▁Çocuklar	-10.009
▁öte	-10.009
ydım	-10.0094
mekte	-10.0096
▁kendileri	-10.01
▁kültüre	-10.0108
▁evin	-10.0117
▁bırakma	-10.0117
▁bağış	-10.0119
makta	-10.0122
▁oluşturuyor	-10.0127
▁suçlu	-10.0131
ster	-10.0136
▁birinde	-10.0137
▁yazma	-10.0138
▁koyuyor	-10.0143
▁Pek	-10.0145
▁aktivite	-10.0147
▁sistemler	-10.0153
▁alternatif	-10.0164
▁bütçe	-10.0164
▁barış	-10.0175
▁biyo	-10.0177
ık	-10.0178
▁nadir	-10.0182
▁getirir	-10.0185
▁filmi	-10.0187
▁Biri	-10.0192
▁kişiyi	-10.0194
▁bilgileri	-10.0202
▁ahlaki	-10.0215
▁patlama	-10.0219
▁kaynakları	-10.0222
▁yapması	-10.0226
▁başlayan	-10.0231
▁Japonya	-10.0232
▁durumun	-10.0232
▁bende	-10.0235
▁bahsediyor	-10.0241
▁sonrası	-10.0243
▁nedeniyle	-10.0246
▁hâle	-10.0249
▁arzu	-10.0255
▁beden	-10.0257
▁tak	-10.0266
▁gerçekleştir	-10.0267
▁peki	-10.0273
▁taş	-10.0277
▁arkadaşları	-10.0285
▁söylüyorum	-10.0291
▁getiren	-10.0294
▁engelli	-10.0294
▁Sizi	-10.0295
▁ederken	-10.0298
hu	-10.0305
▁oluşturur	-10.0309
▁konuşmaya	-10.0312
▁uçuş	-10.0316
▁oluşturma	-10.032
▁yanıt	-10.0334
▁söyle	-10.0335
▁gelişim	-10.0336
▁ç	-10.0337
▁hukuk	-10.0337
▁popüler	-10.0338
▁olmasının	-10.0339
▁hikayeyi	-10.0342
▁Kenya	-10.0345
▁Özellikle	-10.035
▁konuyu	-10.0353
▁yaptıklarını	-10.0358
▁edil	-10.0361
▁kalmış	-10.0362
▁tarafında	-10.0365
▁söyler	-10.0384
▁vakit	-10.0396
▁Kız	-10.0397
▁Ulusa	-10.0398
▁organ	-10.0403
▁dolara	-10.0406
▁oranda	-10.0418
▁deyişle	-10.0424
▁anladım	-10.0425
▁arta	-10.0427
▁Hava	-10.0431
▁olası	-10.0434
▁arkadaşı	-10.0436
▁müze	-10.0437
▁istediği	-10.0444
▁çalıştığı	-10.0446
▁ba	-10.0448
▁şiir	-10.0449
▁mahalle	-10.045
▁kahve	-10.0455
▁profesyonel	-10.0455
▁♪	-10.0455
▁psikoloji	-10.0455
▁devasa	-10.0457
▁ameliyat	-10.0459
▁imkanı	-10.046
▁baktığınızda	-10.0461
▁bölgede	-10.0461
▁fikrini	-10.0461
▁alanları	-10.0465
kça	-10.0468
iyet	-10.0473
▁yaşa	-10.0474
ından	-10.0477
▁kedi	-10.0479
▁oluştur	-10.049
▁Dünyada	-10.0491
▁anlamlı	-10.0492
▁his	-10.0506
▁sınırlı	-10.0506
▁birleştir	-10.0512
▁radikal	-10.0514
▁verdiler	-10.0518
▁alalım	-10.0521
▁denedi	-10.0521
▁çalışması	-10.0528
▁koyma	-10.0529
▁şansı	-10.053
▁dünyasında	-10.053
▁haklı	-10.0533
▁bit	-10.0537
ilebilir	-10.0539
▁kurdu	-10.0543
▁bizimle	-10.055
ildi	-10.0554
▁dik	-10.0557
▁bomba	-10.0561
O	-10.0567
ebileceği	-10.0567
▁Genç	-10.0574
▁finansal	-10.0574
▁yönelik	-10.058
▁art	-10.0591
▁etmiyor	-10.0594
▁tutmak	-10.06
kan	-10.0607
▁gezegende	-10.0621
j	-10.0626
▁dedik	-10.0627
▁isimli	-10.063
▁zihinsel	-10.0637
▁baktığımızda	-10.0639
▁kendiniz	-10.0644
▁bildiği	-10.0645
▁ata	-10.0648
▁şa	-10.066
▁kum	-10.066
ore	-10.0668
▁davran	-10.0672
▁Bizler	-10.0674
▁oku	-10.0674
▁şehirler	-10.0674
▁sonucunda	-10.0678
▁banka	-10.0683
▁Z	-10.0688
lendi	-10.0689
▁yapacağım	-10.0689
if	-10.069
▁kendimize	-10.0692
▁klinik	-10.0694
▁Yalnız	-10.0694
▁vahşi	-10.0694
▁sıtma	-10.0697
▁verdiğimiz	-10.0703
▁çekmek	-10.0705
▁arı	-10.0707
cek	-10.0721
▁saf	-10.0728
▁seçme	-10.073
▁işim	-10.0735
▁Hayat	-10.0741
▁çözmek	-10.0742
▁rastgele	-10.0754
▁hepiniz	-10.0755
▁Para	-10.0758
▁içeren	-10.076
▁durma	-10.0761
▁Be	-10.0762
▁bildiğiniz	-10.0765
▁yolda	-10.0765
▁odada	-10.0768
▁Anne	-10.0775
▁sistemin	-10.0777
▁önemi	-10.0781
▁yenilik	-10.0784
▁seviyede	-10.0789
▁insanlık	-10.0789
▁dili	-10.079
▁başlamak	-10.0791
▁üçte	-10.0792
ama	-10.0797
gen	-10.0805
▁ekip	-10.0807
▁degil	-10.0809
▁tamamı	-10.0815
▁kuvvet	-10.0817
▁koloni	-10.0817
▁Genel	-10.0822
▁Neyse	-10.0823
▁köy	-10.0826
▁imkan	-10.0827
▁yapabileceğimiz	-10.0829
▁kopya	-10.083
▁Sağ	-10.0834
▁bilgisayarlar	-10.0835
▁düştü	-10.084
▁bilimi	-10.0841
▁Öncelikle	-10.0842
▁çalıştığını	-10.085
iği	-10.0852
▁bizden	-10.0854
▁parayı	-10.0856
▁dizayn	-10.0857
▁okulda	-10.0858
▁yıllarda	-10.0858
▁konuya	-10.0861
▁sürede	-10.0868
tım	-10.0871
▁çağrı	-10.0874
▁yaşamı	-10.0876
▁fosil	-10.0877
▁güvenilir	-10.0877
▁Yakın	-10.0879
▁hissediyorum	-10.088
▁milyarlarca	-10.0881
▁diyelim	-10.0882
▁dönüşüm	-10.0882
▁tatlı	-10.0884
uyor	-10.089
▁gördüğüm	-10.0892
larınızı	-10.0893
▁günümüzde	-10.0894
▁sürece	-10.0895
▁hayatlarını	-10.0897
▁fizik	-10.0907
▁itibar	-10.0918
▁gözüküyor	-10.0922
▁duy	-10.0924
▁düşündüğümüz	-10.093
▁maliyeti	-10.0931
▁arkadaşlarım	-10.0932
▁şişe	-10.0936
▁Eğitim	-10.0938
▁vergi	-10.094
▁maruz	-10.0941
▁kilit	-10.0951
▁ederiz	-10.0956
▁olabilirdi	-10.0983
bilme	-10.0984
▁karşılaştır	-10.0989
▁zamandır	-10.0998
▁çık	-10.0998
sh	-10.0999
▁uyku	-10.1002
▁Co	-10.1006
▁organizasyon	-10.1014
▁birbirlerine	-10.1015
şi	-10.1016
▁ayar	-10.1017
▁etmemiz	-10.1024
▁bilir	-10.1025
leyen	-10.1026
▁makinesi	-10.1027
▁uyar	-10.1028
▁görevi	-10.1032
▁bahsettiğim	-10.1047
▁sağlayabilir	-10.1048
larım	-10.105
▁yaptığınız	-10.1054
▁Doğa	-10.1058
▁acil	-10.1058
▁kelimeler	-10.1059
lenmesi	-10.1062
▁ısınma	-10.1067
▁civarında	-10.1071
▁çalışırken	-10.1073
mdan	-10.1074
▁bakıma	-10.1075
▁b	-10.1079
▁Baş	-10.1081
▁kullandığı	-10.1083
▁havada	-10.1104
▁fırsatı	-10.1107
▁le	-10.1107
▁firma	-10.1109
lerindeki	-10.1112
▁dayan	-10.1119
▁Twitt	-10.1126
▁geliyordu	-10.1129
larındaki	-10.1132
▁diz	-10.1132
▁Araştırma	-10.1134
▁söyleyen	-10.1134
ldukça	-10.1136
▁yapılıyor	-10.1137
▁re	-10.1139
▁yenilikçi	-10.114
▁reklam	-10.1144
▁aklım	-10.1145
▁Mi	-10.1149
▁Kadın	-10.115
▁av	-10.116
yü	-10.117
▁almış	-10.1171
▁bakıyor	-10.1183
▁adalet	-10.1187
▁taşıyor	-10.1189
▁uyuşturucu	-10.1189
▁Değil	-10.1189
▁Uzay	-10.1189
▁koyar	-10.1198
▁olayı	-10.1205
▁Sorun	-10.1206
▁yazdı	-10.1208
▁say	-10.1212
▁bunlara	-10.1216
▁yarat	-10.1218
▁sağlama	-10.1221
▁servis	-10.1222
▁öğrenciler	-10.1225
lerse	-10.1227
liyiz	-10.1228
▁merkezinde	-10.1238
abileceğimiz	-10.1243
▁etkin	-10.1249
▁bol	-10.1252
▁Kesinlikle	-10.1253
▁karışık	-10.1254
▁sürdü	-10.1254
▁Ca	-10.1258
mamız	-10.1258
▁metal	-10.1262
▁Sağlık	-10.1264
▁dönme	-10.1264
▁Annem	-10.1275
▁yöntemi	-10.1276
mden	-10.1277
▁zamanla	-10.1285
▁grafik	-10.1286
▁nöron	-10.1289
▁olmanız	-10.129
acağı	-10.1295
▁toplu	-10.1309
▁dön	-10.1311
▁dürüst	-10.1315
▁blog	-10.1317
▁felaket	-10.1317
▁örnekler	-10.1318
sü	-10.1321
lma	-10.1321
▁yaşındayken	-10.1322
▁bar	-10.1323
▁geliştirmek	-10.1324
▁miktarı	-10.1324
▁bilmiyoruz	-10.1327
lıyoruz	-10.1333
▁X	-10.1335
▁kur	-10.1342
▁sizler	-10.1344
▁kızı	-10.1344
▁ölçü	-10.1346
▁salgın	-10.1347
lerinizi	-10.135
iliyor	-10.1351
▁makina	-10.1354
▁resimler	-10.1356
▁bo	-10.1358
▁kullanmaya	-10.1369
▁ibaret	-10.1371
▁içerik	-10.1372
diğiniz	-10.1373
▁yüzyılın	-10.1378
lin	-10.1382
▁denilen	-10.1386
eceği	-10.1388
▁çeken	-10.1396
pi	-10.1397
ic	-10.14
▁domuz	-10.141
ime	-10.141
▁manzara	-10.1413
▁hayvanların	-10.142
▁birinci	-10.1427
▁yalan	-10.1432
diklerini	-10.1433
▁adamlar	-10.1434
▁rekabet	-10.144
▁sıklıkla	-10.1442
▁tanıma	-10.1444
op	-10.1445
▁öğle	-10.1446
▁düzgün	-10.1447
posta	-10.1447
▁alıcı	-10.145
▁olmuyor	-10.1453
tor	-10.1455
nce	-10.1455
▁basitçe	-10.1457
▁zamana	-10.1458
▁kimya	-10.146
▁olmuştur	-10.1463
▁400	-10.1465
▁alıyoruz	-10.1473
▁saatte	-10.1478
yon	-10.1481
▁aşk	-10.1485
ebileceğimiz	-10.1493
▁planı	-10.1494
▁oluşuyor	-10.1499
▁bireyler	-10.1508
▁dergi	-10.1508
▁çoğunuz	-10.1512
▁olumlu	-10.1512
▁idare	-10.1512
▁Basit	-10.1512
▁yapabiliyor	-10.1516
▁sıkıcı	-10.1517
▁gelince	-10.1522
▁boyu	-10.1525
▁be	-10.1529
▁anlatma	-10.153
asyon	-10.1531
leşti	-10.1533
▁düşman	-10.1538
▁çiftçi	-10.1543
▁Du	-10.1543
▁sebeple	-10.1543
▁üret	-10.1544
laşma	-10.1553
▁19	-10.1556
▁hastalar	-10.1561
▁fikrim	-10.1566
▁katman	-10.157
▁birer	-10.1571
▁bekleme	-10.1571
▁kritik	-10.1578
▁ziyade	-10.1578
▁Umarı	-10.1578
▁etkileyici	-10.1579
▁mercan	-10.1585
▁Farklı	-10.1586
▁Bay	-10.1587
▁kulağ	-10.1587
▁kart	-10.1595
mer	-10.1595
▁Muhtemel	-10.1596
▁uzman	-10.1598
▁fabrika	-10.1607
mle	-10.1609
umuz	-10.162
seydi	-10.163
▁köprü	-10.1644
▁Ülke	-10.1644
▁nihayet	-10.1644
▁otomatik	-10.1644
▁kutsal	-10.1645
▁aracılığıyla	-10.1646
▁tuvalet	-10.1652
▁çözümler	-10.1652
▁paylaşma	-10.1653
▁galaksi	-10.1653
▁duran	-10.1654
leriniz	-10.1655
▁değerlendir	-10.1656
▁kullanıl	-10.1657
▁değiş	-10.1657
▁seçenek	-10.166
imin	-10.1663
▁başlıyoruz	-10.1663
▁indir	-10.1665
▁değiştiriyor	-10.1667
ımızı	-10.1668
▁beslenme	-10.1671
cılar	-10.1672
▁şifre	-10.1673
▁anlatacağım	-10.1674
▁çalışmaları	-10.1679
▁zordur	-10.1682
▁yaşadığı	-10.1687
▁kuzey	-10.1691
▁trilyon	-10.171
▁isteme	-10.1712
Y	-10.1712
▁kocaman	-10.1712
▁şirketlerin	-10.1713
▁beceri	-10.1717
▁hizmeti	-10.1717
▁Bi	-10.1726
▁takımı	-10.1736
▁not	-10.1738
▁Kendisi	-10.1738
▁falan	-10.174
▁biliyordum	-10.174
▁çatışma	-10.1747
▁tasarımı	-10.1747
▁bitkiler	-10.1758
▁şüphe	-10.1764
ılıyor	-10.1765
▁yapıp	-10.1766
▁saç	-10.1767
▁Yer	-10.1767
▁izleme	-10.177
▁Küresel	-10.1773
▁öne	-10.1777
▁buradan	-10.1778
▁Kaliforniya	-10.1778
▁bireysel	-10.178
▁oyuncak	-10.1781
▁Ön	-10.1782
▁kuralları	-10.1783
▁teknolojisi	-10.1783
▁geçer	-10.1784
▁ahlak	-10.1786
▁vereceğim	-10.1791
▁savunma	-10.1791
▁geliştir	-10.1793
▁kazandı	-10.1795
▁özgü	-10.1803
▁toplama	-10.1813
▁Ar	-10.1817
▁baktım	-10.1817
▁istedikleri	-10.1821
▁tren	-10.1825
▁olaylar	-10.1827
▁kaba	-10.1835
▁ürünleri	-10.1839
▁sormak	-10.1839
▁yeteneği	-10.1843
▁başlayalım	-10.1847
▁sakin	-10.1848
▁söyleyebilirim	-10.1849
sidir	-10.1857
▁sat	-10.1859
▁diyorlar	-10.1864
▁anlatıyor	-10.1865
▁yönde	-10.1866
abilen	-10.1866
▁olmasıdır	-10.1867
▁tarzı	-10.1869
▁aldığı	-10.1873
▁eseri	-10.1877
▁olamaz	-10.1879
▁cesaret	-10.188
ut	-10.1881
▁zemin	-10.1886
▁Dan	-10.1892
▁ederler	-10.1894
▁düzenleme	-10.1898
▁böcek	-10.1899
▁dönüştü	-10.1902
▁kullanıcı	-10.1903
▁hastalığın	-10.1904
▁bahsedeceğim	-10.1915
▁çoğunluğu	-10.1917
▁ırk	-10.1918
▁başı	-10.1925
▁neyi	-10.1926
▁duydum	-10.1926
▁şehirde	-10.1926
▁tersine	-10.1928
lenen	-10.1929
▁yapılar	-10.193
▁söylediğim	-10.1935
yacağım	-10.1937
▁özellikleri	-10.1947
▁fayda	-10.1953
▁kaçır	-10.1954
▁Vi	-10.1961
▁eksik	-10.1962
▁ni	-10.1965
▁altındaki	-10.1966
▁zamanında	-10.1969
▁hikayesini	-10.1972
▁dünyası	-10.1977
▁işletme	-10.1977
kları	-10.1979
▁yaşadığımız	-10.1995
▁harcama	-10.1995
▁hissettim	-10.1995
▁bulundu	-10.1995
▁olacağız	-10.2004
▁katkı	-10.2007
▁geçiriyor	-10.2008
▁günün	-10.201
lemek	-10.201
düşünebilirsiniz	-10.2011
▁Lo	-10.2013
▁geçirdim	-10.2014
▁aylık	-10.2026
▁etrafta	-10.2029
▁üretmek	-10.203
▁müşteri	-10.2031
▁Bilgisayar	-10.2034
▁hissed	-10.2035
▁konuşmayı	-10.2038
ysanız	-10.2046
▁George	-10.2051
▁hapishane	-10.2052
▁Arap	-10.2058
▁ayında	-10.2059
▁diğerleri	-10.207
▁yasal	-10.2072
met	-10.2076
▁hareketleri	-10.2076
▁moda	-10.2076
▁yolunda	-10.208
▁Po	-10.2089
▁kolayca	-10.2092
▁tutar	-10.2096
▁rapor	-10.2101
▁düşündüğüm	-10.2103
yordu	-10.2111
▁taşı	-10.2112
▁kapasite	-10.2113
▁ilaçlar	-10.2114
▁as	-10.2115
▁oranında	-10.2117
▁giy	-10.2118
▁biriydi	-10.2119
▁blok	-10.212
▁özgürlük	-10.2121
▁dinle	-10.2121
▁bağımlı	-10.2123
▁eğlence	-10.2126
mıştır	-10.2126
▁Hey	-10.2127
▁yolları	-10.2133
▁sahipler	-10.2135
▁Si	-10.2136
▁benze	-10.2137
▁olmasa	-10.2141
▁alanlarda	-10.2147
▁kişilik	-10.2151
▁değerlendirme	-10.2156
mıyoruz	-10.2168
▁yazdım	-10.217
▁yaratır	-10.217
▁ücret	-10.2179
larımızda	-10.2185
ünün	-10.2188
▁Herhangi	-10.219
▁organize	-10.2191
▁Hala	-10.2191
▁organik	-10.2193
▁başkanı	-10.2193
tür	-10.2195
▁çıkarıyor	-10.22
miyorum	-10.2202
▁söyley	-10.2206
▁ailem	-10.2207
▁görünmez	-10.221
▁yaka	-10.2216
▁krizi	-10.2224
▁öz	-10.2224
tığını	-10.223
▁gezegenin	-10.2232
▁liderlik	-10.2242
▁Ja	-10.2247
▁artıyor	-10.2259
▁iğne	-10.226
▁şok	-10.226
▁Zaman	-10.2261
▁taraf	-10.2262
▁istemiyorum	-10.2264
▁Sanat	-10.2265
▁döngü	-10.2268
▁dakikada	-10.227
emez	-10.2273
▁erkeklerin	-10.2275
▁seviyor	-10.2276
▁aldığımız	-10.2279
▁İşin	-10.2288
▁koymak	-10.229
▁oran	-10.2294
▁diş	-10.2295
▁bağlantılı	-10.2302
▁150	-10.2312
▁Yo	-10.2312
▁kır	-10.2315
nızda	-10.2317
▁oyuncu	-10.2318
▁problemleri	-10.2318
▁koku	-10.2325
▁kulak	-10.233
▁Avustralya	-10.2331
▁Eylül	-10.2331
▁Sosyal	-10.2331
▁sıradışı	-10.2333
▁karınca	-10.2333
▁alıntı	-10.2345
▁se	-10.2345
▁ürünler	-10.235
▁hisseder	-10.2353
ümüz	-10.2358
▁kör	-10.2358
▁çatı	-10.2361
▁kullanıyorlar	-10.237
▁üstesinde	-10.237
▁geldim	-10.238
▁çevir	-10.2383
nizde	-10.2384
ad	-10.2394
lendir	-10.2399
▁meşgul	-10.2403
▁kalite	-10.2408
gun	-10.241
▁İslam	-10.2411
▁Li	-10.2416
▁teknolojiler	-10.242
▁iste	-10.2426
ılır	-10.2429
▁oradaki	-10.2432
▁gidecek	-10.2435
mayan	-10.2436
▁günlerde	-10.2439
▁öğret	-10.244
▁siyahi	-10.2441
leyerek	-10.2444
▁değişiklikler	-10.2447
▁maliyet	-10.2449
▁Za	-10.2449
▁kaynaklar	-10.245
▁yarış	-10.245
▁çöz	-10.2458
▁Gör	-10.2463
▁uyan	-10.2469
▁Biliyor	-10.247
▁Paul	-10.2472
▁kategori	-10.2475
▁görülen	-10.2475
▁umarım	-10.2475
▁Neredeyse	-10.2475
▁ekmek	-10.2477
▁baktı	-10.2478
▁söyledim	-10.2479
▁Bilgi	-10.248
▁hızı	-10.2481
▁ofis	-10.2483
▁renkli	-10.2486
▁ortamda	-10.2487
nuzu	-10.2492
▁Kanada	-10.2497
▁kızlar	-10.2497
▁bulut	-10.2513
layın	-10.2516
▁kariyer	-10.2517
madan	-10.2521
▁zihin	-10.2523
▁olursanız	-10.2523
▁kullanır	-10.2525
layıcı	-10.2525
▁istemez	-10.2529
▁lider	-10.2531
▁düzeyde	-10.2531
▁çal	-10.2533
▁35	-10.2535
▁Konuşma	-10.2543
ıyorlar	-10.2546
▁Babam	-10.2547
▁sohbet	-10.2547
▁korkutucu	-10.2547
▁testi	-10.2548
▁oturup	-10.255
▁Savaşı	-10.2555
▁kullanabiliriz	-10.2555
com	-10.2564
mizle	-10.2568
▁Los	-10.257
▁Har	-10.2572
▁yöne	-10.2573
ıldığında	-10.2579
▁ilişkiler	-10.2579
sunu	-10.2582
▁söylediler	-10.2583
▁20.	-10.2583
▁Afrikalı	-10.259
liğine	-10.2594
▁Deniz	-10.2602
▁seri	-10.2606
▁memnun	-10.2609
▁haberler	-10.261
mis	-10.2611
▁kapat	-10.2613
▁satış	-10.2618
▁Darwin	-10.262
▁daim	-10.2624
▁düşen	-10.2629
▁mühendislik	-10.2629
▁bugünkü	-10.2633
▁çeker	-10.2633
▁çağı	-10.2634
▁deneyimi	-10.2639
▁olmam	-10.2643
▁etkileri	-10.2651
▁yarattı	-10.2653
▁sesini	-10.2655
▁kampanya	-10.2656
▁çerçeve	-10.266
▁tarif	-10.2664
▁bulduğumuz	-10.2671
ğe	-10.2672
▁açıyor	-10.2682
▁lise	-10.2684
▁cesur	-10.2686
▁anlıyor	-10.2687
▁çalışıyorlar	-10.2693
▁hayret	-10.2694
▁polen	-10.2695
▁keşfed	-10.2698
▁Beyin	-10.2698
▁öğretti	-10.2699
50	-10.2702
▁işleme	-10.2703
▁farkettim	-10.2711
▁projesi	-10.2713
▁değiştiren	-10.2713
▁ayakta	-10.272
▁tutma	-10.2721
▁Ke	-10.2722
▁yüzey	-10.2722
yıp	-10.2724
kta	-10.2726
▁yerleri	-10.2727
▁eğri	-10.2733
yecek	-10.2734
luyor	-10.2734
▁teknolojik	-10.2736
lendirme	-10.2742
maz	-10.2744
ıyordu	-10.2751
aj	-10.2753
yalım	-10.2758
▁tarihinde	-10.276
diğinde	-10.2764
▁dinamik	-10.2768
▁meyve	-10.2768
▁kaybı	-10.2768
▁benzeyen	-10.2768
▁tasarlanmış	-10.2769
▁sağlam	-10.2769
▁açma	-10.277
▁çıkarma	-10.2779
▁yön	-10.278
▁şirketleri	-10.2782
▁yaratan	-10.2784
▁çiçek	-10.2784
▁kişilerin	-10.2787
▁bakan	-10.2789
lılar	-10.279
ğin	-10.2792
▁iz	-10.2792
▁düşünüyordum	-10.2798
▁taşıma	-10.2798
dışı	-10.2801
▁İç	-10.2809
▁savaşı	-10.2813
▁Pa	-10.2814
▁ölçekte	-10.2816
▁gezi	-10.2821
ladı	-10.2822
▁Göz	-10.2823
▁kalır	-10.2824
▁temelde	-10.2833
▁45	-10.284
▁meslek	-10.2841
▁İnanılmaz	-10.2842
kal	-10.2843
▁teklif	-10.2844
▁süreçte	-10.2846
▁görebiliriz	-10.2848
▁zorluk	-10.2854
dunuz	-10.2859
▁mezun	-10.286
▁duruma	-10.2869
▁kıyı	-10.2873
▁süren	-10.2876
▁düzenli	-10.2876
Times	-10.2881
▁geçmek	-10.2884
▁öğrendiğim	-10.2884
▁Bill	-10.2891
▁babası	-10.2892
▁çekiyor	-10.2892
▁görmez	-10.2894
▁zorlu	-10.2895
▁kullandık	-10.29
▁anlaşma	-10.2903
▁geldik	-10.2905
▁Alman	-10.2905
▁yaşın	-10.291
▁şeylerle	-10.2912
▁bölgesinde	-10.2913
▁yörünge	-10.2916
▁alışveriş	-10.2918
▁gelmek	-10.292
▁durumlarda	-10.2921
▁dolayısıyla	-10.2922
▁dönüyor	-10.2926
▁ailesi	-10.2927
▁Sonuçta	-10.2927
▁dini	-10.2927
▁faydalı	-10.2929
ince	-10.293
▁yasak	-10.2932
▁peşinde	-10.2936
kinden	-10.2936
leyici	-10.2937
▁üreme	-10.2937
▁girişimci	-10.2939
▁Beş	-10.294
▁ettikleri	-10.2941
▁demokratik	-10.295
biriyle	-10.295
▁yönet	-10.2957
için	-10.2958
ğım	-10.296
ebil	-10.2963
▁soruları	-10.2973
dığında	-10.2973
▁gelmişti	-10.299
▁isterse	-10.2992
nüz	-10.2992
▁hayatım	-10.2993
▁Einstein	-10.2993
▁mucize	-10.2993
▁şaka	-10.2994
▁fon	-10.2995
rı	-10.2997
▁çoktan	-10.3
▁21.	-10.3
▁Merkezi	-10.3002
▁Gi	-10.3005
▁hücresi	-10.3006
▁Biliyoru	-10.301
izm	-10.3013
▁kamp	-10.3013
▁erişim	-10.3013
▁teknolojileri	-10.3018
▁ölme	-10.3024
▁bilinçli	-10.3024
▁Az	-10.3027
▁kolu	-10.3036
ll	-10.3038
▁75	-10.3042
araya	-10.3042
▁protein	-10.3044
▁ucunda	-10.3046
▁yargı	-10.305
malı	-10.3057
likten	-10.3068
▁ölüyor	-10.3069
▁sahte	-10.3069
▁edelim	-10.307
▁konum	-10.307
▁Pi	-10.307
▁mesajı	-10.3072
▁yapalım	-10.3073
▁lı	-10.3075
V	-10.3075
▁ediyordu	-10.3078
▁soy	-10.3083
PS	-10.3084
▁kısmında	-10.3086
▁tasarımcı	-10.3101
▁çabuk	-10.3105
▁Günümüzde	-10.3106
▁mekanizma	-10.3106
ot	-10.3107
▁sürüyor	-10.3109
liyor	-10.3111
▁Yaşam	-10.3121
▁teşhis	-10.3124
▁oyna	-10.3127
▁tanımlama	-10.3128
▁öfke	-10.3134
▁noktalar	-10.3135
▁Meksika	-10.3135
▁imza	-10.3136
▁Fransız	-10.314
▁İlki	-10.3142
mızdan	-10.3146
▁giri	-10.3148
▁mekanik	-10.3149
▁çalışarak	-10.3154
▁balon	-10.3161
ışı	-10.3162
▁kıl	-10.3163
▁kendim	-10.3164
▁deli	-10.3166
▁dediğim	-10.3167
▁Jam	-10.3168
▁üretiyor	-10.3176
▁As	-10.3178
▁merhamet	-10.3179
▁v	-10.3184
▁ettir	-10.3186
▁kıyasla	-10.3188
▁oluyorlar	-10.3192
▁ideal	-10.3195
▁Aile	-10.3196
▁delik	-10.3197
▁projeler	-10.3197
▁elle	-10.3198
▁pa	-10.3199
ard	-10.3201
▁arttı	-10.3208
▁ordu	-10.3215
▁aptal	-10.3217
▁diğerine	-10.3217
▁görmüş	-10.3223
▁göç	-10.3223
▁geçmişte	-10.3224
▁yardımı	-10.3231
▁yarattığı	-10.3231
▁kalmak	-10.3236
lerimizde	-10.3236
▁düşünen	-10.3237
▁sistemini	-10.3238
▁yapın	-10.3238
memiz	-10.3244
▁tahta	-10.3246
▁Ze	-10.3247
ac	-10.3248
▁um	-10.3249
olog	-10.325
▁kontrolü	-10.3258
larınız	-10.326
▁Go	-10.3262
▁depo	-10.3265
▁Açık	-10.3265
▁arabalar	-10.3266
ciler	-10.3273
▁getirdiği	-10.3278
▁Soru	-10.3288
mez	-10.3292
nuz	-10.3294
landığı	-10.3296
▁prototip	-10.3302
ırsınız	-10.3302
▁kırsal	-10.3304
▁ediyorsunuz	-10.3313
▁Fi	-10.3316
▁çalışmayı	-10.3317
▁katkıda	-10.3321
dınız	-10.333
▁sonuçta	-10.3333
▁edeceğim	-10.3339
▁takdir	-10.3346
▁toplumda	-10.3348
ırken	-10.3348
▁gelin	-10.3353
▁düşüyor	-10.3359
inizin	-10.3359
▁gibidir	-10.336
riyi	-10.3364
▁fa	-10.3365
▁kalacak	-10.3368
▁düzen	-10.3369
▁Nijerya	-10.337
▁kendimiz	-10.3372
▁To	-10.3375
▁karikatür	-10.3377
▁Fa	-10.3378
▁Savaş	-10.3378
▁bedava	-10.3381
▁kütüphane	-10.3381
▁pozitif	-10.3381
▁macera	-10.3381
▁21	-10.3381
▁tanıştım	-10.3381
▁birbirleriyle	-10.3383
▁heykel	-10.339
▁bıraktı	-10.339
İ	-10.3392
▁Okul	-10.3394
▁Mu	-10.3396
▁kullanabilir	-10.3398
▁atık	-10.34
▁algılama	-10.3401
▁paket	-10.3403
lamaya	-10.3404
▁sanayi	-10.3405
▁oluşur	-10.3409
▁edebiliyor	-10.3412
ılabilir	-10.3413
▁stres	-10.3415
▁bırakmak	-10.3418
▁ağaçlar	-10.3419
▁oturuyor	-10.342
madı	-10.3422
▁söyleyebilir	-10.3424
▁sorumluluk	-10.3424
▁hiçbiri	-10.3426
▁İran	-10.3427
▁sözü	-10.3431
▁unutma	-10.3432
▁Ak	-10.3435
▁ardı	-10.3436
▁uğra	-10.3437
od	-10.3438
▁kurumlar	-10.3439
▁döndüm	-10.3439
▁ulus	-10.3439
▁kahraman	-10.344
yacak	-10.3441
▁konuşacağım	-10.3449
▁ceza	-10.3451
▁doktora	-10.3454
▁MIT	-10.346
▁Yüksek	-10.346
▁mutlak	-10.346
▁sigara	-10.346
▁Fransa	-10.3461
▁üretme	-10.3463
▁ihtimali	-10.3466
▁eşsiz	-10.3466
▁cihazı	-10.3472
▁par	-10.3474
uantum	-10.3475
▁uğraş	-10.3477
▁sizden	-10.3477
▁Mısır	-10.3477
▁es	-10.3478
▁biçimi	-10.3483
▁sorma	-10.3488
syon	-10.3493
▁sınırları	-10.3496
ite	-10.3497
▁yarışma	-10.3497
▁oyunları	-10.3499
▁bulur	-10.3499
▁gördüğü	-10.3513
▁Jo	-10.3522
ebilmek	-10.3522
▁yapmanız	-10.3524
▁kablo	-10.3529
▁basın	-10.3534
▁ulaşma	-10.3536
▁mekan	-10.3536
▁Richard	-10.354
▁dehşet	-10.354
▁cadde	-10.354
▁kilise	-10.3542
▁bölgelerde	-10.3544
isi	-10.3544
▁okulu	-10.3547
▁tatil	-10.3548
▁bahsediyorum	-10.3549
▁değişiyor	-10.3553
▁Müslüman	-10.3553
▁çözme	-10.3558
▁soyut	-10.3559
▁kahkahalar	-10.356
▁bilgiler	-10.3566
▁gitmeye	-10.3566
▁sorduk	-10.3571
▁konuşan	-10.3575
▁tipik	-10.3576
▁faaliyet	-10.3579
▁larda	-10.358
▁anlattı	-10.3581
▁platform	-10.3582
▁iyidir	-10.3583
▁diyordu	-10.3584
ban	-10.3586
,	-10.3588
▁bakacak	-10.3595
▁dün	-10.3605
▁konferans	-10.3608
sta	-10.3609
▁topluluğu	-10.3609
▁çalıştı	-10.3611
▁malzemeler	-10.3611
▁iyisini	-10.3612
ınız	-10.3615
▁Washington	-10.3621
▁kömür	-10.3621
▁restoran	-10.3621
▁NASA	-10.3621
▁şeyle	-10.3621
▁kısaca	-10.3623
▁Anders	-10.3624
▁izliyor	-10.3624
▁tanıyor	-10.3628
kleri	-10.3628
▁okur	-10.3629
▁duyarlı	-10.3633
▁onay	-10.3636
üyor	-10.3637
▁oluyordu	-10.3637
▁özellikler	-10.364
▁bilmiyordum	-10.364
leştirme	-10.3641
landır	-10.3643
ilir	-10.3644
▁anında	-10.3644
▁ayna	-10.3649
laştı	-10.3651
▁balina	-10.3655
▁oynat	-10.3659
▁saçma	-10.3659
▁canlandır	-10.3662
▁çekti	-10.3666
▁bilinç	-10.3669
per	-10.3672
▁şefkat	-10.3674
▁çıkmış	-10.3678
dıklarını	-10.3679
meli	-10.3679
▁insani	-10.3684
▁çıkış	-10.3685
▁tutuyor	-10.3692
▁başlangıcı	-10.3695
ırız	-10.3696
lim	-10.3696
▁Adı	-10.3699
▁İlginç	-10.3702
▁Allah	-10.3704
▁TV	-10.3704
0.000	-10.3705
▁2008	-10.3706
dığınız	-10.3707
▁başar	-10.371
▁asker	-10.371
▁etmenin	-10.3711
▁trafik	-10.3711
▁savaşın	-10.3721
▁Sonrasında	-10.3722
▁deneyler	-10.3726
▁ser	-10.373
▁yapmıyor	-10.3732
▁birbirimize	-10.3739
ebilen	-10.3743
likte	-10.3743
▁ulaşım	-10.3744
▁göçmen	-10.3746
▁içe	-10.375
▁ekoloji	-10.3751
▁tamir	-10.3751
▁kütle	-10.3765
▁pencere	-10.3767
▁inanma	-10.3768
▁zorundasınız	-10.3769
▁geçirmek	-10.3779
▁değişken	-10.3783
▁Harvard	-10.3784
▁Hikaye	-10.3784
▁görürüz	-10.3784
▁olabiliriz	-10.3785
layabil	-10.3785
▁bilimin	-10.3787
▁büyüyen	-10.3787
▁oynama	-10.3792
▁ayır	-10.3802
▁internette	-10.3807
▁öykü	-10.3808
▁gittiğini	-10.3811
acaktır	-10.3812
▁miyim	-10.3819
▁maymun	-10.3819
▁ter	-10.3821
▁22	-10.3826
▁bazılarını	-10.3827
▁Birisi	-10.3829
▁hükümeti	-10.383
▁köşe	-10.3831
miştir	-10.3831
▁normalde	-10.3835
▁yeteri	-10.3839
hr	-10.3844
▁anlayış	-10.385
▁problemler	-10.3852
▁Oh	-10.3853
▁yatak	-10.3856
▁bulduğum	-10.3857
▁herkesi	-10.3864
▁Angeles	-10.3867
▁hücrelerin	-10.3868
▁Temel	-10.387
▁dokun	-10.3871
▁kullanılıyor	-10.3873
▁matematiksel	-10.3874
▁tarihte	-10.3878
▁uzmanı	-10.3879
▁evi	-10.3882
▁komşu	-10.3887
mizden	-10.389
▁dokunma	-10.3891
▁konular	-10.3892
▁istiyordum	-10.3897
▁şekilleri	-10.3897
ğu	-10.3899
▁kadınlara	-10.39
▁riski	-10.3901
▁veriyorlar	-10.3902
▁tanış	-10.3904
▁kültürü	-10.3904
▁organizma	-10.3914
tra	-10.3915
▁değerleri	-10.3917
▁Sol	-10.3918
▁Konu	-10.392
▁girişim	-10.3921
▁otur	-10.3922
▁kesim	-10.3928
▁çıktığı	-10.3931
▁haritası	-10.3932
▁konuşuyor	-10.3935
▁yararlı	-10.3935
ledi	-10.3936
▁tersi	-10.3936
▁belge	-10.3936
▁baktık	-10.3939
▁lik	-10.394
▁elimde	-10.3942
▁kardeşim	-10.3947
ımda	-10.3947
▁sesler	-10.3947
▁kazanma	-10.3949
▁Ekonomi	-10.395
▁akciğer	-10.395
▁Amazon	-10.3951
▁halkı	-10.3951
rak	-10.3953
▁söylen	-10.3956
▁otobüs	-10.3959
▁Bizi	-10.3961
▁üreten	-10.3962
▁kurduk	-10.3969
▁işçi	-10.3974
▁resme	-10.3975
▁Toplum	-10.3976
▁akım	-10.3982
ıldığı	-10.3983
▁etkiler	-10.3985
▁Hayal	-10.3985
larımıza	-10.3993
nizle	-10.3993
▁yapabilecek	-10.3996
▁rengi	-10.4003
▁çıkmak	-10.4012
ral	-10.4014
▁yuva	-10.4017
▁öğrencisi	-10.4018
▁sa	-10.4029
▁işle	-10.4033
▁borç	-10.4034
▁Merhaba	-10.4034
▁ayağa	-10.4035
▁düşünürseniz	-10.4036
▁ölen	-10.4038
▁şeklini	-10.4043
▁kaldım	-10.4043
▁oldular	-10.4043
▁mimar	-10.4048
▁düş	-10.405
▁kurtarma	-10.4051
lanabilir	-10.4051
▁götürdü	-10.4054
▁olabiliyor	-10.4055
▁duygusu	-10.4056
▁kullanılabilir	-10.4059
▁odaklan	-10.406
leşiyor	-10.4062
▁görü	-10.4065
▁alanın	-10.4068
▁doğu	-10.4068
▁gören	-10.407
U	-10.4078
▁gürültü	-10.4079
▁gösterdiğim	-10.408
diğinizde	-10.4082
▁zamanın	-10.4088
ire	-10.409
▁yaşındaydı	-10.4093
ül	-10.4093
cü	-10.4108
▁Bil	-10.4111
▁değilse	-10.4112
ası	-10.4112
▁saniyede	-10.4113
▁yapısını	-10.4116
şa	-10.4116
▁getirebilir	-10.4117
▁yarıyor	-10.4118
▁mahkeme	-10.4119
▁empati	-10.4119
▁görülüyor	-10.4119
▁kalıcı	-10.412
▁patent	-10.4122
▁Tanrım	-10.4124
ğimiz	-10.4128
▁kok	-10.4128
▁ağrı	-10.414
▁inşaat	-10.4142
▁çalıştır	-10.4144
▁Altı	-10.4154
▁avukat	-10.4156
▁duyar	-10.416
▁yaparlar	-10.4162
▁Rus	-10.4164
▁gösterdiği	-10.4165
▁Sal	-10.4166
▁gözleri	-10.4173
▁gizem	-10.4185
▁yapabilmek	-10.419
amazsınız	-10.4191
▁eriş	-10.4193
▁Tasarım	-10.4193
▁uzaktan	-10.4198
▁ticaret	-10.4202
▁fotoğraflar	-10.4202
▁teslim	-10.4204
▁elbise	-10.4204
▁Dört	-10.4205
▁işini	-10.4205
▁etkileyen	-10.4206
▁hamile	-10.4208
▁buyuk	-10.4208
▁bant	-10.4209
▁araştırmalar	-10.421
▁gelişen	-10.4211
▁lerin	-10.4212
▁yapmalıyız	-10.4213
▁döner	-10.4222
12	-10.4229
leştirilmiş	-10.4233
▁işlerini	-10.4234
mesine	-10.424
▁Araba	-10.4241
▁olmama	-10.4243
▁açı	-10.4246
▁öğretmenler	-10.425
▁sunuyor	-10.4255
▁sisteminin	-10.4258
▁sona	-10.426
▁yapısı	-10.4261
▁Tom	-10.4261
▁bakmaya	-10.4274
▁nehir	-10.4276
▁bekler	-10.4281
har	-10.4284
▁güzellik	-10.4288
▁büyüleyici	-10.4291
▁çarpıcı	-10.4293
▁Web	-10.4293
▁ilacı	-10.4294
ladık	-10.4297
▁hile	-10.4298
▁23	-10.4302
▁rüya	-10.4305
▁tamamıyl	-10.4308
bilir	-10.4311
▁halkın	-10.4312
ja	-10.4313
▁çekim	-10.4315
▁sanatı	-10.4316
▁Başkan	-10.4318
▁edilme	-10.4321
▁kanun	-10.4324
▁he	-10.4324
▁Cha	-10.4327
▁bayan	-10.4329
fer	-10.4332
▁öngörü	-10.4334
▁İnsanları	-10.4335
▁küme	-10.434
▁1000	-10.4345
▁dua	-10.4347
iyordu	-10.4347
▁ayda	-10.4348
▁depresyon	-10.4348
▁sisteme	-10.435
▁sar	-10.4351
abileceğini	-10.4352
▁arttır	-10.4353
▁sınıfta	-10.4355
▁gerekti	-10.4365
▁tarafa	-10.4366
▁kurum	-10.4368
▁inancı	-10.4368
▁Kore	-10.437
▁düzelt	-10.4372
▁görüntüler	-10.4373
▁geleceğin	-10.4373
ilmesi	-10.4375
▁eşi	-10.4378
▁Charles	-10.4378
▁2010	-10.4379
▁tarama	-10.4385
▁azalt	-10.4385
▁fikirlerin	-10.4386
▁gelenek	-10.4387
▁klasik	-10.4393
▁başlay	-10.4395
▁On	-10.4398
▁kitaplar	-10.4399
▁atmosfer	-10.4401
▁annesi	-10.4403
▁duyduğumuz	-10.4406
şı	-10.4411
▁soruyor	-10.4413
▁şart	-10.4414
▁ilgisi	-10.4418
▁gazeteci	-10.4419
▁açığ	-10.4422
▁Gel	-10.4424
▁yapmam	-10.4424
▁çevresinde	-10.4426
▁yerin	-10.4431
▁hastalıkları	-10.4437
▁obje	-10.4438
▁Veya	-10.4442
▁hastaların	-10.4446
▁değerler	-10.4448
lıyım	-10.4457
▁sinyal	-10.4464
▁Şey	-10.4468
▁onlarda	-10.4468
▁CO	-10.4468
▁versiyonu	-10.4471
▁söyleyecek	-10.4481
▁başlayacak	-10.4482
sıdır	-10.4485
▁doktorlar	-10.4486
görebiliyorsunuz	-10.4489
▁kitapları	-10.449
meyecek	-10.4492
manın	-10.4493
▁teki	-10.4495
▁aldığım	-10.45
▁geride	-10.4506
▁em	-10.451
▁hepsinin	-10.4513
▁girer	-10.4515
▁ayakkabı	-10.4517
▁pazarlama	-10.4518
ff	-10.4519
▁kasaba	-10.452
▁kullanabileceği	-10.4525
▁enerjisi	-10.4527
▁do	-10.4532
▁yazarı	-10.4537
▁durdur	-10.4539
▁sorgu	-10.454
▁düşünüyorsunuz	-10.4541
▁üstü	-10.4544
lerimize	-10.4545
▁türleri	-10.4548
ebileceğiniz	-10.4549
▁düşünür	-10.4549
▁Roma	-10.4552
▁gidebilir	-10.4553
▁dördüncü	-10.4554
▁kaçınılmaz	-10.4554
▁Kan	-10.4557
▁seferinde	-10.4559
▁git	-10.456
▁kurgu	-10.4566
▁sıcaklık	-10.4569
▁tutan	-10.4571
▁güvenliği	-10.4574
▁kaza	-10.4578
▁aktar	-10.458
▁küre	-10.4582
▁Car	-10.4585
▁Wi	-10.459
▁düşüncesi	-10.4592
▁duyuyor	-10.4593
▁geçirme	-10.4595
▁özgün	-10.4598
▁koyun	-10.46
▁sokak	-10.4605
lanacak	-10.4606
▁Kur	-10.4607
▁dinleme	-10.461
▁noktaları	-10.4612
▁tabaka	-10.4612
ımızın	-10.4613
ğında	-10.4617
▁hediye	-10.462
▁müziği	-10.462
▁üyesi	-10.4621
▁vaka	-10.4623
▁nüfusun	-10.4623
ğümüz	-10.4626
▁tanıdık	-10.4627
▁detay	-10.4629
▁lisans	-10.4631
▁iniş	-10.4635
muyor	-10.4637
▁gülüşmeler	-10.4643
▁Cevap	-10.4643
▁ötürü	-10.4643
▁Obama	-10.4643
▁Internet	-10.4643
▁açar	-10.4643
▁gördünüz	-10.4644
▁sok	-10.4644
▁yapılacak	-10.4645
▁Or	-10.465
▁dosya	-10.4652
▁ötesin	-10.4656
▁kuruyor	-10.4658
▁açan	-10.4659
▁direkt	-10.466
▁Rusya	-10.4661
▁kimlik	-10.4661
▁liderler	-10.4666
▁çalışanları	-10.4671
▁istediğini	-10.4675
▁kalın	-10.468
lması	-10.4681
▁Gu	-10.4686
▁çağ	-10.4686
▁fotoğrafları	-10.4691
▁çoğal	-10.4695
mar	-10.4698
▁tekne	-10.4702
▁bildiğim	-10.4702
▁onda	-10.4703
irken	-10.4712
amayacak	-10.4712
▁modeller	-10.4713
▁ayn	-10.4714
▁keşfetmek	-10.4715
▁gelmesi	-10.4717
▁anladı	-10.4717
▁Bar	-10.4725
▁etkisini	-10.4728
ğini	-10.4732
▁şahit	-10.4733
▁yirmi	-10.4733
▁ayrıntı	-10.4733
▁iPhone	-10.4734
▁oranları	-10.4737
▁konuştuk	-10.4738
▁adil	-10.4738
▁oturan	-10.4741
▁şimdiki	-10.4742
▁öğrenir	-10.4742
▁biridir	-10.4743
▁vs	-10.4743
▁istiyorsunuz	-10.4743
▁aileler	-10.4744
▁kızın	-10.4745
▁Çalışma	-10.4747
▁haftada	-10.4748
▁olunca	-10.4748
▁oluş	-10.4749
▁çekildi	-10.4752
▁giderken	-10.4753
▁Hu	-10.4757
▁nesli	-10.4759
▁düzey	-10.4761
▁çiftlik	-10.4763
▁belir	-10.4765
▁27	-10.4766
▁Ri	-10.4767
meyen	-10.4768
▁tüketici	-10.4771
▁yay	-10.4772
▁ların	-10.4773
▁tümör	-10.4773
rerek	-10.4774
▁topu	-10.4774
▁sı	-10.4776
gan	-10.478
▁buluyor	-10.4785
▁sorusu	-10.4787
▁geçtik	-10.4787
amp	-10.4789
▁çıkacak	-10.4789
▁tanrı	-10.4791
▁mıydı	-10.4793
▁haberi	-10.4795
▁Senin	-10.4795
he	-10.4797
▁Film	-10.4799
ladığı	-10.4801
umu	-10.4805
▁sera	-10.4812
▁yavru	-10.4812
layabilir	-10.4814
▁kendisinin	-10.4817
▁görüşü	-10.4818
▁oynuyor	-10.4818
meyeceğim	-10.4821
▁uy	-10.4823
▁mağaza	-10.4824
▁market	-10.4824
▁limit	-10.4824
▁tatmin	-10.4825
▁kadınları	-10.4825
▁bakteriler	-10.4826
▁Açıkça	-10.4826
indeki	-10.4826
▁ücretsiz	-10.4826
▁Evren	-10.4828
ımın	-10.483
▁Böylelikle	-10.4834
▁alınan	-10.4837
▁öncesi	-10.4838
▁pi	-10.4839
▁kızım	-10.4844
▁farklılık	-10.4849
▁birey	-10.485
▁olursunuz	-10.4855
▁göze	-10.4857
▁aldılar	-10.4857
▁vadede	-10.4861
yorlar	-10.4862
▁resimde	-10.4871
▁harf	-10.4871
▁Ho	-10.4873
▁keşfettik	-10.4877
▁ko	-10.488
bil	-10.488
▁sız	-10.4884
▁uça	-10.4885
mayacak	-10.4887
▁oğlu	-10.4888
▁yazılmış	-10.4892
▁yetersiz	-10.4894
▁sistemine	-10.4896
▁parçasını	-10.4898
▁Kadınlar	-10.4898
▁modelleri	-10.4901
▁kendisine	-10.4902
leyecek	-10.4905
▁deneyi	-10.4905
▁anlar	-10.4907
▁görüntüsü	-10.491
▁bal	-10.4912
▁doğdu	-10.4912
▁Sana	-10.4914
▁197	-10.4916
▁göğüs	-10.4916
▁kalabalık	-10.4916
▁hidrojen	-10.4916
▁1990	-10.4916
▁sıkıntı	-10.4918
▁ikisini	-10.4921
▁vakti	-10.4922
▁yeme	-10.4923
▁ettiğiniz	-10.4923
▁artır	-10.4925
▁zinciri	-10.4925
▁ilişkileri	-10.4929
▁nüfusunu	-10.4935
▁bulunur	-10.4936
muştu	-10.4937
▁başlamıştı	-10.4938
▁yerleştir	-10.4946
▁etmez	-10.4948
▁istekli	-10.4949
▁yürüyüş	-10.4951
▁kararlar	-10.4952
▁mahkum	-10.4954
▁Ed	-10.4959
▁insanlığın	-10.4962
▁yapmaları	-10.4965
acağımız	-10.4977
▁bırakıyor	-10.498
▁Kendimi	-10.4982
▁BM	-10.4984
▁çocukken	-10.4985
▁sahnede	-10.4987
▁aday	-10.4987
▁sektör	-10.4988
ang	-10.4991
▁kalem	-10.4992
gra	-10.4996
▁edilir	-10.4996
cilik	-10.5008
▁Kötü	-10.5008
▁futbol	-10.5008
▁garanti	-10.5008
▁Ardında	-10.5009
▁düşünelim	-10.501
▁bitirmek	-10.5011
▁kapan	-10.5012
larımdan	-10.5013
▁taşıyan	-10.5014
▁alıyorlar	-10.5019
rma	-10.5019
▁buluş	-10.5019
amayız	-10.502
dığınızda	-10.5021
▁99	-10.5022
▁kutup	-10.5025
layabiliriz	-10.5029
▁Kaç	-10.5032
▁potansiyeli	-10.5033
amıyor	-10.504
▁geçtiğimiz	-10.5044
▁dersiniz	-10.5049
oz	-10.5051
▁kaynaklı	-10.5054
▁Yıllar	-10.5061
▁teknolojiye	-10.5066
lıkla	-10.5066
▁yüzünü	-10.5066
miyoruz	-10.5068
duğunu	-10.507
ev	-10.507
▁duymak	-10.5071
▁gençler	-10.5083
sindeki	-10.5086
▁karıştır	-10.5089
▁ölümün	-10.5098
▁ilkel	-10.51
▁çözümü	-10.5101
▁söylemeye	-10.5101
▁kurulu	-10.5101
▁Pakistan	-10.5102
▁olumsuz	-10.5102
▁geçici	-10.5106
▁eğit	-10.5107
▁sun	-10.5109
ram	-10.5109
▁Devletleri	-10.5112
▁dinlemek	-10.5114
▁üretimi	-10.5123
tif	-10.5127
▁köle	-10.5131
▁tanesini	-10.5134
ırlar	-10.5135
acaba	-10.5137
▁kavram	-10.5138
▁geldiler	-10.5139
▁zararlı	-10.5145
▁yeti	-10.5147
ow	-10.5149
▁öğrencilerin	-10.515
▁makineler	-10.5153
▁yaklaş	-10.5154
▁deme	-10.5166
▁sahipti	-10.5166
▁öneri	-10.5171
▁zirve	-10.5174
▁ölçek	-10.5175
▁çöl	-10.5179
▁olacaklar	-10.518
▁hayvanları	-10.518
▁başlat	-10.5181
▁yoldan	-10.5181
▁gölge	-10.5182
▁Ber	-10.5189
▁ulaş	-10.5191
▁kazanmak	-10.5193
ollywood	-10.5196
▁1980	-10.5197
▁öğreniyor	-10.5197
▁gözü	-10.5198
▁gerçekleşen	-10.52
abilirim	-10.5203
▁vermiş	-10.5207
▁görebileceğiniz	-10.5208
▁operasyon	-10.5209
▁durdu	-10.5213
▁hakim	-10.5215
▁zihni	-10.5215
▁posta	-10.5215
▁varlığı	-10.5217
▁hizmetleri	-10.5217
▁rastla	-10.5224
▁uyarı	-10.5225
▁senaryo	-10.5231
▁Te	-10.5232
▁sürecin	-10.5232
▁görebilir	-10.5236
▁içeriyor	-10.524
▁fi	-10.5255
▁İsveç	-10.5262
▁önde	-10.5268
▁katıl	-10.5273
▁çalışmanın	-10.5278
ney	-10.5278
▁etiket	-10.528
▁çizim	-10.5281
▁iyisi	-10.5284
▁olduğunun	-10.5285
▁tecavüz	-10.5292
▁Apple	-10.5292
▁Beyaz	-10.5292
▁getirdik	-10.5292
▁1960	-10.5292
▁Paris	-10.5293
▁meme	-10.5294
▁h	-10.5297
▁binalar	-10.5299
▁kılan	-10.53
▁çeşitlilik	-10.5302
ebilirim	-10.5302
▁büyü	-10.5302
▁mektup	-10.5307
▁amacıyla	-10.5312
▁Çevre	-10.5318
▁koyduk	-10.5318
▁balıkları	-10.5321
▁birileri	-10.5324
▁ke	-10.5328
▁enfeksiyon	-10.533
▁projenin	-10.533
▁içer	-10.533
ıyorum	-10.5333
▁zorundaydı	-10.5334
▁döneminde	-10.5338
▁dağıt	-10.5339
▁doğrusu	-10.534
▁kaybetme	-10.534
▁genom	-10.5348
ong	-10.5352
▁tık	-10.5356
▁savaşta	-10.5357
▁saatler	-10.5366
▁öncelikle	-10.5367
▁bekle	-10.5374
▁dayanıklı	-10.5378
▁çip	-10.5393
▁işlerin	-10.5394
▁uyumlu	-10.5394
▁kaybetti	-10.5394
▁Steve	-10.5397
▁sap	-10.5401
yorsunuz	-10.5405
▁Burda	-10.5408
▁çanta	-10.5408
▁demiş	-10.5409
▁ca	-10.5409
▁ruhu	-10.541
▁bilin	-10.5411
▁hayatımda	-10.5412
▁taşın	-10.5417
▁hikayeleri	-10.5423
raf	-10.5426
▁verdiğim	-10.5433
▁mantık	-10.5433
▁istey	-10.5434
▁puan	-10.5437
▁beğen	-10.5437
▁derdi	-10.5452
▁buzul	-10.5453
▁seviyesi	-10.5453
liler	-10.5457
▁yazıcı	-10.5462
▁Amerikalılar	-10.5471
▁198	-10.5472
▁üstün	-10.5472
▁fil	-10.5475
likleri	-10.5478
▁sayısını	-10.5478
▁kalanı	-10.5479
▁büyüklüğünde	-10.548
▁toplumu	-10.5481
▁üste	-10.5482
▁protesto	-10.5485
▁Michael	-10.5485
▁çocuğa	-10.5485
▁Francisco	-10.5485
▁tavuk	-10.5485
▁animasyon	-10.5486
▁gelmiyor	-10.5487
▁yaratıcılık	-10.549
▁ilerliyor	-10.5491
▁Nerede	-10.5492
0	-10.5493
▁Fo	-10.5494
▁türde	-10.5495
▁yoksul	-10.5495
▁yönetme	-10.5499
▁değiştirecek	-10.5506
▁kavramı	-10.5507
▁Esas	-10.5508
▁teorisi	-10.5508
▁ilgilidir	-10.551
▁karşılaş	-10.5517
▁durur	-10.5518
▁geçirdi	-10.5519
▁bölgesi	-10.5521
▁arıyor	-10.5524
▁yetenek	-10.5527
▁çalışıyordum	-10.553
id	-10.553
▁seçimler	-10.5546
▁Sta	-10.5546
▁ilerleye	-10.5562
ana	-10.5564
we	-10.5569
▁Baba	-10.5572
▁izlemek	-10.5572
▁ekibi	-10.5575
ınızı	-10.558
▁söyledikleri	-10.5581
▁Ana	-10.5582
manyetik	-10.5583
▁belirgin	-10.5583
▁ölümcül	-10.5583
▁kablosuz	-10.5583
▁You	-10.5585
▁boru	-10.5585
sızın	-10.5585
▁büyüt	-10.5585
▁Latin	-10.5585
▁Hasta	-10.5586
ara	-10.5587
▁ar	-10.559
▁hadi	-10.5595
ry	-10.5597
▁genişlet	-10.5597
▁heyecanlı	-10.5603
▁gözle	-10.5605
▁düşer	-10.5607
▁olmalıyız	-10.5608
▁atmak	-10.5608
▁maaş	-10.5608
▁sunum	-10.5612
▁Ara	-10.5613
▁etmesini	-10.5613
▁simetri	-10.5614
▁anti	-10.5616
▁ülkeleri	-10.5617
▁anlatmaya	-10.5627
▁karşılaştı	-10.5631
mla	-10.5632
▁Gece	-10.5635
▁yaşamış	-10.5646
▁rolü	-10.5647
▁ayağı	-10.5653
▁etmişti	-10.5654
▁Japon	-10.5657
▁telefonları	-10.5663
▁başladığı	-10.5665
▁Hepiniz	-10.5667
▁fırtına	-10.5668
ov	-10.5671
rayı	-10.5675
▁kaldık	-10.5675
▁hasar	-10.5675
▁man	-10.5681
▁Thomas	-10.5682
▁umuyorum	-10.5687
▁onlarca	-10.569
▁diyecek	-10.569
▁sayıları	-10.5692
▁olanları	-10.5696
▁yaşan	-10.5702
ris	-10.5702
▁kabile	-10.5717
▁düşünmemiz	-10.5719
ks	-10.5719
▁inceleme	-10.572
▁kullanmayı	-10.5721
▁açıklamak	-10.5722
▁oturma	-10.5724
▁araştırmacı	-10.5726
▁bilen	-10.5731
▁başlayabilir	-10.5741
▁otel	-10.5741
▁gönderme	-10.5742
▁İz	-10.5744
▁In	-10.5744
▁katılma	-10.5745
▁şekillerde	-10.5753
siydi	-10.5754
ss	-10.5757
▁göründüğü	-10.5757
▁gelmez	-10.5757
▁biçim	-10.5759
▁görür	-10.576
▁uzan	-10.5765
▁vazgeç	-10.577
▁üretken	-10.5771
lıkta	-10.5772
▁denk	-10.5773
▁muhtemel	-10.5773
▁yönünde	-10.5773
▁atma	-10.5776
▁kut	-10.5777
▁yapımı	-10.5778
▁c	-10.5781
▁algoritma	-10.5782
▁röportaj	-10.5782
▁millet	-10.5783
▁yönü	-10.5786
▁düşünerek	-10.5787
▁konuşurken	-10.5788
▁Hangi	-10.5788
▁dâhil	-10.5789
▁gri	-10.5792
lamaz	-10.5792
▁Wa	-10.5792
▁terör	-10.5794
▁Kafa	-10.5794
▁tüket	-10.5795
▁değişen	-10.5795
je	-10.5797
▁istiyorsak	-10.5797
▁okumak	-10.5807
▁denir	-10.5809
unuz	-10.5816
▁boz	-10.5819
▁uzunluğunda	-10.582
▁kalıp	-10.5821
▁istatistik	-10.5821
▁dersi	-10.5823
▁çalışmıyor	-10.5828
▁hayatımızı	-10.583
▁kaydı	-10.5832
▁yaşlanma	-10.5833
▁atıyor	-10.5836
▁seyirci	-10.5851
▁işlemi	-10.5855
▁ah	-10.5858
▁konuşmalar	-10.5859
▁gövde	-10.586
▁saldır	-10.586
▁grubun	-10.5862
▁yaşta	-10.5864
▁öğrencileri	-10.5867
▁ağzı	-10.5867
▁noktasında	-10.5869
▁erişimi	-10.588
▁geleceğ	-10.5882
▁pompa	-10.5883
▁bağışıklık	-10.5883
▁yönel	-10.5885
▁2007	-10.5887
▁çelişki	-10.5887
▁siyaset	-10.5888
▁çalışıyordu	-10.5888
▁edilemez	-10.589
▁mantar	-10.5895
▁toz	-10.5901
▁olmalıydı	-10.5902
▁gelmeye	-10.5903
▁niye	-10.5911
▁yarattık	-10.5915
▁yürüy	-10.592
▁odadaki	-10.5924
▁yapılma	-10.5924
▁kardeşi	-10.5925
▁topluma	-10.5926
▁orda	-10.5927
▁kazanan	-10.5928
▁Bildiğin	-10.5932
▁okyanusun	-10.5934
▁görüntüleme	-10.5934
▁Kara	-10.5935
▁seviyesinde	-10.5937
▁Seni	-10.5939
▁olmazdı	-10.5941
▁derler	-10.5943
▁savaşa	-10.5945
▁yaklaşımı	-10.5945
▁tutun	-10.5951
ktir	-10.5954
▁sonuc	-10.5955
▁davranışı	-10.5962
▁artışı	-10.5969
▁demişti	-10.5972
▁boşluk	-10.5977
▁yollarını	-10.5982
ymış	-10.5983
▁özgürlüğü	-10.5984
▁başla	-10.5984
alesef	-10.5985
▁efsane	-10.5985
▁roket	-10.5985
▁nasil	-10.5985
▁çamaşır	-10.5985
▁söylemeliyim	-10.5986
▁karşılıklı	-10.5986
▁desteği	-10.5987
▁bekleyen	-10.5992
▁Fe	-10.5993
▁biten	-10.6003
▁yapıyordu	-10.6004
▁detaylı	-10.6004
▁açlık	-10.6006
▁yaşı	-10.6011
▁olabilirler	-10.6011
▁co	-10.6012
gar	-10.6016
▁Robot	-10.6017
▁geliyorlar	-10.6018
▁Mary	-10.6019
meden	-10.6019
▁edebileceğiniz	-10.6021
▁şaşır	-10.603
manız	-10.6034
▁olasılığı	-10.6035
ymiş	-10.6036
▁mühendisliği	-10.6044
▁istemedi	-10.6062
imize	-10.6069
▁yarısını	-10.6076
▁bebekler	-10.6083
▁yerli	-10.6084
ütfen	-10.6088
▁dunya	-10.6088
▁bayağı	-10.6088
▁götür	-10.6092
▁değiştirir	-10.6092
hur	-10.6093
▁yaparız	-10.6097
▁inanıyoruz	-10.6097
▁atar	-10.6099
▁grip	-10.61
▁Oyun	-10.6102
sıl	-10.6108
▁Enstitüsü	-10.6108
▁okudum	-10.6112
ebileceğini	-10.6113
▁ilişkin	-10.6114
klerini	-10.6116
▁görülme	-10.6117
▁evrende	-10.6117
▁egzersiz	-10.6118
duğu	-10.6125
▁tuttu	-10.6129
▁söyleyeceğim	-10.6129
▁bahsed	-10.6132
les	-10.6135
▁öğrenmeye	-10.6136
▁odaklanma	-10.6137
▁üye	-10.6141
▁merdiven	-10.6145
▁farketme	-10.6147
▁evlilik	-10.6154
▁Kal	-10.6163
▁yaşar	-10.6164
▁doldur	-10.6177
▁ağın	-10.6182
▁çıkart	-10.6185
▁doğan	-10.6188
▁çocuklarımız	-10.6189
▁3.	-10.6189
▁değişimin	-10.6192
▁kavga	-10.6192
▁kuşlar	-10.6193
lenir	-10.6194
▁durup	-10.6197
▁evinde	-10.6197
ceği	-10.6198
▁özellik	-10.6204
▁kayda	-10.6206
▁yığın	-10.6207
▁ebeveyn	-10.6207
▁bilgisayarın	-10.621
▁getirecek	-10.621
▁programları	-10.621
▁Tahmin	-10.6218
▁Park	-10.6224
▁edersek	-10.6225
▁veriyorum	-10.6228
▁ad	-10.6228
▁Ek	-10.623
▁gid	-10.6236
▁eğilim	-10.6237
ucu	-10.6237
▁hatırlama	-10.6242
▁arabanın	-10.6244
▁resimleri	-10.6249
▁günler	-10.6252
▁pratik	-10.6253
▁söylüyorlar	-10.6253
▁başardık	-10.6259
▁belirsiz	-10.6261
▁genelinde	-10.6263
▁Art	-10.6264
▁Doktor	-10.6274
▁gittiği	-10.6275
▁milli	-10.628
▁dışındaki	-10.6282
▁oynar	-10.6282
▁yıldızlar	-10.6286
▁ekosistem	-10.629
▁ilgilen	-10.6292
▁ülkedeki	-10.6295
▁Sır	-10.6296
▁pembe	-10.6297
▁çirkin	-10.6297
▁protez	-10.6297
▁Pazar	-10.6298
riyoruz	-10.6298
▁dönelim	-10.6299
▁vereyim	-10.63
▁uygulan	-10.6301
▁gücüne	-10.6301
▁gerçekleşiyor	-10.6304
▁kitabın	-10.6304
▁bakıyoruz	-10.6314
▁açmak	-10.6315
leşik	-10.6317
▁65	-10.6317
▁kızların	-10.6318
▁gittiğimde	-10.6319
▁saha	-10.6319
▁olurlar	-10.632
▁oturur	-10.632
müz	-10.6326
▁sürücü	-10.633
ğını	-10.6333
▁avcı	-10.6334
▁tanımı	-10.6338
maları	-10.6339
▁gerçekliği	-10.6344
▁haberleri	-10.6354
▁bahseder	-10.6357
▁değiştirmeye	-10.6359
▁seçimi	-10.636
▁gerçekleşti	-10.636
▁yaşadığım	-10.6364
▁oynamak	-10.6365
▁Ölüm	-10.6371
▁utan	-10.6374
▁yen	-10.6378
▁arayüz	-10.6387
▁ekonomisi	-10.6393
▁yapabilme	-10.6393
▁başım	-10.6396
ft	-10.6397
▁yaptır	-10.6399
▁sorum	-10.6401
▁büyür	-10.6401
▁frekans	-10.6404
▁Önemli	-10.6404
▁Alzheimer	-10.6404
▁hariç	-10.6404
▁kompleks	-10.6404
▁şikayet	-10.6404
▁koruyucu	-10.6404
▁kafatası	-10.6404
▁kurtul	-10.6406
▁yolun	-10.6406
▁şiddetli	-10.6408
▁planlama	-10.6412
▁bariz	-10.6413
▁Wal	-10.6414
abiliyoruz	-10.6417
qu	-10.6418
▁dönen	-10.6419
iyorsunuz	-10.6421
▁faydalan	-10.6422
▁yazıyor	-10.6423
oloji	-10.6429
▁kazı	-10.6431
▁baz	-10.6433
▁örgüt	-10.6436
▁gücün	-10.6439
▁yapabileceğiniz	-10.644
▁arkasındaki	-10.644
yacağını	-10.6441
▁düşme	-10.6448
▁problemin	-10.645
▁etrafındaki	-10.6451
▁aletler	-10.6451
▁verebilir	-10.6452
▁ismini	-10.6456
▁öncesinde	-10.6461
▁düşünüyordu	-10.6463
rü	-10.6464
▁korkuyor	-10.6467
▁taşındı	-10.6468
▁anket	-10.6469
▁Am	-10.647
keresinde	-10.6477
▁nesneler	-10.648
▁düşüş	-10.6482
▁Birliği	-10.6482
dığımda	-10.6484
▁şirketin	-10.6487
acağımızı	-10.6488
▁kalmıyor	-10.6489
▁hayali	-10.6491
▁biliyorlar	-10.6491
▁Fark	-10.6498
▁dalış	-10.65
labilirsiniz	-10.65
▁maden	-10.65
▁büyüklüğü	-10.6501
▁zar	-10.6501
ligi	-10.6503
▁of	-10.6504
▁kılavuz	-10.6511
▁çıplak	-10.6511
▁Boston	-10.6511
▁şarap	-10.6511
▁nano	-10.6513
▁kayded	-10.6515
▁çelik	-10.6516
▁mülteci	-10.6517
▁ku	-10.6517
▁gönderiyor	-10.6522
▁bahsetme	-10.6522
▁Pan	-10.6524
▁güvende	-10.6525
▁türler	-10.6527
▁olabildiğin	-10.6528
▁edebilecek	-10.6529
cük	-10.653
▁nüfusu	-10.6534
▁iyileşme	-10.6535
▁gizemli	-10.6537
▁dir	-10.6539
▁çeşitliliği	-10.6541
▁suda	-10.6543
▁gidiyoruz	-10.6548
▁19.	-10.655
▁bulabilir	-10.655
▁bulunduğumuz	-10.6551
▁aşık	-10.6551
▁kent	-10.6555
▁görebiliyor	-10.6559
▁neşe	-10.656
▁yoksulluk	-10.6562
lemeye	-10.6562
▁elini	-10.6563
▁bakabilir	-10.6568
▁çoğumuz	-10.6568
▁amaçlı	-10.6573
▁Per	-10.6579
ron	-10.6581
▁yapabileceği	-10.6584
▁katlan	-10.6584
▁eşim	-10.6585
▁ihtimal	-10.6588
▁ö	-10.6597
▁şehirlerde	-10.6598
▁geliştirdik	-10.6599
▁direk	-10.6601
▁meselesi	-10.6604
▁Eve	-10.6605
▁ağlar	-10.6606
asyonu	-10.6608
▁otizm	-10.661
▁engeller	-10.661
▁bölgelerinde	-10.6616
▁gösterecek	-10.6619
▁Higg	-10.662
▁global	-10.662
▁yumuşak	-10.662
▁keskin	-10.662
▁göreceğiz	-10.662
▁pasif	-10.662
▁geleceğini	-10.6621
▁iyimser	-10.6624
▁Mavi	-10.6625
▁dost	-10.6626
▁fotoğrafçı	-10.6626
▁yiy	-10.6627
▁yaşıyorlar	-10.6628
▁kullandı	-10.6628
▁gerçekçi	-10.6628
▁duyuyorum	-10.6629
▁yaparsınız	-10.663
▁kötüsü	-10.6632
▁yazmak	-10.6633
▁başkalarının	-10.6639
▁eyalet	-10.6645
▁Birinci	-10.6647
▁görüntüleri	-10.6648
▁karşılaşma	-10.6648
▁sistemimiz	-10.6649
▁anlayışı	-10.665
▁Gün	-10.6652
▁etkiliyor	-10.6653
▁geçirir	-10.666
▁ağacı	-10.6663
▁Dur	-10.6673
for	-10.6678
ydü	-10.6679
▁tavan	-10.6692
▁kalk	-10.6694
nizden	-10.6695
▁zamanki	-10.6696
yip	-10.6699
▁araştır	-10.6704
▁belirt	-10.6708
▁edebilme	-10.6715
▁keşfetme	-10.6717
▁Gelecek	-10.6719
▁Mark	-10.672
▁boyutu	-10.6721
▁içme	-10.6728
▁kartı	-10.6729
▁Pasifik	-10.673
▁Yeşil	-10.673
▁gübre	-10.673
▁itiraf	-10.673
▁İklim	-10.673
▁yil	-10.6734
▁diyebiliriz	-10.6735
▁mutasyon	-10.6736
▁uzağ	-10.674
▁benzin	-10.6741
▁biriyle	-10.6744
▁tüp	-10.675
▁gelişimi	-10.675
▁tasarımcılar	-10.6754
üstü	-10.6755
▁ülkeye	-10.6755
▁çekilmiş	-10.6763
▁Yapma	-10.6763
▁davranma	-10.6763
▁sürme	-10.6769
▁koydum	-10.6772
▁ndan	-10.6774
▁sırt	-10.6774
▁Bende	-10.6776
▁havaya	-10.6777
▁işareti	-10.6779
▁izni	-10.6779
▁yönetimi	-10.6781
▁derken	-10.6782
▁devamlı	-10.6783
▁Şimdiye	-10.6785
▁fikrin	-10.6797
▁istediler	-10.6797
▁hızlandır	-10.6798
▁kuvvetli	-10.6801
▁dönmek	-10.6806
▁anlatır	-10.6811
▁dönüm	-10.6817
▁inanıyor	-10.6819
▁Ge	-10.682
▁terörist	-10.682
▁hisse	-10.6821
▁etmeniz	-10.6825
▁azaltma	-10.6826
▁görünüyordu	-10.6835
▁Gülüş	-10.6836
▁sola	-10.684
▁sürpriz	-10.6841
▁deprem	-10.6841
▁endüstriyel	-10.6841
▁cazibe	-10.6841
▁Kongre	-10.6842
▁utanç	-10.6843
▁gösterilen	-10.6844
▁Peter	-10.6844
▁görebiliyoruz	-10.685
▁hâline	-10.6855
▁Kral	-10.6855
▁temin	-10.6856
▁sorar	-10.6858
▁oyunun	-10.6859
▁çözmeye	-10.686
▁çıktık	-10.686
▁Yaptığımız	-10.6861
▁açıp	-10.6861
▁almayı	-10.6862
▁sevdikleri	-10.6865
▁baylar	-10.6866
▁bildir	-10.6867
gin	-10.6871
▁çoklu	-10.6873
ulmuş	-10.6873
▁hap	-10.6874
▁koca	-10.6879
▁kâr	-10.6883
▁Milletler	-10.6884
▁oturdu	-10.6884
▁ini	-10.6885
ınca	-10.6887
▁aşağıda	-10.6891
lisiniz	-10.6891
▁oğlum	-10.6891
▁ucu	-10.6893
▁kurtarmak	-10.6893
▁yanda	-10.6899
▁aşkın	-10.6904
▁varmış	-10.6909
larımın	-10.6909
▁hücrelerini	-10.691
▁boyutta	-10.6914
▁kazanıyor	-10.6915
▁2.	-10.692
▁oluştu	-10.6921
▁azalma	-10.6932
▁mobil	-10.6936
▁üyeleri	-10.6938
▁ci	-10.6938
▁öğretme	-10.6942
▁to	-10.6942
▁sağladığı	-10.6944
▁büyüyor	-10.6944
▁soyu	-10.6948
▁çarpma	-10.6949
▁biliyordu	-10.6953
▁beklenmedik	-10.6953
▁motivasyon	-10.6953
▁örümcek	-10.6953
▁fotograf	-10.6953
▁Fikir	-10.6953
▁sanmıyorum	-10.6954
▁1970	-10.6954
▁mısır	-10.6954
▁ispat	-10.6954
▁edeceğiz	-10.6959
▁kalmadı	-10.6961
▁oluşturduk	-10.6961
▁esnek	-10.6961
by	-10.6962
▁oluruz	-10.6962
▁demir	-10.6963
▁yönlendir	-10.697
▁başlattı	-10.6971
▁şehirlerin	-10.6974
▁babamın	-10.6975
sizlik	-10.6977
▁pilot	-10.6977
▁istersiniz	-10.6981
▁varlığını	-10.6981
▁Görüyorsun	-10.699
▁konularda	-10.6995
▁onur	-10.6998
▁Alan	-10.6998
lme	-10.7002
▁bulup	-10.7004
altı	-10.7005
▁eksikliği	-10.7006
▁yapıldığını	-10.7007
▁durumlar	-10.701
▁the	-10.701
▁kamyon	-10.701
▁Kısa	-10.7011
▁olmalıdır	-10.7012
▁lif	-10.7014
▁değişir	-10.7014
muzu	-10.7016
▁kay	-10.7018
▁don	-10.7018
menin	-10.7025
▁arar	-10.703
▁sunu	-10.7036
▁karbondioksit	-10.7036
▁kalitesi	-10.7037
emedi	-10.7049
▁oluşturdu	-10.7058
▁kurban	-10.7059
▁inanmak	-10.7063
▁oldugunu	-10.7063
imizde	-10.7064
▁istisna	-10.7067
▁orkestra	-10.7067
▁tedarik	-10.7067
▁intihar	-10.7067
▁radyasyon	-10.7067
▁tarayıcı	-10.7067
▁meşhur	-10.7067
▁gereği	-10.7067
unuzu	-10.7067
▁alkol	-10.7068
▁kullanışlı	-10.7069
▁izleyen	-10.7072
▁konuşur	-10.7072
din	-10.7072
▁ellerinde	-10.7074
▁Mc	-10.7074
▁metin	-10.7074
▁Kısaca	-10.7074
▁yapılabilir	-10.7075
▁slayt	-10.7075
▁olgu	-10.7079
▁etraf	-10.7079
▁mühendis	-10.7079
▁devrimi	-10.7079
▁tümü	-10.708
▁önemsiz	-10.7081
▁çılgınca	-10.7082
▁600	-10.7083
▁açıkçası	-10.7084
▁orası	-10.7085
▁sahil	-10.7087
şık	-10.7095
▁yapıyorsunuz	-10.7096
▁Eş	-10.7097
▁gelişti	-10.7097
▁şanslı	-10.7106
▁özü	-10.7106
berg	-10.7109
▁Hint	-10.7111
▁buradayım	-10.7113
liydi	-10.7121
▁sunmak	-10.7121
▁sil	-10.7122
▁oynay	-10.7122
lüyor	-10.7122
▁yetenekleri	-10.7123
▁yürüme	-10.7124
▁Martin	-10.7128
▁yapacağını	-10.7128
▁Yıl	-10.7129
▁ışığın	-10.713
▁öğrendiğimiz	-10.7134
▁zehir	-10.7139
▁bulmuş	-10.714
rat	-10.7141
▁tü	-10.7144
ıyorsunuz	-10.7146
▁refah	-10.7146
▁koşu	-10.7148
▁yanındaki	-10.7149
▁İster	-10.7155
▁ilişkili	-10.7156
▁yetenekli	-10.716
▁çıkması	-10.7164
müyor	-10.7169
▁yarın	-10.7173
▁beyninin	-10.7176
▁elleri	-10.7177
▁vermiyor	-10.7179
▁olmasından	-10.718
▁tartış	-10.7181
▁golf	-10.7182
▁orijinal	-10.7182
▁bilinmeyen	-10.7182
▁Vadisi	-10.7184
▁çözül	-10.7184
▁umuyor	-10.7185
▁başlangıçta	-10.7185
▁verildi	-10.7189
ladım	-10.7189
▁sihirli	-10.7191
▁Ni	-10.7194
▁İçinde	-10.7196
▁çıkarıp	-10.7199
▁dönemi	-10.721
▁yaşıyordu	-10.7212
▁vizyon	-10.7214
meleri	-10.7215
▁yatan	-10.7218
▁derinden	-10.7219
▁işlev	-10.7224
▁küçü	-10.7232
▁aileleri	-10.7233
▁Mar	-10.7234
Tub	-10.7234
▁Hep	-10.7241
▁masraf	-10.7247
▁pat	-10.725
landırma	-10.7262
▁duyduğum	-10.7264
tör	-10.7265
▁....	-10.7266
▁yapmakta	-10.7268
▁nı	-10.7269
lidir	-10.7269
imde	-10.7269
▁oyunlar	-10.7269
▁başladığımda	-10.727
laştırma	-10.7271
▁benlik	-10.7273
▁koşullar	-10.7273
▁tara	-10.7274
▁gidin	-10.7277
▁istediğimi	-10.7278
▁etik	-10.728
ilecek	-10.7283
▁Frank	-10.7284
▁örnekleri	-10.7286
▁topluyor	-10.729
▁hayatları	-10.729
▁hatırlıyor	-10.7293
bar	-10.7293
▁tırman	-10.7295
▁jenerasyon	-10.7298
15	-10.7298
▁online	-10.7298
▁sekil	-10.7298
▁Zor	-10.7299
▁Eminim	-10.73
▁taşır	-10.73
▁tasarımın	-10.7301
▁izledi	-10.7303
▁alması	-10.7304
▁harcay	-10.7305
▁dayanıyor	-10.7305
▁çekip	-10.7306
▁özür	-10.7308
▁ekranda	-10.7308
▁tasarlamak	-10.731
▁kararı	-10.7311
▁Doğal	-10.7311
▁uzat	-10.7312
▁anki	-10.7315
iyordum	-10.7317
▁etken	-10.7325
▁kısme	-10.7326
▁adeta	-10.7327
▁matematikçi	-10.7327
▁ortamı	-10.7333
▁göl	-10.7336
▁doğada	-10.7339
▁32	-10.7347
bur	-10.7348
▁kullandım	-10.7348
J	-10.7349
▁Üniversite	-10.735
▁roman	-10.7352
▁isterdi	-10.7353
▁Asla	-10.7354
▁Tur	-10.7355
▁yapıları	-10.7356
▁olasılık	-10.7358
▁kimliği	-10.7359
▁sinek	-10.7362
▁taşımak	-10.7362
▁Bin	-10.7365
▁insansız	-10.7368
▁sevme	-10.738
▁kanı	-10.7381
▁yapabiliri	-10.7383
▁hastalıkların	-10.7384
▁ciddiye	-10.7388
▁elma	-10.7388
▁duyduğunuz	-10.7389
▁öğrenebilir	-10.7389
▁tedavisi	-10.7393
▁işliyor	-10.7393
▁yaratıklar	-10.7397
▁nota	-10.7403
▁şurada	-10.7403
arı	-10.7405
masına	-10.7407
▁oldugu	-10.7407
▁kalbi	-10.7413
larıdır	-10.7416
▁Geçtiğimiz	-10.7416
▁sebze	-10.7416
▁Süper	-10.7416
▁lazer	-10.7416
▁duygular	-10.7419
▁DH	-10.7422
▁öncü	-10.7422
▁cun	-10.7422
▁ilan	-10.7424
▁bekliyor	-10.7425
▁bölgeleri	-10.7428
▁korkma	-10.743
▁mutsuz	-10.7431
▁kaybediyor	-10.7434
▁ağaçları	-10.7435
▁hattı	-10.7436
▁entegr	-10.7436
▁dönüştürme	-10.7436
▁Birlikte	-10.7437
▁olayın	-10.7437
mıştık	-10.7441
tta	-10.7441
▁çeviri	-10.7442
▁korunma	-10.7443
▁yaptığımı	-10.7444
▁yetki	-10.7445
▁yürüyor	-10.7447
saydı	-10.7449
▁olacağına	-10.7452
▁yazan	-10.7453
▁denklem	-10.7456
▁yapmasını	-10.7463
▁harca	-10.7464
▁zorla	-10.7467
▁saati	-10.7473
▁boyut	-10.7474
▁ölç	-10.7477
▁içeriği	-10.7478
labilir	-10.748
▁yapmıştı	-10.7481
etti	-10.7486
▁ulaştır	-10.7487
▁dönüştürül	-10.7491
▁olmayabilir	-10.7494
▁Col	-10.7495
▁umudu	-10.7497
▁Jim	-10.7499
▁pis	-10.7502
cılık	-10.7502
▁çalışacak	-10.7504
▁isteği	-10.7506
▁damla	-10.7512
ğü	-10.7512
▁Şehir	-10.7514
▁kuruluşları	-10.752
▁hastası	-10.7529
▁çevirme	-10.7531
▁insandan	-10.7531
▁danışman	-10.7531
▁sezgi	-10.7531
▁kalırsa	-10.7534
▁akademi	-10.7535
▁yepyeni	-10.7535
▁portre	-10.7535
▁kemiği	-10.7535
▁vesaire	-10.7535
▁yangın	-10.7535
emezsiniz	-10.7537
▁aktivist	-10.7539
▁kazanç	-10.7541
dirler	-10.7541
ly	-10.7545
▁eli	-10.7547
▁verip	-10.7548
▁yazdığı	-10.755
▁Devlet	-10.7553
▁düşünmüştü	-10.7557
mışlardı	-10.7558
▁alabilirsiniz	-10.7558
▁Dünyayı	-10.7563
▁gazı	-10.7563
dor	-10.7564
▁ödülü	-10.7567
▁Ocak	-10.7568
▁aramaya	-10.7571
▁250	-10.7571
▁organizmalar	-10.7571
▁aramak	-10.7574
▁zehirli	-10.7579
▁Pe	-10.7579
▁anlaşıl	-10.7582
▁hissediyor	-10.7599
▁başlık	-10.7602
▁metafor	-10.7604
▁tiyatro	-10.7608
mayın	-10.7608
▁stüdyo	-10.7608
▁yatıyor	-10.7608
çu	-10.7609
▁böcekler	-10.7612
▁kaplı	-10.7615
sındaki	-10.7625
nızdan	-10.7631
▁keyif	-10.7632
▁profesör	-10.7632
▁güçlendir	-10.7636
▁davranışlar	-10.7637
▁geçecek	-10.7637
▁lu	-10.7641
tığımız	-10.7647
▁boşluğu	-10.7649
▁Ö	-10.765
▁Yunan	-10.7652
▁Uluslararas	-10.7655
▁figür	-10.7655
▁nazik	-10.7656
▁ayırt	-10.7658
▁oradaydı	-10.7662
▁etmeliyiz	-10.7662
▁düşünürken	-10.7664
emeyiz	-10.7668
▁alırsınız	-10.7669
▁Kalp	-10.7669
▁inek	-10.7669
▁once	-10.767
▁hatırlayın	-10.767
▁tarihin	-10.7673
▁koydu	-10.7676
▁Hareket	-10.7676
lıyorlar	-10.7688
▁minik	-10.769
▁Gerçekte	-10.7691
düğü	-10.7692
▁maliyetli	-10.7694
▁alındı	-10.7694
▁birisini	-10.7696
▁verdikleri	-10.7697
▁temas	-10.7697
▁gönderdi	-10.7698
▁geçirdik	-10.7707
▁bul	-10.7711
▁sonuçlarını	-10.7713
▁oluşturduğu	-10.7713
▁yazılı	-10.7716
leyip	-10.7717
▁yaşamaya	-10.7718
▁Ye	-10.7719
▁öğrendi	-10.7724
mekten	-10.7724
don	-10.7727
▁geçmişi	-10.7731
▁atmosferi	-10.7733
▁bölümünde	-10.7733
▁anlamamız	-10.7733
▁duyguları	-10.7738
▁yansıt	-10.7739
▁şarkısı	-10.7744
▁beyinde	-10.7747
▁Halk	-10.7751
▁yaşadı	-10.7753
▁bebeğin	-10.7753
ayet	-10.7754
▁elinizde	-10.7754
▁sevdiği	-10.7757
▁felsefe	-10.7762
▁geliş	-10.7771
▁Tanı	-10.7773
▁hüküm	-10.7776
▁ekstra	-10.7777
▁şebeke	-10.7777
▁2011	-10.7777
▁torba	-10.7777
▁gerektirir	-10.7777
▁kaygı	-10.7778
▁ulaşılabilir	-10.7778
▁gerektiren	-10.7778
▁alanını	-10.7778
▁1950	-10.7778
▁tel	-10.778
▁dikey	-10.778
▁MR	-10.778
▁alkış	-10.7781
▁0	-10.7782
▁havalı	-10.7782
▁2005	-10.7783
▁Gar	-10.7783
▁vücudun	-10.7792
▁baktığımda	-10.7795
▁Rio	-10.7795
Q	-10.7796
▁programlama	-10.7802
▁yanımda	-10.7807
▁kimi	-10.7808
gel	-10.7816
▁eti	-10.7827
fo	-10.7829
▁yaratmaya	-10.7829
▁yapılır	-10.7832
▁etmekte	-10.7835
▁çağında	-10.7837
▁öner	-10.7839
▁çıkaran	-10.784
▁At	-10.7842
▁bat	-10.7844
▁edebilmek	-10.7846
▁karşılaştırma	-10.7846
uru	-10.7855
▁listesi	-10.7857
▁Can	-10.786
▁yolcu	-10.7861
▁ekonominin	-10.7862
▁güçleri	-10.788
▁devletin	-10.7882
▁vermesi	-10.7882
▁İn	-10.7886
ırsanız	-10.7886
▁gerekecek	-10.7887
▁Dikkat	-10.789
▁bacak	-10.7896
▁muz	-10.7898
▁travma	-10.7899
▁belediye	-10.7901
▁ısrar	-10.7901
▁kapsamlı	-10.7901
▁sevimli	-10.7901
▁Kutbu	-10.7901
▁Modern	-10.7901
▁Önümüzde	-10.7901
leyebilir	-10.7901
▁optik	-10.7901
▁temeli	-10.7901
▁girmek	-10.7902
▁tekniği	-10.7902
▁destekleyen	-10.7903
▁kurumsal	-10.7903
▁yaşlarında	-10.7904
▁kentsel	-10.7905
▁hakikat	-10.7906
▁birçoğu	-10.7906
▁yayılan	-10.7906
▁harcadı	-10.7908
▁perde	-10.7908
▁kendiliğinden	-10.7908
▁elektron	-10.7911
▁aptalca	-10.7912
▁duyduğu	-10.7913
▁cihazları	-10.7916
gram	-10.7916
ılacak	-10.7917
▁sag	-10.7918
▁olmalısınız	-10.7918
ğiniz	-10.7919
işi	-10.7922
▁girdim	-10.7924
▁bahsetti	-10.7927
▁türlerin	-10.793
▁hayati	-10.7935
▁inanan	-10.7937
▁farklılıklar	-10.7938
▁okyanusta	-10.7939
▁ağırlık	-10.794
▁Kat	-10.7941
▁yatır	-10.7942
lanmıştı	-10.7944
▁Üste	-10.7945
▁yaşadım	-10.7945
▁yukarıda	-10.7946
▁kurar	-10.7948
lendiği	-10.7951
▁Sam	-10.7955
▁bozuk	-10.7955
▁türün	-10.7955
acaksınız	-10.7958
▁iskelet	-10.7958
▁birbirini	-10.7959
▁Veri	-10.7962
▁çıkardık	-10.7962
▁Ab	-10.7964
ürekli	-10.7965
▁istiyordu	-10.7966
▁ip	-10.7966
▁dışarıya	-10.7973
▁izleyici	-10.7977
▁gitmiş	-10.7981
irler	-10.7986
ğünü	-10.7992
▁haklarını	-10.7997
▁ölçüm	-10.7997
▁Ter	-10.7999
dığımızda	-10.8
▁götürüyor	-10.8001
▁istemiyor	-10.8006
▁hayatımız	-10.8007
oo	-10.8008
▁konuşmaları	-10.8012
▁sokakta	-10.8012
▁aşamada	-10.8014
ian	-10.8015
▁adapt	-10.8019
▁otomobil	-10.8026
▁inovasyon	-10.8026
▁Fizik	-10.8026
▁yaşanan	-10.8033
▁hatırlar	-10.8036
▁enerjinin	-10.8038
▁arkadaşlar	-10.8039
▁Kanser	-10.8042
▁şekiller	-10.8042
▁sade	-10.8042
▁olacağım	-10.8042
▁ham	-10.8043
30	-10.8043
▁kullanıyorum	-10.8045
▁kapak	-10.8045
üs	-10.8048
dırlar	-10.8048
BI	-10.8051
▁gördüğümde	-10.8051
▁düşündüğü	-10.8052
▁doğası	-10.8053
▁araştırmaya	-10.8055
tmak	-10.8055
caba	-10.8055
▁seçeneği	-10.806
▁bittiğini	-10.8064
▁endişelen	-10.8065
▁fizikçi	-10.8067
▁çıktım	-10.8068
▁yaparsak	-10.807
▁Okyanus	-10.8072
▁Sha	-10.8074
▁pozisyon	-10.8077
rey	-10.808
▁biriktir	-10.8081
▁hastanede	-10.8085
▁gay	-10.8089
▁kapasitesi	-10.809
▁edildiği	-10.8095
▁yararlan	-10.8099
▁anladık	-10.8101
▁içlerinde	-10.811
▁başladığım	-10.8114
▁filtre	-10.8117
▁çocuklarını	-10.8117
▁Mor	-10.8119
luğ	-10.8126
▁donanım	-10.8127
▁oluşturu	-10.8128
▁insanla	-10.8129
▁hayl	-10.8133
▁bastır	-10.8136
sıydı	-10.8137
▁yüzeyi	-10.8137
▁Mü	-10.8138
▁No	-10.8139
▁ağacın	-10.814
▁birbirlerini	-10.8143
▁hesab	-10.8146
▁yoksun	-10.8149
▁Californi	-10.8152
▁enstrüman	-10.8152
▁Enerji	-10.8152
▁Haiti	-10.8152
▁tören	-10.8152
▁Nobel	-10.8153
▁yetecek	-10.8153
▁CEO	-10.8153
▁düşünürsek	-10.8155
lerimden	-10.8155
▁rakamlar	-10.8156
▁Bob	-10.8157
▁gezegenler	-10.8158
▁diyebilirsiniz	-10.8159
▁avantaj	-10.8159
▁yüzme	-10.8162
▁ayrılma	-10.8163
▁uygulamalar	-10.8165
▁bakıyorum	-10.8166
▁duyan	-10.8167
▁fikrine	-10.8169
▁hayatında	-10.817
▁Derek	-10.818
▁kuralı	-10.818
▁sayılar	-10.8184
▁Tu	-10.8186
▁dakikalık	-10.819
▁uzayda	-10.8191
▁birbirimiz	-10.8195
zo	-10.8196
▁ilgileniyor	-10.8198
▁grupları	-10.8201
▁olayları	-10.8203
▁Hayd	-10.8203
▁anlatan	-10.8204
▁akışı	-10.8205
▁durumunu	-10.8208
gün	-10.8208
medi	-10.8226
▁Ju	-10.8226
▁kutlama	-10.8228
▁kalktı	-10.8232
▁cerrahi	-10.8234
lediği	-10.8239
rin	-10.8239
▁hastaları	-10.8251
▁fiyatı	-10.8256
mizdeki	-10.8262
▁benimse	-10.8262
mdeki	-10.8267
▁görünüş	-10.8268
▁giysi	-10.8269
▁gez	-10.8269
▁liderleri	-10.827
hattan	-10.8272
▁düşünmeyi	-10.8277
▁dönüştürmek	-10.8279
▁Muhteşem	-10.8281
▁Kültür	-10.8281
▁maddi	-10.8281
▁Yahudi	-10.8281
▁Robert	-10.8281
▁maske	-10.8281
▁rica	-10.8281
▁Devam	-10.8281
▁beton	-10.8283
▁cihazlar	-10.8284
▁kusursuz	-10.8285
▁bırakıp	-10.8286
▁tümüyle	-10.8288
▁sembol	-10.8289
▁sitesi	-10.8289
▁toplumlar	-10.8289
▁attı	-10.8293
▁nedenini	-10.8293
▁anlıyorum	-10.8295
▁resmini	-10.8296
▁kalmıştı	-10.8297
▁neydi	-10.8297
▁gidiyordu	-10.8298
▁başlamış	-10.8302
▁herşeyin	-10.8313
▁ülkeyi	-10.8315
▁sigorta	-10.8316
▁keşfettim	-10.8318
▁arasından	-10.832
▁tas	-10.8324
mızla	-10.8329
▁görmüyor	-10.8329
▁finanse	-10.833
▁yöntemleri	-10.8331
▁ağız	-10.8331
▁yapmadı	-10.8335
luğun	-10.8335
▁tanışma	-10.8336
ydık	-10.8337
▁süresi	-10.8341
▁has	-10.8344
▁çıkarır	-10.8344
▁katılım	-10.8344
düm	-10.8346
▁vatandaş	-10.8348
▁Orman	-10.8349
▁belirleme	-10.8351
▁meraklı	-10.8352
▁kullanıldı	-10.8352
▁Tim	-10.8362
▁zorluklar	-10.8362
laşmış	-10.8363
▁sonun	-10.8364
▁bağlıdır	-10.8366
▁ediyordum	-10.8369
▁1.	-10.8369
▁Proje	-10.8373
▁ağları	-10.8375
▁değerini	-10.8375
▁hayran	-10.8376
▁kutusu	-10.838
emeyecek	-10.838
▁endüstrisi	-10.838
▁anlattığı	-10.8381
▁sinyalleri	-10.8386
▁Av	-10.8391
ladığını	-10.8393
gı	-10.8398
▁teleskop	-10.8399
▁yarısında	-10.8402
▁göstermeye	-10.8403
▁yılan	-10.8408
▁du	-10.8408
ydik	-10.8408
▁ışıkları	-10.8409
▁poster	-10.841
▁varsayım	-10.841
▁kırılgan	-10.841
▁mikroskop	-10.8411
▁2004	-10.8416
▁bakıyorsunuz	-10.8417
▁kaybetmiş	-10.8418
▁yayıldı	-10.842
▁boy	-10.8425
▁ülkeden	-10.8425
▁195	-10.8429
klarını	-10.8429
leştirmek	-10.8431
▁bitkilerin	-10.8432
sha	-10.8433
▁büyüklükte	-10.8439
▁çıkardığı	-10.8443
▁düşünceleri	-10.8451
▁dol	-10.8453
▁öldürme	-10.8453
▁alanların	-10.8457
ğın	-10.8458
▁anatomi	-10.846
▁sıcaklığı	-10.8461
▁kolaylaştır	-10.8464
evi	-10.8466
▁şekillendir	-10.8467
▁bacağı	-10.8468
▁redded	-10.8468
▁düşünecek	-10.8472
ografi	-10.8473
▁yollarla	-10.8478
▁molekülleri	-10.848
▁tohum	-10.8481
▁uğraşma	-10.8481
▁yönden	-10.8483
ümü	-10.8489
ımıza	-10.8489
sunuzdur	-10.8492
▁bağlaya	-10.8497
iriz	-10.8503
▁nöronlar	-10.8513
▁Kı	-10.8514
▁ileride	-10.8516
▁vermeyi	-10.8517
▁yakalanma	-10.8519
▁yüzeye	-10.8522
▁yetiştirme	-10.8523
▁öğretiyor	-10.8527
lus	-10.8528
▁başlığı	-10.853
org	-10.8531
yarak	-10.8536
▁sürecinde	-10.8538
▁hapse	-10.8541
▁Uganda	-10.8542
▁liberal	-10.8542
▁bilişsel	-10.8542
▁patron	-10.8542
▁adımı	-10.8543
▁Kırmızı	-10.8543
▁koştu	-10.8544
▁PM	-10.8545
▁düşünmüyorum	-10.8547
▁emekli	-10.8548
▁üretilen	-10.855
▁duyduk	-10.8555
▁topluluğun	-10.8558
▁dönüştür	-10.8562
▁teknolojilerin	-10.8565
▁ağırlığı	-10.8567
▁internetin	-10.8569
▁foto	-10.8569
▁çarpışma	-10.857
▁konuşmanın	-10.8571
▁duvara	-10.8572
▁Bey	-10.8573
▁yapıcı	-10.8574
▁materyal	-10.8577
ers	-10.8586
lıktan	-10.8586
▁bitti	-10.8587
▁büyükanne	-10.8588
▁mısın	-10.8595
▁silahlı	-10.8596
▁Söz	-10.8596
▁sınırı	-10.8598
▁benzediğini	-10.86
▁bulan	-10.86
▁şiddetin	-10.8602
▁gelişmeler	-10.8603
▁çarpı	-10.8606
▁yaramaz	-10.8607
▁düzeltme	-10.861
▁dilim	-10.8612
▁etmeden	-10.8615
▁kule	-10.8616
▁sevgili	-10.8618
bin	-10.8618
▁durduru	-10.8619
▁kelimesini	-10.862
▁perspektif	-10.862
▁kalması	-10.8626
▁Hintli	-10.8627
▁dikkatini	-10.8632
▁Fotoğraf	-10.8632
▁aş	-10.8637
▁katil	-10.8638
▁sözlük	-10.8638
▁kadını	-10.8639
▁tanık	-10.8641
▁istek	-10.8643
▁kelimesi	-10.8649
▁yaratabilir	-10.8652
▁tüketimi	-10.8658
▁yaşayacak	-10.866
▁açtığı	-10.866
▁yaratacak	-10.8662
▁genomu	-10.8664
▁bel	-10.8666
▁gök	-10.8667
▁tasarlama	-10.8667
▁kral	-10.8668
▁iyiydi	-10.8672
▁sıkıştır	-10.8674
▁Street	-10.8675
▁dinozor	-10.8675
▁dizüstü	-10.8676
▁düğüm	-10.8676
▁trans	-10.8677
▁Korku	-10.8677
▁vadeli	-10.8678
▁vb	-10.8679
▁birliği	-10.8679
▁esnasında	-10.8681
▁sınıfı	-10.8681
▁kanıtı	-10.8682
▁dayanarak	-10.8683
▁ölür	-10.8683
▁yenilenebilir	-10.8684
ğim	-10.8685
▁yolculuğ	-10.869
üz	-10.8691
ıldığını	-10.8692
▁sentez	-10.8694
▁tamamını	-10.8694
▁yerlerinde	-10.8694
▁kazandır	-10.8695
▁geliyoruz	-10.8698
▁atış	-10.8701
▁Ken	-10.8707
▁hastaneye	-10.8711
▁ilaçların	-10.8714
▁dokusu	-10.8714
lıyorum	-10.8716
▁canlılar	-10.8717
▁başlarında	-10.8717
inizde	-10.8718
▁trend	-10.8723
▁şehrinde	-10.8724
▁yaparsa	-10.8726
▁öğrencilerim	-10.8729
ttiği	-10.8729
▁öğretmek	-10.8732
eceğine	-10.8735
▁gözlerini	-10.8741
▁kabiliyeti	-10.8741
örü	-10.8743
▁Ol	-10.8743
▁diğerlerinin	-10.8746
ğına	-10.8748
▁şeffaf	-10.8749
▁okumaya	-10.8754
mun	-10.8755
▁düşünüyorlar	-10.8755
▁yetişkinler	-10.8756
▁bulamadı	-10.8757
▁yıldızların	-10.8759
▁uygulamaya	-10.8761
▁günümüz	-10.8761
▁çay	-10.8762
▁fırsatlar	-10.8768
▁yapamayacağı	-10.8769
▁denedik	-10.8769
▁davranışlarını	-10.8772
▁başladığını	-10.8774
▁bildirim	-10.8776
▁iyice	-10.8776
▁terim	-10.8778
▁ayakları	-10.8782
▁bireylerin	-10.879
▁ulaştı	-10.8791
▁bot	-10.8793
▁Er	-10.8797
▁prensip	-10.8798
▁koruy	-10.8799
▁yaşadıkları	-10.88
▁otorite	-10.8802
▁Arka	-10.8804
▁pro	-10.8805
▁yöntemler	-10.8807
▁fotoğrafını	-10.881
▁konser	-10.881
▁196	-10.881
▁koridor	-10.881
▁çubuk	-10.881
▁çocuklarının	-10.8812
▁lideri	-10.8812
▁Noel	-10.8812
▁anımsa	-10.8813
bel	-10.8813
sızlık	-10.8814
▁güce	-10.8817
▁davranışları	-10.882
▁çıkarak	-10.882
▁tarihsel	-10.8824
▁Olay	-10.8827
▁şair	-10.8827
▁yapabilirler	-10.8828
▁almaz	-10.8832
▁geceleri	-10.8835
▁çevreye	-10.8836
▁konuştu	-10.8841
ılmıştı	-10.8841
▁giren	-10.8842
▁sunduğu	-10.8843
mus	-10.8844
▁seslerini	-10.8844
▁Sistem	-10.8849
▁kültürün	-10.8852
▁yapış	-10.8857
▁bilinci	-10.8861
ebildi	-10.8861
▁virüsü	-10.8862
BG	-10.8863
▁çizgiler	-10.8865
▁çalışmasını	-10.8865
▁başarısızlık	-10.8866
▁tekerlek	-10.8869
▁aşamasında	-10.8869
▁fikr	-10.8877
eceksiniz	-10.8885
▁kitapta	-10.8886
emiyor	-10.8887
▁zordu	-10.8889
▁çekimi	-10.8889
▁dönüşüyor	-10.8889
▁söyleyin	-10.8894
stro	-10.8895
▁somut	-10.89
▁çıktığında	-10.8906
▁odası	-10.8909
▁kaldırı	-10.891
▁müdür	-10.891
vu	-10.8917
▁başladığımız	-10.8918
▁Sev	-10.8923
▁cevaplar	-10.8925
▁kom	-10.8926
▁anlamsız	-10.8928
▁getirmeye	-10.8929
▁çıktığını	-10.8933
▁felci	-10.8933
▁kullandıkları	-10.8935
▁düğme	-10.8936
▁uğraşıyor	-10.894
▁renkler	-10.8943
▁geçtiği	-10.8943
▁favori	-10.8944
▁Problem	-10.8947
▁motive	-10.8947
▁referans	-10.8947
▁ressam	-10.8947
▁Bakanlığı	-10.8948
▁Whit	-10.8948
▁taşıyıcı	-10.8948
▁metro	-10.8948
▁eşitsizlik	-10.8948
▁194	-10.8949
▁yüzeyinde	-10.8949
▁kuyruklu	-10.8951
▁Yerel	-10.8951
▁dünyadan	-10.8952
▁çözümün	-10.8955
▁oynayan	-10.8955
▁bez	-10.8956
ılıp	-10.896
▁bağlantıları	-10.8963
▁kardeş	-10.8963
▁istediklerini	-10.8964
▁dönük	-10.8965
riye	-10.8966
▁rota	-10.8968
▁sormaya	-10.8968
▁satır	-10.8968
▁anlatı	-10.8969
▁uyu	-10.897
▁Der	-10.8971
▁yaşadık	-10.8977
▁kuram	-10.8977
▁Yoks	-10.8978
▁sebepten	-10.8983
▁karmaşıklığı	-10.8984
yer	-10.8985
▁geçmişe	-10.8985
▁Erkek	-10.8993
▁yapmaktan	-10.8993
▁ilgiliydi	-10.8995
tro	-10.8997
▁Oysa	-10.8997
▁önyargı	-10.8998
▁izle	-10.8999
▁biliyorduk	-10.9001
▁koş	-10.9001
▁ilaçları	-10.9002
larımızla	-10.9006
▁desteklemek	-10.9012
▁yazmaya	-10.9012
▁sorduğum	-10.9014
▁gideli	-10.9015
▁Es	-10.9016
▁miktarını	-10.9017
▁gidiyorlar	-10.902
ebiliyoruz	-10.9021
mazlar	-10.9021
▁Tıp	-10.9021
▁etmedi	-10.9021
ığı	-10.9024
▁köşesinde	-10.9026
▁birbirimizi	-10.9028
▁eşya	-10.9033
▁okuyor	-10.9034
laşıyor	-10.9034
▁olmasaydı	-10.9036
▁bıraktığı	-10.9036
▁mo	-10.9039
▁kesi	-10.9044
▁verilerin	-10.9048
▁eleştiri	-10.9049
▁hızda	-10.905
▁İtalya	-10.9054
ladığımız	-10.9055
▁çıkmaya	-10.9057
▁şiddeti	-10.9059
▁karşıtı	-10.9059
leşen	-10.9059
▁diyen	-10.9064
▁gor	-10.9066
▁dışın	-10.9066
▁sinyali	-10.9069
cik	-10.9071
▁Con	-10.9074
▁değiştiğini	-10.9074
▁ilgimi	-10.9074
▁elektro	-10.9074
▁uçurum	-10.9077
▁topluluklar	-10.9077
▁kısıtlı	-10.9079
▁uzaya	-10.908
▁incelemek	-10.9083
▁kuyruk	-10.9083
▁bölgeler	-10.9083
ınızda	-10.9084
▁MS	-10.9084
▁asit	-10.9086
▁olağan	-10.9086
▁GSY	-10.9086
▁enteresan	-10.9086
▁uğultu	-10.9086
▁çukur	-10.9086
▁şehre	-10.9086
▁cidden	-10.9086
▁partner	-10.9086
▁piyano	-10.9086
▁Ebola	-10.9086
▁Hâl	-10.9086
▁Yardım	-10.9086
▁fırın	-10.9087
▁sopa	-10.9087
▁transfer	-10.9087
▁Kongo	-10.9089
▁Deney	-10.909
▁severim	-10.909
▁işgal	-10.9091
▁haritasını	-10.9092
▁Merak	-10.9093
▁projede	-10.9094
lduğu	-10.9094
▁takma	-10.9095
▁çocukluk	-10.9096
▁tepesinde	-10.9097
▁yerdir	-10.9098
▁yuvarlak	-10.9098
▁genleri	-10.9099
▁ger	-10.9101
rsak	-10.9101
▁Tarih	-10.9101
▁aynısını	-10.9103
▁gereksiz	-10.9106
▁söylenen	-10.9107
▁sinema	-10.9108
▁şartları	-10.9108
▁dünyamızı	-10.9112
abilecekleri	-10.9113
▁göndermek	-10.9115
▁ölümü	-10.9115
▁keşfetti	-10.9116
▁üretir	-10.9122
▁aradı	-10.9124
▁becer	-10.913
▁giderse	-10.9131
▁fonksiyon	-10.9132
▁bizleri	-10.9137
▁dağıtım	-10.9138
▁çare	-10.9142
▁böceği	-10.9142
▁yoğunluğu	-10.9143
▁çaresiz	-10.9145
▁miras	-10.9147
sch	-10.9147
nuzda	-10.9148
▁ürünün	-10.9148
▁parçalarını	-10.915
▁motoru	-10.915
▁takılı	-10.915
ğinde	-10.9151
▁dar	-10.9153
▁insanlarda	-10.9157
▁okulun	-10.9157
▁çalışacağım	-10.916
▁yaradı	-10.9163
▁riskli	-10.9165
▁balıkçı	-10.9168
▁ekipman	-10.9168
▁alıyordu	-10.9173
▁Sonraki	-10.9177
▁koşulları	-10.9178
▁ümit	-10.9181
▁bekley	-10.9182
▁böcekleri	-10.9183
▁verilere	-10.9184
▁d	-10.9184
▁arabayı	-10.9189
▁kısmına	-10.9194
uğu	-10.9196
▁birimi	-10.9196
▁ilgilenme	-10.9198
▁ürettiği	-10.9198
▁birşeyi	-10.9199
▁Özel	-10.92
▁besle	-10.92
▁ikincisi	-10.92
▁yenilikler	-10.92
▁tasarla	-10.9203
▁Güven	-10.9207
▁fotoğraflarını	-10.9209
▁bildikleri	-10.9209
▁sorunumuz	-10.921
▁26	-10.921
▁Aslın	-10.9213
▁mor	-10.9215
süz	-10.9217
▁mühendisler	-10.922
▁gerekmiyor	-10.922
▁parmağı	-10.9222
▁dramatik	-10.9227
▁reaksiyon	-10.9227
▁reçete	-10.9227
▁şapka	-10.9227
▁ödün	-10.9227
▁omuz	-10.9227
▁Geleneksel	-10.9228
▁süresince	-10.9228
▁göreceğiniz	-10.9228
▁söyleyeyim	-10.9229
kür	-10.9229
▁nöroloji	-10.923
▁kış	-10.9232
▁bakımından	-10.9233
▁basamak	-10.9235
▁başlayıp	-10.9235
▁eğitimli	-10.9236
ari	-10.9236
▁sanatın	-10.9236
▁eşitlik	-10.9239
▁adama	-10.9242
▁öyleyse	-10.9244
▁Güvenlik	-10.9248
▁ajan	-10.9248
▁akışını	-10.9249
▁100.000	-10.9249
▁buzun	-10.9251
▁içimizde	-10.9253
cıları	-10.9254
lalım	-10.9255
inize	-10.9257
▁Bankası	-10.9257
▁gerçekleştirmek	-10.9258
▁akıllıca	-10.9258
▁bilinir	-10.9259
▁okuduğum	-10.9259
▁hükümetin	-10.9261
▁azı	-10.9263
▁bozulma	-10.9264
▁güncel	-10.9265
▁çiftçiler	-10.9265
▁konuştum	-10.9269
leridir	-10.9272
▁Niye	-10.9274
▁aranızda	-10.9276
▁duvarı	-10.9282
zun	-10.9284
kat	-10.9285
mişlerdi	-10.9285
▁düşünmüyor	-10.9286
▁kayıtları	-10.9292
ınıza	-10.9292
▁Tak	-10.9295
▁kanal	-10.9299
▁kul	-10.9299
▁yayım	-10.9299
▁araştırmaları	-10.9301
▁yapıldığı	-10.9303
▁Gand	-10.9307
▁Yaşa	-10.9308
▁geçin	-10.9309
üşü	-10.9315
▁Krallık	-10.9317
▁resmin	-10.9317
▁geliri	-10.9317
▁doları	-10.9318
umun	-10.932
▁fotoğrafta	-10.9323
▁eğitimin	-10.9323
▁azaltmak	-10.9326
abileceğiniz	-10.9327
eşke	-10.9328
çiler	-10.9329
▁üretici	-10.933
▁Müzesi	-10.9331
▁olasılıkla	-10.9331
▁hayatınızı	-10.9332
▁bozukluğu	-10.9335
muzun	-10.9335
▁etkilerini	-10.9336
▁etkileme	-10.9337
ebildiği	-10.9341
▁ağaçların	-10.9345
▁keşfi	-10.9346
▁şartlar	-10.9348
▁ilişkisi	-10.9354
▁sığ	-10.9354
▁düşünmeniz	-10.9356
▁durmak	-10.9357
▁Dış	-10.9362
▁buluşma	-10.9364
▁Matematik	-10.937
▁gecekondu	-10.937
▁Britanya	-10.937
▁Chicago	-10.937
▁helikopter	-10.937
▁hitap	-10.937
▁negatif	-10.937
▁tahrip	-10.937
▁şablon	-10.937
▁acımasız	-10.937
▁Biyoloji	-10.937
▁aşina	-10.937
▁kumanda	-10.9371
▁terörizm	-10.9371
▁kirli	-10.9371
▁tuş	-10.9372
▁kurul	-10.9374
▁uğraşan	-10.9379
▁verirseniz	-10.938
▁kova	-10.9383
▁ilgilenen	-10.9384
▁çarp	-10.9386
▁Yu	-10.939
▁yürüt	-10.9391
▁yunus	-10.9392
▁varken	-10.9393
▁sorunların	-10.9394
▁yakalama	-10.9396
jen	-10.9397
▁120	-10.94
▁geçiren	-10.9403
▁laboratuvarda	-10.9407
▁Mal	-10.9407
▁kanserin	-10.9409
▁alıyorum	-10.9409
▁aralarında	-10.9411
▁konuşmamı	-10.9413
dil	-10.9414
▁uzmanları	-10.9415
▁bırakır	-10.9416
▁koşul	-10.9417
▁dusun	-10.9418
▁unut	-10.9419
▁kanat	-10.9422
leşir	-10.9423
▁elin	-10.9423
▁oranını	-10.9425
▁kavrama	-10.9426
sün	-10.9428
▁araştırmacılar	-10.9429
▁annemin	-10.9429
▁korumaya	-10.9431
▁artı	-10.9433
maktan	-10.9434
leştiren	-10.9436
▁halini	-10.9436
▁konusundaki	-10.9437
digim	-10.9437
▁usta	-10.9439
▁kullanılması	-10.9441
▁odak	-10.9442
▁bağlantısı	-10.9442
eceğimiz	-10.9444
▁yarışı	-10.9447
▁aralık	-10.9448
▁faydası	-10.9456
▁evrimin	-10.9457
▁dersleri	-10.9459
▁İnanıyoru	-10.9461
var	-10.9462
▁Yedi	-10.9464
▁Üzerinde	-10.9464
▁yapmama	-10.9465
▁hepimizi	-10.9466
ildiği	-10.9469
▁korkusu	-10.947
▁içeride	-10.9471
ecekler	-10.9471
▁adlandırıla	-10.9473
▁bahsettiği	-10.9473
▁sunma	-10.9474
▁Min	-10.9476
▁süt	-10.9484
▁hepinizi	-10.9485
▁görebil	-10.9486
▁yüze	-10.949
▁kira	-10.9491
▁düşünceler	-10.9491
mışlar	-10.9492
▁kelimeleri	-10.9492
▁yıka	-10.9493
▁Mutlu	-10.95
muzda	-10.9501
▁etmeli	-10.9515
▁Smith	-10.9515
▁diyalog	-10.9515
▁kahverengi	-10.9515
▁mevsim	-10.9515
▁pirinç	-10.9515
▁Sahip	-10.9515
▁Silikon	-10.9515
▁yıkıcı	-10.9515
▁Evrim	-10.9515
▁paralel	-10.9515
▁Mikro	-10.9515
▁görünmüyor	-10.9516
▁olayların	-10.9517
▁bacakları	-10.9517
▁Işık	-10.9517
▁Gana	-10.952
▁işlevsel	-10.952
▁Saat	-10.9522
▁karıncalar	-10.9522
▁müziğin	-10.9525
▁anla	-10.9528
▁konuşmacı	-10.9532
▁bazılarınız	-10.9535
▁pil	-10.9535
▁önemini	-10.9536
▁alanlarında	-10.9537
▁vücudunu	-10.9537
▁koru	-10.9537
▁yak	-10.9539
▁etkinlik	-10.954
leyin	-10.9541
▁verdiğini	-10.9542
lamıyor	-10.9542
▁politikacılar	-10.9547
▁bilgisayarı	-10.9547
▁öldür	-10.9547
▁seçer	-10.9549
▁duman	-10.9552
▁bardak	-10.9553
▁düşündüğünüzde	-10.9555
▁kullanılma	-10.9559
▁For	-10.956
▁zorundadır	-10.956
▁akla	-10.9563
▁beraberinde	-10.9565
▁pişirme	-10.9566
▁okullar	-10.9567
▁sebebiyle	-10.957
▁hedefi	-10.9573
başı	-10.9573
hri	-10.9575
▁sesin	-10.9576
▁fikrimiz	-10.9578
▁yönetici	-10.9578
▁Ham	-10.9579
▁finans	-10.958
▁yaşamını	-10.9582
▁kolaylık	-10.9585
lıydı	-10.9586
▁istemem	-10.9587
▁yüzleş	-10.9588
▁karşılaştığımız	-10.9592
▁vardım	-10.9592
▁başardı	-10.9595
▁bazılarının	-10.9597
▁olmasıydı	-10.9597
▁öncülü	-10.9599
▁sınav	-10.9601
ans	-10.9606
abileceğim	-10.9608
▁olmalarını	-10.961
▁inceliyor	-10.961
▁dükkan	-10.961
zen	-10.9611
▁gezegeni	-10.9614
yl	-10.9618
ebilmesi	-10.9628
▁hükümetler	-10.9631
▁Wall	-10.9634
ebileceğimizi	-10.9638
▁sesle	-10.964
▁Masa	-10.964
wi	-10.9647
▁getiril	-10.9648
▁Scott	-10.9662
▁karaciğer	-10.9662
▁emniyet	-10.9662
▁kalori	-10.9662
▁gerektiriyor	-10.9662
▁pound	-10.9662
▁maalesef	-10.9663
▁Makine	-10.9663
▁Var	-10.9663
▁kalkıp	-10.9665
▁siber	-10.9665
▁basınç	-10.9665
▁bela	-10.9666
▁esinlen	-10.9666
▁çamur	-10.9669
▁sınırlar	-10.9669
▁çalışıp	-10.9669
larak	-10.9671
▁tutkulu	-10.9671
lıyordu	-10.9674
▁robotik	-10.9674
▁aydınlat	-10.9675
▁Hepsini	-10.9678
luğunu	-10.9683
▁farkındalık	-10.9685
▁toplamak	-10.9688
▁fit	-10.9692
▁hat	-10.9693
▁fikirlerini	-10.9695
▁içten	-10.9696
meyeceğini	-10.9696
▁arabası	-10.9697
▁deneyimler	-10.9698
▁sent	-10.97
▁isterler	-10.9702
▁28	-10.9703
▁denemek	-10.9704
▁dedikleri	-10.9705
▁bağlamda	-10.9708
istan	-10.9713
▁doz	-10.9714
▁donmuş	-10.9715
▁formu	-10.9717
rsa	-10.9719
liyim	-10.972
▁kullanmıyor	-10.9721
likler	-10.9721
▁yiyeceği	-10.9726
▁koltuğu	-10.9729
▁sevin	-10.973
▁inanı	-10.9731
▁zorundaydım	-10.9731
▁yönlendirme	-10.9736
▁fiil	-10.9736
▁organları	-10.9738
▁küreselleşme	-10.9741
▁götürme	-10.9741
▁Aşağı	-10.9745
lıkları	-10.9745
▁Mac	-10.975
▁akraba	-10.9752
▁tarafına	-10.9752
▁Herşey	-10.9753
▁olabil	-10.9763
▁teknolojisini	-10.9763
▁aleti	-10.9763
▁dinliyor	-10.9764
▁ez	-10.9764
so	-10.9765
▁Sayı	-10.9768
▁gezin	-10.977
▁değişme	-10.977
liğinden	-10.9771
▁aynısı	-10.9772
▁Ti	-10.9774
▁ikisinin	-10.9775
landığını	-10.9778
▁özet	-10.978
▁kaynaklanıyor	-10.9781
▁Hükümet	-10.9785
▁çıkmaz	-10.9786
▁kabuk	-10.9786
▁yayıl	-10.9789
▁Mart	-10.979
▁kaldılar	-10.9796
▁özelliklerini	-10.9797
▁eğilimi	-10.9797
▁aletleri	-10.98
▁rehber	-10.9803
▁tüketim	-10.9807
▁görmeyi	-10.9809
▁Stanford	-10.9811
▁bıçak	-10.9811
▁prensibi	-10.9811
▁trajedi	-10.9811
▁çikolata	-10.9811
▁retina	-10.9811
▁hormon	-10.9811
▁bencil	-10.9811
▁yurt	-10.9812
▁İzleyici	-10.9812
▁cisim	-10.9812
▁dağınık	-10.9812
▁ünite	-10.9812
▁Benzer	-10.9813
▁uzaklaş	-10.9813
▁Genellikle	-10.9813
▁tarla	-10.9813
▁bayanlar	-10.9813
▁sanıyorum	-10.9818
▁Ortalama	-10.9818
▁yürüdü	-10.9819
▁buluyorum	-10.9821
▁galeri	-10.9822
▁işleyen	-10.9824
▁antibiyotik	-10.9825
▁ndaki	-10.9826
▁sağa	-10.9826
▁çöküş	-10.9827
▁yansı	-10.9828
▁2001	-10.9829
▁ederseniz	-10.9829
▁destekleme	-10.983
▁duruş	-10.9832
▁titreşim	-10.9833
mamış	-10.9835
▁bağlantılar	-10.9838
▁kuruluş	-10.9838
▁deneysel	-10.9839
skop	-10.9843
▁zorlama	-10.9845
▁hastalığ	-10.9845
▁Yemek	-10.9849
▁yapmalı	-10.9852
▁yerleşim	-10.9855
▁faktör	-10.9855
▁mali	-10.9856
▁inci	-10.986
▁başlıyorlar	-10.986
İH	-10.9861
▁sorgulama	-10.9861
▁çalışanlar	-10.9861
▁kaz	-10.9863
▁hareketin	-10.9863
▁inanır	-10.9863
▁diken	-10.9863
▁derim	-10.9867
melisiniz	-10.9869
▁örnekte	-10.9872
▁söylemişti	-10.9872
▁doğma	-10.9873
▁sürecini	-10.9874
zel	-10.9877
▁etmekten	-10.9879
▁alabiliyor	-10.9882
meniz	-10.9889
▁gelmedi	-10.9891
▁yükselt	-10.9894
▁cömert	-10.9894
▁aksi	-10.9897
▁33	-10.9903
▁elinizi	-10.9906
liydim	-10.9908
▁Normal	-10.991
▁çevrede	-10.9912
▁antik	-10.9918
▁vuru	-10.9918
▁Lu	-10.9921
▁kullanılır	-10.9926
▁katılıyor	-10.9929
▁öldürdü	-10.993
▁nerde	-10.9931
▁tesis	-10.9931
ırdı	-10.9935
▁aslı	-10.9938
▁geliştirdi	-10.994
BC	-10.994
▁memeli	-10.9942
▁kişilere	-10.9946
▁seti	-10.9948
▁gittiğimiz	-10.9948
larınızın	-10.9948
▁yerleştiril	-10.995
▁yararı	-10.9952
▁parası	-10.9953
▁dilini	-10.9954
▁bizde	-10.9957
▁verilme	-10.996
yüz	-10.9961
▁dinazor	-10.9963
▁kurbağa	-10.9963
▁paradigma	-10.9963
▁varoluş	-10.9963
▁İsviçre	-10.9963
▁çevrimiçi	-10.9963
▁hakkinda	-10.9963
▁mizah	-10.9963
▁vadi	-10.9964
▁ilacın	-10.9964
▁direnci	-10.9965
▁pay	-10.9965
▁alabil	-10.9965
▁Kapı	-10.9965
▁karşılığında	-10.9965
▁Ford	-10.9967
▁şüphesiz	-10.9967
▁yarayan	-10.9968
bilirsin	-10.9968
▁davranışsal	-10.9969
▁hızını	-10.997
▁hesabı	-10.9971
▁taze	-10.9974
▁benzetme	-10.9975
▁geçerken	-10.9977
▁Hayatta	-10.9984
▁kazandığı	-10.9985
▁ölçekli	-10.9985
▁gözler	-10.9989
▁yoğunlaş	-10.999
▁yardımıyla	-10.9991
▁iskeleti	-10.9991
▁aktör	-10.9991
▁birbiri	-10.9992
▁il	-10.9993
▁açıkladı	-10.9995
▁köyde	-10.9997
leştirilmesi	-10.9999
▁yaptığımızı	-11.0003
▁kağıdı	-11.0003
▁sessizlik	-11.0003
▁kadına	-11.0004
▁sisteminde	-11.0004
▁inceley	-11.0005
▁bölümünü	-11.0005
▁ailenin	-11.0006
▁makineleri	-11.0006
▁söylerdi	-11.0014
▁azalıyor	-11.0015
▁aldığını	-11.0015
▁bitirme	-11.0018
▁Don	-11.0022
▁konuşması	-11.0023
ser	-11.0023
▁görünme	-11.0024
lemiş	-11.0025
▁Kol	-11.0027
▁başladığında	-11.0027
▁kaldırma	-11.0028
▁Top	-11.0029
▁w	-11.0032
▁Öl	-11.0036
▁yapacağımız	-11.0038
miyordu	-11.0041
▁hoşlanma	-11.0044
▁devletler	-11.005
▁uygulamaları	-11.0051
▁Cas	-11.0051
▁kaybeder	-11.0053
▁95	-11.0056
▁and	-11.0058
▁döndük	-11.0058
▁anlattım	-11.0059
▁götürür	-11.0064
▁sıradaki	-11.0067
uel	-11.007
▁firması	-11.0072
▁formları	-11.0073
▁gezegenlerin	-11.0074
▁tadını	-11.0075
▁vermişti	-11.0076
▁Öğrenciler	-11.0076
▁programlar	-11.008
▁hikayem	-11.0082
▁performansı	-11.0086
chi	-11.0092
▁diğerlerinden	-11.0093
▁deneyimleri	-11.0094
▁açıklıyor	-11.0097
▁seçimleri	-11.01
▁ormanın	-11.0105
▁dersler	-11.0107
▁uygulay	-11.0108
▁yaratı	-11.0109
▁görecek	-11.011
▁dilin	-11.0115
▁Bölge	-11.0117
▁Haziran	-11.0117
▁aykırı	-11.0117
▁cinayet	-11.0117
▁rüşvet	-11.0117
▁öbür	-11.0117
▁Demokrasi	-11.0117
▁eşcinsel	-11.0117
▁güvercin	-11.0117
▁zekâ	-11.0117
▁zarif	-11.0117
▁sentetik	-11.0117
▁korsan	-11.0118
▁darbe	-11.0118
▁telif	-11.0119
▁sayılır	-11.0119
▁denizaltı	-11.0119
▁solucan	-11.0119
▁Hızlı	-11.0119
▁batarya	-11.012
▁başladığımızda	-11.0121
▁kaçak	-11.0122
▁Eric	-11.0122
▁eşyaları	-11.0122
▁bü	-11.0124
▁Pat	-11.0124
▁sesli	-11.0125
ny	-11.013
▁ayni	-11.0133
▁eser	-11.0137
▁uçuyor	-11.014
▁açıldı	-11.0142
öz	-11.0142
▁kısıt	-11.0143
dığımı	-11.0144
▁Çocukların	-11.0145
iydi	-11.0146
▁bulunmakta	-11.0149
▁genişleme	-11.0151
▁alırken	-11.0156
▁alırsa	-11.0159
▁yılını	-11.0162
▁damar	-11.0162
▁çalışmamız	-11.0163
lacak	-11.0166
▁çekilme	-11.0167
▁Bazılarınız	-11.0167
▁odaklı	-11.0167
▁toplay	-11.0168
▁alış	-11.0171
▁biliniyor	-11.0172
▁gerçekleşme	-11.0172
▁Hal	-11.0172
▁Pu	-11.0172
▁hatırla	-11.0173
▁aldıkları	-11.0176
▁fenomen	-11.0176
▁yakalamak	-11.0178
lla	-11.0178
biliyor	-11.0182
▁kopar	-11.0183
▁toplumların	-11.0184
ros	-11.0184
▁soyle	-11.0189
▁bilgisayarların	-11.0191
ıydı	-11.0192
mıyordu	-11.0192
▁arayı	-11.0193
▁bağımlılık	-11.0196
▁gemisi	-11.0199
▁ekleme	-11.0199
omi	-11.02
▁Gene	-11.0203
▁vur	-11.0206
▁dalgaları	-11.0208
▁direnç	-11.0208
▁uzmanlar	-11.0209
ray	-11.0213
▁fena	-11.0214
▁duymuş	-11.0215
vin	-11.0219
▁canavar	-11.0221
▁renkleri	-11.0221
▁bölgenin	-11.0223
▁Suriye	-11.0224
▁davranıyor	-11.0227
▁kalkınma	-11.0228
▁kalitesini	-11.0229
eceğiniz	-11.0229
▁görebilme	-11.0229
acaklar	-11.0234
▁yaratıcılığı	-11.0235
▁görevli	-11.0239
▁olacaksınız	-11.024
▁katıldı	-11.0241
▁tamamiyl	-11.0246
▁güzelliği	-11.0247
▁oluşum	-11.0251
▁etkiledi	-11.0253
▁döngüsü	-11.0254
▁hikayelerini	-11.026
▁varlık	-11.026
▁beyniniz	-11.0262
ps	-11.0266
▁konuştuğumuz	-11.0267
▁sahi	-11.0268
▁kaderi	-11.0272
▁eylemi	-11.0272
liğinin	-11.0272
ntarktik	-11.0273
▁Oxford	-11.0273
▁tropik	-11.0273
▁çapta	-11.0273
▁banyo	-11.0273
▁onemli	-11.0273
▁irade	-11.0273
▁hiçbirşey	-11.0273
▁parazit	-11.0274
▁mekaniği	-11.0274
▁ilave	-11.0276
▁gitmesi	-11.028
▁düzine	-11.0281
▁King	-11.0283
▁Ekim	-11.0283
▁dışkı	-11.0285
▁kurtulma	-11.0287
▁çeşidi	-11.0287
▁tasarlay	-11.0289
▁fiyatları	-11.0291
▁fo	-11.0291
▁programcı	-11.0292
▁ardında	-11.0293
▁küp	-11.0295
rmal	-11.0296
▁akış	-11.0299
▁Yanı	-11.03
▁Ailem	-11.0302
eceğimizi	-11.0302
▁İste	-11.0304
▁grub	-11.0305
▁kendilerinin	-11.0309
▁çürü	-11.0313
▁varlıklar	-11.0316
▁dök	-11.0316
▁görülmemiş	-11.0319
▁ölecek	-11.0319
▁Doğrusu	-11.0323
▁bilgisi	-11.0324
▁alkışlar	-11.0333
▁etmeleri	-11.0336
▁muyu	-11.0339
sti	-11.0339
▁inin	-11.0344
▁yeter	-11.0345
▁sel	-11.0348
lenebilir	-11.0352
▁Erkekler	-11.0357
▁yuzde	-11.0359
▁alınmış	-11.036
▁Pro	-11.0361
amadığı	-11.0362
▁bağlar	-11.037
▁tartışmalar	-11.0371
▁dönüşür	-11.0372
▁binaların	-11.0373
▁müzisyen	-11.0376
▁işimi	-11.0377
▁tipi	-11.0378
▁x	-11.0379
▁gelmesini	-11.038
▁anahtarı	-11.0386
▁uzaklıkta	-11.0387
emediği	-11.0391
▁kül	-11.0394
▁kurt	-11.0394
▁olanların	-11.0394
▁calisma	-11.0398
dar	-11.04
▁robotun	-11.0401
▁seyred	-11.0401
▁hemşire	-11.0404
ick	-11.0407
▁Gülüşme	-11.0409
▁arz	-11.0411
ındaki	-11.0418
leştiriyor	-11.0423
luyoruz	-11.0427
▁karakteri	-11.043
▁sini	-11.043
▁Afgan	-11.0431
▁Florida	-11.0432
▁Mükemmel	-11.0432
▁çekirdek	-11.0432
▁Sabah	-11.0432
▁psikolog	-11.0432
▁Örnek	-11.0432
▁kızgın	-11.0432
▁Yaşlı	-11.0432
▁Petrol	-11.0432
▁dövme	-11.0432
▁kumaş	-11.0432
▁ertesi	-11.0435
▁balıklar	-11.0438
▁lüks	-11.0438
▁şansımız	-11.0439
▁hareketli	-11.0439
▁isyan	-11.044
▁yıldızı	-11.044
▁üzeri	-11.0442
▁istemiyoruz	-11.0443
▁getirip	-11.0443
▁yankı	-11.0444
▁geliştirmeye	-11.0445
▁evlerin	-11.0448
miyorlar	-11.0452
acağınız	-11.0453
halde	-11.0455
▁götürmek	-11.0456
▁Atlantik	-11.0457
▁İsa	-11.0458
▁yabani	-11.0459
▁tutarlı	-11.0459
▁Şehirler	-11.0459
▁yöneten	-11.0459
▁hani	-11.046
▁yolculuğu	-11.046
▁inkar	-11.0461
▁reform	-11.0462
ğımız	-11.0462
▁cennet	-11.0464
▁Belli	-11.0466
▁öldürmek	-11.0468
▁Okulu	-11.0469
▁maymunlar	-11.0469
▁doların	-11.0471
▁Medi	-11.0471
▁noktadan	-11.0475
▁Projesi	-11.0478
▁toprağı	-11.048
▁zekice	-11.0483
▁süreli	-11.0489
▁iyileştirme	-11.049
▁konuları	-11.0492
▁kafasını	-11.0492
mam	-11.0494
▁kuramı	-11.0494
▁sözleri	-11.0497
▁kesme	-11.0497
▁etmem	-11.0498
▁Mil	-11.0501
▁nöro	-11.0504
▁yazılımı	-11.0504
▁rejim	-11.0505
▁güneşin	-11.051
▁çektim	-11.0514
▁bıraktım	-11.0516
▁tabiki	-11.0518
▁bio	-11.0519
▁bulunduğunu	-11.0522
▁kolunu	-11.0522
▁ormanları	-11.0523
▁izler	-11.0525
▁sara	-11.0528
▁felç	-11.0529
av	-11.0534
▁hatırladı	-11.0534
digi	-11.0535
▁onar	-11.0537
▁mezar	-11.0538
▁oluşmuş	-11.0539
▁yaşımda	-11.0543
▁geçtim	-11.0546
▁bahsettiğimiz	-11.0548
▁söylemem	-11.0548
▁Lin	-11.055
▁işimiz	-11.0557
▁anlamında	-11.0558
▁kucak	-11.0561
▁geldiğimde	-11.0561
▁patlaması	-11.0565
▁anten	-11.0568
▁kabin	-11.0568
▁sanıyor	-11.0568
▁olmasın	-11.057
▁kodu	-11.0575
mızdaki	-11.0576
▁yapamıyor	-11.0576
▁ilgisini	-11.0581
▁başlattık	-11.0582
▁uçağı	-11.0584
ımızda	-11.0586
▁kozm	-11.0587
iv	-11.0591
▁yaban	-11.0592
▁medeniyet	-11.0592
î	-11.0593
▁Vietnam	-11.0593
▁Yanlış	-11.0593
▁feminist	-11.0593
▁paraşüt	-11.0593
▁sipariş	-11.0593
▁İspanya	-11.0593
▁Yavaş	-11.0593
▁acayip	-11.0593
▁ihlal	-11.0593
▁netice	-11.0594
▁bağı	-11.0594
▁eşitliği	-11.0595
▁Bilmiyorum	-11.0596
▁çektik	-11.0596
▁mıknatıs	-11.0598
▁desen	-11.0598
▁Iste	-11.0599
▁alakası	-11.0599
▁2003	-11.06
▁yükselen	-11.0601
▁gun	-11.0602
▁görebiliyorum	-11.0602
▁gözüken	-11.0604
▁değiştirerek	-11.0605
amazdı	-11.0605
▁Zamanı	-11.0608
▁teması	-11.061
▁bağlan	-11.0611
▁anlamını	-11.0612
▁üniversitede	-11.0615
▁disiplin	-11.0615
▁hoca	-11.0618
▁moleküller	-11.062
▁yapıya	-11.0622
▁seçtik	-11.0623
▁bulmaca	-11.0625
▁dansçı	-11.0628
nizdeki	-11.0629
▁yo	-11.0634
▁gercekte	-11.0636
▁sizleri	-11.0638
▁bilmeniz	-11.0639
▁becerileri	-11.064
▁uğraştı	-11.0641
▁metrelik	-11.0641
sınızdır	-11.0645
▁nü	-11.0646
▁bag	-11.0647
▁büyümeye	-11.065
▁sorumluluğu	-11.0654
▁filmler	-11.0655
▁izi	-11.0655
▁ölmüş	-11.0655
▁beynimiz	-11.0659
▁aldatma	-11.0662
▁evlen	-11.0662
▁kullanımını	-11.0663
▁çağır	-11.0664
▁düşündüğümüzde	-11.0667
▁filmini	-11.0669
▁tanımlamak	-11.0673
▁uyuma	-11.0673
▁Bina	-11.0677
ışını	-11.0678
▁kazanır	-11.0678
▁kaybettik	-11.068
▁mühendisi	-11.0681
▁çabu	-11.0681
▁öngör	-11.0682
üsü	-11.0683
▁Hepimizi	-11.0684
▁dolan	-11.0684
▁atan	-11.0686
▁söylüyordu	-11.0688
▁edildiğini	-11.0691
▁eğim	-11.0692
▁ötesi	-11.0693
▁ömrü	-11.0702
▁değin	-11.0702
old	-11.0706
▁korteks	-11.0707
▁Günü	-11.0707
▁düşündüğünüz	-11.0708
▁filmde	-11.0712
▁tarihini	-11.0713
▁odasında	-11.0721
▁hatırlatıyor	-11.0721
▁Gö	-11.0726
şim	-11.0727
▁kaybettiği	-11.0728
▁Yol	-11.073
▁oranla	-11.0734
▁seviyesini	-11.0734
▁öden	-11.0736
rik	-11.0742
-1	-11.0743
▁Bush	-11.0743
lanıp	-11.075
labilecek	-11.0753
▁tanıştığım	-11.0755
▁mürekkep	-11.0757
▁Arjantin	-11.0757
▁Dijital	-11.0757
▁Kontrol	-11.0757
▁alıkoy	-11.0757
▁enfekte	-11.0757
▁gitgide	-11.0757
▁interaktif	-11.0757
▁üzücü	-11.0757
▁Hazır	-11.0757
▁Kişi	-11.0757
▁saldırgan	-11.0758
▁kayna	-11.0758
▁imalat	-11.0759
▁ayrılmış	-11.0759
▁yürürken	-11.0761
▁mutluyum	-11.0762
▁göstergesi	-11.0762
rmak	-11.0762
▁hangisi	-11.0762
▁başlıca	-11.0763
▁baska	-11.0763
▁yeraltı	-11.0764
▁çalıyor	-11.0765
▁edebil	-11.0765
▁kanalı	-11.0765
▁düzenlen	-11.0767
▁düşünüyorsanız	-11.0771
▁ulaşır	-11.0773
▁haricinde	-11.0775
▁üçgen	-11.0775
lerimin	-11.0777
▁Ray	-11.0778
▁alıyorsunuz	-11.0779
▁Oda	-11.078
▁Karşı	-11.0783
▁36	-11.0788
▁genlerin	-11.0788
▁eksi	-11.0788
istik	-11.0789
art	-11.0789
▁kurumların	-11.079
▁bilmez	-11.0791
▁bilmiyorduk	-11.0793
▁savaşçı	-11.0798
▁dinleyici	-11.08
▁satmak	-11.08
mezsiniz	-11.0801
▁basar	-11.0803
▁mesafede	-11.0804
▁analizi	-11.0805
▁ayrım	-11.0806
▁0.	-11.0808
▁üretmeye	-11.0808
▁elimizdeki	-11.0813
▁varsay	-11.0816
▁oluşumu	-11.0817
▁inandı	-11.082
▁Yazı	-11.0826
▁koltuk	-11.0827
▁icinde	-11.0827
▁vermez	-11.0831
▁tuz	-11.0833
▁evreni	-11.0836
▁Balık	-11.0838
▁işlemci	-11.0839
▁şempanzeler	-11.084
▁yapıyordum	-11.0841
▁alırlar	-11.0844
▁ülkelerdeki	-11.0845
▁mantığı	-11.0848
▁anlayabilir	-11.0849
▁vurma	-11.0849
▁renkte	-11.0853
etik	-11.0856
▁ler	-11.0859
▁boyun	-11.0859
lediğimiz	-11.0859
▁Ger	-11.0861
▁hareketler	-11.0862
diğimi	-11.0862
▁devri	-11.0867
▁hey	-11.0868
▁kalmaya	-11.0868
▁evcil	-11.0869
▁şuan	-11.087
▁Seyirci	-11.0871
▁grafiği	-11.0871
▁malzemeleri	-11.0875
▁gerçeğ	-11.0878
dıkça	-11.088
▁değilsiniz	-11.088
▁ilki	-11.0884
▁seçmek	-11.0894
▁farketti	-11.0897
▁ayırma	-11.0898
▁fen	-11.0898
her	-11.0899
▁Kural	-11.09
▁ulaştık	-11.0901
and	-11.0906
sinizdir	-11.0907
▁nitelik	-11.0912
▁Oray	-11.0912
▁gül	-11.0913
▁vücudu	-11.0915
cisi	-11.0915
▁şeytan	-11.0919
▁kalanını	-11.092
▁AM	-11.092
▁doğmuş	-11.092
▁karışımı	-11.0922
▁bütünüy	-11.0922
▁aklımız	-11.0922
▁Cambridge	-11.0924
▁Microsoft	-11.0924
▁Wikipedia	-11.0924
▁klavye	-11.0924
▁sandviç	-11.0924
▁estetik	-11.0924
▁sensör	-11.0924
▁bulaşıcı	-11.0924
▁tükenmiş	-11.0924
▁gereksinim	-11.0925
▁masum	-11.0926
▁soğu	-11.0926
▁evlat	-11.0926
▁ettirme	-11.0927
▁Kişisel	-11.0927
▁pişmanlık	-11.0928
▁zıpla	-11.0929
▁örtü	-11.0929
▁konusunu	-11.093
memiş	-11.0931
▁nehrin	-11.0932
▁modül	-11.0938
▁çektiği	-11.0938
▁farklılıkları	-11.0939
▁ederse	-11.094
▁çit	-11.094
▁arabaları	-11.0943
▁kabiliyet	-11.0944
▁gelirse	-11.0945
yordum	-11.0946
▁Jane	-11.0949
▁görüldüğü	-11.0949
▁enstitü	-11.0951
▁Res	-11.0952
bon	-11.0954
▁yaşıyorum	-11.0955
▁beklenti	-11.0955
▁ailelerin	-11.096
▁solu	-11.0961
▁dizisi	-11.0961
▁İtalyan	-11.0962
rip	-11.0968
▁Bas	-11.0971
▁parçaların	-11.0971
▁fiber	-11.0972
▁Ayn	-11.0974
▁torunları	-11.0975
▁çalar	-11.0977
▁Seyirciler	-11.0977
▁Rob	-11.0985
▁gününde	-11.0986
▁havuzu	-11.099
▁yazısı	-11.0992
▁gidiş	-11.0994
▁alanlarını	-11.0995
▁değişiklikleri	-11.0996
▁girdik	-11.0997
▁bulunabilir	-11.0997
▁çözdü	-11.0998
▁Oradaki	-11.1001
▁pişir	-11.1003
▁oh	-11.1009
bilimci	-11.1011
▁Kay	-11.1012
rası	-11.1013
RB	-11.1015
▁cevabını	-11.1019
▁azaldı	-11.1025
▁etrafı	-11.1029
▁atlama	-11.103
hop	-11.103
▁eğil	-11.1031
▁yayılma	-11.1032
▁hayvanlarda	-11.1034
▁gösterebilir	-11.1037
▁üretil	-11.1037
▁parçacıklar	-11.1039
▁yapardı	-11.1043
dığımızı	-11.1045
▁teknolojiyle	-11.1045
▁bakıyorlar	-11.1046
▁atalarımız	-11.1048
▁sahipsiniz	-11.1049
malısın	-11.1049
▁örtüsü	-11.1052
▁emek	-11.1055
▁Hayatı	-11.1056
▁Tor	-11.1057
▁araçların	-11.1059
▁kenarında	-11.1061
▁baskın	-11.1062
▁kafe	-11.1063
MA	-11.1064
▁modelin	-11.1064
meme	-11.1068
▁uğramış	-11.1074
abilirler	-11.1076
▁huzur	-11.1079
▁mide	-11.1079
car	-11.1079
▁yayılması	-11.108
▁geçirdiğim	-11.1081
▁konuştuğu	-11.1081
▁karmaşa	-11.1081
▁yerlerden	-11.1084
▁çıkabilir	-11.109
▁ettiklerini	-11.1092
▁muhafaza	-11.1092
▁tünel	-11.1092
▁halihazırda	-11.1093
▁peynir	-11.1093
▁Sahra	-11.1093
▁arşiv	-11.1093
▁patates	-11.1093
▁Binlerce	-11.1093
▁cihad	-11.1093
▁Kullan	-11.1093
▁enjekt	-11.1093
▁imge	-11.1093
▁öğe	-11.1094
▁goz	-11.1094
▁Nick	-11.1095
bet	-11.1095
▁olmayacağı	-11.1095
üç	-11.1097
abildik	-11.1098
▁düşünmeliyiz	-11.1098
▁Model	-11.1098
▁Brun	-11.1098
▁oluştuğunu	-11.1099
▁düşünebiliriz	-11.1101
▁uzanan	-11.1101
▁hayvanı	-11.1102
▁iyileştir	-11.1102
▁kalmayıp	-11.1103
▁çocuğum	-11.1103
▁yüksel	-11.1105
▁öğrencilere	-11.1107
▁niyet	-11.1108
▁harcan	-11.1108
▁parmakları	-11.1113
▁yapmalarını	-11.1115
▁şempanze	-11.1115
ydiler	-11.1116
▁ölüme	-11.1117
▁söylemiş	-11.1117
▁yerlerin	-11.1119
▁küçül	-11.1119
▁maddeler	-11.112
▁Che	-11.1122
▁Hayvan	-11.1122
▁4.	-11.1123
▁suçlama	-11.1123
▁düşünebilir	-11.1124
▁ellerini	-11.1124
▁ayrıla	-11.1126
ünüzü	-11.1126
▁Koruma	-11.1128
▁içsel	-11.1129
▁evimiz	-11.113
▁burun	-11.113
▁özünde	-11.1131
▁yitir	-11.1132
▁boyle	-11.1132
▁salgını	-11.1134
▁gidiyorum	-11.1135
▁sars	-11.1135
▁geldiğimiz	-11.1137
▁aramızda	-11.1137
▁saklan	-11.114
▁ebeveynleri	-11.1143
▁genler	-11.1151
ER	-11.1154
▁Şirketler	-11.1155
▁vücudunuz	-11.1157
▁kapa	-11.116
▁yayılmış	-11.116
▁geni	-11.1161
umuzun	-11.1167
▁ülkesi	-11.1168
▁Yapı	-11.1168
▁700	-11.1168
▁bugünün	-11.117
▁edilecek	-11.117
▁duydukları	-11.1183
▁interneti	-11.1187
ling	-11.1189
▁bahar	-11.119
▁kalbim	-11.1193
▁üçü	-11.1195
▁gene	-11.1195
amadı	-11.1196
kâr	-11.1202
ecektir	-11.1202
▁düşür	-11.1202
▁nesneleri	-11.1204
▁Din	-11.1204
▁ticareti	-11.1205
laştırıyor	-11.1205
▁aracın	-11.1207
▁uçma	-11.1209
▁bebeği	-11.1211
▁sever	-11.1212
▁ortamında	-11.1215
▁modelini	-11.1217
▁belirlen	-11.1218
▁element	-11.1218
▁inceler	-11.1219
▁başkası	-11.122
▁Ü	-11.1222
▁Ödülü	-11.1223
▁akımı	-11.1226
▁bulgu	-11.1227
▁getireceği	-11.1229
▁tadı	-11.123
▁filmin	-11.1232
▁çaldı	-11.1233
▁sö	-11.1239
▁Altın	-11.1241
▁yaratık	-11.1241
City	-11.1242
▁almıştı	-11.1246
▁göremiyor	-11.1248
▁nakli	-11.1251
▁hayatlarında	-11.1252
▁yapamaz	-11.1252
▁dünyasının	-11.1256
larımla	-11.1258
▁tutum	-11.1259
▁Hristiyan	-11.1262
▁aylar	-11.1264
▁evlenme	-11.1265
▁coğrafi	-11.1265
▁kristal	-11.1265
▁muayene	-11.1265
▁yozlaşma	-11.1265
▁hemfikir	-11.1265
▁evvel	-11.1265
▁ödüyor	-11.1265
▁Brown	-11.1266
▁sistematik	-11.1266
▁göğsü	-11.1266
▁terapi	-11.1266
▁işkence	-11.1266
▁gütmeye	-11.1266
▁sakat	-11.1266
malıdır	-11.1266
BA	-11.1266
▁beklenen	-11.1269
▁beyne	-11.1271
▁oluşu	-11.1272
▁belgesel	-11.1274
▁söylendi	-11.1274
bes	-11.1274
tığınızda	-11.1274
▁şe	-11.1274
rebiliriz	-11.1274
▁biliyorsun	-11.1276
▁bulunmaktadır	-11.1279
▁yapıyorsun	-11.1279
▁Sıradaki	-11.1279
▁dayanan	-11.1279
▁lens	-11.128
▁kavramını	-11.1281
cal	-11.1281
▁hissetmek	-11.1283
▁duyuyoruz	-11.1283
▁çağdaş	-11.1286
▁gülme	-11.1288
▁Cam	-11.129
▁yaklaştığı	-11.129
▁etmeme	-11.1291
▁planla	-11.1296
▁tabanı	-11.13
▁böl	-11.1301
▁sanatçılar	-11.1302
▁gözükme	-11.1304
▁anneler	-11.1307
▁alev	-11.1308
geçip	-11.131
▁erkeklere	-11.1311
▁çalan	-11.1311
▁Gore	-11.1313
▁bağlam	-11.1314
▁Tri	-11.1316
▁adamların	-11.1318
▁hic	-11.1318
▁baktığımız	-11.1321
▁kılıyor	-11.1321
▁penguen	-11.1322
fel	-11.1328
▁yapıştır	-11.133
ırım	-11.1332
▁ortaklık	-11.1334
▁elit	-11.1338
▁Gezegen	-11.1339
▁artması	-11.1339
▁Kendini	-11.1343
▁sağladık	-11.1343
▁aldığınız	-11.1344
▁29	-11.1344
irdi	-11.1346
▁hoşum	-11.1347
amam	-11.1348
▁olduğuydu	-11.1349
are	-11.1349
▁paylaştı	-11.1349
▁gelirler	-11.135
▁başkasının	-11.1351
▁çektiğim	-11.1352
ebilecekleri	-11.1357
▁bakıyordu	-11.136
▁şehirleri	-11.1361
▁dönüşü	-11.1363
▁pas	-11.1363
▁Is	-11.1365
▁önerme	-11.1366
▁oluşturabilir	-11.1368
▁harcıyor	-11.1371
▁bankacı	-11.1371
▁Eh	-11.1371
▁kaçınma	-11.1375
▁masada	-11.1377
▁bağlılık	-11.1377
the	-11.1383
▁çocuklarım	-11.1384
▁gerektiğin	-11.1388
▁ge	-11.1389
▁paylaştığı	-11.139
▁She	-11.1393
▁senede	-11.1397
▁askerler	-11.1398
▁tat	-11.14
▁Telefon	-11.1406
▁duruyordu	-11.1407
▁kaplan	-11.1408
ego	-11.1408
▁doktoru	-11.141
rke	-11.141
▁diyebilir	-11.1411
cısı	-11.1413
▁Okyanusu	-11.1413
▁deyin	-11.1414
▁ormanda	-11.1418
▁yaşlarda	-11.1422
▁vasıtası	-11.1425
▁gerçekliğin	-11.143
ih	-11.1433
▁göründüğünü	-11.1433
▁ormanı	-11.1436
ksiyon	-11.1441
▁Etiyopya	-11.1441
▁bambaşka	-11.1441
▁istihbarat	-11.1441
▁Şarkı	-11.1441
▁şükür	-11.1441
▁ampul	-11.1441
▁tweet	-11.1441
▁goster	-11.1441
▁zafer	-11.1441
▁Medya	-11.1441
ven	-11.1442
▁denetim	-11.1442
▁hekim	-11.1442
▁Nano	-11.1443
▁destekliyor	-11.1444
▁gösterge	-11.1444
▁Arapça	-11.1445
▁Şans	-11.1445
▁nu	-11.1445
▁yıkım	-11.1446
▁köken	-11.1447
▁düşünül	-11.1448
▁kalça	-11.1449
▁diyebilirim	-11.1449
▁kaybeden	-11.1449
▁bakıcı	-11.145
▁yıldızın	-11.1453
▁edebilirim	-11.146
▁yaparım	-11.146
▁sanatsal	-11.1461
mediği	-11.1462
ücü	-11.1463
▁ikon	-11.1466
▁gittiler	-11.1468
▁mobilya	-11.1468
▁Matt	-11.1469
▁Hedef	-11.1474
▁ekonomist	-11.1474
sünü	-11.1475
▁hayvanın	-11.1475
▁İçeri	-11.1479
sinda	-11.148
▁işitme	-11.1482
▁boşa	-11.1482
▁gerçekler	-11.1484
▁uçaklar	-11.1485
▁Carl	-11.1488
▁kibar	-11.149
ınızın	-11.1491
▁yüzen	-11.1492
öl	-11.1495
▁ulaştığı	-11.1498
▁Star	-11.15
maktır	-11.1502
anne	-11.1504
▁hareketini	-11.1506
▁aktarıl	-11.1511
lebilir	-11.1513
▁resif	-11.1513
▁Joe	-11.1513
▁almamız	-11.1514
▁sürer	-11.1517
▁gördüğünde	-11.1518
▁pu	-11.1521
▁arkada	-11.1521
▁Uç	-11.1523
▁İleri	-11.1524
▁yayılıyor	-11.1526
iyeti	-11.1529
laşır	-11.153
▁formül	-11.1532
▁hayatımızda	-11.1532
▁kılı	-11.1533
▁unutmayı	-11.1535
▁arkadaşlarımız	-11.1536
▁bulabil	-11.1538
▁toplumlarda	-11.1541
▁sürdür	-11.1542
▁CD	-11.1546
▁bunda	-11.1552
▁sistemde	-11.1556
▁dinler	-11.156
▁toplar	-11.156
▁Boy	-11.1563
arası	-11.1564
▁toprağın	-11.1565
▁edebileceği	-11.1567
▁temizlik	-11.1567
▁raf	-11.157
▁kayma	-11.157
▁uygulaması	-11.1571
▁silahlar	-11.1572
▁giyin	-11.1574
▁ölçmek	-11.1575
▁mar	-11.1576
gal	-11.1576
13	-11.1576
▁eğitme	-11.1577
▁gec	-11.1578
▁unutu	-11.158
▁yerleş	-11.1582
▁bilgisayarda	-11.1588
tesi	-11.1589
▁alabilme	-11.1589
▁açısını	-11.159
▁arkadaşımı	-11.159
▁çözümleri	-11.1591
dikçe	-11.1591
▁Siyah	-11.1591
▁gitmeyi	-11.1592
▁durumları	-11.1593
▁kullanılmış	-11.1597
▁800	-11.1598
▁Merkez	-11.1599
lduğunu	-11.1601
▁ömür	-11.1602
▁yapabil	-11.1603
▁payı	-11.1604
▁eserleri	-11.1606
▁bıraktık	-11.1607
▁Öte	-11.1612
▁aktiv	-11.1614
▁hatırlat	-11.1618
▁zorunlu	-11.1618
▁açıklaması	-11.1618
▁Gates	-11.1619
▁Kitabı	-11.1619
▁LED	-11.1619
▁Vakfı	-11.1619
▁coğrafya	-11.1619
▁dogru	-11.1619
▁fırça	-11.1619
▁gençlerin	-11.1619
▁şahane	-11.1619
▁Virgin	-11.162
▁Pekâl	-11.162
▁görülebilir	-11.162
▁yatkın	-11.1621
▁yolsuzluk	-11.1622
▁hissettir	-11.1623
▁Nehri	-11.1624
rah	-11.1625
▁iletişimi	-11.1626
▁katılımcı	-11.163
▁Newton	-11.1631
▁konuşuyorum	-11.1632
▁söyleyebiliriz	-11.1634
▁hükumet	-11.1634
▁Polis	-11.1636
ell	-11.1636
▁aslin	-11.1637
▁uzaylı	-11.1637
▁ima	-11.1639
▁anlattığım	-11.164
▁kg	-11.1641
▁Kendimizi	-11.1641
▁evlerinde	-11.1641
▁Boş	-11.1641
▁yapısal	-11.1642
▁yakaladı	-11.1645
▁gore	-11.1646
▁geçirmiş	-11.1646
▁edeceğiniz	-11.1647
▁sistemlerin	-11.1647
▁olsaydınız	-11.1647
▁Seçim	-11.1648
▁Henr	-11.1648
▁haliyle	-11.1649
▁maç	-11.1649
▁gideceği	-11.1652
▁yaya	-11.1653
▁evrendeki	-11.1654
▁seksi	-11.1654
▁kaos	-11.1655
▁yosun	-11.1658
▁bilerek	-11.166
bl	-11.1661
ille	-11.1662
▁lo	-11.1663
mur	-11.1664
▁Kitap	-11.1666
▁hevesli	-11.1667
▁gö	-11.1669
▁gerçeğini	-11.1672
▁etkileşime	-11.1672
▁başlaması	-11.1672
▁deneyleri	-11.1679
ladılar	-11.1679
ildiğinde	-11.1679
liğinde	-11.1681
▁tıka	-11.1682
▁aklımda	-11.1682
lmaz	-11.1684
▁çoğunluk	-11.1688
▁Geçmiş	-11.1688
▁tasarladı	-11.1695
▁Bayanlar	-11.1696
▁besleme	-11.1698
▁başarma	-11.1701
▁çalışmalarını	-11.1702
▁adamla	-11.1705
,5	-11.1706
▁kirlilik	-11.1708
▁çim	-11.1709
▁rahatlık	-11.1709
▁örneğini	-11.171
ix	-11.1713
▁evrimi	-11.1713
▁yapmaz	-11.1713
▁idam	-11.1717
▁düzeni	-11.1717
▁savaşmak	-11.172
lendiğini	-11.1722
▁Öğretmen	-11.1723
▁dolaşma	-11.1723
▁baktığınız	-11.1725
▁Durum	-11.1726
▁çizme	-11.173
▁hedefler	-11.1731
▁bulunmak	-11.1731
▁duyur	-11.1734
20	-11.1734
▁Dev	-11.1741
▁yapabildiği	-11.1741
▁aklınızda	-11.1743
▁karakterler	-11.1747
▁birdenbire	-11.175
▁hatalar	-11.1751
▁girişimciler	-11.1751
▁Big	-11.1752
▁cins	-11.1752
▁disk	-11.1753
layacağız	-11.1755
▁sırrı	-11.1756
▁yükseldi	-11.1757
▁Bayan	-11.1759
▁merkezleri	-11.1759
▁bakımı	-11.1759
▁evim	-11.176
▁tanımlıyor	-11.1761
irsiniz	-11.1762
▁mirası	-11.1762
▁kızları	-11.1768
▁kanıtlar	-11.1771
▁duymuşsunuz	-11.1771
▁görmedi	-11.1774
▁ilerledi	-11.1777
▁kaynakların	-11.1782
▁ayırmak	-11.1785
mezler	-11.1786
▁videoda	-11.1789
▁Hücre	-11.1801
▁doğuştan	-11.1801
▁hükûmet	-11.1801
▁istihdam	-11.1801
▁istismar	-11.1801
▁mecbur	-11.1801
▁muhabir	-11.1801
▁tahıl	-11.1801
▁Jeff	-11.1801
▁meslektaşım	-11.1801
▁numune	-11.1801
▁tasvir	-11.1801
▁Ruanda	-11.1801
▁Yaratıcı	-11.1801
▁Taliban	-11.1801
▁talebi	-11.1801
▁Simdi	-11.1801
▁öldürücü	-11.1801
▁eşdeğer	-11.1802
▁düşünürüz	-11.1802
▁Kelime	-11.1802
▁etiketi	-11.1802
▁Değer	-11.1802
▁Yıldız	-11.1802
▁çene	-11.1802
▁etnik	-11.1804
▁kavramsal	-11.1805
▁yetenekler	-11.1805
▁okuyucu	-11.1806
▁hergün	-11.1807
▁Tony	-11.1807
dayken	-11.1809
▁tanımlayan	-11.1809
▁salon	-11.1809
mıyorlar	-11.181
▁Hastane	-11.1811
▁etmenizi	-11.1812
▁Eg	-11.1813
AR	-11.1814
umuzu	-11.1815
▁1.000	-11.1816
▁oluşturmaya	-11.1818
▁Nere	-11.1818
▁konuşuyoruz	-11.1819
▁çevirmek	-11.1821
▁Ad	-11.1821
▁yürüyen	-11.1821
▁araştırması	-11.1824
▁çalma	-11.1826
saydık	-11.1827
▁sayfası	-11.1829
▁sattı	-11.1831
ska	-11.1833
layabilirsiniz	-11.1833
▁arılar	-11.1833
▁araştırmak	-11.1835
▁oluşturacak	-11.1836
▁sunumu	-11.1836
▁ölçer	-11.1837
▁akan	-11.184
▁tutuk	-11.184
labiliriz	-11.1842
▁gelişiyor	-11.1842
▁görünmeyen	-11.1844
▁atı	-11.1845
düğünü	-11.1845
▁Adaları	-11.1846
▁odasına	-11.1846
▁savunmasız	-11.1847
▁Ru	-11.1852
▁yıla	-11.1853
▁başlı	-11.1854
stik	-11.1856
▁değillerdi	-11.1858
▁başarmak	-11.1858
▁dediğini	-11.1858
▁uzayın	-11.1861
mazsınız	-11.1863
NSA	-11.1864
lur	-11.1865
ig	-11.1867
çılar	-11.1867
▁yüzeyde	-11.1869
▁haftalık	-11.1869
▁bizimki	-11.187
▁riskleri	-11.1872
of	-11.1872
▁kü	-11.1872
▁organı	-11.1873
amayacağı	-11.1877
▁kurulmuş	-11.1878
▁kafası	-11.188
▁yaşayabilir	-11.1881
▁yerleştirme	-11.1883
▁insa	-11.1888
▁yetiştirmek	-11.1889
▁vazgeçme	-11.1889
▁kullandığım	-11.1892
▁yerleştirdik	-11.1896
▁Sor	-11.1897
▁yerdeki	-11.1897
▁yapabilecekleri	-11.1897
▁olmadıkları	-11.1898
▁pe	-11.1899
▁adlandır	-11.19
▁hikâyeler	-11.1904
imizden	-11.1904
▁Yok	-11.1904
▁başkan	-11.1905
▁çalışmaların	-11.1905
▁butun	-11.1907
▁kurumları	-11.191
▁çoğunda	-11.191
▁karmaşıklık	-11.1914
▁simge	-11.1916
▁mikroplar	-11.1916
▁taşıdı	-11.1917
▁gide	-11.1918
▁amaçlar	-11.192
▁oğlunu	-11.1921
▁elli	-11.1921
▁avantajı	-11.1922
▁kıyafet	-11.1927
▁etmektir	-11.1929
▁gömülü	-11.1929
▁ulaşıyor	-11.1932
▁kesil	-11.1936
▁heves	-11.1938
▁kahkaha	-11.194
▁öğretmenleri	-11.1941
▁uyuyor	-11.1942
▁sorunlarını	-11.1943
▁ürünlerin	-11.1944
lenecek	-11.1944
▁özen	-11.1944
▁yaprak	-11.1948
▁Kev	-11.1948
▁ameliyatı	-11.195
digini	-11.1951
▁olurken	-11.1951
▁Marc	-11.1952
▁ileti	-11.1952
▁çember	-11.1952
▁psiko	-11.1953
▁evliliği	-11.1955
▁çıkarın	-11.1956
diğine	-11.1957
mişler	-11.1959
▁Eşim	-11.1962
▁internetten	-11.1966
▁yapama	-11.1971
▁yayınladı	-11.1971
▁hayatınız	-11.1974
opi	-11.1975
▁katılmak	-11.1975
▁kültürünü	-11.1976
▁askerleri	-11.1976
▁kapatma	-11.1979
▁kullandığınız	-11.198
▁tükenme	-11.1981
▁kitabını	-11.1982
▁tanımlar	-11.1983
▁Sırada	-11.1984
▁astronot	-11.1986
▁filozof	-11.1986
▁illüzyon	-11.1986
▁laboratuar	-11.1986
▁timsah	-11.1986
▁çorba	-11.1986
▁şarj	-11.1986
▁rakip	-11.1986
▁zira	-11.1987
▁İsmi	-11.1987
▁çevrili	-11.1987
▁kurşun	-11.1987
▁primat	-11.1987
▁Yan	-11.1987
▁patern	-11.1987
▁Düşünün	-11.1988
▁zihniyet	-11.1988
▁Michel	-11.1988
▁itibariyle	-11.1988
▁yatay	-11.1988
ville	-11.199
▁hasat	-11.199
▁Fare	-11.1992
▁yırtıcı	-11.1992
▁sezgisel	-11.1992
▁sorabilirsiniz	-11.1993
▁Bell	-11.1995
▁Pal	-11.2002
▁bağlıyor	-11.2003
▁durak	-11.2005
mıyorum	-11.201
ben	-11.2012
▁erkeğin	-11.2015
▁sütun	-11.2023
▁edinme	-11.2025
▁sevdim	-11.2028
▁Nik	-11.2034
yacaksınız	-11.2035
▁başvuru	-11.2038
▁çıkarım	-11.2041
▁arkadaşlarınız	-11.2041
▁yolculuğun	-11.2042
▁seçenekler	-11.2044
▁belirleye	-11.2046
▁Sir	-11.2048
▁yıkıl	-11.2049
▁nesnelerin	-11.2054
▁istenme	-11.2055
▁içinizde	-11.2057
▁gitmiyor	-11.2058
▁alınma	-11.2059
▁tabu	-11.2063
▁kişileri	-11.2064
▁bulmamız	-11.2065
▁köşede	-11.207
ill	-11.2071
▁duymaya	-11.2071
▁Sch	-11.2071
arry	-11.2072
▁denemeye	-11.2072
▁lisede	-11.2076
▁edebileceğimiz	-11.2079
atif	-11.208
▁yoğunluk	-11.2081
▁araştırdı	-11.2087
▁denizin	-11.2089
▁artar	-11.209
▁güveni	-11.2091
▁Mola	-11.2091
ğr	-11.2092
▁şerit	-11.2093
▁geleni	-11.2094
▁doğdum	-11.2095
▁emisyon	-11.2096
▁belirtmek	-11.2097
▁Inc	-11.2097
▁şef	-11.2098
▁Green	-11.2099
▁bırakın	-11.2102
▁tasarrufu	-11.2105
▁sürüklen	-11.2108
▁kameralar	-11.2108
▁öteki	-11.2109
leşmesi	-11.2109
▁ödev	-11.2113
▁gerçeğin	-11.2113
▁sivrisinek	-11.2114
▁kemikleri	-11.2115
▁yiyor	-11.212
▁zenginlik	-11.2122
▁Sistemi	-11.2123
nter	-11.2124
▁Başkanı	-11.2124
▁Avrupalı	-11.2126
▁kalmaz	-11.2126
▁bay	-11.2129
▁bakterilerin	-11.2129
▁arkadaşlarını	-11.2131
▁yaralanma	-11.2131
▁kafamda	-11.2133
▁bölümleri	-11.2137
▁yüzün	-11.2137
▁iyileştirmek	-11.2139
▁salgının	-11.2141
▁işlediğini	-11.2144
▁okudu	-11.2145
▁katlı	-11.2145
▁balonu	-11.2147
▁kolları	-11.2148
digimiz	-11.2149
▁mekanizması	-11.215
▁biyolog	-11.2161
▁attığı	-11.2162
▁bozukluk	-11.2169
▁oluştuğu	-11.2169
▁konuşmasını	-11.2169
ıyorlardı	-11.2169
▁geçirdiği	-11.217
▁kromozom	-11.217
▁Güç	-11.2172
▁bulacak	-11.2172
▁lamba	-11.2173
▁iyilik	-11.2173
▁teşkil	-11.2175
▁Nihayet	-11.2175
▁sponsor	-11.2175
▁ritüel	-11.2175
▁semptom	-11.2175
▁spesifik	-11.2175
▁örüntü	-11.2175
▁otoyol	-11.2175
▁düşünüp	-11.2175
▁Şiir	-11.2175
▁Brian	-11.2175
▁taciz	-11.2175
▁makul	-11.2176
▁Alex	-11.2176
▁Berlin	-11.2176
▁giz	-11.2176
▁Jack	-11.2177
▁193	-11.2177
▁fren	-11.2178
▁saklı	-11.2178
▁2020	-11.2179
▁haz	-11.2179
▁Aralık	-11.2179
▁Seat	-11.218
▁başımıza	-11.218
-2	-11.218
liklerini	-11.2181
tiğim	-11.2182
▁olmayacaktı	-11.2182
▁Lise	-11.2185
acakları	-11.2185
▁gündüz	-11.2186
▁Hay	-11.2188
rdı	-11.219
▁işçiler	-11.219
▁eğlen	-11.219
▁alışkanlık	-11.2193
▁Bel	-11.2197
▁bölgesel	-11.2203
▁maliyetini	-11.2203
şu	-11.2204
▁benzersiz	-11.2205
▁arayüzü	-11.2207
▁amca	-11.2207
▁kanunları	-11.2208
▁lezzetli	-11.2208
▁büyülü	-11.2208
▁yaşandı	-11.221
▁satıcı	-11.221
▁anlaşılması	-11.2211
▁halı	-11.2212
▁baya	-11.2214
▁Arkadaş	-11.2217
▁altta	-11.2222
▁bahsetmiyoru	-11.2224
laması	-11.2224
▁evre	-11.2224
▁mutluluğu	-11.2225
▁Dün	-11.2226
▁öncelik	-11.2227
▁beyninde	-11.2227
▁Öz	-11.2232
▁goru	-11.2233
▁bağlanmış	-11.2233
▁yetkili	-11.2235
▁kaçın	-11.2236
▁olsalar	-11.2237
▁ışığ	-11.2239
▁kültürümüz	-11.2241
▁Fl	-11.2241
▁hayatınızda	-11.2245
▁versiyonunu	-11.2248
▁Birden	-11.2248
▁Bilme	-11.225
▁evsiz	-11.2252
▁anlayabiliyor	-11.2253
▁Gelin	-11.2253
▁tema	-11.2255
▁Git	-11.2257
▁cm	-11.2258
▁kıza	-11.2259
▁boğul	-11.2261
▁gittiğinde	-11.2262
▁aklınız	-11.2263
▁eğ	-11.2264
▁sorusunu	-11.2267
▁ödeye	-11.227
▁Dışarı	-11.2271
▁çalıştıkları	-11.2272
▁Herkesi	-11.2277
▁aklı	-11.2278
▁değerinde	-11.2278
▁seninle	-11.2278
▁olanağı	-11.2279
amadım	-11.2279
▁cevapları	-11.2284
duğumuz	-11.2285
▁ilgilenmeye	-11.2289
▁metan	-11.2292
▁teknikleri	-11.2295
batı	-11.2296
▁bölme	-11.2297
▁cezası	-11.2298
▁Hayatımı	-11.2303
▁akıntı	-11.2304
▁sağla	-11.2304
▁açılış	-11.2306
▁gücümüz	-11.2306
▁canlandırma	-11.2307
▁yakınında	-11.2307
▁y	-11.2308
▁çiftleşme	-11.2315
▁lobi	-11.2315
▁birsey	-11.2316
▁komşuları	-11.2316
▁umutsuz	-11.2316
▁yaşları	-11.2316
emeyeceği	-11.2318
▁kırıklığın	-11.2321
▁barındır	-11.2326
▁Bra	-11.2328
yacağı	-11.2329
yacağız	-11.2329
▁deneyin	-11.2329
▁tesadüf	-11.2331
▁topladık	-11.2331
▁bölgelerin	-11.2333
▁dinleyiciler	-11.2335
▁bileşen	-11.2338
▁etmediği	-11.234
▁Hollanda	-11.2341
▁önceydi	-11.2342
▁karşılaştığı	-11.2345
▁bilmiyordu	-11.2347
▁fırlat	-11.2347
▁Bor	-11.2348
▁okullarda	-11.2349
▁okuy	-11.2349
▁gündem	-11.235
▁müdürü	-11.2353
▁zıt	-11.2357
▁zamanımız	-11.2358
▁kullanacağı	-11.2358
▁bakmayı	-11.2359
▁çalışmış	-11.2359
abilmesi	-11.2361
▁kırı	-11.2362
▁yağı	-11.2365
▁samimi	-11.2367
▁Parkinson	-11.2367
▁beyefendi	-11.2367
▁National	-11.2367
▁görülür	-11.2367
▁oksitosin	-11.2367
▁avuç	-11.2367
▁fatura	-11.2367
▁genetiği	-11.2367
▁izole	-11.2367
▁manşet	-11.2368
▁oğlan	-11.2368
▁Delhi	-11.2368
▁Duvar	-11.2368
▁solunum	-11.2368
▁Şubat	-11.2368
▁çalışmakta	-11.237
▁niha	-11.2371
▁videosu	-11.2371
▁barışı	-11.2371
▁kader	-11.2372
▁II	-11.2375
▁harcıyoruz	-11.2376
▁kümesi	-11.2377
▁hayranı	-11.2379
▁durdurmak	-11.238
lduğunda	-11.2383
▁edemiyor	-11.2389
▁Bunlara	-11.2391
▁kaldırıp	-11.2392
▁geleneği	-11.2392
▁arkasın	-11.2394
▁ulaşı	-11.2398
▁efekt	-11.24
▁yaşamayı	-11.2403
▁profesörü	-11.2404
▁Kaçınız	-11.2405
▁anlayan	-11.2405
▁karanlıkta	-11.2406
▁Nor	-11.2407
▁servisi	-11.2408
▁olsam	-11.2411
▁so	-11.2414
lüğ	-11.2415
▁koro	-11.2415
▁niyetli	-11.2415
▁olanlardan	-11.2415
▁anlayabilmek	-11.2416
▁isteriz	-11.242
▁bozu	-11.242
▁bulunması	-11.242
▁bilimci	-11.2421
▁mana	-11.2421
▁değişmesi	-11.2427
▁engellemek	-11.2428
ebilirler	-11.2428
▁kalkış	-11.2428
▁sağdaki	-11.243
▁Han	-11.2431
▁sağlığını	-11.2432
layabilecek	-11.2433
▁Dağı	-11.2434
▁kaldırım	-11.2435
▁konsept	-11.2436
▁yayınlama	-11.2437
▁ırkçı	-11.2437
▁Derin	-11.2438
▁Yara	-11.2438
▁amacım	-11.2439
▁hareketlerini	-11.2439
▁yüzeyin	-11.2442
▁190	-11.2443
▁sokaklarda	-11.2445
▁Devrimi	-11.2445
▁bölgeyi	-11.2447
▁şeffaflık	-11.2456
▁inceledik	-11.2457
▁sıralama	-11.2461
▁önlemek	-11.2461
▁telefonlar	-11.2462
▁bilmediğimiz	-11.2463
▁tartışmaya	-11.2463
▁satıyor	-11.2463
▁verdiğiniz	-11.2463
▁gösteriyorum	-11.2463
▁durduğu	-11.2465
▁kaybolma	-11.2472
▁ilgilenir	-11.2479
▁Pen	-11.2479
lanmamış	-11.2479
▁işaretleri	-11.248
▁teknolojimiz	-11.248
▁gereklidir	-11.2487
▁temelinde	-11.2489
▁maya	-11.2491
ju	-11.2494
▁kaynaklarını	-11.2498
▁avlanma	-11.25
doğu	-11.25
▁yerdi	-11.2501
▁peri	-11.2504
▁edeceğini	-11.2505
meliyim	-11.2506
▁konuşu	-11.2507
▁verirler	-11.2509
▁unu	-11.2509
▁gitmişti	-11.2514
▁Fil	-11.2514
▁sü	-11.2515
▁dikil	-11.2518
▁Gen	-11.2518
▁gülümseme	-11.252
▁karın	-11.2521
▁Filistin	-11.2522
▁kodlama	-11.2523
lacağını	-11.2523
▁değiştirebil	-11.2524
▁savun	-11.2526
▁Kas	-11.2527
▁silahları	-11.2534
▁görüldü	-11.2534
▁yaramıyor	-11.2541
▁asi	-11.2542
▁taşıy	-11.2544
▁uyuş	-11.2546
▁ayaklanma	-11.2546
▁gönderir	-11.2548
▁sihir	-11.2548
▁teker	-11.2549
▁politikacı	-11.2551
▁karış	-11.2552
▁salgı	-11.2553
▁molekülü	-11.2553
▁çıkartma	-11.2553
▁iyiye	-11.2558
▁görmüştü	-11.2558
▁sınırlarını	-11.256
▁çekin	-11.2561
▁vardık	-11.2562
abiliyorlar	-11.2563
▁origami	-11.2564
▁Anlaşıl	-11.2564
▁argüman	-11.2564
▁garaj	-11.2564
▁sansür	-11.2564
▁Silah	-11.2564
▁ürkütücü	-11.2564
▁Görünüş	-11.2564
▁pamuk	-11.2564
▁servet	-11.2564
▁ufacık	-11.2564
▁bayrak	-11.2564
▁Julia	-11.2564
▁girmiş	-11.2564
▁ipucu	-11.2564
▁düşünürsünüz	-11.2564
▁üzgünüm	-11.2564
▁Bitki	-11.2564
▁öldürüyor	-11.2564
▁istiyorsun	-11.2564
▁Yemen	-11.2564
▁seferde	-11.2565
▁haberdar	-11.2566
▁Dahası	-11.2566
▁Josh	-11.2566
▁lanet	-11.2566
▁gayri	-11.2567
▁Aşk	-11.2567
▁düşündüğünü	-11.2568
▁Etki	-11.2568
▁azınlık	-11.2569
▁İlgi	-11.2571
▁güne	-11.2573
▁Kazan	-11.2576
Kaide	-11.2577
▁görelim	-11.2579
▁Beynin	-11.258
▁belirsizlik	-11.258
▁aygıt	-11.2581
▁ayıran	-11.2581
yabilirsiniz	-11.2581
▁Hav	-11.2582
▁giderseniz	-11.2582
▁açıklamaya	-11.2583
▁uza	-11.2583
▁beklemek	-11.2587
▁cerrah	-11.2589
▁arttırma	-11.2591
▁hastaya	-11.2592
▁ifadesi	-11.2592
▁dikkatinizi	-11.2595
▁seven	-11.2596
▁konuşul	-11.2598
▁kafes	-11.2599
▁boyutunda	-11.26
▁kapsaya	-11.2601
▁seçilmiş	-11.2603
▁öğreti	-11.2603
▁koruyor	-11.2605
yorsun	-11.2607
▁çeviriyor	-11.2612
▁değiştiği	-11.2613
▁ulaşması	-11.2614
zaman	-11.2615
▁kavra	-11.2618
▁olamadı	-11.2618
▁okulları	-11.2621
▁gördükleri	-11.2621
▁temizle	-11.2622
▁koleksiyon	-11.2622
▁hissettiğim	-11.2623
▁indi	-11.2624
▁ağlama	-11.2625
▁vatandaşlar	-11.2626
▁My	-11.2627
▁West	-11.2627
▁edeceksiniz	-11.2629
larinda	-11.263
sor	-11.2631
▁seçti	-11.2633
▁sözcük	-11.2634
▁olmazsa	-11.2639
▁sinyaller	-11.2641
▁kaplama	-11.2642
▁açılma	-11.2644
laşan	-11.2645
▁kullanacağım	-11.2649
▁yapsa	-11.265
▁durumla	-11.2653
▁kayı	-11.2654
▁günleri	-11.2654
▁oynamaya	-11.2654
▁içindeydi	-11.2656
▁harikaydı	-11.2656
▁hayalim	-11.2656
▁Gol	-11.2657
▁götürü	-11.266
▁Çinli	-11.2661
rum	-11.2664
▁yazdığım	-11.2664
iki	-11.2665
▁kampanyası	-11.2666
▁oyuncuları	-11.2669
▁düşünmenin	-11.2672
▁gram	-11.2675
rdu	-11.2679
▁depolama	-11.2681
▁duydun	-11.2681
▁hazırlama	-11.2682
▁hapiste	-11.2683
ıvı	-11.2684
▁yayınlandı	-11.2685
leyelim	-11.2687
▁eklem	-11.2688
▁buldukları	-11.2688
▁insanoğlunu	-11.269
▁Ani	-11.2691
▁inşaa	-11.2692
▁içerir	-11.2694
▁gitmedi	-11.2706
▁Ali	-11.2707
▁Olan	-11.2709
▁yasalar	-11.2709
▁Yapa	-11.2712
▁kontrolünü	-11.2715
rika	-11.2716
▁toplulukları	-11.2718
▁çalı	-11.272
▁dağılımı	-11.272
▁almıyor	-11.272
▁kaynaş	-11.2721
▁dansı	-11.2721
▁Ata	-11.2722
▁ideoloji	-11.2724
oh	-11.2725
ook	-11.2726
▁kartları	-11.2728
▁Çift	-11.2729
▁gergin	-11.2729
▁başarmış	-11.273
▁eleman	-11.2733
▁kaldığı	-11.2733
▁arayan	-11.2734
shi	-11.2735
erry	-11.274
sinler	-11.2741
▁katıldığı	-11.2741
▁Steven	-11.2745
▁Br	-11.2748
▁detayları	-11.2748
▁şov	-11.275
▁rahatsızlık	-11.275
▁Mus	-11.2753
▁paylaşım	-11.2755
gras	-11.2755
▁Par	-11.2756
▁söyledik	-11.2757
▁çalın	-11.2757
▁no	-11.276
layayım	-11.276
▁hakkını	-11.276
▁sunucu	-11.2762
▁Detroit	-11.2764
▁Grön	-11.2764
▁Norveç	-11.2764
▁Profesör	-11.2764
▁Singapur	-11.2764
▁kulübe	-11.2764
▁omurilik	-11.2764
▁asteroid	-11.2764
▁doğaçlama	-11.2764
▁levha	-11.2764
▁pantolon	-11.2764
▁talimat	-11.2764
▁Nelson	-11.2764
▁Life	-11.2764
▁Şili	-11.2764
▁manevi	-11.2764
▁GSM	-11.2764
▁ölçtü	-11.2764
▁başkaları	-11.2765
▁kademe	-11.2765
▁Kızıl	-11.2765
▁kirlet	-11.2765
▁Rock	-11.2766
▁romantik	-11.2766
▁etkileyecek	-11.2766
▁kavuştu	-11.2767
▁bozucu	-11.2767
▁dilerim	-11.2767
▁kabullen	-11.2768
▁sür	-11.2769
▁kaçırma	-11.277
▁duyulan	-11.2771
▁şüpheci	-11.2773
▁bireyin	-11.2773
▁modelleme	-11.2773
▁bandı	-11.2774
▁çocuğunu	-11.2775
▁hipotez	-11.2781
▁umur	-11.2784
▁şiş	-11.2785
▁okyanuslar	-11.2792
landığında	-11.2793
▁buralarda	-11.2794
▁televizyonda	-11.2798
▁tabiat	-11.2798
▁Yaptığım	-11.2799
▁teknikler	-11.2803
▁destekçi	-11.2803
▁ulaşan	-11.2803
▁uçuşu	-11.2804
▁fırsatları	-11.2804
▁olacağımız	-11.2805
▁duyulma	-11.2807
▁vo	-11.281
▁sektörü	-11.281
▁sayma	-11.281
▁yeteneklerini	-11.2812
▁Pas	-11.2814
▁kurtulmak	-11.2818
▁yansıtma	-11.282
▁Ağ	-11.2823
yacaktır	-11.2823
▁sıralarda	-11.2824
▁genişliğinde	-11.2826
stan	-11.2826
star	-11.2827
▁ettiğinde	-11.2829
▁ormanlar	-11.2831
▁Değiş	-11.2833
▁Normalde	-11.2834
▁isimlendir	-11.2834
▁kazandık	-11.2834
▁paraya	-11.2835
▁bilgisayarları	-11.2837
▁çiçekler	-11.2837
▁aradım	-11.2839
▁taşları	-11.284
▁Cal	-11.284
▁anıt	-11.2841
▁format	-11.2844
▁sembolü	-11.2852
▁ilginçtir	-11.2854
▁hataları	-11.2856
ria	-11.2858
▁Çocuğu	-11.2858
▁hissetti	-11.286
▁gör	-11.2864
▁temizleme	-11.2866
▁zorlukları	-11.2867
▁anlayama	-11.2868
▁delil	-11.2871
▁sıçrama	-11.2872
my	-11.2874
▁azal	-11.2874
▁yazın	-11.2879
▁kirliliği	-11.2881
▁dönecek	-11.2883
ladığım	-11.2884
sis	-11.2885
▁yükle	-11.2887
▁takdirde	-11.2888
▁Körfezi	-11.2888
leşmeye	-11.2888
▁tutul	-11.2891
▁Ap	-11.2892
▁araştırmayı	-11.2894
▁kası	-11.2894
▁bağlama	-11.2895
▁Kura	-11.2895
▁Brad	-11.2895
▁yaptığımızda	-11.2898
▁evler	-11.29
▁projeleri	-11.2901
▁başlayacağım	-11.2901
▁Dar	-11.2903
maktansa	-11.2904
▁hatırlay	-11.2907
▁koleksiyonu	-11.2907
▁kaybol	-11.2907
▁dönüştürüyor	-11.291
▁paketi	-11.2912
▁madenci	-11.2912
▁ebeveynler	-11.2913
gat	-11.2916
▁olaya	-11.2916
▁bakışı	-11.2918
▁belirlemek	-11.292
▁Pri	-11.2921
▁anlamayı	-11.2924
▁varmak	-11.2925
▁dördü	-11.2926
▁arayışı	-11.2927
▁hissini	-11.2928
▁hi	-11.2928
etmek	-11.293
▁diyorsunuz	-11.293
▁koşullarda	-11.2933
iğe	-11.2935
ıyordum	-11.2938
▁endişelenme	-11.2941
▁görüyorlar	-11.2946
▁anlatacak	-11.2948
▁olmamızı	-11.2949
▁kısıtlama	-11.295
▁matematiğin	-11.295
eğe	-11.2954
▁çekmeye	-11.2955
▁umursama	-11.2956
▁köpekler	-11.2957
▁solda	-11.2957
▁saçı	-11.2958
tasyon	-11.2959
▁istikrar	-11.296
▁har	-11.2961
▁sağda	-11.2964
▁opera	-11.2964
▁engelleri	-11.2965
▁gittiğim	-11.2965
▁gösterdim	-11.2968
▁Aristo	-11.2968
▁Dördüncü	-11.2968
▁federal	-11.2968
▁festival	-11.2968
▁halüsinasyon	-11.2968
▁senkroniz	-11.2968
▁tsunami	-11.2968
▁şampiyon	-11.2968
▁Somali	-11.2968
▁mühim	-11.2968
▁gayret	-11.2968
▁Sekiz	-11.2968
▁Köy	-11.2968
▁obezite	-11.2968
▁vaad	-11.2968
▁Örgütü	-11.2968
▁borsa	-11.2968
▁mucit	-11.2968
▁gökyüzün	-11.2969
▁logo	-11.2969
▁dindar	-11.2969
▁kapitalizm	-11.2969
▁ivme	-11.2969
▁85	-11.297
▁bitirdi	-11.297
▁Port	-11.297
▁yönlü	-11.2971
▁bilmeyen	-11.2972
▁mega	-11.2972
▁Hill	-11.2973
▁yaradığını	-11.2975
▁gerçekleşir	-11.2975
▁Kolay	-11.2976
▁Charl	-11.2976
▁uzerinde	-11.2977
▁işinde	-11.2978
▁hayattaki	-11.2978
▁çarpış	-11.298
▁adaptasyon	-11.2981
▁Söyle	-11.2982
▁sarf	-11.2984
▁çapl	-11.2987
▁robotu	-11.2988
▁evleri	-11.2989
bildiği	-11.2991
▁İnan	-11.2991
▁yolladı	-11.2996
▁hazırlık	-11.2997
larini	-11.2998
diklerinde	-11.3
▁hassasiyet	-11.3007
▁görevlisi	-11.3009
▁bileşeni	-11.301
ılmasını	-11.3011
▁eğitil	-11.3015
▁SS	-11.3016
leştirmeye	-11.3018
▁Cun	-11.3018
mekle	-11.3018
▁bulmayı	-11.3021
▁meyilli	-11.3021
▁mutluluğun	-11.3022
▁taraflı	-11.3024
▁Hayatın	-11.3025
▁mikrofon	-11.3031
▁koyuldu	-11.3031
▁arkamda	-11.3032
▁Air	-11.3033
▁görüyordu	-11.3034
▁geldiklerinde	-11.3035
▁belkide	-11.3037
yuz	-11.3038
▁nesiller	-11.3039
larıydı	-11.3041
▁itme	-11.3042
▁kullanacak	-11.3046
layacağım	-11.3046
▁bilge	-11.305
▁elimi	-11.3051
▁hapis	-11.3051
gre	-11.3052
bilirsek	-11.3052
▁duvarlar	-11.3052
▁Dinle	-11.3058
▁bilgilerini	-11.3059
▁kuvvetleri	-11.3061
▁seçenekleri	-11.3061
▁politikası	-11.3065
▁yerleştirmek	-11.3066
▁organizasyonlar	-11.3066
▁maddeleri	-11.3066
▁dolaş	-11.3066
▁asal	-11.3069
▁AB	-11.3069
▁maka	-11.3071
▁cil	-11.3071
▁Amerikalıları	-11.3073
▁ikili	-11.3073
▁düzensiz	-11.3081
çü	-11.3082
▁fikirle	-11.3083
▁demo	-11.3084
▁birleştirme	-11.3085
▁tarzda	-11.3085
▁yarıya	-11.3089
ham	-11.3089
▁Ten	-11.309
▁aya	-11.309
liğimiz	-11.3092
▁yerindeki	-11.3094
▁geçebilir	-11.3095
▁sundu	-11.3096
▁becerisi	-11.3097
▁filmleri	-11.3101
▁sarma	-11.3105
▁olduklarından	-11.3107
▁taban	-11.3107
▁ailesini	-11.3108
▁amaçları	-11.3108
▁açabilir	-11.3112
▁sorduğu	-11.3112
▁oynadığı	-11.3114
rtesi	-11.3114
▁proteinler	-11.3117
▁anlayabil	-11.3117
▁vizyonu	-11.3118
▁paylaşacağım	-11.3118
▁kapsa	-11.3119
leştiği	-11.3122
▁tuttur	-11.3122
▁çağda	-11.3124
▁sizlerin	-11.3124
▁Diğeri	-11.3124
baba	-11.3126
▁üretti	-11.3128
▁sizde	-11.3129
▁sonlarında	-11.313
▁Çince	-11.3132
▁sahibim	-11.3133
▁erkekleri	-11.3134
▁bilmediği	-11.3134
▁söylemedi	-11.3134
▁düşündükleri	-11.314
▁af	-11.314
▁Acı	-11.3141
medim	-11.3143
▁birimiz	-11.3146
▁astronomi	-11.3147
▁taraftaki	-11.3154
▁hatırlattı	-11.3155
ttığı	-11.3155
▁bağlanma	-11.3155
▁şanslıydı	-11.3161
▁yaşayacağı	-11.3162
▁parayla	-11.3163
▁mülk	-11.3164
▁kayak	-11.3171
▁çıkarabilir	-11.3174
ırdım	-11.3175
▁üzgün	-11.3176
▁alacağım	-11.3176
`	-11.3176
é	-11.3176
▁Bangladeş	-11.3176
▁Demokrat	-11.3176
▁fevkalade	-11.3176
▁çekirdeği	-11.3176
▁Sekoya	-11.3176
▁Soğuk	-11.3176
▁klişe	-11.3176
▁tercüme	-11.3176
▁Watson	-11.3176
▁öğüt	-11.3176
▁Türkiye	-11.3176
▁Olimpiyat	-11.3176
▁hatıra	-11.3176
▁Ticaret	-11.3176
▁muhafazakar	-11.3177
▁Plan	-11.3177
▁Mayıs	-11.3177
▁yedek	-11.3177
▁Parça	-11.3178
▁Lester	-11.3178
▁uygulanabilir	-11.3178
▁Motor	-11.3179
▁bayılıyorum	-11.318
▁cikar	-11.3182
▁Akıllı	-11.3183
▁keçi	-11.3184
▁İncil	-11.3185
▁Batılı	-11.3185
▁duvarın	-11.3185
▁meslektaşlarım	-11.3187
▁okuyan	-11.3187
▁beklentisi	-11.3188
▁dolaşım	-11.3189
▁sektörün	-11.3191
▁getirerek	-11.3192
▁çayır	-11.3192
▁götüren	-11.3194
▁SW	-11.3194
▁yapıda	-11.3197
▁verebil	-11.3198
▁olmamalı	-11.3198
arsanız	-11.3198
▁imkân	-11.3198
▁uzaklaştır	-11.3199
▁giyiyor	-11.32
▁olgun	-11.3201
bilim	-11.3206
▁kurtardı	-11.3207
▁kuyu	-11.3208
▁dilde	-11.3208
▁birlik	-11.3209
▁uydur	-11.321
▁ekledik	-11.3211
▁unsur	-11.3212
▁Sanal	-11.3212
▁güzeldi	-11.3213
masından	-11.3215
laştığı	-11.3215
▁yem	-11.3216
▁kurumu	-11.3217
▁bırakan	-11.3219
▁vurgu	-11.3222
▁dağın	-11.3225
▁yanınızda	-11.3229
▁Bol	-11.3232
hol	-11.3234
▁boyutları	-11.3234
meyeceğiz	-11.3239
▁hissediyorsunuz	-11.3241
bra	-11.3241
deydim	-11.3242
▁sözleşme	-11.3242
▁yaptığında	-11.3243
▁aklın	-11.3243
▁cesareti	-11.3245
▁durdurma	-11.3247
▁çalışabilir	-11.3248
▁soldaki	-11.3249
▁almadı	-11.325
▁Mer	-11.3251
▁42	-11.3252
▁Kah	-11.3254
▁maliyetleri	-11.3256
luş	-11.326
▁tez	-11.3264
▁gitmemiz	-11.3267
▁şarkıcı	-11.3269
▁geçmeye	-11.327
▁Kır	-11.3272
▁enerjisini	-11.3272
düz	-11.3272
▁sevmiyor	-11.3275
▁uçtu	-11.3283
lamayı	-11.3286
▁inançları	-11.3286
▁sayısal	-11.3287
▁eğitmek	-11.3288
▁doğrusal	-11.329
▁üstündeki	-11.3292
▁arkadaşlık	-11.3293
▁hacker	-11.3294
▁War	-11.3294
▁dörtte	-11.3303
▁arabaların	-11.3304
▁buhar	-11.3307
▁görünebilir	-11.331
▁yetiş	-11.3312
▁aşkı	-11.3312
▁konuştuğum	-11.3312
▁atın	-11.3313
▁yerle	-11.3314
▁yıldızları	-11.3315
▁Yaptığı	-11.3315
▁Dediğim	-11.3316
▁cebi	-11.332
▁döndüğüm	-11.332
▁panel	-11.332
▁William	-11.3321
▁açıl	-11.3326
▁başlangıcında	-11.3327
▁çıktılar	-11.3329
▁etkilen	-11.333
▁bulundukları	-11.3332
▁yiyecekler	-11.3333
▁klip	-11.3334
▁eyaletler	-11.3336
▁fonksiyonu	-11.3338
▁gerçekleri	-11.334
▁kuşların	-11.3341
▁bağlamak	-11.3342
▁Mısırlı	-11.3344
yabilir	-11.3346
▁makinası	-11.3348
▁zincir	-11.3353
▁binaları	-11.3353
▁ışın	-11.3354
▁sorunlara	-11.3358
▁okuyu	-11.3359
▁örnekle	-11.3359
▁eklemek	-11.336
üzün	-11.3361
▁gelişimin	-11.3361
mişimdir	-11.3362
▁kuvveti	-11.3363
▁ilişkilendir	-11.3365
layalım	-11.3369
▁gezegenimizi	-11.3369
▁laboratuvarı	-11.337
▁br	-11.337
▁bilimciler	-11.337
▁paylaşıyor	-11.3373
▁birleşme	-11.3375
▁kapattı	-11.3376
dikten	-11.3381
▁dürtü	-11.3382
▁kablolar	-11.3388
▁husus	-11.3388
▁Diyelim	-11.3389
▁Elektrik	-11.3389
▁hiyerarşi	-11.3389
▁hoparlör	-11.3389
▁iPod	-11.3389
▁reaktör	-11.3389
▁tişört	-11.3389
▁İrlanda	-11.3389
▁Kulağa	-11.3389
▁Ağaç	-11.3389
▁Nefes	-11.3389
▁Zelanda	-11.3389
▁piksel	-11.3389
▁gökada	-11.3389
▁çete	-11.3389
▁Görünen	-11.3389
▁baloncuk	-11.3389
▁iğrenç	-11.3389
▁dökül	-11.3389
▁komedi	-11.3389
▁ezber	-11.3389
▁seçkin	-11.3389
▁israf	-11.339
▁sayılmaz	-11.3391
▁Albert	-11.3391
▁gittiğinizde	-11.3391
sünüz	-11.3392
▁başlamalıyız	-11.3392
▁sizce	-11.3393
▁söylemiyorum	-11.3394
▁Bat	-11.3394
▁dilinde	-11.3398
▁etrafımızdaki	-11.3399
▁Titan	-11.34
▁tavır	-11.3401
▁engelleye	-11.3401
▁Görme	-11.3407
▁Patlama	-11.3408
▁öğretmenlerin	-11.3408
▁yönünü	-11.341
ung	-11.341
▁şekillendirme	-11.3414
▁isimleri	-11.3415
ras	-11.3415
▁gözünde	-11.3416
▁hayalini	-11.3416
▁satan	-11.3418
▁objeler	-11.3418
▁dayanır	-11.3421
▁ateşi	-11.3421
▁medyada	-11.3422
▁katılan	-11.3426
▁verilmiş	-11.3432
▁santral	-11.3433
▁sakla	-11.3435
▁seçtim	-11.3436
▁ettirmek	-11.3439
▁Kor	-11.3442
emem	-11.3442
▁vuruş	-11.3445
▁katıldım	-11.3448
miyorsunuz	-11.345
▁asılı	-11.3451
▁merkezli	-11.3453
▁koyabilir	-11.3456
▁emeklilik	-11.3457
▁Ste	-11.3462
▁mesajlar	-11.3464
▁odaklanmak	-11.3469
▁sıkışı	-11.3471
▁Ortak	-11.3472
▁parçacık	-11.3473
▁istemek	-11.3473
ugh	-11.3476
bilirdi	-11.3478
▁uyandı	-11.3479
▁dirençli	-11.348
▁Günde	-11.3481
dra	-11.3481
▁gökyüzünde	-11.3484
fu	-11.3484
▁bilirsin	-11.3484
▁seçtiği	-11.3484
▁kavramlar	-11.3486
▁harfi	-11.3487
▁şekl	-11.3488
▁birkaçı	-11.3488
▁silahı	-11.349
▁konuşmuyor	-11.3493
▁soracak	-11.3496
▁tüy	-11.3499
▁konumu	-11.3505
▁por	-11.3506
▁kısmının	-11.3508
▁olsak	-11.3509
▁ritmi	-11.351
▁öğretir	-11.3516
ydılar	-11.3519
▁büyüdük	-11.3525
▁çocuklarınız	-11.3532
▁güdü	-11.3535
▁kaldığını	-11.3536
▁değiştiri	-11.3539
▁yarattığımız	-11.3539
▁yapabileceğim	-11.354
▁kuşak	-11.3543
▁kadınla	-11.3544
dr	-11.3544
▁taksi	-11.3544
▁odaklanmış	-11.3553
▁yöneticisi	-11.3554
▁dağlar	-11.356
leyeceğim	-11.3561
▁değişimler	-11.3563
▁sokağ	-11.3563
DR	-11.3567
▁kararları	-11.3567
▁kürek	-11.3568
▁düşünmüş	-11.3568
▁virüsün	-11.3572
▁kitab	-11.3573
▁Anlat	-11.3575
▁öde	-11.358
ebileceğim	-11.3581
▁bağları	-11.3581
▁göm	-11.3583
▁kuruldu	-11.3584
▁geliştirir	-11.3586
▁çizgisi	-11.3588
▁Çocukları	-11.3588
▁uğraşmak	-11.3589
▁organlar	-11.359
▁karşılaşır	-11.3594
▁parçasıdır	-11.3598
irsek	-11.3598
▁sistemimizi	-11.3598
▁neresi	-11.36
abiliyordu	-11.3604
▁çiğ	-11.3606
eographic	-11.3606
▁Bronx	-11.3606
▁Muhammed	-11.3606
▁ipuçları	-11.3606
▁mektubu	-11.3606
▁montaj	-11.3606
▁müslüman	-11.3606
▁röntgen	-11.3606
▁soykırım	-11.3606
▁trajik	-11.3606
▁entropi	-11.3606
▁kıvrıl	-11.3606
▁mahrum	-11.3606
▁santimetre	-11.3606
▁Teksas	-11.3606
▁İlaç	-11.3606
▁Sıcak	-11.3606
▁Fazla	-11.3606
▁Leonardo	-11.3606
▁kolon	-11.3606
▁karides	-11.3606
▁Sınır	-11.3606
▁hidro	-11.3607
▁sıçan	-11.3607
▁Yaptıkları	-11.3607
▁Mike	-11.3607
▁ipek	-11.3607
▁Sonsuz	-11.3608
▁icadı	-11.3608
▁alıştırma	-11.3608
▁yaşlandık	-11.3608
▁aydınlatma	-11.361
▁Karanlık	-11.3611
▁verelim	-11.3611
▁anlarsınız	-11.3613
▁göremezsiniz	-11.3613
▁kurucu	-11.3614
▁izleyin	-11.3616
▁Düzen	-11.3617
▁dalgalar	-11.3617
▁birleşimi	-11.3618
▁yapacaklarını	-11.3618
▁Tar	-11.3619
▁yapılandır	-11.3619
landırıyor	-11.362
aklı	-11.3623
▁mümkündür	-11.3625
▁tart	-11.3626
▁1.5	-11.3627
▁dü	-11.3628
▁kültürler	-11.3632
▁yorumlama	-11.3637
▁yazmış	-11.3637
▁memnuniyet	-11.3639
▁hırsız	-11.3641
▁yaratıyoruz	-11.3641
▁Mas	-11.3641
▁çevresindeki	-11.3643
▁RNA	-11.3643
▁yığını	-11.3643
▁dönemin	-11.3645
▁olmamış	-11.3646
▁statü	-11.3647
▁alabiliriz	-11.3649
▁tutmaya	-11.365
▁görmekte	-11.3653
▁isimlerini	-11.3657
▁harcadığı	-11.3665
▁rolünü	-11.3665
▁döndürü	-11.3666
▁otuz	-11.3666
▁detaylar	-11.3667
enüz	-11.3668
▁sağlamaya	-11.3669
mazdı	-11.3671
▁bedeli	-11.3672
▁istemişti	-11.3672
▁yöntemle	-11.3674
▁yaşamlarını	-11.3675
▁iplik	-11.3677
▁sözünü	-11.3677
▁telefonunuz	-11.3678
▁kaydetme	-11.3679
▁ihtiyaçlarını	-11.3681
▁çalışmada	-11.3682
▁kırıklığı	-11.3687
▁bla	-11.3687
▁karıştırma	-11.3688
▁İnsanlık	-11.3688
Bu	-11.3689
▁kaçma	-11.3693
▁350	-11.3694
▁kala	-11.37
▁harcar	-11.3701
▁almaları	-11.3703
▁çıkarmaya	-11.3704
▁dolaşıyor	-11.3704
▁yazıyordu	-11.3706
▁Chi	-11.3707
MS	-11.371
▁olmadığımız	-11.3712
▁Pra	-11.3713
▁platformu	-11.3714
▁seyler	-11.3714
▁Kuş	-11.3717
.5	-11.372
▁yor	-11.3721
▁edemez	-11.3722
▁ikimiz	-11.3726
▁midir	-11.3728
▁çök	-11.373
▁kaldırmak	-11.373
▁amacımız	-11.3731
▁kullanmış	-11.3732
sey	-11.3732
▁temsili	-11.3732
acağına	-11.3737
▁Gay	-11.3737
80	-11.3739
▁kaldırdı	-11.3742
▁vermedi	-11.3745
▁anları	-11.3748
▁olabilirim	-11.3749
▁açım	-11.3755
▁gördüğünüzde	-11.3757
▁kapağı	-11.3757
▁kendinden	-11.3758
dıklarında	-11.3759
▁gözün	-11.3761
▁Etrafı	-11.3761
▁düzeyinde	-11.3763
tılar	-11.3764
▁yakalan	-11.3768
▁birbirleri	-11.3772
▁mesajları	-11.3782
▁yaklaşıyor	-11.3784
▁mikrop	-11.3785
▁çarptı	-11.3785
▁bulundur	-11.3786
▁korun	-11.3787
ight	-11.3789
▁aktarma	-11.3791
▁beste	-11.3791
▁baktığı	-11.38
▁Lab	-11.3801
▁eylemleri	-11.3802
▁Lider	-11.3802
ment	-11.3803
▁dilimi	-11.3804
▁keşfediyor	-11.3805
▁toplan	-11.3808
▁boyutlar	-11.3808
emeyen	-11.381
▁resimlerini	-11.381
▁değiştirmemiz	-11.3811
▁Homo	-11.3812
▁verilerini	-11.3812
▁gezegenimiz	-11.3814
▁uyumsuz	-11.3817
▁set	-11.3821
▁derse	-11.3821
bildim	-11.3822
▁isteyecek	-11.3824
▁kabullenme	-11.3824
▁hiper	-11.3827
▁ayakkabıları	-11.3828
▁Danimarka	-11.3828
▁Disney	-11.3828
▁Stephen	-11.3828
▁asansör	-11.3828
▁beyzbol	-11.3828
▁buzdolabı	-11.3828
▁böbrek	-11.3828
▁müfredat	-11.3828
▁pizza	-11.3828
▁turuncu	-11.3828
▁yelpaze	-11.3828
▁çeyrek	-11.3828
▁Şaşırtıcı	-11.3828
▁kraliçe	-11.3828
▁fizyoloji	-11.3828
▁Tunus	-11.3828
▁misafir	-11.3828
▁rutin	-11.3828
▁yelken	-11.3828
▁Hukuk	-11.3828
▁panik	-11.3828
▁Fakir	-11.3828
▁Birbirimiz	-11.3829
▁dersin	-11.3829
▁bizzat	-11.3829
▁nerdeyse	-11.383
▁düşünürüm	-11.383
▁damga	-11.383
▁cephe	-11.3831
▁diger	-11.3831
▁1900	-11.3832
▁tav	-11.3832
▁safha	-11.3832
▁heyecanlandır	-11.3834
▁Hawaii	-11.3835
▁dolaşan	-11.3835
▁görüşlü	-11.3836
▁şiiri	-11.3836
▁sığır	-11.3838
▁biç	-11.3838
▁sakın	-11.3839
▁Tesl	-11.3839
▁adlandırdığımız	-11.384
▁surat	-11.384
▁Rose	-11.3842
▁Üz	-11.3844
▁beceriler	-11.3844
▁EM	-11.3845
▁Başlangıçta	-11.3845
▁başlarsınız	-11.3845
▁öğrendikleri	-11.3846
▁bitkileri	-11.3847
▁Saray	-11.3848
▁değiştirilmiş	-11.3849
▁şizofreni	-11.385
▁gerekçe	-11.385
▁Ordu	-11.3851
▁yollarda	-11.3852
▁sağır	-11.3853
▁geldiğimizde	-11.3855
▁yürü	-11.3856
rop	-11.3862
▁denetle	-11.3863
cilerin	-11.3863
▁anlaşılır	-11.3866
▁problemini	-11.387
▁edebilirdi	-11.3871
▁politikaları	-11.3873
▁kaynaklana	-11.3873
▁yatağı	-11.3873
▁oğlumu	-11.3874
▁dır	-11.3874
▁emir	-11.3875
rsınız	-11.3878
lmüş	-11.3879
▁jeo	-11.388
▁körü	-11.388
▁sorununu	-11.3886
bileceği	-11.3886
liyordu	-11.3887
▁gününü	-11.3889
▁arkadaşlarımın	-11.3897
▁Bali	-11.3901
▁ediyorlardı	-11.3902
▁tasarlandı	-11.3902
▁koydular	-11.3905
▁Mah	-11.3906
▁verebilecek	-11.3906
▁virüsler	-11.3908
▁belirler	-11.391
▁48	-11.391
▁özetle	-11.3911
▁inceledi	-11.3913
▁birincisi	-11.3915
▁biriyim	-11.3915
▁ayrımı	-11.3916
▁çıkardığımız	-11.3917
▁söylediğini	-11.3918
ebiliyorlar	-11.3918
▁silin	-11.3921
▁ailemi	-11.3923
lmalıyız	-11.3924
▁duvarları	-11.3924
▁Laboratuvarı	-11.3924
list	-11.3925
yy	-11.3925
▁55	-11.3929
▁televizyonu	-11.393
hir	-11.3931
▁sure	-11.3931
▁uçakta	-11.3932
▁anlaş	-11.3933
▁güvence	-11.3935
loji	-11.3935
▁Anti	-11.3935
▁yürütme	-11.3938
▁çalıştılar	-11.3945
kine	-11.3948
▁öğretim	-11.3952
tikleri	-11.3954
▁44	-11.3955
lamazsınız	-11.3956
▁çocuklarımızın	-11.3957
▁ettiğimizde	-11.3957
▁istatistikler	-11.3958
▁yükseliyor	-11.3958
▁mutfak	-11.3963
▁ortağı	-11.3965
▁makinalar	-11.3968
lıyorsunuz	-11.397
▁Geçmişte	-11.3971
▁edilmişti	-11.3971
▁yapmadığı	-11.3971
▁izlemeye	-11.3971
▁Kendinizi	-11.3975
▁istekleri	-11.3978
▁şunlar	-11.3979
▁riskini	-11.3983
▁kadarı	-11.3986
▁yla	-11.3988
hücre	-11.399
aktif	-11.3991
▁petrolün	-11.3992
▁içki	-11.3994
▁delikler	-11.3995
▁kahramanı	-11.3998
▁Pop	-11.4
▁dinin	-11.4
▁fazladır	-11.4001
▁tanıdığım	-11.4005
▁sevdiğiniz	-11.401
▁benzemiyor	-11.4011
▁izledik	-11.4015
▁Oy	-11.4016
▁yaptığınızı	-11.4016
▁Hayvanlar	-11.4017
▁yarasa	-11.4022
▁olduklarında	-11.4023
▁kuşa	-11.4023
mezdi	-11.4023
▁alay	-11.4024
▁Hans	-11.4024
▁Şirketi	-11.4029
▁hissettiği	-11.4029
▁Başta	-11.4031
▁kadarını	-11.4036
▁şansınız	-11.4038
▁yönleri	-11.4039
▁fırla	-11.4042
▁yemin	-11.4042
▁problemlerin	-11.4042
▁iniyor	-11.4043
▁kesimi	-11.4046
10	-11.4046
▁kuruluşlar	-11.4049
▁Kong	-11.4054
▁Apollo	-11.4056
▁Rüzgar	-11.4056
▁apartman	-11.4056
▁implant	-11.4056
▁mahremiyet	-11.4056
▁randevu	-11.4056
▁Köpek	-11.4056
▁borcu	-11.4056
▁domates	-11.4056
▁kriter	-11.4056
▁milimetre	-11.4056
▁veritabanı	-11.4056
▁zahmet	-11.4056
▁tasarlıyor	-11.4056
▁Yüzlerce	-11.4056
▁simdi	-11.4056
▁kucuk	-11.4056
▁kayboluyor	-11.4056
▁dileğim	-11.4056
▁haklar	-11.4058
▁selam	-11.4059
▁yapılabilecek	-11.4059
▁gürültülü	-11.4059
▁dönersek	-11.406
▁gökyüzü	-11.4062
▁alabilecek	-11.4062
▁ruhsal	-11.4064
▁oynadı	-11.4064
▁balta	-11.4064
▁çarpan	-11.4065
▁sorarsanız	-11.4065
▁edemeyi	-11.4066
▁bulduğu	-11.4067
▁Parti	-11.4067
▁karşılaştığım	-11.4067
▁tuttuğu	-11.4068
▁2002	-11.407
▁yapmazsa	-11.4071
▁konunu	-11.4073
▁doluydu	-11.4074
▁inandığım	-11.4074
▁yazmıştı	-11.4075
▁arıyoruz	-11.4077
▁ölçeği	-11.4079
▁Coca	-11.4082
▁sezon	-11.4085
▁andan	-11.4085
▁ölümleri	-11.4087
▁IM	-11.4088
▁giderler	-11.4091
▁hemşireler	-11.4095
▁Cok	-11.4095
labildiği	-11.4095
▁dalgası	-11.4097
▁ritim	-11.4097
▁tırmanma	-11.4098
▁ulaşabilir	-11.41
▁hareketsiz	-11.4101
right	-11.4102
▁kelimelerin	-11.4103
▁ekonomistler	-11.4104
▁duyacak	-11.4105
▁büyükbabam	-11.4107
▁sürecek	-11.4107
▁koyan	-11.4108
▁Nöro	-11.411
▁vurdu	-11.4111
▁edeceği	-11.4112
▁bitiyor	-11.4113
▁düşü	-11.4114
▁yaşadığınız	-11.4114
▁gerçekleştirme	-11.4114
▁Gri	-11.4115
▁görüştü	-11.4117
▁kor	-11.4119
▁geçişi	-11.4122
▁çatışmalar	-11.4126
▁beslemek	-11.4129
ligin	-11.4131
▁dinleyi	-11.4135
▁zenginliği	-11.4136
▁suçu	-11.4137
▁herkesten	-11.4138
▁taşınabilir	-11.4138
▁ortama	-11.4139
▁sistemlerini	-11.414
▁yapacağımızı	-11.4142
abileceğimizi	-11.4142
▁soya	-11.4143
laştırmak	-11.4145
▁çıkışı	-11.4148
▁yarama	-11.4148
▁Diyor	-11.4152
▁duydu	-11.4155
▁ölçme	-11.4157
▁uzunluğu	-11.4158
▁yorumlar	-11.4163
▁yüzeyini	-11.4165
kap	-11.4165
▁olanın	-11.417
▁yapmanızı	-11.4174
▁Mes	-11.4175
▁ruhunu	-11.4177
▁köyün	-11.418
5.000	-11.418
ons	-11.4181
▁robotların	-11.4182
▁Kendimiz	-11.4183
▁öğrenecek	-11.4184
▁kimseyi	-11.4184
▁satıl	-11.4186
leyebiliriz	-11.4188
▁deha	-11.4191
▁değişikliğini	-11.4191
▁yaptığınızda	-11.4192
▁çalmak	-11.4195
▁Ortada	-11.4198
▁saklay	-11.4198
▁savaştı	-11.4199
kav	-11.4203
▁mülteciler	-11.4206
▁şaşkın	-11.4206
▁kullanıldığını	-11.4206
▁atlat	-11.4211
▁sağlıyorlar	-11.4213
onu	-11.4214
▁gerekmez	-11.4216
uri	-11.4216
▁sürükle	-11.4218
bilirsiniz	-11.4218
▁eyaleti	-11.4221
▁tutkum	-11.4222
▁parçacıkları	-11.4223
▁işsiz	-11.4223
X	-11.4223
▁eksen	-11.4223
▁meclis	-11.4224
▁ekranın	-11.4226
litik	-11.4229
▁okumayı	-11.4229
▁etkileşimi	-11.4232
▁kararlı	-11.4232
▁sevdi	-11.4232
ardı	-11.4235
▁turist	-11.4238
OL	-11.4238
▁diren	-11.4238
erseniz	-11.4243
▁görünüşü	-11.4244
mada	-11.4246
▁grupların	-11.4255
▁sav	-11.4257
▁yapabileceğini	-11.4258
liyoruz	-11.4258
▁Bekle	-11.427
▁objeleri	-11.427
▁düzeltmek	-11.4272
▁verimliliği	-11.4273
▁yaratabil	-11.4275
▁türe	-11.4275
▁Au	-11.4277
takım	-11.4277
▁dilek	-11.4279
cağı	-11.428
▁geçtiğini	-11.4281
▁işlevi	-11.4284
▁İst	-11.4285
▁Elimizde	-11.4286
▁tersini	-11.4287
▁işgücü	-11.4288
▁diyabet	-11.4288
▁kaplumbağa	-11.4288
▁sadakat	-11.4288
▁sağduyu	-11.4288
▁Çoğunlukla	-11.4288
▁feet	-11.4288
▁ihmal	-11.4288
▁Brooklyn	-11.4288
▁buğday	-11.4288
▁sperm	-11.4288
▁teyze	-11.4288
▁Ürün	-11.4288
▁Milyonlar	-11.4288
▁yorucu	-11.4288
▁döl	-11.4288
▁varolan	-11.4289
▁gümüş	-11.4289
▁Alexand	-11.4289
▁olağandışı	-11.4289
▁çıkıntı	-11.4289
▁buluşu	-11.4289
▁nazar	-11.4289
▁hara	-11.4289
▁alçak	-11.429
▁tutup	-11.4291
▁paylaştığımız	-11.4292
▁başlayacağız	-11.4292
▁Johnson	-11.4293
▁JF	-11.4293
▁kitabında	-11.4295
▁kurallarını	-11.4296
▁edemedi	-11.4296
▁Cent	-11.4296
▁hatası	-11.4297
▁konuşalım	-11.4297
▁sevdiğimiz	-11.4297
▁yaklaşma	-11.4299
▁tarafinda	-11.43
▁bilmem	-11.4301
▁ayrıldı	-11.4302
▁açılan	-11.4303
▁Çek	-11.4303
▁oturmak	-11.4303
▁duş	-11.4304
melerini	-11.4305
▁öldüren	-11.4305
▁olayda	-11.4307
▁kuran	-11.4308
▁anayasa	-11.4308
▁bilime	-11.4309
abildiğini	-11.4309
▁zamanım	-11.4309
▁sağlayabil	-11.431
▁eşittir	-11.4312
▁edebiliyoruz	-11.4313
mazsa	-11.4314
▁bitiş	-11.4314
▁algoritmalar	-11.4315
▁aklında	-11.4315
▁Bugünkü	-11.432
▁koymaya	-11.4321
▁giyme	-11.4325
▁Deneyim	-11.4328
▁öğretmenin	-11.4329
▁çevreleye	-11.433
▁çizer	-11.4332
tis	-11.4333
▁erime	-11.4333
▁açacak	-11.4334
▁ço	-11.4335
şte	-11.4337
▁yemeğin	-11.434
▁Dil	-11.4341
▁kurduğumuz	-11.4341
▁US	-11.4342
▁korktuğu	-11.4342
▁Mesele	-11.4344
▁götürecek	-11.4345
▁doğduğum	-11.4346
▁çalışanı	-11.4347
▁Test	-11.435
▁tablosu	-11.4352
▁kapatmak	-11.4353
▁saldırısı	-11.4355
▁gelirli	-11.4356
▁düşüşü	-11.4356
▁katılımı	-11.4357
▁bük	-11.436
▁atıp	-11.4364
lacağı	-11.4365
▁yapacağınız	-11.4365
▁mantıksız	-11.4366
▁kaydetti	-11.4367
▁Görev	-11.4368
▁dibinde	-11.4368
▁kariyerim	-11.4371
▁gücümüzü	-11.4372
▁Bre	-11.4373
▁ağa	-11.4374
▁gösterdik	-11.4375
▁burnu	-11.4378
▁açıklık	-11.4382
▁metod	-11.4384
▁Buz	-11.4385
▁olabilmek	-11.4387
▁görmesi	-11.4389
▁masrafları	-11.4392
▁doğduğu	-11.4393
▁başarama	-11.4393
▁kimler	-11.4393
▁mes	-11.4394
▁aktarmak	-11.4397
▁keşfettiğimiz	-11.4398
lmaya	-11.4399
▁boyunda	-11.44
amıyorlar	-11.44
▁paylaşır	-11.4408
▁Sar	-11.4409
▁kusur	-11.441
▁okyanusu	-11.4411
▁bahsettim	-11.4412
▁gönderildi	-11.4413
▁pili	-11.4413
▁uçur	-11.4417
▁anladığım	-11.4418
olly	-11.4419
▁geleceğimiz	-11.442
▁72	-11.4424
▁şiddetle	-11.4427
▁yansıma	-11.4427
▁farkli	-11.4429
▁sınıfın	-11.4434
▁atıkları	-11.4434
▁ederdi	-11.4437
▁planları	-11.4439
▁tanımlay	-11.444
▁oranlarını	-11.4441
▁örgü	-11.4441
matik	-11.4445
▁çözer	-11.4445
▁kesit	-11.4445
▁Okulda	-11.4446
25	-11.4446
▁Tel	-11.4447
DI	-11.4449
▁gösterdiler	-11.4449
▁Hastalık	-11.445
▁atmosferin	-11.445
▁ordusu	-11.4452
▁seyirciler	-11.4453
▁şehirdeki	-11.4457
▁içeriğin	-11.4458
▁değişimleri	-11.446
▁türlerinin	-11.4464
▁görevler	-11.4464
▁iklimi	-11.4465
▁üstte	-11.4468
BM	-11.447
▁getirebil	-11.447
▁burs	-11.447
▁Mur	-11.4472
▁girişimi	-11.4473
▁bölün	-11.4475
▁hissettiğimiz	-11.4475
ildiğini	-11.4476
▁alandaki	-11.4476
▁planlıyor	-11.4477
▁temelini	-11.4479
▁üz	-11.448
▁getirdiler	-11.4481
▁geometri	-11.4487
▁birşeyleri	-11.4489
▁keşfetmeye	-11.449
▁teorik	-11.4493
▁dergisinde	-11.4493
▁sektöründe	-11.4495
▁öğrenmiş	-11.4497
▁yönetiyor	-11.4497
lanmaya	-11.4497
▁köpeği	-11.4498
▁senenin	-11.4499
▁ayırıyor	-11.45
▁atla	-11.4501
▁kanunu	-11.4501
▁kelimesinin	-11.4503
▁vermeme	-11.4503
lüğünü	-11.4506
▁Ted	-11.4507
▁gördükleriniz	-11.451
▁çocuklarımızı	-11.4511
▁izleri	-11.4512
▁robotları	-11.4514
▁memur	-11.4514
▁karbonu	-11.4515
▁Gid	-11.4517
▁Şimdilerde	-11.4517
▁mahallede	-11.4518
▁Akıl	-11.452
larınızda	-11.4521
▁işiniz	-11.4521
▁geçmesi	-11.4521
▁toplulukta	-11.4523
istler	-11.4524
amadık	-11.4524
#	-11.4526
▁embriyo	-11.4526
▁Atlanta	-11.4526
▁Ağustos	-11.4526
▁CRISPR	-11.4526
▁Clinton	-11.4526
▁Karmaşık	-11.4526
▁Nüfus	-11.4526
▁Tanzanya	-11.4526
▁Yağmur	-11.4526
▁nispet	-11.4526
▁rüzgâr	-11.4526
▁toprağa	-11.4526
▁transistör	-11.4526
▁tuğla	-11.4526
▁zavallı	-11.4526
▁isabet	-11.4526
▁Şüphe	-11.4526
▁Yunus	-11.4526
▁ulke	-11.4526
▁Yabancı	-11.4526
▁icra	-11.4526
▁Temmuz	-11.4526
▁Aşama	-11.4526
▁stok	-11.4526
▁pul	-11.4526
▁Yarı	-11.4527
▁jeoloji	-11.4527
▁ayrımcılık	-11.4527
sler	-11.4527
▁metabolizma	-11.4527
▁beyinleri	-11.4527
▁medeniyeti	-11.4527
▁bulanık	-11.4527
▁1930	-11.4527
▁leke	-11.4528
▁tutucu	-11.4528
▁dışarda	-11.4528
▁vali	-11.4528
▁Büyükanne	-11.4528
▁alışkın	-11.4529
▁güçsüz	-11.453
▁Mich	-11.453
▁Long	-11.453
▁açıklayacağım	-11.453
▁havalandırma	-11.4531
▁söylenir	-11.4531
cuk	-11.4531
▁1999	-11.4532
▁basıncı	-11.4533
▁Bildiğimiz	-11.4533
▁yapamazsınız	-11.4533
▁aksiyon	-11.4534
▁öğrendiği	-11.4535
▁LG	-11.4535
▁süreliğine	-11.4536
▁deneyelim	-11.4536
▁izlerken	-11.4537
▁çekilen	-11.4537
▁tanıştır	-11.4541
▁uzmanlık	-11.4541
llah	-11.4545
▁karışım	-11.4547
▁Afrikalılar	-11.4548
▁tesisi	-11.4549
▁kola	-11.4552
▁CR	-11.4553
▁şuradaki	-11.4554
▁zorundalar	-11.4555
▁konuşuyorlar	-11.4556
▁SP	-11.4557
▁alttaki	-11.4558
▁tümünü	-11.4558
▁neresinde	-11.4561
▁doktorların	-11.4563
▁uydular	-11.4565
▁Asli	-11.4565
▁oto	-11.4565
▁yetisi	-11.4566
▁saçmalık	-11.4566
▁editör	-11.4567
▁dışa	-11.4567
▁Isa	-11.4568
saydım	-11.4568
▁Çoğunuz	-11.457
▁Ateş	-11.457
▁konuşmam	-11.457
▁önemseme	-11.4571
▁bulunduğum	-11.4574
▁potansiyelini	-11.4574
▁yaymak	-11.4575
▁heyecanlıyı	-11.4576
▁testler	-11.4576
▁seçiyor	-11.4577
▁düzlem	-11.4578
▁Yapmak	-11.4582
▁öğrenen	-11.4584
▁isteyeceğim	-11.4584
▁vatandaşları	-11.4584
▁İkisi	-11.4584
▁Alt	-11.4585
▁kullanabiliyor	-11.4587
leştirici	-11.4588
▁Barış	-11.4588
▁ulaşacak	-11.4588
▁arayış	-11.4588
▁Yüzey	-11.459
▁yılları	-11.459
▁bölgesine	-11.4592
▁birikim	-11.4593
▁Tez	-11.4593
▁sebebini	-11.4594
▁zorladı	-11.4595
▁şeyde	-11.4595
▁elim	-11.4595
▁faktörler	-11.4595
▁konuşmada	-11.4597
▁bahse	-11.4597
▁bahsedil	-11.4599
▁gelecektir	-11.4599
leyebilirsiniz	-11.46
arth	-11.46
▁Düşün	-11.46
▁geliştirdiği	-11.4603
▁gülü	-11.4603
▁keser	-11.4605
▁Resmi	-11.4606
ğınızda	-11.4608
▁kitapların	-11.4609
▁yaprakları	-11.4609
▁görevleri	-11.4612
▁söylerse	-11.4612
▁ekledi	-11.4613
▁hissettiğiniz	-11.4613
▁ulaşama	-11.4614
▁paylaşımı	-11.4616
lığımız	-11.4617
▁vücud	-11.4617
▁verimlilik	-11.4618
▁girmeye	-11.4619
▁izleyiciler	-11.4623
▁beynim	-11.4623
▁diploma	-11.4623
▁dolaştı	-11.4623
▁yapılacağın	-11.4625
▁evli	-11.4627
▁bağımlılığı	-11.4629
▁katmanı	-11.463
▁gü	-11.4631
▁davranışını	-11.4633
▁olduğuyla	-11.4639
rizon	-11.4639
▁duygusunu	-11.4639
▁rahatlat	-11.464
▁kalabilir	-11.4642
▁geliştirilmiş	-11.4642
▁memeliler	-11.4643
▁oluşturduğumuz	-11.4645
▁açtık	-11.4646
▁Dışarıda	-11.4648
▁açıları	-11.4651
▁çıkarsa	-11.4651
▁hatalı	-11.4655
▁değişmeye	-11.4655
▁olduğunuzda	-11.4656
suzluk	-11.466
▁beslen	-11.4661
diğimizi	-11.4663
▁adamdı	-11.4664
▁yanılma	-11.4664
▁fakirlik	-11.4671
▁yakma	-11.4675
▁amatör	-11.4676
▁uzlaşma	-11.4677
▁yükselme	-11.4678
▁yatırımlar	-11.4678
ex	-11.4678
▁yakalay	-11.4679
▁karalama	-11.468
▁zamanını	-11.4681
▁Hakları	-11.4688
▁bağır	-11.4689
▁hissettiriyor	-11.4689
▁Wo	-11.4689
▁gözlerinizi	-11.469
▁bulutu	-11.4694
▁anladığımız	-11.4695
▁sınırlama	-11.4696
▁uluslar	-11.4699
rsek	-11.4699
ımızdan	-11.47
▁soruların	-11.4701
abildi	-11.4702
▁elektriği	-11.4704
Amerikalı	-11.4704
işini	-11.4705
▁biziz	-11.4706
▁Aksi	-11.4708
▁havuz	-11.4709
▁gerçekleşmesi	-11.4709
ustu	-11.471
▁hedefleri	-11.4714
▁toplandı	-11.4717
▁kıyısında	-11.4717
lmak	-11.4717
▁Yukarı	-11.4721
▁basladi	-11.4722
▁çocuğunuz	-11.4723
▁yapamadığı	-11.4724
▁kasları	-11.4724
▁ödemek	-11.4727
,3	-11.4728
▁soluk	-11.473
▁sandığı	-11.4734
▁Haber	-11.4734
▁uçağ	-11.4735
▁Doku	-11.4739
▁gördüler	-11.4739
▁adresi	-11.4741
▁Gitti	-11.4741
▁simülasyon	-11.4744
▁rezerv	-11.4745
stil	-11.4747
▁paha	-11.4748
▁sürücüsü	-11.475
▁alarm	-11.4754
▁denizde	-11.4754
▁bilgimiz	-11.4755
▁hack	-11.4755
uke	-11.4757
▁dergisi	-11.4757
▁pop	-11.4758
▁istediğinizi	-11.4759
▁Vücudu	-11.476
▁bugünlerde	-11.4761
▁yaşını	-11.4761
▁varlıkları	-11.4764
▁üstel	-11.4765
▁hesapla	-11.4765
▁altını	-11.4765
▁şeylerde	-11.4766
▁Davranış	-11.477
▁kıvrım	-11.477
▁Ciddi	-11.477
▁Vatandaş	-11.477
▁cenaze	-11.477
▁demografik	-11.477
▁dolaylı	-11.477
▁orjinal	-11.477
▁sarhoş	-11.477
▁sörf	-11.477
▁2014	-11.477
▁Kilise	-11.477
▁metrekare	-11.477
▁Carolina	-11.477
▁köpekbalığı	-11.477
▁Sınıf	-11.477
▁erdem	-11.477
▁ıslık	-11.477
▁hacim	-11.477
▁Bakanı	-11.4771
▁yorgun	-11.4771
▁bölünmüş	-11.4771
▁Dunya	-11.4771
▁â	-11.4771
▁Sky	-11.4771
▁yemeğe	-11.4771
▁doğuşu	-11.4773
▁işletim	-11.4774
▁kaçış	-11.4774
▁yayınlanan	-11.4774
▁ölmek	-11.4775
▁sağlayıcı	-11.4775
▁tuna	-11.4776
▁gözetim	-11.4777
▁uret	-11.4777
▁Mad	-11.4777
▁daral	-11.4777
▁ortalıkta	-11.4779
▁dinleyen	-11.4779
▁Görsel	-11.4783
▁tapir	-11.4783
▁Neler	-11.4785
ümüzün	-11.4785
▁Suud	-11.4786
▁mülkiyet	-11.4786
▁gezdir	-11.479
▁edecekler	-11.4792
▁diğerinin	-11.4792
▁görüntüsünü	-11.4794
▁yapılmıştı	-11.4794
▁yüklü	-11.4794
▁paylaşan	-11.4795
şer	-11.4796
▁parkı	-11.4796
▁kökeni	-11.4796
▁kaydedil	-11.4798
▁deneyimleme	-11.48
▁karma	-11.48
▁ısır	-11.4802
way	-11.4802
▁karışma	-11.4804
▁atladı	-11.4804
ilmis	-11.4807
▁esna	-11.4808
▁yerleştiriyor	-11.4808
▁Bağ	-11.481
▁olabilme	-11.481
▁döndüğünü	-11.4811
▁odun	-11.4811
▁yatakta	-11.4812
▁ekibin	-11.4812
▁param	-11.4814
▁Rand	-11.4815
▁şüpheli	-11.4816
▁kopyalama	-11.4817
▁etmektedir	-11.4818
▁söylediğimde	-11.4819
▁çoğumuzun	-11.4819
▁devrimin	-11.4821
ring	-11.4822
▁başlıyorum	-11.4822
▁yazmayı	-11.4824
▁karşılaşıyor	-11.4827
▁cami	-11.4829
▁soku	-11.4833
▁verirken	-11.4836
lığından	-11.4838
▁veriliyor	-11.4838
▁beynimizi	-11.484
▁teşhisi	-11.4841
layabilmek	-11.4842
▁endişeli	-11.4842
▁pekço	-11.4842
lup	-11.4845
▁izini	-11.4848
sky	-11.4848
▁gelse	-11.4853
▁patlat	-11.4854
▁çalıştığınız	-11.4854
gini	-11.4856
▁kalkma	-11.4858
▁yapacağımı	-11.4858
▁insanoğlu	-11.4861
▁düşündüklerini	-11.4862
▁bakmamız	-11.4864
▁karşılığı	-11.4868
▁herkesle	-11.4868
▁Oğlum	-11.4872
▁hip	-11.4873
fil	-11.4879
▁İranlı	-11.488
▁yürümek	-11.488
▁kütlesi	-11.488
▁şefi	-11.4881
▁dökme	-11.4881
▁Geç	-11.4883
well	-11.4886
▁yapabilirse	-11.4888
▁güldü	-11.4889
▁dönmeye	-11.4891
▁çekecek	-11.4891
▁söylemeyi	-11.4894
▁inç	-11.4895
▁balinalar	-11.4896
▁kabus	-11.4897
▁fabrikası	-11.49
▁eg	-11.4901
▁çocuklardan	-11.4902
▁hatırlamak	-11.4902
▁istasyonu	-11.4906
▁etkisiz	-11.4907
amıyorum	-11.4907
fik	-11.4907
▁öğrencinin	-11.4908
▁eşiğinde	-11.4909
▁döneme	-11.4909
▁anlatıcı	-11.491
▁başlatma	-11.491
▁gerçekleştiği	-11.4911
▁deneyde	-11.4911
▁Shi	-11.4913
▁hazırlamak	-11.4914
▁sözde	-11.4915
▁sesimi	-11.4918
jo	-11.4918
▁benziyordu	-11.4918
▁kurula	-11.492
▁sahası	-11.4921
▁kazanmış	-11.4921
▁Hel	-11.4921
▁fenomeni	-11.4923
lmasını	-11.4926
▁anlattıkları	-11.4927
▁imaj	-11.4929
▁Yarın	-11.4931
▁Sudan	-11.4932
▁grubunu	-11.4932
▁sosyo	-11.4934
▁başını	-11.4938
▁filan	-11.4939
▁Yaz	-11.4941
▁Gülme	-11.4942
▁sonunu	-11.4943
▁Hayatımda	-11.4943
16	-11.4943
törler	-11.4944
▁etkiye	-11.4947
▁çağın	-11.4948
▁proteini	-11.4948
▁büyümüş	-11.4949
▁bekliyordu	-11.495
▁yükselişi	-11.495
▁kaşı	-11.495
▁31	-11.4953
▁diyeceğim	-11.4954
▁toplayı	-11.4955
▁Ebeveynler	-11.4958
▁ekin	-11.4962
▁yolunun	-11.4963
▁üretilmiş	-11.4964
ümüzü	-11.4967
sever	-11.497
▁aracını	-11.4977
▁hizmetler	-11.4978
▁ayrıldığı	-11.4978
▁çözmemiz	-11.4979
▁atlet	-11.4979
▁sokmak	-11.4981
▁kalmayı	-11.4984
▁Leon	-11.4986
ront	-11.4993
▁küçümse	-11.4998
▁bölünme	-11.4998
▁Hayatım	-11.5002
▁alınması	-11.5003
▁düşünürler	-11.5005
▁haksız	-11.5007
▁gördüğünü	-11.5009
▁bebeklerin	-11.5012
yorduk	-11.5012
▁yerçekimi	-11.5013
▁İspanyol	-11.5013
▁yaptigi	-11.5013
▁ped	-11.5016
▁atıldı	-11.5018
okyo	-11.5019
▁beynine	-11.5019
▁obez	-11.502
▁Konseyi	-11.502
▁füzyon	-11.502
▁habitat	-11.502
▁harikulade	-11.502
▁Şiddet	-11.502
▁Mahkeme	-11.502
▁Portekiz	-11.502
▁dublör	-11.502
▁Hafta	-11.502
▁berber	-11.502
▁vaaz	-11.502
▁bayrağı	-11.502
lışılmadık	-11.502
▁esrar	-11.502
▁Sinir	-11.5021
▁Maymun	-11.5021
▁oluşturuyorlar	-11.5021
▁kostüm	-11.5021
▁yapışkan	-11.5021
▁acele	-11.5021
▁çadır	-11.5022
▁Selam	-11.5022
▁tanıştık	-11.5022
▁Buzul	-11.5022
▁heyecanlıydı	-11.5023
▁kastediyorum	-11.5023
▁profil	-11.5025
▁Hous	-11.5025
▁Lego	-11.5026
▁bağlamında	-11.5026
▁edemezsiniz	-11.5026
▁inanmaya	-11.5026
▁Libya	-11.5027
▁sağlayarak	-11.5027
▁bulursunuz	-11.5028
▁sınırsız	-11.5029
▁doyur	-11.5029
▁belirleyici	-11.5029
▁çöktü	-11.503
▁yerleştirilmiş	-11.503
▁etrafımda	-11.5032
▁oluşturabiliriz	-11.5033
▁endüstrisini	-11.5033
▁kullanıp	-11.5036
▁tahmini	-11.5038
▁öldürüldü	-11.5038
▁100,000	-11.5039
▁grupta	-11.5039
▁Soldaki	-11.504
▁kilolu	-11.5042
▁Adası	-11.5042
▁alışık	-11.5044
▁Fransızca	-11.5044
▁görürdü	-11.5044
▁sınırların	-11.5044
▁başlıyorsunuz	-11.5044
▁görevini	-11.5045
ound	-11.5046
▁stil	-11.5047
▁koruyan	-11.5048
▁işletmeler	-11.505
▁kıs	-11.5051
▁yazarken	-11.5051
▁kökten	-11.5052
▁etmelerini	-11.5052
▁Nata	-11.5054
▁kuralların	-11.5055
ary	-11.5056
▁Biyo	-11.5059
▁kökenli	-11.506
▁pazarı	-11.5064
▁Öğren	-11.5064
▁incelemeye	-11.5065
▁demeye	-11.5066
▁Koca	-11.5066
▁nice	-11.5066
▁aradığımız	-11.5069
▁hissettiğini	-11.5069
▁bahçesinde	-11.5072
kini	-11.5073
▁oluşturulmuş	-11.5075
▁Sokak	-11.5075
▁geçirecek	-11.5079
▁dostu	-11.508
▁bulunmuyor	-11.5082
▁bakılır	-11.5087
▁tanrım	-11.5088
▁zorluyor	-11.5088
▁plaka	-11.5089
HC	-11.5092
▁arttırıyor	-11.5096
▁ekliyor	-11.5097
▁notlar	-11.5097
▁fok	-11.5098
▁genin	-11.5098
▁göstermiş	-11.51
bilirim	-11.5102
▁aşma	-11.5103
▁saklama	-11.5103
▁girdiğim	-11.5104
▁Kür	-11.5105
▁Cap	-11.5107
▁çizmek	-11.5115
▁Ram	-11.5116
kül	-11.5116
bit	-11.5119
▁fareler	-11.5122
▁çevreci	-11.5122
gor	-11.5125
▁çalışırlar	-11.5125
▁dünyamız	-11.5126
▁bilmemiz	-11.5129
▁18.	-11.5131
▁tutabilir	-11.5131
leştirir	-11.5132
▁başlarlar	-11.5132
▁meta	-11.5132
▁istemediği	-11.5135
▁doğruluk	-11.5137
▁oranına	-11.5139
▁trafiği	-11.514
▁şansını	-11.5142
▁alem	-11.5142
▁biçimleri	-11.5142
▁ayakkabılar	-11.5142
▁sirk	-11.5142
mezsek	-11.5144
▁ekonomide	-11.5146
▁yuz	-11.5147
▁anlaşıldı	-11.515
▁birçoğunuz	-11.5154
▁kodun	-11.5159
▁görebilecek	-11.516
▁dostum	-11.5161
▁farkettik	-11.5163
▁bittiği	-11.5168
▁gözlerim	-11.5168
lanmak	-11.5176
▁farklıydı	-11.5176
▁yaptın	-11.5179
▁karakterleri	-11.5179
▁Ders	-11.518
taşı	-11.5186
▁şahs	-11.5186
▁Ladin	-11.5188
▁engelle	-11.5188
▁girecek	-11.5189
▁yapil	-11.5189
▁öğreniyorlar	-11.5191
▁kask	-11.5192
▁ağların	-11.5199
▁eylemci	-11.5201
▁ülkesinde	-11.5206
▁takıyor	-11.5206
▁kısımları	-11.5208
▁etse	-11.5209
▁Kimi	-11.5211
▁Saf	-11.5213
▁Aç	-11.5215
eger	-11.5219
▁evrimleşme	-11.5223
▁64	-11.5227
▁anlayacak	-11.5227
▁tasarladık	-11.5229
▁dokusunu	-11.5229
▁uyarlama	-11.5232
▁lezzet	-11.5232
▁görebileceği	-11.5232
▁düşmüş	-11.5233
malıyım	-11.5237
▁Yolu	-11.5238
▁sis	-11.5239
▁ekonomisini	-11.5239
▁Başarı	-11.5242
▁salonda	-11.5242
içi	-11.5244
▁organizasyonu	-11.5246
▁tüketiyor	-11.5246
▁başlamamız	-11.5247
▁kalanlar	-11.5252
▁alışkanlıkları	-11.5252
▁dizileri	-11.5252
▁yargılama	-11.5253
▁titreş	-11.5255
▁planda	-11.5257
▁gösterim	-11.5258
diyseniz	-11.5258
▁geçim	-11.5262
▁ES	-11.5265
masıdır	-11.5272
▁kavuş	-11.5273
▁yolumuz	-11.5275
▁deneyimle	-11.5276
uther	-11.5276
▁STK	-11.5277
▁alfabe	-11.5277
▁atölye	-11.5277
▁floresan	-11.5277
▁kahvaltı	-11.5277
▁kasırga	-11.5277
▁sofistike	-11.5277
▁çığlık	-11.5277
▁Kolombiya	-11.5277
▁ayrıştır	-11.5277
▁melodi	-11.5277
▁monte	-11.5277
▁protokol	-11.5277
▁tasarim	-11.5277
▁Düşük	-11.5277
angelo	-11.5277
▁Harita	-11.5277
▁ihtiyar	-11.5277
▁Snow	-11.5277
▁espri	-11.5277
▁Prens	-11.5277
▁bloğu	-11.5277
▁kaşif	-11.5277
▁ziyan	-11.5277
▁beşinci	-11.5277
▁Yunanistan	-11.5277
▁ilgilendiren	-11.5277
▁imha	-11.5277
▁motif	-11.5277
▁Insanlar	-11.5277
▁Cuma	-11.5277
▁karadelik	-11.5278
▁nakit	-11.5278
▁açıklar	-11.528
▁önemsiyor	-11.5282
tion	-11.5283
▁moral	-11.5284
▁Evere	-11.5284
▁bırakıldı	-11.5284
▁vat	-11.5285
▁balıkların	-11.5286
▁aracılığı	-11.5287
▁maçı	-11.5288
▁Düşünce	-11.5288
▁kılar	-11.5289
▁canına	-11.5289
▁zararsız	-11.5291
▁yaratabiliriz	-11.5292
▁çekil	-11.5293
▁aydınlanma	-11.5294
▁Kapa	-11.5294
▁Peru	-11.5294
▁Seks	-11.5295
▁dükkanı	-11.5296
▁geçmişin	-11.5297
▁düzene	-11.5301
▁Temiz	-11.5302
▁tutacak	-11.5303
▁ettikçe	-11.5306
cular	-11.5306
▁yeryüzünde	-11.5309
▁bilmiyorlar	-11.5309
▁soruyorlar	-11.531
▁üzüm	-11.5311
▁kurbanları	-11.5311
▁oturuyordu	-11.5311
▁öldüğü	-11.5312
neyse	-11.5313
cılığı	-11.5316
▁gerçekleştirdi	-11.5316
▁kırp	-11.5316
▁güçler	-11.5316
▁geldiğim	-11.5319
▁ağını	-11.5319
▁koyduğumuz	-11.5319
▁veriyordu	-11.532
▁benimki	-11.5321
▁inanıyorlar	-11.5323
▁gülümse	-11.5326
▁kıyafeti	-11.5327
gie	-11.5327
▁Meydanı	-11.5329
▁olmamı	-11.5329
▁derdim	-11.533
▁kırık	-11.533
▁paylaşmaya	-11.533
▁kurumun	-11.5331
▁Filistinli	-11.5331
▁geçiyoruz	-11.5331
▁Radyo	-11.5331
▁zanned	-11.5334
▁Aklım	-11.5334
▁içimde	-11.5334
irim	-11.5336
▁söylese	-11.5336
▁kork	-11.534
▁Ödül	-11.534
▁biter	-11.5341
▁verilmesi	-11.5341
▁Str	-11.5341
bilecek	-11.5342
▁gençlik	-11.5343
▁sorulan	-11.5344
▁konferansta	-11.5345
▁öleceği	-11.5347
▁adımlar	-11.5348
larınıza	-11.5349
▁Del	-11.5349
▁parçacıkların	-11.535
▁videolar	-11.5354
▁belirtileri	-11.5354
▁toplulukların	-11.5355
▁ulaştım	-11.5356
▁bağlanıyor	-11.5357
▁gerçekle	-11.5358
▁insanlığı	-11.5358
▁Tür	-11.5364
▁sahipliği	-11.5365
▁ürünlerini	-11.5365
▁gezegenleri	-11.5366
▁istese	-11.5366
umuza	-11.5367
▁eleştirme	-11.5367
▁iskele	-11.5369
liyorlar	-11.537
▁aklına	-11.5373
▁harcadık	-11.5374
▁yerlerini	-11.5379
▁gizlilik	-11.5379
▁Kop	-11.5379
▁kullandılar	-11.538
▁NA	-11.5381
▁başlattığı	-11.5381
▁olsaydık	-11.5383
▁aşağıdaki	-11.5384
▁belirttiği	-11.5385
▁takıl	-11.5385
gg	-11.5386
▁topar	-11.5387
▁aktiviteler	-11.5394
tigi	-11.5396
▁tüketiciler	-11.5396
▁hazırladık	-11.5398
▁titre	-11.5399
Yüzyıl	-11.5399
▁matematiği	-11.54
ebiliyorsunuz	-11.5405
daydım	-11.5405
▁kimyasallar	-11.5406
▁Hy	-11.5406
▁yukarıdan	-11.5407
▁çizimler	-11.5411
▁eğilimli	-11.5419
▁ekranı	-11.5419
▁babaları	-11.5422
rol	-11.5425
▁tekerlekl	-11.5426
▁geliştirdiğimiz	-11.5427
▁fikirde	-11.5428
▁Parkı	-11.543
▁ağırlığında	-11.5431
▁2.5	-11.5435
▁bulundum	-11.5436
▁dengesiz	-11.5438
▁ötede	-11.5443
▁çiftliği	-11.5443
▁azalması	-11.5445
▁gönderdik	-11.5446
▁We	-11.5447
▁96	-11.5447
▁artırma	-11.545
▁teorisini	-11.545
▁Uçak	-11.5454
▁ettiğimde	-11.5455
▁güçlerini	-11.5456
▁Gor	-11.5458
▁zihnin	-11.5461
▁yapanlar	-11.5462
larınızla	-11.5463
▁hikayemi	-11.5463
Cola	-11.5465
▁söyleyemez	-11.5466
▁kullanıyordu	-11.547
hal	-11.547
▁ünü	-11.547
▁görmemişti	-11.5471
▁diğerini	-11.5476
▁formda	-11.5477
▁harcamaları	-11.5478
▁şirkette	-11.5478
▁Mont	-11.5484
▁endüstrisinde	-11.5488
▁uçu	-11.5489
▁olmamıştı	-11.549
▁kökleri	-11.5492
▁ailede	-11.5495
▁Öğrenme	-11.5499
▁kullanırlar	-11.55
▁bilgisini	-11.5502
▁çıkacağı	-11.5503
▁Tit	-11.5509
▁ogren	-11.551
▁programını	-11.5511
▁ücreti	-11.5512
▁benzediği	-11.5513
▁sözler	-11.5514
seler	-11.5515
▁aklını	-11.5517
▁ova	-11.5519
▁sevk	-11.5519
▁Bilgisayarlar	-11.552
▁getirmiş	-11.5523
▁numarası	-11.5524
▁karım	-11.5526
▁ormanların	-11.5527
▁keşifler	-11.5529
▁43	-11.553
▁kaldığımız	-11.5531
▁parasını	-11.5533
▁düşürdü	-11.5534
▁edemediği	-11.5536
▁süpür	-11.5539
▁Ekranda	-11.554
▁Avusturya	-11.554
▁Craig	-11.554
▁Edward	-11.554
▁Endonezya	-11.554
▁Müşteri	-11.554
▁Tıbb	-11.554
▁Yiyecek	-11.554
▁dezavantaj	-11.554
▁dopamin	-11.554
▁entellektüel	-11.554
▁kolektif	-11.554
▁müttefik	-11.554
▁papaz	-11.554
▁Zengin	-11.554
▁Alaska	-11.554
▁plaj	-11.554
▁dayanışma	-11.554
▁Wolf	-11.554
▁anonim	-11.554
▁İzlanda	-11.554
▁havaalanı	-11.554
▁kainat	-11.554
▁kuzeni	-11.554
▁vaat	-11.554
▁hasıla	-11.554
▁sihirbaz	-11.554
▁klon	-11.554
▁kondom	-11.554
▁üzüntü	-11.554
▁taslak	-11.554
▁seyretti	-11.554
▁itici	-11.554
▁İnşa	-11.554
▁Nokta	-11.554
▁Cep	-11.5541
▁huylu	-11.5541
eceklerini	-11.5542
▁masaüstü	-11.5542
▁yaşımdayken	-11.5542
▁omurga	-11.5542
▁tablet	-11.5543
▁Sanıyorum	-11.5543
▁Genom	-11.5543
▁pekala	-11.5544
▁Emma	-11.5544
▁hamur	-11.5544
▁mitoloji	-11.5545
▁Adem	-11.5546
LA	-11.5546
▁süregel	-11.5546
▁Kutup	-11.5548
▁donu	-11.5549
lisin	-11.555
statik	-11.555
▁Bhu	-11.5551
ivil	-11.5551
▁istila	-11.5552
▁görünüyorlar	-11.5552
▁ülkelerden	-11.5552
▁yarasalar	-11.5553
▁edebilen	-11.5554
▁çimen	-11.5556
▁And	-11.5558
▁rengini	-11.5558
▁tartışmalı	-11.5559
▁kaçırıyor	-11.5561
▁gelebilecek	-11.5562
▁yürüttü	-11.5562
▁Söylediğim	-11.5563
▁öldüğünü	-11.5563
amayacağını	-11.5564
▁kuşku	-11.5565
▁tabanlı	-11.5566
▁probleme	-11.5566
▁anlatıyorum	-11.5566
▁AG	-11.5566
landırılmış	-11.5567
▁komp	-11.5568
▁ını	-11.5568
▁eğiliminde	-11.557
▁istifa	-11.5572
▁geliştiriyor	-11.5572
▁uygulamak	-11.5572
▁Sanayi	-11.5572
ğer	-11.5575
▁bittiğinde	-11.5576
▁olmamak	-11.5576
▁yiyen	-11.5577
▁hastayı	-11.5578
▁Milli	-11.558
▁olmadığınız	-11.5581
▁sabahı	-11.5581
▁basma	-11.5581
▁düşündüğümü	-11.5581
▁liman	-11.5582
kalı	-11.5583
all	-11.5585
▁olduğumdan	-11.5588
▁başlatmak	-11.5589
▁makinelerin	-11.5592
▁hayranlık	-11.5595
▁gidişatı	-11.5596
▁üretimin	-11.5599
▁tasarımcıları	-11.56
▁riskler	-11.5601
▁büyüktür	-11.5604
▁şimdilik	-11.5605
▁uzanıyor	-11.5606
▁kalmayacak	-11.5606
▁Geliş	-11.5606
▁dünyamızda	-11.5606
▁hü	-11.5609
ımızdaki	-11.5611
▁MT	-11.5613
▁konuşuyordu	-11.5614
▁şefkatli	-11.5616
▁tarafın	-11.5619
▁oturum	-11.5619
▁attık	-11.562
abilirdi	-11.5621
▁boyutların	-11.5623
ington	-11.5623
lenmişti	-11.5624
▁Gelişim	-11.5627
▁algılaya	-11.5627
▁birleşi	-11.5628
▁hissetmeye	-11.5629
▁pazarlık	-11.5633
▁oyuncağı	-11.5634
▁Maria	-11.5634
▁yapabildiğimiz	-11.5636
▁paralarını	-11.5641
▁yuvarlan	-11.5641
▁türünün	-11.5641
▁esneklik	-11.5645
▁fiziğin	-11.5646
▁Cin	-11.5647
▁toplamı	-11.5647
▁araştırıyor	-11.5648
▁kuruluşu	-11.565
▁istediğin	-11.565
▁babalar	-11.5651
col	-11.5652
▁uyuya	-11.5653
▁edinmek	-11.5654
▁sensörler	-11.5656
rap	-11.5657
▁koşar	-11.5657
▁hepsinden	-11.5657
▁buralar	-11.5657
▁Şehri	-11.5658
▁muydu	-11.5658
▁tanımak	-11.5662
▁bahçesi	-11.5665
▁keşfettiği	-11.5665
▁dönüşme	-11.5666
▁oynayabilir	-11.5669
leştiriyoruz	-11.5669
▁acıyı	-11.567
lduğumuz	-11.5672
▁içecek	-11.5675
▁dolaşı	-11.5675
▁İnternette	-11.5675
▁kullanıldığı	-11.5675
▁sürdürme	-11.5677
▁malzemelerin	-11.5677
▁derinliklerin	-11.5678
▁başkanlı	-11.5679
▁yasası	-11.5679
▁gözlü	-11.5682
layabilirim	-11.5682
▁Arı	-11.5683
▁gökyüzünü	-11.5683
▁Tip	-11.5688
▁almanız	-11.5689
▁balıkçılık	-11.5689
▁Laboratuvar	-11.5694
▁ayırdı	-11.5695
▁zamanımızı	-11.5701
▁Gü	-11.5702
▁istasyonları	-11.5703
▁çocukluğum	-11.5705
▁vatandaşı	-11.5706
▁Evde	-11.5706
▁Üst	-11.5707
▁görüntüy	-11.5707
▁ayrıcalık	-11.5708
acaklarını	-11.5711
▁materyaller	-11.5713
▁Diğerleri	-11.5716
▁deneyimini	-11.572
▁bilgilere	-11.5723
▁muydun	-11.5724
▁simetrik	-11.5724
▁yapacaklar	-11.5725
▁kurabilir	-11.5728
▁çıkmıştı	-11.5731
▁deneyimim	-11.5733
▁dus	-11.5736
▁ışığında	-11.5736
▁topluluğ	-11.5742
ilmemiş	-11.5744
yüm	-11.5744
Ş	-11.5745
miyordum	-11.5745
▁yolculuğum	-11.5745
▁uzaklaştı	-11.5746
▁taşınma	-11.5753
▁çabaları	-11.5753
▁yapabilirdi	-11.5754
▁bedenin	-11.5758
▁doktorun	-11.5759
▁yürümeye	-11.5759
▁gecede	-11.5761
▁soktu	-11.5761
▁oysa	-11.5765
▁karşılaştık	-11.5768
▁Konuşmamı	-11.5768
▁inanıyordu	-11.5771
▁üretebilir	-11.5772
▁kutunu	-11.5772
▁olmakta	-11.5776
▁mimarlık	-11.5777
▁fili	-11.5777
lamayan	-11.5778
▁görüntülerin	-11.578
▁hissedebilir	-11.5791
▁penis	-11.5792
▁işaretler	-11.5792
▁bağışı	-11.5795
▁dolaşır	-11.5804
▁yapmamı	-11.5804
▁istediğimizi	-11.5804
▁takıntılı	-11.5804
▁gözlük	-11.5805
▁volkan	-11.5808
▁yazdıkları	-11.5808
▁çapraz	-11.581
▁Meclis	-11.581
▁Mozart	-11.581
▁Plastik	-11.581
▁Televizyon	-11.581
▁elverişli	-11.581
▁pervane	-11.581
▁piyango	-11.581
▁püskürt	-11.581
▁sempati	-11.581
▁tezgah	-11.581
▁Üzgünüm	-11.581
▁şeridi	-11.581
▁şırınga	-11.581
▁Beraber	-11.581
▁paradoks	-11.581
▁tokuş	-11.581
▁çıldır	-11.581
▁Daniel	-11.581
▁rahip	-11.581
▁mekân	-11.581
▁tempo	-11.581
▁Sıtma	-11.581
▁prostat	-11.581
▁kukla	-11.581
▁reddetti	-11.581
▁Aşırı	-11.581
▁sevmez	-11.581
▁Free	-11.581
▁Kamera	-11.5811
▁General	-11.5811
▁partikül	-11.5811
▁istenen	-11.5811
▁bölü	-11.5811
▁1,5	-11.5812
▁içgüdüsel	-11.5813
▁Değişik	-11.5813
▁barışçı	-11.5814
▁başlayınca	-11.5814
▁Okuma	-11.5814
▁sembolik	-11.5815
▁astım	-11.5815
receğiz	-11.5816
▁bilinçsiz	-11.5816
▁problemlere	-11.5817
▁etmeliyim	-11.5817
▁Zamanla	-11.5818
▁görüşüm	-11.5818
▁Oyuncu	-11.582
▁bağladı	-11.582
▁özlem	-11.582
▁oyunda	-11.5821
▁acik	-11.5821
▁adlandırılır	-11.5823
▁Sıfır	-11.5824
▁ölçüsü	-11.5827
▁boyama	-11.5827
▁direniş	-11.5828
ome	-11.5828
▁mutluydu	-11.5832
▁öğrettiği	-11.5832
▁konuşabilir	-11.5832
▁gösteriliyor	-11.5834
▁bahsettik	-11.5834
▁tartışmak	-11.5835
▁ilişkilerini	-11.5835
▁cesaretlendir	-11.5836
▁yılların	-11.5837
▁görünecek	-11.5839
▁Uyum	-11.5841
▁ışıklar	-11.5843
▁erişti	-11.5844
▁bulutlar	-11.5844
▁dünyasını	-11.5845
▁AK	-11.5846
▁kemer	-11.5846
▁yararına	-11.5847
▁yapıyorlardı	-11.5848
▁bazlı	-11.585
row	-11.5852
▁vücudumuzu	-11.5853
▁Sanatçı	-11.5854
▁hatırlatmak	-11.5856
▁verirsek	-11.5856
▁büyümesini	-11.5858
▁gitar	-11.5858
▁çıkarıyorlar	-11.5861
▁büyüdüğünü	-11.5861
▁ayın	-11.5862
▁Emin	-11.5862
▁taktı	-11.5862
▁büyüklük	-11.5863
▁yaklaşır	-11.5865
▁kızıl	-11.5865
▁boşlukta	-11.5865
▁yüzleri	-11.5866
▁Will	-11.5867
▁alamıyor	-11.5867
▁tabakası	-11.5869
▁poli	-11.587
▁önerdi	-11.5871
▁korkar	-11.5873
▁yükü	-11.5875
lyn	-11.5876
ilebilecek	-11.5877
▁tarafındaki	-11.5879
kac	-11.588
▁serisi	-11.5884
▁andı	-11.5886
▁Tarım	-11.5887
▁sırtında	-11.5888
▁yatırımı	-11.5889
▁form	-11.5889
▁arkadaşlarımla	-11.589
▁Lak	-11.5891
▁organizmaların	-11.5895
▁oralarda	-11.5895
dığınızı	-11.5895
▁görebildiği	-11.5897
▁polisi	-11.59
▁beyninizi	-11.5902
ilmesini	-11.5903
▁oylama	-11.5906
▁hayalet	-11.5909
▁denizci	-11.591
ette	-11.591
▁saldırılar	-11.5911
bay	-11.5912
▁olasılıkları	-11.5913
▁Ölü	-11.5915
▁katlama	-11.5915
▁tasarlar	-11.5915
▁vücudumuz	-11.5916
▁yanıtı	-11.5919
▁tarihçi	-11.5921
▁Gerek	-11.5921
▁kaldırıyor	-11.5924
▁şunları	-11.5927
▁sonda	-11.5928
RA	-11.5937
▁Cor	-11.5937
▁sıçra	-11.5938
▁yönetmek	-11.5943
mazsanız	-11.5944
▁çıkarken	-11.5951
▁uydurma	-11.5951
▁kaçınız	-11.5952
▁vurgulama	-11.5953
▁parkın	-11.5955
dukları	-11.5957
▁değersiz	-11.5957
▁göstermeme	-11.5962
▁Gidi	-11.5962
▁kokusu	-11.5962
▁kafasında	-11.5962
ğımı	-11.5963
▁koruyacak	-11.5966
▁dahilinde	-11.5967
▁süpermarket	-11.597
lanmıyor	-11.597
▁Mag	-11.5971
▁çözecek	-11.5973
▁şaşırttı	-11.5975
▁mühendisleri	-11.5976
▁fiziği	-11.5977
▁olamayacağı	-11.598
▁birleştirmek	-11.5984
abildiğimiz	-11.5985
▁bölgelere	-11.5985
▁Aşı	-11.5987
▁hazırladı	-11.5987
▁engelleme	-11.5988
▁sorunla	-11.5991
▁yoğunluğunu	-11.5996
▁atılmış	-11.5997
larımda	-11.5997
▁yakıtlar	-11.5998
▁oluşma	-11.6
▁kalbiniz	-11.6001
▁salonu	-11.6003
▁ulaşabilme	-11.6003
▁koşma	-11.6005
▁adamış	-11.6005
▁istendi	-11.6007
▁yapmamızı	-11.601
▁neslin	-11.6013
▁olurum	-11.6017
lendirilmiş	-11.6017
▁bilmediğim	-11.6019
▁raporu	-11.6022
▁etmekle	-11.6026
▁sözcükler	-11.6026
▁tarafsız	-11.6026
▁gözlerimi	-11.6027
▁öl	-11.6029
▁kahramanları	-11.6029
▁sark	-11.6034
▁yayınlanma	-11.6036
▁karada	-11.6036
▁uçurma	-11.6037
lemez	-11.6038
▁kapatı	-11.6039
▁biçimlendir	-11.6041
▁faktörü	-11.6042
▁Düş	-11.6042
▁192	-11.6044
▁dönmüş	-11.6046
▁düşünüyorlardı	-11.6047
▁evlendi	-11.6051
▁civarı	-11.6052
▁gidebileceği	-11.6055
▁sürüş	-11.6055
▁kısma	-11.6056
▁baca	-11.6058
▁Bebek	-11.6058
▁öğrenim	-11.6059
▁fonksiyonları	-11.6059
▁aşaması	-11.6066
emeyeceğimiz	-11.6066
▁gösteriş	-11.6067
▁ayrılıyor	-11.6068
▁başların	-11.6069
▁tonu	-11.607
▁alabileceği	-11.6071
▁imkanları	-11.6071
▁müşterileri	-11.6073
▁işlemler	-11.6075
▁görmediği	-11.6075
▁kafamı	-11.6076
▁yüzünde	-11.6077
▁görüşleri	-11.6079
▁uzmanların	-11.6079
▁Pete	-11.6082
▁siteleri	-11.6082
▁jet	-11.6084
▁keşfedildi	-11.6084
▁batır	-11.6086
▁düzenledi	-11.6087
▁gördüğümüzde	-11.6087
▁nötr	-11.6088
▁Black	-11.6088
=	-11.6088
‘	-11.6088
▁Cumhuriyetçi	-11.6088
▁Philadelphia	-11.6088
▁basketbol	-11.6088
▁dikdörtgen	-11.6088
▁istiridye	-11.6088
▁mevzu	-11.6088
▁müzakere	-11.6088
▁palmiye	-11.6088
▁asfalt	-11.6088
▁kopru	-11.6088
▁Bakteriler	-11.6088
▁döviz	-11.6088
▁Christoph	-11.6088
▁Bağımsız	-11.6088
▁şirin	-11.6088
▁metropol	-11.6088
▁Tayland	-11.6088
▁Mandela	-11.6088
▁kapsül	-11.6088
▁ciğer	-11.6088
▁komuta	-11.6088
▁Mesaj	-11.6088
▁sicim	-11.6088
▁aksanı	-11.6088
▁Duygu	-11.6088
▁bayılır	-11.6088
▁meşru	-11.6088
ranın	-11.6089
▁maksim	-11.6089
▁döndürme	-11.6089
▁Philip	-11.609
▁bahsedelim	-11.609
▁düzenleyen	-11.609
▁kabı	-11.609
▁tasarımcısı	-11.6091
▁göründü	-11.6092
▁sunulan	-11.6092
▁yörüngesinde	-11.6092
▁göstermektedir	-11.6094
▁inanmıyorum	-11.6095
▁birebir	-11.6095
▁Satur	-11.6096
▁vermeliyiz	-11.6096
▁düşüncelerini	-11.6096
▁açılı	-11.6097
▁gezegenimizde	-11.6097
utube	-11.6097
▁farz	-11.6098
▁dereceye	-11.6098
▁Kamu	-11.6099
▁yaratıkları	-11.6099
▁kullanırız	-11.6099
▁paylaşıla	-11.6099
▁gelirdi	-11.61
likli	-11.61
▁kuraklık	-11.6101
▁geçirmeye	-11.6103
▁olmaktadır	-11.6103
▁dokuyu	-11.6104
▁vatan	-11.6104
▁toplayan	-11.6105
▁kesilmiş	-11.6106
▁isteğim	-11.6108
▁yapmıyorum	-11.6109
▁pasta	-11.611
▁vefat	-11.6113
▁Sevgili	-11.6116
▁uyandıra	-11.6118
▁değişecek	-11.6118
▁Bal	-11.6118
▁asır	-11.6118
▁Monter	-11.6119
▁tuzlu	-11.6119
▁gözümü	-11.6122
▁isi	-11.6123
▁edeceğimiz	-11.6123
▁tohumları	-11.6123
▁kaynağını	-11.6123
▁kaptır	-11.6124
▁düşündüğümde	-11.6124
▁işlenmiş	-11.6126
▁karo	-11.6126
▁ayrılır	-11.6128
▁kutular	-11.6129
▁Vo	-11.6131
▁reklamı	-11.6131
▁kurs	-11.6132
▁şifreleme	-11.6132
▁hayatlarımızı	-11.6135
meyeceği	-11.6137
▁öncelikli	-11.6139
▁hesaplamalar	-11.614
▁sarmal	-11.6141
▁çağırdı	-11.6142
▁galib	-11.6142
▁önleme	-11.6142
▁bilincin	-11.6142
▁kırılma	-11.6147
▁mail	-11.6148
▁hastaneler	-11.6149
▁Milo	-11.6149
▁Gold	-11.6151
▁düştüğünü	-11.6152
▁yabancılar	-11.6153
▁duyuyordu	-11.6155
▁eğitimde	-11.6155
çılık	-11.6156
hoo	-11.6158
▁kafam	-11.6159
▁işlediği	-11.616
▁geçerlidir	-11.616
▁yüzyıllar	-11.6163
▁yemeye	-11.6163
▁Tra	-11.6165
▁büyüklüğünü	-11.6169
▁Bilin	-11.6169
▁söylüyoruz	-11.6169
ğınız	-11.6171
▁güvenme	-11.6172
▁kullanabilme	-11.6173
▁yapardım	-11.6174
▁Gözleri	-11.6175
▁etmişler	-11.6177
▁tesisler	-11.6178
▁biliriz	-11.6179
▁Bang	-11.618
▁duymuyor	-11.6181
▁genişliği	-11.6182
▁ömrünü	-11.6182
▁kalanında	-11.6184
▁attım	-11.6185
▁söylerler	-11.6186
▁bakmanız	-11.6186
▁ekonomimiz	-11.6188
▁suyunu	-11.6189
wat	-11.6192
anlayabilirsiniz	-11.6193
abiliyorum	-11.6194
▁tarafları	-11.6194
ciliği	-11.6195
▁zamanlarında	-11.6197
▁kanunlar	-11.6201
▁yönlendiril	-11.6201
▁duymadığı	-11.6202
▁Düz	-11.6202
▁kaçtı	-11.6202
▁sayıyı	-11.6202
▁günümüzü	-11.6203
▁verilir	-11.6206
▁yediğimiz	-11.6206
▁çalışıyorduk	-11.6207
▁gelişimini	-11.6209
▁Kimin	-11.6209
▁haberleşme	-11.6211
▁liderlerin	-11.6212
▁hazırlıyor	-11.6215
▁canlıları	-11.6216
▁ülkelerinde	-11.622
▁38	-11.6222
▁sözlü	-11.6222
▁dönüştürdü	-11.6225
▁olabilmesi	-11.6226
▁Roy	-11.6227
▁istediğinde	-11.6228
▁karşılamak	-11.6229
▁kısımda	-11.6233
▁görselleştirme	-11.6235
ebildiğimiz	-11.6244
▁terimi	-11.6245
▁toplumumuzu	-11.6245
▁prensipleri	-11.6247
▁kazanacak	-11.6248
▁ulaşmış	-11.6252
▁Resim	-11.6253
▁ürettiğimiz	-11.6254
▁yokluğu	-11.6254
▁tum	-11.6255
▁kapasitesini	-11.6257
▁derecesi	-11.626
▁girişi	-11.6261
▁önündeki	-11.6262
▁kulakları	-11.6263
▁Geleceğin	-11.6269
▁tarafını	-11.6269
oid	-11.6271
▁konsepti	-11.6272
uzun	-11.6273
▁kesik	-11.6273
ity	-11.6273
▁üretebil	-11.6273
▁hâlde	-11.6274
▁kaydır	-11.6275
▁çalışın	-11.6279
▁çevirir	-11.628
▁bilecek	-11.6281
▁düşmanı	-11.6284
mediğimiz	-11.6289
▁akıyor	-11.629
▁Kam	-11.6293
▁tepesin	-11.6295
▁Yü	-11.63
▁bahsetmişti	-11.6302
▁hisleri	-11.6303
▁kaybetmek	-11.6303
▁çizdi	-11.6303
▁52	-11.6303
▁başlamada	-11.6304
▁izleyebilir	-11.6305
▁tasarımları	-11.6306
▁Dene	-11.6309
▁kurtaracak	-11.6312
▁meseleler	-11.6313
▁kurtarmaya	-11.6315
▁ayrılık	-11.6321
▁büyüğü	-11.6322
▁Bab	-11.6323
▁koyacak	-11.6324
▁37	-11.6324
▁öğrencilerimiz	-11.6326
▁destekler	-11.6327
▁bırakacak	-11.6328
▁çöker	-11.6329
▁parlaya	-11.6332
▁eko	-11.6333
▁gitmesini	-11.6333
▁yapabildi	-11.6337
▁yasaları	-11.6338
▁kaldırır	-11.6339
▁süreçler	-11.6341
▁dişleri	-11.6343
▁inanmıyor	-11.6343
▁toplumları	-11.6346
▁yatırımcılar	-11.6349
▁eskisi	-11.6352
[...]
