<unk>	0
<s>	0
</s>	0
<pad>	0
▁	-2.97295
▁.	-3.0179
▁,	-3.22399
▁bir	-3.84282
;	-3.85085
▁&	-3.90045
▁ve	-4.14414
t	-4.21011
quo	-4.49276
▁bu	-4.59681
apos	-4.7319
n	-4.84258
a	-5.03955
e	-5.12224
▁için	-5.18291
▁Bu	-5.18946
▁da	-5.2408
▁Ve	-5.44348
▁çok	-5.45259
▁de	-5.47798
▁?	-5.51245
lar	-5.55529
▁daha	-5.57404
m	-5.58927
k	-5.58934
▁)	-5.83434
(	-5.83519
▁ki	-5.84737
▁var	-5.87246
▁:	-5.88189
ler	-5.89354
▁gibi	-5.90837
i	-5.93678
▁olarak	-5.9399
▁şey	-6.02297
▁—	-6.06403
▁...	-6.06567
▁olan	-6.1221
▁ne	-6.123
▁kadar	-6.17395
den	-6.20977
▁o	-6.26287
▁en	-6.26709
▁her	-6.27888
nın	-6.29053
nin	-6.33046
▁ile	-6.36306
▁değil	-6.37132
de	-6.39344
le	-6.39963
da	-6.40252
dan	-6.40566
ya	-6.40697
▁ya	-6.41765
ları	-6.42949
leri	-6.43332
la	-6.43661
ye	-6.48074
▁ama	-6.49511
▁olduğunu	-6.49949
▁iyi	-6.5065
▁Ama	-6.5442
▁zaman	-6.54706
▁büyük	-6.54901
▁sonra	-6.55451
▁bunu	-6.5582
▁Bir	-6.56187
▁nasıl	-6.57234
in	-6.58493
na	-6.61479
▁sadece	-6.63876
.	-6.67526
er	-6.68934
▁1	-6.6923
0	-6.70106
▁çünkü	-6.71288
ki	-6.7259
u	-6.7263
▁şekilde	-6.75315
z	-6.78183
▁önce	-6.78428
▁şu	-6.78575
▁fazla	-6.81863
ü	-6.81967
yi	-6.821
▁iki	-6.86894
si	-6.86975
li	-6.87982
▁yıl	-6.88773
dir	-6.9097
▁aynı	-6.9146
▁gerçekten	-6.9166
▁O	-6.92492
ı	-6.92936
▁yeni	-6.93157
▁Yani	-6.96067
ne	-6.96745
imdi	-6.98278
p	-6.98614
▁benim	-7.01843
▁insan	-7.03301
▁hakkında	-7.03598
▁olduğu	-7.03704
▁ben	-7.05075
yı	-7.06191
▁tüm	-7.06645
en	-7.08263
▁farklı	-7.08955
▁ilk	-7.10157
l	-7.1128
dır	-7.12073
▁insanlar	-7.13243
▁içinde	-7.13777
ların	-7.14277
▁kendi	-7.15184
lerin	-7.15312
▁ilgili	-7.15801
▁diğer	-7.16138
s	-7.16146
▁aslında	-7.16228
larını	-7.17507
▁bunun	-7.17567
▁sahip	-7.17637
▁küçük	-7.18058
▁S	-7.18114
r	-7.18295
▁yok	-7.18934
▁Gülüşmeler	-7.18967
di	-7.19435
▁veya	-7.19547
▁başka	-7.19746
▁mi	-7.19897
ca	-7.20426
uz	-7.21199
lı	-7.2242
▁bile	-7.23144
▁doğru	-7.2373
sı	-7.25919
▁burada	-7.26098
▁Ben	-7.26421
▁ise	-7.26768
yle	-7.26821
▁önemli	-7.28914
▁eğer	-7.28964
lerini	-7.297
▁bana	-7.30279
akat	-7.31598
yla	-7.32067
▁şeyler	-7.3287
▁biri	-7.35043
▁size	-7.35957
▁biz	-7.36654
▁bizim	-7.36881
▁Eğ	-7.37427
ın	-7.38468
▁biraz	-7.39253
▁tek	-7.39865
▁Ne	-7.42094
▁insanların	-7.4246
lik	-7.42753
▁in	-7.43019
▁son	-7.43482
▁bütün	-7.43732
▁gün	-7.43753
▁hiç	-7.44363
ni	-7.45651
um	-7.46056
lara	-7.46153
▁oldu	-7.46335
ce	-7.46521
▁geri	-7.47786
iz	-7.48364
ken	-7.48983
▁Bunu	-7.49128
ma	-7.49655
lere	-7.50212
▁yüzden	-7.5119
▁neden	-7.51651
▁zamanda	-7.53368
▁diye	-7.5359
an	-7.53676
▁vardı	-7.53763
▁böyle	-7.54172
▁az	-7.54746
▁Çünk	-7.55182
▁Kahkaha	-7.56734
▁üzerinde	-7.57199
▁tarafından	-7.57722
▁bazı	-7.58139
▁onu	-7.58192
▁tam	-7.59265
▁karşı	-7.60347
▁göre	-7.61619
▁şimdi	-7.62198
▁yapmak	-7.62973
ndan	-7.6318
▁gerçek	-7.63192
▁yer	-7.63205
▁İşte	-7.63522
▁iş	-7.63703
▁üç	-7.63745
sa	-7.6377
▁istiyorum	-7.63779
y	-7.6485
▁olmak	-7.65199
▁2	-7.6538
▁Çok	-7.66479
siniz	-7.66919
tan	-7.67681
▁mı	-7.70416
▁ortaya	-7.70444
▁su	-7.70844
▁olacak	-7.7123
▁bize	-7.71698
▁oldukça	-7.72145
▁fakat	-7.72747
▁şeyi	-7.73036
▁an	-7.73263
▁Bunun	-7.7334
▁Peki	-7.73554
▁dünya	-7.73676
▁A	-7.73883
o	-7.74564
▁oluyor	-7.75644
▁yani	-7.75969
▁beni	-7.7602
▁Her	-7.76591
ti	-7.76645
▁birkaç	-7.76857
nız	-7.78048
▁güzel	-7.78278
▁Burada	-7.78278
daki	-7.78474
▁onları	-7.78538
▁Aslında	-7.78644
▁Dünya	-7.79177
▁Alkış	-7.79314
▁tekrar	-7.79574
▁hareket	-7.79662
dı	-7.79792
▁soru	-7.80029
▁anda	-7.80533
▁kişi	-7.80627
▁bunlar	-7.80829
▁etmek	-7.81175
▁uzun	-7.812
du	-7.81428
▁boyunca	-7.8148
▁devam	-7.81772
nda	-7.81775
▁Alkışlar	-7.82194
im	-7.82317
me	-7.82433
sine	-7.82696
▁nın	-7.83159
ydi	-7.83369
▁onun	-7.8342
▁bilgi	-7.83671
▁olabilir	-7.8413
▁zor	-7.84187
ten	-7.84353
miz	-7.84641
▁10	-7.8467
▁kötü	-7.84699
▁ın	-7.85627
▁fark	-7.86154
▁yüzde	-7.86851
nı	-7.87082
lerden	-7.87259
▁birçok	-7.87606
▁olması	-7.87656
lık	-7.87667
larına	-7.87671
lardan	-7.8833
niz	-7.9004
▁milyon	-7.90088
▁Anca	-7.90611
mız	-7.90737
lerine	-7.90831
sel	-7.91364
tir	-7.91685
▁Daha	-7.92414
▁Evet	-7.92781
▁Siz	-7.93635
▁karar	-7.94282
▁geliyor	-7.94558
▁belki	-7.95102
▁yol	-7.95588
▁açık	-7.9559
▁orada	-7.95611
arak	-7.96054
▁tamamen	-7.96271
▁arasında	-7.9653
▁birlikte	-7.96617
▁tür	-7.96969
tır	-7.97371
▁Biz	-7.97544
se	-7.98373
sanız	-7.98496
ydı	-7.99072
▁dedi	-7.99082
▁hayal	-7.99459
▁para	-7.9955
▁yüksek	-7.99979
▁yerine	-8.0026
larının	-8.00472
▁gereken	-8.00809
lerle	-8.0102
▁onlar	-8.02328
dur	-8.02636
sini	-8.02917
▁buna	-8.0332
tı	-8.03419
▁harika	-8.03427
▁dünyanın	-8.03484
▁işte	-8.03609
▁gelen	-8.0387
▁basit	-8.0389
ini	-8.04151
▁pek	-8.04838
▁şöyle	-8.04842
deki	-8.04916
▁bugün	-8.05018
▁artık	-8.05103
mi	-8.05113
▁üzerine	-8.05161
▁Bunlar	-8.05189
▁olur	-8.05313
▁Afrika	-8.05776
lerde	-8.06285
un	-8.06817
▁yardım	-8.06936
▁öyle	-8.07364
mış	-8.07835
▁hiçbir	-8.07959
ip	-8.09072
ş	-8.09156
larla	-8.09883
▁20	-8.10184
▁Böylece	-8.10602
▁Amerika	-8.10927
▁daki	-8.11464
lardı	-8.11584
▁eden	-8.1181
larda	-8.12098
▁ederim	-8.12422
ç	-8.12626
▁enerji	-8.13009
00	-8.13211
▁vardır	-8.14004
▁yakın	-8.14139
▁onların	-8.14385
▁çocuk	-8.14536
▁hızlı	-8.15137
▁geldi	-8.1582
lerinin	-8.1646
▁ancak	-8.17906
▁konusunda	-8.18062
erek	-8.18223
sına	-8.18261
1	-8.1834
adece	-8.18448
▁işe	-8.18701
▁çoğu	-8.18811
▁sosyal	-8.18918
lu	-8.19039
▁kaç	-8.19546
▁sonunda	-8.19707
▁yeniden	-8.19947
▁Sonra	-8.19976
▁ediyor	-8.2002
▁Tamam	-8.2022
▁yaklaşık	-8.20403
▁bizi	-8.20621
▁h	-8.21136
▁H	-8.21293
▁alan	-8.21543
▁tane	-8.21582
sını	-8.21657
▁nokta	-8.21772
▁teknoloji	-8.22032
▁yerde	-8.22734
▁hale	-8.22769
▁onlara	-8.22782
▁süre	-8.23356
▁zorunda	-8.23502
▁bilim	-8.23528
▁sizin	-8.23671
▁elde	-8.24177
▁sene	-8.2423
yu	-8.24788
▁E	-8.25394
▁ona	-8.25464
▁olmayan	-8.258
▁hem	-8.25802
▁herhangi	-8.26072
▁dört	-8.26151
▁ilginç	-8.26275
▁temel	-8.26367
dim	-8.26619
▁fikir	-8.26725
▁hemen	-8.26737
▁Benim	-8.26815
▁kadın	-8.27057
ım	-8.27087
▁ta	-8.27434
▁durum	-8.27723
▁eski	-8.27755
▁yaşam	-8.2797
▁özel	-8.28259
▁şeyleri	-8.28419
A	-8.29015
▁altında	-8.29238
▁konu	-8.29296
▁böylece	-8.29306
sin	-8.29543
▁hikaye	-8.29836
▁insanları	-8.29893
▁göz	-8.30385
▁Onlar	-8.30548
▁Teşekkürler	-8.31107
▁hala	-8.31262
▁durumda	-8.31278
▁istediğim	-8.31713
▁demek	-8.31831
▁milyar	-8.31889
▁sorun	-8.31925
▁T	-8.32078
larında	-8.32227
▁ay	-8.32316
▁inanılmaz	-8.32357
lerinden	-8.32675
sunuz	-8.32809
▁dolar	-8.33807
▁kat	-8.33916
▁bilgisayar	-8.34326
▁kontrol	-8.34392
▁çalışma	-8.34582
▁adam	-8.3487
▁güçlü	-8.3489
sınız	-8.35791
▁parça	-8.36263
▁dair	-8.36282
▁saat	-8.36322
▁örnek	-8.36603
▁nin	-8.37455
▁izin	-8.37617
▁etti	-8.37635
▁200	-8.38246
▁dünyada	-8.38348
▁yine	-8.38519
larından	-8.38569
▁beyin	-8.38733
ını	-8.38749
mı	-8.38785
▁veri	-8.39329
nde	-8.39472
▁te	-8.39545
▁genç	-8.39846
▁başladı	-8.3989
▁Ya	-8.39958
▁hatta	-8.40212
▁Bugün	-8.40513
lerinde	-8.40618
▁En	-8.40869
on	-8.41451
▁olma	-8.41499
▁birşey	-8.41593
▁Neden	-8.41905
▁parçası	-8.42275
▁bunları	-8.42813
▁eğitim	-8.43048
inde	-8.43207
▁inşa	-8.43251
f	-8.43252
▁B	-8.43536
▁gelir	-8.4364
▁şunu	-8.43864
▁kimse	-8.43928
ine	-8.44035
▁siz	-8.44374
▁mümkün	-8.44516
d	-8.45199
▁benzer	-8.45296
▁i	-8.45457
ik	-8.45629
▁beş	-8.45676
2	-8.45874
ci	-8.46015
▁sürü	-8.46282
▁hafta	-8.46321
▁bence	-8.46388
▁yalnız	-8.4662
▁ülke	-8.46721
miş	-8.46863
▁herkes	-8.46968
▁D	-8.47093
▁kabul	-8.47225
▁un	-8.47729
▁kolay	-8.47793
▁İlk	-8.48663
sal	-8.48731
▁insanlara	-8.4886
▁dedim	-8.49066
▁değildir	-8.49205
▁kez	-8.49241
▁G	-8.49582
▁hava	-8.49693
▁yolu	-8.49886
▁hepsi	-8.49945
▁yanlış	-8.50062
▁neredeyse	-8.5011
▁tahmin	-8.5041
▁çalışan	-8.50846
▁araba	-8.50857
▁yapma	-8.51006
ar	-8.51173
▁yapmaya	-8.51518
▁edin	-8.51562
▁sizi	-8.51626
nden	-8.52641
▁özellikle	-8.52748
▁kız	-8.52984
▁K	-8.53249
al	-8.53285
▁M	-8.53587
▁araya	-8.53689
▁birisi	-8.54392
▁yaptığı	-8.54405
▁mu	-8.55025
▁gösteriyor	-8.55034
▁kısa	-8.55123
▁gerek	-8.55164
▁yere	-8.55424
▁Hindistan	-8.55465
▁gerekiyor	-8.55495
▁gördüğünüz	-8.55523
▁proje	-8.55597
▁değildi	-8.55769
▁olduğuna	-8.563
ız	-8.5664
▁doğal	-8.5668
▁hayat	-8.56752
▁neler	-8.57187
▁güç	-8.57583
▁cevap	-8.57589
▁üzere	-8.57773
g	-8.58314
mak	-8.58599
▁yapan	-8.58757
▁gelecek	-8.58791
▁çıkar	-8.58969
dik	-8.59138
▁ses	-8.59656
▁verici	-8.60004
mek	-8.60112
▁çevre	-8.60327
▁düşünün	-8.60345
▁kullanarak	-8.60484
▁altı	-8.60538
▁geçen	-8.60799
▁bakın	-8.60998
▁yüz	-8.61068
▁dan	-8.61133
mizi	-8.6125
▁grup	-8.61266
▁dakika	-8.6157
▁şeyin	-8.6206
▁Aynı	-8.62133
▁başladım	-8.62165
▁aşağı	-8.62222
ıp	-8.62235
acak	-8.62443
▁savaş	-8.62475
▁TED	-8.62518
▁bundan	-8.6266
mızı	-8.63037
▁Tüm	-8.63113
▁aile	-8.63261
▁arasındaki	-8.6376
▁yoktu	-8.63977
▁çeşit	-8.64232
▁sonraki	-8.64349
▁olmadığını	-8.64536
▁Son	-8.64718
seniz	-8.64808
liği	-8.65039
▁bunların	-8.65082
▁ifade	-8.65193
lığı	-8.65589
ir	-8.65765
nızı	-8.65922
▁ihtiyacımız	-8.65935
▁araştırma	-8.66212
▁ana	-8.66346
▁sistemi	-8.66365
▁yapıyor	-8.66413
▁tedavi	-8.6642
▁bin	-8.66455
▁rağmen	-8.66739
▁derece	-8.67045
▁biliyoruz	-8.6725
▁İnsanlar	-8.67458
▁alıp	-8.67474
▁Çin	-8.67645
▁olsa	-8.67806
▁beraber	-8.67991
▁Belki	-8.68051
▁yılda	-8.68061
▁sağlık	-8.68338
▁iletişim	-8.68348
▁dolayı	-8.6862
▁değer	-8.68695
▁100	-8.69033
▁Ban	-8.69039
sinin	-8.69039
or	-8.69203
yız	-8.6957
cı	-8.69674
▁düşünüyorum	-8.69676
▁bağlı	-8.69789
unu	-8.69858
ri	-8.69863
▁görüyorsunuz	-8.70124
▁insanın	-8.70445
ça	-8.70452
▁ikinci	-8.71357
▁erkek	-8.71445
▁York	-8.7145
sak	-8.71455
▁ele	-8.71706
▁hasta	-8.71743
▁konuşma	-8.71745
▁görebilirsiniz	-8.71914
▁gece	-8.72001
▁olduğumuz	-8.72524
▁kim	-8.72742
▁teşekkür	-8.72781
sın	-8.73183
▁yardımcı	-8.7328
sun	-8.73294
▁tasarım	-8.7359
▁etmeye	-8.7367
B	-8.73778
▁yaptığımız	-8.74024
▁ettim	-8.74055
▁muhtemelen	-8.74213
▁görmek	-8.74268
▁karmaşık	-8.74268
siz	-8.74326
▁Ayrıca	-8.74357
▁yaptık	-8.74498
▁olsun	-8.74514
▁sebep	-8.74535
▁nedir	-8.7468
▁bazen	-8.75146
▁içine	-8.75205
nizi	-8.75327
ına	-8.75345
▁olup	-8.75459
▁anlama	-8.7546
▁yapı	-8.7567
▁düşündüm	-8.75875
▁yaşayan	-8.76078
dım	-8.7631
▁dışında	-8.76941
el	-8.76997
▁bak	-8.77042
▁işi	-8.77121
▁genel	-8.77213
▁adı	-8.77245
▁etme	-8.77246
▁küresel	-8.77282
▁başına	-8.77552
▁yılında	-8.7768
▁kelime	-8.77823
▁dünyayı	-8.78071
il	-8.7852
▁asla	-8.78668
▁çocuklar	-8.78857
▁hep	-8.78997
us	-8.79142
▁sanat	-8.79193
h	-8.79228
sinde	-8.79305
▁derin	-8.79374
▁kendini	-8.79429
▁ortak	-8.79529
nun	-8.79669
▁bakış	-8.79998
sek	-8.80313
▁yapılan	-8.80334
os	-8.80623
▁olmadığı	-8.80865
▁vermek	-8.80931
▁hücre	-8.80931
▁ekonomik	-8.81028
▁sürekli	-8.81095
▁Büyük	-8.81432
▁beri	-8.81436
▁konuda	-8.81522
▁söz	-8.817
maya	-8.81831
▁Benc	-8.8193
▁sistem	-8.82138
▁video	-8.82424
re	-8.82472
▁kesinlikle	-8.82613
inin	-8.82791
▁görüyoruz	-8.82797
▁binlerce	-8.82903
▁almak	-8.83033
▁güneş	-8.83546
▁gerektiğini	-8.83808
larımız	-8.8381
▁Avrupa	-8.84062
▁çıktı	-8.8411
▁dolu	-8.84138
▁ev	-8.84317
▁Bütün	-8.84469
▁ışık	-8.84497
▁fikri	-8.84612
▁arada	-8.84615
▁geniş	-8.8526
▁Yeni	-8.85344
▁sebebi	-8.85558
▁dikkat	-8.85764
▁içerisinde	-8.85767
ecek	-8.85888
▁deniz	-8.86028
▁bulunan	-8.8605
▁takip	-8.86064
▁at	-8.86145
sız	-8.86764
▁başarılı	-8.868
luk	-8.87044
▁Bizim	-8.8728
su	-8.87294
▁Buna	-8.87426
▁Gerçekten	-8.87575
▁biliyor	-8.87774
▁yaşında	-8.87831
▁nedenle	-8.87846
▁haline	-8.88012
▁dünyadaki	-8.8823
▁sık	-8.88279
▁den	-8.8841
▁uygun	-8.88528
▁Teşekkür	-8.88669
▁hayatta	-8.88748
▁yaptım	-8.88904
▁Ha	-8.89295
▁evet	-8.89468
▁gidip	-8.8958
▁ait	-8.89736
▁mükemmel	-8.89756
▁Hayır	-8.89841
▁ileri	-8.89874
▁oyun	-8.902
▁olurdu	-8.9066
▁problem	-8.90884
▁düşünce	-8.90972
ydu	-8.91042
▁varsa	-8.91061
▁ediyorum	-8.9115
▁hepimiz	-8.91303
▁iç	-8.91355
▁mutlu	-8.91616
▁başarı	-8.91673
▁ölüm	-8.91678
▁İki	-8.91695
▁tabii	-8.91801
▁canlı	-8.91916
lerimiz	-8.91917
▁adım	-8.91953
▁acı	-8.92122
▁sonuç	-8.92236
▁ihtiyaç	-8.9224
▁merak	-8.92321
▁sayesinde	-8.92329
▁yavaş	-8.92355
lama	-8.92527
▁el	-8.92614
▁Diğer	-8.92691
▁on	-8.92698
▁DNA	-8.927
iyor	-8.9318
▁toplum	-8.93275
▁yemek	-8.93368
▁hangi	-8.93647
man	-8.93791
▁kadınlar	-8.93837
▁ı	-8.93993
▁bina	-8.9414
▁elektrik	-8.94197
tik	-8.94209
▁haber	-8.94276
▁başladık	-8.94354
▁yaptı	-8.94394
is	-8.94521
▁doğa	-8.94522
▁gerekir	-8.94748
▁zamanlar	-8.94753
▁ye	-8.94781
▁ayrıca	-8.94781
yım	-8.94943
▁veren	-8.95375
▁kısmı	-8.95454
▁değişim	-8.95544
▁hazır	-8.95664
dum	-8.9577
▁yıldır	-8.95981
▁madde	-8.96236
çe	-8.96254
▁anne	-8.96306
▁olmadan	-8.96391
▁musunuz	-8.96487
▁resim	-8.96515
lan	-8.96517
▁müzik	-8.9666
▁düşük	-8.96699
▁sağ	-8.96789
▁eder	-8.9686
▁ABD	-8.96883
alım	-8.96891
▁baş	-8.96985
▁fotoğraf	-8.97057
▁muhteşem	-8.97272
▁al	-8.97276
▁ciddi	-8.97312
▁defa	-8.97538
▁şeye	-8.97761
▁biliyorum	-8.97927
c	-8.97992
▁nerede	-8.97996
ır	-8.98079
▁olmalı	-8.98306
▁şehir	-8.98338
▁gerekli	-8.98462
▁Kendi	-8.98701
▁söyledi	-8.98741
yim	-8.98896
S	-8.99
▁film	-8.99231
▁normal	-8.99248
inden	-8.99283
▁anlamak	-8.99283
▁ön	-8.99523
▁üst	-8.99647
▁internet	-8.99682
▁deki	-9.00132
▁asıl	-9.00154
▁kişisel	-9.00162
▁gücü	-9.00182
▁çıkan	-9.00266
leriyle	-9.00671
▁ilgi	-9.00754
eb	-9.00894
▁aldı	-9.00916
▁deney	-9.01171
lü	-9.01333
▁geç	-9.01391
▁ister	-9.01681
▁bağlantı	-9.01721
▁sen	-9.01803
▁olacağını	-9.02057
▁olay	-9.02142
▁göstermek	-9.02152
▁okul	-9.02153
▁test	-9.02254
▁kendimi	-9.02326
▁dahil	-9.02428
▁anlamın	-9.02436
st	-9.02586
D	-9.02625
▁P	-9.02684
ay	-9.02778
▁ilişki	-9.0313
T	-9.03139
▁model	-9.03181
▁bilirsiniz	-9.03429
▁beyaz	-9.03456
▁verdi	-9.03593
▁emin	-9.03736
▁sesi	-9.03759
▁ettik	-9.04008
▁yaptığım	-9.04061
muş	-9.04073
▁12	-9.04136
▁yanında	-9.04167
▁birinin	-9.0442
ba	-9.04542
sinden	-9.04693
▁yaz	-9.04872
▁makine	-9.05001
▁Ma	-9.05002
es	-9.05108
▁yukarı	-9.05129
dığını	-9.05218
▁Müzik	-9.05398
▁çözüm	-9.05421
▁uzak	-9.05558
▁fiziksel	-9.05835
▁oluşan	-9.05836
▁etki	-9.0585
▁metre	-9.05924
▁alanı	-9.05976
▁mevcut	-9.06024
▁veriyor	-9.06407
be	-9.06514
▁öğrenme	-9.06667
▁herkesin	-9.06707
▁sinir	-9.06893
min	-9.07027
▁kitap	-9.07077
▁El	-9.07399
▁yan	-9.07454
▁hayvan	-9.07514
rneğin	-9.07536
▁buraya	-9.07665
▁sıra	-9.07673
▁kendisi	-9.077
▁zaten	-9.07755
▁Artık	-9.07756
▁nedeni	-9.07795
▁bulmak	-9.07876
▁yedi	-9.07942
▁görünüyor	-9.08217
▁Amerikan	-9.08477
ey	-9.08573
▁görme	-9.08741
▁kan	-9.08929
▁birini	-9.08999
▁olursa	-9.09078
b	-9.09172
ında	-9.09226
▁mavi	-9.09284
▁ek	-9.0944
▁ara	-9.09717
▁dil	-9.09866
imiz	-9.09875
▁söylemek	-9.09904
▁henüz	-9.09948
sının	-9.09959
▁belli	-9.09975
▁olmaya	-9.09984
dığı	-9.10181
▁ortalama	-9.10222
▁oda	-9.10334
▁düşünme	-9.10396
▁kalan	-9.10444
▁çocukların	-9.10535
▁aldım	-9.10599
▁olduğum	-9.10613
▁Herkes	-9.10835
▁Başka	-9.10875
▁yanı	-9.11146
▁yeterli	-9.11216
▁Onun	-9.11266
▁Birleşi	-9.11408
▁gelip	-9.11524
▁bakalım	-9.11524
▁şeylerden	-9.11612
ol	-9.11881
▁ufak	-9.11977
▁nun	-9.11997
nce	-9.12064
▁sahibi	-9.12374
▁telefon	-9.1246
▁çalışıyor	-9.12486
lo	-9.1273
▁bakar	-9.12928
▁Güney	-9.13097
ün	-9.13296
▁yıllık	-9.13455
▁gördüm	-9.1348
▁verdim	-9.13524
▁resmi	-9.13713
▁Bazı	-9.13716
▁katı	-9.13884
lerdi	-9.13953
▁yatırım	-9.14267
ra	-9.14466
▁sayı	-9.14471
▁kapı	-9.14512
leme	-9.14538
▁hastalık	-9.14594
▁kalp	-9.14771
▁alma	-9.14949
▁heyecan	-9.14949
▁derecede	-9.15036
ktan	-9.15071
▁alt	-9.15191
▁biçimde	-9.15224
▁tarafta	-9.15326
▁orta	-9.15486
ed	-9.15521
▁tamam	-9.15555
▁tepki	-9.15572
▁araç	-9.15642
▁ağ	-9.15779
▁Google	-9.15875
▁sanırım	-9.15887
▁idi	-9.16021
yken	-9.16036
▁devlet	-9.16074
▁Mars	-9.16206
▁çizgi	-9.16207
▁işin	-9.16273
▁tabi	-9.16299
▁şirket	-9.16336
▁yerlerde	-9.16494
gi	-9.16497
▁sayıda	-9.16511
▁dünyaya	-9.16562
▁kaynak	-9.16765
▁güven	-9.1694
▁buradaki	-9.17197
▁zengin	-9.17246
▁gittim	-9.17303
▁halde	-9.17303
abilir	-9.17325
imi	-9.17467
▁oldukları	-9.17565
▁mücadele	-9.17677
▁Kuzey	-9.17772
▁yerel	-9.17863
▁medya	-9.17915
▁yeşil	-9.18013
as	-9.18117
▁edecek	-9.18126
▁dijital	-9.18253
▁Nasıl	-9.18266
▁uzay	-9.18274
V	-9.18282
ması	-9.18328
▁lazım	-9.18378
▁gidiyor	-9.18392
▁aşırı	-9.18435
▁San	-9.18545
▁tanesi	-9.18647
▁bazıları	-9.18659
▁ediyoruz	-9.18696
▁destek	-9.18724
▁Bunları	-9.18819
anırım	-9.18848
▁yapıyoruz	-9.18874
▁şeylerin	-9.18894
▁olduklarını	-9.18896
▁11	-9.18965
▁azından	-9.19009
O	-9.19229
yor	-9.19266
▁şekli	-9.1941
▁şarkı	-9.19455
ıpkı	-9.19518
▁Tanrı	-9.19709
liğe	-9.19828
▁diyor	-9.19879
▁etkili	-9.19956
meye	-9.20007
.000	-9.20203
ıyor	-9.20313
ge	-9.20378
▁Al	-9.20417
▁kafa	-9.20454
▁ilaç	-9.20495
▁zamanlarda	-9.20797
▁sağlıyor	-9.20805
▁korku	-9.20886
▁istedim	-9.20899
▁kişinin	-9.20928
▁kanser	-9.2095
▁saniye	-9.21128
▁yaratmak	-9.21362
▁Hatta	-9.21432
▁milyonlarca	-9.21433
▁hayır	-9.21437
▁günde	-9.2159
▁olacaktır	-9.21627
ö	-9.21721
▁gösteren	-9.21767
ur	-9.21781
ha	-9.22002
▁arka	-9.22081
▁şaşırtıcı	-9.22181
▁üstünde	-9.22407
▁hik	-9.22505
▁görüntü	-9.22671
▁biliyorsunuz	-9.22769
▁yaşlı	-9.22843
▁büyüme	-9.22865
lerimizi	-9.2288
▁kendine	-9.22964
larımızı	-9.23065
mda	-9.23098
▁konusu	-9.23286
▁merkezi	-9.2337
▁takım	-9.23395
▁sağlayan	-9.23572
▁Böyle	-9.23623
▁işler	-9.23699
▁çift	-9.237
abiliriz	-9.23739
▁ekonomi	-9.23777
▁noktada	-9.23835
▁çalışmak	-9.23924
▁sahne	-9.24097
▁Birkaç	-9.24211
▁adında	-9.24298
▁göster	-9.24387
▁Mesel	-9.24397
▁yerinde	-9.24415
larıyla	-9.24481
▁açısından	-9.24489
▁yüzünden	-9.2455
mizin	-9.24624
sında	-9.24967
▁hoş	-9.25106
▁yapar	-9.25208
▁altın	-9.2549
▁bununla	-9.25504
yan	-9.2551
ro	-9.25828
▁görsel	-9.26304
▁teşekkürler	-9.26325
▁durumu	-9.26344
▁iklim	-9.2641
▁seçim	-9.26427
▁anlamı	-9.26497
▁ilham	-9.26529
vi	-9.26551
▁kırmızı	-9.26797
▁örneğin	-9.26936
▁mesela	-9.27053
▁insanlarla	-9.27127
▁başında	-9.27142
▁meydana	-9.27629
sam	-9.27672
▁ayrı	-9.27787
▁sayısı	-9.28003
▁zamanı	-9.28021
▁yıllar	-9.2835
▁çeşitli	-9.28356
▁sanki	-9.28382
▁kap	-9.28637
▁ihtiyacı	-9.2878
▁üniversite	-9.28912
▁der	-9.28926
▁sonucu	-9.29027
▁tercih	-9.29178
san	-9.29537
▁ortada	-9.29558
▁değilim	-9.29955
▁çıkıyor	-9.30015
▁istiyoruz	-9.30041
▁alıyor	-9.30046
▁anlamda	-9.30322
▁kamera	-9.30367
▁göstereceğim	-9.30514
▁alır	-9.30607
▁yoksa	-9.30628
ab	-9.30682
▁bölge	-9.30747
▁olmuş	-9.30759
▁gizli	-9.30981
▁Onu	-9.31036
▁oray	-9.31067
bi	-9.31085
▁inanıyorum	-9.31092
ton	-9.31106
▁İyi	-9.3116
ebilir	-9.3126
▁yaratıcı	-9.31262
▁içindeki	-9.31274
mesi	-9.31361
▁tip	-9.31673
▁kullanma	-9.31787
mın	-9.32082
▁Hiç	-9.32171
dür	-9.32205
bo	-9.32515
▁et	-9.32795
▁satın	-9.33038
▁mü	-9.33087
▁Orada	-9.3317
diği	-9.33175
▁icin	-9.33184
elim	-9.33243
▁koruma	-9.33278
▁yapabiliriz	-9.33375
▁gerçekte	-9.33389
▁garip	-9.33569
dık	-9.33603
▁konuşmak	-9.33619
▁ucuz	-9.33634
▁bilimsel	-9.33679
▁İkinci	-9.33698
▁üzerinden	-9.33786
▁bakarsa	-9.33824
▁robot	-9.33891
▁petrol	-9.33951
▁temsil	-9.3396
▁önceki	-9.34142
▁olsaydı	-9.34419
▁koy	-9.34541
▁etkisi	-9.34545
P	-9.34671
▁kendimizi	-9.34876
▁yüzlerce	-9.34981
▁olmasını	-9.35022
▁uygulama	-9.35101
▁ürün	-9.35158
▁Dolayısıyla	-9.35268
tur	-9.35299
▁yaptıkları	-9.35317
ing	-9.35348
▁önünde	-9.35384
▁Tabii	-9.35456
▁günlük	-9.35599
▁ders	-9.35604
▁hedef	-9.35719
▁gider	-9.35769
▁sağlıklı	-9.3579
▁korkunç	-9.35838
çi	-9.35861
▁gelecekte	-9.35951
▁Su	-9.35979
▁demokrasi	-9.36055
▁cep	-9.36153
abilirsiniz	-9.36282
▁plan	-9.36285
▁işaret	-9.36352
▁olduğunda	-9.36742
▁kullanmak	-9.3683
▁ince	-9.36845
▁zarar	-9.36848
▁dizi	-9.36869
▁suç	-9.36906
▁seviyorum	-9.3702
▁eve	-9.37028
▁gerektiği	-9.37069
▁kalma	-9.37128
▁olanlar	-9.37247
▁anlat	-9.37266
▁bilmiyorum	-9.37317
▁yap	-9.37379
diğini	-9.37396
▁Biraz	-9.37441
▁yapılmış	-9.37512
▁elbette	-9.37574
▁türlü	-9.37628
▁gördüğümüz	-9.37637
▁söylüyor	-9.37697
▁dışarı	-9.37899
ku	-9.37951
▁getirmek	-9.38061
lanmış	-9.38096
▁risk	-9.3816
▁bas	-9.38179
layan	-9.38306
▁esas	-9.38346
ici	-9.38401
K	-9.38412
▁başlıyor	-9.38659
▁Video	-9.38749
▁ülkeler	-9.38777
▁açıdan	-9.38804
▁akıl	-9.38817
sem	-9.38872
▁olduğundan	-9.3892
▁fikirler	-9.38999
▁kaynağı	-9.39002
▁giden	-9.39006
▁güvenli	-9.39038
dü	-9.39063
to	-9.39187
▁üzerindeki	-9.39209
ının	-9.39284
▁yoktur	-9.39288
▁etrafında	-9.3941
▁sabah	-9.39463
▁sorunu	-9.39531
▁miyiz	-9.39707
▁edilen	-9.39723
▁kara	-9.3989
▁kişiler	-9.39925
▁sayfa	-9.39955
▁sınıf	-9.39992
▁verme	-9.40002
▁mesaj	-9.40024
mızın	-9.40024
▁kendilerini	-9.40099
▁Gerçek	-9.40113
▁deneyim	-9.40155
H	-9.40359
▁dışı	-9.40378
▁eş	-9.40467
▁buldum	-9.40517
▁umut	-9.4054
▁İnsan	-9.40571
v	-9.4068
▁yazı	-9.40797
▁edilmiş	-9.40799
▁dış	-9.40912
▁pazar	-9.41036
▁gitmek	-9.41086
▁hücreleri	-9.41118
▁geleneksel	-9.41154
▁gördük	-9.41196
▁De	-9.4125
▁baskı	-9.41276
▁erkekler	-9.41334
nu	-9.41473
▁bunlardan	-9.4171
▁kullan	-9.4172
acağız	-9.41876
▁önemlisi	-9.41922
ysa	-9.41925
çı	-9.42068
▁üçüncü	-9.42119
▁bilgiyi	-9.42283
▁hata	-9.42317
▁icat	-9.42364
▁genellik	-9.42419
▁hayatın	-9.42517
ımız	-9.42712
yse	-9.42889
▁Onları	-9.42893
▁düşünmeye	-9.42907
▁oldum	-9.42932
son	-9.4294
▁fakir	-9.42964
▁ziyaret	-9.42973
▁genetik	-9.42977
▁bitki	-9.4312
▁geldiğini	-9.43183
iş	-9.43268
▁kere	-9.43293
▁değiştirmek	-9.433
▁değişik	-9.43424
▁insanı	-9.4358
▁sırasında	-9.43662
ste	-9.43723
▁yapıyorlar	-9.43884
▁yapmayı	-9.44101
▁arkadaşım	-9.44108
▁bizler	-9.44117
va	-9.44128
lığın	-9.44246
▁Batı	-9.44262
▁program	-9.44407
▁anlamaya	-9.44443
▁fazlası	-9.44596
▁evrim	-9.4463
▁ettiği	-9.44719
ndeki	-9.44814
▁Birçok	-9.44839
▁temiz	-9.44841
▁beynin	-9.44873
▁yaş	-9.4493
▁yiyecek	-9.45117
▁yoğun	-9.45164
▁Beni	-9.45298
sıyla	-9.45449
▁teşvik	-9.45469
▁aracı	-9.45613
▁Pekala	-9.45787
landı	-9.45806
▁numara	-9.45834
▁yaparken	-9.45856
▁Burası	-9.45895
▁öğrenci	-9.45969
▁Orta	-9.46014
▁sonsuz	-9.4602
▁belirli	-9.46089
▁olağanüstü	-9.46104
adlı	-9.46128
▁senin	-9.46177
▁yı	-9.46207
0.000	-9.4621
▁mil	-9.46216
N	-9.46287
▁İnsanların	-9.46479
▁gelişme	-9.46489
▁çalışıyoruz	-9.4653
▁halinde	-9.4659
liğin	-9.46628
▁uç	-9.46679
▁Tam	-9.46728
ğı	-9.46747
▁deneme	-9.46806
larımızın	-9.46817
▁balık	-9.46906
▁yapacak	-9.46931
▁herşey	-9.47031
▁politik	-9.47048
▁bulduk	-9.47275
▁alakalı	-9.47324
▁kesin	-9.47369
▁sıcak	-9.47374
▁Geçen	-9.47395
▁amacı	-9.47405
▁ikna	-9.47405
▁yaparak	-9.47425
▁ayak	-9.47431
▁fırsat	-9.47526
▁modern	-9.47631
▁gıda	-9.47708
▁N	-9.47714
▁Sen	-9.47738
ru	-9.47782
cu	-9.47829
▁sahibiz	-9.47868
ga	-9.47873
▁nerey	-9.47881
▁hayatı	-9.47988
▁hastalığı	-9.48154
▁tecrübe	-9.48354
▁Ç	-9.48359
tim	-9.4836
▁dahi	-9.48393
▁sağlamak	-9.48394
▁budur	-9.48485
M	-9.48486
▁sorular	-9.48489
▁yarısı	-9.48505
mayı	-9.48524
mıştı	-9.48542
ılmış	-9.48613
rak	-9.48663
ğ	-9.48711
▁kadınların	-9.4879
▁harita	-9.48853
gu	-9.48914
▁verir	-9.48951
▁İş	-9.48977
▁yapabilir	-9.49063
▁erken	-9.49081
▁u	-9.49112
▁geriye	-9.49176
▁masa	-9.49231
mıza	-9.49324
▁anlam	-9.49343
▁başlar	-9.49541
▁sekiz	-9.49669
▁çekici	-9.49669
▁şirketler	-9.4977
▁Tek	-9.49801
▁hesap	-9.50017
▁çalışıyorum	-9.50412
▁siyah	-9.50468
▁oranı	-9.50521
▁şekil	-9.5053
▁sırada	-9.50539
▁aşı	-9.50594
ran	-9.50608
▁verin	-9.50629
cık	-9.50655
▁verdik	-9.50656
▁sonuçlar	-9.50664
▁ediyorlar	-9.50756
▁aldık	-9.50776
▁akıllı	-9.50782
▁başta	-9.50885
▁gezegen	-9.50985
▁yağmur	-9.50991
▁şiddet	-9.51019
▁din	-9.51081
▁nde	-9.51123
▁inan	-9.51221
▁karbon	-9.51308
▁ortasında	-9.51316
▁Demek	-9.51344
▁demektir	-9.51459
▁rol	-9.51543
▁olmasına	-9.51595
▁çocukları	-9.51604
▁sonrasında	-9.51648
▁kendime	-9.51692
eyim	-9.5173
zi	-9.51826
▁kök	-9.52158
▁yarı	-9.52198
birine	-9.52454
▁Hepimiz	-9.52499
▁yaşıyor	-9.52617
▁davet	-9.52682
▁ikisi	-9.52945
▁kal	-9.52961
▁nefes	-9.53016
▁hakkındaki	-9.5314
▁karanlık	-9.53206
▁hizmet	-9.53403
▁istediğimiz	-9.5343
▁s	-9.53465
ul	-9.5358
▁kurma	-9.53676
▁boş	-9.53801
▁ilerleme	-9.53928
▁görev	-9.53993
▁çalışmaya	-9.53998
iniz	-9.5407
▁nesil	-9.54099
▁mal	-9.54254
yleyse	-9.54266
▁süreç	-9.54394
lerdir	-9.54509
▁boyutlu	-9.54572
ör	-9.54608
▁hayvanlar	-9.54642
▁süreci	-9.54673
▁adına	-9.54694
▁aç	-9.54708
▁adını	-9.54946
yiz	-9.54977
duk	-9.54994
▁değiştir	-9.55008
zun	-9.5503
▁tehdit	-9.55079
▁kar	-9.55145
unun	-9.55603
▁geldiği	-9.55617
ah	-9.55672
lığ	-9.55721
▁sıfır	-9.55777
kten	-9.55786
▁olduğumu	-9.55831
▁miktarda	-9.55905
▁ışığı	-9.55952
mde	-9.55961
▁ağır	-9.56033
ğa	-9.56041
▁gaye	-9.56043
▁zeki	-9.56146
▁vücut	-9.56161
▁kutu	-9.56221
▁yapmamız	-9.56228
▁İnternet	-9.56472
▁Doğu	-9.56499
G	-9.56551
▁hayatını	-9.56625
▁noktası	-9.56649
▁seyahat	-9.56835
▁süper	-9.56909
▁çapında	-9.56911
lük	-9.56958
▁onunla	-9.57038
▁ülkede	-9.57091
▁makale	-9.57229
za	-9.57335
ıyla	-9.57399
▁güvenlik	-9.57425
▁Buradaki	-9.57571
▁yeterin	-9.57617
▁yaşındaki	-9.57844
▁anlatmak	-9.57981
dığımız	-9.58115
▁pahalı	-9.58296
ayım	-9.58382
▁olmayacak	-9.58432
▁konuş	-9.58488
▁mesele	-9.58503
▁bebek	-9.58615
▁Bazen	-9.5862
▁akşam	-9.5862
▁tartışma	-9.58809
▁yöntem	-9.58897
▁getiriyor	-9.58906
▁ederek	-9.58999
▁İ	-9.59051
▁sana	-9.59066
▁hücreler	-9.5913
▁teori	-9.59131
▁yaygın	-9.59243
malıyız	-9.59296
▁bulma	-9.59498
▁Sonuç	-9.59657
▁edici	-9.59707
lardır	-9.59902
▁muazzam	-9.60073
▁okula	-9.60174
ley	-9.60207
▁yeri	-9.60213
ndaki	-9.60365
▁bağ	-9.6037
▁almaya	-9.60555
▁öğrendim	-9.60574
▁ardından	-9.60647
▁gerekiyordu	-9.60764
▁oy	-9.60817
▁isteyen	-9.60847
▁tarz	-9.60853
▁sanal	-9.60891
▁anı	-9.60895
ıcı	-9.60907
▁Va	-9.60979
▁duygu	-9.60981
▁Bilim	-9.61005
▁kenar	-9.61012
▁okuma	-9.61138
▁alın	-9.6116
▁buz	-9.61188
▁Yine	-9.61193
▁teknik	-9.6122
▁gitti	-9.61296
▁yana	-9.61437
▁telefonu	-9.6144
▁sol	-9.61469
▁dans	-9.61476
▁işbirliği	-9.61545
▁yapmış	-9.61566
▁Sizin	-9.61645
▁getirdi	-9.6168
▁Çocuk	-9.61789
▁yasa	-9.61944
▁rahat	-9.62221
▁olmayı	-9.623
▁annem	-9.62453
▁edebilir	-9.62465
▁alanda	-9.6252
▁olmaları	-9.62543
▁biyolojik	-9.62636
▁ateş	-9.62913
▁ısı	-9.62969
▁babam	-9.62998
ebiliriz	-9.63167
▁sağladı	-9.63169
ap	-9.63263
▁istiyor	-9.6327
▁cok	-9.63277
▁Çoğu	-9.63279
▁görüş	-9.63298
mize	-9.63312
▁Yap	-9.63374
▁hızla	-9.63385
▁Güneş	-9.63418
▁olduğumuzu	-9.63497
▁çalıştığım	-9.63501
▁edildi	-9.63518
▁Ona	-9.6355
▁benziyor	-9.63581
▁yabancı	-9.63614
▁birine	-9.63629
öyle	-9.63671
▁köpek	-9.63672
abilecek	-9.63679
▁silah	-9.63736
ama	-9.63762
▁müthiş	-9.63796
▁Dr	-9.6381
▁Ev	-9.63812
▁çalış	-9.63819
rken	-9.63875
▁benzeri	-9.63953
▁birşeyler	-9.63962
lanan	-9.64113
▁İngiltere	-9.64177
▁tehlikeli	-9.64203
hris	-9.64284
una	-9.64374
▁ettiler	-9.64398
▁piyasa	-9.64442
▁neyse	-9.6448
▁halk	-9.64546
▁görürsünüz	-9.64559
yo	-9.64669
▁can	-9.64714
▁olmaz	-9.64732
▁öğrenmek	-9.64764
▁burası	-9.64796
ok	-9.64798
▁tarih	-9.64893
ch	-9.64987
▁düşünmek	-9.65001
▁hepimizin	-9.65073
▁söylediği	-9.65325
▁görmeye	-9.65339
iyorum	-9.65416
▁tarihi	-9.6547
▁verilen	-9.65476
▁toprak	-9.65501
ize	-9.6562
raya	-9.65622
▁eğlenceli	-9.65634
▁çaba	-9.65647
▁üretim	-9.6567
▁sefer	-9.65685
▁zayıf	-9.65712
▁Devletler	-9.65718
▁kazan	-9.65758
▁Hem	-9.65823
▁onlarla	-9.65842
ünü	-9.65906
yen	-9.65979
▁buçuk	-9.66102
▁Me	-9.66104
▁Ba	-9.66223
▁dağ	-9.66231
ği	-9.66256
▁kare	-9.66279
▁burda	-9.66378
▁sordu	-9.66381
▁içeri	-9.66384
▁kod	-9.66413
▁Do	-9.66426
▁yaklaşım	-9.66453
▁Küçük	-9.66501
▁algı	-9.66631
▁kilo	-9.66733
▁sonuçları	-9.66796
diniz	-9.66862
leşmiş	-9.66965
ebilirsiniz	-9.66967
ek	-9.6697
▁gücünü	-9.66994
▁getir	-9.67053
▁kültür	-9.6706
siyle	-9.67169
▁tuhaf	-9.67271
▁arama	-9.67275
▁yazılım	-9.67278
▁nefret	-9.67283
▁göreceksiniz	-9.67286
▁benimle	-9.67322
bu	-9.6758
▁endişe	-9.67589
▁teknolojinin	-9.67648
▁problemi	-9.67687
▁araçlar	-9.67699
▁okyanus	-9.67788
▁yada	-9.67802
▁sevgi	-9.67859
likle	-9.67873
▁top	-9.67959
▁sonu	-9.6804
▁sağlayacak	-9.6805
▁ünlü	-9.68072
▁arazi	-9.68076
▁olmamız	-9.68122
▁görünen	-9.68137
eri	-9.68159
▁dediler	-9.68355
yorum	-9.68418
▁saygı	-9.68439
▁sordum	-9.68455
▁modeli	-9.68458
meyi	-9.68504
▁tut	-9.68573
▁bildiğimiz	-9.68646
▁sey	-9.68723
▁gel	-9.6875
ko	-9.68847
▁günü	-9.68861
▁kullanılan	-9.68907
▁İngilizce	-9.68907
▁parti	-9.68913
iyoruz	-9.68991
▁çalıştım	-9.69047
▁The	-9.69134
▁tepe	-9.69142
▁olduğunuz	-9.69293
▁arası	-9.69434
yum	-9.69485
▁buydu	-9.69874
▁başa	-9.69888
▁renk	-9.69888
▁yaşama	-9.69914
▁Elbette	-9.7006
▁Tabi	-9.70091
▁yara	-9.70422
layıp	-9.70436
▁Adam	-9.70453
▁sıradan	-9.70457
cak	-9.70457
▁duygusal	-9.70488
▁malzeme	-9.70571
▁bulunuyor	-9.70628
▁buldu	-9.70795
▁suyu	-9.70884
ve	-9.70912
▁alanlar	-9.71014
▁dönü	-9.71023
▁çocuğun	-9.71196
▁programı	-9.71257
nün	-9.71265
▁eşit	-9.71454
▁öğren	-9.71532
▁sizinle	-9.71611
▁Harika	-9.71694
▁yıldız	-9.71699
▁yapabilirsiniz	-9.71769
up	-9.71811
▁ettiğimiz	-9.71842
pe	-9.71895
▁alet	-9.71906
▁doktor	-9.72011
▁rüzgar	-9.72048
▁tarım	-9.72087
▁plastik	-9.72101
▁geçerli	-9.72128
sından	-9.72158
▁mimari	-9.72175
▁Yüz	-9.72245
▁Mo	-9.7226
▁farkında	-9.7235
▁gen	-9.72365
▁yüzyıl	-9.72476
▁hafif	-9.72515
▁V	-9.72566
▁Se	-9.72577
▁Asya	-9.72588
▁ölü	-9.72611
▁gelişmiş	-9.72648
▁üstüne	-9.72827
▁kilometre	-9.7293
▁cihaz	-9.72942
▁balığı	-9.72949
▁örneği	-9.73075
▁olduk	-9.73217
▁spor	-9.7327
▁kullanıyor	-9.73288
▁sürdürülebilir	-9.73346
▁soğuk	-9.7338
▁zorundayız	-9.73422
mızda	-9.7343
▁şehrin	-9.73507
▁rahatsız	-9.73554
▁kağıt	-9.73614
▁liste	-9.737
▁virüs	-9.73736
go	-9.73754
▁bulunduğu	-9.73857
▁fare	-9.73905
▁değerli	-9.73939
▁gir	-9.73947
diğimiz	-9.73956
teki	-9.74029
▁edip	-9.74188
▁giderek	-9.74209
▁zeka	-9.74324
▁duruyor	-9.74354
▁yapıyorum	-9.74377
▁Hadi	-9.74386
▁Kim	-9.74425
▁oyunu	-9.74433
▁olanı	-9.74476
lıyız	-9.74533
▁yaratma	-9.74559
▁bisiklet	-9.74619
ilmiş	-9.74659
▁ağaç	-9.74804
▁evrenin	-9.74815
▁sesleri	-9.74853
diğim	-9.74866
dikleri	-9.74866
acağını	-9.74897
taki	-9.74949
▁kamu	-9.7503
leşme	-9.75049
▁önemlidir	-9.75074
▁yaptığını	-9.75093
▁miktar	-9.75154
▁duyu	-9.75167
hi	-9.7519
▁gerçeği	-9.75262
▁kas	-9.75263
▁sevdiğim	-9.75381
▁çocuğu	-9.75464
▁şeyden	-9.75565
▁kaya	-9.75607
▁adamı	-9.75637
▁cevabı	-9.75643
▁devre	-9.75651
ıldı	-9.75817
▁kısmını	-9.75826
▁fotoğrafı	-9.75861
met	-9.75861
▁hükümet	-9.76101
▁Doğru	-9.76116
acağım	-9.7617
▁geldiğinde	-9.76534
▁bakmak	-9.76577
▁imkansız	-9.76689
▁km	-9.76711
▁sabit	-9.76744
▁Afganistan	-9.76744
▁yapıldı	-9.76754
▁etkileşim	-9.76768
▁Pek	-9.76809
▁verdiği	-9.76835
▁kaldır	-9.76854
▁baba	-9.76869
▁düşünüyor	-9.76946
▁ülkelerde	-9.76991
▁değiliz	-9.77011
▁olmadı	-9.77024
muz	-9.77025
▁türü	-9.77067
▁olun	-9.77174
▁uluslararası	-9.77182
▁değiller	-9.77241
▁oluşturmak	-9.77376
▁bağımsız	-9.77388
▁görüyor	-9.77494
▁verimli	-9.77562
lenmiş	-9.7757
▁amaç	-9.7758
▁geçti	-9.77719
eceğini	-9.77766
▁hak	-9.77807
diler	-9.77919
▁çalışır	-9.78038
▁sorunları	-9.78055
▁yapay	-9.78292
▁politika	-9.78315
▁engel	-9.78359
▁evde	-9.78367
▁cam	-9.78418
▁paylaşmak	-9.78481
▁Amerikalı	-9.78527
▁iddia	-9.78568
▁önümüzde	-9.78596
▁Bize	-9.78645
▁geçmiş	-9.78712
▁sağlar	-9.78715
▁Man	-9.78734
▁parmak	-9.78743
▁biyoloji	-9.78793
mişti	-9.78828
▁hepsini	-9.78865
▁nevi	-9.78885
▁olmuştu	-9.78938
ohn	-9.79101
▁çıkı	-9.79186
ımı	-9.79239
▁hali	-9.79262
nize	-9.79345
▁Gördüğünüz	-9.7937
▁Eski	-9.7941
▁ten	-9.79419
▁mantıklı	-9.7945
▁şirketi	-9.79574
▁kimyasal	-9.7965
▁çoğunlukla	-9.79654
co	-9.79728
E	-9.79817
▁bilinen	-9.79852
ür	-9.79926
lanma	-9.79957
▁Y	-9.79973
▁şeklinde	-9.79985
▁strateji	-9.80064
▁korumak	-9.80136
▁Sonun	-9.80184
op	-9.8021
▁bil	-9.80261
▁adamın	-9.80275
▁bilmek	-9.80391
▁olabilecek	-9.80458
▁parçaları	-9.80519
▁park	-9.8053
▁davranış	-9.80569
imizin	-9.80591
he	-9.80647
▁verileri	-9.80668
▁farkın	-9.80672
▁şeydir	-9.807
▁hatırlıyorum	-9.80731
▁gösterdi	-9.80794
▁yılın	-9.80795
▁hayatımı	-9.80863
nizin	-9.8095
ood	-9.81005
▁ölçüde	-9.81036
▁toplumun	-9.81046
▁yılı	-9.8107
▁gelme	-9.81073
▁açısı	-9.81074
▁İngiliz	-9.81102
▁ada	-9.8111
▁Hiçbir	-9.81142
▁neyin	-9.81155
ondra	-9.81164
▁yayın	-9.81187
▁yerler	-9.8127
▁ötesinde	-9.81384
▁fazlasını	-9.81385
▁f	-9.81398
▁bırak	-9.81473
▁açıklama	-9.81508
▁devrim	-9.81687
▁yola	-9.81701
▁sizlere	-9.81822
▁Ta	-9.81971
▁gitme	-9.82003
▁alanında	-9.82028
▁alacak	-9.82055
▁kapalı	-9.8207
▁yönetim	-9.82133
masını	-9.82139
▁gerekirse	-9.82149
▁dediği	-9.82187
▁yüzyılda	-9.82197
nca	-9.82218
▁tarafı	-9.82282
▁denge	-9.82463
▁şeker	-9.82523
▁cinsiyet	-9.82524
▁kısım	-9.82531
ard	-9.82581
▁saldırı	-9.8262
kar	-9.82634
▁geleceği	-9.82732
▁olabileceğini	-9.82769
▁sorumlu	-9.8282
▁cinsel	-9.82832
▁boya	-9.82852
▁bölümü	-9.82866
▁sınır	-9.82871
▁hal	-9.82895
▁Ko	-9.82922
▁tanı	-9.82924
▁tespit	-9.82982
▁parlak	-9.82982
ima	-9.83052
▁diyorum	-9.83103
ebilecek	-9.83114
▁sanatçı	-9.83162
▁bölüm	-9.83173
▁düz	-9.83177
▁rakam	-9.83284
▁Hepsi	-9.83331
▁doku	-9.83369
▁verecek	-9.83385
▁tasarruf	-9.83397
▁işlem	-9.83416
▁cümle	-9.83443
▁edebilirsiniz	-9.83502
▁gittik	-9.83517
▁molekül	-9.83518
▁Di	-9.83586
▁Ki	-9.83602
▁önem	-9.83689
nıza	-9.83703
▁Bo	-9.83714
▁çalıştığımız	-9.83737
▁analiz	-9.83767
▁kural	-9.83786
▁suyun	-9.8382
▁çek	-9.83844
▁çoğunu	-9.83858
▁bakteri	-9.8387
▁siyasi	-9.83926
▁fikirleri	-9.83927
▁arkadaş	-9.83942
▁matematik	-9.83963
▁birbirin	-9.83973
ze	-9.84031
▁evren	-9.84128
▁kaldı	-9.84161
▁kanseri	-9.8417
▁gaz	-9.8424
▁geçiyor	-9.84291
▁dediğimiz	-9.84334
▁yolculuk	-9.8437
▁Bilirsiniz	-9.84377
▁başarısız	-9.84413
▁çıkarmak	-9.84443
▁nükleer	-9.84519
▁dikkatli	-9.84545
,000	-9.84654
▁kitabı	-9.84663
niversitesi	-9.84732
▁şans	-9.84789
▁seni	-9.84818
eceğiz	-9.8491
▁orman	-9.8493
▁insanlardan	-9.84996
▁aktif	-9.85004
▁hakkı	-9.85096
▁Onların	-9.8515
lerimizin	-9.85243
▁olabilirsiniz	-9.85286
▁önüne	-9.85315
▁düşündük	-9.85321
▁mutluluk	-9.85344
imizi	-9.85344
inizi	-9.85368
▁değiştirebilir	-9.85477
▁Bak	-9.85569
kçe	-9.85639
▁Birincisi	-9.85658
▁ton	-9.857
▁paylaş	-9.85755
▁hayata	-9.85789
▁gelişmekte	-9.85795
▁saye	-9.85854
▁öldü	-9.85916
▁nüfus	-9.85916
▁gelmiş	-9.86005
▁arkasında	-9.86063
▁doğum	-9.86111
miyor	-9.86179
▁herşeyi	-9.86206
▁epey	-9.86253
▁dur	-9.86305
▁gerçeklik	-9.86489
▁başladılar	-9.86502
▁kon	-9.86605
▁yapacağı	-9.86609
▁değişimi	-9.86652
▁halka	-9.86661
▁televizyon	-9.86797
▁bilme	-9.86801
▁hakları	-9.86811
▁toplam	-9.86868
▁teknolojiyi	-9.86939
▁ödeme	-9.87008
▁değiştirdi	-9.87047
▁yaptılar	-9.87061
▁sessiz	-9.87076
ebiliyor	-9.87102
▁işleri	-9.87116
▁lütfen	-9.8721
▁gözlem	-9.87267
▁kullanıyoruz	-9.873
▁isterim	-9.87305
▁karşısında	-9.87323
rek	-9.87442
▁tıp	-9.87491
▁çöp	-9.87507
▁dek	-9.8756
▁dava	-9.87574
▁elimizde	-9.87601
▁nereden	-9.87739
▁hikayeler	-9.8785
▁koyu	-9.8785
▁olmaktan	-9.87934
▁standart	-9.87965
▁polis	-9.88064
▁kuru	-9.88122
▁Teknoloji	-9.88172
▁sergi	-9.88234
▁geçiş	-9.88242
▁Bazıları	-9.88286
lanıyor	-9.8831
bir	-9.88449
▁dev	-9.88471
▁çiz	-9.88595
▁kullandığımız	-9.88621
▁öğretmen	-9.88784
▁hissi	-9.88901
▁ayı	-9.88932
▁yollar	-9.89105
▁komik	-9.89149
▁şimdiye	-9.8917
▁yaşamak	-9.89211
▁vermeye	-9.89213
▁bahsetmek	-9.89226
▁Bakın	-9.89231
▁dışarıda	-9.89307
suz	-9.8937
▁girdi	-9.89405
maktadır	-9.89556
▁istiyorlar	-9.89559
lerim	-9.89643
▁bakarak	-9.89746
DS	-9.89788
▁diyoruz	-9.89796
▁kullanan	-9.89812
▁etmiş	-9.89827
▁besin	-9.89876
cü	-9.89912
▁bulmaya	-9.89917
▁dönem	-9.89931
▁ani	-9.89977
▁ila	-9.90067
meliyiz	-9.90078
▁nesne	-9.90084
▁geçme	-9.90129
▁açıkça	-9.90178
▁bakıp	-9.90181
▁şeydi	-9.90193
▁yaşıyoruz	-9.90245
lıyor	-9.9027
▁bitir	-9.90378
▁toplantı	-9.90392
▁etmeyi	-9.90418
▁veriler	-9.90476
▁ak	-9.90507
▁istedi	-9.90511
▁gemi	-9.90541
▁taklit	-9.90624
▁radyo	-9.90638
▁yolunu	-9.90695
▁değiştirme	-9.9074
lığını	-9.90783
▁yağ	-9.90906
▁ettiğim	-9.9092
ver	-9.90974
▁dönüş	-9.90987
▁site	-9.90996
asyon	-9.91006
▁artış	-9.91056
▁doğrudan	-9.91057
ber	-9.91094
▁Ka	-9.9112
▁musun	-9.91162
▁edebiliriz	-9.91199
▁yarar	-9.91256
▁anlamıyla	-9.91258
▁gösterir	-9.91266
▁dokuz	-9.91353
▁altyapı	-9.91359
▁ürünü	-9.91385
▁adet	-9.9149
▁gösterme	-9.91534
▁yakında	-9.91644
▁sandalye	-9.91644
▁tıbbi	-9.91653
▁hız	-9.91704
ış	-9.91781
▁terk	-9.91797
▁ekran	-9.91817
▁ihtiyacınız	-9.91853
▁geçir	-9.91917
▁karşılık	-9.91937
▁gittikç	-9.92137
▁değeri	-9.92159
▁seks	-9.92326
▁kişiye	-9.92392
▁gazete	-9.92408
▁mesafe	-9.92472
▁ters	-9.92749
kte	-9.92786
amaz	-9.92803
▁dolarlık	-9.92816
▁ulaşmak	-9.92919
▁misin	-9.92919
mıştım	-9.92979
liğini	-9.9301
▁201	-9.9302
▁duvar	-9.93029
▁kitle	-9.93167
▁kayıt	-9.93235
abiliyor	-9.93235
ydim	-9.93237
▁tehlike	-9.93304
▁kol	-9.93335
▁giriş	-9.93489
▁yerden	-9.93495
▁bi	-9.93552
▁kullanımı	-9.93556
▁istedik	-9.93645
▁sistemleri	-9.9366
▁parçalar	-9.93713
▁hikayesi	-9.93748
unda	-9.93815
▁duyma	-9.93898
▁büyüdü	-9.93902
▁batı	-9.93941
▁yarım	-9.9397
▁serbest	-9.94158
ilen	-9.94159
▁kendilerine	-9.94343
▁kurmak	-9.94361
▁sorunlar	-9.94404
▁ülkelerin	-9.94409
▁dişi	-9.94477
ic	-9.94564
▁tablo	-9.94599
▁yazar	-9.94632
▁yetiştir	-9.94641
▁Tekrar	-9.94674
▁sermaye	-9.94674
▁görüyorum	-9.94748
▁özgür	-9.94769
▁farkı	-9.94848
▁bakma	-9.9485
▁1.	-9.94868
▁kültüre	-9.94877
▁girme	-9.94893
▁yerlere	-9.94903
▁sıkı	-9.94911
▁Güzel	-9.94935
mektedir	-9.94967
▁elinde	-9.95028
▁uzakta	-9.95037
▁Sa	-9.95058
▁çıkma	-9.95084
▁kuş	-9.9513
acebook	-9.95192
▁gönüllü	-9.95211
▁dalga	-9.95215
▁denen	-9.95247
▁geliştirme	-9.95289
▁sert	-9.953
▁gönder	-9.95309
▁şehri	-9.95309
layacak	-9.95353
▁merkez	-9.95383
▁ha	-9.95404
▁yetişkin	-9.9548
▁kanıt	-9.95504
▁Geri	-9.95613
ist	-9.95616
▁Ah	-9.95638
abilmek	-9.95657
zellikle	-9.95704
lanır	-9.95707
▁mağara	-9.95713
▁kayıp	-9.95745
▁ulusal	-9.95761
▁kriz	-9.95791
▁getirme	-9.95794
▁düşünüyoruz	-9.95803
▁edersiniz	-9.95849
▁bahçe	-9.95858
▁askeri	-9.95925
▁mikro	-9.95945
▁2000	-9.9602
▁açtı	-9.96079
▁ün	-9.96091
j	-9.96096
▁topluluk	-9.96156
▁olacağı	-9.96161
▁olanak	-9.96169
▁dile	-9.96177
▁uyum	-9.96185
▁adamları	-9.96215
▁etmesi	-9.96225
şık	-9.96299
▁ediliyor	-9.96497
▁kimin	-9.96558
▁potansiyel	-9.96561
▁yerini	-9.96576
▁Dar	-9.96595
land	-9.96599
▁değişikliği	-9.96652
▁döndü	-9.9668
dıkları	-9.9671
▁tavsiye	-9.96763
▁d	-9.96789
▁çekme	-9.96898
▁kendinizi	-9.96991
larsa	-9.96995
iyorlar	-9.9711
abileceği	-9.9713
▁çılgın	-9.97138
▁olursak	-9.97254
dy	-9.97268
▁berbat	-9.97292
der	-9.97355
▁sarı	-9.97376
▁Yaklaşı	-9.9738
▁istediğiniz	-9.97418
mıyor	-9.97467
▁ihtimalle	-9.97472
▁olabileceği	-9.9754
▁sağlığı	-9.97558
▁olacaktı	-9.97563
▁uçak	-9.97569
▁bilmiyor	-9.97626
▁Ses	-9.97711
▁oksijen	-9.97824
▁ticari	-9.97824
▁zevk	-9.97824
lerdeki	-9.97846
▁ihtiyacım	-9.97862
▁olmaması	-9.97989
▁karşıya	-9.98
po	-9.98267
▁Biliyorsunuz	-9.98409
▁tutku	-9.98537
lüğü	-9.98591
▁hastalıklar	-9.98593
layarak	-9.98612
▁içi	-9.98642
▁anahtar	-9.98654
▁taki	-9.98676
cek	-9.98694
tık	-9.98711
▁başlangıç	-9.9873
dılar	-9.98764
▁Brezilya	-9.98896
leniyor	-9.98899
▁endüstri	-9.98928
lanması	-9.9894
iyet	-9.99011
▁ruh	-9.99026
ren	-9.99125
▁yaratıyor	-9.99128
pi	-9.99253
▁benden	-9.99272
▁ihtiyaçları	-9.99424
▁ettiğini	-9.99437
▁talep	-9.99438
▁dayalı	-9.99466
luğu	-9.99475
▁evrensel	-9.99479
▁sır	-9.99518
▁inanç	-9.99557
▁bulunma	-9.996
▁yük	-9.99616
▁hesaplama	-9.99671
▁karakter	-9.99677
yon	-9.9982
▁yapılması	-9.99827
▁gelebilir	-9.99846
▁beyni	-9.99975
▁düşündü	-9.9999
▁yazık	-10.0013
▁An	-10.0016
▁isim	-10.0025
▁edilmesi	-10.0026
▁Kar	-10.0031
malısınız	-10.0044
▁robotlar	-10.005
▁hafıza	-10.0053
▁sivil	-10.0053
▁sıvı	-10.0053
▁sev	-10.0058
▁güney	-10.0059
▁seviye	-10.006
▁oluşturan	-10.006
▁gibiydi	-10.0063
▁eminim	-10.0064
▁taş	-10.0071
▁gördü	-10.0074
▁Dedi	-10.0078
▁çalışmalar	-10.0085
▁gurur	-10.0092
▁dal	-10.0104
▁giriyor	-10.0104
▁görüşme	-10.0106
▁hassas	-10.0108
lin	-10.0109
şe	-10.0111
▁miydi	-10.0113
▁marka	-10.0114
▁istiyorsanız	-10.0114
▁herkese	-10.0114
▁tanım	-10.0116
▁alabilir	-10.0123
yseniz	-10.0131
▁yüzü	-10.0141
▁İkincisi	-10.0144
▁çalıştık	-10.0148
▁meydan	-10.0153
▁başlama	-10.0153
▁ver	-10.0154
▁diğeri	-10.0159
▁Kimse	-10.0169
lenme	-10.017
▁aksine	-10.0171
▁deniyor	-10.0171
mo	-10.0174
▁alarak	-10.0175
▁kurallar	-10.0175
▁çıkardı	-10.0186
▁yoluyla	-10.0194
▁gruplar	-10.0195
▁hissetme	-10.0195
▁kadının	-10.0217
bilme	-10.0218
▁elektronik	-10.022
▁değişiklik	-10.0221
▁edilebilir	-10.0226
▁uydu	-10.0231
▁görünür	-10.0234
ıyoruz	-10.0236
▁fiyat	-10.0238
▁hareketi	-10.0239
▁ismi	-10.0242
men	-10.025
▁ortam	-10.0254
▁keşif	-10.0256
▁kullanım	-10.0257
▁çocuklara	-10.026
▁motor	-10.0264
▁hastane	-10.0265
▁öğrendik	-10.027
▁daire	-10.0279
▁toplumsal	-10.028
▁isterseniz	-10.0282
▁kalıyor	-10.0297
hu	-10.0316
▁değişti	-10.0318
ad	-10.0318
▁özelliği	-10.0323
▁araçları	-10.0325
lardaki	-10.0332
ildi	-10.0333
▁yumurta	-10.034
▁zamanlı	-10.0343
▁sahiptir	-10.0346
▁görün	-10.0346
▁sorunun	-10.0349
itter	-10.0349
▁kendileri	-10.0357
iyle	-10.0368
▁türden	-10.0369
ac	-10.0371
▁kendisini	-10.038
▁yaşamın	-10.0381
▁durumunda	-10.0385
▁müdahale	-10.0387
▁dönemde	-10.0391
miştim	-10.0391
▁durumun	-10.0392
▁Çocuklar	-10.0392
▁eğitimi	-10.0393
lamak	-10.0394
▁ödül	-10.0399
▁Almanya	-10.0399
nızın	-10.0406
▁Na	-10.0407
ger	-10.0409
▁grubu	-10.0412
▁sistemler	-10.0414
▁kemik	-10.0417
sen	-10.0417
▁kredi	-10.0419
▁bırakma	-10.0435
▁deri	-10.0453
▁suçlu	-10.0453
aponya	-10.0454
zay	-10.0456
▁olduğunuzu	-10.0457
ından	-10.0461
▁bağış	-10.0462
▁oluşturuyor	-10.0463
mizde	-10.0468
mesini	-10.0471
▁birinde	-10.0473
▁biyo	-10.0477
▁yorum	-10.0484
▁öte	-10.0488
fa	-10.0501
▁alternatif	-10.0501
▁filmi	-10.0504
▁yazma	-10.051
▁koyuyor	-10.0511
▁barış	-10.0512
▁nadir	-10.0518
▁kişiyi	-10.0519
▁getirir	-10.052
▁bulun	-10.0526
mekte	-10.053
ji	-10.0534
▁yapması	-10.0534
▁bahsediyor	-10.0536
▁bilgileri	-10.0536
▁kes	-10.0542
▁uçuş	-10.0544
▁söyleme	-10.0546
▁ahlaki	-10.0553
han	-10.0555
▁yanıt	-10.0561
▁sonrası	-10.0563
th	-10.0566
▁arkadaşları	-10.0566
▁başlayan	-10.0569
▁kaynakları	-10.0577
▁nedeniyle	-10.0583
▁patlama	-10.0584
ot	-10.0585
▁arzu	-10.0597
▁aşama	-10.0603
▁Biri	-10.0608
▁bende	-10.0615
▁aktivite	-10.0616
▁peki	-10.0625
▁söylüyorum	-10.0628
▁getiren	-10.063
▁söyler	-10.0633
▁ederken	-10.0633
▁Sizi	-10.0633
▁atom	-10.064
ılması	-10.0645
▁oluşturur	-10.0646
dığım	-10.0648
▁konuşmaya	-10.0648
▁oluştur	-10.0654
▁oluşturma	-10.0656
▁olmasının	-10.0665
▁ka	-10.0667
▁hukuk	-10.0674
▁popüler	-10.0674
▁Kenya	-10.0679
▁hikayeyi	-10.068
▁konuyu	-10.069
▁Ay	-10.0693
▁gelişim	-10.0695
af	-10.0696
ore	-10.0707
▁tarafında	-10.0708
▁bit	-10.0712
▁yu	-10.0712
▁sor	-10.0717
▁kalmış	-10.0719
▁yaptıklarını	-10.0723
ondan	-10.0728
fi	-10.0733
▁vakit	-10.0733
▁arkadaşı	-10.0737
▁yakıt	-10.0737
▁şiir	-10.0739
▁Da	-10.074
yü	-10.0746
▁eylem	-10.0748
▁alanları	-10.075
▁anladım	-10.0755
▁oranda	-10.0755
▁birleştir	-10.0758
▁Kız	-10.076
▁bakım	-10.076
▁deyişle	-10.0761
larımı	-10.0763
▁dolara	-10.0763
▁imkanı	-10.0767
tım	-10.0768
▁olası	-10.0774
sü	-10.0776
▁kendiniz	-10.0776
lerimi	-10.0779
▁Hava	-10.0783
▁kedi	-10.0786
▁ameliyat	-10.0788
▁kahve	-10.0792
▁profesyonel	-10.0792
▁psikoloji	-10.0792
▁devasa	-10.0793
▁yemeği	-10.0794
▁istediği	-10.0796
▁baktığınızda	-10.0798
▁organ	-10.0805
▁saf	-10.0807
▁müze	-10.0808
▁mahalle	-10.0809
▁çalışması	-10.0809
artan	-10.0822
▁anlamlı	-10.0828
▁bölgede	-10.0834
▁sınırlı	-10.0836
▁şansı	-10.084
▁laboratuvar	-10.0843
makta	-10.0847
cılar	-10.0848
▁verdiler	-10.0849
aman	-10.085
▁radikal	-10.0851
bil	-10.0855
▁alalım	-10.0856
▁kıta	-10.0861
lusal	-10.0864
▁fikrini	-10.0868
▁dünyasında	-10.0873
▁ağı	-10.0874
▁haklı	-10.0874
onlardan	-10.0875
▁kurdu	-10.0877
▁şehirler	-10.0881
▁bizimle	-10.0885
▁İsrail	-10.0908
▁Genç	-10.0911
▁finansal	-10.0912
▁çalıştığı	-10.0914
▁yönelik	-10.0917
▁bomba	-10.0921
isi	-10.0925
▁hepiniz	-10.0927
▁kum	-10.0931
▁Dünyada	-10.0932
ilebilir	-10.0934
▁oku	-10.0937
▁tutmak	-10.0939
üm	-10.0943
gen	-10.0946
▁seçme	-10.0956
▁dedik	-10.0961
▁isimli	-10.0966
▁Bizler	-10.097
▁yöntemi	-10.0972
▁Baş	-10.0972
▁zihinsel	-10.0973
▁baktığımızda	-10.0976
▁his	-10.0986
yoruz	-10.0986
000	-10.0987
id	-10.0993
▁kurtar	-10.0994
▁yaşa	-10.1006
▁tak	-10.1009
kça	-10.1009
▁sonucunda	-10.1016
▁yapacağım	-10.102
▁duy	-10.1022
▁klinik	-10.103
▁Yalnız	-10.103
▁vahşi	-10.1031
▁kendimize	-10.1032
▁çekmek	-10.1032
▁verdiğimiz	-10.1034
iği	-10.1041
▁sistemin	-10.1051
▁Hayat	-10.1052
▁durma	-10.1058
müş	-10.1061
▁gezegende	-10.1062
▁dili	-10.1065
▁çözmek	-10.1067
ong	-10.1068
0,000	-10.1071
ster	-10.1074
liyiz	-10.1078
ncelikle	-10.108
▁seviyede	-10.1081
mdan	-10.1084
▁işim	-10.1086
lke	-10.1088
▁rastgele	-10.1091
▁yolla	-10.1092
▁bildiğiniz	-10.1093
ılan	-10.1094
▁içeren	-10.1097
▁söyle	-10.1099
▁önemi	-10.111
▁köy	-10.1112
▁insanlık	-10.1115
▁başlamak	-10.1122
▁bildiği	-10.1126
▁Para	-10.1126
▁odada	-10.1127
▁Sağ	-10.113
▁üçte	-10.1132
▁yaşamı	-10.1136
har	-10.1144
▁banka	-10.1144
▁degil	-10.1145
▁Anne	-10.1149
▁He	-10.1153
▁ekip	-10.1154
▁yolda	-10.1156
▁kuvvet	-10.1159
▁kopya	-10.1163
▁bilimi	-10.1164
▁Neyse	-10.1164
▁koloni	-10.1165
▁beden	-10.1174
▁Genel	-10.1178
▁düştü	-10.1182
▁yıllarda	-10.1187
▁parayı	-10.1191
▁konuya	-10.1193
▁bizden	-10.1197
▁çalıştığını	-10.1197
▁yenilik	-10.1199
▁dizayn	-10.12
▁sürece	-10.1202
▁maliyeti	-10.1204
▁sürede	-10.1207
▁dönüşüm	-10.1211
▁fosil	-10.1213
▁milyarlarca	-10.1214
▁güvenilir	-10.1214
▁gördüğüm	-10.1216
▁hissediyorum	-10.1216
▁diyelim	-10.1217
▁tatlı	-10.1221
▁tamamı	-10.1224
▁seç	-10.1226
▁günümüzde	-10.1238
▁fizik	-10.1238
▁imkan	-10.1238
oma	-10.1238
▁düşündüğümüz	-10.1245
▁arkadaşlarım	-10.1247
▁hayatlarını	-10.1253
▁makinesi	-10.1254
▁karşılaştır	-10.1255
lendi	-10.1256
▁gözüküyor	-10.1259
▁itibar	-10.1265
▁şişe	-10.1269
▁Po	-10.1269
ob	-10.1271
▁çık	-10.1272
▁maruz	-10.1276
▁Eğitim	-10.1277
▁vergi	-10.1277
abilen	-10.1286
▁kilit	-10.1286
▁çağrı	-10.129
▁ederiz	-10.1295
amp	-10.1299
▁sağlayabilir	-10.1301
larım	-10.1307
▁kelimeler	-10.1307
▁zamandır	-10.132
eceğim	-10.1321
▁etmemiz	-10.133
▁birer	-10.1335
▁ol	-10.1336
▁görevi	-10.1339
▁uyku	-10.1341
▁okulda	-10.1342
▁birbirlerine	-10.1352
▁olabilirdi	-10.1353
▁bahsettiğim	-10.1379
▁yaptığınız	-10.1381
▁Ga	-10.1391
▁Doğa	-10.1393
▁aklım	-10.14
▁acil	-10.1401
aj	-10.1403
▁diz	-10.1403
▁ısınma	-10.1403
▁dönme	-10.1406
▁bakıma	-10.1407
▁kullandığı	-10.1407
▁civarında	-10.1408
▁çalışırken	-10.1408
▁Ar	-10.1413
,	-10.1415
ık	-10.1426
▁sürdü	-10.1426
▁uyar	-10.1427
▁fırsatı	-10.143
▁uzman	-10.1432
▁bütçe	-10.1433
▁yapılıyor	-10.1452
▁ayar	-10.1457
lay	-10.1457
▁Annem	-10.1458
▁geliyordu	-10.1466
▁Sorun	-10.1471
▁söyleyen	-10.1471
şi	-10.1475
▁yenilikçi	-10.1478
▁Kadın	-10.1479
▁adalet	-10.148
▁edil	-10.1494
▁sağlama	-10.1498
▁gösteri	-10.1499
ev	-10.1511
▁taşıyor	-10.1515
▁almış	-10.1522
▁bakıyor	-10.1522
▁Değil	-10.1526
▁uyuşturucu	-10.1526
ho	-10.1526
▁say	-10.1529
▁olayı	-10.1537
▁servis	-10.1539
▁zamanla	-10.1541
▁sizler	-10.1544
▁havada	-10.1554
▁etkin	-10.1554
▁ölçü	-10.1562
ldukça	-10.1564
▁örnekler	-10.1569
▁metal	-10.1569
▁öğrenciler	-10.1571
▁bol	-10.1576
abileceğimiz	-10.1578
▁krizi	-10.1579
▁merkezinde	-10.1585
▁bunlara	-10.1589
▁Kesinlikle	-10.159
▁resimler	-10.159
▁kızı	-10.1597
▁Sağlık	-10.1601
▁toplu	-10.1601
▁olmanız	-10.1613
leyen	-10.1617
▁koyar	-10.1623
▁miktarı	-10.1625
▁yazdı	-10.1627
▁performans	-10.1651
▁dürüst	-10.1652
▁geliştirmek	-10.1653
▁felaket	-10.1654
▁blog	-10.1654
▁grafik	-10.1655
▁yaşındayken	-10.1658
▁bilmiyoruz	-10.1663
▁rapor	-10.1668
▁adamlar	-10.1691
▁içerik	-10.1692
▁salgın	-10.1692
▁kullanmaya	-10.1693
lıyoruz	-10.1699
larınızı	-10.1699
▁planı	-10.1701
▁yüzyılın	-10.1713
▁ibaret	-10.1718
▁domuz	-10.1722
▁denilen	-10.1722
▁yalan	-10.1725
İ	-10.1726
▁organizasyon	-10.1727
ili	-10.1727
▁çeken	-10.1732
▁hayvanların	-10.1743
▁hastalar	-10.1753
▁Pi	-10.1757
▁makina	-10.176
lenen	-10.1763
▁değiş	-10.1768
▁manzara	-10.1772
▁rekabet	-10.1775
▁sıklıkla	-10.1777
arklı	-10.1782
▁öğle	-10.1783
▁bilir	-10.1784
▁düzgün	-10.1787
▁teknolojisi	-10.1791
▁basitçe	-10.1794
do	-10.1798
▁olmuştur	-10.1799
lerse	-10.1803
▁alıyoruz	-10.1806
▁bekleme	-10.1808
▁geçer	-10.1808
acağı	-10.1814
▁bireyler	-10.1819
ydım	-10.1823
▁çözümler	-10.1829
ünün	-10.1836
▁saatte	-10.1836
▁oluşuyor	-10.1838
▁olumlu	-10.1848
▁idare	-10.1849
▁Basit	-10.1849
▁ata	-10.185
▁fikrim	-10.1851
▁gelince	-10.1854
▁sıkıcı	-10.1854
larındaki	-10.1854
▁birinci	-10.1864
▁dergi	-10.1864
marım	-10.1866
▁üret	-10.1868
rı	-10.1868
▁istedikleri	-10.1885
▁sebeple	-10.1886
▁mercan	-10.1905
▁çiftçi	-10.1912
▁kritik	-10.1914
▁ziyade	-10.1914
▁etkileyici	-10.1915
▁zamana	-10.1919
▁koyma	-10.1922
▁şirketlerin	-10.1922
ümüz	-10.1929
▁Muhtemel	-10.193
▁gerçekleştir	-10.1935
mamız	-10.1952
▁bitkiler	-10.1954
▁kulağ	-10.1954
lerindeki	-10.1955
düşünebilirsiniz	-10.196
▁karışık	-10.198
▁köprü	-10.1981
▁nihayet	-10.1981
▁otomatik	-10.1981
▁kutsal	-10.1981
▁aracılığıyla	-10.1982
seydi	-10.1982
▁buradan	-10.1986
▁not	-10.1989
▁net	-10.1992
▁değiştiriyor	-10.1993
ime	-10.1994
▁duran	-10.1998
▁başlıyoruz	-10.1999
umuz	-10.2
▁paylaşma	-10.2
▁kart	-10.2
imin	-10.2002
▁beslenme	-10.2005
▁Mi	-10.2007
▁anlatacağım	-10.2011
▁tuvalet	-10.2014
▁fabrika	-10.2017
▁boyu	-10.2019
▁yaşadığı	-10.2019
▁zordur	-10.2019
▁kuzey	-10.2021
▁Kendisi	-10.2023
▁isteme	-10.2025
ih	-10.2026
▁seçenek	-10.2027
▁davran	-10.2028
ebileceğimiz	-10.2033
▁kurumlar	-10.2039
leriniz	-10.2046
▁trilyon	-10.2047
▁kocaman	-10.2049
▁av	-10.2052
▁galaksi	-10.2053
▁olaylar	-10.2055
▁izleme	-10.2056
▁aşk	-10.2056
▁tasarımı	-10.2064
mden	-10.2066
▁biliyordum	-10.2075
▁falan	-10.2076
▁çalışmaları	-10.2081
▁tren	-10.2083
▁vereceğim	-10.2088
▁şüphe	-10.2089
▁yapıp	-10.2091
▁savunma	-10.2092
laş	-10.2095
▁beceri	-10.2101
▁Küresel	-10.211
diklerini	-10.2112
▁çatışma	-10.2114
▁Kaliforniya	-10.2114
▁anlatma	-10.2116
▁oyuncak	-10.2117
▁bireysel	-10.2117
▁indir	-10.2117
▁kuralları	-10.2118
▁öne	-10.2121
▁ahlak	-10.2121
ebileceği	-10.2123
▁özgü	-10.2136
▁baktım	-10.2152
▁sormak	-10.2155
▁ürünleri	-10.2155
▁engelli	-10.2156
tal	-10.2156
▁tarzı	-10.216
ord	-10.216
▁toplama	-10.2161
▁kamp	-10.2167
▁kazandı	-10.2168
▁projesi	-10.2172
▁cesaret	-10.2174
mle	-10.2176
lerinizi	-10.2179
▁başlayalım	-10.2183
▁diyorlar	-10.2184
▁arı	-10.2184
lma	-10.2185
▁söyleyebilirim	-10.2186
▁harcama	-10.2187
▁olamaz	-10.2191
▁nda	-10.2194
▁anlatıyor	-10.2199
▁sakin	-10.22
▁olmasıdır	-10.22
umu	-10.2202
▁yönde	-10.2212
▁ederler	-10.2217
▁yapabiliyor	-10.2222
▁söylediğim	-10.223
▁sat	-10.2235
▁Dan	-10.2244
▁zemin	-10.2248
ımızı	-10.2248
▁dönüştü	-10.2249
▁çoğunluğu	-10.2251
▁bahsedeceğim	-10.2251
▁is	-10.2253
▁yapılar	-10.2253
▁geçiriyor	-10.2254
▁özellikleri	-10.226
▁kaba	-10.226
▁duydum	-10.2262
▁tersine	-10.2264
▁Ed	-10.2269
▁geliştir	-10.2272
▁düzenleme	-10.2277
▁fayda	-10.2278
▁çoğunuz	-10.2288
▁neyi	-10.2289
▁aldığı	-10.2294
▁eseri	-10.2298
▁altındaki	-10.23
▁eksik	-10.2302
▁dünyası	-10.2304
laştı	-10.2305
▁ailem	-10.231
▁kullanıcı	-10.2315
▁söyley	-10.232
eceği	-10.232
▁yaşadığımız	-10.2326
▁zamanında	-10.233
▁hissettim	-10.2331
iliyor	-10.2336
per	-10.2336
▁şehirde	-10.2338
▁olacağız	-10.2338
▁yarat	-10.2341
▁sıtma	-10.2342
▁diğerleri	-10.2343
▁işletme	-10.2345
▁böcek	-10.2345
▁hikayesini	-10.2347
▁katkı	-10.2348
▁geçirdim	-10.2348
ysanız	-10.2353
emez	-10.2354
▁bulundu	-10.2356
▁aylık	-10.236
▁üretmek	-10.2363
▁etrafta	-10.2368
▁Bilgisayar	-10.2372
▁konuşmayı	-10.2373
▁doğu	-10.2375
▁dinle	-10.2378
kları	-10.2383
▁George	-10.2387
▁hapishane	-10.2388
lenmesi	-10.2389
▁günün	-10.239
▁Arap	-10.2395
▁ayında	-10.2396
▁hareketleri	-10.2396
▁moda	-10.2405
▁sahipler	-10.2407
▁yeteneği	-10.2408
▁kur	-10.2409
▁yasal	-10.2411
▁ilaçlar	-10.2423
tür	-10.2424
▁düşündüğüm	-10.2425
mis	-10.2426
▁tutar	-10.2428
▁kullanıl	-10.243
▁yeteri	-10.2431
▁biriydi	-10.2431
▁kolayca	-10.2431
▁yolları	-10.2433
▁Hey	-10.2436
mar	-10.2436
▁yolunda	-10.2443
▁denedi	-10.2452
▁saç	-10.2453
Y	-10.2453
▁oranında	-10.2455
çüncü	-10.2456
▁hisseder	-10.2457
▁özgürlük	-10.2457
▁eğlence	-10.2461
▁müşteri	-10.2465
▁deneyimi	-10.2468
▁On	-10.2482
▁bağımlı	-10.2484
▁ücret	-10.2486
▁olmasa	-10.2487
▁çıkarıyor	-10.2487
▁yaratır	-10.249
om	-10.249
▁çeker	-10.2494
avid	-10.2496
▁kişilik	-10.25
posta	-10.2502
▁yazdım	-10.2503
diğiniz	-10.2504
▁b	-10.2507
▁başı	-10.251
▁öz	-10.2512
▁delik	-10.2515
▁Herhangi	-10.2527
▁organize	-10.2528
▁organik	-10.2529
▁başkanı	-10.2531
▁görünmez	-10.2542
ül	-10.2548
▁Hala	-10.256
▁Sanat	-10.256
▁gezegenin	-10.2561
▁değerlendir	-10.2562
▁kapasite	-10.2575
▁artıyor	-10.2578
sidir	-10.2578
▁liderlik	-10.2579
▁çevir	-10.2581
▁ser	-10.2583
▁döngü	-10.2583
yecek	-10.2586
▁Te	-10.2586
▁Sol	-10.2588
▁yön	-10.259
▁şok	-10.2598
▁seviyor	-10.2598
▁yöne	-10.2599
▁taraf	-10.26
▁istemiyorum	-10.2601
▁erkeklerin	-10.2603
▁kır	-10.2603
line	-10.2613
▁İşin	-10.2618
▁kaynaklar	-10.2622
▁ürünler	-10.2622
leşti	-10.2623
▁koymak	-10.2624
▁diş	-10.2629
▁çatı	-10.2631
▁problemleri	-10.2633
araya	-10.2636
▁lider	-10.2637
▁bağlantılı	-10.2638
▁be	-10.2638
▁kör	-10.2642
▁tur	-10.2646
▁dakikada	-10.2646
▁kızlar	-10.2649
ell	-10.2654
▁düşün	-10.2664
▁olmuyor	-10.2666
▁Avustralya	-10.2668
▁Eylül	-10.2668
▁Sosyal	-10.2668
▁sıradışı	-10.2669
ark	-10.267
dışı	-10.2672
▁nöron	-10.2672
mıyoruz	-10.2673
▁So	-10.2674
▁teknolojiler	-10.2678
▁alıntı	-10.2679
▁Be	-10.2679
all	-10.2681
▁kulak	-10.2691
▁geldim	-10.2699
▁karınca	-10.2701
▁Biliyor	-10.2704
▁üstesinde	-10.2706
▁lise	-10.2719
▁Ku	-10.2723
▁Bay	-10.2723
için	-10.273
▁hızı	-10.273
▁meşgul	-10.2739
▁Yakın	-10.2745
madan	-10.2745
▁İslam	-10.2746
▁değişiklikler	-10.2751
▁oradaki	-10.2764
▁gidecek	-10.2766
▁siyahi	-10.278
▁yaka	-10.2787
▁günlerde	-10.2791
▁kalite	-10.2794
▁oran	-10.2806
▁söyledim	-10.2808
▁ekmek	-10.281
▁kategori	-10.2811
▁görülen	-10.2812
▁Paul	-10.2812
▁Neredeyse	-10.2812
▁haberler	-10.2813
▁umarım	-10.2813
▁baktı	-10.2813
▁bulut	-10.2814
ğin	-10.2819
▁maliyet	-10.2819
▁Bilgi	-10.2821
▁kullanır	-10.2823
▁renkli	-10.2824
▁taşı	-10.2827
▁Babam	-10.2833
▁Kanada	-10.2834
▁hissed	-10.284
▁kariyer	-10.2846
▁ortamda	-10.2847
oz	-10.2849
▁ofis	-10.285
▁kimya	-10.285
Times	-10.2853
biriyle	-10.2855
▁olursanız	-10.2858
▁atmosfer	-10.2858
▁istemez	-10.2862
layıcı	-10.2868
▁olmam	-10.2869
ransa	-10.2872
▁Konuşma	-10.2876
malı	-10.2877
▁düzeyde	-10.2878
▁20.	-10.2878
▁Savaşı	-10.2883
▁sohbet	-10.2884
▁korkutucu	-10.2884
▁oturup	-10.2886
ğım	-10.2891
▁kullanabiliriz	-10.2892
▁görü	-10.2897
io	-10.2902
iken	-10.2902
▁Deniz	-10.2907
▁söylediler	-10.2913
▁hastalığın	-10.2914
ılıyor	-10.2922
diğinde	-10.2925
▁anlıyor	-10.2927
▁Har	-10.2934
sunu	-10.2936
▁testi	-10.2944
▁Afrikalı	-10.2944
▁düşman	-10.2945
▁dik	-10.2945
▁etkileri	-10.2946
▁memnun	-10.2957
ladı	-10.296
leyerek	-10.2963
▁alıcı	-10.2966
▁düşen	-10.2969
lemek	-10.2969
▁bugünkü	-10.297
▁işleme	-10.2973
▁seri	-10.298
▁satış	-10.298
▁ailesi	-10.2982
▁bilgisayarlar	-10.2983
▁tarif	-10.2986
▁yarattı	-10.2986
▁açıyor	-10.2987
ang	-10.2988
▁çıkarma	-10.2994
liğine	-10.2996
▁bulduğumuz	-10.3001
▁mühendislik	-10.3006
▁yaşın	-10.3006
▁çerçeve	-10.301
▁kampanya	-10.3013
▁yüzey	-10.3016
▁sesini	-10.3021
▁çalışıyorlar	-10.3022
▁cesur	-10.3023
▁Araştırma	-10.3026
leyici	-10.3027
leştirme	-10.3027
van	-10.303
▁hayret	-10.303
▁polen	-10.3031
▁Beyin	-10.3036
ransız	-10.3037
▁yerleri	-10.3043
ans	-10.3045
▁farkettim	-10.3047
▁teknolojik	-10.306
▁ayakta	-10.306
izm	-10.3064
ıldığında	-10.3065
▁tutma	-10.3066
▁değiştiren	-10.3072
▁tan	-10.3073
▁Bi	-10.3079
▁reklam	-10.3082
▁hücresi	-10.3088
▁tanıma	-10.309
▁hizmeti	-10.3094
üs	-10.3094
▁dinamik	-10.3104
▁meyve	-10.3104
▁kaybı	-10.3105
▁benzeyen	-10.3105
▁babası	-10.3108
ana	-10.3117
▁kişilerin	-10.3119
▁taşıma	-10.312
▁yaratan	-10.3121
▁savaşı	-10.3121
muştu	-10.3125
▁çağı	-10.3131
▁düşünüyordum	-10.3133
▁süren	-10.314
▁çal	-10.3154
▁giy	-10.3154
▁çiçek	-10.3156
▁ölçekte	-10.3158
▁tasarlanmış	-10.3164
▁dön	-10.3165
▁teklif	-10.3165
dunuz	-10.3169
com	-10.3174
▁İnanılmaz	-10.3179
▁meslek	-10.3181
▁bölgesinde	-10.3185
▁görebiliriz	-10.3186
▁mezun	-10.3186
▁aldığımız	-10.319
▁tarihinde	-10.3191
▁süreçte	-10.3192
▁geçmek	-10.3195
are	-10.3197
▁temelde	-10.32
▁kalır	-10.3202
▁ilişkiler	-10.3203
▁çekiyor	-10.3207
▁kıyı	-10.3212
▁geldik	-10.3213
▁öğrendiğim	-10.3214
▁gezi	-10.3214
▁zorlu	-10.3215
larımızda	-10.3218
▁düzenli	-10.3221
▁görmez	-10.3229
▁hayatım	-10.323
▁şirketleri	-10.323
uş	-10.3232
▁bakan	-10.3232
▁şeylerle	-10.3233
▁duruma	-10.3235
▁kullandık	-10.3239
▁Alman	-10.3242
▁yasak	-10.325
lendirme	-10.3252
▁alışveriş	-10.3254
▁gelmek	-10.3255
▁fon	-10.3256
▁Si	-10.3257
▁dolayısıyla	-10.3258
▁ettikleri	-10.326
▁kullanıyorlar	-10.3261
▁Sonuçta	-10.3265
▁faydalı	-10.3266
▁ölme	-10.3267
▁durumlarda	-10.3267
PS	-10.3271
▁Beş	-10.3272
▁peşinde	-10.3274
▁hiçbiri	-10.3277
▁dönüyor	-10.3278
ince	-10.3283
▁anlaşma	-10.3284
▁soruları	-10.3286
▁gelmişti	-10.3288
▁zorluk	-10.3292
▁dini	-10.3293
▁Ke	-10.3297
▁yörünge	-10.3298
▁erişim	-10.3311
▁Vi	-10.3311
▁projeler	-10.3314
▁21.	-10.332
▁geneld	-10.3321
▁Merkezi	-10.3326
▁teknolojileri	-10.3329
▁Einstein	-10.333
▁mucize	-10.333
▁şaka	-10.3331
nızda	-10.3335
od	-10.3336
▁noktalar	-10.3337
▁isterse	-10.3339
▁çoktan	-10.334
yacak	-10.3347
likten	-10.3353
▁Bar	-10.3353
▁demokratik	-10.3353
▁Az	-10.3354
▁alanlarda	-10.3357
▁girişimci	-10.3358
▁Ale	-10.3358
▁kendim	-10.3361
hil	-10.3362
kinden	-10.3364
▁koku	-10.337
▁yapın	-10.3377
▁bilinçli	-10.338
▁ölüyor	-10.3381
▁yarış	-10.3381
▁yargı	-10.3387
üne	-10.3394
▁bo	-10.3398
▁oyna	-10.3401
▁mesajı	-10.3402
▁benze	-10.3404
▁sahte	-10.3406
▁edelim	-10.3407
▁yapalım	-10.341
▁ucunda	-10.3418
▁ediyordu	-10.3419
kı	-10.3419
▁imza	-10.3424
lılar	-10.3426
▁Biliyoru	-10.3437
▁kısmında	-10.3438
kta	-10.3438
▁çabuk	-10.3439
ite	-10.3446
▁Günümüzde	-10.3448
▁sürüyor	-10.345
▁Yer	-10.3451
▁deli	-10.3454
▁teşhis	-10.3456
▁Yaşam	-10.3461
▁tanımlama	-10.3466
▁öfke	-10.3471
▁dediğim	-10.3472
▁Meksika	-10.3472
▁mekanizma	-10.3474
landığı	-10.3477
▁balon	-10.3481
▁tasarımcı	-10.3482
▁katman	-10.3483
syon	-10.3483
▁İlki	-10.3484
▁2.	-10.3485
▁mekanik	-10.3485
ames	-10.3488
muyor	-10.3489
▁çalışarak	-10.349
▁oluyorlar	-10.3493
▁arabalar	-10.3498
▁22	-10.3499
liyor	-10.35
miyorum	-10.3502
ire	-10.351
▁merhamet	-10.3517
▁elle	-10.353
▁ideal	-10.353
▁kendimiz	-10.3533
▁kalmak	-10.3545
▁diğerine	-10.3551
▁yarattığı	-10.3553
▁aptal	-10.3553
▁21	-10.3559
▁görmüş	-10.356
▁göç	-10.3562
▁şifre	-10.3563
▁yardımı	-10.3566
▁geçmişte	-10.3568
▁düşünen	-10.3571
▁arttı	-10.3575
▁üreme	-10.3577
▁depo	-10.3577
▁ordu	-10.3586
▁tahta	-10.3589
laşma	-10.3589
▁kaçır	-10.3591
▁sistemini	-10.3594
▁ettir	-10.3597
▁getirdiği	-10.36
yalım	-10.3601
▁Ho	-10.3602
▁Açık	-10.3602
▁Okul	-10.3617
▁sağlam	-10.3618
ep	-10.3624
▁ediyorsunuz	-10.3625
ron	-10.3628
memiz	-10.3633
mez	-10.3638
▁prototip	-10.3639
▁kırsal	-10.3641
▁Or	-10.3642
▁çalışmayı	-10.3645
▁Aile	-10.3647
▁etmiyor	-10.3648
mıştır	-10.3649
dınız	-10.3654
fer	-10.3656
▁katkıda	-10.3658
▁ağaçlar	-10.3665
▁edeceğim	-10.3671
mızdan	-10.3672
▁gibidir	-10.3675
nizde	-10.3676
▁takdir	-10.3682
▁kontrolü	-10.3683
▁sonuçta	-10.3684
▁Savaş	-10.3684
şa	-10.3686
maz	-10.3687
ılabilir	-10.3687
▁düzen	-10.369
▁düşüyor	-10.3692
▁do	-10.3693
▁heykel	-10.3693
ılır	-10.3694
▁par	-10.3703
▁gelin	-10.3705
▁kıl	-10.3706
▁Nijerya	-10.3707
▁kullanabilir	-10.3707
▁Gör	-10.3708
▁karikatür	-10.371
yıp	-10.3711
▁Soru	-10.3713
▁paket	-10.3717
▁bedava	-10.3718
▁kütüphane	-10.3718
▁macera	-10.3718
▁pozitif	-10.3718
ınız	-10.3718
▁tanıştım	-10.3718
▁birbirleriyle	-10.372
larınız	-10.3721
dığında	-10.3721
▁Sal	-10.3726
▁kalacak	-10.3729
▁söyleyebilir	-10.3738
▁stres	-10.3741
▁sanayi	-10.3742
luyor	-10.3742
▁oluşur	-10.3744
▁basın	-10.3745
▁bırakmak	-10.3751
▁edebiliyor	-10.3751
▁ulus	-10.3755
▁toplumda	-10.3759
est	-10.3762
▁İran	-10.3764
▁çözme	-10.377
▁oturuyor	-10.3771
▁döndüm	-10.3775
▁atık	-10.3776
▁ihtimali	-10.3782
▁anlayış	-10.3785
▁üretme	-10.3786
▁oynat	-10.3794
▁konuşacağım	-10.3797
▁Yüksek	-10.3797
▁mutlak	-10.3797
▁sigara	-10.3797
uantum	-10.3798
▁doktora	-10.3799
▁sınırları	-10.38
▁eşsiz	-10.3802
▁sözü	-10.3802
ırken	-10.3804
▁cihazı	-10.3805
▁sorma	-10.3807
▁ceza	-10.381
▁Mısır	-10.3814
▁sizden	-10.3815
▁bıraktı	-10.3816
▁kolu	-10.3819
▁bilgiler	-10.3822
▁Bill	-10.3833
lamaya	-10.3833
▁kıyasla	-10.3834
▁iğne	-10.3841
▁biçimi	-10.3841
▁kahraman	-10.3842
▁özellikler	-10.3847
▁toz	-10.3847
▁bulur	-10.3847
▁gördüğü	-10.385
▁mekan	-10.3853
lerimizde	-10.3853
▁yapmanız	-10.3853
ego	-10.3854
▁iste	-10.3862
▁firma	-10.3871
▁platform	-10.3872
ladık	-10.3874
▁lerde	-10.3874
▁dehşet	-10.3877
ashington	-10.3877
▁cadde	-10.3877
ichard	-10.3877
▁kilise	-10.3879
▁bahsediyorum	-10.3886
▁soyut	-10.3887
▁malzemeler	-10.3889
▁değişiyor	-10.3889
▁tatil	-10.3892
▁kablo	-10.3894
▁kahkahalar	-10.3894
▁gitmeye	-10.3895
▁yarışma	-10.3898
▁tanıyor	-10.3898
▁diyordu	-10.3901
▁bölgelerde	-10.3902
▁iyidir	-10.3908
▁anlattı	-10.3909
▁tipik	-10.391
▁Müslüman	-10.3917
▁konuşan	-10.3922
▁bakacak	-10.3925
▁Oh	-10.3932
▁değerlendirme	-10.3936
▁izliyor	-10.3942
▁ardı	-10.395
▁şeyle	-10.3951
▁konferans	-10.3952
▁iyisini	-10.3955
▁kömür	-10.3958
▁NASA	-10.3958
▁Anders	-10.3959
▁okur	-10.3962
▁deneyler	-10.3962
mizden	-10.3963
▁oluyordu	-10.3964
uyor	-10.3972
▁kok	-10.3973
▁duyarlı	-10.3974
▁bilmiyordum	-10.3976
▁anında	-10.3978
▁dokun	-10.3978
▁çalıştı	-10.3981
▁giri	-10.3982
▁hücrelerin	-10.3985
▁bilinç	-10.3986
tığını	-10.3992
▁topluluğu	-10.3995
▁saçma	-10.3999
if	-10.4002
▁yerleştir	-10.401
▁balina	-10.4011
▁kısaca	-10.4013
kan	-10.4013
▁şefkat	-10.4014
▁başlangıcı	-10.4014
▁dün	-10.4014
▁çıkmış	-10.4014
▁insani	-10.4018
▁konular	-10.4029
▁içe	-10.4033
▁çekti	-10.4036
▁sorduk	-10.4036
gun	-10.4038
▁İlginç	-10.4039
ıldığı	-10.4039
▁çıkış	-10.404
▁otur	-10.404
▁Allah	-10.4041
▁protein	-10.4044
▁trafik	-10.4045
▁savaşın	-10.4046
▁TV	-10.4048
▁kardeşim	-10.4049
▁etmenin	-10.4049
▁Adı	-10.405
▁tutuyor	-10.4051
lendir	-10.4052
▁onay	-10.4053
▁unutma	-10.4055
▁Yo	-10.4058
▁Sonrasında	-10.4058
▁ulaşım	-10.4074
▁birbirimize	-10.4078
▁elimde	-10.4078
▁asker	-10.4093
▁yapmıyor	-10.4095
▁art	-10.4096
▁rengi	-10.4097
▁bilimin	-10.4099
▁evin	-10.4103
▁zorundasınız	-10.4106
▁geçirmek	-10.411
ırız	-10.411
▁problemler	-10.4112
▁alanın	-10.4112
▁ekoloji	-10.4115
▁değişken	-10.4119
▁Harvard	-10.4121
▁Hikaye	-10.4121
▁görürüz	-10.4121
▁kütle	-10.4122
▁büyüyen	-10.4123
▁olabiliriz	-10.4126
inizin	-10.413
nuzu	-10.4132
▁çoğal	-10.4138
▁bulduğum	-10.4143
▁göçmen	-10.4147
▁Birisi	-10.4149
▁sorumluluk	-10.4153
▁pencere	-10.4153
▁miyim	-10.4154
▁gören	-10.4156
▁oynama	-10.4158
▁bazılarını	-10.4166
▁halkı	-10.4169
ilm	-10.4173
▁öğret	-10.4174
NA	-10.4176
▁öykü	-10.4177
▁yatak	-10.4178
▁Göz	-10.4179
▁gittiğini	-10.4183
▁sesler	-10.4194
▁kesim	-10.4195
likte	-10.4196
▁döner	-10.4197
▁şekilleri	-10.42
▁maymun	-10.4202
▁normalde	-10.4202
▁Angeles	-10.4204
▁herkesi	-10.4207
▁kullanılıyor	-10.4208
▁Temel	-10.4208
▁matematiksel	-10.421
usya	-10.421
▁inanma	-10.4214
▁veriyorlar	-10.4225
▁uzmanı	-10.4229
ilir	-10.4231
▁etkiler	-10.4231
▁istiyordum	-10.4232
▁Konu	-10.4232
üz	-10.4242
acaktır	-10.4245
▁tarihte	-10.4245
▁haritası	-10.4246
▁öğretti	-10.4247
▁çıktığı	-10.4254
▁getirebilir	-10.4256
▁kadınlara	-10.4256
▁kültürü	-10.426
▁kazanma	-10.4261
▁tersi	-10.4261
▁konuşuyor	-10.4265
▁okulu	-10.427
▁dayan	-10.4271
▁riski	-10.4272
▁otobüs	-10.4278
▁Kur	-10.4282
▁açma	-10.4282
oloji	-10.4285
▁Ekonomi	-10.4287
▁akciğer	-10.4287
▁Amazon	-10.4287
meli	-10.4289
görebiliyorsunuz	-10.4291
▁köşe	-10.4291
▁Bizi	-10.4295
▁belge	-10.4297
▁Toplum	-10.4299
▁üreten	-10.4299
▁İç	-10.43
▁komşu	-10.4301
▁kurduk	-10.4301
▁em	-10.4306
ırsınız	-10.4317
▁öğrencisi	-10.432
▁resme	-10.4322
▁hükümeti	-10.4328
▁ayır	-10.4328
ıyorlar	-10.4332
▁girişim	-10.4332
▁organizma	-10.4333
▁oldular	-10.4335
▁Hayal	-10.4336
▁kurtarma	-10.4338
art	-10.434
▁blok	-10.4341
▁akım	-10.4342
yordu	-10.4343
▁baktık	-10.4345
▁çıkmak	-10.4348
▁zamanın	-10.4353
▁olabiliyor	-10.4354
▁kapat	-10.4361
ciler	-10.4362
▁kurum	-10.4363
▁değerleri	-10.4367
▁borç	-10.4371
▁Merhaba	-10.4371
▁ayağa	-10.4371
▁düşünürseniz	-10.4373
▁ölen	-10.4374
▁kaldım	-10.4375
▁yuva	-10.4379
▁Go	-10.4388
▁araştırmalar	-10.439
▁mimar	-10.4393
▁kullanılabilir	-10.4395
▁ter	-10.4395
leşiyor	-10.4397
▁uy	-10.4405
▁gösterdiğim	-10.4406
▁yaşındaydı	-10.4408
nuz	-10.4409
▁yapabilecek	-10.441
▁işçi	-10.441
▁ırk	-10.441
▁gürültü	-10.4414
▁duygusu	-10.4417
▁dokunma	-10.4427
▁yarıyor	-10.4429
▁öğretmenler	-10.4431
▁patent	-10.4434
lanabilir	-10.4436
▁şeklini	-10.4436
▁odaklan	-10.4437
▁fotoğraflar	-10.4438
▁Tanrım	-10.4455
▁empati	-10.4456
▁mahkeme	-10.4456
▁görülüyor	-10.4456
▁değilse	-10.4457
▁kalıcı	-10.4457
▁inşaat	-10.4461
▁tamamıyl	-10.4473
▁saniyede	-10.4475
evap	-10.4476
▁değerler	-10.4478
▁yaparlar	-10.4479
▁yapısını	-10.4482
▁gerekti	-10.4483
ımda	-10.4483
▁avukat	-10.4484
▁oyuncu	-10.4486
▁ağrı	-10.4489
▁gösterdiği	-10.449
▁düş	-10.4492
▁yapısı	-10.4496
▁zihin	-10.4505
▁enerjisi	-10.4506
mayan	-10.4515
ıyordu	-10.4517
▁Altı	-10.4518
▁uzaktan	-10.4523
▁gözleri	-10.4524
▁yapabilmek	-10.4524
▁Tasarım	-10.453
▁öngörü	-10.453
▁soy	-10.4532
▁To	-10.4532
iyordu	-10.4535
nternet	-10.4538
▁ticaret	-10.4539
▁teslim	-10.4541
▁elbise	-10.4541
▁Dört	-10.4541
▁etkileyen	-10.4543
▁buyuk	-10.4545
▁hamile	-10.4547
▁gelişen	-10.4547
likleri	-10.4549
▁yapmalıyız	-10.455
▁eşi	-10.4554
▁bant	-10.4555
dıklarını	-10.4563
nemli	-10.4566
▁yararlı	-10.4567
amazsınız	-10.4569
▁annesi	-10.4571
▁as	-10.4572
lıyım	-10.4574
▁sanatı	-10.4581
▁geleceğin	-10.4588
▁duyar	-10.4589
▁halkın	-10.459
▁sunuyor	-10.4591
▁Araba	-10.4594
▁sisteminin	-10.4594
hr	-10.4594
▁olmama	-10.4595
▁uyan	-10.4598
indeki	-10.4601
▁işlerini	-10.4602
amayacak	-10.4603
▁bakmaya	-10.4604
▁ilacı	-10.4604
mesine	-10.461
▁Tom	-10.4616
zel	-10.4621
▁çekim	-10.4623
▁geçirme	-10.4624
▁büyüleyici	-10.4628
kleri	-10.4628
▁güzellik	-10.463
▁çarpıcı	-10.463
▁Başkan	-10.463
▁bekler	-10.4632
▁tüp	-10.4634
▁hile	-10.4634
▁kitaplar	-10.4637
▁eriş	-10.4638
▁fikirlerin	-10.4641
▁depresyon	-10.4645
▁düşüncesi	-10.4649
▁2010	-10.465
ban	-10.465
▁1000	-10.4656
▁arttır	-10.4656
▁görüntüler	-10.4659
larımıza	-10.4659
ebilmek	-10.466
▁ulaşma	-10.466
riyi	-10.4668
▁İnsanları	-10.467
ışı	-10.4673
▁kanun	-10.4674
▁fa	-10.4681
▁rüya	-10.4682
▁küme	-10.4684
▁dua	-10.4684
▁bayan	-10.4685
▁yerin	-10.4686
▁inancı	-10.4691
ill	-10.4691
▁Veya	-10.4695
▁oluş	-10.4701
▁tarafa	-10.4707
▁hastaların	-10.4711
▁Kore	-10.4711
▁sisteme	-10.4714
▁yapmam	-10.4714
harles	-10.4715
▁sona	-10.4718
▁ayda	-10.4725
▁düzelt	-10.4728
▁Gel	-10.473
▁gelenek	-10.4732
leştirilmiş	-10.4734
▁duyduğumuz	-10.4735
▁girer	-10.4736
▁eğri	-10.4737
▁ilgisi	-10.4739
▁hastalıkları	-10.4746
▁edilme	-10.4747
ımızın	-10.475
▁çevresinde	-10.4751
▁açığ	-10.4763
madı	-10.4766
▁azalt	-10.4766
▁açı	-10.4768
▁doktorlar	-10.4769
▁yönet	-10.477
▁kitapları	-10.4784
▁şart	-10.4784
▁ötesin	-10.4785
▁v	-10.4785
▁işini	-10.4802
▁Bil	-10.4807
▁tarama	-10.481
▁başlayacak	-10.481
▁versiyonu	-10.4812
▁söyleyecek	-10.4812
▁uğra	-10.4815
▁aldığım	-10.4815
▁ayn	-10.4818
▁kullanabileceği	-10.4818
▁iniş	-10.4819
▁gazeteci	-10.4822
▁obje	-10.4827
▁sok	-10.4835
▁kasaba	-10.4835
▁klasik	-10.4837
▁modeller	-10.4839
▁hepsinin	-10.484
irken	-10.484
▁sinyal	-10.4846
ğu	-10.4846
ara	-10.4846
▁pazarlama	-10.4852
▁gidebilir	-10.4857
▁liderler	-10.4857
ck	-10.4858
▁varlığı	-10.4871
▁düşünüyorsunuz	-10.4871
apon	-10.488
etti	-10.488
▁sorgu	-10.4881
▁yazarı	-10.4884
▁türleri	-10.4887
▁kaçınılmaz	-10.4891
▁bal	-10.4891
▁dördüncü	-10.4891
▁koyun	-10.4892
▁seferinde	-10.4896
▁direkt	-10.4896
▁çağ	-10.4899
▁sistemimiz	-10.49
▁takımı	-10.49
▁sıcaklık	-10.4901
▁durdur	-10.4903
▁güvenliği	-10.491
▁tutan	-10.4911
▁noktaları	-10.4911
▁nüfusun	-10.4915
▁düşünür	-10.4916
ğe	-10.4919
raf	-10.4921
▁dinleme	-10.4922
esi	-10.4924
▁küre	-10.4926
▁duyuyor	-10.493
acaba	-10.4934
▁yay	-10.4942
▁üyesi	-10.4942
▁aileler	-10.4943
▁kaza	-10.4944
ick	-10.4948
▁sar	-10.4949
▁çalışanları	-10.4952
▁özgün	-10.4955
▁tanıdık	-10.4958
▁hediye	-10.4965
▁müziği	-10.4972
▁açar	-10.4973
▁Evren	-10.4976
▁gülüşmeler	-10.498
▁ötürü	-10.498
▁Obama	-10.498
▁gördünüz	-10.498
▁kurgu	-10.4981
▁yapılacak	-10.4981
yıllardır	-10.4992
▁geçtik	-10.4994
▁vaka	-10.4995
▁kuruyor	-10.4995
▁Kan	-10.4996
▁kimlik	-10.5001
▁açan	-10.5001
▁fotoğrafları	-10.5006
nüz	-10.5007
▁ayakkabı	-10.5009
▁oranları	-10.5015
and	-10.5016
▁bildiğim	-10.502
sıl	-10.5022
tra	-10.5022
rerek	-10.5022
▁istediğini	-10.5023
▁lisans	-10.5024
▁tekne	-10.5027
▁detay	-10.5028
▁kalın	-10.5031
▁dosya	-10.5034
▁sokak	-10.5036
▁gelmesi	-10.504
▁keşfetmek	-10.5047
▁Çalışma	-10.505
▁geride	-10.505
▁şimdiki	-10.5061
▁ayna	-10.5067
▁şahit	-10.507
▁ayrıntı	-10.507
▁iPhone	-10.507
▁kızın	-10.5071
▁biridir	-10.5071
▁düzey	-10.5072
▁adil	-10.5073
▁git	-10.5078
▁istiyorsunuz	-10.5079
▁vs	-10.5079
▁konuştuk	-10.508
▁oturan	-10.5081
▁olunca	-10.5086
▁öncesi	-10.5086
▁giderken	-10.5088
rü	-10.5093
▁haftada	-10.5093
▁uça	-10.5099
▁çiftlik	-10.5101
▁bakteriler	-10.5102
▁tümör	-10.5105
▁öğrenir	-10.5112
▁etkisini	-10.5113
▁mıydı	-10.5113
▁buluyor	-10.5117
▁İn	-10.512
lerimize	-10.512
▁nesli	-10.5124
▁zinciri	-10.5125
▁çekildi	-10.5126
▁kızım	-10.5128
▁çıkacak	-10.5131
▁Senin	-10.5132
▁tüketici	-10.5139
▁gücün	-10.514
▁yavru	-10.5142
▁kendisinin	-10.5143
▁kadınları	-10.5149
yacağım	-10.515
▁imk	-10.5151
▁alış	-10.5154
▁tanrı	-10.5157
▁Kadınlar	-10.5157
▁mağaza	-10.5161
▁market	-10.5161
▁limit	-10.5161
▁tatmin	-10.5162
▁Açıkça	-10.5163
▁ücretsiz	-10.5163
miştir	-10.5169
▁olduğunun	-10.5171
▁Böylelikle	-10.5171
▁alınan	-10.5175
▁sera	-10.5175
▁gençler	-10.518
▁farklılık	-10.5182
lanacak	-10.5183
▁aldılar	-10.5183
▁buluş	-10.5186
▁olursunuz	-10.519
▁çöz	-10.5192
▁haberi	-10.5199
▁vadede	-10.52
▁belir	-10.5201
▁anlar	-10.5204
▁keşfettik	-10.5208
▁kararlar	-10.5209
▁sorusu	-10.521
▁ettiğiniz	-10.5212
▁doğdu	-10.5213
▁yürüyüş	-10.5217
▁kendisine	-10.5227
▁evi	-10.5228
▁yazılmış	-10.5228
▁Yıllar	-10.5231
▁sistemine	-10.5236
▁yetersiz	-10.5239
▁sürecin	-10.5241
▁Mu	-10.5244
▁görüntüsü	-10.5246
▁göğüs	-10.5253
▁kalabalık	-10.5253
▁hidrojen	-10.5253
▁resimde	-10.5254
▁sektör	-10.5255
▁başlamıştı	-10.5258
▁ikisini	-10.5265
▁kalem	-10.5269
▁bulunur	-10.5271
▁Sana	-10.5273
▁yapmaları	-10.5273
▁topu	-10.5275
▁tanış	-10.5281
▁duymak	-10.5284
▁vakti	-10.5284
▁sıkıntı	-10.5286
▁etmez	-10.5286
▁bırakıyor	-10.5291
▁aday	-10.5291
▁üstü	-10.5294
▁insanlığın	-10.5294
▁modelleri	-10.5294
▁araştırmacı	-10.5297
▁görüşü	-10.5303
abileceğini	-10.5304
▁başlay	-10.5306
ledi	-10.5308
duğunu	-10.5308
▁istekli	-10.5309
▁parçasını	-10.5312
▁mahkum	-10.5314
▁çocukken	-10.5314
meyecek	-10.5325
▁Kendimi	-10.533
▁soruyor	-10.5331
▁edilir	-10.5331
▁nüfusunu	-10.5331
▁öğrencilerin	-10.5334
▁aktar	-10.5336
nizle	-10.5337
▁makineler	-10.5338
▁keşfed	-10.5339
▁alıyorlar	-10.5343
▁boz	-10.5345
▁Kötü	-10.5345
▁garanti	-10.5345
▁futbol	-10.5345
▁Ardında	-10.5346
▁düşünelim	-10.5346
▁bitirmek	-10.5346
ola	-10.5348
▁tamir	-10.5349
ly	-10.535
sıdır	-10.535
▁taşıyan	-10.5351
▁göze	-10.5352
▁kutup	-10.5355
▁olacaklar	-10.5363
imize	-10.5364
ğını	-10.5365
▁potansiyeli	-10.537
▁geçtiğimiz	-10.5379
▁dersiniz	-10.5381
lıkla	-10.5384
leyecek	-10.5385
rma	-10.5386
▁kaynaklı	-10.5388
▁deneyi	-10.5394
▁karşılaş	-10.5395
▁teknolojiye	-10.5408
▁yüzünü	-10.5409
▁ölümün	-10.541
▁yaklaş	-10.5411
▁As	-10.5411
▁söylemeye	-10.5421
▁yeme	-10.5432
amayız	-10.5434
sta	-10.5435
▁yirmi	-10.5438
▁Pakistan	-10.5439
▁olumsuz	-10.5439
▁eğit	-10.5439
▁geçici	-10.5443
▁dinlemek	-10.5448
▁üretimi	-10.5457
▁geldiler	-10.5457
▁Devletleri	-10.5469
▁ilkel	-10.5469
▁bar	-10.5472
▁operasyon	-10.5474
ğünü	-10.5474
▁Du	-10.5475
▁zararlı	-10.548
▁uyarı	-10.548
▁sahnede	-10.5483
▁hayvanları	-10.5484
layın	-10.5486
▁oğlu	-10.5488
▁sahipti	-10.5488
▁re	-10.549
▁hizmetleri	-10.5497
ag	-10.5498
▁binalar	-10.5498
cilik	-10.55
▁görebilir	-10.5501
▁ölçek	-10.5503
▁yoldan	-10.5505
▁BM	-10.5506
▁çöl	-10.5508
▁g	-10.5514
ilmesi	-10.5515
▁Ber	-10.5516
▁çözümü	-10.5516
olog	-10.5518
kal	-10.552
▁durdu	-10.5522
▁vermiş	-10.5527
▁öneri	-10.5529
▁kavram	-10.5531
larımdan	-10.5532
▁fil	-10.5535
▁Nerede	-10.5535
▁kazanmak	-10.5536
▁gerçekleşen	-10.5536
▁öğreniyor	-10.5539
▁restoran	-10.5541
▁görebileceğiniz	-10.5543
▁konum	-10.5546
▁köle	-10.5551
▁içer	-10.5553
ket	-10.5554
▁başlat	-10.5557
▁tanesini	-10.5564
▁önde	-10.5566
▁senaryo	-10.5566
▁birileri	-10.5568
ınca	-10.5569
▁anlayışı	-10.557
▁işlerin	-10.5571
▁içeriyor	-10.5575
▁dayanıklı	-10.559
▁kaybetme	-10.5591
▁Mc	-10.5591
les	-10.5592
▁genom	-10.5594
▁gölge	-10.5594
▁iyisi	-10.5598
▁İsveç	-10.5601
▁getirdik	-10.5609
▁çalışmanın	-10.5611
▁nehir	-10.5611
lim	-10.5612
eh	-10.5617
▁zihni	-10.5621
▁faaliyet	-10.5624
▁çizim	-10.5627
▁tecavüz	-10.5628
▁Apple	-10.5628
lması	-10.5631
▁Beyaz	-10.5631
▁saatler	-10.5634
▁Paris	-10.5635
▁zirve	-10.5637
▁kılan	-10.5638
▁enfeksiyon	-10.5639
layabilir	-10.5639
▁Davi	-10.564
▁amacıyla	-10.5648
▁üretiyor	-10.5649
manın	-10.565
ack	-10.5653
▁koyduk	-10.5657
▁mektup	-10.5663
▁çeşitlilik	-10.5666
▁projenin	-10.5666
▁başlayabilir	-10.5667
▁kapan	-10.5671
▁zorundaydı	-10.5674
▁teorisi	-10.5675
▁Çevre	-10.5676
▁doğrusu	-10.5676
▁Kaç	-10.5676
▁dağıt	-10.5678
▁internette	-10.5678
▁algılama	-10.5681
ırlar	-10.569
▁sunum	-10.5694
▁balıkları	-10.5696
▁deme	-10.5699
▁Amerikalılar	-10.5701
▁etiket	-10.5705
▁öncelikle	-10.5707
▁kalanı	-10.5707
▁sil	-10.5712
▁demiş	-10.5715
▁üstün	-10.5723
rancisco	-10.5725
ris	-10.5728
▁bölgesi	-10.573
▁uyumlu	-10.573
▁birey	-10.5731
▁çip	-10.5733
▁verdiğim	-10.5736
▁hikayeleri	-10.5736
▁döneminde	-10.574
▁Steve	-10.574
▁derdi	-10.5747
▁kaybetti	-10.575
▁yönetme	-10.576
▁seviyesi	-10.5765
▁mantık	-10.577
▁hakim	-10.577
▁oyunları	-10.5772
▁Gi	-10.5777
▁hayatımda	-10.578
▁puan	-10.5781
ebilen	-10.5782
▁yapabileceğimiz	-10.5785
▁kavramı	-10.5787
sızın	-10.5788
▁beğen	-10.5792
▁yazıcı	-10.5797
lüm	-10.5801
ğında	-10.5807
▁buzul	-10.581
▁Hepiniz	-10.5814
▁çanta	-10.5818
▁büyüklüğünde	-10.5818
ff	-10.5818
acağımız	-10.5821
▁Michael	-10.5821
▁protesto	-10.5821
▁çocuğa	-10.5821
▁tavuk	-10.5822
▁animasyon	-10.5822
▁bilen	-10.5824
▁yaratıcılık	-10.5824
▁savaşta	-10.5825
▁teki	-10.5826
▁ilerliyor	-10.5827
▁gelmiyor	-10.5827
▁Gu	-10.5829
▁istey	-10.5835
▁ilgilidir	-10.5839
▁Esas	-10.5846
▁Baba	-10.5852
▁durur	-10.5853
▁üste	-10.5856
▁türde	-10.5857
▁değiştirecek	-10.5862
▁çalışıyordum	-10.5864
▁söyledikleri	-10.5872
▁karşılaştı	-10.5872
▁yoksul	-10.5872
▁düşer	-10.5874
▁ilerleye	-10.5878
▁geçirdi	-10.5888
▁oyunun	-10.589
▁izlemek	-10.5902
▁Am	-10.591
manyetik	-10.5919
▁ölümcül	-10.592
▁belirgin	-10.592
▁kablosuz	-10.592
▁boru	-10.5921
ayet	-10.5923
▁yetenek	-10.5925
▁başladığı	-10.5925
▁telefonları	-10.5925
▁grubun	-10.5928
kla	-10.5929
▁hadi	-10.593
▁katılma	-10.5936
▁anlatmaya	-10.5938
▁sayısını	-10.594
▁uzan	-10.594
kür	-10.594
▁programları	-10.5941
▁olmalıyız	-10.5943
layabiliriz	-10.5944
▁gönderme	-10.5946
▁genişlet	-10.5947
▁heyecanlı	-10.5947
ası	-10.5948
▁olanları	-10.5952
▁simetri	-10.5952
▁Hasta	-10.5953
cik	-10.5955
▁maaş	-10.5956
▁atma	-10.5957
▁gözle	-10.5967
▁kurulu	-10.5971
▁sürme	-10.5971
▁Gece	-10.5974
▁etmesini	-10.5977
▁atmak	-10.5986
süz	-10.5988
▁etmişti	-10.5988
▁meme	-10.5995
▁Hu	-10.6001
ınızı	-10.6002
yorsunuz	-10.6003
▁düşünmemiz	-10.601
▁hasar	-10.6017
▁You	-10.6018
▁Thomas	-10.6019
▁toplumu	-10.6021
▁fırtına	-10.6021
▁umuyorum	-10.6024
▁ulaş	-10.6026
▁yaşamış	-10.605
▁kullanmayı	-10.6052
▁rolü	-10.6054
▁açıklamak	-10.6055
▁inceleme	-10.6059
▁denk	-10.606
▁oturma	-10.6065
▁seçimler	-10.6066
▁diyecek	-10.6068
meden	-10.6074
evi	-10.6077
bilir	-10.6077
▁kaldık	-10.6078
▁bekle	-10.6081
▁biçim	-10.6084
▁konuşmalar	-10.6085
ov	-10.6092
▁şekillerde	-10.6093
▁kaydı	-10.6097
atin	-10.6097
▁gelmez	-10.6099
by	-10.6101
▁kabile	-10.6107
▁üretken	-10.6108
meyen	-10.611
▁muhtemel	-10.611
keresinde	-10.6113
▁söylen	-10.6114
▁röportaj	-10.6119
▁büyü	-10.612
▁millet	-10.612
ikir	-10.6121
ladığı	-10.6122
▁düşünerek	-10.6122
▁konuşurken	-10.6124
rnek	-10.6124
▁görür	-10.6126
lüyor	-10.6127
▁terör	-10.6127
▁yönünde	-10.6127
ımın	-10.6129
▁c	-10.613
▁denir	-10.613
▁değişen	-10.6132
▁başar	-10.6133
▁istiyorsak	-10.6134
▁Bildiğin	-10.6135
▁yaşan	-10.6135
▁okumak	-10.6157
▁uzunluğunda	-10.6158
▁sonuc	-10.6159
gar	-10.616
▁anti	-10.6163
ucu	-10.6165
▁dersi	-10.6169
▁Ek	-10.6172
▁kalıp	-10.6177
▁posta	-10.6178
▁yönü	-10.6178
ehir	-10.6182
▁yapımı	-10.6185
▁tüket	-10.6185
ester	-10.6186
▁yaşlanma	-10.6206
▁hayatımızı	-10.6207
ebilirim	-10.621
arı	-10.6211
▁çalışmıyor	-10.6214
▁noktasında	-10.6215
▁gri	-10.6218
▁pompa	-10.622
▁bağışıklık	-10.622
ks	-10.622
▁yaşta	-10.6221
▁çelişki	-10.6223
▁istatistik	-10.6224
▁es	-10.6225
▁siyaset	-10.6225
▁yaklaşımı	-10.6226
▁hap	-10.6226
▁edilemez	-10.6227
▁ülkeleri	-10.6227
▁Burda	-10.6228
▁çalışıyordu	-10.6229
▁İz	-10.623
ja	-10.6231
▁olmalıydı	-10.6232
▁seyirci	-10.6243
▁tık	-10.6243
▁gelmeye	-10.6244
▁mantar	-10.6247
▁başla	-10.6251
▁niye	-10.6259
▁odadaki	-10.626
▁görüntüleme	-10.6266
▁erişimi	-10.6267
▁tutun	-10.6268
▁geleceğ	-10.6271
▁olmazdı	-10.6272
▁davranışı	-10.6273
▁kazanan	-10.6273
▁yarattık	-10.6275
▁topluma	-10.6278
▁onlarca	-10.6281
▁okyanusun	-10.6282
▁Seni	-10.6285
▁artışı	-10.6286
▁seviyesinde	-10.6289
▁demişti	-10.6293
▁bakabilir	-10.6295
▁Kal	-10.6306
▁biten	-10.631
▁olabilirler	-10.6312
ymış	-10.6312
lme	-10.6316
mayacak	-10.6318
▁efsane	-10.6322
▁çamaşır	-10.6322
▁nasil	-10.6322
▁roket	-10.6322
▁söylemeliyim	-10.6322
▁geliyorlar	-10.6323
▁açlık	-10.6323
▁yollarını	-10.6323
▁desteği	-10.6323
▁karşılıklı	-10.6323
▁ilişkin	-10.6325
▁bekleyen	-10.6328
lıkta	-10.6328
▁sap	-10.6328
▁çıkart	-10.633
siydi	-10.6332
▁yapıyordu	-10.6332
▁özgürlüğü	-10.6334
▁olasılığı	-10.6336
▁detaylı	-10.634
▁ağzı	-10.6347
▁boşluk	-10.635
▁edebileceğiniz	-10.6354
▁Mary	-10.6355
▁evinde	-10.6356
ymiş	-10.6364
▁yürüy	-10.6367
▁algoritma	-10.6376
▁Tur	-10.6377
▁ilgilen	-10.6377
rat	-10.6378
▁gövde	-10.6389
▁yerli	-10.6402
ğimiz	-10.6408
▁mühendisliği	-10.6409
▁arıyor	-10.6417
dığınızda	-10.642
▁kurtul	-10.6421
ütfen	-10.6424
▁dunya	-10.6425
▁bayağı	-10.6425
▁kardeşi	-10.6426
düğü	-10.6428
▁yolun	-10.6432
ebileceğiniz	-10.6432
▁öğrencileri	-10.6432
▁yaparız	-10.6433
▁inanıyoruz	-10.6433
▁egzersiz	-10.6434
▁grip	-10.6435
▁Oyun	-10.6436
EO	-10.6438
▁değiştirir	-10.6439
dığınız	-10.644
▁ekonomisi	-10.6445
▁Enstitüsü	-10.6446
▁okudum	-10.6447
▁çocuklarımız	-10.6448
mizle	-10.6453
▁söyleyeceğim	-10.6461
abilirim	-10.6462
▁günler	-10.6462
▁ruhu	-10.6469
▁merdiven	-10.6469
▁evrende	-10.6469
▁Ana	-10.6472
▁öğrenmeye	-10.6474
▁öncesinde	-10.6479
▁doldur	-10.6479
▁harf	-10.6487
▁savaşa	-10.6487
▁doğan	-10.6488
▁evlilik	-10.6488
▁istemedi	-10.649
▁görülme	-10.6491
▁kuşlar	-10.6492
▁bilgisayarın	-10.6494
▁ş	-10.6495
▁odaklanma	-10.6496
▁atar	-10.6499
▁bahseder	-10.6502
▁sorum	-10.6509
▁eğilim	-10.6513
▁yaşar	-10.6524
▁getirecek	-10.6525
▁yıldızlar	-10.6526
▁kavga	-10.6529
▁durup	-10.6533
▁yarısını	-10.6535
▁kayda	-10.6541
▁farketme	-10.6541
▁kitabın	-10.6541
▁ah	-10.6543
▁Ara	-10.6549
▁genelinde	-10.6553
▁ekosistem	-10.6557
▁Park	-10.6557
▁edersek	-10.6561
▁Tahmin	-10.6561
▁veriyorum	-10.6565
▁başım	-10.6566
▁Sta	-10.6567
▁resimleri	-10.6575
▁olurlar	-10.658
▁Tanı	-10.6583
▁pratik	-10.6583
▁tuttu	-10.6584
▁arabanın	-10.6584
▁yığın	-10.6587
▁üye	-10.6588
▁başardık	-10.6595
▁Art	-10.6599
riyoruz	-10.6601
▁belirsiz	-10.6603
▁özellik	-10.6605
▁gittiği	-10.6608
▁uğraş	-10.6608
klerini	-10.661
cük	-10.6612
▁ebeveyn	-10.6612
▁Ni	-10.6612
▁dışındaki	-10.6617
▁milli	-10.6625
maları	-10.6627
▁ülkedeki	-10.663
▁yaşı	-10.6632
▁Doktor	-10.6633
▁çirkin	-10.6634
▁pembe	-10.6634
▁protez	-10.6634
▁dönelim	-10.6635
▁kızların	-10.6636
▁vereyim	-10.6636
▁aletler	-10.6637
▁gerçekleşiyor	-10.664
üstü	-10.6641
▁açmak	-10.6642
▁sürücü	-10.6646
▁bakıyoruz	-10.6649
▁gücüne	-10.665
▁oturur	-10.6652
▁yil	-10.6652
▁gittiğimde	-10.6656
20	-10.6656
lamaz	-10.6658
▁götürdü	-10.6659
▁tanımı	-10.6672
▁saha	-10.6673
▁problemin	-10.6674
qu	-10.6675
ity	-10.6681
▁gerçekleşti	-10.6683
▁oynar	-10.6687
▁gerçekliği	-10.6693
▁değiştirmeye	-10.6697
▁damla	-10.6701
▁eli	-10.6703
▁yaşadığım	-10.6704
▁oynamak	-10.6704
▁işlemi	-10.6706
▁şirketin	-10.6707
▁Kara	-10.6715
▁uzat	-10.6715
▁yazıyor	-10.6716
▁tohum	-10.672
▁avcı	-10.6721
▁yapabilme	-10.6727
ıyorum	-10.6731
▁haberleri	-10.6736
▁büyür	-10.6738
▁nesneler	-10.6739
▁frekans	-10.674
▁Alzheimer	-10.6741
▁hariç	-10.6741
▁kompleks	-10.6741
▁şikayet	-10.6741
▁koruyucu	-10.6741
▁kafatası	-10.6741
▁şiddetli	-10.6742
lenir	-10.6742
ebileceğini	-10.6746
▁seçimi	-10.6747
▁bariz	-10.675
▁dönen	-10.6754
▁verebilir	-10.6754
▁bulabilir	-10.6757
altı	-10.6759
▁gid	-10.676
▁baz	-10.6764
▁Dur	-10.6771
oo	-10.6773
▁kazı	-10.6775
▁arkasındaki	-10.6776
▁yaptır	-10.6776
ktir	-10.6777
▁finans	-10.6785
▁etrafındaki	-10.6786
▁türler	-10.6786
▁korkuyor	-10.6788
▁maden	-10.6794
▁1,	-10.6796
yip	-10.6799
▁iyileşme	-10.6799
▁Birliği	-10.68
▁düşme	-10.6802
▁düşünüyordu	-10.6807
▁biliyorlar	-10.6817
yorlar	-10.6826
▁katıl	-10.6828
ligi	-10.683
▁büyüklüğü	-10.6832
▁kalmıyor	-10.6834
▁anket	-10.6838
▁engeller	-10.6839
▁ismini	-10.6842
▁elini	-10.6845
▁planlama	-10.6845
▁faydalan	-10.6848
▁kılavuz	-10.6848
▁çıplak	-10.6848
▁şarap	-10.6848
▁Boston	-10.6848
▁olabildiğin	-10.6849
ulmuş	-10.6851
▁yoksulluk	-10.6853
▁fi	-10.6855
▁amaçlı	-10.6857
▁ağacı	-10.6862
▁gizem	-10.6863
▁Hangi	-10.6863
▁edebilecek	-10.6867
▁ağlar	-10.6867
▁gizemli	-10.6868
▁aşık	-10.6869
▁kullandı	-10.687
▁bulunduğumuz	-10.6873
▁çelik	-10.688
▁gidiyoruz	-10.6882
▁işle	-10.6887
▁çoğumuz	-10.6888
şı	-10.6892
▁neşe	-10.6892
▁meselesi	-10.6901
▁eyalet	-10.6903
▁içme	-10.6908
▁katlan	-10.6912
ami	-10.6917
çiler	-10.6918
▁hayali	-10.692
▁mülteci	-10.6926
▁zar	-10.6927
▁geliştirdik	-10.6928
▁sınıfta	-10.6929
▁Bende	-10.693
▁gösterecek	-10.6934
▁güvende	-10.6935
▁dost	-10.6937
▁ihtimal	-10.6938
▁nüfusu	-10.6943
▁bölgelerinde	-10.6949
ceği	-10.695
▁tırman	-10.6952
▁çeşitliliği	-10.6953
▁nano	-10.6954
mla	-10.6955
▁yaşıyorlar	-10.6956
iyorsunuz	-10.6957
▁uzağ	-10.6957
▁global	-10.6957
▁yumuşak	-10.6957
▁Higg	-10.6957
▁keskin	-10.6957
▁göreceğiz	-10.6957
▁pasif	-10.6957
yacağını	-10.6958
▁Kral	-10.696
▁kayded	-10.6961
▁Mavi	-10.6962
duğu	-10.6965
▁duyuyorum	-10.6966
▁yaparsınız	-10.6967
▁şehirlerde	-10.6967
▁gerçekçi	-10.6967
▁kötüsü	-10.6968
▁başkalarının	-10.697
▁Eve	-10.697
▁etkiliyor	-10.697
▁Kafa	-10.6971
▁geleceğini	-10.6974
▁geçirir	-10.6975
▁suda	-10.6976
▁görüntüleri	-10.6977
▁zamanki	-10.6982
▁Mon	-10.6989
▁canlandır	-10.6992
▁Birinci	-10.6998
imdiye	-10.6998
▁tabaka	-10.7001
manız	-10.7004
▁yazmak	-10.701
niversite	-10.7012
müz	-10.7013
▁belirt	-10.7013
▁Ab	-10.7015
ise	-10.7016
▁uygulan	-10.7018
unuz	-10.7021
▁karşılaşma	-10.7022
▁onur	-10.7023
▁kartı	-10.7028
▁pat	-10.703
miyoruz	-10.7036
▁vazgeç	-10.7038
▁Gün	-10.7053
▁Gelecek	-10.7055
▁durumlar	-10.7057
▁tasarımcılar	-10.7058
▁boyutu	-10.7059
▁direk	-10.7063
▁Pasifik	-10.7067
▁Yeşil	-10.7067
▁gübre	-10.7067
▁İklim	-10.7067
▁itiraf	-10.7067
▁mutasyon	-10.707
▁diyebiliriz	-10.7073
asyonu	-10.7074
▁hatırlama	-10.7074
▁tavan	-10.7076
▁benzin	-10.7076
▁keşfetme	-10.7079
lisiniz	-10.7086
▁artır	-10.709
▁çoklu	-10.7094
▁gelişimi	-10.71
▁ülkeye	-10.71
▁derken	-10.7102
▁fikrin	-10.7104
▁çekilmiş	-10.7105
▁koydum	-10.7106
▁havaya	-10.7108
▁Pa	-10.7109
▁üyeleri	-10.7128
▁istediler	-10.7129
▁aşkın	-10.713
▁etmeniz	-10.7133
▁işareti	-10.7133
▁dönmek	-10.7134
▁öğretme	-10.7134
▁devamlı	-10.7134
▁söylüyorlar	-10.7136
abiliyoruz	-10.7137
▁kuvvetli	-10.7137
▁yönetimi	-10.7138
▁dönüm	-10.714
liler	-10.7141
▁araştır	-10.7144
▁derler	-10.7152
▁bilin	-10.7159
▁taşındı	-10.716
▁sorar	-10.7161
▁inanıyor	-10.7161
▁bahsetme	-10.7162
labilirsiniz	-10.7164
▁görünüyordu	-10.7169
▁çözmeye	-10.7169
▁almayı	-10.7172
▁Gülüş	-10.7173
▁Per	-10.7176
▁sürpriz	-10.7178
▁endüstriyel	-10.7178
▁deprem	-10.7178
▁cazibe	-10.7178
▁oturdu	-10.718
▁gösterilen	-10.718
▁utanç	-10.718
▁Peter	-10.7181
▁anlatır	-10.7183
▁sola	-10.7183
▁kent	-10.7185
▁görebiliyoruz	-10.7187
▁Kongre	-10.7187
▁dalış	-10.719
imizde	-10.719
▁sevdikleri	-10.7191
▁azaltma	-10.7192
oy	-10.7195
▁açıp	-10.7195
▁temin	-10.7195
▁Yaptığımız	-10.7197
▁sırt	-10.72
▁baylar	-10.7201
▁otel	-10.7203
▁Milletler	-10.7207
▁kazanıyor	-10.7208
▁şehirlerin	-10.7214
aka	-10.7215
▁örgüt	-10.7217
▁of	-10.7219
▁çarpma	-10.7224
▁varmış	-10.7225
▁koca	-10.7225
ney	-10.7226
▁sağladığı	-10.7232
▁kurtarmak	-10.7233
larımın	-10.7234
▁kalitesi	-10.7253
▁boyutta	-10.7254
▁harcay	-10.7254
ıyorsunuz	-10.7258
▁oluştu	-10.726
▁terörist	-10.7262
▁büyüyor	-10.7267
▁kalmadı	-10.7271
nizden	-10.7273
▁mobil	-10.7273
▁düşüş	-10.7273
▁pilot	-10.7274
▁yapabileceği	-10.7277
▁karbondioksit	-10.7277
▁arar	-10.7279
▁vizyon	-10.7281
▁Kısa	-10.7283
▁ağın	-10.7284
▁oluşturduk	-10.7288
▁motivasyon	-10.729
▁beklenmedik	-10.729
▁örümcek	-10.729
▁sanmıyorum	-10.729
▁fotograf	-10.729
▁mısır	-10.7291
abi	-10.7291
▁ispat	-10.7293
▁edeceğiz	-10.7296
▁oluruz	-10.7296
▁demir	-10.7298
▁soyu	-10.7299
▁başlattı	-10.7307
▁aşağıda	-10.731
▁biliyordu	-10.7311
▁babamın	-10.7311
▁küçü	-10.7312
▁esnek	-10.7316
▁istersiniz	-10.7317
▁bebekler	-10.7323
▁eksikliği	-10.733
ğini	-10.7331
▁bulup	-10.7332
müyor	-10.7338
▁Görüyorsun	-10.7342
reye	-10.7347
▁olmalıdır	-10.7347
▁Alan	-10.7348
▁yapıldığını	-10.7348
▁azalma	-10.7352
▁kalk	-10.7354
▁değişir	-10.7356
▁konularda	-10.7362
ışını	-10.7363
▁yönlendir	-10.7367
▁ba	-10.737
▁ışığın	-10.7372
▁varlığını	-10.7374
▁birçoğu	-10.7375
dığımda	-10.7378
▁yönel	-10.7383
▁the	-10.7384
▁kamyon	-10.7387
▁hisse	-10.7393
▁oldugunu	-10.7394
çu	-10.7395
▁hücrelerini	-10.7398
▁inanmak	-10.7399
▁kurban	-10.74
ladım	-10.7403
▁istisna	-10.7404
▁orkestra	-10.7404
▁radyasyon	-10.7404
▁intihar	-10.7404
▁tedarik	-10.7404
▁tarayıcı	-10.7404
▁meşhur	-10.7404
▁gereği	-10.7404
▁alkol	-10.7404
▁izleyen	-10.7405
▁oluşturdu	-10.7405
▁kullanışlı	-10.7406
acağımızı	-10.7406
▁konuşur	-10.7409
▁slayt	-10.741
▁ellerinde	-10.741
▁yapılabilir	-10.7411
▁Kısaca	-10.7411
▁olgu	-10.7416
▁önemsiz	-10.7417
▁çılgınca	-10.742
▁açıkçası	-10.742
▁metin	-10.7424
▁orası	-10.7429
▁yapıyorsunuz	-10.7431
▁gelişti	-10.7433
▁yetenekleri	-10.7445
▁şanslı	-10.7447
▁buradayım	-10.7448
▁sunmak	-10.7448
diğinizde	-10.7448
▁Hint	-10.745
▁oynay	-10.7452
Tub	-10.7457
▁yürüme	-10.746
▁Martin	-10.7462
▁mühendis	-10.7463
▁etraf	-10.7464
▁eşim	-10.7469
▁çıkması	-10.747
lidir	-10.7473
▁vermiyor	-10.7474
ll	-10.7475
▁yapacağını	-10.7476
▁ilişkili	-10.7476
▁yanındaki	-10.7484
▁sahil	-10.7485
▁öğrendiğimiz	-10.7485
▁aileleri	-10.7492
▁ilişkileri	-10.7494
▁zehir	-10.7498
▁refah	-10.7498
▁çıktık	-10.7502
▁yetenekli	-10.7503
▁orda	-10.7505
▁çalıştır	-10.7506
▁olmasından	-10.7512
▁yarın	-10.7512
▁duyduğum	-10.7513
▁beyninin	-10.7515
▁Yapma	-10.7518
iyordum	-10.7518
▁orijinal	-10.7519
▁golf	-10.7519
▁bilinmeyen	-10.7519
▁Vadisi	-10.752
▁devrimi	-10.7521
ydü	-10.7521
▁yaşıyordu	-10.7522
▁sihirli	-10.7527
▁İster	-10.753
▁hayatları	-10.7537
▁çıkarıp	-10.7537
▁pis	-10.754
inda	-10.7541
▁İçinde	-10.7542
▁verildi	-10.7546
▁yatan	-10.7554
▁başlangıçta	-10.7554
▁işlev	-10.7556
▁alması	-10.7558
▁derinden	-10.7559
▁oynuyor	-10.7568
▁örnekleri	-10.7572
amıyor	-10.7579
imde	-10.7591
▁tasarımın	-10.7592
▁tüketimi	-10.7594
▁koşullar	-10.7594
▁görebiliyor	-10.7595
▁korkma	-10.7596
▁dayanıyor	-10.7602
▁Hep	-10.7606
▁başladığımda	-10.7612
saydı	-10.7616
▁anki	-10.7616
▁benlik	-10.7617
▁hastalıkların	-10.7618
larıdır	-10.7619
▁pa	-10.762
▁istediğimi	-10.762
▁oyunlar	-10.7623
▁sıcaklığı	-10.7625
▁hatırlıyor	-10.7629
ari	-10.7631
▁jenerasyon	-10.7635
▁tartış	-10.7636
▁sekil	-10.7636
▁Eminim	-10.7637
▁online	-10.7638
▁ekibi	-10.7638
▁kararı	-10.7642
▁çekip	-10.7642
▁özür	-10.7643
emedi	-10.7646
ec	-10.7648
▁Doğal	-10.7649
▁tel	-10.765
▁taşır	-10.7655
▁tasarlamak	-10.7656
▁etken	-10.766
▁izledi	-10.7662
▁kısme	-10.7663
▁umuyor	-10.7663
▁adeta	-10.7672
sizlik	-10.7673
▁masraf	-10.7675
▁tedavisi	-10.7675
rey	-10.7678
▁gidin	-10.768
▁Asla	-10.7682
▁değişimin	-10.7682
▁kullandım	-10.7682
▁kimliği	-10.7684
▁duygular	-10.7686
▁duyduğunuz	-10.7689
yuz	-10.7689
▁ortamı	-10.7697
▁insansız	-10.7699
▁roman	-10.77
▁ekranda	-10.7702
ğümüz	-10.7708
▁danışman	-10.7708
▁taşımak	-10.7708
ane	-10.771
▁doğada	-10.7713
▁olayın	-10.7715
▁işliyor	-10.7716
▁kanı	-10.7716
▁ilan	-10.7716
uğu	-10.7717
▁biriyle	-10.7722
00.000	-10.7723
▁elma	-10.7724
▁ağaçları	-10.7727
▁ciddiye	-10.7729
liydi	-10.7738
▁tarihin	-10.7739
▁şurada	-10.7741
▁Mar	-10.7741
▁nota	-10.7741
lemeye	-10.7742
▁....	-10.7744
▁öncü	-10.7749
luğ	-10.775
aliforni	-10.7753
▁Geçtiğimiz	-10.7753
▁Süper	-10.7753
▁sebze	-10.7753
▁lazer	-10.7753
tro	-10.7753
▁Holly	-10.7755
▁kaybediyor	-10.7758
▁DH	-10.7761
▁At	-10.7765
▁olasılık	-10.7766
▁anladı	-10.7766
▁Der	-10.7769
▁hattı	-10.7771
▁cun	-10.7773
▁Birlikte	-10.7773
▁bekliyor	-10.7777
▁dönemi	-10.7778
gı	-10.7779
▁oldugu	-10.778
▁Bin	-10.7781
▁yaptığımı	-10.7784
▁olacağına	-10.7785
▁Sır	-10.7788
▁yapmıştı	-10.7789
▁liderleri	-10.7789
▁yazan	-10.7794
masına	-10.7794
▁yetki	-10.7795
▁çevirme	-10.7801
▁içeriği	-10.7806
ilecek	-10.7808
▁yürüyor	-10.781
▁entegr	-10.782
▁isterdi	-10.7821
▁kuruluşları	-10.7822
don	-10.7823
▁olmayabilir	-10.7823
▁hastası	-10.7827
▁yapmasını	-10.7829
▁Bur	-10.7829
▁yiy	-10.7831
ray	-10.7831
▁aramak	-10.7832
▁sevme	-10.7832
▁böcekler	-10.7833
az	-10.784
▁isteği	-10.7841
▁çalışacak	-10.7842
▁don	-10.7842
▁mutsuz	-10.7843
▁verip	-10.7847
▁sinek	-10.7849
▁organizmalar	-10.7851
▁Yıl	-10.7858
▁gazı	-10.7858
▁boyut	-10.7864
▁kalırsa	-10.7868
▁sezgi	-10.7868
▁denklem	-10.7869
▁akademi	-10.7872
▁kemiği	-10.7872
▁yepyeni	-10.7872
▁vesaire	-10.7872
▁portre	-10.7872
▁yangın	-10.7872
▁insandan	-10.7874
▁otizm	-10.7875
▁aktivist	-10.7878
▁metafor	-10.7879
▁kazanç	-10.7881
▁kalbi	-10.7886
ğü	-10.7887
▁korunma	-10.7889
▁alabilirsiniz	-10.7891
▁düşünmüştü	-10.7893
▁Dünyayı	-10.7894
emezsiniz	-10.7897
▁geçecek	-10.7898
▁zehirli	-10.7902
▁Ocak	-10.7903
▁aramaya	-10.7905
mışlardı	-10.791
▁yatıyor	-10.7913
rayı	-10.7913
nter	-10.7914
▁alındı	-10.7917
▁mantığı	-10.7921
▁Devlet	-10.7922
▁ucu	-10.7929
org	-10.793
▁yapmakta	-10.7934
▁anlaşıl	-10.7934
▁başlık	-10.7934
▁stüdyo	-10.7936
▁sayıları	-10.794
▁tiyatro	-10.7943
gel	-10.7951
▁yaratıklar	-10.7953
rank	-10.7954
▁oradaydı	-10.7959
▁ulaştır	-10.7961
irler	-10.7963
unuzu	-10.7964
▁çeviri	-10.7965
▁profesör	-10.7966
▁ödülü	-10.7966
muzu	-10.7967
klarını	-10.7968
▁keyif	-10.7969
▁ayırt	-10.7972
mus	-10.7977
bur	-10.7979
▁geçirdik	-10.7981
▁saati	-10.7982
▁etik	-10.7983
▁geliş	-10.7988
▁Yunan	-10.7989
▁figür	-10.7992
▁nazik	-10.7993
▁minik	-10.7996
▁etmeliyiz	-10.7998
▁düşünürken	-10.8
▁Hareket	-10.8003
▁Kalp	-10.8004
▁alırsınız	-10.8005
▁hatırlayın	-10.801
dirler	-10.8014
▁anlamamız	-10.8014
tör	-10.8015
▁yen	-10.8017
▁temas	-10.8021
ırsanız	-10.8024
▁vücudun	-10.8024
▁kaplı	-10.8025
▁onda	-10.8029
▁maliyetli	-10.8029
▁yapabiliri	-10.8029
emeyiz	-10.8031
▁duyguları	-10.8032
▁gönderdi	-10.8034
▁Gerçekte	-10.8035
▁bebeğin	-10.8038
▁şarkısı	-10.8039
deyken	-10.8039
ebildi	-10.8041
labilir	-10.805
▁umudu	-10.8054
ras	-10.8054
▁yaşamaya	-10.8059
ford	-10.8063
lıyorlar	-10.8077
▁oluşturduğu	-10.8079
▁Halk	-10.8082
▁karmaşıklığı	-10.8085
▁Ol	-10.8087
▁sonuçlarını	-10.809
▁koydu	-10.81
nızdan	-10.8102
▁havalı	-10.8111
▁hüküm	-10.8113
▁bölümünde	-10.8113
▁yaşadı	-10.8113
▁boşluğu	-10.8114
▁ekstra	-10.8114
▁torba	-10.8114
▁şebeke	-10.8114
▁gerektirir	-10.8114
▁kaygı	-10.8114
▁ulaşılabilir	-10.8115
▁gerektiren	-10.8115
▁listesi	-10.8117
▁dikey	-10.8118
▁elinizde	-10.8119
▁sevdiği	-10.8119
▁kimi	-10.812
▁oğlum	-10.8121
▁2011	-10.8122
▁gerekecek	-10.813
▁baktığımda	-10.8132
din	-10.8134
▁programlama	-10.8137
▁yazılı	-10.8138
▁tümü	-10.814
▁atıyor	-10.815
▁dışın	-10.8152
▁kapasitesi	-10.8152
▁güçleri	-10.8152
▁türlerin	-10.8156
▁Ge	-10.8162
ğın	-10.8163
for	-10.8163
▁yapılır	-10.8165
▁yaratmaya	-10.8166
▁öğrendi	-10.8167
▁ölç	-10.8168
▁edebilmek	-10.8168
▁inek	-10.817
uza	-10.8175
▁davranışlar	-10.8177
▁çıkaran	-10.8179
▁yolcu	-10.818
▁tara	-10.8182
▁hayatımız	-10.8183
▁hızlandır	-10.8184
▁sunu	-10.8185
▁bölgeleri	-10.819
▁cihazları	-10.8191
▁öner	-10.8194
laştırma	-10.8196
▁devletin	-10.8197
▁vermesi	-10.8198
▁ekonominin	-10.8201
acaksınız	-10.8202
▁çağında	-10.8202
▁alkış	-10.8203
▁elektron	-10.8211
▁girmek	-10.8213
▁karşılaştırma	-10.8214
anne	-10.8214
▁felsefe	-10.8215
▁farklılıklar	-10.8216
leyebilir	-10.8219
▁Dikkat	-10.8227
▁harcadı	-10.8231
▁yaşlarında	-10.8232
▁geçmişi	-10.8234
▁yatır	-10.8234
luslararası	-10.8236
▁travma	-10.8236
▁etmekte	-10.8236
▁Pazar	-10.8237
▁belediye	-10.8238
▁torunları	-10.8238
▁Modern	-10.8238
▁Kutbu	-10.8238
▁kapsamlı	-10.8238
▁sevimli	-10.8238
▁ısrar	-10.8238
▁hatırlar	-10.8238
▁optik	-10.8238
▁perde	-10.8239
▁destekleyen	-10.8239
▁kurumsal	-10.8241
▁kentsel	-10.8242
▁tekniği	-10.8242
▁temeli	-10.8242
▁kendiliğinden	-10.8244
▁yayılan	-10.8244
▁girdim	-10.8248
▁aptalca	-10.825
▁sag	-10.825
▁olmalısınız	-10.8254
▁şaşır	-10.8255
lerimden	-10.8256
▁beyinde	-10.8261
▁kapak	-10.8261
▁ayağı	-10.8262
▁odası	-10.8263
of	-10.8264
BG	-10.8264
▁hakikat	-10.8266
▁ağırlık	-10.8266
vo	-10.8267
ganda	-10.8268
SA	-10.8269
▁çıkardık	-10.8269
▁sonun	-10.8272
düm	-10.8273
ürekli	-10.8274
leyip	-10.8279
▁yaşadım	-10.8279
▁şekiller	-10.8282
arkı	-10.8285
gin	-10.8287
▁Mor	-10.8287
▁bahsetti	-10.8288
▁bozuk	-10.8294
▁yanımda	-10.8298
▁yüzme	-10.8299
▁arkadaşlar	-10.83
▁gay	-10.8302
▁Kanser	-10.8302
▁yukarıda	-10.8302
▁Kat	-10.8307
▁dışarıya	-10.8308
▁okyanusta	-10.831
▁istiyordu	-10.8311
▁türün	-10.8312
▁birisini	-10.8314
▁inanan	-10.8316
▁yararlan	-10.8317
gram	-10.8321
hit	-10.8323
▁utan	-10.8325
▁ölçüm	-10.8327
▁aşamada	-10.833
▁konuşmaları	-10.8333
▁kurar	-10.8338
▁olacağım	-10.8347
▁gitmiş	-10.8347
▁Hal	-10.835
▁götürüyor	-10.8351
dırlar	-10.8354
▁sokakta	-10.8359
▁adapt	-10.8359
▁istemiyor	-10.8361
▁otomobil	-10.8363
▁inovasyon	-10.8363
iriz	-10.8363
obert	-10.8364
▁eti	-10.8366
ero	-10.8368
▁doğası	-10.8369
▁bahsed	-10.837
lendiği	-10.8373
▁yayıl	-10.8374
▁hayati	-10.8374
▁yaşanan	-10.8376
▁sade	-10.8378
▁kullanıyorum	-10.8381
▁sayılar	-10.8381
▁enerjinin	-10.8382
▁araştırmaya	-10.8383
▁düşündüğü	-10.8385
▁çıktım	-10.8391
▁Okyanus	-10.8392
▁boy	-10.8393
ğiniz	-10.8393
▁yapılma	-10.8396
▁duyduğu	-10.8396
▁uygulamalar	-10.8398
▁gezegenler	-10.8404
▁bittiğini	-10.8404
▁atmosferi	-10.8404
▁koşu	-10.8405
▁gördüğümde	-10.8405
▁yoksun	-10.8405
▁yaparsak	-10.8406
▁alanını	-10.8406
▁başladığım	-10.8406
▁ağacın	-10.8408
▁seçeneği	-10.8413
▁No	-10.8415
▁birbirimiz	-10.8416
▁anladık	-10.8416
▁bastır	-10.8417
▁biriktir	-10.8424
▁haklarını	-10.8426
▁ilgileniyor	-10.843
▁öğrenebilir	-10.843
▁endişelen	-10.8432
▁edildiği	-10.8433
▁insanla	-10.8435
▁benimse	-10.8438
▁içlerinde	-10.8441
▁yüzeyi	-10.8441
▁izleyici	-10.8443
sındaki	-10.8452
▁çocuklarını	-10.8452
▁verdikleri	-10.8454
▁filtre	-10.8457
ura	-10.8458
▁donanım	-10.8465
▁grupları	-10.847
▁cihazlar	-10.8472
hur	-10.8472
cılık	-10.8472
▁fizikçi	-10.8473
▁kuralı	-10.8476
▁pozisyon	-10.8477
▁zorla	-10.8481
▁Mark	-10.8486
▁kalktı	-10.8487
▁birbirlerini	-10.8488
▁Enerji	-10.8489
▁enstrüman	-10.8489
▁Nobel	-10.8489
▁yetecek	-10.8489
▁Haiti	-10.849
▁düşünürsek	-10.8491
▁ayrılma	-10.8493
▁Sp	-10.8493
▁diyebilirsiniz	-10.8496
▁kurul	-10.8496
▁Bob	-10.8497
▁hastaları	-10.8502
▁birbirini	-10.8502
▁bakıyorum	-10.8503
▁fikrine	-10.8507
▁duyan	-10.851
▁toplumlar	-10.8516
▁vur	-10.8518
▁olayları	-10.8522
▁Derek	-10.8524
▁endüstrisi	-10.8524
▁fiyatı	-10.8524
▁dakikalık	-10.8525
▁çıkardığı	-10.8527
▁avantaj	-10.8527
ığı	-10.8528
hattan	-10.8531
ladığını	-10.8531
▁arasından	-10.8533
▁Er	-10.8538
▁kutlama	-10.854
▁şekillendir	-10.8543
▁anlatan	-10.8546
12	-10.8546
▁hesab	-10.8547
▁göründüğü	-10.8553
▁Pe	-10.8554
meleri	-10.8554
▁düşünmeyi	-10.8556
ılacak	-10.8556
▁hastanede	-10.8558
▁rakamlar	-10.8563
▁hayatında	-10.8568
uc	-10.8568
▁görmüyor	-10.8577
▁cerrahi	-10.8583
▁karıştır	-10.8588
▁giysi	-10.8589
▁bulan	-10.859
▁dönüştürmek	-10.8592
▁görünüş	-10.8593
▁çıkarır	-10.8597
▁yapmadı	-10.8597
istan	-10.86
▁süresi	-10.8601
▁zorluklar	-10.8601
▁Mü	-10.8606
▁alanların	-10.8606
▁gez	-10.8613
▁Muhteşem	-10.8617
▁Yahudi	-10.8617
▁maddi	-10.8617
▁neydi	-10.8617
▁gidiyordu	-10.8618
▁maske	-10.8618
▁Devam	-10.8618
▁rica	-10.8621
▁beton	-10.8621
▁kusursuz	-10.8622
▁bırakıp	-10.8622
▁tümüyle	-10.8625
▁kalmıştı	-10.8632
▁anlıyorum	-10.8632
▁elleri	-10.8632
▁anlattığı	-10.8636
▁ülkeyi	-10.8636
▁uzayda	-10.8637
▁once	-10.864
menin	-10.8641
▁herşeyin	-10.8644
ydık	-10.8645
▁akışı	-10.8647
▁keşfettim	-10.8652
tmak	-10.8653
▁Av	-10.8654
▁başlamış	-10.8656
▁tanışma	-10.8658
▁sigorta	-10.8661
▁ağız	-10.8661
▁Pan	-10.8664
mekten	-10.8666
▁resmini	-10.8668
▁sembol	-10.8671
▁ham	-10.8672
▁gelişmeler	-10.8677
▁iyice	-10.868
▁nedenini	-10.8683
▁meraklı	-10.8684
▁ağları	-10.8685
▁ışıkları	-10.8686
▁belirleme	-10.8686
▁durumunu	-10.8687
▁finanse	-10.869
▁kullanıldı	-10.8691
▁has	-10.8693
▁bağlıdır	-10.87
▁ediyordum	-10.87
▁öldürme	-10.8704
▁kutusu	-10.8707
uru	-10.8711
▁hayran	-10.8712
▁poster	-10.8715
▁sinyalleri	-10.8716
▁katılım	-10.872
mızla	-10.8722
mıştık	-10.8722
▁yetiştirme	-10.8723
geçip	-10.8731
inizde	-10.8732
▁uğraşma	-10.8732
▁oluşturu	-10.8732
▁Hay	-10.8733
▁öğretiyor	-10.8733
sha	-10.8734
▁vatandaş	-10.8737
▁göstermeye	-10.8739
ınızda	-10.8741
▁Kol	-10.8741
▁bitkilerin	-10.8741
▁mikroskop	-10.8748
▁ülkeden	-10.8748
çak	-10.8749
ling	-10.8753
▁yayıldı	-10.8754
▁bakıyorsunuz	-10.8754
▁düşünecek	-10.8757
sıydı	-10.8758
▁teleskop	-10.876
▁Bey	-10.8763
▁Proje	-10.8763
▁bacağı	-10.8763
▁kaybetmiş	-10.8771
▁topluluğun	-10.8778
▁yarısında	-10.8779
▁büyüklükte	-10.878
▁değerini	-10.8781
▁yolculuğ	-10.8787
▁kardeş	-10.8792
▁fotoğrafçı	-10.8793
▁teknolojilerin	-10.8802
▁kolaylaştır	-10.8803
▁Gar	-10.8807
▁yollarla	-10.8809
▁yönden	-10.881
▁rastla	-10.8817
▁sınırı	-10.882
▁başlığı	-10.8821
▁Sam	-10.8826
▁molekülleri	-10.8827
ümü	-10.883
red	-10.8832
▁vermeyi	-10.8833
▁antik	-10.8835
▁bağlaya	-10.8837
▁yakalanma	-10.8839
▁bot	-10.8842
▁varsayım	-10.8847
▁çarpı	-10.8848
▁kay	-10.8849
▁yapabileceğiniz	-10.885
▁tasarlama	-10.8852
bin	-10.8852
▁iskelet	-10.8854
▁ağırlığı	-10.8854
▁ileride	-10.8859
laşmış	-10.8859
▁yazdığı	-10.8864
▁yüzeye	-10.8866
▁Kay	-10.8869
▁çarpışma	-10.887
▁düzeltme	-10.8871
▁adımı	-10.8878
▁bilişsel	-10.8879
▁liberal	-10.8879
▁kuzen	-10.8879
▁patron	-10.8879
▁Çift	-10.8879
▁hapse	-10.888
▁Kırmızı	-10.888
▁metro	-10.888
▁birliği	-10.8882
▁Sha	-10.8882
▁PM	-10.8884
▁düşünmüyorum	-10.8884
▁üretilen	-10.8886
▁tanık	-10.8887
▁kule	-10.8887
▁emekli	-10.8888
eceğine	-10.8895
▁foto	-10.8897
▁izni	-10.89
▁bitti	-10.89
▁sözlük	-10.89
ou	-10.8902
▁materyal	-10.8903
▁yapıcı	-10.8903
ry	-10.8904
▁canlılar	-10.8904
▁internetin	-10.8906
tığımız	-10.8908
▁konuşmanın	-10.8911
▁iyimser	-10.8914
▁duvara	-10.8917
▁istek	-10.8917
ig	-10.8928
▁uzaklaş	-10.8929
▁silahlı	-10.8931
▁kelimesi	-10.8934
▁Söz	-10.8936
▁benzediğini	-10.8937
▁yaramaz	-10.8938
layabil	-10.8943
▁kalması	-10.8945
▁özü	-10.8946
▁şiddetin	-10.8947
▁sevgili	-10.8949
▁etmeden	-10.8952
▁hatırladı	-10.8952
▁mısın	-10.8954
▁kral	-10.8959
▁duyduk	-10.896
▁gök	-10.8963
uma	-10.8963
▁Hintli	-10.8963
▁kelimesini	-10.8964
iki	-10.8964
▁sun	-10.8964
▁perspektif	-10.8968
▁kadını	-10.8973
ılmıştı	-10.8975
▁koruy	-10.8977
▁açtığı	-10.8978
▁iyiydi	-10.8978
▁yetişkinler	-10.898
▁fırsatlar	-10.898
gün	-10.8981
▁dikkatini	-10.8983
▁büyükanne	-10.8983
dığımızda	-10.8988
▁yaşayacak	-10.8989
▁yaratacak	-10.899
ife	-10.8991
▁dol	-10.9
▁arayüz	-10.9
▁kanıtı	-10.9001
▁Es	-10.9006
▁sınıfı	-10.9007
▁kazandır	-10.901
otoğraf	-10.9011
▁Street	-10.9012
▁sıkıştır	-10.9012
▁dizüstü	-10.9013
▁vb	-10.9014
▁Korku	-10.9014
▁vadeli	-10.9015
▁esnasında	-10.9015
▁dayanarak	-10.9018
▁düğüm	-10.9019
▁yenilenebilir	-10.9021
▁yaparsa	-10.9022
▁geliyoruz	-10.9025
▁Sistem	-10.9025
ımıza	-10.9027
▁sentez	-10.9027
▁bulamadı	-10.9027
▁yerlerinde	-10.9033
▁dilim	-10.9034
▁tamamını	-10.9038
▁ayakları	-10.904
▁öğretmek	-10.9049
▁hastaneye	-10.9049
▁ulaştı	-10.905
kul	-10.9053
▁başladığını	-10.9056
▁dokusu	-10.9058
▁anatomi	-10.9063
leştirmek	-10.9065
▁diğerlerinin	-10.9073
▁yıldızların	-10.9073
▁denedik	-10.9075
▁başlarında	-10.9078
▁yöntemler	-10.908
▁düşünüyorlar	-10.9081
▁şeffaf	-10.9088
▁okumaya	-10.9089
▁günümüz	-10.9092
▁sürecinde	-10.9094
▁uygulamaya	-10.9095
örü	-10.9097
▁durduru	-10.9097
▁ölür	-10.91
▁bildirim	-10.91
▁davranışlarını	-10.9103
▁almaz	-10.9103
▁bireylerin	-10.9106
lıktan	-10.9106
▁diyen	-10.9114
cıları	-10.9114
mut	-10.9114
▁sız	-10.9117
▁okulun	-10.9119
eet	-10.9127
caba	-10.9129
▁kültürün	-10.9131
eceksiniz	-10.9133
▁renkler	-10.9134
▁Olay	-10.9136
ıldığını	-10.9137
▁çocuklarının	-10.9137
▁otorite	-10.9139
▁yapabilirler	-10.914
▁Arka	-10.9142
▁geceleri	-10.9143
▁sitesi	-10.9144
obot	-10.9145
▁konser	-10.9147
▁koridor	-10.9147
▁çubuk	-10.9147
▁şair	-10.9148
▁genomu	-10.9149
▁Noel	-10.9149
▁güce	-10.9151
▁koş	-10.9151
▁yılan	-10.9151
▁çıkarak	-10.9157
▁kabiliyeti	-10.9158
▁terim	-10.9159
▁tarihsel	-10.916
▁çevreye	-10.9167
medi	-10.9169
▁fotoğrafını	-10.917
▁gözlerini	-10.917
▁giren	-10.9175
▁konuştu	-10.9185
▁yansıt	-10.9191
▁müdür	-10.9195
ash	-10.9195
▁sunduğu	-10.9197
▁cevaplar	-10.9197
▁şehrinde	-10.9201
▁aşamasında	-10.9203
▁seslerini	-10.9203
ander	-10.9204
▁dünyadan	-10.9208
▁felci	-10.9208
laşıyor	-10.9213
ich	-10.9213
▁yöntemleri	-10.9215
▁dönüşüyor	-10.9218
▁trans	-10.922
▁fikr	-10.9221
▁somut	-10.9222
▁virüsü	-10.9225
▁zordu	-10.9228
▁çalışmasını	-10.923
eff	-10.9231
▁verilerin	-10.9231
▁sürdür	-10.9233
▁çekimi	-10.9233
▁kısıtlı	-10.9234
▁trend	-10.9236
ladığımız	-10.9242
abileceğiniz	-10.9243
▁hissettir	-10.9243
▁çıktığında	-10.9245
anlı	-10.9246
▁prensip	-10.9247
▁başladığımız	-10.9247
▁kullandıkları	-10.9254
▁Tarih	-10.9256
▁geçtiği	-10.9257
▁anlatı	-10.9257
▁uğraşıyor	-10.9259
▁lideri	-10.9261
anlık	-10.9262
▁çıktığını	-10.9263
▁anlamsız	-10.9265
▁getirmeye	-10.9266
▁Deney	-10.9268
▁antibiyotik	-10.9269
ED	-10.9273
olly	-10.9276
▁bağlantıları	-10.928
emeyecek	-10.9282
▁söyleyin	-10.9284
zerinde	-10.9284
▁topluluklar	-10.9284
▁Problem	-10.9284
▁motive	-10.9284
▁referans	-10.9284
▁ressam	-10.9284
▁Bakanlığı	-10.9284
▁taşıyıcı	-10.9285
▁eşitsizlik	-10.9285
▁kuyruklu	-10.9287
▁Yerel	-10.9287
▁oynayan	-10.9293
▁sormaya	-10.9293
▁rota	-10.9294
▁favori	-10.9295
▁Yoks	-10.9297
▁sorduğum	-10.9302
▁gizle	-10.9302
▁satır	-10.9303
▁kitapta	-10.9303
▁yapmaktan	-10.9313
▁ilgiliydi	-10.9318
▁sebepten	-10.932
res	-10.9321
▁istediklerini	-10.9328
lanmıştı	-10.9328
mazlar	-10.933
▁tekerlek	-10.933
▁köşesinde	-10.9332
▁Oysa	-10.9333
▁çay	-10.9333
▁biliyorduk	-10.9336
▁geçmişe	-10.9336
sızlık	-10.9336
▁desteklemek	-10.9338
dar	-10.9341
gan	-10.9342
▁yapış	-10.9342
▁gidiyorlar	-10.9345
▁yazmaya	-10.9348
▁önyargı	-10.9353
▁nöronlar	-10.9354
▁Erkek	-10.9359
▁yenilikler	-10.936
▁edebilme	-10.9361
▁gideli	-10.9363
▁Mal	-10.9363
lalım	-10.9363
▁olmasaydı	-10.937
▁hay	-10.9371
▁eleştiri	-10.9372
▁Pro	-10.9375
▁aş	-10.9377
▁eğitimin	-10.938
▁katil	-10.938
▁taban	-10.9382
nümüzdeki	-10.9383
▁yüzeyinde	-10.9383
▁karşıtı	-10.9387
▁tepesinde	-10.9391
sün	-10.9392
▁çıkmaya	-10.9394
▁miktarını	-10.9395
▁şiddeti	-10.9395
▁Ye	-10.9396
▁güçlendir	-10.9404
▁çocukluk	-10.941
▁kuram	-10.9411
▁incelemek	-10.9411
▁İtalya	-10.9412
sunuzdur	-10.9413
▁hızda	-10.9413
ydik	-10.9414
▁asit	-10.9416
alesef	-10.9416
▁okuyor	-10.9416
▁ilaçların	-10.9416
▁kuyruk	-10.942
▁ilgimi	-10.9422
▁değiştiğini	-10.9422
▁olağan	-10.9423
▁emisyon	-10.9423
▁enteresan	-10.9423
▁piyano	-10.9423
▁şehre	-10.9423
▁partner	-10.9423
▁çukur	-10.9423
▁Ebola	-10.9423
▁bez	-10.9423
▁cidden	-10.9423
▁aynısını	-10.9423
▁sopa	-10.9423
▁uğultu	-10.9423
▁transfer	-10.9423
▁GSY	-10.9424
▁Yardım	-10.9424
▁besle	-10.9424
▁tas	-10.9425
▁yerdir	-10.9426
▁severim	-10.9427
▁işgal	-10.9428
▁ürünün	-10.9431
dor	-10.9431
▁yuvarlak	-10.9434
evine	-10.9438
▁göndermek	-10.9439
▁aradı	-10.9439
leşen	-10.9439
▁gereksiz	-10.9441
▁söylenen	-10.9443
▁sinyali	-10.9444
▁elektro	-10.9445
▁yaradı	-10.9445
▁Merak	-10.9446
▁birbirimizi	-10.9448
▁genleri	-10.945
var	-10.945
▁haritasını	-10.9454
▁uzaya	-10.9455
▁koşulları	-10.9455
▁bölgeler	-10.9455
▁becer	-10.9455
▁sorunumuz	-10.9456
▁şartları	-10.9456
etik	-10.9456
▁araştırmacılar	-10.9459
▁dönük	-10.946
▁bildir	-10.9463
▁projede	-10.9465
▁omuz	-10.9466
▁Kongo	-10.9467
▁keşfetti	-10.9468
başı	-10.9469
▁Karşı	-10.947
▁üretir	-10.9472
▁mühendisler	-10.9474
▁giderse	-10.9474
ınıza	-10.9475
▁çaresiz	-10.9478
▁yoğunluğu	-10.9478
▁böceği	-10.9482
▁izle	-10.949
▁insanlarda	-10.9493
▁riskli	-10.9496
▁düşünmeniz	-10.9498
▁dağıtım	-10.95
▁Sonraki	-10.9506
▁balıkçı	-10.9506
▁yürüt	-10.9507
▁ekipman	-10.9509
▁çözü	-10.9514
▁çalışacağım	-10.9516
▁ümit	-10.9519
▁dünyamızı	-10.952
▁yayım	-10.9521
▁ikincisi	-10.9522
▁arabayı	-10.9522
▁bilinci	-10.9522
▁kısmına	-10.9526
lediği	-10.9527
▁miras	-10.9531
▁parçalarını	-10.9533
▁parmağı	-10.9533
▁yeti	-10.9533
▁atış	-10.9534
▁ürettiği	-10.9534
▁verilere	-10.9535
▁gerekmiyor	-10.9535
▁çiftçiler	-10.9537
▁ilaçları	-10.9538
▁hükümetin	-10.9539
▁Sch	-10.9543
likler	-10.9547
▁bildikleri	-10.9548
▁Aslın	-10.9549
▁motoru	-10.9549
▁seçer	-10.955
▁araştırmaları	-10.955
sch	-10.9551
▁resmin	-10.9552
▁istemem	-10.9553
▁böcekleri	-10.9555
larımızla	-10.9556
riye	-10.9557
▁sanatın	-10.9564
▁dramatik	-10.9564
▁reaksiyon	-10.9564
▁reçete	-10.9564
▁ödün	-10.9564
▁şapka	-10.9564
▁nöroloji	-10.9564
▁fotoğraflarını	-10.9564
▁Geleneksel	-10.9564
▁eğitimli	-10.9565
▁göreceğiniz	-10.9565
▁süresince	-10.9565
▁söyleyeyim	-10.9565
▁başarısızlık	-10.9566
▁güncel	-10.9567
▁sinema	-10.9567
▁eşitlik	-10.9568
▁ilgilenme	-10.9569
▁bakımından	-10.9569
▁başlayıp	-10.9571
▁basamak	-10.9572
▁Bankası	-10.9576
▁bulmuş	-10.9578
▁öyleyse	-10.9579
▁gerçekleştirmek	-10.9586
▁yapıldığı	-10.959
▁bilinir	-10.9592
▁sorunların	-10.9592
▁redded	-10.9592
▁Niye	-10.9593
▁ilişkisi	-10.9594
▁Güvenlik	-10.9595
▁akıllıca	-10.9596
▁okuduğum	-10.9597
▁duvarı	-10.96
▁konuştum	-10.9604
▁ölümü	-10.9604
▁ajan	-10.9605
▁100.000	-10.9607
▁aranızda	-10.9611
▁artı	-10.9611
▁kış	-10.9614
▁birimi	-10.9615
▁şartlar	-10.9616
▁kanserin	-10.9618
▁bırakır	-10.9623
▁yıka	-10.9624
▁akışını	-10.963
▁düşünmüyor	-10.9631
digim	-10.9632
lıyorum	-10.9632
▁adama	-10.9633
inize	-10.9634
▁Müzesi	-10.9635
eşke	-10.9636
▁varken	-10.9637
▁bozukluğu	-10.964
▁koşul	-10.9641
▁tüketim	-10.9643
▁gor	-10.9645
▁ad	-10.9645
larak	-10.9651
▁etkileme	-10.9651
▁Krallık	-10.9652
mişlerdi	-10.9653
▁ağaçların	-10.9653
▁bel	-10.9653
luğun	-10.9654
▁doları	-10.966
▁azaltmak	-10.9661
▁muz	-10.9669
dayken	-10.967
▁durmak	-10.9676
▁bizleri	-10.9676
▁olasılıkla	-10.9678
yüz	-10.9679
▁kullanılması	-10.9681
bilecek	-10.9687
▁içimizde	-10.9688
▁kova	-10.9688
▁hayatınızı	-10.969
▁fotoğrafta	-10.9697
▁bağlantısı	-10.9699
▁süt	-10.9703
▁keşfi	-10.9704
▁okullar	-10.9705
▁yaratabilir	-10.9705
olu	-10.9706
▁sığ	-10.9707
▁tahrip	-10.9707
hicago	-10.9707
▁Britanya	-10.9707
▁Matematik	-10.9707
▁gecekondu	-10.9707
▁helikopter	-10.9707
▁negatif	-10.9707
▁şablon	-10.9707
▁Biyoloji	-10.9707
▁hitap	-10.9707
▁acımasız	-10.9707
▁aşina	-10.9707
▁kumanda	-10.9707
▁terörizm	-10.9708
▁birşeyi	-10.971
▁uğraşan	-10.9715
ian	-10.9715
▁kirli	-10.9716
▁taşın	-10.9716
▁etkilerini	-10.9717
▁verirseniz	-10.9718
▁ilgilenen	-10.9721
▁davranma	-10.9722
▁buluşma	-10.9723
▁korumaya	-10.9723
▁pil	-10.9725
▁yakalama	-10.9729
ılıp	-10.9731
▁Gand	-10.9732
çoğunun	-10.9732
▁aralarında	-10.9732
mamış	-10.9733
▁dönüştür	-10.9735
▁geçiren	-10.9738
▁Mil	-10.9738
▁kira	-10.9739
▁Th	-10.9739
▁alıyorum	-10.9743
▁faydası	-10.9747
▁yunus	-10.9747
▁götürme	-10.9748
▁aralık	-10.9748
▁evrimin	-10.9749
▁yapıları	-10.9754
▁laboratuvarda	-10.9759
omo	-10.976
▁Masa	-10.9764
▁uzmanları	-10.9768
▁konusundaki	-10.9768
▁annemin	-10.977
▁Bro	-10.9772
▁yükle	-10.9773
ğim	-10.978
▁Yedi	-10.9782
▁MS	-10.9783
▁olayların	-10.9791
▁konuşmamı	-10.9793
▁kanat	-10.9794
iydi	-10.9799
▁İnanıyoru	-10.98
▁yanda	-10.98
▁dersleri	-10.9801
▁geçin	-10.9803
▁kavrama	-10.9804
▁karıncalar	-10.9804
▁hepimizi	-10.981
▁bahsettiği	-10.9813
▁azı	-10.9813
▁hükümetler	-10.9813
▁bozulma	-10.9815
▁müziğin	-10.9817
▁sesin	-10.9818
▁larda	-10.9821
leşir	-10.9822
▁kelimeleri	-10.9825
▁kanal	-10.9825
meniz	-10.9826
▁koştu	-10.9826
▁Veri	-10.9827
lduğu	-10.9832
ografi	-10.9834
▁odak	-10.9834
▁yaşadıkları	-10.9835
▁Mutlu	-10.9838
▁halini	-10.9839
rsak	-10.9839
▁vardım	-10.9844
▁etmeli	-10.9849
▁politikacılar	-10.985
▁bilgisayarı	-10.9851
▁diyalog	-10.9852
▁kahverengi	-10.9852
▁mevsim	-10.9852
▁pirinç	-10.9852
▁Silikon	-10.9852
▁Smith	-10.9852
▁Sahip	-10.9852
▁paralel	-10.9852
▁görünmüyor	-10.9852
▁Evrim	-10.9853
▁işlevsel	-10.9856
▁yıkıcı	-10.9858
▁bazılarınız	-10.9858
▁Saat	-10.9859
▁Tim	-10.9863
abilecekleri	-10.9867
▁Tak	-10.9868
▁gönderiyor	-10.9869
liyim	-10.9871
▁öncülü	-10.9874
▁etkinlik	-10.9876
▁sunma	-10.9876
▁adlandırıla	-10.9878
▁konuşmacı	-10.9886
▁pişirme	-10.9889
▁fikrimiz	-10.9889
▁ger	-10.9889
▁Gana	-10.989
▁duman	-10.9891
▁verdiğini	-10.9892
leştiren	-10.9893
▁zorundadır	-10.9896
berg	-10.9899
▁önemini	-10.9901
liydim	-10.9902
▁beraberinde	-10.9902
▁akla	-10.9907
▁sebebiyle	-10.9912
▁kullanılma	-10.9914
▁çarp	-10.9915
▁korkusu	-10.9916
meyeceğim	-10.9916
▁oranını	-10.9917
▁hissediyor	-10.9918
▁bazılarının	-10.9919
muzda	-10.9919
▁sınırlar	-10.9921
▁düşünceler	-10.9921
▁düşündüğünüzde	-10.9923
▁alanlarında	-10.9924
▁başardı	-10.9927
▁karşılaştığımız	-10.9928
▁sent	-10.993
▁olmasıydı	-10.9931
▁deneyimler	-10.9933
▁kolaylık	-10.9934
▁Ste	-10.9935
▁inceliyor	-10.9936
▁göl	-10.9936
▁vücudunu	-10.9938
▁fit	-10.9942
▁Ter	-10.9944
▁buzun	-10.9947
▁kut	-10.9947
ehirler	-10.9947
▁bardak	-10.9949
▁arabası	-10.9959
kac	-10.9973
▁sınav	-10.9981
mun	-10.9981
▁içeride	-10.9982
▁getiril	-10.9983
▁Var	-10.9984
▁olmalarını	-10.9992
▁yaşamını	-10.9994
▁usta	-10.9994
▁isterler	-10.9996
▁dar	-10.9997
▁gözler	-10.9997
▁görebil	-10.9997
ğımız	-10.9998
▁hedefi	-10.9998
▁organları	-10.9999
▁karaciğer	-10.9999
▁Scott	-10.9999
▁emniyet	-10.9999
▁çamur	-10.9999
▁gerektiriyor	-10.9999
▁kalori	-10.9999
▁sesle	-11
▁Makine	-11
▁pound	-11
▁maalesef	-11
▁bela	-11
▁kalkıp	-11.0001
▁Tu	-11.0002
▁gezegeni	-11.0002
▁esinlen	-11.0002
▁aydınlat	-11.0002
▁basınç	-11.0004
▁çalışıp	-11.0005
▁tutkulu	-11.0007
▁dedikleri	-11.0007
▁yönetici	-11.0008
▁robotik	-11.0011
lıydı	-11.0014
▁siber	-11.0016
▁Herşey	-11.0017
▁sağa	-11.0019
▁çare	-11.0019
▁farkındalık	-11.0021
ers	-11.0022
▁çalışanlar	-11.0023
landığını	-11.0026
▁Yaşa	-11.0028
▁120	-11.0029
▁Aşağı	-11.0029
enüz	-11.0029
▁toplamak	-11.003
▁yüzleş	-11.003
▁içten	-11.0031
▁bağlantılar	-11.0033
▁denemek	-11.0034
▁hat	-11.0035
▁dükkan	-11.0035
ake	-11.0037
▁çizgiler	-11.0043
ebileceğimizi	-11.0044
▁yönlendirme	-11.0045
▁kullanmıyor	-11.0045
ğinde	-11.0046
▁bağlamda	-11.0048
▁uyu	-11.0049
age	-11.0057
▁yapmalı	-11.0062
▁zorundaydım	-11.0064
▁küreselleşme	-11.0065
▁kaz	-11.0068
av	-11.007
▁görmeyi	-11.0071
▁Pat	-11.0071
▁formu	-11.0071
▁saldır	-11.0072
▁düğme	-11.0076
▁alabiliyor	-11.0078
ındaki	-11.0081
▁hareketin	-11.0081
leridir	-11.0083
▁hük	-11.0083
▁Oray	-11.0084
▁dinliyor	-11.0085
▁aynısı	-11.0085
leşmesi	-11.0087
▁kazandığı	-11.0087
▁firması	-11.009
▁tarafına	-11.009
▁bü	-11.0092
▁öldür	-11.0094
▁alabil	-11.0094
▁ikisinin	-11.0099
▁Hükümet	-11.01
▁kaynaklanıyor	-11.0101
ora	-11.0101
▁çıkmaz	-11.0104
▁fikirlerini	-11.0105
▁Sayı	-11.0106
▁doz	-11.0108
▁pay	-11.011
ock	-11.0119
▁aleti	-11.012
dığımı	-11.0121
▁kabuk	-11.0124
▁dönüştürme	-11.0124
▁bayanlar	-11.0126
▁kaldılar	-11.0126
▁Hepsini	-11.0128
▁zorlama	-11.0133
▁rehber	-11.014
▁yapamayacağı	-11.014
▁bıçak	-11.0148
▁hormon	-11.0148
▁trajedi	-11.0148
▁çikolata	-11.0148
▁Stanford	-11.0148
▁prensibi	-11.0148
▁yurt	-11.0148
▁bencil	-11.0148
▁İzleyici	-11.0149
▁retina	-11.0149
▁dağınık	-11.0149
▁Benzer	-11.0149
▁ünite	-11.0149
▁Genellikle	-11.015
▁Mac	-11.015
▁cisim	-11.0151
lıkları	-11.0153
▁akraba	-11.0154
▁sanıyorum	-11.0154
▁Ortalama	-11.0154
▁çöküş	-11.0156
İH	-11.0157
▁aletleri	-11.0157
▁gezin	-11.0158
▁buluyorum	-11.0158
▁işleyen	-11.016
ebiliyoruz	-11.0164
▁destekleme	-11.0165
▁ederseniz	-11.0165
▁yansı	-11.0167
▁derim	-11.0167
▁kuruluş	-11.0169
▁titreşim	-11.017
arl	-11.0171
▁eğilimi	-11.0172
▁katılıyor	-11.0174
▁deneysel	-11.0175
▁yerleşim	-11.0176
▁Yemek	-11.018
lde	-11.018
▁söylemişti	-11.0182
▁özelliklerini	-11.0185
▁başlıyorlar	-11.0186
▁sorgulama	-11.0188
▁2001	-11.0189
▁diken	-11.0192
liğinden	-11.0193
▁yolculuğun	-11.0195
▁yarışı	-11.0197
▁bat	-11.0198
▁galeri	-11.0199
▁inanır	-11.02
▁etmekten	-11.0204
▁kaybeder	-11.0205
▁bitirme	-11.021
▁hepinizi	-11.0217
▁doğma	-11.0218
▁yuzde	-11.0223
▁faktör	-11.0226
▁programlar	-11.0228
▁performansı	-11.023
▁hesabı	-11.0231
▁aksi	-11.0233
▁cömert	-11.0234
▁verilme	-11.0236
▁çevrede	-11.0242
▁Normal	-11.0245
abileceğim	-11.025
▁seti	-11.0252
▁elinizi	-11.0253
▁ez	-11.0254
▁Tıp	-11.0255
▁kullanılır	-11.0255
▁gittiğimiz	-11.0256
▁hikayem	-11.0257
▁anla	-11.026
▁yoğunlaş	-11.0262
▁eşyaları	-11.0263
▁mali	-11.0267
▁evlerin	-11.0267
▁takılı	-11.0268
▁yaratı	-11.027
▁eser	-11.027
▁teknolojisini	-11.0273
▁yararı	-11.0276
▁tarla	-11.0278
▁örnekte	-11.0278
▁tasarlay	-11.0281
▁Min	-11.0282
bl	-11.0284
▁bizde	-11.0285
▁formları	-11.0287
ram	-11.0289
▁kişilere	-11.0293
▁geliştirdi	-11.0297
leştirilmesi	-11.0297
▁gelmedi	-11.0298
▁gemisi	-11.0298
▁dinazor	-11.03
▁paradigma	-11.03
▁İsviçre	-11.03
▁varoluş	-11.03
▁çevrimiçi	-11.03
▁hakkinda	-11.03
▁mizah	-11.0301
▁direnci	-11.0301
▁vadi	-11.0303
▁yürüdü	-11.0303
▁şüphesiz	-11.0303
▁yarayan	-11.0304
▁karşılığında	-11.0305
▁memeli	-11.0306
▁davranışsal	-11.0307
▁öldürdü	-11.0307
▁uydur	-11.0308
▁benzetme	-11.0309
sinizdir	-11.0309
▁taze	-11.0309
▁nerde	-11.031
▁Mart	-11.0311
▁geçerken	-11.0313
graf	-11.0317
▁soyle	-11.0319
▁kağıdı	-11.032
▁ölçekli	-11.0321
▁konuşması	-11.0323
▁yardımıyla	-11.0326
▁sanıyor	-11.0328
▁koltuğu	-11.0328
▁sessizlik	-11.0333
halde	-11.0337
▁yükselt	-11.0338
▁dilin	-11.0339
▁beyniniz	-11.0341
▁Hayatta	-11.0343
▁azalıyor	-11.0344
▁ilacın	-11.0346
▁ailenin	-11.0346
▁hastalığ	-11.0348
▁bölümünü	-11.035
▁götürür	-11.0351
▁dersler	-11.0352
▁aldığını	-11.0356
▁uygulamaları	-11.0358
yarak	-11.0362
▁davranışları	-11.0363
▁öğrencilerim	-11.0363
▁yapacağımız	-11.0364
▁zek	-11.0364
▁başladığında	-11.0365
maktan	-11.0365
▁birbiri	-11.0365
amazdı	-11.0365
ef	-11.037
ğrenciler	-11.037
▁dilini	-11.0374
▁hoşlanma	-11.0374
▁açıklıyor	-11.0375
▁Top	-11.0377
▁vermişti	-11.038
ens	-11.0387
▁makineleri	-11.039
▁anlattım	-11.039
▁yaptığımızı	-11.0397
▁döndük	-11.0397
ral	-11.0397
▁gezegenlerin	-11.04
▁söylerdi	-11.0401
▁sıradaki	-11.0403
umun	-11.0409
▁çalışmamız	-11.0411
▁ormanın	-11.0413
▁inanı	-11.0414
emiyor	-11.0418
▁arayı	-11.0419
▁bilgisi	-11.0419
▁yeter	-11.0421
▁kadına	-11.0421
▁diğerlerinden	-11.0423
▁gerçekleşme	-11.0424
uanda	-11.0425
▁köyde	-11.0425
▁tesis	-11.0428
▁hızını	-11.0429
▁tadını	-11.043
eceğimiz	-11.0434
▁Ailem	-11.0442
▁fenomen	-11.0446
▁İste	-11.0446
▁tamamiyl	-11.045
▁Bölge	-11.0453
▁Demokrasi	-11.0453
▁aykırı	-11.0453
▁cinayet	-11.0453
▁eşcinsel	-11.0453
▁güvercin	-11.0453
▁Haziran	-11.0453
▁öbür	-11.0453
▁rüşvet	-11.0453
▁aslı	-11.0454
▁zarif	-11.0454
▁sentetik	-11.0454
▁sesli	-11.0454
▁korsan	-11.0455
▁telif	-11.0455
▁darbe	-11.0455
▁sayılır	-11.0455
▁denizaltı	-11.0456
▁Hızlı	-11.0456
▁batarya	-11.0457
▁katıldı	-11.0457
▁yaratıcılığı	-11.0458
▁kaçak	-11.0459
▁açıldı	-11.046
▁bilgisayarların	-11.0462
mışlar	-11.0462
▁sürecini	-11.0462
▁Don	-11.0463
▁Bazılarınız	-11.0463
▁genişleme	-11.0464
▁Çocukların	-11.0465
▁sisteminde	-11.0467
▁başladığımızda	-11.0468
izik	-11.0473
▁değişme	-11.0476
▁biliniyor	-11.0477
old	-11.0481
▁uzmanlar	-11.0482
▁görecek	-11.0482
▁ayni	-11.0482
muzun	-11.0486
▁alırken	-11.0489
▁aldıkları	-11.049
▁Gene	-11.0495
▁odaklı	-11.0496
▁Eric	-11.0502
▁uygulay	-11.0502
▁donmuş	-11.0503
▁davranıyor	-11.0504
▁çekilme	-11.0506
▁açıkladı	-11.0507
▁bulunmakta	-11.051
▁yakalamak	-11.0511
▁fena	-11.0511
nuzda	-11.0513
▁inceley	-11.0515
▁ekleme	-11.0521
▁kaldırma	-11.0521
yer	-11.0528
▁bağımlılık	-11.0531
ach	-11.0536
▁fiyatları	-11.054
▁oluşum	-11.0541
▁kopar	-11.0542
▁dök	-11.0542
▁sahi	-11.0545
▁hatırlat	-11.0546
▁direnç	-11.0546
▁uçuyor	-11.0546
meyeceğini	-11.0549
▁damar	-11.0559
▁bölgenin	-11.0559
▁renkleri	-11.056
▁Suriye	-11.056
▁deneyimleri	-11.0562
▁görebilme	-11.0563
▁alırsa	-11.0567
▁tartışmalar	-11.0569
▁kalkınma	-11.0572
▁Kapı	-11.0573
▁yılını	-11.0575
oe	-11.0575
▁olacaksınız	-11.0576
inci	-11.0577
▁canavar	-11.0577
▁varlıklar	-11.0581
▁Gü	-11.0582
▁iyileştirme	-11.0587
▁döngüsü	-11.0588
▁kesi	-11.059
▁etkiledi	-11.059
▁güzelliği	-11.0592
▁dalgaları	-11.0593
▁varlık	-11.0594
ES	-11.0595
lamıyor	-11.0599
▁mor	-11.0601
▁konuştuğumuz	-11.0601
▁pro	-11.0602
▁kendilerinin	-11.0603
ika	-11.0606
▁bacak	-11.0606
▁duymuş	-11.0607
▁bağlar	-11.0608
ntarktik	-11.061
▁tropik	-11.061
▁çapta	-11.061
▁banyo	-11.061
▁hiçbirşey	-11.061
▁irade	-11.0611
▁parazit	-11.0611
▁ilave	-11.0612
▁hikayelerini	-11.0612
▁çeşidi	-11.0615
▁etmeleri	-11.0615
▁grub	-11.0616
▁kalitesini	-11.0617
▁Ekim	-11.0617
▁düzine	-11.0617
▁Gö	-11.0618
▁dışkı	-11.0619
▁küp	-11.0619
▁King	-11.0621
▁çürü	-11.0622
▁programcı	-11.0624
▁Yazı	-11.0628
engin	-11.0628
▁mekaniği	-11.0628
melisiniz	-11.0634
one	-11.0634
amam	-11.0638
▁görülmemiş	-11.0644
▁onemli	-11.0645
rap	-11.0647
▁ardında	-11.0648
▁gitmesi	-11.0649
amayacağı	-11.065
▁ölecek	-11.0651
▁kaderi	-11.0653
▁binaların	-11.0653
▁fonksiyon	-11.0654
lebilir	-11.0656
▁Erkekler	-11.0659
▁kurtulma	-11.0662
▁alkışlar	-11.0662
lenebilir	-11.0663
uri	-11.0666
▁akış	-11.0669
▁yak	-11.067
▁kurt	-11.0676
▁görevli	-11.0677
lıyordu	-11.0679
acaklar	-11.068
▁anahtarı	-11.0681
▁Doğrusu	-11.0682
yapabileceğimizi	-11.0683
▁kırılgan	-11.0683
rah	-11.0685
▁tipi	-11.0686
▁etmem	-11.0692
▁olanların	-11.0693
▁kuramı	-11.0693
my	-11.0694
▁Yol	-11.0695
▁Ham	-11.0698
▁söylemem	-11.0701
▁alınmış	-11.0703
▁balıklar	-11.0704
▁dönüşür	-11.0706
ıydı	-11.0707
▁robotun	-11.0712
▁evlen	-11.0713
▁beynimiz	-11.0714
▁inci	-11.0724
▁reform	-11.0731
▁olmasın	-11.0732
▁calisma	-11.0735
▁uzaklıkta	-11.0737
▁maymunlar	-11.0737
▁yerleştiril	-11.0739
▁yolculuğu	-11.074
▁seyred	-11.0742
▁bulabil	-11.0743
▁cennet	-11.0743
▁Gülüşme	-11.0748
▁Projesi	-11.0749
ort	-11.0751
▁götür	-11.0752
▁sözleri	-11.0752
luyoruz	-11.0759
▁Ad	-11.0761
▁kesme	-11.0761
▁hareketli	-11.0767
oto	-11.0767
▁Afgan	-11.0768
▁gelmesini	-11.0768
▁Mükemmel	-11.0768
▁çekirdek	-11.0768
lorida	-11.0768
▁kızgın	-11.0768
▁psikolog	-11.0768
▁Petrol	-11.0769
▁Sabah	-11.0769
▁ertesi	-11.0771
▁noktadan	-11.0772
agos	-11.0772
▁şansımız	-11.0772
▁işimi	-11.0774
▁dövme	-11.0775
▁isyan	-11.0776
▁yankı	-11.0777
▁götürmek	-11.0777
▁medeniyet	-11.0778
▁istemiyoruz	-11.0778
lanıp	-11.0779
▁yıldızı	-11.0779
▁özet	-11.078
▁getirip	-11.078
▁Gezegen	-11.0781
▁Yaşlı	-11.0782
▁geliştirmeye	-11.0782
hat	-11.079
▁gerektiğin	-11.0792
▁Atlantik	-11.0793
▁yöneten	-11.0794
▁inkar	-11.0794
ps	-11.0794
▁tutarlı	-11.0795
▁yabani	-11.0795
▁zekice	-11.0795
▁öldürmek	-11.0798
▁İsa	-11.0799
▁yazılımı	-11.0799
▁defalar	-11.0801
▁moleküller	-11.0801
liğinin	-11.0802
▁Belli	-11.0803
iver	-11.0804
▁Medi	-11.0804
▁doların	-11.0806
hen	-11.0807
▁hani	-11.0807
▁lüks	-11.0808
▁toprağı	-11.081
bilimci	-11.0814
▁süreli	-11.0815
▁basar	-11.0816
▁ormanları	-11.0818
rik	-11.0823
▁karakteri	-11.0825
▁patlaması	-11.0826
acağınız	-11.0826
▁yaşadık	-11.0833
▁işimiz	-11.0837
▁rejim	-11.0842
▁üzeri	-11.0842
▁bulunduğunu	-11.0845
▁çektim	-11.0846
rmal	-11.0847
▁bıraktım	-11.0847
▁ülkesi	-11.0848
▁bağı	-11.085
▁Orman	-11.0852
▁tabiki	-11.0852
▁güneşin	-11.0853
isk	-11.0853
▁etmedi	-11.0856
▁konuları	-11.0857
▁müzisyen	-11.0862
▁felç	-11.0866
eceğimizi	-11.0866
▁geçtim	-11.087
▁hemşire	-11.087
▁filmler	-11.0871
▁mezar	-11.0879
▁bahsettiğimiz	-11.0879
ven	-11.088
▁izler	-11.0881
▁goru	-11.0883
▁kafasını	-11.0883
ft	-11.0887
▁attı	-11.0889
▁yüze	-11.0889
miyordu	-11.0891
▁anten	-11.0894
larınızın	-11.0895
▁kucak	-11.0898
eg	-11.0899
▁lif	-11.0901
▁izi	-11.0905
leyelim	-11.0905
▁anlamında	-11.0906
▁yapamıyor	-11.0908
▁geldiğimde	-11.0909
ırdı	-11.0909
▁teması	-11.0913
▁başlattık	-11.0914
▁çektik	-11.0914
▁uçağı	-11.0917
▁kozm	-11.092
▁ilgisini	-11.0924
▁yaban	-11.0924
▁onlarda	-11.0926
▁onar	-11.0927
▁Vietnam	-11.093
▁Yanlış	-11.093
▁Yavaş	-11.093
▁acayip	-11.093
▁paraşüt	-11.093
▁sipariş	-11.093
▁İspanya	-11.093
▁ihlal	-11.093
▁feminist	-11.093
▁netice	-11.0931
▁Bush	-11.0931
yeceğim	-11.0932
▁Bilmiyorum	-11.0933
▁Sev	-11.0933
▁gözüken	-11.0935
▁alakası	-11.0936
▁yükselen	-11.0938
▁ailelerin	-11.0938
▁yapıya	-11.0939
▁görebiliyorum	-11.0939
▁değiştirerek	-11.0943
▁seçtik	-11.0943
labilecek	-11.0945
ebilmesi	-11.0945
▁çocuğum	-11.0953
▁Kültür	-11.0953
▁ayırma	-11.0954
▁Okulu	-11.0955
▁kazanır	-11.0957
▁eşitliği	-11.0958
▁Aksi	-11.0959
▁bulmaca	-11.0963
▁becerileri	-11.0964
▁anlamını	-11.0967
▁sizleri	-11.0967
iv	-11.0968
▁topluyor	-11.0969
▁mıknatıs	-11.097
eline	-11.0971
▁düşünceleri	-11.0972
▁metrelik	-11.0976
sınızdır	-11.0978
▁boyun	-11.0979
▁yaşımda	-11.0982
▁kül	-11.0982
▁hareketler	-11.0982
▁gercekte	-11.0983
▁devletler	-11.0986
▁büyümeye	-11.0987
▁hangisi	-11.0989
▁ölmüş	-11.0991
mam	-11.0996
bilirsin	-11.0996
▁aldatma	-11.0998
je	-11.0998
▁hoca	-11.0999
ider	-11.1004
▁kaybettik	-11.1004
▁tanımlamak	-11.1006
▁düşündüğünüz	-11.1008
▁söylüyordu	-11.1009
▁çözümün	-11.1009
▁bio	-11.101
amadı	-11.1015
▁varsay	-11.1017
gal	-11.1018
▁sorumluluğu	-11.1019
▁korteks	-11.1021
▁çabu	-11.1023
▁eğim	-11.1026
kaldırın	-11.1031
▁değin	-11.1033
▁öden	-11.1033
▁atan	-11.1033
▁Bina	-11.1033
▁gözü	-11.1034
lus	-11.1037
▁uyuma	-11.1037
▁kodu	-11.1038
▁ömrü	-11.1039
▁arz	-11.1042
▁Günü	-11.1044
▁disiplin	-11.1044
▁edildiğini	-11.1045
▁kaybettiği	-11.1052
▁genlerin	-11.1056
▁hatırlatıyor	-11.1058
klarında	-11.1059
▁olmayacağı	-11.106
▁kayna	-11.106
▁mühendisi	-11.1061
▁ulaşır	-11.1061
▁modelin	-11.1062
▁kanalı	-11.1062
▁yazısı	-11.1064
▁düşündüğümüzde	-11.1066
▁çağır	-11.1067
▁odasında	-11.1069
▁oranla	-11.1074
▁düzenlen	-11.1075
▁parçaların	-11.1078
▁toplay	-11.1079
▁kurumların	-11.1084
▁göstergesi	-11.1085
▁AB	-11.1086
▁oluşumu	-11.1089
▁kurbağa	-11.109
▁tanıştığım	-11.1092
▁Kişi	-11.1092
▁mürekkep	-11.1094
▁üzücü	-11.1094
▁Arjantin	-11.1094
▁Dijital	-11.1094
▁alıkoy	-11.1094
▁enfekte	-11.1094
▁gitgide	-11.1094
▁interaktif	-11.1094
▁Mikro	-11.1094
▁Kontrol	-11.1094
▁saldırgan	-11.1094
▁Hazır	-11.1094
mur	-11.1095
▁kirlet	-11.1095
▁ayrılmış	-11.1096
▁yürürken	-11.1097
▁baska	-11.1099
▁mutluyum	-11.1099
▁başlıca	-11.11
▁yeraltı	-11.1102
▁filmini	-11.1104
landırma	-11.1105
▁düşünüyorsanız	-11.1107
▁bilmez	-11.1108
dülü	-11.1108
▁şempanzeler	-11.1109
▁üçgen	-11.1111
▁alıyorsunuz	-11.1113
ast	-11.1113
▁çalıyor	-11.1118
▁haricinde	-11.1119
▁dinozor	-11.1124
▁bilmiyorduk	-11.1128
▁ötesi	-11.1128
▁Ayn	-11.113
▁Den	-11.1133
▁vermez	-11.1134
ımızda	-11.1134
▁savaşçı	-11.1136
▁satmak	-11.1136
ildiği	-11.1136
▁filmde	-11.1136
▁ayrım	-11.1137
▁örtü	-11.1139
▁analizi	-11.1143
▁elimizdeki	-11.1148
▁üretmeye	-11.1148
▁atlama	-11.1149
▁Oda	-11.115
▁alırlar	-11.1152
▁imalat	-11.1155
▁adlandır	-11.1156
▁kullanımını	-11.1167
▁parası	-11.1168
▁yapıyordum	-11.1172
▁kalmaya	-11.1173
▁aklımız	-11.1173
▁ettirme	-11.1174
▁maddeler	-11.118
▁ülkelerdeki	-11.118
▁işlemci	-11.1181
ecekler	-11.1182
car	-11.1184
▁dizisi	-11.1186
▁gösterebilir	-11.1188
▁seçmek	-11.1188
▁malzemeleri	-11.1193
mezsiniz	-11.1194
▁kabin	-11.1194
▁koltuk	-11.1199
▁evcil	-11.1199
▁ilki	-11.1201
▁bulunabilir	-11.1204
▁seviyesini	-11.1205
▁devri	-11.1205
▁icinde	-11.1205
▁araçların	-11.1207
▁kabiliyet	-11.1209
diğimi	-11.1213
▁girdik	-11.122
▁yerlerin	-11.1221
▁arabaları	-11.1223
▁duyur	-11.1224
istik	-11.1225
▁gerçeğ	-11.1227
▁karışımı	-11.1227
▁Kural	-11.1229
▁götürü	-11.123
▁grafiği	-11.1232
▁tat	-11.1233
▁tören	-11.1234
▁evreni	-11.1234
▁renkte	-11.1236
▁değilsiniz	-11.1239
▁dinleyici	-11.1248
mızdaki	-11.125
▁doğmuş	-11.1251
▁ayrıla	-11.1254
▁0.	-11.1255
▁farketti	-11.1255
▁Seyirci	-11.1255
▁Microsoft	-11.126
▁klavye	-11.126
▁sandviç	-11.126
▁bulaşıcı	-11.126
▁estetik	-11.126
ambridge	-11.126
▁tükenmiş	-11.1261
miyorlar	-11.1261
▁gereksinim	-11.1262
▁masum	-11.1263
▁evlat	-11.1263
▁kafe	-11.1264
▁Kişisel	-11.1264
laştırıyor	-11.1264
▁gelirse	-11.1265
▁pişmanlık	-11.1265
▁Seyirciler	-11.1265
▁geçirdiğim	-11.1266
ıştır	-11.1266
▁şeytan	-11.1267
▁soğu	-11.1268
▁tutul	-11.127
▁İtalyan	-11.1273
▁çektiği	-11.1274
▁modül	-11.1275
▁konusunu	-11.1276
daydım	-11.1276
▁bütünüy	-11.1276
▁uğramış	-11.1282
▁enstitü	-11.1287
ikipedia	-11.1287
ille	-11.129
▁edebil	-11.1291
▁yaşıyorum	-11.1292
▁ederse	-11.1297
▁inandı	-11.1305
▁fiber	-11.1307
▁kalanını	-11.1307
▁gidiş	-11.131
▁sensör	-11.1312
▁mesafede	-11.1312
▁şuan	-11.1314
▁çözdü	-11.1315
▁atalarımız	-11.1318
▁emek	-11.132
▁zıpla	-11.1323
▁vücudunuz	-11.1325
▁bağlam	-11.1327
▁getireceği	-11.133
▁değişiklikleri	-11.1331
▁bıraktığı	-11.1334
▁parmakları	-11.1335
▁Oradaki	-11.1336
▁ulaştık	-11.1336
dil	-11.1337
hop	-11.1337
lacak	-11.1343
▁farklılıkları	-11.1346
▁parçacıklar	-11.1349
▁dusun	-11.135
rim	-11.135
şim	-11.1351
▁yapardı	-11.1352
▁hoşum	-11.1353
▁vücudu	-11.1353
▁tarihini	-11.1356
▁pişir	-11.136
onu	-11.1361
▁gül	-11.1363
▁görüldüğü	-11.1367
▁çıkabilir	-11.1369
▁yerlerden	-11.1369
▁gününde	-11.137
▁bakıyorlar	-11.1371
▁yayılması	-11.1373
▁Tri	-11.1374
▁çit	-11.1375
▁beklenti	-11.1379
▁oluşmuş	-11.1379
▁azaldı	-11.138
▁genler	-11.138
▁baskın	-11.1383
▁örtüsü	-11.1383
dıkça	-11.139
▁cevabını	-11.139
▁teknolojiyle	-11.1391
leyin	-11.1392
arası	-11.1395
▁geliri	-11.1396
▁sahipsiniz	-11.1399
▁mide	-11.1406
▁kalbim	-11.1412
▁kenarında	-11.1415
▁iyileştir	-11.1416
▁düşünül	-11.1417
▁huzur	-11.1419
▁duydukları	-11.1419
▁eğil	-11.1422
▁geldiğimiz	-11.1424
▁muhafaza	-11.1429
▁arşiv	-11.143
▁Sahra	-11.143
▁peynir	-11.143
▁Binlerce	-11.143
▁patates	-11.143
▁öğe	-11.143
▁cihad	-11.143
▁enjekt	-11.143
▁Kullan	-11.143
▁Tor	-11.143
▁halihazırda	-11.143
▁tünel	-11.1431
▁imge	-11.1431
▁Nick	-11.1432
▁Brun	-11.1433
▁Model	-11.1433
malısın	-11.1433
▁alanlarını	-11.1434
▁düşünmeliyiz	-11.1434
▁goz	-11.1435
▁salgını	-11.1436
▁suçlama	-11.1436
▁oluştuğunu	-11.1436
▁düşünebiliriz	-11.1437
▁hayvanı	-11.1437
▁Hayatı	-11.1437
▁kalmayıp	-11.1438
▁uzanan	-11.1439
deydim	-11.144
uel	-11.1442
▁aracın	-11.1442
▁karmaşa	-11.1443
▁ettiklerini	-11.1444
▁ellerini	-11.1445
mdeki	-11.1445
▁Eh	-11.145
▁öğrencilere	-11.1453
▁yitir	-11.1453
▁muyu	-11.1454
▁yapmalarını	-11.1456
▁solu	-11.1456
▁burun	-11.1461
▁içsel	-11.1464
▁Koruma	-11.1465
▁söylemiş	-11.1465
▁boyle	-11.147
▁bekley	-11.1472
▁aramızda	-11.1472
▁gidiyorum	-11.1472
▁özünde	-11.1474
lerimin	-11.1474
▁AM	-11.1476
arry	-11.1476
▁çalar	-11.148
▁filmin	-11.1482
▁edilecek	-11.1482
▁kayıtları	-11.1483
▁çaldı	-11.1486
▁ölüme	-11.1494
▁bugünün	-11.1496
▁gene	-11.15
▁tadı	-11.1504
▁anneler	-11.1511
▁nöro	-11.1511
▁Altın	-11.1511
▁akımı	-11.1513
▁adamların	-11.1513
▁Hayvan	-11.1515
▁yayılmış	-11.152
▁belirlen	-11.152
umuzun	-11.1522
▁başkası	-11.1526
▁şempanze	-11.1534
▁hayvanlarda	-11.1534
▁hey	-11.1538
▁sanatçılar	-11.154
▁Bron	-11.154
▁inceler	-11.1541
ydiler	-11.1543
▁nesneleri	-11.1547
▁Sor	-11.1549
cisi	-11.1549
▁artması	-11.1553
▁nakli	-11.1553
amb	-11.1556
▁çocuklarım	-11.1557
▁tutum	-11.1557
▁hayatlarında	-11.1559
▁gelirler	-11.1562
▁anımsa	-11.1564
▁uçma	-11.1567
▁ortamında	-11.1567
▁Bas	-11.1567
▁niyet	-11.1568
sünü	-11.157
eceğiniz	-11.1573
akın	-11.1579
▁gülme	-11.1579
▁askerler	-11.1583
▁dünyasının	-11.1585
▁ticareti	-11.1587
▁sö	-11.1589
▁yayılma	-11.159
jen	-11.1591
▁ebeveynleri	-11.1598
▁yapamaz	-11.1602
▁kristal	-11.1602
▁muayene	-11.1602
▁hemfikir	-11.1602
▁ödüyor	-11.1602
▁yozlaşma	-11.1602
▁coğrafi	-11.1602
▁sistematik	-11.1602
▁işkence	-11.1602
▁göğsü	-11.1602
▁gütmeye	-11.1603
▁Hristiyan	-11.1603
▁üretil	-11.1603
▁evvel	-11.1603
ska	-11.1604
▁öngör	-11.1604
▁evlenme	-11.1604
▁beklenen	-11.1605
▁gözükme	-11.1606
▁beyne	-11.1608
▁yapıştır	-11.161
▁kılıyor	-11.161
▁belgesel	-11.161
▁yaklaştığı	-11.1612
▁söylendi	-11.1612
▁biliyorsun	-11.1613
▁etrafı	-11.1613
▁dayanan	-11.1614
▁bulunmaktadır	-11.1615
▁Sıradaki	-11.1616
▁yapıyorsun	-11.1616
▁hissetmek	-11.1617
▁çağdaş	-11.1619
▁unutu	-11.1619
▁duyuyoruz	-11.1619
▁hic	-11.162
▁bulgu	-11.162
▁lens	-11.1626
atif	-11.1626
abildik	-11.1628
ünüzü	-11.163
▁anlayabilir	-11.1631
▁baktığımız	-11.1637
rası	-11.1641
SP	-11.1642
akir	-11.1644
▁etmeme	-11.1644
pp	-11.1648
▁alev	-11.1649
bon	-11.165
▁terapi	-11.1651
▁Gore	-11.1653
▁bakıyordu	-11.1653
▁çalan	-11.1654
▁aldığınız	-11.1654
▁gerçekler	-11.1655
tığınızda	-11.1655
▁sakat	-11.1656
amadığı	-11.1657
▁bebeği	-11.1658
▁paylaştı	-11.1659
▁interneti	-11.1664
▁çektiğim	-11.1666
▁ortaklık	-11.1666
▁tuz	-11.1673
▁sağladık	-11.1673
lemiş	-11.1676
▁Din	-11.1678
▁penguen	-11.168
▁başkasının	-11.1681
▁and	-11.1683
▁sever	-11.1686
▁duruyordu	-11.1686
▁olduğuydu	-11.1687
▁elit	-11.1688
▁paylaştığı	-11.169
▁pas	-11.1692
üşü	-11.1694
▁önerme	-11.1695
▁erkeklere	-11.1697
▁hatırlay	-11.1697
▁Kendini	-11.1698
▁aktör	-11.1699
▁oluşturabilir	-11.1701
▁fırın	-11.1704
üsü	-11.1709
▁şehirleri	-11.171
▁bağlılık	-11.1711
▁harcıyor	-11.1711
malıdır	-11.1713
▁kaçınma	-11.1716
▁üniversitede	-11.1718
▁gerçekliğin	-11.1718
ham	-11.1718
▁kavramını	-11.1721
tif	-11.1723
irsiniz	-11.1725
▁ulaştığı	-11.1728
irdi	-11.1729
▁İçeri	-11.1729
▁alabilme	-11.173
▁yaşlarda	-11.173
cısı	-11.1731
ğretmen	-11.1735
▁gec	-11.1736
▁silahlar	-11.1739
tesi	-11.1741
▁dolan	-11.1744
▁oh	-11.1749
öylece	-11.1749
▁modelini	-11.1749
▁toplumların	-11.1755
▁vasıtası	-11.1757
▁almamız	-11.1757
irketler	-11.1758
▁ormanı	-11.1759
bar	-11.1761
▁masada	-11.1761
▁konuştuğu	-11.1762
▁evim	-11.1763
att	-11.1764
▁yıldızın	-11.1764
▁uçaklar	-11.1765
▁destekliyor	-11.1765
▁geni	-11.1768
▁göründüğünü	-11.1771
▁birleştirme	-11.1771
eger	-11.1773
▁Etiyopya	-11.1778
▁bambaşka	-11.1778
▁istihbarat	-11.1778
▁şükür	-11.1778
▁Medya	-11.1778
▁goster	-11.1778
▁zafer	-11.1778
▁ampul	-11.1778
▁Nano	-11.1778
▁denetim	-11.1779
▁Ti	-11.1779
▁hekim	-11.1779
▁hedefler	-11.1781
▁Arapça	-11.1782
▁senede	-11.1785
▁kaybeden	-11.1785
larımla	-11.1786
▁diyebilirim	-11.1786
▁bakıcı	-11.1786
▁kalça	-11.1787
▁dönüşü	-11.179
▁gösterge	-11.1794
▁gittiler	-11.1794
▁yaparım	-11.1795
▁edebilirim	-11.1797
▁diyebilir	-11.1799
▁sanatsal	-11.1801
▁köken	-11.1801
▁Dev	-11.1803
▁yüksel	-11.1803
SB	-11.1803
▁mobilya	-11.1804
▁yüzen	-11.1805
▁hayvanın	-11.1806
aydın	-11.181
▁işitme	-11.1812
bel	-11.1824
▁başlaması	-11.1827
▁ikon	-11.1828
▁dinler	-11.1829
▁ormanda	-11.1829
▁Okyanusu	-11.183
▁meslektaşlarım	-11.1834
▁formül	-11.1834
▁maç	-11.1839
▁eğitme	-11.184
▁ölçer	-11.1843
▁arkadaşlarımız	-11.1849
▁İleri	-11.1861
çü	-11.1862
▁yayılıyor	-11.1864
▁uygulaması	-11.1865
▁gördüğünde	-11.1866
bilirler	-11.1866
leştiriyor	-11.1868
▁Star	-11.1869
▁toplar	-11.187
▁deyin	-11.1878
▁kullanılmış	-11.1881
oss	-11.1884
▁eserleri	-11.1884
▁toplumlarda	-11.1889
▁Dış	-11.189
▁gun	-11.189
▁payı	-11.1891
▁gore	-11.1891
▁doktoru	-11.1896
▁başarma	-11.1896
▁girişimciler	-11.1898
▁temizlik	-11.19
▁durumları	-11.1903
▁oluşu	-11.1905
▁bunda	-11.1906
▁ölçmek	-11.1907
▁toprağın	-11.191
▁küçül	-11.191
▁Hedef	-11.191
ecektir	-11.1913
▁sistemlerin	-11.1914
▁açıklaması	-11.1916
▁arkada	-11.1916
▁edebileceği	-11.1919
▁gitmeyi	-11.1919
▁çalışmaların	-11.1921
ib	-11.1922
rebiliriz	-11.1922
▁karakterler	-11.1927
▁Siyah	-11.1928
mezler	-11.1928
▁yaya	-11.1931
▁ekonomist	-11.1931
ny	-11.1933
▁hayatımızda	-11.1934
▁kaynakların	-11.1935
▁ömür	-11.1938
▁gideceği	-11.194
▁nehrin	-11.1942
▁gençlerin	-11.1943
▁unutmayı	-11.1944
▁aktiv	-11.1947
▁Durum	-11.195
▁bakımı	-11.1955
▁zorunlu	-11.1955
▁Kitabı	-11.1956
▁Vakfı	-11.1956
▁dogru	-11.1956
▁coğrafya	-11.1956
▁Gates	-11.1956
▁Virgin	-11.1956
▁şahane	-11.1956
▁Seçim	-11.1956
▁görülebilir	-11.1957
▁fırça	-11.1957
▁yatkın	-11.1957
▁yolsuzluk	-11.1959
▁artar	-11.1959
▁edeceğiniz	-11.1959
batı	-11.196
ons	-11.1963
▁Merkez	-11.1965
▁açısını	-11.1966
▁çözümleri	-11.1967
lduğunu	-11.1968
▁resif	-11.1969
▁konuşuyorum	-11.1969
▁Nehri	-11.197
rk	-11.1971
▁söyleyebiliriz	-11.1971
yordum	-11.1971
▁uzaylı	-11.1972
▁edinme	-11.1972
▁Polis	-11.1972
▁yıkım	-11.1973
▁merkezleri	-11.1974
▁yosun	-11.1974
▁Henr	-11.1974
▁iskeleti	-11.1975
▁bilgisayarda	-11.1976
▁hükumet	-11.1978
▁tabanı	-11.1979
▁yapısal	-11.198
▁geçirmiş	-11.198
▁yakaladı	-11.198
▁kg	-11.1982
▁olsaydınız	-11.1983
▁haliyle	-11.1987
abilirler	-11.1987
azı	-11.1987
▁salon	-11.1987
▁matematikçi	-11.199
▁evrendeki	-11.1991
▁besleme	-11.1991
▁Kendimizi	-11.1992
▁vazgeçme	-11.1993
▁idam	-11.1994
▁Kev	-11.1994
▁hatalar	-11.1994
▁bilerek	-11.1996
▁anlattığım	-11.1996
▁yetenekler	-11.2
▁Kitap	-11.2002
eğe	-11.2002
▁sistemde	-11.2005
▁boşa	-11.2009
▁yapmaz	-11.201
▁hevesli	-11.201
▁özen	-11.2011
▁iletişimi	-11.2012
ebildiği	-11.2013
▁Geçmiş	-11.2013
▁kanıtlar	-11.2017
öz	-11.2018
ebilecekleri	-11.202
nizdeki	-11.2025
▁etkileşime	-11.2028
▁adamla	-11.2028
▁bacakları	-11.2028
▁Bayanlar	-11.2029
▁çizme	-11.203
▁bıraktık	-11.203
▁çim	-11.203
▁katılımcı	-11.2033
▁hareketini	-11.2034
▁kaos	-11.2039
▁duymuşsunuz	-11.2039
▁gö	-11.204
▁seksi	-11.2041
▁kirlilik	-11.2042
▁bulunmak	-11.2043
▁aslin	-11.2043
▁rahatlık	-11.2047
▁mirası	-11.2047
▁cins	-11.2048
▁örneğini	-11.2048
▁yapabilecekleri	-11.2048
▁evlerinde	-11.2048
lmaz	-11.205
emediği	-11.2053
▁Boş	-11.2055
▁baktığınız	-11.2055
▁kızları	-11.2058
SD	-11.2058
▁Boy	-11.2062
▁çalışmalarını	-11.2062
▁Big	-11.2066
▁çoğunluk	-11.2066
▁gerçeğini	-11.2068
▁deneyleri	-11.2068
▁tanımlıyor	-11.2071
▁Yok	-11.2071
▁uçurum	-11.2072
▁arılar	-11.2072
▁sırrı	-11.2078
▁yükseldi	-11.2081
dığımızı	-11.2081
▁birdenbire	-11.2082
▁düzeni	-11.2083
▁kapatma	-11.2084
liğinde	-11.2084
▁arkadaşımı	-11.2085
▁üçü	-11.2086
▁sürer	-11.2092
▁sayfası	-11.2093
saydık	-11.2095
lüğ	-11.2099
▁Bayan	-11.21
ilistin	-11.2102
ubat	-11.2102
▁kafası	-11.2104
▁araştırmak	-11.2107
▁saklan	-11.2107
▁ayırmak	-11.2112
▁yiyor	-11.2114
▁yapama	-11.2116
mıyordu	-11.2117
▁etiketi	-11.2119
▁ileti	-11.212
▁ürünlerin	-11.2122
üç	-11.2123
▁aklımda	-11.2125
▁savaşmak	-11.2129
▁She	-11.213
▁yapabil	-11.2131
labiliriz	-11.2133
▁fok	-11.2135
▁evrimi	-11.2136
▁yağı	-11.2136
▁aklınızda	-11.2136
layacağız	-11.2138
▁Hücre	-11.2138
▁doğuştan	-11.2138
▁istihdam	-11.2138
▁mecbur	-11.2138
▁muhabir	-11.2138
▁öldürücü	-11.2138
▁meslektaşım	-11.2138
▁tasvir	-11.2138
▁numune	-11.2138
▁tahıl	-11.2138
▁Yaratıcı	-11.2138
▁Taliban	-11.2138
▁talebi	-11.2138
▁eşdeğer	-11.2138
▁Kelime	-11.2138
▁Değer	-11.2139
▁düşünürüz	-11.2139
▁Yıldız	-11.2139
▁gide	-11.214
▁etnik	-11.214
▁hergün	-11.2142
▁kavramsal	-11.2142
▁Bell	-11.2142
▁Hepimizi	-11.2142
▁okuyucu	-11.2143
▁çene	-11.2143
▁Tony	-11.2143
▁tanımlayan	-11.2145
▁yaratık	-11.2149
▁çevirmek	-11.2153
▁oluşturmaya	-11.2154
▁konuşuyoruz	-11.2155
▁yürüyen	-11.2158
▁Hastane	-11.2158
NSA	-11.216
▁etmenizi	-11.2162
digi	-11.2162
▁amaçlar	-11.2164
▁düşünebilir	-11.2165
▁gelişiyor	-11.2168
▁yerleştirme	-11.2168
▁bizimki	-11.2169
▁gömülü	-11.217
▁hayatınız	-11.2172
▁Bel	-11.2173
▁dediğini	-11.2175
▁Marc	-11.2175
▁değillerdi	-11.2176
▁görünmeyen	-11.2177
▁sattı	-11.218
lediğimiz	-11.2181
▁odasına	-11.2183
▁savunmasız	-11.2184
PA	-11.2186
▁Adaları	-11.2189
▁uzayın	-11.219
▁oluşturacak	-11.219
▁mikroplar	-11.219
▁kaplan	-11.219
▁başlı	-11.2191
▁organı	-11.2191
▁sars	-11.2193
▁çalma	-11.2196
▁akan	-11.2197
▁böl	-11.2197
▁yaşayabilir	-11.2197
ınızın	-11.2197
▁kaldırım	-11.2198
▁haftalık	-11.2199
▁riskleri	-11.2199
▁videoda	-11.2199
laması	-11.2201
▁dağın	-11.2202
▁başarmak	-11.2202
▁kurulmuş	-11.2204
▁taşıdı	-11.221
▁yetiştirmek	-11.2212
▁butun	-11.2215
ttiği	-11.2218
▁kıyafet	-11.2218
▁avantajı	-11.2219
▁yerdeki	-11.2222
▁kullandığım	-11.2225
▁ulaşıyor	-11.2231
▁yerleştirdik	-11.2234
▁1.000	-11.2235
▁çember	-11.2235
▁olmadıkları	-11.2236
umuzu	-11.2237
rsa	-11.2238
our	-11.2239
▁Bra	-11.2241
▁karmaşıklık	-11.2242
▁kurumları	-11.2247
▁internetten	-11.2248
▁görmedi	-11.2248
▁oğlunu	-11.225
▁insa	-11.2252
▁kolunu	-11.2257
▁etmektir	-11.2258
▁çoğunda	-11.2259
▁ışın	-11.226
▁simge	-11.2262
▁elli	-11.2264
▁kullandığınız	-11.2265
▁uyuyor	-11.2265
▁ameliyatı	-11.2267
isti	-11.2269
▁heves	-11.2269
ladılar	-11.2269
▁seçenekler	-11.2269
lendiğini	-11.2271
memiş	-11.2272
▁olurken	-11.2274
▁tanımlar	-11.2277
▁ndaki	-11.2279
lur	-11.228
▁kahkaha	-11.2283
▁düşür	-11.2287
▁katılmak	-11.2296
▁atı	-11.23
vu	-11.2302
▁psiko	-11.2307
liklerini	-11.2309
▁yüzeyde	-11.2309
▁kültürünü	-11.2312
▁yayınladı	-11.2314
▁kolları	-11.2314
▁bağlıyor	-11.2317
▁tükenme	-11.2317
▁Sırada	-11.2321
▁fırlat	-11.2322
▁astronot	-11.2323
▁timsah	-11.2323
▁çorba	-11.2323
▁illüzyon	-11.2323
▁şarj	-11.2323
▁İsmi	-11.2323
▁filozof	-11.2323
▁çevrili	-11.2323
▁kurşun	-11.2323
▁patern	-11.2324
▁rakip	-11.2324
▁Düşünün	-11.2324
▁zira	-11.2324
▁zihniyet	-11.2324
▁itibariyle	-11.2325
▁arkadaşlarınız	-11.2325
▁Michel	-11.2325
▁laboratuar	-11.2325
▁yatay	-11.2326
ira	-11.2328
▁sezgisel	-11.2329
▁yırtıcı	-11.2329
▁sorabilirsiniz	-11.2329
▁gerçeğin	-11.2331
▁askerleri	-11.2331
▁bulacak	-11.2332
▁sütun	-11.2333
▁sorunlarını	-11.2333
▁erkeğin	-11.2334
lenecek	-11.2335
▁hasat	-11.2338
▁başkan	-11.2338
▁kameralar	-11.2339
▁yıla	-11.234
▁durak	-11.2342
azla	-11.2343
▁büyüt	-11.2345
digimiz	-11.2351
ville	-11.2352
▁belirleye	-11.2355
▁başvuru	-11.2361
▁sevdim	-11.2363
▁sürüklen	-11.2365
▁istenme	-11.2367
▁Nik	-11.2368
▁vuru	-11.2368
▁olmayacaktı	-11.2369
▁bay	-11.237
▁Yapı	-11.2371
▁gündem	-11.2371
▁bag	-11.2372
▁katlı	-11.2377
ice	-11.2377
▁nesnelerin	-11.2378
uan	-11.2382
▁şef	-11.2384
og	-11.2385
▁disk	-11.2386
▁mekanizması	-11.2387
▁kişileri	-11.2387
▁yüzeyin	-11.2388
▁gitmiyor	-11.2391
▁duymaya	-11.2392
▁öğretmenleri	-11.2393
▁ilerledi	-11.2394
▁Yara	-11.2395
▁kromozom	-11.2396
▁araştırdı	-11.2398
▁tabu	-11.2399
▁canlandırma	-11.24
▁attığı	-11.2401
▁Mola	-11.2401
▁tıka	-11.2402
amadım	-11.2403
▁edebileceğimiz	-11.2404
şer	-11.2404
▁bulmamız	-11.2406
▁çıkarın	-11.2407
▁bölümleri	-11.2408
emeyeceği	-11.2409
▁ödev	-11.2409
▁dönüştürül	-11.2411
▁kemikleri	-11.2412
▁yoğunluk	-11.2413
▁kitabını	-11.2413
▁denizin	-11.2414
emeyen	-11.2416
▁denemeye	-11.2418
▁yaprak	-11.242
skop	-11.2424
▁doğdum	-11.2426
▁vurma	-11.2429
▁belirtmek	-11.2431
▁çıkarım	-11.2433
▁bırakın	-11.2436
▁Green	-11.2438
▁içinizde	-11.2439
▁öteki	-11.2442
ava	-11.2443
sey	-11.2446
▁alınma	-11.2446
▁okuy	-11.2448
▁işçiler	-11.2449
▁köşede	-11.245
▁zenginlik	-11.2454
▁anlaşılması	-11.2457
▁bakterilerin	-11.2458
▁Avrupalı	-11.246
▁kalmaz	-11.2462
▁kullanacağı	-11.2469
▁Başkanı	-11.247
▁kırıklığın	-11.2472
▁salgının	-11.2472
▁iyileştirmek	-11.2474
▁hayl	-11.2474
▁yaralanma	-11.2474
▁halı	-11.2475
▁arayüzü	-11.2476
dikçe	-11.248
▁büyülü	-11.2483
▁sivrisinek	-11.2486
▁Eşim	-11.2486
▁kanunları	-11.2486
▁işlediğini	-11.2487
▁Yan	-11.2491
▁metan	-11.2493
▁aklınız	-11.2496
▁Bilme	-11.2501
▁Aralık	-11.2502
▁oluştuğu	-11.2505
▁okudu	-11.2506
▁Güç	-11.251
▁teşkil	-11.2512
▁Nihayet	-11.2512
▁spesifik	-11.2512
▁sponsor	-11.2512
▁örüntü	-11.2512
▁düşünüp	-11.2512
▁etmediği	-11.2512
▁Brian	-11.2512
▁taciz	-11.2512
▁makul	-11.2513
▁Berlin	-11.2513
▁Güven	-11.2513
▁cezası	-11.2514
▁efekt	-11.2515
▁fren	-11.2515
▁şerit	-11.2516
▁başımıza	-11.2516
mıyorlar	-11.2517
▁otoyol	-11.2518
▁harca	-11.2519
▁iyilik	-11.2522
fel	-11.2522
▁gündüz	-11.2522
▁2020	-11.2524
▁baya	-11.2524
lmaya	-11.2525
▁konuşmasını	-11.2526
▁bağlanmış	-11.2526
▁tasarrufu	-11.2531
cal	-11.2531
▁anlayabiliyor	-11.2531
▁biyolog	-11.2532
▁kaçın	-11.2532
mazsınız	-11.2533
▁saklı	-11.2536
▁Geliş	-11.2536
▁bölgesel	-11.2538
▁benzersiz	-11.2539
▁yaşandı	-11.2543
▁lezzetli	-11.2543
▁amca	-11.2544
▁Git	-11.2544
▁Dışarı	-11.2545
▁dinleyiciler	-11.2545
▁teknikleri	-11.2545
▁olsalar	-11.2546
iir	-11.2548
▁takma	-11.2549
▁kafamda	-11.2549
▁Yanı	-11.255
▁balonu	-11.2553
▁boğul	-11.2554
laşan	-11.2556
▁Sir	-11.2557
▁2,	-11.256
▁Seat	-11.2562
▁kast	-11.2564
bildim	-11.2565
▁eğlen	-11.2565
▁satıcı	-11.2565
▁bozukluk	-11.2566
▁bakmayı	-11.2573
▁delikler	-11.2575
yal	-11.2578
▁yetkili	-11.2578
çılar	-11.2579
▁komşuları	-11.2583
▁öncelik	-11.2583
▁evsiz	-11.2585
▁versiyonunu	-11.2589
▁çalıştıkları	-11.2591
▁ışığ	-11.2593
▁telefonlar	-11.2598
▁lamba	-11.2599
▁bölme	-11.2602
▁Gelin	-11.2603
▁Balık	-11.2605
▁cm	-11.2607
▁gittiğinde	-11.2607
▁sorusunu	-11.2608
▁teknolojimiz	-11.261
▁değişmesi	-11.2612
mizdeki	-11.2614
▁seninle	-11.2615
diğine	-11.2618
▁altta	-11.2619
▁seçimleri	-11.262
▁geleni	-11.2621
▁tü	-11.2621
▁ilgilenmeye	-11.2624
▁cevapları	-11.2625
▁deneyin	-11.2627
▁Dün	-11.2627
dam	-11.2628
▁evre	-11.2631
▁hayatınızda	-11.2632
▁haz	-11.2634
▁sunumu	-11.2637
▁bahsetmiyoru	-11.2642
▁lobi	-11.2642
▁duruş	-11.2643
▁kümesi	-11.2643
▁aylar	-11.2643
▁Birden	-11.2646
▁gücümüz	-11.2646
▁mutluluğu	-11.265
▁çiftleşme	-11.2652
▁zamanımız	-11.2652
▁kader	-11.2653
▁akıntı	-11.2655
maktır	-11.2656
▁edemiyor	-11.2656
ldü	-11.2659
▁ulaşı	-11.2659
▁topladık	-11.2661
▁taşıy	-11.2663
ildiğinde	-11.2663
▁barındır	-11.2665
▁yakınında	-11.2666
▁bulunması	-11.2667
acakları	-11.2668
▁tesadüf	-11.2668
▁karşılaştığı	-11.2668
▁önceydi	-11.2672
▁araştırması	-11.2674
ment	-11.2674
▁komut	-11.2676
▁Hollanda	-11.2678
▁yaşları	-11.268
▁Hayatımı	-11.2681
▁birsey	-11.2682
▁değerinde	-11.2682
▁yıkıl	-11.2684
yesi	-11.2686
olo	-11.2688
erry	-11.2689
▁kıza	-11.269
▁Sistemi	-11.269
▁yasalar	-11.2693
▁çalışmış	-11.2693
▁asi	-11.2693
▁kaçırma	-11.2696
▁zıt	-11.2696
▁olanlardan	-11.2697
▁bilmiyordu	-11.2702
▁samimi	-11.2704
▁National	-11.2704
▁Parkinson	-11.2704
▁oksitosin	-11.2704
▁beyefendi	-11.2704
▁manşet	-11.2704
▁avuç	-11.2704
▁fatura	-11.2704
▁izole	-11.2704
▁genetiği	-11.2704
▁oğlan	-11.2704
▁videosu	-11.2704
▁Duvar	-11.2705
▁solunum	-11.2705
▁Delhi	-11.2705
▁Kas	-11.2705
▁görülür	-11.2705
laşır	-11.2706
▁eşya	-11.2706
▁tema	-11.2707
▁arkadaşlarını	-11.2711
▁barışı	-11.2712
▁kaldırıp	-11.2712
▁harcıyoruz	-11.2713
▁olsam	-11.2714
dr	-11.2716
▁hayranı	-11.2718
▁bileşen	-11.2719
▁durdurmak	-11.2723
▁temizle	-11.2727
▁okullarda	-11.2728
▁geleneği	-11.2728
▁beyninde	-11.2731
▁Bor	-11.2732
▁maliyetini	-11.2732
ırım	-11.2737
▁yaşamayı	-11.2737
▁anlayan	-11.2737
▁Kaçınız	-11.2738
▁kaybol	-11.274
▁konsept	-11.2745
▁peri	-11.2746
emin	-11.2746
▁profesörü	-11.2747
▁Dağı	-11.275
▁anlayabilmek	-11.275
▁niyetli	-11.2751
oca	-11.2751
▁umutsuz	-11.2752
▁amacım	-11.2754
▁müdürü	-11.2754
▁Derin	-11.2755
▁isteriz	-11.276
▁verdiğiniz	-11.276
▁engellemek	-11.2762
▁yayınlama	-11.2763
▁kalkış	-11.2765
▁sağdaki	-11.2767
mişler	-11.2774
bra	-11.2776
lduğunda	-11.2776
▁ırkçı	-11.2777
▁bölgeyi	-11.2783
▁Devrimi	-11.2786
▁niha	-11.2787
▁şeffaflık	-11.2789
▁karanlıkta	-11.2791
▁inceledik	-11.2792
▁önlemek	-11.2795
▁tartışmaya	-11.2796
▁verirler	-11.2797
▁bilmediğimiz	-11.2798
▁yapmama	-11.2799
iti	-11.2799
▁gösteriyorum	-11.2801
amanı	-11.2801
▁Par	-11.2802
rip	-11.2803
▁Arkadaş	-11.2806
▁eğ	-11.2806
▁servisi	-11.2807
▁sıralama	-11.2808
▁sokaklarda	-11.2812
▁hareketlerini	-11.2813
layabiliyor	-11.2816
▁satıyor	-11.2816
▁ifadesi	-11.2817
▁durduğu	-11.2818
▁gitmişti	-11.282
▁gereklidir	-11.2821
▁işaretleri	-11.2822
▁Bunlara	-11.2823
duğumuz	-11.2826
▁kırı	-11.2826
▁vardık	-11.2836
▁ilgilenir	-11.2837
▁silahları	-11.2838
▁Hel	-11.2838
▁kaynaklarını	-11.2839
▁koro	-11.284
▁gülümseme	-11.2842
▁avlanma	-11.2844
▁teker	-11.2846
▁almıyor	-11.2848
▁yerdi	-11.2851
▁kaybolma	-11.2853
▁Nor	-11.2856
▁temelinde	-11.2856
onlarca	-11.2859
▁uyuş	-11.286
▁edeceğini	-11.2863
ğr	-11.2864
▁Eg	-11.2871
▁Mus	-11.2871
ladığım	-11.2874
▁kodlama	-11.2874
▁öğrendikleri	-11.2874
▁çıkartma	-11.2875
yacaksınız	-11.2878
▁katıldığı	-11.2879
▁karın	-11.288
▁koruyor	-11.2881
▁hipotez	-11.2881
▁saçı	-11.2882
▁sihir	-11.2885
▁sinyaller	-11.2888
▁çocuğunu	-11.2888
ork	-11.2892
▁girmiş	-11.2893
▁çeviriyor	-11.2894
▁çalışmakta	-11.2896
▁sağlığını	-11.2897
▁başarmış	-11.2897
▁Dahası	-11.2898
▁ayaklanma	-11.2899
▁argüman	-11.29
▁origami	-11.29
▁pamuk	-11.29
▁ürkütücü	-11.29
▁garaj	-11.29
▁Görünüş	-11.29
▁servet	-11.29
▁sansür	-11.29
▁öldürüyor	-11.29
▁ufacık	-11.2901
▁Silah	-11.2901
▁ipucu	-11.2901
▁düşünürsünüz	-11.2901
▁Bitki	-11.2901
▁seferde	-11.2901
▁İlgi	-11.2901
▁Yemen	-11.2901
▁bayrak	-11.2901
▁üzgünüm	-11.2901
▁molekülü	-11.2901
▁istiyorsun	-11.2901
Kaide	-11.2902
▁haberdar	-11.2902
▁yaramıyor	-11.2903
▁koru	-11.2903
▁lanet	-11.2903
▁Aşk	-11.2903
▁Kazan	-11.2904
▁Etki	-11.2905
▁azınlık	-11.2905
▁fo	-11.2906
▁gayri	-11.2907
▁düşündüğünü	-11.2908
▁değiştiği	-11.2909
▁salgı	-11.2909
▁beklemek	-11.2912
▁görelim	-11.2913
▁Ger	-11.2915
▁belirsizlik	-11.2915
▁Beynin	-11.2918
▁giderseniz	-11.2918
▁ayıran	-11.2919
▁hastaya	-11.2919
▁açıklamaya	-11.292
yahut	-11.292
▁gönderir	-11.2921
▁günleri	-11.2927
▁cerrah	-11.2927
▁Telefon	-11.2928
▁okyanuslar	-11.2928
yacağız	-11.2931
▁şov	-11.2932
mediği	-11.2932
▁dikkatinizi	-11.2932
▁seven	-11.2932
▁oyuncuları	-11.2939
▁seçilmiş	-11.2939
▁vatandaşlar	-11.294
▁politikacı	-11.2941
▁buldukları	-11.2941
▁boyutunda	-11.2942
▁aygıt	-11.2943
▁kavra	-11.2944
▁eksi	-11.2944
▁kampanyası	-11.2946
▁hissettiğim	-11.2948
▁okulları	-11.295
▁Pen	-11.295
▁köpekler	-11.2951
imizden	-11.2952
▁Simdi	-11.2952
▁yüzün	-11.2954
▁yazdığım	-11.2956
▁arayan	-11.2958
▁evler	-11.2962
gras	-11.2963
▁edeceksiniz	-11.2965
▁iyiye	-11.2966
▁arttırma	-11.2968
lk	-11.2969
sinda	-11.297
▁Pra	-11.2972
▁görüldü	-11.2972
▁hazırlama	-11.2973
▁dikil	-11.2974
mezdi	-11.2975
▁ağlama	-11.2975
▁seçti	-11.2975
▁sınırlarını	-11.2978
lli	-11.2979
dra	-11.2979
▁durumla	-11.2981
▁kapsaya	-11.2982
▁kartları	-11.2982
▁oynamaya	-11.2982
▁olmazsa	-11.2985
meme	-11.2985
leşik	-11.2987
▁harikaydı	-11.299
▁gördükleri	-11.299
▁çekin	-11.2991
▁bireyin	-11.2993
▁kullanacağım	-11.2994
▁çıkarabilir	-11.2996
▁ormanlar	-11.3
▁eklem	-11.3003
▁toplulukları	-11.3005
▁düşünmenin	-11.3007
ind	-11.3009
▁olacağımız	-11.3013
olojik	-11.3014
lanmamış	-11.3014
▁alıyordu	-11.3017
▁dağılımı	-11.3017
▁yazın	-11.3018
▁depolama	-11.302
▁başkaları	-11.3023
▁planla	-11.3024
▁hapiste	-11.3028
▁yapsa	-11.3029
▁sözcük	-11.303
▁içerir	-11.303
▁kaldığı	-11.3035
biliyor	-11.3035
▁insanoğlunu	-11.3035
mıyorum	-11.3037
layayım	-11.3038
▁gökyüzün	-11.3039
▁çalı	-11.304
landığında	-11.3042
▁teknikler	-11.3044
▁format	-11.3046
▁yas	-11.3049
▁yayınlandı	-11.3052
▁karış	-11.3053
▁çiçekler	-11.3053
▁Olan	-11.3055
▁kontrolünü	-11.3058
▁açılma	-11.3059
▁gergin	-11.3061
▁ideoloji	-11.3062
iddet	-11.3062
▁Çinli	-11.3064
▁Steven	-11.3068
ebilirler	-11.3068
▁detayları	-11.3069
▁geçebilir	-11.307
▁istismar	-11.3071
▁aklı	-11.3078
▁kaplama	-11.3078
▁rahatsızlık	-11.3082
▁mutluluğun	-11.3083
▁dansı	-11.3089
▁isimlendir	-11.3092
▁çalın	-11.3093
▁modelleme	-11.3095
▁bilgisayarları	-11.3095
▁bandı	-11.3096
▁kafes	-11.3096
▁gitmedi	-11.3098
▁sunucu	-11.3099
▁Kızıl	-11.31
▁Detroit	-11.31
▁Profesör	-11.31
▁Singapur	-11.31
▁levha	-11.31
▁omurilik	-11.31
▁pantolon	-11.31
▁Norveç	-11.31
▁kulübe	-11.31
▁talimat	-11.31
▁Grön	-11.31
▁doğaçlama	-11.31
▁Nelson	-11.31
▁manevi	-11.31
▁bozucu	-11.3101
▁asteroid	-11.3101
▁kademe	-11.3101
▁romantik	-11.3103
▁etkileyecek	-11.3103
abilmesi	-11.3103
▁GSM	-11.3103
▁dilerim	-11.3104
▁anıt	-11.3105
iğe	-11.3106
▁duyulan	-11.3107
▁şüpheci	-11.3107
▁içindeydi	-11.3109
düz	-11.3109
▁söyledik	-11.3112
▁nesiller	-11.3117
▁sektörü	-11.3122
bilim	-11.3124
▁Eş	-11.3127
▁duyulma	-11.3128
▁eleman	-11.3131
▁inşaa	-11.3132
▁hakkını	-11.3133
▁Yaptığım	-11.3134
▁hatırlattı	-11.3135
▁umur	-11.3135
▁paylaşım	-11.3141
▁fırsatları	-11.3143
▁olabil	-11.3143
▁ulaşan	-11.3144
▁şiş	-11.3145
▁unut	-11.3147
▁tabiat	-11.3148
▁kası	-11.3148
▁Pr	-11.3149
▁temizleme	-11.3149
▁destekçi	-11.315
▁kaynaş	-11.315
▁kurtulmak	-11.3153
▁hataları	-11.3156
▁paraya	-11.3156
oh	-11.3156
▁Ağ	-11.3157
▁kazandık	-11.3157
▁bakışı	-11.3159
▁buralarda	-11.3161
▁sıralarda	-11.3161
▁ebeveynler	-11.3164
▁mikrofon	-11.3167
meliyim	-11.317
▁aradım	-11.317
▁projeleri	-11.3173
▁Normalde	-11.3174
▁birlik	-11.3175
▁genişliğinde	-11.3175
▁solucan	-11.3178
▁Değiş	-11.318
▁öğreti	-11.3182
aten	-11.3183
▁arayışı	-11.3184
▁ilginçtir	-11.3185
ğına	-11.3187
▁ettiğinde	-11.3188
10	-11.319
▁taşları	-11.3192
▁sıçrama	-11.3194
▁zorlukları	-11.3195
▁elimi	-11.3195
▁televizyonda	-11.3196
▁yeteneklerini	-11.3197
▁dönecek	-11.3197
▁sembolü	-11.32
▁proteinler	-11.3203
▁olanağı	-11.3204
▁anlayama	-11.3208
▁lisede	-11.3211
▁dördü	-11.3212
kalı	-11.3213
▁Pal	-11.3214
▁kabullen	-11.3214
gat	-11.3214
▁tuttur	-11.3216
emem	-11.3216
▁başlayacağım	-11.3222
▁indi	-11.3223
▁endişelenme	-11.3224
▁araştırmayı	-11.3224
▁hissetti	-11.3225
▁takdirde	-11.3225
▁Gen	-11.3226
▁Körfezi	-11.3228
layacağım	-11.3228
▁anlamayı	-11.3228
▁kapitalizm	-11.323
layabilirsiniz	-11.3232
▁Brad	-11.3238
▁Söyle	-11.3239
chi	-11.3239
▁koleksiyonu	-11.3243
▁bağlama	-11.3243
leşmeye	-11.3246
▁gittiğim	-11.3246
▁My	-11.3247
▁aktarıl	-11.3248
baba	-11.3249
▁delil	-11.3249
▁varmak	-11.3252
▁belirlemek	-11.3252
▁diyorsunuz	-11.3253
▁madenci	-11.3254
▁dönüştürüyor	-11.3262
▁yaptığımızda	-11.3265
lamayı	-11.3267
▁yolladı	-11.3269
liğimiz	-11.3269
▁duvarlar	-11.3269
▁görüyorlar	-11.3271
▁konuştuğum	-11.3272
▁matematiğin	-11.3275
kav	-11.3275
▁yansıtma	-11.3275
▁koşullarda	-11.3276
▁gör	-11.3279
ung	-11.3281
▁sevin	-11.3282
sinler	-11.3284
▁azal	-11.3285
bildiği	-11.3287
▁olaya	-11.3289
▁anlatacak	-11.3289
▁gösterdim	-11.3293
▁umursama	-11.3294
▁bağlan	-11.3296
▁istikrar	-11.3297
▁görevlisi	-11.3297
▁çekmeye	-11.3298
▁politikası	-11.3301
▁hayattaki	-11.3304
▁Aristo	-11.3304
▁Dördüncü	-11.3304
▁senkroniz	-11.3304
▁tsunami	-11.3304
▁şampiyon	-11.3304
▁mühim	-11.3304
▁Somali	-11.3304
▁Sekiz	-11.3305
▁obezite	-11.3305
▁federal	-11.3305
▁borsa	-11.3305
▁mucit	-11.3305
▁Köy	-11.3305
▁opera	-11.3305
rgütü	-11.3305
▁paketi	-11.3306
▁dindar	-11.3306
▁hassasiyet	-11.3306
▁güne	-11.3306
▁mega	-11.3307
▁vaad	-11.3307
▁yönlü	-11.3308
▁bilmeyen	-11.3309
▁sarf	-11.3309
▁Port	-11.331
▁ivme	-11.331
▁yaradığını	-11.3311
MS	-11.3311
▁gerçekleşir	-11.3311
▁bağlanma	-11.3312
▁adaptasyon	-11.3312
▁gayret	-11.3313
▁Hill	-11.3316
▁Kolay	-11.3316
▁festival	-11.3319
▁İnan	-11.3321
▁itme	-11.3324
▁Hav	-11.3325
▁kuvvetleri	-11.3325
▁hissini	-11.3327
▁kirliliği	-11.3328
▁uzerinde	-11.3329
▁ikili	-11.333
▁MB	-11.3332
▁Bre	-11.3335
▁programın	-11.3335
▁açabilir	-11.3336
abiliyorlar	-11.3337
▁birimiz	-11.3338
▁uğraştı	-11.3342
▁hayalim	-11.3343
yeyi	-11.3346
▁verebil	-11.3352
▁bulmayı	-11.3354
larinda	-11.3355
▁kullanacak	-11.3355
▁Hayatın	-11.3356
▁görüyordu	-11.3357
▁yem	-11.3357
▁sağda	-11.3359
▁belkide	-11.3359
▁koyuldu	-11.336
▁Ata	-11.3361
▁solda	-11.3362
▁olmamızı	-11.3362
▁bilimci	-11.3363
lamıştı	-11.3363
▁aya	-11.3364
▁arkamda	-11.3369
zaman	-11.3369
▁geldiklerinde	-11.3374
▁amaçları	-11.3375
▁taraflı	-11.3376
▁arkasın	-11.3378
▁organizasyonlar	-11.3379
▁asal	-11.338
deriz	-11.3381
▁bileşeni	-11.3382
larıydı	-11.3382
▁SS	-11.3386
king	-11.3388
▁hapis	-11.3389
▁Çince	-11.3389
ori	-11.339
maktansa	-11.339
▁becerisi	-11.3392
▁filmleri	-11.3392
▁söylemedi	-11.3393
▁bilgilerini	-11.3394
▁Matt	-11.3398
▁sundu	-11.3403
masından	-11.3405
▁engelleri	-11.3406
▁yerleştirmek	-11.3407
▁bilge	-11.3407
▁almadı	-11.3409
▁oynadığı	-11.3411
▁düzensiz	-11.3415
▁giyiyor	-11.3416
▁sayma	-11.3417
yabilir	-11.3418
▁yiyecekler	-11.3419
▁fikirle	-11.3419
▁kültürler	-11.342
▁yarıya	-11.3421
▁eğitil	-11.3423
▁karıştırma	-11.3427
▁yerindeki	-11.3429
▁seçenekleri	-11.3429
▁Air	-11.3431
ıyorlardı	-11.3434
▁olduklarından	-11.3434
▁yaşayacağı	-11.3436
▁maddeleri	-11.3437
▁jeo	-11.3442
▁çapl	-11.3442
▁sahibim	-11.3442
▁Diğeri	-11.3443
rop	-11.3444
lmüş	-11.3445
▁Bol	-11.3446
▁tarzda	-11.3447
▁sizlerin	-11.3448
gra	-11.345
▁bitirdi	-11.345
▁evleri	-11.3451
dül	-11.3452
▁üretici	-11.3452
▁sonlarında	-11.3458
▁düşündükleri	-11.3458
muyorum	-11.3458
▁paylaşacağım	-11.3459
irketi	-11.346
so	-11.346
bilirsiniz	-11.346
▁erkekleri	-11.3463
▁Kah	-11.3463
▁sizde	-11.3463
▁aklın	-11.3469
mekle	-11.347
▁göremiyor	-11.3472
▁üretti	-11.3472
▁robotu	-11.3479
▁duydun	-11.3481
▁şanslıydı	-11.3481
▁taraftaki	-11.3482
hol	-11.3482
▁kurtardı	-11.3484
▁objeler	-11.3485
▁astronomi	-11.3485
▁bilmediği	-11.3488
▁alacağım	-11.3492
yeler	-11.3492
▁beklentisi	-11.3494
▁inançları	-11.3495
▁parayla	-11.3495
meyeceğiz	-11.3498
▁rezerv	-11.3499
▁sözleşme	-11.35
▁duvarın	-11.3501
mayacağım	-11.3502
▁maliyetleri	-11.3506
▁oto	-11.3508
▁alışkanlık	-11.3511
▁Acı	-11.3512
▁üzgün	-11.3512
▁Bangladeş	-11.3513
▁Demokrat	-11.3513
▁Soğuk	-11.3513
▁fevkalade	-11.3513
▁çekirdeği	-11.3513
▁Sekoya	-11.3513
▁klişe	-11.3513
▁öğüt	-11.3513
▁tercüme	-11.3513
▁Türkiye	-11.3513
▁Olimpiyat	-11.3513
▁hatıra	-11.3513
▁Motor	-11.3513
▁keçi	-11.3513
▁dolaşım	-11.3513
▁Ticaret	-11.3513
▁muhafazakar	-11.3513
▁Mayıs	-11.3514
▁yedek	-11.3514
irsek	-11.3514
▁cikar	-11.3514
▁Parça	-11.3515
▁uygulanabilir	-11.3515
▁mülk	-11.3515
▁bayılıyorum	-11.3517
▁Akıllı	-11.3519
atson	-11.3519
▁kuyu	-11.352
diklerinde	-11.352
▁yapıda	-11.3522
▁olmamalı	-11.3522
elanda	-11.3522
▁açıl	-11.3522
▁Kura	-11.3522
▁uçuşu	-11.3523
▁uzaklaştır	-11.3523
▁götüren	-11.3524
leştiği	-11.3525
▁İncil	-11.3525
▁okuyan	-11.3525
▁getirerek	-11.3527
▁çağda	-11.3527
layabilecek	-11.3528
▁boyutları	-11.3529
▁arabaların	-11.353
larini	-11.3531
▁çayır	-11.3531
▁Batılı	-11.3532
▁eyaletler	-11.3533
▁ekledik	-11.3533
layalım	-11.3534
▁makinası	-11.3534
miyorsunuz	-11.3535
▁bahar	-11.3539
▁olgun	-11.354
▁fiil	-11.354
▁muydu	-11.3541
ılmasını	-11.3541
▁unsur	-11.3545
▁çalışabilir	-11.3545
▁sorduğu	-11.3546
▁Sanal	-11.355
▁gitmemiz	-11.3555
▁kayak	-11.3555
▁bırakan	-11.3557
▁çizgisi	-11.3558
leştirmeye	-11.3558
▁güzeldi	-11.3559
▁yanınızda	-11.3561
▁vurgu	-11.3561
▁hissediyorsunuz	-11.3563
▁örnekle	-11.3566
▁dolaş	-11.3567
▁döndüğüm	-11.3568
▁sektörün	-11.3572
▁gelişimin	-11.3573
▁sevmiyor	-11.3575
▁durdurma	-11.3578
sünüz	-11.3582
▁soldaki	-11.3583
▁kapattı	-11.3583
▁uçtu	-11.3587
▁demo	-11.3587
▁Ten	-11.3592
▁harfi	-11.3593
▁dilde	-11.3594
▁Ani	-11.3595
▁Görme	-11.3595
▁geçmeye	-11.3597
▁Dediğim	-11.36
▁kapsa	-11.3605
bilirdi	-11.3605
▁Kır	-11.3609
▁bilmeniz	-11.3609
▁yaptığında	-11.3611
pia	-11.3614
▁kayı	-11.3616
▁bilimciler	-11.3617
alt	-11.3618
▁sayısal	-11.3618
▁eğitmek	-11.3619
▁değişimler	-11.3619
ğınızda	-11.3622
▁sizce	-11.3623
▁arkadaşlık	-11.3624
▁üstündeki	-11.3626
▁özetle	-11.3626
dikten	-11.3627
▁büyüdük	-11.3627
▁çıktılar	-11.3629
▁kablolar	-11.3631
▁yıldızları	-11.3632
▁görünebilir	-11.3632
▁sarma	-11.3636
▁laboratuvarı	-11.3637
▁Yu	-11.3638
▁kuşların	-11.3639
▁atın	-11.364
lla	-11.364
▁doğrusal	-11.3641
▁binaları	-11.3646
yacaktır	-11.3648
▁paylaşıyor	-11.365
▁şarkıcı	-11.365
▁Anlaşıl	-11.3652
▁dörtte	-11.3653
yy	-11.3653
▁Yaptığı	-11.3655
▁gerçekleri	-11.366
▁dönemin	-11.366
▁klip	-11.3666
ju	-11.3666
▁hacker	-11.3667
▁Tar	-11.3667
▁bağlamak	-11.3672
▁kumaş	-11.3672
▁kesil	-11.3674
▁bulundukları	-11.3675
▁isimleri	-11.3679
▁yerleş	-11.368
▁Mısırlı	-11.3681
▁başlangıcında	-11.3686
▁koyabilir	-11.3694
mediğini	-11.3695
▁eklemek	-11.3696
▁öğretmenlerin	-11.3697
▁işinde	-11.3701
▁sorunlara	-11.3701
▁panel	-11.3702
ttığı	-11.3702
vel	-11.3703
medim	-11.3706
▁ilişkilendir	-11.3707
illiam	-11.3708
▁mesajlar	-11.3708
▁tüy	-11.3709
▁haftalar	-11.3709
DA	-11.371
sis	-11.3714
▁dağlar	-11.3714
▁Br	-11.3717
ebiliyorlar	-11.3719
▁cesareti	-11.372
▁korun	-11.372
üzün	-11.3722
yacağı	-11.3723
▁husus	-11.3725
▁Amerikalıları	-11.3725
▁Diyelim	-11.3725
▁Elektrik	-11.3725
▁Kulağa	-11.3725
▁hiyerarşi	-11.3725
▁iPod	-11.3725
▁iğrenç	-11.3725
▁tişört	-11.3725
▁İrlanda	-11.3725
▁hoparlör	-11.3725
▁piksel	-11.3725
▁Nefes	-11.3726
▁komedi	-11.3726
▁gökada	-11.3726
▁baloncuk	-11.3726
▁Görünen	-11.3726
▁seçkin	-11.3726
▁ezber	-11.3726
çüncüsü	-11.3726
▁israf	-11.3726
▁gittiğinizde	-11.3728
▁çete	-11.3728
▁Albert	-11.3728
▁başlamalıyız	-11.3729
▁krizin	-11.3729
▁enerjisini	-11.373
▁söylemiyorum	-11.3731
▁sayılmaz	-11.3731
arolina	-11.3731
▁Sno	-11.3732
▁şekillendirme	-11.3733
▁etrafımızdaki	-11.3736
▁tavır	-11.3737
▁Titan	-11.374
▁zincir	-11.3742
▁Patlama	-11.3745
▁kavramlar	-11.3746
▁vuruş	-11.3748
▁dayanır	-11.375
▁satan	-11.3754
▁yönünü	-11.3754
▁döndürü	-11.3757
▁kuvveti	-11.3757
▁asılı	-11.3762
ydılar	-11.3763
▁engelleye	-11.3763
▁gram	-11.3764
▁bölgelerin	-11.3765
▁seçtim	-11.377
▁santral	-11.377
▁soracak	-11.377
▁ettirmek	-11.3771
▁katılan	-11.3775
▁birkaçı	-11.3776
▁katıldım	-11.3782
şu	-11.3782
▁reaktör	-11.3783
▁gözünde	-11.3785
▁ailesini	-11.3786
▁emeklilik	-11.3786
▁odaklanmak	-11.3791
iyat	-11.3792
▁dilinde	-11.3794
▁hayalini	-11.38
▁istemek	-11.3801
▁Ortak	-11.3804
omi	-11.3807
▁yetiş	-11.3807
▁seçtiği	-11.3808
rtesi	-11.3814
şan	-11.3814
▁medyada	-11.3814
▁dirençli	-11.3816
▁kısmının	-11.3816
▁verilmiş	-11.3818
▁fonksiyonu	-11.3819
▁Hans	-11.3822
▁organlar	-11.3822
▁olsak	-11.3823
▁silahı	-11.3823
stro	-11.3824
▁gözün	-11.3828
▁bağları	-11.383
▁öğretir	-11.3836
▁tutkum	-11.384
▁merkezli	-11.384
▁Günde	-11.3844
▁yapabileceğim	-11.3855
▁odaklanmış	-11.3857
▁dalgalar	-11.386
▁kaldığını	-11.386
▁okuyu	-11.3861
▁kadınla	-11.3861
acağına	-11.3861
▁etkilen	-11.3862
▁taksi	-11.3864
hücre	-11.3864
▁güdü	-11.3866
▁filan	-11.3869
▁kuşak	-11.3872
▁anlayabil	-11.3872
▁yöneticisi	-11.3872
▁detaylar	-11.3878
▁yarattığımız	-11.3878
▁Mer	-11.3883
▁uğraşmak	-11.3883
▁Çocukları	-11.3883
▁sıkışı	-11.3888
▁parçacık	-11.3894
▁kolon	-11.3895
▁virüsün	-11.3896
▁kararları	-11.3897
▁kapağı	-11.3898
▁gezegenimiz	-11.3901
▁sokağ	-11.3902
▁gezegenimizi	-11.3904
▁düşünmüş	-11.3904
▁yığını	-11.3908
uh	-11.3909
▁konuşmuyor	-11.3916
▁kürek	-11.3917
▁dersin	-11.3917
hip	-11.3917
pal	-11.3919
▁ikimiz	-11.3921
▁Gol	-11.3922
▁ateşi	-11.3923
landırıyor	-11.3925
aktif	-11.3926
▁dürtü	-11.3927
▁yürü	-11.3928
▁parçasıdır	-11.3928
▁anları	-11.3928
▁harcar	-11.3929
▁buhar	-11.393
▁geliştirir	-11.3932
▁Sonsuz	-11.3932
▁neresi	-11.3933
▁kuruldu	-11.3934
▁keşfediyor	-11.3938
▁aydınlatma	-11.3939
eographic	-11.3943
eonardo	-11.3943
▁Muhammed	-11.3943
▁mektubu	-11.3943
▁müslüman	-11.3943
▁santimetre	-11.3943
▁soykırım	-11.3943
▁trajik	-11.3943
▁entropi	-11.3943
▁ipuçları	-11.3943
▁kıvrıl	-11.3943
▁mahrum	-11.3943
▁montaj	-11.3943
▁Teksas	-11.3943
▁Sıcak	-11.3943
▁İlaç	-11.3943
▁röntgen	-11.3943
▁karides	-11.3943
▁alıştırma	-11.3943
▁izleyin	-11.3943
▁Yaptıkları	-11.3943
▁sıçan	-11.3943
▁Sınır	-11.3944
▁hırsız	-11.3944
▁Mike	-11.3944
▁memnuniyet	-11.3944
▁icadı	-11.3944
▁ipek	-11.3945
▁yaşlandık	-11.3945
▁verelim	-11.3947
▁Karanlık	-11.3948
▁karşılaşır	-11.3949
▁anlarsınız	-11.3949
▁gökyüzünde	-11.3949
▁göremezsiniz	-11.395
▁kurucu	-11.395
▁seyler	-11.3951
▁ulaşması	-11.3952
▁Düzen	-11.3954
▁yapacaklarını	-11.3954
▁birleşimi	-11.3954
▁Homo	-11.3954
▁kitab	-11.3955
arsanız	-11.3956
▁so	-11.3956
mişimdir	-11.3956
▁vizyonu	-11.396
▁mümkündür	-11.396
▁kullanmış	-11.3961
▁bedeli	-11.3962
▁dolaşıyor	-11.3962
▁otuz	-11.3966
▁görünme	-11.3968
▁sandığı	-11.3968
▁gerçekleştirme	-11.397
▁virüsler	-11.3973
▁eylemleri	-11.3973
▁çevresindeki	-11.3974
▁Kor	-11.3975
▁set	-11.3975
▁yaratıyoruz	-11.3976
▁yorumlama	-11.3976
▁yazmış	-11.3977
▁alabiliriz	-11.3982
▁olmamış	-11.3984
▁tutmaya	-11.3984
▁istemişti	-11.3987
ilip	-11.3988
▁kurumu	-11.3989
▁tav	-11.3992
▁yazıyordu	-11.4
▁Kuş	-11.4004
▁sağlamaya	-11.4006
▁rolünü	-11.401
▁kabullenme	-11.401
▁yöntemle	-11.4012
▁açım	-11.4014
▁isimlerini	-11.4015
▁yaşamlarını	-11.4018
▁İnsanlık	-11.402
▁sözünü	-11.402
▁kaydetme	-11.4021
▁statü	-11.4025
▁tasarla	-11.4027
▁edemez	-11.403
iste	-11.4033
▁mesajları	-11.4033
labildiği	-11.4034
▁andan	-11.4034
▁olmadığımız	-11.4035
▁çıkarmaya	-11.4037
▁boyutlar	-11.4037
fak	-11.4038
ius	-11.4042
▁midir	-11.4045
▁çarptı	-11.4046
▁ihtiyaçlarını	-11.4046
yabilirsiniz	-11.4049
Sh	-11.4049
stik	-11.4051
ET	-11.4059
▁temsili	-11.4061
▁amacımız	-11.4062
▁kaldırmak	-11.4064
ion	-11.4065
her	-11.4069
▁çalışmada	-11.4072
▁beceriler	-11.4072
▁kaçma	-11.4078
▁aktarma	-11.4083
▁bulundur	-11.4088
▁değiştirmemiz	-11.409
▁olabilirim	-11.4091
▁kaldırdı	-11.4092
Bu	-11.4093
▁yaklaşıyor	-11.4094
▁kendinden	-11.4097
▁Etrafı	-11.41
▁yapılandır	-11.4104
▁gördüğünüzde	-11.4116
▁birbirleri	-11.4118
eni	-11.4123
▁istatistikler	-11.4124
▁düzeyinde	-11.4126
▁hidro	-11.4127
▁beste	-11.4129
▁hiper	-11.4132
arth	-11.4132
ight	-11.4134
▁sara	-11.4137
uke	-11.4137
▁yapmadığı	-11.4139
▁konuşul	-11.4141
▁Ken	-11.4141
▁evimiz	-11.4144
▁biç	-11.4144
takım	-11.4146
▁bük	-11.4148
▁isteyecek	-11.4148
▁haklar	-11.4149
▁maka	-11.4153
▁Taş	-11.4155
▁Anti	-11.4159
▁kaynaklana	-11.416
▁Saray	-11.4162
aşırtıcı	-11.4165
abiliyordu	-11.4165
▁Danimarka	-11.4165
▁Disney	-11.4165
▁Stephen	-11.4165
▁asansör	-11.4165
▁beyzbol	-11.4165
▁buzdolabı	-11.4165
▁böbrek	-11.4165
▁fizyoloji	-11.4165
▁pizza	-11.4165
▁yelpaze	-11.4165
▁çeyrek	-11.4165
▁kraliçe	-11.4165
▁Tunus	-11.4165
▁misafir	-11.4165
▁Hukuk	-11.4165
▁rutin	-11.4165
▁turuncu	-11.4166
▁bizzat	-11.4166
▁vermedi	-11.4166
▁Birbirimiz	-11.4166
▁düşünürüm	-11.4166
▁nerdeyse	-11.4166
▁panik	-11.4166
▁damga	-11.4167
▁kadarı	-11.4167
▁diger	-11.4167
▁derse	-11.4169
▁safha	-11.4169
▁cephe	-11.4169
▁mikrop	-11.417
▁görüşlü	-11.4172
▁dilimi	-11.4172
▁dolaşan	-11.4173
▁sığır	-11.4174
▁adlandırdığımız	-11.4177
▁Tesl	-11.4177
▁politikaları	-11.4177
▁surat	-11.4177
▁platformu	-11.4178
▁resimlerini	-11.4181
▁Bekle	-11.4182
▁başlarsınız	-11.4182
▁Başlangıçta	-11.4183
▁Ali	-11.4185
▁şizofreni	-11.4187
▁sağır	-11.4188
▁gerekçe	-11.4188
▁geldiğimizde	-11.419
▁çıkardığımız	-11.4191
▁yatağı	-11.4193
▁duvarları	-11.4195
▁verilerini	-11.4198
▁problemlerin	-11.4199
▁anlaşılır	-11.4201
▁eylemi	-11.4202
▁silin	-11.4203
igi	-11.4204
▁görmekte	-11.4206
lmak	-11.4207
▁havuzu	-11.4207
lacağını	-11.4209
aii	-11.421
▁birincisi	-11.4211
▁Plan	-11.4211
▁saklay	-11.4212
AT	-11.4212
▁şunlar	-11.4214
etmek	-11.4215
▁emir	-11.4216
▁ayrımı	-11.4217
ble	-11.4219
▁makinalar	-11.4221
▁ediyorlardı	-11.4226
▁arkadaşlarımın	-11.4231
▁belirler	-11.4232
▁dinin	-11.4233
▁verebilecek	-11.4233
deyiz	-11.4237
▁koydular	-11.4237
▁kırıklığı	-11.4239
▁almaları	-11.4239
▁bulunduğum	-11.424
▁çizer	-11.4244
▁mineral	-11.4245
▁yönleri	-11.4246
lığından	-11.4246
▁sakın	-11.4247
▁hemşireler	-11.4248
▁biriyim	-11.4248
rün	-11.4249
▁yollarda	-11.425
▁değiştirilmiş	-11.4255
▁sağla	-11.4258
▁ortağı	-11.4261
zo	-11.4261
aboratuvarı	-11.4261
▁yürütme	-11.4265
▁ekonomistler	-11.4266
▁alay	-11.427
▁iniyor	-11.4272
▁çalıştılar	-11.4274
▁kahramanı	-11.4274
▁tart	-11.4277
▁Bali	-11.4278
▁edilmişti	-11.4282
▁Hayvanlar	-11.4282
▁kızar	-11.4282
▁çocuklarımızın	-11.4286
▁Saha	-11.4288
▁yükseliyor	-11.4291
▁inceledi	-11.4291
▁mutfak	-11.4295
▁gününü	-11.4295
▁edebilirdi	-11.4295
▁sezon	-11.4297
▁sorununu	-11.4301
▁fazladır	-11.4304
▁istekleri	-11.4305
lamazsınız	-11.4306
▁Kendimiz	-11.4308
▁Kong	-11.4309
▁izlemeye	-11.4309
▁DA	-11.4311
▁problemini	-11.4312
▁göm	-11.4315
▁benzemiyor	-11.4317
lacağı	-11.4318
▁uçakta	-11.4321
▁Kendinizi	-11.4322
▁Geçmişte	-11.4322
rika	-11.4324
▁kılı	-11.4325
▁içki	-11.4326
▁petrolün	-11.4327
▁sevdiğiniz	-11.4329
▁Oy	-11.4332
▁izledik	-11.4332
▁kuruluşlar	-11.4333
zak	-11.4336
▁alabilecek	-11.4339
ntu	-11.4343
▁riskini	-11.4343
▁kelimelerin	-11.4343
▁EM	-11.4348
ligin	-11.4349
▁çatışmalar	-11.4353
▁başarama	-11.4354
▁dalgası	-11.4355
▁şiiri	-11.4355
▁yaptığınızı	-11.4356
şekle	-11.4357
eşlik	-11.4358
▁giderler	-11.4361
▁yazmıştı	-11.4363
▁ettiğimizde	-11.4364
▁ödeye	-11.4365
▁yarasa	-11.4368
▁bankacı	-11.4372
▁olduklarında	-11.4373
▁şansınız	-11.4373
aklı	-11.4378
▁sure	-11.438
▁yemin	-11.4382
▁hissettiği	-11.4384
▁kadarını	-11.4386
▁oynadı	-11.439
▁Apollo	-11.4392
▁Köpek	-11.4392
▁borcu	-11.4392
▁implant	-11.4392
▁randevu	-11.4392
▁veritabanı	-11.4392
▁apartman	-11.4392
▁domates	-11.4392
▁kriter	-11.4392
▁mahremiyet	-11.4392
▁milimetre	-11.4392
▁kucuk	-11.4392
▁tasarlıyor	-11.4392
▁Yüzlerce	-11.4392
üzgar	-11.4393
medikal	-11.4393
▁karşılaştığım	-11.4393
▁körü	-11.4393
▁dileğim	-11.4393
▁selam	-11.4395
▁yapılabilecek	-11.4396
▁gürültülü	-11.4396
ohnson	-11.4397
▁dönersek	-11.4397
▁kayboluyor	-11.4397
▁mülteciler	-11.4397
bilirsek	-11.4398
anlayabilirsiniz	-11.4399
▁çıkışı	-11.44
▁balta	-11.4401
▁ruhsal	-11.4401
▁sorarsanız	-11.4401
▁köyün	-11.4402
arz	-11.4402
▁çarpan	-11.4402
▁Parti	-11.4404
▁ulaşabilir	-11.4404
ello	-11.4406
▁yorumlar	-11.4408
▁sistemimizi	-11.4411
▁doluydu	-11.4411
▁arıyoruz	-11.4411
▁ölçeği	-11.4411
▁ayakkabıları	-11.4415
▁inandığım	-11.4417
▁Gid	-11.4417
▁Başta	-11.4418
▁sürecek	-11.4418
▁öğretim	-11.4422
▁metod	-11.4423
▁uzunluğu	-11.4426
▁bilirsin	-11.4427
BM	-11.4427
▁hareketsiz	-11.4429
▁Yaş	-11.4429
▁yapmazsa	-11.4431
right	-11.4436
▁pul	-11.4437
▁duyacak	-11.4437
▁bitkileri	-11.4438
▁2002	-11.4438
▁yaşadığınız	-11.444
▁ölçme	-11.4444
▁kuşa	-11.4448
▁bitiyor	-11.4449
▁koyan	-11.445
tıyor	-11.4452
fu	-11.4453
▁taşınabilir	-11.4459
▁Mah	-11.4459
▁beslemek	-11.446
▁zenginliği	-11.4461
ncil	-11.4462
kine	-11.4462
▁olanın	-11.4469
▁herkesten	-11.4472
▁görevler	-11.4476
▁edemeyi	-11.4478
yorsun	-11.4479
▁kom	-11.4479
▁sistemlerini	-11.4479
▁savaştı	-11.4481
▁ekranın	-11.4482
▁televizyonu	-11.4482
▁yapacağımızı	-11.4483
▁ortama	-11.4485
▁kesimi	-11.4485
▁keser	-11.4486
▁çözer	-11.4492
▁grupların	-11.4493
▁öğrenecek	-11.4494
diğimizi	-11.4495
▁vurdu	-11.4496
▁deha	-11.4498
▁değiştirebil	-11.45
▁robotların	-11.4503
▁edeceği	-11.4505
▁çalmak	-11.4505
▁dinleyi	-11.4509
▁yapmanızı	-11.451
ksiyon	-11.4513
▁turist	-11.4514
▁kimseyi	-11.4514
insel	-11.4515
laştırmak	-11.4516
▁parçacıkları	-11.452
▁soya	-11.4521
▁ölümleri	-11.4521
▁tırmanma	-11.4521
▁bağır	-11.4529
▁sağlıyorlar	-11.4529
▁ruhunu	-11.453
ocke	-11.4531
laşım	-11.4533
▁meclis	-11.4535
rdı	-11.4537
▁heyecanlandır	-11.4539
▁Eşi	-11.454
▁satıl	-11.454
▁atlat	-11.454
▁eksen	-11.4543
▁yaptığınızda	-11.4543
ehri	-11.4544
▁şaşkın	-11.4544
▁işsiz	-11.4545
▁bilmem	-11.4545
▁masrafları	-11.4546
▁kariyerim	-11.4549
ardı	-11.455
▁öde	-11.455
▁kor	-11.455
▁giyme	-11.4552
▁diyet	-11.4552
▁zamanım	-11.4553
▁kullanıldığını	-11.4556
▁Alt	-11.4559
▁Pas	-11.4559
▁okumayı	-11.4561
▁gerekmez	-11.4562
▁saldırısı	-11.4563
▁uçur	-11.4565
▁düşü	-11.4566
▁kararlı	-11.4566
esmi	-11.457
▁doğduğum	-11.4572
ğrenme	-11.4574
▁gökyüzü	-11.4575
Amerikalı	-11.4576
▁bulduğu	-11.4576
lmalıyız	-11.4578
▁verimliliği	-11.458
▁hatası	-11.458
▁ayrıldı	-11.4582
imdilerde	-11.459
▁kayma	-11.4591
▁halüsinasyon	-11.4591
litik	-11.4593
▁yakalan	-11.4593
adde	-11.4596
▁Pri	-11.4597
▁görüştü	-11.4598
▁Ortada	-11.4599
▁görünüşü	-11.4602
ümüzü	-11.4602
▁sevdi	-11.4605
▁düzeltmek	-11.4606
▁çevreleye	-11.4606
▁büyükbabam	-11.4611
▁dilek	-11.4612
▁işlevi	-11.4612
list	-11.4613
▁simdi	-11.4613
ston	-11.4615
▁sevdiğimiz	-11.4618
▁katılımı	-11.4618
▁Elimizde	-11.4623
▁döl	-11.4625
▁diyabet	-11.4625
▁işgücü	-11.4625
▁ihmal	-11.4625
▁teyze	-11.4625
▁Çoğunlukla	-11.4625
▁buğday	-11.4625
▁sağduyu	-11.4625
▁Brooklyn	-11.4625
▁sperm	-11.4625
▁yorucu	-11.4625
▁çıkıntı	-11.4625
▁Milyonlar	-11.4625
▁gümüş	-11.4625
▁olağandışı	-11.4625
▁bitiş	-11.4626
▁feet	-11.4626
▁alçak	-11.4628
▁tutup	-11.4629
▁başlayacağız	-11.4629
▁nazar	-11.4629
▁paylaştığımız	-11.4629
▁varolan	-11.4632
▁geçtiğini	-11.4632
▁Biyo	-11.4632
▁öğretmenin	-11.4633
▁konuşalım	-11.4633
▁geleceğimiz	-11.4633
▁Dil	-11.4634
lıyorsunuz	-11.4636
▁Andre	-11.4637
▁tersini	-11.4638
▁tarafinda	-11.4639
▁açılan	-11.4639
rseniz	-11.464
amıyorum	-11.464
▁duş	-11.464
▁öldüren	-11.4642
▁tank	-11.4643
▁anayasa	-11.4643
▁kuran	-11.4644
▁ailemi	-11.4644
▁sınıfın	-11.4646
▁eşittir	-11.4647
▁edebiliyoruz	-11.4648
▁koymaya	-11.4649
▁götürecek	-11.4652
▁geçmesi	-11.4655
masıdır	-11.4656
▁kurduğumuz	-11.4657
▁Bugünkü	-11.4657
▁suçu	-11.4658
▁yapabildiği	-11.4658
▁diren	-11.4661
sler	-11.4664
▁çalışanı	-11.4665
▁Deneyim	-11.4666
▁algoritmalar	-11.4667
▁Gri	-11.4667
▁edemedi	-11.4667
abileceğimizi	-11.4667
▁oturmak	-11.4669
▁kalkma	-11.4669
▁gelirli	-11.467
▁kapatmak	-11.4671
▁toplan	-11.4672
▁planlıyor	-11.4673
▁duydu	-11.4673
▁beyinleri	-11.4675
nsız	-11.4677
▁yönetiyor	-11.4677
▁yapabileceğini	-11.4677
▁sadakat	-11.4678
▁açacak	-11.4681
▁yapacağınız	-11.4681
▁seyirciler	-11.4683
▁planları	-11.4689
şte	-11.4695
▁olabilmek	-11.4699
▁geçirdiği	-11.47
▁görmesi	-11.47
▁seçiyor	-11.4702
▁mantıksız	-11.4702
▁gücümüzü	-11.4705
▁kurallarını	-11.4708
▁açıklık	-11.4708
▁gösterdik	-11.471
▁izleyiciler	-11.4711
▁konunu	-11.4714
▁geçişi	-11.4716
ary	-11.472
▁kesit	-11.472
▁tablosu	-11.4722
▁Mesele	-11.4724
▁bükül	-11.4724
▁Mur	-11.4724
▁konuşmam	-11.4727
▁keşfettiğimiz	-11.4728
luğunu	-11.4729
▁kitabında	-11.4729
▁Diyor	-11.473
▁atıkları	-11.4732
▁içeriğin	-11.4735
▁ritim	-11.4739
▁bahsettim	-11.4742
liyoruz	-11.4743
▁Çek	-11.4744
▁izleri	-11.4744
▁bilime	-11.4746
▁aklında	-11.4746
▁farkli	-11.4747
log	-11.4748
▁anlaş	-11.4748
▁kaydetti	-11.475
▁yapılacağın	-11.4753
▁konuşu	-11.4755
▁giyin	-11.4757
▁pili	-11.4759
▁toplandı	-11.4761
▁değişimleri	-11.4762
▁paylaşır	-11.4763
▁şiddetle	-11.4765
▁aktarmak	-11.4767
▁etkileşimi	-11.4767
▁objeleri	-11.4768
▁bahsedil	-11.4768
▁kusur	-11.4771
▁boyunda	-11.4774
▁Görev	-11.4774
▁gösterdiler	-11.4777
▁ayırıyor	-11.478
▁hara	-11.4781
▁Hastalık	-11.4781
▁uydular	-11.4781
▁değişikliğini	-11.4782
▁sallan	-11.4783
▁ped	-11.4783
▁yılları	-11.4784
▁kalabilir	-11.4785
▁kola	-11.4785
▁örgü	-11.4788
▁şehirdeki	-11.4788
▁faktörler	-11.4789
▁ordusu	-11.4791
▁saklama	-11.4792
saydım	-11.4794
▁yerle	-11.4795
gini	-11.4797
▁dergisinde	-11.4799
▁hissettiğimiz	-11.4799
▁türlerinin	-11.4802
▁olayda	-11.4803
▁Test	-11.4803
▁açılış	-11.4803
▁dibinde	-11.4804
▁getirdiler	-11.4806
▁dergisi	-11.4807
▁insanlığı	-11.481
azar	-11.481
▁simülasyon	-11.4811
▁testler	-11.4811
▁burnu	-11.4811
▁memur	-11.4811
▁alandaki	-11.4812
▁eyaleti	-11.4813
▁teorik	-11.4817
▁kitapların	-11.4821
▁burs	-11.4824
▁İkisi	-11.4824
▁keşfetmeye	-11.4824
▁geometri	-11.4825
▁okyanusu	-11.4825
▁robotları	-11.4826
▁kelimesinin	-11.4828
▁gördükleriniz	-11.4828
▁öldürüldü	-11.4828
liyordu	-11.4829
▁Afrikalılar	-11.483
▁temelini	-11.483
▁şeyde	-11.4834
▁zorundalar	-11.4835
▁konumu	-11.4835
▁rüzg	-11.4839
ahat	-11.4842
▁İst	-11.4843
▁yaprakları	-11.4843
sky	-11.4846
▁üstte	-11.4849
iddi	-11.4849
▁doktorların	-11.4849
▁senenin	-11.485
▁doğduğu	-11.485
ree	-11.485
▁çocuklarımızı	-11.4851
içi	-11.4852
▁girişimi	-11.4854
▁nitelik	-11.4854
▁isteyeceğim	-11.4855
▁Akıl	-11.4856
▁güldü	-11.4856
▁yaklaşma	-11.486
cilerin	-11.486
▁ulaşama	-11.4861
▁Ted	-11.4862
▁Buz	-11.4862
▁Atlanta	-11.4863
▁Ağustos	-11.4863
▁Karmaşık	-11.4863
▁Tanzanya	-11.4863
▁embriyo	-11.4863
▁isabet	-11.4863
▁toprağa	-11.4863
▁transistör	-11.4863
▁tuğla	-11.4863
▁Yabancı	-11.4863
▁Yunus	-11.4863
▁Yağmur	-11.4863
▁Temmuz	-11.4863
▁Aşama	-11.4863
▁zavallı	-11.4863
▁nispet	-11.4863
▁icra	-11.4863
▁ayrımcılık	-11.4863
▁metabolizma	-11.4863
▁stok	-11.4864
▁bulanık	-11.4864
▁kullanabiliyor	-11.4864
▁geliştirdiği	-11.4864
▁tutucu	-11.4864
▁jeoloji	-11.4865
▁pekço	-11.4865
▁dışarda	-11.4865
▁havuz	-11.4865
▁br	-11.4866
▁leke	-11.4866
▁Büyükanne	-11.4866
▁söylenir	-11.4867
▁açıklayacağım	-11.4867
▁aksiyon	-11.4867
▁Mich	-11.4868
▁güçsüz	-11.4868
linton	-11.4868
▁oranlarını	-11.4869
▁ulke	-11.4869
▁vali	-11.4869
▁basıncı	-11.4869
▁Bildiğimiz	-11.487
▁yapamazsınız	-11.487
▁süreliğine	-11.4872
▁izlerken	-11.4873
mıyordum	-11.4873
▁deneyelim	-11.4874
▁çekilen	-11.4874
▁yansıma	-11.4874
▁vatandaşları	-11.4875
rizon	-11.4876
▁açıları	-11.4876
rdu	-11.4877
▁uzmanlık	-11.4878
▁yakalay	-11.4881
▁dolaştı	-11.4882
▁tanıştır	-11.4884
▁yüzeyini	-11.4885
▁birikim	-11.4885
▁uzlaşma	-11.4887
▁konuşuyorlar	-11.4887
▁Yüzey	-11.4887
▁ederdi	-11.4888
▁editör	-11.4888
▁bağımlılığı	-11.489
▁yarama	-11.489
▁havalandırma	-11.489
▁şuradaki	-11.489
▁paylaşımı	-11.4892
▁gü	-11.4892
▁sav	-11.4894
▁alttaki	-11.4894
▁saçmalık	-11.4895
▁almıştı	-11.4895
▁Asli	-11.4895
▁öğrenmiş	-11.4895
▁Çoğunuz	-11.4899
▁neresinde	-11.4902
▁yaymak	-11.4906
▁yatırımlar	-11.4906
▁görevleri	-11.4907
▁Ayak	-11.4907
▁düzlem	-11.4907
ish	-11.4908
▁önemseme	-11.4909
▁dışa	-11.4909
▁tesisi	-11.491
▁Yapmak	-11.4911
▁toplulukta	-11.4912
▁öğrendiği	-11.4913
▁vermeme	-11.4913
▁hissettiğiniz	-11.4914
bileceği	-11.4915
▁Ateş	-11.4918
▁Okulda	-11.4918
▁sektöründe	-11.4918
▁fakirlik	-11.4919
▁ulaşacak	-11.492
▁ritmi	-11.492
▁memeliler	-11.4922
▁öğrenen	-11.4923
▁bölgesine	-11.4923
leyebilirsiniz	-11.4925
▁karışım	-11.4928
leştirici	-11.4928
▁Barış	-11.4929
▁oluşturduğumuz	-11.4931
larınızda	-11.4932
▁gelecektir	-11.4932
▁amatör	-11.4932
ktif	-11.4935
▁Tez	-11.4936
sol	-11.4938
▁birşeyleri	-11.4939
▁verimlilik	-11.4942
masının	-11.4942
▁hatırlamak	-11.4947
linde	-11.4948
arter	-11.4951
▁mahallede	-11.4951
▁bilgimiz	-11.4953
▁mana	-11.4956
▁girmeye	-11.4956
▁tümünü	-11.4958
▁katmanı	-11.4959
▁zorladı	-11.4959
▁olduğuyla	-11.496
▁çıkarsa	-11.4962
▁vücud	-11.4966
▁değişmeye	-11.4967
▁kimler	-11.4968
▁uluslar	-11.4974
▁rahatlat	-11.4977
▁soruların	-11.4977
▁olabilme	-11.4977
▁kasları	-11.4977
▁Yukarı	-11.4977
▁adamdı	-11.4979
▁duygusunu	-11.4982
▁heyecanlıyı	-11.4983
▁potansiyelini	-11.4984
▁köpeği	-11.4985
▁karbonu	-11.4986
leyebiliriz	-11.4987
▁hatalı	-11.4988
▁kanunu	-11.4988
▁erime	-11.4993
▁anladığım	-11.4993
▁atıp	-11.4997
▁zamanları	-11.4999
▁söylediğini	-11.4999
▁davranışını	-11.5003
▁buluşu	-11.5003
gre	-11.5007
▁sebebini	-11.5008
▁kütlesi	-11.5009
▁geliştirilmiş	-11.5012
▁karalama	-11.5017
▁arayış	-11.5018
▁başların	-11.502
▁desen	-11.5024
lemez	-11.5027
▁sınırlama	-11.5028
▁gerçekleşmesi	-11.5029
▁yapamadığı	-11.503
▁liderlerin	-11.5034
▁çağın	-11.5036
mazsa	-11.5036
▁yükselme	-11.5038
▁evli	-11.5039
▁daral	-11.504
▁yanılma	-11.5041
▁uçağ	-11.5041
▁Gitti	-11.5042
▁sos	-11.5043
▁ödemek	-11.5051
▁kıyısında	-11.5053
▁soluk	-11.5055
▁kaçış	-11.5056
▁diploma	-11.5057
▁kork	-11.5059
kül	-11.5064
▁kaydedil	-11.5065
▁Dışarıda	-11.5065
▁hissettiriyor	-11.5065
▁gördüler	-11.5066
▁sevk	-11.5067
▁beslen	-11.507
bilirim	-11.5071
▁üstel	-11.5072
▁alarm	-11.5076
▁şeylerde	-11.5076
▁elektriği	-11.5078
amadık	-11.5078
▁Gülme	-11.508
▁pop	-11.508
▁söylerse	-11.5084
▁paha	-11.5084
▁gözlerinizi	-11.5086
▁Tel	-11.509
▁medeniyeti	-11.5091
▁olduğunuzda	-11.5094
spe	-11.5095
▁bugünlerde	-11.5097
▁ölmek	-11.5103
▁istediğinizi	-11.5104
▁Davranış	-11.5107
▁Vatandaş	-11.5107
▁cenaze	-11.5107
▁demografik	-11.5107
▁dolaylı	-11.5107
▁kıvrım	-11.5107
▁orjinal	-11.5107
▁sarhoş	-11.5107
▁sörf	-11.5107
▁metrekare	-11.5107
▁köpekbalığı	-11.5107
▁Sınıf	-11.5107
▁yorgun	-11.5107
▁hacim	-11.5107
▁ıslık	-11.5107
▁bölünmüş	-11.5107
▁Dunya	-11.5107
▁Bakanı	-11.5107
▁mülkiyet	-11.5107
▁param	-11.5108
▁yemeğe	-11.5108
▁deneyimleme	-11.5108
▁Sky	-11.5108
▁erdem	-11.5108
▁Haber	-11.511
▁karşılığı	-11.511
▁yayınlanan	-11.511
▁kökeni	-11.5111
▁doğuşu	-11.5111
▁sağlayıcı	-11.5111
▁gözetim	-11.5113
safi	-11.5113
▁ortalıkta	-11.5115
▁dinleyen	-11.5116
esim	-11.5117
▁Görsel	-11.5118
▁tapir	-11.5121
▁veriliyor	-11.5121
▁atladı	-11.5122
▁gezdir	-11.5126
▁parkı	-11.513
▁yapılmıştı	-11.513
▁bakmamız	-11.5132
▁görüntüsünü	-11.5134
▁Suud	-11.5135
▁paylaşan	-11.5136
▁diğerinin	-11.5137
▁nü	-11.5138
itz	-11.5138
abildiğini	-11.5139
arre	-11.514
▁zamanını	-11.514
▁Yarı	-11.5141
▁varlıkları	-11.5141
▁kibar	-11.5142
▁döndüğünü	-11.5143
▁fabrikası	-11.5143
▁biziz	-11.5143
▁Doku	-11.5144
▁harcan	-11.5144
▁kuralların	-11.5145
▁karma	-11.5146
▁ısır	-11.5147
▁çalıştığınız	-11.5147
▁kopyalama	-11.5148
▁çekil	-11.5149
▁yiyeceği	-11.5149
▁karışma	-11.515
▁işletim	-11.5153
▁yazmayı	-11.5153
▁etmektedir	-11.5154
▁kazanmış	-11.5158
▁tuna	-11.5158
▁Oğlum	-11.5159
▁karşılaşıyor	-11.5159
▁başlıyorum	-11.5159
▁odun	-11.5163
▁yaşını	-11.5163
ildiğini	-11.5165
▁hizmetler	-11.5166
▁söylediğimde	-11.5166
▁verirken	-11.5167
▁öl	-11.5167
▁hedefleri	-11.5168
▁ülkesinde	-11.5169
▁Dinle	-11.5173
▁cami	-11.5173
col	-11.5175
neyse	-11.5175
▁sürücüsü	-11.5176
▁Yeteri	-11.5178
▁konuşmada	-11.5178
▁şüpheli	-11.5179
ars	-11.518
melerini	-11.518
leyeceğim	-11.5182
▁balinalar	-11.5184
▁altını	-11.5186
▁sahası	-11.5187
▁insanoğlu	-11.5187
▁izini	-11.5188
▁yatakta	-11.5191
▁element	-11.5194
▁teşhisi	-11.5194
▁kaplumbağa	-11.5195
rsek	-11.5195
▁çekecek	-11.5198
▁gelse	-11.5199
▁yürümek	-11.5201
▁düşündüklerini	-11.5202
▁yapacağımı	-11.5203
▁herkesle	-11.5203
▁stil	-11.5204
▁dönmeye	-11.5204
▁patlat	-11.5205
▁anladığımız	-11.5205
▁kabus	-11.5207
▁tanıdığım	-11.521
▁söylemeyi	-11.5211
▁bölünme	-11.5211
▁Ebeveynler	-11.5213
▁İranlı	-11.5215
▁Geç	-11.5215
▁iklimi	-11.522
▁gerçekleştiği	-11.5222
▁çocuklardan	-11.5229
▁Bağ	-11.523
▁etkisiz	-11.5231
▁ekledi	-11.5233
▁bulutu	-11.5239
▁sınırların	-11.524
▁endişeli	-11.5242
▁anlatıcı	-11.5242
▁dökme	-11.5246
▁öğrencinin	-11.5248
▁kültürümüz	-11.5249
▁sözde	-11.5251
▁diyeceğim	-11.5251
▁benziyordu	-11.5251
▁tasarlandı	-11.5252
▁Sudan	-11.5254
ilmis	-11.5256
▁düşünürler	-11.5256
▁bakılır	-11.5257
▁hazırlamak	-11.5257
▁Yarın	-11.5259
okyo	-11.5261
▁Hayatım	-11.5262
▁alınması	-11.5264
▁yükselişi	-11.5265
▁istasyonu	-11.5266
▁yolunun	-11.5267
▁dünyamız	-11.5274
▁sesimi	-11.5277
ous	-11.5279
▁bekliyordu	-11.5279
▁şefi	-11.5279
▁büyümüş	-11.5285
▁bahçesinde	-11.5287
▁çözmemiz	-11.529
.2	-11.5291
▁işletmeler	-11.5294
▁ekin	-11.5298
ive	-11.5299
▁inanmaya	-11.5299
▁anlattıkları	-11.5301
▁Hayatımda	-11.5301
▁atıldı	-11.5302
▁inç	-11.5308
▁demeye	-11.5312
▁etkiye	-11.5314
▁çoğumuzun	-11.5317
ation	-11.5318
▁kalmayı	-11.5318
▁çocuğunuz	-11.5319
▁döneme	-11.5319
▁dansçı	-11.5321
▁eleştirme	-11.5322
▁geçirecek	-11.5322
▁genin	-11.5323
nsanlar	-11.5326
tikleri	-11.5326
▁yapabilirse	-11.5327
▁ayrıldığı	-11.5328
ooh	-11.5328
▁sokmak	-11.533
ımızdan	-11.5334
▁güveni	-11.5334
▁gözlerim	-11.5336
▁üretilmiş	-11.5337
▁tutabilir	-11.5339
▁heyecanlıydı	-11.5343
izdir	-11.5345
▁evrimleşme	-11.5345
▁haksız	-11.5346
▁yaptigi	-11.5347
▁gördüğünü	-11.5347
▁kilolu	-11.5347
▁oluşturuyorlar	-11.5349
▁yerçekimi	-11.5349
▁İspanyol	-11.5349
doğu	-11.5351
▁kodun	-11.5354
▁obez	-11.5357
irim	-11.5357
lışılmadık	-11.5357
▁Konseyi	-11.5357
▁Portekiz	-11.5357
▁habitat	-11.5357
▁harikulade	-11.5357
▁Mahkeme	-11.5357
▁dublör	-11.5357
▁bayrağı	-11.5357
▁Hafta	-11.5357
▁doyur	-11.5357
▁berber	-11.5357
▁acele	-11.5357
▁füzyon	-11.5357
▁Maymun	-11.5357
▁yapışkan	-11.5358
▁bla	-11.5358
▁Sinir	-11.5358
▁kostüm	-11.5358
▁alışık	-11.5358
▁tanıştık	-11.5358
▁esrar	-11.5359
▁vaaz	-11.5359
▁Selam	-11.5359
▁kastediyorum	-11.536
▁edemezsiniz	-11.5363
▁bağlamında	-11.5363
▁çöktü	-11.5364
▁sağlayarak	-11.5364
▁sınırsız	-11.5365
▁bulursunuz	-11.5365
▁belirleyici	-11.5366
▁bilmemiz	-11.5366
▁çadır	-11.5367
digini	-11.5367
▁Akademi	-11.5367
▁Hous	-11.5368
▁fenomeni	-11.5369
▁etrafımda	-11.5369
▁oluşturabiliriz	-11.537
▁kullanıp	-11.5371
▁güçler	-11.5371
▁Soldaki	-11.5372
▁aradığımız	-11.5372
▁üzül	-11.5374
▁adresi	-11.5374
▁deneyde	-11.5375
iller	-11.5376
▁pazarı	-11.5378
▁gösterim	-11.5379
▁küçümse	-11.538
▁başlıyorsunuz	-11.538
▁Buzul	-11.5381
▁Adası	-11.5381
▁nice	-11.5381
▁görürdü	-11.5382
ransızca	-11.5383
ibya	-11.5383
▁başlatma	-11.5384
▁tutuk	-11.5384
▁imaj	-11.5385
▁yazarken	-11.5385
▁başını	-11.5385
▁koruyan	-11.5386
▁profil	-11.5387
▁kökten	-11.5387
▁eşiğinde	-11.5388
▁beynine	-11.5389
▁birçoğunuz	-11.5392
▁piyasay	-11.5392
▁100,000	-11.5393
▁yerleştirilmiş	-11.5394
▁kökenli	-11.5395
▁Kür	-11.5396
▁notlar	-11.5398
▁Koca	-11.54
▁Sokak	-11.54
▁ağların	-11.5402
▁incelemeye	-11.5404
▁birleşi	-11.5405
▁tuttuğu	-11.5406
ilistinli	-11.5409
▁baktığı	-11.541
▁etmelerini	-11.5412
▁girdiğim	-11.5414
▁ikiz	-11.5414
▁atlet	-11.5416
mazdı	-11.5416
▁arttırıyor	-11.5418
▁çalışırlar	-11.5418
▁biçimleri	-11.5419
▁çevreci	-11.5419
onun	-11.542
▁tanrım	-11.5421
▁uret	-11.5423
▁plaka	-11.5423
▁başlarlar	-11.5427
ilmişti	-11.5429
▁savun	-11.5435
▁takıyor	-11.5436
▁yaptın	-11.5438
▁hissettiğini	-11.5438
▁çizmek	-11.5441
▁zorluyor	-11.5442
laştığı	-11.5447
▁yapil	-11.5448
▁kısımları	-11.545
ald	-11.5454
▁Hakları	-11.5454
▁alem	-11.5456
▁Nata	-11.5458
ğren	-11.5458
raig	-11.546
▁kıs	-11.5461
▁bulunmuyor	-11.5463
▁kalanlar	-11.5465
▁aktiviteler	-11.5465
▁doğruluk	-11.5465
▁SP	-11.5466
▁anlaşıldı	-11.5466
▁görevini	-11.5468
▁tahmini	-11.5469
▁oranına	-11.547
ebileceğim	-11.5471
▁göstermiş	-11.5476
üydü	-11.5477
▁dizileri	-11.548
ülü	-11.548
▁dostum	-11.5481
▁kurumun	-11.5483
▁girecek	-11.5483
▁topar	-11.5485
▁dostu	-11.5485
▁trafiği	-11.5486
hav	-11.5487
▁ayakkabılar	-11.5489
▁aşma	-11.5489
▁deneyimim	-11.5492
▁bittiği	-11.5493
▁tasarladık	-11.5494
mezsek	-11.5495
▁farkettik	-11.5496
▁istemediği	-11.5496
▁geçmişin	-11.5498
▁farklıydı	-11.5507
▁geçim	-11.5508
▁istese	-11.551
▁öğreniyorlar	-11.552
lmasını	-11.552
rom	-11.552
▁bebeklerin	-11.5522
▁aracını	-11.5523
▁denizde	-11.5523
▁zihnin	-11.5527
▁tekerlekl	-11.5528
DE	-11.5528
▁şansını	-11.5528
▁beynimizi	-11.5528
▁açıklar	-11.5529
off	-11.5529
lüğünü	-11.553
▁anlayacak	-11.5531
▁sonunu	-11.5533
▁dükkanı	-11.5535
▁uyarlama	-11.5535
▁geldiğim	-11.5541
▁sis	-11.5544
ift	-11.5547
▁tüketiyor	-11.5547
seler	-11.5551
▁eylemci	-11.5552
ulu	-11.5555
▁toplulukların	-11.5558
▁başlamamız	-11.5559
▁Başarı	-11.5567
imizle	-11.5568
▁yolumuz	-11.557
▁düşmüş	-11.557
▁lezzet	-11.5571
▁maçı	-11.5574
cular	-11.5576
▁videolar	-11.5576
▁planda	-11.5578
▁dokusunu	-11.5579
▁karakterleri	-11.5584
▁artırma	-11.5585
▁Saf	-11.5586
lanmaya	-11.5587
uther	-11.5587
▁yargılama	-11.5587
shi	-11.5589
▁titreş	-11.5591
arın	-11.5594
suzluk	-11.5596
ymuş	-11.5598
▁ekonomide	-11.56
▁benimki	-11.5602
▁salonda	-11.5602
▁azalması	-11.5603
con	-11.5607
▁çalışmam	-11.5608
▁veriyordu	-11.5609
▁adımlar	-11.5611
efkat	-11.5613
▁Kolombiya	-11.5613
▁atölye	-11.5613
▁floresan	-11.5613
▁kahvaltı	-11.5613
▁kasırga	-11.5613
▁sofistike	-11.5613
▁çığlık	-11.5613
▁STK	-11.5613
▁ayrıştır	-11.5613
▁melodi	-11.5613
▁protokol	-11.5613
▁tasarim	-11.5613
▁motif	-11.5613
▁Düşük	-11.5613
angelo	-11.5613
▁bloğu	-11.5614
▁espri	-11.5614
▁ilgilendiren	-11.5614
▁Harita	-11.5614
▁Prens	-11.5614
▁Yunanistan	-11.5614
▁ölçtü	-11.5614
▁karadelik	-11.5614
▁monte	-11.5615
▁nakit	-11.5615
▁aydınlanma	-11.5615
▁ihtiyar	-11.5615
▁ziyan	-11.5615
▁imha	-11.5616
▁soruyorlar	-11.5616
▁verilmesi	-11.5616
▁beşinci	-11.5617
▁düşürdü	-11.5617
▁Düşünce	-11.5618
▁Gor	-11.5618
▁önemsiyor	-11.5619
iziksel	-11.5619
▁üzüm	-11.5619
▁Ders	-11.5622
▁alışkanlıkları	-11.5623
ehrin	-11.5624
▁canına	-11.5625
▁zararsız	-11.5626
mily	-11.5627
▁kurbanları	-11.5627
▁oturuyordu	-11.5627
engi	-11.5627
▁uyuya	-11.5628
▁yaratabiliriz	-11.5628
▁moral	-11.5628
▁bağlanıyor	-11.563
cılığı	-11.5633
▁oğlumu	-11.5635
▁Seks	-11.5635
reti	-11.5637
fil	-11.5637
▁şahs	-11.5639
▁bilmiyorlar	-11.5641
▁çizimler	-11.5641
ita	-11.5641
▁Temiz	-11.5642
▁ettikçe	-11.5643
▁başlattığı	-11.5643
▁endüstrisini	-11.5645
▁inanıyorlar	-11.5646
▁koyduğumuz	-11.5646
▁soku	-11.5647
▁kırp	-11.5647
▁yapanlar	-11.5649
▁derdim	-11.565
▁yeryüzünde	-11.5651
▁söylese	-11.5652
▁tutacak	-11.5652
▁kimyasallar	-11.5653
ones	-11.5656
▁aracılığı	-11.5657
liyorlar	-11.5657
▁tüketiciler	-11.5658
▁Meydanı	-11.5663
▁geçiyoruz	-11.5663
▁paylaşmaya	-11.5666
biliriz	-11.5669
▁düzene	-11.567
▁gençlik	-11.567
▁kırık	-11.5671
▁parçacıkların	-11.5671
ater	-11.5671
▁biter	-11.5673
▁içimde	-11.5673
▁sorulan	-11.5677
▁bölü	-11.5677
▁öleceği	-11.5678
▁zanned	-11.5679
▁grupta	-11.568
matik	-11.5681
▁gülümse	-11.5682
▁Del	-11.5683
▁grubunu	-11.5683
ğer	-11.5685
▁sahipliği	-11.5686
▁üretimin	-11.5687
▁belirtileri	-11.5689
▁ulaştım	-11.5689
▁gezegenleri	-11.5691
▁koleksiyon	-11.5691
▁etse	-11.5691
▁Kop	-11.5693
adyo	-11.5694
▁hane	-11.5694
▁Evere	-11.5697
sy	-11.5702
▁konferansta	-11.5703
▁gizlilik	-11.5703
▁vat	-11.5704
▁Peru	-11.5705
diyseniz	-11.5705
▁balıkların	-11.5706
▁olsaydık	-11.5707
▁Tit	-11.5711
lanmak	-11.5711
▁kullandılar	-11.5712
▁aklına	-11.5715
▁sözler	-11.5717
▁kaşı	-11.5717
▁iskele	-11.5718
▁yerlerini	-11.5718
▁ormanların	-11.572
▁belirttiği	-11.5721
▁aşağıdaki	-11.5722
▁kaçırıyor	-11.5725
▁harcadık	-11.5727
▁organizasyonu	-11.573
▁kılar	-11.5732
▁iner	-11.5732
▁numarası	-11.5732
▁yukarıdan	-11.5732
▁kıyafeti	-11.5739
▁öldüğü	-11.574
▁gönderdik	-11.5741
▁kurabilir	-11.5742
▁kullanıyordu	-11.5746
▁Tür	-11.5749
▁kurula	-11.575
▁harcamaları	-11.5751
▁söyleyemez	-11.5754
BE	-11.5754
kini	-11.5754
larınıza	-11.5754
▁kafam	-11.5755
▁matematiği	-11.5755
▁Kimi	-11.5756
▁endüstrisinde	-11.5756
▁geliştirdiğimiz	-11.5757
leştiriyoruz	-11.576
▁bulundum	-11.5765
▁hamur	-11.5769
▁ekonomisini	-11.577
▁çocuklarınız	-11.577
▁titre	-11.5772
▁ağırlığında	-11.5773
▁Bilgisayarlar	-11.5777
uyorlar	-11.5779
▁olmamıştı	-11.578
▁kökleri	-11.5781
▁çabaları	-11.5781
▁keşifler	-11.5781
▁olmamı	-11.5782
▁riskler	-11.5783
▁görmemişti	-11.5784
ory	-11.5785
▁yolculuğum	-11.5786
▁dengesiz	-11.5787
▁Parkı	-11.5792
▁ekranı	-11.5794
▁çiftliği	-11.5797
uzun	-11.58
▁ova	-11.58
▁makinelerin	-11.5801
lyn	-11.5803
▁Mel	-11.5803
leştirir	-11.5806
lisin	-11.581
▁Vücudu	-11.581
mişsinizdir	-11.5811
▁basma	-11.5812
zman	-11.5816
▁formda	-11.5819
▁MT	-11.5819
▁karım	-11.5821
▁yarasalar	-11.5822
▁kullanırlar	-11.5822
▁benzediği	-11.5824
▁oturum	-11.5825
iberya	-11.5825
▁diğerini	-11.5825
▁gidişatı	-11.5825
▁çıkacağı	-11.5826
▁güçlerini	-11.5831
▁gerçekleştirdi	-11.5831
▁eğilimli	-11.5831
▁ettiğimde	-11.5832
▁buralar	-11.5835
receğiz	-11.5836
▁Neler	-11.5837
▁hikayemi	-11.5838
▁ogren	-11.5844
işini	-11.5847
▁hissedebilir	-11.5848
▁parasını	-11.585
▁ürünlerini	-11.585
▁ülkelerden	-11.5852
▁yapacaklar	-11.5853
▁edemediği	-11.5853
▁olmadığınız	-11.5854
▁atla	-11.5856
▁taşınma	-11.5859
▁çiğ	-11.586
▁kavuş	-11.586
ğum	-11.5861
▁derinliklerin	-11.5861
▁görünüyorlar	-11.5863
▁boyutların	-11.5863
▁Söylediğim	-11.5874
▁getirmiş	-11.5874
▁bilgisini	-11.5875
▁izleyebilir	-11.5875
▁meyilli	-11.5876
▁bahçesi	-11.5876
▁Avusturya	-11.5876
▁Endonezya	-11.5876
▁Müşteri	-11.5876
▁Tıbb	-11.5876
▁dezavantaj	-11.5876
▁dopamin	-11.5876
▁entellektüel	-11.5876
▁huylu	-11.5876
▁kolektif	-11.5876
▁müttefik	-11.5876
▁Yiyecek	-11.5876
▁Alaska	-11.5876
▁dayanışma	-11.5876
▁plaj	-11.5876
▁İzlanda	-11.5876
▁anonim	-11.5877
▁havaalanı	-11.5877
▁kainat	-11.5877
▁papaz	-11.5877
▁hasıla	-11.5877
▁sihirbaz	-11.5877
▁kondom	-11.5877
▁klon	-11.5877
▁taslak	-11.5877
▁vaat	-11.5877
▁Nokta	-11.5877
▁İnşa	-11.5877
▁seyretti	-11.5878
▁itici	-11.5878
▁istila	-11.5878
viral	-11.5878
▁yaşımdayken	-11.5878
▁masaüstü	-11.5878
▁şirkette	-11.5879
▁Sanıyorum	-11.5879
▁istasyonları	-11.588
▁üzüntü	-11.588
▁Genom	-11.588
▁uzanıyor	-11.588
▁pekala	-11.5881
▁tepesin	-11.5882
▁Adem	-11.5883
▁süregel	-11.5883
▁Kutup	-11.5883
▁geliştiriyor	-11.5884
▁istediğin	-11.5884
▁mitoloji	-11.5884
ette	-11.5886
ino	-11.5886
▁Mes	-11.5887
▁Bhu	-11.5888
▁omurga	-11.5888
▁kaldığımız	-11.5889
▁tartışmalı	-11.5889
▁süpür	-11.5889
▁araştırıyor	-11.589
▁edebilen	-11.5891
▁Ekranda	-11.5891
ivil	-11.5891
▁toplamı	-11.5892
▁yapabildiğimiz	-11.5892
▁programını	-11.5893
omb	-11.5893
▁çimen	-11.5894
▁tablet	-11.5896
▁öldüğünü	-11.5897
▁gelebilecek	-11.5898
▁yürüttü	-11.5899
▁tarafın	-11.59
port	-11.5901
▁anlatıyorum	-11.5903
▁kuşku	-11.5905
miyordum	-11.5905
▁sabahı	-11.5905
▁hastayı	-11.5906
▁yiyen	-11.5908
▁tasarımcıları	-11.5908
▁Sanayi	-11.591
▁istifa	-11.591
▁ayırdı	-11.5911
▁ötede	-11.5911
▁AG	-11.5911
▁eğiliminde	-11.5912
niversitesinde	-11.5913
▁tabanlı	-11.5914
umhuriyetçi	-11.5914
▁bittiğinde	-11.5916
▁yüzyıllar	-11.5917
▁düşündüğümü	-11.5919
▁almanız	-11.5919
▁oynayabilir	-11.592
▁sensörler	-11.592
▁olduğumdan	-11.5923
▁konuşabilir	-11.5926
▁kullanıldığı	-11.5927
▁şimdilik	-11.5928
▁uygulamak	-11.5928
▁çocukluğum	-11.5929
und	-11.5931
▁hayranlık	-11.5931
statik	-11.5935
▁Milli	-11.5935
▁kalmayacak	-11.5936
rsınız	-11.5936
▁ücreti	-11.5938
▁deneyimle	-11.5938
▁büyüktür	-11.5939
▁fiziğin	-11.5943
▁başlatmak	-11.5944
▁malzemelerin	-11.5944
▁tabakası	-11.5945
▁ailede	-11.5946
▁dus	-11.5949
▁şefkatli	-11.5949
▁Sar	-11.5951
▁dünyamızda	-11.5951
▁babalar	-11.5951
▁konuşuyordu	-11.5955
▁attık	-11.5956
▁teorisini	-11.5961
▁yaratabil	-11.5962
▁rengini	-11.5963
▁probleme	-11.5964
▁tartışmak	-11.5965
▁yeteneğin	-11.5965
▁materyaller	-11.5966
▁tanımak	-11.5966
▁yuvarlan	-11.5968
▁pazarlık	-11.5968
▁kek	-11.597
cağı	-11.5971
▁penis	-11.5971
▁Aç	-11.5971
ümün	-11.5971
▁Diğerleri	-11.5972
▁türünün	-11.5972
▁paralarını	-11.5974
▁esneklik	-11.5979
▁öğrettiği	-11.5979
▁liman	-11.5981
▁aklını	-11.5984
▁edinmek	-11.5987
▁ışıklar	-11.5987
▁görüntülerin	-11.5988
▁görüntüy	-11.5988
▁tasarlar	-11.5989
▁koşar	-11.5989
▁hepsinden	-11.5989
▁Gelişim	-11.5994
▁ağa	-11.5998
azi	-11.5999
▁içecek	-11.6
▁acıyı	-11.6003
lemiyor	-11.6004
▁keşfettiği	-11.6005
▁alabileceği	-11.6007
▁Post	-11.6008
▁Mag	-11.6008
▁işaretler	-11.601
larınızla	-11.6013
▁gözlü	-11.6016
▁Tip	-11.6021
▁üretebilir	-11.6021
▁gökyüzünü	-11.6022
▁balıkçılık	-11.6022
atılan	-11.6022
amayacağını	-11.6025
ımızdaki	-11.6026
ound	-11.6028
▁fırla	-11.6028
▁gönderildi	-11.603
aboratuvar	-11.603
▁hissetmeye	-11.603
yorduk	-11.603
uss	-11.6034
▁Yolu	-11.6035
▁saldırılar	-11.6039
▁dökül	-11.6042
▁aşaması	-11.6042
▁ayrıcalık	-11.6042
▁vatandaşı	-11.6043
▁topluluğ	-11.6044
▁İnternette	-11.6046
▁oyuncağı	-11.6049
▁Arı	-11.6049
▁dönüşme	-11.6054
lduğumuz	-11.6054
▁doktorun	-11.6054
amıyorlar	-11.6055
▁simetrik	-11.6056
▁bilgilere	-11.6056
adin	-11.6061
▁edenler	-11.6061
▁fikirde	-11.6062
lamayan	-11.6066
▁çıkmıştı	-11.6066
▁bulutlar	-11.6067
yüm	-11.607
▁unuttu	-11.6072
taşı	-11.6074
▁gecede	-11.6076
▁olmamak	-11.608
▁alamıyor	-11.608
▁soktu	-11.6081
▁yüzleri	-11.6081
▁görüşüm	-11.6082
▁inanıyordu	-11.6082
malıyım	-11.6085
▁oysa	-11.6088
▁ED	-11.6092
▁ışığında	-11.6094
▁yürümeye	-11.6094
▁görünecek	-11.6096
▁erişti	-11.61
▁yılların	-11.6101
▁mimarlık	-11.6108
▁uzaklaştı	-11.6108
amanla	-11.6112
▁Kapa	-11.6113
itler	-11.6114
▁dert	-11.6119
▁sark	-11.6122
▁Konuşmamı	-11.6122
ebiliyorsunuz	-11.6125
oth	-11.6127
▁bağışı	-11.6131
▁sözcükler	-11.6133
▁kutunu	-11.6133
▁katlama	-11.6137
▁vücudumuz	-11.6137
bro	-11.6138
▁yazdıkları	-11.614
▁sevmez	-11.6144
▁volkan	-11.6144
▁serisi	-11.6146
zgünüm	-11.6146
▁Meclis	-11.6147
▁Mozart	-11.6147
▁Plastik	-11.6147
▁Televizyon	-11.6147
▁elverişli	-11.6147
▁mesleği	-11.6147
▁pervane	-11.6147
▁piyango	-11.6147
▁tezgah	-11.6147
▁çapraz	-11.6147
▁çıldır	-11.6147
▁şeridi	-11.6147
▁şırınga	-11.6147
▁Beraber	-11.6147
▁paradoks	-11.6147
▁sempati	-11.6147
▁tempo	-11.6147
▁prostat	-11.6147
▁kukla	-11.6147
▁Sıtma	-11.6147
▁General	-11.6147
▁Kamera	-11.6147
▁rahip	-11.6147
▁Aşırı	-11.6147
▁Daniel	-11.6147
▁partikül	-11.6148
▁istenen	-11.6148
ugh	-11.6148
▁reklamı	-11.6149
▁direniş	-11.6149
▁içgüdüsel	-11.6149
▁Değişik	-11.615
▁dolaşır	-11.615
▁barışçı	-11.6151
▁Okuma	-11.6151
▁başlayınca	-11.6151
▁sembolik	-11.6151
▁götürebilir	-11.6151
▁gözlük	-11.6152
▁bilinçsiz	-11.6152
▁takıntılı	-11.6153
▁sayfalar	-11.6153
▁etmeliyim	-11.6153
▁astım	-11.6154
▁işiniz	-11.6156
▁Oyuncu	-11.6156
▁acik	-11.6157
layabilirim	-11.6159
▁adlandırılır	-11.616
▁Bal	-11.616
▁problemlere	-11.6163
▁bahsettik	-11.6164
▁olasılıkları	-11.6166
▁gösteriliyor	-11.6168
▁mutluydu	-11.6168
▁engelleme	-11.617
▁kaldırır	-11.6172
Prince	-11.6172
▁yanıtı	-11.6173
▁yapıyorlardı	-11.6175
▁dünyasını	-11.6176
▁ölçüsü	-11.6177
▁yararına	-11.6181
▁çıkarıyorlar	-11.6185
▁istediğimizi	-11.6187
▁görebildiği	-11.6187
▁yüklü	-11.6189
▁yapmamı	-11.6189
▁bağladı	-11.6189
▁AK	-11.6189
▁Sanatçı	-11.619
▁verirsek	-11.6191
▁hatırlatmak	-11.6192
▁büyüklük	-11.6192
▁büyüdüğünü	-11.6192
▁Emin	-11.6194
▁kızıl	-11.6195
▁zamanımızı	-11.621
▁gitar	-11.621
▁ilişkilerini	-11.6214
▁tarafındaki	-11.6214
▁Tarım	-11.6216
▁boyama	-11.6217
▁dolaşı	-11.6218
▁ekonomimiz	-11.6219
▁parkın	-11.6219
▁sürdürme	-11.6219
▁kuruluşu	-11.6222
▁organizmaların	-11.6222
▁arkadaşlarımla	-11.6222
▁korkar	-11.6224
▁boşlukta	-11.6224
▁yaklaşır	-11.6225
ıyordum	-11.6226
▁kaçınız	-11.6228
▁sırtında	-11.6228
▁düğün	-11.623
▁oyunda	-11.623
▁büyümesini	-11.6231
▁oralarda	-11.6232
▁Maria	-11.6232
▁açtık	-11.6232
cileri	-11.6233
▁oylama	-11.6239
▁kardeşleri	-11.6241
larımda	-11.6241
▁hayalet	-11.6242
ilebilecek	-11.6243
▁hesaplamalar	-11.6244
▁Gerek	-11.6245
▁önerdi	-11.6246
▁yatırımı	-11.6248
▁polisi	-11.6249
▁raporu	-11.6249
ranın	-11.625
▁kutular	-11.6254
▁sürükley	-11.6255
▁kalbiniz	-11.6255
▁çözecek	-11.6257
▁Sıfır	-11.626
▁duymadığı	-11.626
▁neslin	-11.6263
▁bırakıldı	-11.6263
▁vücudumuzu	-11.6263
▁yörüngesinde	-11.6264
▁şunları	-11.6264
▁andı	-11.6264
▁çıkarken	-11.6264
▁işlemler	-11.6267
▁ayın	-11.6271
▁yönetmek	-11.6273
▁tokuş	-11.6275
▁kahramanları	-11.6279
▁ekliyor	-11.628
▁yükü	-11.628
▁batır	-11.6281
▁hoşun	-11.6281
istler	-11.6283
▁olamayacağı	-11.6283
▁yaşım	-11.6283
▁deneyimini	-11.6285
bah	-11.6285
▁vurgulama	-11.6285
▁yapabilirdi	-11.6287
▁siteleri	-11.6287
▁hastaneler	-11.6287
▁kemer	-11.6288
omen	-11.6289
▁değersiz	-11.6289
▁reddetti	-11.6291
▁şaşırttı	-11.6293
▁Evde	-11.6294
▁sıçra	-11.6295
▁varlığın	-11.6296
▁atılmış	-11.6296
▁kafasında	-11.6298
▁koruyacak	-11.63
▁yabancılar	-11.6301
▁sorunla	-11.6305
▁bilincin	-11.6305
▁dahilinde	-11.631
▁birleştirmek	-11.6312
▁kokusu	-11.6314
▁bilmediğim	-11.6316
▁ulaşabilme	-11.6322
diğimizde	-11.6322
▁bölgelere	-11.6324
ekstil	-11.6324
▁tesisler	-11.6324
▁sonda	-11.6326
▁istendi	-11.6326
▁hazırlıyor	-11.6327
▁kısıtlama	-11.6328
▁kurs	-11.6329
emeyeceğimiz	-11.633
▁imkanları	-11.6331
▁gidebileceği	-11.6332
▁göstermeme	-11.6333
▁yoğunluğunu	-11.6334
▁karşılaştık	-11.6335
▁gösteriş	-11.6336
▁bazlı	-11.6338
mazsanız	-11.6339
▁çağırdı	-11.634
▁uzmanların	-11.6342
▁sürüş	-11.6342
▁ihtiyacın	-11.6345
itim	-11.6349
utu	-11.6351
▁dönüştürü	-11.6353
▁öğrenim	-11.6353
▁fiziği	-11.6354
▁hazırladı	-11.6355
OS	-11.6356
▁olurum	-11.6357
▁oluşma	-11.6358
▁etmekle	-11.6359
▁ekibin	-11.6361
▁yayınlanma	-11.6362
▁form	-11.6362
MA	-11.6363
▁tarafsız	-11.6364
▁ayrılıyor	-11.6366
rence	-11.6368
▁görmediği	-11.637
▁biçimlendir	-11.6371
▁taktı	-11.6371
lendirilmiş	-11.6374
▁uyandıra	-11.6374
▁ço	-11.6376
▁düşünüyorlardı	-11.6379
▁dönmüş	-11.6382
▁baca	-11.6383
▁kısma	-11.6384
▁donu	-11.6386
▁koşma	-11.6387
▁toplayı	-11.6388
▁civarı	-11.6388
likli	-11.639
▁bakmanız	-11.6392
▁isteğim	-11.6394
▁şunun	-11.6396
▁görebileceği	-11.6398
▁Gold	-11.6398
▁günümüzü	-11.64
▁görüşleri	-11.6401
▁yapmamızı	-11.6404
▁tasarımcısı	-11.6406
▁uydurma	-11.641
illa	-11.6411
▁önleme	-11.6418
▁Pete	-11.6419
▁suyunu	-11.6419
▁çatla	-11.6419
▁keşfedildi	-11.642
von	-11.6424
▁nötr	-11.6424
▁pes	-11.6424
▁Black	-11.6424
▁kopru	-11.6424
▁Philadelphia	-11.6425
▁basketbol	-11.6425
▁dikdörtgen	-11.6425
▁istiridye	-11.6425
▁mevzu	-11.6425
▁müzakere	-11.6425
▁palmiye	-11.6425
▁asfalt	-11.6425
▁Bakteriler	-11.6425
hristoph	-11.6425
▁Bağımsız	-11.6425
▁metropol	-11.6425
▁Tayland	-11.6425
▁Mandela	-11.6425
▁döviz	-11.6425
▁kapsül	-11.6425
▁sicim	-11.6425
▁Kamu	-11.6425
▁Mesaj	-11.6425
▁bayılır	-11.6425
▁şirin	-11.6425
▁aksanı	-11.6425
▁döndürme	-11.6426
▁bahsedelim	-11.6427
▁Philip	-11.6427
▁Monter	-11.6427
ıvı	-11.6427
▁Pop	-11.6427
▁düzenleyen	-11.6427
▁cesaretlendir	-11.6427
utube	-11.6427
▁kabı	-11.6428
▁meşru	-11.6428
▁sunulan	-11.6428
▁Duygu	-11.6429
▁paylaşıla	-11.6429
▁maksim	-11.6429
▁göstermektedir	-11.643
▁Satur	-11.643
▁inanmıyorum	-11.6431
▁faktörü	-11.6432
▁vermeliyiz	-11.6432
▁birebir	-11.6434
▁kullanırız	-11.6435
zerine	-11.6435
▁geçirmeye	-11.6437
▁kuraklık	-11.6437
▁farz	-11.6438
▁olmaktadır	-11.6438
▁büyümesi	-11.6438
▁çöker	-11.6439
▁dokuyu	-11.6441
ington	-11.6441
▁yetisi	-11.6441
▁gelirdi	-11.6442
urada	-11.6442
▁toplayan	-11.6443
▁tarafları	-11.6443
▁vefat	-11.6444
▁sarmal	-11.6445
▁pasta	-11.6445
▁edeceğimiz	-11.6446
▁yapmıyorum	-11.6446
▁adamış	-11.6447
▁kesilmiş	-11.6447
▁dereceye	-11.6447
▁tuzlu	-11.6448
▁değişecek	-11.6448
iel	-11.645
▁Sevgili	-11.645
▁duyuyordu	-11.6452
▁genişliği	-11.6452
▁jet	-11.6452
▁ulaşmış	-11.6453
▁gördüğümüzde	-11.6453
▁gözlerimi	-11.6457
▁işlenmiş	-11.6457
▁ayrılır	-11.6457
▁düzenledi	-11.6458
▁asır	-11.6459
▁şifreleme	-11.646
▁kullanabilme	-11.6462
abiliyorum	-11.6463
▁galib	-11.6463
▁mühendisleri	-11.6465
▁kanunlar	-11.6465
▁karada	-11.6467
▁karo	-11.6467
▁yasaları	-11.6468
▁kaptır	-11.6469
▁kırılma	-11.6473
▁süreçler	-11.6473
▁Gay	-11.6473
▁öncelikli	-11.6474
ount	-11.6476
binlerce	-11.6476
▁işlediği	-11.648
▁göründü	-11.6481
▁olmakta	-11.6482
▁ipi	-11.6485
▁hayatlarımızı	-11.6485
▁Aşı	-11.6489
cher	-11.6491
▁düştüğünü	-11.6491
▁etmişler	-11.6491
▁söylerler	-11.6494
▁Bang	-11.6494
▁güvenme	-11.6495
▁Bebek	-11.6495
▁geçerlidir	-11.6495
rasi	-11.6495
▁yemeye	-11.6497
▁söylüyoruz	-11.6498
▁dolaşma	-11.6499
▁zamanlarında	-11.65
▁tonu	-11.65
▁attım	-11.65
▁bakıl	-11.6501
▁kulakları	-11.6503
▁kafamı	-11.6503
▁yönlendiril	-11.6504
▁hayatlar	-11.6505
▁yapardım	-11.6506
▁hazırlık	-11.6507
▁haberleşme	-11.6507
▁öğrencilerimiz	-11.6507
▁düşündüğümde	-11.6508
▁büyüklüğünü	-11.6508
abilirdi	-11.6513
▁Düş	-11.6513
▁ömrünü	-11.6519
▁düşmanı	-11.6519
ennet	-11.652
▁bedenin	-11.6521
▁prensipleri	-11.6521
▁canlıları	-11.6523
▁grafikler	-11.6524
▁derecesi	-11.6526
▁Bilin	-11.6527
▁uçu	-11.6528
▁dönüştürdü	-11.6528
▁tabir	-11.6528
▁Kimin	-11.6528
▁olamadı	-11.6529
▁Str	-11.6529
▁sayıyı	-11.653
tah	-11.653
alim	-11.6534
▁olabilmesi	-11.6536
▁meseleler	-11.6536
▁girişi	-11.6539
▁çalışıyorduk	-11.654
nutmayın	-11.6545
▁yokluğu	-11.6546
▁kaçtı	-11.6548
▁verilir	-11.6553
luş	-11.6554
▁por	-11.6554
▁kalanında	-11.6556
▁yakıtlar	-11.6558
▁devrimin	-11.6559
hai	-11.6561
mızdır	-11.6561
▁terimi	-11.6562
layabilmek	-11.6564
▁Milo	-11.6565
▁görselleştirme	-11.6566
▁harcadığı	-11.6567
▁karşılamak	-11.6567
▁yakınlaştır	-11.6572
▁getirebil	-11.6573
▁kazanacak	-11.6575
▁akıyor	-11.6578
▁üretebil	-11.6578
▁ürettiğimiz	-11.6579
▁babaları	-11.6579
▁hisleri	-11.658
▁Büyü	-11.6581
▁listesinde	-11.6581
suyla	-11.6583
lanmıyor	-11.6585
iseniz	-11.6587
ustu	-11.6589
▁kesik	-11.6589
▁Geleceğin	-11.6591
▁önündeki	-11.6591
llah	-11.6592
▁kaynağını	-11.6592
▁destekler	-11.6593
▁gözümü	-11.6593
ağaca	-11.6594
▁açılı	-11.6597
lenmişti	-11.6597
▁duymuyor	-11.6599
▁projem	-11.66
▁istediğinde	-11.6603
igan	-11.6603
▁tasarımları	-11.6605
▁sorabilir	-11.6605
▁tohumları	-11.6605
▁beyninizi	-11.6607
▁savaşıyor	-11.6607
▁kısıt	-11.6608
eceğimi	-11.6609
▁uçurma	-11.661
▁Vo	-11.6615
▁dişleri	-11.6616
▁toplumumuzu	-11.6619
▁mat	-11.6623
▁tasarladı	-11.6626
▁tehlikesi	-11.6626
▁kanalları	-11.6628
▁koyacak	-11.6629
▁gezegenimizde	-11.663
▁salonun	-11.663
▁çalışın	-11.6632
▁kurtaracak	-11.6632
▁eskisi	-11.6632
▁kaybetmek	-11.6634
▁bırakacak	-11.6638
▁ayrılık	-11.6638
▁parlaya	-11.6639
ciliği	-11.6641
▁kaydır	-11.6644
star	-11.6646
▁ülkelerinde	-11.6646
▁kurtarmaya	-11.6646
acaklarını	-11.6649
▁konsepti	-11.665
▁kısımda	-11.6654
▁yatırımcılar	-11.6655
▁gelişimini	-11.6655
▁seviyey	-11.6657
▁yediğimiz	-11.6663
▁niyeti	-11.6664
rlie	-11.6664
▁Ap	-11.6666
▁kutuları	-11.6666
▁alg	-11.6667
▁çocukla	-11.667
▁çevirir	-11.6671
▁büyüğü	-11.6674
▁biyologlar	-11.6681
▁konuştuğunu	-11.6681
▁gitmesini	-11.6686
eceğinizi	-11.6687
▁sokaklar	-11.6687
▁bahsetmişti	-11.669
dukları	-11.669
▁toplumumuz	-11.6693
▁yeteneğimiz	-11.6695
sari	-11.6696
▁çizdi	-11.6698
▁oyunların	-11.6698
▁Beat	-11.6704
lup	-11.6705
▁bedel	-11.6706
kov	-11.6707
▁dener	-11.6708
▁insansı	-11.6708
Yüzyıl	-11.6709
▁metaboli	-11.671
▁konumda	-11.671
evabı	-11.671
▁İhtiyacı	-11.671
▁Benjamin	-11.671
▁Elizabeth	-11.671
▁Kosova	-11.671
▁Mevcu	-11.671
▁Sürdürülebilir	-11.671
▁fantastik	-11.671
▁kronik	-11.671
▁manevra	-11.671
▁prosedür	-11.671
▁vajina	-11.671
▁Belediye	-11.671
▁durağan	-11.671
▁kıvılcım	-11.671
▁zırh	-11.671
▁Tibet	-11.671
▁şeref	-11.671
▁nitelendir	-11.671
▁tırnak	-11.671
▁besliyor	-11.671
▁yüce	-11.6711
▁anlaşmazlık	-11.6711
▁santim	-11.6711
▁kapasitesini	-11.6711
▁Nathan	-11.6711
▁muhbir	-11.6711
▁samimiyet	-11.6711
▁tanımladığı	-11.6711
▁Geniş	-11.6711
▁izleyerek	-11.6711
▁uyumsuz	-11.6712
▁erişilebilir	-11.6712
▁davul	-11.6712
ladığınız	-11.6713
▁gerçekleşecek	-11.6714
▁seçici	-11.6715
▁karavan	-11.6716
▁uzaklık	-11.6717
▁Garip	-11.6718
▁düşüncelerini	-11.6718
▁büyüdüğüm	-11.6718
▁barındıran	-11.6719
▁yerleştiriyor	-11.672
▁tarafını	-11.6721
▁edecekler	-11.6722
▁tepkisi	-11.6722
▁geçelim	-11.6723
▁Hoş	-11.6723
▁sualtı	-11.6724
▁keyfi	-11.6724
▁gelmektedir	-11.6725
▁Verme	-11.6726
▁anlıyorsunuz	-11.6726
▁hissetmiyor	-11.6726
▁Dağ	-11.6726
▁göreceli	-11.6729
▁bekliyoruz	-11.6729
ğle	-11.673
▁Terör	-11.673
▁uygarlık	-11.6731
▁semptom	-11.6731
▁kalir	-11.6732
▁poli	-11.6733
▁çıkarı	-11.6734
▁ilerler	-11.6734
bilirdik	-11.6734
▁cevabım	-11.6734
▁türünü	-11.6734
▁aşan	-11.6734
▁hanım	-11.6735
▁delice	-11.6736
▁evlendi	-11.6737
▁tasarlamaya	-11.6737
▁karikatürist	-11.6737
▁fareler	-11.6738
▁dalları	-11.6738
▁bilemiyorum	-11.6738
▁kullanabil	-11.6739
▁aralarındaki	-11.674
▁testleri	-11.6742
▁üzerimde	-11.6743
▁Hall	-11.6743
▁olduğumuzdan	-11.6743
▁karşınızda	-11.6745
çilik	-11.6746
▁etkileşimde	-11.6747
▁boyuta	-11.6747
▁bakanı	-11.6747
▁MA	-11.6749
▁Gücü	-11.6749
▁isteyebilir	-11.6749
▁ucun	-11.675
▁yatar	-11.6751
▁Yasası	-11.6751
▁sıralar	-11.6752
▁saçları	-11.6753
▁Kızlar	-11.6755
▁haritalar	-11.6755
▁sunan	-11.6756
▁patladı	-11.6757
▁ironik	-11.6757
▁anlamanız	-11.6758
▁istiyorlardı	-11.6759
▁öyküler	-11.676
▁barındırıyor	-11.676
▁bulduğunuz	-11.676
▁refahı	-11.6762
▁yüzleşme	-11.6763
▁Gidi	-11.6763
▁canavarı	-11.677
▁girdiği	-11.6772
▁beklediği	-11.6773
▁Çoğumuz	-11.6773
düs	-11.6774
▁kumar	-11.6776
▁süzül	-11.6779
▁dönüştürücü	-11.6782
▁tepkiler	-11.6783
▁ulaşmaya	-11.6784
sif	-11.6784
laşması	-11.6785
▁değildik	-11.6786
▁topladığı	-11.6788
▁uçakları	-11.6788
▁kuruş	-11.679
▁müşteriler	-11.679
▁Tat	-11.6794
▁Yü	-11.6794
▁oyuncusu	-11.6797
▁Beden	-11.6798
▁cansız	-11.6799
▁koç	-11.68
▁kesici	-11.6802
▁eğlendir	-11.6802
▁salonu	-11.6802
metre	-11.6803
▁amaçla	-11.6804
▁hırslı	-11.6804
▁Düz	-11.6804
▁yapısına	-11.6811
iger	-11.6814
▁şema	-11.6817
▁vakası	-11.6818
ırdım	-11.6818
▁inanılmazdı	-11.6819
▁tüketme	-11.682
▁alanındaki	-11.682
▁çatlaklar	-11.6821
▁cihazın	-11.6821
▁yarayacak	-11.6824
▁kullanılacak	-11.6825
▁proto	-11.6826
maktı	-11.6829
▁gülüyor	-11.683
▁kuşağı	-11.6832
ness	-11.6832
▁işlemleri	-11.6832
▁ortamın	-11.6835
▁eğitimde	-11.6839
▁hamuru	-11.684
▁başarabil	-11.6841
▁zekanın	-11.6841
▁far	-11.6843
▁bastı	-11.6845
▁ilginçti	-11.6845
cektir	-11.6847
▁kültürleri	-11.6847
▁Mad	-11.6847
ome	-11.6848
▁logo	-11.6848
▁etkilediğini	-11.685
▁dağılım	-11.6851
▁yemeğinde	-11.6853
▁toplantısı	-11.6855
▁firmaları	-11.6857
▁olmadığından	-11.6859
▁müşterileri	-11.686
▁mail	-11.686
ook	-11.686
▁yaşamakta	-11.6862
▁kalmasını	-11.6864
▁başarabilir	-11.6867
▁zorluğu	-11.6867
▁güvenin	-11.6867
▁anlamış	-11.6871
▁hangisini	-11.6873
▁boyutunu	-11.6875
ordan	-11.6877
▁işlerde	-11.6878
▁yiyecekleri	-11.6882
▁etkileşimin	-11.6882
▁Değişim	-11.6885
▁yaratıcılığın	-11.6887
▁vermenin	-11.6889
▁olmanızı	-11.6889
▁harcamak	-11.6891
teyiz	-11.6892
ics	-11.6894
▁kölelik	-11.6896
▁temizlemek	-11.6898
▁bilimcileri	-11.6899
▁baskısı	-11.6899
▁kaydetmek	-11.69
▁hikayelerin	-11.6902
▁toplumları	-11.6903
▁bebeğim	-11.6907
▁durun	-11.6909
sho	-11.691
ibri	-11.6913
▁yazarlar	-11.6914
[...]
